<unk>	0
<s>	0
</s>	0
▁ا	-0
▁ب	-1
▁م	-2
▁د	-3
▁ک	-4
▁ی	-5
▁ه	-6
▁و	-7
▁ر	-8
▁ت	-9
ان	-10
▁.	-11
▁ن	-12
ای	-13
ست	-14
▁ش	-15
ار	-16
ند	-17
▁در	-18
ین	-19
▁س	-20
▁به	-21
▁می	-22
▁،	-23
▁خ	-24
▁آ	-25
▁را	-26
▁از	-27
▁که	-28
ود	-29
▁است	-30
ید	-31
▁با	-32
▁گ	-33
▁پ	-34
▁این	-35
▁بر	-36
▁ف	-37
رد	-38
اد	-39
▁ان	-40
ام	-41
▁ج	-42
▁های	-43
ال	-44
▁ح	-45
▁ع	-46
▁ز	-47
▁چ	-48
ور	-49
▁ق	-50
▁کن	-51
اه	-52
ما	-53
یر	-54
▁یک	-55
▁آن	-56
▁تو	-57
▁هم	-58
▁برای	-59
شت	-60
▁ها	-61
▁ل	-62
یم	-63
▁شد	-64
▁رو	-65
فت	-66
▁ط	-67
اب	-68
▁دار	-69
ون	-70
لی	-71
▁کرد	-72
▁ات	-73
ری	-74
▁من	-75
لا	-76
از	-77
▁مو	-78
▁ای	-79
ها	-80
سی	-81
▁یا	-82
را	-83
گر	-84
▁کار	-85
رو	-86
▁او	-87
▁ده	-88
▁ص	-89
▁خود	-90
▁شما	-91
▁نی	-92
▁ند	-93
▁توان	-94
▁بود	-95
می	-96
▁دا	-97
▁خو	-98
اده	-99
▁تر	-100
▁باش	-101
▁تا	-102
▁دو	-103
▁ما	-104
▁بی	-105
یت	-106
▁کند	-107
▁:	-108
▁شود	-109
▁دی	-110
▁کنند	-111
▁ام	-112
تر	-113
▁شده	-114
▁ال	-115
▁سال	-116
▁(	-117
مان	-118
یا	-119
▁هر	-120
خت	-121
▁)	-122
▁کنید	-123
▁1	-124
▁هست	-125
زی	-126
▁ار	-127
تی	-128
ول	-129
▁اند	-130
گی	-131
▁ید	-132
اید	-133
اس	-134
دا	-135
▁اف	-136
▁ست	-137
وی	-138
▁دان	-139
اری	-140
نو	-141
▁یی	-142
▁داشت	-143
▁»	-144
▁0	-145
▁؟	-146
نگ	-147
ده	-148
کن	-149
▁غ	-150
▁دست	-151
▁اما	-152
▁پی	-153
▁باشد	-154
▁گر	-155
رک	-156
▁دارد	-157
▁مح	-158
▁حال	-159
▁نمی	-160
▁آنها	-161
▁وا	-162
بت	-163
▁2	-164
▁باید	-165
یل	-166
▁تح	-167
▁قر	-168
▁فر	-169
▁اگر	-170
زار	-171
▁«	-172
▁کم	-173
له	-174
▁مع	-175
▁چه	-176
▁دیگر	-177
مو	-178
▁فاده	-179
ات	-180
بی	-181
▁شو	-182
▁واه	-183
▁"	-184
▁چی	-185
انه	-186
▁رس	-187
▁سی	-188
▁اس	-189
▁بار	-190
قی	-191
▁نظ	-192
در	-193
مای	-194
▁بین	-195
▁مت	-196
امه	-197
رف	-198
فته	-199
جود	-200
▁سر	-201
عی	-202
▁انج	-203
▁مش	-204
نی	-205
▁نش	-206
▁۱	-207
▁زمان	-208
▁زند	-209
▁مورد	-210
▁نو	-211
▁داد	-212
▁تن	-213
▁چن	-214
جه	-215
▁هستند	-216
▁گذ	-217
▁بد	-218
که	-219
▁کش	-220
▁تواند	-221
▁مان	-222
▁دهد	-223
▁انجام	-224
▁گاه	-225
▁نا	-226
▁کرده	-227
▁یم	-228
عه	-229
▁ری	-230
▁مر	-231
▁مس	-232
بر	-233
عد	-234
اف	-235
▁روز	-236
▁خواه	-237
▁-	-238
▁اج	-239
▁سا	-240
▁نیست	-241
▁تم	-242
با	-243
▁هی	-244
▁وجود	-245
زش	-246
▁مرد	-247
▁قرار	-248
▁همه	-249
وا	-250
انی	-251
دید	-252
▁مه	-253
▁نه	-254
شتر	-255
کر	-256
▁بیشتر	-257
▁چنین	-258
▁اح	-259
▁جه	-260
کا	-261
▁نیز	-262
▁عنو	-263
▁عنوان	-264
▁ساز	-265
ارد	-266
▁ین	-267
▁وی	-268
رکت	-269
عت	-270
▁بخ	-271
▁!	-272
به	-273
▁مد	-274
▁زی	-275
▁مم	-276
فا	-277
▁اد	-278
▁وق	-279
مین	-280
▁توس	-281
▁پس	-282
امل	-283
▁پیش	-284
▁دارند	-285
▁داشته	-286
خص	-287
▁انت	-288
▁هایی	-289
▁خواهد	-290
▁رن	-291
▁زندگی	-292
▁ور	-293
نا	-294
▁۰	-295
▁تص	-296
▁دانش	-297
ایی	-298
▁نق	-299
▁تج	-300
▁ث	-301
ونه	-302
▁شوند	-303
▁ممکن	-304
▁ذ	-305
▁بز	-306
▁اط	-307
▁روی	-308
▁نظر	-309
▁e	-310
ادی	-311
▁گو	-312
وری	-313
▁اق	-314
▁9	-315
▁داده	-316
▁۲	-317
▁گفت	-318
وم	-319
▁کس	-320
▁s	-321
▁کو	-322
▁راه	-323
ایت	-324
قه	-325
مل	-326
▁شرکت	-327
▁اه	-328
▁بسی	-329
رگ	-330
▁بسیار	-331
▁واق	-332
▁ض	-333
▁مق	-334
یده	-335
▁کردن	-336
یک	-337
▁نگ	-338
▁خا	-339
▁هیچ	-340
▁نیاز	-341
کل	-342
فر	-343
▁3	-344
▁طور	-345
▁تنها	-346
▁زن	-347
▁کنیم	-348
▁اش	-349
▁اص	-350
▁یکی	-351
▁تغ	-352
▁ترین	-353
نده	-354
▁جم	-355
چه	-356
▁مری	-357
هر	-358
▁مریکا	-359
▁S	-360
▁افر	-361
▁بخش	-362
▁؛	-363
ورت	-364
▁رنامه	-365
▁5	-366
▁پر	-367
سان	-368
▁افراد	-369
▁تمام	-370
▁بعد	-371
▁بزرگ	-372
گیر	-373
▁کل	-374
▁قب	-375
▁کمک	-376
▁آم	-377
▁اول	-378
▁مردم	-379
▁ي	-380
▁مند	-381
خا	-382
کی	-383
▁چند	-384
▁جدید	-385
▁یت	-386
▁نام	-387
▁صورت	-388
▁فق	-389
▁ك	-390
▁بازی	-391
شته	-392
▁اع	-393
▁تان	-394
قیق	-395
▁باره	-396
▁C	-397
لت	-398
وه	-399
▁نشان	-400
لام	-401
خی	-402
▁دور	-403
▁i	-404
ییر	-405
▁تغییر	-406
ابر	-407
▁چیزی	-408
صد	-409
جا	-410
▁گیر	-411
▁یاب	-412
▁4	-413
لب	-414
وت	-415
▁زیر	-416
طر	-417
▁دن	-418
▁کت	-419
▁نس	-420
وان	-421
▁A	-422
اره	-423
▁کشور	-424
▁ساخت	-425
▁دل	-426
▁اخ	-427
▁دهند	-428
▁دوست	-429
▁شان	-430
▁پای	-431
▁انه	-432
▁توسط	-433
▁کنم	-434
▁افز	-435
رائ	-436
▁سو	-437
..	-438
▁ارت	-439
الی	-440
▁باز	-441
▁کا	-442
▁مج	-443
شه	-444
▁ایج	-445
▁ایجاد	-446
▁آیا	-447
▁نت	-448
▁خانه	-449
▁حد	-450
▁فقط	-451
▁تب	-452
▁چیز	-453
▁ً	-454
بان	-455
حی	-456
▁ماه	-457
ژی	-458
ابل	-459
▁عمو	-460
▁حا	-461
▁ایر	-462
▁مانند	-463
▁رفت	-464
لو	-465
▁پرو	-466
▁حق	-467
▁وان	-468
▁اب	-469
ارت	-470
▁واقع	-471
▁جهان	-472
▁یافت	-473
▁”	-474
▁طول	-475
▁زمین	-476
لف	-477
عیت	-478
▁بیش	-479
سه	-480
▁n	-481
▁گی	-482
▁روش	-483
▁سیاری	-484
▁6	-485
▁تع	-486
▁غیر	-487
▁8	-488
▁حتی	-489
▁رد	-490
▁تول	-491
▁باشید	-492
▁انتخا	-493
▁اینکه	-494
▁M	-495
▁مط	-496
لیل	-497
▁t	-498
▁بن	-499
ثر	-500
▁خان	-501
ره	-502
شد	-503
▁شهر	-504
▁P	-505
ساس	-506
▁سه	-507
ادر	-508
▁اطلا	-509
▁اطلاع	-510
▁بل	-511
▁شر	-512
شر	-513
▁چگ	-514
▁کردند	-515
▁گرد	-516
ینه	-517
▁ود	-518
▁دید	-519
▁برخی	-520
▁هد	-521
▁فرو	-522
▁لی	-523
▁مهم	-524
▁انداز	-525
ژه	-526
▁باشند	-527
▁لا	-528
▁ایران	-529
▁آی	-530
▁یه	-531
▁تما	-532
ضو	-533
▁۹	-534
▁7	-535
زه	-536
▁گرفت	-537
▁زمانی	-538
▁درصد	-539
ضی	-540
▁ژ	-541
یدا	-542
▁افزای	-543
▁انسان	-544
ستم	-545
▁فیل	-546
▁شب	-547
ورد	-548
صی	-549
▁یل	-550
▁کاری	-551
▁کسی	-552
گاه	-553
▁[	-554
▁اک	-555
▁کتاب	-556
▁دهید	-557
▁قدر	-558
▁کود	-559
▁ایم	-560
▁شن	-561
▁علا	-562
▁فکر	-563
▁شور	-564
▁کودک	-565
▁مث	-566
▁تولید	-567
▁سیا	-568
زد	-569
▁شخص	-570
ریق	-571
▁جنگ	-572
▁B	-573
مایش	-574
▁ِ	-575
▁چرا	-576
on	-577
بود	-578
تب	-579
▁واهید	-580
▁ارائ	-581
▁گرفته	-582
▁“	-583
▁تش	-584
▁ارائه	-585
▁...	-586
رس	-587
▁آب	-588
▁جای	-589
▁خار	-590
یس	-591
▁بودند	-592
▁چگونه	-593
▁T	-594
▁تلا	-595
وق	-596
▁خد	-597
▁وقتی	-598
▁مشکل	-599
مت	-600
سته	-601
▁سازم	-602
زینه	-603
▁بدون	-604
▁نم	-605
▁همین	-606
کان	-607
شم	-608
▁غذ	-609
▁ظ	-610
▁بوده	-611
▁همان	-612
▁هنگ	-613
کار	-614
▁پیدا	-615
▁سیستم	-616
▁شدن	-617
▁قابل	-618
▁دارید	-619
▁گرو	-620
▁شرو	-621
▁مص	-622
▁فرد	-623
▁نخ	-624
▁۳	-625
▁گروه	-626
▁خی	-627
ایل	-628
▁زیادی	-629
▁a	-630
▁شنا	-631
▁D	-632
▁–	-633
ترین	-634
روز	-635
▁نفر	-636
▁احساس	-637
▁خوب	-638
▁کاه	-639
راحی	-640
▁کننده	-641
▁شم	-642
▁شروع	-643
▁­	-644
▁دلیل	-645
▁پو	-646
▁هنگام	-647
بو	-648
▁خیلی	-649
▁کاهش	-650
▁دیگ	-651
▁حس	-652
ازه	-653
▁واهند	-654
▁I	-655
▁آمو	-656
▁دیر	-657
▁وب	-658
▁پن	-659
فق	-660
▁er	-661
▁دولت	-662
▁لو	-663
▁توجه	-664
اشت	-665
▁خدا	-666
زان	-667
▁فیلم	-668
▁هو	-669
▁ولی	-670
▁بازار	-671
▁الا	-672
تص	-673
▁۵	-674
کس	-675
▁امروز	-676
▁آز	-677
▁r	-678
شان	-679
قل	-680
ضر	-681
▁آورد	-682
▁سایت	-683
تما	-684
دام	-685
▁نک	-686
▁خارج	-687
▁ستان	-688
▁گوی	-689
است	-690
▁زبان	-691
▁,	-692
▁اولین	-693
▁قبل	-694
▁عم	-695
دن	-696
▁فروش	-697
▁هترین	-698
▁دیگری	-699
رکز	-700
▁جن	-701
▁بنابر	-702
▁شک	-703
▁حرف	-704
▁باع	-705
▁مدت	-706
گو	-707
▁تاری	-708
▁قدرت	-709
▁حدود	-710
▁میان	-711
▁کسب	-712
▁منط	-713
▁عد	-714
▁تفا	-715
▁منت	-716
▁همی	-717
▁ارو	-718
▁سن	-719
▁همیشه	-720
or	-721
▁یلی	-722
▁G	-723
▁انگ	-724
▁ندارد	-725
▁تجر	-726
▁جا	-727
▁خواست	-728
▁سط	-729
▁خانوا	-730
▁یاد	-731
▁قان	-732
▁پاس	-733
▁تفاوت	-734
▁باعث	-735
▁H	-736
▁مرا	-737
▁صح	-738
ضوع	-739
▁موضوع	-740
▁خص	-741
▁]	-742
▁درست	-743
▁تلاش	-744
▁ارتبا	-745
▁قانون	-746
▁هدف	-747
▁مخت	-748
ثیر	-749
▁طریق	-750
▁توسعه	-751
▁یابی	-752
▁گذشته	-753
▁رق	-754
▁سری	-755
▁احتما	-756
پا	-757
▁طراحی	-758
طه	-759
بال	-760
مات	-761
▁نزد	-762
▁دنبال	-763
لم	-764
▁خصو	-765
میم	-766
صول	-767
گز	-768
▁اید	-769
▁آنچه	-770
▁افت	-771
▁عال	-772
چک	-773
▁کام	-774
▁عر	-775
▁سپ	-776
سر	-777
▁زنان	-778
▁۴	-779
▁R	-780
▁ره	-781
▁نامه	-782
▁محصول	-783
▁جهانی	-784
صل	-785
▁E	-786
▁بدن	-787
رده	-788
▁بهتر	-789
لیه	-790
▁چین	-791
یف	-792
▁گونه	-793
▁شامل	-794
▁هن	-795
▁آینده	-796
▁رمای	-797
▁مختلف	-798
▁هنو	-799
▁یع	-800
▁بیم	-801
▁هنوز	-802
▁وز	-803
ضا	-804
▁گزار	-805
▁جز	-806
اسب	-807
▁نتی	-808
ar	-809
▁تماعی	-810
▁اصلی	-811
قا	-812
▁وسی	-813
▁نوع	-814
خر	-815
▁تصمیم	-816
▁اروپا	-817
▁تاریخ	-818
▁رمایه	-819
▁گفته	-820
▁تحقیق	-821
▁c	-822
▁مسئ	-823
▁نیر	-824
▁طبی	-825
▁وارد	-826
▁ادامه	-827
ریان	-828
▁/	-829
▁تأ	-830
▁المل	-831
▁ته	-832
▁خر	-833
▁سازی	-834
▁الملل	-835
▁F	-836
▁تجربه	-837
▁دادن	-838
▁l	-839
طور	-840
▁L	-841
▁وقت	-842
▁درمان	-843
▁شاه	-844
▁برد	-845
▁اعت	-846
فاق	-847
▁اتفاق	-848
▁کوچک	-849
▁مصرف	-850
▁ساعت	-851
▁نسبت	-852
▁یان	-853
▁حاضر	-854
▁زیرا	-855
▁آل	-856
▁جام	-857
▁رشد	-858
▁جو	-859
▁ران	-860
▁پاسخ	-861
▁هفته	-862
ذیر	-863
▁هوا	-864
▁ملی	-865
▁هزینه	-866
▁نده	-867
▁قط	-868
▁ردا	-869
▁پا	-870
▁بگیر	-871
▁m	-872
رات	-873
▁شورها	-874
رسی	-875
▁آور	-876
▁دارای	-877
▁بررسی	-878
▁نف	-879
ترل	-880
▁عالیت	-881
▁یلیون	-882
▁منطقه	-883
▁سل	-884
▁آموزش	-885
▁تل	-886
▁طر	-887
▁شا	-888
▁حالی	-889
▁کامل	-890
▁ئ	-891
▁کنترل	-892
▁طال	-893
▁خوبی	-894
▁چشم	-895
جر	-896
▁سطح	-897
▁بالا	-898
▁ارزش	-899
▁نزدیک	-900
▁سای	-901
▁داخ	-902
▁برابر	-903
▁چهار	-904
an	-905
▁ثال	-906
▁W	-907
▁نوی	-908
▁کلی	-909
شی	-910
ایط	-911
▁شرایط	-912
▁تبد	-913
▁پشت	-914
▁رسید	-915
▁گذاری	-916
▁همر	-917
▁سلام	-918
▁همراه	-919
▁تبدیل	-920
▁گزارش	-921
وس	-922
▁N	-923
▁صف	-924
▁سف	-925
▁رای	-926
▁مل	-927
▁۶	-928
من	-929
▁مخ	-930
افی	-931
▁دیریت	-932
▁تحت	-933
▁هزار	-934
گان	-935
▁رخ	-936
▁گوید	-937
▁گذار	-938
▁عمل	-939
▁پایان	-940
▁بع	-941
▁نتیجه	-942
ظه	-943
▁ترکی	-944
▁پنج	-945
▁آغ	-946
▁دسترس	-947
▁دوره	-948
▁خاطر	-949
▁یر	-950
▁حل	-951
▁رات	-952
▁۸	-953
هنگ	-954
▁چون	-955
er	-956
▁بلکه	-957
▁آر	-958
▁شدند	-959
▁کاربر	-960
▁صحبت	-961
▁داریم	-962
وند	-963
▁اجازه	-964
▁تک	-965
▁سخت	-966
▁پذیر	-967
ضای	-968
▁مواد	-969
▁اغ	-970
▁شاید	-971
▁دنیا	-972
▁اخت	-973
▁پزش	-974
وز	-975
▁تعد	-976
▁قا	-977
▁فا	-978
یب	-979
▁قد	-980
▁پول	-981
▁صن	-982
▁کمی	-983
▁بیمار	-984
▁تعداد	-985
▁کردم	-986
▁فع	-987
سم	-988
▁یماری	-989
▁شناخت	-990
▁وض	-991
▁شکل	-992
▁عمولا	-993
▁نقل	-994
▁آغاز	-995
▁تق	-996
وار	-997
▁مشت	-998
مه	-999
▁دلار	-1000
▁مثل	-1001
▁جمله	-1002
لاح	-1003
▁راب	-1004
▁طرف	-1005
▁دخ	-1006
▁بند	-1007
مد	-1008
▁آسی	-1009
یط	-1010
یه	-1011
▁شوید	-1012
▁نگاه	-1013
▁الات	-1014
▁بت	-1015
▁رسد	-1016
▁نظام	-1017
لای	-1018
▁b	-1019
▁طب	-1020
رم	-1021
▁واقعی	-1022
ابت	-1023
▁هستید	-1024
▁اتی	-1025
▁آخر	-1026
▁تحده	-1027
▁صفح	-1028
ودی	-1029
شار	-1030
▁خاص	-1031
▁یعنی	-1032
▁اض	-1033
▁بح	-1034
▁مناسب	-1035
▁صد	-1036
اند	-1037
▁اغلب	-1038
▁واقعا	-1039
▁مقد	-1040
▁انر	-1041
▁گیرد	-1042
بوط	-1043
▁خواب	-1044
▁نب	-1045
▁خدمات	-1046
▁رب	-1047
▁امن	-1048
▁رفتار	-1049
مایت	-1050
▁حمایت	-1051
▁مربوط	-1052
هور	-1053
▁قیم	-1054
▁خط	-1055
▁اکن	-1056
▁خون	-1057
▁مدر	-1058
▁زد	-1059
▁سب	-1060
شق	-1061
▁جان	-1062
▁ابت	-1063
▁طالعه	-1064
▁بان	-1065
▁لاز	-1066
▁۷	-1067
▁البت	-1068
▁لازم	-1069
▁داست	-1070
▁g	-1071
▁البته	-1072
▁کسانی	-1073
▁عل	-1074
▁تیم	-1075
▁نگه	-1076
▁پروژه	-1077
▁انرژی	-1078
▁زمینه	-1079
▁عب	-1080
▁مشخص	-1081
▁قیمت	-1082
▁زمایش	-1083
▁سفر	-1084
▁خرید	-1085
▁شبکه	-1086
▁ون	-1087
▁راح	-1088
▁نمایش	-1089
▁واهد	-1090
▁کمتر	-1091
▁گیری	-1092
تصا	-1093
▁اقتصا	-1094
▁منظ	-1095
صر	-1096
▁اعلام	-1097
al	-1098
in	-1099
▁حم	-1100
اط	-1101
▁آنجا	-1102
▁لح	-1103
▁اینجا	-1104
▁رداخت	-1105
▁جوی	-1106
▁روسی	-1107
▁مف	-1108
▁موجود	-1109
▁سیاست	-1110
▁قری	-1111
▁اکنون	-1112
▁d	-1113
ئیس	-1114
الب	-1115
▁بده	-1116
▁عکس	-1117
▁تاثیر	-1118
▁نهاد	-1119
▁کافی	-1120
▁ضر	-1121
▁o	-1122
▁رنگ	-1123
▁سپس	-1124
عا	-1125
▁واهیم	-1126
▁پار	-1127
▁توصی	-1128
▁سایر	-1129
▁ایده	-1130
▁کنار	-1131
▁تمرکز	-1132
ته	-1133
▁سریع	-1134
▁كه	-1135
▁فرهنگ	-1136
ئن	-1137
▁دوم	-1138
▁ۀ	-1139
▁نداشت	-1140
▁سیاسی	-1141
▁درک	-1142
ظا	-1143
راف	-1144
▁انتظا	-1145
▁لب	-1146
▁داشتن	-1147
▁وفق	-1148
▁یشر	-1149
▁قریبا	-1150
دی	-1151
▁انگل	-1152
▁اقدام	-1153
▁نقش	-1154
▁مالی	-1155
▁جامعه	-1156
▁طبیعی	-1157
تری	-1158
▁شناس	-1159
▁O	-1160
▁درد	-1161
▁بهبود	-1162
▁اساس	-1163
▁آش	-1164
▁خصوص	-1165
▁یشرفت	-1166
▁چنان	-1167
▁نویس	-1168
▁نگر	-1169
▁مرگ	-1170
▁هرگز	-1171
▁روند	-1172
▁ساخته	-1173
▁تکن	-1174
▁دارم	-1175
▁in	-1176
▁دارو	-1177
▁ویژه	-1178
▁کنندگ	-1179
▁ولو	-1180
▁پرس	-1181
▁حساب	-1182
▁بعضی	-1183
▁موارد	-1184
▁حف	-1185
زند	-1186
▁خورد	-1187
▁ساده	-1188
▁ول	-1189
▁سرا	-1190
▁امکان	-1191
▁حدا	-1192
▁حرکت	-1193
▁مک	-1194
▁حداقل	-1195
▁وفقیت	-1196
▁بودن	-1197
▁فرزند	-1198
خه	-1199
▁یسی	-1200
▁فرا	-1201
▁سرعت	-1202
▁تخ	-1203
▁مغ	-1204
▁رابطه	-1205
▁بگ	-1206
کم	-1207
▁چر	-1208
هم	-1209
▁یون	-1210
▁صفحه	-1211
▁یافته	-1212
▁آمد	-1213
▁روسیه	-1214
▁علیه	-1215
▁دقیق	-1216
▁فرم	-1217
▁عمومی	-1218
▁خطر	-1219
▁دهیم	-1220
▁دیده	-1221
▁شخصی	-1222
he	-1223
▁فرص	-1224
▁وش	-1225
▁ّ	-1226
▁حقوق	-1227
▁p	-1228
داشت	-1229
▁تف	-1230
▁آماده	-1231
▁طی	-1232
▁حفظ	-1233
▁چیزها	-1234
یمی	-1235
▁علاوه	-1236
▁10	-1237
▁ترام	-1238
▁گاهی	-1239
▁داوند	-1240
ابع	-1241
ئل	-1242
es	-1243
▁مندان	-1244
▁حاف	-1245
سال	-1246
اپ	-1247
ادا	-1248
▁عو	-1249
▁نبود	-1250
▁ازگ	-1251
▁نمای	-1252
لاق	-1253
ران	-1254
▁بخشی	-1255
اق	-1256
اله	-1257
▁ترس	-1258
کتر	-1259
▁پیو	-1260
▁f	-1261
▁رئیس	-1262
▁آنان	-1263
▁U	-1264
▁ارد	-1265
▁صرف	-1266
ic	-1267
▁نیرو	-1268
▁مکان	-1269
▁رگ	-1270
▁قادر	-1271
▁امید	-1272
▁میزان	-1273
▁داری	-1274
هن	-1275
▁یش	-1276
▁وضعیت	-1277
▁ابزار	-1278
▁u	-1279
آمد	-1280
▁حرفه	-1281
ذار	-1282
▁گویند	-1283
▁سراسر	-1284
▁ابتدا	-1285
▁دانید	-1286
▁غر	-1287
▁شی	-1288
▁ماش	-1289
▁سوی	-1290
▁غذایی	-1291
▁پدر	-1292
تو	-1293
▁جمع	-1294
قات	-1295
▁دختر	-1296
▁وس	-1297
▁آسیب	-1298
▁خوش	-1299
▁بیر	-1300
▁َ	-1301
▁خش	-1302
تان	-1303
▁باور	-1304
▁نظامی	-1305
▁نگران	-1306
▁آزاد	-1307
▁نتای	-1308
en	-1309
کت	-1310
▁مسئول	-1311
▁آید	-1312
▁نتایج	-1313
▁خارجی	-1314
▁کیف	-1315
ظیم	-1316
▁زیبا	-1317
▁سنگ	-1318
اح	-1319
▁شکست	-1320
ویر	-1321
▁خبر	-1322
افق	-1323
▁ناس	-1324
▁ملک	-1325
▁گران	-1326
▁گیرند	-1327
▁اشت	-1328
▁پایین	-1329
▁تس	-1330
▁مادر	-1331
▁اثر	-1332
کو	-1333
▁رود	-1334
▁زیاد	-1335
▁آمده	-1336
▁فشار	-1337
▁تصویر	-1338
تا	-1339
▁اخیر	-1340
▁حقیق	-1341
▁حقیقت	-1342
▁ترن	-1343
▁بتوان	-1344
▁حض	-1345
▁ستق	-1346
▁جایی	-1347
▁V	-1348
▁کدام	-1349
▁هستیم	-1350
▁دهه	-1351
▁ساله	-1352
▁جل	-1353
▁بندی	-1354
▁بینی	-1355
▁مقدار	-1356
▁ورزش	-1357
▁تریان	-1358
▁طولان	-1359
▁ى	-1360
▁حضور	-1361
ظت	-1362
▁نمود	-1363
at	-1364
▁شاهده	-1365
▁جذ	-1366
▁لس	-1367
▁بیان	-1368
▁فعال	-1369
▁تجاری	-1370
▁بست	-1371
▁هنر	-1372
▁بودم	-1373
▁اهدا	-1374
▁گردد	-1375
▁کوت	-1376
▁مسیر	-1377
ندان	-1378
▁بیا	-1379
▁منتشر	-1380
▁هوش	-1381
▁نشده	-1382
▁سعی	-1383
یره	-1384
وب	-1385
▁توانا	-1386
وریه	-1387
▁امنیت	-1388
▁رز	-1389
▁مرتب	-1390
▁مهارت	-1391
▁مدل	-1392
▁نور	-1393
▁پوست	-1394
ومت	-1395
میت	-1396
▁رژ	-1397
ئو	-1398
امبر	-1399
گیری	-1400
▁بچه	-1401
▁اضاف	-1402
▁محیط	-1403
▁کوتاه	-1404
فی	-1405
▁عالی	-1406
▁اي	-1407
▁نباید	-1408
▁اضافه	-1409
▁معنی	-1410
▁غذا	-1411
مئن	-1412
ونت	-1413
ایید	-1414
لق	-1415
▁وزن	-1416
▁تمر	-1417
▁لذ	-1418
▁فرصت	-1419
▁راست	-1420
▁طرح	-1421
▁بگذار	-1422
▁مطمئن	-1423
▁اسرائ	-1424
▁منابع	-1425
▁ایشان	-1426
▁حالا	-1427
▁روشن	-1428
▁مرح	-1429
▁مست	-1430
▁نج	-1431
▁بو	-1432
▁راتژی	-1433
▁زا	-1434
▁ـ	-1435
re	-1436
بری	-1437
▁*	-1438
▁رسانه	-1439
▁مرکز	-1440
▁الله	-1441
▁انی	-1442
▁اکثر	-1443
▁مردان	-1444
▁منظور	-1445
▁ارز	-1446
▁سمت	-1447
▁نوشت	-1448
▁ساب	-1449
st	-1450
▁مبت	-1451
لیس	-1452
تصاد	-1453
▁قای	-1454
▁قتصاد	-1455
▁چیست	-1456
▁اندار	-1457
ابط	-1458
▁بعدی	-1459
جب	-1460
▁جنسی	-1461
▁الت	-1462
لح	-1463
▁محد	-1464
▁شار	-1465
▁رت	-1466
▁ثبت	-1467
▁رند	-1468
▁گذاشت	-1469
▁یات	-1470
▁موفق	-1471
▁اعتما	-1472
▁نوشته	-1473
▁محدود	-1474
▁کلید	-1475
▁متو	-1476
▁زده	-1477
▁بیرون	-1478
oo	-1479
▁اشاره	-1480
قدر	-1481
انس	-1482
▁رم	-1483
▁ستقیم	-1484
یدار	-1485
▁روابط	-1486
خصص	-1487
ئم	-1488
▁شغ	-1489
▁جنو	-1490
▁اتح	-1491
▁اپ	-1492
▁پیر	-1493
▁توصیه	-1494
▁حمله	-1495
▁قس	-1496
▁ترج	-1497
▁مرحله	-1498
▁علاقه	-1499
▁هستم	-1500
▁بسته	-1501
▁ماشین	-1502
▁تشک	-1503
▁باقی	-1504
های	-1505
▁ملکرد	-1506
▁کلا	-1507
▁جهت	-1508
▁ترکیب	-1509
غان	-1510
قیقه	-1511
▁فراه	-1512
▁یابد	-1513
▁دقیقه	-1514
▁ودتان	-1515
▁آسان	-1516
▁خودش	-1517
▁یز	-1518
▁وید	-1519
▁فراهم	-1520
▁افغان	-1521
ou	-1522
▁اتحاد	-1523
▁متوجه	-1524
▁۱۰	-1525
▁کر	-1526
▁پرد	-1527
▁آرام	-1528
▁منجر	-1529
▁داخلی	-1530
ریک	-1531
▁برگ	-1532
▁هسته	-1533
▁اهمیت	-1534
▁گرفتن	-1535
▁توافق	-1536
ضیح	-1537
▁صاح	-1538
▁آگاه	-1539
▁توضیح	-1540
میز	-1541
▁دادند	-1542
▁گزینه	-1543
▁مذ	-1544
موعه	-1545
▁جموعه	-1546
▁فل	-1547
▁صنعت	-1548
▁بلند	-1549
طان	-1550
▁نرم	-1551
▁تشکیل	-1552
▁سرطان	-1553
▁مب	-1554
▁نکن	-1555
▁لین	-1556
▁سالم	-1557
▁قسمت	-1558
▁اهداف	-1559
شید	-1560
▁اتاق	-1561
▁تمرین	-1562
▁اً	-1563
▁شدید	-1564
▁اله	-1565
▁عشق	-1566
▁تحص	-1567
▁مار	-1568
▁جمهور	-1569
▁رف	-1570
▁سلول	-1571
▁کاملا	-1572
▁آخرین	-1573
▁الی	-1574
▁تحصیل	-1575
خیص	-1576
ستر	-1577
▁تشخیص	-1578
▁قطع	-1579
▁داخل	-1580
▁درآمد	-1581
▁دام	-1582
▁تلف	-1583
▁دانند	-1584
▁نیا	-1585
▁بانک	-1586
اهر	-1587
▁نص	-1588
▁پاک	-1589
▁باشیم	-1590
▁سخ	-1591
▁موزان	-1592
جو	-1593
یش	-1594
▁شناسی	-1595
ra	-1596
▁اقعیت	-1597
▁حالت	-1598
▁بینید	-1599
▁محل	-1600
▁جریان	-1601
▁شیر	-1602
▁حو	-1603
▁نقلاب	-1604
صله	-1605
▁تون	-1606
▁فاصله	-1607
لیغ	-1608
▁تمامی	-1609
▁تبلیغ	-1610
▁گان	-1611
▁رژیم	-1612
تل	-1613
▁پشتیب	-1614
▁مشتری	-1615
▁بشر	-1616
▁فصل	-1617
▁بهره	-1618
▁مدرسه	-1619
▁w	-1620
▁آزادی	-1621
▁نهایت	-1622
ro	-1623
▁یو	-1624
▁امر	-1625
▁درون	-1626
▁انوا	-1627
▁رهبر	-1628
▁پرداز	-1629
تباه	-1630
▁شتباه	-1631
▁افتاد	-1632
▁کردیم	-1633
▁قلب	-1634
▁مسا	-1635
▁اجرا	-1636
▁دود	-1637
▁معت	-1638
▁ریزی	-1639
▁دهنده	-1640
▁بحث	-1641
▁وع	-1642
▁پزشکی	-1643
▁آلمان	-1644
▁انواع	-1645
▁ژن	-1646
عیین	-1647
▁نادا	-1648
▁تعیین	-1649
▁زندان	-1650
▁سترده	-1651
▁سوریه	-1652
▁مرتبط	-1653
▁واهم	-1654
▁کنان	-1655
il	-1656
▁K	-1657
▁گستر	-1658
▁وسیقی	-1659
▁دع	-1660
▁مغز	-1661
▁سفید	-1662
▁ترنت	-1663
▁کیفیت	-1664
▁ریا	-1665
▁رگزار	-1666
▁مسائل	-1667
▁دهم	-1668
ion	-1669
▁عرض	-1670
▁تهدید	-1671
▁رست	-1672
▁جوان	-1673
▁مسئله	-1674
▁ولوژی	-1675
نوع	-1676
اطق	-1677
▁مناطق	-1678
▁سلامت	-1679
▁چندین	-1680
گیز	-1681
▁دنی	-1682
▁اطمین	-1683
om	-1684
▁جدا	-1685
شن	-1686
لاین	-1687
▁پیما	-1688
▁نلاین	-1689
▁انگیز	-1690
▁شخصیت	-1691
▁لذت	-1692
▁ارسال	-1693
▁رآ	-1694
▁جست	-1695
▁ویژ	-1696
▁خصوصی	-1697
▁دول	-1698
ادل	-1699
▁طبق	-1700
قال	-1701
▁درو	-1702
▁نتقال	-1703
▁کشف	-1704
▁ساختم	-1705
واج	-1706
▁زدواج	-1707
▁پیام	-1708
ac	-1709
▁زنده	-1710
▁مقاله	-1711
▁حی	-1712
▁فت	-1713
▁لوگیر	-1714
▁زای	-1715
▁نسخه	-1716
▁اسا	-1717
▁روح	-1718
▁نمونه	-1719
▁سوال	-1720
▁سخن	-1721
▁کجا	-1722
▁پزشک	-1723
▁کنون	-1724
▁گوش	-1725
▁اولیه	-1726
▁جویان	-1727
▁ذهن	-1728
▁تحلیل	-1729
▁محلی	-1730
▁بگو	-1731
▁فوق	-1732
▁لیارد	-1733
▁ویژگی	-1734
▁دوران	-1735
▁رانسه	-1736
▁نکنید	-1737
▁تی	-1738
▁راق	-1739
▁کان	-1740
▁خور	-1741
▁اختیا	-1742
یدن	-1743
▁تلفن	-1744
راق	-1745
▁J	-1746
▁اعضای	-1747
▁عراق	-1748
▁وقعیت	-1749
▁قوی	-1750
▁پیوتر	-1751
▁شنو	-1752
حال	-1753
▁آت	-1754
▁تجارت	-1755
▁عا	-1756
▁تأثیر	-1757
▁مهوری	-1758
▁مثبت	-1759
▁وظ	-1760
▁سوم	-1761
▁موا	-1762
▁عامل	-1763
▁معرف	-1764
▁ذیر	-1765
▁اسپ	-1766
▁چال	-1767
▁سرد	-1768
▁گرم	-1769
▁عضو	-1770
▁قرن	-1771
▁تماس	-1772
▁سود	-1773
▁نیم	-1774
▁وال	-1775
سا	-1776
▁عق	-1777
▁راحت	-1778
نه	-1779
▁اور	-1780
▁کره	-1781
▁افزار	-1782
▁تصور	-1783
الت	-1784
▁آتش	-1785
هان	-1786
▁شبی	-1787
▁ونی	-1788
▁الاتر	-1789
▁ترک	-1790
▁مدیر	-1791
▁گسترش	-1792
▁اعم	-1793
▁گن	-1794
▁دانم	-1795
▁دریا	-1796
▁ترکیه	-1797
▁بات	-1798
▁متر	-1799
▁ازی	-1800
▁پل	-1801
▁رفتن	-1802
▁وانین	-1803
دم	-1804
▁پسر	-1805
▁دگاه	-1806
▁ء	-1807
▁ٔ	-1808
▁یچ	-1809
▁میک	-1810
▁صلح	-1811
زا	-1812
فاع	-1813
▁دفاع	-1814
▁راج	-1815
▁شنبه	-1816
▁جدی	-1817
▁قل	-1818
▁ازگشت	-1819
▁پژ	-1820
▁دانست	-1821
آن	-1822
قای	-1823
▁خودرو	-1824
▁فهم	-1825
ol	-1826
گل	-1827
▁خیر	-1828
▁ریکا	-1829
▁تازه	-1830
▁صدا	-1831
▁لند	-1832
▁تنظیم	-1833
▁نقطه	-1834
▁حیوان	-1835
▁اوقات	-1836
▁آقای	-1837
▁ترامپ	-1838
▁رسیده	-1839
▁جدیدی	-1840
▁ورد	-1841
▁عبارت	-1842
▁آدم	-1843
▁شبیه	-1844
▁یور	-1845
▁خودم	-1846
▁متخصص	-1847
▁علی	-1848
▁زیست	-1849
بور	-1850
▁اث	-1851
قت	-1852
▁وری	-1853
▁پوش	-1854
▁چقدر	-1855
▁شدت	-1856
▁بارزه	-1857
el	-1858
▁قصد	-1859
▁تمای	-1860
▁نشانه	-1861
▁صب	-1862
▁ing	-1863
▁مجبور	-1864
▁نفس	-1865
▁عف	-1866
▁نبا	-1867
▁مدار	-1868
حل	-1869
▁اطراف	-1870
▁دنیای	-1871
زب	-1872
▁رج	-1873
▁دکتر	-1874
ستی	-1875
▁نفت	-1876
▁دگیری	-1877
بار	-1878
▁اعمال	-1879
▁سازد	-1880
ابه	-1881
▁رک	-1882
▁کال	-1883
یات	-1884
▁مسی	-1885
▁مال	-1886
▁قدیمی	-1887
ظر	-1888
ازی	-1889
▁عص	-1890
▁میر	-1891
▁پژوه	-1892
it	-1893
▁حزب	-1894
▁یانه	-1895
▁مقابل	-1896
▁تری	-1897
▁هداشت	-1898
▁ریز	-1899
▁پست	-1900
▁معرفی	-1901
▁گوگل	-1902
▁مشترک	-1903
یتی	-1904
▁وجه	-1905
▁دستور	-1906
▁چطور	-1907
▁ایگاه	-1908
▁جمعیت	-1909
▁ُ	-1910
▁جستجو	-1911
▁ورشید	-1912
▁عه	-1913
▁تال	-1914
▁مفید	-1915
▁آورده	-1916
ستا	-1917
▁صبح	-1918
▁موت	-1919
▁ماند	-1920
▁سرو	-1921
▁دانیم	-1922
▁سیاه	-1923
▁گل	-1924
▁فضای	-1925
▁لع	-1926
▁رسیدن	-1927
▁بس	-1928
▁معم	-1929
▁پژوهش	-1930
▁h	-1931
▁عمر	-1932
▁خت	-1933
▁بنی	-1934
▁موثر	-1935
▁داند	-1936
▁رامو	-1937
▁لباس	-1938
▁ازدید	-1939
▁حک	-1940
▁انطور	-1941
الع	-1942
▁قایسه	-1943
▁مطالع	-1944
▁رقابت	-1945
▁روم	-1946
▁نکته	-1947
وط	-1948
اکر	-1949
چار	-1950
▁لط	-1951
▁راموش	-1952
▁رسمی	-1953
▁رفته	-1954
▁دچار	-1955
▁عدم	-1956
▁همسر	-1957
▁راحتی	-1958
▁نیروی	-1959
▁روان	-1960
▁هند	-1961
▁علمی	-1962
▁اجر	-1963
▁ربین	-1964
▁ایت	-1965
▁خلا	-1966
▁فردی	-1967
▁اختار	-1968
▁زود	-1969
▁دندان	-1970
▁حاصل	-1971
▁مؤ	-1972
انیه	-1973
▁قام	-1974
▁قرآن	-1975
▁روب	-1976
▁خاصی	-1977
قان	-1978
▁هفت	-1979
▁خن	-1980
اپن	-1981
راح	-1982
▁رقر	-1983
▁ژاپن	-1984
▁رقرار	-1985
▁امام	-1986
▁ظاهر	-1987
et	-1988
▁وح	-1989
▁جایگز	-1990
ویز	-1991
▁منیتی	-1992
▁شناسا	-1993
▁ضد	-1994
▁نر	-1995
▁پایه	-1996
▁اشترا	-1997
▁توانم	-1998
▁پرواز	-1999
▁دش	-2000
▁نح	-2001
▁برو	-2002
لات	-2003
▁راقبت	-2004
▁راف	-2005
▁ملیات	-2006
▁موتور	-2007
▁کلاس	-2008
▁مای	-2009
▁تلویز	-2010
▁رنج	-2011
▁افتد	-2012
گار	-2013
▁لام	-2014
▁واح	-2015
▁بپ	-2016
▁فضا	-2017
عهد	-2018
▁مشابه	-2019
▁دین	-2020
▁شش	-2021
▁دیج	-2022
▁مدا	-2023
▁نیو	-2024
▁حققان	-2025
nd	-2026
▁دولتی	-2027
▁عرب	-2028
▁کشت	-2029
▁واکن	-2030
▁دمو	-2031
▁سبک	-2032
▁منب	-2033
▁واکنش	-2034
▁خوردن	-2035
▁وسیله	-2036
ریف	-2037
▁جالب	-2038
▁منبع	-2039
▁یزی	-2040
▁حکومت	-2041
▁علائم	-2042
▁تعریف	-2043
▁ارم	-2044
▁بمان	-2045
▁درجه	-2046
میق	-2047
▁عمیق	-2048
▁علت	-2049
▁وزیر	-2050
▁ماهی	-2051
▁ودشان	-2052
▁دیجیت	-2053
▁20	-2054
▁یب	-2055
▁ابر	-2056
▁کیل	-2057
▁ذخ	-2058
▁اسی	-2059
▁رتی	-2060
▁مانده	-2061
▁حذ	-2062
▁تکر	-2063
▁مبتلا	-2064
▁لیست	-2065
ریم	-2066
▁ضروری	-2067
▁دموکر	-2068
▁هدایت	-2069
▁لحظه	-2070
▁حمل	-2071
▁گون	-2072
▁ائ	-2073
▁سلامی	-2074
▁St	-2075
▁شت	-2076
▁رشته	-2077
وسط	-2078
▁ینگ	-2079
▁متوسط	-2080
▁دشوار	-2081
▁ندگان	-2082
▁v	-2083
▁ستین	-2084
▁بزر	-2085
▁پلیس	-2086
▁اگرچه	-2087
▁بزرگی	-2088
▁تکرار	-2089
is	-2090
اها	-2091
طرح	-2092
▁امور	-2093
▁مطرح	-2094
▁مواجه	-2095
am	-2096
▁حذف	-2097
▁مانی	-2098
▁ثابت	-2099
▁عاشق	-2100
▁موجب	-2101
▁اصلاح	-2102
▁افزود	-2103
▁on	-2104
▁نکرده	-2105
ay	-2106
▁شمالی	-2107
▁کلمه	-2108
▁حافظت	-2109
ed	-2110
▁چالش	-2111
روت	-2112
▁رساند	-2113
▁سک	-2114
▁کارت	-2115
▁جذب	-2116
▁گردان	-2117
▁نما	-2118
▁معنا	-2119
ابق	-2120
▁محت	-2121
▁مدرن	-2122
▁ورود	-2123
بات	-2124
▁الد	-2125
▁درگیر	-2126
خش	-2127
▁زرگ	-2128
ریه	-2129
▁نجات	-2130
▁ترو	-2131
▁ثروت	-2132
▁دانلو	-2133
▁The	-2134
▁استان	-2135
کید	-2136
▁بیت	-2137
▁آمیز	-2138
▁حوزه	-2139
▁اساسی	-2140
جم	-2141
▁واحد	-2142
▁اردار	-2143
▁بگی	-2144
▁الگو	-2145
▁•	-2146
▁عوامل	-2147
یتا	-2148
▁زل	-2149
▁ذکر	-2150
▁واسته	-2151
▁موزش	-2152
▁داران	-2153
▁تحد	-2154
▁تلاف	-2155
▁ماده	-2156
▁باد	-2157
▁of	-2158
▁ویر	-2159
▁ریدار	-2160
▁ناب	-2161
▁ارتش	-2162
▁درس	-2163
▁اتیک	-2164
▁معمول	-2165
الف	-2166
▁خانم	-2167
▁اجرای	-2168
▁داشتم	-2169
▁خلق	-2170
▁واندن	-2171
▁سابقه	-2172
▁هیز	-2173
▁گرا	-2174
▁مخالف	-2175
▁ستاره	-2176
▁موزشی	-2177
▁ناک	-2178
▁اویر	-2179
▁فایل	-2180
▁نشین	-2181
▁منتظر	-2182
▁یگان	-2183
ri	-2184
▁اری	-2185
توای	-2186
▁بگیرد	-2187
▁حتوای	-2188
▁برس	-2189
▁آس	-2190
▁اون	-2191
▁معن	-2192
ch	-2193
▁تاب	-2194
▁یچیده	-2195
▁شه	-2196
▁شغل	-2197
▁دیدن	-2198
▁واره	-2199
▁معنای	-2200
▁30	-2201
▁اپل	-2202
▁راهی	-2203
▁هاست	-2204
لیت	-2205
▁کی	-2206
▁دری	-2207
▁شیم	-2208
▁گذشت	-2209
▁ناوری	-2210
▁رض	-2211
▁شیوه	-2212
▁st	-2213
▁قبلی	-2214
▁بحران	-2215
▁گویید	-2216
▁بله	-2217
▁آنکه	-2218
▁صدای	-2219
as	-2220
شا	-2221
▁الدین	-2222
▁شدم	-2223
▁کشته	-2224
▁کلیدی	-2225
▁خشونت	-2226
▁رتیب	-2227
▁گام	-2228
▁جواب	-2229
▁مین	-2230
▁اینها	-2231
▁بریتا	-2232
▁تام	-2233
▁رهبری	-2234
▁مگر	-2235
▁خدمت	-2236
▁قبلا	-2237
▁مرک	-2238
▁منح	-2239
▁شویم	-2240
▁بالای	-2241
▁دلایل	-2242
▁فریق	-2243
▁لمان	-2244
▁k	-2245
▁تست	-2246
▁تالیا	-2247
▁دقیقا	-2248
▁گفتند	-2249
بوب	-2250
▁ادر	-2251
▁متوق	-2252
▁اسلام	-2253
▁جنوبی	-2254
▁انیا	-2255
▁فریقا	-2256
▁متوقف	-2257
لیا	-2258
▁نسل	-2259
▁قامات	-2260
▁فرض	-2261
تبار	-2262
▁عتبار	-2263
▁پارک	-2264
▁استرس	-2265
یند	-2266
▁فار	-2267
ندس	-2268
▁In	-2269
▁ظرف	-2270
▁ساد	-2271
▁ایمیل	-2272
▁قه	-2273
▁شارکت	-2274
▁مهندس	-2275
▁حفا	-2276
▁قبول	-2277
▁رآیند	-2278
▁سرویس	-2279
سب	-2280
▁وشحال	-2281
▁بردار	-2282
▁ذخیره	-2283
▁شماره	-2284
▁ئی	-2285
▁تض	-2286
▁ویت	-2287
▁علم	-2288
▁وزار	-2289
زو	-2290
▁ریس	-2291
▁گذر	-2292
▁باشم	-2293
▁آوردن	-2294
▁ناشی	-2295
▁اعتقا	-2296
▁محبوب	-2297
▁وزارت	-2298
▁ریم	-2299
▁رتبه	-2300
▁منفی	-2301
ایع	-2302
▁اکت	-2303
▁مهمی	-2304
▁تمایل	-2305
ow	-2306
ویت	-2307
▁الع	-2308
▁یشان	-2309
ایست	-2310
▁هوایی	-2311
▁املا	-2312
▁رالیا	-2313
▁رور	-2314
▁عرضه	-2315
▁سق	-2316
▁نماید	-2317
▁زم	-2318
▁یدن	-2319
جان	-2320
▁بک	-2321
▁tion	-2322
▁سلاح	-2323
▁کف	-2324
▁کلمات	-2325
▁أ	-2326
▁كن	-2327
▁تین	-2328
▁دودیت	-2329
▁مي	-2330
▁اسم	-2331
▁موش	-2332
▁برخ	-2333
▁سون	-2334
▁تد	-2335
▁تقویت	-2336
▁زدن	-2337
▁نرخ	-2338
▁رح	-2339
▁کشتی	-2340
▁دروغ	-2341
عیف	-2342
▁آفر	-2343
▁شمار	-2344
▁ضعیف	-2345
اص	-2346
ad	-2347
▁اصلا	-2348
▁al	-2349
▁پوشش	-2350
▁اين	-2351
▁اخلاق	-2352
▁الیات	-2353
▁کنی	-2354
▁ابلیت	-2355
▁نصب	-2356
▁شگ	-2357
▁معر	-2358
us	-2359
▁روزی	-2360
▁عام	-2361
▁یند	-2362
▁ارشد	-2363
▁نهایی	-2364
▁رها	-2365
▁لول	-2366
▁مشغ	-2367
▁بستگی	-2368
▁وار	-2369
▁تهیه	-2370
▁سفار	-2371
▁معرض	-2372
▁یابان	-2373
▁پدید	-2374
▁املاً	-2375
▁زو	-2376
▁هتل	-2377
ظهار	-2378
▁اظهار	-2379
افر	-2380
▁لای	-2381
▁مسافر	-2382
شدار	-2383
▁متح	-2384
▁وم	-2385
▁ادش	-2386
▁هشدار	-2387
▁مور	-2388
▁12	-2389
▁میش	-2390
▁مستقل	-2391
▁نظارت	-2392
▁تصاص	-2393
▁شاور	-2394
▁نوشتن	-2395
▁توی	-2396
▁یسم	-2397
▁آفرین	-2398
سیم	-2399
▁دسته	-2400
▁صاحب	-2401
▁سگ	-2402
▁قدم	-2403
▁ادعا	-2404
▁برسد	-2405
▁وانان	-2406
▁15	-2407
▁له	-2408
▁تلال	-2409
▁یزیکی	-2410
▁مثلا	-2411
▁عین	-2412
▁خلاق	-2413
▁شگفت	-2414
▁گفتم	-2415
▁آگاهی	-2416
▁عوض	-2417
▁میشود	-2418
لاگ	-2419
▁ملل	-2420
▁سالگی	-2421
ونگ	-2422
▁۲۰	-2423
▁جلو	-2424
▁اهل	-2425
▁صند	-2426
▁برادر	-2427
▁تقسیم	-2428
▁وعده	-2429
▁منحصر	-2430
▁رده	-2431
▁چینی	-2432
▁اداره	-2433
▁حافظه	-2434
▁مرکزی	-2435
▁عج	-2436
آوری	-2437
▁50	-2438
▁خاک	-2439
▁فیس	-2440
▁ودمان	-2441
▁حاکم	-2442
▁آسمان	-2443
▁اقام	-2444
▁حفاظت	-2445
▁نند	-2446
▁الان	-2447
ریب	-2448
▁رغ	-2449
▁غربی	-2450
▁اقامت	-2451
سات	-2452
▁چاپ	-2453
▁نتشار	-2454
▁مناف	-2455
▁یست	-2456
▁گناه	-2457
▁فرانس	-2458
▁محتوا	-2459
▁مشغول	-2460
...	-2461
▁انتقا	-2462
▁میکند	-2463
▁یگ	-2464
▁انده	-2465
▁زئ	-2466
▁بیاور	-2467
▁پیوند	-2468
▁گوشی	-2469
فتر	-2470
▁فن	-2471
▁آسیا	-2472
زای	-2473
لفی	-2474
▁ختلفی	-2475
▁قربان	-2476
▁اتم	-2477
▁تایید	-2478
▁لامتی	-2479
▁دفتر	-2480
▁خواند	-2481
ce	-2482
▁نع	-2483
▁یرو	-2484
▁شهرها	-2485
▁ببر	-2486
▁جویی	-2487
▁علوم	-2488
اظ	-2489
▁en	-2490
▁le	-2491
▁اصل	-2492
▁طلا	-2493
▁لحاظ	-2494
le	-2495
▁دف	-2496
▁غرب	-2497
▁عادی	-2498
▁ایمان	-2499
▁مذه	-2500
▁کری	-2501
▁خرو	-2502
▁راغ	-2503
▁ذیرفت	-2504
▁ژو	-2505
▁موس	-2506
▁تفکر	-2507
▁دقت	-2508
▁صنع	-2509
▁عاد	-2510
▁کیلو	-2511
قد	-2512
▁ندر	-2513
▁مطلب	-2514
▁بوک	-2515
▁سوخت	-2516
▁الکتر	-2517
▁منافع	-2518
▁ne	-2519
▁سبز	-2520
▁نباشد	-2521
▁or	-2522
▁یکه	-2523
▁هشت	-2524
▁تولد	-2525
▁تحریم	-2526
▁دارا	-2527
▁جراحی	-2528
▁رخورد	-2529
▁بینیم	-2530
▁اژ	-2531
▁تضمین	-2532
▁پیاده	-2533
▁انوی	-2534
▁طبقه	-2535
▁مپ	-2536
▁قاب	-2537
▁هایش	-2538
▁استاد	-2539
▁بقی	-2540
▁یده	-2541
▁عهده	-2542
▁هل	-2543
▁یف	-2544
▁نحوه	-2545
▁تیک	-2546
▁خوان	-2547
سو	-2548
▁معتقد	-2549
وده	-2550
▁رار	-2551
▁كرد	-2552
▁نگهدا	-2553
▁عت	-2554
▁متن	-2555
▁فعلی	-2556
▁شیمیا	-2557
▁X	-2558
▁هاجر	-2559
▁روغ	-2560
▁ینه	-2561
▁مسیح	-2562
▁چرخه	-2563
▁عربست	-2564
▁لعاده	-2565
▁تز	-2566
▁نخست	-2567
▁صنعتی	-2568
▁خلاص	-2569
▁قهوه	-2570
▁بودجه	-2571
▁هاجرت	-2572
▁شع	-2573
▁جنب	-2574
▁وند	-2575
زیک	-2576
▁رین	-2577
▁طوری	-2578
▁فرمود	-2579
▁عادت	-2580
▁دیوار	-2581
ve	-2582
▁ادشاه	-2583
▁چگونگ	-2584
▁میخ	-2585
▁قی	-2586
▁شمال	-2587
▁تکنیک	-2588
▁برق	-2589
▁نین	-2590
▁آموز	-2591
▁جذاب	-2592
▁نابود	-2593
زم	-2594
▁آشکار	-2595
برد	-2596
▁ریح	-2597
▁دیدار	-2598
▁رداشت	-2599
▁باب	-2600
▁y	-2601
▁امیدو	-2602
ia	-2603
▁گاز	-2604
▁چهارم	-2605
▁وام	-2606
▁اره	-2607
▁ایدار	-2608
▁ضا	-2609
▁بستان	-2610
▁صاحبه	-2611
▁کوه	-2612
▁آشنا	-2613
▁سین	-2614
▁مید	-2615
▁پرسش	-2616
▁عجیب	-2617
▁آیند	-2618
▁رع	-2619
▁عی	-2620
هوم	-2621
▁اسک	-2622
▁تعهد	-2623
▁مفهوم	-2624
▁یهودی	-2625
▁توصیف	-2626
▁رافیک	-2627
زاد	-2628
▁امپ	-2629
▁عقب	-2630
▁زهای	-2631
▁الق	-2632
▁یرانی	-2633
▁بلا	-2634
▁جلسه	-2635
▁خروج	-2636
▁ترجمه	-2637
▁منتقل	-2638
▁'	-2639
نان	-2640
▁لاک	-2641
▁بدهید	-2642
یح	-2643
مون	-2644
▁وف	-2645
▁رحم	-2646
▁روغن	-2647
▁شاهد	-2648
▁نوزاد	-2649
▁te	-2650
▁آمار	-2651
▁قطعا	-2652
▁بودیم	-2653
▁طبیعت	-2654
▁وبلاگ	-2655
▁کارها	-2656
▁سؤ	-2657
ضل	-2658
▁کد	-2659
▁نوعی	-2660
▁تامین	-2661
▁خشک	-2662
▁ترجیح	-2663
▁وانند	-2664
▁حملات	-2665
▁نمایی	-2666
id	-2667
▁بدی	-2668
▁نگی	-2669
▁برخور	-2670
▁گروهی	-2671
ناک	-2672
▁یخ	-2673
▁اوا	-2674
▁تعط	-2675
▁متحان	-2676
▁بدست	-2677
▁صحنه	-2678
روف	-2679
▁مایل	-2680
▁بینند	-2681
▁عفونت	-2682
▁اندو	-2683
▁خویش	-2684
▁جزیره	-2685
▁۳۰	-2686
میل	-2687
▁بردن	-2688
▁جنوب	-2689
▁مقام	-2690
▁ایمنی	-2691
▁تعطیل	-2692
▁رایند	-2693
▁زرگتر	-2694
▁ناسان	-2695
▁بقیه	-2696
▁جایزه	-2697
▁بنا	-2698
▁امضا	-2699
▁رایش	-2700
▁ماس	-2701
▁مون	-2702
▁رمان	-2703
▁هیجان	-2704
▁اعد	-2705
▁دعوت	-2706
▁طرناک	-2707
▁مسلم	-2708
▁فهمید	-2709
▁حضر	-2710
▁ملت	-2711
▁عبور	-2712
▁نقاط	-2713
▁وانید	-2714
مز	-2715
▁ویتام	-2716
▁ویروس	-2717
ot	-2718
▁اوایل	-2719
یو	-2720
▁رادی	-2721
▁عدادی	-2722
طین	-2723
▁آگ	-2724
▁قاومت	-2725
▁Y	-2726
▁لینک	-2727
▁کردید	-2728
▁متصل	-2729
▁کانال	-2730
▁لاقات	-2731
▁عودی	-2732
▁Re	-2733
▁یپ	-2734
▁قول	-2735
▁یورک	-2736
▁درستی	-2737
قق	-2738
▁دس	-2739
▁طات	-2740
▁تکمیل	-2741
▁دیران	-2742
▁گردید	-2743
▁لسطین	-2744
▁تئ	-2745
▁ستم	-2746
▁الهی	-2747
▁اصول	-2748
▁تحمل	-2749
▁آزمون	-2750
▁ازیگر	-2751
▁یافتن	-2752
▁تشوی	-2753
▁نیمه	-2754
▁برنده	-2755
تبال	-2756
▁وضع	-2757
▁شهری	-2758
▁قرمز	-2759
▁مهمتر	-2760
▁وتبال	-2761
▁رمز	-2762
▁شانس	-2763
▁زئیات	-2764
طب	-2765
▁دب	-2766
▁دهان	-2767
▁همکار	-2768
شمن	-2769
▁ندار	-2770
▁وظیف	-2771
▁خنران	-2772
▁معروف	-2773
▁شکن	-2774
▁دشمن	-2775
▁نژ	-2776
▁it	-2777
خاطب	-2778
▁بکش	-2779
▁مرز	-2780
▁موزه	-2781
▁وجهی	-2782
▁رزمین	-2783
▁مخاطب	-2784
▁انش	-2785
▁عملی	-2786
▁حساس	-2787
▁زودی	-2788
▁کلیسا	-2789
▁تناب	-2790
▁تشویق	-2791
▁متع	-2792
▁وین	-2793
▁برده	-2794
▁کارگر	-2795
▁عنا	-2796
▁بطور	-2797
▁فرار	-2798
▁یلادی	-2799
▁باغ	-2800
▁اتوم	-2801
▁سایه	-2802
▁هیزات	-2803
▁بزن	-2804
▁امیده	-2805
▁زایای	-2806
▁نتوان	-2807
مب	-2808
▁ویدئو	-2809
▁پنهان	-2810
▁چپ	-2811
▁انند	-2812
▁تعامل	-2813
ut	-2814
▁انجمن	-2815
▁نظریه	-2816
▁یروزی	-2817
▁بروز	-2818
▁جنبش	-2819
▁at	-2820
▁بروید	-2821
▁عضل	-2822
▁سختی	-2823
▁خواهی	-2824
▁دهندگ	-2825
دد	-2826
▁تغذ	-2827
▁فراتر	-2828
اهد	-2829
▁سلط	-2830
▁جنبه	-2831
▁وظیفه	-2832
▁وندان	-2833
▁حکم	-2834
▁اندن	-2835
▁مى	-2836
▁ایالت	-2837
▁موق	-2838
▁واس	-2839
▁ریسک	-2840
▁خدای	-2841
▁ثانیه	-2842
تئ	-2843
▁اتر	-2844
▁بهتری	-2845
▁el	-2846
▁حضرت	-2847
▁زنند	-2848
▁نگیزه	-2849
▁زش	-2850
▁صحی	-2851
▁مانع	-2852
▁پخش	-2853
▁بیدار	-2854
▁تغذیه	-2855
▁گفتگو	-2856
▁بیو	-2857
▁کمپ	-2858
▁یکرد	-2859
▁قابله	-2860
ضح	-2861
▁نکرد	-2862
▁واضح	-2863
▁متی	-2864
▁آرزو	-2865
▁امسال	-2866
▁سند	-2867
▁اضافی	-2868
▁تعادل	-2869
▁یامبر	-2870
▁دت	-2871
▁داک	-2872
▁مداوم	-2873
▁واش	-2874
▁بدان	-2875
▁حسین	-2876
▁ممنوع	-2877
چسب	-2878
▁عظیم	-2879
▁کارش	-2880
▁برچسب	-2881
▁تامبر	-2882
▁شماست	-2883
▁فنی	-2884
▁مقا	-2885
▁کشد	-2886
▁مرور	-2887
▁بمب	-2888
▁ناپ	-2889
▁توزی	-2890
▁صحیح	-2891
▁نماز	-2892
▁مطالب	-2893
▁فض	-2894
▁گفتن	-2895
▁انویه	-2896
▁سیم	-2897
▁رایی	-2898
▁شغلی	-2899
▁چهره	-2900
▁تاکید	-2901
گرم	-2902
▁قلبی	-2903
▁صاد	-2904
▁عداد	-2905
▁چربی	-2906
▁آورند	-2907
▁سرگرم	-2908
▁توزیع	-2909
▁پروتئ	-2910
▁پیوست	-2911
▁رط	-2912
▁سؤال	-2913
▁صادر	-2914
▁سردگی	-2915
▁عمولی	-2916
▁هرمان	-2917
▁ترا	-2918
▁بدهد	-2919
▁خصوصا	-2920
▁روستا	-2921
▁لز	-2922
▁میوه	-2923
▁لیم	-2924
▁نفو	-2925
▁تور	-2926
▁رسند	-2927
▁داکثر	-2928
▁میدان	-2929
▁پذیرش	-2930
▁يد	-2931
▁۱۵	-2932
▁تاسی	-2933
اهی	-2934
▁جرم	-2935
▁فدر	-2936
▁خواهم	-2937
سف	-2938
▁آث	-2939
▁۵۰	-2940
▁زنش	-2941
▁سلمان	-2942
▁سیاره	-2943
▁گهان	-2944
▁مبل	-2945
▁همچ	-2946
▁آثار	-2947
▁مراحل	-2948
▁راز	-2949
▁شوم	-2950
▁حاد	-2951
▁سنگین	-2952
▁زخ	-2953
▁قت	-2954
▁حیا	-2955
▁مجدد	-2956
▁اشک	-2957
▁ستج	-2958
▁بگویم	-2959
▁40	-2960
▁nt	-2961
▁یج	-2962
▁داع	-2963
ess	-2964
▁همزم	-2965
▁افکار	-2966
▁فرمان	-2967
▁متیاز	-2968
▁فی	-2969
▁فارغ	-2970
▁نشست	-2971
▁رضایت	-2972
زل	-2973
▁خدام	-2974
▁جع	-2975
▁قتل	-2976
▁یوم	-2977
▁قاعد	-2978
▁مطابق	-2979
▁تخم	-2980
▁رستاد	-2981
▁نیازی	-2982
گا	-2983
▁قضا	-2984
▁مها	-2985
▁محک	-2986
▁صادق	-2987
▁ستجوی	-2988
چند	-2989
▁آهنگ	-2990
▁بدین	-2991
▁خاور	-2992
▁مهاجر	-2993
▁هرچند	-2994
▁بیمه	-2995
▁نقا	-2996
▁حاوی	-2997
▁سیگار	-2998
▁ــ	-2999
▁رورش	-3000
▁لطفا	-3001
▁نقشه	-3002
▁ارزان	-3003
▁اندیش	-3004
زیه	-3005
سوب	-3006
▁گین	-3007
▁جاده	-3008
▁ذاکر	-3009
▁محسوب	-3010
oc	-3011
▁re	-3012
هران	-3013
▁دهی	-3014
▁مجوز	-3015
▁تهران	-3016
▁نفوذ	-3017
▁دم	-3018
▁وئ	-3019
▁ذاکره	-3020
pp	-3021
▁کده	-3022
▁دهای	-3023
▁تجزیه	-3024
▁nd	-3025
▁اتص	-3026
▁سور	-3027
▁سفارش	-3028
▁ستر	-3029
▁گانه	-3030
▁اتصال	-3031
▁بهشت	-3032
▁شورای	-3033
▁بدتر	-3034
▁کریس	-3035
▁یکسان	-3036
▁تقد	-3037
▁ریت	-3038
▁ستون	-3039
▁سهام	-3040
▁وسیع	-3041
▁آبی	-3042
▁سوء	-3043
▁سابق	-3044
▁گم	-3045
▁شف	-3046
▁اتو	-3047
▁محکوم	-3048
▁مساله	-3049
▁راضی	-3050
▁فرما	-3051
▁زداشت	-3052
▁عامله	-3053
▁موقع	-3054
▁نژاد	-3055
▁فهر	-3056
▁کرب	-3057
▁طلاح	-3058
▁کلیک	-3059
▁خلاصه	-3060
▁فهرست	-3061
عدد	-3062
▁صبر	-3063
▁بپرس	-3064
▁تاسیس	-3065
▁متعدد	-3066
ir	-3067
▁شوی	-3068
▁مصر	-3069
▁بردی	-3070
▁لندن	-3071
▁دادها	-3072
▁موسسه	-3073
▁Goo	-3074
▁رون	-3075
▁ارتقا	-3076
▁آهن	-3077
▁طلب	-3078
▁یتر	-3079
▁واشنگ	-3080
▁ro	-3081
▁ضع	-3082
▁مبتنی	-3083
▁ملا	-3084
▁بینم	-3085
▁موشک	-3086
▁فضایی	-3087
▁درخت	-3088
▁افتخا	-3089
▁شنیده	-3090
▁وه	-3091
▁محمد	-3092
▁اثرات	-3093
▁عدالت	-3094
▁نندگی	-3095
▁+	-3096
▁جشن	-3097
▁سطو	-3098
▁کاف	-3099
▁برند	-3100
▁تمیز	-3101
▁ریشه	-3102
▁گیاه	-3103
▁>	-3104
▁25	-3105
▁میل	-3106
▁ساکن	-3107
▁ستگاه	-3108
▁۱۲	-3109
▁برمی	-3110
▁گوشت	-3111
▁مذاکر	-3112
ent	-3113
▁جر	-3114
▁یض	-3115
▁بیل	-3116
▁تحول	-3117
▁ساحل	-3118
ma	-3119
▁یس	-3120
▁بال	-3121
▁رنو	-3122
▁زنی	-3123
▁دیدم	-3124
▁ساختن	-3125
▁حرک	-3126
▁هور	-3127
▁گوییم	-3128
لس	-3129
▁سقوط	-3130
▁بارها	-3131
▁ببرید	-3132
▁راساس	-3133
▁مایید	-3134
ge	-3135
▁وپ	-3136
▁سنج	-3137
اور	-3138
▁جاد	-3139
▁نیمی	-3140
▁رانسو	-3141
▁کمبود	-3142
▁لغ	-3143
▁جانب	-3144
▁هویت	-3145
▁مشهور	-3146
حص	-3147
▁التحص	-3148
▁مشاور	-3149
▁سنت	-3150
▁کات	-3151
▁اهیم	-3152
▁القوه	-3153
▁نبوده	-3154
ویس	-3155
▁ویا	-3156
▁یك	-3157
▁ارچ	-3158
▁ریف	-3159
▁عرو	-3160
▁تدری	-3161
▁سازند	-3162
▁همچون	-3163
▁ذر	-3164
▁ين	-3165
▁تاز	-3166
▁زون	-3167
▁اخیرا	-3168
▁شواهد	-3169
▁سنتی	-3170
▁ماست	-3171
▁کمتری	-3172
▁طیف	-3173
▁پاری	-3174
▁خانگی	-3175
▁زس	-3176
▁رش	-3177
ادار	-3178
▁ستن	-3179
▁دادم	-3180
▁اورزی	-3181
▁رستور	-3182
▁زشکان	-3183
راض	-3184
▁واژه	-3185
▁ابسته	-3186
▁بنویس	-3187
▁زسازی	-3188
▁پرسید	-3189
▁ردش	-3190
▁شاوره	-3191
▁یتان	-3192
▁الانه	-3193
▁عماری	-3194
▁ویدیو	-3195
gl	-3196
▁کث	-3197
▁خورده	-3198
▁رجسته	-3199
▁عتراض	-3200
▁والات	-3201
زیز	-3202
▁Ch	-3203
▁برتر	-3204
▁مذهبی	-3205
▁مایند	-3206
▁وبایل	-3207
▁تیر	-3208
▁حجم	-3209
▁مارس	-3210
▁اکتبر	-3211
▁11	-3212
▁دای	-3213
▁تعجب	-3214
▁عزیز	-3215
▁انگشت	-3216
▁نموده	-3217
▁طع	-3218
▁the	-3219
▁لاً	-3220
▁لود	-3221
▁وک	-3222
▁سهم	-3223
▁مول	-3224
▁خاورم	-3225
▁عدد	-3226
▁گشت	-3227
▁لمانی	-3228
▁گواهی	-3229
▁جاز	-3230
▁هید	-3231
▁مربی	-3232
▁رادیو	-3233
▁60	-3234
▁وکار	-3235
▁گویم	-3236
▁خواهر	-3237
▁مکانی	-3238
▁ندارم	-3239
یید	-3240
▁راوان	-3241
▁کب	-3242
▁تأیید	-3243
▁ردشگر	-3244
▁صفحات	-3245
این	-3246
▁مقدس	-3247
▁بش	-3248
▁قلال	-3249
▁مراسم	-3250
▁حیات	-3251
▁عیسی	-3252
▁فلسف	-3253
▁رونده	-3254
▁عناصر	-3255
موع	-3256
▁ازه	-3257
▁آزار	-3258
▁مجموع	-3259
▁آژ	-3260
▁لوله	-3261
▁مدتی	-3262
▁سالها	-3263
▁ity	-3264
▁عصر	-3265
▁جاری	-3266
▁فردا	-3267
▁سینما	-3268
▁سیل	-3269
▁مدارس	-3270
▁خالی	-3271
▁طراح	-3272
▁ation	-3273
درس	-3274
▁شید	-3275
▁هاي	-3276
ازش	-3277
▁100	-3278
▁ایی	-3279
▁آدرس	-3280
▁معدن	-3281
▁ردازش	-3282
▁سم	-3283
▁مام	-3284
▁قاضی	-3285
▁کشید	-3286
▁ازنده	-3287
سن	-3288
▁رید	-3289
▁آژانس	-3290
▁x	-3291
▁شام	-3292
▁قالب	-3293
▁سوز	-3294
▁مجلس	-3295
▁سادگی	-3296
▁شکر	-3297
▁جنگل	-3298
▁اثبات	-3299
▁ابو	-3300
▁دمی	-3301
▁سبب	-3302
▁لاف	-3303
▁شوهر	-3304
▁ولویت	-3305
▁18	-3306
▁لن	-3307
▁معتبر	-3308
اهای	-3309
▁سوئ	-3310
▁شریک	-3311
▁تاریک	-3312
▁ذاهای	-3313
▁زمینی	-3314
▁عید	-3315
▁کتور	-3316
ur	-3317
▁روبرو	-3318
امب	-3319
نوعی	-3320
▁دایی	-3321
▁دسامب	-3322
▁صنوعی	-3323
▁نسبتا	-3324
▁قص	-3325
▁ابه	-3326
▁ماج	-3327
▁منزل	-3328
▁ازگار	-3329
▁دگی	-3330
▁com	-3331
▁انان	-3332
▁سطوح	-3333
▁وحشت	-3334
ni	-3335
▁de	-3336
▁قبال	-3337
▁ازیکن	-3338
▁اشگاه	-3339
▁رسانی	-3340
▁نقاشی	-3341
od	-3342
ثه	-3343
▁’	-3344
▁شیط	-3345
▁ظهور	-3346
▁لم	-3347
▁گار	-3348
▁ریستی	-3349
▁مهمان	-3350
▁نگلیس	-3351
▁پاریس	-3352
قب	-3353
▁قلم	-3354
▁یام	-3355
▁صدها	-3356
مر	-3357
▁دعا	-3358
▁نظیر	-3359
▁Googl	-3360
▁کشوری	-3361
▁زب	-3362
▁شرقی	-3363
▁مجله	-3364
▁بایست	-3365
ul	-3366
▁Li	-3367
▁راتور	-3368
▁عده	-3369
▁ادید	-3370
▁باما	-3371
▁عمده	-3372
▁اواخر	-3373
▁نشد	-3374
▁شفاف	-3375
اک	-3376
▁متاس	-3377
▁مردی	-3378
▁آرامش	-3379
▁مود	-3380
▁هات	-3381
▁طالب	-3382
▁وامبر	-3383
▁پنجره	-3384
اداش	-3385
▁and	-3386
▁ارک	-3387
▁بیست	-3388
▁سرور	-3389
▁وسایل	-3390
▁پاداش	-3391
ولد	-3392
▁De	-3393
▁ژوئن	-3394
▁دیابت	-3395
آور	-3396
▁چای	-3397
▁فرست	-3398
▁مدرک	-3399
▁ماجرا	-3400
پز	-3401
▁امی	-3402
▁درم	-3403
▁اردو	-3404
▁خسته	-3405
▁سریال	-3406
▁میز	-3407
▁پیم	-3408
▁برگشت	-3409
▁بزنید	-3410
▁راجعه	-3411
▁سالان	-3412
▁شیطان	-3413
▁آپ	-3414
▁تشکر	-3415
▁جادو	-3416
▁ادرات	-3417
▁خشم	-3418
▁حتما	-3419
▁مرده	-3420
▁کوین	-3421
تیک	-3422
▁حیط	-3423
▁چرخ	-3424
▁ثبات	-3425
▁منظم	-3426
▁ظرفیت	-3427
▁چندان	-3428
ایف	-3429
▁شرق	-3430
▁مشک	-3431
▁عموم	-3432
▁نگاهی	-3433
▁ونیکی	-3434
▁|	-3435
▁Pro	-3436
▁اوت	-3437
▁خال	-3438
▁متولد	-3439
▁واستم	-3440
▁كار	-3441
▁آشپز	-3442
▁جازات	-3443
▁دیپ	-3444
▁ماد	-3445
▁استیک	-3446
▁غنی	-3447
▁نال	-3448
▁متاسف	-3449
▁یانیه	-3450
▁Z	-3451
ack	-3452
...]	-3453
▁[...]	-3454
▁دومین	-3455
▁منطقی	-3456
▁کپ	-3457
▁ترد	-3458
▁سرش	-3459
▁وانده	-3460
▁هنری	-3461
▁چک	-3462
▁وای	-3463
▁مکمل	-3464
▁خب	-3465
▁اکس	-3466
▁مپانی	-3467
▁ْ	-3468
▁دي	-3469
▁جلب	-3470
▁پیچ	-3471
▁مندی	-3472
▁متعلق	-3473
▁ورزشی	-3474
um	-3475
▁جور	-3476
▁زخم	-3477
▁وشه	-3478
▁مخفی	-3479
ویل	-3480
▁Wi	-3481
▁یار	-3482
▁زاده	-3483
▁عصبی	-3484
▁لایه	-3485
▁هستی	-3486
▁آموخت	-3487
▁ادیده	-3488
▁کمیته	-3489
▁جاع	-3490
▁زنج	-3491
▁ابتلا	-3492
▁تماشا	-3493
ap	-3494
کز	-3495
▁فو	-3496
▁رویدا	-3497
▁مشکلی	-3498
▁الم	-3499
▁تصاد	-3500
▁معلم	-3501
▁انگار	-3502
ویب	-3503
▁جنس	-3504
▁ورم	-3505
▁یدند	-3506
▁تصادف	-3507
▁صنایع	-3508
▁جامع	-3509
▁ندگی	-3510
▁تصویب	-3511
▁تکامل	-3512
▁یونان	-3513
▁رسو	-3514
▁موقت	-3515
▁وظایف	-3516
▁انع	-3517
▁ریاضی	-3518
▁ورت	-3519
▁ناحی	-3520
▁نویسی	-3521
li	-3522
se	-3523
un	-3524
art	-3525
▁خرد	-3526
▁دمه	-3527
▁دبیر	-3528
▁مبلغ	-3529
▁ورودی	-3530
▁کشیدن	-3531
▁ed	-3532
▁انب	-3533
▁سیون	-3534
and	-3535
▁th	-3536
▁بعدا	-3537
▁تغال	-3538
▁الایی	-3539
▁خارجه	-3540
▁قال	-3541
▁دیپلم	-3542
او	-3543
▁نار	-3544
▁وقو	-3545
▁بافت	-3546
▁Ne	-3547
▁to	-3548
▁بول	-3549
▁اندا	-3550
▁تردید	-3551
▁مراکز	-3552
▁رغم	-3553
▁روانی	-3554
▁هورمو	-3555
▁z	-3556
▁ایع	-3557
▁١	-3558
▁اخبار	-3559
▁تحویل	-3560
▁شیدنی	-3561
▁پیشین	-3562
▁سان	-3563
▁وست	-3564
▁یمز	-3565
▁میده	-3566
▁ریاست	-3567
▁لر	-3568
▁گز	-3569
▁زمست	-3570
▁لزوم	-3571
▁مجاز	-3572
▁باتری	-3573
لوم	-3574
▁ion	-3575
▁العمل	-3576
▁روزها	-3577
▁ماندن	-3578
▁معلوم	-3579
▁معی	-3580
▁یگن	-3581
▁اعدام	-3582
▁ناحیه	-3583
▁یح	-3584
▁بگوید	-3585
▁لان	-3586
▁نقض	-3587
▁کفش	-3588
▁غذای	-3589
▁گیرید	-3590
▁دائ	-3591
▁رقم	-3592
▁ناه	-3593
▁هاجم	-3594
▁16	-3595
▁یق	-3596
▁صاب	-3597
▁نبرد	-3598
▁_	-3599
▁حر	-3600
▁تقا	-3601
▁هیت	-3602
▁یره	-3603
▁روزه	-3604
غذ	-3605
all	-3606
▁ضمن	-3607
▁یشه	-3608
▁کاغذ	-3609
▁معادل	-3610
▁ng	-3611
▁الک	-3612
▁نشود	-3613
▁وقوع	-3614
▁تأمین	-3615
▁دائمی	-3616
▁عربی	-3617
غل	-3618
▁فک	-3619
▁سته	-3620
▁پرست	-3621
▁فیلتر	-3622
▁ستند	-3623
▁صرفه	-3624
▁تحریک	-3625
▁خورید	-3626
▁j	-3627
▁آیه	-3628
▁کمپین	-3629
یاس	-3630
▁حقو	-3631
▁امو	-3632
▁انح	-3633
▁شرط	-3634
▁برود	-3635
▁حقوقی	-3636
▁صندلی	-3637
▁وآوری	-3638
▁Sp	-3639
▁ستا	-3640
▁سکو	-3641
▁نوج	-3642
▁بماند	-3643
▁رقی	-3644
▁عقل	-3645
▁رایج	-3646
▁میکرو	-3647
▁کشیده	-3648
▁هستان	-3649
خند	-3650
▁ریب	-3651
▁مبا	-3652
وارض	-3653
▁حیطی	-3654
▁عوارض	-3655
▁فدرال	-3656
▁مزد	-3657
▁کاخ	-3658
▁رانه	-3659
▁رویا	-3660
▁پناه	-3661
▁گرما	-3662
طاف	-3663
▁فقر	-3664
▁چاق	-3665
▁الکل	-3666
▁نکات	-3667
▁زنجیر	-3668
▁پارچه	-3669
▁ویی	-3670
▁نعطاف	-3671
ue	-3672
▁هیل	-3673
▁رندگ	-3674
▁علام	-3675
▁رداند	-3676
▁نیستم	-3677
▁14	-3678
▁دارک	-3679
▁مسکو	-3680
▁گمان	-3681
▁لبخند	-3682
▁مراقب	-3683
▁کاران	-3684
▁24	-3685
▁آلب	-3686
▁انس	-3687
▁داعش	-3688
▁حادثه	-3689
▁Se	-3690
▁رکو	-3691
▁ضعف	-3692
▁خراب	-3693
▁یندوز	-3694
▁ct	-3695
▁لف	-3696
▁هدیه	-3697
▁کنگر	-3698
▁قررات	-3699
▁پیمان	-3700
▁کانات	-3701
im	-3702
▁سام	-3703
▁چار	-3704
▁بخشد	-3705
▁بران	-3706
▁جانبی	-3707
▁نفع	-3708
▁رنده	-3709
▁رییس	-3710
▁اکتری	-3711
▁یانوس	-3712
ig	-3713
▁ذه	-3714
▁آفت	-3715
▁خطا	-3716
▁دائم	-3717
▁مارک	-3718
▁na	-3719
▁نقد	-3720
▁سسات	-3721
▁یورو	-3722
▁موج	-3723
▁۱۰۰	-3724
▁باران	-3725
▁Bl	-3726
▁Sh	-3727
▁بکن	-3728
▁نظرات	-3729
▁یدوار	-3730
ریت	-3731
▁الز	-3732
▁سرب	-3733
▁پرده	-3734
▁گرچه	-3735
▁الهام	-3736
▁امد	-3737
▁توپ	-3738
▁ضطر	-3739
▁آمدن	-3740
▁آوری	-3741
▁گرسن	-3742
ie	-3743
▁اسن	-3744
▁برت	-3745
▁راک	-3746
▁شایع	-3747
▁گراف	-3748
▁معامل	-3749
▁عبد	-3750
▁معیار	-3751
▁غل	-3752
▁ولت	-3753
▁خطوط	-3754
▁داره	-3755
▁درحال	-3756
▁رزه	-3757
▁هایم	-3758
▁تجدید	-3759
▁نون	-3760
▁کوپ	-3761
▁ناسبی	-3762
▁ایق	-3763
▁جسم	-3764
▁فلز	-3765
▁كند	-3766
▁کنه	-3767
▁یدم	-3768
▁شاخص	-3769
▁ضطراب	-3770
▁جی	-3771
▁فه	-3772
▁تخص	-3773
▁قوم	-3774
▁لیک	-3775
▁ندا	-3776
▁یشن	-3777
▁برگرد	-3778
▁زنشست	-3779
▁شوروی	-3780
▁شل	-3781
▁بور	-3782
▁نیک	-3783
▁هاب	-3784
▁گربه	-3785
▁کنگره	-3786
▁یابند	-3787
▁یشگیر	-3788
▁اورد	-3789
▁نباش	-3790
▁موریت	-3791
▁Al	-3792
▁آیت	-3793
▁زوج	-3794
▁لاخ	-3795
▁ژنتیک	-3796
▁یگنال	-3797
▁nce	-3798
▁ریه	-3799
▁عکا	-3800
▁لوک	-3801
▁واب	-3802
خل	-3803
▁ریخت	-3804
▁اندهی	-3805
▁اندکی	-3806
▁تازگی	-3807
▁دادیم	-3808
▁نل	-3809
▁مکا	-3810
▁مخدر	-3811
▁جنسیت	-3812
▁قضاوت	-3813
ht	-3814
▁عن	-3815
▁شاغل	-3816
▁کالج	-3817
▁تئوری	-3818
▁یکیشن	-3819
▁راد	-3820
▁جد	-3821
▁وحش	-3822
▁محور	-3823
▁گویی	-3824
▁یاری	-3825
▁ارآمد	-3826
▁بازان	-3827
▁عکاسی	-3828
▁فلسفه	-3829
▁مداخل	-3830
▁٬	-3831
سیر	-3832
▁۴۰	-3833
▁خالص	-3834
▁ذهنی	-3835
▁یونی	-3836
▁شیرین	-3837
▁اذ	-3838
▁مز	-3839
▁وژ	-3840
▁توق	-3841
▁دفع	-3842
▁اقلی	-3843
▁متهم	-3844
▁تفسیر	-3845
▁لاخره	-3846
▁مقیاس	-3847
▁#	-3848
▁ra	-3849
اسبه	-3850
▁لیب	-3851
▁خبری	-3852
▁دلال	-3853
▁یکار	-3854
▁حاسبه	-3855
▁رنوشت	-3856
▁عار	-3857
▁ازده	-3858
▁اسیون	-3859
▁for	-3860
▁دون	-3861
▁سئو	-3862
▁سرخ	-3863
▁گردند	-3864
▁Ma	-3865
▁مأ	-3866
▁رفع	-3867
▁زیت	-3868
▁بهار	-3869
▁جداگ	-3870
▁هرچه	-3871
▁تقدند	-3872
▁ري	-3873
▁اهن	-3874
▁یایید	-3875
▁غان	-3876
▁تراع	-3877
▁اتومب	-3878
▁بیاید	-3879
▁دخانه	-3880
▁علامت	-3881
▁پیروی	-3882
▁کراین	-3883
▁Sc	-3884
▁وج	-3885
▁راس	-3886
▁نات	-3887
▁دراز	-3888
▁اشکال	-3889
▁فروخت	-3890
▁قالات	-3891
▁ودکار	-3892
▁13	-3893
▁دزد	-3894
▁رضا	-3895
▁سرک	-3896
▁شادی	-3897
▁هکار	-3898
▁کثریت	-3899
▁تجا	-3900
▁زرد	-3901
▁شاد	-3902
▁ناش	-3903
▁ویز	-3904
▁پورت	-3905
▁آنقدر	-3906
▁دامنه	-3907
▁٪	-3908
▁وغ	-3909
▁اصر	-3910
▁جغ	-3911
▁بدهی	-3912
▁ریتم	-3913
▁هواره	-3914
▁پارلم	-3915
▁اگ	-3916
▁چم	-3917
▁لال	-3918
▁ونز	-3919
▁تنوع	-3920
▁پولی	-3921
▁اربرد	-3922
▁ترنتی	-3923
▁کتریک	-3924
▁تظ	-3925
▁الن	-3926
▁تظاهر	-3927
▁شایست	-3928
▁دال	-3929
▁مرغ	-3930
▁ضرب	-3931
▁موز	-3932
▁نست	-3933
▁پارا	-3934
▁کلام	-3935
▁اهانه	-3936
▁فیزیک	-3937
▁et	-3938
▁لغو	-3939
▁مؤثر	-3940
▁خورند	-3941
▁فرصتی	-3942
▁مجازی	-3943
ئی	-3944
▁اته	-3945
▁اسب	-3946
▁اران	-3947
▁سافت	-3948
▁عروس	-3949
▁جلسات	-3950
▁دترین	-3951
▁راستا	-3952
▁نرا	-3953
▁یکو	-3954
▁دانه	-3955
▁سوار	-3956
▁میلی	-3957
▁ننده	-3958
▁آفتاب	-3959
▁تجاوز	-3960
▁ني	-3961
▁ght	-3962
▁تبع	-3963
▁لات	-3964
▁صرفا	-3965
▁وافق	-3966
▁تزریق	-3967
▁توییت	-3968
▁حدوده	-3969
▁ناهند	-3970
▁ic	-3971
▁صار	-3972
▁منص	-3973
زیل	-3974
▁ri	-3975
▁رام	-3976
▁ویل	-3977
▁غریب	-3978
▁جغراف	-3979
▁وافقت	-3980
▁غم	-3981
▁برج	-3982
▁تیا	-3983
▁حقی	-3984
▁شرح	-3985
▁دمای	-3986
▁عالم	-3987
ard	-3988
▁تاپ	-3989
▁هار	-3990
▁پارت	-3991
▁دآوری	-3992
▁متعهد	-3993
▁متنوع	-3994
▁شکار	-3995
▁گرام	-3996
▁مستند	-3997
▁اوست	-3998
▁تخصص	-3999
▁مسلح	-4000
▁همگی	-4001
▁پروس	-4002
▁بانکی	-4003
▁رعایت	-4004
▁زودتر	-4005
▁سرکوب	-4006
▁واهان	-4007
▁%	-4008
▁&	-4009
▁ثنا	-4010
▁صوت	-4011
▁آنتی	-4012
▁تجرب	-4013
▁فرید	-4014
▁پدرش	-4015
▁اسناد	-4016
▁شکایت	-4017
امع	-4018
▁رال	-4019
▁رسی	-4020
▁شدیم	-4021
▁جوامع	-4022
▁صندوق	-4023
▁میدهد	-4024
▁طرز	-4025
▁ادرم	-4026
▁تیاج	-4027
▁فوری	-4028
▁قطار	-4029
▁بهینه	-4030
▁کنونی	-4031
▁لق	-4032
▁Con	-4033
▁ایمن	-4034
▁وئیس	-4035
▁کربن	-4036
▁لودگی	-4037
▁ریک	-4038
▁تحقق	-4039
▁حلقه	-4040
▁رنگی	-4041
▁قطعه	-4042
▁ومین	-4043
▁تأکید	-4044
▁راستی	-4045
▁خام	-4046
▁عبا	-4047
▁لکه	-4048
▁ویه	-4049
▁ment	-4050
▁خنده	-4051
▁بدهند	-4052
▁La	-4053
▁ربا	-4054
▁یمن	-4055
▁ماری	-4056
▁ارچوب	-4057
▁ورا	-4058
▁استر	-4059
▁راجع	-4060
▁روشی	-4061
▁سینه	-4062
▁ندرت	-4063
▁برسان	-4064
▁حیاتی	-4065
▁دیوان	-4066
▁روزمر	-4067
▁لبنان	-4068
▁Q	-4069
▁پلت	-4070
▁جعبه	-4071
▁اطرات	-4072
▁ma	-4073
▁ضب	-4074
▁قف	-4075
▁جمعه	-4076
▁ضربه	-4077
▁اجبار	-4078
▁واردی	-4079
▁وریسم	-4080
▁٫	-4081
▁An	-4082
شناس	-4083
▁ابع	-4084
▁شکلی	-4085
▁نگار	-4086
▁دیدتر	-4087
▁سازید	-4088
▁گذارن	-4089
▁90	-4090
▁حین	-4091
▁توده	-4092
▁سوئد	-4093
▁نالد	-4094
▁اشتبا	-4095
▁عصبان	-4096
▁sh	-4097
▁۲۵	-4098
▁دیو	-4099
▁لوب	-4100
▁درخش	-4101
▁مکزیک	-4102
▁یسیون	-4103
▁قو	-4104
▁الح	-4105
▁اتخا	-4106
▁ردمی	-4107
▁عنصر	-4108
▁کشان	-4109
▁یلند	-4110
▁رأ	-4111
▁ير	-4112
▁بیند	-4113
▁جلوی	-4114
▁شنید	-4115
▁طلاق	-4116
▁فکری	-4117
▁لاها	-4118
▁برزیل	-4119
▁بنیان	-4120
▁ندهید	-4121
▁ئید	-4122
▁واسط	-4123
▁یدگی	-4124
▁اراده	-4125
la	-4126
▁HT	-4127
▁۶۰	-4128
▁سار	-4129
▁رسان	-4130
▁اتخاذ	-4131
▁الزام	-4132
▁وط	-4133
اهرا	-4134
▁زید	-4135
▁پان	-4136
▁یکر	-4137
▁خودت	-4138
▁آورید	-4139
▁خوراک	-4140
▁دلاری	-4141
▁ظاهرا	-4142
▁نامزد	-4143
▁ونیست	-4144
مور	-4145
▁ge	-4146
▁اتور	-4147
▁دانی	-4148
▁سکوت	-4149
▁شیدن	-4150
▁قیام	-4151
▁ایتخت	-4152
▁خبرنگ	-4153
ne	-4154
▁زین	-4155
▁سیر	-4156
▁نظم	-4157
▁الکیت	-4158
وص	-4159
▁17	-4160
▁ذب	-4161
▁یغ	-4162
▁تابع	-4163
▁غیره	-4164
▁آمدند	-4165
▁آوریل	-4166
▁تقاضا	-4167
▁لسلام	-4168
▁گرفتم	-4169
▁هه	-4170
▁هک	-4171
▁يک	-4172
▁ضبط	-4173
▁هیو	-4174
▁جمعی	-4175
▁زایم	-4176
▁سنجی	-4177
▁بپذیر	-4178
▁تمایز	-4179
▁نشسته	-4180
▁گرایی	-4181
بیند	-4182
▁ببرد	-4183
▁ابراز	-4184
▁ببیند	-4185
▁شمنان	-4186
▁IP	-4187
▁يا	-4188
▁۱۸	-4189
▁ادی	-4190
▁رقص	-4191
▁کور	-4192
▁بسایت	-4193
▁مأمور	-4194
غال	-4195
▁صه	-4196
خصوص	-4197
▁اشیا	-4198
▁کالی	-4199
▁اشغال	-4200
▁شنوار	-4201
▁ماشای	-4202
▁مخصوص	-4203
▁مخلو	-4204
▁جنایت	-4205
▁هنمای	-4206
est	-4207
ord	-4208
راحت	-4209
▁عقید	-4210
▁هلند	-4211
▁آلوده	-4212
▁اراحت	-4213
▁سرباز	-4214
▁فوریه	-4215
▁گذران	-4216
▁SE	-4217
▁فقیر	-4218
▁مالک	-4219
▁حرارت	-4220
اطف	-4221
▁Ad	-4222
▁عاطف	-4223
▁یلان	-4224
▁دروید	-4225
▁وکس	-4226
▁کپی	-4227
▁روحان	-4228
▁موهای	-4229
▁US	-4230
▁ذاشت	-4231
▁سران	-4232
▁ناخت	-4233
th	-4234
جار	-4235
▁الغ	-4236
▁لمس	-4237
▁نحو	-4238
▁کاب	-4239
▁رویم	-4240
▁شارژ	-4241
▁ویزای	-4242
▁=	-4243
▁Mo	-4244
اهان	-4245
▁رسم	-4246
▁نادر	-4247
▁یوان	-4248
▁تناسب	-4249
▁یاهان	-4250
ئت	-4251
راج	-4252
▁لوژ	-4253
▁ودک	-4254
▁باشه	-4255
▁توقف	-4256
▁زدهم	-4257
▁دوستی	-4258
▁نفجار	-4259
▁بادل	-4260
▁اجاره	-4261
▁برایش	-4262
▁یگیری	-4263
OS	-4264
▁اهم	-4265
▁بومی	-4266
▁هیئت	-4267
▁اتمام	-4268
▁العاد	-4269
▁فادار	-4270
▁هربان	-4271
▁ودکشی	-4272
▁ادا	-4273
▁وود	-4274
▁یکل	-4275
▁فریب	-4276
▁نکند	-4277
▁گردن	-4278
▁اتهام	-4279
▁تخمین	-4280
▁ذاشتن	-4281
▁مسابق	-4282
▁نیادی	-4283
▁لت	-4284
▁ایز	-4285
▁حسن	-4286
▁ضاع	-4287
▁کیه	-4288
▁رفتم	-4289
▁مقصد	-4290
▁پروف	-4291
▁کابل	-4292
▁لوژیک	-4293
▁80	-4294
▁یامد	-4295
▁بشناس	-4296
▁خطرات	-4297
▁رآورد	-4298
▁کالیف	-4299
▁Pl	-4300
▁ch	-4301
▁تخت	-4302
▁درب	-4303
▁شون	-4304
▁ابهی	-4305
▁استو	-4306
▁بینا	-4307
▁دستی	-4308
▁مادگ	-4309
▁محکم	-4310
▁اتوبو	-4311
▁ردگار	-4312
▁کالری	-4313
▁اسد	-4314
▁ناخ	-4315
▁وبا	-4316
▁یمی	-4317
▁یین	-4318
▁ارکس	-4319
▁گریه	-4320
▁گونا	-4321
▁حقیقی	-4322
▁شکنجه	-4323
▁مندتر	-4324
▁بزی	-4325
▁شعر	-4326
▁کرو	-4327
▁ارتف	-4328
▁وانی	-4329
▁واکس	-4330
▁برایم	-4331
ct	-4332
▁اکو	-4333
▁وضو	-4334
▁فرمای	-4335
ub	-4336
▁۱۱	-4337
▁Com	-4338
▁Mar	-4339
▁صفر	-4340
▁ارات	-4341
▁خراج	-4342
io	-4343
▁رر	-4344
▁ظم	-4345
▁صری	-4346
▁هرو	-4347
ers	-4348
سیک	-4349
▁وت	-4350
▁ادب	-4351
▁اهه	-4352
▁فلو	-4353
▁اهنگ	-4354
NA	-4355
▁روس	-4356
▁اتمی	-4357
▁اتین	-4358
▁خلاف	-4359
▁ارمند	-4360
▁لاسیک	-4361
▁بي	-4362
▁کول	-4363
▁غزی	-4364
▁فات	-4365
▁ضرور	-4366
▁روپ	-4367
▁یفا	-4368
▁اکسی	-4369
▁وفان	-4370
▁قاضای	-4371
▁وریست	-4372
▁طا	-4373
▁رفه	-4374
▁وژن	-4375
▁کشند	-4376
▁دداشت	-4377
▁پرستا	-4378
▁Ex	-4379
▁راث	-4380
▁بنای	-4381
▁قایق	-4382
▁یزبان	-4383
▁شها	-4384
▁وچک	-4385
+]	-4386
▁[+]	-4387
▁دکم	-4388
▁کشی	-4389
▁غذاها	-4390
BA	-4391
ss	-4392
▁لّ	-4393
▁تنا	-4394
▁فیف	-4395
▁قند	-4396
▁مدنی	-4397
▁تخصصی	-4398
▁موافق	-4399
-]	-4400
▁IS	-4401
▁ئو	-4402
▁[-]	-4403
▁ائل	-4404
▁دتا	-4405
▁اموش	-4406
▁ردها	-4407
▁پنجم	-4408
▁اهنگی	-4409
▁وچکتر	-4410
ock	-4411
▁70	-4412
▁کسل	-4413
▁انکار	-4414
فهم	-4415
▁Le	-4416
▁کاش	-4417
▁بفهم	-4418
▁لوژی	-4419
▁محقق	-4420
▁منف	-4421
▁كنند	-4422
▁ة	-4423
▁Ar	-4424
▁نز	-4425
▁اچه	-4426
▁لیت	-4427
▁انداخ	-4428
▁گنج	-4429
▁کالا	-4430
▁یبری	-4431
av	-4432
▁ive	-4433
▁عادل	-4434
▁نستن	-4435
▁چش	-4436
▁اجعه	-4437
▁ولاد	-4438
our	-4439
▁احت	-4440
▁سیس	-4441
▁یبر	-4442
▁انید	-4443
ost	-4444
▁ar	-4445
▁ادث	-4446
▁جات	-4447
▁رقه	-4448
▁سیب	-4449
▁طره	-4450
▁Cl	-4451
▁ایه	-4452
▁هرت	-4453
▁واز	-4454
▁رکات	-4455
▁بنیاد	-4456
▁پارتم	-4457
▁1.	-4458
▁۱۴	-4459
▁فرش	-4460
▁یزر	-4461
▁اسید	-4462
ill	-4463
▁تکب	-4464
▁اسکا	-4465
▁بکار	-4466
▁اشی	-4467
▁تنش	-4468
▁زنگ	-4469
▁ونس	-4470
▁گری	-4471
▁زرگان	-4472
▁میت	-4473
▁باشی	-4474
▁رطرف	-4475
▁رزهای	-4476
▁ur	-4477
▁اسط	-4478
▁تتا	-4479
▁ذاب	-4480
▁ناراح	-4481
▁?	-4482
ing	-4483
▁تکل	-4484
▁ستی	-4485
▁نان	-4486
▁گند	-4487
▁مبار	-4488
▁وردند	-4489
▁فش	-4490
▁رتر	-4491
▁فتی	-4492
▁مهر	-4493
▁میشه	-4494
▁نماد	-4495
▁گذارد	-4496
▁پلی	-4497
▁مادرش	-4498
▁man	-4499
▁دیت	-4500
▁واص	-4501
▁شویی	-4502
▁اجد	-4503
▁توج	-4504
▁شبه	-4505
▁لاس	-4506
▁لحه	-4507
▁مدن	-4508
▁ندی	-4509
▁آقا	-4510
▁ئین	-4511
▁انم	-4512
▁وئل	-4513
▁کرم	-4514
▁اهای	-4515
▁دعای	-4516
▁سرما	-4517
▁ارگان	-4518
▁مادی	-4519
▁ندید	-4520
▁حت	-4521
▁خلی	-4522
▁ریل	-4523
▁شورش	-4524
▁اتل	-4525
▁اده	-4526
▁روید	-4527
▁نکردن	-4528
▁اچ	-4529
▁رپ	-4530
▁فوت	-4531
▁دینی	-4532
▁بخشید	-4533
ell	-4534
▁زنم	-4535
▁گاو	-4536
▁طرفدا	-4537
▁—	-4538
ace	-4539
▁موم	-4540
▁گلو	-4541
▁الون	-4542
▁سانه	-4543
▁متری	-4544
▁یاها	-4545
▁ie	-4546
▁بلو	-4547
▁تدا	-4548
▁مبارز	-4549
▁۸۰	-4550
▁دگر	-4551
▁سترو	-4552
▁نجان	-4553
▁شاورز	-4554
▁21	-4555
▁عک	-4556
▁ادو	-4557
▁تنگ	-4558
▁ینی	-4559
▁برید	-4560
▁اوج	-4561
▁غام	-4562
▁وله	-4563
ke	-4564
▁غا	-4565
▁App	-4566
▁نیدن	-4567
▁وریم	-4568
▁اى	-4569
▁يت	-4570
▁ونا	-4571
▁ستاده	-4572
▁پیروز	-4573
▁Ro	-4574
▁an	-4575
▁عوا	-4576
▁پیک	-4577
▁ستری	-4578
▁یران	-4579
▁خه	-4580
▁هز	-4581
▁Int	-4582
▁ایب	-4583
▁دها	-4584
▁نوا	-4585
▁حریم	-4586
▁19	-4587
▁ارل	-4588
▁لذا	-4589
▁مزا	-4590
▁ویزا	-4591
▁یکرو	-4592
▁Ac	-4593
▁no	-4594
▁جت	-4595
▁منع	-4596
▁ازم	-4597
▁یید	-4598
▁ابید	-4599
▁تعلق	-4600
▁صلاح	-4601
سل	-4602
▁ردن	-4603
▁سرم	-4604
▁کین	-4605
▁البا	-4606
▁ربات	-4607
▁رفتند	-4608
▁٠	-4609
ook	-4610
▁جب	-4611
▁ازن	-4612
▁حبت	-4613
▁حدی	-4614
▁طای	-4615
▁فتد	-4616
▁ادری	-4617
▁افسر	-4618
▁قدیم	-4619
▁وران	-4620
▁چشمان	-4621
▁۱۳	-4622
▁چوب	-4623
▁نداز	-4624
▁نظری	-4625
▁دغ	-4626
▁بوی	-4627
▁دوز	-4628
▁ورس	-4629
▁افشا	-4630
▁فزای	-4631
▁ناتو	-4632
ate	-4633
▁ارب	-4634
▁غول	-4635
▁منا	-4636
▁بشری	-4637
▁مسیحی	-4638
ML	-4639
PS	-4640
▁الف	-4641
▁خته	-4642
▁وسط	-4643
▁جاست	-4644
▁ندانه	-4645
▁HI	-4646
▁Uni	-4647
▁سنی	-4648
▁اریو	-4649
▁موسی	-4650
▁انتان	-4651
▁هال	-4652
▁تانه	-4653
▁محاسب	-4654
▁باس	-4655
▁وسه	-4656
▁کلم	-4657
▁ینو	-4658
▁عکاس	-4659
▁دریای	-4660
are	-4661
▁Ph	-4662
▁جک	-4663
▁اوری	-4664
▁باری	-4665
▁منطق	-4666
co	-4667
▁Fi	-4668
▁ph	-4669
▁وخ	-4670
▁ّا	-4671
▁دوی	-4672
▁متد	-4673
▁مزه	-4674
▁ورگ	-4675
▁امان	-4676
▁استار	-4677
▁ارض	-4678
▁فند	-4679
▁فتار	-4680
▁یانت	-4681
▁En	-4682
▁Th	-4683
▁ry	-4684
▁تاج	-4685
▁خرج	-4686
▁سکن	-4687
▁ولای	-4688
▁ازگرد	-4689
op	-4690
▁واژ	-4691
▁ومی	-4692
▁یال	-4693
▁فرود	-4694
▁وئید	-4695
▁دستان	-4696
▁تسل	-4697
▁ضیه	-4698
▁منی	-4699
▁نصف	-4700
▁هول	-4701
▁پلا	-4702
▁ولین	-4703
▁گردش	-4704
ry	-4705
ort	-4706
▁li	-4707
▁منش	-4708
▁کوک	-4709
▁تونی	-4710
▁سرتا	-4711
▁نوار	-4712
▁ایستی	-4713
▁هروند	-4714
▁سي	-4715
▁برم	-4716
▁جین	-4717
▁لمه	-4718
▁وده	-4719
▁نسور	-4720
▁شنایی	-4721
IS	-4722
ame	-4723
▁راط	-4724
▁رکا	-4725
▁عان	-4726
▁تراف	-4727
▁ستار	-4728
▁ادهای	-4729
▁يم	-4730
▁راند	-4731
lo	-4732
بخ	-4733
ore	-4734
▁اقل	-4735
▁انا	-4736
▁لیس	-4737
▁جراح	-4738
▁یحات	-4739
▁خونی	-4740
▁شیمی	-4741
▁یایی	-4742
▁خوشبخ	-4743
ga	-4744
بخت	-4745
▁Be	-4746
▁چا	-4747
▁ارش	-4748
▁بهم	-4749
▁دلم	-4750
▁شست	-4751
▁ژوئ	-4752
▁کاو	-4753
▁رکرد	-4754
▁وشبخت	-4755
▁٢	-4756
▁IC	-4757
▁فس	-4758
▁زاب	-4759
▁ودا	-4760
▁ّت	-4761
▁امس	-4762
▁اندر	-4763
▁ختان	-4764
▁دیکت	-4765
▁واری	-4766
▁وطلب	-4767
▁یروز	-4768
▁تاد	-4769
▁غلب	-4770
▁واد	-4771
▁گیریم	-4772
▁22	-4773
▁be	-4774
▁۲۴	-4775
▁جفت	-4776
▁رژی	-4777
▁شتن	-4778
▁عمق	-4779
▁قرص	-4780
▁فرمو	-4781
▁ولیک	-4782
▁آما	-4783
▁ارف	-4784
▁ونگ	-4785
▁شاگر	-4786
▁Te	-4787
▁۱۶	-4788
▁ائو	-4789
▁هان	-4790
▁یبی	-4791
▁دربار	-4792
▁لکت	-4793
▁سپری	-4794
▁یدنی	-4795
▁تاک	-4796
▁یکس	-4797
▁صمیم	-4798
▁کردی	-4799
▁نداخت	-4800
AS	-4801
▁لیف	-4802
▁نای	-4803
▁امین	-4804
▁اء	-4805
▁۷۰	-4806
▁نگاری	-4807
▁یث	-4808
▁اهر	-4809
▁کمر	-4810
▁یوز	-4811
▁رسیم	-4812
▁اداری	-4813
▁طعم	-4814
▁ارسی	-4815
▁لبان	-4816
▁٩	-4817
ast	-4818
ork	-4819
▁رك	-4820
▁اگه	-4821
▁ماع	-4822
▁نزا	-4823
▁وگا	-4824
▁ایند	-4825
▁ناخته	-4826
▁;	-4827
▁1-	-4828
▁بجا	-4829
▁تیو	-4830
▁نتا	-4831
طرا	-4832
▁اوی	-4833
▁ایش	-4834
▁ایل	-4835
▁ترم	-4836
▁غذی	-4837
▁وقا	-4838
▁کوچ	-4839
▁تنام	-4840
▁والی	-4841
▁انشان	-4842
▁Tr	-4843
▁په	-4844
▁ابا	-4845
▁نوش	-4846
▁ستگی	-4847
▁فارس	-4848
▁ونیک	-4849
▁اضطرا	-4850
▁Man	-4851
▁توک	-4852
▁زمن	-4853
▁پیرا	-4854
▁We	-4855
▁زار	-4856
▁رابط	-4857
▁مذهب	-4858
▁ناظر	-4859
▁ستانی	-4860
بین	-4861
▁افق	-4862
▁نقص	-4863
▁ممنو	-4864
▁HD	-4865
▁اقد	-4866
▁رمت	-4867
▁عود	-4868
▁قین	-4869
▁لار	-4870
▁اسکن	-4871
▁ستیم	-4872
▁ادران	-4873
▁Sa	-4874
▁ly	-4875
▁ابد	-4876
▁تاق	-4877
▁عهد	-4878
▁ومه	-4879
▁بنده	-4880
▁$	-4881
▁حتم	-4882
▁محض	-4883
▁وجو	-4884
▁جزئی	-4885
▁me	-4886
▁وهی	-4887
▁یدا	-4888
ine	-4889
ome	-4890
▁طن	-4891
▁لپ	-4892
▁جزو	-4893
▁راخ	-4894
▁صر	-4895
▁امت	-4896
▁تحم	-4897
▁روت	-4898
▁لوت	-4899
▁نورد	-4900
▁وابست	-4901
mi	-4902
▁مضر	-4903
▁وطه	-4904
▁چسب	-4905
▁تماع	-4906
▁روحی	-4907
▁ستقر	-4908
▁لیسم	-4909
PN	-4910
ft	-4911
▁2-	-4912
▁رخش	-4913
▁لطف	-4914
▁تهای	-4915
▁Jo	-4916
▁ادت	-4917
▁حله	-4918
▁ناط	-4919
▁اریا	-4920
▁متعا	-4921
iv	-4922
mp	-4923
ree	-4924
ینگ	-4925
▁ia	-4926
▁ld	-4927
▁قطر	-4928
▁لحظ	-4929
▁ورژ	-4930
▁تکار	-4931
▁ریست	-4932
▁ناسا	-4933
▁لي	-4934
▁ارن	-4935
▁دله	-4936
▁ردند	-4937
▁شورا	-4938
▁گه	-4939
▁زرس	-4940
▁سکی	-4941
▁سید	-4942
▁غلط	-4943
▁انیم	-4944
▁مقدم	-4945
▁کارا	-4946
▁پذیری	-4947
ta	-4948
▁HIV	-4949
▁افا	-4950
▁شیک	-4951
▁پری	-4952
▁یسه	-4953
▁gra	-4954
▁خره	-4955
▁رزی	-4956
▁فرق	-4957
▁یتی	-4958
▁برگز	-4959
me	-4960
▁2.	-4961
▁Su	-4962
▁الو	-4963
▁اهد	-4964
▁دات	-4965
▁عصب	-4966
▁لاه	-4967
▁ینک	-4968
▁گزاری	-4969
▁حج	-4970
▁۲۱	-4971
▁200	-4972
▁ent	-4973
▁اهو	-4974
▁تشا	-4975
▁عسل	-4976
▁وات	-4977
▁هانه	-4978
▁یلیا	-4979
▁یهود	-4980
▁حب	-4981
▁یِ	-4982
▁DNA	-4983
▁جنا	-4984
▁یزا	-4985
▁ce	-4986
▁صو	-4987
▁ble	-4988
▁وبه	-4989
▁نتون	-4990
ox	-4991
qu	-4992
▁nc	-4993
▁Mic	-4994
▁دوش	-4995
▁وتا	-4996
▁ییم	-4997
▁شانه	-4998
▁sp	-4999
▁لد	-5000
▁حدس	-5001
▁یای	-5002
▁یفت	-5003
▁ادان	-5004
▁حافظ	-5005
▁مایه	-5006
na	-5007
▁He	-5008
▁هج	-5009
▁حظه	-5010
▁رتو	-5011
▁رعه	-5012
▁شاند	-5013
▁پایی	-5014
▁میانه	-5015
▁35	-5016
▁ni	-5017
▁رؤ	-5018
▁اپی	-5019
▁ایو	-5020
▁غرق	-5021
▁لزی	-5022
▁مبو	-5023
▁نسول	-5024
▁وندی	-5025
▁دما	-5026
▁طاب	-5027
▁کنج	-5028
▁هیدر	-5029
▁گرافی	-5030
ark	-5031
▁Me	-5032
▁حه	-5033
▁ure	-5034
▁ریو	-5035
▁نود	-5036
▁بازگ	-5037
▁سوره	-5038
▁شتار	-5039
▁شنوا	-5040
xt	-5041
▁مقر	-5042
▁هیپ	-5043
▁ولا	-5044
ck	-5045
▁se	-5046
▁500	-5047
▁ینت	-5048
▁وادار	-5049
si	-5050
▁VPN	-5051
▁هنم	-5052
▁وپر	-5053
▁36	-5054
▁بری	-5055
▁جار	-5056
▁زاد	-5057
▁قسم	-5058
▁لاب	-5059
▁کوب	-5060
▁ریان	-5061
▁شخصا	-5062
ES	-5063
▁¬	-5064
▁آری	-5065
▁مره	-5066
▁طه	-5067
▁Ser	-5068
▁انک	-5069
▁کیم	-5070
▁اندک	-5071
▁وجوان	-5072
int	-5073
▁Op	-5074
▁۹۰	-5075
▁300	-5076
▁حمت	-5077
▁رأی	-5078
▁شتم	-5079
▁لیه	-5080
▁مجا	-5081
▁وگو	-5082
▁شیده	-5083
▁نندگ	-5084
▁وازه	-5085
▁ینطور	-5086
▁23	-5087
▁is	-5088
▁رئ	-5089
▁پم	-5090
▁تکه	-5091
▁روف	-5092
▁ناگ	-5093
▁ونو	-5094
▁ددا	-5095
▁رمی	-5096
▁نزی	-5097
▁نوک	-5098
▁کوش	-5099
AT	-5100
ile	-5101
▁آنا	-5102
▁اهت	-5103
▁داغ	-5104
▁سقف	-5105
▁کون	-5106
▁vers	-5107
▁رژان	-5108
▁مهار	-5109
▁کسید	-5110
ite	-5111
▁28	-5112
▁۱۷	-5113
▁وسو	-5114
▁گزا	-5115
▁درها	-5116
▁عمار	-5117
▁شکلات	-5118
▁خیل	-5119
▁وقف	-5120
▁انگر	-5121
▁روپای	-5122
▁پیچید	-5123
▁قض	-5124
▁حاک	-5125
▁سمی	-5126
▁لعه	-5127
▁یرت	-5128
▁دایا	-5129
▁درات	-5130
▁لیون	-5131
▁روانش	-5132
▁لکترو	-5133
fe	-5134
▁جزء	-5135
▁منو	-5136
▁هره	-5137
▁یزم	-5138
▁ازیم	-5139
▁جزای	-5140
▁lo	-5141
▁اگو	-5142
▁پاش	-5143
▁فتگی	-5144
▁هنما	-5145
▁معمار	-5146
ass	-5147
▁Wh	-5148
▁ئه	-5149
▁رث	-5150
▁یط	-5151
▁میم	-5152
▁بودی	-5153
▁رگیری	-5154
▁بقا	-5155
▁حرم	-5156
▁هود	-5157
▁ورن	-5158
▁ادات	-5159
▁الین	-5160
▁ضایی	-5161
▁Co	-5162
▁Ta	-5163
▁نیت	-5164
▁هاد	-5165
▁وکا	-5166
▁گرگ	-5167
▁اریم	-5168
▁اعضا	-5169
▁زبانی	-5170
▁he	-5171
▁جیب	-5172
▁طری	-5173
▁فان	-5174
▁لیا	-5175
▁پاه	-5176
▁اعات	-5177
▁زندگ	-5178
ode	-5179
▁CS	-5180
▁انز	-5181
▁همۀ	-5182
▁ورش	-5183
▁کبد	-5184
▁کتب	-5185
▁کنس	-5186
▁HTML	-5187
▁·	-5188
ick	-5189
▁دک	-5190
▁نپ	-5191
▁ارا	-5192
▁بدا	-5193
▁تیز	-5194
▁حسی	-5195
▁قفل	-5196
▁وتو	-5197
▁ورو	-5198
▁گره	-5199
▁یری	-5200
▁ترور	-5201
ED	-5202
ang	-5203
▁وچ	-5204
▁Net	-5205
▁جری	-5206
▁نشر	-5207
▁یتا	-5208
▁ترون	-5209
▁ورشی	-5210
▁وسیا	-5211
mo	-5212
oll	-5213
ust	-5214
▁45	-5215
▁CO	-5216
▁۱۹	-5217
▁New	-5218
▁بخت	-5219
▁برف	-5220
▁حمد	-5221
▁دیس	-5222
▁ندو	-5223
▁هین	-5224
▁پیت	-5225
▁اشتی	-5226
▁اینه	-5227
▁نایی	-5228
▁نامید	-5229
▁آک	-5230
▁دز	-5231
▁اخذ	-5232
▁جلس	-5233
▁ارمن	-5234
▁ندها	-5235
▁دستیا	-5236
▁مامور	-5237
▁AD	-5238
▁زیب	-5239
▁ستش	-5240
▁مواج	-5241
▁وازی	-5242
AN	-5243
▁PC	-5244
▁دگ	-5245
▁ابل	-5246
▁رول	-5247
▁پرت	-5248
ool	-5249
▁تای	-5250
▁شیو	-5251
▁ونه	-5252
▁یقه	-5253
▁رتری	-5254
PA	-5255
▁Pa	-5256
▁WE	-5257
▁SEO	-5258
▁جاب	-5259
▁جال	-5260
▁فال	-5261
▁خوانی	-5262
▁رهایی	-5263
va	-5264
▁اسخ	-5265
▁تحق	-5266
▁خنک	-5267
▁راش	-5268
▁وفا	-5269
▁یزه	-5270
▁یدئو	-5271
▁3.	-5272
▁You	-5273
▁اسه	-5274
▁ندن	-5275
▁ینش	-5276
▁Lo	-5277
▁Pre	-5278
▁War	-5279
▁tor	-5280
▁احی	-5281
▁تمد	-5282
▁جاو	-5283
▁سوس	-5284
▁اتری	-5285
▁برها	-5286
▁Ed	-5287
▁em	-5288
▁تث	-5289
▁امه	-5290
▁بوت	-5291
▁محو	-5292
▁نمک	-5293
AC	-5294
▁زام	-5295
▁غال	-5296
▁لیو	-5297
▁رامی	-5298
▁سوسی	-5299
▁سیال	-5300
▁توانی	-5301
so	-5302
▁‬	-5303
▁لیگ	-5304
▁معا	-5305
▁انیت	-5306
▁جانی	-5307
▁سوری	-5308
▁فتیم	-5309
▁ثم	-5310
▁پک	-5311
▁ect	-5312
▁احل	-5313
▁دعو	-5314
▁لنز	-5315
▁لینی	-5316
▁وشان	-5317
▁26	-5318
▁27	-5319
▁da	-5320
▁ft	-5321
▁۲۲	-5322
▁ادن	-5323
▁دبی	-5324
▁سفی	-5325
▁کنگ	-5326
▁انتی	-5327
▁بهای	-5328
▁وایی	-5329
▁گزین	-5330
▁عز	-5331
زایا	-5332
▁ضرر	-5333
▁قوا	-5334
▁لاگ	-5335
▁ودر	-5336
▁یخت	-5337
▁اریاب	-5338
▁زیبای	-5339
▁مزایا	-5340
▁لل	-5341
▁بیه	-5342
▁حام	-5343
▁ظره	-5344
▁ابری	-5345
▁ناسب	-5346
▁ادآور	-5347
RL	-5348
وف	-5349
▁CD	-5350
▁No	-5351
▁۳۵	-5352
▁ریخ	-5353
▁سمان	-5354
▁کاند	-5355
▁اسخگو	-5356
▁مودند	-5357
▁ta	-5358
▁For	-5359
▁مینا	-5360
▁سفانه	-5361
MS	-5362
ip	-5363
ime	-5364
▁SS	-5365
▁آمر	-5366
▁افع	-5367
▁ظهر	-5368
▁وره	-5369
▁رایان	-5370
▁وشیدن	-5371
ont	-5372
▁II	-5373
▁Pr	-5374
▁زک	-5375
▁احا	-5376
▁الس	-5377
▁اها	-5378
▁دیا	-5379
▁ادام	-5380
▁امری	-5381
▁علاق	-5382
▁لک	-5383
▁جله	-5384
▁روژ	-5385
▁رکت	-5386
▁لبه	-5387
▁ناز	-5388
▁هری	-5389
▁وبی	-5390
▁ینا	-5391
▁هوشم	-5392
▁ایستا	-5393
▁To	-5394
▁ثی	-5395
▁And	-5396
▁هدر	-5397
▁کرا	-5398
▁گال	-5399
▁نوآور	-5400
DA	-5401
پس	-5402
▁AS	-5403
▁us	-5404
▁آسا	-5405
▁جوش	-5406
▁قدس	-5407
▁مسن	-5408
▁گوا	-5409
▁یزیو	-5410
ff	-5411
ice	-5412
▁75	-5413
▁ial	-5414
▁اتا	-5415
▁امل	-5416
▁تار	-5417
▁لسل	-5418
▁نکو	-5419
▁پاپ	-5420
▁راکت	-5421
▁همسا	-5422
▁یدان	-5423
▁ذراند	-5424
▁Mac	-5425
▁One	-5426
▁Res	-5427
▁Wor	-5428
▁اطم	-5429
▁حبس	-5430
▁همگ	-5431
▁۲۰۰	-5432
▁ترجم	-5433
▁مانه	-5434
▁مراه	-5435
▁●	-5436
▁My	-5437
▁Sy	-5438
▁ex	-5439
▁خم	-5440
▁MBA	-5441
▁صور	-5442
▁لیز	-5443
▁ونت	-5444
▁نوشید	-5445
ank	-5446
▁3-	-5447
▁CR	-5448
▁ازش	-5449
▁تات	-5450
▁تهی	-5451
▁هام	-5452
NS	-5453
▁Na	-5454
▁تنه	-5455
▁لگی	-5456
▁ژیک	-5457
▁۵۰۰	-5458
▁بانی	-5459
▁فانه	-5460
▁وعات	-5461
▁یمان	-5462
▁استخر	-5463
AR	-5464
▁MS	-5465
▁ern	-5466
▁iOS	-5467
▁اطل	-5468
▁سبی	-5469
▁لوم	-5470
▁ndow	-5471
▁رجست	-5472
ics	-5473
▁(1	-5474
▁عط	-5475
▁مض	-5476
▁وگ	-5477
▁Pri	-5478
▁ابی	-5479
▁ارث	-5480
▁شکی	-5481
▁مینی	-5482
▁یانگ	-5483
ala	-5484
ith	-5485
ood	-5486
▁AC	-5487
▁حث	-5488
▁WEB	-5489
▁ریش	-5490
▁سنا	-5491
▁قیب	-5492
▁مده	-5493
▁چهل	-5494
▁کوس	-5495
▁ایست	-5496
▁موها	-5497
TP	-5498
▁es	-5499
▁Tra	-5500
▁بحر	-5501
▁زدا	-5502
▁چرب	-5503
▁دیدا	-5504
▁سالی	-5505
▁مانت	-5506
▁وانم	-5507
ath	-5508
▁Bu	-5509
▁Mi	-5510
▁PS	-5511
▁gy	-5512
▁زر	-5513
▁برش	-5514
▁فته	-5515
▁دمان	-5516
▁وگان	-5517
▁یدیم	-5518
▁یستم	-5519
▁امیان	-5520
IT	-5521
ey	-5522
▁Do	-5523
▁كا	-5524
▁يل	-5525
▁پت	-5526
▁لیل	-5527
▁وصل	-5528
▁نامی	-5529
ash	-5530
ink	-5531
▁32	-5532
▁Gr	-5533
▁وي	-5534
▁ert	-5535
▁شتر	-5536
▁شکم	-5537
▁ness	-5538
▁انهای	-5539
TS	-5540
ab	-5541
gi	-5542
▁ISO	-5543
▁تنی	-5544
▁روگ	-5545
▁هدا	-5546
▁ودآ	-5547
▁نداد	-5548
▁وستی	-5549
ak	-5550
pt	-5551
▁31	-5552
▁AM	-5553
▁روک	-5554
▁زیم	-5555
▁محر	-5556
▁وزی	-5557
ER	-5558
▁Car	-5559
▁اعل	-5560
▁دره	-5561
▁قطب	-5562
▁قلی	-5563
▁AR	-5564
▁Ni	-5565
▁سد	-5566
▁طف	-5567
▁URL	-5568
▁pro	-5569
▁احم	-5570
▁تصر	-5571
▁روا	-5572
▁زیک	-5573
▁شفا	-5574
▁قوت	-5575
▁لوا	-5576
▁یغا	-5577
▁الری	-5578
▁خیره	-5579
▁دگار	-5580
▁رانی	-5581
▁غالب	-5582
▁وانه	-5583
▁\	-5584
ata	-5585
▁IB	-5586
▁USB	-5587
▁ائی	-5588
▁بای	-5589
▁تعل	-5590
▁ردگ	-5591
▁نجا	-5592
▁خوری	-5593
▁اتوری	-5594
▁ایگان	-5595
eo	-5596
▁Am	-5597
▁وو	-5598
▁ice	-5599
▁nic	-5600
▁رگو	-5601
▁زمی	-5602
▁افزا	-5603
▁دآور	-5604
▁ستانه	-5605
▁tal	-5606
▁طلو	-5607
▁فعل	-5608
▁گوس	-5609
▁{	-5610
▁رمن	-5611
▁یلو	-5612
▁محتو	-5613
▁ازهای	-5614
▁مقاوم	-5615
olo	-5616
▁Bo	-5617
▁سس	-5618
▁افی	-5619
▁برن	-5620
▁بیگ	-5621
▁صدی	-5622
▁طار	-5623
▁وشش	-5624
▁یله	-5625
▁دامن	-5626
▁Go	-5627
▁Qu	-5628
▁الش	-5629
▁خشن	-5630
▁هدی	-5631
▁ببین	-5632
▁تگان	-5633
▁رایم	-5634
▁ndows	-5635
▁پوشید	-5636
ti	-5637
▁4-	-5638
▁Ev	-5639
▁رزو	-5640
▁علل	-5641
▁وکی	-5642
▁Serv	-5643
AP	-5644
EC	-5645
yp	-5646
▁‘	-5647
▁هش	-5648
▁بدل	-5649
▁بوس	-5650
▁ثاب	-5651
▁مگا	-5652
▁هلی	-5653
▁وبل	-5654
▁یزد	-5655
▁بانه	-5656
▁تخوا	-5657
▁AP	-5658
▁On	-5659
▁we	-5660
▁۲۳	-5661
▁۴۵	-5662
▁اجب	-5663
▁تلخ	-5664
▁زور	-5665
▁مکر	-5666
▁وبت	-5667
▁یلس	-5668
▁Comp	-5669
▁برون	-5670
▁٨	-5671
افظ	-5672
▁IT	-5673
▁un	-5674
▁تند	-5675
▁سکه	-5676
▁ششم	-5677
▁وتر	-5678
▁یمو	-5679
▁امدا	-5680
▁اینک	-5681
▁قانه	-5682
▁یجان	-5683
▁محافظ	-5684
ha	-5685
ذر	-5686
ere	-5687
▁۲۷	-5688
▁rch	-5689
▁بها	-5690
▁دوق	-5691
▁میگ	-5692
▁نکر	-5693
▁یکا	-5694
▁Home	-5695
▁ستیک	-5696
▁مختل	-5697
▁وانیم	-5698
▁Red	-5699
▁مات	-5700
▁پکن	-5701
▁اهده	-5702
▁ملات	-5703
▁ولان	-5704
▁رستان	-5705
ind	-5706
▁my	-5707
▁گش	-5708
▁Air	-5709
▁دفن	-5710
▁صاف	-5711
▁موی	-5712
▁نیل	-5713
▁انها	-5714
یز	-5715
▁Of	-5716
▁ul	-5717
▁شق	-5718
▁چو	-5719
▁400	-5720
▁لون	-5721
▁وکل	-5722
▁work	-5723
▁تانی	-5724
▁یالی	-5725
▁احتیا	-5726
▁تجربی	-5727
▁29	-5728
▁زي	-5729
▁Med	-5730
▁ain	-5731
▁فاش	-5732
▁فای	-5733
▁مبر	-5734
▁land	-5735
▁ادرا	-5736
ly	-5737
att	-5738
▁نچ	-5739
▁یص	-5740
▁آتی	-5741
▁کیک	-5742
▁یکن	-5743
▁نگون	-5744
▁ژانس	-5745
▁یشگی	-5746
▁As	-5747
▁ES	-5748
▁up	-5749
▁تپ	-5750
▁ذی	-5751
▁ard	-5752
▁بلغ	-5753
▁وحی	-5754
▁کمت	-5755
▁یها	-5756
▁داوط	-5757
▁4.	-5758
▁OS	-5759
▁sc	-5760
▁ئل	-5761
▁ian	-5762
▁افک	-5763
▁جزا	-5764
▁سسه	-5765
▁شوک	-5766
▁یشتر	-5767
▁داوطل	-5768
uc	-5769
▁mi	-5770
▁غه	-5771
▁ریج	-5772
▁نتو	-5773
▁وبر	-5774
▁وزا	-5775
▁Play	-5776
▁سمیت	-5777
▁وسته	-5778
ho	-5779
▁PH	-5780
▁آو	-5781
▁تگ	-5782
▁جس	-5783
▁رۀ	-5784
▁اکم	-5785
▁شین	-5786
▁قرا	-5787
▁قید	-5788
▁مسل	-5789
▁هبر	-5790
AM	-5791
ID	-5792
▁net	-5793
▁out	-5794
▁زوم	-5795
▁زوی	-5796
▁غار	-5797
▁فاز	-5798
▁فور	-5799
▁فول	-5800
▁کته	-5801
▁یلت	-5802
▁یوی	-5803
▁انتر	-5804
▁غیرم	-5805
▁منان	-5806
▁مسلما	-5807
▁نگذار	-5808
ET	-5809
ara	-5810
▁do	-5811
▁la	-5812
▁Exp	-5813
▁غزه	-5814
▁ندگ	-5815
▁نوب	-5816
▁پال	-5817
▁یما	-5818
▁roso	-5819
▁زنید	-5820
▁الیست	-5821
lu	-5822
oud	-5823
ull	-5824
▁EC	-5825
atch	-5826
▁ایک	-5827
▁برا	-5828
▁لفا	-5829
▁کشن	-5830
▁یلا	-5831
▁ارشی	-5832
▁وابید	-5833
▁}	-5834
▁Di	-5835
▁iP	-5836
▁ica	-5837
▁امش	-5838
▁حرا	-5839
▁دمت	-5840
▁قبا	-5841
▁ودی	-5842
▁ویم	-5843
▁یزو	-5844
▁داوم	-5845
▁دران	-5846
IP	-5847
▁٣	-5848
old	-5849
▁Ra	-5850
▁150	-5851
▁Ste	-5852
▁Web	-5853
▁درج	-5854
▁پمپ	-5855
▁ابین	-5856
▁یستی	-5857
▁امپرا	-5858
▁(2	-5859
▁ey	-5860
▁if	-5861
▁ted	-5862
▁تکی	-5863
▁جهش	-5864
▁ریدا	-5865
▁زماند	-5866
RP	-5867
▁وث	-5868
▁کز	-5869
▁Can	-5870
▁Des	-5871
▁سما	-5872
▁نوس	-5873
▁انور	-5874
▁اکتر	-5875
▁جرای	-5876
▁مودن	-5877
▁El	-5878
▁Sk	-5879
▁um	-5880
▁خل	-5881
▁پز	-5882
▁گس	-5883
▁دیل	-5884
▁رسا	-5885
▁زیل	-5886
▁فون	-5887
▁قدی	-5888
▁مدی	-5889
▁نیس	-5890
▁گیج	-5891
▁Word	-5892
▁رایت	-5893
▁موزی	-5894
▁ناور	-5895
▁یانو	-5896
▁رگذار	-5897
▁مایان	-5898
▁Po	-5899
▁چت	-5900
▁اشم	-5901
▁درگ	-5902
▁شنگ	-5903
▁صدر	-5904
▁فرس	-5905
▁وهر	-5906
▁Time	-5907
▁امنی	-5908
▁تادن	-5909
▁ندرو	-5910
▁کارآ	-5911
▁Black	-5912
IC	-5913
▁HP	-5914
▁جسد	-5915
▁قرض	-5916
▁استه	-5917
▁هالی	-5918
own	-5919
واه	-5920
▁ac	-5921
▁اا	-5922
▁گا	-5923
▁Aut	-5924
▁ایس	-5925
▁ثیر	-5926
▁شته	-5927
▁عزت	-5928
▁وژه	-5929
▁رانس	-5930
▁مقرر	-5931
▁کمون	-5932
▁انتها	-5933
hn	-5934
▁fi	-5935
▁gn	-5936
▁يش	-5937
▁Bit	-5938
▁Met	-5939
▁ائم	-5940
▁بوش	-5941
▁شیش	-5942
▁قصه	-5943
▁ورک	-5944
▁وهم	-5945
▁کیت	-5946
▁ارست	-5947
▁روری	-5948
▁زانه	-5949
▁ماها	-5950
MI	-5951
▁Br	-5952
▁lt	-5953
▁فظ	-5954
▁يس	-5955
▁۲۶	-5956
▁All	-5957
▁Sec	-5958
▁افس	-5959
▁پاد	-5960
▁اولی	-5961
TA	-5962
▁Du	-5963
▁مگ	-5964
▁تها	-5965
▁رخا	-5966
▁ودن	-5967
▁پرا	-5968
▁Game	-5969
▁رانش	-5970
▁گیرم	-5971
ero	-5972
oun	-5973
▁bo	-5974
▁by	-5975
▁قم	-5976
▁ابق	-5977
▁جیم	-5978
▁داز	-5979
▁ریع	-5980
▁صلی	-5981
▁فره	-5982
▁لور	-5983
▁لوگ	-5984
▁پله	-5985
▁برانگ	-5986
▁<	-5987
usi	-5988
▁48	-5989
▁Gu	-5990
▁Pi	-5991
▁ki	-5992
▁tt	-5993
▁Gen	-5994
▁رصد	-5995
▁عمد	-5996
▁قوه	-5997
▁نگل	-5998
▁Inst	-5999
▁gram	-6000
▁میکن	-6001
▁ورده	-6002
▁افسرد	-6003
HD	-6004
▁**	-6005
▁di	-6006
▁مچ	-6007
▁پد	-6008
▁خطی	-6009
▁ینان	-6010
▁انسته	-6011
ua	-6012
▁صل	-6013
▁۲۸	-6014
▁Gra	-6015
▁ایا	-6016
▁ختم	-6017
▁داف	-6018
▁عبه	-6019
▁وقع	-6020
▁تریک	-6021
▁رداد	-6022
▁قریب	-6023
▁65	-6024
▁Dis	-6025
▁باق	-6026
▁دلی	-6027
▁ناح	-6028
▁پنل	-6029
▁Mark	-6030
▁اکنش	-6031
▁کایت	-6032
▁PD	-6033
▁ss	-6034
▁ton	-6035
▁انط	-6036
▁تفک	-6037
▁شیخ	-6038
▁فدا	-6039
▁هلت	-6040
▁Cont	-6041
▁راهن	-6042
▁منتق	-6043
▁نگری	-6044
▁ینتر	-6045
▁لیستی	-6046
ild	-6047
ous	-6048
▁55	-6049
▁ID	-6050
▁ST	-6051
▁Sm	-6052
▁رچ	-6053
▁لج	-6054
▁هٔ	-6055
▁اشه	-6056
▁انل	-6057
▁حتا	-6058
▁عفو	-6059
▁فلج	-6060
▁مسو	-6061
▁واک	-6062
▁پور	-6063
▁اندی	-6064
▁ودتا	-6065
IN	-6066
▁@	-6067
act	-6068
▁CP	-6069
▁DS	-6070
▁Pe	-6071
▁So	-6072
▁mo	-6073
▁رص	-6074
▁وص	-6075
▁min	-6076
▁آسم	-6077
▁انو	-6078
▁سیت	-6079
▁نزو	-6080
▁هیم	-6081
▁یگا	-6082
▁دومی	-6083
▁نایت	-6084
▁اندرو	-6085
▁هایتا	-6086
▁33	-6087
▁34	-6088
▁120	-6089
▁nes	-6090
▁بلد	-6091
▁دلش	-6092
▁صحت	-6093
▁صله	-6094
▁Tech	-6095
▁دادگ	-6096
▁طلای	-6097
ON	-6098
▁5-	-6099
▁Is	-6100
▁ell	-6101
▁ختص	-6102
▁لاو	-6103
▁ویش	-6104
▁استا	-6105
▁اشته	-6106
▁دانا	-6107
▁لاری	-6108
▁یانی	-6109
▁هموار	-6110
RI	-6111
oot	-6112
▁جش	-6113
▁دپ	-6114
▁كم	-6115
▁Cre	-6116
▁ردم	-6117
▁شتی	-6118
▁همو	-6119
▁ومو	-6120
▁پخت	-6121
▁اورا	-6122
▁قامت	-6123
▁کامپ	-6124
▁گفتی	-6125
▁مرزها	-6126
▁!!	-6127
▁Or	-6128
▁SM	-6129
▁بص	-6130
▁زه	-6131
▁عش	-6132
▁nge	-6133
▁احد	-6134
▁ارس	-6135
▁زشت	-6136
▁عرف	-6137
▁ناد	-6138
▁نيز	-6139
▁پات	-6140
▁فرین	-6141
▁95	-6142
▁ine	-6143
▁ory	-6144
▁ral	-6145
▁سقط	-6146
▁وزش	-6147
▁وسع	-6148
▁ress	-6149
▁ادرش	-6150
▁رگان	-6151
▁زاره	-6152
▁ولیت	-6153
▁یتزا	-6154
▁مشاهد	-6155
BC	-6156
دو	-6157
oto	-6158
▁IN	-6159
▁ut	-6160
▁Mon	-6161
▁Rob	-6162
▁iew	-6163
▁way	-6164
▁اشق	-6165
▁امب	-6166
▁زنا	-6167
▁سول	-6168
▁شات	-6169
▁شرف	-6170
▁نجه	-6171
▁یتس	-6172
▁یدر	-6173
▁سایل	-6174
▁وریس	-6175
ase	-6176
oup	-6177
ینو	-6178
▁At	-6179
▁Ha	-6180
▁op	-6181
▁sy	-6182
▁بره	-6183
▁تپه	-6184
▁عطر	-6185
▁ویق	-6186
▁Open	-6187
▁book	-6188
▁roid	-6189
▁فاصل	-6190
▁یرین	-6191
▁Cloud	-6192
▁افتند	-6193
▁ha	-6194
▁qu	-6195
▁ty	-6196
▁دق	-6197
▁سع	-6198
▁lic	-6199
▁zon	-6200
▁الج	-6201
▁راض	-6202
▁شنه	-6203
▁طوف	-6204
▁قله	-6205
▁قهر	-6206
▁لکس	-6207
▁ناو	-6208
▁نگو	-6209
▁ورز	-6210
▁کتر	-6211
▁یزش	-6212
▁۱۵۰	-6213
▁Cent	-6214
▁ارتا	-6215
▁ردار	-6216
▁لاین	-6217
▁DV	-6218
▁يك	-6219
▁Spe	-6220
▁sta	-6221
▁ual	-6222
▁ارگ	-6223
▁ازو	-6224
▁حلی	-6225
▁عطا	-6226
▁بارز	-6227
▁تبال	-6228
▁دادی	-6229
▁ناختی	-6230
TC	-6231
▁(3	-6232
▁ad	-6233
▁bl	-6234
▁بج	-6235
▁Ass	-6236
▁ber	-6237
▁con	-6238
▁ney	-6239
▁org	-6240
▁اکر	-6241
▁فتح	-6242
▁مرج	-6243
▁وگر	-6244
▁ویس	-6245
▁یوه	-6246
▁۳۰۰	-6247
ru	-6248
▁↑	-6249
▁SD	-6250
▁sm	-6251
▁xy	-6252
ound	-6253
▁بهش	-6254
▁دتر	-6255
▁ذات	-6256
▁رئی	-6257
▁راو	-6258
▁هرم	-6259
▁یمه	-6260
▁سیست	-6261
▁وردگ	-6262
▁متحده	-6263
IM	-6264
▁38	-6265
▁85	-6266
▁co	-6267
▁pl	-6268
▁لئ	-6269
▁مّ	-6270
▁Sup	-6271
▁ies	-6272
▁بتا	-6273
▁ذار	-6274
▁ومن	-6275
▁وکر	-6276
▁ینس	-6277
▁John	-6278
▁بلاگ	-6279
كر	-6280
▁→	-6281
ach	-6282
unt	-6283
uro	-6284
▁1)	-6285
▁2)	-6286
▁Un	-6287
▁ربست	-6288
▁عددی	-6289
▁پوشا	-6290
▁اوران	-6291
▁رترین	-6292
▁یخواه	-6293
جع	-6294
▁٧	-6295
▁--	-6296
▁39	-6297
▁LL	-6298
▁Stu	-6299
▁رسن	-6300
▁رما	-6301
▁فین	-6302
▁لتر	-6303
▁همت	-6304
▁کست	-6305
▁یتم	-6306
▁سیری	-6307
▁لیبر	-6308
▁نیکی	-6309
▁وردی	-6310
▁مراجع	-6311
▁نهاده	-6312
▁Fl	-6313
▁IV	-6314
▁ظت	-6315
▁۶۵	-6316
▁mic	-6317
▁ابن	-6318
▁بیس	-6319
▁قبر	-6320
▁لگر	-6321
▁لید	-6322
▁نشا	-6323
▁وفی	-6324
▁پوس	-6325
▁Next	-6326
▁اسلا	-6327
▁اوند	-6328
▁اینست	-6329
ep	-6330
ise	-6331
▁Ab	-6332
▁IM	-6333
▁go	-6334
▁اظ	-6335
▁لگ	-6336
▁Acc	-6337
▁ver	-6338
▁اتش	-6339
▁حول	-6340
▁شرم	-6341
▁لیپ	-6342
▁نسر	-6343
▁ویک	-6344
▁Busi	-6345
▁form	-6346
▁رگاه	-6347
amp	-6348
itt	-6349
▁رل	-6350
▁Bra	-6351
▁Vis	-6352
▁tiv	-6353
▁اوب	-6354
▁رپر	-6355
▁سوق	-6356
▁لله	-6357
▁مرت	-6358
▁هرا	-6359
▁Mana	-6360
▁ادبی	-6361
▁تناس	-6362
▁مدرس	-6363
▁هانی	-6364
▁هیپو	-6365
CA	-6366
EL	-6367
EM	-6368
de	-6369
ong	-6370
▁Da	-6371
▁MA	-6372
▁سح	-6373
▁Mus	-6374
▁Not	-6375
▁خوا	-6376
▁شگر	-6377
▁ندم	-6378
▁نوم	-6379
▁ولد	-6380
▁Star	-6381
▁بیاب	-6382
▁فاعی	-6383
▁فولا	-6384
▁هارد	-6385
▁ومان	-6386
▁کلین	-6387
▁گارا	-6388
▁یونا	-6389
ینز	-6390
▁44	-6391
▁AI	-6392
▁AT	-6393
▁RS	-6394
▁Ri	-6395
▁ئد	-6396
▁لخ	-6397
ouse	-6398
▁600	-6399
▁Cap	-6400
▁Gre	-6401
▁ser	-6402
▁ریپ	-6403
▁سحر	-6404
▁عرق	-6405
▁مقص	-6406
▁Data	-6407
▁دمات	-6408
▁رؤیا	-6409
▁وستان	-6410
que	-6411
▁5.	-6412
▁PP	-6413
▁PR	-6414
▁ow	-6415
ount	-6416
▁FDA	-6417
▁PHP	-6418
▁Sta	-6419
▁شیا	-6420
▁منم	-6421
▁وما	-6422
▁یکم	-6423
▁ious	-6424
▁عفون	-6425
▁والد	-6426
▁وضعی	-6427
CD	-6428
go	-6429
oli	-6430
▁ti	-6431
▁ضم	-6432
▁وآ	-6433
▁end	-6434
▁بلی	-6435
▁سطی	-6436
▁سفت	-6437
▁صدق	-6438
▁ظلم	-6439
▁عیب	-6440
▁کلر	-6441
▁یاس	-6442
▁ارتر	-6443
▁انشا	-6444
▁سعود	-6445
▁ورید	-6446
▁کراسی	-6447
▁Fr	-6448
▁SP	-6449
▁pe	-6450
▁شك	-6451
▁نض	-6452
▁Bro	-6453
▁Day	-6454
▁ادم	-6455
▁انق	-6456
▁رفی	-6457
▁مبی	-6458
▁ولر	-6459
▁افرا	-6460
▁فران	-6461
▁لمات	-6462
▁متنا	-6463
IF	-6464
ضم	-6465
▁إ	-6466
▁Si	-6467
▁۲٫	-6468
▁۷۵	-6469
▁Ana	-6470
▁GPS	-6471
▁est	-6472
▁ذیل	-6473
▁سلو	-6474
▁هضم	-6475
▁پین	-6476
▁Free	-6477
▁Post	-6478
▁آمری	-6479
▁باها	-6480
▁هایت	-6481
▁Press	-6482
▁نداری	-6483
▁وربین	-6484
ai	-6485
ca	-6486
▁ٌ	-6487
▁NG	-6488
▁Sw	-6489
▁am	-6490
▁ol	-6491
▁ضه	-6492
▁Dev	-6493
▁Fin	-6494
▁Pow	-6495
▁اهی	-6496
▁قصر	-6497
▁نتر	-6498
▁نیش	-6499
▁Amer	-6500
▁Auto	-6501
▁آلود	-6502
▁الای	-6503
▁ایان	-6504
▁ریاض	-6505
▁تقریب	-6506
▁یدهای	-6507
os	-6508
ava	-6509
end	-6510
▁43	-6511
▁ff	-6512
▁ضل	-6513
▁۳۶	-6514
▁oin	-6515
▁ort	-6516
▁الر	-6517
▁جزی	-6518
▁جلد	-6519
▁قشه	-6520
▁لغت	-6521
▁مرو	-6522
▁وشم	-6523
▁چیه	-6524
▁ژنو	-6525
▁Book	-6526
▁Dead	-6527
▁Prev	-6528
▁Syst	-6529
▁دوبار	-6530
▁فرادی	-6531
Tu	-6532
▁٤	-6533
▁▪	-6534
▁VR	-6535
▁du	-6536
جهیز	-6537
▁Art	-6538
▁CSS	-6539
▁تره	-6540
▁هرج	-6541
▁ADHD	-6542
▁Blue	-6543
▁back	-6544
▁ware	-6545
▁اختر	-6546
▁ریال	-6547
▁ستاد	-6548
▁پروژ	-6549
▁تجهیز	-6550
CC	-6551
vi	-6552
ww	-6553
لر	-6554
▁Up	-6555
▁va	-6556
▁Bre	-6557
▁Che	-6558
▁Cra	-6559
▁Per	-6560
▁جاه	-6561
▁دوپ	-6562
▁ردو	-6563
▁رزا	-6564
▁زیس	-6565
▁ناف	-6566
▁نری	-6567
▁هما	-6568
▁هیر	-6569
▁یاف	-6570
▁Tran	-6571
▁ختار	-6572
▁داور	-6573
▁دیان	-6574
▁رمند	-6575
▁شابه	-6576
▁اهایی	-6577
▁اینتر	-6578
ud	-6579
ide	-6580
▁CB	-6581
▁CV	-6582
▁TH	-6583
▁ip	-6584
▁هب	-6585
▁هي	-6586
▁۱٫	-6587
▁۲۹	-6588
▁(1)	-6589
▁Sam	-6590
▁ric	-6591
▁tic	-6592
▁رکه	-6593
▁سپر	-6594
▁شاخ	-6595
▁نول	-6596
▁هرک	-6597
▁یوس	-6598
▁Back	-6599
▁Gala	-6600
▁ریعت	-6601
▁مایک	-6602
▁مرات	-6603
▁هادی	-6604
▁کترون	-6605
OR	-6606
ett	-6607
▁42	-6608
▁NF	-6609
▁cl	-6610
▁ec	-6611
▁شح	-6612
▁250	-6613
▁CRM	-6614
▁LED	-6615
▁www	-6616
▁بهت	-6617
▁رنا	-6618
▁سلا	-6619
▁ماک	-6620
▁ناظ	-6621
▁ویو	-6622
▁آزما	-6623
▁ابها	-6624
▁ارتم	-6625
▁بلیت	-6626
▁دستم	-6627
▁رآور	-6628
▁رافی	-6629
▁رهای	-6630
▁ریده	-6631
▁زاین	-6632
▁ستید	-6633
▁ویید	-6634
▁گانی	-6635
▁برایت	-6636
▁نیستی	-6637
▁‫	-6638
ant	-6639
ele	-6640
ump	-6641
▁51	-6642
▁64	-6643
▁UN	-6644
▁Us	-6645
▁ظه	-6646
▁API	-6647
▁Out	-6648
▁خند	-6649
▁دیم	-6650
▁ذره	-6651
▁ربط	-6652
▁شرک	-6653
▁فلش	-6654
▁موع	-6655
▁King	-6656
▁دیدی	-6657
▁فاهی	-6658
▁نگین	-6659
▁وزان	-6660
▁پلاس	-6661
▁چندی	-6662
▁گردی	-6663
IA	-6664
oT	-6665
ist	-6666
▁CA	-6667
▁Vo	-6668
▁cy	-6669
▁il	-6670
▁Cor	-6671
▁ائت	-6672
▁تحا	-6673
▁تکا	-6674
▁حیح	-6675
▁کوا	-6676
▁اروی	-6677
▁تبار	-6678
▁ههای	-6679
▁یاور	-6680
▁توجهی	-6681
▁سیدند	-6682
DP	-6683
نس	-6684
▁‍	-6685
▁←	-6686
one	-6687
▁8.	-6688
▁Fe	-6689
▁GM	-6690
▁Dav	-6691
▁ner	-6692
▁جرج	-6693
▁فنا	-6694
▁قیه	-6695
▁مخف	-6696
▁نها	-6697
▁همن	-6698
▁ژان	-6699
▁Coll	-6700
▁ارون	-6701
▁ارکت	-6702
▁رعون	-6703
igh	-6704
ory	-6705
▁..	-6706
▁6.	-6707
▁99	-6708
▁آه	-6709
▁Col	-6710
▁Ent	-6711
▁che	-6712
▁باط	-6713
▁رشت	-6714
▁سرت	-6715
▁مکن	-6716
▁نهم	-6717
▁وزف	-6718
▁یرا	-6719
▁Live	-6720
▁دارن	-6721
▁عمال	-6722
▁ونده	-6723
▁یستاد	-6724
EA	-6725
OC	-6726
box	-6727
▁))	-6728
▁37	-6729
▁6-	-6730
▁AL	-6731
▁CH	-6732
▁Tw	-6733
▁۳۲	-6734
▁آلت	-6735
▁باف	-6736
▁ذوب	-6737
▁رجا	-6738
▁رنت	-6739
▁محا	-6740
▁هیا	-6741
▁کشش	-6742
▁کنت	-6743
▁اعما	-6744
▁انات	-6745
▁راتو	-6746
▁ردگی	-6747
▁ستور	-6748
▁پیرو	-6749
▁ندهای	-6750
صا	-6751
eld	-6752
oom	-6753
▁41	-6754
▁47	-6755
▁NS	-6756
▁غی	-6757
▁Bar	-6758
▁Ber	-6759
▁IoT	-6760
▁Rep	-6761
▁Vie	-6762
▁cha	-6763
▁day	-6764
▁اقت	-6765
▁راگ	-6766
▁کنش	-6767
▁کهن	-6768
▁گله	-6769
▁Xbox	-6770
▁word	-6771
▁ستعد	-6772
▁صولا	-6773
▁علما	-6774
▁لندی	-6775
▁نوان	-6776
▁Group	-6777
▁ارویی	-6778
▁فتاده	-6779
ph	-6780
wn	-6781
ين	-6782
▁IR	-6783
▁جف	-6784
▁خف	-6785
▁rol	-6786
▁اوک	-6787
▁حجت	-6788
▁خوک	-6789
▁شدی	-6790
▁پید	-6791
▁یگو	-6792
▁اریک	-6793
▁ازان	-6794
▁استف	-6795
▁بروی	-6796
▁طابق	-6797
▁کروس	-6798
▁اینده	-6799
▁تفاقا	-6800
وو	-6801
▁٥	-6802
▁72	-6803
▁:)	-6804
▁MP	-6805
▁sa	-6806
▁زگ	-6807
▁bil	-6808
▁ger	-6809
▁آیی	-6810
▁بپر	-6811
▁خصی	-6812
▁خیم	-6813
▁فاق	-6814
▁واج	-6815
▁یبت	-6816
▁یوت	-6817
▁۴۰۰	-6818
▁Link	-6819
▁Sema	-6820
▁ارها	-6821
▁رزمی	-6822
▁فونت	-6823
▁نطور	-6824
▁واست	-6825
▁یاید	-6826
▁اختصا	-6827
▁اهرات	-6828
▁اهکار	-6829
▁بازدا	-6830
▁رادار	-6831
▁میلاد	-6832
ea	-6833
▁Edi	-6834
▁Min	-6835
▁Pay	-6836
▁tra	-6837
▁تاخ	-6838
▁تید	-6839
▁پرش	-6840
▁یدی	-6841
▁Comm	-6842
▁Desi	-6843
▁stra	-6844
▁امنه	-6845
▁لیتی	-6846
▁موسس	-6847
▁گلیس	-6848
▁ارهای	-6849
ui	-6850
ype	-6851
▁NA	-6852
▁Dri	-6853
▁Geo	-6854
▁Har	-6855
▁IBM	-6856
▁MIT	-6857
▁Rev	-6858
▁dio	-6859
▁mon	-6860
▁nch	-6861
▁آلن	-6862
▁آله	-6863
▁بجز	-6864
▁بدو	-6865
▁تمن	-6866
▁ثمر	-6867
▁حسب	-6868
▁حما	-6869
▁خیس	-6870
▁شیب	-6871
▁غات	-6872
▁لقب	-6873
▁یخی	-6874
▁۶۰۰	-6875
▁Call	-6876
▁Face	-6877
▁with	-6878
▁امپر	-6879
▁روتر	-6880
▁عیار	-6881
▁لابی	-6882
▁معما	-6883
▁ینال	-6884
▁موقعی	-6885
QL	-6886
fi	-6887
ld	-6888
up	-6889
ich	-6890
▁7.	-6891
▁EM	-6892
▁RA	-6893
▁si	-6894
▁۳۱	-6895
▁HPV	-6896
▁int	-6897
▁ncy	-6898
▁خرس	-6899
▁داب	-6900
▁سبد	-6901
▁فلا	-6902
▁کبک	-6903
▁یتو	-6904
▁یكی	-6905
▁Life	-6906
▁View	-6907
▁tics	-6908
▁تایی	-6909
▁ردیم	-6910
▁سالا	-6911
▁واهر	-6912
za	-6913
ani	-6914
▁SA	-6915
▁TR	-6916
▁UC	-6917
▁لش	-6918
▁Ama	-6919
▁per	-6920
▁res	-6921
▁اکی	-6922
▁توش	-6923
▁طرن	-6924
▁نسی	-6925
▁نشت	-6926
▁نفی	-6927
▁هنی	-6928
▁وئن	-6929
▁يان	-6930
▁کتک	-6931
▁Gene	-6932
▁Scie	-6933
▁post	-6934
▁تران	-6935
▁تقال	-6936
▁زادا	-6937
▁ورها	-6938
▁کاره	-6939
▁ردازی	-6940
OL	-6941
نت	-6942
ير	-6943
igi	-6944
▁0.	-6945
▁49	-6946
▁DC	-6947
▁It	-6948
▁ga	-6949
▁mg	-6950
▁Ver	-6951
▁Wal	-6952
▁ابز	-6953
▁اکا	-6954
▁سلم	-6955
▁سکس	-6956
▁طنز	-6957
▁هاى	-6958
▁ومت	-6959
▁کبر	-6960
▁گلف	-6961
▁Bitc	-6962
▁اختن	-6963
▁انتا	-6964
▁بستگ	-6965
▁دریچ	-6966
▁شیری	-6967
▁وهله	-6968
▁AN	-6969
▁CN	-6970
▁Mc	-6971
▁tr	-6972
▁wi	-6973
▁ئم	-6974
▁حظ	-6975
▁Cry	-6976
▁NET	-6977
▁Sea	-6978
▁ئول	-6979
▁ارج	-6980
▁اعی	-6981
▁ترش	-6982
▁ضان	-6983
▁لکو	-6984
▁وطن	-6985
▁وعد	-6986
▁کنن	-6987
▁انکا	-6988
▁تاسف	-6989
▁حصول	-6990
▁مونی	-6991
▁نتیج	-6992
▁وانا	-6993
▁ونین	-6994
نر	-6995
ali	-6996
▁BM	-6997
▁LG	-6998
▁UV	-6999
▁bu	-7000
▁ئن	-7001
▁خز	-7002
▁زظ	-7003
▁Bri	-7004
▁DNS	-7005
▁Dra	-7006
▁Glo	-7007
▁Lib	-7008
▁SQL	-7009
▁درت	-7010
▁دوس	-7011
▁رزش	-7012
▁رعی	-7013
▁رلی	-7014
▁سوپ	-7015
▁معه	-7016
▁کفر	-7017
▁Good	-7018
▁bile	-7019
▁ارید	-7020
▁رتبا	-7021
▁روای	-7022
▁ناهن	-7023
▁کیفی	-7024
▁David	-7025
▁میکنی	-7026
EN	-7027
ver	-7028
▁Cy	-7029
▁Ge	-7030
▁ev	-7031
▁tu	-7032
▁آف	-7033
▁حش	-7034
▁کج	-7035
▁۳۴	-7036
▁۸۵	-7037
▁bal	-7038
▁lay	-7039
▁ron	-7040
▁تله	-7041
▁ریق	-7042
▁عاش	-7043
▁علق	-7044
▁فری	-7045
▁لثه	-7046
▁لحن	-7047
▁موف	-7048
▁نجم	-7049
▁کمب	-7050
▁Mast	-7051
▁hool	-7052
▁ript	-7053
▁ادار	-7054
▁ادای	-7055
▁ارند	-7056
▁افزو	-7057
▁رآمد	-7058
▁ناصر	-7059
▁هستن	-7060
▁پرور	-7061
▁کراس	-7062
▁کسان	-7063
BS	-7064
gh	-7065
پو	-7066
▁56	-7067
▁CC	-7068
▁RO	-7069
▁dy	-7070
▁دۀ	-7071
▁لك	-7072
▁1.5	-7073
▁Cam	-7074
▁Nat	-7075
▁SSL	-7076
▁Son	-7077
▁des	-7078
▁ئون	-7079
▁بفر	-7080
▁داگ	-7081
▁ستد	-7082
▁لوی	-7083
▁نبی	-7084
▁یاز	-7085
▁یبو	-7086
▁Chro	-7087
▁استن	-7088
▁التی	-7089
▁ترها	-7090
▁دیون	-7091
▁وهای	-7092
▁Photo	-7093
12	-7094
di	-7095
gg	-7096
اما	-7097
▁Ba	-7098
▁CT	-7099
▁GP	-7100
▁۵۵	-7101
▁Fra	-7102
▁III	-7103
▁cap	-7104
▁dia	-7105
▁آرا	-7106
▁ادل	-7107
▁بوم	-7108
▁رضه	-7109
▁رچه	-7110
▁فكر	-7111
▁کسا	-7112
▁HTTP	-7113
▁Plus	-7114
▁fice	-7115
▁اتان	-7116
▁اسپا	-7117
▁افته	-7118
▁امرو	-7119
▁زینو	-7120
▁ندان	-7121
▁واند	-7122
▁پارچ	-7123
▁موفقی	-7124
▁پیمای	-7125
EG	-7126
HA	-7127
يا	-7128
▁٦	-7129
arl	-7130
▁46	-7131
▁54	-7132
▁63	-7133
▁HS	-7134
▁TV	-7135
▁ka	-7136
▁pa	-7137
▁تي	-7138
▁دِ	-7139
▁PDF	-7140
▁دنش	-7141
▁سست	-7142
▁لاق	-7143
▁وتی	-7144
▁What	-7145
▁iPho	-7146
▁اقبت	-7147
▁نامن	-7148
▁ناها	-7149
▁یتون	-7150
▁نشینی	-7151
▁یالیس	-7152
EF	-7153
LA	-7154
وک	-7155
ari	-7156
▁BP	-7157
▁CF	-7158
▁EB	-7159
▁GS	-7160
▁Je	-7161
▁mb	-7162
▁pt	-7163
▁ya	-7164
▁700	-7165
▁Key	-7166
▁Sol	-7167
▁توا	-7168
▁درن	-7169
▁رگش	-7170
▁سپا	-7171
▁لائ	-7172
▁ملو	-7173
▁Fall	-7174
▁انجا	-7175
▁دخان	-7176
▁ویان	-7177
▁پرسی	-7178
▁پوشی	-7179
DL	-7180
EP	-7181
TE	-7182
پر	-7183
ale	-7184
▁Es	-7185
▁ll	-7186
▁(2)	-7187
▁Cle	-7188
▁Pet	-7189
▁Sha	-7190
▁Sim	-7191
▁Soc	-7192
▁Tom	-7193
▁app	-7194
▁gen	-7195
▁بتد	-7196
▁بشه	-7197
▁بلک	-7198
▁تیپ	-7199
▁رفا	-7200
▁شوق	-7201
▁شیل	-7202
▁لبو	-7203
▁مگه	-7204
▁هکر	-7205
▁وته	-7206
▁وزه	-7207
▁یزن	-7208
▁ارزی	-7209
▁ازها	-7210
▁ایتی	-7211
▁رزان	-7212
▁لئون	-7213
▁ویرا	-7214
▁هیپنو	-7215
أت	-7216
تن	-7217
صت	-7218
ish	-7219
▁Aw	-7220
▁id	-7221
▁ke	-7222
▁po	-7223
▁».	-7224
▁۳۷	-7225
▁۹۹	-7226
▁Cro	-7227
▁Ima	-7228
▁dis	-7229
▁dom	-7230
▁ier	-7231
▁red	-7232
▁الب	-7233
▁توم	-7234
▁خلع	-7235
▁داق	-7236
▁رائ	-7237
▁ردد	-7238
▁شصت	-7239
▁شیء	-7240
▁عزم	-7241
▁قات	-7242
▁Read	-7243
▁Stra	-7244
▁تالی	-7245
▁فرنی	-7246
▁ندتر	-7247
▁والا	-7248
▁الیان	-7249
▁هادها	-7250
).	-7251
ib	-7252
sy	-7253
arm	-7254
arn	-7255
ask	-7256
ond	-7257
ush	-7258
انو	-7259
▁ضط	-7260
▁فج	-7261
ideo	-7262
▁Mer	-7263
▁Sur	-7264
▁Tri	-7265
▁ess	-7266
▁tch	-7267
▁wor	-7268
▁اسو	-7269
▁انف	-7270
▁اوه	-7271
▁بیک	-7272
▁جیل	-7273
▁دمن	-7274
▁زرق	-7275
▁صفت	-7276
▁صیت	-7277
▁طرد	-7278
▁عجب	-7279
▁قرب	-7280
▁كسی	-7281
▁مزم	-7282
▁هیج	-7283
▁گور	-7284
▁Batt	-7285
▁Java	-7286
▁comp	-7287
▁ical	-7288
▁ریسم	-7289
▁شتند	-7290
▁وانگ	-7291
▁گرمی	-7292
▁Insta	-7293
▁شتاین	-7294
AL	-7295
US	-7296
▁€	-7297
ana	-7298
ult	-7299
▁52	-7300
▁66	-7301
▁Ap	-7302
▁BS	-7303
▁Ca	-7304
▁Ir	-7305
▁RF	-7306
▁ba	-7307
▁fl	-7308
▁؟!	-7309
▁زت	-7310
▁كس	-7311
▁نط	-7312
▁360	-7313
▁How	-7314
▁Inc	-7315
▁bur	-7316
▁gon	-7317
▁key	-7318
▁ازد	-7319
▁قفس	-7320
▁مشی	-7321
▁وشن	-7322
▁چاه	-7323
▁کیش	-7324
▁۲۵۰	-7325
▁File	-7326
▁High	-7327
▁Work	-7328
▁ular	-7329
▁ارسا	-7330
▁بارد	-7331
▁بخور	-7332
▁راتی	-7333
▁ندیش	-7334
▁نگور	-7335
▁ومیت	-7336
▁یزان	-7337
EE	-7338
LR	-7339
يد	-7340
چی	-7341
▁((	-7342
▁Av	-7343
▁Dy	-7344
▁ir	-7345
▁ky	-7346
▁mm	-7347
▁wh	-7348
▁آخ	-7349
▁۴۸	-7350
▁۶۴	-7351
▁Bio	-7352
▁Ele	-7353
▁GDP	-7354
▁تئو	-7355
▁تحر	-7356
▁ردی	-7357
▁سرع	-7358
▁سرگ	-7359
▁سلب	-7360
▁طین	-7361
▁فضل	-7362
▁مضا	-7363
▁وپا	-7364
▁چنگ	-7365
▁کتا	-7366
▁کیس	-7367
▁یفر	-7368
▁Arch	-7369
▁Euro	-7370
▁Gold	-7371
▁West	-7372
▁nolo	-7373
▁ادرس	-7374
▁امله	-7375
▁ردین	-7376
▁رستی	-7377
▁مینه	-7378
▁وربا	-7379
▁Smart	-7380
▁بگیری	-7381
▁گاران	-7382
10	-7383
MA	-7384
VC	-7385
ili	-7386
umb	-7387
ure	-7388
ویی	-7389
▁57	-7390
▁NO	-7391
▁Ti	-7392
▁io	-7393
▁os	-7394
▁ذا	-7395
▁God	-7396
▁Hua	-7397
▁Sen	-7398
▁Tur	-7399
▁احب	-7400
▁ازا	-7401
▁تأث	-7402
▁خوی	-7403
▁رفر	-7404
▁طرق	-7405
▁كمك	-7406
▁هها	-7407
▁Digi	-7408
▁Love	-7409
▁face	-7410
▁mark	-7411
▁رشان	-7412
▁هیأت	-7413
▁ورست	-7414
▁اترین	-7415
LS	-7416
fo	-7417
ws	-7418
ade	-7419
ung	-7420
▁).	-7421
▁Em	-7422
▁Er	-7423
▁JS	-7424
▁SC	-7425
▁Wa	-7426
▁au	-7427
▁iz	-7428
▁nb	-7429
▁ny	-7430
▁pp	-7431
▁بق	-7432
▁ژل	-7433
mail	-7434
▁Ang	-7435
▁Ext	-7436
▁Mod	-7437
▁Nor	-7438
▁Pal	-7439
▁She	-7440
▁XML	-7441
▁bit	-7442
▁der	-7443
▁gue	-7444
▁you	-7445
▁آلی	-7446
▁تگا	-7447
▁رتا	-7448
▁شای	-7449
▁فاد	-7450
▁قاد	-7451
▁نبه	-7452
▁نسا	-7453
▁نوح	-7454
▁ورق	-7455
▁Part	-7456
▁ارکر	-7457
▁انوس	-7458
▁رینا	-7459
▁Media	-7460
▁ببینی	-7461
ka	-7462
ki	-7463
ela	-7464
iss	-7465
oly	-7466
▁96	-7467
▁BI	-7468
▁ER	-7469
▁Ke	-7470
▁om	-7471
▁ue	-7472
▁wa	-7473
▁صا	-7474
▁۳٫	-7475
▁۳۸	-7476
▁Chi	-7477
▁Don	-7478
▁Hon	-7479
▁Sou	-7480
▁ley	-7481
▁تعا	-7482
▁جعل	-7483
▁نشو	-7484
▁ولز	-7485
▁وها	-7486
▁ایای	-7487
▁سانس	-7488
▁وزرا	-7489
▁Block	-7490
▁State	-7491
▁Stree	-7492
▁نماین	-7493
OT	-7494
hi	-7495
yle	-7496
▁7-	-7497
▁97	-7498
▁IF	-7499
▁OL	-7500
▁ON	-7501
▁Ob	-7502
▁PL	-7503
▁fe	-7504
▁gr	-7505
▁ko	-7506
▁عظ	-7507
▁فد	-7508
▁۴۲	-7509
▁!!!	-7510
▁Cha	-7511
▁Max	-7512
▁USD	-7513
▁bot	-7514
▁box	-7515
▁gin	-7516
▁wei	-7517
▁اخر	-7518
▁بدم	-7519
▁تدل	-7520
▁جره	-7521
▁خفه	-7522
▁دلق	-7523
▁راي	-7524
▁رلو	-7525
▁سوگ	-7526
▁شتا	-7527
▁مکه	-7528
▁همس	-7529
▁گیم	-7530
▁Card	-7531
▁Rock	-7532
▁ures	-7533
▁ward	-7534
▁اسان	-7535
▁راید	-7536
▁YouTu	-7537
▁رنگار	-7538
fa	-7539
no	-7540
TPS	-7541
und	-7542
▁(4	-7543
▁2:	-7544
▁GT	-7545
▁IU	-7546
▁MC	-7547
▁TC	-7548
▁ht	-7549
▁بط	-7550
▁طل	-7551
▁800	-7552
▁Ben	-7553
▁Eth	-7554
▁Fri	-7555
▁Imp	-7556
▁اهب	-7557
▁بسط	-7558
▁زگی	-7559
▁ستث	-7560
▁ضلا	-7561
▁قشر	-7562
▁نگا	-7563
▁هلو	-7564
▁۸۰۰	-7565
▁Park	-7566
▁Real	-7567
▁ازند	-7568
▁اورم	-7569
▁خانو	-7570
▁دروس	-7571
▁دلقک	-7572
▁دودی	-7573
▁دکار	-7574
▁رحیم	-7575
▁نتیک	-7576
▁همچن	-7577
▁ورای	-7578
▁Insti	-7579
▁White	-7580
▁بگویی	-7581
▁رتیزو	-7582
▁ستیون	-7583
▁کلاسی	-7584
ja	-7585
ُر	-7586
ole	-7587
ori	-7588
qua	-7589
▁)،	-7590
▁62	-7591
▁EN	-7592
▁ov	-7593
▁ua	-7594
▁دژ	-7595
▁نِ	-7596
ream	-7597
▁Bur	-7598
▁Ind	-7599
▁Ter	-7600
▁Vir	-7601
▁fli	-7602
▁nda	-7603
▁phy	-7604
▁que	-7605
▁جون	-7606
▁زگش	-7607
▁شکو	-7608
▁لها	-7609
▁نهی	-7610
▁وزد	-7611
▁کاس	-7612
▁Code	-7613
▁Jour	-7614
▁Paul	-7615
▁Port	-7616
▁hine	-7617
▁لادی	-7618
▁لانس	-7619
▁لایی	-7620
▁نتین	-7621
▁Space	-7622
▁board	-7623
▁ریگان	-7624
▁میکنن	-7625
▁وتاکس	-7626
sa	-7627
ict	-7628
oop	-7629
▁(5	-7630
▁8-	-7631
▁ED	-7632
▁FX	-7633
▁Fa	-7634
▁GR	-7635
▁HC	-7636
▁JP	-7637
▁eB	-7638
▁بچ	-7639
▁طم	-7640
▁كر	-7641
▁هت	-7642
▁180	-7643
▁Cli	-7644
▁Dom	-7645
▁Jon	-7646
▁San	-7647
▁Sky	-7648
▁Tal	-7649
▁Way	-7650
▁bar	-7651
▁ege	-7652
▁row	-7653
▁بسا	-7654
▁بکا	-7655
▁ذرت	-7656
▁زان	-7657
▁شمع	-7658
▁صول	-7659
▁عذر	-7660
▁لاش	-7661
▁نشن	-7662
▁هيچ	-7663
▁چیپ	-7664
▁یول	-7665
▁یگی	-7666
▁Dire	-7667
▁Heal	-7668
▁News	-7669
▁Reco	-7670
▁iPad	-7671
▁آزمو	-7672
▁رونا	-7673
▁سانی	-7674
▁قهرم	-7675
▁مایا	-7676
▁کرات	-7677
▁کمیس	-7678
▁یلین	-7679
▁یمنی	-7680
▁Drive	-7681
▁HTTPS	-7682
▁Medic	-7683
▁توشاپ	-7684
▁ریپتو	-7685
▁سابقا	-7686
BI	-7687
▁59	-7688
▁69	-7689
▁AF	-7690
▁CM	-7691
▁DM	-7692
▁WH	-7693
▁نن	-7694
▁۴۴	-7695
yper	-7696
▁CDC	-7697
▁Fan	-7698
▁Hub	-7699
▁Sun	-7700
▁php	-7701
▁pri	-7702
▁ret	-7703
▁آلا	-7704
▁اقه	-7705
▁بتن	-7706
▁بزا	-7707
▁تخر	-7708
▁توب	-7709
▁توز	-7710
▁دهۀ	-7711
▁رمو	-7712
▁صدد	-7713
▁عدی	-7714
▁لتا	-7715
▁نزل	-7716
▁نمو	-7717
▁نوت	-7718
▁نکه	-7719
▁وشی	-7720
▁وصف	-7721
▁کما	-7722
▁گول	-7723
▁۱۲۰	-7724
▁Dark	-7725
▁With	-7726
▁load	-7727
▁ارشا	-7728
▁لانه	-7729
▁مبنا	-7730
▁نقاش	-7731
▁ودگی	-7732
▁گواه	-7733
AA	-7734
ll	-7735
lt	-7736
orn	-7737
لیک	-7738
▁2،	-7739
▁93	-7740
▁Ko	-7741
▁Sn	-7742
▁Yo	-7743
▁ru	-7744
▁ژه	-7745
▁یۀ	-7746
▁۴۷	-7747
▁۹۵	-7748
irst	-7749
▁(3)	-7750
▁2.0	-7751
▁Big	-7752
▁ICO	-7753
▁LDL	-7754
▁Men	-7755
▁NAS	-7756
▁cia	-7757
▁dex	-7758
▁nci	-7759
▁اپو	-7760
▁توت	-7761
▁دلت	-7762
▁راع	-7763
▁رهی	-7764
▁ستو	-7765
▁نرو	-7766
▁ودم	-7767
▁کتو	-7768
▁کسر	-7769
▁کوی	-7770
▁گها	-7771
▁یگه	-7772
▁Fire	-7773
▁Tool	-7774
▁flix	-7775
▁ount	-7776
▁بارا	-7777
▁بالی	-7778
▁بایل	-7779
▁رارت	-7780
▁ربار	-7781
▁فرات	-7782
▁لوتن	-7783
▁لیدی	-7784
▁لیکس	-7785
▁هندس	-7786
▁پروا	-7787
▁کالت	-7788
▁یمون	-7789
▁ینوس	-7790
▁House	-7791
▁برنام	-7792
▁تورها	-7793
▁جوانا	-7794
ئه	-7795
ilm	-7796
راس	-7797
ینس	-7798
▁4)	-7799
▁77	-7800
▁92	-7801
▁98	-7802
▁>>	-7803
▁BC	-7804
▁Lu	-7805
▁SU	-7806
▁Vi	-7807
▁اك	-7808
▁۳۳	-7809
▁۴٫	-7810
▁CPU	-7811
▁DVD	-7812
▁End	-7813
▁Lab	-7814
▁MRI	-7815
▁Map	-7816
▁May	-7817
▁ire	-7818
▁ium	-7819
▁rge	-7820
▁ria	-7821
▁sis	-7822
▁آوا	-7823
▁خاب	-7824
▁ختن	-7825
▁خیا	-7826
▁دسر	-7827
▁رنی	-7828
▁ساک	-7829
▁فیا	-7830
▁نشی	-7831
▁وسک	-7832
▁یدو	-7833
▁یسک	-7834
▁یپل	-7835
▁Mode	-7836
▁Pers	-7837
▁Will	-7838
▁Your	-7839
▁eBay	-7840
▁ific	-7841
▁آمدی	-7842
▁رهنه	-7843
▁رینگ	-7844
▁یمار	-7845
▁Class	-7846
▁نگونه	-7847
▁ورهای	-7848
bo	-7849
ec	-7850
ek	-7851
zz	-7852
نز	-7853
ِی	-7854
ift	-7855
ئول	-7856
▁1:	-7857
▁EA	-7858
▁EU	-7859
▁HB	-7860
▁MD	-7861
▁TM	-7862
▁ab	-7863
▁طح	-7864
▁Ado	-7865
▁Sub	-7866
▁pho	-7867
▁ung	-7868
▁اسف	-7869
▁بذر	-7870
▁رخت	-7871
▁شهو	-7872
▁صیل	-7873
▁عدل	-7874
▁لاد	-7875
▁لفل	-7876
▁متا	-7877
▁مطب	-7878
▁یشت	-7879
▁Jame	-7880
▁Rich	-7881
▁Soft	-7882
▁اخته	-7883
▁اهها	-7884
▁برگر	-7885
▁تابی	-7886
▁هیرو	-7887
▁وردن	-7888
▁ورین	-7889
▁Video	-7890
▁Watch	-7891
▁chain	-7892
▁دازید	-7893
OM	-7894
ora	-7895
ott	-7896
rom	-7897
xel	-7898
▁78	-7899
▁82	-7900
▁Ag	-7901
▁BA	-7902
▁TS	-7903
▁ot	-7904
▁pr	-7905
▁زع	-7906
▁صم	-7907
▁۷۲	-7908
▁Add	-7909
▁Dro	-7910
▁Hot	-7911
▁Pen	-7912
▁lor	-7913
▁ste	-7914
▁اطی	-7915
▁بين	-7916
▁بگم	-7917
▁جوک	-7918
▁دشت	-7919
▁رجو	-7920
▁شکا	-7921
▁عات	-7922
▁عتی	-7923
▁غده	-7924
▁غلی	-7925
▁فسر	-7926
▁نوه	-7927
▁وآن	-7928
▁یتز	-7929
▁یمر	-7930
▁Bank	-7931
▁Core	-7932
▁Litt	-7933
▁Mini	-7934
▁berg	-7935
▁serv	-7936
▁الیس	-7937
▁توسل	-7938
▁روزن	-7939
▁ریقا	-7940
▁فتند	-7941
▁لیاژ	-7942
▁هارت	-7943
▁وشند	-7944
▁ولتی	-7945
▁پیچی	-7946
▁Point	-7947
▁Store	-7948
LE	-7949
au	-7950
ya	-7951
ze	-7952
ati	-7953
cha	-7954
▁91	-7955
▁DD	-7956
▁Gh	-7957
▁IG	-7958
▁NV	-7959
▁cc	-7960
▁rt	-7961
ouch	-7962
▁Aca	-7963
▁Rad	-7964
▁Tim	-7965
▁حاج	-7966
▁رزم	-7967
▁زدی	-7968
▁فظه	-7969
▁گلی	-7970
▁گیت	-7971
▁یحی	-7972
▁یرن	-7973
▁Chri	-7974
▁Evil	-7975
▁Just	-7976
▁Note	-7977
▁Page	-7978
▁Sony	-7979
▁Tele	-7980
▁Type	-7981
▁User	-7982
▁wood	-7983
▁اشید	-7984
▁خودر	-7985
▁راوی	-7986
▁متقا	-7987
▁نترل	-7988
▁گذرا	-7989
▁احترا	-7990
OP	-7991
RS	-7992
dy	-7993
▁®	-7994
irl	-7995
ody	-7996
utt	-7997
الا	-7998
▁(7	-7999
▁.»	-8000
▁53	-8001
▁61	-8002
▁AB	-8003
▁Ho	-8004
▁NP	-8005
▁Py	-8006
▁WW	-8007
▁as	-8008
▁su	-8009
▁ve	-8010
▁پي	-8011
▁۴۳	-8012
▁Vol	-8013
▁all	-8014
▁lla	-8015
▁one	-8016
▁val	-8017
▁آنی	-8018
▁اشا	-8019
▁اوس	-8020
▁ختی	-8021
▁رعا	-8022
▁روج	-8023
▁ریچ	-8024
▁شکس	-8025
▁فزا	-8026
▁لئو	-8027
▁نبر	-8028
▁پهن	-8029
▁یتل	-8030
▁یته	-8031
▁Resi	-8032
▁Spot	-8033
▁ادها	-8034
▁تایل	-8035
▁دوکس	-8036
▁رانت	-8037
▁رهنگ	-8038
▁روتن	-8039
▁نتها	-8040
▁ندین	-8041
▁ومتر	-8042
▁چیده	-8043
▁Resea	-8044
▁Trump	-8045
▁اجران	-8046
▁انستی	-8047
▁شیگان	-8048
▁فروشی	-8049
▁کستان	-8050
DC	-8051
zo	-8052
▁×	-8053
ign	-8054
ird	-8055
▁3)	-8056
▁68	-8057
▁74	-8058
▁79	-8059
▁88	-8060
▁Az	-8061
▁Hy	-8062
▁Ju	-8063
▁Ly	-8064
▁UX	-8065
▁Ub	-8066
▁لژ	-8067
▁۵۲	-8068
arth	-8069
▁365	-8070
▁AMP	-8071
▁BMI	-8072
▁Dia	-8073
▁EPA	-8074
▁Fre	-8075
▁Mid	-8076
▁Mot	-8077
▁Now	-8078
▁Tor	-8079
▁cle	-8080
▁ima	-8081
▁بام	-8082
▁بيش	-8083
▁دیش	-8084
▁دیک	-8085
▁عطف	-8086
▁لگن	-8087
▁نصر	-8088
▁وشا	-8089
▁ولف	-8090
▁کیا	-8091
▁گست	-8092
▁Fort	-8093
▁Onli	-8094
▁Test	-8095
▁cont	-8096
▁read	-8097
▁اسرا	-8098
▁اشند	-8099
▁براه	-8100
▁بیعت	-8101
▁دازد	-8102
▁دوار	-8103
▁فقاز	-8104
▁وسیل	-8105
▁یبرو	-8106
▁ینجا	-8107
▁React	-8108
▁field	-8109
▁ریتیش	-8110
TM	-8111
ci	-8112
ml	-8113
▁°	-8114
▁⁯	-8115
ane	-8116
ilt	-8117
▁67	-8118
▁Hi	-8119
▁Ja	-8120
▁MB	-8121
▁MO	-8122
▁PM	-8123
▁Sl	-8124
▁rd	-8125
▁؟؟	-8126
▁2.5	-8127
▁Del	-8128
▁Dut	-8129
▁Ken	-8130
▁NGC	-8131
▁Pan	-8132
▁can	-8133
▁gic	-8134
▁ous	-8135
▁vis	-8136
▁آرم	-8137
▁اوز	-8138
▁بهر	-8139
▁ثار	-8140
▁دوک	-8141
▁رسه	-8142
▁رضو	-8143
▁ریگ	-8144
▁مجم	-8145
▁مسک	-8146
▁میا	-8147
▁نته	-8148
▁نمى	-8149
▁وئی	-8150
▁پلک	-8151
▁پژو	-8152
▁یفه	-8153
▁Down	-8154
▁stic	-8155
▁اراد	-8156
▁تجار	-8157
▁تینگ	-8158
▁دورا	-8159
▁روتز	-8160
▁رودر	-8161
▁سلیم	-8162
▁قلاب	-8163
▁ندند	-8164
▁نهتن	-8165
▁ورزی	-8166
▁Music	-8167
▁اناما	-8168
▁ایانه	-8169
▁بخوان	-8170
▁وهایو	-8171
▁گسترد	-8172
ئر	-8173
حق	-8174
ert	-8175
▁3:	-8176
▁58	-8177
▁DA	-8178
▁LS	-8179
▁MI	-8180
▁[1	-8181
▁۴۱	-8182
▁Bat	-8183
▁Bay	-8184
▁ERP	-8185
▁Pub	-8186
▁Ult	-8187
▁Wat	-8188
▁fic	-8189
▁nna	-8190
▁ren	-8191
▁اهش	-8192
▁بون	-8193
▁تاً	-8194
▁سیک	-8195
▁عبو	-8196
▁لفی	-8197
▁لكه	-8198
▁مکس	-8199
▁پوچ	-8200
▁ییس	-8201
▁Jack	-8202
▁Mess	-8203
▁York	-8204
▁port	-8205
▁ابدا	-8206
▁دامس	-8207
▁دودو	-8208
▁ریکی	-8209
▁سئول	-8210
▁لکوت	-8211
▁هالو	-8212
▁هانس	-8213
▁یلات	-8214
▁Award	-8215
▁Conne	-8216
▁Journ	-8217
▁Speed	-8218
▁Stand	-8219
▁رتیکو	-8220
EX	-8221
Hz	-8222
TV	-8223
ah	-8224
ji	-8225
rit	-8226
ایا	-8227
▁".	-8228
▁(6	-8229
▁76	-8230
▁AV	-8231
▁By	-8232
▁Gl	-8233
▁HR	-8234
▁Il	-8235
▁SW	-8236
▁js	-8237
▁رِ	-8238
▁هف	-8239
▁160	-8240
▁Are	-8241
▁Bad	-8242
▁CMS	-8243
▁Her	-8244
▁Hum	-8245
▁IEL	-8246
▁LLM	-8247
▁Mat	-8248
▁PPC	-8249
▁Tre	-8250
▁[1]	-8251
▁ius	-8252
▁nta	-8253
▁son	-8254
▁sub	-8255
▁آنِ	-8256
▁آيا	-8257
▁اجت	-8258
▁افه	-8259
▁بدأ	-8260
▁برآ	-8261
▁بسر	-8262
▁بغل	-8263
▁حیه	-8264
▁درز	-8265
▁رتش	-8266
▁شكل	-8267
▁صبا	-8268
▁نید	-8269
▁نیه	-8270
▁هوم	-8271
▁چتر	-8272
▁یبل	-8273
▁یرم	-8274
▁Cana	-8275
▁Last	-8276
▁Wall	-8277
▁base	-8278
▁mini	-8279
▁ural	-8280
▁استی	-8281
▁اکرا	-8282
▁توسع	-8283
▁جایز	-8284
▁دویه	-8285
▁ریزر	-8286
▁ستثن	-8287
▁واین	-8288
▁وسنی	-8289
▁First	-8290
▁Grand	-8291
▁صورتی	-8292
▁میایی	-8293
▁یزانس	-8294
▁یزینس	-8295
أن	-8296
ina	-8297
▁3،	-8298
▁73	-8299
▁AU	-8300
▁EL	-8301
▁GB	-8302
▁NT	-8303
▁TO	-8304
▁ji	-8305
▁za	-8306
ulti	-8307
▁Bel	-8308
▁HDL	-8309
▁HDR	-8310
▁Hel	-8311
▁LCD	-8312
▁RNA	-8313
▁Sil	-8314
▁THE	-8315
▁Val	-8316
▁met	-8317
▁ray	-8318
▁انن	-8319
▁باک	-8320
▁تمی	-8321
▁تیب	-8322
▁شأن	-8323
▁شاپ	-8324
▁طبه	-8325
▁عقد	-8326
▁غدد	-8327
▁غری	-8328
▁فقه	-8329
▁لوط	-8330
▁میس	-8331
▁هاو	-8332
▁وسل	-8333
▁ولن	-8334
▁ونر	-8335
▁وون	-8336
▁پشه	-8337
▁پُر	-8338
▁چان	-8339
▁چرت	-8340
▁۷۰۰	-8341
▁Coin	-8342
▁Full	-8343
▁Pack	-8344
▁Pass	-8345
▁cast	-8346
▁time	-8347
▁very	-8348
▁ابان	-8349
▁اداب	-8350
▁افیا	-8351
▁باکس	-8352
▁بیای	-8353
▁ترال	-8354
▁داما	-8355
▁رشید	-8356
▁ریمه	-8357
▁نزال	-8358
▁Fanta	-8359
▁Hyper	-8360
▁North	-8361
▁ولیان	-8362
DI	-8363
yo	-8364
لد	-8365
hen	-8366
ita	-8367
ارو	-8368
▁ET	-8369
▁OR	-8370
▁ck	-8371
▁gi	-8372
▁پذ	-8373
▁۳۹	-8374
▁۴۶	-8375
▁۵۱	-8376
▁۹۶	-8377
▁140	-8378
▁3.5	-8379
▁ASP	-8380
▁BMW	-8381
▁Emp	-8382
▁ICC	-8383
▁ION	-8384
▁ISP	-8385
▁Law	-8386
▁Loc	-8387
▁Pho	-8388
▁Tag	-8389
▁Top	-8390
▁med	-8391
▁olu	-8392
▁rib	-8393
▁rid	-8394
▁باج	-8395
▁بنز	-8396
▁تأس	-8397
▁تیل	-8398
▁ربی	-8399
▁رنک	-8400
▁ریر	-8401
▁زدم	-8402
▁سده	-8403
▁سوخ	-8404
▁فید	-8405
▁لوس	-8406
▁محب	-8407
▁مپر	-8408
▁نسب	-8409
▁وکت	-8410
▁پيش	-8411
▁یجی	-8412
▁....	-8413
▁Ever	-8414
▁Line	-8415
▁Show	-8416
▁ctor	-8417
▁down	-8418
▁head	-8419
▁link	-8420
▁list	-8421
▁your	-8422
▁بریت	-8423
▁تویی	-8424
▁رهاد	-8425
▁زادی	-8426
▁سنده	-8427
▁مرار	-8428
▁نهان	-8429
▁وابط	-8430
▁کاست	-8431
▁Build	-8432
▁Dream	-8433
▁Front	-8434
▁Ghost	-8435
▁Sport	-8436
▁اختلا	-8437
▁رلینگ	-8438
DS	-8439
xi	-8440
ye	-8441
وپ	-8442
▁ٍ	-8443
▁♪	-8444
out	-8445
اتی	-8446
▁4:	-8447
▁Dr	-8448
▁EV	-8449
▁Fu	-8450
▁TP	-8451
▁vo	-8452
▁عث	-8453
leep	-8454
▁10-	-8455
▁130	-8456
▁Bab	-8457
▁Bas	-8458
▁HTC	-8459
▁dow	-8460
▁olo	-8461
▁our	-8462
▁toc	-8463
▁ult	-8464
▁اقی	-8465
▁دیه	-8466
▁ذوق	-8467
▁رژه	-8468
▁رکس	-8469
▁زما	-8470
▁شوخ	-8471
▁شوه	-8472
▁طفل	-8473
▁طمع	-8474
▁علف	-8475
▁میه	-8476
▁نیف	-8477
▁وجی	-8478
▁ولى	-8479
▁پنی	-8480
▁چمن	-8481
▁کیپ	-8482
▁یدل	-8483
▁یغه	-8484
▁یلن	-8485
▁ینج	-8486
▁Asso	-8487
▁Best	-8488
▁Cast	-8489
▁Conv	-8490
▁Corp	-8491
▁East	-8492
▁Lock	-8493
▁cess	-8494
▁duct	-8495
▁page	-8496
▁ster	-8497
▁عوام	-8498
▁نقدر	-8499
▁ونیا	-8500
▁وکوس	-8501
▁وگرا	-8502
▁یابت	-8503
▁یرها	-8504
▁ینده	-8505
▁یگرا	-8506
▁Found	-8507
▁Priva	-8508
▁block	-8509
▁versi	-8510
▁اندلا	-8511
▁مالیا	-8512
▁وناکو	-8513
ba	-8514
og	-8515
pi	-8516
sh	-8517
ami	-8518
asp	-8519
gli	-8520
ئون	-8521
تیب	-8522
▁84	-8523
▁::	-8524
▁CI	-8525
▁DI	-8526
▁DR	-8527
▁GA	-8528
▁OK	-8529
▁UK	-8530
▁bi	-8531
▁ca	-8532
▁١٠	-8533
▁Box	-8534
▁Boy	-8535
▁Eco	-8536
▁FBI	-8537
▁LTE	-8538
▁Lee	-8539
▁Mad	-8540
▁Ori	-8541
▁Pat	-8542
▁Psy	-8543
▁USA	-8544
▁Van	-8545
▁WHO	-8546
▁ora	-8547
▁shi	-8548
▁tte	-8549
▁آذر	-8550
▁اشن	-8551
▁جرب	-8552
▁حصر	-8553
▁رأس	-8554
▁ربع	-8555
▁رمه	-8556
▁زها	-8557
▁صرع	-8558
▁طفی	-8559
▁عری	-8560
▁فتا	-8561
▁لرد	-8562
▁یسا	-8563
▁ینچ	-8564
▁Dyna	-8565
▁Hall	-8566
▁Hand	-8567
▁Plan	-8568
▁Rank	-8569
▁hael	-8570
▁line	-8571
▁ادند	-8572
▁ارتی	-8573
▁اردی	-8574
▁اگرا	-8575
▁بازد	-8576
▁توفر	-8577
▁دگیر	-8578
▁شغال	-8579
▁فهمی	-8580
▁موری	-8581
▁ولاً	-8582
▁ویای	-8583
▁گرای	-8584
▁یندگ	-8585
▁Heart	-8586
▁Pixel	-8587
▁Start	-8588
▁style	-8589
▁اعاتی	-8590
▁ترتیب	-8591
▁یبوست	-8592
▁یلتون	-8593
20	-8594
aS	-8595
to	-8596
vo	-8597
يز	-8598
▁■	-8599
▁◄	-8600
ama	-8601
ris	-8602
الو	-8603
▁71	-8604
▁DB	-8605
▁DH	-8606
▁EQ	-8607
▁Gi	-8608
▁Mu	-8609
▁NC	-8610
▁OF	-8611
▁Ru	-8612
▁ai	-8613
▁fr	-8614
▁gg	-8615
▁mp	-8616
▁py	-8617
▁sw	-8618
itch	-8619
▁170	-8620
▁CTA	-8621
▁Lea	-8622
▁NBA	-8623
▁NSA	-8624
▁cra	-8625
▁dge	-8626
▁duc	-8627
▁ler	-8628
▁mac	-8629
▁ula	-8630
▁آره	-8631
▁ادف	-8632
▁الل	-8633
▁بنگ	-8634
▁تاو	-8635
▁حوا	-8636
▁خزر	-8637
▁ربو	-8638
▁رتب	-8639
▁روى	-8640
▁عضا	-8641
▁لبی	-8642
▁مکث	-8643
▁هلن	-8644
▁هوس	-8645
▁ونم	-8646
▁پتو	-8647
▁کسى	-8648
▁کمه	-8649
▁گرف	-8650
▁Assa	-8651
▁Aven	-8652
▁Care	-8653
▁Cour	-8654
▁Duty	-8655
▁Insi	-8656
▁Para	-8657
▁Temp	-8658
▁fess	-8659
▁icle	-8660
▁rise	-8661
▁this	-8662
▁ارگی	-8663
▁اصله	-8664
▁اوان	-8665
▁بزنی	-8666
▁دولف	-8667
▁روست	-8668
▁ریمی	-8669
▁زگیل	-8670
▁شوره	-8671
▁شوری	-8672
▁قیاس	-8673
▁نهای	-8674
▁نونی	-8675
▁نینگ	-8676
▁Brain	-8677
▁Green	-8678
▁IELTS	-8679
▁South	-8680
▁نشناس	-8681
▁یبایی	-8682
▁یستان	-8683
CS	-8684
PD	-8685
bi	-8686
جت	-8687
جی	-8688
EST	-8689
yal	-8690
سیا	-8691
لاک	-8692
▁83	-8693
▁AG	-8694
▁AW	-8695
▁CL	-8696
▁IL	-8697
▁IO	-8698
▁Ka	-8699
▁SN	-8700
▁VI	-8701
▁ek	-8702
▁ps	-8703
▁rg	-8704
▁وَ	-8705
▁یژ	-8706
▁***	-8707
▁110	-8708
▁Ali	-8709
▁Aud	-8710
▁COM	-8711
▁Cur	-8712
▁Div	-8713
▁Eff	-8714
▁Hen	-8715
▁IBS	-8716
▁OEC	-8717
▁Pra	-8718
▁SSD	-8719
▁Ten	-8720
▁aut	-8721
▁tec	-8722
▁تلو	-8723
▁جیر	-8724
▁حلب	-8725
▁داش	-8726
▁ذان	-8727
▁رهن	-8728
▁رکن	-8729
▁ستف	-8730
▁شاء	-8731
▁صید	-8732
▁فرت	-8733
▁فنگ	-8734
▁لبن	-8735
▁لتی	-8736
▁ناق	-8737
▁هاف	-8738
▁وسا	-8739
▁پند	-8740
▁کاپ	-8741
▁یضا	-8742
▁یفل	-8743
▁ینز	-8744
▁یوا	-8745
▁Dani	-8746
▁Hunt	-8747
▁Site	-8748
▁file	-8749
▁mics	-8750
▁site	-8751
▁test	-8752
▁ائیل	-8753
▁رؤیت	-8754
▁راما	-8755
▁ردهم	-8756
▁سیدن	-8757
▁لوان	-8758
▁مجید	-8759
▁نجام	-8760
▁نزاس	-8761
▁نولو	-8762
▁وریت	-8763
▁وریل	-8764
▁ونیخ	-8765
▁کمیت	-8766
▁یستا	-8767
▁یگری	-8768
▁Engli	-8769
▁Story	-8770
▁house	-8771
▁stall	-8772
▁اربری	-8773
▁خوابی	-8774
▁راتین	-8775
▁رانند	-8776
▁پلاست	-8777
GA	-8778
mm	-8779
بک	-8780
▁›	-8781
iti	-8782
▁86	-8783
▁89	-8784
▁BR	-8785
▁EF	-8786
▁GO	-8787
▁Kn	-8788
▁PO	-8789
▁SO	-8790
▁VM	-8791
▁eg	-8792
▁iv	-8793
▁pH	-8794
▁so	-8795
▁گپ	-8796
▁۵۳	-8797
▁۸۸	-8798
▁1.2	-8799
▁3.0	-8800
▁900	-8801
▁Bet	-8802
▁Cal	-8803
▁Cyb	-8804
▁Dog	-8805
▁Exc	-8806
▁Fer	-8807
▁Lay	-8808
▁Run	-8809
▁Sel	-8810
▁cal	-8811
▁del	-8812
▁emp	-8813
▁hip	-8814
▁iTu	-8815
▁آتن	-8816
▁آرد	-8817
▁ئور	-8818
▁الص	-8819
▁باه	-8820
▁بکر	-8821
▁جهل	-8822
▁جیغ	-8823
▁رضی	-8824
▁رعد	-8825
▁صال	-8826
▁فقت	-8827
▁لمن	-8828
▁لگد	-8829
▁مهد	-8830
▁میق	-8831
▁ولک	-8832
▁چرم	-8833
▁Adva	-8834
▁Atla	-8835
▁Bill	-8836
▁Carl	-8837
▁Chat	-8838
▁Crea	-8839
▁Engi	-8840
▁Film	-8841
▁Kill	-8842
▁Lang	-8843
▁Mart	-8844
▁Meta	-8845
▁OECD	-8846
▁Over	-8847
▁Poli	-8848
▁Remo	-8849
▁Resp	-8850
▁Sour	-8851
▁more	-8852
▁nced	-8853
▁بدار	-8854
▁ریتا	-8855
▁لیکی	-8856
▁مارا	-8857
▁مسئل	-8858
▁کارم	-8859
▁یلاس	-8860
▁Break	-8861
▁Creat	-8862
▁Learn	-8863
▁یادین	-8864
EO	-8865
LC	-8866
ng	-8867
ux	-8868
سک	-8869
پل	-8870
۱۰	-8871
▁é	-8872
aci	-8873
ola	-8874
نیک	-8875
کوف	-8876
ینا	-8877
▁(8	-8878
▁++	-8879
▁81	-8880
▁94	-8881
▁Bi	-8882
▁Cr	-8883
▁Ga	-8884
▁Ig	-8885
▁PT	-8886
▁RE	-8887
▁UI	-8888
▁ho	-8889
▁ثه	-8890
▁صی	-8891
▁طو	-8892
▁هژ	-8893
▁پچ	-8894
▁یذ	-8895
▁۵٫	-8896
▁۵۴	-8897
▁۵۸	-8898
▁CNN	-8899
▁Dep	-8900
▁Doc	-8901
▁Dou	-8902
▁Rec	-8903
▁SPF	-8904
▁art	-8905
▁mod	-8906
▁nel	-8907
▁ngo	-8908
▁pre	-8909
▁rep	-8910
▁sec	-8911
▁tan	-8912
▁und	-8913
▁آخه	-8914
▁آنگ	-8915
▁اهک	-8916
▁تقی	-8917
▁روچ	-8918
▁شلی	-8919
▁طاع	-8920
▁طیب	-8921
▁لاص	-8922
▁متخ	-8923
▁ننگ	-8924
▁یگر	-8925
▁DSLR	-8926
▁Form	-8927
▁Hell	-8928
▁List	-8929
▁Long	-8930
▁Poly	-8931
▁Sett	-8932
▁Virt	-8933
▁Walk	-8934
▁Wire	-8935
▁Zero	-8936
▁date	-8937
▁ford	-8938
▁tran	-8939
▁الیف	-8940
▁امبر	-8941
▁ایپو	-8942
▁حبوب	-8943
▁دایم	-8944
▁رایس	-8945
▁رونه	-8946
▁رگشت	-8947
▁لاند	-8948
▁لیلی	-8949
▁نکنی	-8950
▁هرتز	-8951
▁وارت	-8952
▁ویند	-8953
▁پنها	-8954
▁Azure	-8955
▁Touch	-8956
▁انگلس	-8957
▁ریشان	-8958
▁پیگیر	-8959
IL	-8960
ju	-8961
يه	-8962
ape	-8963
uss	-8964
▁5)	-8965
▁EX	-8966
▁Ep	-8967
▁IQ	-8968
▁Ki	-8969
▁LA	-8970
▁OP	-8971
▁RP	-8972
▁RT	-8973
▁WP	-8974
▁fa	-8975
▁رُ	-8976
▁غص	-8977
▁هگ	-8978
▁۴۹	-8979
▁۹۷	-8980
▁125	-8981
▁450	-8982
▁ABC	-8983
▁Ani	-8984
▁Ast	-8985
▁CPA	-8986
▁Fle	-8987
▁Han	-8988
▁ICT	-8989
▁Inf	-8990
▁Log	-8991
▁Nev	-8992
▁RAM	-8993
▁USC	-8994
▁Win	-8995
▁any	-8996
▁car	-8997
▁exa	-8998
▁ext	-8999
▁hui	-9000
▁lin	-9001
▁lly	-9002
▁nal	-9003
▁nia	-9004
▁ola	-9005
▁ond	-9006
▁باگ	-9007
▁بحا	-9008
▁جمل	-9009
▁سوت	-9010
▁شنی	-9011
▁عاج	-9012
▁غاز	-9013
▁فاظ	-9014
▁متش	-9015
▁نجر	-9016
▁نمي	-9017
▁هلک	-9018
▁ورب	-9019
▁پیا	-9020
▁کاک	-9021
▁یجه	-9022
▁یدک	-9023
▁یرگ	-9024
▁یفی	-9025
▁Airb	-9026
▁Club	-9027
▁Hard	-9028
▁Hero	-9029
▁Hill	-9030
▁Hist	-9031
▁Mont	-9032
▁Node	-9033
▁Sand	-9034
▁phic	-9035
▁اتها	-9036
▁رلوس	-9037
▁روسو	-9038
▁رویز	-9039
▁نگشت	-9040
▁هاکی	-9041
▁وروف	-9042
▁یرون	-9043
▁یسان	-9044
▁یلون	-9045
▁Color	-9046
▁Death	-9047
▁Frank	-9048
▁Gmail	-9049
▁Motor	-9050
▁Mount	-9051
▁Royal	-9052
▁world	-9053
▁اراتن	-9054
▁بدانی	-9055
▁وکرات	-9056
GB	-9057
mb	-9058
su	-9059
zy	-9060
▁ە	-9061
oro	-9062
pha	-9063
ریا	-9064
▁5:	-9065
▁87	-9066
▁BB	-9067
▁FA	-9068
▁Tu	-9069
▁Ve	-9070
▁hi	-9071
▁od	-9072
▁شي	-9073
▁ضی	-9074
▁1.4	-9075
▁350	-9076
▁ARM	-9077
▁Alt	-9078
▁BBC	-9079
▁CAD	-9080
▁Gro	-9081
▁Old	-9082
▁Sch	-9083
▁Var	-9084
▁erp	-9085
▁fra	-9086
▁ham	-9087
▁lex	-9088
▁nti	-9089
▁ris	-9090
▁sto	-9091
▁tri	-9092
▁ura	-9093
▁اگا	-9094
▁بتی	-9095
▁حوز	-9096
▁ختگ	-9097
▁خیز	-9098
▁داپ	-9099
▁سره	-9100
▁سوب	-9101
▁عدن	-9102
▁فیض	-9103
▁لاح	-9104
▁لخت	-9105
▁متف	-9106
▁نکس	-9107
▁ودو	-9108
▁وزس	-9109
▁کمد	-9110
▁گوگ	-9111
▁یوب	-9112
▁Camp	-9113
▁Cort	-9114
▁Find	-9115
▁Gear	-9116
▁Land	-9117
▁Matt	-9118
▁Plat	-9119
▁Snap	-9120
▁Team	-9121
▁code	-9122
▁comm	-9123
▁data	-9124
▁disp	-9125
▁look	-9126
▁real	-9127
▁ssin	-9128
▁اهید	-9129
▁بخند	-9130
▁تقلا	-9131
▁دیدگ	-9132
▁راور	-9133
▁رخان	-9134
▁رزند	-9135
▁رچین	-9136
▁مثال	-9137
▁نیوی	-9138
▁ورتی	-9139
▁پتیک	-9140
▁یلور	-9141
▁Charl	-9142
▁Count	-9143
▁Guard	-9144
▁Share	-9145
▁ccess	-9146
▁watch	-9147
▁ارکوس	-9148
▁رسیوم	-9149
▁رشناس	-9150
▁طاعون	-9151
▁نستان	-9152
▁هیستر	-9153
▁وارتز	-9154
▁وکراس	-9155
▁کارخا	-9156
HS	-9157
NG	-9158
da	-9159
nc	-9160
te	-9161
فو	-9162
كس	-9163
amb	-9164
asa	-9165
han	-9166
olf	-9167
qui	-9168
unc	-9169
سیت	-9170
قیل	-9171
▁."	-9172
▁9-	-9173
▁AA	-9174
▁CU	-9175
▁PA	-9176
▁SH	-9177
▁UL	-9178
▁UP	-9179
▁Ze	-9180
▁br	-9181
▁ku	-9182
▁yo	-9183
▁ظن	-9184
▁۶۶	-9185
▁۷٫	-9186
▁Aft	-9187
▁Age	-9188
▁CBD	-9189
▁Fli	-9190
▁Gri	-9191
▁IVF	-9192
▁NFC	-9193
▁Ops	-9194
▁Que	-9195
▁Reb	-9196
▁Ret	-9197
▁SMS	-9198
▁Und	-9199
▁ics	-9200
▁lli	-9201
▁ord	-9202
▁ran	-9203
▁sel	-9204
▁spe	-9205
▁vir	-9206
▁آجر	-9207
▁آلپ	-9208
▁بیب	-9209
▁حقّ	-9210
▁حیث	-9211
▁خلو	-9212
▁درآ	-9213
▁دوگ	-9214
▁ربت	-9215
▁ربن	-9216
▁رزق	-9217
▁سطل	-9218
▁سفا	-9219
▁شبح	-9220
▁ضای	-9221
▁عمه	-9222
▁لیر	-9223
▁مژه	-9224
▁همة	-9225
▁واپ	-9226
▁وکو	-9227
▁پیگ	-9228
▁ژنی	-9229
▁یاک	-9230
▁یگز	-9231
▁۱۸۰	-9232
▁Capi	-9233
▁Girl	-9234
▁Mail	-9235
▁Mill	-9236
▁Ming	-9237
▁Muse	-9238
▁Pala	-9239
▁SERP	-9240
▁ctro	-9241
▁ream	-9242
▁reen	-9243
▁roll	-9244
▁ابله	-9245
▁ادون	-9246
▁ازات	-9247
▁انتو	-9248
▁اهند	-9249
▁باطی	-9250
▁بنیا	-9251
▁رتان	-9252
▁رزین	-9253
▁شگری	-9254
▁شیدا	-9255
▁لیان	-9256
▁مامو	-9257
▁مایش	-9258
▁مرحل	-9259
▁میرا	-9260
▁کانا	-9261
▁یرید	-9262
▁ینگو	-9263
▁Earth	-9264
▁Honor	-9265
▁Metro	-9266
▁Multi	-9267
▁Place	-9268
▁Voice	-9269
▁berry	-9270
▁point	-9271
▁start	-9272
▁stics	-9273
▁امورا	-9274
▁تالان	-9275
▁لائکه	-9276
▁یداری	-9277
▁یستون	-9278
3]	-9279
CE	-9280
DR	-9281
FC	-9282
TI	-9283
ug	-9284
ِن	-9285
iao	-9286
ila	-9287
▁1/	-9288
▁1،	-9289
▁CG	-9290
▁HE	-9291
▁ML	-9292
▁PG	-9293
▁Rh	-9294
▁Ye	-9295
▁ae	-9296
▁فم	-9297
▁نئ	-9298
▁۵۶	-9299
▁۶٫	-9300
▁(5)	-9301
▁1.6	-9302
▁ACT	-9303
▁BIM	-9304
▁Die	-9305
▁FTP	-9306
▁Hal	-9307
▁LAN	-9308
▁LLC	-9309
▁Nav	-9310
▁Opt	-9311
▁Ora	-9312
▁Pod	-9313
▁ROI	-9314
▁Sal	-9315
▁Shi	-9316
▁[3]	-9317
▁bus	-9318
▁exp	-9319
▁hol	-9320
▁ify	-9321
▁kon	-9322
▁lia	-9323
▁llo	-9324
▁men	-9325
▁ssi	-9326
▁top	-9327
▁txt	-9328
▁uri	-9329
▁اير	-9330
▁بشن	-9331
▁بلع	-9332
▁بوه	-9333
▁بید	-9334
▁تبر	-9335
▁جرت	-9336
▁حفر	-9337
▁رجب	-9338
▁زحل	-9339
▁زره	-9340
▁شیت	-9341
▁صدف	-9342
▁طوط	-9343
▁عرش	-9344
▁غیب	-9345
▁فاو	-9346
▁فتم	-9347
▁فجر	-9348
▁فلس	-9349
▁قوط	-9350
▁لدر	-9351
▁لری	-9352
▁موث	-9353
▁نسخ	-9354
▁نهر	-9355
▁هوک	-9356
▁کدی	-9357
▁کشا	-9358
▁کله	-9359
▁یبا	-9360
▁یرف	-9361
▁یچه	-9362
▁Auth	-9363
▁Bell	-9364
▁Fair	-9365
▁Lege	-9366
▁Moon	-9367
▁More	-9368
▁OLED	-9369
▁Pyth	-9370
▁Regi	-9371
▁Safe	-9372
▁Sign	-9373
▁Squa	-9374
▁Vall	-9375
▁fere	-9376
▁html	-9377
▁pass	-9378
▁play	-9379
▁ship	-9380
▁well	-9381
▁آرای	-9382
▁ائده	-9383
▁اوره	-9384
▁تسون	-9385
▁داون	-9386
▁رائی	-9387
▁راجر	-9388
▁رودو	-9389
▁طالع	-9390
▁فتاد	-9391
▁لانو	-9392
▁لوئه	-9393
▁لوده	-9394
▁وودی	-9395
▁کاهد	-9396
▁گاری	-9397
▁یاتی	-9398
▁یلتس	-9399
▁Clean	-9400
▁Comma	-9401
▁Flash	-9402
▁Force	-9403
▁ختیار	-9404
▁روهای	-9405
▁رگوسن	-9406
▁رینیو	-9407
▁محیطی	-9408
▁مدارا	-9409
▁موسیق	-9410
PI	-9411
be	-9412
oS	-9413
pa	-9414
tp	-9415
zi	-9416
وَ	-9417
يل	-9418
eli	-9419
sta	-9420
ube	-9421
تیو	-9422
سون	-9423
میو	-9424
ندا	-9425
کاک	-9426
▁FI	-9427
▁FM	-9428
▁HG	-9429
▁Hu	-9430
▁ME	-9431
▁dd	-9432
▁fy	-9433
▁jo	-9434
▁ob	-9435
▁ثر	-9436
▁حن	-9437
▁دد	-9438
▁هى	-9439
▁گچ	-9440
▁۷۸	-9441
isco	-9442
▁105	-9443
▁Adv	-9444
▁Ant	-9445
▁Ash	-9446
▁Bud	-9447
▁Cop	-9448
▁FAT	-9449
▁Gar	-9450
▁Git	-9451
▁ICS	-9452
▁IEC	-9453
▁Ice	-9454
▁Lau	-9455
▁Lou	-9456
▁Mov	-9457
▁PhD	-9458
▁RSS	-9459
▁Riv	-9460
▁TED	-9461
▁Who	-9462
▁bol	-9463
▁cre	-9464
▁ful	-9465
▁iam	-9466
▁ige	-9467
▁not	-9468
▁off	-9469
▁vil	-9470
▁web	-9471
▁ائب	-9472
▁ائق	-9473
▁اشد	-9474
▁ایف	-9475
▁ایۀ	-9476
▁خیص	-9477
▁درا	-9478
▁دهن	-9479
▁رنچ	-9480
▁طاق	-9481
▁طبع	-9482
▁ظیم	-9483
▁فست	-9484
▁قمر	-9485
▁قوس	-9486
▁لاج	-9487
▁موب	-9488
▁نجی	-9489
▁نطق	-9490
▁کید	-9491
▁یلز	-9492
▁Assi	-9493
▁EMBA	-9494
▁Ener	-9495
▁Fina	-9496
▁Gate	-9497
▁HDMI	-9498
▁Head	-9499
▁Marv	-9500
▁Road	-9501
▁Wood	-9502
▁ling	-9503
▁ارنس	-9504
▁ارکد	-9505
▁ایلر	-9506
▁اینر	-9507
▁اینس	-9508
▁بلین	-9509
▁جبار	-9510
▁دنیل	-9511
▁رايط	-9512
▁شانی	-9513
▁طارد	-9514
▁لیای	-9515
▁موزا	-9516
▁نجیر	-9517
▁نیکس	-9518
▁هورا	-9519
▁وشید	-9520
▁کهلم	-9521
▁یلدا	-9522
▁ینات	-9523
▁یناپ	-9524
▁Blood	-9525
▁Cross	-9526
▁Prime	-9527
▁باکتر	-9528
▁رتینو	-9529
▁رمانی	-9530
▁ینینگ	-9531
BT	-9532
IG	-9533
ny	-9534
xx	-9535
زن	-9536
شب	-9537
▁q	-9538
▁ü	-9539
▁♫	-9540
ART	-9541
ano	-9542
esh	-9543
دیو	-9544
▁9.	-9545
▁DO	-9546
▁MT	-9547
▁OH	-9548
▁OM	-9549
▁Ry	-9550
▁SR	-9551
▁بم	-9552
▁تِ	-9553
▁کک	-9554
▁۶۸	-9555
▁4.5	-9556
▁Eli	-9557
▁FIF	-9558
▁Let	-9559
▁Pop	-9560
▁Tru	-9561
▁bro	-9562
▁led	-9563
▁rat	-9564
▁rio	-9565
▁sol	-9566
▁انچ	-9567
▁بوب	-9568
▁تبت	-9569
▁حقه	-9570
▁رشی	-9571
▁رگر	-9572
▁زیا	-9573
▁ساع	-9574
▁سرچ	-9575
▁سها	-9576
▁سگی	-9577
▁لفت	-9578
▁نئو	-9579
▁نچه	-9580
▁نکا	-9581
▁هوه	-9582
▁پون	-9583
▁ژست	-9584
▁گنا	-9585
▁Adam	-9586
▁Cert	-9587
▁Cryp	-9588
▁Gall	-9589
▁Hack	-9590
▁Hori	-9591
▁Lite	-9592
▁Lost	-9593
▁Maps	-9594
▁Nord	-9595
▁Sing	-9596
▁Spec	-9597
▁Spid	-9598
▁Trav	-9599
▁burg	-9600
▁name	-9601
▁ابوت	-9602
▁ارنر	-9603
▁اریس	-9604
▁انگا	-9605
▁انیل	-9606
▁تامی	-9607
▁دسون	-9608
▁رنزه	-9609
▁روها	-9610
▁میدن	-9611
▁ندیک	-9612
▁نسنت	-9613
▁نیده	-9614
▁هاله	-9615
▁هواز	-9616
▁وئیز	-9617
▁کوری	-9618
▁کیبو	-9619
▁کینز	-9620
▁Camer	-9621
▁Commu	-9622
▁Sleep	-9623
▁انیان	-9624
▁باهات	-9625
▁دازند	-9626
▁دیانا	-9627
▁ستفاد	-9628
DE	-9629
UM	-9630
kh	-9631
▁â	-9632
▁😉	-9633
omb	-9634
use	-9635
تون	-9636
دار	-9637
موس	-9638
ولو	-9639
کلر	-9640
▁(9	-9641
▁8)	-9642
▁DJ	-9643
▁GL	-9644
▁PF	-9645
▁PK	-9646
▁Va	-9647
▁XP	-9648
▁[2	-9649
▁cr	-9650
▁ea	-9651
▁sl	-9652
▁أم	-9653
▁۷۱	-9654
▁۷۷	-9655
▁۹۱	-9656
▁۹۸	-9657
▁1.1	-9658
▁1.7	-9659
▁750	-9660
▁Act	-9661
▁Apa	-9662
▁BTC	-9663
▁Cat	-9664
▁Cho	-9665
▁Cla	-9666
▁DVR	-9667
▁EEA	-9668
▁Far	-9669
▁HBO	-9670
▁Hat	-9671
▁Jet	-9672
▁Job	-9673
▁Joe	-9674
▁MAC	-9675
▁OCD	-9676
▁Pad	-9677
▁Par	-9678
▁Reg	-9679
▁Rei	-9680
▁SEM	-9681
▁Sho	-9682
▁VIP	-9683
▁Wom	-9684
▁Yes	-9685
▁air	-9686
▁bio	-9687
▁blo	-9688
▁ina	-9689
▁ios	-9690
▁lev	-9691
▁log	-9692
▁map	-9693
▁mia	-9694
▁nto	-9695
▁nux	-9696
▁rix	-9697
▁tar	-9698
▁tis	-9699
▁اجی	-9700
▁حرص	-9701
▁حیت	-9702
▁حیف	-9703
▁دلب	-9704
▁رنل	-9705
▁سپت	-9706
▁صاص	-9707
▁فسا	-9708
▁فیک	-9709
▁كنم	-9710
▁لوز	-9711
▁لیۀ	-9712
▁مجو	-9713
▁مدد	-9714
▁منس	-9715
▁منه	-9716
▁مپا	-9717
▁میو	-9718
▁ندد	-9719
▁نقط	-9720
▁هاپ	-9721
▁وشک	-9722
▁وقی	-9723
▁وور	-9724
▁وپز	-9725
▁ياس	-9726
▁يکی	-9727
▁پره	-9728
▁Anti	-9729
▁Cust	-9730
▁Days	-9731
▁Desk	-9732
▁Drop	-9733
▁Fact	-9734
▁From	-9735
▁Gard	-9736
▁Host	-9737
▁Like	-9738
▁Limi	-9739
▁Mari	-9740
▁Merc	-9741
▁Path	-9742
▁Peop	-9743
▁Rest	-9744
▁Simp	-9745
▁Veri	-9746
▁VoIP	-9747
▁game	-9748
▁gers	-9749
▁rome	-9750
▁stro	-9751
▁tech	-9752
▁اشین	-9753
▁تباه	-9754
▁جویا	-9755
▁راسو	-9756
▁راکی	-9757
▁رخور	-9758
▁رزها	-9759
▁رقیز	-9760
▁روخت	-9761
▁روسا	-9762
▁روین	-9763
▁رویی	-9764
▁زمره	-9765
▁سائل	-9766
▁شاسی	-9767
▁صادی	-9768
▁طمئن	-9769
▁قایل	-9770
▁لسکه	-9771
▁لیسا	-9772
▁موده	-9773
▁هدوی	-9774
▁هودی	-9775
▁هیپر	-9776
▁وانش	-9777
▁وتاه	-9778
▁وزوو	-9779
▁ویین	-9780
▁کولی	-9781
▁یروس	-9782
▁یمیا	-9783
▁یندا	-9784
▁Check	-9785
▁Excel	-9786
▁Messa	-9787
▁Sound	-9788
▁space	-9789
▁اردیو	-9790
▁ارقان	-9791
▁ارلوت	-9792
▁اعتبا	-9793
▁الدیو	-9794
▁ترونی	-9795
▁نیتین	-9796
▁هیروش	-9797
▁وردون	-9798
▁یانبر	-9799
▁یتانی	-9800
▁یلینو	-9801
DF	-9802
FS	-9803
TO	-9804
UB	-9805
UT	-9806
wa	-9807
آب	-9808
ُن	-9809
گن	-9810
▁~	-9811
IDS	-9812
eno	-9813
ese	-9814
ilo	-9815
oth	-9816
unk	-9817
انا	-9818
یمن	-9819
▁(0	-9820
▁00	-9821
▁BO	-9822
▁CE	-9823
▁Ec	-9824
▁Ic	-9825
▁Im	-9826
▁MV	-9827
▁Mr	-9828
▁OC	-9829
▁Pu	-9830
▁QR	-9831
▁im	-9832
▁ja	-9833
▁uk	-9834
▁بث	-9835
▁حص	-9836
▁شپ	-9837
▁كل	-9838
▁چس	-9839
▁۸۲	-9840
▁۹۲	-9841
▁“.	-9842
amil	-9843
▁1.8	-9844
▁101	-9845
▁20%	-9846
▁ART	-9847
▁EOS	-9848
▁Fut	-9849
▁GPU	-9850
▁GTA	-9851
▁IPv	-9852
▁Jim	-9853
▁Kid	-9854
▁Low	-9855
▁Moz	-9856
▁Ray	-9857
▁SAT	-9858
▁Sav	-9859
▁Tow	-9860
▁Two	-9861
▁bia	-9862
▁dor	-9863
▁get	-9864
▁gro	-9865
▁let	-9866
▁mal	-9867
▁ore	-9868
▁ror	-9869
▁tta	-9870
▁ugh	-9871
▁wat	-9872
▁win	-9873
▁اذن	-9874
▁ایح	-9875
▁تاس	-9876
▁تدر	-9877
▁جود	-9878
▁جول	-9879
▁دوا	-9880
▁ذبح	-9881
▁ربر	-9882
▁ساح	-9883
▁سرِ	-9884
▁سعد	-9885
▁شرا	-9886
▁طیل	-9887
▁علو	-9888
▁فاف	-9889
▁لاع	-9890
▁لمب	-9891
▁لکن	-9892
▁نبس	-9893
▁نتج	-9894
▁هوی	-9895
▁هیب	-9896
▁وتس	-9897
▁پدی	-9898
▁چاک	-9899
▁چکش	-9900
▁ژاک	-9901
▁ژده	-9902
▁گسل	-9903
▁یکى	-9904
▁Edge	-9905
▁Fore	-9906
▁JSON	-9907
▁Lake	-9908
▁Lead	-9909
▁RAID	-9910
▁Task	-9911
▁This	-9912
▁Wond	-9913
▁ball	-9914
▁cape	-9915
▁chat	-9916
▁here	-9917
▁mode	-9918
▁part	-9919
▁raft	-9920
▁الوپ	-9921
▁اینت	-9922
▁بتنی	-9923
▁بررس	-9924
▁تاکی	-9925
▁حقاق	-9926
▁ختند	-9927
▁رالف	-9928
▁ربوط	-9929
▁رجیس	-9930
▁رحال	-9931
▁ریوش	-9932
▁زاری	-9933
▁زوین	-9934
▁صادف	-9935
▁مایی	-9936
▁ندیس	-9937
▁نظار	-9938
▁نیال	-9939
▁هرات	-9940
▁هزین	-9941
▁ورتو	-9942
▁ولوژ	-9943
▁کانی	-9944
▁کونگ	-9945
▁گراد	-9946
▁ینور	-9947
▁Archi	-9948
▁Basic	-9949
▁Cisco	-9950
▁Click	-9951
▁Local	-9952
▁Quest	-9953
▁Yoast	-9954
▁تونین	-9955
▁تیانو	-9956
▁ریبان	-9957
▁زیدان	-9958
▁فناور	-9959
▁لاستی	-9960
▁هریمن	-9961
▁یناپس	-9962
CG	-9963
FA	-9964
NF	-9965
SD	-9966
by	-9967
wl	-9968
ذل	-9969
كو	-9970
يک	-9971
٠٠	-9972
پت	-9973
▁ھ	-9974
▁‪	-9975
▁➖	-9976
▁7)	-9977
▁AX	-9978
▁EP	-9979
▁FS	-9980
▁Kh	-9981
▁MM	-9982
▁OD	-9983
▁Oc	-9984
▁PB	-9985
▁PV	-9986
▁VO	-9987
▁WO	-9988
▁WS	-9989
▁Xp	-9990
▁gu	-9991
▁hy	-9992
▁vi	-9993
▁ضو	-9994
▁فص	-9995
▁پف	-9996
▁کذ	-9997
▁۵۷	-9998
▁۷۶	-9999
▁(4)	-10000
▁404	-10001
▁5.5	-10002
▁50%	-10003
▁Ada	-10004
▁Aga	-10005
▁Blo	-10006
▁Blu	-10007
▁CAT	-10008
▁Den	-10009
▁Exo	-10010
▁Eye	-10011
▁Hit	-10012
▁Hor	-10013
▁ICA	-10014
▁IEE	-10015
▁IOS	-10016
▁Inv	-10017
▁Lev	-10018
▁Lum	-10019
▁MSC	-10020
▁REM	-10021
▁Rat	-10022
▁Ris	-10023
▁Set	-10024
▁Spi	-10025
▁[2]	-10026
▁acc	-10027
▁cli	-10028
▁clo	-10029
▁cry	-10030
▁ini	-10031
▁lar	-10032
▁mid	-10033
▁rop	-10034
▁sea	-10035
▁sha	-10036
▁sse	-10037
▁اخص	-10038
▁ادگ	-10039
▁برز	-10040
▁بسه	-10041
▁بنر	-10042
▁توص	-10043
▁جاش	-10044
▁حلق	-10045
▁خوف	-10046
▁رجی	-10047
▁ساق	-10048
▁شاو	-10049
▁ضرو	-10050
▁غسل	-10051
▁فسخ	-10052
▁فکس	-10053
▁كان	-10054
▁لفظ	-10055
▁مگس	-10056
▁نخل	-10057
▁ندل	-10058
▁ودت	-10059
▁پتی	-10060
▁پلر	-10061
▁پنه	-10062
▁چيز	-10063
▁گیا	-10064
▁یهو	-10065
▁۳۶۰	-10066
▁۴۵۰	-10067
▁۹۰۰	-10068
▁Baby	-10069
▁Beyo	-10070
▁Cart	-10071
▁Defe	-10072
▁ECTS	-10073
▁Flow	-10074
▁Frie	-10075
▁Illu	-10076
▁Name	-10077
▁Oper	-10078
▁Orga	-10079
▁Pict	-10080
▁RFID	-10081
▁Silv	-10082
▁Siri	-10083
▁Step	-10084
▁Talk	-10085
▁Vent	-10086
▁Xiao	-10087
▁body	-10088
▁endo	-10089
▁fact	-10090
▁lock	-10091
▁shop	-10092
▁syst	-10093
▁text	-10094
▁urre	-10095
▁اریخ	-10096
▁اسیک	-10097
▁ایشی	-10098
▁ایمر	-10099
▁ایور	-10100
▁باشن	-10101
▁تقوی	-10102
▁جیره	-10103
▁دمین	-10104
▁راکل	-10105
▁رسنت	-10106
▁رفتی	-10107
▁رفرم	-10108
▁رنتی	-10109
▁ریدر	-10110
▁شارك	-10111
▁شكست	-10112
▁غاتی	-10113
▁فلسط	-10114
▁لامت	-10115
▁موتو	-10116
▁نبیا	-10117
▁نتور	-10118
▁پلیر	-10119
▁کوتا	-10120
▁ینیم	-10121
▁یوار	-10122
▁یوست	-10123
▁یووا	-10124
▁Chris	-10125
▁Hello	-10126
▁Hotel	-10127
▁Monst	-10128
▁Premi	-10129
▁Smith	-10130
▁Track	-10131
▁Trust	-10132
▁ridge	-10133
▁اتایا	-10134
▁ربانی	-10135
▁رتانا	-10136
▁رثقیل	-10137
▁ردهای	-10138
▁رسینو	-10139
▁روجان	-10140
▁ریبون	-10141
▁مصنوع	-10142
▁ونتوس	-10143
▁پکینز	-10144
CP	-10145
UR	-10146
YS	-10147
rl	-10148
خط	-10149
پی	-10150
▁️	-10151
OCK	-10152
asy	-10153
era	-10154
inc	-10155
ope	-10156
rie	-10157
ارا	-10158
▁5%	-10159
▁BV	-10160
▁DE	-10161
▁FL	-10162
▁GE	-10163
▁JD	-10164
▁NI	-10165
▁lu	-10166
▁pi	-10167
▁ts	-10168
▁vs	-10169
▁بغ	-10170
▁صت	-10171
▁صط	-10172
▁لص	-10173
▁لى	-10174
▁نث	-10175
▁وى	-10176
▁یى	-10177
▁۷۴	-10178
▁۸۳	-10179
▁۹٫	-10180
▁Bal	-10181
▁Bow	-10182
▁CIS	-10183
▁CNC	-10184
▁Cas	-10185
▁EUR	-10186
▁Fed	-10187
▁ISS	-10188
▁Mal	-10189
▁Mas	-10190
▁POS	-10191
▁PTS	-10192
▁Pap	-10193
▁Sie	-10194
▁Sui	-10195
▁TCP	-10196
▁Tho	-10197
▁Tok	-10198
▁WPA	-10199
▁Wel	-10200
▁chi	-10201
▁dic	-10202
▁ega	-10203
▁gni	-10204
▁ism	-10205
▁lab	-10206
▁nat	-10207
▁new	-10208
▁niz	-10209
▁pse	-10210
▁rev	-10211
▁rew	-10212
▁ائر	-10213
▁ازت	-10214
▁بدش	-10215
▁بشو	-10216
▁تتر	-10217
▁حتر	-10218
▁خلأ	-10219
▁دکل	-10220
▁ردل	-10221
▁رگس	-10222
▁رگه	-10223
▁زهر	-10224
▁زوس	-10225
▁زیگ	-10226
▁سبا	-10227
▁سلف	-10228
▁شرت	-10229
▁شیپ	-10230
▁طبخ	-10231
▁فطر	-10232
▁قبض	-10233
▁لدی	-10234
▁ماب	-10235
▁همش	-10236
▁واچ	-10237
▁وتن	-10238
▁ولي	-10239
▁يات	-10240
▁پیل	-10241
▁گما	-10242
▁گنگ	-10243
▁یعی	-10244
▁یفن	-10245
▁یمت	-10246
▁یکت	-10247
▁Admi	-10248
▁Band	-10249
▁Beat	-10250
▁Capt	-10251
▁Coun	-10252
▁Deep	-10253
▁Four	-10254
▁Iron	-10255
▁Nint	-10256
▁Pint	-10257
▁Qual	-10258
▁Rose	-10259
▁Shop	-10260
▁Some	-10261
▁Surv	-10262
▁True	-10263
▁card	-10264
▁host	-10265
▁nger	-10266
▁redi	-10267
▁ribu	-10268
▁rick	-10269
▁rior	-10270
▁انیک	-10271
▁تمان	-10272
▁دوام	-10273
▁ردوس	-10274
▁رودی	-10275
▁رگون	-10276
▁شرفت	-10277
▁طبیع	-10278
▁لئان	-10279
▁لاتر	-10280
▁لاقی	-10281
▁لینگ	-10282
▁میتۀ	-10283
▁نگنز	-10284
▁هاری	-10285
▁هتاب	-10286
▁هواپ	-10287
▁واجه	-10288
▁وتان	-10289
▁ورکو	-10290
▁وریا	-10291
▁ولفو	-10292
▁وندا	-10293
▁ونگر	-10294
▁ویدا	-10295
▁چارت	-10296
▁یانا	-10297
▁یترو	-10298
▁یداد	-10299
▁یدها	-10300
▁یشین	-10301
▁Child	-10302
▁Corta	-10303
▁Great	-10304
▁Model	-10305
▁Sense	-10306
▁USCIS	-10307
▁cholo	-10308
▁force	-10309
▁ncial	-10310
▁ایندگ	-10311
▁برجست	-10312
▁بونتو	-10313
▁ریستو	-10314
▁نتینر	-10315
▁هاردی	-10316
▁ورتون	-10317
▁یتوان	-10318
▁یستیک	-10319
30	-10320
5]	-10321
IR	-10322
ME	-10323
UA	-10324
ko	-10325
pe	-10326
tu	-10327
بد	-10328
يت	-10329
▁♦	-10330
▁🔹	-10331
iga	-10332
ino	-10333
irc	-10334
ker	-10335
بون	-10336
یلو	-10337
▁6)	-10338
▁Af	-10339
▁FD	-10340
▁NX	-10341
▁Wo	-10342
▁Wr	-10343
▁Yu	-10344
▁ci	-10345
▁ix	-10346
▁nn	-10347
▁rm	-10348
▁خس	-10349
▁مَ	-10350
▁وك	-10351
▁۹۳	-10352
illa	-10353
ogle	-10354
▁(15	-10355
▁1.0	-10356
▁1.3	-10357
▁190	-10358
▁8.1	-10359
▁90%	-10360
▁AMD	-10361
▁ATM	-10362
▁Alb	-10363
▁BPA	-10364
▁BPM	-10365
▁CAP	-10366
▁CIA	-10367
▁CTR	-10368
▁EAS	-10369
▁FOR	-10370
▁Fur	-10371
▁Get	-10372
▁Ham	-10373
▁Inn	-10374
▁MHz	-10375
▁NFL	-10376
▁PAC	-10377
▁Phy	-10378
▁Rog	-10379
▁SEC	-10380
▁Woo	-10381
▁[5]	-10382
▁den	-10383
▁dit	-10384
▁doc	-10385
▁han	-10386
▁ime	-10387
▁ist	-10388
▁kia	-10389
▁nde	-10390
▁nte	-10391
▁ppm	-10392
▁sco	-10393
▁sen	-10394
▁sup	-10395
▁tes	-10396
▁too	-10397
▁ule	-10398
▁ury	-10399
▁بنت	-10400
▁تهد	-10401
▁تیس	-10402
▁درك	-10403
▁ذلت	-10404
▁زجر	-10405
▁سطر	-10406
▁سفه	-10407
▁شپش	-10408
▁طیر	-10409
▁عاو	-10410
▁عنی	-10411
▁عیا	-10412
▁غصه	-10413
▁فرج	-10414
▁فکا	-10415
▁لوح	-10416
▁لگو	-10417
▁نبض	-10418
▁نزه	-10419
▁نفخ	-10420
▁نمر	-10421
▁نوآ	-10422
▁وسن	-10423
▁کاج	-10424
▁کای	-10425
▁کبا	-10426
▁کذب	-10427
▁کرک	-10428
▁کرۀ	-10429
▁کلن	-10430
▁کوم	-10431
▁یچی	-10432
▁۱۴۰	-10433
▁Alan	-10434
▁Ball	-10435
▁Bull	-10436
▁Cell	-10437
▁Dash	-10438
▁Easy	-10439
▁FIFA	-10440
▁IEEE	-10441
▁Iran	-10442
▁Made	-10443
▁Mega	-10444
▁Mind	-10445
▁Moto	-10446
▁PTSD	-10447
▁SaaS	-10448
▁Sche	-10449
▁Stor	-10450
▁Tell	-10451
▁Writ	-10452
▁cell	-10453
▁foll	-10454
▁iews	-10455
▁less	-10456
▁open	-10457
▁pack	-10458
▁rest	-10459
▁thou	-10460
▁town	-10461
▁اتیو	-10462
▁ارکو	-10463
▁اطبا	-10464
▁تریا	-10465
▁ثانی	-10466
▁خرین	-10467
▁دوات	-10468
▁رایز	-10469
▁رسون	-10470
▁رغبت	-10471
▁ریای	-10472
▁سیار	-10473
▁شریر	-10474
▁لوین	-10475
▁مونه	-10476
▁نجره	-10477
▁ندوز	-10478
▁نگام	-10479
▁نیان	-10480
▁هانا	-10481
▁هاور	-10482
▁وادی	-10483
▁وریک	-10484
▁وپای	-10485
▁چانگ	-10486
▁یزها	-10487
▁Brexi	-10488
▁Counc	-10489
▁Craig	-10490
▁Creed	-10491
▁Excha	-10492
▁Henry	-10493
▁Jones	-10494
▁Radio	-10495
▁Trade	-10496
▁Where	-10497
▁gramm	-10498
▁oogle	-10499
▁ville	-10500
▁بخواه	-10501
▁زیسین	-10502
▁طلبان	-10503
▁لیایی	-10504
▁نهدام	-10505
▁وریکو	-10506
▁یندکس	-10507
CO	-10508
LL	-10509
TT	-10510
UN	-10511
ps	-10512
شو	-10513
ــ	-10514
كه	-10515
هو	-10516
چن	-10517
▁£	-10518
▁′	-10519
▁‹	-10520
IST	-10521
cho	-10522
dro	-10523
eet	-10524
ssi	-10525
لیو	-10526
یتو	-10527
▁6،	-10528
▁AK	-10529
▁IA	-10530
▁LC	-10531
▁NE	-10532
▁RC	-10533
▁TA	-10534
▁UM	-10535
▁Zh	-10536
▁ee	-10537
▁ux	-10538
▁xi	-10539
▁ze	-10540
▁اِ	-10541
▁ژگ	-10542
▁۵۹	-10543
▁۶۳	-10544
▁۸۶	-10545
ache	-10546
ough	-10547
▁(7)	-10548
▁10%	-10549
▁11-	-10550
▁ANS	-10551
▁ATP	-10552
▁Ara	-10553
▁Bob	-10554
▁CDN	-10555
▁Cri	-10556
▁Cru	-10557
▁DHA	-10558
▁Ell	-10559
▁Eng	-10560
▁Fit	-10561
▁Fly	-10562
▁Fro	-10563
▁GRE	-10564
▁Jul	-10565
▁Lis	-10566
▁NVR	-10567
▁Nex	-10568
▁Nut	-10569
▁PRO	-10570
▁PVC	-10571
▁Pla	-10572
▁Ref	-10573
▁Row	-10574
▁Sum	-10575
▁TLS	-10576
▁UPS	-10577
▁Unc	-10578
▁XRP	-10579
▁Zen	-10580
▁act	-10581
▁bor	-10582
▁boy	-10583
▁bre	-10584
▁dra	-10585
▁ero	-10586
▁gar	-10587
▁imp	-10588
▁mus	-10589
▁nec	-10590
▁nni	-10591
▁non	-10592
▁nza	-10593
▁ons	-10594
▁pad	-10595
▁rai	-10596
▁sla	-10597
▁sur	-10598
▁uni	-10599
▁urn	-10600
▁var	-10601
▁آرش	-10602
▁بسم	-10603
▁بعض	-10604
▁تبه	-10605
▁تزر	-10606
▁توو	-10607
▁تیغ	-10608
▁جکی	-10609
▁حتي	-10610
▁حقش	-10611
▁حور	-10612
▁دنا	-10613
▁رحل	-10614
▁روي	-10615
▁رکی	-10616
▁زنن	-10617
▁سهل	-10618
▁سیه	-10619
▁شاب	-10620
▁كرا	-10621
▁لبا	-10622
▁لدن	-10623
▁لرو	-10624
▁وجد	-10625
▁ورف	-10626
▁ورل	-10627
▁ووه	-10628
▁ویخ	-10629
▁ياد	-10630
▁پسا	-10631
▁پنس	-10632
▁پیج	-10633
▁کِی	-10634
▁یسب	-10635
▁یسو	-10636
▁یعن	-10637
▁یلک	-10638
▁Aust	-10639
▁BIOS	-10640
▁Cash	-10641
▁Cine	-10642
▁DDoS	-10643
▁Disk	-10644
▁Farm	-10645
▁Fish	-10646
▁Ford	-10647
▁Jeff	-10648
▁Marc	-10649
▁Mary	-10650
▁Paci	-10651
▁Rela	-10652
▁Self	-10653
▁Spri	-10654
▁Stop	-10655
▁Stri	-10656
▁Supp	-10657
▁Wolf	-10658
▁Xper	-10659
▁Year	-10660
▁auto	-10661
▁bank	-10662
▁bell	-10663
▁egra	-10664
▁fore	-10665
▁hart	-10666
▁pean	-10667
▁ries	-10668
▁sour	-10669
▁type	-10670
▁user	-10671
▁will	-10672
▁آووک	-10673
▁ابرا	-10674
▁ارلو	-10675
▁ارگر	-10676
▁اکره	-10677
▁ایال	-10678
▁ببری	-10679
▁بینز	-10680
▁تسلی	-10681
▁دالی	-10682
▁ردون	-10683
▁شایر	-10684
▁شیوۀ	-10685
▁فرای	-10686
▁لائق	-10687
▁لاتک	-10688
▁مقال	-10689
▁ناپه	-10690
▁نهدم	-10691
▁نیما	-10692
▁نیوز	-10693
▁هانو	-10694
▁وادا	-10695
▁ودور	-10696
▁ولدر	-10697
▁وهان	-10698
▁یائو	-10699
▁یفیت	-10700
▁یمپس	-10701
▁Brand	-10702
▁Crazy	-10703
▁Famil	-10704
▁Phili	-10705
▁Steve	-10706
▁Swift	-10707
▁Three	-10708
▁Train	-10709
▁build	-10710
▁media	-10711
▁sport	-10712
▁الوور	-10713
▁دینال	-10714
▁رکسیت	-10715
▁زنامه	-10716
▁زینتی	-10717
▁لنسیا	-10718
▁ماتیک	-10719
▁ندارن	-10720
▁نیایی	-10721
▁کارنس	-10722
▁گهدار	-10723
11	-10724
IX	-10725
LT	-10726
YC	-10727
كز	-10728
كم	-10729
ُد	-10730
▁^	-10731
▁ٓ	-10732
▁😀	-10733
EFL	-10734
apt	-10735
aya	-10736
iev	-10737
oma	-10738
ota	-10739
ودا	-10740
چین	-10741
▁1+	-10742
▁2/	-10743
▁4،	-10744
▁5/	-10745
▁7:	-10746
▁Ct	-10747
▁FO	-10748
▁FU	-10749
▁HM	-10750
▁IE	-10751
▁Ku	-10752
▁LO	-10753
▁MH	-10754
▁ND	-10755
▁NL	-10756
▁SL	-10757
▁SV	-10758
▁[4	-10759
▁ju	-10760
▁ms	-10761
▁mu	-10762
▁tz	-10763
▁وذ	-10764
▁١٢	-10765
▁ژی	-10766
▁۶۱	-10767
▁۶۲	-10768
▁۶۷	-10769
▁۹۴	-10770
▁12-	-10771
▁2.2	-10772
▁2.8	-10773
▁220	-10774
▁550	-10775
▁911	-10776
▁Ann	-10777
▁Att	-10778
▁Bus	-10779
▁CBT	-10780
▁Cut	-10781
▁DES	-10782
▁ESA	-10783
▁GMT	-10784
▁HGR	-10785
▁Hol	-10786
▁IBD	-10787
▁INS	-10788
▁IOT	-10789
▁IRC	-10790
▁Jan	-10791
▁KPI	-10792
▁Kni	-10793
▁Luc	-10794
▁MAN	-10795
▁MVC	-10796
▁Mel	-10797
▁Mur	-10798
▁NAB	-10799
▁Off	-10800
▁RAW	-10801
▁Rub	-10802
▁SDK	-10803
▁SHA	-10804
▁SPA	-10805
▁SSH	-10806
▁See	-10807
▁Swi	-10808
▁Tab	-10809
▁Too	-10810
▁VPS	-10811
▁Yah	-10812
▁don	-10813
▁ear	-10814
▁edi	-10815
▁etc	-10816
▁fer	-10817
▁hCG	-10818
▁imi	-10819
▁lib	-10820
▁mit	-10821
▁ned	-10822
▁nor	-10823
▁nse	-10824
▁pow	-10825
▁set	-10826
▁sor	-10827
▁wal	-10828
▁war	-10829
▁اجه	-10830
▁اوض	-10831
▁بخر	-10832
▁بعا	-10833
▁بیف	-10834
▁تُن	-10835
▁جاى	-10836
▁جدل	-10837
▁حتى	-10838
▁خاذ	-10839
▁دند	-10840
▁رُم	-10841
▁سکا	-10842
▁شعا	-10843
▁شمس	-10844
▁شمن	-10845
▁شوا	-10846
▁طبل	-10847
▁عصا	-10848
▁غرض	-10849
▁فود	-10850
▁فوم	-10851
▁قلو	-10852
▁كته	-10853
▁لسی	-10854
▁مله	-10855
▁نجس	-10856
▁هگل	-10857
▁وخت	-10858
▁چين	-10859
▁کتۀ	-10860
▁کشو	-10861
▁کیو	-10862
▁یرس	-10863
▁ینر	-10864
▁۱۳۰	-10865
▁۱۶۰	-10866
▁Bang	-10867
▁Beau	-10868
▁Body	-10869
▁Boot	-10870
▁Buzz	-10871
▁COPD	-10872
▁Cath	-10873
▁Circ	-10874
▁Disp	-10875
▁Dist	-10876
▁Esse	-10877
▁GDPR	-10878
▁Info	-10879
▁Inju	-10880
▁JPEG	-10881
▁Make	-10882
▁Mars	-10883
▁Mate	-10884
▁Pari	-10885
▁Pier	-10886
▁Reso	-10887
▁Save	-10888
▁Trip	-10889
▁When	-10890
▁hand	-10891
▁http	-10892
▁mail	-10893
▁mast	-10894
▁poly	-10895
▁star	-10896
▁ties	-10897
▁ulus	-10898
▁اجار	-10899
▁ارلت	-10900
▁ارگا	-10901
▁ازدا	-10902
▁انبی	-10903
▁اگان	-10904
▁ایید	-10905
▁بدیل	-10906
▁بساز	-10907
▁تعدد	-10908
▁تیان	-10909
▁خبار	-10910
▁خورش	-10911
▁دورد	-10912
▁رابر	-10913
▁رادۀ	-10914
▁رسته	-10915
▁رمود	-10916
▁روتو	-10917
▁رومن	-10918
▁رویس	-10919
▁رینو	-10920
▁زائر	-10921
▁زیکا	-10922
▁ستیز	-10923
▁طکاک	-10924
▁مران	-10925
▁مناک	-10926
▁موخت	-10927
▁مولا	-10928
▁ناست	-10929
▁وستر	-10930
▁ولیۀ	-10931
▁ونان	-10932
▁ویلر	-10933
▁یمای	-10934
▁ینگن	-10935
▁یوون	-10936
▁Alpha	-10937
▁Brown	-10938
▁Mario	-10939
▁Queen	-10940
▁Shift	-10941
▁Steam	-10942
▁Stone	-10943
▁Turbo	-10944
▁Value	-10945
▁cloud	-10946
▁front	-10947
▁group	-10948
▁استند	-10949
▁براین	-10950
▁تمالا	-10951
▁راوات	-10952
▁ریلیک	-10953
▁ریمون	-10954
▁لاتون	-10955
▁هابیت	-10956
▁واتار	-10957
▁وکینز	-10958
▁یبریا	-10959
▁یدمیو	-10960
▁یزهای	-10961
▁یسبون	-10962
▁یشینگ	-10963
++	-10964
EI	-10965
II	-10966
RC	-10967
SL	-10968
WC	-10969
ev	-10970
sp	-10971
tt	-10972
wk	-10973
بل	-10974
دل	-10975
ضب	-10976
ضد	-10977
ُب	-10978
چر	-10979
▁ٰ	-10980
▁−	-10981
▁♥	-10982
▁✅	-10983
esa	-10984
idi	-10985
oul	-10986
ula	-10987
ulu	-10988
uta	-10989
احب	-10990
ادو	-10991
ستو	-10992
▁"،	-10993
▁.”	-10994
▁6:	-10995
▁==	-10996
▁AH	-10997
▁AJ	-10998
▁Ai	-10999
▁BT	-11000
▁Cu	-11001
▁EG	-11002
▁FR	-11003
▁IW	-11004
▁Lt	-11005
▁NH	-11006
▁SK	-11007
▁TT	-11008
▁ei	-11009
▁gl	-11010
▁ig	-11011
▁ls	-11012
▁nk	-11013
▁ns	-11014
▁غش	-11015
▁هذ	-11016
▁۷۳	-11017
▁۸۷	-11018
▁0.5	-11019
▁102	-11020
▁112	-11021
▁115	-11022
▁117	-11023
▁270	-11024
▁4.0	-11025
▁650	-11026
▁80%	-11027
▁AND	-11028
▁ASD	-11029
▁Arc	-11030
▁BAS	-11031
▁Ban	-11032
▁CAN	-11033
▁Clo	-11034
▁Cup	-11035
▁DAS	-11036
▁Dar	-11037
▁FCC	-11038
▁Gay	-11039
▁Gun	-11040
▁Kar	-11041
▁Kat	-11042
▁Kit	-11043
▁NES	-11044
▁NGO	-11045
▁ONE	-11046
▁OTC	-11047
▁Oly	-11048
▁Oth	-11049
▁PPP	-11050
▁PSA	-11051
▁Rod	-11052
▁STD	-11053
▁TEC	-11054
▁Tro	-11055
▁Use	-11056
▁WAN	-11057
▁[4]	-11058
▁are	-11059
▁cat	-11060
▁col	-11061
▁dam	-11062
▁dev	-11063
▁eff	-11064
▁erv	-11065
▁eum	-11066
▁gno	-11067
▁hot	-11068
▁how	-11069
▁ior	-11070
▁kin	-11071
▁lat	-11072
▁loc	-11073
▁ori	-11074
▁pic	-11075
▁pol	-11076
▁sch	-11077
▁ter	-11078
▁try	-11079
▁tti	-11080
▁une	-11081
▁zen	-11082
▁؟؟؟	-11083
▁الى	-11084
▁انك	-11085
▁باخ	-11086
▁بثو	-11087
▁بشم	-11088
▁بلر	-11089
▁جزر	-11090
▁جوا	-11091
▁حری	-11092
▁خری	-11093
▁دکش	-11094
▁راپ	-11095
▁ربه	-11096
▁زير	-11097
▁سکر	-11098
▁شنل	-11099
▁صحن	-11100
▁غضب	-11101
▁فرن	-11102
▁فلک	-11103
▁قیف	-11104
▁لسا	-11105
▁لست	-11106
▁لنی	-11107
▁لکی	-11108
▁معد	-11109
▁هاش	-11110
▁هزا	-11111
▁ووی	-11112
▁ياه	-11113
▁ژیم	-11114
▁کتی	-11115
▁کدو	-11116
▁کلّ	-11117
▁گنت	-11118
▁یدز	-11119
▁یرز	-11120
▁۲٫۵	-11121
▁۳۵۰	-11122
▁Arkh	-11123
▁Bala	-11124
▁Bern	-11125
▁Char	-11126
▁Cost	-11127
▁Ctrl	-11128
▁Dawn	-11129
▁Demo	-11130
▁Docu	-11131
▁Educ	-11132
▁FATF	-11133
▁Feed	-11134
▁Flip	-11135
▁Food	-11136
▁Happ	-11137
▁Jean	-11138
▁Kind	-11139
▁Know	-11140
▁Lion	-11141
▁Meth	-11142
▁Midd	-11143
▁Miss	-11144
▁Perf	-11145
▁Rema	-11146
▁Ripp	-11147
▁Rise	-11148
▁Root	-11149
▁Sale	-11150
▁Sele	-11151
▁Sher	-11152
▁Solu	-11153
▁Song	-11154
▁Stru	-11155
▁Trad	-11156
▁Week	-11157
▁Well	-11158
▁busi	-11159
▁come	-11160
▁cord	-11161
▁fied	-11162
▁from	-11163
▁gies	-11164
▁info	-11165
▁ival	-11166
▁mann	-11167
▁ners	-11168
▁onse	-11169
▁pool	-11170
▁rgan	-11171
▁road	-11172
▁wall	-11173
▁wire	-11174
▁zine	-11175
▁ائوس	-11176
▁اترا	-11177
▁اخام	-11178
▁اسبی	-11179
▁الیت	-11180
▁اپیک	-11181
▁اگون	-11182
▁ایلز	-11183
▁ایلی	-11184
▁تونه	-11185
▁تینا	-11186
▁حابه	-11187
▁رمون	-11188
▁ریفت	-11189
▁رینت	-11190
▁ریکس	-11191
▁سایی	-11192
▁سیده	-11193
▁لینت	-11194
▁لینز	-11195
▁مستق	-11196
▁نانی	-11197
▁نشنا	-11198
▁هنده	-11199
▁واتر	-11200
▁وامر	-11201
▁ودند	-11202
▁ورال	-11203
▁وزام	-11204
▁ولات	-11205
▁ولیس	-11206
▁وکتل	-11207
▁وییه	-11208
▁پتید	-11209
▁کامه	-11210
▁کتوس	-11211
▁کسوس	-11212
▁کیدن	-11213
▁یارا	-11214
▁یاره	-11215
▁یبان	-11216
▁یزاک	-11217
▁یلیو	-11218
▁Beast	-11219
▁Frame	-11220
▁India	-11221
▁Quick	-11222
▁Saint	-11223
▁Thund	-11224
▁Trend	-11225
▁Young	-11226
▁class	-11227
▁smart	-11228
▁بخوری	-11229
▁تکینز	-11230
▁دوردز	-11231
▁صطلاح	-11232
▁لانیا	-11233
▁مصاحب	-11234
▁ورباچ	-11235
▁یلاتس	-11236
jo	-11237
po	-11238
ón	-11239
شک	-11240
ُه	-11241
▁`	-11242
▁§	-11243
▁⇐	-11244
▁□	-11245
CAA	-11246
ING	-11247
aku	-11248
els	-11249
wnj	-11250
ورو	-11251
ونا	-11252
▁()	-11253
▁9)	-11254
▁:(	-11255
▁:«	-11256
▁Bh	-11257
▁Et	-11258
▁FC	-11259
▁Id	-11260
▁Ji	-11261
▁Ky	-11262
▁MX	-11263
▁SG	-11264
▁TI	-11265
▁TU	-11266
▁Ts	-11267
▁eo	-11268
▁je	-11269
▁zy	-11270
▁تت	-11271
▁سك	-11272
▁شخ	-11273
▁طس	-11274
▁كش	-11275
▁هس	-11276
▁(0)	-11277
▁106	-11278
▁10،	-11279
▁2.4	-11280
▁3.1	-11281
▁3.3	-11282
▁7.5	-11283
▁Amo	-11284
▁Ano	-11285
▁Any	-11286
▁Arm	-11287
▁Ava	-11288
▁Bee	-11289
▁Bul	-11290
▁CBS	-11291
▁CES	-11292
▁Cit	-11293
▁Cos	-11294
▁DSM	-11295
▁Deb	-11296
▁ERC	-11297
▁Fox	-11298
▁GHz	-11299
▁GIF	-11300
▁GIS	-11301
▁GMO	-11302
▁GSM	-11303
▁Ger	-11304
▁Guy	-11305
▁ICE	-11306
▁IGN	-11307
▁Oli	-11308
▁Ord	-11309
▁PCB	-11310
▁Ple	-11311
▁Qui	-11312
▁Rel	-11313
▁Ren	-11314
▁SAP	-11315
▁SUV	-11316
▁Six	-11317
▁Ske	-11318
▁UTC	-11319
▁Wii	-11320
▁Wil	-11321
▁Wri	-11322
▁bab	-11323
▁bet	-11324
▁cor	-11325
▁een	-11326
▁exe	-11327
▁gov	-11328
▁hel	-11329
▁her	-11330
▁ifi	-11331
▁now	-11332
▁oon	-11333
▁pal	-11334
▁pub	-11335
▁tas	-11336
▁uit	-11337
▁url	-11338
▁van	-11339
▁آلو	-11340
▁آیۀ	-11341
▁افل	-11342
▁بدر	-11343
▁بطن	-11344
▁بگه	-11345
▁جرا	-11346
▁جیک	-11347
▁حكم	-11348
▁خرم	-11349
▁خُب	-11350
▁داس	-11351
▁درِ	-11352
▁دسی	-11353
▁ريد	-11354
▁ریص	-11355
▁زال	-11356
▁زیپ	-11357
▁سوا	-11358
▁سوى	-11359
▁شال	-11360
▁شبک	-11361
▁شفر	-11362
▁ضلع	-11363
▁عزا	-11364
▁غنا	-11365
▁غير	-11366
▁فله	-11367
▁كسب	-11368
▁لتک	-11369
▁لعن	-11370
▁ماق	-11371
▁مرض	-11372
▁منج	-11373
▁مگی	-11374
▁ندز	-11375
▁نهج	-11376
▁نهد	-11377
▁همپ	-11378
▁واف	-11379
▁ورچ	-11380
▁ووس	-11381
▁يدا	-11382
▁پیپ	-11383
▁چاو	-11384
▁چیل	-11385
▁کمن	-11386
▁گای	-11387
▁گلس	-11388
▁یجا	-11389
▁یرب	-11390
▁یشی	-11391
▁۸۰٪	-11392
▁ASIC	-11393
▁Atta	-11394
▁Bear	-11395
▁Bett	-11396
▁Bird	-11397
▁Burn	-11398
▁Case	-11399
▁Chan	-11400
▁Cult	-11401
▁Dell	-11402
▁Eric	-11403
▁Fest	-11404
▁Heav	-11405
▁Kasp	-11406
▁Lord	-11407
▁Mass	-11408
▁Mult	-11409
▁NASA	-11410
▁Need	-11411
▁REST	-11412
▁STEM	-11413
▁Scan	-11414
▁Shar	-11415
▁Stev	-11416
▁Text	-11417
▁Thro	-11418
▁Vict	-11419
▁Zone	-11420
▁anti	-11421
▁band	-11422
▁blue	-11423
▁fare	-11424
▁flow	-11425
▁frie	-11426
▁ging	-11427
▁gory	-11428
▁iple	-11429
▁life	-11430
▁mana	-11431
▁mart	-11432
▁mber	-11433
▁spot	-11434
▁stri	-11435
▁zwnj	-11436
▁اتکس	-11437
▁اتیس	-11438
▁ارین	-11439
▁اشنا	-11440
▁اعلا	-11441
▁امرا	-11442
▁اموا	-11443
▁بارت	-11444
▁حفاظ	-11445
▁دورو	-11446
▁دونا	-11447
▁رباز	-11448
▁ربزه	-11449
▁رضای	-11450
▁رندر	-11451
▁رونو	-11452
▁ریمن	-11453
▁ریکو	-11454
▁زایش	-11455
▁زنین	-11456
▁زیسم	-11457
▁شايد	-11458
▁شورو	-11459
▁طارق	-11460
▁طراب	-11461
▁عاده	-11462
▁فیلد	-11463
▁لامی	-11464
▁لیاک	-11465
▁محسو	-11466
▁منیو	-11467
▁موند	-11468
▁میال	-11469
▁ناطق	-11470
▁ندرس	-11471
▁نسان	-11472
▁نیون	-11473
▁وتیف	-11474
▁ودین	-11475
▁وروس	-11476
▁ونلا	-11477
▁وودز	-11478
▁وینگ	-11479
▁کلور	-11480
▁گوری	-11481
▁یبرا	-11482
▁یتلز	-11483
▁یدوز	-11484
▁ینسک	-11485
▁Board	-11486
▁Clear	-11487
▁Harry	-11488
▁Match	-11489
▁Stati	-11490
▁Steel	-11491
▁TOEFL	-11492
▁Thing	-11493
▁conne	-11494
▁place	-11495
▁stein	-11496
▁stone	-11497
▁ابایت	-11498
▁ارتنر	-11499
▁ارلون	-11500
▁امسون	-11501
▁انتوم	-11502
▁رامین	-11503
▁روتنو	-11504
▁ریدون	-11505
▁زارها	-11506
▁طارمی	-11507
▁هامون	-11508
▁وتسال	-11509
▁ورمون	-11510
▁ووهان	-11511
▁یاسین	-11512
▁یبروز	-11513
▁یمینگ	-11514
)،	-11515
-1	-11516
BO	-11517
GE	-11518
NP	-11519
UK	-11520
df	-11521
em	-11522
فن	-11523
چا	-11524
▁	-11525
▁ؤ	-11526
▁▫	-11527
Que	-11528
eso	-11529
fer	-11530
ivo	-11531
una	-11532
urt	-11533
ئوس	-11534
ایم	-11535
جاج	-11536
وتل	-11537
وتو	-11538
وون	-11539
▁GH	-11540
▁GI	-11541
▁HV	-11542
▁MG	-11543
▁Mb	-11544
▁OT	-11545
▁Os	-11546
▁QS	-11547
▁SF	-11548
▁UA	-11549
▁UF	-11550
▁WA	-11551
▁XL	-11552
▁ii	-11553
▁kg	-11554
▁sk	-11555
▁ui	-11556
▁ye	-11557
▁أس	-11558
▁ذن	-11559
▁فح	-11560
▁قع	-11561
▁قن	-11562
▁پش	-11563
▁۸۱	-11564
▁۸۴	-11565
reek	-11566
▁2.1	-11567
▁210	-11568
▁3.2	-11569
▁330	-11570
▁6.5	-11571
▁60%	-11572
▁ADA	-11573
▁AWS	-11574
▁Ask	-11575
▁Aug	-11576
▁Boe	-11577
▁Bon	-11578
▁CoQ	-11579
▁DOM	-11580
▁Det	-11581
▁ESL	-11582
▁Era	-11583
▁IPC	-11584
▁Ins	-11585
▁Jun	-11586
▁Kim	-11587
▁Kon	-11588
▁LNG	-11589
▁MAT	-11590
▁MID	-11591
▁Mis	-11592
▁PCI	-11593
▁PIN	-11594
▁SAN	-11595
▁SAR	-11596
▁SAS	-11597
▁Sat	-11598
▁Seg	-11599
▁Sin	-11600
▁Spy	-11601
▁TES	-11602
▁Ven	-11603
▁Vin	-11604
▁WWE	-11605
▁ali	-11606
▁bas	-11607
▁cho	-11608
▁dad	-11609
▁div	-11610
▁dus	-11611
▁gan	-11612
▁gre	-11613
▁hen	-11614
▁hop	-11615
▁ino	-11616
▁lan	-11617
▁lus	-11618
▁mar	-11619
▁ndo	-11620
▁nne	-11621
▁nos	-11622
▁plu	-11623
▁rus	-11624
▁soc	-11625
▁sti	-11626
▁stu	-11627
▁tia	-11628
▁tus	-11629
▁wit	-11630
▁اكم	-11631
▁امح	-11632
▁تاگ	-11633
▁تپش	-11634
▁جنی	-11635
▁خمس	-11636
▁داه	-11637
▁دبر	-11638
▁دلا	-11639
▁راً	-11640
▁رنس	-11641
▁زتک	-11642
▁زلی	-11643
▁سنو	-11644
▁شبا	-11645
▁شعب	-11646
▁عطش	-11647
▁على	-11648
▁كلی	-11649
▁كمی	-11650
▁لوف	-11651
▁لوپ	-11652
▁مته	-11653
▁مچی	-11654
▁نتس	-11655
▁نجف	-11656
▁نُه	-11657
▁هاس	-11658
▁وصی	-11659
▁ولش	-11660
▁ونث	-11661
▁پرز	-11662
▁پرل	-11663
▁گجت	-11664
▁گنو	-11665
▁۱۱۰	-11666
▁۲۰٪	-11667
▁...)	-11668
▁AIDS	-11669
▁Anth	-11670
▁Bord	-11671
▁Butt	-11672
▁Fast	-11673
▁Font	-11674
▁Halo	-11675
▁Here	-11676
▁Lega	-11677
▁Medi	-11678
▁Mono	-11679
▁Morn	-11680
▁Once	-11681
▁Palm	-11682
▁Pand	-11683
▁Peer	-11684
▁Rate	-11685
▁Rout	-11686
▁Rush	-11687
▁Ryan	-11688
▁Shot	-11689
▁Stre	-11690
▁Stro	-11691
▁Thom	-11692
▁Town	-11693
▁cryp	-11694
▁dios	-11695
▁door	-11696
▁iPod	-11697
▁lang	-11698
▁lica	-11699
▁main	-11700
▁mult	-11701
▁ntic	-11702
▁sche	-11703
▁sfer	-11704
▁shot	-11705
▁stry	-11706
▁than	-11707
▁zone	-11708
▁ازما	-11709
▁القو	-11710
▁الیه	-11711
▁انرژ	-11712
▁انسک	-11713
▁انین	-11714
▁براد	-11715
▁تاتو	-11716
▁تاین	-11717
▁تراک	-11718
▁حادث	-11719
▁دشان	-11720
▁دینگ	-11721
▁رامش	-11722
▁رواز	-11723
▁رگرد	-11724
▁ریبو	-11725
▁رینه	-11726
▁ریوز	-11727
▁زارت	-11728
▁زمون	-11729
▁ستای	-11730
▁سترا	-11731
▁شمام	-11732
▁شویه	-11733
▁فراو	-11734
▁لایت	-11735
▁لتها	-11736
▁لژیا	-11737
▁مأمو	-11738
▁مركز	-11739
▁مشتر	-11740
▁نارد	-11741
▁ناره	-11742
▁نانس	-11743
▁نینا	-11744
▁هیبت	-11745
▁هیزم	-11746
▁وارا	-11747
▁وریو	-11748
▁وزال	-11749
▁وستا	-11750
▁وفیا	-11751
▁ونتر	-11752
▁پسین	-11753
▁پلور	-11754
▁کارد	-11755
▁کسوت	-11756
▁یدار	-11757
▁یمرغ	-11758
▁ینید	-11759
▁یکسا	-11760
▁Astro	-11761
▁Beach	-11762
▁Brian	-11763
▁Briti	-11764
▁Conta	-11765
▁Disco	-11766
▁Gener	-11767
▁Infin	-11768
▁Nexus	-11769
▁Price	-11770
▁Shell	-11771
▁Shock	-11772
▁Shopp	-11773
▁Short	-11774
▁Skill	-11775
▁Small	-11776
▁Termi	-11777
▁Think	-11778
▁check	-11779
▁graph	-11780
▁ledge	-11781
▁state	-11782
▁stice	-11783
▁where	-11784
▁ابریل	-11785
▁ارانت	-11786
▁ارسیا	-11787
▁اریون	-11788
▁التون	-11789
▁انتوس	-11790
▁اندرز	-11791
▁ایتان	-11792
▁ایمون	-11793
▁ترهای	-11794
▁دیسون	-11795
▁رومان	-11796
▁ریایی	-11797
▁رینول	-11798
▁زکریا	-11799
▁زیانه	-11800
▁ستروس	-11801
▁نیفست	-11802
▁ینگهو	-11803
My	-11804
RA	-11805
UI	-11806
WA	-11807
hl	-11808
ku	-11809
nn	-11810
sk	-11811
xa	-11812
تک	-11813
نف	-11814
يم	-11815
▁©	-11816
▁ˈ	-11817
▁🔸	-11818
AND	-11819
ICE	-11820
ake	-11821
ede	-11822
esi	-11823
fee	-11824
imp	-11825
ony	-11826
دکس	-11827
سیو	-11828
لمن	-11829
کنک	-11830
یدو	-11831
▁Ci	-11832
▁DP	-11833
▁EH	-11834
▁Eb	-11835
▁Ey	-11836
▁GW	-11837
▁If	-11838
▁LE	-11839
▁MK	-11840
▁NR	-11841
▁Om	-11842
▁SI	-11843
▁UB	-11844
▁UT	-11845
▁VA	-11846
▁VS	-11847
▁XM	-11848
▁Za	-11849
▁ay	-11850
▁ep	-11851
▁nm	-11852
▁vp	-11853
▁»،	-11854
▁اُ	-11855
▁شس	-11856
ACCP	-11857
▁(20	-11858
▁000	-11859
▁104	-11860
▁109	-11861
▁4.2	-11862
▁5.0	-11863
▁75%	-11864
▁:))	-11865
▁>>>	-11866
▁AAA	-11867
▁ACS	-11868
▁AOL	-11869
▁Asp	-11870
▁Ata	-11871
▁BBA	-11872
▁Bot	-11873
▁Bou	-11874
▁Buy	-11875
▁DIY	-11876
▁EEG	-11877
▁ETF	-11878
▁Enc	-11879
▁Fab	-11880
▁Fla	-11881
▁Foc	-11882
▁GER	-11883
▁HER	-11884
▁IDC	-11885
▁IES	-11886
▁IPO	-11887
▁IUD	-11888
▁Jen	-11889
▁Kre	-11890
▁LAB	-11891
▁MAX	-11892
▁MSc	-11893
▁OEM	-11894
▁Ody	-11895
▁PMS	-11896
▁Pic	-11897
▁Pok	-11898
▁Pol	-11899
▁RDI	-11900
▁RGB	-11901
▁Sev	-11902
▁Squ	-11903
▁THC	-11904
▁Tun	-11905
▁Via	-11906
▁Wei	-11907
▁Why	-11908
▁add	-11909
▁aid	-11910
▁ati	-11911
▁bug	-11912
▁cht	-11913
▁cla	-11914
▁cop	-11915
▁dri	-11916
▁fox	-11917
▁gam	-11918
▁har	-11919
▁iza	-11920
▁las	-11921
▁nus	-11922
▁oth	-11923
▁pur	-11924
▁qui	-11925
▁rea	-11926
▁rra	-11927
▁rum	-11928
▁sia	-11929
▁sus	-11930
▁اطر	-11931
▁اكن	-11932
▁بغض	-11933
▁بنو	-11934
▁بیث	-11935
▁تاث	-11936
▁تحو	-11937
▁تصو	-11938
▁توه	-11939
▁ثور	-11940
▁جنت	-11941
▁داو	-11942
▁دنت	-11943
▁دنو	-11944
▁ذكر	-11945
▁ربس	-11946
▁رجه	-11947
▁رهم	-11948
▁روه	-11949
▁سوه	-11950
▁سیو	-11951
▁شدۀ	-11952
▁شرع	-11953
▁شوت	-11954
▁عاً	-11955
▁عكس	-11956
▁عنه	-11957
▁فحش	-11958
▁فشن	-11959
▁فیز	-11960
▁كشف	-11961
▁لتو	-11962
▁لکر	-11963
▁مسخ	-11964
▁مشق	-11965
▁مکش	-11966
▁نسو	-11967
▁نیگ	-11968
▁هله	-11969
▁وفه	-11970
▁وهش	-11971
▁پلن	-11972
▁پلو	-11973
▁چهر	-11974
▁چچن	-11975
▁کثر	-11976
▁یسر	-11977
▁یلر	-11978
▁یچل	-11979
▁ییل	-11980
▁۵۰٪	-11981
▁Aero	-11982
▁Aqua	-11983
▁Arti	-11984
▁BRCA	-11985
▁Brad	-11986
▁Cate	-11987
▁Colu	-11988
▁Come	-11989
▁Cord	-11990
▁Cube	-11991
▁Dece	-11992
▁Dest	-11993
▁Disc	-11994
▁Dock	-11995
▁Domi	-11996
▁Edit	-11997
▁Emil	-11998
▁Epic	-11999
▁Greg	-12000
▁Harv	-12001
▁Livi	-12002
▁Lond	-12003
▁Look	-12004
▁Numb	-12005
▁Only	-12006
▁Roma	-12007
▁Room	-12008
▁Ross	-12009
▁Simu	-12010
▁Soul	-12011
▁Term	-12012
▁Thin	-12013
▁Tind	-12014
▁Tour	-12015
▁Turn	-12016
▁Vani	-12017
▁Vers	-12018
▁Zomb	-12019
▁call	-12020
▁chan	-12021
▁cide	-12022
▁ffic	-12023
▁fire	-12024
▁fish	-12025
▁foot	-12026
▁fort	-12027
▁hard	-12028
▁hell	-12029
▁high	-12030
▁inue	-12031
▁mory	-12032
▁ncer	-12033
▁news	-12034
▁nite	-12035
▁para	-12036
▁pert	-12037
▁reas	-12038
▁reme	-12039
▁sics	-12040
▁sign	-12041
▁synd	-12042
▁اتیا	-12043
▁اجاز	-12044
▁اجیک	-12045
▁ارنت	-12046
▁اروت	-12047
▁التا	-12048
▁الیک	-12049
▁امتح	-12050
▁اوای	-12051
▁برتز	-12052
▁بهوت	-12053
▁تخار	-12054
▁تلین	-12055
▁تولی	-12056
▁تینو	-12057
▁دونگ	-12058
▁راتر	-12059
▁رادر	-12060
▁رارد	-12061
▁راغب	-12062
▁ربان	-12063
▁ربرد	-12064
▁ردیت	-12065
▁روتئ	-12066
▁ریون	-12067
▁سپان	-12068
▁شیما	-12069
▁صیان	-12070
▁طرات	-12071
▁قدام	-12072
▁قمان	-12073
▁نانگ	-12074
▁ندرا	-12075
▁نقلا	-12076
▁نوام	-12077
▁نگلا	-12078
▁هلنا	-12079
▁هومر	-12080
▁هیکل	-12081
▁وایس	-12082
▁وترو	-12083
▁وتون	-12084
▁ودیا	-12085
▁ورنس	-12086
▁وزير	-12087
▁وسیس	-12088
▁پیشگ	-12089
▁پیوس	-12090
▁کسون	-12091
▁کفلر	-12092
▁کوکو	-12093
▁یازه	-12094
▁یزنس	-12095
▁یستو	-12096
▁یسیل	-12097
▁یلیس	-12098
▁ینکو	-12099
▁Audio	-12100
▁Blogg	-12101
▁Broth	-12102
▁Champ	-12103
▁Curre	-12104
▁HACCP	-12105
▁Metal	-12106
▁Print	-12107
▁Solid	-12108
▁Speak	-12109
▁Spect	-12110
▁Spiri	-12111
▁Stack	-12112
▁Stick	-12113
▁Trail	-12114
▁Write	-12115
▁Yahoo	-12116
▁email	-12117
▁guard	-12118
▁holar	-12119
▁ifica	-12120
▁ncess	-12121
▁press	-12122
▁priva	-12123
▁rough	-12124
▁verse	-12125
▁video	-12126
▁worth	-12127
▁ادکنک	-12128
▁اردین	-12129
▁اسیلو	-12130
▁انادا	-12131
▁اندرا	-12132
▁تهوون	-12133
▁رانتز	-12134
▁رانتو	-12135
▁رتدکس	-12136
▁ردینا	-12137
▁رشیدی	-12138
▁ریبوت	-12139
▁صاویر	-12140
▁فرستا	-12141
▁مابیش	-12142
▁میلیا	-12143
▁هافبک	-12144
▁هایپر	-12145
▁ورکور	-12146
▁ولانا	-12147
▁وگابه	-12148
17	-12149
7]	-12150
La	-12151
NB	-12152
OI	-12153
PG	-12154
VM	-12155
YD	-12156
dd	-12157
zu	-12158
آی	-12159
جن	-12160
زر	-12161
طی	-12162
يس	-12163
▁	-12164
▁🙂	-12165
chi	-12166
gin	-12167
idd	-12168
ipe	-12169
zer	-12170
اتا	-12171
ایر	-12172
بیو	-12173
ندر	-12174
وتا	-12175
کور	-12176
یتر	-12177
یمو	-12178
▁(+	-12179
▁CK	-12180
▁CX	-12181
▁DL	-12182
▁Eu	-12183
▁FP	-12184
▁HH	-12185
▁IK	-12186
▁Jr	-12187
▁LM	-12188
▁LU	-12189
▁Ok	-12190
▁Ox	-12191
▁PE	-12192
▁TB	-12193
▁Ur	-12194
▁Wy	-12195
▁YO	-12196
▁[=	-12197
▁cm	-12198
▁eb	-12199
▁ef	-12200
▁hu	-12201
▁km	-12202
▁px	-12203
▁اَ	-12204
▁عذ	-12205
▁یئ	-12206
▁۵٪	-12207
▁۸۹	-12208
▁“،	-12209
alse	-12210
itle	-12211
olly	-12212
outh	-12213
▁(30	-12214
▁0.1	-12215
▁1-2	-12216
▁128	-12217
▁135	-12218
▁185	-12219
▁230	-12220
▁240	-12221
▁3.6	-12222
▁3.7	-12223
▁302	-12224
▁320	-12225
▁4.8	-12226
▁70%	-12227
▁ABS	-12228
▁ACL	-12229
▁AFP	-12230
▁ASC	-12231
▁Aki	-12232
▁Bix	-12233
▁Boo	-12234
▁Bor	-12235
▁CAM	-12236
▁COP	-12237
▁CPC	-12238
▁CVD	-12239
▁DBA	-12240
▁DOS	-12241
▁Dan	-12242
▁Dec	-12243
▁Der	-12244
▁Dup	-12245
▁Eni	-12246
▁FAA	-12247
▁Fen	-12248
▁GCS	-12249
▁HCG	-12250
▁Hey	-12251
▁ICU	-12252
▁INF	-12253
▁Jac	-12254
▁Jas	-12255
▁Kot	-12256
▁LIN	-12257
▁Ltd	-12258
▁MED	-12259
▁MIN	-12260
▁MSN	-12261
▁Mau	-12262
▁Mei	-12263
▁Mir	-12264
▁Mix	-12265
▁NAM	-12266
▁NBC	-12267
▁NPT	-12268
▁PRP	-12269
▁Pie	-12270
▁Pig	-12271
▁Pur	-12272
▁RPG	-12273
▁Rov	-12274
▁SME	-12275
▁Shu	-12276
▁Sig	-12277
▁Sir	-12278
▁Sna	-12279
▁TER	-12280
▁Tes	-12281
▁Vue	-12282
▁Yan	-12283
▁[7]	-12284
▁ala	-12285
▁ass	-12286
▁bai	-12287
▁bie	-12288
▁bri	-12289
▁dna	-12290
▁ela	-12291
▁fre	-12292
▁gna	-12293
▁ico	-12294
▁kit	-12295
▁lle	-12296
▁loy	-12297
▁mer	-12298
▁ows	-12299
▁pap	-12300
▁ped	-12301
▁rac	-12302
▁rec	-12303
▁rey	-12304
▁rie	-12305
▁rin	-12306
▁run	-12307
▁sit	-12308
▁tab	-12309
▁tel	-12310
▁uel	-12311
▁wan	-12312
▁zzo	-12313
▁آیو	-12314
▁اخم	-12315
▁ازل	-12316
▁الأ	-12317
▁الك	-12318
▁ايل	-12319
▁برک	-12320
▁ترك	-12321
▁تعج	-12322
▁جدد	-12323
▁جسی	-12324
▁جمه	-12325
▁حاظ	-12326
▁حبو	-12327
▁دخل	-12328
▁دیع	-12329
▁ردر	-12330
▁رعب	-12331
▁رله	-12332
▁ساس	-12333
▁سمع	-12334
▁سمن	-12335
▁شفق	-12336
▁شمر	-12337
▁عیت	-12338
▁عیس	-12339
▁ـــ	-12340
▁فاه	-12341
▁قشم	-12342
▁قیۀ	-12343
▁لنگ	-12344
▁مجل	-12345
▁مِن	-12346
▁نبو	-12347
▁نتف	-12348
▁وتئ	-12349
▁وفت	-12350
▁ونۀ	-12351
▁وهو	-12352
▁وول	-12353
▁وکه	-12354
▁يام	-12355
▁يکي	-12356
▁چید	-12357
▁کرت	-12358
▁یسن	-12359
▁۱۰٪	-12360
▁۱۰۵	-12361
▁۳۰٪	-12362
▁۷۵۰	-12363
▁ANSI	-12364
▁Base	-12365
▁Berk	-12366
▁Beta	-12367
▁Blog	-12368
▁CRIS	-12369
▁Cali	-12370
▁Citi	-12371
▁Cold	-12372
▁Conn	-12373
▁Coop	-12374
▁Driv	-12375
▁Duck	-12376
▁FXTM	-12377
▁Feat	-12378
▁Flat	-12379
▁Foot	-12380
▁GMAT	-12381
▁Grow	-12382
▁Hope	-12383
▁Hour	-12384
▁ITIL	-12385
▁Jung	-12386
▁Load	-12387
▁Logi	-12388
▁MIDI	-12389
▁Main	-12390
▁Mira	-12391
▁Orph	-12392
▁Perl	-12393
▁Pool	-12394
▁PrEP	-12395
▁Rain	-12396
▁Rang	-12397
▁Robo	-12398
▁Safa	-12399
▁Sess	-12400
▁Snow	-12401
▁Tree	-12402
▁Volu	-12403
▁Wake	-12404
▁Yoga	-12405
▁bird	-12406
▁bull	-12407
▁care	-12408
▁cent	-12409
▁coli	-12410
▁desi	-12411
▁feed	-12412
▁ffer	-12413
▁full	-12414
▁jQue	-12415
▁just	-12416
▁kind	-12417
▁meta	-12418
▁node	-12419
▁path	-12420
▁plus	-12421
▁poli	-12422
▁posi	-12423
▁prop	-12424
▁ssey	-12425
▁stru	-12426
▁supp	-12427
▁tele	-12428
▁west	-12429
▁اتوب	-12430
▁اربر	-12431
▁التو	-12432
▁الکی	-12433
▁اوبا	-12434
▁ایرا	-12435
▁اینو	-12436
▁تشار	-12437
▁توسن	-12438
▁تکبر	-12439
▁تیلا	-12440
▁داخت	-12441
▁دوبی	-12442
▁رالد	-12443
▁رانا	-12444
▁راچی	-12445
▁رایب	-12446
▁رسنگ	-12447
▁رفور	-12448
▁رنان	-12449
▁رونر	-12450
▁رگیر	-12451
▁زینت	-12452
▁ستوا	-12453
▁ستوک	-12454
▁سرزم	-12455
▁سروی	-12456
▁طمین	-12457
▁لانت	-12458
▁لاکس	-12459
▁لایا	-12460
▁لایر	-12461
▁لعون	-12462
▁لوار	-12463
▁میدی	-12464
▁نزجر	-12465
▁نیتی	-12466
▁نیزی	-12467
▁هاند	-12468
▁هایک	-12469
▁هلیم	-12470
▁هیلز	-12471
▁وارز	-12472
▁وردو	-12473
▁ورکی	-12474
▁ولید	-12475
▁ومپت	-12476
▁وهیت	-12477
▁ویجت	-12478
▁پیون	-12479
▁چیلر	-12480
▁چیپس	-12481
▁کروه	-12482
▁کسلو	-12483
▁کیسی	-12484
▁گزوز	-12485
▁گوئه	-12486
▁یشیا	-12487
▁یملر	-12488
▁یمیل	-12489
▁ینزی	-12490
▁ینوا	-12491
▁یونز	-12492
▁یووه	-12493
▁یویو	-12494
▁یگور	-12495
▁.....	-12496
▁Chemi	-12497
▁Clock	-12498
▁Crypt	-12499
▁Devil	-12500
▁Divis	-12501
▁Field	-12502
▁Honey	-12503
▁Hydro	-12504
▁Movie	-12505
▁Neuro	-12506
▁Scott	-12507
▁Style	-12508
▁Wirel	-12509
▁Witch	-12510
▁brows	-12511
▁child	-12512
▁ffere	-12513
▁learn	-12514
▁title	-12515
▁white	-12516
▁اسکلر	-12517
▁الدار	-12518
▁انداژ	-12519
▁اپورت	-12520
▁اکارو	-12521
▁ایننس	-12522
▁بینار	-12523
▁ذارید	-12524
▁راشون	-12525
▁ستثنا	-12526
▁شاهیر	-12527
▁هافمن	-12528
▁هیستا	-12529
▁وتنیک	-12530
▁وزیلا	-12531
▁وستال	-12532
▁پتیست	-12533
▁پلورر	-12534
▁یبسون	-12535
▁یپراس	-12536
-)	-12537
16	-12538
6]	-12539
DN	-12540
FE	-12541
FR	-12542
NT	-12543
ag	-12544
hr	-12545
آل	-12546
شش	-12547
۲۳	-12548
▁É	-12549
▁à	-12550
▁√	-12551
IME	-12552
ISE	-12553
adi	-12554
elo	-12555
ene	-12556
irk	-12557
nch	-12558
oca	-12559
ادگ	-12560
ازو	-12561
اسا	-12562
زاز	-12563
غوت	-12564
قین	-12565
ورا	-12566
یتس	-12567
▁3/	-12568
▁9:	-12569
▁??	-12570
▁Au	-12571
▁BL	-12572
▁EE	-12573
▁GC	-12574
▁Gb	-12575
▁HA	-12576
▁Ht	-12577
▁KB	-12578
▁LH	-12579
▁NB	-12580
▁NU	-12581
▁OA	-12582
▁RI	-12583
▁RM	-12584
▁RW	-12585
▁SB	-12586
▁TL	-12587
▁TQ	-12588
▁TW	-12589
▁VC	-12590
▁XS	-12591
▁Zo	-12592
▁ah	-12593
▁ap	-12594
▁fo	-12595
▁fu	-12596
▁ib	-12597
▁ik	-12598
▁||	-12599
▁دث	-12600
▁ذک	-12601
▁نۀ	-12602
▁١١	-12603
▁کە	-12604
▁۰٫	-12605
▁۶۹	-12606
▁۷۹	-12607
ould	-12608
unch	-12609
▁(9)	-12610
▁1+5	-12611
▁114	-12612
▁121	-12613
▁123	-12614
▁124	-12615
▁127	-12616
▁13:	-12617
▁149	-12618
▁175	-12619
▁189	-12620
▁2-3	-12621
▁2.6	-12622
▁25%	-12623
▁260	-12624
▁275	-12625
▁4.4	-12626
▁AAS	-12627
▁AES	-12628
▁CAR	-12629
▁CSF	-12630
▁CSI	-12631
▁Civ	-12632
▁DEA	-12633
▁Dre	-12634
▁Ena	-12635
▁Est	-12636
▁Evo	-12637
▁GTX	-12638
▁Gio	-12639
▁Gli	-12640
▁Gul	-12641
▁Gut	-12642
▁HDD	-12643
▁HSE	-12644
▁IMD	-12645
▁IOC	-12646
▁Kin	-12647
▁Kra	-12648
▁LLB	-12649
▁Lat	-12650
▁MAP	-12651
▁MVP	-12652
▁Mex	-12653
▁Mor	-12654
▁NAF	-12655
▁NOC	-12656
▁Non	-12657
▁PCT	-12658
▁PDA	-12659
▁PET	-12660
▁Por	-12661
▁RED	-12662
▁ROM	-12663
▁RSI	-12664
▁Rap	-12665
▁Sli	-12666
▁Spa	-12667
▁Sto	-12668
▁Syd	-12669
▁Tai	-12670
▁Tay	-12671
▁Tet	-12672
▁Tin	-12673
▁Ude	-12674
▁Unk	-12675
▁Was	-12676
▁[6]	-12677
▁ban	-12678
▁bli	-12679
▁bra	-12680
▁cro	-12681
▁dan	-12682
▁dua	-12683
▁elf	-12684
▁hai	-12685
▁ite	-12686
▁lby	-12687
▁lum	-12688
▁mor	-12689
▁nco	-12690
▁nct	-12691
▁neg	-12692
▁nie	-12693
▁nio	-12694
▁nis	-12695
▁num	-12696
▁nut	-12697
▁orn	-12698
▁pha	-12699
▁ple	-12700
▁rah	-12701
▁rav	-12702
▁rov	-12703
▁sed	-12704
▁sin	-12705
▁smo	-12706
▁spi	-12707
▁spo	-12708
▁sys	-12709
▁ume	-12710
▁use	-12711
▁xxx	-12712
▁zer	-12713
▁آکا	-12714
▁ابط	-12715
▁اژه	-12716
▁ایگ	-12717
▁بطه	-12718
▁تلی	-12719
▁تود	-12720
▁حدّ	-12721
▁حوض	-12722
▁خزه	-12723
▁خفا	-12724
▁خیف	-12725
▁رتم	-12726
▁ررس	-12727
▁ريز	-12728
▁رگن	-12729
▁زهد	-12730
▁ساف	-12731
▁شوش	-12732
▁صرب	-12733
▁صفا	-12734
▁ضوع	-12735
▁عدس	-12736
▁عزل	-12737
▁فتن	-12738
▁فرز	-12739
▁فسق	-12740
▁فیت	-12741
▁قوز	-12742
▁قیل	-12743
▁كسي	-12744
▁لبر	-12745
▁لزو	-12746
▁لنا	-12747
▁مفی	-12748
▁ملي	-12749
▁مُد	-12750
▁نثر	-12751
▁هاک	-12752
▁هاگ	-12753
▁هرز	-12754
▁هلا	-12755
▁هیس	-12756
▁وثر	-12757
▁ودل	-12758
▁ومز	-12759
▁پلم	-12760
▁پهر	-12761
▁ژیر	-12762
▁کدۀ	-12763
▁کرج	-12764
▁کهف	-12765
▁کوز	-12766
▁گير	-12767
▁گیل	-12768
▁یحا	-12769
▁یرک	-12770
▁یلب	-12771
▁یلد	-12772
▁ینن	-12773
▁یگل	-12774
▁۱۰۱	-12775
▁۱۱۵	-12776
▁۳۰۱	-12777
▁ADSL	-12778
▁Anna	-12779
▁Anne	-12780
▁Area	-12781
▁Asha	-12782
▁Audi	-12783
▁Barc	-12784
▁Berg	-12785
▁Beth	-12786
▁Brun	-12787
▁Buck	-12788
▁Cata	-12789
▁Colo	-12790
▁Cool	-12791
▁Dual	-12792
▁Flex	-12793
▁Func	-12794
▁Hash	-12795
▁Help	-12796
▁ISIS	-12797
▁Inno	-12798
▁Jona	-12799
▁Jose	-12800
▁Keep	-12801
▁Mike	-12802
▁Most	-12803
▁Nick	-12804
▁Poke	-12805
▁Rail	-12806
▁Rasp	-12807
▁Rift	-12808
▁Roll	-12809
▁Russ	-12810
▁SATA	-12811
▁Seas	-12812
▁Send	-12813
▁Sier	-12814
▁Sile	-12815
▁Spam	-12816
▁Visa	-12817
▁Wash	-12818
▁Wave	-12819
▁Zoom	-12820
▁boot	-12821
▁bury	-12822
▁cate	-12823
▁coin	-12824
▁core	-12825
▁dies	-12826
▁dium	-12827
▁good	-12828
▁hill	-12829
▁hist	-12830
▁lace	-12831
▁make	-12832
▁nday	-12833
▁ndus	-12834
▁resp	-12835
▁rich	-12836
▁roSD	-12837
▁room	-12838
▁scan	-12839
▁self	-12840
▁some	-12841
▁spam	-12842
▁task	-12843
▁temp	-12844
▁tool	-12845
▁untu	-12846
▁ائوئ	-12847
▁ابند	-12848
▁اتوش	-12849
▁ادیو	-12850
▁اریه	-12851
▁اسکو	-12852
▁اسیل	-12853
▁اعتی	-12854
▁المر	-12855
▁امار	-12856
▁اهمی	-12857
▁اویز	-12858
▁ایرز	-12859
▁بایی	-12860
▁تراز	-12861
▁تروپ	-12862
▁جازی	-12863
▁خیاب	-12864
▁دورف	-12865
▁دیاز	-12866
▁دینو	-12867
▁رافت	-12868
▁رامب	-12869
▁راپا	-12870
▁راکد	-12871
▁راکو	-12872
▁راگب	-12873
▁ربیا	-12874
▁رجام	-12875
▁رسال	-12876
▁رنتس	-12877
▁رهون	-12878
▁رونی	-12879
▁روگو	-12880
▁رکمن	-12881
▁ریوس	-12882
▁زاید	-12883
▁زبین	-12884
▁سالگ	-12885
▁ستکس	-12886
▁سمیر	-12887
▁شایخ	-12888
▁شوار	-12889
▁طاسی	-12890
▁لائک	-12891
▁لارم	-12892
▁لاله	-12893
▁لانی	-12894
▁لدون	-12895
▁مارد	-12896
▁ناتر	-12897
▁نادی	-12898
▁ناچی	-12899
▁نتاج	-12900
▁هربا	-12901
▁هرها	-12902
▁هلاک	-12903
▁هیوم	-12904
▁وئین	-12905
▁واپس	-12906
▁وبار	-12907
▁وبین	-12908
▁وجاج	-12909
▁ورات	-12910
▁وربز	-12911
▁وروث	-12912
▁وننت	-12913
▁وودو	-12914
▁پانی	-12915
▁پشتی	-12916
▁پلان	-12917
▁کیشن	-12918
▁یروب	-12919
▁یزیك	-12920
▁یستر	-12921
▁یمود	-12922
▁ینتو	-12923
▁یگاه	-12924
▁Buddy	-12925
▁Chall	-12926
▁Commi	-12927
▁Conce	-12928
▁Cosmo	-12929
▁Creek	-12930
▁Glass	-12931
▁Holly	-12932
▁Lumia	-12933
▁Mouse	-12934
▁Pharm	-12935
▁Reach	-12936
▁Seque	-12937
▁Shang	-12938
▁Stora	-12939
▁Twitt	-12940
▁Volvo	-12941
▁break	-12942
▁confi	-12943
▁examp	-12944
▁found	-12945
▁frame	-12946
▁gress	-12947
▁hyper	-12948
▁plane	-12949
▁speed	-12950
▁stand	-12951
▁tream	-12952
▁اتیفا	-12953
▁ادابی	-12954
▁ارادو	-12955
▁استرا	-12956
▁استرو	-12957
▁الوان	-12958
▁اوکرا	-12959
▁ایرلس	-12960
▁تردام	-12961
▁خطرنا	-12962
▁دموند	-12963
▁راخین	-12964
▁رویاپ	-12965
▁زهایی	-12966
▁ستاین	-12967
▁ستویا	-12968
▁طاغوت	-12969
▁لادیا	-12970
▁ماتوز	-12971
▁نوادگ	-12972
▁هتزاز	-12973
▁هربون	-12974
▁هیالو	-12975
▁وانات	-12976
▁واندو	-12977
▁وزاکا	-12978
▁وگاتی	-12979
▁یتالی	-12980
▁یتزکر	-12981
▁یندون	-12982
40	-12983
50	-12984
60	-12985
FI	-12986
OD	-12987
RE	-12988
SA	-12989
TD	-12990
TH	-12991
VA	-12992
eb	-12993
hu	-12994
uz	-12995
wd	-12996
xo	-12997
اش	-12998
جک	-12999
خب	-13000
خد	-13001
فل	-13002
كل	-13003
يو	-13004
ُل	-13005
ِر	-13006
پد	-13007
چل	-13008
چو	-13009
▁	-13010
▁α	-13011
▁	-13012
ARC	-13013
ARP	-13014
ISA	-13015
MRI	-13016
RPG	-13017
amm	-13018
api	-13019
che	-13020
erk	-13021
now	-13022
odi	-13023
ref	-13024
usa	-13025
بول	-13026
دون	-13027
روس	-13028
ریل	-13029
فلد	-13030
کوو	-13031
یاو	-13032
یمه	-13033
▁->	-13034
▁4/	-13035
▁8:	-13036
▁BU	-13037
▁GD	-13038
▁GN	-13039
▁IX	-13040
▁JA	-13041
▁KM	-13042
▁Nu	-13043
▁OB	-13044
▁PW	-13045
▁TD	-13046
▁TE	-13047
▁TF	-13048
▁Ty	-13049
▁UH	-13050
▁XX	-13051
▁Xi	-13052
▁Yi	-13053
▁aa	-13054
▁bb	-13055
▁cd	-13056
▁kt	-13057
▁oc	-13058
▁té	-13059
▁wp	-13060
▁دج	-13061
▁شئ	-13062
▁لأ	-13063
▁مك	-13064
▁١٣	-13065
▁٢٠	-13066
▁ھا	-13067
▁۸٫	-13068
heel	-13069
▁---	-13070
▁122	-13071
▁14-	-13072
▁154	-13073
▁166	-13074
▁256	-13075
▁3-5	-13076
▁301	-13077
▁7.2	-13078
▁8.3	-13079
▁8.5	-13080
▁950	-13081
▁ALT	-13082
▁ATA	-13083
▁Aja	-13084
▁Amb	-13085
▁BAT	-13086
▁Bos	-13087
▁CCD	-13088
▁CER	-13089
▁CHF	-13090
▁CIC	-13091
▁CNS	-13092
▁CON	-13093
▁COS	-13094
▁Cab	-13095
▁Cow	-13096
▁DAT	-13097
▁DEL	-13098
▁ECT	-13099
▁EMS	-13100
▁ESR	-13101
▁ESS	-13102
▁Err	-13103
▁Flu	-13104
▁Fol	-13105
▁Fus	-13106
▁GBP	-13107
▁Gal	-13108
▁Gia	-13109
▁HDC	-13110
▁HSB	-13111
▁HTP	-13112
▁Hom	-13113
▁IDE	-13114
▁ING	-13115
▁IRA	-13116
▁ISI	-13117
▁Ini	-13118
▁Jap	-13119
▁Kan	-13120
▁Led	-13121
▁Len	-13122
▁MAS	-13123
▁MDF	-13124
▁NAC	-13125
▁NLP	-13126
▁NSF	-13127
▁Our	-13128
▁Own	-13129
▁PES	-13130
▁PKI	-13131
▁Pin	-13132
▁Pip	-13133
▁Plu	-13134
▁Pul	-13135
▁RAN	-13136
▁RDA	-13137
▁Rab	-13138
▁Ran	-13139
▁SDG	-13140
▁SIP	-13141
▁SOC	-13142
▁SOL	-13143
▁STS	-13144
▁Sab	-13145
▁Sni	-13146
▁Tar	-13147
▁Tit	-13148
▁Toy	-13149
▁UEF	-13150
▁USG	-13151
▁WEI	-13152
▁WTO	-13153
▁Zip	-13154
▁ana	-13155
▁bey	-13156
▁clu	-13157
▁css	-13158
▁cur	-13159
▁dal	-13160
▁dep	-13161
▁dou	-13162
▁eld	-13163
▁flu	-13164
▁fol	-13165
▁hou	-13166
▁hub	-13167
▁ide	-13168
▁iso	-13169
▁kan	-13170
▁low	-13171
▁nga	-13172
▁oli	-13173
▁ono	-13174
▁oot	-13175
▁opt	-13176
▁pdf	-13177
▁pet	-13178
▁rad	-13179
▁ram	-13180
▁rom	-13181
▁ruc	-13182
▁see	-13183
▁seo	-13184
▁sli	-13185
▁ssa	-13186
▁sum	-13187
▁tur	-13188
▁via	-13189
▁vic	-13190
▁who	-13191
▁zed	-13192
▁آنچ	-13193
▁اتن	-13194
▁بشی	-13195
▁بوق	-13196
▁تئی	-13197
▁تفت	-13198
▁تقر	-13199
▁تنف	-13200
▁تنم	-13201
▁توف	-13202
▁جبر	-13203
▁ججی	-13204
▁حجر	-13205
▁خشو	-13206
▁خلط	-13207
▁خمر	-13208
▁دنج	-13209
▁دنگ	-13210
▁رتز	-13211
▁زرا	-13212
▁شرب	-13213
▁شرد	-13214
▁شفت	-13215
▁شير	-13216
▁طهر	-13217
▁غزل	-13218
▁غصب	-13219
▁فاژ	-13220
▁فتر	-13221
▁فتق	-13222
▁كجا	-13223
▁لاچ	-13224
▁لجن	-13225
▁لدو	-13226
▁مسح	-13227
▁ملخ	-13228
▁ناج	-13229
▁هبل	-13230
▁هسا	-13231
▁هون	-13232
▁وزک	-13233
▁ویپ	-13234
▁پسش	-13235
▁پشم	-13236
▁پنت	-13237
▁چقد	-13238
▁ژرف	-13239
▁کفی	-13240
▁گدا	-13241
▁یرق	-13242
▁یشا	-13243
▁۱۷۰	-13244
▁۲۴۰	-13245
▁۶۰٪	-13246
▁۷۰٪	-13247
▁...”	-13248
▁Algo	-13249
▁Arca	-13250
▁Army	-13251
▁BCAA	-13252
▁Brit	-13253
▁Bros	-13254
▁Cari	-13255
▁Cole	-13256
▁DASH	-13257
▁Dail	-13258
▁Date	-13259
▁Desc	-13260
▁Diam	-13261
▁Draw	-13262
▁EASA	-13263
▁Echo	-13264
▁Envi	-13265
▁Fath	-13266
▁Gang	-13267
▁Gray	-13268
▁Grou	-13269
▁Jobs	-13270
▁Kell	-13271
▁Ling	-13272
▁Lisa	-13273
▁Loop	-13274
▁Mort	-13275
▁Moth	-13276
▁Move	-13277
▁Musk	-13278
▁Nels	-13279
▁Pure	-13280
▁Quad	-13281
▁Raid	-13282
▁Risk	-13283
▁Rome	-13284
▁SWOT	-13285
▁Sept	-13286
▁Skin	-13287
▁Stan	-13288
▁Stat	-13289
▁Thai	-13290
▁Tier	-13291
▁Trek	-13292
▁Vega	-13293
▁Vive	-13294
▁Vivo	-13295
▁acid	-13296
▁auth	-13297
▁cole	-13298
▁fall	-13299
▁film	-13300
▁filt	-13301
▁free	-13302
▁func	-13303
▁gard	-13304
▁heal	-13305
▁home	-13306
▁java	-13307
▁kaya	-13308
▁late	-13309
▁loop	-13310
▁miss	-13311
▁need	-13312
▁numb	-13313
▁plat	-13314
▁punk	-13315
▁quer	-13316
▁rela	-13317
▁rica	-13318
▁rman	-13319
▁scie	-13320
▁sing	-13321
▁smus	-13322
▁swer	-13323
▁tory	-13324
▁walk	-13325
▁weav	-13326
▁wick	-13327
▁«...	-13328
▁ائوپ	-13329
▁اختا	-13330
▁ارنز	-13331
▁ازار	-13332
▁ازیا	-13333
▁الاس	-13334
▁امای	-13335
▁امده	-13336
▁اکنر	-13337
▁اینی	-13338
▁ایین	-13339
▁بورو	-13340
▁تایپ	-13341
▁تبرک	-13342
▁تلیه	-13343
▁تونو	-13344
▁تیار	-13345
▁تیست	-13346
▁تیین	-13347
▁حران	-13348
▁دلیر	-13349
▁دوزر	-13350
▁دویگ	-13351
▁راوش	-13352
▁راکر	-13353
▁راین	-13354
▁رمور	-13355
▁رمیا	-13356
▁روات	-13357
▁روکس	-13358
▁رکنا	-13359
▁ریشن	-13360
▁ریمل	-13361
▁ریچل	-13362
▁زوتر	-13363
▁ستات	-13364
▁ستخد	-13365
▁ستدل	-13366
▁ستله	-13367
▁سفال	-13368
▁سنتز	-13369
▁شتون	-13370
▁شینگ	-13371
▁صندل	-13372
▁عمول	-13373
▁عیون	-13374
▁فاند	-13375
▁فینگ	-13376
▁لئوپ	-13377
▁لتون	-13378
▁لویت	-13379
▁لچین	-13380
▁مستر	-13381
▁منوا	-13382
▁مودا	-13383
▁مونت	-13384
▁مویل	-13385
▁مینت	-13386
▁نتیس	-13387
▁نتیل	-13388
▁ندلس	-13389
▁نوشی	-13390
▁نیسم	-13391
▁هالت	-13392
▁هاما	-13393
▁همچو	-13394
▁هنکس	-13395
▁هیوز	-13396
▁وارو	-13397
▁واهی	-13398
▁وایح	-13399
▁ورمن	-13400
▁وزین	-13401
▁وغلو	-13402
▁وفون	-13403
▁ولاک	-13404
▁ولتز	-13405
▁ولوی	-13406
▁ولگا	-13407
▁ولیو	-13408
▁وینچ	-13409
▁وییت	-13410
▁پتین	-13411
▁کاتر	-13412
▁کمان	-13413
▁کنیز	-13414
▁کوپه	-13415
▁گیرن	-13416
▁یدیا	-13417
▁یزار	-13418
▁یسیک	-13419
▁یفون	-13420
▁یلدر	-13421
▁یلوف	-13422
▁یمین	-13423
▁ینام	-13424
▁یکلو	-13425
▁یکنز	-13426
▁یگار	-13427
▁ییده	-13428
▁Berry	-13429
▁Boost	-13430
▁Broad	-13431
▁Cache	-13432
▁Chang	-13433
▁Clark	-13434
▁Crash	-13435
▁Guide	-13436
▁Louis	-13437
▁Messe	-13438
▁Mexic	-13439
▁Prima	-13440
▁Publi	-13441
▁Rapid	-13442
▁Shape	-13443
▁Spark	-13444
▁Squad	-13445
▁Stein	-13446
▁Stock	-13447
▁Sweet	-13448
▁TESOL	-13449
▁ThinQ	-13450
▁black	-13451
▁count	-13452
▁ified	-13453
▁mount	-13454
▁multi	-13455
▁neuro	-13456
▁quest	-13457
▁sleep	-13458
▁story	-13459
▁اتیون	-13460
▁ارتون	-13461
▁ارقین	-13462
▁ارکوف	-13463
▁اریکه	-13464
▁الکام	-13465
▁الیدن	-13466
▁اورقی	-13467
▁ایستگ	-13468
▁بانان	-13469
▁بگیرن	-13470
▁رتینز	-13471
▁ردانی	-13472
▁ردبار	-13473
▁رونیک	-13474
▁ریدور	-13475
▁ریشنا	-13476
▁قراری	-13477
▁لاسکو	-13478
▁لدرون	-13479
▁لستون	-13480
▁لومتر	-13481
▁لگراد	-13482
▁نریکه	-13483
▁هورام	-13484
▁وریون	-13485
▁ولیوز	-13486
▁ونتگو	-13487
▁ونیکس	-13488
▁وکسور	-13489
▁پرورد	-13490
▁کارمن	-13491
▁یربکس	-13492
▁یفیدا	-13493
▁یلویا	-13494
!)	-13495
2،	-13496
CN	-13497
GS	-13498
KE	-13499
Mo	-13500
NC	-13501
PP	-13502
RM	-13503
SP	-13504
VE	-13505
do	-13506
vy	-13507
ça	-13508
بن	-13509
ضه	-13510
عب	-13511
ژن	-13512
کد	-13513
▁è	-13514
▁ş	-13515
▁😍	-13516
AST	-13517
IMP	-13518
INP	-13519
ORT	-13520
ars	-13521
ini	-13522
oof	-13523
ual	-13524
uth	-13525
ypo	-13526
اتو	-13527
بیک	-13528
حمه	-13529
ریچ	-13530
سیل	-13531
میک	-13532
ورف	-13533
ولت	-13534
یلد	-13535
▁.)	-13536
▁7،	-13537
▁AQ	-13538
▁Ax	-13539
▁BY	-13540
▁Ce	-13541
▁FH	-13542
▁Fo	-13543
▁Kl	-13544
▁Kr	-13545
▁LI	-13546
▁LP	-13547
▁MU	-13548
▁OG	-13549
▁Oh	-13550
▁Qi	-13551
▁RN	-13552
▁RX	-13553
▁VW	-13554
▁WD	-13555
▁Wu	-13556
▁Ya	-13557
▁cu	-13558
▁eu	-13559
▁rr	-13560
▁ón	-13561
▁ئت	-13562
▁صص	-13563
▁طي	-13564
▁غد	-13565
▁مئ	-13566
▁نى	-13567
▁هپ	-13568
▁١٨	-13569
▁٢١	-13570
▁٣٠	-13571
▁٤٠	-13572
▁پپ	-13573
▁۱٪	-13574
▁′′	-13575
aven	-13576
oose	-13577
مینگ	-13578
▁(!)	-13579
▁(10	-13580
▁(60	-13581
▁(8)	-13582
▁1).	-13583
▁1.9	-13584
▁10:	-13585
▁113	-13586
▁148	-13587
▁15%	-13588
▁15،	-13589
▁2.3	-13590
▁20-	-13591
▁225	-13592
▁255	-13593
▁30%	-13594
▁304	-13595
▁380	-13596
▁4.1	-13597
▁420	-13598
▁480	-13599
▁5-6	-13600
▁6.6	-13601
▁7.1	-13602
▁95%	-13603
▁AMG	-13604
▁APK	-13605
▁APP	-13606
▁ARE	-13607
▁ATR	-13608
▁Ads	-13609
▁Ami	-13610
▁Amy	-13611
▁Apr	-13612
▁Ari	-13613
▁Aro	-13614
▁BSD	-13615
▁Bis	-13616
▁CEF	-13617
▁CEN	-13618
▁CFA	-13619
▁CPR	-13620
▁CRP	-13621
▁CSR	-13622
▁CVE	-13623
▁Cub	-13624
▁DAC	-13625
▁DSL	-13626
▁Dow	-13627
▁ECG	-13628
▁ECM	-13629
▁Emb	-13630
▁Eva	-13631
▁FIN	-13632
▁Fac	-13633
▁GMP	-13634
▁GST	-13635
▁Gab	-13636
▁Gui	-13637
▁Hib	-13638
▁IDP	-13639
▁Jam	-13640
▁Jew	-13641
▁Les	-13642
▁Los	-13643
▁MAR	-13644
▁MIS	-13645
▁MPh	-13646
▁MRS	-13647
▁MSM	-13648
▁MTV	-13649
▁MWC	-13650
▁NEC	-13651
▁NEW	-13652
▁NGI	-13653
▁Neo	-13654
▁Ner	-13655
▁Nic	-13656
▁Nov	-13657
▁Oct	-13658
▁Ost	-13659
▁PAT	-13660
▁PBX	-13661
▁PEG	-13662
▁PEP	-13663
▁PLC	-13664
▁PTZ	-13665
▁RSA	-13666
▁Ros	-13667
▁SAE	-13668
▁SCA	-13669
▁SDN	-13670
▁SIS	-13671
▁SMA	-13672
▁SMB	-13673
▁SNM	-13674
▁STI	-13675
▁Say	-13676
▁Tap	-13677
▁USP	-13678
▁VER	-13679
▁VGA	-13680
▁WOR	-13681
▁Zoo	-13682
▁amp	-13683
▁apt	-13684
▁det	-13685
▁eri	-13686
▁ers	-13687
▁ett	-13688
▁eur	-13689
▁fia	-13690
▁fle	-13691
▁gia	-13692
▁glo	-13693
▁hal	-13694
▁hat	-13695
▁hoc	-13696
▁ili	-13697
▁job	-13698
▁ker	-13699
▁law	-13700
▁los	-13701
▁mat	-13702
▁mis	-13703
▁nav	-13704
▁nst	-13705
▁nth	-13706
▁nya	-13707
▁oid	-13708
▁pat	-13709
▁pen	-13710
▁ppe	-13711
▁pra	-13712
▁psi	-13713
▁rga	-13714
▁rro	-13715
▁sal	-13716
▁san	-13717
▁str	-13718
▁thm	-13719
▁tol	-13720
▁tru	-13721
▁tto	-13722
▁ubi	-13723
▁von	-13724
▁vpn	-13725
▁آرک	-13726
▁آهو	-13727
▁آهک	-13728
▁آیة	-13729
▁ايت	-13730
▁بهۀ	-13731
▁ترت	-13732
▁تسک	-13733
▁تشخ	-13734
▁توض	-13735
▁جغد	-13736
▁دئو	-13737
▁دخت	-13738
▁درش	-13739
▁راك	-13740
▁ريا	-13741
▁زنِ	-13742
▁زول	-13743
▁سبت	-13744
▁سعه	-13745
▁شاک	-13746
▁شتک	-13747
▁شرّ	-13748
▁شری	-13749
▁صنف	-13750
▁طان	-13751
▁طفا	-13752
▁ظام	-13753
▁عظی	-13754
▁غله	-13755
▁غلو	-13756
▁قاو	-13757
▁قسط	-13758
▁لاژ	-13759
▁لقو	-13760
▁لما	-13761
▁لوه	-13762
▁لگا	-13763
▁لیش	-13764
▁مدح	-13765
▁مفت	-13766
▁ملق	-13767
▁مَا	-13768
▁ندي	-13769
▁نسک	-13770
▁نشه	-13771
▁وبس	-13772
▁ویچ	-13773
▁يكي	-13774
▁چاد	-13775
▁چپش	-13776
▁کسي	-13777
▁کفن	-13778
▁کلس	-13779
▁کپک	-13780
▁کیر	-13781
▁گرت	-13782
▁گود	-13783
▁۱٫۲	-13784
▁۱۵٪	-13785
▁۴۰٪	-13786
▁۶۵۰	-13787
▁Arma	-13788
▁BPMN	-13789
▁Baid	-13790
▁Bart	-13791
▁Belo	-13792
▁Bina	-13793
▁Bing	-13794
▁Bowl	-13795
▁Boys	-13796
▁Brea	-13797
▁Brok	-13798
▁Budd	-13799
▁Camb	-13800
▁Cars	-13801
▁Clie	-13802
▁Comb	-13803
▁Corn	-13804
▁Dave	-13805
▁Dura	-13806
▁Enix	-13807
▁Fell	-13808
▁Filt	-13809
▁Fine	-13810
▁Flag	-13811
▁Foll	-13812
▁Geek	-13813
▁Grey	-13814
▁Harp	-13815
▁Hawk	-13816
▁Hulu	-13817
▁Hung	-13818
▁IFRS	-13819
▁Impo	-13820
▁Infi	-13821
▁Kara	-13822
▁Kate	-13823
▁LGBT	-13824
▁Luca	-13825
▁Meet	-13826
▁Mile	-13827
▁Minu	-13828
▁NFPA	-13829
▁NSAI	-13830
▁Neil	-13831
▁Pana	-13832
▁Pant	-13833
▁Pill	-13834
▁Pock	-13835
▁Poké	-13836
▁Reme	-13837
▁Ruby	-13838
▁SMTP	-13839
▁STAR	-13840
▁Sara	-13841
▁Ship	-13842
▁Siem	-13843
▁Sili	-13844
▁Socc	-13845
▁Sola	-13846
▁Solo	-13847
▁Take	-13848
▁Texa	-13849
▁That	-13850
▁Tony	-13851
▁Unit	-13852
▁WWDC	-13853
▁Wide	-13854
▁blic	-13855
▁bolt	-13856
▁boro	-13857
▁bour	-13858
▁case	-13859
▁chia	-13860
▁defi	-13861
▁dian	-13862
▁digi	-13863
▁dire	-13864
▁disc	-13865
▁doop	-13866
▁ende	-13867
▁ense	-13868
▁flue	-13869
▁font	-13870
▁forn	-13871
▁happ	-13872
▁have	-13873
▁heim	-13874
▁horn	-13875
▁ipho	-13876
▁jour	-13877
▁kill	-13878
▁long	-13879
▁lson	-13880
▁mari	-13881
▁mess	-13882
▁mine	-13883
▁ncip	-13884
▁ning	-13885
▁ntec	-13886
▁plan	-13887
▁qual	-13888
▁reco	-13889
▁resi	-13890
▁rets	-13891
▁rics	-13892
▁root	-13893
▁ruct	-13894
▁rypt	-13895
▁sett	-13896
▁shar	-13897
▁show	-13898
▁size	-13899
▁stop	-13900
▁tail	-13901
▁true	-13902
▁ured	-13903
▁vera	-13904
▁what	-13905
▁wide	-13906
▁writ	-13907
▁ئورو	-13908
▁ابقا	-13909
▁اتلر	-13910
▁اجرت	-13911
▁اراج	-13912
▁اسیو	-13913
▁الئو	-13914
▁الاک	-13915
▁الما	-13916
▁اپان	-13917
▁ایلد	-13918
▁اینا	-13919
▁ایپا	-13920
▁ایکو	-13921
▁بزار	-13922
▁بستر	-13923
▁بینن	-13924
▁تساپ	-13925
▁تعدا	-13926
▁تهجن	-13927
▁دازه	-13928
▁دانس	-13929
▁دریک	-13930
▁دمید	-13931
▁راتژ	-13932
▁رادا	-13933
▁رادش	-13934
▁راشد	-13935
▁رالا	-13936
▁رامن	-13937
▁رایو	-13938
▁رتبط	-13939
▁ردیف	-13940
▁رعوب	-13941
▁رفین	-13942
▁رقبه	-13943
▁رندی	-13944
▁رودا	-13945
▁ریزه	-13946
▁ریپت	-13947
▁زارد	-13948
▁سرین	-13949
▁سکوپ	-13950
▁شيوه	-13951
▁شکال	-13952
▁شیمو	-13953
▁طلان	-13954
▁طهیر	-13955
▁فزار	-13956
▁قاله	-13957
▁قلدر	-13958
▁لئیک	-13959
▁لارد	-13960
▁لاید	-13961
▁لدین	-13962
▁لرید	-13963
▁لومر	-13964
▁لیکم	-13965
▁مونۀ	-13966
▁میتر	-13967
▁نبرا	-13968
▁نندج	-13969
▁نیدل	-13970
▁هابی	-13971
▁هایو	-13972
▁هلیو	-13973
▁هونگ	-13974
▁هیگل	-13975
▁واید	-13976
▁وبیخ	-13977
▁وتین	-13978
▁وروت	-13979
▁ورکر	-13980
▁ولتن	-13981
▁ومار	-13982
▁ونال	-13983
▁ونتا	-13984
▁وندر	-13985
▁وندن	-13986
▁ویتز	-13987
▁ویلز	-13988
▁پایگ	-13989
▁کاسل	-13990
▁کایا	-13991
▁کتین	-13992
▁کسین	-13993
▁کوتو	-13994
▁کینت	-13995
▁گانگ	-13996
▁یاتا	-13997
▁یاما	-13998
▁یتین	-13999
▁یخام	-14000
▁یزیک	-14001
▁یقین	-14002
▁یلنا	-14003
▁یلوا	-14004
▁یلوم	-14005
▁ینجر	-14006
▁ینگر	-14007
▁یوتو	-14008
▁یکال	-14009
▁یکان	-14010
▁Bloom	-14011
▁Brook	-14012
▁Credi	-14013
▁Drake	-14014
▁Error	-14015
▁Grace	-14016
▁Indiv	-14017
▁Kenne	-14018
▁Porta	-14019
▁Quant	-14020
▁Razer	-14021
▁Snake	-14022
▁Solar	-14023
▁Trial	-14024
▁Villa	-14025
▁Zhang	-14026
▁based	-14027
▁catch	-14028
▁color	-14029
▁commu	-14030
▁earth	-14031
▁false	-14032
▁stack	-14033
▁track	-14034
▁ابرین	-14035
▁ارنما	-14036
▁ارینو	-14037
▁اسموس	-14038
▁اسیمه	-14039
▁الوئر	-14040
▁انقلا	-14041
▁اکولا	-14042
▁اکیاو	-14043
▁ایسون	-14044
▁باردا	-14045
▁ترینو	-14046
▁تریکس	-14047
▁دریان	-14048
▁رابنف	-14049
▁راکوف	-14050
▁رغوان	-14051
▁رماند	-14052
▁روزان	-14053
▁ریتان	-14054
▁ریقای	-14055
▁رینگا	-14056
▁ریچمو	-14057
▁فاندل	-14058
▁لاندو	-14059
▁ماران	-14060
▁ماندو	-14061
▁ندروی	-14062
▁نهرین	-14063
▁نگارد	-14064
▁نگلور	-14065
▁هاتون	-14066
▁واریا	-14067
▁واسیر	-14068
▁ورچون	-14069
▁ورکین	-14070
▁ونیکا	-14071
▁وگیری	-14072
▁چیپست	-14073
▁کونین	-14074
▁یبروم	-14075
▁ینیکس	-14076
1،	-14077
FT	-14078
KA	-14079
ND	-14080
ms	-14081
oi	-14082
ão	-14083
ür	-14084
خو	-14085
رز	-14086
يج	-14087
يع	-14088
ِل	-14089
▁±	-14090
▁́	-14091
▁★	-14092
ACK	-14093
EMA	-14094
UIS	-14095
ada	-14096
aro	-14097
asi	-14098
edi	-14099
ern	-14100
imi	-14101
isp	-14102
itz	-14103
nth	-14104
phi	-14105
ume	-14106
امو	-14107
ریس	-14108
زاک	-14109
زیو	-14110
شیب	-14111
كرو	-14112
لیف	-14113
لین	-14114
میا	-14115
وتگ	-14116
کلو	-14117
یان	-14118
▁!؟	-14119
▁(=	-14120
▁01	-14121
▁2ـ	-14122
▁3%	-14123
▁5،	-14124
▁:"	-14125
▁AO	-14126
▁Ay	-14127
▁BD	-14128
▁BK	-14129
▁Ei	-14130
▁Gw	-14131
▁IH	-14132
▁KL	-14133
▁LD	-14134
▁NM	-14135
▁Ol	-14136
▁Ot	-14137
▁RD	-14138
▁RU	-14139
▁Sv	-14140
▁TN	-14141
▁TX	-14142
▁WC	-14143
▁bt	-14144
▁ew	-14145
▁gh	-14146
▁iB	-14147
▁iS	-14148
▁mA	-14149
▁mL	-14150
▁mc	-14151
▁mn	-14152
▁nz	-14153
▁oC	-14154
▁pm	-14155
▁pu	-14156
▁sd	-14157
▁sq	-14158
▁؟»	-14159
▁ثل	-14160
▁دة	-14161
▁زف	-14162
▁كف	-14163
▁لَ	-14164
....	-14165
aste	-14166
odge	-14167
ospi	-14168
▁(17	-14169
▁(25	-14170
▁(6)	-14171
▁1/2	-14172
▁108	-14173
▁11.	-14174
▁116	-14175
▁119	-14176
▁11:	-14177
▁11،	-14178
▁144	-14179
▁15-	-14180
▁157	-14181
▁158	-14182
▁159	-14183
▁16-	-14184
▁2.7	-14185
▁21،	-14186
▁28،	-14187
▁325	-14188
▁4.7	-14189
▁5.2	-14190
▁747	-14191
▁850	-14192
▁99%	-14193
▁AGM	-14194
▁ALA	-14195
▁ALL	-14196
▁AMA	-14197
▁ASA	-14198
▁Aff	-14199
▁Alo	-14200
▁Amp	-14201
▁BCI	-14202
▁BIP	-14203
▁BNB	-14204
▁BPH	-14205
▁Bac	-14206
▁Bol	-14207
▁But	-14208
▁CEL	-14209
▁CFD	-14210
▁CGI	-14211
▁CKD	-14212
▁CLI	-14213
▁CSA	-14214
▁CVS	-14215
▁Chu	-14216
▁DER	-14217
▁DHE	-14218
▁Dal	-14219
▁Dip	-14220
▁Duo	-14221
▁Dyi	-14222
▁ECC	-14223
▁ECN	-14224
▁ENT	-14225
▁EOI	-14226
▁EST	-14227
▁Ear	-14228
▁Eat	-14229
▁Eve	-14230
▁FBA	-14231
▁FIS	-14232
▁FUE	-14233
▁Fal	-14234
▁Fib	-14235
▁GLO	-14236
▁Gle	-14237
▁HRM	-14238
▁HUA	-14239
▁Hau	-14240
▁IFA	-14241
▁IMF	-14242
▁INE	-14243
▁IPS	-14244
▁ITU	-14245
▁IVE	-14246
▁IgG	-14247
▁Imm	-14248
▁Joy	-14249
▁Kai	-14250
▁Kal	-14251
▁Kle	-14252
▁LSB	-14253
▁LSD	-14254
▁Leo	-14255
▁Lin	-14256
▁MEC	-14257
▁Mia	-14258
▁Mil	-14259
▁NEO	-14260
▁NHS	-14261
▁NIC	-14262
▁NIH	-14263
▁OUT	-14264
▁Oce	-14265
▁PAN	-14266
▁PSP	-14267
▁RDS	-14268
▁RMS	-14269
▁RTL	-14270
▁Rac	-14271
▁Rho	-14272
▁Ron	-14273
▁SLE	-14274
▁SNS	-14275
▁Sac	-14276
▁Twi	-14277
▁UCL	-14278
▁UNS	-14279
▁VII	-14280
▁Wea	-14281
▁Wix	-14282
▁XPS	-14283
▁YOU	-14284
▁ama	-14285
▁ani	-14286
▁bac	-14287
▁bel	-14288
▁bos	-14289
▁bow	-14290
▁cit	-14291
▁dae	-14292
▁dec	-14293
▁dei	-14294
▁eli	-14295
▁ema	-14296
▁esp	-14297
▁fen	-14298
▁fir	-14299
▁fla	-14300
▁foo	-14301
▁gio	-14302
▁gne	-14303
▁iol	-14304
▁kar	-14305
▁lyn	-14306
▁max	-14307
▁nca	-14308
▁ndi	-14309
▁ngi	-14310
▁nit	-14311
▁oil	-14312
▁oln	-14313
▁ont	-14314
▁ony	-14315
▁osi	-14316
▁pay	-14317
▁pod	-14318
▁pop	-14319
▁psy	-14320
▁put	-14321
▁rel	-14322
▁roo	-14323
▁ros	-14324
▁saw	-14325
▁sey	-14326
▁she	-14327
▁sig	-14328
▁sil	-14329
▁tag	-14330
▁ten	-14331
▁thy	-14332
▁tos	-14333
▁uar	-14334
▁ved	-14335
▁vol	-14336
▁was	-14337
▁آبه	-14338
▁آرت	-14339
▁آمل	-14340
▁آنر	-14341
▁ایط	-14342
▁بذل	-14343
▁بنن	-14344
▁بهب	-14345
▁بیخ	-14346
▁تدی	-14347
▁تضم	-14348
▁تگر	-14349
▁تگی	-14350
▁جاج	-14351
▁جاي	-14352
▁حبه	-14353
▁خنگ	-14354
▁دلر	-14355
▁دهي	-14356
▁دوب	-14357
▁دوج	-14358
▁دیز	-14359
▁رئه	-14360
▁رتل	-14361
▁زآن	-14362
▁زیه	-14363
▁سات	-14364
▁سبو	-14365
▁سنخ	-14366
▁سنم	-14367
▁شاش	-14368
▁صحه	-14369
▁صدم	-14370
▁ظور	-14371
▁عجز	-14372
▁فرط	-14373
▁قائ	-14374
▁قاط	-14375
▁قبو	-14376
▁قیع	-14377
▁كام	-14378
▁كوت	-14379
▁لبد	-14380
▁للی	-14381
▁ماز	-14382
▁ماض	-14383
▁منگ	-14384
▁میب	-14385
▁ناك	-14386
▁ندس	-14387
▁ندق	-14388
▁نطو	-14389
▁نلس	-14390
▁هتر	-14391
▁هتک	-14392
▁هرس	-14393
▁هوف	-14394
▁وئر	-14395
▁وجب	-14396
▁ورج	-14397
▁ونک	-14398
▁ووک	-14399
▁وپه	-14400
▁ژدر	-14401
▁کدر	-14402
▁کنا	-14403
▁کیج	-14404
▁گات	-14405
▁گرس	-14406
▁گلن	-14407
▁گنس	-14408
▁یشگ	-14409
▁یصر	-14410
▁یلى	-14411
▁۱٫۵	-14412
▁۱۰۴	-14413
▁۱۲۵	-14414
▁۱۲۸	-14415
▁۲۵۶	-14416
▁۴۰۴	-14417
▁(...	-14418
▁...»	-14419
▁ACSB	-14420
▁ASTM	-14421
▁ASUS	-14422
▁Anch	-14423
▁Atom	-14424
▁Bask	-14425
▁Boom	-14426
▁Bund	-14427
▁Cale	-14428
▁Canc	-14429
▁Carb	-14430
▁Chen	-14431
▁Cher	-14432
▁Clau	-14433
▁Clip	-14434
▁Desp	-14435
▁Dete	-14436
▁Deus	-14437
▁Doom	-14438
▁Doug	-14439
▁Duol	-14440
▁ESPN	-14441
▁Ecli	-14442
▁Even	-14443
▁Exec	-14444
▁Expo	-14445
▁Eyes	-14446
▁Five	-14447
▁Fred	-14448
▁Fuji	-14449
▁Fund	-14450
▁GABA	-14451
▁Gent	-14452
▁Giga	-14453
▁Gram	-14454
▁Grid	-14455
▁Gulf	-14456
▁Hair	-14457
▁Hold	-14458
▁Hong	-14459
▁Hons	-14460
▁Hook	-14461
▁Http	-14462
▁IGTV	-14463
▁Jake	-14464
▁Juli	-14465
▁Jump	-14466
▁Kick	-14467
▁Lati	-14468
▁Leno	-14469
▁Linc	-14470
▁Lone	-14471
▁Loss	-14472
▁MRSA	-14473
▁Maga	-14474
▁Mall	-14475
▁Mani	-14476
▁Math	-14477
▁Meat	-14478
▁Moni	-14479
▁Muta	-14480
▁Myst	-14481
▁NAND	-14482
▁NASS	-14483
▁NESE	-14484
▁Near	-14485
▁Nest	-14486
▁Nort	-14487
▁Nova	-14488
▁OSHA	-14489
▁Omni	-14490
▁Onta	-14491
▁Pate	-14492
▁Pent	-14493
▁Ping	-14494
▁Prep	-14495
▁Reed	-14496
▁Repu	-14497
▁Rick	-14498
▁Risi	-14499
▁Rust	-14500
▁Sant	-14501
▁Summ	-14502
▁Syma	-14503
▁Sync	-14504
▁TRAP	-14505
▁UCAS	-14506
▁UCLA	-14507
▁UEFI	-14508
▁Warc	-14509
▁Ware	-14510
▁Yell	-14511
▁bitc	-14512
▁blog	-14513
▁burn	-14514
▁cart	-14515
▁cede	-14516
▁chro	-14517
▁coll	-14518
▁conf	-14519
▁conv	-14520
▁dema	-14521
▁dise	-14522
▁fMRI	-14523
▁fast	-14524
▁ffee	-14525
▁gged	-14526
▁hare	-14527
▁help	-14528
▁hire	-14529
▁irus	-14530
▁king	-14531
▁like	-14532
▁llar	-14533
▁mane	-14534
▁mbat	-14535
▁mbia	-14536
▁mise	-14537
▁ndar	-14538
▁ndly	-14539
▁ndom	-14540
▁nese	-14541
▁nges	-14542
▁nown	-14543
▁onsi	-14544
▁pace	-14545
▁pylo	-14546
▁ract	-14547
▁refi	-14548
▁rege	-14549
▁rray	-14550
▁rris	-14551
▁sand	-14552
▁sess	-14553
▁soft	-14554
▁stan	-14555
▁sync	-14556
▁tone	-14557
▁wave	-14558
▁آلما	-14559
▁ابطه	-14560
▁اتون	-14561
▁احات	-14562
▁ارلی	-14563
▁الور	-14564
▁امسه	-14565
▁انگو	-14566
▁انیه	-14567
▁اواک	-14568
▁اویس	-14569
▁اپوت	-14570
▁اکید	-14571
▁باشر	-14572
▁بپرد	-14573
▁تالو	-14574
▁توای	-14575
▁تياز	-14576
▁خانۀ	-14577
▁دارت	-14578
▁دراپ	-14579
▁درود	-14580
▁دریس	-14581
▁دستگ	-14582
▁دنور	-14583
▁دوان	-14584
▁دورس	-14585
▁دورن	-14586
▁دوین	-14587
▁دژنر	-14588
▁دیجی	-14589
▁رازق	-14590
▁رانو	-14591
▁راول	-14592
▁رباد	-14593
▁ربور	-14594
▁رتین	-14595
▁رستو	-14596
▁روتی	-14597
▁روما	-14598
▁رومر	-14599
▁رگدن	-14600
▁رینر	-14601
▁ریور	-14602
▁زالو	-14603
▁زوجل	-14604
▁سترد	-14605
▁سترس	-14606
▁ستیگ	-14607
▁سیاس	-14608
▁سیان	-14609
▁شئون	-14610
▁شونو	-14611
▁شیلا	-14612
▁طرود	-14613
▁عتبر	-14614
▁قوری	-14615
▁لاده	-14616
▁لامر	-14617
▁لایق	-14618
▁لهلم	-14619
▁لوکس	-14620
▁مامی	-14621
▁محدو	-14622
▁مردا	-14623
▁مسال	-14624
▁منیت	-14625
▁نازی	-14626
▁نايع	-14627
▁ندال	-14628
▁ندلر	-14629
▁نزلی	-14630
▁نسلا	-14631
▁نسلت	-14632
▁نسون	-14633
▁نسوی	-14634
▁نورا	-14635
▁نیزه	-14636
▁نیکو	-14637
▁هارا	-14638
▁هالک	-14639
▁هایپ	-14640
▁هجور	-14641
▁هراب	-14642
▁هندر	-14643
▁هیون	-14644
▁هیکس	-14645
▁وافر	-14646
▁وانز	-14647
▁وایف	-14648
▁وبلا	-14649
▁وتوس	-14650
▁ورفو	-14651
▁ورلد	-14652
▁وروم	-14653
▁ورون	-14654
▁وزشی	-14655
▁وزیل	-14656
▁وقعی	-14657
▁ولار	-14658
▁ولبر	-14659
▁ونار	-14660
▁ونزا	-14661
▁پهبد	-14662
▁کیند	-14663
▁گوین	-14664
▁یادی	-14665
▁یتزر	-14666
▁یتنی	-14667
▁یتوس	-14668
▁یدیو	-14669
▁یعان	-14670
▁یندل	-14671
▁ینسا	-14672
▁ینگز	-14673
▁ینین	-14674
▁یکای	-14675
▁یکود	-14676
▁Begin	-14677
▁Blind	-14678
▁Bount	-14679
▁Brows	-14680
▁Civil	-14681
▁Condi	-14682
▁Const	-14683
▁Consu	-14684
▁Court	-14685
▁Crack	-14686
▁Craft	-14687
▁Cryst	-14688
▁Custo	-14689
▁Davis	-14690
▁Delta	-14691
▁Disea	-14692
▁Forbe	-14693
▁Fresh	-14694
▁Graph	-14695
▁Guest	-14696
▁Infer	-14697
▁MORPG	-14698
▁Maria	-14699
▁Navig	-14700
▁Paint	-14701
▁Pearl	-14702
▁Phill	-14703
▁Presi	-14704
▁Quora	-14705
▁Resta	-14706
▁Shark	-14707
▁Spear	-14708
▁Storm	-14709
▁Sword	-14710
▁Tence	-14711
▁Terra	-14712
▁Tesla	-14713
▁Third	-14714
▁Varia	-14715
▁Virus	-14716
▁Weath	-14717
▁brain	-14718
▁first	-14719
▁medic	-14720
▁photo	-14721
▁stant	-14722
▁virus	-14723
▁while	-14724
▁zilla	-14725
▁اتریس	-14726
▁ارجین	-14727
▁ارسون	-14728
▁اروین	-14729
▁ارکوئ	-14730
▁ارکوم	-14731
▁ارگرد	-14732
▁استیل	-14733
▁المون	-14734
▁الونه	-14735
▁انتور	-14736
▁اکسیم	-14737
▁ایکوت	-14738
▁تراسو	-14739
▁تینگن	-14740
▁داخته	-14741
▁دلاید	-14742
▁دلایم	-14743
▁دمجان	-14744
▁دوارم	-14745
▁دورنو	-14746
▁دیلاک	-14747
▁راتیت	-14748
▁رادون	-14749
▁رادوی	-14750
▁راسکا	-14751
▁راشیب	-14752
▁رامبد	-14753
▁راکام	-14754
▁رایلی	-14755
▁رهنگی	-14756
▁رومئو	-14757
▁رونشا	-14758
▁ستاند	-14759
▁ستانگ	-14760
▁شتوتگ	-14761
▁شیلنگ	-14762
▁لاندر	-14763
▁لاهما	-14764
▁لایان	-14765
▁لیندا	-14766
▁لینوم	-14767
▁ماتیت	-14768
▁ماتین	-14769
▁مارست	-14770
▁ناتیو	-14771
▁ندریا	-14772
▁هانسن	-14773
▁هدویت	-14774
▁وانکا	-14775
▁وتئین	-14776
▁ورتیس	-14777
▁ورنئو	-14778
▁کارکن	-14779
▁کینگز	-14780
▁یالات	-14781
▁یلینگ	-14782
▁یوانز	-14783
▁یکلون	-14784
-2	-14785
24	-14786
70	-14787
9]	-14788
EV	-14789
EY	-14790
GI	-14791
HP	-14792
LD	-14793
NY	-14794
OK	-14795
PO	-14796
UE	-14797
]>	-14798
cy	-14799
ee	-14800
ik	-14801
mu	-14802
pm	-14803
rd	-14804
uk	-14805
آر	-14806
تز	-14807
ذا	-14808
لن	-14809
لک	-14810
يف	-14811
۰۰	-14812
۱۲	-14813
۱۵	-14814
▁á	-14815
▁❤	-14816
▁﴾	-14817
▁👌	-14818
ACE	-14819
ARD	-14820
ASP	-14821
ESS	-14822
ICS	-14823
RNA	-14824
add	-14825
cle	-14826
gic	-14827
ica	-14828
ief	-14829
inn	-14830
irt	-14831
itu	-14832
oco	-14833
quo	-14834
seu	-14835
urk	-14836
vin	-14837
ادک	-14838
ایس	-14839
زین	-14840
قیه	-14841
میس	-14842
نیت	-14843
هنه	-14844
ورک	-14845
کین	-14846
کیو	-14847
گور	-14848
▁""	-14849
▁("	-14850
▁):	-14851
▁06	-14852
▁1ـ	-14853
▁5ـ	-14854
▁Ak	-14855
▁DN	-14856
▁DU	-14857
▁DW	-14858
▁DX	-14859
▁Dw	-14860
▁Gn	-14861
▁Gy	-14862
▁HU	-14863
▁Hz	-14864
▁Ia	-14865
▁KP	-14866
▁KR	-14867
▁MW	-14868
▁NY	-14869
▁Od	-14870
▁PI	-14871
▁RJ	-14872
▁SY	-14873
▁TG	-14874
▁TY	-14875
▁UR	-14876
▁UW	-14877
▁Ul	-14878
▁VF	-14879
▁XF	-14880
▁XI	-14881
▁XR	-14882
▁dL	-14883
▁ez	-14884
▁gt	-14885
▁iF	-14886
▁ml	-14887
▁nu	-14888
▁oF	-14889
▁og	-14890
▁rh	-14891
▁rs	-14892
▁ub	-14893
▁xl	-14894
▁xo	-14895
▁yl	-14896
▁بِ	-14897
▁هچ	-14898
▁يه	-14899
▁يگ	-14900
▁١٥	-14901
▁١٧	-14902
▁٦٠	-14903
▁پى	-14904
▁پَ	-14905
▁یة	-14906
aker	-14907
idge	-14908
igra	-14909
imen	-14910
ومار	-14911
▁(24	-14912
▁0.8	-14913
▁10)	-14914
▁107	-14915
▁111	-14916
▁12%	-14917
▁129	-14918
▁13-	-14919
▁132	-14920
▁141	-14921
▁145	-14922
▁14:	-14923
▁165	-14924
▁174	-14925
▁18-	-14926
▁184	-14927
▁19،	-14928
▁2-1	-14929
▁202	-14930
▁209	-14931
▁218	-14932
▁3.4	-14933
▁30،	-14934
▁310	-14935
▁390	-14936
▁4.3	-14937
▁4.6	-14938
▁40%	-14939
▁401	-14940
▁410	-14941
▁44%	-14942
▁440	-14943
▁5.7	-14944
▁5.8	-14945
▁50،	-14946
▁6.0	-14947
▁6.3	-14948
▁630	-14949
▁7.4	-14950
▁787	-14951
▁8.0	-14952
▁8.4	-14953
▁880	-14954
▁ACC	-14955
▁ACE	-14956
▁ADC	-14957
▁AFC	-14958
▁AIM	-14959
▁AML	-14960
▁ARC	-14961
▁ATm	-14962
▁Ade	-14963
▁Apo	-14964
▁BCG	-14965
▁BSc	-14966
▁Bea	-14967
▁Bib	-14968
▁Bir	-14969
▁Ble	-14970
▁Bru	-14971
▁Bub	-14972
▁Bug	-14973
▁CAS	-14974
▁CHA	-14975
▁CIP	-14976
▁CLA	-14977
▁CMI	-14978
▁CMO	-14979
▁COX	-14980
▁CPS	-14981
▁CRC	-14982
▁CRO	-14983
▁CSQ	-14984
▁CSU	-14985
▁CUP	-14986
▁Cox	-14987
▁DHC	-14988
▁DIA	-14989
▁DJI	-14990
▁DMZ	-14991
▁DNF	-14992
▁Dub	-14993
▁ECU	-14994
▁EIT	-14995
▁EMA	-14996
▁EPS	-14997
▁ETH	-14998
▁Ela	-14999
▁Emo	-15000
▁Ene	-15001
▁Esp	-15002
▁FAQ	-15003
▁FCA	-15004
▁FDI	-15005
▁Feb	-15006
▁Fel	-15007
▁Flo	-15008
▁Fun	-15009
▁GNS	-15010
▁GPC	-15011
▁GUI	-15012
▁Gam	-15013
▁Gas	-15014
▁HCR	-15015
▁HEC	-15016
▁HMD	-15017
▁HRC	-15018
▁HSV	-15019
▁Hab	-15020
▁Hei	-15021
▁Hyb	-15022
▁IED	-15023
▁ILO	-15024
▁IMA	-15025
▁IMP	-15026
▁INT	-15027
▁IPL	-15028
▁IST	-15029
▁Iri	-15030
▁JPY	-15031
▁Jar	-15032
▁Jay	-15033
▁KYC	-15034
▁LEG	-15035
▁LOW	-15036
▁Lan	-15037
▁Las	-15038
▁Lew	-15039
▁Lex	-15040
▁Lot	-15041
▁MCI	-15042
▁MCT	-15043
▁MCU	-15044
▁MER	-15045
▁MET	-15046
▁MMS	-15047
▁Mah	-15048
▁Mud	-15049
▁Mul	-15050
▁Mut	-15051
▁NAV	-15052
▁NCC	-15053
▁NHL	-15054
▁NID	-15055
▁Nan	-15056
▁Neb	-15057
▁Nie	-15058
▁Nur	-15059
▁OCR	-15060
▁ODM	-15061
▁Oak	-15062
▁Oil	-15063
▁Oxy	-15064
▁PAR	-15065
▁PER	-15066
▁PKK	-15067
▁PPE	-15068
▁PSD	-15069
▁PWM	-15070
▁PYD	-15071
▁Pas	-15072
▁PoE	-15073
▁Pot	-15074
▁RDF	-15075
▁ROS	-15076
▁Rou	-15077
▁Rus	-15078
▁SAM	-15079
▁SDF	-15080
▁SIM	-15081
▁SLA	-15082
▁SLR	-15083
▁SPD	-15084
▁SPV	-15085
▁SUP	-15086
▁SYS	-15087
▁Sau	-15088
▁Som	-15089
▁Sor	-15090
▁Sus	-15091
▁Swa	-15092
▁TEF	-15093
▁THQ	-15094
▁TIA	-15095
▁TIS	-15096
▁TNF	-15097
▁TON	-15098
▁TRA	-15099
▁TSH	-15100
▁Tan	-15101
▁Tax	-15102
▁Thy	-15103
▁Tia	-15104
▁Tou	-15105
▁UNA	-15106
▁UTI	-15107
▁UVA	-15108
▁Una	-15109
▁VAC	-15110
▁Vet	-15111
▁Wai	-15112
▁YPG	-15113
▁ZTE	-15114
▁Zhu	-15115
▁[9]	-15116
▁]]>	-15117
▁ald	-15118
▁ara	-15119
▁ast	-15120
▁att	-15121
▁dog	-15122
▁dro	-15123
▁emi	-15124
▁eus	-15125
▁exc	-15126
▁fac	-15127
▁fit	-15128
▁fro	-15129
▁gal	-15130
▁ged	-15131
▁glu	-15132
▁ien	-15133
▁iga	-15134
▁imo	-15135
▁iny	-15136
▁ita	-15137
▁ize	-15138
▁ken	-15139
▁kov	-15140
▁lau	-15141
▁lon	-15142
▁lth	-15143
▁mas	-15144
▁miz	-15145
▁mot	-15146
▁mph	-15147
▁mpt	-15148
▁nam	-15149
▁nds	-15150
▁nee	-15151
▁nja	-15152
▁nol	-15153
▁ole	-15154
▁olv	-15155
▁pia	-15156
▁pos	-15157
▁pot	-15158
▁rap	-15159
▁ras	-15160
▁ree	-15161
▁rez	-15162
▁rim	-15163
▁sca	-15164
▁sei	-15165
▁sma	-15166
▁tet	-15167
▁tha	-15168
▁wig	-15169
▁xml	-15170
▁آنژ	-15171
▁ائه	-15172
▁ادز	-15173
▁اضی	-15174
▁اقا	-15175
▁الچ	-15176
▁الگ	-15177
▁ايه	-15178
▁اپن	-15179
▁اپک	-15180
▁اگی	-15181
▁بعث	-15182
▁بپا	-15183
▁بکت	-15184
▁بیع	-15185
▁ترگ	-15186
▁تسه	-15187
▁تنظ	-15188
▁ثلث	-15189
▁جبل	-15190
▁جثه	-15191
▁جده	-15192
▁جلا	-15193
▁جیپ	-15194
▁حسِ	-15195
▁خاط	-15196
▁ختر	-15197
▁خشت	-15198
▁خمی	-15199
▁دنب	-15200
▁دين	-15201
▁رته	-15202
▁ردّ	-15203
▁رزن	-15204
▁رشک	-15205
▁رمپ	-15206
▁رگی	-15207
▁زبر	-15208
▁زدو	-15209
▁زعم	-15210
▁زنت	-15211
▁سبك	-15212
▁سدّ	-15213
▁سمز	-15214
▁سمو	-15215
▁سنن	-15216
▁سگش	-15217
▁شخم	-15218
▁شكر	-15219
▁صفی	-15220
▁صلى	-15221
▁طاف	-15222
▁طبس	-15223
▁طرا	-15224
▁عون	-15225
▁فرح	-15226
▁فلم	-15227
▁فنل	-15228
▁قزل	-15229
▁قعر	-15230
▁قمی	-15231
▁قيه	-15232
▁كبر	-15233
▁كوه	-15234
▁لتن	-15235
▁لده	-15236
▁لرز	-15237
▁لنج	-15238
▁لهم	-15239
▁لهي	-15240
▁مين	-15241
▁مِی	-15242
▁ناچ	-15243
▁ندک	-15244
▁نذر	-15245
▁نره	-15246
▁نکی	-15247
▁ها٬	-15248
▁هبه	-15249
▁هذا	-15250
▁هلد	-15251
▁همل	-15252
▁هيه	-15253
▁وتز	-15254
▁وزو	-15255
▁وسى	-15256
▁ونن	-15257
▁وگن	-15258
▁يار	-15259
▁١٠٠	-15260
▁چرک	-15261
▁چله	-15262
▁چیس	-15263
▁کدک	-15264
▁کشم	-15265
▁کلِ	-15266
▁گزش	-15267
▁گلا	-15268
▁گنی	-15269
▁یاض	-15270
▁یخا	-15271
▁یعت	-15272
▁یوغ	-15273
▁ییر	-15274
▁۱۰۳	-15275
▁۱۱۹	-15276
▁۱۴۴	-15277
▁۲۲۰	-15278
▁۲۷۰	-15279
▁۳۲۰	-15280
▁۳۵٪	-15281
▁۶۱۰	-15282
▁۹۰٪	-15283
▁ATPL	-15284
▁Addi	-15285
▁Advi	-15286
▁Agil	-15287
▁Andy	-15288
▁Anto	-15289
▁Asse	-15290
▁Asus	-15291
▁Augu	-15292
▁Bach	-15293
▁Beam	-15294
▁Bean	-15295
▁Bene	-15296
▁Blur	-15297
▁Casa	-15298
▁Chlo	-15299
▁Cita	-15300
▁Clev	-15301
▁Cook	-15302
▁Dang	-15303
▁Disa	-15304
▁Emer	-15305
▁Envy	-15306
▁Fate	-15307
▁Fill	-15308
▁Forz	-15309
▁GERD	-15310
▁Gary	-15311
▁Gett	-15312
▁Give	-15313
▁Glad	-15314
▁Grav	-15315
▁Guer	-15316
▁HEPA	-15317
▁HVAC	-15318
▁Half	-15319
▁Hamm	-15320
▁Harb	-15321
▁Hart	-15322
▁Have	-15323
▁Hera	-15324
▁INST	-15325
▁IUCN	-15326
▁Immi	-15327
▁Immo	-15328
▁Jess	-15329
▁Jord	-15330
▁Josh	-15331
▁Karl	-15332
▁Kiri	-15333
▁Kiss	-15334
▁Kodi	-15335
▁Kong	-15336
▁Kore	-15337
▁Left	-15338
▁Legi	-15339
▁Lett	-15340
▁Lice	-15341
▁Lore	-15342
▁Luke	-15343
▁Luna	-15344
▁MODF	-15345
▁Mask	-15346
▁Mayo	-15347
▁Mell	-15348
▁Menu	-15349
▁Murd	-15350
▁NIST	-15351
▁Nike	-15352
▁Noah	-15353
▁Noth	-15354
▁Nove	-15355
▁PPTP	-15356
▁Peng	-15357
▁Phil	-15358
▁Pick	-15359
▁Pila	-15360
▁Pseu	-15361
▁Rand	-15362
▁Refl	-15363
▁Resc	-15364
▁SSID	-15365
▁STOP	-15366
▁Samu	-15367
▁Sass	-15368
▁Sell	-15369
▁Side	-15370
▁Sold	-15371
▁Sven	-15372
▁Synd	-15373
▁Tomb	-15374
▁Tunn	-15375
▁Turk	-15376
▁UBIS	-15377
▁Vale	-15378
▁Vali	-15379
▁Vert	-15380
▁Vita	-15381
▁Voca	-15382
▁Wang	-15383
▁Whit	-15384
▁Wind	-15385
▁Wint	-15386
▁Yaku	-15387
▁Yama	-15388
▁bash	-15389
▁baum	-15390
▁bula	-15391
▁butt	-15392
▁camp	-15393
▁cost	-15394
▁cour	-15395
▁dapt	-15396
▁deca	-15397
▁dice	-15398
▁dist	-15399
▁driv	-15400
▁engi	-15401
▁esta	-15402
▁exec	-15403
▁feat	-15404
▁fina	-15405
▁firm	-15406
▁fund	-15407
▁ghan	-15408
▁girl	-15409
▁gold	-15410
▁hamm	-15411
▁hold	-15412
▁hole	-15413
▁kart	-15414
▁know	-15415
▁lash	-15416
▁last	-15417
▁lead	-15418
▁lian	-15419
▁lice	-15420
▁lied	-15421
▁live	-15422
▁made	-15423
▁math	-15424
▁mill	-15425
▁mina	-15426
▁mont	-15427
▁ncia	-15428
▁ndai	-15429
▁ndra	-15430
▁ngle	-15431
▁nica	-15432
▁ntha	-15433
▁null	-15434
▁orga	-15435
▁plug	-15436
▁prev	-15437
▁rate	-15438
▁regi	-15439
▁ribe	-15440
▁rush	-15441
▁sert	-15442
▁side	-15443
▁stat	-15444
▁stre	-15445
▁that	-15446
▁tick	-15447
▁tock	-15448
▁tolo	-15449
▁trap	-15450
▁tten	-15451
▁tyle	-15452
▁wart	-15453
▁ways	-15454
▁week	-15455
▁آندا	-15456
▁ابلی	-15457
▁ارتو	-15458
▁اردن	-15459
▁ارلا	-15460
▁ارمو	-15461
▁ارنی	-15462
▁اروز	-15463
▁افتا	-15464
▁الها	-15465
▁الیا	-15466
▁امرس	-15467
▁امون	-15468
▁امیل	-15469
▁اناد	-15470
▁اناس	-15471
▁انچز	-15472
▁اگتی	-15473
▁ایما	-15474
▁ایکا	-15475
▁بانو	-15476
▁برخو	-15477
▁بودج	-15478
▁بیلت	-15479
▁بینو	-15480
▁تايج	-15481
▁تونز	-15482
▁تونن	-15483
▁حانه	-15484
▁داین	-15485
▁دبرا	-15486
▁دلین	-15487
▁دورب	-15488
▁دویک	-15489
▁ذاكر	-15490
▁راتس	-15491
▁راده	-15492
▁راکس	-15493
▁ربود	-15494
▁رجند	-15495
▁رجیو	-15496
▁ردیو	-15497
▁ركزی	-15498
▁روفا	-15499
▁رومو	-15500
▁رپتو	-15501
▁رگور	-15502
▁رگول	-15503
▁ریتو	-15504
▁ریتی	-15505
▁ریدن	-15506
▁ریما	-15507
▁ریکت	-15508
▁زبور	-15509
▁زبون	-15510
▁زرات	-15511
▁شباب	-15512
▁شیون	-15513
▁فرون	-15514
▁فغان	-15515
▁فقار	-15516
▁لدول	-15517
▁لفرد	-15518
▁لوئو	-15519
▁لیزه	-15520
▁ماره	-15521
▁متخص	-15522
▁مروز	-15523
▁معون	-15524
▁مناز	-15525
▁منتو	-15526
▁مورا	-15527
▁میای	-15528
▁نتری	-15529
▁نتلی	-15530
▁ندسی	-15531
▁ندور	-15532
▁نسیت	-15533
▁نشیز	-15534
▁نیای	-15535
▁نیسک	-15536
▁نیفر	-15537
▁نیلا	-15538
▁نیکا	-15539
▁هاتی	-15540
▁هباد	-15541
▁هلکه	-15542
▁هومو	-15543
▁هیتو	-15544
▁واها	-15545
▁وثقی	-15546
▁ودون	-15547
▁ورتز	-15548
▁ورتن	-15549
▁ورسو	-15550
▁وزاک	-15551
▁وسان	-15552
▁وسون	-15553
▁وسین	-15554
▁وشیا	-15555
▁وقاف	-15556
▁ولكو	-15557
▁ولمن	-15558
▁ولیز	-15559
▁ولیگ	-15560
▁ونته	-15561
▁ویتس	-15562
▁ویدو	-15563
▁ویسی	-15564
▁ویور	-15565
▁ویکر	-15566
▁ياره	-15567
▁پلوم	-15568
▁کلیف	-15569
▁کهام	-15570
▁کورا	-15571
▁کورپ	-15572
▁گرید	-15573
▁یارد	-15574
▁یبرت	-15575
▁یتلی	-15576
▁یتوز	-15577
▁یدبک	-15578
▁یدلا	-15579
▁یزین	-15580
▁یسکو	-15581
▁یشرت	-15582
▁یلار	-15583
▁یلوس	-15584
▁ینار	-15585
▁یندن	-15586
▁یندی	-15587
▁ینکر	-15588
▁ینگا	-15589
▁یوری	-15590
▁Again	-15591
▁April	-15592
▁Baidu	-15593
▁Brave	-15594
▁Catch	-15595
▁Chart	-15596
▁Crown	-15597
▁Divid	-15598
▁Dutch	-15599
▁Ferra	-15600
▁Forum	-15601
▁Gramm	-15602
▁Holme	-15603
▁Joint	-15604
▁Lawre	-15605
▁Liver	-15606
▁Login	-15607
▁Maker	-15608
▁March	-15609
▁Marie	-15610
▁Meizu	-15611
▁Midni	-15612
▁Moore	-15613
▁Panda	-15614
▁Panth	-15615
▁Patch	-15616
▁Phase	-15617
▁Phoen	-15618
▁Physi	-15619
▁Plant	-15620
▁Prese	-15621
▁Prize	-15622
▁Reque	-15623
▁Round	-15624
▁Score	-15625
▁Skull	-15626
▁Skype	-15627
▁Spart	-15628
▁Teach	-15629
▁Thank	-15630
▁Thiev	-15631
▁Treat	-15632
▁Vault	-15633
▁Virgi	-15634
▁archi	-15635
▁chang	-15636
▁close	-15637
▁craft	-15638
▁crawl	-15639
▁idual	-15640
▁match	-15641
▁ncies	-15642
▁negie	-15643
▁phics	-15644
▁share	-15645
▁skill	-15646
▁stitu	-15647
▁ابیوس	-15648
▁ارتان	-15649
▁ارلین	-15650
▁ارکوز	-15651
▁ازیار	-15652
▁استون	-15653
▁اسوند	-15654
▁افیلو	-15655
▁الاوی	-15656
▁الایا	-15657
▁الیگا	-15658
▁امینو	-15659
▁اکاوی	-15660
▁اکسول	-15661
▁اگدون	-15662
▁ایكرو	-15663
▁اینیج	-15664
▁بادوس	-15665
▁برانز	-15666
▁برهنه	-15667
▁بزرگت	-15668
▁بنبات	-15669
▁بیتال	-15670
▁تانیل	-15671
▁خودکا	-15672
▁دبادک	-15673
▁دلتون	-15674
▁دمیوم	-15675
▁راودا	-15676
▁رایدر	-15677
▁رایوو	-15678
▁ربیتر	-15679
▁رتروس	-15680
▁رتینا	-15681
▁ردبول	-15682
▁رضوان	-15683
▁روبیک	-15684
▁رکینز	-15685
▁ریموت	-15686
▁ستانۀ	-15687
▁ستورا	-15688
▁شونده	-15689
▁شیران	-15690
▁طومار	-15691
▁لاستو	-15692
▁لانین	-15693
▁لمینگ	-15694
▁لیانو	-15695
▁لیپتو	-15696
▁ماترا	-15697
▁مبلیک	-15698
▁مقایس	-15699
▁نولوژ	-15700
▁نگورو	-15701
▁ورستر	-15702
▁وندرا	-15703
▁پاروس	-15704
▁پرورش	-15705
▁ژانوی	-15706
▁کسیون	-15707
▁یبرتی	-15708
▁یتینگ	-15709
▁یزینگ	-15710
▁یستول	-15711
▁یستوو	-15712
▁یستید	-15713
▁یستین	-15714
▁یلارد	-15715
▁ینترن	-15716
▁یکسون	-15717
▁یگارو	-15718
+1	-15719
14	-15720
1:	-15721
23	-15722
3،	-15723
41	-15724
BM	-15725
DD	-15726
FF	-15727
GH	-15728
HC	-15729
HT	-15730
KO	-15731
LY	-15732
Me	-15733
OW	-15734
Pa	-15735
TB	-15736
ax	-15737
bu	-15738
ei	-15739
gu	-15740
ii	-15741
ix	-15742
je	-15743
kk	-15744
rc	-15745
uv	-15746
yd	-15747
»،	-15748
ئا	-15749
ئي	-15750
جز	-15751
جل	-15752
حس	-15753
ذی	-15754
رق	-15755
سگ	-15756
طس	-15757
فک	-15758
نم	-15759
۱۱	-15760
۲۴	-15761
۵۰	-15762
⁄4	-15763
▁Ç	-15764
▁ā	-15765
▁œ	-15766
▁̊	-15767
▁̋	-15768
▁р	-15769
▁۔	-15770
▁⁭	-15771
▁☺	-15772
▁✓	-15773
▁✔	-15774
▁﴿	-15775
▁🌷	-15776
ACH	-15777
ACS	-15778
BOX	-15779
ICA	-15780
IFT	-15781
IMA	-15782
ITE	-15783
NAL	-15784
OSM	-15785
OSS	-15786
OST	-15787
RLD	-15788
TMP	-15789
Too	-15790
UBG	-15791
UMX	-15792
VIF	-15793
ado	-15794
asm	-15795
asu	-15796
ber	-15797
elv	-15798
eni	-15799
har	-15800
imm	-15801
imo	-15802
ire	-15803
isi	-15804
its	-15805
mal	-15806
odd	-15807
orp	-15808
rap	-15809
rey	-15810
اسو	-15811
امی	-15812
ایه	-15813
ذال	-15814
زبن	-15815
سمب	-15816
لوس	-15817
لیز	-15818
ویۀ	-15819
کنی	-15820
یاک	-15821
یتز	-15822
یرا	-15823
یرو	-15824
یمر	-15825
یمم	-15826
▁!"	-15827
▁!.	-15828
▁.:	-15829
▁//	-15830
▁2"	-15831
▁2»	-15832
▁6/	-15833
▁7%	-15834
▁7/	-15835
▁8،	-15836
▁<<	-15837
▁Ah	-15838
▁DG	-15839
▁Dh	-15840
▁EZ	-15841
▁FG	-15842
▁HF	-15843
▁HL	-15844
▁HO	-15845
▁HQ	-15846
▁IZ	-15847
▁Iv	-15848
▁KN	-15849
▁LX	-15850
▁MJ	-15851
▁MQ	-15852
▁MY	-15853
▁Mp	-15854
▁Mt	-15855
▁NQ	-15856
▁OE	-15857
▁OV	-15858
▁OW	-15859
▁Oz	-15860
▁Pt	-15861
▁Tb	-15862
▁VB	-15863
▁VL	-15864
▁VU	-15865
▁WR	-15866
▁Zi	-15867
▁av	-15868
▁cs	-15869
▁dr	-15870
▁fs	-15871
▁md	-15872
▁mv	-15873
▁nx	-15874
▁oo	-15875
▁ox	-15876
▁pc	-15877
▁tn	-15878
▁tw	-15879
▁uv	-15880
▁zo	-15881
▁آد	-15882
▁إن	-15883
▁بە	-15884
▁كو	-15885
▁نك	-15886
▁يف	-15887
▁١٦	-15888
▁١٩	-15889
▁٢٥	-15890
▁٩٠	-15891
▁چل	-15892
▁“”	-15893
▁••	-15894
▁❤️	-15895
addy	-15896
agle	-15897
assa	-15898
elda	-15899
erry	-15900
ousi	-15901
زیلا	-15902
موند	-15903
▁(+)	-15904
▁(32	-15905
▁0.2	-15906
▁1-1	-15907
▁1/3	-15908
▁10.	-15909
▁118	-15910
▁126	-15911
▁12:	-15912
▁12،	-15913
▁131	-15914
▁147	-15915
▁155	-15916
▁171	-15917
▁179	-15918
▁182	-15919
▁19-	-15920
▁199	-15921
▁2/1	-15922
▁2/3	-15923
▁21-	-15924
▁228	-15925
▁229	-15926
▁23-	-15927
▁267	-15928
▁293	-15929
▁3-4	-15930
▁338	-15931
▁355	-15932
▁40،	-15933
▁435	-15934
▁47%	-15935
▁5.1	-15936
▁512	-15937
▁580	-15938
▁6.1	-15939
▁640	-15940
▁ACP	-15941
▁AGP	-15942
▁AHA	-15943
▁ALS	-15944
▁ANA	-15945
▁ANC	-15946
▁APA	-15947
▁APC	-15948
▁ARP	-15949
▁ASE	-15950
▁AST	-15951
▁Aid	-15952
▁Ard	-15953
▁BAE	-15954
▁BAM	-15955
▁BSN	-15956
▁Bin	-15957
▁Bla	-15958
▁Bod	-15959
▁Bry	-15960
▁CAA	-15961
▁CEC	-15962
▁CFO	-15963
▁CFT	-15964
▁CID	-15965
▁CIF	-15966
▁CMV	-15967
▁COR	-15968
▁CPD	-15969
▁Cai	-15970
▁Cav	-15971
▁Cay	-15972
▁Cel	-15973
▁Cob	-15974
▁Cyp	-15975
▁DEX	-15976
▁DLC	-15977
▁DMN	-15978
▁DVT	-15979
▁Dee	-15980
▁Dic	-15981
▁Dor	-15982
▁Dot	-15983
▁Dry	-15984
▁EAT	-15985
▁ECO	-15986
▁EMC	-15987
▁EMI	-15988
▁EML	-15989
▁Ein	-15990
▁Eis	-15991
▁Elm	-15992
▁Elv	-15993
▁Emm	-15994
▁Exy	-15995
▁FAO	-15996
▁Fic	-15997
▁GCC	-15998
▁GTU	-15999
▁Gap	-16000
▁Ges	-16001
▁Guc	-16002
▁HCL	-16003
▁HGH	-16004
▁HLA	-16005
▁Hay	-16006
▁Hik	-16007
▁Hop	-16008
▁Hud	-16009
▁Hue	-16010
▁Hur	-16011
▁Hyu	-16012
▁IAS	-16013
▁IGF	-16014
▁IME	-16015
▁IPH	-16016
▁IRS	-16017
▁Ide	-16018
▁IgM	-16019
▁Ink	-16020
▁Its	-16021
▁JAM	-16022
▁JPG	-16023
▁JPL	-16024
▁Jig	-16025
▁Jin	-16026
▁Kay	-16027
▁Kri	-16028
▁LAM	-16029
▁LIS	-16030
▁LTC	-16031
▁LTD	-16032
▁Lei	-16033
▁Lie	-16034
▁MIM	-16035
▁MLA	-16036
▁MON	-16037
▁NAT	-16038
▁NER	-16039
▁NGB	-16040
▁NOS	-16041
▁NSX	-16042
▁NTU	-16043
▁NYS	-16044
▁Nao	-16045
▁Nar	-16046
▁Nia	-16047
▁Nit	-16048
▁OPC	-16049
▁OPT	-16050
▁Ola	-16051
▁Opp	-16052
▁Ore	-16053
▁PBC	-16054
▁PCM	-16055
▁PCR	-16056
▁PDC	-16057
▁PHA	-16058
▁PLA	-16059
▁PPL	-16060
▁PRI	-16061
▁PTE	-16062
▁Pac	-16063
▁Pag	-16064
▁Pew	-16065
▁Pix	-16066
▁Put	-16067
▁RES	-16068
▁Rey	-16069
▁Rio	-16070
▁SAL	-16071
▁SCO	-16072
▁SIG	-16073
▁SMD	-16074
▁SOP	-16075
▁SSR	-16076
▁SVG	-16077
▁Sar	-16078
▁Sca	-16079
▁Sco	-16080
▁Sep	-16081
▁Sex	-16082
▁Sid	-16083
▁Ski	-16084
▁Smo	-16085
▁Spl	-16086
▁Suc	-16087
▁Sul	-16088
▁TAL	-16089
▁TAP	-16090
▁TEN	-16091
▁TMJ	-16092
▁TPP	-16093
▁Tec	-16094
▁UCC	-16095
▁UDP	-16096
▁UFC	-16097
▁UFO	-16098
▁UHD	-16099
▁UPC	-16100
▁VAN	-16101
▁WIN	-16102
▁WPF	-16103
▁WPS	-16104
▁WWW	-16105
▁Wit	-16106
▁Wro	-16107
▁Yos	-16108
▁ZIP	-16109
▁ZUK	-16110
▁Zig	-16111
▁alt	-16112
▁aly	-16113
▁ath	-16114
▁bee	-16115
▁big	-16116
▁bis	-16117
▁cas	-16118
▁cer	-16119
▁cta	-16120
▁cto	-16121
▁cut	-16122
▁dar	-16123
▁das	-16124
▁deb	-16125
▁ean	-16126
▁eer	-16127
▁emo	-16128
▁ena	-16129
▁ese	-16130
▁eth	-16131
▁fly	-16132
▁fut	-16133
▁gel	-16134
▁gie	-16135
▁gui	-16136
▁gur	-16137
▁hab	-16138
▁hib	-16139
▁ife	-16140
▁ila	-16141
▁ill	-16142
▁inf	-16143
▁inu	-16144
▁inv	-16145
▁iom	-16146
▁ise	-16147
▁jia	-16148
▁jor	-16149
▁kte	-16150
▁ldo	-16151
▁lio	-16152
▁liv	-16153
▁liz	-16154
▁mai	-16155
▁mum	-16156
▁nix	-16157
▁nji	-16158
▁nov	-16159
▁ode	-16160
▁old	-16161
▁opp	-16162
▁orp	-16163
▁ose	-16164
▁phe	-16165
▁pul	-16166
▁raw	-16167
▁rdo	-16168
▁rgi	-16169
▁rgo	-16170
▁rma	-16171
▁roy	-16172
▁rry	-16173
▁say	-16174
▁tie	-16175
▁tin	-16176
▁tow	-16177
▁tsu	-16178
▁tty	-16179
▁tya	-16180
▁ues	-16181
▁uli	-16182
▁umn	-16183
▁urb	-16184
▁uro	-16185
▁urs	-16186
▁uru	-16187
▁vid	-16188
▁wer	-16189
▁wri	-16190
▁yes	-16191
▁zan	-16192
▁zar	-16193
▁؟!!	-16194
▁آبا	-16195
▁آند	-16196
▁آنه	-16197
▁آيه	-16198
▁آیم	-16199
▁ئرو	-16200
▁ارژ	-16201
▁اصی	-16202
▁اچا	-16203
▁بخل	-16204
▁بما	-16205
▁بمن	-16206
▁تاچ	-16207
▁تسو	-16208
▁تمه	-16209
▁جبه	-16210
▁جدى	-16211
▁جزم	-16212
▁جوز	-16213
▁جید	-16214
▁حدو	-16215
▁حلّ	-16216
▁حوش	-16217
▁خاك	-16218
▁خصا	-16219
▁خضر	-16220
▁دسا	-16221
▁دسک	-16222
▁دلو	-16223
▁دير	-16224
▁دکس	-16225
▁رئو	-16226
▁ربّ	-16227
▁رخر	-16228
▁رلت	-16229
▁رلم	-16230
▁رنه	-16231
▁روو	-16232
▁ريخ	-16233
▁زمر	-16234
▁زوه	-16235
▁سدر	-16236
▁سدی	-16237
▁سرف	-16238
▁سكن	-16239
▁سلح	-16240
▁سله	-16241
▁سلی	-16242
▁سنّ	-16243
▁سوف	-16244
▁سِر	-16245
▁سگم	-16246
▁سیخ	-16247
▁سیف	-16248
▁شاا	-16249
▁شنب	-16250
▁شهد	-16251
▁شکه	-16252
▁ضاف	-16253
▁ضدّ	-16254
▁ضیا	-16255
▁طاس	-16256
▁طیه	-16257
▁عای	-16258
▁عبث	-16259
▁عجم	-16260
▁عشر	-16261
▁عفت	-16262
▁غمی	-16263
▁فخر	-16264
▁فلت	-16265
▁فیش	-16266
▁قره	-16267
▁قسر	-16268
▁قلا	-16269
▁قلد	-16270
▁قیة	-16271
▁كسى	-16272
▁لنت	-16273
▁لنل	-16274
▁لپس	-16275
▁متم	-16276
▁مير	-16277
▁مکی	-16278
▁نبش	-16279
▁نبل	-16280
▁نتگ	-16281
▁نخی	-16282
▁نوف	-16283
▁نیپ	-16284
▁هجی	-16285
▁هنک	-16286
▁هوت	-16287
▁هوگ	-16288
▁هیگ	-16289
▁واخ	-16290
▁واط	-16291
▁وبو	-16292
▁وحد	-16293
▁ورث	-16294
▁وغا	-16295
▁وفر	-16296
▁وكل	-16297
▁ولخ	-16298
▁ولس	-16299
▁ولپ	-16300
▁ومر	-16301
▁وچه	-16302
▁ویغ	-16303
▁پود	-16304
▁چدن	-16305
▁چری	-16306
▁چنی	-16307
▁چوی	-16308
▁چپم	-16309
▁چکه	-16310
▁ژله	-16311
▁کتف	-16312
▁کدا	-16313
▁کسن	-16314
▁کلک	-16315
▁کچل	-16316
▁گتی	-16317
▁گلد	-16318
▁گِل	-16319
▁یاث	-16320
▁یسف	-16321
▁یصل	-16322
▁یضو	-16323
▁یلف	-16324
▁ینل	-16325
▁۱٫۶	-16326
▁۱۰٫	-16327
▁۱۵۶	-16328
▁۱۵۹	-16329
▁۱۹۰	-16330
▁۲۵٪	-16331
▁۴٫۵	-16332
▁۵۵۰	-16333
▁۷۵٪	-16334
▁۸۵٪	-16335
▁۸۵۰	-16336
▁۹۱۱	-16337
▁AMBA	-16338
▁ASAP	-16339
▁ASME	-16340
▁Anci	-16341
▁Anni	-16342
▁Aude	-16343
▁Avia	-16344
▁Bana	-16345
▁Bast	-16346
▁Baza	-16347
▁Beer	-16348
▁Blow	-16349
▁Bolt	-16350
▁Bond	-16351
▁Bour	-16352
▁Bron	-16353
▁CCTV	-16354
▁CDMA	-16355
▁CODE	-16356
▁Cand	-16357
▁Cape	-16358
▁Caro	-16359
▁Carp	-16360
▁Clay	-16361
▁Crew	-16362
▁Dale	-16363
▁Dare	-16364
▁Dart	-16365
▁Dayd	-16366
▁Defi	-16367
▁Deli	-16368
▁Dema	-16369
▁Deut	-16370
▁Dick	-16371
▁Dish	-16372
▁Dome	-16373
▁Esta	-16374
▁Exxo	-16375
▁FXCC	-16376
▁Feli	-16377
▁Fini	-16378
▁Flor	-16379
▁Frog	-16380
▁Froz	-16381
▁GIMP	-16382
▁Gamb	-16383
▁Gill	-16384
▁Glen	-16385
▁Goal	-16386
▁Gord	-16387
▁Gran	-16388
▁Hang	-16389
▁Hoot	-16390
▁IONS	-16391
▁ISMS	-16392
▁ISSN	-16393
▁Indi	-16394
▁Invi	-16395
▁JOSM	-16396
▁Jedi	-16397
▁Kane	-16398
▁Kart	-16399
▁Keys	-16400
▁Late	-16401
▁Leav	-16402
▁Ledg	-16403
▁Lego	-16404
▁Lies	-16405
▁Lisp	-16406
▁Lose	-16407
▁Luck	-16408
▁Lyft	-16409
▁MEMS	-16410
▁Madd	-16411
▁Magi	-16412
▁Mala	-16413
▁Many	-16414
▁Mapp	-16415
▁Mash	-16416
▁Maxi	-16417
▁Mela	-16418
▁Ment	-16419
▁Meri	-16420
▁Mili	-16421
▁Mine	-16422
▁Modi	-16423
▁Mona	-16424
▁Monu	-16425
▁Mood	-16426
▁Mull	-16427
▁Must	-16428
▁NOAA	-16429
▁NOVA	-16430
▁Navy	-16431
▁Novo	-16432
▁Orch	-16433
▁Otto	-16434
▁PUBG	-16435
▁PaaS	-16436
▁Pace	-16437
▁Patt	-16438
▁Pear	-16439
▁Pepp	-16440
▁Pira	-16441
▁Pont	-16442
▁Posi	-16443
▁Prec	-16444
▁Push	-16445
▁Pyra	-16446
▁Quer	-16447
▁Race	-16448
▁Rage	-16449
▁Recy	-16450
▁SNMP	-16451
▁STOR	-16452
▁Saga	-16453
▁Samp	-16454
▁Savi	-16455
▁Sega	-16456
▁Seth	-16457
▁Shin	-16458
▁Silk	-16459
▁Size	-16460
▁Slim	-16461
▁Snip	-16462
▁Sust	-16463
▁Syna	-16464
▁Taka	-16465
▁Tang	-16466
▁Than	-16467
▁Timo	-16468
▁Toro	-16469
▁Tria	-16470
▁Turi	-16471
▁UCAM	-16472
▁USDA	-16473
▁Unli	-16474
▁VOIP	-16475
▁Very	-16476
▁Visi	-16477
▁WORK	-16478
▁Walt	-16479
▁Wine	-16480
▁Wise	-16481
▁Worm	-16482
▁XBOX	-16483
▁Zapp	-16484
▁Zend	-16485
▁arti	-16486
▁assi	-16487
▁bach	-16488
▁bact	-16489
▁best	-16490
▁bust	-16491
▁cert	-16492
▁cial	-16493
▁club	-16494
▁cook	-16495
▁corp	-16496
▁crit	-16497
▁cust	-16498
▁dead	-16499
▁dica	-16500
▁dust	-16501
▁edia	-16502
▁edit	-16503
▁fect	-16504
▁ffin	-16505
▁fier	-16506
▁flex	-16507
▁gate	-16508
▁gren	-16509
▁hark	-16510
▁heet	-16511
▁hide	-16512
▁hiev	-16513
▁holo	-16514
▁hood	-16515
▁hour	-16516
▁href	-16517
▁iful	-16518
▁inum	-16519
▁lain	-16520
▁lear	-16521
▁lish	-16522
▁lore	-16523
▁mall	-16524
▁mind	-16525
▁minu	-16526
▁mond	-16527
▁must	-16528
▁nbul	-16529
▁nchy	-16530
▁ndes	-16531
▁next	-16532
▁ntia	-16533
▁omni	-16534
▁orta	-16535
▁oser	-16536
▁rack	-16537
▁reat	-16538
▁resu	-16539
▁rgia	-16540
▁rial	-16541
▁risk	-16542
▁rose	-16543
▁rull	-16544
▁shaw	-16545
▁simp	-16546
▁span	-16547
▁spec	-16548
▁sted	-16549
▁stor	-16550
▁tica	-16551
▁tric	-16552
▁vich	-16553
▁wild	-16554
▁wolf	-16555
▁zero	-16556
▁zing	-16557
▁zole	-16558
▁ئوری	-16559
▁ائبه	-16560
▁ابات	-16561
▁ابور	-16562
▁اتسو	-16563
▁اتلا	-16564
▁اتما	-16565
▁اثیر	-16566
▁ادین	-16567
▁ارنو	-16568
▁اریك	-16569
▁ازلو	-16570
▁اشتر	-16571
▁اشتن	-16572
▁اطمی	-16573
▁افیل	-16574
▁الاد	-16575
▁الند	-16576
▁انتز	-16577
▁انيا	-16578
▁اهوا	-16579
▁اورز	-16580
▁اویش	-16581
▁ايمز	-16582
▁اینز	-16583
▁ایون	-16584
▁باتی	-16585
▁برنگ	-16586
▁بریا	-16587
▁تامب	-16588
▁تانا	-16589
▁تانت	-16590
▁تاوا	-16591
▁ترائ	-16592
▁تراپ	-16593
▁تقین	-16594
▁توسر	-16595
▁توکد	-16596
▁تکنو	-16597
▁تیکی	-16598
▁جبیر	-16599
▁حاله	-16600
▁دجال	-16601
▁دروم	-16602
▁دسمب	-16603
▁دوده	-16604
▁دوسش	-16605
▁دوند	-16606
▁دونن	-16607
▁دینس	-16608
▁دیوی	-16609
▁رابت	-16610
▁رانز	-16611
▁رانگ	-16612
▁رايه	-16613
▁رباس	-16614
▁رثیه	-16615
▁رزای	-16616
▁رزون	-16617
▁رغام	-16618
▁رغره	-16619
▁رقوم	-16620
▁رلین	-16621
▁رمین	-16622
▁رنزو	-16623
▁رنیا	-16624
▁رهوت	-16625
▁روتا	-16626
▁رودخ	-16627
▁رودز	-16628
▁رودن	-16629
▁روسف	-16630
▁رومپ	-16631
▁رونز	-16632
▁روور	-16633
▁روپا	-16634
▁روگر	-16635
▁رکوک	-16636
▁ریتز	-16637
▁ریدی	-16638
▁ریزک	-16639
▁ریضه	-16640
▁ریفل	-16641
▁رینس	-16642
▁ریول	-16643
▁ریگی	-16644
▁زبست	-16645
▁زفری	-16646
▁زولا	-16647
▁زونا	-16648
▁زویر	-16649
▁ستاپ	-16650
▁سترز	-16651
▁ستود	-16652
▁سستن	-16653
▁سکین	-16654
▁سیمو	-16655
▁شادو	-16656
▁شرین	-16657
▁شسکو	-16658
▁شوتر	-16659
▁شیکو	-16660
▁صحاب	-16661
▁طالت	-16662
▁غندر	-16663
▁فانو	-16664
▁فدرا	-16665
▁قوان	-16666
▁لاسک	-16667
▁لتیک	-16668
▁لدور	-16669
▁لوسی	-16670
▁لیات	-16671
▁لیشه	-16672
▁لینو	-16673
▁لیکر	-16674
▁مالت	-16675
▁مانا	-16676
▁ماوی	-16677
▁مبرت	-16678
▁متعه	-16679
▁متوج	-16680
▁ميته	-16681
▁مینو	-16682
▁مینگ	-16683
▁میوپ	-16684
▁نانه	-16685
▁نتال	-16686
▁نترن	-16687
▁نخیت	-16688
▁ندون	-16689
▁نفلد	-16690
▁نهند	-16691
▁نوفر	-16692
▁نکیک	-16693
▁نگان	-16694
▁نیتو	-16695
▁نینو	-16696
▁نیوس	-16697
▁هارپ	-16698
▁هبان	-16699
▁هراس	-16700
▁هران	-16701
▁هریر	-16702
▁هلال	-16703
▁هناز	-16704
▁هنور	-16705
▁هوتل	-16706
▁هورو	-16707
▁هیپی	-16708
▁وارک	-16709
▁وانس	-16710
▁وایر	-16711
▁وایز	-16712
▁وبلز	-16713
▁وتیس	-16714
▁ودات	-16715
▁وراف	-16716
▁ورنل	-16717
▁ورگن	-16718
▁وسمی	-16719
▁وفید	-16720
▁ولوز	-16721
▁ولوم	-16722
▁وچین	-16723
▁وکال	-16724
▁ویتا	-16725
▁ویجر	-16726
▁ویدز	-16727
▁پارس	-16728
▁پایا	-16729
▁پیاد	-16730
▁چینگ	-16731
▁چیکو	-16732
▁ژانو	-16733
▁کاما	-16734
▁کاکو	-16735
▁کسول	-16736
▁کسکه	-16737
▁کنزی	-16738
▁کوزی	-16739
▁کینو	-16740
▁گلیا	-16741
▁گلیف	-16742
▁یارک	-16743
▁یبون	-16744
▁یترا	-16745
▁یتنس	-16746
▁یتیک	-16747
▁یجار	-16748
▁یدین	-16749
▁یرای	-16750
▁یریت	-16751
▁یزلی	-16752
▁یسون	-16753
▁یسین	-16754
▁یقلی	-16755
▁یلام	-16756
▁یلای	-16757
▁یلیک	-16758
▁یمنو	-16759
▁یناس	-16760
▁یندر	-16761
▁ینکس	-16762
▁یولن	-16763
▁یونس	-16764
▁یکاپ	-16765
▁یکور	-16766
▁“...	-16767
▁Astra	-16768
▁Aweso	-16769
▁Based	-16770
▁Bread	-16771
▁Brush	-16772
▁Built	-16773
▁Camel	-16774
▁Chain	-16775
▁Corre	-16776
▁Crowd	-16777
▁Daddy	-16778
▁Droid	-16779
▁EQUIS	-16780
▁Eagle	-16781
▁Early	-16782
▁Email	-16783
▁Engel	-16784
▁Inspi	-16785
▁Janua	-16786
▁Japan	-16787
▁Korea	-16788
▁Lodge	-16789
▁Logme	-16790
▁Mauri	-16791
▁ONVIF	-16792
▁Peace	-16793
▁Perso	-16794
▁Prest	-16795
▁Ridge	-16796
▁SWIFT	-16797
▁Santa	-16798
▁Shake	-16799
▁Sheet	-16800
▁Shoot	-16801
▁Shopi	-16802
▁Slack	-16803
▁Strai	-16804
▁Thief	-16805
▁Thomp	-16806
▁Trell	-16807
▁Truck	-16808
▁Tweet	-16809
▁Twili	-16810
▁Versa	-16811
▁Views	-16812
▁Zelda	-16813
▁alpha	-16814
▁blogg	-16815
▁bound	-16816
▁cache	-16817
▁const	-16818
▁creat	-16819
▁cross	-16820
▁curre	-16821
▁disea	-16822
▁flare	-16823
▁fresh	-16824
▁gmail	-16825
▁grade	-16826
▁hydro	-16827
▁ifact	-16828
▁maker	-16829
▁model	-16830
▁modul	-16831
▁music	-16832
▁polis	-16833
▁possi	-16834
▁prese	-16835
▁print	-16836
▁quare	-16837
▁roach	-16838
▁spect	-16839
▁stell	-16840
▁stock	-16841
▁store	-16842
▁touch	-16843
▁versa	-16844
▁ارتار	-16845
▁اردنر	-16846
▁الاکا	-16847
▁الاگا	-16848
▁الوین	-16849
▁اموکس	-16850
▁انتون	-16851
▁انوکا	-16852
▁انیول	-16853
▁اهیتا	-16854
▁اپلیک	-16855
▁بتذال	-16856
▁بنیتس	-16857
▁تلیال	-16858
▁حدودی	-16859
▁داموس	-16860
▁دبیار	-16861
▁دریگو	-16862
▁دندون	-16863
▁دنیزو	-16864
▁رازیل	-16865
▁رافکن	-16866
▁رایتر	-16867
▁راینو	-16868
▁ردانو	-16869
▁رلئون	-16870
▁ریبوف	-16871
▁ریزبن	-16872
▁رینوپ	-16873
▁ریپال	-16874
▁زابلا	-16875
▁زاویۀ	-16876
▁زبورن	-16877
▁زیگمو	-16878
▁ساختا	-16879
▁ستاکس	-16880
▁ستنیت	-16881
▁شمالو	-16882
▁شکالت	-16883
▁فروشن	-16884
▁قائات	-16885
▁لامین	-16886
▁لمارت	-16887
▁منازع	-16888
▁میبیا	-16889
▁میخوا	-16890
▁مینیت	-16891
▁نتاین	-16892
▁نتیکت	-16893
▁نجینگ	-16894
▁ندانی	-16895
▁ندلیف	-16896
▁نزالی	-16897
▁نکتون	-16898
▁هالند	-16899
▁هامان	-16900
▁هایدل	-16901
▁هایپو	-16902
▁هایکو	-16903
▁هذیان	-16904
▁هولدن	-16905
▁وانوو	-16906
▁وتاما	-16907
▁ودریچ	-16908
▁ورتکس	-16909
▁ورتگا	-16910
▁وردوز	-16911
▁وزخند	-16912
▁ولینز	-16913
▁وماتر	-16914
▁وهورت	-16915
▁کاروس	-16916
▁گورود	-16917
▁یادان	-16918
▁یرانو	-16919
▁یشالا	-16920
▁یلاطس	-16921
▁یلیان	-16922
▁یمونز	-16923
▁یناتر	-16924
▁ینانس	-16925
-3	-16926
-6	-16927
1-	-16928
15	-16929
18	-16930
2,	-16931
22	-16932
35	-16933
86	-16934
8]	-16935
8،	-16936
90	-16937
=0	-16938
CI	-16939
EU	-16940
FU	-16941
IO	-16942
In	-16943
KI	-16944
MC	-16945
MU	-16946
No	-16947
OG	-16948
OH	-16949
SI	-16950
St	-16951
TU	-16952
UC	-16953
VV	-16954
We	-16955
cp	-16956
cs	-16957
fs	-16958
js	-16959
nP	-16960
pg	-16961
uu	-16962
vc	-16963
vv	-16964
wh	-16965
ys	-16966
ät	-16967
ör	-16968
آه	-16969
آپ	-16970
أس	-16971
اى	-16972
اچ	-16973
بس	-16974
صف	-16975
نک	-16976
چف	-16977
یخ	-16978
۲۵	-16979
۳۰	-16980
۳۱	-16981
۴۰	-16982
▁	-16983
▁ä	-16984
▁ğ	-16985
▁̈	-16986
▁Δ	-16987
▁μ	-16988
▁ٿ	-16989
▁„	-16990
▁⁪	-16991
▁◊	-16992
▁♬	-16993
▁♯	-16994
▁⚡	-16995
▁✤	-16996
▁✭	-16997
▁⦁	-16998
▁	-16999
▁	-17000
▁👈	-17001
▁🔴	-17002
ACC	-17003
ANS	-17004
ASS	-17005
EGA	-17006
PNP	-17007
TSE	-17008
UST	-17009
akk	-17010
anc	-17011
avi	-17012
cep	-17013
edd	-17014
esc	-17015
ffi	-17016
glo	-17017
gra	-17018
gue	-17019
hoo	-17020
hua	-17021
ier	-17022
igg	-17023
ils	-17024
iry	-17025
occ	-17026
ote	-17027
res	-17028
rug	-17029
uca	-17030
udi	-17031
umm	-17032
ved	-17033
yer	-17034
yph	-17035
zzy	-17036
ئان	-17037
ئیت	-17038
اسه	-17039
باخ	-17040
برل	-17041
برن	-17042
تاژ	-17043
تیس	-17044
خار	-17045
ذول	-17046
ردگ	-17047
روک	-17048
ریو	-17049
زود	-17050
سوز	-17051
سیپ	-17052
لوف	-17053
ندی	-17054
وسا	-17055
ونی	-17056
ویچ	-17057
يله	-17058
یسم	-17059
▁")	-17060
▁(.	-17061
▁)؛	-17062
▁1%	-17063
▁1,	-17064
▁3ـ	-17065
▁8/	-17066
▁;)	-17067
▁AY	-17068
▁Ae	-17069
▁Cb	-17070
▁EI	-17071
▁EK	-17072
▁Ek	-17073
▁Ez	-17074
▁FF	-17075
▁Ib	-17076
▁Ip	-17077
▁JR	-17078
▁KD	-17079
▁KK	-17080
▁KW	-17081
▁LF	-17082
▁LN	-17083
▁LW	-17084
▁MR	-17085
▁NN	-17086
▁Nf	-17087
▁Ny	-17088
▁OU	-17089
▁Ou	-17090
▁Ow	-17091
▁Oy	-17092
▁PQ	-17093
▁Pv	-17094
▁Pw	-17095
▁Qt	-17096
▁RB	-17097
▁RG	-17098
▁SX	-17099
▁Ut	-17100
▁VP	-17101
▁WT	-17102
▁XT	-17103
▁XV	-17104
▁YA	-17105
▁Zu	-17106
▁].	-17107
▁af	-17108
▁ao	-17109
▁ax	-17110
▁db	-17111
▁dn	-17112
▁eC	-17113
▁fb	-17114
▁gs	-17115
▁iC	-17116
▁iW	-17117
▁lm	-17118
▁lr	-17119
▁nj	-17120
▁oy	-17121
▁tv	-17122
▁tà	-17123
▁ud	-17124
▁xa	-17125
▁xx	-17126
▁yr	-17127
▁»»	-17128
▁؟”	-17129
▁أن	-17130
▁ؤا	-17131
▁ئا	-17132
▁دَ	-17133
▁ذو	-17134
▁هَ	-17135
▁٢۴	-17136
▁٢۵	-17137
▁٤٥	-17138
▁۶٪	-17139
▁“/	-17140
bean	-17141
ista	-17142
orba	-17143
rupp	-17144
ulga	-17145
ummi	-17146
اووس	-17147
▁(-)	-17148
▁(13	-17149
▁(16	-17150
▁(21	-17151
▁(50	-17152
▁-->	-17153
▁.::	-17154
▁0.4	-17155
▁0.6	-17156
▁0.7	-17157
▁0.9	-17158
▁007	-17159
▁1-3	-17160
▁1/4	-17161
▁11)	-17162
▁136	-17163
▁137	-17164
▁139	-17165
▁13،	-17166
▁142	-17167
▁14،	-17168
▁15,	-17169
▁16%	-17170
▁163	-17171
▁176	-17172
▁178	-17173
▁17،	-17174
▁186	-17175
▁19)	-17176
▁191	-17177
▁192	-17178
▁193	-17179
▁194	-17180
▁196	-17181
▁2).	-17182
▁2-4	-17183
▁201	-17184
▁203	-17185
▁211	-17186
▁216	-17187
▁235	-17188
▁245	-17189
▁253	-17190
▁27-	-17191
▁272	-17192
▁295	-17193
▁3).	-17194
▁3-2	-17195
▁3.9	-17196
▁313	-17197
▁31،	-17198
▁340	-17199
▁343	-17200
▁4-6	-17201
▁4.9	-17202
▁432	-17203
▁433	-17204
▁443	-17205
▁45%	-17206
▁50-	-17207
▁51%	-17208
▁510	-17209
▁520	-17210
▁530	-17211
▁540	-17212
▁6.2	-17213
▁6.4	-17214
▁680	-17215
▁690	-17216
▁7.0	-17217
▁710	-17218
▁777	-17219
▁8.2	-17220
▁8.8	-17221
▁840	-17222
▁9.5	-17223
▁92%	-17224
▁93%	-17225
▁970	-17226
▁999	-17227
▁ACA	-17228
▁ACR	-17229
▁ADB	-17230
▁ADE	-17231
▁AHD	-17232
▁AHR	-17233
▁AKP	-17234
▁AMS	-17235
▁ASS	-17236
▁ATE	-17237
▁AVR	-17238
▁Aar	-17239
▁Ain	-17240
▁Aka	-17241
▁Ala	-17242
▁Alf	-17243
▁Ame	-17244
▁Asa	-17245
▁Asy	-17246
▁Ath	-17247
[...]
