<unk>	0
<s>	0
</s>	0
.	-3.30903
▁و	-3.62093
▁در	-3.66394
▁به	-3.70742
،	-3.75492
▁می	-3.79701
▁که	-3.88778
▁از	-3.89906
▁را	-4.0373
▁است	-4.21383
▁این	-4.30045
▁های	-4.64667
▁برای	-4.7829
▁با	-4.79342
▁یک	-4.83047
ی	-4.96003
▁ها	-5.05021
▁آن	-5.12503
▁شما	-5.32973
▁خود	-5.45012
▁کند	-5.52444
▁شود	-5.54465
▁یا	-5.61561
▁شده	-5.6267
:	-5.62848
▁ما	-5.66014
▁تا	-5.69321
▁کنید	-5.74628
▁او	-5.83149
▁(	-5.84151
▁ای	-5.86431
▁کنند	-5.86432
▁بود	-5.86499
)	-5.88131
▁سال	-5.90617
▁من	-5.91254
▁بر	-5.93564
▁هر	-5.96281
▁اما	-5.99196
▁هم	-5.99636
▁باشد	-6.0114
▁کار	-6.0399
▁دارد	-6.05526
▁کرد	-6.07949
▁نمی	-6.09097
؟	-6.09248
▁آنها	-6.09336
▁باید	-6.09865
▁شد	-6.13087
▁«	-6.17092
▁استفاده	-6.18827
▁اگر	-6.22183
▁،	-6.25767
▁ی	-6.27659
▁هستند	-6.31834
▁مورد	-6.34538
▁کرده	-6.37933
▁دهد	-6.38024
▁انجام	-6.40829
▁اند	-6.44985
▁تواند	-6.46643
▁دیگر	-6.46854
▁همه	-6.47313
▁وجود	-6.47727
▁دو	-6.49183
▁چه	-6.50562
▁نیز	-6.51336
▁حال	-6.52918
▁عنوان	-6.547
▁قرار	-6.55157
▁خواهد	-6.57029
ه	-6.57043
▁	-6.58127
▁داشته	-6.61234
▁زندگی	-6.66088
▁نیست	-6.68973
»	-6.68988
▁ممکن	-6.69998
▁شوند	-6.72948
▁دست	-6.73422
▁بین	-6.74037
▁پس	-6.75197
▁داده	-6.75307
▁روی	-6.75429
▁.	-6.75957
▁روز	-6.76526
▁بسیار	-6.77141
▁دارند	-6.77941
▁تر	-6.78904
▁کردن	-6.80794
▁شرکت	-6.81422
▁نظر	-6.82201
▁بیشتر	-6.82588
▁زمان	-6.82758
▁طور	-6.84492
▁"	-6.85281
!	-6.86641
▁کنیم	-6.86972
؛	-6.88689
▁هیچ	-6.88978
▁برنامه	-6.89058
▁هایی	-6.89341
▁تنها	-6.89701
ش	-6.89753
م	-6.90056
▁کمک	-6.93227
▁یکی	-6.93582
▁همچنین	-6.94603
▁مردم	-6.95113
▁پیش	-6.98664
-	-6.98915
▁راه	-7.01061
▁نشان	-7.01327
▁چیزی	-7.02643
▁چند	-7.02718
▁بازی	-7.04854
▁توانید	-7.05031
▁توسط	-7.06228
▁کشور	-7.06659
▁ایجاد	-7.09944
▁جدید	-7.10237
▁نه	-7.10549
▁نیاز	-7.11009
▁تمام	-7.1129
▁فقط	-7.12218
▁صورت	-7.12332
▁داد	-7.12652
.»	-7.1273
▁آیا	-7.12959
▁کنم	-7.14458
▁جهان	-7.15407
...	-7.15534
▁گفت	-7.15714
▁بیش	-7.16869
▁مانند	-7.17498
▁باشید	-7.18268
▁بسیاری	-7.18805
▁بعد	-7.18945
▁افراد	-7.19116
▁حتی	-7.1917
▁دهند	-7.19298
▁اینکه	-7.19854
▁ترین	-7.20726
▁آمریکا	-7.22286
▁برخی	-7.23724
▁نام	-7.24494
های	-7.25308
▁زمانی	-7.26099
▁بزرگ	-7.26425
▁بی	-7.27332
▁کردند	-7.27693
▁ایران	-7.28088
▁باشند	-7.2889
ها	-7.29992
▁افزایش	-7.30482
▁دهید	-7.31489
▁تغییر	-7.32562
▁-	-7.32573
"	-7.3295
▁بار	-7.34365
▁درصد	-7.34414
▁داشت	-7.35178
▁توانند	-7.35813
▁ماه	-7.3582
▁فکر	-7.36066
▁ارائه	-7.37724
▁مهم	-7.38125
▁کسی	-7.40073
▁چگونه	-7.40291
▁همین	-7.40774
▁بوده	-7.40791
▁وقتی	-7.41449
▁“	-7.41888
▁بدون	-7.42204
▁شدن	-7.4339
▁بودند	-7.43437
▁زیادی	-7.43699
▁چرا	-7.44162
▁تولید	-7.44164
▁خانه	-7.44216
▁درباره	-7.44342
▁سه	-7.44466
▁همان	-7.44668
▁گرفته	-7.45012
ِ	-7.45048
▁پیدا	-7.45095
▁انتخاب	-7.45636
▁آب	-7.45871
▁کاهش	-7.47556
▁بخش	-7.4793
▁سیستم	-7.47996
▁خیلی	-7.48519
▁خوب	-7.48907
▁–	-7.49003
▁شروع	-7.49991
▁طول	-7.51369
▁توجه	-7.51618
▁دولت	-7.51723
▁اطلاعات	-7.53627
▁کتاب	-7.53661
▁سایت	-7.53812
▁چیز	-7.53994
▁تو	-7.54556
▁قابل	-7.54866
▁دوست	-7.55344
ان	-7.55489
▁چنین	-7.55985
▁اولین	-7.55989
▁قبل	-7.56264
▁دلیل	-7.56434
s	-7.57097
▁دیگری	-7.57801
ت	-7.57926
▁سازمان	-7.58069
▁کننده	-7.58095
▁بهترین	-7.58566
ین	-7.58751
▁دارید	-7.59181
▁کسب	-7.59334
­	-7.59515
▁نفر	-7.59981
▁خواهید	-7.60587
▁ندارد	-7.60971
▁همیشه	-7.61154
▁فیلم	-7.61498
▁باعث	-7.6191
▁رو	-7.62146
▁بنابراین	-7.62332
▁زبان	-7.62427
▁انسان	-7.62609
▁خدا	-7.62626
▁خواهند	-7.63418
▁:	-7.64486
▁گذشته	-7.64779
▁توسعه	-7.6508
▁گروه	-7.65213
▁...	-7.65581
▁طراحی	-7.65754
▁مدت	-7.65764
▁ولی	-7.65931
▁طریق	-7.66196
,	-7.66581
▁باز	-7.66975
”	-7.67279
▁توان	-7.67853
▁تلاش	-7.69464
▁آنچه	-7.69515
▁مختلف	-7.69547
▁ام	-7.69798
▁روش	-7.70438
▁آینده	-7.70687
▁غیر	-7.70804
▁شامل	-7.71018
▁بهتر	-7.71057
▁جهانی	-7.71578
▁هنوز	-7.71619
▁جنگ	-7.71885
▁اصلی	-7.72148
▁اجتماعی	-7.72608
▁دنبال	-7.72938
▁نوع	-7.73371
▁شهر	-7.73902
▁کاری	-7.74435
▁میان	-7.74801
▁سرمایه	-7.7506
▁ادامه	-7.75537
▁هدف	-7.75784
▁اول	-7.75858
▁گفته	-7.76028
شان	-7.76421
▁تجربه	-7.76597
ن	-7.77281
▁دادن	-7.77578
▁اندازه	-7.77888
▁احساس	-7.78084
▁زنان	-7.78124
▁حدود	-7.78191
▁حاضر	-7.78211
▁خانواده	-7.78572
▁زیرا	-7.78814
تان	-7.79134
▁دارای	-7.79399
▁رشد	-7.79774
▁سر	-7.80128
▁بررسی	-7.80401
▁مصرف	-7.80566
▁هزینه	-7.81096
▁آموزش	-7.81244
▁دانش	-7.81311
▁منطقه	-7.81417
▁بدن	-7.81702
▁یاد	-7.81989
▁المللی	-7.82808
و	-7.82976
▁دانشگاه	-7.83236
]	-7.83327
▁خوبی	-7.83698
▁هفته	-7.83726
▁تبدیل	-7.84419
▁دریافت	-7.84441
▁پاسخ	-7.84482
▁کنترل	-7.84833
▁کامل	-7.85012
▁زمین	-7.85201
▁میلیون	-7.85303
▁بالا	-7.85315
▁درمان	-7.8597
▁فعالیت	-7.86356
▁ساعت	-7.86677
▁تحت	-7.86739
▁اش	-7.86799
▁امروز	-7.8689
▁دوره	-7.86943
▁همراه	-7.87018
▁موضوع	-7.87954
▁وقت	-7.88057
▁فرد	-7.88078
▁تصمیم	-7.88174
▁عمل	-7.88202
▁سطح	-7.88327
▁قدرت	-7.88772
▁بلکه	-7.88989
▁نتیجه	-7.89127
▁صحبت	-7.89467
▁واقع	-7.89546
▁اجازه	-7.90162
▁چون	-7.90276
▁گوید	-7.90861
▁زیر	-7.91237
▁مثال	-7.91279
▁بیماری	-7.91565
▁شاید	-7.92023
▁تعداد	-7.92109
▁مدیریت	-7.92364
▁کم	-7.92552
▁متحده	-7.92913
ا	-7.93044
▁شدند	-7.93148
▁مواد	-7.9316
▁جای	-7.9335
▁دلار	-7.93622
▁پایان	-7.9382
▁کوچک	-7.94236
ۀ	-7.94272
▁نسبت	-7.94402
▁گذاری	-7.94495
▁حالی	-7.95249
▁اید	-7.9565
▁برابر	-7.95938
▁ایالات	-7.96105
▁بیشتری	-7.96183
▁هستید	-7.96305
▁گزارش	-7.96945
▁آغاز	-7.97003
▁درست	-7.97291
▁جمله	-7.97518
▁وارد	-7.97772
▁شرایط	-7.98216
▁تان	-7.98596
▁سازی	-7.99073
▁وی	-7.99147
▁اغلب	-7.9933
▁کردم	-7.99665
▁واقعی	-7.99894
▁حل	-8.00181
▁دنیا	-8.00763
▁ارتباط	-8.00874
▁خاطر	-8.01137
ند	-8.0121
▁پول	-8.01472
▁اروپا	-8.01553
▁شکل	-8.01673
▁چین	-8.01949
▁مطالعه	-8.02073
▁مثل	-8.0212
▁یعنی	-8.02944
▁دیگران	-8.03472
▁رسد	-8.03613
▁مناسب	-8.03624
▁شوید	-8.03892
▁بازار	-8.04001
▁حمایت	-8.04401
▁پروژه	-8.04414
▁کسانی	-8.04591
▁زمینه	-8.04745
▁لازم	-8.05329
▁انرژی	-8.05421
▁گرفت	-8.0552
▁شبکه	-8.05596
▁خدمات	-8.057
▁مشکل	-8.05981
▁نزدیک	-8.05982
(	-8.06192
▁گیرد	-8.06236
▁گونه	-8.06658
▁تیم	-8.06847
▁البته	-8.07551
▁هنگامی	-8.07925
▁چشم	-8.08016
▁اکنون	-8.08711
▁اینجا	-8.09019
▁اقتصادی	-8.0932
▁کودکان	-8.09436
▁مربوط	-8.09495
▁ارزش	-8.09568
▁وب	-8.10191
▁داریم	-8.10405
▁سایر	-8.10603
▁تاریخ	-8.11016
▁اعلام	-8.11076
▁خاص	-8.11345
▁سپس	-8.11599
ى	-8.11702
▁سیاسی	-8.12553
▁کافی	-8.12584
▁خرید	-8.12814
▁گیری	-8.12856
▁مالی	-8.12913
▁اتفاق	-8.13201
▁قیمت	-8.13332
▁اساس	-8.14068
▁قانون	-8.14392
▁کمتر	-8.14458
▁درک	-8.14664
▁زن	-8.14829
▁جامعه	-8.14997
▁دور	-8.15142
▁پر	-8.15268
▁کشورهای	-8.15495
▁كه	-8.15604
▁موارد	-8.16071
▁کمی	-8.16131
▁دارم	-8.16534
▁طبیعی	-8.16681
▁ساخته	-8.1716
▁هرگز	-8.17185
▁بعضی	-8.17365
▁داستان	-8.17438
▁ساده	-8.17589
▁خارج	-8.18437
▁هزار	-8.18669
▁موفقیت	-8.18752
▁فروش	-8.18789
▁امکان	-8.18941
▁نقش	-8.19575
▁عمومی	-8.19849
▁رابطه	-8.19861
▁ساخت	-8.19941
▁روسیه	-8.20061
▁صفحه	-8.20373
▁ویژه	-8.20514
▁حداقل	-8.20657
▁شخصی	-8.21009
▁ملی	-8.21132
▁ایده	-8.21189
▁نگاه	-8.21387
▁مشکلات	-8.21458
▁دوم	-8.21523
▁حقوق	-8.21719
ي	-8.21813
▁آماده	-8.2184
▁هست	-8.22048
▁کل	-8.22276
▁مرگ	-8.2246
▁بهبود	-8.22783
▁کنار	-8.22889
▁رنگ	-8.22961
▁حفظ	-8.22992
».	-8.23137
▁بودن	-8.23838
▁آنجا	-8.239
▁سخت	-8.241
▁افرادی	-8.24249
▁سرعت	-8.24397
▁حرکت	-8.24612
▁سفر	-8.24912
▁سیاست	-8.25698
▁یافته	-8.25952
▁تاثیر	-8.2604
▁جا	-8.26173
▁خون	-8.26204
▁کودک	-8.26249
▁قادر	-8.26479
▁رئیس	-8.2658
▁سوی	-8.2692
▁میزان	-8.27022
▁[	-8.2712
▁حرفه	-8.2723
▁علاوه	-8.27231
▁خطر	-8.27388
▁خداوند	-8.27555
د	-8.27661
▁آنان	-8.27797
به	-8.27821
▁چهار	-8.2795
▁دوباره	-8.27996
▁غذایی	-8.28461
▁طی	-8.28496
▁آسیب	-8.28753
▁شان	-8.28988
▁شب	-8.29145
▁مشخص	-8.2917
▁متفاوت	-8.29286
▁حق	-8.30285
▁ایم	-8.30315
▁خواهیم	-8.30321
▁سراسر	-8.30492
▁خواب	-8.31589
▁دستگاه	-8.31606
▁پرداخت	-8.31964
▁سریع	-8.32032
▁هنگام	-8.32234
▁انتظار	-8.32672
ر	-8.33061
▁دهه	-8.33125
▁خارجی	-8.33149
▁جایی	-8.33229
▁علیه	-8.33537
▁موجود	-8.33924
▁هستیم	-8.33938
▁آید	-8.34032
."	-8.3412
▁وضعیت	-8.34233
▁دیده	-8.344
▁محصولات	-8.34415
ات	-8.34548
▁داشتن	-8.34667
▁2	-8.35002
▁دسترسی	-8.35023
▁واقعا	-8.35048
▁ب	-8.35188
▁طولانی	-8.35206
▁آمریکایی	-8.35362
▁معمولا	-8.35712
▁نتایج	-8.35713
▁بیان	-8.35987
▁زیاد	-8.36026
▁تجاری	-8.36197
▁بخشی	-8.36198
▁مشاهده	-8.36348
▁حد	-8.3707
▁گاهی	-8.37173
▁نشده	-8.37328
▁پایین	-8.37423
▁امنیت	-8.3772
▁دهیم	-8.37825
▁سعی	-8.38009
▁آورد	-8.38099
▁آمده	-8.38146
▁روند	-8.38449
▁شناخته	-8.38521
▁منتشر	-8.38577
▁عکس	-8.38784
▁مشتریان	-8.38925
▁خواهم	-8.39101
▁اضافه	-8.39485
▁معنی	-8.3955
/	-8.39558
▁مکان	-8.39875
▁محیط	-8.40224
▁نباید	-8.40345
در	-8.40417
▁حضور	-8.40543
▁طرف	-8.41197
▁مرد	-8.41417
▁مدل	-8.41512
▁مهارت	-8.41764
▁منابع	-8.4179
▁ایشان	-8.42044
من	-8.42342
▁عالی	-8.42351
▁فرصت	-8.42438
▁کنندگان	-8.42457
▁نمایش	-8.42957
▁پنج	-8.43061
▁بندی	-8.43161
▁درخواست	-8.43238
▁توانایی	-8.4345
▁رود	-8.43523
▁همکاری	-8.43536
▁سمت	-8.43797
▁حقیقت	-8.43933
▁بچه	-8.43986
▁رسانه	-8.44123
▁حالا	-8.4432
▁3	-8.44434
▁چیست	-8.44451
▁بودم	-8.4451
▁ساله	-8.44593
▁10	-8.44617
▁مرکز	-8.45056
▁موفق	-8.45369
▁غذا	-8.45612
▁رخ	-8.45638
▁تمرکز	-8.4579
▁توانیم	-8.45823
▁ثبت	-8.45832
▁حرف	-8.45958
▁طرح	-8.46607
▁جمع	-8.46651
▁اشاره	-8.46747
▁فشار	-8.46949
▁5	-8.46974
▁آزاد	-8.47029
▁روابط	-8.47298
▁محصول	-8.47367
▁نیستند	-8.47369
▁نوشته	-8.47476
▁بعدی	-8.47658
▁توصیه	-8.48164
▁هستم	-8.4823
▁کدام	-8.48263
▁مرحله	-8.48419
▁گویند	-8.4859
▁حمله	-8.48881
▁رفتار	-8.48956
▁فراهم	-8.48975
▁بینی	-8.49086
▁دقیقه	-8.49325
▁اکثر	-8.49477
▁متوجه	-8.49539
▁منجر	-8.49683
▁خودتان	-8.4979
▁علاقه	-8.49856
▁جهت	-8.50109
▁نظامی	-8.50133
▁اعتماد	-8.50559
▁داخلی	-8.50603
▁مقدار	-8.50783
▁آزمایش	-8.50837
▁یافت	-8.50942
▁تغییرات	-8.51032
▁کلی	-8.51121
▁داشتند	-8.51194
▁تحقیقات	-8.51349
▁بگیرید	-8.51575
▁مجموعه	-8.51723
▁کاربران	-8.5181
▁اهمیت	-8.51832
▁گزینه	-8.51838
▁تقریبا	-8.52092
▁صنعت	-8.5223
▁بسته	-8.52268
که	-8.52477
▁خودش	-8.53109
▁رسید	-8.53515
▁گرفتن	-8.53778
مان	-8.5407
▁باشیم	-8.54396
▁ماشین	-8.54416
▁کاملا	-8.54455
▁ندارند	-8.54507
▁یابد	-8.54603
▁انگلیسی	-8.54744
▁اقتصاد	-8.5483
▁اهداف	-8.54896
▁آخرین	-8.54939
▁آموزان	-8.55206
▁گردد	-8.55648
▁دادند	-8.55897
▁آمد	-8.55901
▁باقی	-8.56017
▁تشکیل	-8.56056
▁گیرند	-8.56127
▁پیشرفت	-8.5626
▁نبود	-8.56318
▁اثر	-8.56354
▁قسمت	-8.56421
▁سن	-8.56546
▁کس	-8.56836
▁محل	-8.56873
▁پوست	-8.57159
▁حساب	-8.57636
▁جمهوری	-8.57697
▁منظور	-8.57842
▁مشتری	-8.57946
▁مدرسه	-8.58084
▁بهره	-8.5815
▁امر	-8.58159
▁جریان	-8.58538
▁تشخیص	-8.58624
▁احتمال	-8.58629
▁گسترده	-8.58835
▁انواع	-8.58903
▁اتاق	-8.58911
▁کوتاه	-8.58964
▁آلمان	-8.58996
▁وزن	-8.59
▁تعیین	-8.59042
▁/	-8.59104
▁واقعیت	-8.59256
▁مرتبط	-8.5932
▁سوریه	-8.59834
▁رژیم	-8.59952
▁عملکرد	-8.60096
▁درد	-8.60192
▁مسیر	-8.60245
▁بیرون	-8.6038
▁ابتدا	-8.60448
▁نگه	-8.60667
▁برد	-8.60715
▁باور	-8.60779
▁نرم	-8.60787
▁داخل	-8.60871
▁عشق	-8.60945
▁آزادی	-8.6106
▁مسئله	-8.61357
ک	-8.61376
▁سلامت	-8.61514
▁اطمینان	-8.61636
▁پیشنهاد	-8.61714
▁حالت	-8.61779
▁بحث	-8.6178
ای	-8.61801
▁کیفیت	-8.61854
▁لذت	-8.62135
▁فعال	-8.62221
▁مردان	-8.62228
▁همچنان	-8.6228
▁اجرا	-8.62313
▁اسرائیل	-8.62313
▁الله	-8.62431
▁کشف	-8.62852
▁موسیقی	-8.63059
▁مغز	-8.63157
▁خصوص	-8.63247
▁یکدیگر	-8.63283
▁آنلاین	-8.63363
▁تصویر	-8.63371
)،	-8.63465
▁پشت	-8.63554
▁سرطان	-8.63711
▁جلوگیری	-8.63791
▁اینترنت	-8.63898
▁اولیه	-8.64062
▁کردیم	-8.64075
▁تمامی	-8.64148
▁نور	-8.64172
▁اعضای	-8.64359
▁4	-8.64365
▁نمونه	-8.64457
▁آوری	-8.64462
▁ازدواج	-8.64521
▁نکنید	-8.64668
▁پزشکی	-8.64668
▁C	-8.64677
▁پدر	-8.64803
س	-8.65326
▁مقاله	-8.65332
▁محلی	-8.65343
▁نسخه	-8.65406
▁A	-8.6543
▁افغانستان	-8.6555
▁گوش	-8.65592
▁بد	-8.65648
▁فرانسه	-8.65774
▁هسته	-8.66067
▁محدود	-8.66614
▁۲	-8.66708
▁ویژگی	-8.67166
▁نخواهد	-8.67187
▁روشن	-8.67462
ع	-8.67489
▁ارسال	-8.67549
▁رفت	-8.67619
▁1	-8.67685
▁اخیر	-8.67687
▁جمهور	-8.67749
▁دهنده	-8.67752
).	-8.67827
▁مطمئن	-8.67868
▁نامه	-8.67914
▁قوی	-8.68432
▁دوران	-8.68436
▁زنده	-8.68619
▁نهایت	-8.68838
▁»	-8.69025
▁تجارت	-8.69233
▁سالم	-8.69252
ٔ	-8.6943
▁پشتیبانی	-8.69788
▁جوان	-8.69927
▁گسترش	-8.6993
▁توضیح	-8.69951
▁قرن	-8.70003
▁بازاریابی	-8.70123
▁فرهنگ	-8.70354
▁شخص	-8.70406
▁انتقال	-8.70414
▁درآمد	-8.70508
▁ترکیه	-8.70564
▁تماس	-8.70783
▁مناطق	-8.71182
▁شکست	-8.71192
▁سفید	-8.71203
▁اشتباه	-8.71255
▁جدی	-8.71266
▁مسائل	-8.71339
▁فوق	-8.71481
▁)	-8.71559
▁قوانین	-8.71643
▁خط	-8.71677
▁سوم	-8.71813
▁رفتن	-8.71869
▁اوقات	-8.71876
▁ترک	-8.72075
▁تفاوت	-8.72115
▁تازه	-8.72453
▁شدید	-8.72832
▁بانک	-8.72916
▁۱۰	-8.73103
ید	-8.73142
▁پی	-8.73245
▁ترامپ	-8.73545
▁نقطه	-8.73628
▁جنسی	-8.73656
▁شخصیت	-8.73693
یم	-8.74037
▁کره	-8.74056
▁نیروهای	-8.74177
▁مستقیم	-8.74332
▁ده	-8.74339
این	-8.74386
▁تحقیق	-8.74518
▁قصد	-8.74753
▁استراتژی	-8.74942
▁مبارزه	-8.75081
▁توافق	-8.75448
▁دنیای	-8.75745
▁تکنولوژی	-8.75805
▁جدیدی	-8.75844
▁صلح	-8.75894
ترین	-8.75916
▁کارهای	-8.75958
▁احتمالا	-8.76018
▁یادگیری	-8.76392
▁نشانه	-8.76399
▁شبیه	-8.76562
▁سلول	-8.76588
▁مرا	-8.76592
▁ریزی	-8.76603
▁خصوصی	-8.76639
▁قدیمی	-8.76654
▁نفت	-8.76767
▁۳	-8.77109
▁مادر	-8.77119
تر	-8.7714
▁سوال	-8.77174
▁گوگل	-8.77378
▁معرفی	-8.774
▁تصور	-8.77474
▁مقابل	-8.77571
▁۵	-8.77766
▁دید	-8.7781
▁صرف	-8.77833
▁شدت	-8.78137
▁تمرین	-8.78156
▁پیام	-8.78303
▁موقعیت	-8.78381
▁ساختمان	-8.78491
▁چقدر	-8.78552
▁فضای	-8.78988
▁جان	-8.79193
▁عراق	-8.79291
▁؟	-8.79301
▁آسان	-8.79382
▁ابزار	-8.79424
▁بشر	-8.79446
.”	-8.79538
▁اختیار	-8.79685
▁رسیدن	-8.80193
▁آتش	-8.80275
▁برند	-8.80833
▁خبر	-8.80839
▁دچار	-8.80846
▁بزرگترین	-8.80865
▁مقایسه	-8.81021
▁انسانی	-8.81066
ز	-8.81135
ست	-8.814
▁نکته	-8.81455
▁چطور	-8.81538
▁فصل	-8.81541
▁خودم	-8.81581
▁نیروی	-8.81612
ما	-8.81612
▁B	-8.81739
▁کانادا	-8.81794
▁جز	-8.81843
▁قلب	-8.81845
▁م	-8.81896
▁ذهن	-8.82017
▁اعمال	-8.82284
▁درون	-8.82432
▁آدم	-8.82613
▁همانطور	-8.82641
▁عدم	-8.82675
▁۱	-8.82748
▁مجبور	-8.8275
▁تلفن	-8.82774
▁علمی	-8.82873
▁آقای	-8.83043
▁دوربین	-8.83472
▁بلند	-8.83856
▁راحتی	-8.83909
▁مثبت	-8.83923
▁دقیق	-8.84274
▁حاصل	-8.84298
▁دسترس	-8.84472
▁رسمی	-8.84622
▁اتحادیه	-8.84727
▁نداشته	-8.84792
اً	-8.84948
▁*	-8.85096
از	-8.85145
▁امنیتی	-8.85192
▁رسیده	-8.85319
▁مشابه	-8.85546
▁تهدید	-8.85664
▁میلیارد	-8.8573
▁فردی	-8.85762
▁طبق	-8.85931
▁تأثیر	-8.86019
▁محققان	-8.86073
▁توانم	-8.8609
▁مفید	-8.86098
▁دوستان	-8.86133
▁هوا	-8.86671
▁اقدام	-8.868
▁مشترک	-8.86969
▁فراموش	-8.87011
▁روزانه	-8.87155
▁حزب	-8.87199
▁زده	-8.87602
▁ارزیابی	-8.87707
▁دانشجویان	-8.87722
▁شناسایی	-8.87891
▁عامل	-8.88115
▁دانند	-8.88173
▁مراقبت	-8.8823
▁خوردن	-8.88278
▁علائم	-8.88354
▁نقل	-8.88442
▁کجا	-8.88516
▁اشتراک	-8.88587
▁العاده	-8.88633
▁S	-8.88653
▁عضو	-8.88963
▁لباس	-8.88986
▁جمعیت	-8.89028
▁تحلیل	-8.89044
▁بازگشت	-8.89073
▁پزشک	-8.89222
▁تعریف	-8.89287
▁درجه	-8.89717
▁گرم	-8.8975
▁مطالعات	-8.89911
▁رفته	-8.90027
یک	-8.90364
▁شش	-8.90477
▁خودشان	-8.90513
▁سیاه	-8.9073
▁سبک	-8.90768
▁قانونی	-8.90816
▁اسلامی	-8.90968
▁حمل	-8.91004
▁علت	-8.91276
▁ورزش	-8.9148
▁لحظه	-8.91866
▁ضد	-8.91946
▁خاصی	-8.91947
▁مطرح	-8.92233
▁اطراف	-8.92306
▁پایه	-8.92383
▁کن	-8.92385
▁قرآن	-8.92416
▁”	-8.92625
▁هدایت	-8.92686
▁جستجو	-8.92739
▁حذف	-8.92814
▁نکرده	-8.92885
▁کلاس	-8.93008
▁موجب	-8.9302
▁دولتی	-8.93031
▁واکنش	-8.9319
▁مبتلا	-8.93294
▁منبع	-8.933
▁شمالی	-8.93492
▁چیزهایی	-8.93593
▁6	-8.93876
▁کلمه	-8.94198
▁افتد	-8.94287
▁جذب	-8.94477
▁انقلاب	-8.94479
▁دفاع	-8.94493
▁انتخابات	-8.94581
▁اگرچه	-8.94654
▁فرهنگی	-8.94826
▁ثابت	-8.94867
▁سازد	-8.94893
▁داری	-8.9492
▁پذیر	-8.94933
▁دهم	-8.94991
▁ورود	-8.9503
▁دار	-8.95065
ل	-8.9517
▁پلیس	-8.95376
▁برگزار	-8.95378
▁ضروری	-8.95454
▁بزرگی	-8.95455
D	-8.9563
▁۴	-8.95836
▁هند	-8.96158
▁20	-8.96519
▁بیمار	-8.96559
▁امروزه	-8.96737
▁حوزه	-8.96777
▁متوسط	-8.96835
▁دانلود	-8.96875
▁وزیر	-8.96984
▁موثر	-8.97233
▁امور	-8.97355
▁•	-8.9738
▁ببینید	-8.97384
▁بیماران	-8.9739
▁عوامل	-8.97486
ب	-8.97546
▁اساسی	-8.97645
▁خوش	-8.97646
▁معنای	-8.97673
▁افزار	-8.97752
▁محافظت	-8.9781
▁نجات	-8.97993
▁اجرای	-8.98082
▁ظاهر	-8.98274
▁نگران	-8.98287
٪	-8.98331
▁ماده	-8.98539
▁محتوای	-8.9856
▁ترکیب	-8.9859
▁تنظیم	-8.98678
ـ	-8.98776
▁مدرن	-8.99017
▁تصاویر	-8.99021
▁علی	-8.99203
▁ترس	-8.99365
▁D	-8.99434
▁بدانید	-8.99445
▁پیچیده	-8.99538
▁بگیرد	-8.99539
▁سی	-8.99823
▁حس	-8.99855
▁زیست	-8.99915
▁دختر	-9.00058
▁ستاره	-9.00063
▁آموزشی	-9.00138
2	-9.00164
▁امام	-9.00223
▁تن	-9.00268
▁ماند	-9.00466
▁چالش	-9.00705
▁صدای	-9.00996
▁شیوه	-9.01136
S	-9.01314
▁فناوری	-9.01325
▁انگیز	-9.01337
▁دیدن	-9.01341
▁استاندارد	-9.01359
▁فاصله	-9.01428
▁دکتر	-9.01649
▁فایل	-9.01672
▁حکومت	-9.01742
▁هنر	-9.018
▁کلیدی	-9.0185
▁رقابت	-9.01898
▁مدیر	-9.01965
▁ارتش	-9.02143
▁خواندن	-9.02339
▁ترتیب	-9.02346
▁of	-9.02486
یا	-9.02613
▁دانم	-9.02615
▁بازدید	-9.02701
▁معمولاً	-9.02717
▁آنکه	-9.02722
▁معمول	-9.0291
▁جالب	-9.02928
▁کشته	-9.03161
▁مان	-9.03295
▁خشونت	-9.03345
▁کارت	-9.03399
▁خواست	-9.03572
▁پرواز	-9.03663
▁قبلی	-9.03697
▁دیدگاه	-9.03736
▁پست	-9.03748
▁لیست	-9.03763
▁رهبری	-9.03859
▁نخستین	-9.04144
▁شغل	-9.04334
▁سود	-9.04437
▁جدا	-9.04479
▁جنوبی	-9.04521
▁متوقف	-9.04646
▁تری	-9.04879
▁بتواند	-9.04982
▁مقامات	-9.04996
▁مسئولیت	-9.05054
▁نمود	-9.05066
▁دانشمندان	-9.05096
▁نگرانی	-9.05183
▁ملل	-9.05414
▁امریکا	-9.05487
▁بالای	-9.05507
▁آخر	-9.05638
▁پسر	-9.05686
▁جایگزین	-9.05714
▁سنگ	-9.05719
ون	-9.05851
▁ذخیره	-9.06188
▁وسیله	-9.0619
▁سرویس	-9.063
▁عبارت	-9.06685
▁استرس	-9.06851
▁دانید	-9.07309
▁گفتند	-9.07318
▁مگر	-9.07341
▁درمانی	-9.07538
هایی	-9.07618
▁منفی	-9.07696
▁اقدامات	-9.07708
▁کشورها	-9.07878
▁شماره	-9.07911
▁کامپیوتر	-9.0793
▁مانده	-9.08133
▁دل	-9.08567
▁ناشی	-9.08662
انه	-9.08776
▁علم	-9.08786
▁ان	-9.08816
▁عرضه	-9.08966
▁تست	-9.09192
▁آورده	-9.09235
▁صبح	-9.09443
▁هوایی	-9.09498
▁شدم	-9.09662
▁داند	-9.09704
▁کلمات	-9.09925
▁باشم	-9.09925
▁ت	-9.10005
▁تکرار	-9.10012
▁عمیق	-9.10217
▁تقویت	-9.10265
▁نیازهای	-9.10275
▁عمر	-9.10472
▁نرخ	-9.10727
▁پوشش	-9.10851
▁مهمی	-9.11028
▁بالاتر	-9.11028
می	-9.11079
▁زدن	-9.11227
▁نفس	-9.11323
▁قابلیت	-9.11488
▁ارشد	-9.11541
e	-9.11641
▁ایمیل	-9.11687
▁اینها	-9.11721
▁سلاح	-9.1173
▁توانست	-9.11937
▁هفت	-9.1197
▁نهایی	-9.12075
▁معرض	-9.12128
▁کارکنان	-9.1225
▁اندازی	-9.12258
▁تهیه	-9.12491
▁ال	-9.12555
▁نماید	-9.1261
▁هتل	-9.12838
▁رشته	-9.12844
▁مواجه	-9.12912
▁اسلام	-9.13128
▁مشارکت	-9.13214
▁حیوانات	-9.13323
▁دانیم	-9.13331
▁زیبا	-9.13486
▁خواسته	-9.1365
▁اين	-9.1376
▁نصب	-9.13791
▁نسل	-9.13816
▁عملیات	-9.13841
▁دیجیتال	-9.13842
▁تاریخی	-9.13847
▁کشتی	-9.13928
▁پا	-9.13967
▁شویم	-9.1405
▁برسد	-9.14152
▁خدمت	-9.14155
▁همواره	-9.14292
▁کاملاً	-9.14324
▁کنی	-9.14421
▁15	-9.14508
▁ذکر	-9.14511
▁خلق	-9.14795
▁بگیرند	-9.14998
▁بحران	-9.1503
▁نوشتن	-9.15122
▁قبول	-9.15147
▁شگفت	-9.15186
▁وزارت	-9.15479
C	-9.15836
▁تقسیم	-9.15968
▁روزنامه	-9.16
▁جواب	-9.16196
▁فیزیکی	-9.16315
▁مرکزی	-9.16321
▁مستقل	-9.16501
▁7	-9.16557
▁وعده	-9.16583
A	-9.16819
▁کاربر	-9.17073
▁The	-9.17197
▁ژاپن	-9.17235
▁اداره	-9.17455
▁خودمان	-9.17481
▁تلویزیون	-9.17497
▁گل	-9.17661
▁احساسات	-9.17719
▁رد	-9.17734
▁خانم	-9.17788
▁آوردن	-9.17931
▁ساختار	-9.17947
▁سالگی	-9.18133
▁8	-9.18222
▁دسته	-9.18469
▁عوض	-9.1857
▁بله	-9.18741
▁صورتی	-9.1877
▁اطلاعاتی	-9.18784
▁زندان	-9.18804
با	-9.18951
▁واقعاً	-9.19003
▁رایگان	-9.19207
▁رهبران	-9.19267
▁غربی	-9.19402
▁هوشمند	-9.19514
▁30	-9.1953
▁تمایل	-9.19554
▁چینی	-9.19592
▁برقرار	-9.19659
er	-9.19934
▁محدودیت	-9.19957
▁نویسنده	-9.19984
▁سخن	-9.20373
▁نظام	-9.20414
▁مشغول	-9.20438
▁علوم	-9.20473
▁دندان	-9.2057
▁لحاظ	-9.20857
▁اروپایی	-9.20932
▁زیبایی	-9.21175
▁استرالیا	-9.21238
▁مطلب	-9.21242
▁گذاشته	-9.21247
▁سلامتی	-9.21248
1	-9.21321
▁گوشی	-9.21324
▁نباشد	-9.21373
▁الان	-9.21561
▁غرب	-9.21826
▁مختلفی	-9.21951
▁میشود	-9.21967
▁راحت	-9.22272
▁12	-9.22286
▁دلایل	-9.22499
▁تایید	-9.225
▁جراحی	-9.22534
▁دقت	-9.22673
▁قدم	-9.22683
y	-9.22695
▁عاشق	-9.22832
▁دشوار	-9.22905
▁داشتم	-9.23058
▁خورشید	-9.23264
▁راست	-9.23274
▁سگ	-9.23317
▁پیاده	-9.23329
▁فعلی	-9.23416
▁فرزند	-9.23418
▁واحد	-9.23491
▁گام	-9.23512
▁دادگاه	-9.23545
▁نحوه	-9.23628
G	-9.23682
▁متحد	-9.23807
▁احترام	-9.23868
▁طبقه	-9.23881
▁­	-9.24049
▁منحصر	-9.24201
ing	-9.24307
▁اقامت	-9.24637
▁منافع	-9.24653
▁آرام	-9.24834
▁آمیز	-9.24838
▁نظارت	-9.24897
▁آگاهی	-9.24944
▁بریتانیا	-9.2505
▁تحریم	-9.25192
▁بودجه	-9.25241
▁نخست	-9.25274
▁انداز	-9.25445
▁عربستان	-9.25594
▁تبلیغات	-9.25718
3	-9.2581
▁18	-9.25831
▁قهوه	-9.25863
▁برق	-9.25884
▁چگونگی	-9.26001
▁گاز	-9.26047
▁باره	-9.2629
▁برخورد	-9.2629
▁قدر	-9.26488
▁۲۰	-9.26528
ف	-9.26528
▁حفاظت	-9.26663
▁ایمان	-9.26686
▁صنعتی	-9.26784
▁میکند	-9.2702
▁عادی	-9.27115
▁گذارد	-9.27771
▁اصل	-9.27888
▁مصاحبه	-9.2791
▁شیمیایی	-9.2791
▁منتقل	-9.28045
▁بدهید	-9.28079
▁شاهد	-9.28106
▁شمال	-9.28182
▁بگذارید	-9.28187
▁درس	-9.28519
▁امید	-9.28595
▁دفتر	-9.28596
▁مزایای	-9.28733
▁جلسه	-9.2888
▁محبوب	-9.29005
▁عقب	-9.29021
▁مند	-9.29148
؟»	-9.29169
▁والدین	-9.29339
▁سبز	-9.29417
▁روغن	-9.29436
▁بیمارستان	-9.29442
▁دی	-9.29476
▁بدست	-9.29477
▁تضمین	-9.29864
%	-9.29874
▁P	-9.29907
▁رنج	-9.29945
▁روزی	-9.30083
▁گفتم	-9.30157
▁روح	-9.30163
▁حملات	-9.30328
▁۶	-9.30486
▁اعتقاد	-9.30553
▁کارگران	-9.30652
▁صحنه	-9.3085
▁عفونت	-9.30988
▁پیشرفته	-9.31025
▁منتظر	-9.311
▁راهی	-9.31125
یت	-9.31302
▁تولد	-9.31337
▁پارک	-9.31396
▁ترجمه	-9.3142
▁بقیه	-9.31421
▁هزاران	-9.31431
▁جایزه	-9.31431
▁جنوب	-9.31437
▁بتوانند	-9.31568
▁ایمنی	-9.31656
▁وبلاگ	-9.31802
▁فرض	-9.31861
▁نقاط	-9.31987
▁دعوت	-9.31987
▁تامین	-9.32114
▁تقریباً	-9.32136
B	-9.32207
▁رتبه	-9.32277
▁نگهداری	-9.32278
▁ویتامین	-9.32418
▁متن	-9.32444
▁مقام	-9.32539
▁فرم	-9.32552
▁اوایل	-9.32581
▁گاه	-9.32616
▁آیند	-9.32649
▁متصل	-9.32707
▁مو	-9.32735
▁بستگی	-9.33147
ال	-9.3316
▁انتشار	-9.33236
▁ملاقات	-9.33433
▁مي	-9.33535
▁جزیره	-9.3358
▁طوری	-9.3359
▁9	-9.33629
▁توجهی	-9.33687
▁عبور	-9.33724
▁اهل	-9.34024
▁فروشگاه	-9.34062
▁فضا	-9.34216
▁گروهی	-9.34244
▁مدیران	-9.3427
▁ایرانی	-9.34448
▁دریایی	-9.34453
▁کارها	-9.34461
▁بردن	-9.34472
▁دارو	-9.34476
▁کانال	-9.34613
▁استاد	-9.34708
▁پژوهش	-9.34851
▁هشدار	-9.34922
▁!	-9.34986
▁اتفاقی	-9.35032
؟!	-9.35213
▁مهاجرت	-9.3526
▁صدا	-9.35339
▁توصیف	-9.35637
▁جزئیات	-9.35658
▁آزمون	-9.35793
▁بودیم	-9.35883
▁اجتناب	-9.3594
▁معروف	-9.35942
▁تعدادی	-9.3602
▁نامیده	-9.3613
▁آسمان	-9.36175
▁برنده	-9.3627
▁نوعی	-9.36397
▁ـ	-9.36612
▁تشویق	-9.36842
▁دستور	-9.37089
▁نداشت	-9.37094
▁بروید	-9.37311
▁تکنیک	-9.37361
▁سری	-9.37468
▁فرآیند	-9.37514
▁50	-9.37543
▁تاکنون	-9.37597
▁یافتن	-9.37715
▁ارتباطات	-9.37749
▁تجهیزات	-9.37755
▁جنبه	-9.37922
▁عادت	-9.38209
▁رهبر	-9.38474
▁E	-9.38724
▁تک	-9.38727
▁مقاومت	-9.38902
▁آشکار	-9.38939
▁اصلاح	-9.38942
▁فراتر	-9.38991
▁بنا	-9.38993
▁وظیفه	-9.38993
▁آشنا	-9.3909
۱	-9.39143
▁ادعا	-9.39205
▁دروغ	-9.39224
▁دین	-9.39245
▁پیروزی	-9.39315
▁میلادی	-9.39363
▁نیمه	-9.3941
▁چاپ	-9.39443
▁دهندگان	-9.39483
▁طبیعت	-9.39542
▁بطور	-9.39592
▁ثانیه	-9.39596
▁امن	-9.39809
▁شیر	-9.39817
▁الهی	-9.39843
▁پرسش	-9.39928
▁افتاد	-9.39987
▁یه	-9.39993
نه	-9.39998
▁امتحان	-9.40027
▁سعودی	-9.4009
▁100	-9.40126
▁آگاه	-9.40151
▁انگیزه	-9.40164
▁شمار	-9.40314
▁متمرکز	-9.40368
▁انجمن	-9.40373
▁بتوانید	-9.4038
▁بهداشت	-9.40429
▁سختی	-9.40454
▁جایگاه	-9.4049
▁امسال	-9.40541
▁بدان	-9.40645
▁کد	-9.40673
▁اضافی	-9.40681
▁عملی	-9.40718
▁مقابله	-9.40788
▁T	-9.408
▁شک	-9.40802
▁کردید	-9.40815
▁فوتبال	-9.40833
▁نیویورک	-9.40841
▁مایل	-9.40889
▁نو	-9.40909
▁نظریه	-9.40979
▁حضرت	-9.40996
▁تغذیه	-9.40997
▁شهری	-9.41018
▁نیازمند	-9.41103
▁قبلا	-9.41137
▁افتاده	-9.41139
▁موتور	-9.41176
▁تحصیل	-9.4122
▁ترجیح	-9.41249
▁مداوم	-9.4131
▁پخش	-9.41311
▁۳۰	-9.41334
▁بیشترین	-9.41403
▁واضح	-9.41469
▁بگویید	-9.41469
▁R	-9.41558
▁قرمز	-9.41563
▁شهروندان	-9.41713
▁برچسب	-9.41789
t	-9.41824
▁درگیر	-9.41856
▁تاکید	-9.41942
▁چهره	-9.42
▁شماست	-9.42031
▁همانند	-9.4206
▁بهتری	-9.42257
ق	-9.42291
▁قرارداد	-9.42351
▁چپ	-9.42514
▁ماهی	-9.42575
▁بدهد	-9.42592
▁درستی	-9.42628
▁ضعیف	-9.42632
▁عهده	-9.42654
▁پاک	-9.42663
▁شغلی	-9.42666
▁M	-9.4281
▁گران	-9.42896
▁چربی	-9.42937
▁فنی	-9.42962
▁محتوا	-9.43013
▁H	-9.4311
▁جنبش	-9.43176
▁ساز	-9.43214
▁اس	-9.43217
▁قلبی	-9.43257
▁خودرو	-9.43433
▁ریسک	-9.43487
▁رها	-9.43549
▁خطرناک	-9.43619
▁تنهایی	-9.43627
5	-9.43725
▁چیزهای	-9.43814
▁سپتامبر	-9.43867
▁خریداری	-9.43884
▁پذیرش	-9.44192
▁فرا	-9.44314
▁سابق	-9.44494
ار	-9.44503
▁توزیع	-9.44514
▁معمولی	-9.44589
▁مراحل	-9.4484
▁بخوانید	-9.4484
▁کشد	-9.4486
▁مالیات	-9.44888
▁بروز	-9.44916
▁هیجان	-9.44932
▁افسردگی	-9.45009
▁ملت	-9.45031
▁جستجوی	-9.45176
▁دقیقا	-9.45247
▁گذشت	-9.45273
گر	-9.45305
▁مسئول	-9.45354
M	-9.45386
▁اختصاص	-9.45458
▁بگویم	-9.455
▁سیاره	-9.4567
▁پنهان	-9.45786
▁ا	-9.4585
▁برده	-9.45878
▁فرار	-9.45895
▁انگلستان	-9.45991
▁بزرگتر	-9.45996
▁فن	-9.46134
▁فارغ	-9.46153
▁حافظه	-9.46175
▁بارداری	-9.46257
▁اطلاع	-9.46423
▁اختلال	-9.46444
▁کنفرانس	-9.46487
▁افکار	-9.46493
▁متخصص	-9.46531
▁همزمان	-9.46582
▁بن	-9.46649
▁۱۵	-9.46798
▁همسر	-9.46805
▁ایتالیا	-9.46814
▁گرفتند	-9.46848
▁پاکستان	-9.46956
▁پرورش	-9.46985
▁F	-9.46986
▁مى	-9.47041
▁عجیب	-9.47134
P	-9.4717
▁خاک	-9.47223
▁ن	-9.47247
▁خیر	-9.47361
d	-9.47394
▁بدین	-9.4747
▁حاوی	-9.47485
▁نا	-9.47651
▁محسوب	-9.47653
▁فرزندان	-9.47678
▁افزود	-9.47705
▁بیت	-9.47847
▁بیمه	-9.47867
ور	-9.47981
▁میوه	-9.48203
a	-9.48234
▁پای	-9.48479
▁اصلا	-9.48489
▁G	-9.48559
▁اصول	-9.48572
▁صحیح	-9.48655
▁نماز	-9.48673
4	-9.48783
▁هشت	-9.48868
▁سرد	-9.48909
▁خیابان	-9.49013
▁موزه	-9.4905
▁آور	-9.49089
▁پروتئین	-9.49159
▁آورند	-9.49279
▁تجزیه	-9.49348
▁مذاکره	-9.49348
▁قتل	-9.49351
▁جاده	-9.49365
▁لینک	-9.4937
▁بدتر	-9.49445
▁عین	-9.49446
▁شورای	-9.49475
ایی	-9.4972
▁هایشان	-9.49723
▁مصر	-9.49737
▁آل	-9.49787
▁نقشه	-9.49826
▁هرچند	-9.4989
▁مساله	-9.50034
▁سرزمین	-9.50064
▁چهارم	-9.50067
▁قدرتمند	-9.50444
▁استخدام	-9.50539
▁اسم	-9.50628
▁تفکر	-9.5069
▁مفهوم	-9.50723
▁پذیری	-9.50775
▁کلیک	-9.50909
▁روزهای	-9.51032
.[	-9.51091
▁خوشحال	-9.51112
▁شناسی	-9.51303
▁بخواهید	-9.5142
▁معامله	-9.5142
▁دیدار	-9.51564
▁موضوعات	-9.51577
▁کی	-9.51639
▁مبتنی	-9.51766
▁لندن	-9.5177
تا	-9.51801
▁کارهایی	-9.51941
▁حداکثر	-9.51948
▁شانس	-9.52077
▁خلاصه	-9.52161
▁هاست	-9.52248
▁نمایند	-9.52272
▁رانندگی	-9.52293
بر	-9.52303
n	-9.52443
▁نمایید	-9.52477
▁اپل	-9.52497
▁دشمن	-9.52537
▁تهران	-9.52651
ص	-9.52745
▁اثرات	-9.529
▁جشن	-9.53002
▁فهرست	-9.53002
▁زودی	-9.53148
▁تکمیل	-9.53191
▁موقع	-9.53295
▁۸	-9.53296
▁آثار	-9.53317
▁شوم	-9.53333
▁واشنگتن	-9.53355
▁ببرید	-9.53358
▁صبر	-9.5354
▁ریشه	-9.53554
▁فضایی	-9.53574
▁بهداشتی	-9.53612
▁کلید	-9.5373
▁اظهار	-9.53844
▁موسسه	-9.53911
اگر	-9.53953
▁۱۲	-9.541
تون	-9.54123
▁سخنرانی	-9.54162
▁متر	-9.54194
▁مشهور	-9.54246
▁کارشناسی	-9.54271
▁تحمل	-9.54427
▁براساس	-9.54428
▁مذاکرات	-9.54428
▁کمبود	-9.54432
▁گفتن	-9.54451
▁زود	-9.54572
▁بالقوه	-9.54606
▁[...]	-9.54609
▁ندارید	-9.5461
▁چنان	-9.54611
▁پایگاه	-9.54616
▁اعتبار	-9.5464
▁نیازی	-9.5469
▁ساختن	-9.54735
▁جذاب	-9.54797
▁نیمی	-9.54886
▁برخوردار	-9.54954
▁سقوط	-9.54969
▁نبوده	-9.5498
▁ویروس	-9.55001
▁خانگی	-9.55512
▁زد	-9.55513
▁تمیز	-9.55592
▁بوک	-9.55627
▁پیامبر	-9.55858
▁,	-9.55892
▁پزشکان	-9.55993
▁وابسته	-9.56239
▁نفوذ	-9.56274
▁مارس	-9.56296
▁16	-9.56365
▁کشاورزی	-9.5637
▁سنتی	-9.56391
▁برداری	-9.5648
▁بازیکنان	-9.56484
▁برجسته	-9.56606
▁تابستان	-9.56649
▁سالانه	-9.56678
▁برتر	-9.56734
▁سوالات	-9.56788
▁مشاوره	-9.56894
▁شواهد	-9.56977
▁بیدار	-9.57054
▁خویش	-9.57094
▁زند	-9.57111
o	-9.5713
▁دستیابی	-9.57171
▁فرایند	-9.57224
▁ارزان	-9.57242
▁کارخانه	-9.57244
▁خشک	-9.57334
▁همچون	-9.57377
▁قطع	-9.57396
▁آبی	-9.57401
▁سنت	-9.57559
▁ماست	-9.57579
▁میدان	-9.5763
▁کمتری	-9.57679
▁بازسازی	-9.57733
▁پایدار	-9.58016
▁ندارم	-9.58086
▁حجم	-9.58118
▁مذهبی	-9.58209
▁عدد	-9.58327
▁کارمندان	-9.58521
▁برمی	-9.58534
▁مجوز	-9.58561
▁اکتبر	-9.58837
▁خورد	-9.59145
▁هویت	-9.59268
▁بازداشت	-9.59274
▁هواپیما	-9.59382
’	-9.59399
▁احتمالاً	-9.59442
▁صادر	-9.59562
▁خاورمیانه	-9.59589
▁صفحات	-9.59591
▁مراسم	-9.59591
▁40	-9.59733
▁مانع	-9.59755
▁25	-9.59844
▁معماری	-9.59925
▁نموده	-9.60141
▁نابود	-9.60346
▁استقلال	-9.6035
▁عناصر	-9.6035
▁نزدیکی	-9.6036
▁آهنگ	-9.606
▁سوخت	-9.60699
▁بارها	-9.60746
▁عیسی	-9.60748
▁جاری	-9.60943
را	-9.60948
▁میکنند	-9.60949
▁آهن	-9.61078
▁مدارس	-9.61128
▁معنا	-9.6115
▁آدرس	-9.61306
[	-9.61341
▁دارایی	-9.61355
▁طلا	-9.61447
▁آلمانی	-9.6146
▁بلافاصله	-9.61499
گ	-9.61543
▁رستوران	-9.61767
بی	-9.6182
▁ست	-9.61986
▁رویکرد	-9.62036
▁I	-9.6207
▁مهندسی	-9.62071
▁رضایت	-9.6209
▁گوشت	-9.6228
▁حیات	-9.62436
▁غذاهای	-9.62477
گی	-9.62645
▁اولویت	-9.62669
▁فرانسوی	-9.6286
▁قالب	-9.62861
▁مصنوعی	-9.62865
▁تأیید	-9.6305
▁آژانس	-9.63056
▁شهرهای	-9.63157
▁گذاران	-9.63165
▁صد	-9.63226
▁سادگی	-9.63252
▁نیم	-9.63328
T	-9.63391
▁مجلس	-9.6345
▁دادم	-9.63488
▁سلام	-9.63614
▁دسامبر	-9.63644
▁معتبر	-9.63646
▁عصر	-9.63649
▁مدتی	-9.63697
▁اخلاقی	-9.63791
▁13	-9.63855
▁عرض	-9.63903
r	-9.63909
▁تحصیلی	-9.6392
▁قطعا	-9.64012
▁پرونده	-9.64041
▁کوه	-9.64076
▁۵۰	-9.64098
▁مد	-9.64131
▁سطوح	-9.64237
▁سنگین	-9.64238
▁کتابخانه	-9.64259
▁نقاشی	-9.64304
▁متخصصان	-9.64321
▁صاحب	-9.64345
▁ایالت	-9.64365
K	-9.64401
▁ژانویه	-9.64439
▁چای	-9.64491
▁جوانان	-9.64719
▁K	-9.64734
▁گذاشت	-9.64797
▁۹	-9.64884
▁معتقد	-9.65066
برای	-9.65105
▁انگلیس	-9.65133
▁11	-9.65142
▁ایستگاه	-9.65233
▁نوشت	-9.65241
▁آی	-9.65282
▁عمده	-9.65458
▁پاریس	-9.65838
▁شنیده	-9.65868
▁شرقی	-9.65872
▁سیگار	-9.65897
▁صدها	-9.65922
▁موبایل	-9.65943
▁محکوم	-9.66021
▁گویم	-9.66055
▁هوش	-9.66078
▁اون	-9.66093
▁داروهای	-9.66102
▁باغ	-9.66169
▁مسابقه	-9.66238
▁مجله	-9.66245
▁اواخر	-9.66252
!»	-9.66411
▁سبب	-9.66442
▁نداریم	-9.66459
▁اجرایی	-9.66661
▁طیف	-9.66761
▁نوامبر	-9.66848
▁۱۰۰	-9.66942
▁آرامش	-9.67012
▁بزنید	-9.67054
▁شنبه	-9.67063
▁کارگر	-9.67068
▁۷	-9.67113
نا	-9.67126
▁مسلمان	-9.67242
▁پنجره	-9.67267
▁ثروت	-9.67458
▁مراجعه	-9.6748
i	-9.67694
ج	-9.67726
▁نشد	-9.67738
▁افتخار	-9.67766
▁تحقیقاتی	-9.67835
▁اسپانیا	-9.67867
▁منظم	-9.67869
▁ژوئن	-9.67871
▁پردازش	-9.68062
▁خسته	-9.68077
▁روان	-9.68084
▁مجدد	-9.68115
▁گذار	-9.6812
▁الکترونیکی	-9.68185
▁خالی	-9.68197
▁اثبات	-9.68283
▁جلو	-9.68301
▁یکسان	-9.68342
▁شریک	-9.68403
▁جرم	-9.68459
▁اتصال	-9.68665
▁بیست	-9.68786
۲	-9.68791
▁گناه	-9.68873
▁دیدم	-9.68966
▁ظرفیت	-9.69123
▁مرز	-9.6916
▁۱۸	-9.69223
▁روبرو	-9.69226
▁گر	-9.6929
▁مقدس	-9.69294
▁مجازات	-9.69349
▁هایش	-9.6937
▁دانست	-9.69582
▁آمار	-9.69604
▁مکمل	-9.69737
▁باشگاه	-9.69876
▁حتما	-9.69952
▁خورده	-9.69989
▁L	-9.70035
▁عدالت	-9.70095
▁متعلق	-9.70367
▁بیانیه	-9.70386
▁هوای	-9.70406
▁هرگونه	-9.70477
▁کشید	-9.70513
▁نادیده	-9.70578
▁عصبی	-9.7058
▁آفریقا	-9.70731
▁the	-9.70743
▁هنری	-9.70786
▁دموکراسی	-9.70796
نی	-9.70853
▁سابقه	-9.70989
▁کمپانی	-9.71002
▁واژه	-9.71004
▁Google	-9.7101
▁فرودگاه	-9.71218
in	-9.71273
▁سؤال	-9.71354
▁متولد	-9.71431
▁17	-9.7148
▁امیدوارم	-9.71504
▁درخت	-9.71682
▁ورزشی	-9.71697
▁نشست	-9.71771
▁وسایل	-9.71792
H	-9.71825
▁تصویب	-9.71853
▁24	-9.72144
al	-9.72186
▁چی	-9.72205
▁صنایع	-9.72283
▁60	-9.72286
▁فیس	-9.72387
c	-9.72402
▁تعامل	-9.72415
▁شناخت	-9.72453
▁نمایشگاه	-9.72455
▁تعهد	-9.72457
▁دهان	-9.72497
▁وظایف	-9.72498
▁محمد	-9.72653
▁ترافیک	-9.7266
▁اوباما	-9.72714
▁خواستار	-9.7273
▁غذای	-9.72792
E	-9.72812
▁کاربردی	-9.72831
▁جنگل	-9.73012
▁نگاهی	-9.73054
▁امضا	-9.73081
▁سریال	-9.7311
▁and	-9.73205
▁بازیکن	-9.73249
تو	-9.7343
▁نزد	-9.7344
▁چندان	-9.73554
▁کمیته	-9.73609
▁مسلمانان	-9.73664
▁آزار	-9.73809
▁مردی	-9.7383
▁دومین	-9.73941
▁خروج	-9.73984
▁دانشکده	-9.74018
▁ورودی	-9.74098
▁برادر	-9.74315
▁رساند	-9.74351
▁عظیم	-9.74407
▁دختران	-9.7445
▁حکم	-9.74518
▁هستی	-9.74735
▁یك	-9.74766
▁روانی	-9.74836
▁14	-9.74843
▁نظیر	-9.74859
▁پل	-9.74859
F	-9.74861
▁صادرات	-9.74883
▁تحویل	-9.74893
▁استراتژیک	-9.75062
▁باتری	-9.75102
▁مراکز	-9.75116
▁ریاست	-9.75117
▁میز	-9.7512
▁مجموع	-9.75218
▁مشکلی	-9.75222
L	-9.75283
▁غنی	-9.75336
▁2017	-9.75338
▁لطفا	-9.75357
▁نوشیدنی	-9.75418
▁اختلاف	-9.75522
▁امتیاز	-9.75531
▁بینید	-9.75533
▁اعدام	-9.75557
▁بافت	-9.75573
▁کشوری	-9.75624
ed	-9.75733
▁مهمترین	-9.75751
▁جلب	-9.75762
▁بگوید	-9.75789
▁شرق	-9.76197
▁موشک	-9.76212
▁فرمود	-9.76264
▁مرغ	-9.76361
ة	-9.76369
▁منطقی	-9.76422
▁پاداش	-9.76425
▁تأمین	-9.76449
▁محیطی	-9.76467
▁ک	-9.76526
▁مثلا	-9.76568
▁کفش	-9.76598
▁فردا	-9.76618
▁پیوند	-9.76731
▁پادشاه	-9.76758
▁بالایی	-9.76789
▁ترکیبی	-9.76841
▁نشود	-9.76903
▁خدای	-9.76953
▁خارجه	-9.76954
▁2015	-9.77013
▁مسیح	-9.77098
▁تعادل	-9.77123
▁ناحیه	-9.77131
▁بهشت	-9.77138
▁کشیدن	-9.77155
▁کارگردان	-9.77281
▁ابتلا	-9.77325
▁چک	-9.77348
▁ارتباطی	-9.77374
▁برود	-9.77625
▁دائمی	-9.77742
▁قربانی	-9.77828
▁کارشناسان	-9.77852
▁تحریک	-9.78029
▁خانوادگی	-9.7803
▁بماند	-9.78033
▁سوء	-9.78486
▁اخبار	-9.78491
ام	-9.78493
▁خوانده	-9.7865
▁کمپین	-9.78717
▁نوآوری	-9.78749
R	-9.78827
▁قول	-9.78942
▁طالبان	-9.78951
▁صندلی	-9.7896
▁عربی	-9.78961
▁بند	-9.78962
▁سهم	-9.78979
6	-9.79007
▁رایج	-9.79209
▁کودکی	-9.79273
▁صرفه	-9.79328
▁کاخ	-9.79405
'	-9.79413
▁دیابت	-9.79461
▁نوزاد	-9.79471
▁آیه	-9.79598
▁عوارض	-9.79634
▁متفاوتی	-9.79776
▁تاسیس	-9.79857
▁ظهور	-9.79868
▁گردید	-9.79886
▁دیوار	-9.79949
▁منزل	-9.79968
▁چرخه	-9.79996
▁مخالف	-9.80004
▁مک	-9.8013
▁فدرال	-9.80332
▁انعطاف	-9.80564
▁خواستم	-9.80653
▁مدرک	-9.80674
▁ه	-9.80732
".	-9.80782
▁بزرگسالان	-9.80823
▁بدی	-9.80893
p	-9.81002
۳	-9.81016
▁کشیده	-9.8119
▁انگار	-9.81217
▁تعطیلات	-9.81283
▁لایه	-9.81297
▁ویندوز	-9.81737
▁لبخند	-9.81739
ول	-9.81768
▁نبرد	-9.81825
▁حقوقی	-9.81863
▁معلم	-9.81871
▁جانبی	-9.81974
▁نویسی	-9.82
▁X	-9.82043
▁مجاز	-9.82158
▁حادثه	-9.82217
▁کوین	-9.82261
O	-9.82305
▁رویداد	-9.82498
▁مقررات	-9.82701
▁N	-9.82716
▁جامع	-9.82746
▁چیزها	-9.82904
▁رییس	-9.82927
▁بگیریم	-9.8294
▁نیستم	-9.8307
▁داشتیم	-9.83121
▁ابزارهای	-9.83383
▁نقض	-9.83404
▁روزه	-9.83544
▁کاربری	-9.83614
▁جو	-9.83649
▁آسیا	-9.8377
▁هدیه	-9.83888
▁راضی	-9.83892
▁میتواند	-9.83905
▁مطالب	-9.84221
▁نظرات	-9.84291
▁تعجب	-9.84446
▁خواهان	-9.84525
▁داعش	-9.84617
▁احتمالی	-9.84624
▁مطابق	-9.84805
▁برگزاری	-9.84847
▁تروریستی	-9.84859
ح	-9.84926
▁راهنمایی	-9.84966
▁زنی	-9.84988
▁انقلابی	-9.85094
▁خطوط	-9.85103
▁ارز	-9.85145
▁شرایطی	-9.8519
وس	-9.85212
▁شوروی	-9.85347
▁سرانجام	-9.8535
▁دعا	-9.85388
▁دریا	-9.85391
▁وام	-9.85536
▁استراحت	-9.85579
▁کوچکی	-9.85625
▁ضعف	-9.85834
▁اصطلاح	-9.85966
▁W	-9.85983
ئی	-9.85986
▁اضطراب	-9.86083
▁گرچه	-9.86091
▁سهام	-9.86105
▁برداشت	-9.86154
▁خورشیدی	-9.86203
یر	-9.86352
▁الهام	-9.86506
▁وضع	-9.8655
▁آمدن	-9.86569
▁کنگره	-9.86584
▁2016	-9.86585
▁پذیرفته	-9.86626
▁كند	-9.86628
▁خلاف	-9.8668
▁بگذارد	-9.8683
»،	-9.86844
▁حساس	-9.86883
▁تردید	-9.86895
▁سرور	-9.87062
▁اندکی	-9.8707
▁تشکر	-9.87085
▁رفع	-9.87322
▁نماینده	-9.87358
▁خبری	-9.8757
▁کالج	-9.87574
▁گفتگو	-9.87636
▁قضاوت	-9.87824
▁ماموریت	-9.87829
▁نمایندگان	-9.87829
▁آیت	-9.87847
▁گربه	-9.88107
▁عکاسی	-9.88282
▁محاسبه	-9.88326
▁اخیرا	-9.88369
▁معتقدند	-9.88619
هر	-9.88622
▁تکامل	-9.8864
▁نیستید	-9.88715
▁امکانات	-9.88764
▁متهم	-9.8881
▁مناسبی	-9.88934
▁اتحاد	-9.88993
▁تازگی	-9.89096
لی	-9.89097
▁ممنوع	-9.89184
▁گمان	-9.89217
N	-9.8932
▁مخفی	-9.89326
▁مخدر	-9.89341
▁سیگنال	-9.89396
▁رقم	-9.8941
۵	-9.89452
▁2018	-9.89528
▁جداگانه	-9.89595
▁وقوع	-9.89597
▁بمب	-9.89637
▁موج	-9.89719
▁نفع	-9.89751
▁فرمان	-9.89833
▁رسانی	-9.89836
▁ظرف	-9.89836
▁سرنوشت	-9.89853
▁فلسفه	-9.89866
▁وجه	-9.89944
▁دمای	-9.90102
یان	-9.90115
▁شیطان	-9.90188
▁آنقدر	-9.90192
▁ژن	-9.90321
▁ثروتمند	-9.90347
▁پیروی	-9.90485
▁هرچه	-9.90687
▁استان	-9.90773
▁مقالات	-9.90884
▁ذهنی	-9.909
▁دامنه	-9.91049
▁اپلیکیشن	-9.91139
▁یورو	-9.9126
▁تخم	-9.91263
7	-9.91269
▁شادی	-9.91284
▁باد	-9.91355
▁ماندن	-9.91367
▁د	-9.91408
▁اکثریت	-9.91447
▁ثبات	-9.91487
▁کیلومتر	-9.91488
▁آزمایشگاه	-9.915
com	-9.91594
▁مبلغ	-9.91602
ری	-9.91726
▁روزها	-9.918
▁س	-9.91849
W	-9.91856
I	-9.91903
▁تنوع	-9.91924
٬	-9.92034
▁شاخص	-9.92064
▁بدهی	-9.92263
▁دهی	-9.92268
▁انتقاد	-9.92294
8	-9.92338
▁مرده	-9.92377
▁اتومبیل	-9.92444
▁مجازی	-9.92468
چه	-9.92475
انی	-9.92632
▁آلودگی	-9.92972
▁لغو	-9.92977
▁بینیم	-9.93005
▁V	-9.93216
او	-9.93367
▁جلسات	-9.93504
▁دادیم	-9.93508
▁متنوع	-9.93509
▁میل	-9.93523
▁یابند	-9.93591
▁بالاخره	-9.93769
▁O	-9.93853
▁باکتری	-9.94031
▁نویسندگان	-9.94035
▁بیاید	-9.94063
▁پدرش	-9.94093
▁تخصص	-9.94141
▁شکایت	-9.94303
▁بیایید	-9.94307
▁گویی	-9.9431
▁سازنده	-9.94324
▁تبلیغاتی	-9.94341
▁زودتر	-9.94396
▁مرتب	-9.94425
▁اینترنتی	-9.94445
▁اوست	-9.94564
▁مقیاس	-9.94672
▁خواهی	-9.94691
وی	-9.94712
▁الکل	-9.94792
▁صادق	-9.94847
▁گیر	-9.9489
▁یادآوری	-9.94899
▁خواند	-9.94992
▁جنگی	-9.95025
▁تأکید	-9.95107
▁رعایت	-9.95109
▁فوری	-9.95109
▁متعهد	-9.9511
▁شرح	-9.95113
▁خودکار	-9.95155
▁محدوده	-9.95156
▁موقت	-9.95197
▁نخواهند	-9.95378
▁درگیری	-9.95409
▁باردار	-9.95413
عنوان	-9.95509
▁برج	-9.95544
▁میدهد	-9.95576
▁فرصتی	-9.95598
▁بخواهد	-9.95654
▁بدهند	-9.95677
▁رایانه	-9.95692
▁ساحل	-9.95772
▁استخوان	-9.95777
▁اسناد	-9.95922
▁کنونی	-9.95952
▁بانکی	-9.96
▁راجع	-9.96193
▁اقیانوس	-9.96303
▁ایمن	-9.96338
▁تماشای	-9.9634
▁تئوری	-9.96427
▁جوامع	-9.96469
▁همگی	-9.96545
▁دستگیر	-9.96684
▁تحصیلات	-9.96785
▁اتفاقات	-9.96834
▁کاربرد	-9.96995
▁طرز	-9.97017
▁بدانند	-9.97076
▁فرو	-9.97081
▁علامت	-9.97143
▁سینه	-9.97163
▁حلقه	-9.9731
▁الکتریکی	-9.97336
▁آنتی	-9.9738
است	-9.97439
▁ببینند	-9.97574
▁بهینه	-9.97638
▁۱۳	-9.97664
▁حیاتی	-9.97789
▁قطعه	-9.97836
▁ماهواره	-9.97851
▁یخ	-9.97853
▁استانداردهای	-9.97929
۴	-9.98
▁فقر	-9.9801
▁احتیاج	-9.98096
▁ندهید	-9.98123
▁مشاور	-9.98126
▁جلوی	-9.98198
▁معادل	-9.98436
▁ضربه	-9.98491
کی	-9.98543
▁حین	-9.98709
▁تزریق	-9.98814
▁ج	-9.98862
گان	-9.98945
▁اتخاذ	-9.98959
▁جعبه	-9.98963
▁تحقق	-9.98964
▁زندانی	-9.99037
▁زنند	-9.99038
▁سیم	-9.99042
▁۴۰	-9.99185
▁اشتباهات	-9.99203
▁بپرسید	-9.99242
▁صندوق	-9.99247
▁نکرد	-9.99256
▁#	-9.99269
▁روزمره	-9.99522
▁متاسفانه	-9.99527
تی	-9.99567
▁توانستند	-9.99604
▁عموم	-9.9971
▁استدلال	-9.99807
وا	-9.99808
▁زنجیره	-9.99949
▁اوکراین	-9.99952
▁بدترین	-9.99956
رو	-10.0009
▁ببرد	-10.0011
▁آمریکای	-10.0014
▁ناپذیر	-10.0018
▁ندرت	-10.0037
▁گرفتم	-10.005
▁سفارش	-10.0051
▁اشکال	-10.006
▁مراقب	-10.006
ده	-10.0066
▁تروریسم	-10.0066
▁رودخانه	-10.0067
▁لا	-10.0074
▁غیره	-10.0077
▁امیدوار	-10.0088
▁شدیم	-10.0091
▁شاه	-10.0101
▁جمعه	-10.0103
▁تفسیر	-10.0107
▁توانستم	-10.0119
▁سکوت	-10.0123
▁ببیند	-10.0124
▁ببینیم	-10.0125
▁آلوده	-10.0125
▁آوریل	-10.013
▁تصمیمات	-10.0136
▁۱۱	-10.0151
▁انگشت	-10.0152
▁کمیسیون	-10.0152
▁ابراز	-10.0153
▁مخاطبان	-10.0157
▁نقد	-10.0158
▁ناراحت	-10.0169
▁آموز	-10.018
▁وبسایت	-10.0181
▁کنون	-10.0181
▁پیشگیری	-10.0186
9	-10.0188
▁اراده	-10.021
▁مالکیت	-10.0211
▁نشسته	-10.0214
کار	-10.0231
▁مخصوص	-10.0236
▁ارزشمند	-10.024
اند	-10.0241
▁برقراری	-10.0252
▁شرط	-10.0254
▁زمینی	-10.0265
▁ضبط	-10.0267
▁جشنواره	-10.0267
▁سربازان	-10.0275
▁نهاد	-10.0275
▁فرق	-10.0288
▁فوریه	-10.0289
▁دستورالعمل	-10.0297
▁۱۴	-10.0303
▁نوشیدن	-10.0313
▁پایتخت	-10.0326
▁خشم	-10.0327
▁سرکوب	-10.0328
▁تماشا	-10.0337
▁آمدند	-10.0343
▁هاي	-10.035
us	-10.0354
▁لوله	-10.0356
▁شکلی	-10.0362
▁روم	-10.0368
▁هورمون	-10.0374
▁سایه	-10.0388
▁یهودی	-10.0391
▁گذارند	-10.0392
▁یهودیان	-10.0393
▁مواردی	-10.0397
▁آورید	-10.0397
▁پیشین	-10.0408
▁سو	-10.0414
x	-10.0418
▁توده	-10.0421
▁کارمند	-10.0424
دار	-10.0431
▁درمورد	-10.0432
▁زمستان	-10.0433
ين	-10.0434
▁معلوم	-10.0439
▁روشی	-10.0443
▁خنده	-10.0445
▁نکند	-10.0446
▁بخشد	-10.045
▁پولی	-10.0454
▁حسابداری	-10.0455
▁اسب	-10.0464
▁ویزای	-10.047
▁السلام	-10.0474
▁90	-10.0479
▁خودکشی	-10.048
▁موهای	-10.0483
▁توقف	-10.0503
▁مسابقات	-10.0503
▁هیئت	-10.0503
▁تخمین	-10.0509
▁اجاره	-10.0533
h	-10.0538
▁گذاشتن	-10.054
▁موجودات	-10.055
▁گشت	-10.056
▁مقصد	-10.0563
▁ات	-10.0565
▁محکم	-10.0566
▁دیر	-10.0568
▁پیگیری	-10.057
▁دلاری	-10.057
▁+	-10.0573
▁سرگرم	-10.0584
g	-10.0587
▁اختراع	-10.0589
اس	-10.0589
لو	-10.0592
▁اتوبوس	-10.0593
▁حقیقی	-10.0593
▁خطرات	-10.0599
▁مربی	-10.0616
▁راهنمای	-10.0626
▁خاطرات	-10.0628
▁گریه	-10.0633
▁رفتارهای	-10.0638
▁شکر	-10.0638
▁اعتراض	-10.0641
▁جمعی	-10.065
▁خودت	-10.0668
▁عرب	-10.0681
چ	-10.0682
▁ارتفاع	-10.0683
▁شکنجه	-10.0684
▁حسین	-10.0689
ك	-10.0697
▁احساسی	-10.0697
▁عنصر	-10.0705
▁تی	-10.071
▁تجدید	-10.0714
▁مشاغل	-10.0714
▁سند	-10.0717
▁تقاضای	-10.0717
▁بایست	-10.0724
▁حالیکه	-10.0731
▁اوضاع	-10.0745
▁عالم	-10.075
▁کپی	-10.075
▁خواستند	-10.0754
▁گرد	-10.0756
▁راستی	-10.0768
▁استخراج	-10.0775
▁بیند	-10.078
▁مهاجران	-10.0783
X	-10.0789
▁مرور	-10.0795
▁اتمی	-10.0796
▁کالری	-10.0806
دو	-10.0808
▁مه	-10.0815
▁آنجایی	-10.0819
اب	-10.082
▁فلسطین	-10.0828
▁21	-10.0831
▁زوج	-10.0834
▁هنرمند	-10.0835
▁بس	-10.0842
▁کلاسیک	-10.0844
▁گیاهان	-10.0844
b	-10.0845
▁آمادگی	-10.0867
▁نباشید	-10.0868
▁تبلیغ	-10.0887
▁لبنان	-10.0887
▁تخت	-10.0889
▁شناختی	-10.0894
▁گم	-10.0895
▁برخلاف	-10.0898
▁بخاطر	-10.0899
▁بازارهای	-10.0899
▁همدیگر	-10.0903
▁نسبتا	-10.0903
▁19	-10.0905
▁فیلتر	-10.091
▁قطعات	-10.092
▁۲۵	-10.092
▁کاغذ	-10.0923
▁دشمنان	-10.0927
▁گردن	-10.0928
▁[+]	-10.0929
▁بگوییم	-10.0931
▁پدیده	-10.0942
▁درحالی	-10.0944
▁درحال	-10.0956
▁عقیده	-10.0961
▁دیگه	-10.0963
▁بهار	-10.0969
سون	-10.097
▁2012	-10.0974
▁مشابهی	-10.0982
▁بکشد	-10.0992
▁مارک	-10.0997
▁جویی	-10.1002
▁سرخ	-10.1014
▁قند	-10.1014
▁اینگونه	-10.1016
▁رمان	-10.1023
▁ر	-10.1024
▁موافقت	-10.1027
▁توی	-10.1039
▁تصویری	-10.1042
▁ژاپنی	-10.1046
▁دکمه	-10.1054
▁میزبان	-10.1055
▁مدنی	-10.1057
▁نوجوانان	-10.1061
▁توپ	-10.1071
▁بینند	-10.1071
▁تخصصی	-10.1073
▁گیرید	-10.1075
▁80	-10.1077
▁سراغ	-10.1083
کو	-10.1084
▁تخریب	-10.1086
▁دوچرخه	-10.1086
▁مهر	-10.1092
▁مسکو	-10.1095
▁رفتم	-10.1096
▁شاد	-10.1106
▁هماهنگی	-10.1115
▁شفاف	-10.1117
▁تجربیات	-10.1119
▁؛	-10.1121
▁مال	-10.113
▁کابل	-10.1143
▁خلاقیت	-10.1151
▁رغم	-10.1156
▁مخالفت	-10.116
▁صفر	-10.1171
▁پنجم	-10.1172
▁لی	-10.1174
▁قطار	-10.1177
▁کربن	-10.1177
▁بخورید	-10.1182
▁ایفا	-10.1187
▁مغزی	-10.12
▁اشخاص	-10.1214
▁همسایه	-10.1215
▁جی	-10.1219
▁میلی	-10.1226
▁پیر	-10.1228
▁کلیه	-10.1229
آن	-10.1231
▁قهرمان	-10.1231
▁کاش	-10.1232
▁گیاه	-10.1232
▁2014	-10.1234
▁باشه	-10.1234
▁دموکراتیک	-10.1247
▁طلاق	-10.1247
۰۰۰	-10.1251
▁اصلاحات	-10.1255
▁ضمن	-10.1267
▁وکار	-10.1276
▁دریاچه	-10.1278
▁آنهایی	-10.1291
▁تجاوز	-10.1294
پ	-10.1303
▁نکات	-10.1303
▁معاملات	-10.1305
▁قرص	-10.131
▁موسسات	-10.131
▁بزند	-10.1311
لا	-10.1314
ّ	-10.1327
▁پرسید	-10.1335
▁یونان	-10.1339
▁مبنی	-10.1342
▁فساد	-10.1343
▁كار	-10.1344
▁خواهر	-10.1355
▁موتورهای	-10.1364
▁باستان	-10.1372
▁عاطفی	-10.1375
▁فقیر	-10.1376
▁نداشتند	-10.1383
▁همکاران	-10.139
▁مرزهای	-10.1391
▁وضوح	-10.1408
▁سازمانی	-10.1413
▁ناگهان	-10.1436
▁خراب	-10.1438
▁یادداشت	-10.1443
▁دوستی	-10.1452
▁شعر	-10.1464
▁میانگین	-10.1473
▁راننده	-10.1474
▁خب	-10.1476
▁ناگهانی	-10.1477
▁in	-10.1477
▁باران	-10.1477
▁دقیقاً	-10.1478
or	-10.1481
▁پرنده	-10.1483
▁تلویزیونی	-10.1492
▁خام	-10.1493
▁رفتند	-10.1498
▁آنرا	-10.1499
▁مسلح	-10.1504
▁فاجعه	-10.1506
▁اتمام	-10.1506
▁تاریک	-10.1509
▁برطرف	-10.1542
▁برزیل	-10.1569
th	-10.157
▁ضرورت	-10.157
▁۱۶	-10.1571
▁لذا	-10.1572
▁مداخله	-10.1572
▁گردند	-10.1578
k	-10.1587
▁راز	-10.1592
▁تقاضا	-10.1597
▁نقص	-10.16
▁آلبوم	-10.16
l	-10.161
▁کلیسا	-10.1612
▁مؤثر	-10.1616
▁سرباز	-10.1628
▁محور	-10.1635
▁لمس	-10.1635
▁چارچوب	-10.1638
▁معناست	-10.1641
▁ناپدید	-10.1644
▁شام	-10.1646
▁>	-10.1647
▁كرد	-10.1648
▁پارلمان	-10.1656
▁|	-10.1659
m	-10.1663
▁تسلیم	-10.1673
▁بتوانیم	-10.1674
▁انکار	-10.1677
▁فوت	-10.1692
▁اعتباری	-10.1693
▁بازیگر	-10.1699
▁تور	-10.1702
▁زرد	-10.1704
▁فیسبوک	-10.1705
▁لزوم	-10.171
▁کوچکتر	-10.1714
▁مدارک	-10.1715
سی	-10.1724
▁دلیلی	-10.1734
یل	-10.1734
۶	-10.1735
▁یمن	-10.1743
▁عده	-10.1746
▁تمرینات	-10.1752
▁یاری	-10.1756
▁داروها	-10.1758
▁الگوی	-10.1764
▁مادرش	-10.1769
▁داره	-10.1769
▁رده	-10.1776
▁گواهی	-10.1784
▁گردشگری	-10.1784
▁همسرش	-10.1785
▁آسانی	-10.1793
▁سیب	-10.1796
▁اف	-10.18
▁جام	-10.18
▁مزیت	-10.1807
▁نظم	-10.1807
▁فرستاده	-10.1814
اد	-10.1817
▁J	-10.1838
▁a	-10.1843
f	-10.1852
▁زخم	-10.1864
▁حاکم	-10.1868
▁ابتدایی	-10.1871
▁چشمگیر	-10.1872
▁اشتغال	-10.1875
▁2019	-10.1876
▁جفت	-10.1876
le	-10.1878
▁بدانیم	-10.1879
▁&	-10.1881
▁آ	-10.1882
▁سرگرمی	-10.1885
▁صوتی	-10.1891
▁۶۰	-10.1905
▁وسیع	-10.1905
ء	-10.1907
▁میراث	-10.1909
▁تحول	-10.1909
▁ببرند	-10.191
▁قربانیان	-10.1918
▁سینما	-10.1919
▁زنگ	-10.1932
▁سوار	-10.1933
▁زا	-10.1941
▁خلاق	-10.1941
▁خلیج	-10.1943
▁تنش	-10.1945
▁تروریست	-10.1947
▁شبه	-10.1947
َ	-10.1952
▁آیات	-10.1955
▁امریکایی	-10.1956
▁میتوانید	-10.1959
▁شارژ	-10.196
▁آنگاه	-10.1965
هم	-10.1976
▁عذاب	-10.1978
▁خرج	-10.1979
▁نژاد	-10.1982
▁عزیز	-10.1996
▁متعدد	-10.2007
▁خاموش	-10.2012
▁ونزوئلا	-10.2012
▁اسلحه	-10.2013
▁آفتاب	-10.2013
▁پروتکل	-10.2013
▁فکری	-10.2015
▁متعددی	-10.2018
▁U	-10.2043
▁عرصه	-10.2048
▁نادر	-10.205
▁مقادیر	-10.2082
▁دخالت	-10.2082
▁هنرمندان	-10.2085
▁واسطه	-10.2085
▁نداده	-10.2089
▁اخراج	-10.2117
▁کوتاهی	-10.2117
ینگ	-10.2126
▁طعم	-10.2126
▁اجباری	-10.2137
دی	-10.214
V	-10.2146
▁اکسیژن	-10.2152
▁ادغام	-10.2152
▁سوگند	-10.2153
▁عقل	-10.2154
▁برآورده	-10.2154
▁طرفداران	-10.2157
▁مادرم	-10.216
▁معلمان	-10.2161
▁دانستم	-10.217
es	-10.2172
نگ	-10.218
▁استقبال	-10.2187
▁تدریس	-10.2187
▁تظاهرات	-10.2188
▁دانشگاهی	-10.2193
▁صاحبان	-10.2197
▁تنظیمات	-10.2198
▁مهمان	-10.2203
▁رنگی	-10.2208
▁دینی	-10.2208
▁مستند	-10.221
en	-10.222
▁افسانه	-10.2222
▁حریم	-10.2223
▁پرتاب	-10.2223
▁شیرین	-10.2239
▁قبلاً	-10.2243
یه	-10.2256
▁مخصوصا	-10.2261
el	-10.2265
▁مدار	-10.2274
يد	-10.2283
▁برساند	-10.2294
▁غیرقابل	-10.2294
▁التحصیلان	-10.2297
▁ش	-10.2303
▁کلام	-10.2304
▁چراغ	-10.2305
▁سازند	-10.2308
▁دلم	-10.2318
▁رادیو	-10.2325
▁باشی	-10.2327
▁حوادث	-10.233
▁برسند	-10.2331
▁رسیدگی	-10.2333
▁بومی	-10.2339
▁درونی	-10.2342
▁سالهای	-10.2348
▁پدرم	-10.2364
▁بالاترین	-10.2365
▁ابعاد	-10.2365
▁فلسطینی	-10.2366
▁اندیشه	-10.2367
▁بکار	-10.2367
ث	-10.2381
▁فراوانی	-10.2392
▁چشمان	-10.24
▁شهادت	-10.2401
▁وسیعی	-10.2402
▁شنیدن	-10.2402
▁ناراحتی	-10.2403
▁توییتر	-10.2404
▁ایستاده	-10.2405
▁روایت	-10.2405
▁روسی	-10.2405
▁پیروز	-10.2432
▁عمق	-10.2438
▁هماهنگ	-10.2441
▁مبنای	-10.2446
▁موش	-10.2452
خ	-10.2454
▁برایش	-10.2462
▁ژنتیکی	-10.2468
▁تعلق	-10.2474
▁نخواهید	-10.2474
▁اخلاق	-10.2477
▁بازیگران	-10.2488
▁میکنم	-10.2492
▁نیستیم	-10.2495
▁فریاد	-10.2505
▁مرتکب	-10.251
▁کالیفرنیا	-10.251
▁عضلات	-10.251
▁اشغال	-10.2519
▁شهرت	-10.2526
▁کیف	-10.2527
▁ویدئو	-10.2531
▁شهرها	-10.2531
▁70	-10.2534
▁روحانی	-10.2535
▁مکانی	-10.2542
▁دانه	-10.2545
▁فزاینده	-10.2546
▁سالن	-10.2549
▁بلوک	-10.2559
▁مثلاً	-10.2562
▁۲۴	-10.2566
گاه	-10.2567
▁بوی	-10.2577
▁ایتالیایی	-10.2584
▁دفاعی	-10.2614
▁سرقت	-10.262
▁بسازید	-10.262
▁بصورت	-10.262
▁ماهه	-10.262
▁ستون	-10.2629
▁ع	-10.2653
▁ربات	-10.2655
▁غیرقانونی	-10.2657
▁نظرسنجی	-10.2658
▁ابر	-10.2658
▁آپارتمان	-10.266
▁سازگار	-10.2662
اما	-10.2673
سر	-10.2677
▁مردمی	-10.2704
▁برایم	-10.271
▁افزوده	-10.2717
▁بده	-10.2717
an	-10.2723
▁رسند	-10.2732
▁شبانه	-10.2739
▁بشری	-10.274
▁غلط	-10.2744
▁s	-10.2744
▁بروند	-10.2753
▁طلایی	-10.2759
▁مالک	-10.2759
▁مسیحی	-10.2759
▁ویدیو	-10.2767
▁قایق	-10.2768
▁۲۰۱۵	-10.2768
▁برداشته	-10.2769
▁درب	-10.277
▁۱۷	-10.2772
یس	-10.2775
▁شر	-10.2776
▁الگوریتم	-10.2777
▁عبارتند	-10.2779
▁انفجار	-10.2782
▁مقداری	-10.2782
▁نیرو	-10.2787
*	-10.2801
▁سئو	-10.2804
▁یکپارچه	-10.2808
▁گوناگون	-10.2811
10	-10.2817
▁دریای	-10.2821
▁استعداد	-10.2829
▁پیمان	-10.283
▁گو	-10.283
▁آشپزخانه	-10.2843
▁خالص	-10.2844
▁ببینم	-10.2847
▁اوج	-10.2859
نده	-10.2861
▁مواقع	-10.2867
پس	-10.2868
▁حرکات	-10.2881
▁مسدود	-10.2881
▁محبت	-10.2882
▁توانسته	-10.2886
▁فیزیک	-10.2888
▁22	-10.2888
▁بینم	-10.2906
ra	-10.2917
▁آقا	-10.292
▁سوئد	-10.2925
▁زندانیان	-10.293
▁بعدها	-10.2942
▁جنس	-10.2944
▁ابتدای	-10.2954
▁محروم	-10.2956
▁شایسته	-10.2958
▁سازماندهی	-10.2958
▁بگذارند	-10.2958
▁سایبری	-10.2962
▁کشی	-10.2966
▁طراحان	-10.2967
▁بابت	-10.2977
▁كنند	-10.2981
▁گرما	-10.2983
▁منطق	-10.2994
▁تکه	-10.2998
▁کلیسای	-10.3004
▁دراز	-10.3005
▁انتظارات	-10.3018
▁قضیه	-10.3033
▁لاتین	-10.3034
▁2011	-10.3034
▁نکنند	-10.3035
▁هایتان	-10.3037
▁سخنان	-10.3055
▁IP	-10.3059
▁گردش	-10.3066
▁اصلاً	-10.3076
▁1-	-10.3077
▁مضر	-10.3077
▁وکیل	-10.3078
▁مفاهیم	-10.3079
▁خودداری	-10.3079
▁ریاضی	-10.3083
▁فهمید	-10.3087
▁رمز	-10.309
▁جانب	-10.3091
▁خرد	-10.3095
▁طراح	-10.3106
▁آشنایی	-10.3113
▁هلند	-10.312
▁بایستی	-10.3123
▁پرچم	-10.3126
▁روانشناسی	-10.3127
▁کف	-10.3129
▁غم	-10.313
▁معدنی	-10.3134
▁محض	-10.3138
▁سرتاسر	-10.3149
▁آیفون	-10.3149
▁زایمان	-10.3149
▁کامپیوتری	-10.3155
▁فرود	-10.316
▁آفریقای	-10.3163
_	-10.317
▁برگشت	-10.3178
▁شیشه	-10.3188
▁میشه	-10.3191
▁سنی	-10.3194
▁شوهر	-10.3202
▁بدهیم	-10.3205
▁کنه	-10.3207
▁رفتاری	-10.3212
on	-10.3217
شما	-10.322
▁طلب	-10.3222
▁2013	-10.3225
▁ارمغان	-10.3227
▁جبران	-10.3228
▁کانادایی	-10.323
▁روبه	-10.3233
▁حیوان	-10.3255
▁قائل	-10.3266
▁خوشبختانه	-10.3267
▁شهروند	-10.3271
▁200	-10.3274
▁دانستن	-10.3285
▁فریب	-10.3292
▁معنوی	-10.33
▁معاصر	-10.3306
▁اسپانیایی	-10.3307
▁رحم	-10.3315
▁سریعتر	-10.3317
▁پیوسته	-10.3318
▁درختان	-10.3318
مانند	-10.332
▁جغرافیایی	-10.332
▁دارویی	-10.3321
▁مجهز	-10.3345
▁عسل	-10.3345
▁نصف	-10.3346
▁ندیده	-10.3347
▁ویزا	-10.3355
▁جدایی	-10.3356
▁۸۰	-10.3359
▁ف	-10.3373
▁تصادفی	-10.3386
▁دوشنبه	-10.3386
▁بگو	-10.3389
▁مکزیک	-10.3391
▁دستمزد	-10.3399
▁گوشه	-10.3401
▁آرزو	-10.3407
▁مشکلاتی	-10.3409
+	-10.3409
▁کمونیست	-10.341
▁عملیاتی	-10.3417
▁بوجود	-10.3425
▁جزو	-10.343
▁دائم	-10.343
▁فراوان	-10.3435
▁رقص	-10.3437
▁بروم	-10.3443
▁دم	-10.3449
▁حدی	-10.3456
▁ماجرا	-10.3457
▁چوب	-10.3464
▁افتتاح	-10.3464
▁غلبه	-10.3465
▁تمدن	-10.3465
▁ادبیات	-10.3466
▁پرده	-10.3469
▁امّا	-10.347
▁راستا	-10.3472
▁گرایی	-10.3474
▁سوئیس	-10.3475
▁بدهم	-10.3478
▁ناتو	-10.3481
▁نبودند	-10.3485
▁سومین	-10.3493
▁خطا	-10.3494
▁میباشد	-10.3499
▁بگویند	-10.3505
▁نویسد	-10.3508
▁تایلند	-10.3516
ره	-10.3518
▁آر	-10.352
z	-10.3525
ط	-10.353
▁دام	-10.3534
▁جور	-10.3535
▁مت	-10.3539
▁مایکروسافت	-10.3545
▁بنویسید	-10.3545
▁اسید	-10.3546
▁رأی	-10.3549
▁مسافران	-10.3554
▁پ	-10.3561
▁داغ	-10.3563
▁مغازه	-10.3586
▁فرماید	-10.3586
▁2008	-10.3586
روز	-10.3594
▁سپری	-10.3597
آیا	-10.3599
مه	-10.3602
U	-10.3616
▁500	-10.3623
آ	-10.3625
▁متقاعد	-10.3626
▁گرسنگی	-10.363
▁تعهدات	-10.3635
▁موضوعی	-10.3637
▁نادرست	-10.3639
▁شایع	-10.3647
▁ماهیت	-10.3651
▁گرا	-10.3654
کل	-10.3657
▁ساکن	-10.3662
▁شنا	-10.3667
▁مسجد	-10.3668
▁شکسته	-10.3668
▁فهم	-10.3674
▁بنیاد	-10.3677
▁رویدادهای	-10.3683
▁قوم	-10.369
▁رم	-10.3708
▁ارتقاء	-10.3708
▁جاذبه	-10.3709
▁اسباب	-10.3709
▁هواپیمای	-10.371
▁ضرر	-10.371
▁جنایت	-10.3715
▁یکبار	-10.3717
▁عصبانی	-10.3718
▁پوند	-10.3721
▁زیرساخت	-10.3729
▁دونالد	-10.375
▁فرمول	-10.3755
):	-10.3762
▁فرزندتان	-10.3762
▁وری	-10.3762
▁مخاطب	-10.3778
▁ابراهیم	-10.3791
▁ائتلاف	-10.3791
▁پردازد	-10.3792
▁فروخته	-10.3796
▁خروجی	-10.3798
▁اداری	-10.38
▁ویدئویی	-10.3808
▁2-	-10.3814
▁گی	-10.3816
ضعیف	-10.3818
▁بیفتد	-10.3832
▁بیاورید	-10.3832
▁مالیاتی	-10.3844
▁مسافرت	-10.3852
صدور	-10.3863
▁c	-10.3869
▁جولای	-10.3874
▁صبحانه	-10.3878
▁پلی	-10.3879
▁رفاه	-10.3881
▁ملک	-10.3884
▁to	-10.389
▁نوزادان	-10.3894
▁لو	-10.3896
▁Z	-10.3898
سال	-10.3898
▁خوراکی	-10.3907
▁شهید	-10.3907
▁نهادهای	-10.3911
▁سبزیجات	-10.3916
▁مغذی	-10.3916
▁زلزله	-10.3916
▁قاره	-10.3916
▁حمام	-10.3917
▁خونی	-10.3918
▁حساسیت	-10.3919
▁تکان	-10.3922
▁حرارت	-10.393
▁بال	-10.3939
▁نویس	-10.395
▁برآورد	-10.3956
▁کیست	-10.3956
▁سقف	-10.3958
▁خواص	-10.3958
▁تاخیر	-10.3964
▁وحشت	-10.3965
▁کوبا	-10.3969
۷	-10.3969
▁مربوطه	-10.3971
▁لیبی	-10.3973
اجد	-10.398
–	-10.3986
▁کو	-10.3986
▁بداند	-10.399
▁اسکن	-10.3993
▁واردات	-10.3999
▁موانع	-10.4
▁ژوئیه	-10.4
▁خونریزی	-10.4
▁پژوهشگران	-10.4002
▁رساندن	-10.4006
▁جسمی	-10.4009
▁دستی	-10.401
▁بو	-10.404
▁آمازون	-10.4042
▁حاکمیت	-10.4044
▁تب	-10.4046
▁ساکنان	-10.4048
ْ	-10.4052
▁رسمیت	-10.4058
▁28	-10.4062
▁مکالمه	-10.4085
▁خستگی	-10.4085
▁بمانید	-10.4085
▁دردناک	-10.4085
▁مشخصات	-10.4111
▁شاخه	-10.4112
▁نماد	-10.4115
▁بنده	-10.4118
▁ویتنام	-10.4127
▁مسکن	-10.4128
▁ترویج	-10.4128
▁حقایق	-10.4128
▁دیوید	-10.4128
▁مذهب	-10.4142
▁معدن	-10.4144
▁وسط	-10.4149
▁مطلق	-10.4151
▁دیجیتالی	-10.4152
مین	-10.4163
▁بعدا	-10.4165
▁'	-10.4165
▁تبادل	-10.4168
▁واکسن	-10.4171
▁گواهینامه	-10.4171
«	-10.4172
▁آینه	-10.4172
▁خورند	-10.4173
▁بمانند	-10.4173
▁خرده	-10.4178
▁برگ	-10.4179
▁۲۱	-10.4186
▁موضع	-10.4187
▁جنین	-10.4189
▁الی	-10.4197
▁حدس	-10.4197
▁اوت	-10.4201
▁خیانت	-10.4207
▁جزئی	-10.4212
▁فالون	-10.4215
▁تعمیر	-10.4233
▁خداست	-10.4238
۱۹	-10.4254
▁لوازم	-10.4257
▁فاقد	-10.4257
▁بکشید	-10.4257
▁پرندگان	-10.4258
▁300	-10.4272
▁مشورت	-10.4274
▁نعمت	-10.4274
▁کارآمد	-10.4276
▁23	-10.4285
▁جنسیت	-10.4289
▁گیرنده	-10.4294
▁اگه	-10.4302
▁جیمز	-10.4303
▁قدردانی	-10.4316
▁فولاد	-10.4318
▁رابط	-10.432
▁اسرائیلی	-10.4324
▁میشوند	-10.4325
;	-10.433
▁اندام	-10.4332
▁کتابی	-10.4337
▁دوز	-10.4344
▁املاک	-10.4345
▁نظرم	-10.4348
▁گیاهی	-10.4351
▁برادران	-10.4359
▁توجیه	-10.4361
▁تنفس	-10.4362
▁گری	-10.4369
غ	-10.4386
▁بصری	-10.4388
▁مستقر	-10.4388
▁تئاتر	-10.4388
▁جدول	-10.4389
▁گذرد	-10.439
▁اضطراری	-10.439
▁ص	-10.4395
▁مطلوب	-10.4403
▁شکار	-10.4403
▁کمال	-10.4404
▁بنیادی	-10.4407
▁اندروید	-10.4408
▁موافق	-10.4411
▁محرک	-10.4417
▁رسیدند	-10.4423
▁اعداد	-10.4432
▁مزمن	-10.4432
▁مالزی	-10.4432
▁پاپ	-10.4435
▁گویید	-10.4436
▁نفرت	-10.4441
▁زدند	-10.4449
▁ناسا	-10.4452
عکس	-10.446
▁مدعی	-10.4466
وم	-10.4475
▁سامسونگ	-10.4476
▁مخلوط	-10.4476
▁اردوگاه	-10.4477
▁لیزر	-10.4479
▁بگیرم	-10.448
▁جوش	-10.448
▁باش	-10.4502
▁غرق	-10.4521
▁2009	-10.4522
▁انتهای	-10.4525
▁کهکشان	-10.454
▁کبد	-10.454
اری	-10.4542
▁فارس	-10.4546
▁f	-10.4547
▁روده	-10.4551
▁۷۰	-10.4551
ic	-10.4552
▁باری	-10.4556
▁خواننده	-10.4563
▁ناشناخته	-10.4565
▁مطلع	-10.4565
▁کشتن	-10.4567
▁بخصوص	-10.4585
▁برف	-10.4592
▁گاو	-10.4597
▁اعتراف	-10.4604
▁موسی	-10.4605
▁تلقی	-10.4606
▁خنک	-10.461
▁بالغ	-10.461
▁حاشیه	-10.461
▁نمایندگی	-10.4612
▁جک	-10.4613
▁برانگیز	-10.4614
▁برنج	-10.4617
▁سان	-10.4619
▁اختصاصی	-10.462
▁میکنید	-10.4622
▁دانشجویی	-10.4628
▁ادرار	-10.463
ود	-10.4633
”.	-10.4646
▁محله	-10.4649
▁سنین	-10.465
▁اعتصاب	-10.4651
▁روحی	-10.4652
▁بزنند	-10.4656
▁بشود	-10.4657
▁2000	-10.4676
بین	-10.4676
▁الکترونیک	-10.4678
▁داوری	-10.4678
▁امپراتوری	-10.4683
▁بردند	-10.469
▁غول	-10.4701
▁مایع	-10.4706
▁بنیان	-10.4711
▁اختلالات	-10.4711
وف	-10.4715
▁الملل	-10.4722
▁آوردند	-10.4722
it	-10.4743
▁خودروهای	-10.4743
▁متمایز	-10.4746
▁کریسمس	-10.4746
▁تحمیل	-10.4746
▁احزاب	-10.4746
نامه	-10.4768
▁ملکه	-10.4772
▁محقق	-10.4779
▁سفارت	-10.4791
▁مخرب	-10.4791
▁آهسته	-10.4792
▁مسأله	-10.4793
▁ظاهرا	-10.4807
▁گیریم	-10.482
▁شعار	-10.4822
▁۱۹	-10.4824
▁2010	-10.4834
کس	-10.4837
▁قطر	-10.4837
▁ناهار	-10.4837
▁۲۰۱۸	-10.4838
▁خلاقانه	-10.4839
شون	-10.4844
▁آرزوی	-10.4851
▁تعطیل	-10.4857
▁مهمتر	-10.4857
▁باهوش	-10.4858
▁ارتقا	-10.4858
▁مرورگر	-10.4859
▁نان	-10.4861
▁رقابتی	-10.4862
▁طوفان	-10.4862
▁مسن	-10.4862
▁خواه	-10.4866
▁شکاف	-10.4882
▁آپ	-10.4884
▁نظری	-10.4886
▁حسن	-10.4886
▁کشت	-10.4894
▁دانستند	-10.4895
▁هایم	-10.4907
▁فیبر	-10.4918
▁عروسی	-10.492
همه	-10.492
▁یابی	-10.4921
▁آگهی	-10.493
▁۲۰۱۱	-10.4931
▁2020	-10.4932
▁بازرگانی	-10.4942
▁پسران	-10.495
▁يک	-10.4954
▁ششم	-10.4959
▁سالها	-10.4959
▁توضیحات	-10.4964
کر	-10.4966
▁دانشجو	-10.4968
▁شی	-10.4973
▁تأسیس	-10.4973
▁HIV	-10.4976
▁لب	-10.4985
▁بشریت	-10.4989
▁تیر	-10.4993
▁کارایی	-10.4994
▁تجویز	-10.4999
▁سیر	-10.5015
▁کالا	-10.5018
▁ترسناک	-10.5023
▁تیره	-10.5053
▁نداشتم	-10.5054
ri	-10.5059
▁مربع	-10.507
▁انیمیشن	-10.507
▁وابستگی	-10.507
▁خریداران	-10.5075
▁چرخ	-10.5076
▁تورم	-10.5077
▁اسد	-10.5085
▁نفتی	-10.5088
▁شرکتی	-10.5093
▁برعکس	-10.5098
▁نوار	-10.5107
▁بیرونی	-10.5111
▁آرامی	-10.5112
▁پیرامون	-10.5117
▁ملاحظه	-10.5118
▁جبهه	-10.5119
▁برسید	-10.5121
▁بتوان	-10.5123
▁جایگزینی	-10.513
▁مهربان	-10.5141
پا	-10.515
▁اینستاگرام	-10.5164
▁بیاورد	-10.5166
▁فروشنده	-10.5171
▁35	-10.5172
▁گوییم	-10.5183
▁مادران	-10.5186
▁فروشی	-10.5191
▁رسول	-10.5201
▁خودروی	-10.5202
ض	-10.5207
▁۲۲	-10.521
re	-10.5212
▁نیروگاه	-10.5213
▁فایده	-10.5213
▁تکیه	-10.5214
▁گفتار	-10.5217
▁شیمی	-10.5219
یست	-10.5222
▁دشواری	-10.5226
▁بودید	-10.5237
▁اینجاست	-10.5237
▁غذاها	-10.524
▁خطای	-10.5253
گیری	-10.5258
¬	-10.526
▁ستارگان	-10.526
▁فنجان	-10.526
▁دوستانه	-10.5261
▁شلیک	-10.5261
▁جزء	-10.5262
▁محافظه	-10.5268
▁فرمت	-10.528
▁لطف	-10.5282
Y	-10.529
▁وادار	-10.5306
▁عواقب	-10.5308
▁خوانندگان	-10.5309
▁۲۰۱۴	-10.5309
▁ربط	-10.5309
▁۲۰۱۳	-10.5309
▁پژوهشی	-10.5311
▁درسی	-10.5311
▁تاریکی	-10.5313
ly	-10.5316
کا	-10.5321
▁پادشاهی	-10.5324
:«	-10.5334
▁نگرش	-10.5337
▁بیکاری	-10.534
▁تغییراتی	-10.5345
▁مثبتی	-10.5347
▁ح	-10.5353
▁پتانسیل	-10.5356
▁پلتفرم	-10.5356
▁قفل	-10.5356
▁تبعیض	-10.5356
▁DNA	-10.5358
▁دافا	-10.5358
▁پروسه	-10.5358
▁قطعاً	-10.536
▁مایکل	-10.5366
▁باستانی	-10.5369
اک	-10.5372
▁لس	-10.5376
▁رحمت	-10.5377
▁مطمئنا	-10.5379
▁کر	-10.5381
u	-10.5385
درصد	-10.5391
▁دیوانه	-10.5397
▁معاون	-10.54
▁تلفنی	-10.54
▁معبد	-10.5405
▁$	-10.5408
▁نوجوان	-10.5411
گو	-10.5413
▁ردیابی	-10.5415
▁شرکای	-10.5418
▁نمک	-10.5432
شود	-10.5442
کاری	-10.5445
روی	-10.5445
▁کمترین	-10.5446
▁پروردگار	-10.5448
▁تشدید	-10.5454
▁نابودی	-10.5456
▁پاره	-10.5458
خود	-10.5459
▁دموکرات	-10.5463
▁شانه	-10.5468
▁مشخصی	-10.5477
▁پدید	-10.5479
▁مهاجر	-10.548
گونه	-10.5482
▁لهستان	-10.5482
um	-10.5487
▁عام	-10.5488
▁نامزد	-10.5491
▁دریافتند	-10.5502
▁مأموریت	-10.5503
▁همینطور	-10.5504
▁دیروز	-10.5504
▁چنانچه	-10.5504
▁اندک	-10.5509
▁26	-10.5515
et	-10.5523
▁سمی	-10.5538
▁مجددا	-10.5539
▁قسم	-10.554
▁نوری	-10.5544
J	-10.5551
▁رزرو	-10.5552
▁محاکمه	-10.5553
▁درگذشت	-10.556
▁کرم	-10.5591
▁قطعی	-10.5598
▁معجزه	-10.5601
▁تخلیه	-10.5601
▁اذیت	-10.5601
▁شتاب	-10.5601
▁اعتیاد	-10.5602
▁کلسترول	-10.5602
▁کشتار	-10.5603
▁داستانی	-10.5609
▁اینطور	-10.561
▁اظهارات	-10.5613
▁مسافر	-10.5615
▁جوانی	-10.5616
ch	-10.5617
▁سوزی	-10.5619
▁دیسک	-10.5621
▁طرفدار	-10.5627
کند	-10.5628
?	-10.5634
▁بازنشستگی	-10.5651
▁شاهزاده	-10.5652
▁دیپلماتیک	-10.5652
▁نقلیه	-10.5654
▁منع	-10.5654
ol	-10.5656
▁اشک	-10.566
▁هنگ	-10.566
▁همسرتان	-10.5664
▁درواقع	-10.5677
▁پیشرو	-10.5686
▁فا	-10.5689
وب	-10.5695
▁معده	-10.5701
!!	-10.5711
▁بدنی	-10.572
بار	-10.5738
▁دوام	-10.575
؟"	-10.5751
▁ظهر	-10.5752
▁آگوست	-10.5752
▁پیشنهادی	-10.5772
to	-10.5772
▁هیچکس	-10.578
نت	-10.5788
▁تسهیل	-10.5797
▁قلعه	-10.5802
▁عمدتا	-10.5803
▁مجسمه	-10.5805
▁قیامت	-10.5806
▁بکند	-10.5807
▁تنگ	-10.5815
▁رکورد	-10.5834
▁Re	-10.5838
جی	-10.5847
▁خلبان	-10.5847
▁ثالث	-10.5851
▁۲۰۱۶	-10.5853
▁حتماً	-10.5853
▁پنجاه	-10.5855
▁الزامات	-10.5856
▁45	-10.5859
▁—	-10.5859
ذ	-10.5867
▁کور	-10.5871
▁سفارشی	-10.5875
▁آنهاست	-10.5875
▁سلطنتی	-10.5887
▁روس	-10.5888
▁تاثیرات	-10.5891
▁شو	-10.5895
▁کافئین	-10.5904
چرا	-10.5905
▁هندی	-10.5911
▁صرفاً	-10.5913
▁ادعای	-10.5915
▁برلین	-10.5915
▁دروازه	-10.5916
۹	-10.5921
▁لیگ	-10.5922
▁آموخته	-10.5932
▁وحشتناک	-10.5933
▁اواسط	-10.5955
-1	-10.5956
▁سواری	-10.5957
▁اجزای	-10.5965
▁حواس	-10.5968
▁مواجهه	-10.5974
ُ	-10.5974
▁لنز	-10.5975
▁مراتب	-10.5988
پی	-10.5988
▁۹۰	-10.5994
▁متقابل	-10.6004
▁اندونزی	-10.6007
▁کریم	-10.6007
▁2006	-10.6009
يت	-10.6009
▁اموال	-10.6011
▁مسئولان	-10.6011
▁زبانی	-10.6016
▁قلمرو	-10.6021
یسم	-10.6028
▁ازای	-10.6039
▁ساعات	-10.604
▁آری	-10.6049
▁حاکی	-10.6058
▁زباله	-10.6058
▁قاتل	-10.6058
▁فشرده	-10.6059
▁غیرممکن	-10.606
▁=	-10.6067
▁امیدواریم	-10.6071
▁تیراندازی	-10.6072
▁]	-10.6075
▁اساسا	-10.6075
▁گره	-10.6078
▁باند	-10.6082
▁ماسک	-10.6099
▁خطاب	-10.6102
▁اطاعت	-10.611
▁پناهندگان	-10.611
▁کیسه	-10.6113
▁تربیت	-10.6114
|	-10.6114
▁برویم	-10.6115
▁امارات	-10.6118
▁ضرب	-10.6121
▁برید	-10.6134
▁ساحلی	-10.6139
▁ماهانه	-10.614
▁چراکه	-10.6158
▁خسارت	-10.6163
▁چهارشنبه	-10.6163
▁صادقانه	-10.6165
▁نمره	-10.6166
▁نگرفته	-10.6168
▁قلم	-10.617
▁کارتان	-10.6171
نس	-10.6174
▁شماری	-10.6175
▁مشتاق	-10.6175
مون	-10.6177
▁گرفتار	-10.6177
▁باب	-10.6191
وت	-10.6192
سازی	-10.6197
ia	-10.6198
▁آزمایشی	-10.6208
▁اصرار	-10.6215
▁بلیط	-10.6215
▁نوبت	-10.6216
▁اخذ	-10.6217
▁m	-10.6217
▁بخواهیم	-10.6218
▁سکه	-10.6219
▁ریزش	-10.6224
▁متقاضیان	-10.6224
▁مطابقت	-10.6226
▁شور	-10.6232
▁شکم	-10.6239
▁فعالان	-10.6245
▁خیال	-10.6245
▁آزمایشات	-10.6246
▁0	-10.6249
▁تابع	-10.6253
علیه	-10.6261
▁چرخش	-10.6262
▁In	-10.6267
▁وقایع	-10.6268
▁شباهت	-10.6268
▁کربوهیدرات	-10.6269
▁·	-10.6269
▁مکرر	-10.627
▁ممنوعیت	-10.6271
▁بلاک	-10.6274
▁تحولات	-10.6274
is	-10.628
خانه	-10.6297
▁روستا	-10.63
▁فرمانده	-10.6301
▁ابزاری	-10.6305
w	-10.6307
▁فرکانس	-10.6321
▁متعادل	-10.6321
▁اقلیت	-10.6322
▁گرایش	-10.6322
▁بکنید	-10.6323
▁میانه	-10.6327
▁روشنایی	-10.6327
▁یکشنبه	-10.6329
▁پیامدهای	-10.6332
▁امروزی	-10.6334
▁فی	-10.6349
▁ناامید	-10.6356
▁التهاب	-10.636
▁نفره	-10.6366
چی	-10.6371
▁آواز	-10.6371
▁تحسین	-10.6375
▁تعویض	-10.6375
▁اشیاء	-10.6375
▁توافقنامه	-10.6377
▁الگو	-10.6384
▁کلاه	-10.6388
▁نیک	-10.6398
▁زیبای	-10.6399
▁تومور	-10.6403
▁افغان	-10.6405
▁افت	-10.6405
>	-10.6407
▁کالاهای	-10.6407
▁درخشان	-10.6412
▁پلاستیک	-10.6413
نو	-10.6423
▁روستایی	-10.6424
▁متناسب	-10.6429
▁دربارۀ	-10.643
▁اختلافات	-10.6438
▁تاپ	-10.644
▁استودیو	-10.644
▁انتخابی	-10.6441
▁سوره	-10.6443
▁پلاستیکی	-10.6444
▁نیت	-10.6466
▁برایشان	-10.6467
▁المپیک	-10.6483
▁گلوله	-10.6483
▁اشتیاق	-10.6483
▁صلاحیت	-10.6483
▁بخواهند	-10.6483
▁قطعنامه	-10.6484
▁کارگردانی	-10.6487
▁رادیویی	-10.6488
▁نشینی	-10.6492
▁تیمی	-10.651
▁پیچ	-10.651
▁2007	-10.6517
ma	-10.652
کننده	-10.6531
▁مهار	-10.6536
▁تعبیر	-10.6537
▁قانع	-10.6537
▁مشکوک	-10.6537
▁عادات	-10.6538
▁جست	-10.6539
▁رهایی	-10.6542
▁اروپای	-10.6546
▁دوری	-10.655
▁نمودند	-10.6555
▁میزبانی	-10.6561
▁بینایی	-10.6576
▁تخفیف	-10.6584
▁۵۰۰	-10.6585
▁آفریقایی	-10.6588
▁متشکل	-10.6592
▁مبادله	-10.6592
▁عادلانه	-10.6592
▁دانشجوی	-10.6593
▁گردشگران	-10.6594
▁Pro	-10.6595
▁عاشقانه	-10.6598
▁جهنم	-10.6608
▁شوخی	-10.6609
▁معیار	-10.6611
▁روشنی	-10.6615
▁بهانه	-10.6616
فی	-10.6621
▁کنگ	-10.6629
▁۲۰۰	-10.6632
▁for	-10.6644
▁رسم	-10.6645
▁بازدیدکنندگان	-10.6647
il	-10.6652
▁نکردند	-10.6655
▁27	-10.6661
▁جادویی	-10.6663
id	-10.6665
▁جلوه	-10.6684
▁صرفا	-10.6686
▁هواپیمایی	-10.6686
▁تسلیحات	-10.6688
▁ایرلند	-10.669
▁مادری	-10.6695
▁احمق	-10.6702
▁ظریف	-10.6702
▁HTML	-10.6703
▁آگاهانه	-10.6706
▁دوش	-10.6718
st	-10.6719
▁شکلات	-10.672
▁بهبودی	-10.6723
▁نسبتاً	-10.6724
▁براي	-10.6727
▁قاضی	-10.673
▁زنانی	-10.6732
▁التحصیل	-10.6738
▁شهرستان	-10.6738
▁قدیم	-10.6744
▁زور	-10.6749
▁نواحی	-10.6758
▁نباشند	-10.6758
▁۲۰۱۰	-10.6759
▁VPN	-10.676
▁خبرنگاران	-10.6763
▁کجاست	-10.6767
▁بازرسی	-10.6775
▁پاسخگویی	-10.6777
شو	-10.6782
▁برتری	-10.6791
▁p	-10.6793
▁داشتید	-10.6802
▁قطب	-10.6804
▁پرو	-10.681
▁اتهام	-10.6811
▁کشند	-10.6813
▁عضلانی	-10.6813
▁یخچال	-10.6813
▁حبس	-10.6814
▁ذرات	-10.6814
▁گذر	-10.6817
▁کارکرد	-10.6817
▁تاریخچه	-10.682
▁آفریده	-10.6821
▁داروی	-10.6827
ro	-10.6831
▁هیچگاه	-10.6836
▁جورج	-10.6837
▁ری	-10.684
▁فارسی	-10.6845
▁حسی	-10.6846
▁اهدا	-10.6853
▁دان	-10.6857
▁همسرم	-10.6857
دل	-10.6867
▁سواحل	-10.687
پر	-10.687
▁امواج	-10.687
▁بریتانیایی	-10.6872
▁هواداران	-10.6874
▁ریاضیات	-10.6875
▁مارکس	-10.6875
v	-10.6883
▁وحشی	-10.6912
فر	-10.6923
▁فقدان	-10.6926
▁آنجلس	-10.6926
▁وردپرس	-10.6926
▁جزایر	-10.6928
▁بازیابی	-10.6931
▁عضویت	-10.6934
▁بتوانم	-10.6938
▁عظیمی	-10.6939
▁افزاری	-10.6943
▁زخمی	-10.6943
▁آتی	-10.6952
سن	-10.6953
▁دبیرستان	-10.697
▁تدریج	-10.697
▁کارگری	-10.6971
▁تصریح	-10.6983
▁بوسیله	-10.6983
▁میتوانند	-10.6989
▁مشاوران	-10.6997
▁ِ	-10.7002
▁جاسوسی	-10.7004
▁انداخت	-10.7008
▁الگوهای	-10.7013
▁دبی	-10.7015
▁زیان	-10.7017
▁نی	-10.7023
▁خدایی	-10.7025
▁شلوغ	-10.7027
▁مستمر	-10.7027
▁جسم	-10.7031
▁ماساژ	-10.7039
▁تم	-10.7039
▁تایمز	-10.704
▁سندرم	-10.7041
▁۲۰۱۲	-10.7041
▁فروشندگان	-10.7042
▁ز	-10.7044
▁پایانی	-10.7051
▁تونل	-10.7056
▁3-	-10.7058
▁ار	-10.7063
▁هی	-10.7068
▁ویرایش	-10.7069
▁یادآور	-10.7079
▁محاسبات	-10.7085
▁انسانها	-10.7092
▁قبیل	-10.7093
▁رابرت	-10.7093
▁پناه	-10.7095
▁استانبول	-10.7098
▁مجمع	-10.7098
▁میکنیم	-10.7098
▁جدیدترین	-10.71
▁اشتباهی	-10.7104
▁غریب	-10.7107
▁ترکیبات	-10.7124
▁ولایت	-10.7128
▁مرزی	-10.7134
at	-10.714
▁خلاص	-10.7141
▁۳۵	-10.7144
▁بیایند	-10.7157
▁نخواهیم	-10.7157
▁شفافیت	-10.7157
▁توانستیم	-10.7164
▁سطحی	-10.7169
ar	-10.718
▁کارش	-10.7181
▁1000	-10.7182
▁عهد	-10.7196
▁پیشنهادات	-10.7203
▁نامناسب	-10.7213
▁زاویه	-10.7214
▁بالینی	-10.7214
▁پیوستن	-10.7214
▁مرجع	-10.7215
▁SEO	-10.7215
فت	-10.7218
▁سرطانی	-10.7219
▁مریم	-10.7221
▁نحوی	-10.7222
▁هرکسی	-10.7222
▁مخالفان	-10.723
ers	-10.7237
Q	-10.7252
co	-10.7255
20	-10.726
▁پشتیبان	-10.7261
▁خاطره	-10.7261
يم	-10.7262
▁پیچیدگی	-10.7272
▁بمباران	-10.7272
▁کشاورزان	-10.7277
دن	-10.7287
۸	-10.7299
▁پرهیز	-10.7303
▁رضا	-10.7304
▁مهندس	-10.731
▁بدل	-10.7313
▁پردازند	-10.7317
بخش	-10.7318
▁رقیب	-10.7325
▁طرفی	-10.7327
▁آلرژی	-10.7328
▁سرزنش	-10.7331
▁مستلزم	-10.7331
▁کامیون	-10.7331
▁۲۰۱۷	-10.7331
▁بسازد	-10.7331
▁صدمه	-10.7332
▁قوت	-10.7334
فا	-10.7334
▁Y	-10.7339
▁نشستن	-10.734
▁تغییری	-10.7341
▁الف	-10.7344
▁روحیه	-10.7355
▁چهل	-10.7357
▁همکار	-10.736
▁نازی	-10.7361
▁مرتبه	-10.7363
▁مدیره	-10.7365
▁آدمی	-10.7372
▁روشهای	-10.7378
▁تلخ	-10.7387
▁عبادت	-10.7388
▁سخنگوی	-10.739
▁مقطع	-10.739
▁خوابیدن	-10.7391
▁فرشته	-10.7391
▁فورا	-10.7392
▁محبوبیت	-10.7395
▁هوشمندانه	-10.7395
▁مردمان	-10.7396
▁فر	-10.7401
▁مسیحیان	-10.7402
▁d	-10.7411
بل	-10.7414
▁پرداخته	-10.7414
▁خوشبختی	-10.7432
▁روید	-10.7434
▁موی	-10.7436
▁نمودار	-10.7445
جو	-10.7449
▁احاطه	-10.7449
▁هیتلر	-10.7449
▁مقصر	-10.7449
▁نشوید	-10.745
▁متأسفانه	-10.745
▁قصه	-10.7451
▁وفاداری	-10.7459
▁دنیایی	-10.746
▁برش	-10.7463
▁معیارهای	-10.7464
man	-10.7465
▁4-	-10.7482
▁ناتوانی	-10.7486
▁شوک	-10.7494
▁افسر	-10.7501
▁یقین	-10.7504
▁آکادمی	-10.7506
▁مست	-10.7508
▁سم	-10.7509
▁تسلط	-10.7509
▁قبال	-10.751
▁شناسند	-10.7513
▁هدر	-10.752
▁اندازد	-10.7521
▁دفعه	-10.7528
▁توانی	-10.7538
▁متحدان	-10.755
▁آرژانتین	-10.756
▁مسلم	-10.7562
▁هشتم	-10.7601
▁نحو	-10.7605
ion	-10.7606
▁بستر	-10.7608
زد	-10.7616
▁ممنون	-10.7621
▁صاف	-10.7634
▁سپرده	-10.7635
▁آفرینش	-10.7636
▁حیوانی	-10.7642
▁زانو	-10.7648
▁مدیریتی	-10.7658
▁شناسان	-10.7662
▁دیدند	-10.7669
▁رویای	-10.7674
▁وفادار	-10.7683
▁سازگاری	-10.7684
▁انتخاباتی	-10.7698
▁وصل	-10.7701
۱۰	-10.7701
▁پردازنده	-10.7707
▁بخشید	-10.7717
12	-10.773
▁قضایی	-10.7738
؟”	-10.7745
“	-10.775
▁بازنشسته	-10.7752
▁ورزشکاران	-10.7757
▁فرمودند	-10.7761
اف	-10.7769
▁تهدیدات	-10.7771
▁ویدیویی	-10.7772
▁متغیر	-10.7787
▁برقی	-10.7791
کن	-10.7793
▁تاکسی	-10.7797
▁بیستم	-10.7798
▁لپ	-10.7799
▁31	-10.7804
▁مولکول	-10.7807
سه	-10.7813
وقت	-10.7813
▁نکنیم	-10.7818
▁آیین	-10.7819
▁كرده	-10.7826
هیچ	-10.7828
lo	-10.783
▁پله	-10.7839
▁ق	-10.7846
The	-10.7851
▁شکستن	-10.7863
▁نقره	-10.7876
▁قاچاق	-10.7876
▁MBA	-10.7878
▁مدام	-10.7879
▁کارفرمایان	-10.788
▁تکراری	-10.7887
▁انداخته	-10.7892
▁دلایلی	-10.7896
▁واحدهای	-10.7899
ir	-10.7902
▁ماهر	-10.7903
ur	-10.7924
▁شهروندی	-10.7925
ad	-10.7926
▁75	-10.7928
▁بینش	-10.7933
▁کلمبیا	-10.7938
▁مرطوب	-10.7939
▁سلطه	-10.7939
▁شناسد	-10.7941
▁انگیزی	-10.7941
▁امشب	-10.7941
▁نگاران	-10.7952
دا	-10.7954
▁بوش	-10.7957
▁فرش	-10.796
▁پویا	-10.7964
▁چ	-10.7966
▁ارث	-10.7967
▁سردرد	-10.7975
▁تهاجمی	-10.7976
▁پیری	-10.7978
جا	-10.7979
▁همراهی	-10.7982
▁بنی	-10.7986
▁اعصاب	-10.8002
▁مزرعه	-10.8002
▁گرجستان	-10.8002
▁iOS	-10.8002
شده	-10.8003
▁پکن	-10.8003
▁جهش	-10.8004
▁اعتراضات	-10.8008
▁مقدمه	-10.8015
ائی	-10.8019
▁آوریم	-10.8031
▁نوین	-10.8033
ie	-10.8036
▁جنسیتی	-10.8044
أ	-10.8044
▁صعود	-10.8058
▁محوطه	-10.8065
▁ناخواسته	-10.8065
▁1990	-10.8065
▁تجارب	-10.8067
▁اشعه	-10.8067
▁آسیایی	-10.8067
▁منظر	-10.807
▁ترور	-10.8077
▁پستان	-10.808
▁اینقدر	-10.8114
▁دانشمند	-10.8118
▁تطبیق	-10.8122
▁حامی	-10.8123
▁گفتیم	-10.8128
▁پارچه	-10.813
▁الماس	-10.813
▁بیگانه	-10.8131
▁بیل	-10.8132
▁هیات	-10.8132
▁سامانه	-10.814
▁برسیم	-10.8141
▁متعال	-10.8142
▁شن	-10.8143
▁آشپزی	-10.8143
▁پیکر	-10.8158
▁معتقدم	-10.8161
▁بورس	-10.8175
▁عجله	-10.8193
▁پروفسور	-10.8193
▁ترانه	-10.8193
▁قومی	-10.8195
▁فرآیندهای	-10.8199
▁گیج	-10.82
▁دلخواه	-10.82
▁سیاستمداران	-10.8201
▁کش	-10.8205
▁بردارید	-10.8206
▁ترسیم	-10.8211
گری	-10.8214
▁دوستش	-10.8215
▁جعلی	-10.8221
▁ساعته	-10.8226
▁سوری	-10.8231
▁رسانده	-10.8234
▁تام	-10.824
▁قیمتی	-10.8242
▁هک	-10.8242
یعنی	-10.8244
▁کارگاه	-10.8244
▁رویاهای	-10.8248
یو	-10.8248
▁لحظات	-10.8253
▁نمایان	-10.8253
▁بالاتری	-10.8254
▁باطل	-10.8255
▁اعزام	-10.8257
▁تعقیب	-10.8257
▁کاتولیک	-10.8257
▁ترغیب	-10.8258
▁مستقیما	-10.8258
▁شراب	-10.8259
▁شورش	-10.8264
▁بخشیدن	-10.8265
▁One	-10.8275
دان	-10.8282
اش	-10.8284
▁ریز	-10.8285
▁بندر	-10.8288
بو	-10.8301
▁سپاه	-10.8305
▁صف	-10.8305
▁اتم	-10.831
▁جالبی	-10.832
▁گرسنه	-10.8322
▁اتوماتیک	-10.8322
▁۲۰۰۹	-10.8323
▁علل	-10.8324
▁عزت	-10.8324
▁400	-10.8325
▁بیا	-10.8335
▁عراقی	-10.8337
▁اي	-10.8341
▁پسرش	-10.8348
▁ساختاری	-10.8348
▁کان	-10.835
▁یادم	-10.8353
▁۲۰۰۰	-10.8354
▁ارای	-10.8364
▁نگار	-10.8365
▁اجتماع	-10.8375
لین	-10.8379
▁مفصل	-10.8384
▁بپردازید	-10.8388
▁سفیر	-10.8388
▁ژنرال	-10.8388
▁تلسکوپ	-10.8388
▁پوتین	-10.8388
▁اسرار	-10.8389
▁يا	-10.8391
▁براى	-10.8392
▁اچ	-10.8398
▁مستقیماً	-10.8399
▁29	-10.84
▁قهرمانی	-10.8402
▁عینک	-10.8409
▁سؤالات	-10.841
▁تولیدی	-10.8411
▁دود	-10.8424
▁گرداند	-10.8428
▁سیل	-10.8429
▁جانبه	-10.8431
▁خدایان	-10.8433
▁قد	-10.8435
شی	-10.8448
▁معکوس	-10.8453
▁مذکور	-10.8453
▁تمدید	-10.8454
▁مریخ	-10.8454
▁وحدت	-10.8454
▁استوار	-10.8455
▁●	-10.8455
▁توبه	-10.8457
▁2003	-10.8458
▁نامحدود	-10.8459
▁میدهند	-10.846
ئو	-10.8468
▁e	-10.8487
▁واگذار	-10.8492
li	-10.8499
▁اقداماتی	-10.8499
▁بازتاب	-10.8499
▁۲۷	-10.8503
▁ایکس	-10.8508
▁کارآفرینی	-10.8512
▁سودمند	-10.8517
▁هنرهای	-10.8517
▁ذخایر	-10.852
▁صریح	-10.852
▁پیغام	-10.852
▁رانندگان	-10.852
▁جسد	-10.852
▁یوگا	-10.8522
▁موقعیتی	-10.8525
▁ویران	-10.853
▁غریبه	-10.8536
!!!	-10.8537
▁باورند	-10.8551
▁بازخورد	-10.8552
▁۲۳	-10.8557
▁خیره	-10.8567
رد	-10.8575
▁قیام	-10.8582
▁عبارات	-10.8586
▁Wi	-10.8586
▁قرون	-10.8587
▁La	-10.8588
▁میتوان	-10.8591
▁نظامیان	-10.8591
توانید	-10.8591
▁اخیراً	-10.8599
▁صدر	-10.8607
▁ابد	-10.8612
▁ایالتی	-10.862
am	-10.8622
▁دفع	-10.8625
▁برابری	-10.8627
▁زیستی	-10.8633
▁150	-10.8636
▁بعداً	-10.8643
▁5-	-10.8651
▁آستانه	-10.8657
▁خریدار	-10.8661
50	-10.8666
▁برداشتن	-10.8676
وه	-10.8679
▁هواپیماهای	-10.8684
اتی	-10.8697
▁چرب	-10.8705
▁غالب	-10.8706
▁i	-10.8712
▁2005	-10.8713
▁سرش	-10.8713
▁تصادف	-10.8715
▁اکسید	-10.8716
▁مبارزات	-10.8719
▁بایگانی	-10.8721
▁بپردازد	-10.8721
▁فدراسیون	-10.8721
▁غالباً	-10.8722
▁دستگیری	-10.8725
▁نگاری	-10.8725
▁پوستی	-10.8729
30	-10.8729
▁اندوه	-10.8737
▁دستان	-10.8745
▁دوازده	-10.875
▁نداد	-10.8752
▁بطری	-10.8752
▁دارا	-10.8755
ــ	-10.8777
▁شهرداری	-10.8785
▁اعطا	-10.8787
▁شرکتهای	-10.8788
▁ناخودآگاه	-10.8789
▁غزه	-10.8789
▁دفن	-10.8789
▁توطئه	-10.8789
▁آغوش	-10.8789
▁کنسرت	-10.8789
▁یوسف	-10.879
▁دستیار	-10.8794
▁آماری	-10.8811
as	-10.8818
▁اینکار	-10.8818
▁افشا	-10.8819
▁مس	-10.882
پل	-10.8828
▁بازمی	-10.883
▁سفرهای	-10.8841
▁آخرت	-10.8843
کت	-10.8844
▁فلزی	-10.8846
▁نامند	-10.8846
▁آسیای	-10.8847
▁قرض	-10.8855
شه	-10.8855
▁بپردازند	-10.8857
▁پروفایل	-10.8858
▁کلینتون	-10.8858
▁قاعده	-10.8858
▁منصفانه	-10.8858
▁بخار	-10.8858
▁URL	-10.8859
▁ببریم	-10.886
▁لوکس	-10.886
▁پرستار	-10.8861
▁اوراق	-10.8862
▁حامیان	-10.8863
▁32	-10.8864
▁مسیرهای	-10.8875
▁شوی	-10.8877
▁چهارمین	-10.8883
▁راهنما	-10.8887
▁سوپر	-10.889
▁قراردادهای	-10.8891
▁داوطلب	-10.8909
▁شخصیتی	-10.891
▁بازگرداند	-10.8914
▁استخر	-10.8917
▁خبرنگار	-10.8919
▁کارشان	-10.8924
▁حیرت	-10.8926
▁فاز	-10.8929
▁مدال	-10.893
▁پوشیده	-10.8931
▁جین	-10.8932
▁قدری	-10.8935
▁فلز	-10.8938
▁خوشحالم	-10.8938
▁زاده	-10.8939
▁آلات	-10.894
▁انگشتان	-10.8944
▁دستورات	-10.8948
نشان	-10.8951
▁خوشحالی	-10.8952
▁_	-10.8952
▁روستای	-10.8955
▁سازه	-10.8965
▁مقاوم	-10.8992
▁تدوین	-10.8996
▁ماجراجویی	-10.8996
▁ستایش	-10.8996
▁تقلید	-10.8996
▁حاملگی	-10.8996
▁سازندگان	-10.8997
▁ISO	-10.8998
▁فیلیپین	-10.8998
▁لیبرال	-10.8998
▁بزرگسال	-10.9
▁اپ	-10.9003
▁آزادانه	-10.9009
٫	-10.901
▁فاش	-10.9016
un	-10.9023
▁گرفتیم	-10.9024
▁بازگرداندن	-10.9029
▁تایپ	-10.9035
▁گناهان	-10.904
▁انتقادی	-10.9041
▁وال	-10.9051
▁جیب	-10.9052
▁مسائلی	-10.9056
هزار	-10.9059
0	-10.9061
▁شجاعت	-10.9065
▁پوشیدن	-10.9065
▁وسوسه	-10.9066
▁1980	-10.9066
▁بیاورند	-10.9066
▁نشریه	-10.9068
▁مغناطیسی	-10.907
زی	-10.9079
▁پذیرفت	-10.9095
▁نکن	-10.9104
▁Me	-10.9107
ستان	-10.9107
▁فضاهای	-10.9111
▁سرو	-10.9112
سا	-10.9112
▁تعلیم	-10.9127
▁خشمگین	-10.9136
▁غبار	-10.9136
▁انتقام	-10.9137
▁بخرید	-10.9138
▁خدماتی	-10.9138
▁بنزین	-10.9138
▁خاتمه	-10.9138
▁گونگ	-10.9139
وری	-10.9147
رغم	-10.9159
▁پرسیده	-10.9167
000	-10.9176
▁میکرو	-10.9189
▁بنظر	-10.919
داری	-10.9191
هاست	-10.92
▁de	-10.9201
▁تحرک	-10.9204
▁پمپ	-10.9207
▁عذرخواهی	-10.9207
▁ماژول	-10.9207
▁تعلیق	-10.9208
▁محرمانه	-10.9208
▁كنید	-10.9208
▁خجالت	-10.9209
▁خشن	-10.921
▁تپه	-10.921
▁یونانی	-10.9212
▁خ	-10.9213
▁پذیرد	-10.9216
▁((	-10.9217
▁ماندگار	-10.9217
▁پلت	-10.9231
تری	-10.9232
▁زنم	-10.9243
▁گزارشی	-10.9248
▁وحش	-10.9261
عهده	-10.9267
▁فیل	-10.9267
▁پخت	-10.927
▁فروپاشی	-10.9279
▁متداول	-10.9279
▁تناسب	-10.9279
▁معین	-10.9284
▁مهندسان	-10.9287
کم	-10.9288
له	-10.9298
▁برو	-10.9299
▁متخصصین	-10.9301
وز	-10.9307
▁استثنایی	-10.9308
ران	-10.9312
▁سوالی	-10.9316
▁شرم	-10.9322
کنند	-10.9323
▁آزمایشگاهی	-10.9328
▁بلد	-10.9329
▁گرامی	-10.9332
▁یو	-10.9335
▁پاهای	-10.9345
▁کارشناس	-10.9346
▁داشتنی	-10.935
▁گازهای	-10.935
▁دفاتر	-10.9351
▁سلسله	-10.9351
▁شنوایی	-10.9351
▁بشناسید	-10.9351
▁مارتین	-10.9351
▁بغداد	-10.9351
▁گالری	-10.9351
▁صداقت	-10.9351
▁USB	-10.9352
▁بکنند	-10.9354
▁پنیر	-10.9354
▁برجام	-10.9357
▁نوزدهم	-10.9358
▁پاییز	-10.9359
▁افزونه	-10.9359
▁b	-10.9361
▁فورد	-10.9362
▁شناس	-10.9363
▁هفتم	-10.9371
جه	-10.9377
ne	-10.9382
▁ساختارهای	-10.939
گرد	-10.9392
▁پیوست	-10.9393
▁بادی	-10.9396
▁خم	-10.9407
▁جراح	-10.941
ta	-10.9418
▁نانو	-10.9418
▁اردن	-10.9423
▁معاهده	-10.9423
▁مقاصد	-10.9423
▁عقاید	-10.9423
▁جریمه	-10.9423
▁توهین	-10.9423
▁شیوع	-10.9424
▁بگذاریم	-10.9424
▁بیوتیک	-10.9424
▁نرسیده	-10.943
مر	-10.9434
▁حکمت	-10.9437
▁(19	-10.9445
▁on	-10.9452
▁شدیدی	-10.9459
▁درصدی	-10.9462
▁کیلومتری	-10.9472
▁باهم	-10.9472
گا	-10.9476
▁همکارانش	-10.9484
▁سلولی	-10.9486
▁تکذیب	-10.9496
▁انسولین	-10.9496
▁متحرک	-10.9496
▁صبور	-10.9496
▁شیعه	-10.9496
▁برسانید	-10.9496
▁بلندمدت	-10.9496
▁برسانند	-10.9496
▁بکشند	-10.9497
▁احمقانه	-10.9497
▁ترمیم	-10.9498
▁بلژیک	-10.9498
▁هرکدام	-10.9502
زن	-10.9504
▁بجای	-10.9519
▁گویا	-10.952
▁کیک	-10.9521
▁شمشیر	-10.9522
▁x	-10.9523
▁امری	-10.9536
▁محو	-10.9537
ستای	-10.954
يه	-10.954
▁بست	-10.9541
▁صداهای	-10.9542
وقتی	-10.9543
▁۴۵	-10.9549
▁چت	-10.9549
▁تابستانی	-10.9553
▁وار	-10.9563
▁همگان	-10.9564
▁پیتر	-10.9569
▁تثبیت	-10.957
▁همیشگی	-10.957
▁متنفر	-10.9572
▁ریخته	-10.9576
مو	-10.9577
جنگ	-10.9579
▁افراطی	-10.9585
▁نرمال	-10.9587
تیک	-10.9592
▁تجربی	-10.9594
▁حرفی	-10.9599
▁صلیب	-10.9611
▁نمای	-10.9612
،000	-10.9613
▁قم	-10.9613
▁خان	-10.9616
os	-10.9621
ine	-10.964
▁انبوه	-10.9644
▁تأخیر	-10.9644
▁پنجشنبه	-10.9644
بال	-10.9644
▁نوآورانه	-10.9645
▁بابا	-10.9646
▁دانمارک	-10.9648
▁قبیله	-10.9649
▁جذابیت	-10.9652
▁مادی	-10.9658
▁De	-10.9671
▁امان	-10.9676
▁اقدامی	-10.9688
▁پورت	-10.969
▁محدودی	-10.9692
▁کیت	-10.9697
▁مبارک	-10.9704
▁ل	-10.9711
▁مترو	-10.9712
▁سید	-10.9714
▁محترم	-10.9717
▁مدیرعامل	-10.9718
▁رمزگذاری	-10.9718
▁قواعد	-10.9719
▁نوبل	-10.9719
▁رونمایی	-10.9719
▁اسپرم	-10.9723
▁Home	-10.9724
▁دایره	-10.9726
▁گرگ	-10.9729
la	-10.9732
▁آرایش	-10.9734
Z	-10.9739
▁بازیافت	-10.9741
▁انها	-10.9746
▁فرقه	-10.9754
▁نتوانست	-10.9765
▁متقاضی	-10.9782
▁تند	-10.9782
▁گردیده	-10.9784
▁h	-10.9786
یده	-10.9788
▁زحمت	-10.9793
▁رمزنگاری	-10.9793
▁فرشتگان	-10.9794
▁۲۰۰۸	-10.9794
▁بدیهی	-10.9794
▁نازل	-10.9795
▁2004	-10.9797
▁تاکتیک	-10.9799
▁پیشتر	-10.9803
▁مسیحیت	-10.9807
▁دادستان	-10.9807
▁نتوانسته	-10.9808
▁ساختمانی	-10.9812
▁رویه	-10.9814
▁دیدیم	-10.9819
▁نکردم	-10.982
ter	-10.9822
▁هراس	-10.9827
▁خصوصیات	-10.9834
▁میخواهید	-10.984
▁چاقی	-10.9845
▁معقول	-10.9845
▁تاج	-10.9845
آنها	-10.9848
40	-10.9852
&	-10.9855
▁مدافع	-10.9862
▁سکونت	-10.9867
▁شاعر	-10.9869
▁تصفیه	-10.9869
▁خنثی	-10.9869
▁شیکاگو	-10.9869
▁ناخن	-10.9869
▁شستشو	-10.9869
▁حرام	-10.987
▁نشوند	-10.9872
▁کافه	-10.9873
▁لکه	-10.9874
▁داوطلبانه	-10.9882
▁تاسیسات	-10.9883
▁آمدید	-10.9888
▁انحصاری	-10.9897
▁کودکانی	-10.9907
▁تضاد	-10.9913
▁دستاوردهای	-10.9914
▁نم	-10.9916
▁امضای	-10.9917
▁بنابر	-10.9918
▁ظاهری	-10.9928
▁منو	-10.9934
▁روبات	-10.9944
▁تعرفه	-10.9946
▁کیلوگرم	-10.9946
▁سنگاپور	-10.9946
▁خدمه	-10.9946
▁ساکت	-10.9948
▁کوشش	-10.9951
▁زشت	-10.9951
▁گرافیک	-10.9953
▁شاگردان	-10.9954
▁نداشتیم	-10.9954
▁آموخت	-10.9959
▁برم	-10.9965
▁تونی	-10.9976
!"	-10.9991
▁لبه	-10.9994
▁کری	-11
▁۲۶	-11.0004
▁عطر	-11.0006
▁نفری	-11.0006
▁خوانند	-11.0009
▁کمر	-11.0012
▁کمکی	-11.0015
▁علاقمند	-11.0017
▁پراکنده	-11.0022
▁تمایز	-11.0023
▁نتانیاهو	-11.0023
▁کاشت	-11.0023
▁ابتکار	-11.0023
▁نسبی	-11.0024
▁طب	-11.0025
▁خاندان	-11.0025
▁الزام	-11.0026
▁دوستانم	-11.0026
▁مرگبار	-11.0027
▁انداختن	-11.0028
▁عجیبی	-11.003
▁دگرگون	-11.003
▁تگ	-11.0033
▁مؤسسه	-11.0033
▁فعالیتهای	-11.0037
▁حدودی	-11.0051
▁خواندم	-11.0051
▁سالگرد	-11.0051
▁ذ	-11.0054
▁پیروان	-11.0068
▁ارزهای	-11.0069
▁تفاوتی	-11.0072
▁هرکس	-11.0074
یکی	-11.008
رز	-11.0085
▁مار	-11.0091
▁Co	-11.0094
▁مسیری	-11.0096
▁ابداع	-11.0096
▁سرم	-11.0099
▁سوراخ	-11.01
▁جرایم	-11.01
▁خبرگزاری	-11.01
▁زغال	-11.01
▁بشکه	-11.01
▁جملات	-11.0101
▁۲۰۱۹	-11.0102
▁نازک	-11.0104
▁گمراه	-11.0108
▁دوی	-11.0118
▁مایه	-11.0125
ساز	-11.013
▁چوبی	-11.0134
▁اقلیمی	-11.0135
"،	-11.0145
▁دستش	-11.015
رت	-11.0153
▁قفسه	-11.0162
زا	-11.0172
▁خطی	-11.0175
▁انبار	-11.0176
▁اذعان	-11.0178
▁ملحق	-11.0178
▁اردوغان	-11.0178
▁کنوانسیون	-11.0179
▁بعید	-11.0179
▁Windows	-11.0179
▁بخورند	-11.0179
▁بارسلونا	-11.018
▁برگزیده	-11.0183
ظ	-11.0184
▁فرضیه	-11.0184
▁تایوان	-11.0185
▁وقفه	-11.0185
▁ظاهراً	-11.0189
ton	-11.019
▁امتیازات	-11.0197
▁دکترا	-11.0213
▁نبودم	-11.0216
▁موها	-11.0222
انا	-11.0226
▁حرکتی	-11.0233
ّه	-11.0235
▁لزوما	-11.0246
▁مناطقی	-11.0246
▁عصب	-11.0255
▁پروستات	-11.0257
▁تگزاس	-11.0257
▁ناخالص	-11.0257
▁جسمانی	-11.0258
▁۲۰۰۵	-11.0258
▁منظومه	-11.0258
▁پوسته	-11.0258
▁تولیدکنندگان	-11.0259
▁تجمع	-11.0265
▁ضربان	-11.0266
▁اینچ	-11.0266
▁پنل	-11.027
org	-11.0276
▁نکردن	-11.0276
▁گذاشتند	-11.0277
▁فیلمی	-11.0287
im	-11.03
▁آسانسور	-11.0306
▁دختری	-11.0308
اء	-11.0319
▁محتوایی	-11.0319
▁کارآفرین	-11.0326
▁بلا	-11.0328
▁متری	-11.0334
▁پلاگین	-11.0336
▁پرسنل	-11.0336
▁University	-11.0336
▁دغدغه	-11.0337
▁World	-11.0338
▁تلفات	-11.0339
▁بکنم	-11.034
▁جانسون	-11.0341
▁مجدداً	-11.0342
▁آباد	-11.0343
▁هو	-11.0344
▁جاوا	-11.0345
▁اتهامات	-11.0348
▁۲۸	-11.0359
▁رادیکال	-11.0361
ته	-11.0379
▁بازه	-11.0383
▁یافتند	-11.0399
▁دانی	-11.0407
ce	-11.0415
▁تفاهم	-11.0417
▁مفهومی	-11.0417
وک	-11.0417
▁کلسیم	-11.0418
▁ببخشید	-11.0418
▁ثانویه	-11.0418
▁حدیث	-11.0419
▁نشر	-11.0419
▁مزایا	-11.0419
▁خالق	-11.0419
▁نهفته	-11.0419
▁WEB	-11.042
▁لامپ	-11.042
▁دوگانه	-11.0421
▁اعلامیه	-11.0427
▁برون	-11.0429
▁عید	-11.0431
▁شناسم	-11.0433
▁شهردار	-11.0436
▁تانک	-11.0448
▁کوچکترین	-11.0464
▁دبیر	-11.0468
se	-11.0468
▁شدگان	-11.0481
▁پرس	-11.0482
▁تداوم	-11.0497
▁منتخب	-11.0497
▁محاصره	-11.0497
▁تبریک	-11.0498
▁پارکینگ	-11.0499
▁مکانیسم	-11.0501
▁نگهبان	-11.0502
▁زیباترین	-11.0509
▁نقشی	-11.0514
▁نداشتن	-11.0517
▁پرسیدم	-11.0522
▁کارآفرینان	-11.0524
▁دردسر	-11.0535
▁کمپ	-11.054
نام	-11.0541
سو	-11.0542
▁زدم	-11.0542
,000	-11.0544
▁مهاجم	-11.0554
▁نامید	-11.0558
▁هایمان	-11.0562
▁فراگیر	-11.0569
▁بل	-11.0574
▁مختل	-11.0576
▁رطوبت	-11.0578
▁سکته	-11.0578
▁متحمل	-11.0578
▁حشرات	-11.0578
▁واژن	-11.0578
▁پنتاگون	-11.0578
▁علایم	-11.0578
▁همبستگی	-11.0581
▁قله	-11.0585
▁اتریش	-11.0589
▁محلول	-11.0592
▁بستن	-11.0593
▁زیرزمینی	-11.0594
▁اى	-11.0595
▁کت	-11.0596
ماه	-11.0605
▁مکانیک	-11.0614
ation	-11.0619
رس	-11.0619
▁120	-11.062
▁کشورش	-11.0623
▁سینمایی	-11.0629
!)	-11.063
۲۰	-11.0635
son	-11.0645
▁t	-11.0655
▁چارلز	-11.066
▁لایحه	-11.066
▁امتداد	-11.066
▁ارجاع	-11.0661
▁توازن	-11.0661
▁مثابه	-11.0661
مردم	-11.0661
▁چاره	-11.0663
▁Q	-11.0664
Fi	-11.0665
▁یابید	-11.0665
▁پودر	-11.0665
▁رز	-11.067
▁بانکداری	-11.0672
هایشان	-11.0672
▁**	-11.0674
▁ژنتیک	-11.0675
▁سنگی	-11.0686
▁دنباله	-11.069
▁تأثیرات	-11.0695
اید	-11.0696
هاي	-11.0697
▁رویم	-11.07
▁افتادن	-11.0703
▁فرستاد	-11.0706
نر	-11.0709
▁شناسیم	-11.0709
▁کنسول	-11.071
▁تکمیلی	-11.0736
▁My	-11.074
▁فتح	-11.0743
▁عیب	-11.0743
▁Microsoft	-11.0743
▁بحرین	-11.0744
▁داوود	-11.0744
▁خارق	-11.0744
▁گلخانه	-11.0744
▁2001	-11.0749
▁ایرانیان	-11.0755
▁غالبا	-11.0759
▁کمدی	-11.0761
▁ایدز	-11.0776
▁بک	-11.0779
▁مور	-11.078
سل	-11.0781
▁تاب	-11.0788
▁شه	-11.0789
=	-11.08
▁غار	-11.0803
▁HD	-11.0807
▁وضعیتی	-11.0811
▁پیامی	-11.0813
▁هدفی	-11.0817
▁قدمت	-11.0819
▁دادید	-11.0826
▁حروف	-11.0826
▁نیجریه	-11.0826
▁مبهم	-11.0826
▁سودان	-11.0826
▁مجارستان	-11.0827
▁قهرمانان	-11.083
▁شناور	-11.0831
▁بزنم	-11.0831
▁داران	-11.0836
▁ناخوشایند	-11.0839
▁پرتو	-11.084
▁پور	-11.0855
بان	-11.0858
▁دما	-11.0863
▁کا	-11.0865
▁مقرر	-11.0868
...»	-11.0877
▁استعفا	-11.0879
▁مون	-11.0879
▁آذربایجان	-11.0891
مثل	-11.0896
رن	-11.0896
▁دلش	-11.0901
زمان	-11.0901
op	-11.0905
▁طرفین	-11.0907
▁سحر	-11.0908
▁معدود	-11.091
▁سوژه	-11.091
▁رکود	-11.091
▁تبلت	-11.091
▁فلج	-11.091
▁1999	-11.0911
▁غرور	-11.0911
▁توالت	-11.0912
▁يك	-11.0916
▁جامد	-11.0918
▁مردانه	-11.0923
▁اسمیت	-11.0924
▁شیخ	-11.0927
▁جادو	-11.0927
تس	-11.0939
▁عزیزان	-11.0941
اپ	-11.0947
▁نقدی	-11.0947
شد	-11.0949
▁شمارش	-11.095
▁بریم	-11.0954
▁عباس	-11.0958
▁دانسته	-11.0967
▁هرگاه	-11.0969
▁36	-11.0974
▁گذراند	-11.0975
▁زنانه	-11.0977
▁برگرداند	-11.0978
▁ایدئولوژی	-11.0981
▁رویا	-11.0986
▁مترجم	-11.0991
▁ناظر	-11.0992
▁ارمنستان	-11.0995
▁نیوزیلند	-11.0995
▁احکام	-11.0995
▁ايران	-11.0995
▁1970	-11.0995
▁تقصیر	-11.0995
▁خزانه	-11.0995
▁گروگان	-11.0996
▁الآن	-11.0998
▁تقویم	-11.0999
▁لطفاً	-11.0999
▁تخمک	-11.1001
▁خیابانی	-11.1002
▁شنیدم	-11.1005
▁تسکین	-11.1006
▁پرتغال	-11.101
▁نکاتی	-11.1013
▁میلیاردها	-11.1015
▁مقدماتی	-11.1015
▁New	-11.1021
▁پیشبرد	-11.1021
دون	-11.1027
ئ	-11.1029
▁پانزده	-11.1029
چگونه	-11.1031
تن	-11.1032
ex	-11.1034
▁بقا	-11.1035
▁کاربردهای	-11.1038
▁عموما	-11.1048
▁درمانگر	-11.1063
▁34	-11.1073
▁غ	-11.1074
▁خفیف	-11.108
▁دیپلمات	-11.1081
▁صحت	-11.1081
▁شیعیان	-11.1082
▁سرشار	-11.1082
▁نتواند	-11.1083
▁‘	-11.1084
▁65	-11.1084
▁شورشیان	-11.1086
16	-11.1088
▁فراز	-11.1097
▁پسرم	-11.1097
11	-11.1099
]]	-11.1099
دست	-11.11
▁۱۵۰	-11.1102
▁هفتاد	-11.1102
▁بت	-11.1105
اژ	-11.1108
▁سارا	-11.1109
▁لخت	-11.1126
▁صدایی	-11.1137
ارد	-11.1138
رها	-11.114
▁الا	-11.1143
گران	-11.1148
▁سد	-11.1151
ادی	-11.116
▁جوری	-11.1161
▁ستم	-11.1166
▁سوابق	-11.1167
▁مجروح	-11.1167
▁ذره	-11.1169
▁کریس	-11.117
▁فلزات	-11.117
گل	-11.1173
▁نیامده	-11.1175
▁نشانگر	-11.1175
▁تابعیت	-11.1176
▁کارآموزی	-11.1177
▁دویدن	-11.1177
▁شنید	-11.1178
▁دستکاری	-11.1188
▁اعتقادات	-11.1191
نمی	-11.1195
OS	-11.1197
90	-11.1201
▁55	-11.1203
▁تحلیلی	-11.1203
▁مهربانی	-11.1209
][	-11.1216
▁ي	-11.1218
▁درایو	-11.1219
راه	-11.1227
▁سلولهای	-11.1227
▁تلاشی	-11.1227
▁ذات	-11.1228
▁بحرانی	-11.123
یوم	-11.1234
me	-11.1245
خدا	-11.1245
▁انحراف	-11.1249
▁موزیک	-11.1253
▁هاروارد	-11.1254
▁جماه	-11.1254
▁افسرده	-11.1254
▁گذراندن	-11.1255
▁هردو	-11.1258
▁تفریح	-11.1262
▁سرپرست	-11.1264
▁اعضا	-11.1266
▁خواستیم	-11.1267
▁دعوا	-11.127
▁بیولوژیکی	-11.127
▁دیوان	-11.1273
▁33	-11.1287
▁Man	-11.129
▁موجودی	-11.1291
▁خلقت	-11.1295
▁ویلیام	-11.1319
بله	-11.1319
▁عصبانیت	-11.1321
البته	-11.1327
▁فشارهای	-11.1331
بدون	-11.1333
▁ظلم	-11.1336
▁بیابید	-11.1341
▁کابوس	-11.1341
▁استارتاپ	-11.1341
▁غافل	-11.1342
▁لینوکس	-11.1342
جر	-11.1344
▁خورید	-11.1345
▁عملا	-11.1346
▁برگه	-11.135
▁احمد	-11.1351
▁48	-11.1352
▁g	-11.1355
▁خوراک	-11.136
▁تصمیمی	-11.1363
تنها	-11.1378
▁۰	-11.1397
▁بدانم	-11.1398
▁نوجوانی	-11.14
▁قوه	-11.1402
▁بردم	-11.1403
▁حج	-11.1404
sh	-11.1415
▁%	-11.1416
▁مکانیکی	-11.142
▁PC	-11.142
▁کام	-11.1423
▁ديگر	-11.1426
▁استارت	-11.1427
▁گ	-11.1428
▁شل	-11.1429
▁ماجرای	-11.1429
▁امتناع	-11.143
▁کثیف	-11.143
▁ختم	-11.143
▁۱۹۷۰	-11.1431
▁زودرس	-11.1431
▁فعلا	-11.1432
▁همسایگان	-11.1433
▁بدنه	-11.1436
▁صمیمی	-11.1439
▁خشکی	-11.144
▁وگو	-11.1441
▁ترسند	-11.1448
▁تجسم	-11.1448
▁قارچ	-11.1448
▁افزودن	-11.1451
▁فرماندهی	-11.1457
▁امیر	-11.1462
▁سرما	-11.1469
▁ترم	-11.147
▁آرمان	-11.1475
ag	-11.1489
▁مقر	-11.149
▁افزارهای	-11.1496
▁PS	-11.1498
99	-11.1506
آنچه	-11.1507
▁غیرنظامی	-11.1512
▁منظره	-11.1514
▁رگ	-11.1516
حتی	-11.1516
▁فواید	-11.1519
▁بلوغ	-11.1519
▁نخواهم	-11.1519
▁جابجایی	-11.1519
▁گمشده	-11.152
▁ابزارها	-11.152
▁نژادی	-11.152
▁حتا	-11.1521
▁معاینه	-11.1522
▁حاد	-11.1523
▁مخصوصاً	-11.1524
▁هدفمند	-11.1525
▁استادان	-11.1525
▁عکاس	-11.1527
▁مشت	-11.1527
▁تورنتو	-11.1529
▁موشکی	-11.153
۱۸	-11.1532
▁فهمیدم	-11.1542
▁پاسخگو	-11.1544
▁ماری	-11.155
▁هورمونی	-11.1552
▁دیکتاتوری	-11.1556
▁خوک	-11.1558
▁نوشتم	-11.1564
▁توافقی	-11.1564
▁سونی	-11.1567
▁جوی	-11.1579
▁دعای	-11.1581
▁پایداری	-11.1586
حدود	-11.1587
▁تفریحی	-11.1591
▁جاهای	-11.1599
خت	-11.1605
▁رونق	-11.1609
▁جنایات	-11.1609
▁رصد	-11.1609
▁توکیو	-11.1609
▁سقط	-11.1609
▁تصرف	-11.1609
▁مهلت	-11.1609
▁کاپیتان	-11.161
▁وطن	-11.1611
▁ابو	-11.1614
▁نامگذاری	-11.1614
▁ریچارد	-11.1622
15	-11.1623
انت	-11.1629
▁پیدایش	-11.163
▁مختصر	-11.1633
▁گانه	-11.1633
▁منتقدان	-11.1638
▁کاملی	-11.1643
▁ارتقای	-11.1657
▁محافظ	-11.1664
▁جلوتر	-11.1668
70	-11.1671
▁باورهای	-11.1686
▁قطره	-11.1693
▁شیرینی	-11.1698
▁ابدی	-11.1698
ate	-11.1699
▁اعظم	-11.17
▁انطباق	-11.17
▁ملزم	-11.17
▁خمینی	-11.17
▁تداخل	-11.17
▁بنوشید	-11.17
▁باقیمانده	-11.17
▁بفهمید	-11.17
▁قریب	-11.1701
▁تونس	-11.1701
▁بخواند	-11.1701
▁مؤسسات	-11.1701
▁معادن	-11.1702
▁Black	-11.1702
▁لیوان	-11.1703
▁ناشناس	-11.1704
▁مقرو	-11.1704
▁حجاب	-11.1704
▁پدیدار	-11.1704
▁۱۰۰۰	-11.1711
▁حسابرسی	-11.1712
▁افسران	-11.1714
▁جهاد	-11.1716
۱۵	-11.1717
▁خصوصا	-11.1717
▁اکتشاف	-11.1718
▁اثربخشی	-11.172
▁هیدروژن	-11.1721
▁اسکاتلند	-11.1721
▁سل	-11.1733
▁حلی	-11.1736
▁کالاها	-11.1736
▁جن	-11.1736
گن	-11.1741
▁آسمانی	-11.1745
▁آسم	-11.1755
▁روزگار	-11.1757
کردن	-11.1758
▁راهکار	-11.1768
سک	-11.177
بد	-11.1777
▁نامش	-11.1782
علی	-11.1782
▁واجب	-11.1789
▁عضله	-11.1792
▁ناقص	-11.1792
▁عمدتاً	-11.1792
▁نگیرید	-11.1792
▁موسوم	-11.1792
▁نيز	-11.1792
▁ماهیچه	-11.1795
▁پناهگاه	-11.1795
▁بخورد	-11.18
na	-11.1802
▁اصطلاحات	-11.1809
▁واقعه	-11.181
▁لیستی	-11.1811
▁هیچگونه	-11.1811
▁احتیاط	-11.1814
▁قبر	-11.1826
▁لاک	-11.1841
▁۳۰۰	-11.1845
▁نیروها	-11.1852
▁استیو	-11.186
▁زنیم	-11.1864
▁منفجر	-11.187
▁معمار	-11.1872
go	-11.1875
▁محتمل	-11.1884
▁ارقام	-11.1884
▁پیراهن	-11.1884
▁تراکنش	-11.1884
▁جناح	-11.1884
▁پاسپورت	-11.1884
▁پناهندگی	-11.1884
▁زیتون	-11.1885
▁اورشلیم	-11.1885
▁بخوانند	-11.1885
▁توماس	-11.1886
▁چاله	-11.1888
▁دوستانش	-11.1889
▁بارگذاری	-11.1889
▁صفات	-11.1891
▁دانستید	-11.1891
▁نهایتا	-11.1891
▁میگیرد	-11.1896
ژ	-11.1898
▁اثری	-11.1898
▁دیدید	-11.1905
▁رفتیم	-11.1905
▁نابرابری	-11.1908
▁لیتر	-11.1912
▁بتا	-11.1918
▁ازجمله	-11.1919
▁بنیادین	-11.192
ونگ	-11.1924
ss	-11.1927
▁تار	-11.1939
▁دخترش	-11.194
▁برادرش	-11.194
▁طبقاتی	-11.1945
▁مباحث	-11.196
يي	-11.196
▁جنگنده	-11.1969
▁تقدیر	-11.1978
▁مرموز	-11.1978
▁غروب	-11.1978
▁مساوی	-11.1978
▁بسازیم	-11.1978
▁سوءاستفاده	-11.1978
▁فاطمه	-11.1978
▁متکی	-11.1979
▁بفهمیم	-11.1979
▁محتویات	-11.1979
▁پاکسازی	-11.1979
▁مسکونی	-11.198
▁لرزه	-11.198
▁بزنیم	-11.1982
بری	-11.1984
▁2002	-11.1986
باید	-11.1987
▁مردها	-11.1988
▁دندانپزشک	-11.1994
▁تاثیرگذار	-11.1994
▁دستاورد	-11.1995
▁پدران	-11.1999
▁نویسم	-11.2002
▁نوبه	-11.2002
▁اینک	-11.2013
▁پاس	-11.2016
▁آمدم	-11.2024
▁دا	-11.203
▁سانتی	-11.2058
▁اولی	-11.2061
▁آرشیو	-11.2063
▁عفو	-11.2071
▁زیردریایی	-11.2072
▁فاسد	-11.2072
▁قاعدگی	-11.2072
▁رختخواب	-11.2072
▁لیسانس	-11.2072
▁اسامی	-11.2072
▁حکایت	-11.2072
▁۱۹۸۰	-11.2072
▁جوایز	-11.2072
▁حسادت	-11.2072
جان	-11.2072
▁ناوگان	-11.2072
▁كردن	-11.2075
▁سایز	-11.2076
▁هفتگی	-11.2077
▁تولیدکننده	-11.2082
▁[[	-11.2085
▁شناسید	-11.2088
▁اطرافیان	-11.209
▁بگذار	-11.2091
▁مهمانان	-11.2091
ولی	-11.2093
▁خرس	-11.2097
▁تقلب	-11.2097
be	-11.2102
▁بايد	-11.2102
▁v	-11.2111
▁باریک	-11.2111
▁کیم	-11.2122
ve	-11.2125
▁میگوید	-11.2131
▁پرداختند	-11.2133
▁فرموده	-11.2134
کان	-11.2134
▁95	-11.2139
▁War	-11.2142
▁نمایشی	-11.2143
▁پین	-11.2144
▁ذاتی	-11.2151
▁طلای	-11.2152
▁ویروسی	-11.2153
▁You	-11.2167
▁انجیل	-11.2167
▁شعله	-11.2167
▁تریلیون	-11.2168
▁فارکس	-11.2168
▁شکوه	-11.2168
▁پیکسل	-11.2168
▁ندهد	-11.2168
▁سهامداران	-11.217
▁پرسد	-11.217
▁قید	-11.2171
▁میرسد	-11.2172
▁منحرف	-11.2172
▁سنجش	-11.2173
▁داوطلبان	-11.2176
▁مولکولی	-11.2179
▁نوک	-11.218
▁وحی	-11.2184
▁خواهش	-11.2186
▁گرایانه	-11.2186
▁پخته	-11.2186
▁پنجمین	-11.2188
▁اسراییل	-11.2193
▁فلسفی	-11.2193
▁افق	-11.2199
▁ناامیدی	-11.22
▁ژنو	-11.2201
▁600	-11.2217
▁سنگینی	-11.2217
▁دزدی	-11.2224
▁دیدنی	-11.2238
▁مقدم	-11.2241
▁آله	-11.2242
حق	-11.2244
اق	-11.2245
▁آقایان	-11.2246
▁فرانک	-11.2248
▁بندگان	-11.2257
▁صراحت	-11.2263
▁مسلط	-11.2264
▁تشریح	-11.2264
▁ناراضی	-11.2264
▁بزودی	-11.2264
▁منظورم	-11.2264
▁اعطای	-11.2265
▁۲۰۰۳	-11.2266
▁تلف	-11.2266
▁اسیر	-11.227
▁افتند	-11.227
رک	-11.2272
▁نروژ	-11.229
خوب	-11.2291
▁نورون	-11.2298
▁انتشارات	-11.2299
▁خو	-11.2301
▁Le	-11.2311
▁گذاشتم	-11.2312
▁مناسبت	-11.2323
▁نمودن	-11.2326
پوش	-11.2328
▁پشیمان	-11.234
▁پاها	-11.2342
رون	-11.2345
▁شجاع	-11.2348
▁تراز	-11.2352
▁ایمپلنت	-11.2361
▁مصمم	-11.2361
▁تلگرام	-11.2361
▁بسازند	-11.2362
▁غمگین	-11.2362
▁مجاهدین	-11.2362
▁پز	-11.2363
دم	-11.2364
▁توئیتر	-11.2369
▁ماهیگیری	-11.2371
▁نماییم	-11.2371
▁همایش	-11.2373
▁37	-11.2374
▁شمسی	-11.2376
▁خداحافظی	-11.238
▁شناختن	-11.2381
▁نشین	-11.2381
▁حمایتی	-11.2383
▁بخشند	-11.2385
▁39	-11.2385
▁مجزا	-11.2388
▁کشورمان	-11.2392
▁زمستانی	-11.2395
▁ماندند	-11.2402
▁85	-11.2408
▁بازگشته	-11.2409
▁شیلی	-11.2425
▁حرارتی	-11.2425
19	-11.2437
خصوص	-11.2437
▁پرش	-11.2437
▁مناظر	-11.2445
ity	-11.2449
▁ادعاهای	-11.2452
up	-11.2456
نظر	-11.2456
▁حکومتی	-11.2458
▁ربوده	-11.2459
▁وسعت	-11.2459
▁۱۹۹۰	-11.2459
▁ببندید	-11.2459
▁ردیف	-11.2459
▁شستن	-11.2459
-2	-11.2459
▁افزاید	-11.2459
▁عبدالله	-11.246
▁تصدیق	-11.246
▁عمیقی	-11.246
▁میرند	-11.246
برنامه	-11.2462
▁مایعات	-11.2468
▁پذیرفتن	-11.2475
▁گرمای	-11.2477
▁مطمئناً	-11.2478
▁خوابی	-11.2481
▁اساساً	-11.2491
▁کاغذی	-11.2497
همان	-11.2497
زندگی	-11.2501
▁سفت	-11.2503
▁یکسانی	-11.2503
▁هرچیزی	-11.2506
▁استقرار	-11.2509
▁رقبای	-11.2511
▁سا	-11.2517
ul	-11.252
▁موثرتر	-11.2542
▁معنایی	-11.2542
▁بارش	-11.2548
▁گرافیکی	-11.2549
▁2)	-11.2549
لند	-11.2549
▁مظنون	-11.2552
▁بسکتبال	-11.2558
▁تستوسترون	-11.2558
▁عناوین	-11.2558
▁مسواک	-11.2558
▁فلوریدا	-11.2558
▁معتاد	-11.2558
▁عرق	-11.2558
▁دهکده	-11.2558
▁خوشمزه	-11.2558
▁نداره	-11.2558
▁تسریع	-11.2558
▁فوراً	-11.2558
▁پیانو	-11.2558
▁العمل	-11.256
▁بنویسم	-11.2561
▁استرالیایی	-11.2561
▁فیلمبرداری	-11.2563
▁امگا	-11.2564
▁ط	-11.2569
▁ناچیز	-11.257
▁پوشه	-11.2572
▁اتصالات	-11.2573
▁Be	-11.2578
▁رسیدیم	-11.2583
▁پایبند	-11.2588
▁شگفتی	-11.2601
▁ته	-11.2616
▁بخشش	-11.2618
▁فاکتور	-11.2619
▁دندانپزشکی	-11.2632
پیش	-11.2633
▁سیا	-11.2642
فقط	-11.2644
▁راهکارهای	-11.2646
▁منته	-11.2654
▁وزنه	-11.2657
▁تحقیر	-11.2658
▁درازمدت	-11.2658
▁مسایل	-11.2658
▁تفکیک	-11.2658
▁پانل	-11.2659
▁سرنشین	-11.266
▁بازاریابان	-11.2662
▁زدایی	-11.2663
▁اشیا	-11.2665
▁دائما	-11.2667
▁یون	-11.2669
▁پیتزا	-11.2671
▁نویسان	-11.2677
▁کشاورز	-11.2679
▁کوانتومی	-11.2679
▁تعاملی	-11.2681
▁بیداری	-11.2683
▁غذاهایی	-11.2683
▁بیابان	-11.2688
▁بدنتان	-11.2688
▁دیوارهای	-11.269
۱۲	-11.2694
ang	-11.2702
▁سنسور	-11.2707
▁تفنگ	-11.2709
no	-11.271
▁نیازها	-11.271
▁داروهایی	-11.2712
ry	-11.2716
▁ــ	-11.2732
ندگان	-11.2734
▁تعالی	-11.2744
▁قاطع	-11.2757
▁گذرنامه	-11.2759
▁اسطوره	-11.276
▁شوهرش	-11.276
▁لغت	-11.276
▁اسکات	-11.2761
▁اوپک	-11.2765
▁خوانیم	-11.2766
▁اسکار	-11.2766
▁نکنم	-11.2773
▁شایعات	-11.2774
▁انجامد	-11.2781
▁جانشین	-11.2782
▁مربیان	-11.2783
وان	-11.2786
▁Web	-11.2787
داران	-11.2789
الله	-11.2792
▁۲۰۰۱	-11.2795
▁خوشه	-11.2797
▁گرمایش	-11.2801
ca	-11.2817
▁درنظر	-11.2821
یدن	-11.283
لر	-11.2834
▁بلندتر	-11.284
▁افراط	-11.284
ho	-11.2843
ac	-11.2845
▁صدق	-11.2851
te	-11.2854
de	-11.2855
▁مجری	-11.2856
▁ثمر	-11.2856
▁اصفهان	-11.2861
▁سرماخوردگی	-11.2861
▁غیرمنتظره	-11.2861
▁مواضع	-11.2861
▁↑	-11.2861
▁تعوی	-11.2861
▁بلغارستان	-11.2861
▁روزرسانی	-11.2861
▁تکلیف	-11.2861
▁مبلمان	-11.2862
▁کلینیک	-11.2863
▁قصر	-11.2864
▁بشه	-11.2869
60	-11.2875
▁تابش	-11.2876
▁معاملاتی	-11.2877
گیر	-11.2878
▁عروسک	-11.2878
▁قطبی	-11.2878
▁مادربزرگ	-11.2879
di	-11.2882
▁چکار	-11.2884
▁کشنده	-11.2887
▁ریه	-11.2888
▁چاق	-11.289
▁تخته	-11.2893
بازی	-11.2893
▁یارانه	-11.2894
▁نیافته	-11.2894
▁انتها	-11.29
▁بخشیده	-11.2901
▁فای	-11.2902
▁گیرم	-11.2914
▁مهدی	-11.2916
▁پو	-11.2917
▁1)	-11.2918
ستر	-11.292
▁رسما	-11.2932
▁پذیرند	-11.2938
▁مصرفی	-11.294
▁سوئدی	-11.2946
em	-11.2953
▁سئوال	-11.2957
اج	-11.2963
شهر	-11.2963
▁مشاهدات	-11.2964
▁منصوب	-11.2964
▁حیاط	-11.2964
▁فتنه	-11.2964
▁مسخره	-11.2964
▁بعلاوه	-11.2964
▁فرستد	-11.2965
)؛	-11.2967
▁44	-11.2967
▁نیوز	-11.2969
▁محققین	-11.2975
ian	-11.2977
▁قدرتی	-11.2977
▁کلا	-11.2979
▁n	-11.2983
▁مهمانی	-11.2986
یّت	-11.2994
one	-11.2997
▁سلطنت	-11.2999
▁IT	-11.3007
▁عطا	-11.3011
MS	-11.3017
▁Go	-11.3019
ga	-11.3031
▁مصری	-11.3033
▁بان	-11.3035
کسی	-11.3042
▁بوت	-11.3048
▁کناره	-11.3049
▁منکر	-11.305
▁250	-11.3057
▁دشمنی	-11.3062
▁میمون	-11.3066
▁عارضه	-11.3068
▁تنبیه	-11.3068
▁مانیتور	-11.3068
▁شایستگی	-11.3068
▁→	-11.3068
▁1960	-11.3068
▁بازبینی	-11.307
▁سوق	-11.3071
▁معترضان	-11.3071
▁سلمان	-11.3073
▁آکادمیک	-11.3075
▁مچ	-11.3076
▁مردگان	-11.3076
▁تعاملات	-11.3084
▁بازیگری	-11.309
▁۲۹	-11.3093
▁لنین	-11.3094
▁ذیل	-11.3095
▁کیفری	-11.3095
mi	-11.3096
▁کارفرما	-11.3097
▁راستش	-11.3098
▁احیا	-11.3108
end	-11.3109
17	-11.3111
▁CD	-11.3111
▁بازنده	-11.3114
▁حدودا	-11.3127
▁کشیش	-11.3128
:"	-11.3128
▁شورا	-11.3131
▁آمیزی	-11.3138
▁گور	-11.3147
▁کودکتان	-11.3156
رنگ	-11.3156
▁گیم	-11.3161
▁اسکریپت	-11.3173
▁دمشق	-11.3173
▁غلظت	-11.3173
▁یوتیوب	-11.3173
▁ارواح	-11.3173
▁تقدیم	-11.3173
▁عظمت	-11.3173
▁بپذیرید	-11.3174
▁کنجکاوی	-11.3174
▁پرستاری	-11.3175
▁غیبت	-11.3177
▁خیریه	-11.3179
▁تحلیلگران	-11.3179
▁پردازیم	-11.3181
▁سکس	-11.3185
▁سالیانه	-11.3185
قی	-11.319
▁گزارشات	-11.3194
▁نش	-11.3195
▁التحصیلی	-11.32
▁خواهران	-11.3203
▁ادراک	-11.3204
▁خاکستری	-11.3207
▁جلد	-11.3209
▁CO	-11.3209
pe	-11.3211
▁Do	-11.3215
▁خوردند	-11.3221
▁دوستانتان	-11.3222
24	-11.3236
اور	-11.3237
▁مرزها	-11.3241
▁ثباتی	-11.3245
۵۰	-11.3247
▁ویل	-11.3247
ّت	-11.3252
—	-11.3266
▁وجوه	-11.327
▁هرج	-11.3271
ونی	-11.3271
▁مجرمان	-11.3272
▁گشود	-11.3272
▁ارباب	-11.3272
▁سزاوار	-11.3276
▁چاقو	-11.328
▁آلزایمر	-11.328
▁مدیترانه	-11.328
▁پیکربندی	-11.328
▁جنایی	-11.3281
▁ارگانیک	-11.3282
▁رسانند	-11.3284
▁بقای	-11.3287
▁پرسند	-11.3288
▁مزه	-11.3288
▁ملا	-11.329
▁نهاده	-11.3291
▁۶۵	-11.3294
▁ذی	-11.3295
▁برگرفته	-11.3297
da	-11.3297
کرد	-11.3302
▁محصولی	-11.3305
▁طلبی	-11.3309
▁شکی	-11.3315
▁ایام	-11.3317
▁مطبوعات	-11.3318
▁فراخوان	-11.3325
▁فیلسوف	-11.3329
▁دورتر	-11.3334
▁پشتی	-11.3335
رم	-11.3336
▁ساعتی	-11.3336
▁دامن	-11.3342
▁تنفسی	-11.3343
ap	-11.3349
j	-11.3351
▁دریافتی	-11.336
▁حول	-11.3361
نور	-11.3362
▁ذهنیت	-11.3375
▁دخترم	-11.3377
▁آفرین	-11.3379
▁آشکارا	-11.3379
ورا	-11.3379
▁حومه	-11.3387
▁سرچشمه	-11.3387
▁مدیتیشن	-11.3387
▁ناچار	-11.3387
▁مخزن	-11.3387
▁بیاموزید	-11.3387
▁بازجویی	-11.3389
▁هیچکدام	-11.339
▁پرستش	-11.3393
▁بازده	-11.3398
▁تاجر	-11.3401
▁گذارم	-11.3403
غیر	-11.3404
io	-11.3405
▁بستری	-11.3405
▁محاسباتی	-11.341
▁امپراطوری	-11.341
▁فسیلی	-11.3421
▁کاست	-11.3427
▁شخصا	-11.3438
▁آیتم	-11.3438
▁(1)	-11.3443
فکر	-11.3445
▁موازی	-11.3446
▁بدم	-11.3447
یش	-11.3447
▁مشی	-11.345
▁نیکی	-11.3452
▁ابری	-11.3454
باز	-11.3455
▁گنج	-11.346
▁عددی	-11.3466
▁Al	-11.3477
▁برندهای	-11.3483
▁آرزوهای	-11.3486
▁سپاس	-11.3494
▁طنز	-11.3496
▁اقلام	-11.3496
▁کبک	-11.3496
▁کفایت	-11.3496
▁منشأ	-11.3497
▁کاندوم	-11.3497
▁43	-11.3499
▁آفرید	-11.3499
▁متد	-11.35
▁آلت	-11.3501
▁معرفت	-11.3501
▁فلش	-11.3503
age	-11.3504
▁علنی	-11.3505
▁توهم	-11.3509
▁نیاورد	-11.351
14	-11.3514
▁نشدند	-11.3515
▁توست	-11.3517
۳۰	-11.352
▁An	-11.3522
▁فهمیدن	-11.3522
▁Red	-11.3523
▁شوهرم	-11.3524
▁بازگو	-11.3526
▁St	-11.3527
▁قراردادی	-11.3538
▁سوسیالیستی	-11.3539
سکی	-11.3542
لد	-11.3547
▁کوکی	-11.3557
▁ادبی	-11.3558
▁آورم	-11.356
ساله	-11.3561
▁مرج	-11.3564
تواند	-11.3565
ment	-11.3574
مت	-11.3579
▁نر	-11.358
▁47	-11.3593
▁انجامید	-11.3596
تین	-11.3596
▁کنجکاو	-11.3605
}	-11.3605
▁تناسلی	-11.3606
▁جماعت	-11.3606
▁بروکسل	-11.3606
▁تبیین	-11.3606
▁بوستون	-11.3606
▁Next	-11.3606
▁۱۹۶۰	-11.3607
▁Apple	-11.361
▁پرت	-11.3615
یلی	-11.3619
▁حجت	-11.3621
▁No	-11.3624
بهترین	-11.3627
▁نت	-11.3628
یز	-11.3638
رهای	-11.3638
▁38	-11.364
▁اورژانس	-11.3647
▁دومی	-11.3647
▁سران	-11.3653
▁مسی	-11.3665
▁اینست	-11.3674
▁گردان	-11.3676
▁طبقات	-11.3676
▁اسکی	-11.3687
▁حماس	-11.3688
▁Sa	-11.3689
▁گله	-11.3695
▁Mac	-11.3698
▁To	-11.3701
۱۱	-11.371
▁متابولیسم	-11.3717
▁مشمول	-11.3717
▁بسيار	-11.3717
▁دخیل	-11.3717
▁مزارع	-11.3717
▁بنگلادش	-11.3717
▁تصویربرداری	-11.3717
▁داوران	-11.3721
▁ادیان	-11.3721
▁حفره	-11.3722
▁تراشه	-11.3722
▁شعبه	-11.3723
▁درحالیکه	-11.3724
▁فهمند	-11.3726
▁عمیقا	-11.3726
▁شکستگی	-11.3728
▁کروز	-11.3734
▁گفتگوی	-11.3735
▁نگارش	-11.3736
▁سوزاند	-11.3738
▁گارد	-11.3741
▁استثنا	-11.3759
اسه	-11.3763
▁r	-11.3764
ke	-11.3767
▁ملیت	-11.3768
▁راهبردی	-11.3771
▁قاب	-11.3774
▁میشد	-11.3783
▁برترین	-11.3785
▁درآورد	-11.3787
▁کامپیوترهای	-11.3798
18	-11.3799
ig	-11.3809
▁لوگو	-11.3813
▁شهدا	-11.3814
▁براون	-11.3817
تخصیص	-11.3829
▁آپلود	-11.3829
▁ضمانت	-11.3829
▁مسالمت	-11.3829
▁مواظب	-11.3829
▁هضم	-11.3829
عطوف	-11.3829
▁اجلاس	-11.3829
▁بنیانگذار	-11.3829
▁مثانه	-11.3829
▁مجلات	-11.383
▁ارگان	-11.383
▁مساحت	-11.383
▁زوال	-11.383
▁هجوم	-11.3832
▁سفری	-11.3832
▁فریم	-11.3835
13	-11.3835
▁مراکش	-11.3836
▁توییت	-11.3839
▁عزیزم	-11.3839
▁برگردد	-11.384
▁تسهیلات	-11.3841
▁هل	-11.3842
▁رومی	-11.3844
▁اختیاری	-11.3846
▁جت	-11.3857
▁نیو	-11.3861
mo	-11.3866
1)	-11.3866
▁باروری	-11.3871
▁امپراتور	-11.3873
▁میلان	-11.3881
▁ابن	-11.3882
تز	-11.3884
گاهی	-11.389
▁مری	-11.3894
▁موضعی	-11.3899
اول	-11.39
▁باراک	-11.3902
ot	-11.3903
ive	-11.3906
▁بسیج	-11.3909
▁فروخت	-11.3909
▁آم	-11.3919
▁ساختند	-11.3925
▁۷۵	-11.3927
▁نيست	-11.3941
▁شفا	-11.3941
▁آنفولانزا	-11.3943
▁حائز	-11.3943
▁طلوع	-11.3943
▁کپسول	-11.3943
▁بزرگسالی	-11.3943
▁بشنوید	-11.3943
▁Business	-11.3944
▁عاقلانه	-11.3944
▁تعدیل	-11.3944
▁سوختگی	-11.3947
▁بکنیم	-11.3948
▁دانستیم	-11.3952
▁re	-11.3953
▁بزرگراه	-11.3957
▁هرحال	-11.3958
▁تومان	-11.3963
▁برخوردارند	-11.3964
▁نظارتی	-11.3965
▁قطعیت	-11.3966
▁پروازهای	-11.3975
▁رفتارها	-11.3982
▁هالیوود	-11.3986
▁کمونیستی	-11.3987
▁بارانی	-11.3987
بود	-11.3988
▁میرد	-11.3988
▁تأثیرگذار	-11.3988
▁معماران	-11.3994
▁کشش	-11.4005
▁ویکی	-11.4011
▁کاراکتر	-11.4011
گروه	-11.4025
▁--	-11.4028
▁سنا	-11.4031
▁پری	-11.4032
▁رویایی	-11.4038
▁گوسفند	-11.4052
▁سناتور	-11.4053
▁Mi	-11.4055
▁64	-11.4058
▁نخبگان	-11.4058
▁مبادلات	-11.4058
▁پاراگراف	-11.4058
▁وگرنه	-11.4058
▁آیکون	-11.4058
▁اصحاب	-11.4058
▁PHP	-11.4058
▁الیزابت	-11.4059
▁بازپرداخت	-11.4059
▁کمربند	-11.4059
▁نوکیا	-11.4059
▁سبد	-11.406
▁بنام	-11.406
▁ابزارهایی	-11.4063
▁سواد	-11.4068
سلام	-11.407
▁سالمندان	-11.407
▁کابینه	-11.4071
▁پرسیدند	-11.4072
▁انسانیت	-11.4082
▁کلان	-11.4088
▁فرایندهای	-11.4093
▁مسئولین	-11.4094
▁برکت	-11.4102
برگ	-11.4104
▁تهاجم	-11.4105
▁بارز	-11.411
▁پارلمانی	-11.4111
ell	-11.4113
▁سینمای	-11.4115
ana	-11.4116
▁ببر	-11.4122
▁شدیدتر	-11.413
▁دزد	-11.4134
▁تیز	-11.4138
▁هلندی	-11.4151
▁آبشار	-11.4154
لان	-11.4158
بند	-11.416
تحول	-11.4161
▁زیارت	-11.4167
▁وسطی	-11.4167
▁دیپلم	-11.4171
▁تکثیر	-11.4174
▁دادگستری	-11.4174
▁فانتزی	-11.4174
▁مجتمع	-11.4174
▁مقصود	-11.4174
▁چمدان	-11.4174
▁لثه	-11.4174
▁بورژوازی	-11.4174
▁گردآوری	-11.4174
▁مجرد	-11.4174
▁Android	-11.4174
▁۲۰۰۷	-11.4175
▁تخمدان	-11.4175
▁یادبود	-11.4178
▁گستره	-11.4178
▁ایست	-11.418
▁کاوش	-11.4185
95	-11.4192
▁الکترون	-11.4192
▁هریک	-11.4194
▁هاشمی	-11.4196
ER	-11.4204
▁ناتوان	-11.4206
چین	-11.4209
بن	-11.421
▁فک	-11.4212
▁ارزشی	-11.4215
▁کارم	-11.4219
▁مریض	-11.422
est	-11.4226
▁کدهای	-11.4229
▁کارگیری	-11.4232
ish	-11.4237
▁بااین	-11.424
▁قدرتمندی	-11.4242
▁درود	-11.4243
▁توانمندی	-11.4246
مرد	-11.4247
po	-11.4263
▁یازده	-11.4264
نز	-11.4264
▁اسمش	-11.4274
▁سیاستمدار	-11.4277
▁نمایی	-11.4278
▁نشنید	-11.4281
▁k	-11.429
▁بالستیک	-11.4292
▁بیهوده	-11.4292
▁شركت	-11.4292
▁هپاتیت	-11.4292
▁شانگهای	-11.4292
▁تهویه	-11.4292
▁1998	-11.4292
▁1996	-11.4292
▁شنوید	-11.4292
▁شنود	-11.4292
▁صخره	-11.4292
▁GPS	-11.4293
▁سوسیالیسم	-11.4293
▁استناد	-11.4293
▁حباب	-11.4293
▁امضاء	-11.4294
▁میانمار	-11.4296
▁پرفروش	-11.4297
▁ماموران	-11.4298
▁توقع	-11.4298
▁نما	-11.4301
▁معتقدیم	-11.4301
▁آموزد	-11.4302
▁محکومیت	-11.4302
▁بگذارم	-11.4304
▁نیل	-11.4307
▁امت	-11.4307
▁نتوان	-11.4309
▁سناریو	-11.431
▁نمیتواند	-11.4317
▁عبارتی	-11.4319
کتاب	-11.4329
▁مباد	-11.4329
مند	-11.4331
▁مشخصه	-11.4334
▁شانسی	-11.4339
▁آلن	-11.4339
▁درهم	-11.4339
▁لاغر	-11.434
▁عروق	-11.4341
▁بهشتی	-11.4352
▁جابه	-11.4353
ut	-11.4359
▁نمایشگر	-11.4365
▁کارل	-11.4369
▁کارفرمای	-11.4369
ai	-11.4369
▁چیه	-11.437
▁درگاه	-11.4371
▁کفر	-11.4373
▁مسافرتی	-11.4373
▁سام	-11.4375
گرایی	-11.4378
▁گروههای	-11.4381
▁باخت	-11.4383
▁پرداختن	-11.4385
▁مردانی	-11.4385
▁توانمند	-11.4387
▁پدربزرگ	-11.4393
ary	-11.4393
▁بگیر	-11.4395
▁شلوار	-11.4396
sa	-11.4399
ist	-11.4404
▁تجهیز	-11.4407
▁گرین	-11.441
▁امیرالمؤمنین	-11.4411
▁انفرادی	-11.4411
▁سلیقه	-11.4411
▁مناقشه	-11.4411
▁مبدل	-11.4411
▁خلوت	-11.4411
▁ذوب	-11.4411
▁باورنکردنی	-11.4411
▁استروژن	-11.4411
▁بپذیرد	-11.4411
▁غیرفعال	-11.4411
▁اشباع	-11.4412
▁۲۰۰۶	-11.4412
▁بازگردد	-11.4413
▁چشمه	-11.4413
▁ترسید	-11.4415
▁وجدان	-11.4415
▁جرج	-11.4416
▁آلی	-11.4417
▁عمان	-11.4417
▁Star	-11.442
▁مدافعان	-11.4422
▁كردند	-11.4426
تم	-11.4426
▁پولدار	-11.4433
▁جوهر	-11.4434
بیش	-11.4437
▁نزدیکتر	-11.4442
▁ایزو	-11.4443
▁کیهان	-11.4447
ant	-11.4448
▁خدایا	-11.445
▁میاد	-11.4457
شا	-11.446
80	-11.446
▁تل	-11.4464
قبل	-11.4472
▁توریستی	-11.4479
فور	-11.4481
▁42	-11.4481
▁موقتی	-11.4483
▁51	-11.4483
زو	-11.4483
▁ك	-11.4486
▁یار	-11.4488
▁سازید	-11.4503
▁آوردم	-11.4505
▁زنید	-11.4507
▁بلاگ	-11.451
▁گذاریم	-11.451
▁خطری	-11.4512
land	-11.4512
گذاری	-11.4515
▁حافظ	-11.4517
▁نداری	-11.4524
▁ناشر	-11.4524
▁گفتید	-11.4528
▁رفیق	-11.4531
▁فستیوال	-11.4531
▁مقوله	-11.4531
▁ممكن	-11.4531
▁نصیب	-11.4531
▁الجزایر	-11.4531
▁41	-11.4532
▁معلولیت	-11.4532
▁رجوع	-11.4533
▁ملایم	-11.4534
▁عینی	-11.4534
▁كن	-11.4535
▁نمي	-11.4536
▁کیلو	-11.4539
▁نخورده	-11.4539
▁Car	-11.454
▁كنم	-11.4541
▁رویدادها	-11.4543
▁میدانید	-11.4543
▁فیلمنامه	-11.4544
ck	-11.4545
▁دوبار	-11.4552
پول	-11.4552
باشد	-11.4563
▁یانگ	-11.4565
ey	-11.4571
▁کویت	-11.4571
▁تبار	-11.4579
▁صالح	-11.4584
tion	-11.4588
▁99	-11.4593
▁کشاند	-11.4594
اسیون	-11.4594
▁پستی	-11.4596
▁بدو	-11.4598
▁اندرو	-11.4604
▁بنای	-11.4616
▁صدام	-11.4617
▁فرزندش	-11.4619
استفاده	-11.462
▁كم	-11.4634
▁مبارز	-11.4637
▁افزون	-11.4639
▁بزرگان	-11.4639
▁معلول	-11.4647
▁همانا	-11.4647
▁کانون	-11.4649
برد	-11.4652
▁اتوماسیون	-11.4653
▁اخطار	-11.4653
▁بفهمند	-11.4653
▁حفاری	-11.4653
▁درنهایت	-11.4653
▁اطفال	-11.4653
ha	-11.4653
▁مداخلات	-11.4654
▁غیرمستقیم	-11.4654
▁اخوان	-11.4654
▁مکتب	-11.4654
▁جهات	-11.4654
▁Super	-11.4655
▁همسران	-11.4655
▁گیتس	-11.4655
▁CSS	-11.4655
▁رایت	-11.4657
▁لقب	-11.4657
▁عکاسان	-11.4664
تل	-11.4664
▁جمعیتی	-11.4668
▁مامور	-11.4668
va	-11.4668
▁شیک	-11.4672
▁جاه	-11.4673
▁بدهکار	-11.4673
▁Air	-11.4678
ژن	-11.4684
▁خوشبخت	-11.4688
▁روال	-11.4695
▁ورزشکار	-11.4701
▁گرفتید	-11.4702
IP	-11.4702
▁پایینی	-11.4704
اره	-11.4706
▁توریست	-11.4708
▁کاران	-11.4714
▁مندی	-11.4714
▁حالات	-11.4719
▁اپراتور	-11.4723
▁عروقی	-11.4726
▁شیطانی	-11.4741
شن	-11.4742
▁بخت	-11.4761
▁1.5	-11.4762
▁سهمی	-11.4766
▁نویسند	-11.4767
▁آرایشی	-11.4768
سان	-11.477
▁منوی	-11.4771
ge	-11.4774
ti	-11.4774
▁اتباع	-11.4777
▁صابون	-11.4777
▁منفعت	-11.4777
▁گلوکز	-11.4777
▁نامرئی	-11.4777
▁اکوسیستم	-11.4777
▁دکوراسیون	-11.4777
▁1989	-11.4777
▁تلفظ	-11.4777
▁اعلان	-11.4777
MA	-11.4777
▁مسمومیت	-11.4777
▁مخارج	-11.4777
لف	-11.4777
▁برگردید	-11.4778
▁سانسور	-11.4779
▁۴۰۰	-11.478
▁لحن	-11.4781
▁بلیت	-11.4782
▁اسپم	-11.4785
▁منم	-11.4789
35	-11.4789
▁آشامیدنی	-11.4794
▁عملکردهای	-11.4794
▁مشترکی	-11.48
▁ناو	-11.4808
کش	-11.4815
▁تکنولوژیکی	-11.4816
21	-11.4818
▁فرماندار	-11.4821
یتی	-11.4821
▁All	-11.4823
▁II	-11.4835
▁ذهنم	-11.4837
▁هکرها	-11.4837
▁برپا	-11.4841
ایت	-11.4843
▁حزبی	-11.4847
▁کامپیوترها	-11.4849
29	-11.4858
▁عمد	-11.4867
-5	-11.4874
▁l	-11.4877
خر	-11.4878
▁خونه	-11.4881
▁مؤمن	-11.4883
▁کابین	-11.4883
▁We	-11.4884
انند	-11.4884
▁حامل	-11.4887
▁سوپ	-11.4887
▁دگرگونی	-11.4889
▁خطاهای	-11.4892
▁حسب	-11.4897
▁جناب	-11.4897
▁همگانی	-11.4898
▁کلامی	-11.4899
▁جابجا	-11.4901
▁توابع	-11.4902
▁ناگزیر	-11.4902
▁نزاع	-11.4902
▁نصیحت	-11.4902
▁ایسلند	-11.4902
▁شفاهی	-11.4902
▁چيز	-11.4902
▁بفرستید	-11.4902
▁ناب	-11.4902
▁الکساندر	-11.4903
▁ریختن	-11.4903
تور	-11.4907
▁خوریم	-11.4912
▁بز	-11.4915
▁امپریالیستی	-11.4921
▁جنب	-11.4922
▁شوق	-11.4925
▁کهنه	-11.4929
ts	-11.4929
▁مبلغی	-11.4929
▁مادرید	-11.4932
▁ترسد	-11.4933
▁ببین	-11.4935
▁نخ	-11.4938
▁کوهستان	-11.4939
▁اومد	-11.494
▁پرسیدن	-11.494
▁عدالتی	-11.4941
▁کردستان	-11.4943
▁شاگرد	-11.4945
45	-11.4946
يل	-11.4956
▁فنلاند	-11.4958
▁<	-11.4966
▁میکرد	-11.4966
▁زهرا	-11.4971
▁Con	-11.4971
ard	-11.4978
▁راههای	-11.4981
وال	-11.4989
▁پیشروی	-11.4992
25	-11.5003
▁شا	-11.5011
ترا	-11.5014
لک	-11.5014
▁احمدی	-11.5017
▁عاملی	-11.5019
▁46	-11.502
▁شمع	-11.5028
فل	-11.5028
▁استقامت	-11.5028
▁موعظه	-11.5028
é	-11.5028
▁اهالی	-11.5028
▁فرنگی	-11.5028
▁پائین	-11.5029
▁1950	-11.5029
▁پیرمرد	-11.503
▁سیارات	-11.503
▁تراکم	-11.5031
▁پناهجویان	-11.5031
▁جاهایی	-11.5031
▁فرستادن	-11.5032
▁نارس	-11.5033
▁برگردم	-11.5034
▁خبرهای	-11.5034
▁آلفا	-11.5035
▁نرفته	-11.5035
▁گندم	-11.5036
▁ثروتمندان	-11.5036
▁خوانم	-11.5037
ویل	-11.504
▁بنگاه	-11.5041
▁ساکنین	-11.5044
▁مطالبات	-11.505
ent	-11.5052
▁تدریجی	-11.5057
سری	-11.5064
▁انتقادات	-11.5071
مل	-11.5086
▁همون	-11.509
▁دیواره	-11.5093
▁خاصیت	-11.51
▁تکنیکی	-11.5103
▁کرای	-11.5105
یون	-11.5112
▁جیم	-11.512
▁سازیم	-11.5121
▁سوسیال	-11.5124
32	-11.5128
▁چو	-11.513
ran	-11.5134
▁صفت	-11.5136
خداوند	-11.5143
▁نکردنی	-11.5144
▁بویژ	-11.5149
▁بردار	-11.5151
▁▪	-11.5156
▁احداث	-11.5156
▁دپارتمان	-11.5156
▁غفلت	-11.5156
▁قاشق	-11.5156
▁مفاصل	-11.5156
▁سیلیکون	-11.5156
▁كتاب	-11.5156
▁نمرات	-11.5157
▁هندوستان	-11.5157
▁تصحیح	-11.5157
▁مکانیزم	-11.5158
▁آنچنان	-11.5158
▁اکشن	-11.5158
▁چندگانه	-11.516
▁ارزشمندی	-11.5161
۰	-11.5165
▁فهمد	-11.5176
▁امتحانات	-11.5182
▁عثمانی	-11.5185
دوست	-11.5187
زه	-11.5187
▁تونم	-11.5188
ron	-11.519
▁لین	-11.519
رای	-11.5193
▁فرزندانشان	-11.5194
▁فعل	-11.5198
▁شهرک	-11.5199
lan	-11.5204
▁الم	-11.5213
صد	-11.5214
▁گشته	-11.5217
▁رسان	-11.5217
▁رسیدم	-11.5225
▁تحقیقی	-11.5232
بندی	-11.5243
تار	-11.5244
and	-11.525
▁ترفند	-11.5255
▁مایک	-11.5259
▁هیل	-11.5263
▁پیشینه	-11.5269
▁خودروها	-11.5269
▁خانمان	-11.5273
lu	-11.5279
دید	-11.5279
▁بازوی	-11.5279
▁محموله	-11.5286
▁مکالمات	-11.5286
▁پارکینسون	-11.5286
▁خرگوش	-11.5286
▁ولتاژ	-11.5286
▁بدافزار	-11.5287
▁1994	-11.5287
▁LED	-11.5287
▁دمکراسی	-11.5287
▁رونالدو	-11.5288
▁درج	-11.5288
▁متنی	-11.5288
▁بیاوریم	-11.5288
▁ایستادن	-11.5288
▁FDA	-11.5289
▁ندیدم	-11.529
▁فضانوردان	-11.529
▁چاه	-11.5292
▁بودایی	-11.5293
▁ستاد	-11.5294
▁Mo	-11.5295
▁کمان	-11.5295
▁سوزاندن	-11.5295
▁حکیم	-11.5297
▁سریعا	-11.5298
▁پن	-11.5301
▁پرستاران	-11.5301
▁ادوارد	-11.5302
▁مخاطبین	-11.5303
▁پوش	-11.5304
▁کشیدند	-11.5322
▁گنجاند	-11.5322
▁حلال	-11.5325
▁?	-11.5325
▁نهم	-11.5326
▁تخیل	-11.5327
net	-11.5327
▁گردم	-11.533
▁سرتان	-11.5331
▁نبودن	-11.5333
▁استالین	-11.5337
▁یهود	-11.5338
▁اجبار	-11.5342
▁6-	-11.5344
▁شرطی	-11.5351
▁میکروب	-11.5363
▁اعم	-11.5365
IC	-11.5376
der	-11.538
▁گان	-11.5383
▁كشور	-11.5391
٠	-11.5393
▁مسلما	-11.5395
▁مراجع	-11.5396
AR	-11.5397
28	-11.5399
▁اَ	-11.5401
200	-11.5405
▁مأمور	-11.5406
خیلی	-11.5407
PS	-11.5407
دهد	-11.5409
▁Dead	-11.541
▁گلف	-11.5413
تمام	-11.5413
▁پهن	-11.5417
▁تراژدی	-11.5418
▁o	-11.5418
▁آنالیز	-11.5418
CA	-11.5419
▁خیس	-11.5419
▁اوتیسم	-11.5419
▁جزییات	-11.542
▁دنده	-11.542
▁اکرم	-11.5421
▁رسیم	-11.5422
▁بخوانم	-11.5422
▁اقتصاددانان	-11.5424
▁هلاک	-11.5426
▁ورزشگاه	-11.5432
))	-11.5434
▁کتک	-11.5435
▁فقرات	-11.5437
▁۲٫	-11.5438
▁کارزار	-11.5438
▁بیکار	-11.544
▁گازی	-11.5441
▁اُ	-11.5445
دولت	-11.5446
▁خوام	-11.5456
▁مطمئنم	-11.5461
▁محوری	-11.5462
▁صهیونیستی	-11.5463
▁تولیدات	-11.5466
▁دنیاست	-11.5469
▁کال	-11.5471
ab	-11.5472
2)	-11.5475
▁سخنران	-11.5476
▁دن	-11.5477
per	-11.5478
▁سیگاری	-11.5479
ley	-11.5479
!”	-11.5486
داشت	-11.549
▁فال	-11.5492
▁خوشم	-11.55
گذار	-11.55
▁۳۴	-11.5514
▁بیننده	-11.552
داد	-11.5521
om	-11.5521
▁تله	-11.5526
▁بزرگتری	-11.5527
خور	-11.5529
38	-11.5529
میر	-11.5535
▁عملکردی	-11.5538
قانون	-11.554
▁سعادت	-11.5542
▁مختص	-11.5542
▁مجاور	-11.5544
▁گرایان	-11.5544
▁شکارچی	-11.5548
▁آشفتگی	-11.5551
▁اقوام	-11.5551
▁بوئینگ	-11.5551
▁سجده	-11.5551
▁بازنگری	-11.5551
▁ناکارآمد	-11.5551
▁آنکارا	-11.5551
▁مستعد	-11.5551
▁اصیل	-11.5551
▁رویترز	-11.5551
▁بشردوستانه	-11.5552
▁Data	-11.5552
▁صلاح	-11.5552
▁عفونی	-11.5552
▁ادارات	-11.5552
▁جکسون	-11.5552
▁Of	-11.5553
▁ADHD	-11.5553
۱۴	-11.5553
▁پروانه	-11.5554
خواهی	-11.5557
▁تریلر	-11.5558
▁هشتاد	-11.5559
▁شوکه	-11.556
▁نگفته	-11.5564
ik	-11.5567
دین	-11.5568
▁زیباست	-11.5568
▁اوّل	-11.5569
▁مؤمنان	-11.5569
▁فو	-11.557
▁کمیاب	-11.5573
▁بردارند	-11.5577
▁جلال	-11.5577
آب	-11.558
▁میگرن	-11.558
▁فلسطینیان	-11.5583
oo	-11.5587
▁مامان	-11.559
▁نشت	-11.5595
▁فونت	-11.5595
▁گفتگوهای	-11.5598
شدن	-11.56
ach	-11.5601
وو	-11.5613
▁مسافت	-11.5615
▁or	-11.5617
▁زنجیر	-11.5618
▁دارن	-11.5619
▁اکسیدان	-11.5632
ip	-11.5636
▁کین	-11.5644
▁روتر	-11.5645
▁هکر	-11.5655
▁بازارها	-11.5655
mm	-11.5657
▁دقیقی	-11.5658
▁تع	-11.5658
▁ناکام	-11.566
▁App	-11.5663
▁آموزه	-11.5683
▁۶۰۰	-11.5684
▁منتظره	-11.5684
رود	-11.5685
▁محتاط	-11.5686
▁پرسپولیس	-11.5686
▁جرائم	-11.5686
▁اورانیوم	-11.5686
▁متوالی	-11.5686
▁کمونیسم	-11.5686
▁همدردی	-11.5686
▁تسلا	-11.5687
▁بیندازید	-11.5687
▁ریتم	-11.5687
▁آشتی	-11.5687
▁پناهنده	-11.5687
▁فرعون	-11.5687
▁ببخشد	-11.5687
▁جوجه	-11.5687
▁انعکاس	-11.5688
▁ندهند	-11.5688
▁←	-11.5688
▁کارگزار	-11.5688
▁گیتار	-11.5688
▁۲۰۲۰	-11.5688
▁API	-11.5689
▁پرسشنامه	-11.5689
زیدنت	-11.5689
▁چنگ	-11.5689
▁Game	-11.569
خوش	-11.5692
▁Open	-11.5693
▁خورم	-11.5693
▁شست	-11.5693
▁غیرنظامیان	-11.5697
▁تائید	-11.5699
ایران	-11.5702
▁قدس	-11.5702
قدرت	-11.5707
▁تبعی	-11.571
▁رزمی	-11.5712
سین	-11.5721
▁هموار	-11.5721
ah	-11.5722
ff	-11.5722
▁سعید	-11.5725
زمانی	-11.5727
غال	-11.5735
▁مطالعاتی	-11.5736
▁خر	-11.5736
▁(2)	-11.5738
فو	-11.5742
سم	-11.575
۱۳	-11.5751
500	-11.5751
▁سودآور	-11.5752
▁ایراد	-11.5752
▁یازدهم	-11.5753
▁تقوا	-11.5755
ویت	-11.5757
بیل	-11.576
ES	-11.5767
▁سوزن	-11.5772
▁کوک	-11.5777
bo	-11.5784
خان	-11.5791
▁بستنی	-11.5804
▁تبعید	-11.5805
#	-11.5809
▁Auto	-11.5811
▁صداها	-11.5816
فورد	-11.5819
‬	-11.5823
▁تطابق	-11.5823
▁صرافی	-11.5823
▁کروموزوم	-11.5823
▁نگویید	-11.5823
▁اطلس	-11.5823
▁قزاقستان	-11.5823
▁شاغل	-11.5823
▁القاعده	-11.5823
▁القدس	-11.5823
▁بریزید	-11.5823
▁اعماق	-11.5824
▁1997	-11.5824
▁فصلی	-11.5824
▁ویکتوریا	-11.5825
▁خوانید	-11.5827
▁پازل	-11.5827
بعد	-11.5827
▁بمانم	-11.5827
▁نتوانند	-11.5828
▁شمرده	-11.5828
▁بینانه	-11.5829
▁نتوانستند	-11.5829
▁درآمدی	-11.5834
▁تون	-11.5837
▁72	-11.5838
▁قدرتمندترین	-11.5839
▁سرعتی	-11.5839
▁یگانه	-11.584
▁متون	-11.5842
ٌ	-11.5842
▁سس	-11.5844
▁اقتصادهای	-11.5849
▁مرخصی	-11.5849
▁Ka	-11.5851
▁نژادپرستی	-11.5852
▁أ	-11.5857
▁خوری	-11.5862
ba	-11.5862
▁پادشاهان	-11.5867
▁خیالی	-11.5867
ph	-11.5878
▁پیامبران	-11.5884
NET	-11.5895
▁سرب	-11.5897
▁نیکو	-11.5901
▁فیلیپ	-11.5908
ud	-11.5926
عه	-11.5928
▁دستم	-11.5929
زان	-11.5933
یب	-11.5939
زر	-11.5939
▁پیوندهای	-11.5941
▁هواپیماها	-11.5941
▁مردن	-11.5943
▁برادرم	-11.5943
▁حسابی	-11.595
۲۴	-11.5952
ِل	-11.5954
▁لان	-11.5959
▁آلاینده	-11.5962
▁غربالگری	-11.5962
▁متعارف	-11.5962
▁آکسفورد	-11.5962
▁مشهود	-11.5962
▁تسخیر	-11.5962
▁Xbox	-11.5962
▁Galaxy	-11.5963
▁خوشایند	-11.5963
▁تقابل	-11.5963
▁بمانیم	-11.5963
▁کوسه	-11.5963
▁بجز	-11.5963
▁CRM	-11.5965
▁جرات	-11.5965
▁بخوریم	-11.5965
▁سهولت	-11.5966
▁شورشی	-11.5966
▁شکننده	-11.5966
ng	-11.5967
▁دائماً	-11.5967
▁سامان	-11.5968
▁کلاهبرداری	-11.597
▁کتابهای	-11.597
▁کول	-11.5973
▁For	-11.5973
▁نرسید	-11.5976
▁))	-11.5976
گرا	-11.5978
▁49	-11.5981
▁پردازی	-11.5984
▁El	-11.5985
▁گذرانده	-11.5986
.»[	-11.5988
▁اژدها	-11.5994
▁۳۱	-11.5996
▁اور	-11.5997
فروش	-11.5998
▁تسلیحاتی	-11.5999
ak	-11.5999
▁کود	-11.6002
▁هیجانی	-11.6002
▁MS	-11.6004
▁منفرد	-11.6004
▁8-	-11.6005
by	-11.6007
▁Live	-11.6011
▁۳۶	-11.6011
▁سازمانهای	-11.6014
▁پیشانی	-11.6015
▁عملاً	-11.6022
▁بیتی	-11.6022
▁اختیارات	-11.6025
هٔ	-11.6027
▁بادام	-11.6028
▁بازاریاب	-11.6029
▁موس	-11.603
▁آنا	-11.6031
انسان	-11.6035
قا	-11.6036
▁میلاد	-11.6036
▁حسینی	-11.6039
:”	-11.604
▁سیتی	-11.604
▁پد	-11.605
▁پاتر	-11.6051
▁تخیلی	-11.6061
▁کوهستانی	-11.6063
▁پسری	-11.6067
▁تشکیلات	-11.6071
▁طرفه	-11.6073
انید	-11.6083
زده	-11.609
ابی	-11.609
▁آبجو	-11.6091
▁حرم	-11.6093
▁معضل	-11.6098
▁خوار	-11.6098
▁امین	-11.6099
۱۶	-11.6102
▁بازماندگان	-11.6103
▁تهوع	-11.6103
▁محفوظ	-11.6103
▁منحنی	-11.6103
▁معایب	-11.6103
▁رسالت	-11.6103
▁تیروئید	-11.6103
▁آشفته	-11.6104
▁عاری	-11.6104
▁اب	-11.6105
▁جونز	-11.6107
▁عزم	-11.6107
▁نترسید	-11.6107
▁متاسفم	-11.6109
▁موسس	-11.6109
ِن	-11.611
▁ترسم	-11.611
▁شنونده	-11.6117
▁نارضای	-11.6117
توانیم	-11.6119
▁درآمدهای	-11.6131
▁سایرین	-11.6132
▁سردرگمی	-11.6136
▁نشانی	-11.6136
▁Se	-11.6137
▁VR	-11.6143
▁مع	-11.6148
▁گناهی	-11.6154
▁اقتدار	-11.6158
▁7-	-11.616
▁نوح	-11.6167
ure	-11.6169
▁آلومینیوم	-11.6175
▁هوشیار	-11.6177
ya	-11.6179
▁نوشتار	-11.6181
sp	-11.6185
ner	-11.6185
▁استار	-11.619
▁۳۲	-11.6191
▁افقی	-11.6207
بیشتر	-11.6208
vi	-11.6211
▁Ar	-11.6215
▁استروئید	-11.6218
han	-11.622
امروز	-11.622
▁ترکی	-11.6229
▁نابینا	-11.6245
▁آسایش	-11.6246
▁غوطه	-11.6246
▁سیستماتیک	-11.6246
▁رویارویی	-11.6246
▁اتمسفر	-11.6246
▁اکانت	-11.6246
▁روانشناختی	-11.6246
▁هکتار	-11.6246
▁سختگیرانه	-11.6246
▁بپذیریم	-11.6246
▁پیغمبر	-11.6246
▁مؤلف	-11.6246
▁سوئیچ	-11.6247
▁آفتابی	-11.6248
▁راهپیمایی	-11.6248
▁پهنای	-11.6248
▁عیار	-11.6248
▁جواهرات	-11.6249
▁بنشینید	-11.6249
▁سرفه	-11.6249
▁حوصله	-11.625
▁کادر	-11.6251
▁تشخیصی	-11.6253
▁@	-11.6254
▁ببرم	-11.6258
▁رحمانه	-11.6259
عین	-11.6262
▁ژل	-11.6262
ریل	-11.6265
شوند	-11.6265
▁دیزل	-11.6265
▁Ma	-11.6267
▁نهایتاً	-11.6273
▁همچین	-11.6276
خوان	-11.6277
▁مود	-11.6281
؟؟؟	-11.6283
▁میخواهم	-11.6285
حل	-11.6285
▁حالتی	-11.6289
ster	-11.629
▁آنطور	-11.629
اله	-11.629
لت	-11.6295
▁کافیست	-11.6295
▁خواندند	-11.6298
▁کینگ	-11.6304
▁رازهای	-11.6305
▁کسری	-11.6305
▁راهبرد	-11.6306
بسیار	-11.6307
27	-11.6307
▁اندازند	-11.6311
ill	-11.6312
▁سرود	-11.6313
ولا	-11.6317
گون	-11.6318
▁پرولتاریا	-11.632
▁اسپری	-11.632
▁داور	-11.6324
▁نتایجی	-11.6325
▁مطالبه	-11.633
▁لعنت	-11.6334
▁انجامش	-11.6336
▁هارد	-11.6337
رید	-11.6337
▁احساساتی	-11.6338
▁میرود	-11.6339
ite	-11.6346
شناسی	-11.6349
▁موثری	-11.636
▁اثرگذار	-11.6364
▁مبل	-11.6366
▁زنبور	-11.6367
▁شدیدا	-11.6372
بزرگ	-11.6372
▁تهدیدهای	-11.6372
▁کشورشان	-11.6376
▁سازش	-11.6376
▁شنوند	-11.6376
شرکت	-11.6377
▁کجای	-11.6377
▁درام	-11.6377
همچنین	-11.6377
▁دشوارتر	-11.6379
▁یاران	-11.638
▁بشار	-11.638
کین	-11.6383
سازمان	-11.6384
▁یکسال	-11.6386
AL	-11.6388
▁Play	-11.6389
▁عاقل	-11.639
▁فقیه	-11.6391
▁مصیبت	-11.6391
▁ضخیم	-11.6391
▁قرائت	-11.6391
▁غرفه	-11.6391
▁زائد	-11.6391
▁صربستان	-11.6391
▁ناموفق	-11.6391
▁قشر	-11.6391
▁بفهمد	-11.6391
▁بسپارید	-11.6391
▁نگذارید	-11.6391
▁متضاد	-11.6391
▁وصف	-11.6391
▁مخفف	-11.6392
▁مدنظر	-11.6392
▁آداب	-11.6392
▁آبیاری	-11.6393
▁طرد	-11.6393
▁توربین	-11.6393
▁قمار	-11.6394
▁{	-11.6395
▁نوشید	-11.6395
▁مر	-11.6395
▁لیکن	-11.6396
▁عکسی	-11.6397
رب	-11.6397
▁ناظران	-11.6402
▁نمانده	-11.6403
▁منطبق	-11.6404
▁توکن	-11.6408
پو	-11.6409
▁تحلیلگر	-11.641
▁کالای	-11.6411
▁بين	-11.6412
▁آنزیم	-11.6414
▁دوزهای	-11.6423
▁پسند	-11.6427
▁التهابی	-11.6435
چر	-11.6438
▁سلیمان	-11.6441
▁پنجه	-11.6446
ler	-11.6448
▁حقیقتا	-11.6451
39	-11.6455
تونه	-11.6462
▁صوت	-11.6469
▁مهارتهای	-11.6471
▁سلب	-11.6474
▁یخی	-11.6476
لون	-11.6478
▁تومورهای	-11.6479
AC	-11.648
انگ	-11.6483
فن	-11.6484
▁تیپ	-11.6485
▁پیک	-11.6486
▁مفیدی	-11.6486
▁مطبوعاتی	-11.6486
▁فلان	-11.6493
IS	-11.6494
▁خوشی	-11.6499
▁کلیپ	-11.6504
▁۵۵	-11.6516
▁جوانب	-11.652
▁جد	-11.6522
قرآن	-11.6525
▁توئیت	-11.6525
ّی	-11.6525
زاده	-11.6525
▁حریف	-11.6526
▁لاس	-11.6528
▁شکن	-11.6533
▁آفرینی	-11.6537
▁سوزان	-11.6537
▁استفراغ	-11.6538
▁رزومه	-11.6538
▁شصت	-11.6538
▁احراز	-11.6538
▁نوظهور	-11.6538
▁with	-11.6538
▁فكر	-11.6538
▁فرآوری	-11.6538
▁عاشورا	-11.6538
▁هیلاری	-11.6538
▁بشناسیم	-11.6538
▁ملموس	-11.6538
▁وهله	-11.6539
▁نامعلوم	-11.6539
▁عذر	-11.6539
▁Group	-11.6539
▁IBM	-11.6539
▁گذرانند	-11.654
▁Server	-11.654
▁بیافتد	-11.654
▁بیاورم	-11.654
▁بانکوک	-11.6541
▁برگردیم	-11.6541
آر	-11.6546
▁180	-11.6547
يان	-11.6547
▁بقایای	-11.6547
▁سویا	-11.6551
▁بگم	-11.6553
▁دفعات	-11.6557
▁پُر	-11.6558
۸۰	-11.6562
روم	-11.6563
▁روشنفکران	-11.6568
▁قفس	-11.6569
▁بانوی	-11.6573
▁اهدای	-11.6574
▁کریستال	-11.6575
▁فقرا	-11.6577
۰۰	-11.6581
▁الکس	-11.6583
▁جهانیان	-11.6583
▁طرحی	-11.6584
▁شیب	-11.6587
▁شایعه	-11.6589
▁جادوگر	-11.6593
▁فعالانه	-11.6601
اقل	-11.6602
▁بور	-11.6602
ear	-11.6603
▁درنتیجه	-11.6603
▁کلیدهای	-11.6604
▁بزرگوار	-11.6604
▁ماشینی	-11.6608
▁وکلای	-11.6609
▁فون	-11.6612
▁متغیرهای	-11.6614
▁تصورات	-11.6614
▁فیلترهای	-11.6618
▁AC	-11.662
tic	-11.6628
▁درآمده	-11.6634
▁رانده	-11.6637
▁والد	-11.6648
چیزی	-11.6649
▁تکاملی	-11.665
▁راکت	-11.6653
▁گرو	-11.6656
ies	-11.6656
▁بلندی	-11.6661
▁آمریکاست	-11.6663
▁ایستاد	-11.6669
▁سنجی	-11.667
▁وقف	-11.6674
▁۲۵۰	-11.6679
چشم	-11.6682
▁گزارشگر	-11.6684
▁خوان	-11.6686
▁جنازه	-11.6687
▁شطرنج	-11.6687
▁یائسگی	-11.6687
▁ضخامت	-11.6687
▁پرتقال	-11.6687
▁متعجب	-11.6687
▁انقراض	-11.6687
▁معافیت	-11.6688
▁بنویسد	-11.6688
▁غلات	-11.6689
▁پرداختی	-11.6689
▁Power	-11.669
▁دوزخ	-11.669
▁فضل	-11.669
▁وحشیانه	-11.669
▁جنگید	-11.669
▁کلیشه	-11.6692
▁تبریز	-11.6692
▁کافر	-11.6694
▁ندادند	-11.6696
▁فروید	-11.6696
▁دریچه	-11.6698
▁استعمار	-11.6698
▁تعمیرات	-11.6698
51	-11.6702
▁فرماندهان	-11.6705
▁مهیا	-11.6714
▁زامبی	-11.6719
▁AI	-11.672
so	-11.6721
▁بدبختی	-11.6722
▁۸۵	-11.6723
▁کات	-11.6723
سار	-11.6724
▁بردگی	-11.6724
مد	-11.6727
▁بازهم	-11.6727
▁فرزندی	-11.6729
▁گلو	-11.6735
▁Free	-11.6737
▁امانت	-11.674
den	-11.6742
رین	-11.6749
خته	-11.6755
▁نامزدها	-11.6756
49	-11.6758
مور	-11.6762
▁امیدواری	-11.6768
▁کبدی	-11.6772
▁آرا	-11.6779
▁اینصورت	-11.6783
نش	-11.6784
▁نود	-11.6789
▁معان	-11.679
▁معنادار	-11.6792
▁مهاجرتی	-11.6793
▁Time	-11.6794
55	-11.6797
48	-11.6803
▁استودیوی	-11.6811
▁فهمم	-11.6812
ix	-11.6818
ممکن	-11.682
قه	-11.6822
▁مجرم	-11.6823
ci	-11.6825
▁سیستمی	-11.683
▁نگفت	-11.683
آل	-11.6833
▁لط	-11.6833
23	-11.6833
▁همجنسگرا	-11.6837
mp	-11.6838
▁مشروع	-11.6838
▁Semalt	-11.6839
▁باشکوه	-11.6839
▁ظروف	-11.6839
▁مرحوم	-11.6839
▁ممانعت	-11.6839
▁نوشابه	-11.6839
▁تحریف	-11.6839
▁واژگان	-11.6839
▁بگذرانید	-11.6839
▁امثال	-11.6839
▁متناوب	-11.6839
▁انصاف	-11.6839
▁گردهمایی	-11.6839
▁کنسولگری	-11.6839
▁خلال	-11.6839
▁دیزنی	-11.6839
▁رمانتیک	-11.684
▁بنویسند	-11.684
▁جنون	-11.6841
▁زیرنویس	-11.6842
▁700	-11.6843
▁مسلحانه	-11.6844
▁انتحاری	-11.6845
▁تدارکات	-11.6845
▁عروس	-11.6847
▁جنگجویان	-11.6847
▁آرایه	-11.6855
▁تالار	-11.6859
-3	-11.6863
▁بردارد	-11.6864
▁هدایای	-11.6865
ll	-11.6868
یزه	-11.6868
▁ناامنی	-11.6868
▁مازاد	-11.6874
ea	-11.6877
▁درختی	-11.6884
▁اسیدهای	-11.6884
▁مهندسین	-11.6886
نفر	-11.6887
▁عضوی	-11.689
▁دروغین	-11.6893
64	-11.6898
▁360	-11.6899
▁پذیرایی	-11.6902
▁عمو	-11.6903
▁استانی	-11.6903
▁لهستانی	-11.6903
▁خال	-11.6904
▁سریعترین	-11.6905
▁فراری	-11.6905
▁قلبم	-11.6911
▁کشیدم	-11.6912
▁غافلگیر	-11.6921
▁سرنگون	-11.6922
▁امداد	-11.6927
▁ایا	-11.6935
▁وکلا	-11.6937
هیچوقت	-11.6938
▁خلع	-11.6939
IN	-11.6941
▁He	-11.6942
ارو	-11.6943
▁چهارده	-11.6944
▁نیرومند	-11.6944
▁شادتر	-11.695
سکو	-11.6953
▁اعتقادی	-11.6958
▁۹۹	-11.6958
▁هشدارهای	-11.6962
چون	-11.6964
▁بيشتر	-11.6971
▁جری	-11.6972
▁باکس	-11.6974
▁56	-11.6974
آمریکا	-11.6978
١	-11.6978
ویرایش	-11.6979
وئید	-11.6981
▁چسب	-11.6983
▁ره	-11.6985
▁Li	-11.6988
▁معینی	-11.6988
▁Post	-11.699
za	-11.6992
تک	-11.6992
▁ارتکاب	-11.6993
▁بپردازیم	-11.6993
▁تدابیر	-11.6993
▁مخترع	-11.6993
▁هيچ	-11.6993
▁استحکام	-11.6993
▁زناشویی	-11.6993
▁مشهد	-11.6993
▁مضمون	-11.6993
▁مدینه	-11.6993
▁post	-11.6993
▁HPV	-11.6993
▁ایستادگی	-11.6993
▁دیشب	-11.6993
▁جنرال	-11.6994
▁دیواری	-11.6994
▁عود	-11.6994
▁زودهنگام	-11.6994
▁لرزش	-11.6995
▁داروخانه	-11.6995
▁‫	-11.6996
▁www	-11.6996
▁بانوان	-11.6996
▁تنفر	-11.6997
▁داود	-11.6999
هایتان	-11.7
▁عمودی	-11.7002
▁بودا	-11.7002
▁خوابگاه	-11.7003
▁انتزاعی	-11.7003
▁MIT	-11.7005
▁اندیشید	-11.7005
▁آرم	-11.7007
▁خوبه	-11.7008
▁سوختن	-11.7011
▁Ha	-11.7014
زبان	-11.7028
▁طلبان	-11.7029
▁نوه	-11.703
▁ایوان	-11.7039
۱۷	-11.7051
▁ریخت	-11.7055
▁چادر	-11.7057
▁وحشتناکی	-11.7059
خواهد	-11.7063
▁سرنگونی	-11.7063
▁Bar	-11.7064
▁محدودیتی	-11.7068
▁چشمی	-11.7077
▁اقلیم	-11.708
▁52	-11.7081
able	-11.7082
▁1:	-11.7083
وار	-11.7085
سیم	-11.7086
▁مش	-11.7088
▁بیم	-11.709
▁منشا	-11.7091
▁میخواهند	-11.7092
▁خطرناکی	-11.7099
ائل	-11.7109
hi	-11.7111
▁گذارید	-11.7113
آیی	-11.7116
فیلم	-11.7116
▁نگرفت	-11.7118
ay	-11.7124
▁دیوارها	-11.7124
زاد	-11.7132
هایش	-11.7132
CS	-11.7133
▁مشروط	-11.7134
▁مصالح	-11.7135
حداقل	-11.7135
▁سرورهای	-11.7136
ساعت	-11.7136
▁تناقض	-11.7144
زار	-11.7144
▁سور	-11.7147
▁اسرائيل	-11.7149
▁بعدازظهر	-11.7149
▁حصول	-11.7149
▁رمضان	-11.7149
▁تکنسین	-11.7149
▁علایق	-11.7149
▁معلق	-11.7149
▁ابریشم	-11.7149
▁اجداد	-11.7149
▁اپوزیسیون	-11.7149
▁فرانسیسکو	-11.7149
▁مکعب	-11.7149
▁پرتره	-11.7149
▁كمك	-11.715
▁۲۰۰۴	-11.715
▁خاور	-11.7151
▁كنیم	-11.7151
▁دمکراتیک	-11.7151
▁John	-11.7153
▁پریود	-11.7153
▁برخورداری	-11.7155
▁ریزد	-11.7156
▁پیشگویی	-11.7157
▁نکردیم	-11.7161
▁صلی	-11.7162
یوس	-11.7162
▁دکتری	-11.7164
▁MA	-11.7168
▁ورق	-11.717
▁قبرس	-11.7172
چا	-11.7174
▁Ro	-11.7177
▁نمادین	-11.7181
▁جون	-11.7183
▁گول	-11.7183
▁یابیم	-11.7183
▁ریش	-11.7197
▁کروم	-11.7197
ka	-11.7204
ow	-11.7206
▁برگشته	-11.7206
▁روانشناس	-11.7208
▁شیری	-11.7208
▁لیمو	-11.7209
▁نامزدی	-11.7215
▁پال	-11.7215
▁آواره	-11.7218
▁میخواهد	-11.722
▁سلطان	-11.722
▁مینی	-11.7223
▁سودآوری	-11.723
▁ژو	-11.7234
▁چاپی	-11.7235
روان	-11.7238
▁ارثی	-11.724
ou	-11.7241
وپ	-11.7243
▁پالس	-11.7247
▁تنیس	-11.725
mon	-11.7255
▁۱٫	-11.7259
he	-11.7265
800	-11.727
▁دخترها	-11.7278
▁مطالبی	-11.7288
▁پیشنهادهای	-11.7293
▁مبالغ	-11.7293
au	-11.7295
77	-11.7297
▁ابهام	-11.7298
▁معادله	-11.7302
In	-11.7302
مال	-11.7302
▁سفیدپوست	-11.7303
▁آکواریوم	-11.7307
▁بفرمایید	-11.7307
▁تعبیه	-11.7307
▁روزافزون	-11.7307
▁لوئیس	-11.7307
▁موظف	-11.7307
▁معشوق	-11.7308
▁تزکیه	-11.7308
▁مستحکم	-11.7308
▁عصاره	-11.7308
▁بخوابید	-11.7308
▁جابز	-11.7309
▁بخرند	-11.7309
▁خمیر	-11.731
▁برگردند	-11.731
▁1992	-11.731
▁سمبل	-11.7311
▁وزارتخانه	-11.7311
▁خامنه	-11.7312
▁دریغ	-11.7314
ru	-11.7314
▁سرزمینی	-11.7315
▁آموختن	-11.7317
▁آویزان	-11.7317
لز	-11.7324
▁اصولی	-11.7324
▁تاسف	-11.7326
▁نارنجی	-11.7332
▁شریف	-11.7332
▁نوت	-11.7334
▁پاور	-11.7342
▁جدیدتر	-11.7347
▁فلا	-11.7348
▁ایرلندی	-11.7349
▁توت	-11.7352
▁سالمی	-11.7353
▁مراد	-11.7354
▁استعدادهای	-11.7364
▁اسماعیل	-11.7366
نامۀ	-11.7367
▁66	-11.737
▁خودِ	-11.7377
▁قشنگ	-11.7381
▁بزن	-11.7384
▁جر	-11.7385
▁ادای	-11.7387
▁دال	-11.7389
اثر	-11.739
▁رس	-11.7394
▁فرزندانش	-11.7399
art	-11.7399
▁فراموشی	-11.7399
▁رویکردی	-11.7402
▁مناسبات	-11.742
دور	-11.7422
صلی	-11.743
▁آسیاب	-11.7433
▁شاخ	-11.7435
▁خوی	-11.744
▁رخداد	-11.744
شب	-11.7442
▁96	-11.7443
▁گوناگونی	-11.7446
▁دوستانی	-11.7448
▁هستن	-11.7448
▁نیامد	-11.7452
▁واگن	-11.7462
▁مبان	-11.7465
▁تعصب	-11.7466
▁آلبرت	-11.7467
▁ژورنال	-11.7468
▁Previous	-11.7469
▁اتلاف	-11.7469
▁انتفاعی	-11.7469
▁بازگردند	-11.7469
▁تنباکو	-11.7469
▁پیشگیرانه	-11.7469
▁حکمرانی	-11.7469
▁کمبریج	-11.7469
▁ویرجینیا	-11.7469
▁1995	-11.7469
▁ساندویچ	-11.7469
ـــ	-11.747
▁بشنوند	-11.747
▁شیء	-11.747
▁کرسی	-11.747
▁روایات	-11.747
▁بخرم	-11.7472
▁محرومیت	-11.7474
▁مگه	-11.7476
ice	-11.7477
▁Lo	-11.7477
▁فرعی	-11.7479
▁Pi	-11.7483
the	-11.7483
کال	-11.7484
CC	-11.7484
▁اکبر	-11.7489
▁دشت	-11.7489
▁واکنشی	-11.749
▁کنش	-11.7495
MI	-11.7496
▁گرفتگی	-11.7498
▁سالاد	-11.7504
▁پژوهشگر	-11.7504
▁موافقم	-11.7506
اولین	-11.7508
▁برگشتم	-11.7511
22	-11.7514
-20	-11.7514
▁سراسری	-11.7515
▁نیش	-11.7516
▁کنن	-11.7516
▁آس	-11.7518
▁2:	-11.7519
▁اتکا	-11.7523
▁پارامترهای	-11.7523
▁پیامک	-11.7526
▁Call	-11.7528
▁میگویند	-11.7531
▁ویدئوهای	-11.7532
IT	-11.7534
▁کیفی	-11.7537
▁فروشان	-11.7539
ni	-11.754
نبرگ	-11.754
▁بالاست	-11.7544
▁هوشیاری	-11.7549
ism	-11.755
%)	-11.7551
66	-11.7557
زید	-11.756
▁موجودیت	-11.756
▁اینحال	-11.7565
ریک	-11.7566
▁جوابی	-11.7567
tra	-11.7572
▁احیای	-11.7577
uk	-11.7578
▁بازدهی	-11.7579
NA	-11.7581
عج	-11.7584
▁میگردد	-11.7585
▁آنتن	-11.7586
do	-11.759
▁ولز	-11.7591
▁مکزیکی	-11.7592
▁نامی	-11.7593
AS	-11.7594
▁سرمربی	-11.7596
line	-11.7607
▁موم	-11.7611
-19	-11.7618
▁اونا	-11.762
▁خیز	-11.7628
▁سبزی	-11.7628
▁اقتصاددان	-11.763
▁نوسان	-11.7631
▁HTTP	-11.7631
▁دلیلش	-11.7632
▁صومعه	-11.7633
▁عاقبت	-11.7633
▁فراغت	-11.7633
▁مروارید	-11.7633
▁دوجانبه	-11.7633
▁احسان	-11.7633
▁نیوزلند	-11.7633
▁1993	-11.7633
▁آندروید	-11.7633
▁WordPress	-11.7633
▁مرتفع	-11.7633
▁مساجد	-11.7633
▁مجانی	-11.7634
▁بستگان	-11.7634
▁احوال	-11.7634
▁لادن	-11.7634
▁بهادار	-11.7634
▁میکنه	-11.7634
▁بپرسند	-11.7635
▁بشوند	-11.7635
▁رئال	-11.7636
▁IoT	-11.7636
▁رومانی	-11.7639
▁مأموران	-11.7639
▁مخفیانه	-11.764
▁بندگی	-11.7641
▁شکوفا	-11.7641
▁پیشگام	-11.7643
ee	-11.7645
▁دهانه	-11.7646
لم	-11.7647
▁کدوم	-11.7649
▁پیرو	-11.7649
▁قرضه	-11.765
▁بیگ	-11.7655
▁ساختگی	-11.7656
▁تعاونی	-11.7658
▁ترانس	-11.7658
▁63	-11.7663
▁موقعی	-11.7674
▁تمایلات	-11.7675
oc	-11.7675
▁گفتنی	-11.7676
▁ویلیامز	-11.7678
▁2.0	-11.7679
▁برندگان	-11.7684
▁آره	-11.7684
كه	-11.7688
▁سوخته	-11.7695
▁پارامتر	-11.7703
▁دارندگان	-11.7703
▁نمیکند	-11.7709
▁رقبا	-11.771
ray	-11.7711
▁میکردند	-11.7713
▁تعطیلی	-11.7718
SA	-11.7722
▁هزاره	-11.7723
▁ویدئوی	-11.773
▁ارزی	-11.7742
▁لنزهای	-11.7743
▁رادار	-11.7747
▁اپرا	-11.7748
▁ژانر	-11.7754
▁آز	-11.7755
RS	-11.7756
▁رویکردهای	-11.7756
توس	-11.7759
▁دروغگو	-11.7759
▁ابرها	-11.776
▁خانوار	-11.7765
ستون	-11.7767
▁میکنی	-11.7779
85	-11.7779
▁گیل	-11.7779
ty	-11.7781
فرم	-11.7782
رانه	-11.7782
ib	-11.7786
▁کوچولو	-11.7786
توجه	-11.7795
▁لای	-11.7795
▁تعارض	-11.7797
▁آمریكا	-11.7799
▁عطف	-11.7799
▁نابغه	-11.7799
▁پرطرفدار	-11.7799
▁iPhone	-11.7799
▁آتشفشان	-11.7799
▁ائمه	-11.7799
▁بلومبرگ	-11.7799
▁سرنخ	-11.7799
▁مخاطره	-11.7799
▁رسوایی	-11.78
▁متاهل	-11.78
▁کامرون	-11.78
▁شعور	-11.78
▁۱۹۳۰	-11.78
▁فرمایند	-11.78
▁المسلمین	-11.78
▁1991	-11.7801
▁ضایعات	-11.7802
▁DNS	-11.7802
▁پسرها	-11.7802
▁بخواهم	-11.7803
▁توفان	-11.7803
▁آزادسازی	-11.7806
▁سرگردان	-11.7808
▁مدرس	-11.7811
▁اطلاعیه	-11.7817
▁امیدوارند	-11.7819
▁بارگیری	-11.7822
▁فیزیولوژیکی	-11.7822
▁مناظره	-11.7823
شت	-11.7825
ox	-11.7825
▁روانشناسان	-11.7831
ov	-11.7832
log	-11.7834
▁III	-11.7835
▁زو	-11.7837
▁افتادند	-11.784
▁دستگاهی	-11.7841
▁حاج	-11.7847
▁كسی	-11.7851
IA	-11.7853
▁دانشگاهیان	-11.7858
يی	-11.7862
si	-11.787
▁متفکر	-11.7871
▁فاکتورهای	-11.7874
اکان	-11.7878
▁افکن	-11.789
▁مدرکی	-11.789
نویس	-11.7894
شاید	-11.7894
▁جاست	-11.7895
ارت	-11.7897
▁صحرا	-11.7899
▁کودتا	-11.7901
▁نگر	-11.7906
▁بریده	-11.7906
▁جعل	-11.7908
▁پوشی	-11.7926
▁گلی	-11.7926
نوس	-11.7931
گویی	-11.7932
ندگی	-11.7934
▁اینكه	-11.7939
▁میلیاردر	-11.7939
▁ادب	-11.7943
▁Love	-11.7944
۴۰	-11.7945
PA	-11.7947
3)	-11.7952
▁(3	-11.7953
▁انسانهای	-11.7954
▁دوستم	-11.7954
AP	-11.7955
[1]	-11.7955
▁امیدی	-11.7955
▁بروی	-11.7958
▁مبتدی	-11.7964
▁بپیوندید	-11.7969
▁مرسدس	-11.7969
▁مستغلات	-11.7969
▁قاهره	-11.7969
▁ممتاز	-11.7969
▁سیاهچاله	-11.7969
▁آزاردهنده	-11.7969
▁زرق	-11.797
▁بفروشد	-11.797
▁مورچه	-11.797
▁Bitcoin	-11.797
▁تشنج	-11.7971
▁شهاب	-11.7971
▁نماند	-11.7971
▁دیکتاتور	-11.7972
▁مرگش	-11.7976
▁جاودانه	-11.7979
96	-11.7982
▁خوشش	-11.7985
▁مهاجرین	-11.7987
▁یتیم	-11.7987
▁ژان	-11.799
.000	-11.7991
100	-11.7992
▁توانستید	-11.7992
▁پاول	-11.7995
OR	-11.7995
LE	-11.8
▁دربار	-11.8003
▁باخبر	-11.8005
اع	-11.8009
▁۲۰۰۲	-11.801
▁حقیقتاً	-11.8011
▁گفتمان	-11.8011
▁دنبالش	-11.8012
▁خشنود	-11.8012
آی	-11.8019
▁ماهگی	-11.8026
▁۳۷	-11.8027
ost	-11.8028
▁میلر	-11.8028
▁گمرکی	-11.803
ong	-11.803
▁نوروز	-11.8031
▁Am	-11.8032
▁کلر	-11.8034
▁آغازین	-11.8035
▁نهادی	-11.8035
▁باج	-11.8038
▁نیا	-11.8039
▁(1	-11.8039
چند	-11.8045
▁عامه	-11.8045
▁me	-11.8052
▁سومی	-11.8057
زایی	-11.8061
▁On	-11.8062
▁نمادی	-11.8064
▁Su	-11.807
▁لاستیک	-11.8072
▁خوابند	-11.8076
▁۳۸	-11.808
▁Ba	-11.8082
ئل	-11.8084
▁بلک	-11.8085
▁کیهانی	-11.8089
way	-11.8093
▁جانی	-11.8094
▁مستر	-11.8096
نگاه	-11.8098
▁شین	-11.8098
▁۳٫	-11.8104
▁is	-11.8106
▁توکل	-11.8109
▁Ad	-11.8109
▁مشارکتی	-11.8114
کنندگان	-11.8119
انس	-11.8122
یافته	-11.8123
▁احترامی	-11.8125
سرمایه	-11.8127
شامل	-11.8132
▁کما	-11.8133
▁خریده	-11.8141
▁اساتید	-11.8141
▁خندد	-11.8141
▁ناعادلانه	-11.8141
▁اغراق	-11.8141
▁میخوام	-11.8141
▁فرمایید	-11.8141
▁توانبخشی	-11.8141
▁معبود	-11.8141
▁پوشاک	-11.8142
▁صمیمانه	-11.8142
▁شرمنده	-11.8142
▁بولتون	-11.8142
▁شایان	-11.8142
▁پویایی	-11.8143
▁خردسال	-11.8143
▁ذرت	-11.8143
▁بازگشایی	-11.8143
▁مملو	-11.8143
▁مقیم	-11.8143
▁نیرویی	-11.8144
▁مضطرب	-11.8144
پایه	-11.8146
اینکه	-11.8146
▁دوستیابی	-11.8146
▁سپاسگزار	-11.8147
لیل	-11.8148
▁کافران	-11.8149
▁پوشانده	-11.8149
▁رواج	-11.815
▁نمایشنامه	-11.815
▁آلرژیک	-11.815
▁چرخد	-11.815
▁چانه	-11.8151
▁موز	-11.8152
▁فرستنده	-11.8153
▁حفاظتی	-11.8161
▁عقد	-11.8162
▁صبحگاهی	-11.8163
▁همدلی	-11.8164
nt	-11.8167
▁۴۸	-11.817
▁ممنونم	-11.817
▁بروس	-11.8171
▁پیاز	-11.8173
▁نمایه	-11.8176
▁فداکاری	-11.8178
▁هول	-11.8179
▁استثنای	-11.8179
▁!!	-11.818
ide	-11.818
شر	-11.8183
▁آه	-11.8183
▁کسان	-11.8186
▁بوم	-11.8197
ps	-11.8198
▁j	-11.82
▁استعفای	-11.8206
▁(3)	-11.8213
▁خواهرش	-11.8213
▁مارکت	-11.8215
راست	-11.8217
▁Ne	-11.8218
▁نشدنی	-11.822
▁داروین	-11.8226
▁آهنی	-11.8226
▁له	-11.8238
ناک	-11.8247
RI	-11.8249
ستی	-11.8254
▁تعجبی	-11.8261
۲۵	-11.8266
▁رول	-11.8266
▁ترمز	-11.8266
▁54	-11.827
دۀ	-11.8273
▁دیابتی	-11.8273
▁MP	-11.8277
▁٢	-11.8286
حه	-11.829
▁کج	-11.8297
زنان	-11.8299
▁آک	-11.8302
عشق	-11.8303
تاریخ	-11.8303
▁لابی	-11.8306
▁ایمیلی	-11.8309
▁سین	-11.8309
▁عقلانی	-11.8314
▁مزاحم	-11.8314
ً	-11.8316
▁اراضی	-11.8317
▁طناب	-11.8317
▁مقبره	-11.8317
▁گیگابایت	-11.8317
▁اصالت	-11.8317
▁ضریب	-11.8317
▁ورژن	-11.8317
▁اتریوم	-11.8317
▁مادورو	-11.8317
▁ملاحظات	-11.8317
▁تذکر	-11.8317
▁آرتروز	-11.8317
▁نامطلوب	-11.8317
▁1986	-11.8317
▁بشویید	-11.8317
▁علف	-11.8317
▁رسوم	-11.8317
▁فیفا	-11.8318
▁غیرمعمول	-11.8318
▁امپریالیسم	-11.8318
▁آوارگان	-11.8318
▁آشوب	-11.8318
▁Life	-11.832
▁سدیم	-11.832
▁عدل	-11.8321
▁800	-11.8321
▁پيش	-11.8322
▁اکتشافات	-11.8322
▁مخلوقات	-11.8323
▁دفترچه	-11.8323
▁5000	-11.8323
▁مایلی	-11.8324
▁57	-11.8325
ID	-11.8325
▁سوزش	-11.8325
▁عمران	-11.8325
▁کوچه	-11.8331
▁متا	-11.8332
▁همگام	-11.8332
قدر	-11.8334
▁زدیم	-11.8337
▁نفرین	-11.8342
بول	-11.8342
▁حسگر	-11.8343
▁برسم	-11.8343
▁کاشته	-11.835
▁هاوایی	-11.8357
اط	-11.836
▁دانا	-11.8362
01	-11.8362
▁نامیم	-11.8363
▁آوردیم	-11.837
▁هشتگ	-11.837
▁سیری	-11.8374
▁جف	-11.8374
یج	-11.8375
▁CS	-11.8376
▁برن	-11.8376
▁آمريکا	-11.8382
مردان	-11.8383
»؛	-11.8383
باد	-11.8383
▁جرمی	-11.8384
▁دیو	-11.8385
▁قوای	-11.8388
▁Blue	-11.8391
44	-11.8394
▁میهن	-11.8394
▁اینچی	-11.8403
▁تشی	-11.8405
▁برهم	-11.8408
▁خوردم	-11.8412
▁مالکان	-11.8412
▁الکلی	-11.8413
▁جستجوگر	-11.8413
▁زیاده	-11.8415
▁رنگین	-11.8416
▁تزئین	-11.8418
▁خوانی	-11.842
▁پولس	-11.8423
▁160	-11.8425
▁نزول	-11.8425
▁سوسیالیست	-11.8427
▁پوستر	-11.8427
خوانی	-11.843
ير	-11.8431
▁UV	-11.8433
▁Ex	-11.8434
اسرع	-11.8444
▁غارت	-11.8445
36	-11.8454
86	-11.8455
▁تد	-11.8455
▁ث	-11.8459
▁3000	-11.846
33	-11.8462
▁عشقی	-11.8464
دگی	-11.8468
ON	-11.8471
کنید	-11.8473
تغییر	-11.8477
آمریکایی	-11.8482
هدف	-11.8482
▁آلود	-11.8487
مثلا	-11.8489
▁مخلوق	-11.849
دیگر	-11.849
▁ریو	-11.849
26	-11.8493
▁سای	-11.8493
▁توفیق	-11.8495
▁لیورپول	-11.8495
▁مدفوع	-11.8495
▁وانمود	-11.8495
▁هولناک	-11.8495
▁€	-11.8495
▁ترمینال	-11.8495
▁۱۹۹۸	-11.8495
▁منزوی	-11.8496
▁شکوفایی	-11.8496
▁تمسخر	-11.8496
▁کربلا	-11.8496
▁مجید	-11.8496
▁International	-11.8496
▁بپذیرند	-11.8496
▁خویشتن	-11.8497
▁مدیون	-11.8497
▁موافقتنامه	-11.8497
▁نیاید	-11.8498
▁بهائی	-11.8498
▁Cloud	-11.8499
▁2030	-11.8499
▁دستشویی	-11.8499
▁جانوران	-11.85
▁اسکیزوفرنی	-11.8503
▁عادل	-11.8504
▁دوردست	-11.8505
▁لوک	-11.8508
کلی	-11.8513
▁کوله	-11.8515
▁حامله	-11.8516
▁اقامتگاه	-11.8516
▁by	-11.8516
▁آدام	-11.8518
▁حرمت	-11.852
▁اختراعات	-11.8521
▁زندگیتان	-11.8522
▁بومیان	-11.8522
▁Ra	-11.8525
▁شکرگزاری	-11.8529
68	-11.853
خرید	-11.8533
▁اریک	-11.8535
▁پنهانی	-11.8536
▁مهاجمان	-11.8537
▁اد	-11.8543
لینگ	-11.8543
رات	-11.855
▁برنمی	-11.8552
▁کلم	-11.8554
br	-11.8554
▁کتبی	-11.8557
امین	-11.8569
......	-11.8572
▁جوک	-11.8573
پذیر	-11.8574
▁میشل	-11.8576
▁نوازی	-11.8579
▁تجرب	-11.8581
▁ID	-11.8582
▁وگاس	-11.8583
جایی	-11.8589
▁ژنراتور	-11.8591
▁اکثرا	-11.86
▁خاکی	-11.8603
یع	-11.8604
▁1.2	-11.8604
▁مهد	-11.8606
ئه	-11.8606
▁مارکسیست	-11.8607
يا	-11.8609
یپ	-11.8618
▁ایر	-11.8626
▁تایلندی	-11.8628
یچ	-11.8629
▁خد	-11.8635
▁نشدن	-11.864
▁درنگ	-11.8642
▁So	-11.8643
▁مکه	-11.8648
▁ماسه	-11.8648
▁ندا	-11.8648
▁میلیونها	-11.8655
مار	-11.866
▁بسا	-11.8663
▁تاکتیکی	-11.8663
هرگز	-11.8664
▁کران	-11.8665
▁SD	-11.8668
▁شاهدان	-11.8669
▁you	-11.8673
▁توضیحی	-11.8674
▁اعراب	-11.8677
▁مصداق	-11.8677
▁منسجم	-11.8677
▁نارگیل	-11.8677
▁هلیکوپتر	-11.8677
▁چهارچوب	-11.8677
▁کاذب	-11.8677
▁محتاج	-11.8677
▁ونکوور	-11.8677
▁آریزونا	-11.8677
▁استعمال	-11.8677
▁احضار	-11.8677
▁جرأت	-11.8677
▁مرسوم	-11.8677
▁ناپایدار	-11.8677
▁تصاحب	-11.8677
▁1979	-11.8677
▁بگردید	-11.8677
▁گورستان	-11.8677
▁طرق	-11.8678
▁۱۹۵۰	-11.8678
▁استثمار	-11.8678
▁اهرم	-11.8678
▁School	-11.8678
▁سیدنی	-11.8679
▁لغات	-11.8679
▁صدمات	-11.8679
▁Back	-11.8679
▁PDF	-11.8679
▁برانگیخته	-11.8682
▁فولیکول	-11.8683
▁توالی	-11.8683
▁مرسی	-11.8684
▁بخورم	-11.8685
▁۸۰۰	-11.8687
▁تأسیسات	-11.8688
▁تیتر	-11.869
▁!!!	-11.8692
گرفته	-11.8693
che	-11.8696
▁برزیلی	-11.8696
▁اطلاعی	-11.8699
▁دلپذیر	-11.8699
5)	-11.87
▁تفکرات	-11.8708
▁تقریبی	-11.8711
الی	-11.8715
▁مولف	-11.8715
ونا	-11.8718
يک	-11.8718
▁خردمند	-11.872
۲۳	-11.8721
▁فرزندانتان	-11.8723
لیس	-11.8729
خو	-11.8729
0000	-11.8732
▁فکرش	-11.8733
▁عنکبوت	-11.8733
▁کوش	-11.8734
▁ورزید	-11.8736
ub	-11.874
▁سنج	-11.8741
▁قومیت	-11.8742
iv	-11.8743
▁تابلو	-11.8743
▁2014،	-11.8746
نان	-11.8747
▁بسط	-11.8749
رام	-11.875
que	-11.8755
توان	-11.8765
our	-11.8767
Re	-11.8779
ling	-11.8779
▁اتو	-11.8785
▁اندرویدی	-11.8785
شته	-11.8787
0،000	-11.8793
▁شم	-11.8801
▁OS	-11.8804
اصل	-11.8809
▁امامت	-11.8812
▁لم	-11.8821
كن	-11.8823
▁چشمانش	-11.8823
▁مدتها	-11.8825
▁مکس	-11.8826
port	-11.8829
▁بتن	-11.8829
▁خندید	-11.883
▁آدمها	-11.8831
59	-11.8832
وط	-11.8833
air	-11.8835
▁92	-11.8836
▁جغرافیا	-11.8845
جل	-11.8845
▁آسا	-11.8846
$	-11.8848
میلیون	-11.8851
▁تدارک	-11.8855
▁تهی	-11.8856
وند	-11.886
▁جواهر	-11.8861
▁شاهکار	-11.8862
▁Chrome	-11.8862
▁تدبیر	-11.8862
▁ضمیمه	-11.8862
▁هیپنوتیزم	-11.8862
▁کامبوج	-11.8862
▁تلفیق	-11.8862
▁چلسی	-11.8862
▁سفینه	-11.8862
▁هیأت	-11.8862
▁خفه	-11.8862
▁ناسالم	-11.8863
▁بفروشید	-11.8863
▁بشنود	-11.8863
▁بفرستد	-11.8863
▁بشناسند	-11.8864
▁چکیده	-11.8864
▁اسکان	-11.8864
▁پردیس	-11.8864
▁ماریا	-11.8865
اوی	-11.8865
▁ویلسون	-11.8865
اض	-11.8866
▁معالجه	-11.8866
▁لن	-11.8866
▁منچستر	-11.8867
▁دزدیده	-11.8867
زنویسی	-11.8868
▁140	-11.8868
▁خبرنامه	-11.8869
▁همتایان	-11.887
▁مریدان	-11.8871
SS	-11.8871
▁انباشته	-11.8872
▁ناآرامی	-11.8872
▁دالر	-11.8873
37	-11.8876
▁بامزه	-11.8881
▁کارتر	-11.8883
▁بدنش	-11.8885
▁کشتند	-11.8886
٫۵	-11.8893
▁تظاهر	-11.8897
▁98	-11.8899
▁بخرد	-11.8901
out	-11.8902
اگ	-11.8903
▁نهنگ	-11.8905
ier	-11.8906
▁خونین	-11.8909
▁رسانید	-11.8911
▁نظار	-11.8912
ریا	-11.8915
▁بي	-11.8916
▁تنگه	-11.8916
▁مانعی	-11.8918
▁دیرین	-11.8919
▁پرستی	-11.8921
▁اونس	-11.8923
BA	-11.8927
ولوژی	-11.8928
▁بازگشتند	-11.8928
▁باارزش	-11.8931
▁مزد	-11.8937
زنی	-11.894
▁59	-11.8941
▁اِ	-11.8941
pa	-11.8943
دهی	-11.8944
ترين	-11.8946
گار	-11.8948
▁۶۴	-11.895
ایم	-11.895
▁اونجا	-11.8954
▁ویدیوهای	-11.8955
▁پرینتر	-11.8959
▁1.1	-11.896
الت	-11.896
▁میده	-11.8962
ber	-11.8962
PC	-11.8965
▁رویاها	-11.8966
بیت	-11.8968
▁هندو	-11.8975
ائ	-11.8983
▁کنیا	-11.8984
▁ترقی	-11.8984
▁رب	-11.8984
آوری	-11.8996
▁هائی	-11.8997
-12	-11.8998
▁دندانهای	-11.9009
▁مادام	-11.9009
▁تردیدی	-11.9013
▁اعتمادی	-11.9016
▁معصوم	-11.9024
انۀ	-11.9029
▁ارمنی	-11.904
▁تجلی	-11.9045
▁ترشح	-11.9048
▁خریدن	-11.9049
▁فراخواند	-11.9049
▁سرشان	-11.9049
▁۱۲۰	-11.905
▁خراسان	-11.9051
▁بپوشید	-11.9051
▁عایق	-11.9051
▁عواطف	-11.9051
▁مجذوب	-11.9051
▁سالخورده	-11.9051
▁اجسام	-11.9051
▁دریابید	-11.9051
▁فواصل	-11.9051
▁منیزیم	-11.9051
▁خلاء	-11.9051
▁تجدیدپذیر	-11.9051
▁موعد	-11.9052
▁1930	-11.9052
▁SSL	-11.9052
▁سروکار	-11.9052
▁فاکس	-11.9052
▁وصیت	-11.9054
ایر	-11.9054
▁دادرسی	-11.9057
▁AR	-11.9058
▁الکسا	-11.9062
▁تصادفات	-11.9062
▁همجنس	-11.9063
▁بیایم	-11.9063
▁ناهنجاری	-11.9066
▁دیدگی	-11.9067
کشور	-11.9068
نج	-11.9068
▁گردیم	-11.907
▁مستندات	-11.9072
کد	-11.9078
CO	-11.9079
▁پرسی	-11.9082
▁لازمه	-11.9084
زند	-11.9084
ob	-11.9085
افت	-11.9086
▁شخصاً	-11.9087
▁تبر	-11.9088
▁2.5	-11.909
▁گوی	-11.9091
▁SM	-11.9093
▁الن	-11.9093
▁؟!	-11.9107
▁استانداردها	-11.9107
hen	-11.9108
▁خودروسازی	-11.9108
▁جغرافیای	-11.9109
ence	-11.9112
▁میدهیم	-11.9113
ick	-11.9118
▁فرزندشان	-11.9121
▁هیولا	-11.9121
▁کازینو	-11.9123
عمل	-11.9127
▁Bo	-11.9133
▁(4	-11.9134
▁77	-11.9138
▁وجو	-11.9141
طور	-11.9142
▁نوشتاری	-11.9147
▁ریاض	-11.9148
▁DC	-11.9149
▁CV	-11.9151
وَ	-11.9153
▁پلاس	-11.9154
▁شویی	-11.9158
▁دوازدهم	-11.916
BS	-11.9161
▁جاسوس	-11.9168
آمد	-11.9172
▁اسکلت	-11.9172
▁انحصار	-11.9173
ance	-11.9176
low	-11.9177
▁حسابدار	-11.9179
▁میگیرند	-11.9185
TA	-11.9186
▁مونت	-11.9189
▁سفره	-11.9191
٣	-11.9193
RA	-11.9196
▁وانگ	-11.9198
▁1920	-11.92
6)	-11.9203
بور	-11.9204
کور	-11.9206
مس	-11.9207
▁مندان	-11.9208
▁وارن	-11.9211
▁بذر	-11.9214
57	-11.9216
▁Hua	-11.9216
جور	-11.9216
▁ملتی	-11.922
▁پایش	-11.9224
▁سالمند	-11.9227
داستان	-11.9231
▁اماکن	-11.9231
اران	-11.9234
▁هدفش	-11.9234
▁آشام	-11.9234
ارا	-11.9235
▁هش	-11.924
▁بیگانگان	-11.9243
▁حیطه	-11.9243
▁خلیفه	-11.9243
▁دوپامین	-11.9243
▁فرآورده	-11.9243
▁هولوکاست	-11.9243
▁مفاد	-11.9243
▁اسهال	-11.9243
▁واکسیناسیون	-11.9243
▁فامیل	-11.9244
▁نشریات	-11.9244
▁قلمداد	-11.9244
▁بلاکچین	-11.9244
▁بغل	-11.9244
▁بنشیند	-11.9244
▁مگاوات	-11.9244
▁شامپو	-11.9244
▁فینال	-11.9244
TC	-11.9244
▁اعضاء	-11.9244
▁کامنت	-11.9244
▁مطب	-11.9244
▁مسعود	-11.9244
▁گلبول	-11.9244
▁اظهارنظر	-11.9245
▁مشروعیت	-11.9245
▁گلکسی	-11.9245
▁المثل	-11.9246
▁لگن	-11.9246
نیک	-11.9246
34	-11.9246
▁صورتحساب	-11.9248
▁Is	-11.9249
▁بازداشتگاه	-11.925
▁دوستت	-11.9251
▁بازرسان	-11.9252
▁خارش	-11.9252
▁پلک	-11.9256
▁الدین	-11.9256
43	-11.9257
»[	-11.9258
▁لحظاتی	-11.9259
▁میکردم	-11.9259
▁شكل	-11.9259
▁تباه	-11.926
▁راک	-11.926
▁بنز	-11.9264
▁عزاداری	-11.9266
▁10-	-11.9268
▁خرابی	-11.9269
زل	-11.9273
▁ایدئولوژیک	-11.9277
▁گرانش	-11.9278
00	-11.9279
▁احتمالات	-11.9281
٩	-11.9283
▁شرکتها	-11.9285
TS	-11.9293
بت	-11.9301
تال	-11.9304
▁آلیس	-11.9306
▁شناسه	-11.9307
▁متناقض	-11.9308
ue	-11.9309
۲۱	-11.9311
▁فردای	-11.9311
فه	-11.9317
min	-11.9321
▁وقتش	-11.9327
▁کاندیدای	-11.9327
سور	-11.9328
ایش	-11.933
▁سخنی	-11.933
برت	-11.9331
tor	-11.9332
▁Di	-11.9333
▁2015،	-11.9341
▁Pa	-11.9341
گیرد	-11.9348
▁تلاشهای	-11.9348
شناس	-11.935
▁عبدال	-11.935
کول	-11.935
▁97	-11.9352
▁EB	-11.9355
▁فعالی	-11.9361
▁میله	-11.9362
-4	-11.9363
▁لوگوی	-11.9365
▁سلم	-11.9366
LA	-11.9366
▁شریعت	-11.9368
▁گمرک	-11.937
اکو	-11.9371
▁منتقد	-11.9371
▁لیاقت	-11.9373
۲۲	-11.9379
▁دوتا	-11.9386
▁فرزندم	-11.9387
lin	-11.9387
▁رقمی	-11.9388
wei	-11.939
q	-11.939
▁بیس	-11.9394
حال	-11.9398
▁بچ	-11.9399
▁۹۵	-11.94
▁گریز	-11.9405
▁کوچ	-11.9414
▁حک	-11.9418
▁بگیری	-11.9419
▁Light	-11.9422
مثلاً	-11.9429
یگ	-11.9434
▁لشکر	-11.9435
▁Mar	-11.9435
▁Network	-11.9436
▁بگویی	-11.9437
▁جیمی	-11.9437
▁Ga	-11.9438
▁مشتق	-11.9438
▁Project	-11.9439
▁انحلال	-11.9439
▁دخانیات	-11.9439
▁رنگارنگ	-11.9439
▁متراکم	-11.9439
▁پروتستان	-11.9439
▁YouTube	-11.9439
▁تاجیکستان	-11.9439
▁دلقک	-11.9439
▁آپدیت	-11.9439
▁باورم	-11.944
▁دیپلماسی	-11.944
▁تشنه	-11.944
▁فاشیسم	-11.944
▁کشمکش	-11.944
▁گوجه	-11.944
▁سموم	-11.9441
▁چارلی	-11.9441
▁اسکناس	-11.9441
پدر	-11.9441
▁اتاقی	-11.9442
▁پاسداران	-11.9442
▁Out	-11.9443
▁View	-11.9444
▁پرشور	-11.9444
▁دوبرابر	-11.9445
▁آرتور	-11.9445
▁پشه	-11.9445
▁اشاع	-11.9445
▁بپرسم	-11.9446
▁بکشم	-11.9451
▁گلدان	-11.9452
▁نکردید	-11.9452
▁نامیدند	-11.9452
▁کارآمدتر	-11.9454
▁خوابیده	-11.9457
▁فروشند	-11.9458
▁مثلث	-11.9458
▁كامل	-11.946
▁بینندگان	-11.9465
US	-11.9468
▁روشنگری	-11.9471
جرقه	-11.9475
▁ترجیحات	-11.9479
▁عجب	-11.948
▁زی	-11.948
▁پولیس	-11.9484
مپ	-11.9485
▁Can	-11.9485
31	-11.9493
ek	-11.9493
▁دایر	-11.9495
▁تمامیت	-11.9498
▁اعتراضی	-11.9501
▁خواهرم	-11.9501
ome	-11.9502
▁دهلی	-11.9504
▁مُ	-11.9505
▁سنسورهای	-11.9513
پور	-11.9516
TH	-11.9516
▁وخیم	-11.9516
▁پدری	-11.9517
▁افتخاری	-11.9518
▁فراخوانی	-11.9522
▁رویت	-11.9524
94	-11.9524
▁بلای	-11.9528
ژی	-11.9528
▁ببینی	-11.9531
يده	-11.9531
همین	-11.9532
▁مول	-11.9536
▁نشدم	-11.9537
▁4:	-11.9537
▁بیاد	-11.9537
▁جعفر	-11.9541
▁ادا	-11.9544
▁چن	-11.9545
47	-11.9553
nc	-11.9554
▁ویرایشگر	-11.9555
▁پانزدهم	-11.956
▁اختصار	-11.9568
▁عمرش	-11.9569
DA	-11.9571
▁تنبل	-11.9574
برا	-11.9575
CI	-11.9577
وتو	-11.9579
▁میدانی	-11.9583
▁ترند	-11.9586
▁سوئیسی	-11.9587
٢	-11.9596
نوع	-11.9599
▁انگل	-11.9605
▁تف	-11.9617
ew	-11.9618
▁Na	-11.9621
فون	-11.9621
▁کاترین	-11.9625
‍	-11.9625
چنين	-11.9625
▁بیماریهای	-11.9627
ina	-11.9628
▁هد	-11.963
▁شونده	-11.963
ندی	-11.9631
▁تخلف	-11.9635
▁System	-11.9636
▁کاپ	-11.9636
سیستم	-11.9639
▁اجساد	-11.9639
▁استغفار	-11.9639
▁بپیوندد	-11.9639
▁توليد	-11.9639
▁تکالیف	-11.9639
▁فضیلت	-11.9639
▁ماساچوست	-11.9639
▁پنسیلوانیا	-11.9639
▁خسارات	-11.9639
▁معتدل	-11.9639
▁بازمانده	-11.9639
▁نمائید	-11.9639
▁آرتریت	-11.9639
▁اجماع	-11.9639
▁همکلاسی	-11.964
▁اجابت	-11.964
▁طفل	-11.964
▁کلاژن	-11.964
▁تسنیم	-11.964
▁Master	-11.964
▁ویزیت	-11.964
▁بیابند	-11.964
▁غذاخوری	-11.964
▁مرمر	-11.9641
وزرسانی	-11.9641
▁نامنظم	-11.9641
▁بول	-11.9642
▁شنویم	-11.9643
▁جوزف	-11.9643
▁نوسازی	-11.9643
▁نوسانات	-11.9643
▁متشکرم	-11.9643
▁یکپارچگی	-11.9644
▁بازدیدکننده	-11.9644
▁گرامر	-11.9647
▁سیارک	-11.9649
عا	-11.9653
▁شاعران	-11.9655
▁روکش	-11.966
▁فروند	-11.9664
▁شیردهی	-11.9665
▁نویسید	-11.9669
▁روزهایی	-11.9669
▁خواستید	-11.967
▁نمایم	-11.967
▁فوران	-11.9671
مرگ	-11.9676
▁موردنظر	-11.9676
ous	-11.9681
▁یاهو	-11.9681
▁اسمی	-11.9682
▁مانور	-11.9682
ham	-11.9684
لاک	-11.9686
▁هال	-11.9686
کات	-11.9688
حی	-11.9693
▁تمرینی	-11.9697
ولین	-11.9697
▁دایی	-11.9698
▁والا	-11.9699
▁موفقی	-11.9701
PD	-11.9701
ُر	-11.9703
▁فین	-11.9708
ائو	-11.971
▁انفجاری	-11.971
▁بِ	-11.9713
ریس	-11.9722
لن	-11.9734
▁بیلی	-11.9736
پان	-11.975
▁ممنوعه	-11.9752
▁چتر	-11.9754
▁یادت	-11.9754
▁مرید	-11.9755
▁متفکران	-11.9757
▁اسکنر	-11.9759
▁:)	-11.9759
▁سناریوی	-11.9759
▁سازان	-11.9759
▁خانمی	-11.9762
دارد	-11.9764
▁چندی	-11.9764
▁93	-11.9765
▁سده	-11.9765
▁برایت	-11.9766
▁دانیل	-11.977
▁گردشگر	-11.977
هائی	-11.9771
ki	-11.9771
▁صهیونیست	-11.9774
▁سرکه	-11.9774
mer	-11.9778
ns	-11.978
▁سنگر	-11.9783
▁ویرانی	-11.9784
▁w	-11.9787
▁کتابش	-11.9787
ern	-11.9787
▁ملیتی	-11.9788
7)	-11.979
روح	-11.9792
ara	-11.9792
▁بدید	-11.9793
▁سرپرستی	-11.9803
▁کمیت	-11.9818
ium	-11.9821
وین	-11.9823
▁قدرتمندتر	-11.9823
▁فل	-11.9825
▁آتن	-11.9828
احساس	-11.9829
منظور	-11.9829
▁آنتونی	-11.983
▁روایتی	-11.9831
فیلد	-11.9834
▁نواختن	-11.9835
▁Sp	-11.9837
انگلیسی	-11.9837
▁خواری	-11.9839
▁مرکب	-11.9843
ual	-11.9843
▁تشعشع	-11.9843
▁تعمیم	-11.9843
▁درخشش	-11.9843
▁دسکتاپ	-11.9843
▁سریلانکا	-11.9843
▁شراکت	-11.9843
▁فتوشاپ	-11.9843
▁مملکت	-11.9843
▁نشیمن	-11.9843
▁تفرقه	-11.9844
▁ضمیر	-11.9844
▁عنایت	-11.9844
▁فاضلاب	-11.9844
▁تساوی	-11.9844
دایرکتوری	-11.9844
▁ایجاب	-11.9844
▁یونسکو	-11.9844
▁1949	-11.9844
▁چرت	-11.9844
▁پافشار	-11.9844
▁محسن	-11.9844
▁بفروشند	-11.9845
▁سندرز	-11.9845
▁گنجینه	-11.9845
▁تموم	-11.9845
▁جوراب	-11.9846
▁High	-11.9846
▁اکران	-11.9846
▁Mobile	-11.9846
▁لوط	-11.9847
▁ریگان	-11.9847
▁City	-11.9847
▁پنبه	-11.9848
▁منفعل	-11.9849
▁تیک	-11.985
▁چمن	-11.9851
▁خوردگی	-11.9851
▁پسورد	-11.9852
اه	-11.9852
▁طاقت	-11.9852
▁شتر	-11.9853
نیا	-11.9853
▁کابینت	-11.9854
▁Po	-11.9855
▁1988	-11.9857
▁زیستگاه	-11.9857
▁زایی	-11.9857
▁پذیرفتند	-11.9859
▁سالیان	-11.986
▁داروسازی	-11.9862
▁کارگزاران	-11.9863
▁گن	-11.9864
▁79	-11.9866
SC	-11.9869
▁پذیرای	-11.9871
▁لوح	-11.9879
▁Up	-11.9886
▁Media	-11.9888
▁پشیمانی	-11.9888
DC	-11.9888
خون	-11.9889
مادر	-11.989
▁خز	-11.9891
کشی	-11.9892
ترس	-11.9893
ness	-11.9897
▁درآوردن	-11.9902
دهند	-11.9905
▁بخشهای	-11.9913
آزادی	-11.9913
▁بازو	-11.9915
▁HP	-11.9916
▁وکارهای	-11.9922
▁متوسطه	-11.9925
▁(20	-11.9928
پن	-11.9933
▁دزدان	-11.9937
▁یکصد	-11.9937
▁استیون	-11.9939
▁نمیشود	-11.9941
▁سیزده	-11.9941
▁گود	-11.9944
▁جستجوهای	-11.9947
ED	-11.9951
▁آیم	-11.9952
▁سرا	-11.9952
غده	-11.9957
▁عمدی	-11.9959
ung	-11.9962
▁اسپا	-11.997
خط	-11.9976
خیر	-11.9978
▁وسواس	-11.998
یات	-11.9982
▁پلاسما	-11.9982
حقیقت	-11.9984
▁کتب	-11.9985
▁روستاهای	-11.9994
▁گواه	-11.9995
▁دیرتر	-11.9996
▁تقلبی	-11.9996
▁برام	-11.9999
▁اشیای	-12.0001
▁قوا	-12.0003
آموز	-12.0005
▁هرروز	-12.0005
▁69	-12.0007
97	-12.001
▁لاین	-12.0014
all	-12.0014
▁انتظاری	-12.0014
شاه	-12.0016
▁حوا	-12.0017
vo	-12.002
▁الکترود	-12.0028
▁نخورد	-12.0032
▁76	-12.0035
▁سیاستی	-12.0035
▁نیازمندی	-12.0036
قرض	-12.0038
▁فرستند	-12.0038
▁تضمینی	-12.0043
▁دریاها	-12.0043
▁پارا	-12.0044
▁مطبوع	-12.0049
gen	-12.005
بوس	-12.0052
▁White	-12.0052
▁بیچاره	-12.0052
▁تروتسکی	-12.0052
▁مضاعف	-12.0052
▁بشقاب	-12.0052
▁دلسرد	-12.0052
▁خشکسالی	-12.0052
▁سرازیر	-12.0052
▁بوتاکس	-12.0052
▁اسرارآمیز	-12.0052
▁آیپد	-12.0052
▁1984	-12.0052
▁پیشتاز	-12.0052
▁1975	-12.0052
▁اقرار	-12.0052
▁۱۹۲۰	-12.0053
▁لینکدین	-12.0053
▁Street	-12.0053
▁HTTPS	-12.0053
▁یعقوب	-12.0053
▁سانتیمتر	-12.0053
▁پرهزینه	-12.0053
شدت	-12.0054
▁XML	-12.0054
▁ارزشش	-12.0054
▁هواشناسی	-12.0054
▁قاطعانه	-12.0054
▁Pre	-12.0055
▁بخریم	-12.0055
▁بنفش	-12.0056
▁بوسنی	-12.0057
▁قبرستان	-12.0058
▁پاشن	-12.0058
▁نیفتاده	-12.0058
▁تماشاگران	-12.0059
▁آموزگاران	-12.0059
▁ریال	-12.006
▁بازرگانان	-12.0061
▁دونم	-12.0062
▁هجدهم	-12.0062
▁هواوی	-12.0064
نشین	-12.0065
▁دکترای	-12.0065
▁ارتجاعی	-12.0066
؟؟	-12.0068
▁مغل	-12.0069
▁صمیمیت	-12.007
▁گناهکار	-12.0071
▁روانه	-12.0072
▁پررنگ	-12.0072
ja	-12.0073
▁American	-12.0074
▁جراحت	-12.0075
▁شاتر	-12.0075
▁صدد	-12.0079
▁آبهای	-12.0081
خا	-12.0083
اح	-12.0085
یاد	-12.0085
▁پسوند	-12.0087
▁القا	-12.0087
▁شناختند	-12.009
DI	-12.0092
▁تبع	-12.0095
▁گرده	-12.0097
نک	-12.0097
▁مداد	-12.0101
OL	-12.0102
▁سانتا	-12.0106
▁پند	-12.0107
▁محول	-12.0107
▁پرست	-12.0109
بلاغ	-12.0112
63	-12.0116
▁62	-12.0117
▁نکشید	-12.0118
▁افزارها	-12.0121
حالا	-12.0123
▁یکباره	-12.0125
۶۰	-12.0127
41	-12.0127
▁باوجود	-12.0128
▁پیامد	-12.013
▁1500	-12.0132
bit	-12.0133
ایز	-12.0141
▁خودتون	-12.0148
▁خور	-12.015
HD	-12.0153
وای	-12.0154
▁اشتها	-12.0155
▁Ph	-12.016
یابی	-12.0161
▁فعالیتی	-12.0163
ical	-12.0165
ثر	-12.0167
▁کردار	-12.0172
توانند	-12.0174
▁مغزتان	-12.0175
ene	-12.0183
▁چالشی	-12.0184
▁هلی	-12.0185
▁Ta	-12.0189
▁استبداد	-12.0194
▁انضباط	-12.0194
▁لیو	-12.0195
▁سلیمانی	-12.0197
▁گزینش	-12.0198
▁be	-12.02
▁وفق	-12.0207
▁گار	-12.0209
▁کسر	-12.0211
▁ناکامی	-12.0211
▁جدال	-12.0212
گرفت	-12.0213
▁وزیران	-12.0215
هفته	-12.0216
▁آذر	-12.0224
▁افزودنی	-12.0227
▁جذابی	-12.0228
▁(10	-12.023
گز	-12.0234
▁Inc	-12.0239
▁۳۰۰۰	-12.0239
جن	-12.0239
▁پارس	-12.0242
gi	-12.0244
▁كودك	-12.0248
▁خرم	-12.0248
▁آمارهای	-12.025
دانشگاه	-12.0251
▁انتقالی	-12.0253
▁زشتی	-12.0253
▁Studio	-12.0259
▁دوقلو	-12.026
▁مورخ	-12.0261
▁قهر	-12.0264
▁آجیل	-12.0265
▁ارسطو	-12.0265
▁زاکربرگ	-12.0265
▁سورپرایز	-12.0265
▁مستعمره	-12.0265
▁مارشال	-12.0265
▁کوکائین	-12.0265
▁آمرزش	-12.0265
▁بیروت	-12.0265
▁ارضی	-12.0265
▁کلیدواژه	-12.0265
▁لهجه	-12.0265
▁منعقد	-12.0265
▁تهمت	-12.0265
اکس	-12.0265
▁منشاء	-12.0265
▁حوالی	-12.0265
▁برسانیم	-12.0265
▁منشور	-12.0265
▁گلوتن	-12.0265
▁Edition	-12.0265
▁نخورید	-12.0265
▁بیندازد	-12.0265
▁اسارت	-12.0266
▁منجمد	-12.0266
▁Security	-12.0266
▁سوز	-12.0266
▁استریت	-12.0266
▁Smart	-12.0267
▁بازتولید	-12.0267
▁قضات	-12.027
▁David	-12.027
رال	-12.0271
هنگامی	-12.0272
▁شرور	-12.0273
▁دسر	-12.0277
درست	-12.0278
▁زدگی	-12.0279
▁مفصلی	-12.0279
صورت	-12.028
▁سازمانها	-12.028
▁کلیوی	-12.0282
▁انداختند	-12.0284
"(	-12.0284
▁Don	-12.029
▁ول	-12.0292
کام	-12.0295
▁AD	-12.0298
وتی	-12.0299
▁۳۳	-12.03
▁لوتر	-12.0302
▁Park	-12.0305
▁82	-12.0306
MP	-12.0307
▁شادمانی	-12.0308
▁مشکی	-12.0308
ari	-12.0308
▁رساندند	-12.031
دام	-12.0314
▁سنتز	-12.0316
▁نبودیم	-12.0318
▁ژنوم	-12.032
▁جنگند	-12.0323
▁فیزیوتراپی	-12.0323
ven	-12.0326
▁ترساند	-12.0329
▁کاندیدا	-12.033
▁خودآگاهی	-12.0331
َّ	-12.0331
▁4)	-12.0333
if	-12.0339
رج	-12.0344
▁فرایندی	-12.0352
▁Br	-12.0352
▁پاسخگوی	-12.0353
رسد	-12.0354
بسیاری	-12.0355
▁منبعی	-12.0361
حکیم	-12.0362
▁مدلی	-12.0363
rs	-12.0364
▁آموزند	-12.0365
▁شناختم	-12.0365
▁استعماری	-12.0367
(1)	-12.0371
▁میخواهیم	-12.0373
▁سالهاست	-12.0374
▁ویلا	-12.0378
▁انتظارش	-12.0386
▁گلد	-12.0386
بالا	-12.039
▁۴۴	-12.0392
ko	-12.0395
▁منزله	-12.0396
81	-12.0398
▁آسانتر	-12.0399
▁استفان	-12.0404
▁پرسم	-12.0405
▁جواد	-12.0406
▁آف	-12.0407
▁پیداست	-12.041
▁گوارش	-12.0412
▁خاکستر	-12.0414
▁ژ	-12.0422
▁Ver	-12.0422
▁حرفهای	-12.0424
▁قبولی	-12.0425
اده	-12.0428
mg	-12.0431
طر	-12.0433
▁As	-12.0434
▁هراسی	-12.0436
▁کاسه	-12.044
75	-12.045
▁(6	-12.045
▁نتیج	-12.0452
وکس	-12.0455
▁روتین	-12.0455
وش	-12.0461
▁4000	-12.0462
الا	-12.0463
era	-12.0465
▁Fr	-12.0467
یستی	-12.0469
▁کردها	-12.0471
▁ونیز	-12.0473
▁بیمارستانی	-12.0474
▁برا	-12.0475
av	-12.0475
▁جیر	-12.0477
▁فیزیکدان	-12.0478
ایل	-12.0479
کرده	-12.0479
رق	-12.048
▁آتلانتیک	-12.0482
▁آمبولانس	-12.0482
▁اقتباس	-12.0482
▁بپیوندند	-12.0482
▁رقیق	-12.0482
▁ناکافی	-12.0482
▁اقبال	-12.0482
▁iPad	-12.0482
▁Image	-12.0482
▁اشعار	-12.0482
▁ابلیس	-12.0482
▁گنبد	-12.0482
▁ورشکستگی	-12.0482
سویه	-12.0482
▁وکالت	-12.0482
▁نورپردازی	-12.0483
▁Amazon	-12.0483
▁نياز	-12.0483
▁1945	-12.0483
▁Digital	-12.0483
▁نگیرد	-12.0483
▁بشوید	-12.0483
▁موسوی	-12.0483
▁آئین	-12.0484
▁اسحاق	-12.0484
▁بصیرت	-12.0485
▁سومالی	-12.0485
ینا	-12.0486
▁بشویم	-12.0486
▁Good	-12.0486
▁حسرت	-12.0486
▁سردار	-12.0487
▁نباشیم	-12.0487
▁پیمایش	-12.0487
▁بتمن	-12.0488
▁پلاک	-12.0488
▁Your	-12.0489
▁کنيد	-12.049
▁پسندیده	-12.0492
▁دیدی	-12.0492
▁پیشه	-12.0492
ise	-12.0493
▁ننگ	-12.0494
▁بوسه	-12.0494
▁فرستادند	-12.0495
▁کیش	-12.0496
▁چنين	-12.0498
▁صحرای	-12.0501
▁سرسخت	-12.0502
▁گویش	-12.0504
اوا	-12.0504
▁گیت	-12.0504
هام	-12.0505
▁Sha	-12.0507
ساخت	-12.0508
▁طلبانه	-12.0508
▁بنگ	-12.0513
red	-12.0515
▁حاکمان	-12.0516
▁Mc	-12.0516
▁۴۳	-12.052
▁ضمنی	-12.052
▁نامشخص	-12.0522
▁زبانه	-12.0523
ونه	-12.0526
▁IV	-12.0527
BC	-12.0528
▁اصولا	-12.0529
جهان	-12.0532
▁کتابها	-12.0532
پنج	-12.0534
▁نهار	-12.0536
les	-12.0537
▁گوینده	-12.0539
▁ورای	-12.0553
▁خلافت	-12.0555
▁محمود	-12.0556
61	-12.0558
EC	-12.0558
▁دویست	-12.0559
▁میگه	-12.0561
▁۴۲	-12.0561
▁مجبورند	-12.0565
▁Sun	-12.0567
cc	-12.0568
▁نقاش	-12.0569
رسان	-12.0569
▁جنگلی	-12.0571
▁گردو	-12.0576
▁فول	-12.0579
▁موبایلی	-12.0584
St	-12.0584
▁61	-12.0586
▁هور	-12.0588
▁68	-12.0591
tu	-12.0593
▁هرجا	-12.0595
gu	-12.0597
یزم	-12.0597
ore	-12.0598
▁استیشن	-12.0598
ورو	-12.0598
bu	-12.06
ST	-12.06
▁رویدادی	-12.0604
یتا	-12.0605
▁Design	-12.0612
٧	-12.0614
روش	-12.0622
0,000	-12.0625
▁هوادار	-12.0626
بیا	-12.0627
▁فسیل	-12.0635
▁اک	-12.0638
ory	-12.064
▁170	-12.0643
▁وارده	-12.0646
موس	-12.0648
ld	-12.0648
▁پذیرتر	-12.0649
▁اسلاید	-12.0655
گه	-12.0655
▁بيش	-12.0659
▁گرمایی	-12.066
▁پیت	-12.0661
▁نئو	-12.0662
فهم	-12.0662
كار	-12.0663
▁آلپ	-12.0664
wi	-12.0664
▁ترسی	-12.0672
▁راستین	-12.0672
▁LG	-12.0673
بک	-12.0676
انقلاب	-12.0689
▁سار	-12.069
ial	-12.0691
▁معترض	-12.0692
▁سردبیر	-12.0693
منطقه	-12.0694
ave	-12.0694
ect	-12.0697
▁انقباض	-12.0699
▁کریستین	-12.0699
▁Science	-12.0701
▁میکنن	-12.0702
▁محرم	-12.0703
▁خوای	-12.0704
▁معاف	-12.0704
▁Manager	-12.0704
▁آمستردام	-12.0704
▁ابوظبی	-12.0704
▁افسوس	-12.0704
▁اپیزود	-12.0704
▁بلوتوث	-12.0704
▁بولیوی	-12.0704
▁معجزات	-12.0704
▁مفقود	-12.0704
▁پنگوئن	-12.0704
▁انتصاب	-12.0704
▁متوسل	-12.0704
▁سونوگرافی	-12.0704
▁مفتخر	-12.0704
▁پروبیوتیک	-12.0704
▁مابقی	-12.0704
▁فلفل	-12.0704
▁متذکر	-12.0704
▁گاراژ	-12.0704
▁الوقوع	-12.0704
▁شرارت	-12.0705
▁CPU	-12.0705
▁پرجمعیت	-12.0705
▁بیندازیم	-12.0705
▁سندروم	-12.0705
▁مرکل	-12.0705
▁Dark	-12.0705
▁شتم	-12.0705
▁مارکسیسم	-12.0705
▁MRI	-12.0705
▁آکنه	-12.0705
▁بمیرد	-12.0705
▁خصومت	-12.0705
▁فرانسیس	-12.0706
▁ببخشند	-12.0706
▁پدیا	-12.0707
▁پستانداران	-12.0707
▁ذوق	-12.0707
▁غیرطبیعی	-12.0707
▁DVD	-12.0708
▁گراهام	-12.0708
▁پراگ	-12.0709
▁خرداد	-12.0709
▁باکتریایی	-12.0711
▁تجلیل	-12.0712
▁براتون	-12.0715
▁پیمانکاران	-12.0715
▁سپاسگزارم	-12.0717
▁جمال	-12.0721
▁[1]	-12.0723
▁مولد	-12.0723
▁مارول	-12.0727
حد	-12.0727
▁شسته	-12.0728
▁آموزنده	-12.0733
▁کینه	-12.0739
▁مخابراتی	-12.0742
▁اقل	-12.0748
شک	-12.0748
▁مکانهای	-12.0749
▁ماجراهای	-12.0749
▁جداساز	-12.0752
▁Mark	-12.0752
کون	-12.0753
▁آنگونه	-12.0755
▁Win	-12.0758
▁(11	-12.076
وما	-12.076
▁Or	-12.0762
▁نرود	-12.0764
▁برات	-12.0766
▁آمدیم	-12.0767
اندن	-12.0769
▁شات	-12.077
مارک	-12.0785
▁67	-12.0789
4)	-12.0792
▁Dr	-12.0797
لي	-12.0797
▁کودتای	-12.0798
پایان	-12.0799
▁تیمش	-12.08
خواه	-12.0801
▁خانواد	-12.0802
EM	-12.0803
▁بخور	-12.0806
▁آرد	-12.0809
▁جوانه	-12.0809
▁نشستم	-12.081
ارزش	-12.0814
HS	-12.0815
▁TV	-12.0821
▁بسر	-12.0822
▁کارنامه	-12.0823
▁کنارش	-12.0824
▁پوشید	-12.083
▁کاندید	-12.0831
▁SE	-12.0841
▁اورژانسی	-12.0847
▁3:	-12.0847
▁گفتاری	-12.0848
▁88	-12.0852
▁3)	-12.0856
▁مادرشان	-12.0857
خوبی	-12.0858
▁اندازهای	-12.0859
فته	-12.0859
قل	-12.086
▁Ab	-12.0861
▁شوخ	-12.0861
▁انزوا	-12.0861
▁اولا	-12.0862
▁آش	-12.0862
▁۴۷	-12.0863
▁برندها	-12.0868
▁بندهای	-12.0868
▁کارآگاه	-12.0868
▁بازرس	-12.087
SU	-12.087
ّا	-12.0873
dy	-12.0874
▁پوچ	-12.0877
▁هرچیز	-12.0878
▁شانزده	-12.088
▁فیلد	-12.0886
sk	-12.0887
-10	-12.0891
▁خصوصیت	-12.0896
▁IN	-12.0898
▁News	-12.0899
▁Net	-12.09
▁نیکل	-12.0904
DS	-12.0906
▁خادم	-12.0912
▁نب	-12.0917
حزب	-12.0917
اچ	-12.092
▁آنابولیک	-12.0931
▁انیشتین	-12.0931
▁دیافراگم	-12.0931
▁رحیم	-12.0931
▁محصور	-12.0931
▁مذاهب	-12.0931
▁ولادیمیر	-12.0931
▁مضحک	-12.0931
▁Office	-12.0931
▁کاکائو	-12.0931
▁eBay	-12.0931
▁قبایل	-12.0931
▁مزبور	-12.0931
▁ناگفته	-12.0932
▁1987	-12.0932
▁۱۹۴۵	-12.0932
▁آپولو	-12.0932
▁سانحه	-12.0932
▁It	-12.0932
▁مستحق	-12.0932
▁برهنه	-12.0932
▁پورشه	-12.0932
▁پسربچه	-12.0932
▁بشناسد	-12.0932
▁رساله	-12.0933
▁شنوم	-12.0933
▁مورگان	-12.0933
▁یونیسف	-12.0933
▁نویسندگی	-12.0933
▁انگور	-12.0933
▁SQL	-12.0934
▁st	-12.0934
▁بیابد	-12.0934
▁کلارک	-12.0934
▁فعلاً	-12.0934
▁تسلیت	-12.0934
▁نتوانیم	-12.0936
▁هدست	-12.0936
▁یزد	-12.0936
▁Plus	-12.0938
▁دلالت	-12.0939
▁گذرگاه	-12.0939
ney	-12.0941
▁Mode	-12.0943
▁نگرد	-12.0943
▁آرامگاه	-12.0944
▁گرانبها	-12.0944
▁اره	-12.0945
▁خندیدن	-12.095
▁ابتکارات	-12.0953
▁صعودی	-12.0955
▁تندرو	-12.0957
▁گفتگوها	-12.0957
▁سیستمهای	-12.0958
▁بردگان	-12.0958
▁Sch	-12.0959
▁جائی	-12.0959
▁قراردادها	-12.0959
عد	-12.096
▁صورتش	-12.0962
▁Bit	-12.0963
▁آت	-12.0967
RE	-12.097
▁خوشبین	-12.0972
EL	-12.0972
▁پاکستانی	-12.0974
TV	-12.0981
▁Ho	-12.0983
▁Games	-12.0984
▁طبیعتا	-12.0986
▁اخر	-12.0989
سیل	-12.0989
▁دهانش	-12.0992
▁بکر	-12.0993
▁USD	-12.0993
▁مشتریانی	-12.0994
▁نجومی	-12.0994
88	-12.0996
▁2018،	-12.0997
▁كردم	-12.1001
▁گلوی	-12.1001
کمک	-12.1006
ack	-12.1008
▁زیباتر	-12.1011
res	-12.1013
▁ساقه	-12.1015
وود	-12.1016
گوش	-12.1016
▁مارکو	-12.1016
ight	-12.1018
نین	-12.1022
▁تابلوی	-12.1022
▁قرمزی	-12.1024
▁آمارها	-12.1027
▁سپرد	-12.1027
--	-12.103
حا	-12.1031
▁الع	-12.1032
مگر	-12.1032
▁دندانی	-12.1033
62	-12.1035
▁صلیبی	-12.1037
▁Code	-12.1041
▁انگیزش	-12.1044
▁دردی	-12.1044
لس	-12.1045
rd	-12.1049
▁سوزنی	-12.1051
▁وجوی	-12.1056
▁دردهای	-12.1057
▁نمادهای	-12.1057
▁ویدیوی	-12.1061
زیرا	-12.1063
EP	-12.1065
▁Book	-12.1067
▁استیل	-12.1067
▁فولادی	-12.1071
▁قربان	-12.1073
▁میکروبی	-12.1077
وجود	-12.1077
▁حقّ	-12.1077
▁غلطی	-12.1085
▁هود	-12.1086
پورت	-12.1088
▁ادم	-12.109
▁وارداتی	-12.1096
▁۷۲	-12.1096
TP	-12.1097
▁هشداری	-12.1097
▁اکس	-12.1098
▁نبی	-12.1101
▁برکنار	-12.1102
▁بیو	-12.1106
▁تاثیرگذاری	-12.1116
گفت	-12.1117
▁اتفاقا	-12.1118
NS	-12.112
▁کارتون	-12.1123
کنیم	-12.1124
04	-12.1125
▁قل	-12.1128
دند	-12.1128
گرام	-12.1133
67	-12.1133
ture	-12.1138
▁کلیساها	-12.1138
▁باورها	-12.1142
\	-12.1143
یکا	-12.1147
▁پوک	-12.1149
٥	-12.115
محمد	-12.115
▁۵۲	-12.1151
ess	-12.1153
▁اعمالی	-12.1153
▁پیشگامان	-12.1157
▁جاودان	-12.1158
ica	-12.1159
▁بکش	-12.1159
▁File	-12.116
▁مسموم	-12.1163
▁آسپرین	-12.1164
▁ارکستر	-12.1164
▁خصلت	-12.1164
▁طمع	-12.1164
▁نیتروژن	-12.1164
▁اجناس	-12.1164
▁احتراق	-12.1164
▁انسجام	-12.1164
▁ارتودنسی	-12.1164
▁قرعه	-12.1164
▁۱۹۷۹	-12.1164
▁۱۹۶۸	-12.1164
▁دنيا	-12.1164
▁نیکوتین	-12.1164
▁اجاق	-12.1164
▁قاسم	-12.1164
▁زندگي	-12.1165
▁استثناء	-12.1165
▁جديد	-12.1165
▁غیرعادی	-12.1165
▁Netflix	-12.1165
▁ناپلئون	-12.1165
▁Sony	-12.1165
▁بپرسیم	-12.1165
▁آمیخته	-12.1166
▁چنگال	-12.1166
▁۱۹۹۲	-12.1166
▁Control	-12.1166
▁استادیوم	-12.1166
▁دمکرات	-12.1167
▁پورتال	-12.1168
▁3.5	-12.1168
▁فرضیات	-12.1168
▁365	-12.1168
▁تماشاگر	-12.1169
▁۷۰۰	-12.1169
▁بسوی	-12.117
▁بنیانگذاران	-12.1175
▁فطرت	-12.1176
▁لایت	-12.1177
▁منصرف	-12.1178
علم	-12.118
▁گردی	-12.1185
▁۳۹	-12.1186
UN	-12.1186
▁كس	-12.1187
ec	-12.1188
▁جویان	-12.1188
▁سربازی	-12.1195
▁همت	-12.1196
▁فرزندانمان	-12.1196
▁میدانیم	-12.1197
گور	-12.1198
▁سول	-12.1201
▁تز	-12.1208
▁کاستی	-12.121
▁دستگاههای	-12.1211
▁والتر	-12.1211
خل	-12.1214
▁برادری	-12.1214
▁مسیریاب	-12.1216
▁an	-12.1216
۹۹	-12.1216
▁رحمان	-12.1216
act	-12.1219
یلا	-12.122
CR	-12.1222
▁یادش	-12.1224
هو	-12.1224
▁نامد	-12.1226
»(	-12.1228
▁Express	-12.1228
▁ولت	-12.1236
▁انزوای	-12.1237
▁نوپا	-12.1246
چنین	-12.125
▁نزولی	-12.1257
▁فوتون	-12.1261
▁فدا	-12.127
▁كا	-12.1272
▁مایا	-12.1277
cl	-12.1277
▁78	-12.1281
▁دون	-12.1285
اطلاق	-12.1294
ax	-12.1294
▁میدهید	-12.1295
▁فرآیندی	-12.1305
▁دریافتیم	-12.1306
سته	-12.1307
▁مشورتی	-12.1309
۴۵	-12.1313
راز	-12.1318
▁یونس	-12.1322
▁al	-12.1325
▁بم	-12.1325
آمیز	-12.1328
▁شاپ	-12.1331
▁San	-12.1331
▁پلیمر	-12.1331
خب	-12.1334
▁ویرانگر	-12.1337
▁آو	-12.1339
▁نوش	-12.1346
AM	-12.135
/2	-12.1353
انداز	-12.1355
▁نادان	-12.1356
▁میسر	-12.136
سیاست	-12.1361
▁مؤسس	-12.1361
▁خواستن	-12.1363
▁آوا	-12.1368
pi	-12.1369
▁کسل	-12.1369
▁Sh	-12.1371
dd	-12.1377
▁برخاست	-12.138
pl	-12.1383
@	-12.1388
▁1200	-12.139
nd	-12.139
تمایل	-12.1392
▁فقه	-12.1398
07	-12.14
▁رابین	-12.14
▁افریقا	-12.1402
▁Adobe	-12.1402
▁Evil	-12.1402
▁رزولوشن	-12.1402
▁زحمات	-12.1402
▁هوانوردی	-12.1402
▁حماقت	-12.1402
▁معیشت	-12.1402
▁منازعه	-12.1402
▁نقدینگی	-12.1402
▁نهضت	-12.1402
▁خالکوبی	-12.1402
▁سرهنگ	-12.1402
▁هامبورگ	-12.1402
▁میشیگان	-12.1402
▁کنتراست	-12.1402
▁چروک	-12.1402
▁دیکته	-12.1402
▁۱۹۹۶	-12.1402
▁لطیف	-12.1402
▁انزال	-12.1403
▁1968	-12.1403
▁باطری	-12.1403
▁آنارشیست	-12.1403
▁بنشینند	-12.1403
▁شلاق	-12.1403
▁هویج	-12.1403
▁College	-12.1403
▁Machine	-12.1403
▁۴٫	-12.1403
▁فرانکلین	-12.1404
▁شاء	-12.1404
▁واقعیتی	-12.1404
▁بکارگیری	-12.1404
▁فریبنده	-12.1404
▁کرامت	-12.1405
▁فرمایش	-12.1405
قضی	-12.1406
▁آشکارساز	-12.1406
▁شریان	-12.1406
دیو	-12.1407
▁نشیند	-12.1408
ization	-12.1408
▁آفت	-12.1409
▁la	-12.141
▁برگرد	-12.1416
▁دژ	-12.1416
▁كاه	-12.1416
▁گون	-12.1417
▁ايشان	-12.1418
▁جمهوریخواه	-12.1419
▁دوستداران	-12.142
▁مارچ	-12.142
▁پیمانکار	-12.1422
▁روسای	-12.1426
▁بکن	-12.143
▁گردانند	-12.1437
▁وارث	-12.1437
ّل	-12.1437
▁اکو	-12.1438
▁متحدانش	-12.1443
08	-12.1443
▁میباشند	-12.1444
اتور	-12.1449
▁رفتید	-12.1454
▁تهدیدها	-12.1454
▁باقر	-12.1455
we	-12.1455
▁مومن	-12.1455
▁مائو	-12.1456
▁شلوغی	-12.1456
▁Ja	-12.1459
89	-12.1459
▁رسیدید	-12.1462
▁بازیکنی	-12.1462
▁ناف	-12.1462
▁سناریوهای	-12.1464
وزی	-12.1466
▁كسان	-12.1466
بس	-12.147
انجام	-12.147
DR	-12.1477
▁سیال	-12.1483
لَ	-12.1483
▁(15	-12.1486
هنر	-12.1487
▁پهلوی	-12.149
▁حلب	-12.1491
my	-12.1494
▁نباش	-12.1494
▁كننده	-12.1495
▁ریلی	-12.1495
sch	-12.1495
▁قو	-12.1496
ولت	-12.1497
تونم	-12.1498
▁ادعایی	-12.1499
لاب	-12.15
فان	-12.15
نوش	-12.1502
▁چهاردهم	-12.1502
▁بالش	-12.1503
چو	-12.1509
▁گرمی	-12.151
▁بورسی	-12.1513
الف	-12.1514
▁تورهای	-12.1516
▁5:	-12.1521
▁مراقبه	-12.1522
▁نیافت	-12.153
▁تونست	-12.1531
ریزی	-12.1535
DE	-12.1539
▁جادوی	-12.1541
▁ناصر	-12.1544
▁میداد	-12.1545
▁خودران	-12.1545
▁سمینار	-12.1546
▁دستمال	-12.1548
▁En	-12.1549
▁غریبی	-12.155
▁53	-12.155
▁And	-12.1552
▁نگو	-12.1554
▁نهادها	-12.1558
▁خار	-12.156
ينه	-12.1561
▁خودروساز	-12.1571
پز	-12.1572
▁توحید	-12.1575
▁نوا	-12.1575
مهم	-12.1575
▁درخواستی	-12.1576
▁دینامیک	-12.1578
▁موریس	-12.1578
bar	-12.1581
بست	-12.1584
مشتاقانه	-12.1587
مرکز	-12.1589
▁پوستان	-12.159
▁86	-12.1592
▁نای	-12.1592
▁Du	-12.1595
▁Max	-12.1597
شیر	-12.1602
نیم	-12.1603
93	-12.1604
▁گاوها	-12.1605
02	-12.1611
▁خبرها	-12.1616
کسانی	-12.1618
▁باهاش	-12.1622
قابل	-12.1624
▁شعب	-12.1624
▁موجوداتی	-12.1627
▁دانمارکی	-12.1632
▁رؤیا	-12.1632
یار	-12.1633
▁سایتهای	-12.1633
▁طریقی	-12.1635
ins	-12.1639
▁کاره	-12.164
▁1.4	-12.1642
▁Pe	-12.1643
▁سکولار	-12.1646
▁Analytics	-12.1646
▁اتیوپی	-12.1646
▁بیاندازد	-12.1646
▁تفصیل	-12.1646
▁توقیف	-12.1646
▁شیاطین	-12.1646
▁طغیان	-12.1646
▁غیررسمی	-12.1646
▁فیلادلفیا	-12.1646
▁قفقاز	-12.1646
▁كنترل	-12.1646
▁متعاهد	-12.1646
▁پترزبورگ	-12.1646
▁پوسیدگی	-12.1646
⁯	-12.1646
▁ازبکستان	-12.1646
▁بدرفتاری	-12.1646
▁Research	-12.1646
▁استعاره	-12.1646
▁شفاعت	-12.1646
▁غایب	-12.1646
▁استنفورد	-12.1646
▁نگهدارنده	-12.1646
▁1969	-12.1646
▁بپرهیزید	-12.1647
▁تیلور	-12.1647
▁Little	-12.1647
▁مصدومیت	-12.1647
▁لوبیا	-12.1647
▁۱۹۹۴	-12.1648
▁بنیامین	-12.1648
▁برنارد	-12.1648
▁Center	-12.1648
▁House	-12.1648
خواست	-12.1648
▁نیمکت	-12.1648
▁گودال	-12.1649
▁نوشند	-12.1649
▁تنزل	-12.165
▁مبدا	-12.165
▁Paul	-12.165
▁گزاف	-12.165
▁بیعت	-12.165
▁لایق	-12.1651
▁رأس	-12.1651
▁باغچه	-12.1652
عب	-12.1653
▁برندسازی	-12.1653
▁سمع	-12.1653
▁مبتدیان	-12.1654
اکر	-12.1658
▁شهریه	-12.1659
▁اجتماعات	-12.166
▁مرجان	-12.1662
▁جنگیدن	-12.1664
رف	-12.1664
▁برهه	-12.1665
▁ً	-12.1665
▁130	-12.1665
▁نگهبانان	-12.1667
▁مصالحه	-12.1668
▁ضربات	-12.167
▁مددکار	-12.1671
▁نفی	-12.1672
▁درجات	-12.1672
▁باغبانی	-12.1674
▁ندادن	-12.1674
▁دروس	-12.1677
▁متنفرم	-12.1681
▁درصورتی	-12.1682
▁شك	-12.1683
▁روا	-12.1683
▁نظریات	-12.1685
▁مهمات	-12.1686
ino	-12.1687
▁میدانند	-12.1691
SP	-12.1691
▁مَ	-12.1691
▁ترا	-12.1694
▁معیارها	-12.1695
▁مجوزهای	-12.1699
▁راندن	-12.1699
▁بیوه	-12.1699
fi	-12.1701
▁پروا	-12.1701
▁فضاپیما	-12.1702
ژو	-12.1704
▁میخواستم	-12.1704
▁هوس	-12.1705
كی	-12.1705
▁شانزدهم	-12.1706
۲۹	-12.1707
app	-12.1709
82	-12.1709
▁سپر	-12.1712
٨	-12.1714
▁توانا	-12.1716
تاب	-12.1725
▁صدایش	-12.1726
▁دلت	-12.1726
▁1.0	-12.1727
.“	-12.1729
▁ازدست	-12.1732
▁لبنانی	-12.1735
۷۰	-12.1738
▁نوشتند	-12.1739
سوی	-12.1742
▁Ch	-12.1742
hu	-12.1744
▁۴۱	-12.1746
53	-12.1751
▁واگذاری	-12.1751
▁دربرابر	-12.1755
▁جویدن	-12.1761
▁ناپذیری	-12.1762
La	-12.1762
Man	-12.1768
▁افشاگر	-12.1775
▁شیل	-12.1775
▁سست	-12.1777
▁نس	-12.1782
▁فیلسوفان	-12.1784
▁لیزری	-12.179
▁زننده	-12.1791
▁ریس	-12.1791
sen	-12.1801
▁وَ	-12.1802
▁ES	-12.1802
RC	-12.1807
▁الحاق	-12.1808
۳۵	-12.1811
▁تجار	-12.1815
▁جستجوگرها	-12.1817
▁قضا	-12.1819
▁یادگار	-12.182
▁ناگوار	-12.1824
▁Sky	-12.1825
▁آجر	-12.1825
▁شهود	-12.1826
▁گزاره	-12.1829
▁پاد	-12.1832
▁پذیریم	-12.1832
▁ماندنی	-12.1833
▁یادمان	-12.1834
ings	-12.1836
▁فدای	-12.1838
▁کنترلی	-12.1844
▁دولتهای	-12.1845
▁اردو	-12.1846
َا	-12.1849
IM	-12.185
▁React	-12.185
▁دوک	-12.1852
▁رشدی	-12.1856
دیا	-12.1857
let	-12.1863
کیه	-12.1863
▁مالت	-12.1866
▁فشاری	-12.1872
▁آکا	-12.1876
▁جم	-12.1877
▁هیدرو	-12.1879
▁Har	-12.188
تصویر	-12.1882
▁بشم	-12.1882
▁واقعیات	-12.1882
▁غلام	-12.1885
▁روندهای	-12.1886
NG	-12.1887
▁Service	-12.1891
▁خجالتی	-12.1892
▁بناهای	-12.1894
▁pro	-12.1896
▁آلاسکا	-12.1896
▁آپارتاید	-12.1896
▁انعقاد	-12.1896
▁بیاندازید	-12.1896
▁شکسپیر	-12.1896
▁لجستیک	-12.1896
▁پتاسیم	-12.1896
▁محفظه	-12.1896
▁گرمسیری	-12.1896
▁Trump	-12.1896
▁تزیین	-12.1896
▁معارف	-12.1896
▁رضوی	-12.1896
▁جاناتان	-12.1896
▁Online	-12.1896
▁تأمل	-12.1896
▁نظافت	-12.1896
▁اجزاء	-12.1896
▁ناوبری	-12.1896
▁۱۹۹۹	-12.1896
▁1978	-12.1896
▁بورژوایی	-12.1896
▁تشبیه	-12.1896
▁پاناما	-12.1896
▁1973	-12.1896
▁کباب	-12.1896
▁میکروفون	-12.1897
▁سخاوتمندانه	-12.1897
▁Facebook	-12.1897
▁سفارتخانه	-12.1897
▁1940	-12.1897
▁عمارت	-12.1897
▁نشاط	-12.1898
▁آراء	-12.1898
▁Store	-12.1898
▁آسود	-12.1898
▁واریز	-12.1899
▁دماغ	-12.1899
▁Health	-12.1899
▁خودمون	-12.19
HA	-12.19
▁مکث	-12.19
▁LDL	-12.19
▁حضوری	-12.1901
▁***	-12.1901
▁بسازم	-12.1902
▁تبعات	-12.1902
▁Ni	-12.1903
گذر	-12.1906
▁موادی	-12.1906
72	-12.1907
▁گاردین	-12.1908
▁فنگ	-12.1909
▁الهه	-12.191
▁پرنس	-12.1911
▁پان	-12.1913
▁معاش	-12.1914
▁جراحان	-12.1914
▁جویانه	-12.1915
▁بشارت	-12.1917
▁گذاشتیم	-12.1917
▁سفارشات	-12.1917
وث	-12.1918
▁لمسی	-12.1921
▁رباتیک	-12.1923
قطع	-12.1925
سوز	-12.1927
▁واکر	-12.1929
▁پک	-12.1929
انده	-12.193
▁نتوانستم	-12.193
CE	-12.193
▁معلومات	-12.1939
کمتر	-12.1939
ble	-12.194
▁Cha	-12.194
▁سرشت	-12.1946
▁گرای	-12.1948
84	-12.195
▁روانپزشکی	-12.1951
بسته	-12.1951
▁کاشی	-12.1951
اینجا	-12.1953
▁مکن	-12.1954
▁عموی	-12.1959
▁اونها	-12.1962
▁کویر	-12.1962
▁المان	-12.1962
▁پسا	-12.1965
قد	-12.1967
ds	-12.1967
▁محضر	-12.1968
▁هفدهم	-12.1969
▁زیستن	-12.1969
َد	-12.1969
▁خریدم	-12.1971
▁پدرت	-12.1975
▁ماریو	-12.1975
▁گوارشی	-12.1978
▁زوم	-12.198
▁مز	-12.1981
نال	-12.1983
ini	-12.1983
▁قویتر	-12.1988
تیس	-12.1989
ny	-12.1993
▁TR	-12.2
▁بخشنده	-12.2003
▁حصار	-12.2003
▁منتها	-12.2009
▁اندیشیدن	-12.201
کلاس	-12.2011
▁انس	-12.2014
ادا	-12.2014
▁مق	-12.2015
▁جادوگری	-12.2017
:00	-12.2018
▁74	-12.2021
▁سرانه	-12.2023
▁قدردان	-12.2026
▁هربار	-12.2026
▁لعنتی	-12.203
▁بازاری	-12.2032
بینی	-12.2035
زین	-12.2039
▁شرف	-12.2043
js	-12.2048
-6	-12.2049
▁کارآمدی	-12.2054
wa	-12.2055
▁عبد	-12.2059
▁بارد	-12.2061
▁١	-12.2065
ich	-12.2067
افراد	-12.2067
▁ابی	-12.2077
▁متابولیک	-12.2082
▁نجوم	-12.2082
▁مح	-12.2083
▁تیرانداز	-12.2083
▁پرتی	-12.2088
انیم	-12.2088
65	-12.209
▁کمیک	-12.2092
CH	-12.2099
▁یکجا	-12.2103
▁کشم	-12.2104
mb	-12.2121
700	-12.2126
▁توافقات	-12.2129
▁عاشقش	-12.2131
▁مصوب	-12.2133
▁افکند	-12.2137
طرح	-12.2138
اسرائیل	-12.2138
درباره	-12.2138
▁AT	-12.2139
als	-12.214
عمیق	-12.214
تعداد	-12.2146
باکس	-12.2146
▁سپاری	-12.2152
▁Instagram	-12.2152
▁فرسوده	-12.2152
▁نیوجرسی	-12.2152
▁واشینگتن	-12.2152
▁وثیقه	-12.2152
▁رجوی	-12.2152
▁جمجمه	-12.2152
▁پشتوانه	-12.2152
▁آهستگی	-12.2152
▁غیردولتی	-12.2152
▁پارتیشن	-12.2152
▁NGC	-12.2153
▁نجیب	-12.2153
▁1971	-12.2153
▁1982	-12.2153
▁پروتز	-12.2153
▁گاندی	-12.2153
400	-12.2154
▁نزنید	-12.2154
▁اوهایو	-12.2154
▁مترقی	-12.2154
ware	-12.2155
آور	-12.2155
▁قبض	-12.2156
▁مصلحت	-12.2156
▁Day	-12.2156
▁اشرف	-12.2156
▁لَ	-12.2156
▁کراتین	-12.2157
▁هوازی	-12.2158
▁قانونگذاران	-12.2159
▁جونگ	-12.2159
▁راسخ	-12.216
▁سئول	-12.2162
▁عرشه	-12.2163
▁فوتبالیست	-12.2164
▁شمول	-12.2165
▁سخنرانان	-12.2166
▁برفی	-12.2168
▁نگفتم	-12.217
▁فهمیم	-12.217
▁گیرندگان	-12.2172
▁كمتر	-12.2172
▁روبل	-12.2174
روس	-12.2174
لِ	-12.2175
▁جهل	-12.2176
▁دستیاران	-12.2177
▁الکترومغناطیسی	-12.2177
AT	-12.2181
▁گشتند	-12.2182
▁حقی	-12.2182
ویچ	-12.2183
▁پوشند	-12.2183
▁Music	-12.2185
▁ترسیده	-12.2188
یابد	-12.2189
پذیری	-12.219
▁صید	-12.2191
گير	-12.2195
ook	-12.2199
▁6000	-12.2201
▁برهان	-12.2202
▁شکند	-12.2214
▁بلو	-12.2215
▁رسولان	-12.2219
پرس	-12.2224
▁واحدی	-12.2227
لّ	-12.2229
▁West	-12.2232
▁فضاپیمای	-12.2233
▁ارزشهای	-12.2235
▁اله	-12.2235
هوا	-12.2239
str	-12.2241
اخ	-12.2243
42	-12.2247
▁آنجاست	-12.2252
▁سرای	-12.2253
▁خبره	-12.2259
▁جوانتر	-12.226
▁مشخصا	-12.2261
▁Core	-12.2262
▁خدمتکار	-12.2264
▁ساک	-12.2267
83	-12.227
74	-12.2273
اتو	-12.2273
▁Ac	-12.2275
▁EA	-12.2278
▁سوت	-12.228
▁ندای	-12.2281
tin	-12.2282
▁گذرا	-12.2286
▁God	-12.2288
▁الح	-12.2288
▁چیپ	-12.2291
▁کلبه	-12.2293
▁سرت	-12.2293
زنده	-12.2295
▁بوکس	-12.2304
ood	-12.2306
▁زادگاه	-12.2309
بون	-12.2313
!؟	-12.2319
مسیر	-12.2321
▁نورد	-12.2321
ّر	-12.2321
und	-12.2322
FC	-12.2322
▁بدنم	-12.2324
▁یگان	-12.2328
۳۱	-12.233
CL	-12.2332
▁لیلا	-12.2333
▁معرف	-12.2334
▁کیا	-12.2335
▁بازرگان	-12.2335
▁3.0	-12.2338
fa	-12.234
ev	-12.2341
69	-12.2342
بلی	-12.2343
▁جنجال	-12.2346
▁کرون	-12.2351
یاب	-12.2352
▁استایل	-12.2352
ology	-12.2354
▁گزار	-12.2356
▁گز	-12.2363
▁انتقالات	-12.2364
میل	-12.2366
▁Work	-12.2368
▁پرتغالی	-12.2368
▁شیراز	-12.2369
▁نسلی	-12.2369
▁سیاستهای	-12.2369
▁حراج	-12.2375
▁نرفت	-12.2376
زمین	-12.2377
fe	-12.2377
▁فرآیندها	-12.2379
▁Ti	-12.238
ten	-12.2387
▁قا	-12.2395
طرف	-12.2395
خطی	-12.2398
uch	-12.24
▁وقتیکه	-12.2402
▁کبیر	-12.2403
▁پرینت	-12.2404
جم	-12.2407
گرم	-12.2407
▁سارق	-12.2409
▁آيا	-12.2411
▁کیپ	-12.2411
مصرف	-12.2414
▁پالایش	-12.2414
▁مصدوم	-12.2416
▁Journal	-12.2416
▁Management	-12.2416
▁اربعین	-12.2416
▁السّلام	-12.2416
▁الکتریسیته	-12.2416
▁زنجبیل	-12.2416
▁سانفرانسیسکو	-12.2416
▁صرع	-12.2416
▁غدد	-12.2416
▁قحطی	-12.2416
▁قذافی	-12.2416
▁قورباغه	-12.2416
▁مستثنی	-12.2416
▁مقاربت	-12.2416
▁کاتالونیا	-12.2416
▁اعتدال	-12.2416
▁بیزانس	-12.2416
▁شکوفه	-12.2416
▁مکتوب	-12.2416
▁پیشاپیش	-12.2416
▁غرامت	-12.2416
▁مزایده	-12.2416
▁Institute	-12.2416
▁تقاطع	-12.2416
▁بریتیش	-12.2416
▁معابد	-12.2416
▁همسالان	-12.2416
▁منهتن	-12.2416
▁آلبانی	-12.2416
▁تویوتا	-12.2416
▁اینشتین	-12.2416
▁زندگى	-12.2416
▁نوترون	-12.2416
▁نپال	-12.2416
▁كنيد	-12.2416
▁مسؤولیت	-12.2416
▁خودخواهانه	-12.2416
▁کنگو	-12.2417
▁کاسترو	-12.2417
▁الاسلام	-12.2417
▁فیض	-12.2417
▁مومیای	-12.2417
▁زمزمه	-12.2417
▁کنکور	-12.2418
▁Global	-12.2418
MB	-12.2418
▁غیاب	-12.2418
▁عمه	-12.2418
▁مربیگری	-12.2418
▁پروتون	-12.2419
▁فریزر	-12.2419
▁هادی	-12.2421
▁ماکرو	-12.2422
▁دای	-12.2427
▁حتّ	-12.2428
فین	-12.2428
▁شون	-12.243
▁حسابداران	-12.243
▁موردنیاز	-12.2431
▁آدامس	-12.2431
▁قوس	-12.2432
▁طلبد	-12.2433
دوم	-12.2434
▁توله	-12.2435
وکا	-12.2436
▁Un	-12.2437
▁آزرد	-12.2442
لار	-12.2442
رسی	-12.2443
▁هنجارهای	-12.2443
▁ضمنا	-12.2446
هره	-12.2447
qu	-12.2447
▁نمیتوانند	-12.2447
▁US	-12.2448
▁دانان	-12.2448
▁درآورده	-12.2449
▁معنویت	-12.2451
IF	-12.2454
▁وزرای	-12.2459
▁مداری	-12.2459
پسر	-12.246
▁اعتبارات	-12.2461
SE	-12.2461
▁دیتا	-12.2461
▁com	-12.2463
▁ژی	-12.2463
▁قرآنی	-12.2468
▁اولش	-12.2469
▁بدنام	-12.2471
؟».	-12.2471
▁کوت	-12.2473
▁متهمان	-12.2473
▁اسلو	-12.2473
▁عن	-12.2474
▁خندان	-12.2476
▁کارانه	-12.2477
▁رفقای	-12.2477
BO	-12.248
▁کاروان	-12.2483
▁GT	-12.2487
▁قمر	-12.2488
▁کارولینا	-12.2492
▁Pay	-12.2495
▁آمریکائی	-12.2495
▁اینجایی	-12.2496
▁کاندیداهای	-12.2499
▁فرید	-12.2501
سپس	-12.2502
زم	-12.2511
▁نمیشه	-12.2512
▁فرزندانم	-12.2512
▁71	-12.2513
9)	-12.2515
▁اروپاست	-12.2518
▁پترو	-12.2519
انو	-12.2524
▁میانی	-12.2527
▁٣	-12.2529
افی	-12.2535
▁تح	-12.2537
▁میخ	-12.2539
ji	-12.2542
نید	-12.2544
▁110	-12.2552
آید	-12.2552
▁گند	-12.2555
حص	-12.2555
old	-12.2555
▁دوستانشان	-12.2558
▁اینطوری	-12.2559
▁کشورم	-12.2561
▁میدانم	-12.2562
ستم	-12.2564
▁رؤیاهای	-12.2566
▁فراگیری	-12.2568
▁لکن	-12.2583
▁اسل	-12.2585
الدین	-12.2586
▁زمانه	-12.2587
یکس	-12.2594
1-	-12.2599
NO	-12.2599
▁کاوشگر	-12.2603
▁Art	-12.2603
uck	-12.2606
▁خوابید	-12.2608
اك	-12.2609
▁میگن	-12.261
▁مونو	-12.2613
▁لوس	-12.2614
▁Ca	-12.2615
▁میلیونر	-12.2617
طی	-12.2619
head	-12.262
▁کوبی	-12.2631
nes	-12.2632
».[	-12.2633
▁تکنولوژیک	-12.2633
car	-12.2633
▁محافظتی	-12.2639
▁عج	-12.264
▁ورم	-12.2644
mit	-12.2646
▁درشت	-12.2647
▁درسته	-12.2648
▁یکتا	-12.2648
▁همتای	-12.2652
▁پت	-12.2653
▁گمراهی	-12.2659
▁زای	-12.2663
داده	-12.2669
ting	-12.2669
▁واسط	-12.267
▁انباشت	-12.2672
dia	-12.2673
▁طاق	-12.2675
▁Card	-12.2678
▁ضایع	-12.2682
rin	-12.2682
▁آرت	-12.2684
▁گا	-12.2685
▁بازدارندگی	-12.2686
▁بپوشند	-12.2686
▁داشبورد	-12.2686
▁ضامن	-12.2686
▁فارنهایت	-12.2686
▁ولنتاین	-12.2686
▁کوتوله	-12.2686
▁بیزینس	-12.2686
▁بُعد	-12.2686
▁اسقف	-12.2686
▁تظاهرکنندگان	-12.2686
▁خصمانه	-12.2686
▁ادویه	-12.2686
▁متأثر	-12.2686
▁تبخیر	-12.2686
▁لوپوس	-12.2686
▁قیاف	-12.2686
▁آستین	-12.2686
▁آرسنال	-12.2686
▁1985	-12.2687
▁LLM	-12.2687
▁مولتی	-12.2687
▁لرد	-12.2687
▁نزدیك	-12.2687
▁العمر	-12.2687
▁لگد	-12.2687
▁لینکلن	-12.2687
▁پالایشگاه	-12.2687
▁نهادینه	-12.2687
▁بیندازند	-12.2687
▁جیوه	-12.2687
▁تختخواب	-12.2688
▁دنی	-12.2688
▁مصونیت	-12.2688
▁حمید	-12.2688
▁ربع	-12.2688
▁آویز	-12.2689
▁Search	-12.2689
▁افتتاحیه	-12.2689
▁Watch	-12.2689
▁نویز	-12.2689
صابت	-12.269
▁ملکوت	-12.269
▁خویشاوندان	-12.269
▁کلوپ	-12.2691
▁حمد	-12.2691
▁قلاب	-12.2692
▁خرند	-12.2692
▁AMP	-12.2694
▁At	-12.2694
▁دادخواست	-12.2695
▁کنت	-12.2695
▁شعاع	-12.2696
▁شکارچیان	-12.2697
▁منظوره	-12.2697
▁تاندون	-12.2698
▁گه	-12.2698
▁بیزار	-12.2699
▁دیداری	-12.2699
▁ابرهای	-12.2699
▁ماتریس	-12.2699
▁خوشگل	-12.27
▁مبتلایان	-12.2701
▁جایز	-12.2702
▁لیپو	-12.2703
▁چگالی	-12.2704
▁مگس	-12.2707
▁آیید	-12.2708
▁زندگانی	-12.271
▁نافرمانی	-12.271
▁کبودی	-12.271
▁فرصتهای	-12.271
▁How	-12.2711
▁برگشتند	-12.2711
▁خاله	-12.2712
▁شنیدند	-12.2716
▁شبی	-12.2718
▁بایستید	-12.2719
يز	-12.2719
▁۴۶	-12.2719
يشه	-12.2722
▁شاداب	-12.2723
▁اخلاقیات	-12.273
▁کولی	-12.2733
درا	-12.2735
▁صادراتی	-12.2736
ترو	-12.274
tri	-12.274
▁پالت	-12.274
▁رضای	-12.2741
وکو	-12.2744
▁Comp	-12.2745
▁درسال	-12.2747
▁خزر	-12.275
▁my	-12.2757
76	-12.2757
▁End	-12.2757
▁سریعاً	-12.2762
گوس	-12.2771
وره	-12.2775
▁;	-12.2775
چهار	-12.2777
▁نیمکر	-12.2777
ایه	-12.2778
▁کارکردن	-12.2779
ult	-12.2782
▁قدمی	-12.2782
لیف	-12.2787
پال	-12.2787
ّد	-12.279
▁مسئولیتی	-12.279
آورد	-12.2792
▁جانباز	-12.2793
ئین	-12.2794
▁خودشون	-12.2802
ef	-12.2807
ارک	-12.2811
▁ملاک	-12.2815
▁اشتراکی	-12.2817
▁زاد	-12.2822
▁تس	-12.2823
PO	-12.2824
▁مص	-12.2826
▁معما	-12.2829
▁Te	-12.2833
BMI	-12.2834
▁اینتر	-12.2835
کاران	-12.284
ath	-12.2843
۳۴	-12.2851
ریان	-12.2852
▁باطن	-12.2852
▁ایشون	-12.2859
▁لند	-12.286
▁مادرت	-12.2866
▁روت	-12.2867
52	-12.2868
▁قسمتهای	-12.287
▁عکسهای	-12.287
▁حر	-12.2876
مَ	-12.2878
▁خزند	-12.2878
ستن	-12.2884
▁پاشید	-12.2884
▁سازم	-12.2884
بوست	-12.2886
مرا	-12.2889
ادو	-12.2889
▁۹۶	-12.2889
EN	-12.289
▁ناسازگار	-12.2893
▁نابرابر	-12.2894
PP	-12.29
▁مختصری	-12.2901
▁نگری	-12.2902
▁900	-12.2905
▁تأ	-12.2914
گي	-12.2915
۶۵	-12.2915
▁لانگ	-12.2916
سف	-12.2917
▁کلیساهای	-12.2917
▁101	-12.2919
ئون	-12.292
▁جهادی	-12.292
PR	-12.2922
ستین	-12.2922
tz	-12.2924
▁سپاسگزاری	-12.2926
▁ساو	-12.2927
ویه	-12.293
کودک	-12.2931
▁باکو	-12.2931
▁(5	-12.2936
tes	-12.2936
▁شیفت	-12.2937
▁Per	-12.2944
▁غنا	-12.2949
ایجاد	-12.295
اغلب	-12.295
رئیس	-12.295
▁هجده	-12.295
معمولا	-12.2951
▁at	-12.2951
مدیریت	-12.2951
قسمت	-12.2953
▁تشک	-12.2954
▁مب	-12.2957
▁آموزگار	-12.2957
▁Drive	-12.2958
لای	-12.2959
▁قن	-12.2961
▁(2	-12.2962
pt	-12.2962
▁BMW	-12.2964
▁اکوادور	-12.2964
▁حوثی	-12.2964
▁سوپرمارکت	-12.2964
▁ضوابط	-12.2964
▁مصارف	-12.2964
▁پسوریازیس	-12.2964
▁کورتیزول	-12.2964
▁آفلاین	-12.2964
▁عارف	-12.2964
▁هیدرولیک	-12.2964
▁شهامت	-12.2964
▁غریزه	-12.2964
▁قائم	-12.2964
▁منازل	-12.2964
▁نوازندگان	-12.2964
▁ژئو	-12.2964
▁محبوس	-12.2964
▁هوندا	-12.2964
▁ساقط	-12.2964
▁مرتبا	-12.2964
▁1981	-12.2964
▁WiFi	-12.2964
▁بیاموزیم	-12.2964
▁کلکسیون	-12.2964
▁Gold	-12.2964
▁York	-12.2965
▁پروژکتور	-12.2965
▁علیرضا	-12.2965
▁تأسف	-12.2965
▁مهیج	-12.2965
ئيس	-12.2965
▁لئوناردو	-12.2965
▁بنگرید	-12.2965
▁۱۹۹۱	-12.2965
▁ریپل	-12.2965
▁پاکیزه	-12.2965
▁Last	-12.2965
▁بفرستند	-12.2965
▁انستیتو	-12.2965
▁پارسال	-12.2966
▁دیوانگی	-12.2966
▁Word	-12.2966
▁Ko	-12.2966
▁بپرسد	-12.2966
▁حشره	-12.2966
▁پیوستگی	-12.2966
▁نهان	-12.2967
▁صلوات	-12.2967
▁پاتریک	-12.2967
▁بروکلین	-12.2968
▁آندروژن	-12.2969
style	-12.297
▁National	-12.297
▁ولى	-12.297
▁ثروتمندتر	-12.297
▁پیگرد	-12.297
▁ارگانیسم	-12.2971
▁UX	-12.2972
cu	-12.2972
▁یهودا	-12.2972
▁پچ	-12.2973
▁پیشبینی	-12.2974
▁ربا	-12.2976
پرو	-12.2977
▁تاون	-12.2977
wood	-12.2979
▁اوصاف	-12.2979
▁مبارزان	-12.298
▁فلاش	-12.2982
▁بپرس	-12.2983
54	-12.2986
ale	-12.2986
▁Grand	-12.2987
ux	-12.2988
▁موتورز	-12.2991
▁اینتل	-12.2992
▁آشنایان	-12.2992
▁خلبانان	-12.2993
خی	-12.2995
▁بارور	-12.2995
▁رستگاری	-12.2997
▁تورات	-12.2999
▁پاداشی	-12.2999
▁الکترو	-12.3
gar	-12.3001
▁واتس	-12.3005
▁Nu	-12.3006
▁شرعی	-12.3007
▁روندی	-12.3007
▁DS	-12.3007
بران	-12.301
؟!»	-12.3011
▁up	-12.3011
▁Fe	-12.3012
▁تایم	-12.3014
.»(	-12.3014
▁User	-12.3015
▁پشتکار	-12.3018
▁رمزگشا	-12.3018
▁زوجین	-12.3018
▁کوهن	-12.3025
سرعت	-12.3025
کاش	-12.3035
▁حوله	-12.3035
▁شارل	-12.3036
▁125	-12.3039
▁مورفی	-12.3039
▁پرید	-12.304
▁کریمه	-12.3042
▁مروری	-12.3044
▁کشیم	-12.3046
▁راوی	-12.3047
▁کیفر	-12.3049
▁اینچنین	-12.3056
▁علیها	-12.3058
▁برنز	-12.3064
RP	-12.3067
▁استخوانی	-12.307
▁گرانشی	-12.3071
▁کولر	-12.3071
300	-12.3074
▁لات	-12.3075
▁گردانید	-12.3076
▁ماوس	-12.3079
amp	-12.3079
▁کیو	-12.3081
ms	-12.3082
▁میداند	-12.3084
▁شارژر	-12.3086
▁مواقعی	-12.3088
▁pa	-12.3091
شکل	-12.3093
۲۰۰	-12.3093
طیع	-12.3095
tur	-12.3102
درس	-12.3103
▁موجه	-12.3105
▁مظلوم	-12.3105
▁اخ	-12.3106
ندا	-12.3109
لات	-12.3109
۳۸	-12.3109
▁مادرتان	-12.3113
▁خواد	-12.3114
▁کدامند	-12.3115
▁مقاومتی	-12.3119
Co	-12.3119
▁اشراف	-12.3121
▁فروشد	-12.3121
اهی	-12.3121
▁1900	-12.3122
▁علمای	-12.3123
▁منشی	-12.3125
▁پهلو	-12.3127
▁دخترک	-12.3131
▁راکتور	-12.3136
▁کششی	-12.3138
tan	-12.3142
▁جایش	-12.3144
هایم	-12.3146
▁احت	-12.3149
),	-12.315
day	-12.315
600	-12.315
▁ریل	-12.3151
LC	-12.3152
▁لیون	-12.3154
لیک	-12.3154
ker	-12.3155
▁بلك	-12.3156
OT	-12.3157
▁رویش	-12.3159
▁توصیفی	-12.3159
▁امنی	-12.3163
▁عرف	-12.3166
▁بخوان	-12.3166
▁نروژی	-12.317
چل	-12.3171
▁عرفان	-12.3172
▁اسیدی	-12.3173
▁Gu	-12.3176
▁105	-12.3178
▁هشیار	-12.3178
▁۵۰۰۰	-12.3178
▁آرای	-12.3178
▁بوس	-12.3183
▁y	-12.3183
▁حتم	-12.3184
SL	-12.3184
▁89	-12.3188
سیس	-12.3188
▁Inter	-12.3193
▁پیل	-12.3197
سوم	-12.3199
▁دوستدار	-12.32
▁رفاهی	-12.32
▁اصطلاحی	-12.3204
▁Us	-12.3205
؟...	-12.3206
▁تص	-12.3208
دال	-12.3214
ake	-12.3214
▁CA	-12.3217
▁9-	-12.3224
ano	-12.323
▁پختن	-12.323
▁Mini	-12.3233
▁450	-12.3233
▁بهتره	-12.3233
▁ادل	-12.3235
▁ریک	-12.3235
[3]	-12.3235
همیشه	-12.3235
جامعه	-12.3235
WEB	-12.3235
فرهنگ	-12.3236
غذا	-12.3236
▁جل	-12.3236
▁محتواهای	-12.3238
▁امریکای	-12.3239
▁همدست	-12.3239
كس	-12.3239
▁پایانه	-12.3241
▁شرت	-12.3242
qui	-12.3243
▁بشمار	-12.3247
▁اسفند	-12.3249
ٍ	-12.3249
▁احادیث	-12.3249
▁بیاندازیم	-12.3249
▁تعاریف	-12.3249
▁غیرمجاز	-12.3249
▁فایروال	-12.3249
▁لیتیوم	-12.3249
▁مبدأ	-12.3249
▁کرواسی	-12.3249
▁متورم	-12.3249
▁باربارا	-12.3249
▁کشتیرانی	-12.3249
▁خونسرد	-12.3249
▁التماس	-12.3249
▁پکیج	-12.3249
▁سرشماری	-12.3249
▁یکجانبه	-12.3249
▁واقف	-12.3249
▁استمرار	-12.325
ايجاد	-12.325
▁ادیسون	-12.325
▁سیاتل	-12.325
▁موناکو	-12.325
▁1983	-12.325
جویان	-12.325
▁بیضه	-12.325
▁ورزد	-12.325
▁مغرور	-12.325
▁Night	-12.325
▁والدینی	-12.325
▁LCD	-12.325
▁چیدمان	-12.325
▁مژه	-12.325
▁Internet	-12.325
▁غير	-12.3251
▁PPC	-12.3251
▁بیاموزند	-12.3251
▁فجر	-12.3251
▁مدّت	-12.3251
▁انقدر	-12.3251
▁شاتل	-12.3251
▁عکسبرداری	-12.3251
▁اکسل	-12.3251
▁بگذرد	-12.3252
▁امكان	-12.3252
▁پايان	-12.3252
▁دروغگویی	-12.3252
▁۱۹۸۱	-12.3252
▁مسوولیت	-12.3252
▁Page	-12.3252
▁خلیل	-12.3253
▁قاطعیت	-12.3253
▁James	-12.3253
▁بشنویم	-12.3253
▁گپ	-12.3254
▁بخاری	-12.3255
▁SP	-12.3255
▁نخبه	-12.3255
▁بکشیم	-12.3256
iss	-12.3256
▁فیزیکدانان	-12.3256
▁درمیان	-12.3258
▁اینجوری	-12.3258
▁خودروسازان	-12.3258
▁>>	-12.3259
▁رؤسای	-12.3259
▁عاجز	-12.3259
▁ظالمانه	-12.3259
▁کراس	-12.3259
▁نزن	-12.3259
▁خیمه	-12.326
▁بارندگی	-12.3261
▁بمیرم	-12.3261
▁مزاحمت	-12.3264
▁مصوبه	-12.3265
▁هرچقدر	-12.327
▁مافوق	-12.327
▁ناشران	-12.3271
▁94	-12.3272
▁بدنسازی	-12.3272
وایی	-12.3273
▁وود	-12.3274
▁زمانبندی	-12.3274
▁مولر	-12.3275
▁CI	-12.3276
kin	-12.3277
ile	-12.3279
٫۸	-12.3279
▁تق	-12.3279
▁توسل	-12.3281
▁بندد	-12.3282
▁مل	-12.3283
▁قالی	-12.3283
▁Ste	-12.3285
▁83	-12.3285
▁فری	-12.3289
▁چاپگر	-12.329
▁صدقه	-12.3291
▁سواران	-12.3294
▁فید	-12.3295
▁کرات	-12.3295
▁پارکر	-12.3299
▁نظیری	-12.33
توی	-12.3301
طول	-12.3301
▁ICO	-12.3303
▁داو	-12.3306
▁Che	-12.3308
▁دامپزشکی	-12.3314
▁خاتمی	-12.3315
▁اکثراً	-12.3317
▁کاهن	-12.3319
EX	-12.3321
▁رن	-12.3322
▁ناسازگاری	-12.3322
-8	-12.3325
▁دستاوردها	-12.3325
MO	-12.3326
دهنده	-12.3328
back	-12.3331
▁May	-12.3331
▁فود	-12.3332
▁دستکش	-12.3334
rm	-12.3335
▁Mich	-12.3337
▁برکناری	-12.3337
▁سهامدار	-12.3338
▁کلاً	-12.3338
نیز	-12.3341
▁IR	-12.3342
▁نمیکنند	-12.3343
▁Vi	-12.3344
▁ممکنه	-12.3345
▁محمدی	-12.3346
ral	-12.3347
ei	-12.3347
▁اوبر	-12.3351
▁زبانهای	-12.3352
آقای	-12.3352
▁King	-12.3354
میان	-12.3355
▁AS	-12.3357
▁87	-12.3357
▁الب	-12.3357
ریو	-12.3358
قرار	-12.3358
۲۶	-12.3358
▁پروازها	-12.3361
▁پتو	-12.3362
▁قانونگذار	-12.3362
58	-12.3364
▁Dis	-12.3366
ken	-12.3367
▁وایت	-12.3368
▁سمینارها	-12.3369
▁(18	-12.337
▁کندتر	-12.3373
ایند	-12.3374
▁کیس	-12.3374
▁سیرک	-12.3374
▁پروازی	-12.3378
TE	-12.3386
▁هاروی	-12.3391
ورش	-12.3399
▁کوره	-12.34
▁وکارها	-12.34
▁همتا	-12.3402
۳۲	-12.3407
فرا	-12.3409
▁پریدن	-12.341
▁فلو	-12.3411
ever	-12.3412
أت	-12.3417
▁خراش	-12.3418
امید	-12.3418
/3	-12.342
▁دایناسور	-12.3422
▁موری	-12.3423
▁Ri	-12.3424
▁گوا	-12.3426
▁میکروسکوپی	-12.3428
▁لئو	-12.3429
▁جاها	-12.3431
▁MI	-12.3435
▁State	-12.3442
لق	-12.3444
▁(7	-12.3447
06	-12.3448
گام	-12.3448
▁گفتگویی	-12.3452
▁جدیت	-12.3459
▁شرک	-12.3462
▁لایک	-12.3462
باس	-12.3466
▁فرما	-12.3467
▁چرم	-12.3472
▁خودمختار	-12.3472
جین	-12.3479
طبق	-12.3488
زاک	-12.3488
GR	-12.3491
73	-12.3491
▁باگ	-12.3491
▁چسبند	-12.3492
رنج	-12.3492
▁جنگجو	-12.3493
▁خودآگاه	-12.3495
جز	-12.3497
▁رقصیدن	-12.3505
پینگ	-12.3506
ورد	-12.3511
▁جولی	-12.3516
▁ابتکاری	-12.3516
لوس	-12.3517
ضد	-12.3517
▁زنبورها	-12.3517
Con	-12.352
ND	-12.3522
گرایانه	-12.3526
▁رحمتی	-12.3527
▁عاج	-12.3527
ks	-12.3527
▁مجسم	-12.3528
تقریبا	-12.3529
حفظ	-12.3529
▁٨	-12.353
عملیات	-12.353
همانطور	-12.353
box	-12.353
af	-12.353
فصل	-12.3532
▁لیر	-12.3534
▁آناتومی	-12.3534
گذشت	-12.3538
موت	-12.3538
▁طالب	-12.3538
▁آرک	-12.3538
▁محتوی	-12.3539
ita	-12.3542
▁سیار	-12.3543
▁بازنشستگان	-12.3543
▁بلشویک	-12.3543
▁تاريخ	-12.3543
▁سحابی	-12.3543
▁عاطفه	-12.3543
▁غلیظ	-12.3543
▁مشغله	-12.3543
▁معظم	-12.3543
▁منسوخ	-12.3543
▁موتورسیکلت	-12.3543
▁ناهموار	-12.3543
▁گارانتی	-12.3543
▁دعوی	-12.3543
▁ماوراء	-12.3543
▁هاوکینگ	-12.3543
▁کارائیب	-12.3543
▁معذرت	-12.3543
▁افتضاح	-12.3543
▁مقعد	-12.3544
▁سیلندر	-12.3544
▁Show	-12.3544
▁مونترال	-12.3544
▁فرهاد	-12.3544
▁مرفه	-12.3544
▁غریزی	-12.3544
▁یحیی	-12.3544
▁مونتاژ	-12.3544
▁متمدن	-12.3544
▁اكنون	-12.3544
▁ظرفشویی	-12.3544
▁بگوئید	-12.3544
▁مداربسته	-12.3544
▁بپوشانید	-12.3544
▁1965	-12.3544
▁1961	-12.3544
▁عبرت	-12.3544
▁1947	-12.3544
▁1977	-12.3544
▁هلیوم	-12.3544
▁كوچك	-12.3544
▁چاوز	-12.3544
▁شناسنامه	-12.3545
▁HTC	-12.3545
▁غیرضروری	-12.3545
▁گلایه	-12.3545
▁ناممکن	-12.3545
▁هموطنان	-12.3545
▁Ben	-12.3545
▁پرخطر	-12.3545
▁الْ	-12.3546
▁Speed	-12.3546
▁مجلل	-12.3546
▁خازن	-12.3547
▁ناتمام	-12.3548
▁ایزوتوپ	-12.3548
یلر	-12.3548
▁بابل	-12.3548
▁وسطایی	-12.3549
▁کمد	-12.3549
▁آمینه	-12.3549
▁بیلیون	-12.355
▁نتوانستیم	-12.355
▁آخه	-12.355
▁ایستد	-12.355
▁کوپن	-12.355
▁Top	-12.3551
▁Cl	-12.3551
▁اطرافش	-12.3552
▁بفرد	-12.3552
▁تشکل	-12.3552
▁محال	-12.3553
▁آرزوها	-12.3553
▁رژه	-12.3553
▁گزیده	-12.3553
56	-12.3555
▁Times	-12.3555
رش	-12.3556
▁سجاد	-12.3556
▁بحال	-12.3557
▁جنگیدند	-12.3557
▁خش	-12.3559
▁58	-12.356
▁تجارتی	-12.3561
▁Key	-12.3561
▁٥	-12.3561
▁...»	-12.3564
▁مخ	-12.3566
▁2013،	-12.3566
▁بیهوشی	-12.3568
▁غواصی	-12.3568
▁بایستد	-12.3569
▁مسلمین	-12.3569
▁بخواهی	-12.3571
▁آرشیوهای	-12.3574
تول	-12.3578
TO	-12.3578
▁آهنگساز	-12.358
دیس	-12.3581
ria	-12.3581
▁استاندار	-12.3583
▁84	-12.3585
▁نواخت	-12.3585
IR	-12.3587
▁همخوان	-12.3589
ورت	-12.3592
▁ظن	-12.3594
▁میشم	-12.3594
▁نشون	-12.3595
▁کلن	-12.3596
▁بجا	-12.3597
▁دونی	-12.36
▁۵۱	-12.3602
▁دوبله	-12.3602
De	-12.3606
▁همگرایی	-12.3607
نل	-12.3607
وارد	-12.361
مز	-12.3613
▁Mad	-12.3614
▁خانوم	-12.3615
▁تئو	-12.3615
▁شدیدترین	-12.3617
▁کون	-12.3618
▁پرتوهای	-12.362
▁موکل	-12.3621
▁جنجالی	-12.3623
fer	-12.3628
▁پاکت	-12.3629
▁عمرم	-12.3633
▁کارگردانان	-12.3638
دانه	-12.3639
▁بلی	-12.3642
▁انگیزشی	-12.3642
▁UN	-12.3649
▁انیم	-12.3649
▁میزند	-12.365
men	-12.3653
▁فَ	-12.3654
▁٪	-12.3658
▁آموزی	-12.3659
٤	-12.3659
▁مارکسیستی	-12.366
▁ad	-12.3663
سیون	-12.3663
vis	-12.3664
▁کفار	-12.3664
PL	-12.3666
oon	-12.3667
▁1.7	-12.3667
▁تج	-12.3669
▁یِ	-12.367
باف	-12.367
درد	-12.367
/0	-12.3671
▁برگشتن	-12.3673
▁Chi	-12.3673
▁لیز	-12.3677
▁بنر	-12.3677
▁بدبخت	-12.3679
▁ياد	-12.3681
دلار	-12.3683
▁ميان	-12.3687
▁میتوانم	-12.3687
▁زم	-12.3689
▁بازخوردهای	-12.3694
▁تجویزی	-12.3694
▁شبح	-12.37
▁استوارت	-12.3703
▁ED	-12.3706
int	-12.3708
▁مواز	-12.3711
FT	-12.3712
-18	-12.3717
▁مرورگرهای	-12.372
▁۹۷	-12.3723
یته	-12.3726
وتا	-12.3728
▁زین	-12.3729
light	-12.3731
▁غیب	-12.3732
▁ASP	-12.3732
اها	-12.3736
▁علیهم	-12.3736
▁هن	-12.3738
▁تامل	-12.3739
▁CC	-12.3743
▁ازآن	-12.3743
▁طبعی	-12.3745
ring	-12.3747
رل	-12.3752
-15	-12.3752
ator	-12.3753
▁پوشاند	-12.3756
مک	-12.3763
بط	-12.3765
▁فضانورد	-12.3766
▁Er	-12.377
▁پیرتر	-12.3772
▁سردرگم	-12.3776
▁آشپز	-12.3776
▁برآمده	-12.3777
▁زنها	-12.3781
▁روزگاری	-12.3783
▁مقدمات	-12.3784
سایت	-12.3788
▁فیلمساز	-12.3789
RT	-12.3789
▁١٠	-12.3791
▁راس	-12.3791
")	-12.3795
▁نزدیکان	-12.3796
▁کانت	-12.3798
▁بعدش	-12.3799
▁پره	-12.3799
راس	-12.3802
NC	-12.3804
▁شیو	-12.3804
ویک	-12.3806
تیان	-12.3806
آفرین	-12.3808
ren	-12.3809
▁اندیش	-12.381
پش	-12.3813
مدت	-12.3814
▁SO	-12.3814
ast	-12.3816
van	-12.3817
▁زراع	-12.3817
ert	-12.3819
▁بعدتر	-12.3821
بانی	-12.3825
▁میبرد	-12.3828
▁دستمزدها	-12.3828
واسطه	-12.383
▁پنی	-12.3832
▁کُ	-12.3832
پاسخ	-12.3833
▁راهکاری	-12.3834
▁الس	-12.3834
اطلاعات	-12.3834
گم	-12.3836
▁کارساز	-12.3837
\"	-12.3841
▁ظالم	-12.3842
▁Note	-12.3843
ؤ	-12.3844
▁نورده	-12.3845
▁مصون	-12.3846
▁انقضا	-12.3846
▁تسبیح	-12.3846
▁زرادخانه	-12.3846
▁شأن	-12.3846
▁فجایع	-12.3846
▁مركز	-12.3846
▁مشوق	-12.3846
▁معاهدات	-12.3846
▁معیوب	-12.3846
▁نردبان	-12.3846
▁نعوظ	-12.3846
▁پتروشیمی	-12.3846
▁کبوتر	-12.3846
▁قیاس	-12.3846
▁لغزش	-12.3846
▁استنباط	-12.3847
▁پراکندگی	-12.3847
▁فلورانس	-12.3847
▁سانتیگراد	-12.3847
▁فاتح	-12.3847
▁Duty	-12.3847
▁محافل	-12.3847
▁گجت	-12.3847
▁آماتور	-12.3847
▁۱۹۸۹	-12.3847
▁نبوغ	-12.3847
▁۱۹۹۷	-12.3847
▁بشکند	-12.3847
▁واکسین	-12.3847
▁Ghost	-12.3847
▁رجب	-12.3847
▁باینری	-12.3847
▁LTE	-12.3847
▁سرمايه	-12.3847
▁FBI	-12.3847
▁لباسشویی	-12.3847
ius	-12.3847
▁1966	-12.3847
▁عقاب	-12.3847
▁وآله	-12.3847
▁رومیزی	-12.3847
▁مبحث	-12.3847
▁توخالی	-12.3847
▁بچگی	-12.3848
▁Battle	-12.3848
▁مسطح	-12.3848
لب	-12.3848
▁آفیس	-12.3848
▁مشرق	-12.3848
▁تلگراف	-12.3848
▁بنویسیم	-12.3848
▁First	-12.3848
خامت	-12.3849
▁حیف	-12.3849
▁HDL	-12.3849
▁جیغ	-12.3849
▁ایسنا	-12.3849
▁مغول	-12.385
▁جیسون	-12.385
▁پرنسس	-12.3851
▁بشنوم	-12.3851
▁کوشد	-12.3852
▁استاتیک	-12.3852
▁سعد	-12.3852
▁پیشینیان	-12.3852
▁شنیدیم	-12.3852
▁بخوانیم	-12.3853
▁ISP	-12.3854
▁الکترولیت	-12.3855
▁فعاليت	-12.3857
▁یوحنا	-12.3858
▁CDC	-12.3859
▁جراحات	-12.386
▁ري	-12.3861
▁فست	-12.3861
▁مجاورت	-12.3863
كل	-12.3865
▁ماندلا	-12.3865
ire	-12.3866
▁Cap	-12.3867
▁تفریحات	-12.3869
کاپ	-12.387
▁رولت	-12.387
▁جنایتکار	-12.387
▁دورانی	-12.3872
▁1.3	-12.3872
▁میانجی	-12.3874
▁سزار	-12.3876
▁الفبای	-12.3876
Final	-12.3876
▁درمانگاه	-12.388
دلیل	-12.388
▁تاجران	-12.388
▁پینگ	-12.388
▁0.1	-12.3881
▁خوا	-12.3884
MC	-12.3888
▁Mu	-12.3889
ning	-12.3891
du	-12.3891
▁مساعدت	-12.3892
AD	-12.3892
▁بندند	-12.3892
▁سوسک	-12.3892
▁AM	-12.3895
بانک	-12.3896
▁آرژانتینی	-12.3897
▁کارما	-12.3897
▁Ge	-12.3899
▁آنتونیو	-12.3901
▁جدای	-12.3903
▁رسيد	-12.3903
▁(13	-12.3905
تب	-12.3906
cent	-12.3908
▁نشستند	-12.3908
▁دیک	-12.391
▁کدها	-12.391
خواب	-12.391
ائر	-12.391
▁رپ	-12.3913
▁مؤثرتر	-12.3914
غرب	-12.3915
▁قضاییه	-12.3918
ft	-12.3918
▁سردی	-12.3918
▁خوشحالیم	-12.3921
▁راهنماهای	-12.3921
▁غل	-12.3926
جد	-12.3926
▁کرک	-12.3927
▁Hi	-12.3929
▁مم	-12.3929
دارند	-12.3932
۹۰	-12.3933
ael	-12.3933
▁غارهای	-12.3934
نمود	-12.3938
▁نبرده	-12.394
▁روزبه	-12.3943
▁ساختارها	-12.3944
▁سکوی	-12.3944
eb	-12.3947
▁بازتابی	-12.3947
▁گریس	-12.3948
▁خل	-12.395
▁خرسند	-12.3951
▁مسئولانه	-12.3953
▁Way	-12.3953
▁ساعاتی	-12.3956
فیس	-12.3957
/4	-12.3957
قط	-12.3958
▁موتوری	-12.3962
▁Sam	-12.3967
▁پاندا	-12.3968
chi	-12.397
▁فروشید	-12.3972
▁دایناسورها	-12.3974
▁زندگیم	-12.3974
▁بزنی	-12.3974
طه	-12.3974
▁1.6	-12.398
▁انت	-12.3983
▁استونی	-12.3987
▁ض	-12.3991
▁رک	-12.3994
▁هلن	-12.4002
▁هوشمندی	-12.4004
▁داون	-12.4007
▁اهم	-12.4009
▁اشتهای	-12.4009
▁نپذیرفت	-12.401
▁جارو	-12.401
▁بارسا	-12.4011
▁سیزدهم	-12.4013
يق	-12.4017
▁اسپ	-12.4018
▁do	-12.402
▁همسو	-12.402
▁پیکار	-12.4022
▁صالحی	-12.4025
▁مدارهای	-12.4028
▁توجیهی	-12.4033
FI	-12.4039
this	-12.404
اشی	-12.404
mat	-12.4042
▁لوسی	-12.4043
▁وزنی	-12.4043
خاطرات	-12.4047
▁نظرشان	-12.4049
DP	-12.4049
▁پروردگارت	-12.4051
▁کارا	-12.4051
جای	-12.4053
؟؟؟؟	-12.4053
دول	-12.406
▁350	-12.406
▁آراست	-12.4063
▁طبع	-12.4063
▁وقتها	-12.4064
کنی	-12.4065
▁ساق	-12.4066
▁پایبندی	-12.4068
انم	-12.4068
▁هفده	-12.4068
دیم	-12.407
دکس	-12.407
سخت	-12.4073
اقتصاد	-12.4074
؟!!	-12.4074
یستا	-12.4084
▁میلیمتر	-12.4088
یسین	-12.4088
دختر	-12.4089
▁فاشیست	-12.4089
▁ارضا	-12.4091
▁كلی	-12.4094
▁اثربخش	-12.4099
▁دامپزشک	-12.4105
۵۰۰	-12.4107
▁کرو	-12.4109
ویر	-12.411
ida	-12.4113
sha	-12.4117
ولو	-12.4119
▁زر	-12.4119
▁همکارانم	-12.412
▁بکنی	-12.4121
گردد	-12.4125
▁کله	-12.4125
▁نوزده	-12.4126
۳۳	-12.4128
ens	-12.4129
▁روستاها	-12.4129
موند	-12.413
▁پیمود	-12.4133
▁تماماً	-12.4135
▁برگزید	-12.4138
▁متجاوز	-12.4139
حساب	-12.414
▁خطاها	-12.4143
▁میانبر	-12.4143
▁آبادی	-12.4143
اکنون	-12.4144
®	-12.4144
▁بنویس	-12.4145
بنابراین	-12.4145
اتحادیه	-12.4145
▁جوانا	-12.4145
▁ex	-12.4146
▁نفهمید	-12.4147
آخرین	-12.4147
▁همانجا	-12.4147
▁ناک	-12.4149
ane	-12.415
نمایند	-12.4151
محل	-12.4152
▁حداکثری	-12.4156
▁عوام	-12.4156
▁داستانهای	-12.4158
▁بيمار	-12.4158
▁مُرد	-12.4158
▁ترانزیستور	-12.4159
▁ارشاد	-12.4159
▁بفهمم	-12.4159
▁بیانجامد	-12.4159
▁تانزانیا	-12.4159
▁دیالوگ	-12.4159
▁سبحان	-12.4159
▁سطل	-12.4159
▁مصادره	-12.4159
▁موهبت	-12.4159
▁پنالتی	-12.4159
▁کاتالوگ	-12.4159
▁گشایش	-12.4159
▁یکنواخت	-12.4159
▁South	-12.4159
▁بازدارنده	-12.4159
▁حریق	-12.4159
▁کاظم	-12.4159
▁مادرزادی	-12.4159
▁ملبورن	-12.4159
▁خودسرانه	-12.4159
▁چابک	-12.4159
▁ملودی	-12.4159
▁تقلیل	-12.4159
▁اهانت	-12.4159
▁۱۹۶۹	-12.4159
▁زگیل	-12.4159
▁لبنی	-12.4159
▁رشوه	-12.4159
▁شکیبایی	-12.4159
▁مونیخ	-12.4159
▁مالاریا	-12.4159
▁ونقل	-12.4159
▁چوپان	-12.4159
▁طنین	-12.4159
▁معاشرت	-12.4159
▁فرسایش	-12.4159
▁۱۹۹۵	-12.4159
▁■	-12.4159
▁سیریزا	-12.4159
▁1956	-12.4159
▁نلسون	-12.4159
▁1974	-12.4159
▁ورزند	-12.4159
▁نیوتن	-12.416
▁تعرض	-12.416
▁ابرقدرت	-12.416
▁رصدخانه	-12.416
▁مسافربری	-12.416
▁موازنه	-12.416
نسون	-12.416
▁Hyper	-12.416
▁دیویس	-12.416
▁زکات	-12.416
▁بیاموزد	-12.416
▁برگردانید	-12.416
▁بخوابد	-12.416
▁دورافتاده	-12.4161
▁حضار	-12.4161
▁اسکایپ	-12.4161
▁اذان	-12.4161
▁HDR	-12.4162
▁بیگناه	-12.4162
▁تراکتور	-12.4163
▁نگردد	-12.4163
▁Now	-12.4164
▁your	-12.4166
▁نخوانده	-12.4167
▁صنف	-12.417
▁لنگر	-12.417
▁برآوردن	-12.4173
▁[3]	-12.4175
▁گوسفندان	-12.4175
▁پرز	-12.4175
ver	-12.4177
▁یقینا	-12.4178
▁متروکه	-12.4178
▁میخوای	-12.4181
نیاز	-12.4182
▁گلزنی	-12.4183
۹۸	-12.4183
▁شنوا	-12.4183
▁آییم	-12.4186
▁ترسیدم	-12.4186
▁کلاسهای	-12.4186
▁ژنی	-12.4188
eng	-12.419
▁اصلاحیه	-12.4191
▁صدف	-12.4191
▁ریاضت	-12.4192
NP	-12.4194
متر	-12.4194
▁نوید	-12.4195
form	-12.4198
فار	-12.4199
▁فرمانروایی	-12.4201
▁آموختم	-12.4201
▁مستحب	-12.4203
▁تعالیم	-12.4206
▁باتجربه	-12.4206
▁برکلی	-12.4211
▁آیینه	-12.4217
98	-12.4217
▁زنش	-12.422
▁BA	-12.422
▁پیمانان	-12.4221
▁کتابچه	-12.4225
▁ارسالی	-12.4226
▁مدد	-12.4229
▁سلفی	-12.423
▁مط	-12.4232
▁دبیرستانی	-12.4234
▁ارتشی	-12.4236
▁RE	-12.424
▁کوشید	-12.4243
حج	-12.4246
▁اشکالات	-12.425
▁آوردید	-12.4253
TM	-12.4253
▁باله	-12.4254
▁ناز	-12.4265
▁ايال	-12.4265
▁تنبلی	-12.4271
▁تایی	-12.4274
▁دریابند	-12.4276
نچ	-12.4278
▁هدفون	-12.428
سام	-12.4284
▁برجای	-12.4285
AI	-12.4286
بات	-12.4287
▁Big	-12.4288
▁81	-12.4288
▁CMS	-12.4292
▁پاکی	-12.4293
py	-12.4294
▁پالم	-12.4296
▁Da	-12.4298
ودی	-12.4303
▁خائن	-12.4304
▁درآمدها	-12.4305
▁برانگیختن	-12.4307
▁لورن	-12.4308
▁بادهای	-12.4309
▁زهر	-12.4313
▁اولاً	-12.4314
▁کاس	-12.4317
ans	-12.4317
طریق	-12.4317
[2]	-12.4322
▁Her	-12.4326
▁قر	-12.4327
باب	-12.4329
سرا	-12.433
تیم	-12.4331
▁Act	-12.4331
▁اج	-12.4332
▁پرداز	-12.4333
OC	-12.4333
▁مطلوبی	-12.4338
▁سب	-12.434
▁یافتم	-12.4343
مکان	-12.4352
▁شنی	-12.4354
▁برداریم	-12.4354
برداری	-12.4358
▁تأثیرگذاری	-12.4359
▁میروند	-12.436
FA	-12.4363
FS	-12.4367
▁(«	-12.4379
79	-12.4379
ایا	-12.4382
78	-12.4382
▁کانی	-12.4384
▁کاز	-12.4386
▁والدینش	-12.4387
▁co	-12.4388
▁نمیتوان	-12.439
▁سیمون	-12.4391
OP	-12.4395
of	-12.4398
▁آنهم	-12.4399
900	-12.44
نمایش	-12.4404
▁روانپزشک	-12.4406
▁هاب	-12.4411
آری	-12.4411
▁امپراطور	-12.4412
▁کوانتوم	-12.4412
▁سعود	-12.4412
▁ردیاب	-12.4413
▁z	-12.4415
گیرند	-12.4417
ذا	-12.4422
▁اکسی	-12.4423
▁بتونی	-12.4427
pro	-12.4429
▁باحال	-12.4429
board	-12.443
▁2500	-12.4431
▁۱۵۰۰	-12.4435
ورز	-12.4438
▁ساختمانهای	-12.4438
sia	-12.4438
▁حیا	-12.4439
چیده	-12.4441
گوی	-12.4442
▁NO	-12.4445
▁باغی	-12.4446
▁اکت	-12.4448
▁آپارتمانی	-12.4448
att	-12.4454
▁هابل	-12.4454
خارج	-12.4455
▁UI	-12.446
▁بش	-12.4464
▁میتوانست	-12.4466
world	-12.4467
Google	-12.4468
میلیارد	-12.4468
بازگشت	-12.4468
توسعه	-12.4468
جیمز	-12.4469
ماند	-12.4469
over	-12.4471
▁۵۳	-12.4473
▁تغيير	-12.4474
▁ببخش	-12.4475
▁برپای	-12.4475
اگرچه	-12.4478
ok	-12.4478
️	-12.4481
▁IELTS	-12.4482
▁LinkedIn	-12.4482
▁Pixel	-12.4482
▁افزايش	-12.4482
▁تثلیث	-12.4482
▁تمجید	-12.4482
▁دبلیو	-12.4482
▁رؤیت	-12.4482
▁رنسانس	-12.4482
▁متزلزل	-12.4482
▁نینتندو	-12.4482
▁پادکست	-12.4482
▁پطرس	-12.4482
▁ختنه	-12.4482
▁المقدس	-12.4482
▁حصر	-12.4482
▁دودویی	-12.4482
▁جسارت	-12.4482
▁فرانکفورت	-12.4482
▁مجرب	-12.4482
▁گالیله	-12.4482
▁نمیدانم	-12.4482
▁پانصد	-12.4482
▁1946	-12.4482
▁ارگاسم	-12.4482
▁استرداد	-12.4482
▁بامداد	-12.4482
▁میسازد	-12.4482
▁بیتکوین	-12.4482
▁مظهر	-12.4482
▁اعتنایی	-12.4482
مخازن	-12.4482
▁پارگی	-12.4482
▁شروط	-12.4482
▁جسورانه	-12.4482
▁◄	-12.4482
▁NBA	-12.4482
▁SSD	-12.4483
▁فانوس	-12.4483
▁رستاخیز	-12.4483
▁راجرز	-12.4483
▁لیبرالیسم	-12.4483
▁دلفین	-12.4483
▁تجدیدنظر	-12.4483
▁شوالیه	-12.4483
▁گوزن	-12.4483
hui	-12.4483
▁کریستوفر	-12.4483
▁حیث	-12.4483
▁نگیرند	-12.4483
▁شفقت	-12.4484
▁نرسد	-12.4484
▁سیسکو	-12.4484
▁جنگهای	-12.4484
▁سکانس	-12.4485
▁Point	-12.4485
▁کولون	-12.4485
▁Trans	-12.4485
▁اندیشند	-12.4485
▁pH	-12.4485
▁سپردن	-12.4485
▁اسلات	-12.4485
▁°	-12.4486
▁پوکر	-12.4486
▁ERP	-12.4486
▁استریم	-12.4486
▁THE	-12.4486
▁1967	-12.4486
▁Space	-12.4486
▁سروصدا	-12.4486
▁Video	-12.4486
طلب	-12.4487
▁شبكه	-12.4487
▁مگ	-12.4487
▁Type	-12.4487
▁Micro	-12.4487
▁مسری	-12.4488
▁سنجیده	-12.4488
▁چطوری	-12.4489
▁ماکرون	-12.449
▁کنسل	-12.4491
jo	-12.4492
▁سوپرمن	-12.4492
▁عا	-12.4492
▁نشینند	-12.4493
▁جمهوریخواهان	-12.4493
▁دي	-12.4493
▁کمرنگ	-12.4495
▁اردک	-12.4496
▁کامیابی	-12.4497
▁جاسازی	-12.4498
▁++	-12.4499
▁روحانیون	-12.4502
▁مطهری	-12.4504
▁مجرای	-12.4504
یك	-12.4504
▁میهمان	-12.4506
یشن	-12.4507
▁ماهیانه	-12.4507
روزی	-12.4508
▁نورانی	-12.4508
▁موت	-12.4509
▁Bank	-12.4509
▁خوردیم	-12.4511
▁پرسیم	-12.4512
▁زراعت	-12.4513
▁حاجت	-12.4513
▁شگرف	-12.4515
▁پردازشگر	-12.4515
ors	-12.4515
ري	-12.4515
▁فهمیدند	-12.4518
▁افتخارات	-12.452
آیند	-12.4523
▁دستوری	-12.4525
▁Min	-12.4526
less	-12.4533
اگو	-12.4534
▁صاحبش	-12.4535
▁Lu	-12.4536
وگرافی	-12.4537
▁اسپر	-12.4537
▁کوپر	-12.4537
▁پردازان	-12.4539
ستگی	-12.4541
▁زانوی	-12.4547
▁پسندید	-12.455
▁مج	-12.455
▁فرسا	-12.4556
▁سرکار	-12.4559
لیا	-12.456
جنس	-12.4561
وست	-12.4563
▁ترافیکی	-12.4564
▁موردش	-12.4567
پسند	-12.4568
▁چشمانم	-12.457
▁روبی	-12.4572
حو	-12.4572
▁درصدد	-12.4572
▁آمدی	-12.4574
Po	-12.4576
▁جدیدش	-12.4577
▁کارکردهای	-12.4578
▁ساب	-12.458
▁(5)	-12.4583
▁راسل	-12.4584
GB	-12.4586
ali	-12.4586
▁براش	-12.4588
-0	-12.4593
▁ديد	-12.4593
▁گزاری	-12.4596
▁زمين	-12.4601
▁Gra	-12.4606
▁میکروسکوپ	-12.461
▁مؤثری	-12.461
Pro	-12.4611
▁5)	-12.4614
▁کورت	-12.4615
▁جویا	-12.4619
▁بانو	-12.4622
▁SI	-12.4624
▁دیدگاهی	-12.4627
▁اخت	-12.4629
▁هوک	-12.4632
FO	-12.4634
▁طوفانی	-12.4635
▁کمکم	-12.4635
UM	-12.464
ازم	-12.4641
وشی	-12.4641
▁هیپ	-12.4643
کوب	-12.4652
▁Bio	-12.4653
برخی	-12.4654
▁لاو	-12.4656
▁1,	-12.466
▁خودخواهی	-12.466
erry	-12.466
▁دایم	-12.4664
▁فضاها	-12.4665
▁Tim	-12.4666
ram	-12.4669
وژن	-12.4671
▁تویی	-12.4678
▁سینا	-12.4682
قلب	-12.4682
غر	-12.4682
▁EC	-12.4684
▁Blu	-12.4687
▁لیس	-12.4691
▁بالی	-12.4692
▁افتادم	-12.4697
▁فور	-12.4697
▁as	-12.4698
▁73	-12.4699
▁نزده	-12.4699
▁6:	-12.4702
ku	-12.4704
▁گوشتی	-12.4704
ani	-12.4704
▁دعاهای	-12.4706
تای	-12.4707
berg	-12.4708
her	-12.471
lim	-12.4711
۳۹	-12.4715
MU	-12.4719
▁کارمان	-12.4721
▁مگا	-12.4726
▁Ke	-12.4731
یزاسیون	-12.4732
نما	-12.4737
▁فلک	-12.4738
▁پاش	-12.4739
تام	-12.474
▁عاد	-12.4744
▁قارچی	-12.4744
▁Hu	-12.4747
▁Read	-12.4747
▁پار	-12.4749
/10	-12.475
▁نک	-12.4751
▁فرضی	-12.4752
▁it	-12.4752
CD	-12.4752
ons	-12.4754
ET	-12.4756
▁الگوها	-12.4756
▁راهب	-12.4759
▁پریشان	-12.4759
MR	-12.4759
▁con	-12.4761
▁سرایی	-12.4762
▁سهامی	-12.4762
علت	-12.4763
▁go	-12.4765
▁لباسی	-12.4768
سیا	-12.4769
▁نگهبانی	-12.4773
راج	-12.4773
▁کوری	-12.478
▁سرمای	-12.478
▁ندید	-12.4784
▁پهپاد	-12.4785
COM	-12.4786
▁تومورها	-12.4788
لید	-12.4788
▁دادستانی	-12.4792
نتی	-12.4793
▁آثاری	-12.4794
▁راهرو	-12.4794
انتخاب	-12.4795
فشار	-12.4797
▁سرکوبگر	-12.4798
ارتباط	-12.4798
▁مسئل	-12.4799
حقوق	-12.4801
خانواده	-12.4801
کنترل	-12.4801
هنوز	-12.4801
کاهش	-12.4801
▁عرش	-12.4801
▁نکنی	-12.4802
▁حفر	-12.4803
book	-12.4804
eter	-12.4806
▁استعدادها	-12.4806
ther	-12.4807
▁بگذر	-12.4809
▁ویراستار	-12.4812
▁مشكل	-12.4813
▁فیزیولوژی	-12.4813
▁پابرجا	-12.4813
همسر	-12.4815
▁English	-12.4815
▁Technology	-12.4815
▁iTunes	-12.4815
▁ارتعاش	-12.4815
▁انصراف	-12.4815
▁اهواز	-12.4815
▁غیرانتفاعی	-12.4815
▁مستعمرات	-12.4815
▁مصطفی	-12.4815
▁منحصربفرد	-12.4815
▁نساجی	-12.4815
▁کمیساریا	-12.4815
▁آنتالیا	-12.4815
▁اقشار	-12.4815
▁بپردازم	-12.4815
▁غیرمنطقی	-12.4815
▁مستعار	-12.4815
▁انتاریو	-12.4815
▁جوملا	-12.4815
▁نیکاراگوئه	-12.4815
▁بوداپست	-12.4815
▁تلاوت	-12.4815
▁ملّی	-12.4815
▁۱۹۸۵	-12.4815
▁پرینستون	-12.4815
▁آئودی	-12.4815
▁نكرد	-12.4815
▁بشوم	-12.4815
▁براکت	-12.4815
▁رعد	-12.4816
▁رباط	-12.4816
▁شرافت	-12.4816
▁ربودن	-12.4816
▁هشداردهنده	-12.4816
▁گیلاس	-12.4816
▁حراست	-12.4816
▁صادرکنندگان	-12.4816
▁East	-12.4816
▁شارون	-12.4816
▁ندهیم	-12.4816
▁صفوف	-12.4816
▁دلگرم	-12.4816
▁مهلک	-12.4817
▁سلیم	-12.4817
▁ابله	-12.4817
▁کدگذاری	-12.4817
▁سربلند	-12.4818
▁سوچی	-12.4818
▁North	-12.4818
▁شهوت	-12.4818
▁دهقانان	-12.4818
▁GDP	-12.482
▁نانومتر	-12.482
عات	-12.4821
▁بیاییم	-12.4822
▁نادری	-12.4822
▁Bad	-12.4822
▁آلبرتا	-12.4823
حس	-12.4823
▁تشریفات	-12.4823
▁×	-12.4823
▁میهمانان	-12.4823
▁پرهیزگار	-12.4824
▁CH	-12.4824
▁لویی	-12.4826
▁نگذاشته	-12.4828
▁جاستین	-12.4828
رضا	-12.4829
▁پایتون	-12.483
▁داماد	-12.483
ونیک	-12.483
▁بزرگداشت	-12.4833
▁Island	-12.4834
گانگی	-12.4834
▁گردهم	-12.4836
▁\"	-12.4837
▁کرزی	-12.4837
▁باربری	-12.4839
▁دوحه	-12.4845
▁پیوستند	-12.4845
▁نمیتونم	-12.4848
▁ابتلای	-12.485
▁بدارد	-12.4851
▁دیگ	-12.4852
دّ	-12.4852
▁شیفته	-12.4853
▁پیوندد	-12.4853
▁امیلی	-12.4854
فَ	-12.4856
▁نداشتید	-12.4857
▁اسکو	-12.4857
▁نسبیت	-12.4858
▁Men	-12.4863
▁هز	-12.4866
vers	-12.4866
IL	-12.4867
▁بریس	-12.4871
▁تحریر	-12.4872
سلامت	-12.4877
▁جادوگران	-12.488
▁Rock	-12.4881
war	-12.4882
▁گرفتاری	-12.4884
▁اتحادی	-12.4888
▁رایان	-12.4889
▁یونگ	-12.489
▁سون	-12.4892
ئي	-12.4892
▁PR	-12.4894
فال	-12.4894
▁پاتوژن	-12.4896
▁بیشماری	-12.4896
ze	-12.4901
هد	-12.4901
▁Bay	-12.4901
دستی	-12.4903
PT	-12.4905
part	-12.4905
نوعی	-12.4906
نگر	-12.4908
ae	-12.4908
▁بورد	-12.4911
site	-12.4911
رفتار	-12.4912
▁توام	-12.4912
▁Fo	-12.4914
▁حما	-12.4915
▁رومیان	-12.4916
▁ایل	-12.4917
شکست	-12.4921
BT	-12.4922
▁۶۶	-12.4922
برو	-12.4924
▁سیاهی	-12.4928
▁چرخشی	-12.4928
▁دولتها	-12.4931
Al	-12.4932
eg	-12.4933
▁محرکه	-12.4934
▁تصوری	-12.4935
نیت	-12.4935
len	-12.4936
▁IC	-12.4936
▁آگ	-12.4939
▁ند	-12.494
▁آغازگر	-12.4942
▁(4)	-12.4942
ME	-12.4942
▁تنه	-12.4943
lt	-12.4946
کدام	-12.4947
ala	-12.4948
rim	-12.4951
▁میادین	-12.4952
▁شکمی	-12.4954
سوره	-12.4954
ودا	-12.4955
▁شرکا	-12.4958
▁دونده	-12.496
.))	-12.496
▁نوارهای	-12.496
▁فانی	-12.496
يب	-12.4963
▁اپراتورها	-12.4964
▁طرفداری	-12.4967
▁Vol	-12.4974
ناز	-12.498
▁مندرج	-12.4982
▁۱۸۰	-12.4983
HR	-12.4984
GP	-12.4991
▁مراقبتی	-12.4995
▁براق	-12.4998
▁(8	-12.5007
▁ادراری	-12.5007
▁کوهی	-12.5008
PE	-12.5008
▁Not	-12.5012
خانی	-12.5012
▁نواز	-12.5016
▁لاغری	-12.5017
اهل	-12.5018
▁CT	-12.5024
▁رؤیای	-12.5027
▁بدونم	-12.5029
▁TM	-12.503
▁سیمان	-12.5036
GA	-12.5039
▁خرما	-12.5039
پری	-12.5042
▁بازیهای	-12.5044
ship	-12.5044
ible	-12.5044
▁Ju	-12.5045
▁مداران	-12.5056
▁كل	-12.5058
سای	-12.5061
پیک	-12.5061
7.5	-12.5065
گى	-12.5067
دانش	-12.5068
▁برس	-12.5069
▁خوابم	-12.507
▁بنت	-12.5073
met	-12.5074
con	-12.5075
▁آرش	-12.5077
هُ	-12.5077
▁بارهای	-12.5078
▁انگشتر	-12.5079
▁فشارها	-12.5085
▁کوی	-12.5088
▁Jo	-12.5088
BI	-12.5092
▁هردوی	-12.5094
▁خداحافظ	-12.5095
ئول	-12.5096
تنی	-12.5101
well	-12.5103
▁ساختم	-12.5106
▁Lee	-12.5107
get	-12.5107
sky	-12.5109
سنت	-12.5111
▁شادمان	-12.5115
▁پیگیر	-12.5116
▁هیلی	-12.5116
▁همين	-12.5118
▁مسوول	-12.512
▁لام	-12.5122
ادامه	-12.5124
گانه	-12.5124
▁هکرهای	-12.5125
▁تبت	-12.5132
▁ماندم	-12.5133
▁اشغالی	-12.5134
▁پات	-12.5135
▁رژیمی	-12.5135
▁آلیاژ	-12.514
مشکل	-12.5145
پوینت	-12.5145
تلاش	-12.5145
افزایش	-12.5146
خدمات	-12.5146
صفحه	-12.5146
نسخه	-12.5146
وضعیت	-12.5146
▁Tom	-12.5146
سخن	-12.5147
++	-12.5148
رابطه	-12.5149
▁190	-12.515
▁خودخواه	-12.5151
▁ژاک	-12.5151
row	-12.5152
▁متعاقب	-12.5155
He	-12.5157
▁مشروب	-12.5157
▁عقلی	-12.5159
▁ناشنوا	-12.516
▁آلرژن	-12.516
▁بنجامین	-12.516
▁بینجامد	-12.516
▁ثواب	-12.516
▁حبوبات	-12.516
▁لاریجانی	-12.516
▁مغفرت	-12.516
▁مقدّس	-12.516
▁پارادایم	-12.516
▁هنرپیشه	-12.516
▁میخواد	-12.516
▁Azure	-12.516
▁طريق	-12.516
▁پانکراس	-12.516
▁ماراتن	-12.516
▁مقاطع	-12.516
▁بچرخانید	-12.516
▁مقتول	-12.516
▁برخي	-12.516
▁دقایق	-12.516
▁روي	-12.516
▁اوراسیا	-12.516
▁آشغال	-12.516
طراحی	-12.516
▁DSLR	-12.516
▁Story	-12.516
اورد	-12.516
▁گشاد	-12.516
▁جنیفر	-12.516
▁شاءالله	-12.516
▁متوازن	-12.516
▁شارلوت	-12.516
▁وارونه	-12.516
▁کالبد	-12.516
▁Zero	-12.516
▁موصل	-12.516
▁Java	-12.516
▁دريافت	-12.516
▁پتنت	-12.516
▁Gmail	-12.516
▁تردد	-12.516
▁پمپاژ	-12.516
▁سطر	-12.5161
▁1963	-12.5161
▁نژادپرستانه	-12.5161
▁توسعۀ	-12.5161
▁مقتضی	-12.5161
▁فوکوس	-12.5161
▁مونرو	-12.5162
▁منصور	-12.5162
▁پولشویی	-12.5162
▁بمیرند	-12.5162
▁Samsung	-12.5162
▁۱۹۸۲	-12.5162
▁براستی	-12.5162
▁صدیق	-12.5163
To	-12.5163
▁2022	-12.5164
▁Full	-12.5164
▁سیلاب	-12.5164
▁شجاعانه	-12.5164
آموزش	-12.5164
▁Best	-12.5165
▁اللّه	-12.5165
▁اظهارنامه	-12.5165
▁ICC	-12.5165
▁برسانم	-12.5166
▁1080	-12.5166
▁Link	-12.5166
▁بیولوژی	-12.5167
▁حجیم	-12.5167
▁بخیر	-12.5168
▁چاکرا	-12.5168
▁کنيم	-12.5168
▁EPA	-12.5168
▁Hill	-12.5168
▁خوندم	-12.517
▁مختصات	-12.5171
▁يافت	-12.5172
▁یورک	-12.5173
▁اندرسون	-12.5173
گال	-12.5173
▁دوتایی	-12.5173
مایه	-12.5174
▁[2]	-12.5175
▁متنفرند	-12.5176
▁UK	-12.5176
▁نیمار	-12.5176
بچه	-12.5176
▁اقیانوسیه	-12.5177
▁۶٫	-12.5178
▁اجمالی	-12.5178
▁کلوب	-12.5179
امام	-12.5179
▁مونده	-12.518
▁هوافضا	-12.5182
▁مرداد	-12.5183
▁۷۸	-12.5183
▁‍	-12.5184
▁قطارهای	-12.5186
▁mg	-12.5186
▁ناباروری	-12.5186
▁ترش	-12.5186
▁کانن	-12.5188
▁تك	-12.5189
▁بون	-12.5191
▁بردباری	-12.5191
خوار	-12.5191
▁کارلوس	-12.5195
▁ch	-12.5195
▁IBS	-12.5198
▁بایستند	-12.5198
▁هستش	-12.5199
▁4.5	-12.52
▁اومده	-12.52
lay	-12.52
كو	-12.5201
▁همسری	-12.5202
▁هوگو	-12.5203
▁نخاعی	-12.5203
▁بازپس	-12.5204
جمع	-12.5206
سرگذشت	-12.5213
▁منفجره	-12.5213
▁جنت	-12.5214
اسلام	-12.5214
coin	-12.5214
▁Par	-12.5216
ُل	-12.5218
71	-12.5219
▁بوسیدن	-12.5221
▁SC	-12.5223
نمایی	-12.5224
els	-12.5227
ace	-12.5229
▁سیبری	-12.5232
▁مضرات	-12.5232
▁همسان	-12.5235
۴۴	-12.5235
▁میشوید	-12.5237
▁چرایی	-12.5238
▁قدیس	-12.5239
▁رحمی	-12.5239
▁سات	-12.524
▁رخدادهای	-12.5241
▁شوراهای	-12.5241
وات	-12.5241
▁خواستگار	-12.5242
ada	-12.5243
▁Tor	-12.5244
▁نظرش	-12.5247
AA	-12.5249
▁یافتیم	-12.5252
▁UC	-12.5252
▁۵۸	-12.5255
▁نترس	-12.5255
▁Real	-12.5256
▁گراد	-12.5256
▁متابولیکی	-12.5256
▁نوی	-12.5256
▁AP	-12.526
▁پیشرفتی	-12.5264
▁بقی	-12.5266
▁درخشانی	-12.5268
▁نورمن	-12.5269
▁پربار	-12.527
▁۸۸	-12.5271
bb	-12.5271
▁Green	-12.5274
ديد	-12.5276
خواهند	-12.5276
table	-12.5278
ions	-12.5282
▁ملیون	-12.5285
ye	-12.5288
▁هوم	-12.5291
▁مسافری	-12.5292
wo	-12.5295
▁لباسهای	-12.5297
▁مولای	-12.53
▁انار	-12.5302
▁میدهم	-12.5305
▁دیل	-12.5308
▁فهمی	-12.5308
▁متان	-12.5314
▁بمان	-12.5316
سفر	-12.5316
▁تفسیری	-12.5319
کره	-12.532
▁Run	-12.5322
راک	-12.5323
ella	-12.5323
گس	-12.5326
illa	-12.533
رفت	-12.5331
٫۰۰۰	-12.5332
▁0.5	-12.5333
▁تفنگدار	-12.5334
▁نامهای	-12.5334
▁۷۷	-12.5337
▁ایرادی	-12.5342
▁فوریت	-12.5344
۸۸	-12.5345
▁DA	-12.5346
▁Bi	-12.5347
▁مجبورم	-12.5349
▁نیکولا	-12.5352
▁آشکاری	-12.5353
▁پیشگاه	-12.5354
▁رآکتور	-12.5357
▁۴۹	-12.5362
▁کتان	-12.5364
▁کهکشانی	-12.5364
کاس	-12.5364
▁غر	-12.5365
توق	-12.5366
▁مردند	-12.5369
تیر	-12.5369
nu	-12.5371
▁پرچمدار	-12.5372
▁بسی	-12.5384
لور	-12.5384
▁بیار	-12.539
▁کردنش	-12.5393
▁سختگیر	-12.5395
▁Com	-12.5395
۲۷	-12.5397
يك	-12.5398
جلو	-12.54
▁لک	-12.5401
▁چکش	-12.5403
cast	-12.5404
-9	-12.5406
▁1.8	-12.541
▁پوندی	-12.5412
▁نادرستی	-12.5418
[...]
