<unk>	0
<s>	0
</s>	0
.	-3.43698
▁و	-3.7073
▁در	-3.77333
ی	-3.7763
▁به	-3.8412
،	-3.88799
▁می	-3.89287
▁که	-4.02519
▁از	-4.03411
▁را	-4.16078
▁است	-4.32448
▁این	-4.42118
▁های	-4.76639
▁با	-4.84795
▁برای	-4.90905
▁یک	-4.94466
▁ها	-5.14275
م	-5.21067
▁آن	-5.21701
ه	-5.23572
▁شما	-5.46089
▁خود	-5.54654
ش	-5.65496
▁کند	-5.66143
▁شود	-5.68271
▁ما	-5.70575
▁یا	-5.72388
:	-5.72598
▁تا	-5.74705
▁شده	-5.76716
▁بر	-5.80609
ان	-5.86222
ت	-5.86383
▁او	-5.88066
▁کنید	-5.88446
)	-5.90964
▁(	-5.91029
د	-5.92491
▁ای	-5.92631
▁من	-5.93122
▁بود	-5.97311
▁سال	-5.97627
▁کنند	-5.99745
▁کار	-6.00813
▁هم	-6.03152
▁هر	-6.03183
ن	-6.05057
▁	-6.0977
▁اما	-6.10308
ند	-6.11922
▁باشد	-6.14936
ا	-6.1503
▁نمی	-6.18906
▁دارد	-6.19349
▁کرد	-6.19502
؟	-6.19547
▁آنها	-6.21489
▁شد	-6.22483
های	-6.23047
▁باید	-6.24217
▁«	-6.30896
▁استفاده	-6.32626
▁اگر	-6.35983
▁ی	-6.36561
▁،	-6.40523
ات	-6.40873
ر	-6.42251
ل	-6.42626
▁هستند	-6.4567
▁دو	-6.45699
▁مورد	-6.4714
ها	-6.4941
▁ب	-6.49981
▁دهد	-6.51854
▁کرده	-6.52074
▁اند	-6.52339
▁انجام	-6.52419
ب	-6.52792
ید	-6.54939
ع	-6.58784
▁دیگر	-6.5889
▁تواند	-6.60525
▁وجود	-6.61305
▁همه	-6.61727
و	-6.6246
▁چه	-6.6288
▁حال	-6.63975
▁نیز	-6.65154
ک	-6.66261
ین	-6.66434
▁تر	-6.67065
▁عنوان	-6.68501
▁قرار	-6.68831
▁خواهد	-6.70836
یم	-6.72639
▁بین	-6.73801
▁روز	-6.7435
▁داشته	-6.75227
▁نیست	-6.75526
»	-6.76351
▁دست	-6.7702
▁زندگی	-6.78779
▁روی	-6.79544
▁پس	-6.82016
▁ممکن	-6.83434
س	-6.85261
▁شوند	-6.86038
-	-6.86483
ار	-6.8689
▁نظر	-6.89048
▁بسیار	-6.89381
▁داده	-6.8939
ز	-6.89867
!	-6.89972
▁طور	-6.90025
▁شرکت	-6.90514
▁دارند	-6.91148
▁.	-6.92361
ي	-6.92426
ست	-6.9408
▁زمان	-6.9413
▁کردن	-6.94442
▁بیشتر	-6.94805
▁ن	-6.94988
▁هیچ	-6.95039
؛	-6.96739
▁"	-6.99156
ف	-6.99248
▁کنیم	-7.00849
▁پیش	-7.01072
s	-7.01993
▁برنامه	-7.02884
▁مردم	-7.0328
▁تنها	-7.03467
▁کمک	-7.0467
▁بی	-7.06828
▁راه	-7.08171
▁همچنین	-7.08404
▁کشور	-7.09244
ال	-7.1065
تر	-7.10918
▁نشان	-7.11379
▁نام	-7.12846
▁چند	-7.12967
▁تو	-7.13587
ج	-7.14417
▁نیاز	-7.14914
▁بازی	-7.15031
▁چیزی	-7.17056
ق	-7.17463
▁جدید	-7.18428
▁نه	-7.18476
▁توانید	-7.18905
▁داد	-7.18997
▁هایی	-7.19156
▁گفت	-7.19534
▁بعد	-7.19542
▁توسط	-7.20034
▁یکی	-7.21016
...	-7.21704
▁تمام	-7.22296
▁آیا	-7.22656
▁صورت	-7.23061
.»	-7.23286
▁ایجاد	-7.23464
"	-7.2591
▁فقط	-7.26016
▁جهان	-7.26786
▁آمریکا	-7.28319
▁کنم	-7.2842
ور	-7.28956
▁بیش	-7.29787
ح	-7.30131
▁بار	-7.30294
▁سر	-7.30631
▁مانند	-7.31331
▁افراد	-7.3137
▁باشید	-7.32067
▁دهند	-7.32791
▁بزرگ	-7.32887
▁حتی	-7.3298
▁اینکه	-7.33862
ون	-7.33948
▁باز	-7.34639
▁ترین	-7.34689
▁بسیاری	-7.35017
e	-7.35546
▁ماه	-7.3562
ِ	-7.35824
▁برخی	-7.37016
پ	-7.38431
انه	-7.38805
تان	-7.39243
خ	-7.39357
▁ایران	-7.39581
ای	-7.40218
▁زمانی	-7.42407
▁کردند	-7.425
▁تغییر	-7.42539
ام	-7.42594
▁باشند	-7.42697
▁رو	-7.42978
▁آب	-7.43025
▁فکر	-7.43166
▁داشت	-7.44027
▁-	-7.4426
▁افزایش	-7.4428
▁مهم	-7.44797
یت	-7.44853
▁درصد	-7.45112
▁دهید	-7.45334
o	-7.45694
t	-7.45742
S	-7.4599
▁بخش	-7.47319
C	-7.47668
a	-7.47923
▁تولید	-7.48005
ص	-7.48814
مان	-7.49421
▁توانند	-7.4976
y	-7.50656
شان	-7.50894
▁دوست	-7.51449
▁ارائه	-7.51522
ری	-7.52035
اد	-7.52446
▁S	-7.52646
A	-7.52976
▁چرا	-7.53246
▁چگونه	-7.54091
▁همین	-7.54213
▁کسی	-7.54495
▁ع	-7.54748
▁انتخاب	-7.55147
▁پیدا	-7.55208
▁بدون	-7.55416
▁وقتی	-7.55477
▁سه	-7.55662
▁“	-7.55692
▁پر	-7.56226
لی	-7.56275
▁کتاب	-7.56283
▁بوده	-7.56431
▁همان	-7.5695
▁شدن	-7.57189
▁سیستم	-7.5737
▁C	-7.57798
▁خانه	-7.58083
▁درباره	-7.58141
▁زیادی	-7.58164
▁بودند	-7.58268
▁نفر	-7.5851
▁گرفته	-7.59118
▁خوب	-7.59704
2	-7.60282
▁شهر	-7.60681
ول	-7.61062
▁کاهش	-7.61354
▁ام	-7.61387
▁سازمان	-7.61684
▁دلیل	-7.61737
▁غیر	-7.62011
▁خیلی	-7.62313
5	-7.62329
▁دولت	-7.62356
▁خدا	-7.62392
▁–	-7.62805
ض	-7.63257
▁جنگ	-7.63598
]	-7.63647
▁شروع	-7.63789
▁توجه	-7.63903
اب	-7.64525
ده	-7.64678
▁طول	-7.65148
▁مدت	-7.65471
▁اطلاعات	-7.65911
▁چیز	-7.66088
▁P	-7.66313
▁سایت	-7.66647
”	-7.67237
▁فیلم	-7.67389
▁A	-7.67861
▁انسان	-7.67981
▁قبل	-7.68245
▁ت	-7.68368
▁قابل	-7.68611
▁کم	-7.68766
▁زبان	-7.69097
P	-7.69388
▁چنین	-7.6979
▁اولین	-7.69906
▁روش	-7.70722
D	-7.71081
▁ال	-7.71094
▁ا	-7.71172
,	-7.71811
▁اش	-7.71984
بر	-7.72082
▁توان	-7.7293
▁بهترین	-7.72955
▁دارید	-7.73104
ایی	-7.73149
▁کسب	-7.73189
­	-7.73236
▁کننده	-7.73959
▁گروه	-7.74165
▁م	-7.7427
▁خواهید	-7.7442
i	-7.7444
▁ندارد	-7.74769
▁همیشه	-7.74953
چ	-7.74971
اً	-7.75086
در	-7.75091
ط	-7.75675
▁19	-7.75698
▁باعث	-7.75709
▁:	-7.75791
▁بنابراین	-7.76129
▁ل	-7.76398
▁دیگری	-7.76456
T	-7.76465
▁ر	-7.77119
▁خواهند	-7.77236
▁...	-7.77302
▁بدن	-7.77697
3	-7.77812
▁تلاش	-7.77964
▁دارای	-7.78291
▁گذشته	-7.78644
▁ش	-7.78671
▁توسعه	-7.78877
▁طریق	-7.78877
▁هدف	-7.79202
از	-7.79229
4	-7.79253
▁جا	-7.79322
▁طراحی	-7.79663
I	-7.80249
M	-7.80374
▁ولی	-7.81355
▁دنبال	-7.81592
کس	-7.81753
▁مختلف	-7.81803
▁اول	-7.81893
▁احساس	-7.82014
▁B	-7.82421
▁یاد	-7.82593
را	-7.83005
▁زنان	-7.83357
▁آنچه	-7.83465
▁آینده	-7.84563
▁نا	-7.84595
▁خ	-7.84726
▁شامل	-7.84832
یک	-7.84834
یا	-7.84896
▁دانشگاه	-7.85125
▁بهتر	-7.85298
▁حدود	-7.85313
u	-7.85318
▁هنوز	-7.85416
▁نوع	-7.85736
▁زن	-7.85837
▁اصلی	-7.86283
▁دریافت	-7.86357
▁اجتماعی	-7.86512
▁جهانی	-7.86516
رو	-7.86646
به	-7.87131
▁س	-7.87623
▁زمین	-7.87878
گر	-7.88342
er	-7.88455
▁گرفت	-7.8866
▁سرمایه	-7.88854
n	-7.88965
▁3	-7.8903
▁M	-7.8904
▁ادامه	-7.89333
1	-7.89991
اس	-7.90153
c	-7.90196
▁تجربه	-7.9039
▁گفته	-7.90598
▁اندازه	-7.91049
▁حاضر	-7.91335
▁مصرف	-7.91362
▁دادن	-7.91532
▁کوچک	-7.9173
گ	-7.91975
▁خانواده	-7.92321
▁رشد	-7.92322
▁ساعت	-7.9245
▁عمل	-7.92631
▁زیرا	-7.92793
▁آموزش	-7.92824
▁پاسخ	-7.92875
وی	-7.93059
▁همراه	-7.93191
▁پول	-7.93251
▁کل	-7.93296
▁میان	-7.93473
▁موضوع	-7.93522
لا	-7.93539
▁دانش	-7.93955
▁درمان	-7.941
▁امروز	-7.94189
▁بررسی	-7.94199
▁فعالیت	-7.9442
نگ	-7.94808
▁هزینه	-7.94891
▁کامل	-7.9509
▁بالا	-7.95101
▁منطقه	-7.95243
7	-7.95251
g	-7.95405
▁چ	-7.95543
▁میلیون	-7.95626
E	-7.95776
▁شکل	-7.96015
▁زیر	-7.96124
▁کنترل	-7.96169
▁دلار	-7.96222
▁سطح	-7.96395
▁المللی	-7.96718
▁وقت	-7.96849
▁مناسب	-7.97302
▁ان	-7.97613
▁شرایط	-7.9766
▁هفته	-7.97694
▁واقع	-7.97943
وم	-7.97982
▁تصمیم	-7.9799
8	-7.98107
▁D	-7.98107
▁فرد	-7.98161
▁تبدیل	-7.98216
▁کاری	-7.98316
ما	-7.98329
ۀ	-7.9838
▁ارتباط	-7.98688
▁قدرت	-7.987
▁گزارش	-7.98743
غ	-7.98768
▁ق	-7.99108
or	-7.99442
▁پا	-7.99458
▁ف	-7.99686
بی	-7.99781
▁خوبی	-7.99812
▁تحت	-8.00137
نی	-8.00342
▁مدیریت	-8.00499
▁پایان	-8.00504
▁دوره	-8.01099
(	-8.01234
یل	-8.01324
▁نسبت	-8.01759
▁فروش	-8.01867
9	-8.02167
▁4	-8.02305
▁مشکل	-8.02655
ود	-8.02787
▁بلکه	-8.02792
▁نتیجه	-8.02921
من	-8.02961
▁صحبت	-8.03265
دی	-8.03432
▁گذاری	-8.03875
▁اجازه	-8.03958
in	-8.04097
▁چون	-8.04131
▁بیماری	-8.04167
کار	-8.0431
▁تعداد	-8.04364
▁برابر	-8.04378
▁حل	-8.04559
▁مواد	-8.04636
▁گوید	-8.04745
▁ح	-8.04863
▁مثال	-8.05077
کن	-8.05355
▁بد	-8.05432
▁جای	-8.05441
▁نو	-8.05609
▁شاید	-8.05859
▁اروپا	-8.06155
نده	-8.0635
▁اید	-8.06518
▁متحده	-8.06855
d	-8.07152
▁تان	-8.07357
▁بازار	-8.07408
▁آغاز	-8.07568
ث	-8.07571
6	-8.07664
▁H	-8.07985
تو	-8.08145
▁پ	-8.08289
▁خاطر	-8.08334
▁سازی	-8.08482
▁شدند	-8.08532
▁ج	-8.08796
▁هست	-8.09498
▁ایالات	-8.09903
B	-8.09906
که	-8.09991
گان	-8.10052
▁وارد	-8.10108
▁دنیا	-8.10119
▁هستید	-8.10238
▁F	-8.10616
▁مو	-8.1087
با	-8.11078
▁تیم	-8.11211
▁جمله	-8.11314
انی	-8.1144
می	-8.11621
ى	-8.11645
▁T	-8.12722
▁خرید	-8.12809
▁اغلب	-8.13126
▁اس	-8.13194
▁درست	-8.1325
▁اساس	-8.13266
▁اینجا	-8.1334
▁نزدیک	-8.13561
▁واقعی	-8.13636
▁نگاه	-8.13639
▁مربوط	-8.13738
▁مثل	-8.13767
▁خدمات	-8.13891
▁دور	-8.13921
ك	-8.1411
▁حمایت	-8.14161
وس	-8.14237
▁چین	-8.1448
▁G	-8.14643
▁بیشتری	-8.14768
▁مرد	-8.14815
▁چشم	-8.14852
▁5	-8.14861
وا	-8.15126
▁کودک	-8.15633
▁موارد	-8.15642
▁ارزش	-8.15645
▁حالی	-8.15761
▁تاریخ	-8.15837
▁مطالعه	-8.15869
R	-8.16153
گاه	-8.16208
r	-8.16414
▁کردم	-8.16505
▁حقوق	-8.16655
▁یعنی	-8.16748
k	-8.16901
▁لازم	-8.17012
سی	-8.17033
گی	-8.17036
▁کودکان	-8.1733
▁خواب	-8.17389
▁رسد	-8.17507
▁مشخص	-8.17607
▁شوید	-8.17728
▁رنگ	-8.17737
▁پروژه	-8.18207
▁گیری	-8.18231
▁دیگران	-8.1834
▁E	-8.18371
▁کسانی	-8.18393
▁زمینه	-8.19017
▁انرژی	-8.19214
یر	-8.19262
L	-8.19279
▁شبکه	-8.19406
▁خون	-8.19454
▁اعلام	-8.1966
▁قیمت	-8.19661
▁پی	-8.19772
یان	-8.19782
▁گیرد	-8.20095
▁داستان	-8.20318
▁گونه	-8.20525
▁حد	-8.21051
▁البته	-8.21352
▁سایر	-8.21449
al	-8.21477
▁2	-8.21549
تی	-8.21772
▁کمتر	-8.21892
▁خاص	-8.222
۱	-8.22355
▁اکنون	-8.22507
▁قانون	-8.22776
▁آ	-8.22807
▁سیاست	-8.229
▁هنگامی	-8.22975
▁شب	-8.2301
▁متفاوت	-8.23011
گو	-8.2323
▁اتفاق	-8.23315
▁سفر	-8.23338
N	-8.23383
▁کافی	-8.23407
▁مت	-8.23653
▁مشکلات	-8.24234
▁اقتصادی	-8.24346
▁کمی	-8.24431
▁[	-8.24434
نا	-8.24446
▁۱۹	-8.24461
▁داریم	-8.24487
▁ساخت	-8.2461
▁1	-8.24795
re	-8.24854
▁پرداخت	-8.24964
▁سپس	-8.2542
کی	-8.26079
۵	-8.26108
▁مالی	-8.26273
O	-8.26351
▁سیاسی	-8.26352
ترین	-8.26478
▁مادر	-8.26771
▁مکان	-8.27063
▁نقش	-8.2743
▁کا	-8.27454
▁مرگ	-8.27611
▁ملی	-8.27882
لو	-8.27948
▁سن	-8.28205
▁بهبود	-8.2853
▁شان	-8.287
▁د	-8.2874
▁جامعه	-8.2886
یز	-8.28973
▁کنار	-8.2921
▁هزار	-8.2921
m	-8.29225
ar	-8.29418
▁كه	-8.2969
▁چهار	-8.29785
تا	-8.30002
▁کشورهای	-8.30147
▁خارج	-8.30179
▁تاثیر	-8.30408
▁طبیعی	-8.30475
▁L	-8.30585
▁دارم	-8.30718
▁هرگز	-8.31032
▁بعضی	-8.31157
▁I	-8.31161
▁محیط	-8.31203
▁گ	-8.31262
▁ساخته	-8.31371
▁ساده	-8.31416
اق	-8.31476
▁سخت	-8.31673
/	-8.31856
▁امکان	-8.3188
p	-8.3205
▁مع	-8.32125
▁حرکت	-8.32355
▁موفقیت	-8.32587
▁۲	-8.32672
▁دوم	-8.3281
▁رابطه	-8.33688
▁دل	-8.3382
▁روسیه	-8.33847
▁وب	-8.33898
▁عمومی	-8.34034
▁صفحه	-8.34168
an	-8.3421
▁ویژه	-8.34309
▁حداقل	-8.3445
le	-8.34451
▁حق	-8.34538
▁سرعت	-8.34688
▁فرصت	-8.34876
▁آورد	-8.34886
▁کلی	-8.34977
».	-8.34987
▁طرف	-8.35014
▁N	-8.35211
b	-8.35219
0	-8.35544
▁شخصی	-8.35548
▁آنجا	-8.35611
▁آماده	-8.35636
دو	-8.35708
l	-8.3577
َ	-8.35923
▁۳	-8.35954
▁خطر	-8.35965
▁ایده	-8.35988
▁کن	-8.36372
کر	-8.36423
▁حفظ	-8.36788
▁غ	-8.37029
آ	-8.37092
دار	-8.3714
▁سی	-8.37602
▁سوی	-8.3763
▁درک	-8.37847
▁سریع	-8.38073
▁بودن	-8.38255
فر	-8.38366
▁موجود	-8.38459
ّ	-8.38816
▁نبود	-8.39727
▁10	-8.39841
▁خداوند	-8.39857
▁نور	-8.39995
▁یافته	-8.40168
▁دستگاه	-8.40272
▁قادر	-8.40276
▁حرفه	-8.40285
▁رئیس	-8.40376
▁رفتار	-8.407
▁ز	-8.40717
▁جمع	-8.40748
▁میزان	-8.40756
▁پدر	-8.40962
▁علاوه	-8.41028
اری	-8.41044
▁سراسر	-8.4113
▁ک	-8.41338
▁انتظار	-8.41363
▁داشتن	-8.41735
▁ص	-8.41744
▁وضعیت	-8.41751
▁غذا	-8.41753
▁دوباره	-8.41788
F	-8.42231
▁نمایش	-8.42317
▁طی	-8.42518
▁آسیب	-8.42552
اک	-8.42563
▁افرادی	-8.42599
▁غذایی	-8.42655
▁دی	-8.42763
▁آزمایش	-8.42932
۳	-8.42934
نه	-8.43034
۲	-8.43093
▁ه	-8.4343
▁جو	-8.43462
▁6	-8.43613
▁عکس	-8.43988
▁آزاد	-8.44082
▁زیاد	-8.44136
▁خواهیم	-8.44227
▁علیه	-8.44456
▁هنگام	-8.44477
▁بخشی	-8.44498
▁گل	-8.44873
تون	-8.44963
w	-8.45157
▁فر	-8.45584
▁نتایج	-8.45773
زی	-8.45782
▁رود	-8.45835
▁احتمال	-8.4592
▁پایین	-8.46
▁پوست	-8.46127
▁آنان	-8.46188
▁برد	-8.46249
▁رسید	-8.46296
▁ار	-8.46448
▁بیان	-8.46726
▁محل	-8.46875
▁دهه	-8.46921
▁روشن	-8.47033
▁بانک	-8.47094
▁پیشنهاد	-8.47316
▁خارجی	-8.4743
h	-8.47454
▁آل	-8.47534
▁سعی	-8.47757
▁حرف	-8.47825
▁هستیم	-8.47884
."	-8.48006
▁آمریکایی	-8.48034
▁آید	-8.48172
▁محصولات	-8.48367
۶	-8.48489
▁فشار	-8.48612
▁دیده	-8.48688
▁روند	-8.48696
▁مقدار	-8.48914
▁ایم	-8.4897
▁ده	-8.48976
▁مشتریان	-8.48981
ic	-8.49023
▁طولانی	-8.49079
▁واقعا	-8.49122
f	-8.49265
▁حضور	-8.4954
▁جایی	-8.49589
▁معمولا	-8.49591
اف	-8.49641
▁دسترسی	-8.49786
▁آمد	-8.49923
▁امنیت	-8.49978
▁تجاری	-8.49988
▁مشاهده	-8.50145
ظ	-8.50226
نو	-8.50322
۹	-8.50377
▁حقیقت	-8.50421
هایی	-8.50434
▁پنج	-8.5054
▁منتشر	-8.50865
▁حساب	-8.51077
▁مر	-8.51097
▁رخ	-8.51133
ذ	-8.51194
ئی	-8.51247
▁نشده	-8.51335
▁دار	-8.51391
▁باور	-8.51462
۸	-8.5147
G	-8.5154
▁گاهی	-8.5159
▁مهارت	-8.51652
▁دهیم	-8.51725
▁مدل	-8.51823
▁خبر	-8.52066
▁شکست	-8.5228
▁آمده	-8.52408
▁مسیر	-8.52467
▁شناخته	-8.52578
▁اقتصاد	-8.52799
on	-8.52811
ing	-8.52913
▁مغز	-8.52935
▁خواهم	-8.53007
▁تغییرات	-8.53049
این	-8.53194
▁اضافه	-8.53283
▁کوتاه	-8.5334
▁R	-8.53344
▁معنی	-8.53389
کا	-8.53419
▁ری	-8.53586
▁تصویر	-8.53682
▁اینترنت	-8.53683
▁گیرند	-8.53857
▁فعال	-8.54134
▁نباید	-8.54141
۴	-8.54287
▁تن	-8.54288
▁عالی	-8.54467
▁کس	-8.54492
▁یافت	-8.54627
▁درخواست	-8.54902
▁کنندگان	-8.55017
▁محصول	-8.55384
at	-8.5545
▁منابع	-8.55588
▁موفق	-8.55648
▁نظامی	-8.55975
▁ایشان	-8.56081
▁مطمئن	-8.56171
▁طرح	-8.56347
▁گو	-8.56565
بار	-8.5678
▁اثر	-8.56816
▁7	-8.57117
وت	-8.57185
▁مرکز	-8.57264
▁دوستان	-8.57333
▁توانایی	-8.57338
▁همکاری	-8.57355
ران	-8.57359
▁ابتدا	-8.57359
en	-8.57459
▁اکثر	-8.57701
▁سمت	-8.57727
▁ترس	-8.5783
کو	-8.57858
▁بچه	-8.5789
▁رسانه	-8.57922
▁بندی	-8.5793
▁دید	-8.58171
▁جوان	-8.58282
▁چیست	-8.58308
▁آسان	-8.58327
▁حالا	-8.58376
▁تمرکز	-8.58543
▁W	-8.58681
▁ساله	-8.59159
وان	-8.59308
▁گویند	-8.59584
▁ثبت	-8.59629
▁توانیم	-8.59884
▁کدام	-8.59912
▁منظور	-8.60116
▁بیرون	-8.60336
▁آر	-8.60351
▁اعتماد	-8.60421
▁اشاره	-8.60565
رس	-8.60679
▁امر	-8.6073
▁گوش	-8.60828
▁اسرائیل	-8.60911
▁۴	-8.60975
▁روابط	-8.61096
هم	-8.61205
H	-8.61247
▁کو	-8.61343
▁نوشته	-8.61474
▁O	-8.61684
▁پل	-8.61814
▁سو	-8.61863
▁توصیه	-8.61961
▁حس	-8.62121
▁مرحله	-8.6221
▁جان	-8.62249
▁نیستند	-8.62376
▁عملکرد	-8.62534
▁مردان	-8.62577
▁فراهم	-8.62786
▁هستم	-8.62804
▁حمله	-8.62927
▁ماشین	-8.63031
خت	-8.63101
یه	-8.6318
▁متوجه	-8.63336
▁صنعت	-8.63367
دا	-8.63369
▁دقیقه	-8.6342
▁منجر	-8.63594
▁علاقه	-8.63652
▁تحقیقات	-8.63713
▁صرف	-8.63843
▁پشت	-8.63868
▁جهت	-8.63908
▁خودتان	-8.64092
▁بودم	-8.6435
ئ	-8.64401
▁خط	-8.64653
یس	-8.64763
▁توضیح	-8.64795
ch	-8.64897
ژ	-8.65067
▁درآمد	-8.65093
▁تشکیل	-8.65179
▁شدید	-8.65199
▁بگیرید	-8.65372
▁وزن	-8.65462
۰	-8.65506
▁نرم	-8.65522
▁مجموعه	-8.65628
▁اهمیت	-8.65629
▁گزینه	-8.65629
▁۵	-8.65686
وب	-8.65691
▁کاربران	-8.65735
▁سرطان	-8.65759
▁خوش	-8.65768
▁داخلی	-8.65849
▁تقریبا	-8.65884
۷	-8.65914
▁داشتند	-8.65918
▁مستقیم	-8.65951
▁اهداف	-8.65972
▁بسته	-8.66025
▁مس	-8.66573
▁اتاق	-8.66615
دان	-8.66752
▁پیشرفت	-8.66874
▁نگه	-8.67165
▁خصوص	-8.67352
ra	-8.67448
▁تشخیص	-8.67712
▁گرفتن	-8.67776
▁اجرا	-8.67782
▁قسمت	-8.67834
▁سلول	-8.67935
▁جمهوری	-8.68013
▁مد	-8.68055
▁خودش	-8.6815
▁باشیم	-8.68194
▁ندارند	-8.68305
▁بعدی	-8.68338
له	-8.68392
▁پسر	-8.68438
▁یابد	-8.68537
▁کاملا	-8.68562
▁محدود	-8.68601
▁پذیر	-8.68689
▁آوری	-8.68711
▁آخرین	-8.68804
00	-8.69043
).	-8.69051
▁انگلیسی	-8.69063
▁آموزان	-8.69171
▁رفت	-8.69275
▁گردد	-8.69688
▁عشق	-8.69705
)،	-8.69876
▁نهایت	-8.69949
▁لو	-8.70144
نس	-8.70165
▁باقی	-8.70199
▁ابزار	-8.70289
است	-8.70367
▁کر	-8.70449
▁واقعیت	-8.70715
▁اخیر	-8.70766
▁شخص	-8.7098
▁دادند	-8.71056
▁آلمان	-8.71329
▁جریان	-8.71342
V	-8.71383
▁مشتری	-8.71481
▁8	-8.71555
▁رژیم	-8.71738
اه	-8.71748
▁مدرسه	-8.71875
it	-8.71942
▁نمود	-8.72046
▁آدم	-8.7208
▁مرا	-8.72081
▁لا	-8.72085
▁اشتباه	-8.72093
▁ظاهر	-8.72218
▁کی	-8.72246
▁بن	-8.724
▁گسترده	-8.72632
▁بشر	-8.72662
▁/	-8.72683
▁انواع	-8.72701
▁حالت	-8.72799
▁تعیین	-8.72841
▁نفت	-8.72913
▁داخل	-8.73088
▁دختر	-8.73126
▁مرتبط	-8.73133
▁شر	-8.73174
▁لی	-8.73238
▁بینی	-8.73437
▁پیام	-8.7352
▁مق	-8.73563
▁سوریه	-8.73604
▁بهره	-8.73628
ro	-8.73811
▁سلامت	-8.73828
▁هند	-8.73841
▁مشابه	-8.73953
▁برگزار	-8.73962
جا	-8.74021
رد	-8.74047
شه	-8.74177
▁تفاوت	-8.74304
▁موسیقی	-8.74376
▁مسائل	-8.74515
▁سا	-8.75108
▁مسئله	-8.7515
چه	-8.75334
کت	-8.75346
▁اطمینان	-8.75434
▁مناطق	-8.75505
▁بحث	-8.75576
▁کیفیت	-8.75668
▁یکدیگر	-8.75719
▁آزادی	-8.75748
▁تهدید	-8.7579
▁لذت	-8.75933
▁همچنان	-8.76075
▁الله	-8.76313
ُ	-8.76505
▁تک	-8.76591
▁کشف	-8.7671
▁شخصیت	-8.77006
▁آنلاین	-8.77157
▁هوا	-8.77589
▁جلوگیری	-8.77595
▁توافق	-8.7765
ره	-8.77652
▁انتقال	-8.77806
▁سوم	-8.77826
ٔ	-8.77879
▁اولیه	-8.77909
اش	-8.78002
▁بلند	-8.7809
▁قوی	-8.78185
▁نمونه	-8.78245
▁ازدواج	-8.78317
▁اعضای	-8.78392
▁۱۰	-8.7846
▁نکنید	-8.78513
فی	-8.78844
▁ارسال	-8.78991
▁ترک	-8.79039
▁ویژگی	-8.79051
▁خصوصی	-8.79111
▁مقاله	-8.79125
▁نسخه	-8.79198
▁رسمی	-8.79244
▁توانست	-8.79314
▁افغانستان	-8.79348
▁کردیم	-8.79404
▁ساختمان	-8.79447
پی	-8.7946
▁فرانسه	-8.79568
▁تحلیل	-8.79642
▁پزشکی	-8.79697
ri	-8.79727
▁دنیای	-8.79741
جو	-8.79813
تن	-8.79906
▁تلفن	-8.79939
▁دوران	-8.7995
▁سوال	-8.79963
▁جمهور	-8.7997
یده	-8.8008
▁تأثیر	-8.80088
▁موقعیت	-8.80269
▁کجا	-8.80269
▁تکنولوژی	-8.80386
سون	-8.80455
▁تجارت	-8.80465
نت	-8.80657
▁هسته	-8.80679
▁اختیار	-8.80685
▁مثبت	-8.80835
▁عراق	-8.80835
x	-8.8087
▁شک	-8.80975
▁نخواهد	-8.80985
▁سفید	-8.81061
▁ذهن	-8.81391
▁محلی	-8.81535
▁قرن	-8.81568
▁سالم	-8.81611
▁)	-8.81706
ستان	-8.82032
▁افزار	-8.82049
▁تحقیق	-8.82091
▁جدی	-8.82187
▁میلیارد	-8.82194
▁کامپیوتر	-8.82346
▁عضو	-8.82347
▁جز	-8.82463
▁فوق	-8.82537
▁فرهنگ	-8.8258
▁مح	-8.82658
▁گرم	-8.82678
▁زنده	-8.82779
▁مج	-8.8292
▁طبق	-8.82938
▁دهنده	-8.83105
بل	-8.83144
اند	-8.83268
▁»	-8.83387
▁تمامی	-8.83409
▁نامه	-8.83424
▁تصور	-8.83495
▁قلب	-8.83562
▁گسترش	-8.83726
▁پشتیبانی	-8.83794
▁بازاریابی	-8.83881
▁برند	-8.8391
et	-8.84123
▁ترکیه	-8.84379
▁دفاع	-8.84501
▁آتش	-8.8458
▁تماس	-8.84595
U	-8.84673
▁توانم	-8.84868
زن	-8.84893
▁زیبا	-8.85231
▁قوانین	-8.85439
وار	-8.85445
او	-8.85465
▁رفتن	-8.85661
▁اوقات	-8.85678
▁ك	-8.85787
▁شش	-8.85967
▁رسیدن	-8.86041
▁تازه	-8.86457
اتی	-8.86515
▁نیروهای	-8.86626
▁۱	-8.86849
is	-8.8694
ol	-8.86947
▁بازگشت	-8.87022
▁جنسی	-8.87089
مین	-8.87146
▁ترامپ	-8.87341
▁خودرو	-8.87379
▁نقطه	-8.87421
z	-8.87446
ئو	-8.87466
کل	-8.87484
es	-8.87702
▁تمرین	-8.87715
▁احتمالا	-8.87852
▁*	-8.87897
وند	-8.87925
▁مجبور	-8.88225
▁کره	-8.88469
[	-8.88541
▁قصد	-8.88563
▁استراتژی	-8.88593
▁آقای	-8.88598
▁درد	-8.88604
▁9	-8.8864
جه	-8.8871
▁اقدام	-8.88774
▁کارهای	-8.88795
▁انگیز	-8.88935
▁مبارزه	-8.88936
▁ط	-8.88951
▁اطراف	-8.88955
▁سود	-8.88956
▁فا	-8.89076
رم	-8.89091
▁بش	-8.89144
▁فصل	-8.89199
▁هفت	-8.89306
▁ورزش	-8.89562
▁؟	-8.89617
وز	-8.89684
▁صلح	-8.8969
▁دقیق	-8.89821
el	-8.89882
▁زیست	-8.9004
▁یادگیری	-8.90214
▁قدیمی	-8.90348
▁صد	-8.9036
▁شبیه	-8.90408
▁دکتر	-8.90514
▁درون	-8.90671
▁مشترک	-8.90761
▁اف	-8.90955
▁مقابل	-8.90988
فه	-8.91008
▁اعمال	-8.91175
▁معرفی	-8.91175
▁گوگل	-8.91183
▁نیروی	-8.912
▁ماند	-8.9124
▁ریزی	-8.91316
▁K	-8.91406
▁هواپیما	-8.91592
▁سیاه	-8.91792
▁20	-8.9184
▁جستجو	-8.91848
▁مفید	-8.92011
بو	-8.92252
▁چقدر	-8.92346
▁فضای	-8.92426
▁نشانه	-8.92476
▁چطور	-8.92684
▁عامل	-8.92773
▁راست	-8.92924
شناس	-8.93001
ed	-8.93319
.”	-8.93384
▁موثر	-8.93531
us	-8.93598
▁خواست	-8.93598
یدن	-8.93804
▁حزب	-8.93873
▁حاصل	-8.93965
▁نداشت	-8.94137
ad	-8.943
▁انتخابات	-8.94301
▁ترکیب	-8.94333
▁زندان	-8.94385
▁هنر	-8.94478
▁لباس	-8.94573
▁۲۰۰	-8.94636
▁دچار	-8.94644
▁مدیر	-8.94738
▁بزرگترین	-8.94768
▁گرد	-8.94769
هر	-8.94775
▁مقایسه	-8.94817
▁مان	-8.94856
▁رقابت	-8.94903
شت	-8.94906
▁فراموش	-8.95249
▁نکته	-8.95249
▁شدت	-8.95362
داری	-8.95369
پا	-8.9537
▁مش	-8.95435
گرد	-8.95465
▁جمعیت	-8.95537
▁کانادا	-8.95545
▁آخر	-8.95663
▁انسانی	-8.96012
▁همانطور	-8.96206
خواه	-8.96311
▁عدم	-8.96475
▁خوردن	-8.96636
تیک	-8.96728
گیر	-8.96729
مو	-8.96748
▁دسترس	-8.96852
مر	-8.96895
▁V	-8.96946
▁مطالعات	-8.96996
▁برقرار	-8.97174
▁دوربین	-8.97289
وش	-8.97454
▁ساختار	-8.97594
▁سنگ	-8.97607
▁ژاپن	-8.97793
▁علمی	-8.98057
الی	-8.98181
سر	-8.98289
أ	-8.98326
فا	-8.98328
▁جایگزین	-8.98506
▁اتحادیه	-8.9852
▁همسر	-8.98555
کش	-8.98558
▁دیدن	-8.98572
▁راحتی	-8.9861
▁جدیدی	-8.98633
▁ضد	-8.9869
یسم	-8.98751
▁تبلیغات	-8.98805
▁۶	-8.98954
▁اشتراک	-8.99045
▁نداشته	-8.99105
▁تلویزیون	-8.99225
وری	-8.99322
▁مراقبت	-8.99437
ندگان	-8.99573
▁فرم	-8.99675
سا	-8.99807
▁رسیده	-8.99824
▁محققان	-8.99946
▁روح	-9.00114
▁جدا	-9.0024
▁ساز	-9.00522
اط	-9.0062
ونی	-9.00645
خر	-9.01083
▁محتوای	-9.01134
▁واکنش	-9.01136
▁پزشک	-9.01232
▁جالب	-9.01415
▁روزانه	-9.01468
▁خودم	-9.01468
▁ارزیابی	-9.01504
▁عملیات	-9.01516
▁دانشجویان	-9.01517
▁امنیتی	-9.0155
▁صدای	-9.01622
▁شناسایی	-9.01727
دن	-9.01793
▁پرواز	-9.01808
▁سبک	-9.01966
فت	-9.02007
▁زده	-9.0202
am	-9.02067
▁دانند	-9.0208
▁بنا	-9.0211
▁علائم	-9.02151
▁فردی	-9.02155
▁آی	-9.02196
▁نقل	-9.02261
▁العاده	-9.0243
▁معنای	-9.02558
▁منبع	-9.02621
▁قرآن	-9.02622
▁عمیق	-9.02898
▁دیجیتال	-9.0299
▁تعریف	-9.03084
▁بو	-9.03137
▁پست	-9.0317
مه	-9.03221
▁18	-9.03272
▁عمر	-9.03351
▁وزیر	-9.03397
▁مبتلا	-9.03553
▁هی	-9.03613
▁دارو	-9.03628
▁کلاس	-9.03816
▁حکومت	-9.0393
▁خاصی	-9.03963
اع	-9.04069
رب	-9.04174
زا	-9.0428
▁حمل	-9.04292
سو	-9.04402
▁رفته	-9.04408
ایش	-9.04477
▁فرا	-9.04628
000	-9.04741
▁درجه	-9.04764
▁ست	-9.04884
٪	-9.04975
نج	-9.05097
v	-9.05112
▁علت	-9.05121
▁خودشان	-9.05151
▁انداز	-9.05157
▁شی	-9.05164
▁۲۰	-9.05401
▁12	-9.05462
▁زد	-9.05464
▁هدایت	-9.05549
▁دشوار	-9.05549
▁فرزند	-9.05557
▁لحظه	-9.05645
▁متوسط	-9.05838
▁تع	-9.05857
▁مواجه	-9.05934
▁مطرح	-9.06031
▁U	-9.06037
▁اسلامی	-9.06046
▁اقدامات	-9.06052
▁تکرار	-9.06128
▁روان	-9.06156
▁15	-9.06194
▁ثابت	-9.06417
▁بس	-9.06593
▁لیست	-9.06609
▁حذف	-9.06611
▁پایه	-9.06619
▁پلیس	-9.06647
▁علی	-9.06653
▁انقلاب	-9.06713
▁”	-9.0681
▁موجب	-9.06865
▁آرام	-9.0694
لت	-9.06945
▁ورود	-9.07101
▁نکرده	-9.07193
▁افزود	-9.07195
▁ژن	-9.07426
▁J	-9.07467
ur	-9.07571
%	-9.07684
il	-9.07737
بین	-9.07754
شو	-9.07758
▁عاشق	-9.07782
▁محافظت	-9.07881
▁کلمه	-9.08027
▁نکرد	-9.08035
▁چالش	-9.08078
▁بالاتر	-9.08109
▁استاندارد	-9.08157
▁دین	-9.08168
▁افتد	-9.08174
▁ضروری	-9.08176
▁ادعا	-9.08182
▁نگران	-9.08232
▁قانونی	-9.08234
▁جذب	-9.08275
يد	-9.08309
▁چیزهایی	-9.08396
▁شناخت	-9.08425
▁داری	-9.08493
▁بیمار	-9.08548
▁خواندن	-9.08617
▁اگرچه	-9.08618
▁هوشمند	-9.08674
st	-9.08723
▁سازد	-9.08984
وه	-9.09168
▁امور	-9.09232
▁مدرن	-9.09279
▁مه	-9.09383
ینگ	-9.09628
W	-9.09648
وک	-9.09785
▁دهم	-9.09809
▁فل	-9.09881
قا	-9.09924
ـ	-9.10126
▁گاز	-9.10168
▁شمالی	-9.10231
▁گر	-9.10253
▁متر	-9.10338
آن	-9.10382
▁متحد	-9.10457
اح	-9.10516
▁حوزه	-9.1057
▁•	-9.10573
▁فرهنگی	-9.10665
▁دانلود	-9.10671
▁تب	-9.10855
▁صدا	-9.10886
▁ببینید	-9.11178
▁عبارت	-9.11264
▁عوامل	-9.11279
▁بازدید	-9.11283
▁واحد	-9.11289
▁سخن	-9.113
▁بیماران	-9.11481
om	-9.11684
▁امروزه	-9.11764
▁نجات	-9.11791
▁برادر	-9.12029
▁بدان	-9.12067
نامه	-9.12111
ائ	-9.1216
▁تنظیم	-9.12322
▁خانم	-9.12324
▁زدن	-9.12354
▁ارتش	-9.12613
▁اجرای	-9.12768
▁تصاویر	-9.12816
▁علم	-9.12827
▁فایل	-9.12969
▁رد	-9.13006
سازی	-9.13099
▁شغل	-9.13147
یو	-9.13215
▁ترتیب	-9.13231
▁خلق	-9.13276
▁کارت	-9.13284
▁بگیرد	-9.13334
▁پیچیده	-9.13338
▁of	-9.1334
▁بدانید	-9.13385
▁فی	-9.13491
th	-9.13529
▁دولتی	-9.13602
un	-9.13613
▁ماده	-9.13655
▁ستاره	-9.13864
اج	-9.14115
▁دیدگاه	-9.14323
▁امریکا	-9.14323
▁دانست	-9.14544
▁شیوه	-9.14918
▁شناس	-9.14957
▁مسئولیت	-9.14968
▁معمول	-9.14984
▁پژوهش	-9.15108
▁فناوری	-9.15114
رت	-9.15117
رز	-9.15183
▁فاصله	-9.1522
پر	-9.15225
▁مسئول	-9.15472
▁صبح	-9.15475
زو	-9.15728
▁بحران	-9.1575
▁اساسی	-9.15786
▁رس	-9.15803
▁پارک	-9.16182
▁امام	-9.16187
گار	-9.16211
▁معمولاً	-9.16545
▁دانم	-9.16714
یست	-9.16803
▁200	-9.16872
▁اعتبار	-9.16926
▁کشته	-9.16928
▁قدر	-9.1695
▁کلیدی	-9.1697
▁جواب	-9.16975
▁قرارداد	-9.17141
▁خشونت	-9.17142
▁آنکه	-9.17144
▁ات	-9.17149
▁رساند	-9.17216
▁دلایل	-9.17251
▁ماهی	-9.17351
▁بریتانیا	-9.17466
▁شگفت	-9.17474
▁مک	-9.17731
▁نخستین	-9.18006
as	-9.18065
▁پو	-9.18177
گا	-9.18265
▁قدم	-9.18347
▁متوقف	-9.18444
مت	-9.18453
▁متن	-9.18476
▁رهبری	-9.1878
▁بزرگی	-9.18795
▁بتواند	-9.18888
گیری	-9.18902
▁مقامات	-9.18904
▁دانشمندان	-9.1895
▁ایمیل	-9.19086
▁آموزشی	-9.19258
▁ملل	-9.19325
▁اسم	-9.19462
ter	-9.19499
▁جنوبی	-9.19532
▁پای	-9.19615
▁شیر	-9.1981
▁ذخیره	-9.19985
▁وسیله	-9.1999
▁سرویس	-9.20104
▁دندان	-9.20105
▁کشورها	-9.20109
▁مشارکت	-9.20318
▁افتاد	-9.2038
▁مخ	-9.20423
▁خدمت	-9.2043
▁فرض	-9.20438
▁خوشحال	-9.20444
▁فرآیند	-9.20653
▁کد	-9.20723
▁نگرانی	-9.20759
▁ناشی	-9.21135
▁دانید	-9.21194
▁حیات	-9.21357
▁مگر	-9.21374
▁ژ	-9.21441
▁اعتقاد	-9.2155
ay	-9.21624
▁محبوب	-9.21663
▁نفس	-9.21777
▁هشت	-9.21806
▁وزارت	-9.21897
▁منفی	-9.21921
رات	-9.21935
▁خیر	-9.2196
▁اين	-9.2208
بان	-9.22317
شن	-9.22382
▁برق	-9.2245
▁شماره	-9.22626
▁گفتند	-9.22694
▁استرس	-9.22705
▁استرالیا	-9.22798
▁عرضه	-9.22985
▁اسلام	-9.23018
▁اد	-9.23125
▁بالای	-9.23188
▁نسل	-9.23221
قی	-9.2325
▁کشتی	-9.2329
▁سلاح	-9.23379
▁محدودیت	-9.23484
▁قبول	-9.23485
▁مانده	-9.23549
▁آوردن	-9.23563
▁منتظر	-9.23599
▁کلمات	-9.23719
▁فضا	-9.23731
▁فرزندان	-9.23744
▁باشم	-9.23778
▁تست	-9.23808
خور	-9.23847
▁گران	-9.23879
ين	-9.23889
▁داند	-9.23891
▁آورده	-9.24023
▁احساسات	-9.2404
▁تقویت	-9.2406
ارت	-9.24156
▁هوایی	-9.24221
▁آمیز	-9.24468
▁نرخ	-9.24524
▁نیازهای	-9.24549
▁اندازی	-9.24607
▁تری	-9.2461
▁۷	-9.24789
سال	-9.24796
▁پوشش	-9.24933
▁کنی	-9.24957
▁قبلی	-9.24977
▁غرب	-9.25046
ir	-9.25148
▁30	-9.25158
▁آگاه	-9.25247
▁ارشد	-9.25341
مار	-9.25474
▁قابلیت	-9.25533
اژ	-9.25909
▁تمایل	-9.25926
▁معرض	-9.25926
▁کارکنان	-9.26046
▁The	-9.26064
▁پاک	-9.261
▁تهیه	-9.26281
▁نوشتن	-9.26404
▁مالیات	-9.26408
▁نهایی	-9.26424
▁۸	-9.26472
▁دستور	-9.26542
▁رشته	-9.26635
▁نش	-9.2664
▁نماید	-9.26646
▁دروغ	-9.26646
▁هتل	-9.26652
▁اظهار	-9.26754
▁والدین	-9.26754
▁شمار	-9.26786
▁میدان	-9.26828
▁ذ	-9.26875
▁ذکر	-9.26896
▁مستقل	-9.26997
ستر	-9.27098
▁دانیم	-9.27197
▁حیوانات	-9.27205
آفرین	-9.27264
▁جن	-9.2727
▁عین	-9.2731
وف	-9.2736
lo	-9.27396
▁درمانی	-9.27431
▁قطع	-9.27439
▁نظارت	-9.27588
▁نصب	-9.27589
▁آشکار	-9.27619
لین	-9.27633
▁شویم	-9.27936
▁برسد	-9.27957
▁۹	-9.27963
▁خواسته	-9.28015
▁اختصاص	-9.28068
▁هشدار	-9.28068
▁همواره	-9.2807
▁کاملاً	-9.28235
▁St	-9.28252
▁گرا	-9.28386
▁یو	-9.28579
▁بگیرند	-9.28793
▁Re	-9.28825
▁امید	-9.28896
▁اختلال	-9.29035
▁مص	-9.29262
▁کش	-9.29305
▁منحصر	-9.294
گذاری	-9.29472
▁کاربر	-9.2968
▁تقسیم	-9.29766
▁روزنامه	-9.29907
K	-9.30038
▁سگ	-9.30059
▁مجدد	-9.30144
▁احترام	-9.30256
▁وعده	-9.30408
▁جی	-9.30679
گری	-9.30769
▁فیزیکی	-9.30857
▁فرو	-9.31173
زه	-9.31177
▁p	-9.31241
▁اقامت	-9.31245
▁اداره	-9.31255
سف	-9.31303
٫	-9.31618
کاری	-9.31744
▁گی	-9.3175
▁نظام	-9.31786
گونه	-9.31798
la	-9.31885
▁قدرتمند	-9.31936
▁آسمان	-9.32288
▁مشغول	-9.32368
▁عوض	-9.32369
۰۰	-9.32493
▁سبز	-9.32495
▁مي	-9.32504
▁نوشت	-9.32522
▁شدم	-9.32537
▁سالگی	-9.32585
▁تاریخی	-9.32598
▁خاک	-9.32735
▁استاد	-9.32851
▁حفاظت	-9.32872
▁واقعاً	-9.32917
▁انتشار	-9.32998
▁رهبران	-9.33024
▁رایگان	-9.33122
▁پیر	-9.3317
▁موتور	-9.33173
▁جلو	-9.332
▁زا	-9.33207
▁خودمان	-9.33274
▁بله	-9.33328
ow	-9.33331
▁بل	-9.33371
▁مرکزی	-9.33435
▁چاپ	-9.33533
طر	-9.33561
▁تایید	-9.33635
قه	-9.33774
▁نویسنده	-9.33784
▁درگیر	-9.33845
▁مب	-9.34059
تین	-9.34114
▁علوم	-9.34271
▁s	-9.34423
▁راحت	-9.34437
▁اسپ	-9.34549
▁لحاظ	-9.34654
▁آسیا	-9.34695
▁اروپایی	-9.34717
▁مهمی	-9.34738
▁خو	-9.34755
▁دفتر	-9.34783
▁زیبایی	-9.34868
▁گذر	-9.34954
▁شاهد	-9.34977
▁غربی	-9.35011
▁مطلب	-9.3504
ation	-9.35116
▁میشود	-9.35203
▁زود	-9.35258
▁ایمان	-9.3527
▁نباشد	-9.35281
▁نشد	-9.35403
▁خورشید	-9.35491
▁گذاشته	-9.35502
▁سل	-9.35635
▁خوان	-9.35885
▁اینها	-9.35898
▁گام	-9.35918
▁مست	-9.36106
▁الان	-9.36237
▁دسته	-9.36365
▁نشست	-9.36397
▁دقت	-9.3647
داد	-9.3662
▁کوه	-9.36747
؟!	-9.3681
▁تحریم	-9.36862
▁سوخت	-9.36875
▁جراحی	-9.3698
▁بیمارستان	-9.37013
▁برخورد	-9.37057
▁تضمین	-9.37125
▁پیاده	-9.37126
▁تولد	-9.37132
▁معتقد	-9.37169
▁پرسید	-9.37234
ابی	-9.37483
▁دادگاه	-9.3751
▁نحوه	-9.37621
؟»	-9.37637
▁گناه	-9.37654
▁مند	-9.37763
▁آموز	-9.37777
▁فعلی	-9.37895
▁سلامتی	-9.37965
▁مرز	-9.37971
▁هو	-9.38061
▁دا	-9.38159
▁­	-9.38251
▁طبقه	-9.38292
▁گذاشت	-9.38351
ne	-9.38427
▁منافع	-9.38451
پذیر	-9.3846
▁چینی	-9.38591
20	-9.38652
▁گوشی	-9.38717
حال	-9.38814
ul	-9.38956
▁نخست	-9.38988
گذار	-9.38997
▁متخصص	-9.39207
▁اک	-9.39355
▁اج	-9.39367
▁100	-9.39368
▁!	-9.39393
▁عربستان	-9.39395
▁بودجه	-9.39417
▁بردن	-9.39451
▁قهوه	-9.39659
▁چگونگی	-9.39794
▁اصول	-9.39794
▁مهاجرت	-9.39802
▁۱۵	-9.39818
▁داشتم	-9.39908
▁اصل	-9.39911
▁تکنیک	-9.39929
▁دیوار	-9.3997
▁جذاب	-9.402
▁شا	-9.40226
▁میکند	-9.40287
بند	-9.40773
▁پن	-9.40797
▁فرمود	-9.40797
▁آگاهی	-9.40868
▁عادی	-9.4089
▁اطلاعاتی	-9.41021
▁نابود	-9.41177
اره	-9.4122
▁عجیب	-9.41293
▁برداری	-9.41306
▁یه	-9.41358
ot	-9.41601
li	-9.41647
▁مصاحبه	-9.41705
▁پادشاه	-9.41705
▁شیمیایی	-9.41719
▁توصیف	-9.41843
▁منتقل	-9.41843
▁سرد	-9.41846
▁گذارد	-9.41954
▁نیازمند	-9.41959
▁بگذارید	-9.41982
▁مار	-9.42071
▁بدهید	-9.42215
▁11	-9.42229
▁خیابان	-9.42258
مون	-9.42356
▁امتحان	-9.42396
جر	-9.4247
▁رنج	-9.42594
▁اطلاع	-9.42635
▁جلسه	-9.42674
افت	-9.42718
▁پوش	-9.42726
▁مایل	-9.42777
▁مزایای	-9.42794
▁عقب	-9.42815
▁امن	-9.42945
▁برتر	-9.42975
▁خورد	-9.43064
▁شناسی	-9.43105
▁پرسش	-9.43113
▁مختلفی	-9.43147
▁بند	-9.43208
▁روغن	-9.43233
▁ترجیح	-9.43373
▁آمار	-9.43431
▁وبلاگ	-9.43513
▁پرو	-9.43561
▁نگهداری	-9.43683
▁جنوب	-9.43687
▁بدست	-9.43692
▁طبیعت	-9.43794
▁حکم	-9.43942
▁صنعتی	-9.44008
▁فروشگاه	-9.44053
▁آشنا	-9.44079
▁كرد	-9.44115
▁حملات	-9.44353
.[	-9.44416
▁۳۰	-9.44441
▁آور	-9.44475
▁باره	-9.44503
▁خدای	-9.44584
▁گاه	-9.44628
▁صحنه	-9.44642
▁گفتم	-9.44658
▁برخوردار	-9.44718
▁اصلاح	-9.44779
▁عفونت	-9.44784
▁کارگران	-9.44846
▁شور	-9.44867
عد	-9.44924
▁مفهوم	-9.44926
▁پیشرفته	-9.44954
▁آیند	-9.44977
▁بایست	-9.45025
▁خشک	-9.45078
▁خویش	-9.45091
▁امضا	-9.45117
▁سوز	-9.45122
▁50	-9.45179
▁ترجمه	-9.45212
▁بقیه	-9.45213
▁جایزه	-9.45253
▁خروج	-9.45355
داران	-9.45358
▁تور	-9.45359
▁بیا	-9.45458
▁بتوانند	-9.45483
▁هیجان	-9.45505
▁فرایند	-9.45507
▁بزرگتر	-9.45638
▁مصر	-9.45739
▁دعوت	-9.45784
▁نقاط	-9.45784
▁تقریباً	-9.45934
▁فن	-9.45958
▁هزاران	-9.45961
▁صورتی	-9.45979
▁یافتن	-9.45985
▁خطرناک	-9.46072
▁رتبه	-9.46072
▁فرار	-9.46073
▁ویتامین	-9.46216
▁رها	-9.46285
▁مقام	-9.46307
▁اوایل	-9.46366
▁ایمنی	-9.46378
▁تامین	-9.46403
▁تخصص	-9.46505
▁متصل	-9.46505
▁برنده	-9.46637
X	-9.46867
▁بستگی	-9.4694
▁حر	-9.47052
▁چهارم	-9.47164
دل	-9.47179
سل	-9.47218
▁ملاقات	-9.4723
▁جزیره	-9.47377
▁شمال	-9.47431
▁مقاومت	-9.4745
▁In	-9.47472
▁تکمیل	-9.47523
▁عبور	-9.47523
▁کلید	-9.47625
چی	-9.47695
بد	-9.47701
ساز	-9.47787
▁ملت	-9.47814
▁اهل	-9.47823
▁کارها	-9.47875
50	-9.48105
▁تابستان	-9.48109
▁ـ	-9.48113
▁لینک	-9.48119
▁بیت	-9.48266
▁دریایی	-9.48275
de	-9.48377
ia	-9.48384
▁ابر	-9.48389
Q	-9.48403
▁13	-9.48473
▁کانال	-9.48489
▁مدیران	-9.48523
جی	-9.48626
▁قرمز	-9.48699
▁فوتبال	-9.487
▁ارتباطات	-9.49242
▁امیدوار	-9.49369
▁فو	-9.49416
▁ایرانی	-9.49425
▁جزئیات	-9.49512
▁الهی	-9.49514
▁Ma	-9.4957
▁آزمون	-9.49589
▁تقاضا	-9.49589
j	-9.49589
▁مل	-9.49628
▁الگو	-9.49646
▁تحصیل	-9.49726
▁اجتناب	-9.49738
▁معروف	-9.49738
▁محتوا	-9.49741
مل	-9.49818
اء	-9.49973
▁کارگر	-9.50024
▁نامیده	-9.50076
▁خرد	-9.50161
▁بطور	-9.50188
▁دشمن	-9.50453
رون	-9.5049
▁کلیسا	-9.50549
▁تشویق	-9.50638
▁پایدار	-9.50665
▁رهبر	-9.50749
▁پنهان	-9.50792
▁تق	-9.50833
سط	-9.50968
▁سرزمین	-9.51091
▁تعامل	-9.51092
▁بروید	-9.51104
▁کارگردان	-9.51105
▁تفکر	-9.51129
▁تاکنون	-9.51395
▁ویروس	-9.51399
▁تجهیزات	-9.51546
▁بروز	-9.51663
▁جنبه	-9.51749
▁ارز	-9.51754
خته	-9.51805
▁مخالف	-9.51831
▁عادت	-9.52005
رن	-9.52062
▁25	-9.5209
▁خطا	-9.52113
▁گذشت	-9.52201
▁شهروندان	-9.52349
▁ایالت	-9.52401
سان	-9.5245
▁وظیفه	-9.52771
رف	-9.52796
▁شانس	-9.52878
▁فراتر	-9.52909
خانه	-9.53037
▁میلادی	-9.53084
▁شهری	-9.5311
▁آم	-9.53305
▁ثانیه	-9.53389
▁ریسک	-9.53389
▁چپ	-9.53409
▁۱۲	-9.53417
▁بهداشت	-9.5347
▁جنبش	-9.53544
▁دهندگان	-9.53552
▁نیمه	-9.53612
▁بودیم	-9.53624
▁نیم	-9.53685
▁پاکستان	-9.53719
▁پیروزی	-9.53823
▁سعودی	-9.53854
▁زند	-9.53911
▁ناراحت	-9.5401
▁تج	-9.54021
لف	-9.54112
▁تی	-9.54124
▁متمرکز	-9.54166
▁انجمن	-9.54166
▁دم	-9.54173
ut	-9.54216
▁بتوانید	-9.54263
▁جایگاه	-9.54297
▁انتقاد	-9.54322
▁شو	-9.5438
▁امسال	-9.54391
▁اتفاقی	-9.54428
▁اضافی	-9.54479
روز	-9.54574
▁رویکرد	-9.54579
▁نیویورک	-9.54636
▁انگیزه	-9.54673
se	-9.54702
▁بیست	-9.54769
▁اختلاف	-9.54793
▁تغذیه	-9.54793
▁حضرت	-9.54793
▁16	-9.55049
▁نظریه	-9.55072
▁مداوم	-9.55108
▁پخش	-9.55108
▁موقع	-9.55198
▁سابق	-9.5522
▁بیدار	-9.5523
▁واضح	-9.55265
▁بگویید	-9.55267
▁آرزو	-9.55296
▁مقابله	-9.55305
▁عظیم	-9.55423
زار	-9.55444
▁افتاده	-9.55528
▁آهن	-9.55534
▁برچسب	-9.55581
اور	-9.55612
▁تاکید	-9.55752
▁قبلا	-9.55966
▁چهره	-9.56039
ss	-9.56215
▁دیدار	-9.56226
▁عدد	-9.56227
▁باغ	-9.56297
sh	-9.56323
▁ضعیف	-9.5646
▁چربی	-9.56538
▁عهده	-9.56538
▁سرگرم	-9.5654
▁تعدادی	-9.56604
▁بدهد	-9.56632
▁سم	-9.56637
▁مطالب	-9.56696
▁طلا	-9.56805
آور	-9.56886
▁نماز	-9.56934
▁گفتگو	-9.56952
ck	-9.56996
▁سؤال	-9.57017
▁بیشترین	-9.57181
▁همانند	-9.57211
▁گروهی	-9.5725
me	-9.5725
▁خر	-9.57268
▁پیامبر	-9.57284
▁روستا	-9.57352
اگر	-9.57397
▁گذار	-9.57492
▁بنیاد	-9.57504
▁توجهی	-9.5752
▁خریداری	-9.57608
وپ	-9.57626
▁سپتامبر	-9.57661
▁درس	-9.57779
▁تخم	-9.57853
▁پیوند	-9.5788
▁14	-9.57885
▁چیزهای	-9.57982
▁صحیح	-9.57985
▁کالا	-9.58072
▁تنهایی	-9.5808
▁برداشت	-9.58198
▁ویزا	-9.58284
▁توزیع	-9.58311
▁چرخ	-9.5843
زل	-9.58434
▁نوعی	-9.58448
▁کردید	-9.58517
▁مراحل	-9.58637
▁پذیرش	-9.58676
▁بخوانید	-9.58717
▁پروتئین	-9.58799
▁افسردگی	-9.58803
▁فنی	-9.58805
▁بده	-9.58861
▁شغلی	-9.58931
▁ناگهان	-9.58963
▁کشد	-9.59053
نظر	-9.59079
▁غذاهای	-9.59107
ارد	-9.59182
▁آثار	-9.59291
▁کشید	-9.59295
▁بگویم	-9.59357
▁دقیقا	-9.59378
▁سنگین	-9.59384
ent	-9.59447
id	-9.59455
▁سیاره	-9.59488
نز	-9.59518
▁c	-9.59701
▁سختی	-9.59716
▁انگلستان	-9.59786
▁قهرمان	-9.59951
▁فارغ	-9.59951
▁حافظه	-9.59952
ورد	-9.59961
▁نهاد	-9.6006
▁چی	-9.60268
▁حداکثر	-9.60282
▁همزمان	-9.60284
▁استخدام	-9.60287
▁کنفرانس	-9.6029
te	-9.60363
▁افکار	-9.60371
▁قلبی	-9.60501
▁ایتالیا	-9.60564
▁روزهای	-9.60598
▁مطابق	-9.60615
▁شماست	-9.60635
▁کان	-9.60714
▁پرورش	-9.60784
▁معمولی	-9.60805
ma	-9.60871
▁مى	-9.60974
▁بارداری	-9.61109
▁گفتن	-9.61113
▁امتیاز	-9.61116
▁معنا	-9.61249
▁حاوی	-9.61285
▁نویس	-9.61425
▁محسوب	-9.61451
کان	-9.61492
سم	-9.61536
سن	-9.61544
رها	-9.61573
▁آس	-9.61732
▁بدین	-9.61755
▁بیمه	-9.61835
▁Co	-9.6191
▁جستجوی	-9.61945
▁هماهنگ	-9.61956
۰۰۰	-9.6202
▁ارزان	-9.6203
he	-9.62057
ion	-9.62109
ندگی	-9.62141
▁مجوز	-9.62156
▁سیگار	-9.62164
اپ	-9.62292
▁گرفتند	-9.62325
▁آهنگ	-9.62352
▁اصلا	-9.62469
▁عملی	-9.62507
▁دهان	-9.62623
▁تهران	-9.62634
▁دعا	-9.62654
▁فرمان	-9.62729
▁صادر	-9.62757
▁سفارش	-9.62803
▁پرس	-9.62846
▁موزه	-9.62849
▁برده	-9.62873
▁داروهای	-9.62925
▁بوک	-9.62956
▁مذاکره	-9.63144
▁تجزیه	-9.63144
▁وسیع	-9.63161
▁قتل	-9.63181
▁X	-9.6323
▁شورای	-9.63258
▁سان	-9.63318
▁پذیری	-9.63366
▁سنت	-9.63383
▁بدتر	-9.63419
▁جاده	-9.6344
▁اصطلاح	-9.63487
▁اتصال	-9.63487
▁آورند	-9.63506
▁درستی	-9.63572
تل	-9.63649
▁هرچند	-9.63662
حافظ	-9.63671
▁بازداشت	-9.63695
▁مساله	-9.63831
▁یکسان	-9.63862
▁اون	-9.63899
▁گویی	-9.63902
▁روس	-9.63935
▁17	-9.63978
▁محکوم	-9.64003
▁m	-9.64057
▁مانع	-9.64127
▁سوء	-9.64192
▁بدهی	-9.64196
▁40	-9.64282
▁مرتب	-9.64335
▁راهی	-9.64474
سکو	-9.64509
▁متعدد	-9.6452
نشین	-9.64567
▁نگار	-9.64684
▁بهتری	-9.64686
▁جر	-9.6491
▁نقشه	-9.6491
▁میوه	-9.6498
▁گردید	-9.65179
▁معامله	-9.65215
▁بخواهید	-9.65216
▁سهام	-9.65344
ig	-9.65348
▁کلیک	-9.65359
▁اپل	-9.65419
▁هایشان	-9.65478
▁مبتنی	-9.65565
▁لندن	-9.65568
10	-9.65607
um	-9.65652
▁ساختن	-9.65709
▁خواند	-9.65824
▁نمایند	-9.65902
▁سری	-9.65934
▁شوم	-9.65967
▁خلاصه	-9.66074
قر	-9.66076
▁افتخار	-9.66091
▁رانندگی	-9.66095
▁موشک	-9.66098
▁نفوذ	-9.66267
▁گیاه	-9.6631
▁نمایید	-9.66417
ab	-9.66503
▁موضوعات	-9.66517
دام	-9.66609
▁تمیز	-9.66643
▁فهم	-9.66667
▁نمای	-9.66688
▁گیر	-9.66735
▁فهرست	-9.66797
▁جشن	-9.66849
▁تاسیس	-9.66977
▁روم	-9.67071
▁واشنگتن	-9.67152
▁ببرید	-9.67154
▁اثرات	-9.67157
▁گری	-9.67255
▁چک	-9.67299
▁b	-9.6731
▁ریشه	-9.67389
▁صبر	-9.67487
co	-9.67555
▁مهندسی	-9.67598
ver	-9.67676
▁موسسه	-9.67687
▁ساحل	-9.67689
▁زودی	-9.67743
▁گم	-9.67842
▁بازیکنان	-9.6785
▁سخنرانی	-9.67866
▁کارشناسی	-9.67877
▁مشهور	-9.68046
▁مذاکرات	-9.68224
▁براساس	-9.68225
▁تحمل	-9.6823
▁کمبود	-9.68257
▁۱۸	-9.6827
ie	-9.68287
▁چنان	-9.68393
▁بالقوه	-9.68404
▁[...]	-9.68404
▁عدالت	-9.68404
▁ندارید	-9.68405
▁پایگاه	-9.68454
▁تیر	-9.68529
▁کمتری	-9.6865
▁سقوط	-9.68765
▁نزد	-9.68779
▁مشاور	-9.68845
▁هویت	-9.69038
▁گوشت	-9.69226
▁بهداشتی	-9.69237
▁خانگی	-9.6931
پس	-9.69378
▁رویداد	-9.69749
▁کارهایی	-9.69763
کننده	-9.69871
▁وابسته	-9.70038
▁ویدیو	-9.70057
▁پزشکان	-9.70259
▁نبوده	-9.70294
▁صاحب	-9.70299
▁,	-9.70335
▁رستوران	-9.70404
▁برجسته	-9.70405
کرد	-9.70408
▁۱۰۰	-9.70441
برد	-9.70471
▁فور	-9.70502
ry	-9.70622
نویس	-9.70705
▁نیمی	-9.70732
▁فضایی	-9.7076
▁شواهد	-9.70772
مرد	-9.70867
▁مور	-9.70897
▁موبایل	-9.70957
▁دستیابی	-9.70961
▁مارس	-9.71041
▁مشاوره	-9.71076
▁کاش	-9.71126
▁اعتراض	-9.71142
▁همچون	-9.71143
▁سوالات	-9.71148
▁کشاورزی	-9.71161
فته	-9.71211
▁کارخانه	-9.71253
▁برمی	-9.71344
▁اخلاقی	-9.71377
▁جسم	-9.71557
▁بازسازی	-9.71631
▁طلب	-9.71703
ء	-9.71738
▁هاست	-9.71765
▁بیند	-9.71873
▁ندارم	-9.71887
▁جرم	-9.72045
الت	-9.72102
▁سنتی	-9.72122
▁سوار	-9.72202
▁انداخت	-9.72284
▁دان	-9.72302
▁حجم	-9.72346
▁قل	-9.72505
▁کارمندان	-9.7259
▁اکتبر	-9.72633
▁سالانه	-9.72662
▁مذهبی	-9.72712
▁تأیید	-9.72821
ta	-9.73079
فق	-9.73108
’	-9.73198
▁رضایت	-9.73227
pp	-9.73239
▁احتمالاً	-9.73357
▁خاورمیانه	-9.73387
▁صفحات	-9.73387
▁نقد	-9.73395
vi	-9.73403
▁مراسم	-9.73408
▁فراوان	-9.73426
▁معماری	-9.73578
▁محمد	-9.73581
ive	-9.73755
▁بارها	-9.73808
زده	-9.73858
op	-9.73876
im	-9.7388
tion	-9.74082
▁عناصر	-9.74146
▁استقلال	-9.74148
▁آبی	-9.74149
▁میکنند	-9.7417
▁مسیحی	-9.74277
بخش	-9.74317
▁معدن	-9.74399
گران	-9.74419
ect	-9.7442
▁آزمایشگاه	-9.74444
▁عیسی	-9.74539
▁فهمید	-9.74618
▁کیلومتر	-9.7472
▁انگشت	-9.7472
▁آش	-9.7493
!»	-9.74955
▁گشت	-9.74974
▁مدارس	-9.7501
▁کور	-9.75049
▁نموده	-9.75077
خا	-9.75086
▁آدرس	-9.75116
ine	-9.75117
▁جنگل	-9.75204
▁خواهر	-9.75206
برای	-9.75243
▁جاری	-9.75252
ard	-9.75279
▁بلافاصله	-9.75297
▁60	-9.75338
▁سینما	-9.75515
▁آزار	-9.75523
▁دستگیر	-9.75625
ate	-9.75675
▁پردازش	-9.75684
▁رمز	-9.75711
▁ماست	-9.758
▁درخت	-9.75847
▁بهشت	-9.75952
ers	-9.76006
▁هوش	-9.76047
▁مسلمان	-9.7614
▁قر	-9.76268
▁۵۰	-9.763
▁ملک	-9.76321
▁روبرو	-9.76463
▁اولویت	-9.76463
com	-9.76493
ap	-9.76616
▁فرانسوی	-9.76656
▁مصنوعی	-9.76656
▁قالب	-9.76657
▁شاد	-9.76718
▁آژانس	-9.76852
▁تاریک	-9.76963
▁سادگی	-9.77062
قل	-9.7713
▁مجلس	-9.77245
▁سلام	-9.77314
▁عرض	-9.77316
▁گذاران	-9.77317
▁انگلیس	-9.7736
▁شاه	-9.77414
گز	-9.77419
▁دسامبر	-9.77441
▁معتبر	-9.77442
▁عصر	-9.77443
▁شهرهای	-9.77532
▁عزیز	-9.77639
▁24	-9.7769
▁قطعا	-9.7782
▁پرونده	-9.77884
▁باستان	-9.77952
▁سطوح	-9.78034
▁نقاشی	-9.78034
▁کتابخانه	-9.78102
▁مرغ	-9.78153
صد	-9.78214
▁ژانویه	-9.78233
▁فقر	-9.78298
▁ثروتمند	-9.78389
▁میزبان	-9.78435
▁برج	-9.78474
▁بازیکن	-9.78501
▁متخصصان	-9.78502
▁سهم	-9.78513
▁منزل	-9.78596
▁پناه	-9.78646
ائی	-9.78762
▁ناتو	-9.78823
▁ابزارهای	-9.789
▁چای	-9.78945
ho	-9.78982
▁ایستگاه	-9.79032
▁باشگاه	-9.79044
▁مقدس	-9.79232
▁عمده	-9.794
«	-9.79415
▁جوانان	-9.79466
▁همکاران	-9.7957
▁شریک	-9.79603
▁پاریس	-9.79634
▁آلمانی	-9.79645
'	-9.79818
▁تحصیلی	-9.79823
▁2015	-9.79842
فل	-9.7997
all	-9.79973
▁مسابقه	-9.80036
▁ترافیک	-9.80036
▁اواخر	-9.80038
▁صدها	-9.80048
▁تل	-9.80052
▁مجله	-9.80084
▁شنیده	-9.80108
▁سبب	-9.8024
▁نداریم	-9.8024
▁وسایل	-9.80241
▁شوهر	-9.80267
▁گویم	-9.80285
حق	-9.80413
▁نوامبر	-9.80645
▁نمایشگاه	-9.80759
▁بزنید	-9.80849
▁دیابت	-9.80849
▁شنبه	-9.80889
ac	-9.80913
▁طیف	-9.80976
▁ثروت	-9.81096
▁صادرات	-9.81109
▁پنجره	-9.81112
▁مسیح	-9.81122
▁شرقی	-9.81136
١	-9.81257
▁مراجعه	-9.81257
▁نظیر	-9.81257
▁شفاف	-9.81257
▁برگشت	-9.81271
▁دومین	-9.81355
▁آرامش	-9.81378
▁مدرک	-9.81464
▁کاربرد	-9.81609
▁میکرو	-9.81614
▁اسپانیا	-9.81617
▁ژوئن	-9.81667
▁منظم	-9.81673
▁سریال	-9.81838
▁خسته	-9.81876
▁تس	-9.81913
▁خالی	-9.81974
▁آیت	-9.82052
ْ	-9.82079
▁اثبات	-9.82079
گل	-9.82121
▁سرور	-9.82239
▁دختران	-9.82259
▁نزدیکی	-9.82261
ة	-9.82286
▁ریز	-9.823
▁Ch	-9.82361
▁Mo	-9.82372
▁پاداش	-9.82494
▁مجموع	-9.82496
رق	-9.82597
▁الکترونیکی	-9.82706
نما	-9.8275
▁مهمان	-9.82794
▁آپ	-9.82805
▁نبرد	-9.82816
ge	-9.82936
▁تحول	-9.82942
▁آفریقا	-9.82964
▁ظرفیت	-9.82966
انگ	-9.83011
پرس	-9.83065
mp	-9.83117
▁دادم	-9.8322
▁کشیدن	-9.83234
▁مجازات	-9.83283
▁ثبات	-9.83325
ve	-9.8342
ha	-9.83486
▁كن	-9.83514
▁مکمل	-9.83553
▁فردا	-9.83553
▁نوزاد	-9.83594
▁اجرایی	-9.83685
▁رز	-9.83729
▁حتما	-9.83742
▁غنی	-9.83915
▁جلب	-9.83956
▁آموخت	-9.83956
زد	-9.84033
▁متعلق	-9.84165
▁دیدم	-9.84217
▁the	-9.84228
▁بیانیه	-9.84291
▁یك	-9.84299
▁خورده	-9.84328
▁نادیده	-9.84376
▁دیر	-9.84548
▁هرگونه	-9.84569
▁دموکراسی	-9.84587
▁ابتلا	-9.84588
▁Google	-9.84799
▁کمپانی	-9.84799
▁عصبی	-9.84808
▁واژه	-9.84822
مال	-9.84845
_	-9.85011
▁شیطان	-9.85012
▁فرودگاه	-9.85027
▁عموم	-9.85213
▁تعجب	-9.85225
▁متولد	-9.85225
▁زخم	-9.85227
▁سابقه	-9.85287
to	-9.85325
ایت	-9.85345
▁مخفی	-9.85472
art	-9.8557
▁مربی	-9.85592
▁تصویب	-9.85651
▁ارزشمند	-9.85658
▁تصادف	-9.85865
▁موقت	-9.85907
▁انگار	-9.85937
▁امیدوارم	-9.85993
▁شن	-9.86015
▁صنایع	-9.8608
▁تعهد	-9.86098
▁یونان	-9.86098
▁اب	-9.86273
▁and	-9.86278
▁وظایف	-9.86295
پل	-9.86431
▁فرق	-9.86464
▁مبلغ	-9.8651
▁اوباما	-9.86511
▁۱۳	-9.8657
▁تماشا	-9.86607
▁معلم	-9.86657
▁تکامل	-9.86727
سه	-9.86752
▁خواستار	-9.86767
▁تحقیقاتی	-9.86812
▁خلاف	-9.86815
ریک	-9.86902
▁نیو	-9.86909
▁فیس	-9.87074
▁کف	-9.87118
▁بافت	-9.87252
▁خل	-9.87287
▁نیرو	-9.87308
▁لطفا	-9.87349
▁کمیته	-9.87387
▁قول	-9.87481
اخ	-9.87502
▁قد	-9.8752
▁هوای	-9.87549
لر	-9.8759
▁مسلمانان	-9.8773
رسان	-9.87755
▁دانشکده	-9.87814
▁De	-9.88033
▁نویسی	-9.88082
۱۹	-9.88166
▁تردید	-9.88265
▁کیف	-9.88441
▁ابد	-9.88443
▁هنری	-9.88447
▁قوم	-9.88491
▁کاربردی	-9.88527
▁d	-9.88582
▁تحویل	-9.88691
▁شرق	-9.88698
▁مخصوص	-9.8879
▁باتری	-9.88797
گن	-9.88798
▁0	-9.88907
▁مراکز	-9.88913
▁ریاست	-9.88986
▁2017	-9.89133
▁هورمون	-9.89133
▁بمب	-9.89174
▁ماندن	-9.89218
▁استراتژیک	-9.89233
▁اعدام	-9.89355
رفت	-9.89456
▁مز	-9.89548
▁مهمترین	-9.89654
▁بگوید	-9.89678
▁ورزشی	-9.89933
▁یخ	-9.89961
خوان	-9.90029
وئید	-9.90165
▁نکن	-9.90196
▁تأمین	-9.90247
em	-9.90335
▁تخت	-9.90384
▁نوشیدنی	-9.90506
▁نیک	-9.90521
▁رسانی	-9.90628
▁کفش	-9.90662
▁وضع	-9.90663
▁نشود	-9.9076
▁ناحیه	-9.90921
▁تعادل	-9.90921
▁رقم	-9.90927
▁جامع	-9.91041
▁ممنوع	-9.91082
▁منطقی	-9.91198
▁قربانی	-9.91302
▁مثلا	-9.91316
▁ورودی	-9.91448
▁نژاد	-9.916
▁زمستان	-9.916
▁کارشناسان	-9.91603
▁پیشین	-9.91615
▁خانوادگی	-9.91827
▁کاغذ	-9.91827
▁تحریک	-9.91831
▁کمپین	-9.91834
▁بماند	-9.91837
30	-9.91984
▁غذای	-9.91997
سین	-9.92058
▁اخبار	-9.92301
اعت	-9.92367
▁سیم	-9.92394
زاد	-9.92412
ce	-9.92431
▁نوآوری	-9.92513
▁خارجه	-9.92609
▁چیزها	-9.92645
▁طالبان	-9.92741
▁صندلی	-9.92742
▁2018	-9.9275
▁w	-9.92773
▁فیلتر	-9.92972
▁سازگار	-9.92998
▁خوانده	-9.93056
os	-9.93093
▁برود	-9.93133
▁f	-9.93138
▁استراحت	-9.93202
▁ماجرا	-9.93236
▁روانی	-9.93304
▁مارک	-9.93322
▁بینید	-9.93332
▁دائمی	-9.93344
▁رایج	-9.93349
▁آفریقای	-9.93371
٬	-9.93433
▁عوارض	-9.93433
▁کاخ	-9.93559
▁چندان	-9.93573
▁متهم	-9.93607
٠	-9.93664
▁ظهور	-9.93664
▁برگ	-9.9371
ell	-9.9375
▁عربی	-9.93764
▁بالایی	-9.93978
▁دائم	-9.9399
▁فدرال	-9.94129
▁حساس	-9.94204
▁مدار	-9.94274
▁مون	-9.94345
▁انعطاف	-9.94362
▁کام	-9.94368
▁مجاز	-9.94371
▁نتوانست	-9.9444
▁اپ	-9.9446
▁الکل	-9.94504
▁ذهنی	-9.94505
▁گا	-9.94511
▁نکات	-9.94607
▁صرفه	-9.94632
سور	-9.94644
▁آیه	-9.94648
▁چرخه	-9.94658
▁بزرگسالان	-9.94775
▁سند	-9.94838
▁ترکیبی	-9.94989
*	-9.9508
فروش	-9.95156
▁لایه	-9.95177
▁سئو	-9.95177
▁تعطیلات	-9.95183
يت	-9.95206
▁خراب	-9.9521
▁ظرف	-9.95235
▁لزوم	-9.95305
na	-9.95314
▁اي	-9.95464
▁اتحاد	-9.95499
ity	-9.95499
▁تم	-9.9552
▁رحم	-9.95521
▁لبخند	-9.95536
▁ویندوز	-9.95536
▁کشیده	-9.9565
▁خواستم	-9.95685
▁مراقب	-9.95693
▁مسکو	-9.95703
▁Pro	-9.95704
if	-9.95922
▁نیا	-9.95952
▁حادثه	-9.96009
▁معادل	-9.96011
دگی	-9.96166
▁حج	-9.96247
گویی	-9.96267
▁حیوان	-9.96299
est	-9.96313
▁جانب	-9.96336
oc	-9.96376
▁شرط	-9.96392
▁باکتری	-9.96487
▁کوین	-9.96521
▁مقررات	-9.96544
▁موج	-9.9656
▁انقلابی	-9.96711
▁ضمن	-9.96724
▁بگیریم	-9.96725
ّت	-9.96818
▁رییس	-9.96826
▁امکانات	-9.96852
▁ویدئو	-9.97163
▁نماد	-9.97179
▁نقض	-9.97203
▁میتواند	-9.97205
▁غالب	-9.9722
▁اقیانوس	-9.97443
▁معیار	-9.97463
▁Z	-9.97526
▁شهروند	-9.9753
ag	-9.97601
▁هدیه	-9.97685
▁الهام	-9.97695
▁جانبی	-9.97698
▁Y	-9.979
▁شکر	-9.98025
▁درحالی	-9.98031
and	-9.98031
▁راضی	-9.98066
▁بتوان	-9.98144
▁تجدید	-9.98168
باز	-9.98307
▁داشتیم	-9.98374
▁داعش	-9.98411
▁شایع	-9.98417
وقت	-9.98685
▁خواهان	-9.98687
▁خطوط	-9.98897
▁سرانجام	-9.99142
ub	-9.99145
▁جام	-9.99154
▁شوروی	-9.99209
پوش	-9.9933
▁معاملات	-9.99387
▁in	-9.99422
up	-9.99471
▁آو	-9.99607
▁ضعف	-9.99633
▁شاخص	-9.99633
▁تروریستی	-9.9986
ؤ	-9.99879
▁اضطراب	-9.99879
▁گرچه	-9.99918
▁راهنمایی	-10.0005
▁رمان	-10.0015
▁یورو	-10.003
▁سیگنال	-10.0037
▁کنگره	-10.0037
▁2016	-10.0038
▁دانشجو	-10.0041
▁کاربری	-10.005
▁بگذارد	-10.0062
▁نفع	-10.0062
▁فارس	-10.0069
▁فلز	-10.0076
▁پذیرفته	-10.0081
▁بلو	-10.0081
▁صف	-10.0082
گرفت	-10.0086
▁تشکر	-10.0087
ex	-10.0091
▁a	-10.0095
▁آمدن	-10.0099
▁پیمان	-10.0101
▁۱۱	-10.0105
ke	-10.0106
ack	-10.0106
▁رفع	-10.0112
اتور	-10.013
▁اندکی	-10.0132
▁استخوان	-10.0138
▁کالج	-10.0142
▁حسین	-10.0146
▁نظرات	-10.0147
▁كند	-10.0149
▁اخ	-10.0153
▁قضاوت	-10.0163
▁ماموریت	-10.0165
▁نماینده	-10.0166
▁نمایندگان	-10.0168
▁عقل	-10.0195
▁گربه	-10.0197
▁سرخ	-10.0204
▁محاسبه	-10.0212
▁جور	-10.0221
▁اخیرا	-10.0222
▁صادق	-10.0231
▁افسر	-10.0242
▁۴۰	-10.0256
ist	-10.0272
▁معتقدند	-10.028
▁خواه	-10.0283
▁تازگی	-10.0289
▁نشین	-10.0294
▁ناپذیر	-10.0296
▁خورشیدی	-10.0301
▁عکاسی	-10.0302
▁مقیاس	-10.0314
▁۱۴	-10.032
▁مخدر	-10.0324
di	-10.0327
▁وقوع	-10.0339
▁جداگانه	-10.0339
nd	-10.0342
▁وحش	-10.0342
▁شیرین	-10.0347
دون	-10.0356
60	-10.0364
▁سرنوشت	-10.0365
▁فلسفه	-10.0365
80	-10.0375
تس	-10.038
▁دمای	-10.0388
ng	-10.0389
▁تفسیر	-10.039
▁آنقدر	-10.0391
▁مرده	-10.0397
▁سپ	-10.0405
▁گمان	-10.0408
▁اختراع	-10.0416
▁تئوری	-10.0416
▁پیروی	-10.0425
▁علامت	-10.0442
▁هرچه	-10.0453
-1	-10.0459
تز	-10.0464
▁اتومبیل	-10.0468
▁مقالات	-10.0468
▁بازیگر	-10.0469
▁دامنه	-10.047
راه	-10.0475
بود	-10.0476
▁زوج	-10.0478
▁خام	-10.0493
▁اپلیکیشن	-10.0494
▁پارلمان	-10.0494
کتور	-10.0495
دست	-10.0504
▁داو	-10.0506
▁چشمان	-10.0511
▁بوی	-10.0516
▁مؤثر	-10.052
▁تف	-10.0528
lu	-10.053
▁دفع	-10.0546
▁اکثریت	-10.0548
▁فوری	-10.0571
▁تنوع	-10.0572
▁اشکال	-10.0572
▁روزها	-10.0574
age	-10.0577
▁بگ	-10.0577
▁90	-10.0589
▁یابی	-10.0592
▁داوطلب	-10.0598
اما	-10.0604
▁نیستید	-10.0611
▁۲۵	-10.062
▁اوکراین	-10.0624
▁گذاشتن	-10.0629
▁خودکار	-10.0643
▁جنسیت	-10.0649
▁استعداد	-10.0651
man	-10.0652
▁موهای	-10.0653
جان	-10.0668
▁آلودگی	-10.0677
▁لغو	-10.0677
▁چوب	-10.0692
▁معلوم	-10.0704
▁پیوست	-10.0705
▁سیل	-10.0713
▁نما	-10.0724
99	-10.0726
▁جلسات	-10.073
▁متنوع	-10.073
▁پنجم	-10.0753
▁تزریق	-10.0757
▁بالاخره	-10.0757
▁كار	-10.0757
▁شادی	-10.0763
▁زنند	-10.0764
▁گرما	-10.0766
▁پدرش	-10.0772
ph	-10.0777
▁اسکن	-10.0779
▁نویسندگان	-10.0785
▁دوز	-10.0798
▁باردار	-10.08
▁یابند	-10.08
▁مجازی	-10.0802
گردان	-10.0806
▁موافقت	-10.0808
▁بیایید	-10.0811
▁ضرب	-10.0812
▁بیاید	-10.0812
▁شکایت	-10.0812
▁مهر	-10.0813
▁محور	-10.0815
▁زودتر	-10.0831
▁افت	-10.0854
▁سازنده	-10.0854
▁پلاستیک	-10.0864
▁سرکوب	-10.0864
▁جلوی	-10.0864
▁موجودات	-10.0885
▁تأکید	-10.0891
▁متعهد	-10.0891
▁رعایت	-10.0891
▁میدهد	-10.0898
▁کت	-10.09
▁دام	-10.091
▁شرح	-10.0917
▁احتیاج	-10.0918
▁مسلح	-10.0918
▁نخواهند	-10.0918
عنوان	-10.0923
▁لب	-10.0937
▁دادیم	-10.0939
▁آفتاب	-10.0945
▁بخواهد	-10.0945
▁یادآوری	-10.0945
▁کشی	-10.0963
▁اسناد	-10.0972
12	-10.0975
ast	-10.0975
▁خواهی	-10.0975
▁فرمانده	-10.098
▁بدهند	-10.0982
برگ	-10.0986
▁یهودی	-10.0994
ill	-10.0995
IS	-10.0996
▁2014	-10.0999
۲۰	-10.1
▁راجع	-10.1003
▁Ro	-10.1004
▁رایانه	-10.1004
▁محدوده	-10.1017
▁جوامع	-10.1026
▁غریب	-10.1028
▁مستند	-10.1046
▁نوشیدن	-10.105
▁ایمن	-10.1054
▁طب	-10.1063
ru	-10.1072
▁سیر	-10.1075
▁+	-10.1075
▁قطار	-10.1081
▁لبنان	-10.1081
▁تحصیلات	-10.1085
▁طرز	-10.1085
▁سینه	-10.1099
▁الکتریکی	-10.1109
▁حلقه	-10.1116
▁توپ	-10.1118
▁کنونی	-10.1128
▁شام	-10.1134
▁ببینند	-10.1137
▁اسید	-10.1138
▁بدانند	-10.1141
+	-10.1142
گزار	-10.1153
ess	-10.1158
▁سوئد	-10.1164
▁ماهواره	-10.1165
J	-10.117
▁همگی	-10.1174
ment	-10.1178
▁بینیم	-10.1179
der	-10.1184
mo	-10.1188
▁ندهید	-10.1192
▁مرور	-10.1193
▁کوچکتر	-10.1196
▁استانداردهای	-10.1197
▁بهینه	-10.12
▁کلام	-10.1217
▁زنجیره	-10.122
▁اتفاقات	-10.1222
▁تماشای	-10.1235
▁Wi	-10.1244
▁عصبانی	-10.125
▁قطعه	-10.1257
▁شنا	-10.1269
▁ضربه	-10.1274
▁اتخاذ	-10.1276
▁تحقق	-10.1276
▁جعبه	-10.1276
▁برزیل	-10.1277
▁21	-10.1277
ولوژی	-10.1279
ran	-10.1285
▁راستا	-10.1289
▁بکار	-10.129
▁هل	-10.1295
▁صندوق	-10.1304
▁بپرسید	-10.1304
▁استثنا	-10.1305
▁#	-10.1308
بزرگ	-10.131
قط	-10.1315
▁نتوان	-10.1324
▁متاسفانه	-10.1332
▁روزمره	-10.1332
▁اسب	-10.1335
▁دزد	-10.1337
▁حین	-10.1354
▁عنصر	-10.136
▁استدلال	-10.1361
▁الزام	-10.1361
▁اشتباهات	-10.1383
▁خوراک	-10.1389
▁80	-10.1393
فکر	-10.1398
▁ملا	-10.1399
▁بدترین	-10.1403
▁بنیان	-10.1405
▁ببرد	-10.1411
▁توانستند	-10.1416
▁باران	-10.1417
▁ندرت	-10.1418
▁فیزیک	-10.1421
▁کنون	-10.1442
▁تروریسم	-10.1446
▁خبرنگار	-10.1446
▁عالم	-10.1448
▁رودخانه	-10.1449
▁هک	-10.1466
ight	-10.1474
▁شعر	-10.1475
▁گز	-10.1483
▁آنتی	-10.15
▁ببینیم	-10.1503
▁آلوده	-10.1503
▁سکوت	-10.1503
▁ببیند	-10.1503
▁بخوا	-10.1506
▁تبلیغ	-10.1522
ff	-10.1523
▁نامزد	-10.1524
per	-10.1526
▁فوت	-10.1528
▁کمیسیون	-10.1531
▁قیام	-10.1534
▁ابراز	-10.154
▁هنرمند	-10.1549
▁سازند	-10.1551
▁>	-10.1552
▁وبسایت	-10.156
▁مخاطبان	-10.1563
▁آوریل	-10.1577
▁زرد	-10.1583
▁پیشگیری	-10.1585
▁اراده	-10.1589
▁مالکیت	-10.1595
▁هلند	-10.1642
▁ضبط	-10.1647
▁جشنواره	-10.1647
▁سرباز	-10.165
▁Sh	-10.165
▁دانستن	-10.1671
▁تصمیمات	-10.1673
▁دستورالعمل	-10.1676
▁اشغال	-10.1676
▁فقیر	-10.1676
▁سربازان	-10.1682
▁توانستم	-10.1682
ob	-10.1685
▁نشسته	-10.1688
▁پایتخت	-10.1706
▁فلسطینی	-10.1707
▁خشم	-10.1708
▁فوریه	-10.1711
▁جمعه	-10.1713
bo	-10.1721
▁حرارت	-10.1737
Y	-10.1743
▁لوله	-10.1743
▁قطر	-10.1744
▁جنایت	-10.1766
▁لمس	-10.1766
▁تابع	-10.1766
▁کارمند	-10.1769
بال	-10.1772
▁سایه	-10.1778
▁حاکم	-10.1788
?	-10.1794
▁کمونیست	-10.1794
▁مکزیک	-10.1794
▁درمورد	-10.1796
▁یهودیان	-10.1799
hi	-10.1801
▁نحو	-10.1803
▁راهنمای	-10.1803
▁روحانی	-10.1808
▁گذارند	-10.1813
گرا	-10.1818
▁لطف	-10.1827
▁حسابداری	-10.1831
▁۱۶	-10.1831
▁نباش	-10.1843
▁فلسطین	-10.1851
▁آمدند	-10.1854
▁السلام	-10.1856
▁خودکشی	-10.1856
▁خنده	-10.1857
▁کوش	-10.1858
▁گردن	-10.1861
▁نکند	-10.1862
ber	-10.1868
▁شکار	-10.1876
▁شنید	-10.1879
▁مسابقات	-10.1883
▁هیئت	-10.1883
▁قند	-10.1883
▁توقف	-10.1883
▁مالک	-10.1886
▁دشمنان	-10.189
▁کابل	-10.1893
▁بومی	-10.1904
▁توده	-10.1907
▁تخمین	-10.1908
▁آورید	-10.1911
▁انفجار	-10.1913
▁شارژ	-10.1913
▁۶۰	-10.1913
▁اجاره	-10.1915
▁محکم	-10.1943
▁پردازند	-10.1943
▁مقصد	-10.1945
▁عرب	-10.1946
io	-10.195
▁پیگیری	-10.1951
پرداز	-10.1958
▁اتوبوس	-10.1973
▁حقیقی	-10.1973
▁کربن	-10.1973
ak	-10.1978
ip	-10.1983
ew	-10.1998
▁گذراند	-10.2
▁وفادار	-10.2006
▁صفر	-10.2009
▁مهندس	-10.2019
۵۰	-10.2025
▁سراغ	-10.2033
▁آفرید	-10.2033
▁رفتارهای	-10.2037
▁ارتفاع	-10.2063
▁شکنجه	-10.2063
ace	-10.2072
ost	-10.2088
▁مشاغل	-10.2094
▁گوناگون	-10.2094
▁تجاوز	-10.2094
داشت	-10.2101
▁گریه	-10.2103
▁خطرات	-10.2106
▁پدید	-10.2106
▁بلا	-10.2109
▁حالیکه	-10.2122
▁ارتقا	-10.2124
▁اوضاع	-10.2124
>	-10.2133
▁کپی	-10.2134
▁اتمی	-10.2137
ark	-10.2143
▁خاطرات	-10.215
▁کریس	-10.2153
▁استخراج	-10.2155
▁مهربان	-10.2156
one	-10.216
ll	-10.2162
▁روایت	-10.2165
▁بخشد	-10.2187
▁مهاجران	-10.2188
▁کالری	-10.219
▁خواستند	-10.2203
▁محروم	-10.2216
▁2012	-10.2218
▁آنجایی	-10.2219
▁کلاسیک	-10.2231
▁ساکن	-10.2232
▁آمادگی	-10.2247
▁بخوان	-10.2258
▁نباشید	-10.2263
▁مسافرت	-10.2269
▁گیاهان	-10.2275
▁بخاطر	-10.2278
▁برخلاف	-10.2278
▁متقاضی	-10.2278
▁همدیگر	-10.2278
ant	-10.2297
▁مایع	-10.2307
▁[+]	-10.2309
▁تنفس	-10.2309
▁بگوییم	-10.231
▁دیگه	-10.231
گردد	-10.2319
▁یمن	-10.2332
▁فریب	-10.2339
▁عقیده	-10.234
▁موضع	-10.234
ly	-10.2358
▁پدیده	-10.2362
▁کارآمد	-10.2363
▁نوجوان	-10.2365
▁تح	-10.2367
▁آد	-10.2367
▁مخاطب	-10.2369
▁نسبتا	-10.237
▁بکشد	-10.2372
▁اتهام	-10.2372
▁بازارهای	-10.2373
▁موافق	-10.2374
▁جویی	-10.238
▁ایفا	-10.2382
▁قطعات	-10.2388
▁پروردگار	-10.2403
اسیون	-10.2407
▁متا	-10.2409
▁احمق	-10.2434
▁دکمه	-10.2434
▁نقص	-10.2434
▁پرستار	-10.2435
▁سیب	-10.2436
▁مادرش	-10.245
▁پذیرفت	-10.2452
▁مدنی	-10.2454
▁ضرورت	-10.2466
▁تخریب	-10.2466
▁دوچرخه	-10.2466
▁محقق	-10.2466
▁نوجوانان	-10.2472
▁نادر	-10.2476
▁تجربیات	-10.2498
▁رقص	-10.2498
▁22	-10.25
گذشت	-10.2507
▁مغ	-10.2511
iv	-10.2512
▁تنگ	-10.2518
▁كنند	-10.2527
▁خلاقیت	-10.2535
▁رغم	-10.2539
▁بخورید	-10.2561
▁آلبوم	-10.2561
▁خاموش	-10.2563
▁اشخاص	-10.2593
▁همسایه	-10.2593
▁مخالفت	-10.2597
▁خب	-10.2601
▁Ar	-10.2608
شما	-10.2609
ang	-10.2615
▁غلط	-10.2625
▁طعم	-10.2626
▁دموکراتیک	-10.2628
▁طلاق	-10.2641
▁دریاچه	-10.2658
▁ربات	-10.2659
▁مارکس	-10.2661
▁رادیو	-10.2666
▁گیرید	-10.2666
▁فرستاد	-10.267
▁اصلاحات	-10.2674
▁رفتم	-10.2689
▁امپراتور	-10.269
▁موسسات	-10.269
▁ناامید	-10.269
▁بزند	-10.2691
▁تروریست	-10.2692
▁نداد	-10.2695
▁۱۷	-10.2697
▁قرص	-10.2699
▁همسرش	-10.2705
▁فساد	-10.2722
▁دستمزد	-10.2722
▁قبیل	-10.2723
qu	-10.2724
▁مبنی	-10.2732
▁عاطفی	-10.2754
▁تعمیر	-10.2755
11	-10.2755
pe	-10.2774
▁موتورهای	-10.2775
▁مرزهای	-10.2777
▁طرفداران	-10.2782
▁حوادث	-10.2787
▁وضوح	-10.2787
▁سرو	-10.2788
واقع	-10.2794
▁کلاه	-10.2806
▁یادداشت	-10.2824
▁انکار	-10.2828
▁گردش	-10.2831
ld	-10.2831
▁|	-10.2834
ud	-10.2836
▁نداشتند	-10.2838
▁An	-10.2849
▁میانگین	-10.2853
▁راننده	-10.2856
▁دقیقاً	-10.287
no	-10.2873
▁عمدتا	-10.2875
▁IP	-10.2885
▁فاجعه	-10.2885
▁اتمام	-10.2885
▁تایلند	-10.2886
▁پرنده	-10.2909
▁ناپدید	-10.2918
▁برطرف	-10.2918
▁حامی	-10.2922
▁Me	-10.2936
pl	-10.2936
▁1-	-10.2942
▁آپارتمان	-10.2951
▁مداخله	-10.2951
▁لذا	-10.2952
▁Con	-10.2958
▁برآورده	-10.2959
چین	-10.2965
our	-10.2987
▁مواقع	-10.2989
▁داروها	-10.3008
▁چارچوب	-10.3018
▁سوئیس	-10.3018
▁Lo	-10.302
وژن	-10.3027
▁سنج	-10.3032
▁معناست	-10.3037
ite	-10.3037
▁مطلق	-10.3051
▁تسلیم	-10.3052
▁گردند	-10.3064
▁پال	-10.3064
▁بتوانیم	-10.307
▁رفتند	-10.3071
40	-10.3078
▁فیسبوک	-10.3085
▁محض	-10.3106
▁سخنان	-10.311
اجد	-10.3115
▁مؤسس	-10.3119
▁استودیو	-10.3119
▁h	-10.312
▁مدارک	-10.3125
مثل	-10.3137
اندن	-10.3138
▁70	-10.3144
▁گواهی	-10.3152
▁گردشگری	-10.3153
▁شنیدن	-10.3157
▁Sp	-10.3181
▁مبنای	-10.3187
▁نظم	-10.3187
▁مزیت	-10.3197
▁تمرینات	-10.3198
▁عده	-10.3198
▁2-	-10.3198
▁برآورد	-10.3213
▁ابتدایی	-10.3215
▁میتوانید	-10.322
▁Ex	-10.3233
▁فرستاده	-10.3241
▁ناسا	-10.3253
▁اشتغال	-10.3254
▁سلطنت	-10.3254
٢	-10.3254
▁صوتی	-10.3255
▁2019	-10.3256
▁پیشرو	-10.3261
▁&	-10.3264
▁جفت	-10.3266
آمد	-10.3267
SA	-10.3276
▁بلوک	-10.3285
▁بگو	-10.3287
▁ببرند	-10.3289
▁میراث	-10.3289
▁معنوی	-10.329
▁بدانیم	-10.3299
▁بقا	-10.3302
▁۲۴	-10.3303
▁چشمگیر	-10.3308
خدا	-10.3309
▁خلاق	-10.3314
▁الگوریتم	-10.3323
▁خلیج	-10.3323
▁کبد	-10.3329
▁جک	-10.3329
▁قربانیان	-10.3334
▁رده	-10.3336
▁امریکایی	-10.3341
▁چراغ	-10.3344
▁عام	-10.3349
▁عذاب	-10.3358
▁شجاع	-10.3358
▁2013	-10.3359
ear	-10.3361
▁خرج	-10.3376
▁اسلحه	-10.3392
▁ونزوئلا	-10.3392
▁پروتکل	-10.3392
▁مضر	-10.3393
▁بازگرداند	-10.3393
▁مبارز	-10.34
▁Ad	-10.34
▁پیروز	-10.341
▁Al	-10.3423
▁عرصه	-10.3427
▁گنج	-10.3437
▁زنگ	-10.3441
▁مول	-10.3443
▁افتتاح	-10.3462
▁دخالت	-10.3462
▁مفاهیم	-10.3462
▁مقادیر	-10.3462
▁واسطه	-10.3462
▁تسهیل	-10.3462
▁پرچم	-10.3462
are	-10.3471
▁فیبر	-10.3479
▁اخراج	-10.3497
▁اجباری	-10.3497
▁تنش	-10.35
▁هنرمندان	-10.3512
▁نداده	-10.3518
▁مخصوصا	-10.3518
▁اکسیژن	-10.3532
▁ادغام	-10.3532
▁سوگند	-10.3532
▁تومور	-10.3533
▁i	-10.3554
▁تظاهرات	-10.3567
▁تدریس	-10.3567
▁قایق	-10.3567
▁استقبال	-10.3567
▁کوبا	-10.3579
▁معلمان	-10.358
▁گاو	-10.3595
▁افسانه	-10.3602
▁پرتاب	-10.3603
▁مگ	-10.3609
sp	-10.3613
▁صاحبان	-10.3623
▁تنظیمات	-10.363
▁حریم	-10.3635
▁اندروید	-10.3638
▁فریاد	-10.3639
▁Be	-10.3644
▁۸۰	-10.3647
▁انتظارات	-10.3651
▁To	-10.3658
فور	-10.3659
انداز	-10.3665
▁قبلاً	-10.3666
▁غیرقابل	-10.3673
▁برساند	-10.3674
▁اخلاق	-10.3699
▁التحصیلان	-10.3702
▁حامل	-10.371
▁لیزر	-10.371
▁برسند	-10.3712
▁دانستم	-10.3713
▁بوس	-10.3716
▁کارکرد	-10.3724
▁سریعتر	-10.3729
▁رسیدگی	-10.3729
▁آقا	-10.3733
▁زر	-10.3745
▁ابعاد	-10.3745
▁تعطیل	-10.3763
ook	-10.3766
ES	-10.3769
▁ایستاده	-10.3781
▁شهادت	-10.3781
▁توییتر	-10.3781
▁بالاترین	-10.3787
▁وکیل	-10.3792
▁اندیشه	-10.3797
▁کشتن	-10.38
▁قطب	-10.3818
▁عمق	-10.3818
▁خیال	-10.3824
▁مسلم	-10.3824
▁لنز	-10.3827
حدود	-10.3828
▁کشاورز	-10.3849
▁تعلق	-10.3853
▁نخواهید	-10.3853
▁التحصیل	-10.386
▁میکنم	-10.3864
▁منطق	-10.3879
▁عضلات	-10.389
▁مرتکب	-10.389
▁کالیفرنیا	-10.389
▁رفاه	-10.389
خود	-10.3893
ron	-10.3895
OS	-10.3902
▁بازیگران	-10.392
▁فزاینده	-10.3926
▁واردات	-10.3931
▁داغ	-10.3936
▁نادرست	-10.3937
▁Le	-10.3959
▁فولاد	-10.3963
▁مشورت	-10.3963
▁دستاورد	-10.3963
▁مثلاً	-10.3968
▁ایتالیایی	-10.3974
▁کول	-10.3976
▁کرو	-10.3992
▁بسازید	-10.4
▁سرقت	-10.4
▁مسافر	-10.4007
▁بصورت	-10.4009
▁غیرقانونی	-10.4036
▁نظرسنجی	-10.4036
▁اکسید	-10.4037
!!!	-10.4043
▁مرورگر	-10.4043
خواست	-10.4044
ib	-10.4044
▁اندیش	-10.4044
ایر	-10.4051
ian	-10.4056
▁ستون	-10.4063
کاران	-10.4064
▁تأسیس	-10.4073
▁مطلوب	-10.4073
▁لهستان	-10.4074
▁دانه	-10.4075
▁دن	-10.4079
▁منظر	-10.4086
▁پوند	-10.4087
▁اعطا	-10.4111
▁طلایی	-10.4122
▁۲۰۱۵	-10.4148
الله	-10.416
▁شبانه	-10.4167
▁محاسبات	-10.4185
▁یکپارچه	-10.4185
▁تفریح	-10.4185
▁مولکول	-10.4185
▁رسند	-10.4188
▁بستر	-10.4195
▁23	-10.4198
▁پخت	-10.4199
va	-10.4215
;	-10.4223
▁آشپزخانه	-10.4223
▁خالص	-10.4223
▁شعار	-10.4223
▁ببینم	-10.4223
▁کوک	-10.4225
▁عبارتند	-10.4229
▁برداشته	-10.4249
▁جنس	-10.4254
▁مهاجر	-10.4255
▁جزو	-10.426
▁حرکات	-10.4261
▁مسدود	-10.4261
▁محبت	-10.4261
▁500	-10.4265
اصل	-10.4291
▁طراح	-10.4301
▁جراح	-10.4305
▁زندانیان	-10.4314
15	-10.4318
son	-10.4324
▁آکادمی	-10.4337
▁سایبری	-10.4337
▁شایسته	-10.4337
▁بگذارند	-10.4337
▁شهید	-10.4338
▁سازماندهی	-10.4338
▁اهدا	-10.4363
▁طراحان	-10.4374
▁مط	-10.4412
٩	-10.4413
▁قضیه	-10.4413
▁توجیه	-10.4413
▁2011	-10.4415
▁لاتین	-10.4419
▁to	-10.4432
18	-10.4438
▁تعهدات	-10.4449
▁نکنند	-10.4451
▁وحشتناک	-10.4452
▁اصلاً	-10.4464
▁کشند	-10.4465
16	-10.4487
▁سفارت	-10.449
ER	-10.4494
▁آشنایی	-10.4508
بورگ	-10.451
▁ذات	-10.4513
▁ضرر	-10.4529
▁سرتاسر	-10.4529
▁آیفون	-10.4529
▁زایمان	-10.4529
مندان	-10.4547
▁ویران	-10.4565
▁محرک	-10.4569
▁شیشه	-10.4576
▁28	-10.4585
ــ	-10.4588
▁ارمغان	-10.4607
▁التهاب	-10.4607
▁جبران	-10.4607
▁کانادایی	-10.463
▁تدریج	-10.4646
▁متغیر	-10.4646
▁قائل	-10.4646
▁روبه	-10.4651
▁خوشبختانه	-10.4652
▁فرود	-10.4668
▁دارویی	-10.4668
▁معاصر	-10.4685
▁دیپلم	-10.4685
▁جغرافیایی	-10.4688
ـــ	-10.469
AR	-10.469
▁اسپانیایی	-10.4695
96	-10.47
▁تسلیحات	-10.4725
▁متقاعد	-10.4725
▁نعمت	-10.4725
▁مجهز	-10.4725
▁نصف	-10.4726
▁شکاف	-10.4726
▁'	-10.4728
PA	-10.4729
▁کریم	-10.4731
▁جنین	-10.4731
▁کهکشان	-10.4733
▁يا	-10.4738
▁عسل	-10.474
act	-10.4742
▁جدایی	-10.4747
▁ندیده	-10.4756
▁درختان	-10.4757
▁پیوسته	-10.4763
▁دوشنبه	-10.4765
▁ادرار	-10.4765
▁پاپ	-10.4781
▁بوجود	-10.4805
▁میباشد	-10.4805
▁مختص	-10.4805
▁يک	-10.4806
▁خوشبخت	-10.4838
▁ادبیات	-10.4845
▁غلبه	-10.4845
▁امّا	-10.4845
▁تمدن	-10.4847
▁تلقی	-10.4848
▁گرایی	-10.4854
end	-10.4854
200	-10.4872
▁بگویند	-10.4885
▁رسول	-10.4903
▁مایکروسافت	-10.4925
▁اعتراف	-10.4925
▁طوفان	-10.4925
▁بنویسید	-10.4925
▁تجویز	-10.4925
▁مسجد	-10.4925
▁رأی	-10.4925
▁سومین	-10.4928
▁پرده	-10.4932
▁پورت	-10.4936
▁35	-10.4943
▁نویسد	-10.4947
▁کیست	-10.4954
▁مغازه	-10.4966
▁فرماید	-10.4966
▁مسافران	-10.4969
▁سپری	-10.4975
▁2008	-10.4978
▁هنگ	-10.4993
آیا	-10.5001
▁تهاجم	-10.5006
▁گرسنگی	-10.5006
▁تبادل	-10.5006
▁۲۱	-10.5018
▁زیرساخت	-10.5047
▁موسی	-10.5048
▁رویدادهای	-10.5067
▁(19	-10.5087
▁ایرلند	-10.5088
▁جاذبه	-10.5088
▁خیانت	-10.5088
▁ارتقاء	-10.5089
▁۷۰	-10.5091
▁اسباب	-10.5095
▁بخصوص	-10.5097
▁دونالد	-10.5129
▁برانگیز	-10.5129
▁قلمرو	-10.5129
▁2010	-10.5132
سیل	-10.5134
▁رضا	-10.5151
▁فرمول	-10.5152
▁فرزندتان	-10.5156
▁ائتلاف	-10.517
▁ابراهیم	-10.517
▁پردازد	-10.517
▁دیوید	-10.5171
▁جاسوس	-10.5171
▁فروخته	-10.5173
▁ویدئویی	-10.5179
da	-10.5179
▁300	-10.5185
ضعیف	-10.519
▁اداری	-10.5202
▁ابو	-10.5209
13	-10.521
▁بیاورید	-10.5212
▁بیفتد	-10.5212
▁بگذر	-10.5218
▁بلاک	-10.5242
▁افراط	-10.5254
▁جولای	-10.5254
▁مدعی	-10.5256
▁فعل	-10.5276
▁صبحانه	-10.5278
▁زلزله	-10.5295
▁سبزیجات	-10.5295
▁مغذی	-10.5295
▁حمام	-10.5296
▁رحمت	-10.5301
▁حساسیت	-10.5307
▁قاره	-10.5308
▁نهادهای	-10.5316
▁نوزادان	-10.5332
▁اعتصاب	-10.5337
▁خواص	-10.5337
▁سقف	-10.5338
▁تاخیر	-10.5338
–	-10.5358
▁مذهب	-10.5362
▁لیبی	-10.5362
▁Un	-10.5368
▁ژوئیه	-10.538
▁خونریزی	-10.538
▁موانع	-10.538
▁پژوهشگران	-10.5382
▁وحشت	-10.5397
▁آمازون	-10.5422
▁حاکمیت	-10.5431
ton	-10.5451
▁ساکنان	-10.5462
▁مکالمه	-10.5465
▁خستگی	-10.5465
▁دردناک	-10.5465
▁بمانید	-10.5465
▁شاخه	-10.5465
▁آرایش	-10.5473
▁26	-10.5475
▁مکانیک	-10.5477
آموز	-10.5486
▁سار	-10.5505
▁ویتنام	-10.5507
▁حقایق	-10.5507
▁ترویج	-10.5507
▁الکترو	-10.5508
▁ناهار	-10.5509
▁مسکن	-10.5528
▁27	-10.5544
▁واکسن	-10.555
▁بمانند	-10.5551
▁خورند	-10.5551
▁گواهینامه	-10.5552
▁خلبان	-10.5552
▁آینه	-10.5563
▁جزئی	-10.5584
▁بزرگسال	-10.5586
▁گرافیک	-10.5593
▁فالون	-10.5593
▁نگرش	-10.5594
▁نمک	-10.5602
ice	-10.5604
19	-10.5611
▁دندانپزشک	-10.5637
▁مشتاق	-10.5637
▁بکشید	-10.5637
▁لوازم	-10.5637
▁فاقد	-10.5637
▁معاون	-10.5637
▁رابط	-10.565
▁پرندگان	-10.566
▁قبر	-10.5661
▁زو	-10.5668
▁قدردانی	-10.568
▁اگه	-10.568
▁جیمز	-10.568
▁۲۲	-10.5687
▁طرفدار	-10.5696
استفاده	-10.5702
▁شوک	-10.5711
▁دموکرات	-10.5719
▁املاک	-10.5724
▁عمو	-10.573
▁شیمی	-10.5747
▁آلرژی	-10.5768
▁اضطراری	-10.5768
▁تئاتر	-10.5768
▁بصری	-10.5768
▁جدول	-10.5768
▁پرهیز	-10.5768
▁مستقر	-10.577
ood	-10.5773
“	-10.579
97	-10.5805
▁اعداد	-10.5812
▁مالزی	-10.5812
▁مزمن	-10.5819
ً	-10.5835
▁سامسونگ	-10.5856
▁مخلوط	-10.5856
▁اردوگاه	-10.5856
▁ساعات	-10.5856
▁سوپر	-10.5865
▁گویید	-10.5881
▁الکترونیک	-10.5899
▁ویرایش	-10.5901
▁یقین	-10.5903
▁غرق	-10.5906
▁2009	-10.5914
▁2000	-10.5921
▁الملل	-10.5945
▁ناشناخته	-10.5945
▁مطلع	-10.5945
▁زانو	-10.5954
▁دانشجویی	-10.5955
▁حاشیه	-10.599
▁ممنون	-10.599
▁خنک	-10.599
▁بالغ	-10.5992
▁نمایندگی	-10.5999
▁ارث	-10.6017
▁بزنند	-10.6035
▁عبدال	-10.6036
▁بندر	-10.6039
وگرافی	-10.6041
▁داوری	-10.605
▁بشود	-10.6054
▁آک	-10.6055
درصد	-10.6069
▁افغان	-10.6079
▁زور	-10.6095
▁نانو	-10.6102
رضا	-10.6106
▁احزاب	-10.6126
▁متمایز	-10.6126
▁رکورد	-10.6126
▁تحمیل	-10.6126
▁کریسمس	-10.6126
▁غول	-10.6126
ial	-10.6142
▁آهسته	-10.6171
▁مسأله	-10.6171
▁مراتب	-10.6172
▁مخرب	-10.6176
▁کال	-10.6203
▁۲۰۱۸	-10.6217
▁باهوش	-10.6219
▁خلاقانه	-10.6226
▁نیکو	-10.623
▁خشن	-10.6235
▁شلوغ	-10.6263
▁عروسی	-10.6263
▁بفرست	-10.6263
▁وادار	-10.628
▁افشا	-10.6301
▁آگهی	-10.6309
▁بازرگانی	-10.6309
▁۲۰۱۱	-10.6309
▁HIV	-10.6309
▁مدافع	-10.6309
▁2020	-10.6314
▁کابین	-10.6323
▁درخشان	-10.6359
▁غار	-10.6374
▁=	-10.6375
علیه	-10.6385
▁بشریت	-10.64
▁ترسناک	-10.6403
▁مکرر	-10.6405
▁انیمیشن	-10.645
▁وابستگی	-10.645
▁مربع	-10.645
▁خریداران	-10.645
▁نیافت	-10.6467
▁پیچ	-10.6493
▁ملاحظه	-10.6497
▁پیرامون	-10.6497
▁جبهه	-10.6497
▁برسید	-10.65
▁اینستاگرام	-10.6544
▁بیاورد	-10.6547
▁فرانک	-10.6553
▁اجتماع	-10.6556
▁پویا	-10.6575
▁اعتیاد	-10.6592
▁دگرگون	-10.6592
▁نرسید	-10.6594
ther	-10.6595
▁نیروگاه	-10.6598
▁فایده	-10.6602
▁تکیه	-10.6612
¬	-10.664
▁ستارگان	-10.664
▁شلیک	-10.664
▁فنجان	-10.6641
▁جزء	-10.6644
▁نگفت	-10.6651
▁2007	-10.6655
فرانس	-10.6686
▁دبیرستان	-10.6688
▁عواقب	-10.6688
▁۲۰۱۳	-10.6688
▁۲۰۱۴	-10.6688
▁ابتکار	-10.6688
▁ربط	-10.6688
▁حواس	-10.6691
▁خوانندگان	-10.6692
ance	-10.6722
▁لحظات	-10.6736
▁پتانسیل	-10.6736
▁پلتفرم	-10.6736
▁DNA	-10.6736
▁غافل	-10.6736
▁پروسه	-10.6739
▁تبعیض	-10.674
▁دافا	-10.6741
▁مایکل	-10.6742
▁قفل	-10.6745
▁قرض	-10.6748
▁قطعاً	-10.6754
▁ثالث	-10.6785
▁کنسول	-10.6785
▁ردیابی	-10.6785
▁شرکای	-10.6785
▁$	-10.679
▁معبد	-10.6794
▁متنفر	-10.6795
con	-10.6821
▁تشدید	-10.6833
▁جهنم	-10.6833
۱۰	-10.6852
▁شهرستان	-10.6865
▁پاره	-10.6869
▁متقابل	-10.6882
▁همینطور	-10.6883
▁چنانچه	-10.6887
▁مأموریت	-10.6887
آگاه	-10.6889
▁دیروز	-10.6893
▁قسم	-10.69
▁Vi	-10.6919
▁۹۰	-10.6922
▁محاکمه	-10.6932
▁گرایش	-10.6941
▁رزرو	-10.6941
▁تخلیه	-10.6981
▁معجزه	-10.6981
▁کلسترول	-10.6981
▁اذیت	-10.6981
▁صعود	-10.6981
▁کشتار	-10.6981
▁شتاب	-10.6982
چرا	-10.703
▁بازنشستگی	-10.7031
▁دیپلماتیک	-10.7031
▁شاهزاده	-10.7031
▁اسرار	-10.7031
▁دیسک	-10.7033
▁نقلیه	-10.7047
|	-10.7059
▁مفصل	-10.7081
▁دوازده	-10.7081
▁شاعر	-10.7082
▁آواز	-10.709
▁جورج	-10.7128
▁آرژانتین	-10.7131
▁آگوست	-10.7131
▁ظهر	-10.7131
▁معده	-10.7132
▁دیکتاتور	-10.7182
▁مجسمه	-10.7182
▁قلعه	-10.7182
▁فراخوان	-10.7184
▁بورس	-10.7193
ture	-10.72
▁عکاس	-10.7206
ide	-10.722
▁۲۰۱۶	-10.7232
▁احمد	-10.7232
▁بازخورد	-10.7233
▁حتماً	-10.7233
▁—	-10.7243
▁سانتی	-10.7249
▁تلخ	-10.7249
▁پنجاه	-10.7249
سلام	-10.7268
▁قاچاق	-10.7283
▁کافئین	-10.7283
▁دروازه	-10.7284
▁پمپ	-10.7284
▁قفس	-10.7285
▁عهد	-10.7288
▁قضایی	-10.7289
▁مستمر	-10.729
▁اجزای	-10.7335
▁اواسط	-10.7335
▁نگهبان	-10.7343
▁تخفیف	-10.7386
▁اندونزی	-10.7386
▁اموال	-10.7387
گفت	-10.7389
▁2006	-10.7401
▁لیگ	-10.7417
▁غیرممکن	-10.7438
▁فشرده	-10.7438
▁تیراندازی	-10.7438
▁زباله	-10.7438
▁مهاجم	-10.7439
▁حاکی	-10.7439
▁قاتل	-10.744
▁درآورد	-10.7463
▁قاضی	-10.749
▁اطاعت	-10.749
▁تربیت	-10.7492
▁پناهندگان	-10.7493
▁کیسه	-10.7495
▁برویم	-10.7496
▁واگذار	-10.7514
▁۵۰۰	-10.7525
▁اکتشاف	-10.7543
▁خسارت	-10.7543
▁چهارشنبه	-10.7543
▁نگرفته	-10.7543
▁نمره	-10.7544
▁سپاه	-10.7546
▁نیامد	-10.755
▁صادقانه	-10.7556
▁کارفرما	-10.7592
▁اصرار	-10.7595
▁انحصار	-10.7595
▁بخواهیم	-10.7595
▁بلیط	-10.7596
▁نوبت	-10.7596
▁اخذ	-10.7599
▁کربوهیدرات	-10.7648
▁وقایع	-10.7648
▁شباهت	-10.7648
▁رقیب	-10.7648
▁·	-10.7649
▁پردازی	-10.7656
▁for	-10.7661
▁ممنوعیت	-10.7663
▁متعادل	-10.7701
▁اقلیت	-10.7701
▁فرکانس	-10.7701
▁یکشنبه	-10.7701
▁بکنید	-10.7702
▁تاکتیک	-10.7702
▁پیامدهای	-10.7702
▁پوشیدن	-10.7711
▁تعویض	-10.7755
▁منتقد	-10.7755
▁اشیاء	-10.7755
▁تحسین	-10.7756
▁ناظر	-10.7756
▁توافقنامه	-10.7763
=	-10.7787
▁غیرنظامی	-10.7809
▁کنجکاو	-10.7809
▁متناسب	-10.7809
▁دربارۀ	-10.7809
▁سرپرست	-10.7809
▁سردرد	-10.7816
▁گرگ	-10.7822
▁سوره	-10.7824
▁دستیار	-10.783
▁وصل	-10.785
▁المپیک	-10.7863
▁صلاحیت	-10.7863
▁اشتیاق	-10.7863
▁ماساژ	-10.7863
▁گلوله	-10.7863
▁بخواهند	-10.7863
▁سخنگوی	-10.7866
▁قطعنامه	-10.7868
▁مامور	-10.787
▁رادیویی	-10.7871
ev	-10.7908
▁مشکوک	-10.7917
▁تعبیر	-10.7917
▁عادات	-10.7917
▁قانع	-10.7918
▁بازتاب	-10.7918
out	-10.7926
port	-10.7928
▁عادلانه	-10.7972
▁مبادله	-10.7972
▁متشکل	-10.7972
▁شوخی	-10.7972
▁گردشگران	-10.7973
▁براي	-10.7977
▁بازدیدکنندگان	-10.8027
▁قاطع	-10.8027
▁جادویی	-10.8027
هیچ	-10.8031
▁HTML	-10.8082
▁ظریف	-10.8082
▁خجالت	-10.8082
▁چسب	-10.8084
▁بخار	-10.8084
صورت	-10.8102
؟؟؟	-10.8109
‬	-10.8134
▁VPN	-10.8137
▁متعال	-10.8138
▁نواحی	-10.8138
▁۲۰۱۰	-10.8139
▁بازرسی	-10.8139
▁پاسخگویی	-10.8146
▁یادآور	-10.815
▁اعضا	-10.8192
▁عضلانی	-10.8193
▁یخچال	-10.8193
▁حبس	-10.8193
▁صلیب	-10.8194
▁ذرات	-10.8198
▁سواحل	-10.8249
▁کلمبیا	-10.8249
▁امواج	-10.8249
▁معلول	-10.825
▁سودمند	-10.8251
▁فاکتور	-10.8252
▁هواداران	-10.8256
▁زشت	-10.8266
▁آنجلس	-10.8306
▁تطبیق	-10.8306
▁مؤمن	-10.8306
▁فقدان	-10.8306
▁وردپرس	-10.8306
▁استعفا	-10.8307
▁جزایر	-10.8309
▁بمیر	-10.8316
▁تصریح	-10.8363
▁عبادت	-10.8363
▁بوسیله	-10.8363
▁سناریو	-10.8363
▁دانمارک	-10.8363
▁۲۰۱۲	-10.842
▁لیبرال	-10.842
▁تحرک	-10.842
▁ویلیام	-10.842
▁تایمز	-10.8422
▁تونل	-10.8424
▁سندرم	-10.8424
▁میکنیم	-10.8424
▁استانبول	-10.8477
▁مجمع	-10.8478
▁ولایت	-10.8482
▁خلاص	-10.8483
▁پشتیبان	-10.8484
▁تبعی	-10.8501
▁دانشمند	-10.8507
▁نخواهیم	-10.8535
▁بیایند	-10.8538
ven	-10.8538
▁پهن	-10.8549
▁نامناسب	-10.8593
▁SEO	-10.8593
▁زاویه	-10.8594
▁احیا	-10.8596
▁بالینی	-10.8603
ence	-10.8607
▁پیچیدگی	-10.8652
▁بمباران	-10.8652
▁سنسور	-10.8658
▁ایدئولوژی	-10.8711
▁مستلزم	-10.8711
▁۲۰۱۷	-10.8711
▁سرزنش	-10.8711
▁بسازد	-10.8711
▁کامیون	-10.8711
▁صدمه	-10.8721
▁فراگیر	-10.8722
▁معقول	-10.877
▁معترض	-10.877
▁مقطع	-10.877
▁فرشته	-10.877
▁New	-10.8774
▁قضا	-10.8786
▁احاطه	-10.8829
▁متأسفانه	-10.8829
▁هیتلر	-10.8829
▁پانزده	-10.8829
▁مقصر	-10.8829
▁کاندیدا	-10.8829
▁نشوید	-10.8829
▁قصه	-10.883
▁تسلط	-10.8889
▁قبال	-10.8897
▁عروق	-10.895
▁گمراه	-10.8951
▁تاثیرگذار	-10.8978
▁سوسیال	-10.9009
●	-10.901
▁سپرده	-10.901
▁توریست	-10.9017
▁شنوند	-10.9083
چنین	-10.9087
٨	-10.9132
▁بازنشسته	-10.9132
▁ورزشکاران	-10.9135
▁مطبوعات	-10.9194
▁مناظر	-10.9194
▁رقبا	-10.9194
▁صمیمی	-10.9256
▁نقره	-10.9256
▁کارفرمایان	-10.926
▁مرطوب	-10.9319
▁سلطه	-10.9319
▁بنزین	-10.9319
▁نسبی	-10.9319
▁امشب	-10.9321
Z	-10.936
▁بورژوا	-10.9382
▁اعصاب	-10.9382
▁مزرعه	-10.9382
▁گرجستان	-10.9382
▁تضاد	-10.9382
▁تخیل	-10.9382
▁تعلیم	-10.9382
▁iOS	-10.9382
▁عمد	-10.9383
▁جهش	-10.9385
▁بلژیک	-10.9445
▁مباحث	-10.9445
▁محوطه	-10.9445
▁ناخواسته	-10.9445
▁تجارب	-10.9445
▁روبات	-10.9451
▁آشپزی	-10.9509
▁پارچه	-10.9509
▁عاقل	-10.9509
▁الماس	-10.9509
▁سامانه	-10.9509
▁بیگانه	-10.9509
▁رویاهای	-10.9513
▁برسیم	-10.9514
▁You	-10.9563
▁پرتغال	-10.9573
▁پروفسور	-10.9573
▁عجله	-10.9573
▁باطل	-10.9578
▁خندید	-10.9581
land	-10.9617
یعنی	-10.9622
▁اعزام	-10.9637
▁سپاسگزار	-10.9637
▁کاتولیک	-10.9637
▁ترغیب	-10.9637
▁تعقیب	-10.9637
خصوص	-10.9661
▁اتوماتیک	-10.9702
▁زحمت	-10.9702
\	-10.9702
٣	-10.9767
{	-10.9966
}	-11.0169
‘	-11.0306
&	-11.1227
<	-11.1877
٧	-11.2206
@	-11.2899
٥	-11.374
٤	-11.3838
↑	-11.4138
é	-11.4344
→	-11.4344
—	-11.4638
إ	-11.5097
ٌ	-11.5438
←	-11.6033
‫	-11.6281
‍	-11.6408
٦	-11.6666
#	-11.7181
q	-11.7617
€	-11.9697
$	-12.022
×	-12.1432
ü	-12.1644
®	-12.2544
ە	-12.2782
⁯	-12.3026
°	-12.3276
️	-12.4066
ٍ	-12.4629
ö	-12.4923
■	-12.5226
◄	-12.5226
′	-12.5539
ھ	-12.5539
›	-12.5861
ó	-12.7267
á	-12.7652
~	-12.8052
♫	-12.8052
â	-12.8052
😉	-12.8903
‪	-12.9358
£	-12.9834
ä	-12.9834
ç	-13.0334
‹	-13.086
♦	-13.086
^	-13.086
😀	-13.1416
ı	-13.1416
−	-13.2004
§	-13.2004
ٰ	-13.2004
✅	-13.2004
•	-13.2607
`	-13.2629
à	-13.2629
□	-13.2629
♥	-13.2629
⇐	-13.3296
ş	-13.3296
ˈ	-13.3296
	-13.401
è	-13.401
ñ	-13.5612
α	-13.5612
É	-13.6522
😍	-13.6522
	-13.7522
	-13.7522
ā	-13.7522
ã	-13.8633
р	-13.8633
́	-13.8633
и	-13.9883
å	-13.9883
í	-13.9883
⁄	-13.9883
★	-13.9883
±	-13.9883
Ç	-14.1311
ú	-14.1311
ٿ	-14.1311
﴾	-14.1311
👌	-14.1311
а	-14.2978
⁭	-14.2978
̊	-14.2978
̋	-14.2978
μ	-14.2978
о	-14.2978
ٴ	-14.2978
۔	-14.2978
☺	-14.2978
✓	-14.2978
н	-14.2978
е	-14.2978
̈	-14.4978
İ	-14.4978
Δ	-14.4978
ۆ	-14.4978
	-14.4978
Ø	-14.4978
ø	-14.4978
Ω	-14.4978
ε	-14.4978
ა	-14.4978
⁪	-14.4978
♯	-14.4978
✤	-14.4978
✭	-14.4978
⦁	-14.4978
	-14.4978
ğ	-14.4978
·	-14.7456
д	-14.7478
ν	-14.7478
▐	-14.7478
	-14.7478
ë	-14.7478
β	-14.7478
⁩	-14.7478
▬	-14.7478
	-14.7478
🌸	-14.7478
😂	-14.7478
😐	-14.7478
🔻	-14.7478
Ö	-14.7478
ლ	-15.0811
ო	-15.0811
≤	-15.0811
⃣	-15.0811
	-15.0811
¤	-15.0811
Â	-15.0811
ï	-15.0811
ò	-15.0811
Ş	-15.0811
Т	-15.0811
к	-15.0811
с	-15.0811
ڪ	-15.0811
⁣	-15.0811
⁮	-15.0811
≡	-15.0811
	-15.0811
👏	-15.0811
👻	-15.0811
🔥	-15.0811
🔺	-15.0811
😊	-15.0811
≠	-15.0811
š	-15.0811
κ	-15.0811
ɪ	-15.0811
ვ	-15.0811
י	-15.5811
🇪	-15.5811
ß	-15.5811
ð	-15.5811
ē	-15.5811
☼	-15.5811
	-15.5811
	-15.5811
¢	-15.5811
Ã	-15.5811
Ä	-15.5811
Ü	-15.5811
ô	-15.5811
÷	-15.5811
ý	-15.5811
ɛ	-15.5811
ː	-15.5811
γ	-15.5811
λ	-15.5811
ρ	-15.5811
ς	-15.5811
τ	-15.5811
Б	-15.5811
б	-15.5811
г	-15.5811
й	-15.5811
ڵ	-15.5811
ہ	-15.5811
ۂ	-15.5811
თ	-15.5811
ი	-15.5811
რ	-15.5811
‭	-15.5811
▶	-15.5811
◦	-15.5811
メ	-15.5811
事	-15.5811
件	-15.5811
朝	-15.5811
灣	-15.5811
軍	-15.5811
	-15.5811
	-15.5811
	-15.5811
	-15.5811
🍃	-15.5811
😅	-15.5811
😏	-15.5811
😢	-15.5811
😥	-15.5811
😳	-15.5811
😵	-15.5811
🙁	-15.5811
‚	-15.5811
ο	-15.5811
ს	-15.5811
л	-15.5811
😛	-16.5756
🔷	-16.5758
📣	-16.5758
	-16.576
	-16.576
	-16.5762
	-16.5763
本	-16.5763
日	-16.5765
台	-16.5765
❇	-16.5767
◀	-16.5767
▲	-16.5769
≥	-16.577
ܜ	-16.577
ܔ	-16.5772
К	-16.5772
̇	-16.5774
ʊ	-16.5774
ƒ	-16.5776
î	-16.5777
ê	-16.5777
¡	-16.5779
	-16.5779
➕	-16.5781
⁧	-16.5781
θ	-16.5783
̨	-16.5784
ń	-16.5784
	-16.5786
	-16.5786
✕	-16.5788
○	-16.5788
М	-16.579
🔴	-16.5791
👈	-16.5791
	-16.5793
⚡	-16.5793
♬	-16.5795
◊	-16.5795
„	-16.5797
🌷	-16.5798
﴿	-16.5798
✔	-16.58
œ	-16.58
❤	-16.5802
√	-16.5802
🙂	-16.5804
	-16.5805
🔸	-16.5805
©	-16.5807
▫	-16.5807
🔹	-16.5809
➖	-16.5809
♪	-16.5811
ʁ	-16.5811
გ	-16.5811
Г	-16.5811
З	-16.5811
כ	-16.5811
坛	-16.5811
天	-16.5811
语	-16.5811
	-16.5811
🇺	-16.5811
🤗	-16.5811
ū	-16.5811
ǎ	-16.5811
Ε	-16.5811
》	-16.5811
臺	-16.5811
아	-16.5811
티	-16.5811
	-16.5811
	-16.5811
💫	-16.5811
💳	-16.5811
⏺	-16.5811
📈	-16.5811
😒	-16.5811
	-16.5811
	-16.5811
	-16.5811
	-16.5811
	-16.5811
¥	-16.5811
Á	-16.5811
Å	-16.5811
Ô	-16.5811
æ	-16.5811
ì	-16.5811
þ	-16.5811
ć	-16.5811
ī	-16.5811
ł	-16.5811
ű	-16.5811
Ž	-16.5811
ɔ	-16.5811
ə	-16.5811
ɜ	-16.5811
ɨ	-16.5811
ʀ	-16.5811
ʺ	-16.5811
ˌ	-16.5811
ˏ	-16.5811
̃	-16.5811
̏	-16.5811
̵	-16.5811
Α	-16.5811
Μ	-16.5811
Φ	-16.5811
ζ	-16.5811
φ	-16.5811
ω	-16.5811
И	-16.5811
О	-16.5811
П	-16.5811
С	-16.5811
м	-16.5811
т	-16.5811
у	-16.5811
х	-16.5811
ы	-16.5811
я	-16.5811
ё	-16.5811
ћ	-16.5811
ה	-16.5811
ח	-16.5811
מ	-16.5811
פ	-16.5811
ש	-16.5811
ګ	-16.5811
ں	-16.5811
ۃ	-16.5811
ێ	-16.5811
ے	-16.5811
ก	-16.5811
ง	-16.5811
แ	-16.5811
მ	-16.5811
ნ	-16.5811
ქ	-16.5811
ṇ	-16.5811
ṯ	-16.5811
ủ	-16.5811
ἐ	-16.5811
Ἴ	-16.5811
ῖ	-16.5811
―	-16.5811
†	-16.5811
※	-16.5811
⁠	-16.5811
₩	-16.5811
₹	-16.5811
↓	-16.5811
⇆	-16.5811
⇔	-16.5811
∀	-16.5811
∆	-16.5811
∈	-16.5811
∗	-16.5811
∘	-16.5811
∴	-16.5811
≈	-16.5811
⊞	-16.5811
⋆	-16.5811
⌘	-16.5811
►	-16.5811
◇	-16.5811
◽	-16.5811
◾	-16.5811
☆	-16.5811
☚	-16.5811
♊	-16.5811
♒	-16.5811
♡	-16.5811
⚽	-16.5811
✋	-16.5811
✳	-16.5811
✵	-16.5811
❌	-16.5811
❗	-16.5811
➌	-16.5811
➐	-16.5811
⟨	-16.5811
⟩	-16.5811
⬅	-16.5811
「	-16.5811
か	-16.5811
き	-16.5811
ど	-16.5811
ま	-16.5811
モ	-16.5811
ヤ	-16.5811
一	-16.5811
东	-16.5811
人	-16.5811
前	-16.5811
十	-16.5811
命	-16.5811
外	-16.5811
子	-16.5811
孫	-16.5811
將	-16.5811
撫	-16.5811
斐	-16.5811
旗	-16.5811
月	-16.5811
樹	-16.5811
湾	-16.5811
爱	-16.5811
生	-16.5811
甲	-16.5811
碌	-16.5811
神	-16.5811
英	-16.5811
蔼	-16.5811
谷	-16.5811
锦	-16.5811
门	-16.5811
革	-16.5811
도	-16.5811
라	-16.5811
장	-16.5811
	-16.5811
	-16.5811
	-16.5811
	-16.5811
	-16.5811
	-16.5811
	-16.5811
	-16.5811
	-16.5811
	-16.5811
	-16.5811
	-16.5811
	-16.5811
🇩	-16.5811
🇬	-16.5811
🇷	-16.5811
🌐	-16.5811
🌬	-16.5811
🌲	-16.5811
🌺	-16.5811
🍁	-16.5811
🍳	-16.5811
🎁	-16.5811
🎄	-16.5811
🎥	-16.5811
🎬	-16.5811
🐶	-16.5811
👑	-16.5811
💎	-16.5811
💕	-16.5811
💜	-16.5811
💟	-16.5811
📍	-16.5811
📑	-16.5811
📝	-16.5811
📱	-16.5811
📽	-16.5811
🔎	-16.5811
🔔	-16.5811
🔵	-16.5811
🔶	-16.5811
😁	-16.5811
😌	-16.5811
😎	-16.5811
😔	-16.5811
😕	-16.5811
😗	-16.5811
😙	-16.5811
😭	-16.5811
😶	-16.5811
🙏	-16.5811
🚀	-16.5811
🚫	-16.5811
🤔	-16.5811
🥇	-16.5811
🌀	-16.5811
🗽	-16.5811
ٓ	-16.5811
څ	-16.5811
⏳	-16.5811
✍	-16.5811
📌	-16.5811
Ḥ	-16.5811
《	-16.5811
ŋ	-16.5812
ф	-16.5812
ь	-16.5812
ე	-16.5812
უ	-16.5812
ἥ	-16.5812
▪	-16.5812
