<unk>	0
<s>	0
</s>	0
▁ا	-0
▁ب	-1
▁م	-2
▁د	-3
▁ک	-4
ان	-5
را	-6
▁ه	-7
▁و	-8
ست	-9
▁ت	-10
ند	-11
ار	-12
ای	-13
ین	-14
▁در	-15
▁ش	-16
▁ن	-17
▁به	-18
▁می	-19
▁آ	-20
▁س	-21
▁خ	-22
ید	-23
ود	-24
▁که	-25
▁از	-26
▁را	-27
▁ی	-28
▁است	-29
▁با	-30
رد	-31
اد	-32
ال	-33
▁پ	-34
▁این	-35
رو	-36
ام	-37
ری	-38
▁گ	-39
▁ج	-40
▁های	-41
▁ف	-42
▁ح	-43
اه	-44
رای	-45
▁کن	-46
▁آن	-47
▁ع	-48
ما	-49
▁چ	-50
ور	-51
▁ز	-52
▁یک	-53
یم	-54
▁تو	-55
شت	-56
لی	-57
▁هم	-58
▁ق	-59
▁برای	-60
▁،	-61
اب	-62
ات	-63
سی	-64
▁بر	-65
فت	-66
▁شد	-67
ون	-68
▁ها	-69
▁ر	-70
یر	-71
▁کرد	-72
▁رو	-73
▁ان	-74
از	-75
▁خو	-76
▁مو	-77
▁من	-78
ول	-79
گر	-80
▁خود	-81
اری	-82
لا	-83
می	-84
انی	-85
تی	-86
ها	-87
▁دار	-88
▁ط	-89
▁نی	-90
اده	-91
▁.	-92
▁شما	-93
▁ای	-94
▁بود	-95
▁کار	-96
گی	-97
▁بی	-98
▁باش	-99
▁توان	-100
▁ص	-101
▁ده	-102
▁یا	-103
▁دا	-104
وی	-105
تر	-106
▁تا	-107
زی	-108
▁کند	-109
مان	-110
▁ما	-111
▁شود	-112
▁او	-113
خت	-114
ایی	-115
▁کنند	-116
▁شده	-117
▁سال	-118
▁ام	-119
▁(	-120
▁دو	-121
▁تر	-122
اید	-123
کن	-124
اس	-125
وان	-126
یت	-127
▁کنید	-128
▁هر	-129
▁دی	-130
▁خواه	-131
▁هست	-132
▁پی	-133
▁مح	-134
ده	-135
▁آم	-136
دی	-137
انه	-138
▁مت	-139
نی	-140
▁مع	-141
▁ل	-142
اق	-143
▁اف	-144
بی	-145
شته	-146
▁اند	-147
رک	-148
های	-149
▁اما	-150
قی	-151
▁باشد	-152
له	-153
▁دست	-154
نگ	-155
گاه	-156
رت	-157
بت	-158
▁دارد	-159
▁حال	-160
▁نمی	-161
دا	-162
▁دان	-163
▁ال	-164
عی	-165
▁آنها	-166
▁فر	-167
یا	-168
▁1	-169
▁غ	-170
▁باید	-171
▁سر	-172
مای	-173
▁«	-174
▁اگر	-175
▁کم	-176
▁مش	-177
▁شو	-178
فته	-179
▁کش	-180
کی	-181
▁استف	-182
▁استفاده	-183
اره	-184
بر	-185
▁چه	-186
▁بد	-187
▁چی	-188
▁باز	-189
▁گر	-190
رف	-191
▁اس	-192
جه	-193
وز	-194
امه	-195
▁بسی	-196
▁نظ	-197
جود	-198
نده	-199
ارد	-200
▁دیگر	-201
رار	-202
اف	-203
▁)	-204
عه	-205
ادی	-206
▁نش	-207
▁مد	-208
▁مورد	-209
▁2	-210
▁هستند	-211
▁انج	-212
▁:	-213
▁نو	-214
که	-215
اخت	-216
▁زی	-217
▁"	-218
..	-219
▁تح	-220
▁روز	-221
▁دهد	-222
▁کرده	-223
▁رس	-224
▁داد	-225
وری	-226
عت	-227
▁پیش	-228
▁انجام	-229
▁بین	-230
یل	-231
دید	-232
▁ند	-233
▁گذ	-234
▁مق	-235
▁تن	-236
▁مرد	-237
رب	-238
نین	-239
▁نیست	-240
عد	-241
▁عن	-242
▁زند	-243
▁بخ	-244
▁همه	-245
زار	-246
▁زم	-247
▁تواند	-248
▁مس	-249
وم	-250
▁وجود	-251
▁جه	-252
▁تم	-253
رگ	-254
اط	-255
▁انت	-256
مل	-257
▁بیشت	-258
▁اج	-259
قت	-260
شی	-261
ستان	-262
▁نیز	-263
▁مه	-264
الی	-265
▁مان	-266
▁اح	-267
▁پس	-268
▁قرار	-269
▁عنوان	-270
فر	-271
خص	-272
▁ساز	-273
رات	-274
▁بز	-275
▁خواهد	-276
▁ات	-277
یده	-278
▁»	-279
ریک	-280
رکت	-281
▁هی	-282
▁مم	-283
▁روی	-284
▁توس	-285
▁داشته	-286
▁۱	-287
▁وی	-288
امل	-289
رس	-290
وا	-291
وت	-292
ونه	-293
▁کشور	-294
▁زندگی	-295
▁داشت	-296
▁دانش	-297
نامه	-298
▁واق	-299
▁سی	-300
کر	-301
▁راه	-302
▁مط	-303
▁ممکن	-304
وه	-305
کل	-306
▁...	-307
▁گفت	-308
▁همچ	-309
قه	-310
خی	-311
▁شوند	-312
▁جم	-313
▁هایی	-314
▁تص	-315
▁تج	-316
▁گو	-317
▁مج	-318
▁داده	-319
چه	-320
رز	-321
▁بیشتر	-322
▁-	-323
نا	-324
ینه	-325
▁بازی	-326
▁نه	-327
امی	-328
▁دارند	-329
اص	-330
▁بسیار	-331
▁اط	-332
▁کردن	-333
▁نظر	-334
▁شرکت	-335
ایت	-336
▁هیچ	-337
▁نیاز	-338
ورد	-339
▁زمان	-340
گان	-341
به	-342
▁طور	-343
▁نام	-344
▁بزرگ	-345
▁نق	-346
▁کس	-347
فا	-348
▁افرا	-349
▁یکی	-350
▁کنیم	-351
00	-352
▁اول	-353
کان	-354
عات	-355
▁اص	-356
▁آمریک	-357
مو	-358
▁شه	-359
ازه	-360
▁برنامه	-361
ره	-362
▁کل	-363
▁۲	-364
▁تنها	-365
▁جدید	-366
▁دور	-367
▁تغ	-368
▁مث	-369
▁بگ	-370
حی	-371
ورت	-372
▁S	-373
ترین	-374
▁حد	-375
▁ساخت	-376
▁قد	-377
▁چند	-378
مند	-379
▁کمک	-380
▁پرو	-381
▁همچنین	-382
▁نا	-383
سان	-384
▁مردم	-385
▁زن	-386
زای	-387
کت	-388
▁فق	-389
▁پای	-390
▁ماه	-391
▁شن	-392
صد	-393
er	-394
شه	-395
▁نشان	-396
شن	-397
ارت	-398
لب	-399
▁قب	-400
▁اد	-401
▁تغی	-402
▁سو	-403
▁بار	-404
جا	-405
لام	-406
▁چیزی	-407
اند	-408
▁واقع	-409
با	-410
رائ	-411
ژی	-412
▁C	-413
سته	-414
ستم	-415
شد	-416
▁آز	-417
▁اش	-418
لف	-419
▁توانید	-420
▁گی	-421
▁توسط	-422
▁ایر	-423
باره	-424
▁اع	-425
▁دهند	-426
▁بن	-427
جاد	-428
▁همان	-429
شان	-430
▁A	-431
▁تمام	-432
▁ایجاد	-433
رم	-434
▁صورت	-435
▁جن	-436
ابل	-437
▁آموز	-438
زه	-439
▁بیم	-440
▁فقط	-441
▁آی	-442
▁آیا	-443
▁ترین	-444
▁کو	-445
▁بعد	-446
▁بل	-447
▁خدا	-448
▁ك	-449
ضی	-450
▁کنم	-451
کس	-452
▁دل	-453
▁ری	-454
▁جهان	-455
▁تب	-456
▁طول	-457
▁بیش	-458
▁ض	-459
▁خی	-460
in	-461
قد	-462
▁مص	-463
بان	-464
خاب	-465
▁تع	-466
▁مانند	-467
▁بسیاری	-468
▁فع	-469
گونه	-470
▁تول	-471
▁ارت	-472
▁نس	-473
▁حتی	-474
▁باشید	-475
▁سه	-476
▁هن	-477
▁انتخاب	-478
▁اینکه	-479
▁افراد	-480
▁خط	-481
▁رفت	-482
▁3	-483
▁یاد	-484
▁آمریکا	-485
رسی	-486
▁اطلا	-487
فی	-488
▁تق	-489
تاب	-490
▁نم	-491
بود	-492
راه	-493
▁برخی	-494
on	-495
▁وق	-496
▁ث	-497
▁مهم	-498
رده	-499
نج	-500
▁زمانی	-501
▁خان	-502
▁غیر	-503
مت	-504
▁گرفت	-505
لیل	-506
ژه	-507
▁M	-508
کار	-509
قیق	-510
شم	-511
▁کردند	-512
مال	-513
▁وا	-514
▁سا	-515
▁دول	-516
مین	-517
▁جای	-518
وش	-519
▁ایران	-520
سه	-521
▁باشند	-522
▁برا	-523
▁P	-524
▁کود	-525
ثر	-526
▁20	-527
an	-528
وب	-529
▁افزای	-530
وق	-531
گری	-532
▁دهید	-533
▁بخش	-534
وع	-535
توان	-536
▁درصد	-537
▁افزایش	-538
ادر	-539
▁نمای	-540
▁کتاب	-541
▁آب	-542
صی	-543
▁چیز	-544
▁فیل	-545
▁مرا	-546
▁تغییر	-547
▁حا	-548
▁هد	-549
▁دوست	-550
▁چرا	-551
یس	-552
ساس	-553
بال	-554
▁!	-555
نه	-556
▁تولید	-557
ریق	-558
▁شان	-559
▁ذ	-560
▁غذ	-561
ابی	-562
▁فکر	-563
▁شب	-564
▁شخص	-565
▁فرو	-566
گیری	-567
▁[	-568
▁همین	-569
▁مشت	-570
اتی	-571
▁بع	-572
▁دید	-573
▁توانند	-574
▁اطلاعات	-575
▁توجه	-576
▁علا	-577
یدا	-578
▁سیا	-579
▁ایم	-580
▁ارائ	-581
▁حق	-582
رح	-583
▁میلی	-584
▁ارائه	-585
▁گرو	-586
▁اخ	-587
ایل	-588
▁کسی	-589
▁عم	-590
▁مشکل	-591
▁چگونه	-592
▁“	-593
▁تش	-594
▁فعال	-595
ونی	-596
زینه	-597
▁وقتی	-598
جی	-599
▁گرد	-600
▁؟	-601
▁بوده	-602
▁خار	-603
ینی	-604
▁مخت	-605
▁بدون	-606
▁خانه	-607
وط	-608
▁خد	-609
واه	-610
▁نخ	-611
.»	-612
▁فرد	-613
ریت	-614
▁اعت	-615
▁B	-616
▁شدن	-617
رام	-618
▁احت	-619
▁هنگ	-620
▁تان	-621
▁بودند	-622
▁عل	-623
▁گروه	-624
▁عمل	-625
▁پیدا	-626
▁زیادی	-627
▁گرفته	-628
▁درباره	-629
عیت	-630
مات	-631
▁پر	-632
▁–	-633
▁کاه	-634
گز	-635
▁ژ	-636
▁T	-637
▁آل	-638
روز	-639
اً	-640
▁اه	-641
▁جنگ	-642
▁معم	-643
ستی	-644
رزش	-645
بط	-646
ar	-647
راحی	-648
▁سیستم	-649
یشه	-650
▁”	-651
▁حس	-652
▁5	-653
▁کاهش	-654
روع	-655
قل	-656
▁شهر	-657
▁خیلی	-658
تما	-659
▁سازمان	-660
مه	-661
▁مطال	-662
۰۰	-663
▁خوب	-664
▁برد	-665
▁بال	-666
▁4	-667
▁اقت	-668
▁شروع	-669
▁مختلف	-670
▁دولت	-671
وس	-672
▁کام	-673
لیه	-674
تان	-675
▁D	-676
▁دنی	-677
▁اب	-678
▁سپ	-679
راین	-680
بار	-681
ران	-682
فق	-683
گه	-684
▁کننده	-685
▁19	-686
▁متح	-687
▁اقتص	-688
▁نفر	-689
▁سایت	-690
▁شک	-691
▁احساس	-692
وند	-693
الات	-694
▁قابل	-695
▁فیلم	-696
▁چنین	-697
▁اولین	-698
▁موض	-699
or	-700
▁آورد	-701
▁دلیل	-702
رین	-703
▁دیگری	-704
▁قبل	-705
▁I	-706
رکز	-707
یمی	-708
▁نز	-709
▁بناب	-710
▁خر	-711
▁بهترین	-712
▁انسان	-713
▁میان	-714
▁منط	-715
▁دارید	-716
▁مست	-717
ودی	-718
▁منت	-719
▁تاری	-720
▁جل	-721
▁کسب	-722
▁روش	-723
▁صح	-724
باط	-725
▁خواهید	-726
وار	-727
یدن	-728
▁حرف	-729
▁پرد	-730
▁همیشه	-731
▁انگ	-732
▁ندارد	-733
▁فرا	-734
▁زبان	-735
▁افت	-736
▁تلا	-737
▁خواهند	-738
عث	-739
▁بنابراین	-740
▁باعث	-741
▁ولی	-742
▁دن	-743
زش	-744
▁کوچ	-745
اران	-746
▁ارو	-747
▁s	-748
▁موفق	-749
▁لی	-750
ربه	-751
▁پاس	-752
▁قدرت	-753
▁خانو	-754
en	-755
▁دارای	-756
▁ارتباط	-757
▁گذشته	-758
▁مخ	-759
▁کاری	-760
▁توسعه	-761
▁مدت	-762
شتی	-763
▁201	-764
▁دریا	-765
▁سط	-766
▁کی	-767
▁طراحی	-768
▁معمول	-769
ازی	-770
ظه	-771
بین	-772
▁اجتما	-773
▁طریق	-774
▁محص	-775
سم	-776
▁قان	-777
کرد	-778
▁دنبال	-779
▁G	-780
▁اروپ	-781
▁H	-782
al	-783
▁تلاش	-784
▁سری	-785
▁جهانی	-786
پی	-787
▁پذ	-788
▁پا	-789
▁آنچه	-790
▁شم	-791
ویی	-792
▁هدف	-793
▁تعد	-794
اهی	-795
▁بهتر	-796
▁ِ	-797
at	-798
ضر	-799
▁آینده	-800
▁دانشگاه	-801
طور	-802
▁وب	-803
▁بالا	-804
▁شامل	-805
▁هنوز	-806
▁صد	-807
▁زیر	-808
▁محصول	-809
سر	-810
نان	-811
▁خاص	-812
فاق	-813
▁سن	-814
ریان	-815
▁اصلی	-816
▁اجتماعی	-817
میم	-818
▁سرمای	-819
▁قط	-820
▁بدن	-821
▁R	-822
▁نوع	-823
اشت	-824
▁خرید	-825
▁سرمایه	-826
▁تک	-827
▁فروش	-828
مد	-829
▁سای	-830
▁اتفاق	-831
▁مدی	-832
▁مسئ	-833
ندی	-834
▁اشت	-835
▁ادامه	-836
▁,	-837
▁E	-838
▁حدود	-839
▁المل	-840
▁تجربه	-841
▁گفته	-842
▁خوا	-843
▁دریافت	-844
ولی	-845
اسب	-846
▁ته	-847
▁تحقیق	-848
▁مصرف	-849
▁جز	-850
▁دادن	-851
▁کمی	-852
من	-853
▁؛	-854
▁زنان	-855
▁تأ	-856
▁احتمال	-857
▁نسبت	-858
ثیر	-859
هن	-860
▁پاسخ	-861
▁زیرا	-862
افی	-863
▁خانواده	-864
▁اندازه	-865
اور	-866
فاوت	-867
شر	-868
ضای	-869
▁درمان	-870
▁همراه	-871
صو	-872
▁حاضر	-873
▁بررسی	-874
▁رشد	-875
▁۳	-876
▁منطقه	-877
▁مالی	-878
▁هزینه	-879
▁ساعت	-880
▁آموزش	-881
▁کوچک	-882
دیل	-883
ضا	-884
▁نیرو	-885
▁L	-886
▁حالی	-887
▁چهار	-888
▁نزدی	-889
▁میلیون	-890
دود	-891
▁ندار	-892
▁کنتر	-893
▁جام	-894
فه	-895
رش	-896
▁فعالیت	-897
▁هفته	-898
▁المللی	-899
▁اید	-900
▁وقت	-901
▁گزار	-902
▁F	-903
▁شی	-904
▁6	-905
▁خوبی	-906
▁خاط	-907
▁شرای	-908
es	-909
▁حل	-910
▁کلی	-911
▁شرایط	-912
▁اض	-913
کنون	-914
▁قر	-915
▁کنترل	-916
▁نتی	-917
▁میز	-918
▁تبدیل	-919
▁پزش	-920
▁صف	-921
▁داخ	-922
▁زمین	-923
▁کامل	-924
دم	-925
▁تحت	-926
▁مل	-927
▁هزار	-928
▁ارزش	-929
▁اک	-930
▁ترکی	-931
▁نتیجه	-932
▁وارد	-933
▁طبی	-934
▁دوره	-935
▁امروز	-936
▁پنج	-937
▁ظ	-938
▁ست	-939
▁بده	-940
▁۲۰	-941
لاح	-942
▁آغ	-943
▁کا	-944
ربی	-945
▁کان	-946
▁بتوان	-947
▁موضوع	-948
▁گست	-949
▁سطح	-950
▁جا	-951
یدی	-952
▁تصمیم	-953
▁بلکه	-954
▁مسی	-955
▁چون	-956
▁ار	-957
▁بیماری	-958
▁بازار	-959
▁خصو	-960
▁اجازه	-961
▁گوید	-962
▁گزارش	-963
▁جمه	-964
▁W	-965
▁اخت	-966
ازم	-967
دار	-968
▁شاید	-969
▁صحبت	-970
بری	-971
▁مرب	-972
▁۱۹	-973
▁صن	-974
شار	-975
▁­	-976
▁چشم	-977
▁سب	-978
▁تعداد	-979
▁سخ	-980
▁مدیریت	-981
▁مواد	-982
▁شدند	-983
▁گذاری	-984
le	-985
▁پول	-986
حه	-987
▁پایان	-988
it	-989
▁متحده	-990
▁شکل	-991
▁دلار	-992
▁وز	-993
▁آخ	-994
▁سازی	-995
▁مثال	-996
▁ره	-997
▁آسی	-998
▁گیر	-999
▁وض	-1000
▁اغ	-1001
▁N	-1002
▁سل	-1003
▁آغاز	-1004
▁بیشتری	-1005
وست	-1006
گران	-1007
رژی	-1008
ئی	-1009
▁برابر	-1010
▁درست	-1011
شق	-1012
ندان	-1013
▁ایالات	-1014
گرد	-1015
▁مغ	-1016
▁واقعی	-1017
▁سلام	-1018
▁بگیر	-1019
▁سف	-1020
▁هستید	-1021
دام	-1022
ندگان	-1023
عنی	-1024
▁طرف	-1025
▁ابت	-1026
▁کردم	-1027
▁جمله	-1028
▁خطر	-1029
▁خوش	-1030
یره	-1031
▁دنیا	-1032
▁نگاه	-1033
▁7	-1034
بران	-1035
ic	-1036
▁مثل	-1037
▁نوی	-1038
▁اغلب	-1039
▁حمای	-1040
▁مک	-1041
▁گیری	-1042
▁اروپا	-1043
رون	-1044
▁مربوط	-1045
▁اینجا	-1046
▁۵	-1047
ابت	-1048
▁جان	-1049
▁چین	-1050
▁بح	-1051
▁پذیر	-1052
▁امکان	-1053
در	-1054
▁منظ	-1055
▁اساس	-1056
▁مطالعه	-1057
▁یعنی	-1058
▁جو	-1059
کو	-1060
▁مناسب	-1061
▁نبود	-1062
▁/	-1063
▁محدود	-1064
▁شوید	-1065
▁عب	-1066
▁رسد	-1067
▁خاطر	-1068
▁تاریخ	-1069
▁حض	-1070
▁نزدیک	-1071
▁دیگران	-1072
بته	-1073
▁کسانی	-1074
▁تیم	-1075
▁سرا	-1076
▁پروژه	-1077
▁مشخص	-1078
رخ	-1079
▁زمینه	-1080
▁طی	-1081
اپ	-1082
▁حمایت	-1083
▁شناخت	-1084
▁قیم	-1085
▁گونه	-1086
نت	-1087
برد	-1088
▁انرژی	-1089
▁شبکه	-1090
▁لازم	-1091
مانی	-1092
▁آزمای	-1093
▁گیرد	-1094
▁امن	-1095
انس	-1096
قات	-1097
▁خدمات	-1098
▁هنگامی	-1099
▁یافت	-1100
▁آش	-1101
▁نگه	-1102
▁عمو	-1103
اله	-1104
▁فی	-1105
▁البته	-1106
دن	-1107
کاری	-1108
▁خواب	-1109
▁گوی	-1110
▁رای	-1111
میت	-1112
ویر	-1113
▁هوا	-1114
▁روسی	-1115
▁مرت	-1116
▁فل	-1117
▁موجود	-1118
▁اکنون	-1119
▁8	-1120
صل	-1121
▁t	-1122
▁داریم	-1123
▁طب	-1124
▁اقتصادی	-1125
▁رابط	-1126
اقل	-1127
▁۴	-1128
ولو	-1129
تری	-1130
▁نف	-1131
▁کافی	-1132
▁بدان	-1133
رض	-1134
▁کودکان	-1135
▁نمایش	-1136
▁کاملا	-1137
▁قانون	-1138
▁حی	-1139
ائ	-1140
جر	-1141
▁خون	-1142
▁تقری	-1143
▁توصی	-1144
▁سایر	-1145
▁سپس	-1146
شید	-1147
▁رود	-1148
▁اعلام	-1149
این	-1150
ویت	-1151
▁بان	-1152
ئیس	-1153
اح	-1154
▁سریع	-1155
▁سیاسی	-1156
▁قیمت	-1157
بانی	-1158
اسی	-1159
▁ملی	-1160
▁انتظ	-1161
▁دخ	-1162
▁نخواه	-1163
▁شخصی	-1164
▁ي	-1165
▁اقد	-1166
▁كه	-1167
▁نت	-1168
▁آزمایش	-1169
▁پیشر	-1170
▁رنگ	-1171
▁جامعه	-1172
▁پرداخت	-1173
▁سفر	-1174
اشته	-1175
▁مرگ	-1176
▁رسید	-1177
▁داستان	-1178
▁تقریبا	-1179
▁درک	-1180
▁شناس	-1181
▁9	-1182
روری	-1183
▁بهبود	-1184
▁کمتر	-1185
ro	-1186
▁دارم	-1187
▁ساخته	-1188
▁هرگز	-1189
▁تکن	-1190
لاف	-1191
▁یاب	-1192
▁لب	-1193
▁فرز	-1194
▁بعضی	-1195
▁حقی	-1196
▁طبیعی	-1197
▁موارد	-1198
re	-1199
▁محی	-1200
▁محیط	-1201
گو	-1202
امبر	-1203
▁پرس	-1204
▁ساده	-1205
▁کودک	-1206
▁مذ	-1207
▁انتق	-1208
▁حف	-1209
جوی	-1210
ریم	-1211
▁درخ	-1212
▁محت	-1213
امات	-1214
▁200	-1215
▁لح	-1216
▁خارج	-1217
▁رابطه	-1218
▁سخت	-1219
▁صفحه	-1220
خانه	-1221
▁روسیه	-1222
▁نقش	-1223
▁عو	-1224
▁عمومی	-1225
ونت	-1226
▁ویژه	-1227
▁کنار	-1228
▁10	-1229
▁ایده	-1230
شین	-1231
▁رق	-1232
▁یافته	-1233
▁موفقیت	-1234
▁فرص	-1235
▁هو	-1236
▁تما	-1237
▁دوم	-1238
is	-1239
▁سیاست	-1240
▁موق	-1241
▁حداقل	-1242
▁آنجا	-1243
▁آماده	-1244
▁افرادی	-1245
▁بودن	-1246
▁حقوق	-1247
▁حفظ	-1248
▁سوی	-1249
▁مشکلات	-1250
اهای	-1251
▁حساب	-1252
he	-1253
▁مجمو	-1254
▁حک	-1255
▁نکن	-1256
▁تل	-1257
▁ببین	-1258
▁دقیق	-1259
ئن	-1260
هایی	-1261
▁خداوند	-1262
وده	-1263
▁سرعت	-1264
▁حرکت	-1265
▁انگلی	-1266
اک	-1267
ارک	-1268
ولوژی	-1269
▁رفتار	-1270
ذار	-1271
▁صرف	-1272
▁تاثیر	-1273
▁۲۰۱	-1274
▁دستگاه	-1275
▁کشورهای	-1276
▁جست	-1277
▁ور	-1278
▁بو	-1279
▁نب	-1280
صر	-1281
▁آنان	-1282
▁قادر	-1283
▁O	-1284
▁حرفه	-1285
▁جوان	-1286
▁علاوه	-1287
غان	-1288
▁خواست	-1289
▁خواهیم	-1290
راح	-1291
▁تغیی	-1292
▁جلو	-1293
▁رئیس	-1294
▁دوباره	-1295
ایج	-1296
▁میزان	-1297
اهده	-1298
▁فرم	-1299
▁غذایی	-1300
▁جایی	-1301
ابع	-1302
الت	-1303
▁مف	-1304
لق	-1305
ion	-1306
▁نک	-1307
طه	-1308
▁امید	-1309
▁حم	-1310
▁U	-1311
▁متفاوت	-1312
ac	-1313
مندان	-1314
▁علیه	-1315
▁تخ	-1316
▁برخ	-1317
▁آمد	-1318
▁انتظار	-1319
▁انگی	-1320
هنگ	-1321
▁مب	-1322
▁خارجی	-1323
▁سراسر	-1324
▁درد	-1325
▁نویس	-1326
افه	-1327
جو	-1328
▁عض	-1329
▁راح	-1330
▁آید	-1331
▁بیان	-1332
▁مادر	-1333
▁خورد	-1334
راک	-1335
▁آوری	-1336
▁هنگام	-1337
▁برق	-1338
▁گاهی	-1339
▁آمریکایی	-1340
▁آسیب	-1341
▁عکس	-1342
▁بپ	-1343
▁شر	-1344
▁آزاد	-1345
▁پیشنه	-1346
▁تف	-1347
▁دیده	-1348
▁باور	-1349
▁خبر	-1350
بات	-1351
▁وضعیت	-1352
طان	-1353
▁دهه	-1354
▁هستیم	-1355
گیر	-1356
▁دسترسی	-1357
قدر	-1358
▁آمده	-1359
راف	-1360
▁بخشی	-1361
داری	-1362
▁داشتن	-1363
واست	-1364
▁واقعا	-1365
▁معت	-1366
▁بیمار	-1367
▁روند	-1368
▁o	-1369
▁کوت	-1370
کیل	-1371
▁برگ	-1372
▁طولانی	-1373
▁نتایج	-1374
▁مشاهده	-1375
▁معمولا	-1376
▁زیاد	-1377
▁حقیقت	-1378
▁اشتب	-1379
ظت	-1380
▁دختر	-1381
▁تجاری	-1382
▁گل	-1383
▁دهیم	-1384
ستگی	-1385
▁فشار	-1386
▁پایین	-1387
گار	-1388
▁سعی	-1389
▁مسل	-1390
▁اینتر	-1391
▁نشده	-1392
▁برو	-1393
▁یه	-1394
افق	-1395
om	-1396
▁منتشر	-1397
وریه	-1398
▁ساله	-1399
▁مدیر	-1400
▁مشتریان	-1401
قق	-1402
▁امنیت	-1403
as	-1404
ادا	-1405
▁هنر	-1406
داف	-1407
▁حضور	-1408
▁جذ	-1409
▁شناخته	-1410
▁خواهم	-1411
واره	-1412
▁ترس	-1413
عا	-1414
▁عملی	-1415
ابه	-1416
▁کیف	-1417
▁حمل	-1418
قا	-1419
▁۶	-1420
سانی	-1421
▁مبت	-1422
▁معنی	-1423
بور	-1424
▁رخ	-1425
اندن	-1426
▁نباید	-1427
▁اضافه	-1428
دیگر	-1429
▁عالی	-1430
▁مهارت	-1431
▁مکان	-1432
ing	-1433
▁فه	-1434
▁فران	-1435
آمد	-1436
▁خور	-1437
▁ایشان	-1438
▁کنندگان	-1439
جب	-1440
▁محصولات	-1441
▁مدل	-1442
▁نظامی	-1443
▁فرصت	-1444
▁متو	-1445
▁لذ	-1446
▁سنگ	-1447
▁مطم	-1448
el	-1449
▁بندی	-1450
ومت	-1451
▁غذا	-1452
▁مرح	-1453
▁تلف	-1454
▁V	-1455
تیک	-1456
▁اسرائ	-1457
▁استرات	-1458
دان	-1459
▁بچه	-1460
▁خش	-1461
▁c	-1462
▁ابزار	-1463
▁همکاری	-1464
▁استراتژی	-1465
▁حالا	-1466
▁رسانه	-1467
▁خلا	-1468
▁توانایی	-1469
▁آور	-1470
▁موسی	-1471
▁مبار	-1472
▁بودم	-1473
▁درخواست	-1474
▁دقی	-1475
ابط	-1476
▁نخست	-1477
▁اقتصاد	-1478
خه	-1479
▁بینی	-1480
▁تمرکز	-1481
▁منابع	-1482
تن	-1483
▁بعدی	-1484
▁کلا	-1485
▁مرکز	-1486
▁چیست	-1487
▁سمت	-1488
الب	-1489
▁بس	-1490
▁ثبت	-1491
روی	-1492
▁اعتم	-1493
▁توانیم	-1494
▁m	-1495
ادل	-1496
▁روشن	-1497
▁طرح	-1498
▁جنسی	-1499
▁نوشت	-1500
▁نوشته	-1501
▁اشاره	-1502
قای	-1503
▁اشتباه	-1504
ou	-1505
▁جمع	-1506
▁روابط	-1507
خصص	-1508
تل	-1509
امین	-1510
▁محل	-1511
et	-1512
ين	-1513
▁آگاه	-1514
▁کدام	-1515
▁نیستند	-1516
▁گویند	-1517
هایت	-1518
▁توصیه	-1519
▁حمله	-1520
▁مرحله	-1521
▁علاقه	-1522
▁مسیر	-1523
▁هستم	-1524
▁منظور	-1525
یه	-1526
▁افز	-1527
▁فراه	-1528
▁خودش	-1529
▁عملکرد	-1530
▁پیام	-1531
▁خودتان	-1532
▁دقیقه	-1533
▁پیشنهاد	-1534
▁شغ	-1535
کنان	-1536
▁اکثر	-1537
▁فراهم	-1538
▁اعتماد	-1539
▁مر	-1540
▁p	-1541
▁دارو	-1542
ناسی	-1543
▁متوجه	-1544
▁داخلی	-1545
▁منجر	-1546
▁داشتند	-1547
▁اتح	-1548
ائل	-1549
▁پشتی	-1550
▁بسته	-1551
▁توضی	-1552
▁پوست	-1553
واج	-1554
▁جهت	-1555
▁نور	-1556
▁سوم	-1557
▁گزینه	-1558
▁جمهوری	-1559
▁مجموعه	-1560
▁مقدار	-1561
▁مدرس	-1562
▁نگر	-1563
▁افغان	-1564
▁صنعت	-1565
▁تغییرات	-1566
▁تشکیل	-1567
▁تحقیقات	-1568
▁بگیرید	-1569
▁سرو	-1570
▁متن	-1571
▁اسل	-1572
▁کال	-1573
▁پیشرفت	-1574
▁مها	-1575
▁اتاق	-1576
▁یابد	-1577
▁گرفتن	-1578
▁پوش	-1579
▁مراق	-1580
oo	-1581
▁استخ	-1582
▁بازاری	-1583
▁خصوص	-1584
▁آخرین	-1585
ارس	-1586
▁ماشین	-1587
ریف	-1588
▁مشتری	-1589
▁نرم	-1590
▁وسی	-1591
▁گیرند	-1592
▁قل	-1593
▁تشخی	-1594
▁*	-1595
▁گردد	-1596
▁تصویر	-1597
پل	-1598
ناه	-1599
داشت	-1600
▁انگلیسی	-1601
▁برس	-1602
▁مستق	-1603
رال	-1604
صیل	-1605
▁هوش	-1606
اصله	-1607
▁شاه	-1608
▁باشیم	-1609
▁ندارند	-1610
▁رژ	-1611
رافی	-1612
▁توضیح	-1613
▁کاربران	-1614
▁دادند	-1615
...	-1616
▁سخن	-1617
▁اثر	-1618
▁نهایت	-1619
▁تس	-1620
▁دوستان	-1621
▁)،	-1622
▁باقی	-1623
am	-1624
ریه	-1625
▁اسپ	-1626
▁تمرین	-1627
▁توانست	-1628
▁اجرای	-1629
لیغ	-1630
▁انقل	-1631
▁تبلیغ	-1632
▁نمود	-1633
▁مدرسه	-1634
▁بهره	-1635
▁ظاه	-1636
▁امر	-1637
▁نامه	-1638
▁الله	-1639
▁کوتاه	-1640
▁معن	-1641
▁خوان	-1642
▁نداشت	-1643
ظیم	-1644
▁پشت	-1645
▁آزادی	-1646
واع	-1647
▁شا	-1648
▁برخورد	-1649
▁نفت	-1650
لاین	-1651
▁جریان	-1652
راق	-1653
▁وزن	-1654
».	-1655
▁اهداف	-1656
▁اث	-1657
عیین	-1658
▁شکست	-1659
▁انواع	-1660
▁تعیین	-1661
میز	-1662
▁واقعیت	-1663
▁بانک	-1664
▁تشخیص	-1665
▁گسترده	-1666
▁عشق	-1667
▁بلند	-1668
▁آلمان	-1669
▁مرتبط	-1670
▁اجرا	-1671
▁سوریه	-1672
▁لو	-1673
▁نبا	-1674
▁مردان	-1675
تح	-1676
▁قه	-1677
▁مشابه	-1678
▁مغز	-1679
il	-1680
بیه	-1681
▁رژیم	-1682
نو	-1683
▁ارس	-1684
▁تمامی	-1685
▁بخواه	-1686
▁آموزان	-1687
▁تهدید	-1688
▁مسئله	-1689
▁اق	-1690
▁بیرون	-1691
▁استاند	-1692
▁مناط	-1693
▁اهمیت	-1694
▁ابتدا	-1695
▁توافق	-1696
▁چندین	-1697
اتر	-1698
▁محقق	-1699
▁بحث	-1700
▁سلامت	-1701
▁ازد	-1702
▁حالت	-1703
▁آت	-1704
▁اطمین	-1705
▁مطمئن	-1706
▁موسیقی	-1707
▁یکدیگر	-1708
کا	-1709
▁اسرائیل	-1710
▁داخل	-1711
گل	-1712
▁محاف	-1713
آن	-1714
▁ویژ	-1715
▁قس	-1716
▁کیفیت	-1717
▁بش	-1718
▁کردیم	-1719
▁همچنان	-1720
▁اطمینان	-1721
▁آنلاین	-1722
ادگی	-1723
▁عرض	-1724
▁تای	-1725
▁مال	-1726
▁ازدواج	-1727
▁لذت	-1728
▁میل	-1729
یز	-1730
▁عق	-1731
ناک	-1732
▁بگو	-1733
▁قوی	-1734
▁نمونه	-1735
▁اینترنت	-1736
▁جلوگیری	-1737
▁سود	-1738
مون	-1739
▁الکت	-1740
▁سرطان	-1741
▁پزشکی	-1742
▁آسان	-1743
▁پدر	-1744
▁سفید	-1745
▁اولیه	-1746
انیا	-1747
▁اعضای	-1748
▁۱۰	-1749
▁کشف	-1750
▁محلی	-1751
▁نسخه	-1752
▁ذهن	-1753
▁دهنده	-1754
▁مقاله	-1755
سال	-1756
▁).	-1757
▁ویژگی	-1758
▁افغانستان	-1759
▁نکنید	-1760
▁فیزی	-1761
▁ورزش	-1762
▁فرانسه	-1763
▁سلول	-1764
گون	-1765
▁گوش	-1766
▁هسته	-1767
▁دک	-1768
▁اختی	-1769
▁خصوصی	-1770
▁پیچ	-1771
▁تکنولوژی	-1772
▁i	-1773
▁رد	-1774
▁برند	-1775
▁قسمت	-1776
ad	-1777
ادت	-1778
▁۷	-1779
▁الع	-1780
▁بازگ	-1781
ed	-1782
▁K	-1783
▁جدا	-1784
کته	-1785
▁راست	-1786
▁زنده	-1787
▁۸	-1788
▁کامپی	-1789
▁ارز	-1790
روس	-1791
ئو	-1792
▁ماند	-1793
▁نخواهد	-1794
▁پرداز	-1795
▁وس	-1796
▁معل	-1797
وبی	-1798
امت	-1799
الد	-1800
▁درآمد	-1801
▁ارسال	-1802
▁سوال	-1803
▁دوران	-1804
▁عد	-1805
▁فوق	-1806
▁اخیر	-1807
▁بگذار	-1808
▁قرن	-1809
▁پلی	-1810
▁میلیارد	-1811
▁شدید	-1812
جات	-1813
us	-1814
▁آرام	-1815
▁جمهور	-1816
▁بازاریابی	-1817
▁درو	-1818
▁سالم	-1819
وای	-1820
▁صل	-1821
▁نیم	-1822
▁گسترش	-1823
▁پشتیبانی	-1824
▁۲۰۰	-1825
▁تجارت	-1826
▁فرهنگ	-1827
▁انتقال	-1828
▁ترکیه	-1829
▁تفاوت	-1830
▁۹	-1831
ظر	-1832
▁پاک	-1833
▁ترک	-1834
لیت	-1835
▁قوان	-1836
▁بک	-1837
▁دفا	-1838
▁جدی	-1839
▁دری	-1840
▁کره	-1841
▁مناطق	-1842
ئم	-1843
مز	-1844
▁رفتن	-1845
▁مسائل	-1846
▁پژ	-1847
حل	-1848
▁انسانی	-1849
▁آقای	-1850
▁تازه	-1851
▁پل	-1852
▁J	-1853
▁کجا	-1854
رفی	-1855
رامپ	-1856
▁دانشجوی	-1857
▁b	-1858
▁نقطه	-1859
▁اوقات	-1860
▁کارهای	-1861
▁جدیدی	-1862
ol	-1863
تور	-1864
چار	-1865
ندگی	-1866
▁هند	-1867
▁امریک	-1868
▁ترامپ	-1869
▁15	-1870
▁l	-1871
▁12	-1872
▁متخصص	-1873
اصل	-1874
▁ناب	-1875
▁ران	-1876
خته	-1877
▁اقدام	-1878
▁شخصیت	-1879
000	-1880
▁آتش	-1881
▁قلب	-1882
▁تری	-1883
▁موا	-1884
▁فرزند	-1885
▁مبارزه	-1886
▁خودم	-1887
▁آدم	-1888
▁فلس	-1889
▁تماس	-1890
▁تحلیل	-1891
▁دنیای	-1892
▁هفت	-1893
▁نشانه	-1894
▁نیروهای	-1895
بح	-1896
▁طبق	-1897
▁مهاج	-1898
▁احتمالا	-1899
▁موس	-1900
▁d	-1901
▁اله	-1902
▁قصد	-1903
▁افس	-1904
▁نیروی	-1905
▁یادگیری	-1906
ابق	-1907
▁شبیه	-1908
▁دانست	-1909
▁پژوه	-1910
▁قوانین	-1911
▁ریزی	-1912
▁ساختمان	-1913
▁قدیمی	-1914
▁مجبور	-1915
▁امرو	-1916
▁ایست	-1917
▁مقابل	-1918
▁حز	-1919
▁چقدر	-1920
▁معرفی	-1921
نم	-1922
▁18	-1923
▁گوگل	-1924
▁مشترک	-1925
شناس	-1926
▁بنی	-1927
▁بگوی	-1928
▁تصور	-1929
▁شدت	-1930
سک	-1931
▁صلح	-1932
▁نص	-1933
▁صبح	-1934
▁گذار	-1935
ch	-1936
ولیت	-1937
▁موقعیت	-1938
▁عا	-1939
▁فضای	-1940
▁مستقیم	-1941
▁بشر	-1942
▁گرم	-1943
▁عراق	-1944
▁جستجو	-1945
▁بزرگترین	-1946
▁مای	-1947
▁بازدید	-1948
▁امنی	-1949
▁مقای	-1950
▁اتحادی	-1951
▁درون	-1952
▁سیاه	-1953
▁رسیدن	-1954
▁تض	-1955
▁مقایسه	-1956
▁نکته	-1957
▁».	-1958
▁تاب	-1959
▁عبارت	-1960
ینگ	-1961
▁فصل	-1962
▁چطور	-1963
▁فرامو	-1964
▁اختیار	-1965
رن	-1966
▁دچار	-1967
▁]	-1968
▁کانادا	-1969
▁عدم	-1970
وک	-1971
▁وظ	-1972
▁اعمال	-1973
▁ارزی	-1974
▁علمی	-1975
انیه	-1976
ویزی	-1977
▁اتحادیه	-1978
▁مطالعات	-1979
▁حاصل	-1980
زا	-1981
کنش	-1982
شا	-1983
▁متع	-1984
سیون	-1985
▁تأثیر	-1986
▁راحتی	-1987
▁ى	-1988
▁افزار	-1989
▁معتقد	-1990
▁ضد	-1991
▁بازگشت	-1992
▁میک	-1993
▁فردی	-1994
▁تلفن	-1995
▁همانطور	-1996
وتر	-1997
▁گذاشت	-1998
روت	-1999
▁داری	-2000
▁لباس	-2001
صه	-2002
راب	-2003
گیرد	-2004
▁فا	-2005
▁ژاپ	-2006
▁نداشته	-2007
▁امنیتی	-2008
▁روان	-2009
▁رسمی	-2010
▁مثبت	-2011
▁دانم	-2012
▁مفید	-2013
▁جایگز	-2014
▁رسیده	-2015
▁دوربین	-2016
▁تروری	-2017
▁پد	-2018
▁زده	-2019
▁دسترس	-2020
▁توانم	-2021
▁کمپ	-2022
▁صاد	-2023
▁تلویزی	-2024
▁میتوان	-2025
▁نح	-2026
▁شیر	-2027
▁انداز	-2028
▁دانند	-2029
▁مدا	-2030
ثی	-2031
▁حزب	-2032
▁عامل	-2033
▁حیوان	-2034
▁مشاور	-2035
دهای	-2036
گذ	-2037
وتی	-2038
▁عص	-2039
ay	-2040
▁آس	-2041
▁زد	-2042
▁منب	-2043
and	-2044
عهد	-2045
▁روزانه	-2046
▁علی	-2047
▁اطراف	-2048
▁برج	-2049
▁فراموش	-2050
▁ارزیابی	-2051
جیت	-2052
کرا	-2053
▁متوس	-2054
."	-2055
▁وح	-2056
▁ژن	-2057
▁العاده	-2058
▁امیدوار	-2059
▁شهرو	-2060
▁محققان	-2061
▁رفته	-2062
▁موثر	-2063
▁شناسایی	-2064
▁عرب	-2065
▁نقل	-2066
▁زود	-2067
▁مراقبت	-2068
▁قانونی	-2069
▁دمو	-2070
▁عمی	-2071
▁شش	-2072
▁خودشان	-2073
▁عضو	-2074
▁بمان	-2075
▁دیجیت	-2076
▁درجه	-2077
▁جمعیت	-2078
▁کامپیوتر	-2079
لال	-2080
ئین	-2081
▁اشتراک	-2082
گفت	-2083
▁ذخ	-2084
▁خوردن	-2085
▁چرخ	-2086
▁اسلامی	-2087
▁دش	-2088
آوری	-2089
▁سبک	-2090
▁خاصی	-2091
▁کلاس	-2092
▁دولتی	-2093
▁روح	-2094
▁سرد	-2095
▁دستی	-2096
▁پایه	-2097
هنگی	-2098
▁لحظه	-2099
▁پروت	-2100
▁موتور	-2101
سون	-2102
ent	-2103
▁تعریف	-2104
▁آف	-2105
▁قرآن	-2106
▁هدایت	-2107
▁ریا	-2108
▁زیست	-2109
وزه	-2110
▁حذ	-2111
▁پرواز	-2112
رگی	-2113
▁چال	-2114
▁وزیر	-2115
سیس	-2116
ri	-2117
عده	-2118
▁انگیز	-2119
▁همس	-2120
ستانی	-2121
▁بزرگی	-2122
زهایی	-2123
▁دع	-2124
▁دهم	-2125
▁علت	-2126
▁فوت	-2127
ویه	-2128
▁مطرح	-2129
▁مواجه	-2130
▁افتد	-2131
▁پزشک	-2132
▁دانشجویان	-2133
▁منبع	-2134
▁انقلاب	-2135
لود	-2136
▁امام	-2137
▁چیزهایی	-2138
لاً	-2139
▁فض	-2140
▁دندان	-2141
▁n	-2142
▁شمالی	-2143
▁اگرچه	-2144
اها	-2145
رور	-2146
▁کلمه	-2147
▁نکرده	-2148
▁واکنش	-2149
سیم	-2150
▁فرهنگی	-2151
▁دشم	-2152
▁مؤ	-2153
▁موجب	-2154
▁مبتلا	-2155
▁سازد	-2156
نگی	-2157
▁ضروری	-2158
▁f	-2159
▁تحصیل	-2160
▁ببر	-2161
▁تاک	-2162
▁انتخابات	-2163
رونی	-2164
آی	-2165
▁ـ	-2166
▁ورود	-2167
▁لا	-2168
▁حذف	-2169
▁هوشمند	-2170
عتی	-2171
▁برگزار	-2172
▁نکرد	-2173
انت	-2174
▁جذب	-2175
▁کارت	-2176
▁علائم	-2177
▁پلیس	-2178
▁دفاع	-2179
▁لین	-2180
▁دانلود	-2181
▁تصا	-2182
▁امروزه	-2183
▁ثابت	-2184
▁منح	-2185
▁حوزه	-2186
▁اساسی	-2187
▁واح	-2188
▁بارد	-2189
▁ببینید	-2190
▁ویت	-2191
▁ساختار	-2192
ریب	-2193
▁of	-2194
▁فار	-2195
st	-2196
ورتی	-2197
▁فنا	-2198
یش	-2199
▁a	-2200
▁•	-2201
▁تست	-2202
▁ماده	-2203
▁استاندارد	-2204
▁زیب	-2205
▁متوسط	-2206
▁نگران	-2207
▁عاشق	-2208
رالی	-2209
▁صدای	-2210
▁ترکیب	-2211
ته	-2212
جم	-2213
▁تمای	-2214
▁ثروت	-2215
▁نجات	-2216
گردان	-2217
لند	-2218
▁پسر	-2219
▁روید	-2220
▁ستاره	-2221
▁معنای	-2222
ابقه	-2223
▁بخوان	-2224
▁تنظیم	-2225
روف	-2226
▁St	-2227
▁فرمان	-2228
وران	-2229
▁مخال	-2230
▁آموزشی	-2231
▁محتوای	-2232
▁ترتی	-2233
▁محب	-2234
▁امور	-2235
▁محافظت	-2236
سب	-2237
▁پژوهش	-2238
▁مدرن	-2239
▁اصلاح	-2240
▁بگیرد	-2241
▁حکومت	-2242
▁بدانید	-2243
▁دیدگاه	-2244
▁مسلمان	-2245
▁ظاهر	-2246
▁چالش	-2247
▁پیچیده	-2248
▁ماهی	-2249
راحت	-2250
▁فاصله	-2251
▁شغل	-2252
▁30	-2253
▁دکتر	-2254
▁شع	-2255
▁مرک	-2256
▁فایل	-2257
▁فناوری	-2258
▁شیوه	-2259
ارکت	-2260
▁پذی	-2261
▁دیدن	-2262
▁خواندن	-2263
▁ماد	-2264
▁قبلی	-2265
وص	-2266
▁اپ	-2267
▁ارتش	-2268
سازی	-2269
▁بریت	-2270
▁کاربرد	-2271
▁قاب	-2272
▁مسئول	-2273
▁سق	-2274
وانی	-2275
▁کلیدی	-2276
▁پست	-2277
▁رقابت	-2278
رمان	-2279
▁میش	-2280
غال	-2281
▁قطع	-2282
▁شیمی	-2283
▁لیست	-2284
▁رهبری	-2285
ژن	-2286
▁کشته	-2287
ot	-2288
▁لط	-2289
ra	-2290
وریت	-2291
▁معمولاً	-2292
▁میکن	-2293
▁درمانی	-2294
▁بالای	-2295
▁نگرانی	-2296
▁نخستین	-2297
▁ایت	-2298
▁گاز	-2299
▁شگفت	-2300
ایع	-2301
▁خشونت	-2302
▁خودرو	-2303
ادهای	-2304
▁متوق	-2305
ow	-2306
وح	-2307
▁قرا	-2308
لاگ	-2309
▁مانده	-2310
▁زیبا	-2311
▁همسر	-2312
▁جنوبی	-2313
▁امریکا	-2314
▁آد	-2315
▁آفریق	-2316
▁آورده	-2317
▁متوقف	-2318
▁مقامات	-2319
▁آخر	-2320
▁بای	-2321
▁جالب	-2322
▁ترتیب	-2323
ig	-2324
ut	-2325
▁جزئی	-2326
▁مسئولیت	-2327
▁والد	-2328
▁بتواند	-2329
▁اختص	-2330
▁دانید	-2331
▁گفتند	-2332
▁مهند	-2333
id	-2334
▁وسیله	-2335
▁ملل	-2336
زارت	-2337
▁هشت	-2338
▁مقد	-2339
▁مجاز	-2340
▁عف	-2341
▁پو	-2342
▁جشن	-2343
▁خوشح	-2344
▁ذخیره	-2345
▁مرز	-2346
▁فرآی	-2347
▁199	-2348
▁اين	-2349
iv	-2350
▁بیماران	-2351
▁جایگزین	-2352
شناسی	-2353
▁استرس	-2354
▁مگر	-2355
▁نوز	-2356
▁ول	-2357
رایی	-2358
▁علم	-2359
▁پارک	-2360
▁سرویس	-2361
▁دانشمندان	-2362
un	-2363
▁In	-2364
▁اعتق	-2365
▁ناشی	-2366
▁شماره	-2367
وله	-2368
▁شدم	-2369
▁اینها	-2370
▁عوامل	-2371
▁وزارت	-2372
▁تی	-2373
▁بند	-2374
▁تور	-2375
▁داند	-2376
▁مهمی	-2377
▁اقدامات	-2378
▁منفی	-2379
▁سع	-2380
▁ظرف	-2381
▁قرارد	-2382
▁خدمت	-2383
▁گران	-2384
ایه	-2385
▁عرضه	-2386
▁بزن	-2387
رانی	-2388
▁11	-2389
▁سرز	-2390
▁افتاد	-2391
ur	-2392
گانه	-2393
▁نماید	-2394
▁استرالی	-2395
▁کنی	-2396
▁هوایی	-2397
▁پیرو	-2398
▁محبوب	-2399
▁کشورها	-2400
▁قدر	-2401
▁عمیق	-2402
▁اسلام	-2403
▁نیازهای	-2404
▁جواب	-2405
▁تکرار	-2406
▁اندازی	-2407
ادش	-2408
▁زدن	-2409
▁تقویت	-2410
▁تد	-2411
اظ	-2412
▁دروغ	-2413
▁فرست	-2414
▁موش	-2415
▁باشم	-2416
ec	-2417
▁The	-2418
▁صورتی	-2419
ماز	-2420
▁شویم	-2421
ابان	-2422
▁تصاویر	-2423
▁اخلا	-2424
لس	-2425
يد	-2426
▁نرخ	-2427
▁بالاتر	-2428
▁تاریخی	-2429
جان	-2430
▁فهم	-2431
▁مقا	-2432
▁آوردن	-2433
▁فرآیند	-2434
کاران	-2435
▁رشته	-2436
▁فرزندان	-2437
خش	-2438
▁ارشد	-2439
▁دانیم	-2440
▁نهایی	-2441
▁ایرانی	-2442
ربانی	-2443
▁ملا	-2444
▁تهیه	-2445
▁معرض	-2446
▁خواسته	-2447
▁کف	-2448
▁ذکر	-2449
▁کری	-2450
▁عمر	-2451
▁ایمیل	-2452
میل	-2453
▁کاربر	-2454
▁غرب	-2455
▁سلاح	-2456
▁w	-2457
▁مساف	-2458
▁مشارکت	-2459
▁همواره	-2460
▁کد	-2461
▁مزای	-2462
▁دام	-2463
▁محک	-2464
▁نسل	-2465
▁بله	-2466
▁موضو	-2467
▁پوشش	-2468
▁عملیات	-2469
▁قابلیت	-2470
▁هشد	-2471
راج	-2472
▁نصب	-2473
▁نوشتن	-2474
▁اختصاص	-2475
خصوص	-2476
▁صاح	-2477
▁نفس	-2478
▁کاملاً	-2479
▁کارکنان	-2480
▁عه	-2481
▁مشغ	-2482
داران	-2483
▁e	-2484
ختی	-2485
▁کشتی	-2486
فع	-2487
▁50	-2488
▁برسد	-2489
▁بحران	-2490
▁ناپ	-2491
▁خانم	-2492
▁دسته	-2493
▁مرکزی	-2494
▁هتل	-2495
▁دیجیتال	-2496
▁اطلاعاتی	-2497
▁خلق	-2498
▁دشوار	-2499
▁توی	-2500
▁مند	-2501
▁اعتقاد	-2502
▁دین	-2503
▁طلا	-2504
▁مجد	-2505
▁سالگی	-2506
▁کشاور	-2507
▁بگیرند	-2508
▁جد	-2509
▁حفا	-2510
▁ممن	-2511
▁قبول	-2512
▁چینی	-2513
▁روزنامه	-2514
▁۱۵	-2515
افت	-2516
▁معنا	-2517
▁فیزیکی	-2518
▁دموکرا	-2519
وف	-2520
▁یون	-2521
▁خلاق	-2522
▁اداره	-2523
عیف	-2524
▁100	-2525
سا	-2526
سات	-2527
ter	-2528
▁صند	-2529
▁پار	-2530
▁مي	-2531
▁حیوانات	-2532
ation	-2533
▁زندان	-2534
▁خودمان	-2535
▁والدین	-2536
▁عوض	-2537
▁پرت	-2538
▁روزی	-2539
ag	-2540
▁سگ	-2541
حات	-2542
▁بم	-2543
▁ژو	-2544
▁وعده	-2545
راری	-2546
▁ژاپن	-2547
▁مستقل	-2548
▁محدودیت	-2549
▁غربی	-2550
▁نویسنده	-2551
▁13	-2552
▁تقسیم	-2553
▁احساسات	-2554
اصر	-2555
▁شمار	-2556
جعه	-2557
▁تصوی	-2558
▁واقعاً	-2559
▁تلویزیون	-2560
▁25	-2561
▁اکت	-2562
▁کیل	-2563
▁گردش	-2564
▁استاد	-2565
ذیر	-2566
▁مز	-2567
▁گوشی	-2568
▁کلمات	-2569
قیه	-2570
▁تمایل	-2571
ذی	-2572
▁رایگان	-2573
▁سلامتی	-2574
ورک	-2575
▁الان	-2576
▁زیبایی	-2577
▁مختلفی	-2578
▁مشغول	-2579
▁دفت	-2580
▁قدرتمند	-2581
▁ناخ	-2582
تا	-2583
▁هرچ	-2584
▁واحد	-2585
زو	-2586
▁عی	-2587
▁نظام	-2588
▁داشتم	-2589
▁گاه	-2590
▁علوم	-2591
▁مناف	-2592
▁لحاظ	-2593
▁گذاشته	-2594
▁غل	-2595
شنبه	-2596
▁متر	-2597
▁عین	-2598
▁واب	-2599
▁اقامت	-2600
▁اروپایی	-2601
).	-2602
▁کوه	-2603
▁متحد	-2604
▁مذه	-2605
▁برقرار	-2606
▁X	-2607
▁قا	-2608
▁سرب	-2609
▁کشت	-2610
▁قدم	-2611
▁چنان	-2612
تون	-2613
جمه	-2614
▁16	-2615
▁باره	-2616
▁مخاط	-2617
▁رت	-2618
▁نتوان	-2619
▁آمیز	-2620
▁پناه	-2621
▁تون	-2622
▁خورشید	-2623
▁هشدار	-2624
▁نباشد	-2625
▁خرو	-2626
▁فیس	-2627
▁راهی	-2628
▁فضا	-2629
پیم	-2630
▁جراحی	-2631
زم	-2632
▁آگاهی	-2633
▁تضمین	-2634
▁پیاده	-2635
▁رهبران	-2636
▁طبقه	-2637
▁مار	-2638
▁درس	-2639
▁افزود	-2640
▁دلایل	-2641
غن	-2642
▁نحوه	-2643
▁دقت	-2644
▁ایمان	-2645
▁دادگاه	-2646
ایش	-2647
▁راحت	-2648
▁تایید	-2649
▁استرالیا	-2650
▁فن	-2651
▁تجه	-2652
▁تحریم	-2653
▁اون	-2654
▁خوشحال	-2655
▁تولد	-2656
▁احترام	-2657
▁عربستان	-2658
▁دفتر	-2659
▁تجهیز	-2660
نش	-2661
▁فعلی	-2662
▁قهوه	-2663
▁بودجه	-2664
▁صنعتی	-2665
▁سین	-2666
ویق	-2667
▁آفر	-2668
▁درخت	-2669
▁مکانی	-2670
▁اصل	-2671
▁مصاح	-2672
▁پادش	-2673
یک	-2674
▁رنج	-2675
▁مام	-2676
▁گام	-2677
▁نظارت	-2678
em	-2679
یمان	-2680
▁چگون	-2681
▁تبلیغات	-2682
▁كن	-2683
▁حفاظت	-2684
ــ	-2685
▁طوری	-2686
▁شمال	-2687
▁چگونگی	-2688
▁گم	-2689
▁قربانی	-2690
▁نگ	-2691
▁عادی	-2692
▁مطلب	-2693
اهد	-2694
▁یو	-2695
▁منافع	-2696
▁مصاحبه	-2697
▁شیمیایی	-2698
ul	-2699
▁بست	-2700
▁عجی	-2701
▁بریتانیا	-2702
▁چاپ	-2703
▁بگذارید	-2704
▁14	-2705
▁میدان	-2706
▁g	-2707
وید	-2708
▁جنب	-2709
▁خاک	-2710
▁سبز	-2711
▁خدای	-2712
▁فرای	-2713
▁مخصوص	-2714
▁رح	-2715
▁شهری	-2716
▁امتح	-2717
▁جلسه	-2718
▁فرود	-2719
▁گفتم	-2720
▁منتقل	-2721
▁ترجی	-2722
▁بدهید	-2723
رست	-2724
ادث	-2725
▁طبیعت	-2726
oc	-2727
▁مفه	-2728
▁آیند	-2729
▁الکترونی	-2730
گن	-2731
▁h	-2732
▁شاهد	-2733
▁فروشگاه	-2734
▁گذارد	-2735
▁توجهی	-2736
▁گروهی	-2737
▁بدست	-2738
▁تعط	-2739
▁آشکار	-2740
▁منحصر	-2741
▁امتحان	-2742
▁بیمارستان	-2743
▁اسم	-2744
▁شنا	-2745
▁صحنه	-2746
▁عفونت	-2747
▁نیازمند	-2748
▁رتبه	-2749
▁ون	-2750
▁کلید	-2751
▁ایمنی	-2752
▁ترجمه	-2753
▁بقیه	-2754
▁نشست	-2755
▁جایزه	-2756
▁پیشرفته	-2757
▁آپ	-2758
▁عقب	-2759
▁فلسط	-2760
▁تامین	-2761
▁منتظر	-2762
▁هزاران	-2763
▁جنوب	-2764
▁کارگران	-2765
um	-2766
فانه	-2767
▁نوعی	-2768
▁دعوت	-2769
▁روغن	-2770
حیه	-2771
▁محس	-2772
▁یهودی	-2773
ir	-2774
زل	-2775
▁نقاط	-2776
▁بتوانند	-2777
▁برنده	-2778
▁تقریباً	-2779
بیل	-2780
▁خام	-2781
▁بستگی	-2782
▁۱۲	-2783
▁۳۰	-2784
▁گناه	-2785
▁وبلاگ	-2786
▁نگهداری	-2787
▁ویتامین	-2788
▁مشه	-2789
▁اوایل	-2790
▁تعدادی	-2791
▁فرض	-2792
▁وید	-2793
▁رهبر	-2794
عم	-2795
▁حاف	-2796
▁متم	-2797
▁جذاب	-2798
▁پرسش	-2799
▁اتفاقی	-2800
▁صدا	-2801
▁نوزاد	-2802
▁انتشار	-2803
▁تعهد	-2804
▁متصل	-2805
▁آسمان	-2806
▁جزیره	-2807
▁ارد	-2808
▁اصول	-2809
▁بردن	-2810
▁مقام	-2811
▁حملات	-2812
بد	-2813
▁حتما	-2814
▁توصیف	-2815
بیر	-2816
ونا	-2817
▁بنا	-2818
▁دریایی	-2819
▁اعد	-2820
▁قرم	-2821
▁ژان	-2822
▁رادی	-2823
▁میشود	-2824
▁.»	-2825
▁رز	-2826
▁الهی	-2827
حیح	-2828
▁دستور	-2829
سل	-2830
▁انگل	-2831
اشی	-2832
▁عک	-2833
▁وظی	-2834
▁مهاجرت	-2835
ردگی	-2836
▁روب	-2837
▁سوخت	-2838
▁ملاقات	-2839
یدم	-2840
الیا	-2841
▁پنه	-2842
▁عبور	-2843
▁مایل	-2844
▁سرزمین	-2845
باری	-2846
▁تقا	-2847
▁گذشت	-2848
▁بودیم	-2849
▁کارها	-2850
خر	-2851
▁r	-2852
▁جع	-2853
تناب	-2854
▁هاست	-2855
▁Y	-2856
چسب	-2857
▁اهل	-2858
▁بید	-2859
▁اجتناب	-2860
ess	-2861
راتی	-2862
▁رها	-2863
▁نامیده	-2864
▁بساز	-2865
▁یافتن	-2866
▁مزایای	-2867
▁لند	-2868
▁۱۰۰	-2869
▁کارآ	-2870
▁کانال	-2871
ایق	-2872
▁باغ	-2873
▁پاید	-2874
▁پیروزی	-2875
▁بروز	-2876
▁گیاه	-2877
▁آزمون	-2878
▁نظریه	-2879
▁0	-2880
▁بروید	-2881
▁نیوی	-2882
▁تکنیک	-2883
▁(1	-2884
▁17	-2885
▁آشنا	-2886
▁سختی	-2887
▁مدیران	-2888
▁دهندگان	-2889
▁بب	-2890
▁تئ	-2891
▁فراتر	-2892
▁ارتباطات	-2893
▁in	-2894
▁جنبه	-2895
▁تاکنون	-2896
▁بیت	-2897
▁شهروندان	-2898
زمان	-2899
▁مخالف	-2900
▁وظیفه	-2901
▁میلادی	-2902
▁آبی	-2903
▁بگذ	-2904
▁نشد	-2905
▁ثانیه	-2906
▁خواند	-2907
od	-2908
▁پدید	-2909
▁بهتری	-2910
▁انگیزه	-2911
im	-2912
▁ورز	-2913
▁اصلا	-2914
▁انجمن	-2915
لات	-2916
کلی	-2917
▁نیمه	-2918
▁نیویورک	-2919
▁رست	-2920
▁فرایند	-2921
▁مقاومت	-2922
▁ٔ	-2923
▁فد	-2924
▁اضط	-2925
▁برآ	-2926
ضح	-2927
▁عادت	-2928
▁تشویق	-2929
هم	-2930
اکر	-2931
▁چپ	-2932
▁پخش	-2933
▁درستی	-2934
▁سعودی	-2935
ذیه	-2936
▁بیای	-2937
▁افتاده	-2938
ce	-2939
نتی	-2940
▁جی	-2941
▁تجهیزات	-2942
ابله	-2943
▁حضرت	-2944
▁روست	-2945
▁سرباز	-2946
▁هواپیم	-2947
شنگ	-2948
▁شف	-2949
▁پن	-2950
ظهار	-2951
▁قبلا	-2952
▁اظهار	-2953
▁برسان	-2954
▁تعطیل	-2955
▁جایگاه	-2956
▁متمرکز	-2957
▁مقابله	-2958
▁همانند	-2959
▁ترجیح	-2960
▁شناسی	-2961
▁ادعا	-2962
▁رویکرد	-2963
مولی	-2964
▁فنی	-2965
▁کردید	-2966
▁بیشترین	-2967
راز	-2968
▁سک	-2969
▁ظه	-2970
▁سپت	-2971
▁امسال	-2972
▁معروف	-2973
رایش	-2974
▁آرز	-2975
▁اضافی	-2976
▁بتوانید	-2977
▁قرارداد	-2978
▁طل	-2979
▁تغذیه	-2980
گین	-2981
▁دم	-2982
▁مقر	-2983
▁بطور	-2984
▁فرمود	-2985
امله	-2986
▁لینک	-2987
▁مداوم	-2988
▁بگویید	-2989
▁برخوردار	-2990
▁حو	-2991
▁سام	-2992
▁برچسب	-2993
▁شماست	-2994
▁سؤ	-2995
▁کشد	-2996
▁فرار	-2997
▁آر	-2998
▁شغلی	-2999
▁قرمز	-3000
▁محتوا	-3001
▁جزئیات	-3002
▁خطرناک	-3003
▁زندانی	-3004
▁معمولی	-3005
▁سپتامبر	-3006
▁چربی	-3007
▁چهره	-3008
انو	-3009
▁خیر	-3010
▁توزی	-3011
▁قلبی	-3012
▁چیزهای	-3013
▁سرگر	-3014
ia	-3015
داک	-3016
▁1.	-3017
▁گذر	-3018
▁توزیع	-3019
▁هیجان	-3020
▁بزرگتر	-3021
▁تنهایی	-3022
ئت	-3023
▁امپ	-3024
os	-3025
▁تز	-3026
▁الگ	-3027
▁بدهد	-3028
▁جنبش	-3029
▁عهده	-3030
▁افسردگی	-3031
▁پلا	-3032
▁ریسک	-3033
▁مالک	-3034
▁استان	-3035
▁درگیر	-3036
▁اختلاف	-3037
▁مبل	-3038
▁کرب	-3039
▁برگز	-3040
▁خریداری	-3041
نمایی	-3042
▁دائ	-3043
▁نات	-3044
▁حداک	-3045
▁پذیرش	-3046
ویل	-3047
رافیک	-3048
▁برده	-3049
▁پیوند	-3050
▁رض	-3051
▁تاکید	-3052
▁میکند	-3053
.”	-3054
ثار	-3055
▁شای	-3056
▁فوتبال	-3057
جع	-3058
▁۱۸	-3059
▁اصط	-3060
▁سیاره	-3061
▁بخوانید	-3062
صیلی	-3063
▁ناگه	-3064
▁پذیری	-3065
روم	-3066
▁دقیقا	-3067
▁بهداشت	-3068
▁مالیات	-3069
زیه	-3070
▁سابق	-3071
خواه	-3072
ژانس	-3073
▁امتی	-3074
▁کنفر	-3075
ers	-3076
▁مى	-3077
پیما	-3078
▁بکن	-3079
▁ملت	-3080
▁بدین	-3081
▁ناد	-3082
▁انگلستان	-3083
▁نده	-3084
گذاری	-3085
▁بگویم	-3086
▁هایشان	-3087
▁گرفتند	-3088
▁نماز	-3089
▁اختلال	-3090
▁خیابان	-3091
▁40	-3092
▁فارغ	-3093
▁حافظه	-3094
▁پنهان	-3095
اما	-3096
▁لغ	-3097
جد	-3098
▁سند	-3099
▁اطلاع	-3100
▁بارداری	-3101
▁نیازی	-3102
▁ایتالیا	-3103
ap	-3104
خره	-3105
▁جستجوی	-3106
داشتی	-3107
▁خاور	-3108
▁میوه	-3109
▁همزمان	-3110
▁198	-3111
▁رمز	-3112
▁بیمه	-3113
▁موزه	-3114
▁نمایند	-3115
▁پاکستان	-3116
▁24	-3117
▁ترا	-3118
▁عجیب	-3119
▁پرورش	-3120
▁اعتبار	-3121
▁حاوی	-3122
▁لطفا	-3123
▁نقشه	-3124
▁آورند	-3125
▁دیوار	-3126
▁جاده	-3127
▁هماه	-3128
▁محسوب	-3129
▁اسب	-3130
▁اسک	-3131
▁سنت	-3132
▁واضح	-3133
▁نفو	-3134
▁صحیح	-3135
اکره	-3136
▁مراحل	-3137
▁روزهای	-3138
▁پروتئین	-3139
ومی	-3140
▁بدی	-3141
▁تجزیه	-3142
▁دیدار	-3143
▁برآورد	-3144
▁قتل	-3145
▁سفار	-3146
▁شورای	-3147
▁مذاکره	-3148
▁کشید	-3149
لیم	-3150
اورد	-3151
▁ماج	-3152
▁ممنوع	-3153
ئید	-3154
▁اتص	-3155
▁اشک	-3156
▁مرور	-3157
20	-3158
ولد	-3159
کده	-3160
▁هرچند	-3161
▁کارشناس	-3162
▁حداکثر	-3163
زد	-3164
▁سوء	-3165
▁مجوز	-3166
▁مفهوم	-3167
▁کارهایی	-3168
▁حاک	-3169
▁متقا	-3170
▁کنفرانس	-3171
راض	-3172
▁تفکر	-3173
▁مسیح	-3174
▁مساله	-3175
▁دس	-3176
▁نژ	-3177
فاوتی	-3178
▁آثار	-3179
▁معامله	-3180
▁ضعیف	-3181
▁متعد	-3182
▁یخ	-3183
▁افتخ	-3184
▁خلاصه	-3185
▁استخدام	-3186
▁شوم	-3187
▁موسسه	-3188
▁موضوعات	-3189
▁مصر	-3190
▁دشمن	-3191
▁لندن	-3192
th	-3193
▁صادر	-3194
▁فضایی	-3195
▁واشنگ	-3196
▁نمایید	-3197
▁صادق	-3198
▁موقع	-3199
▁کلیک	-3200
▁فرانس	-3201
▁مبتنی	-3202
▁بخواهید	-3203
▁بیند	-3204
▁بص	-3205
▁بزرگسال	-3206
...]	-3207
▁Goo	-3208
▁انع	-3209
▁آمار	-3210
▁[...]	-3211
▁رانندگی	-3212
▁اپل	-3213
▁ریشه	-3214
▁افکار	-3215
▁ویروس	-3216
▁چهارم	-3217
او	-3218
▁امضا	-3219
▁شانس	-3220
▁نفوذ	-3221
▁ارزان	-3222
▁تهران	-3223
▁واشنگتن	-3224
▁ابتد	-3225
▁بپرس	-3226
▁زودی	-3227
▁تاسیس	-3228
▁بهداشتی	-3229
▁کارشناسی	-3230
▁شور	-3231
▁صبر	-3232
▁بازداشت	-3233
جام	-3234
سور	-3235
▁آهنگ	-3236
▁ببرید	-3237
▁سخنرانی	-3238
ویس	-3239
▁بدتر	-3240
▁سقوط	-3241
▁مذاک	-3242
▁تعامل	-3243
▁براساس	-3244
چی	-3245
▁التح	-3246
▁نیمی	-3247
▁ندارید	-3248
▁پایگاه	-3249
هی	-3250
▁حکم	-3251
▁مطل	-3252
▁نادر	-3253
▁تکمیل	-3254
▁ساختن	-3255
▁کمبود	-3256
▁امتیاز	-3257
قوه	-3258
▁اخی	-3259
▁برداری	-3260
▁v	-3261
وال	-3262
▁۵۰	-3263
▁تمیز	-3264
▁پزشکان	-3265
▁هواپیما	-3266
لاک	-3267
▁60	-3268
▁كرد	-3269
▁اثرات	-3270
▁بالقوه	-3271
▁براد	-3272
▁سنتی	-3273
▁گفتن	-3274
▁همچون	-3275
غم	-3276
▁گری	-3277
▁غیرق	-3278
▁خانگی	-3279
▁کمتری	-3280
▁برداشت	-3281
▁سالانه	-3282
▁آهن	-3283
▁سان	-3284
▁سهام	-3285
▁اخیرا	-3286
▁انداخت	-3287
▁بوک	-3288
▁بپرد	-3289
▁رساند	-3290
▁اخلاقی	-3291
▁اصطلاح	-3292
▁کشاورزی	-3293
رتان	-3294
▁تحمل	-3295
▁وابسته	-3296
▁پایدار	-3297
▁بازسازی	-3298
لت	-3299
▁کات	-3300
▁مراک	-3301
▁نبوده	-3302
▁معماری	-3303
▁کارخانه	-3304
ity	-3305
سیر	-3306
▁دف	-3307
▁بخور	-3308
▁»،	-3309
▁خویش	-3310
▁صاحب	-3311
▁ویدی	-3312
▁مشاوره	-3313
▁دستیابی	-3314
ریح	-3315
▁موب	-3316
▁بازیکن	-3317
▁دارایی	-3318
▁شرک	-3319
▁مذهبی	-3320
▁برجسته	-3321
▁'	-3322
▁An	-3323
▁نزدیکی	-3324
جوان	-3325
▁آنج	-3326
▁برتر	-3327
▁مارس	-3328
▁اکتبر	-3329
▁تدری	-3330
▁عدد	-3331
▁مشهور	-3332
▁مذاکرات	-3333
▁Ch	-3334
gle	-3335
کتری	-3336
▁ندارم	-3337
▁احتمالاً	-3338
▁خشک	-3339
▁سوز	-3340
▁بیدار	-3341
▁تابستان	-3342
▁تأی	-3343
▁حیات	-3344
▁خوشب	-3345
▁آلمانی	-3346
▁پیامبر	-3347
▁ترد	-3348
▁هویت	-3349
لو	-3350
میانه	-3351
▁پادشاه	-3352
▁خاورمیانه	-3353
▁اتم	-3354
▁تخم	-3355
▁عیسی	-3356
▁ماست	-3357
▁نوشید	-3358
▁کیلوم	-3359
▁فو	-3360
▁استقل	-3361
▁نموده	-3362
ack	-3363
▁مناس	-3364
▁آزمایشگاه	-3365
▁جاری	-3366
▁مدتی	-3367
عف	-3368
داد	-3369
نوعی	-3370
▁مانع	-3371
اریس	-3372
▁نابود	-3373
▁مهندسی	-3374
▁چک	-3375
▁حجم	-3376
▁عزی	-3377
▁هاي	-3378
▁چار	-3379
▁طراح	-3380
▁بارها	-3381
▁رضایت	-3382
▁مدارس	-3383
هر	-3384
▁اوا	-3385
▁هور	-3386
▁نوجوان	-3387
▁چش	-3388
▁برگرد	-3389
▁بلاف	-3390
▁دهان	-3391
▁فهرست	-3392
▁ing	-3393
▁آژانس	-3394
▁بلافاصله	-3395
▁Re	-3396
ادار	-3397
▁آمو	-3398
▁دادم	-3399
▁رستوران	-3400
▁بازیکنان	-3401
▁بور	-3402
▁گوشت	-3403
▁گفتگو	-3404
▁غذاهای	-3405
▁سیگار	-3406
▁اولویت	-3407
▁فرانسوی	-3408
▁مول	-3409
▁نوش	-3410
▁بپرداز	-3411
▁کارمندان	-3412
▁کتابخانه	-3413
▁پان	-3414
▁کارگر	-3415
▁گذاران	-3416
ie	-3417
▁خال	-3418
طی	-3419
▁قطعا	-3420
ard	-3421
▁عذ	-3422
▁ارا	-3423
▁سران	-3424
▁انگشت	-3425
▁تأیید	-3426
▁دسامبر	-3427
▁مصنوعی	-3428
▁گویم	-3429
▁تحصیلی	-3430
▁پرونده	-3431
وایی	-3432
▁سادگی	-3433
▁استقلال	-3434
اج	-3435
مالی	-3436
▁شاد	-3437
▁آزار	-3438
▁احتی	-3439
▁ژانویه	-3440
▁and	-3441
▁آدرس	-3442
▁سطوح	-3443
مع	-3444
شای	-3445
▁آیت	-3446
▁محمد	-3447
▁باشگاه	-3448
▁پردازش	-3449
▁یك	-3450
▁2015	-3451
▁شرقی	-3452
▁ایالت	-3453
▁مراسم	-3454
▁نقاشی	-3455
▁دومین	-3456
▁سنگین	-3457
▁پاریس	-3458
بل	-3459
▁+	-3460
▁!!	-3461
▁زا	-3462
▁طال	-3463
▁راهن	-3464
pp	-3465
▁شار	-3466
▁عصر	-3467
▁معی	-3468
▁قالب	-3469
▁انگلیس	-3470
▁چای	-3471
ماتیک	-3472
▁شنبه	-3473
▁صدها	-3474
▁مجله	-3475
▁عمده	-3476
▁پرست	-3477
▁شنیده	-3478
▁صفحات	-3479
▁کشوری	-3480
ate	-3481
ماً	-3482
▁اواخر	-3483
▁Google	-3484
▁ایستگاه	-3485
▁the	-3486
▁میده	-3487
▁عناصر	-3488
▁رویداد	-3489
▁مسابقه	-3490
▁۱۳	-3491
▁شکن	-3492
▁بیست	-3493
▁مجلس	-3494
▁داروهای	-3495
▁تحقیقاتی	-3496
▁نمایشگاه	-3497
▁هایش	-3498
▁معتبر	-3499
▁پنجره	-3500
▁اجرایی	-3501
▁نوامبر	-3502
دهی	-3503
▁دون	-3504
▁سبب	-3505
▁خورده	-3506
▁موبایل	-3507
▁دموکراسی	-3508
رق	-3509
زان	-3510
▁شریک	-3511
▁وحشت	-3512
▁نداریم	-3513
▁همکاران	-3514
۰۰۰	-3515
▁پادا	-3516
▁ژوئن	-3517
▁جاد	-3518
▁خالی	-3519
▁خسته	-3520
▁سرور	-3521
▁مدرک	-3522
▁متخصصان	-3523
▁اوب	-3524
▁دستو	-3525
▁بزنید	-3526
▁جوانان	-3527
سین	-3528
▁مراجعه	-3529
▁جرم	-3530
▁قضا	-3531
▁مرغ	-3532
▁۱۹۹	-3533
▁شفاف	-3534
▁روبرو	-3535
▁اعتراض	-3536
▁افتخار	-3537
▁197	-3538
▁اور	-3539
▁گرا	-3540
▁جنگل	-3541
▁دیدم	-3542
▁مجدد	-3543
▁محکوم	-3544
▁اسپانیا	-3545
▁الکترونیکی	-3546
پار	-3547
▁؟!	-3548
▁آلب	-3549
▁هنری	-3550
▁بیاور	-3551
▁نگاهی	-3552
▁اکث	-3553
▁مردی	-3554
▁ابر	-3555
▁سابقه	-3556
▁مجموع	-3557
▁بیانیه	-3558
▁شهرهای	-3559
av	-3560
پر	-3561
▁خشم	-3562
▁تصاد	-3563
▁هوای	-3564
▁آرامش	-3565
▁یکسان	-3566
▁امیدوارم	-3567
▁کارگردان	-3568
دهم	-3569
▁جور	-3570
▁نزد	-3571
▁رسان	-3572
▁متاس	-3573
▁اثبات	-3574
▁ورزشی	-3575
▁واژه	-3576
▁عدالت	-3577
▁هرگونه	-3578
og	-3579
▁باد	-3580
▁برادر	-3581
▁انتقاد	-3582
▁جلب	-3583
خیر	-3584
▁زخ	-3585
نجی	-3586
▁مخفی	-3587
▁اتصال	-3588
▁بگیری	-3589
گا	-3590
▁عصبی	-3591
▁مربی	-3592
▁هستی	-3593
▁ظرفیت	-3594
▁کمیته	-3595
▁نادیده	-3596
▁کمپانی	-3597
▁فرودگاه	-3598
عش	-3599
▁زنج	-3600
▁متولد	-3601
▁مشکلی	-3602
▁خرد	-3603
▁خروج	-3604
▁آفریقا	-3605
▁طیف	-3606
اقع	-3607
هنی	-3608
▁تیر	-3609
▁مکمل	-3610
▁ارزشمند	-3611
نس	-3612
all	-3613
▁فری	-3614
▁مقدس	-3615
▁منظم	-3616
▁تصویب	-3617
▁اوباما	-3618
▁مجازات	-3619
▁Z	-3620
▁دیپل	-3621
▁وظای	-3622
▁متعلق	-3623
▁کاربردی	-3624
لیلی	-3625
▁زنی	-3626
▁خواستار	-3627
گذار	-3628
▁الی	-3629
▁بافت	-3630
▁وسایل	-3631
▁دختران	-3632
▁2017	-3633
▁نظیر	-3634
▁بینید	-3635
▁ورودی	-3636
▁ترافیک	-3637
▁سریال	-3638
▁دانشکده	-3639
▁وف	-3640
▁Pro	-3641
▁عظیم	-3642
▁ارتباطی	-3643
گاری	-3644
▁غذای	-3645
▁منزل	-3646
▁قهرمان	-3647
ab	-3648
کری	-3649
▁آشپ	-3650
▁ارتقا	-3651
▁روانی	-3652
▁گردید	-3653
وسی	-3654
▁مارک	-3655
▁صنایع	-3656
▁التحصیل	-3657
▁زو	-3658
▁تحول	-3659
▁نهاد	-3660
▁محیطی	-3661
▁مراکز	-3662
▁مسلمانان	-3663
op	-3664
▁حقو	-3665
خا	-3666
ظی	-3667
الم	-3668
▁مبلغ	-3669
▁باتری	-3670
▁بالایی	-3671
▁خوانده	-3672
▁2.	-3673
▁ید	-3674
ماتی	-3675
▁اسن	-3676
▁تحویل	-3677
▁نوشیدنی	-3678
▁غنی	-3679
▁نبرد	-3680
▁بایست	-3681
▁ریاست	-3682
▁ترکیبی	-3683
آور	-3684
▁قی	-3685
▁توق	-3686
▁دیر	-3687
▁طلب	-3688
▁2018	-3689
▁سؤال	-3690
▁مهمترین	-3691
art	-3692
▁ارم	-3693
▁شرق	-3694
▁گشت	-3695
▁عربی	-3696
▁موشک	-3697
صاب	-3698
▁اعدام	-3699
▁بگوید	-3700
▁تجربی	-3701
▁تماشا	-3702
▁منطقی	-3703
▁ناحیه	-3704
▁پاداش	-3705
▁کشیدن	-3706
▁یم	-3707
▁بهشت	-3708
▁پولی	-3709
▁صادرات	-3710
▁۲۵	-3711
سلام	-3712
▁خارجه	-3713
▁کودکی	-3714
نز	-3715
زیک	-3716
▁سهم	-3717
▁بالات	-3718
ine	-3719
▁انف	-3720
▁سرک	-3721
▁سیم	-3722
▁پیر	-3723
▁روزه	-3724
▁مثلا	-3725
▁طالبان	-3726
▁انقلابی	-3727
▁قول	-3728
▁فردا	-3729
▁متفاوتی	-3730
▁کارشناسان	-3731
▁نشود	-3732
انیایی	-3733
▁تأمین	-3734
▁دائمی	-3735
غل	-3736
اردی	-3737
شیدی	-3738
▁منع	-3739
▁کاغ	-3740
▁بازگرد	-3741
▁آلود	-3742
▁جمعی	-3743
▁مسیحی	-3744
▁میکنند	-3745
▁>	-3746
est	-3747
▁آیه	-3748
▁صرفه	-3749
▁تحریک	-3750
▁نوآوری	-3751
▁اي	-3752
▁حادث	-3753
▁لایه	-3754
▁خواستم	-3755
▁درح	-3756
▁ابتلا	-3757
▁بماند	-3758
▁خانوادگی	-3759
ob	-3760
طاف	-3761
▁بفه	-3762
▁بمب	-3763
▁برود	-3764
▁حقوقی	-3765
▁صندلی	-3766
▁جس	-3767
ub	-3768
▁دعا	-3769
▁ظهور	-3770
▁نژاد	-3771
▁ریاضی	-3772
▁چرخه	-3773
▁اخبار	-3774
▁داشتیم	-3775
ge	-3776
ستیک	-3777
شند	-3778
▁عوار	-3779
▁".	-3780
▁رک	-3781
یدند	-3782
▁کاخ	-3783
▁دیابت	-3784
اگر	-3785
نای	-3786
▁کشیده	-3787
▁شرایطی	-3788
دیه	-3789
ندوز	-3790
▁تعادل	-3791
▁کمپین	-3792
▁انعطاف	-3793
▁باکتری	-3794
up	-3795
سول	-3796
▁90	-3797
▁مور	-3798
▁کوین	-3799
▁نیستم	-3800
▁وظایف	-3801
▁سوالات	-3802
واری	-3803
▁معلم	-3804
▁انگار	-3805
▁تعطیلات	-3806
▁استراتژیک	-3807
ct	-3808
ver	-3809
زیت	-3810
▁کفش	-3811
▁آمدن	-3812
▁کنگر	-3813
▁چیزها	-3814
▁فس	-3815
▁قلم	-3816
▁بران	-3817
▁رایج	-3818
▁جانبی	-3819
▁حادثه	-3820
▁کوچکی	-3821
▁استراحت	-3822
▁اذ	-3823
▁راز	-3824
▁لبخ	-3825
▁وجه	-3826
▁ویندوز	-3827
کتور	-3828
▁استث	-3829
▁نویسی	-3830
▁Ne	-3831
▁اکس	-3832
▁رییس	-3833
▁ثروتمند	-3834
غام	-3835
▁۱۱	-3836
▁دهی	-3837
▁کاربری	-3838
تو	-3839
ord	-3840
▁اقی	-3841
▁احتمالی	-3842
ke	-3843
▁آسیا	-3844
▁خواهان	-3845
▁هدیه	-3846
▁بگیریم	-3847
▁برگزاری	-3848
جار	-3849
خورد	-3850
▁اتوم	-3851
▁خلاف	-3852
▁راضی	-3853
▁گرچه	-3854
▁گمان	-3855
ist	-3856
انوس	-3857
▁الم	-3858
▁نقض	-3859
▁گرس	-3860
▁ابزارهای	-3861
▁احم	-3862
▁2016	-3863
▁مهمان	-3864
▁میتواند	-3865
▁تروریستی	-3866
▁راهنمایی	-3867
▁خل	-3868
▁۱۴	-3869
▁وار	-3870
▁وضع	-3871
فل	-3872
▁آفت	-3873
▁سوئ	-3874
▁كند	-3875
▁خطوط	-3876
▁مطابق	-3877
▁مطالب	-3878
▁معامل	-3879
▁سرانجام	-3880
▁21	-3881
▁تعجب	-3882
▁تجدید	-3883
▁مناسبی	-3884
▁بری	-3885
▁خبری	-3886
▁فیلتر	-3887
▁درحالی	-3888
▁حرک	-3889
▁بزرگسالان	-3890
▁حج	-3891
▁واس	-3892
▁تشکر	-3893
▁جامع	-3894
▁شاخص	-3895
▁شوروی	-3896
▁فدرال	-3897
▁خورشیدی	-3898
ive	-3899
▁Sp	-3900
▁تخص	-3901
▁منص	-3902
▁بنیاد	-3903
▁عوارض	-3904
▁کنگره	-3905
کنندگان	-3906
▁کارآفر	-3907
ّت	-3908
میر	-3909
▁De	-3910
▁لم	-3911
▁گربه	-3912
▁نظرات	-3913
▁نماینده	-3914
گنال	-3915
▁شیطان	-3916
▁سیگنال	-3917
ربان	-3918
▁خواهی	-3919
ell	-3920
ازگی	-3921
▁محاس	-3922
▁ناام	-3923
▁گویی	-3924
▁اندکی	-3925
▁|	-3926
گانی	-3927
▁مقی	-3928
▁وام	-3929
▁ذهنی	-3930
▁بازنش	-3931
▁بنویس	-3932
▁پذیرفته	-3933
لیکی	-3934
نوشت	-3935
▁اردو	-3936
▁رمان	-3937
▁کالج	-3938
▁تئوری	-3939
▁دوستی	-3940
▁برگشت	-3941
▁شواهد	-3942
▁الکتری	-3943
▁بگذارد	-3944
▁رع	-3945
▁حساس	-3946
▁عکاسی	-3947
▁فلسفه	-3948
▁استاندار	-3949
ضیه	-3950
▁ناس	-3951
▁جنگی	-3952
▁داعش	-3953
مور	-3954
▁رم	-3955
ارات	-3956
▁196	-3957
▁اتحاد	-3958
if	-3959
▁له	-3960
▁اوک	-3961
▁حدی	-3962
▁مداخ	-3963
▁محاسبه	-3964
ظاه	-3965
چرخ	-3966
▁۴۰	-3967
▁رفع	-3968
▁نفع	-3969
▁تردید	-3970
▁تکامل	-3971
▁مقررات	-3972
▁نقد	-3973
▁علام	-3974
▁نیستید	-3975
▁جغ	-3976
▁عرو	-3977
▁مری	-3978
▁مرده	-3979
▁استعد	-3980
▁الهام	-3981
▁تازگی	-3982
▁معتقدند	-3983
لز	-3984
▁٬	-3985
▁شادی	-3986
▁غیرم	-3987
▁هرچه	-3988
ue	-3989
یلی	-3990
▁ناه	-3991
▁بیاید	-3992
▁بینیم	-3993
▁لبخند	-3994
▁مراقب	-3995
▁پیروی	-3996
▁اضطراب	-3997
▁امکانات	-3998
طرف	-3999
▁Bl	-4000
▁اخترا	-4001
▁سفارش	-4002
▁قضاوت	-4003
▁جداگانه	-4004
▁مأ	-4005
▁رقم	-4006
▁قسم	-4007
▁وقوع	-4008
▁اکثریت	-4009
▁آمریکای	-4010
▁Un	-4011
▁دوز	-4012
▁کاب	-4013
▁دامنه	-4014
▁کیلومتر	-4015
مر	-4016
one	-4017
▁ضعف	-4018
▁پایت	-4019
▁ماموریت	-4020
▁احس	-4021
▁بوی	-4022
▁عقل	-4023
▁آرزو	-4024
▁ثبات	-4025
▁متهم	-4026
▁پارل	-4027
▁اتومبیل	-4028
▁بعدا	-4029
▁داوط	-4030
▁آنقدر	-4031
▁ماندن	-4032
▁اپلیکی	-4033
ht	-4034
▁عط	-4035
گویی	-4036
▁بدهی	-4037
▁خودک	-4038
▁رسانی	-4039
▁داوطلب	-4040
▁آه	-4041
▁گز	-4042
▁تظاه	-4043
▁پیمان	-4044
▁بیایید	-4045
▁سازنده	-4046
▁نمایندگان	-4047
▁Sh	-4048
▁st	-4049
▁مخدر	-4050
▁روزها	-4051
▁ادع	-4052
▁مون	-4053
▁یورو	-4054
▁دادیم	-4055
▁فرصتی	-4056
▁مجازی	-4057
▁خودکار	-4058
▁اینترنتی	-4059
▁80	-4060
▁موقت	-4061
راد	-4062
▁2014	-4063
▁چشمان	-4064
▁یابند	-4065
▁#	-4066
بیت	-4067
پزش	-4068
▁فال	-4069
▁آلودگی	-4070
▁محدوده	-4071
▁بالاخره	-4072
واب	-4073
▁غم	-4074
▁الز	-4075
▁مدار	-4076
com	-4077
ادن	-4078
کید	-4079
▁سم	-4080
افقت	-4081
▁درگیری	-4082
▁رایانه	-4083
▁سرنوشت	-4084
▁موافقت	-4085
▁ناپذیر	-4086
▁تبلیغاتی	-4087
▁جر	-4088
▁سئو	-4089
▁دمای	-4090
▁عمد	-4091
▁استق	-4092
▁اوست	-4093
▁باری	-4094
▁متعهد	-4095
▁مقیاس	-4096
▁موهای	-4097
▁پیوست	-4098
▁استخوان	-4099
▁دای	-4100
▁فول	-4101
▁ویر	-4102
▁بانکی	-4103
▁اپلیکیشن	-4104
ماس	-4105
مره	-4106
▁سرخ	-4107
▁تخصص	-4108
▁تنوع	-4109
▁همگی	-4110
▁رعایت	-4111
▁هنرمند	-4112
OS	-4113
ort	-4114
▁ایمن	-4115
▁فوری	-4116
▁پدرش	-4117
▁اندرو	-4118
▁یادآوری	-4119
▁ردی	-4120
▁جوام	-4121
▁کلیس	-4122
▁تأکید	-4123
زر	-4124
لین	-4125
▁سینه	-4126
▁بهینه	-4127
▁نخواهند	-4128
ير	-4129
اوز	-4130
▁نیک	-4131
▁الکل	-4132
▁الگو	-4133
▁زنند	-4134
▁زودتر	-4135
▁معیار	-4136
▁کنونی	-4137
ill	-4138
است	-4139
▁انح	-4140
▁كار	-4141
▁مخل	-4142
▁حلقه	-4143
▁آمدند	-4144
▁بخواهد	-4145
▁بدترین	-4146
انگ	-4147
▁22	-4148
▁میر	-4149
▁آنتی	-4150
▁روشی	-4151
▁ساحل	-4152
▁بدهند	-4153
▁تفسیر	-4154
▁جلسات	-4155
▁زمینی	-4156
▁Q	-4157
▁شرح	-4158
▁پلت	-4159
▁اسکن	-4160
▁قطعه	-4161
▁ماهواره	-4162
50	-4163
▁۱۶	-4164
▁لغو	-4165
▁کاف	-4166
▁راجع	-4167
▁مسلح	-4168
▁حیاتی	-4169
▁علامت	-4170
▁اقیانوس	-4171
لیک	-4172
▁خن	-4173
▁۱۹۷	-4174
▁جعبه	-4175
▁شکلی	-4176
▁باردار	-4177
▁کارمند	-4178
▁گذارند	-4179
▁تحصیلات	-4180
▁تروریسم	-4181
▁دانشگاهی	-4182
▁متاسفانه	-4183
▁استانداردهای	-4184
يت	-4185
▁Al	-4186
▁حین	-4187
رگانی	-4188
▁ضربه	-4189
▁سرکوب	-4190
▁دستگیر	-4191
▁ناراحت	-4192
▁آک	-4193
▁ین	-4194
کرات	-4195
▁وال	-4196
▁۱۹۸	-4197
▁صندوق	-4198
▁ببینند	-4199
▁بدانند	-4200
▁الکتریکی	-4201
NA	-4202
▁١	-4203
گرام	-4204
▁توپ	-4205
▁شام	-4206
▁موج	-4207
▁جلوی	-4208
▁دیوان	-4209
▁توانستند	-4210
املی	-4211
▁سور	-4212
▁استد	-4213
▁مقالات	-4214
▁نویسندگان	-4215
کب	-4216
▁er	-4217
بیند	-4218
▁فقر	-4219
▁تحقق	-4220
▁جمعه	-4221
▁سالی	-4222
▁مستند	-4223
▁عصبانی	-4224
▁ني	-4225
▁دلاری	-4226
▁فیزیک	-4227
▁معادل	-4228
▁ندهید	-4229
▁3.	-4230
▁آرا	-4231
▁اراده	-4232
▁مواردی	-4233
▁فلسطینی	-4234
خاذ	-4235
▁روس	-4236
▁برزی	-4237
▁تاثی	-4238
▁آورید	-4239
▁اتخاذ	-4240
▁تزریق	-4241
▁ظاهرا	-4242
▁احساسی	-4243
▁غیره	-4244
▁گرفتم	-4245
▁برانگی	-4246
غی	-4247
جویی	-4248
▁شدیم	-4249
▁کلاسی	-4250
▁بپرسید	-4251
▁پایتخت	-4252
▁توانستم	-4253
▁رودخانه	-4254
بو	-4255
▁خبرنگ	-4256
▁روزمره	-4257
▁زنجیره	-4258
▁آوریل	-4259
▁مالکیت	-4260
▁اوکراین	-4261
سایت	-4262
▁روم	-4263
▁زوج	-4264
▁ضبط	-4265
▁ندرت	-4266
ارتمان	-4267
▁ببرد	-4268
▁تصمی	-4269
▁خراب	-4270
▁سایه	-4271
▁اسناد	-4272
▁ببیند	-4273
▁بنیان	-4274
▁تخت	-4275
▁شرط	-4276
▁چاق	-4277
▁بخشد	-4278
▁خنده	-4279
▁ابراز	-4280
▁ببینیم	-4281
▁تماشای	-4282
▁دشمنان	-4283
▁وبسایت	-4284
▁برقراری	-4285
se	-4286
▁1-	-4287
▁ادبی	-4288
▁کت	-4289
نوان	-4290
▁سکوت	-4291
▁کارفر	-4292
▁k	-4293
▁هید	-4294
▁خودت	-4295
▁شکایت	-4296
▁فوریه	-4297
▁السلام	-4298
▁جشنواره	-4299
▁پیشگیری	-4300
فس	-4301
چوب	-4302
▁IP	-4303
▁خلی	-4304
▁قطار	-4305
▁آلوده	-4306
▁راستی	-4307
▁نشسته	-4308
▁کمونی	-4309
▁گذاشتن	-4310
▁راهنمای	-4311
▁کمیسیون	-4312
ect	-4313
ستر	-4314
▁500	-4315
▁عاط	-4316
▁مؤثر	-4317
▁معلوم	-4318
▁چندان	-4319
▁بعنوان	-4320
▁دستورال	-4321
▁y	-4322
▁عر	-4323
ابتی	-4324
تیکی	-4325
▁حسین	-4326
▁جوامع	-4327
▁گیرید	-4328
▁شناختی	-4329
اطر	-4330
▁Con	-4331
▁طرز	-4332
▁معا	-4333
▁کنون	-4334
▁ویزای	-4335
▁هورمون	-4336
▁دبیر	-4337
▁شارژ	-4338
▁ویدئو	-4339
ace	-4340
خاص	-4341
▁70	-4342
▁لات	-4343
▁لوله	-4344
▁روحانی	-4345
▁سازمانی	-4346
▁مرتب	-4347
▁نوشیدن	-4348
▁موجودات	-4349
▁یهودیان	-4350
▁۱۷	-4351
▁توده	-4352
▁کاغذ	-4353
▁اجاره	-4354
▁برایش	-4355
▁استدلال	-4356
▁حسابداری	-4357
ost	-4358
التی	-4359
ولیک	-4360
▁امت	-4361
▁2012	-4362
▁بومی	-4363
▁بکار	-4364
▁هیئت	-4365
▁خودکشی	-4366
▁خوشبخت	-4367
▁پیگیری	-4368
▁خواستند	-4369
▁%	-4370
ضاع	-4371
کسی	-4372
▁HT	-4373
فرنی	-4374
▁نکند	-4375
▁تخمین	-4376
ant	-4377
عمل	-4378
گوی	-4379
▁۶۰	-4380
▁زرد	-4381
▁میکرو	-4382
▁اختراع	-4383
ve	-4384
▁شکر	-4385
ابقات	-4386
▁تجاوز	-4387
▁مسابقات	-4388
ne	-4389
▁194	-4390
▁اته	-4391
▁بهار	-4392
▁بینند	-4393
▁پیشین	-4394
▁مخاطبان	-4395
our	-4396
▁شبه	-4397
▁مشا	-4398
▁اتوب	-4399
▁اسید	-4400
▁جویی	-4401
▁گریه	-4402
▁حقیقی	-4403
▁سرگرم	-4404
▁شکنجه	-4405
▁پرورد	-4406
ast	-4407
▁کالی	-4408
▁تقاضای	-4409
▁زمستان	-4410
▁دستورالعمل	-4411
▁23	-4412
▁جیم	-4413
▁عنصر	-4414
▁ارتفا	-4415
▁نر	-4416
▁دیگه	-4417
▁واکس	-4418
▁بخاطر	-4419
▁مردمی	-4420
▁پرسید	-4421
▁تصویری	-4422
▁کپی	-4423
▁اوضاع	-4424
▁کالری	-4425
▁استخراج	-4426
▁سربازان	-4427
غه	-4428
▁نع	-4429
▁کور	-4430
▁فقیر	-4431
▁کربن	-4432
▁گونا	-4433
▁برایم	-4434
▁حالیکه	-4435
▁مشابهی	-4436
▁حب	-4437
▁اتمی	-4438
▁شکار	-4439
▁اینست	-4440
▁بشناس	-4441
▁دلیلی	-4442
▁مجددا	-4443
▁آمادگی	-4444
سیل	-4445
ونگ	-4446
▁!»	-4447
▁....	-4448
▁مغزی	-4449
▁قطعات	-4450
▁نسبتا	-4451
▁فلسطین	-4452
▁متقاضی	-4453
▁پذیرفت	-4454
▁&	-4455
ind	-4456
▁کاش	-4457
▁استی	-4458
▁توقف	-4459
▁وکار	-4460
▁جنایت	-4461
▁برخلاف	-4462
▁همدیگر	-4463
▁Pl	-4464
▁۲۴	-4465
▁ساکن	-4466
▁سوسی	-4467
▁فکری	-4468
▁پروف	-4469
▁ویدیو	-4470
▁پدیده	-4471
▁آنجایی	-4472
▁اینگونه	-4473
يم	-4474
ومه	-4475
▁2-	-4476
نجان	-4477
▁ضمن	-4478
▁نباشید	-4479
▁SE	-4480
▁معد	-4481
▁باران	-4482
▁میدهد	-4483
▁ژاپنی	-4484
▁جغرافی	-4485
+]	-4486
فون	-4487
▁US	-4488
▁re	-4489
یدان	-4490
▁[+]	-4491
▁رفتم	-4492
▁نماد	-4493
▁اتوبوس	-4494
▁بگوییم	-4495
▁مخالفت	-4496
▁هماهنگی	-4497
وین	-4498
▁بشن	-4499
▁بکشد	-4500
▁دکمه	-4501
▁فریب	-4502
▁ویدئ	-4503
▁عقیده	-4504
▁لبنان	-4505
زات	-4506
▁(2	-4507
▁Cl	-4508
چرخه	-4509
▁سراغ	-4510
▁آلبوم	-4511
▁تخصصی	-4512
▁موافق	-4513
▁دوچرخه	-4514
▁بازارهای	-4515
-]	-4516
ark	-4517
▁36	-4518
▁En	-4519
▁[-]	-4520
▁شعر	-4521
▁مطمئ	-4522
▁اشخاص	-4523
▁اشغال	-4524
▁آنهایی	-4525
▁احتیاج	-4526
ip	-4527
ain	-4528
کیه	-4529
اتور	-4530
▁زای	-4531
▁سوگ	-4532
▁تایل	-4533
▁طلاق	-4534
▁مسکو	-4535
▁کابل	-4536
▁یکپار	-4537
▁مطمئنا	-4538
▁همسایه	-4539
وپ	-4540
قیب	-4541
▁Ad	-4542
▁آشن	-4543
▁مقصد	-4544
▁نظری	-4545
▁کلیه	-4546
▁میزبان	-4547
▁کلاسیک	-4548
ud	-4549
▁خب	-4550
▁رغم	-4551
▁سلط	-4552
▁قند	-4553
▁۱۹۶	-4554
▁باشه	-4555
▁مدنی	-4556
▁کلاه	-4557
▁گردند	-4558
▁خلاقیت	-4559
▁تصمیمات	-4560
▁قرص	-4561
▁مکال	-4562
▁یاری	-4563
▁ماجرا	-4564
▁بازیگر	-4565
▁دریاچه	-4566
▁دموکراتیک	-4567
راکی	-4568
▁امپرات	-4569
▁بخورید	-4570
ّا	-4571
▁عده	-4572
▁نان	-4573
▁2019	-4574
▁تویی	-4575
▁جانب	-4576
▁مهاجر	-4577
▁گیاهان	-4578
▁موتورهای	-4579
ry	-4580
▁صفر	-4581
▁نکات	-4582
▁پنجم	-4583
▁مستقی	-4584
▁رنگی	-4585
▁تخریب	-4586
▁خاطرات	-4587
▁دقیقاً	-4588
▁مرزهای	-4589
▁موسسات	-4590
BA	-4591
▁ۀ	-4592
▁رقص	-4593
▁ناز	-4594
▁بزند	-4595
▁سوار	-4596
▁مبنی	-4597
▁محور	-4598
▁خواهر	-4599
▁رفتند	-4600
▁عاطفی	-4601
▁فاجعه	-4602
▁باستان	-4603
▁تروریست	-4604
▁ناگهانی	-4605
▁تلویزیونی	-4606
ock	-4607
▁جسم	-4608
▁شست	-4609
▁احمق	-4610
▁سبزی	-4611
▁فساد	-4612
برداری	-4613
▁دستمز	-4614
▁پرنده	-4615
▁یونان	-4616
▁طرفداران	-4617
کش	-4618
▁28	-4619
▁Ex	-4620
▁رف	-4621
▁Com	-4622
▁بفر	-4623
▁رده	-4624
▁وضوح	-4625
▁راننده	-4626
▁معاملات	-4627
▁میانگین	-4628
▁نداشتند	-4629
تم	-4630
لر	-4631
▁عظ	-4632
مینی	-4633
▁مؤس	-4634
▁اکسی	-4635
▁حامی	-4636
▁عالم	-4637
▁مداخله	-4638
▁ناگهان	-4639
▁Ar	-4640
▁رأ	-4641
▁تسه	-4642
▁پره	-4643
▁انکار	-4644
▁تسلیم	-4645
▁گواهی	-4646
▁35	-4647
▁آسانی	-4648
▁مادرش	-4649
عیتی	-4650
▁تنگ	-4651
▁حرا	-4652
▁سیل	-4653
▁منف	-4654
▁2013	-4655
▁آشپز	-4656
▁ستون	-4657
▁اتمام	-4658
▁برطرف	-4659
▁مشاغل	-4660
▁ناپدید	-4661
▁استعداد	-4662
▁اعتباری	-4663
▁اشتباهات	-4664
کوپ	-4665
▁دینی	-4666
▁آنگاه	-4667
▁تاریک	-4668
▁مهاجران	-4669
لاس	-4670
ولا	-4671
▁IS	-4672
▁آری	-4673
▁اتو	-4674
▁داره	-4675
▁آفتاب	-4676
▁کلیسا	-4677
▁اشتغال	-4678
▁دانستم	-4679
▁تجربیات	-4680
پا	-4681
راث	-4682
فیف	-4683
▁لمس	-4684
▁یمن	-4685
▁برزیل	-4686
▁گرایی	-4687
▁گردشگری	-4688
▁بج	-4689
ریزی	-4690
▁اشیا	-4691
▁وسیع	-4692
▁گردن	-4693
▁معناست	-4694
▁برایتان	-4695
شب	-4696
▁لذا	-4697
▁پرچ	-4698
▁صوتی	-4699
▁بتوانیم	-4700
▁پارلمان	-4701
▁رفتارهای	-4702
سف	-4703
يل	-4704
ختن	-4705
▁خند	-4706
▁نقص	-4707
▁آفرین	-4708
▁اشکال	-4709
▁استودی	-4710
اخته	-4711
▁خرج	-4712
راسیون	-4713
▁همسرش	-4714
▁سرگرمی	-4715
▁کوچکتر	-4716
ft	-4717
لیپ	-4718
▁فش	-4719
▁جفت	-4720
▁بیفت	-4721
▁دانه	-4722
▁مفاه	-4723
▁کوتاهی	-4724
▁فرستاده	-4725
▁میتوانید	-4726
▁نوجوانان	-4727
io	-4728
end	-4729
رورت	-4730
▁زخم	-4731
▁سرت	-4732
▁سیب	-4733
اهایی	-4734
▁کلام	-4735
▁سازند	-4736
▁سینما	-4737
▁داروها	-4738
▁سالهای	-4739
▁ابتدایی	-4740
▁امریکایی	-4741
▁قربانیان	-4742
؟؟	-4743
ite	-4744
▁اسلحه	-4745
▁تقاضا	-4746
▁سوگند	-4747
▁پروتکل	-4748
▁الگوریت	-4749
ice	-4750
زوئ	-4751
ینا	-4752
▁بت	-4753
▁300	-4754
▁اهدا	-4755
▁درونی	-4756
▁بدانیم	-4757
are	-4758
oun	-4759
بتی	-4760
بوک	-4761
غیر	-4762
▁Tr	-4763
▁عز	-4764
▁جاس	-4765
▁زنگ	-4766
▁کشی	-4767
▁خلیج	-4768
▁عرصه	-4769
▁عزیز	-4770
▁گرای	-4771
▁ببرند	-4772
▁مادرم	-4773
▁اصلاحات	-4774
▁شجا	-4775
▁ملک	-4776
ظیمات	-4777
▁خاموش	-4778
▁ضرورت	-4779
▁واسطه	-4780
▁ونزوئ	-4781
▁فیسبوک	-4782
▁متعددی	-4783
▁تنظیمات	-4784
▁یادداشت	-4785
ضه	-4786
ولای	-4787
▁تسهیل	-4788
▁خطرات	-4789
▁چارچوب	-4790
وگ	-4791
▁Le	-4792
▁رحم	-4793
▁متنوع	-4794
▁هیدرو	-4795
▁اجباری	-4796
ئه	-4797
▁26	-4798
▁وری	-4799
کننده	-4800
▁ادغام	-4801
▁مخصوصا	-4802
▁بالاترین	-4803
pt	-4804
وزی	-4805
کام	-4806
وتری	-4807
▁ابز	-4808
▁تدریس	-4809
▁متعدد	-4810
▁اکسیژن	-4811
▁معلمان	-4812
▁تمرینات	-4813
ore	-4814
ایلی	-4815
▁تنش	-4816
▁حاکم	-4817
▁ماهه	-4818
▁قبلاً	-4819
▁افسانه	-4820
▁انفجار	-4821
▁استقبال	-4822
▁برآورده	-4823
طبی	-4824
نام	-4825
▁سالن	-4826
▁اندیشه	-4827
▁صاحبان	-4828
▁—	-4829
▁on	-4830
▁کر	-4831
▁۸۰	-4832
▁باشی	-4833
▁پدرم	-4834
▁اخلاق	-4835
▁تومور	-4836
▁سخنان	-4837
▁پیروز	-4838
اتل	-4839
رول	-4840
ویم	-4841
▁جوی	-4842
راحتی	-4843
▁حریم	-4844
▁شیرین	-4845
▁فریاد	-4846
▁ناراحتی	-4847
ure	-4848
▁[1	-4849
رایه	-4850
▁بنگ	-4851
▁مزیت	-4852
▁چراغ	-4853
▁شهادت	-4854
▁مسافر	-4855
▁ایتالی	-4856
▁فراوانی	-4857
▁التحصیلان	-4858
برگ	-4859
▁ضر	-4860
▁ابع	-4861
▁تسلی	-4862
▁مایک	-4863
▁ملاح	-4864
▁گواه	-4865
▁عضلات	-4866
▁برساند	-4867
▁رسیدگی	-4868
▁کارآمد	-4869
▁غیرقابل	-4870
ادمی	-4871
▁درب	-4872
▁دلم	-4873
زاینده	-4874
▁برسند	-4875
▁حوادث	-4876
▁دفاعی	-4877
▁وسیعی	-4878
▁مقداری	-4879
▁ایستاده	-4880
▁ایتالیایی	-4881
▁’	-4882
پرس	-4883
▁0.	-4884
ادله	-4885
▁دوی	-4886
▁تعلق	-4887
▁نگار	-4888
▁مثلاً	-4889
▁میراث	-4890
▁ژنتیکی	-4891
▁فزاینده	-4892
ML	-4893
▁27	-4894
▁دز	-4895
▁اوج	-4896
▁جنس	-4897
▁لنز	-4898
▁آیات	-4899
▁مطلق	-4900
▁اخراج	-4901
▁کالیفرنی	-4902
ئیه	-4903
بیا	-4904
راس	-4905
▁45	-4906
▁بشری	-4907
▁بینم	-4908
▁رسند	-4909
▁پوند	-4910
▁دخالت	-4911
▁روایت	-4912
▁نداده	-4913
▁نیستیم	-4914
ff	-4915
شور	-4916
گزار	-4917
▁مجه	-4918
▁مقاد	-4919
▁نظرس	-4920
▁مبنای	-4921
▁ارتفاع	-4922
▁دستمزد	-4923
▁رفتاری	-4924
▁نخواهید	-4925
▁?	-4926
▁_	-4927
دال	-4928
مار	-4929
ویز	-4930
▁فت	-4931
وفان	-4932
▁غال	-4933
▁پری	-4934
▁پیو	-4935
انونی	-4936
▁شنیدن	-4937
▁طلایی	-4938
▁پرتاب	-4939
▁هماهنگ	-4940
▁دستاورد	-4941
▁غی	-4942
▁متق	-4943
▁ربات	-4944
▁شهرد	-4945
▁صلاح	-4946
▁كنند	-4947
▁غالبا	-4948
▁مقادیر	-4949
▁نظرسنجی	-4950
▁غیرقانونی	-4951
▁آو	-4952
▁سنی	-4953
▁متأ	-4954
▁نار	-4955
▁نظم	-4956
▁2011	-4957
▁قایق	-4958
▁مولک	-4959
▁۲۰۱۵	-4960
▁بصورت	-4961
▁بعدها	-4962
▁شرکتی	-4963
▁فیلیپ	-4964
▁ابتدای	-4965
▁بسازید	-4966
▁سازگار	-4967
حق	-4968
age	-4969
▁Th	-4970
ight	-4971
▁دگر	-4972
▁طعم	-4973
▁متش	-4974
▁فورا	-4975
▁حساسی	-4976
▁دریای	-4977
▁رادیو	-4978
▁محاسب	-4979
▁x	-4980
▁آقا	-4981
▁عمق	-4982
▁غلط	-4983
▁کلم	-4984
▁بلوک	-4985
▁سپاس	-4986
▁مرتکب	-4987
▁مکزیک	-4988
▁افزوده	-4989
اقت	-4990
▁تکه	-4991
▁کنه	-4992
▁عذاب	-4993
▁منطق	-4994
▁تظاهرات	-4995
▁توانسته	-4996
▁ونزوئلا	-4997
▁آشپزخانه	-4998
▁Sc	-4999
▁کب	-5000
طانی	-5001
▁اعط	-5002
▁الته	-5003
▁محبت	-5004
▁تأسیس	-5005
▁شبانه	-5006
▁آکادمی	-5007
▁کلیسای	-5008
▁آپارتمان	-5009
▁الگوریتم	-5010
ازده	-5011
▁خطا	-5012
▁مأم	-5013
▁محض	-5014
▁وسط	-5015
▁صدور	-5016
▁قدرد	-5017
▁ببینم	-5018
▁شهرها	-5019
▁آشنایی	-5020
▁شایسته	-5021
▁عبارتند	-5022
▁مشکلاتی	-5023
▁یکپارچه	-5024
▁هنرمندان	-5025
▁سازماندهی	-5026
کوک	-5027
▁هار	-5028
▁ناشن	-5029
▁مسدود	-5030
▁زندانیان	-5031
ربز	-5032
▁معج	-5033
ربزرگ	-5034
▁سرقت	-5035
▁بروند	-5036
▁موضوعی	-5037
▁بازیگران	-5038
▁کامپیوتری	-5039
ib	-5040
▁لای	-5041
▁امّا	-5042
▁قضیه	-5043
▁معدن	-5044
▁نداد	-5045
روسافت	-5046
▁ابعاد	-5047
▁سالها	-5048
▁عملیاتی	-5049
▁گوناگون	-5050
30	-5051
IS	-5052
ld	-5053
▁=	-5054
▁تند	-5055
ادایی	-5056
▁بابت	-5057
▁خالص	-5058
▁سوئد	-5059
▁شهرت	-5060
▁مدارک	-5061
▁توییتر	-5062
▁بگذارند	-5063
▁انتظارات	-5064
▁کشورهایی	-5065
▁روانشناسی	-5066
ire	-5067
اسر	-5068
▁بیاب	-5069
▁توجی	-5070
▁اصلاً	-5071
▁مواقع	-5072
▁سایبری	-5073
▁شهروند	-5074
▁فرماید	-5075
▁مرورگر	-5076
▁مفاهیم	-5077
▁اتفاقات	-5078
▁پروردگار	-5079
بول	-5080
▁اقل	-5081
▁2008	-5082
▁خونی	-5083
▁کتابی	-5084
▁کالیفرنیا	-5085
ak	-5086
يه	-5087
ook	-5088
آگاه	-5089
▁باط	-5090
▁جادو	-5091
▁عموم	-5092
▁میشه	-5093
▁وکیل	-5094
▁سرتاسر	-5095
▁آفریقای	-5096
▁کانادایی	-5097
؟»	-5098
act	-5099
▁نرس	-5100
▁پال	-5101
▁محرک	-5102
▁هلند	-5103
▁گوشه	-5104
▁معدنی	-5105
▁نویسد	-5106
▁بایستی	-5107
▁خودداری	-5108
▁۲۱	-5109
میمی	-5110
▁نیت	-5111
اداری	-5112
▁بیام	-5113
▁شیشه	-5114
▁محکم	-5115
▁سفارت	-5116
▁نکنند	-5117
▁زایمان	-5118
▁فرمانده	-5119
PS	-5120
عکس	-5121
▁HI	-5122
▁تدا	-5123
▁جاب	-5124
▁آیفون	-5125
▁دیوید	-5126
▁ادبیات	-5127
▁دارویی	-5128
▁پردازد	-5129
ass	-5130
فرم	-5131
▁Ph	-5132
ایده	-5133
▁جاذ	-5134
▁جوش	-5135
▁داغ	-5136
▁مسا	-5137
▁وحشی	-5138
▁بدهیم	-5139
▁دانستن	-5140
▁درختان	-5141
▁اسپانیایی	-5142
▁خوشبختانه	-5143
▁بي	-5144
▁يک	-5145
▁رون	-5146
▁وین	-5147
▁گاو	-5148
▁ایفا	-5149
▁جنین	-5150
▁شوهر	-5151
▁قائل	-5152
▁گرما	-5153
▁جدایی	-5154
▁شکسته	-5155
▁متمای	-5156
▁معاصر	-5157
▁ارمغان	-5158
▁تصادفی	-5159
▁متقاعد	-5160
▁پیوسته	-5161
▁برداشته	-5162
▁نتوانست	-5163
یدگی	-5164
▁ائت	-5165
▁تها	-5166
▁شوه	-5167
▁پرچم	-5168
▁معنوی	-5169
▁ندیده	-5170
▁دوشنبه	-5171
▁سریعتر	-5172
▁طراحان	-5173
▁کمونیست	-5174
▁یی	-5175
▁اعل	-5176
▁مجهز	-5177
▁ویزا	-5178
▁حرکات	-5179
▁سومین	-5180
▁لاتین	-5181
▁کارآفرین	-5182
▁جغرافیایی	-5183
ph	-5184
▁بف	-5185
▁قض	-5186
▁”.	-5187
▁باب	-5188
▁گال	-5189
▁2000	-5190
▁تروی	-5191
▁عادل	-5192
▁الگوی	-5193
▁اعتراف	-5194
رفه	-5195
صدی	-5196
قین	-5197
▁to	-5198
زایر	-5199
▁رأی	-5200
▁عسل	-5201
▁قوم	-5202
▁2010	-5203
▁حمام	-5204
▁غلبه	-5205
▁ناتو	-5206
▁پرده	-5207
▁بردار	-5208
▁بوجود	-5209
▁متغیر	-5210
▁هایتان	-5211
تاح	-5212
▁بط	-5213
▁خس	-5214
▁انه	-5215
▁سون	-5216
▁بخصو	-5217
▁دائم	-5218
▁رسول	-5219
▁ابراه	-5220
▁اداری	-5221
▁تبادل	-5222
▁سوئیس	-5223
▁میکنم	-5224
▁افتتاح	-5225
▁اسرائیلی	-5226
اطع	-5227
ایم	-5228
فکر	-5229
مدت	-5230
▁App	-5231
▁باه	-5232
▁صلی	-5233
▁بدهم	-5234
▁سپری	-5235
▁جبران	-5236
▁خیانت	-5237
▁یکبار	-5238
▁فراوان	-5239
▁نبودند	-5240
▁گرسنگی	-5241
▁مایکروسافت	-5242
ang	-5243
برت	-5244
رمانی	-5245
▁کیست	-5246
▁جاذبه	-5247
▁محروم	-5248
▁مخاطب	-5249
▁بگویند	-5250
▁بنویسید	-5251
▁بیاورید	-5252
▁۷۰	-5253
▁مسأ	-5254
▁شاخه	-5255
▁شهید	-5256
▁خروجی	-5257
▁مغازه	-5258
▁ویرایش	-5259
▁هل	-5260
▁!!!	-5261
▁پوی	-5262
▁بروم	-5263
▁پورت	-5264
▁یابی	-5265
▁تایلند	-5266
▁تعهدات	-5267
▁دونالد	-5268
▁برادران	-5269
▁هواپیمای	-5270
▁4.	-5271
▁شایع	-5272
▁اسباب	-5273
▁ارتقاء	-5274
▁نادرست	-5275
ox	-5276
نظ	-5277
ear	-5278
ایر	-5279
▁لز	-5280
▁اگه	-5281
▁سیر	-5282
▁مضر	-5283
▁پور	-5284
▁شعار	-5285
▁ماری	-5286
▁نوار	-5287
▁مالیاتی	-5288
ork	-5289
▁جزو	-5290
▁زلز	-5291
▁تجار	-5292
▁خواص	-5293
▁رفاه	-5294
▁گذرد	-5295
▁خورند	-5296
▁ژوئیه	-5297
▁فروخته	-5298
ّه	-5299
▁$	-5300
▁آذ	-5301
▁آگ	-5302
▁۲۲	-5303
زاده	-5304
▁چوب	-5305
▁بنده	-5306
▁حرارت	-5307
▁سیاستم	-5308
▁فرستاد	-5309
▁سوسیالی	-5310
▁ویدئویی	-5311
▁فرزندتان	-5312
اطی	-5313
عود	-5314
مایی	-5315
گذشت	-5316
▁ضرب	-5317
▁جیمز	-5318
▁مدعی	-5319
▁مسجد	-5320
▁تعمیر	-5321
▁جولای	-5322
▁زلزله	-5323
▁فروشی	-5324
▁آوردند	-5325
▁حساسیت	-5326
▁صبحانه	-5327
▁مربوطه	-5328
▁دیجیتالی	-5329
؟!	-5330
اقد	-5331
وود	-5332
▁HD	-5333
▁تام	-5334
▁بلاک	-5335
▁سرما	-5336
▁فیبر	-5337
▁لیزر	-5338
▁مغذی	-5339
▁بیفتد	-5340
▁خوراکی	-5341
▁خونریزی	-5342
▁Am	-5343
▁عج	-5344
▁اوت	-5345
▁حدس	-5346
▁میخ	-5347
▁کاپ	-5348
▁ترویج	-5349
▁واردات	-5350
▁گیرنده	-5351
▁سبزیجات	-5352
▁نمیتوان	-5353
qu	-5354
ارف	-5355
▁3-	-5356
▁بیا	-5357
▁ساح	-5358
▁قبر	-5359
▁نصف	-5360
▁جسمی	-5361
▁قاره	-5362
▁هایم	-5363
▁خستگی	-5364
▁گیریم	-5365
▁رساندن	-5366
▁ساکنان	-5367
▁مسافرت	-5368
▁مشخصات	-5369
زاب	-5370
▁29	-5371
▁شرم	-5372
▁غری	-5373
مازون	-5374
▁زدند	-5375
▁بداند	-5376
▁داوری	-5377
▁ماهیت	-5378
▁مطلوب	-5379
▁آمازون	-5380
▁مکالمه	-5381
▁پژوهشگران	-5382
".	-5383
عان	-5384
▁گش	-5385
▁بلی	-5386
▁ویل	-5387
▁موان	-5388
▁کوبا	-5389
▁تضعیف	-5390
▁جنسیت	-5391
▁کارکرد	-5392
▁is	-5393
کشان	-5394
▁ضرر	-5395
▁محد	-5396
▁آینه	-5397
▁جدول	-5398
▁خرده	-5399
▁ماسا	-5400
▁مذهب	-5401
▁مسکن	-5402
▁نظرم	-5403
▁نعمت	-5404
▁رسمیت	-5405
▁ممنون	-5406
▁ابراهیم	-5407
▁دانستند	-5408
مپ	-5409
ian	-5410
▁دي	-5411
▁سنج	-5412
▁مکر	-5413
▁۱۹۴	-5414
▁لیبی	-5415
▁موضع	-5416
▁فالون	-5417
▁ناهار	-5418
▁بمانید	-5419
▁تیراند	-5420
▁کارفرمای	-5421
زده	-5422
کین	-5423
▁خلب	-5424
▁پاپ	-5425
▁امان	-5426
▁مرات	-5427
▁خداست	-5428
▁زبانی	-5429
▁فهمید	-5430
▁لوازم	-5431
▁استارت	-5432
مکن	-5433
▁۳۵	-5434
کدام	-5435
ینامه	-5436
▁استع	-5437
▁ستار	-5438
▁ملکه	-5439
▁مهار	-5440
▁فولاد	-5441
▁گویید	-5442
▁بمانند	-5443
▁اختصاصی	-5444
▁پرندگان	-5445
▁گواهینامه	-5446
شو	-5447
▁Te	-5448
▁تمدن	-5449
▁فاقد	-5450
▁واجد	-5451
▁آلرژی	-5452
▁اردوگاه	-5453
▁دندانپزش	-5454
اقب	-5455
شتر	-5456
وطه	-5457
کور	-5458
▁for	-5459
▁تقد	-5460
▁جری	-5461
▁2009	-5462
▁تنفس	-5463
▁حاشی	-5464
▁محاک	-5465
▁نفرت	-5466
▁اعداد	-5467
▁املاک	-5468
▁بکشید	-5469
▁مشتاق	-5470
▁گیاهی	-5471
▁اعتصاب	-5472
▁بنیادی	-5473
▁سامسون	-5474
▁دموکرات	-5475
ust	-5476
رید	-5477
لیس	-5478
▁جبه	-5479
▁۵۰۰	-5480
▁کشتن	-5481
▁کمال	-5482
▁کیلو	-5483
▁بردند	-5484
▁مخلوط	-5485
▁اضطراری	-5486
▁خواننده	-5487
▁قدردانی	-5488
▁نهادهای	-5489
▁رویدادهای	-5490
▁برف	-5491
▁نما	-5492
▁بصری	-5493
▁روحی	-5494
▁بخصوص	-5495
▁مستقر	-5496
▁مشورت	-5497
▁واکسن	-5498
▁پرهیز	-5499
▁حاکمیت	-5500
▁رسیدند	-5501
PN	-5502
ساخت	-5503
وتین	-5504
▁امی	-5505
▁ششم	-5506
▁عاد	-5507
▁2020	-5508
▁روده	-5509
▁فارس	-5510
▁نوری	-5511
▁تاخیر	-5512
▁حاشیه	-5513
▁مالزی	-5514
▁مهمتر	-5515
▁نامزد	-5516
▁پسران	-5517
▁رقابتی	-5518
▁زیرساخت	-5519
پیک	-5520
گهی	-5521
▁As	-5522
▁خوی	-5523
▁سقف	-5524
▁شلو	-5525
▁غول	-5526
▁نوا	-5527
▁سنین	-5528
▁شکاف	-5529
▁مطلع	-5530
▁ناسا	-5531
▁کامی	-5532
▁توجیه	-5533
▁ساعات	-5534
▁اندروید	-5535
▁سامسونگ	-5536
▁مسافران	-5537
oin	-5538
▁Be	-5539
ستری	-5540
▁غرق	-5541
▁محله	-5542
▁نفتی	-5543
▁اندام	-5544
▁بگیرم	-5545
▁فرمول	-5546
▁گرمای	-5547
▁دانشجویی	-5548
▁په	-5549
▁۹۰	-5550
شویی	-5551
▁مهر	-5552
▁۲۰۱۱	-5553
▁آهسته	-5554
▁احزاب	-5555
▁دستان	-5556
▁گفتار	-5557
▁انتهای	-5558
▁نوزادان	-5559
▁ناشناخته	-5560
▁نمایندگی	-5561
▁امپراتوری	-5562
ax	-5563
ome	-5564
▁رب	-5565
▁لزو	-5566
▁کبد	-5567
▁حامل	-5568
ارهایی	-5569
▁مسأله	-5570
▁کهکشان	-5571
▁داستانی	-5572
ّی	-5573
ازن	-5574
نظر	-5575
وریم	-5576
▁ببخ	-5577
▁بوت	-5578
▁بالغ	-5579
▁تلقی	-5580
▁مزمن	-5581
▁۲۰۱۸	-5582
▁بزنند	-5583
▁بیرونی	-5584
▁al	-5585
▁Man	-5586
▁آسم	-5587
▁الف	-5588
▁حسن	-5589
▁بشود	-5590
▁عبدال	-5591
▁گردان	-5592
▁گوییم	-5593
▁دانشجو	-5594
▁کاندید	-5595
▁دوستانه	-5596
▁الکترونیک	-5597
اعت	-5598
سمس	-5599
▁؟»	-5600
▁آرت	-5601
▁لحظ	-5602
▁اختل	-5603
▁تکان	-5604
▁ادرار	-5605
▁بشریت	-5606
▁تئاتر	-5607
▁طوفان	-5608
▁خودروی	-5609
زین	-5610
▁تپ	-5611
ایند	-5612
نایی	-5613
▁HIV	-5614
▁آست	-5615
▁بلو	-5616
▁کنس	-5617
▁کول	-5618
▁جبهه	-5619
▁درسی	-5620
▁الملل	-5621
▁رکورد	-5622
▁مایکل	-5623
▁ائتلاف	-5624
▁اینستا	-5625
▁کارایی	-5626
▁کریسمس	-5627
▁جایگزینی	-5628
10	-5629
آم	-5630
افل	-5631
کسل	-5632
▁195	-5633
▁دود	-5634
▁مداف	-5635
▁۲۰۱۴	-5636
▁فایده	-5637
▁مدیری	-5638
▁پستان	-5639
▁ویتنام	-5640
▁خلاقانه	-5641
ساز	-5642
مود	-5643
▁We	-5644
▁لس	-5645
حدود	-5646
▁خشن	-5647
▁خنک	-5648
ستیکی	-5649
▁آگهی	-5650
▁فراخ	-5651
▁آرامی	-5652
▁خلبان	-5653
▁قلمرو	-5654
▁مشخصی	-5655
▁محافظه	-5656
▁تغییراتی	-5657
▁75	-5658
▁مض	-5659
بورگ	-5660
▁الا	-5661
▁یار	-5662
▁بدنی	-5663
▁فرمت	-5664
▁۲۰۱۳	-5665
ارستان	-5666
▁آموخت	-5667
▁دشواری	-5668
▁پادشاهی	-5669
▁بازرگانی	-5670
ix	-5671
دل	-5672
ode	-5673
▁رؤ	-5674
مانه	-5675
پذیر	-5676
▁2007	-5677
▁برنج	-5678
▁کالا	-5679
▁کردی	-5680
▁برعکس	-5681
▁حقایق	-5682
▁عروسی	-5683
▁میانه	-5684
▁بیاورد	-5685
▁دردناک	-5686
▁ملاحظه	-5687
▁انتخابی	-5688
▁برایشان	-5689
▁خریداران	-5690
)،	-5691
ov	-5692
her	-5693
▁DNA	-5694
▁بره	-5695
▁سرم	-5696
مانند	-5697
▁شانه	-5698
▁بودید	-5699
▁مثبتی	-5700
▁راستای	-5701
▁محدودی	-5702
▁نداشتم	-5703
▁هج	-5704
تیاد	-5705
مندی	-5706
▁زور	-5707
▁گان	-5708
▁سوزی	-5709
▁نیام	-5710
▁اسکات	-5711
▁انیمی	-5712
▁تلفنی	-5713
▁اعتیاد	-5714
▁مهربان	-5715
▁نابودی	-5716
▁برانگیز	-5717
▁فروشنده	-5718
▁وابستگی	-5719
▁٪	-5720
▁Mar	-5721
▁آرژ	-5722
▁جزء	-5723
▁ربط	-5724
▁سید	-5725
▁عام	-5726
▁تبعی	-5727
▁تکیه	-5728
▁دانی	-5729
▁مایع	-5730
▁تجویز	-5731
▁جوانی	-5732
▁بیاموز	-5733
▁متمایز	-5734
▁نمودار	-5735
▁پژوهشی	-5736
▁نیروگاه	-5737
▁اینستاگرام	-5738
ile	-5739
▁IC	-5740
وارد	-5741
▁لیب	-5742
▁نمک	-5743
▁تیره	-5744
▁غافل	-5745
▁کلست	-5746
▁برسید	-5747
▁پیرام	-5748
▁گذران	-5749
▁تاریکی	-5750
▁خودروهای	-5751
iz	-5752
▁Mic	-5753
▁آدمی	-5754
▁توری	-5755
▁رحمت	-5756
▁پاره	-5757
▁پیشرو	-5758
▁دیوانه	-5759
▁چنانچه	-5760
▁کمترین	-5761
▁اینجاست	-5762
▁باستانی	-5763
پت	-5764
▁4-	-5765
▁جک	-5766
▁۱۹۵	-5767
▁بفرو	-5768
▁جراح	-5769
▁شلیک	-5770
▁باهوش	-5771
▁فنجان	-5772
▁موانع	-5773
▁مادران	-5774
▁کارتان	-5775
▁شهرستان	-5776
▁پیشنهادی	-5777
▁خوانندگان	-5778
▁٢	-5779
▁32	-5780
▁اظ	-5781
ress	-5782
▁هندی	-5783
▁آرزوی	-5784
▁تبعیض	-5785
▁قطعاً	-5786
▁امروزی	-5787
▁متحدان	-5788
aw	-5789
▁;	-5790
▁or	-5791
▁400	-5792
▁قطر	-5793
▁قفل	-5794
▁لطف	-5795
▁سخنگ	-5796
▁لزوم	-5797
▁پتان	-5798
▁تشدید	-5799
▁دیروز	-5800
▁معاون	-5801
▁بیکاری	-5802
▁ناامید	-5803
باح	-5804
زام	-5805
برای	-5806
وهای	-5807
▁ثال	-5808
▁لیگ	-5809
▁دیکت	-5810
▁قطعی	-5811
▁نگرش	-5812
▁پروسه	-5813
▁کشتار	-5814
▁ردیابی	-5815
▁محاکمه	-5816
▁شاهزاده	-5817
▁پتانسیل	-5818
▁کلسترول	-5819
▁اختلالات	-5820
▁گیت	-5821
▁اتری	-5822
▁اندک	-5823
▁رزرو	-5824
▁معبد	-5825
▁نشین	-5826
▁زنانی	-5827
▁وادار	-5828
▁تغییری	-5829
▁بازنشستگی	-5830
PA	-5831
پو	-5832
ial	-5833
اهو	-5834
▁5.	-5835
▁an	-5836
کارا	-5837
▁بول	-5838
▁شاع	-5839
▁شون	-5840
▁۱۹۳	-5841
روئید	-5842
▁تأثی	-5843
▁جورج	-5844
▁آگوست	-5845
▁معجزه	-5846
▁درواقع	-5847
▁لهستان	-5848
▁انیمیشن	-5849
▁روستایی	-5850
۲۰	-5851
ont	-5852
ینو	-5853
▁**	-5854
▁انی	-5855
▁باند	-5856
▁شنید	-5857
▁تحمیل	-5858
▁توانی	-5859
▁عمدتا	-5860
▁هیچکس	-5861
▁بینداز	-5862
▁دروازه	-5863
▁همینطور	-5864
وکس	-5865
▁آمی	-5866
▁اسد	-5867
▁ظهر	-5868
▁فرق	-5869
▁2006	-5870
▁دوام	-5871
▁شتاب	-5872
▁غذاها	-5873
▁قضایی	-5874
▁اینطور	-5875
▁ستارگان	-5876
▁همسرتان	-5877
▁پیرامون	-5878
▁دریافتند	-5879
▁يا	-5880
▁Ser	-5881
▁ریز	-5882
▁اذیت	-5883
▁استن	-5884
▁اظها	-5885
▁مستم	-5886
▁ادعای	-5887
▁تخلیه	-5888
▁آرژانت	-5889
▁اروپای	-5890
▁دیپلماتیک	-5891
امپ	-5892
سمه	-5893
چاق	-5894
▁"،	-5895
▁شل	-5896
▁پي	-5897
▁گن	-5898
ماند	-5899
وتیک	-5900
▁سمی	-5901
گزاری	-5902
▁برید	-5903
▁دوری	-5904
▁دیسک	-5905
▁قلعه	-5906
▁بفرست	-5907
▁حتماً	-5908
▁سواری	-5909
▁نقلیه	-5910
▁پنجاه	-5911
▁آموخته	-5912
▁آزمایشی	-5913
DA	-5914
▁زح	-5915
▁پت	-5916
▁مسن	-5917
▁همۀ	-5918
▁تیمی	-5919
▁مارت	-5920
▁مخرب	-5921
▁مشرو	-5922
▁معده	-5923
▁۲۰۱۶	-5924
▁دربار	-5925
▁قیامت	-5926
▁مجسمه	-5927
▁طرفدار	-5928
ros	-5929
وام	-5930
▁le	-5931
▁پیک	-5932
▁تورم	-5933
▁خطاب	-5934
▁نمره	-5935
▁اسرار	-5936
▁برلین	-5937
▁بهانه	-5938
▁شرکای	-5939
▁کربوه	-5940
▁کریست	-5941
▁سفارشی	-5942
▁پلتفرم	-5943
▁بازخورد	-5944
قول	-5945
ویض	-5946
طوری	-5947
▁لرز	-5948
▁وان	-5949
▁کرم	-5950
ivers	-5951
▁اواس	-5952
▁بکند	-5953
▁زانو	-5954
▁مترو	-5955
▁کیسه	-5956
▁ساحلی	-5957
▁قاچاق	-5958
▁مراتب	-5959
ولوژیکی	-5960
▁مواجهه	-5961
▁الزامات	-5962
▁کربوهید	-5963
SA	-5964
xt	-5965
ber	-5966
پرد	-5967
گرم	-5968
▁31	-5969
▁He	-5970
▁تار	-5971
▁دوش	-5972
▁سرپ	-5973
▁دافا	-5974
▁مربع	-5975
▁ابزاری	-5976
▁ترسناک	-5977
▁سلطنتی	-5978
▁میخواه	-5979
▁غیرممکن	-5980
▁وحشتناک	-5981
ED	-5982
ence	-5983
orld	-5984
▁برم	-5985
▁تقل	-5986
▁جین	-5987
▁خات	-5988
▁سطحی	-5989
▁کریم	-5990
▁یقین	-5991
گردانی	-5992
▁اواسط	-5993
▁صرفاً	-5994
▁عواقب	-5995
▁آنهاست	-5996
▁التهاب	-5997
▁کافئین	-5998
▁مسئولان	-5999
ئل	-6000
لم	-6001
خشی	-6002
راگ	-6003
ونزی	-6004
▁اخذ	-6005
▁خرا	-6006
▁مین	-6007
▁نوک	-6008
▁گره	-6009
▁1000	-6010
▁سوره	-6011
▁عکاس	-6012
▁قاضی	-6013
▁برویم	-6014
▁روستا	-6015
▁بهبودی	-6016
▁اندونزی	-6017
▁امیدواریم	-6018
▁تیراندازی	-6019
ide	-6020
oft	-6021
ئون	-6022
جنس	-6023
سکی	-6024
▁بغ	-6025
▁حسی	-6026
▁عهد	-6027
▁نرو	-6028
▁کنج	-6029
▁گنج	-6030
▁انحص	-6031
▁بندر	-6032
▁تابع	-6033
▁ثالث	-6034
▁کارش	-6035
▁اساسا	-6036
▁شماری	-6037
▁فشرده	-6038
▁چراکه	-6039
▁صادقانه	-6040
▁چهارشنبه	-6041
یسم	-6042
▁۴۵	-6043
ایات	-6044
باله	-6045
▁man	-6046
▁کوش	-6047
▁برمی	-6048
▁حاکی	-6049
▁ریزش	-6050
▁ویلی	-6051
▁چرخش	-6052
▁اطاعت	-6053
▁تصادف	-6054
▁خدایی	-6055
▁رابرت	-6056
▁رهایی	-6057
▁روشنی	-6058
▁زباله	-6059
▁راهکار	-6060
▁ماهانه	-6061
▁پایانی	-6062
▁مأموریت	-6063
▁ممنوعیت	-6064
▁کربوهیدرات	-6065
AT	-6066
اع	-6067
ame	-6068
▁خز	-6069
▁سوا	-6070
▁سکه	-6071
▁شکم	-6072
▁وسو	-6073
▁اکتش	-6074
▁بلیط	-6075
▁شباه	-6076
▁ماسک	-6077
▁نفره	-6078
▁اصرار	-6079
▁شورشی	-6080
▁مادری	-6081
▁میشوند	-6082
▁گرفتار	-6083
▁توضیحات	-6084
▁عادلانه	-6085
-1	-6086
MS	-6087
uc	-6088
مث	-6089
▁·	-6090
▁۰	-6091
نون	-6092
ینت	-6093
▁خج	-6094
▁وج	-6095
ــــ	-6096
▁VPN	-6097
▁آند	-6098
▁فرک	-6099
▁پند	-6100
▁زاده	-6101
▁مطاب	-6102
▁ویران	-6103
▁متقابل	-6104
▁یکشنبه	-6105
me	-6106
▁7.	-6107
▁زیان	-6108
▁سیست	-6109
▁Inter	-6110
▁راهبرد	-6111
▁فعالان	-6112
▁مطابقت	-6113
▁بخواهیم	-6114
▁روشنایی	-6115
▁توافقنامه	-6116
چال	-6117
رگان	-6118
وشید	-6119
▁تسل	-6120
▁ستم	-6121
شتیاق	-6122
▁بستر	-6123
▁اشیاء	-6124
▁بپذیر	-6125
▁تعویض	-6126
▁درصدی	-6127
▁کنسول	-6128
▁اشتیاق	-6129
▁صلاحیت	-6130
▁نمودند	-6131
SS	-6132
انا	-6133
دین	-6134
یرت	-6135
▁Wh	-6136
▁ئی	-6137
لانی	-6138
▁ایی	-6139
▁برش	-6140
اطیسی	-6141
نظامی	-6142
▁اولی	-6143
▁اتهام	-6144
▁اکسید	-6145
▁بکنید	-6146
▁تحسین	-6147
▁سردرد	-6148
▁مقاوم	-6149
▁منتقد	-6150
▁گرایش	-6151
▁گلوله	-6152
▁المپیک	-6153
▁سخنگوی	-6154
▁متعادل	-6155
▁اظهارات	-6156
▁تاثیرات	-6157
▁قطعنامه	-6158
▁میزبانی	-6159
▁پلاستیک	-6160
▁آفریقایی	-6161
▁غیرنظامی	-6162
▁کارگردانی	-6163
ري	-6164
ضان	-6165
▁(3	-6166
▁Se	-6167
▁de	-6168
▁مظ	-6169
▁نصی	-6170
▁HTML	-6171
▁ببند	-6172
▁طرفی	-6173
▁نیوز	-6174
▁کنجکا	-6175
▁داشتید	-6176
▁کالاهای	-6177
▁پلاستیکی	-6178
▁."	-6179
▁at	-6180
▁تاپ	-6181
▁یوس	-6182
▁شوخی	-6183
▁اجزای	-6184
▁امواج	-6185
▁اموال	-6186
▁اندیش	-6187
▁داروی	-6188
▁درخشان	-6189
▁درگذشت	-6190
▁رادیویی	-6191
▁عاشقانه	-6192
▁مدیریتی	-6193
ick	-6194
ory	-6195
▁Ac	-6196
▁War	-6197
▁آتی	-6198
▁آواز	-6199
▁خیال	-6200
▁قانع	-6201
اداران	-6202
▁برتری	-6203
▁تخفیف	-6204
▁سندرم	-6205
▁فارسی	-6206
▁ماساژ	-6207
▁نشینی	-6208
▁افزاری	-6209
▁بازتاب	-6210
▁دربارۀ	-6211
▁آگاهانه	-6212
▁استودیو	-6213
▁بخواهند	-6214
زن	-6215
ran	-6216
▁CO	-6217
▁خا	-6218
▁رضا	-6219
▁گور	-6220
▁ایدئ	-6221
▁جلوه	-6222
▁صرفا	-6223
▁ظریف	-6224
▁فورد	-6225
▁معای	-6226
▁متشکل	-6227
▁مسیری	-6228
▁بینایی	-6229
▁جادویی	-6230
▁نگرفته	-6231
▁Univers	-6232
▁اشتباهی	-6233
▁تاریخچه	-6234
▁گردشگران	-6235
▁هواپیمایی	-6236
pe	-6237
per	-6238
▁34	-6239
▁الک	-6240
▁انس	-6241
▁بپی	-6242
▁حبس	-6243
▁ورد	-6244
▁چهل	-6245
باران	-6246
راتور	-6247
▁متاب	-6248
▁مرزی	-6249
▁نوبت	-6250
▁کمکی	-6251
▁قسمتی	-6252
▁ایرلند	-6253
▁تولیدی	-6254
▁سرطانی	-6255
▁مبادله	-6256
▁نسبتاً	-6257
▁پناهندگان	-6258
▁بازدیدکنندگان	-6259
az	-6260
سو	-6261
طو	-6262
صلی	-6263
▁6.	-6264
▁ch	-6265
▁خم	-6266
▁سح	-6267
البی	-6268
بینی	-6269
▁Pre	-6270
▁انق	-6271
▁جهنم	-6272
▁دفعه	-6273
▁فلور	-6274
▁پسند	-6275
▁کشند	-6276
▁فرشته	-6277
▁متناسب	-6278
▁نکردند	-6279
▁هیچگاه	-6280
AN	-6281
yn	-6282
▁j	-6283
مرد	-6284
گرا	-6285
مونی	-6286
▁ادی	-6287
▁هاى	-6288
جویان	-6289
▁مریم	-6290
▁۲۰۱۰	-6291
▁خسارت	-6292
▁شکلات	-6293
▁فقدان	-6294
▁مارکس	-6295
▁همسرم	-6296
▁امارات	-6297
▁عضلانی	-6298
▁تسلیحات	-6299
▁آزمایشات	-6300
▁پاسخگویی	-6301
▁بریتانیایی	-6302
▁5-	-6303
▁۲۳	-6304
▁هکر	-6305
▁کنگ	-6306
▁ابدا	-6307
▁براي	-6308
▁قدیم	-6309
▁مانی	-6310
▁عضویت	-6311
▁نواحی	-6312
▁کجاست	-6313
▁یخچال	-6314
▁بازرسی	-6315
▁جاسوسی	-6316
▁نباشند	-6317
▁همراهی	-6318
▁کارگری	-6319
▁هواداران	-6320
▁پیامدهای	-6321
▁خبرنگاران	-6322
ith	-6323
ool	-6324
شیم	-6325
مید	-6326
▁PC	-6327
▁ed	-6328
▁تث	-6329
▁یت	-6330
ایان	-6331
ولان	-6332
▁هیت	-6333
▁خوشم	-6334
▁زخمی	-6335
▁منتظ	-6336
▁نامش	-6337
▁۲۰۱۲	-6338
▁تربیت	-6339
▁جزایر	-6340
▁زیبای	-6341
▁عظیمی	-6342
▁آفریده	-6343
▁تحولات	-6344
▁دنیایی	-6345
▁خوابیدن	-6346
ug	-6347
ظم	-6348
کال	-6349
علیه	-6350
▁ابد	-6351
▁دبی	-6352
▁برون	-6353
▁تطبی	-6354
▁مجمع	-6355
▁اقلیت	-6356
▁تایمز	-6357
▁سواحل	-6358
▁عادات	-6359
▁فرکانس	-6360
▁ویلیام	-6361
▁پردازند	-6362
▁اختلافات	-6363
ik	-6364
te	-6365
مدان	-6366
ناکی	-6367
▁SEO	-6368
▁الح	-6369
▁توه	-6370
▁قطب	-6371
▁قوا	-6372
▁ناو	-6373
▁گرگ	-6374
▁بوسی	-6375
▁تحرک	-6376
▁شلوغ	-6377
▁ماهر	-6378
▁آنجلس	-6379
▁تصریح	-6380
▁خاطره	-6381
▁محافظ	-6382
▁مرتبه	-6383
▁مهندس	-6384
▁نشستن	-6385
▁بتوانم	-6386
▁شفافیت	-6387
▁وردپرس	-6388
▁بازیابی	-6389
▁مشاوران	-6390
▁توانستیم	-6391
▁میتوانند	-6392
TP	-6393
باع	-6394
▁))	-6395
▁Me	-6396
▁New	-6397
▁انز	-6398
▁دکت	-6399
▁اعضا	-6400
▁متأس	-6401
▁سناری	-6402
▁مشکوک	-6403
▁اندازد	-6404
▁بوسیله	-6405
▁بیایند	-6406
▁دانشمند	-6407
▁جدیدترین	-6408
▁دبیرستان	-6409
▁فروشندگان	-6410
oy	-6411
ash	-6412
iew	-6413
رسد	-6414
▁ارث	-6415
▁شوی	-6416
▁نیا	-6417
▁سپاه	-6418
▁قاتل	-6419
▁مکرر	-6420
▁نامن	-6421
▁امپری	-6422
▁روحیه	-6423
▁زاویه	-6424
▁سنسور	-6425
▁شناسند	-6426
▁انسانها	-6427
▁نخواهیم	-6428
▁استانبول	-6429
EB	-6430
RL	-6431
ly	-6432
اا	-6433
ong	-6434
واک	-6435
▁):	-6436
میتی	-6437
▁Net	-6438
▁باق	-6439
▁بیل	-6440
▁قصه	-6441
واسته	-6442
▁خطای	-6443
▁غریب	-6444
▁قبیل	-6445
▁معتر	-6446
▁نحوی	-6447
▁۲۰۱۷	-6448
▁هرکسی	-6449
▁پاهای	-6450
▁خوشبختی	-6451
▁مخالفان	-6452
َّ	-6453
نال	-6454
کند	-6455
▁سوپ	-6456
▁قوت	-6457
▁مقط	-6458
▁ترور	-6459
▁تهاج	-6460
▁نازی	-6461
▁مستمر	-6462
▁همکار	-6463
▁شناسان	-6464
▁فاکتور	-6465
▁پیوستن	-6466
▁بمباران	-6467
▁محاسبات	-6468
▁وفاداری	-6469
▁متأسفانه	-6470
▁کشاورزان	-6471
▁انتخاباتی	-6472
ترس	-6473
ژیک	-6474
▁48	-6475
▁موی	-6476
▁هری	-6477
▁هیل	-6478
انورد	-6479
بارات	-6480
▁بخواب	-6481
▁زیبات	-6482
▁بالینی	-6483
▁برابری	-6484
▁پیچیدگی	-6485
▁متقاضیان	-6486
▁لپ	-6487
▁۲۷	-6488
▁چسب	-6489
▁قبال	-6490
▁متری	-6491
▁اندوه	-6492
▁سرزنش	-6493
▁قیمتی	-6494
▁مدیره	-6495
▁محبوبیت	-6496
▁مسیحیان	-6497
▁پرداخته	-6498
▁پشتیبان	-6499
IT	-6500
ics	-6501
ish	-6502
لزم	-6503
▁39	-6504
▁ar	-6505
▁تاج	-6506
▁شوک	-6507
رمانه	-6508
▁تایپ	-6509
▁صدمه	-6510
▁قومی	-6511
▁هیچو	-6512
▁پایی	-6513
▁بسازد	-6514
▁مردمان	-6515
▁مستلزم	-6516
▁یادآور	-6517
▁هوشمندانه	-6518
دت	-6519
ail	-6520
▁65	-6521
▁Ed	-6522
روژن	-6523
▁عرا	-6524
▁پله	-6525
▁احاط	-6526
▁تونل	-6527
▁ذرات	-6528
▁مقصر	-6529
▁نانو	-6530
▁تدریج	-6531
▁دیدند	-6532
▁سپرده	-6533
▁منعکس	-6534
▁نگهبان	-6535
▁ناتوانی	-6536
▁پردازنده	-6537
گام	-6538
▁33	-6539
▁Col	-6540
▁ارب	-6541
▁فای	-6542
▁هدر	-6543
▁پیم	-6544
▁آباد	-6545
▁سوری	-6546
▁علیر	-6547
▁پیری	-6548
▁کلین	-6549
▁احاطه	-6550
▁بنشین	-6551
▁تعبیر	-6552
▁راستا	-6553
▁رویای	-6554
▁عبادت	-6555
▁فرمای	-6556
▁نشوید	-6557
▁هیتلر	-6558
▁وقایع	-6559
▁آفرینش	-6560
▁تهدیدات	-6561
▁ریاضیات	-6562
▁امپریالی	-6563
▁معیارهای	-6564
ER	-6565
oh	-6566
اش	-6567
ies	-6568
ولت	-6569
▁8.	-6570
▁AP	-6571
▁سد	-6572
▁وص	-6573
▁And	-6574
▁تلخ	-6575
▁سرن	-6576
▁پمپ	-6577
▁امری	-6578
▁امشب	-6579
▁برقی	-6580
▁علاق	-6581
▁پراک	-6582
▁۲۰۰۰	-6583
▁تهاجمی	-6584
▁تکراری	-6585
▁حیوانی	-6586
▁الگوهای	-6587
▁سازگاری	-6588
▁فرمودند	-6589
AS	-6590
EC	-6591
طر	-6592
كت	-6593
▁193	-6594
▁Mac	-6595
▁One	-6596
▁شری	-6597
▁نحو	-6598
▁پات	-6599
▁افسر	-6600
▁ببری	-6601
▁عروس	-6602
▁كرده	-6603
▁مباح	-6604
▁تاکسی	-6605
▁ترانه	-6606
▁ساعته	-6607
▁شناسد	-6608
▁عراقی	-6609
▁گمراه	-6610
▁اجتماع	-6611
▁اکتشاف	-6612
▁دلایلی	-6613
▁کامیون	-6614
▁انداخته	-6615
▁آرژانتین	-6616
اقض	-6617
کوس	-6618
▁AS	-6619
▁دال	-6620
▁مزر	-6621
▁وصل	-6622
جستان	-6623
▁بورژ	-6624
▁الماس	-6625
▁پارچه	-6626
▁مولکول	-6627
▁بازنشسته	-6628
▁ایدئولوژی	-6629
AC	-6630
▁SS	-6631
▁حش	-6632
▁كم	-6633
▁کپ	-6634
▁دما	-6635
▁اعطا	-6636
▁بقای	-6637
▁دارا	-6638
▁ation	-6639
▁آوریم	-6640
▁ولایت	-6641
▁جنسیتی	-6642
▁شهروندی	-6643
ah	-6644
▁●	-6645
▁گا	-6646
جایی	-6647
▁انب	-6648
▁ذات	-6649
▁غار	-6650
بوعات	-6651
▁تعلی	-6652
▁خلاص	-6653
▁سلطه	-6654
▁شورش	-6655
▁استخر	-6656
▁همجنس	-6657
▁آسیایی	-6658
▁بیگانه	-6659
▁روشهای	-6660
▁مطبوعات	-6661
▁ویدیویی	-6662
ES	-6663
طوب	-6664
▁اِ	-6665
ختری	-6666
▁192	-6667
▁MBA	-6668
▁You	-6669
▁iOS	-6670
▁شرا	-6671
▁صاف	-6672
▁1990	-6673
▁Wind	-6674
▁شباهت	-6675
▁شکستن	-6676
▁نکنیم	-6677
▁گفتیم	-6678
▁کارفرمایان	-6679
غیب	-6680
▁150	-6681
▁ریچ	-6682
▁مرم	-6683
▁همد	-6684
▁پکن	-6685
▁کیه	-6686
▁۱۹۱	-6687
▁ابری	-6688
▁بورس	-6689
▁تسلط	-6690
▁درای	-6691
▁عجله	-6692
▁مدام	-6693
▁نقره	-6694
▁مقدمه	-6695
▁استثنا	-6696
▁بپیوند	-6697
▁معتقدم	-6698
▁هیچوقت	-6699
▁وفادار	-6700
▁یونانی	-6701
▁بالاتری	-6702
▁ترکیبات	-6703
▁گرجستان	-6704
pl	-6705
شیر	-6706
▁II	-6707
▁th	-6708
▁190	-6709
▁بوش	-6710
▁تلس	-6711
▁اشعه	-6712
▁بپذی	-6713
▁رقیب	-6714
▁نفری	-6715
▁هوشی	-6716
▁هیات	-6717
▁یهود	-6718
▁اعصاب	-6719
▁بیستم	-6720
▁ترسیم	-6721
▁متنفر	-6722
▁مرطوب	-6723
▁اهمیتی	-6724
▁تاثیری	-6725
▁کلمبیا	-6726
▁ساختاری	-6727
▁موقعیتی	-6728
▁چشمگیری	-6729
▁أ	-6730
لیف	-6731
▁My	-6732
▁اچ	-6733
▁Res	-6734
▁برن	-6735
▁مغن	-6736
▁کین	-6737
▁حواس	-6738
▁خودی	-6739
▁جانبه	-6740
▁فیلمی	-6741
▁متعال	-6742
▁مزرعه	-6743
▁خدماتی	-6744
▁رسانده	-6745
▁مارتین	-6746
▁نمایان	-6747
▁گزارشی	-6748
▁مستقیما	-6749
▁پروفسور	-6750
▁اعتراضات	-6751
الح	-6752
بای	-6753
▁CD	-6754
راضی	-6755
▁علل	-6756
▁2003	-6757
▁تواف	-6758
▁سفیر	-6759
▁گرده	-6760
▁آشپزی	-6761
▁بخشید	-6762
▁حدودی	-6763
▁دوستش	-6764
▁لحظات	-6765
▁محوطه	-6766
▁همسای	-6767
▁پاسخی	-6768
▁اینقدر	-6769
▁کاتولیک	-6770
▁اقداماتی	-6771
▁ناخواسته	-6772
▁سیاستمداران	-6773
AR	-6774
▁z	-6775
▁ء	-6776
ink	-6777
ree	-6778
▁CR	-6779
ment	-6780
گونی	-6781
▁مید	-6782
▁یان	-6783
اتوری	-6784
▁صعود	-6785
▁برسیم	-6786
▁ترغیب	-6787
▁تطبیق	-6788
▁جالبی	-6789
▁ناخوش	-6790
▁نوآور	-6791
▁دوازده	-6792
▁راهنما	-6793
▁سامانه	-6794
كه	-6795
ایز	-6796
▁((	-6797
▁Wi	-6798
امیه	-6799
پاشی	-6800
▁For	-6801
▁پود	-6802
▁پیت	-6803
▁براى	-6804
▁جعلی	-6805
▁شراب	-6806
▁قیام	-6807
▁محتر	-6808
▁یوگا	-6809
▁تعقیب	-6810
▁تمدید	-6811
▁بخشیدن	-6812
▁کارگاه	-6813
▁واحدهای	-6814
▁اتوماتیک	-6815
▁کارآفرینی	-6816
ult	-6817
آیا	-6818
خیم	-6819
▁..	-6820
▁38	-6821
▁sh	-6822
▁لق	-6823
▁هک	-6824
▁بها	-6825
▁جهش	-6826
▁زنم	-6827
▁قار	-6828
▁ماژ	-6829
▁ناک	-6830
▁2005	-6831
▁نامند	-6832
▁پوتین	-6833
▁پوستی	-6834
▁کاپیت	-6835
▁گرسنه	-6836
▁داشتنی	-6837
▁شخصیتی	-6838
▁قهرمانی	-6839
▁نامناسب	-6840
IN	-6841
حت	-6842
ood	-6843
زید	-6844
یاط	-6845
▁--	-6846
▁Fl	-6847
،000	-6848
▁بدل	-6849
▁عزت	-6850
▁پنت	-6851
▁آشام	-6852
▁آیین	-6853
▁بادی	-6854
▁عینک	-6855
▁غالب	-6856
▁پسرش	-6857
▁آرایش	-6858
▁ژنرال	-6859
▁انگیزی	-6860
▁دلخواه	-6861
▁کارشان	-6862
▁فرآیندهای	-6863
ows	-6864
und	-6865
فیه	-6866
▁زه	-6867
▁مگ	-6868
▁بهم	-6869
▁بینش	-6870
▁مرجع	-6871
▁مریخ	-6872
▁پیتر	-6873
▁پیکر	-6874
▁۲۰۰۹	-6875
▁زیستی	-6876
▁سانتی	-6877
▁غریبه	-6878
▁معکوس	-6879
▁ایالتی	-6880
▁بپردازید	-6881
▁مستقیماً	-6882
▁ورزشکاران	-6883
IC	-6884
يا	-6885
ime	-6886
ram	-6887
▁95	-6888
▁AM	-6889
ائلی	-6890
اهدی	-6891
ستات	-6892
▁Car	-6893
▁خرس	-6894
▁سرش	-6895
▁مصد	-6896
▁وگو	-6897
▁کرا	-6898
▁کرو	-6899
▁خیره	-6900
▁درآم	-6901
▁زیرز	-6902
▁قدری	-6903
▁لوکس	-6904
▁نگیر	-6905
▁کوان	-6906
▁بعداً	-6907
▁دمکرا	-6908
▁ذخایر	-6909
▁مذکور	-6910
▁سودمند	-6911
▁شواهدی	-6912
▁غالباً	-6913
▁مسائلی	-6914
▁گذراند	-6915
▁گرداند	-6916
▁نامحدود	-6917
▁چهارمین	-6918
▁پیشنهادات	-6919
وظ	-6920
ert	-6921
▁55	-6922
ورده	-6923
▁191	-6924
▁ISO	-6925
▁USB	-6926
▁ثان	-6927
▁همت	-6928
▁کوک	-6929
▁ایکس	-6930
▁حرفی	-6931
▁قرون	-6932
▁آماری	-6933
▁تجارب	-6934
▁داران	-6935
▁ناخود	-6936
▁اخیراً	-6937
▁باورند	-6938
▁واگذار	-6939
▁شاگردان	-6940
▁شهرداری	-6941
▁منصفانه	-6942
▁نظامیان	-6943
▁فدراسیون	-6944
عل	-6945
شود	-6946
▁AD	-6947
اتیک	-6948
▁؟؟؟	-6949
▁دفن	-6950
▁رخت	-6951
▁شکی	-6952
▁غزه	-6953
▁محم	-6954
▁نشن	-6955
▁آلات	-6956
▁باطل	-6957
▁عاقل	-6958
▁فلزی	-6959
▁وحدت	-6960
▁یادم	-6961
▁قاعده	-6962
▁نگاری	-6963
▁خدایان	-6964
▁خریدار	-6965
▁نگاران	-6966
▁هنرهای	-6967
▁پوشیده	-6968
▁برداشتن	-6969
▁خوشحالم	-6970
▁دستگیری	-6971
ُر	-6972
اصد	-6973
ذیب	-6974
طئه	-6975
▁[2	-6976
▁en	-6977
فاده	-6978
▁(19	-6979
▁URL	-6980
▁جمل	-6981
▁فاز	-6982
▁چرب	-6983
وهایی	-6984
▁...»	-6985
▁آغوش	-6986
▁زندگ	-6987
▁سازه	-6988
▁شاعر	-6989
▁فرقی	-6990
▁مفصل	-6991
▁منظر	-6992
▁مونت	-6993
▁گونگ	-6994
▁آسیای	-6995
▁ارایه	-6996
▁توطئه	-6997
▁سوالی	-6998
▁آستانه	-6999
▁استوار	-7000
▁تلسکوپ	-7001
▁گرفتیم	-7002
▁بایگانی	-7003
▁بپردازد	-7004
▁بیاورند	-7005
▁خوشحالی	-7006
▁کودکانی	-7007
▁مغناطیسی	-7008
▁ناخودآگاه	-7009
org	-7010
ual	-7011
راخ	-7012
روش	-7013
▁AC	-7014
لیون	-7015
▁انص	-7016
▁سار	-7017
▁فرش	-7018
▁گیج	-7019
رسانی	-7020
▁اینچ	-7021
▁بطری	-7022
▁ارگانی	-7023
▁پیروان	-7024
▁گناهان	-7025
▁شرکتهای	-7026
خل	-7027
ond	-7028
▁AR	-7029
▁Pr	-7030
▁it	-7031
▁رگ	-7032
ical	-7033
▁بیه	-7034
▁جسد	-7035
▁هرد	-7036
▁اندی	-7037
▁تفری	-7038
▁مایه	-7039
▁اعزام	-7040
▁برجام	-7041
▁ستایش	-7042
▁سلولی	-7043
▁پذیرد	-7044
▁انتقادی	-7045
▁انگشتان	-7046
▁خبرنگار	-7047
▁مبارزات	-7048
▁بپردازند	-7049
NS	-7050
ake	-7051
بند	-7052
ثری	-7053
▁85	-7054
▁com	-7055
▁آلی	-7056
▁جون	-7057
▁صدر	-7058
▁بنوی	-7059
▁حیرت	-7060
▁رویه	-7061
▁سوپر	-7062
▁فراز	-7063
▁مدال	-7064
▁World	-7065
▁اوراق	-7066
▁ببریم	-7067
▁شدیدی	-7068
▁موردی	-7069
▁انتقام	-7070
▁بیوتیک	-7071
▁حامیان	-7072
▁روستای	-7073
▁پرسیده	-7074
▁محرمانه	-7075
▁پروفایل	-7076
▁کلینتون	-7077
▁سازندگان	-7078
ID	-7079
TS	-7080
پس	-7081
کم	-7082
رفت	-7083
ناع	-7084
▁چت	-7085
▁۲۶	-7086
▁تپه	-7087
▁خطی	-7088
▁هول	-7089
▁هیپ	-7090
▁سوئی	-7091
▁صریح	-7092
▁كنید	-7093
▁مقطع	-7094
▁نوین	-7095
▁گارد	-7096
راجویی	-7097
▁سکونت	-7098
▁صداقت	-7099
▁ماجراجویی	-7100
ردی	-7101
فیق	-7102
منت	-7103
▁MS	-7104
▁۲۸	-7105
ower	-7106
خواب	-7107
سانس	-7108
موزی	-7109
▁جیب	-7110
▁فلز	-7111
▁پخت	-7112
▁روبه	-7113
▁هدفی	-7114
▁تدوین	-7115
▁تعلیم	-7116
▁حرکتی	-7117
▁فرانک	-7118
▁نابرا	-7119
▁نشریه	-7120
▁یابید	-7121
▁حاملگی	-7122
▁پوشیدن	-7123
▁آزادانه	-7124
▁رانندگان	-7125
▁هواپیماهای	-7126
ضع	-7127
ضل	-7128
ign	-7129
حاف	-7130
▁قم	-7131
اپور	-7132
▁Air	-7133
▁بوس	-7134
▁دفع	-7135
▁فاش	-7136
▁کیت	-7137
▁1980	-7138
▁Home	-7139
▁آرشی	-7140
▁غبار	-7141
▁مادی	-7142
▁مختص	-7143
▁پنیر	-7144
▁یوسف	-7145
▁بنزین	-7146
▁شجاعت	-7147
▁مباحث	-7148
▁محتوی	-7149
▁معقول	-7150
▁وسوسه	-7151
▁خشمگین	-7152
▁پرستار	-7153
▁فیلیپین	-7154
▁بازگرداندن	-7155
أت	-7156
خب	-7157
مم	-7158
ریس	-7159
سله	-7160
,000	-7161
الله	-7162
الیز	-7163
رایم	-7164
میلی	-7165
واهی	-7166
▁صهی	-7167
▁وحش	-7168
انداز	-7169
▁آخرت	-7170
▁اثرب	-7171
▁جاود	-7172
▁دستش	-7173
▁شیعه	-7174
▁شیوع	-7175
▁عذرخ	-7176
▁بخرید	-7177
▁توهین	-7178
▁خاتمه	-7179
▁خجالت	-7180
▁سلسله	-7181
▁شدگان	-7182
▁شمشیر	-7183
▁ماژول	-7184
▁اقدامی	-7185
▁عذرخواهی	-7186
▁آزمایشگاهی	-7187
▁قراردادهای	-7188
زون	-7189
ویچ	-7190
▁IT	-7191
ایتی	-7192
فتگی	-7193
▁WEB	-7194
▁دند	-7195
▁قبی	-7196
▁قرض	-7197
▁۳۰۰	-7198
رامتر	-7199
▁2004	-7200
▁رویا	-7201
▁زحمت	-7202
▁شورا	-7203
▁شیعی	-7204
▁قاطع	-7205
▁متدا	-7206
▁مختل	-7207
▁همیش	-7208
▁استعم	-7209
▁موزیک	-7210
▁کنسرت	-7211
▁دستیار	-7212
▁آسانسور	-7213
▁مسیرهای	-7214
▁مهندسان	-7215
▁پارامتر	-7216
▁استثنایی	-7217
▁تابستانی	-7218
▁ساختمانی	-7219
▁کیلومتری	-7220
ok	-7221
نل	-7222
وات	-7223
▁37	-7224
▁اکر	-7225
▁تال	-7226
▁عطر	-7227
▁کمر	-7228
▁بنظر	-7229
▁تضاد	-7230
▁سرنگ	-7231
▁فرشت	-7232
▁معین	-7233
▁پویا	-7234
▁تلاشی	-7235
▁دایره	-7236
▁مقاصد	-7237
▁کوانت	-7238
▁گرافی	-7239
▁افراطی	-7240
▁افزونه	-7241
▁بیانگر	-7242
▁خوانند	-7243
▁شنوایی	-7244
▁لیبرال	-7245
▁معاهده	-7246
▁هرکدام	-7247
▁بردارید	-7248
▁فروپاشی	-7249
▁متخصصین	-7250
▁99	-7251
▁يك	-7252
▁۲٫	-7253
شایی	-7254
عهده	-7255
پورت	-7256
پولی	-7257
▁ادا	-7258
▁تحق	-7259
▁عید	-7260
▁هلی	-7261
▁کیک	-7262
ربایج	-7263
▁نقشی	-7264
▁هرکس	-7265
▁کاشت	-7266
▁کروم	-7267
▁گویا	-7268
▁بدیهی	-7269
▁جریمه	-7270
▁دفاتر	-7271
▁ظاهری	-7272
▁عقاید	-7273
▁گالری	-7274
▁ابتکار	-7275
▁تهدیدی	-7276
▁خداحاف	-7277
▁چشمگیر	-7278
▁آذربایج	-7279
▁انداختن	-7280
▁بشناسید	-7281
▁پنجشنبه	-7282
▁ساختارهای	-7283
ase	-7284
vel	-7285
ندم	-7286
▁44	-7287
▁64	-7288
▁On	-7289
▁ro	-7290
▁تگ	-7291
ount	-7292
▁(1)	-7293
▁600	-7294
▁pro	-7295
▁بلا	-7296
▁رصد	-7297
▁محو	-7298
▁گیم	-7299
انهای	-7300
▁رویم	-7301
▁بارسل	-7302
▁بلژیک	-7303
▁تعلیق	-7304
▁ریخته	-7305
▁ببخشید	-7306
▁تاکتیک	-7307
▁جذابیت	-7308
▁مارکسی	-7309
▁احمقانه	-7310
▁بلندمدت	-7311
▁بگذاریم	-7312
▁فراخوان	-7313
▁فرشتگان	-7314
▁مادربزرگ	-7315
▁اقتصاددان	-7316
يس	-7317
▁‘	-7318
▁IB	-7319
▁اى	-7320
▁بچ	-7321
▁لع	-7322
عامل	-7323
ویید	-7324
▁تشن	-7325
▁منش	-7326
▁واژ	-7327
سولین	-7328
▁بجای	-7329
▁جاوا	-7330
▁کارل	-7331
▁۲۰۰۸	-7332
▁امضای	-7333
▁بکشند	-7334
▁تثبیت	-7335
▁تقلید	-7336
▁تکذیب	-7337
▁دختری	-7338
▁متحرک	-7339
▁مقرون	-7340
▁مناطقی	-7341
▁انسولین	-7342
▁برسانند	-7343
▁برسانید	-7344
▁مدیرعامل	-7345
كن	-7346
ank	-7347
اهم	-7348
اپی	-7349
وشی	-7350
▁(4	-7351
▁اَ	-7352
▁رج	-7353
▁قف	-7354
تیشن	-7355
فورد	-7356
▁120	-7357
▁اردن	-7358
▁حرام	-7359
▁سانت	-7360
▁صلیب	-7361
▁فرقه	-7362
▁مناق	-7363
▁نوبل	-7364
گیرانه	-7365
▁تأخیر	-7366
▁تناسب	-7367
▁نرمال	-7368
▁همگان	-7369
▁تصمیمی	-7370
▁مسیحیت	-7371
▁همیشگی	-7372
▁گازهای	-7373
▁گرافیک	-7374
▁گردیده	-7375
▁بیانداز	-7376
▁رمزگذاری	-7377
ِی	-7378
pen	-7379
ائو	-7380
▁Im	-7381
▁PS	-7382
▁ad	-7383
همان	-7384
▁بلد	-7385
▁جاه	-7386
▁فاط	-7387
اندان	-7388
▁انها	-7389
▁بخار	-7390
▁نازل	-7391
▁نگفت	-7392
▁کافه	-7393
خوردگی	-7394
▁انبوه	-7395
▁بنابر	-7396
▁بکنند	-7397
▁شناسم	-7398
▁قبیله	-7399
▁پیشتر	-7400
▁پیغام	-7401
▁تفاوتی	-7402
▁نشانگر	-7403
▁اعلامیه	-7404
▁دانمارک	-7405
▁رویاهای	-7406
▁خبرگزاری	-7407
▁نوآورانه	-7408
▁همکارانش	-7409
MA	-7410
ll	-7411
ild	-7412
فره	-7413
▁]]	-7414
▁دغ	-7415
▁کج	-7416
▁Ste	-7417
▁آوی	-7418
▁زدم	-7419
▁لکه	-7420
▁مات	-7421
▁مبه	-7422
▁ناق	-7423
نگاری	-7424
▁القا	-7425
▁امیر	-7426
▁هشتم	-7427
▁انبار	-7428
▁تعرفه	-7429
▁دیدیم	-7430
▁عجیبی	-7431
▁مدافع	-7432
▁سفرهای	-7433
▁نرسیده	-7434
▁گروگان	-7435
▁Windows	-7436
▁رمزنگاری	-7437
▁داوطلبانه	-7438
IP	-7439
پک	-7440
man	-7441
▁Sk	-7442
کاگو	-7443
▁202	-7444
▁آنت	-7445
▁رسم	-7446
▁مکت	-7447
▁میت	-7448
▁کیم	-7449
▁خنثی	-7450
▁خیاب	-7451
▁صمیم	-7452
▁چاقی	-7453
▁کلان	-7454
▁۲۰۱۹	-7455
انیاهو	-7456
▁اسپرم	-7457
▁بسپار	-7458
▁مؤسسه	-7459
▁نکردم	-7460
▁پاییز	-7461
▁کاملی	-7462
▁کنوان	-7463
▁خواندم	-7464
▁شناسیم	-7465
▁شیکاگو	-7466
▁وضعیتی	-7467
▁چندانی	-7468
▁یافتند	-7469
▁انحصاری	-7470
▁دستورات	-7471
▁رونمایی	-7472
▁فضانورد	-7473
▁محتوایی	-7474
▁کنوانسیون	-7475
▁دستاوردهای	-7476
Fi	-7477
جت	-7478
طب	-7479
روح	-7480
منین	-7481
▁Red	-7482
▁زشت	-7483
▁مرج	-7484
اهدات	-7485
وستون	-7486
▁Play	-7487
▁خالق	-7488
▁خدمه	-7489
▁ساکت	-7490
▁قفسه	-7491
▁ناخن	-7492
▁کاوش	-7493
▁گرین	-7494
▁آمدید	-7495
▁تصفیه	-7496
▁زنبور	-7497
▁نشوند	-7498
▁ظاهراً	-7499
▁مفهومی	-7500
▁نوزدهم	-7501
▁اردوغان	-7502
▁دادستان	-7503
▁سنگاپور	-7504
▁نتانیاهو	-7505
▁نتوانسته	-7506
yst	-7507
سری	-7508
اگون	-7509
ویری	-7510
▁ترو	-7511
▁دغد	-7512
▁سحر	-7513
▁Comp	-7514
▁اسکی	-7515
▁افشا	-7516
▁جواه	-7517
▁شجاع	-7518
▁نسبی	-7519
▁نواز	-7520
▁هراس	-7521
▁هندو	-7522
▁پلاس	-7523
▁پلاگ	-7524
▁چوبی	-7525
وگرافی	-7526
▁سوزان	-7527
▁فرضیه	-7528
▁کاراک	-7529
▁خاندان	-7530
▁فضاهای	-7531
▁متداول	-7532
▁دوستانم	-7533
▁نداشتیم	-7534
▁میخواهید	-7535
▁ة	-7536
oud	-7537
کات	-7538
▁مُ	-7539
▁وک	-7540
راست	-7541
راکم	-7542
▁Med	-7543
▁بقا	-7544
▁بلغ	-7545
▁تگز	-7546
▁شفا	-7547
▁لبه	-7548
▁فیلس	-7549
▁جرایم	-7550
▁دردسر	-7551
▁ضربان	-7552
▁پیامی	-7553
▁برعهده	-7554
▁دگرگون	-7555
▁سالگرد	-7556
▁علیرغم	-7557
▁مرگبار	-7558
▁منظومه	-7559
▁برگردان	-7560
▁پراکنده	-7561
▁بازگردان	-7562
▁University	-7563
co	-7564
▁کُ	-7565
اصره	-7566
رادی	-7567
▁حرم	-7568
▁لاک	-7569
▁همب	-7570
▁بازه	-7571
▁بشکه	-7572
▁بعید	-7573
▁تانک	-7574
▁وقفه	-7575
▁۲۰۰۵	-7576
rosoft	-7577
▁بغداد	-7578
▁ترمیم	-7579
▁توازن	-7580
▁خواهش	-7581
▁خورید	-7582
▁لطفاً	-7583
▁مبارک	-7584
▁مجاهد	-7585
▁محترم	-7586
▁ناخال	-7587
▁نبودم	-7588
▁نکردن	-7589
▁کشورش	-7590
▁ارزهای	-7591
▁اقلیمی	-7592
▁جانسون	-7593
▁جسمانی	-7594
▁خودروس	-7595
▁پرسیدم	-7596
▁بازیافت	-7597
▁برگزیده	-7598
ِن	-7599
ath	-7600
ous	-7601
▁۶۵	-7602
▁بام	-7603
▁مود	-7604
▁Inst	-7605
▁اینک	-7606
▁بستن	-7607
▁ربود	-7608
▁سنگی	-7609
▁ملحق	-7610
▁نامز	-7611
▁هالی	-7612
▁اذعان	-7613
▁تبریک	-7614
▁تداوم	-7615
▁تگزاس	-7616
▁روبات	-7617
▁فروخت	-7618
▁قواعد	-7619
▁لزوما	-7620
▁گرامی	-7621
▁بخورند	-7622
▁بگذران	-7623
▁ریچارد	-7624
▁پلاگین	-7625
▁پدربزرگ	-7626
▁پروستات	-7627
▁گذاشتند	-7628
▁گرایانه	-7629
▁بارسلونا	-7630
▁زیباترین	-7631
▁همسایگان	-7632
▁کارآفرینان	-7633
TA	-7634
ary	-7635
زنی	-7636
کون	-7637
▁43	-7638
نگری	-7639
▁کثی	-7640
▁1999	-7641
▁برگر	-7642
▁بکنم	-7643
▁تصدی	-7644
▁زغال	-7645
▁سارا	-7646
▁اسمیت	-7647
▁دکترا	-7648
▁نهفته	-7649
▁پوسته	-7650
▁افتادن	-7651
▁صهیونی	-7652
▁فراگیر	-7653
▁موجودی	-7654
▁اتهامات	-7655
▁متابولی	-7656
▁همبستگی	-7657
▁تولیدکنندگان	-7658
كر	-7659
ارض	-7660
▁حص	-7661
▁ــ	-7662
▁لن	-7663
روسی	-7664
کتان	-7665
▁(20	-7666
▁حلی	-7667
▁فاس	-7668
▁پنل	-7669
▁کاس	-7670
▁گلی	-7671
▁آدام	-7672
▁تفنگ	-7673
▁جامد	-7674
▁حکمت	-7675
▁لامپ	-7676
▁هائی	-7677
▁کاست	-7678
▁آفرید	-7679
▁اتریش	-7680
▁تلفات	-7681
▁تورنت	-7682
▁داوود	-7683
▁دغدغه	-7684
▁زنانه	-7685
▁سوراخ	-7686
▁فعالی	-7687
▁منتخب	-7688
▁نامید	-7689
▁ژنتیک	-7690
▁کلسیم	-7691
▁بندگان	-7692
▁تکمیلی	-7693
▁دوگانه	-7694
▁سؤالات	-7695
▁مجدداً	-7696
▁محاصره	-7697
▁نداشتن	-7698
▁پنتاگون	-7699
▁کوچکترین	-7700
▁Microsoft	-7701
ata	-7702
ier	-7703
تیو	-7704
فند	-7705
کیو	-7706
▁HP	-7707
▁اژ	-7708
▁نج	-7709
اهیر	-7710
کسون	-7711
▁ایس	-7712
▁فین	-7713
▁نشر	-7714
▁نیو	-7715
▁وات	-7716
پرستی	-7717
▁ایدز	-7718
▁چاره	-7719
▁گزین	-7720
▁ارزشی	-7721
▁امپرا	-7722
▁صدایی	-7723
▁لیستی	-7724
▁ثانویه	-7725
▁مکانیک	-7726
▁سینمایی	-7727
▁پارکینگ	-7728
▁روانشناس	-7729
▁سي	-7730
▁١٩	-7731
atch	-7732
▁Can	-7733
▁جنا	-7734
▁فتح	-7735
▁ماک	-7736
▁خوار	-7737
▁سکته	-7738
▁واژن	-7739
▁کمدی	-7740
▁شدیدا	-7741
▁متحمل	-7742
▁مزایا	-7743
▁مهاجم	-7744
▁چارلز	-7745
▁توافقی	-7746
▁عبارات	-7747
▁پانزده	-7748
▁خصوصیات	-7749
▁خیابانی	-7750
own	-7751
روب	-7752
▁Br	-7753
▁Or	-7754
▁iP	-7755
▁pl	-7756
▁رش	-7757
شینی	-7758
طوبت	-7759
▁عصب	-7760
▁قله	-7761
▁گمش	-7762
▁2001	-7763
▁احمد	-7764
▁ارجا	-7765
▁بریم	-7766
▁تدار	-7767
▁تونی	-7768
▁كشور	-7769
▁میاد	-7770
▁پسرم	-7771
▁تفریح	-7772
▁حشرات	-7773
▁دادید	-7774
▁رطوبت	-7775
▁لایحه	-7776
▁محلول	-7777
▁هرگاه	-7778
ational	-7779
▁امتداد	-7780
▁بحرانی	-7781
▁شهردار	-7782
▁تاسیسات	-7783
▁کیلوگرم	-7784
▁بانکداری	-7785
▁زیرزمینی	-7786
ET	-7787
ey	-7788
The	-7789
لان	-7790
▁47	-7791
▁PH	-7792
▁us	-7793
▁رئ	-7794
امیک	-7795
رامی	-7796
▁Web	-7797
▁الج	-7798
▁ختم	-7799
▁رول	-7800
▁موف	-7801
▁نوت	-7802
▁1970	-7803
▁ديگر	-7804
▁رکود	-7805
▁غرور	-7806
▁موها	-7807
▁نقدی	-7808
▁کوشش	-7809
▁گوسف	-7810
▁شناور	-7811
▁شنیدم	-7812
▁مثابه	-7813
▁تحلیلی	-7814
▁مردانه	-7815
▁تأثیرات	-7816
▁تصاویری	-7817
▁مکانیکی	-7818
▁قهرمانان	-7819
يز	-7820
ans	-7821
att	-7822
ron	-7823
چرا	-7824
▁1)	-7825
▁2)	-7826
کونی	-7827
یعنی	-7828
▁ذره	-7829
▁نیج	-7830
▁بزنم	-7831
▁تابل	-7832
▁حروف	-7833
▁خارق	-7834
▁شکوه	-7835
▁قاعد	-7836
▁هرچی	-7837
▁هفتم	-7838
▁۱۰۰۰	-7839
▁ابداع	-7840
▁طرفین	-7841
▁عموما	-7842
▁نشانی	-7843
▁نکاتی	-7844
▁نیامده	-7845
▁گلخانه	-7846
▁همانگونه	-7847
▁¬	-7848
ترز	-7849
وتو	-7850
رالم	-7851
▁سرچ	-7852
▁پهن	-7853
نستان	-7854
▁الآن	-7855
▁تجمع	-7856
▁تخمک	-7857
▁سوژه	-7858
▁عباس	-7859
▁نازک	-7860
▁نگری	-7861
▁توالت	-7862
▁خوابی	-7863
▁قدرتی	-7864
▁مصرفی	-7865
▁استعفا	-7866
▁حمایتی	-7867
▁دانسته	-7868
▁دنباله	-7869
▁شناسید	-7870
▁نیجریه	-7871
▁دیپلمات	-7872
▁رادیکال	-7873
▁علاقمند	-7874
▁ارمنستان	-7875
▁آذربایجان	-7876
▁فعالیتهای	-7877
▁میلیاردها	-7878
▁ناخوشایند	-7879
لۀ	-7880
تاً	-7881
ردن	-7882
وتا	-7883
▁ES	-7884
▁Qu	-7885
▁شیخ	-7886
▁فلج	-7887
▁قوه	-7888
▁ناف	-7889
▁ورش	-7890
▁tion	-7891
▁اثری	-7892
▁بودی	-7893
▁تبلت	-7894
▁نوجو	-7895
▁۱۹۷۰	-7896
▁ترسند	-7897
▁تفاهم	-7898
▁خزانه	-7899
▁شمارش	-7900
▁مترجم	-7901
▁پرسنل	-7902
▁اطلاعی	-7903
▁پرتغال	-7904
▁پیشبرد	-7905
▁خواستیم	-7906
▁درمانگر	-7907
▁مقدماتی	-7908
▁مکانیسم	-7909
▁دیکتاتوری	-7910
BC	-7911
IM	-7912
ذکر	-7913
▁51	-7914
▁۲۹	-7915
زدهم	-7916
گردد	-7917
▁800	-7918
▁Bus	-7919
▁Sch	-7920
▁صحت	-7921
▁هال	-7922
▁اسما	-7923
▁تجسم	-7924
▁جهاد	-7925
▁خشکی	-7926
▁زیرد	-7927
▁پودر	-7928
رافیان	-7929
وزیلند	-7930
▁استیو	-7931
▁دویدن	-7932
▁سرشار	-7933
▁صراحت	-7934
▁علایم	-7935
▁نژادی	-7936
▁پدران	-7937
▁تایوان	-7938
▁نمایشی	-7939
▁دستکاری	-7940
▁شورشیان	-7941
▁کاراکتر	-7942
▁اطرافیان	-7943
▁سپاسگزار	-7944
▁فرماندهی	-7945
▁نیوزیلند	-7946
3]	-7947
RP	-7948
ارن	-7949
ایا	-7950
جین	-7951
وتن	-7952
ودن	-7953
▁طر	-7954
▁پش	-7955
▁۱٫	-7956
▁”،	-7957
ستون	-7958
یدنی	-7959
▁Met	-7960
▁زاد	-7961
▁سزا	-7962
▁منز	-7963
مانده	-7964
یدایش	-7965
▁بدنه	-7966
▁جوری	-7967
▁منشا	-7968
▁هردو	-7969
▁گانه	-7970
▁اسرای	-7971
▁اسکار	-7972
▁ساعتی	-7973
▁فلزات	-7974
▁موشکی	-7975
▁نویسم	-7976
▁هفتاد	-7977
استفاده	-7978
▁آسمانی	-7979
▁افزودن	-7980
▁سرپرست	-7981
▁شکارچی	-7982
▁شیرینی	-7983
▁شیعیان	-7984
▁نتواند	-7985
▁مخصوصاً	-7986
▁مهربانی	-7987
▁تاثیرگذار	-7988
▁کاربردهای	-7989
عب	-7990
ble	-7991
سام	-7992
فال	-7993
پات	-7994
▁ri	-7995
لیقه	-7996
▁Aut	-7997
▁پرف	-7998
▁عملا	-7999
▁فاشی	-8000
▁تمایز	-8001
▁خوراک	-8002
▁سوابق	-8003
▁متاسف	-8004
▁مجروح	-8005
▁مظنون	-8006
▁منظره	-8007
▁نوشتم	-8008
▁گمشده	-8009
▁لینوکس	-8010
▁سوالاتی	-8011
▁نوجوانی	-8012
▁پایداری	-8013
▁کاپیتان	-8014
▁گذراندن	-8015
▁استارتاپ	-8016
▁اعتقادات	-8017
▁کارآموزی	-8018
▁بیولوژیکی	-8019
CA	-8020
ON	-8021
ثه	-8022
▁{	-8023
ach	-8024
ern	-8025
ise	-8026
row	-8027
ull	-8028
ابد	-8029
چین	-8030
▁Sm	-8031
▁وط	-8032
▁وه	-8033
ومتی	-8034
یتون	-8035
▁Des	-8036
▁دره	-8037
▁سقط	-8038
اسیون	-8039
▁باخت	-8040
▁برگه	-8041
▁خلقت	-8042
▁رونق	-8043
▁ریاض	-8044
▁استال	-8045
▁توماس	-8046
▁جاهای	-8047
▁مخلوق	-8048
▁کاران	-8049
▁افسرده	-8050
▁سخنران	-8051
▁ناشناس	-8052
▁هدفمند	-8053
▁اپراتور	-8054
▁هاروارد	-8055
▁امتیازات	-8056
80	-8057
سکو	-8058
شوی	-8059
قام	-8060
▁CP	-8061
▁ph	-8062
▁عث	-8063
▁لاغ	-8064
▁لیم	-8065
▁محف	-8066
▁چنگ	-8067
ition	-8068
جانبه	-8069
فکران	-8070
▁بردم	-8071
▁تصرف	-8072
▁دعوا	-8073
▁ریخت	-8074
▁زنیم	-8075
▁لنین	-8076
▁لیتر	-8077
▁معاف	-8078
▁چاله	-8079
▁ايران	-8080
▁بدانم	-8081
▁صمیمی	-8082
▁معادن	-8083
▁موفقی	-8084
▁ارتقای	-8085
▁انحراف	-8086
▁بیابید	-8087
▁حکومتی	-8088
▁ناخالص	-8089
▁نخواهم	-8090
▁توانمند	-8091
▁دریافتی	-8092
▁سلولهای	-8093
▁عصبانیت	-8094
▁فرانسیس	-8095
▁هورمونی	-8096
!»	-8097
MI	-8098
ّل	-8099
صیر	-8100
▁)؛	-8101
▁.”	-8102
▁ضم	-8103
ject	-8104
باتی	-8105
بانه	-8106
خیلی	-8107
شلیم	-8108
منان	-8109
▁All	-8110
▁تیز	-8111
▁حتا	-8112
▁حما	-8113
▁دلش	-8114
▁زائ	-8115
▁فور	-8116
▁۱۵۰	-8117
▁۱۹۲	-8118
الیست	-8119
▁بلوغ	-8120
▁سونی	-8121
▁فعلا	-8122
▁قارچ	-8123
▁قریب	-8124
▁کریس	-8125
▁Black	-8126
▁آرمان	-8127
▁احکام	-8128
▁تسکین	-8129
▁تقویم	-8130
▁زودرس	-8131
▁امتناع	-8132
▁جماهیر	-8133
▁عمدتاً	-8134
▁فرموده	-8135
▁معاینه	-8136
▁ابزارها	-8137
▁جابجایی	-8138
▁ایرانیان	-8139
ep	-8140
قان	-8141
لوب	-8142
▁49	-8143
▁At	-8144
▁ID	-8145
▁۷۵	-8146
uper	-8147
انید	-8148
▁Bit	-8149
▁معط	-8150
▁پین	-8151
ازدهم	-8152
▁آمدم	-8153
▁طلای	-8154
▁عضله	-8155
▁مزار	-8156
▁میگو	-8157
یمانده	-8158
▁.....	-8159
▁بحرین	-8160
▁تحقیر	-8161
▁جلوتر	-8162
▁خمینی	-8163
▁سودان	-8164
▁فواید	-8165
▁لیوان	-8166
▁موسوم	-8167
▁افسران	-8168
▁بخواند	-8169
▁تفریحی	-8170
▁روزگار	-8171
▁فهمیدم	-8172
▁مؤسسات	-8173
▁نظرتان	-8174
▁ویروسی	-8175
▁اورشلیم	-8176
▁حسابرسی	-8177
▁مجارستان	-8178
▁باقیمانده	-8179
au	-8180
”.	-8181
▁u	-8182
▁٫	-8183
مول	-8184
کلت	-8185
کیک	-8186
جانی	-8187
طباق	-8188
▁افق	-8189
▁تبع	-8190
▁سفت	-8191
▁ظلم	-8192
▁فرس	-8193
▁کما	-8194
ction	-8195
کسازی	-8196
▁ابدی	-8197
▁الکس	-8198
▁تسری	-8199
▁قدمت	-8200
▁قطره	-8201
▁مسلم	-8202
▁ناقص	-8203
▁افتند	-8204
▁توکیو	-8205
▁خصوصا	-8206
▁دیدنی	-8207
▁انطباق	-8208
▁جانشین	-8209
▁معنایی	-8210
▁دانستید	-8211
▁هیچگونه	-8212
▁پاکسازی	-8213
▁پناهگاه	-8214
▁محصولاتی	-8215
▁نامگذاری	-8216
6)	-8217
vi	-8218
يش	-8219
ale	-8220
دای	-8221
▁Gl	-8222
▁[[	-8223
▁sp	-8224
▁شك	-8225
▁چر	-8226
جمله	-8227
حاتی	-8228
▁ترم	-8229
▁عیب	-8230
▁فدا	-8231
▁نيز	-8232
▁ژنو	-8233
▁کشم	-8234
iness	-8235
ystem	-8236
▁2002	-8237
▁بارش	-8238
▁درخش	-8239
▁فاسد	-8240
▁لرزه	-8241
▁ملزم	-8242
▁نامی	-8243
▁گمرک	-8244
▁تقصیر	-8245
▁رفتیم	-8246
▁شگفتی	-8247
▁فاطمه	-8248
▁مختصر	-8249
▁منفجر	-8250
▁واقعه	-8251
▁پیراه	-8252
▁ازجمله	-8253
▁بفهمید	-8254
▁بنوشید	-8255
▁تورنتو	-8256
▁طبقاتی	-8257
▁لیسانس	-8258
▁پاسخگو	-8259
▁پدیدار	-8260
▁گذاشتم	-8261
▁اثربخشی	-8262
▁اصطلاحات	-8263
CC	-8264
ex	-8265
ys	-8266
۱۹	-8267
اوت	-8268
قیم	-8269
▁ST	-8270
▁Gen	-8271
▁حاد	-8272
▁دلس	-8273
▁ساق	-8274
▁پرز	-8275
▁یکم	-8276
▁۴۰۰	-8277
اندوم	-8278
▁تونس	-8279
▁خفیف	-8280
▁دزدی	-8281
▁سانس	-8282
▁صفات	-8283
▁منحص	-8284
▁پرسد	-8285
▁گیرم	-8286
▁آرشیو	-8287
▁ارقام	-8288
▁بخورد	-8289
▁زیتون	-8290
▁میرند	-8291
▁آقایان	-8292
▁احتیاط	-8293
▁صداهای	-8294
▁عزیزان	-8295
▁ماهیچه	-8296
▁مسکونی	-8297
▁منظورم	-8298
▁نهایتا	-8299
▁نگیرید	-8300
▁کالاها	-8301
▁امیرالم	-8302
▁دوستانش	-8303
▁فشارهای	-8304
▁مهمانان	-8305
▁اسکاتلند	-8306
▁بارگذاری	-8307
HD	-8308
اژ	-8309
▁Gu	-8310
▁غف	-8311
▁۳۶	-8312
سالی	-8313
▁عفو	-8314
▁کهن	-8315
▁آرای	-8316
▁بايد	-8317
▁تقلب	-8318
▁تناس	-8319
▁حدیث	-8320
▁سایز	-8321
▁شعله	-8322
▁صبور	-8323
▁غروب	-8324
▁انتشا	-8325
▁تصدیق	-8326
▁حسادت	-8327
▁دخترش	-8328
▁دیدید	-8329
▁زدایی	-8330
▁عمیقی	-8331
▁مساوی	-8332
▁معمار	-8333
▁نهاده	-8334
▁نگذار	-8335
▁نیافت	-8336
▁افزاید	-8337
▁جنگنده	-8338
▁سزاوار	-8339
▁سنگینی	-8340
▁میگیرد	-8341
▁ناوگان	-8342
▁بخوانند	-8343
▁عبدالله	-8344
▁مولکولی	-8345
▁پاسپورت	-8346
▁نابرابری	-8347
▁پناهندگی	-8348
af	-8349
َل	-8350
▁\	-8351
old	-8352
son	-8353
▁Co	-8354
▁DS	-8355
▁Is	-8356
اریا	-8357
خوری	-8358
▁آنف	-8359
▁ایز	-8360
▁دزد	-8361
▁ریه	-8362
▁ممل	-8363
▁منا	-8364
ریایی	-8365
▁Cont	-8366
▁Tech	-8367
▁بخشش	-8368
▁ذاتی	-8369
▁ربطی	-8370
▁مبهم	-8371
▁متکی	-8372
▁مناز	-8373
▁نوبه	-8374
▁نیفت	-8375
▁۱۹۸۰	-8376
▁۲۰۰۳	-8377
▁ادراک	-8378
▁افراط	-8379
▁اینان	-8380
▁بزنیم	-8381
▁جملات	-8382
▁جوایز	-8383
▁درایو	-8384
▁سئوال	-8385
▁فلسفی	-8386
▁مردها	-8387
▁نوسان	-8388
▁اساساً	-8389
▁بسازیم	-8390
▁بفهمیم	-8391
▁بیداری	-8392
▁تابعیت	-8393
▁خوانیم	-8394
▁شناختن	-8395
▁ماندند	-8396
▁مناسبت	-8397
▁نیروها	-8398
▁استادان	-8399
▁رختخواب	-8400
▁مجاهدین	-8401
▁هیدروژن	-8402
▁خداحافظی	-8403
▁پرداختند	-8404
▁دندانپزشک	-8405
▁زیردریایی	-8406
▁سوءاستفاده	-8407
5)	-8408
RI	-8409
سن	-8410
ِر	-8411
قدس	-8412
يان	-8413
▁El	-8414
▁Mo	-8415
▁دپ	-8416
roid	-8417
ارید	-8418
▁آله	-8419
▁خوک	-8420
▁قید	-8421
▁هرج	-8422
▁وحی	-8423
▁پاد	-8424
نهایت	-8425
▁دعای	-8426
▁سفری	-8427
▁سنجش	-8428
▁كردن	-8429
▁مهلت	-8430
▁نیکو	-8431
▁کمون	-8432
وسترون	-8433
▁اسامی	-8434
▁بزودی	-8435
▁حکایت	-8436
▁فارکس	-8437
▁نمودن	-8438
▁هفتگی	-8439
▁برادرش	-8440
▁قاعدگی	-8441
▁محصولی	-8442
▁هرچیزی	-8443
▁پنجمین	-8444
▁پیدایش	-8445
▁پیشگام	-8446
▁سهامداران	-8447
▁تولیدکننده	-8448
ai	-8449
حد	-8450
▁<	-8451
iel	-8452
lic	-8453
ئول	-8454
زیی	-8455
فای	-8456
▁42	-8457
▁46	-8458
راسی	-8459
نشان	-8460
▁عار	-8461
▁ماز	-8462
▁مجت	-8463
▁ناگ	-8464
▁پرا	-8465
▁جزیی	-8466
▁شستن	-8467
▁مسلط	-8468
▁مقدم	-8469
▁مهدی	-8470
▁ناظر	-8471
▁نروژ	-8472
▁واجب	-8473
▁پخته	-8474
▁پرین	-8475
▁اسکری	-8476
▁اعطای	-8477
▁ایمپل	-8478
▁تفکیک	-8479
▁منحرف	-8480
▁کاتال	-8481
▁کاغذی	-8482
▁نماییم	-8483
▁یکسانی	-8484
▁اسراییل	-8485
▁تریلیون	-8486
▁زمستانی	-8487
▁غذاهایی	-8488
▁ناامیدی	-8489
▁کارگزار	-8490
▁اتفاقاتی	-8491
▁خاطرنشان	-8492
▁ماهیگیری	-8493
CD	-8494
for	-8495
طار	-8496
واد	-8497
▁خص	-8498
ارتی	-8499
رائی	-8500
طوره	-8501
ولین	-8502
▁Cre	-8503
▁Min	-8504
▁Sec	-8505
▁بشم	-8506
▁ترش	-8507
▁تنی	-8508
▁روت	-8509
▁مزه	-8510
رارتی	-8511
▁Mark	-8512
▁شیلی	-8513
▁عناو	-8514
▁مصمم	-8515
▁مینی	-8516
▁پاها	-8517
▁پرتو	-8518
▁ارجاع	-8519
▁بهشتی	-8520
▁سردرگ	-8521
▁مامور	-8522
▁همایش	-8523
▁ببندید	-8524
▁حرارتی	-8525
▁رسیدیم	-8526
▁رونالد	-8527
▁سناتور	-8528
▁ناراضی	-8529
▁پیراهن	-8530
▁ایمپلنت	-8531
▁بازگشته	-8532
▁دربارهٔ	-8533
▁مطمئناً	-8534
▁منتقدان	-8535
▁کارفرما	-8536
▁کشورمان	-8537
▁داروهایی	-8538
AM	-8539
ذر	-8540
ضم	-8541
۱۰	-8542
igh	-8543
ric	-8544
زیم	-8545
▁00	-8546
▁Ev	-8547
▁es	-8548
ارشی	-8549
▁بدب	-8550
▁جوه	-8551
ارتان	-8552
▁Word	-8553
▁آلوم	-8554
▁جناح	-8555
▁دوقل	-8556
▁شمسی	-8557
▁مصری	-8558
▁مقرر	-8559
▁ندهد	-8560
▁کثیف	-8561
▁۱۹۹۰	-8562
▁العمل	-8563
▁بخشند	-8564
▁مسواک	-8565
▁کابوس	-8566
▁اسطوره	-8567
▁بسازند	-8568
▁تعاملی	-8569
▁یادتان	-8570
▁برگرفته	-8571
▁نمایشگر	-8572
▁تستوسترون	-8573
رع	-8574
وو	-8575
ohn	-8576
▁41	-8577
▁96	-8578
▁Em	-8579
▁et	-8580
▁اً	-8581
▁ذی	-8582
ound	-8583
انسی	-8584
▁Ass	-8585
▁[1]	-8586
▁درا	-8587
▁رؤی	-8588
▁راک	-8589
▁عرق	-8590
earch	-8591
ؤمنین	-8592
خوانی	-8593
▁Cent	-8594
▁اوپک	-8595
▁مجزا	-8596
▁پوشه	-8597
▁گلوک	-8598
▁یونی	-8599
▁۲۰۰۱	-8600
▁ادیان	-8601
▁تسریع	-8602
▁تعالی	-8603
▁تقدیر	-8604
▁ثباتی	-8605
▁ربوده	-8606
▁محتمل	-8607
▁پرسند	-8608
▁Intern	-8609
▁انجامد	-8610
▁بازنده	-8611
▁بنویسم	-8612
▁تراکنش	-8613
▁خوشمزه	-8614
▁رسانند	-8615
▁عواملی	-8616
▁مایعات	-8617
▁مربیان	-8618
▁پشیمان	-8619
▁اتصالات	-8620
▁فلوریدا	-8621
▁گرافیکی	-8622
▁فیلمبرداری	-8623
TC	-8624
َن	-8625
ogy	-8626
بله	-8627
▁57	-8628
▁66	-8629
▁Go	-8630
▁حت	-8631
▁فک	-8632
▁نپ	-8633
cess	-8634
work	-8635
▁بپو	-8636
▁فلا	-8637
▁قصر	-8638
▁لغت	-8639
▁Comm	-8640
▁ment	-8641
▁اسیر	-8642
▁امگا	-8643
▁بسکت	-8644
▁حیاط	-8645
▁قطبی	-8646
▁چکار	-8647
▁توییت	-8648
▁دهکده	-8649
▁فوراً	-8650
▁معتاد	-8651
▁مواضع	-8652
▁نداره	-8653
▁ایستاد	-8654
▁بدنتان	-8655
▁بیابان	-8656
▁سرنشین	-8657
▁پایبند	-8658
▁گرمایش	-8659
▁یارانه	-8660
▁بازیگری	-8661
▁معاملاتی	-8662
▁کوانتومی	-8663
▁استرالیایی	-8664
▁بازاریابان	-8665
▁دندانپزشکی	-8666
ade	-8667
amp	-8668
▁Ge	-8669
▁ne	-8670
▁مچ	-8671
ames	-8672
خامت	-8673
فران	-8674
لاوه	-8675
پوست	-8676
▁250	-8677
▁Pri	-8678
▁آلت	-8679
▁درج	-8680
▁کنت	-8681
▁کوب	-8682
▁گیل	-8683
ربندی	-8684
▁بنام	-8685
▁بنگل	-8686
▁توئی	-8687
▁دراز	-8688
▁سیری	-8689
▁فریم	-8690
▁مرخص	-8691
▁نکنم	-8692
▁پانل	-8693
▁کارم	-8694
▁کیفی	-8695
▁Apple	-8696
▁ارباب	-8697
▁تداخل	-8698
▁دائما	-8699
▁دزدید	-8700
▁دشمنی	-8701
▁راستش	-8702
▁شاگرد	-8703
▁فرستد	-8704
▁مامان	-8705
▁مبتدی	-8706
▁پیکسل	-8707
▁کشنده	-8708
▁بعلاوه	-8709
▁شایعات	-8710
▁مردگان	-8711
▁میکنیم	-8712
▁نویسند	-8713
▁کشاورز	-8714
▁درازمدت	-8715
▁محتویات	-8716
DF	-8717
ma	-8718
ئز	-8719
▁↑	-8720
ave	-8721
enc	-8722
شنا	-8723
فسی	-8724
فور	-8725
▁٢٠	-8726
ance	-8727
▁ion	-8728
▁ابن	-8729
▁تیل	-8730
▁راس	-8731
▁شکو	-8732
▁صاب	-8733
▁عرف	-8734
▁معص	-8735
کستان	-8736
▁آورم	-8737
▁اصفه	-8738
▁تعمی	-8739
▁حجاب	-8740
▁خوشه	-8741
▁علنی	-8742
▁غیبت	-8743
▁فتنه	-8744
گذاران	-8745
▁آلبرت	-8746
▁انجیل	-8747
▁بازده	-8748
▁بازرس	-8749
▁بستری	-8750
▁تراشه	-8751
▁دخترم	-8752
▁سلطنت	-8753
▁سوئدی	-8754
▁نورون	-8755
▁نگرفت	-8756
▁نیستی	-8757
▁کلینی	-8758
▁جنایات	-8759
▁مردانی	-8760
▁مهمانی	-8761
▁بنیادین	-8762
▁خودخواه	-8763
▁شایستگی	-8764
▁مشاهدات	-8765
▁پردازیم	-8766
▁گذرنامه	-8767
▁افزارهای	-8768
▁روزرسانی	-8769
▁بلغارستان	-8770
‬‬	-8771
ara	-8772
oot	-8773
ریز	-8774
ظره	-8775
ظهر	-8776
عون	-8777
كان	-8778
▁Gr	-8779
ital	-8780
سیلی	-8781
لاند	-8782
ورات	-8783
▁ers	-8784
▁بشه	-8785
▁جلد	-8786
▁جما	-8787
▁سوق	-8788
▁مرو	-8789
▁مطب	-8790
▁هاش	-8791
انیوم	-8792
▁اعظم	-8793
▁ببخش	-8794
▁برات	-8795
▁بگرد	-8796
▁تخته	-8797
▁ردیف	-8798
▁لوگو	-8799
▁مزاح	-8800
▁پارس	-8801
▁گرام	-8802
▁یانگ	-8803
منتظره	-8804
▁آمیزی	-8805
▁تظاهر	-8806
▁خدایا	-8807
▁شوهرش	-8808
▁شوهرم	-8809
▁عارضه	-8810
▁مسخره	-8811
▁منتهی	-8812
▁منصوب	-8813
▁بخشیده	-8814
▁سیستمی	-8815
▁ماجرای	-8816
▁مبلمان	-8817
▁محققین	-8818
▁گرایان	-8819
▁آموزانی	-8820
▁تعاملات	-8821
▁خاکستری	-8822
▁ماندگار	-8823
▁غیرمنتظره	-8824
▁سرماخوردگی	-8825
EL	-8826
ُم	-8827
▁→	-8828
اسم	-8829
حاب	-8830
نين	-8831
▁cl	-8832
▁ائ	-8833
▁دب	-8834
▁رن	-8835
▁لش	-8836
▁پز	-8837
▁یس	-8838
ator	-8839
ویسی	-8840
▁700	-8841
▁Gro	-8842
▁زین	-8843
▁ستی	-8844
▁صرب	-8845
▁مقت	-8846
▁نای	-8847
▁1960	-8848
▁Open	-8849
▁رسما	-8850
▁ساند	-8851
▁عددی	-8852
▁عظمت	-8853
▁فانت	-8854
▁نیکی	-8855
▁وزنه	-8856
▁کوکی	-8857
▁یوتی	-8858
▁ارواح	-8859
▁تعویق	-8860
▁تقدیم	-8861
▁رقبای	-8862
▁مبارز	-8863
▁برترین	-8864
▁تلگرام	-8865
▁خانوار	-8866
▁خوردند	-8867
▁همسران	-8868
▁اختیاری	-8869
▁بازبینی	-8870
▁باورهای	-8871
▁بسکتبال	-8872
▁مانیتور	-8873
▁معترضان	-8874
▁انتشارات	-8875
▁دیوارهای	-8876
ww	-8877
ّم	-8878
ife	-8879
out	-8880
ورا	-8881
وعی	-8882
▁جت	-8883
▁زي	-8884
▁گه	-8885
رستی	-8886
زایی	-8887
▁1.5	-8888
▁زنا	-8889
▁هام	-8890
ترانه	-8891
▁ایام	-8892
▁بمیر	-8893
▁رایت	-8894
▁طلبی	-8895
▁مستح	-8896
▁منکر	-8897
▁انتها	-8898
▁تنبیه	-8899
▁حدودا	-8900
▁سلمان	-8901
▁شنوند	-8902
▁غمگین	-8903
▁میرسد	-8904
▁کیفری	-8905
▁گذارم	-8906
▁شکستگی	-8907
▁عموماً	-8908
▁یوتیوب	-8909
▁آکادمیک	-8910
▁ارگانیک	-8911
▁جایگاهی	-8912
▁خواهران	-8913
▁سالیانه	-8914
▁پرستاری	-8915
▁کنجکاوی	-8916
▁کودکتان	-8917
▁التحصیلی	-8918
▁قراردادی	-8919
):	-8920
2)	-8921
ung	-8922
نیم	-8923
▁7-	-8924
▁9.	-8925
▁عش	-8926
وریا	-8927
کلین	-8928
گاهی	-8929
▁Gal	-8930
▁Mas	-8931
▁آکو	-8932
▁بتا	-8933
▁طنز	-8934
▁منم	-8935
گرایی	-8936
▁Next	-8937
▁احیا	-8938
▁حسگر	-8939
▁خونه	-8940
▁درود	-8941
▁دمشق	-8942
▁عینی	-8943
▁غلظت	-8944
▁مجری	-8945
▁نيست	-8946
▁وسعت	-8947
▁اعلان	-8948
▁باریک	-8949
▁ترسید	-8950
▁تشریح	-8951
▁تنفسی	-8952
▁خیریه	-8953
▁زیارت	-8954
▁نویسان	-8955
▁نیاورد	-8956
▁پایینی	-8957
▁پذیرند	-8958
▁گفتگوی	-8959
▁اسکریپت	-8960
▁بپذیرید	-8961
▁پذیرفتن	-8962
▁Business	-8963
▁استروئید	-8964
▁داوطلبان	-8965
▁پیکربندی	-8966
▁تحلیلگران	-8967
▁دوستانتان	-8968
▁سوسیالیستی	-8969
1)	-8970
3)	-8971
فش	-8972
alt	-8973
box	-8974
ens	-8975
iss	-8976
min	-8977
دها	-8978
▁77	-8979
▁Bu	-8980
▁DV	-8981
▁Fr	-8982
▁SM	-8983
▁ac	-8984
▁ly	-8985
فاعی	-8986
وازی	-8987
ومیت	-8988
▁900	-8989
▁الن	-8990
▁بسي	-8991
▁حجت	-8992
▁حول	-8993
▁ذیل	-8994
▁صدق	-8995
▁فلش	-8996
▁ناچ	-8997
▁نگذ	-8998
▁وطن	-8999
زایمر	-9000
▁توست	-9001
▁حومه	-9002
▁خطری	-9003
▁مخاب	-9004
▁مخزن	-9005
▁مندی	-9006
▁اکثرا	-9007
▁جنایی	-9008
▁شلوار	-9009
▁عمیقا	-9010
▁مسایل	-9011
▁پرولت	-9012
▁پیانو	-9013
▁کناره	-9014
▁یاران	-9015
▁آشکارا	-9016
▁بارانی	-9017
▁عناوین	-9018
▁مجرمان	-9019
▁آلزایمر	-9020
▁بازجویی	-9021
▁مدیتیشن	-9022
▁محاسباتی	-9023
▁مدیترانه	-9024
▁امپراطوری	-9025
7)	-9026
IF	-9027
احت	-9028
شمه	-9029
هیچ	-9030
▁LL	-9031
▁No	-9032
▁SP	-9033
ings	-9034
ریقی	-9035
شتین	-9036
فعال	-9037
▁Art	-9038
▁Not	-9039
▁سول	-9040
▁منق	-9041
▁کاز	-9042
▁کبک	-9043
▁۱۹۰	-9044
▁آمري	-9045
▁الیز	-9046
▁حزبی	-9047
▁حفره	-9048
▁درام	-9049
▁شخصا	-9050
▁محکو	-9051
▁همهٔ	-9052
▁چاقو	-9053
▁۱۹۶۰	-9054
▁امداد	-9055
▁تکلیف	-9056
▁درگاه	-9057
▁فسیلی	-9058
▁فهمند	-9059
▁مرزها	-9060
▁معرفت	-9061
▁پرستش	-9062
▁سرچشمه	-9063
▁نظارتی	-9064
▁کاندوم	-9065
▁انجامید	-9066
▁بنگلادش	-9067
▁جستجوگر	-9068
▁هیچکدام	-9069
▁بیاموزید	-9070
8)	-9071
▁ّ	-9072
ero	-9073
گیل	-9074
▁La	-9075
▁sc	-9076
▁te	-9077
▁۳۴	-9078
بندی	-9079
تونم	-9080
تیسم	-9081
▁(2)	-9082
▁189	-9083
▁آلن	-9084
▁تبی	-9085
▁سنا	-9086
▁لوپ	-9087
▁گود	-9088
▁(200	-9089
▁آیتم	-9090
▁انبا	-9091
▁بارز	-9092
▁تابش	-9093
▁تاجر	-9094
▁دامن	-9095
▁روتر	-9096
▁ضمان	-9097
▁منشأ	-9098
▁نترس	-9099
▁ورشک	-9100
مندانه	-9101
پرداخت	-9102
▁Super	-9103
▁الزام	-9104
▁باراک	-9105
▁سامان	-9106
▁عزیزم	-9107
▁مرموز	-9108
▁میمون	-9109
▁نشدند	-9110
▁نمایی	-9111
▁همانا	-9112
▁یازده	-9113
▁بوستون	-9114
▁فهمیدن	-9115
▁میگوید	-9116
▁نیازها	-9117
▁نیافته	-9118
▁عاقلانه	-9119
▁درحالیکه	-9120
▁کمونیستی	-9121
5]	-9122
OR	-9123
ps	-9124
ich	-9125
ube	-9126
▁:)	-9127
▁۹۹	-9128
ouse	-9129
آمیز	-9130
ایای	-9131
ربند	-9132
پلود	-9133
▁Mus	-9134
▁PHP	-9135
▁نمى	-9136
▁گله	-9137
▁۶۰۰	-9138
کردنی	-9139
▁دخیل	-9140
▁زنید	-9141
▁شانگ	-9142
▁شنود	-9143
▁مسال	-9144
▁ملیت	-9145
▁پاکی	-9146
▁پستی	-9147
▁براون	-9148
▁تعدیل	-9149
▁تومان	-9150
▁دورتر	-9151
▁مزارع	-9152
▁مسافت	-9153
▁مشمول	-9154
▁ناچار	-9155
▁پیتزا	-9156
▁بروکسل	-9157
▁تناسلی	-9158
▁ساختند	-9159
▁کمربند	-9160
▁گذاریم	-9161
▁آلومینی	-9162
▁ادعاهای	-9163
▁استعمار	-9164
▁الیزابت	-9165
▁انسانیت	-9166
▁دانستیم	-9167
▁راهبردی	-9168
▁رفتارها	-9169
▁قدرتمندی	-9170
▁موضوعاتی	-9171
▁سوسیالیسم	-9172
▁تصویربرداری	-9173
4]	-9174
EM	-9175
صب	-9176
كا	-9177
یص	-9178
یع	-9179
erg	-9180
ons	-9181
ماق	-9182
مثل	-9183
▁Lo	-9184
▁Pa	-9185
▁Dis	-9186
▁Per	-9187
▁آنچ	-9188
▁جرج	-9189
▁دیت	-9190
▁لوک	-9191
▁مزد	-9192
▁مسو	-9193
▁نیل	-9194
▁پرش	-9195
▁کشش	-9196
ادلات	-9197
▁1996	-9198
▁آمری	-9199
▁آوار	-9200
▁بنای	-9201
▁زوال	-9202
▁شعبه	-9203
▁مواظ	-9204
▁وجوه	-9205
▁کروز	-9206
▁آبشار	-9207
▁آپلود	-9208
▁اجلاس	-9209
▁بازگو	-9210
▁ترفند	-9211
▁ذهنیت	-9212
▁طبقات	-9213
▁مراکش	-9214
▁موضعی	-9215
▁نگارش	-9216
▁کپسول	-9217
▁داوران	-9218
▁سینمای	-9219
▁اورژانس	-9220
▁پارلمانی	-9221
▁ابزارهایی	-9222
▁متابولیسم	-9223
▁کامپیوترهای	-9224
AP	-9225
َر	-9226
rid	-9227
رها	-9228
موس	-9229
▁56	-9230
▁6-	-9231
▁8-	-9232
▁SD	-9233
▁he	-9234
▁آنا	-9235
▁ابه	-9236
▁اسف	-9237
▁مقص	-9238
▁مهد	-9239
▁هضم	-9240
▁هوی	-9241
دهنده	-9242
▁امین	-9243
▁برکت	-9244
▁بلاگ	-9245
▁تخیل	-9246
▁طلوع	-9247
▁هپات	-9248
▁۲۰۰۷	-9249
▁آوردم	-9250
▁اشباع	-9251
▁اصحاب	-9252
▁افزون	-9253
▁ایراد	-9254
▁بکنیم	-9255
▁شانسی	-9256
▁شنوید	-9257
▁ضمانت	-9258
▁قطعیت	-9259
▁مثانه	-9260
▁مجلات	-9261
▁مشخصه	-9262
▁معدود	-9263
▁وجودی	-9264
▁پوشان	-9265
▁باروری	-9266
▁تخمدان	-9267
▁توئیتر	-9268
▁جمعیتی	-9269
▁رویایی	-9270
▁عدالتی	-9271
▁مسالمت	-9272
▁مشترکی	-9273
▁Android	-9274
▁آرزوهای	-9275
▁آنفولان	-9276
▁معماران	-9277
▁گزارشات	-9278
▁بزرگسالی	-9279
ّر	-9280
anc	-9281
lex	-9282
ton	-9283
uro	-9284
▁by	-9285
بگان	-9286
▁Cap	-9287
▁ity	-9288
▁آکس	-9289
▁بخت	-9290
▁بدم	-9291
▁زام	-9292
▁سرس	-9293
▁كنم	-9294
▁موت	-9295
▁ژئو	-9296
▁1950	-9297
▁1998	-9298
▁بسیج	-9299
▁تحقی	-9300
▁حائز	-9301
▁شركت	-9302
▁شهدا	-9303
▁صخره	-9304
▁وسطی	-9305
▁چشمی	-9306
▁کویت	-9307
راگراف	-9308
▁تخصیص	-9309
▁تهویه	-9310
▁سازیم	-9311
▁مقصود	-9312
▁مناظر	-9313
▁موازی	-9314
▁نوکیا	-9315
▁هلندی	-9316
▁کشاند	-9317
▁اصفهان	-9318
▁بشنوید	-9319
▁	-9320
ا	-9321
ی	-9322
ر	-9323
د	-9324
ن	-9325
ه	-9326
م	-9327
و	-9328
ت	-9329
ب	-9330
ک	-9331
س	-9332
ش	-9333
ل	-9334
ز	-9335
.	-9336
ف	-9337
گ	-9338
خ	-9339
ع	-9340
ق	-9341
ج	-9342
ح	-9343
،	-9344
آ	-9345
پ	-9346
ط	-9347
ص	-9348
چ	-9349
غ	-9350
ض	-9351
e	-9352
ذ	-9353
ظ	-9354
a	-9355
ث	-9356
o	-9357
:	-9358
i	-9359
0	-9360
ئ	-9361
r	-9362
)	-9363
n	-9364
(	-9365
1	-9366
t	-9367
ژ	-9368
s	-9369
؟	-9370
»	-9371
2	-9372
l	-9373
۰	-9374
«	-9375
"	-9376
-	-9377
۱	-9378
ي	-9379
S	-9380
c	-9381
u	-9382
d	-9383
!	-9384
A	-9385
5	-9386
C	-9387
۲	-9388
9	-9389
h	-9390
3	-9391
m	-9392
P	-9393
ً	-9394
ك	-9395
4	-9396
M	-9397
p	-9398
g	-9399
؛	-9400
T	-9401
D	-9402
I	-9403
6	-9404
8	-9405
y	-9406
B	-9407
7	-9408
E	-9409
”	-9410
۵	-9411
R	-9412
۹	-9413
ِ	-9414
L	-9415
۳	-9416
]	-9417
[	-9418
أ	-9419
b	-9420
N	-9421
G	-9422
k	-9423
H	-9424
“	-9425
f	-9426
O	-9427
­	-9428
F	-9429
۴	-9430
–	-9431
,	-9432
v	-9433
۶	-9434
۸	-9435
w	-9436
/	-9437
W	-9438
ى	-9439
۷	-9440
ۀ	-9441
V	-9442
U	-9443
ـ	-9444
ّ	-9445
ء	-9446
x	-9447
ؤ	-9448
َ	-9449
K	-9450
*	-9451
J	-9452
ُ	-9453
ٔ	-9454
z	-9455
X	-9456
+	-9457
٪	-9458
%	-9459
•	-9460
Y	-9461
٫	-9462
'	-9463
Q	-9464
>	-9465
j	-9466
Z	-9467
’	-9468
|	-9469
١	-9470
ْ	-9471
ة	-9472
_	-9473
٬	-9474
٠	-9475
#	-9476
&	-9477
=	-9478
q	-9479
?	-9480
٢	-9481
—	-9482
;	-9483
٩	-9484
$	-9485
¬	-9486
·	-9487
‬	-9488
●	-9489
٨	-9490
\	-9491
٣	-9492
{	-9493
}	-9494
‘	-9495
<	-9496
٧	-9497
@	-9498
٥	-9499
٤	-9500
↑	-9501
é	-9502
→	-9503
إ	-9504
ٌ	-9505
▪	-9506
←	-9507
‫	-9508
‍	-9509
٦	-9510
€	-9511
×	-9512
ü	-9513
®	-9514
ە	-9515
⁯	-9516
°	-9517
️	-9518
ٍ	-9519
♪	-9520
ö	-9521
■	-9522
◄	-9523
ھ	-9524
′	-9525
›	-9526
ó	-9527
á	-9528
~	-9529
â	-9530
♫	-9531
😉	-9532
‪	-9533
£	-9534
ä	-9535
➖	-9536
ç	-9537
^	-9538
‹	-9539
♦	-9540
🔹	-9541
ı	-9542
😀	-9543
§	-9544
ٰ	-9545
−	-9546
✅	-9547
`	-9548
à	-9549
□	-9550
♥	-9551
ş	-9552
ˈ	-9553
⇐	-9554
	-9555
è	-9556
▫	-9557
©	-9558
🔸	-9559
ñ	-9560
α	-9561
	-9562
🙂	-9563
É	-9564
√	-9565
😍	-9566
	-9567
ā	-9568
	-9569
ã	-9570
́	-9571
р	-9572
±	-9573
å	-9574
í	-9575
и	-9576
⁄	-9577
★	-9578
Ç	-9579
ú	-9580
ٿ	-9581
❤	-9582
﴾	-9583
👌	-9584
œ	-9585
̊	-9586
̋	-9587
μ	-9588
а	-9589
е	-9590
н	-9591
о	-9592
ٴ	-9593
۔	-9594
⁭	-9595
☺	-9596
✓	-9597
✔	-9598
﴿	-9599
🌷	-9600
	-9601
Ø	-9602
ø	-9603
ğ	-9604
İ	-9605
̈	-9606
Δ	-9607
Ω	-9608
ε	-9609
ۆ	-9610
ა	-9611
„	-9612
⁪	-9613
◊	-9614
♬	-9615
♯	-9616
⚡	-9617
✤	-9618
✭	-9619
⦁	-9620
	-9621
	-9622
👈	-9623
🔴	-9624
	-9625
Ö	-9626
ë	-9627
β	-9628
ν	-9629
М	-9630
д	-9631
⁩	-9632
▐	-9633
▬	-9634
○	-9635
✕	-9636
	-9637
🌸	-9638
🔻	-9639
😂	-9640
😐	-9641
	-9642
	-9643
	-9644
¤	-9645
Â	-9646
ï	-9647
ò	-9648
ń	-9649
Ş	-9650
š	-9651
ɪ	-9652
̨	-9653
θ	-9654
κ	-9655
Т	-9656
к	-9657
с	-9658
ڪ	-9659
ვ	-9660
ლ	-9661
ო	-9662
⁣	-9663
⁧	-9664
⁮	-9665
⃣	-9666
≠	-9667
≡	-9668
≤	-9669
➕	-9670
	-9671
	-9672
👏	-9673
👻	-9674
🔥	-9675
🔺	-9676
😊	-9677
	-9678
	-9679
¡	-9680
¢	-9681
Ã	-9682
Ä	-9683
Ü	-9684
ß	-9685
ê	-9686
î	-9687
ð	-9688
ô	-9689
÷	-9690
ý	-9691
ē	-9692
ƒ	-9693
ɛ	-9694
ʊ	-9695
ː	-9696
̇	-9697
γ	-9698
λ	-9699
ο	-9700
ρ	-9701
ς	-9702
τ	-9703
Б	-9704
К	-9705
б	-9706
г	-9707
й	-9708
л	-9709
י	-9710
ڵ	-9711
ہ	-9712
ۂ	-9713
ܔ	-9714
ܜ	-9715
თ	-9716
ი	-9717
რ	-9718
ს	-9719
‚	-9720
‭	-9721
≥	-9722
▲	-9723
▶	-9724
◀	-9725
◦	-9726
☼	-9727
❇	-9728
メ	-9729
事	-9730
件	-9731
台	-9732
日	-9733
朝	-9734
本	-9735
灣	-9736
軍	-9737
	-9738
	-9739
	-9740
	-9741
	-9742
	-9743
	-9744
	-9745
🇪	-9746
🍃	-9747
📣	-9748
🔷	-9749
😅	-9750
😏	-9751
😛	-9752
😢	-9753
😥	-9754
😳	-9755
😵	-9756
🙁	-9757
	-9758
	-9759
	-9760
	-9761
	-9762
¥	-9763
Á	-9764
Å	-9765
Ô	-9766
æ	-9767
ì	-9768
þ	-9769
ć	-9770
ī	-9771
ł	-9772
ŋ	-9773
ū	-9774
ű	-9775
Ž	-9776
ǎ	-9777
ɔ	-9778
ə	-9779
ɜ	-9780
ɨ	-9781
ʀ	-9782
ʁ	-9783
ʺ	-9784
ˌ	-9785
ˏ	-9786
̃	-9787
̏	-9788
̵	-9789
Α	-9790
Ε	-9791
Μ	-9792
Φ	-9793
ζ	-9794
φ	-9795
ω	-9796
Г	-9797
З	-9798
И	-9799
О	-9800
П	-9801
С	-9802
м	-9803
т	-9804
у	-9805
ф	-9806
х	-9807
ы	-9808
ь	-9809
я	-9810
ё	-9811
ћ	-9812
ה	-9813
ח	-9814
כ	-9815
מ	-9816
פ	-9817
ש	-9818
ٓ	-9819
څ	-9820
ګ	-9821
ں	-9822
ۃ	-9823
ێ	-9824
ے	-9825
ก	-9826
ง	-9827
แ	-9828
გ	-9829
ე	-9830
მ	-9831
ნ	-9832
უ	-9833
ქ	-9834
Ḥ	-9835
ṇ	-9836
ṯ	-9837
ủ	-9838
ἐ	-9839
ἥ	-9840
Ἴ	-9841
ῖ	-9842
―	-9843
†	-9844
※	-9845
⁠	-9846
₩	-9847
₹	-9848
↓	-9849
⇆	-9850
⇔	-9851
∀	-9852
∆	-9853
∈	-9854
∗	-9855
∘	-9856
∴	-9857
≈	-9858
⊞	-9859
⋆	-9860
⌘	-9861
⏳	-9862
⏺	-9863
►	-9864
◇	-9865
◽	-9866
◾	-9867
☆	-9868
☚	-9869
♊	-9870
♒	-9871
♡	-9872
⚽	-9873
✋	-9874
✍	-9875
✳	-9876
✵	-9877
❌	-9878
❗	-9879
➌	-9880
➐	-9881
⟨	-9882
⟩	-9883
⬅	-9884
《	-9885
》	-9886
「	-9887
か	-9888
き	-9889
ど	-9890
ま	-9891
モ	-9892
ヤ	-9893
一	-9894
东	-9895
人	-9896
前	-9897
十	-9898
命	-9899
坛	-9900
外	-9901
天	-9902
子	-9903
孫	-9904
將	-9905
撫	-9906
斐	-9907
旗	-9908
月	-9909
樹	-9910
湾	-9911
爱	-9912
生	-9913
甲	-9914
碌	-9915
神	-9916
臺	-9917
英	-9918
蔼	-9919
语	-9920
谷	-9921
锦	-9922
门	-9923
革	-9924
도	-9925
라	-9926
아	-9927
장	-9928
티	-9929
	-9930
	-9931
	-9932
	-9933
	-9934
	-9935
	-9936
	-9937
	-9938
	-9939
	-9940
	-9941
	-9942
	-9943
	-9944
	-9945
🇩	-9946
🇬	-9947
🇷	-9948
🇺	-9949
🌀	-9950
🌐	-9951
🌬	-9952
🌲	-9953
🌺	-9954
🍁	-9955
🍳	-9956
🎁	-9957
🎄	-9958
🎥	-9959
🎬	-9960
🐶	-9961
👑	-9962
💎	-9963
💕	-9964
💜	-9965
💟	-9966
💫	-9967
💳	-9968
📈	-9969
📌	-9970
📍	-9971
📑	-9972
📝	-9973
📱	-9974
📽	-9975
🔎	-9976
🔔	-9977
🔵	-9978
🔶	-9979
🗽	-9980
😁	-9981
😌	-9982
😎	-9983
😒	-9984
😔	-9985
😕	-9986
😗	-9987
😙	-9988
😭	-9989
😶	-9990
🙏	-9991
🚀	-9992
🚫	-9993
🤔	-9994
🤗	-9995
🥇	-9996
