[UNK]	0
[CLS]	1
[SEP]	2
[PAD]	3
[MASK]	4
!	5
"	6
#	7
$	8
%	9
&	10
'	11
(	12
)	13
*	14
+	15
,	16
-	17
.	18
/	19
0	20
1	21
2	22
3	23
4	24
5	25
6	26
7	27
8	28
9	29
:	30
;	31
<	32
=	33
>	34
?	35
@	36
[	37
\	38
]	39
^	40
_	41
`	42
a	43
b	44
c	45
d	46
e	47
f	48
g	49
h	50
i	51
j	52
k	53
l	54
m	55
n	56
o	57
p	58
q	59
r	60
s	61
t	62
u	63
v	64
w	65
x	66
y	67
z	68
{	69
|	70
}	71
~	72
	73
	74
	75
	76
	77
	78
	79
	80
	81
	82
	83
	84
	85
	86
	87
¡	88
¢	89
£	90
¤	91
¥	92
§	93
©	94
«	95
¬	96
­	97
®	98
°	99
±	100
·	101
»	102
×	103
ß	104
à	105
á	106
â	107
ã	108
ä	109
å	110
æ	111
ç	112
è	113
é	114
ê	115
ë	116
ì	117
í	118
î	119
ï	120
ð	121
ñ	122
ò	123
ó	124
ô	125
ö	126
÷	127
ø	128
ú	129
ü	130
ý	131
þ	132
ā	133
ć	134
ē	135
ğ	136
ī	137
ı	138
ł	139
ń	140
ŋ	141
œ	142
ş	143
š	144
ū	145
ű	146
ž	147
ƒ	148
ǎ	149
ɔ	150
ə	151
ɛ	152
ɜ	153
ɨ	154
ɪ	155
ʀ	156
ʁ	157
ʊ	158
ʺ	159
ˈ	160
ˌ	161
ˏ	162
ː	163
́	164
̃	165
̇	166
̈	167
̊	168
̋	169
̏	170
̨	171
̵	172
α	173
β	174
γ	175
δ	176
ε	177
ζ	178
θ	179
κ	180
λ	181
μ	182
ν	183
ο	184
ρ	185
ς	186
τ	187
φ	188
ω	189
а	190
б	191
г	192
д	193
е	194
з	195
и	196
й	197
к	198
л	199
м	200
н	201
о	202
п	203
р	204
с	205
т	206
у	207
ф	208
х	209
ы	210
ь	211
я	212
ё	213
ћ	214
ה	215
ח	216
י	217
כ	218
מ	219
פ	220
ש	221
،	222
؛	223
؟	224
ء	225
آ	226
أ	227
ؤ	228
إ	229
ئ	230
ا	231
ب	232
ة	233
ت	234
ث	235
ج	236
ح	237
خ	238
د	239
ذ	240
ر	241
ز	242
س	243
ش	244
ص	245
ض	246
ط	247
ظ	248
ع	249
غ	250
ـ	251
ف	252
ق	253
ك	254
ل	255
م	256
ن	257
ه	258
و	259
ى	260
ي	261
ً	262
ٌ	263
ٍ	264
َ	265
ُ	266
ِ	267
ّ	268
ْ	269
ٓ	270
ٔ	271
٠	272
١	273
٢	274
٣	275
٤	276
٥	277
٦	278
٧	279
٨	280
٩	281
٪	282
٫	283
٬	284
ٰ	285
ٴ	286
پ	287
ٿ	288
څ	289
چ	290
ژ	291
ک	292
ڪ	293
ګ	294
گ	295
ڵ	296
ں	297
ھ	298
ۀ	299
ہ	300
ۂ	301
ۃ	302
ۆ	303
ی	304
ێ	305
ے	306
۔	307
ە	308
۰	309
۱	310
۲	311
۳	312
۴	313
۵	314
۶	315
۷	316
۸	317
۹	318
ܔ	319
ܜ	320
ก	321
ง	322
แ	323
ა	324
გ	325
ე	326
ვ	327
თ	328
ი	329
ლ	330
მ	331
ნ	332
ო	333
რ	334
ს	335
უ	336
ქ	337
ḥ	338
ṇ	339
ṯ	340
ủ	341
ἐ	342
ἥ	343
ἴ	344
ῖ	345
​	346
‌	347
‍	348
‎	349
‏	350
–	351
—	352
―	353
‘	354
’	355
‚	356
“	357
”	358
„	359
†	360
•	361
‪	362
‫	363
‬	364
‭	365
′	366
‹	367
›	368
※	369
⁄	370
⁠	371
⁣	372
⁧	373
⁩	374
⁪	375
⁭	376
⁮	377
⁯	378
₩	379
€	380
₹	381
⃣	382
←	383
↑	384
→	385
↓	386
⇆	387
⇐	388
⇔	389
∀	390
∆	391
∈	392
−	393
∗	394
∘	395
√	396
∴	397
≈	398
≠	399
≡	400
≤	401
≥	402
⊞	403
⋆	404
⌘	405
⏳	406
⏺	407
▐	408
■	409
□	410
▪	411
▫	412
▬	413
▲	414
▶	415
►	416
◀	417
◄	418
◇	419
◊	420
○	421
●	422
◦	423
◽	424
◾	425
★	426
☆	427
☚	428
☺	429
☼	430
♊	431
♒	432
♡	433
♥	434
♦	435
♪	436
♫	437
♬	438
♯	439
⚡	440
⚽	441
✅	442
✋	443
✍	444
✓	445
✔	446
✕	447
✤	448
✭	449
✳	450
✵	451
❇	452
❌	453
❗	454
❤	455
➌	456
➐	457
➕	458
➖	459
⟨	460
⟩	461
⦁	462
⬅	463
《	464
》	465
「	466
か	467
き	468
ど	469
ま	470
メ	471
モ	472
ヤ	473
一	474
东	475
事	476
人	477
件	478
前	479
十	480
台	481
命	482
坛	483
外	484
天	485
子	486
孫	487
將	488
撫	489
斐	490
旗	491
日	492
月	493
朝	494
本	495
樹	496
湾	497
灣	498
爱	499
生	500
甲	501
碌	502
神	503
臺	504
英	505
蔼	506
语	507
谷	508
軍	509
锦	510
门	511
革	512
도	513
라	514
아	515
장	516
티	517
	518
	519
	520
	521
	522
	523
	524
	525
	526
	527
	528
	529
	530
	531
	532
	533
	534
	535
	536
	537
	538
	539
	540
	541
	542
	543
	544
	545
	546
	547
	548
﴾	549
﴿	550
️	551
﻿	552
�	553
🇩	554
🇪	555
🇬	556
🇷	557
🇺	558
🌀	559
🌐	560
🌬	561
🌲	562
🌷	563
🌸	564
🌺	565
🍁	566
🍃	567
🍳	568
🎁	569
🎄	570
🎥	571
🎬	572
🐶	573
👈	574
👌	575
👏	576
👑	577
👻	578
💎	579
💕	580
💜	581
💟	582
💫	583
💳	584
📈	585
📌	586
📍	587
📑	588
📝	589
📣	590
📱	591
📽	592
🔎	593
🔔	594
🔥	595
🔴	596
🔵	597
🔶	598
🔷	599
🔸	600
🔹	601
🔺	602
🔻	603
🗽	604
😀	605
😁	606
😂	607
😅	608
😉	609
😊	610
😌	611
😍	612
😎	613
😏	614
😐	615
😒	616
😔	617
😕	618
😗	619
😙	620
😛	621
😢	622
😥	623
😭	624
😳	625
😵	626
😶	627
🙁	628
🙂	629
🙏	630
🚀	631
🚫	632
🤔	633
🤗	634
🥇	635
##ح	636
##ق	637
##i	638
##l	639
##ج	640
##ا	641
##7	642
##ی	643
##س	644
##ن	645
##ز	646
##ه	647
##د	648
##ص	649
##م	650
##t	651
##a	652
##ت	653
##ل	654
##o	655
##b	656
##ک	657
##r	658
##u	659
##e	660
##m	661
##z	662
##ع	663
##p	664
##ُ	665
##ژ	666
##و	667
##ڪ	668
##h	669
##گ	670
##ط	671
##ِ	672
##ر	673
##s	674
##d	675
##ب	676
##خ	677
##ك	678
##n	679
##g	680
##پ	681
##ي	682
##k	683
##ئ	684
##c	685
##ذ	686
##j	687
##y	688
##ف	689
##۲	690
##_	691
##f	692
##ش	693
##چ	694
##آ	695
##w	696
##v	697
##۴	698
##ـ	699
##۳	700
##٪	701
##ø	702
##ظ	703
##ث	704
##أ	705
##6	706
##1	707
##2	708
##5	709
##x	710
##ۀ	711
##3	712
##4	713
##غ	714
##‏	715
##0	716
##ة	717
##‌	718
##í	719
##ú	720
##؟	721
##۰	722
##۷	723
##)	724
##9	725
##۸	726
##۹	727
##۵	728
##"	729
##”	730
##۶	731
##٨	732
##ّ	733
##8	734
##ó	735
##⌘	736
##.	737
##ü	738
##ı	739
##ض	740
##۱	741
##q	742
##-	743
##>	744
##٤	745
##٠	746
##ş	747
##ى	748
###	749
##َ	750
##ö	751
##٣	752
##٩	753
##ھ	754
##о	755
##д	756
##،	757
##/	758
##ã	759
##ٌ	760
##&	761
##,	762
##é	763
##ç	764
##ა	765
##რ	766
##თ	767
##坛	768
##东	769
##门	770
##»	771
##٥	772
##е	773
##т	774
##р	775
##+	776
##ە	777
##ؤ	778
##人	779
##’	780
##ء	781
##:	782
##י	783
##פ	784
##ה	785
##ä	786
##ً	787
##؛	788
##ɪ	789
##٦	790
##!	791
##٧	792
##=	793
##á	794
##ں	795
##\	796
##н	797
##и	798
##(	799
##٢	800
##~	801
##?	802
##‘	803
##@	804
##아	805
##라	806
##а	807
##٫	808
##​	809
##“	810
##ā	811
##̇	812
##ۂ	813
##*	814
##è	815
##]	816
##§	817
##я	818
##ρ	819
##😏	820
##旗	821
##ñ	822
##١	823
##ٿ	824
##г	825
##å	826
##`	827
##<	828
##إ	829
##ь	830
##ы	831
##й	832
##灣	833
##у	834
##ნ	835
##ი	836
##–	837
##﻿	838
##ˈ	839
##ű	840
##î	841
##ْ	842
##♫	843
##‎	844
##ô	845
##语	846
##ý	847
##à	848
##ێ	849
##✅	850
##ê	851
##‹	852
##•	853
##ː	854
##湾	855
##←	856
##[	857
##«	858
##|	859
##;	860
##{	861
##�	862
##件	863
##ٴ	864
##ủ	865
##¤	866
##с	867
##ܔ	868
##ω	869
##к	870
##%	871
##$	872
##ګ	873
##😀	874
##ì	875
##ʊ	876
##â	877
##ē	878
##😍	879
##	880
##′	881
##τ	882
##ο	883
##ν	884
##'	885
##·	886
##子	887
##ë	888
##ۆ	889
##軍	890
##將	891
##ć	892
##ˌ	893
##ٔ	894
##ח	895
##🇬	896
##🇷	897
##命	898
##ū	899
##ʀ	900
##ɔ	901
##ŋ	902
##‍	903
##⃣	904
##	905
##ے	906
##️	907
##£	908
##°	909
##ٰ	910
##ɛ	911
##ī	912
##ε	913
##ς	914
##ო	915
##მ	916
##≈	917
##장	918
##✤	919
##ვ	920
##უ	921
##ლ	922
##月	923
##事	924
##英	925
##樹	926
##გ	927
##ῖ	928
##ე	929
##́	930
##ћ	931
##‪	932
##ان	933
##ای	934
##ار	935
##ست	936
##ند	937
در	938
##ین	939
به	940
می	941
را	942
از	943
که	944
##ود	945
است	946
##ید	947
با	948
این	949
بر	950
##رد	951
##اد	952
ان	953
##ام	954
های	955
##ال	956
##ور	957
کن	958
##اه	959
##ما	960
##یر	961
یک	962
آن	963
تو	964
هم	965
برای	966
##شت	967
ها	968
##یم	969
شد	970
رو	971
##فت	972
##اب	973
دار	974
##ون	975
##لی	976
کرد	977
ات	978
##ری	979
من	980
##لا	981
##از	982
ای	983
مو	984
##ها	985
یا	986
##سی	987
##را	988
##گر	989
کار	990
##رو	991
او	992
ده	993
خود	994
شما	995
نی	996
ند	997
توان	998
بود	999
##می	1000
دا	1001
خو	1002
##اده	1003
تر	1004
باش	1005
تا	1006
دو	1007
ما	1008
بی	1009
##یت	1010
کند	1011
شود	1012
دی	1013
##تر	1014
کنند	1015
ام	1016
شده	1017
ال	1018
سال	1019
##تی	1020
هر	1021
##مان	1022
##یا	1023
کنید	1024
هست	1025
##زی	1026
ار	1027
##ول	1028
##خت	1029
اند	1030
##گی	1031
ید	1032
##اید	1033
##اس	1034
##دا	1035
اف	1036
##وی	1037
دان	1038
##اری	1039
##نو	1040
ست	1041
یی	1042
داشت	1043
##نگ	1044
##ده	1045
##کن	1046
دست	1047
اما	1048
پی	1049
باشد	1050
گر	1051
##رک	1052
دارد	1053
مح	1054
حال	1055
نمی	1056
آنها	1057
وا	1058
##بت	1059
باید	1060
##یل	1061
تح	1062
قر	1063
فر	1064
اگر	1065
##زار	1066
کم	1067
##له	1068
چه	1069
مع	1070
دیگر	1071
##مو	1072
فاده	1073
##ات	1074
##بی	1075
شو	1076
واه	1077
چی	1078
##انه	1079
رس	1080
سی	1081
اس	1082
بار	1083
##قی	1084
نظ	1085
##مای	1086
بین	1087
مت	1088
##امه	1089
##رف	1090
##فته	1091
##جود	1092
سر	1093
##در	1094
##عی	1095
انج	1096
مش	1097
##نی	1098
نش	1099
زمان	1100
زند	1101
مورد	1102
نو	1103
داد	1104
تن	1105
چن	1106
##جه	1107
هستند	1108
گذ	1109
بد	1110
کش	1111
تواند	1112
مان	1113
دهد	1114
##که	1115
انجام	1116
گاه	1117
نا	1118
کرده	1119
یم	1120
##عه	1121
ری	1122
مر	1123
مس	1124
##بر	1125
##عد	1126
##اف	1127
روز	1128
خواه	1129
اج	1130
سا	1131
نیست	1132
تم	1133
هی	1134
وجود	1135
##زش	1136
مرد	1137
قرار	1138
همه	1139
##با	1140
##وا	1141
نه	1142
##انی	1143
مه	1144
##دید	1145
##شتر	1146
##کر	1147
بیشتر	1148
چنین	1149
اح	1150
جه	1151
##کا	1152
نیز	1153
عنو	1154
عنوان	1155
ساز	1156
##ارد	1157
ین	1158
وی	1159
##رکت	1160
##عت	1161
بخ	1162
مد	1163
زی	1164
مم	1165
##فا	1166
اد	1167
وق	1168
پس	1169
##مین	1170
توس	1171
##امل	1172
پیش	1173
دارند	1174
داشته	1175
##خص	1176
انت	1177
هایی	1178
خواهد	1179
رن	1180
زندگی	1181
ور	1182
##نا	1183
تص	1184
##به	1185
دانش	1186
##ایی	1187
نق	1188
تج	1189
##ونه	1190
شوند	1191
ممکن	1192
بز	1193
اط	1194
روی	1195
نظر	1196
##ادی	1197
گو	1198
##وری	1199
اق	1200
داده	1201
گفت	1202
##وم	1203
کس	1204
کو	1205
راه	1206
##ایت	1207
##قه	1208
##مل	1209
شرکت	1210
اه	1211
بسی	1212
##رگ	1213
بسیار	1214
واق	1215
مق	1216
##یده	1217
کردن	1218
نگ	1219
خا	1220
هیچ	1221
نیاز	1222
##کل	1223
##فر	1224
طور	1225
تنها	1226
زن	1227
کنیم	1228
اش	1229
اص	1230
یکی	1231
تغ	1232
ترین	1233
##نده	1234
##یک	1235
جم	1236
مری	1237
##چه	1238
اخ	1239
مریکا	1240
افر	1241
بخش	1242
##ورت	1243
رنامه	1244
پر	1245
##سان	1246
افراد	1247
##هر	1248
تمام	1249
بعد	1250
بزرگ	1251
##گیر	1252
کل	1253
قب	1254
کمک	1255
آم	1256
اول	1257
مردم	1258
مند	1259
##خا	1260
چند	1261
##کی	1262
جدید	1263
یت	1264
نام	1265
صورت	1266
فق	1267
بازی	1268
##شته	1269
اع	1270
تان	1271
##قیق	1272
باره	1273
##لت	1274
##وه	1275
نشان	1276
##لام	1277
##خی	1278
دور	1279
##ییر	1280
تغییر	1281
##ابر	1282
چیزی	1283
##صد	1284
##جا	1285
گیر	1286
یاب	1287
##لب	1288
##وت	1289
زیر	1290
##طر	1291
دن	1292
کت	1293
نس	1294
##وان	1295
##اره	1296
کشور	1297
ساخت	1298
دل	1299
دهند	1300
دوست	1301
شان	1302
پای	1303
انه	1304
توسط	1305
کنم	1306
افز	1307
##رائ	1308
سو	1309
ارت	1310
##الی	1311
باز	1312
کا	1313
مج	1314
##شه	1315
ایج	1316
ایجاد	1317
آیا	1318
خانه	1319
نت	1320
حد	1321
فقط	1322
تب	1323
چیز	1324
##بان	1325
##حی	1326
ماه	1327
##..	1328
##ابل	1329
عمو	1330
حا	1331
##ژی	1332
ایر	1333
حق	1334
مانند	1335
رفت	1336
##لو	1337
پرو	1338
وان	1339
اب	1340
##ارت	1341
واقع	1342
جهان	1343
یافت	1344
طول	1345
زمین	1346
##لف	1347
##عیت	1348
بیش	1349
##سه	1350
گی	1351
روش	1352
سیاری	1353
تع	1354
غیر	1355
حتی	1356
رد	1357
تول	1358
باشید	1359
انتخا	1360
اینکه	1361
مط	1362
##لیل	1363
بن	1364
##ثر	1365
خان	1366
##شد	1367
##ره	1368
شهر	1369
سه	1370
##ساس	1371
##ادر	1372
اطلا	1373
اطلاع	1374
بل	1375
شر	1376
##شر	1377
چگ	1378
کردند	1379
گرد	1380
##ینه	1381
ود	1382
دید	1383
برخی	1384
هد	1385
فرو	1386
لی	1387
مهم	1388
انداز	1389
لا	1390
باشند	1391
آی	1392
ایران	1393
یه	1394
##ژه	1395
تما	1396
##ضو	1397
##زه	1398
گرفت	1399
زمانی	1400
درصد	1401
##ضی	1402
##یدا	1403
افزای	1404
انسان	1405
##ستم	1406
فیل	1407
شب	1408
##ورد	1409
##صی	1410
یل	1411
کاری	1412
کسی	1413
##گاه	1414
اک	1415
کتاب	1416
دهید	1417
قدر	1418
کود	1419
ایم	1420
شن	1421
علا	1422
...	1423
فکر	1424
شور	1425
کودک	1426
مث	1427
تولید	1428
سیا	1429
##زد	1430
شخص	1431
##ریق	1432
جنگ	1433
##مایش	1434
چرا	1435
##بود	1436
##تب	1437
واهید	1438
ارائ	1439
گرفته	1440
آب	1441
تش	1442
ارائه	1443
جای	1444
##رس	1445
خار	1446
بودند	1447
چگونه	1448
##یس	1449
تلا	1450
##وق	1451
خد	1452
وقتی	1453
مشکل	1454
##مت	1455
##سته	1456
سازم	1457
##زینه	1458
بدون	1459
نم	1460
همین	1461
##کان	1462
##شم	1463
غذ	1464
بوده	1465
همان	1466
هنگ	1467
##کار	1468
پیدا	1469
سیستم	1470
شدن	1471
قابل	1472
دارید	1473
گرو	1474
شرو	1475
مص	1476
فرد	1477
نخ	1478
گروه	1479
خی	1480
##ایل	1481
زیادی	1482
شنا	1483
##ترین	1484
نفر	1485
##روز	1486
er	1487
احساس	1488
خوب	1489
کاه	1490
##راحی	1491
کننده	1492
شم	1493
شروع	1494
دلیل	1495
پو	1496
هنگام	1497
##بو	1498
خیلی	1499
کاهش	1500
دیگ	1501
حس	1502
##ازه	1503
واهند	1504
آمو	1505
وب	1506
دیر	1507
پن	1508
##فق	1509
لو	1510
دولت	1511
توجه	1512
##اشت	1513
خدا	1514
##زان	1515
هو	1516
فیلم	1517
ولی	1518
بازار	1519
الا	1520
##تص	1521
##کس	1522
امروز	1523
آز	1524
##شان	1525
##قل	1526
##ضر	1527
آورد	1528
سایت	1529
##تما	1530
##دام	1531
نک	1532
خارج	1533
ستان	1534
گوی	1535
##است	1536
زبان	1537
اولین	1538
قبل	1539
عم	1540
##دن	1541
فروش	1542
هترین	1543
دیگری	1544
##رکز	1545
##on	1546
جن	1547
شک	1548
بنابر	1549
حرف	1550
باع	1551
مدت	1552
تاری	1553
##گو	1554
قدرت	1555
حدود	1556
میان	1557
کسب	1558
منط	1559
عد	1560
تفا	1561
منت	1562
همی	1563
ارو	1564
سن	1565
همیشه	1566
یلی	1567
انگ	1568
ندارد	1569
تجر	1570
جا	1571
خواست	1572
سط	1573
خانوا	1574
یاد	1575
قان	1576
پاس	1577
تفاوت	1578
باعث	1579
مرا	1580
صح	1581
موضو	1582
موضوع	1583
خص	1584
درست	1585
تلاش	1586
ارتبا	1587
قانون	1588
هدف	1589
مخت	1590
##ثیر	1591
طریق	1592
توسعه	1593
یابی	1594
گذشته	1595
رق	1596
سری	1597
احتما	1598
##پا	1599
طراحی	1600
##بال	1601
##طه	1602
##مات	1603
نزد	1604
دنبال	1605
##لم	1606
خصو	1607
##میم	1608
##صول	1609
##گز	1610
اید	1611
آنچه	1612
افت	1613
عال	1614
##چک	1615
کام	1616
##ar	1617
عر	1618
سپ	1619
زنان	1620
##سر	1621
ره	1622
نامه	1623
محصول	1624
جهانی	1625
##صل	1626
بدن	1627
بهتر	1628
##رده	1629
##لیه	1630
چین	1631
گونه	1632
##یف	1633
شامل	1634
هن	1635
آینده	1636
رمای	1637
مختلف	1638
هنو	1639
یع	1640
بیم	1641
هنوز	1642
وز	1643
##ضا	1644
گزار	1645
جز	1646
نتی	1647
##اسب	1648
تماعی	1649
اصلی	1650
##قا	1651
وسی	1652
نوع	1653
##خر	1654
تصمیم	1655
اروپا	1656
تاریخ	1657
رمایه	1658
گفته	1659
تحقیق	1660
مسئ	1661
نیر	1662
طبی	1663
وارد	1664
ادامه	1665
##ریان	1666
ته	1667
تأ	1668
المل	1669
خر	1670
سازی	1671
الملل	1672
تجربه	1673
دادن	1674
##طور	1675
in	1676
وقت	1677
درمان	1678
شاه	1679
برد	1680
اعت	1681
##فاق	1682
اتفاق	1683
کوچک	1684
مصرف	1685
##an	1686
ساعت	1687
نسبت	1688
آل	1689
یان	1690
حاضر	1691
زیرا	1692
جو	1693
جام	1694
رشد	1695
ران	1696
پاسخ	1697
هفته	1698
##ذیر	1699
هوا	1700
ملی	1701
هزینه	1702
نده	1703
قط	1704
پا	1705
ردا	1706
بگیر	1707
##or	1708
##رات	1709
شورها	1710
##رسی	1711
آور	1712
دارای	1713
بررسی	1714
نف	1715
##ترل	1716
عالیت	1717
یلیون	1718
منطقه	1719
سل	1720
آموزش	1721
تل	1722
طر	1723
شا	1724
کامل	1725
حالی	1726
کنترل	1727
طال	1728
خوبی	1729
چشم	1730
##جر	1731
بالا	1732
سطح	1733
ارزش	1734
##er	1735
نزدیک	1736
سای	1737
برابر	1738
داخ	1739
چهار	1740
ثال	1741
نوی	1742
کلی	1743
##شی	1744
##ایط	1745
شرایط	1746
تبد	1747
پشت	1748
رسید	1749
گذاری	1750
سلام	1751
همر	1752
همراه	1753
تبدیل	1754
گزارش	1755
##وس	1756
صف	1757
سف	1758
رای	1759
مل	1760
مخ	1761
##افی	1762
دیریت	1763
تحت	1764
هزار	1765
رخ	1766
##گان	1767
گوید	1768
گذار	1769
عمل	1770
پایان	1771
بع	1772
نتیجه	1773
##ظه	1774
ترکی	1775
پنج	1776
آغ	1777
دسترس	1778
دوره	1779
خاطر	1780
یر	1781
حل	1782
رات	1783
##هنگ	1784
چون	1785
بلکه	1786
آر	1787
شدند	1788
کاربر	1789
تک	1790
داریم	1791
صحبت	1792
##وند	1793
اجازه	1794
پذیر	1795
##ضای	1796
مواد	1797
اغ	1798
شاید	1799
دنیا	1800
پزش	1801
##وز	1802
تعد	1803
قا	1804
فا	1805
##یب	1806
قد	1807
پول	1808
صن	1809
کمی	1810
بیمار	1811
##سم	1812
تعداد	1813
کردم	1814
فع	1815
یماری	1816
شناخت	1817
وض	1818
شکل	1819
عمولا	1820
نقل	1821
آغاز	1822
تق	1823
##وار	1824
مشت	1825
##مه	1826
دلار	1827
جمله	1828
مثل	1829
##لاح	1830
راب	1831
طرف	1832
دخ	1833
بند	1834
##مد	1835
آسی	1836
##یط	1837
شوید	1838
نگاه	1839
الات	1840
##یه	1841
بت	1842
رسد	1843
نظام	1844
طب	1845
##لای	1846
##رم	1847
واقعی	1848
##ابت	1849
هستید	1850
اتی	1851
آخر	1852
تحده	1853
صفح	1854
##ودی	1855
##شار	1856
خاص	1857
یعنی	1858
اض	1859
بح	1860
صد	1861
مناسب	1862
##اند	1863
اغلب	1864
واقعا	1865
مقد	1866
انر	1867
گیرد	1868
##بوط	1869
خواب	1870
نب	1871
خدمات	1872
رب	1873
امن	1874
رفتار	1875
خط	1876
##مایت	1877
حمایت	1878
مربوط	1879
##هور	1880
قیم	1881
اکن	1882
خون	1883
##in	1884
مدر	1885
زد	1886
سب	1887
##شق	1888
جان	1889
ابت	1890
طالعه	1891
##al	1892
بان	1893
لاز	1894
البت	1895
لازم	1896
داست	1897
کسانی	1898
البته	1899
عل	1900
تیم	1901
نگه	1902
پروژه	1903
انرژی	1904
زمینه	1905
عب	1906
مشخص	1907
قیمت	1908
زمایش	1909
سفر	1910
خرید	1911
ون	1912
شبکه	1913
نمایش	1914
راح	1915
واهد	1916
کمتر	1917
گیری	1918
اقتص	1919
اقتصا	1920
منظ	1921
##صر	1922
اعلام	1923
حم	1924
##اط	1925
آنجا	1926
لح	1927
اینجا	1928
رداخت	1929
جوی	1930
روسی	1931
مف	1932
موجود	1933
سیاست	1934
قری	1935
اکنون	1936
##ئیس	1937
بده	1938
##الب	1939
عکس	1940
تاثیر	1941
نهاد	1942
کافی	1943
ضر	1944
th	1945
رنگ	1946
سپس	1947
##عا	1948
واهیم	1949
پار	1950
توصی	1951
سایر	1952
ایده	1953
كه	1954
کنار	1955
تمرکز	1956
سریع	1957
##ته	1958
فرهنگ	1959
##ئن	1960
دوم	1961
##es	1962
نداشت	1963
سیاسی	1964
درک	1965
##ظا	1966
##راف	1967
انتظا	1968
لب	1969
داشتن	1970
وفق	1971
یشر	1972
قریبا	1973
انگل	1974
اقدام	1975
نقش	1976
##دی	1977
مالی	1978
طبیعی	1979
جامعه	1980
##تری	1981
شناس	1982
درد	1983
بهبود	1984
اساس	1985
آش	1986
خصوص	1987
یشرفت	1988
چنان	1989
نویس	1990
نگر	1991
مرگ	1992
هرگز	1993
روند	1994
ساخته	1995
تکن	1996
دارم	1997
سخت	1998
دارو	1999
ویژه	2000
کنندگ	2001
ولو	2002
پرس	2003
حساب	2004
موارد	2005
بعضی	2006
حف	2007
##زند	2008
خورد	2009
ساده	2010
ول	2011
سرا	2012
امکان	2013
حدا	2014
حرکت	2015
مک	2016
وفقیت	2017
حداقل	2018
بودن	2019
فرزند	2020
سخ	2021
##خه	2022
یسی	2023
فرا	2024
سرعت	2025
تخ	2026
##کم	2027
مغ	2028
رابطه	2029
بگ	2030
چر	2031
یون	2032
صفحه	2033
یافته	2034
آمد	2035
روسیه	2036
##ic	2037
علیه	2038
دقیق	2039
فرم	2040
عمومی	2041
خطر	2042
دهیم	2043
st	2044
دیده	2045
##هم	2046
شخصی	2047
فرص	2048
وش	2049
حقوق	2050
##داشت	2051
تف	2052
طی	2053
10	2054
##من	2055
آماده	2056
حفظ	2057
چیزها	2058
##یمی	2059
علاوه	2060
ترام	2061
گاهی	2062
داوند	2063
##en	2064
##ابع	2065
##ئل	2066
مندان	2067
حاف	2068
##سال	2069
##اپ	2070
##ادا	2071
عو	2072
نبود	2073
ازگ	2074
نمای	2075
##لاق	2076
##ران	2077
بخشی	2078
##اق	2079
##at	2080
##اله	2081
ترس	2082
##کتر	2083
پیو	2084
رئیس	2085
آنان	2086
ارد	2087
صرف	2088
نیرو	2089
مکان	2090
رگ	2091
قادر	2092
میزان	2093
امید	2094
داری	2095
یش	2096
##هن	2097
وضعیت	2098
ابزار	2099
##آمد	2100
حرفه	2101
##ذار	2102
گویند	2103
سراسر	2104
شی	2105
دانید	2106
ابتدا	2107
غر	2108
ماش	2109
سوی	2110
غذایی	2111
پدر	2112
جمع	2113
##قات	2114
دختر	2115
آسیب	2116
وس	2117
خوش	2118
رت	2119
بیر	2120
خش	2121
باور	2122
نظامی	2123
##کت	2124
نگران	2125
نتای	2126
آزاد	2127
مسئول	2128
آید	2129
نتایج	2130
خارجی	2131
کیف	2132
##تان	2133
##ظیم	2134
زیبا	2135
co	2136
سنگ	2137
##اح	2138
شکست	2139
##ویر	2140
خبر	2141
ناس	2142
##افق	2143
ملک	2144
گران	2145
گیرند	2146
اشت	2147
پایین	2148
تس	2149
مادر	2150
اثر	2151
رود	2152
##کو	2153
زیاد	2154
آمده	2155
فشار	2156
تصویر	2157
حقیق	2158
اخیر	2159
حقیقت	2160
ترن	2161
بتوان	2162
حض	2163
ستق	2164
جایی	2165
کدام	2166
هستیم	2167
دهه	2168
ساله	2169
جل	2170
بندی	2171
بینی	2172
مقدار	2173
تریان	2174
ورزش	2175
کوت	2176
طولان	2177
حضور	2178
##ظت	2179
نمود	2180
شاهده	2181
جذ	2182
لس	2183
بیان	2184
تجاری	2185
فعال	2186
بست	2187
هنر	2188
بودم	2189
اهدا	2190
گردد	2191
##st	2192
مسیر	2193
##ندان	2194
بیا	2195
منتشر	2196
هوش	2197
نشده	2198
سعی	2199
##یره	2200
توانا	2201
##re	2202
##وریه	2203
رز	2204
امنیت	2205
مرتب	2206
مهارت	2207
مدل	2208
##وب	2209
نور	2210
پوست	2211
##ومت	2212
##میت	2213
رژ	2214
##ئو	2215
##امبر	2216
##ونت	2217
##گیری	2218
بچه	2219
اضاف	2220
محیط	2221
کوتاه	2222
عالی	2223
اي	2224
نباید	2225
##فی	2226
اضافه	2227
معنی	2228
غذا	2229
##مئن	2230
##ایید	2231
##لق	2232
وزن	2233
ne	2234
تمر	2235
لذ	2236
فرصت	2237
راست	2238
طرح	2239
بگذار	2240
مطمئن	2241
اسرائ	2242
منابع	2243
ایشان	2244
حالا	2245
روشن	2246
مرح	2247
مست	2248
نج	2249
بو	2250
راتژی	2251
زا	2252
##بری	2253
رسانه	2254
re	2255
مرکز	2256
الله	2257
انی	2258
اکثر	2259
الت	2260
مردان	2261
منظور	2262
سمت	2263
ارز	2264
نوشت	2265
ساب	2266
مبت	2267
قای	2268
قتص	2269
##لیس	2270
قتصاد	2271
اندار	2272
چیست	2273
##تا	2274
##ابط	2275
بعدی	2276
##جب	2277
جنسی	2278
##لح	2279
محد	2280
شار	2281
ثبت	2282
رند	2283
گذاشت	2284
یات	2285
موفق	2286
##ac	2287
نوشته	2288
اعتما	2289
محدود	2290
کلید	2291
متو	2292
زده	2293
##ro	2294
بیرون	2295
اشاره	2296
##قدر	2297
رم	2298
##انس	2299
ستقیم	2300
##یدار	2301
روابط	2302
##خصص	2303
جنو	2304
شغ	2305
##ئم	2306
اتح	2307
اپ	2308
پیر	2309
توصیه	2310
حمله	2311
قس	2312
ترج	2313
مرحله	2314
علاقه	2315
##oo	2316
هستم	2317
بسته	2318
ماشین	2319
۱۰	2320
تشک	2321
باقی	2322
##های	2323
ملکرد	2324
کلا	2325
##تو	2326
جهت	2327
ترکیب	2328
دقی	2329
##غان	2330
فراه	2331
یابد	2332
ودتان	2333
دقیقه	2334
آسان	2335
خودش	2336
وید	2337
یز	2338
فراهم	2339
افغان	2340
اتحاد	2341
متوجه	2342
کر	2343
پرد	2344
منجر	2345
داخلی	2346
آرام	2347
برگ	2348
##ریک	2349
هسته	2350
اهمیت	2351
گرفتن	2352
توافق	2353
صاح	2354
##ضیح	2355
آگاه	2356
توضیح	2357
the	2358
##میز	2359
دادند	2360
گزینه	2361
جمو	2362
مذ	2363
جموعه	2364
فل	2365
صنعت	2366
بلند	2367
نرم	2368
##طان	2369
تشکیل	2370
سرطان	2371
مب	2372
نکن	2373
لین	2374
سالم	2375
اهداف	2376
قسمت	2377
##شید	2378
اتاق	2379
تمرین	2380
اً	2381
شدید	2382
عشق	2383
اله	2384
مار	2385
تحص	2386
جمهور	2387
رف	2388
سلول	2389
کاملا	2390
آخرین	2391
الی	2392
تحصیل	2393
##ستر	2394
##خیص	2395
تشخیص	2396
درآمد	2397
قطع	2398
داخل	2399
دام	2400
تلف	2401
دانند	2402
نیا	2403
##تیا	2404
بانک	2405
##ra	2406
##اهر	2407
نص	2408
پاک	2409
باشیم	2410
موزان	2411
##یش	2412
##جو	2413
شناسی	2414
اخت	2415
اقعیت	2416
حالت	2417
بینید	2418
جریان	2419
محل	2420
شیر	2421
حو	2422
نقلاب	2423
##صله	2424
ti	2425
تون	2426
فاصله	2427
##لیغ	2428
تمامی	2429
تبلیغ	2430
گان	2431
رژیم	2432
پشتیب	2433
مشتری	2434
بشر	2435
فصل	2436
##تل	2437
بهره	2438
مدرسه	2439
یو	2440
نهایت	2441
آزادی	2442
درون	2443
امر	2444
انوا	2445
رهبر	2446
پرداز	2447
شتب	2448
شتباه	2449
افتاد	2450
##il	2451
کردیم	2452
قلب	2453
مسا	2454
اجرا	2455
دود	2456
معت	2457
ریزی	2458
ژن	2459
دهنده	2460
بحث	2461
وع	2462
پزشکی	2463
آلمان	2464
انواع	2465
تعی	2466
نادا	2467
تعیین	2468
سترده	2469
زندان	2470
an	2471
سوریه	2472
مرتبط	2473
واهم	2474
کنان	2475
گستر	2476
وسیقی	2477
دع	2478
سفید	2479
مغز	2480
کیفیت	2481
ترنت	2482
ریا	2483
رگزار	2484
مسائل	2485
دهم	2486
عرض	2487
تهدید	2488
جوان	2489
رست	2490
مسئله	2491
ولوژی	2492
##نوع	2493
مناط	2494
مناطق	2495
سلامت	2496
چندین	2497
دنی	2498
##گیز	2499
اطمین	2500
جدا	2501
##لاین	2502
نلاین	2503
##شن	2504
پیما	2505
انگیز	2506
شخصیت	2507
ارسال	2508
لذت	2509
جست	2510
رآ	2511
ویژ	2512
خصوصی	2513
دول	2514
on	2515
##ادل	2516
طبق	2517
##قال	2518
درو	2519
نتقال	2520
کشف	2521
ساختم	2522
##واج	2523
زدواج	2524
پیام	2525
زنده	2526
مقاله	2527
حی	2528
فت	2529
لوگیر	2530
زای	2531
نسخه	2532
روح	2533
اسا	2534
نمونه	2535
al	2536
سوال	2537
سخن	2538
کجا	2539
کنون	2540
پزشک	2541
اولیه	2542
گوش	2543
جویان	2544
ذهن	2545
##ou	2546
تحلیل	2547
محلی	2548
بگو	2549
فوق	2550
لیارد	2551
ویژگی	2552
دوران	2553
رانسه	2554
نکنید	2555
تی	2556
کان	2557
راق	2558
خور	2559
اختیا	2560
##یدن	2561
تلفن	2562
##راق	2563
اعضای	2564
عراق	2565
وقعیت	2566
قوی	2567
##it	2568
پیوتر	2569
شنو	2570
##حال	2571
آت	2572
تجارت	2573
عا	2574
مهوری	2575
تأثیر	2576
مثبت	2577
وظ	2578
سوم	2579
موا	2580
عامل	2581
معرف	2582
ذیر	2583
اسپ	2584
چال	2585
سرد	2586
گرم	2587
عضو	2588
قرن	2589
تماس	2590
سود	2591
نیم	2592
وال	2593
##سا	2594
عق	2595
راحت	2596
اور	2597
پل	2598
کره	2599
افزار	2600
le	2601
تصور	2602
##الت	2603
آتش	2604
شبی	2605
##هان	2606
ونی	2607
الاتر	2608
ترک	2609
مدیر	2610
گن	2611
گسترش	2612
اعم	2613
دریا	2614
دانم	2615
ترکیه	2616
متر	2617
بات	2618
##el	2619
ازی	2620
رفتن	2621
وانین	2622
دگاه	2623
##دم	2624
پسر	2625
یچ	2626
میک	2627
صلح	2628
##زا	2629
دفا	2630
قل	2631
دفاع	2632
راج	2633
شنبه	2634
جدی	2635
ازگشت	2636
پژ	2637
دانست	2638
##قای	2639
خودرو	2640
فهم	2641
خیر	2642
ریکا	2643
تازه	2644
صدا	2645
لند	2646
تنظیم	2647
نقطه	2648
##گل	2649
حیوان	2650
اوقات	2651
آقای	2652
ترامپ	2653
en	2654
رسیده	2655
جدیدی	2656
ورد	2657
عبارت	2658
آدم	2659
شبیه	2660
ro	2661
یور	2662
خودم	2663
متخصص	2664
علی	2665
ing	2666
زیست	2667
اث	2668
##بور	2669
##is	2670
وری	2671
##قت	2672
پوش	2673
چقدر	2674
شدت	2675
بارزه	2676
قصد	2677
تمای	2678
نشانه	2679
صب	2680
مجبور	2681
##نه	2682
نفس	2683
عف	2684
نبا	2685
مدار	2686
##حل	2687
اطراف	2688
دنیای	2689
دکتر	2690
رج	2691
##زب	2692
نفت	2693
##ستی	2694
دگیری	2695
##بار	2696
اعمال	2697
##as	2698
سازد	2699
##ابه	2700
کال	2701
مسی	2702
##یات	2703
مال	2704
قدیمی	2705
عص	2706
##ظر	2707
میر	2708
##ازی	2709
پژوه	2710
حزب	2711
یانه	2712
مقابل	2713
تری	2714
هداشت	2715
پست	2716
ریز	2717
معرفی	2718
رک	2719
گوگل	2720
مشترک	2721
وجه	2722
##یتی	2723
دستور	2724
چطور	2725
ایگاه	2726
جمعیت	2727
ورشید	2728
جستجو	2729
##آن	2730
تال	2731
عه	2732
آورده	2733
مفید	2734
##ستا	2735
موت	2736
ماند	2737
صبح	2738
گل	2739
سرو	2740
دانیم	2741
سیاه	2742
فضای	2743
بس	2744
لع	2745
رسیدن	2746
معم	2747
پژوهش	2748
of	2749
عمر	2750
بنی	2751
خت	2752
te	2753
موثر	2754
رامو	2755
ازدید	2756
داند	2757
لباس	2758
حک	2759
انطور	2760
##الع	2761
مطالع	2762
قایسه	2763
##am	2764
رقابت	2765
روم	2766
نکته	2767
##اکر	2768
##وط	2769
لط	2770
##چار	2771
راموش	2772
رفته	2773
رسمی	2774
دچار	2775
عدم	2776
همسر	2777
راحتی	2778
نیروی	2779
روان	2780
هند	2781
علمی	2782
اجر	2783
ربین	2784
خلا	2785
ایت	2786
فردی	2787
اختار	2788
دندان	2789
زود	2790
حاصل	2791
قام	2792
مؤ	2793
قرآن	2794
##انیه	2795
روب	2796
خاصی	2797
هفت	2798
##قان	2799
خن	2800
ضد	2801
ژاپ	2802
##راح	2803
رقر	2804
ژاپن	2805
رقرار	2806
ch	2807
امام	2808
ظاهر	2809
وح	2810
جایگز	2811
منیتی	2812
##ویز	2813
نر	2814
شناسا	2815
پایه	2816
اشترا	2817
توانم	2818
پرواز	2819
دش	2820
نح	2821
برو	2822
##لات	2823
راقبت	2824
شش	2825
راف	2826
ملیات	2827
موتور	2828
کلاس	2829
مای	2830
تلویز	2831
رنج	2832
افتد	2833
لام	2834
##گار	2835
واح	2836
بپ	2837
فضا	2838
مشابه	2839
##عهد	2840
دین	2841
مدا	2842
دیج	2843
نیو	2844
حققان	2845
دولتی	2846
کشت	2847
واکن	2848
عرب	2849
دمو	2850
سبک	2851
منب	2852
واکنش	2853
خوردن	2854
##ri	2855
وسیله	2856
جالب	2857
##ریف	2858
منبع	2859
یزی	2860
20	2861
حکومت	2862
علائم	2863
تعریف	2864
بمان	2865
ارم	2866
درجه	2867
de	2868
عمی	2869
عمیق	2870
علت	2871
وزیر	2872
ماهی	2873
ودشان	2874
رتی	2875
دیجیت	2876
ابر	2877
کیل	2878
یب	2879
اسی	2880
ذخ	2881
مانده	2882
حذ	2883
تکر	2884
مبتلا	2885
لیست	2886
ضروری	2887
##ریم	2888
##ch	2889
هدایت	2890
دموکر	2891
لحظه	2892
حمل	2893
گون	2894
ائ	2895
سلامی	2896
شت	2897
##ay	2898
رشته	2899
ینگ	2900
متوس	2901
متوسط	2902
ندگان	2903
دشوار	2904
ستین	2905
بزر	2906
پلیس	2907
اگرچه	2908
بزرگی	2909
تکرار	2910
مطر	2911
##اها	2912
امور	2913
مطرح	2914
مواجه	2915
مانی	2916
حذف	2917
ثابت	2918
عاشق	2919
موجب	2920
اصلاح	2921
افزود	2922
نکرده	2923
شمالی	2924
se	2925
کلمه	2926
حافظت	2927
چالش	2928
##روت	2929
رساند	2930
سک	2931
کارت	2932
گردان	2933
جذب	2934
نما	2935
معنا	2936
##ابق	2937
محت	2938
ورود	2939
مدرن	2940
##بات	2941
الد	2942
درگیر	2943
زرگ	2944
##خش	2945
##ریه	2946
نجات	2947
ترو	2948
ثروت	2949
دانلو	2950
##ol	2951
استان	2952
آمیز	2953
##کید	2954
حوزه	2955
بیت	2956
اساسی	2957
##جم	2958
اردار	2959
واحد	2960
بگی	2961
الگو	2962
ma	2963
عوامل	2964
ذکر	2965
زل	2966
##یتا	2967
واسته	2968
داران	2969
موزش	2970
ماده	2971
تحد	2972
تلاف	2973
باد	2974
ریدار	2975
ویر	2976
ناب	2977
ارتش	2978
درس	2979
اتیک	2980
معمول	2981
##الف	2982
خانم	2983
داشتم	2984
اجرای	2985
خلق	2986
واندن	2987
سابقه	2988
گرا	2989
هیز	2990
مخالف	2991
30	2992
ستاره	2993
موزشی	2994
فایل	2995
اویر	2996
نشین	2997
ناک	2998
منتظر	2999
یگان	3000
اری	3001
حتو	3002
بگیرد	3003
حتوای	3004
برس	3005
کی	3006
آس	3007
اون	3008
معن	3009
تاب	3010
یچیده	3011
شه	3012
واره	3013
دیدن	3014
شغل	3015
معنای	3016
راهی	3017
اپل	3018
هاست	3019
##لیت	3020
شیم	3021
دری	3022
گذشت	3023
ناوری	3024
رض	3025
شیوه	3026
قبلی	3027
بحران	3028
گویید	3029
بله	3030
آنکه	3031
صدای	3032
##شا	3033
الدین	3034
کشته	3035
شدم	3036
کلیدی	3037
خشونت	3038
رتیب	3039
گام	3040
جواب	3041
مین	3042
اینها	3043
بریتا	3044
تام	3045
رهبری	3046
مگر	3047
قبلا	3048
خدمت	3049
مرک	3050
منح	3051
بالای	3052
شویم	3053
دلایل	3054
فریق	3055
لمان	3056
it	3057
تست	3058
تالیا	3059
دقیقا	3060
گفتند	3061
ادر	3062
متوق	3063
##بوب	3064
اسلام	3065
جنوبی	3066
انیا	3067
فریقا	3068
متوقف	3069
##لیا	3070
نسل	3071
قامات	3072
فرض	3073
عتب	3074
عتبار	3075
استرس	3076
پارک	3077
فار	3078
ظرف	3079
##ندس	3080
ساد	3081
ایمیل	3082
قه	3083
##یند	3084
at	3085
شارکت	3086
el	3087
مهندس	3088
حفا	3089
قبول	3090
رآیند	3091
سرویس	3092
##سب	3093
وشحال	3094
##us	3095
شماره	3096
بردار	3097
ذخیره	3098
ئی	3099
تض	3100
ویت	3101
علم	3102
وزار	3103
##زو	3104
ریس	3105
گذر	3106
باشم	3107
آوردن	3108
محبوب	3109
ناشی	3110
اعتقا	3111
وزارت	3112
ریم	3113
منفی	3114
رتبه	3115
##ایع	3116
مهمی	3117
اکت	3118
تمایل	3119
##ویت	3120
الع	3121
sh	3122
یشان	3123
to	3124
##ایست	3125
هوایی	3126
رالیا	3127
املا	3128
رور	3129
عرضه	3130
سق	3131
نماید	3132
بک	3133
زم	3134
یدن	3135
##جان	3136
سلاح	3137
tion	3138
کف	3139
کلمات	3140
تین	3141
كن	3142
دودیت	3143
مي	3144
موش	3145
اسم	3146
سون	3147
برخ	3148
تد	3149
##ad	3150
تقویت	3151
زدن	3152
com	3153
نرخ	3154
رح	3155
کشتی	3156
دروغ	3157
آفر	3158
ضعی	3159
شمار	3160
ضعیف	3161
##اص	3162
##ce	3163
اصلا	3164
پوشش	3165
اخلاق	3166
اين	3167
الیات	3168
کنی	3169
ابلیت	3170
نصب	3171
شگ	3172
معر	3173
روزی	3174
عام	3175
یند	3176
ارشد	3177
نهایی	3178
رها	3179
لول	3180
مشغ	3181
##id	3182
بستگی	3183
وار	3184
یابان	3185
تهیه	3186
سفار	3187
معرض	3188
15	3189
پدید	3190
املاً	3191
12	3192
زو	3193
هتل	3194
اظه	3195
اظهار	3196
لای	3197
##افر	3198
مسافر	3199
متح	3200
##شدار	3201
هشدار	3202
وم	3203
ادش	3204
or	3205
مور	3206
میش	3207
li	3208
نظارت	3209
مستقل	3210
me	3211
##le	3212
یسم	3213
تصاص	3214
شاور	3215
سگ	3216
نوشتن	3217
توی	3218
آفرین	3219
##سیم	3220
دسته	3221
صاحب	3222
ادعا	3223
قدم	3224
برسد	3225
وانان	3226
له	3227
تلال	3228
یزیکی	3229
مثلا	3230
خلاق	3231
عین	3232
گفتم	3233
آگاهی	3234
شگفت	3235
۲۰	3236
عوض	3237
میشود	3238
##لاگ	3239
سالگی	3240
ملل	3241
50	3242
جلو	3243
##ونگ	3244
صند	3245
برادر	3246
اهل	3247
تقسیم	3248
وعده	3249
منحصر	3250
رده	3251
چینی	3252
اداره	3253
حافظه	3254
عج	3255
مرکزی	3256
##آوری	3257
فیس	3258
خاک	3259
ودمان	3260
حاکم	3261
آسمان	3262
اقام	3263
حفاظت	3264
نند	3265
الان	3266
رغ	3267
##ریب	3268
غربی	3269
اقامت	3270
##سات	3271
چاپ	3272
نتشار	3273
مناف	3274
فن	3275
یست	3276
فرانس	3277
گناه	3278
محتوا	3279
مشغول	3280
##ot	3281
انتقا	3282
میکند	3283
یگ	3284
انده	3285
زئ	3286
پیوند	3287
بیاور	3288
گوشی	3289
##فتر	3290
آسیا	3291
##زای	3292
قربان	3293
##لفی	3294
ختلفی	3295
تایید	3296
اتم	3297
لامتی	3298
دفتر	3299
خواند	3300
نع	3301
یرو	3302
شهرها	3303
ببر	3304
جویی	3305
علوم	3306
طلا	3307
##اظ	3308
اصل	3309
لحاظ	3310
دف	3311
##ow	3312
غرب	3313
عادی	3314
ایمان	3315
کری	3316
مذه	3317
خرو	3318
##ve	3319
راغ	3320
ذیرفت	3321
ژو	3322
موس	3323
تفکر	3324
دقت	3325
عاد	3326
صنع	3327
کیلو	3328
ندر	3329
مطلب	3330
##قد	3331
الکتر	3332
سوخت	3333
منافع	3334
سبز	3335
بوک	3336
نباشد	3337
یکه	3338
هشت	3339
تحریم	3340
تولد	3341
جراحی	3342
دارا	3343
رخورد	3344
##ia	3345
بینیم	3346
اژ	3347
پیاده	3348
تضمین	3349
sp	3350
انوی	3351
طبقه	3352
قاب	3353
مپ	3354
استاد	3355
هایش	3356
بقی	3357
هل	3358
یده	3359
عهده	3360
ar	3361
یف	3362
نحوه	3363
تیک	3364
خوان	3365
معتقد	3366
رار	3367
كرد	3368
##سو	3369
##وده	3370
نگهدا	3371
عت	3372
متن	3373
فعلی	3374
شیمیا	3375
هاجر	3376
روغ	3377
ینه	3378
مسیح	3379
چرخه	3380
لعاده	3381
عربست	3382
تز	3383
نخست	3384
صنعتی	3385
بودجه	3386
خلاص	3387
قهوه	3388
هاجرت	3389
شع	3390
وند	3391
جنب	3392
رین	3393
طوری	3394
##زیک	3395
فرمود	3396
دیوار	3397
عادت	3398
چگونگ	3399
ادشاه	3400
میخ	3401
قی	3402
شمال	3403
تکنیک	3404
نین	3405
برق	3406
آموز	3407
جذاب	3408
نابود	3409
##زم	3410
آشکار	3411
##برد	3412
ریح	3413
دیدار	3414
رداشت	3415
باب	3416
امیدو	3417
گاز	3418
چهارم	3419
وام	3420
اره	3421
ایدار	3422
ضا	3423
بستان	3424
صاحبه	3425
کوه	3426
آشنا	3427
سین	3428
مید	3429
پرسش	3430
عجیب	3431
آیند	3432
رع	3433
عی	3434
تعهد	3435
##هوم	3436
اسک	3437
یهودی	3438
مفهوم	3439
توصیف	3440
##me	3441
رافیک	3442
زهای	3443
##زاد	3444
امپ	3445
عقب	3446
کد	3447
الق	3448
یرانی	3449
بلا	3450
منتقل	3451
جلسه	3452
ترجمه	3453
خروج	3454
##نان	3455
لاک	3456
بدهید	3457
وف	3458
##یح	3459
##مون	3460
نوزاد	3461
شاهد	3462
رحم	3463
روغن	3464
بودیم	3465
آمار	3466
طبیعت	3467
قطعا	3468
کارها	3469
وبلاگ	3470
ph	3471
سؤ	3472
##ضل	3473
نوعی	3474
تامین	3475
یخ	3476
وانند	3477
خشک	3478
ترجیح	3479
حملات	3480
نمایی	3481
نگی	3482
۳۰	3483
بدی	3484
گروهی	3485
برخور	3486
un	3487
اوا	3488
##ناک	3489
تعط	3490
متحان	3491
بدست	3492
صحنه	3493
مایل	3494
##روف	3495
بینند	3496
عفونت	3497
خویش	3498
اندو	3499
جزیره	3500
بردن	3501
##میل	3502
مقام	3503
ایمنی	3504
رایند	3505
ناسان	3506
جنوب	3507
زرگتر	3508
تعطیل	3509
جایزه	3510
بقیه	3511
بنا	3512
امضا	3513
رایش	3514
رمان	3515
مون	3516
ماس	3517
هیجان	3518
اعد	3519
دعوت	3520
طرناک	3521
مسلم	3522
فهمید	3523
حضر	3524
##ut	3525
ed	3526
ملت	3527
نقاط	3528
وانید	3529
عبور	3530
##مز	3531
ویتام	3532
ویروس	3533
اوایل	3534
رادی	3535
عدادی	3536
آگ	3537
##طین	3538
قاومت	3539
##ma	3540
کردید	3541
لینک	3542
متصل	3543
کانال	3544
##یو	3545
لاقات	3546
عودی	3547
قول	3548
یپ	3549
درستی	3550
یورک	3551
دس	3552
طات	3553
##قق	3554
گردید	3555
دیران	3556
تکمیل	3557
لسطین	3558
تئ	3559
ستم	3560
الهی	3561
تحمل	3562
اصول	3563
یافتن	3564
آزمون	3565
ازیگر	3566
برنده	3567
تشوی	3568
نیمه	3569
na	3570
وتب	3571
قرمز	3572
مهمتر	3573
وضع	3574
and	3575
شهری	3576
وتبال	3577
شانس	3578
رمز	3579
زئیات	3580
دب	3581
همکار	3582
دهان	3583
ندار	3584
معروف	3585
##شمن	3586
وظیف	3587
خنران	3588
دشمن	3589
شکن	3590
نژ	3591
##طب	3592
مخا	3593
موزه	3594
مرز	3595
رزمین	3596
وجهی	3597
بکش	3598
مخاطب	3599
##os	3600
انش	3601
عملی	3602
حساس	3603
زودی	3604
کلیسا	3605
تناب	3606
تشویق	3607
وین	3608
برده	3609
کارگر	3610
متع	3611
بطور	3612
عنا	3613
فرار	3614
یلادی	3615
باغ	3616
اتوم	3617
سایه	3618
هیزات	3619
for	3620
امیده	3621
بزن	3622
نتوان	3623
زایای	3624
چپ	3625
##مب	3626
ویدئو	3627
##pp	3628
پنهان	3629
انند	3630
تعامل	3631
نظریه	3632
انجمن	3633
یروزی	3634
بروز	3635
جنبش	3636
بروید	3637
عضل	3638
خواهی	3639
دهندگ	3640
سختی	3641
##دد	3642
تغذ	3643
فراتر	3644
pro	3645
وندان	3646
##اهد	3647
جنبه	3648
سلط	3649
وظیفه	3650
حکم	3651
مى	3652
اندن	3653
ایالت	3654
nt	3655
واس	3656
موق	3657
ریسک	3658
ثانیه	3659
خدای	3660
##تئ	3661
بهتری	3662
اتر	3663
زنند	3664
نگیزه	3665
حضرت	3666
زش	3667
صحی	3668
مانع	3669
ng	3670
بیدار	3671
پخش	3672
گفتگو	3673
تغذیه	3674
بیو	3675
کمپ	3676
is	3677
ic	3678
یکرد	3679
قابله	3680
##ضح	3681
واضح	3682
نکرد	3683
متی	3684
آرزو	3685
امسال	3686
سند	3687
یامبر	3688
تعادل	3689
اضافی	3690
دت	3691
داک	3692
مداوم	3693
واش	3694
بدان	3695
ممنوع	3696
حسین	3697
عظیم	3698
##چسب	3699
تامبر	3700
برچسب	3701
کارش	3702
شماست	3703
ad	3704
us	3705
فنی	3706
کشد	3707
مرور	3708
مقا	3709
بمب	3710
توزی	3711
ناپ	3712
مطالب	3713
نماز	3714
صحیح	3715
wor	3716
فض	3717
گفتن	3718
انویه	3719
mo	3720
رایی	3721
سیم	3722
تاکید	3723
چهره	3724
شغلی	3725
ra	3726
##گرم	3727
قلبی	3728
صاد	3729
سرگرم	3730
عداد	3731
آورند	3732
چربی	3733
پروتئ	3734
پیوست	3735
توزیع	3736
رط	3737
۱۵	3738
##تیک	3739
صادر	3740
هرمان	3741
عمولی	3742
سردگی	3743
سؤال	3744
ترا	3745
روستا	3746
بدهد	3747
خصوصا	3748
لز	3749
میوه	3750
لیم	3751
۵۰	3752
##ess	3753
نفو	3754
تور	3755
رسند	3756
پذیرش	3757
میدان	3758
داکثر	3759
يد	3760
تاسی	3761
جرم	3762
فدر	3763
##un	3764
##اهی	3765
خواهم	3766
nd	3767
##سف	3768
آث	3769
سیاره	3770
زنش	3771
سلمان	3772
گهان	3773
همچ	3774
مراحل	3775
مبل	3776
آثار	3777
راز	3778
شوم	3779
40	3780
حاد	3781
سنگین	3782
حیا	3783
زخ	3784
قت	3785
مجدد	3786
فی	3787
##ir	3788
ستج	3789
اشک	3790
بگویم	3791
یج	3792
داع	3793
همزم	3794
افکار	3795
فرمان	3796
متیاز	3797
نشست	3798
رضایت	3799
فارغ	3800
##زل	3801
خدام	3802
جع	3803
قتل	3804
یوم	3805
مطابق	3806
قاعد	3807
نیازی	3808
تخم	3809
رستاد	3810
قضا	3811
مها	3812
##گا	3813
محک	3814
صادق	3815
ستجوی	3816
آهنگ	3817
##چند	3818
هرچند	3819
بدین	3820
خاور	3821
مهاجر	3822
ستر	3823
بیمه	3824
سیگار	3825
نقا	3826
حاوی	3827
ــ	3828
نقشه	3829
لطفا	3830
رورش	3831
ارزان	3832
اندیش	3833
جاده	3834
ذاکر	3835
گین	3836
##سوب	3837
##زیه	3838
محسوب	3839
goo	3840
تهر	3841
دم	3842
دهی	3843
مجوز	3844
تهران	3845
be	3846
نفوذ	3847
وئ	3848
##ur	3849
ذاکره	3850
ac	3851
کده	3852
دهای	3853
تجزیه	3854
سور	3855
اتص	3856
سفارش	3857
گانه	3858
اتصال	3859
بهشت	3860
شورای	3861
یکسان	3862
بدتر	3863
کریس	3864
ge	3865
ریت	3866
ستون	3867
سهام	3868
وسیع	3869
تقد	3870
آبی	3871
گم	3872
سوء	3873
سابق	3874
bl	3875
شف	3876
اتو	3877
مساله	3878
محکوم	3879
زداشت	3880
راضی	3881
فرما	3882
عامله	3883
نژاد	3884
موقع	3885
25	3886
فهر	3887
sc	3888
طلاح	3889
کلیک	3890
کرب	3891
خلاصه	3892
فهرست	3893
صبر	3894
متعد	3895
بپرس	3896
تاسیس	3897
متعدد	3898
شوی	3899
دادها	3900
مصر	3901
بردی	3902
لندن	3903
موسسه	3904
رون	3905
ارتقا	3906
آهن	3907
طلب	3908
یتر	3909
واشنگ	3910
wi	3911
we	3912
ضع	3913
مبتنی	3914
ملا	3915
۱۲	3916
بینم	3917
موشک	3918
فضایی	3919
la	3920
درخت	3921
شنیده	3922
افتخا	3923
وه	3924
محمد	3925
عدالت	3926
##ent	3927
اثرات	3928
نندگی	3929
ip	3930
تمیز	3931
جشن	3932
کاف	3933
برند	3934
ریشه	3935
گیاه	3936
سطو	3937
میل	3938
ستگاه	3939
ساکن	3940
جر	3941
برمی	3942
گوشت	3943
مذاکر	3944
cl	3945
یض	3946
بیل	3947
تحول	3948
ساحل	3949
رنو	3950
زنی	3951
بال	3952
ساختن	3953
دیدم	3954
حرک	3955
هور	3956
گوییم	3957
مایید	3958
یس	3959
راساس	3960
بارها	3961
سقوط	3962
ببرید	3963
وپ	3964
##لس	3965
سنج	3966
جاد	3967
نیمی	3968
##اور	3969
کمبود	3970
رانسو	3971
لغ	3972
man	3973
مشهور	3974
هویت	3975
جانب	3976
##حص	3977
مشاور	3978
التحص	3979
کات	3980
اهیم	3981
سنت	3982
نبوده	3983
القوه	3984
ویا	3985
یك	3986
##ویس	3987
ri	3988
عرو	3989
ارچ	3990
ریف	3991
سازند	3992
تدری	3993
همچون	3994
تاز	3995
ذر	3996
زون	3997
ين	3998
شواهد	3999
اخیرا	4000
ماست	4001
کمتری	4002
سنتی	4003
60	4004
طیف	4005
پاری	4006
خانگی	4007
زس	4008
رش	4009
##ادار	4010
ستن	4011
دادم	4012
رستور	4013
اورزی	4014
زشکان	4015
11	4016
no	4017
##راض	4018
واژه	4019
ابسته	4020
بنویس	4021
پرسید	4022
زسازی	4023
ct	4024
ردش	4025
شاوره	4026
الانه	4027
یتان	4028
عماری	4029
ویدیو	4030
کث	4031
خورده	4032
والات	4033
رجسته	4034
عتراض	4035
ex	4036
##gl	4037
برتر	4038
##زیز	4039
ati	4040
مذهبی	4041
وبایل	4042
مایند	4043
تیر	4044
حجم	4045
مارس	4046
اکتبر	4047
دای	4048
عزیز	4049
تعجب	4050
انگشت	4051
نموده	4052
طع	4053
لود	4054
لاً	4055
وک	4056
مول	4057
سهم	4058
خاورم	4059
گشت	4060
گواهی	4061
عدد	4062
لمانی	4063
جاز	4064
هید	4065
مربی	4066
رادیو	4067
وکار	4068
خواهر	4069
گویم	4070
مکانی	4071
##ack	4072
ندارم	4073
##یید	4074
راوان	4075
di	4076
کب	4077
تأیید	4078
صفحات	4079
ردشگر	4080
##این	4081
مقدس	4082
بش	4083
مراسم	4084
قلال	4085
حیات	4086
رونده	4087
فلسف	4088
عیسی	4089
عناصر	4090
pl	4091
آزار	4092
ازه	4093
##موع	4094
مجموع	4095
ity	4096
آژ	4097
سالها	4098
مدتی	4099
لوله	4100
عصر	4101
جاری	4102
##oc	4103
فردا	4104
سینما	4105
سیل	4106
##ul	4107
مدارس	4108
خالی	4109
طراح	4110
ation	4111
شید	4112
##درس	4113
con	4114
سم	4115
هاي	4116
آدرس	4117
##ازش	4118
ایی	4119
معدن	4120
ردازش	4121
100	4122
مام	4123
ازنده	4124
کشید	4125
قاضی	4126
رید	4127
آژانس	4128
18	4129
شام	4130
قالب	4131
سوز	4132
مجلس	4133
سادگی	4134
شکر	4135
جنگل	4136
اثبات	4137
دمی	4138
لاف	4139
شوهر	4140
ابو	4141
سبب	4142
ولویت	4143
لن	4144
معتبر	4145
ذاه	4146
شریک	4147
##na	4148
سوئ	4149
زمینی	4150
تاریک	4151
ذاهای	4152
عید	4153
کتور	4154
روبرو	4155
دایی	4156
صنو	4157
##امب	4158
##...	4159
نسبتا	4160
دسامب	4161
صنوعی	4162
ابه	4163
قص	4164
منزل	4165
ماج	4166
et	4167
ازگار	4168
دگی	4169
انان	4170
وحشت	4171
سطوح	4172
hi	4173
##سن	4174
رسانی	4175
اشگاه	4176
قبال	4177
ازیکن	4178
نقاشی	4179
شیط	4180
ظهور	4181
##ثه	4182
لم	4183
گار	4184
ریستی	4185
مهمان	4186
نگلیس	4187
پاریس	4188
ion	4189
قلم	4190
یام	4191
##قب	4192
صدها	4193
دعا	4194
##مر	4195
نظیر	4196
کشوری	4197
googl	4198
بایست	4199
زب	4200
##um	4201
مجله	4202
شرقی	4203
راتور	4204
ادید	4205
عده	4206
##اک	4207
باما	4208
عمده	4209
اواخر	4210
نشد	4211
شفاف	4212
متاس	4213
مردی	4214
آرامش	4215
مود	4216
وامبر	4217
هات	4218
طالب	4219
پنجره	4220
پادا	4221
بیست	4222
ارک	4223
سرور	4224
وسایل	4225
پاداش	4226
دیابت	4227
##ولد	4228
ژوئن	4229
چای	4230
##آور	4231
فرست	4232
مدرک	4233
ماجرا	4234
امی	4235
خسته	4236
##پز	4237
درم	4238
سریال	4239
اردو	4240
آپ	4241
پیم	4242
میز	4243
سالان	4244
برگشت	4245
راجعه	4246
بزنید	4247
شیطان	4248
ادرات	4249
تشکر	4250
##art	4251
جادو	4252
حتما	4253
خشم	4254
مرده	4255
کوین	4256
ثبات	4257
حیط	4258
چندان	4259
منظم	4260
چرخ	4261
ظرفیت	4262
خب	4263
وای	4264
مشک	4265
عموم	4266
شرق	4267
نگاهی	4268
ونیکی	4269
خال	4270
##ge	4271
اوت	4272
واستم	4273
متولد	4274
كار	4275
آشپز	4276
جازات	4277
ماد	4278
استیک	4279
دیپ	4280
غنی	4281
نال	4282
یانیه	4283
متاسف	4284
[...	4285
دومین	4286
منطقی	4287
[...]	4288
ترد	4289
کپ	4290
سرش	4291
وانده	4292
چک	4293
هنری	4294
gh	4295
##ایف	4296
مکمل	4297
اکس	4298
مپانی	4299
ur	4300
جلب	4301
دي	4302
پیچ	4303
مندی	4304
##and	4305
ورزشی	4306
متعلق	4307
جور	4308
وشه	4309
مخفی	4310
زخم	4311
زاده	4312
یار	4313
هستی	4314
##ویل	4315
آموخت	4316
کمیته	4317
عصبی	4318
لایه	4319
ادیده	4320
زنج	4321
تماشا	4322
جاع	4323
ابتلا	4324
فو	4325
##کز	4326
رویدا	4327
مشکلی	4328
الم	4329
معلم	4330
تصاد	4331
انگار	4332
یدند	4333
##ویب	4334
ورم	4335
جنس	4336
صنایع	4337
تصادف	4338
ندگی	4339
تصویب	4340
جامع	4341
تکامل	4342
یونان	4343
موقت	4344
رسو	4345
وظایف	4346
انع	4347
ریاضی	4348
ناحی	4349
ورت	4350
نویسی	4351
خرد	4352
دمه	4353
کشیدن	4354
ورودی	4355
دبیر	4356
مبلغ	4357
انب	4358
سیون	4359
as	4360
الایی	4361
تغال	4362
خارجه	4363
بعدا	4364
قال	4365
##ap	4366
دیپلم	4367
نار	4368
بافت	4369
وقو	4370
بول	4371
اندا	4372
مراکز	4373
تردید	4374
روانی	4375
رغم	4376
هورمو	4377
ایع	4378
16	4379
تحویل	4380
پیشین	4381
اخبار	4382
شیدنی	4383
سان	4384
وست	4385
میده	4386
یمز	4387
ریاست	4388
لر	4389
گز	4390
##ue	4391
باتری	4392
مجاز	4393
زمست	4394
لزوم	4395
##لوم	4396
معلوم	4397
ماندن	4398
روزها	4399
العمل	4400
ec	4401
معی	4402
##all	4403
یگن	4404
اعدام	4405
ناحیه	4406
یح	4407
بگوید	4408
لان	4409
نقض	4410
گیرید	4411
غذای	4412
کفش	4413
ناه	4414
هاجم	4415
دائ	4416
رقم	4417
صاب	4418
یق	4419
نبرد	4420
تقا	4421
حر	4422
هیت	4423
یره	4424
روزه	4425
ضمن	4426
یشه	4427
##غذ	4428
معادل	4429
کاغذ	4430
الک	4431
نشود	4432
تأمین	4433
وقوع	4434
دائمی	4435
fi	4436
عربی	4437
فک	4438
##غل	4439
سته	4440
پرست	4441
فیلتر	4442
ستند	4443
تحریک	4444
صرفه	4445
خورید	4446
ni	4447
nce	4448
آیه	4449
کمپین	4450
حقو	4451
24	4452
وآوری	4453
برود	4454
انح	4455
امو	4456
##یاس	4457
شرط	4458
صندلی	4459
حقوقی	4460
سکو	4461
ستا	4462
نوج	4463
بماند	4464
رقی	4465
عقل	4466
کشیده	4467
رایج	4468
میکرو	4469
هستان	4470
am	4471
مبا	4472
##خند	4473
ریب	4474
do	4475
عوار	4476
##se	4477
ناخ	4478
فدرال	4479
حیطی	4480
عوارض	4481
رانه	4482
مزد	4483
رویا	4484
گرما	4485
کاخ	4486
پناه	4487
چاق	4488
##طاف	4489
الکل	4490
فقر	4491
نکات	4492
پارچه	4493
زنجیر	4494
14	4495
ویی	4496
نعطاف	4497
علام	4498
هیل	4499
نیستم	4500
رداند	4501
رندگ	4502
گمان	4503
دارک	4504
کاران	4505
مسکو	4506
مراقب	4507
لبخند	4508
ht	4509
آلب	4510
انس	4511
حادثه	4512
داعش	4513
رکو	4514
خراب	4515
یندوز	4516
ضعف	4517
لف	4518
کنگر	4519
قررات	4520
هدیه	4521
کانات	4522
پیمان	4523
سام	4524
چار	4525
بران	4526
بخشد	4527
جانبی	4528
رنده	4529
می‌	4530
رییس	4531
اکتری	4532
یانوس	4533
نفع	4534
mar	4535
آفت	4536
ذه	4537
دائم	4538
خطا	4539
مارک	4540
جی	4541
سسات	4542
نقد	4543
یورو	4544
موج	4545
باران	4546
۱۰۰	4547
بکن	4548
یدوار	4549
نظرات	4550
پرده	4551
##ریت	4552
الز	4553
گرچه	4554
سرب	4555
الهام	4556
آوری	4557
ضطر	4558
توپ	4559
امد	4560
گرسن	4561
آمدن	4562
tr	4563
شایع	4564
گراف	4565
راک	4566
برت	4567
معامل	4568
اسن	4569
عبد	4570
معیار	4571
غل	4572
ولت	4573
درحال	4574
داره	4575
خطوط	4576
رزه	4577
هایم	4578
تجدید	4579
نون	4580
کوپ	4581
ناسبی	4582
گا	4583
جسم	4584
كند	4585
کنه	4586
ایق	4587
ندا	4588
یدم	4589
شاخص	4590
فلز	4591
ضطراب	4592
em	4593
es	4594
تخص	4595
فه	4596
قوم	4597
لیک	4598
شوروی	4599
یشن	4600
برگرد	4601
زنشست	4602
بور	4603
شل	4604
هاب	4605
نیک	4606
گربه	4607
یابند	4608
یشگیر	4609
کنگره	4610
اورد	4611
نباش	4612
موریت	4613
آیت	4614
لاخ	4615
ژنتیک	4616
زوج	4617
یگنال	4618
bo	4619
عکا	4620
واب	4621
ریه	4622
لوک	4623
su	4624
۴۰	4625
##خل	4626
راد	4627
اندکی	4628
دادیم	4629
ریخت	4630
اندهی	4631
تازگی	4632
مکا	4633
نل	4634
مخدر	4635
جنسیت	4636
قضاوت	4637
عن	4638
یکیشن	4639
شاغل	4640
کالج	4641
تئوری	4642
جد	4643
یاری	4644
ارآمد	4645
محور	4646
بازان	4647
گویی	4648
وحش	4649
مداخل	4650
فلسفه	4651
عکاسی	4652
اذ	4653
##سیر	4654
یونی	4655
شیرین	4656
خالص	4657
ذهنی	4658
مز	4659
وژ	4660
توق	4661
متهم	4662
اقلی	4663
مقیاس	4664
تفسیر	4665
دفع	4666
لاخره	4667
po	4668
حاس	4669
خبری	4670
##ed	4671
یکار	4672
دلال	4673
لیب	4674
رنوشت	4675
حاسبه	4676
sa	4677
عار	4678
ازده	4679
اسیون	4680
13	4681
دون	4682
سئو	4683
سرخ	4684
گردند	4685
زیت	4686
مأ	4687
بهار	4688
هرچه	4689
رفع	4690
جداگ	4691
تقدند	4692
ري	4693
یایید	4694
اهن	4695
he	4696
ver	4697
غان	4698
بیاید	4699
دخانه	4700
پیروی	4701
کراین	4702
اتومب	4703
تراع	4704
علامت	4705
نات	4706
وج	4707
دراز	4708
راس	4709
ودکار	4710
فروخت	4711
اشکال	4712
قالات	4713
دزد	4714
رضا	4715
سرک	4716
شادی	4717
هکار	4718
کثریت	4719
da	4720
زرد	4721
شاد	4722
پورت	4723
آنقدر	4724
ناش	4725
ویز	4726
تجا	4727
دامنه	4728
ta	4729
وغ	4730
اصر	4731
اگ	4732
جغ	4733
هواره	4734
بدهی	4735
پارلم	4736
net	4737
ریتم	4738
تنوع	4739
لال	4740
چم	4741
##ta	4742
اربرد	4743
کتریک	4744
پولی	4745
ونز	4746
ترنتی	4747
تظ	4748
شایست	4749
الن	4750
تظاهر	4751
دال	4752
مرغ	4753
##ard	4754
نست	4755
موز	4756
اهانه	4757
کلام	4758
ضرب	4759
پارا	4760
فیزیک	4761
lo	4762
مجازی	4763
فرصتی	4764
خورند	4765
مؤثر	4766
لغو	4767
ght	4768
دترین	4769
##ئی	4770
اته	4771
اران	4772
اسب	4773
سافت	4774
جلسات	4775
راستا	4776
عروس	4777
نرا	4778
ننده	4779
##de	4780
میلی	4781
یکو	4782
دانه	4783
سوار	4784
آفتاب	4785
تجاوز	4786
ني	4787
وافق	4788
تبع	4789
حدوده	4790
صرفا	4791
توییت	4792
تزریق	4793
ناهند	4794
صار	4795
لات	4796
منص	4797
غریب	4798
ویل	4799
رام	4800
##زیل	4801
جغراف	4802
وافقت	4803
تیا	4804
حقی	4805
دمای	4806
غم	4807
برج	4808
شرح	4809
عالم	4810
دآوری	4811
هار	4812
پارت	4813
تاپ	4814
متنوع	4815
متعهد	4816
شکار	4817
گرام	4818
مستند	4819
ment	4820
تخصص	4821
همگی	4822
اوست	4823
واهان	4824
مسلح	4825
پروس	4826
بانکی	4827
زودتر	4828
رعایت	4829
سرکوب	4830
ثنا	4831
صوت	4832
آنتی	4833
فرید	4834
شکایت	4835
تجرب	4836
پدرش	4837
اسناد	4838
رسی	4839
رال	4840
##امع	4841
شدیم	4842
جوامع	4843
##est	4844
صندوق	4845
میدهد	4846
فوری	4847
بهینه	4848
قطار	4849
طرز	4850
کنونی	4851
ادرم	4852
تیاج	4853
لق	4854
وئیس	4855
ایمن	4856
کربن	4857
لودگی	4858
ie	4859
ومین	4860
##ie	4861
##la	4862
##ba	4863
تحقق	4864
رنگی	4865
تأکید	4866
قطعه	4867
حلقه	4868
راستی	4869
خام	4870
خنده	4871
عبا	4872
لکه	4873
##th	4874
ویه	4875
بدهند	4876
ربا	4877
ماری	4878
یمن	4879
ارچوب	4880
سینه	4881
ورا	4882
۲۵	4883
استر	4884
برسان	4885
دیوان	4886
ریک	4887
روزمر	4888
روشی	4889
لبنان	4890
راجع	4891
ندرت	4892
حیاتی	4893
90	4894
پلت	4895
اطرات	4896
int	4897
جعبه	4898
ضب	4899
قف	4900
اجبار	4901
جمعه	4902
واردی	4903
ضربه	4904
وریسم	4905
17	4906
سازید	4907
نگار	4908
ابع	4909
دیدتر	4910
شکلی	4911
گذارن	4912
##شناس	4913
توده	4914
حین	4915
اشتبا	4916
عصبان	4917
سوئد	4918
نالد	4919
قو	4920
۶۰	4921
درخش	4922
دیو	4923
لوب	4924
مکزیک	4925
یسیون	4926
اتخا	4927
الح	4928
کشان	4929
ردمی	4930
یلند	4931
عنصر	4932
رأ	4933
طلاق	4934
لاها	4935
ير	4936
برزیل	4937
بیند	4938
شنید	4939
ندهید	4940
جلوی	4941
بنیان	4942
فکری	4943
ئید	4944
اراده	4945
یدگی	4946
واسط	4947
سار	4948
رسان	4949
الزام	4950
اتخاذ	4951
app	4952
زید	4953
ظاه	4954
وط	4955
پان	4956
یکر	4957
خودت	4958
نامزد	4959
دلاری	4960
آورید	4961
خوراک	4962
ونیست	4963
ظاهرا	4964
شیدن	4965
يا	4966
##مور	4967
اتور	4968
دانی	4969
خبرنگ	4970
ایتخت	4971
سکوت	4972
قیام	4973
زین	4974
سیر	4975
۱۸	4976
نظم	4977
الکیت	4978
تابع	4979
ذب	4980
يک	4981
یغ	4982
##وص	4983
غیره	4984
گرفتم	4985
آوریل	4986
آمدند	4987
لسلام	4988
تقاضا	4989
هه	4990
هک	4991
گرایی	4992
نشسته	4993
هیو	4994
جمعی	4995
زایم	4996
تمایز	4997
بپذیر	4998
سنجی	4999
