{
  "version": "1.0",
  "truncation": null,
  "padding": null,
  "added_tokens": [
    {
      "id": 0,
      "content": "[UNK]",
      "single_word": false,
      "lstrip": false,
      "rstrip": false,
      "normalized": false,
      "special": true
    },
    {
      "id": 1,
      "content": "[CLS]",
      "single_word": false,
      "lstrip": false,
      "rstrip": false,
      "normalized": false,
      "special": true
    },
    {
      "id": 2,
      "content": "[SEP]",
      "single_word": false,
      "lstrip": false,
      "rstrip": false,
      "normalized": false,
      "special": true
    },
    {
      "id": 3,
      "content": "[PAD]",
      "single_word": false,
      "lstrip": false,
      "rstrip": false,
      "normalized": false,
      "special": true
    },
    {
      "id": 4,
      "content": "[MASK]",
      "single_word": false,
      "lstrip": false,
      "rstrip": false,
      "normalized": false,
      "special": true
    }
  ],
  "normalizer": {
    "type": "Sequence",
    "normalizers": [
      {
        "type": "NFKC"
      },
      {
        "type": "Lowercase"
      }
    ]
  },
  "pre_tokenizer": {
    "type": "Whitespace"
  },
  "post_processor": null,
  "decoder": {
    "type": "WordPiece",
    "prefix": "##",
    "cleanup": true
  },
  "model": {
    "type": "WordPiece",
    "unk_token": "[UNK]",
    "continuing_subword_prefix": "##",
    "max_input_chars_per_word": 100,
    "vocab": {
      "[UNK]": 0,
      "[CLS]": 1,
      "[SEP]": 2,
      "[PAD]": 3,
      "[MASK]": 4,
      "!": 5,
      "\"": 6,
      "#": 7,
      "$": 8,
      "%": 9,
      "&": 10,
      "'": 11,
      "(": 12,
      ")": 13,
      "*": 14,
      "+": 15,
      ",": 16,
      "-": 17,
      ".": 18,
      "/": 19,
      "0": 20,
      "1": 21,
      "2": 22,
      "3": 23,
      "4": 24,
      "5": 25,
      "6": 26,
      "7": 27,
      "8": 28,
      "9": 29,
      ":": 30,
      ";": 31,
      "<": 32,
      "=": 33,
      ">": 34,
      "?": 35,
      "@": 36,
      "[": 37,
      "\\": 38,
      "]": 39,
      "_": 40,
      "`": 41,
      "a": 42,
      "b": 43,
      "c": 44,
      "d": 45,
      "e": 46,
      "f": 47,
      "g": 48,
      "h": 49,
      "i": 50,
      "j": 51,
      "k": 52,
      "l": 53,
      "m": 54,
      "n": 55,
      "o": 56,
      "p": 57,
      "q": 58,
      "r": 59,
      "s": 60,
      "t": 61,
      "u": 62,
      "v": 63,
      "w": 64,
      "x": 65,
      "y": 66,
      "z": 67,
      "~": 68,
      "": 69,
      "": 70,
      "": 71,
      "¡": 72,
      "¤": 73,
      "§": 74,
      "©": 75,
      "­": 76,
      "®": 77,
      "°": 78,
      "±": 79,
      "¶": 80,
      "·": 81,
      "×": 82,
      "ß": 83,
      "à": 84,
      "á": 85,
      "â": 86,
      "ã": 87,
      "ä": 88,
      "å": 89,
      "æ": 90,
      "ç": 91,
      "è": 92,
      "é": 93,
      "ê": 94,
      "ë": 95,
      "ì": 96,
      "í": 97,
      "î": 98,
      "ï": 99,
      "ð": 100,
      "ñ": 101,
      "ò": 102,
      "ó": 103,
      "ô": 104,
      "õ": 105,
      "ö": 106,
      "ø": 107,
      "ú": 108,
      "û": 109,
      "ü": 110,
      "ý": 111,
      "þ": 112,
      "ÿ": 113,
      "ā": 114,
      "ă": 115,
      "ą": 116,
      "ć": 117,
      "č": 118,
      "đ": 119,
      "ē": 120,
      "ė": 121,
      "ę": 122,
      "ě": 123,
      "ğ": 124,
      "ģ": 125,
      "ī": 126,
      "ı": 127,
      "ķ": 128,
      "ľ": 129,
      "ł": 130,
      "ń": 131,
      "ņ": 132,
      "ň": 133,
      "ō": 134,
      "ŏ": 135,
      "œ": 136,
      "ř": 137,
      "ś": 138,
      "ş": 139,
      "š": 140,
      "ū": 141,
      "ů": 142,
      "ų": 143,
      "ź": 144,
      "ż": 145,
      "ž": 146,
      "ǎ": 147,
      "ș": 148,
      "ț": 149,
      "ə": 150,
      "˗": 151,
      "́": 152,
      "̇": 153,
      "̈": 154,
      "α": 155,
      "μ": 156,
      "а": 157,
      "б": 158,
      "в": 159,
      "г": 160,
      "д": 161,
      "е": 162,
      "ж": 163,
      "з": 164,
      "и": 165,
      "й": 166,
      "к": 167,
      "л": 168,
      "м": 169,
      "н": 170,
      "о": 171,
      "п": 172,
      "р": 173,
      "с": 174,
      "т": 175,
      "у": 176,
      "ф": 177,
      "х": 178,
      "ц": 179,
      "ч": 180,
      "ш": 181,
      "щ": 182,
      "ы": 183,
      "ь": 184,
      "э": 185,
      "ю": 186,
      "я": 187,
      "ỏ": 188,
      "ố": 189,
      "‍": 190,
      "‐": 191,
      "‒": 192,
      "•": 193,
      "‰": 194,
      "′": 195,
      "⁄": 196,
      "⁣": 197,
      "€": 198,
      "−": 199,
      "∞": 200,
      "■": 201,
      "●": 202,
      "★": 203,
      "⭐": 204,
      "😂": 205,
      "🤌": 206,
      "##i": 207,
      "##s": 208,
      "##h": 209,
      "##n": 210,
      "##e": 211,
      "##m": 212,
      "##a": 213,
      "##l": 214,
      "##d": 215,
      "##k": 216,
      "##u": 217,
      "##p": 218,
      "##c": 219,
      "##5": 220,
      "##2": 221,
      "##r": 222,
      "##ä": 223,
      "##t": 224,
      "##o": 225,
      "##f": 226,
      "##ö": 227,
      "##4": 228,
      "##1": 229,
      "##á": 230,
      "##z": 231,
      "##b": 232,
      "##x": 233,
      "##6": 234,
      "##y": 235,
      "##g": 236,
      "##v": 237,
      "##í": 238,
      "##w": 239,
      "##:": 240,
      "##é": 241,
      "##j": 242,
      "##3": 243,
      "##æ": 244,
      "##ü": 245,
      "##ú": 246,
      "##н": 247,
      "##ю": 248,
      "##å": 249,
      "##7": 250,
      "##š": 251,
      "##ы": 252,
      "##с": 253,
      "##т": 254,
      "##у": 255,
      "##ò": 256,
      "##и": 257,
      "##,": 258,
      "##0": 259,
      "##q": 260,
      "##о": 261,
      "##ó": 262,
      "##8": 263,
      "##ø": 264,
      "##е": 265,
      "##м": 266,
      "##9": 267,
      "##р": 268,
      "##в": 269,
      "##я": 270,
      "##щ": 271,
      "##а": 272,
      "##ė": 273,
      "##.": 274,
      "##ê": 275,
      "##л": 276,
      "##)": 277,
      "##ñ": 278,
      "##ț": 279,
      "##è": 280,
      "##ž": 281,
      "##й": 282,
      "##ì": 283,
      "##č": 284,
      "##ж": 285,
      "##к": 286,
      "##ń": 287,
      "##ÿ": 288,
      "##%": 289,
      "##ï": 290,
      "##ã": 291,
      "##б": 292,
      "##ł": 293,
      "##ь": 294,
      "##д": 295,
      "##п": 296,
      "##ë": 297,
      "##à": 298,
      "##­": 299,
      "##-": 300,
      "##ç": 301,
      "##ч": 302,
      "##ð": 303,
      "##ņ": 304,
      "##ć": 305,
      "##\"": 306,
      "##ū": 307,
      "##ě": 308,
      "##ō": 309,
      "##ŏ": 310,
      "##★": 311,
      "##ß": 312,
      "##х": 313,
      "##г": 314,
      "##ą": 315,
      "##з": 316,
      "##â": 317,
      "##ř": 318,
      "##ý": 319,
      "##ę": 320,
      "##î": 321,
      "##/": 322,
      "##ô": 323,
      "##*": 324,
      "##ź": 325,
      "##ă": 326,
      "##ố": 327,
      "##œ": 328,
      "##ā": 329,
      "##]": 330,
      "##ə": 331,
      "##ň": 332,
      "##ų": 333,
      "##ỏ": 334,
      "##∞": 335,
      "##ś": 336,
      "##?": 337,
      "##õ": 338,
      "##ů": 339,
      "##§": 340,
      "##ğ": 341,
      "##+": 342,
      "##>": 343,
      "##ģ": 344,
      "##ǎ": 345,
      "##ż": 346,
      "##′": 347,
      "##̇": 348,
      "##!": 349,
      "##ı": 350,
      "##ц": 351,
      "##ta": 352,
      "##en": 353,
      "##is": 354,
      "##in": 355,
      "##an": 356,
      "##sa": 357,
      "ta": 358,
      "##si": 359,
      "##tä": 360,
      "##ll": 361,
      "ll": 362,
      "##ti": 363,
      "en": 364,
      "an": 365,
      "is": 366,
      "ja": 367,
      "on": 368,
      "##ut": 369,
      "##ka": 370,
      "##li": 371,
      "in": 372,
      "##it": 373,
      "##än": 374,
      "##el": 375,
      "tu": 376,
      "##ik": 377,
      "va": 378,
      "et": 379,
      "##se": 380,
      "##er": 381,
      "##to": 382,
      "##aa": 383,
      "al": 384,
      "jo": 385,
      "ko": 386,
      "ku": 387,
      "uo": 388,
      "tä": 389,
      "ti": 390,
      "ssa": 391,
      "##va": 392,
      "##ki": 393,
      "##te": 394,
      "##tu": 395,
      "##sä": 396,
      "##uo": 397,
      "##oi": 398,
      "##me": 399,
      "ei": 400,
      "ka": 401,
      "er": 402,
      "##us": 403,
      "##ko": 404,
      "##es": 405,
      "##ke": 406,
      "aa": 407,
      "ol": 408,
      "##yt": 409,
      "te": 410,
      "ar": 411,
      "##de": 412,
      "si": 413,
      "la": 414,
      "lla": 415,
      "es": 416,
      "as": 417,
      "##ää": 418,
      "se": 419,
      "##ja": 420,
      "##ma": 421,
      "ma": 422,
      "sta": 423,
      "il": 424,
      "##yö": 425,
      "##et": 426,
      "oli": 427,
      "sa": 428,
      "##lla": 429,
      "että": 430,
      "vi": 431,
      "##mi": 432,
      "ai": 433,
      "na": 434,
      "##ksi": 435,
      "##ra": 436,
      "el": 437,
      "uu": 438,
      "pa": 439,
      "hän": 440,
      "än": 441,
      "##den": 442,
      "nn": 443,
      "lle": 444,
      "##on": 445,
      "##ku": 446,
      "nä": 447,
      "##uu": 448,
      "##ty": 449,
      "##kse": 450,
      "##ri": 451,
      "us": 452,
      "to": 453,
      "at": 454,
      "##pa": 455,
      "##na": 456,
      "ni": 457,
      "##la": 458,
      "##ät": 459,
      "##mm": 460,
      "it": 461,
      "##lle": 462,
      "mi": 463,
      "##vat": 464,
      "##ks": 465,
      "##he": 466,
      "##hd": 467,
      "ra": 468,
      "##vi": 469,
      "kun": 470,
      "##mp": 471,
      "ne": 472,
      "##ro": 473,
      "ki": 474,
      "ia": 475,
      "ssä": 476,
      "ais": 477,
      "##llä": 478,
      "jä": 479,
      "kä": 480,
      "##kaan": 481,
      "myö": 482,
      "llis": 483,
      "lä": 484,
      "ha": 485,
      "##lo": 486,
      "##ul": 487,
      "nen": 488,
      "aik": 489,
      "un": 490,
      "##ssa": 491,
      "oi": 492,
      "llä": 493,
      "##kä": 494,
      "ukaan": 495,
      "##ina": 496,
      "ty": 497,
      "ole": 498,
      "##utta": 499,
      "no": 500,
      "##ne": 501,
      "taa": 502,
      "##rj": 503,
      "vä": 504,
      "##le": 505,
      "yh": 506,
      "suo": 507,
      "##il": 508,
      "au": 509,
      "ih": 510,
      "ii": 511,
      "myös": 512,
      "pää": 513,
      "ot": 514,
      "ää": 515,
      "le": 516,
      "san": 517,
      "##mis": 518,
      "ke": 519,
      "tta": 520,
      "##vo": 521,
      "pi": 522,
      "nyt": 523,
      "##ys": 524,
      "saa": 525,
      "sen": 526,
      "li": 527,
      "stä": 528,
      "po": 529,
      "ksi": 530,
      "mu": 531,
      "ur": 532,
      "sy": 533,
      "##isi": 534,
      "ista": 535,
      "aan": 536,
      "##tel": 537,
      "per": 538,
      "##pp": 539,
      "issa": 540,
      "kin": 541,
      "uk": 542,
      "##sta": 543,
      "##lli": 544,
      "toi": 545,
      "aj": 546,
      "voi": 547,
      "##ine": 548,
      "##mä": 549,
      "pu": 550,
      "so": 551,
      "aika": 552,
      "tti": 553,
      "##ha": 554,
      "ys": 555,
      "mutta": 556,
      "ie": 557,
      "ten": 558,
      "##kk": 559,
      "he": 560,
      "##vä": 561,
      "erto": 562,
      "esi": 563,
      "ovat": 564,
      "lo": 565,
      "##tö": 566,
      "ul": 567,
      "iin": 568,
      "asi": 569,
      "##oit": 570,
      "tun": 571,
      "vat": 572,
      "or": 573,
      "##ot": 574,
      "nut": 575,
      "tel": 576,
      "min": 577,
      "val": 578,
      "##taa": 579,
      "iden": 580,
      "kse": 581,
      "os": 582,
      "oh": 583,
      "tie": 584,
      "oit": 585,
      "kau": 586,
      "sano": 587,
      "lta": 588,
      "maa": 589,
      "vuo": 590,
      "##ise": 591,
      "##ni": 592,
      "itä": 593,
      "##ike": 594,
      "hy": 595,
      "lu": 596,
      "inen": 597,
      "ään": 598,
      "ttiin": 599,
      "työ": 600,
      "osa": 601,
      "eh": 602,
      "tila": 603,
      "ukse": 604,
      "tai": 605,
      "op": 606,
      "toimi": 607,
      "vii": 608,
      "tää": 609,
      "mä": 610,
      "jen": 611,
      "iik": 612,
      "oll": 613,
      "##ee": 614,
      "ttu": 615,
      "##ia": 616,
      "tapa": 617,
      "##ulu": 618,
      "uus": 619,
      "eu": 620,
      "aut": 621,
      "##ten": 622,
      "ien": 623,
      "nta": 624,
      "läh": 625,
      "ala": 626,
      "suu": 627,
      "nsa": 628,
      "##jä": 629,
      "taj": 630,
      "ky": 631,
      "tan": 632,
      "ro": 633,
      "ille": 634,
      "kes": 635,
      "##ist": 636,
      "ter": 637,
      "ah": 638,
      "pä": 639,
      "##kin": 640,
      "##inen": 641,
      "alu": 642,
      "ker": 643,
      "vasta": 644,
      "ed": 645,
      "##jo": 646,
      "äs": 647,
      "ollut": 648,
      "illa": 649,
      "jäl": 650,
      "viime": 651,
      "ita": 652,
      "ise": 653,
      "mis": 654,
      "esti": 655,
      "re": 656,
      "alla": 657,
      "tar": 658,
      "uol": 659,
      "##st": 660,
      "##vät": 661,
      "ertoo": 662,
      "uon": 663,
      "##pi": 664,
      "##ve": 665,
      "ut": 666,
      "ensi": 667,
      "enn": 668,
      "oike": 669,
      "esta": 670,
      "ven": 671,
      "täm": 672,
      "su": 673,
      "ri": 674,
      "tus": 675,
      "taina": 676,
      "nne": 677,
      "koko": 678,
      "niin": 679,
      "yksi": 680,
      "sto": 681,
      "uut": 682,
      "joka": 683,
      "ilta": 684,
      "##men": 685,
      "jälke": 686,
      "venä": 687,
      "men": 688,
      "eri": 689,
      "iä": 690,
      "kan": 691,
      "ttä": 692,
      "ak": 693,
      "ap": 694,
      "##hdo": 695,
      "tö": 696,
      "##rit": 697,
      "yhte": 698,
      "isi": 699,
      "##vu": 700,
      "pel": 701,
      "##ite": 702,
      "kuin": 703,
      "anssa": 704,
      "tuo": 705,
      "##elä": 706,
      "ase": 707,
      "yl": 708,
      "tam": 709,
      "taja": 710,
      "een": 711,
      "ilu": 712,
      "##no": 713,
      "am": 714,
      "muu": 715,
      "##do": 716,
      "tän": 717,
      "halli": 718,
      "vaa": 719,
      "uonna": 720,
      "päi": 721,
      "itse": 722,
      "##so": 723,
      "asia": 724,
      "##rä": 725,
      "##pä": 726,
      "oliis": 727,
      "koh": 728,
      "##ky": 729,
      "var": 730,
      "eis": 731,
      "##itä": 732,
      "taan": 733,
      "venäj": 734,
      "mme": 735,
      "sai": 736,
      "isä": 737,
      "olisi": 738,
      "jos": 739,
      "hänen": 740,
      "nkin": 741,
      "uh": 742,
      "tule": 743,
      "##tka": 744,
      "joh": 745,
      "tut": 746,
      "uomen": 747,
      "vai": 748,
      "iit": 749,
      "seu": 750,
      "äi": 751,
      "käyt": 752,
      "##ppu": 753,
      "ana": 754,
      "##mo": 755,
      "##llo": 756,
      "suome": 757,
      "essa": 758,
      "teh": 759,
      "yli": 760,
      "##ska": 761,
      "sanoo": 762,
      "sti": 763,
      "hel": 764,
      "ik": 765,
      "elä": 766,
      "##rja": 767,
      "uot": 768,
      "huo": 769,
      "auto": 770,
      "mer": 771,
      "sä": 772,
      "##ikk": 773,
      "##uk": 774,
      "sam": 775,
      "kuite": 776,
      "mies": 777,
      "##lu": 778,
      "luo": 779,
      "rk": 780,
      "##mme": 781,
      "asti": 782,
      "##vin": 783,
      "tanut": 784,
      "nto": 785,
      "täv": 786,
      "me": 787,
      "vät": 788,
      "##kö": 789,
      "yö": 790,
      "oma": 791,
      "ry": 792,
      "tapah": 793,
      "seura": 794,
      "##tää": 795,
      "pr": 796,
      "##tio": 797,
      "ve": 798,
      "oulu": 799,
      "yhd": 800,
      "ir": 801,
      "##un": 802,
      "ihin": 803,
      "##da": 804,
      "kuva": 805,
      "##kus": 806,
      "teri": 807,
      "##vel": 808,
      "##00": 809,
      "syy": 810,
      "##emm": 811,
      "uude": 812,
      "yy": 813,
      "tur": 814,
      "uoden": 815,
      "euro": 816,
      "##esti": 817,
      "assa": 818,
      "ohj": 819,
      "##utu": 820,
      "mar": 821,
      "ainen": 822,
      "uksi": 823,
      "ui": 824,
      "oikeu": 825,
      "sekä": 826,
      "ident": 827,
      "##kaa": 828,
      "käy": 829,
      "ukku": 830,
      "epä": 831,
      "van": 832,
      "kat": 833,
      "tukse": 834,
      "kol": 835,
      "aikki": 836,
      "ju": 837,
      "olla": 838,
      "ottel": 839,
      "perus": 840,
      "mää": 841,
      "maan": 842,
      "pres": 843,
      "ihmis": 844,
      "de": 845,
      "##kem": 846,
      "ava": 847,
      "lais": 848,
      "ukkue": 849,
      "vielä": 850,
      "yt": 851,
      "av": 852,
      "alais": 853,
      "tr": 854,
      "suom": 855,
      "##isä": 856,
      "tse": 857,
      "istä": 858,
      "näyt": 859,
      "##ino": 860,
      "##dot": 861,
      "jat": 862,
      "lö": 863,
      "lin": 864,
      "##ikä": 865,
      "vuoti": 866,
      "par": 867,
      "ee": 868,
      "yrit": 869,
      "eli": 870,
      "##pe": 871,
      "isto": 872,
      "stu": 873,
      "ua": 874,
      "vir": 875,
      "##rjo": 876,
      "mahdo": 877,
      "uussa": 878,
      "uole": 879,
      "nte": 880,
      "##tti": 881,
      "poh": 882,
      "ertoi": 883,
      "##rje": 884,
      "päivä": 885,
      "issä": 886,
      "vain": 887,
      "nsä": 888,
      "väli": 889,
      "tämä": 890,
      "neet": 891,
      "##man": 892,
      "nki": 893,
      "tav": 894,
      "ver": 895,
      "##di": 896,
      "kaa": 897,
      "##tei": 898,
      "aina": 899,
      "ng": 900,
      "pe": 901,
      "esime": 902,
      "ks": 903,
      "siitä": 904,
      "##yty": 905,
      "ent": 906,
      "##rai": 907,
      "talo": 908,
      "den": 909,
      "##mu": 910,
      "aja": 911,
      "vuosi": 912,
      "##po": 913,
      "pro": 914,
      "##mpi": 915,
      "asu": 916,
      "pal": 917,
      "##aaj": 918,
      "ukrai": 919,
      "suur": 920,
      "ät": 921,
      "ina": 922,
      "nais": 923,
      "ykse": 924,
      "mie": 925,
      "kor": 926,
      "emm": 927,
      "##iks": 928,
      "tutki": 929,
      "ede": 930,
      "##gi": 931,
      "kis": 932,
      "mm": 933,
      "anna": 934,
      "itten": 935,
      "muut": 936,
      "sitä": 937,
      "sel": 938,
      "iih": 939,
      "sanoi": 940,
      "oin": 941,
      "##vio": 942,
      "jul": 943,
      "##ga": 944,
      "rkiks": 945,
      "use": 946,
      "kul": 947,
      "ote": 948,
      "jää": 949,
      "tark": 950,
      "ier": 951,
      "aikut": 952,
      "##lö": 953,
      "pit": 954,
      "kas": 955,
      "puo": 956,
      "järje": 957,
      "nkilö": 958,
      "liik": 959,
      "määrä": 960,
      "alj": 961,
      "##täv": 962,
      "mon": 963,
      "minis": 964,
      "noin": 965,
      "pun": 966,
      "alle": 967,
      "asta": 968,
      "äl": 969,
      "aali": 970,
      "aljon": 971,
      "haa": 972,
      "ill": 973,
      "uun": 974,
      "##tee": 975,
      "voit": 976,
      "aus": 977,
      "lait": 978,
      "turva": 979,
      "eskus": 980,
      "##op": 981,
      "##or": 982,
      "kaksi": 983,
      "##ir": 984,
      "alta": 985,
      "uusi": 986,
      "tava": 987,
      "my": 988,
      "ist": 989,
      "##ilm": 990,
      "olev": 991,
      "aailm": 992,
      "uuta": 993,
      "är": 994,
      "mit": 995,
      "ou": 996,
      "jossa": 997,
      "ennen": 998,
      "alvel": 999,
      "isäks": 1000,
      "ili": 1001,
      "ama": 1002,
      "ru": 1003,
      "hyö": 1004,
      "ois": 1005,
      "##taan": 1006,
      "nti": 1007,
      "eivät": 1008,
      "vaih": 1009,
      "istu": 1010,
      "ella": 1011,
      "mil": 1012,
      "em": 1013,
      "kansa": 1014,
      "##ika": 1015,
      "astu": 1016,
      "##ol": 1017,
      "##sit": 1018,
      "kunna": 1019,
      "halu": 1020,
      "tuli": 1021,
      "aikka": 1022,
      "ikä": 1023,
      "ulko": 1024,
      "prose": 1025,
      "da": 1026,
      "koska": 1027,
      "##ele": 1028,
      "pys": 1029,
      "hyvin": 1030,
      "sillä": 1031,
      "edus": 1032,
      "äh": 1033,
      "utu": 1034,
      "paika": 1035,
      "##hu": 1036,
      "ij": 1037,
      "##iko": 1038,
      "ran": 1039,
      "##nn": 1040,
      "##är": 1041,
      "las": 1042,
      "uis": 1043,
      "lleen": 1044,
      "py": 1045,
      "erk": 1046,
      "ettei": 1047,
      "ansa": 1048,
      "##toi": 1049,
      "vali": 1050,
      "puhe": 1051,
      "aksi": 1052,
      "tor": 1053,
      "st": 1054,
      "ann": 1055,
      "tänyt": 1056,
      "iko": 1057,
      "##ana": 1058,
      "muun": 1059,
      "lline": 1060,
      "uassa": 1061,
      "yhdys": 1062,
      "usta": 1063,
      "kuu": 1064,
      "tru": 1065,
      "toise": 1066,
      "tämän": 1067,
      "nuo": 1068,
      "ic": 1069,
      "trump": 1070,
      "nnut": 1071,
      "tiin": 1072,
      "hi": 1073,
      "##essa": 1074,
      "##ita": 1075,
      "##em": 1076,
      "eksi": 1077,
      "ell": 1078,
      "komm": 1079,
      "arvo": 1080,
      "tulee": 1081,
      "äät": 1082,
      "pis": 1083,
      "##as": 1084,
      "tulo": 1085,
      "julk": 1086,
      "uolus": 1087,
      "##ttu": 1088,
      "tyis": 1089,
      "pitkä": 1090,
      "aihe": 1091,
      "arvio": 1092,
      "##tom": 1093,
      "##du": 1094,
      "##ssä": 1095,
      "tois": 1096,
      "valta": 1097,
      "sopi": 1098,
      "esit": 1099,
      "sal": 1100,
      "##vis": 1101,
      "elo": 1102,
      "oon": 1103,
      "opu": 1104,
      "aluee": 1105,
      "urhe": 1106,
      "##pu": 1107,
      "illä": 1108,
      "ilm": 1109,
      "tul": 1110,
      "ilpa": 1111,
      "väh": 1112,
      "istö": 1113,
      "##van": 1114,
      "##stä": 1115,
      "ässä": 1116,
      "pien": 1117,
      "kesä": 1118,
      "##ppi": 1119,
      "ltä": 1120,
      "haast": 1121,
      "pitää": 1122,
      "rake": 1123,
      "tieto": 1124,
      "mitä": 1125,
      "ing": 1126,
      "jon": 1127,
      "olen": 1128,
      "alue": 1129,
      "keski": 1130,
      "lut": 1131,
      "lap": 1132,
      "##joh": 1133,
      "ny": 1134,
      "suh": 1135,
      "etä": 1136,
      "äy": 1137,
      "kerto": 1138,
      "tode": 1139,
      "uotta": 1140,
      "##ho": 1141,
      "uomi": 1142,
      "raa": 1143,
      "##inä": 1144,
      "all": 1145,
      "elaaj": 1146,
      "neu": 1147,
      "euroa": 1148,
      "pois": 1149,
      "##ssi": 1150,
      "ris": 1151,
      "altio": 1152,
      "etty": 1153,
      "ata": 1154,
      "matka": 1155,
      "##ur": 1156,
      "iso": 1157,
      "##hde": 1158,
      "unn": 1159,
      "##ksa": 1160,
      "##kiv": 1161,
      "kunta": 1162,
      "milj": 1163,
      "uutta": 1164,
      "teki": 1165,
      "paikk": 1166,
      "olo": 1167,
      "miele": 1168,
      "nel": 1169,
      "epäil": 1170,
      "ryh": 1171,
      "nee": 1172,
      "jotka": 1173,
      "etta": 1174,
      "iiko": 1175,
      "anne": 1176,
      "ilmoi": 1177,
      "äiv": 1178,
      "rin": 1179,
      "sesti": 1180,
      "##re": 1181,
      "##rin": 1182,
      "ajan": 1183,
      "sin": 1184,
      "kut": 1185,
      "piste": 1186,
      "koti": 1187,
      "pol": 1188,
      "eid": 1189,
      "amp": 1190,
      "tiedo": 1191,
      "##ään": 1192,
      "iksi": 1193,
      "om": 1194,
      "ällä": 1195,
      "ari": 1196,
      "##al": 1197,
      "ttav": 1198,
      "helsi": 1199,
      "000": 1200,
      "mmä": 1201,
      "ettu": 1202,
      "uuden": 1203,
      "teli": 1204,
      "nno": 1205,
      "##kki": 1206,
      "##jan": 1207,
      "loppu": 1208,
      "kyse": 1209,
      "estar": 1210,
      "etaan": 1211,
      "lan": 1212,
      "ymp": 1213,
      "jonka": 1214,
      "##ide": 1215,
      "iikko": 1216,
      "##su": 1217,
      "eikä": 1218,
      "vara": 1219,
      "kään": 1220,
      "neuvo": 1221,
      "##deo": 1222,
      "annat": 1223,
      "kon": 1224,
      "oo": 1225,
      "tavat": 1226,
      "kar": 1227,
      "ilma": 1228,
      "päät": 1229,
      "ena": 1230,
      "oja": 1231,
      "tuu": 1232,
      "valme": 1233,
      "ag": 1234,
      "nuor": 1235,
      "nan": 1236,
      "etke": 1237,
      "oti": 1238,
      "häne": 1239,
      "vah": 1240,
      "eidän": 1241,
      "peli": 1242,
      "sija": 1243,
      "neljä": 1244,
      "ntti": 1245,
      "ttel": 1246,
      "yle": 1247,
      "ussa": 1248,
      "alo": 1249,
      "aiemm": 1250,
      "suunn": 1251,
      "empi": 1252,
      "ete": 1253,
      "minen": 1254,
      "##ini": 1255,
      "elle": 1256,
      "täh": 1257,
      "han": 1258,
      "##ue": 1259,
      "näin": 1260,
      "voima": 1261,
      "perhe": 1262,
      "ese": 1263,
      "ulo": 1264,
      "tui": 1265,
      "lii": 1266,
      "hä": 1267,
      "emmin": 1268,
      "ehdo": 1269,
      "anta": 1270,
      "ensim": 1271,
      "up": 1272,
      "tuot": 1273,
      "aal": 1274,
      "näh": 1275,
      "iihen": 1276,
      "enne": 1277,
      "ohjel": 1278,
      "yhde": 1279,
      "usko": 1280,
      "hyökk": 1281,
      "lau": 1282,
      "ntaj": 1283,
      "lisä": 1284,
      "pari": 1285,
      "##ran": 1286,
      "##bb": 1287,
      "ivat": 1288,
      "ntä": 1289,
      "uomio": 1290,
      "saat": 1291,
      "iitty": 1292,
      "uksia": 1293,
      "iel": 1294,
      "##lai": 1295,
      "##ito": 1296,
      "kerro": 1297,
      "##kka": 1298,
      "enemm": 1299,
      "met": 1300,
      "kolme": 1301,
      "nou": 1302,
      "minu": 1303,
      "ev": 1304,
      "tty": 1305,
      "##der": 1306,
      "pohjo": 1307,
      "uutis": 1308,
      "ch": 1309,
      "ulj": 1310,
      "iesti": 1311,
      "imm": 1312,
      "##sti": 1313,
      "ästi": 1314,
      "tulev": 1315,
      "##tk": 1316,
      "kaan": 1317,
      "##hdä": 1318,
      "raj": 1319,
      "kesku": 1320,
      "mus": 1321,
      "##kau": 1322,
      "aloit": 1323,
      "täj": 1324,
      "isää": 1325,
      "uolue": 1326,
      "teen": 1327,
      "mik": 1328,
      "taso": 1329,
      "ttaa": 1330,
      "ong": 1331,
      "##tiö": 1332,
      "eja": 1333,
      "tunne": 1334,
      "lähet": 1335,
      "man": 1336,
      "sisä": 1337,
      "stö": 1338,
      "puhu": 1339,
      "id": 1340,
      "kirjo": 1341,
      "##kai": 1342,
      "sarja": 1343,
      "säh": 1344,
      "jät": 1345,
      "##hin": 1346,
      "im": 1347,
      "etään": 1348,
      "uotsi": 1349,
      "ali": 1350,
      "ajo": 1351,
      "aiheu": 1352,
      "katso": 1353,
      "odot": 1354,
      "kolm": 1355,
      "juh": 1356,
      "hu": 1357,
      "almis": 1358,
      "hin": 1359,
      "oj": 1360,
      "do": 1361,
      "##ksy": 1362,
      "juo": 1363,
      "mur": 1364,
      "yll": 1365,
      "len": 1366,
      "suhte": 1367,
      "##dia": 1368,
      "tee": 1369,
      "sähkö": 1370,
      "sil": 1371,
      "antaa": 1372,
      "atta": 1373,
      "myy": 1374,
      "eks": 1375,
      "pungi": 1376,
      "io": 1377,
      "staan": 1378,
      "isiin": 1379,
      "##ton": 1380,
      "stubb": 1381,
      "vo": 1382,
      "arj": 1383,
      "suomi": 1384,
      "##ev": 1385,
      "aine": 1386,
      "sää": 1387,
      "nope": 1388,
      "näkö": 1389,
      "tällä": 1390,
      "aku": 1391,
      "##sk": 1392,
      "##oli": 1393,
      "kirj": 1394,
      "aisu": 1395,
      "äys": 1396,
      "erjan": 1397,
      "keh": 1398,
      "ajat": 1399,
      "##ter": 1400,
      "löyty": 1401,
      "estä": 1402,
      "amis": 1403,
      "di": 1404,
      "ian": 1405,
      "ttö": 1406,
      "##ras": 1407,
      "itään": 1408,
      "hyvä": 1409,
      "pysty": 1410,
      "media": 1411,
      "uro": 1412,
      "joutu": 1413,
      "mmäis": 1414,
      "tunti": 1415,
      "##rke": 1416,
      "amma": 1417,
      "##ck": 1418,
      "ken": 1419,
      "ly": 1420,
      "##aal": 1421,
      "lähe": 1422,
      "hen": 1423,
      "jär": 1424,
      "neen": 1425,
      "ehti": 1426,
      "entoi": 1427,
      "kirja": 1428,
      "miten": 1429,
      "har": 1430,
      "onn": 1431,
      "alku": 1432,
      "perä": 1433,
      "aatio": 1434,
      "eläm": 1435,
      "astus": 1436,
      "eseen": 1437,
      "her": 1438,
      "iis": 1439,
      "eillä": 1440,
      "tään": 1441,
      "kisa": 1442,
      "yhtiö": 1443,
      "usi": 1444,
      "##est": 1445,
      "ero": 1446,
      "ohta": 1447,
      "arha": 1448,
      "ov": 1449,
      "lää": 1450,
      "##ea": 1451,
      "kk": 1452,
      "vaan": 1453,
      "ura": 1454,
      "mikä": 1455,
      "ani": 1456,
      "ori": 1457,
      "äis": 1458,
      "##sen": 1459,
      "asian": 1460,
      "huoma": 1461,
      "tarvi": 1462,
      "lääk": 1463,
      "tarjo": 1464,
      "mo": 1465,
      "##maan": 1466,
      "nime": 1467,
      "ihan": 1468,
      "##kea": 1469,
      "kaude": 1470,
      "ilij": 1471,
      "iet": 1472,
      "kö": 1473,
      "maali": 1474,
      "llo": 1475,
      "osall": 1476,
      "um": 1477,
      "enjoh": 1478,
      "sivu": 1479,
      "vaal": 1480,
      "essä": 1481,
      "kal": 1482,
      "tunut": 1483,
      "iera": 1484,
      "alk": 1485,
      "##ss": 1486,
      "ympär": 1487,
      "osi": 1488,
      "video": 1489,
      "ertaa": 1490,
      "äänes": 1491,
      "sopim": 1492,
      "##paa": 1493,
      "nkaan": 1494,
      "hoi": 1495,
      "lis": 1496,
      "tekem": 1497,
      "yllät": 1498,
      "sra": 1499,
      "srael": 1500,
      "np": 1501,
      "##my": 1502,
      "äyt": 1503,
      "##lt": 1504,
      "kasv": 1505,
      "jopa": 1506,
      "mään": 1507,
      "näky": 1508,
      "nimi": 1509,
      "lloin": 1510,
      "##nt": 1511,
      "##vit": 1512,
      "erran": 1513,
      "telu": 1514,
      "ratk": 1515,
      "nyky": 1516,
      "taisi": 1517,
      "uoksi": 1518,
      "aisi": 1519,
      "ryhmä": 1520,
      "uoli": 1521,
      "mai": 1522,
      "kilo": 1523,
      "##ust": 1524,
      "iinni": 1525,
      "nttia": 1526,
      "ärj": 1527,
      "moni": 1528,
      "osoit": 1529,
      "ngin": 1530,
      "kello": 1531,
      "erkit": 1532,
      "käsit": 1533,
      "ttöm": 1534,
      "ukana": 1535,
      "kahde": 1536,
      "iir": 1537,
      "saada": 1538,
      "aikaa": 1539,
      "ea": 1540,
      "lauan": 1541,
      "uroop": 1542,
      "una": 1543,
      "öy": 1544,
      "tehdä": 1545,
      "puoli": 1546,
      "rau": 1547,
      "ongel": 1548,
      "tane": 1549,
      "enää": 1550,
      "ästä": 1551,
      "ruo": 1552,
      "##kso": 1553,
      "oinen": 1554,
      "ota": 1555,
      "##kko": 1556,
      "kehit": 1557,
      "kov": 1558,
      "miehe": 1559,
      "aka": 1560,
      "otta": 1561,
      "avo": 1562,
      "##vää": 1563,
      "iltal": 1564,
      "uode": 1565,
      "riit": 1566,
      "tum": 1567,
      "sell": 1568,
      "sanom": 1569,
      "oliit": 1570,
      "syn": 1571,
      "aati": 1572,
      "avu": 1573,
      "ystäv": 1574,
      "juu": 1575,
      "##hl": 1576,
      "kohta": 1577,
      "oulun": 1578,
      "nk": 1579,
      "alka": 1580,
      "eissa": 1581,
      "pitä": 1582,
      "##iri": 1583,
      "väit": 1584,
      "net": 1585,
      "ön": 1586,
      "oik": 1587,
      "tiet": 1588,
      "art": 1589,
      "##hi": 1590,
      "##kia": 1591,
      "täll": 1592,
      "ntees": 1593,
      "uks": 1594,
      "etelä": 1595,
      "##ar": 1596,
      "uin": 1597,
      "ant": 1598,
      "kiso": 1599,
      "ymme": 1600,
      "vanh": 1601,
      "telee": 1602,
      "tom": 1603,
      "omis": 1604,
      "yty": 1605,
      "sijai": 1606,
      "lähte": 1607,
      "eskiv": 1608,
      "ss": 1609,
      "kseen": 1610,
      "inä": 1611,
      "synty": 1612,
      "yleis": 1613,
      "aamu": 1614,
      "aanan": 1615,
      "leet": 1616,
      "akko": 1617,
      "omi": 1618,
      "vaara": 1619,
      "attel": 1620,
      "suora": 1621,
      "eik": 1622,
      "##tta": 1623,
      "anska": 1624,
      "uraa": 1625,
      "ssaan": 1626,
      "uoma": 1627,
      "illoi": 1628,
      "nii": 1629,
      "ho": 1630,
      "tis": 1631,
      "aam": 1632,
      "iha": 1633,
      "uljet": 1634,
      "nor": 1635,
      "uhka": 1636,
      "jäi": 1637,
      "muist": 1638,
      "koke": 1639,
      "##kkö": 1640,
      "jatku": 1641,
      "ojen": 1642,
      "ain": 1643,
      "isku": 1644,
      "tied": 1645,
      "iti": 1646,
      "ejä": 1647,
      "talou": 1648,
      "til": 1649,
      "tykse": 1650,
      "iellä": 1651,
      "ika": 1652,
      "tuntu": 1653,
      "tors": 1654,
      "anni": 1655,
      "ulk": 1656,
      "ac": 1657,
      "oim": 1658,
      "ehtäv": 1659,
      "tely": 1660,
      "kär": 1661,
      "siir": 1662,
      "inn": 1663,
      "kir": 1664,
      "tasa": 1665,
      "mäise": 1666,
      "autta": 1667,
      "asio": 1668,
      "aita": 1669,
      "myöh": 1670,
      "juuri": 1671,
      "##ver": 1672,
      "äli": 1673,
      "tautu": 1674,
      "ensa": 1675,
      "eet": 1676,
      "iedot": 1677,
      "ttee": 1678,
      "äällä": 1679,
      "kyl": 1680,
      "ttäin": 1681,
      "itäis": 1682,
      "ntaa": 1683,
      "##til": 1684,
      "iseen": 1685,
      "kone": 1686,
      "nnan": 1687,
      "##iden": 1688,
      "ttom": 1689,
      "mpi": 1690,
      "arjoi": 1691,
      "##ram": 1692,
      "emaan": 1693,
      "jatko": 1694,
      "mise": 1695,
      "apa": 1696,
      "dään": 1697,
      "keske": 1698,
      "kuten": 1699,
      "ysy": 1700,
      "aat": 1701,
      "aino": 1702,
      "nt": 1703,
      "vähän": 1704,
      "enna": 1705,
      "salo": 1706,
      "nna": 1707,
      "lai": 1708,
      "##ske": 1709,
      "sk": 1710,
      "tässä": 1711,
      "erä": 1712,
      "amm": 1713,
      "stel": 1714,
      "vie": 1715,
      "yys": 1716,
      "tiis": 1717,
      "tajan": 1718,
      "auden": 1719,
      "oikea": 1720,
      "paino": 1721,
      "tyy": 1722,
      "eille": 1723,
      "jal": 1724,
      "laine": 1725,
      "tak": 1726,
      "lähes": 1727,
      "tuomi": 1728,
      "ensä": 1729,
      "vero": 1730,
      "selv": 1731,
      "rauha": 1732,
      "yks": 1733,
      "kohd": 1734,
      "naan": 1735,
      "iltä": 1736,
      "iitto": 1737,
      "lapsi": 1738,
      "aav": 1739,
      "lämp": 1740,
      "uraav": 1741,
      "yn": 1742,
      "toivo": 1743,
      "kys": 1744,
      "sty": 1745,
      "kysy": 1746,
      "oitto": 1747,
      "sosi": 1748,
      "enä": 1749,
      "iivis": 1750,
      "unnun": 1751,
      "nis": 1752,
      "ara": 1753,
      "yhtä": 1754,
      "inna": 1755,
      "amaan": 1756,
      "lähti": 1757,
      "##ppa": 1758,
      "##ös": 1759,
      "##os": 1760,
      "elvit": 1761,
      "alja": 1762,
      "uutam": 1763,
      "täy": 1764,
      "dessa": 1765,
      "isuu": 1766,
      "leh": 1767,
      "kuul": 1768,
      "eit": 1769,
      "oki": 1770,
      "tv": 1771,
      "isen": 1772,
      "tain": 1773,
      "lue": 1774,
      "ukset": 1775,
      "tys": 1776,
      "kamp": 1777,
      "saar": 1778,
      "ahden": 1779,
      "inaal": 1780,
      "eg": 1781,
      "tosi": 1782,
      "uukau": 1783,
      "ikos": 1784,
      "alkoi": 1785,
      "isin": 1786,
      "siinä": 1787,
      "ehdok": 1788,
      "laske": 1789,
      "laa": 1790,
      "oni": 1791,
      "laan": 1792,
      "hoit": 1793,
      "oiden": 1794,
      "koi": 1795,
      "omais": 1796,
      "rit": 1797,
      "tettu": 1798,
      "ilman": 1799,
      "##kar": 1800,
      "##kee": 1801,
      "syö": 1802,
      "##sin": 1803,
      "löy": 1804,
      "por": 1805,
      "esk": 1806,
      "ymm": 1807,
      "ysymy": 1808,
      "tähti": 1809,
      "arhai": 1810,
      "tune": 1811,
      "eloku": 1812,
      "ravi": 1813,
      "koske": 1814,
      "ärjes": 1815,
      "ampu": 1816,
      "nnu": 1817,
      "emp": 1818,
      "hoito": 1819,
      "aljas": 1820,
      "selvi": 1821,
      "ad": 1822,
      "ija": 1823,
      "eita": 1824,
      "änsä": 1825,
      "raha": 1826,
      "aiko": 1827,
      "istor": 1828,
      "lento": 1829,
      "ber": 1830,
      "aikea": 1831,
      "ttam": 1832,
      "punki": 1833,
      "riko": 1834,
      "ola": 1835,
      "tävät": 1836,
      "itiik": 1837,
      "eril": 1838,
      "kiel": 1839,
      "leikk": 1840,
      "maksa": 1841,
      "kil": 1842,
      "änä": 1843,
      "nopea": 1844,
      "ine": 1845,
      "raala": 1846,
      "llaan": 1847,
      "eki": 1848,
      "##ch": 1849,
      "taas": 1850,
      "lou": 1851,
      "laaj": 1852,
      "tte": 1853,
      "od": 1854,
      "takia": 1855,
      "sotil": 1856,
      "einä": 1857,
      "ouk": 1858,
      "ime": 1859,
      "ton": 1860,
      "sota": 1861,
      "ulkis": 1862,
      "az": 1863,
      "nu": 1864,
      "aisia": 1865,
      "uuttu": 1866,
      "inty": 1867,
      "apu": 1868,
      "seen": 1869,
      "asiak": 1870,
      "sson": 1871,
      "nnä": 1872,
      "##hto": 1873,
      "teko": 1874,
      "tunte": 1875,
      "ärä": 1876,
      "ston": 1877,
      "aukse": 1878,
      "terve": 1879,
      "voisi": 1880,
      "eer": 1881,
      "ellis": 1882,
      "##ff": 1883,
      "puole": 1884,
      "saapu": 1885,
      "oita": 1886,
      "kent": 1887,
      "ahvis": 1888,
      "äri": 1889,
      "ätä": 1890,
      "ittaa": 1891,
      "lähi": 1892,
      "ast": 1893,
      "ierro": 1894,
      "sarj": 1895,
      "teriö": 1896,
      "avat": 1897,
      "ruoka": 1898,
      "aste": 1899,
      "oitti": 1900,
      "palo": 1901,
      "aista": 1902,
      "aikai": 1903,
      "käsi": 1904,
      "ehde": 1905,
      "liiga": 1906,
      "pallo": 1907,
      "vaali": 1908,
      "ussi": 1909,
      "mieli": 1910,
      "nnus": 1911,
      "oissa": 1912,
      "laj": 1913,
      "äätty": 1914,
      "oly": 1915,
      "pan": 1916,
      "yr": 1917,
      "uva": 1918,
      "yde": 1919,
      "ymmär": 1920,
      "oimi": 1921,
      "iekko": 1922,
      "luok": 1923,
      "piene": 1924,
      "##väl": 1925,
      "uinka": 1926,
      "##hoi": 1927,
      "co": 1928,
      "uul": 1929,
      "ide": 1930,
      "tärke": 1931,
      "pysy": 1932,
      "rä": 1933,
      "kois": 1934,
      "ab": 1935,
      "taist": 1936,
      "hake": 1937,
      "joten": 1938,
      "rik": 1939,
      "ettav": 1940,
      "viran": 1941,
      "siis": 1942,
      "vira": 1943,
      "unni": 1944,
      "##ert": 1945,
      "ieh": 1946,
      "vän": 1947,
      "oonaa": 1948,
      "olymp": 1949,
      "biden": 1950,
      "hyv": 1951,
      "malli": 1952,
      "ieltä": 1953,
      "anen": 1954,
      "oikei": 1955,
      "maal": 1956,
      "appi": 1957,
      "inväl": 1958,
      "laki": 1959,
      "iini": 1960,
      "##yttä": 1961,
      "meni": 1962,
      "daan": 1963,
      "tomuu": 1964,
      "isa": 1965,
      "##iki": 1966,
      "mukse": 1967,
      "halua": 1968,
      "kuulu": 1969,
      "auta": 1970,
      "ieman": 1971,
      "attu": 1972,
      "nnö": 1973,
      "ale": 1974,
      "iili": 1975,
      "sivat": 1976,
      "lah": 1977,
      "ste": 1978,
      "kilom": 1979,
      "saksa": 1980,
      "##han": 1981,
      "##pal": 1982,
      "##vai": 1983,
      "inst": 1984,
      "nnuks": 1985,
      "yytä": 1986,
      "jäsen": 1987,
      "pyö": 1988,
      "entis": 1989,
      "kilpa": 1990,
      "tamis": 1991,
      "kuoli": 1992,
      "nos": 1993,
      "yhä": 1994,
      "20": 1995,
      "son": 1996,
      "etrin": 1997,
      "##esta": 1998,
      "huono": 1999,
      "ehd": 2000,
      "aatu": 2001,
      "näköi": 2002,
      "jakso": 2003,
      "äätös": 2004,
      "nhl": 2005,
      "helpo": 2006,
      "ksen": 2007,
      "ang": 2008,
      "iehen": 2009,
      "otti": 2010,
      "ellä": 2011,
      "työnt": 2012,
      "lma": 2013,
      "jou": 2014,
      "tivat": 2015,
      "oista": 2016,
      "äysin": 2017,
      "eä": 2018,
      "edes": 2019,
      "koro": 2020,
      "ort": 2021,
      "havai": 2022,
      "leen": 2023,
      "kyllä": 2024,
      "menet": 2025,
      "arki": 2026,
      "##ing": 2027,
      "attom": 2028,
      "uippu": 2029,
      "tsee": 2030,
      "nnyt": 2031,
      "ammat": 2032,
      "elämä": 2033,
      "ttelu": 2034,
      "auton": 2035,
      "agram": 2036,
      "juhli": 2037,
      "ake": 2038,
      "tap": 2039,
      "isti": 2040,
      "onta": 2041,
      "oikke": 2042,
      "hil": 2043,
      "##nä": 2044,
      "unta": 2045,
      "toden": 2046,
      "kävi": 2047,
      "heti": 2048,
      "kokou": 2049,
      "yvin": 2050,
      "asema": 2051,
      "niitä": 2052,
      "iikon": 2053,
      "mäine": 2054,
      "##ön": 2055,
      "inta": 2056,
      "kutsu": 2057,
      "kevää": 2058,
      "eur": 2059,
      "ander": 2060,
      "vesi": 2061,
      "äräjä": 2062,
      "pääse": 2063,
      "minuu": 2064,
      "##ilu": 2065,
      "pet": 2066,
      "kaiki": 2067,
      "ela": 2068,
      "vapaa": 2069,
      "##kon": 2070,
      "eista": 2071,
      "alkaa": 2072,
      "asten": 2073,
      "uute": 2074,
      "pid": 2075,
      "joe": 2076,
      "und": 2077,
      "änään": 2078,
      "new": 2079,
      "joita": 2080,
      "oima": 2081,
      "häntä": 2082,
      "ointi": 2083,
      "älle": 2084,
      "viide": 2085,
      "dä": 2086,
      "uvail": 2087,
      "tänä": 2088,
      "oivat": 2089,
      "massa": 2090,
      "kko": 2091,
      "toime": 2092,
      "orpo": 2093,
      "pääsi": 2094,
      "orva": 2095,
      "avoit": 2096,
      "etu": 2097,
      "akt": 2098,
      "ilme": 2099,
      "mitta": 2100,
      "auri": 2101,
      "laito": 2102,
      "iina": 2103,
      "nsi": 2104,
      "nau": 2105,
      "tote": 2106,
      "sp": 2107,
      "vaka": 2108,
      "uolis": 2109,
      "luku": 2110,
      "aki": 2111,
      "tkaa": 2112,
      "piti": 2113,
      "atti": 2114,
      "uolem": 2115,
      "vakav": 2116,
      "yllä": 2117,
      "missä": 2118,
      "jota": 2119,
      "utki": 2120,
      "häiri": 2121,
      "yky": 2122,
      "seks": 2123,
      "vil": 2124,
      "pala": 2125,
      "illi": 2126,
      "elin": 2127,
      "mmin": 2128,
      "uloks": 2129,
      "eihin": 2130,
      "##elm": 2131,
      "hj": 2132,
      "iku": 2133,
      "##ksu": 2134,
      "kohte": 2135,
      "tuma": 2136,
      "aar": 2137,
      "ystä": 2138,
      "lään": 2139,
      "ikku": 2140,
      "pieni": 2141,
      "nousi": 2142,
      "stelm": 2143,
      "dy": 2144,
      "sm": 2145,
      "anc": 2146,
      "ard": 2147,
      "elm": 2148,
      "je": 2149,
      "tulla": 2150,
      "venäl": 2151,
      "ay": 2152,
      "taust": 2153,
      "rve": 2154,
      "tuksi": 2155,
      "päivi": 2156,
      "hinta": 2157,
      "ami": 2158,
      "##dy": 2159,
      "uosi": 2160,
      "yhden": 2161,
      "loukk": 2162,
      "uoj": 2163,
      "mat": 2164,
      "kanna": 2165,
      "joulu": 2166,
      "nnas": 2167,
      "luvu": 2168,
      "jalka": 2169,
      "oona": 2170,
      "appal": 2171,
      "rveys": 2172,
      "etri": 2173,
      "läpi": 2174,
      "äästä": 2175,
      "ääri": 2176,
      "ttuna": 2177,
      "##eme": 2178,
      "ok": 2179,
      "##maa": 2180,
      "lähd": 2181,
      "euron": 2182,
      "tio": 2183,
      "aivan": 2184,
      "atu": 2185,
      "laji": 2186,
      "uistu": 2187,
      "silm": 2188,
      "the": 2189,
      "est": 2190,
      "ärke": 2191,
      "äte": 2192,
      "pide": 2193,
      "tek": 2194,
      "10": 2195,
      "astuu": 2196,
      "ans": 2197,
      "rins": 2198,
      "itsem": 2199,
      "nlo": 2200,
      "lupa": 2201,
      "anki": 2202,
      "kohda": 2203,
      "isuud": 2204,
      "annut": 2205,
      "tökse": 2206,
      "tuki": 2207,
      "urk": 2208,
      "ruu": 2209,
      "kka": 2210,
      "uuksi": 2211,
      "lop": 2212,
      "äiti": 2213,
      "nieme": 2214,
      "syksy": 2215,
      "otu": 2216,
      "iu": 2217,
      "hänet": 2218,
      "usein": 2219,
      "kunno": 2220,
      "soit": 2221,
      "tiete": 2222,
      "osta": 2223,
      "isu": 2224,
      "aton": 2225,
      "uha": 2226,
      "anssi": 2227,
      "ehkä": 2228,
      "sky": 2229,
      "elkä": 2230,
      "alio": 2231,
      "aantu": 2232,
      "valit": 2233,
      "nneet": 2234,
      "lapse": 2235,
      "pyör": 2236,
      "aid": 2237,
      "yvinv": 2238,
      "naa": 2239,
      "ex": 2240,
      "änsi": 2241,
      "ansi": 2242,
      "arr": 2243,
      "ned": 2244,
      "ääni": 2245,
      "iuk": 2246,
      "llään": 2247,
      "väkiv": 2248,
      "aset": 2249,
      "lämpö": 2250,
      "15": 2251,
      "atso": 2252,
      "uisto": 2253,
      "ottaa": 2254,
      "kulut": 2255,
      "lind": 2256,
      "ntää": 2257,
      "auppa": 2258,
      "orkea": 2259,
      "eistä": 2260,
      "telij": 2261,
      "allo": 2262,
      "itu": 2263,
      "##ih": 2264,
      "itelm": 2265,
      "väksy": 2266,
      "test": 2267,
      "tseva": 2268,
      "oteaa": 2269,
      "ansal": 2270,
      "onal": 2271,
      "oman": 2272,
      "tili": 2273,
      "pääll": 2274,
      "nny": 2275,
      "liike": 2276,
      "tänee": 2277,
      "ttäj": 2278,
      "nedus": 2279,
      "oy": 2280,
      "ttain": 2281,
      "tätä": 2282,
      "##ess": 2283,
      "arh": 2284,
      "nni": 2285,
      "aani": 2286,
      "hävi": 2287,
      "ämä": 2288,
      "eitä": 2289,
      "sod": 2290,
      "aivo": 2291,
      "täyty": 2292,
      "vier": 2293,
      "kohti": 2294,
      "anke": 2295,
      "viit": 2296,
      "ini": 2297,
      "ako": 2298,
      "voim": 2299,
      "uunta": 2300,
      "pysä": 2301,
      "ulos": 2302,
      "poi": 2303,
      "gia": 2304,
      "ohd": 2305,
      "uorit": 2306,
      "naine": 2307,
      "uhri": 2308,
      "salon": 2309,
      "umma": 2310,
      "sten": 2311,
      "aisin": 2312,
      "yliop": 2313,
      "meri": 2314,
      "lehde": 2315,
      "anj": 2316,
      "tsi": 2317,
      "työsk": 2318,
      "ene": 2319,
      "oilla": 2320,
      "iirty": 2321,
      "poika": 2322,
      "##tuu": 2323,
      "onnet": 2324,
      "aahan": 2325,
      "öyd": 2326,
      "allan": 2327,
      "viisi": 2328,
      "autu": 2329,
      "utta": 2330,
      "vaati": 2331,
      "taka": 2332,
      "tori": 2333,
      "ttaja": 2334,
      "##via": 2335,
      "oul": 2336,
      "elen": 2337,
      "ältä": 2338,
      "aist": 2339,
      "arsin": 2340,
      "murha": 2341,
      "kump": 2342,
      "itti": 2343,
      "##mok": 2344,
      "atkus": 2345,
      "het": 2346,
      "uonno": 2347,
      "hoita": 2348,
      "aari": 2349,
      "usiik": 2350,
      "sodan": 2351,
      "hiih": 2352,
      "ieto": 2353,
      "ohi": 2354,
      "toteu": 2355,
      "berg": 2356,
      "oe": 2357,
      "uurin": 2358,
      "onnis": 2359,
      "liito": 2360,
      "syys": 2361,
      "miehi": 2362,
      "metsä": 2363,
      "inko": 2364,
      "ikoks": 2365,
      "tehty": 2366,
      "otain": 2367,
      "oukko": 2368,
      "mp": 2369,
      "etsi": 2370,
      "lopet": 2371,
      "osu": 2372,
      "iikku": 2373,
      "mene": 2374,
      "ouko": 2375,
      "ijoit": 2376,
      "oimit": 2377,
      "sd": 2378,
      "varm": 2379,
      "äivän": 2380,
      "aiden": 2381,
      "asemm": 2382,
      "ijaan": 2383,
      "aha": 2384,
      "viet": 2385,
      "minkä": 2386,
      "du": 2387,
      "tua": 2388,
      "eteen": 2389,
      "uolim": 2390,
      "sit": 2391,
      "kunto": 2392,
      "tekij": 2393,
      "mukai": 2394,
      "mone": 2395,
      "uhe": 2396,
      "muita": 2397,
      "ukka": 2398,
      "uosit": 2399,
      "eijo": 2400,
      "iinno": 2401,
      "uoto": 2402,
      "julki": 2403,
      "erkko": 2404,
      "uote": 2405,
      "usu": 2406,
      "lad": 2407,
      "levi": 2408,
      "ahti": 2409,
      "arhaa": 2410,
      "elko": 2411,
      "ittel": 2412,
      "ilun": 2413,
      "##kr": 2414,
      "ainoa": 2415,
      "heit": 2416,
      "jälle": 2417,
      "sina": 2418,
      "jotta": 2419,
      "ude": 2420,
      "aito": 2421,
      "uksen": 2422,
      "teho": 2423,
      "itta": 2424,
      "jouko": 2425,
      "ivät": 2426,
      "##nö": 2427,
      "eng": 2428,
      "antti": 2429,
      "uning": 2430,
      "kerä": 2431,
      "vel": 2432,
      "alise": 2433,
      "altuu": 2434,
      "ras": 2435,
      "lähtö": 2436,
      "opet": 2437,
      "heik": 2438,
      "hoid": 2439,
      "palki": 2440,
      "ihme": 2441,
      "nssi": 2442,
      "sij": 2443,
      "pela": 2444,
      "mäki": 2445,
      "aistu": 2446,
      "eikk": 2447,
      "kokem": 2448,
      "kylä": 2449,
      "idät": 2450,
      "eiden": 2451,
      "tt": 2452,
      "yyde": 2453,
      "kärsi": 2454,
      "12": 2455,
      "tah": 2456,
      "tekee": 2457,
      "näi": 2458,
      "äyty": 2459,
      "aju": 2460,
      "tet": 2461,
      "kesäk": 2462,
      "maksu": 2463,
      "ennät": 2464,
      "rist": 2465,
      "tähän": 2466,
      "äyttö": 2467,
      "ilija": 2468,
      "ull": 2469,
      "eisö": 2470,
      "mikko": 2471,
      "arris": 2472,
      "ane": 2473,
      "rooli": 2474,
      "ttuur": 2475,
      "kiina": 2476,
      "kymme": 2477,
      "etriä": 2478,
      "ib": 2479,
      "paras": 2480,
      "emme": 2481,
      "ovi": 2482,
      "irv": 2483,
      "suku": 2484,
      "##rki": 2485,
      "aikke": 2486,
      "ca": 2487,
      "loka": 2488,
      "eni": 2489,
      "onen": 2490,
      "myötä": 2491,
      "ielen": 2492,
      "sc": 2493,
      "30": 2494,
      "herät": 2495,
      "onald": 2496,
      "ida": 2497,
      "äv": 2498,
      "piir": 2499,
      "##nu": 2500,
      "ae": 2501,
      "nato": 2502,
      "niide": 2503,
      "ähe": 2504,
      "akuut": 2505,
      "rof": 2506,
      "##ott": 2507,
      "linja": 2508,
      "aisuu": 2509,
      "utini": 2510,
      "määri": 2511,
      "##lam": 2512,
      "##ute": 2513,
      "edel": 2514,
      "alous": 2515,
      "naise": 2516,
      "maajo": 2517,
      "arl": 2518,
      "nistu": 2519,
      "ankki": 2520,
      "appio": 2521,
      "ksia": 2522,
      "aluaa": 2523,
      "usten": 2524,
      "##ort": 2525,
      "run": 2526,
      "ano": 2527,
      "tivät": 2528,
      "eissä": 2529,
      "##sal": 2530,
      "##rju": 2531,
      "tuore": 2532,
      "af": 2533,
      "jut": 2534,
      "oski": 2535,
      "liian": 2536,
      "rttu": 2537,
      "koulu": 2538,
      "oihin": 2539,
      "oitus": 2540,
      "korj": 2541,
      "ologi": 2542,
      "imo": 2543,
      "urr": 2544,
      "norm": 2545,
      "tunni": 2546,
      "keino": 2547,
      "telev": 2548,
      "osuu": 2549,
      "lyt": 2550,
      "ustel": 2551,
      "uuluu": 2552,
      "tal": 2553,
      "aulu": 2554,
      "and": 2555,
      "oulut": 2556,
      "ga": 2557,
      "##eno": 2558,
      "maini": 2559,
      "änne": 2560,
      "äälle": 2561,
      "uor": 2562,
      "rask": 2563,
      "olemm": 2564,
      "tarpe": 2565,
      "olmen": 2566,
      "norja": 2567,
      "##ser": 2568,
      "ntola": 2569,
      "tekn": 2570,
      "vahv": 2571,
      "äm": 2572,
      "riski": 2573,
      "elta": 2574,
      "huu": 2575,
      "joide": 2576,
      "suosi": 2577,
      "demok": 2578,
      "harv": 2579,
      "suuri": 2580,
      "ennus": 2581,
      "antam": 2582,
      "öl": 2583,
      "ialai": 2584,
      "ajoit": 2585,
      "eva": 2586,
      "nko": 2587,
      "ajaa": 2588,
      "uhd": 2589,
      "kuvi": 2590,
      "lauk": 2591,
      "##rau": 2592,
      "pyrki": 2593,
      "yyttä": 2594,
      "täyt": 2595,
      "ord": 2596,
      "oukok": 2597,
      "kuol": 2598,
      "asiaa": 2599,
      "kaap": 2600,
      "ikään": 2601,
      "valo": 2602,
      "avau": 2603,
      "ek": 2604,
      "tuke": 2605,
      "henki": 2606,
      "päin": 2607,
      "tulos": 2608,
      "krit": 2609,
      "erta": 2610,
      "ykkö": 2611,
      "tae": 2612,
      "set": 2613,
      "##int": 2614,
      "uhti": 2615,
      "##ce": 2616,
      "uiden": 2617,
      "wa": 2618,
      "enno": 2619,
      "vaimo": 2620,
      "ausu": 2621,
      "aiva": 2622,
      "adi": 2623,
      "käytö": 2624,
      "sinai": 2625,
      "tetty": 2626,
      "##uh": 2627,
      "raat": 2628,
      "ttava": 2629,
      "kerta": 2630,
      "laul": 2631,
      "kee": 2632,
      "ihr": 2633,
      "iiga": 2634,
      "alex": 2635,
      "hti": 2636,
      "anut": 2637,
      "koto": 2638,
      "kasvu": 2639,
      "ennak": 2640,
      "lehti": 2641,
      "##aali": 2642,
      "onne": 2643,
      "nv": 2644,
      "omm": 2645,
      "äksi": 2646,
      "syysk": 2647,
      "merkk": 2648,
      "kaupa": 2649,
      "empaa": 2650,
      "##isk": 2651,
      "vaike": 2652,
      "elmik": 2653,
      "adu": 2654,
      "ike": 2655,
      "nl": 2656,
      "älier": 2657,
      "iset": 2658,
      "kausi": 2659,
      "mere": 2660,
      "tästä": 2661,
      "lasku": 2662,
      "kysee": 2663,
      "entee": 2664,
      "aisem": 2665,
      "ity": 2666,
      "tto": 2667,
      "udu": 2668,
      "ysel": 2669,
      "paine": 2670,
      "sosia": 2671,
      "tia": 2672,
      "vede": 2673,
      "pekka": 2674,
      "hon": 2675,
      "ingo": 2676,
      "heng": 2677,
      "ait": 2678,
      "##vaa": 2679,
      "ohu": 2680,
      "työtä": 2681,
      "vanha": 2682,
      "ehdot": 2683,
      "oppi": 2684,
      "onko": 2685,
      "löytä": 2686,
      "sul": 2687,
      "ylä": 2688,
      "dio": 2689,
      "tuho": 2690,
      "mill": 2691,
      "ähemm": 2692,
      "sia": 2693,
      "menne": 2694,
      "ink": 2695,
      "ulisi": 2696,
      "tävä": 2697,
      "ikuis": 2698,
      "aho": 2699,
      "eo": 2700,
      "vapa": 2701,
      "yk": 2702,
      "ilmi": 2703,
      "muuta": 2704,
      "tävän": 2705,
      "aavut": 2706,
      "ati": 2707,
      "masti": 2708,
      "isia": 2709,
      "ikko": 2710,
      "akse": 2711,
      "inti": 2712,
      "iitä": 2713,
      "peri": 2714,
      "otesi": 2715,
      "illis": 2716,
      "avio": 2717,
      "inf": 2718,
      "aliok": 2719,
      "päiv": 2720,
      "tyyp": 2721,
      "iki": 2722,
      "tähd": 2723,
      "hieno": 2724,
      "alko": 2725,
      "arlam": 2726,
      "jolla": 2727,
      "teo": 2728,
      "yhdis": 2729,
      "tusta": 2730,
      "tännö": 2731,
      "kulu": 2732,
      "utk": 2733,
      "meno": 2734,
      "aza": 2735,
      "intei": 2736,
      "iikka": 2737,
      "nouse": 2738,
      "einäk": 2739,
      "nd": 2740,
      "valla": 2741,
      "hevo": 2742,
      "juhla": 2743,
      "olle": 2744,
      "kok": 2745,
      "näkem": 2746,
      "pohti": 2747,
      "##lit": 2748,
      "aroit": 2749,
      "säil": 2750,
      "kai": 2751,
      "puh": 2752,
      "auk": 2753,
      "##ge": 2754,
      "asvat": 2755,
      "tavan": 2756,
      "ark": 2757,
      "vis": 2758,
      "arras": 2759,
      "uni": 2760,
      "merki": 2761,
      "hilja": 2762,
      "josta": 2763,
      "mia": 2764,
      "lor": 2765,
      "avar": 2766,
      "kuude": 2767,
      "vaiht": 2768,
      "ietti": 2769,
      "alli": 2770,
      "anto": 2771,
      "valt": 2772,
      "kää": 2773,
      "pääty": 2774,
      "irta": 2775,
      "uutos": 2776,
      "yttä": 2777,
      "ksu": 2778,
      "ilo": 2779,
      "runsa": 2780,
      "virhe": 2781,
      "##kas": 2782,
      "loma": 2783,
      "one": 2784,
      "lukem": 2785,
      "iiton": 2786,
      "järk": 2787,
      "vih": 2788,
      "ohdis": 2789,
      "ank": 2790,
      "##je": 2791,
      "yksiä": 2792,
      "udot": 2793,
      "merik": 2794,
      "asa": 2795,
      "uuli": 2796,
      "valvo": 2797,
      "akkau": 2798,
      "puol": 2799,
      "vähi": 2800,
      "rs": 2801,
      "sata": 2802,
      "mui": 2803,
      "aikal": 2804,
      "reilu": 2805,
      "ampum": 2806,
      "nlopp": 2807,
      "uoro": 2808,
      "mont": 2809,
      "rikko": 2810,
      "näis": 2811,
      "ariis": 2812,
      "11": 2813,
      "urna": 2814,
      "vapau": 2815,
      "eor": 2816,
      "jy": 2817,
      "entu": 2818,
      "mita": 2819,
      "ikkö": 2820,
      "antoi": 2821,
      "jatk": 2822,
      "altav": 2823,
      "ob": 2824,
      "tait": 2825,
      "istyö": 2826,
      "rom": 2827,
      "johto": 2828,
      "esken": 2829,
      "tunnu": 2830,
      "orm": 2831,
      "adio": 2832,
      "ress": 2833,
      "onet": 2834,
      "anad": 2835,
      "huum": 2836,
      "##kino": 2837,
      "oitu": 2838,
      "veto": 2839,
      "koira": 2840,
      "br": 2841,
      "arja": 2842,
      "alaut": 2843,
      "ado": 2844,
      "imme": 2845,
      "kkino": 2846,
      "lik": 2847,
      "yhy": 2848,
      "vauh": 2849,
      "ssään": 2850,
      "aana": 2851,
      "kumpp": 2852,
      "uud": 2853,
      "nous": 2854,
      "ovin": 2855,
      "bo": 2856,
      "end": 2857,
      "lokak": 2858,
      "sana": 2859,
      "törke": 2860,
      "esä": 2861,
      "valmi": 2862,
      "evy": 2863,
      "amise": 2864,
      "pahoi": 2865,
      "torju": 2866,
      "ich": 2867,
      "läis": 2868,
      "koros": 2869,
      "of": 2870,
      "ener": 2871,
      "vähe": 2872,
      "uku": 2873,
      "ävel": 2874,
      "uulu": 2875,
      "akana": 2876,
      "otiin": 2877,
      "aiken": 2878,
      "selit": 2879,
      "elok": 2880,
      "eessa": 2881,
      "ail": 2882,
      "alas": 2883,
      "joku": 2884,
      "ekijä": 2885,
      "##mai": 2886,
      "ksiä": 2887,
      "eb": 2888,
      "koe": 2889,
      "oille": 2890,
      "mennä": 2891,
      "uper": 2892,
      "enti": 2893,
      "onser": 2894,
      "luki": 2895,
      "otsal": 2896,
      "opisk": 2897,
      "anav": 2898,
      "täyde": 2899,
      "eal": 2900,
      "ket": 2901,
      "peru": 2902,
      "virka": 2903,
      "lämm": 2904,
      "tin": 2905,
      "eläi": 2906,
      "uhtik": 2907,
      "rssi": 2908,
      "esp": 2909,
      "hui": 2910,
      "aatim": 2911,
      "uokr": 2912,
      "ajoi": 2913,
      "vaihe": 2914,
      "saman": 2915,
      "eudu": 2916,
      "kohol": 2917,
      "rad": 2918,
      "vält": 2919,
      "aport": 2920,
      "airau": 2921,
      "paiko": 2922,
      "ttamu": 2923,
      "valto": 2924,
      "ehto": 2925,
      "ylen": 2926,
      "arvos": 2927,
      "iippu": 2928,
      "änen": 2929,
      "anno": 2930,
      "tilan": 2931,
      "inne": 2932,
      "sio": 2933,
      "änty": 2934,
      "ylm": 2935,
      "yksik": 2936,
      "silti": 2937,
      "stään": 2938,
      "sik": 2939,
      "ankeu": 2940,
      "tilo": 2941,
      "tyä": 2942,
      "uosik": 2943,
      "okse": 2944,
      "ess": 2945,
      "sis": 2946,
      "myr": 2947,
      "opp": 2948,
      "iito": 2949,
      "pohja": 2950,
      "kusta": 2951,
      "miksi": 2952,
      "iisu": 2953,
      "oehto": 2954,
      "ps": 2955,
      "sala": 2956,
      "50": 2957,
      "ip": 2958,
      "ietoa": 2959,
      "ba": 2960,
      "ria": 2961,
      "aad": 2962,
      "oir": 2963,
      "eera": 2964,
      "edu": 2965,
      "paris": 2966,
      "ein": 2967,
      "rmä": 2968,
      "talli": 2969,
      "mäe": 2970,
      "mistä": 2971,
      "sate": 2972,
      "amper": 2973,
      "npit": 2974,
      "eutu": 2975,
      "inis": 2976,
      "lat": 2977,
      "aikan": 2978,
      "ate": 2979,
      "uuluv": 2980,
      "töön": 2981,
      "nkert": 2982,
      "unti": 2983,
      "some": 2984,
      "karsi": 2985,
      "jätti": 2986,
      "lti": 2987,
      "palkk": 2988,
      "13": 2989,
      "dolla": 2990,
      "kova": 2991,
      "oper": 2992,
      "nder": 2993,
      "lain": 2994,
      "brit": 2995,
      "pyy": 2996,
      "ssi": 2997,
      "ettäv": 2998,
      "voito": 2999,
      "impi": 3000,
      "ouluk": 3001,
      "ue": 3002,
      "ila": 3003,
      "org": 3004,
      "tuttu": 3005,
      "anti": 3006,
      "yttö": 3007,
      "haav": 3008,
      "tön": 3009,
      "yksen": 3010,
      "oimak": 3011,
      "iv": 3012,
      "usjoh": 3013,
      "inu": 3014,
      "yysi": 3015,
      "kanta": 3016,
      "ranna": 3017,
      "entel": 3018,
      "yyd": 3019,
      "stus": 3020,
      "illan": 3021,
      "mari": 3022,
      "tiedä": 3023,
      "ean": 3024,
      "ausi": 3025,
      "järve": 3026,
      "aatte": 3027,
      "stuks": 3028,
      "##her": 3029,
      "eikka": 3030,
      "mät": 3031,
      "put": 3032,
      "sdp": 3033,
      "ukea": 3034,
      "vää": 3035,
      "ydi": 3036,
      "uum": 3037,
      "telem": 3038,
      "eläk": 3039,
      "##kuv": 3040,
      "iivi": 3041,
      "ius": 3042,
      "sattu": 3043,
      "liha": 3044,
      "esiin": 3045,
      "enr": 3046,
      "eensä": 3047,
      "armi": 3048,
      "ub": 3049,
      "täisi": 3050,
      "ork": 3051,
      "avoi": 3052,
      "inno": 3053,
      "uaali": 3054,
      "äivä": 3055,
      "kap": 3056,
      "ksan": 3057,
      "osto": 3058,
      "uone": 3059,
      "land": 3060,
      "umm": 3061,
      "armaa": 3062,
      "ahde": 3063,
      "isk": 3064,
      "ehot": 3065,
      "elasi": 3066,
      "kier": 3067,
      "ääjä": 3068,
      "ärki": 3069,
      "ppi": 3070,
      "ust": 3071,
      "apsen": 3072,
      "ärkeä": 3073,
      "25": 3074,
      "lav": 3075,
      "nap": 3076,
      "ig": 3077,
      "elke": 3078,
      "eikki": 3079,
      "yvä": 3080,
      "akot": 3081,
      "hetki": 3082,
      "juttu": 3083,
      "uri": 3084,
      "uto": 3085,
      "into": 3086,
      "pakk": 3087,
      "putin": 3088,
      "rinta": 3089,
      "sään": 3090,
      "irt": 3091,
      "mmi": 3092,
      "ert": 3093,
      "ataan": 3094,
      "hall": 3095,
      "aikoi": 3096,
      "isuus": 3097,
      "väl": 3098,
      "ntam": 3099,
      "omu": 3100,
      "uodo": 3101,
      "tuv": 3102,
      "jala": 3103,
      "isio": 3104,
      "tais": 3105,
      "nomai": 3106,
      "mero": 3107,
      "elu": 3108,
      "eetti": 3109,
      "ont": 3110,
      "uoliv": 3111,
      "ely": 3112,
      "uksel": 3113,
      "huone": 3114,
      "oimii": 3115,
      "kato": 3116,
      "äline": 3117,
      "14": 3118,
      "ji": 3119,
      "otto": 3120,
      "ttia": 3121,
      "ael": 3122,
      "ideo": 3123,
      "mma": 3124,
      "unna": 3125,
      "rek": 3126,
      "risti": 3127,
      "miel": 3128,
      "annu": 3129,
      "äinen": 3130,
      "urma": 3131,
      "syyt": 3132,
      "tter": 3133,
      "kkä": 3134,
      "oleva": 3135,
      "aalia": 3136,
      "pian": 3137,
      "äytyy": 3138,
      "aatti": 3139,
      "kiint": 3140,
      "piiri": 3141,
      "teja": 3142,
      "oitte": 3143,
      "ähtee": 3144,
      "hank": 3145,
      "dia": 3146,
      "tussa": 3147,
      "nost": 3148,
      "oinut": 3149,
      "ask": 3150,
      "iten": 3151,
      "uomar": 3152,
      "täe": 3153,
      "aare": 3154,
      "teet": 3155,
      "uima": 3156,
      "nteen": 3157,
      "ntään": 3158,
      "kkai": 3159,
      "kuvan": 3160,
      "alve": 3161,
      "ahta": 3162,
      "##ju": 3163,
      "don": 3164,
      "mel": 3165,
      "sent": 3166,
      "tsem": 3167,
      "iinä": 3168,
      "kats": 3169,
      "kaat": 3170,
      "if": 3171,
      "aket": 3172,
      "eir": 3173,
      "naur": 3174,
      "luva": 3175,
      "odi": 3176,
      "ula": 3177,
      "delli": 3178,
      "sama": 3179,
      "ors": 3180,
      "aalin": 3181,
      "ammik": 3182,
      "tuh": 3183,
      "vallo": 3184,
      "auan": 3185,
      "äivää": 3186,
      "öi": 3187,
      "pääss": 3188,
      "ardi": 3189,
      "öm": 3190,
      "tämis": 3191,
      "ehu": 3192,
      "16": 3193,
      "siko": 3194,
      "ele": 3195,
      "amine": 3196,
      "iihto": 3197,
      "netta": 3198,
      "kaise": 3199,
      "poj": 3200,
      "seur": 3201,
      "span": 3202,
      "kku": 3203,
      "ahaa": 3204,
      "äykse": 3205,
      "äd": 3206,
      "sinki": 3207,
      "uomal": 3208,
      "tapp": 3209,
      "tella": 3210,
      "liit": 3211,
      "mäk": 3212,
      "imman": 3213,
      "18": 3214,
      "ud": 3215,
      "spanj": 3216,
      "skus": 3217,
      "urj": 3218,
      "pohj": 3219,
      "ranta": 3220,
      "alaa": 3221,
      "ottam": 3222,
      "ove": 3223,
      "alust": 3224,
      "uuk": 3225,
      "wi": 3226,
      "mistu": 3227,
      "akas": 3228,
      "nkä": 3229,
      "lasta": 3230,
      "loh": 3231,
      "asem": 3232,
      "uolle": 3233,
      "arkka": 3234,
      "usea": 3235,
      "ilv": 3236,
      "apin": 3237,
      "ekst": 3238,
      "äässä": 3239,
      "poik": 3240,
      "kaver": 3241,
      "urun": 3242,
      "mark": 3243,
      "vansa": 3244,
      "ahvi": 3245,
      "kulta": 3246,
      "amer": 3247,
      "ättä": 3248,
      "päätö": 3249,
      "bar": 3250,
      "nty": 3251,
      "omp": 3252,
      "iak": 3253,
      "muuto": 3254,
      "ow": 3255,
      "yvää": 3256,
      "ilj": 3257,
      "aatii": 3258,
      "paa": 3259,
      "neli": 3260,
      "akso": 3261,
      "komis": 3262,
      "str": 3263,
      "ion": 3264,
      "alan": 3265,
      "uori": 3266,
      "menee": 3267,
      "lista": 3268,
      "17": 3269,
      "klo": 3270,
      "alvi": 3271,
      "imi": 3272,
      "aur": 3273,
      "uita": 3274,
      "pitk": 3275,
      "kkina": 3276,
      "iz": 3277,
      "gr": 3278,
      "erg": 3279,
      "ryhm": 3280,
      "isan": 3281,
      "via": 3282,
      "puut": 3283,
      "elij": 3284,
      "rova": 3285,
      "luot": 3286,
      "avi": 3287,
      "nes": 3288,
      "niem": 3289,
      "ksiin": 3290,
      "antu": 3291,
      "ome": 3292,
      "otell": 3293,
      "immi": 3294,
      "port": 3295,
      "otku": 3296,
      "sat": 3297,
      "para": 3298,
      "ttäis": 3299,
      "mah": 3300,
      "oott": 3301,
      "esu": 3302,
      "nio": 3303,
      "väri": 3304,
      "##od": 3305,
      "uno": 3306,
      "lus": 3307,
      "nik": 3308,
      "arina": 3309,
      "atar": 3310,
      "ntö": 3311,
      "alto": 3312,
      "sek": 3313,
      "ettua": 3314,
      "puhel": 3315,
      "katk": 3316,
      "ntie": 3317,
      "nla": 3318,
      "##co": 3319,
      "uru": 3320,
      "reen": 3321,
      "ympia": 3322,
      "iö": 3323,
      "vamm": 3324,
      "ety": 3325,
      "lm": 3326,
      "isält": 3327,
      "40": 3328,
      "nlais": 3329,
      "mpä": 3330,
      "##ba": 3331,
      "enit": 3332,
      "huol": 3333,
      "ye": 3334,
      "kalai": 3335,
      "kans": 3336,
      "##lia": 3337,
      "erro": 3338,
      "ralli": 3339,
      "menes": 3340,
      "säänt": 3341,
      "desta": 3342,
      "ep": 3343,
      "äin": 3344,
      "ammu": 3345,
      "arkki": 3346,
      "lie": 3347,
      "verra": 3348,
      "mättä": 3349,
      "uola": 3350,
      "iski": 3351,
      "suude": 3352,
      "arti": 3353,
      "lko": 3354,
      "enk": 3355,
      "rah": 3356,
      "sov": 3357,
      "vetä": 3358,
      "mir": 3359,
      "oksi": 3360,
      "ren": 3361,
      "ekij": 3362,
      "ndr": 3363,
      "ito": 3364,
      "ial": 3365,
      "kkää": 3366,
      "olmi": 3367,
      "matta": 3368,
      "leg": 3369,
      "fan": 3370,
      "lessa": 3371,
      "eili": 3372,
      "hah": 3373,
      "iim": 3374,
      "jälk": 3375,
      "ron": 3376,
      "nnon": 3377,
      "raska": 3378,
      "ieli": 3379,
      "linj": 3380,
      "nneen": 3381,
      "eena": 3382,
      "otil": 3383,
      "eilla": 3384,
      "ampi": 3385,
      "hahmo": 3386,
      "kasvo": 3387,
      "ppo": 3388,
      "uolta": 3389,
      "ääne": 3390,
      "rea": 3391,
      "uttaa": 3392,
      "omaa": 3393,
      "100": 3394,
      "muis": 3395,
      "lumi": 3396,
      "jääk": 3397,
      "oa": 3398,
      "##ivi": 3399,
      "talia": 3400,
      "veit": 3401,
      "äsi": 3402,
      "nassa": 3403,
      "oto": 3404,
      "ino": 3405,
      "äyn": 3406,
      "istol": 3407,
      "atsom": 3408,
      "mais": 3409,
      "mpaa": 3410,
      "aimi": 3411,
      "ommi": 3412,
      "eitti": 3413,
      "los": 3414,
      "hl": 3415,
      "auko": 3416,
      "taha": 3417,
      "auksi": 3418,
      "aksa": 3419,
      "oiton": 3420,
      "tien": 3421,
      "sääst": 3422,
      "yse": 3423,
      "iele": 3424,
      "tim": 3425,
      "ääk": 3426,
      "oppa": 3427,
      "rahoi": 3428,
      "ham": 3429,
      "lemme": 3430,
      "äly": 3431,
      "järv": 3432,
      "uodos": 3433,
      "hdy": 3434,
      "itkä": 3435,
      "maat": 3436,
      "rak": 3437,
      "ers": 3438,
      "lli": 3439,
      "jar": 3440,
      "esto": 3441,
      "pur": 3442,
      "osaa": 3443,
      "##ero": 3444,
      "äti": 3445,
      "jak": 3446,
      "kiert": 3447,
      "vahva": 3448,
      "sut": 3449,
      "anm": 3450,
      "ismi": 3451,
      "aisen": 3452,
      "rep": 3453,
      "yöpä": 3454,
      "vei": 3455,
      "nnes": 3456,
      "aje": 3457,
      "eute": 3458,
      "inkaa": 3459,
      "ere": 3460,
      "aul": 3461,
      "yyli": 3462,
      "ossa": 3463,
      "yv": 3464,
      "ritti": 3465,
      "ska": 3466,
      "evä": 3467,
      "ivi": 3468,
      "ekijö": 3469,
      "##eri": 3470,
      "oske": 3471,
      "tsev": 3472,
      "ätk": 3473,
      "ält": 3474,
      "ahd": 3475,
      "kke": 3476,
      "uvi": 3477,
      "tär": 3478,
      "tavi": 3479,
      "ailla": 3480,
      "äynni": 3481,
      "let": 3482,
      "rasi": 3483,
      "ansan": 3484,
      "ämm": 3485,
      "vast": 3486,
      "almi": 3487,
      "metri": 3488,
      "imma": 3489,
      "kr": 3490,
      "isty": 3491,
      "aihto": 3492,
      "unnan": 3493,
      "hty": 3494,
      "nien": 3495,
      "läine": 3496,
      "räjä": 3497,
      "korke": 3498,
      "nat": 3499,
      "urnau": 3500,
      "ippu": 3501,
      "äki": 3502,
      "nnit": 3503,
      "urha": 3504,
      "uudet": 3505,
      "sesta": 3506,
      "enni": 3507,
      "äänty": 3508,
      "24": 3509,
      "uski": 3510,
      "sille": 3511,
      "entä": 3512,
      "ash": 3513,
      "sor": 3514,
      "kesän": 3515,
      "asen": 3516,
      "oivo": 3517,
      "jan": 3518,
      "osin": 3519,
      "tuvat": 3520,
      "älttä": 3521,
      "oka": 3522,
      "pp": 3523,
      "ski": 3524,
      "hyp": 3525,
      "epp": 3526,
      "jatka": 3527,
      "tod": 3528,
      "yht": 3529,
      "unnis": 3530,
      "anga": 3531,
      "välit": 3532,
      "omuks": 3533,
      "evat": 3534,
      "ive": 3535,
      "leis": 3536,
      "ysti": 3537,
      "ekon": 3538,
      "lina": 3539,
      "outu": 3540,
      "isko": 3541,
      "nö": 3542,
      "isy": 3543,
      "tyn": 3544,
      "##ker": 3545,
      "viest": 3546,
      "nähdä": 3547,
      "kiis": 3548,
      "luk": 3549,
      "oise": 3550,
      "##dä": 3551,
      "aiv": 3552,
      "orn": 3553,
      "tama": 3554,
      "ttaj": 3555,
      "posti": 3556,
      "mc": 3557,
      "ös": 3558,
      "ater": 3559,
      "amas": 3560,
      "erää": 3561,
      "aise": 3562,
      "ins": 3563,
      "ääm": 3564,
      "kulm": 3565,
      "oen": 3566,
      "täne": 3567,
      "ntäm": 3568,
      "suk": 3569,
      "ntin": 3570,
      "ämme": 3571,
      "elev": 3572,
      "vuor": 3573,
      "tiivi": 3574,
      "uolen": 3575,
      "pelas": 3576,
      "linna": 3577,
      "eem": 3578,
      "lon": 3579,
      "sad": 3580,
      "aiset": 3581,
      "äärin": 3582,
      "ses": 3583,
      "mista": 3584,
      "ysee": 3585,
      "jalai": 3586,
      "näke": 3587,
      "amme": 3588,
      "our": 3589,
      "yksin": 3590,
      "aaliv": 3591,
      "avoim": 3592,
      "sh": 3593,
      "kome": 3594,
      "töä": 3595,
      "nka": 3596,
      "erot": 3597,
      "empa": 3598,
      "bri": 3599,
      "parin": 3600,
      "puk": 3601,
      "ttuja": 3602,
      "tajat": 3603,
      "nuk": 3604,
      "aata": 3605,
      "nnis": 3606,
      "teita": 3607,
      "nev": 3608,
      "eta": 3609,
      "kel": 3610,
      "##iv": 3611,
      "gu": 3612,
      "tue": 3613,
      "toon": 3614,
      "rhe": 3615,
      "eren": 3616,
      "riisi": 3617,
      "ug": 3618,
      "jäse": 3619,
      "iho": 3620,
      "kea": 3621,
      "ntaja": 3622,
      "syyte": 3623,
      "telua": 3624,
      "kait": 3625,
      "pani": 3626,
      "pano": 3627,
      "ennyt": 3628,
      "gol": 3629,
      "ovel": 3630,
      "vuode": 3631,
      "isemm": 3632,
      "irj": 3633,
      "aura": 3634,
      "vähä": 3635,
      "for": 3636,
      "tm": 3637,
      "arv": 3638,
      "ääd": 3639,
      "kaup": 3640,
      "yörä": 3641,
      "yri": 3642,
      "toks": 3643,
      "ysty": 3644,
      "riv": 3645,
      "intä": 3646,
      "este": 3647,
      "ieti": 3648,
      "usp": 3649,
      "olet": 3650,
      "ohtaj": 3651,
      "ositi": 3652,
      "rheil": 3653,
      "isö": 3654,
      "asuk": 3655,
      "iske": 3656,
      "tyt": 3657,
      "##bc": 3658,
      "eto": 3659,
      "aaja": 3660,
      "app": 3661,
      "teitä": 3662,
      "elt": 3663,
      "ack": 3664,
      "äkk": 3665,
      "une": 3666,
      "ope": 3667,
      "dän": 3668,
      "jais": 3669,
      "koo": 3670,
      "toa": 3671,
      "äärä": 3672,
      "osan": 3673,
      "emma": 3674,
      "öitä": 3675,
      "assi": 3676,
      "aini": 3677,
      "mot": 3678,
      "arme": 3679,
      "uuri": 3680,
      "esity": 3681,
      "ntoja": 3682,
      "iston": 3683,
      "ade": 3684,
      "aite": 3685,
      "kti": 3686,
      "kki": 3687,
      "anl": 3688,
      "tea": 3689,
      "arkas": 3690,
      "uka": 3691,
      "ento": 3692,
      "erra": 3693,
      "keli": 3694,
      "iikki": 3695,
      "go": 3696,
      "jaan": 3697,
      "air": 3698,
      "äid": 3699,
      "tteri": 3700,
      "anis": 3701,
      "nnen": 3702,
      "iiv": 3703,
      "ite": 3704,
      "aiem": 3705,
      "ulki": 3706,
      "lip": 3707,
      "utis": 3708,
      "oite": 3709,
      "amu": 3710,
      "täysi": 3711,
      "200": 3712,
      "teena": 3713,
      "inv": 3714,
      "aakk": 3715,
      "suoj": 3716,
      "amal": 3717,
      "oisin": 3718,
      "sinne": 3719,
      "pö": 3720,
      "olm": 3721,
      "aud": 3722,
      "lymp": 3723,
      "ec": 3724,
      "oke": 3725,
      "atal": 3726,
      "ova": 3727,
      "##by": 3728,
      "posit": 3729,
      "sisäl": 3730,
      "vänsä": 3731,
      "lve": 3732,
      "äivit": 3733,
      "ytyvä": 3734,
      "työn": 3735,
      "sijoi": 3736,
      "aria": 3737,
      "aalit": 3738,
      "nkari": 3739,
      "ävät": 3740,
      "vasti": 3741,
      "koit": 3742,
      "kur": 3743,
      "logi": 3744,
      "eräs": 3745,
      "syk": 3746,
      "kset": 3747,
      "kkel": 3748,
      "nkään": 3749,
      "upe": 3750,
      "talon": 3751,
      "ääs": 3752,
      "pelin": 3753,
      "innan": 3754,
      "muo": 3755,
      "arus": 3756,
      "ihmi": 3757,
      "iety": 3758,
      "hd": 3759,
      "ous": 3760,
      "omo": 3761,
      "uule": 3762,
      "aisk": 3763,
      "ltiin": 3764,
      "##istä": 3765,
      "takaa": 3766,
      "uhta": 3767,
      "tunee": 3768,
      "alt": 3769,
      "ranga": 3770,
      "uvu": 3771,
      "äk": 3772,
      "uoka": 3773,
      "otte": 3774,
      "annus": 3775,
      "erus": 3776,
      "oil": 3777,
      "ineen": 3778,
      "ärje": 3779,
      "ohtaa": 3780,
      "selle": 3781,
      "aap": 3782,
      "aaj": 3783,
      "kunni": 3784,
      "hak": 3785,
      "tilai": 3786,
      "musta": 3787,
      "be": 3788,
      "hte": 3789,
      "anee": 3790,
      "arjan": 3791,
      "itali": 3792,
      "äih": 3793,
      "veri": 3794,
      "käänt": 3795,
      "hn": 3796,
      "tilaa": 3797,
      "ämis": 3798,
      "muksi": 3799,
      "tumis": 3800,
      "ngl": 3801,
      "kuuta": 3802,
      "sivät": 3803,
      "utkij": 3804,
      "inun": 3805,
      "tra": 3806,
      "ypp": 3807,
      "arin": 3808,
      "opi": 3809,
      "istus": 3810,
      "kiit": 3811,
      "aalta": 3812,
      "usa": 3813,
      "sian": 3814,
      "pako": 3815,
      "##mar": 3816,
      "rata": 3817,
      "ame": 3818,
      "th": 3819,
      "aava": 3820,
      "sain": 3821,
      "ister": 3822,
      "ern": 3823,
      "ather": 3824,
      "opea": 3825,
      "ape": 3826,
      "della": 3827,
      "tuom": 3828,
      "uissa": 3829,
      "mital": 3830,
      "mässä": 3831,
      "22": 3832,
      "23": 3833,
      "oska": 3834,
      "ump": 3835,
      "lapi": 3836,
      "elk": 3837,
      "elto": 3838,
      "älä": 3839,
      "500": 3840,
      "akaa": 3841,
      "olu": 3842,
      "eeni": 3843,
      "huoli": 3844,
      "tall": 3845,
      "sella": 3846,
      "nnin": 3847,
      "roje": 3848,
      "allin": 3849,
      "insa": 3850,
      "ilk": 3851,
      "osti": 3852,
      "ähän": 3853,
      "21": 3854,
      "ästy": 3855,
      "annin": 3856,
      "ante": 3857,
      "tety": 3858,
      "sea": 3859,
      "ksa": 3860,
      "ona": 3861,
      "pah": 3862,
      "ello": 3863,
      "olais": 3864,
      "iil": 3865,
      "jet": 3866,
      "malla": 3867,
      "vien": 3868,
      "kaupp": 3869,
      "pil": 3870,
      "onni": 3871,
      "lei": 3872,
      "attav": 3873,
      "siksi": 3874,
      "ey": 3875,
      "rut": 3876,
      "angai": 3877,
      "ipu": 3878,
      "umi": 3879,
      "##ca": 3880,
      "ind": 3881,
      "uop": 3882,
      "kaike": 3883,
      "olk": 3884,
      "ntu": 3885,
      "össä": 3886,
      "ens": 3887,
      "enee": 3888,
      "rose": 3889,
      "siv": 3890,
      "tele": 3891,
      "omit": 3892,
      "raja": 3893,
      "pääst": 3894,
      "lime": 3895,
      "19": 3896,
      "ute": 3897,
      "ule": 3898,
      "viä": 3899,
      "nei": 3900,
      "hal": 3901,
      "unais": 3902,
      "out": 3903,
      "ennu": 3904,
      "tusk": 3905,
      "uheen": 3906,
      "vut": 3907,
      "uutu": 3908,
      "linen": 3909,
      "yöh": 3910,
      "rastu": 3911,
      "kuvaa": 3912,
      "olin": 3913,
      "ster": 3914,
      "yvän": 3915,
      "atsa": 3916,
      "60": 3917,
      "sko": 3918,
      "kim": 3919,
      "ymy": 3920,
      "alv": 3921,
      "tyne": 3922,
      "tensa": 3923,
      "ose": 3924,
      "kod": 3925,
      "era": 3926,
      "ttäv": 3927,
      "konf": 3928,
      "mpää": 3929,
      "kkö": 3930,
      "arjo": 3931,
      "aula": 3932,
      "isat": 3933,
      "27": 3934,
      "puu": 3935,
      "oha": 3936,
      "lom": 3937,
      "og": 3938,
      "ikka": 3939,
      "huole": 3940,
      "turna": 3941,
      "eella": 3942,
      "ica": 3943,
      "fi": 3944,
      "iemm": 3945,
      "uttu": 3946,
      "irkk": 3947,
      "aluei": 3948,
      "onto": 3949,
      "tem": 3950,
      "lehd": 3951,
      "ajam": 3952,
      "leht": 3953,
      "yden": 3954,
      "perin": 3955,
      "toki": 3956,
      "ral": 3957,
      "äänt": 3958,
      "oimaa": 3959,
      "noo": 3960,
      "ulke": 3961,
      "ähi": 3962,
      "äni": 3963,
      "pelaa": 3964,
      "anon": 3965,
      "äntä": 3966,
      "keil": 3967,
      "odist": 3968,
      "rän": 3969,
      "ntai": 3970,
      "edia": 3971,
      "ulje": 3972,
      "hol": 3973,
      "äp": 3974,
      "aris": 3975,
      "lisen": 3976,
      "aatto": 3977,
      "emi": 3978,
      "aansa": 3979,
      "nuori": 3980,
      "nnee": 3981,
      "alun": 3982,
      "tart": 3983,
      "ärv": 3984,
      "##yd": 3985,
      "kalli": 3986,
      "##ru": 3987,
      "mato": 3988,
      "ilev": 3989,
      "niä": 3990,
      "ohk": 3991,
      "uuten": 3992,
      "gran": 3993,
      "ukem": 3994,
      "int": 3995,
      "olt": 3996,
      "sv": 3997,
      "tuva": 3998,
      "nas": 3999,
      "enin": 4000,
      "tuis": 4001,
      "rem": 4002,
      "tusti": 4003,
      "kokoo": 4004,
      "avaa": 4005,
      "tellä": 4006,
      "auki": 4007,
      "sun": 4008,
      "ykk": 4009,
      "atr": 4010,
      "raina": 4011,
      "ykset": 4012,
      "iaal": 4013,
      "yp": 4014,
      "denk": 4015,
      "täjä": 4016,
      "tyttä": 4017,
      "vas": 4018,
      "ukko": 4019,
      "vuoro": 4020,
      "rovan": 4021,
      "muutt": 4022,
      "aper": 4023,
      "uunni": 4024,
      "ifk": 4025,
      "dr": 4026,
      "##mb": 4027,
      "ette": 4028,
      "rat": 4029,
      "neide": 4030,
      "nneks": 4031,
      "lit": 4032,
      "kou": 4033,
      "ore": 4034,
      "misen": 4035,
      "allis": 4036,
      "eika": 4037,
      "senä": 4038,
      "saan": 4039,
      "rkki": 4040,
      "anka": 4041,
      "alm": 4042,
      "kum": 4043,
      "kais": 4044,
      "yttäv": 4045,
      "töstä": 4046,
      "ovaa": 4047,
      "dus": 4048,
      "usk": 4049,
      "vy": 4050,
      "istää": 4051,
      "avan": 4052,
      "##nnu": 4053,
      "ttää": 4054,
      "öri": 4055,
      "eino": 4056,
      "uvia": 4057,
      "teke": 4058,
      "stäj": 4059,
      "ohe": 4060,
      "varo": 4061,
      "alme": 4062,
      "ht": 4063,
      "lep": 4064,
      "äästö": 4065,
      "##go": 4066,
      "inin": 4067,
      "iemi": 4068,
      "det": 4069,
      "ew": 4070,
      "list": 4071,
      "teide": 4072,
      "uste": 4073,
      "ure": 4074,
      "lov": 4075,
      "teltu": 4076,
      "fin": 4077,
      "vey": 4078,
      "ilä": 4079,
      "ulu": 4080,
      "oittu": 4081,
      "eka": 4082,
      "maine": 4083,
      "omat": 4084,
      "dok": 4085,
      "afp": 4086,
      "soda": 4087,
      "oris": 4088,
      "ros": 4089,
      "viera": 4090,
      "oisi": 4091,
      "iika": 4092,
      "osk": 4093,
      "alua": 4094,
      "atau": 4095,
      "iska": 4096,
      "arve": 4097,
      "bbc": 4098,
      "nutta": 4099,
      "rj": 4100,
      "äil": 4101,
      "nem": 4102,
      "mb": 4103,
      "tehd": 4104,
      "rikos": 4105,
      "araa": 4106,
      "urm": 4107,
      "yyte": 4108,
      "26": 4109,
      "eter": 4110,
      "aip": 4111,
      "hait": 4112,
      "iihd": 4113,
      "kielt": 4114,
      "ilee": 4115,
      "änn": 4116,
      "uran": 4117,
      "isena": 4118,
      "isimm": 4119,
      "eilij": 4120,
      "goi": 4121,
      "kuka": 4122,
      "turu": 4123,
      "otuks": 4124,
      "aaks": 4125,
      "ies": 4126,
      "tulle": 4127,
      "pidä": 4128,
      "##ps": 4129,
      "iss": 4130,
      "sunnu": 4131,
      "oro": 4132,
      "arvit": 4133,
      "omaan": 4134,
      "luu": 4135,
      "mut": 4136,
      "kanen": 4137,
      "inni": 4138,
      "keu": 4139,
      "rie": 4140,
      "aits": 4141,
      "nten": 4142,
      "essi": 4143,
      "urg": 4144,
      "rid": 4145,
      "innoi": 4146,
      "hs": 4147,
      "soi": 4148,
      "näy": 4149,
      "uollo": 4150,
      "auva": 4151,
      "isään": 4152,
      "ök": 4153,
      "##ber": 4154,
      "##ent": 4155,
      "eron": 4156,
      "oste": 4157,
      "samaa": 4158,
      "inais": 4159,
      "hmis": 4160,
      "unk": 4161,
      "stra": 4162,
      "elli": 4163,
      "aala": 4164,
      "ltaan": 4165,
      "ollis": 4166,
      "län": 4167,
      "koll": 4168,
      "ook": 4169,
      "okk": 4170,
      "uore": 4171,
      "ley": 4172,
      "ksien": 4173,
      "age": 4174,
      "yväs": 4175,
      "liitt": 4176,
      "tas": 4177,
      "lass": 4178,
      "ato": 4179,
      "anie": 4180,
      "oksia": 4181,
      "veyde": 4182,
      "ema": 4183,
      "otk": 4184,
      "nanta": 4185,
      "ikk": 4186,
      "suos": 4187,
      "uoles": 4188,
      "enny": 4189,
      "golf": 4190,
      "ske": 4191,
      "aras": 4192,
      "aiss": 4193,
      "ausk": 4194,
      "riste": 4195,
      "nter": 4196,
      "tover": 4197,
      "pen": 4198,
      "jaka": 4199,
      "ora": 4200,
      "viil": 4201,
      "saam": 4202,
      "kirk": 4203,
      "kkaa": 4204,
      "arko": 4205,
      "cnn": 4206,
      "ge": 4207,
      "omia": 4208,
      "eon": 4209,
      "misi": 4210,
      "pite": 4211,
      "väär": 4212,
      "eti": 4213,
      "yte": 4214,
      "ulis": 4215,
      "ehk": 4216,
      "imes": 4217,
      "muodo": 4218,
      "öt": 4219,
      "isoi": 4220,
      "atko": 4221,
      "atri": 4222,
      "ahi": 4223,
      "dat": 4224,
      "vala": 4225,
      "auna": 4226,
      "35": 4227,
      "untu": 4228,
      "väksi": 4229,
      "sih": 4230,
      "keho": 4231,
      "uhr": 4232,
      "allon": 4233,
      "kentä": 4234,
      "viiko": 4235,
      "airas": 4236,
      "stol": 4237,
      "ntiin": 4238,
      "rint": 4239,
      "tau": 4240,
      "nkii": 4241,
      "hankk": 4242,
      "irja": 4243,
      "##ci": 4244,
      "estö": 4245,
      "ile": 4246,
      "ampa": 4247,
      "rkist": 4248,
      "istis": 4249,
      "spe": 4250,
      "##rii": 4251,
      "ainee": 4252,
      "itell": 4253,
      "luke": 4254,
      "päil": 4255,
      "mani": 4256,
      "eak": 4257,
      "ielä": 4258,
      "alus": 4259,
      "oos": 4260,
      "sissa": 4261,
      "hun": 4262,
      "issu": 4263,
      "teer": 4264,
      "siä": 4265,
      "nalle": 4266,
      "ittu": 4267,
      "ost": 4268,
      "uttav": 4269,
      "istam": 4270,
      "uhu": 4271,
      "otus": 4272,
      "nai": 4273,
      "ostaa": 4274,
      "ns": 4275,
      "anh": 4276,
      "kav": 4277,
      "ikäi": 4278,
      "ansai": 4279,
      "allas": 4280,
      "sum": 4281,
      "ivu": 4282,
      "äme": 4283,
      "enta": 4284,
      "astel": 4285,
      "euvo": 4286,
      "ttäm": 4287,
      "emis": 4288,
      "otaa": 4289,
      "uoti": 4290,
      "mala": 4291,
      "nia": 4292,
      "28": 4293,
      "täys": 4294,
      "leik": 4295,
      "luist": 4296,
      "isiä": 4297,
      "diag": 4298,
      "gi": 4299,
      "lay": 4300,
      "sydä": 4301,
      "ellyt": 4302,
      "ison": 4303,
      "red": 4304,
      "ada": 4305,
      "dyt": 4306,
      "krii": 4307,
      "lyn": 4308,
      "iisi": 4309,
      "immä": 4310,
      "alik": 4311,
      "nh": 4312,
      "tuul": 4313,
      "tre": 4314,
      "hkä": 4315,
      "sak": 4316,
      "oiva": 4317,
      "ngel": 4318,
      "ellut": 4319,
      "lisi": 4320,
      "ökse": 4321,
      "seksi": 4322,
      "tutu": 4323,
      "##and": 4324,
      "takin": 4325,
      "uov": 4326,
      "ttävä": 4327,
      "gram": 4328,
      "ym": 4329,
      "##una": 4330,
      "tystä": 4331,
      "ntoa": 4332,
      "oinni": 4333,
      "äkkä": 4334,
      "aide": 4335,
      "oida": 4336,
      "nteis": 4337,
      "muute": 4338,
      "eil": 4339,
      "neita": 4340,
      "deksi": 4341,
      "averi": 4342,
      "huip": 4343,
      "raken": 4344,
      "##ood": 4345,
      "kivi": 4346,
      "ttyä": 4347,
      "oom": 4348,
      "vit": 4349,
      "yd": 4350,
      "anha": 4351,
      "alvo": 4352,
      "aas": 4353,
      "siin": 4354,
      "suju": 4355,
      "näki": 4356,
      "uotte": 4357,
      "palk": 4358,
      "öiden": 4359,
      "änt": 4360,
      "ulta": 4361,
      "aara": 4362,
      "ähkö": 4363,
      "kene": 4364,
      "we": 4365,
      "kossa": 4366,
      "orma": 4367,
      "pään": 4368,
      "aust": 4369,
      "eskit": 4370,
      "iks": 4371,
      "nähd": 4372,
      "itt": 4373,
      "kyy": 4374,
      "tävää": 4375,
      "koivu": 4376,
      "imä": 4377,
      "ökk": 4378,
      "öjä": 4379,
      "tuha": 4380,
      "tei": 4381,
      "nosti": 4382,
      "laati": 4383,
      "etuk": 4384,
      "kuri": 4385,
      "atto": 4386,
      "pääs": 4387,
      "akku": 4388,
      "yön": 4389,
      "oku": 4390,
      "äntö": 4391,
      "nlop": 4392,
      "esa": 4393,
      "rok": 4394,
      "vuu": 4395,
      "iassa": 4396,
      "uho": 4397,
      "onsa": 4398,
      "kail": 4399,
      "hai": 4400,
      "miste": 4401,
      "kaal": 4402,
      "she": 4403,
      "enkä": 4404,
      "mas": 4405,
      "nalai": 4406,
      "elj": 4407,
      "eltä": 4408,
      "lty": 4409,
      "ode": 4410,
      "koja": 4411,
      "auti": 4412,
      "apah": 4413,
      "29": 4414,
      "nmaa": 4415,
      "ret": 4416,
      "wil": 4417,
      "väis": 4418,
      "sur": 4419,
      "suute": 4420,
      "kulku": 4421,
      "henk": 4422,
      "ntel": 4423,
      "nnist": 4424,
      "läs": 4425,
      "syv": 4426,
      "rei": 4427,
      "imp": 4428,
      "lk": 4429,
      "erhe": 4430,
      "aalli": 4431,
      "käs": 4432,
      "uuto": 4433,
      "öytä": 4434,
      "aih": 4435,
      "ohjan": 4436,
      "utun": 4437,
      "salli": 4438,
      "suori": 4439,
      "paran": 4440,
      "ania": 4441,
      "ulma": 4442,
      "must": 4443,
      "iusa": 4444,
      "ämään": 4445,
      "isyyd": 4446,
      "odo": 4447,
      "##mmo": 4448,
      "rop": 4449,
      "ital": 4450,
      "äyte": 4451,
      "enäl": 4452,
      "sket": 4453,
      "hir": 4454,
      "jö": 4455,
      "itto": 4456,
      "reit": 4457,
      "nkk": 4458,
      "iita": 4459,
      "toive": 4460,
      "lasi": 4461,
      "äär": 4462,
      "osak": 4463,
      "400": 4464,
      "ilja": 4465,
      "verk": 4466,
      "oneen": 4467,
      "ioi": 4468,
      "tajaa": 4469,
      "ikeus": 4470,
      "välis": 4471,
      "##fa": 4472,
      "ars": 4473,
      "änd": 4474,
      "kana": 4475,
      "oc": 4476,
      "uli": 4477,
      "eim": 4478,
      "etsä": 4479,
      "aak": 4480,
      "väk": 4481,
      "utui": 4482,
      "ega": 4483,
      "##gan": 4484,
      "are": 4485,
      "ralla": 4486,
      "ttane": 4487,
      "##ppo": 4488,
      "300": 4489,
      "uen": 4490,
      "yti": 4491,
      "lak": 4492,
      "wal": 4493,
      "tein": 4494,
      "aremm": 4495,
      "nnet": 4496,
      "altai": 4497,
      "juoks": 4498,
      "80": 4499,
      "ttoi": 4500,
      "maja": 4501,
      "ohti": 4502,
      "tilä": 4503,
      "appe": 4504,
      "varma": 4505,
      "arje": 4506,
      "emä": 4507,
      "sessa": 4508,
      "kus": 4509,
      "not": 4510,
      "tinen": 4511,
      "astau": 4512,
      "nite": 4513,
      "uso": 4514,
      "aike": 4515,
      "auha": 4516,
      "delle": 4517,
      "evi": 4518,
      "nmaan": 4519,
      "uja": 4520,
      "##wa": 4521,
      "altaa": 4522,
      "pasi": 4523,
      "tym": 4524,
      "väki": 4525,
      "auka": 4526,
      "korva": 4527,
      "dop": 4528,
      "nku": 4529,
      "stav": 4530,
      "itk": 4531,
      "öntä": 4532,
      "tont": 4533,
      "ttis": 4534,
      "askel": 4535,
      "dis": 4536,
      "vist": 4537,
      "##per": 4538,
      "isten": 4539,
      "ieni": 4540,
      "ez": 4541,
      "ittav": 4542,
      "70": 4543,
      "fo": 4544,
      "etus": 4545,
      "kuo": 4546,
      "herä": 4547,
      "ulla": 4548,
      "uit": 4549,
      "inh": 4550,
      "aaka": 4551,
      "mal": 4552,
      "staa": 4553,
      "pailu": 4554,
      "tanee": 4555,
      "selvä": 4556,
      "kät": 4557,
      "ler": 4558,
      "tit": 4559,
      "ankk": 4560,
      "työt": 4561,
      "ulkom": 4562,
      "rista": 4563,
      "yöt": 4564,
      "unen": 4565,
      "alkan": 4566,
      "isenä": 4567,
      "eeri": 4568,
      "aitos": 4569,
      "olme": 4570,
      "ment": 4571,
      "untia": 4572,
      "fr": 4573,
      "istel": 4574,
      "mii": 4575,
      "yssä": 4576,
      "osen": 4577,
      "idä": 4578,
      "yistä": 4579,
      "viro": 4580,
      "moott": 4581,
      "itys": 4582,
      "rmo": 4583,
      "kia": 4584,
      "llist": 4585,
      "uhk": 4586,
      "emmat": 4587,
      "issi": 4588,
      "kop": 4589,
      "ult": 4590,
      "##uru": 4591,
      "liv": 4592,
      "ittai": 4593,
      "##bi": 4594,
      "koil": 4595,
      "ias": 4596,
      "kej": 4597,
      "lia": 4598,
      "yst": 4599,
      "laaja": 4600,
      "eko": 4601,
      "oks": 4602,
      "telle": 4603,
      "tok": 4604,
      "rkp": 4605,
      "avid": 4606,
      "oisia": 4607,
      "iris": 4608,
      "irka": 4609,
      "uihin": 4610,
      "ytys": 4611,
      "yksis": 4612,
      "ousu": 4613,
      "kkee": 4614,
      "entää": 4615,
      "anma": 4616,
      "kava": 4617,
      "rap": 4618,
      "log": 4619,
      "ttui": 4620,
      "tynyt": 4621,
      "oilta": 4622,
      "tko": 4623,
      "suoja": 4624,
      "pos": 4625,
      "tavaa": 4626,
      "oistu": 4627,
      "bu": 4628,
      "inte": 4629,
      "iigan": 4630,
      "viron": 4631,
      "lent": 4632,
      "matt": 4633,
      "bi": 4634,
      "kah": 4635,
      "adan": 4636,
      "caro": 4637,
      "mö": 4638,
      "koise": 4639,
      "alai": 4640,
      "tauo": 4641,
      "tuut": 4642,
      "vassa": 4643,
      "##ere": 4644,
      "merk": 4645,
      "ähti": 4646,
      "aks": 4647,
      "njoh": 4648,
      "tes": 4649,
      "vet": 4650,
      "##end": 4651,
      "tyi": 4652,
      "iell": 4653,
      "ikki": 4654,
      "nettu": 4655,
      "ämp": 4656,
      "jok": 4657,
      "innos": 4658,
      "ima": 4659,
      "sän": 4660,
      "iekk": 4661,
      "htaa": 4662,
      "oppu": 4663,
      "erän": 4664,
      "atkuv": 4665,
      "konee": 4666,
      "uluva": 4667,
      "kari": 4668,
      "auh": 4669,
      "jokai": 4670,
      "omero": 4671,
      "opeu": 4672,
      "ger": 4673,
      "lku": 4674,
      "##ft": 4675,
      "ons": 4676,
      "max": 4677,
      "paan": 4678,
      "itty": 4679,
      "okuv": 4680,
      "kuvat": 4681,
      "lanti": 4682,
      "km": 4683,
      "kuv": 4684,
      "aalis": 4685,
      "45": 4686,
      "ts": 4687,
      "arka": 4688,
      "amo": 4689,
      "ikan": 4690,
      "huolt": 4691,
      "ved": 4692,
      "läsnä": 4693,
      "ekä": 4694,
      "yvät": 4695,
      "öin": 4696,
      "tasi": 4697,
      "ankar": 4698,
      "tuus": 4699,
      "äne": 4700,
      "ram": 4701,
      "dig": 4702,
      "tyyl": 4703,
      "nsim": 4704,
      "avia": 4705,
      "arta": 4706,
      "iilo": 4707,
      "ace": 4708,
      "innu": 4709,
      "styks": 4710,
      "einen": 4711,
      "anu": 4712,
      "atvia": 4713,
      "lio": 4714,
      "tarv": 4715,
      "amin": 4716,
      "eos": 4717,
      "äisi": 4718,
      "änet": 4719,
      "laski": 4720,
      "htiö": 4721,
      "pt": 4722,
      "eny": 4723,
      "##kär": 4724,
      "yhtey": 4725,
      "joukk": 4726,
      "ävy": 4727,
      "evät": 4728,
      "asva": 4729,
      "malt": 4730,
      "neis": 4731,
      "kiva": 4732,
      "tyk": 4733,
      "pat": 4734,
      "link": 4735,
      "laitt": 4736,
      "ulkop": 4737,
      "omien": 4738,
      "siiv": 4739,
      "luks": 4740,
      "töks": 4741,
      "ntia": 4742,
      "vissa": 4743,
      "hit": 4744,
      "##up": 4745,
      "syl": 4746,
      "istaa": 4747,
      "mys": 4748,
      "kuit": 4749,
      "matk": 4750,
      "eljä": 4751,
      "unno": 4752,
      "löi": 4753,
      "uet": 4754,
      "yne": 4755,
      "##ler": 4756,
      "anss": 4757,
      "iedo": 4758,
      "ataa": 4759,
      "kym": 4760,
      "hot": 4761,
      "iste": 4762,
      "utti": 4763,
      "konen": 4764,
      "kt": 4765,
      "mmo": 4766,
      "alb": 4767,
      "tarin": 4768,
      "saane": 4769,
      "ehe": 4770,
      "rb": 4771,
      "alon": 4772,
      "arke": 4773,
      "usto": 4774,
      "rauh": 4775,
      "jalk": 4776,
      "ostam": 4777,
      "eltu": 4778,
      "mpere": 4779,
      "odote": 4780,
      "##uma": 4781,
      "inl": 4782,
      "kasi": 4783,
      "äsk": 4784,
      "nsin": 4785,
      "tkin": 4786,
      "ävä": 4787,
      "kaut": 4788,
      "aast": 4789,
      "nar": 4790,
      "lukse": 4791,
      "jonk": 4792,
      "otim": 4793,
      "elpo": 4794,
      "nnoi": 4795,
      "toipu": 4796,
      "teema": 4797,
      "köi": 4798,
      "tteli": 4799,
      "sikko": 4800,
      "lp": 4801,
      "##bin": 4802,
      "lari": 4803,
      "ähde": 4804,
      "llan": 4805,
      "entaa": 4806,
      "erin": 4807,
      "mun": 4808,
      "äsen": 4809,
      "hri": 4810,
      "uma": 4811,
      "soo": 4812,
      "alat": 4813,
      "lanni": 4814,
      "laat": 4815,
      "rva": 4816,
      "ituks": 4817,
      "##za": 4818,
      "edo": 4819,
      "kons": 4820,
      "reena": 4821,
      "äily": 4822,
      "ikse": 4823,
      "nur": 4824,
      "uee": 4825,
      "aivaa": 4826,
      "laps": 4827,
      "hää": 4828,
      "90": 4829,
      "tsa": 4830,
      "elv": 4831,
      "oika": 4832,
      "tammi": 4833,
      "ytty": 4834,
      "innä": 4835,
      "car": 4836,
      "mman": 4837,
      "llyt": 4838,
      "aate": 4839,
      "lassa": 4840,
      "masta": 4841,
      "top": 4842,
      "uusk": 4843,
      "yör": 4844,
      "hum": 4845,
      "vaikk": 4846,
      "tanen": 4847,
      "koho": 4848,
      "ytti": 4849,
      "idea": 4850,
      "evan": 4851,
      "line": 4852,
      "isän": 4853,
      "uska": 4854,
      "toisi": 4855,
      "atka": 4856,
      "itsi": 4857,
      "rati": 4858,
      "ääki": 4859,
      "rill": 4860,
      "äivi": 4861,
      "yös": 4862,
      "yrk": 4863,
      "eoll": 4864,
      "auli": 4865,
      "yöm": 4866,
      "ner": 4867,
      "oko": 4868,
      "tk": 4869,
      "onna": 4870,
      "tetu": 4871,
      "pila": 4872,
      "uutee": 4873,
      "amb": 4874,
      "arab": 4875,
      "can": 4876,
      "skin": 4877,
      "aalie": 4878,
      "pla": 4879,
      "lly": 4880,
      "ltav": 4881,
      "31": 4882,
      "eija": 4883,
      "trend": 4884,
      "entin": 4885,
      "sestä": 4886,
      "nest": 4887,
      "yo": 4888,
      "yyty": 4889,
      "nal": 4890,
      "soker": 4891,
      "uista": 4892,
      "iista": 4893,
      "anja": 4894,
      "seis": 4895,
      "ieno": 4896,
      "rii": 4897,
      "ammi": 4898,
      "ärs": 4899,
      "anan": 4900,
      "alti": 4901,
      "estää": 4902,
      "päätt": 4903,
      "evää": 4904,
      "akuu": 4905,
      "äjä": 4906,
      "tol": 4907,
      "aval": 4908,
      "inal": 4909,
      "ikea": 4910,
      "tl": 4911,
      "##rk": 4912,
      "uudi": 4913,
      "oiv": 4914,
      "eisk": 4915,
      "merc": 4916,
      "eeksi": 4917,
      "ijan": 4918,
      "netti": 4919,
      "dut": 4920,
      "uske": 4921,
      "ohja": 4922,
      "elik": 4923,
      "exp": 4924,
      "hetk": 4925,
      "etää": 4926,
      "mpa": 4927,
      "äj": 4928,
      "##ek": 4929,
      "##ins": 4930,
      "kaist": 4931,
      "hat": 4932,
      "olem": 4933,
      "rov": 4934,
      "lyy": 4935,
      "ohdi": 4936,
      "32": 4937,
      "tik": 4938,
      "yä": 4939,
      "atin": 4940,
      "llise": 4941,
      "harj": 4942,
      "kerra": 4943,
      "akka": 4944,
      "utust": 4945,
      "evo": 4946,
      "mana": 4947,
      "aru": 4948,
      "sas": 4949,
      "ntak": 4950,
      "ulev": 4951,
      "eut": 4952,
      "unu": 4953,
      "eam": 4954,
      "unai": 4955,
      "eskel": 4956,
      "akia": 4957,
      "##be": 4958,
      "onin": 4959,
      "##lor": 4960,
      "konku": 4961,
      "eist": 4962,
      "elee": 4963,
      "##lem": 4964,
      "kang": 4965,
      "harri": 4966,
      "mmat": 4967,
      "kaisa": 4968,
      "etti": 4969,
      "voin": 4970,
      "melk": 4971,
      "nun": 4972,
      "rinen": 4973,
      "vais": 4974,
      "esse": 4975,
      "ass": 4976,
      "stap": 4977,
      "ottu": 4978,
      "nton": 4979,
      "ohje": 4980,
      "rss": 4981,
      "uda": 4982,
      "##hku": 4983,
      "mater": 4984,
      "ilti": 4985,
      "tietä": 4986,
      "itää": 4987,
      "vank": 4988,
      "utune": 4989,
      "alit": 4990,
      "anth": 4991,
      "okkaa": 4992,
      "ees": 4993,
      "asku": 4994,
      "##par": 4995,
      "anche": 4996,
      "fa": 4997,
      "lkee": 4998,
      "upo": 4999,
      "etro": 5000,
      "aske": 5001,
      "urist": 5002,
      "opo": 5003,
      "ttäjä": 5004,
      "entt": 5005,
      "silta": 5006,
      "ivist": 5007,
      "kkiä": 5008,
      "doi": 5009,
      "uko": 5010,
      "##sb": 5011,
      "mail": 5012,
      "aille": 5013,
      "emo": 5014,
      "jia": 5015,
      "von": 5016,
      "##män": 5017,
      "ande": 5018,
      "inp": 5019,
      "aavo": 5020,
      "pas": 5021,
      "ihla": 5022,
      "ikon": 5023,
      "ups": 5024,
      "dosta": 5025,
      "ainaa": 5026,
      "aasa": 5027,
      "voida": 5028,
      "anner": 5029,
      "ness": 5030,
      "uti": 5031,
      "keik": 5032,
      "urva": 5033,
      "skal": 5034,
      "34": 5035,
      "36": 5036,
      "ikai": 5037,
      "##jen": 5038,
      "alen": 5039,
      "ary": 5040,
      "rav": 5041,
      "ääj": 5042,
      "iskun": 5043,
      "hjel": 5044,
      "jien": 5045,
      "ao": 5046,
      "enka": 5047,
      "anko": 5048,
      "ono": 5049,
      "etr": 5050,
      "kua": 5051,
      "##mpu": 5052,
      "toni": 5053,
      "des": 5054,
      "sr": 5055,
      "kolla": 5056,
      "ily": 5057,
      "uss": 5058,
      "ott": 5059,
      "osia": 5060,
      "atie": 5061,
      "tymis": 5062,
      "kant": 5063,
      "siirt": 5064,
      "ames": 5065,
      "ce": 5066,
      "miin": 5067,
      "ulm": 5068,
      "ntaan": 5069,
      "lenk": 5070,
      "ekse": 5071,
      "##oni": 5072,
      "äyks": 5073,
      "ovan": 5074,
      "iitti": 5075,
      "raal": 5076,
      "ever": 5077,
      "iisa": 5078,
      "isar": 5079,
      "insä": 5080,
      "iljo": 5081,
      "vika": 5082,
      "ääv": 5083,
      "minut": 5084,
      "skel": 5085,
      "ikeu": 5086,
      "glo": 5087,
      "vinen": 5088,
      "mien": 5089,
      "mäl": 5090,
      "uiv": 5091,
      "uiva": 5092,
      "ff": 5093,
      "aasu": 5094,
      "stan": 5095,
      "akan": 5096,
      "akti": 5097,
      "ikoi": 5098,
      "konkr": 5099,
      "sitte": 5100,
      "täs": 5101,
      "emään": 5102,
      "rt": 5103,
      "uise": 5104,
      "ytö": 5105,
      "ipe": 5106,
      "rc": 5107,
      "uuti": 5108,
      "uuma": 5109,
      "aikko": 5110,
      "tymä": 5111,
      "iru": 5112,
      "otan": 5113,
      "pyörä": 5114,
      "rot": 5115,
      "yyt": 5116,
      "tail": 5117,
      "eih": 5118,
      "käi": 5119,
      "gat": 5120,
      "aisee": 5121,
      "loist": 5122,
      "oso": 5123,
      "nant": 5124,
      "800": 5125,
      "äen": 5126,
      "ish": 5127,
      "uulla": 5128,
      "unne": 5129,
      "mann": 5130,
      "tilla": 5131,
      "liev": 5132,
      "puhut": 5133,
      "satam": 5134,
      "hta": 5135,
      "res": 5136,
      "skon": 5137,
      "##fe": 5138,
      "joit": 5139,
      "teis": 5140,
      "iikke": 5141,
      "ierai": 5142,
      "ntine": 5143,
      "empä": 5144,
      "glob": 5145,
      "hko": 5146,
      "ähd": 5147,
      "oide": 5148,
      "iip": 5149,
      "emmi": 5150,
      "karhu": 5151,
      "yttäm": 5152,
      "kouvo": 5153,
      "stain": 5154,
      "dip": 5155,
      "uttua": 5156,
      "fc": 5157,
      "pot": 5158,
      "ajar": 5159,
      "risto": 5160,
      "ainut": 5161,
      "ränd": 5162,
      "htu": 5163,
      "tro": 5164,
      "uki": 5165,
      "apaik": 5166,
      "lys": 5167,
      "millä": 5168,
      "tyvät": 5169,
      "lleet": 5170,
      "yyn": 5171,
      "uheli": 5172,
      "33": 5173,
      "öit": 5174,
      "##ry": 5175,
      "##kuu": 5176,
      "niuk": 5177,
      "ance": 5178,
      "itus": 5179,
      "ullu": 5180,
      "del": 5181,
      "tävi": 5182,
      "elma": 5183,
      "noj": 5184,
      "kaani": 5185,
      "fir": 5186,
      "ppu": 5187,
      "anot": 5188,
      "koir": 5189,
      "kimmo": 5190,
      "auno": 5191,
      "utua": 5192,
      "ellu": 5193,
      "murh": 5194,
      "ottav": 5195,
      "entam": 5196,
      "orj": 5197,
      "sse": 5198,
      "harjo": 5199,
      "unsa": 5200,
      "puna": 5201,
      "iem": 5202,
      "mini": 5203,
      "irto": 5204,
      "montr": 5205,
      "htä": 5206,
      "pist": 5207,
      "ppaa": 5208,
      "ett": 5209,
      "tajia": 5210,
      "apaa": 5211,
      "emmä": 5212,
      "kulk": 5213,
      "appu": 5214,
      "ivä": 5215,
      "lton": 5216,
      "tri": 5217,
      "öö": 5218,
      "nilla": 5219,
      "otka": 5220,
      "kauk": 5221,
      "naura": 5222,
      "tiai": 5223,
      "taho": 5224,
      "kara": 5225,
      "arc": 5226,
      "uuh": 5227,
      "##hea": 5228,
      "käis": 5229,
      "vär": 5230,
      "ehn": 5231,
      "saira": 5232,
      "molem": 5233,
      "ullo": 5234,
      "inja": 5235,
      "keen": 5236,
      "roo": 5237,
      "ilais": 5238,
      "iro": 5239,
      "rö": 5240,
      "arm": 5241,
      "silla": 5242,
      "aup": 5243,
      "seni": 5244,
      "kyv": 5245,
      "lintu": 5246,
      "ainaj": 5247,
      "rinte": 5248,
      "dossa": 5249,
      "der": 5250,
      "ekko": 5251,
      "mv": 5252,
      "erve": 5253,
      "saami": 5254,
      "oru": 5255,
      "oito": 5256,
      "mällä": 5257,
      "roa": 5258,
      "austa": 5259,
      "him": 5260,
      "color": 5261,
      "kkös": 5262,
      "ynt": 5263,
      "ittä": 5264,
      "lois": 5265,
      "oteut": 5266,
      "valio": 5267,
      "ido": 5268,
      "rl": 5269,
      "ör": 5270,
      "inki": 5271,
      "taji": 5272,
      "fton": 5273,
      "mite": 5274,
      "rvo": 5275,
      "##ger": 5276,
      "onka": 5277,
      "oho": 5278,
      "tämät": 5279,
      "ellai": 5280,
      "ftonb": 5281,
      "ben": 5282,
      "ya": 5283,
      "kot": 5284,
      "tij": 5285,
      "iia": 5286,
      "ruok": 5287,
      "smi": 5288,
      "elmi": 5289,
      "ung": 5290,
      "iiden": 5291,
      "iek": 5292,
      "hee": 5293,
      "tani": 5294,
      "irr": 5295,
      "iov": 5296,
      "uos": 5297,
      "miä": 5298,
      "kiri": 5299,
      "yttää": 5300,
      "ärkei": 5301,
      "aksu": 5302,
      "cha": 5303,
      "gra": 5304,
      "ulli": 5305,
      "##nes": 5306,
      "usin": 5307,
      "aken": 5308,
      "tuoll": 5309,
      "elit": 5310,
      "ikin": 5311,
      "##eh": 5312,
      "oimis": 5313,
      "reuna": 5314,
      "akkaa": 5315,
      "ähtä": 5316,
      "37": 5317,
      "akk": 5318,
      "oton": 5319,
      "ree": 5320,
      "uvan": 5321,
      "##bo": 5322,
      "koon": 5323,
      "erm": 5324,
      "rast": 5325,
      "telun": 5326,
      "reh": 5327,
      "elim": 5328,
      "otia": 5329,
      "äistä": 5330,
      "38": 5331,
      "ef": 5332,
      "kit": 5333,
      "uok": 5334,
      "##uun": 5335,
      "unto": 5336,
      "syvä": 5337,
      "yönt": 5338,
      "das": 5339,
      "kij": 5340,
      "väs": 5341,
      "loo": 5342,
      "roon": 5343,
      "iljoo": 5344,
      "##gu": 5345,
      "iloi": 5346,
      "iai": 5347,
      "aiki": 5348,
      "auni": 5349,
      "ntol": 5350,
      "emin": 5351,
      "tissa": 5352,
      "inuut": 5353,
      "ysi": 5354,
      "öistä": 5355,
      "##gg": 5356,
      "anin": 5357,
      "huom": 5358,
      "turku": 5359,
      "600": 5360,
      "ivo": 5361,
      "kg": 5362,
      "uke": 5363,
      "jassa": 5364,
      "lause": 5365,
      "ykyä": 5366,
      "iike": 5367,
      "nuu": 5368,
      "rto": 5369,
      "ttei": 5370,
      "enki": 5371,
      "yrity": 5372,
      "selta": 5373,
      "wall": 5374,
      "sho": 5375,
      "tyv": 5376,
      "150": 5377,
      "ation": 5378,
      "emise": 5379,
      "ambul": 5380,
      "ltu": 5381,
      "oder": 5382,
      "rvi": 5383,
      "onia": 5384,
      "aro": 5385,
      "kiuru": 5386,
      "ehme": 5387,
      "istum": 5388,
      "enj": 5389,
      "antee": 5390,
      "esin": 5391,
      "uuni": 5392,
      "pak": 5393,
      "myön": 5394,
      "yhty": 5395,
      "ttua": 5396,
      "hv": 5397,
      "itaa": 5398,
      "anoi": 5399,
      "kala": 5400,
      "aio": 5401,
      "tou": 5402,
      "lev": 5403,
      "uihku": 5404,
      "otila": 5405,
      "immäi": 5406,
      "ahdo": 5407,
      "ekka": 5408,
      "nin": 5409,
      "sei": 5410,
      "västi": 5411,
      "pui": 5412,
      "oonas": 5413,
      "maid": 5414,
      "atila": 5415,
      "gp": 5416,
      "nkki": 5417,
      "##cu": 5418,
      "##ze": 5419,
      "laus": 5420,
      "eelli": 5421,
      "agg": 5422,
      "ikas": 5423,
      "pät": 5424,
      "sl": 5425,
      "enp": 5426,
      "jalla": 5427,
      "viho": 5428,
      "lokuv": 5429,
      "kesk": 5430,
      "eits": 5431,
      "##ah": 5432,
      "kup": 5433,
      "arvi": 5434,
      "aim": 5435,
      "yhmä": 5436,
      "kemi": 5437,
      "hyök": 5438,
      "listi": 5439,
      "toria": 5440,
      "tynee": 5441,
      "änny": 5442,
      "jk": 5443,
      "nään": 5444,
      "läi": 5445,
      "oiti": 5446,
      "aji": 5447,
      "ikö": 5448,
      "ksy": 5449,
      "maija": 5450,
      "treff": 5451,
      "mt": 5452,
      "ruk": 5453,
      "uton": 5454,
      "paik": 5455,
      "usti": 5456,
      "leve": 5457,
      "kei": 5458,
      "rien": 5459,
      "dot": 5460,
      "entti": 5461,
      "ald": 5462,
      "iam": 5463,
      "nge": 5464,
      "iert": 5465,
      "ikais": 5466,
      "stee": 5467,
      "ilpi": 5468,
      "rim": 5469,
      "inai": 5470,
      "mets": 5471,
      "mvp": 5472,
      "onk": 5473,
      "sip": 5474,
      "mall": 5475,
      "ääkär": 5476,
      "oss": 5477,
      "tääl": 5478,
      "ärve": 5479,
      "alkap": 5480,
      "kkala": 5481,
      "hdys": 5482,
      "granl": 5483,
      "rgi": 5484,
      "enem": 5485,
      "aamis": 5486,
      "viin": 5487,
      "auhea": 5488,
      "yötä": 5489,
      "nkiin": 5490,
      "utuu": 5491,
      "stis": 5492,
      "saldo": 5493,
      "eppo": 5494,
      "iol": 5495,
      "rg": 5496,
      "rme": 5497,
      "uv": 5498,
      "##ya": 5499,
      "toeh": 5500,
      "yökk": 5501,
      "koitu": 5502,
      "kyt": 5503,
      "ysä": 5504,
      "iihe": 5505,
      "sena": 5506,
      "ammas": 5507,
      "tteet": 5508,
      "kkos": 5509,
      "kkuu": 5510,
      "östä": 5511,
      "eila": 5512,
      "sellä": 5513,
      "kiek": 5514,
      "lepo": 5515,
      "yss": 5516,
      "robin": 5517,
      "istuv": 5518,
      "uisku": 5519,
      "okai": 5520,
      "ser": 5521,
      "wood": 5522,
      "ötä": 5523,
      "jah": 5524,
      "##kal": 5525,
      "arkk": 5526,
      "arvel": 5527,
      "uur": 5528,
      "ush": 5529,
      "kiist": 5530,
      "lempi": 5531,
      "kissa": 5532,
      "täht": 5533,
      "ertt": 5534,
      "distu": 5535,
      "öä": 5536,
      "johd": 5537,
      "elan": 5538,
      "pia": 5539,
      "pudo": 5540,
      "ntav": 5541,
      "roll": 5542,
      "kulje": 5543,
      "gall": 5544,
      "omea": 5545,
      "con": 5546,
      "gro": 5547,
      "ipp": 5548,
      "ipä": 5549,
      "kkaan": 5550,
      "llät": 5551,
      "erge": 5552,
      "aill": 5553,
      "ats": 5554,
      "kein": 5555,
      "iene": 5556,
      "käyte": 5557,
      "kont": 5558,
      "hom": 5559,
      "vistä": 5560,
      "unnas": 5561,
      "nba": 5562,
      "upp": 5563,
      "sir": 5564,
      "mag": 5565,
      "iaan": 5566,
      "ehden": 5567,
      "tervo": 5568,
      "rkku": 5569,
      "ntee": 5570,
      "pek": 5571,
      "älk": 5572,
      "onie": 5573,
      "41": 5574,
      "75": 5575,
      "nf": 5576,
      "uome": 5577,
      "asv": 5578,
      "ukan": 5579,
      "pum": 5580,
      "suz": 5581,
      "mea": 5582,
      "ttely": 5583,
      "avol": 5584,
      "ullis": 5585,
      "ttori": 5586,
      "lkka": 5587,
      "uten": 5588,
      "ankin": 5589,
      "ets": 5590,
      "jään": 5591,
      "pua": 5592,
      "lahja": 5593,
      "uojel": 5594,
      "äty": 5595,
      "##ud": 5596,
      "etin": 5597,
      "kuk": 5598,
      "atk": 5599,
      "ttais": 5600,
      "istan": 5601,
      "apsi": 5602,
      "korko": 5603,
      "rans": 5604,
      "ännyt": 5605,
      "39": 5606,
      "bil": 5607,
      "aimo": 5608,
      "oston": 5609,
      "tapau": 5610,
      "olody": 5611,
      "ihe": 5612,
      "ulle": 5613,
      "arra": 5614,
      "arhu": 5615,
      "niit": 5616,
      "aun": 5617,
      "urt": 5618,
      "risk": 5619,
      "ttyi": 5620,
      "ertai": 5621,
      "55": 5622,
      "ävi": 5623,
      "eria": 5624,
      "aama": 5625,
      "pauk": 5626,
      "toh": 5627,
      "nil": 5628,
      "vaar": 5629,
      "outo": 5630,
      "vits": 5631,
      "iaali": 5632,
      "umis": 5633,
      "iehe": 5634,
      "suunt": 5635,
      "turma": 5636,
      "##ord": 5637,
      "elly": 5638,
      "tuuri": 5639,
      "häi": 5640,
      "ppuun": 5641,
      "tso": 5642,
      "##ski": 5643,
      "uod": 5644,
      "aavat": 5645,
      "iiva": 5646,
      "ick": 5647,
      "antt": 5648,
      "ävän": 5649,
      "sessä": 5650,
      "airaa": 5651,
      "46": 5652,
      "akaan": 5653,
      "sss": 5654,
      "ulai": 5655,
      "kassa": 5656,
      "lam": 5657,
      "toist": 5658,
      "yhmän": 5659,
      "oten": 5660,
      "ied": 5661,
      "rock": 5662,
      "inaan": 5663,
      "edust": 5664,
      "nnat": 5665,
      "kierr": 5666,
      "unnos": 5667,
      "44": 5668,
      "nää": 5669,
      "talla": 5670,
      "anaa": 5671,
      "ettom": 5672,
      "eris": 5673,
      "elp": 5674,
      "elmä": 5675,
      "italo": 5676,
      "ranni": 5677,
      "stys": 5678,
      "##ld": 5679,
      "##br": 5680,
      "##mpp": 5681,
      "noll": 5682,
      "audi": 5683,
      "louk": 5684,
      "telmä": 5685,
      "tusp": 5686,
      "korpi": 5687,
      "##old": 5688,
      "äytä": 5689,
      "ämine": 5690,
      "opa": 5691,
      "sus": 5692,
      "vin": 5693,
      "aren": 5694,
      "tyj": 5695,
      "ivan": 5696,
      "rää": 5697,
      "uan": 5698,
      "uist": 5699,
      "jote": 5700,
      "uulo": 5701,
      "ähes": 5702,
      "ayne": 5703,
      "siak": 5704,
      "mcd": 5705,
      "eck": 5706,
      "ukas": 5707,
      "##cia": 5708,
      "ones": 5709,
      "kuume": 5710,
      "grön": 5711,
      "show": 5712,
      "65": 5713,
      "jun": 5714,
      "pon": 5715,
      "ume": 5716,
      "äkä": 5717,
      "inan": 5718,
      "kam": 5719,
      "##lar": 5720,
      "piin": 5721,
      "maas": 5722,
      "ehty": 5723,
      "prins": 5724,
      "uhal": 5725,
      "hdist": 5726,
      "hirmu": 5727,
      "inut": 5728,
      "kio": 5729,
      "iedä": 5730,
      "vähen": 5731,
      "ivoi": 5732,
      "firma": 5733,
      "ittäm": 5734,
      "700": 5735,
      "eksa": 5736,
      "mpu": 5737,
      "##tai": 5738,
      "##llu": 5739,
      "ism": 5740,
      "korja": 5741,
      "uom": 5742,
      "mass": 5743,
      "nnät": 5744,
      "lea": 5745,
      "iller": 5746,
      "teek": 5747,
      "esäk": 5748,
      "47": 5749,
      "nssa": 5750,
      "sku": 5751,
      "sito": 5752,
      "uf": 5753,
      "ves": 5754,
      "äit": 5755,
      "llut": 5756,
      "tiö": 5757,
      "sui": 5758,
      "tusl": 5759,
      "istuu": 5760,
      "smin": 5761,
      "mpia": 5762,
      "inoa": 5763,
      "outh": 5764,
      "42": 5765,
      "che": 5766,
      "eine": 5767,
      "ning": 5768,
      "pes": 5769,
      "öllä": 5770,
      "änte": 5771,
      "tyksi": 5772,
      "västä": 5773,
      "uris": 5774,
      "hei": 5775,
      "akast": 5776,
      "yrki": 5777,
      "summa": 5778,
      "äneen": 5779,
      "akon": 5780,
      "nhan": 5781,
      "##gle": 5782,
      "läp": 5783,
      "levä": 5784,
      "uhtee": 5785,
      "oope": 5786,
      "tteen": 5787,
      "liput": 5788,
      "kist": 5789,
      "kuver": 5790,
      "##uss": 5791,
      "orin": 5792,
      "row": 5793,
      "reder": 5794,
      "rip": 5795,
      "lyh": 5796,
      "vista": 5797,
      "vol": 5798,
      "taito": 5799,
      "eno": 5800,
      "inter": 5801,
      "jotk": 5802,
      "akkar": 5803,
      "irin": 5804,
      "ellei": 5805,
      "mansa": 5806,
      "htaan": 5807,
      "jaus": 5808,
      "etel": 5809,
      "alin": 5810,
      "alki": 5811,
      "aah": 5812,
      "tero": 5813,
      "räs": 5814,
      "ekti": 5815,
      "eän": 5816,
      "iaa": 5817,
      "iva": 5818,
      "iest": 5819,
      "tke": 5820,
      "ännö": 5821,
      "neil": 5822,
      "ttim": 5823,
      "##unu": 5824,
      "ekn": 5825,
      "inkku": 5826,
      "group": 5827,
      "lutta": 5828,
      "oot": 5829,
      "zuma": 5830,
      "äe": 5831,
      "äll": 5832,
      "tiik": 5833,
      "maksi": 5834,
      "kevä": 5835,
      "liu": 5836,
      "muka": 5837,
      "eht": 5838,
      "sup": 5839,
      "uhla": 5840,
      "ngo": 5841,
      "ilah": 5842,
      "eää": 5843,
      "eve": 5844,
      "hdi": 5845,
      "lb": 5846,
      "last": 5847,
      "ottom": 5848,
      "keit": 5849,
      "kalta": 5850,
      "lipun": 5851,
      "enet": 5852,
      "olan": 5853,
      "soh": 5854,
      "ikkaa": 5855,
      "ainav": 5856,
      "kort": 5857,
      "hie": 5858,
      "andy": 5859,
      "aipu": 5860,
      "nav": 5861,
      "keä": 5862,
      "sens": 5863,
      "syyde": 5864,
      "traf": 5865,
      "fox": 5866,
      "eppi": 5867,
      "off": 5868,
      "##gy": 5869,
      "enen": 5870,
      "enkaa": 5871,
      "kosta": 5872,
      "iasta": 5873,
      "auvo": 5874,
      "ennä": 5875,
      "nnos": 5876,
      "riemu": 5877,
      "täviä": 5878,
      "gh": 5879,
      "gar": 5880,
      "moi": 5881,
      "ville": 5882,
      "##ney": 5883,
      "mein": 5884,
      "48": 5885,
      "fina": 5886,
      "gin": 5887,
      "kw": 5888,
      "lise": 5889,
      "rja": 5890,
      "##ak": 5891,
      "koord": 5892,
      "laina": 5893,
      "aso": 5894,
      "ilt": 5895,
      "istaj": 5896,
      "apo": 5897,
      "varoi": 5898,
      "avon": 5899,
      "dler": 5900,
      "oine": 5901,
      "rti": 5902,
      "tten": 5903,
      "tuin": 5904,
      "aale": 5905,
      "raut": 5906,
      "ulut": 5907,
      "kaav": 5908,
      "ngas": 5909,
      "rajoi": 5910,
      "azer": 5911,
      "dyn": 5912,
      "arcel": 5913,
      "mtv": 5914,
      "gen": 5915,
      "lmi": 5916,
      "sep": 5917,
      "sein": 5918,
      "neksi": 5919,
      "hau": 5920,
      "ulva": 5921,
      "suj": 5922,
      "pea": 5923,
      "eessä": 5924,
      "51": 5925,
      "eaa": 5926,
      "pk": 5927,
      "sha": 5928,
      "lava": 5929,
      "nolla": 5930,
      "eho": 5931,
      "paljo": 5932,
      "aneet": 5933,
      "hteis": 5934,
      "iky": 5935,
      "rae": 5936,
      "key": 5937,
      "demar": 5938,
      "berl": 5939,
      "mcl": 5940,
      "emok": 5941,
      "gis": 5942,
      "nss": 5943,
      "ock": 5944,
      "##lan": 5945,
      "nah": 5946,
      "nnel": 5947,
      "poli": 5948,
      "ysv": 5949,
      "reita": 5950,
      "umk": 5951,
      "styi": 5952,
      "ämpö": 5953,
      "iot": 5954,
      "yjä": 5955,
      "mith": 5956,
      "oisa": 5957,
      "annee": 5958,
      "omin": 5959,
      "colu": 5960,
      "urgh": 5961,
      "ls": 5962,
      "tist": 5963,
      "udi": 5964,
      "tetta": 5965,
      "arse": 5966,
      "uure": 5967,
      "läm": 5968,
      "ikro": 5969,
      "ouis": 5970,
      "estin": 5971,
      "udet": 5972,
      "43": 5973,
      "54": 5974,
      "kla": 5975,
      "sso": 5976,
      "uden": 5977,
      "##um": 5978,
      "inoi": 5979,
      "kave": 5980,
      "lack": 5981,
      "aili": 5982,
      "keus": 5983,
      "lix": 5984,
      "estäm": 5985,
      "äytös": 5986,
      "uinti": 5987,
      "leima": 5988,
      "hk": 5989,
      "ippa": 5990,
      "ppa": 5991,
      "uz": 5992,
      "isma": 5993,
      "etf": 5994,
      "eske": 5995,
      "star": 5996,
      "pail": 5997,
      "edet": 5998,
      "kasti": 5999,
      "emine": 6000,
      "uinni": 6001,
      "omist": 6002,
      "aski": 6003,
      "elvi": 6004,
      "tot": 6005,
      "poo": 6006,
      "ntami": 6007,
      "itaan": 6008,
      "deb": 6009,
      "uunn": 6010,
      "mmär": 6011,
      "##tr": 6012,
      "kase": 6013,
      "aavi": 6014,
      "aassa": 6015,
      "nok": 6016,
      "korv": 6017,
      "dahl": 6018,
      "rank": 6019,
      "ustav": 6020,
      "idän": 6021,
      "skand": 6022,
      "jyp": 6023,
      "diab": 6024,
      "lsi": 6025,
      "wor": 6026,
      "yi": 6027,
      "ony": 6028,
      "alis": 6029,
      "eriko": 6030,
      "tej": 6031,
      "esla": 6032,
      "telma": 6033,
      "ahin": 6034,
      "uhan": 6035,
      "leisö": 6036,
      "isyys": 6037,
      "wilma": 6038,
      "ergei": 6039,
      "##mw": 6040,
      "##wood": 6041,
      "arma": 6042,
      "nille": 6043,
      "radi": 6044,
      "uts": 6045,
      "nnell": 6046,
      "vart": 6047,
      "teht": 6048,
      "omio": 6049,
      "ruudu": 6050,
      "iväs": 6051,
      "his": 6052,
      "umen": 6053,
      "udo": 6054,
      "kui": 6055,
      "stam": 6056,
      "pir": 6057,
      "lun": 6058,
      "mek": 6059,
      "ouse": 6060,
      "iistä": 6061,
      "kän": 6062,
      "loi": 6063,
      "okem": 6064,
      "##tan": 6065,
      "takki": 6066,
      "takai": 6067,
      "##kun": 6068,
      "näe": 6069,
      "oira": 6070,
      "lian": 6071,
      "luee": 6072,
      "##ire": 6073,
      "oogle": 6074,
      "liss": 6075,
      "soni": 6076,
      "wift": 6077,
      "aaha": 6078,
      "asper": 6079,
      "elem": 6080,
      "paus": 6081,
      "ingin": 6082,
      "rikka": 6083,
      "cap": 6084,
      "oppuu": 6085,
      "amuli": 6086,
      "fu": 6087,
      "gel": 6088,
      "rön": 6089,
      "##ner": 6090,
      "semm": 6091,
      "ilas": 6092,
      "live": 6093,
      "liver": 6094,
      "loit": 6095,
      "orte": 6096,
      "pisto": 6097,
      "sken": 6098,
      "panja": 6099,
      "rky": 6100,
      "urje": 6101,
      "##eni": 6102,
      "enla": 6103,
      "isät": 6104,
      "alkk": 6105,
      "sido": 6106,
      "mäis": 6107,
      "adel": 6108,
      "grand": 6109,
      "kukis": 6110,
      "shi": 6111,
      "uaal": 6112,
      "ywood": 6113,
      "isee": 6114,
      "laut": 6115,
      "änes": 6116,
      "rool": 6117,
      "istui": 6118,
      "emus": 6119,
      "ruuna": 6120,
      "enez": 6121,
      "bir": 6122,
      "kkar": 6123,
      "pri": 6124,
      "enia": 6125,
      "kos": 6126,
      "semi": 6127,
      "mak": 6128,
      "pass": 6129,
      "keri": 6130,
      "apse": 6131,
      "mykse": 6132,
      "eat": 6133,
      "volvo": 6134,
      "fil": 6135,
      "ukai": 6136,
      "war": 6137,
      "##tz": 6138,
      "itte": 6139,
      "sol": 6140,
      "mär": 6141,
      "itar": 6142,
      "rio": 6143,
      "äisen": 6144,
      "sista": 6145,
      "iesel": 6146,
      "touhu": 6147,
      "57": 6148,
      "aff": 6149,
      "eop": 6150,
      "hia": 6151,
      "itoi": 6152,
      "umu": 6153,
      "olta": 6154,
      "auhu": 6155,
      "otis": 6156,
      "puri": 6157,
      "ttii": 6158,
      "päri": 6159,
      "töi": 6160,
      "kork": 6161,
      "alloi": 6162,
      "tapon": 6163,
      "opim": 6164,
      "apeli": 6165,
      "pul": 6166,
      "##iss": 6167,
      "ando": 6168,
      "intu": 6169,
      "etki": 6170,
      "tion": 6171,
      "vani": 6172,
      "avuu": 6173,
      "pung": 6174,
      "äättä": 6175,
      "olog": 6176,
      "äyttä": 6177,
      "120": 6178,
      "keula": 6179,
      "lkä": 6180,
      "omen": 6181,
      "yksy": 6182,
      "##bs": 6183,
      "##utz": 6184,
      "valli": 6185,
      "uora": 6186,
      "essu": 6187,
      "läk": 6188,
      "##ley": 6189,
      "iivo": 6190,
      "virra": 6191,
      "kirsi": 6192,
      "tteis": 6193,
      "uudes": 6194,
      "ittsb": 6195,
      "tsis": 6196,
      "sohva": 6197,
      "jana": 6198,
      "##yf": 6199,
      "onkin": 6200,
      "aitio": 6201,
      "nnös": 6202,
      "käl": 6203,
      "lot": 6204,
      "missa": 6205,
      "ric": 6206,
      "ksel": 6207,
      "nnäkö": 6208,
      "soitu": 6209,
      "sipul": 6210,
      "eople": 6211,
      "49": 6212,
      "52": 6213,
      "lt": 6214,
      "trau": 6215,
      "##sey": 6216,
      "kojen": 6217,
      "uokk": 6218,
      "##var": 6219,
      "astaa": 6220,
      "uukka": 6221,
      "rall": 6222,
      "raho": 6223,
      "mäll": 6224,
      "määr": 6225,
      "250": 6226,
      "raeli": 6227,
      "nahka": 6228,
      "cru": 6229,
      "hke": 6230,
      "lga": 6231,
      "puss": 6232,
      "kokki": 6233,
      "elpa": 6234,
      "reutz": 6235,
      "akun": 6236,
      "lkop": 6237,
      "sunto": 6238,
      "keude": 6239,
      "matth": 6240,
      "ekk": 6241,
      "hana": 6242,
      "imaan": 6243,
      "lf": 6244,
      "tab": 6245,
      "sav": 6246,
      "stila": 6247,
      "utuv": 6248,
      "ield": 6249,
      "traum": 6250,
      "lvä": 6251,
      "mes": 6252,
      "ymi": 6253,
      "aver": 6254,
      "jatte": 6255,
      "torni": 6256,
      "buff": 6257,
      "eise": 6258,
      "noi": 6259,
      "sö": 6260,
      "umpi": 6261,
      "tiv": 6262,
      "kill": 6263,
      "noja": 6264,
      "##ppe": 6265,
      "ulvi": 6266,
      "maast": 6267,
      "uust": 6268,
      "tartu": 6269,
      "unnu": 6270,
      "metr": 6271,
      "ijat": 6272,
      "mpär": 6273,
      "trag": 6274,
      "okemu": 6275,
      "les": 6276,
      "eski": 6277,
      "see": 6278,
      "maj": 6279,
      "tora": 6280,
      "auber": 6281,
      "iitt": 6282,
      "koom": 6283,
      "htiön": 6284,
      "itio": 6285,
      "##ua": 6286,
      "tahto": 6287,
      "ente": 6288,
      "eroi": 6289,
      "aato": 6290,
      "raff": 6291,
      "läise": 6292,
      "oleh": 6293,
      "ters": 6294,
      "reg": 6295,
      "kaasu": 6296,
      "nauti": 6297,
      "htia": 6298,
      "tappo": 6299,
      "jarmo": 6300,
      "sängy": 6301,
      "58": 6302,
      "by": 6303,
      "uik": 6304,
      "uck": 6305,
      "äise": 6306,
      "vall": 6307,
      "aajo": 6308,
      "aska": 6309,
      "kem": 6310,
      "ukkaa": 6311,
      "iikk": 6312,
      "ttuu": 6313,
      "eura": 6314,
      "ttämä": 6315,
      "ire": 6316,
      "dea": 6317,
      "stum": 6318,
      "oria": 6319,
      "apaus": 6320,
      "odel": 6321,
      "lussa": 6322,
      "eas": 6323,
      "idi": 6324,
      "oina": 6325,
      "ittää": 6326,
      "iide": 6327,
      "autt": 6328,
      "edi": 6329,
      "##lub": 6330,
      "ntok": 6331,
      "oini": 6332,
      "liset": 6333,
      "juur": 6334,
      "how": 6335,
      "ainv": 6336,
      "steli": 6337,
      "ioita": 6338,
      "din": 6339,
      "anter": 6340,
      "tuja": 6341,
      "vaunu": 6342,
      "ettel": 6343,
      "siaa": 6344,
      "ajia": 6345,
      "oron": 6346,
      "orvo": 6347,
      "misto": 6348,
      "ryan": 6349,
      "ytt": 6350,
      "pitu": 6351,
      "ähet": 6352,
      "steri": 6353,
      "odis": 6354,
      "odan": 6355,
      "uttam": 6356,
      "nlyf": 6357,
      "olley": 6358,
      "dlerc": 6359,
      "okka": 6360,
      "äke": 6361,
      "almen": 6362,
      "kain": 6363,
      "aroi": 6364,
      "avall": 6365,
      "oint": 6366,
      "artt": 6367,
      "kiru": 6368,
      "iber": 6369,
      "lmoi": 6370,
      "adam": 6371,
      "56": 6372,
      "imu": 6373,
      "rvio": 6374,
      "äve": 6375,
      "##rc": 6376,
      "sid": 6377,
      "llain": 6378,
      "usv": 6379,
      "lek": 6380,
      "stiv": 6381,
      "ätty": 6382,
      "annel": 6383,
      "tissä": 6384,
      "nissa": 6385,
      "holz": 6386,
      "urger": 6387,
      "cla": 6388,
      "hor": 6389,
      "ingi": 6390,
      "aasta": 6391,
      "unsi": 6392,
      "kinen": 6393,
      "valti": 6394,
      "uono": 6395,
      "nnak": 6396,
      "nista": 6397,
      "ksena": 6398,
      "viap": 6399,
      "dol": 6400,
      "nit": 6401,
      "isnes": 6402,
      "kall": 6403,
      "tellu": 6404,
      "rade": 6405,
      "ahker": 6406,
      "ilua": 6407,
      "myks": 6408,
      "lisa": 6409,
      "ktiiv": 6410,
      "akau": 6411,
      "eina": 6412,
      "hdo": 6413,
      "tiä": 6414,
      "erja": 6415,
      "aavis": 6416,
      "iiri": 6417,
      "iint": 6418,
      "hilj": 6419,
      "totea": 6420,
      "rban": 6421,
      "nm": 6422,
      "nso": 6423,
      "##sh": 6424,
      "stää": 6425,
      "euv": 6426,
      "roja": 6427,
      "yöp": 6428,
      "abc": 6429,
      "gier": 6430,
      "ekin": 6431,
      "thl": 6432,
      "yin": 6433,
      "##put": 6434,
      "##ts": 6435,
      "kood": 6436,
      "eru": 6437,
      "niel": 6438,
      "miina": 6439,
      "other": 6440,
      "stäv": 6441,
      "musi": 6442,
      "utto": 6443,
      "rika": 6444,
      "tuol": 6445,
      "deby": 6446,
      "avain": 6447,
      "äytti": 6448,
      "lahj": 6449,
      "rasmu": 6450,
      "bama": 6451,
      "mpum": 6452,
      "smo": 6453,
      "swa": 6454,
      "isl": 6455,
      "eskal": 6456,
      "stari": 6457,
      "sall": 6458,
      "änyt": 6459,
      "##har": 6460,
      "oskar": 6461,
      "voite": 6462,
      "imon": 6463,
      "ach": 6464,
      "ammo": 6465,
      "uonee": 6466,
      "serem": 6467,
      "ave": 6468,
      "uta": 6469,
      "olv": 6470,
      "liia": 6471,
      "kyk": 6472,
      "hero": 6473,
      "oimin": 6474,
      "yysk": 6475,
      "ilai": 6476,
      "sorme": 6477,
      "okou": 6478,
      "nb": 6479,
      "orju": 6480,
      "##ui": 6481,
      "##án": 6482,
      "kue": 6483,
      "olis": 6484,
      "nasta": 6485,
      "aane": 6486,
      "ouni": 6487,
      "ioo": 6488,
      "laiva": 6489,
      "laadu": 6490,
      "naali": 6491,
      "aitta": 6492,
      "krp": 6493,
      "uteen": 6494,
      "riida": 6495,
      "rgent": 6496,
      "62": 6497,
      "aessa": 6498,
      "dik": 6499,
      "ira": 6500,
      "##ers": 6501,
      "arsi": 6502,
      "mau": 6503,
      "änni": 6504,
      "riis": 6505,
      "eisto": 6506,
      "avai": 6507,
      "stin": 6508,
      "anny": 6509,
      "jille": 6510,
      "world": 6511,
      "85": 6512,
      "##we": 6513,
      "eth": 6514,
      "kumo": 6515,
      "erv": 6516,
      "erit": 6517,
      "##mpo": 6518,
      "urn": 6519,
      "urske": 6520,
      "pull": 6521,
      "apä": 6522,
      "tuota": 6523,
      "yyp": 6524,
      "miljo": 6525,
      "voja": 6526,
      "mos": 6527,
      "ymmen": 6528,
      "noora": 6529,
      "svt": 6530,
      "bild": 6531,
      "gla": 6532,
      "hist": 6533,
      "oda": 6534,
      "rn": 6535,
      "inaa": 6536,
      "tioi": 6537,
      "kalla": 6538,
      "kaks": 6539,
      "asin": 6540,
      "aija": 6541,
      "nic": 6542,
      "##lah": 6543,
      "neut": 6544,
      "taav": 6545,
      "lee": 6546,
      "ieme": 6547,
      "muude": 6548,
      "kaam": 6549,
      "mmän": 6550,
      "ähk": 6551,
      "hiero": 6552,
      "div": 6553,
      "orvoo": 6554,
      "bmw": 6555,
      "duu": 6556,
      "pin": 6557,
      "erint": 6558,
      "stad": 6559,
      "lem": 6560,
      "rita": 6561,
      "marg": 6562,
      "stune": 6563,
      "oud": 6564,
      "ooni": 6565,
      "unnel": 6566,
      "sco": 6567,
      "ourne": 6568,
      "swage": 6569,
      "iana": 6570,
      "##bia": 6571,
      "onki": 6572,
      "ettaa": 6573,
      "aloi": 6574,
      "eimm": 6575,
      "uupu": 6576,
      "urkki": 6577,
      "syi": 6578,
      "eek": 6579,
      "sirpa": 6580,
      "öön": 6581,
      "onl": 6582,
      "sauma": 6583,
      "nico": 6584,
      "ksee": 6585,
      "maaha": 6586,
      "viiva": 6587,
      "reiss": 6588,
      "säik": 6589,
      "apau": 6590,
      "anom": 6591,
      "intoj": 6592,
      "aalea": 6593,
      "radec": 6594,
      "enh": 6595,
      "erbia": 6596,
      "aahe": 6597,
      "arter": 6598,
      "heilu": 6599,
      "lokuu": 6600,
      "orke": 6601,
      "ollo": 6602,
      "rod": 6603,
      "uutel": 6604,
      "apur": 6605,
      "uija": 6606,
      "iossa": 6607,
      "ssy": 6608,
      "tisen": 6609,
      "tone": 6610,
      "nua": 6611,
      "hjk": 6612,
      "will": 6613,
      "ikym": 6614,
      "ct": 6615,
      "cal": 6616,
      "eel": 6617,
      "lät": 6618,
      "pl": 6619,
      "rdi": 6620,
      "sine": 6621,
      "##ug": 6622,
      "##jer": 6623,
      "ansk": 6624,
      "aalu": 6625,
      "lappu": 6626,
      "asse": 6627,
      "toin": 6628,
      "taido": 6629,
      "stit": 6630,
      "uijo": 6631,
      "katja": 6632,
      "stua": 6633,
      "äris": 6634,
      "##hua": 6635,
      "hang": 6636,
      "wat": 6637,
      "htii": 6638,
      "ower": 6639,
      "59": 6640,
      "nus": 6641,
      "rise": 6642,
      "ukon": 6643,
      "tatu": 6644,
      "jam": 6645,
      "jall": 6646,
      "uuro": 6647,
      "nnik": 6648,
      "nick": 6649,
      "hav": 6650,
      "haw": 6651,
      "kine": 6652,
      "autti": 6653,
      "ttäi": 6654,
      "apan": 6655,
      "turv": 6656,
      "ärk": 6657,
      "ice": 6658,
      "ttej": 6659,
      "sissä": 6660,
      "immil": 6661,
      "oam": 6662,
      "rman": 6663,
      "upa": 6664,
      "onu": 6665,
      "änak": 6666,
      "nenä": 6667,
      "suun": 6668,
      "ahtu": 6669,
      "eder": 6670,
      "apor": 6671,
      "ousi": 6672,
      "akar": 6673,
      "supis": 6674,
      "tatuo": 6675,
      "cup": 6676,
      "illo": 6677,
      "nrk": 6678,
      "rh": 6679,
      "inkin": 6680,
      "joo": 6681,
      "erh": 6682,
      "ahv": 6683,
      "ähtö": 6684,
      "ityks": 6685,
      "sanai": 6686,
      "eesta": 6687,
      "hda": 6688,
      "##ssu": 6689,
      "##hy": 6690,
      "##ün": 6691,
      "onno": 6692,
      "aalla": 6693,
      "ilan": 6694,
      "vill": 6695,
      "##los": 6696,
      "ääty": 6697,
      "töt": 6698,
      "vermo": 6699,
      "natsi": 6700,
      "lmia": 6701,
      "dan": 6702,
      "hme": 6703,
      "kkia": 6704,
      "män": 6705,
      "##at": 6706,
      "kaine": 6707,
      "erät": 6708,
      "law": 6709,
      "eslan": 6710,
      "oliti": 6711,
      "pau": 6712,
      "##ona": 6713,
      "näö": 6714,
      "auas": 6715,
      "levo": 6716,
      "hell": 6717,
      "ride": 6718,
      "rygg": 6719,
      "linik": 6720,
      "ustan": 6721,
      "raati": 6722,
      "konse": 6723,
      "liuku": 6724,
      "64": 6725,
      "cy": 6726,
      "rät": 6727,
      "xi": 6728,
      "äse": 6729,
      "ätti": 6730,
      "ilp": 6731,
      "nivel": 6732,
      "ieppi": 6733,
      "kaao": 6734,
      "##gar": 6735,
      "ikui": 6736,
      "matto": 6737,
      "lmoit": 6738,
      "dikta": 6739,
      "aw": 6740,
      "imen": 6741,
      "rkk": 6742,
      "##rö": 6743,
      "maz": 6744,
      "sau": 6745,
      "att": 6746,
      "lämä": 6747,
      "hyvi": 6748,
      "ntal": 6749,
      "atama": 6750,
      "moj": 6751,
      "nnall": 6752,
      "elek": 6753,
      "okais": 6754,
      "onnor": 6755,
      "naal": 6756,
      "okas": 6757,
      "##ly": 6758,
      "vans": 6759,
      "oukar": 6760,
      "oval": 6761,
      "summi": 6762,
      "nurk": 6763,
      "72": 6764,
      "cm": 6765,
      "cro": 6766,
      "eme": 6767,
      "sj": 6768,
      "ersey": 6769,
      "mira": 6770,
      "miino": 6771,
      "ney": 6772,
      "taam": 6773,
      "keutu": 6774,
      "ntek": 6775,
      "data": 6776,
      "oolo": 6777,
      "eitt": 6778,
      "reip": 6779,
      "61": 6780,
      "äist": 6781,
      "##pin": 6782,
      "##rs": 6783,
      "##ang": 6784,
      "anp": 6785,
      "alma": 6786,
      "alist": 6787,
      "joi": 6788,
      "kolar": 6789,
      "erik": 6790,
      "oid": 6791,
      "auma": 6792,
      "auho": 6793,
      "tavoi": 6794,
      "mitri": 6795,
      "ouver": 6796,
      "utuva": 6797,
      "imaa": 6798,
      "over": 6799,
      "kysym": 6800,
      "arast": 6801,
      "ayah": 6802,
      "ittaj": 6803,
      "ball": 6804,
      "nauru": 6805,
      "ämise": 6806,
      "rally": 6807,
      "messu": 6808,
      "wo": 6809,
      "wrc": 6810,
      "äkär": 6811,
      "##dd": 6812,
      "any": 6813,
      "kasta": 6814,
      "ath": 6815,
      "niv": 6816,
      "itel": 6817,
      "urku": 6818,
      "utuks": 6819,
      "imet": 6820,
      "pauks": 6821,
      "77": 6822,
      "uvat": 6823,
      "##rt": 6824,
      "##zo": 6825,
      "env": 6826,
      "alppi": 6827,
      "uudu": 6828,
      "miro": 6829,
      "iive": 6830,
      "asioi": 6831,
      "rian": 6832,
      "ouhi": 6833,
      "mcc": 6834,
      "sukel": 6835,
      "umppa": 6836,
      "##mbo": 6837,
      "63": 6838,
      "bra": 6839,
      "ipo": 6840,
      "ivaa": 6841,
      "mün": 6842,
      "ogi": 6843,
      "otaan": 6844,
      "önt": 6845,
      "lok": 6846,
      "luj": 6847,
      "stui": 6848,
      "utus": 6849,
      "laatu": 6850,
      "nauha": 6851,
      "innea": 6852,
      "ewis": 6853,
      "rown": 6854,
      "wit": 6855,
      "##rd": 6856,
      "##von": 6857,
      "iskar": 6858,
      "insi": 6859,
      "kak": 6860,
      "err": 6861,
      "sauna": 6862,
      "pakka": 6863,
      "paju": 6864,
      "nellä": 6865,
      "ottee": 6866,
      "ttila": 6867,
      "rey": 6868,
      "uonta": 6869,
      "eiso": 6870,
      "ouva": 6871,
      "sormu": 6872,
      "ntum": 6873,
      "lausu": 6874,
      "omena": 6875,
      "66": 6876,
      "api": 6877,
      "nr": 6878,
      "non": 6879,
      "nkar": 6880,
      "vm": 6881,
      "ymis": 6882,
      "äkiv": 6883,
      "turi": 6884,
      "too": 6885,
      "toja": 6886,
      "iipu": 6887,
      "luv": 6888,
      "dem": 6889,
      "karku": 6890,
      "kkan": 6891,
      "afg": 6892,
      "hony": 6893,
      "liper": 6894,
      "intr": 6895,
      "uutok": 6896,
      "53": 6897,
      "67": 6898,
      "ikaan": 6899,
      "irjo": 6900,
      "kd": 6901,
      "lake": 6902,
      "askar": 6903,
      "nnust": 6904,
      "aiku": 6905,
      "ysp": 6906,
      "opul": 6907,
      "ierr": 6908,
      "rant": 6909,
      "ranci": 6910,
      "äyd": 6911,
      "steis": 6912,
      "tettä": 6913,
      "ergia": 6914,
      "okak": 6915,
      "dit": 6916,
      "hto": 6917,
      "hdu": 6918,
      "oop": 6919,
      "rus": 6920,
      "rina": 6921,
      "äks": 6922,
      "##dt": 6923,
      "vak": 6924,
      "kiin": 6925,
      "lim": 6926,
      "lias": 6927,
      "syve": 6928,
      "ntama": 6929,
      "ellar": 6930,
      "iisp": 6931,
      "oikku": 6932,
      "vissä": 6933,
      "tauti": 6934,
      "münch": 6935,
      "amen": 6936,
      "eisi": 6937,
      "iri": 6938,
      "vaus": 6939,
      "arp": 6940,
      "estaa": 6941,
      "els": 6942,
      "usm": 6943,
      "ittäv": 6944,
      "neks": 6945,
      "lippu": 6946,
      "ahva": 6947,
      "itsee": 6948,
      "ikää": 6949,
      "palj": 6950,
      "ikal": 6951,
      "aleh": 6952,
      "ortt": 6953,
      "gabr": 6954,
      "puun": 6955,
      "rbán": 6956,
      "azerb": 6957,
      "far": 6958,
      "kl": 6959,
      "##ad": 6960,
      "etter": 6961,
      "koa": 6962,
      "siel": 6963,
      "saha": 6964,
      "unte": 6965,
      "auer": 6966,
      "low": 6967,
      "telm": 6968,
      "rossi": 6969,
      "outai": 6970,
      "teemo": 6971,
      "äiset": 6972,
      "ynty": 6973,
      "olai": 6974,
      "matra": 6975,
      "kumpu": 6976,
      "eirut": 6977,
      "nestä": 6978,
      "cruz": 6979,
      "club": 6980,
      "dire": 6981,
      "oun": 6982,
      "##hr": 6983,
      "erman": 6984,
      "teil": 6985,
      "asto": 6986,
      "stat": 6987,
      "kärä": 6988,
      "nomi": 6989,
      "##mist": 6990,
      "rotu": 6991,
      "kerho": 6992,
      "oopp": 6993,
      "mand": 6994,
      "eksan": 6995,
      "idem": 6996,
      "sity": 6997,
      "73": 6998,
      "900": 6999,
      "abb": 7000,
      "hina": 7001,
      "lki": 7002,
      "mold": 7003,
      "llu": 7004,
      "uota": 7005,
      "##tur": 7006,
      "##met": 7007,
      "sii": 7008,
      "niis": 7009,
      "kip": 7010,
      "kyke": 7011,
      "reide": 7012,
      "vaam": 7013,
      "oukk": 7014,
      "erkki": 7015,
      "ady": 7016,
      "aunio": 7017,
      "käräj": 7018,
      "ej": 7019,
      "kiks": 7020,
      "ril": 7021,
      "roit": 7022,
      "##zh": 7023,
      "##eng": 7024,
      "etk": 7025,
      "aira": 7026,
      "nak": 7027,
      "pih": 7028,
      "vuod": 7029,
      "ennes": 7030,
      "ttäne": 7031,
      "tutk": 7032,
      "käytä": 7033,
      "netto": 7034,
      "yny": 7035,
      "ksaa": 7036,
      "avin": 7037,
      "gor": 7038,
      "jän": 7039,
      "sb": 7040,
      "tps": 7041,
      "yg": 7042,
      "##hö": 7043,
      "##isa": 7044,
      "aasi": 7045,
      "lalla": 7046,
      "elas": 7047,
      "oshua": 7048,
      "uolon": 7049,
      "##dar": 7050,
      "elijä": 7051,
      "uaan": 7052,
      "ampe": 7053,
      "liivi": 7054,
      "iispa": 7055,
      "lissä": 7056,
      "ikat": 7057,
      "aco": 7058,
      "eett": 7059,
      "ekt": 7060,
      "sistä": 7061,
      "syytt": 7062,
      "rena": 7063,
      "seag": 7064,
      "dele": 7065,
      "fbi": 7066,
      "hr": 7067,
      "nbc": 7068,
      "kuut": 7069,
      "simm": 7070,
      "aiti": 7071,
      "nati": 7072,
      "leu": 7073,
      "alal": 7074,
      "rol": 7075,
      "annet": 7076,
      "äisy": 7077,
      "lieve": 7078,
      "okoo": 7079,
      "68": 7080,
      "69": 7081,
      "lmaa": 7082,
      "öll": 7083,
      "öksi": 7084,
      "##teb": 7085,
      "aako": 7086,
      "tempu": 7087,
      "vies": 7088,
      "paja": 7089,
      "pale": 7090,
      "unr": 7091,
      "iima": 7092,
      "leo": 7093,
      "poist": 7094,
      "ury": 7095,
      "ysk": 7096,
      "uotsa": 7097,
      "umin": 7098,
      "oimia": 7099,
      "exa": 7100,
      "itui": 7101,
      "ekan": 7102,
      "lusta": 7103,
      "mcg": 7104,
      "ätys": 7105,
      "hur": 7106,
      "ippo": 7107,
      "sjo": 7108,
      "tå": 7109,
      "uc": 7110,
      "##hk": 7111,
      "eij": 7112,
      "unin": 7113,
      "##kky": 7114,
      "heff": 7115,
      "helmi": 7116,
      "desi": 7117,
      "mans": 7118,
      "enäjä": 7119,
      "sormi": 7120,
      "benz": 7121,
      "dna": 7122,
      "jer": 7123,
      "oikk": 7124,
      "##gr": 7125,
      "inyt": 7126,
      "olma": 7127,
      "tefa": 7128,
      "nek": 7129,
      "unt": 7130,
      "toiv": 7131,
      "oster": 7132,
      "rosa": 7133,
      "roos": 7134,
      "varsi": 7135,
      "mei": 7136,
      "trand": 7137,
      "vert": 7138,
      "äre": 7139,
      "rum": 7140,
      "karva": 7141,
      "ytyi": 7142,
      "ainz": 7143,
      "apai": 7144,
      "kkei": 7145,
      "ippur": 7146,
      "lona": 7147,
      "big": 7148,
      "loom": 7149,
      "ajien": 7150,
      "82": 7151,
      "81": 7152,
      "ax": 7153,
      "bel": 7154,
      "etes": 7155,
      "##rah": 7156,
      "attil": 7157,
      "mille": 7158,
      "tykki": 7159,
      "aupa": 7160,
      "auvon": 7161,
      "iipi": 7162,
      "rick": 7163,
      "##dor": 7164,
      "virpi": 7165,
      "neuro": 7166,
      "alos": 7167,
      "130": 7168,
      "vaisu": 7169,
      "thlet": 7170,
      "unrwa": 7171,
      "99": 7172,
      "cold": 7173,
      "evin": 7174,
      "gm": 7175,
      "mor": 7176,
      "sät": 7177,
      "taus": 7178,
      "kuun": 7179,
      "aall": 7180,
      "aami": 7181,
      "##mmu": 7182,
      "iipa": 7183,
      "kemis": 7184,
      "rig": 7185,
      "iran": 7186,
      "kass": 7187,
      "amaz": 7188,
      "rand": 7189,
      "pisk": 7190,
      "idaan": 7191,
      "vastu": 7192,
      "stand": 7193,
      "tåhl": 7194,
      "gn": 7195,
      "jr": 7196,
      "lpp": 7197,
      "ool": 7198,
      "utaa": 7199,
      "äsit": 7200,
      "etra": 7201,
      "etoni": 7202,
      "tian": 7203,
      "olas": 7204,
      "nappi": 7205,
      "nemm": 7206,
      "ääsi": 7207,
      "roman": 7208,
      "uolt": 7209,
      "appa": 7210,
      "avis": 7211,
      "korve": 7212,
      "ähä": 7213,
      "omer": 7214,
      "nuel": 7215,
      "com": 7216,
      "180": 7217,
      "nkäy": 7218,
      "golde": 7219,
      "sunno": 7220,
      "uitu": 7221,
      "aasup": 7222,
      "deleg": 7223,
      "gl": 7224,
      "jus": 7225,
      "uca": 7226,
      "##gh": 7227,
      "enu": 7228,
      "antel": 7229,
      "jaksi": 7230,
      "tiaa": 7231,
      "tev": 7232,
      "asf": 7233,
      "##mpe": 7234,
      "otel": 7235,
      "lika": 7236,
      "urski": 7237,
      "iete": 7238,
      "uluu": 7239,
      "rost": 7240,
      "uont": 7241,
      "isim": 7242,
      "aksik": 7243,
      "annes": 7244,
      "kkeen": 7245,
      "dessä": 7246,
      "gelma": 7247,
      "74": 7248,
      "95": 7249,
      "bon": 7250,
      "dor": 7251,
      "fer": 7252,
      "gt": 7253,
      "tuna": 7254,
      "tuur": 7255,
      "mac": 7256,
      "atte": 7257,
      "yste": 7258,
      "ulkko": 7259,
      "tusv": 7260,
      "akki": 7261,
      "vaale": 7262,
      "helm": 7263,
      "omas": 7264,
      "sinni": 7265,
      "dom": 7266,
      "öns": 7267,
      "hoff": 7268,
      "comb": 7269,
      "hild": 7270,
      "aival": 7271,
      "ulee": 7272,
      "halpa": 7273,
      "ld": 7274,
      "oaa": 7275,
      "##ed": 7276,
      "tetä": 7277,
      "eskar": 7278,
      "sema": 7279,
      "ilda": 7280,
      "aiho": 7281,
      "##pat": 7282,
      "mic": 7283,
      "raf": 7284,
      "rais": 7285,
      "oih": 7286,
      "mästä": 7287,
      "aute": 7288,
      "ntar": 7289,
      "roop": 7290,
      "aht": 7291,
      "rice": 7292,
      "omar": 7293,
      "irvo": 7294,
      "elia": 7295,
      "myi": 7296,
      "oukse": 7297,
      "äätö": 7298,
      "ariz": 7299,
      "riitt": 7300,
      "ytyy": 7301,
      "adri": 7302,
      "sortu": 7303,
      "ilkku": 7304,
      "geo": 7305,
      "aiht": 7306,
      "digg": 7307,
      "78": 7308,
      "cu": 7309,
      "hö": 7310,
      "mist": 7311,
      "omme": 7312,
      "öteb": 7313,
      "##lä": 7314,
      "##mes": 7315,
      "arlos": 7316,
      "maist": 7317,
      "iat": 7318,
      "urpi": 7319,
      "orto": 7320,
      "kyll": 7321,
      "suus": 7322,
      "äiri": 7323,
      "irk": 7324,
      "eelle": 7325,
      "viru": 7326,
      "ttele": 7327,
      "idli": 7328,
      "umpa": 7329,
      "ainan": 7330,
      "käry": 7331,
      "afd": 7332,
      "orner": 7333,
      "amuel": 7334,
      "walz": 7335,
      "buu": 7336,
      "ms": 7337,
      "who": 7338,
      "taku": 7339,
      "inkä": 7340,
      "##iku": 7341,
      "etso": 7342,
      "aros": 7343,
      "saga": 7344,
      "##ong": 7345,
      "ustaa": 7346,
      "aisti": 7347,
      "keva": 7348,
      "urri": 7349,
      "kinta": 7350,
      "ltava": 7351,
      "ehit": 7352,
      "amara": 7353,
      "hintz": 7354,
      "vihja": 7355,
      "barb": 7356,
      "kwh": 7357,
      "dl": 7358,
      "emen": 7359,
      "gps": 7360,
      "hes": 7361,
      "tiko": 7362,
      "äky": 7363,
      "öp": 7364,
      "öst": 7365,
      "##im": 7366,
      "alfa": 7367,
      "laf": 7368,
      "ilku": 7369,
      "ihi": 7370,
      "ääl": 7371,
      "liop": 7372,
      "sym": 7373,
      "orsa": 7374,
      "kestä": 7375,
      "kesto": 7376,
      "iittä": 7377,
      "ikke": 7378,
      "marcu": 7379,
      "punk": 7380,
      "lans": 7381,
      "lant": 7382,
      "kond": 7383,
      "aliv": 7384,
      "avos": 7385,
      "nker": 7386,
      "sijaa": 7387,
      "350": 7388,
      "sänky": 7389,
      "sjk": 7390,
      "coldp": 7391,
      "gri": 7392,
      "ze": 7393,
      "##tic": 7394,
      "anel": 7395,
      "sie": 7396,
      "lar": 7397,
      "ilkka": 7398,
      "sakar": 7399,
      "uura": 7400,
      "urin": 7401,
      "soa": 7402,
      "terin": 7403,
      "pär": 7404,
      "uutti": 7405,
      "aps": 7406,
      "asee": 7407,
      "astio": 7408,
      "ampo": 7409,
      "agle": 7410,
      "hokki": 7411,
      "ainu": 7412,
      "numme": 7413,
      "tiena": 7414,
      "eyen": 7415,
      "roski": 7416,
      "hsl": 7417,
      "ippar": 7418,
      "86": 7419,
      "tho": 7420,
      "##uth": 7421,
      "kumpi": 7422,
      "astee": 7423,
      "aude": 7424,
      "iehi": 7425,
      "orno": 7426,
      "maala": 7427,
      "rein": 7428,
      "ikkar": 7429,
      "irppu": 7430,
      "avah": 7431,
      "ling": 7432,
      "verho": 7433,
      "ähte": 7434,
      "ellin": 7435,
      "nyrk": 7436,
      "omini": 7437,
      "otii": 7438,
      "eksu": 7439,
      "lykk": 7440,
      "heitt": 7441,
      "wahl": 7442,
      "wild": 7443,
      "grönb": 7444,
      "ufc": 7445,
      "ooper": 7446,
      "76": 7447,
      "cor": 7448,
      "lvi": 7449,
      "uite": 7450,
      "ylli": 7451,
      "##zy": 7452,
      "tuk": 7453,
      "kose": 7454,
      "eivä": 7455,
      "eilu": 7456,
      "arit": 7457,
      "side": 7458,
      "maise": 7459,
      "matti": 7460,
      "mack": 7461,
      "##mil": 7462,
      "aie": 7463,
      "näp": 7464,
      "##pas": 7465,
      "kien": 7466,
      "haja": 7467,
      "iian": 7468,
      "repe": 7469,
      "eisoi": 7470,
      "omal": 7471,
      "ytkö": 7472,
      "enter": 7473,
      "ntial": 7474,
      "each": 7475,
      "akav": 7476,
      "ynyt": 7477,
      "isaa": 7478,
      "anoma": 7479,
      "ppila": 7480,
      "imia": 7481,
      "itol": 7482,
      "aukio": 7483,
      "71": 7484,
      "87": 7485,
      "91": 7486,
      "pmm": 7487,
      "##usa": 7488,
      "##ph": 7489,
      "##che": 7490,
      "onja": 7491,
      "kukin": 7492,
      "kuor": 7493,
      "arte": 7494,
      "sapp": 7495,
      "vio": 7496,
      "usku": 7497,
      "hassu": 7498,
      "nossa": 7499,
      "vässä": 7500,
      "uter": 7501,
      "stt": 7502,
      "tista": 7503,
      "jarno": 7504,
      "tauks": 7505,
      "ngeb": 7506,
      "pmmp": 7507,
      "akin": 7508,
      "bb": 7509,
      "ix": 7510,
      "ujen": 7511,
      "##mul": 7512,
      "##ji": 7513,
      "llen": 7514,
      "tukka": 7515,
      "kuus": 7516,
      "kula": 7517,
      "olue": 7518,
      "stal": 7519,
      "elg": 7520,
      "kiv": 7521,
      "nolo": 7522,
      "aunu": 7523,
      "mua": 7524,
      "heito": 7525,
      "jeng": 7526,
      "rou": 7527,
      "ahte": 7528,
      "itan": 7529,
      "mento": 7530,
      "oudo": 7531,
      "ikäl": 7532,
      "iiski": 7533,
      "##ear": 7534,
      "comp": 7535,
      "taput": 7536,
      "duba": 7537,
      "esper": 7538,
      "kupla": 7539,
      "regor": 7540,
      "ipi": 7541,
      "skä": 7542,
      "##hn": 7543,
      "##hä": 7544,
      "##wi": 7545,
      "encia": 7546,
      "ilot": 7547,
      "sap": 7548,
      "sar": 7549,
      "tock": 7550,
      "itsen": 7551,
      "ausa": 7552,
      "urs": 7553,
      "ortai": 7554,
      "open": 7555,
      "tant": 7556,
      "eriaa": 7557,
      "##mor": 7558,
      "lini": 7559,
      "inas": 7560,
      "##gio": 7561,
      "dam": 7562,
      "dassa": 7563,
      "rance": 7564,
      "ilpai": 7565,
      "tisoi": 7566,
      "ntise": 7567,
      "talv": 7568,
      "kaija": 7569,
      "iskel": 7570,
      "utos": 7571,
      "ymys": 7572,
      "aunan": 7573,
      "offer": 7574,
      "kra": 7575,
      "nmu": 7576,
      "nero": 7577,
      "ox": 7578,
      "rmi": 7579,
      "tise": 7580,
      "tsen": 7581,
      "##rm": 7582,
      "##its": 7583,
      "etor": 7584,
      "jois": 7585,
      "kupar": 7586,
      "semp": 7587,
      "nam": 7588,
      "eloni": 7589,
      "kille": 7590,
      "nob": 7591,
      "soti": 7592,
      "iinaa": 7593,
      "suver": 7594,
      "rida": 7595,
      "tusjo": 7596,
      "ntoon": 7597,
      "uivu": 7598,
      "nnost": 7599,
      "keng": 7600,
      "hermo": 7601,
      "uomat": 7602,
      "tahko": 7603,
      "ebu": 7604,
      "ipsa": 7605,
      "muod": 7606,
      "ahe": 7607,
      "ci": 7608,
      "nvä": 7609,
      "rho": 7610,
      "vu": 7611,
      "vise": 7612,
      "##ms": 7613,
      "##én": 7614,
      "taulu": 7615,
      "inttu": 7616,
      "eivo": 7617,
      "kate": 7618,
      "staf": 7619,
      "aila": 7620,
      "pai": 7621,
      "hame": 7622,
      "ievi": 7623,
      "##str": 7624,
      "menti": 7625,
      "jumbo": 7626,
      "vere": 7627,
      "ärt": 7628,
      "unner": 7629,
      "ammer": 7630,
      "sulku": 7631,
      "onaco": 7632,
      "uulos": 7633,
      "thomp": 7634,
      "nväli": 7635,
      "bal": 7636,
      "dj": 7637,
      "fsb": 7638,
      "hät": 7639,
      "iän": 7640,
      "ympi": 7641,
      "##iby": 7642,
      "jaa": 7643,
      "aaton": 7644,
      "ilto": 7645,
      "olii": 7646,
      "uuse": 7647,
      "tola": 7648,
      "atina": 7649,
      "käv": 7650,
      "synt": 7651,
      "esim": 7652,
      "lovi": 7653,
      "lint": 7654,
      "ainal": 7655,
      "uutal": 7656,
      "ooli": 7657,
      "die": 7658,
      "ssut": 7659,
      "intia": 7660,
      "140": 7661,
      "umpp": 7662,
      "riehu": 7663,
      "jöi": 7664,
      "lerc": 7665,
      "rooks": 7666,
      "lpo": 7667,
      "okin": 7668,
      "rki": 7669,
      "rdo": 7670,
      "sch": 7671,
      "tsal": 7672,
      "utaan": 7673,
      "umaan": 7674,
      "ucia": 7675,
      "tala": 7676,
      "onas": 7677,
      "valle": 7678,
      "koal": 7679,
      "kuj": 7680,
      "kahd": 7681,
      "lappi": 7682,
      "uuna": 7683,
      "##vig": 7684,
      "aukko": 7685,
      "##ppä": 7686,
      "telut": 7687,
      "ehi": 7688,
      "ahoi": 7689,
      "aluk": 7690,
      "stia": 7691,
      "uilla": 7692,
      "myar": 7693,
      "raam": 7694,
      "sink": 7695,
      "idut": 7696,
      "iisaa": 7697,
      "arai": 7698,
      "hetke": 7699,
      "gaud": 7700,
      "uefa": 7701,
      "paam": 7702,
      "oppar": 7703,
      "osep": 7704,
      "treet": 7705,
      "surma": 7706,
      "evil": 7707,
      "nurmi": 7708,
      "calg": 7709,
      "combs": 7710,
      "88": 7711,
      "liko": 7712,
      "oist": 7713,
      "osit": 7714,
      "rkin": 7715,
      "##ér": 7716,
      "anse": 7717,
      "isney": 7718,
      "kukki": 7719,
      "erkk": 7720,
      "ilvo": 7721,
      "atker": 7722,
      "itru": 7723,
      "iala": 7724,
      "ledo": 7725,
      "ulha": 7726,
      "edro": 7727,
      "utist": 7728,
      "stoa": 7729,
      "linto": 7730,
      "outa": 7731,
      "kong": 7732,
      "alou": 7733,
      "idaa": 7734,
      "ioski": 7735,
      "elat": 7736,
      "ittam": 7737,
      "ummel": 7738,
      "170": 7739,
      "ometr": 7740,
      "kurpi": 7741,
      "foor": 7742,
      "rctic": 7743,
      "easti": 7744,
      "nony": 7745,
      "96": 7746,
      "bur": 7747,
      "dort": 7748,
      "mg": 7749,
      "öd": 7750,
      "ondo": 7751,
      "vakuu": 7752,
      "eiv": 7753,
      "kapa": 7754,
      "aivu": 7755,
      "ailu": 7756,
      "ännä": 7757,
      "happo": 7758,
      "noa": 7759,
      "ääst": 7760,
      "kanto": 7761,
      "meen": 7762,
      "medi": 7763,
      "ärist": 7764,
      "mitus": 7765,
      "ruand": 7766,
      "inger": 7767,
      "nelm": 7768,
      "sinut": 7769,
      "ager": 7770,
      "agne": 7771,
      "usia": 7772,
      "##ard": 7773,
      "lehm": 7774,
      "gam": 7775,
      "psg": 7776,
      "amed": 7777,
      "taudi": 7778,
      "road": 7779,
      "ament": 7780,
      "cbs": 7781,
      "eito": 7782,
      "lja": 7783,
      "win": 7784,
      "wlt": 7785,
      "isr": 7786,
      "istee": 7787,
      "kast": 7788,
      "esän": 7789,
      "uutio": 7790,
      "milla": 7791,
      "kunin": 7792,
      "auman": 7793,
      "urb": 7794,
      "ulka": 7795,
      "ulgar": 7796,
      "lup": 7797,
      "mart": 7798,
      "outil": 7799,
      "tulva": 7800,
      "lyers": 7801,
      "##ffe": 7802,
      "räis": 7803,
      "undes": 7804,
      "110": 7805,
      "160": 7806,
      "nats": 7807,
      "irjoi": 7808,
      "luuku": 7809,
      "miinu": 7810,
      "äisyy": 7811,
      "dortm": 7812,
      "wltp": 7813,
      "89": 7814,
      "ck": 7815,
      "hka": 7816,
      "imai": 7817,
      "kina": 7818,
      "rmist": 7819,
      "uj": 7820,
      "øiby": 7821,
      "##ng": 7822,
      "##cy": 7823,
      "##zi": 7824,
      "tat": 7825,
      "uolla": 7826,
      "lakk": 7827,
      "pall": 7828,
      "nim": 7829,
      "nig": 7830,
      "##ror": 7831,
      "kii": 7832,
      "saad": 7833,
      "kinna": 7834,
      "orni": 7835,
      "osoi": 7836,
      "euk": 7837,
      "rob": 7838,
      "rops": 7839,
      "rima": 7840,
      "##emb": 7841,
      "kart": 7842,
      "adhd": 7843,
      "orvar": 7844,
      "eneg": 7845,
      "aatam": 7846,
      "orod": 7847,
      "roth": 7848,
      "rvos": 7849,
      "79": 7850,
      "83": 7851,
      "eutta": 7852,
      "lmä": 7853,
      "tp": 7854,
      "tikk": 7855,
      "##om": 7856,
      "tari": 7857,
      "##tun": 7858,
      "ergio": 7859,
      "aavan": 7860,
      "maino": 7861,
      "ilos": 7862,
      "vihi": 7863,
      "elun": 7864,
      "##nau": 7865,
      "väll": 7866,
      "toim": 7867,
      "orit": 7868,
      "deni": 7869,
      "untar": 7870,
      "tmz": 7871,
      "taudu": 7872,
      "nurme": 7873,
      "majur": 7874,
      "teven": 7875,
      "ijo": 7876,
      "jev": 7877,
      "olli": 7878,
      "roi": 7879,
      "rno": 7880,
      "syt": 7881,
      "tami": 7882,
      "ence": 7883,
      "eten": 7884,
      "arva": 7885,
      "seits": 7886,
      "map": 7887,
      "rappu": 7888,
      "kihl": 7889,
      "iivaa": 7890,
      "sot": 7891,
      "heinä": 7892,
      "oren": 7893,
      "lubi": 7894,
      "amfe": 7895,
      "dek": 7896,
      "demo": 7897,
      "kore": 7898,
      "liima": 7899,
      "lauma": 7900,
      "iirt": 7901,
      "hou": 7902,
      "urkku": 7903,
      "sitys": 7904,
      "vela": 7905,
      "naure": 7906,
      "ökkää": 7907,
      "nilk": 7908,
      "sitou": 7909,
      "ikrob": 7910,
      "ailij": 7911,
      "rönl": 7912,
      "92": 7913,
      "dra": 7914,
      "rty": 7915,
      "rla": 7916,
      "sn": 7917,
      "sw": 7918,
      "site": 7919,
      "##fs": 7920,
      "##ård": 7921,
      "kummo": 7922,
      "täk": 7923,
      "tempo": 7924,
      "esty": 7925,
      "vikaa": 7926,
      "elvä": 7927,
      "usse": 7928,
      "noro": 7929,
      "yhti": 7930,
      "iipo": 7931,
      "osent": 7932,
      "luis": 7933,
      "enner": 7934,
      "amina": 7935,
      "äijä": 7936,
      "irku": 7937,
      "avas": 7938,
      "istut": 7939,
      "torp": 7940,
      "liioi": 7941,
      "imit": 7942,
      "aamaa": 7943,
      "atema": 7944,
      "välin": 7945,
      "udist": 7946,
      "litse": 7947,
      "you": 7948,
      "akker": 7949,
      "nfl": 7950,
      "sitov": 7951,
      "avint": 7952,
      "rpo": 7953,
      "skuu": 7954,
      "tsin": 7955,
      "ww": 7956,
      "öys": 7957,
      "öyty": 7958,
      "##jy": 7959,
      "enso": 7960,
      "ersu": 7961,
      "teppo": 7962,
      "sijo": 7963,
      "laino": 7964,
      "lasit": 7965,
      "laur": 7966,
      "aster": 7967,
      "sean": 7968,
      "seita": 7969,
      "itin": 7970,
      "miha": 7971,
      "urhi": 7972,
      "syke": 7973,
      "osmet": 7974,
      "lusi": 7975,
      "reppu": 7976,
      "stock": 7977,
      "vaim": 7978,
      "imber": 7979,
      "alie": 7980,
      "hinku": 7981,
      "ojaa": 7982,
      "vok": 7983,
      "aisio": 7984,
      "ynä": 7985,
      "aber": 7986,
      "tahti": 7987,
      "ador": 7988,
      "elei": 7989,
      "esala": 7990,
      "imago": 7991,
      "ärski": 7992,
      "tš": 7993,
      "yu": 7994,
      "vase": 7995,
      "tiput": 7996,
      "laise": 7997,
      "otsa": 7998,
      "pie": 7999,
      "rog": 8000,
      "ryn": 8001,
      "monte": 8002,
      "dal": 8003,
      "ict": 8004,
      "hiff": 8005,
      "oosa": 8006,
      "teell": 8007,
      "mouth": 8008,
      "gib": 8009,
      "oksen": 8010,
      "sujuu": 8011,
      "edio": 8012,
      "aen": 8013,
      "aop": 8014,
      "ikaa": 8015,
      "slo": 8016,
      "wol": 8017,
      "##gen": 8018,
      "aamo": 8019,
      "seva": 8020,
      "ilpp": 8021,
      "ittei": 8022,
      "saati": 8023,
      "kauno": 8024,
      "kerma": 8025,
      "rell": 8026,
      "tarmo": 8027,
      "ennet": 8028,
      "lasin": 8029,
      "rinna": 8030,
      "harks": 8031,
      "umni": 8032,
      "east": 8033,
      "okr": 8034,
      "ahar": 8035,
      "orsb": 8036,
      "gola": 8037,
      "olum": 8038,
      "leivo": 8039,
      "noita": 8040,
      "cin": 8041,
      "cry": 8042,
      "emu": 8043,
      "eff": 8044,
      "fit": 8045,
      "jel": 8046,
      "kik": 8047,
      "uman": 8048,
      "teta": 8049,
      "stava": 8050,
      "sarah": 8051,
      "elon": 8052,
      "##las": 8053,
      "kunt": 8054,
      "ukki": 8055,
      "pudot": 8056,
      "sovel": 8057,
      "ohto": 8058,
      "alama": 8059,
      "nnek": 8060,
      "kand": 8061,
      "akis": 8062,
      "irror": 8063,
      "ngelm": 8064,
      "kuuro": 8065,
      "icc": 8066,
      "iosta": 8067,
      "iant": 8068,
      "önki": 8069,
      "apar": 8070,
      "laam": 8071,
      "naula": 8072,
      "okra": 8073,
      "iunau": 8074,
      "vihki": 8075,
      "wille": 8076,
      "wimb": 8077,
      "brig": 8078,
      "gold": 8079,
      "tauko": 8080,
      "äytän": 8081,
      "bird": 8082,
      "byr": 8083,
      "fe": 8084,
      "iq": 8085,
      "ml": 8086,
      "sist": 8087,
      "ux": 8088,
      "ymä": 8089,
      "äck": 8090,
      "öran": 8091,
      "##hm": 8092,
      "##ey": 8093,
      "##dr": 8094,
      "##tar": 8095,
      "tapaa": 8096,
      "tukki": 8097,
      "vaiku": 8098,
      "aler": 8099,
      "kummu": 8100,
      "aataa": 8101,
      "aapo": 8102,
      "lase": 8103,
      "ester": 8104,
      "niger": 8105,
      "kiusa": 8106,
      "auke": 8107,
      "aupp": 8108,
      "ajana": 8109,
      "ulf": 8110,
      "tunt": 8111,
      "opist": 8112,
      "stil": 8113,
      "ikent": 8114,
      "kaato": 8115,
      "ellak": 8116,
      "emeri": 8117,
      "ikoll": 8118,
      "äyde": 8119,
      "dow": 8120,
      "eräi": 8121,
      "cole": 8122,
      "utkim": 8123,
      "oker": 8124,
      "diok": 8125,
      "rond": 8126,
      "intsa": 8127,
      "koura": 8128,
      "450": 8129,
      "84": 8130,
      "sikk": 8131,
      "##uta": 8132,
      "enis": 8133,
      "##uto": 8134,
      "aasal": 8135,
      "olar": 8136,
      "teel": 8137,
      "nip": 8138,
      "keis": 8139,
      "liika": 8140,
      "hein": 8141,
      "lopp": 8142,
      "ulun": 8143,
      "orb": 8144,
      "ohte": 8145,
      "rilai": 8146,
      "rigo": 8147,
      "tuoma": 8148,
      "med": 8149,
      "ryp": 8150,
      "istin": 8151,
      "ntil": 8152,
      "lask": 8153,
      "agner": 8154,
      "iota": 8155,
      "iopi": 8156,
      "oril": 8157,
      "aint": 8158,
      "kohdi": 8159,
      "eitse": 8160,
      "ineet": 8161,
      "uulan": 8162,
      "nsid": 8163,
      "aidz": 8164,
      "vihel": 8165,
      "viher": 8166,
      "asara": 8167,
      "öid": 8168,
      "ntero": 8169,
      "oksis": 8170,
      "rgia": 8171,
      "eys": 8172,
      "iton": 8173,
      "ipar": 8174,
      "örke": 8175,
      "##am": 8176,
      "onis": 8177,
      "kuppi": 8178,
      "erby": 8179,
      "olva": 8180,
      "lako": 8181,
      "assit": 8182,
      "mali": 8183,
      "salam": 8184,
      "atp": 8185,
      "atter": 8186,
      "itma": 8187,
      "raus": 8188,
      "piho": 8189,
      "life": 8190,
      "ahka": 8191,
      "repi": 8192,
      "##und": 8193,
      "agr": 8194,
      "iand": 8195,
      "täyd": 8196,
      "ange": 8197,
      "kkoon": 8198,
      "soitt": 8199,
      "oyal": 8200,
      "akob": 8201,
      "ummas": 8202,
      "enior": 8203,
      "ummer": 8204,
      "ornet": 8205,
      "muot": 8206,
      "äläis": 8207,
      "rett": 8208,
      "ioide": 8209,
      "mökki": 8210,
      "äji": 8211,
      "lfy": 8212,
      "aq": 8213,
      "col": 8214,
      "ipal": 8215,
      "jelm": 8216,
      "lv": 8217,
      "okon": 8218,
      "##eld": 8219,
      "##tor": 8220,
      "tiön": 8221,
      "ols": 8222,
      "oles": 8223,
      "aran": 8224,
      "sien": 8225,
      "sakon": 8226,
      "itsa": 8227,
      "miisa": 8228,
      "rag": 8229,
      "rasti": 8230,
      "now": 8231,
      "urvo": 8232,
      "ukk": 8233,
      "sos": 8234,
      "ehmu": 8235,
      "sukar": 8236,
      "kane": 8237,
      "tör": 8238,
      "säl": 8239,
      "rink": 8240,
      "ainel": 8241,
      "ackal": 8242,
      "innon": 8243,
      "skent": 8244,
      "innas": 8245,
      "talte": 8246,
      "aivas": 8247,
      "##geo": 8248,
      "bay": 8249,
      "igan": 8250,
      "ntym": 8251,
      "good": 8252,
      "bell": 8253,
      "leip": 8254,
      "ogg": 8255,
      "lott": 8256,
      "cross": 8257,
      "önkij": 8258,
      "bc": 8259,
      "ban": 8260,
      "byd": 8261,
      "cas": 8262,
      "fl": 8263,
      "hkö": 8264,
      "här": 8265,
      "lil": 8266,
      "likk": 8267,
      "alf": 8268,
      "aron": 8269,
      "olia": 8270,
      "pace": 8271,
      "aisa": 8272,
      "##nea": 8273,
      "saac": 8274,
      "ttien": 8275,
      "ossi": 8276,
      "iiku": 8277,
      "tämää": 8278,
      "##unt": 8279,
      "elip": 8280,
      "amall": 8281,
      "hii": 8282,
      "lauku": 8283,
      "onnu": 8284,
      "herb": 8285,
      "inner": 8286,
      "stelu": 8287,
      "ritz": 8288,
      "match": 8289,
      "aneen": 8290,
      "ekp": 8291,
      "box": 8292,
      "espn": 8293,
      "oppo": 8294,
      "wick": 8295,
      "layo": 8296,
      "ydney": 8297,
      "eesu": 8298,
      "märkä": 8299,
      "watch": 8300,
      "hawk": 8301,
      "nobel": 8302,
      "dist": 8303,
      "eman": 8304,
      "epo": 8305,
      "eco": 8306,
      "mr": 8307,
      "ndy": 8308,
      "okki": 8309,
      "rü": 8310,
      "uil": 8311,
      "uisi": 8312,
      "ün": 8313,
      "##sy": 8314,
      "antio": 8315,
      "isso": 8316,
      "iner": 8317,
      "etur": 8318,
      "kosi": 8319,
      "kori": 8320,
      "lakki": 8321,
      "ilkki": 8322,
      "llek": 8323,
      "haro": 8324,
      "iida": 8325,
      "otter": 8326,
      "sop": 8327,
      "loyd": 8328,
      "rosta": 8329,
      "amber": 8330,
      "isäll": 8331,
      "irhe": 8332,
      "eed": 8333,
      "ual": 8334,
      "##diz": 8335,
      "iihf": 8336,
      "ärpi": 8337,
      "kontu": 8338,
      "oost": 8339,
      "dos": 8340,
      "osien": 8341,
      "hok": 8342,
      "niska": 8343,
      "enge": 8344,
      "visa": 8345,
      "ueen": 8346,
      "ummit": 8347,
      "nessä": 8348,
      "lievi": 8349,
      "kurku": 8350,
      "ikkel": 8351,
      "geop": 8352,
      "okuva": 8353,
      "lpine": 8354,
      "umari": 8355,
      "äjät": 8356,
      "loog": 8357,
      "mosc": 8358,
      "with": 8359,
      "dorf": 8360,
      "cia": 8361,
      "ihd": 8362,
      "sé": 8363,
      "##ens": 8364,
      "tihku": 8365,
      "##kim": 8366,
      "eide": 8367,
      "kalle": 8368,
      "arik": 8369,
      "sime": 8370,
      "sataa": 8371,
      "uutaa": 8372,
      "rapu": 8373,
      "unter": 8374,
      "iikar": 8375,
      "lempe": 8376,
      "pouta": 8377,
      "hev": 8378,
      "telt": 8379,
      "ehjä": 8380,
      "ehno": 8381,
      "uthi": 8382,
      "marco": 8383,
      "käyn": 8384,
      "part": 8385,
      "peu": 8386,
      "tuula": 8387,
      "hard": 8388,
      "tistä": 8389,
      "abu": 8390,
      "aitl": 8391,
      "vihj": 8392,
      "ioni": 8393,
      "urmer": 8394,
      "aalar": 8395,
      "söi": 8396,
      "rolf": 8397,
      "urbul": 8398,
      "ensor": 8399,
      "orbes": 8400,
      "avel": 8401,
      "eini": 8402,
      "f1": 8403,
      "fon": 8404,
      "gre": 8405,
      "hdot": 8406,
      "lyö": 8407,
      "mmu": 8408,
      "rp": 8409,
      "rni": 8410,
      "vr": 8411,
      "wis": 8412,
      "äva": 8413,
      "äksy": 8414,
      "år": 8415,
      "##cke": 8416,
      "##tš": 8417,
      "tapo": 8418,
      "ince": 8419,
      "kouk": 8420,
      "kaja": 8421,
      "erso": 8422,
      "erho": 8423,
      "olop": 8424,
      "arsa": 8425,
      "argu": 8426,
      "lata": 8427,
      "malle": 8428,
      "naja": 8429,
      "rai": 8430,
      "läin": 8431,
      "untaa": 8432,
      "ihlo": 8433,
      "ajel": 8434,
      "eutan": 8435,
      "kyp": 8436,
      "rodu": 8437,
      "stie": 8438,
      "uim": 8439,
      "istos": 8440,
      "##die": 8441,
      "##iru": 8442,
      "ouise": 8443,
      "risb": 8444,
      "karvo": 8445,
      "##hani": 8446,
      "mpin": 8447,
      "dub": 8448,
      "aaduk": 8449,
      "nukke": 8450,
      "redr": 8451,
      "adal": 8452,
      "ezir": 8453,
      "äneet": 8454,
      "grahn": 8455,
      "birg": 8456,
      "solmu": 8457,
      "rdog": 8458,
      "maple": 8459,
      "97": 8460,
      "duo": 8461,
      "eq": 8462,
      "fing": 8463,
      "gon": 8464,
      "hort": 8465,
      "imar": 8466,
      "jp": 8467,
      "lke": 8468,
      "lmo": 8469,
      "vs": 8470,
      "vik": 8471,
      "ws": 8472,
      "##yn": 8473,
      "tako": 8474,
      "isw": 8475,
      "intää": 8476,
      "jol": 8477,
      "tät": 8478,
      "tipa": 8479,
      "aarin": 8480,
      "airi": 8481,
      "athan": 8482,
      "mio": 8483,
      "race": 8484,
      "nell": 8485,
      "lämän": 8486,
      "hapo": 8487,
      "hampu": 8488,
      "tyvä": 8489,
      "piru": 8490,
      "ukkar": 8491,
      "esil": 8492,
      "lock": 8493,
      "ollin": 8494,
      "terho": 8495,
      "akkai": 8496,
      "säk": 8497,
      "juna": 8498,
      "dag": 8499,
      "ranno": 8500,
      "pyr": 8501,
      "hih": 8502,
      "idl": 8503,
      "amist": 8504,
      "äytte": 8505,
      "##hio": 8506,
      "style": 8507,
      "nuri": 8508,
      "stew": 8509,
      "ronja": 8510,
      "nukut": 8511,
      "ankal": 8512,
      "uosma": 8513,
      "graf": 8514,
      "ippil": 8515,
      "uikko": 8516,
      "clark": 8517,
      "mazon": 8518,
      "leuka": 8519,
      "bond": 8520,
      "séb": 8521,
      "epi": 8522,
      "gy": 8523,
      "kran": 8524,
      "lkaa": 8525,
      "nist": 8526,
      "pv": 8527,
      "pest": 8528,
      "rm": 8529,
      "rv": 8530,
      "vt": 8531,
      "##py": 8532,
      "inke": 8533,
      "alzh": 8534,
      "kokse": 8535,
      "kurki": 8536,
      "tial": 8537,
      "eippa": 8538,
      "lamb": 8539,
      "vid": 8540,
      "nava": 8541,
      "##ray": 8542,
      "atkaa": 8543,
      "itch": 8544,
      "mig": 8545,
      "rain": 8546,
      "kila": 8547,
      "iastr": 8548,
      "ursu": 8549,
      "pukki": 8550,
      "##hah": 8551,
      "iehu": 8552,
      "eugeo": 8553,
      "utsa": 8554,
      "kanno": 8555,
      "eisar": 8556,
      "mars": 8557,
      "rando": 8558,
      "ring": 8559,
      "kkv": 8560,
      "niilo": 8561,
      "amid": 8562,
      "allor": 8563,
      "utoa": 8564,
      "ulais": 8565,
      "ukaš": 8566,
      "ried": 8567,
      "cardi": 8568,
      "youtu": 8569,
      "tolku": 8570,
      "oday": 8571,
      "ahtui": 8572,
      "abba": 8573,
      "ärtha": 8574,
      "öysti": 8575,
      "npa": 8576,
      "äkö": 8577,
      "##ds": 8578,
      "##él": 8579,
      "jako": 8580,
      "joll": 8581,
      "koj": 8582,
      "kool": 8583,
      "arri": 8584,
      "uupa": 8585,
      "näl": 8586,
      "##mpt": 8587,
      "autio": 8588,
      "iii": 8589,
      "taiva": 8590,
      "opher": 8591,
      "uusul": 8592,
      "robb": 8593,
      "edw": 8594,
      "reda": 8595,
      "##sol": 8596,
      "eliv": 8597,
      "allei": 8598,
      "lasma": 8599,
      "raas": 8600,
      "rini": 8601,
      "agen": 8602,
      "iddy": 8603,
      "imin": 8604,
      "iola": 8605,
      "iano": 8606,
      "alker": 8607,
      "listä": 8608,
      "eiton": 8609,
      "adon": 8610,
      "absu": 8611,
      "ttor": 8612,
      "ipsi": 8613,
      "ione": 8614,
      "reid": 8615,
      "möki": 8616,
      "yynär": 8617,
      "ripul": 8618,
      "duuma": 8619,
      "ulham": 8620,
      "atoi": 8621,
      "epal": 8622,
      "gb": 8623,
      "lana": 8624,
      "otoi": 8625,
      "spa": 8626,
      "wing": 8627,
      "zi": 8628,
      "isco": 8629,
      "inj": 8630,
      "##kos": 8631,
      "tempt": 8632,
      "siper": 8633,
      "lach": 8634,
      "asvu": 8635,
      "navig": 8636,
      "elmar": 8637,
      "tojen": 8638,
      "atel": 8639,
      "taava": 8640,
      "auaa": 8641,
      "ttama": 8642,
      "osmo": 8643,
      "osley": 8644,
      "opel": 8645,
      "utte": 8646,
      "apnea": 8647,
      "uhel": 8648,
      "ikis": 8649,
      "sär": 8650,
      "irus": 8651,
      "elija": 8652,
      "nteki": 8653,
      "kaar": 8654,
      "kult": 8655,
      "ouri": 8656,
      "amat": 8657,
      "stm": 8658,
      "annik": 8659,
      "äysi": 8660,
      "lang": 8661,
      "laud": 8662,
      "doug": 8663,
      "ios": 8664,
      "raud": 8665,
      "norf": 8666,
      "ttine": 8667,
      "cat": 8668,
      "igel": 8669,
      "nikki": 8670,
      "rene": 8671,
      "etoa": 8672,
      "yper": 8673,
      "caru": 8674,
      "heimo": 8675,
      "ripus": 8676,
      "agnee": 8677,
      "ryntä": 8678,
      "bas": 8679,
      "cli": 8680,
      "hmi": 8681,
      "ipa": 8682,
      "iman": 8683,
      "lka": 8684,
      "nda": 8685,
      "ndia": 8686,
      "uer": 8687,
      "yna": 8688,
      "##bu": 8689,
      "tate": 8690,
      "llin": 8691,
      "tup": 8692,
      "uoni": 8693,
      "esso": 8694,
      "ashar": 8695,
      "ilut": 8696,
      "ildiz": 8697,
      "nea": 8698,
      "oili": 8699,
      "##lee": 8700,
      "otin": 8701,
      "urp": 8702,
      "ukin": 8703,
      "ajor": 8704,
      "pujo": 8705,
      "lobe": 8706,
      "ulho": 8707,
      "ohtee": 8708,
      "kauni": 8709,
      "##nig": 8710,
      "edä": 8711,
      "akoi": 8712,
      "tajak": 8713,
      "uhli": 8714,
      "deit": 8715,
      "lauta": 8716,
      "evon": 8717,
      "lähei": 8718,
      "astis": 8719,
      "kkoa": 8720,
      "spel": 8721,
      "iper": 8722,
      "mariu": 8723,
      "orsby": 8724,
      "lonso": 8725,
      "lips": 8726,
      "kuru": 8727,
      "leipo": 8728,
      "ruth": 8729,
      "fifa": 8730,
      "imal": 8731,
      "gard": 8732,
      "rmand": 8733,
      "ymise": 8734,
      "macc": 8735,
      "dc": 8736,
      "dt": 8737,
      "esal": 8738,
      "hde": 8739,
      "htuu": 8740,
      "ijä": 8741,
      "js": 8742,
      "ljo": 8743,
      "nst": 8744,
      "npi": 8745,
      "ulit": 8746,
      "yiv": 8747,
      "üri": 8748,
      "##ic": 8749,
      "##ab": 8750,
      "##kkä": 8751,
      "isel": 8752,
      "alho": 8753,
      "joona": 8754,
      "kajo": 8755,
      "asvo": 8756,
      "ilve": 8757,
      "ilton": 8758,
      "oihu": 8759,
      "taak": 8760,
      "otsin": 8761,
      "lipa": 8762,
      "liina": 8763,
      "iego": 8764,
      "head": 8765,
      "osas": 8766,
      "ahan": 8767,
      "rior": 8768,
      "astia": 8769,
      "istoi": 8770,
      "otet": 8771,
      "ärkö": 8772,
      "utum": 8773,
      "icz": 8774,
      "agma": 8775,
      "chi": 8776,
      "ongo": 8777,
      "maiju": 8778,
      "ritva": 8779,
      "stedt": 8780,
      "emmet": 8781,
      "baby": 8782,
      "napsa": 8783,
      "owl": 8784,
      "omee": 8785,
      "rent": 8786,
      "ecr": 8787,
      "leipä": 8788,
      "ralf": 8789,
      "kouri": 8790,
      "lisia": 8791,
      "retz": 8792,
      "imak": 8793,
      "anant": 8794,
      "asked": 8795,
      "rönn": 8796,
      "slon": 8797,
      "rnold": 8798,
      "lkeen": 8799,
      "ürich": 8800,
      "98": 8801,
      "dca": 8802,
      "hm": 8803,
      "kp": 8804,
      "pga": 8805,
      "upi": 8806,
      "wer": 8807,
      "ävää": 8808,
      "##ía": 8809,
      "anit": 8810,
      "onil": 8811,
      "vail": 8812,
      "tiika": 8813,
      "eif": 8814,
      "aase": 8815,
      "tep": 8816,
      "arge": 8817,
      "lavi": 8818,
      "esten": 8819,
      "askin": 8820,
      "mav": 8821,
      "viina": 8822,
      "nappa": 8823,
      "tomi": 8824,
      "itler": 8825,
      "mire": 8826,
      "nop": 8827,
      "aue": 8828,
      "aant": 8829,
      "hear": 8830,
      "loin": 8831,
      "lui": 8832,
      "ehke": 8833,
      "ntava": 8834,
      "ross": 8835,
      "utch": 8836,
      "apun": 8837,
      "uhmo": 8838,
      "kuvas": 8839,
      "eevi": 8840,
      "vaini": 8841,
      "##mur": 8842,
      "selos": 8843,
      "ruce": 8844,
      "ruins": 8845,
      "dar": 8846,
      "ranka": 8847,
      "karta": 8848,
      "hand": 8849,
      "jätt": 8850,
      "ianca": 8851,
      "hart": 8852,
      "nuut": 8853,
      "uulin": 8854,
      "eneve": 8855,
      "ullon": 8856,
      "talve": 8857,
      "andel": 8858,
      "antib": 8859,
      "owe": 8860,
      "graa": 8861,
      "trat": 8862,
      "erner": 8863,
      "220": 8864,
      "misiä": 8865,
      "aasut": 8866,
      "well": 8867,
      "glas": 8868,
      "gibso": 8869,
      "wsj": 8870,
      "dagb": 8871,
      "huk": 8872,
      "iff": 8873,
      "lvar": 8874,
      "oor": 8875,
      "ytä": 8876,
      "zo": 8877,
      "##ct": 8878,
      "enkin": 8879,
      "isv": 8880,
      "intaa": 8881,
      "etz": 8882,
      "late": 8883,
      "sato": 8884,
      "viikk": 8885,
      "vilah": 8886,
      "elvo": 8887,
      "pam": 8888,
      "tova": 8889,
      "nippu": 8890,
      "ray": 8891,
      "kie": 8892,
      "auks": 8893,
      "leff": 8894,
      "urme": 8895,
      "ieppa": 8896,
      "iinty": 8897,
      "ehmo": 8898,
      "reikä": 8899,
      "suta": 8900,
      "rille": 8901,
      "kanne": 8902,
      "yyl": 8903,
      "ukkul": 8904,
      "selk": 8905,
      "hip": 8906,
      "rince": 8907,
      "amppa": 8908,
      "evge": 8909,
      "moot": 8910,
      "acq": 8911,
      "ammel": 8912,
      "nui": 8913,
      "astr": 8914,
      "räik": 8915,
      "abine": 8916,
      "alei": 8917,
      "lahjo": 8918,
      "stell": 8919,
      "aarte": 8920,
      "armia": 8921,
      "thor": 8922,
      "umppu": 8923,
      "essie": 8924,
      "layb": 8925,
      "ynee": 8926,
      "resp": 8927,
      "nils": 8928,
      "aalei": 8929,
      "hinau": 8930,
      "ds": 8931,
      "ivit": 8932,
      "kro": 8933,
      "klu": 8934,
      "knig": 8935,
      "nc": 8936,
      "rtti": 8937,
      "ujan": 8938,
      "vps": 8939,
      "wire": 8940,
      "taut": 8941,
      "takka": 8942,
      "onse": 8943,
      "onar": 8944,
      "ales": 8945,
      "uoll": 8946,
      "kaku": 8947,
      "olppi": 8948,
      "simul": 8949,
      "asino": 8950,
      "maut": 8951,
      "mach": 8952,
      "aime": 8953,
      "##hev": 8954,
      "neul": 8955,
      "hab": 8956,
      "oime": 8957,
      "leja": 8958,
      "post": 8959,
      "uruh": 8960,
      "sova": 8961,
      "losta": 8962,
      "taika": 8963,
      "opin": 8964,
      "tank": 8965,
      "rokse": 8966,
      "isem": 8967,
      "surke": 8968,
      "erie": 8969,
      "amaa": 8970,
      "essaa": 8971,
      "##ung": 8972,
      "uih": 8973,
      "traa": 8974,
      "eeti": 8975,
      "dataa": 8976,
      "icj": 8977,
      "stön": 8978,
      "hinna": 8979,
      "ojel": 8980,
      "tumin": 8981,
      "akkor": 8982,
      "cola": 8983,
      "absol": 8984,
      "alehd": 8985,
      "spr": 8986,
      "ayer": 8987,
      "amil": 8988,
      "itul": 8989,
      "iba": 8990,
      "atii": 8991,
      "atim": 8992,
      "uudel": 8993,
      "bobr": 8994,
      "melu": 8995,
      "iisau": 8996,
      "rankf": 8997,
      "mekan": 8998,
      "ünche": 8999,
      "aga": 9000,
      "cl": 9001,
      "dha": 9002,
      "dee": 9003,
      "khani": 9004,
      "nde": 9005,
      "oden": 9006,
      "pee": 9007,
      "shu": 9008,
      "wint": 9009,
      "xin": 9010,
      "ydä": 9011,
      "äpi": 9012,
      "ömä": 9013,
      "alhe": 9014,
      "alssi": 9015,
      "kust": 9016,
      "uuvu": 9017,
      "##ric": 9018,
      "##rig": 9019,
      "uns": 9020,
      "novo": 9021,
      "sanka": 9022,
      "lig": 9023,
      "lipu": 9024,
      "lick": 9025,
      "urre": 9026,
      "alah": 9027,
      "kyä": 9028,
      "roki": 9029,
      "illeh": 9030,
      "reet": 9031,
      "rix": 9032,
      "ripo": 9033,
      "tehtä": 9034,
      "rkl": 9035,
      "dellä": 9036,
      "ajas": 9037,
      "olour": 9038,
      "sing": 9039,
      "häl": 9040,
      "mane": 9041,
      "digi": 9042,
      "herne": 9043,
      "usic": 9044,
      "öyhö": 9045,
      "akat": 9046,
      "misee": 9047,
      "olau": 9048,
      "nsio": 9049,
      "##ihk": 9050,
      "ämär": 9051,
      "ikkoj": 9052,
      "112": 9053,
      "atsas": 9054,
      "roste": 9055,
      "yönte": 9056,
      "kuski": 9057,
      "evans": 9058,
      "onnah": 9059,
      "ytös": 9060,
      "arcia": 9061,
      "leaf": 9062,
      "ufva": 9063,
      "sepel": 9064,
      "##uay": 9065,
      "acob": 9066,
      "drag": 9067,
      "dun": 9068,
      "god": 9069,
      "iväl": 9070,
      "rsi": 9071,
      "rras": 9072,
      "wir": 9073,
      "##au": 9074,
      "##sar": 9075,
      "inka": 9076,
      "tullu": 9077,
      "vau": 9078,
      "aline": 9079,
      "tiu": 9080,
      "eip": 9081,
      "eice": 9082,
      "##kei": 9083,
      "aavu": 9084,
      "aston": 9085,
      "##mat": 9086,
      "staj": 9087,
      "stall": 9088,
      "olid": 9089,
      "##one": 9090,
      "##kur": 9091,
      "nich": 9092,
      "miet": 9093,
      "rajo": 9094,
      "llisi": 9095,
      "autaa": 9096,
      "iivu": 9097,
      "saal": 9098,
      "lija": 9099,
      "ossu": 9100,
      "tilas": 9101,
      "reunu": 9102,
      "utsu": 9103,
      "rilla": 9104,
      "uhte": 9105,
      "try": 9106,
      "rub": 9107,
      "nuot": 9108,
      "mikro": 9109,
      "ajouk": 9110,
      "hinno": 9111,
      "ammad": 9112,
      "urah": 9113,
      "aniem": 9114,
      "mog": 9115,
      "oikka": 9116,
      "ainer": 9117,
      "ody": 9118,
      "cost": 9119,
      "ango": 9120,
      "ällee": 9121,
      "kets": 9122,
      "jim": 9123,
      "kkäys": 9124,
      "270": 9125,
      "puuro": 9126,
      "uluv": 9127,
      "tolpp": 9128,
      "fab": 9129,
      "aasua": 9130,
      "stanb": 9131,
      "kontr": 9132,
      "mages": 9133,
      "ucker": 9134,
      "gordo": 9135,
      "säter": 9136,
      "luisu": 9137,
      "cinia": 9138,
      "eus": 9139,
      "eppu": 9140,
      "fest": 9141,
      "gil": 9142,
      "gir": 9143,
      "hp": 9144,
      "mck": 9145,
      "plo": 9146,
      "vint": 9147,
      "weng": 9148,
      "öcke": 9149,
      "##ie": 9150,
      "##stö": 9151,
      "##ny": 9152,
      "##war": 9153,
      "vaska": 9154,
      "alpa": 9155,
      "jono": 9156,
      "kolo": 9157,
      "erva": 9158,
      "arne": 9159,
      "lago": 9160,
      "assin": 9161,
      "sey": 9162,
      "sev": 9163,
      "seli": 9164,
      "ilpo": 9165,
      "##mir": 9166,
      "airo": 9167,
      "toppa": 9168,
      "atsin": 9169,
      "rail": 9170,
      "kick": 9171,
      "noit": 9172,
      "leck": 9173,
      "ulvia": 9174,
      "alain": 9175,
      "roy": 9176,
      "aker": 9177,
      "uhma": 9178,
      "tutt": 9179,
      "juni": 9180,
      "entf": 9181,
      "kaski": 9182,
      "ouna": 9183,
      "ellen": 9184,
      "lank": 9185,
      "##bba": 9186,
      "evp": 9187,
      "kärk": 9188,
      "kilva": 9189,
      "yrstö": 9190,
      "aaruk": 9191,
      "dyna": 9192,
      "ansio": 9193,
      "arlon": 9194,
      "bob": 9195,
      "baum": 9196,
      "omeo": 9197,
      "oakim": 9198,
      "viroo": 9199,
      "eilah": 9200,
      "750": 9201,
      "550": 9202,
      "ygård": 9203,
      "adria": 9204,
      "kuorm": 9205,
      "ausah": 9206,
      "hiffr": 9207,
      "rigoz": 9208,
      "gonz": 9209,
      "onark": 9210,
      "94": 9211,
      "bl": 9212,
      "cc": 9213,
      "food": 9214,
      "klub": 9215,
      "mul": 9216,
      "ph": 9217,
      "på": 9218,
      "ther": 9219,
      "uš": 9220,
      "##kit": 9221,
      "##rå": 9222,
      "##fi": 9223,
      "##zb": 9224,
      "##gia": 9225,
      "##ør": 9226,
      "onro": 9227,
      "komp": 9228,
      "uoja": 9229,
      "kama": 9230,
      "##usu": 9231,
      "vip": 9232,
      "viik": 9233,
      "ailah": 9234,
      "kius": 9235,
      "aiste": 9236,
      "tyrm": 9237,
      "sanel": 9238,
      "liffe": 9239,
      "ttiva": 9240,
      "loa": 9241,
      "orv": 9242,
      "oran": 9243,
      "orti": 9244,
      "oreno": 9245,
      "ostu": 9246,
      "ohtu": 9247,
      "maall": 9248,
      "oph": 9249,
      "opra": 9250,
      "kert": 9251,
      "edal": 9252,
      "suihk": 9253,
      "amsa": 9254,
      "ryk": 9255,
      "dep": 9256,
      "very": 9257,
      "ajak": 9258,
      "oteta": 9259,
      "uutar": 9260,
      "ärin": 9261,
      "ruck": 9262,
      "sttk": 9263,
      "kuula": 9264,
      "nuore": 9265,
      "amppu": 9266,
      "immel": 9267,
      "ear": 9268,
      "laiv": 9269,
      "steve": 9270,
      "tahra": 9271,
      "runs": 9272,
      "gare": 9273,
      "ikei": 9274,
      "amero": 9275,
      "own": 9276,
      "nesty": 9277,
      "errok": 9278,
      "reau": 9279,
      "otors": 9280,
      "ppil": 9281,
      "210": 9282,
      "rosby": 9283,
      "ridge": 9284,
      "kuitu": 9285,
      "aavol": 9286,
      "grönh": 9287,
      "sham": 9288,
      "uzeni": 9289,
      "claud": 9290,
      "klubi": 9291,
      "aš": 9292,
      "akai": 9293,
      "fem": 9294,
      "hc": 9295,
      "hus": 9296,
      "riks": 9297,
      "sjä": 9298,
      "öti": 9299,
      "##id": 9300,
      "##kan": 9301,
      "##fu": 9302,
      "##ano": 9303,
      "onter": 9304,
      "##kat": 9305,
      "vaksi": 9306,
      "uokka": 9307,
      "täl": 9308,
      "##med": 9309,
      "kapp": 9310,
      "ares": 9311,
      "arner": 9312,
      "siuna": 9313,
      "latti": 9314,
      "llais": 9315,
      "selli": 9316,
      "ailee": 9317,
      "uskar": 9318,
      "iab": 9319,
      "augu": 9320,
      "iiber": 9321,
      "pippa": 9322,
      "liä": 9323,
      "lien": 9324,
      "muna": 9325,
      "void": 9326,
      "orik": 9327,
      "lum": 9328,
      "utina": 9329,
      "anaka": 9330,
      "yhdi": 9331,
      "löf": 9332,
      "ruby": 9333,
      "eller": 9334,
      "aalt": 9335,
      "imrå": 9336,
      "alil": 9337,
      "yller": 9338,
      "mom": 9339,
      "##aru": 9340,
      "tiski": 9341,
      "nnäk": 9342,
      "okero": 9343,
      "atuk": 9344,
      "uorsa": 9345,
      "eval": 9346,
      "115": 9347,
      "napsi": 9348,
      "eleva": 9349,
      "liepe": 9350,
      "ront": 9351,
      "hams": 9352,
      "gow": 9353,
      "hdis": 9354,
      "neid": 9355,
      "weck": 9356,
      "hirsi": 9357,
      "uitsu": 9358,
      "aoke": 9359,
      "reed": 9360,
      "rönni": 9361,
      "omeno": 9362,
      "hdok": 9363,
      "nusta": 9364,
      "morg": 9365,
      "adrie": 9366,
      "lusik": 9367,
      "tephe": 9368,
      "onroe": 9369,
      "93": 9370,
      "bol": 9371,
      "crai": 9372,
      "gang": 9373,
      "iutta": 9374,
      "lj": 9375,
      "mine": 9376,
      "nha": 9377,
      "ntuu": 9378,
      "sulu": 9379,
      "uilu": 9380,
      "wel": 9381,
      "ätö": 9382,
      "önn": 9383,
      "ül": 9384,
      "ür": 9385,
      "##zz": 9386,
      "##yne": 9387,
      "##gor": 9388,
      "##ena": 9389,
      "taki": 9390,
      "inkko": 9391,
      "tumi": 9392,
      "kad": 9393,
      "##etz": 9394,
      "sako": 9395,
      "saks": 9396,
      "sakko": 9397,
      "elva": 9398,
      "uuda": 9399,
      "änk": 9400,
      "touk": 9401,
      "tossu": 9402,
      "attaa": 9403,
      "nif": 9404,
      "miva": 9405,
      "ramm": 9406,
      "ravis": 9407,
      "nom": 9408,
      "auhio": 9409,
      "lepp": 9410,
      "piro": 9411,
      "urik": 9412,
      "urst": 9413,
      "##ppy": 9414,
      "loks": 9415,
      "uluk": 9416,
      "kses": 9417,
      "eude": 9418,
      "riin": 9419,
      "river": 9420,
      "pele": 9421,
      "pelk": 9422,
      "anah": 9423,
      "anar": 9424,
      "essay": 9425,
      "turbo": 9426,
      "mong": 9427,
      "haat": 9428,
      "ärnä": 9429,
      "ärkky": 9430,
      "ransa": 9431,
      "annis": 9432,
      "##dur": 9433,
      "agher": 9434,
      "upm": 9435,
      "alii": 9436,
      "oje": 9437,
      "herm": 9438,
      "urau": 9439,
      "umpal": 9440,
      "kalan": 9441,
      "steet": 9442,
      "arron": 9443,
      "itun": 9444,
      "afa": 9445,
      "hond": 9446,
      "entia": 9447,
      "psw": 9448,
      "udis": 9449,
      "itos": 9450,
      "ream": 9451,
      "ukala": 9452,
      "luulo": 9453,
      "uotia": 9454,
      "gior": 9455,
      "kupit": 9456,
      "ival": 9457,
      "uzne": 9458,
      "birm": 9459,
      "ound": 9460,
      "uskur": 9461,
      "dubai": 9462,
      "djur": 9463,
      "font": 9464,
      "årde": 9465,
      "traag": 9466,
      "uudah": 9467,
      "05": 9468,
      "fia": 9469,
      "fter": 9470,
      "imis": 9471,
      "itee": 9472,
      "jis": 9473,
      "oust": 9474,
      "psi": 9475,
      "ppä": 9476,
      "rikk": 9477,
      "rmu": 9478,
      "sva": 9479,
      "vino": 9480,
      "wemb": 9481,
      "ynn": 9482,
      "##ban": 9483,
      "##vy": 9484,
      "onee": 9485,
      "tupa": 9486,
      "alter": 9487,
      "alnes": 9488,
      "kom": 9489,
      "kob": 9490,
      "kumar": 9491,
      "##tus": 9492,
      "##tum": 9493,
      "eimo": 9494,
      "erre": 9495,
      "aatel": 9496,
      "tell": 9497,
      "arro": 9498,
      "lae": 9499,
      "eso": 9500,
      "viis": 9501,
      "nalla": 9502,
      "elet": 9503,
      "toppi": 9504,
      "noah": 9505,
      "aukon": 9506,
      "iippo": 9507,
      "lepä": 9508,
      "sand": 9509,
      "keha": 9510,
      "lij": 9511,
      "ursi": 9512,
      "sokki": 9513,
      "loj": 9514,
      "lossa": 9515,
      "ohon": 9516,
      "kauma": 9517,
      "lubin": 9518,
      "kyn": 9519,
      "tanko": 9520,
      "ahmi": 9521,
      "reb": 9522,
      "sua": 9523,
      "suaal": 9524,
      "isii": 9525,
      "joht": 9526,
      "äide": 9527,
      "anas": 9528,
      "mervi": 9529,
      "omai": 9530,
      "ryy": 9531,
      "veh": 9532,
      "eep": 9533,
      "ajau": 9534,
      "ärkä": 9535,
      "icci": 9536,
      "hili": 9537,
      "himme": 9538,
      "pissa": 9539,
      "tulok": 9540,
      "ooga": 9541,
      "ago": 9542,
      "vahn": 9543,
      "häik": 9544,
      "everi": 9545,
      "hof": 9546,
      "coro": 9547,
      "cock": 9548,
      "abot": 9549,
      "hje": 9550,
      "ancy": 9551,
      "iuha": 9552,
      "ebab": 9553,
      "ubaru": 9554,
      "omppi": 9555,
      "erson": 9556,
      "yvö": 9557,
      "brian": 9558,
      "altt": 9559,
      "beiru": 9560,
      "halp": 9561,
      "ränti": 9562,
      "vyy": 9563,
      "layer": 9564,
      "aasun": 9565,
      "äjän": 9566,
      "arena": 9567,
      "glad": 9568,
      "arant": 9569,
      "uonio": 9570,
      "jsn": 9571,
      "djurg": 9572,
      "jista": 9573,
      "awa": 9574,
      "cit": 9575,
      "cra": 9576,
      "gear": 9577,
      "iist": 9578,
      "iga": 9579,
      "lppi": 9580,
      "myt": 9581,
      "nke": 9582,
      "nho": 9583,
      "orai": 9584,
      "oiko": 9585,
      "ppar": 9586,
      "vust": 9587,
      "ög": 9588,
      "##th": 9589,
      "##og": 9590,
      "##jh": 9591,
      "tage": 9592,
      "ond": 9593,
      "onkar": 9594,
      "etis": 9595,
      "kofe": 9596,
      "komul": 9597,
      "tii": 9598,
      "sig": 9599,
      "siva": 9600,
      "sive": 9601,
      "lama": 9602,
      "mad": 9603,
      "vivi": 9604,
      "viha": 9605,
      "viini": 9606,
      "elde": 9607,
      "änee": 9608,
      "nita": 9609,
      "rasta": 9610,
      "rach": 9611,
      "iippa": 9612,
      "leiv": 9613,
      "urska": 9614,
      "urpe": 9615,
      "syr": 9616,
      "heat": 9617,
      "iinus": 9618,
      "suuk": 9619,
      "kanka": 9620,
      "aman": 9621,
      "uira": 9622,
      "suure": 9623,
      "ärhä": 9624,
      "ruma": 9625,
      "kuuma": 9626,
      "ellit": 9627,
      "agu": 9628,
      "hint": 9629,
      "kön": 9630,
      "önkkö": 9631,
      "innut": 9632,
      "odge": 9633,
      "amie": 9634,
      "arren": 9635,
      "anoo": 9636,
      "evad": 9637,
      "obser": 9638,
      "eps": 9639,
      "epsi": 9640,
      "ammed": 9641,
      "appo": 9642,
      "umpul": 9643,
      "rieha": 9644,
      "hitt": 9645,
      "lsjh": 9646,
      "uikka": 9647,
      "maux": 9648,
      "rodr": 9649,
      "ilpel": 9650,
      "itelt": 9651,
      "eijon": 9652,
      "gaudr": 9653,
      "kiksi": 9654,
      "wisco": 9655,
      "urphy": 9656,
      "graaf": 9657,
      "oore": 9658,
      "leffa": 9659,
      "dpa": 9660,
      "iž": 9661,
      "oas": 9662,
      "rka": 9663,
      "stei": 9664,
      "was": 9665,
      "za": 9666,
      "##ux": 9667,
      "##pö": 9668,
      "##ok": 9669,
      "##yo": 9670,
      "##ene": 9671,
      "ense": 9672,
      "endo": 9673,
      "jau": 9674,
      "eimar": 9675,
      "aasti": 9676,
      "teise": 9677,
      "sivä": 9678,
      "simpp": 9679,
      "lampi": 9680,
      "lames": 9681,
      "askia": 9682,
      "makar": 9683,
      "naker": 9684,
      "uuha": 9685,
      "paito": 9686,
      "llei": 9687,
      "ustus": 9688,
      "atut": 9689,
      "nihk": 9690,
      "itute": 9691,
      "mick": 9692,
      "aisp": 9693,
      "nosta": 9694,
      "##lev": 9695,
      "leivi": 9696,
      "urmi": 9697,
      "uron": 9698,
      "asima": 9699,
      "orter": 9700,
      "oput": 9701,
      "reil": 9702,
      "utva": 9703,
      "vene": 9704,
      "suv": 9705,
      "suna": 9706,
      "rich": 9707,
      "irsti": 9708,
      "assar": 9709,
      "uid": 9710,
      "katse": 9711,
      "ksin": 9712,
      "mona": 9713,
      "oisen": 9714,
      "ranz": 9715,
      "tory": 9716,
      "stut": 9717,
      "raad": 9718,
      "unnit": 9719,
      "arib": 9720,
      "##uez": 9721,
      "evt": 9722,
      "impa": 9723,
      "akub": 9724,
      "lym": 9725,
      "ainui": 9726,
      "ntis": 9727,
      "enäh": 9728,
      "empe": 9729,
      "astro": 9730,
      "räss": 9731,
      "naud": 9732,
      "palau": 9733,
      "urry": 9734,
      "huuta": 9735,
      "raatt": 9736,
      "lains": 9737,
      "mmil": 9738,
      "eleg": 9739,
      "wich": 9740,
      "imien": 9741,
      "nath": 9742,
      "240": 9743,
      "etoj": 9744,
      "kurss": 9745,
      "äkel": 9746,
      "leipi": 9747,
      "##psy": 9748,
      "tauno": 9749,
      "wegia": 9750,
      "ittis": 9751,
      "walt": 9752,
      "waldo": 9753,
      "kopra": 9754,
      "narva": 9755,
      "carr": 9756,
      "tria": 9757,
      "uuhaa": 9758,
      "cont": 9759,
      "tsom": 9760,
      "mazda": 9761,
      "oxf": 9762,
      "lupia": 9763,
      "lasei": 9764,
      "craig": 9765,
      "eke": 9766,
      "gand": 9767,
      "iite": 9768,
      "que": 9769,
      "rte": 9770,
      "swe": 9771,
      "äes": 9772,
      "äkem": 9773,
      "€.": 9774,
      "##ken": 9775,
      "##ller": 9776,
      "andi": 9777,
      "onte": 9778,
      "tull": 9779,
      "etto": 9780,
      "alé": 9781,
      "kompp": 9782,
      "uotan": 9783,
      "tärä": 9784,
      "kaus": 9785,
      "arpi": 9786,
      "esong": 9787,
      "aijer": 9788,
      "naru": 9789,
      "elce": 9790,
      "käpy": 9791,
      "nora": 9792,
      "ääll": 9793,
      "leiki": 9794,
      "liin": 9795,
      "livel": 9796,
      "urpa": 9797,
      "urro": 9798,
      "kinn": 9799,
      "kino": 9800,
      "ajev": 9801,
      "solu": 9802,
      "tunno": 9803,
      "ience": 9804,
      "tand": 9805,
      "itam": 9806,
      "rib": 9807,
      "anat": 9808,
      "oup": 9809,
      "ouhe": 9810,
      "laste": 9811,
      "hill": 9812,
      "neulo": 9813,
      "karun": 9814,
      "manni": 9815,
      "attai": 9816,
      "divar": 9817,
      "kenut": 9818,
      "iisto": 9819,
      "##hie": 9820,
      "aram": 9821,
      "rity": 9822,
      "adre": 9823,
      "inei": 9824,
      "abre": 9825,
      "aarni": 9826,
      "kkail": 9827,
      "aidž": 9828,
      "duck": 9829,
      "cam": 9830,
      "talut": 9831,
      "way": 9832,
      "arkku": 9833,
      "ilain": 9834,
      "ionel": 9835,
      "erek": 9836,
      "airb": 9837,
      "bella": 9838,
      "tempa": 9839,
      "hold": 9840,
      "ratsu": 9841,
      "carlo": 9842,
      "rook": 9843,
      "touko": 9844,
      "dead": 9845,
      "kainu": 9846,
      "duuni": 9847,
      "arvas": 9848,
      "www": 9849,
      "down": 9850,
      "ötila": 9851,
      "bö": 9852,
      "cd": 9853,
      "hul": 9854,
      "imist": 9855,
      "lsa": 9856,
      "lkon": 9857,
      "mesta": 9858,
      "mön": 9859,
      "nja": 9860,
      "oras": 9861,
      "wrig": 9862,
      "öre": 9863,
      "##io": 9864,
      "##cc": 9865,
      "##yh": 9866,
      "##gä": 9867,
      "##sah": 9868,
      "tappi": 9869,
      "onan": 9870,
      "onaa": 9871,
      "koju": 9872,
      "##vah": 9873,
      "eipas": 9874,
      "katu": 9875,
      "aado": 9876,
      "aral": 9877,
      "mati": 9878,
      "mara": 9879,
      "maje": 9880,
      "sada": 9881,
      "sampp": 9882,
      "nad": 9883,
      "nain": 9884,
      "uume": 9885,
      "past": 9886,
      "##lat": 9887,
      "itra": 9888,
      "rady": 9889,
      "hag": 9890,
      "auhe": 9891,
      "sene": 9892,
      "lippi": 9893,
      "mukaa": 9894,
      "voimi": 9895,
      "ttik": 9896,
      "ieber": 9897,
      "iepin": 9898,
      "iemur": 9899,
      "asip": 9900,
      "orre": 9901,
      "oher": 9902,
      "kauks": 9903,
      "taid": 9904,
      "roz": 9905,
      "rokin": 9906,
      "ahoit": 9907,
      "suni": 9908,
      "ripa": 9909,
      "amy": 9910,
      "muuri": 9911,
      "ikkia": 9912,
      "irla": 9913,
      "irve": 9914,
      "turb": 9915,
      "maana": 9916,
      "eemil": 9917,
      "ainam": 9918,
      "otes": 9919,
      "ouch": 9920,
      "ruusu": 9921,
      "istuk": 9922,
      "datan": 9923,
      "ijaa": 9924,
      "rang": 9925,
      "torve": 9926,
      "tulko": 9927,
      "allu": 9928,
      "##bby": 9929,
      "hing": 9930,
      "lyk": 9931,
      "ssan": 9932,
      "hoeni": 9933,
      "mpie": 9934,
      "takku": 9935,
      "come": 9936,
      "alep": 9937,
      "alez": 9938,
      "nauho": 9939,
      "okm": 9940,
      "eniä": 9941,
      "onees": 9942,
      "back": 9943,
      "irtf": 9944,
      "orsku": 9945,
      "oped": 9946,
      "koota": 9947,
      "entor": 9948,
      "eymar": 9949,
      "oroz": 9950,
      "geel": 9951,
      "impu": 9952,
      "hirly": 9953,
      "uiten": 9954,
      "patru": 9955,
      "young": 9956,
      "assis": 9957,
      "firmo": 9958,
      "urtb": 9959,
      "ikrof": 9960,
      "uzu": 9961,
      "fueng": 9962,
      "ward": 9963,
      "award": 9964,
      "rumba": 9965,
      "ortod": 9966,
      "katem": 9967,
      "wwf": 9968,
      "vauva": 9969,
      "amsay": 9970,
      "iitep": 9971,
      "cel": 9972,
      "cop": 9973,
      "ece": 9974,
      "hine": 9975,
      "hre": 9976,
      "lel": 9977,
      "lesta": 9978,
      "oys": 9979,
      "och": 9980,
      "skau": 9981,
      "öv": 9982,
      "ömp": 9983,
      "šoi": 9984,
      "##cd": 9985,
      "##zer": 9986,
      "##ye": 9987,
      "##ür": 9988,
      "##tia": 9989,
      "anda": 9990,
      "jare": 9991,
      "inot": 9992,
      "inwar": 9993,
      "alc": 9994,
      "koist": 9995,
      "ssab": 9996,
      "karo": 9997,
      "erki": 9998,
      "##kow": 9999
    }
  }
}