<unk>	0
<s>	0
</s>	0
▁.	-3.56872
▁n	-3.66743
▁k	-3.91141
▁,	-3.96127
▁a	-4.1106
e	-4.19164
i	-4.20654
▁t	-4.25085
a	-4.3189
▁i	-4.37218
▁s	-4.41889
▁v	-4.44311
▁p	-4.4497
▁m	-4.55342
t	-4.59855
▁on	-4.60311
▁ja	-4.61198
s	-4.73417
n	-4.74243
▁-	-4.87653
▁en	-4.91661
u	-5.06294
▁ssa	-5.10759
▁h	-5.11259
▁in	-5.1223
▁l	-5.24325
▁an	-5.25684
▁S	-5.38868
o	-5.40754
l	-5.41632
▁K	-5.41829
▁e	-5.43073
k	-5.44476
▁lla	-5.49725
▁ä	-5.52127
▁T	-5.55953
m	-5.58092
▁P	-5.58572
▁oli	-5.59752
▁sta	-5.61183
▁että	-5.62507
▁ta	-5.62808
▁M	-5.69557
▁V	-5.73061
▁2	-5.76128
▁u	-5.77071
▁o	-5.77177
▁ei	-5.77693
▁r	-5.79536
is	-5.81193
▁L	-5.82585
▁jo	-5.83177
▁ti	-5.87517
▁lle	-5.87699
▁H	-5.91527
▁0	-5.92135
▁j	-5.9931
▁is	-6.03208
▁:	-6.04006
v	-6.04034
▁1	-6.04321
▁än	-6.09887
▁A	-6.11824
▁ssä	-6.15756
▁llis	-6.18007
▁nen	-6.235
▁J	-6.26437
ä	-6.26501
▁R	-6.2674
▁et	-6.27342
r	-6.27898
▁ukaan	-6.27899
▁na	-6.30464
▁ia	-6.31846
▁llä	-6.32192
▁y	-6.337
▁E	-6.37235
▁taa	-6.40659
▁"	-6.42743
▁N	-6.48819
▁ista	-6.52531
▁hän	-6.53434
▁myös	-6.53685
▁issa	-6.53921
▁stä	-6.54373
▁kin	-6.55384
▁se	-6.56246
▁I	-6.59401
▁at	-6.61154
▁ole	-6.61487
▁nyt	-6.61879
▁O	-6.63934
▁aa	-6.64335
y	-6.65102
▁ten	-6.65923
▁ksi	-6.66079
▁ovat	-6.66477
▁sen	-6.6717
▁us	-6.67484
▁tä	-6.68564
▁vat	-6.70436
▁aika	-6.72415
▁nut	-6.73906
▁kun	-6.75742
▁voi	-6.82113
▁si	-6.84648
▁lta	-6.86273
▁inen	-6.8717
▁ttiin	-6.87514
▁aan	-6.87841
▁tää	-6.89536
▁toimi	-6.89829
▁jen	-6.91069
▁3	-6.92252
▁nä	-6.93006
▁B	-6.94276
▁tila	-6.95029
▁tai	-6.95087
▁ukse	-6.95387
▁kse	-6.95573
▁ille	-6.98557
▁nsa	-6.98608
▁ien	-6.98714
▁ty	-6.99152
▁9	-7.01112
▁as	-7.01746
▁5	-7.02055
▁illa	-7.02498
▁eri	-7.02901
▁ollut	-7.0302
▁esti	-7.03872
▁ma	-7.04867
iime	-7.05687
▁ys	-7.0781
▁ertoo	-7.08275
▁alla	-7.08432
▁te	-7.08917
▁iin	-7.08927
▁jälk	-7.10265
▁4	-7.10472
▁esta	-7.12154
▁ää	-7.1244
▁oike	-7.12687
ukse	-7.13195
▁tam	-7.13295
▁saa	-7.13655
h	-7.1382
▁(	-7.1474
▁ttu	-7.15076
▁Hän	-7.15605
▁taina	-7.15799
▁pää	-7.16404
▁joka	-7.1672
▁ita	-7.17216
▁)	-7.17262
▁ais	-7.18154
▁osa	-7.19172
▁tus	-7.21335
▁iä	-7.2154
▁la	-7.218
utta	-7.22255
▁taj	-7.22306
▁yhte	-7.22786
▁U	-7.23268
▁F	-7.24056
▁anssa	-7.24413
▁koko	-7.24731
uin	-7.24852
▁työ	-7.2564
▁vast	-7.26026
▁un	-7.26359
▁Suom	-7.27473
▁sa	-7.28099
si	-7.28609
▁ensi	-7.29576
▁itse	-7.29983
▁niin	-7.30106
▁uonna	-7.30194
▁mutt	-7.30498
▁taja	-7.31634
▁he	-7.31784
▁itä	-7.32786
enäj	-7.33255
▁mme	-7.33515
▁nne	-7.34102
▁ise	-7.34259
▁ään	-7.34323
▁D	-7.35106
▁iden	-7.35159
▁taan	-7.35521
▁olisi	-7.35594
▁nkin	-7.36172
▁sto	-7.36277
▁tu	-7.37426
▁sai	-7.38459
▁uomen	-7.38722
▁ol	-7.3892
▁tois	-7.38979
ttel	-7.39067
▁yksi	-7.39354
▁häne	-7.39578
▁ilu	-7.40129
▁paik	-7.40241
▁asia	-7.40839
▁alue	-7.41363
▁lähe	-7.42034
▁halli	-7.42093
▁6	-7.42215
▁essa	-7.42707
▁sanoo	-7.42973
▁sti	-7.43458
ty	-7.44216
▁kesk	-7.44266
▁Jo	-7.4541
▁8	-7.45444
▁kau	-7.45632
▁peru	-7.45796
▁yli	-7.47008
▁asti	-7.47547
▁7	-7.48171
▁tanut	-7.48474
▁it	-7.49408
▁vät	-7.49526
lais	-7.49565
▁käyt	-7.50027
▁een	-7.50645
▁ihmi	-7.50725
▁maa	-7.52157
▁ihin	-7.5227
▁el	-7.52331
▁tapa	-7.52418
▁joh	-7.53277
▁tta	-7.53351
en	-7.53801
▁auto	-7.55444
▁uoden	-7.55553
▁oma	-7.56884
▁sekä	-7.57121
▁ainen	-7.57151
▁nta	-7.57293
▁luo	-7.57366
▁ede	-7.57411
▁assa	-7.57492
res	-7.57594
▁seura	-7.5793
▁aikki	-7.58506
▁olla	-7.5863
▁ident	-7.59035
▁täm	-7.59187
▁epä	-7.59313
▁lais	-7.60316
▁C	-7.60451
▁maan	-7.60549
▁ukkue	-7.60597
▁vielä	-7.6061
▁uole	-7.60634
▁nais	-7.6121
▁Se	-7.61229
▁käy	-7.61476
▁ko	-7.62235
▁uus	-7.62441
hdo	-7.62794
▁yl	-7.6316
▁talo	-7.63336
▁istä	-7.63591
▁b	-7.63693
▁näyt	-7.64067
it	-7.64469
▁aj	-7.64842
▁f	-7.65113
uoti	-7.65415
pah	-7.65518
▁al	-7.65567
▁ana	-7.65659
▁suur	-7.65671
▁asu	-7.65745
▁mies	-7.65772
▁ava	-7.65906
▁yrit	-7.66047
▁oit	-7.6611
▁mis	-7.66697
▁uussa	-7.67668
▁ertoi	-7.68864
▁kunn	-7.69044
▁aina	-7.69412
▁päivä	-7.69599
▁issä	-7.69767
ssa	-7.69808
▁vain	-7.69883
▁nsä	-7.70109
▁täv	-7.70225
▁neet	-7.70762
▁Y	-7.72043
,	-7.72112
▁ilta	-7.72114
▁siitä	-7.72792
▁vuosi	-7.73433
▁väli	-7.73592
▁?	-7.73883
▁G	-7.73968
ten	-7.73989
▁den	-7.74275
▁olev	-7.74665
▁Ukra	-7.75038
▁tutk	-7.75326
▁var	-7.76305
an	-7.77199
▁muut	-7.78449
kiks	-7.78488
▁anna	-7.78567
▁oi	-7.78724
▁itten	-7.78785
▁tode	-7.79157
▁uude	-7.79231
▁aiku	-7.79463
▁alve	-7.79616
▁suom	-7.79906
▁pel	-7.79927
▁kosk	-7.79941
▁sitä	-7.80058
uite	-7.8032
▁liik	-7.80406
▁sanoi	-7.80571
▁tark	-7.80689
▁teri	-7.80695
▁esi	-7.81171
ärje	-7.82689
▁teh	-7.82779
▁nkilö	-7.83107
▁määrä	-7.83515
▁puhe	-7.83734
▁alle	-7.83854
▁ykse	-7.83944
▁asta	-7.84372
il	-7.84722
▁noin	-7.84875
▁jos	-7.85002
p	-7.85835
▁ette	-7.85872
▁aljon	-7.85901
erro	-7.87495
▁isto	-7.87621
▁ö	-7.87704
▁tava	-7.87931
▁alta	-7.88347
▁eskus	-7.88527
▁turva	-7.88563
▁lait	-7.88939
ilm	-7.89136
▁kaksi	-7.89198
▁voit	-7.89678
▁uuta	-7.89818
illä	-7.90125
▁nto	-7.90199
▁uusi	-7.91464
▁vaih	-7.91526
säks	-7.91942
▁ennen	-7.91973
▁Yhd	-7.92282
▁eivät	-7.92848
▁W	-7.93119
▁Hel	-7.93316
▁ella	-7.93432
▁syy	-7.94201
▁miel	-7.94274
ys	-7.94422
▁jää	-7.9512
▁aikka	-7.95263
▁pros	-7.95267
▁tel	-7.95689
emm	-7.95819
▁hyvin	-7.96101
▁sam	-7.96144
▁tuli	-7.96154
▁ulko	-7.96306
▁edus	-7.96422
op	-7.96459
▁­	-7.9671
▁tav	-7.96997
j	-7.97248
▁ase	-7.9756
▁ansa	-7.98718
d	-7.98809
▁ot	-7.99163
▁lleen	-7.9949
▁valm	-7.99717
▁eli	-8.00115
▁aksi	-8.00177
▁llin	-8.00279
▁esit	-8.00327
▁oulu	-8.00503
▁tänyt	-8.00618
▁usta	-8.00648
▁kuva	-8.01079
▁vali	-8.01471
▁sano	-8.01529
▁rake	-8.01576
el	-8.01597
▁muun	-8.01615
▁iso	-8.01772
▁Ilta	-8.02604
▁	-8.03014
▁uass	-8.03134
▁ku	-8.03169
asta	-8.03186
▁tuo	-8.0326
▁Trump	-8.03893
▁nnut	-8.03987
▁tiin	-8.04341
▁istu	-8.04423
▁par	-8.04449
omm	-8.04593
▁käsi	-8.0471
▁uolu	-8.04748
▁julk	-8.049
▁arvo	-8.05811
▁esim	-8.05963
▁opu	-8.06187
▁eksi	-8.06326
▁pitkä	-8.06672
▁arvio	-8.0694
▁tulee	-8.07262
▁ina	-8.0745
▁iha	-8.07789
▁yllä	-8.07879
▁tunt	-8.08063
▁aus	-8.08149
▁sopi	-8.08515
▁valta	-8.08931
▁urhe	-8.09044
▁aisu	-8.09341
▁illä	-8.09355
▁tul	-8.09462
▁myö	-8.09646
itä	-8.09668
▁ilpa	-8.09772
▁arha	-8.1016
▁istö	-8.10458
▁kesä	-8.10591
▁Tämä	-8.10681
▁d	-8.10987
▁ässä	-8.11184
▁uoli	-8.11524
▁pitää	-8.11589
▁pois	-8.11613
▁ltä	-8.11788
▁pari	-8.11917
▁tieto	-8.11962
joh	-8.12029
iden	-8.12167
▁lut	-8.12306
erto	-8.12366
▁milj	-8.12452
▁jotk	-8.12478
▁selv	-8.12487
▁tule	-8.12688
▁uotta	-8.13123
▁ystä	-8.13168
laaj	-8.13708
▁anne	-8.13997
▁jonk	-8.14015
▁kirj	-8.14147
▁altio	-8.14332
▁sy	-8.14521
▁matka	-8.1485
▁minu	-8.14941
▁etty	-8.15022
▁euroa	-8.15039
▁haas	-8.15321
▁kunta	-8.15602
▁aali	-8.15696
▁use	-8.15987
▁jatk	-8.16152
▁tiet	-8.16479
▁iiko	-8.1677
▁mar	-8.17047
▁il	-8.17115
▁mieh	-8.17234
▁uutta	-8.17239
▁ilmo	-8.17368
▁ät	-8.17533
▁mene	-8.17562
▁suun	-8.17587
▁ajan	-8.17658
▁nee	-8.17812
▁sesti	-8.17913
▁kansa	-8.18426
▁ent	-8.18695
▁mon	-8.18925
▁piste	-8.18931
▁yö	-8.19043
▁koti	-8.19159
▁tö	-8.19688
▁ttav	-8.19839
erä	-8.20097
dän	-8.20262
▁uksi	-8.20497
▁iksi	-8.20668
▁ällä	-8.20668
▁000	-8.20872
▁enne	-8.21527
▁loppu	-8.21722
▁euro	-8.21931
▁per	-8.22259
▁etaan	-8.22335
▁nuor	-8.22413
▁uuden	-8.22459
▁hyök	-8.22838
▁oja	-8.23129
▁neuvo	-8.2343
▁ilma	-8.23508
▁sija	-8.23539
▁eikä	-8.23722
▁iikko	-8.24108
▁/	-8.24241
▁ikä	-8.24399
▁elle	-8.24734
▁ttä	-8.24779
▁päät	-8.2514
▁etke	-8.2527
▁pol	-8.25405
▁vara	-8.25464
▁tavat	-8.25519
▁nno	-8.25526
▁tuot	-8.25557
▁neljä	-8.25665
▁koke	-8.26367
▁minen	-8.26473
▁ussa	-8.26699
▁tämä	-8.26783
▁empi	-8.26908
▁perhe	-8.26958
▁ehdo	-8.27087
▁emmin	-8.27223
▁En	-8.27349
▁peli	-8.27462
▁voima	-8.27476
▁keh	-8.27532
▁le	-8.27652
▁av	-8.27694
▁tti	-8.27702
▁odot	-8.27944
▁ntaj	-8.28103
▁aste	-8.28172
▁elä	-8.28462
▁iihen	-8.28501
▁näh	-8.28622
▁puhu	-8.28648
▁ari	-8.28722
▁ohj	-8.28848
▁iitt	-8.28881
▁ohje	-8.28936
▁kään	-8.29094
▁tui	-8.29115
▁yhde	-8.29122
istu	-8.29239
▁Kun	-8.29243
▁hy	-8.29253
▁usko	-8.29266
f	-8.29327
▁nti	-8.29623
▁ivat	-8.29648
▁uomio	-8.30312
▁ee	-8.30614
▁kov	-8.30696
är	-8.31059
▁Ny	-8.31327
▁isi	-8.31361
▁eks	-8.31477
▁tämän	-8.31938
▁yt	-8.32024
▁ääne	-8.32051
▁uksia	-8.32129
▁uun	-8.32312
▁lisä	-8.32573
▁tuu	-8.32644
▁kolme	-8.32974
▁iesti	-8.33109
▁ästi	-8.33688
iemm	-8.33794
▁uuti	-8.33958
▁saat	-8.341
▁isää	-8.34369
▁kaan	-8.34941
▁aloi	-8.35284
▁täj	-8.35343
▁taso	-8.35478
▁pung	-8.35738
▁tunne	-8.35995
▁eja	-8.36112
ö	-8.36231
▁sisä	-8.36456
▁stö	-8.36522
▁uolue	-8.36838
▁etään	-8.37369
▁uotsi	-8.374
▁tulo	-8.37492
▁mä	-8.37629
▁sarja	-8.37666
▁raj	-8.37678
▁Myö	-8.37807
▁halu	-8.38106
iedo	-8.38199
▁erja	-8.38277
▁aine	-8.38369
ime	-8.38515
▁ttaa	-8.38536
▁anta	-8.38652
▁tor	-8.38733
▁ori	-8.38786
▁vira	-8.38881
▁almis	-8.39186
▁tum	-8.39307
▁ru	-8.39441
▁ij	-8.39776
▁mini	-8.39881
▁ist	-8.40455
ähkö	-8.40503
▁jä	-8.40571
▁op	-8.40664
▁muu	-8.40794
▁ry	-8.4107
arjo	-8.41098
▁huom	-8.41326
▁er	-8.41346
▁isiin	-8.41357
▁kyse	-8.41442
▁Stubb	-8.41527
▁ajo	-8.41705
▁staan	-8.41763
▁kaa	-8.41868
▁teke	-8.41953
▁nope	-8.41981
▁antaa	-8.4204
▁myy	-8.42056
▁näkö	-8.42085
yy	-8.42372
▁mite	-8.42723
▁estä	-8.4321
▁ala	-8.43669
▁eski	-8.43856
▁itään	-8.43859
▁ettu	-8.43966
▁hyvä	-8.43969
▁elok	-8.43984
▁ajat	-8.43993
▁media	-8.44057
ysty	-8.44163
▁koht	-8.44172
▁Kuva	-8.44326
▁amis	-8.44346
▁yys	-8.44468
▁amma	-8.44584
▁aja	-8.44597
▁ttam	-8.44944
▁tane	-8.45055
ivu	-8.45268
▁ehti	-8.45574
▁ymp	-8.45711
ko	-8.45953
▁entoi	-8.46145
▁puol	-8.46207
▁Oulu	-8.46231
▁alku	-8.46356
▁eseen	-8.4639
atso	-8.46407
▁Ch	-8.46459
▁neen	-8.4649
▁astus	-8.46522
▁Suomi	-8.46536
▁tunti	-8.46544
▁lain	-8.46627
▁eläm	-8.46629
▁aatio	-8.46634
▁ohta	-8.46842
▁ulje	-8.46943
▁vaal	-8.47032
htiö	-8.47571
▁kisa	-8.47599
▁ero	-8.4774
▁uro	-8.47778
ällä	-8.47862
▁kirja	-8.47865
▁eillä	-8.47907
▁to	-8.4813
▁isä	-8.4818
▁ing	-8.48587
▁aiko	-8.4868
telm	-8.48895
▁ilij	-8.49472
ikä	-8.49643
▁otte	-8.4967
▁vaan	-8.50162
▁Salo	-8.5017
▁iivi	-8.50661
▁etta	-8.50891
▁MM	-8.50924
▁tty	-8.51014
▁ata	-8.51297
▁tään	-8.51431
ri	-8.51532
iide	-8.51549
▁val	-8.51684
▁uosi	-8.51722
▁essä	-8.51809
▁tunut	-8.51823
▁ura	-8.51894
aude	-8.51922
▁arjo	-8.52072
▁iera	-8.52197
▁asian	-8.522
▁maali	-8.52285
▁video	-8.52694
▁utu	-8.5273
▁juo	-8.52763
▁elk	-8.52924
gel	-8.5317
▁ertaa	-8.53351
rael	-8.53424
▁inna	-8.53743
▁nkaan	-8.53759
▁kasv	-8.54016
▁oin	-8.54115
b	-8.54134
▁lloi	-8.54275
▁aana	-8.54285
▁aiva	-8.54316
▁ju	-8.54761
▁ahvi	-8.55149
▁mään	-8.55203
yky	-8.55248
▁näky	-8.55254
▁teki	-8.55483
▁erran	-8.55502
▁avu	-8.55548
▁osoi	-8.55595
▁ratk	-8.55647
▁Ei	-8.55721
▁nimi	-8.55727
▁päiv	-8.55828
▁uoksi	-8.55884
▁kolm	-8.55965
▁Sano	-8.56199
▁ryhmä	-8.56297
▁sell	-8.56368
in	-8.56407
ello	-8.56646
▁pohj	-8.56723
ähd	-8.56885
▁kuit	-8.56903
▁teen	-8.57034
▁taisi	-8.57236
▁iinni	-8.57239
▁re	-8.57311
▁ttöm	-8.57337
▁pien	-8.57556
▁nttia	-8.57607
▁tse	-8.57682
▁kö	-8.57734
▁tie	-8.57778
▁ngin	-8.57893
▁erkit	-8.5802
▁kilo	-8.5821
öyty	-8.58331
▁saada	-8.58453
▁ukana	-8.58489
▁palk	-8.58503
▁atta	-8.58563
▁ymme	-8.58648
mäis	-8.58655
▁Pohj	-8.58805
▁ärje	-8.58886
▁tehdä	-8.58923
▁suht	-8.59079
▁uute	-8.59093
▁ästä	-8.59537
▁art	-8.5962
▁osu	-8.59647
▁onne	-8.59718
▁oimi	-8.5974
▁oinen	-8.5974
▁jop	-8.59853
▁riit	-8.59886
▁alka	-8.59888
▁uode	-8.6
▁enää	-8.60086
▁erä	-8.60091
▁aam	-8.60431
▁osal	-8.60526
▁puoli	-8.60598
.	-8.60634
▁ut	-8.60684
▁yht	-8.6086
▁unni	-8.60922
▁yhd	-8.61003
ttav	-8.61341
▁illo	-8.61865
ikko	-8.61885
uan	-8.62026
iheu	-8.62071
▁tee	-8.6215
▁väit	-8.62371
er	-8.62539
▁aisi	-8.62587
▁vie	-8.62608
▁vanh	-8.62818
▁eissa	-8.62827
▁kiso	-8.63309
▁kohta	-8.63407
▁nan	-8.6342
▁nte	-8.6359
▁pitä	-8.63958
▁läht	-8.64158
▁ian	-8.64271
▁leik	-8.64978
▁ter	-8.6507
▁osi	-8.65218
▁telee	-8.65298
▁yle	-8.65341
inis	-8.65344
▁omis	-8.65564
alai	-8.65565
▁c	-8.65672
▁synty	-8.65768
▁kseen	-8.65799
▁mäis	-8.65864
▁leet	-8.66283
▁pal	-8.66425
▁akko	-8.66681
▁aamu	-8.6672
▁anni	-8.66729
▁vaara	-8.66741
▁juur	-8.66744
et	-8.6699
▁anska	-8.66999
▁suora	-8.67063
▁yde	-8.67237
▁va	-8.67268
▁aikaa	-8.67428
▁otta	-8.6747
▁ulki	-8.67471
▁koh	-8.67527
ykse	-8.67628
▁uoma	-8.67644
▁kor	-8.68126
▁!	-8.68304
▁uhka	-8.68415
tees	-8.68515
▁ic	-8.68744
▁kent	-8.68768
▁ojen	-8.68779
▁asio	-8.68783
▁ssaan	-8.69137
▁ope	-8.69231
▁alo	-8.6924
▁ik	-8.69336
▁ejä	-8.69598
▁jatku	-8.69655
▁ntää	-8.69769
▁luv	-8.69784
▁merk	-8.69927
▁iellä	-8.70047
▁teli	-8.7039
▁ena	-8.70687
▁laaj	-8.70829
▁ehtä	-8.70899
▁uraa	-8.70938
▁Sen	-8.71062
▁äis	-8.71089
▁jäi	-8.71123
ta	-8.71186
kä	-8.7128
irjo	-8.71327
▁tely	-8.71678
▁siir	-8.71704
▁enti	-8.71899
▁olo	-8.72086
▁ttee	-8.72122
tty	-8.72211
▁omi	-8.72266
▁tasa	-8.72294
▁inä	-8.72587
▁työn	-8.72593
▁unnu	-8.72639
▁mpi	-8.72655
▁aita	-8.73131
▁iedot	-8.73302
▁ov	-8.73308
▁tarv	-8.7333
▁ttom	-8.73336
äine	-8.73521
▁ensa	-8.73532
▁ttäin	-8.73593
aino	-8.73684
▁liit	-8.73726
▁muis	-8.73767
▁kone	-8.73849
▁äällä	-8.73863
▁elvi	-8.73901
▁iseen	-8.73951
▁kuu	-8.73969
▁uste	-8.7408
▁nni	-8.74121
▁yyd	-8.74609
▁nnan	-8.74654
▁sää	-8.74979
▁emaan	-8.75072
ääk	-8.75093
st	-8.75177
▁dään	-8.75283
tä	-8.75585
▁iekk	-8.75626
▁jät	-8.75671
▁kois	-8.75755
joit	-8.75887
▁mus	-8.75927
▁vähän	-8.76051
ahde	-8.76075
▁EU	-8.76178
▁siin	-8.76302
▁g	-8.76379
▁tässä	-8.76406
▁uori	-8.76605
▁elli	-8.76723
▁eille	-8.77026
▁ntaa	-8.7714
▁up	-8.77297
▁imm	-8.77426
▁oima	-8.7755
▁vä	-8.77577
▁anto	-8.77963
▁ensä	-8.77999
▁kuul	-8.78092
▁rauha	-8.78103
▁oki	-8.78113
▁rist	-8.78288
▁kohd	-8.78294
▁mise	-8.78324
▁iltä	-8.78341
▁lask	-8.78375
▁täne	-8.78603
▁de	-8.78734
▁Kal	-8.78759
▁toivo	-8.78807
▁iitto	-8.79037
▁On	-8.79157
▁naan	-8.79404
▁sosi	-8.79491
▁lapsi	-8.79552
▁oitto	-8.79617
▁autta	-8.79752
▁ntä	-8.79893
▁iito	-8.80212
▁amaan	-8.80414
▁alja	-8.80429
▁emm	-8.80552
▁nous	-8.80602
▁tajan	-8.80628
▁ky	-8.80775
uks	-8.80834
▁ika	-8.80845
▁dessa	-8.80853
▁tak	-8.80942
▁kamp	-8.81041
▁kysy	-8.81056
▁uuka	-8.81306
▁sä	-8.81449
▁Näi	-8.81598
▁lähti	-8.81872
▁isku	-8.81898
▁apu	-8.82035
▁es	-8.82437
▁tosi	-8.82718
▁telu	-8.82865
▁oiva	-8.82873
▁Häne	-8.83114
▁ikos	-8.83155
▁laan	-8.83493
uden	-8.83521
▁alkoi	-8.83711
▁Ole	-8.83781
▁tettu	-8.83888
▁ampu	-8.83901
▁tied	-8.83925
▁ehde	-8.83971
▁Mar	-8.84195
▁läh	-8.84237
▁iele	-8.8424
▁ravi	-8.84256
▁olen	-8.8426
▁Val	-8.84277
▁nii	-8.84482
▁Yle	-8.84565
ymy	-8.85214
▁isin	-8.85248
uude	-8.85305
▁tähti	-8.85421
▁uutt	-8.85515
▁van	-8.85579
▁ilman	-8.85801
▁jout	-8.85843
▁etri	-8.8585
▁isti	-8.8601
▁Ja	-8.86042
▁lehd	-8.86147
▁hoito	-8.86285
▁tain	-8.86308
▁rin	-8.86358
aine	-8.86485
▁änsä	-8.86508
▁meri	-8.86552
▁rask	-8.86613
▁tune	-8.86665
▁lento	-8.8678
▁nnus	-8.8696
▁eita	-8.86984
▁raha	-8.87028
▁punki	-8.8716
▁aikea	-8.87313
▁pela	-8.87325
▁ote	-8.87411
▁kiel	-8.8769
tiik	-8.87785
▁ukset	-8.87893
▁tävät	-8.8791
▁maksa	-8.87956
naal	-8.8808
▁iir	-8.881
tel	-8.88207
▁raala	-8.8826
▁einä	-8.88529
▁takia	-8.8854
▁nnö	-8.88577
▁ri	-8.88623
▁ttel	-8.88631
▁syö	-8.88809
▁sin	-8.88819
▁sota	-8.89024
ttom	-8.89331
▁äri	-8.89502
▁vero	-8.89615
▁sson	-8.8968
▁maal	-8.89808
▁mai	-8.89882
▁llaan	-8.89898
▁ön	-8.90091
▁nna	-8.90124
▁sarj	-8.90145
▁seen	-8.9035
▁teko	-8.9038
erve	-8.90488
▁saap	-8.90533
▁han	-8.9069
otil	-8.90946
▁tys	-8.91035
▁etu	-8.91066
▁una	-8.91159
▁änä	-8.91191
▁Z	-8.91251
▁aisia	-8.91254
▁yvä	-8.91387
▁teriö	-8.91611
▁enna	-8.91755
▁aihe	-8.91763
▁ruoka	-8.91843
▁ittaa	-8.91849
▁liiga	-8.92033
anna	-8.92107
▁ätä	-8.92119
ysy	-8.92155
▁ymmä	-8.92383
▁palo	-8.92421
▁töks	-8.92677
▁Sam	-8.92723
▁kaup	-8.92726
▁oissa	-8.9277
▁oitti	-8.92859
▁vall	-8.92889
▁pallo	-8.93131
▁eg	-8.93242
▁akt	-8.93247
▁ng	-8.93406
▁ussi	-8.93414
▁täll	-8.93509
inka	-8.93542
▁väki	-8.93582
▁niem	-8.93587
▁kes	-8.93608
▁aista	-8.93633
▁man	-8.93957
▁ahde	-8.94014
▁uu	-8.94028
ärke	-8.94092
tuks	-8.94278
▁enä	-8.94388
▁laps	-8.94436
▁tele	-8.94445
▁häi	-8.94564
▁vaali	-8.94657
▁ston	-8.94712
▁ort	-8.94716
▁hyv	-8.94848
▁hake	-8.94853
▁avat	-8.9519
▁oona	-8.95255
▁alu	-8.95574
lymp	-8.95666
▁oita	-8.9587
HL	-8.9589
▁laki	-8.96045
▁ieltä	-8.96072
00	-8.96159
▁eä	-8.96167
▁Biden	-8.96175
▁auta	-8.96185
▁tomu	-8.96207
▁meni	-8.96284
uksi	-8.96354
aikk	-8.9642
▁mieli	-8.9657
▁daan	-8.96684
▁ieman	-8.9696
▁oonaa	-8.96986
▁malli	-8.97063
▁ed	-8.97426
▁sivat	-8.97473
▁atku	-8.97532
▁iili	-8.97599
▁kuulu	-8.97638
▁attu	-8.97675
▁sal	-8.98022
▁Saksa	-8.98038
▁lai	-8.98209
▁siis	-8.98235
ew	-8.98327
▁lma	-8.98345
▁yytä	-8.98413
▁pyör	-8.98574
▁näin	-8.98577
▁huol	-8.98751
▁jäsen	-8.98785
nväl	-8.98898
sime	-8.9894
▁halua	-8.99105
▁anen	-8.99246
▁uor	-8.99323
▁huono	-8.99337
▁nnä	-8.99363
▁ani	-8.99374
▁nos	-8.99473
eski	-8.99573
▁taas	-8.99579
▁aut	-8.99631
▁jakso	-8.99657
▁järv	-8.99741
▁äätös	-8.99766
▁aati	-8.99829
▁aatu	-8.99844
▁unta	-8.99912
▁kuoli	-8.99942
▁tah	-8.9998
▁ttäj	-9.00092
▁iehen	-9.00348
▁otti	-9.00424
utu	-9.00462
▁ellä	-9.005
▁tivat	-9.00662
▁äysin	-9.00666
▁Al	-9.00748
▁ker	-9.00748
▁oista	-9.00811
▁alli	-9.00931
▁uot	-9.01067
▁juhl	-9.01145
▁help	-9.01249
▁atti	-9.01258
▁yty	-9.01469
▁yhä	-9.01582
avai	-9.01597
▁IS	-9.01632
▁koro	-9.01641
▁leen	-9.01797
rpo	-9.01905
▁aal	-9.01965
▁Nii	-9.02102
▁ete	-9.02109
▁uippu	-9.02202
autu	-9.02285
yllä	-9.0235
▁agram	-9.02382
▁inta	-9.02496
▁kier	-9.02501
▁elämä	-9.02526
▁arki	-9.02626
▁onni	-9.02645
▁ttelu	-9.0285
tta	-9.02918
▁ang	-9.02975
▁iikk	-9.03116
▁ur	-9.0312
▁heti	-9.03149
▁yvin	-9.03179
▁äit	-9.033
▁X	-9.03384
▁niitä	-9.03448
vel	-9.03573
▁arja	-9.03593
▁nnyt	-9.03661
▁kutsu	-9.03707
▁pid	-9.03721
▁np	-9.03759
▁ander	-9.03934
▁kul	-9.04074
▁asema	-9.04076
▁vesi	-9.04125
▁toim	-9.04155
▁In	-9.04202
▁näke	-9.04255
issä	-9.04263
▁tsee	-9.04375
▁ake	-9.04623
▁anki	-9.0463
▁vapaa	-9.04761
▁oikk	-9.04808
▁kävi	-9.04907
evää	-9.04973
▁äräj	-9.05006
▁appa	-9.05098
▁eista	-9.05174
▁onta	-9.05275
▁uvai	-9.05293
▁änään	-9.05324
▁iikon	-9.05384
▁ast	-9.05421
▁dä	-9.05435
▁pääse	-9.05523
▁Tuo	-9.05617
▁joita	-9.05643
▁ointi	-9.05728
▁da	-9.05745
▁iini	-9.05804
▁häntä	-9.05816
▁älle	-9.05901
▁auton	-9.06006
▁herä	-9.06012
▁vah	-9.06083
▁tais	-9.062
▁ard	-9.06212
▁illi	-9.06439
▁ara	-9.06711
▁und	-9.0672
▁alkaa	-9.06836
▁orva	-9.06886
änä	-9.06961
▁massa	-9.06981
▁allo	-9.07034
▁seks	-9.07174
unni	-9.0723
▁ilme	-9.07296
ilpa	-9.07421
▁peri	-9.07533
▁ulok	-9.07664
▁pääs	-9.07764
akav	-9.07847
▁luku	-9.0795
▁piti	-9.08034
▁Ä	-9.08191
▁ulis	-9.08213
▁tkaa	-9.08253
▁mitt	-9.08267
▁Yks	-9.08282
▁uoj	-9.0844
ää	-9.08496
▁pääsi	-9.08711
▁yttä	-9.08752
▁eihin	-9.0888
per	-9.09152
▁muka	-9.09271
▁mmin	-9.0928
▁elin	-9.0947
▁alis	-9.09478
▁ano	-9.09519
▁venä	-9.09557
▁lan	-9.09627
▁lään	-9.09691
▁orke	-9.09785
äil	-9.0993
ikke	-9.10233
▁utki	-9.10295
▁hinta	-9.10311
▁taka	-9.10402
▁tulla	-9.10434
▁ide	-9.10592
▁tun	-9.10715
▁pala	-9.10788
▁joulu	-9.10824
▁ääri	-9.1101
▁rveys	-9.11039
▁ukka	-9.11061
▁iiga	-9.11203
▁nousi	-9.11266
▁äästä	-9.11288
▁ttuna	-9.1141
▁läpi	-9.11439
▁luke	-9.11497
▁auri	-9.11501
▁lö	-9.11548
▁nnas	-9.11649
▁jalka	-9.11701
▁pieni	-9.11781
▁olm	-9.11838
▁tuksi	-9.11861
aar	-9.11898
▁tuma	-9.11926
▁+	-9.11945
▁son	-9.11954
▁laji	-9.12205
ku	-9.12215
▁inte	-9.12319
▁os	-9.12506
▁yn	-9.12643
▁jouk	-9.12686
▁väl	-9.12734
▁yhden	-9.12764
▁imma	-9.13129
▁astuu	-9.13135
▁tek	-9.13166
kin	-9.13271
▁lupa	-9.1339
▁ua	-9.13638
▁iuk	-9.13713
▁tuki	-9.13833
▁uk	-9.13984
▁annut	-9.14204
▁syksy	-9.14252
▁olme	-9.14408
▁20	-9.14497
▁öy	-9.14531
ävi	-9.14656
▁tio	-9.14856
▁ksen	-9.14899
suud	-9.14981
▁pide	-9.15081
unto	-9.15158
▁uha	-9.15193
kku	-9.15345
▁ennä	-9.15404
ien	-9.15724
▁anssi	-9.15752
▁kai	-9.15851
▁riko	-9.15874
▁silm	-9.16166
▁ime	-9.16188
▁inno	-9.16228
▁aton	-9.16239
ide	-9.16305
▁ente	-9.16444
▁apa	-9.16506
▁ami	-9.16542
sk	-9.16595
▁ilo	-9.1666
▁äte	-9.167
▁urk	-9.16866
▁nneet	-9.16902
▁llään	-9.16979
elä	-9.17006
▁jala	-9.17067
▁asva	-9.17217
▁mur	-9.17269
▁atso	-9.17309
▁uisto	-9.17577
▁nny	-9.17603
▁auppa	-9.17646
▁aar	-9.17762
▁eistä	-9.17767
▁aist	-9.17769
▁soit	-9.1788
▁He	-9.18048
▁kulut	-9.1812
▁aid	-9.18153
edus	-9.18373
▁änsi	-9.1845
▁tseva	-9.18486
▁valt	-9.1852
▁väks	-9.18593
ind	-9.18606
▁kko	-9.18632
▁ttain	-9.18667
▁tili	-9.18676
▁korj	-9.18772
▁tätä	-9.18784
▁vei	-9.18844
▁viis	-9.18861
▁iina	-9.18901
▁viit	-9.19029
▁irv	-9.19108
ämpö	-9.19183
▁otea	-9.19383
▁itti	-9.19385
▁uunta	-9.19413
▁aivo	-9.19417
▁ottaa	-9.1947
▁kat	-9.19504
▁sama	-9.19531
ude	-9.19647
▁voim	-9.1966
▁uoll	-9.19752
▁io	-9.19897
ysä	-9.19915
▁ulos	-9.1993
▁gia	-9.19963
▁Ete	-9.20018
▁anke	-9.20025
▁uhri	-9.20242
▁oilla	-9.20303
▁anj	-9.20313
▁tsi	-9.20337
▁löyt	-9.20365
oid	-9.20434
▁määr	-9.2047
▁umma	-9.20587
▁heit	-9.20612
▁aset	-9.20625
▁elmi	-9.2065
▁aahan	-9.2068
▁hänet	-9.20768
▁uonn	-9.20817
▁eitä	-9.20823
▁Mie	-9.20877
▁ev	-9.20963
▁poika	-9.21023
▁ansi	-9.21095
▁aari	-9.21152
▁ältä	-9.21317
▁du	-9.21334
▁olog	-9.21408
inno	-9.21414
▁ohdi	-9.21478
eng	-9.21547
▁aisin	-9.21639
▁hoit	-9.21703
▁murha	-9.21728
▁lau	-9.21745
iih	-9.21811
▁Antt	-9.21962
▁kon	-9.21985
▁ttaja	-9.21987
elij	-9.22044
▁Vil	-9.22096
▁lope	-9.22317
▁elen	-9.22343
▁vier	-9.22385
▁sodan	-9.22518
▁eijo	-9.22549
▁'	-9.22589
▁berg	-9.22591
▁oman	-9.22646
▁ohi	-9.22656
▁Rova	-9.22767
▁sky	-9.22778
▁atu	-9.22779
▁metsä	-9.22946
koks	-9.22992
▁uurin	-9.23091
▁otain	-9.23101
▁oukko	-9.23126
▁rad	-9.23129
▁tehty	-9.23337
▁iih	-9.23343
▁lin	-9.23369
▁ouko	-9.23422
lä	-9.23497
▁Yl	-9.23536
▁hank	-9.2367
▁varm	-9.23687
▁ijaan	-9.23769
▁Kor	-9.23819
▁autu	-9.23835
▁kka	-9.23836
▁lad	-9.24068
▁äivän	-9.24088
▁liia	-9.24092
ja	-9.24289
▁eteen	-9.24326
semm	-9.24421
▁tori	-9.24465
▁liike	-9.24516
▁ude	-9.24527
▁inko	-9.2467
▁Min	-9.24715
oi	-9.24755
alli	-9.24939
▁etsi	-9.24954
▁muita	-9.24978
▁yky	-9.25065
▁eikk	-9.25101
▁koho	-9.25103
▁erkko	-9.25244
▁uok	-9.25287
ääll	-9.25463
▁äys	-9.25491
▁dy	-9.25522
▁ahti	-9.25683
▁viet	-9.25755
▁vir	-9.25786
▁altu	-9.25805
▁levi	-9.25812
▁uoto	-9.25942
▁aki	-9.26049
▁hyö	-9.26295
▁ääni	-9.26369
▁lä	-9.26373
▁aise	-9.26373
▁kuv	-9.26464
▁jäll	-9.26475
▁aka	-9.26525
▁hin	-9.26577
▁usei	-9.26634
▁elko	-9.26683
▁ainoa	-9.26743
▁ell	-9.26901
▁täyt	-9.27019
▁ivät	-9.27089
▁lähtö	-9.27124
antu	-9.27185
▁ama	-9.27186
▁mink	-9.27266
▁lah	-9.2728
▁heik	-9.27339
▁sten	-9.27372
▁arra	-9.27472
nnö	-9.27532
▁ihme	-9.27544
▁nost	-9.27568
tu	-9.27784
▁oitt	-9.2797
▁nssi	-9.28003
▁allan	-9.28076
orm	-9.28127
▁kylä	-9.2818
siik	-9.28339
▁tuh	-9.28346
▁idät	-9.28443
▁utin	-9.28478
▁mäki	-9.28484
▁teho	-9.2855
▁sina	-9.2866
▁ovi	-9.28768
▁ajoi	-9.28785
▁mmä	-9.28822
▁maksu	-9.28912
▁tähän	-9.28991
▁kärs	-9.29126
äyty	-9.29132
▁eisö	-9.29177
▁äyttö	-9.29241
▁arris	-9.29301
▁asi	-9.29419
ekij	-9.29429
▁piir	-9.29858
▁rooli	-9.29869
▁aha	-9.29923
▁äy	-9.29943
▁Kiina	-9.29975
ymme	-9.29982
▁julki	-9.30224
▁aju	-9.30228
▁etriä	-9.30239
▁ver	-9.30278
▁osk	-9.30317
▁ain	-9.30376
▁aira	-9.30499
ning	-9.30576
ore	-9.30677
▁em	-9.30686
▁suku	-9.30725
▁loka	-9.30772
aust	-9.30813
▁yr	-9.30845
▁myötä	-9.30871
▁est	-9.30946
▁paras	-9.31006
▁emme	-9.31038
▁raat	-9.31077
▁onald	-9.31097
▁yse	-9.31136
▁ton	-9.31175
uist	-9.3127
▁ilun	-9.31468
▁mill	-9.31489
▁Lu	-9.31496
▁rof	-9.31757
▁lauk	-9.31891
▁usi	-9.31968
▁urr	-9.32035
▁ilija	-9.32073
▁eet	-9.32075
▁demo	-9.32103
▁tekee	-9.32113
▁The	-9.32267
hr	-9.32375
▁oski	-9.32425
▁alous	-9.32451
▁tto	-9.32522
▁sty	-9.32557
▁ord	-9.32599
▁main	-9.32627
▁arl	-9.32651
▁ste	-9.32693
▁linja	-9.32729
▁appio	-9.32864
täis	-9.32993
▁ar	-9.33061
▁ola	-9.33115
▁Var	-9.33133
▁tivät	-9.33144
▁Nato	-9.33155
▁kuol	-9.33189
▁ras	-9.33229
▁ankki	-9.33254
tuur	-9.33274
▁aistu	-9.33333
▁aluaa	-9.33409
▁vai	-9.33457
▁koulu	-9.33559
▁edel	-9.33561
▁rttu	-9.33619
stor	-9.33627
▁oihin	-9.33659
▁eissä	-9.33705
arpe	-9.338
▁imo	-9.33826
▁hilj	-9.33965
▁keino	-9.34003
▁irt	-9.3401
han	-9.34012
▁lyt	-9.34075
kel	-9.34103
▁vahv	-9.34261
▁vel	-9.34308
▁oitus	-9.34325
▁uuluu	-9.34398
▁tuom	-9.34433
▁änne	-9.3446
▁udo	-9.34476
rsin	-9.34839
▁aulu	-9.34866
▁äälle	-9.34868
usta	-9.34931
▁vähe	-9.34947
▁uud	-9.35078
▁usu	-9.35118
g	-9.35424
▁ntola	-9.35466
ter	-9.35466
▁harv	-9.35491
▁väh	-9.35498
oteu	-9.35548
▁Norja	-9.35563
▁aani	-9.35617
▁tua	-9.35682
▁kaap	-9.35699
▁uksen	-9.35715
▁riski	-9.35756
▁aku	-9.35758
oska	-9.35765
▁tuke	-9.35887
▁oll	-9.35905
▁10	-9.36136
aajo	-9.3615
▁kaik	-9.36195
yrki	-9.36196
▁uhd	-9.36219
▁ennus	-9.36261
▁läis	-9.3627
hden	-9.36372
▁suosi	-9.36384
▁yyttä	-9.36412
▁ammi	-9.36567
▁elta	-9.36586
▁EM	-9.3681
▁auk	-9.36855
▁ac	-9.36938
▁erta	-9.37057
▁ikään	-9.37323
▁päin	-9.37396
▁hel	-9.37523
▁valo	-9.37555
▁henki	-9.3757
lex	-9.37725
▁vaimo	-9.37903
enne	-9.3792
▁eng	-9.38031
▁omm	-9.38304
▁enno	-9.38309
▁oulut	-9.38346
▁tetty	-9.38465
▁uhti	-9.38612
udu	-9.38694
▁uiden	-9.38913
▁kerta	-9.38918
▁koto	-9.39117
kkö	-9.39223
▁stu	-9.39241
▁lehti	-9.39253
▁onen	-9.39274
▁laul	-9.39296
▁tyi	-9.39511
▁ova	-9.39518
▁kats	-9.39535
▁tulos	-9.39557
▁oir	-9.39616
▁äli	-9.39621
▁nsi	-9.39664
▁ajaa	-9.39699
▁äksi	-9.39728
▁Kar	-9.39766
▁anut	-9.3986
▁Til	-9.3986
ippu	-9.40097
▁adu	-9.40181
▁tästä	-9.40368
▁empaa	-9.40378
ser	-9.40433
▁kasvu	-9.40484
▁iki	-9.40528
▁lik	-9.40555
▁kausi	-9.40636
▁udu	-9.40767
lev	-9.40792
▁Pekka	-9.40831
▁utk	-9.41027
▁tävä	-9.41292
▁vede	-9.41305
▁työtä	-9.41322
▁lasku	-9.41421
▁vän	-9.41423
▁ohu	-9.41514
▁joll	-9.41567
▁osto	-9.41601
▁hien	-9.41608
▁ida	-9.41867
▁ntam	-9.41878
▁ingo	-9.41893
▁kir	-9.41896
▁uut	-9.41933
▁tuho	-9.42041
▁runs	-9.42214
▁alko	-9.42365
▁ilmi	-9.42468
▁ove	-9.42471
▁and	-9.42477
▁ylä	-9.42784
▁Ru	-9.42825
▁kee	-9.42851
▁paine	-9.42861
▁rom	-9.42865
▁aav	-9.42957
▁masti	-9.4304
▁ttava	-9.43205
oj	-9.43207
▁otesi	-9.43227
▁uuli	-9.43257
▁nko	-9.43284
▁akse	-9.43381
▁avio	-9.43384
▁uaal	-9.43386
▁para	-9.43426
▁hj	-9.43439
▁SM	-9.43441
▁tävän	-9.43569
hkä	-9.43644
▁Halli	-9.43734
oukk	-9.43793
▁kulu	-9.43811
▁meno	-9.43914
▁Har	-9.43915
▁vanha	-9.44073
▁ly	-9.4416
▁suu	-9.44188
▁orm	-9.44234
▁ehdot	-9.44319
▁ikko	-9.44357
▁aza	-9.44413
▁aak	-9.44482
▁illis	-9.44543
▁naur	-9.44587
▁tut	-9.44652
▁arla	-9.4484
▁mere	-9.45008
▁isen	-9.45105
lier	-9.45111
▁sku	-9.45288
auh	-9.45496
▁otsa	-9.45534
▁tusta	-9.4568
▁äiv	-9.45683
▁huum	-9.45697
▁oppi	-9.45705
eide	-9.45766
alvo	-9.45877
▁ietti	-9.45881
yyp	-9.45904
▁virhe	-9.45988
uomi	-9.46041
▁uutos	-9.46123
▁iikka	-9.462
▁järk	-9.46252
▁avoi	-9.46257
▁opis	-9.46268
▁kork	-9.46318
▁juhla	-9.46341
▁asiaa	-9.4636
▁irj	-9.46366
▁ant	-9.46408
▁täys	-9.46426
▁iet	-9.46429
äytö	-9.46444
▁öi	-9.46553
▁pääty	-9.46715
▁mui	-9.46735
▁öl	-9.4675
▁imme	-9.46786
▁alus	-9.46875
▁dio	-9.46921
▁oide	-9.46965
▁kas	-9.47146
▁rit	-9.47167
▁30	-9.4717
ut	-9.47203
▁irta	-9.47208
▁poh	-9.47231
▁ksu	-9.47297
▁Eur	-9.47323
▁äv	-9.47455
▁Kansa	-9.47494
▁uoro	-9.47547
▁ho	-9.47568
tell	-9.4759
hemm	-9.47599
lopp	-9.47605
▁pro	-9.47637
▁urna	-9.47645
aav	-9.47701
▁isia	-9.47722
▁olle	-9.47757
▁eor	-9.4786
▁iitä	-9.48088
▁ress	-9.4812
▁yksiä	-9.48127
▁siv	-9.48165
▁adio	-9.48193
▁kok	-9.48243
▁paho	-9.48261
▁löy	-9.4832
▁nnis	-9.48378
▁esken	-9.48415
umpp	-9.48478
▁kää	-9.48579
▁do	-9.48585
▁veto	-9.48606
▁tunnu	-9.48848
▁koira	-9.48908
▁ssään	-9.48923
▁ikkö	-9.4904
▁ota	-9.49262
▁kkin	-9.49284
aati	-9.49314
apau	-9.49352
▁Tap	-9.49375
▁iik	-9.49412
▁tavan	-9.49425
▁virk	-9.49453
▁iset	-9.49594
▁törk	-9.4964
▁oo	-9.49677
arsi	-9.49692
▁torj	-9.49718
▁inne	-9.49824
▁tait	-9.49837
▁sul	-9.4984
▁mita	-9.49864
▁ich	-9.49867
▁muuta	-9.49928
▁lor	-9.49962
▁teo	-9.49979
▁evy	-9.50016
▁akas	-9.50091
▁inti	-9.50096
▁uist	-9.50193
▁uto	-9.50236
▁utta	-9.50238
▁otiin	-9.50339
▁ovin	-9.5044
▁end	-9.50461
▁ark	-9.50557
▁akana	-9.50617
▁loma	-9.50718
▁aiken	-9.50735
▁ap	-9.50743
▁iiv	-9.50767
▁eessa	-9.50829
pit	-9.50892
▁ekijä	-9.50928
▁eva	-9.50956
▁mennä	-9.50995
avut	-9.50996
▁oille	-9.51044
▁eal	-9.51133
laut	-9.51211
▁täyd	-9.51575
rit	-9.51614
▁oitu	-9.51621
evo	-9.51697
▁uper	-9.51742
▁uum	-9.51744
yö	-9.5183
▁ruu	-9.51908
▁uku	-9.5191
▁ail	-9.51948
▁uuks	-9.51963
▁ile	-9.52104
▁tyy	-9.52108
▁entu	-9.52263
▁rssi	-9.52268
▁omaa	-9.52429
est	-9.52451
▁ener	-9.52461
▁asem	-9.52505
▁anno	-9.52573
▁ehto	-9.52607
▁je	-9.52673
▁luki	-9.52757
her	-9.52782
▁silti	-9.52876
▁otil	-9.52914
▁suoj	-9.52919
▁okse	-9.53012
▁stään	-9.53168
▁anti	-9.5321
erra	-9.53216
▁alas	-9.53252
▁hti	-9.53344
▁Asi	-9.53356
ar	-9.53824
▁sana	-9.53865
▁osta	-9.53976
▁oehto	-9.54039
▁sk	-9.54107
▁myr	-9.54148
▁ksia	-9.54215
▁arka	-9.54252
▁ksiä	-9.54281
▁ele	-9.54358
yysk	-9.54361
▁iisu	-9.54383
mper	-9.54398
▁of	-9.54585
▁ado	-9.54638
▁miksi	-9.54701
▁rmä	-9.54756
▁ietoa	-9.54767
▁kap	-9.54779
▁änen	-9.54822
liok	-9.54861
▁yör	-9.54932
▁eera	-9.54941
▁töön	-9.55035
ilo	-9.55044
▁mistä	-9.55374
▁sate	-9.55441
▁jätti	-9.55443
▁oiv	-9.55445
▁dolla	-9.55486
tam	-9.55633
▁äät	-9.55634
▁tyä	-9.55666
▁elu	-9.55847
▁aho	-9.55861
▁log	-9.55886
▁umm	-9.56025
▁oy	-9.56032
▁otto	-9.5606
▁ntti	-9.56172
▁enny	-9.56178
▁reil	-9.56193
▁ähte	-9.56211
arvi	-9.56273
▁nder	-9.56285
▁org	-9.56538
▁mpä	-9.56599
▁tuttu	-9.56664
▁impi	-9.5667
▁eutu	-9.56697
▁yh	-9.56919
▁ob	-9.57004
▁suh	-9.57042
▁inu	-9.57118
▁sala	-9.57314
voit	-9.57325
atte	-9.57347
▁tte	-9.57399
▁näi	-9.57458
▁talli	-9.57485
▁ilv	-9.57543
▁ork	-9.57801
▁tiedä	-9.57803
▁ydi	-9.57944
▁mia	-9.58141
▁elo	-9.58149
▁TV	-9.58155
▁uri	-9.58164
▁kanta	-9.58173
aike	-9.58262
▁liha	-9.58323
▁stus	-9.58365
▁ert	-9.58497
▁äivä	-9.58536
▁ukea	-9.58674
▁or	-9.58738
▁esiin	-9.58756
▁Bri	-9.58785
▁hon	-9.58971
▁pakk	-9.59041
▁täisi	-9.59136
attu	-9.59279
▁dell	-9.59308
▁Oli	-9.5939
▁50	-9.59433
aist	-9.59594
▁sio	-9.59615
▁eikka	-9.59648
▁ntin	-9.59733
▁ius	-9.59735
▁vaihe	-9.59773
ääst	-9.59808
sim	-9.59814
▁elij	-9.59922
▁ess	-9.59937
▁sov	-9.60201
▁uni	-9.60206
▁armaa	-9.60229
▁ehot	-9.60253
äll	-9.60264
▁kkä	-9.60271
▁elasi	-9.60304
▁ärki	-9.60321
▁tön	-9.60327
▁Osa	-9.60338
▁ksan	-9.6038
▁ärkeä	-9.60414
▁apsen	-9.60452
▁ääjä	-9.60624
▁uone	-9.6067
kert	-9.60721
▁tok	-9.60819
▁ämä	-9.60884
z	-9.60978
▁juttu	-9.61013
▁Sal	-9.61086
▁aad	-9.61343
▁avo	-9.61359
▁Putin	-9.61477
▁akot	-9.61481
▁hetki	-9.61629
▁yksen	-9.61818
▁sia	-9.61862
▁aito	-9.61882
▁ria	-9.62065
▁annu	-9.62185
▁uuk	-9.62586
eli	-9.62586
▁ataan	-9.62679
▁uodo	-9.62684
▁isuus	-9.62764
▁ean	-9.62821
omai	-9.63042
▁eikki	-9.63116
▁kiis	-9.63219
▁mm	-9.63222
oko	-9.63325
▁eett	-9.63328
▁kaat	-9.63382
▁huone	-9.63397
▁äivi	-9.63494
▁äline	-9.63535
▁mero	-9.63538
▁edu	-9.63586
▁set	-9.6359
▁ilj	-9.63929
▁odi	-9.63973
▁mmi	-9.64067
▁kato	-9.64118
▁raho	-9.64132
▁tuv	-9.64161
▁ib	-9.643
▁urma	-9.6431
▁äinen	-9.64314
▁ab	-9.64317
▁naa	-9.64361
▁koe	-9.64365
▁ex	-9.64479
▁ausi	-9.6449
▁urj	-9.64555
▁tilan	-9.64632
▁15	-9.64644
▁ideo	-9.64659
▁armi	-9.64682
▁rek	-9.64702
▁por	-9.64922
▁isio	-9.64926
▁äytyy	-9.6494
▁anc	-9.64999
▁ust	-9.65092
▁pian	-9.65098
▁kkai	-9.65134
▁öm	-9.65151
rus	-9.65484
▁akka	-9.65509
▁teja	-9.65526
▁aatti	-9.65612
▁land	-9.65639
▁esä	-9.65711
äjä	-9.65787
ll	-9.65806
▁teet	-9.65923
▁uima	-9.65997
työ	-9.66068
▁loh	-9.66128
▁tussa	-9.66279
▁ili	-9.66313
▁od	-9.66359
▁nteen	-9.66497
▁ahta	-9.66508
▁äyt	-9.66672
▁ääk	-9.67007
▁metr	-9.67094
▁piiri	-9.67103
▁vih	-9.67225
ihto	-9.6742
▁oimii	-9.67643
▁äivää	-9.67827
▁ket	-9.67834
amm	-9.67908
▁w	-9.68087
▁syyt	-9.68179
▁aare	-9.68253
▁aino	-9.68373
▁siko	-9.68507
▁poik	-9.6858
▁eb	-9.68586
▁ehu	-9.68612
▁netta	-9.68628
▁ely	-9.68642
▁sinki	-9.68656
panj	-9.68708
aver	-9.68821
▁ad	-9.68826
▁tr	-9.68948
▁illan	-9.68977
▁ttia	-9.68989
▁olem	-9.6904
▁ssi	-9.69132
▁ranta	-9.69161
▁nap	-9.69206
▁str	-9.6922
▁apin	-9.69263
▁tella	-9.69366
▁kult	-9.69378
▁z	-9.69403
ensä	-9.69446
ite	-9.69455
▁ali	-9.6947
▁ppi	-9.69675
▁uru	-9.69885
▁ättä	-9.699
▁äässä	-9.6995
▁etä	-9.69955
▁lue	-9.70337
▁vansa	-9.70347
▁ahaa	-9.70357
roit	-9.70361
▁kar	-9.70384
▁aikan	-9.70495
▁ehk	-9.70506
▁äki	-9.70664
▁arkka	-9.70712
▁aalia	-9.70722
▁ympi	-9.70758
▁amin	-9.70836
▁kuvan	-9.70917
▁ante	-9.70943
▁amer	-9.71034
▁urun	-9.71048
▁imi	-9.71052
▁akso	-9.71138
▁yvää	-9.71369
▁aalin	-9.71425
▁alvi	-9.71501
▁pitk	-9.71712
on	-9.7181
▁aiem	-9.72027
▁uita	-9.72124
▁ryhm	-9.72132
▁amme	-9.72135
▁isäl	-9.72148
▁Mik	-9.72301
▁jy	-9.72382
▁rast	-9.72449
▁puut	-9.72465
▁seur	-9.72631
▁sata	-9.72643
▁ub	-9.72645
port	-9.72693
▁oti	-9.72694
▁aur	-9.72698
▁lasta	-9.72788
kem	-9.72809
▁ivi	-9.72901
▁rinta	-9.72935
▁äd	-9.72937
▁lista	-9.73057
▁äm	-9.73188
▁itta	-9.7337
▁ksiin	-9.73543
▁ula	-9.73552
▁ikka	-9.73723
▁ran	-9.73737
▁into	-9.73766
▁port	-9.73791
▁paa	-9.73832
▁ardi	-9.73907
▁alaa	-9.73924
▁aatii	-9.74006
▁kku	-9.74041
▁oott	-9.74079
▁atar	-9.74089
elev	-9.74153
▁otku	-9.74178
uluv	-9.7422
▁katk	-9.74254
▁ito	-9.7427
omis	-9.74382
▁om	-9.74384
▁väri	-9.74581
isem	-9.74672
▁isan	-9.74675
▁ors	-9.74803
▁ael	-9.74913
▁ig	-9.74914
▁uola	-9.74928
kino	-9.74943
▁iko	-9.74961
▁ntö	-9.75018
nad	-9.75049
▁alto	-9.75159
▁alan	-9.752
▁Auto	-9.75295
▁arina	-9.75415
▁oka	-9.75432
▁antu	-9.75607
▁Esp	-9.75633
▁ampi	-9.75745
▁äsi	-9.75919
▁iim	-9.76013
ome	-9.76078
▁ammu	-9.76201
▁erro	-9.76327
▁desta	-9.76332
▁esu	-9.76378
▁lko	-9.76423
▁mättä	-9.76451
äänt	-9.76482
▁ikk	-9.76581
▁Kau	-9.76657
▁tym	-9.7669
▁linj	-9.767
▁id	-9.76719
▁asa	-9.76743
▁ralli	-9.76759
▁auko	-9.77079
▁vetä	-9.77134
yde	-9.7714
▁arv	-9.77197
▁ekij	-9.7729
▁ull	-9.77327
▁yyt	-9.77632
▁list	-9.77667
▁lli	-9.77745
▁yyl	-9.77785
▁ash	-9.77911
▁matta	-9.77929
▁iö	-9.77935
▁iski	-9.78093
äis	-9.78203
▁lessa	-9.78261
▁leg	-9.78271
▁risti	-9.78338
iint	-9.7855
▁lav	-9.7858
▁äin	-9.78615
▁ndr	-9.78629
▁eilla	-9.78632
▁nio	-9.78648
aise	-9.78695
▁uis	-9.787
▁ahd	-9.78707
▁itk	-9.7873
▁lumi	-9.78755
▁menee	-9.78767
▁uolta	-9.7914
▁ank	-9.79149
▁opp	-9.79193
▁fan	-9.79233
▁Br	-9.7925
▁omp	-9.79326
▁akuu	-9.79345
▁ieli	-9.79496
kuut	-9.79503
▁mont	-9.79539
▁Sc	-9.79607
▁vuod	-9.79644
▁12	-9.79658
▁isty	-9.79661
▁talia	-9.79704
▁ettua	-9.79709
▁emp	-9.79744
▁aul	-9.7985
▁100	-9.79937
▁immi	-9.80235
▁don	-9.80289
▁ok	-9.80315
▁kasvo	-9.80399
▁enr	-9.80433
▁rep	-9.80494
▁klo	-9.80686
▁uno	-9.80698
äätö	-9.80777
▁ppo	-9.80779
▁eitti	-9.80806
▁tis	-9.80834
▁kav	-9.80863
▁mpaa	-9.80934
▁mais	-9.80976
▁enit	-9.8099
▁uttaa	-9.81047
▁elj	-9.81125
▁hdy	-9.81211
aiki	-9.81251
▁louk	-9.81309
▁aksa	-9.81345
▁arti	-9.81444
▁iks	-9.81476
▁40	-9.81494
▁oiton	-9.81497
▁luot	-9.81543
▁hahmo	-9.81561
▁nassa	-9.8161
▁ommi	-9.81638
▁Ko	-9.81681
▁sut	-9.81728
▁mo	-9.81728
▁ismi	-9.81729
▁aiv	-9.81835
▁ntie	-9.81862
▁her	-9.81938
▁äly	-9.8196
▁rah	-9.82003
mis	-9.82035
▁nnon	-9.82055
▁toi	-9.82064
▁äyks	-9.82306
▁Ty	-9.82363
▁sko	-9.82556
▁salo	-9.82657
▁jääk	-9.82711
nf	-9.82725
kkau	-9.82738
▁iz	-9.82825
▁yöpä	-9.83047
▁inis	-9.83057
▁esto	-9.83172
▁pur	-9.832
▁iak	-9.83233
ka	-9.83284
▁arvi	-9.83287
▁ulk	-9.83309
ynni	-9.83321
▁ade	-9.83337
▁luk	-9.83417
▁evä	-9.83479
▁Ju	-9.83657
▁eute	-9.83761
▁tsev	-9.83844
▁oto	-9.83936
▁py	-9.84016
▁kyl	-9.84054
▁ritt	-9.8406
▁ämm	-9.84132
▁arkk	-9.84155
▁ety	-9.84211
▁uvi	-9.84231
▁oppa	-9.84249
ors	-9.84305
▁mir	-9.84328
alta	-9.8434
▁um	-9.84467
▁lemm	-9.84496
▁Ne	-9.84574
▁äs	-9.84802
▁jäl	-9.84899
▁ud	-9.84933
▁laat	-9.84971
▁ers	-9.84986
▁vahva	-9.8505
▁erg	-9.85156
▁Viro	-9.85247
▁Toi	-9.85251
▁oise	-9.85254
▁elev	-9.85475
▁almi	-9.85538
▁tapp	-9.85595
kää	-9.85697
▁eir	-9.85716
▁ailla	-9.85788
▁aik	-9.85876
yttö	-9.85926
yttä	-9.86087
▁sek	-9.8612
▁urha	-9.86151
▁Per	-9.86178
▁ippu	-9.86312
▁TT	-9.86323
▁ro	-9.86447
▁sille	-9.86494
▁unnan	-9.86532
▁sesta	-9.86542
▁ätk	-9.86841
▁sad	-9.86845
▁hyp	-9.86949
▁ältt	-9.87009
▁isk	-9.87054
▁uski	-9.87085
▁aihto	-9.87456
▁ossa	-9.87473
▁sat	-9.87477
▁aud	-9.87564
▁vies	-9.8757
▁nau	-9.87641
▁ive	-9.87691
▁Tor	-9.87728
▁assi	-9.87755
▁tuvat	-9.87842
▁lämp	-9.87849
▁osit	-9.87926
▁eem	-9.87928
▁ttaj	-9.87957
▁stel	-9.88007
▁este	-9.88143
▁tod	-9.8826
▁saam	-9.88318
▁é	-9.88359
▁ysti	-9.88365
▁ekon	-9.8838
▁nähdä	-9.88421
▁utis	-9.88441
▁outu	-9.88509
▁kke	-9.88689
▁aip	-9.88805
▁aata	-9.88877
▁roj	-9.88985
▁kulm	-9.89194
▁äkk	-9.89196
▁iske	-9.89249
▁ellu	-9.89304
▁evat	-9.8932
▁posti	-9.89338
▁di	-9.89365
▁tan	-9.89377
▁enni	-9.89492
▁oinu	-9.89621
▁sent	-9.89715
var	-9.89845
▁vuor	-9.89849
▁iirt	-9.89914
▁isko	-9.89964
▁entä	-9.9004
▁unna	-9.90053
▁aim	-9.90072
▁erää	-9.90308
▁äti	-9.90333
▁ial	-9.90341
▁met	-9.90434
▁riv	-9.90463
▁linna	-9.90474
▁erk	-9.9053
▁ster	-9.90533
▁ike	-9.90598
▁kri	-9.90621
▁tär	-9.90635
▁sijo	-9.90635
▁rs	-9.90646
▁ansan	-9.90701
▁amas	-9.9074
▁Ver	-9.90811
▁mah	-9.90828
▁anga	-9.90908
▁ay	-9.90968
▁uv	-9.91031
▁kans	-9.91161
▁ähä	-9.91334
▁puk	-9.91742
▁hall	-9.91744
▁kesän	-9.91749
▁utun	-9.91752
▁ämme	-9.91813
▁eena	-9.91821
▁maat	-9.91832
▁akaa	-9.91954
▁lää	-9.92022
sta	-9.92029
▁ater	-9.92154
▁suk	-9.9216
▁töä	-9.92219
▁tien	-9.92258
▁jäse	-9.92274
▁ere	-9.92279
▁aje	-9.92354
▁Ala	-9.92357
▁Muu	-9.92373
mine	-9.92385
▁teita	-9.92408
▁empa	-9.92433
▁äärin	-9.92454
▁tyks	-9.92487
▁tart	-9.92582
▁lina	-9.92596
▁ion	-9.92627
kuis	-9.92651
▁Mä	-9.92793
▁mista	-9.92892
▁aiset	-9.9291
▁mil	-9.92922
▁toon	-9.9293
▁tes	-9.92983
▁rang	-9.93048
▁nou	-9.93052
▁riisi	-9.93227
▁pano	-9.93305
ani	-9.93324
▁vähä	-9.93372
▁ep	-9.93407
▁kome	-9.93534
▁Bar	-9.93569
▁ieti	-9.93635
▁Nor	-9.93778
▁äid	-9.93902
▁ija	-9.93908
▁HL	-9.94035
▁ack	-9.94106
▁ääm	-9.9412
▁eren	-9.94136
▁Pal	-9.94185
▁amal	-9.94214
▁Maa	-9.94253
▁uudet	-9.94273
▁rik	-9.94412
▁tavi	-9.94503
▁oen	-9.94594
muks	-9.94626
▁toks	-9.94644
▁ink	-9.94649
▁arve	-9.94662
▁nnes	-9.94694
▁joht	-9.94726
▁rhei	-9.94753
▁iho	-9.95025
▁syyte	-9.95151
▁ös	-9.95163
elit	-9.95207
▁aaja	-9.95226
▁hak	-9.95244
▁aava	-9.95477
▁yri	-9.95496
▁alai	-9.95555
▁ärj	-9.95577
▁erot	-9.95617
▁erra	-9.95759
▁nev	-9.95766
inne	-9.95821
▁arme	-9.95876
▁Mer	-9.95947
▁ysty	-9.95977
▁äh	-9.96068
▁äärä	-9.96346
▁teitä	-9.96412
▁ntoja	-9.96664
▁välit	-9.96691
▁öitä	-9.96744
iivi	-9.96772
▁intä	-9.96811
▁ymy	-9.96844
▁uuri	-9.96859
uur	-9.96907
▁aap	-9.96953
▁telua	-9.97223
▁itu	-9.97359
▁lly	-9.97473
▁lymp	-9.97509
▁Lap	-9.97528
▁ong	-9.97555
▁im	-9.97599
▁Kat	-9.97704
▁rkk	-9.97768
▁let	-9.97991
▁tteri	-9.98022
▁aini	-9.98462
▁via	-9.98462
▁tv	-9.98481
▁all	-9.9855
▁dän	-9.98606
&	-9.98607
▁rea	-9.9869
▁ill	-9.98797
kar	-9.98818
▁kki	-9.98854
▁Kys	-9.99034
▁vänsä	-9.99135
▁200	-9.99142
▁oisin	-9.99174
oll	-9.99217
▁uh	-9.99296
▁uolen	-9.99363
▁oke	-9.99388
▁syk	-9.99406
osit	-9.99491
▁odis	-9.99533
▁lve	-9.99542
▁uomi	-9.99608
▁nty	-9.99623
kään	-9.99687
▁Vir	-9.99837
▁rann	-9.99839
▁anee	-9.9988
▁nkari	-9.99907
▁uol	-9.99959
▁uht	-9.9996
▁varo	-10.0037
▁ävät	-10.0037
▁ul	-10.0049
▁emma	-10.0064
▁yy	-10.0067
▁anka	-10.0071
▁ltiin	-10.0072
▁rint	-10.0096
▁nnee	-10.0099
▁iety	-10.01
▁pä	-10.0105
▁ntaja	-10.0114
▁iikki	-10.0121
▁omo	-10.0128
▁aaj	-10.013
▁keli	-10.0168
▁ento	-10.017
▁ykk	-10.0171
▁kea	-10.0175
▁uule	-10.018
tyvä	-10.0182
▁ham	-10.02
▁yksin	-10.0208
htä	-10.0211
▁nö	-10.0242
▁unti	-10.0246
▁alv	-10.0258
▁elp	-10.0264
▁annus	-10.0271
▁läm	-10.0277
▁ineen	-10.0282
▁tall	-10.0289
▁iste	-10.0302
▁ah	-10.0304
▁aura	-10.0307
▁kiit	-10.0307
▁mot	-10.0308
▁eto	-10.031
▁ypp	-10.0311
▁sivät	-10.0312
▁kuuta	-10.0326
▁ähd	-10.0331
▁suo	-10.0359
▁kais	-10.0363
▁osaa	-10.0369
▁ämis	-10.0371
▁toa	-10.0373
▁itali	-10.0377
▁YK	-10.038
inä	-10.0386
▁teena	-10.0394
▁uoka	-10.0396
▁uop	-10.0399
▁Mark	-10.0412
▁lat	-10.0431
▁ehd	-10.0433
▁sit	-10.0433
▁äih	-10.0434
▁ngl	-10.0461
▁ipu	-10.0462
▁aisk	-10.0469
▁takaa	-10.0483
▁uissa	-10.0489
▁mässä	-10.05
▁tin	-10.05
▁pet	-10.0505
▁rata	-10.0512
▁upe	-10.0514
▁musta	-10.0519
▁elto	-10.052
ämm	-10.0525
▁oj	-10.055
▁pelin	-10.0567
▁isuu	-10.0572
▁ern	-10.0584
▁orn	-10.0594
▁eka	-10.0598
▁lon	-10.0604
▁Pari	-10.0632
▁aalit	-10.0632
▁mist	-10.0635
▁tajat	-10.0643
▁ome	-10.0647
▁della	-10.0657
▁uul	-10.0663
▁syv	-10.068
▁jote	-10.0683
▁opi	-10.0686
c	-10.069
▁osti	-10.0701
▁arin	-10.0702
▁uon	-10.0707
▁oska	-10.0709
iksi	-10.0718
▁sian	-10.0718
▁ip	-10.0719
▁elt	-10.0719
▁ein	-10.0728
▁pah	-10.0729
▁koi	-10.0731
▁insa	-10.0741
▁össä	-10.0744
▁tull	-10.0752
▁aria	-10.0756
▁sel	-10.0766
▁sij	-10.0771
öyd	-10.0772
▁ind	-10.0782
▁malla	-10.0785
▁vaik	-10.0786
▁irkk	-10.0798
▁umi	-10.0799
▁kel	-10.0804
▁rose	-10.0815
▁aver	-10.0816
▁ohtaa	-10.0823
▁mma	-10.0829
▁nuk	-10.083
▁ug	-10.0833
▁lom	-10.0834
▁uheen	-10.0843
▁vaa	-10.0843
▁ennu	-10.0844
▁nes	-10.0849
▁Gu	-10.0865
▁aras	-10.0866
▁ärke	-10.0871
▁bo	-10.0874
▁selle	-10.0884
▁lus	-10.0896
▁viä	-10.0898
▁nnin	-10.0901
uhte	-10.0902
▁tama	-10.0905
▁ohja	-10.0922
▁linen	-10.0932
teis	-10.0943
▁ate	-10.0945
neen	-10.0948
▁annin	-10.095
▁vää	-10.0952
▁pö	-10.0957
▁äänt	-10.0969
▁Hu	-10.097
▁huoli	-10.0973
▁Er	-10.0978
▁opea	-10.0978
▁auna	-10.0983
▁jok	-10.0987
▁tensa	-10.0988
▁istus	-10.1003
▁oik	-10.1038
▁tyne	-10.1043
▁lime	-10.1044
▁iika	-10.1045
▁uutu	-10.1047
▁olu	-10.105
▁ello	-10.1055
▁ital	-10.1059
▁rain	-10.1064
▁ment	-10.1068
urna	-10.1086
▁ärv	-10.1088
▁jet	-10.1099
and	-10.1099
▁uttu	-10.1109
▁isat	-10.1111
▁11	-10.1111
▁kod	-10.1117
▁eella	-10.1119
▁ttäv	-10.1126
▁enee	-10.1131
▁ksa	-10.1133
▁ron	-10.1135
▁jaan	-10.1138
▁olk	-10.1145
▁keil	-10.1151
oja	-10.116
▁los	-10.1172
▁oha	-10.1173
▁ute	-10.1174
▁sella	-10.1185
▁omit	-10.12
▁ohk	-10.1202
▁kkö	-10.1205
▁og	-10.1212
▁dr	-10.1212
▁rä	-10.1224
▁ese	-10.123
ton	-10.1233
▁ähi	-10.1235
▁leis	-10.1239
▁ski	-10.1248
ilij	-10.1248
▁eh	-10.1258
▁vaat	-10.1266
▁onto	-10.1267
▁Nä	-10.127
▁iil	-10.1272
▁edia	-10.1277
▁aatto	-10.1282
▁Leh	-10.1313
▁aansa	-10.1315
▁ulo	-10.1318
▁äntä	-10.1319
aupp	-10.1325
▁lisen	-10.1334
▁tom	-10.1355
▁iaal	-10.1365
▁alm	-10.1372
▁alt	-10.1378
▁ulke	-10.139
▁htaa	-10.14
▁aula	-10.1401
▁nmaa	-10.1403
▁kkaa	-10.1409
▁täjä	-10.1409
▁Fin	-10.1413
▁era	-10.1414
▁alun	-10.1452
▁appi	-10.1455
▁oite	-10.1459
▁ose	-10.1466
▁tar	-10.1473
▁Mari	-10.1475
▁kum	-10.1479
▁tellä	-10.1499
▁tusk	-10.1509
▁tuva	-10.1518
▁nei	-10.1521
▁niä	-10.1526
▁IFK	-10.1546
▁otaa	-10.1546
▁aske	-10.1551
▁uka	-10.1552
hto	-10.1554
▁hui	-10.1556
▁raja	-10.156
▁mato	-10.1566
▁dia	-10.1577
▁ukko	-10.1577
▁vuoro	-10.1583
▁gr	-10.1601
over	-10.1604
▁eika	-10.1615
▁atsa	-10.1626
▁tyt	-10.1635
sä	-10.1636
▁rj	-10.1645
▁eo	-10.1657
uri	-10.1659
▁rut	-10.1682
▁lov	-10.1682
▁60	-10.1683
▁töstä	-10.1689
▁pelaa	-10.1697
▁atto	-10.1698
▁unai	-10.1702
▁emi	-10.1705
▁ore	-10.1713
DP	-10.1713
▁ook	-10.1718
▁ouk	-10.1728
▁oste	-10.1733
▁lois	-10.1736
▁alme	-10.1746
▁ilk	-10.1753
▁tue	-10.1762
▁our	-10.177
▁bri	-10.1789
▁No	-10.18
D	-10.1802
▁25	-10.1809
▁Kär	-10.1819
▁öri	-10.1829
▁Sai	-10.1829
▁äästö	-10.1836
▁Mat	-10.1848
▁iska	-10.187
▁Seur	-10.1879
▁koo	-10.1879
▁eino	-10.188
▁enin	-10.1886
▁soda	-10.1887
▁ttää	-10.1889
▁ohe	-10.1892
▁teltu	-10.1893
▁auki	-10.1895
▁euv	-10.1901
▁ait	-10.1904
▁oos	-10.1909
▁allis	-10.193
▁iemi	-10.1942
▁AFP	-10.1962
▁oon	-10.1963
kö	-10.1973
▁rem	-10.1977
▁ica	-10.198
▁istää	-10.1983
▁uvia	-10.1984
▁veri	-10.1989
oni	-10.2001
▁aris	-10.2003
▁eter	-10.2016
▁kuvaa	-10.202
istä	-10.2042
▁BBC	-10.2048
▁hait	-10.2056
▁atr	-10.2059
▁ier	-10.2063
unnu	-10.207
▁dok	-10.2081
▁ity	-10.2083
▁tehd	-10.2084
▁misen	-10.2093
▁oisi	-10.2093
▁ure	-10.2097
▁dus	-10.2116
▁%	-10.2133
ieme	-10.2143
▁miin	-10.2144
unno	-10.2146
▁är	-10.2151
▁age	-10.2155
▁ra	-10.2158
▁kuka	-10.2169
▁ttäm	-10.2171
▁az	-10.2171
▁lie	-10.2186
▁okk	-10.2189
▁aits	-10.2204
▁auva	-10.2213
▁iemm	-10.2213
▁Q	-10.2222
▁suju	-10.2241
▁14	-10.2249
▁inni	-10.225
▁goi	-10.2275
▁urm	-10.2279
▁äp	-10.2285
▁senä	-10.2285
neks	-10.2291
▁13	-10.2292
▁kanen	-10.2298
▁elv	-10.2302
▁inka	-10.2315
▁rikos	-10.2322
▁nuori	-10.2323
▁alua	-10.2327
▁nem	-10.2328
▁hte	-10.233
▁lass	-10.2345
▁astu	-10.2346
▁ela	-10.2349
▁kset	-10.2353
▁kahd	-10.2399
▁reen	-10.24
▁inin	-10.2412
▁koit	-10.2428
▁ilä	-10.2435
▁nant	-10.2442
▁ral	-10.2448
▁isena	-10.2449
▁yd	-10.2456
▁pil	-10.2461
▁ora	-10.2461
ista	-10.2471
▁ema	-10.2472
▁eer	-10.2477
▁ykset	-10.252
▁araa	-10.2521
▁ow	-10.2524
▁arj	-10.2526
▁anie	-10.2533
:	-10.2538
▁toiv	-10.2542
▁tuis	-10.2553
▁suos	-10.2559
▁aide	-10.2579
▁viil	-10.2582
kaa	-10.2583
▁ley	-10.2587
▁koll	-10.2595
ako	-10.2607
▁vasti	-10.2614
▁mut	-10.2617
▁ltaan	-10.2619
▁yp	-10.2619
▁eeni	-10.2625
▁näy	-10.2628
dp	-10.2631
▁otu	-10.2631
▁oksia	-10.2649
▁kirk	-10.2666
▁anm	-10.2671
▁stra	-10.2673
▁tell	-10.2676
▁mal	-10.2681
▁wa	-10.2693
▁uhu	-10.27
▁ausk	-10.2704
▁uhe	-10.2709
tyks	-10.2713
▁El	-10.2716
▁essi	-10.2725
▁arko	-10.2727
▁une	-10.2736
ihd	-10.2745
▁CNN	-10.2758
▁maine	-10.2759
▁ampa	-10.2767
▁äl	-10.2769
▁ök	-10.2774
▁samaa	-10.279
▁ris	-10.2792
ad	-10.2807
▁hu	-10.2812
▁län	-10.2827
▁olet	-10.2829
▁uo	-10.2829
▁olt	-10.2836
▁otk	-10.2841
▁Tai	-10.2857
▁ahi	-10.2864
▁uhr	-10.2879
▁usk	-10.2883
▁uris	-10.2901
▁nkii	-10.2911
▁aust	-10.2912
▁nor	-10.2916
▁eak	-10.2929
▁mb	-10.2932
▁aat	-10.2941
▁eron	-10.2942
▁lia	-10.2953
simm	-10.2953
▁rkis	-10.2956
▁iisi	-10.2958
▁isään	-10.2965
▁atko	-10.2967
nyt	-10.2992
▁ntiin	-10.2993
▁kti	-10.2999
▁alio	-10.3024
▁estö	-10.3025
olm	-10.304
▁Hy	-10.3044
▁lasi	-10.3047
sty	-10.3052
▁18	-10.3064
▁aala	-10.3089
▁imes	-10.3103
▁uunn	-10.3108
▁nalle	-10.311
ej	-10.3111
▁16	-10.3121
▁ch	-10.3144
▁pite	-10.3145
voim	-10.3146
▁issu	-10.315
▁Kir	-10.3155
▁ntu	-10.3162
▁avaa	-10.3164
▁irk	-10.3174
▁atri	-10.3188
▁rid	-10.319
▁dat	-10.319
▁amp	-10.3213
▁ape	-10.3218
▁ittu	-10.3229
▁otus	-10.3232
▁allon	-10.3242
▁net	-10.3247
▁airas	-10.3256
▁yll	-10.3263
▁kons	-10.3267
▁eon	-10.327
▁syd	-10.3283
▁ivu	-10.3285
ang	-10.3309
▁q	-10.3311
▁ikui	-10.3334
▁ellyt	-10.3349
▁ulj	-10.3354
▁liev	-10.3364
▁sissa	-10.3377
▁vas	-10.3377
täm	-10.3382
▁väksi	-10.3385
▁ode	-10.3388
▁ir	-10.3397
▁öks	-10.3397
▁sih	-10.3416
▁auti	-10.3419
▁tem	-10.3427
▁hun	-10.3427
▁gram	-10.3428
mä	-10.3433
▁unk	-10.3434
▁inv	-10.3434
▁uov	-10.3435
▁isiä	-10.3449
▁ostaa	-10.3452
▁immä	-10.3473
ksi	-10.3479
▁nter	-10.3481
▁alik	-10.3493
▁ttävä	-10.3499
▁tystä	-10.3506
▁äme	-10.3514
▁huip	-10.3528
▁lyn	-10.3531
▁osen	-10.3536
▁suor	-10.3543
▁yhmä	-10.3549
▁emis	-10.3551
▁eske	-10.356
▁uran	-10.3565
▁oida	-10.3565
▁lisi	-10.3567
▁äkkä	-10.3568
▁neita	-10.3591
▁soi	-10.3594
▁verk	-10.3597
▁kivi	-10.3597
▁ngel	-10.3604
▁oh	-10.3614
▁tilaa	-10.3618
▁Par	-10.3629
▁tuul	-10.3644
▁okka	-10.3646
▁dyt	-10.365
▁ryh	-10.3667
▁Gran	-10.3671
▁oom	-10.3695
▁uja	-10.3699
▁USA	-10.3699
▁ttyä	-10.37
▁rat	-10.3703
▁ppa	-10.3716
▁enk	-10.3717
▁älä	-10.3718
▁nlop	-10.3736
▁ost	-10.374
▁alvo	-10.375
▁ähkö	-10.375
▁uli	-10.3757
hy	-10.3758
▁eru	-10.3763
▁rok	-10.3772
▁kol	-10.3783
▁spe	-10.3794
▁öjä	-10.38
▁anha	-10.3803
▁iit	-10.381
▁lit	-10.3819
▁yk	-10.384
▁tävää	-10.3842
uute	-10.3852
▁siä	-10.3853
▁mani	-10.3856
äki	-10.3858
▁ulta	-10.3865
▁henk	-10.3872
▁uott	-10.3881
▁äntö	-10.3887
▁ren	-10.3919
▁ato	-10.3933
▁käs	-10.3966
▁Nik	-10.3984
▁uke	-10.4012
▁anh	-10.4021
▁iva	-10.4022
▁seksi	-10.4024
▁yte	-10.4029
▁aara	-10.4037
▁ec	-10.404
▁eltä	-10.404
▁kossa	-10.4041
▁Ede	-10.4044
▁ska	-10.4053
▁[	-10.4058
▁aru	-10.4064
▁ied	-10.4069
▁uho	-10.4072
▁reit	-10.4076
▁vist	-10.4085
▁orma	-10.4094
iiko	-10.41
▁öytä	-10.4116
▁kal	-10.4118
▁kaal	-10.4122
▁ruo	-10.4127
▁mit	-10.4134
▁]	-10.4137
ster	-10.414
inut	-10.4159
▁uuto	-10.4161
▁tea	-10.4168
▁Mc	-10.417
syyd	-10.4171
▁erhe	-10.4179
de	-10.4194
▁ämää	-10.421
▁ankk	-10.4219
▁appe	-10.4222
▁iassa	-10.4224
▁orj	-10.424
uodo	-10.4242
rva	-10.4244
▁17	-10.4246
▁dek	-10.4258
▁väk	-10.4263
)	-10.4267
▁tutu	-10.427
▁ars	-10.4271
▁nkk	-10.4276
▁itto	-10.4277
akk	-10.4287
sem	-10.4288
▁uhk	-10.4341
▁ulma	-10.4345
▁sket	-10.4349
▁Pol	-10.4359
▁unne	-10.4365
▁saan	-10.4379
▁etel	-10.4382
▁öt	-10.4391
nak	-10.4393
▁ask	-10.4398
skar	-10.4404
▁oneen	-10.4411
▁ikeus	-10.4413
▁uluv	-10.4433
▁De	-10.4443
▁pak	-10.4446
▁24	-10.4452
▁vuo	-10.4452
▁my	-10.4458
▁akku	-10.4477
▁Tur	-10.448
▁ult	-10.4485
▁nia	-10.4493
▁kui	-10.4494
▁she	-10.4503
▁änny	-10.4512
ulku	-10.4526
▁tein	-10.4527
▁iusa	-10.4529
▁ulli	-10.4534
▁must	-10.4543
▁min	-10.4553
▁ye	-10.4554
▁ulla	-10.4555
▁Kai	-10.4561
▁äyte	-10.4566
▁ralla	-10.4582
▁anis	-10.459
▁aval	-10.4599
▁det	-10.4601
▁änd	-10.4618
▁sp	-10.463
ch	-10.4636
▁ilja	-10.4636
▁auha	-10.464
pää	-10.4651
▁elm	-10.4658
▁uoti	-10.4663
▁iita	-10.4664
▁ew	-10.4665
▁oro	-10.4665
▁idä	-10.4665
▁tinen	-10.4671
▁jö	-10.4671
▁noo	-10.4691
▁tilä	-10.4696
▁hetk	-10.4714
▁ako	-10.4718
▁aike	-10.4728
▁smi	-10.4733
pa	-10.4739
▁mala	-10.475
▁öntä	-10.475
▁aasu	-10.4752
▁aiss	-10.4764
▁konk	-10.4783
▁korva	-10.4784
▁iku	-10.4786
▁oht	-10.4794
▁auka	-10.4805
▁HS	-10.4807
▁ott	-10.4812
▁äyty	-10.4813
kko	-10.4821
or	-10.4821
▁itys	-10.4834
▁pasi	-10.4841
▁tote	-10.4853
▁atin	-10.4855
▁aroi	-10.4877
▁rikk	-10.4891
▁innu	-10.4896
▁pailu	-10.4906
▁ntia	-10.4916
▁ttis	-10.4927
▁kät	-10.493
▁ökk	-10.4944
▁avi	-10.4966
▁ttö	-10.4981
▁tont	-10.4989
▁äär	-10.4995
▁puu	-10.4998
▁yssä	-10.5015
▁isenä	-10.5023
▁rmo	-10.5024
▁enka	-10.5049
maan	-10.505
▁delle	-10.5051
▁ag	-10.5051
▁pos	-10.5054
vid	-10.5069
▁tap	-10.5069
▁x	-10.507
▁yistä	-10.5074
▁eim	-10.5078
▁varma	-10.5079
▁selvä	-10.5083
isto	-10.5103
▁lty	-10.5106
▁Lep	-10.5144
▁ega	-10.5147
▁Kur	-10.5148
▁link	-10.5151
ihin	-10.516
▁ieto	-10.5168
▁ntoa	-10.5168
▁aitos	-10.5177
▁len	-10.5182
▁rop	-10.5185
▁lio	-10.5202
▁Ky	-10.5203
▁aast	-10.5207
▁untia	-10.5208
▁eeri	-10.5214
▁äjä	-10.5224
▁siiv	-10.5225
▁lou	-10.5244
▁misi	-10.5248
rab	-10.5253
▁tim	-10.5254
▁oinn	-10.5254
▁oilta	-10.5258
▁tynyt	-10.5267
▁ousu	-10.5268
▁80	-10.5279
▁liv	-10.5291
▁etus	-10.5294
▁änt	-10.5298
▁unen	-10.5299
▁iris	-10.53
▁äse	-10.5301
▁entää	-10.5307
▁erin	-10.5313
▁rvi	-10.5314
▁laa	-10.5342
▁aaka	-10.5347
aja	-10.5357
▁atka	-10.5376
▁anma	-10.5377
▁uur	-10.5378
▁are	-10.5385
▁iell	-10.5387
▁ähti	-10.5417
▁dop	-10.5428
▁arje	-10.5431
▁Caro	-10.5445
▁amu	-10.5449
▁osak	-10.545
▁raa	-10.5451
lah	-10.5458
▁vassa	-10.5462
▁kkee	-10.5462
▁nähd	-10.5479
sy	-10.548
▁seli	-10.5487
remm	-10.5502
▁okuv	-10.5506
▁utus	-10.5521
äär	-10.5522
▁utui	-10.5525
▁luks	-10.5539
▁roo	-10.5542
▁ved	-10.5543
▁lint	-10.5544
▁täy	-10.5544
▁emin	-10.5549
▁alkan	-10.5561
▁omero	-10.5566
▁taus	-10.557
▁oppu	-10.5571
uoks	-10.5573
▁mel	-10.5581
▁70	-10.5588
▁Matt	-10.5608
▁rva	-10.5624
stel	-10.5635
▁lanti	-10.5655
▁ikki	-10.5656
▁usto	-10.5663
▁aks	-10.5664
▁oko	-10.5677
▁kyy	-10.5679
▁pp	-10.5683
▁vala	-10.57
uru	-10.5703
▁arke	-10.5705
▁eko	-10.5708
▁issi	-10.5713
▁oku	-10.5714
▁sh	-10.572
▁allas	-10.5724
issa	-10.5759
▁atvia	-10.577
▁luu	-10.5776
arin	-10.5781
▁af	-10.5782
▁aasa	-10.5786
▁ey	-10.5786
▁yti	-10.5803
▁eut	-10.5806
▁mer	-10.5806
▁otim	-10.5806
▁paan	-10.5819
▁läsnä	-10.5833
▁einen	-10.5837
▁avia	-10.5847
illa	-10.5852
▁htiö	-10.5868
▁golf	-10.5895
▁anss	-10.59
▁kulk	-10.5902
▁matk	-10.591
▁evi	-10.5913
essä	-10.5914
▁lkee	-10.593
▁lti	-10.5961
▁not	-10.5964
▁Vira	-10.5967
▁oksi	-10.5972
▁lku	-10.5974
▁lent	-10.5991
▁kiva	-10.6003
▁amo	-10.6004
▁unno	-10.6006
▁ekä	-10.6011
▁ies	-10.6013
▁hol	-10.6017
▁iedo	-10.6019
rkki	-10.6036
▁aih	-10.6038
▁utti	-10.6038
▁ehn	-10.6041
▁rk	-10.605
▁yöt	-10.6061
▁epp	-10.6062
▁kari	-10.6066
▁kant	-10.607
▁evät	-10.6079
▁vissa	-10.6081
▁mii	-10.6087
▁eos	-10.6092
▁jalk	-10.6092
▁Ant	-10.6094
▁kala	-10.6094
▁air	-10.6107
imi	-10.6113
▁rauh	-10.6114
▁ävä	-10.6129
▁ehe	-10.614
▁ikai	-10.6152
▁rap	-10.6154
▁ber	-10.616
▁kym	-10.6185
▁kah	-10.6189
▁mpere	-10.619
alla	-10.6207
ber	-10.6215
oker	-10.6219
▁harj	-10.622
▁mmo	-10.6227
▁iilo	-10.6233
▁ikan	-10.6272
nb	-10.6275
▁for	-10.6284
▁elma	-10.6288
▁enem	-10.6296
▁yrk	-10.6304
▁nik	-10.6306
▁keu	-10.6309
▁hai	-10.632
▁teema	-10.6325
▁eltu	-10.6331
w	-10.6333
▁hum	-10.6338
▁edo	-10.6339
▁rill	-10.6342
▁uet	-10.6344
KP	-10.635
▁isu	-10.6359
tane	-10.6367
▁lari	-10.637
▁entaa	-10.6379
▁vika	-10.638
▁Max	-10.6386
ah	-10.639
▁lm	-10.6396
▁anch	-10.6413
▁äsk	-10.6423
▁For	-10.6437
▁rak	-10.6439
▁mari	-10.6443
▁äily	-10.6452
▁Nic	-10.6453
▁ume	-10.646
▁päi	-10.6472
▁sorm	-10.6474
▁fr	-10.6488
▁ähe	-10.649
▁Ed	-10.6517
▁Oy	-10.6524
▁lak	-10.6524
▁tuut	-10.653
▁oc	-10.6555
▁kim	-10.6571
▁innä	-10.6588
▁ace	-10.6594
▁juh	-10.6607
▁aate	-10.6614
▁lann	-10.6628
▁stav	-10.6634
▁reena	-10.6648
▁nest	-10.6652
▁altaa	-10.6653
▁Is	-10.6669
▁tko	-10.6676
▁Sy	-10.6679
▁Merc	-10.6694
▁uee	-10.6694
▁konen	-10.6694
▁nten	-10.6707
▁uen	-10.6716
▁lep	-10.6718
itte	-10.6728
▁laski	-10.6731
▁sd	-10.6735
▁ytti	-10.6747
▁Aki	-10.6757
▁mman	-10.6762
▁oika	-10.6775
rend	-10.6786
▁inh	-10.6789
▁tuus	-10.6792
▁rov	-10.6794
ist	-10.6809
▁Lat	-10.6816
▁ullo	-10.6819
▁arta	-10.682
▁kuo	-10.6835
▁ande	-10.6837
▁hää	-10.6842
▁eisk	-10.6848
▁yön	-10.6851
▁lay	-10.6862
▁uska	-10.6863
▁uull	-10.6863
▁itsi	-10.6871
▁aalis	-10.6879
▁sestä	-10.6887
20	-10.6889
▁yyty	-10.6897
▁alon	-10.6903
▁äisi	-10.6905
▁soo	-10.6909
▁Ari	-10.6912
olem	-10.6913
▁uhel	-10.6939
▁lassa	-10.694
erkk	-10.6951
▁pauk	-10.6952
▁Exp	-10.696
▁eija	-10.697
▁evan	-10.6971
▁hri	-10.6978
▁kuvat	-10.6987
▁pila	-10.6991
▁idea	-10.6992
▁evää	-10.6992
▁rav	-10.6994
▁eeksi	-10.7001
▁uiv	-10.7003
▁uso	-10.7004
▁lise	-10.7008
▁go	-10.7017
▁apor	-10.7021
▁ram	-10.7021
▁fi	-10.703
▁kus	-10.7041
▁anth	-10.7042
▁imp	-10.7042
▁Red	-10.7043
▁alti	-10.7045
▁toip	-10.7052
▁90	-10.7057
▁yös	-10.7058
▁hil	-10.7069
▁Saa	-10.7091
▁kump	-10.7096
▁oho	-10.7101
mar	-10.7104
▁estää	-10.7112
by	-10.712
▁nnet	-10.7123
▁etää	-10.713
ettu	-10.7131
▁käi	-10.7135
▁uiva	-10.7143
▁loi	-10.7153
▁eam	-10.7161
▁viin	-10.7161
▁mpa	-10.717
▁hot	-10.7172
6,	-10.7174
▁tteli	-10.7178
▁upo	-10.7191
ammi	-10.7194
▁Esi	-10.7202
▁laj	-10.7209
▁evo	-10.7211
▁ulu	-10.7212
AK	-10.7214
▁etro	-10.7216
▁ntee	-10.7229
▁auli	-10.7233
▁rati	-10.724
▁sikko	-10.7243
▁esla	-10.7254
▁kemi	-10.7255
▁void	-10.7255
▁ääki	-10.7276
▁ulm	-10.7286
1	-10.7293
▁etti	-10.7294
etti	-10.7305
▁tyk	-10.7311
▁ez	-10.7312
▁Ol	-10.7319
▁ikon	-10.7337
▁rinen	-10.7362
1,	-10.7372
7,	-10.7374
▁ataa	-10.7377
▁Kaisa	-10.7389
▁tavaa	-10.7389
▁alat	-10.7392
▁rss	-10.7399
▁sään	-10.7404
▁ames	-10.741
▁uusk	-10.7425
▁vank	-10.743
▁hjel	-10.7443
▁silta	-10.7445
lo	-10.7447
▁ilti	-10.7455
▁inaa	-10.7462
▁tanen	-10.7462
▁pla	-10.7468
▁ekt	-10.7475
▁mmat	-10.7476
dan	-10.7486
▁ge	-10.7498
▁ret	-10.7499
▁dosta	-10.7501
▁Rist	-10.7523
▁ila	-10.7524
▁mat	-10.7525
▁eist	-10.753
▁mail	-10.7546
▁asku	-10.7546
▁keik	-10.7562
▁nett	-10.7573
9,	-10.7574
▁ytt	-10.7578
-	-10.758
▁aille	-10.7586
▁arsi	-10.7609
▁tietä	-10.7623
uvi	-10.7628
▁reun	-10.7631
▁elik	-10.7634
▁aivaa	-10.7636
▁lyy	-10.7654
▁iem	-10.7658
▁esse	-10.7674
▁inal	-10.7676
▁mann	-10.7676
▁äise	-10.7683
▁syl	-10.7689
▁vet	-10.7694
▁ivä	-10.7708
▁alk	-10.7713
▁ääj	-10.7722
iag	-10.7722
▁oks	-10.774
allo	-10.7749
▁uda	-10.775
▁anja	-10.7752
▁can	-10.7756
▁raal	-10.7759
▁eik	-10.7763
▁ltav	-10.7777
▁työt	-10.7787
▁lenk	-10.7788
2,	-10.7792
▁oso	-10.7793
▁moot	-10.7805
▁ary	-10.7805
▁anner	-10.7814
▁opo	-10.7819
▁ever	-10.7834
▁aavo	-10.7839
▁akia	-10.784
▁iisa	-10.7841
▁jia	-10.7842
▁ness	-10.7842
▁yönt	-10.7843
▁som	-10.785
▁ada	-10.7853
▁rgi	-10.7853
▁Harr	-10.7859
▁emmä	-10.7864
▁auh	-10.7867
▁mys	-10.7884
▁35	-10.7887
▁itää	-10.7895
▁olli	-10.7897
vist	-10.7899
▁br	-10.7901
▁pist	-10.7906
▁skal	-10.7906
▁vinen	-10.7913
▁hit	-10.7914
▁iru	-10.7919
▁isar	-10.7921
▁otel	-10.7923
▁PS	-10.7924
▁the	-10.793
▁ikeu	-10.7947
▁pudo	-10.7957
▁stap	-10.7962
▁tajaa	-10.7971
4	-10.7977
ker	-10.7982
▁nnoi	-10.7984
3,	-10.7985
▁emään	-10.799
▁mäk	-10.8003
▁kolla	-10.8007
▁ance	-10.8014
▁iljo	-10.8019
uno	-10.8026
▁ff	-10.8031
▁insä	-10.8038
,5	-10.8049
ver	-10.8055
▁ytö	-10.8065
▁tsa	-10.8068
▁eili	-10.8079
▁irr	-10.8082
▁alen	-10.811
▁noll	-10.8111
▁syys	-10.8116
▁auvo	-10.8131
sin	-10.8142
▁nun	-10.8152
▁uko	-10.8154
▁mana	-10.816
▁Por	-10.8167
▁ipe	-10.8172
▁llu	-10.8176
▁gat	-10.8212
▁ler	-10.8219
▁800	-10.8223
▁iskun	-10.8237
▁ovan	-10.8252
uvu	-10.8255
8,	-10.8258
▁äve	-10.8264
▁yyn	-10.8274
▁iia	-10.8291
▁yne	-10.83
▁iiva	-10.8306
▁dig	-10.8309
kaan	-10.8322
▁ynt	-10.8326
▁iek	-10.8327
ong	-10.8329
▁Kouv	-10.833
▁mans	-10.8345
▁ou	-10.8346
▁ca	-10.8352
▁vais	-10.8354
▁akan	-10.8364
▁ikoi	-10.838
▁š	-10.8384
▁anko	-10.8385
▁niuk	-10.8391
▁usin	-10.8391
▁tilla	-10.8398
▁deb	-10.8401
▁ros	-10.8402
ger	-10.8405
po	-10.8421
ha	-10.8425
▁23	-10.8431
▁uske	-10.8436
▁onna	-10.8446
▁vy	-10.8457
▁kall	-10.8463
▁etr	-10.8472
▁teis	-10.8472
▁hev	-10.8476
ho	-10.8479
▁erm	-10.8484
▁tyvät	-10.8487
▁Colo	-10.8497
▁Kimm	-10.8499
▁okai	-10.8513
▁kann	-10.8513
▁mien	-10.8531
▁mäl	-10.8535
▁murh	-10.854
▁Tie	-10.8542
▁koir	-10.8547
▁ntaan	-10.8583
=	-10.859
▁ger	-10.859
▁FC	-10.8592
▁apau	-10.8595
▁nutta	-10.8596
▁tuol	-10.8607
▁ule	-10.8613
▁aup	-10.8617
▁ilpi	-10.8623
▁ung	-10.8628
▁ursk	-10.8652
▁ym	-10.8653
▁Maij	-10.8655
▁ullu	-10.8656
5,	-10.8668
▁ääv	-10.8674
▁yst	-10.8678
▁22	-10.8687
▁line	-10.8689
▁lipu	-10.8698
▁19	-10.8698
▁Ur	-10.8704
▁hat	-10.8726
par	-10.8727
▁stee	-10.8734
uver	-10.8734
▁1.	-10.8734
▁appu	-10.8738
▁oope	-10.875
▁ekk	-10.8752
▁ilm	-10.8755
una	-10.8756
▁onka	-10.8759
▁lmoi	-10.8761
▁pot	-10.8762
asti	-10.877
▁21	-10.8775
▁uos	-10.8784
▁tajia	-10.879
▁öide	-10.8793
▁uihk	-10.8797
▁oteu	-10.881
▁utuv	-10.8811
▁yä	-10.8818
▁uti	-10.8835
▁Elo	-10.8837
▁nel	-10.8841
PS	-10.8844
▁ppu	-10.8849
▁auhe	-10.8857
änd	-10.8863
▁omin	-10.8867
▁ouis	-10.8867
▁Col	-10.8876
▁jut	-10.888
▁unu	-10.888
▁dossa	-10.8901
▁uuma	-10.8912
▁him	-10.8928
▁erve	-10.8929
▁ärs	-10.8931
▁uin	-10.8939
▁arm	-10.896
▁aisee	-10.8961
▁osia	-10.8966
▁Net	-10.8969
▁otka	-10.8984
▁Kr	-10.8997
▁nnu	-10.9002
▁fto	-10.9014
▁entt	-10.9019
▁öit	-10.9022
▁asv	-10.9027
▁kauk	-10.9045
▁ttei	-10.9056
▁pun	-10.9059
▁aksu	-10.9061
▁ih	-10.9074
▁mun	-10.9076
▁Los	-10.9076
▁ruok	-10.908
ur	-10.9086
▁kij	-10.9101
▁Ker	-10.9101
▁ish	-10.9112
▁reh	-10.912
▁nilla	-10.9121
▁emo	-10.9128
50	-10.9131
▁iov	-10.9133
uut	-10.9138
▁joit	-10.9155
ce	-10.9168
▁agg	-10.9172
▁inja	-10.9176
▁uki	-10.9178
▁autt	-10.9179
▁ous	-10.9185
x	-10.9213
▁ntav	-10.923
▁taho	-10.9232
▁aski	-10.9237
▁kiek	-10.9239
▁ärä	-10.9244
▁äkä	-10.9289
▁rto	-10.9292
▁skin	-10.9294
▁yttää	-10.9306
▁tiö	-10.9308
▁Sama	-10.9317
▁unto	-10.9326
▁ido	-10.9341
▁keen	-10.9341
▁seis	-10.9344
▁öö	-10.9349
▁27	-10.9351
▁eih	-10.9362
▁kaut	-10.9369
▁kuki	-10.9375
▁Hall	-10.9392
▁miä	-10.9393
▁uma	-10.9395
▁emmi	-10.9397
▁wi	-10.9404
anta	-10.9418
▁uvan	-10.942
▁Sel	-10.9422
▁äistä	-10.9425
▁oim	-10.9434
▁iip	-10.945
▁be	-10.946
aast	-10.947
▁Hal	-10.947
▁ce	-10.9474
eilu	-10.9477
▁ric	-10.948
aira	-10.9489
▁oton	-10.9493
▁öistä	-10.9504
▁Kuu	-10.9505
▁Turku	-10.9511
▁dip	-10.9514
▁kop	-10.9515
▁uuh	-10.952
▁inki	-10.9531
▁kia	-10.9533
▁koon	-10.9534
▁rien	-10.9536
▁Sat	-10.954
jo	-10.955
▁htu	-10.9557
▁Karh	-10.9559
▁auni	-10.956
▁aken	-10.9568
▁noj	-10.9585
▁iti	-10.9591
▁tiik	-10.9592
▁eppo	-10.9616
▁oru	-10.9626
▁ism	-10.9639
▁ation	-10.9639
▁eil	-10.964
▁ykyä	-10.9646
▁iike	-10.9654
▁tol	-10.9657
▁150	-10.9657
▁nnel	-10.9662
▁ehme	-10.9666
▁hta	-10.967
▁itte	-10.968
▁rans	-10.9681
▁lause	-10.9689
▁nas	-10.971
▁iro	-10.9711
▁vits	-10.9717
aha	-10.9744
▁akkaa	-10.9754
paik	-10.9768
K	-10.9772
▁rim	-10.9777
▁sur	-10.9787
▁Kiur	-10.9795
▁Wal	-10.9797
ach	-10.9799
▁pit	-10.9809
▁otia	-10.9813
▁äen	-10.9814
▁västi	-10.9823
▁maid	-10.9829
▁San	-10.9842
▁tter	-10.9843
▁tei	-10.9862
▁enki	-10.9867
ec	-10.9867
▁eits	-10.9884
▁lemp	-10.9886
▁atila	-10.991
▁pas	-10.9922
▁ekka	-10.9936
▁das	-10.994
▁kuum	-10.9942
▁ingi	-10.9945
▁sc	-10.9989
▁itus	-10.9991
▁kiri	-11.0002
▁erge	-11.0006
▁nd	-11.0007
▁last	-11.0013
▁tyn	-11.0015
▁urt	-11.002
▁aiki	-11.0023
▁oder	-11.0023
▁mets	-11.0029
▁älk	-11.0034
▁jalla	-11.0036
▁usti	-11.0038
▁uisk	-11.0045
▁mark	-11.0049
▁oito	-11.0054
▁13.	-11.0057
▁telun	-11.006
▁nään	-11.0075
▁lii	-11.0101
▁mall	-11.0102
▁11.	-11.0105
▁eid	-11.0105
▁lys	-11.0113
▁uhte	-11.0116
ontr	-11.0116
▁JK	-11.0118
▁utua	-11.0123
▁ruk	-11.0123
▁Kim	-11.0129
▁maja	-11.0129
▁rän	-11.0152
▁kyk	-11.016
▁sse	-11.0176
ukki	-11.0181
▁las	-11.0188
▁mällä	-11.0188
▁iol	-11.0189
▁ärve	-11.019
▁väs	-11.0193
▁kkala	-11.02
▁tani	-11.0208
▁pui	-11.0219
▁kiin	-11.0224
▁firm	-11.0225
▁ivo	-11.0235
▁€	-11.0245
▁saldo	-11.0246
▁yökk	-11.025
▁rank	-11.0265
▁ranc	-11.0265
▁pat	-11.0276
▁nuu	-11.0295
▁ntol	-11.0296
▁yötä	-11.0305
▁pät	-11.0317
▁entti	-11.032
▁täht	-11.0325
▁aun	-11.0326
▁iert	-11.0339
70	-11.0349
▁Robi	-11.0355
▁kein	-11.0363
▁nkki	-11.0364
▁alin	-11.0366
▁aio	-11.0377
▁akk	-11.0381
oeh	-11.0389
▁östä	-11.0398
▁eell	-11.0406
▁laus	-11.0407
ulje	-11.0408
N	-11.0423
▁nkiin	-11.0427
▁rme	-11.043
lust	-11.0446
ow	-11.0451
ic	-11.0456
▁läi	-11.0471
yvä	-11.0471
▁uks	-11.0479
ater	-11.0484
▁aill	-11.0487
▁̈	-11.0491
▁tissa	-11.0494
irmu	-11.0496
▁loku	-11.0501
▁uod	-11.0514
▁ötä	-11.052
ord	-11.0523
▁NBA	-11.0543
▁uulu	-11.0547
isen	-11.0565
▁ef	-11.0575
▁kär	-11.0577
▁nnos	-11.0596
co	-11.0597
▁oil	-11.0597
▁Her	-11.0615
▁arhu	-11.0631
armo	-11.0641
▁Mel	-11.0642
B	-11.0642
▁Suz	-11.0643
▁ipä	-11.065
▁sito	-11.0661
▁outo	-11.0671
ana	-11.0684
▁sellä	-11.0687
▁etin	-11.0689
▁lkka	-11.0712
▁tref	-11.0717
▁anin	-11.0719
▁avol	-11.0732
▁ambu	-11.0736
▁ihl	-11.0741
▁ttori	-11.0741
▁hdys	-11.075
▁12.	-11.0751
▁Jan	-11.0774
▁ukan	-11.0779
▁iisp	-11.0783
▁tyv	-11.0785
▁inai	-11.0787
▁apsi	-11.0797
▁kg	-11.0803
▁lahja	-11.0805
▁ainaa	-11.0809
▁unnas	-11.0824
▁eksa	-11.083
▁esäk	-11.0832
▁uome	-11.0833
▁ald	-11.0838
▁ois	-11.0846
▁der	-11.0853
▁uom	-11.0878
▁onia	-11.0884
▁uit	-11.0886
A	-11.0886
▁upp	-11.0887
▁anan	-11.0894
▁elan	-11.0907
▁von	-11.0907
é	-11.091
▁Gal	-11.0911
ick	-11.0926
▁ump	-11.0927
▁elly	-11.0936
▁kevä	-11.0936
▁ppuun	-11.0951
▁aimo	-11.0952
▁iehe	-11.0958
▁öä	-11.0974
oop	-11.0975
S	-11.098
▁tapo	-11.0985
▁rkku	-11.099
▁hal	-11.0993
▁eiso	-11.0995
▁sun	-11.0999
▁turma	-11.1015
▁ieni	-11.1033
▁if	-11.1048
▁ick	-11.1054
▁amm	-11.1055
▁tuuri	-11.1069
▁ihe	-11.1081
G	-11.1081
▁45	-11.1112
▁GP	-11.1119
▁pum	-11.1129
▁ulle	-11.1133
▁ävän	-11.1146
▁risk	-11.1156
▁mass	-11.1158
▁sken	-11.116
▁elmä	-11.116
▁Marc	-11.1161
▁gin	-11.1162
▁Pek	-11.1165
▁telmä	-11.118
▁auma	-11.1185
▁piin	-11.1196
▁eny	-11.1199
▁iihe	-11.1209
▁auhu	-11.1217
▁SSS	-11.1221
▁äytä	-11.1255
ttu	-11.126
iver	-11.1267
▁elit	-11.1274
▁ayne	-11.1275
▁oss	-11.1283
▁enj	-11.1283
▁prin	-11.1284
,2	-11.1285
▁Terv	-11.1301
▁Pan	-11.1317
ukar	-11.132
▁show	-11.1323
▁aavat	-11.133
▁iaan	-11.1332
▁esin	-11.1336
▁esk	-11.1336
▁pua	-11.1336
▁iaali	-11.1344
▁LP	-11.1348
VP	-11.1359
▁leve	-11.136
▁jun	-11.1362
▁läin	-11.1364
▁aavi	-11.1365
▁Grön	-11.1377
▁ävi	-11.141
▁tteet	-11.1423
▁räs	-11.143
▁tso	-11.1436
▁til	-11.1447
▁levä	-11.1456
▁Will	-11.1461
▁umis	-11.1463
ojen	-11.1485
▁ulai	-11.1488
aito	-11.1489
▁alki	-11.1496
▁uont	-11.1497
▁outh	-11.1497
▁korv	-11.1504
eld	-11.1504
inni	-11.1512
▁enp	-11.1513
▁Ajo	-11.1517
▁äytö	-11.1517
▁temp	-11.1521
▁rc	-11.1521
▁ysä	-11.1537
▁700	-11.1538
▁arma	-11.1571
▁hom	-11.1572
▁tist	-11.1573
▁ukas	-11.1576
▁ranni	-11.1577
▁äj	-11.16
▁ivoi	-11.1603
▁öllä	-11.1616
▁rot	-11.1622
▁kassa	-11.1623
▁omu	-11.1627
▁ock	-11.1643
P	-11.165
▁sus	-11.1654
▁västä	-11.1655
do	-11.1655
▁aude	-11.1662
▁kyt	-11.1666
▁Tero	-11.1671
old	-11.1671
▁aatt	-11.1671
▁sall	-11.1674
▁viho	-11.1676
▁uva	-11.1683
▁keit	-11.1683
▁summa	-11.1692
▁aato	-11.1705
▁eura	-11.1716
▁stys	-11.1721
ock	-11.1736
eula	-11.1737
▁irin	-11.174
▁audi	-11.1746
▁pär	-11.1748
▁ame	-11.1755
▁Ras	-11.1755
▁rää	-11.176
tum	-11.1773
▁talla	-11.1774
80	-11.1776
▁IL	-11.1776
▁anom	-11.1781
▁akon	-11.1789
▁eine	-11.1791
▁rajo	-11.1799
▁toh	-11.1809
▁niit	-11.1812
▁liput	-11.1814
rag	-11.1843
▁AC	-11.1846
▁kara	-11.1856
▁ning	-11.1863
osta	-11.1867
▁yrki	-11.1878
▁hdi	-11.1888
▁26	-11.1907
▁laut	-11.193
▁Group	-11.1938
▁ekn	-11.1941
▁16.	-11.1942
▁Co	-11.1954
▁uhla	-11.196
▁iest	-11.2022
▁mea	-11.2022
▁hie	-11.2024
▁ulvi	-11.2024
▁maas	-11.2025
▁nnat	-11.2027
▁res	-11.2029
▁teek	-11.2036
▁aah	-11.2039
▁sor	-11.205
▁läp	-11.2052
▁leht	-11.2066
▁uokk	-11.2073
▁sein	-11.2111
onku	-11.2125
▁ulva	-11.2129
▁raut	-11.2155
▁arce	-11.2156
▁ZUMA	-11.2171
▁Traf	-11.2179
▁ukku	-11.218
up	-11.2181
▁aas	-11.2203
pul	-11.222
▁andy	-11.2223
▁kana	-11.2226
▁;	-11.223
▁14.	-11.2236
▁Rint	-11.2238
▁ysy	-11.225
ag	-11.2251
▁neil	-11.2255
▁ainu	-11.2259
▁ngo	-11.2266
ing	-11.227
▁che	-11.2273
▁olod	-11.2278
▁mas	-11.2283
▁keä	-11.2284
▁kilp	-11.2293
▁leim	-11.231
▁voin	-11.2311
▁sid	-11.2321
▁top	-11.2327
▁vista	-11.2329
▁lun	-11.2336
▁ones	-11.2348
▁ville	-11.2349
▁MTV	-11.2356
gas	-11.2365
▁2.	-11.2367
▁inkku	-11.2372
▁gh	-11.2372
▁kosta	-11.2379
ro	-11.2383
▁mein	-11.2391
▁nnät	-11.2391
▁apo	-11.2398
▁nuo	-11.2407
▁Fox	-11.2414
▁Berl	-11.2416
▁jaus	-11.2417
cL	-11.2424
MK	-11.2432
▁kave	-11.2469
▁sohv	-11.2471
▁nge	-11.2474
oitu	-11.2486
▁ves	-11.2493
▁uuni	-11.2493
▁eessä	-11.2495
▁aama	-11.251
▁neksi	-11.2512
▁kist	-11.2518
▁eppi	-11.2518
▁outa	-11.2519
▁jassa	-11.252
4,	-11.2534
▁ulut	-11.2537
▁urgh	-11.2539
▁tro	-11.254
▁20.	-11.2547
▁7.	-11.255
▁hau	-11.2562
▁liss	-11.2562
▁eää	-11.2568
▁tke	-11.2571
F	-11.2576
▁emok	-11.2594
▁orin	-11.2601
▁Wilm	-11.2603
▁ämpö	-11.2623
▁äll	-11.2627
▁uPS	-11.2638
wood	-11.2655
ij	-11.2656
▁yjä	-11.2663
▁15.	-11.2664
▁itt	-11.2672
▁eck	-11.268
▁mith	-11.2681
▁rti	-11.2688
q	-11.2691
▁urg	-11.2707
▁eho	-11.2711
estä	-11.2715
▁rö	-11.2727
▁neu	-11.2736
▁tteen	-11.2742
▁vaar	-11.2743
▁co	-11.2747
▁din	-11.2747
efa	-11.2754
▁Aho	-11.2757
▁ima	-11.2759
▁kont	-11.2766
▁lmi	-11.2778
60	-11.2778
▁oogl	-11.2779
▁ieh	-11.278
▁uinti	-11.2781
▁lix	-11.279
▁dist	-11.2794
▁Ex	-11.2799
▁lack	-11.2802
eder	-11.2806
aff	-11.2809
▁pail	-11.2847
▁udi	-11.2848
▁dyn	-11.2853
▁nok	-11.2857
▁Yö	-11.2861
▁ush	-11.2867
▁Th	-11.2884
▁aneet	-11.2887
▁jään	-11.2889
▁eht	-11.2928
▁rvo	-11.2951
ry	-11.2955
▁irjo	-11.2956
▁olan	-11.2969
▁poo	-11.2975
▁18.	-11.2976
▁reita	-11.2986
▁Marg	-11.2994
▁lahj	-11.3006
▁Sh	-11.3008
▁pir	-11.301
▁Mag	-11.3012
▁riem	-11.3016
▁vär	-11.3036
ild	-11.3038
elk	-11.304
▁Alb	-11.3064
▁SE	-11.3065
▁lämä	-11.3066
▁roa	-11.3074
▁ergi	-11.3085
▁asin	-11.3093
▁Suo	-11.31
▁17.	-11.3102
▁isyys	-11.3104
▁palj	-11.3114
▁oten	-11.3115
▁telma	-11.3118
▁äris	-11.3124
▁kio	-11.3127
▁nille	-11.3128
▁alkk	-11.3128
▁del	-11.3135
▁28	-11.3138
hla	-11.3141
▁eaa	-11.3149
▁Cap	-11.3176
▁mpia	-11.3176
▁onal	-11.3184
▁lava	-11.3187
ond	-11.3199
▁ippa	-11.3199
ido	-11.3205
▁iide	-11.3212
▁erh	-11.3224
▁sui	-11.323
▁Yh	-11.3255
▁lini	-11.327
▁utaa	-11.327
▁Met	-11.3275
▁ilai	-11.3282
▁itaan	-11.3288
▁live	-11.329
▁ahin	-11.3291
▁ahv	-11.3294
▁wift	-11.3299
▁oun	-11.3311
▁kam	-11.3312
▁Mont	-11.3324
▁amuli	-11.3325
▁fin	-11.3329
▁tur	-11.3333
▁ukai	-11.334
▁red	-11.3342
▁ouse	-11.3346
ttäm	-11.3351
utz	-11.3362
▁5.	-11.3364
▁paus	-11.337
▁utto	-11.3376
▁pass	-11.3378
▁lian	-11.3379
▁lev	-11.338
ig	-11.3386
▁Via	-11.3391
▁alb	-11.3415
▁rand	-11.3427
anja	-11.3429
▁oppuu	-11.3432
dist	-11.3453
▁iam	-11.3483
▁ilas	-11.3488
▁rky	-11.3491
▁enez	-11.3494
▁eila	-11.3498
▁data	-11.3522
▁ymi	-11.3526
▁emus	-11.3529
▁umu	-11.3534
ahka	-11.3543
▁aassa	-11.3544
▁elem	-11.3547
▁uden	-11.3548
▁okem	-11.3552
ijo	-11.3556
▁apse	-11.3556
▁aren	-11.3561
▁JYP	-11.3561
▁Volv	-11.3561
▁tej	-11.3599
▁ilt	-11.3631
▁puss	-11.3635
▁iesel	-11.3639
▁36	-11.364
▁rool	-11.3648
ero	-11.3654
kki	-11.3668
▁semi	-11.3671
▁rio	-11.3676
rand	-11.3679
▁oot	-11.3689
▁apeli	-11.3707
▁kaav	-11.371
▁Lav	-11.371
▁10.	-11.3712
▁omio	-11.3719
▁34	-11.372
▁laiv	-11.372
▁mik	-11.3721
▁yks	-11.3727
▁styi	-11.3759
▁siaa	-11.3772
▁aro	-11.3773
▁äättä	-11.3779
tö	-11.3783
akki	-11.3786
▁Sp	-11.3789
ksy	-11.3795
▁itar	-11.3803
▁pul	-11.3807
▁ärk	-11.3811
▁touh	-11.3812
essa	-11.3816
▁app	-11.383
,8	-11.3862
▁sän	-11.3865
▁enla	-11.3865
ippa	-11.3867
▁nss	-11.387
▁ör	-11.388
▁ioo	-11.3881
▁olta	-11.3891
▁Eg	-11.3892
ed	-11.3901
▁eople	-11.3906
▁9.	-11.3912
▁Adam	-11.3914
▁nal	-11.3919
▁PK	-11.3923
▁6.	-11.3933
▁etki	-11.3945
sper	-11.3946
▁urje	-11.3948
▁äil	-11.3954
▁Viim	-11.3961
▁ntek	-11.3968
▁aale	-11.3969
▁pull	-11.3979
▁tiiv	-11.3982
▁akar	-11.3997
▁uukka	-11.4013
lta	-11.402
▁myks	-11.4026
▁ämp	-11.4027
▁250	-11.4028
pel	-11.4029
▁mak	-11.4034
▁agne	-11.4034
▁Ter	-11.4039
▁enet	-11.4045
9	-11.4049
▁tävi	-11.4052
▁käl	-11.4056
▁32	-11.4068
▁iber	-11.407
▁sista	-11.4084
▁uhan	-11.4084
näkö	-11.4088
▁essu	-11.4092
▁Mac	-11.4103
▁kood	-11.4109
raum	-11.4116
▁aaha	-11.4123
▁yny	-11.4132
▁aska	-11.4132
▁Gold	-11.4139
▁8.	-11.4144
▁uss	-11.416
ermo	-11.4161
▁läk	-11.4174
▁*	-11.4191
ünch	-11.4191
▁enia	-11.42
▁änni	-11.4205
vä	-11.4206
▁Wall	-11.4209
▁Ars	-11.422
▁iot	-11.4222
▁Ski	-11.4228
aunu	-11.4229
▁kort	-11.4233
▁iivo	-11.4242
▁Ben	-11.4246
auti	-11.4251
▁4.	-11.4256
▁missa	-11.4265
▁luis	-11.4281
▁kill	-11.4281
▁rja	-11.4323
▁itts	-11.4333
▁hke	-11.4336
▁19.	-11.434
▁äke	-11.4345
▁lga	-11.4346
▁cha	-11.4355
▁sity	-11.4372
▁eat	-11.4374
cia	-11.4405
▁stis	-11.4409
▁@	-11.441
▁ansk	-11.446
▁uinn	-11.4462
▁ipp	-11.4475
R	-11.4494
▁ieme	-11.4495
▁imaan	-11.4517
▁eise	-11.4519
▁itio	-11.4527
▁1,	-11.4535
▁TK	-11.4542
▁hdis	-11.4544
▁moi	-11.456
▁ittää	-11.4573
▁odel	-11.4586
▁urn	-11.4601
eisö	-11.4603
ukka	-11.4619
▁oine	-11.4621
▁asse	-11.4622
▁änee	-11.4633
▁Wood	-11.4637
eck	-11.4646
▁iala	-11.4646
▁kot	-11.4648
olz	-11.4667
▁KU	-11.467
▁Kirs	-11.4673
▁ioita	-11.4674
tro	-11.4685
▁tion	-11.4691
▁tuja	-11.4704
▁21.	-11.4713
▁mäll	-11.4717
ood	-11.4719
▁30.	-11.4723
▁ajia	-11.4724
▁3.	-11.4731
▁ijat	-11.4749
▁auho	-11.4761
,6	-11.4783
I	-11.4787
▁erv	-11.479
▁urger	-11.4791
▁idi	-11.4793
▁jall	-11.4807
erem	-11.4812
olar	-11.4812
▁aajo	-11.4819
▁Oma	-11.4821
da	-11.4829
▁kem	-11.4829
▁Aut	-11.4857
▁jär	-11.4858
▁glo	-11.4871
oott	-11.4872
▁Mah	-11.4877
▁leip	-11.4877
skal	-11.4884
▁Ali	-11.4904
▁aiti	-11.4912
▁verr	-11.4915
appi	-11.4923
,7	-11.4926
▁tra	-11.493
▁oron	-11.494
▁muod	-11.4943
▁23.	-11.4946
kär	-11.4947
▁isnes	-11.4954
aasu	-11.4957
▁ehi	-11.4957
▁umpi	-11.4962
▁umpp	-11.4978
▁Kans	-11.4986
▁uora	-11.4993
▁vihj	-11.4994
tiiv	-11.5
▁lisa	-11.5003
▁>	-11.5018
▁22.	-11.5024
▁65	-11.5038
okuv	-11.506
▁almen	-11.5061
▁akun	-11.5072
▁soni	-11.5074
inna	-11.5083
▁liuk	-11.5091
nd	-11.5093
▁opa	-11.5097
▁intu	-11.5101
lerc	-11.5104
▁yöp	-11.5106
▁iepp	-11.5108
▁Noor	-11.511
▁sum	-11.5112
▁mö	-11.5119
gent	-11.5126
▁des	-11.5143
▁hd	-11.5151
▁turv	-11.5155
▁bam	-11.5159
VT	-11.5159
U	-11.5166
▁ire	-11.5185
▁umpa	-11.5188
RC	-11.5189
alt	-11.5197
▁div	-11.5205
nor	-11.5205
▁Gol	-11.5207
▁anny	-11.5208
▁talv	-11.5216
▁orte	-11.5218
og	-11.5221
▁otis	-11.5222
▁aikk	-11.5224
▁viik	-11.5226
hker	-11.5236
▁ild	-11.524
▁äytti	-11.5241
▁ammo	-11.5248
▁Korp	-11.525
▁helm	-11.5254
▁ABC	-11.5261
▁eve	-11.5267
RK	-11.5269
▁reis	-11.5279
▁dem	-11.5292
▁tot	-11.5318
eg	-11.5324
▁oiti	-11.5327
▁niel	-11.5334
▁steli	-11.5336
▁sso	-11.5336
▁Sirp	-11.5342
▁htia	-11.5361
atti	-11.5364
iero	-11.5372
▁unsi	-11.5383
▁ass	-11.5386
V	-11.5391
▁Maj	-11.5398
▁Ren	-11.5412
▁riid	-11.5415
ran	-11.5427
▁Ess	-11.5441
▁29	-11.5441
▁bal	-11.5449
▁koj	-11.5455
▁yyp	-11.5456
▁ba	-11.5476
▁Mas	-11.5478
▁aitta	-11.5485
▁Las	-11.5489
ez	-11.5496
▁nker	-11.5498
▁sak	-11.5504
▁jille	-11.5511
ard	-11.5516
▁33	-11.5517
▁atk	-11.552
▁naali	-11.5549
▁uuro	-11.5578
leg	-11.5578
▁kaks	-11.5581
▁Wil	-11.5583
aadu	-11.5597
▁gen	-11.5598
▁ähet	-11.56
▁äyd	-11.5609
ttäv	-11.5632
▁ira	-11.5633
tama	-11.5643
▁yin	-11.5646
▁imu	-11.5657
iva	-11.5658
ppi	-11.5659
▁leiv	-11.567
▁orvoo	-11.5672
euro	-11.5672
▁Aka	-11.5694
wag	-11.5705
▁hia	-11.5706
▁smo	-11.5714
▁lek	-11.5719
▁kos	-11.5722
▁onki	-11.5723
Ei	-11.5726
▁eisto	-11.5734
▁ree	-11.5747
▁BMW	-11.575
▁ioi	-11.5763
E	-11.5764
▁tappo	-11.5766
▁oukk	-11.577
der	-11.5777
▁Us	-11.5784
tune	-11.5787
▁ekin	-11.5798
hu	-11.5798
▁ähk	-11.5798
▁itel	-11.5813
▁kla	-11.5841
▁änak	-11.5844
▁mek	-11.5845
▁nista	-11.5851
lpo	-11.5857
▁shi	-11.586
▁Kul	-11.586
lppi	-11.5861
▁neut	-11.5864
▁iipu	-11.5868
▁noja	-11.5873
alkk	-11.5875
▁uupu	-11.5877
▁mät	-11.5889
▁lam	-11.5896
▁oud	-11.5898
RP	-11.5922
orld	-11.5923
▁iel	-11.5924
▁uulo	-11.5928
▁Mil	-11.593
▁ourn	-11.5934
▁rdi	-11.5937
▁vill	-11.5938
▁Cor	-11.5939
▁hir	-11.5942
▁urkki	-11.5945
▁riis	-11.5955
▁hav	-11.597
▁aahe	-11.5976
▁aavu	-11.5976
▁ando	-11.5989
▁puri	-11.6001
▁nurk	-11.6004
▁sauma	-11.6005
▁HJK	-11.6008
▁kei	-11.6013
▁uija	-11.6013
▁erbia	-11.6017
▁säik	-11.6019
▁75	-11.6039
▁vapa	-11.6039
▁Ura	-11.6047
▁oid	-11.6051
oide	-11.6056
▁37	-11.6067
▁arter	-11.6068
▁imon	-11.6068
iski	-11.6071
▁lok	-11.6078
▁ruud	-11.6078
▁iossa	-11.6086
▁öön	-11.609
▁lappu	-11.6107
▁arlo	-11.6116
fg	-11.6116
▁uck	-11.6117
▁annel	-11.6126
▁Tom	-11.614
▁rba	-11.616
▁hana	-11.618
▁28.	-11.6187
▁24.	-11.6189
▁ierr	-11.6206
▁nso	-11.6242
▁yysk	-11.6248
,3	-11.6251
▁okr	-11.626
▁Aku	-11.6265
▁out	-11.6273
▁You	-11.6278
▁Kol	-11.6288
▁teht	-11.6293
▁ipo	-11.6306
▁Katj	-11.632
▁ahtu	-11.6325
▁yv	-11.6326
▁nurm	-11.633
▁oda	-11.6344
▁oul	-11.6348
▁ME	-11.6348
▁Mira	-11.6355
▁soti	-11.6367
▁nää	-11.638
▁omen	-11.6385
▁Vuo	-11.639
▁öll	-11.639
▁aija	-11.6391
▁idaa	-11.6393
▁pea	-11.6403
▁orne	-11.6404
▁gie	-11.6425
▁ooni	-11.6432
▁2,5	-11.6432
oita	-11.6433
▁elon	-11.6442
▁gi	-11.6453
▁25.	-11.6457
▁ollo	-11.6458
ygg	-11.646
▁Rit	-11.6462
▁STT	-11.6473
▁ksena	-11.6474
atuo	-11.6481
▁eesta	-11.6487
ivo	-11.6489
eb	-11.6496
▁eek	-11.6499
▁elas	-11.6499
▁rian	-11.6502
▁lb	-11.6504
▁oint	-11.6511
▁raf	-11.6518
▁kalla	-11.6526
90	-11.6548
lyf	-11.6565
▁emä	-11.6574
▁ikke	-11.6578
▁38	-11.658
▁tissä	-11.6581
orni	-11.6594
▁ppil	-11.6595
▁hda	-11.6605
▁ousi	-11.6613
▁auas	-11.6615
▁Est	-11.6627
▁44	-11.663
▁matto	-11.6634
eag	-11.6636
▁dikt	-11.6638
▁viiva	-11.6659
▁Nat	-11.6665
▁Af	-11.668
▁Rall	-11.6697
▁2,	-11.6698
▁ätti	-11.6709
?	-11.6721
▁sine	-11.6724
ech	-11.6725
▁ilan	-11.6725
▁29.	-11.6727
▁ayah	-11.6728
▁aall	-11.6729
essu	-11.673
C	-11.6734
▁ehm	-11.6745
ky	-11.6748
▁pri	-11.6752
▁sep	-11.6755
▁äty	-11.6757
▁ath	-11.6762
▁summ	-11.6784
tš	-11.6796
▁26.	-11.6821
▁aalu	-11.6828
▁yss	-11.6835
▁uudu	-11.6859
▁lät	-11.6862
▁äks	-11.6886
▁iipi	-11.6894
▁oolo	-11.6895
▁ersey	-11.6914
▁Buff	-11.6918
ava	-11.694
▁tari	-11.6994
aljo	-11.6996
itio	-11.7012
▁ttäi	-11.7046
▁dol	-11.7047
▁Dor	-11.7054
▁unte	-11.7075
off	-11.7081
olla	-11.7083
▁ouver	-11.7083
30	-11.7089
▁aalla	-11.7097
▁ouhi	-11.7105
▁oimin	-11.7121
▁eina	-11.7122
▁AP	-11.713
▁rown	-11.7133
▁imaa	-11.7144
arva	-11.7166
▁eitt	-11.717
umme	-11.7172
van	-11.719
▁Sun	-11.7192
▁Aro	-11.7209
▁esal	-11.7218
▁uust	-11.7222
▁Ö	-11.7222
▁naal	-11.7232
▁vart	-11.7232
▁iiri	-11.7237
▁Miro	-11.7243
▁stil	-11.7257
▁luj	-11.7264
ich	-11.7266
▁kokki	-11.7268
kon	-11.7289
▁kkia	-11.7295
▁intr	-11.731
▁Mus	-11.7332
▁rät	-11.7337
▁iipa	-11.7338
▁ikro	-11.7344
▁inkin	-11.7351
▁hmi	-11.736
olf	-11.7365
15	-11.7365
▁suj	-11.7368
▁edi	-11.7379
OK	-11.7386
▁uvat	-11.7388
▁tri	-11.7388
▁kart	-11.7394
▁umppa	-11.7395
akar	-11.7396
▁Dahl	-11.74
▁ouva	-11.7407
▁ewis	-11.7412
▁ct	-11.7422
▁nav	-11.7423
▁natsi	-11.743
elm	-11.7432
M	-11.7433
ellä	-11.7438
▁Mic	-11.7462
▁ttii	-11.7463
▁liin	-11.7463
▁39	-11.7468
▁uitu	-11.7474
▁oina	-11.7482
▁McC	-11.7498
▁hony	-11.7513
ippo	-11.752
T	-11.7528
▁Rock	-11.7535
▁urku	-11.7538
▁olai	-11.7549
▁ttila	-11.7568
▁apai	-11.7578
▁My	-11.7583
igg	-11.7587
▁Ry	-11.7587
ca	-11.759
▁oria	-11.7591
▁eito	-11.7592
▁Gabr	-11.7599
▁offe	-11.7602
▁tettä	-11.7602
▁EK	-11.7613
▁aleh	-11.7617
▁Fil	-11.7619
▁nim	-11.7622
▁tone	-11.7623
▁ney	-11.7626
▁rant	-11.763
▁orsb	-11.7632
▁irpp	-11.7637
▁rig	-11.7647
teb	-11.7648
L	-11.7653
pum	-11.7654
ruz	-11.7659
▁urp	-11.7662
▁bi	-11.7663
▁uudes	-11.768
▁Ham	-11.7689
▁lubi	-11.7702
oski	-11.7704
▁27.	-11.7705
erma	-11.7705
od	-11.7709
▁reip	-11.7713
tila	-11.7725
▁neks	-11.774
▁uura	-11.7745
▁Å	-11.7749
▁anaa	-11.7749
▁42	-11.7758
▁ohte	-11.7759
bá	-11.776
▁kaao	-11.7777
▁töi	-11.7786
▁hdu	-11.7796
▁kour	-11.7797
▁dema	-11.7814
▁Azer	-11.7817
▁umin	-11.7818
▁Roma	-11.7824
dy	-11.7842
▁how	-11.7852
▁musi	-11.7858
▁semm	-11.7865
kym	-11.7865
▁ymis	-11.7871
▁eroi	-11.7874
▁alj	-11.789
äng	-11.7904
å	-11.791
▁Comb	-11.7911
▁sissä	-11.7919
▁Hint	-11.7929
▁eyen	-11.7938
▁VM	-11.7941
▁ampe	-11.7944
▁owe	-11.7951
▁niv	-11.7969
uvo	-11.7972
▁ach	-11.8
▁lake	-11.8013
▁ahva	-11.802
▁matra	-11.8022
ox	-11.8026
▁tauti	-11.8036
▁dit	-11.8039
▁cm	-11.804
anka	-11.8042
▁erman	-11.8045
▁puun	-11.8055
▁isim	-11.8055
▁sco	-11.807
▁ynty	-11.8076
▁Bob	-11.8084
▁ttuu	-11.8094
BI	-11.8097
▁kain	-11.8109
tee	-11.8111
äräj	-11.8117
▁2-3	-11.8122
▁41	-11.8127
ähtö	-11.8135
▁sauna	-11.8143
▁rotu	-11.8148
▁nomi	-11.8152
▁lim	-11.8155
upis	-11.8168
oit	-11.8177
▁Alm	-11.8181
ney	-11.8192
▁ady	-11.8196
▁rego	-11.8202
▁ukon	-11.8207
▁48	-11.8215
▁teem	-11.8219
▁stää	-11.8233
▁All	-11.8246
▁Ric	-11.8253
▁51	-11.8256
▁atte	-11.8258
š	-11.8264
▁oren	-11.8269
▁usv	-11.8279
uole	-11.8286
▁Win	-11.8306
tej	-11.8309
▁toja	-11.8315
tz	-11.8318
▁nuel	-11.8319
▁roit	-11.8327
▁Club	-11.8336
auha	-11.8346
hua	-11.8347
ner	-11.835
▁rh	-11.8366
▁31	-11.8368
ntoj	-11.8371
▁lem	-11.8371
ouse	-11.8373
X	-11.838
▁imet	-11.8383
hty	-11.8389
iz	-11.8393
▁ortt	-11.8408
▁eki	-11.8411
▁erkki	-11.8419
▁TPS	-11.8436
■	-11.8446
▁Pia	-11.8447
NR	-11.8449
▁NBC	-11.8451
WA	-11.846
▁lki	-11.8461
▁Aura	-11.8465
▁ury	-11.8469
▁vans	-11.8473
▁kip	-11.8481
▁PM	-11.8483
▁mää	-11.8484
▁avin	-11.8486
ussa	-11.8487
aus	-11.8494
rah	-11.8496
▁ilkk	-11.8499
▁simm	-11.85
▁posi	-11.8503
▁uts	-11.8517
▁con	-11.8518
▁taav	-11.8522
ley	-11.8523
ässä	-11.8527
▁Don	-11.8546
FC	-11.8553
▁Xi	-11.857
▁eide	-11.8571
▁ees	-11.8577
▁Mia	-11.8585
▁55	-11.86
enz	-11.8603
▁önt	-11.8604
aika	-11.8605
▁pes	-11.8607
▁ikal	-11.8612
▁nati	-11.862
assu	-11.8633
Z	-11.8642
▁ups	-11.8644
▁taud	-11.865
▁olv	-11.8653
▁rii	-11.8666
▁ID	-11.8685
▁heff	-11.8694
▁pisk	-11.8696
▁pakka	-11.8711
▁turi	-11.8712
▁kyll	-11.8721
▁lykk	-11.8725
▁ippo	-11.8731
▁adi	-11.8745
▁thl	-11.8747
▁iima	-11.8749
iina	-11.8754
▁ripu	-11.8769
▁haa	-11.8775
En	-11.8782
▁nyrk	-11.8784
▁loom	-11.8791
▁oih	-11.8806
ze	-11.8809
▁47	-11.8822
hti	-11.8834
▁ainz	-11.8837
▁stad	-11.8849
▁Or	-11.8853
▁erik	-11.8872
▁oker	-11.8874
▁hamp	-11.8875
▁lf	-11.8884
ova	-11.8888
▁helmi	-11.8888
▁Ori	-11.8889
▁tåhl	-11.8898
▁Virpi	-11.8899
▁erät	-11.8921
▁tykki	-11.8921
▁Rost	-11.8921
▁130	-11.8927
▁46	-11.894
▁Car	-11.8948
▁ride	-11.8951
▁esp	-11.8952
-5	-11.8955
▁nkar	-11.8963
▁kerh	-11.8977
▁Bil	-11.8987
▁stui	-11.8988
▁rieh	-11.8989
▁aadu	-11.9001
▁Ros	-11.9005
urma	-11.9007
▁api	-11.9011
▁upa	-11.9012
▁low	-11.9013
▁Law	-11.9016
▁54	-11.9019
▁gn	-11.9019
2	-11.9025
▁elg	-11.9029
▁Rosa	-11.9054
pu	-11.9058
▁äre	-11.9065
▁Ab	-11.9071
▁lakk	-11.9096
IA	-11.9104
NA	-11.9117
▁sjo	-11.9125
▁säh	-11.9126
▁lpp	-11.9128
▁vak	-11.913
▁ännä	-11.9137
▁jana	-11.9141
▁hyvi	-11.9157
epo	-11.9162
imb	-11.9167
▁uca	-11.9171
▁ahar	-11.9183
▁Paj	-11.9184
▁oist	-11.9187
▁vio	-11.9188
▁akav	-11.9193
▁ettaa	-11.92
▁arh	-11.9206
40	-11.9211
▁ilku	-11.9242
▁tiaa	-11.9244
▁oopp	-11.9245
ice	-11.9246
▁uota	-11.9248
▁gelma	-11.9251
▁lusta	-11.9252
ästä	-11.9252
ttaj	-11.9253
HO	-11.9257
käy	-11.9267
▁rais	-11.9272
▁evin	-11.9279
▁ilpp	-11.928
▁lissä	-11.9282
MP	-11.9284
▁virr	-11.9288
▁aupa	-11.9289
▁II	-11.9293
ukke	-11.9305
riz	-11.9312
▁öksi	-11.9319
H	-11.9325
▁mpu	-11.9338
▁Mal	-11.9347
▁ittä	-11.9375
▁Glob	-11.9375
▁Rein	-11.9391
umo	-11.9404
▁ikää	-11.9407
etz	-11.9415
iri	-11.9427
▁GM	-11.943
▁halpa	-11.943
▁teel	-11.9431
▁möki	-11.9437
▁24,	-11.9454
▁eme	-11.9454
▁ruun	-11.9469
▁too	-11.9471
▁äätö	-11.9475
▁mie	-11.9478
▁Lev	-11.9489
SB	-11.949
▁Amaz	-11.9494
LS	-11.9497
outa	-11.9498
mppa	-11.95
▁akki	-11.9503
▁unin	-11.9503
▁43	-11.9504
TP	-11.9506
▁wall	-11.9508
▁lot	-11.9511
▁mand	-11.9515
▁3,	-11.954
J	-11.9542
▁ool	-11.9562
esto	-11.957
▁ahte	-11.9571
▁äist	-11.961
iput	-11.9625
▁ling	-11.9628
▁ilkku	-11.9628
▁itui	-11.963
tur	-11.9632
▁vihk	-11.965
▁kkeen	-11.9661
▁Rönn	-11.9665
▁kust	-11.9676
▁Lin	-11.9678
▁etra	-11.9696
▁iana	-11.9698
▁uolt	-11.9701
▁vissä	-11.9701
pä	-11.9701
▁keva	-11.9703
▁erto	-11.9733
▁telm	-11.9738
uot	-11.974
▁idli	-11.974
▁rei	-11.974
▁Open	-11.975
▁kWh	-11.975
▁käry	-11.9752
▁Wild	-11.9755
▁sink	-11.9759
▁viid	-11.9764
za	-11.9765
BS	-11.977
▁arp	-11.9774
mist	-11.9779
▁ntal	-11.978
ace	-11.9786
▁alal	-11.9792
▁aili	-11.9799
▁Oik	-11.9804
75	-11.9815
▁dom	-11.9825
▁sch	-11.9826
▁ytyy	-11.9837
▁aiht	-11.9843
▁punk	-11.985
sb	-11.9854
▁kW	-11.986
▁ihi	-11.9864
▁aht	-11.9867
▁sänky	-11.9869
▁SJK	-11.9872
▁Op	-11.9875
id	-11.9885
▁erso	-11.9898
▁omer	-11.9905
ikka	-11.9906
▁amara	-11.9925
hö	-11.9927
▁Wat	-11.9927
urku	-11.9932
▁tre	-11.9936
▁äky	-11.9961
ust	-11.9963
▁taut	-11.9968
▁yste	-11.9977
▁roos	-11.998
eutu	-11.9991
▁etso	-11.9995
▁hang	-11.9997
▁HSL	-12
ead	-12.001
arku	-12.0011
▁Rub	-12.004
▁agle	-12.0041
▁aros	-12.0042
▁eelle	-12.0045
dot	-12.0046
▁aiho	-12.0059
ux	-12.0065
irut	-12.0071
▁emen	-12.0088
▁uots	-12.01
okki	-12.0107
▁ampo	-12.0114
▁eder	-12.0124
▁andr	-12.0124
▁Wahl	-12.0128
wer	-12.0129
8	-12.0138
▁sup	-12.0138
▁Barb	-12.0142
aaha	-12.015
▁ilkka	-12.0159
gor	-12.0179
ipu	-12.0184
6	-12.019
▁astr	-12.02
ctic	-12.0201
▁omme	-12.0209
▁juu	-12.0212
▁Jarn	-12.0212
aska	-12.0218
▁GT	-12.0221
▁olas	-12.0228
▁aako	-12.023
▁eivä	-12.024
urmi	-12.0241
▁ltava	-12.0251
▁Öst	-12.0262
▁epo	-12.0263
▁Clar	-12.0269
▁akob	-12.0269
YT	-12.0277
▁klub	-12.028
▁War	-12.0281
▁rman	-12.0298
▁ahoi	-12.0303
▁Ger	-12.0306
har	-12.031
oma	-12.0311
ac	-12.0325
▁orno	-12.033
▁eth	-12.033
▁astaa	-12.0338
▁oudo	-12.0339
▁lehm	-12.0343
▁arre	-12.0366
▁ej	-12.0368
▁Big	-12.0371
▁fer	-12.0374
aiva	-12.0378
▁Gar	-12.0388
▁Adri	-12.0393
▁31.	-12.0394
▁oaa	-12.0396
▁eel	-12.0397
▁ipsa	-12.0406
▁mp	-12.0408
ski	-12.0412
▁kuus	-12.0412
aur	-12.0413
▁aasi	-12.0423
▁nats	-12.0429
▁57	-12.0435
▁Pat	-12.0439
zon	-12.0446
▁Ross	-12.0453
▁52	-12.0455
▁aff	-12.0458
▁ysk	-12.0463
kent	-12.0473
▁sil	-12.0478
▁rmi	-12.0488
ga	-12.049
▁nossa	-12.0505
eppi	-12.0506
tra	-12.0515
▁49	-12.0518
▁EHT	-12.0527
dar	-12.0531
▁Cal	-12.0533
elle	-12.0536
oppi	-12.0537
ug	-12.0562
▁slo	-12.0567
▁önki	-12.0582
▁ukki	-12.0608
SG	-12.0631
iima	-12.0639
▁85	-12.0646
▁umpu	-12.0653
▁vert	-12.0658
▁Kov	-12.066
▁tsal	-12.0667
ura	-12.0668
med	-12.0671
▁tank	-12.0676
5	-12.0678
az	-12.068
▁TM	-12.0693
dor	-12.0694
▁urin	-12.0694
▁ikat	-12.0702
▁Lah	-12.071
▁laf	-12.0711
▁semp	-12.0718
▁korpi	-12.0719
ddy	-12.072
▁kur	-12.072
▁sapp	-12.0721
muel	-12.0722
▁Duba	-12.075
▁EV	-12.0754
▁itol	-12.0758
▁rvos	-12.0761
aulu	-12.0765
yer	-12.077
eve	-12.0794
▁EBU	-12.0811
▁Pro	-12.0812
▁urh	-12.0814
▁hark	-12.0815
▁kak	-12.0815
▁avis	-12.0816
▁ross	-12.083
▁dl	-12.0833
▁gall	-12.0843
▁jeng	-12.0846
▁Pes	-12.085
▁euk	-12.0853
▁hokki	-12.087
▁ntoon	-12.0872
▁tock	-12.0878
▁nolo	-12.0879
▁llo	-12.088
▁ntar	-12.088
▁pia	-12.0893
▁Lop	-12.0894
▁synt	-12.0894
▁tuur	-12.0899
ex	-12.0907
▁Š	-12.0912
▁cu	-12.0922
alg	-12.0926
▁leh	-12.0927
▁Stu	-12.0936
iik	-12.0938
homp	-12.0943
▁onaco	-12.0948
mb	-12.0949
▁hät	-12.095
▁lerc	-12.0952
▁uthi	-12.0952
▁ievi	-12.096
▁uter	-12.0964
▁lika	-12.0974
▁aps	-12.0979
▁Sag	-12.0998
▁Räis	-12.1015
▁öns	-12.102
▁kuj	-12.1024
▁outi	-12.1027
▁aami	-12.1027
▁Mun	-12.1032
▁hina	-12.1033
tler	-12.1036
▁elat	-12.1038
▁etes	-12.1039
▁unner	-12.1054
▁eilu	-12.1056
▁ompp	-12.1062
▁bar	-12.1066
TA	-12.1072
▁eivo	-12.1076
▁−	-12.1086
▁Gaud	-12.1088
▁uulos	-12.1097
▁käv	-12.1102
gy	-12.1106
rig	-12.111
▁140	-12.1115
▁ilto	-12.1121
ihl	-12.1128
а	-12.1132
▁Lov	-12.1136
nah	-12.1137
▁rooks	-12.1138
▁Lee	-12.114
▁Jar	-12.1148
▁olma	-12.1151
▁kille	-12.1152
▁Edu	-12.1155
O	-12.1186
▁Air	-12.1194
lf	-12.1197
▁lvi	-12.1209
▁imag	-12.1215
eppo	-12.1223
▁iete	-12.1228
▁azer	-12.1228
▁nuku	-12.1234
▁wood	-12.1241
jen	-12.1255
▁lmaa	-12.1256
orve	-12.1267
▁ooli	-12.1272
▁aukko	-12.1274
▁raam	-12.1275
▁ersu	-12.1276
▁tise	-12.1278
▁örk	-12.1279
ajo	-12.1284
▁ruc	-12.1285
▁asar	-12.1295
▁sav	-12.1296
▁acob	-12.1305
itz	-12.1308
▁alos	-12.1312
ira	-12.1312
väli	-12.1317
▁erkk	-12.1319
uck	-12.132
▁napp	-12.1342
mul	-12.135
akka	-12.1373
▁Comp	-12.1381
▁EPP	-12.1381
▁arne	-12.1383
▁edro	-12.1384
▁ämär	-12.139
▁Lipe	-12.1406
▁isney	-12.1414
▁3,5	-12.1416
▁Nas	-12.1418
▁56	-12.1422
▁graf	-12.143
▁rho	-12.1431
▁sema	-12.1446
▁nilk	-12.1453
▁nony	-12.1455
erb	-12.1456
tru	-12.1461
▁ipi	-12.1463
▁ulha	-12.1464
▁puj	-12.1465
▁orsa	-12.1467
▁off	-12.147
▁Gla	-12.1483
▁jumb	-12.1491
25	-12.1492
▁imai	-12.1493
▁umar	-12.1496
igu	-12.1497
SW	-12.15
▁rina	-12.1504
▁lij	-12.1506
min	-12.1509
▁iipp	-12.1525
mer	-12.1527
▁ledo	-12.1533
▁happo	-12.1537
▁Aira	-12.154
reet	-12.1557
▁kuun	-12.1564
▁äijä	-12.1565
▁lans	-12.1577
▁arro	-12.1578
tch	-12.1579
▁pih	-12.1591
▁dam	-12.1596
▁kuut	-12.1598
▁Cold	-12.1599
▁ondo	-12.1604
iff	-12.1608
akuu	-12.1615
▁Vai	-12.1618
▁naps	-12.1623
dut	-12.1625
▁urme	-12.1629
▁lant	-12.1632
jä	-12.1638
▁tikk	-12.1642
ax	-12.1642
▁US	-12.1643
ouko	-12.1658
▁sort	-12.167
▁WLTP	-12.1679
▁soa	-12.1695
▁110	-12.1702
väl	-12.1709
▁ärt	-12.1718
▁otii	-12.1747
▁kouk	-12.1748
▁rink	-12.175
▁Urs	-12.1753
▁4,	-12.1755
▁rön	-12.1763
▁iisaa	-12.1768
▁hame	-12.1769
aput	-12.1788
▁ril	-12.1791
▁Verh	-12.1791
▁Ero	-12.1795
▁repp	-12.1799
yers	-12.1799
mppu	-12.1822
▁RoKi	-12.1833
▁øiby	-12.1833
▁teph	-12.184
▁62	-12.1847
▁Bell	-12.1851
▁piru	-12.1872
▁aalt	-12.1875
▁öd	-12.1885
▁ehj	-12.1889
▁irst	-12.1895
▁Amb	-12.1899
metr	-12.1901
▁meen	-12.1907
uff	-12.1915
mor	-12.192
ina	-12.1929
▁Kia	-12.1929
met	-12.1941
▁Cost	-12.1946
▁ääst	-12.1957
▁aluk	-12.1978
▁Bal	-12.1988
▁ADHD	-12.1989
▁lamp	-12.1991
▁Kaij	-12.1991
▁luuk	-12.1995
▁inger	-12.2001
▁udis	-12.201
ajur	-12.2029
▁acka	-12.203
▁foo	-12.2039
ima	-12.2051
▁arge	-12.2054
▁lopp	-12.2055
▁Pas	-12.2058
▁lanc	-12.2063
pp	-12.2071
▁Alfa	-12.2076
▁Veri	-12.2076
och	-12.2086
▁repe	-12.209
▁tab	-12.2098
hmu	-12.2103
▁Kont	-12.2103
▁uuha	-12.2105
▁kark	-12.2106
▁rkin	-12.2124
▁arr	-12.213
▁urri	-12.215
▁emer	-12.2155
▁atem	-12.2157
▁kup	-12.216
▁uhl	-12.2166
▁unde	-12.218
▁ärsk	-12.2186
tämä	-12.2189
▁roth	-12.2196
▁urkku	-12.2208
even	-12.2208
▁rida	-12.2211
inuu	-12.2213
▁Bab	-12.2222
kun	-12.2228
▁iky	-12.2228
idz	-12.2235
ody	-12.2247
10	-12.2256
▁kuor	-12.2263
▁syi	-12.2284
nig	-12.2285
▁lap	-12.2285
▁kyp	-12.2288
▁dire	-12.2315
▁hein	-12.2316
▁Hell	-12.2318
▁litse	-12.2319
▁kass	-12.2322
▁sym	-12.2323
▁iipo	-12.2327
krob	-12.2328
▁OI	-12.2338
▁ager	-12.2339
urki	-12.2342
rod	-12.2345
eid	-12.2346
ummu	-12.2351
▁sinut	-12.2364
▁uivu	-12.2376
▁nb	-12.2381
▁rla	-12.2394
▁kond	-12.2406
▁irku	-12.244
kan	-12.2446
▁usku	-12.245
iho	-12.2453
▁pyr	-12.2466
▁rki	-12.2467
▁esko	-12.2473
▁dis	-12.2473
▁NFL	-12.2473
▁niis	-12.2474
▁Miha	-12.2476
epe	-12.2483
▁Tuul	-12.2491
▁öid	-12.2498
▁Rodr	-12.25
▁isso	-12.2502
е	-12.2511
55	-12.2516
▁rapp	-12.2525
▁ailu	-12.2542
sf	-12.2543
▁har	-12.2555
▁tahti	-12.2572
▁Sav	-12.2575
▁asto	-12.2589
▁staf	-12.2596
▁ring	-12.2603
hmo	-12.2606
bul	-12.2613
oyd	-12.2633
▁laam	-12.2639
▁1-2	-12.2642
▁58	-12.2643
▁mouth	-12.2647
▁gel	-12.2649
ack	-12.265
▁ogg	-12.2652
▁tala	-12.2659
▁Mos	-12.2662
▁Gard	-12.2663
▁Virr	-12.2664
▁vii	-12.2671
▁Nige	-12.2675
▁nero	-12.2682
▁leuk	-12.2692
▁abin	-12.2704
▁hiff	-12.2707
▁aila	-12.2709
ärkä	-12.2716
▁rapu	-12.2728
oppa	-12.2736
▁dea	-12.2738
▁usse	-12.274
▁aamaa	-12.2745
▁nnek	-12.2745
▁äck	-12.2747
pin	-12.2748
ub	-12.2759
▁ione	-12.2759
▁gam	-12.2759
zh	-12.2765
▁64	-12.2768
LL	-12.2769
olo	-12.2774
▁lako	-12.2788
▁orni	-12.2789
tti	-12.2808
▁3-4	-12.2809
▁urvo	-12.2813
▁loks	-12.2813
▁ador	-12.2826
▁rey	-12.2829
aido	-12.2834
▁hou	-12.2836
▁amf	-12.2842
▁orto	-12.2857
▁72	-12.2874
▁agma	-12.2882
▁á	-12.2886
▁kiv	-12.2911
35	-12.2917
auma	-12.2919
▁IC	-12.2921
▁rigo	-12.2932
ampp	-12.2937
▁ence	-12.2941
/	-12.2953
▁aute	-12.2954
▁sap	-12.296
ift	-12.2962
▁itin	-12.2964
unau	-12.2965
▁vere	-12.2966
ér	-12.2973
▁lott	-12.2977
▁irror	-12.2983
▁ynä	-12.2984
▁sip	-12.2991
▁medi	-12.2992
▁tauko	-12.2994
▁sikk	-12.2998
,0	-12.3002
▁olum	-12.3006
▁alama	-12.3007
▁vaim	-12.3013
tor	-12.3018
▁eas	-12.3028
uki	-12.3036
▁rima	-12.3046
▁pale	-12.3054
▁ago	-12.3059
▁Jer	-12.3062
▁82	-12.3065
▁aupp	-12.3073
▁desi	-12.3073
▁jev	-12.3104
▁intia	-12.3109
iusa	-12.3109
▁lang	-12.3121
▁dahl	-12.316
▁ophi	-12.3163
▁BY	-12.3164
▁stock	-12.3164
ark	-12.3172
▁umni	-12.3176
▁ICC	-12.3176
▁amen	-12.3179
osc	-12.3189
▁450	-12.3191
▁rila	-12.3194
▁err	-12.3199
▁dorf	-12.3207
▁Rob	-12.3209
lgar	-12.3211
▁lind	-12.3212
▁taku	-12.3212
▁ramm	-12.3217
▁ohto	-12.322
▁ulka	-12.3223
▁likk	-12.3224
▁lasit	-12.3246
rhe	-12.3265
▁ikol	-12.3266
▁raus	-12.3275
▁Cas	-12.3278
▁Tee	-12.3287
lob	-12.329
oz	-12.3299
-7	-12.3321
▁loog	-12.3336
anto	-12.3349
nes	-12.3353
▁Nar	-12.3354
▁imar	-12.3355
▁67	-12.3363
▁AKT	-12.3367
▁otin	-12.3369
alf	-12.3369
▁Lak	-12.338
▁eff	-12.3388
▁6,	-12.3396
▁ymä	-12.3398
▁ahka	-12.341
diz	-12.3413
▁itma	-12.342
▁pall	-12.3426
▁oje	-12.3442
▁maj	-12.3444
▁ufva	-12.3449
eulo	-12.3463
▁kast	-12.3463
▁isy	-12.3464
▁nek	-12.3466
▁soke	-12.3471
▁ipal	-12.3472
▁uman	-12.3472
▁95	-12.3476
▁alou	-12.3499
▁laud	-12.3503
▁onas	-12.3506
cker	-12.3507
▁ezi	-12.3507
▁OP	-12.3516
▁olar	-12.3521
▁uci	-12.3522
▁geo	-12.3531
▁byr	-12.3531
▁Card	-12.3535
▁Nobe	-12.3541
▁kkoon	-12.3544
uuna	-12.355
▁ESP	-12.3557
3	-12.3567
eits	-12.3574
▁aler	-12.3584
pal	-12.3597
▁med	-12.3597
▁agr	-12.3603
ence	-12.3605
▁ärpi	-12.3616
ippi	-12.3619
arvo	-12.3621
▁ökkä	-12.3626
aula	-12.3634
▁annet	-12.3642
▁TP	-12.3647
▁hart	-12.3651
ng	-12.3664
▁ice	-12.3666
▁disk	-12.3672
▁aapo	-12.3675
▁uill	-12.3681
ast	-12.3708
upla	-12.371
und	-12.3716
▁agua	-12.3717
▁Haat	-12.3719
▁IIH	-12.373
▁Mir	-12.3731
▁kane	-12.3737
▁5,5	-12.3746
▁diok	-12.3748
▁ck	-12.3754
▁iiku	-12.3755
▁hort	-12.3756
▁Etu	-12.3763
▁tš	-12.3767
▁sakon	-12.3775
▁iota	-12.3792
ras	-12.3793
iber	-12.3809
uuro	-12.3818
▁Verm	-12.3824
▁tör	-12.3827
▁Eve	-12.3827
▁haw	-12.383
▁Kump	-12.3833
▁lusi	-12.3839
sor	-12.3854
▁Vie	-12.3854
eimo	-12.3869
▁kula	-12.3887
▁SYÖ	-12.3891
▁torp	-12.3894
ortu	-12.3895
▁itsa	-12.3895
▁Vah	-12.3906
▁iinaa	-12.3909
▁uent	-12.3918
▁omar	-12.3923
iro	-12.3924
▁epi	-12.3926
▁dan	-12.3942
▁eitse	-12.3949
▁lpin	-12.3951
▁yg	-12.3956
▁Edw	-12.3957
▁53	-12.3964
▁uupa	-12.3967
▁kilv	-12.3974
▁olva	-12.3976
▁laum	-12.3978
▁rett	-12.3986
▁saac	-12.3987
▁surk	-12.3999
▁iida	-12.4006
▁Cole	-12.4008
▁apar	-12.4018
ci	-12.4022
▁Maz	-12.4027
del	-12.4038
▁täh	-12.4039
▁ossu	-12.404
▁näp	-12.4044
WF	-12.4049
aple	-12.4055
▁liiv	-12.4057
▁viru	-12.4063
iisa	-12.4064
▁emu	-12.4074
07	-12.4086
▁war	-12.4088
geo	-12.4089
▁Grah	-12.4099
▁Oul	-12.4109
▁oksen	-12.4112
▁Match	-12.4112
▁Herm	-12.4128
▁bra	-12.4133
▁Fif	-12.4136
▁roi	-12.4137
rpi	-12.4141
▁duum	-12.4146
▁kumpu	-12.4153
▁layo	-12.4154
▁Gra	-12.4161
▁eed	-12.4172
▁Sala	-12.4176
▁Usk	-12.4194
▁Osm	-12.4203
KV	-12.4205
85	-12.4207
lut	-12.4221
▁enge	-12.4232
▁Gre	-12.424
▁utte	-12.4249
▁rosk	-12.4251
IF	-12.4258
ied	-12.4269
▁niska	-12.4272
astr	-12.4272
▁2-0	-12.428
▁orbes	-12.428
▁AOP	-12.4284
▁otet	-12.4284
OS	-12.4286
ikki	-12.4289
▁hur	-12.429
dog	-12.4294
▁Del	-12.4298
▁iehu	-12.4306
▁Temp	-12.4309
▁söi	-12.4313
▁ijo	-12.4326
▁nell	-12.4328
▁iego	-12.4329
▁rosta	-12.433
isko	-12.4333
▁ihd	-12.4335
▁styl	-12.4351
olku	-12.4353
▁uits	-12.4354
▁oppo	-12.4357
ž	-12.4369
▁gl	-12.4369
▁mär	-12.4376
▁auke	-12.4384
jer	-12.4384
empi	-12.4386
á	-12.4389
▁bel	-12.4395
Tu	-12.4404
▁aitl	-12.4409
▁kien	-12.4415
▁Go	-12.4417
▁omeo	-12.4421
▁saad	-12.4425
▁59	-12.443
asma	-12.4434
▁ahe	-12.4434
avig	-12.4436
cy	-12.4445
mal	-12.4451
ler	-12.4455
▁BC	-12.4468
CA	-12.4471
▁aisio	-12.4471
él	-12.4474
W	-12.4478
▁ueen	-12.4478
▁idl	-12.4478
▁rost	-12.448
▁imit	-12.4481
▁karu	-12.4482
▁hapo	-12.4484
▁arpe	-12.4486
▁impu	-12.4488
▁iq	-12.4489
▁lapu	-12.449
▁Mai	-12.4491
▁68	-12.4494
rff	-12.4502
▁lakki	-12.4507
CR	-12.4509
▁Rolf	-12.452
▁telut	-12.4521
▁8,	-12.4524
▁säl	-12.453
▁upla	-12.4544
TO	-12.4544
▁owl	-12.4544
▁88	-12.4554
ung	-12.4555
▁uz	-12.4555
ohl	-12.4557
zb	-12.4558
▁Sé	-12.4559
▁tipa	-12.456
▁duun	-12.456
▁Tah	-12.4565
▁kuppi	-12.4567
▁izz	-12.4568
▁Rat	-12.4577
aq	-12.459
▁Nils	-12.4612
▁lobe	-12.4614
▁77	-12.4618
▁uim	-12.4622
nik	-12.4633
uski	-12.4635
▁ndy	-12.4665
▁pain	-12.4665
oth	-12.467
▁ynni	-12.4676
hku	-12.4676
▁Wolf	-12.4692
▁ilp	-12.4712
ance	-12.4718
hma	-12.472
▁ölkk	-12.4721
▁Lamb	-12.4724
▁69	-12.4729
▁Terh	-12.4738
▁adal	-12.4745
▁rodu	-12.4747
alz	-12.4759
olpp	-12.4765
▁Abba	-12.4773
▁urst	-12.4777
▁Mali	-12.4777
▁Abu	-12.4777
▁Geo	-12.4783
▁selk	-12.4796
▁säk	-12.4801
▁dal	-12.4802
GA	-12.4807
▁iand	-12.4809
kim	-12.4814
▁Con	-12.4821
▁lmo	-12.4824
▁race	-12.4824
▁assit	-12.4838
▁opra	-12.4868
▁1)	-12.4871
▁Suu	-12.4875
▁Tre	-12.4881
ud	-12.4883
▁Cin	-12.4888
▁milla	-12.4896
▁BB	-12.4896
▁63	-12.4906
▁Aff	-12.4908
▁orre	-12.4912
eita	-12.4918
▁kila	-12.4924
▁neid	-12.4931
▁2)	-12.4933
▁vid	-12.4933
▁RB	-12.4933
ijer	-12.4937
ge	-12.4946
▁intää	-12.4946
▁ianc	-12.4953
hah	-12.4953
pur	-12.4953
▁väll	-12.4954
▁sot	-12.497
▁Bir	-12.4982
▁amid	-12.4983
▁Hild	-12.4983
onja	-12.4984
▁far	-12.4984
▁okuva	-12.4985
▁aster	-12.4988
▁uolla	-12.4996
war	-12.5003
▁Mond	-12.5005
▁Call	-12.5007
▁kius	-12.5008
▁aint	-12.5012
impu	-12.502
▁hok	-12.5026
▁erre	-12.5046
etš	-12.5057
▁isco	-12.5057
▁imbe	-12.5073
▁onnu	-12.5074
▁66	-12.5075
▁61	-12.5077
▁Dub	-12.5091
oud	-12.5101
▁öysti	-12.5106
▁Fab	-12.511
▁86	-12.5111
▁Macc	-12.5112
▁oost	-12.5115
▁STM	-12.5115
▁rog	-12.5117
▁ipsi	-12.512
▁Robb	-12.5123
▁ursu	-12.5125
put	-12.5127
▁äytt	-12.5132
▁Sol	-12.5137
▁hirs	-12.514
cz	-12.5143
▁rynt	-12.5144
▁lase	-12.5145
▁raas	-12.5146
▁malle	-12.5153
▁utch	-12.5166
▁Airi	-12.5174
▁Hard	-12.5179
▁kran	-12.5191
II	-12.5224
▁ales	-12.5232
▁Caru	-12.5236
wa	-12.5254
▁Top	-12.5257
▁ttor	-12.528
▁rip	-12.5282
▁Gib	-12.5285
irg	-12.5302
▁73	-12.5304
▁Tul	-12.5306
▁Kumm	-12.5319
▁utsa	-12.532
▁apnea	-12.5323
▁Bird	-12.5329
▁ård	-12.533
▁ärmä	-12.533
▁5,	-12.5331
▁Ron	-12.5349
▁Kah	-12.5355
▁Lai	-12.5358
▁tyvä	-12.5364
▁solm	-12.5365
▁Lar	-12.5367
impp	-12.5369
▁ridg	-12.5377
cke	-12.538
sid	-12.5383
elli	-12.5384
▁Ritv	-12.5388
▁ban	-12.5398
lon	-12.5404
▁juna	-12.5407
ric	-12.541
▁eton	-12.5415
▁akis	-12.542
▁och	-12.5421
▁roks	-12.5436
oke	-12.5449
▁arsa	-12.5452
oro	-12.5456
▁imak	-12.5494
▁odo	-12.5498
▁87	-12.5509
▁öp	-12.5525
▁ynee	-12.5528
▁arri	-12.5529
▁die	-12.5537
▁lonso	-12.5549
▁absu	-12.5556
▁liek	-12.5563
▁reda	-12.5565
▁Gord	-12.5569
▁74	-12.5571
▁lank	-12.5581
▁oday	-12.5593
▁neul	-12.5609
▁repi	-12.5612
▁npi	-12.5624
▁komp	-12.563
▁lig	-12.5632
95	-12.5632
▁Armi	-12.5636
▁lach	-12.5644
amo	-12.5645
▁Cy	-12.5657
▁appo	-12.5662
▁ripp	-12.5685
▁asvu	-12.5695
▁Iit	-12.5706
ihk	-12.5731
▁dler	-12.575
zy	-12.5752
▁okki	-12.5759
28	-12.5768
▁own	-12.577
▁argu	-12.5772
▁stedt	-12.5773
iehu	-12.578
▁imin	-12.5785
▁kaku	-12.5794
▁ouhe	-12.5806
▁otsh	-12.5809
▁Doug	-12.5816
▁iola	-12.582
▁4,5	-12.5821
SJ	-12.5823
▁nava	-12.5823
▁uhma	-12.5824
▁leipä	-12.5829
▁ukal	-12.5832
▁ndia	-12.5833
▁JP	-12.5834
▁reiv	-12.5841
▁yiv	-12.5845
▁raud	-12.5849
▁tistä	-12.5857
▁meka	-12.5858
▁VR	-12.587
▁arku	-12.588
▁loj	-12.5889
65	-12.589
▁rum	-12.5896
▁ikei	-12.59
▁dos	-12.5905
▁AI	-12.5906
▁melu	-12.5928
agb	-12.5929
▁yper	-12.593
oor	-12.5937
▁ongo	-12.5938
▁ilton	-12.5957
ika	-12.5964
▁üri	-12.5964
▁etz	-12.5974
▁Nea	-12.5982
app	-12.5991
▁itul	-12.6007
▁evge	-12.6007
▁Ap	-12.602
▁Wing	-12.6021
▁iman	-12.6031
▁oihu	-12.6032
ound	-12.6035
▁east	-12.6038
▁alib	-12.6045
17	-12.6052
▁keis	-12.6052
▁Eng	-12.6055
aju	-12.6056
▁rol	-12.6062
▁Thor	-12.6064
▁Kurp	-12.6079
ré	-12.6092
Se	-12.6092
▁Aarn	-12.6094
45	-12.6098
▁laid	-12.6113
▁htuu	-12.6114
▁Hai	-12.6131
▁innon	-12.6132
▁Line	-12.6146
▁agen	-12.6147
uro	-12.6149
ban	-12.6157
▁ouka	-12.6162
▁Pep	-12.6165
▁mökk	-12.6168
TK	-12.6173
▁eci	-12.6177
▁ävää	-12.6177
rik	-12.6182
▁Id	-12.6183
▁IF	-12.6184
▁taid	-12.6185
kut	-12.6194
▁Nig	-12.6199
▁reg	-12.6207
eed	-12.6207
▁kupl	-12.6221
▁Sur	-12.6222
▁aua	-12.6226
▁kumm	-12.6227
▁Kupi	-12.624
▁3-0	-12.6242
▁Airb	-12.6246
▁acq	-12.6246
▁2-1	-12.6247
▁rince	-12.6251
▁Gaz	-12.6254
▁iffe	-12.626
▁rkl	-12.6274
▁ries	-12.6276
▁9,	-12.6279
uni	-12.6282
▁East	-12.6283
▁kama	-12.6284
▁leff	-12.6287
▁DC	-12.6288
▁MV	-12.6302
▁kaar	-12.6302
▁deit	-12.6312
▁ulh	-12.6313
▁SKA	-12.6331
▁ske	-12.6343
▁Öl	-12.6352
▁ody	-12.6354
▁arci	-12.6356
í	-12.6357
▁ilpe	-12.6359
11	-12.636
▁miet	-12.636
▁ga	-12.6363
▁ostu	-12.6375
SA	-12.6384
▁Wald	-12.6397
▁iton	-12.6421
▁iuha	-12.6425
▁ouri	-12.6435
▁Hol	-12.6437
▁utsu	-12.6439
▁rump	-12.644
▁oiko	-12.6442
▁Cha	-12.6446
▁sod	-12.6452
▁ohv	-12.6453
▁kool	-12.6453
26	-12.6456
▁Wemb	-12.6488
▁Alf	-12.6492
▁graa	-12.6502
▁Saha	-12.6505
▁Kaun	-12.6517
▁Haw	-12.652
▁syn	-12.6533
ervo	-12.6534
▁7,	-12.6537
▁Ast	-12.6537
▁raad	-12.6541
aš	-12.6545
▁pihv	-12.6551
▁Reb	-12.6557
▁haro	-12.6565
isku	-12.6567
▁usic	-12.6569
▁nip	-12.6574
▁site	-12.6578
▁liff	-12.6578
▁3)	-12.6579
AN	-12.6581
SN	-12.6589
▁Mars	-12.6604
▁aw	-12.663
▁loa	-12.6635
oona	-12.6645
▁uj	-12.6649
▁paj	-12.6656
Y	-12.6661
bot	-12.6669
onz	-12.667
▁achu	-12.6675
▁Aug	-12.6675
▁Lip	-12.6695
▁lyk	-12.6738
▁1-3	-12.674
uuta	-12.6743
UE	-12.675
▁olour	-12.6753
▁112	-12.6754
▁alhe	-12.6758
ment	-12.6758
▁rix	-12.6771
dok	-12.6772
esp	-12.6773
▁rook	-12.678
▁losta	-12.678
▁kert	-12.6785
stö	-12.6785
▁nic	-12.6802
▁ulit	-12.6803
▁näpp	-12.6807
eif	-12.6821
▁pai	-12.6844
▁sato	-12.685
▁sos	-12.6856
ikk	-12.6863
▁Rem	-12.6875
▁eini	-12.6877
18	-12.6898
▁lata	-12.6906
▁himm	-12.6909
▁äij	-12.691
▁rau	-12.6913
rje	-12.6919
▁touk	-12.6936
tsh	-12.6937
▁post	-12.6946
▁Syk	-12.6959
▁arik	-12.696
▁81	-12.6963
▁Ara	-12.6964
lehd	-12.6966
▁maut	-12.6967
▁bu	-12.6978
▁adon	-12.6978
fy	-12.6979
▁Taur	-12.6982
rho	-12.6992
▁eur	-12.6994
▁gor	-12.6996
▁lick	-12.7003
▁uzen	-12.7003
▁ooga	-12.7008
▁lui	-12.7017
äpy	-12.702
▁Novo	-12.7022
▁rty	-12.7027
▁EX	-12.7034
PM	-12.7038
▁uven	-12.7043
neet	-12.7052
▁Jim	-12.7061
▁over	-12.707
▁sing	-12.7072
▁Xin	-12.7075
▁ygår	-12.7076
▁Cola	-12.7092
▁yhti	-12.7111
▁ryp	-12.712
IP	-12.7121
▁Fit	-12.7124
▁orv	-12.7126
ikro	-12.7127
sz	-12.7151
и	-12.7158
48	-12.7162
▁puuro	-12.7166
▁TS	-12.7167
▁92	-12.7168
▁Well	-12.7171
▁kosm	-12.7172
▁78	-12.7186
▁ömä	-12.7192
▁ukin	-12.7214
▁läs	-12.7238
▁Lag	-12.725
▁Crui	-12.726
▁ärnä	-12.7264
▁solu	-12.7277
▁tyrm	-12.7278
▁mages	-12.7281
19	-12.7282
▁vent	-12.7284
▁altt	-12.7286
▁Hang	-12.7289
▁Kaj	-12.7289
ahl	-12.7294
ppil	-12.7297
▁Mona	-12.7297
▁Iina	-12.7302
▁amil	-12.7306
rum	-12.7309
rav	-12.7317
▁aston	-12.7318
▁Stev	-12.7319
▁alpa	-12.7324
eaf	-12.7325
los	-12.7329
▁riin	-12.7334
▁Ox	-12.7337
▁eld	-12.7342
mir	-12.7343
▁Fon	-12.7344
önkä	-12.7347
▁rent	-12.735
▁Ruu	-12.7352
atch	-12.7356
▁ipr	-12.7371
ilkk	-12.7373
▁trat	-12.7375
HC	-12.7379
▁rend	-12.7386
▁eliv	-12.7388
▁kärk	-12.7391
KK	-12.7396
▁lepp	-12.7405
▁nain	-12.741
ulva	-12.7413
▁reet	-12.7413
laud	-12.7416
▁Nil	-12.7416
BU	-12.7422
▁fest	-12.7424
▁91	-12.7426
66	-12.7428
▁rille	-12.7446
▁lipa	-12.7451
aivo	-12.7453
▁71	-12.7458
▁rail	-12.7459
▁osle	-12.7469
▁eimo	-12.7472
▁LS	-12.748
ppu	-12.7482
▁Aar	-12.7485
änni	-12.7514
▁Morg	-12.7527
▁Kaski	-12.7528
▁buua	-12.7528
▁3-1	-12.7528
▁ough	-12.7534
▁Dire	-12.7545
▁Haag	-12.7546
▁1:	-12.7548
▁sääd	-12.7563
ph	-12.7568
▁ämpp	-12.7569
VA	-12.7573
▁å	-12.7578
▁210	-12.758
▁iant	-12.7581
▁ikaa	-12.7588
▁harm	-12.7592
▁Die	-12.7595
▁Com	-12.7604
▁Cyr	-12.7606
▁way	-12.7611
iko	-12.7611
uihk	-12.7612
▁в	-12.7616
▁lif	-12.7623
pö	-12.7626
äry	-12.7634
▁hell	-12.7647
▁road	-12.7647
▁com	-12.7648
▁Der	-12.7653
▁76	-12.7661
▁oly	-12.7664
▁suol	-12.7673
▁Merv	-12.7675
tep	-12.7676
▁iano	-12.7677
▁eipa	-12.7678
opp	-12.768
▁hii	-12.7681
▁Skin	-12.7682
ube	-12.7686
▁ijoi	-12.7686
▁opin	-12.7687
go	-12.7695
▁maaj	-12.7697
lé	-12.7704
atz	-12.7706
wan	-12.7712
▁allu	-12.7715
red	-12.772
▁Tör	-12.7732
aga	-12.7735
▁halp	-12.7736
arma	-12.7758
▁Oss	-12.7784
▁Far	-12.7785
▁Crai	-12.7786
▁omee	-12.7796
▁imrå	-12.7804
YS	-12.7805
EN	-12.7809
▁turb	-12.7809
▁Djur	-12.781
LA	-12.7829
▁urpe	-12.783
▁weg	-12.7832
▁Varo	-12.7834
▁uilu	-12.784
▁Bas	-12.7851
▁rob	-12.7854
▁RE	-12.7858
▁älli	-12.7863
jev	-12.7865
ossu	-12.787
▁vaksi	-12.7871
▁0,	-12.7873
sw	-12.7873
▁dyna	-12.7881
▁nuut	-12.7882
▁kyä	-12.7883
▁auer	-12.7884
isco	-12.7886
▁kolo	-12.7888
▁pest	-12.789
▁oup	-12.7898
▁atsas	-12.7899
▁89	-12.79
▁liho	-12.7903
▁Duc	-12.7903
▁ream	-12.7906
▁Wic	-12.7921
▁Ram	-12.793
▁amol	-12.7931
▁agan	-12.7932
▁ruma	-12.7933
iq	-12.7933
bor	-12.7935
▁rypt	-12.7937
Ä	-12.7938
▁tupa	-12.795
▁hill	-12.7955
▁Saks	-12.7964
▁naku	-12.7966
▁very	-12.7969
▁row	-12.7969
▁ief	-12.7975
▁Walt	-12.7989
99	-12.7993
ompp	-12.7994
mand	-12.8004
▁utoa	-12.8018
▁ushi	-12.8022
▁onee	-12.8024
PV	-12.8025
▁Aw	-12.8026
02	-12.8033
▁One	-12.8037
ayb	-12.8052
idž	-12.8063
▁nuol	-12.8071
14	-12.8072
▁arte	-12.8076
-8	-12.8082
▁1-0	-12.809
▁Digi	-12.809
▁ebab	-12.809
gar	-12.8092
▁luulo	-12.8094
▁orce	-12.8095
▁Glad	-12.8099
▁Arve	-12.8103
▁ahmi	-12.8106
▁kapp	-12.8108
hab	-12.8111
▁ärkk	-12.8114
▁Ann	-12.8115
▁iepi	-12.8116
rob	-12.8116
ago	-12.8116
▁ddi	-12.8119
PA	-12.8119
04	-12.8125
▁ubar	-12.814
▁Sul	-12.8147
▁rnes	-12.8151
▁tomi	-12.8158
24	-12.8164
▁Aren	-12.8172
▁ohtu	-12.8172
▁Ark	-12.8173
rla	-12.818
arra	-12.8182
emil	-12.819
▁PP	-12.8209
▁Wire	-12.824
ER	-12.8241
68	-12.8243
▁räp	-12.8265
▁lepä	-12.8266
▁Gio	-12.8275
▁hip	-12.8275
▁hint	-12.8279
jouk	-12.8281
78	-12.8286
▁Vivi	-12.8293
▁epsi	-12.8302
▁Kiir	-12.8306
у	-12.8312
uud	-12.8316
▁Mod	-12.833
▁oust	-12.8332
▁lavi	-12.8336
▁Cit	-12.8337
▁nda	-12.8342
zer	-12.8348
▁lum	-12.8349
appa	-12.8351
▁liä	-12.8354
▁Cat	-12.8356
▁elija	-12.8359
TV	-12.8362
▁rilla	-12.8373
"	-12.8378
▁Dow	-12.8382
▁chi	-12.8385
▁lipp	-12.8386
▁uzuk	-12.8388
▁ränti	-12.8393
▁uonio	-12.8397
uaal	-12.8399
▁ount	-12.84
▁Rain	-12.8411
▁icci	-12.8411
▁tahra	-12.8413
▁rall	-12.8413
▁ango	-12.8416
▁layer	-12.842
▁ioni	-12.8426
▁Toiv	-12.8426
▁abso	-12.8429
TT	-12.843
▁nif	-12.8441
urbo	-12.8442
▁lossa	-12.8443
▁Viho	-12.8448
▁Live	-12.8468
eiru	-12.8483
▁odge	-12.8488
▁2,3	-12.8492
▁alpp	-12.8493
▁ärkä	-12.8503
▁ihar	-12.8505
ó	-12.8505
▁amps	-12.8506
▁lip	-12.8511
13	-12.8532
▁hof	-12.8534
92	-12.8538
▁patj	-12.8539
▁nly	-12.8542
▁nom	-12.8545
ofe	-12.8561
▁onro	-12.8565
▁tage	-12.8573
EF	-12.8574
▁MG	-12.8577
UL	-12.8592
able	-12.8593
▁try	-12.8603
▁auhi	-12.8616
▁arib	-12.8618
▁äpi	-12.862
▁räss	-12.8621
▁79	-12.8622
▁ouna	-12.8624
▁bau	-12.8639
▁Nost	-12.8647
▁reik	-12.8651
59	-12.8674
iska	-12.8675
_	-12.8687
▁ärhä	-12.8687
▁vauv	-12.8688
tew	-12.8692
▁amat	-12.8695
▁buff	-12.8696
▁Ad	-12.8699
▁Poh	-12.8702
▁by	-12.8705
77	-12.8706
▁lama	-12.8714
opra	-12.8717
▁Tart	-12.8718
AA	-12.8729
▁önkkö	-12.8733
▁Roz	-12.8733
▁iron	-12.8735
TI	-12.8744
▁Carr	-12.8745
▁ange	-12.8761
31	-12.8771
▁lyps	-12.8771
▁HD	-12.8772
▁ärin	-12.8777
▁ugen	-12.8779
▁gran	-12.8781
▁HC	-12.8782
▁1,7	-12.8783
SO	-12.8784
▁ecc	-12.8784
OR	-12.8786
onni	-12.879
51	-12.8796
▁uoks	-12.8806
▁elde	-12.8806
▁Korv	-12.8814
▁vens	-12.8819
▁onse	-12.8827
▁Bad	-12.883
▁Nag	-12.8831
ía	-12.8834
▁lips	-12.8837
▁aked	-12.884
aug	-12.8842
▁urry	-12.8847
▁aš	-12.8848
▁Rad	-12.8848
hro	-12.8891
▁ppä	-12.8903
▁kets	-12.8916
▁ox	-12.8923
▁SSA	-12.8931
▁Rasi	-12.8932
eff	-12.8939
▁ursi	-12.8942
▁96	-12.8961
+1	-12.8996
MAA	-12.8996
▁With	-12.9
▁ryk	-12.9004
YÖS	-12.9005
▁öpö	-12.9007
▁IBA	-12.9009
▁arth	-12.9018
▁naud	-12.9026
▁lppi	-12.9027
▁ouch	-12.9036
▁rie	-12.904
▁huul	-12.9048
▁oran	-12.905
omul	-12.9053
roz	-12.9063
BK	-12.9066
▁ux	-12.9076
▁Heat	-12.9077
▁lupia	-12.9084
▁240	-12.9085
▁oili	-12.9086
▁impa	-12.9086
JH	-12.9091
▁einu	-12.9093
▁mpin	-12.9097
▁4)	-12.9099
▁Vär	-12.9107
▁rib	-12.9108
enno	-12.9109
den	-12.911
dur	-12.9111
▁Cam	-12.9127
▁Abra	-12.9129
▁spr	-12.9137
▁sha	-12.9141
▁TE	-12.9148
urss	-12.9151
44	-12.9158
33	-12.9159
▁lien	-12.916
▁adre	-12.9161
▁ahl	-12.9163
▁tria	-12.9171
▁elkk	-12.918
sch	-12.9188
▁pie	-12.9188
▁99	-12.9201
76	-12.921
▁alil	-12.922
▁ehke	-12.9261
▁nyk	-12.9265
▁Carl	-12.9266
lam	-12.928
▁vene	-12.9285
PR	-12.9292
▁now	-12.9299
▁äjän	-12.9313
▁alah	-12.9314
Q	-12.9315
▁Lea	-12.9317
Ã	-12.9322
▁muna	-12.9324
▁Road	-12.9324
ww	-12.9324
▁Cross	-12.9326
▁lames	-12.9329
▁warz	-12.9329
▁rkad	-12.9335
▁Cour	-12.9347
ede	-12.9349
▁ahna	-12.9352
▁laza	-12.9353
▁Hag	-12.9354
lvi	-12.9354
bar	-12.9356
▁Obs	-12.9359
ix	-12.936
▁vino	-12.9364
▁ül	-12.9368
▁Rei	-12.937
▁aado	-12.9371
47	-12.9372
ador	-12.9373
▁KD	-12.9373
▁naru	-12.9373
DF	-12.9374
urz	-12.9375
emp	-12.9377
▁wit	-12.9381
▁orit	-12.9385
▁God	-12.9388
▁Šo	-12.9396
27	-12.9402
▁ambe	-12.9405
▁Dep	-12.9409
16	-12.9412
▁Yoo	-12.9418
▁Kot	-12.9425
▁aaku	-12.9427
▁THL	-12.9437
▁83	-12.9438
▁urpa	-12.9445
57	-12.9447
▁hanh	-12.946
▁erne	-12.9469
05	-12.947
▁Fem	-12.9471
▁hams	-12.9472
itch	-12.948
add	-12.9503
On	-12.9518
▁vey	-12.9518
▁alke	-12.9525
▁kell	-12.9526
▁meko	-12.9533
▁ilve	-12.9535
▁ån	-12.9549
▁#	-12.9562
▁sivä	-12.958
▁Shu	-12.9594
▁liu	-12.9596
irku	-12.96
ush	-12.9607
cob	-12.9611
▁amsa	-12.9619
▁mom	-12.9623
▁ience	-12.9627
▁Cons	-12.9632
▁sokki	-12.9634
dwi	-12.9636
▁buum	-12.9656
▁rait	-12.9656
ogg	-12.9658
eiju	-12.9667
▁Gamb	-12.9667
▁iulu	-12.967
▁que	-12.9672
▁ruusu	-12.9673
opin	-12.9675
TS	-12.9678
▁NCA	-12.9688
▁Åb	-12.9689
LY	-12.9691
dig	-12.9695
▁Lif	-12.9702
▁suuk	-12.9711
▁WS	-12.9711
▁öykk	-12.9712
▁uotia	-12.9715
▁Comm	-12.972
val	-12.9722
▁Dema	-12.9724
▁arav	-12.9738
▁amul	-12.974
▁Mais	-12.974
93	-12.9745
atru	-12.9754
ula	-12.9767
▁Migr	-12.9773
liz	-12.9776
▁alum	-12.9781
▁tolp	-12.9783
▁elod	-12.9791
ado	-12.9794
▁2,6	-12.9798
lep	-12.9807
▁3:	-12.9807
▁Niil	-12.9809
▁hili	-12.9822
56	-12.9824
▁aye	-12.9825
AR	-12.9827
uez	-12.9835
03	-12.9837
▁nnäk	-12.9842
▁liz	-12.9858
▁Rio	-12.9859
ør	-12.9886
▁GB	-12.9893
acu	-12.9899
iira	-12.9902
ever	-12.9907
▁Bol	-12.9911
mah	-12.9928
▁tyle	-12.9929
▁sb	-12.9946
▁akr	-12.9949
ø	-12.9962
0%	-12.9971
!	-12.9996
omi	-13
▁UTERS	-13
▁OKM	-13
▁3-2	-13.0002
▁(1)	-13.0002
▁karhu	-13.0004
▁Weber	-13.0006
▁HPK	-13.0013
▁Alho	-13.0014
▁arun	-13.0016
▁Keir	-13.0016
rant	-13.0022
▁Part	-13.0028
▁Coll	-13.0034
▁Midd	-13.0034
▁Heal	-13.0038
▁Oj	-13.0041
▁Amy	-13.0048
▁look	-13.0059
▁utva	-13.0067
▁lym	-13.0071
▁Dop	-13.0071
12	-13.0074
▁Dan	-13.0089
▁Meil	-13.0106
▁rity	-13.0107
▁edd	-13.0109
itti	-13.0114
▁aisp	-13.0116
▁koota	-13.0118
▁ilar	-13.0126
98	-13.0127
▁ugu	-13.0129
▁Ahme	-13.0132
US	-13.0146
▁sara	-13.0151
▁uid	-13.0152
▁Are	-13.016
▁nout	-13.0169
▁urb	-13.0173
▁mid	-13.0187
29	-13.0188
▁eol	-13.0188
▁pyst	-13.0201
▁gla	-13.0203
uch	-13.0212
▁Narv	-13.0216
▁Bon	-13.0216
▁hoff	-13.0229
▁Abr	-13.0234
▁ög	-13.0235
▁Sor	-13.0236
alko	-13.0245
OY	-13.0247
▁Ora	-13.025
AS	-13.0251
▁bell	-13.0253
▁Res	-13.0256
▁Can	-13.026
PT	-13.0287
▁PA	-13.0293
▁tory	-13.0303
tig	-13.0312
hje	-13.0325
▁noro	-13.0327
▁AU	-13.0328
▁tutt	-13.0329
34	-13.0339
▁gar	-13.0343
anno	-13.0345
ppa	-13.0347
▁Mot	-13.0353
DR	-13.0355
ramp	-13.0356
ck	-13.0357
¤	-13.0357
▁üller	-13.0357
▁roën	-13.0357
▁ranz	-13.0359
▁ürge	-13.0359
▁plod	-13.036
▁gu	-13.0362
ino	-13.0363
alag	-13.037
▁ead	-13.0371
▁ahke	-13.0374
▁lapa	-13.0381
MF	-13.0381
TL	-13.0381
▁nälk	-13.0382
▁ourg	-13.0385
37	-13.0386
▁Tulv	-13.0391
▁lup	-13.0393
▁ätö	-13.0394
▁Hay	-13.0412
▁Fay	-13.0415
67	-13.0419
amma	-13.0433
▁Hei	-13.0435
ream	-13.0452
▁ripo	-13.0452
ango	-13.0455
▁Pihl	-13.0464
üri	-13.0496
▁scu	-13.0498
uhe	-13.0498
54	-13.0499
awa	-13.0499
73	-13.0509
83	-13.0509
iev	-13.0512
umpu	-13.0518
1:	-13.0518
▁Clo	-13.0519
▁uida	-13.0521
▁urra	-13.0529
▁uch	-13.0537
lve	-13.0543
esta	-13.055
▁äysi	-13.0551
▁ibil	-13.0565
RT	-13.0567
▁bba	-13.0567
▁Kes	-13.0591
▁Arm	-13.0592
LO	-13.0594
▁afa	-13.0594
▁estr	-13.0594
91	-13.0597
▁rac	-13.0603
deb	-13.0609
▁löf	-13.0609
▁eppä	-13.0615
RJ	-13.0628
▁Edv	-13.063
▁ax	-13.0633
▁Vier	-13.0643
ubl	-13.0647
ivat	-13.0649
53	-13.0654
è	-13.0668
BO	-13.0681
▁laput	-13.0688
BC	-13.0693
aux	-13.0709
▁unaj	-13.0716
VL	-13.0719
▁ech	-13.0719
uju	-13.072
▁Dat	-13.0722
▁UV	-13.0723
▁Young	-13.0728
▁kkoa	-13.0729
▁wich	-13.0733
▁Dip	-13.0737
▁lead	-13.0744
▁Omen	-13.0745
▁alf	-13.0756
▁Ani	-13.0759
trac	-13.0762
▁rass	-13.0766
▁Eps	-13.0767
mur	-13.0789
alja	-13.0791
▁eaf	-13.0799
▁Gag	-13.0803
▁amar	-13.0807
▁rén	-13.0812
▁Saka	-13.0818
▁Reim	-13.0825
▁äisy	-13.083
▁igg	-13.0835
▁silt	-13.0835
ehr	-13.0836
▁NY	-13.0844
▁ilat	-13.0846
▁ipsu	-13.0852
▁aluv	-13.0855
MI	-13.0865
32	-13.0866
rni	-13.087
ón	-13.0875
▁ieru	-13.0886
▁2:	-13.0889
▁horm	-13.0896
▁HTS	-13.0897
▁Des	-13.0897
▁Liu	-13.0905
▁osse	-13.0907
▁sand	-13.0909
63	-13.0917
▁ääll	-13.0918
▁eiju	-13.0919
uth	-13.092
▁Arn	-13.0932
▁ucc	-13.0932
41	-13.0945
▁neit	-13.0946
▁Cop	-13.0962
IT	-13.0978
▁ijö	-13.0988
▁Norr	-13.0989
ivät	-13.099
vens	-13.1001
▁Mad	-13.101
-6	-13.1016
▁lkk	-13.1023
eber	-13.1026
ainu	-13.103
▁oill	-13.1031
outo	-13.1033
sul	-13.1041
▁Visu	-13.1044
▁Tove	-13.1054
▁emor	-13.1055
án	-13.1056
▁Puu	-13.1068
42	-13.1078
▁nelo	-13.1081
▁hre	-13.1091
anch	-13.1092
arju	-13.11
▁erva	-13.1109
▁umaa	-13.1111
lbe	-13.1112
1⁄2	-13.1112
ã	-13.1112
žžj	-13.1112
▁Girl	-13.1112
▁vdij	-13.1112
▁äyhä	-13.1115
nq	-13.1121
▁Rand	-13.1123
▁back	-13.1124
▁Kass	-13.1126
▁eula	-13.113
▁kärp	-13.1133
▁Saab	-13.1135
▁arch	-13.1136
▁uš	-13.1139
▁laak	-13.114
KI	-13.1142
▁oug	-13.1145
▁amba	-13.1145
▁Fir	-13.1146
▁3,3	-13.1157
▁lesb	-13.1165
▁rup	-13.117
▁qua	-13.1173
▁6,5	-13.1174
▁50.	-13.1175
▁AT	-13.1176
▁Amin	-13.1193
urmo	-13.1204
▁nho	-13.1206
▁law	-13.1206
▁lash	-13.1208
▁uila	-13.1209
▁Rey	-13.121
▁yly	-13.1214
atc	-13.1224
▁ossi	-13.1224
81	-13.1229
▁84	-13.1239
▁rako	-13.124
▁zem	-13.1243
ERR	-13.1252
▁eppe	-13.1252
ummi	-13.1256
▁AMK	-13.1259
▁Grif	-13.1263
58	-13.1265
▁iisas	-13.1267
otor	-13.1272
▁riep	-13.1276
▁WA	-13.1278
▁sako	-13.1282
aija	-13.1283
▁rg	-13.1284
▁snet	-13.1287
▁ilko	-13.1288
▁Ör	-13.129
▁esku	-13.1301
▁tabu	-13.1304
▁riks	-13.1309
MA	-13.1313
▁Naur	-13.1313
dz	-13.1321
▁Marca	-13.1333
▁ikkia	-13.1338
cep	-13.1357
▁lop	-13.1357
▁aram	-13.1357
uld	-13.1359
▁amaa	-13.1388
▁FA	-13.139
▁maku	-13.1391
7	-13.1401
leba	-13.1405
igr	-13.1405
TU	-13.1429
▁ieet	-13.1435
ES	-13.1437
84	-13.1445
▁Hot	-13.1455
ökki	-13.1458
ammo	-13.1461
CM	-13.1476
▁eep	-13.1476
▁apsa	-13.1479
▁urmi	-13.1484
▁empe	-13.1486
▁oju	-13.1504
à	-13.1512
▁bdul	-13.1512
▁gency	-13.1512
▁amppi	-13.1516
▁KKO	-13.1519
▁Caf	-13.1521
▁vili	-13.1523
▁acho	-13.1528
▁Web	-13.153
▁box	-13.1535
▁ynamo	-13.1553
aud	-13.1561
▁Alve	-13.1562
SI	-13.1564
ärmä	-13.1564
▁Kong	-13.1564
74	-13.1565
▁AJ	-13.1571
▁RS	-13.1581
▁ilib	-13.1582
▁Row	-13.1584
▁obb	-13.1587
▁ippi	-13.1587
▁Rog	-13.1587
auho	-13.1591
▁ardif	-13.1591
vez	-13.16
ola	-13.1601
89	-13.1611
▁soff	-13.1626
▁yb	-13.1627
▁korp	-13.1637
▁Kour	-13.1646
osto	-13.165
▁less	-13.165
22	-13.1665
▁coc	-13.1667
▁Simb	-13.1676
▁List	-13.168
▁viha	-13.1685
had	-13.1686
č	-13.1686
ampo	-13.1687
38	-13.1691
bo	-13.1698
PD	-13.1708
62	-13.1709
▁aker	-13.1715
▁sham	-13.1719
▁Reg	-13.1728
▁ränn	-13.1732
▁Bib	-13.1738
age	-13.1739
▁Essa	-13.1741
IS	-13.1743
uija	-13.1745
▁iid	-13.1752
yg	-13.1759
▁pilv	-13.176
▁Lord	-13.1765
uc	-13.1769
▁UK	-13.1775
▁ervo	-13.1778
ifa	-13.1785
valt	-13.1789
ård	-13.179
rö	-13.1801
rang	-13.1802
▁topp	-13.1809
▁ulku	-13.1821
▁amad	-13.1824
▁Niz	-13.1831
72	-13.1857
ups	-13.1865
▁ahma	-13.1867
▁Cla	-13.1884
▁hup	-13.1891
▁ix	-13.1894
▁Dur	-13.1899
▁Lem	-13.1906
▁liig	-13.1919
oler	-13.1919
ECD	-13.1924
hev	-13.1927
ć	-13.1929
й	-13.1929
▁0-2	-13.1934
▁Cove	-13.1935
▁siep	-13.1936
▁Sada	-13.1946
▁PAM	-13.1948
▁Tenho	-13.195
▁Olo	-13.1951
▁rumba	-13.1952
dju	-13.1962
▁sumu	-13.1968
kur	-13.1972
▁reid	-13.1975
aida	-13.1976
üc	-13.1982
té	-13.1992
▁fron	-13.1992
empp	-13.2014
▁KO	-13.2022
▁ilde	-13.2031
▁hipo	-13.2032
inz	-13.2032
▁Kiss	-13.2033
▁arom	-13.204
▁mönk	-13.2048
iera	-13.2052
▁Ada	-13.2058
▁abal	-13.2059
SF	-13.2063
▁idj	-13.2065
rez	-13.2071
▁Coc	-13.2092
▁Konk	-13.2101
▁sieni	-13.2103
0	-13.2105
▁urre	-13.2108
▁án	-13.2111
▁jätt	-13.2113
▁AA	-13.2117
▁eger	-13.2133
▁Rup	-13.2133
▁omeh	-13.2136
▁itz	-13.2139
▁Hoid	-13.2143
vig	-13.2151
▁Tat	-13.2152
86	-13.2154
▁öyh	-13.2154
▁örr	-13.2156
46	-13.2165
▁arkea	-13.2169
▁Hear	-13.2172
▁erem	-13.2179
▁MP	-13.2184
▁rod	-13.2199
▁VG	-13.2201
psu	-13.2209
88	-13.2217
▁Demi	-13.2234
▁May	-13.2236
RA	-13.2236
▁wam	-13.2236
▁avik	-13.2237
▁Bel	-13.2238
▁mehu	-13.2241
▁ehmi	-13.2252
▁ripa	-13.2256
▁ilsk	-13.2258
oksa	-13.2264
▁uju	-13.2264
52	-13.2266
▁läps	-13.2272
▁iero	-13.2276
79	-13.2281
én	-13.2286
▁ypo	-13.2287
▁wer	-13.2288
▁add	-13.229
▁с	-13.2291
▁SN	-13.2308
arja	-13.2309
iiva	-13.2311
▁veh	-13.2322
anic	-13.2329
edo	-13.2329
▁arse	-13.2352
ount	-13.2357
▁ielo	-13.2362
▁ouhk	-13.2364
▁Goms	-13.2365
▁€)	-13.2366
▁lbon	-13.237
DC	-13.2373
▁latva	-13.2373
aban	-13.2382
ross	-13.2382
▁affe	-13.2383
▁Axe	-13.2384
▁Cono	-13.2384
okka	-13.2391
▁SA	-13.2394
▁Abb	-13.2394
uuhk	-13.2398
▁entr	-13.2413
cid	-13.2419
▁liuo	-13.2437
▁IV	-13.2438
maj	-13.2444
▁Wad	-13.2448
▁Leve	-13.2457
▁shor	-13.2463
▁huiv	-13.2463
69	-13.2486
▁Eila	-13.2489
▁roph	-13.2506
oder	-13.2506
▁Bard	-13.2517
▁Aje	-13.2518
▁läpä	-13.2518
ald	-13.2525
▁Got	-13.2529
ryp	-13.2532
cra	-13.2537
▁Bear	-13.2555
96	-13.2555
yrö	-13.2562
uli	-13.257
umma	-13.2579
▁zz	-13.2586
▁uih	-13.2589
▁nerg	-13.2597
▁Gil	-13.2603
▁Reun	-13.2605
kub	-13.2607
▁luja	-13.2608
▁erz	-13.2613
ader	-13.2615
▁wel	-13.2615
outu	-13.2621
▁ukk	-13.2621
▁Zet	-13.2629
SS	-13.2631
▁Nass	-13.2635
▁GR	-13.264
▁Rac	-13.2643
CS	-13.2648
▁Gri	-13.2648
SU	-13.2652
ble	-13.2653
▁oros	-13.2654
▁EQ	-13.2658
nap	-13.2661
▁renc	-13.2666
▁Juse	-13.2666
iida	-13.2668
▁hiil	-13.2677
▁eill	-13.2679
▁qui	-13.2702
▁mask	-13.2705
▁ilppi	-13.2725
▁puro	-13.274
EL	-13.2741
▁Marj	-13.2742
▁iab	-13.2746
▁atik	-13.2755
vah	-13.2757
eKi	-13.2762
▁isc	-13.2771
▁Nau	-13.2793
lög	-13.2794
▁luko	-13.28
▁rips	-13.2801
ndic	-13.2804
▁97	-13.2805
▁Glen	-13.2816
▁aron	-13.2818
▁2-4	-13.2818
▁LIV	-13.2818
▁augh	-13.2819
▁obj	-13.2819
▁4-2	-13.282
▁Demo	-13.2822
▁lag	-13.2824
▁1-1	-13.2826
▁Owen	-13.2826
-9	-13.2826
▁DPA	-13.2829
▁38.	-13.2833
▁talg	-13.2838
▁musk	-13.2841
HS	-13.2844
▁hab	-13.2846
SM	-13.2848
apsu	-13.2852
appu	-13.2854
▁vivi	-13.2855
▁ohd	-13.2855
▁105	-13.2855
▁vinh	-13.2856
▁irpa	-13.286
▁mep	-13.2864
▁urro	-13.2868
▁tups	-13.2871
▁äyk	-13.2874
▁revi	-13.2876
▁evr	-13.2882
▁7,5	-13.2887
87	-13.2898
▁konv	-13.2905
▁kusk	-13.2928
▁inkki	-13.293
dag	-13.2948
▁tlan	-13.2962
▁Nov	-13.2966
▁Ow	-13.2999
▁ufv	-13.3007
▁Yoa	-13.3007
▁once	-13.302
▁steb	-13.303
▁Bobb	-13.3032
▁rwi	-13.3032
▁ijaa	-13.3033
▁lapi	-13.3036
rey	-13.304
▁äppi	-13.3058
▁Hold	-13.3064
▁erj	-13.3066
▁gg	-13.3072
▁iori	-13.3073
▁Alc	-13.3077
▁anyu	-13.3083
▁peed	-13.3083
VI	-13.3084
emb	-13.3094
ärpä	-13.3106
▁Up	-13.311
▁uig	-13.3115
▁ersun	-13.312
▁Roo	-13.3126
▁Art	-13.3161
▁Sir	-13.3163
▁Nora	-13.3166
▁assu	-13.3167
MC	-13.3169
▁car	-13.3177
▁Coo	-13.3181
OT	-13.3188
▁Viru	-13.3194
▁Rod	-13.3205
zak	-13.3206
duc	-13.321
▁Eck	-13.3216
▁inez	-13.3217
ahna	-13.3218
CE	-13.3227
▁apper	-13.3228
▁Noo	-13.3228
iru	-13.3231
▁Wik	-13.3232
▁repu	-13.3252
CC	-13.3257
▁supp	-13.326
▁Lor	-13.3263
▁AR	-13.3265
▁alpe	-13.3274
▁aitt	-13.3276
▁rats	-13.3279
▁lesk	-13.3283
LB	-13.3284
▁hear	-13.3291
▁lomi	-13.3292
▁Á	-13.3294
▁ägg	-13.3295
▁hihn	-13.3298
▁tric	-13.3301
▁Sham	-13.3301
▁olves	-13.3302
▁Osto	-13.3304
▁5-6	-13.3306
tusj	-13.3307
EM	-13.3317
▁come	-13.332
▁turk	-13.3323
▁oral	-13.3324
▁siru	-13.333
▁agna	-13.3334
▁94	-13.3343
ipi	-13.3344
ilb	-13.3345
▁HO	-13.3348
▁särö	-13.3349
BA	-13.335
▁Rahk	-13.3354
▁Nuo	-13.3354
tol	-13.3356
97	-13.336
▁urbo	-13.3364
▁amel	-13.3365
▁arppa	-13.3376
▁rynä	-13.3384
▁miks	-13.3384
▁umpe	-13.3388
▁näpä	-13.339
▁Auk	-13.3396
EA	-13.3402
ankk	-13.3405
▁Lei	-13.3409
▁logg	-13.3412
▁Nev	-13.3416
▁Dal	-13.3417
▁saum	-13.3425
%	-13.343
irpp	-13.3434
ET	-13.3437
auto	-13.3442
▁film	-13.3448
▁Ronn	-13.3457
▁sca	-13.3464
▁eith	-13.3465
▁ås	-13.3471
▁Ber	-13.3472
phy	-13.3479
▁agl	-13.3486
▁andu	-13.3499
▁Lam	-13.3509
ff	-13.3513
namo	-13.3515
▁aiut	-13.3521
▁Vika	-13.3524
▁PR	-13.3526
uppa	-13.3537
▁yam	-13.3538
▁xt	-13.3548
olly	-13.3556
▁aleb	-13.3557
▁hawn	-13.3563
▁Habi	-13.3572
▁iema	-13.3573
▁Kair	-13.3583
▁iaz	-13.3588
aid	-13.3591
▁Wine	-13.3595
▁oija	-13.3602
reb	-13.3605
AI	-13.361
82	-13.3614
▁Hus	-13.3626
▁orja	-13.3629
▁Jarl	-13.3632
▁lace	-13.3656
gen	-13.3658
yck	-13.3664
rog	-13.3672
▁Cars	-13.3679
▁igue	-13.3687
▁ntui	-13.369
▁endo	-13.3694
▁kep	-13.3701
hor	-13.372
▁oose	-13.373
▁usla	-13.3732
▁agh	-13.3733
▁simp	-13.3746
▁rez	-13.3766
▁max	-13.3767
▁ü	-13.3778
pan	-13.3791
▁woke	-13.3796
▁93	-13.3798
▁XC	-13.3801
▁Miya	-13.3803
▁oiju	-13.3806
▁3-6	-13.3808
▁Camp	-13.3815
▁rakk	-13.3818
▁etab	-13.3828
▁Karj	-13.3829
▁Geb	-13.3829
▁lond	-13.3829
▁euhu	-13.383
▁SWE	-13.3837
▁astma	-13.3838
wo	-13.3838
▁arpi	-13.3839
iipi	-13.3844
▁esee	-13.3846
▁Zit	-13.3847
▁145	-13.3848
▁kömp	-13.3856
▁erki	-13.386
▁ruuat	-13.386
mbo	-13.3861
▁40.	-13.3861
▁yöd	-13.3862
▁på	-13.3862
▁yrön	-13.3865
▁öylä	-13.3867
▁Rea	-13.3869
▁osch	-13.387
▁lupi	-13.3879
uiva	-13.3879
▁Repo	-13.388
▁Edm	-13.3884
▁Wein	-13.3891
▁RoP	-13.3901
erg	-13.3905
▁Ups	-13.3907
ppä	-13.392
▁Reini	-13.3922
day	-13.3923
▁kkas	-13.3925
▁eleb	-13.3931
▁horn	-13.3938
örö	-13.3949
▁eij	-13.3949
▁SS	-13.3954
urs	-13.3957
imo	-13.3964
▁marj	-13.3971
▁NA	-13.3979
▁Math	-13.3999
dow	-13.4026
49	-13.4028
far	-13.4029
eghe	-13.4052
bom	-13.4069
▁rouv	-13.4072
aft	-13.4073
▁Was	-13.4075
NI	-13.4076
▁aaso	-13.408
ellu	-13.4081
▁Fed	-13.4086
▁oimu	-13.409
epp	-13.409
▁laku	-13.4095
▁Garr	-13.4095
▁ood	-13.4108
iemu	-13.4112
▁kalt	-13.4122
TE	-13.4126
▁cand	-13.4127
▁Rud	-13.4129
▁MS	-13.4133
ë	-13.4151
ahmo	-13.4155
▁anuc	-13.4159
▁sylk	-13.4167
▁orgh	-13.4173
▁unge	-13.4186
rot	-13.4192
▁iisku	-13.4194
▁bom	-13.4241
▁sood	-13.4243
▁98	-13.4251
▁asch	-13.4262
▁Deb	-13.427
uppi	-13.428
VO	-13.4283
▁lipe	-13.4292
KT	-13.4296
▁Mig	-13.4304
▁Åke	-13.4305
anti	-13.4308
+2	-13.4317
▁kook	-13.4317
▁Todd	-13.4321
▁work	-13.4321
▁§	-13.4321
▁phone	-13.4321
▁McM	-13.4322
▁4-1	-13.4324
itš	-13.4325
▁Behm	-13.4328
▁rth	-13.433
▁arc	-13.433
▁äpyl	-13.4335
▁Vihi	-13.4335
▁WC	-13.4342
▁365	-13.4345
▁bile	-13.4349
▁tölk	-13.4358
.)	-13.4359
▁Evo	-13.4373
KS	-13.4373
▁Def	-13.4388
▁bin	-13.4392
▁oumi	-13.4397
▁tumpi	-13.4415
ilku	-13.4421
▁Abde	-13.4426
▁Bert	-13.4427
bah	-13.443
▁amst	-13.4431
▁inho	-13.4438
▁Hink	-13.4444
▁MT	-13.4454
▁läpp	-13.4458
▁ahra	-13.4467
▁2-5	-13.4472
▁Gü	-13.4476
urro	-13.4476
ego	-13.4481
▁rno	-13.4484
▁iosk	-13.4496
▁kog	-13.4505
irma	-13.4518
21	-13.4518
ouch	-13.453
36	-13.453
▁mola	-13.4532
IN	-13.4534
sub	-13.4541
▁diak	-13.4547
▁Bur	-13.455
▁Seal	-13.4553
uva	-13.4565
▁räpp	-13.458
PI	-13.4587
▁enze	-13.4589
▁uxe	-13.4603
▁sähl	-13.4605
ü	-13.4612
▁almu	-13.4613
ille	-13.4613
LF	-13.4615
▁yhm	-13.4626
▁hje	-13.4632
▁rier	-13.4638
▁tron	-13.4638
▁Low	-13.4661
▁alc	-13.4666
▁achi	-13.4669
ulla	-13.467
71	-13.4671
▁Wir	-13.4671
▁loo	-13.4674
▁sykk	-13.468
iga	-13.4686
▁armo	-13.4698
▁Ray	-13.4701
▁dog	-13.4702
▁roc	-13.4702
▁Mid	-13.4703
▁äikk	-13.4712
ynnä	-13.4714
▁höy	-13.4726
▁SK	-13.4735
anni	-13.4755
esb	-13.478
▁Bö	-13.48
▁Of	-13.4804
▁Delo	-13.4818
▁hatu	-13.4827
▁IT	-13.4827
WE	-13.4829
UO	-13.4836
▁Tab	-13.4841
▁stei	-13.4846
о	-13.4855
я	-13.4864
öngä	-13.4873
VG	-13.4874
ilja	-13.4874
·	-13.4876
▁wort	-13.4876
▁Abdo	-13.4877
▁Mizu	-13.4877
▁rüg	-13.4879
▁4-3	-13.4879
▁rjala	-13.4881
owl	-13.4882
▁и	-13.4884
▁0-3	-13.4885
▁47.	-13.4886
▁ötkö	-13.4886
▁YTK	-13.4887
BL	-13.489
▁leep	-13.4891
▁36.	-13.4892
▁enzo	-13.4893
▁ärpä	-13.4894
▁kurv	-13.4902
hka	-13.4911
▁örpp	-13.4911
▁137	-13.4915
▁gang	-13.4915
elch	-13.4916
▁Bub	-13.4916
▁Brya	-13.4919
▁seik	-13.4919
▁ulkka	-13.4922
▁mole	-13.4925
▁feld	-13.4927
aksa	-13.4935
▁öss	-13.4935
▁rava	-13.4937
▁Moun	-13.4946
▁RT	-13.4954
▁kuop	-13.4954
▁roud	-13.4964
▁tappi	-13.4965
▁360	-13.4969
▁Gah	-13.4978
▁aima	-13.498
▁raiv	-13.4996
▁nuja	-13.4998
▁ála	-13.5011
94	-13.5021
obb	-13.5022
▁laka	-13.5023
agg	-13.5024
▁evol	-13.5038
row	-13.504
oney	-13.5042
liff	-13.5044
▁OK	-13.5055
▁Sec	-13.5057
▁reat	-13.5061
▁Ice	-13.5067
▁dj	-13.5071
▁isch	-13.5071
mpi	-13.5076
▁Malt	-13.5077
▁ulss	-13.5082
▁koos	-13.5084
odo	-13.5091
AC	-13.51
umba	-13.51
▁KT	-13.5122
oeb	-13.5128
▁eige	-13.5136
▁melo	-13.5137
gr	-13.5137
ML	-13.5137
43	-13.514
▁wal	-13.5145
uumu	-13.5151
▁rive	-13.5153
igo	-13.516
DA	-13.517
urst	-13.5175
SY	-13.5189
▁Mala	-13.519
▁ST	-13.5194
▁toss	-13.5208
ymo	-13.521
▁nob	-13.5218
▁ré	-13.5222
▁savu	-13.5223
▁Eye	-13.5228
▁Mour	-13.5232
cho	-13.5254
▁iren	-13.5256
▁ilpu	-13.5261
▁lima	-13.5266
▁meet	-13.5272
ico	-13.5273
▁Gome	-13.5275
vio	-13.5283
▁Suv	-13.5283
▁oosi	-13.5284
auli	-13.5293
▁Ree	-13.53
uas	-13.5354
ough	-13.5358
ín	-13.5366
▁MAA	-13.5369
ämpy	-13.537
Me	-13.5391
▁ushk	-13.5391
▁esh	-13.5392
rmo	-13.5392
▁äsy	-13.5396
otku	-13.5398
▁lair	-13.5403
▁amon	-13.5405
itc	-13.5415
TC	-13.5425
UR	-13.5439
▁efte	-13.5441
▁Grin	-13.5447
▁Abs	-13.5449
▁Dec	-13.5452
▁Rip	-13.5457
▁loos	-13.546
ý	-13.5464
▁É	-13.5464
▁eBr	-13.5467
▁Köp	-13.5468
pas	-13.5468
▁Oosa	-13.547
▁Range	-13.5472
ambo	-13.5478
▁wis	-13.5481
▁Byr	-13.5484
▁bur	-13.5484
▁ynch	-13.5493
NS	-13.5495
▁aivio	-13.5496
▁evt	-13.55
▁edge	-13.5504
▁kuud	-13.5514
▁nypp	-13.5516
▁teip	-13.5522
▁enzi	-13.5522
eur	-13.5524
▁erpa	-13.5524
▁EL	-13.5526
▁orkka	-13.5527
▁karp	-13.5538
▁esca	-13.5538
ihar	-13.5545
▁Hor	-13.5545
▁Ritz	-13.5552
▁Who	-13.5558
▁Saag	-13.5561
▁IK	-13.5564
▁Bra	-13.5567
ida	-13.5569
▁märä	-13.5571
▁liem	-13.5581
orb	-13.5582
▁irne	-13.5589
▁idge	-13.5593
▁225	-13.5597
▁erma	-13.5598
▁rund	-13.5601
adu	-13.5609
▁trad	-13.5615
▁RN	-13.5618
▁notk	-13.562
▁Jumb	-13.5636
▁Como	-13.5654
▁mehua	-13.5665
▁lomp	-13.5667
▁eiss	-13.5668
▁Bus	-13.5671
▁Marb	-13.5687
▁love	-13.5689
▁Aart	-13.5713
▁mag	-13.572
▁Viv	-13.5721
▁bb	-13.5721
▁änky	-13.5722
▁rama	-13.5724
▁Rams	-13.5725
arg	-13.5725
▁oyer	-13.5733
udd	-13.574
▁Colb	-13.5741
▁säkk	-13.5741
▁mado	-13.5755
atj	-13.5758
▁cal	-13.5765
eito	-13.5767
ollo	-13.5772
▁ions	-13.5795
▁Wilk	-13.58
▁outl	-13.5801
▁louh	-13.584
▁ulpp	-13.5844
erd	-13.585
▁acha	-13.5861
▁Ral	-13.5881
SC	-13.5881
ird	-13.5886
▁redi	-13.5893
▁Kub	-13.5915
adc	-13.5916
▁Ria	-13.5926
▁aihi	-13.5929
▁hive	-13.5931
api	-13.5937
▁Cel	-13.5947
▁Kyr	-13.5953
▁NO	-13.5955
omb	-13.5955
▁ippos	-13.5962
▁ixi	-13.5972
▁imuk	-13.5973
▁icke	-13.598
iske	-13.5992
▁rkko	-13.5993
▁Whe	-13.5999
▁tost	-13.6002
▁oney	-13.6008
▁Nec	-13.6031
▁Guy	-13.6035
▁Ursa	-13.6039
▁Kerm	-13.6041
▁tead	-13.6041
gba	-13.6071
▁Avi	-13.6073
▁о	-13.6076
â	-13.6086
SKA	-13.6087
HK	-13.6088
ю	-13.6089
▁oncé	-13.609
▁Baum	-13.6092
▁track	-13.6093
▁(2)	-13.6094
ли	-13.6095
▁ragh	-13.6096
jerf	-13.6097
▁trot	-13.6101
▁rtem	-13.6104
▁101	-13.6105
▁ahed	-13.6108
▁33.	-13.611
▁epsä	-13.6113
▁SRV	-13.6113
raat	-13.6113
▁COP	-13.612
nef	-13.6121
▁Nix	-13.6124
▁Bamb	-13.6128
▁Kob	-13.6134
▁irma	-13.6136
▁Koms	-13.6137
▁asly	-13.6139
▁(1	-13.6142
▁ulga	-13.6147
▁111	-13.6162
▁Rota	-13.6163
NC	-13.6172
▁elby	-13.6196
▁alho	-13.6198
▁magn	-13.6199
▁Alvi	-13.6199
▁hic	-13.6203
rof	-13.6206
▁yrö	-13.6216
▁ooko	-13.6221
▁Thun	-13.6225
rug	-13.6227
mmä	-13.623
▁ates	-13.6234
orf	-13.6247
▁order	-13.6258
▁sanat	-13.626
▁outaa	-13.6261
RI	-13.6269
▁amti	-13.6269
▁nave	-13.6271
▁ahne	-13.6272
▁eppu	-13.6278
▁rtur	-13.6291
HA	-13.6291
rna	-13.6297
ook	-13.63
▁uidu	-13.6302
▁Now	-13.6313
▁EN	-13.6314
▁itso	-13.6319
▁seg	-13.6322
▁anab	-13.6329
▁På	-13.6329
▁Cra	-13.6342
▁gan	-13.6349
eip	-13.6356
▁5:	-13.6357
SV	-13.6357
gma	-13.6362
▁inci	-13.6367
bal	-13.6399
▁Lamp	-13.6411
▁urho	-13.6414
▁Virv	-13.6416
▁abri	-13.6423
▁ndi	-13.6426
▁(2	-13.6428
hli	-13.6437
illo	-13.6449
ür	-13.6449
osp	-13.6452
onza	-13.6452
NK	-13.6455
▁Clev	-13.6461
▁kyte	-13.6465
pid	-13.6471
▁ref	-13.6473
des	-13.6476
arri	-13.6481
anz	-13.6487
leå	-13.6493
▁Torp	-13.6499
▁rosv	-13.65
▁aldo	-13.6501
ulis	-13.6506
▁Shap	-13.6512
▁Arma	-13.6513
▁auet	-13.6513
▁ilmu	-13.6517
▁fes	-13.6525
auhu	-13.6526
09	-13.6527
▁uff	-13.6528
▁Gos	-13.6534
arso	-13.6536
▁erde	-13.6546
▁rott	-13.6548
AP	-13.6555
ubb	-13.6561
▁Cé	-13.6561
▁yövä	-13.6585
▁Cori	-13.6625
▁ø	-13.6626
atsu	-13.6636
▁orro	-13.6637
▁Rask	-13.6668
▁ilvis	-13.6679
ogo	-13.6685
gré	-13.6685
▁SP	-13.6696
upli	-13.6701
▁pec	-13.6702
▁lug	-13.6704
▁ivol	-13.6713
▁+1	-13.6717
▁wive	-13.6719
MO	-13.6722
▁ISS	-13.6731
▁Ås	-13.6737
▁åt	-13.6737
Ö	-13.6741
+	-13.6752
Cap	-13.6753
▁Kay	-13.6754
▁Gabb	-13.6756
▁ruyne	-13.6756
▁awast	-13.6757
▁üss	-13.6757
▁на	-13.6758
▁TACM	-13.6758
▁YLE	-13.676
▁â	-13.676
▁Croc	-13.6761
▁gil	-13.6761
▁Hab	-13.6763
▁trong	-13.6774
▁Orte	-13.6775
▁roub	-13.6776
▁32.	-13.6779
▁Abel	-13.6783
▁wans	-13.6783
▁axim	-13.6783
▁Crom	-13.6785
▁143	-13.6786
▁Rise	-13.6789
▁Ryyn	-13.6789
lag	-13.6792
OM	-13.6795
▁tukun	-13.6797
▁Rahm	-13.6798
ulah	-13.6806
▁uurt	-13.6809
▁116	-13.681
▁Burk	-13.6813
▁Dee	-13.6817
▁iepa	-13.6818
▁jauho	-13.682
▁Emp	-13.6843
▁1/	-13.6844
▁Dart	-13.6847
▁Rash	-13.6859
▁ostr	-13.686
▁sign	-13.6862
suo	-13.6863
▁Kap	-13.6863
▁Kobr	-13.6867
▁orvo	-13.6869
▁atio	-13.6871
▁ielu	-13.6888
ukas	-13.6891
MG	-13.6901
▁Rima	-13.6909
uuma	-13.6913
▁Myers	-13.6914
▁Reyn	-13.6915
23	-13.6917
▁vell	-13.6921
▁Gris	-13.6924
▁reiä	-13.6927
▁rago	-13.6938
▁uier	-13.694
▁arhe	-13.6949
▁oipi	-13.6953
ipun	-13.6967
lux	-13.6967
uul	-13.698
uppe	-13.6982
ora	-13.7002
RU	-13.7021
▁Rab	-13.7021
▁rkti	-13.7026
▁oard	-13.7036
itto	-13.7039
▁uiku	-13.7041
▁öv	-13.7046
▁asco	-13.7051
▁särk	-13.7072
▁PV	-13.7074
edd	-13.7076
epti	-13.708
▁ocka	-13.71
sey	-13.7103
uhu	-13.7108
64	-13.7116
▁sig	-13.7117
▁AS	-13.712
▁Giu	-13.7122
▁Torni	-13.7124
▁leur	-13.7126
▁acia	-13.7127
▁ader	-13.7142
VK	-13.7145
rpe	-13.7157
▁edne	-13.7158
▁nuij	-13.716
▁Maur	-13.7181
▁aavid	-13.7191
anc	-13.7199
▁Tru	-13.7202
▁MA	-13.7218
öss	-13.7228
▁rind	-13.723
▁(4	-13.7232
▁enic	-13.7239
▁nummi	-13.7239
▁azz	-13.726
▁hihk	-13.7262
onne	-13.7264
▁ouda	-13.7267
▁bas	-13.7276
▁elaa	-13.7285
▁tiva	-13.7298
▁duo	-13.7299
▁ravu	-13.7308
taja	-13.7309
▁WP	-13.7315
▁р	-13.7319
▁Mand	-13.7327
▁nahk	-13.7327
▁abb	-13.7328
reep	-13.7341
uzz	-13.7343
▁col	-13.7353
FP	-13.7369
▁imppu	-13.7369
▁limu	-13.7376
zar	-13.7382
rgo	-13.7405
ppo	-13.7415
PO	-13.7424
juk	-13.7425
▁м	-13.7441
PK	-13.7441
dw	-13.745
▁lost	-13.7452
▁rimp	-13.746
▁DJ	-13.7464
▁uneen	-13.7464
▁Oivio	-13.7471
▁г	-13.7472
▁CO	-13.7474
▁Circ	-13.7475
▁Type	-13.7475
▁rejc	-13.7475
▁uipe	-13.7476
▁ivul	-13.7479
▁Grad	-13.7483
▁Azo	-13.7485
▁trike	-13.7485
▁58.	-13.7486
▁а	-13.7486
odg	-13.7487
▁SUI	-13.749
▁epto	-13.7492
▁Burg	-13.7493
▁34.	-13.7494
arka	-13.7497
EC	-13.7498
▁år	-13.7503
▁CZ	-13.7504
▁109	-13.7507
▁Hem	-13.7508
▁rrow	-13.7512
▁aq	-13.7513
▁146	-13.7514
▁nuha	-13.7518
▁80.	-13.7518
▁132	-13.7521
esco	-13.7525
л	-13.7525
▁ytin	-13.7535
▁ärsky	-13.7535
IO	-13.7538
▁60.	-13.7539
▁adja	-13.7539
▁olhi	-13.7543
▁ähdä	-13.7543
▁cc	-13.7545
▁hove	-13.7552
▁EC	-13.7559
▁Traa	-13.7563
▁ó	-13.7584
▁Duo	-13.759
▁sorr	-13.76
▁Wirt	-13.7602
ée	-13.7603
▁Baba	-13.7605
▁Gibr	-13.7607
▁risc	-13.7612
ilz	-13.7613
▁dob	-13.7616
▁Gro	-13.7621
▁sauv	-13.7622
▁Hila	-13.7632
raz	-13.7633
▁Glau	-13.7639
61	-13.7642
▁huik	-13.7656
▁Pör	-13.7677
▁ylvi	-13.7681
▁Roda	-13.7687
kro	-13.7691
▁exic	-13.7691
bra	-13.7693
▁oodi	-13.7694
▁MX	-13.7709
▁Fut	-13.7709
▁Mul	-13.771
▁Uro	-13.7721
▁aiska	-13.7724
▁aux	-13.7732
▁erhi	-13.7732
▁synk	-13.7737
▁riek	-13.7745
▁moka	-13.7745
upin	-13.7767
▁fro	-13.7778
JS	-13.7786
▁utš	-13.7786
▁alco	-13.7793
▁majo	-13.7794
▁uffe	-13.7799
▁did	-13.7801
ás	-13.7801
bil	-13.7803
▁Leb	-13.7815
urd	-13.7817
▁wede	-13.7817
▁heid	-13.7821
▁alek	-13.7822
▁able	-13.7824
▁rupa	-13.7826
ehm	-13.7828
▁anhe	-13.7838
▁Nap	-13.7869
▁tali	-13.788
SP	-13.7882
▁lax	-13.7883
▁SC	-13.7888
▁wei	-13.791
▁anhi	-13.791
▁Med	-13.792
▁т	-13.792
imma	-13.7941
▁PT	-13.7954
AT	-13.7955
▁Ned	-13.7972
▁Ana	-13.7976
▁iede	-13.7985
▁Boy	-13.7985
▁Reic	-13.7986
▁gio	-13.8001
urkk	-13.8001
▁uppu	-13.8003
▁Kond	-13.8021
▁öyhe	-13.8021
▁oile	-13.8029
▁coo	-13.8035
AJ	-13.8039
▁Eest	-13.8045
▁Rav	-13.805
▁koot	-13.8055
▁kassi	-13.8071
▁Hirs	-13.8078
▁myk	-13.8084
▁eedi	-13.8088
rok	-13.8089
▁nouk	-13.8092
▁kenk	-13.8105
atri	-13.8106
▁Lise	-13.8111
▁ouz	-13.8117
▁cat	-13.8135
ärd	-13.8136
bha	-13.8137
▁artia	-13.8138
▁lipi	-13.8148
39	-13.8149
tuva	-13.8156
▁savo	-13.8158
▁oole	-13.8159
ämpä	-13.8162
gaz	-13.817
▁sose	-13.8174
▁HT	-13.8186
▁KK	-13.8192
▁Nou	-13.8194
dge	-13.8195
▁Sirk	-13.82
gog	-13.8204
üll	-13.8216
▁hib	-13.822
▁ET	-13.8224
▁KS	-13.8225
ASS	-13.8225
▁Niñ	-13.824
▁4-0	-13.824
▁Hihh	-13.824
▁rozd	-13.824
▁šokki	-13.8241
▁Edg	-13.8242
▁Höj	-13.8242
▁äljä	-13.8243
LI	-13.8243
▁öttö	-13.8243
▁5-1	-13.8245
▁NTB	-13.8245
▁è	-13.8247
EI	-13.8248
▁Sieg	-13.8248
▁ombi	-13.825
▁BRI	-13.8252
▁örkkö	-13.8252
▁addi	-13.8256
▁comp	-13.8257
▁Gjer	-13.8257
▁ynam	-13.8258
▁atil	-13.8259
▁raw	-13.826
▁üh	-13.8261
▁Gym	-13.8262
▁osé	-13.8263
▁volt	-13.8264
asc	-13.8268
▁136	-13.8278
▁Yaho	-13.8284
DS	-13.8284
uidu	-13.8286
▁niid	-13.8292
ugge	-13.8293
uska	-13.8296
▁reum	-13.8298
pho	-13.8299
▁aspi	-13.8302
▁177	-13.8305
▁Coz	-13.8306
▁AL	-13.8317
▁hiom	-13.8318
▁DR	-13.8319
odz	-13.8322
▁iorg	-13.8331
▁erry	-13.8337
apu	-13.8337
LE	-13.8338
▁euli	-13.8338
▁ögl	-13.8343
ST	-13.8352
kke	-13.8357
osf	-13.8365
▁Aam	-13.8366
▁herr	-13.8367
▁Six	-13.8369
▁toko	-13.8371
FA	-13.8375
ärp	-13.8378
▁rlea	-13.8378
▁olov	-13.838
IL	-13.8383
▁köyh	-13.8387
oug	-13.841
▁edic	-13.8412
▁ETK	-13.8435
▁rsti	-13.8439
▁veiv	-13.8449
▁liti	-13.845
▁ermaa	-13.8459
▁ubin	-13.8461
▁Mak	-13.8479
▁lof	-13.8495
▁Gram	-13.85
▁aasin	-13.8503
▁gent	-13.8507
esc	-13.8507
▁Zen	-13.8508
unch	-13.8508
▁Your	-13.851
ännä	-13.8514
sam	-13.8516
▁itko	-13.8519
▁Arp	-13.8523
ige	-13.8524
▁erko	-13.8524
TY	-13.8527
▁í	-13.8539
▁ecil	-13.8546
▁lokk	-13.8548
KA	-13.8549
▁rve	-13.8559
▁Rol	-13.8566
▁occi	-13.8574
▁Dar	-13.8592
▁KL	-13.8596
▁kpl	-13.8601
▁mood	-13.8606
▁AG	-13.8614
meg	-13.8627
ved	-13.863
▁naya	-13.8641
▁ombe	-13.8651
▁Säp	-13.8658
soc	-13.8672
▁Ema	-13.8676
vent	-13.8679
▁rag	-13.8688
sco	-13.8694
▁RK	-13.8707
elb	-13.871
▁ubj	-13.872
▁Ovi	-13.8731
▁lob	-13.8734
nny	-13.8754
▁arpp	-13.8762
eac	-13.8768
öf	-13.8776
▁Syl	-13.8801
AM	-13.8805
pro	-13.8806
▁doc	-13.8807
▁Pup	-13.8816
▁gy	-13.8818
▁hor	-13.8824
reg	-13.8832
▁oach	-13.8834
CO	-13.8839
▁krob	-13.8849
▁ayan	-13.8858
▁UM	-13.886
▁omel	-13.8861
cor	-13.8866
▁Hom	-13.8894
IU	-13.8897
SD	-13.8898
▁suma	-13.8898
▁awe	-13.89
▁irko	-13.8907
▁krik	-13.8909
▁Kiru	-13.8917
▁limp	-13.8918
fer	-13.8921
▁Get	-13.8922
plä	-13.8948
▁suuta	-13.8952
ddik	-13.8954
▁nars	-13.8956
øre	-13.8959
▁Ride	-13.8961
säh	-13.8962
IR	-13.8968
ер	-13.8974
▁Dela	-13.8974
Ka	-13.8975
PP	-13.9001
▁asso	-13.9011
▁Mair	-13.9021
▁kank	-13.9032
▁mpe	-13.9033
WD	-13.9034
▁tup	-13.9042
▁reb	-13.9042
PL	-13.9043
agl	-13.9049
3%	-13.9058
▁5-4	-13.9073
▁1-4	-13.9073
▁Dovh	-13.9073
▁Adid	-13.9074
▁Rabb	-13.9075
▁ни	-13.9076
▁GBT	-13.9076
▁auhaa	-13.9076
wing	-13.9079
▁(8	-13.908
▁74.	-13.9083
▁Gadd	-13.9084
▁CAS	-13.9085
▁62.	-13.9087
▁41.	-13.9089
▁UL	-13.909
▁Noir	-13.909
▁ypä	-13.9091
▁37.	-13.9092
▁Poju	-13.9095
▁Rodg	-13.9099
▁älkk	-13.91
▁Hend	-13.91
▁liud	-13.9102
▁Koov	-13.9103
▁Åker	-13.9106
orro	-13.9107
▁örni	-13.911
▁gard	-13.9116
▁35.	-13.9116
▁Orti	-13.9117
▁ragm	-13.9123
▁122	-13.9129
▁shaw	-13.913
▁reig	-13.9131
▁osco	-13.9133
▁CR	-13.9135
▁Maar	-13.9142
▁Grie	-13.9145
▁2-6	-13.9147
▁down	-13.9148
▁bock	-13.9152
▁bus	-13.9152
▁AY	-13.9153
▁rypä	-13.9157
▁egem	-13.916
iza	-13.9162
▁leb	-13.917
OC	-13.9171
▁äynä	-13.9182
arq	-13.9183
ené	-13.9184
▁oukka	-13.9185
▁ón	-13.9186
▁mudi	-13.9189
▁NNA	-13.9192
▁cio	-13.9199
▁Lef	-13.92
▁cap	-13.9203
▁diil	-13.9204
▁Yah	-13.9204
▁odka	-13.9205
▁vob	-13.9211
▁elec	-13.9221
▁ibb	-13.9225
rif	-13.9227
▁Witt	-13.9228
▁umph	-13.9237
▁acco	-13.9256
▁Dua	-13.9275
avol	-13.9275
kra	-13.9279
▁Fat	-13.9289
▁Kirg	-13.9292
▁SD	-13.9298
▁duon	-13.9305
▁Pub	-13.931
▁Mura	-13.9311
dé	-13.9321
▁unch	-13.9323
▁Mör	-13.933
▁ökö	-13.9333
rvi	-13.9343
▁läss	-13.9352
▁purj	-13.936
▁Neb	-13.9376
▁Clin	-13.9386
▁oshi	-13.9393
arc	-13.9395
▁lare	-13.9398
▁Cab	-13.9404
▁SJ	-13.9416
▁weet	-13.9417
uohk	-13.9421
▁ambo	-13.9425
▁pix	-13.9439
▁lyp	-13.9444
▁Stin	-13.9452
ove	-13.9464
yppä	-13.9467
▁loor	-13.9468
▁Reis	-13.9488
ON	-13.9505
▁Malk	-13.9513
cco	-13.9539
▁uksu	-13.9544
▁Glo	-13.9561
▁Gene	-13.9576
▁Gas	-13.9578
▁Mitr	-13.9584
erz	-13.9586
vič	-13.9587
▁ubb	-13.9595
▁lumo	-13.9596
raal	-13.9614
▁irak	-13.9623
▁ulvii	-13.9634
IK	-13.9641
▁Rön	-13.9654
▁hamu	-13.9664
▁goo	-13.9672
▁Gat	-13.9677
▁atch	-13.9686
eef	-13.9698
▁UN	-13.9706
▁Trag	-13.9707
▁eesa	-13.9715
▁lici	-13.9773
▁käpy	-13.9776
AL	-13.9787
▁Walta	-13.9798
▁esha	-13.9823
8.	-13.9827
▁maz	-13.983
Agr	-13.9835
▁oote	-13.9837
▁häkk	-13.9846
owd	-13.9854
lén	-13.9856
roy	-13.9856
appo	-13.9867
▁Wei	-13.987
cca	-13.9883
▁rees	-13.9888
▁agd	-13.9899
▁game	-13.9921
▁farm	-13.9922
▁amet	-13.9925
▁Koz	-13.9932
▁Cro	-13.9932
▁olkku	-13.9962
ürk	-13.9967
▁Ukr	-13.9967
▁PAL	-13.9972
▁Had	-13.9973
RF	-13.9973
VV	-13.9979
ALA	-13.9981
/7	-13.9982
▁Horky	-13.9982
lipp	-13.9983
▁weig	-13.9984
▁rouhe	-13.9984
▁eggi	-13.9984
▁Lviv	-13.9985
▁Clio	-13.9985
▁aekw	-13.9986
▁5-2	-13.9986
▁Webb	-13.9987
▁96.	-13.9988
▁otši	-13.9991
▁arza	-13.9993
▁ulvo	-13.9995
▁55.	-13.9998
▁51.	-13.9999
▁Abdi	-14
▁jump	-14.0004
▁gnes	-14.0004
▁reak	-14.0005
▁Posa	-14.0007
▁eltto	-14.0009
▁Carg	-14.001
▁Dolp	-14.0011
▁45.	-14.0017
▁Tenh	-14.0017
▁elda	-14.0021
▁ezz	-14.0024
▁ättö	-14.0027
▁alba	-14.0031
▁örö	-14.0033
▁Uura	-14.0038
irc	-14.0042
sala	-14.0043
▁šer	-14.0047
▁bull	-14.0047
▁asca	-14.0047
▁Tara	-14.0048
▁FT	-14.0049
AU	-14.0049
▁Sarp	-14.0051
hopp	-14.0063
▁Yag	-14.0064
▁Niro	-14.0067
▁IN	-14.0072
▁novi	-14.0075
ün	-14.009
▁omell	-14.0091
▁STU	-14.0095
▁nyök	-14.0099
olve	-14.0113
▁hatc	-14.0113
Ha	-14.0114
▁Siira	-14.0118
▁Camb	-14.0136
▁pont	-14.0138
▁ramp	-14.0143
▁imus	-14.0143
▁owen	-14.0149
▁Fua	-14.0155
▁så	-14.0161
▁norp	-14.0163
▁step	-14.0176
▁Amé	-14.018
▁occ	-14.0187
▁ušk	-14.0194
▁8)	-14.02
т	-14.0207
▁Bask	-14.0209
▁ärp	-14.0209
▁nart	-14.0212
▁Ripa	-14.0217
inch	-14.0221
▁utru	-14.0227
▁Verd	-14.0234
▁esar	-14.0261
▁lend	-14.0273
▁Hub	-14.029
▁room	-14.0294
EK	-14.0295
RS	-14.0309
▁care	-14.0309
BB	-14.031
▁öpp	-14.0316
▁Abo	-14.0325
TM	-14.0339
kwa	-14.034
▁AK	-14.034
▁hips	-14.034
▁Adv	-14.0347
CF	-14.0347
▁inic	-14.0348
▁Weis	-14.0362
▁Rez	-14.0368
▁VI	-14.0378
▁Arg	-14.0381
▁amse	-14.0383
▁muusi	-14.0385
▁äihk	-14.0397
▁Kod	-14.0398
▁Lod	-14.04
BD	-14.0404
ohd	-14.0414
▁Bez	-14.0425
▁RC	-14.0427
▁otko	-14.043
▁Ush	-14.0437
ärsk	-14.0439
▁ueb	-14.0461
▁PI	-14.0461
▁erw	-14.0465
▁PC	-14.0465
▁ated	-14.0474
mad	-14.0474
▁uzm	-14.0481
▁mage	-14.0487
irkk	-14.0503
▁cci	-14.0514
appe	-14.0515
▁nipu	-14.0529
▁JA	-14.0532
▁cran	-14.0544
▁Weg	-14.0548
▁uben	-14.0558
▁dipp	-14.056
▁Aspe	-14.0575
▁trak	-14.0615
н	-14.0618
cle	-14.0623
alue	-14.063
▁anski	-14.0632
ł	-14.0632
▁Dou	-14.0637
▁Sipa	-14.0681
▁moz	-14.0683
oq	-14.0689
PC	-14.0719
▁ahme	-14.0728
▁ökä	-14.073
▁cot	-14.074
▁Kep	-14.0749
▁Sub	-14.0779
▁Rati	-14.0781
▁Hic	-14.0784
▁Oasi	-14.079
▁Dere	-14.0792
▁wee	-14.0794
▁näpe	-14.0797
▁azza	-14.0817
+0	-14.0819
▁narr	-14.0822
▁ür	-14.0828
rups	-14.0829
umpi	-14.0829
▁Wins	-14.0832
▁uuru	-14.0836
KU	-14.0845
▁leks	-14.0848
ieto	-14.0863
▁Bod	-14.0872
aske	-14.0879
▁Auc	-14.0887
CL	-14.0888
▁rato	-14.0888
▁gol	-14.0898
iema	-14.0922
hiba	-14.0927
▁rash	-14.0927
DI	-14.0928
occ	-14.0932
RY	-14.0937
HP	-14.0939
▁owne	-14.094
▁bah	-14.0952
▁remp	-14.0952
▁Arl	-14.0952
NT	-14.0958
OL	-14.0959
▁Haar	-14.0962
▁werk	-14.0965
▁agin	-14.0978
'	-14.0978
×	-14.0982
▁Díaz	-14.0982
▁★★	-14.0982
ř	-14.0982
▁jørn	-14.0983
▁Gyll	-14.0983
▁Ranki	-14.0983
▁Wulf	-14.0983
▁NMKY	-14.0984
▁segg	-14.0984
▁oVo	-14.0985
▁tyhj	-14.0986
▁leuat	-14.0986
▁Ayla	-14.0986
▁(6	-14.0987
▁ärrä	-14.0987
▁Come	-14.0987
▁loy	-14.0989
▁Roms	-14.099
▁dow	-14.0992
▁Wert	-14.0993
▁muhi	-14.0993
▁born	-14.0994
▁SUV	-14.0995
▁deep	-14.0995
▁56.	-14.0996
▁eipi	-14.0998
▁Hör	-14.0998
▁46.	-14.1
▁FRA	-14.1
üf	-14.1001
▁0-1	-14.1002
▁39.	-14.1002
▁cy	-14.1005
▁Nür	-14.1007
▁Öö	-14.1008
iaf	-14.1014
▁shok	-14.1017
emor	-14.1021
▁doro	-14.1022
▁eulo	-14.1023
wait	-14.1027
▁Bald	-14.1027
▁nyrp	-14.1029
▁ilf	-14.103
▁179	-14.1047
▁NEN	-14.1049
▁abw	-14.1055
▁Nola	-14.106
▁Sid	-14.1063
RH	-14.1065
▁MI	-14.1067
▁eega	-14.107
▁SUO	-14.1071
hif	-14.1075
▁räpi	-14.1077
▁Roth	-14.1086
▁MAL	-14.1087
▁ín	-14.1101
▁ár	-14.1102
▁äry	-14.1104
▁Trö	-14.1108
▁Aud	-14.1111
▁drai	-14.1113
▁ertz	-14.1116
▁Rans	-14.1122
▁eepr	-14.1127
▁arco	-14.1134
sè	-14.114
▁Oura	-14.1142
▁Doo	-14.1143
▁animo	-14.1147
urg	-14.1149
dg	-14.1157
▁Moro	-14.1161
iosk	-14.1169
▁irsk	-14.117
▁vehk	-14.1171
▁Deg	-14.1173
dex	-14.1181
▁ugar	-14.1185
▁iš	-14.119
▁SY	-14.1192
▁Riko	-14.1194
▁4-	-14.1194
▁ärti	-14.1195
▁kummi	-14.1196
▁umba	-14.1212
▁raap	-14.1224
▁orri	-14.1225
▁Aid	-14.1235
▁Gand	-14.1235
▁opsu	-14.1237
▁Enz	-14.1238
illi	-14.1241
▁ixe	-14.1249
▁Sipe	-14.125
3.	-14.1256
eflo	-14.1256
▁you	-14.1266
mith	-14.1266
▁mör	-14.1287
▁Eq	-14.1291
sig	-14.1318
▁BA	-14.1324
▁ADA	-14.1332
▁Cord	-14.1332
▁odom	-14.1334
▁narut	-14.1336
ainz	-14.1341
RD	-14.1344
game	-14.1364
OP	-14.1366
▁sepä	-14.1375
▁4:	-14.1395
▁liip	-14.1399
▁kepi	-14.1402
▁arf	-14.1406
ы	-14.1407
▁avlo	-14.1416
р	-14.1419
▁erri	-14.1427
▁önö	-14.1443
raya	-14.1443
▁Bah	-14.1445
2)	-14.1456
dži	-14.1461
▁Xh	-14.1465
inci	-14.147
▁raid	-14.1475
▁xy	-14.1492
▁OS	-14.1495
▁onny	-14.1499
▁IFA	-14.1526
▁Okko	-14.1535
xio	-14.1542
abin	-14.1546
▁redd	-14.1548
▁lå	-14.1552
▁Wien	-14.1562
▁Dik	-14.1568
FT	-14.1571
tšer	-14.16
▁Kid	-14.16
▁öysä	-14.1613
▁kärki	-14.1624
▁Hein	-14.1633
▁vap	-14.1636
▁tihu	-14.1639
▁(3	-14.1641
▁HK	-14.1646
▁lush	-14.1646
ärky	-14.1648
▁ouve	-14.1653
▁holo	-14.1664
▁adam	-14.1666
mag	-14.1691
KL	-14.175
íg	-14.1767
▁loiv	-14.1772
orc	-14.1773
▁trio	-14.1774
▁ко	-14.1779
GM	-14.1798
▁eq	-14.1799
▁ript	-14.18
pio	-14.1806
øy	-14.1807
quo	-14.1822
arpp	-14.1835
öyh	-14.1884
ocu	-14.1885
▁wed	-14.1898
▁pard	-14.1907
ú	-14.1918
▁led	-14.1927
▁Lapp	-14.1933
NO	-14.1941
то	-14.1942
▁eod	-14.196
onki	-14.1967
▁erbi	-14.1974
ро	-14.1975
DU	-14.2003
▁Mirk	-14.2008
æ	-14.2023
kayo	-14.2028
väh	-14.2047
▁з	-14.2056
▁peci	-14.2061
▁л	-14.2071
lumm	-14.2072
adr	-14.2078
▁DN	-14.208
▁Kiil	-14.2082
▁ISU	-14.2083
▁Risk	-14.2085
▁ykö	-14.2087
ç	-14.2092
▁пр	-14.2093
ń	-14.2093
▁PHEV	-14.2093
▁0-4	-14.2093
+3	-14.2093
▁Cir	-14.2093
▁SEY	-14.2094
▁lós	-14.2095
▁Foot	-14.2095
▁aque	-14.2096
NBC	-14.2096
aekw	-14.2096
▁ebbi	-14.2096
ELI	-14.2096
▁Daw	-14.2096
ны	-14.2098
▁CLE	-14.2101
▁uppo	-14.2102
▁hash	-14.2102
▁ulpu	-14.2102
▁puod	-14.2104
▁Cobb	-14.2105
▁Tolv	-14.2106
▁Kihu	-14.2108
▁...	-14.2108
▁barb	-14.211
▁Tsah	-14.2112
▁Beau	-14.2112
▁68.	-14.2112
▁Outl	-14.2114
▁ndré	-14.2115
▁arni	-14.2115
izz	-14.2116
▁äbä	-14.2116
▁häls	-14.2116
▁töyk	-14.2118
▁75.	-14.2119
▁43.	-14.2121
▁äPa	-14.2121
▁yykö	-14.2122
CT	-14.2122
▁65.	-14.2122
▁44.	-14.2123
▁onda	-14.2132
▁Ghar	-14.2134
▁hiha	-14.2136
▁139	-14.2137
▁amso	-14.2138
ми	-14.214
MS	-14.2142
▁ymni	-14.2145
▁194	-14.215
▁agni	-14.2151
▁alsh	-14.2154
ywe	-14.2155
▁ufo	-14.2158
▁ambi	-14.2163
▁ayle	-14.2167
▁162	-14.2168
▁138	-14.2168
▁horp	-14.217
▁Vies	-14.2171
▁ljus	-14.2172
▁FX	-14.2175
▁zg	-14.2178
▁Rib	-14.2178
▁6-	-14.2182
▁ucu	-14.2184
ún	-14.2186
▁hlö	-14.2189
▁skab	-14.2192
▁ohra	-14.2193
▁SKS	-14.2198
▁Lab	-14.2213
▁247	-14.2214
▁Berk	-14.2215
▁ES	-14.2216
▁MMA	-14.2217
▁embe	-14.222
rib	-14.2228
▁Mix	-14.2236
zé	-14.2237
▁SIS	-14.2261
NEN	-14.2261
otka	-14.2264
dir	-14.2271
lops	-14.2274
▁trav	-14.2277
▁AKK	-14.2284
▁už	-14.2289
LT	-14.2294
▁kukko	-14.2306
lbum	-14.231
▁Zon	-14.2318
▁vald	-14.2328
▁Miri	-14.2346
▁atvo	-14.2349
ihv	-14.2354
▁Daru	-14.2369
ÄÄ	-14.2372
yad	-14.2383
▁ALA	-14.2393
▁Trap	-14.2411
▁amona	-14.2419
▁Ruf	-14.2419
▁MH	-14.242
▁upra	-14.242
ugu	-14.2421
▁sapl	-14.2436
▁even	-14.2441
▁lehv	-14.2491
▁asic	-14.2492
▁Ring	-14.25
auvo	-14.2503
▁ärsy	-14.2507
▁Aq	-14.2513
▁AUT	-14.2524
▁Rag	-14.2538
▁MAS	-14.2539
lini	-14.2539
▁uiz	-14.254
▁UO	-14.2541
▁MC	-14.2543
▁umal	-14.2553
▁eddy	-14.2561
▁не	-14.2564
▁rkan	-14.2569
▁cra	-14.2575
▁09	-14.2576
VE	-14.2582
▁Rama	-14.2592
ND	-14.2597
▁joog	-14.2605
▁Mora	-14.2613
ME	-14.2619
▁nudd	-14.2619
▁Tren	-14.2622
▁Haye	-14.2634
▁Ål	-14.2635
▁rega	-14.2636
ни	-14.264
▁Nooa	-14.2652
lap	-14.2672
▁dz	-14.2673
oca	-14.2673
▁Lipp	-14.2688
▁renz	-14.2697
▁olvo	-14.2715
▁camp	-14.2733
STA	-14.2751
NHC	-14.2756
▁sopu	-14.2759
▁ugge	-14.2762
pec	-14.2782
▁öper	-14.2824
▁unc	-14.2825
ч	-14.3339
ě	-14.3343
ô	-14.4772
	-14.4772
х	-14.4772
ê	-14.4772
с	-14.5246
ь	-14.6222
в	-14.6431
©	-14.6438
‒	-14.6438
г	-14.8435
*	-14.8435
ă	-14.8438
Õ	-14.8438
Ú	-14.8438
́	-14.8438
ė	-14.8438
з	-15.0923
>	-15.0935
]	-15.0935
€	-15.0935
ð	-15.0938
	-15.0938
Ç	-15.0938
ß	-15.0938
ò	-15.0938
ā	-15.0938
ū	-15.0938
А	-15.0938
‐	-15.0938
ı	-15.0938
ï	-15.383
б	-15.4268
Æ	-15.4272
Í	-15.4272
Þ	-15.4272
ō	-15.4272
ț	-15.4272
α	-15.4272
●	-15.4272
ж	-15.8728
д	-15.8831
Ü	-15.9268
§	-15.9268
Š	-15.9268
­	-15.9268
Č	-15.9272
Ж	-15.9272
$	-15.9272
\	-15.9272
`	-15.9272
¶	-15.9272
İ	-15.9272
ň	-15.9272
ŏ	-15.9272
œ	-15.9272
ş	-15.9272
ů	-15.9272
ż	-15.9272
ə	-15.9272
˗	-15.9272
Н	-15.9272
‰	-15.9272
′	-15.9272
⁣	-15.9272
Л	-16.9233
И	-16.9234
Ó	-16.9235
À	-16.9236
Ш	-16.9237
К	-16.9238
⭐	-16.9239
•	-16.924
э	-16.9241
ф	-16.9242
Б	-16.9243
μ	-16.9244
ē	-16.9245
щ	-16.9246
ш	-16.9247
ņ	-16.9248
П	-16.9249
Ф	-16.925
С	-16.9251
ц	-16.9252
В	-16.9253
Ø	-16.9254
<	-16.9255
õ	-16.9256
Ž	-16.9257
É	-16.9258
Á	-16.9259
ğ	-16.926
⁄	-16.9261
м	-16.9262
★	-16.9263
п	-16.9264
#	-16.9265
к	-16.9266
ñ	-16.9267
−	-16.9268
°	-16.9268
;	-16.9268
Å	-16.9268
@	-16.9269
̈	-16.927
[	-16.9271
Э	-16.9272
ÿ	-16.9272
(	-16.9272
~	-16.9272
	-16.9272
¡	-16.9272
®	-16.9272
±	-16.9272
Â	-16.9272
Ò	-16.9272
Û	-16.9272
ì	-16.9272
î	-16.9272
û	-16.9272
ą	-16.9272
đ	-16.9272
ę	-16.9272
ģ	-16.9272
ī	-16.9272
Ķ	-16.9272
ľ	-16.9272
Ł	-16.9272
ś	-16.9272
ų	-16.9272
ź	-16.9272
ǎ	-16.9272
Ș	-16.9272
ș	-16.9272
Д	-16.9272
З	-16.9272
О	-16.9272
Т	-16.9272
ỏ	-16.9272
ố	-16.9272
‍	-16.9272
∞	-16.9272
😂	-16.9272
