<unk>	0
<s>	0
</s>	0
en	-0
ta	-1
in	-2
is	-3
an	-4
▁k	-5
ll	-6
▁o	-7
▁s	-8
tä	-9
▁m	-10
▁v	-11
▁j	-12
▁p	-13
ti	-14
tu	-15
te	-16
sa	-17
es	-18
to	-19
as	-20
al	-21
ik	-22
▁e	-23
▁h	-24
än	-25
it	-26
▁l	-27
uo	-28
ka	-29
ks	-30
▁.	-31
er	-32
at	-33
us	-34
▁n	-35
ut	-36
li	-37
▁,	-38
▁ja	-39
▁on	-40
un	-41
aa	-42
on	-43
▁a	-44
et	-45
lla	-46
el	-47
▁S	-48
il	-49
ar	-50
im	-51
▁ta	-52
os	-53
ty	-54
lle	-55
oi	-56
▁K	-57
ää	-58
▁tu	-59
▁r	-60
ja	-61
ia	-62
ttä	-63
uu	-64
▁T	-65
ko	-66
le	-67
▁ko	-68
▁y	-69
sä	-70
ke	-71
den	-72
ista	-73
▁M	-74
ma	-75
iv	-76
▁jo	-77
▁H	-78
inen	-79
si	-80
llä	-81
ur	-82
▁P	-83
ki	-84
▁ka	-85
va	-86
▁vi	-87
ri	-88
ul	-89
een	-90
▁mu	-91
▁to	-92
▁V	-93
mm	-94
▁va	-95
hd	-96
ksi	-97
yt	-98
▁että	-99
taa	-100
isi	-101
vat	-102
ys	-103
▁L	-104
ih	-105
ku	-106
ais	-107
yö	-108
▁si	-109
▁se	-110
▁te	-111
▁A	-112
mä	-113
▁E	-114
▁-	-115
pa	-116
▁ti	-117
assa	-118
issa	-119
ir	-120
utta	-121
▁oli	-122
▁en	-123
kaan	-124
▁tä	-125
▁J	-126
▁ei	-127
▁ku	-128
vä	-129
asta	-130
ten	-131
itä	-132
mp	-133
▁N	-134
▁ma	-135
essa	-136
▁sa	-137
kin	-138
uom	-139
▁ker	-140
▁vuo	-141
tel	-142
äh	-143
ot	-144
▁R	-145
llis	-146
▁kä	-147
ina	-148
▁2	-149
uh	-150
▁jä	-151
ne	-152
▁al	-153
kä	-154
iin	-155
ra	-156
▁la	-157
tus	-158
▁as	-159
de	-160
▁hän	-161
op	-162
tö	-163
mis	-164
jo	-165
▁1	-166
ksen	-167
esta	-168
▁O	-169
▁po	-170
ei	-171
▁pää	-172
nn	-173
▁I	-174
tti	-175
vi	-176
ie	-177
man	-178
jä	-179
or	-180
▁kan	-181
▁myö	-182
uk	-183
▁ole	-184
▁mukaan	-185
▁pa	-186
▁is	-187
▁ra	-188
la	-189
jan	-190
▁kun	-191
lo	-192
▁val	-193
iden	-194
nut	-195
taan	-196
▁ha	-197
oit	-198
▁kerto	-199
isen	-200
▁ty	-201
▁kes	-202
yy	-203
pp	-204
mi	-205
ään	-206
usta	-207
van	-208
se	-209
maan	-210
▁nä	-211
istä	-212
oin	-213
▁per	-214
▁pal	-215
▁san	-216
▁myös	-217
teen	-218
ika	-219
▁B	-220
▁"	-221
ossa	-222
uks	-223
▁Suom	-224
esti	-225
▁20	-226
uol	-227
ton	-228
▁li	-229
▁an	-230
▁vä	-231
ussa	-232
ed	-233
ike	-234
ittä	-235
ien	-236
▁es	-237
▁ovat	-238
sin	-239
▁hy	-240
▁ol	-241
▁Y	-242
llut	-243
▁il	-244
▁yh	-245
ssä	-246
▁mi	-247
tta	-248
essä	-249
▁mutta	-250
utu	-251
▁U	-252
tiin	-253
nyt	-254
iste	-255
▁tar	-256
jen	-257
ro	-258
▁läh	-259
he	-260
▁saa	-261
▁voi	-262
aan	-263
▁in	-264
estä	-265
▁toim	-266
ssa	-267
unn	-268
up	-269
ön	-270
▁ke	-271
ivä	-272
▁var	-273
oo	-274
ee	-275
uus	-276
▁pel	-277
ita	-278
lä	-279
taja	-280
issä	-281
▁ih	-282
om	-283
ikka	-284
▁par	-285
ime	-286
00	-287
stä	-288
ana	-289
na	-290
▁t	-291
kka	-292
▁C	-293
iten	-294
pä	-295
asti	-296
▁Hän	-297
lan	-298
ken	-299
rin	-300
erk	-301
hti	-302
itse	-303
me	-304
iko	-305
ua	-306
▁pä	-307
▁ar	-308
enä	-309
ille	-310
▁käy	-311
▁tai	-312
keen	-313
iksi	-314
vin	-315
kk	-316
▁ollut	-317
isä	-318
alais	-319
▁he	-320
ha	-321
▁jäl	-322
▁sen	-323
lli	-324
yn	-325
vo	-326
▁F	-327
men	-328
rj	-329
▁kuin	-330
ve	-331
▁kertoo	-332
▁tapa	-333
isto	-334
▁puol	-335
▁pr	-336
ity	-337
▁joka	-338
▁aik	-339
▁kuu	-340
▁er	-341
tin	-342
illa	-343
osta	-344
▁Ka	-345
▁osa	-346
▁ki	-347
▁men	-348
▁(	-349
ttu	-350
hdo	-351
ikä	-352
ala	-353
▁D	-354
män	-355
ud	-356
oa	-357
▁su	-358
alta	-359
ky	-360
▁Se	-361
ol	-362
▁vasta	-363
▁kir	-364
kon	-365
re	-366
ran	-367
▁jälkeen	-368
mmin	-369
ise	-370
nna	-371
▁Sa	-372
vät	-373
▁puh	-374
▁maa	-375
▁G	-376
rä	-377
▁suo	-378
io	-379
ian	-380
htu	-381
▁viime	-382
▁:	-383
min	-384
▁kanssa	-385
▁kaik	-386
▁3	-387
istu	-388
▁us	-389
ivät	-390
▁kesk	-391
▁La	-392
▁ed	-393
elä	-394
▁niin	-395
itta	-396
▁teh	-397
kaa	-398
▁työ	-399
yty	-400
kö	-401
▁Venä	-402
uto	-403
mista	-404
▁le	-405
minen	-406
taina	-407
▁kul	-408
▁ky	-409
mmen	-410
kan	-411
tään	-412
pu	-413
▁seur	-414
▁pi	-415
▁Tä	-416
da	-417
▁sel	-418
oh	-419
lleen	-420
sim	-421
▁202	-422
nä	-423
▁tule	-424
eli	-425
▁poli	-426
telu	-427
▁lop	-428
isin	-429
▁lu	-430
jän	-431
etta	-432
tte	-433
▁kor	-434
▁na	-435
uksen	-436
▁sy	-437
isesti	-438
▁min	-439
▁Ta	-440
vaa	-441
uud	-442
ali	-443
hta	-444
mat	-445
▁Suomen	-446
jat	-447
▁kin	-448
▁pitä	-449
▁luo	-450
sen	-451
ivat	-452
▁vuonna	-453
ellä	-454
elle	-455
▁sanoo	-456
jon	-457
uut	-458
▁kol	-459
▁jat	-460
inn	-461
uden	-462
mään	-463
nen	-464
joi	-465
▁jul	-466
mme	-467
▁os	-468
▁so	-469
▁suu	-470
ukku	-471
yttä	-472
▁kuiten	-473
pi	-474
▁ä	-475
▁ni	-476
tää	-477
▁kys	-478
▁olla	-479
▁ne	-480
▁kos	-481
▁yli	-482
vuo	-483
▁ot	-484
▁olisi	-485
▁eur	-486
lais	-487
ikko	-488
kra	-489
asi	-490
kil	-491
▁kil	-492
so	-493
▁hen	-494
▁tied	-495
uuta	-496
▁sta	-497
neet	-498
▁oike	-499
▁tie	-500
▁tun	-501
▁hal	-502
tele	-503
ella	-504
▁yhte	-505
▁4	-506
itti	-507
▁re	-508
▁f	-509
koi	-510
▁W	-511
▁tuo	-512
▁tapahtu	-513
ilu	-514
yh	-515
▁tur	-516
kko	-517
han	-518
▁koko	-519
▁sekä	-520
▁lä	-521
ho	-522
▁b	-523
▁alu	-524
massa	-525
kun	-526
▁tilan	-527
▁vas	-528
tuks	-529
▁voit	-530
▁oh	-531
lta	-532
▁nyt	-533
isti	-534
ru	-535
hin	-536
▁päiv	-537
▁mitä	-538
▁kat	-539
usi	-540
esiden	-541
uv	-542
▁5	-543
maa	-544
▁vielä	-545
▁d	-546
tty	-547
▁epä	-548
isiin	-549
ari	-550
ttiin	-551
ni	-552
▁hänen	-553
▁van	-554
emm	-555
ihin	-556
ili	-557
mpi	-558
vel	-559
▁miel	-560
▁Jo	-561
tuksen	-562
▁vuoden	-563
▁no	-564
▁ul	-565
llo	-566
tia	-567
▁järj	-568
▁liik	-569
▁har	-570
▁elä	-571
▁ur	-572
sta	-573
uoli	-574
uuden	-575
mo	-576
osen	-577
▁perus	-578
▁aika	-579
▁mie	-580
är	-581
▁kertoi	-582
simmä	-583
▁ver	-584
▁vain	-585
▁mahdo	-586
vän	-587
▁Vi	-588
▁vo	-589
ui	-590
▁En	-591
▁mat	-592
▁To	-593
▁maan	-594
▁Hel	-595
neen	-596
▁lö	-597
tio	-598
▁Ha	-599
gin	-600
inä	-601
▁väh	-602
▁siitä	-603
▁kaup	-604
▁hyvin	-605
▁Mar	-606
▁lle	-607
▁hä	-608
▁kuitenkin	-609
ulu	-610
▁asi	-611
▁yr	-612
oli	-613
inta	-614
oita	-615
ihe	-616
▁Ukra	-617
kki	-618
toi	-619
itten	-620
itty	-621
teli	-622
llinen	-623
▁vaa	-624
▁tut	-625
▁sitä	-626
jaa	-627
isteri	-628
▁mon	-629
▁kas	-630
▁mää	-631
erkiksi	-632
eh	-633
▁suom	-634
tui	-635
▁Ma	-636
toa	-637
della	-638
▁hyvä	-639
sti	-640
▁presiden	-641
▁sanoi	-642
hdys	-643
▁lo	-644
▁vaik	-645
itys	-646
lin	-647
▁itse	-648
tuu	-649
▁?	-650
htaja	-651
val	-652
▁jossa	-653
▁ensimmä	-654
▁19	-655
kea	-656
eita	-657
▁Ra	-658
ito	-659
ter	-660
▁jon	-661
uttaa	-662
▁Ko	-663
hde	-664
▁i	-665
dän	-666
uole	-667
▁noin	-668
▁jos	-669
▁aina	-670
malla	-671
yr	-672
▁auto	-673
eet	-674
▁ihmis	-675
kuussa	-676
▁koh	-677
▁An	-678
ilta	-679
▁aikana	-680
▁pelaa	-681
iset	-682
isia	-683
▁pit	-684
ittaa	-685
▁Pa	-686
▁ään	-687
jel	-688
lloin	-689
▁yks	-690
▁paljon	-691
tettu	-692
ivi	-693
ig	-694
▁Va	-695
kia	-696
▁ennen	-697
▁lisä	-698
▁esim	-699
kään	-700
kilö	-701
kas	-702
▁väl	-703
▁kiin	-704
▁ilm	-705
kunn	-706
ikki	-707
▁eivät	-708
▁syy	-709
▁las	-710
no	-711
otta	-712
▁sitten	-713
▁sillä	-714
▁maal	-715
▁Venäjän	-716
ulla	-717
▁pys	-718
▁ri	-719
▁jää	-720
▁ette	-721
istö	-722
▁6	-723
▁sai	-724
▁lap	-725
▁lla	-726
▁Ku	-727
▁järjes	-728
▁teke	-729
eri	-730
▁kon	-731
▁hyö	-732
llista	-733
▁kuul	-734
uor	-735
anta	-736
▁yle	-737
▁tuli	-738
▁käyt	-739
▁kilpa	-740
kais	-741
▁muun	-742
ea	-743
▁201	-744
atti	-745
tua	-746
▁tul	-747
kis	-748
▁mil	-749
rke	-750
uot	-751
▁henkilö	-752
hden	-753
ikon	-754
▁op	-755
pan	-756
id	-757
▁keh	-758
▁kau	-759
▁muassa	-760
vuoti	-761
▁maail	-762
▁halli	-763
▁Yhdys	-764
▁mies	-765
▁joukku	-766
ima	-767
uutta	-768
ch	-769
▁Ilta	-770
että	-771
▁Tru	-772
▁vastaan	-773
▁kis	-774
▁ssa	-775
eksi	-776
▁tunn	-777
▁hel	-778
▁Trump	-779
▁ede	-780
▁esimerkiksi	-781
▁kaikki	-782
▁prosen	-783
▁Helsin	-784
ans	-785
tusta	-786
▁He	-787
erä	-788
▁sop	-789
ministeri	-790
misen	-791
isiä	-792
ann	-793
isty	-794
▁het	-795
mia	-796
▁00	-797
etti	-798
▁tö	-799
ittää	-800
llisen	-801
po	-802
▁ulko	-803
do	-804
ue	-805
tun	-806
▁tote	-807
▁kaksi	-808
iva	-809
▁Har	-810
▁asia	-811
ite	-812
▁Jos	-813
vää	-814
▁tulee	-815
una	-816
▁ter	-817
▁Sal	-818
▁kann	-819
▁lau	-820
je	-821
▁aie	-822
kkä	-823
▁7	-824
▁Nä	-825
▁000	-826
▁sija	-827
▁kommen	-828
son	-829
dä	-830
▁huo	-831
▁lis	-832
▁muu	-833
llaan	-834
kseen	-835
▁ajan	-836
ira	-837
teessa	-838
via	-839
▁toimi	-840
▁Ro	-841
llisesti	-842
▁pitää	-843
▁jot	-844
▁raken	-845
▁eli	-846
ksa	-847
▁ettei	-848
▁muut	-849
johtaja	-850
▁olivat	-851
▁suur	-852
din	-853
▁uh	-854
▁mieh	-855
▁arvi	-856
ila	-857
▁väli	-858
vasti	-859
▁ve	-860
iseen	-861
▁Kun	-862
▁Poli	-863
▁euroa	-864
▁Ja	-865
▁Val	-866
▁kaupun	-867
di	-868
▁nim	-869
▁ista	-870
▁sisä	-871
▁vuotta	-872
uksia	-873
▁huom	-874
▁Ukrain	-875
▁ottel	-876
mer	-877
▁tehd	-878
▁Is	-879
ven	-880
▁suunn	-881
▁Na	-882
▁pien	-883
▁nel	-884
▁kut	-885
▁yhd	-886
▁turva	-887
▁tav	-888
tyi	-889
▁yksi	-890
eiden	-891
▁vah	-892
▁uus	-893
▁jotka	-894
▁nais	-895
kuun	-896
▁vir	-897
▁keskus	-898
uro	-899
ing	-900
▁8	-901
▁kirjo	-902
▁Ol	-903
illä	-904
oitta	-905
▁käyttä	-906
isten	-907
▁talo	-908
▁len	-909
▁ksi	-910
onen	-911
emmän	-912
ale	-913
kim	-914
▁aihe	-915
tettiin	-916
▁kar	-917
▁kansa	-918
elta	-919
▁suomalais	-920
asto	-921
▁Li	-922
san	-923
▁laa	-924
▁kuva	-925
teet	-926
ula	-927
kana	-928
eseen	-929
ikan	-930
änä	-931
▁Le	-932
▁jonka	-933
tom	-934
▁Ne	-935
▁vier	-936
▁eikä	-937
▁päätö	-938
▁kunn	-939
▁uut	-940
ettu	-941
▁saan	-942
atta	-943
▁vaih	-944
uudessa	-945
ino	-946
llan	-947
▁met	-948
▁merk	-949
antaina	-950
▁Venäjä	-951
tojen	-952
ihen	-953
llin	-954
▁yllä	-955
▁Mi	-956
jien	-957
eltä	-958
▁tiedot	-959
▁Myö	-960
▁koti	-961
▁mo	-962
oma	-963
▁In	-964
sia	-965
der	-966
uun	-967
▁paika	-968
▁mar	-969
▁aja	-970
▁ase	-971
▁siir	-972
▁onn	-973
▁seuraa	-974
paa	-975
eidän	-976
▁määrä	-977
uri	-978
▁me	-979
▁hi	-980
▁Suomessa	-981
bb	-982
▁On	-983
▁eri	-984
joon	-985
▁Al	-986
▁sil	-987
▁vaikka	-988
ssi	-989
▁tämän	-990
▁lisää	-991
▁Ar	-992
yky	-993
oike	-994
uksessa	-995
▁mahdollis	-996
▁koska	-997
▁liitty	-998
tunut	-999
ine	-1000
▁palvel	-1001
valta	-1002
iti	-1003
▁9	-1004
▁han	-1005
▁olevan	-1006
ltä	-1007
▁ille	-1008
kke	-1009
▁Ruot	-1010
▁teki	-1011
tan	-1012
0-	-1013
▁kaa	-1014
oitti	-1015
gel	-1016
ope	-1017
ustus	-1018
toja	-1019
erg	-1020
▁Euro	-1021
iä	-1022
my	-1023
▁sä	-1024
▁sar	-1025
esty	-1026
▁kesä	-1027
kset	-1028
▁juo	-1029
dan	-1030
▁pu	-1031
▁miljoon	-1032
ppu	-1033
pe	-1034
▁hoi	-1035
▁nous	-1036
utti	-1037
▁tämä	-1038
eella	-1039
oiden	-1040
▁kier	-1041
▁presidentti	-1042
itto	-1043
▁näyt	-1044
▁joutu	-1045
▁myy	-1046
▁päivä	-1047
▁illa	-1048
▁aiemmin	-1049
ver	-1050
olla	-1051
kunta	-1052
▁työn	-1053
▁miten	-1054
▁siihen	-1055
elin	-1056
▁rat	-1057
▁Myös	-1058
▁tava	-1059
▁Si	-1060
osti	-1061
▁maailman	-1062
ansa	-1063
tinen	-1064
ttia	-1065
ulun	-1066
tetaan	-1067
▁g	-1068
▁näh	-1069
▁jota	-1070
▁)	-1071
▁mme	-1072
▁enemmän	-1073
▁muuta	-1074
toon	-1075
enn	-1076
tubb	-1077
▁tällä	-1078
mpia	-1079
mien	-1080
tion	-1081
▁haasta	-1082
yd	-1083
ker	-1084
▁Kes	-1085
oilla	-1086
▁puheen	-1087
viä	-1088
▁löyty	-1089
▁sää	-1090
ystä	-1091
ara	-1092
▁ehdo	-1093
▁Nyt	-1094
▁kysy	-1095
▁vaan	-1096
oihin	-1097
▁Tämä	-1098
▁lisäksi	-1099
▁med	-1100
yttää	-1101
ksia	-1102
▁kohd	-1103
▁peli	-1104
▁suh	-1105
telee	-1106
▁juh	-1107
etty	-1108
▁it	-1109
▁syö	-1110
▁ensi	-1111
▁poliisi	-1112
▁terve	-1113
▁".	-1114
▁muo	-1115
unta	-1116
kuu	-1117
▁säh	-1118
kel	-1119
tetta	-1120
▁saira	-1121
rs	-1122
▁piste	-1123
ettiin	-1124
mu	-1125
▁kertaa	-1126
kus	-1127
▁syn	-1128
jois	-1129
▁Tur	-1130
masta	-1131
▁Suomi	-1132
▁av	-1133
▁mikä	-1134
vuotias	-1135
▁ho	-1136
▁issa	-1137
▁kolme	-1138
▁MM	-1139
iseksi	-1140
▁Ke	-1141
▁mitään	-1142
▁Poliisi	-1143
ani	-1144
▁koke	-1145
▁joh	-1146
▁tärke	-1147
uko	-1148
▁osallis	-1149
▁uu	-1150
▁kyse	-1151
kellä	-1152
▁vaike	-1153
össä	-1154
teita	-1155
▁Per	-1156
▁ken	-1157
▁et	-1158
▁ryh	-1159
▁käs	-1160
tynyt	-1161
▁esiin	-1162
alainen	-1163
▁tal	-1164
▁ymp	-1165
eillä	-1166
▁un	-1167
attaa	-1168
▁nuor	-1169
▁Ukrainan	-1170
alla	-1171
▁mä	-1172
▁sella	-1173
pal	-1174
▁paik	-1175
▁vuos	-1176
▁viikon	-1177
▁Stubb	-1178
▁Ei	-1179
ittu	-1180
▁valmis	-1181
ile	-1182
▁ihan	-1183
itsi	-1184
▁Isra	-1185
▁Poh	-1186
▁u	-1187
▁usko	-1188
▁vide	-1189
▁elo	-1190
tetty	-1191
daan	-1192
yys	-1193
▁jopa	-1194
▁lin	-1195
▁use	-1196
tis	-1197
▁vastaa	-1198
ukka	-1199
▁nyky	-1200
kuuta	-1201
▁poh	-1202
ras	-1203
▁ruo	-1204
▁seura	-1205
▁Euroop	-1206
▁/	-1207
kunnan	-1208
▁oma	-1209
utin	-1210
▁tehtä	-1211
▁kats	-1212
▁prosenttia	-1213
oja	-1214
▁15	-1215
▁San	-1216
▁tarv	-1217
▁kuuka	-1218
attu	-1219
▁puoli	-1220
▁taka	-1221
▁vaati	-1222
▁perjan	-1223
▁au	-1224
til	-1225
vassa	-1226
▁Helsingin	-1227
▁lää	-1228
▁tehdä	-1229
▁kymmen	-1230
ura	-1231
▁rah	-1232
▁alku	-1233
▁Nor	-1234
ukset	-1235
▁vat	-1236
▁enää	-1237
uuri	-1238
▁Sen	-1239
▁sin	-1240
matta	-1241
▁arvioi	-1242
ulta	-1243
▁Vuo	-1244
▁Iltale	-1245
ksan	-1246
lleet	-1247
nus	-1248
osia	-1249
▁Te	-1250
ju	-1251
ivan	-1252
tori	-1253
▁­	-1254
tee	-1255
enne	-1256
istaa	-1257
▁Kuva	-1258
▁johta	-1259
isessa	-1260
ttö	-1261
voim	-1262
▁yleis	-1263
▁hui	-1264
tila	-1265
▁sähkö	-1266
▁kään	-1267
▁Re	-1268
HL	-1269
▁jal	-1270
▁toiv	-1271
▁vuosi	-1272
vien	-1273
▁ongel	-1274
tr	-1275
▁ilta	-1276
▁erity	-1277
▁Il	-1278
ksiä	-1279
▁turvallis	-1280
▁kuo	-1281
▁yhteis	-1282
ppi	-1283
▁selv	-1284
▁aikaa	-1285
▁toimin	-1286
▁ik	-1287
▁200	-1288
▁asian	-1289
misesta	-1290
uttu	-1291
imi	-1292
isa	-1293
▁de	-1294
▁oly	-1295
kes	-1296
mma	-1297
▁rik	-1298
▁halu	-1299
▁sopim	-1300
▁Vir	-1301
▁kello	-1302
▁ihm	-1303
▁mur	-1304
uksesta	-1305
▁kommentoi	-1306
▁aa	-1307
▁pääs	-1308
▁kär	-1309
2.	-1310
tyy	-1311
västi	-1312
ill	-1313
▁pois	-1314
miseen	-1315
▁Pe	-1316
▁än	-1317
▁pain	-1318
▁edus	-1319
▁ava	-1320
▁til	-1321
▁hyökkä	-1322
▁valmen	-1323
▁alle	-1324
ren	-1325
▁jouk	-1326
▁huol	-1327
▁käyttö	-1328
telä	-1329
hän	-1330
▁puolesta	-1331
ce	-1332
ustaja	-1333
mää	-1334
ck	-1335
1.	-1336
▁muuto	-1337
▁todella	-1338
mässä	-1339
▁kauden	-1340
▁Var	-1341
▁pyy	-1342
▁ohjel	-1343
▁saanut	-1344
puol	-1345
▁kautta	-1346
▁loppu	-1347
uta	-1348
gen	-1349
ttää	-1350
ksiin	-1351
▁julka	-1352
ityksen	-1353
uudesta	-1354
▁täys	-1355
▁pan	-1356
▁Es	-1357
▁pitkä	-1358
▁tulo	-1359
▁vara	-1360
tys	-1361
▁sunn	-1362
kee	-1363
▁tuom	-1364
▁voim	-1365
▁Lisä	-1366
▁otta	-1367
▁vuoksi	-1368
aisen	-1369
ikke	-1370
▁valta	-1371
▁nope	-1372
tely	-1373
eille	-1374
kti	-1375
▁10	-1376
ilun	-1377
▁jen	-1378
▁vahv	-1379
jia	-1380
isoi	-1381
su	-1382
▁!	-1383
väl	-1384
▁Ch	-1385
▁Mon	-1386
von	-1387
▁yl	-1388
utus	-1389
▁pah	-1390
ry	-1391
jassa	-1392
▁Viime	-1393
gra	-1394
iri	-1395
▁rauh	-1396
▁neljä	-1397
tetään	-1398
ilee	-1399
▁kuten	-1400
ittäin	-1401
ityks	-1402
▁vähän	-1403
tut	-1404
imo	-1405
▁tiista	-1406
iton	-1407
▁tässä	-1408
▁Min	-1409
heilu	-1410
▁aikaan	-1411
ksy	-1412
▁EU	-1413
ottaa	-1414
▁joukkue	-1415
ös	-1416
▁pro	-1417
▁tarkoi	-1418
▁amm	-1419
▁Putin	-1420
teiden	-1421
esi	-1422
kkin	-1423
innan	-1424
▁eh	-1425
▁olen	-1426
nan	-1427
teri	-1428
ff	-1429
▁Or	-1430
jana	-1431
oittaa	-1432
llen	-1433
kku	-1434
▁kie	-1435
ojen	-1436
▁täy	-1437
mpaa	-1438
▁Z	-1439
▁Hänen	-1440
▁Kar	-1441
▁mukana	-1442
▁hetkellä	-1443
mus	-1444
▁kokon	-1445
▁Ky	-1446
3.	-1447
▁lähes	-1448
itt	-1449
mistä	-1450
▁tullut	-1451
gi	-1452
pää	-1453
tie	-1454
don	-1455
▁tilanne	-1456
ria	-1457
▁keskivi	-1458
▁hall	-1459
▁ia	-1460
▁py	-1461
▁Yhdysvalta	-1462
▁tarjo	-1463
por	-1464
▁Kor	-1465
▁Pal	-1466
ikolla	-1467
▁onnistu	-1468
▁Lisäksi	-1469
▁alkoi	-1470
telussa	-1471
▁lta	-1472
kona	-1473
▁Par	-1474
▁juuri	-1475
ily	-1476
▁siinä	-1477
▁koulu	-1478
isesta	-1479
▁paikka	-1480
▁tutkim	-1481
ostaa	-1482
▁tyy	-1483
▁Pohjois	-1484
lainen	-1485
▁uuden	-1486
kul	-1487
▁pyö	-1488
▁vuod	-1489
▁joten	-1490
▁asti	-1491
▁18	-1492
mmär	-1493
teki	-1494
▁ilman	-1495
▁Ki	-1496
▁Lo	-1497
oissa	-1498
▁kiinni	-1499
▁sosia	-1500
isille	-1501
▁lähti	-1502
▁yhteen	-1503
nin	-1504
▁ras	-1505
▁kasv	-1506
kkaa	-1507
▁jäsen	-1508
mon	-1509
ointi	-1510
▁siv	-1511
▁pala	-1512
▁matka	-1513
annut	-1514
llään	-1515
um	-1516
▁näky	-1517
▁perä	-1518
hemmin	-1519
alu	-1520
ittiin	-1521
ang	-1522
riä	-1523
▁Lin	-1524
▁maks	-1525
▁saada	-1526
tön	-1527
▁Ale	-1528
▁taas	-1529
iku	-1530
ikk	-1531
▁kaudella	-1532
▁iso	-1533
▁riko	-1534
aar	-1535
▁toinen	-1536
yyttä	-1537
▁edelleen	-1538
▁Ho	-1539
▁Yle	-1540
▁ilma	-1541
▁lain	-1542
▁takia	-1543
▁tasa	-1544
var	-1545
uli	-1546
uolella	-1547
unut	-1548
▁Olen	-1549
▁kuitenkaan	-1550
▁palj	-1551
▁mesta	-1552
opp	-1553
eili	-1554
▁miehen	-1555
▁huu	-1556
▁jäi	-1557
▁Ukraina	-1558
▁pitäisi	-1559
itel	-1560
ber	-1561
▁suos	-1562
joukku	-1563
▁kyl	-1564
▁ystä	-1565
tunti	-1566
▁toden	-1567
▁Er	-1568
▁mielestä	-1569
▁hie	-1570
jö	-1571
▁pare	-1572
▁run	-1573
▁toisen	-1574
omet	-1575
▁arvo	-1576
▁Lap	-1577
▁Mo	-1578
▁12	-1579
näkö	-1580
▁kansan	-1581
miin	-1582
▁lämp	-1583
ukseen	-1584
ore	-1585
▁stä	-1586
iston	-1587
osa	-1588
▁asu	-1589
seen	-1590
▁halua	-1591
▁kiinn	-1592
llon	-1593
äs	-1594
▁perhe	-1595
▁alueella	-1596
kos	-1597
▁Trumpin	-1598
▁Mutta	-1599
▁viera	-1600
ettom	-1601
▁Pel	-1602
▁ro	-1603
▁pysty	-1604
▁ainakin	-1605
yks	-1606
tanut	-1607
▁17	-1608
joit	-1609
▁neuv	-1610
▁voisi	-1611
▁nsa	-1612
ona	-1613
▁Kys	-1614
▁peruste	-1615
▁päätty	-1616
▁perin	-1617
▁voitti	-1618
▁Näin	-1619
mpu	-1620
▁hava	-1621
▁Yhdysvaltain	-1622
▁ikä	-1623
▁ero	-1624
imme	-1625
▁lais	-1626
▁hallitus	-1627
ele	-1628
▁Me	-1629
▁löy	-1630
▁palvelu	-1631
▁kamp	-1632
▁vaka	-1633
▁olleet	-1634
▁kri	-1635
▁Van	-1636
▁Biden	-1637
San	-1638
▁opp	-1639
▁pol	-1640
inväl	-1641
▁viesti	-1642
▁yhdessä	-1643
her	-1644
alan	-1645
▁eten	-1646
▁vel	-1647
▁haastat	-1648
▁päästä	-1649
▁tta	-1650
▁perjantaina	-1651
missa	-1652
▁X	-1653
▁sijaitse	-1654
▁edusta	-1655
▁kaupungin	-1656
kkää	-1657
▁Mä	-1658
▁näin	-1659
▁mer	-1660
anne	-1661
▁ajo	-1662
▁IS	-1663
▁Ri	-1664
▁kolm	-1665
4.	-1666
▁main	-1667
▁Ni	-1668
▁jär	-1669
▁Pää	-1670
▁Ga	-1671
▁tuomi	-1672
ena	-1673
jät	-1674
▁vies	-1675
▁lento	-1676
▁omista	-1677
▁julkais	-1678
▁katso	-1679
▁tavalla	-1680
▁kilomet	-1681
▁ymmär	-1682
ly	-1683
▁saman	-1684
▁hallituksen	-1685
ase	-1686
mmat	-1687
untaina	-1688
▁ensimmäisen	-1689
per	-1690
▁od	-1691
astus	-1692
▁kerr	-1693
▁lauantaina	-1694
▁Da	-1695
▁NHL	-1696
ikkona	-1697
ga	-1698
▁16	-1699
▁ottelu	-1700
ottu	-1701
ilais	-1702
▁kerro	-1703
▁puheenjohtaja	-1704
▁ten	-1705
▁odo	-1706
▁tieto	-1707
▁yhden	-1708
ensä	-1709
▁kyllä	-1710
osi	-1711
▁yhti	-1712
▁ratkais	-1713
▁missä	-1714
▁viikolla	-1715
▁tiedotteessa	-1716
sson	-1717
▁histo	-1718
▁presidentin	-1719
sky	-1720
▁Insta	-1721
kasta	-1722
vansa	-1723
▁Oulun	-1724
keä	-1725
▁kirjoittaa	-1726
räjä	-1727
imp	-1728
sar	-1729
heili	-1730
aav	-1731
olo	-1732
▁rikos	-1733
▁kuinka	-1734
▁Instagra	-1735
▁miljoonaa	-1736
▁Hy	-1737
▁viran	-1738
ard	-1739
len	-1740
▁nuo	-1741
▁siis	-1742
▁heti	-1743
▁perh	-1744
▁hieman	-1745
rit	-1746
▁uusi	-1747
▁puolustus	-1748
▁niitä	-1749
oitus	-1750
▁alka	-1751
▁Kos	-1752
▁Hä	-1753
▁tän	-1754
▁parha	-1755
▁välillä	-1756
▁muistu	-1757
▁joita	-1758
▁kuulu	-1759
▁nor	-1760
▁fina	-1761
▁käsi	-1762
kuva	-1763
▁kahden	-1764
▁eriko	-1765
ris	-1766
äri	-1767
▁muka	-1768
▁verk	-1769
▁täysin	-1770
▁alkaa	-1771
▁venä	-1772
▁tilante	-1773
ket	-1774
▁sur	-1775
▁Kä	-1776
otti	-1777
kiin	-1778
▁kulj	-1779
▁yhtä	-1780
▁kuole	-1781
▁toista	-1782
tyä	-1783
▁maksa	-1784
mman	-1785
▁vih	-1786
▁ihin	-1787
ron	-1788
▁tek	-1789
joitus	-1790
ikin	-1791
▁häntä	-1792
▁c	-1793
▁tänä	-1794
▁tehnyt	-1795
▁tunne	-1796
urin	-1797
▁heidän	-1798
isessä	-1799
alin	-1800
raa	-1801
▁oman	-1802
▁työnteki	-1803
▁vai	-1804
▁suunnitel	-1805
▁ala	-1806
▁pur	-1807
▁aiko	-1808
▁todennäkö	-1809
▁edes	-1810
▁piti	-1811
▁julkis	-1812
▁30	-1813
▁mielen	-1814
▁etu	-1815
▁kohta	-1816
▁kerran	-1817
▁vaikutta	-1818
oista	-1819
▁auton	-1820
kohta	-1821
ota	-1822
vos	-1823
▁Euroopan	-1824
lia	-1825
räjäoike	-1826
▁lähe	-1827
▁taso	-1828
änn	-1829
paan	-1830
▁myöhemmin	-1831
alaisten	-1832
itos	-1833
▁myön	-1834
▁merkittä	-1835
dy	-1836
ytti	-1837
▁järjestel	-1838
▁jatkaa	-1839
▁tien	-1840
vinto	-1841
rstaina	-1842
▁koul	-1843
▁Su	-1844
▁tiet	-1845
▁useita	-1846
utui	-1847
▁varsin	-1848
▁0	-1849
▁koi	-1850
ba	-1851
▁viranoma	-1852
▁New	-1853
▁yrittä	-1854
▁pö	-1855
iassa	-1856
liig	-1857
▁Ä	-1858
▁vaihe	-1859
isella	-1860
▁torstaina	-1861
1-	-1862
▁sul	-1863
▁25	-1864
▁suosi	-1865
▁otti	-1866
ikkö	-1867
itte	-1868
▁Ruotsin	-1869
▁huoli	-1870
▁lopp	-1871
▁tutki	-1872
▁sal	-1873
▁nähd	-1874
ukkaan	-1875
Suom	-1876
otus	-1877
▁venälä	-1878
▁herä	-1879
▁euron	-1880
▁viikko	-1881
▁Itä	-1882
▁työs	-1883
▁näyttää	-1884
▁Tuo	-1885
▁Pari	-1886
hdelle	-1887
tella	-1888
▁ottelun	-1889
▁aiheutta	-1890
sy	-1891
ttaa	-1892
▁tiistaina	-1893
▁Kat	-1894
udessa	-1895
▁Kir	-1896
▁voivat	-1897
▁maanantaina	-1898
kän	-1899
▁pääse	-1900
▁aivan	-1901
ehto	-1902
▁väk	-1903
▁Vä	-1904
▁joukko	-1905
▁ottaa	-1906
▁tutkin	-1907
▁Vaikka	-1908
▁keskiviikkona	-1909
ällä	-1910
▁Puol	-1911
▁kuoli	-1912
▁alussa	-1913
▁El	-1914
hi	-1915
▁tuot	-1916
▁usein	-1917
▁jatku	-1918
uuteen	-1919
▁Yhdysva	-1920
▁alue	-1921
▁puolestaan	-1922
anna	-1923
onsa	-1924
▁hänet	-1925
▁mahdollista	-1926
eensa	-1927
▁vaihto	-1928
▁tod	-1929
▁koskaan	-1930
▁leikka	-1931
ulle	-1932
▁tan	-1933
essaan	-1934
▁sunnuntaina	-1935
luv	-1936
▁ris	-1937
▁jalka	-1938
▁yksity	-1939
ussi	-1940
▁llis	-1941
▁ir	-1942
▁liig	-1943
▁Po	-1944
▁vie	-1945
▁el	-1946
▁käytä	-1947
▁mistä	-1948
▁tila	-1949
▁tavoit	-1950
omat	-1951
tuksia	-1952
▁voima	-1953
▁joulu	-1954
tur	-1955
telun	-1956
▁perusteella	-1957
▁roo	-1958
era	-1959
▁Israelin	-1960
▁järjestä	-1961
▁voin	-1962
▁vanhe	-1963
kie	-1964
▁kierro	-1965
▁kilpailu	-1966
jaan	-1967
tar	-1968
▁por	-1969
▁Ti	-1970
▁asiasta	-1971
▁Suomeen	-1972
astaan	-1973
▁mitta	-1974
▁Ve	-1975
usto	-1976
aatio	-1977
▁toteaa	-1978
▁tuleva	-1979
mättä	-1980
▁siellä	-1981
▁Lu	-1982
▁jaks	-1983
▁epäil	-1984
▁tätä	-1985
▁Salon	-1986
▁minuut	-1987
▁pyr	-1988
▁puolu	-1989
ini	-1990
▁yhä	-1991
kir	-1992
kkaan	-1993
▁sään	-1994
▁tälla	-1995
▁ympär	-1996
▁ain	-1997
▁olympia	-1998
astaa	-1999
sut	-2000
▁silloin	-2001
▁So	-2002
▁pysä	-2003
▁käynn	-2004
▁työsken	-2005
▁Niin	-2006
▁lähte	-2007
kaup	-2008
neksi	-2009
▁politi	-2010
▁vapa	-2011
ero	-2012
ksesta	-2013
▁päivän	-2014
▁Tu	-2015
▁ap	-2016
▁her	-2017
▁turvallisuus	-2018
iselle	-2019
▁keske	-2020
▁tausta	-2021
▁Asi	-2022
mar	-2023
vuotiaan	-2024
perä	-2025
▁pysy	-2026
▁ää	-2027
yden	-2028
▁hiih	-2029
▁199	-2030
▁ehkä	-2031
▁jään	-2032
▁johtaja	-2033
▁äänestä	-2034
ge	-2035
▁tehty	-2036
ire	-2037
uha	-2038
▁kävi	-2039
▁toiminta	-2040
▁Kol	-2041
▁joissa	-2042
▁sijaan	-2043
▁kal	-2044
oille	-2045
tit	-2046
kusta	-2047
▁Etelä	-2048
uvo	-2049
eilla	-2050
▁kansainväl	-2051
berg	-2052
▁ent	-2053
▁korke	-2054
mät	-2055
res	-2056
▁sosiaal	-2057
▁iin	-2058
▁mukaansa	-2059
▁osallistu	-2060
▁ensimmäinen	-2061
ene	-2062
▁uud	-2063
▁Tar	-2064
vänsä	-2065
▁julk	-2066
talo	-2067
▁ohj	-2068
▁tarvitse	-2069
fi	-2070
isu	-2071
yyn	-2072
▁Lue	-2073
▁mel	-2074
▁puu	-2075
▁saattaa	-2076
▁Kyse	-2077
▁ihmistä	-2078
▁kaks	-2079
stö	-2080
▁vää	-2081
▁lapsi	-2082
uhti	-2083
päiv	-2084
▁pääsi	-2085
▁Hen	-2086
eelle	-2087
tänyt	-2088
ist	-2089
jää	-2090
▁Joh	-2091
▁jolla	-2092
mper	-2093
▁pari	-2094
▁vuosina	-2095
▁kokonais	-2096
lu	-2097
▁muita	-2098
▁ammatti	-2099
▁sano	-2100
▁tulla	-2101
▁enna	-2102
isellä	-2103
▁Rovan	-2104
▁2022	-2105
ela	-2106
osto	-2107
ttävä	-2108
▁raja	-2109
▁sotil	-2110
▁vaal	-2111
gan	-2112
▁2023	-2113
▁tosi	-2114
▁inen	-2115
▁Läh	-2116
▁its	-2117
▁tap	-2118
kossa	-2119
▁huippu	-2120
ivo	-2121
▁pe	-2122
▁urheili	-2123
las	-2124
▁Mies	-2125
utunut	-2126
▁josta	-2127
▁uutta	-2128
▁ravinto	-2129
▁läpi	-2130
▁jotta	-2131
▁jälleen	-2132
▁erittäin	-2133
▁minen	-2134
▁laus	-2135
▁luki	-2136
▁yö	-2137
ander	-2138
▁kirja	-2139
▁nainen	-2140
▁neljän	-2141
▁markkin	-2142
▁No	-2143
auto	-2144
▁käsit	-2145
▁liikenne	-2146
▁tode	-2147
residen	-2148
ip	-2149
vissa	-2150
▁kanna	-2151
▁yhteisty	-2152
▁varm	-2153
▁tänään	-2154
▁anta	-2155
▁kohtaa	-2156
▁Pet	-2157
▁ajat	-2158
▁sis	-2159
ryh	-2160
▁50	-2161
▁uude	-2162
▁11	-2163
palvel	-2164
▁viikonl	-2165
onal	-2166
ydessä	-2167
▁joiden	-2168
▁vaikuttaa	-2169
mentaja	-2170
▁perheen	-2171
tissa	-2172
jille	-2173
▁rakenn	-2174
▁syys	-2175
▁oikeus	-2176
▁kaan	-2177
joiden	-2178
▁seitse	-2179
kiä	-2180
mys	-2181
▁13	-2182
hing	-2183
▁nousi	-2184
▁päivänä	-2185
ude	-2186
▁meni	-2187
▁keski	-2188
▁tekee	-2189
▁jotain	-2190
▁urheilu	-2191
imaan	-2192
▁uutisoi	-2193
▁lopulta	-2194
visi	-2195
▁poikke	-2196
▁asiantunti	-2197
oni	-2198
ottelu	-2199
▁lähet	-2200
▁pitkään	-2201
ppo	-2202
▁takaisin	-2203
▁valmista	-2204
▁kahde	-2205
▁luonn	-2206
▁elämän	-2207
▁suora	-2208
▁tähän	-2209
▁näyttä	-2210
▁",	-2211
▁antaa	-2212
▁lasten	-2213
uksista	-2214
▁riittä	-2215
▁pidä	-2216
▁Esim	-2217
östä	-2218
▁The	-2219
▁osaa	-2220
▁maahan	-2221
ieh	-2222
▁Antti	-2223
▁hyvinv	-2224
▁lapsen	-2225
tann	-2226
rän	-2227
▁ssä	-2228
▁käyttää	-2229
liiton	-2230
▁myötä	-2231
▁kolman	-2232
▁tapahtui	-2233
▁Kaikki	-2234
ensa	-2235
▁teko	-2236
▁ympäri	-2237
▁nopeasti	-2238
▁onnettom	-2239
▁pud	-2240
hol	-2241
▁pos	-2242
imman	-2243
telua	-2244
▁niiden	-2245
iltä	-2246
toin	-2247
▁llä	-2248
▁laps	-2249
▁ampu	-2250
jär	-2251
▁kapp	-2252
▁voidaan	-2253
pallo	-2254
▁samalla	-2255
▁hänelle	-2256
▁huolimatta	-2257
kse	-2258
▁hu	-2259
▁ura	-2260
▁loukkaan	-2261
▁mais	-2262
▁vapaa	-2263
▁tähti	-2264
▁haluaa	-2265
yksen	-2266
▁eteen	-2267
uksi	-2268
▁luku	-2269
llisia	-2270
otto	-2271
▁liitto	-2272
▁yritys	-2273
,5	-2274
oon	-2275
▁län	-2276
▁lääkä	-2277
▁Esimerkiksi	-2278
▁14	-2279
vy	-2280
iha	-2281
▁Ed	-2282
▁liian	-2283
▁ihmisiä	-2284
▁puhu	-2285
▁ottelussa	-2286
▁käräjäoike	-2287
valla	-2288
▁suun	-2289
iken	-2290
suom	-2291
▁puut	-2292
▁voitto	-2293
▁Yksi	-2294
aap	-2295
kari	-2296
▁ruoka	-2297
▁valtio	-2298
usti	-2299
ikaan	-2300
▁sair	-2301
isestä	-2302
▁kuuluu	-2303
iso	-2304
rik	-2305
ser	-2306
▁vaali	-2307
▁yliop	-2308
ikuussa	-2309
▁rä	-2310
▁lämpö	-2311
▁Tamper	-2312
▁valtion	-2313
▁yhteydessä	-2314
tali	-2315
nti	-2316
oku	-2317
▁löytyy	-2318
▁kymmenen	-2319
▁kesken	-2320
▁kansaned	-2321
▁Car	-2322
ittaja	-2323
▁suuri	-2324
lliset	-2325
▁jatko	-2326
▁erityisesti	-2327
▁asiaa	-2328
▁viisi	-2329
▁Sil	-2330
▁poliisin	-2331
▁laj	-2332
▁joukkueen	-2333
▁Rans	-2334
dio	-2335
▁Oli	-2336
▁hil	-2337
▁menn	-2338
▁pelaaja	-2339
▁terveys	-2340
päin	-2341
▁musi	-2342
▁koske	-2343
▁saapu	-2344
▁vaiheessa	-2345
▁suor	-2346
▁kerrotaan	-2347
anen	-2348
▁2024	-2349
▁Hi	-2350
▁Mat	-2351
mppan	-2352
Sanomat	-2353
▁EM	-2354
usten	-2355
yhti	-2356
▁kur	-2357
▁tarko	-2358
▁yhteensä	-2359
▁kampan	-2360
ves	-2361
ytyy	-2362
▁alla	-2363
▁sota	-2364
▁jolloin	-2365
▁Maa	-2366
▁kysymy	-2367
estö	-2368
isivat	-2369
ettaja	-2370
▁lähtö	-2371
▁Tor	-2372
▁päätös	-2373
.)	-2374
ksella	-2375
▁Por	-2376
▁hake	-2377
▁moni	-2378
▁Pi	-2379
kinen	-2380
▁näkö	-2381
▁joista	-2382
▁kahd	-2383
▁Br	-2384
tonen	-2385
▁Mikko	-2386
▁kah	-2387
▁näke	-2388
▁aikais	-2389
▁tehtävä	-2390
▁ehd	-2391
▁lyh	-2392
▁suori	-2393
lee	-2394
▁Alex	-2395
▁syyt	-2396
▁huomio	-2397
▁meidän	-2398
▁metsä	-2399
ukse	-2400
▁ulos	-2401
▁tästä	-2402
▁luke	-2403
usa	-2404
▁asun	-2405
▁Tämän	-2406
co	-2407
▁Lei	-2408
▁ruu	-2409
mokra	-2410
▁ennä	-2411
▁ihmiset	-2412
reen	-2413
▁pako	-2414
▁iden	-2415
▁saav	-2416
ohjel	-2417
estari	-2418
▁kulttu	-2419
▁vaikea	-2420
kut	-2421
jasta	-2422
iky	-2423
▁SM	-2424
▁välttä	-2425
tos	-2426
joukkue	-2427
-2	-2428
▁Tuom	-2429
▁ilmoi	-2430
▁korkea	-2431
▁marras	-2432
▁Tie	-2433
▁ykk	-2434
▁Lind	-2435
▁naisten	-2436
▁keskusta	-2437
▁hien	-2438
▁viestin	-2439
▁Kon	-2440
▁Kiin	-2441
yyd	-2442
elen	-2443
▁Kan	-2444
isenä	-2445
istää	-2446
▁mene	-2447
ban	-2448
lamen	-2449
▁menesty	-2450
▁näytteli	-2451
johta	-2452
esin	-2453
peli	-2454
▁kannattaa	-2455
mmi	-2456
▁mieli	-2457
▁sodan	-2458
▁Pä	-2459
▁Mer	-2460
onn	-2461
▁Leh	-2462
ikkaa	-2463
und	-2464
ksua	-2465
▁touko	-2466
▁yksityis	-2467
go	-2468
▁prin	-2469
▁kohti	-2470
▁ympäristö	-2471
▁oikeuden	-2472
▁mole	-2473
alaiset	-2474
▁poliitt	-2475
ikku	-2476
▁onko	-2477
lad	-2478
▁liike	-2479
▁Hal	-2480
▁erilais	-2481
▁kirjoitti	-2482
hoi	-2483
mas	-2484
tukset	-2485
▁norma	-2486
▁runsa	-2487
▁yhtiö	-2488
itoksen	-2489
kerta	-2490
▁help	-2491
▁tilanteessa	-2492
rian	-2493
vasta	-2494
▁luon	-2495
uteen	-2496
▁korva	-2497
tukseen	-2498
itteli	-2499
▁joutui	-2500
▁tulisi	-2501
▁sairaal	-2502
▁ilmoitti	-2503
▁aam	-2504
issaan	-2505
▁Jä	-2506
tävä	-2507
utuu	-2508
▁rii	-2509
itystä	-2510
▁yksin	-2511
▁Ur	-2512
viin	-2513
▁loka	-2514
▁minkä	-2515
▁suurin	-2516
tien	-2517
▁mestar	-2518
▁kohdistu	-2519
▁tuke	-2520
▁kaikkia	-2521
▁pide	-2522
▁synty	-2523
alaisen	-2524
▁haastattelussa	-2525
▁miksi	-2526
▁vaara	-2527
netta	-2528
▁akti	-2529
toim	-2530
onald	-2531
▁muod	-2532
▁päälle	-2533
▁tilais	-2534
▁Nato	-2535
▁kseen	-2536
aleissa	-2537
▁kolmen	-2538
▁Ver	-2539
▁poika	-2540
tal	-2541
▁Ter	-2542
jista	-2543
▁istu	-2544
▁kisa	-2545
▁asioita	-2546
iltana	-2547
▁tunte	-2548
ilija	-2549
▁Syy	-2550
▁puolue	-2551
▁Saksa	-2552
▁hinta	-2553
▁jätti	-2554
▁helm	-2555
ksista	-2556
▁miesten	-2557
lly	-2558
▁kap	-2559
▁totesi	-2560
hy	-2561
ittain	-2562
▁kaiken	-2563
▁Ba	-2564
▁Til	-2565
▁olleen	-2566
▁istä	-2567
▁lah	-2568
▁hir	-2569
▁Työ	-2570
▁tapp	-2571
▁törke	-2572
▁40	-2573
▁Kr	-2574
▁kö	-2575
uur	-2576
▁tor	-2577
▁hallin	-2578
pon	-2579
▁isän	-2580
▁selvi	-2581
liin	-2582
▁kuts	-2583
▁pohti	-2584
▁tulevais	-2585
mies	-2586
▁som	-2587
kanen	-2588
ottiin	-2589
▁misen	-2590
▁pääministeri	-2591
▁heinä	-2592
▁Vil	-2593
▁olympi	-2594
▁mediassa	-2595
▁De	-2596
▁taa	-2597
▁hyväksy	-2598
vana	-2599
▁opis	-2600
▁kuvan	-2601
▁verran	-2602
uper	-2603
estään	-2604
ttänyt	-2605
teeseen	-2606
ihd	-2607
ksu	-2608
udesta	-2609
kää	-2610
voima	-2611
▁suure	-2612
▁muiden	-2613
▁Bar	-2614
öl	-2615
▁Fa	-2616
emmisto	-2617
▁oikein	-2618
uma	-2619
▁päivää	-2620
▁talous	-2621
▁Ylen	-2622
▁tietojen	-2623
tain	-2624
▁ilmi	-2625
uksissa	-2626
▁asunn	-2627
▁paikalla	-2628
▁tuki	-2629
▁viiden	-2630
▁kilpail	-2631
▁Ul	-2632
llisuus	-2633
päivä	-2634
▁silti	-2635
▁Yhdysval	-2636
▁kuvaa	-2637
▁vanke	-2638
▁pääval	-2639
8.	-2640
inna	-2641
▁joku	-2642
▁näy	-2643
▁muistuttaa	-2644
▁tietoa	-2645
▁itä	-2646
▁miseen	-2647
yl	-2648
▁Osa	-2649
▁tamm	-2650
ässä	-2651
▁varmasti	-2652
▁julkaisi	-2653
kok	-2654
▁ennus	-2655
▁edessä	-2656
▁toimitta	-2657
vaksi	-2658
▁tarp	-2659
▁perinte	-2660
▁100	-2661
▁As	-2662
▁tele	-2663
▁Tällä	-2664
▁tuttu	-2665
misestä	-2666
▁toimitus	-2667
▁Tässä	-2668
istelu	-2669
▁maalis	-2670
▁vät	-2671
konen	-2672
▁kevä	-2673
Suomen	-2674
▁elämä	-2675
tra	-2676
▁alueen	-2677
oittanut	-2678
bo	-2679
teena	-2680
glan	-2681
▁Kur	-2682
▁tuolloin	-2683
▁seitsemän	-2684
keli	-2685
ottori	-2686
▁tapaa	-2687
▁valmi	-2688
▁hänellä	-2689
etin	-2690
tilais	-2691
▁hyökkäys	-2692
astu	-2693
▁kuning	-2694
▁yön	-2695
▁ulkoma	-2696
▁kansalais	-2697
▁teo	-2698
laa	-2699
asen	-2700
▁eloku	-2701
▁huoma	-2702
▁Yh	-2703
gissä	-2704
palvelu	-2705
▁alusta	-2706
▁isä	-2707
▁Ca	-2708
▁Gaz	-2709
▁Halli	-2710
▁muiste	-2711
erin	-2712
llikkö	-2713
▁täällä	-2714
nö	-2715
tava	-2716
▁näk	-2717
▁yhde	-2718
änen	-2719
▁keskustelu	-2720
ps	-2721
haa	-2722
▁vil	-2723
▁avaus	-2724
▁yllättä	-2725
▁Donald	-2726
▁kannatta	-2727
▁epäilty	-2728
kenut	-2729
▁puhe	-2730
utua	-2731
miä	-2732
▁Sie	-2733
▁oleva	-2734
▁käyttöön	-2735
▁media	-2736
6.	-2737
▁vero	-2738
▁hyvinvointi	-2739
▁kai	-2740
▁Mika	-2741
▁isku	-2742
ilä	-2743
▁24	-2744
▁vien	-2745
iemi	-2746
▁maalin	-2747
▁kusta	-2748
▁sarja	-2749
▁Vuonna	-2750
▁tee	-2751
kissa	-2752
▁Haav	-2753
onin	-2754
tuksessa	-2755
▁paikalle	-2756
▁tuh	-2757
▁euro	-2758
▁pian	-2759
empi	-2760
▁huhti	-2761
▁Co	-2762
▁nu	-2763
vuotia	-2764
▁etelä	-2765
▁tarkoitus	-2766
▁äiti	-2767
▁Turun	-2768
kal	-2769
vio	-2770
▁Mu	-2771
▁Lop	-2772
▁kiv	-2773
▁Pekka	-2774
▁rea	-2775
▁suku	-2776
▁Oul	-2777
isissa	-2778
vissä	-2779
▁ry	-2780
▁juttu	-2781
▁johon	-2782
▁tv	-2783
teria	-2784
ytys	-2785
▁Yli	-2786
▁usea	-2787
▁vaat	-2788
▁ydin	-2789
▁Kyllä	-2790
ikais	-2791
▁lista	-2792
miseksi	-2793
▁liikke	-2794
▁huono	-2795
uraa	-2796
▁raa	-2797
▁liikku	-2798
residentti	-2799
▁27	-2800
▁Bo	-2801
▁teho	-2802
▁pelastus	-2803
▁Oike	-2804
▁For	-2805
jaus	-2806
▁Ole	-2807
▁pela	-2808
▁takana	-2809
▁vuosien	-2810
▁kahdeksan	-2811
kar	-2812
▁pes	-2813
sissa	-2814
ritann	-2815
mällä	-2816
▁kova	-2817
▁päätti	-2818
▁yleisö	-2819
▁Ot	-2820
▁epäillä	-2821
▁kertonut	-2822
▁1,	-2823
aston	-2824
▁mista	-2825
järj	-2826
irin	-2827
llyt	-2828
▁kiel	-2829
immi	-2830
alo	-2831
ppa	-2832
▁Kansa	-2833
▁nosta	-2834
▁lähellä	-2835
▁2-	-2836
isena	-2837
▁Tans	-2838
▁haas	-2839
▁suoraan	-2840
kat	-2841
▁milj	-2842
▁kokem	-2843
kot	-2844
▁Naton	-2845
▁paikan	-2846
▁demokra	-2847
▁kuollut	-2848
▁torj	-2849
▁seksua	-2850
veri	-2851
▁jääkie	-2852
▁Alexander	-2853
▁tyh	-2854
▁hur	-2855
▁alko	-2856
9.	-2857
uon	-2858
tona	-2859
▁Pur	-2860
oiv	-2861
voit	-2862
▁naisen	-2863
▁toimii	-2864
▁mennessä	-2865
eni	-2866
▁kaupunki	-2867
▁tiedä	-2868
haan	-2869
▁Leijon	-2870
mpää	-2871
oite	-2872
neensä	-2873
▁Enn	-2874
intään	-2875
▁up	-2876
illaan	-2877
▁syytä	-2878
yhtiö	-2879
iinä	-2880
▁kuusi	-2881
▁rapor	-2882
▁voinut	-2883
▁Iltalehdelle	-2884
iaa	-2885
▁Auto	-2886
▁joul	-2887
▁tas	-2888
▁turna	-2889
▁sarjan	-2890
▁Os	-2891
▁Tut	-2892
▁esiinty	-2893
▁äänesty	-2894
▁kentä	-2895
▁Instagram	-2896
▁sanoa	-2897
▁uk	-2898
ival	-2899
▁vau	-2900
joita	-2901
▁Mitä	-2902
laista	-2903
▁kausi	-2904
▁Las	-2905
▁melko	-2906
▁paras	-2907
inti	-2908
▁Tim	-2909
▁voitta	-2910
log	-2911
▁pid	-2912
▁Siinä	-2913
ikö	-2914
tulo	-2915
▁uusia	-2916
▁Iltalehden	-2917
▁vesi	-2918
▁käytänn	-2919
▁olevansa	-2920
▁198	-2921
▁aiku	-2922
▁uhka	-2923
▁virhe	-2924
poli	-2925
▁sata	-2926
▁kanta	-2927
▁kesku	-2928
▁todennäköisesti	-2929
luo	-2930
ineen	-2931
ca	-2932
▁Koko	-2933
▁vaikutu	-2934
▁Ensimmä	-2935
▁entinen	-2936
▁puolella	-2937
▁Ander	-2938
▁kuukauden	-2939
▁tuore	-2940
▁meillä	-2941
▁lauanta	-2942
▁tekemään	-2943
▁yhteistyö	-2944
ive	-2945
pin	-2946
▁Ker	-2947
▁olemme	-2948
puolella	-2949
hu	-2950
arin	-2951
tyksen	-2952
▁Espan	-2953
▁tietää	-2954
▁inf	-2955
sessa	-2956
▁joilla	-2957
▁tapahtuma	-2958
▁kilometrin	-2959
▁harjoi	-2960
▁pelasi	-2961
huo	-2962
▁mö	-2963
▁näkyy	-2964
tor	-2965
▁ST	-2966
▁kuljetta	-2967
▁kerä	-2968
alia	-2969
▁antoi	-2970
▁uudelleen	-2971
▁Ranta	-2972
▁metrin	-2973
▁aloitti	-2974
sio	-2975
alis	-2976
▁Kil	-2977
uuksia	-2978
▁rahaa	-2979
vir	-2980
▁isen	-2981
▁tarkas	-2982
opea	-2983
▁liiken	-2984
▁selvästi	-2985
ros	-2986
▁Orpo	-2987
▁kulu	-2988
▁sala	-2989
▁kestä	-2990
▁osalta	-2991
vara	-2992
▁ved	-2993
▁vastuu	-2994
trö	-2995
▁ruot	-2996
▁menee	-2997
iss	-2998
▁energ	-2999
▁sisäl	-3000
▁Un	-3001
vista	-3002
salais	-3003
30	-3004
▁kad	-3005
▁tyyty	-3006
▁asiakka	-3007
▁lähi	-3008
▁vastusta	-3009
▁poikkeukse	-3010
▁Sel	-3011
ikymmen	-3012
kesku	-3013
▁2020	-3014
▁juon	-3015
▁vähen	-3016
kkos	-3017
iemen	-3018
uolelle	-3019
sarj	-3020
ästä	-3021
upin	-3022
vaal	-3023
yssä	-3024
▁Sitten	-3025
▁yhdeks	-3026
▁pohjois	-3027
▁tapauksessa	-3028
teissa	-3029
▁massa	-3030
▁pieni	-3031
itin	-3032
enkin	-3033
▁mieltä	-3034
▁ensimmäistä	-3035
▁Lapin	-3036
▁kappal	-3037
▁kumppan	-3038
▁kovin	-3039
▁suhteen	-3040
▁päätöksen	-3041
▁hyökkää	-3042
pel	-3043
alle	-3044
▁olo	-3045
immat	-3046
▁kyseessä	-3047
▁elin	-3048
▁video	-3049
▁konser	-3050
▁kotiin	-3051
▁vaatii	-3052
▁klo	-3053
ettaa	-3054
isilla	-3055
▁keskitty	-3056
tety	-3057
liitto	-3058
▁ikään	-3059
▁milla	-3060
▁jatkuu	-3061
TV	-3062
bl	-3063
can	-3064
onut	-3065
▁Putinin	-3066
▁tehdään	-3067
-1	-3068
tuus	-3069
▁mus	-3070
istoim	-3071
▁ensin	-3072
▁vuodesta	-3073
▁loppuun	-3074
stään	-3075
▁paris	-3076
▁virka	-3077
▁Vo	-3078
essi	-3079
▁kannalta	-3080
▁kaun	-3081
▁Marin	-3082
▁pitänyt	-3083
▁Yor	-3084
▁tyttö	-3085
▁kuvailee	-3086
▁omaa	-3087
▁kauppa	-3088
▁kaikkien	-3089
kor	-3090
▁22	-3091
htaa	-3092
kien	-3093
▁ohi	-3094
▁rakenta	-3095
▁kustann	-3096
▁tilannetta	-3097
▁mik	-3098
jalla	-3099
uttanut	-3100
oitu	-3101
▁kaupung	-3102
▁lei	-3103
▁palaa	-3104
▁Tapa	-3105
▁misesta	-3106
▁elle	-3107
▁emme	-3108
▁poik	-3109
▁jonkin	-3110
kit	-3111
▁tuotan	-3112
immä	-3113
kassa	-3114
▁hei	-3115
▁oper	-3116
▁kysel	-3117
▁pyörä	-3118
▁tilanteen	-3119
▁valmentaja	-3120
▁Meillä	-3121
▁Matti	-3122
▁huomi	-3123
▁kevää	-3124
▁lähtien	-3125
▁suuntaan	-3126
▁Yhdysvallo	-3127
maat	-3128
▁Man	-3129
▁johto	-3130
▁mihin	-3131
▁varus	-3132
▁mietti	-3133
▁nähtiin	-3134
ät	-3135
▁huon	-3136
▁sunnunta	-3137
▁Sch	-3138
▁Harr	-3139
▁dolla	-3140
▁kuvat	-3141
▁tulos	-3142
▁töitä	-3143
▁tarkoittaa	-3144
▁hin	-3145
sarjan	-3146
▁ykkös	-3147
▁palkin	-3148
▁+	-3149
ville	-3150
▁lait	-3151
▁neet	-3152
ess	-3153
udu	-3154
uter	-3155
BC	-3156
mb	-3157
▁löytyi	-3158
▁johtu	-3159
▁Israel	-3160
▁etenkin	-3161
▁Kär	-3162
pailu	-3163
▁Kana	-3164
cas	-3165
its	-3166
teitä	-3167
tämään	-3168
▁kel	-3169
▁Tapp	-3170
▁vira	-3171
▁Saa	-3172
▁Petteri	-3173
▁23	-3174
▁Kuu	-3175
▁johd	-3176
▁Saar	-3177
▁rang	-3178
▁kantaa	-3179
tuksesta	-3180
▁Helsingissä	-3181
▁Sar	-3182
▁ryhmä	-3183
▁aikoina	-3184
▁ratkaisu	-3185
ysti	-3186
▁pöy	-3187
▁nuorten	-3188
meen	-3189
teistö	-3190
kein	-3191
▁pil	-3192
oston	-3193
▁täytyy	-3194
▁perussuom	-3195
jun	-3196
▁STT	-3197
▁ran	-3198
▁huone	-3199
mpa	-3200
alaista	-3201
▁erikois	-3202
▁paremmin	-3203
maksi	-3204
▁niistä	-3205
▁vahing	-3206
ksessa	-3207
▁luotta	-3208
▁varten	-3209
▁Char	-3210
▁esite	-3211
ivu	-3212
llat	-3213
▁ottelua	-3214
met	-3215
teja	-3216
ivalta	-3217
▁uudesta	-3218
▁pistettä	-3219
tissä	-3220
▁vanh	-3221
halli	-3222
▁Will	-3223
▁neen	-3224
▁mennä	-3225
yyden	-3226
teista	-3227
▁aikoo	-3228
▁miestä	-3229
▁poistu	-3230
▁Ih	-3231
itsee	-3232
oppuna	-3233
▁tuntuu	-3234
▁Län	-3235
joitta	-3236
▁hyvää	-3237
▁ihmisten	-3238
▁parlamen	-3239
tse	-3240
vas	-3241
▁Lä	-3242
rien	-3243
▁laki	-3244
▁muutos	-3245
▁tärkeää	-3246
▁500	-3247
▁2021	-3248
ivaa	-3249
skin	-3250
delle	-3251
kaupun	-3252
▁kasva	-3253
▁paran	-3254
rmä	-3255
uttua	-3256
▁pelin	-3257
▁Pan	-3258
▁lup	-3259
▁arvos	-3260
▁hallinn	-3261
▁eduskunta	-3262
▁seuran	-3263
▁Poliisin	-3264
önen	-3265
▁kone	-3266
▁nime	-3267
▁päässä	-3268
▁yleensä	-3269
▁ita	-3270
▁sama	-3271
▁verr	-3272
▁päällä	-3273
▁Kaup	-3274
neensa	-3275
▁itsen	-3276
▁eniten	-3277
▁Iltalehti	-3278
5.	-3279
hka	-3280
emmin	-3281
▁kana	-3282
▁ren	-3283
essään	-3284
▁Ge	-3285
▁jatkoi	-3286
▁kertovat	-3287
▁avulla	-3288
▁kunnossa	-3289
▁tilanteesta	-3290
be	-3291
imin	-3292
tröm	-3293
▁Jon	-3294
▁häiri	-3295
▁laula	-3296
▁nuori	-3297
▁Nis	-3298
▁Täh	-3299
▁lähd	-3300
aisten	-3301
▁aiheuttaa	-3302
▁sellainen	-3303
ostu	-3304
▁ylä	-3305
istaan	-3306
▁rikko	-3307
▁vuoro	-3308
▁rakennus	-3309
bri	-3310
▁or	-3311
▁juhli	-3312
▁parin	-3313
▁voittanut	-3314
▁Kre	-3315
▁ttä	-3316
▁nämä	-3317
▁tuntu	-3318
▁päävalmentaja	-3319
PS	-3320
olta	-3321
▁ann	-3322
isterin	-3323
▁pahoin	-3324
▁valmenta	-3325
tola	-3326
▁Kaa	-3327
▁syks	-3328
▁kohtaan	-3329
syt	-3330
▁Flo	-3331
▁treen	-3332
▁saatta	-3333
▁teks	-3334
▁jäänyt	-3335
▁aj	-3336
▁Kul	-3337
▁Sitä	-3338
teesta	-3339
▁poliis	-3340
▁toimintaa	-3341
▁Mc	-3342
ehdo	-3343
elma	-3344
▁mita	-3345
▁puolis	-3346
▁tapahtunut	-3347
osuh	-3348
▁Juh	-3349
▁Tee	-3350
▁Iran	-3351
▁jatkossa	-3352
▁Kaik	-3353
▁nostaa	-3354
väli	-3355
▁Reuter	-3356
▁muista	-3357
▁ratka	-3358
▁Varsin	-3359
▁Bidenin	-3360
▁minulle	-3361
har	-3362
iem	-3363
▁).	-3364
vaan	-3365
▁Her	-3366
kansa	-3367
▁esittä	-3368
▁tärkeä	-3369
mäki	-3370
deksi	-3371
▁rauha	-3372
▁kasvat	-3373
tiiv	-3374
▁hoito	-3375
▁kaver	-3376
▁kerta	-3377
▁lopussa	-3378
▁toistaiseksi	-3379
▁Af	-3380
prin	-3381
uton	-3382
▁minä	-3383
▁kirjoitta	-3384
▁Met	-3385
▁epäillään	-3386
ts	-3387
▁Be	-3388
▁suunnit	-3389
▁yrityks	-3390
pen	-3391
alissa	-3392
▁Olemme	-3393
jone	-3394
uksella	-3395
▁Sve	-3396
hun	-3397
▁piir	-3398
tutkin	-3399
▁nähdään	-3400
▁Sy	-3401
▁iksi	-3402
▁nähty	-3403
iki	-3404
▁Oh	-3405
tenä	-3406
▁Aal	-3407
lehti	-3408
▁pääsee	-3409
▁Yhdysvaltojen	-3410
hon	-3411
▁hyvän	-3412
▁sille	-3413
▁suhta	-3414
▁huomatta	-3415
▁lasta	-3416
▁Britann	-3417
▁miljoonan	-3418
▁jun	-3419
▁Oy	-3420
▁saap	-3421
▁laske	-3422
▁rangais	-3423
▁Niinistö	-3424
▁juhl	-3425
teeksi	-3426
▁alueelle	-3427
ens	-3428
▁työtä	-3429
▁puolus	-3430
▁esi	-3431
▁ilo	-3432
▁odotta	-3433
kanut	-3434
▁tukea	-3435
▁samaan	-3436
▁minuuttia	-3437
aati	-3438
▁ohjaa	-3439
▁välttämättä	-3440
tro	-3441
▁myr	-3442
▁sivu	-3443
▁nähdä	-3444
▁saata	-3445
▁syksy	-3446
▁kieltä	-3447
▁maassa	-3448
▁edellis	-3449
▁asiantuntija	-3450
▁60	-3451
▁ollaan	-3452
▁Venäjällä	-3453
län	-3454
▁21	-3455
▁35	-3456
vittä	-3457
▁aino	-3458
ikkoja	-3459
▁tuhan	-3460
▁saakka	-3461
▁Ukrainassa	-3462
▁kunto	-3463
▁nimen	-3464
▁epäill	-3465
▁päättyi	-3466
alti	-3467
▁ves	-3468
▁Maan	-3469
▁löyd	-3470
▁verkko	-3471
aika	-3472
eeksi	-3473
▁Tälla	-3474
▁tavan	-3475
▁välit	-3476
▁kirjoi	-3477
kunnassa	-3478
▁taloude	-3479
mei	-3480
▁Elä	-3481
▁nen	-3482
▁apua	-3483
▁Suomea	-3484
ministeriö	-3485
ukko	-3486
▁saivat	-3487
▁toimittaja	-3488
ytty	-3489
▁asiat	-3490
▁linja	-3491
▁näytti	-3492
sk	-3493
itiiv	-3494
tettä	-3495
bi	-3496
▁Jää	-3497
▁Kas	-3498
▁hätä	-3499
▁päin	-3500
▁halun	-3501
▁uskoo	-3502
▁tuomio	-3503
▁voiton	-3504
▁vähintään	-3505
▁br	-3506
voimien	-3507
järjestö	-3508
▁harjoit	-3509
▁sotilas	-3510
▁tasolla	-3511
mana	-3512
▁luu	-3513
▁kunin	-3514
▁puheli	-3515
▁sisällä	-3516
edia	-3517
▁toi	-3518
mansa	-3519
teisiin	-3520
▁siirty	-3521
▁kaikkea	-3522
uti	-3523
▁im	-3524
▁toimia	-3525
▁ministeri	-3526
▁työntekijö	-3527
omi	-3528
▁rek	-3529
▁ven	-3530
▁Ulko	-3531
▁iset	-3532
▁Yhdysvalloissa	-3533
vallan	-3534
▁kokoon	-3535
▁vähemmän	-3536
▁yliopisto	-3537
ksessä	-3538
▁kukaan	-3539
▁matkusta	-3540
▁toimitusjohtaja	-3541
arvo	-3542
▁osta	-3543
ikalla	-3544
ksestä	-3545
▁kokoom	-3546
▁1.	-3547
teltu	-3548
toista	-3549
llisuuden	-3550
▁sosiaalisessa	-3551
▁viikonloppuna	-3552
mpp	-3553
▁Lat	-3554
▁lai	-3555
▁Mikä	-3556
alisti	-3557
urinko	-3558
▁kesän	-3559
▁johtaa	-3560
ihto	-3561
▁määr	-3562
▁vaku	-3563
uksena	-3564
▁Charl	-3565
▁Norjan	-3566
uttiin	-3567
▁puheenjohta	-3568
7.	-3569
▁ru	-3570
imen	-3571
▁ehti	-3572
▁järjestö	-3573
▁3-	-3574
▁put	-3575
▁utu	-3576
wa	-3577
▁res	-3578
▁naap	-3579
kauden	-3580
▁ongelma	-3581
▁Kyseessä	-3582
▁prosentin	-3583
zz	-3584
▁Elo	-3585
▁Som	-3586
▁ltä	-3587
▁pun	-3588
▁sat	-3589
▁lehd	-3590
▁pikku	-3591
▁saatu	-3592
▁liittyy	-3593
▁pelannut	-3594
▁Andersson	-3595
sori	-3596
▁juhla	-3597
▁Ruotsi	-3598
▁pitkän	-3599
kisoissa	-3600
▁odottaa	-3601
ääkä	-3602
▁Vlad	-3603
▁kesällä	-3604
▁kansanedustaja	-3605
▁hote	-3606
▁Jussi	-3607
org	-3608
eena	-3609
▁Mos	-3610
▁karsin	-3611
▁Samalla	-3612
▁Luo	-3613
▁essa	-3614
▁isiin	-3615
▁keväällä	-3616
▁eteenpäin	-3617
publ	-3618
▁Anna	-3619
▁Koti	-3620
▁numer	-3621
telemaan	-3622
▁Silloin	-3623
▁Haavisto	-3624
▁kokonaan	-3625
▁lie	-3626
isuus	-3627
oikeus	-3628
innassa	-3629
▁toiminut	-3630
▁Us	-3631
nassa	-3632
▁menet	-3633
▁mahdollisuus	-3634
▁Ann	-3635
▁Pir	-3636
isteli	-3637
▁vastasi	-3638
▁neuvottelu	-3639
ppä	-3640
sel	-3641
▁),	-3642
telut	-3643
ttava	-3644
istoimisto	-3645
▁Aie	-3646
▁takaa	-3647
▁tuotta	-3648
▁vastus	-3649
▁Stubbin	-3650
iam	-3651
▁Jal	-3652
luvun	-3653
▁lyhy	-3654
▁tehtiin	-3655
▁vasemmisto	-3656
määrä	-3657
▁hoita	-3658
▁verta	-3659
▁tapahtuu	-3660
▁tark	-3661
▁Saksan	-3662
▁uransa	-3663
▁yhdisty	-3664
▁Nel	-3665
▁ansa	-3666
▁seksuaal	-3667
▁kiinteistö	-3668
▁tah	-3669
▁Rä	-3670
▁suk	-3671
▁Nyky	-3672
öi	-3673
ger	-3674
▁jättä	-3675
▁valvon	-3676
▁asiassa	-3677
▁ket	-3678
▁Sami	-3679
▁korj	-3680
▁tuntia	-3681
uhu	-3682
tilla	-3683
attiin	-3684
▁maali	-3685
▁yritti	-3686
by	-3687
▁ex	-3688
▁pros	-3689
▁saat	-3690
▁Oly	-3691
▁fan	-3692
etaan	-3693
attuna	-3694
▁Keski	-3695
lliseen	-3696
▁käytössä	-3697
mit	-3698
imir	-3699
▁Vide	-3700
▁Orpon	-3701
▁päässyt	-3702
▁tutkimus	-3703
▁Mur	-3704
▁avaa	-3705
▁siltä	-3706
▁tietä	-3707
▁käynyt	-3708
▁ystävä	-3709
▁saadaan	-3710
▁syyllis	-3711
▁veto	-3712
▁Virta	-3713
▁vuoteen	-3714
▁maailmanm	-3715
▁(1	-3716
▁issä	-3717
▁syksyn	-3718
kkeen	-3719
▁jälj	-3720
▁vali	-3721
ryhmän	-3722
▁Ennen	-3723
▁siksi	-3724
▁käytännössä	-3725
▁asio	-3726
▁Harris	-3727
▁saavat	-3728
▁mielipi	-3729
▁puolusta	-3730
▁iä	-3731
▁otte	-3732
▁vetä	-3733
▁uhkaa	-3734
▁olisivat	-3735
vu	-3736
hansa	-3737
▁jatka	-3738
▁positiiv	-3739
▁yönä	-3740
▁sinne	-3741
▁valko	-3742
▁26	-3743
▁Epä	-3744
▁Flori	-3745
▁lähde	-3746
▁Toinen	-3747
▁kunnan	-3748
▁myynti	-3749
▁Itali	-3750
▁aktiiv	-3751
▁Vladimir	-3752
▁ainoa	-3753
▁metriä	-3754
▁syyttä	-3755
▁Hur	-3756
▁lupa	-3757
▁viikkoa	-3758
immillaan	-3759
▁puolueen	-3760
▁lyö	-3761
isyys	-3762
▁alkaen	-3763
osin	-3764
▁Timo	-3765
▁2022.	-3766
▁onkin	-3767
▁näyttelijä	-3768
én	-3769
maton	-3770
▁nimi	-3771
▁Janne	-3772
▁Bu	-3773
▁väite	-3774
▁riittää	-3775
▁tulevat	-3776
joukkueen	-3777
▁Suo	-3778
ustelu	-3779
▁sosiaali	-3780
dyn	-3781
imää	-3782
▁helpo	-3783
▁muutaman	-3784
ministeriön	-3785
▁Jen	-3786
tisen	-3787
▁ääri	-3788
laisia	-3789
▁tyytyvä	-3790
▁erityisen	-3791
20	-3792
imaa	-3793
tähti	-3794
▁suomalainen	-3795
▁Peli	-3796
laisen	-3797
▁super	-3798
▁historia	-3799
gas	-3800
▁tarin	-3801
▁lähettä	-3802
▁arv	-3803
istus	-3804
▁rinta	-3805
oituksen	-3806
▁kilometriä	-3807
ilan	-3808
▁197	-3809
▁Kuo	-3810
▁Pit	-3811
▁Voi	-3812
▁Moni	-3813
▁Hamas	-3814
▁koulun	-3815
▁moottori	-3816
ruun	-3817
liigan	-3818
▁ihminen	-3819
▁yhdeksän	-3820
▁musta	-3821
▁vuosikymmen	-3822
▁pot	-3823
▁jänn	-3824
▁vaim	-3825
▁voito	-3826
▁lähteä	-3827
▁myöskään	-3828
▁sopimuksen	-3829
▁Gu	-3830
▁Jar	-3831
▁hah	-3832
▁Nuor	-3833
▁ajoi	-3834
llisten	-3835
▁Seuraa	-3836
fa	-3837
▁Wa	-3838
ather	-3839
▁hiihto	-3840
▁peräti	-3841
for	-3842
▁Aa	-3843
neita	-3844
neesta	-3845
▁2023.	-3846
▁Länsi	-3847
▁taustalla	-3848
lon	-3849
läh	-3850
▁Ah	-3851
▁Ville	-3852
▁ajone	-3853
▁tilaa	-3854
▁olosuh	-3855
▁Yhdysvallat	-3856
olf	-3857
milla	-3858
▁Zelen	-3859
▁talon	-3860
▁valio	-3861
▁toimen	-3862
▁torsta	-3863
▁aloitta	-3864
▁ongelmia	-3865
rain	-3866
▁puto	-3867
sarjassa	-3868
▁maajoukkue	-3869
non	-3870
dcas	-3871
dion	-3872
teeri	-3873
▁raha	-3874
▁minun	-3875
▁materia	-3876
fes	-3877
▁pih	-3878
▁illä	-3879
▁säil	-3880
▁toiminnan	-3881
▁kerrottiin	-3882
hä	-3883
▁MTV	-3884
▁lauta	-3885
▁selkeä	-3886
▁vieras	-3887
▁ennakko	-3888
▁entistä	-3889
▁kohdalla	-3890
ölj	-3891
▁Ben	-3892
▁onne	-3893
▁Lauri	-3894
▁varap	-3895
▁joskus	-3896
▁riippu	-3897
▁sijoit	-3898
kov	-3899
sää	-3900
tto	-3901
töä	-3902
▁YK	-3903
▁kysymys	-3904
▁noussut	-3905
▁Mus	-3906
▁loh	-3907
▁kuun	-3908
▁armei	-3909
▁kulje	-3910
▁kärki	-3911
▁yrity	-3912
ere	-3913
udet	-3914
vell	-3915
▁Kim	-3916
yttävä	-3917
▁saapui	-3918
ksin	-3919
▁Onn	-3920
▁pakk	-3921
▁urhe	-3922
▁monta	-3923
▁suoja	-3924
▁median	-3925
öt	-3926
▁Pen	-3927
▁mas	-3928
▁sor	-3929
merikk	-3930
▁maksaa	-3931
▁tunnettu	-3932
▁loukkaantu	-3933
hen	-3934
imä	-3935
ste	-3936
▁tuho	-3937
▁legen	-3938
▁säästö	-3939
▁sopimus	-3940
▁ihmisen	-3941
▁pudotus	-3942
▁terveyden	-3943
elu	-3944
pall	-3945
kainen	-3946
isaalta	-3947
sto	-3948
▁sol	-3949
▁isten	-3950
▁lähten	-3951
▁pahoinpi	-3952
▁yrityksen	-3953
tuun	-3954
▁lan	-3955
▁eläin	-3956
▁kamer	-3957
▁lauka	-3958
▁itsensä	-3959
▁Puolustus	-3960
▁osu	-3961
▁aamu	-3962
▁ella	-3963
muksen	-3964
▁pohja	-3965
▁puolen	-3966
▁kus	-3967
▁paljas	-3968
▁aloittaa	-3969
gh	-3970
mpien	-3971
▁Juha	-3972
▁loma	-3973
▁lämm	-3974
▁Jy	-3975
kentä	-3976
▁Vain	-3977
▁rann	-3978
▁maalia	-3979
▁Hu	-3980
llia	-3981
riin	-3982
▁Fin	-3983
▁oir	-3984
▁väit	-3985
okumen	-3986
tettava	-3987
▁itseään	-3988
▁olemaan	-3989
tilaisuudessa	-3990
▁alta	-3991
▁kuvia	-3992
▁tulossa	-3993
▁riski	-3994
▁tarvi	-3995
▁maaliva	-3996
▁tuotanto	-3997
gar	-3998
▁Uut	-3999
▁vin	-4000
laitos	-4001
▁lopetta	-4002
▁Presidentti	-4003
▁1-	-4004
tili	-4005
▁Toi	-4006
▁maksu	-4007
▁lapset	-4008
▁maananta	-4009
ytyi	-4010
▁lähtee	-4011
▁Zelensky	-4012
▁hallinto	-4013
▁puke	-4014
▁viik	-4015
llistä	-4016
▁huomiota	-4017
▁televisi	-4018
ham	-4019
▁vei	-4020
▁ilme	-4021
▁kuor	-4022
▁avoim	-4023
▁toivo	-4024
mite	-4025
ulais	-4026
▁pyör	-4027
▁tilo	-4028
▁Jukka	-4029
▁opiskeli	-4030
▁runsaasti	-4031
▁w	-4032
▁2,	-4033
▁nos	-4034
▁Väli	-4035
▁haav	-4036
▁vähä	-4037
▁vuosia	-4038
▁4-	-4039
oida	-4040
▁Ste	-4041
▁Koiv	-4042
▁yhdys	-4043
▁Iso	-4044
▁katu	-4045
▁tuuli	-4046
▁Syyttä	-4047
▁mielenos	-4048
aaja	-4049
oili	-4050
ikenne	-4051
▁kesänä	-4052
atar	-4053
▁ele	-4054
telin	-4055
tellä	-4056
▁Englan	-4057
▁kuuden	-4058
▁kulttuuri	-4059
kelä	-4060
▁dia	-4061
▁ide	-4062
▁huolta	-4063
▁isesti	-4064
▁elokuva	-4065
tär	-4066
▁ajaa	-4067
▁näkee	-4068
▁kiekko	-4069
▁kolmas	-4070
▁päähän	-4071
▁kierroksella	-4072
▁And	-4073
▁Kal	-4074
▁Pat	-4075
▁Tun	-4076
▁ope	-4077
▁heitä	-4078
▁kaupp	-4079
▁tunnin	-4080
▁ehdokka	-4081
▁itselleen	-4082
▁pen	-4083
▁muisto	-4084
▁sähköp	-4085
▁Pariisin	-4086
▁halunnut	-4087
▁harjoitus	-4088
▁kilpailun	-4089
▁maailmanc	-4090
▁verrattuna	-4091
opim	-4092
▁liiga	-4093
▁rauhan	-4094
▁sotila	-4095
▁kuljettaja	-4096
peä	-4097
turva	-4098
▁Asia	-4099
tettua	-4100
▁harras	-4101
▁äid	-4102
rella	-4103
▁olin	-4104
▁ihmet	-4105
▁havain	-4106
▁histori	-4107
▁viikonlop	-4108
▁Ru	-4109
▁kävel	-4110
▁sydän	-4111
▁lainen	-4112
nolla	-4113
▁Kaksi	-4114
▁Cather	-4115
▁Siellä	-4116
▁kaikille	-4117
ilua	-4118
▁Siitä	-4119
luvulla	-4120
tomasti	-4121
▁kehittä	-4122
▁mahdollisesti	-4123
▁Lau	-4124
tellut	-4125
▁hetki	-4126
▁nouse	-4127
uttamaan	-4128
▁Use	-4129
▁Aina	-4130
▁pelkä	-4131
▁runko	-4132
▁keskellä	-4133
mur	-4134
ikos	-4135
koja	-4136
▁kunta	-4137
▁rakka	-4138
▁viestipalvelu	-4139
nes	-4140
▁pis	-4141
▁palo	-4142
▁toki	-4143
▁lakko	-4144
▁väkivalta	-4145
keskus	-4146
▁Halla	-4147
▁muoto	-4148
▁Asiasta	-4149
▁toisella	-4150
dp	-4151
udun	-4152
▁Joe	-4153
vistä	-4154
alaisia	-4155
▁heiken	-4156
▁mennyt	-4157
▁tappio	-4158
▁tiedon	-4159
▁vaikutus	-4160
▁erilaisia	-4161
▁jääkiekko	-4162
ley	-4163
▁Yr	-4164
atin	-4165
▁Kiv	-4166
▁avi	-4167
▁Vuoden	-4168
▁tahansa	-4169
▁Instagramissa	-4170
▁St	-4171
▁Huu	-4172
omien	-4173
▁Kuus	-4174
▁auki	-4175
▁minua	-4176
▁monet	-4177
kkaasti	-4178
▁luonnon	-4179
▁&	-4180
vet	-4181
▁Ex	-4182
▁Tik	-4183
▁Ilma	-4184
▁erila	-4185
▁päättä	-4186
▁Tul	-4187
SA	-4188
par	-4189
htia	-4190
▁parhaan	-4191
▁tietoja	-4192
▁huomauttaa	-4193
▁henkilökohta	-4194
FK	-4195
änsä	-4196
▁kysyi	-4197
▁sukup	-4198
▁kasvan	-4199
▁maahanm	-4200
▁paikkaa	-4201
▁venäläis	-4202
▁voittaja	-4203
saa	-4204
matto	-4205
▁hoid	-4206
▁työpa	-4207
▁meille	-4208
kkiä	-4209
▁amp	-4210
tista	-4211
▁tois	-4212
▁rajan	-4213
▁halusi	-4214
▁sellaista	-4215
▁Pro	-4216
▁Nämä	-4217
▁tuul	-4218
uksiin	-4219
▁Asian	-4220
▁Valko	-4221
▁keino	-4222
▁uskon	-4223
▁itsenä	-4224
▁joutuu	-4225
▁suomalaisten	-4226
tai	-4227
sien	-4228
▁neli	-4229
▁liikaa	-4230
▁vuodessa	-4231
yksessä	-4232
▁alkoho	-4233
▁minulla	-4234
dät	-4235
▁Helsinki	-4236
▁julkaise	-4237
▁kuoleman	-4238
▁julkaistu	-4239
istan	-4240
aikais	-4241
▁syntyi	-4242
alue	-4243
▁konk	-4244
▁edell	-4245
▁lisään	-4246
▁missään	-4247
ak	-4248
▁28	-4249
land	-4250
▁vaale	-4251
▁asukka	-4252
▁helposti	-4253
▁ölj	-4254
▁some	-4255
fessori	-4256
▁pääkaupun	-4257
yttö	-4258
▁11.	-4259
▁jaka	-4260
▁kisan	-4261
▁pienen	-4262
▁kehitty	-4263
▁poliiti	-4264
▁keskimää	-4265
9,	-4266
▁Tuu	-4267
▁tel	-4268
▁osan	-4269
▁pohtii	-4270
▁yksittä	-4271
▁toimenpi	-4272
koko	-4273
▁Mal	-4274
risti	-4275
ström	-4276
▁tähd	-4277
FP	-4278
mil	-4279
▁Vas	-4280
▁haa	-4281
uudet	-4282
▁isia	-4283
▁petty	-4284
▁tyttä	-4285
▁lapsia	-4286
▁toiseksi	-4287
▁helmikuussa	-4288
dassa	-4289
muna	-4290
▁hev	-4291
▁malli	-4292
▁elämää	-4293
▁maasto	-4294
▁ennätys	-4295
▁vahvistaa	-4296
kasi	-4297
▁auttaa	-4298
▁nousee	-4299
▁yhtiön	-4300
asia	-4301
▁Ken	-4302
▁ahd	-4303
▁äär	-4304
▁Uusi	-4305
▁sito	-4306
▁malla	-4307
▁varmaan	-4308
▁päällikkö	-4309
usin	-4310
▁sam	-4311
tussa	-4312
▁alas	-4313
▁uran	-4314
▁palkka	-4315
▁kehitys	-4316
tera	-4317
▁Sin	-4318
▁Sto	-4319
tuksi	-4320
▁arti	-4321
▁murh	-4322
▁Kiinan	-4323
▁ukrain	-4324
▁miljard	-4325
▁perusta	-4326
DP	-4327
aho	-4328
vinen	-4329
▁uutis	-4330
▁hyväks	-4331
▁republ	-4332
▁kilpaili	-4333
▁suomalaiset	-4334
äni	-4335
ilma	-4336
▁bud	-4337
▁monen	-4338
▁lausunn	-4339
▁olemassa	-4340
▁syksyllä	-4341
▁300	-4342
▁Len	-4343
▁omat	-4344
▁selvä	-4345
▁Ruotsissa	-4346
▁seurauksena	-4347
elan	-4348
▁tra	-4349
ääkäri	-4350
▁veden	-4351
▁Oulussa	-4352
▁saaneet	-4353
aana	-4354
tman	-4355
▁hinn	-4356
▁miehe	-4357
urheilu	-4358
▁miehet	-4359
▁Vor	-4360
detään	-4361
▁Katso	-4362
▁vettä	-4363
▁katsoi	-4364
▁pystyy	-4365
▁aurinko	-4366
▁Hallitus	-4367
▁Salo	-4368
▁ääni	-4369
▁lasku	-4370
misessa	-4371
▁jättää	-4372
▁parempi	-4373
▁tilasto	-4374
▁kansanedusta	-4375
käy	-4376
ilen	-4377
veli	-4378
▁Sanna	-4379
▁talvi	-4380
▁uutistoimisto	-4381
teg	-4382
dellä	-4383
ksien	-4384
▁vang	-4385
▁tutus	-4386
jiä	-4387
isku	-4388
kussa	-4389
▁Toki	-4390
läinen	-4391
istettu	-4392
▁hyvinvointialu	-4393
▁mahdollisimman	-4394
ler	-4395
▁ikkun	-4396
▁kärsi	-4397
▁lehti	-4398
▁laajen	-4399
▁matkan	-4400
ukan	-4401
▁Jär	-4402
▁Gran	-4403
▁iski	-4404
▁välin	-4405
▁suojel	-4406
▁elämään	-4407
▁sarjassa	-4408
".	-4409
▁45	-4410
▁Jul	-4411
tisti	-4412
pallon	-4413
tellaan	-4414
▁suosikki	-4415
▁Varsinais	-4416
▁Di	-4417
▁Tai	-4418
▁osin	-4419
▁pele	-4420
llissa	-4421
▁huole	-4422
▁siirto	-4423
▁ymmärtää	-4424
suo	-4425
llas	-4426
mala	-4427
taus	-4428
▁BBC	-4429
▁nut	-4430
▁kirj	-4431
▁säännö	-4432
▁Tampereen	-4433
palo	-4434
veys	-4435
▁12.	-4436
▁Ala	-4437
▁Onko	-4438
ikassa	-4439
▁saisi	-4440
emmistö	-4441
▁hetken	-4442
▁sisään	-4443
▁väkiva	-4444
▁kuningas	-4445
mmo	-4446
erkki	-4447
kisen	-4448
▁Olin	-4449
▁ihme	-4450
▁kotima	-4451
▁sijaitsee	-4452
▁yliopiston	-4453
▁2.	-4454
udella	-4455
▁muutama	-4456
ers	-4457
▁My	-4458
▁AFP	-4459
▁Eli	-4460
▁meri	-4461
▁kakkos	-4462
▁katsom	-4463
▁edustaja	-4464
dään	-4465
▁alun	-4466
▁etsi	-4467
ikuuta	-4468
▁Perus	-4469
▁tarke	-4470
▁vauri	-4471
tieteen	-4472
▁häiriö	-4473
▁muuttu	-4474
▁osaval	-4475
▁William	-4476
▁lopulla	-4477
ukas	-4478
▁Teemu	-4479
▁kriti	-4480
▁seksi	-4481
▁esitys	-4482
▁ottanut	-4483
▁ravintola	-4484
▁yhdysvalta	-4485
▁joulukuussa	-4486
cha	-4487
▁omia	-4488
▁ollen	-4489
▁ampuma	-4490
▁tanssi	-4491
▁finaali	-4492
▁tiedossa	-4493
▁tietysti	-4494
▁vahvista	-4495
0.	-4496
ov	-4497
tala	-4498
täjä	-4499
▁roh	-4500
järvi	-4501
▁hovi	-4502
▁pakko	-4503
▁nähnyt	-4504
▁videon	-4505
▁sairaala	-4506
kön	-4507
▁80	-4508
tteri	-4509
▁vallan	-4510
▁mut	-4511
▁pus	-4512
lassa	-4513
mästi	-4514
▁Kale	-4515
▁kutsu	-4516
▁nosti	-4517
▁helppo	-4518
▁astetta	-4519
▁ruotsalais	-4520
tejä	-4521
▁tunnel	-4522
▁saatiin	-4523
koa	-4524
istel	-4525
lässä	-4526
ralla	-4527
ustaa	-4528
▁Olli	-4529
▁heng	-4530
utussa	-4531
▁Laine	-4532
▁tavar	-4533
▁kotona	-4534
▁toiseen	-4535
▁viimeisen	-4536
▁aikaisemmin	-4537
koti	-4538
▁Mad	-4539
▁Face	-4540
▁Jari	-4541
▁laaj	-4542
▁nopea	-4543
▁syystä	-4544
▁Ranskan	-4545
▁kulutta	-4546
▁keskustelua	-4547
za	-4548
ihde	-4549
▁samaa	-4550
immista	-4551
▁Tuolloin	-4552
▁vahvasti	-4553
▁Ruo	-4554
villa	-4555
▁luov	-4556
▁puhd	-4557
▁sivi	-4558
▁synn	-4559
▁iseen	-4560
▁remon	-4561
▁Aiemmin	-4562
▁vaihtoehto	-4563
▁tammikuussa	-4564
siiv	-4565
voja	-4566
▁SDP	-4567
▁lip	-4568
▁reil	-4569
▁kevään	-4570
▁lääkäri	-4571
vit	-4572
▁Haa	-4573
▁Tän	-4574
▁man	-4575
▁nykyään	-4576
▁viranomaiset	-4577
▁CN	-4578
iaan	-4579
▁400	-4580
iehen	-4581
▁Itse	-4582
iska	-4583
kala	-4584
▁Sir	-4585
▁sti	-4586
terin	-4587
tonta	-4588
▁Espo	-4589
▁ansi	-4590
maalla	-4591
▁maiden	-4592
▁voittaa	-4593
▁syntynyt	-4594
▁kierroksen	-4595
▁Pu	-4596
▁nsä	-4597
▁asiakas	-4598
▁yrittää	-4599
▁taistelu	-4600
ministerin	-4601
▁Venäjälle	-4602
▁ainoastaan	-4603
▁ks	-4604
sarja	-4605
▁John	-4606
▁myöh	-4607
▁Tästä	-4608
▁Yleis	-4609
▁palasi	-4610
bin	-4611
eja	-4612
gres	-4613
▁Sta	-4614
▁Suu	-4615
▁viid	-4616
▁hilja	-4617
▁kuninkaa	-4618
▁Suomalais	-4619
▁historian	-4620
ss	-4621
zb	-4622
ner	-4623
bert	-4624
kilä	-4625
▁13.	-4626
menta	-4627
▁illan	-4628
▁naura	-4629
▁aikata	-4630
▁luonno	-4631
▁uuteen	-4632
▁muistelee	-4633
▁Q	-4634
nnä	-4635
▁kyy	-4636
kalla	-4637
▁anal	-4638
asivat	-4639
▁proje	-4640
▁törmä	-4641
▁liiton	-4642
▁mikään	-4643
▁osoitta	-4644
▁kampanja	-4645
▁iltapäivä	-4646
▁työskenne	-4647
▁Je	-4648
▁Kuv	-4649
killä	-4650
tteja	-4651
▁Lapp	-4652
▁erin	-4653
▁herk	-4654
▁Siksi	-4655
▁kunni	-4656
▁vankeus	-4657
▁käräjäoikeus	-4658
ell	-4659
kejä	-4660
▁lupaa	-4661
▁ilmasto	-4662
▁prinssi	-4663
▁joukossa	-4664
▁HS	-4665
▁Mole	-4666
▁komp	-4667
▁organ	-4668
▁nyr	-4669
ännyt	-4670
▁Dani	-4671
▁inves	-4672
▁amerikk	-4673
▁yllätys	-4674
▁syyskuussa	-4675
boo	-4676
▁Pul	-4677
▁heik	-4678
▁kiinnosta	-4679
▁kuukautta	-4680
ic	-4681
asu	-4682
▁oll	-4683
malle	-4684
▁estä	-4685
▁kuka	-4686
▁maata	-4687
▁tappi	-4688
▁määrän	-4689
▁opetta	-4690
▁vaaran	-4691
yksiä	-4692
▁kovaa	-4693
▁pääty	-4694
ittänyt	-4695
▁antanut	-4696
ood	-4697
▁Ny	-4698
teis	-4699
▁CNN	-4700
mättö	-4701
telyn	-4702
ukkaa	-4703
▁hypp	-4704
neiden	-4705
▁uksen	-4706
▁esille	-4707
▁lääkke	-4708
▁tarvitta	-4709
▁Ukrainaan	-4710
▁huomattavasti	-4711
kone	-4712
desta	-4713
tilan	-4714
unnan	-4715
valio	-4716
▁haki	-4717
alassa	-4718
▁kruun	-4719
▁käydä	-4720
▁vauhd	-4721
▁asteen	-4722
▁asioista	-4723
▁käytetty	-4724
▁mukaisesti	-4725
llö	-4726
▁90	-4727
joja	-4728
tunn	-4729
▁Jan	-4730
▁oikeasti	-4731
▁tiedotus	-4732
▁toimintaan	-4733
▁Ad	-4734
▁Toy	-4735
▁osallistui	-4736
▁ga	-4737
▁Jor	-4738
jalta	-4739
▁muuten	-4740
▁suunta	-4741
▁Suomesta	-4742
Pa	-4743
ilman	-4744
rilla	-4745
▁sääntö	-4746
▁aiheutti	-4747
▁etteivät	-4748
▁varmista	-4749
▁tarvitaan	-4750
▁ensimmäisenä	-4751
▁Prin	-4752
▁Sara	-4753
▁pyrki	-4754
▁iseksi	-4755
▁kasvaa	-4756
▁täyttä	-4757
▁äänestys	-4758
▁törkeästä	-4759
▁marraskuussa	-4760
▁Laa	-4761
▁apu	-4762
rasta	-4763
▁poliit	-4764
▁lähesty	-4765
▁talouden	-4766
▁Eh	-4767
▁uni	-4768
▁viittaa	-4769
laitoksen	-4770
▁joutunut	-4771
▁ohjelmassa	-4772
▁17.	-4773
▁Ensi	-4774
ystävä	-4775
▁vihre	-4776
▁Keskus	-4777
▁kisassa	-4778
▁kertoivat	-4779
▁demokraatti	-4780
2-	-4781
▁Aus	-4782
▁Han	-4783
▁inn	-4784
▁mis	-4785
väsky	-4786
▁saun	-4787
estiin	-4788
▁britti	-4789
▁dokumen	-4790
▁merkittävä	-4791
voi	-4792
▁krit	-4793
▁Harry	-4794
▁näitä	-4795
▁riste	-4796
▁sekun	-4797
▁sovell	-4798
▁Israeli	-4799
▁järjestelmä	-4800
▁Ts	-4801
▁sijoi	-4802
▁Joukku	-4803
▁löytää	-4804
▁mieleen	-4805
▁musiikki	-4806
▁paljastaa	-4807
▁kesäkuussa	-4808
▁sairaalaan	-4809
veä	-4810
▁Fr	-4811
valle	-4812
▁puolet	-4813
▁näkökul	-4814
▁onnistui	-4815
sas	-4816
kkia	-4817
lund	-4818
▁18.	-4819
liiga	-4820
omaan	-4821
piiri	-4822
▁tili	-4823
▁Vielä	-4824
▁oikea	-4825
▁kaupan	-4826
▁teksti	-4827
▁matkalla	-4828
▁viimeinen	-4829
▁9.	-4830
▁Ee	-4831
musta	-4832
▁kauk	-4833
reiden	-4834
▁Purra	-4835
▁molemmat	-4836
▁toukokuussa	-4837
4,	-4838
▁Am	-4839
▁hyviä	-4840
▁kalta	-4841
televat	-4842
▁kuvaili	-4843
▁myöntää	-4844
▁videolla	-4845
▁jalkapallo	-4846
▁Lon	-4847
▁Nur	-4848
▁ina	-4849
▁eräs	-4850
▁fyys	-4851
▁päättää	-4852
▁prinsessa	-4853
2,	-4854
öri	-4855
▁hää	-4856
▁tuu	-4857
tonsa	-4858
▁räjä	-4859
▁viet	-4860
tisesti	-4861
▁vuokra	-4862
▁Faceboo	-4863
▁samassa	-4864
▁ilmoitta	-4865
▁Luu	-4866
▁Tal	-4867
▁ali	-4868
▁Fran	-4869
▁teat	-4870
▁vuok	-4871
▁Liban	-4872
▁hevos	-4873
▁kulta	-4874
jattain	-4875
▁yhtään	-4876
▁sisältä	-4877
▁valinta	-4878
▁muutoksia	-4879
▁3,	-4880
▁70	-4881
kela	-4882
▁häl	-4883
▁Niko	-4884
▁liha	-4885
osassa	-4886
▁laito	-4887
▁Pelastus	-4888
▁ainakaan	-4889
est	-4890
unto	-4891
kilön	-4892
ryhmä	-4893
▁Mari	-4894
▁noud	-4895
▁arvon	-4896
▁kiinnos	-4897
▁henkilöä	-4898
gu	-4899
ilin	-4900
joen	-4901
▁21.	-4902
empää	-4903
ohjan	-4904
▁York	-4905
▁paitsi	-4906
▁lokakuussa	-4907
1,	-4908
▁my	-4909
▁Käy	-4910
▁harv	-4911
▁konf	-4912
▁Japan	-4913
▁korvaa	-4914
▁sekunn	-4915
▁tiellä	-4916
▁kapteen	-4917
bu	-4918
vyys	-4919
▁omin	-4920
ettava	-4921
markkin	-4922
▁hyödyn	-4923
▁katsoa	-4924
▁oppila	-4925
▁esittää	-4926
▁voimaan	-4927
▁puoliväli	-4928
ska	-4929
▁10.	-4930
▁14.	-4931
▁Kari	-4932
▁olet	-4933
▁reag	-4934
▁kiire	-4935
teltiin	-4936
▁laittaa	-4937
▁ohjelman	-4938
▁käynnissä	-4939
▁Ukrainalle	-4940
▁Hon	-4941
▁lih	-4942
▁mit	-4943
▁kato	-4944
▁vamm	-4945
ilussa	-4946
mmalla	-4947
▁2024.	-4948
▁Miten	-4949
▁huolto	-4950
▁tilanteeseen	-4951
ya	-4952
kelu	-4953
seet	-4954
▁täh	-4955
▁laite	-4956
▁peliä	-4957
▁Nainen	-4958
▁ryhmän	-4959
▁Minulla	-4960
▁hänestä	-4961
▁esitutkin	-4962
▁viestintä	-4963
kio	-4964
ror	-4965
vuus	-4966
▁Sdp	-4967
▁2025	-4968
▁vall	-4969
ksissa	-4970
toihin	-4971
▁rooli	-4972
▁kunnia	-4973
▁sieltä	-4974
▁Tilanne	-4975
5-	-4976
innä	-4977
▁Tes	-4978
▁Wal	-4979
▁pas	-4980
▁2018	-4981
▁samm	-4982
kkonen	-4983
kselle	-4984
paikan	-4985
▁Gazan	-4986
▁Lehti	-4987
▁laati	-4988
▁tosin	-4989
▁voita	-4990
▁tekijä	-4991
▁mielessä	-4992
▁suunnite	-4993
▁kilpailussa	-4994
▁ö	-4995
▁15.	-4996
▁vär	-4997
jäsen	-4998
▁alan	-4999
▁Kalle	-5000
▁tavoin	-5001
▁suomalaisen	-5002
JK	-5003
Kore	-5004
▁yri	-5005
▁Hann	-5006
▁napp	-5007
▁naur	-5008
uvosto	-5009
zbolla	-5010
llisena	-5011
▁vaikeaa	-5012
▁jaksossa	-5013
yä	-5014
uhe	-5015
▁HI	-5016
▁of	-5017
logi	-5018
▁2000	-5019
▁kalli	-5020
▁osuus	-5021
▁veren	-5022
▁poissa	-5023
▁yrittäjä	-5024
▁vaaleissa	-5025
bridi	-5026
tinyt	-5027
▁haus	-5028
▁ohje	-5029
▁osto	-5030
päivän	-5031
▁länsi	-5032
▁vaihd	-5033
▁liigan	-5034
▁selvää	-5035
▁muistaa	-5036
▁siirtyi	-5037
▁Hizbolla	-5038
▁Leijonien	-5039
▁tutkinnan	-5040
kso	-5041
rang	-5042
▁Muu	-5043
tteli	-5044
▁Spor	-5045
▁laad	-5046
▁Botta	-5047
▁sentti	-5048
▁tuntui	-5049
▁Euroopassa	-5050
▁tuomittiin	-5051
▁viranomaisten	-5052
▁36	-5053
▁mun	-5054
mpaan	-5055
ksilla	-5056
▁hengen	-5057
▁huoles	-5058
keskuksen	-5059
▁järjestetään	-5060
▁maaliskuussa	-5061
▁0,	-5062
aari	-5063
ääri	-5064
▁Inn	-5065
▁suru	-5066
komite	-5067
▁nuore	-5068
▁tarjolla	-5069
▁paikallis	-5070
▁196	-5071
▁20.	-5072
ikuun	-5073
tuksena	-5074
▁Meidän	-5075
▁Jyväsky	-5076
vaaleissa	-5077
▁tunnetaan	-5078
▁presidenti	-5079
▁merkittävästi	-5080
hl	-5081
poo	-5082
▁Slo	-5083
ester	-5084
▁joko	-5085
▁rais	-5086
varain	-5087
▁Erity	-5088
▁Kaupun	-5089
▁nautti	-5090
▁lähtenyt	-5091
▁elokuussa	-5092
▁tavoitteena	-5093
▁Tätä	-5094
▁Vuor	-5095
lehden	-5096
▁Maria	-5097
▁kolle	-5098
▁vaimo	-5099
ittelee	-5100
▁otettu	-5101
▁entisen	-5102
▁eduskunnan	-5103
▁0-	-5104
inut	-5105
kene	-5106
teko	-5107
▁käd	-5108
aliin	-5109
istys	-5110
▁Suur	-5111
▁Voit	-5112
▁presidenttiehdo	-5113
ilo	-5114
net	-5115
▁etä	-5116
impia	-5117
▁kiito	-5118
▁kuule	-5119
▁palau	-5120
▁Perjan	-5121
▁korona	-5122
▁vankil	-5123
▁henkilön	-5124
▁ulkopuol	-5125
ano	-5126
▁19.	-5127
▁Kesä	-5128
▁budj	-5129
▁valo	-5130
▁välittö	-5131
▁sähköauto	-5132
▁Gr	-5133
sina	-5134
ketti	-5135
▁2019	-5136
▁tiiv	-5137
▁Vasta	-5138
innasta	-5139
▁hankin	-5140
▁Harrisin	-5141
▁korostaa	-5142
pit	-5143
vis	-5144
▁Tö	-5145
▁Hyvä	-5146
▁taan	-5147
▁rakas	-5148
▁tyypi	-5149
▁koulutu	-5150
▁politiikan	-5151
mpö	-5152
pua	-5153
zin	-5154
▁Hir	-5155
▁rei	-5156
▁saar	-5157
▁tuote	-5158
▁kirjan	-5159
▁suuren	-5160
▁vaihtoeh	-5161
▁selvittää	-5162
▁7.	-5163
▁Ari	-5164
sivät	-5165
isillä	-5166
▁yhtenä	-5167
▁aikojen	-5168
ws	-5169
del	-5170
nim	-5171
pio	-5172
▁Sam	-5173
olais	-5174
viisu	-5175
▁2016	-5176
▁Edus	-5177
▁jutu	-5178
▁sydä	-5179
▁Marko	-5180
▁täyde	-5181
▁perään	-5182
▁varmis	-5183
▁sanottu	-5184
▁voittoa	-5185
▁omistaja	-5186
▁tutkinta	-5187
enin	-5188
▁raj	-5189
kille	-5190
nolog	-5191
▁stra	-5192
ikkaan	-5193
istään	-5194
vaalien	-5195
▁ohjelma	-5196
los	-5197
kinä	-5198
▁Uni	-5199
▁HIFK	-5200
▁pika	-5201
▁kiusa	-5202
▁yksil	-5203
▁naiset	-5204
▁tarjoa	-5205
▁toistu	-5206
▁väärin	-5207
▁mestari	-5208
▁tutkija	-5209
▁käytöstä	-5210
▁pidetään	-5211
▁Hie	-5212
ologi	-5213
▁laji	-5214
paikka	-5215
politi	-5216
▁järky	-5217
▁juoksi	-5218
▁sanonut	-5219
3,	-5220
eo	-5221
teh	-5222
hoja	-5223
iver	-5224
kaus	-5225
▁Mik	-5226
▁uks	-5227
▁Ehkä	-5228
▁Halu	-5229
▁naim	-5230
▁star	-5231
▁hieno	-5232
▁täysi	-5233
▁Heikki	-5234
▁Iranin	-5235
▁energia	-5236
▁tiedotti	-5237
▁yhteyttä	-5238
▁Rovanperä	-5239
▁vakavasti	-5240
▁5-	-5241
imet	-5242
▁Fer	-5243
▁Red	-5244
▁USA	-5245
▁summ	-5246
yttiin	-5247
▁joihin	-5248
▁muutti	-5249
▁muuttaa	-5250
▁kannatus	-5251
▁hyökkääjä	-5252
▁julkisuudessa	-5253
ija	-5254
▁16.	-5255
▁tes	-5256
inaan	-5257
miset	-5258
▁eksi	-5259
▁puna	-5260
▁sade	-5261
▁Paimi	-5262
▁paino	-5263
▁sairas	-5264
▁Tapahtu	-5265
▁jutussa	-5266
▁lopputu	-5267
▁organis	-5268
▁uudistu	-5269
▁[	-5270
▁di	-5271
peri	-5272
jojen	-5273
▁olle	-5274
▁kunnes	-5275
▁näkemy	-5276
▁toivoo	-5277
▁kansallis	-5278
ny	-5279
▁psy	-5280
▁rin	-5281
▁tekn	-5282
▁Hanna	-5283
▁Mosko	-5284
▁katsoo	-5285
▁taakse	-5286
▁urallaan	-5287
▁Paa	-5288
▁Was	-5289
▁esta	-5290
▁tuon	-5291
aisesti	-5292
▁tarkka	-5293
▁aamulla	-5294
▁lähetti	-5295
▁alkuperä	-5296
▁kuolleen	-5297
▁vaimonsa	-5298
▁nimenomaan	-5299
▁At	-5300
estar	-5301
kista	-5302
▁koro	-5303
kkinen	-5304
▁kasvu	-5305
▁vanha	-5306
▁Olympia	-5307
vuotiaana	-5308
▁puolelle	-5309
▁selvittä	-5310
lik	-5311
ikön	-5312
▁lev	-5313
▁lääke	-5314
▁omaan	-5315
▁puhua	-5316
▁tuomar	-5317
▁miseksi	-5318
▁Zelenskyi	-5319
▁Kansainväl	-5320
pito	-5321
▁roma	-5322
▁autta	-5323
▁entis	-5324
▁risti	-5325
▁Tutkim	-5326
puolelle	-5327
▁palkinto	-5328
▁odotetaan	-5329
▁Vih	-5330
ister	-5331
▁asen	-5332
attori	-5333
oilija	-5334
▁kertoa	-5335
▁puoliso	-5336
▁sotilaa	-5337
▁tekevät	-5338
tas	-5339
urn	-5340
▁8.	-5341
▁via	-5342
▁Krem	-5343
▁kyky	-5344
▁kadon	-5345
▁koira	-5346
▁neuvo	-5347
▁ajatus	-5348
▁päätyi	-5349
▁tapaus	-5350
▁Reuters	-5351
▁alkanut	-5352
▁tavoite	-5353
ityksessä	-5354
▁toisessa	-5355
sik	-5356
vinnyt	-5357
Suomessa	-5358
▁pelissä	-5359
▁uksesta	-5360
▁lainkaan	-5361
▁ulkopuolella	-5362
▁da	-5363
hais	-5364
pään	-5365
▁Kie	-5366
▁Näyt	-5367
tuusto	-5368
▁Uuden	-5369
▁kauan	-5370
▁vahva	-5371
▁hankke	-5372
▁heille	-5373
▁tapaan	-5374
ii	-5375
htuu	-5376
tonin	-5377
käteen	-5378
teessä	-5379
▁johti	-5380
▁heistä	-5381
▁sairaus	-5382
▁pelaajat	-5383
▁prosentti	-5384
▁haastattelu	-5385
isko	-5386
käyn	-5387
▁Jaa	-5388
ikkiä	-5389
toivat	-5390
iaamuna	-5391
▁kaikista	-5392
▁heinäkuussa	-5393
mmäs	-5394
ukut	-5395
teistä	-5396
▁Markk	-5397
▁alueilla	-5398
▁ratkaise	-5399
omin	-5400
sivat	-5401
järven	-5402
▁etsin	-5403
▁matto	-5404
▁myynn	-5405
▁pyytää	-5406
▁epäilee	-5407
▁varsinkin	-5408
▁työmarkkin	-5409
▁huhtikuussa	-5410
mö	-5411
pes	-5412
▁Emme	-5413
▁kuol	-5414
rangais	-5415
▁asunto	-5416
▁soitti	-5417
▁viettä	-5418
▁Salossa	-5419
▁menettä	-5420
istettiin	-5421
▁laitoksen	-5422
▁iltapäivällä	-5423
▁Tuk	-5424
▁mään	-5425
▁Charles	-5426
▁kannata	-5427
▁dollaria	-5428
ons	-5429
inin	-5430
▁Mac	-5431
▁Pie	-5432
isiko	-5433
ttele	-5434
▁Oulu	-5435
taalla	-5436
▁vakuu	-5437
▁valin	-5438
▁isänsä	-5439
▁puisto	-5440
▁kuukaus	-5441
▁voittoon	-5442
▁poliisille	-5443
▁kaupungissa	-5444
juo	-5445
▁ohe	-5446
dalla	-5447
▁Lähi	-5448
säädän	-5449
▁ilmen	-5450
▁jouko	-5451
▁asiaan	-5452
▁määrää	-5453
▁löytynyt	-5454
▁sellaisia	-5455
▁hiljattain	-5456
uste	-5457
▁hid	-5458
▁ryö	-5459
ettua	-5460
mätön	-5461
kanaan	-5462
▁jouluk	-5463
▁kulttuur	-5464
▁liittyen	-5465
▁Toisaalta	-5466
..	-5467
ttoa	-5468
▁Win	-5469
▁Juus	-5470
netaan	-5471
▁pääll	-5472
▁säily	-5473
▁asetta	-5474
▁mestaruus	-5475
tossa	-5476
▁käytö	-5477
yydestä	-5478
▁englan	-5479
▁niihin	-5480
▁nähden	-5481
▁taiste	-5482
▁tuolla	-5483
iro	-5484
aisa	-5485
hdin	-5486
illut	-5487
onnut	-5488
▁vuor	-5489
isistä	-5490
▁tyyli	-5491
▁isesta	-5492
▁toisin	-5493
ohjelman	-5494
▁yhteisö	-5495
▁kuuluvat	-5496
urg	-5497
wan	-5498
ajan	-5499
▁soi	-5500
▁Mann	-5501
▁Muut	-5502
▁mäki	-5503
▁pojan	-5504
▁sprin	-5505
▁vahin	-5506
▁Linnan	-5507
▁omasta	-5508
▁lähinnä	-5509
▁Tampereella	-5510
▁22.	-5511
itaan	-5512
uheen	-5513
▁Aika	-5514
▁uhri	-5515
▁yhty	-5516
▁lahja	-5517
▁siirr	-5518
▁keitti	-5519
▁suuria	-5520
▁tähden	-5521
utuminen	-5522
▁Hänellä	-5523
▁paikkoja	-5524
▁vastaava	-5525
▁pelkästään	-5526
▁kokoomuksen	-5527
▁6.	-5528
▁mm	-5529
iväs	-5530
yhty	-5531
ähkö	-5532
▁suj	-5533
▁aine	-5534
▁lumi	-5535
▁muutta	-5536
▁naista	-5537
▁kuvassa	-5538
▁kaikkiaan	-5539
pot	-5540
kivi	-5541
▁Väh	-5542
▁hom	-5543
paino	-5544
▁Pien	-5545
▁Tele	-5546
▁kans	-5547
ikasta	-5548
▁Kalli	-5549
▁Oikeus	-5550
▁potila	-5551
▁Niskanen	-5552
▁elämässä	-5553
▁kirjassa	-5554
▁nimittäin	-5555
▁ulkoministeri	-5556
kiel	-5557
unen	-5558
▁Jun	-5559
▁eroa	-5560
▁hymy	-5561
▁lopu	-5562
▁alais	-5563
▁tuskin	-5564
▁laulaja	-5565
▁onnistunut	-5566
ario	-5567
▁Roo	-5568
▁maku	-5569
▁nousu	-5570
▁merkin	-5571
▁Britannian	-5572
▁parhaillaan	-5573
dot	-5574
hto	-5575
rjä	-5576
▁fi	-5577
▁Ede	-5578
▁aid	-5579
▁Ihan	-5580
▁piha	-5581
▁kulke	-5582
▁nukku	-5583
▁epäonn	-5584
▁Washing	-5585
▁kokemus	-5586
▁tyytyväinen	-5587
▁tytär	-5588
▁pitkin	-5589
päällikkö	-5590
▁etukäteen	-5591
▁käytetään	-5592
▁tiedottaa	-5593
▁julkisuuteen	-5594
vid	-5595
▁3.	-5596
▁Ros	-5597
▁Sunn	-5598
▁löysi	-5599
▁rajoi	-5600
▁Lopulta	-5601
▁vaikutti	-5602
▁tarvitsee	-5603
pr	-5604
▁Ras	-5605
▁inno	-5606
▁seen	-5607
▁Kamala	-5608
▁hävisi	-5609
▁myönsi	-5610
▁pisteen	-5611
▁selviää	-5612
▁minuutin	-5613
▁itsestään	-5614
hön	-5615
▁37	-5616
▁Fo	-5617
vist	-5618
▁Hil	-5619
▁Jas	-5620
tuvat	-5621
▁Jenni	-5622
▁ranta	-5623
tuntija	-5624
▁kasvanut	-5625
tkä	-5626
▁Vaa	-5627
karin	-5628
▁Hyvin	-5629
▁paket	-5630
▁pallo	-5631
▁suhde	-5632
▁eläkke	-5633
▁llinen	-5634
▁työttö	-5635
▁väliin	-5636
▁Lapissa	-5637
▁parissa	-5638
▁käyttäyty	-5639
▁yksinkerta	-5640
▁Vol	-5641
ilijä	-5642
▁rool	-5643
utusta	-5644
▁autoa	-5645
▁etene	-5646
▁musiik	-5647
▁kritisoi	-5648
▁valittiin	-5649
ilm	-5650
▁29	-5651
esse	-5652
ktio	-5653
joista	-5654
utensa	-5655
utettu	-5656
▁Koska	-5657
▁Tähän	-5658
▁Valio	-5659
▁siten	-5660
kisojen	-5661
▁väitti	-5662
▁jossain	-5663
▁kokouksessa	-5664
insa	-5665
▁kka	-5666
anaan	-5667
estön	-5668
missä	-5669
unais	-5670
uksien	-5671
▁sattu	-5672
▁kokenut	-5673
▁suurläh	-5674
▁joukkoon	-5675
▁pystynyt	-5676
▁sekuntia	-5677
▁TV	-5678
vänä	-5679
▁Pes	-5680
▁aio	-5681
▁pin	-5682
▁Kans	-5683
▁Talo	-5684
▁uima	-5685
▁jäädä	-5686
▁saksa	-5687
▁uudet	-5688
▁kiertu	-5689
▁neuvot	-5690
▁päivys	-5691
▁Trumpia	-5692
▁haluavat	-5693
▁harrasta	-5694
mppu	-5695
▁Koh	-5696
▁Viron	-5697
▁järke	-5698
▁kiell	-5699
innalla	-5700
▁kestää	-5701
▁pelata	-5702
▁maaliin	-5703
▁ajoneuvo	-5704
-20	-5705
eer	-5706
ueen	-5707
▁Tra	-5708
▁Tänä	-5709
yökkää	-5710
▁Daniel	-5711
▁ruokaa	-5712
▁tervey	-5713
▁täyden	-5714
▁Maailman	-5715
▁esityksen	-5716
▁hallinnon	-5717
▁keskustan	-5718
▁käynnisty	-5719
ci	-5720
pla	-5721
▁Aho	-5722
▁Mor	-5723
tävät	-5724
▁Liig	-5725
Pohjan	-5726
▁Paika	-5727
▁puuko	-5728
▁aluksi	-5729
▁omalla	-5730
▁ehdokas	-5731
▁vieraili	-5732
▁vuodelta	-5733
3-	-5734
che	-5735
▁Th	-5736
▁Men	-5737
▁koe	-5738
tessa	-5739
▁Kaar	-5740
▁kein	-5741
▁mikäli	-5742
▁illalla	-5743
▁Espanjan	-5744
▁liikunta	-5745
▁hyökkäyksen	-5746
▁loukkaantui	-5747
yörä	-5748
▁enn	-5749
eltaan	-5750
jalais	-5751
udulla	-5752
▁Angel	-5753
▁ennäty	-5754
▁harvin	-5755
▁verkkos	-5756
▁kokoonpan	-5757
▁4.	-5758
holm	-5759
▁kod	-5760
mästä	-5761
tusti	-5762
▁aloi	-5763
▁kuvi	-5764
▁seka	-5765
▁vied	-5766
▁Metsä	-5767
▁Monet	-5768
isuutta	-5769
▁Pohjan	-5770
▁toisia	-5771
▁haavoit	-5772
▁selvisi	-5773
▁puhutaan	-5774
ttyä	-5775
▁Austr	-5776
▁puhui	-5777
▁totta	-5778
▁esitti	-5779
▁Hamasin	-5780
▁aiempaa	-5781
▁epäillyn	-5782
▁ammattilais	-5783
).	-5784
4-	-5785
▁Mas	-5786
kistä	-5787
koski	-5788
▁juoks	-5789
▁puhuu	-5790
misario	-5791
▁kasvoi	-5792
▁käytti	-5793
▁tietty	-5794
sd	-5795
tän	-5796
▁een	-5797
jattu	-5798
▁keho	-5799
ikaani	-5800
▁haita	-5801
▁pyysi	-5802
▁ylivoima	-5803
▁Käräjäoike	-5804
nee	-5805
turi	-5806
▁Sim	-5807
▁Pitä	-5808
maiden	-5809
▁Aalto	-5810
alaisissa	-5811
▁huolissaan	-5812
▁mielenkiin	-5813
▁onnettomuus	-5814
▁republikaan	-5815
▁välittömästi	-5816
▁Cha	-5817
▁Hol	-5818
▁Lan	-5819
▁Nik	-5820
▁Sus	-5821
uston	-5822
▁essä	-5823
▁kodin	-5824
▁kysely	-5825
▁nuoret	-5826
▁tarttu	-5827
▁paikkaan	-5828
▁lämpötila	-5829
▁5.	-5830
▁Col	-5831
▁Yhd	-5832
▁paid	-5833
▁lippu	-5834
▁paina	-5835
▁sulke	-5836
▁ilmoituksen	-5837
ett	-5838
asin	-5839
▁häir	-5840
▁pään	-5841
▁sana	-5842
▁viin	-5843
▁Martin	-5844
▁Tappara	-5845
▁työllis	-5846
▁Onnettom	-5847
▁kisoissa	-5848
▁urheilija	-5849
▁vapaaehto	-5850
siv	-5851
jänä	-5852
▁läs	-5853
aseen	-5854
▁sulj	-5855
isista	-5856
tuksiin	-5857
▁Kaarin	-5858
▁merkki	-5859
▁ilmesty	-5860
▁äärimmä	-5861
▁paljasti	-5862
▁pelaajia	-5863
▁lauantain	-5864
▁lainsäädän	-5865
kuo	-5866
▁38	-5867
lliin	-5868
▁käyttöä	-5869
▁keskuksen	-5870
▁tuotteita	-5871
▁tutkimuksen	-5872
set	-5873
piir	-5874
▁heh	-5875
▁vyö	-5876
kalta	-5877
▁Päiv	-5878
▁elää	-5879
▁ohja	-5880
▁jakoi	-5881
▁luvan	-5882
▁olevat	-5883
▁paikalta	-5884
▁Rovaniemen	-5885
mes	-5886
sit	-5887
uth	-5888
iaat	-5889
iini	-5890
▁Pos	-5891
▁net	-5892
▁sie	-5893
▁tää	-5894
▁juom	-5895
▁rans	-5896
▁rata	-5897
▁ylös	-5898
erässä	-5899
▁kokee	-5900
▁uhrin	-5901
▁naapur	-5902
▁osoittaa	-5903
▁sanotaan	-5904
▁saattavat	-5905
▁tietenkin	-5906
▁tulevaisuudessa	-5907
kirj	-5908
▁Rin	-5909
▁eva	-5910
▁jyr	-5911
vellä	-5912
▁Joka	-5913
▁sope	-5914
▁Innes	-5915
▁rahoi	-5916
▁Riikka	-5917
▁hämmen	-5918
▁hämmäs	-5919
▁korjaa	-5920
▁poikan	-5921
▁talven	-5922
▁töihin	-5923
▁Vantaan	-5924
▁päätöstä	-5925
▁joulukuuta	-5926
lass	-5927
ssin	-5928
teor	-5929
▁aan	-5930
▁tom	-5931
lääkäri	-5932
▁edellä	-5933
▁pankki	-5934
▁suurta	-5935
▁tunnista	-5936
▁tällainen	-5937
kohd	-5938
▁15-	-5939
▁pul	-5940
▁diag	-5941
mattom	-5942
▁pysäh	-5943
▁valti	-5944
▁Heleni	-5945
tuksissa	-5946
▁eivätkä	-5947
▁jokainen	-5948
▁otettiin	-5949
▁suoritus	-5950
uku	-5951
tapa	-5952
usen	-5953
▁Ber	-5954
▁uim	-5955
meren	-5956
rinen	-5957
▁tuor	-5958
▁2021.	-5959
▁viita	-5960
ulainen	-5961
▁heikko	-5962
▁kuului	-5963
▁omassa	-5964
▁podcas	-5965
▁lehdistö	-5966
vuotiaiden	-5967
▁maalivahti	-5968
▁tapahtumia	-5969
▁suomalaista	-5970
▁Top	-5971
▁kyn	-5972
Stubb	-5973
▁Toim	-5974
▁korja	-5975
▁tason	-5976
▁erässä	-5977
▁syöttö	-5978
▁luvassa	-5979
▁liittyvät	-5980
▁maailmassa	-5981
ylä	-5982
▁yn	-5983
ieme	-5984
teer	-5985
▁ota	-5986
kilpa	-5987
aation	-5988
▁Hänet	-5989
▁epävar	-5990
▁miljar	-5991
▁Kuvassa	-5992
▁Urheilu	-5993
▁ehtinyt	-5994
▁keväänä	-5995
▁sijoittui	-5996
ug	-5997
upä	-5998
jala	-5999
▁hyl	-6000
Korean	-6001
▁tekni	-6002
▁Kansan	-6003
▁näiden	-6004
▁parasta	-6005
▁professori	-6006
▁keskimäärin	-6007
läis	-6008
myys	-6009
▁Yhti	-6010
▁Paris	-6011
▁Sosia	-6012
▁laita	-6013
▁artisti	-6014
▁Saksassa	-6015
▁alkoholi	-6016
▁tuloksen	-6017
▁yllättäen	-6018
kija	-6019
uran	-6020
iksen	-6021
ntiin	-6022
▁tarj	-6023
enkään	-6024
▁näistä	-6025
▁liikenteen	-6026
ji	-6027
ismi	-6028
▁ros	-6029
matka	-6030
qvist	-6031
▁huum	-6032
▁terä	-6033
▁Miksi	-6034
▁kulku	-6035
▁ttiin	-6036
▁Henrik	-6037
▁läheis	-6038
▁yksilö	-6039
▁legenda	-6040
▁muuttunut	-6041
▁(2	-6042
▁SA	-6043
▁...	-6044
▁HJK	-6045
▁Max	-6046
▁Nie	-6047
vaara	-6048
▁Tamm	-6049
▁asuu	-6050
▁kerää	-6051
▁viisu	-6052
▁poista	-6053
▁eurolla	-6054
▁kymmeniä	-6055
▁tyttären	-6056
▁puolisonsa	-6057
▁Ilmatieteen	-6058
ova	-6059
▁Sää	-6060
kasen	-6061
kirja	-6062
tilat	-6063
▁läsnä	-6064
▁artikk	-6065
▁kappale	-6066
▁syksynä	-6067
▁tuomitsi	-6068
▁Bel	-6069
▁Oma	-6070
▁for	-6071
kunna	-6072
▁Sain	-6073
▁kasa	-6074
▁tutk	-6075
▁Video	-6076
▁ikinä	-6077
▁prote	-6078
▁alkavat	-6079
▁ottamaan	-6080
▁tarkemmin	-6081
▁henkilöstö	-6082
▁Yo	-6083
▁nn	-6084
pari	-6085
sion	-6086
uoto	-6087
▁moti	-6088
▁näki	-6089
▁oppi	-6090
▁osui	-6091
▁viih	-6092
▁Harkim	-6093
▁henkir	-6094
▁isella	-6095
▁Rantanen	-6096
▁huomioon	-6097
▁kommentti	-6098
aik	-6099
tena	-6100
▁bän	-6101
jöitä	-6102
ositi	-6103
▁puku	-6104
▁hakea	-6105
▁edeltä	-6106
▁erinoma	-6107
▁euroopp	-6108
▁tapausta	-6109
▁kommentoin	-6110
▁bi	-6111
▁Uus	-6112
▁Tule	-6113
itetty	-6114
▁syöpä	-6115
▁laitta	-6116
ittemmin	-6117
▁milloin	-6118
▁ominais	-6119
▁ensimmäisellä	-6120
muu	-6121
pis	-6122
rid	-6123
kiko	-6124
▁20-	-6125
▁Pol	-6126
▁2017	-6127
▁avio	-6128
▁vauh	-6129
▁Valta	-6130
▁monia	-6131
▁taite	-6132
tettävä	-6133
▁Mikäli	-6134
▁sähkön	-6135
▁Aleksan	-6136
ityksestä	-6137
ata	-6138
tre	-6139
▁irti	-6140
▁hahmo	-6141
▁silmä	-6142
▁edistä	-6143
▁muihin	-6144
▁ohella	-6145
▁vaatim	-6146
jalainen	-6147
▁aiheuttanut	-6148
llu	-6149
ppe	-6150
jelu	-6151
ynen	-6152
▁Kis	-6153
▁edu	-6154
attia	-6155
itinsä	-6156
uttava	-6157
utuvat	-6158
▁Micha	-6159
▁laitos	-6160
▁osasto	-6161
▁täynnä	-6162
▁autojen	-6163
▁ennakoi	-6164
▁kerrosta	-6165
▁valvonta	-6166
▁operaatio	-6167
▁kuningatar	-6168
imm	-6169
▁km	-6170
▁sov	-6171
vaali	-6172
yttyi	-6173
äällä	-6174
▁Meri	-6175
▁erän	-6176
käynti	-6177
▁maise	-6178
▁Veikka	-6179
liigassa	-6180
tuksella	-6181
▁kohtalo	-6182
▁jatkuvasti	-6183
▁yhteistyötä	-6184
fe	-6185
heen	-6186
▁ile	-6187
huone	-6188
kojen	-6189
▁Muun	-6190
▁koto	-6191
▁ehdot	-6192
▁kasvo	-6193
▁puole	-6194
▁Jääkie	-6195
▁Siihen	-6196
▁kuvattu	-6197
▁työntekijä	-6198
myr	-6199
▁Mel	-6200
▁lit	-6201
oikeisto	-6202
▁paranta	-6203
▁epäonnistu	-6204
),	-6205
▁800	-6206
hoito	-6207
joille	-6208
▁Kaner	-6209
▁jaksa	-6210
▁millä	-6211
uutensa	-6212
▁Italian	-6213
ottelussa	-6214
▁käsittely	-6215
▁tarpeeksi	-6216
▁Pääministeri	-6217
▁ensimmäisessä	-6218
▁Uh	-6219
▁sho	-6220
oping	-6221
▁Järj	-6222
▁kohu	-6223
ittava	-6224
kkänen	-6225
▁Pulju	-6226
▁ilmiö	-6227
▁käänn	-6228
▁sotaa	-6229
▁testa	-6230
▁tuoda	-6231
▁Tappar	-6232
▁heillä	-6233
▁pyrkii	-6234
▁siviili	-6235
▁vahvisti	-6236
ohjelmassa	-6237
▁investoin	-6238
▁kolmannen	-6239
KP	-6240
▁Du	-6241
pres	-6242
vala	-6243
▁rav	-6244
kaisi	-6245
▁Vilp	-6246
▁juur	-6247
▁omis	-6248
▁pais	-6249
▁vene	-6250
ikseen	-6251
▁Anton	-6252
▁Super	-6253
▁laaja	-6254
▁luonto	-6255
▁muille	-6256
▁vakava	-6257
▁kisojen	-6258
▁kuntoon	-6259
▁strateg	-6260
▁valmennus	-6261
▁näkökulmasta	-6262
one	-6263
▁Pö	-6264
loma	-6265
▁jum	-6266
rillä	-6267
välin	-6268
▁levy	-6269
illeen	-6270
ksellä	-6271
▁omien	-6272
▁äidin	-6273
▁Mäkelä	-6274
▁yleisön	-6275
ottavasti	-6276
▁tavanoma	-6277
▁varrella	-6278
▁järjestää	-6279
▁sairaalassa	-6280
ted	-6281
use	-6282
▁Paj	-6283
▁Pär	-6284
issään	-6285
ittele	-6286
ruutta	-6287
▁isessa	-6288
▁matkus	-6289
▁nyrkke	-6290
llisesta	-6291
▁alkohol	-6292
▁toimeen	-6293
▁sijoitus	-6294
▁maksamaan	-6295
▁kappaletta	-6296
uni	-6297
▁Nuo	-6298
▁stu	-6299
auton	-6300
basti	-6301
itsin	-6302
▁Mäki	-6303
▁miin	-6304
omille	-6305
▁Guard	-6306
▁Suurin	-6307
▁polttoa	-6308
▁Myöhemmin	-6309
▁Vasemmisto	-6310
▁mestaruuden	-6311
sal	-6312
▁isi	-6313
▁päih	-6314
▁rive	-6315
▁Kolme	-6316
▁Sähkö	-6317
▁lenno	-6318
▁Tiista	-6319
▁hoitaa	-6320
▁pallon	-6321
▁kuukausi	-6322
▁ympärillä	-6323
▁Ir	-6324
▁Vik	-6325
kkain	-6326
▁Anne	-6327
▁kylä	-6328
ittävä	-6329
▁Kiina	-6330
▁kahta	-6331
▁liito	-6332
▁keikka	-6333
▁lämmin	-6334
▁matkaa	-6335
▁alkoivat	-6336
▁selittää	-6337
▁teknolog	-6338
▁viimeksi	-6339
▁Washington	-6340
▁väkivallan	-6341
enee	-6342
ller	-6343
▁10-	-6344
ihdon	-6345
▁Tshe	-6346
▁lask	-6347
▁naut	-6348
ettävä	-6349
kauppa	-6350
▁Somer	-6351
▁jalkapall	-6352
▁turvallisuuden	-6353
rassa	-6354
▁Juli	-6355
▁kori	-6356
▁sote	-6357
tastro	-6358
▁isoja	-6359
▁kisaa	-6360
▁meneh	-6361
▁paiko	-6362
▁uksia	-6363
mestari	-6364
▁Krista	-6365
▁kamppa	-6366
▁mitali	-6367
▁niissä	-6368
▁enempää	-6369
▁lopettaa	-6370
▁yhteyden	-6371
▁Euroviisu	-6372
▁perjantai	-6373
▁hyökkäysso	-6374
▁merkitystä	-6375
▁tapahtuneesta	-6376
SS	-6377
▁Nu	-6378
▁18-	-6379
▁avo	-6380
innin	-6381
media	-6382
vella	-6383
▁Sisä	-6384
▁kärj	-6385
▁Joker	-6386
▁kiloa	-6387
▁minuu	-6388
▁ransk	-6389
▁koiran	-6390
▁tehneet	-6391
▁valmiiksi	-6392
▁vankeusrangais	-6393
▁olympialaisissa	-6394
piä	-6395
hdus	-6396
eloku	-6397
▁tiuk	-6398
ositio	-6399
vuoden	-6400
▁Joens	-6401
▁asema	-6402
▁juoksu	-6403
yökkääjä	-6404
▁havainn	-6405
▁hybridi	-6406
▁peräkkä	-6407
▁tärkein	-6408
▁uudestaan	-6409
▁voitaisiin	-6410
hdy	-6411
▁48	-6412
▁Ali	-6413
▁Lah	-6414
jansa	-6415
▁Miel	-6416
koihin	-6417
neista	-6418
▁aloit	-6419
▁festi	-6420
▁lakka	-6421
▁radio	-6422
▁varaa	-6423
▁Vastaa	-6424
▁kriitt	-6425
▁Valtteri	-6426
▁tällaista	-6427
▁keskiviikko	-6428
ep	-6429
kier	-6430
pitä	-6431
▁aiv	-6432
▁hor	-6433
▁ise	-6434
▁tak	-6435
▁arki	-6436
▁ksen	-6437
▁terv	-6438
▁Musta	-6439
▁pakka	-6440
isuuden	-6441
▁epäsel	-6442
▁saattoi	-6443
▁Valtonen	-6444
▁kesäkuuta	-6445
▁suhteessa	-6446
▁työskentele	-6447
▁mahdollisuuksia	-6448
pö	-6449
▁ly	-6450
sonin	-6451
▁koki	-6452
▁kome	-6453
▁viha	-6454
▁väär	-6455
▁esillä	-6456
▁huomaa	-6457
▁lailla	-6458
▁terror	-6459
▁hyväksi	-6460
▁siirtyy	-6461
▁tulevan	-6462
▁Lindtman	-6463
▁kunnolla	-6464
▁tapauksen	-6465
ash	-6466
fia	-6467
tei	-6468
tic	-6469
ytö	-6470
kyky	-6471
omaa	-6472
anoma	-6473
▁liki	-6474
▁Elina	-6475
▁pysyy	-6476
▁varma	-6477
itteitä	-6478
▁Tänään	-6479
▁jäivät	-6480
▁muodos	-6481
▁Keskivi	-6482
▁esiintyi	-6483
▁huolestu	-6484
▁joukkuetta	-6485
▁sunnuntain	-6486
▁verkkosivu	-6487
Pan	-6488
ther	-6489
▁spe	-6490
tusten	-6491
▁estää	-6492
▁tänne	-6493
▁Huuhka	-6494
▁Mikael	-6495
▁houkut	-6496
▁päätte	-6497
▁pidetty	-6498
▁lisäänty	-6499
▁pelataan	-6500
▁toiselle	-6501
▁finaalissa	-6502
▁sosiaalisen	-6503
mäen	-6504
▁23.	-6505
▁aih	-6506
▁pat	-6507
käynn	-6508
llöin	-6509
oinut	-6510
urssi	-6511
▁Jani	-6512
▁Vier	-6513
vuotis	-6514
▁Ensin	-6515
▁löytä	-6516
▁Dallas	-6517
istuksen	-6518
▁pelasta	-6519
▁vaikkapa	-6520
▁poliisila	-6521
▁Pariisissa	-6522
▁ilmoittanut	-6523
▁vaikuttavat	-6524
sse	-6525
▁46	-6526
ivuo	-6527
▁Blo	-6528
▁kim	-6529
▁laul	-6530
▁tuen	-6531
▁askel	-6532
▁tekoä	-6533
▁juhann	-6534
▁laiset	-6535
▁loista	-6536
▁Johanna	-6537
▁Näytteli	-6538
▁juontaja	-6539
▁kapteeni	-6540
▁kerrottu	-6541
▁palvelun	-6542
▁tulokset	-6543
▁pelaamaan	-6544
▁rangaistus	-6545
▁keskustassa	-6546
ntö	-6547
▁Go	-6548
ikoi	-6549
ppoa	-6550
ttin	-6551
▁Aki	-6552
▁Vic	-6553
▁ton	-6554
villä	-6555
▁Kaks	-6556
llisiä	-6557
▁testi	-6558
▁turha	-6559
▁asiana	-6560
▁naisia	-6561
▁tutkii	-6562
▁itsekin	-6563
▁Presiden	-6564
▁haluaisi	-6565
▁rakentaa	-6566
▁voimassa	-6567
▁miljardia	-6568
▁sähköposti	-6569
taso	-6570
mille	-6571
raali	-6572
▁Noin	-6573
▁Palo	-6574
▁kieli	-6575
▁luopu	-6576
▁puuta	-6577
▁tarina	-6578
▁hoitoon	-6579
tilillään	-6580
▁johtajan	-6581
▁nykyinen	-6582
▁poikansa	-6583
▁rahoitus	-6584
▁tapahtuman	-6585
▁suomalaisia	-6586
ow	-6587
ski	-6588
tuin	-6589
▁set	-6590
nutta	-6591
▁Nord	-6592
▁iltä	-6593
▁öljy	-6594
isissä	-6595
tellyt	-6596
▁Daily	-6597
▁erään	-6598
▁velvo	-6599
tellään	-6600
telusta	-6601
▁lataus	-6602
▁matala	-6603
▁liikenn	-6604
▁tuomion	-6605
alaisille	-6606
▁mukanaan	-6607
▁tiedotteessaan	-6608
wi	-6609
jiin	-6610
▁Med	-6611
▁Mie	-6612
▁Yks	-6613
▁kuv	-6614
▁Ilve	-6615
▁Matt	-6616
▁Roman	-6617
asiassa	-6618
▁iselle	-6619
▁kaksin	-6620
▁kohden	-6621
▁pidemm	-6622
▁suoritta	-6623
▁joukkojen	-6624
▁sijaitsevan	-6625
lti	-6626
pia	-6627
▁Ty	-6628
▁Mil	-6629
▁ret	-6630
heilun	-6631
teetti	-6632
▁hyvät	-6633
▁isänn	-6634
▁kaatu	-6635
▁Heidän	-6636
▁Markku	-6637
▁tiedus	-6638
▁väestö	-6639
utumista	-6640
▁Paimion	-6641
▁tuhansia	-6642
▁liittyviä	-6643
▁seuraavan	-6644
▁päätteeksi	-6645
▁tiedotteen	-6646
▁kolmanneksi	-6647
▁työmarkkina	-6648
mieh	-6649
vero	-6650
▁rad	-6651
▁ttu	-6652
▁Minä	-6653
▁sein	-6654
▁suomen	-6655
▁päättyy	-6656
▁viikossa	-6657
▁presidentiksi	-6658
igh	-6659
▁6-	-6660
talli	-6661
▁Alku	-6662
▁Taka	-6663
▁homm	-6664
oinnin	-6665
▁Tikto	-6666
▁Times	-6667
▁vamma	-6668
vuodesta	-6669
▁kahdesti	-6670
▁Perussuom	-6671
yhä	-6672
▁47	-6673
pele	-6674
utto	-6675
▁Mää	-6676
▁Rus	-6677
▁kse	-6678
kunut	-6679
▁alus	-6680
▁siiv	-6681
▁evakuo	-6682
▁pakkas	-6683
▁ymmärr	-6684
▁äitinsä	-6685
▁elokuuta	-6686
▁kahdesta	-6687
▁kentällä	-6688
▁kilpaile	-6689
▁päivässä	-6690
▁toimisto	-6691
▁toukokuuta	-6692
▁mahdollinen	-6693
▁pudotuspeli	-6694
are	-6695
bor	-6696
▁hö	-6697
▁600	-6698
▁Hei	-6699
▁erä	-6700
▁kärs	-6701
▁Päätö	-6702
▁nähtä	-6703
▁vetää	-6704
virasto	-6705
▁Marinin	-6706
▁Michael	-6707
▁miettiä	-6708
▁paikoin	-6709
▁perässä	-6710
▁sukupol	-6711
▁tuotann	-6712
▁väkival	-6713
▁aikanaan	-6714
llisuudessa	-6715
▁tasavallan	-6716
▁normaalisti	-6717
▁maajoukkueen	-6718
▁maailmancupin	-6719
joa	-6720
tul	-6721
▁pir	-6722
▁Fred	-6723
▁suol	-6724
▁irtis	-6725
▁jakaa	-6726
▁ukset	-6727
pelaaja	-6728
▁Versta	-6729
▁kaipaa	-6730
salainen	-6731
▁asunnon	-6732
▁misestä	-6733
▁muualla	-6734
▁välinen	-6735
▁vierailu	-6736
▁pelaajien	-6737
▁heinäkuuta	-6738
udi	-6739
Uuden	-6740
ottava	-6741
▁insti	-6742
uudella	-6743
▁Hämeen	-6744
▁ajaksi	-6745
▁kaatui	-6746
▁nousta	-6747
▁melkein	-6748
▁yhdiste	-6749
▁Verstapp	-6750
▁murhasta	-6751
▁toimivat	-6752
▁perjantain	-6753
▁eduskunnassa	-6754
kson	-6755
▁Kann	-6756
▁kiva	-6757
kultaa	-6758
tuista	-6759
▁edustus	-6760
▁koulutus	-6761
▁palvelut	-6762
▁tapauksesta	-6763
▁vaikutuksia	-6764
▁yrityksestä	-6765
▁eduskuntaryhmän	-6766
nsa	-6767
uru	-6768
aste	-6769
hain	-6770
olle	-6771
otan	-6772
▁Bor	-6773
▁Sai	-6774
asian	-6775
htori	-6776
jalan	-6777
▁Puha	-6778
▁kulkee	-6779
▁yhteys	-6780
▁Turussa	-6781
▁herätti	-6782
▁varasto	-6783
▁hallussa	-6784
▁sairastu	-6785
▁Catherine	-6786
▁Hallituksen	-6787
vil	-6788
mari	-6789
neuv	-6790
▁uhr	-6791
▁uno	-6792
▁Colo	-6793
▁vään	-6794
ittäjä	-6795
voitto	-6796
▁raska	-6797
▁periaat	-6798
▁ristiri	-6799
▁uudessa	-6800
▁väittää	-6801
kertainen	-6802
▁esiintyy	-6803
▁maailmaa	-6804
▁enemmistö	-6805
▁muistutti	-6806
▁paljastui	-6807
▁televisio	-6808
▁julkaissut	-6809
▁mielestään	-6810
▁tapahtumien	-6811
tian	-6812
▁oul	-6813
▁enkä	-6814
▁pyri	-6815
▁jokin	-6816
▁kohde	-6817
▁voida	-6818
▁autoja	-6819
▁paremm	-6820
istetaan	-6821
muksesta	-6822
▁misessa	-6823
▁valitsi	-6824
▁valtava	-6825
Uudenmaan	-6826
▁Salminen	-6827
▁anteeksi	-6828
▁poikkeus	-6829
▁sairaalan	-6830
▁tuomioistu	-6831
het	-6832
▁55	-6833
orin	-6834
uring	-6835
▁leik	-6836
▁oire	-6837
ikosta	-6838
telyyn	-6839
▁Katri	-6840
▁Pitkä	-6841
▁ostaa	-6842
▁ralli	-6843
utumaan	-6844
▁Kokoom	-6845
▁Tukhol	-6846
▁laisen	-6847
▁ukseen	-6848
▁korjaus	-6849
▁muuttuu	-6850
▁paljasta	-6851
▁perustus	-6852
du	-6853
usu	-6854
▁der	-6855
immät	-6856
radio	-6857
talon	-6858
▁Yllä	-6859
▁ison	-6860
▁tall	-6861
▁Ohjel	-6862
▁veron	-6863
▁kyseen	-6864
▁lisäsi	-6865
▁nuoria	-6866
▁puuttu	-6867
▁tapasi	-6868
teorologi	-6869
▁kahdeksa	-6870
▁lukuisia	-6871
▁paikassa	-6872
▁osallistua	-6873
▁viikonlopun	-6874
▁Ph	-6875
aisia	-6876
anssi	-6877
▁Tasa	-6878
▁tren	-6879
▁tupa	-6880
tentia	-6881
▁arvio	-6882
▁avoin	-6883
▁laatu	-6884
▁riipp	-6885
telystä	-6886
▁poseer	-6887
▁työelä	-6888
▁pitävät	-6889
▁seurasi	-6890
▁uksista	-6891
▁halutaan	-6892
▁lääkärin	-6893
▁puolustaja	-6894
▁joukkueessa	-6895
▁työntekijöiden	-6896
▁65	-6897
▁City	-6898
▁Geor	-6899
▁Penn	-6900
▁Toiv	-6901
▁oven	-6902
▁syvä	-6903
▁lyhyt	-6904
▁paluu	-6905
telyssä	-6906
▁hiihtä	-6907
▁toimiva	-6908
▁vaalien	-6909
▁tarkasti	-6910
▁kritiikkiä	-6911
▁entisestään	-6912
▁keskuudessa	-6913
BA	-6914
▁ju	-6915
▁150	-6916
▁Lou	-6917
tosta	-6918
▁joud	-6919
maansa	-6920
▁Harri	-6921
▁kesti	-6922
▁koskee	-6923
▁olisin	-6924
▁tallen	-6925
▁pisteet	-6926
▁lauantai	-6927
▁paikasta	-6928
▁lokakuuta	-6929
▁oikeudessa	-6930
▁rikoksista	-6931
nnut	-6932
▁taj	-6933
nella	-6934
▁Star	-6935
▁golf	-6936
▁maat	-6937
ajalla	-6938
eltään	-6939
ittasi	-6940
▁keräsi	-6941
▁päivinä	-6942
▁Syyttäjä	-6943
▁muutenkin	-6944
ds	-6945
ft	-6946
kkö	-6947
vun	-6948
▁SAK	-6949
▁Fore	-6950
▁Stan	-6951
▁hetk	-6952
▁järk	-6953
▁kiih	-6954
▁huuma	-6955
▁huume	-6956
▁meren	-6957
▁puhel	-6958
▁Jaakko	-6959
▁Robert	-6960
▁häirin	-6961
▁Naisten	-6962
▁haittaa	-6963
▁puhunut	-6964
▁katastro	-6965
▁syyskuuta	-6966
▁herättänyt	-6967
▁vuosittain	-6968
▁Ö	-6969
ois	-6970
rio	-6971
▁Jat	-6972
▁TPS	-6973
▁ens	-6974
ksistä	-6975
▁Ilves	-6976
▁asenn	-6977
▁hinnat	-6978
▁maksoi	-6979
▁Kanadan	-6980
▁tulivat	-6981
▁tulosta	-6982
▁Molemmat	-6983
▁markkina	-6984
▁suurempi	-6985
lö	-6986
syy	-6987
tug	-6988
▁Koi	-6989
ppuun	-6990
▁fiil	-6991
▁teen	-6992
antaja	-6993
voimat	-6994
▁tavat	-6995
▁tottu	-6996
▁Kuning	-6997
▁käytön	-6998
▁parkki	-6999
▁töissä	-7000
kilpailu	-7001
▁Telegra	-7002
▁elämänsä	-7003
▁hallitse	-7004
▁kaksikko	-7005
▁todetaan	-7006
▁rikoksesta	-7007
▁äärimmäisen	-7008
▁kansainvälisen	-7009
▁dra	-7010
ppien	-7011
▁palk	-7012
ellään	-7013
▁Juuso	-7014
▁klass	-7015
▁määri	-7016
▁pinta	-7017
▁taide	-7018
ottanut	-7019
yksestä	-7020
▁Tuomas	-7021
▁arvion	-7022
▁Venäjää	-7023
▁todista	-7024
▁järjestelmän	-7025
gon	-7026
ikas	-7027
▁1,5	-7028
uneet	-7029
▁Ferr	-7030
▁kauh	-7031
▁Laura	-7032
▁tarjon	-7033
▁Miesten	-7034
▁annettu	-7035
▁valittu	-7036
▁lähettää	-7037
▁mielenter	-7038
▁syytetään	-7039
▁marraskuuta	-7040
▁demokraattien	-7041
▁maailmanmestari	-7042
▁'	-7043
ast	-7044
kky	-7045
umb	-7046
unu	-7047
▁ön	-7048
este	-7049
▁Gar	-7050
▁Ran	-7051
piste	-7052
▁Paul	-7053
▁laiv	-7054
▁tenn	-7055
▁totu	-7056
tenkin	-7057
▁meitä	-7058
▁ajanut	-7059
▁muisti	-7060
Sanomien	-7061
▁Panther	-7062
▁otteluun	-7063
▁arvioidaan	-7064
▁julkisesti	-7065
ida	-7066
▁Fi	-7067
olin	-7068
unda	-7069
verk	-7070
▁löi	-7071
▁Ään	-7072
aiset	-7073
panen	-7074
▁pärj	-7075
▁Kokko	-7076
▁Lento	-7077
▁kenti	-7078
▁minut	-7079
▁reilut	-7080
▁johtoon	-7081
▁pääosin	-7082
▁lapsille	-7083
▁pitkälle	-7084
▁äänestää	-7085
▁osallistuu	-7086
▁pariskunta	-7087
▁lausunnossa	-7088
tyn	-7089
ikat	-7090
siin	-7091
sima	-7092
▁Kut	-7093
▁gra	-7094
▁Kang	-7095
uttaja	-7096
▁Lehto	-7097
▁Muuta	-7098
▁pohjo	-7099
▁rauta	-7100
laisten	-7101
▁säästä	-7102
▁erityis	-7103
▁puhelin	-7104
▁Guardian	-7105
▁Liikenne	-7106
▁Rovanieme	-7107
edel	-7108
omas	-7109
▁Bro	-7110
▁Hui	-7111
▁Mir	-7112
▁kyt	-7113
▁the	-7114
▁täs	-7115
eista	-7116
▁Tuli	-7117
▁viis	-7118
inaali	-7119
▁lunta	-7120
▁molemm	-7121
▁ansiosta	-7122
▁miehelle	-7123
▁pelaajan	-7124
▁kohteeksi	-7125
MA	-7126
ein	-7127
▁ark	-7128
kattu	-7129
kosta	-7130
▁Tunn	-7131
▁Vali	-7132
▁haku	-7133
▁juna	-7134
▁sovi	-7135
▁2019.	-7136
▁Andre	-7137
▁laaje	-7138
▁matta	-7139
▁viedä	-7140
joittaa	-7141
▁Bottas	-7142
▁jonkun	-7143
▁projek	-7144
▁korkein	-7145
▁Ukrainaa	-7146
▁musiikin	-7147
▁puoliväl	-7148
▁palestiin	-7149
▁riittävän	-7150
▁todettiin	-7151
▁vastaisena	-7152
uheenjohtaja	-7153
▁toiminnasta	-7154
rah	-7155
ric	-7156
vyt	-7157
▁FC	-7158
blad	-7159
moja	-7160
▁kiir	-7161
▁muus	-7162
teensä	-7163
▁Silti	-7164
▁näkyi	-7165
▁osoit	-7166
▁rahat	-7167
llisiin	-7168
▁lisätä	-7169
▁neiden	-7170
▁käydään	-7171
▁lähetys	-7172
▁nuoriso	-7173
▁luottamus	-7174
▁painottaa	-7175
▁yritysten	-7176
▁poliitikko	-7177
▁vankeuteen	-7178
▁työskennellyt	-7179
jäh	-7180
put	-7181
rat	-7182
▁ah	-7183
kaut	-7184
mmas	-7185
▁Hin	-7186
▁Los	-7187
▁Alan	-7188
▁Olet	-7189
▁Sauli	-7190
▁Uskon	-7191
▁avasi	-7192
▁huuto	-7193
▁kaupa	-7194
▁potil	-7195
▁selle	-7196
▁pieniä	-7197
▁putosi	-7198
▁syistä	-7199
▁millään	-7200
▁rakasta	-7201
▁tarjoaa	-7202
▁vanhemm	-7203
▁potentia	-7204
▁musiikkia	-7205
▁paikkansa	-7206
▁tekemistä	-7207
▁pääministerin	-7208
▁4,	-7209
▁Ab	-7210
konä	-7211
▁ili	-7212
kaisu	-7213
▁sinä	-7214
mmaksi	-7215
talous	-7216
▁Kiekko	-7217
▁kenttä	-7218
▁minkään	-7219
▁päiväko	-7220
ikoksesta	-7221
▁Sveitsin	-7222
▁seuraava	-7223
▁sunnuntai	-7224
▁Ensimmäinen	-7225
▁rakennuksen	-7226
mpana	-7227
▁Serg	-7228
▁roko	-7229
teinen	-7230
▁Expres	-7231
▁edusti	-7232
▁euroon	-7233
▁koneen	-7234
▁päästö	-7235
▁spekul	-7236
▁tunnus	-7237
▁Gazassa	-7238
▁haltuun	-7239
▁somessa	-7240
▁vetäyty	-7241
▁syytetty	-7242
▁tuomittu	-7243
▁järjestety	-7244
▁liikkeelle	-7245
▁tapahtumista	-7246
▁valtiovarain	-7247
▁järjestettiin	-7248
▁75	-7249
▁Meg	-7250
▁dro	-7251
intar	-7252
neitä	-7253
▁Grön	-7254
▁Kata	-7255
▁levi	-7256
▁teon	-7257
iemelä	-7258
▁paper	-7259
▁rahan	-7260
▁Kommen	-7261
▁hankal	-7262
▁heidät	-7263
▁kirkko	-7264
▁lämpim	-7265
▁myrsky	-7266
▁silmin	-7267
tuksista	-7268
▁Sebasti	-7269
▁sijalla	-7270
▁sivusto	-7271
▁Tapparan	-7272
▁alueelta	-7273
▁armeijan	-7274
▁jäljellä	-7275
▁rekister	-7276
▁mielestäni	-7277
▁oikeastaan	-7278
▁palveluiden	-7279
▁39	-7280
tias	-7281
uvon	-7282
▁Air	-7283
▁dig	-7284
▁Heis	-7285
▁lauk	-7286
hallin	-7287
▁hauta	-7288
▁seinä	-7289
▁sopii	-7290
▁talli	-7291
yydessä	-7292
▁kuulla	-7293
▁luonne	-7294
▁pystyi	-7295
▁samana	-7296
▁sattui	-7297
▁vanhan	-7298
▁Entinen	-7299
▁hyvältä	-7300
▁menetti	-7301
▁osoitti	-7302
▁otetaan	-7303
▁tiistai	-7304
llisuutta	-7305
▁ilmoittaa	-7306
kohtaisesti	-7307
ikir	-7308
▁peh	-7309
pyörä	-7310
▁Sekä	-7311
▁Sella	-7312
▁Sillä	-7313
▁eilen	-7314
▁eteni	-7315
▁kylmä	-7316
▁psyko	-7317
▁riitä	-7318
päivänä	-7319
▁vaalit	-7320
▁hävittä	-7321
▁dollarin	-7322
▁kesäkuun	-7323
▁henkilöitä	-7324
con	-7325
▁Za	-7326
▁jy	-7327
ting	-7328
vian	-7329
▁Don	-7330
▁Berg	-7331
▁akku	-7332
▁Jalka	-7333
▁Raken	-7334
▁nimet	-7335
▁tytön	-7336
▁ville	-7337
▁Juttua	-7338
▁toimet	-7339
▁valite	-7340
kunnalle	-7341
▁Koskela	-7342
▁kertoja	-7343
▁matkaan	-7344
▁tekivät	-7345
▁välissä	-7346
▁Suomelle	-7347
▁valmistu	-7348
▁selkeästi	-7349
hallituksen	-7350
py	-7351
mal	-7352
kola	-7353
▁30.	-7354
▁Hor	-7355
▁Raa	-7356
▁hau	-7357
uolto	-7358
yyteen	-7359
▁Henri	-7360
▁asuva	-7361
▁Täällä	-7362
▁lehden	-7363
▁linjan	-7364
▁Ainakin	-7365
▁Mestari	-7366
▁Sveitsi	-7367
▁menivät	-7368
▁puhelim	-7369
▁ilmaston	-7370
▁raportoi	-7371
▁vanhemmat	-7372
▁huhtikuuta	-7373
▁yllättävän	-7374
▁suunnitteli	-7375
yry	-7376
dell	-7377
▁17-	-7378
▁bio	-7379
▁far	-7380
▁sän	-7381
ikois	-7382
puoli	-7383
▁Samu	-7384
▁hark	-7385
▁matk	-7386
ikympp	-7387
laiset	-7388
▁tulle	-7389
▁Espoon	-7390
▁kiekon	-7391
▁osassa	-7392
▁muuttui	-7393
▁oireita	-7394
▁toteutu	-7395
▁Keskusta	-7396
▁Sanomien	-7397
▁Viranoma	-7398
▁toisensa	-7399
▁vieressä	-7400
▁Sh	-7401
▁ba	-7402
▁tto	-7403
▁Savo	-7404
▁kevy	-7405
▁suih	-7406
▁unel	-7407
▁Epäil	-7408
▁Joulu	-7409
▁Rikos	-7410
▁Seura	-7411
▁Totta	-7412
▁koken	-7413
▁mökki	-7414
▁räjäh	-7415
▁sauna	-7416
suojelu	-7417
▁uksessa	-7418
▁Virtanen	-7419
▁lehdelle	-7420
▁pitämään	-7421
▁tarvetta	-7422
▁Englannin	-7423
▁saaneensa	-7424
še	-7425
▁ag	-7426
misia	-7427
▁Pärmä	-7428
▁heiko	-7429
▁lajin	-7430
▁leviä	-7431
▁mahta	-7432
▁rasis	-7433
▁Haluan	-7434
▁muissa	-7435
▁Henkilö	-7436
▁pyritään	-7437
▁rikoksen	-7438
▁alkoholin	-7439
▁maailmancup	-7440
▁kr	-7441
pain	-7442
▁195	-7443
▁nur	-7444
▁näe	-7445
tetun	-7446
▁Rang	-7447
▁kuud	-7448
▁soit	-7449
▁katoa	-7450
▁purka	-7451
▁pöydä	-7452
▁tälle	-7453
▁johdon	-7454
▁kiisti	-7455
▁seikka	-7456
▁huumausa	-7457
▁koulussa	-7458
▁olleensa	-7459
▁ajankohta	-7460
▁edellisen	-7461
▁maahanmuut	-7462
95	-7463
rab	-7464
▁Reh	-7465
▁tör	-7466
ltaan	-7467
nanen	-7468
▁Raja	-7469
▁rehe	-7470
▁tais	-7471
▁väsy	-7472
▁Selän	-7473
▁komis	-7474
▁llaan	-7475
ilainen	-7476
▁Barkov	-7477
▁peliin	-7478
▁pelkää	-7479
alaisiin	-7480
▁Vornanen	-7481
▁Näyttelijä	-7482
▁lentokentä	-7483
▁päävalmenta	-7484
▁mahdollisuutta	-7485
▁Wil	-7486
sille	-7487
utumis	-7488
chester	-7489
▁isista	-7490
▁konflik	-7491
▁pahasti	-7492
▁tasolle	-7493
▁ilmeisesti	-7494
▁ulkopuolelle	-7495
▁Ju	-7496
▁194	-7497
kausi	-7498
tuomi	-7499
▁asuin	-7500
▁jutun	-7501
▁reiss	-7502
▁rohke	-7503
ikkojen	-7504
▁Britti	-7505
▁parhaa	-7506
▁reagoi	-7507
▁vaihta	-7508
▁tulipal	-7509
▁herättää	-7510
▁monipuol	-7511
▁muitakin	-7512
▁oikeutta	-7513
▁opettaja	-7514
▁suljettu	-7515
▁päätöksiä	-7516
▁kysymyksiä	-7517
omo	-7518
gren	-7519
ilas	-7520
uusu	-7521
▁Ris	-7522
▁Tas	-7523
hojen	-7524
▁hylä	-7525
▁kivi	-7526
▁raju	-7527
kaista	-7528
ksille	-7529
prosen	-7530
▁Kuopi	-7531
▁eläke	-7532
▁iskun	-7533
▁kaveri	-7534
▁proses	-7535
oikeuden	-7536
▁Finland	-7537
▁mennään	-7538
▁varhain	-7539
▁yksikkö	-7540
▁menestys	-7541
▁pienempi	-7542
▁naimisiin	-7543
▁tiedottaja	-7544
▁Erityisesti	-7545
▁suunnitelma	-7546
▁12-	-7547
▁Huo	-7548
▁Juk	-7549
▁str	-7550
manin	-7551
timme	-7552
▁opin	-7553
▁väle	-7554
estäni	-7555
jetaan	-7556
▁Jesse	-7557
▁Toivo	-7558
▁areen	-7559
▁laski	-7560
▁Montre	-7561
▁Ranska	-7562
▁kärsin	-7563
▁luokan	-7564
▁työssä	-7565
▁todiste	-7566
▁pitkälti	-7567
▁puolelta	-7568
▁toteutta	-7569
▁katsomaan	-7570
▁Presidentin	-7571
▁puolivälissä	-7572
▁suomalaisista	-7573
▁puheenjohtajan	-7574
th	-7575
aren	-7576
ivar	-7577
kisa	-7578
udan	-7579
▁Teo	-7580
kisat	-7581
▁Hovi	-7582
▁Kysy	-7583
▁avun	-7584
▁deby	-7585
▁sain	-7586
impien	-7587
▁2020.	-7588
▁Loppu	-7589
▁Olisi	-7590
▁Pitää	-7591
▁johdo	-7592
▁käsin	-7593
▁Meghan	-7594
▁valita	-7595
▁Florida	-7596
▁autolla	-7597
▁menossa	-7598
▁tuomari	-7599
▁välierä	-7600
▁kanssaan	-7601
▁kokemusta	-7602
▁perustusla	-7603
▁meteorologi	-7604
▁Ry	-7605
salo	-7606
ssia	-7607
ööri	-7608
malta	-7609
vonen	-7610
▁Joon	-7611
▁aiemm	-7612
▁pyöri	-7613
▁uskoa	-7614
▁kutsui	-7615
▁maasta	-7616
edustaja	-7617
▁huomasi	-7618
▁kysyttiin	-7619
▁miljardin	-7620
▁kuukaudessa	-7621
▁olympialaisten	-7622
▁Do	-7623
▁We	-7624
etys	-7625
▁Ser	-7626
▁Teh	-7627
mpään	-7628
▁hedel	-7629
▁nimeä	-7630
istänyt	-7631
▁vaihtaa	-7632
opimuksen	-7633
▁kuulunut	-7634
▁miehistö	-7635
▁prosessi	-7636
▁aloittanut	-7637
▁helmikuuta	-7638
▁Suomalainen	-7639
ulan	-7640
▁jar	-7641
▁mpi	-7642
hdoin	-7643
paine	-7644
uneen	-7645
vuori	-7646
▁News	-7647
▁Inter	-7648
▁Jukur	-7649
▁avaja	-7650
▁koste	-7651
▁selke	-7652
▁Helena	-7653
▁Patrik	-7654
▁haluan	-7655
▁kriisi	-7656
▁satoja	-7657
urheilun	-7658
▁Sanomat	-7659
▁nappasi	-7660
▁havaittu	-7661
▁nykyisin	-7662
▁ehdokkaan	-7663
▁Manchester	-7664
▁marraskuun	-7665
▁seuraavaksi	-7666
▁voimakkaasti	-7667
keni	-7668
tina	-7669
▁Jer	-7670
▁Puu	-7671
▁Suz	-7672
asema	-7673
kosen	-7674
murha	-7675
telyä	-7676
▁seko	-7677
▁Afton	-7678
▁kysyy	-7679
▁monin	-7680
▁väärä	-7681
▁Colora	-7682
▁Valtio	-7683
▁juonta	-7684
▁kuolle	-7685
▁linjaa	-7686
▁llisen	-7687
▁turvaa	-7688
lliseksi	-7689
▁ongelmat	-7690
▁oppositi	-7691
▁voisivat	-7692
▁ottamatta	-7693
▁tiedustelu	-7694
▁mys	-7695
annin	-7696
mitta	-7697
▁laje	-7698
ttinen	-7699
▁Murto	-7700
▁Pelic	-7701
▁varti	-7702
▁Miehen	-7703
▁Portug	-7704
▁Toyota	-7705
▁ajassa	-7706
▁ulkonä	-7707
hallitus	-7708
▁Tanskan	-7709
▁miselle	-7710
hyökkääjä	-7711
teellisen	-7712
▁Leijonat	-7713
▁asioiden	-7714
▁liigassa	-7715
▁liittyvä	-7716
▁miljoona	-7717
▁republikaanien	-7718
La	-7719
ajo	-7720
käs	-7721
lyö	-7722
kula	-7723
▁iku	-7724
▁riv	-7725
ketta	-7726
yhtiön	-7727
▁Käytä	-7728
▁alkan	-7729
▁esity	-7730
▁jälke	-7731
▁lleen	-7732
udutaan	-7733
▁Niiden	-7734
▁Puolan	-7735
▁Libanon	-7736
▁vauhtia	-7737
▁viettää	-7738
▁käytettä	-7739
▁pisteitä	-7740
▁palautetta	-7741
▁maaliskuuta	-7742
▁Käräjäoikeus	-7743
▁tarkoituksena	-7744
▁varapresidentti	-7745
▁Mia	-7746
▁Pas	-7747
gissa	-7748
▁Kemi	-7749
▁mien	-7750
▁sten	-7751
▁Tapio	-7752
▁katto	-7753
▁staan	-7754
▁Joskus	-7755
▁avusta	-7756
▁hienoa	-7757
▁samoin	-7758
▁sodassa	-7759
▁tilalle	-7760
▁aiheesta	-7761
▁jokaisen	-7762
▁leikkaus	-7763
▁parantaa	-7764
▁roolissa	-7765
▁Haaviston	-7766
▁Markkanen	-7767
▁seuraavana	-7768
▁poliittinen	-7769
▁mielenkiinto	-7770
ze	-7771
▁€	-7772
car	-7773
elo	-7774
gle	-7775
▁34	-7776
reet	-7777
unsa	-7778
▁Kai	-7779
▁Pih	-7780
▁Tiet	-7781
▁mana	-7782
llasta	-7783
ointia	-7784
▁Kimmo	-7785
▁jakso	-7786
▁tarve	-7787
▁tehot	-7788
▁tunti	-7789
▁kannat	-7790
▁luotto	-7791
▁vienti	-7792
▁tilassa	-7793
▁joukkoja	-7794
▁kaudeksi	-7795
▁muutosta	-7796
▁osittain	-7797
▁tammikuuta	-7798
▁riittävästi	-7799
▁tilanteissa	-7800
hia	-7801
keri	-7802
lian	-7803
lisä	-7804
sani	-7805
▁700	-7806
▁hehk	-7807
▁pito	-7808
teilla	-7809
▁Georg	-7810
▁Niitä	-7811
▁itära	-7812
▁heitti	-7813
▁kaista	-7814
▁kunnon	-7815
▁herättä	-7816
▁levittä	-7817
▁myöhään	-7818
▁valitse	-7819
▁vastaus	-7820
▁sisältää	-7821
▁käyttänyt	-7822
▁tarkoitta	-7823
ion	-7824
▁Lö	-7825
ikop	-7826
▁Sun	-7827
imiel	-7828
soona	-7829
tessä	-7830
▁2014	-7831
▁Ajat	-7832
▁Kain	-7833
▁West	-7834
osissa	-7835
▁David	-7836
▁tyypp	-7837
▁vatsa	-7838
▁Kristi	-7839
▁ketään	-7840
▁lukuun	-7841
▁maissa	-7842
▁Etenkin	-7843
▁kadulla	-7844
▁kahteen	-7845
▁kunnian	-7846
▁omakoti	-7847
▁talossa	-7848
▁perustuu	-7849
▁viestejä	-7850
▁liiketoim	-7851
▁päättänyt	-7852
▁julkaistiin	-7853
▁käräjäoikeuden	-7854
kele	-7855
▁Rei	-7856
▁Huom	-7857
▁Sata	-7858
▁Tall	-7859
▁työt	-7860
▁veti	-7861
diossa	-7862
▁Media	-7863
▁alkua	-7864
▁aseen	-7865
▁kaava	-7866
▁ohjus	-7867
▁reilu	-7868
▁sanat	-7869
▁Pirkan	-7870
▁miehiä	-7871
▁edustaa	-7872
▁parhaat	-7873
▁uksella	-7874
▁käyttäjä	-7875
▁ylläpitä	-7876
▁hallituks	-7877
▁Olympiakomite	-7878
ms	-7879
itu	-7880
mok	-7881
▁Au	-7882
alit	-7883
kesi	-7884
▁Aja	-7885
▁Kot	-7886
▁Män	-7887
ineet	-7888
jalle	-7889
koulu	-7890
pelin	-7891
▁Pian	-7892
▁pime	-7893
▁tytö	-7894
kkaita	-7895
llessa	-7896
tekijä	-7897
▁2000-	-7898
▁Kouvo	-7899
▁Perhe	-7900
▁Päivi	-7901
▁hetke	-7902
▁myymä	-7903
uontaja	-7904
▁hyppää	-7905
▁pysäkö	-7906
▁tuonut	-7907
ettävästi	-7908
▁Saarinen	-7909
▁saapunut	-7910
▁Reutersin	-7911
▁naurahtaa	-7912
▁yllätyksen	-7913
teo	-7914
chen	-7915
mmun	-7916
▁RKP	-7917
tille	-7918
▁Kats	-7919
▁kaiv	-7920
▁kynn	-7921
▁tyyl	-7922
ikohta	-7923
▁piiri	-7924
huollon	-7925
▁Samaan	-7926
▁alalla	-7927
▁auring	-7928
▁johtuu	-7929
▁joukot	-7930
▁numero	-7931
▁palata	-7932
▁Unkarin	-7933
▁maailma	-7934
▁onneksi	-7935
▁varhais	-7936
▁kaikilla	-7937
▁Henriksson	-7938
▁vanhempien	-7939
mos	-7940
enna	-7941
▁ryt	-7942
estin	-7943
tanen	-7944
▁into	-7945
▁kyyd	-7946
▁medi	-7947
▁paha	-7948
▁syty	-7949
▁Radio	-7950
▁lintu	-7951
▁rajaa	-7952
▁ranna	-7953
▁sekin	-7954
▁tauko	-7955
▁määrin	-7956
▁tukiko	-7957
▁senttiä	-7958
▁Kaarinan	-7959
▁Neuvosto	-7960
▁Nieminen	-7961
▁videoita	-7962
▁tiedetään	-7963
att	-7964
ott	-7965
mpan	-7966
lleni	-7967
telty	-7968
▁Sari	-7969
hdessa	-7970
▁Petri	-7971
▁Tommi	-7972
▁fanit	-7973
▁kassa	-7974
▁sakko	-7975
kumppan	-7976
▁Lahden	-7977
▁joille	-7978
▁koulua	-7979
▁saapuu	-7980
▁Forecan	-7981
▁hyökkäy	-7982
▁kuntien	-7983
▁kaikissa	-7984
▁pääsevät	-7985
▁välisenä	-7986
▁tapahtumat	-7987
▁vaikuttanut	-7988
▁pelastuslaitos	-7989
gy	-7990
gor	-7991
pät	-7992
▁Wh	-7993
kian	-7994
▁26.	-7995
▁Jus	-7996
▁Rau	-7997
innut	-7998
nissa	-7999
▁kipu	-8000
▁Hannu	-8001
▁katse	-8002
▁mieti	-8003
▁syynä	-8004
▁tiede	-8005
utuneet	-8006
▁Hiihto	-8007
▁jakson	-8008
▁sisäll	-8009
▁Tilasto	-8010
▁tullaan	-8011
▁uudella	-8012
▁Veikkaus	-8013
▁julkisen	-8014
▁merkkejä	-8015
▁vähentää	-8016
▁havaintoja	-8017
pro	-8018
▁Sä	-8019
▁bo	-8020
mbul	-8021
▁Gro	-8022
▁Kio	-8023
▁pop	-8024
▁tyl	-8025
innon	-8026
telmä	-8027
▁osti	-8028
▁Laula	-8029
▁Marja	-8030
▁Peter	-8031
▁Päivä	-8032
▁arvel	-8033
▁mässä	-8034
▁Markus	-8035
▁etenee	-8036
▁laskee	-8037
▁pientä	-8038
▁valoku	-8039
▁uutisia	-8040
▁finaaliin	-8041
▁Perjantaina	-8042
▁ensimmäiset	-8043
▁prosenttiin	-8044
▁parhaimmillaan	-8045
▁Py	-8046
iman	-8047
näki	-8048
udin	-8049
kinta	-8050
tolla	-8051
umach	-8052
▁Amer	-8053
▁Korh	-8054
jöiden	-8055
riassa	-8056
▁Tältä	-8057
▁palkan	-8058
▁työhön	-8059
▁Mikkola	-8060
▁Schumach	-8061
▁nykyisen	-8062
▁Syyttäjän	-8063
▁Sunnuntaina	-8064
▁selvityksen	-8065
▁suunniteltu	-8066
rn	-8067
uva	-8068
taar	-8069
▁Hau	-8070
▁Net	-8071
telli	-8072
▁2015	-8073
▁Topi	-8074
▁luom	-8075
▁lääk	-8076
▁Pelto	-8077
▁Turva	-8078
▁hyödy	-8079
▁jolle	-8080
▁jonne	-8081
▁jälki	-8082
▁valvo	-8083
merellä	-8084
▁alaikä	-8085
▁reitti	-8086
▁allekir	-8087
▁autosta	-8088
▁henkilöt	-8089
▁muutamia	-8090
▁taisteli	-8091
▁Tällainen	-8092
▁järjestön	-8093
▁käsittele	-8094
▁ohjelmaan	-8095
▁järjestely	-8096
▁valiokunnan	-8097
kesk	-8098
ling	-8099
▁Kau	-8100
▁Ven	-8101
▁dip	-8102
▁vii	-8103
kasti	-8104
▁sall	-8105
▁tahd	-8106
kselta	-8107
kuntaa	-8108
teihin	-8109
▁2018.	-8110
▁etten	-8111
▁jalan	-8112
▁kauni	-8113
utuksen	-8114
▁tarken	-8115
voittaja	-8116
▁vietiin	-8117
▁Facebook	-8118
▁Helenius	-8119
▁jatkuvat	-8120
▁kuluttua	-8121
▁neuvosto	-8122
▁paidassa	-8123
▁Sebastian	-8124
▁aikataulu	-8125
▁ulkomailla	-8126
▁haastattele	-8127
▁tilaisuudessa	-8128
▁nö	-8129
mian	-8130
reff	-8131
▁30-	-8132
▁Lar	-8133
▁upe	-8134
enssi	-8135
kaise	-8136
▁väri	-8137
▁Nokia	-8138
▁toipu	-8139
▁epäily	-8140
▁Harkimo	-8141
▁lähelle	-8142
▁olevien	-8143
▁syntymä	-8144
▁kerralla	-8145
▁rikosilm	-8146
▁yhteinen	-8147
▁todellinen	-8148
▁vaikutusta	-8149
▁Pelastuslaitos	-8150
rov	-8151
vaih	-8152
▁aut	-8153
pissa	-8154
▁Rich	-8155
▁aivo	-8156
▁brän	-8157
▁ineen	-8158
▁kovan	-8159
▁sadan	-8160
▁tarpe	-8161
▁tukee	-8162
ottelun	-8163
▁Joonas	-8164
▁Viikon	-8165
▁heittä	-8166
▁pärjää	-8167
▁äänesti	-8168
▁huonosti	-8169
▁toukokuun	-8170
▁valitetta	-8171
▁vihreiden	-8172
▁viimeiset	-8173
▁tavallista	-8174
▁turnauksen	-8175
ehd	-8176
▁Et	-8177
hotos	-8178
keino	-8179
kella	-8180
nasta	-8181
▁mäen	-8182
mmalle	-8183
mokraa	-8184
vaalit	-8185
▁Liike	-8186
▁murha	-8187
▁selkä	-8188
▁Varhan	-8189
▁edestä	-8190
▁iltana	-8191
▁joulun	-8192
▁nopeus	-8193
▁suojaa	-8194
▁tulleet	-8195
▁yllätti	-8196
▁Pelicans	-8197
▁toisiaan	-8198
▁päätökseen	-8199
▁prosenttiyks	-8200
TK	-8201
vih	-8202
itsa	-8203
kisi	-8204
▁Pri	-8205
▁Ton	-8206
▁haj	-8207
▁kih	-8208
▁naa	-8209
▁Miss	-8210
▁Musi	-8211
▁Sala	-8212
▁eden	-8213
▁pohd	-8214
rainen	-8215
▁Slova	-8216
▁ampui	-8217
▁katta	-8218
▁lentä	-8219
▁jäävät	-8220
llisessa	-8221
▁Jokinen	-8222
▁Loimaan	-8223
▁harvina	-8224
▁rikosta	-8225
▁ajatella	-8226
▁jättänyt	-8227
▁tunnelma	-8228
▁vuodeksi	-8229
▁kielletty	-8230
▁ollenkaan	-8231
▁vastustaja	-8232
▁työntekijät	-8233
rea	-8234
uho	-8235
uno	-8236
▁32	-8237
▁5,	-8238
kalu	-8239
▁Sha	-8240
iläis	-8241
ttinä	-8242
▁Hämä	-8243
▁Kemp	-8244
▁aito	-8245
▁kehu	-8246
▁kera	-8247
▁kove	-8248
kymmen	-8249
mainen	-8250
▁maala	-8251
▁tyhjä	-8252
▁vaate	-8253
▁Olympi	-8254
▁olevia	-8255
▁syntyy	-8256
▁kovasti	-8257
▁kruunun	-8258
▁seurata	-8259
▁vihdoin	-8260
▁merkitys	-8261
▁vakuutus	-8262
▁mihinkään	-8263
▁parlamentti	-8264
▁kommentoinut	-8265
▁onnettomuuden	-8266
▁yhdysvaltalais	-8267
cia	-8268
lay	-8269
▁fir	-8270
▁hum	-8271
▁rie	-8272
▁sad	-8273
▁Arto	-8274
▁isin	-8275
▁vire	-8276
altaan	-8277
▁Heinä	-8278
▁huija	-8279
▁monim	-8280
▁hirveä	-8281
▁opetus	-8282
▁sanoin	-8283
▁suurim	-8284
▁tyhjen	-8285
▁uusien	-8286
▁Epäilty	-8287
▁Ihmiset	-8288
▁aluetta	-8289
▁huomion	-8290
▁iloinen	-8291
▁arvioida	-8292
▁elokuvan	-8293
▁erikseen	-8294
▁syyskuun	-8295
▁historiaa	-8296
▁näyttävät	-8297
▁syyllisty	-8298
▁Puljujärvi	-8299
hko	-8300
▁44	-8301
heim	-8302
iori	-8303
immin	-8304
▁pyyh	-8305
▁reis	-8306
▁Balti	-8307
▁Paavo	-8308
▁Ruoka	-8309
▁ainut	-8310
▁kovia	-8311
▁kunna	-8312
▁kuuli	-8313
▁paine	-8314
▁roman	-8315
ytyksen	-8316
▁doping	-8317
▁kuolin	-8318
▁murhan	-8319
johtajan	-8320
▁Joukkue	-8321
Sanomille	-8322
ityksellä	-8323
▁työnanta	-8324
▁sittemmin	-8325
▁päivittäin	-8326
▁sijaitseva	-8327
▁parlamentin	-8328
▁lähetyksessä	-8329
15	-8330
dia	-8331
roa	-8332
koon	-8333
opar	-8334
▁29.	-8335
▁Bla	-8336
▁Rat	-8337
▁sav	-8338
▁Holl	-8339
▁suhd	-8340
ittely	-8341
tonaan	-8342
▁Arttu	-8343
▁pyynn	-8344
kuntaan	-8345
▁Tiedot	-8346
▁alkuun	-8347
▁jatkui	-8348
▁kuussa	-8349
▁neljäs	-8350
▁nuoren	-8351
▁ulkona	-8352
▁välier	-8353
moottori	-8354
▁menevät	-8355
▁tiennyt	-8356
uudessaan	-8357
▁esitteli	-8358
▁Expressen	-8359
▁esimerkki	-8360
▁maanantai	-8361
▁henkilöauto	-8362
▁mahdollisuuden	-8363
▁57	-8364
idän	-8365
osan	-8366
▁bis	-8367
▁Volo	-8368
anneet	-8369
▁1990-	-8370
▁laulu	-8371
▁luvat	-8372
▁sataa	-8373
▁summa	-8374
dennäkö	-8375
▁iselta	-8376
▁kokous	-8377
▁mainos	-8378
▁tavara	-8379
▁hevonen	-8380
▁täyttää	-8381
▁äänistä	-8382
▁torstain	-8383
▁useamman	-8384
▁ottelusta	-8385
▁yllättävä	-8386
▁Lauantaina	-8387
▁järjestetty	-8388
MK	-8389
Sa	-8390
cen	-8391
dor	-8392
kevä	-8393
kise	-8394
▁Bay	-8395
▁Chi	-8396
▁Far	-8397
▁Keh	-8398
▁tus	-8399
aleja	-8400
jamin	-8401
malli	-8402
sista	-8403
▁Kunn	-8404
▁elta	-8405
▁tein	-8406
▁tera	-8407
▁Äiti	-8408
▁Pikku	-8409
▁osana	-8410
▁sanon	-8411
▁syyte	-8412
▁ääniä	-8413
▁ääntä	-8414
istunut	-8415
▁Kataja	-8416
▁asumis	-8417
▁kävely	-8418
▁täältä	-8419
▁viiväs	-8420
▁väline	-8421
tilainen	-8422
▁kuuluva	-8423
▁liittyi	-8424
▁stadion	-8425
▁kerännyt	-8426
▁suosittu	-8427
▁katsotaan	-8428
▁perheensä	-8429
▁Helsinkiin	-8430
▁Verstappen	-8431
▁rakennettu	-8432
▁väkivaltaa	-8433
▁julkaisussa	-8434
tuva	-8435
veto	-8436
▁Ase	-8437
kkejä	-8438
tystä	-8439
▁Heik	-8440
▁Jere	-8441
▁Pres	-8442
▁avan	-8443
▁miet	-8444
▁raiv	-8445
alista	-8446
ostaan	-8447
▁Robin	-8448
▁iloit	-8449
▁raaka	-8450
▁avioli	-8451
▁käänty	-8452
▁institu	-8453
▁jostain	-8454
▁kulutus	-8455
▁useiden	-8456
▁Benjamin	-8457
▁julkaisu	-8458
▁kahdessa	-8459
▁noudatta	-8460
tettavissa	-8461
▁Eduskunta	-8462
▁perusteli	-8463
com	-8464
eld	-8465
eta	-8466
fan	-8467
▁33	-8468
▁MV	-8469
Venä	-8470
lerc	-8471
usia	-8472
▁Aar	-8473
dossa	-8474
▁Toni	-8475
omista	-8476
tellen	-8477
▁Koulu	-8478
▁hirve	-8479
▁kadun	-8480
▁vaadi	-8481
▁Kärpät	-8482
▁Mielen	-8483
▁järven	-8484
▁Latvala	-8485
▁Lauanta	-8486
▁ennalta	-8487
▁häneltä	-8488
▁kaukana	-8489
▁asianaja	-8490
▁tunnusta	-8491
▁epäiltynä	-8492
▁ihmisille	-8493
▁mitenkään	-8494
▁itsenäisyys	-8495
▁mahdollisuudet	-8496
dr	-8497
dun	-8498
hdu	-8499
tiö	-8500
yhd	-8501
yne	-8502
dows	-8503
rori	-8504
truk	-8505
▁16-	-8506
▁Amm	-8507
▁tyk	-8508
kkien	-8509
mystä	-8510
talia	-8511
▁Anni	-8512
▁Carl	-8513
▁Tayl	-8514
muksia	-8515
▁Elisa	-8516
▁innos	-8517
▁miltä	-8518
▁palat	-8519
▁pommi	-8520
▁viile	-8521
▁Tanssi	-8522
▁analys	-8523
▁ilmaan	-8524
▁vuodet	-8525
gressiiv	-8526
▁Käytänn	-8527
▁johtava	-8528
▁korosti	-8529
▁tarpeen	-8530
▁uudelle	-8531
▁kohteena	-8532
▁muodosta	-8533
▁poliisia	-8534
▁syyttäjä	-8535
▁tiistain	-8536
▁Mestarien	-8537
▁varoittaa	-8538
▁minuutilla	-8539
lun	-8540
moi	-8541
nön	-8542
▁Uta	-8543
▁von	-8544
▁äly	-8545
otkut	-8546
▁Eikä	-8547
▁Erik	-8548
koneen	-8549
teluun	-8550
veyden	-8551
vyyttä	-8552
▁Finna	-8553
▁Kääri	-8554
▁Toista	-8555
▁hankki	-8556
▁kolleg	-8557
▁maista	-8558
▁helikop	-8559
▁leikkaa	-8560
▁näkynyt	-8561
▁yhdellä	-8562
▁Häkkänen	-8563
▁alueiden	-8564
▁budjetti	-8565
▁hyvinkin	-8566
▁normaali	-8567
keskukseen	-8568
▁sukupuoli	-8569
▁vastannut	-8570
▁keskustelun	-8571
▁tapahtuneen	-8572
▁Rovaniemellä	-8573
PK	-8574
ney	-8575
▁7-	-8576
arit	-8577
oper	-8578
▁Con	-8579
▁Kap	-8580
▁NBA	-8581
▁Opp	-8582
▁häv	-8583
opuol	-8584
tetyn	-8585
▁eron	-8586
▁veri	-8587
▁vika	-8588
▁yltä	-8589
voiman	-8590
vuutta	-8591
▁Kilpa	-8592
▁Kirja	-8593
▁Minun	-8594
▁Netan	-8595
▁Seinä	-8596
▁bussi	-8597
▁istuu	-8598
▁tiedo	-8599
▁Kerttu	-8600
▁sotaan	-8601
▁Ottelun	-8602
▁elokuun	-8603
oparlamen	-8604
▁artikkel	-8605
▁julkista	-8606
▁kahdella	-8607
▁kotonaan	-8608
▁osavalti	-8609
▁ylimäärä	-8610
▁erilainen	-8611
▁oppositio	-8612
▁yrittänyt	-8613
▁löydettiin	-8614
▁työskenteli	-8615
▁kustannukset	-8616
▁puheenjohtajana	-8617
st	-8618
▁AC	-8619
ivän	-8620
rata	-8621
vaus	-8622
▁ärs	-8623
isija	-8624
kensa	-8625
▁luot	-8626
▁kisat	-8627
▁kysyn	-8628
▁syytö	-8629
▁versi	-8630
isyyttä	-8631
▁suostu	-8632
▁valtaa	-8633
aikainen	-8634
▁Syyrian	-8635
▁helppoa	-8636
▁raskaan	-8637
▁tettiin	-8638
▁tutustu	-8639
▁kasvatta	-8640
▁kumppani	-8641
▁löytänyt	-8642
▁sijoitta	-8643
▁suurimman	-8644
▁Onnettomuus	-8645
▁jalkapallon	-8646
Amer	-8647
iltu	-8648
ppaa	-8649
▁bus	-8650
▁rup	-8651
tetut	-8652
turna	-8653
▁Vesa	-8654
▁juus	-8655
kanava	-8656
luokan	-8657
▁ikävä	-8658
▁kehuu	-8659
▁ketju	-8660
▁nolla	-8661
▁polku	-8662
▁sillo	-8663
▁vastu	-8664
▁kisaan	-8665
▁mallin	-8666
▁reilun	-8667
▁työstä	-8668
▁kaksois	-8669
▁Floridan	-8670
▁aikataul	-8671
▁seudulla	-8672
▁toiminnassa	-8673
▁tarvittaessa	-8674
▁ch	-8675
▁kg	-8676
▁oy	-8677
▁25.	-8678
▁Bil	-8679
aisin	-8680
▁osuu	-8681
▁peru	-8682
opiste	-8683
▁Risto	-8684
▁Suunn	-8685
▁purje	-8686
▁silta	-8687
istusta	-8688
▁Lehden	-8689
▁Viesti	-8690
▁Ylelle	-8691
▁aamupä	-8692
▁diagno	-8693
▁Nykyään	-8694
▁laisten	-8695
▁ollessa	-8696
▁pakotte	-8697
▁torstai	-8698
▁aikoihin	-8699
▁annetaan	-8700
▁varoitus	-8701
▁Lehtikuva	-8702
▁kokouksen	-8703
▁lähteiden	-8704
▁mielipide	-8705
▁perustelee	-8706
▁kuljettajan	-8707
▁politiikkaa	-8708
▁organisaatio	-8709
cel	-8710
▁Sc	-8711
▁at	-8712
▁28.	-8713
▁Puo	-8714
torin	-8715
▁2026	-8716
▁Eero	-8717
▁Musk	-8718
▁pron	-8719
gatiiv	-8720
joilla	-8721
toksen	-8722
▁Ilkka	-8723
▁Rinne	-8724
▁hankk	-8725
▁kaasu	-8726
▁mällä	-8727
▁tappa	-8728
▁lausun	-8729
▁niillä	-8730
▁raiska	-8731
▁vietti	-8732
▁Kremlin	-8733
▁Lounais	-8734
▁jäsenet	-8735
▁sekunnin	-8736
▁tuloksia	-8737
▁vaaranta	-8738
▁parhaiten	-8739
▁poliittis	-8740
▁varmistaa	-8741
▁Ruotsalais	-8742
▁viimeistään	-8743
▁vaihtoehtoja	-8744
Kor	-8745
cke	-8746
ets	-8747
▁9,	-8748
daar	-8749
mula	-8750
umer	-8751
▁All	-8752
▁Myy	-8753
▁Ruu	-8754
▁sek	-8755
annes	-8756
hamin	-8757
nista	-8758
raken	-8759
relle	-8760
▁Hein	-8761
▁fani	-8762
▁sula	-8763
bergin	-8764
▁Sport	-8765
▁autot	-8766
▁hanke	-8767
▁kelpo	-8768
▁lakia	-8769
▁neliö	-8770
▁ruoan	-8771
▁toive	-8772
▁mallia	-8773
▁soitta	-8774
▁versio	-8775
▁Laineen	-8776
▁valmenn	-8777
▁asioihin	-8778
▁tehtävän	-8779
▁palveluita	-8780
▁teollisuus	-8781
▁jatkossakin	-8782
▁pudotuspele	-8783
▁49	-8784
▁56	-8785
asan	-8786
mpin	-8787
tilo	-8788
aissa	-8789
kunsa	-8790
nessa	-8791
perin	-8792
▁Hall	-8793
▁Kinn	-8794
▁jäte	-8795
▁kala	-8796
hoidon	-8797
▁Häntä	-8798
▁Kuten	-8799
▁Neljä	-8800
▁lapse	-8801
▁radan	-8802
▁hinnan	-8803
▁kentän	-8804
▁niille	-8805
▁Kanerva	-8806
▁Netanja	-8807
▁autossa	-8808
▁Eurooppa	-8809
▁johtanut	-8810
▁nykyistä	-8811
▁valtavan	-8812
▁kuolemaan	-8813
▁kommentteja	-8814
▁pariskunnan	-8815
▁viikonloppu	-8816
tt	-8817
Kar	-8818
ikaa	-8819
kate	-8820
▁Hus	-8821
▁Tše	-8822
▁War	-8823
▁sup	-8824
tinsa	-8825
ttien	-8826
▁Emil	-8827
▁Sama	-8828
▁muse	-8829
▁Kokon	-8830
▁Vapaa	-8831
▁ambul	-8832
▁malti	-8833
▁perun	-8834
▁renka	-8835
▁yöllä	-8836
▁Hyunda	-8837
▁Volody	-8838
▁alijää	-8839
▁hoitoa	-8840
▁ilmais	-8841
▁metsäs	-8842
▁palkki	-8843
▁syttyi	-8844
▁takais	-8845
▁Kalevan	-8846
▁alueita	-8847
▁hyvässä	-8848
▁kaikkein	-8849
▁Tiistaina	-8850
▁aikoinaan	-8851
▁Hizbollahin	-8852
▁oikeudenkäynn	-8853
8,	-8854
TP	-8855
▁7,	-8856
▁LP	-8857
unas	-8858
▁koo	-8859
▁pei	-8860
ileva	-8861
vaihe	-8862
▁Brys	-8863
▁Heli	-8864
▁Tour	-8865
▁temp	-8866
▁myönn	-8867
▁putoa	-8868
▁tilat	-8869
▁toteu	-8870
toimaan	-8871
▁Juhani	-8872
▁Kallio	-8873
▁autoon	-8874
▁odotti	-8875
▁pelejä	-8876
▁Suzanne	-8877
▁kongres	-8878
▁miettii	-8879
▁turisti	-8880
▁operaati	-8881
▁rauhassa	-8882
▁seurassa	-8883
▁tapahtua	-8884
▁valtuusto	-8885
▁tyttärensä	-8886
▁ilmastonmuu	-8887
▁venäläisten	-8888
▁osallistunut	-8889
▁työntekijöitä	-8890
▁maailmanmestar	-8891
himo	-8892
rand	-8893
sila	-8894
ttua	-8895
▁24.	-8896
▁keih	-8897
▁meno	-8898
▁Areen	-8899
▁Edmon	-8900
▁Jorma	-8901
▁Juuri	-8902
▁Lonto	-8903
▁haave	-8904
▁miell	-8905
▁Jotkut	-8906
▁Turkin	-8907
▁loppua	-8908
▁päiviä	-8909
kisoihin	-8910
▁Stanley	-8911
▁Windows	-8912
▁harvoin	-8913
▁liikkuu	-8914
▁lopuksi	-8915
▁juhlissa	-8916
▁kimppuun	-8917
▁lokakuun	-8918
▁perjanta	-8919
▁ravintol	-8920
▁teatteri	-8921
▁tiloissa	-8922
▁Volodymyr	-8923
▁puheenvuo	-8924
▁vastaavan	-8925
▁käyttämään	-8926
▁yleisradio	-8927
▁mestaruutta	-8928
▁ehdottomasti	-8929
cks	-8930
eth	-8931
ihi	-8932
▁pl	-8933
keaa	-8934
▁Loh	-8935
▁Ylä	-8936
▁jän	-8937
▁lum	-8938
▁tau	-8939
kästi	-8940
▁Mieh	-8941
▁uhre	-8942
▁Lähde	-8943
▁Milla	-8944
▁oliko	-8945
▁syrjä	-8946
▁Oliver	-8947
▁kaatoi	-8948
▁katson	-8949
▁mietin	-8950
▁paikat	-8951
▁riskiä	-8952
▁karsinta	-8953
▁syytteet	-8954
▁tunnissa	-8955
valmentaja	-8956
▁yritykset	-8957
▁kysymykseen	-8958
▁ukrainalais	-8959
▁oikeudenkäynti	-8960
bur	-8961
teä	-8962
▁IL	-8963
dien	-8964
idan	-8965
▁Esa	-8966
▁Oil	-8967
▁Ryd	-8968
▁She	-8969
▁Mich	-8970
▁pani	-8971
▁unoh	-8972
televa	-8973
vointi	-8974
▁juoma	-8975
▁kirje	-8976
▁koron	-8977
▁kuski	-8978
▁Kauppa	-8979
▁iskuja	-8980
▁maksan	-8981
▁neuvon	-8982
▁ottivat	-8983
▁uutinen	-8984
▁Kaksikko	-8985
▁Paikalla	-8986
▁liikkeen	-8987
▁palannut	-8988
▁urheilun	-8989
▁yhdistys	-8990
▁edustalla	-8991
▁toteuttaa	-8992
▁mahdollisia	-8993
▁työskentelee	-8994
idä	-8995
▁Esi	-8996
▁Lie	-8997
annan	-8998
ersin	-8999
pagan	-9000
toria	-9001
▁Otta	-9002
truktu	-9003
▁kalen	-9004
▁kehys	-9005
▁kevät	-9006
▁laiva	-9007
▁Kolman	-9008
▁juokse	-9009
▁kiusaa	-9010
▁tarvin	-9011
▁yksikö	-9012
istyksen	-9013
▁Kaikkia	-9014
▁hankala	-9015
▁poikkea	-9016
▁Ilveksen	-9017
▁Kaupungin	-9018
▁tapauksia	-9019
▁poliittisen	-9020
fer	-9021
rot	-9022
imiä	-9023
kina	-9024
▁Cup	-9025
▁tte	-9026
Korea	-9027
tömän	-9028
▁Vene	-9029
▁este	-9030
▁harm	-9031
ikalle	-9032
llassa	-9033
ustaan	-9034
▁sesta	-9035
▁sopiv	-9036
▁Martti	-9037
▁isissa	-9038
▁näissä	-9039
▁olevaa	-9040
▁puutar	-9041
▁pääsih	-9042
▁tielle	-9043
▁törmäsi	-9044
▁ymmärrä	-9045
rastruktu	-9046
▁ilmoitus	-9047
▁järjesti	-9048
▁lapsensa	-9049
▁projekti	-9050
▁normaalia	-9051
▁Pärmäkoski	-9052
▁aktiivisesti	-9053
qu	-9054
▁6,	-9055
▁85	-9056
▁Yl	-9057
essu	-9058
▁Cor	-9059
▁Kuk	-9060
▁henk	-9061
▁ketj	-9062
▁Brasi	-9063
▁huipu	-9064
▁taipu	-9065
▁useat	-9066
▁vahve	-9067
ittinen	-9068
▁Paljon	-9069
▁oltava	-9070
▁veljen	-9071
▁iskussa	-9072
▁tähtien	-9073
▁vammoja	-9074
▁välistä	-9075
▁llisesti	-9076
▁selvitys	-9077
▁jääkiekon	-9078
▁yleisesti	-9079
valiokunnan	-9080
▁lämpötilat	-9081
▁tarkoitettu	-9082
▁yleisurheilu	-9083
▁onnettomuudessa	-9084
Ma	-9085
tz	-9086
nea	-9087
ong	-9088
jeli	-9089
▁Bas	-9090
▁nuk	-9091
▁sia	-9092
▁tyr	-9093
▁piil	-9094
▁show	-9095
kinnan	-9096
viesti	-9097
▁Hamil	-9098
▁Suuri	-9099
▁henki	-9100
ilemaan	-9101
iläinen	-9102
▁Kangas	-9103
▁kirkon	-9104
▁ohjaus	-9105
▁oireet	-9106
ikenteen	-9107
▁Mäkinen	-9108
▁lämpimä	-9109
▁parisuh	-9110
▁päivään	-9111
▁takavar	-9112
▁viimeis	-9113
▁jotenkin	-9114
▁kaudelle	-9115
▁yhdistel	-9116
▁Libanonin	-9117
▁korkealla	-9118
▁Jyväskylän	-9119
▁saatavilla	-9120
▁Käytännössä	-9121
▁podcastissa	-9122
ish	-9123
ston	-9124
▁Lis	-9125
▁Vei	-9126
▁mal	-9127
▁rom	-9128
utuva	-9129
ystee	-9130
▁Emma	-9131
▁anna	-9132
▁kons	-9133
▁pyrk	-9134
isivät	-9135
▁Naval	-9136
▁Vähän	-9137
▁tauon	-9138
▁varoi	-9139
▁Kaiken	-9140
▁Kukaan	-9141
▁Pajari	-9142
▁aseita	-9143
▁essaan	-9144
▁kärsim	-9145
▁osannut	-9146
▁pronssi	-9147
▁suositu	-9148
▁suuntaa	-9149
▁useampi	-9150
▁vaaleja	-9151
▁pysäyttä	-9152
▁vanhempi	-9153
▁Jääkiekko	-9154
▁arvonlisä	-9155
▁avoimesti	-9156
▁konkurssi	-9157
▁muuttanut	-9158
▁mahdotonta	-9159
▁olosuhteissa	-9160
▁mielenosoitta	-9161
ij	-9162
jas	-9163
mun	-9164
zer	-9165
enny	-9166
▁27.	-9167
▁Erä	-9168
▁Jyr	-9169
▁lad	-9170
▁läp	-9171
▁tol	-9172
▁Kaisa	-9173
▁Lähes	-9174
▁Sofia	-9175
▁Tuore	-9176
▁mättö	-9177
▁Tavoit	-9178
▁asunut	-9179
▁hyötyä	-9180
▁määrit	-9181
▁Laulaja	-9182
▁minusta	-9183
▁ohjaaja	-9184
▁osapuol	-9185
▁sivussa	-9186
▁todettu	-9187
▁välttää	-9188
▁Lehtonen	-9189
▁kaksikon	-9190
▁kehottaa	-9191
▁tärkeitä	-9192
▁vastaano	-9193
▁Niinistön	-9194
▁haasteita	-9195
▁Tasavallan	-9196
▁europarlamen	-9197
1:	-9198
and	-9199
▁Gi	-9200
▁SE	-9201
vina	-9202
▁Tek	-9203
▁ien	-9204
astat	-9205
ittua	-9206
▁Fors	-9207
▁Kuin	-9208
▁Lain	-9209
▁Vero	-9210
▁koho	-9211
▁lata	-9212
impiin	-9213
koulun	-9214
▁2016.	-9215
▁eroon	-9216
▁eseen	-9217
▁kaune	-9218
▁otsik	-9219
▁salli	-9220
▁tavoi	-9221
utuivat	-9222
llessaan	-9223
mattoman	-9224
paikalla	-9225
▁naapuri	-9226
▁tarjota	-9227
▁vapautta	-9228
▁viitaten	-9229
▁Catherinen	-9230
▁Mielestäni	-9231
▁ravintolan	-9232
▁vaikeuksia	-9233
▁käsitellään	-9234
▁vaikutukset	-9235
▁joukkueeseen	-9236
ble	-9237
pil	-9238
koro	-9239
roja	-9240
▁Bra	-9241
▁Ykk	-9242
▁Tors	-9243
▁Työn	-9244
▁Vesi	-9245
▁Vorn	-9246
▁kump	-9247
▁pitu	-9248
▁real	-9249
opimus	-9250
voimaa	-9251
▁Raita	-9252
▁Torni	-9253
▁koros	-9254
▁käyty	-9255
▁luona	-9256
▁sanan	-9257
▁tulot	-9258
lleensa	-9259
tessaan	-9260
▁Silven	-9261
▁isempi	-9262
▁laitte	-9263
▁panssa	-9264
kkoilija	-9265
▁Onneksi	-9266
▁Prinssi	-9267
▁Toyotan	-9268
▁avustus	-9269
▁keittiö	-9270
▁viestiä	-9271
▁yllätty	-9272
▁menehtyi	-9273
▁toisesta	-9274
▁vahingon	-9275
▁huomannut	-9276
▁komentaja	-9277
maattisesti	-9278
▁kuolemasta	-9279
▁yhdistyksen	-9280
▁Toivottavasti	-9281
▁Å	-9282
ola	-9283
▁41	-9284
▁ad	-9285
keja	-9286
telö	-9287
▁McD	-9288
▁ila	-9289
▁draa	-9290
▁huhu	-9291
▁outo	-9292
alinen	-9293
puisto	-9294
▁tauti	-9295
ottavaa	-9296
▁rallin	-9297
▁tervee	-9298
▁kenties	-9299
▁monella	-9300
▁Silvenno	-9301
▁analysoi	-9302
▁edustava	-9303
▁kisoihin	-9304
▁Aftonblad	-9305
▁Kommentti	-9306
▁muutoksen	-9307
▁tutkitaan	-9308
▁puheessaan	-9309
▁Suomalaiset	-9310
▁kysymyksiin	-9311
▁virallisesti	-9312
Pe	-9313
ital	-9314
ityn	-9315
laus	-9316
mpär	-9317
älle	-9318
▁huv	-9319
aansa	-9320
▁Jazz	-9321
▁Tero	-9322
▁irto	-9323
▁vaja	-9324
▁kylän	-9325
▁pelit	-9326
▁tahto	-9327
▁häneen	-9328
▁kohtuu	-9329
▁määrät	-9330
▁Jalonen	-9331
▁Valtion	-9332
▁autoili	-9333
▁kuullut	-9334
▁joutuvat	-9335
▁kaudesta	-9336
▁propagan	-9337
▁rajoitta	-9338
▁sairasta	-9339
▁yhdistää	-9340
▁heinäkuun	-9341
▁toisaalta	-9342
▁turnauksessa	-9343
▁luonnollisesti	-9344
ppy	-9345
llus	-9346
ppua	-9347
▁Puh	-9348
▁rus	-9349
▁tti	-9350
tistä	-9351
▁Ampu	-9352
▁Merc	-9353
▁Suvi	-9354
▁agen	-9355
▁avar	-9356
▁iske	-9357
▁linn	-9358
ikunta	-9359
kosken	-9360
puolue	-9361
▁Hauta	-9362
▁koski	-9363
▁kukka	-9364
▁kulki	-9365
▁lipun	-9366
▁lohko	-9367
▁moder	-9368
▁teini	-9369
▁haaste	-9370
▁näillä	-9371
▁punais	-9372
▁tallin	-9373
▁kierros	-9374
▁sisältö	-9375
▁tekoäly	-9376
▁tuottaa	-9377
▁valossa	-9378
▁Espoossa	-9379
▁Oikeuden	-9380
▁kasvatti	-9381
▁kotoisin	-9382
▁medialle	-9383
▁tarvinnut	-9384
▁kilpailuun	-9385
▁tehtävissä	-9386
▁liikennettä	-9387
▁päätöksestä	-9388
▁puolivälierä	-9389
▁äärijärjestö	-9390
puh	-9391
ennä	-9392
fina	-9393
uhan	-9394
änny	-9395
▁2,5	-9396
▁leh	-9397
jistä	-9398
sojen	-9399
▁Real	-9400
▁erot	-9401
▁hell	-9402
▁pahe	-9403
▁väki	-9404
tamiin	-9405
▁Syynä	-9406
▁Tieto	-9407
▁ansio	-9408
▁itali	-9409
▁kuver	-9410
▁vauva	-9411
▁olikin	-9412
▁pyrkin	-9413
▁salais	-9414
▁suosio	-9415
▁Nuorten	-9416
▁Yleensä	-9417
▁käymään	-9418
▁nuorena	-9419
▁siirtää	-9420
komisario	-9421
▁Lehtinen	-9422
▁kokoomus	-9423
▁pelaajaa	-9424
▁tuottaja	-9425
▁muutokset	-9426
▁kaupunkiin	-9427
▁suorastaan	-9428
▁tilanteita	-9429
▁yhteiskunnan	-9430
▁jö	-9431
jasi	-9432
▁Tha	-9433
▁gri	-9434
▁sär	-9435
▁vis	-9436
▁Aino	-9437
▁tauo	-9438
lannin	-9439
misten	-9440
tiellä	-9441
▁Tärke	-9442
▁isuus	-9443
▁kuiva	-9444
▁puhta	-9445
▁Aleksi	-9446
▁Kymmen	-9447
▁vauhti	-9448
▁jotakin	-9449
▁kuvernö	-9450
▁länsima	-9451
▁pihalla	-9452
▁laajasti	-9453
▁negatiiv	-9454
▁oikeisto	-9455
▁puolilla	-9456
▁saavutta	-9457
▁tekemässä	-9458
▁yleisölle	-9459
▁päivystävä	-9460
▁loukkaantunut	-9461
▁tulevaisuuden	-9462
ysi	-9463
▁8,	-9464
otte	-9465
▁Che	-9466
▁arj	-9467
▁tiu	-9468
aaksi	-9469
hinta	-9470
maksu	-9471
▁veny	-9472
peutti	-9473
▁Heikk	-9474
▁Onhan	-9475
▁Roope	-9476
▁Tiina	-9477
▁rento	-9478
▁tasan	-9479
▁ttava	-9480
▁Ottelu	-9481
▁Taylor	-9482
▁jotkut	-9483
▁kasvua	-9484
▁kuvasi	-9485
▁riitti	-9486
▁tarpee	-9487
▁Aaltola	-9488
▁armeija	-9489
▁kuvissa	-9490
▁mistään	-9491
▁terrori	-9492
▁ensisija	-9493
▁irtisano	-9494
▁maalilla	-9495
▁tunteita	-9496
▁voitosta	-9497
▁asunnossa	-9498
▁aiemminkin	-9499
▁suurlähetti	-9500
▁kommentoimaan	-9501
▁turvallisuutta	-9502
▁THL	-9503
▁kaas	-9504
▁Aivan	-9505
▁Yhtiö	-9506
Britann	-9507
rallaan	-9508
sinkilä	-9509
▁Kanada	-9510
▁Toisen	-9511
▁ajalla	-9512
▁kartan	-9513
▁kaukal	-9514
▁käänne	-9515
▁lattia	-9516
tuutettu	-9517
▁Richard	-9518
▁Urheili	-9519
▁nimellä	-9520
▁radalla	-9521
▁rakenne	-9522
▁rauhoit	-9523
▁ydinase	-9524
▁joitakin	-9525
▁myyntiin	-9526
▁vaatinut	-9527
▁Prinsessa	-9528
▁edustajat	-9529
▁helsinkilä	-9530
▁pelaajista	-9531
▁taiteilija	-9532
▁ihmisoikeus	-9533
▁äärioikeisto	-9534
▁urheilijoiden	-9535
mel	-9536
▁ai	-9537
ähti	-9538
▁Tan	-9539
▁Tyy	-9540
▁nis	-9541
kivat	-9542
verta	-9543
▁Aamu	-9544
▁Pitt	-9545
▁avat	-9546
▁lemm	-9547
▁pomm	-9548
hdella	-9549
▁Pallo	-9550
▁leika	-9551
uuksien	-9552
▁poikki	-9553
▁puolta	-9554
▁reissu	-9555
▁unelma	-9556
▁yleinen	-9557
mokraatti	-9558
▁Kärppien	-9559
▁Norjassa	-9560
▁auringon	-9561
▁hyökkäsi	-9562
▁koskevat	-9563
▁pohjalta	-9564
aikaisesti	-9565
▁joulukuun	-9566
▁kilpailua	-9567
▁sopimusta	-9568
▁mielenosoi	-9569
▁valtavasti	-9570
▁todennäköis	-9571
▁Keskiviikkona	-9572
▁presidenttinä	-9573
jal	-9574
psi	-9575
paus	-9576
▁25-	-9577
▁Mun	-9578
▁Sor	-9579
▁tin	-9580
ketin	-9581
ottom	-9582
yökkä	-9583
▁Eetu	-9584
▁lenn	-9585
▁luks	-9586
▁olis	-9587
▁vaiv	-9588
maatti	-9589
neessa	-9590
▁Carol	-9591
▁Ronal	-9592
▁Vuosi	-9593
▁Yhden	-9594
▁helle	-9595
▁julki	-9596
▁kolar	-9597
▁tiivi	-9598
ittävät	-9599
mistaan	-9600
▁Macron	-9601
▁Tausta	-9602
▁Voitto	-9603
▁kolmos	-9604
▁leviää	-9605
▁lukien	-9606
▁rankka	-9607
▁teillä	-9608
▁apulais	-9609
▁jääneet	-9610
▁toisten	-9611
ikymmentä	-9612
▁Moskovan	-9613
▁elämästä	-9614
▁laskenut	-9615
politiikan	-9616
toimittaja	-9617
▁juurikaan	-9618
▁kuvattuna	-9619
▁millainen	-9620
▁tilaisuus	-9621
▁Pariskunta	-9622
▁aggressiiv	-9623
▁elokuvassa	-9624
▁maaliskuun	-9625
▁joukkueensa	-9626
▁keskustella	-9627
▁paikallista	-9628
▁liikenteessä	-9629
▁läheisyydessä	-9630
▁sijaitsevassa	-9631
eä	-9632
sh	-9633
▁x	-9634
-2-	-9635
ass	-9636
epä	-9637
jus	-9638
koo	-9639
lyn	-9640
nat	-9641
uel	-9642
kans	-9643
sija	-9644
▁Isä	-9645
▁kov	-9646
Pekka	-9647
estyi	-9648
estys	-9649
maali	-9650
ukana	-9651
▁Evan	-9652
▁Kela	-9653
▁Pala	-9654
▁anti	-9655
▁ihas	-9656
▁ihon	-9657
▁koos	-9658
▁mall	-9659
intarv	-9660
▁journ	-9661
▁pääsy	-9662
▁ratti	-9663
▁rinna	-9664
▁taito	-9665
▁tilin	-9666
ikainen	-9667
telivat	-9668
▁Kahden	-9669
▁laista	-9670
▁mukava	-9671
▁pantti	-9672
▁poltto	-9673
▁valiko	-9674
▁varova	-9675
▁viides	-9676
▁voimme	-9677
▁Christi	-9678
▁lopetti	-9679
▁nimissä	-9680
▁johdolla	-9681
▁kutsuttu	-9682
▁poseeraa	-9683
▁pääsivät	-9684
Pohjanmaan	-9685
▁pidettiin	-9686
▁viimeistä	-9687
▁ratkaisuja	-9688
▁perinteisen	-9689
▁yhteiskunta	-9690
▁yllätyksenä	-9691
▁infrastruktu	-9692
▁Yhdysvaltoihin	-9693
▁säännöllisesti	-9694
▁pahoinpitelystä	-9695
ald	-9696
que	-9697
säh	-9698
▁54	-9699
▁GP	-9700
kata	-9701
meri	-9702
ukon	-9703
▁Eur	-9704
▁Pah	-9705
▁Sär	-9706
▁Tyn	-9707
▁kää	-9708
dissa	-9709
kkuri	-9710
telen	-9711
tulla	-9712
▁Karl	-9713
▁King	-9714
▁alen	-9715
▁juos	-9716
▁kahv	-9717
▁mara	-9718
vainen	-9719
▁kolmi	-9720
▁resur	-9721
yttynyt	-9722
▁Lasten	-9723
▁kierrä	-9724
▁oikean	-9725
▁pitkiä	-9726
▁päivät	-9727
▁virhee	-9728
▁ylipää	-9729
▁	-9730
a	-9731
i	-9732
t	-9733
n	-9734
e	-9735
s	-9736
l	-9737
o	-9738
u	-9739
k	-9740
ä	-9741
m	-9742
r	-9743
v	-9744
h	-9745
p	-9746
j	-9747
y	-9748
.	-9749
d	-9750
,	-9751
ö	-9752
S	-9753
-	-9754
K	-9755
T	-9756
M	-9757
0	-9758
P	-9759
H	-9760
g	-9761
V	-9762
2	-9763
L	-9764
1	-9765
A	-9766
E	-9767
J	-9768
N	-9769
b	-9770
R	-9771
:	-9772
O	-9773
I	-9774
c	-9775
f	-9776
"	-9777
B	-9778
U	-9779
3	-9780
5	-9781
Y	-9782
4	-9783
C	-9784
9	-9785
F	-9786
6	-9787
D	-9788
8	-9789
7	-9790
)	-9791
(	-9792
G	-9793
z	-9794
w	-9795
W	-9796
?	-9797
x	-9798
­	-9799
/	-9800
!	-9801
Z	-9802
X	-9803
Ä	-9804
+	-9805
é	-9806
'	-9807
q	-9808
š	-9809
&	-9810
%	-9811
ü	-9812
å	-9813
Q	-9814
]	-9815
[	-9816
Ö	-9817
á	-9818
=	-9819
€	-9820
Å	-9821
ž	-9822
ø	-9823
;	-9824
í	-9825
о	-9826
*	-9827
а	-9828
@	-9829
н	-9830
е	-9831
>	-9832
и	-9833
ó	-9834
Š	-9835
т	-9836
р	-9837
с	-9838
■	-9839
л	-9840
в	-9841
−	-9842
ñ	-9843
к	-9844
ë	-9845
è	-9846
д	-9847
у	-9848
č	-9849
#	-9850
г	-9851
п	-9852
ы	-9853
я	-9854
_	-9855
★	-9856
м	-9857
Ã	-9858
â	-9859
⁄	-9860
¤	-9861
ã	-9862
ú	-9863
à	-9864
ć	-9865
б	-9866
й	-9867
ğ	-9868
ł	-9869
ь	-9870
§	-9871
Á	-9872
з	-9873
ç	-9874
·	-9875
æ	-9876
̈	-9877
ч	-9878
É	-9879
ý	-9880
ю	-9881
Ž	-9882
õ	-9883
<	-9884
ï	-9885
×	-9886
Ü	-9887
ô	-9888
ř	-9889
Ø	-9890
ð	-9891
ń	-9892
ж	-9893
х	-9894
Č	-9895
ě	-9896
В	-9897
ц	-9898
	-9899
°	-9900
ê	-9901
С	-9902
Ф	-9903
©	-9904
П	-9905
‒	-9906
Õ	-9907
Ú	-9908
ă	-9909
ė	-9910
ņ	-9911
ш	-9912
щ	-9913
	-9914
Ç	-9915
ß	-9916
ò	-9917
ā	-9918
ē	-9919
ı	-9920
ū	-9921
μ	-9922
А	-9923
Б	-9924
ф	-9925
э	-9926
‐	-9927
•	-9928
⭐	-9929
Æ	-9930
Í	-9931
Þ	-9932
ō	-9933
ț	-9934
α	-9935
К	-9936
Ш	-9937
●	-9938
$	-9939
\	-9940
`	-9941
¶	-9942
À	-9943
Ó	-9944
İ	-9945
ň	-9946
ŏ	-9947
œ	-9948
ş	-9949
ů	-9950
ż	-9951
ə	-9952
˗	-9953
Ж	-9954
И	-9955
Л	-9956
Н	-9957
‰	-9958
′	-9959
⁣	-9960
~	-9961
	-9962
¡	-9963
®	-9964
±	-9965
Â	-9966
Ò	-9967
Û	-9968
ì	-9969
î	-9970
û	-9971
ÿ	-9972
ą	-9973
đ	-9974
ę	-9975
ģ	-9976
ī	-9977
Ķ	-9978
ľ	-9979
Ł	-9980
ś	-9981
ų	-9982
ź	-9983
ǎ	-9984
Ș	-9985
ș	-9986
Д	-9987
З	-9988
О	-9989
Т	-9990
Э	-9991
ỏ	-9992
ố	-9993
‍	-9994
∞	-9995
😂	-9996
