<unk>	0
<s>	0
</s>	0
▁a	-0
▁t	-1
▁i	-2
▁e	-3
▁n	-4
▁s	-5
▁k	-6
▁o	-7
▁u	-8
▁l	-9
▁m	-10
▁.	-11
▁v	-12
ta	-13
▁p	-14
en	-15
▁j	-16
is	-17
in	-18
▁,	-19
an	-20
sa	-21
▁ä	-22
▁h	-23
▁ta	-24
si	-25
tä	-26
ll	-27
▁y	-28
▁ll	-29
ti	-30
▁en	-31
▁r	-32
▁an	-33
▁is	-34
ut	-35
▁on	-36
ka	-37
▁ja	-38
li	-39
▁in	-40
it	-41
än	-42
el	-43
▁tu	-44
ik	-45
▁et	-46
se	-47
▁va	-48
er	-49
▁S	-50
▁-	-51
to	-52
aa	-53
▁uo	-54
▁al	-55
▁ti	-56
▁ssa	-57
▁ko	-58
▁jo	-59
▁tä	-60
▁K	-61
va	-62
▁ku	-63
ki	-64
te	-65
▁T	-66
tu	-67
uo	-68
sä	-69
oi	-70
de	-71
me	-72
▁M	-73
us	-74
▁er	-75
ko	-76
ke	-77
▁ei	-78
▁aa	-79
▁H	-80
▁P	-81
▁te	-82
yt	-83
▁ka	-84
▁ol	-85
▁ar	-86
▁si	-87
▁lla	-88
es	-89
▁as	-90
ää	-91
▁es	-92
ja	-93
▁la	-94
ma	-95
▁sta	-96
▁V	-97
et	-98
yö	-99
▁2	-100
▁oli	-101
lla	-102
▁että	-103
den	-104
▁il	-105
mi	-106
▁ma	-107
▁ai	-108
ra	-109
ksi	-110
▁se	-111
▁na	-112
▁el	-113
▁L	-114
▁uu	-115
▁än	-116
on	-117
▁nn	-118
▁lle	-119
ku	-120
▁1	-121
▁A	-122
▁vi	-123
▁pa	-124
▁sa	-125
▁E	-126
▁0	-127
ri	-128
uu	-129
ty	-130
kse	-131
il	-132
▁us	-133
▁J	-134
▁at	-135
pa	-136
na	-137
▁nä	-138
ät	-139
mm	-140
▁to	-141
▁N	-142
▁it	-143
la	-144
lle	-145
vat	-146
ks	-147
▁ni	-148
he	-149
▁R	-150
hd	-151
▁:	-152
vi	-153
▁ra	-154
▁hän	-155
mp	-156
ro	-157
▁ia	-158
▁ssä	-159
▁ais	-160
llä	-161
▁jä	-162
▁kä	-163
kaan	-164
▁O	-165
▁ne	-166
ssa	-167
▁llis	-168
▁I	-169
▁lä	-170
▁kun	-171
▁mi	-172
ul	-173
▁nen	-174
▁aik	-175
▁un	-176
▁d	-177
▁llä	-178
kä	-179
▁ukaan	-180
le	-181
ina	-182
utta	-183
▁ole	-184
ne	-185
▁myö	-186
▁oi	-187
▁taa	-188
▁ty	-189
rj	-190
lo	-191
▁ha	-192
▁vä	-193
▁yh	-194
▁ih	-195
▁au	-196
▁ki	-197
un	-198
▁ää	-199
▁ii	-200
▁ot	-201
▁no	-202
mis	-203
▁"	-204
▁tta	-205
vo	-206
▁pää	-207
▁ke	-208
tel	-209
ys	-210
▁ö	-211
▁stä	-212
▁le	-213
▁pi	-214
▁ksi	-215
▁li	-216
isi	-217
sta	-218
▁ista	-219
▁aan	-220
▁saa	-221
▁B	-222
▁myös	-223
▁issa	-224
▁ur	-225
pp	-226
▁mu	-227
▁kin	-228
▁san	-229
▁per	-230
lli	-231
▁toi	-232
ine	-233
mä	-234
▁sen	-235
▁aj	-236
▁aika	-237
▁tti	-238
oit	-239
▁ys	-240
ha	-241
▁ie	-242
▁ten	-243
kk	-244
▁nyt	-245
▁sy	-246
▁voi	-247
vä	-248
▁erto	-249
▁ovat	-250
tö	-251
▁po	-252
▁ul	-253
▁U	-254
▁Y	-255
▁iin	-256
▁so	-257
ot	-258
▁3	-259
▁tun	-260
▁vat	-261
▁mutta	-262
▁lo	-263
▁nut	-264
▁asi	-265
▁tel	-266
▁esi	-267
▁he	-268
inen	-269
taa	-270
▁iden	-271
▁kse	-272
▁oh	-273
▁oit	-274
▁os	-275
▁lta	-276
▁tie	-277
▁or	-278
ise	-279
▁vuo	-280
al	-281
ni	-282
ike	-283
▁maa	-284
▁5	-285
▁kau	-286
▁inen	-287
▁ään	-288
▁ttiin	-289
ue	-290
▁C	-291
▁ukse	-292
▁eh	-293
▁val	-294
▁hy	-295
▁toimi	-296
ia	-297
▁tää	-298
▁jen	-299
▁iik	-300
▁oll	-301
▁ttu	-302
▁4	-303
▁op	-304
▁uk	-305
uh	-306
▁tapa	-307
▁tai	-308
▁työ	-309
st	-310
▁uus	-311
▁9	-312
▁osa	-313
▁itä	-314
ten	-315
▁ien	-316
▁mä	-317
▁nta	-318
▁läh	-319
▁tila	-320
▁nsa	-321
jä	-322
▁Hän	-323
▁taj	-324
äi	-325
▁sano	-326
▁tan	-327
▁Suo	-328
▁ille	-329
ist	-330
kin	-331
jo	-332
▁vasta	-333
▁ah	-334
▁suu	-335
▁aut	-336
▁ollut	-337
▁äs	-338
▁ala	-339
▁illa	-340
ime	-341
▁ise	-342
▁ker	-343
▁jäl	-344
▁ita	-345
▁mis	-346
▁esti	-347
▁F	-348
▁ter	-349
▁alla	-350
▁lu	-351
▁suo	-352
▁uol	-353
▁tar	-354
vät	-355
▁ky	-356
ar	-357
▁ertoo	-358
▁kes	-359
or	-360
▁uon	-361
ve	-362
▁b	-363
pi	-364
▁nne	-365
▁min	-366
▁ut	-367
▁enn	-368
▁oike	-369
▁esta	-370
▁(	-371
enä	-372
▁re	-373
▁D	-374
ulu	-375
▁tus	-376
▁taina	-377
▁uut	-378
▁joka	-379
▁sto	-380
men	-381
▁)	-382
▁jälke	-383
▁men	-384
▁iä	-385
os	-386
▁G	-387
▁ttä	-388
▁ri	-389
hdo	-390
ur	-391
rit	-392
▁ak	-393
▁yhte	-394
▁tö	-395
▁ensi	-396
▁isi	-397
▁ap	-398
vu	-399
▁ed	-400
ite	-401
▁kuin	-402
▁anssa	-403
▁täm	-404
▁viime	-405
▁koko	-406
▁de	-407
▁6	-408
▁taja	-409
▁tam	-410
▁een	-411
▁f	-412
▁ase	-413
▁eri	-414
uk	-415
▁tän	-416
▁8	-417
▁niin	-418
▁uonna	-419
▁itse	-420
so	-421
▁päi	-422
rä	-423
▁am	-424
▁oliis	-425
▁7	-426
pä	-427
▁ro	-428
▁koh	-429
ky	-430
▁yksi	-431
▁eis	-432
itä	-433
▁taan	-434
enäj	-435
▁Venäj	-436
▁mme	-437
▁kan	-438
▁muu	-439
▁olisi	-440
▁nkin	-441
▁isä	-442
no	-443
▁uh	-444
▁pel	-445
▁tule	-446
tka	-447
ee	-448
▁tut	-449
do	-450
▁uomen	-451
▁g	-452
▁äi	-453
▁vai	-454
▁käyt	-455
▁iit	-456
elä	-457
▁sai	-458
▁alue	-459
ska	-460
▁Se	-461
▁ilu	-462
▁Suome	-463
ppu	-464
▁halli	-465
▁teh	-466
llo	-467
▁ana	-468
▁eu	-469
▁essa	-470
▁joh	-471
▁sanoo	-472
▁asia	-473
mo	-474
▁sti	-475
ura	-476
▁uot	-477
▁ik	-478
▁huo	-479
▁yli	-480
ikk	-481
▁kuite	-482
▁ir	-483
▁var	-484
▁luo	-485
▁sä	-486
lu	-487
mme	-488
▁asti	-489
vin	-490
▁tanut	-491
▁nto	-492
▁täv	-493
▁pu	-494
▁yl	-495
▁vät	-496
ir	-497
yy	-498
kö	-499
▁tapah	-500
tää	-501
tio	-502
▁W	-503
▁ihin	-504
▁rk	-505
▁ve	-506
▁yö	-507
kus	-508
vel	-509
▁oma	-510
▁teri	-511
00	-512
▁ry	-513
emm	-514
▁yy	-515
man	-516
▁uoden	-517
esti	-518
▁assa	-519
▁ohj	-520
da	-521
▁auto	-522
▁uksi	-523
▁ainen	-524
▁oikeu	-525
▁sekä	-526
utu	-527
▁ede	-528
▁ui	-529
▁tuo	-530
▁ident	-531
▁seura	-532
▁ukku	-533
▁elä	-534
kaa	-535
▁käy	-536
▁epä	-537
▁tukse	-538
▁aikki	-539
▁olla	-540
res	-541
▁ottel	-542
▁perus	-543
▁mää	-544
▁ihmis	-545
▁van	-546
▁maan	-547
kem	-548
▁mer	-549
▁lais	-550
▁ukkue	-551
▁vielä	-552
▁ava	-553
▁av	-554
▁yt	-555
▁alais	-556
▁me	-557
▁hänen	-558
▁Sa	-559
isä	-560
▁tse	-561
▁istä	-562
▁näyt	-563
ino	-564
dot	-565
▁jat	-566
▁lö	-567
ikä	-568
▁vuoti	-569
▁yrit	-570
▁mies	-571
lta	-572
▁isto	-573
pe	-574
▁ee	-575
▁kol	-576
rjo	-577
▁mahdo	-578
▁tur	-579
▁uude	-580
▁uussa	-581
▁ua	-582
▁uole	-583
rja	-584
▁nte	-585
▁vaa	-586
tti	-587
rje	-588
▁ertoi	-589
▁päivä	-590
▁issä	-591
▁vain	-592
▁nsä	-593
▁väli	-594
▁neet	-595
▁kat	-596
▁nki	-597
▁tav	-598
▁eli	-599
▁euro	-600
tei	-601
▁aina	-602
di	-603
▁ilta	-604
▁ng	-605
ol	-606
om	-607
▁kaa	-608
▁siitä	-609
▁ks	-610
▁par	-611
▁ent	-612
rai	-613
▁talo	-614
▁vuosi	-615
▁aja	-616
▁?	-617
▁den	-618
▁pres	-619
mu	-620
mpi	-621
▁Uk	-622
aaj	-623
▁asu	-624
▁Ukrai	-625
▁ät	-626
▁pro	-627
po	-628
▁nais	-629
▁ykse	-630
▁mie	-631
iks	-632
▁tutki	-633
▁emm	-634
gi	-635
▁anna	-636
▁itten	-637
▁kis	-638
▁muut	-639
▁sitä	-640
▁sanoi	-641
▁oin	-642
▁jul	-643
vio	-644
▁suom	-645
▁rkiks	-646
▁iih	-647
▁tark	-648
▁ote	-649
▁syy	-650
▁jää	-651
▁ina	-652
▁ier	-653
▁aikut	-654
lö	-655
▁use	-656
▁puo	-657
▁pit	-658
▁järje	-659
▁nkilö	-660
▁liik	-661
▁määrä	-662
▁kas	-663
ga	-664
▁alj	-665
är	-666
täv	-667
▁sel	-668
▁minis	-669
▁noin	-670
▁pun	-671
▁alle	-672
▁asta	-673
tus	-674
ru	-675
▁suur	-676
▁aali	-677
op	-678
as	-679
▁aljon	-680
▁ill	-681
ide	-682
▁uun	-683
tee	-684
▁pal	-685
▁voit	-686
▁lait	-687
▁aus	-688
▁haa	-689
▁eskus	-690
▁turva	-691
▁äl	-692
rke	-693
▁ver	-694
yty	-695
▁kaksi	-696
▁alta	-697
▁uusi	-698
ran	-699
▁tava	-700
ilm	-701
▁ist	-702
▁lin	-703
▁olev	-704
▁aailm	-705
▁sam	-706
▁uuta	-707
▁jos	-708
▁jossa	-709
▁c	-710
▁ennen	-711
▁alvel	-712
▁mit	-713
▁Tä	-714
▁isäks	-715
▁ili	-716
▁Yhd	-717
▁hyö	-718
taan	-719
▁ois	-720
▁nti	-721
ika	-722
▁eivät	-723
▁vaih	-724
▁ella	-725
▁Hel	-726
sit	-727
▁kunna	-728
ana	-729
maan	-730
▁halu	-731
▁mon	-732
▁tuli	-733
▁aikka	-734
▁esime	-735
▁ulko	-736
▁prose	-737
▁koska	-738
▁ikä	-739
ele	-740
▁pys	-741
▁mil	-742
▁hyvin	-743
▁sillä	-744
▁edus	-745
▁äh	-746
▁­	-747
▁paika	-748
▁ij	-749
▁lleen	-750
▁uis	-751
▁utu	-752
▁ettei	-753
▁erk	-754
▁ansa	-755
toi	-756
▁vali	-757
▁kul	-758
▁puhe	-759
▁aksi	-760
▁tänyt	-761
▁iko	-762
ita	-763
▁muun	-764
▁kil	-765
▁ran	-766
▁ann	-767
▁las	-768
▁lline	-769
▁uassa	-770
▁Yhdys	-771
▁usta	-772
▁toise	-773
▁Ilta	-774
em	-775
▁Tru	-776
▁nuo	-777
▁Trump	-778
▁kuva	-779
▁nnut	-780
▁tiin	-781
▁ell	-782
▁eksi	-783
▁pe	-784
▁komm	-785
ssä	-786
▁arvo	-787
▁tulee	-788
▁äät	-789
▁istu	-790
iste	-791
▁tulo	-792
▁julk	-793
▁uolus	-794
ttu	-795
▁tyis	-796
▁pitkä	-797
▁aihe	-798
▁arvio	-799
du	-800
tom	-801
hti	-802
▁puh	-803
▁ic	-804
▁Jo	-805
▁valta	-806
iko	-807
▁esit	-808
▁sopi	-809
vis	-810
▁kuu	-811
▁opu	-812
▁aluee	-813
ään	-814
▁urhe	-815
▁illä	-816
▁hi	-817
▁oon	-818
▁väh	-819
▁ilpa	-820
pu	-821
▁unn	-822
▁istö	-823
van	-824
▁ilm	-825
▁da	-826
stä	-827
▁ässä	-828
▁pien	-829
ppi	-830
▁kesä	-831
▁haast	-832
▁ltä	-833
▁pitää	-834
▁tieto	-835
▁rake	-836
▁mitä	-837
▁ing	-838
rin	-839
joh	-840
▁lut	-841
▁etä	-842
▁tul	-843
▁äy	-844
▁mar	-845
▁suh	-846
▁kerto	-847
▁tode	-848
▁uotta	-849
ho	-850
▁uomi	-851
▁jon	-852
▁elaaj	-853
▁euroa	-854
▁lap	-855
▁pois	-856
inä	-857
▁raa	-858
▁altio	-859
▁etty	-860
▁ata	-861
▁matka	-862
▁st	-863
▁neu	-864
hde	-865
▁all	-866
kiv	-867
ksa	-868
▁elo	-869
▁kunta	-870
▁milj	-871
ssi	-872
▁uutta	-873
▁teki	-874
▁paikk	-875
▁su	-876
▁miele	-877
▁ou	-878
▁epäil	-879
▁nel	-880
▁ryh	-881
▁jotka	-882
▁suun	-883
▁olo	-884
▁etta	-885
▁iiko	-886
▁anne	-887
▁nee	-888
▁ilmoi	-889
▁äiv	-890
▁sesti	-891
▁tor	-892
▁kansa	-893
▁ajan	-894
▁kut	-895
▁piste	-896
▁sin	-897
▁iso	-898
▁koti	-899
▁eid	-900
▁tiedo	-901
▁amp	-902
▁iksi	-903
▁om	-904
▁En	-905
▁ällä	-906
▁ttav	-907
▁Helsi	-908
▁000	-909
▁mmä	-910
▁ettu	-911
▁Jos	-912
▁uuden	-913
▁teli	-914
▁oulu	-915
jan	-916
▁loppu	-917
▁estar	-918
▁em	-919
▁etaan	-920
▁Ku	-921
▁ymp	-922
▁jonka	-923
▁iikko	-924
▁eikä	-925
su	-926
▁vara	-927
▁Ma	-928
▁kään	-929
▁neuvo	-930
▁rin	-931
kki	-932
▁ny	-933
deo	-934
▁annat	-935
▁nuor	-936
▁tavat	-937
▁/	-938
▁ilma	-939
▁päät	-940
▁ena	-941
▁lan	-942
▁oja	-943
▁valme	-944
▁ru	-945
▁ag	-946
▁nan	-947
▁etke	-948
▁oti	-949
▁eidän	-950
▁peli	-951
▁sija	-952
▁neljä	-953
▁ntti	-954
▁ttel	-955
▁äyt	-956
▁ussa	-957
▁aiemm	-958
▁kor	-959
▁suunn	-960
ini	-961
▁py	-962
▁minen	-963
▁empi	-964
▁nno	-965
▁elle	-966
▁vah	-967
▁tuu	-968
▁voima	-969
▁perhe	-970
▁ese	-971
▁emmin	-972
▁ulo	-973
▁ehdo	-974
▁lii	-975
▁är	-976
▁tui	-977
▁anta	-978
▁ensim	-979
▁tuot	-980
▁tois	-981
▁näh	-982
▁iihen	-983
▁enne	-984
▁alu	-985
▁ohjel	-986
▁yhde	-987
▁usko	-988
▁Kun	-989
▁hyökk	-990
▁alo	-991
▁vir	-992
▁ntaj	-993
▁lau	-994
▁ivat	-995
bb	-996
▁ntä	-997
▁uomio	-998
▁iitty	-999
▁pol	-1000
▁uksia	-1001
hjo	-1002
▁kon	-1003
▁iel	-1004
▁han	-1005
▁tämän	-1006
▁kerro	-1007
der	-1008
▁enemm	-1009
▁kolme	-1010
▁ari	-1011
▁tty	-1012
kka	-1013
▁nou	-1014
▁saat	-1015
▁uutis	-1016
▁lisä	-1017
▁ulj	-1018
▁iesti	-1019
lai	-1020
▁imm	-1021
▁ästi	-1022
▁tulev	-1023
▁ete	-1024
hdä	-1025
▁kaan	-1026
▁ev	-1027
▁raj	-1028
▁kesku	-1029
kau	-1030
▁aloit	-1031
▁täj	-1032
▁uolue	-1033
▁isää	-1034
▁teen	-1035
sti	-1036
▁taso	-1037
▁ttaa	-1038
▁ong	-1039
▁up	-1040
tiö	-1041
▁tunne	-1042
▁lähet	-1043
▁eja	-1044
▁tämä	-1045
▁sisä	-1046
tk	-1047
▁stö	-1048
▁säh	-1049
▁kirjo	-1050
▁sarja	-1051
▁puhu	-1052
kai	-1053
▁jät	-1054
ev	-1055
hin	-1056
▁etään	-1057
▁uotsi	-1058
▁met	-1059
▁aiheu	-1060
▁Myö	-1061
▁hel	-1062
▁mus	-1063
▁katso	-1064
▁odot	-1065
ea	-1066
▁im	-1067
▁Stu	-1068
▁ris	-1069
▁Myös	-1070
▁almis	-1071
oli	-1072
ksy	-1073
▁yll	-1074
dia	-1075
▁keski	-1076
▁man	-1077
▁suhte	-1078
▁juo	-1079
▁Vi	-1080
▁sähkö	-1081
▁id	-1082
▁oj	-1083
▁juh	-1084
▁atta	-1085
▁antaa	-1086
▁pungi	-1087
▁staan	-1088
▁myy	-1089
▁mur	-1090
▁len	-1091
▁isiin	-1092
ton	-1093
▁kyse	-1094
▁eks	-1095
▁Stubb	-1096
▁Mar	-1097
▁Suomi	-1098
▁aine	-1099
▁nope	-1100
▁näkö	-1101
▁tällä	-1102
▁onn	-1103
▁Tämä	-1104
▁kirj	-1105
▁aisu	-1106
sk	-1107
len	-1108
▁tee	-1109
▁arj	-1110
▁äys	-1111
▁erjan	-1112
▁keh	-1113
▁ali	-1114
▁Nyt	-1115
▁ajat	-1116
▁löyty	-1117
ter	-1118
▁estä	-1119
▁amis	-1120
▁ttö	-1121
ras	-1122
▁itään	-1123
▁hyvä	-1124
▁Ei	-1125
▁Ka	-1126
▁ajo	-1127
▁mm	-1128
▁pysty	-1129
oin	-1130
▁media	-1131
▁hin	-1132
▁Kuva	-1133
▁joutu	-1134
▁mmäis	-1135
äin	-1136
▁tunti	-1137
▁amma	-1138
▁sää	-1139
aal	-1140
▁uro	-1141
▁ian	-1142
▁lähe	-1143
▁neen	-1144
ito	-1145
▁jär	-1146
▁ken	-1147
▁ehti	-1148
▁hen	-1149
▁entoi	-1150
▁kirja	-1151
▁häne	-1152
▁miten	-1153
tuu	-1154
▁alku	-1155
▁perä	-1156
▁eläm	-1157
▁aatio	-1158
▁astus	-1159
▁eseen	-1160
▁aku	-1161
▁eillä	-1162
▁tään	-1163
▁io	-1164
▁aal	-1165
▁kisa	-1166
▁yhtiö	-1167
▁ju	-1168
▁usi	-1169
▁San	-1170
▁ohta	-1171
▁arha	-1172
ck	-1173
▁Ch	-1174
▁pari	-1175
▁lää	-1176
nt	-1177
▁iis	-1178
▁mikä	-1179
sen	-1180
▁äis	-1181
▁Po	-1182
▁asian	-1183
▁huoma	-1184
▁lääk	-1185
▁tarvi	-1186
▁tarjo	-1187
▁vaan	-1188
re	-1189
▁ama	-1190
▁ihan	-1191
▁nime	-1192
kea	-1193
▁MM	-1194
▁ani	-1195
▁ero	-1196
▁kaude	-1197
▁ilij	-1198
▁ov	-1199
▁kk	-1200
▁iet	-1201
▁maali	-1202
▁osall	-1203
▁sivu	-1204
▁enjoh	-1205
▁vaal	-1206
▁essä	-1207
▁tunut	-1208
▁iera	-1209
ikko	-1210
▁alk	-1211
▁ympär	-1212
▁sil	-1213
▁ura	-1214
▁video	-1215
▁ertaa	-1216
▁kö	-1217
▁äänes	-1218
my	-1219
▁sopim	-1220
paa	-1221
▁ori	-1222
▁nkaan	-1223
▁tekem	-1224
▁yllät	-1225
▁osi	-1226
rael	-1227
▁srael	-1228
▁hoi	-1229
▁lis	-1230
▁Ro	-1231
▁np	-1232
▁kasv	-1233
▁do	-1234
▁jopa	-1235
▁mään	-1236
▁näky	-1237
▁lloin	-1238
▁nimi	-1239
▁erran	-1240
vit	-1241
▁vo	-1242
▁telu	-1243
▁ratk	-1244
▁nyky	-1245
▁taisi	-1246
▁uoksi	-1247
▁aisi	-1248
▁ryhmä	-1249
▁uoli	-1250
▁inn	-1251
ust	-1252
▁iinni	-1253
▁oo	-1254
▁nttia	-1255
▁kolm	-1256
▁Ne	-1257
▁ärj	-1258
lt	-1259
▁di	-1260
▁moni	-1261
▁osoit	-1262
▁ngin	-1263
▁erkit	-1264
▁kello	-1265
▁käsit	-1266
▁ttöm	-1267
▁ukana	-1268
▁kahde	-1269
▁saada	-1270
▁ly	-1271
▁aikaa	-1272
▁lauan	-1273
▁uroop	-1274
▁iir	-1275
▁tehdä	-1276
▁puoli	-1277
▁öy	-1278
▁una	-1279
▁ongel	-1280
▁tane	-1281
▁enää	-1282
▁ästä	-1283
kso	-1284
▁oinen	-1285
▁um	-1286
▁kehit	-1287
kko	-1288
▁ruo	-1289
ss	-1290
▁miehe	-1291
▁otta	-1292
▁avo	-1293
vää	-1294
▁Iltal	-1295
▁w	-1296
▁riit	-1297
▁uode	-1298
▁sell	-1299
▁ön	-1300
▁oliit	-1301
▁tum	-1302
▁Sanom	-1303
▁aati	-1304
▁yle	-1305
▁her	-1306
▁syn	-1307
▁ystäv	-1308
▁avu	-1309
▁ota	-1310
ulun	-1311
▁kohta	-1312
▁alka	-1313
▁eissa	-1314
▁juu	-1315
▁pitä	-1316
▁nk	-1317
▁väit	-1318
▁yhd	-1319
▁tiet	-1320
kia	-1321
▁kov	-1322
▁ea	-1323
▁art	-1324
▁ntees	-1325
▁uks	-1326
▁kiso	-1327
▁uin	-1328
▁ymme	-1329
▁vanh	-1330
▁telee	-1331
▁omis	-1332
▁yty	-1333
▁Ki	-1334
▁sijai	-1335
▁lähte	-1336
▁eskiv	-1337
▁kseen	-1338
▁aka	-1339
▁inä	-1340
hi	-1341
▁synty	-1342
▁yleis	-1343
▁oik	-1344
▁aanan	-1345
▁aamu	-1346
▁leet	-1347
▁ss	-1348
▁akko	-1349
▁Sen	-1350
▁vaara	-1351
▁omi	-1352
▁attel	-1353
▁suora	-1354
tta	-1355
▁anska	-1356
▁uraa	-1357
▁ssaan	-1358
▁eik	-1359
▁uoma	-1360
▁illoi	-1361
▁Ni	-1362
▁iha	-1363
ver	-1364
▁uljet	-1365
▁tis	-1366
essa	-1367
▁mo	-1368
▁aam	-1369
▁uhka	-1370
▁muist	-1371
▁!	-1372
▁stu	-1373
▁koke	-1374
kkö	-1375
▁jatku	-1376
▁ojen	-1377
▁isku	-1378
▁ain	-1379
▁tied	-1380
▁jäi	-1381
▁iti	-1382
▁tom	-1383
▁ejä	-1384
▁talou	-1385
▁tykse	-1386
uha	-1387
▁hu	-1388
▁Sal	-1389
▁iellä	-1390
▁til	-1391
▁Ja	-1392
▁ika	-1393
rsi	-1394
▁tors	-1395
▁tuntu	-1396
▁anni	-1397
▁ulk	-1398
▁ehtäv	-1399
▁tely	-1400
▁mai	-1401
▁siir	-1402
▁tasa	-1403
▁mäise	-1404
▁autta	-1405
▁Al	-1406
▁myöh	-1407
▁juuri	-1408
▁oim	-1409
▁äli	-1410
▁tautu	-1411
▁ensa	-1412
▁iedot	-1413
▁aita	-1414
▁ttee	-1415
▁eet	-1416
▁äällä	-1417
▁asio	-1418
▁ttäin	-1419
▁net	-1420
▁itäis	-1421
til	-1422
▁ntaa	-1423
▁iseen	-1424
▁kone	-1425
▁On	-1426
▁nnan	-1427
iden	-1428
▁ttom	-1429
▁Pohjo	-1430
▁Mi	-1431
▁mpi	-1432
▁Viime	-1433
▁arjoi	-1434
ram	-1435
ske	-1436
▁emaan	-1437
▁jatko	-1438
sia	-1439
▁mise	-1440
▁dään	-1441
▁keske	-1442
▁kuten	-1443
▁apa	-1444
▁ysy	-1445
▁aino	-1446
▁vähän	-1447
▁aat	-1448
▁enna	-1449
▁EU	-1450
▁olen	-1451
▁tässä	-1452
▁stel	-1453
▁nna	-1454
▁yys	-1455
▁minu	-1456
▁tiis	-1457
▁tajan	-1458
▁amm	-1459
▁auden	-1460
▁oikea	-1461
▁paino	-1462
▁nt	-1463
▁tyy	-1464
▁eille	-1465
▁yn	-1466
▁Z	-1467
▁laine	-1468
eh	-1469
▁tak	-1470
▁lähes	-1471
▁tuomi	-1472
▁ensä	-1473
▁jal	-1474
▁He	-1475
▁rauha	-1476
▁selv	-1477
▁kohd	-1478
▁naan	-1479
▁sk	-1480
▁iltä	-1481
▁iitto	-1482
▁lapsi	-1483
▁yks	-1484
▁lämp	-1485
▁uraav	-1486
▁aav	-1487
▁Kal	-1488
▁toivo	-1489
ysy	-1490
▁kysy	-1491
▁oitto	-1492
▁erä	-1493
▁sty	-1494
▁enä	-1495
▁iivis	-1496
▁unnun	-1497
▁vie	-1498
▁yhtä	-1499
▁Hänen	-1500
▁lai	-1501
▁inna	-1502
▁amaan	-1503
▁kuul	-1504
▁lähti	-1505
ös	-1506
▁elvit	-1507
▁alja	-1508
▁uutam	-1509
ch	-1510
▁täy	-1511
ppa	-1512
▁isuu	-1513
▁dessa	-1514
▁eit	-1515
▁tain	-1516
▁oki	-1517
▁ukset	-1518
▁tys	-1519
▁kamp	-1520
▁ahden	-1521
▁inaal	-1522
▁ant	-1523
▁tosi	-1524
▁uukau	-1525
▁oni	-1526
▁ikos	-1527
▁alkoi	-1528
▁siinä	-1529
▁ehdok	-1530
▁isin	-1531
▁laske	-1532
▁nii	-1533
▁laa	-1534
▁laan	-1535
▁hoit	-1536
▁oiden	-1537
▁kyl	-1538
▁omais	-1539
▁tettu	-1540
kee	-1541
▁ilman	-1542
▁nis	-1543
▁löy	-1544
▁esk	-1545
sin	-1546
▁ymm	-1547
▁ysymy	-1548
▁tähti	-1549
▁arhai	-1550
▁tune	-1551
▁eloku	-1552
▁koske	-1553
▁ärjes	-1554
▁ampu	-1555
▁nnu	-1556
▁ravi	-1557
▁hoito	-1558
▁Olen	-1559
▁aljas	-1560
▁selvi	-1561
▁emp	-1562
▁ija	-1563
▁eita	-1564
▁änsä	-1565
▁raha	-1566
▁Ko	-1567
▁istor	-1568
▁lento	-1569
▁sal	-1570
▁aikea	-1571
▁Val	-1572
▁ttam	-1573
▁punki	-1574
▁aiko	-1575
▁Ha	-1576
▁tävät	-1577
▁La	-1578
▁itiik	-1579
▁ola	-1580
▁eril	-1581
▁od	-1582
▁kiel	-1583
▁leikk	-1584
▁maksa	-1585
▁ine	-1586
▁änä	-1587
▁nopea	-1588
▁raala	-1589
▁syö	-1590
▁llaan	-1591
▁taas	-1592
▁eki	-1593
▁laaj	-1594
▁tte	-1595
▁sotil	-1596
▁takia	-1597
▁einä	-1598
▁ouk	-1599
▁rit	-1600
▁ime	-1601
▁sota	-1602
▁ulkis	-1603
▁ton	-1604
▁vero	-1605
▁Ta	-1606
▁aisia	-1607
▁uuttu	-1608
▁inty	-1609
▁seen	-1610
ukk	-1611
▁asiak	-1612
▁ad	-1613
▁sson	-1614
▁nnä	-1615
▁teko	-1616
▁tunte	-1617
▁apu	-1618
▁ärä	-1619
▁ston	-1620
▁aukse	-1621
▁terve	-1622
▁voisi	-1623
▁ellis	-1624
▁eg	-1625
▁ac	-1626
▁eer	-1627
▁puole	-1628
ff	-1629
▁saapu	-1630
▁kent	-1631
▁ahvis	-1632
▁äri	-1633
▁oita	-1634
▁ho	-1635
▁ätä	-1636
▁Nor	-1637
▁ittaa	-1638
▁lähi	-1639
▁my	-1640
▁ierro	-1641
▁sarj	-1642
▁teriö	-1643
nu	-1644
▁avat	-1645
▁ruoka	-1646
▁oitti	-1647
▁palo	-1648
▁ieh	-1649
▁aikai	-1650
▁aista	-1651
▁ehde	-1652
▁käsi	-1653
▁liiga	-1654
ila	-1655
ert	-1656
▁vaali	-1657
▁X	-1658
▁aste	-1659
▁nnus	-1660
▁ussi	-1661
▁mieli	-1662
▁oissa	-1663
▁äätty	-1664
▁oly	-1665
▁ide	-1666
▁pallo	-1667
kar	-1668
▁yr	-1669
▁yde	-1670
▁Mutta	-1671
▁ymmär	-1672
▁ast	-1673
▁uva	-1674
▁oimi	-1675
▁laj	-1676
▁iekko	-1677
▁luok	-1678
▁piene	-1679
HL	-1680
väl	-1681
▁uinka	-1682
hoi	-1683
▁uul	-1684
▁pysy	-1685
▁tärke	-1686
▁kois	-1687
▁hake	-1688
▁ara	-1689
▁Sam	-1690
▁taist	-1691
▁Näin	-1692
▁joten	-1693
▁ettav	-1694
▁siis	-1695
▁unni	-1696
▁vän	-1697
▁oonaa	-1698
▁olymp	-1699
▁In	-1700
▁Biden	-1701
▁hyv	-1702
▁häi	-1703
▁ieltä	-1704
▁malli	-1705
▁anen	-1706
▁oikei	-1707
▁maal	-1708
▁appi	-1709
▁iini	-1710
▁laki	-1711
▁inväl	-1712
▁IS	-1713
yttä	-1714
iki	-1715
▁meni	-1716
▁daan	-1717
▁tomuu	-1718
▁halua	-1719
▁mukse	-1720
▁Syy	-1721
▁kuulu	-1722
▁ieman	-1723
▁isa	-1724
▁nnö	-1725
▁attu	-1726
▁auta	-1727
▁iili	-1728
▁sivat	-1729
▁az	-1730
han	-1731
▁kilom	-1732
▁näin	-1733
pal	-1734
▁Saksa	-1735
vai	-1736
▁nnuks	-1737
▁yytä	-1738
▁hä	-1739
▁Inst	-1740
▁jäsen	-1741
▁entis	-1742
▁kilpa	-1743
ön	-1744
▁pyö	-1745
▁nu	-1746
▁tamis	-1747
▁kuoli	-1748
▁Or	-1749
▁etrin	-1750
▁huono	-1751
▁ehd	-1752
▁aatu	-1753
▁näköi	-1754
▁jakso	-1755
▁por	-1756
▁äätös	-1757
▁nos	-1758
▁NHL	-1759
▁ksen	-1760
▁helpo	-1761
▁ber	-1762
▁iehen	-1763
▁otti	-1764
▁ang	-1765
▁20	-1766
▁ellä	-1767
▁työnt	-1768
▁lma	-1769
▁oista	-1770
▁tivat	-1771
▁äysin	-1772
▁eä	-1773
▁edes	-1774
ing	-1775
▁koro	-1776
▁son	-1777
▁ort	-1778
▁havai	-1779
▁yhä	-1780
▁isen	-1781
▁leen	-1782
▁kyllä	-1783
▁Pe	-1784
▁menet	-1785
▁arki	-1786
nä	-1787
▁rä	-1788
▁vira	-1789
▁tsee	-1790
▁Oulun	-1791
▁attom	-1792
▁uippu	-1793
▁nnyt	-1794
▁ammat	-1795
▁Na	-1796
▁ttelu	-1797
▁auton	-1798
▁elämä	-1799
▁ake	-1800
▁agram	-1801
▁juhli	-1802
▁nor	-1803
▁isti	-1804
▁onta	-1805
▁oikke	-1806
▁unta	-1807
ilu	-1808
▁heti	-1809
▁kävi	-1810
▁toden	-1811
▁kokou	-1812
▁yvin	-1813
▁asema	-1814
▁iikon	-1815
▁niitä	-1816
▁mäine	-1817
▁inta	-1818
▁kutsu	-1819
▁kevää	-1820
▁vesi	-1821
▁ander	-1822
▁äräjä	-1823
▁minuu	-1824
▁pääse	-1825
▁kaiki	-1826
kon	-1827
▁arh	-1828
▁eista	-1829
▁vapaa	-1830
▁alkaa	-1831
▁asten	-1832
▁uute	-1833
iksi	-1834
▁ela	-1835
▁lah	-1836
▁pid	-1837
▁eur	-1838
▁koi	-1839
▁änään	-1840
▁joita	-1841
▁Tuo	-1842
▁oima	-1843
▁ste	-1844
▁häntä	-1845
▁ointi	-1846
▁älle	-1847
▁viide	-1848
▁dä	-1849
▁uvail	-1850
▁tänä	-1851
▁oivat	-1852
▁massa	-1853
▁toime	-1854
▁hil	-1855
▁täll	-1856
▁pääsi	-1857
▁pan	-1858
▁orva	-1859
▁avoit	-1860
▁ilme	-1861
▁mitta	-1862
▁tr	-1863
▁laito	-1864
▁Yksi	-1865
▁nsi	-1866
▁tote	-1867
▁vaka	-1868
▁uolis	-1869
▁luku	-1870
▁piti	-1871
▁tkaa	-1872
▁atti	-1873
▁uolem	-1874
▁vakav	-1875
▁yllä	-1876
▁missä	-1877
▁jota	-1878
▁Ä	-1879
▁Orpo	-1880
▁utki	-1881
▁häiri	-1882
▁Esi	-1883
▁seks	-1884
▁kko	-1885
▁täh	-1886
▁yky	-1887
▁elin	-1888
▁illi	-1889
▁uloks	-1890
▁mmin	-1891
▁eihin	-1892
elm	-1893
ksu	-1894
▁pala	-1895
▁kohte	-1896
▁tuma	-1897
▁ystä	-1898
▁New	-1899
▁ikku	-1900
▁lään	-1901
▁nousi	-1902
▁pieni	-1903
▁stelm	-1904
▁iku	-1905
▁venä	-1906
▁+	-1907
▁elm	-1908
▁und	-1909
▁venäl	-1910
▁tulla	-1911
▁iina	-1912
▁taust	-1913
▁rve	-1914
▁auri	-1915
▁päivi	-1916
▁tuksi	-1917
dy	-1918
▁anc	-1919
▁hinta	-1920
▁uosi	-1921
▁loukk	-1922
▁yhden	-1923
▁uoj	-1924
▁Kor	-1925
▁akt	-1926
▁ard	-1927
▁luvu	-1928
▁nnas	-1929
▁joulu	-1930
▁oona	-1931
▁kanna	-1932
▁ami	-1933
▁appal	-1934
▁rveys	-1935
▁etu	-1936
▁etri	-1937
▁läpi	-1938
▁äästä	-1939
▁ääri	-1940
▁ttuna	-1941
▁viran	-1942
▁jalka	-1943
eme	-1944
▁dy	-1945
▁lähd	-1946
▁euron	-1947
▁tio	-1948
▁aivan	-1949
▁laji	-1950
maa	-1951
▁silm	-1952
▁uistu	-1953
▁ärke	-1954
▁äte	-1955
▁ait	-1956
▁pide	-1957
ih	-1958
▁pä	-1959
▁Itä	-1960
▁tek	-1961
▁Pa	-1962
▁astuu	-1963
▁rins	-1964
▁ans	-1965
▁itsem	-1966
▁atu	-1967
▁kir	-1968
▁nlo	-1969
▁lupa	-1970
ok	-1971
▁anki	-1972
▁isuud	-1973
▁kohda	-1974
▁annut	-1975
▁tökse	-1976
▁tuki	-1977
▁urk	-1978
▁har	-1979
▁äiti	-1980
▁uuksi	-1981
▁10	-1982
▁kka	-1983
▁nieme	-1984
▁poh	-1985
▁syksy	-1986
▁hänet	-1987
▁usein	-1988
▁kunno	-1989
▁tiete	-1990
▁aton	-1991
▁uha	-1992
▁anssi	-1993
▁soit	-1994
▁osta	-1995
▁je	-1996
▁isu	-1997
▁ehkä	-1998
▁elkä	-1999
▁aantu	-2000
▁valit	-2001
▁pyör	-2002
▁nneet	-2003
▁ay	-2004
▁ok	-2005
▁lapse	-2006
▁aar	-2007
▁yvinv	-2008
est	-2009
▁änsi	-2010
▁ääni	-2011
▁iuk	-2012
▁ansi	-2013
▁arr	-2014
▁naa	-2015
▁llään	-2016
▁aset	-2017
▁lämpö	-2018
▁väkiv	-2019
▁Lin	-2020
▁Vir	-2021
▁uisto	-2022
▁ottaa	-2023
▁Har	-2024
▁kulut	-2025
uko	-2026
▁aid	-2027
▁ntää	-2028
▁auppa	-2029
▁eistä	-2030
▁orkea	-2031
▁15	-2032
▁telij	-2033
▁itelm	-2034
▁väksy	-2035
▁test	-2036
▁ansal	-2037
▁oteaa	-2038
▁tseva	-2039
män	-2040
▁onal	-2041
▁hj	-2042
▁ned	-2043
▁atso	-2044
▁oman	-2045
▁tili	-2046
▁pääll	-2047
▁nny	-2048
▁liike	-2049
▁tänee	-2050
▁riko	-2051
▁ttäj	-2052
▁nedus	-2053
▁ttain	-2054
▁tätä	-2055
ess	-2056
▁Salo	-2057
▁aani	-2058
▁hävi	-2059
▁nni	-2060
▁sod	-2061
▁eitä	-2062
▁aivo	-2063
▁iu	-2064
▁kohti	-2065
▁täyty	-2066
▁ämä	-2067
▁viit	-2068
▁pysä	-2069
▁voim	-2070
▁uunta	-2071
▁ses	-2072
▁anke	-2073
▁ako	-2074
▁An	-2075
▁ulos	-2076
▁ohd	-2077
▁uhri	-2078
▁umma	-2079
▁naine	-2080
▁uorit	-2081
▁gia	-2082
▁poi	-2083
▁Salon	-2084
▁aisin	-2085
▁yliop	-2086
▁lehde	-2087
▁anj	-2088
▁ini	-2089
▁lop	-2090
▁työsk	-2091
▁iirty	-2092
▁oilla	-2093
▁poika	-2094
▁ene	-2095
▁onnet	-2096
▁tsi	-2097
▁öyd	-2098
▁aahan	-2099
▁sp	-2100
▁allan	-2101
▁utta	-2102
▁vaati	-2103
▁viisi	-2104
▁Vil	-2105
▁autu	-2106
▁est	-2107
▁sten	-2108
▁taka	-2109
▁tori	-2110
via	-2111
▁Ru	-2112
▁ttaja	-2113
▁elen	-2114
▁ältä	-2115
telä	-2116
▁vier	-2117
▁Etelä	-2118
▁Niin	-2119
▁aist	-2120
▁arsin	-2121
▁murha	-2122
▁Mies	-2123
ero	-2124
mok	-2125
▁itti	-2126
▁ruu	-2127
▁atkus	-2128
▁hoita	-2129
▁uonno	-2130
▁aari	-2131
▁allo	-2132
▁usiik	-2133
inu	-2134
▁Lind	-2135
▁sodan	-2136
▁hiih	-2137
▁ieto	-2138
▁toteu	-2139
▁'	-2140
▁Kar	-2141
▁sky	-2142
▁berg	-2143
▁onnis	-2144
▁uurin	-2145
▁liito	-2146
▁syys	-2147
▁miehi	-2148
▁ohi	-2149
▁metsä	-2150
▁inko	-2151
▁ikoks	-2152
▁otain	-2153
▁oukko	-2154
▁tehty	-2155
▁lopet	-2156
▁mene	-2157
▁ouko	-2158
▁iikku	-2159
▁ijoit	-2160
▁oimit	-2161
▁het	-2162
▁varm	-2163
▁osu	-2164
▁etsi	-2165
▁äivän	-2166
▁aiden	-2167
▁asemm	-2168
▁ijaan	-2169
▁viet	-2170
▁minkä	-2171
▁aha	-2172
▁Lue	-2173
▁eteen	-2174
▁uolim	-2175
▁oul	-2176
▁kunto	-2177
▁tekij	-2178
eri	-2179
▁mone	-2180
▁mukai	-2181
▁sit	-2182
mpp	-2183
▁uhe	-2184
▁muita	-2185
▁ukka	-2186
▁eijo	-2187
▁iinno	-2188
▁uosit	-2189
▁tua	-2190
▁erkko	-2191
▁julki	-2192
▁uote	-2193
▁uoto	-2194
kr	-2195
▁ahti	-2196
▁arhaa	-2197
▁elko	-2198
▁levi	-2199
▁ilun	-2200
▁ittel	-2201
▁ainoa	-2202
▁Co	-2203
▁heit	-2204
▁jälle	-2205
ore	-2206
▁lad	-2207
▁jotta	-2208
▁ude	-2209
▁mp	-2210
▁sina	-2211
nö	-2212
▁teho	-2213
▁uksen	-2214
▁tah	-2215
▁itta	-2216
▁jouko	-2217
▁ab	-2218
▁ivät	-2219
▁Antti	-2220
▁kerä	-2221
▁uning	-2222
▁alise	-2223
▁altuu	-2224
▁lähtö	-2225
ott	-2226
▁usu	-2227
▁opet	-2228
▁heik	-2229
▁palki	-2230
▁ihme	-2231
▁nssi	-2232
▁sij	-2233
▁pela	-2234
▁mäki	-2235
▁aistu	-2236
▁eikk	-2237
▁kylä	-2238
▁kokem	-2239
▁idät	-2240
▁eiden	-2241
▁yyde	-2242
▁kärsi	-2243
▁tekee	-2244
▁aju	-2245
▁kesäk	-2246
int	-2247
▁12	-2248
▁tet	-2249
▁ennät	-2250
▁maksu	-2251
▁tähän	-2252
▁äyttö	-2253
▁ilija	-2254
▁eisö	-2255
▁ull	-2256
▁hoid	-2257
▁arris	-2258
▁Pel	-2259
▁vel	-2260
▁rooli	-2261
▁aki	-2262
▁Mikko	-2263
▁ttuur	-2264
▁Kiina	-2265
▁etriä	-2266
▁kymme	-2267
▁irv	-2268
▁emme	-2269
▁rist	-2270
▁paras	-2271
▁kar	-2272
▁suku	-2273
▁ane	-2274
▁aikke	-2275
ude	-2276
▁loka	-2277
▁eng	-2278
▁onen	-2279
▁Esime	-2280
▁ielen	-2281
▁myötä	-2282
▁herät	-2283
▁onald	-2284
isk	-2285
ort	-2286
▁äv	-2287
▁Oulu	-2288
▁piir	-2289
▁ovi	-2290
▁pyr	-2291
▁eni	-2292
▁niide	-2293
▁ähe	-2294
▁akuut	-2295
▁rof	-2296
▁To	-2297
▁linja	-2298
lam	-2299
▁aisuu	-2300
▁utini	-2301
▁määri	-2302
▁30	-2303
▁The	-2304
▁edel	-2305
▁alous	-2306
▁maajo	-2307
▁naise	-2308
ute	-2309
▁nistu	-2310
▁ae	-2311
▁Var	-2312
▁ankki	-2313
▁appio	-2314
▁ksia	-2315
▁aluaa	-2316
▁usten	-2317
▁Nato	-2318
▁eissä	-2319
▁tivät	-2320
sal	-2321
▁arl	-2322
rju	-2323
▁tuore	-2324
▁and	-2325
▁liian	-2326
▁rik	-2327
▁oski	-2328
▁rttu	-2329
▁koulu	-2330
▁oihin	-2331
▁oitus	-2332
▁korj	-2333
▁ologi	-2334
▁Minu	-2335
▁norm	-2336
▁Kan	-2337
▁jut	-2338
▁tunni	-2339
▁urr	-2340
▁keino	-2341
▁osuu	-2342
▁telev	-2343
▁lyt	-2344
▁imo	-2345
▁ustel	-2346
▁uuluu	-2347
▁aulu	-2348
▁oulut	-2349
eno	-2350
▁änne	-2351
▁maini	-2352
▁äälle	-2353
▁uor	-2354
▁rask	-2355
▁olemm	-2356
▁tarpe	-2357
▁olmen	-2358
▁tekn	-2359
▁ntola	-2360
▁Saa	-2361
▁vahv	-2362
ser	-2363
▁riski	-2364
▁äm	-2365
▁Norja	-2366
▁run	-2367
▁elta	-2368
▁harv	-2369
▁demok	-2370
▁joide	-2371
▁suosi	-2372
rau	-2373
▁huu	-2374
▁antam	-2375
▁ennus	-2376
▁suuri	-2377
▁ajoit	-2378
▁ialai	-2379
▁nko	-2380
▁uhd	-2381
▁ajaa	-2382
▁kuvi	-2383
▁lauk	-2384
▁pyrki	-2385
▁täyt	-2386
▁yyttä	-2387
▁EM	-2388
▁ord	-2389
▁oukok	-2390
▁ib	-2391
▁kaap	-2392
▁kuol	-2393
▁asiaa	-2394
▁ikään	-2395
▁tal	-2396
▁valo	-2397
▁avau	-2398
▁Ale	-2399
▁tuke	-2400
▁henki	-2401
▁Pää	-2402
▁päin	-2403
▁tulos	-2404
▁erta	-2405
▁krit	-2406
ce	-2407
▁ykkö	-2408
▁tae	-2409
▁uhti	-2410
▁uiden	-2411
▁vaimo	-2412
▁ausu	-2413
▁ida	-2414
▁enno	-2415
▁Tila	-2416
▁aiva	-2417
▁käytö	-2418
▁sinai	-2419
▁tetty	-2420
▁set	-2421
▁ttava	-2422
▁laul	-2423
▁kerta	-2424
▁itu	-2425
▁iiga	-2426
▁pohjo	-2427
▁aih	-2428
▁ihr	-2429
▁anut	-2430
▁koto	-2431
▁ennak	-2432
▁kasvu	-2433
▁lehti	-2434
aali	-2435
▁Alex	-2436
▁kee	-2437
▁onne	-2438
▁äksi	-2439
▁syysk	-2440
▁omm	-2441
▁raat	-2442
▁merkk	-2443
▁nv	-2444
▁hti	-2445
▁empaa	-2446
▁kaupa	-2447
▁Ensi	-2448
▁elmik	-2449
▁vaike	-2450
▁öl	-2451
▁älier	-2452
▁adi	-2453
▁ike	-2454
▁nau	-2455
▁kausi	-2456
▁nl	-2457
▁kysee	-2458
▁lasku	-2459
▁tästä	-2460
uro	-2461
▁iset	-2462
▁entee	-2463
▁aisem	-2464
▁ity	-2465
▁ysel	-2466
▁tto	-2467
▁udu	-2468
▁paine	-2469
▁sosia	-2470
▁vede	-2471
▁Pekka	-2472
▁ingo	-2473
▁heng	-2474
vaa	-2475
▁ehdot	-2476
▁työtä	-2477
▁vanha	-2478
▁ohu	-2479
▁Tämän	-2480
▁onko	-2481
▁löytä	-2482
▁ylä	-2483
▁tuho	-2484
▁mill	-2485
▁adu	-2486
▁SM	-2487
▁Suom	-2488
▁ähemm	-2489
uto	-2490
▁saar	-2491
▁menne	-2492
▁ulisi	-2493
▁Ky	-2494
▁sia	-2495
▁tävä	-2496
▁ikuis	-2497
▁ink	-2498
▁tia	-2499
▁vapa	-2500
▁ilmi	-2501
▁aavut	-2502
▁muuta	-2503
▁tävän	-2504
▁eo	-2505
▁ati	-2506
▁isia	-2507
▁masti	-2508
▁ikko	-2509
▁akse	-2510
▁iitä	-2511
▁inti	-2512
▁peri	-2513
▁Halli	-2514
▁illis	-2515
▁otesi	-2516
▁aliok	-2517
▁avio	-2518
▁päiv	-2519
▁tyyp	-2520
▁ras	-2521
▁tähd	-2522
ge	-2523
▁hieno	-2524
▁inf	-2525
▁arlam	-2526
▁alko	-2527
▁jolla	-2528
▁yhdis	-2529
▁tusta	-2530
▁tännö	-2531
▁tv	-2532
▁utk	-2533
▁kulu	-2534
▁meno	-2535
▁intei	-2536
▁teo	-2537
▁iikka	-2538
▁nouse	-2539
▁einäk	-2540
▁nd	-2541
▁aza	-2542
▁hevo	-2543
▁juhla	-2544
▁valla	-2545
▁olle	-2546
▁näkem	-2547
▁pohti	-2548
lit	-2549
▁säil	-2550
▁aroit	-2551
▁mere	-2552
▁asvat	-2553
▁tavan	-2554
▁Uude	-2555
▁hon	-2556
▁arras	-2557
▁hilja	-2558
▁merki	-2559
▁ano	-2560
▁josta	-2561
▁kuude	-2562
▁oppi	-2563
▁ietti	-2564
▁vaiht	-2565
▁alli	-2566
▁anto	-2567
je	-2568
▁kää	-2569
▁irta	-2570
▁pääty	-2571
▁yttä	-2572
▁uutos	-2573
▁No	-2574
▁ksu	-2575
▁runsa	-2576
▁iki	-2577
▁etelä	-2578
▁virhe	-2579
kas	-2580
▁Re	-2581
▁auk	-2582
▁iiton	-2583
▁lukem	-2584
▁järk	-2585
▁ohdis	-2586
▁ank	-2587
▁yksiä	-2588
▁udot	-2589
▁merik	-2590
▁ark	-2591
▁puol	-2592
▁uuli	-2593
▁vähi	-2594
▁akkau	-2595
▁valvo	-2596
▁aikal	-2597
▁ampum	-2598
▁nlopp	-2599
▁reilu	-2600
▁uoro	-2601
▁dio	-2602
▁mui	-2603
▁sul	-2604
▁asa	-2605
▁näis	-2606
▁Kansa	-2607
▁ariis	-2608
▁uni	-2609
▁urna	-2610
▁vapau	-2611
▁du	-2612
▁eor	-2613
▁entu	-2614
▁11	-2615
▁ikkö	-2616
▁jatk	-2617
▁altav	-2618
▁antoi	-2619
▁avar	-2620
▁tait	-2621
▁istyö	-2622
▁oy	-2623
▁johto	-2624
uru	-2625
▁esken	-2626
▁orm	-2627
▁rom	-2628
▁adio	-2629
▁tunnu	-2630
▁anad	-2631
▁huum	-2632
▁onet	-2633
▁ress	-2634
kino	-2635
▁oitu	-2636
▁veto	-2637
▁alaut	-2638
▁koira	-2639
▁arja	-2640
▁imme	-2641
▁lik	-2642
▁yhy	-2643
▁kkino	-2644
▁Yle	-2645
▁vauh	-2646
▁ssään	-2647
▁aana	-2648
▁mita	-2649
▁kumpp	-2650
▁Euro	-2651
▁nous	-2652
▁ovin	-2653
▁rikko	-2654
▁lokak	-2655
▁ilo	-2656
▁törke	-2657
▁Tap	-2658
▁evy	-2659
▁ich	-2660
▁amise	-2661
▁valmi	-2662
▁Kes	-2663
▁loma	-2664
▁pahoi	-2665
▁torju	-2666
▁eva	-2667
▁läis	-2668
▁koros	-2669
▁vähe	-2670
▁esä	-2671
▁lor	-2672
▁uku	-2673
▁vih	-2674
▁uulu	-2675
▁ävel	-2676
▁akana	-2677
▁otiin	-2678
▁ener	-2679
▁aiken	-2680
▁elok	-2681
▁selit	-2682
▁alas	-2683
▁eessa	-2684
▁joku	-2685
▁ekijä	-2686
mai	-2687
▁ail	-2688
▁ksiä	-2689
▁mennä	-2690
▁oille	-2691
▁end	-2692
▁uper	-2693
▁onser	-2694
▁rs	-2695
▁anav	-2696
▁opisk	-2697
▁otsal	-2698
▁täyde	-2699
▁eal	-2700
▁peru	-2701
▁virka	-2702
▁enti	-2703
▁lämm	-2704
▁rad	-2705
▁eläi	-2706
▁uhtik	-2707
▁koe	-2708
▁luki	-2709
▁rssi	-2710
▁ob	-2711
▁aatim	-2712
▁otu	-2713
▁ajoi	-2714
▁uokr	-2715
▁saman	-2716
▁vaihe	-2717
▁tin	-2718
▁eudu	-2719
▁kohol	-2720
▁vält	-2721
▁aport	-2722
▁Ylen	-2723
▁ehto	-2724
▁airau	-2725
▁arvos	-2726
▁paiko	-2727
▁ttamu	-2728
▁valto	-2729
▁iippu	-2730
▁näi	-2731
▁änen	-2732
▁hui	-2733
▁oeh	-2734
▁anno	-2735
▁tilan	-2736
▁sio	-2737
▁ylm	-2738
▁inne	-2739
▁änty	-2740
▁silti	-2741
▁yksik	-2742
▁Keski	-2743
▁ankeu	-2744
▁stään	-2745
▁tyä	-2746
▁tilo	-2747
▁of	-2748
▁uosik	-2749
▁okse	-2750
▁kok	-2751
▁Yl	-2752
▁vis	-2753
▁one	-2754
▁opp	-2755
▁iito	-2756
▁pohja	-2757
▁kusta	-2758
▁iisu	-2759
▁miksi	-2760
▁oehto	-2761
▁myr	-2762
▁Voi	-2763
▁ietoa	-2764
▁aad	-2765
▁oir	-2766
▁eera	-2767
▁Asia	-2768
▁paris	-2769
▁mäe	-2770
▁rmä	-2771
▁mistä	-2772
▁talli	-2773
▁50	-2774
▁sis	-2775
▁npit	-2776
▁sate	-2777
▁amper	-2778
▁inis	-2779
▁aikan	-2780
▁uuluv	-2781
▁ate	-2782
▁töön	-2783
▁nkert	-2784
▁mia	-2785
▁some	-2786
▁unti	-2787
▁karsi	-2788
▁jätti	-2789
▁palkk	-2790
▁TV	-2791
▁lti	-2792
▁dolla	-2793
▁eutu	-2794
▁13	-2795
▁kova	-2796
▁ket	-2797
▁nder	-2798
▁lain	-2799
▁Pet	-2800
▁sun	-2801
▁Brit	-2802
▁sana	-2803
iri	-2804
▁ip	-2805
▁ssi	-2806
▁ettäv	-2807
▁voito	-2808
▁pyy	-2809
▁impi	-2810
▁ouluk	-2811
▁org	-2812
▁tuttu	-2813
▁anti	-2814
▁haav	-2815
▁yttö	-2816
▁ila	-2817
▁tön	-2818
▁oimak	-2819
▁yksen	-2820
▁usjoh	-2821
▁yysi	-2822
▁inu	-2823
▁kanta	-2824
▁uod	-2825
▁yyd	-2826
▁stus	-2827
▁entel	-2828
▁illan	-2829
▁tiedä	-2830
▁ausi	-2831
▁sosi	-2832
▁aatte	-2833
▁ado	-2834
▁järve	-2835
▁stuks	-2836
▁iil	-2837
▁eikka	-2838
▁uum	-2839
▁vää	-2840
▁ydi	-2841
▁eläk	-2842
▁ukea	-2843
▁telem	-2844
kuv	-2845
▁ean	-2846
▁mät	-2847
▁iivi	-2848
▁ius	-2849
▁Pres	-2850
▁ein	-2851
▁liha	-2852
▁sattu	-2853
▁z	-2854
her	-2855
▁esiin	-2856
▁Oli	-2857
▁enr	-2858
▁eensä	-2859
▁avoi	-2860
▁täisi	-2861
▁ork	-2862
▁äivä	-2863
▁uaali	-2864
▁ub	-2865
▁ria	-2866
▁aho	-2867
▁ksan	-2868
▁uone	-2869
▁iv	-2870
▁nap	-2871
▁armaa	-2872
▁Osa	-2873
▁isk	-2874
▁umm	-2875
▁ehot	-2876
▁elasi	-2877
▁ärki	-2878
▁ääjä	-2879
▁apsen	-2880
▁ärkeä	-2881
co	-2882
▁ahde	-2883
▁Mat	-2884
▁Put	-2885
▁elke	-2886
▁eikki	-2887
▁yvä	-2888
▁akot	-2889
▁hetki	-2890
▁juttu	-2891
▁Saar	-2892
▁25	-2893
▁ig	-2894
▁into	-2895
▁pakk	-2896
▁kap	-2897
▁uri	-2898
▁Putin	-2899
▁ranna	-2900
▁irt	-2901
▁ust	-2902
▁sala	-2903
▁sään	-2904
▁mmi	-2905
▁kier	-2906
▁ert	-2907
▁osto	-2908
▁aikoi	-2909
▁ataan	-2910
▁isuus	-2911
▁ek	-2912
▁ntam	-2913
▁väl	-2914
▁eb	-2915
▁ex	-2916
▁jala	-2917
▁Te	-2918
▁joe	-2919
▁tuv	-2920
▁aito	-2921
▁isio	-2922
▁tais	-2923
▁nomai	-2924
▁omu	-2925
▁eetti	-2926
hu	-2927
▁uoliv	-2928
▁elu	-2929
▁ont	-2930
▁mero	-2931
▁uksel	-2932
▁edu	-2933
▁huone	-2934
▁oimii	-2935
▁kato	-2936
▁oper	-2937
▁äline	-2938
▁otto	-2939
▁ttia	-2940
▁14	-2941
▁rek	-2942
▁ideo	-2943
▁uto	-2944
▁annu	-2945
▁miel	-2946
▁unna	-2947
▁ael	-2948
▁syyt	-2949
▁armi	-2950
▁äinen	-2951
▁tter	-2952
▁kkä	-2953
▁urma	-2954
▁aalia	-2955
▁oleva	-2956
▁Li	-2957
▁pian	-2958
▁äytyy	-2959
▁ue	-2960
▁aatti	-2961
▁kiint	-2962
▁piiri	-2963
▁mma	-2964
▁teja	-2965
▁oitte	-2966
▁land	-2967
▁meri	-2968
▁ähtee	-2969
▁hank	-2970
▁oinut	-2971
▁tussa	-2972
▁uud	-2973
▁iten	-2974
▁uomar	-2975
▁täe	-2976
▁teet	-2977
▁uima	-2978
▁nteen	-2979
▁ntään	-2980
▁aare	-2981
▁kkai	-2982
▁kuvan	-2983
▁ahta	-2984
▁nost	-2985
▁tsem	-2986
ju	-2987
▁iinä	-2988
▁kaat	-2989
▁kats	-2990
▁aket	-2991
▁eir	-2992
▁Koko	-2993
▁alve	-2994
▁luva	-2995
▁odi	-2996
▁delli	-2997
▁jy	-2998
▁sent	-2999
▁aalin	-3000
▁ammik	-3001
▁ely	-3002
▁ors	-3003
▁auan	-3004
▁vallo	-3005
▁äivää	-3006
▁öi	-3007
▁ess	-3008
▁Täll	-3009
▁pääss	-3010
▁öm	-3011
▁tuh	-3012
▁kilo	-3013
▁tämis	-3014
▁Ca	-3015
▁Ju	-3016
▁ask	-3017
▁ehu	-3018
▁ula	-3019
▁ardi	-3020
▁amine	-3021
▁netta	-3022
▁siko	-3023
▁span	-3024
▁iihto	-3025
▁kaise	-3026
▁ahaa	-3027
▁äykse	-3028
▁äd	-3029
▁sinki	-3030
▁uomal	-3031
▁poj	-3032
▁liit	-3033
▁imman	-3034
▁tella	-3035
▁spanj	-3036
▁16	-3037
▁Ra	-3038
▁kku	-3039
▁urj	-3040
▁skus	-3041
▁ranta	-3042
▁ud	-3043
▁alaa	-3044
▁ottam	-3045
▁Eri	-3046
▁uuk	-3047
▁alust	-3048
▁18	-3049
▁akas	-3050
▁mistu	-3051
▁Le	-3052
▁loh	-3053
▁nkä	-3054
▁asem	-3055
▁lasta	-3056
▁ele	-3057
▁ppi	-3058
▁usea	-3059
▁arkka	-3060
▁uolle	-3061
od	-3062
▁ilv	-3063
▁lue	-3064
▁apin	-3065
▁ekst	-3066
▁poik	-3067
▁äässä	-3068
▁kaver	-3069
▁urun	-3070
▁vansa	-3071
▁ove	-3072
▁ahvi	-3073
▁kulta	-3074
▁Es	-3075
▁tapp	-3076
▁ättä	-3077
▁sata	-3078
▁päätö	-3079
▁iak	-3080
▁nty	-3081
▁muuto	-3082
▁ilj	-3083
▁yvää	-3084
▁aatii	-3085
▁neli	-3086
▁paa	-3087
▁dia	-3088
▁omp	-3089
▁str	-3090
▁akso	-3091
▁komis	-3092
▁alan	-3093
▁uori	-3094
▁lista	-3095
▁menee	-3096
▁ion	-3097
▁17	-3098
▁imi	-3099
▁pitk	-3100
▁uita	-3101
▁kkina	-3102
▁rinta	-3103
▁erg	-3104
▁iz	-3105
▁Työ	-3106
▁ryhm	-3107
▁ji	-3108
▁isan	-3109
▁elij	-3110
▁luot	-3111
▁Hu	-3112
▁puut	-3113
▁oulun	-3114
▁alvi	-3115
▁niem	-3116
▁ksiin	-3117
▁antu	-3118
▁otell	-3119
▁immi	-3120
▁port	-3121
▁Rova	-3122
▁aur	-3123
▁nes	-3124
▁otku	-3125
▁para	-3126
▁seur	-3127
▁ttäis	-3128
▁oott	-3129
▁väri	-3130
▁esu	-3131
▁lus	-3132
▁ome	-3133
▁atar	-3134
▁arina	-3135
▁risti	-3136
▁ntö	-3137
▁Me	-3138
▁ettua	-3139
▁puhel	-3140
▁uno	-3141
▁Valt	-3142
▁katk	-3143
▁alto	-3144
▁ympia	-3145
▁iö	-3146
▁ety	-3147
▁ntie	-3148
▁reen	-3149
▁vamm	-3150
▁sek	-3151
▁Auto	-3152
▁ial	-3153
▁Mik	-3154
▁nla	-3155
▁uru	-3156
▁isält	-3157
▁nlais	-3158
lia	-3159
▁lm	-3160
▁mpä	-3161
▁amer	-3162
▁Esp	-3163
▁nio	-3164
▁enit	-3165
▁huol	-3166
▁kalai	-3167
▁erro	-3168
▁menes	-3169
▁ralli	-3170
▁säänt	-3171
▁40	-3172
▁Ty	-3173
▁äin	-3174
▁ammu	-3175
▁desta	-3176
▁mont	-3177
▁arkki	-3178
▁mättä	-3179
▁verra	-3180
▁Kau	-3181
▁uola	-3182
▁avi	-3183
▁suude	-3184
▁ow	-3185
▁iski	-3186
▁enk	-3187
▁lko	-3188
▁vetä	-3189
BC	-3190
▁arti	-3191
▁ndr	-3192
▁ekij	-3193
▁oksi	-3194
▁ito	-3195
▁kkää	-3196
▁olmi	-3197
▁matta	-3198
▁iim	-3199
▁Tois	-3200
▁jälk	-3201
▁lessa	-3202
▁Kat	-3203
▁linj	-3204
▁nnon	-3205
▁fan	-3206
▁leg	-3207
▁eena	-3208
▁nneen	-3209
▁otil	-3210
hmo	-3211
▁sat	-3212
▁ieli	-3213
▁eilla	-3214
▁ampi	-3215
▁don	-3216
▁sov	-3217
▁kasvo	-3218
▁klo	-3219
▁uolta	-3220
ivi	-3221
▁ääne	-3222
▁Sc	-3223
▁eili	-3224
▁omaa	-3225
▁uttaa	-3226
▁100	-3227
▁lumi	-3228
▁muis	-3229
▁Bar	-3230
▁jääk	-3231
▁lav	-3232
▁veit	-3233
▁talia	-3234
▁äsi	-3235
▁nassa	-3236
▁ye	-3237
▁äyn	-3238
▁Mä	-3239
▁anm	-3240
▁atsom	-3241
▁istol	-3242
▁ino	-3243
▁oto	-3244
▁mpaa	-3245
▁ommi	-3246
▁eitti	-3247
▁ppo	-3248
▁lie	-3249
▁aksa	-3250
▁auko	-3251
▁taha	-3252
▁auksi	-3253
▁raska	-3254
▁oiton	-3255
▁sääst	-3256
▁yse	-3257
▁aimi	-3258
▁ääk	-3259
▁iele	-3260
▁oppa	-3261
▁hahmo	-3262
▁salo	-3263
▁äly	-3264
▁lemme	-3265
▁rahoi	-3266
▁uodos	-3267
▁Br	-3268
▁hdy	-3269
▁itkä	-3270
▁järv	-3271
▁maat	-3272
▁ep	-3273
▁pp	-3274
▁tien	-3275
▁esto	-3276
▁aul	-3277
▁ers	-3278
▁äti	-3279
▁kiert	-3280
▁lli	-3281
▁osaa	-3282
▁vahva	-3283
▁rep	-3284
▁ismi	-3285
▁yöpä	-3286
▁aisen	-3287
▁nnes	-3288
▁TT	-3289
▁eute	-3290
▁naur	-3291
▁inkaa	-3292
▁rak	-3293
▁yyli	-3294
▁yv	-3295
▁jak	-3296
▁ritti	-3297
▁oa	-3298
▁mir	-3299
▁vei	-3300
▁ere	-3301
▁rah	-3302
▁evä	-3303
▁ivi	-3304
▁ekijö	-3305
▁ält	-3306
▁ätk	-3307
▁oske	-3308
▁tsev	-3309
▁pur	-3310
▁tär	-3311
▁uvi	-3312
▁ossa	-3313
▁Per	-3314
▁sut	-3315
▁tavi	-3316
▁ailla	-3317
▁äynni	-3318
▁ahd	-3319
▁kke	-3320
▁mais	-3321
▁ansan	-3322
▁Mc	-3323
▁ämm	-3324
▁imma	-3325
▁vast	-3326
▁metri	-3327
▁Tor	-3328
▁rea	-3329
▁isty	-3330
▁aihto	-3331
per	-3332
▁almi	-3333
▁nien	-3334
▁räjä	-3335
▁läine	-3336
▁aje	-3337
▁hty	-3338
▁korke	-3339
▁unnan	-3340
▁urnau	-3341
▁nnit	-3342
▁urha	-3343
▁uudet	-3344
▁äki	-3345
▁enni	-3346
▁äänty	-3347
▁sesta	-3348
▁oka	-3349
▁sille	-3350
▁suk	-3351
▁entä	-3352
▁kesän	-3353
▁asen	-3354
▁oivo	-3355
▁tyn	-3356
▁osin	-3357
▁tuvat	-3358
▁älttä	-3359
▁24	-3360
▁ash	-3361
▁jatka	-3362
▁hyp	-3363
▁uski	-3364
▁unnis	-3365
▁Joe	-3366
▁anga	-3367
▁omuks	-3368
▁välit	-3369
▁Ver	-3370
▁ive	-3371
▁evat	-3372
▁leis	-3373
▁ysti	-3374
▁ekon	-3375
▁isko	-3376
▁é	-3377
▁aiv	-3378
▁outu	-3379
▁nähdä	-3380
▁viest	-3381
▁luk	-3382
dä	-3383
▁orn	-3384
▁oise	-3385
▁tama	-3386
▁ttaj	-3387
iv	-3388
▁kiis	-3389
▁Maa	-3390
▁posti	-3391
▁amas	-3392
▁nö	-3393
▁aise	-3394
▁erää	-3395
▁rasi	-3396
▁Ala	-3397
▁sor	-3398
▁ääm	-3399
▁kulm	-3400
im	-3401
▁ins	-3402
▁oen	-3403
▁ntäm	-3404
▁täne	-3405
▁ater	-3406
▁lina	-3407
▁ntin	-3408
▁elev	-3409
▁vuor	-3410
▁ämme	-3411
▁linna	-3412
▁pelas	-3413
▁tiivi	-3414
▁uolen	-3415
▁ska	-3416
▁aiset	-3417
▁äärin	-3418
▁let	-3419
▁ysee	-3420
▁mista	-3421
▁ös	-3422
▁eem	-3423
▁amme	-3424
▁näke	-3425
▁jalai	-3426
▁yksin	-3427
▁our	-3428
▁aaliv	-3429
▁avoim	-3430
▁töä	-3431
▁kome	-3432
▁mah	-3433
▁erot	-3434
▁lat	-3435
▁puk	-3436
▁tod	-3437
▁parin	-3438
ker	-3439
▁lon	-3440
▁sad	-3441
▁tajat	-3442
▁ttuja	-3443
▁nnis	-3444
▁Muu	-3445
▁nka	-3446
▁empa	-3447
▁teita	-3448
ppo	-3449
▁aata	-3450
▁ug	-3451
▁toon	-3452
▁kel	-3453
▁nuk	-3454
▁tue	-3455
▁eren	-3456
▁riisi	-3457
▁rhe	-3458
▁Häne	-3459
▁hall	-3460
▁jäse	-3461
▁syyte	-3462
▁telua	-3463
▁kait	-3464
▁pano	-3465
▁pani	-3466
▁ennyt	-3467
▁kea	-3468
▁isemm	-3469
▁ntaja	-3470
▁vuode	-3471
▁HL	-3472
▁Pal	-3473
▁irj	-3474
▁ovel	-3475
▁vähä	-3476
▁ääd	-3477
▁kaup	-3478
▁eta	-3479
▁yörä	-3480
▁yri	-3481
▁toks	-3482
▁ysty	-3483
▁nev	-3484
▁este	-3485
▁ieti	-3486
▁intä	-3487
▁arv	-3488
▁via	-3489
▁olet	-3490
▁ohtaj	-3491
▁ositi	-3492
▁rheil	-3493
▁ham	-3494
▁iho	-3495
▁isö	-3496
▁asuk	-3497
▁kans	-3498
▁Kyse	-3499
▁iske	-3500
▁pet	-3501
▁tyt	-3502
▁usp	-3503
▁aaja	-3504
▁riv	-3505
▁teitä	-3506
▁äkk	-3507
▁elt	-3508
▁ope	-3509
▁wa	-3510
▁ack	-3511
▁dän	-3512
▁toa	-3513
▁jais	-3514
▁osan	-3515
▁äärä	-3516
▁emma	-3517
▁öitä	-3518
▁uuri	-3519
▁esity	-3520
▁iston	-3521
▁ntoja	-3522
hl	-3523
▁bo	-3524
▁aini	-3525
▁arme	-3526
▁aite	-3527
▁arkas	-3528
▁anl	-3529
▁kti	-3530
▁uka	-3531
▁erra	-3532
▁keli	-3533
▁iikki	-3534
▁eto	-3535
▁kki	-3536
▁äid	-3537
▁jaan	-3538
▁tteri	-3539
▁ade	-3540
▁ron	-3541
▁anis	-3542
▁nnen	-3543
▁iiv	-3544
▁ite	-3545
▁aiem	-3546
▁assi	-3547
▁ento	-3548
▁ulki	-3549
▁mel	-3550
▁utis	-3551
▁oite	-3552
▁täysi	-3553
▁200	-3554
▁ens	-3555
▁teena	-3556
▁inv	-3557
▁aakk	-3558
▁suoj	-3559
▁oisin	-3560
▁sinne	-3561
,5	-3562
▁Kir	-3563
▁olm	-3564
▁lymp	-3565
▁Ga	-3566
▁oke	-3567
▁atal	-3568
▁ova	-3569
▁posit	-3570
by	-3571
▁nat	-3572
▁sisäl	-3573
▁vänsä	-3574
mar	-3575
▁lve	-3576
▁oil	-3577
▁ytyvä	-3578
▁äivit	-3579
▁De	-3580
▁työn	-3581
▁sijoi	-3582
▁Gu	-3583
▁aud	-3584
▁une	-3585
▁aria	-3586
▁aalit	-3587
▁nkari	-3588
▁ps	-3589
▁amu	-3590
▁pil	-3591
▁eräs	-3592
▁koit	-3593
▁ävät	-3594
▁vasti	-3595
▁kkel	-3596
▁kset	-3597
▁logi	-3598
▁nkään	-3599
▁tea	-3600
▁talon	-3601
▁Suu	-3602
▁ääs	-3603
▁ippu	-3604
▁innan	-3605
▁pelin	-3606
▁muo	-3607
▁tap	-3608
▁arus	-3609
▁iety	-3610
▁ihmi	-3611
▁aisk	-3612
▁uule	-3613
▁ltiin	-3614
istä	-3615
▁syk	-3616
▁uhta	-3617
▁takaa	-3618
▁tunee	-3619
▁ranga	-3620
▁Ar	-3621
▁äk	-3622
▁ous	-3623
▁uvu	-3624
▁uoka	-3625
▁annus	-3626
▁upe	-3627
▁erus	-3628
▁otte	-3629
▁ineen	-3630
▁pö	-3631
▁ärje	-3632
▁ohtaa	-3633
▁alt	-3634
▁omo	-3635
▁amal	-3636
▁selle	-3637
▁aaj	-3638
▁ren	-3639
▁kunni	-3640
▁musta	-3641
▁tilai	-3642
▁mot	-3643
▁äih	-3644
▁anee	-3645
▁arjan	-3646
▁itali	-3647
▁käänt	-3648
▁tilaa	-3649
▁YK	-3650
▁hn	-3651
▁app	-3652
▁hte	-3653
▁ämis	-3654
▁muksi	-3655
▁hak	-3656
▁kuuta	-3657
▁tumis	-3658
▁Ke	-3659
▁sivät	-3660
▁utkij	-3661
tr	-3662
▁inun	-3663
▁ypp	-3664
▁arin	-3665
▁istus	-3666
▁&	-3667
olf	-3668
▁aalta	-3669
▁ngl	-3670
▁kiit	-3671
▁pako	-3672
▁aap	-3673
▁Mark	-3674
▁sian	-3675
▁aava	-3676
▁ister	-3677
▁ern	-3678
▁opea	-3679
▁rata	-3680
▁sain	-3681
▁ather	-3682
▁della	-3683
▁mital	-3684
▁uissa	-3685
▁ape	-3686
▁mat	-3687
▁sama	-3688
▁mässä	-3689
▁oska	-3690
▁ame	-3691
▁uop	-3692
▁Pari	-3693
▁23	-3694
▁IF	-3695
▁500	-3696
▁eeni	-3697
▁huoli	-3698
▁elk	-3699
▁akaa	-3700
▁elto	-3701
▁nnin	-3702
▁tall	-3703
▁allin	-3704
▁ilk	-3705
▁olu	-3706
▁yht	-3707
▁insa	-3708
▁ähän	-3709
▁sella	-3710
▁roje	-3711
▁ästy	-3712
▁annin	-3713
▁21	-3714
▁22	-3715
▁ante	-3716
▁tety	-3717
▁tm	-3718
▁ksa	-3719
▁pah	-3720
▁Suur	-3721
▁ba	-3722
▁osti	-3723
▁olais	-3724
▁kaupp	-3725
▁malla	-3726
▁ona	-3727
▁onni	-3728
▁attav	-3729
▁siksi	-3730
▁angai	-3731
▁olk	-3732
▁ello	-3733
▁kaike	-3734
▁Kol	-3735
▁ind	-3736
▁jet	-3737
▁ntu	-3738
▁umi	-3739
▁enee	-3740
▁rose	-3741
▁össä	-3742
▁hd	-3743
▁ipu	-3744
▁omit	-3745
▁tele	-3746
▁inno	-3747
▁raja	-3748
▁pääst	-3749
▁viä	-3750
▁unais	-3751
▁Nä	-3752
▁siv	-3753
▁ennu	-3754
▁tusk	-3755
▁uheen	-3756
▁ule	-3757
▁vut	-3758
▁lime	-3759
▁Lapi	-3760
▁linen	-3761
▁rastu	-3762
▁19	-3763
▁olin	-3764
▁uutu	-3765
▁yvän	-3766
▁kuvaa	-3767
▁atsa	-3768
▁nei	-3769
▁ute	-3770
▁yöh	-3771
▁sko	-3772
▁ymy	-3773
▁Mari	-3774
▁tyne	-3775
▁vien	-3776
▁tensa	-3777
▁og	-3778
▁rut	-3779
▁60	-3780
▁kai	-3781
▁mpää	-3782
▁ttäv	-3783
▁kkö	-3784
▁aura	-3785
▁isat	-3786
▁Mäk	-3787
▁era	-3788
▁oha	-3789
▁arjo	-3790
▁ster	-3791
ent	-3792
▁27	-3793
▁Su	-3794
▁ikka	-3795
▁eella	-3796
▁huole	-3797
▁turna	-3798
▁iemm	-3799
▁irkk	-3800
▁uttu	-3801
▁aluei	-3802
▁ose	-3803
▁tt	-3804
▁lom	-3805
▁ajam	-3806
▁lehd	-3807
ba	-3808
▁ski	-3809
▁onto	-3810
▁yden	-3811
▁perin	-3812
▁ey	-3813
▁kod	-3814
▁toki	-3815
▁äänt	-3816
▁ähi	-3817
▁ulke	-3818
▁äni	-3819
▁aula	-3820
▁pelaa	-3821
▁anon	-3822
▁keil	-3823
▁äntä	-3824
▁odist	-3825
▁edia	-3826
▁ulje	-3827
▁US	-3828
▁rän	-3829
▁ntai	-3830
▁aatto	-3831
▁lisen	-3832
▁alun	-3833
▁aansa	-3834
▁nuori	-3835
▁Leh	-3836
▁ärv	-3837
▁nnee	-3838
▁tart	-3839
PS	-3840
dp	-3841
▁kalli	-3842
▁niä	-3843
▁ohk	-3844
▁ilev	-3845
▁uuten	-3846
▁emi	-3847
▁olt	-3848
▁Kolm	-3849
▁aris	-3850
▁ukem	-3851
▁ica	-3852
▁avaa	-3853
▁enin	-3854
▁tuis	-3855
▁tuva	-3856
▁kokoo	-3857
▁tusti	-3858
▁äp	-3859
▁tellä	-3860
at	-3861
▁alv	-3862
▁ykk	-3863
▁ykset	-3864
▁denk	-3865
▁iaal	-3866
erc	-3867
▁tem	-3868
▁täjä	-3869
▁raina	-3870
▁Kär	-3871
▁atr	-3872
▁Rovan	-3873
▁muutt	-3874
▁tyttä	-3875
▁vuoro	-3876
▁IFK	-3877
▁air	-3878
▁aper	-3879
▁auki	-3880
▁ukko	-3881
▁uunni	-3882
▁q	-3883
▁ette	-3884
▁mato	-3885
▁neide	-3886
▁nneks	-3887
▁puu	-3888
ca	-3889
▁Sai	-3890
▁allis	-3891
▁misen	-3892
▁eika	-3893
▁senä	-3894
▁veri	-3895
▁alm	-3896
▁rkki	-3897
FP	-3898
▁anka	-3899
▁yttäv	-3900
▁bri	-3901
▁ovaa	-3902
▁töstä	-3903
DP	-3904
▁lit	-3905
▁rem	-3906
go	-3907
▁tim	-3908
▁istää	-3909
▁ttää	-3910
▁vas	-3911
▁öri	-3912
▁ec	-3913
▁ore	-3914
▁usk	-3915
▁eino	-3916
▁stäj	-3917
▁teke	-3918
▁uvia	-3919
▁oimaa	-3920
▁dus	-3921
▁ump	-3922
▁alme	-3923
▁äästö	-3924
▁gr	-3925
▁iemi	-3926
▁inin	-3927
▁lei	-3928
▁ure	-3929
▁uste	-3930
▁teide	-3931
▁teltu	-3932
▁avan	-3933
isa	-3934
▁ilä	-3935
▁kum	-3936
▁vey	-3937
▁oittu	-3938
▁ohe	-3939
▁ulu	-3940
▁omat	-3941
▁AFP	-3942
▁Mon	-3943
▁oris	-3944
▁soda	-3945
▁maine	-3946
▁viera	-3947
▁alua	-3948
▁atau	-3949
▁iika	-3950
▁oisi	-3951
▁lov	-3952
▁urm	-3953
▁iska	-3954
▁dok	-3955
▁ies	-3956
▁osk	-3957
▁Hy	-3958
▁BBC	-3959
▁los	-3960
▁nem	-3961
▁äil	-3962
▁nutta	-3963
▁rj	-3964
▁tehd	-3965
▁rikos	-3966
▁CN	-3967
▁yk	-3968
▁Kai	-3969
▁änn	-3970
▁Meri	-3971
▁araa	-3972
▁yyte	-3973
▁Q	-3974
▁eter	-3975
▁hait	-3976
▁iihd	-3977
▁kielt	-3978
▁%	-3979
▁ew	-3980
▁aip	-3981
▁jan	-3982
▁ilee	-3983
▁saan	-3984
▁isena	-3985
▁arve	-3986
▁eilij	-3987
▁isimm	-3988
▁eka	-3989
▁goi	-3990
▁kuka	-3991
▁otuks	-3992
ber	-3993
▁aaks	-3994
▁lip	-3995
▁Turu	-3996
▁tulle	-3997
ood	-3998
▁Fin	-3999
▁astu	-4000
▁pidä	-4001
▁sunnu	-4002
▁26	-4003
▁arvit	-4004
▁omaan	-4005
▁dr	-4006
▁kanen	-4007
▁aits	-4008
▁inni	-4009
▁luu	-4010
▁urg	-4011
▁nten	-4012
▁innoi	-4013
▁mb	-4014
▁näy	-4015
▁oro	-4016
▁Tuom	-4017
▁auva	-4018
▁isään	-4019
▁uollo	-4020
▁ök	-4021
▁SDP	-4022
▁oste	-4023
▁samaa	-4024
▁hol	-4025
▁ral	-4026
▁rid	-4027
▁eron	-4028
▁hmis	-4029
▁stra	-4030
▁aala	-4031
▁elli	-4032
▁essi	-4033
▁inais	-4034
▁ltaan	-4035
▁ollis	-4036
▁HS	-4037
▁län	-4038
▁koll	-4039
▁list	-4040
▁yp	-4041
▁ley	-4042
▁uore	-4043
▁yväs	-4044
▁ksien	-4045
▁liitt	-4046
▁Ex	-4047
▁sh	-4048
▁okk	-4049
▁age	-4050
▁anie	-4051
▁iss	-4052
▁ook	-4053
▁unk	-4054
▁lass	-4055
▁oksia	-4056
▁veyde	-4057
▁nanta	-4058
▁ikk	-4059
▁enny	-4060
▁suos	-4061
▁uoles	-4062
▁ato	-4063
▁otk	-4064
▁aiss	-4065
▁ausk	-4066
▁af	-4067
▁vy	-4068
▁Tai	-4069
▁nter	-4070
▁pohj	-4071
▁aras	-4072
▁jaka	-4073
▁ht	-4074
▁tas	-4075
▁kirk	-4076
▁viil	-4077
▁Gran	-4078
▁konf	-4079
▁saam	-4080
▁varo	-4081
▁ske	-4082
▁arko	-4083
▁kkaa	-4084
▁Seura	-4085
▁CNN	-4086
▁mut	-4087
▁omia	-4088
and	-4089
▁eon	-4090
▁Ter	-4091
▁soi	-4092
▁misi	-4093
▁väär	-4094
▁ehk	-4095
▁nas	-4096
▁yte	-4097
▁imes	-4098
▁ulis	-4099
▁muodo	-4100
▁atko	-4101
▁isoi	-4102
▁öt	-4103
▁Par	-4104
▁eti	-4105
▁pite	-4106
▁ahi	-4107
▁ale	-4108
▁auna	-4109
▁atri	-4110
▁untu	-4111
▁väksi	-4112
▁uhr	-4113
▁keho	-4114
▁allon	-4115
▁kentä	-4116
▁ema	-4117
▁stol	-4118
▁ntiin	-4119
▁viiko	-4120
ie	-4121
▁ora	-4122
▁nkii	-4123
▁rint	-4124
▁hankk	-4125
▁riste	-4126
una	-4127
▁oos	-4128
▁ampa	-4129
▁estö	-4130
▁irja	-4131
▁uran	-4132
▁airas	-4133
▁istis	-4134
▁rkist	-4135
▁35	-4136
▁dat	-4137
▁ainee	-4138
▁itell	-4139
▁luke	-4140
▁päil	-4141
▁Nik	-4142
▁alus	-4143
▁ielä	-4144
▁mani	-4145
▁ros	-4146
▁siä	-4147
▁ittu	-4148
▁nalle	-4149
▁sissa	-4150
▁uttav	-4151
rii	-4152
▁eak	-4153
▁uhu	-4154
▁issu	-4155
▁otus	-4156
▁istam	-4157
▁rat	-4158
▁sih	-4159
▁ostaa	-4160
▁ikäi	-4161
▁teer	-4162
▁allas	-4163
▁ansai	-4164
▁kav	-4165
▁äme	-4166
▁euvo	-4167
▁ttäm	-4168
▁astel	-4169
ci	-4170
▁anh	-4171
▁hun	-4172
▁ivu	-4173
▁jar	-4174
▁sum	-4175
▁emis	-4176
▁enta	-4177
▁otaa	-4178
▁uoti	-4179
▁wi	-4180
▁isiä	-4181
▁leik	-4182
▁täys	-4183
▁luist	-4184
▁sydä	-4185
▁ellyt	-4186
▁nia	-4187
▁ison	-4188
▁dyt	-4189
▁lay	-4190
▁28	-4191
▁lyn	-4192
▁Ed	-4193
▁Sdp	-4194
▁hkä	-4195
▁ile	-4196
▁alik	-4197
▁iisi	-4198
▁ngel	-4199
▁ellut	-4200
▁kär	-4201
▁krii	-4202
▁tutu	-4203
▁ökse	-4204
▁seksi	-4205
▁koo	-4206
▁ost	-4207
▁uov	-4208
▁lisi	-4209
▁takin	-4210
▁ttävä	-4211
▁ns	-4212
▁ym	-4213
▁opi	-4214
▁ntoa	-4215
▁tuul	-4216
▁äkkä	-4217
▁oinni	-4218
▁tystä	-4219
▁eil	-4220
▁älä	-4221
▁oida	-4222
▁muute	-4223
▁nteis	-4224
▁huip	-4225
▁oiva	-4226
▁averi	-4227
▁deksi	-4228
▁neita	-4229
▁raken	-4230
▁kal	-4231
▁nai	-4232
▁kivi	-4233
▁ttyä	-4234
▁aide	-4235
▁gram	-4236
▁yd	-4237
▁anha	-4238
▁siin	-4239
▁suju	-4240
▁ch	-4241
▁int	-4242
▁oom	-4243
▁näki	-4244
▁palk	-4245
▁uotte	-4246
▁aas	-4247
▁sur	-4248
▁alvo	-4249
▁öiden	-4250
▁USA	-4251
▁änt	-4252
▁kene	-4253
▁ulta	-4254
▁ähkö	-4255
▁x	-4256
▁sea	-4257
▁aara	-4258
▁aust	-4259
▁orma	-4260
▁eskit	-4261
mpu	-4262
▁iks	-4263
▁itt	-4264
▁nähd	-4265
▁tävää	-4266
▁imä	-4267
▁öjä	-4268
▁ökk	-4269
▁tuha	-4270
▁laati	-4271
▁tei	-4272
▁etuk	-4273
▁akku	-4274
▁atto	-4275
▁pään	-4276
▁pääs	-4277
▁nlop	-4278
▁äntö	-4279
▁isyy	-4280
▁oku	-4281
▁pen	-4282
▁vuu	-4283
▁iassa	-4284
▁nosti	-4285
▁1,	-4286
▁St	-4287
▁kyy	-4288
▁kail	-4289
▁onsa	-4290
▁kossa	-4291
▁miste	-4292
▁elj	-4293
▁uho	-4294
▁eltä	-4295
▁enkä	-4296
▁nalai	-4297
▁ees	-4298
▁lty	-4299
▁apah	-4300
▁kaal	-4301
▁koja	-4302
▁sm	-4303
▁Kur	-4304
▁ode	-4305
▁rok	-4306
▁diag	-4307
▁henk	-4308
▁nmaa	-4309
▁kulku	-4310
▁suute	-4311
▁[	-4312
▁29	-4313
▁auti	-4314
▁ntel	-4315
▁väis	-4316
ere	-4317
▁nh	-4318
▁syv	-4319
▁nnist	-4320
▁erhe	-4321
▁öytä	-4322
▁aalli	-4323
▁]	-4324
▁Wil	-4325
▁ven	-4326
▁utun	-4327
▁ohjan	-4328
▁spe	-4329
▁paran	-4330
▁salli	-4331
▁suori	-4332
▁epp	-4333
▁must	-4334
▁isyyd	-4335
▁ämään	-4336
▁ania	-4337
▁enäl	-4338
▁ital	-4339
▁iusa	-4340
▁äyte	-4341
mmo	-4342
▁Poh	-4343
▁itto	-4344
▁ulma	-4345
▁jö	-4346
▁Ant	-4347
▁nkk	-4348
▁det	-4349
▁käs	-4350
▁läs	-4351
▁äär	-4352
▁osak	-4353
▁400	-4354
▁ilja	-4355
▁lasi	-4356
▁sket	-4357
▁verk	-4358
▁oneen	-4359
isto	-4360
▁Ede	-4361
▁she	-4362
▁ikeus	-4363
▁tajaa	-4364
▁välis	-4365
▁eim	-4366
▁ioi	-4367
▁rop	-4368
▁änd	-4369
▁As	-4370
▁oc	-4371
▁rie	-4372
▁Pol	-4373
▁aak	-4374
▁uli	-4375
▁etsä	-4376
▁lk	-4377
▁väk	-4378
▁utui	-4379
gan	-4380
▁fi	-4381
▁ega	-4382
▁iita	-4383
▁ttane	-4384
fa	-4385
▁300	-4386
▁uen	-4387
▁yti	-4388
▁noo	-4389
▁tre	-4390
▁nnet	-4391
▁tein	-4392
▁altai	-4393
▁aremm	-4394
▁juoks	-4395
▁ralla	-4396
▁Ny	-4397
▁Ari	-4398
▁odo	-4399
▁ret	-4400
▁appe	-4401
▁mala	-4402
▁ohti	-4403
▁tilä	-4404
▁ttoi	-4405
▁80	-4406
▁ars	-4407
▁reit	-4408
▁varma	-4409
▁emä	-4410
▁Sy	-4411
▁sv	-4412
▁Koi	-4413
▁kus	-4414
▁astau	-4415
▁tinen	-4416
▁aike	-4417
▁auha	-4418
▁nite	-4419
▁delle	-4420
▁sessa	-4421
▁tym	-4422
▁uja	-4423
▁uso	-4424
▁auka	-4425
▁pasi	-4426
▁vala	-4427
▁altaa	-4428
▁korva	-4429
▁nmaan	-4430
▁Joh	-4431
▁ttis	-4432
▁väki	-4433
▁öntä	-4434
mb	-4435
▁itk	-4436
▁mari	-4437
▁tont	-4438
▁vist	-4439
▁äyty	-4440
▁isten	-4441
▁nku	-4442
▁vit	-4443
▁Koivu	-4444
▁ittav	-4445
▁Ba	-4446
▁uit	-4447
▁yön	-4448
▁etus	-4449
▁ulla	-4450
up	-4451
▁inh	-4452
▁aaka	-4453
▁kuri	-4454
▁pailu	-4455
▁selvä	-4456
▁tanee	-4457
▁kät	-4458
▁tit	-4459
▁ankk	-4460
▁ieni	-4461
▁staa	-4462
▁työt	-4463
▁ulkom	-4464
▁ez	-4465
▁kuo	-4466
▁aitos	-4467
▁alkan	-4468
▁isenä	-4469
▁are	-4470
▁imp	-4471
▁eeri	-4472
▁olme	-4473
▁stav	-4474
▁unen	-4475
▁untia	-4476
▁70	-4477
▁idä	-4478
▁yöt	-4479
▁herä	-4480
▁yssä	-4481
▁istel	-4482
▁itys	-4483
▁ment	-4484
▁osen	-4485
▁moott	-4486
▁yistä	-4487
▁uhk	-4488
▁emmat	-4489
▁llist	-4490
▁ult	-4491
▁issi	-4492
▁PS	-4493
▁dis	-4494
▁not	-4495
▁rmo	-4496
▁askel	-4497
▁ittai	-4498
▁Wal	-4499
▁Leht	-4500
▁Pohj	-4501
▁laaja	-4502
▁ias	-4503
▁kej	-4504
▁avid	-4505
▁koil	-4506
▁oisia	-4507
▁telle	-4508
▁toive	-4509
▁oks	-4510
▁iris	-4511
▁irka	-4512
▁ousu	-4513
▁ytys	-4514
▁uihin	-4515
▁yksis	-4516
▁log	-4517
▁tok	-4518
▁tra	-4519
▁anma	-4520
▁kkee	-4521
▁ttui	-4522
▁entää	-4523
▁oilta	-4524
▁tynyt	-4525
end	-4526
▁tko	-4527
▁oistu	-4528
▁suoja	-4529
▁tavaa	-4530
▁Ur	-4531
▁Lep	-4532
▁inte	-4533
▁Viron	-4534
▁iigan	-4535
▁ge	-4536
▁sd	-4537
▁pos	-4538
▁kava	-4539
▁eko	-4540
▁lia	-4541
▁yst	-4542
▁alai	-4543
▁koise	-4544
▁hir	-4545
▁arje	-4546
▁ähti	-4547
▁vassa	-4548
▁go	-4549
▁auh	-4550
▁mii	-4551
▁tyi	-4552
▁vet	-4553
▁Caro	-4554
▁iell	-4555
▁ikki	-4556
▁njoh	-4557
▁tuut	-4558
▁nettu	-4559
▁be	-4560
▁ämp	-4561
▁Viro	-4562
▁innos	-4563
▁sän	-4564
▁adan	-4565
▁iekk	-4566
▁fr	-4567
▁ima	-4568
▁rap	-4569
▁erän	-4570
▁htaa	-4571
▁atkuv	-4572
▁konee	-4573
▁uluva	-4574
▁Wa	-4575
▁opeu	-4576
▁oppu	-4577
▁jokai	-4578
▁omero	-4579
ft	-4580
▁Oy	-4581
▁aks	-4582
▁leh	-4583
▁itty	-4584
▁paan	-4585
▁Kr	-4586
▁Matt	-4587
▁merk	-4588
▁okuv	-4589
▁kuvat	-4590
▁lanti	-4591
▁dop	-4592
▁ved	-4593
▁rista	-4594
▁kuv	-4595
▁lku	-4596
▁ons	-4597
▁tes	-4598
▁ikan	-4599
▁kari	-4600
▁aalis	-4601
▁huolt	-4602
▁ekä	-4603
▁äne	-4604
▁öin	-4605
▁arka	-4606
▁nsim	-4607
▁tasi	-4608
▁tauo	-4609
▁tyyl	-4610
▁yvät	-4611
▁ankar	-4612
▁45	-4613
▁avia	-4614
▁innu	-4615
▁styks	-4616
▁arta	-4617
▁tarv	-4618
▁atvia	-4619
▁einen	-4620
▁km	-4621
▁lio	-4622
▁tau	-4623
▁äisi	-4624
▁änet	-4625
▁laski	-4626
kär	-4627
▁Ri	-4628
▁eos	-4629
▁ävy	-4630
▁htiö	-4631
▁joukk	-4632
▁läsnä	-4633
▁yhtey	-4634
▁tyk	-4635
▁asva	-4636
▁evät	-4637
▁iilo	-4638
▁neis	-4639
▁kiva	-4640
▁tuus	-4641
▁laitt	-4642
▁omien	-4643
▁ulkop	-4644
▁Mai	-4645
▁Tur	-4646
▁hai	-4647
▁kah	-4648
▁lent	-4649
▁luks	-4650
▁ntia	-4651
▁siiv	-4652
▁töks	-4653
▁vissa	-4654
▁Bo	-4655
▁out	-4656
▁alio	-4657
▁istaa	-4658
▁Au	-4659
▁mö	-4660
▁amo	-4661
▁eljä	-4662
▁kuit	-4663
▁matk	-4664
▁liv	-4665
▁löi	-4666
▁nik	-4667
▁uet	-4668
▁yne	-4669
▁anss	-4670
▁iedo	-4671
▁ace	-4672
▁kym	-4673
▁mys	-4674
▁ataa	-4675
▁Di	-4676
▁SA	-4677
▁lou	-4678
▁iste	-4679
▁link	-4680
▁utti	-4681
▁konen	-4682
bin	-4683
▁mmo	-4684
▁golf	-4685
▁saane	-4686
▁tarin	-4687
▁jalk	-4688
▁rauh	-4689
▁usto	-4690
▁ostam	-4691
gg	-4692
▁Ol	-4693
▁eny	-4694
▁lak	-4695
▁alon	-4696
▁eltu	-4697
▁mpere	-4698
▁odote	-4699
▁inl	-4700
▁kim	-4701
▁äsk	-4702
▁kop	-4703
▁ävä	-4704
▁jonk	-4705
▁otim	-4706
▁tkin	-4707
▁lukse	-4708
▁hit	-4709
▁köi	-4710
▁elpo	-4711
▁nnoi	-4712
▁nsin	-4713
▁sikko	-4714
▁teema	-4715
▁tteli	-4716
▁aast	-4717
▁lari	-4718
▁ähde	-4719
▁ca	-4720
▁erin	-4721
▁llan	-4722
▁äsen	-4723
▁entaa	-4724
KP	-4725
za	-4726
▁For	-4727
▁Max	-4728
▁	-4729
a	-4730
i	-4731
t	-4732
n	-4733
e	-4734
s	-4735
l	-4736
o	-4737
u	-4738
k	-4739
ä	-4740
m	-4741
r	-4742
v	-4743
h	-4744
p	-4745
j	-4746
y	-4747
.	-4748
d	-4749
,	-4750
ö	-4751
S	-4752
-	-4753
K	-4754
T	-4755
M	-4756
0	-4757
P	-4758
H	-4759
g	-4760
V	-4761
2	-4762
L	-4763
1	-4764
A	-4765
E	-4766
J	-4767
N	-4768
b	-4769
R	-4770
:	-4771
O	-4772
I	-4773
c	-4774
f	-4775
"	-4776
B	-4777
U	-4778
3	-4779
5	-4780
Y	-4781
4	-4782
C	-4783
9	-4784
F	-4785
6	-4786
D	-4787
8	-4788
7	-4789
)	-4790
(	-4791
G	-4792
z	-4793
w	-4794
W	-4795
?	-4796
x	-4797
­	-4798
/	-4799
!	-4800
Z	-4801
X	-4802
Ä	-4803
+	-4804
é	-4805
'	-4806
q	-4807
š	-4808
&	-4809
%	-4810
ü	-4811
å	-4812
Q	-4813
]	-4814
[	-4815
Ö	-4816
á	-4817
=	-4818
€	-4819
̈	-4820
Å	-4821
ž	-4822
ø	-4823
;	-4824
í	-4825
о	-4826
*	-4827
а	-4828
@	-4829
н	-4830
е	-4831
>	-4832
и	-4833
ó	-4834
Š	-4835
т	-4836
р	-4837
с	-4838
■	-4839
л	-4840
в	-4841
−	-4842
ñ	-4843
к	-4844
ë	-4845
è	-4846
д	-4847
у	-4848
č	-4849
#	-4850
г	-4851
п	-4852
ы	-4853
я	-4854
_	-4855
★	-4856
м	-4857
Ã	-4858
â	-4859
⁄	-4860
¤	-4861
ã	-4862
ú	-4863
à	-4864
ć	-4865
б	-4866
й	-4867
ğ	-4868
ł	-4869
ь	-4870
§	-4871
Á	-4872
з	-4873
ç	-4874
·	-4875
æ	-4876
ч	-4877
É	-4878
ý	-4879
ю	-4880
Ž	-4881
õ	-4882
<	-4883
ï	-4884
×	-4885
Ü	-4886
ô	-4887
ř	-4888
Ø	-4889
ð	-4890
ń	-4891
ж	-4892
х	-4893
Č	-4894
ě	-4895
В	-4896
ц	-4897
	-4898
°	-4899
ê	-4900
С	-4901
Ф	-4902
©	-4903
П	-4904
‒	-4905
Õ	-4906
Ú	-4907
ă	-4908
ė	-4909
ņ	-4910
́	-4911
ш	-4912
щ	-4913
	-4914
Ç	-4915
ß	-4916
ò	-4917
ā	-4918
ē	-4919
ı	-4920
ū	-4921
μ	-4922
А	-4923
Б	-4924
ф	-4925
э	-4926
‐	-4927
•	-4928
⭐	-4929
Æ	-4930
Í	-4931
Þ	-4932
ō	-4933
ț	-4934
α	-4935
К	-4936
Ш	-4937
●	-4938
$	-4939
\	-4940
`	-4941
¶	-4942
À	-4943
Ó	-4944
İ	-4945
ň	-4946
ŏ	-4947
œ	-4948
ş	-4949
ů	-4950
ż	-4951
ə	-4952
˗	-4953
Ж	-4954
И	-4955
Л	-4956
Н	-4957
‰	-4958
′	-4959
⁣	-4960
~	-4961
	-4962
¡	-4963
®	-4964
±	-4965
Â	-4966
Ò	-4967
Û	-4968
ì	-4969
î	-4970
û	-4971
ÿ	-4972
ą	-4973
đ	-4974
ę	-4975
ģ	-4976
ī	-4977
Ķ	-4978
ľ	-4979
Ł	-4980
ś	-4981
ų	-4982
ź	-4983
ǎ	-4984
Ș	-4985
ș	-4986
Д	-4987
З	-4988
О	-4989
Т	-4990
Э	-4991
ỏ	-4992
ố	-4993
‍	-4994
∞	-4995
😂	-4996
