<unk>	0
<s>	0
</s>	0
▁a	-0
▁t	-1
▁i	-2
▁e	-3
▁n	-4
▁s	-5
▁k	-6
▁o	-7
▁u	-8
▁l	-9
▁m	-10
▁.	-11
▁v	-12
ta	-13
▁p	-14
en	-15
▁j	-16
is	-17
in	-18
▁,	-19
an	-20
sa	-21
▁ä	-22
▁h	-23
▁ta	-24
si	-25
tä	-26
ll	-27
▁y	-28
▁ll	-29
ti	-30
▁en	-31
▁r	-32
▁an	-33
▁is	-34
ut	-35
▁on	-36
ka	-37
▁ja	-38
li	-39
▁in	-40
it	-41
än	-42
el	-43
▁tu	-44
ik	-45
▁et	-46
se	-47
▁va	-48
er	-49
▁S	-50
▁-	-51
to	-52
aa	-53
▁uo	-54
▁al	-55
▁ti	-56
▁ssa	-57
▁ko	-58
▁jo	-59
▁tä	-60
▁K	-61
va	-62
▁ku	-63
ki	-64
te	-65
▁T	-66
tu	-67
uo	-68
sä	-69
oi	-70
de	-71
me	-72
▁M	-73
us	-74
▁er	-75
ko	-76
ke	-77
▁ei	-78
▁aa	-79
▁H	-80
▁P	-81
▁te	-82
yt	-83
▁ka	-84
▁ol	-85
▁ar	-86
▁si	-87
▁lla	-88
es	-89
▁as	-90
ää	-91
▁es	-92
ja	-93
▁la	-94
ma	-95
▁sta	-96
▁V	-97
et	-98
yö	-99
▁2	-100
▁oli	-101
lla	-102
▁että	-103
den	-104
▁il	-105
mi	-106
▁ma	-107
▁ai	-108
ra	-109
ksi	-110
▁se	-111
▁na	-112
▁el	-113
▁L	-114
▁uu	-115
▁än	-116
on	-117
▁nn	-118
▁lle	-119
ku	-120
▁1	-121
▁A	-122
▁vi	-123
▁pa	-124
▁sa	-125
▁E	-126
▁0	-127
ri	-128
uu	-129
ty	-130
kse	-131
il	-132
▁us	-133
▁J	-134
▁at	-135
pa	-136
na	-137
▁nä	-138
ät	-139
mm	-140
▁to	-141
▁N	-142
▁it	-143
la	-144
lle	-145
vat	-146
ks	-147
▁ni	-148
he	-149
▁R	-150
hd	-151
▁:	-152
vi	-153
▁ra	-154
▁hän	-155
mp	-156
ro	-157
▁ia	-158
▁ssä	-159
▁ais	-160
llä	-161
▁jä	-162
▁kä	-163
kaan	-164
▁O	-165
▁ne	-166
ssa	-167
▁llis	-168
▁I	-169
▁lä	-170
▁kun	-171
▁mi	-172
ul	-173
▁nen	-174
▁aik	-175
▁un	-176
▁d	-177
▁llä	-178
kä	-179
▁ukaan	-180
le	-181
ina	-182
utta	-183
▁ole	-184
ne	-185
▁myö	-186
▁oi	-187
▁taa	-188
▁ty	-189
rj	-190
lo	-191
▁ha	-192
▁vä	-193
▁yh	-194
▁ih	-195
▁au	-196
▁ki	-197
un	-198
▁ää	-199
▁ii	-200
▁ot	-201
▁no	-202
mis	-203
▁"	-204
▁tta	-205
vo	-206
▁pää	-207
▁ke	-208
tel	-209
ys	-210
▁ö	-211
▁stä	-212
▁le	-213
▁pi	-214
▁ksi	-215
▁li	-216
isi	-217
sta	-218
▁ista	-219
▁aan	-220
▁saa	-221
▁B	-222
▁myös	-223
▁issa	-224
▁ur	-225
pp	-226
▁mu	-227
▁kin	-228
▁san	-229
▁per	-230
lli	-231
▁toi	-232
ine	-233
mä	-234
▁sen	-235
▁aj	-236
▁aika	-237
▁tti	-238
oit	-239
▁ys	-240
ha	-241
▁ie	-242
▁ten	-243
kk	-244
▁nyt	-245
▁sy	-246
▁voi	-247
vä	-248
▁erto	-249
▁ovat	-250
tö	-251
▁po	-252
▁ul	-253
▁U	-254
▁Y	-255
▁iin	-256
▁so	-257
ot	-258
▁3	-259
▁tun	-260
▁vat	-261
▁mutta	-262
▁lo	-263
▁nut	-264
▁asi	-265
▁tel	-266
▁esi	-267
▁he	-268
inen	-269
taa	-270
▁iden	-271
▁kse	-272
▁oh	-273
▁oit	-274
▁os	-275
▁lta	-276
▁tie	-277
▁or	-278
ise	-279
▁vuo	-280
al	-281
ni	-282
ike	-283
▁maa	-284
▁5	-285
▁kau	-286
▁inen	-287
▁ään	-288
▁ttiin	-289
ue	-290
▁C	-291
▁ukse	-292
▁eh	-293
▁val	-294
▁hy	-295
▁toimi	-296
ia	-297
▁tää	-298
▁jen	-299
▁iik	-300
▁oll	-301
▁ttu	-302
▁4	-303
▁op	-304
▁uk	-305
uh	-306
▁tapa	-307
▁tai	-308
▁työ	-309
st	-310
▁uus	-311
▁9	-312
▁osa	-313
▁itä	-314
ten	-315
▁ien	-316
▁mä	-317
▁nta	-318
▁läh	-319
▁tila	-320
▁nsa	-321
jä	-322
▁Hän	-323
▁taj	-324
äi	-325
▁sano	-326
▁tan	-327
▁Suo	-328
▁ille	-329
ist	-330
kin	-331
jo	-332
▁vasta	-333
▁ah	-334
▁suu	-335
▁aut	-336
▁ollut	-337
▁äs	-338
▁ala	-339
▁illa	-340
ime	-341
▁ise	-342
▁ker	-343
▁jäl	-344
▁ita	-345
▁mis	-346
▁esti	-347
▁F	-348
▁ter	-349
▁alla	-350
▁lu	-351
▁suo	-352
▁uol	-353
▁tar	-354
vät	-355
▁ky	-356
ar	-357
▁ertoo	-358
▁kes	-359
or	-360
▁uon	-361
ve	-362
▁b	-363
pi	-364
▁nne	-365
▁min	-366
▁ut	-367
▁enn	-368
▁oike	-369
▁esta	-370
▁(	-371
enä	-372
▁re	-373
▁D	-374
ulu	-375
▁tus	-376
▁taina	-377
▁uut	-378
▁joka	-379
▁sto	-380
men	-381
▁)	-382
▁jälke	-383
▁men	-384
▁iä	-385
os	-386
▁G	-387
▁ttä	-388
▁ri	-389
hdo	-390
ur	-391
rit	-392
▁ak	-393
▁yhte	-394
▁tö	-395
▁ensi	-396
▁isi	-397
▁ap	-398
vu	-399
▁ed	-400
ite	-401
▁kuin	-402
▁anssa	-403
▁täm	-404
▁viime	-405
▁koko	-406
▁de	-407
▁6	-408
▁taja	-409
▁tam	-410
▁een	-411
▁f	-412
▁ase	-413
▁eri	-414
uk	-415
▁tän	-416
▁8	-417
▁niin	-418
▁uonna	-419
▁itse	-420
so	-421
▁päi	-422
rä	-423
▁am	-424
▁oliis	-425
▁7	-426
pä	-427
▁ro	-428
▁koh	-429
ky	-430
▁yksi	-431
▁eis	-432
itä	-433
▁taan	-434
enäj	-435
▁Venäj	-436
▁mme	-437
▁kan	-438
▁muu	-439
▁olisi	-440
▁nkin	-441
▁isä	-442
no	-443
▁uh	-444
▁pel	-445
▁tule	-446
tka	-447
ee	-448
▁tut	-449
do	-450
▁uomen	-451
▁g	-452
▁äi	-453
▁vai	-454
▁käyt	-455
▁iit	-456
elä	-457
▁sai	-458
▁alue	-459
ska	-460
▁Se	-461
▁ilu	-462
▁Suome	-463
ppu	-464
▁halli	-465
▁teh	-466
llo	-467
▁ana	-468
▁eu	-469
▁essa	-470
▁joh	-471
▁sanoo	-472
▁asia	-473
mo	-474
▁sti	-475
ura	-476
▁uot	-477
▁ik	-478
▁huo	-479
▁yli	-480
ikk	-481
▁kuite	-482
▁ir	-483
▁var	-484
▁luo	-485
▁sä	-486
lu	-487
mme	-488
▁asti	-489
vin	-490
▁tanut	-491
▁nto	-492
▁täv	-493
▁pu	-494
▁yl	-495
▁vät	-496
ir	-497
yy	-498
kö	-499
▁tapah	-500
tää	-501
tio	-502
▁W	-503
▁ihin	-504
▁rk	-505
▁ve	-506
▁yö	-507
kus	-508
vel	-509
▁oma	-510
▁teri	-511
00	-512
▁ry	-513
emm	-514
▁yy	-515
man	-516
▁uoden	-517
esti	-518
▁assa	-519
▁ohj	-520
da	-521
▁auto	-522
▁uksi	-523
▁ainen	-524
▁oikeu	-525
▁sekä	-526
utu	-527
▁ede	-528
▁ui	-529
▁tuo	-530
▁ident	-531
▁seura	-532
▁ukku	-533
▁elä	-534
kaa	-535
▁käy	-536
▁epä	-537
▁tukse	-538
▁aikki	-539
▁olla	-540
res	-541
▁ottel	-542
▁perus	-543
▁mää	-544
▁ihmis	-545
▁van	-546
▁maan	-547
kem	-548
▁mer	-549
▁lais	-550
▁ukkue	-551
▁vielä	-552
▁ava	-553
▁av	-554
▁yt	-555
▁alais	-556
▁me	-557
▁hänen	-558
▁Sa	-559
isä	-560
▁tse	-561
▁istä	-562
▁näyt	-563
ino	-564
dot	-565
▁jat	-566
▁lö	-567
ikä	-568
▁vuoti	-569
▁yrit	-570
▁mies	-571
lta	-572
▁isto	-573
pe	-574
▁ee	-575
▁kol	-576
rjo	-577
▁mahdo	-578
▁tur	-579
▁uude	-580
▁uussa	-581
▁ua	-582
▁uole	-583
rja	-584
▁nte	-585
▁vaa	-586
tti	-587
rje	-588
▁ertoi	-589
▁päivä	-590
▁issä	-591
▁vain	-592
▁nsä	-593
▁väli	-594
▁neet	-595
▁kat	-596
▁nki	-597
▁tav	-598
▁eli	-599
▁euro	-600
tei	-601
▁aina	-602
di	-603
▁ilta	-604
▁ng	-605
ol	-606
om	-607
▁kaa	-608
▁siitä	-609
▁ks	-610
▁par	-611
▁ent	-612
rai	-613
▁talo	-614
▁vuosi	-615
▁aja	-616
▁?	-617
▁den	-618
▁pres	-619
mu	-620
mpi	-621
▁Uk	-622
aaj	-623
▁asu	-624
▁Ukrai	-625
▁ät	-626
▁pro	-627
po	-628
▁nais	-629
▁ykse	-630
▁mie	-631
iks	-632
▁tutki	-633
▁emm	-634
gi	-635
▁anna	-636
▁itten	-637
▁kis	-638
▁muut	-639
▁sitä	-640
▁sanoi	-641
▁oin	-642
▁jul	-643
vio	-644
▁suom	-645
▁rkiks	-646
▁iih	-647
▁tark	-648
▁ote	-649
▁syy	-650
▁jää	-651
▁ina	-652
▁ier	-653
▁aikut	-654
lö	-655
▁use	-656
▁puo	-657
▁pit	-658
▁järje	-659
▁nkilö	-660
▁liik	-661
▁määrä	-662
▁kas	-663
ga	-664
▁alj	-665
är	-666
täv	-667
▁sel	-668
▁minis	-669
▁noin	-670
▁pun	-671
▁alle	-672
▁asta	-673
tus	-674
ru	-675
▁suur	-676
▁aali	-677
op	-678
as	-679
▁aljon	-680
▁ill	-681
ide	-682
▁uun	-683
tee	-684
▁pal	-685
▁voit	-686
▁lait	-687
▁aus	-688
▁haa	-689
▁eskus	-690
▁turva	-691
▁äl	-692
rke	-693
▁ver	-694
yty	-695
▁kaksi	-696
▁alta	-697
▁uusi	-698
ran	-699
▁tava	-700
ilm	-701
▁ist	-702
▁lin	-703
▁olev	-704
▁aailm	-705
▁sam	-706
▁uuta	-707
▁jos	-708
▁jossa	-709
▁c	-710
▁ennen	-711
▁alvel	-712
▁mit	-713
▁Tä	-714
▁isäks	-715
▁ili	-716
▁Yhd	-717
▁hyö	-718
taan	-719
▁ois	-720
▁nti	-721
ika	-722
▁eivät	-723
▁vaih	-724
▁ella	-725
▁Hel	-726
sit	-727
▁kunna	-728
ana	-729
maan	-730
▁halu	-731
▁mon	-732
▁tuli	-733
▁aikka	-734
▁esime	-735
▁ulko	-736
▁prose	-737
▁koska	-738
▁ikä	-739
ele	-740
▁pys	-741
▁mil	-742
▁hyvin	-743
▁sillä	-744
▁edus	-745
▁äh	-746
▁­	-747
▁paika	-748
▁ij	-749
▁lleen	-750
▁uis	-751
▁utu	-752
▁ettei	-753
▁erk	-754
▁ansa	-755
toi	-756
▁vali	-757
▁kul	-758
▁puhe	-759
▁aksi	-760
▁tänyt	-761
▁iko	-762
ita	-763
▁muun	-764
▁kil	-765
▁ran	-766
▁ann	-767
▁las	-768
▁lline	-769
▁uassa	-770
▁Yhdys	-771
▁usta	-772
▁toise	-773
▁Ilta	-774
em	-775
▁Tru	-776
▁nuo	-777
▁Trump	-778
▁kuva	-779
▁nnut	-780
▁tiin	-781
▁ell	-782
▁eksi	-783
▁pe	-784
▁komm	-785
ssä	-786
▁arvo	-787
▁tulee	-788
▁äät	-789
▁istu	-790
iste	-791
▁tulo	-792
▁julk	-793
▁uolus	-794
ttu	-795
▁tyis	-796
▁pitkä	-797
▁aihe	-798
▁arvio	-799
du	-800
tom	-801
hti	-802
▁puh	-803
▁ic	-804
▁Jo	-805
▁valta	-806
iko	-807
▁esit	-808
▁sopi	-809
vis	-810
▁kuu	-811
▁opu	-812
▁aluee	-813
ään	-814
▁urhe	-815
▁illä	-816
▁hi	-817
▁oon	-818
▁väh	-819
▁ilpa	-820
pu	-821
▁unn	-822
▁istö	-823
van	-824
▁ilm	-825
▁da	-826
stä	-827
▁ässä	-828
▁pien	-829
ppi	-830
▁kesä	-831
▁haast	-832
▁ltä	-833
▁pitää	-834
▁tieto	-835
▁rake	-836
▁mitä	-837
▁ing	-838
rin	-839
joh	-840
▁lut	-841
▁etä	-842
▁tul	-843
▁äy	-844
▁mar	-845
▁suh	-846
▁kerto	-847
▁tode	-848
▁uotta	-849
ho	-850
▁uomi	-851
▁jon	-852
▁elaaj	-853
▁euroa	-854
▁lap	-855
▁pois	-856
inä	-857
▁raa	-858
▁altio	-859
▁etty	-860
▁ata	-861
▁matka	-862
▁st	-863
▁neu	-864
hde	-865
▁all	-866
kiv	-867
ksa	-868
▁elo	-869
▁kunta	-870
▁milj	-871
ssi	-872
▁uutta	-873
▁teki	-874
▁paikk	-875
▁su	-876
▁miele	-877
▁ou	-878
▁epäil	-879
▁nel	-880
▁ryh	-881
▁jotka	-882
▁suun	-883
▁olo	-884
▁etta	-885
▁iiko	-886
▁anne	-887
▁nee	-888
▁ilmoi	-889
▁äiv	-890
▁sesti	-891
▁tor	-892
▁kansa	-893
▁ajan	-894
▁kut	-895
▁piste	-896
▁sin	-897
▁iso	-898
▁koti	-899
▁eid	-900
▁tiedo	-901
▁amp	-902
▁iksi	-903
▁om	-904
▁En	-905
▁ällä	-906
▁ttav	-907
▁Helsi	-908
▁000	-909
▁mmä	-910
▁ettu	-911
▁Jos	-912
▁uuden	-913
▁teli	-914
▁oulu	-915
jan	-916
▁loppu	-917
▁estar	-918
▁em	-919
▁etaan	-920
▁Ku	-921
▁ymp	-922
▁jonka	-923
▁iikko	-924
▁eikä	-925
su	-926
▁vara	-927
▁Ma	-928
▁kään	-929
▁neuvo	-930
▁rin	-931
kki	-932
▁ny	-933
deo	-934
▁annat	-935
▁nuor	-936
▁tavat	-937
▁/	-938
▁ilma	-939
▁päät	-940
▁ena	-941
▁lan	-942
▁oja	-943
▁valme	-944
▁ru	-945
▁ag	-946
▁nan	-947
▁etke	-948
▁oti	-949
▁eidän	-950
▁peli	-951
▁sija	-952
▁neljä	-953
▁ntti	-954
▁ttel	-955
▁äyt	-956
▁ussa	-957
▁aiemm	-958
▁kor	-959
▁suunn	-960
ini	-961
▁py	-962
▁minen	-963
▁empi	-964
▁nno	-965
▁elle	-966
▁vah	-967
▁tuu	-968
▁voima	-969
▁perhe	-970
▁ese	-971
▁emmin	-972
▁ulo	-973
▁ehdo	-974
▁lii	-975
▁är	-976
▁tui	-977
▁anta	-978
▁ensim	-979
▁tuot	-980
▁tois	-981
▁näh	-982
▁iihen	-983
▁enne	-984
▁alu	-985
▁ohjel	-986
▁yhde	-987
▁usko	-988
▁Kun	-989
▁hyökk	-990
▁alo	-991
▁vir	-992
▁ntaj	-993
▁lau	-994
▁ivat	-995
bb	-996
▁ntä	-997
▁uomio	-998
▁iitty	-999
▁pol	-1000
▁uksia	-1001
hjo	-1002
▁kon	-1003
▁iel	-1004
▁han	-1005
▁tämän	-1006
▁kerro	-1007
der	-1008
▁enemm	-1009
▁kolme	-1010
▁ari	-1011
▁tty	-1012
kka	-1013
▁nou	-1014
▁saat	-1015
▁uutis	-1016
▁lisä	-1017
▁ulj	-1018
▁iesti	-1019
lai	-1020
▁imm	-1021
▁ästi	-1022
▁tulev	-1023
▁ete	-1024
hdä	-1025
▁kaan	-1026
▁ev	-1027
▁raj	-1028
▁kesku	-1029
kau	-1030
▁aloit	-1031
▁täj	-1032
▁uolue	-1033
▁isää	-1034
▁teen	-1035
sti	-1036
▁taso	-1037
▁ttaa	-1038
▁ong	-1039
▁up	-1040
tiö	-1041
▁tunne	-1042
▁lähet	-1043
▁eja	-1044
▁tämä	-1045
▁sisä	-1046
tk	-1047
▁stö	-1048
▁säh	-1049
▁kirjo	-1050
▁sarja	-1051
▁puhu	-1052
kai	-1053
▁jät	-1054
ev	-1055
hin	-1056
▁etään	-1057
▁uotsi	-1058
▁met	-1059
▁aiheu	-1060
▁Myö	-1061
▁hel	-1062
▁mus	-1063
▁katso	-1064
▁odot	-1065
ea	-1066
▁im	-1067
▁Stu	-1068
▁ris	-1069
▁Myös	-1070
▁almis	-1071
oli	-1072
ksy	-1073
▁yll	-1074
dia	-1075
▁keski	-1076
▁man	-1077
▁suhte	-1078
▁juo	-1079
▁Vi	-1080
▁sähkö	-1081
▁id	-1082
▁oj	-1083
▁juh	-1084
▁atta	-1085
▁antaa	-1086
▁pungi	-1087
▁staan	-1088
▁myy	-1089
▁mur	-1090
▁len	-1091
▁isiin	-1092
ton	-1093
▁kyse	-1094
▁eks	-1095
▁Stubb	-1096
▁Mar	-1097
▁Suomi	-1098
▁aine	-1099
▁nope	-1100
▁näkö	-1101
▁tällä	-1102
▁onn	-1103
▁Tämä	-1104
▁kirj	-1105
▁aisu	-1106
sk	-1107
len	-1108
▁tee	-1109
▁arj	-1110
▁äys	-1111
▁erjan	-1112
▁keh	-1113
▁ali	-1114
▁Nyt	-1115
▁ajat	-1116
▁löyty	-1117
ter	-1118
▁estä	-1119
▁amis	-1120
▁ttö	-1121
ras	-1122
▁itään	-1123
▁hyvä	-1124
▁Ei	-1125
▁Ka	-1126
▁ajo	-1127
▁mm	-1128
▁pysty	-1129
oin	-1130
▁media	-1131
▁hin	-1132
▁Kuva	-1133
▁joutu	-1134
▁mmäis	-1135
äin	-1136
▁tunti	-1137
▁amma	-1138
▁sää	-1139
aal	-1140
▁uro	-1141
▁ian	-1142
▁lähe	-1143
▁neen	-1144
ito	-1145
▁jär	-1146
▁ken	-1147
▁ehti	-1148
▁hen	-1149
▁entoi	-1150
▁kirja	-1151
▁häne	-1152
▁miten	-1153
tuu	-1154
▁alku	-1155
▁perä	-1156
▁eläm	-1157
▁aatio	-1158
▁astus	-1159
▁eseen	-1160
▁aku	-1161
▁eillä	-1162
▁tään	-1163
▁io	-1164
▁aal	-1165
▁kisa	-1166
▁yhtiö	-1167
▁ju	-1168
▁usi	-1169
▁San	-1170
▁ohta	-1171
▁arha	-1172
ck	-1173
▁Ch	-1174
▁pari	-1175
▁lää	-1176
nt	-1177
▁iis	-1178
▁mikä	-1179
sen	-1180
▁äis	-1181
▁Po	-1182
▁asian	-1183
▁huoma	-1184
▁lääk	-1185
▁tarvi	-1186
▁tarjo	-1187
▁vaan	-1188
re	-1189
▁ama	-1190
▁ihan	-1191
▁nime	-1192
kea	-1193
▁MM	-1194
▁ani	-1195
▁ero	-1196
▁kaude	-1197
▁ilij	-1198
▁ov	-1199
▁kk	-1200
▁iet	-1201
▁maali	-1202
▁osall	-1203
▁sivu	-1204
▁enjoh	-1205
▁vaal	-1206
▁essä	-1207
▁tunut	-1208
▁iera	-1209
ikko	-1210
▁alk	-1211
▁ympär	-1212
▁sil	-1213
▁ura	-1214
▁video	-1215
▁ertaa	-1216
▁kö	-1217
▁äänes	-1218
my	-1219
▁sopim	-1220
paa	-1221
▁ori	-1222
▁nkaan	-1223
▁tekem	-1224
▁yllät	-1225
▁osi	-1226
rael	-1227
▁srael	-1228
▁hoi	-1229
▁lis	-1230
▁Ro	-1231
▁np	-1232
▁kasv	-1233
▁do	-1234
▁jopa	-1235
▁mään	-1236
▁näky	-1237
▁lloin	-1238
▁nimi	-1239
▁erran	-1240
vit	-1241
▁vo	-1242
▁telu	-1243
▁ratk	-1244
▁nyky	-1245
▁taisi	-1246
▁uoksi	-1247
▁aisi	-1248
▁ryhmä	-1249
▁uoli	-1250
▁inn	-1251
ust	-1252
▁iinni	-1253
▁oo	-1254
▁nttia	-1255
▁kolm	-1256
▁Ne	-1257
▁ärj	-1258
lt	-1259
▁di	-1260
▁moni	-1261
▁osoit	-1262
▁ngin	-1263
▁erkit	-1264
▁kello	-1265
▁käsit	-1266
▁ttöm	-1267
▁ukana	-1268
▁kahde	-1269
▁saada	-1270
▁ly	-1271
▁aikaa	-1272
▁lauan	-1273
▁uroop	-1274
▁iir	-1275
▁tehdä	-1276
▁puoli	-1277
▁öy	-1278
▁una	-1279
▁ongel	-1280
▁tane	-1281
▁enää	-1282
▁ästä	-1283
kso	-1284
▁oinen	-1285
▁um	-1286
▁kehit	-1287
kko	-1288
▁ruo	-1289
ss	-1290
▁miehe	-1291
▁otta	-1292
▁avo	-1293
vää	-1294
▁Iltal	-1295
▁w	-1296
▁riit	-1297
▁uode	-1298
▁sell	-1299
▁ön	-1300
▁oliit	-1301
▁tum	-1302
▁Sanom	-1303
▁aati	-1304
▁yle	-1305
▁her	-1306
▁syn	-1307
▁ystäv	-1308
▁avu	-1309
▁ota	-1310
ulun	-1311
▁kohta	-1312
▁alka	-1313
▁eissa	-1314
▁juu	-1315
▁pitä	-1316
▁nk	-1317
▁väit	-1318
▁yhd	-1319
▁tiet	-1320
kia	-1321
▁kov	-1322
▁ea	-1323
▁art	-1324
▁ntees	-1325
▁uks	-1326
▁kiso	-1327
▁uin	-1328
▁ymme	-1329
▁vanh	-1330
▁telee	-1331
▁omis	-1332
▁yty	-1333
▁Ki	-1334
▁sijai	-1335
▁lähte	-1336
▁eskiv	-1337
▁kseen	-1338
▁aka	-1339
▁inä	-1340
hi	-1341
▁synty	-1342
▁yleis	-1343
▁oik	-1344
▁aanan	-1345
▁aamu	-1346
▁leet	-1347
▁ss	-1348
▁akko	-1349
▁Sen	-1350
▁vaara	-1351
▁omi	-1352
▁attel	-1353
▁suora	-1354
tta	-1355
▁anska	-1356
▁uraa	-1357
▁ssaan	-1358
▁eik	-1359
▁uoma	-1360
▁illoi	-1361
▁Ni	-1362
▁iha	-1363
ver	-1364
▁uljet	-1365
▁tis	-1366
essa	-1367
▁mo	-1368
▁aam	-1369
▁uhka	-1370
▁muist	-1371
▁!	-1372
▁stu	-1373
▁koke	-1374
kkö	-1375
▁jatku	-1376
▁ojen	-1377
▁isku	-1378
▁ain	-1379
▁tied	-1380
▁jäi	-1381
▁iti	-1382
▁tom	-1383
▁ejä	-1384
▁talou	-1385
▁tykse	-1386
uha	-1387
▁hu	-1388
▁Sal	-1389
▁iellä	-1390
▁til	-1391
▁Ja	-1392
▁ika	-1393
rsi	-1394
▁tors	-1395
▁tuntu	-1396
▁anni	-1397
▁ulk	-1398
▁ehtäv	-1399
▁tely	-1400
▁mai	-1401
▁siir	-1402
▁tasa	-1403
▁mäise	-1404
▁autta	-1405
▁Al	-1406
▁myöh	-1407
▁juuri	-1408
▁oim	-1409
▁äli	-1410
▁tautu	-1411
▁ensa	-1412
▁iedot	-1413
▁aita	-1414
▁ttee	-1415
▁eet	-1416
▁äällä	-1417
▁asio	-1418
▁ttäin	-1419
▁net	-1420
▁itäis	-1421
til	-1422
▁ntaa	-1423
▁iseen	-1424
▁kone	-1425
▁On	-1426
▁nnan	-1427
iden	-1428
▁ttom	-1429
▁Pohjo	-1430
▁Mi	-1431
▁mpi	-1432
▁Viime	-1433
▁arjoi	-1434
ram	-1435
ske	-1436
▁emaan	-1437
▁jatko	-1438
sia	-1439
▁mise	-1440
▁dään	-1441
▁keske	-1442
▁kuten	-1443
▁apa	-1444
▁ysy	-1445
▁aino	-1446
▁vähän	-1447
▁aat	-1448
▁enna	-1449
▁EU	-1450
▁olen	-1451
▁tässä	-1452
▁stel	-1453
▁nna	-1454
▁yys	-1455
▁minu	-1456
▁tiis	-1457
▁tajan	-1458
▁amm	-1459
▁auden	-1460
▁oikea	-1461
▁paino	-1462
▁nt	-1463
▁tyy	-1464
▁eille	-1465
▁yn	-1466
▁Z	-1467
▁laine	-1468
eh	-1469
▁tak	-1470
▁lähes	-1471
▁tuomi	-1472
▁ensä	-1473
▁jal	-1474
▁He	-1475
▁rauha	-1476
▁selv	-1477
▁kohd	-1478
▁naan	-1479
▁sk	-1480
▁iltä	-1481
▁iitto	-1482
▁lapsi	-1483
▁yks	-1484
▁lämp	-1485
▁uraav	-1486
▁aav	-1487
▁Kal	-1488
▁toivo	-1489
ysy	-1490
▁kysy	-1491
▁oitto	-1492
▁erä	-1493
▁sty	-1494
▁enä	-1495
▁iivis	-1496
▁unnun	-1497
▁vie	-1498
▁yhtä	-1499
▁Hänen	-1500
▁lai	-1501
▁inna	-1502
▁amaan	-1503
▁kuul	-1504
▁lähti	-1505
ös	-1506
▁elvit	-1507
▁alja	-1508
▁uutam	-1509
ch	-1510
▁täy	-1511
ppa	-1512
▁isuu	-1513
▁dessa	-1514
▁eit	-1515
▁tain	-1516
▁oki	-1517
▁ukset	-1518
▁tys	-1519
▁kamp	-1520
▁ahden	-1521
▁inaal	-1522
▁ant	-1523
▁tosi	-1524
▁uukau	-1525
▁oni	-1526
▁ikos	-1527
▁alkoi	-1528
▁siinä	-1529
▁ehdok	-1530
▁isin	-1531
▁laske	-1532
▁nii	-1533
▁laa	-1534
▁laan	-1535
▁hoit	-1536
▁oiden	-1537
▁kyl	-1538
▁omais	-1539
▁tettu	-1540
kee	-1541
▁ilman	-1542
▁nis	-1543
▁löy	-1544
▁esk	-1545
sin	-1546
▁ymm	-1547
▁ysymy	-1548
▁tähti	-1549
▁arhai	-1550
▁tune	-1551
▁eloku	-1552
▁koske	-1553
▁ärjes	-1554
▁ampu	-1555
▁nnu	-1556
▁ravi	-1557
▁hoito	-1558
▁Olen	-1559
▁aljas	-1560
▁selvi	-1561
▁emp	-1562
▁ija	-1563
▁eita	-1564
▁änsä	-1565
▁raha	-1566
▁Ko	-1567
▁istor	-1568
▁lento	-1569
▁sal	-1570
▁aikea	-1571
▁Val	-1572
▁ttam	-1573
▁punki	-1574
▁aiko	-1575
▁Ha	-1576
▁tävät	-1577
▁La	-1578
▁itiik	-1579
▁ola	-1580
▁eril	-1581
▁od	-1582
▁kiel	-1583
▁leikk	-1584
▁maksa	-1585
▁ine	-1586
▁änä	-1587
▁nopea	-1588
▁raala	-1589
▁syö	-1590
▁llaan	-1591
▁taas	-1592
▁eki	-1593
▁laaj	-1594
▁tte	-1595
▁sotil	-1596
▁takia	-1597
▁einä	-1598
▁ouk	-1599
▁rit	-1600
▁ime	-1601
▁sota	-1602
▁ulkis	-1603
▁ton	-1604
▁vero	-1605
▁Ta	-1606
▁aisia	-1607
▁uuttu	-1608
▁inty	-1609
▁seen	-1610
ukk	-1611
▁asiak	-1612
▁ad	-1613
▁sson	-1614
▁nnä	-1615
▁teko	-1616
▁tunte	-1617
▁apu	-1618
▁ärä	-1619
▁ston	-1620
▁aukse	-1621
▁terve	-1622
▁voisi	-1623
▁ellis	-1624
▁eg	-1625
▁ac	-1626
▁eer	-1627
▁puole	-1628
ff	-1629
▁saapu	-1630
▁kent	-1631
▁ahvis	-1632
▁äri	-1633
▁oita	-1634
▁ho	-1635
▁ätä	-1636
▁Nor	-1637
▁ittaa	-1638
▁lähi	-1639
▁my	-1640
▁ierro	-1641
▁sarj	-1642
▁teriö	-1643
nu	-1644
▁avat	-1645
▁ruoka	-1646
▁oitti	-1647
▁palo	-1648
▁ieh	-1649
▁aikai	-1650
▁aista	-1651
▁ehde	-1652
▁käsi	-1653
▁liiga	-1654
ila	-1655
ert	-1656
▁vaali	-1657
▁X	-1658
▁aste	-1659
▁nnus	-1660
▁ussi	-1661
▁mieli	-1662
▁oissa	-1663
▁äätty	-1664
▁oly	-1665
▁ide	-1666
▁pallo	-1667
kar	-1668
▁yr	-1669
▁yde	-1670
▁Mutta	-1671
▁ymmär	-1672
▁ast	-1673
▁uva	-1674
▁oimi	-1675
▁laj	-1676
▁iekko	-1677
▁luok	-1678
▁piene	-1679
HL	-1680
väl	-1681
▁uinka	-1682
hoi	-1683
▁uul	-1684
▁pysy	-1685
▁tärke	-1686
▁kois	-1687
▁hake	-1688
▁ara	-1689
▁Sam	-1690
▁taist	-1691
▁Näin	-1692
▁joten	-1693
▁ettav	-1694
▁siis	-1695
▁unni	-1696
▁vän	-1697
▁oonaa	-1698
▁olymp	-1699
▁In	-1700
▁Biden	-1701
▁hyv	-1702
▁häi	-1703
▁ieltä	-1704
▁malli	-1705
▁anen	-1706
▁oikei	-1707
▁maal	-1708
▁appi	-1709
▁iini	-1710
▁laki	-1711
▁inväl	-1712
▁IS	-1713
yttä	-1714
iki	-1715
▁meni	-1716
▁daan	-1717
▁tomuu	-1718
▁halua	-1719
▁mukse	-1720
▁Syy	-1721
▁kuulu	-1722
▁ieman	-1723
▁isa	-1724
▁nnö	-1725
▁attu	-1726
▁auta	-1727
▁iili	-1728
▁sivat	-1729
▁az	-1730
han	-1731
▁kilom	-1732
▁näin	-1733
pal	-1734
▁Saksa	-1735
vai	-1736
▁nnuks	-1737
▁yytä	-1738
▁hä	-1739
▁Inst	-1740
▁jäsen	-1741
▁entis	-1742
▁kilpa	-1743
ön	-1744
▁pyö	-1745
▁nu	-1746
▁tamis	-1747
▁kuoli	-1748
▁Or	-1749
▁etrin	-1750
▁huono	-1751
▁ehd	-1752
▁aatu	-1753
▁näköi	-1754
▁jakso	-1755
▁por	-1756
▁äätös	-1757
▁nos	-1758
▁NHL	-1759
▁ksen	-1760
▁helpo	-1761
▁ber	-1762
▁iehen	-1763
▁otti	-1764
▁ang	-1765
▁20	-1766
▁ellä	-1767
▁työnt	-1768
▁lma	-1769
▁oista	-1770
▁tivat	-1771
▁äysin	-1772
▁eä	-1773
▁edes	-1774
ing	-1775
▁koro	-1776
▁son	-1777
▁ort	-1778
▁havai	-1779
▁yhä	-1780
▁isen	-1781
▁leen	-1782
▁kyllä	-1783
▁Pe	-1784
▁menet	-1785
▁arki	-1786
nä	-1787
▁rä	-1788
▁vira	-1789
▁tsee	-1790
▁Oulun	-1791
▁attom	-1792
▁uippu	-1793
▁nnyt	-1794
▁ammat	-1795
▁Na	-1796
▁ttelu	-1797
▁auton	-1798
▁elämä	-1799
▁ake	-1800
▁agram	-1801
▁juhli	-1802
▁nor	-1803
▁isti	-1804
▁onta	-1805
▁oikke	-1806
▁unta	-1807
ilu	-1808
▁heti	-1809
▁kävi	-1810
▁toden	-1811
▁kokou	-1812
▁yvin	-1813
▁asema	-1814
▁iikon	-1815
▁niitä	-1816
▁mäine	-1817
▁inta	-1818
▁kutsu	-1819
▁kevää	-1820
▁vesi	-1821
▁ander	-1822
▁äräjä	-1823
▁minuu	-1824
▁pääse	-1825
▁kaiki	-1826
kon	-1827
▁arh	-1828
▁eista	-1829
▁vapaa	-1830
▁alkaa	-1831
▁asten	-1832
▁uute	-1833
iksi	-1834
▁ela	-1835
▁lah	-1836
▁pid	-1837
▁eur	-1838
▁koi	-1839
▁änään	-1840
▁joita	-1841
▁Tuo	-1842
▁oima	-1843
▁ste	-1844
▁häntä	-1845
▁ointi	-1846
▁älle	-1847
▁viide	-1848
▁dä	-1849
▁uvail	-1850
▁tänä	-1851
▁oivat	-1852
▁massa	-1853
▁toime	-1854
▁hil	-1855
▁täll	-1856
▁pääsi	-1857
▁pan	-1858
▁orva	-1859
▁avoit	-1860
▁ilme	-1861
▁mitta	-1862
▁tr	-1863
▁laito	-1864
▁Yksi	-1865
▁nsi	-1866
▁tote	-1867
▁vaka	-1868
▁uolis	-1869
▁luku	-1870
▁piti	-1871
▁tkaa	-1872
▁atti	-1873
▁uolem	-1874
▁vakav	-1875
▁yllä	-1876
▁missä	-1877
▁jota	-1878
▁Ä	-1879
▁Orpo	-1880
▁utki	-1881
▁häiri	-1882
▁Esi	-1883
▁seks	-1884
▁kko	-1885
▁täh	-1886
▁yky	-1887
▁elin	-1888
▁illi	-1889
▁uloks	-1890
▁mmin	-1891
▁eihin	-1892
elm	-1893
ksu	-1894
▁pala	-1895
▁kohte	-1896
▁tuma	-1897
▁ystä	-1898
▁New	-1899
▁ikku	-1900
▁lään	-1901
▁nousi	-1902
▁pieni	-1903
▁stelm	-1904
▁iku	-1905
▁venä	-1906
▁+	-1907
▁elm	-1908
▁und	-1909
▁venäl	-1910
▁tulla	-1911
▁iina	-1912
▁taust	-1913
▁rve	-1914
▁auri	-1915
▁päivi	-1916
▁tuksi	-1917
dy	-1918
▁anc	-1919
▁hinta	-1920
▁uosi	-1921
▁loukk	-1922
▁yhden	-1923
▁uoj	-1924
▁Kor	-1925
▁akt	-1926
▁ard	-1927
▁luvu	-1928
▁nnas	-1929
▁joulu	-1930
▁oona	-1931
▁kanna	-1932
▁ami	-1933
▁appal	-1934
▁rveys	-1935
▁etu	-1936
▁etri	-1937
▁läpi	-1938
▁äästä	-1939
▁ääri	-1940
▁ttuna	-1941
▁viran	-1942
▁jalka	-1943
eme	-1944
▁dy	-1945
▁lähd	-1946
▁euron	-1947
▁tio	-1948
▁aivan	-1949
▁laji	-1950
maa	-1951
▁silm	-1952
▁uistu	-1953
▁ärke	-1954
▁äte	-1955
▁ait	-1956
▁pide	-1957
ih	-1958
▁pä	-1959
▁Itä	-1960
▁tek	-1961
▁Pa	-1962
▁astuu	-1963
▁rins	-1964
▁ans	-1965
▁itsem	-1966
▁atu	-1967
▁kir	-1968
▁nlo	-1969
▁lupa	-1970
ok	-1971
▁anki	-1972
▁isuud	-1973
▁kohda	-1974
▁annut	-1975
▁tökse	-1976
▁tuki	-1977
▁urk	-1978
▁har	-1979
▁äiti	-1980
▁uuksi	-1981
▁10	-1982
▁kka	-1983
▁nieme	-1984
▁poh	-1985
▁syksy	-1986
▁hänet	-1987
▁usein	-1988
▁kunno	-1989
▁tiete	-1990
▁aton	-1991
▁uha	-1992
▁anssi	-1993
▁soit	-1994
▁osta	-1995
▁je	-1996
▁isu	-1997
▁ehkä	-1998
▁elkä	-1999
▁aantu	-2000
▁valit	-2001
▁pyör	-2002
▁nneet	-2003
▁ay	-2004
▁ok	-2005
▁lapse	-2006
▁aar	-2007
▁yvinv	-2008
est	-2009
▁änsi	-2010
▁ääni	-2011
▁iuk	-2012
▁ansi	-2013
▁arr	-2014
▁naa	-2015
▁llään	-2016
▁aset	-2017
▁lämpö	-2018
▁väkiv	-2019
▁Lin	-2020
▁Vir	-2021
▁uisto	-2022
▁ottaa	-2023
▁Har	-2024
▁kulut	-2025
uko	-2026
▁aid	-2027
▁ntää	-2028
▁auppa	-2029
▁eistä	-2030
▁orkea	-2031
▁15	-2032
▁telij	-2033
▁itelm	-2034
▁väksy	-2035
▁test	-2036
▁ansal	-2037
▁oteaa	-2038
▁tseva	-2039
män	-2040
▁onal	-2041
▁hj	-2042
▁ned	-2043
▁atso	-2044
▁oman	-2045
▁tili	-2046
▁pääll	-2047
▁nny	-2048
▁liike	-2049
▁tänee	-2050
▁riko	-2051
▁ttäj	-2052
▁nedus	-2053
▁ttain	-2054
▁tätä	-2055
ess	-2056
▁Salo	-2057
▁aani	-2058
▁hävi	-2059
▁nni	-2060
▁sod	-2061
▁eitä	-2062
▁aivo	-2063
▁iu	-2064
▁kohti	-2065
▁täyty	-2066
▁ämä	-2067
▁viit	-2068
▁pysä	-2069
▁voim	-2070
▁uunta	-2071
▁ses	-2072
▁anke	-2073
▁ako	-2074
▁An	-2075
▁ulos	-2076
▁ohd	-2077
▁uhri	-2078
▁umma	-2079
▁naine	-2080
▁uorit	-2081
▁gia	-2082
▁poi	-2083
▁Salon	-2084
▁aisin	-2085
▁yliop	-2086
▁lehde	-2087
▁anj	-2088
▁ini	-2089
▁lop	-2090
▁työsk	-2091
▁iirty	-2092
▁oilla	-2093
▁poika	-2094
▁ene	-2095
▁onnet	-2096
▁tsi	-2097
▁öyd	-2098
▁aahan	-2099
▁sp	-2100
▁allan	-2101
▁utta	-2102
▁vaati	-2103
▁viisi	-2104
▁Vil	-2105
▁autu	-2106
▁est	-2107
▁sten	-2108
▁taka	-2109
▁tori	-2110
via	-2111
▁Ru	-2112
▁ttaja	-2113
▁elen	-2114
▁ältä	-2115
telä	-2116
▁vier	-2117
▁Etelä	-2118
▁Niin	-2119
▁aist	-2120
▁arsin	-2121
▁murha	-2122
▁Mies	-2123
ero	-2124
mok	-2125
▁itti	-2126
▁ruu	-2127
▁atkus	-2128
▁hoita	-2129
▁uonno	-2130
▁aari	-2131
▁allo	-2132
▁usiik	-2133
inu	-2134
▁Lind	-2135
▁sodan	-2136
▁hiih	-2137
▁ieto	-2138
▁toteu	-2139
▁'	-2140
▁Kar	-2141
▁sky	-2142
▁berg	-2143
▁onnis	-2144
▁uurin	-2145
▁liito	-2146
▁syys	-2147
▁miehi	-2148
▁ohi	-2149
▁metsä	-2150
▁inko	-2151
▁ikoks	-2152
▁otain	-2153
▁oukko	-2154
▁tehty	-2155
▁lopet	-2156
▁mene	-2157
▁ouko	-2158
▁iikku	-2159
▁ijoit	-2160
▁oimit	-2161
▁het	-2162
▁varm	-2163
▁osu	-2164
▁etsi	-2165
▁äivän	-2166
▁aiden	-2167
▁asemm	-2168
▁ijaan	-2169
▁viet	-2170
▁minkä	-2171
▁aha	-2172
▁Lue	-2173
▁eteen	-2174
▁uolim	-2175
▁oul	-2176
▁kunto	-2177
▁tekij	-2178
eri	-2179
▁mone	-2180
▁mukai	-2181
▁sit	-2182
mpp	-2183
▁uhe	-2184
▁muita	-2185
▁ukka	-2186
▁eijo	-2187
▁iinno	-2188
▁uosit	-2189
▁tua	-2190
▁erkko	-2191
▁julki	-2192
▁uote	-2193
▁uoto	-2194
kr	-2195
▁ahti	-2196
▁arhaa	-2197
▁elko	-2198
▁levi	-2199
▁ilun	-2200
▁ittel	-2201
▁ainoa	-2202
▁Co	-2203
▁heit	-2204
▁jälle	-2205
ore	-2206
▁lad	-2207
▁jotta	-2208
▁ude	-2209
▁mp	-2210
▁sina	-2211
nö	-2212
▁teho	-2213
▁uksen	-2214
▁tah	-2215
▁itta	-2216
▁jouko	-2217
▁ab	-2218
▁ivät	-2219
▁Antti	-2220
▁kerä	-2221
▁uning	-2222
▁alise	-2223
▁altuu	-2224
▁lähtö	-2225
ott	-2226
▁usu	-2227
▁opet	-2228
▁heik	-2229
▁palki	-2230
▁ihme	-2231
▁nssi	-2232
▁sij	-2233
▁pela	-2234
▁mäki	-2235
▁aistu	-2236
▁eikk	-2237
▁kylä	-2238
▁kokem	-2239
▁idät	-2240
▁eiden	-2241
▁yyde	-2242
▁kärsi	-2243
▁tekee	-2244
▁aju	-2245
▁kesäk	-2246
int	-2247
▁12	-2248
▁tet	-2249
▁ennät	-2250
▁maksu	-2251
▁tähän	-2252
▁äyttö	-2253
▁ilija	-2254
▁eisö	-2255
▁ull	-2256
▁hoid	-2257
▁arris	-2258
▁Pel	-2259
▁vel	-2260
▁rooli	-2261
▁aki	-2262
▁Mikko	-2263
▁ttuur	-2264
▁Kiina	-2265
▁etriä	-2266
▁kymme	-2267
▁irv	-2268
▁emme	-2269
▁rist	-2270
▁paras	-2271
▁kar	-2272
▁suku	-2273
▁ane	-2274
▁aikke	-2275
ude	-2276
▁loka	-2277
▁eng	-2278
▁onen	-2279
▁Esime	-2280
▁ielen	-2281
▁myötä	-2282
▁herät	-2283
▁onald	-2284
isk	-2285
ort	-2286
▁äv	-2287
▁Oulu	-2288
▁piir	-2289
▁ovi	-2290
▁pyr	-2291
▁eni	-2292
▁niide	-2293
▁ähe	-2294
▁akuut	-2295
▁rof	-2296
▁To	-2297
▁linja	-2298
lam	-2299
▁aisuu	-2300
▁utini	-2301
▁määri	-2302
▁30	-2303
▁The	-2304
▁edel	-2305
▁alous	-2306
▁maajo	-2307
▁naise	-2308
ute	-2309
▁nistu	-2310
▁ae	-2311
▁Var	-2312
▁ankki	-2313
▁appio	-2314
▁ksia	-2315
▁aluaa	-2316
▁usten	-2317
▁Nato	-2318
▁eissä	-2319
▁tivät	-2320
sal	-2321
▁arl	-2322
rju	-2323
▁tuore	-2324
▁and	-2325
▁liian	-2326
▁rik	-2327
▁oski	-2328
▁rttu	-2329
▁koulu	-2330
▁oihin	-2331
▁oitus	-2332
▁korj	-2333
▁ologi	-2334
▁Minu	-2335
▁norm	-2336
▁Kan	-2337
▁jut	-2338
▁tunni	-2339
▁urr	-2340
▁keino	-2341
▁osuu	-2342
▁telev	-2343
▁lyt	-2344
▁imo	-2345
▁ustel	-2346
▁uuluu	-2347
▁aulu	-2348
▁oulut	-2349
eno	-2350
▁änne	-2351
▁maini	-2352
▁äälle	-2353
▁uor	-2354
▁rask	-2355
▁olemm	-2356
▁tarpe	-2357
▁olmen	-2358
▁tekn	-2359
▁ntola	-2360
▁Saa	-2361
▁vahv	-2362
ser	-2363
▁riski	-2364
▁äm	-2365
▁Norja	-2366
▁run	-2367
▁elta	-2368
▁harv	-2369
▁demok	-2370
▁joide	-2371
▁suosi	-2372
rau	-2373
▁huu	-2374
▁antam	-2375
▁ennus	-2376
▁suuri	-2377
▁ajoit	-2378
▁ialai	-2379
▁nko	-2380
▁uhd	-2381
▁ajaa	-2382
▁kuvi	-2383
▁lauk	-2384
▁pyrki	-2385
▁täyt	-2386
▁yyttä	-2387
▁EM	-2388
▁ord	-2389
▁oukok	-2390
▁ib	-2391
▁kaap	-2392
▁kuol	-2393
▁asiaa	-2394
▁ikään	-2395
▁tal	-2396
▁valo	-2397
▁avau	-2398
▁Ale	-2399
▁tuke	-2400
▁henki	-2401
▁Pää	-2402
▁päin	-2403
▁tulos	-2404
▁erta	-2405
▁krit	-2406
ce	-2407
▁ykkö	-2408
▁tae	-2409
▁uhti	-2410
▁uiden	-2411
▁vaimo	-2412
▁ausu	-2413
▁ida	-2414
▁enno	-2415
▁Tila	-2416
▁aiva	-2417
▁käytö	-2418
▁sinai	-2419
▁tetty	-2420
▁set	-2421
▁ttava	-2422
▁laul	-2423
▁kerta	-2424
▁itu	-2425
▁iiga	-2426
▁pohjo	-2427
▁aih	-2428
▁ihr	-2429
▁anut	-2430
▁koto	-2431
▁ennak	-2432
▁kasvu	-2433
▁lehti	-2434
aali	-2435
▁Alex	-2436
▁kee	-2437
▁onne	-2438
▁äksi	-2439
▁syysk	-2440
▁omm	-2441
▁raat	-2442
▁merkk	-2443
▁nv	-2444
▁hti	-2445
▁empaa	-2446
▁kaupa	-2447
▁Ensi	-2448
▁elmik	-2449
▁vaike	-2450
▁öl	-2451
▁älier	-2452
▁adi	-2453
▁ike	-2454
▁nau	-2455
▁kausi	-2456
▁nl	-2457
▁kysee	-2458
▁lasku	-2459
▁tästä	-2460
uro	-2461
▁iset	-2462
▁entee	-2463
▁aisem	-2464
▁ity	-2465
▁ysel	-2466
▁tto	-2467
▁udu	-2468
▁paine	-2469
▁sosia	-2470
▁vede	-2471
▁Pekka	-2472
▁ingo	-2473
▁heng	-2474
vaa	-2475
▁ehdot	-2476
▁työtä	-2477
▁vanha	-2478
▁ohu	-2479
▁Tämän	-2480
▁onko	-2481
▁löytä	-2482
▁ylä	-2483
▁tuho	-2484
▁mill	-2485
▁adu	-2486
▁SM	-2487
▁Suom	-2488
▁ähemm	-2489
uto	-2490
▁saar	-2491
▁menne	-2492
▁ulisi	-2493
▁Ky	-2494
▁sia	-2495
▁tävä	-2496
▁ikuis	-2497
▁ink	-2498
▁tia	-2499
▁vapa	-2500
▁ilmi	-2501
▁aavut	-2502
▁muuta	-2503
▁tävän	-2504
▁eo	-2505
▁ati	-2506
▁isia	-2507
▁masti	-2508
▁ikko	-2509
▁akse	-2510
▁iitä	-2511
▁inti	-2512
▁peri	-2513
▁Halli	-2514
▁illis	-2515
▁otesi	-2516
▁aliok	-2517
▁avio	-2518
▁päiv	-2519
▁tyyp	-2520
▁ras	-2521
▁tähd	-2522
ge	-2523
▁hieno	-2524
▁inf	-2525
▁arlam	-2526
▁alko	-2527
▁jolla	-2528
▁yhdis	-2529
▁tusta	-2530
▁tännö	-2531
▁tv	-2532
▁utk	-2533
▁kulu	-2534
▁meno	-2535
▁intei	-2536
▁teo	-2537
▁iikka	-2538
▁nouse	-2539
▁einäk	-2540
▁nd	-2541
▁aza	-2542
▁hevo	-2543
▁juhla	-2544
▁valla	-2545
▁olle	-2546
▁näkem	-2547
▁pohti	-2548
lit	-2549
▁säil	-2550
▁aroit	-2551
▁mere	-2552
▁asvat	-2553
▁tavan	-2554
▁Uude	-2555
▁hon	-2556
▁arras	-2557
▁hilja	-2558
▁merki	-2559
▁ano	-2560
▁josta	-2561
▁kuude	-2562
▁oppi	-2563
▁ietti	-2564
▁vaiht	-2565
▁alli	-2566
▁anto	-2567
je	-2568
▁kää	-2569
▁irta	-2570
▁pääty	-2571
▁yttä	-2572
▁uutos	-2573
▁No	-2574
▁ksu	-2575
▁runsa	-2576
▁iki	-2577
▁etelä	-2578
▁virhe	-2579
kas	-2580
▁Re	-2581
▁auk	-2582
▁iiton	-2583
▁lukem	-2584
▁järk	-2585
▁ohdis	-2586
▁ank	-2587
▁yksiä	-2588
▁udot	-2589
▁merik	-2590
▁ark	-2591
▁puol	-2592
▁uuli	-2593
▁vähi	-2594
▁akkau	-2595
▁valvo	-2596
▁aikal	-2597
▁ampum	-2598
▁nlopp	-2599
▁reilu	-2600
▁uoro	-2601
▁dio	-2602
▁mui	-2603
▁sul	-2604
▁asa	-2605
▁näis	-2606
▁Kansa	-2607
▁ariis	-2608
▁uni	-2609
▁urna	-2610
▁vapau	-2611
▁du	-2612
▁eor	-2613
▁entu	-2614
▁11	-2615
▁ikkö	-2616
▁jatk	-2617
▁altav	-2618
▁antoi	-2619
▁avar	-2620
▁tait	-2621
▁istyö	-2622
▁oy	-2623
▁johto	-2624
uru	-2625
▁esken	-2626
▁orm	-2627
▁rom	-2628
▁adio	-2629
▁tunnu	-2630
▁anad	-2631
▁huum	-2632
▁onet	-2633
▁ress	-2634
kino	-2635
▁oitu	-2636
▁veto	-2637
▁alaut	-2638
▁koira	-2639
▁arja	-2640
▁imme	-2641
▁lik	-2642
▁yhy	-2643
▁kkino	-2644
▁Yle	-2645
▁vauh	-2646
▁ssään	-2647
▁aana	-2648
▁mita	-2649
▁kumpp	-2650
▁Euro	-2651
▁nous	-2652
▁ovin	-2653
▁rikko	-2654
▁lokak	-2655
▁ilo	-2656
▁törke	-2657
▁Tap	-2658
▁evy	-2659
▁ich	-2660
▁amise	-2661
▁valmi	-2662
▁Kes	-2663
▁loma	-2664
▁pahoi	-2665
▁torju	-2666
▁eva	-2667
▁läis	-2668
▁koros	-2669
▁vähe	-2670
▁esä	-2671
▁lor	-2672
▁uku	-2673
▁vih	-2674
▁uulu	-2675
▁ävel	-2676
▁akana	-2677
▁otiin	-2678
▁ener	-2679
▁aiken	-2680
▁elok	-2681
▁selit	-2682
▁alas	-2683
▁eessa	-2684
▁joku	-2685
▁ekijä	-2686
mai	-2687
▁ail	-2688
▁ksiä	-2689
▁mennä	-2690
▁oille	-2691
▁end	-2692
▁uper	-2693
▁onser	-2694
▁rs	-2695
▁anav	-2696
▁opisk	-2697
▁otsal	-2698
▁täyde	-2699
▁eal	-2700
▁peru	-2701
▁virka	-2702
▁enti	-2703
▁lämm	-2704
▁rad	-2705
▁eläi	-2706
▁uhtik	-2707
▁koe	-2708
▁luki	-2709
▁rssi	-2710
▁ob	-2711
▁aatim	-2712
▁otu	-2713
▁ajoi	-2714
▁uokr	-2715
▁saman	-2716
▁vaihe	-2717
▁tin	-2718
▁eudu	-2719
▁kohol	-2720
▁vält	-2721
▁aport	-2722
▁Ylen	-2723
▁ehto	-2724
▁airau	-2725
▁arvos	-2726
▁paiko	-2727
▁ttamu	-2728
▁valto	-2729
▁iippu	-2730
▁näi	-2731
▁änen	-2732
▁hui	-2733
▁oeh	-2734
▁anno	-2735
▁tilan	-2736
▁sio	-2737
▁ylm	-2738
▁inne	-2739
▁änty	-2740
▁silti	-2741
▁yksik	-2742
▁Keski	-2743
▁ankeu	-2744
▁stään	-2745
▁tyä	-2746
▁tilo	-2747
▁of	-2748
▁uosik	-2749
▁okse	-2750
▁kok	-2751
▁Yl	-2752
▁vis	-2753
▁one	-2754
▁opp	-2755
▁iito	-2756
▁pohja	-2757
▁kusta	-2758
▁iisu	-2759
▁miksi	-2760
▁oehto	-2761
▁myr	-2762
▁Voi	-2763
▁ietoa	-2764
▁aad	-2765
▁oir	-2766
▁eera	-2767
▁Asia	-2768
▁paris	-2769
▁mäe	-2770
▁rmä	-2771
▁mistä	-2772
▁talli	-2773
▁50	-2774
▁sis	-2775
▁npit	-2776
▁sate	-2777
▁amper	-2778
▁inis	-2779
▁aikan	-2780
▁uuluv	-2781
▁ate	-2782
▁töön	-2783
▁nkert	-2784
▁mia	-2785
▁some	-2786
▁unti	-2787
▁karsi	-2788
▁jätti	-2789
▁palkk	-2790
▁TV	-2791
▁lti	-2792
▁dolla	-2793
▁eutu	-2794
▁13	-2795
▁kova	-2796
▁ket	-2797
▁nder	-2798
▁lain	-2799
▁Pet	-2800
▁sun	-2801
▁Brit	-2802
▁sana	-2803
iri	-2804
▁ip	-2805
▁ssi	-2806
▁ettäv	-2807
▁voito	-2808
▁pyy	-2809
▁impi	-2810
▁ouluk	-2811
▁org	-2812
▁tuttu	-2813
▁anti	-2814
▁haav	-2815
▁yttö	-2816
▁ila	-2817
▁tön	-2818
▁oimak	-2819
▁yksen	-2820
▁usjoh	-2821
▁yysi	-2822
▁inu	-2823
▁kanta	-2824
▁uod	-2825
▁yyd	-2826
▁stus	-2827
▁entel	-2828
▁illan	-2829
▁tiedä	-2830
▁ausi	-2831
▁sosi	-2832
▁aatte	-2833
▁ado	-2834
▁järve	-2835
▁stuks	-2836
▁iil	-2837
▁eikka	-2838
▁uum	-2839
▁vää	-2840
▁ydi	-2841
▁eläk	-2842
▁ukea	-2843
▁telem	-2844
kuv	-2845
▁ean	-2846
▁mät	-2847
▁iivi	-2848
▁ius	-2849
▁Pres	-2850
▁ein	-2851
▁liha	-2852
▁sattu	-2853
▁z	-2854
her	-2855
▁esiin	-2856
▁Oli	-2857
▁enr	-2858
▁eensä	-2859
▁avoi	-2860
▁täisi	-2861
▁ork	-2862
▁äivä	-2863
▁uaali	-2864
▁ub	-2865
▁ria	-2866
▁aho	-2867
▁ksan	-2868
▁uone	-2869
▁iv	-2870
▁nap	-2871
▁armaa	-2872
▁Osa	-2873
▁isk	-2874
▁umm	-2875
▁ehot	-2876
▁elasi	-2877
▁ärki	-2878
▁ääjä	-2879
▁apsen	-2880
▁ärkeä	-2881
co	-2882
▁ahde	-2883
▁Mat	-2884
▁Put	-2885
▁elke	-2886
▁eikki	-2887
▁yvä	-2888
▁akot	-2889
▁hetki	-2890
▁juttu	-2891
▁Saar	-2892
▁25	-2893
▁ig	-2894
▁into	-2895
▁pakk	-2896
▁kap	-2897
▁uri	-2898
▁Putin	-2899
▁ranna	-2900
▁irt	-2901
▁ust	-2902
▁sala	-2903
▁sään	-2904
▁mmi	-2905
▁kier	-2906
▁ert	-2907
▁osto	-2908
▁aikoi	-2909
▁ataan	-2910
▁isuus	-2911
▁ek	-2912
▁ntam	-2913
▁väl	-2914
▁eb	-2915
▁ex	-2916
▁jala	-2917
▁Te	-2918
▁joe	-2919
▁tuv	-2920
▁aito	-2921
▁isio	-2922
▁tais	-2923
▁nomai	-2924
▁omu	-2925
▁eetti	-2926
hu	-2927
▁uoliv	-2928
▁elu	-2929
▁ont	-2930
▁mero	-2931
▁uksel	-2932
▁edu	-2933
▁huone	-2934
▁oimii	-2935
▁kato	-2936
▁oper	-2937
▁äline	-2938
▁otto	-2939
▁ttia	-2940
▁14	-2941
▁rek	-2942
▁ideo	-2943
▁uto	-2944
▁annu	-2945
▁miel	-2946
▁unna	-2947
▁ael	-2948
▁syyt	-2949
▁armi	-2950
▁äinen	-2951
▁tter	-2952
▁kkä	-2953
▁urma	-2954
▁aalia	-2955
▁oleva	-2956
▁Li	-2957
▁pian	-2958
▁äytyy	-2959
▁ue	-2960
▁aatti	-2961
▁kiint	-2962
▁piiri	-2963
▁mma	-2964
▁teja	-2965
▁oitte	-2966
▁land	-2967
▁meri	-2968
▁ähtee	-2969
▁hank	-2970
▁oinut	-2971
▁tussa	-2972
▁uud	-2973
▁iten	-2974
▁uomar	-2975
▁täe	-2976
▁teet	-2977
▁uima	-2978
▁nteen	-2979
▁ntään	-2980
▁aare	-2981
▁kkai	-2982
▁kuvan	-2983
▁ahta	-2984
▁nost	-2985
▁tsem	-2986
ju	-2987
▁iinä	-2988
▁kaat	-2989
▁kats	-2990
▁aket	-2991
▁eir	-2992
▁Koko	-2993
▁alve	-2994
▁luva	-2995
▁odi	-2996
▁delli	-2997
▁jy	-2998
▁sent	-2999
▁aalin	-3000
▁ammik	-3001
▁ely	-3002
▁ors	-3003
▁auan	-3004
▁vallo	-3005
▁äivää	-3006
▁öi	-3007
▁ess	-3008
▁Täll	-3009
▁pääss	-3010
▁öm	-3011
▁tuh	-3012
▁kilo	-3013
▁tämis	-3014
▁Ca	-3015
▁Ju	-3016
▁ask	-3017
▁ehu	-3018
▁ula	-3019
▁ardi	-3020
▁amine	-3021
▁netta	-3022
▁siko	-3023
▁span	-3024
▁iihto	-3025
▁kaise	-3026
▁ahaa	-3027
▁äykse	-3028
▁äd	-3029
▁sinki	-3030
▁uomal	-3031
▁poj	-3032
▁liit	-3033
▁imman	-3034
▁tella	-3035
▁spanj	-3036
▁16	-3037
▁Ra	-3038
▁kku	-3039
▁urj	-3040
▁skus	-3041
▁ranta	-3042
▁ud	-3043
▁alaa	-3044
▁ottam	-3045
▁Eri	-3046
▁uuk	-3047
▁alust	-3048
▁18	-3049
▁akas	-3050
▁mistu	-3051
▁Le	-3052
▁loh	-3053
▁nkä	-3054
▁asem	-3055
▁lasta	-3056
▁ele	-3057
▁ppi	-3058
▁usea	-3059
▁arkka	-3060
▁uolle	-3061
od	-3062
▁ilv	-3063
▁lue	-3064
▁apin	-3065
▁ekst	-3066
▁poik	-3067
▁äässä	-3068
▁kaver	-3069
▁urun	-3070
▁vansa	-3071
▁ove	-3072
▁ahvi	-3073
▁kulta	-3074
▁Es	-3075
▁tapp	-3076
▁ättä	-3077
▁sata	-3078
▁päätö	-3079
▁iak	-3080
▁nty	-3081
▁muuto	-3082
▁ilj	-3083
▁yvää	-3084
▁aatii	-3085
▁neli	-3086
▁paa	-3087
▁dia	-3088
▁omp	-3089
▁str	-3090
▁akso	-3091
▁komis	-3092
▁alan	-3093
▁uori	-3094
▁lista	-3095
▁menee	-3096
▁ion	-3097
▁17	-3098
▁imi	-3099
▁pitk	-3100
▁uita	-3101
▁kkina	-3102
▁rinta	-3103
▁erg	-3104
▁iz	-3105
▁Työ	-3106
▁ryhm	-3107
▁ji	-3108
▁isan	-3109
▁elij	-3110
▁luot	-3111
▁Hu	-3112
▁puut	-3113
▁oulun	-3114
▁alvi	-3115
▁niem	-3116
▁ksiin	-3117
▁antu	-3118
▁otell	-3119
▁immi	-3120
▁port	-3121
▁Rova	-3122
▁aur	-3123
▁nes	-3124
▁otku	-3125
▁para	-3126
▁seur	-3127
▁ttäis	-3128
▁oott	-3129
▁väri	-3130
▁esu	-3131
▁lus	-3132
▁ome	-3133
▁atar	-3134
▁arina	-3135
▁risti	-3136
▁ntö	-3137
▁Me	-3138
▁ettua	-3139
▁puhel	-3140
▁uno	-3141
▁Valt	-3142
▁katk	-3143
▁alto	-3144
▁ympia	-3145
▁iö	-3146
▁ety	-3147
▁ntie	-3148
▁reen	-3149
▁vamm	-3150
▁sek	-3151
▁Auto	-3152
▁ial	-3153
▁Mik	-3154
▁nla	-3155
▁uru	-3156
▁isält	-3157
▁nlais	-3158
lia	-3159
▁lm	-3160
▁mpä	-3161
▁amer	-3162
▁Esp	-3163
▁nio	-3164
▁enit	-3165
▁huol	-3166
▁kalai	-3167
▁erro	-3168
▁menes	-3169
▁ralli	-3170
▁säänt	-3171
▁40	-3172
▁Ty	-3173
▁äin	-3174
▁ammu	-3175
▁desta	-3176
▁mont	-3177
▁arkki	-3178
▁mättä	-3179
▁verra	-3180
▁Kau	-3181
▁uola	-3182
▁avi	-3183
▁suude	-3184
▁ow	-3185
▁iski	-3186
▁enk	-3187
▁lko	-3188
▁vetä	-3189
BC	-3190
▁arti	-3191
▁ndr	-3192
▁ekij	-3193
▁oksi	-3194
▁ito	-3195
▁kkää	-3196
▁olmi	-3197
▁matta	-3198
▁iim	-3199
▁Tois	-3200
▁jälk	-3201
▁lessa	-3202
▁Kat	-3203
▁linj	-3204
▁nnon	-3205
▁fan	-3206
▁leg	-3207
▁eena	-3208
▁nneen	-3209
▁otil	-3210
hmo	-3211
▁sat	-3212
▁ieli	-3213
▁eilla	-3214
▁ampi	-3215
▁don	-3216
▁sov	-3217
▁kasvo	-3218
▁klo	-3219
▁uolta	-3220
ivi	-3221
▁ääne	-3222
▁Sc	-3223
▁eili	-3224
▁omaa	-3225
▁uttaa	-3226
▁100	-3227
▁lumi	-3228
▁muis	-3229
▁Bar	-3230
▁jääk	-3231
▁lav	-3232
▁veit	-3233
▁talia	-3234
▁äsi	-3235
▁nassa	-3236
▁ye	-3237
▁äyn	-3238
▁Mä	-3239
▁anm	-3240
▁atsom	-3241
▁istol	-3242
▁ino	-3243
▁oto	-3244
▁mpaa	-3245
▁ommi	-3246
▁eitti	-3247
▁ppo	-3248
▁lie	-3249
▁aksa	-3250
▁auko	-3251
▁taha	-3252
▁auksi	-3253
▁raska	-3254
▁oiton	-3255
▁sääst	-3256
▁yse	-3257
▁aimi	-3258
▁ääk	-3259
▁iele	-3260
▁oppa	-3261
▁hahmo	-3262
▁salo	-3263
▁äly	-3264
▁lemme	-3265
▁rahoi	-3266
▁uodos	-3267
▁Br	-3268
▁hdy	-3269
▁itkä	-3270
▁järv	-3271
▁maat	-3272
▁ep	-3273
▁pp	-3274
▁tien	-3275
▁esto	-3276
▁aul	-3277
▁ers	-3278
▁äti	-3279
▁kiert	-3280
▁lli	-3281
▁osaa	-3282
▁vahva	-3283
▁rep	-3284
▁ismi	-3285
▁yöpä	-3286
▁aisen	-3287
▁nnes	-3288
▁TT	-3289
▁eute	-3290
▁naur	-3291
▁inkaa	-3292
▁rak	-3293
▁yyli	-3294
▁yv	-3295
▁jak	-3296
▁ritti	-3297
▁oa	-3298
▁mir	-3299
▁vei	-3300
▁ere	-3301
▁rah	-3302
▁evä	-3303
▁ivi	-3304
▁ekijö	-3305
▁ält	-3306
▁ätk	-3307
▁oske	-3308
▁tsev	-3309
▁pur	-3310
▁tär	-3311
▁uvi	-3312
▁ossa	-3313
▁Per	-3314
▁sut	-3315
▁tavi	-3316
▁ailla	-3317
▁äynni	-3318
▁ahd	-3319
▁kke	-3320
▁mais	-3321
▁ansan	-3322
▁Mc	-3323
▁ämm	-3324
▁imma	-3325
▁vast	-3326
▁metri	-3327
▁Tor	-3328
▁rea	-3329
▁isty	-3330
▁aihto	-3331
per	-3332
▁almi	-3333
▁nien	-3334
▁räjä	-3335
▁läine	-3336
▁aje	-3337
▁hty	-3338
▁korke	-3339
▁unnan	-3340
▁urnau	-3341
▁nnit	-3342
▁urha	-3343
▁uudet	-3344
▁äki	-3345
▁enni	-3346
▁äänty	-3347
▁sesta	-3348
▁oka	-3349
▁sille	-3350
▁suk	-3351
▁entä	-3352
▁kesän	-3353
▁asen	-3354
▁oivo	-3355
▁tyn	-3356
▁osin	-3357
▁tuvat	-3358
▁älttä	-3359
▁24	-3360
▁ash	-3361
▁jatka	-3362
▁hyp	-3363
▁uski	-3364
▁unnis	-3365
▁Joe	-3366
▁anga	-3367
▁omuks	-3368
▁välit	-3369
▁Ver	-3370
▁ive	-3371
▁evat	-3372
▁leis	-3373
▁ysti	-3374
▁ekon	-3375
▁isko	-3376
▁é	-3377
▁aiv	-3378
▁outu	-3379
▁nähdä	-3380
▁viest	-3381
▁luk	-3382
dä	-3383
▁orn	-3384
▁oise	-3385
▁tama	-3386
▁ttaj	-3387
iv	-3388
▁kiis	-3389
▁Maa	-3390
▁posti	-3391
▁amas	-3392
▁nö	-3393
▁aise	-3394
▁erää	-3395
▁rasi	-3396
▁Ala	-3397
▁sor	-3398
▁ääm	-3399
▁kulm	-3400
im	-3401
▁ins	-3402
▁oen	-3403
▁ntäm	-3404
▁täne	-3405
▁ater	-3406
▁lina	-3407
▁ntin	-3408
▁elev	-3409
▁vuor	-3410
▁ämme	-3411
▁linna	-3412
▁pelas	-3413
▁tiivi	-3414
▁uolen	-3415
▁ska	-3416
▁aiset	-3417
▁äärin	-3418
▁let	-3419
▁ysee	-3420
▁mista	-3421
▁ös	-3422
▁eem	-3423
▁amme	-3424
▁näke	-3425
▁jalai	-3426
▁yksin	-3427
▁our	-3428
▁aaliv	-3429
▁avoim	-3430
▁töä	-3431
▁kome	-3432
▁mah	-3433
▁erot	-3434
▁lat	-3435
▁puk	-3436
▁tod	-3437
▁parin	-3438
ker	-3439
▁lon	-3440
▁sad	-3441
▁tajat	-3442
▁ttuja	-3443
▁nnis	-3444
▁Muu	-3445
▁nka	-3446
▁empa	-3447
▁teita	-3448
ppo	-3449
▁aata	-3450
▁ug	-3451
▁toon	-3452
▁kel	-3453
▁nuk	-3454
▁tue	-3455
▁eren	-3456
▁riisi	-3457
▁rhe	-3458
▁Häne	-3459
▁hall	-3460
▁jäse	-3461
▁syyte	-3462
▁telua	-3463
▁kait	-3464
▁pano	-3465
▁pani	-3466
▁ennyt	-3467
▁kea	-3468
▁isemm	-3469
▁ntaja	-3470
▁vuode	-3471
▁HL	-3472
▁Pal	-3473
▁irj	-3474
▁ovel	-3475
▁vähä	-3476
▁ääd	-3477
▁kaup	-3478
▁eta	-3479
▁yörä	-3480
▁yri	-3481
▁toks	-3482
▁ysty	-3483
▁nev	-3484
▁este	-3485
▁ieti	-3486
▁intä	-3487
▁arv	-3488
▁via	-3489
▁olet	-3490
▁ohtaj	-3491
▁ositi	-3492
▁rheil	-3493
▁ham	-3494
▁iho	-3495
▁isö	-3496
▁asuk	-3497
▁kans	-3498
▁Kyse	-3499
▁iske	-3500
▁pet	-3501
▁tyt	-3502
▁usp	-3503
▁aaja	-3504
▁riv	-3505
▁teitä	-3506
▁äkk	-3507
▁elt	-3508
▁ope	-3509
▁wa	-3510
▁ack	-3511
▁dän	-3512
▁toa	-3513
▁jais	-3514
▁osan	-3515
▁äärä	-3516
▁emma	-3517
▁öitä	-3518
▁uuri	-3519
▁esity	-3520
▁iston	-3521
▁ntoja	-3522
hl	-3523
▁bo	-3524
▁aini	-3525
▁arme	-3526
▁aite	-3527
▁arkas	-3528
▁anl	-3529
▁kti	-3530
▁uka	-3531
▁erra	-3532
▁keli	-3533
▁iikki	-3534
▁eto	-3535
▁kki	-3536
▁äid	-3537
▁jaan	-3538
▁tteri	-3539
▁ade	-3540
▁ron	-3541
▁anis	-3542
▁nnen	-3543
▁iiv	-3544
▁ite	-3545
▁aiem	-3546
▁assi	-3547
▁ento	-3548
▁ulki	-3549
▁mel	-3550
▁utis	-3551
▁oite	-3552
▁täysi	-3553
▁200	-3554
▁ens	-3555
▁teena	-3556
▁inv	-3557
▁aakk	-3558
▁suoj	-3559
▁oisin	-3560
▁sinne	-3561
,5	-3562
▁Kir	-3563
▁olm	-3564
▁lymp	-3565
▁Ga	-3566
▁oke	-3567
▁atal	-3568
▁ova	-3569
▁posit	-3570
by	-3571
▁nat	-3572
▁sisäl	-3573
▁vänsä	-3574
mar	-3575
▁lve	-3576
▁oil	-3577
▁ytyvä	-3578
▁äivit	-3579
▁De	-3580
▁työn	-3581
▁sijoi	-3582
▁Gu	-3583
▁aud	-3584
▁une	-3585
▁aria	-3586
▁aalit	-3587
▁nkari	-3588
▁ps	-3589
▁amu	-3590
▁pil	-3591
▁eräs	-3592
▁koit	-3593
▁ävät	-3594
▁vasti	-3595
▁kkel	-3596
▁kset	-3597
▁logi	-3598
▁nkään	-3599
▁tea	-3600
▁talon	-3601
▁Suu	-3602
▁ääs	-3603
▁ippu	-3604
▁innan	-3605
▁pelin	-3606
▁muo	-3607
▁tap	-3608
▁arus	-3609
▁iety	-3610
▁ihmi	-3611
▁aisk	-3612
▁uule	-3613
▁ltiin	-3614
istä	-3615
▁syk	-3616
▁uhta	-3617
▁takaa	-3618
▁tunee	-3619
▁ranga	-3620
▁Ar	-3621
▁äk	-3622
▁ous	-3623
▁uvu	-3624
▁uoka	-3625
▁annus	-3626
▁upe	-3627
▁erus	-3628
▁otte	-3629
▁ineen	-3630
▁pö	-3631
▁ärje	-3632
▁ohtaa	-3633
▁alt	-3634
▁omo	-3635
▁amal	-3636
▁selle	-3637
▁aaj	-3638
▁ren	-3639
▁kunni	-3640
▁musta	-3641
▁tilai	-3642
▁mot	-3643
▁äih	-3644
▁anee	-3645
▁arjan	-3646
▁itali	-3647
▁käänt	-3648
▁tilaa	-3649
▁YK	-3650
▁hn	-3651
▁app	-3652
▁hte	-3653
▁ämis	-3654
▁muksi	-3655
▁hak	-3656
▁kuuta	-3657
▁tumis	-3658
▁Ke	-3659
▁sivät	-3660
▁utkij	-3661
tr	-3662
▁inun	-3663
▁ypp	-3664
▁arin	-3665
▁istus	-3666
▁&	-3667
olf	-3668
▁aalta	-3669
▁ngl	-3670
▁kiit	-3671
▁pako	-3672
▁aap	-3673
▁Mark	-3674
▁sian	-3675
▁aava	-3676
▁ister	-3677
▁ern	-3678
▁opea	-3679
▁rata	-3680
▁sain	-3681
▁ather	-3682
▁della	-3683
▁mital	-3684
▁uissa	-3685
▁ape	-3686
▁mat	-3687
▁sama	-3688
▁mässä	-3689
▁oska	-3690
▁ame	-3691
▁uop	-3692
▁Pari	-3693
▁23	-3694
▁IF	-3695
▁500	-3696
▁eeni	-3697
▁huoli	-3698
▁elk	-3699
▁akaa	-3700
▁elto	-3701
▁nnin	-3702
▁tall	-3703
▁allin	-3704
▁ilk	-3705
▁olu	-3706
▁yht	-3707
▁insa	-3708
▁ähän	-3709
▁sella	-3710
▁roje	-3711
▁ästy	-3712
▁annin	-3713
▁21	-3714
▁22	-3715
▁ante	-3716
▁tety	-3717
▁tm	-3718
▁ksa	-3719
▁pah	-3720
▁Suur	-3721
▁ba	-3722
▁osti	-3723
▁olais	-3724
▁kaupp	-3725
▁malla	-3726
▁ona	-3727
▁onni	-3728
▁attav	-3729
▁siksi	-3730
▁angai	-3731
▁olk	-3732
▁ello	-3733
▁kaike	-3734
▁Kol	-3735
▁ind	-3736
▁jet	-3737
▁ntu	-3738
▁umi	-3739
▁enee	-3740
▁rose	-3741
▁össä	-3742
▁hd	-3743
▁ipu	-3744
▁omit	-3745
▁tele	-3746
▁inno	-3747
▁raja	-3748
▁pääst	-3749
▁viä	-3750
▁unais	-3751
▁Nä	-3752
▁siv	-3753
▁ennu	-3754
▁tusk	-3755
▁uheen	-3756
▁ule	-3757
▁vut	-3758
▁lime	-3759
▁Lapi	-3760
▁linen	-3761
▁rastu	-3762
▁19	-3763
▁olin	-3764
▁uutu	-3765
▁yvän	-3766
▁kuvaa	-3767
▁atsa	-3768
▁nei	-3769
▁ute	-3770
▁yöh	-3771
▁sko	-3772
▁ymy	-3773
▁Mari	-3774
▁tyne	-3775
▁vien	-3776
▁tensa	-3777
▁og	-3778
▁rut	-3779
▁60	-3780
▁kai	-3781
▁mpää	-3782
▁ttäv	-3783
▁kkö	-3784
▁aura	-3785
▁isat	-3786
▁Mäk	-3787
▁era	-3788
▁oha	-3789
▁arjo	-3790
▁ster	-3791
ent	-3792
▁27	-3793
▁Su	-3794
▁ikka	-3795
▁eella	-3796
▁huole	-3797
▁turna	-3798
▁iemm	-3799
▁irkk	-3800
▁uttu	-3801
▁aluei	-3802
▁ose	-3803
▁tt	-3804
▁lom	-3805
▁ajam	-3806
▁lehd	-3807
ba	-3808
▁ski	-3809
▁onto	-3810
▁yden	-3811
▁perin	-3812
▁ey	-3813
▁kod	-3814
▁toki	-3815
▁äänt	-3816
▁ähi	-3817
▁ulke	-3818
▁äni	-3819
▁aula	-3820
▁pelaa	-3821
▁anon	-3822
▁keil	-3823
▁äntä	-3824
▁odist	-3825
▁edia	-3826
▁ulje	-3827
▁US	-3828
▁rän	-3829
▁ntai	-3830
▁aatto	-3831
▁lisen	-3832
▁alun	-3833
▁aansa	-3834
▁nuori	-3835
▁Leh	-3836
▁ärv	-3837
▁nnee	-3838
▁tart	-3839
PS	-3840
dp	-3841
▁kalli	-3842
▁niä	-3843
▁ohk	-3844
▁ilev	-3845
▁uuten	-3846
▁emi	-3847
▁olt	-3848
▁Kolm	-3849
▁aris	-3850
▁ukem	-3851
▁ica	-3852
▁avaa	-3853
▁enin	-3854
▁tuis	-3855
▁tuva	-3856
▁kokoo	-3857
▁tusti	-3858
▁äp	-3859
▁tellä	-3860
at	-3861
▁alv	-3862
▁ykk	-3863
▁ykset	-3864
▁denk	-3865
▁iaal	-3866
erc	-3867
▁tem	-3868
▁täjä	-3869
▁raina	-3870
▁Kär	-3871
▁atr	-3872
▁Rovan	-3873
▁muutt	-3874
▁tyttä	-3875
▁vuoro	-3876
▁IFK	-3877
▁air	-3878
▁aper	-3879
▁auki	-3880
▁ukko	-3881
▁uunni	-3882
▁q	-3883
▁ette	-3884
▁mato	-3885
▁neide	-3886
▁nneks	-3887
▁puu	-3888
ca	-3889
▁Sai	-3890
▁allis	-3891
▁misen	-3892
▁eika	-3893
▁senä	-3894
▁veri	-3895
▁alm	-3896
▁rkki	-3897
FP	-3898
▁anka	-3899
▁yttäv	-3900
▁bri	-3901
▁ovaa	-3902
▁töstä	-3903
DP	-3904
▁lit	-3905
▁rem	-3906
go	-3907
▁tim	-3908
▁istää	-3909
▁ttää	-3910
▁vas	-3911
▁öri	-3912
▁ec	-3913
▁ore	-3914
▁usk	-3915
▁eino	-3916
▁stäj	-3917
▁teke	-3918
▁uvia	-3919
▁oimaa	-3920
▁dus	-3921
▁ump	-3922
▁alme	-3923
▁äästö	-3924
▁gr	-3925
▁iemi	-3926
▁inin	-3927
▁lei	-3928
▁ure	-3929
▁uste	-3930
▁teide	-3931
▁teltu	-3932
▁avan	-3933
isa	-3934
▁ilä	-3935
▁kum	-3936
▁vey	-3937
▁oittu	-3938
▁ohe	-3939
▁ulu	-3940
▁omat	-3941
▁AFP	-3942
▁Mon	-3943
▁oris	-3944
▁soda	-3945
▁maine	-3946
▁viera	-3947
▁alua	-3948
▁atau	-3949
▁iika	-3950
▁oisi	-3951
▁lov	-3952
▁urm	-3953
▁iska	-3954
▁dok	-3955
▁ies	-3956
▁osk	-3957
▁Hy	-3958
▁BBC	-3959
▁los	-3960
▁nem	-3961
▁äil	-3962
▁nutta	-3963
▁rj	-3964
▁tehd	-3965
▁rikos	-3966
▁CN	-3967
▁yk	-3968
▁Kai	-3969
▁änn	-3970
▁Meri	-3971
▁araa	-3972
▁yyte	-3973
▁Q	-3974
▁eter	-3975
▁hait	-3976
▁iihd	-3977
▁kielt	-3978
▁%	-3979
▁ew	-3980
▁aip	-3981
▁jan	-3982
▁ilee	-3983
▁saan	-3984
▁isena	-3985
▁arve	-3986
▁eilij	-3987
▁isimm	-3988
▁eka	-3989
▁goi	-3990
▁kuka	-3991
▁otuks	-3992
ber	-3993
▁aaks	-3994
▁lip	-3995
▁Turu	-3996
▁tulle	-3997
ood	-3998
▁Fin	-3999
▁astu	-4000
▁pidä	-4001
▁sunnu	-4002
▁26	-4003
▁arvit	-4004
▁omaan	-4005
▁dr	-4006
▁kanen	-4007
▁aits	-4008
▁inni	-4009
▁luu	-4010
▁urg	-4011
▁nten	-4012
▁innoi	-4013
▁mb	-4014
▁näy	-4015
▁oro	-4016
▁Tuom	-4017
▁auva	-4018
▁isään	-4019
▁uollo	-4020
▁ök	-4021
▁SDP	-4022
▁oste	-4023
▁samaa	-4024
▁hol	-4025
▁ral	-4026
▁rid	-4027
▁eron	-4028
▁hmis	-4029
▁stra	-4030
▁aala	-4031
▁elli	-4032
▁essi	-4033
▁inais	-4034
▁ltaan	-4035
▁ollis	-4036
▁HS	-4037
▁län	-4038
▁koll	-4039
▁list	-4040
▁yp	-4041
▁ley	-4042
▁uore	-4043
▁yväs	-4044
▁ksien	-4045
▁liitt	-4046
▁Ex	-4047
▁sh	-4048
▁okk	-4049
▁age	-4050
▁anie	-4051
▁iss	-4052
▁ook	-4053
▁unk	-4054
▁lass	-4055
▁oksia	-4056
▁veyde	-4057
▁nanta	-4058
▁ikk	-4059
▁enny	-4060
▁suos	-4061
▁uoles	-4062
▁ato	-4063
▁otk	-4064
▁aiss	-4065
▁ausk	-4066
▁af	-4067
▁vy	-4068
▁Tai	-4069
▁nter	-4070
▁pohj	-4071
▁aras	-4072
▁jaka	-4073
▁ht	-4074
▁tas	-4075
▁kirk	-4076
▁viil	-4077
▁Gran	-4078
▁konf	-4079
▁saam	-4080
▁varo	-4081
▁ske	-4082
▁arko	-4083
▁kkaa	-4084
▁Seura	-4085
▁CNN	-4086
▁mut	-4087
▁omia	-4088
and	-4089
▁eon	-4090
▁Ter	-4091
▁soi	-4092
▁misi	-4093
▁väär	-4094
▁ehk	-4095
▁nas	-4096
▁yte	-4097
▁imes	-4098
▁ulis	-4099
▁muodo	-4100
▁atko	-4101
▁isoi	-4102
▁öt	-4103
▁Par	-4104
▁eti	-4105
▁pite	-4106
▁ahi	-4107
▁ale	-4108
▁auna	-4109
▁atri	-4110
▁untu	-4111
▁väksi	-4112
▁uhr	-4113
▁keho	-4114
▁allon	-4115
▁kentä	-4116
▁ema	-4117
▁stol	-4118
▁ntiin	-4119
▁viiko	-4120
ie	-4121
▁ora	-4122
▁nkii	-4123
▁rint	-4124
▁hankk	-4125
▁riste	-4126
una	-4127
▁oos	-4128
▁ampa	-4129
▁estö	-4130
▁irja	-4131
▁uran	-4132
▁airas	-4133
▁istis	-4134
▁rkist	-4135
▁35	-4136
▁dat	-4137
▁ainee	-4138
▁itell	-4139
▁luke	-4140
▁päil	-4141
▁Nik	-4142
▁alus	-4143
▁ielä	-4144
▁mani	-4145
▁ros	-4146
▁siä	-4147
▁ittu	-4148
▁nalle	-4149
▁sissa	-4150
▁uttav	-4151
rii	-4152
▁eak	-4153
▁uhu	-4154
▁issu	-4155
▁otus	-4156
▁istam	-4157
▁rat	-4158
▁sih	-4159
▁ostaa	-4160
▁ikäi	-4161
▁teer	-4162
▁allas	-4163
▁ansai	-4164
▁kav	-4165
▁äme	-4166
▁euvo	-4167
▁ttäm	-4168
▁astel	-4169
ci	-4170
▁anh	-4171
▁hun	-4172
▁ivu	-4173
▁jar	-4174
▁sum	-4175
▁emis	-4176
▁enta	-4177
▁otaa	-4178
▁uoti	-4179
▁wi	-4180
▁isiä	-4181
▁leik	-4182
▁täys	-4183
▁luist	-4184
▁sydä	-4185
▁ellyt	-4186
▁nia	-4187
▁ison	-4188
▁dyt	-4189
▁lay	-4190
▁28	-4191
▁lyn	-4192
▁Ed	-4193
▁Sdp	-4194
▁hkä	-4195
▁ile	-4196
▁alik	-4197
▁iisi	-4198
▁ngel	-4199
▁ellut	-4200
▁kär	-4201
▁krii	-4202
▁tutu	-4203
▁ökse	-4204
▁seksi	-4205
▁koo	-4206
▁ost	-4207
▁uov	-4208
▁lisi	-4209
▁takin	-4210
▁ttävä	-4211
▁ns	-4212
▁ym	-4213
▁opi	-4214
▁ntoa	-4215
▁tuul	-4216
▁äkkä	-4217
▁oinni	-4218
▁tystä	-4219
▁eil	-4220
▁älä	-4221
▁oida	-4222
▁muute	-4223
▁nteis	-4224
▁huip	-4225
▁oiva	-4226
▁averi	-4227
▁deksi	-4228
▁neita	-4229
▁raken	-4230
▁kal	-4231
▁nai	-4232
▁kivi	-4233
▁ttyä	-4234
▁aide	-4235
▁gram	-4236
▁yd	-4237
▁anha	-4238
▁siin	-4239
▁suju	-4240
▁ch	-4241
▁int	-4242
▁oom	-4243
▁näki	-4244
▁palk	-4245
▁uotte	-4246
▁aas	-4247
▁sur	-4248
▁alvo	-4249
▁öiden	-4250
▁USA	-4251
▁änt	-4252
▁kene	-4253
▁ulta	-4254
▁ähkö	-4255
▁x	-4256
▁sea	-4257
▁aara	-4258
▁aust	-4259
▁orma	-4260
▁eskit	-4261
mpu	-4262
▁iks	-4263
▁itt	-4264
▁nähd	-4265
▁tävää	-4266
▁imä	-4267
▁öjä	-4268
▁ökk	-4269
▁tuha	-4270
▁laati	-4271
▁tei	-4272
▁etuk	-4273
▁akku	-4274
▁atto	-4275
▁pään	-4276
▁pääs	-4277
▁nlop	-4278
▁äntö	-4279
▁isyy	-4280
▁oku	-4281
▁pen	-4282
▁vuu	-4283
▁iassa	-4284
▁nosti	-4285
▁1,	-4286
▁St	-4287
▁kyy	-4288
▁kail	-4289
▁onsa	-4290
▁kossa	-4291
▁miste	-4292
▁elj	-4293
▁uho	-4294
▁eltä	-4295
▁enkä	-4296
▁nalai	-4297
▁ees	-4298
▁lty	-4299
▁apah	-4300
▁kaal	-4301
▁koja	-4302
▁sm	-4303
▁Kur	-4304
▁ode	-4305
▁rok	-4306
▁diag	-4307
▁henk	-4308
▁nmaa	-4309
▁kulku	-4310
▁suute	-4311
▁[	-4312
▁29	-4313
▁auti	-4314
▁ntel	-4315
▁väis	-4316
ere	-4317
▁nh	-4318
▁syv	-4319
▁nnist	-4320
▁erhe	-4321
▁öytä	-4322
▁aalli	-4323
▁]	-4324
▁Wil	-4325
▁ven	-4326
▁utun	-4327
▁ohjan	-4328
▁spe	-4329
▁paran	-4330
▁salli	-4331
▁suori	-4332
▁epp	-4333
▁must	-4334
▁isyyd	-4335
▁ämään	-4336
▁ania	-4337
▁enäl	-4338
▁ital	-4339
▁iusa	-4340
▁äyte	-4341
mmo	-4342
▁Poh	-4343
▁itto	-4344
▁ulma	-4345
▁jö	-4346
▁Ant	-4347
▁nkk	-4348
▁det	-4349
▁käs	-4350
▁läs	-4351
▁äär	-4352
▁osak	-4353
▁400	-4354
▁ilja	-4355
▁lasi	-4356
▁sket	-4357
▁verk	-4358
▁oneen	-4359
isto	-4360
▁Ede	-4361
▁she	-4362
▁ikeus	-4363
▁tajaa	-4364
▁välis	-4365
▁eim	-4366
▁ioi	-4367
▁rop	-4368
▁änd	-4369
▁As	-4370
▁oc	-4371
▁rie	-4372
▁Pol	-4373
▁aak	-4374
▁uli	-4375
▁etsä	-4376
▁lk	-4377
▁väk	-4378
▁utui	-4379
gan	-4380
▁fi	-4381
▁ega	-4382
▁iita	-4383
▁ttane	-4384
fa	-4385
▁300	-4386
▁uen	-4387
▁yti	-4388
▁noo	-4389
▁tre	-4390
▁nnet	-4391
▁tein	-4392
▁altai	-4393
▁aremm	-4394
▁juoks	-4395
▁ralla	-4396
▁Ny	-4397
▁Ari	-4398
▁odo	-4399
▁ret	-4400
▁appe	-4401
▁mala	-4402
▁ohti	-4403
▁tilä	-4404
▁ttoi	-4405
▁80	-4406
▁ars	-4407
▁reit	-4408
▁varma	-4409
▁emä	-4410
▁Sy	-4411
▁sv	-4412
▁Koi	-4413
▁kus	-4414
▁astau	-4415
▁tinen	-4416
▁aike	-4417
▁auha	-4418
▁nite	-4419
▁delle	-4420
▁sessa	-4421
▁tym	-4422
▁uja	-4423
▁uso	-4424
▁auka	-4425
▁pasi	-4426
▁vala	-4427
▁altaa	-4428
▁korva	-4429
▁nmaan	-4430
▁Joh	-4431
▁ttis	-4432
▁väki	-4433
▁öntä	-4434
mb	-4435
▁itk	-4436
▁mari	-4437
▁tont	-4438
▁vist	-4439
▁äyty	-4440
▁isten	-4441
▁nku	-4442
▁vit	-4443
▁Koivu	-4444
▁ittav	-4445
▁Ba	-4446
▁uit	-4447
▁yön	-4448
▁etus	-4449
▁ulla	-4450
up	-4451
▁inh	-4452
▁aaka	-4453
▁kuri	-4454
▁pailu	-4455
▁selvä	-4456
▁tanee	-4457
▁kät	-4458
▁tit	-4459
▁ankk	-4460
▁ieni	-4461
▁staa	-4462
▁työt	-4463
▁ulkom	-4464
▁ez	-4465
▁kuo	-4466
▁aitos	-4467
▁alkan	-4468
▁isenä	-4469
▁are	-4470
▁imp	-4471
▁eeri	-4472
▁olme	-4473
▁stav	-4474
▁unen	-4475
▁untia	-4476
▁70	-4477
▁idä	-4478
▁yöt	-4479
▁herä	-4480
▁yssä	-4481
▁istel	-4482
▁itys	-4483
▁ment	-4484
▁osen	-4485
▁moott	-4486
▁yistä	-4487
▁uhk	-4488
▁emmat	-4489
▁llist	-4490
▁ult	-4491
▁issi	-4492
▁PS	-4493
▁dis	-4494
▁not	-4495
▁rmo	-4496
▁askel	-4497
▁ittai	-4498
▁Wal	-4499
▁Leht	-4500
▁Pohj	-4501
▁laaja	-4502
▁ias	-4503
▁kej	-4504
▁avid	-4505
▁koil	-4506
▁oisia	-4507
▁telle	-4508
▁toive	-4509
▁oks	-4510
▁iris	-4511
▁irka	-4512
▁ousu	-4513
▁ytys	-4514
▁uihin	-4515
▁yksis	-4516
▁log	-4517
▁tok	-4518
▁tra	-4519
▁anma	-4520
▁kkee	-4521
▁ttui	-4522
▁entää	-4523
▁oilta	-4524
▁tynyt	-4525
end	-4526
▁tko	-4527
▁oistu	-4528
▁suoja	-4529
▁tavaa	-4530
▁Ur	-4531
▁Lep	-4532
▁inte	-4533
▁Viron	-4534
▁iigan	-4535
▁ge	-4536
▁sd	-4537
▁pos	-4538
▁kava	-4539
▁eko	-4540
▁lia	-4541
▁yst	-4542
▁alai	-4543
▁koise	-4544
▁hir	-4545
▁arje	-4546
▁ähti	-4547
▁vassa	-4548
▁go	-4549
▁auh	-4550
▁mii	-4551
▁tyi	-4552
▁vet	-4553
▁Caro	-4554
▁iell	-4555
▁ikki	-4556
▁njoh	-4557
▁tuut	-4558
▁nettu	-4559
▁be	-4560
▁ämp	-4561
▁Viro	-4562
▁innos	-4563
▁sän	-4564
▁adan	-4565
▁iekk	-4566
▁fr	-4567
▁ima	-4568
▁rap	-4569
▁erän	-4570
▁htaa	-4571
▁atkuv	-4572
▁konee	-4573
▁uluva	-4574
▁Wa	-4575
▁opeu	-4576
▁oppu	-4577
▁jokai	-4578
▁omero	-4579
ft	-4580
▁Oy	-4581
▁aks	-4582
▁leh	-4583
▁itty	-4584
▁paan	-4585
▁Kr	-4586
▁Matt	-4587
▁merk	-4588
▁okuv	-4589
▁kuvat	-4590
▁lanti	-4591
▁dop	-4592
▁ved	-4593
▁rista	-4594
▁kuv	-4595
▁lku	-4596
▁ons	-4597
▁tes	-4598
▁ikan	-4599
▁kari	-4600
▁aalis	-4601
▁huolt	-4602
▁ekä	-4603
▁äne	-4604
▁öin	-4605
▁arka	-4606
▁nsim	-4607
▁tasi	-4608
▁tauo	-4609
▁tyyl	-4610
▁yvät	-4611
▁ankar	-4612
▁45	-4613
▁avia	-4614
▁innu	-4615
▁styks	-4616
▁arta	-4617
▁tarv	-4618
▁atvia	-4619
▁einen	-4620
▁km	-4621
▁lio	-4622
▁tau	-4623
▁äisi	-4624
▁änet	-4625
▁laski	-4626
kär	-4627
▁Ri	-4628
▁eos	-4629
▁ävy	-4630
▁htiö	-4631
▁joukk	-4632
▁läsnä	-4633
▁yhtey	-4634
▁tyk	-4635
▁asva	-4636
▁evät	-4637
▁iilo	-4638
▁neis	-4639
▁kiva	-4640
▁tuus	-4641
▁laitt	-4642
▁omien	-4643
▁ulkop	-4644
▁Mai	-4645
▁Tur	-4646
▁hai	-4647
▁kah	-4648
▁lent	-4649
▁luks	-4650
▁ntia	-4651
▁siiv	-4652
▁töks	-4653
▁vissa	-4654
▁Bo	-4655
▁out	-4656
▁alio	-4657
▁istaa	-4658
▁Au	-4659
▁mö	-4660
▁amo	-4661
▁eljä	-4662
▁kuit	-4663
▁matk	-4664
▁liv	-4665
▁löi	-4666
▁nik	-4667
▁uet	-4668
▁yne	-4669
▁anss	-4670
▁iedo	-4671
▁ace	-4672
▁kym	-4673
▁mys	-4674
▁ataa	-4675
▁Di	-4676
▁SA	-4677
▁lou	-4678
▁iste	-4679
▁link	-4680
▁utti	-4681
▁konen	-4682
bin	-4683
▁mmo	-4684
▁golf	-4685
▁saane	-4686
▁tarin	-4687
▁jalk	-4688
▁rauh	-4689
▁usto	-4690
▁ostam	-4691
gg	-4692
▁Ol	-4693
▁eny	-4694
▁lak	-4695
▁alon	-4696
▁eltu	-4697
▁mpere	-4698
▁odote	-4699
▁inl	-4700
▁kim	-4701
▁äsk	-4702
▁kop	-4703
▁ävä	-4704
▁jonk	-4705
▁otim	-4706
▁tkin	-4707
▁lukse	-4708
▁hit	-4709
▁köi	-4710
▁elpo	-4711
▁nnoi	-4712
▁nsin	-4713
▁sikko	-4714
▁teema	-4715
▁tteli	-4716
▁aast	-4717
▁lari	-4718
▁ähde	-4719
▁ca	-4720
▁erin	-4721
▁llan	-4722
▁äsen	-4723
▁entaa	-4724
KP	-4725
za	-4726
▁For	-4727
▁Max	-4728
▁for	-4729
▁hri	-4730
▁kasi	-4731
▁laat	-4732
▁malt	-4733
▁lanni	-4734
▁pt	-4735
▁soo	-4736
▁alat	-4737
▁ituks	-4738
▁rva	-4739
▁amin	-4740
▁kons	-4741
▁äily	-4742
▁reena	-4743
be	-4744
▁ehe	-4745
▁hal	-4746
▁syl	-4747
▁uee	-4748
▁ikse	-4749
▁aivaa	-4750
▁th	-4751
▁hää	-4752
▁uma	-4753
▁laps	-4754
▁Jar	-4755
▁yör	-4756
▁innä	-4757
▁oika	-4758
▁ytty	-4759
▁tammi	-4760
ah	-4761
▁Mu	-4762
▁elv	-4763
▁llyt	-4764
▁mman	-4765
▁uusk	-4766
▁lassa	-4767
▁masta	-4768
▁oe	-4769
▁hum	-4770
▁aate	-4771
▁idea	-4772
▁koho	-4773
▁ytti	-4774
▁tanen	-4775
▁vaikk	-4776
▁90	-4777
▁yrk	-4778
▁yös	-4779
▁atka	-4780
▁eoll	-4781
▁evan	-4782
▁isän	-4783
▁itsi	-4784
▁rill	-4785
▁toisi	-4786
▁yöm	-4787
▁äivi	-4788
▁Ab	-4789
▁arke	-4790
▁onna	-4791
▁tetu	-4792
▁uutee	-4793
▁edo	-4794
▁oko	-4795
▁aalie	-4796
uni	-4797
▁keu	-4798
▁lly	-4799
▁ltav	-4800
▁ääki	-4801
▁eija	-4802
▁entin	-4803
▁sestä	-4804
▁Wi	-4805
▁pla	-4806
▁ande	-4807
▁yyty	-4808
▁iista	-4809
▁Kou	-4810
▁evi	-4811
▁ipp	-4812
▁ärs	-4813
▁Merc	-4814
▁ammi	-4815
▁anja	-4816
▁auli	-4817
▁ieno	-4818
▁uista	-4819
▁31	-4820
▁akuu	-4821
▁alti	-4822
▁anan	-4823
▁evää	-4824
▁nest	-4825
▁estää	-4826
▁päätt	-4827
▁hot	-4828
▁mas	-4829
▁ner	-4830
▁äjä	-4831
▁aval	-4832
▁inal	-4833
▁kaut	-4834
▁seis	-4835
▁toipu	-4836
▁2,	-4837
▁oiv	-4838
▁tsa	-4839
▁eisk	-4840
▁ijan	-4841
▁ikea	-4842
▁uudi	-4843
▁voin	-4844
▁eeksi	-4845
▁netti	-4846
▁elik	-4847
▁hetk	-4848
▁rati	-4849
▁äj	-4850
▁nur	-4851
▁etää	-4852
▁ohdi	-4853
▁kaist	-4854
▁Aki	-4855
▁Car	-4856
▁Exp	-4857
▁Yli	-4858
▁lyy	-4859
▁mpa	-4860
▁rov	-4861
▁atin	-4862
▁harj	-4863
▁ohja	-4864
▁uska	-4865
▁llise	-4866
▁utust	-4867
lem	-4868
▁akka	-4869
▁ntak	-4870
▁ulev	-4871
▁kerra	-4872
▁eut	-4873
▁unu	-4874
▁uuto	-4875
▁eskel	-4876
lor	-4877
▁tl	-4878
▁yä	-4879
▁eam	-4880
▁ler	-4881
▁tik	-4882
▁mana	-4883
▁onin	-4884
▁rii	-4885
▁akia	-4886
▁eist	-4887
▁elee	-4888
▁olem	-4889
▁Harri	-4890
▁32	-4891
▁etti	-4892
▁melk	-4893
▁mmat	-4894
▁pila	-4895
▁dut	-4896
▁nun	-4897
▁esse	-4898
▁kang	-4899
▁nton	-4900
▁ohje	-4901
▁ottu	-4902
▁stap	-4903
▁rinen	-4904
ek	-4905
hku	-4906
par	-4907
▁Lat	-4908
▁Red	-4909
▁Sel	-4910
▁ram	-4911
▁rss	-4912
▁uda	-4913
▁alit	-4914
▁anth	-4915
▁ilti	-4916
▁itää	-4917
▁unai	-4918
▁vank	-4919
▁mater	-4920
▁okkaa	-4921
▁tietä	-4922
▁utune	-4923
▁ass	-4924
▁asku	-4925
▁mail	-4926
▁Kaisa	-4927
▁anche	-4928
▁aske	-4929
▁entt	-4930
▁etro	-4931
▁kkiä	-4932
▁lkee	-4933
▁ivist	-4934
▁silta	-4935
▁ttäjä	-4936
▁urist	-4937
▁š	-4938
▁doi	-4939
▁nal	-4940
▁opo	-4941
▁uko	-4942
▁aille	-4943
▁aru	-4944
▁iem	-4945
▁inp	-4946
▁aavo	-4947
▁ihla	-4948
▁ikon	-4949
▁vais	-4950
▁ainaa	-4951
▁dosta	-4952
▁kia	-4953
▁upo	-4954
▁aasa	-4955
▁anner	-4956
▁voida	-4957
▁Ö	-4958
▁sc	-4959
▁ts	-4960
▁Eli	-4961
▁keik	-4962
▁urva	-4963
▁tover	-4964
wa	-4965
jen	-4966
oni	-4967
▁SS	-4968
▁jia	-4969
▁ääj	-4970
▁hjel	-4971
▁ikai	-4972
▁jien	-4973
▁iskun	-4974
▁36	-4975
▁Nii	-4976
▁SAK	-4977
▁can	-4978
▁etr	-4979
▁kua	-4980
▁mäk	-4981
▁anko	-4982
▁enka	-4983
▁toni	-4984
▁ary	-4985
▁ily	-4986
▁ono	-4987
▁sas	-4988
▁uti	-4989
▁atie	-4990
▁kolla	-4991
ud	-4992
▁rei	-4993
▁ames	-4994
▁siirt	-4995
▁tymis	-4996
▁El	-4997
▁rav	-4998
▁lenk	-4999
▁ness	-5000
▁osia	-5001
▁ntaan	-5002
BA	-5003
▁br	-5004
▁ulm	-5005
▁ekse	-5006
▁äyks	-5007
▁ü	-5008
▁34	-5009
▁uiv	-5010
▁uss	-5011
▁isar	-5012
▁ovan	-5013
▁raal	-5014
▁iitti	-5015
▁trend	-5016
▁2-	-5017
▁ao	-5018
▁kt	-5019
▁pat	-5020
▁ääv	-5021
▁ikeu	-5022
▁iljo	-5023
▁insä	-5024
▁kant	-5025
▁skal	-5026
▁minut	-5027
lob	-5028
▁Da	-5029
▁evo	-5030
▁hat	-5031
▁alen	-5032
▁skel	-5033
▁vinen	-5034
▁tol	-5035
▁akti	-5036
▁ikoi	-5037
▁mien	-5038
▁stan	-5039
▁uiva	-5040
▁sitte	-5041
▁co	-5042
▁Kon	-5043
▁täs	-5044
▁aasu	-5045
▁emään	-5046
▁mäl	-5047
▁ytö	-5048
▁akan	-5049
▁uise	-5050
bi	-5051
▁Do	-5052
▁iru	-5053
▁isy	-5054
▁iisa	-5055
▁otan	-5056
▁tymä	-5057
▁uuti	-5058
▁aikko	-5059
▁soker	-5060
▁eih	-5061
▁ipe	-5062
▁käi	-5063
▁yyt	-5064
▁tail	-5065
▁pyörä	-5066
ry	-5067
▁ff	-5068
▁Por	-5069
▁mal	-5070
▁oso	-5071
▁nant	-5072
▁uske	-5073
▁aisee	-5074
▁loist	-5075
▁ce	-5076
▁800	-5077
▁ish	-5078
▁the	-5079
▁äen	-5080
▁line	-5081
▁mann	-5082
▁uulla	-5083
▁Yo	-5084
▁unne	-5085
▁puhut	-5086
▁satam	-5087
▁tilla	-5088
▁hta	-5089
▁iip	-5090
▁empä	-5091
▁joit	-5092
▁skon	-5093
▁teis	-5094
▁ierai	-5095
▁iikke	-5096
▁ntine	-5097
▁Th	-5098
▁Ker	-5099
▁Näi	-5100
▁hko	-5101
▁ähd	-5102
▁emmi	-5103
▁oide	-5104
▁valt	-5105
▁konku	-5106
▁yttäm	-5107
▁Is	-5108
▁Mo	-5109
▁Kouvo	-5110
▁uttua	-5111
▁FC	-5112
▁Tie	-5113
▁ajar	-5114
▁ance	-5115
▁ränd	-5116
▁skin	-5117
▁ainut	-5118
▁stain	-5119
▁apaik	-5120
bul	-5121
▁Va	-5122
▁dl	-5123
▁htu	-5124
▁Sama	-5125
▁millä	-5126
▁tyvät	-5127
▁1.	-5128
▁rb	-5129
▁gat	-5130
▁yyn	-5131
▁öit	-5132
▁lleet	-5133
▁uheli	-5134
kuu	-5135
▁We	-5136
▁rc	-5137
▁pot	-5138
▁niuk	-5139
▁ullu	-5140
▁Viran	-5141
▁=	-5142
▁33	-5143
▁ger	-5144
▁uki	-5145
▁tävi	-5146
▁vika	-5147
▁kaani	-5148
▁gi	-5149
▁Ara	-5150
▁dig	-5151
▁noj	-5152
▁anot	-5153
▁auno	-5154
▁ellu	-5155
▁elma	-5156
▁koir	-5157
▁murh	-5158
▁utua	-5159
▁uuma	-5160
▁Kimmo	-5161
▁entam	-5162
▁konkr	-5163
▁ottav	-5164
▁orj	-5165
▁sse	-5166
▁irto	-5167
▁puna	-5168
▁unsa	-5169
▁harjo	-5170
▁Elo	-5171
▁Net	-5172
▁arm	-5173
▁esa	-5174
▁htä	-5175
▁ppu	-5176
▁apaa	-5177
▁emmä	-5178
▁kulk	-5179
▁liev	-5180
▁mini	-5181
▁ppaa	-5182
▁tajia	-5183
▁sr	-5184
▁ett	-5185
▁ivä	-5186
▁appu	-5187
▁kauk	-5188
▁lton	-5189
▁otka	-5190
▁tiai	-5191
▁Montr	-5192
▁arc	-5193
▁emo	-5194
▁uuh	-5195
▁itus	-5196
▁käis	-5197
▁molem	-5198
▁nilla	-5199
▁saira	-5200
fe	-5201
▁Gr	-5202
▁Ete	-5203
▁ehn	-5204
▁inja	-5205
▁keen	-5206
▁ullo	-5207
▁ilais	-5208
▁aup	-5209
▁kyv	-5210
▁auhe	-5211
▁seni	-5212
▁taho	-5213
▁ainaj	-5214
▁dossa	-5215
▁lintu	-5216
▁naura	-5217
MA	-5218
lar	-5219
▁Her	-5220
▁lys	-5221
▁kkös	-5222
▁oito	-5223
▁Color	-5224
▁mällä	-5225
▁saami	-5226
▁silla	-5227
ger	-5228
▁ynt	-5229
▁ittä	-5230
▁lois	-5231
▁austa	-5232
▁oteut	-5233
▁valio	-5234
▁Fo	-5235
▁rl	-5236
▁him	-5237
▁erve	-5238
▁inki	-5239
▁3-	-5240
▁ga	-5241
tonb	-5242
▁mite	-5243
▁ellai	-5244
▁ftonb	-5245
▁tämät	-5246
▁Lo	-5247
▁anu	-5248
▁oho	-5249
▁rot	-5250
▁tij	-5251
▁tri	-5252
▁ekko	-5253
▁onka	-5254
gu	-5255
▁Ot	-5256
▁iek	-5257
▁iov	-5258
▁mun	-5259
▁rvo	-5260
▁sau	-5261
▁ruok	-5262
▁tani	-5263
▁iiden	-5264
▁€	-5265
▁öö	-5266
▁Ben	-5267
▁ung	-5268
▁pist	-5269
▁yttää	-5270
▁ärkei	-5271
bo	-5272
▁Hal	-5273
▁irr	-5274
▁miä	-5275
▁smi	-5276
▁top	-5277
▁aksu	-5278
▁elit	-5279
▁ever	-5280
▁kiri	-5281
▁ulli	-5282
▁usin	-5283
▁tuoll	-5284
▁Am	-5285
▁Los	-5286
▁erm	-5287
▁iia	-5288
▁ikin	-5289
▁ähtä	-5290
▁akkaa	-5291
▁oimis	-5292
▁aken	-5293
▁elim	-5294
▁elmi	-5295
▁koon	-5296
▁otia	-5297
▁oton	-5298
▁uvan	-5299
▁telun	-5300
▁äistä	-5301
nes	-5302
uun	-5303
▁38	-5304
▁Kuu	-5305
▁reh	-5306
▁uok	-5307
▁syvä	-5308
▁unto	-5309
▁yönt	-5310
lä	-5311
▁37	-5312
▁iro	-5313
▁jok	-5314
▁kij	-5315
▁väs	-5316
▁iljoo	-5317
▁ör	-5318
▁RKP	-5319
▁das	-5320
▁tro	-5321
▁uke	-5322
▁auni	-5323
▁iloi	-5324
▁ntol	-5325
▁roon	-5326
▁tissa	-5327
▁if	-5328
▁dip	-5329
▁hee	-5330
▁iai	-5331
▁ido	-5332
▁Hall	-5333
▁huom	-5334
▁mark	-5335
▁Turku	-5336
▁inuut	-5337
▁öistä	-5338
▁600	-5339
▁ysi	-5340
▁rast	-5341
▁ykyä	-5342
▁Karhu	-5343
▁jassa	-5344
▁lause	-5345
▁MT	-5346
▁Ras	-5347
▁pis	-5348
▁rto	-5349
▁aiki	-5350
▁iike	-5351
▁ttei	-5352
▁selta	-5353
▁yrity	-5354
▁ef	-5355
▁150	-5356
▁oru	-5357
▁uos	-5358
▁anin	-5359
▁emin	-5360
▁enki	-5361
▁ation	-5362
▁emise	-5363
raf	-5364
▁Du	-5365
▁akk	-5366
▁ivo	-5367
▁rvi	-5368
▁ehme	-5369
▁Kiuru	-5370
▁istum	-5371
▁Be	-5372
▁kg	-5373
▁enj	-5374
▁tyv	-5375
▁myön	-5376
▁ttua	-5377
▁yhty	-5378
▁antee	-5379
cu	-5380
ze	-5381
▁aio	-5382
▁anoi	-5383
▁esin	-5384
▁itaa	-5385
▁taji	-5386
▁immäi	-5387
▁otila	-5388
▁uihku	-5389
ya	-5390
▁Mel	-5391
▁Pan	-5392
▁Ros	-5393
▁agg	-5394
▁ahdo	-5395
▁ekka	-5396
▁Risto	-5397
▁atila	-5398
▁oonas	-5399
▁västi	-5400
▁MV	-5401
▁nin	-5402
▁nuu	-5403
▁pak	-5404
▁sho	-5405
▁ikas	-5406
▁maja	-5407
▁nkki	-5408
▁eelli	-5409
ps	-5410
ire	-5411
▁ats	-5412
▁enp	-5413
▁nar	-5414
▁pät	-5415
▁eits	-5416
▁kesk	-5417
▁laus	-5418
▁jalla	-5419
▁lokuv	-5420
▁rt	-5421
▁von	-5422
▁arvi	-5423
▁hyök	-5424
▁kemi	-5425
▁maid	-5426
▁oder	-5427
▁yhmä	-5428
▁änny	-5429
▁listi	-5430
▁toria	-5431
▁tynee	-5432
▁ikö	-5433
▁ksy	-5434
▁nään	-5435
▁oiti	-5436
▁JK	-5437
▁13.	-5438
▁Kim	-5439
▁ald	-5440
▁Arab	-5441
▁Vero	-5442
▁paik	-5443
▁rien	-5444
▁usti	-5445
▁uton	-5446
▁GP	-5447
▁11.	-5448
▁iam	-5449
▁iert	-5450
▁entti	-5451
▁ikais	-5452
▁Lu	-5453
▁sl	-5454
▁aim	-5455
▁aji	-5456
▁fir	-5457
▁nge	-5458
▁ilpi	-5459
▁inai	-5460
▁kala	-5461
▁stee	-5462
▁uuni	-5463
▁Tim	-5464
▁dot	-5465
▁ltu	-5466
▁läi	-5467
▁ruk	-5468
▁onia	-5469
▁tääl	-5470
▁ärve	-5471
▁Granl	-5472
▁alkap	-5473
▁kkala	-5474
▁ääkär	-5475
MK	-5476
▁ST	-5477
▁rg	-5478
▁pas	-5479
▁enem	-5480
▁kump	-5481
▁stis	-5482
▁utuu	-5483
▁viin	-5484
▁yötä	-5485
▁aamis	-5486
▁auhea	-5487
▁nkiin	-5488
▁saldo	-5489
▁treff	-5490
▁3,	-5491
▁iol	-5492
▁oss	-5493
▁pui	-5494
▁rim	-5495
▁rme	-5496
▁kais	-5497
▁toeh	-5498
▁yökk	-5499
▁koitu	-5500
▁reuna	-5501
▁kit	-5502
▁rgi	-5503
▁ysä	-5504
▁Sata	-5505
▁eppo	-5506
▁iihe	-5507
▁kkos	-5508
▁kkuu	-5509
▁sena	-5510
▁ammas	-5511
▁tteet	-5512
kal	-5513
▁onk	-5514
▁sip	-5515
▁yss	-5516
▁Kana	-5517
▁kiek	-5518
▁lepo	-5519
▁mall	-5520
▁östä	-5521
▁Maija	-5522
▁Robin	-5523
▁istuv	-5524
▁sellä	-5525
▁uisku	-5526
▁Ber	-5527
▁uur	-5528
▁vii	-5529
▁ötä	-5530
▁arkk	-5531
▁ertt	-5532
▁hdys	-5533
▁okai	-5534
▁täht	-5535
▁distu	-5536
▁kiist	-5537
JK	-5538
▁̈	-5539
▁Si	-5540
▁öä	-5541
▁sei	-5542
▁elan	-5543
▁johd	-5544
▁ntav	-5545
▁omea	-5546
▁pudo	-5547
▁roll	-5548
▁kulje	-5549
▁NBA	-5550
▁ipä	-5551
▁jah	-5552
▁upp	-5553
▁aill	-5554
▁erge	-5555
▁iene	-5556
▁llät	-5557
▁mets	-5558
▁kkaan	-5559
▁käyte	-5560
▁unnas	-5561
▁vistä	-5562
▁der	-5563
▁älk	-5564
▁iaan	-5565
▁ntee	-5566
▁onie	-5567
▁rkku	-5568
▁Bu	-5569
▁Bil	-5570
▁Suz	-5571
▁asv	-5572
▁avol	-5573
▁miin	-5574
▁ukan	-5575
▁uome	-5576
▁ehden	-5577
▁ttely	-5578
▁ullis	-5579
▁hv	-5580
▁Kyl	-5581
▁kyt	-5582
▁mea	-5583
▁pua	-5584
▁vär	-5585
▁jään	-5586
▁lkka	-5587
▁uten	-5588
▁Tervo	-5589
▁ankin	-5590
▁lahja	-5591
▁ttori	-5592
▁uojel	-5593
lah	-5594
▁41	-5595
▁12.	-5596
▁kuk	-5597
▁äty	-5598
▁etin	-5599
▁kein	-5600
▁istan	-5601
▁ttais	-5602
▁ännyt	-5603
▁39	-5604
▁75	-5605
▁aimo	-5606
▁apsi	-5607
▁olody	-5608
▁oston	-5609
▁tapau	-5610
▁aun	-5611
▁ets	-5612
▁urt	-5613
▁arhu	-5614
▁niit	-5615
▁ttyi	-5616
▁ulle	-5617
▁ambul	-5618
▁ertai	-5619
old	-5620
ord	-5621
▁Gro	-5622
▁ihe	-5623
▁kur	-5624
▁ävi	-5625
▁aama	-5626
▁arra	-5627
▁eria	-5628
▁immä	-5629
▁pauk	-5630
▁vits	-5631
sb	-5632
▁1-	-5633
▁SE	-5634
▁atk	-5635
▁pum	-5636
▁ush	-5637
▁elly	-5638
▁iehe	-5639
▁umis	-5640
▁iaali	-5641
▁ppuun	-5642
▁suunt	-5643
▁turma	-5644
▁tuuri	-5645
uhu	-5646
▁Af	-5647
▁ick	-5648
▁res	-5649
▁iiva	-5650
▁outo	-5651
▁ävän	-5652
▁aavat	-5653
▁airaa	-5654
▁55	-5655
▁AC	-5656
▁Pek	-5657
▁ied	-5658
▁kot	-5659
▁roa	-5660
▁tso	-5661
▁nnat	-5662
▁oten	-5663
▁ulai	-5664
▁akaan	-5665
▁edust	-5666
▁inaan	-5667
▁kierr	-5668
▁sessä	-5669
▁toist	-5670
▁unnos	-5671
▁yhmän	-5672
▁elmä	-5673
▁eris	-5674
▁rans	-5675
▁stys	-5676
▁ettom	-5677
▁italo	-5678
▁ranni	-5679
▁talla	-5680
▁44	-5681
▁Jan	-5682
▁anaa	-5683
▁louk	-5684
▁risk	-5685
▁tusp	-5686
▁äytä	-5687
▁telmä	-5688
▁ämine	-5689
▁46	-5690
▁IL	-5691
▁LP	-5692
▁Op	-5693
▁SSS	-5694
▁prin	-5695
▁Rin	-5696
▁rää	-5697
▁uan	-5698
▁audi	-5699
▁ayne	-5700
▁jote	-5701
▁leve	-5702
▁siak	-5703
▁uist	-5704
▁uulo	-5705
▁ähes	-5706
cia	-5707
▁1,5	-5708
▁McD	-5709
▁roo	-5710
▁tyj	-5711
▁ivan	-5712
▁kara	-5713
▁show	-5714
▁ukas	-5715
▁korko	-5716
▁kuume	-5717
br	-5718
▁hom	-5719
▁nää	-5720
▁ser	-5721
▁sus	-5722
▁ume	-5723
▁äkä	-5724
▁Grön	-5725
▁ehty	-5726
▁inan	-5727
▁maas	-5728
▁ones	-5729
▁piin	-5730
▁uhal	-5731
▁hdist	-5732
▁prins	-5733
tai	-5734
▁II	-5735
▁kr	-5736
▁elp	-5737
▁ree	-5738
▁iedä	-5739
▁inut	-5740
▁ivoi	-5741
▁noll	-5742
▁ittäm	-5743
▁vähen	-5744
▁Å	-5745
llu	-5746
▁700	-5747
▁mpu	-5748
▁uom	-5749
▁eksa	-5750
▁esäk	-5751
▁nnät	-5752
▁teek	-5753
▁iller	-5754
▁kassa	-5755
▁korja	-5756
▁65	-5757
▁ism	-5758
▁jun	-5759
▁kam	-5760
▁pon	-5761
▁tiö	-5762
▁ves	-5763
▁äit	-5764
▁inoa	-5765
▁llut	-5766
▁mpia	-5767
▁nssa	-5768
▁outh	-5769
▁smin	-5770
▁tusl	-5771
▁viho	-5772
▁istuu	-5773
ld	-5774
▁47	-5775
▁rö	-5776
▁Ajo	-5777
▁mass	-5778
▁ning	-5779
▁uris	-5780
▁yrki	-5781
▁änte	-5782
▁öllä	-5783
▁akast	-5784
▁summa	-5785
▁tyksi	-5786
▁västä	-5787
▁äneen	-5788
ak	-5789
eni	-5790
gle	-5791
uss	-5792
▁Sh	-5793
▁bi	-5794
▁läp	-5795
▁levä	-5796
▁nhan	-5797
▁oope	-5798
▁liput	-5799
▁tteen	-5800
▁uhtee	-5801
var	-5802
▁Et	-5803
▁Ho	-5804
▁uv	-5805
▁aah	-5806
▁kei	-5807
▁lyh	-5808
▁akon	-5809
▁eine	-5810
▁kist	-5811
▁kuver	-5812
▁reder	-5813
▁vista	-5814
unu	-5815
▁ada	-5816
▁toh	-5817
▁vin	-5818
▁irin	-5819
▁jotk	-5820
▁akkar	-5821
▁ellei	-5822
▁firma	-5823
▁inter	-5824
▁mansa	-5825
▁Go	-5826
▁opa	-5827
▁ott	-5828
▁alki	-5829
▁ekti	-5830
▁etel	-5831
▁orin	-5832
▁vaar	-5833
▁arvel	-5834
▁htaan	-5835
▁taito	-5836
▁42	-5837
▁che	-5838
▁ekn	-5839
▁eän	-5840
▁iaa	-5841
▁räs	-5842
▁sku	-5843
▁tke	-5844
▁iest	-5845
▁ttim	-5846
▁ännö	-5847
▁inkku	-5848
wn	-5849
pis	-5850
▁2.	-5851
▁äe	-5852
▁16.	-5853
▁äll	-5854
▁Tero	-5855
▁ilah	-5856
▁kevä	-5857
▁tiik	-5858
▁uhla	-5859
▁Group	-5860
▁lutta	-5861
▁maksi	-5862
▁eää	-5863
▁hdi	-5864
▁ngo	-5865
▁jaus	-5866
▁keit	-5867
▁muka	-5868
▁kalta	-5869
▁lipun	-5870
▁ottom	-5871
ena	-5872
▁hie	-5873
▁enet	-5874
▁olan	-5875
▁ainav	-5876
▁ikkaa	-5877
UMA	-5878
▁MVP	-5879
▁eck	-5880
▁keä	-5881
▁aipu	-5882
▁andy	-5883
▁sens	-5884
▁Tover	-5885
▁syyde	-5886
hka	-5887
▁eno	-5888
▁kio	-5889
▁ZUMA	-5890
▁enen	-5891
▁ennä	-5892
▁eppi	-5893
▁leht	-5894
▁nnos	-5895
▁enkaa	-5896
▁iasta	-5897
▁kosta	-5898
▁täviä	-5899
▁;	-5900
ney	-5901
▁PK	-5902
▁14.	-5903
▁glob	-5904
▁neil	-5905
▁ville	-5906
eli	-5907
▁My	-5908
▁lam	-5909
▁mik	-5910
▁oot	-5911
▁rip	-5912
▁vil	-5913
▁avon	-5914
▁istaj	-5915
▁laina	-5916
▁varoi	-5917
▁MTV	-5918
▁Met	-5919
▁dyn	-5920
▁ilt	-5921
▁off	-5922
▁sui	-5923
▁aale	-5924
▁kaav	-5925
▁ngas	-5926
▁oine	-5927
▁tten	-5928
▁tuin	-5929
▁ulut	-5930
▁arcel	-5931
▁rajoi	-5932
gy	-5933
▁å	-5934
mia	-5935
▁lb	-5936
▁pr	-5937
▁Fox	-5938
▁gin	-5939
▁iva	-5940
▁moi	-5941
▁rti	-5942
▁soh	-5943
▁Traf	-5944
▁auvo	-5945
▁kana	-5946
▁eessä	-5947
▁neksi	-5948
um	-5949
▁7.	-5950
▁Ada	-5951
▁Gar	-5952
▁aso	-5953
▁nav	-5954
▁ulva	-5955
▁aneet	-5956
▁hteis	-5957
▁paljo	-5958
▁48	-5959
▁20.	-5960
▁eaa	-5961
▁iky	-5962
▁lava	-5963
▁sein	-5964
▁lempi	-5965
▁nolla	-5966
lan	-5967
▁McL	-5968
▁eho	-5969
▁kup	-5970
▁lun	-5971
▁nss	-5972
▁uPS	-5973
▁ysv	-5974
▁emok	-5975
▁nnel	-5976
▁styi	-5977
▁ämpö	-5978
▁koord	-5979
▁51	-5980
▁gh	-5981
▁15.	-5982
▁UMK	-5983
▁mes	-5984
▁ock	-5985
▁yjä	-5986
▁Colu	-5987
▁mith	-5988
▁oisa	-5989
▁poli	-5990
▁urgh	-5991
▁annee	-5992
▁hirmu	-5993
▁reita	-5994
kun	-5995
▁Gi	-5996
▁Sir	-5997
▁läm	-5998
▁suj	-5999
▁udi	-6000
▁ikro	-6001
▁kont	-6002
▁mein	-6003
▁omin	-6004
▁tist	-6005
▁udet	-6006
▁uure	-6007
▁estin	-6008
▁kissa	-6009
▁tetta	-6010
▁kW	-6011
▁ya	-6012
▁Aho	-6013
▁lix	-6014
▁rja	-6015
▁inoi	-6016
▁kave	-6017
▁keus	-6018
▁uden	-6019
▁estäm	-6020
▁leima	-6021
▁riemu	-6022
▁uinti	-6023
▁äytös	-6024
▁43	-6025
▁apo	-6026
▁edet	-6027
▁eske	-6028
▁ippa	-6029
▁isma	-6030
▁lack	-6031
▁pail	-6032
▁emine	-6033
▁kasti	-6034
▁omist	-6035
▁uinni	-6036
▁54	-6037
▁tk	-6038
▁etf	-6039
▁key	-6040
▁ppa	-6041
▁sep	-6042
▁kort	-6043
▁mmär	-6044
▁ouis	-6045
▁sito	-6046
▁uunn	-6047
▁itaan	-6048
▁ntami	-6049
har	-6050
▁Yh	-6051
▁18.	-6052
▁del	-6053
▁aavi	-6054
▁alin	-6055
▁diab	-6056
▁idän	-6057
▁korv	-6058
▁rank	-6059
▁aassa	-6060
▁skand	-6061
▁ustav	-6062
ui	-6063
▁lsi	-6064
▁ony	-6065
▁tej	-6066
▁Berl	-6067
▁ahin	-6068
▁aski	-6069
▁esla	-6070
▁star	-6071
▁uhan	-6072
▁Wilma	-6073
▁ergei	-6074
▁eriko	-6075
▁leisö	-6076
▁telma	-6077
iss	-6078
wood	-6079
▁17.	-6080
▁gis	-6081
▁hau	-6082
▁iväs	-6083
▁kase	-6084
▁omio	-6085
▁teht	-6086
▁vart	-6087
▁isyys	-6088
▁nille	-6089
▁nnell	-6090
▁ruudu	-6091
YP	-6092
rah	-6093
▁nok	-6094
▁aili	-6095
▁alis	-6096
▁ouse	-6097
▁umen	-6098
▁iistä	-6099
▁5.	-6100
▁Via	-6101
▁kän	-6102
▁näe	-6103
▁udo	-6104
▁lian	-6105
▁lise	-6106
▁liss	-6107
▁luee	-6108
▁oira	-6109
▁okem	-6110
▁soni	-6111
▁oogle	-6112
▁takai	-6113
▁Ase	-6114
▁aren	-6115
▁elvi	-6116
▁olta	-6117
▁paus	-6118
▁stam	-6119
▁wift	-6120
▁amuli	-6121
▁ingin	-6122
▁oppuu	-6123
▁rinte	-6124
▁takki	-6125
▁Ali	-6126
▁Mil	-6127
▁pir	-6128
▁poo	-6129
▁arma	-6130
▁elem	-6131
▁ilas	-6132
▁loit	-6133
▁raut	-6134
▁semm	-6135
▁sken	-6136
▁panja	-6137
▁pisto	-6138
▁0,	-6139
▁alb	-6140
▁iot	-6141
▁mek	-6142
▁rky	-6143
▁adel	-6144
▁alkk	-6145
▁isät	-6146
▁last	-6147
▁mäis	-6148
▁urje	-6149
▁kukis	-6150
ner	-6151
▁liu	-6152
▁Maja	-6153
▁emus	-6154
▁enez	-6155
▁enla	-6156
▁isee	-6157
▁uaal	-6158
▁änes	-6159
▁asper	-6160
▁istui	-6161
▁ywood	-6162
TP	-6163
yan	-6164
olvo	-6165
▁Esa	-6166
▁JYP	-6167
▁apse	-6168
▁kkar	-6169
▁pass	-6170
▁mykse	-6171
▁Alb	-6172
▁Cap	-6173
▁Mac	-6174
▁eop	-6175
▁pea	-6176
▁enia	-6177
▁itar	-6178
▁semi	-6179
▁sido	-6180
▁ukai	-6181
▁Volvo	-6182
▁iesel	-6183
▁sista	-6184
▁äisen	-6185
án	-6186
▁10.	-6187
▁töi	-6188
▁auhu	-6189
▁itoi	-6190
▁itte	-6191
▁keri	-6192
▁opim	-6193
▁otis	-6194
▁päri	-6195
▁radi	-6196
▁rool	-6197
▁ttii	-6198
▁uodo	-6199
▁Liver	-6200
▁alloi	-6201
▁apeli	-6202
▁tapon	-6203
tan	-6204
utz	-6205
▁9.	-6206
▁hk	-6207
▁120	-6208
▁Lav	-6209
▁tot	-6210
▁umu	-6211
▁avuu	-6212
▁intu	-6213
▁kork	-6214
▁olog	-6215
▁pung	-6216
▁tion	-6217
▁vani	-6218
▁äyttä	-6219
▁äättä	-6220
▁*	-6221
▁6.	-6222
▁Ai	-6223
▁Mer	-6224
▁his	-6225
▁les	-6226
▁lkä	-6227
▁läk	-6228
▁mär	-6229
▁essu	-6230
▁etki	-6231
▁iivo	-6232
▁tsis	-6233
▁yksy	-6234
▁Kirsi	-6235
▁ittsb	-6236
▁rikka	-6237
▁sohva	-6238
▁tteis	-6239
▁uudes	-6240
▁valli	-6241
▁kos	-6242
▁käl	-6243
▁loi	-6244
▁nly	-6245
▁pul	-6246
▁ksel	-6247
▁live	-6248
▁nnös	-6249
▁uora	-6250
▁aitio	-6251
▁eople	-6252
▁missa	-6253
▁nnäkö	-6254
▁onkin	-6255
▁sipul	-6256
▁soitu	-6257
sey	-6258
▁250	-6259
▁eat	-6260
▁gel	-6261
▁pri	-6262
▁eila	-6263
▁mäll	-6264
▁määr	-6265
▁uokk	-6266
▁kojen	-6267
▁raeli	-6268
▁touhu	-6269
▁uukka	-6270
MW	-6271
▁49	-6272
▁57	-6273
▁8.	-6274
▁Ad	-6275
▁KU	-6276
▁NR	-6277
▁we	-6278
▁Noo	-6279
▁cha	-6280
▁hke	-6281
▁kui	-6282
▁usa	-6283
▁Älä	-6284
▁elpa	-6285
▁lkop	-6286
▁puss	-6287
▁Matth	-6288
▁astaa	-6289
▁keude	-6290
▁reutz	-6291
▁sunto	-6292
bs	-6293
▁4.	-6294
raum	-6295
▁Ski	-6296
▁eve	-6297
▁gen	-6298
▁hia	-6299
▁fina	-6300
▁ield	-6301
▁raho	-6302
▁utuv	-6303
▁imaan	-6304
▁stila	-6305
▁uz	-6306
▁Cru	-6307
▁ekk	-6308
▁lvä	-6309
▁sak	-6310
▁ymi	-6311
▁jatte	-6312
ppe	-6313
▁TK	-6314
▁lf	-6315
▁des	-6316
▁sso	-6317
▁tiv	-6318
▁Wall	-6319
▁ijat	-6320
▁metr	-6321
▁mpär	-6322
▁unnu	-6323
▁uust	-6324
▁maast	-6325
▁okemu	-6326
▁traum	-6327
▁4,	-6328
▁4-	-6329
▁19.	-6330
▁Com	-6331
▁ach	-6332
▁eise	-6333
▁iitt	-6334
▁koom	-6335
▁ulvi	-6336
▁htiön	-6337
▁@	-6338
▁52	-6339
▁Bir	-6340
▁ire	-6341
▁kou	-6342
▁lev	-6343
▁red	-6344
▁aato	-6345
▁eroi	-6346
▁hana	-6347
▁htia	-6348
▁itio	-6349
▁kill	-6350
▁orte	-6351
▁ters	-6352
▁Jarmo	-6353
▁auber	-6354
▁kaasu	-6355
▁läise	-6356
▁nauti	-6357
▁sängy	-6358
ley	-6359
▁SV	-6360
▁lt	-6361
▁Iso	-6362
▁Sea	-6363
▁uck	-6364
▁aajo	-6365
▁aska	-6366
▁ente	-6367
▁eura	-6368
▁iikk	-6369
▁odel	-6370
▁oria	-6371
▁stum	-6372
▁tora	-6373
▁ttuu	-6374
▁vall	-6375
▁äise	-6376
▁apaus	-6377
▁lussa	-6378
▁ttämä	-6379
▁ukkaa	-6380
lub	-6381
▁3.	-6382
skar	-6383
▁lga	-6384
▁mak	-6385
▁ainv	-6386
▁iide	-6387
▁juur	-6388
▁noja	-6389
▁ntok	-6390
▁oina	-6391
▁oini	-6392
▁ioita	-6393
▁ittää	-6394
▁liset	-6395
▁steli	-6396
lly	-6397
▁Ris	-6398
▁aro	-6399
▁idi	-6400
▁kla	-6401
▁shi	-6402
▁ytt	-6403
▁Wood	-6404
▁ajia	-6405
▁akun	-6406
▁odan	-6407
▁odis	-6408
▁oron	-6409
▁orvo	-6410
▁siaa	-6411
▁tuja	-6412
▁ähet	-6413
▁anter	-6414
▁dlerc	-6415
▁ettel	-6416
▁misto	-6417
▁olley	-6418
▁steri	-6419
▁uttam	-6420
▁vaunu	-6421
id	-6422
ts	-6423
▁58	-6424
▁IC	-6425
▁So	-6426
▁21.	-6427
▁30.	-6428
▁ouh	-6429
▁äke	-6430
▁Arse	-6431
▁aroi	-6432
▁artt	-6433
▁aver	-6434
▁iber	-6435
▁laut	-6436
▁lmoi	-6437
▁oint	-6438
▁okka	-6439
▁puri	-6440
▁almen	-6441
▁avall	-6442
▁keula	-6443
uno	-6444
▁Ge	-6445
▁Rön	-6446
▁din	-6447
▁imu	-6448
▁lep	-6449
▁usv	-6450
▁äve	-6451
▁Gall	-6452
▁Golf	-6453
▁aaha	-6454
▁eski	-6455
▁stiv	-6456
▁ätty	-6457
▁annel	-6458
▁llain	-6459
▁tissä	-6460
▁urger	-6461
▁56	-6462
▁Az	-6463
▁Py	-6464
▁sö	-6465
▁kem	-6466
▁reg	-6467
▁Viap	-6468
▁holz	-6469
▁ingi	-6470
▁nnak	-6471
▁unsi	-6472
▁uono	-6473
▁kinen	-6474
▁ksena	-6475
▁nista	-6476
▁valti	-6477
sh	-6478
▁Vä	-6479
▁23.	-6480
▁Wor	-6481
▁Adam	-6482
▁ilua	-6483
▁kall	-6484
▁lisa	-6485
▁myks	-6486
▁oleh	-6487
▁aasta	-6488
▁demar	-6489
▁isnes	-6490
▁ktiiv	-6491
▁tellu	-6492
▁>	-6493
ona	-6494
▁ME	-6495
▁22.	-6496
▁hdo	-6497
▁lek	-6498
▁tiä	-6499
▁akau	-6500
▁ando	-6501
▁antt	-6502
▁autt	-6503
▁hilj	-6504
▁iint	-6505
▁iiri	-6506
▁raff	-6507
▁rban	-6508
▁rvio	-6509
▁aavis	-6510
▁tahto	-6511
▁totea	-6512
io	-6513
rö	-6514
▁Aut	-6515
▁euv	-6516
▁yöp	-6517
▁Kans	-6518
▁erja	-6519
▁stää	-6520
▁trag	-6521
ig	-6522
▁Bri	-6523
▁eas	-6524
▁eru	-6525
▁nso	-6526
▁bama	-6527
▁gier	-6528
▁mpum	-6529
▁musi	-6530
▁niel	-6531
▁pitu	-6532
▁stäv	-6533
▁tuol	-6534
▁utto	-6535
▁Rasmu	-6536
▁avain	-6537
▁äytti	-6538
RC	-6539
ua	-6540
▁UN	-6541
▁Yö	-6542
▁bu	-6543
rand	-6544
▁ABC	-6545
▁Mag	-6546
▁yin	-6547
▁ammo	-6548
▁ekin	-6549
▁imon	-6550
▁umpi	-6551
▁unno	-6552
▁änyt	-6553
▁ahker	-6554
▁eskal	-6555
▁serem	-6556
▁stari	-6557
▁uonee	-6558
▁voite	-6559
▁Hi	-6560
▁nf	-6561
▁Oma	-6562
▁isl	-6563
▁kyk	-6564
▁olv	-6565
▁ilai	-6566
▁kood	-6567
▁liia	-6568
▁okou	-6569
▁rade	-6570
▁yysk	-6571
▁Oskar	-6572
▁oimin	-6573
▁other	-6574
▁sorme	-6575
▁torni	-6576
▁27,	-6577
▁ioo	-6578
▁kue	-6579
▁aane	-6580
▁olis	-6581
▁orju	-6582
▁ouni	-6583
▁aitta	-6584
▁laadu	-6585
▁laiva	-6586
▁naali	-6587
▁nahka	-6588
▁nasta	-6589
▁rgent	-6590
▁uteen	-6591
mpo	-6592
ski	-6593
▁62	-6594
▁Eg	-6595
▁Eva	-6596
▁ave	-6597
▁oud	-6598
▁arsi	-6599
▁avai	-6600
▁deby	-6601
▁riis	-6602
▁änni	-6603
▁aessa	-6604
▁eisto	-6605
▁jille	-6606
▁tappo	-6607
Ei	-6608
ang	-6609
bia	-6610
▁Pr	-6611
▁Rä	-6612
▁Aka	-6613
▁Ran	-6614
▁SVT	-6615
▁apä	-6616
▁deb	-6617
▁erv	-6618
▁see	-6619
▁sid	-6620
▁smo	-6621
▁urn	-6622
▁yyp	-6623
▁Bild	-6624
▁anny	-6625
▁erit	-6626
▁kumo	-6627
▁pull	-6628
▁sall	-6629
▁stin	-6630
▁voja	-6631
▁miljo	-6632
▁tuota	-6633
▁urske	-6634
▁ymmen	-6635
rk	-6636
▁85	-6637
▁nb	-6638
▁Kul	-6639
▁Ron	-6640
▁swa	-6641
▁ähk	-6642
▁hist	-6643
▁ieme	-6644
▁inaa	-6645
▁kaam	-6646
▁kaks	-6647
▁mmän	-6648
▁neut	-6649
▁taav	-6650
▁tioi	-6651
▁kalla	-6652
▁muude	-6653
▁orvoo	-6654
▁tartu	-6655
dd	-6656
▁Fi	-6657
▁BMW	-6658
▁Col	-6659
▁Mah	-6660
▁div	-6661
▁eth	-6662
▁sco	-6663
▁Marg	-6664
▁aahe	-6665
▁asin	-6666
▁roja	-6667
▁erint	-6668
▁ourne	-6669
▁stune	-6670
▁swage	-6671
▁unnel	-6672
▁ls	-6673
▁yi	-6674
▁Ste	-6675
▁eek	-6676
▁pin	-6677
▁aloi	-6678
▁eimm	-6679
▁uupu	-6680
▁ettaa	-6681
▁urkki	-6682
RP	-6683
ard	-6684
ler	-6685
▁fo	-6686
▁lp	-6687
▁onl	-6688
▁syi	-6689
▁öön	-6690
▁Nico	-6691
▁Sano	-6692
▁anom	-6693
▁apau	-6694
▁eina	-6695
▁kiru	-6696
▁ksee	-6697
▁omen	-6698
▁onki	-6699
▁Noora	-6700
▁aalea	-6701
▁intoj	-6702
▁maaha	-6703
▁radec	-6704
▁reiss	-6705
▁sauma	-6706
ei	-6707
ug	-6708
jer	-6709
▁Ess	-6710
▁HJK	-6711
▁noi	-6712
▁nua	-6713
▁ssy	-6714
▁apur	-6715
▁ikym	-6716
▁ollo	-6717
▁ooni	-6718
▁orke	-6719
▁tone	-6720
▁uija	-6721
▁Sirpa	-6722
▁World	-6723
▁arter	-6724
▁erbia	-6725
▁heilu	-6726
▁iossa	-6727
▁lokuu	-6728
▁tisen	-6729
▁uutel	-6730
▁Sp	-6731
▁Tom	-6732
▁rdi	-6733
▁ric	-6734
▁aalu	-6735
▁ansk	-6736
▁htii	-6737
▁iana	-6738
▁ower	-6739
▁sine	-6740
▁stit	-6741
▁stua	-6742
▁toin	-6743
▁uijo	-6744
▁äris	-6745
▁Katja	-6746
▁Korpi	-6747
▁lappu	-6748
▁taido	-6749
▁KO	-6750
▁24.	-6751
▁28.	-6752
▁Est	-6753
▁lät	-6754
▁rio	-6755
▁ärk	-6756
▁Ryan	-6757
▁apan	-6758
▁jall	-6759
▁kine	-6760
▁nnik	-6761
▁ttej	-6762
▁ttäi	-6763
▁turv	-6764
▁uuro	-6765
▁autti	-6766
▁hiero	-6767
▁immil	-6768
▁sissä	-6769
las	-6770
tuo	-6771
▁Vuo	-6772
▁jam	-6773
▁onu	-6774
▁upa	-6775
▁uts	-6776
▁ahtu	-6777
▁akar	-6778
▁apor	-6779
▁asse	-6780
▁lahj	-6781
▁rman	-6782
▁änak	-6783
▁Grand	-6784
▁riida	-6785
▁supis	-6786
ün	-6787
ven	-6788
▁59	-6789
▁AP	-6790
▁ct	-6791
▁rh	-6792
▁2,5	-6793
▁NRK	-6794
▁STT	-6795
▁erh	-6796
▁ios	-6797
▁nus	-6798
▁ousi	-6799
▁ähtö	-6800
▁inkin	-6801
▁ityks	-6802
▁sanai	-6803
og	-6804
hua	-6805
ilo	-6806
▁25.	-6807
▁Haa	-6808
▁Las	-6809
▁dik	-6810
▁eel	-6811
▁hda	-6812
▁oam	-6813
▁töt	-6814
▁aija	-6815
▁ilan	-6816
▁illo	-6817
▁lmia	-6818
▁vill	-6819
▁ääty	-6820
▁Vermo	-6821
▁aalla	-6822
▁eesta	-6823
hy	-6824
▁Ou	-6825
▁fa	-6826
▁Aku	-6827
▁KRP	-6828
▁enh	-6829
▁män	-6830
▁auas	-6831
▁erät	-6832
▁kkia	-6833
▁levo	-6834
▁rygg	-6835
▁säik	-6836
▁eslan	-6837
▁kaine	-6838
▁konse	-6839
▁linik	-6840
▁liuku	-6841
▁oliti	-6842
▁raati	-6843
▁ustan	-6844
BU	-6845
kp	-6846
ssu	-6847
▁64	-6848
▁Mos	-6849
▁hme	-6850
▁ira	-6851
▁näö	-6852
▁äse	-6853
▁Rita	-6854
▁ikui	-6855
▁ätti	-6856
▁ieppi	-6857
▁lmoit	-6858
▁matto	-6859
▁viiva	-6860
put	-6861
▁29.	-6862
▁Ama	-6863
▁Mal	-6864
▁Rkp	-6865
▁Yht	-6866
▁rkk	-6867
▁elek	-6868
▁hyvi	-6869
▁imen	-6870
▁lämä	-6871
▁nlyf	-6872
▁ntal	-6873
▁rika	-6874
▁atama	-6875
▁nnall	-6876
▁okais	-6877
▁onnor	-6878
dt	-6879
ffe	-6880
▁5,	-6881
▁Fa	-6882
▁ID	-6883
▁26.	-6884
▁Isä	-6885
▁Jok	-6886
▁naal	-6887
▁nurk	-6888
▁okas	-6889
▁oval	-6890
▁summi	-6891
ad	-6892
ye	-6893
ene	-6894
pin	-6895
▁72	-6896
▁pl	-6897
▁Lea	-6898
▁You	-6899
▁duu	-6900
▁eme	-6901
▁moj	-6902
▁rät	-6903
▁Hero	-6904
▁Mira	-6905
▁Will	-6906
▁eitt	-6907
▁ntek	-6908
▁taam	-6909
▁vans	-6910
▁ersey	-6911
▁keutu	-6912
▁miino	-6913
▁oukar	-6914
erb	-6915
uks	-6916
▁EK	-6917
▁26,	-6918
▁maj	-6919
▁mau	-6920
▁ney	-6921
▁oid	-6922
▁pes	-6923
▁sol	-6924
▁auma	-6925
▁ayah	-6926
▁ball	-6927
▁erik	-6928
▁imaa	-6929
▁imet	-6930
▁kaao	-6931
▁oolo	-6932
▁äist	-6933
▁Rally	-6934
▁alist	-6935
▁arast	-6936
▁ittaj	-6937
▁kolar	-6938
▁kysym	-6939
▁messu	-6940
▁mitri	-6941
▁ouver	-6942
▁tavoi	-6943
▁utuva	-6944
▁ämise	-6945
▁6,	-6946
▁Mas	-6947
▁WRC	-6948
▁anp	-6949
▁ath	-6950
▁niv	-6951
▁oda	-6952
▁tab	-6953
▁itel	-6954
▁rant	-6955
▁äkär	-6956
▁kasta	-6957
▁kokki	-6958
▁pauks	-6959
▁tatuo	-6960
▁utuks	-6961
▁61	-6962
▁77	-6963
▁cm	-6964
▁Cal	-6965
▁Ruu	-6966
▁eht	-6967
▁uta	-6968
▁Miro	-6969
▁iive	-6970
▁rian	-6971
▁uudu	-6972
▁uvat	-6973
▁alppi	-6974
▁asioi	-6975
▁umppa	-6976
▁Š	-6977
ehu	-6978
eng	-6979
ont	-6980
▁GT	-6981
▁Us	-6982
▁Fil	-6983
▁Gol	-6984
▁Sta	-6985
▁ahv	-6986
▁env	-6987
▁joi	-6988
▁lok	-6989
▁nil	-6990
▁önt	-6991
▁ewis	-6992
▁ivaa	-6993
▁ouhi	-6994
▁rown	-6995
▁stui	-6996
▁utus	-6997
▁innea	-6998
▁laatu	-6999
▁natsi	-7000
▁nauha	-7001
▁otaan	-7002
und	-7003
▁uf	-7004
▁Aar	-7005
▁Mün	-7006
▁Pia	-7007
▁luj	-7008
▁ogi	-7009
▁auho	-7010
▁insi	-7011
▁kain	-7012
▁ntum	-7013
▁ouva	-7014
▁iskar	-7015
▁lausu	-7016
▁nellä	-7017
▁ottee	-7018
▁pakka	-7019
▁sormu	-7020
▁ttila	-7021
▁uonta	-7022
ins	-7023
ond	-7024
▁5-	-7025
▁63	-7026
▁Xi	-7027
▁Air	-7028
▁Det	-7029
▁McC	-7030
▁Mus	-7031
▁hav	-7032
▁Dahl	-7033
▁Rock	-7034
▁eiso	-7035
▁hony	-7036
▁iipu	-7037
▁intr	-7038
▁jana	-7039
▁kkan	-7040
▁nenä	-7041
▁nkar	-7042
▁rise	-7043
▁toja	-7044
▁turi	-7045
▁ymis	-7046
▁äkiv	-7047
▁Liper	-7048
▁á	-7049
▁KK	-7050
▁nr	-7051
▁25,	-7052
▁Tar	-7053
▁hei	-7054
▁ipo	-7055
▁pia	-7056
▁ysp	-7057
▁äyd	-7058
▁Lisä	-7059
▁Vira	-7060
▁aiku	-7061
▁ierr	-7062
▁irjo	-7063
▁lake	-7064
▁okak	-7065
▁opul	-7066
▁dikta	-7067
▁ergia	-7068
▁ikaan	-7069
▁nnust	-7070
▁ranci	-7071
▁steis	-7072
▁tettä	-7073
▁uutok	-7074
▁PA	-7075
▁27.	-7076
▁dit	-7077
▁hdu	-7078
▁luv	-7079
▁non	-7080
▁oop	-7081
▁vak	-7082
▁iisp	-7083
▁kiin	-7084
▁lias	-7085
▁urku	-7086
▁Münch	-7087
▁ellar	-7088
▁ntama	-7089
▁oikku	-7090
▁ruuna	-7091
▁tauti	-7092
▁vissä	-7093
ly	-7094
des	-7095
los	-7096
▁53	-7097
▁66	-7098
▁FB	-7099
▁23,	-7100
▁All	-7101
▁api	-7102
▁arp	-7103
▁att	-7104
▁els	-7105
▁hor	-7106
▁how	-7107
▁hto	-7108
▁iri	-7109
▁leu	-7110
▁usm	-7111
▁äks	-7112
▁Gabr	-7113
▁Hint	-7114
▁ahva	-7115
▁aleh	-7116
▁eisi	-7117
▁ikal	-7118
▁ikää	-7119
▁neks	-7120
▁ortt	-7121
▁puun	-7122
▁rbán	-7123
▁syve	-7124
▁vaus	-7125
▁estaa	-7126
▁itsee	-7127
▁ittäv	-7128
▁karku	-7129
▁lippu	-7130
▁nauru	-7131
imb	-7132
▁67	-7133
▁8,	-7134
▁NY	-7135
▁VM	-7136
▁by	-7137
▁lim	-7138
▁nit	-7139
▁Buff	-7140
▁amen	-7141
▁olai	-7142
▁palj	-7143
▁reip	-7144
▁ride	-7145
▁siel	-7146
▁telm	-7147
▁unte	-7148
▁ynty	-7149
▁eirut	-7150
▁etter	-7151
▁nestä	-7152
▁outai	-7153
▁sukel	-7154
▁teemo	-7155
▁äiset	-7156
rd	-7157
mbo	-7158
von	-7159
▁Nu	-7160
mist	-7161
▁Cup	-7162
▁Cruz	-7163
▁asto	-7164
▁idem	-7165
▁kärä	-7166
▁nomi	-7167
▁rotu	-7168
▁sity	-7169
▁teil	-7170
▁tuom	-7171
▁Azerb	-7172
▁eksan	-7173
▁erman	-7174
▁kerho	-7175
▁matra	-7176
NA	-7177
tur	-7178
▁EV	-7179
▁PM	-7180
▁2-3	-7181
▁29,	-7182
▁900	-7183
▁Nil	-7184
▁koa	-7185
▁lki	-7186
▁llo	-7187
▁llu	-7188
▁too	-7189
▁niis	-7190
▁oukk	-7191
▁ukon	-7192
▁uota	-7193
▁vaam	-7194
▁aunio	-7195
▁erkki	-7196
▁käräj	-7197
▁reide	-7198
▁sauna	-7199
zh	-7200
▁ES	-7201
▁Pi	-7202
▁rn	-7203
▁Rit	-7204
▁ady	-7205
▁lem	-7206
▁yny	-7207
▁kiks	-7208
▁ksaa	-7209
▁kyke	-7210
▁rina	-7211
▁roit	-7212
▁tutk	-7213
▁vuod	-7214
▁ennes	-7215
▁käytä	-7216
▁netto	-7217
▁ttäne	-7218
RW	-7219
hö	-7220
ers	-7221
met	-7222
▁ej	-7223
▁yg	-7224
▁Mia	-7225
▁TPS	-7226
▁dem	-7227
▁ekt	-7228
▁ril	-7229
▁Seag	-7230
▁avin	-7231
▁eett	-7232
▁ikat	-7233
▁stad	-7234
▁uaan	-7235
▁askar	-7236
▁elijä	-7237
▁iispa	-7238
▁lalla	-7239
▁liivi	-7240
▁lissä	-7241
▁nivel	-7242
▁oshua	-7243
▁sistä	-7244
▁syytt	-7245
▁uolon	-7246
FC	-7247
▁■	-7248
ong	-7249
▁EP	-7250
▁GM	-7251
▁FBI	-7252
▁Man	-7253
▁NBC	-7254
▁Nas	-7255
▁Nic	-7256
▁Ori	-7257
▁nak	-7258
▁Aura	-7259
▁Club	-7260
▁aiti	-7261
▁alal	-7262
▁ampe	-7263
▁elas	-7264
▁kuut	-7265
▁nati	-7266
▁okoo	-7267
▁simm	-7268
▁annet	-7269
▁lieve	-7270
zo	-7271
ham	-7272
teb	-7273
▁73	-7274
▁jän	-7275
▁kak	-7276
▁ups	-7277
▁ysk	-7278
▁öll	-7279
▁eder	-7280
▁iima	-7281
▁itui	-7282
▁lmaa	-7283
▁pale	-7284
▁rock	-7285
▁ätys	-7286
▁öksi	-7287
▁lusta	-7288
▁oimia	-7289
▁poist	-7290
▁uotsa	-7291
En	-7292
kky	-7293
uth	-7294
▁68	-7295
▁69	-7296
▁tå	-7297
▁Don	-7298
▁McG	-7299
▁Nar	-7300
▁Ott	-7301
▁Rod	-7302
▁eij	-7303
▁exa	-7304
▁ice	-7305
▁rig	-7306
▁thl	-7307
▁Benz	-7308
▁Nick	-7309
▁aako	-7310
▁ekan	-7311
▁heff	-7312
▁ippo	-7313
▁unin	-7314
▁enäjä	-7315
▁helmi	-7316
▁sormi	-7317
gr	-7318
hk	-7319
ör	-7320
mmu	-7321
▁EH	-7322
issa	-7323
▁28,	-7324
▁ilp	-7325
▁kip	-7326
▁low	-7327
▁sav	-7328
▁sjo	-7329
▁unt	-7330
▁ainz	-7331
▁alos	-7332
▁apai	-7333
▁data	-7334
▁inyt	-7335
▁kkei	-7336
▁lona	-7337
▁loom	-7338
▁mans	-7339
▁oikk	-7340
▁olma	-7341
▁tefa	-7342
▁toiv	-7343
▁umin	-7344
▁ytyi	-7345
▁ajien	-7346
▁ippur	-7347
▁tempu	-7348
▁trand	-7349
▁varsi	-7350
IA	-7351
LA	-7352
TA	-7353
▁ø	-7354
RWA	-7355
▁130	-7356
▁Afg	-7357
▁dol	-7358
▁Paju	-7359
▁Rosa	-7360
▁aupa	-7361
▁etes	-7362
▁hina	-7363
▁iipi	-7364
▁UNRWA	-7365
▁Virpi	-7366
▁attil	-7367
▁auvon	-7368
▁mille	-7369
▁thlet	-7370
▁tykki	-7371
▁vaisu	-7372
bba	-7373
▁(1	-7374
▁82	-7375
▁99	-7376
▁DC	-7377
▁Fu	-7378
▁Os	-7379
▁30,	-7380
▁32,	-7381
▁Min	-7382
▁Sky	-7383
▁Ura	-7384
▁Wat	-7385
▁con	-7386
▁uik	-7387
▁ury	-7388
▁äre	-7389
▁Alma	-7390
▁aall	-7391
▁iipa	-7392
▁iran	-7393
▁pisk	-7394
▁tåhl	-7395
▁idaan	-7396
▁kemis	-7397
▁oster	-7398
▁stand	-7399
▁vastu	-7400
YÖ	-7401
gar	-7402
mpe	-7403
▁81	-7404
▁AI	-7405
▁Ek	-7406
▁Ii	-7407
eleg	-7408
▁180	-7409
▁lpp	-7410
▁nek	-7411
▁rus	-7412
▁ähä	-7413
▁Mold	-7414
▁appa	-7415
▁avis	-7416
▁etra	-7417
▁evin	-7418
▁nemm	-7419
▁nkäy	-7420
▁nuel	-7421
▁olas	-7422
▁taus	-7423
▁uitu	-7424
▁uolt	-7425
▁utaa	-7426
▁äsit	-7427
▁ääsi	-7428
▁Golde	-7429
▁aasup	-7430
▁etoni	-7431
▁sunno	-7432
▁virra	-7433
HO	-7434
gh	-7435
ulo	-7436
▁enu	-7437
▁ool	-7438
▁pih	-7439
▁uca	-7440
▁aami	-7441
▁iete	-7442
▁isim	-7443
▁kuun	-7444
▁lika	-7445
▁otel	-7446
▁tiaa	-7447
▁tian	-7448
▁uluu	-7449
▁uont	-7450
▁vert	-7451
▁Rinte	-7452
▁aksik	-7453
▁annes	-7454
▁antel	-7455
▁dessä	-7456
▁gelma	-7457
▁jaksi	-7458
▁karva	-7459
▁kkeen	-7460
▁nissa	-7461
▁urski	-7462
KA	-7463
MP	-7464
▁0-	-7465
▁AK	-7466
▁Cy	-7467
▁FS	-7468
▁gn	-7469
▁24,	-7470
▁Law	-7471
▁Sää	-7472
▁öns	-7473
▁akki	-7474
▁arab	-7475
▁atte	-7476
▁omas	-7477
▁tuna	-7478
▁tusv	-7479
▁tuur	-7480
▁yste	-7481
▁aival	-7482
▁halpa	-7483
▁miina	-7484
▁sinni	-7485
▁ulkko	-7486
▁vaale	-7487
LS	-7488
th	-7489
we	-7490
pat	-7491
▁95	-7492
▁AD	-7493
▁31,	-7494
▁Lev	-7495
▁aht	-7496
▁etk	-7497
▁oaa	-7498
▁rum	-7499
▁Glob	-7500
▁Hell	-7501
▁Konf	-7502
▁aiht	-7503
▁aute	-7504
▁elia	-7505
▁ilda	-7506
▁irvo	-7507
▁ntar	-7508
▁roop	-7509
▁tetä	-7510
▁ulee	-7511
▁wall	-7512
▁ytyy	-7513
▁äätö	-7514
▁Rinta	-7515
▁Risti	-7516
▁ilkku	-7517
▁mästä	-7518
▁nappi	-7519
▁neuro	-7520
▁oukse	-7521
▁riitt	-7522
▁sortu	-7523
iku	-7524
▁74	-7525
▁uc	-7526
▁Ham	-7527
▁KOK	-7528
▁Leo	-7529
▁Mic	-7530
▁irk	-7531
▁myi	-7532
▁oih	-7533
▁Ariz	-7534
▁Walz	-7535
▁aasi	-7536
▁idli	-7537
▁kyll	-7538
▁käry	-7539
▁omme	-7540
▁umpa	-7541
▁äiri	-7542
▁öteb	-7543
▁ainan	-7544
▁amuel	-7545
▁arlos	-7546
▁eelle	-7547
▁maist	-7548
▁orner	-7549
▁ttele	-7550
BS	-7551
ead	-7552
▁78	-7553
▁EC	-7554
▁hl	-7555
▁hr	-7556
▁kl	-7557
▁AfD	-7558
▁Anu	-7559
▁aff	-7560
▁aie	-7561
▁iat	-7562
▁kWh	-7563
▁Amaz	-7564
▁Saga	-7565
▁aiho	-7566
▁ehit	-7567
▁helm	-7568
▁inkä	-7569
▁keva	-7570
▁mand	-7571
▁omer	-7572
▁oopp	-7573
▁urri	-7574
▁Hintz	-7575
▁aisti	-7576
▁deleg	-7577
▁kinta	-7578
▁ltava	-7579
▁ustaa	-7580
ic	-7581
tic	-7582
▁7,	-7583
▁SU	-7584
▁350	-7585
▁Lee	-7586
▁SJK	-7587
▁Tul	-7588
▁ihi	-7589
▁raf	-7590
▁äky	-7591
▁ääl	-7592
▁aliv	-7593
▁aros	-7594
▁avos	-7595
▁emen	-7596
▁ikke	-7597
▁ilku	-7598
▁liop	-7599
▁nker	-7600
▁punk	-7601
▁stat	-7602
▁suus	-7603
▁tiko	-7604
▁vies	-7605
▁Coldp	-7606
▁Marcu	-7607
▁Roman	-7608
▁amara	-7609
▁eskar	-7610
▁iittä	-7611
▁kesto	-7612
▁kestä	-7613
▁sijaa	-7614
▁sänky	-7615
▁9,	-7616
▁Ti	-7617
▁21,	-7618
▁Cha	-7619
▁GPS	-7620
▁Gra	-7621
▁HSL	-7622
▁Lop	-7623
▁dom	-7624
▁agle	-7625
▁ainu	-7626
▁ampo	-7627
▁asee	-7628
▁etso	-7629
▁eyen	-7630
▁mist	-7631
▁urin	-7632
▁urpi	-7633
▁Sakar	-7634
▁astio	-7635
▁ilkka	-7636
▁ippar	-7637
▁numme	-7638
▁terin	-7639
▁uutti	-7640
▁vihja	-7641
OP	-7642
mil	-7643
pas	-7644
▁Tr	-7645
▁WS	-7646
▁öp	-7647
▁Cro	-7648
▁Edu	-7649
▁Päi	-7650
▁Use	-7651
▁pär	-7652
▁Wahl	-7653
▁Wild	-7654
▁anel	-7655
▁avah	-7656
▁eksu	-7657
▁iehi	-7658
▁lans	-7659
▁lykk	-7660
▁nyrk	-7661
▁orno	-7662
▁orsa	-7663
▁orto	-7664
▁otii	-7665
▁rais	-7666
▁ähte	-7667
▁Grönb	-7668
▁astee	-7669
▁ellin	-7670
▁heitt	-7671
▁ikkar	-7672
▁irppu	-7673
▁maala	-7674
▁omena	-7675
▁omini	-7676
▁ooper	-7677
ph	-7678
zy	-7679
▁76	-7680
▁86	-7681
▁Tu	-7682
▁34,	-7683
▁Del	-7684
▁Tho	-7685
▁UFC	-7686
▁aps	-7687
▁sym	-7688
▁akav	-7689
▁arit	-7690
▁aude	-7691
▁each	-7692
▁eivä	-7693
▁iian	-7694
▁imia	-7695
▁isaa	-7696
▁itol	-7697
▁kose	-7698
▁omal	-7699
▁roos	-7700
▁taku	-7701
▁uite	-7702
▁ylli	-7703
▁ynyt	-7704
▁ytkö	-7705
▁anoma	-7706
▁aukio	-7707
▁eisoi	-7708
▁enter	-7709
▁maise	-7710
▁matti	-7711
▁ntial	-7712
▁ppila	-7713
che	-7714
its	-7715
mes	-7716
uta	-7717
▁91	-7718
▁Jr	-7719
▁nm	-7720
▁31.	-7721
▁35,	-7722
▁Kia	-7723
▁Mun	-7724
▁any	-7725
▁dan	-7726
▁err	-7727
▁hur	-7728
▁soa	-7729
▁vio	-7730
▁Adri	-7731
▁Digg	-7732
▁PMMP	-7733
▁hang	-7734
▁lant	-7735
▁ngeb	-7736
▁onja	-7737
▁sema	-7738
▁usku	-7739
▁uter	-7740
▁Jarno	-7741
▁hassu	-7742
▁kukin	-7743
▁nossa	-7744
▁tauks	-7745
▁tiena	-7746
▁tista	-7747
▁vässä	-7748
sah	-7749
str	-7750
▁TM	-7751
▁Big	-7752
▁EHT	-7753
▁Pes	-7754
▁aco	-7755
▁buu	-7756
▁laf	-7757
▁Öst	-7758
▁ahte	-7759
▁ikäl	-7760
▁itan	-7761
▁jeng	-7762
▁kien	-7763
▁kula	-7764
▁kuor	-7765
▁kuus	-7766
▁llen	-7767
▁olue	-7768
▁stal	-7769
▁ujen	-7770
▁esper	-7771
▁heito	-7772
▁iiski	-7773
▁mento	-7774
▁regor	-7775
▁taput	-7776
hä	-7777
ji	-7778
gio	-7779
vig	-7780
▁87	-7781
▁Il	-7782
▁SP	-7783
▁Lah	-7784
▁Oik	-7785
▁Pro	-7786
▁Vai	-7787
▁dea	-7788
▁fer	-7789
▁skä	-7790
▁tuk	-7791
▁Barb	-7792
▁Duba	-7793
▁Rein	-7794
▁Rena	-7795
▁Veri	-7796
▁aunu	-7797
▁ilot	-7798
▁inas	-7799
▁repe	-7800
▁talv	-7801
▁tock	-7802
▁utos	-7803
▁ymys	-7804
▁aunan	-7805
▁dassa	-7806
▁encia	-7807
▁eriaa	-7808
▁ilpai	-7809
▁iskel	-7810
▁itsen	-7811
▁korpi	-7812
▁ntise	-7813
▁offer	-7814
▁ortai	-7815
▁rance	-7816
▁tisoi	-7817
ant	-7818
usa	-7819
▁71	-7820
▁Ul	-7821
▁22,	-7822
▁33,	-7823
▁EBU	-7824
▁War	-7825
▁asf	-7826
▁joo	-7827
▁lot	-7828
▁mag	-7829
▁nmu	-7830
▁rmi	-7831
▁sik	-7832
▁Over	-7833
▁eilu	-7834
▁etor	-7835
▁jois	-7836
▁keng	-7837
▁muod	-7838
▁sapp	-7839
▁semp	-7840
▁soti	-7841
▁tant	-7842
▁tise	-7843
▁tsen	-7844
▁eloni	-7845
▁hokki	-7846
▁iinaa	-7847
▁kille	-7848
▁nnost	-7849
▁ntoon	-7850
▁roski	-7851
▁suver	-7852
▁tusjo	-7853
▁uomat	-7854
rs	-7855
én	-7856
hko	-7857
▁Em	-7858
▁ld	-7859
▁Ger	-7860
▁Juh	-7861
▁Tuu	-7862
▁ahe	-7863
▁esp	-7864
▁ipi	-7865
▁kiv	-7866
▁sap	-7867
▁ärt	-7868
▁Vala	-7869
▁eivo	-7870
▁hame	-7871
▁kate	-7872
▁nolo	-7873
▁staf	-7874
▁uura	-7875
▁Rossi	-7876
▁Thomp	-7877
▁ammer	-7878
▁inttu	-7879
▁menti	-7880
▁onaco	-7881
▁sulku	-7882
▁taulu	-7883
▁unner	-7884
▁uulos	-7885
yd	-7886
▁−	-7887
emb	-7888
väli	-7889
▁140	-7890
▁FSB	-7891
▁NYT	-7892
▁hät	-7893
▁jöi	-7894
▁käv	-7895
▁nam	-7896
▁ryn	-7897
▁war	-7898
▁arte	-7899
▁esim	-7900
▁gall	-7901
▁ilto	-7902
▁lerc	-7903
▁olii	-7904
▁ooli	-7905
▁ssut	-7906
▁synt	-7907
▁tola	-7908
▁uivu	-7909
▁umpp	-7910
▁uuse	-7911
▁vise	-7912
▁ympi	-7913
▁ainal	-7914
▁atina	-7915
▁intia	-7916
▁nväli	-7917
▁rooks	-7918
▁uutal	-7919
HD	-7920
LL	-7921
iby	-7922
ppä	-7923
▁aw	-7924
▁Con	-7925
▁elg	-7926
▁kuj	-7927
▁lpo	-7928
▁rdo	-7929
▁rho	-7930
▁sch	-7931
▁sha	-7932
▁Calg	-7933
▁Gaud	-7934
▁ahoi	-7935
▁aluk	-7936
▁idut	-7937
▁kahd	-7938
▁ling	-7939
▁myar	-7940
▁okin	-7941
▁onas	-7942
▁osep	-7943
▁oudo	-7944
▁paam	-7945
▁raam	-7946
▁rida	-7947
▁sink	-7948
▁stia	-7949
▁tsal	-7950
▁ucia	-7951
▁uuna	-7952
▁wood	-7953
▁Combs	-7954
▁aukko	-7955
▁hetke	-7956
▁iisaa	-7957
▁nurmi	-7958
▁oppar	-7959
▁surma	-7960
▁telut	-7961
▁treet	-7962
▁tukka	-7963
▁uilla	-7964
▁umaan	-7965
▁utaan	-7966
▁valle	-7967
AA	-7968
am	-7969
ep	-7970
ér	-7971
▁н	-7972
ith	-7973
▁(2	-7974
▁170	-7975
▁3,5	-7976
▁EPP	-7977
▁Ero	-7978
▁Top	-7979
▁dam	-7980
▁ehi	-7981
▁kra	-7982
▁näp	-7983
▁alou	-7984
▁azer	-7985
▁edro	-7986
▁elat	-7987
▁erkk	-7988
▁evil	-7989
▁iala	-7990
▁idaa	-7991
▁ilvo	-7992
▁ipsa	-7993
▁itru	-7994
▁koal	-7995
▁oist	-7996
▁osit	-7997
▁rkin	-7998
▁vere	-7999
▁atker	-8000
▁easti	-8001
▁ioski	-8002
▁isney	-8003
▁ittam	-8004
▁kukki	-8005
▁linto	-8006
▁ometr	-8007
▁rctic	-8008
▁riehu	-8009
▁utist	-8010
FL	-8011
ira	-8012
▁88	-8013
▁Sä	-8014
▁cu	-8015
▁vu	-8016
▁öd	-8017
▁Gri	-8018
▁Kas	-8019
▁Rat	-8020
▁Sun	-8021
▁Toi	-8022
▁eiv	-8023
▁agne	-8024
▁amed	-8025
▁arai	-8026
▁foor	-8027
▁ievi	-8028
▁ledo	-8029
▁lehm	-8030
▁liko	-8031
▁nelm	-8032
▁ondo	-8033
▁outa	-8034
▁rand	-8035
▁usia	-8036
▁ääst	-8037
▁aaton	-8038
▁ament	-8039
▁happo	-8040
▁kanto	-8041
▁lappi	-8042
▁mitus	-8043
▁sinut	-8044
▁taudi	-8045
▁ummel	-8046
▁vakuu	-8047
▁ärist	-8048
ey	-8049
LTP	-8050
ror	-8051
▁OP	-8052
ortm	-8053
▁110	-8054
▁160	-8055
▁CBS	-8056
▁PSG	-8057
▁Tee	-8058
▁dor	-8059
▁lja	-8060
▁Clar	-8061
▁Open	-8062
▁Oper	-8063
▁Räis	-8064
▁WLTP	-8065
▁esän	-8066
▁meen	-8067
▁nats	-8068
▁stoa	-8069
▁ulka	-8070
▁auman	-8071
▁inger	-8072
▁irjoi	-8073
▁istee	-8074
▁kunin	-8075
▁luuku	-8076
▁lyers	-8077
▁milla	-8078
▁outil	-8079
▁ulgar	-8080
▁undes	-8081
▁uutio	-8082
▁äisyy	-8083
TO	-8084
cy	-8085
▁EI	-8086
▁ck	-8087
▁uj	-8088
▁36,	-8089
▁Aro	-8090
▁Cla	-8091
▁Ole	-8092
▁One	-8093
▁Pas	-8094
▁RoK	-8095
▁hka	-8096
▁jaa	-8097
▁nim	-8098
▁rki	-8099
▁sim	-8100
▁Aira	-8101
▁RoPS	-8102
▁ager	-8103
▁ailu	-8104
▁aivu	-8105
▁eneg	-8106
▁imai	-8107
▁kapa	-8108
▁kart	-8109
▁kond	-8110
▁orni	-8111
▁orod	-8112
▁osoi	-8113
▁pall	-8114
▁rice	-8115
▁rvos	-8116
▁side	-8117
▁ännä	-8118
▁Dortm	-8119
▁kinna	-8120
▁orvar	-8121
▁rmist	-8122
▁uolla	-8123
hr	-8124
bel	-8125
nau	-8126
tun	-8127
▁Ay	-8128
▁Jä	-8129
▁PP	-8130
▁Ue	-8131
▁ix	-8132
▁20,	-8133
▁Ilm	-8134
▁Jer	-8135
▁Kov	-8136
▁Lap	-8137
▁TMZ	-8138
▁bar	-8139
▁euk	-8140
▁isr	-8141
▁lmä	-8142
▁mua	-8143
▁rön	-8144
▁ADHD	-8145
▁Alfa	-8146
▁Lovi	-8147
▁Saat	-8148
▁anse	-8149
▁elun	-8150
▁ilos	-8151
▁kass	-8152
▁lakk	-8153
▁omar	-8154
▁orit	-8155
▁tari	-8156
▁tikk	-8157
▁toim	-8158
▁väll	-8159
▁øiby	-8160
▁aavan	-8161
▁ergio	-8162
▁eutta	-8163
▁kupla	-8164
▁maino	-8165
▁nurme	-8166
▁taudu	-8167
▁teven	-8168
▁untar	-8169
SA	-8170
uho	-8171
▁6-	-8172
▁83	-8173
▁89	-8174
▁96	-8175
▁1,2	-8176
▁Urs	-8177
▁ijo	-8178
▁iän	-8179
▁rno	-8180
▁syt	-8181
▁Antt	-8182
▁Kihl	-8183
▁eten	-8184
▁iirt	-8185
▁kina	-8186
▁nilk	-8187
▁olli	-8188
▁rönl	-8189
▁tala	-8190
▁tami	-8191
▁vela	-8192
▁Kaija	-8193
▁ailij	-8194
▁heinä	-8195
▁iivaa	-8196
▁ikrob	-8197
▁lauma	-8198
▁liima	-8199
▁miinu	-8200
▁seits	-8201
▁sitou	-8202
▁sitys	-8203
▁urkku	-8204
▁ökkää	-8205
tor	-8206
ård	-8207
▁OI	-8208
▁Gla	-8209
▁Rei	-8210
▁hou	-8211
▁rla	-8212
▁rty	-8213
▁sii	-8214
▁täk	-8215
▁Comp	-8216
▁Uefa	-8217
▁avas	-8218
▁elvä	-8219
▁esty	-8220
▁imit	-8221
▁irku	-8222
▁lubi	-8223
▁luis	-8224
▁nero	-8225
▁nony	-8226
▁usse	-8227
▁yhti	-8228
▁äijä	-8229
▁aamaa	-8230
▁aatam	-8231
▁akker	-8232
▁atema	-8233
▁avint	-8234
▁enner	-8235
▁istut	-8236
▁liioi	-8237
▁litse	-8238
▁osent	-8239
▁sitov	-8240
▁udist	-8241
▁välin	-8242
ER	-8243
jy	-8244
wi	-8245
iru	-8246
▁79	-8247
▁TE	-8248
▁Cor	-8249
▁NFL	-8250
▁Res	-8251
▁Vie	-8252
▁WHO	-8253
▁pai	-8254
▁roi	-8255
▁rou	-8256
▁vok	-8257
▁ynä	-8258
▁Laur	-8259
▁Miha	-8260
▁Sean	-8261
▁ador	-8262
▁alie	-8263
▁elei	-8264
▁iipo	-8265
▁itin	-8266
▁lind	-8267
▁mart	-8268
▁ojaa	-8269
▁sijo	-8270
▁site	-8271
▁skuu	-8272
▁tsin	-8273
▁urhi	-8274
▁vaim	-8275
▁aisio	-8276
▁amina	-8277
▁aster	-8278
▁esala	-8279
▁imago	-8280
▁imber	-8281
▁kumpi	-8282
▁laino	-8283
▁lasit	-8284
▁majur	-8285
▁osmet	-8286
▁reppu	-8287
▁seita	-8288
▁tahti	-8289
▁tempo	-8290
▁ärski	-8291
rt	-8292
unt	-8293
▁92	-8294
▁Er	-8295
▁Ly	-8296
▁Vo	-8297
▁1-2	-8298
▁17,	-8299
▁Amb	-8300
▁Gib	-8301
▁Hil	-8302
▁Ral	-8303
▁far	-8304
▁jev	-8305
▁maz	-8306
▁mei	-8307
▁pie	-8308
▁rpo	-8309
▁sot	-8310
▁Auer	-8311
▁Sana	-8312
▁edio	-8313
▁ersu	-8314
▁hiff	-8315
▁Monte	-8316
▁laise	-8317
▁mouth	-8318
▁oksen	-8319
▁sujuu	-8320
▁teell	-8321
cke	-8322
gen	-8323
ple	-8324
▁3-4	-8325
▁Etu	-8326
▁dek	-8327
▁lup	-8328
▁lvi	-8329
▁okr	-8330
▁MacK	-8331
▁ahar	-8332
▁dire	-8333
▁ence	-8334
▁ikaa	-8335
▁ilpp	-8336
▁laam	-8337
▁lusi	-8338
▁olum	-8339
▁orsb	-8340
▁rell	-8341
▁vase	-8342
▁viru	-8343
▁Ruand	-8344
▁Virra	-8345
▁ennet	-8346
▁harks	-8347
▁ittei	-8348
▁lasin	-8349
▁leivo	-8350
▁rinna	-8351
▁saati	-8352
▁tiput	-8353
▁vikaa	-8354
bu	-8355
eld	-8356
org	-8357
rag	-8358
ung	-8359
vas	-8360
▁RB	-8361
ilai	-8362
▁18,	-8363
▁Cin	-8364
▁Cry	-8365
▁Lar	-8366
▁Von	-8367
▁gam	-8368
▁slo	-8369
▁Wimb	-8370
▁akis	-8371
▁desi	-8372
▁iant	-8373
▁kand	-8374
▁kunt	-8375
▁medi	-8376
▁nnek	-8377
▁ohto	-8378
▁saha	-8379
▁teta	-8380
▁uman	-8381
▁önki	-8382
▁Sarah	-8383
▁Wille	-8384
▁alama	-8385
▁iosta	-8386
▁irror	-8387
▁iunau	-8388
▁kuuro	-8389
▁naula	-8390
▁ngelm	-8391
▁pudot	-8392
▁sovel	-8393
▁stava	-8394
▁tauko	-8395
▁äytän	-8396
PN	-8397
tar	-8398
▁BY	-8399
▁Je	-8400
▁kd	-8401
▁ms	-8402
▁ux	-8403
▁450	-8404
▁ICC	-8405
▁Van	-8406
▁loo	-8407
▁new	-8408
▁ond	-8409
▁ymä	-8410
▁äck	-8411
▁Brig	-8412
▁aler	-8413
▁amfe	-8414
▁apar	-8415
▁auke	-8416
▁aupp	-8417
▁dahl	-8418
▁diok	-8419
▁eräi	-8420
▁lase	-8421
▁okra	-8422
▁olar	-8423
▁rond	-8424
▁sist	-8425
▁stil	-8426
▁tunt	-8427
▁umni	-8428
▁äyde	-8429
▁öran	-8430
▁Niger	-8431
▁aataa	-8432
▁ajana	-8433
▁ellak	-8434
▁emeri	-8435
▁ester	-8436
▁ikent	-8437
▁ikoll	-8438
▁intsa	-8439
▁opist	-8440
▁stock	-8441
▁tapaa	-8442
▁tukki	-8443
▁utkim	-8444
▁vaiku	-8445
fs	-8446
tz	-8447
bes	-8448
inb	-8449
▁TP	-8450
▁TS	-8451
▁Yu	-8452
▁sb	-8453
▁Hai	-8454
▁Jon	-8455
▁Kom	-8456
▁Lak	-8457
▁aen	-8458
▁edi	-8459
▁emu	-8460
▁jus	-8461
▁med	-8462
▁noa	-8463
▁rey	-8464
▁ryp	-8465
▁öid	-8466
▁Cole	-8467
▁aidz	-8468
▁aint	-8469
▁enis	-8470
▁iand	-8471
▁iopi	-8472
▁iota	-8473
▁keis	-8474
▁lopp	-8475
▁nsid	-8476
▁ntil	-8477
▁ohte	-8478
▁oren	-8479
▁oril	-8480
▁rgia	-8481
▁sikk	-8482
▁teel	-8483
▁ukki	-8484
▁ulun	-8485
▁aasal	-8486
▁agner	-8487
▁asara	-8488
▁eitse	-8489
▁ineet	-8490
▁istin	-8491
▁kerma	-8492
▁kohdi	-8493
▁liika	-8494
▁naure	-8495
▁ntero	-8496
▁oksis	-8497
▁rappu	-8498
▁rilai	-8499
▁tuoma	-8500
▁uulan	-8501
gb	-8502
rm	-8503
▁с	-8504
▁Ah	-8505
▁Pu	-8506
▁tš	-8507
▁ze	-8508
▁19,	-8509
▁Han	-8510
▁Ida	-8511
▁Lai	-8512
▁Pat	-8513
▁Tre	-8514
▁bra	-8515
▁byr	-8516
▁eff	-8517
▁lfy	-8518
▁lmi	-8519
▁äji	-8520
▁ahka	-8521
▁akob	-8522
▁ange	-8523
▁erby	-8524
▁ipar	-8525
▁itma	-8526
▁iton	-8527
▁lako	-8528
▁muot	-8529
▁oker	-8530
▁onis	-8531
▁otsa	-8532
▁oyal	-8533
▁raus	-8534
▁repi	-8535
▁rett	-8536
▁rigo	-8537
▁roth	-8538
▁täyd	-8539
▁örke	-8540
▁assit	-8541
▁atter	-8542
▁enior	-8543
▁ioide	-8544
▁jumbo	-8545
▁kkoon	-8546
▁kummu	-8547
▁mökki	-8548
▁ornet	-8549
▁soitt	-8550
▁ummas	-8551
▁ummer	-8552
▁vihki	-8553
▁äläis	-8554
wk	-8555
zb	-8556
▁в	-8557
geo	-8558
hah	-8559
▁84	-8560
▁Ee	-8561
▁5,5	-8562
▁AKT	-8563
▁ATP	-8564
▁IIH	-8565
▁Klo	-8566
▁Lei	-8567
▁Mit	-8568
▁Ulf	-8569
▁bel	-8570
▁ict	-8571
▁lea	-8572
▁ogg	-8573
▁säl	-8574
▁öys	-8575
▁Hoff	-8576
▁Rick	-8577
▁aapo	-8578
▁aber	-8579
▁ehmu	-8580
▁igan	-8581
▁ipal	-8582
▁itsa	-8583
▁jelm	-8584
▁kane	-8585
▁kong	-8586
▁lini	-8587
▁lott	-8588
▁ntym	-8589
▁okon	-8590
▁oles	-8591
▁rink	-8592
▁tiön	-8593
▁urvo	-8594
▁vihi	-8595
▁Miisa	-8596
▁ackal	-8597
▁ainel	-8598
▁innas	-8599
▁innon	-8600
▁kaato	-8601
▁koura	-8602
▁kumpu	-8603
▁sakon	-8604
▁salam	-8605
▁skent	-8606
▁talte	-8607
▁önkij	-8608
AS	-8609
ny	-8610
ble	-8611
nea	-8612
▁BC	-8613
▁Io	-8614
▁iq	-8615
▁42,	-8616
▁BYD	-8617
▁Bay	-8618
▁EKP	-8619
▁Iis	-8620
▁SYÖ	-8621
▁agr	-8622
▁hes	-8623
▁hkö	-8624
▁oun	-8625
▁sät	-8626
▁ual	-8627
▁ESPN	-8628
▁Kara	-8629
▁akin	-8630
▁eesu	-8631
▁elip	-8632
▁elon	-8633
▁iiku	-8634
▁layo	-8635
▁likk	-8636
▁olia	-8637
▁onnu	-8638
▁oppo	-8639
▁paja	-8640
▁rima	-8641
▁saac	-8642
▁saad	-8643
▁Sukar	-8644
▁aivas	-8645
▁amall	-8646
▁aneen	-8647
▁inner	-8648
▁lauku	-8649
▁stelu	-8650
▁ttien	-8651
▁tämää	-8652
▁vihel	-8653
▁ydney	-8654
sy	-8655
diz	-8656
▁Ap	-8657
▁Fe	-8658
▁HT	-8659
▁Kä	-8660
▁RT	-8661
▁ax	-8662
▁Oul	-8663
▁dos	-8664
▁eed	-8665
▁ndy	-8666
▁uil	-8667
▁uim	-8668
▁Gold	-8669
▁Grah	-8670
▁IIHF	-8671
▁Mosc	-8672
▁aamo	-8673
▁aisa	-8674
▁dorf	-8675
▁enge	-8676
▁etur	-8677
▁geop	-8678
▁iner	-8679
▁irhe	-8680
▁kosi	-8681
▁lask	-8682
▁llek	-8683
▁loog	-8684
▁loyd	-8685
▁okki	-8686
▁olva	-8687
▁piho	-8688
▁rost	-8689
▁ueen	-8690
▁uisi	-8691
▁äjät	-8692
▁ärpi	-8693
▁Match	-8694
▁Nobel	-8695
▁Teppo	-8696
▁antio	-8697
▁ikkel	-8698
▁ilkki	-8699
▁isäll	-8700
▁kurku	-8701
▁lakki	-8702
▁lievi	-8703
▁lpine	-8704
▁nessä	-8705
▁niska	-8706
▁noita	-8707
▁okuva	-8708
▁osien	-8709
▁otter	-8710
▁rosta	-8711
▁umari	-8712
▁ummit	-8713
éb	-8714
ens	-8715
kim	-8716
pit	-8717
▁AR	-8718
▁BB	-8719
▁Wo	-8720
▁Ya	-8721
▁2-0	-8722
▁39,	-8723
▁AOP	-8724
▁Kaa	-8725
▁Nat	-8726
▁Sav	-8727
▁Tol	-8728
▁eys	-8729
▁ihd	-8730
▁jel	-8731
▁rag	-8732
▁seu	-8733
▁sup	-8734
▁söi	-8735
▁Herb	-8736
▁aitl	-8737
▁arik	-8738
▁ehjä	-8739
▁ehno	-8740
▁iida	-8741
▁isso	-8742
▁sime	-8743
▁telt	-8744
▁uthi	-8745
▁vihj	-8746
▁ärin	-8747
▁Kontu	-8748
▁Pouta	-8749
▁Ruuna	-8750
▁Tuula	-8751
▁aalar	-8752
▁ensor	-8753
▁iikar	-8754
▁kalle	-8755
▁lempe	-8756
▁orbes	-8757
▁sataa	-8758
▁tihku	-8759
▁tistä	-8760
▁unter	-8761
▁urbul	-8762
▁urmer	-8763
▁uutaa	-8764
Tu	-8765
yn	-8766
die	-8767
lak	-8768
rey	-8769
▁EL	-8770
▁UP	-8771
▁wo	-8772
▁ün	-8773
hani	-8774
▁45,	-8775
▁Abu	-8776
▁Gor	-8777
▁Hei	-8778
▁ban	-8779
▁kyp	-8780
▁mmu	-8781
▁äva	-8782
▁Birg	-8783
▁Gola	-8784
▁Mali	-8785
▁Rolf	-8786
▁arsa	-8787
▁avel	-8788
▁eini	-8789
▁eito	-8790
▁eman	-8791
▁erho	-8792
▁erso	-8793
▁ezir	-8794
▁hdot	-8795
▁ihlo	-8796
▁ince	-8797
▁kouk	-8798
▁kran	-8799
▁lata	-8800
▁läin	-8801
▁mpin	-8802
▁olop	-8803
▁rdog	-8804
▁redr	-8805
▁risb	-8806
▁stie	-8807
▁tapo	-8808
▁äksy	-8809
▁Grahn	-8810
▁Maple	-8811
▁aaduk	-8812
▁istos	-8813
▁kauno	-8814
▁kuppi	-8815
▁malle	-8816
▁märkä	-8817
▁ouise	-8818
▁solmu	-8819
▁untaa	-8820
▁äneet	-8821
GA	-8822
PK	-8823
ast	-8824
eat	-8825
hio	-8826
▁1)	-8827
▁2)	-8828
▁97	-8829
▁OK	-8830
▁PV	-8831
▁lv	-8832
▁38,	-8833
▁Bal	-8834
▁Bur	-8835
▁Fit	-8836
▁ISW	-8837
▁Nig	-8838
▁Séb	-8839
▁hev	-8840
▁jol	-8841
▁lke	-8842
▁lmo	-8843
▁lyö	-8844
▁rni	-8845
▁säk	-8846
▁tät	-8847
▁Wick	-8848
▁adal	-8849
▁esil	-8850
▁hort	-8851
▁ioni	-8852
▁juna	-8853
▁käyn	-8854
▁leip	-8855
▁lint	-8856
▁naja	-8857
▁nell	-8858
▁oost	-8859
▁race	-8860
▁tipa	-8861
▁tyvä	-8862
▁Clark	-8863
▁Korve	-8864
▁Ronja	-8865
▁Terho	-8866
▁aarin	-8867
▁akkai	-8868
▁amist	-8869
▁ankal	-8870
▁athan	-8871
▁hampu	-8872
▁intää	-8873
▁ippil	-8874
▁leuka	-8875
▁lämän	-8876
▁nukut	-8877
▁ollin	-8878
▁style	-8879
▁uikko	-8880
▁ukkar	-8881
▁uosma	-8882
▁äytte	-8883
ng	-8884
tš	-8885
wl	-8886
él	-8887
ray	-8888
▁JS	-8889
▁LS	-8890
▁VR	-8891
▁rp	-8892
ukki	-8893
▁DNA	-8894
▁Iit	-8895
▁KKV	-8896
▁Maz	-8897
▁Sil	-8898
▁gra	-8899
▁hii	-8900
▁idl	-8901
▁Airi	-8902
▁Fing	-8903
▁Lamb	-8904
▁Mala	-8905
▁Mars	-8906
▁dist	-8907
▁eide	-8908
▁graf	-8909
▁haja	-8910
▁iehu	-8911
▁imar	-8912
▁inke	-8913
▁itch	-8914
▁kila	-8915
▁lkaa	-8916
▁nava	-8917
▁pace	-8918
▁pest	-8919
▁ring	-8920
▁rodu	-8921
▁tial	-8922
▁ukaš	-8923
▁utoa	-8924
▁utsa	-8925
▁Cardi	-8926
▁Verho	-8927
▁YouTu	-8928
▁ahtui	-8929
▁allor	-8930
▁atkaa	-8931
▁eippa	-8932
▁eisar	-8933
▁eugeo	-8934
▁iastr	-8935
▁kanno	-8936
▁kokse	-8937
▁mazon	-8938
▁nukke	-8939
▁rando	-8940
▁ulais	-8941
▁ärtha	-8942
Se	-8943
ds	-8944
eed	-8945
mpt	-8946
sol	-8947
▁7-	-8948
▁GB	-8949
▁It	-8950
▁JP	-8951
▁Mr	-8952
▁gl	-8953
▁1,3	-8954
▁40,	-8955
▁Aff	-8956
▁Ana	-8957
▁Dar	-8958
▁Edw	-8959
▁Ram	-8960
▁STM	-8961
▁Ten	-8962
▁koj	-8963
▁npa	-8964
▁näl	-8965
▁äkö	-8966
▁Alzh	-8967
▁Bond	-8968
▁Hild	-8969
▁Robb	-8970
▁Stew	-8971
▁adon	-8972
▁amid	-8973
▁eliv	-8974
▁hapo	-8975
▁iano	-8976
▁iddy	-8977
▁imin	-8978
▁iola	-8979
▁ione	-8980
▁ipsi	-8981
▁jako	-8982
▁joll	-8983
▁kool	-8984
▁möki	-8985
▁nist	-8986
▁rapu	-8987
▁reda	-8988
▁rini	-8989
▁tako	-8990
▁torp	-8991
▁ttor	-8992
▁ursu	-8993
▁uupa	-8994
▁Marco	-8995
▁Nissa	-8996
▁Pukki	-8997
▁alker	-8998
▁allei	-8999
▁autio	-9000
▁eiton	-9001
▁lasma	-9002
▁listä	-9003
▁opher	-9004
▁taiva	-9005
▁tolku	-9006
▁ulham	-9007
▁uusul	-9008
▁yynär	-9009
▁öysti	-9010
IN	-9011
hma	-9012
kos	-9013
▁RS	-9014
▁UK	-9015
▁rv	-9016
▁år	-9017
▁37,	-9018
▁dal	-9019
▁inj	-9020
▁sop	-9021
▁vik	-9022
▁Bird	-9023
▁Caru	-9024
▁Mere	-9025
▁agen	-9026
▁asvu	-9027
▁atel	-9028
▁atoi	-9029
▁auaa	-9030
▁epal	-9031
▁etoa	-9032
▁igel	-9033
▁ikis	-9034
▁irus	-9035
▁isco	-9036
▁kaar	-9037
▁kult	-9038
▁lach	-9039
▁lang	-9040
▁laud	-9041
▁nuri	-9042
▁otoi	-9043
▁ouri	-9044
▁ried	-9045
▁uhel	-9046
▁utte	-9047
▁yper	-9048
▁äysi	-9049
▁Nikki	-9050
▁Tempt	-9051
▁agnee	-9052
▁annik	-9053
▁apnea	-9054
▁duuma	-9055
▁elija	-9056
▁elmar	-9057
▁heimo	-9058
▁hinku	-9059
▁navig	-9060
▁nteki	-9061
▁osley	-9062
▁ranno	-9063
▁ryntä	-9064
▁taava	-9065
▁tojen	-9066
▁ttama	-9067
▁ttine	-9068
IS	-9069
ab	-9070
nig	-9071
one	-9072
▁NO	-9073
▁1,4	-9074
▁1,6	-9075
▁50,	-9076
▁Cli	-9077
▁Mir	-9078
▁Vah	-9079
▁edä	-9080
▁eip	-9081
▁hmi	-9082
▁hok	-9083
▁lka	-9084
▁mio	-9085
▁sir	-9086
▁sos	-9087
▁tru	-9088
▁uer	-9089
▁yna	-9090
▁Doug	-9091
▁Fifa	-9092
▁Land	-9093
▁Macc	-9094
▁ajor	-9095
▁akoi	-9096
▁arri	-9097
▁evon	-9098
▁ilut	-9099
▁imal	-9100
▁iman	-9101
▁iper	-9102
▁kkoa	-9103
▁kore	-9104
▁lana	-9105
▁llin	-9106
▁lobe	-9107
▁oday	-9108
▁otin	-9109
▁raas	-9110
▁seva	-9111
▁spel	-9112
▁uhli	-9113
▁ulho	-9114
▁uoni	-9115
▁Kummo	-9116
▁Mariu	-9117
▁ashar	-9118
▁astis	-9119
▁hermo	-9120
▁ildiz	-9121
▁lauta	-9122
▁leipo	-9123
▁lonso	-9124
▁lähei	-9125
▁ohtee	-9126
▁orsby	-9127
▁ripus	-9128
▁rmand	-9129
▁tajak	-9130
▁ymise	-9131
AC	-9132
ía	-9133
etz	-9134
ile	-9135
kkä	-9136
lee	-9137
uma	-9138
▁Oo	-9139
▁WW	-9140
▁rü	-9141
rich	-9142
▁4,5	-9143
▁Dub	-9144
▁ECR	-9145
▁Lor	-9146
▁Nea	-9147
▁Spe	-9148
▁Vis	-9149
▁Vit	-9150
▁ear	-9151
▁icz	-9152
▁ijä	-9153
▁ljo	-9154
▁npi	-9155
▁nst	-9156
▁sär	-9157
▁tup	-9158
▁vid	-9159
▁yiv	-9160
▁Abba	-9161
▁Ralf	-9162
▁Rönn	-9163
▁Skin	-9164
▁agma	-9165
▁ahan	-9166
▁ajel	-9167
▁amat	-9168
▁argu	-9169
▁asvo	-9170
▁erie	-9171
▁esal	-9172
▁hein	-9173
▁htuu	-9174
▁iego	-9175
▁ilve	-9176
▁imak	-9177
▁isel	-9178
▁ndia	-9179
▁oihu	-9180
▁omee	-9181
▁ongo	-9182
▁osas	-9183
▁otet	-9184
▁ouhe	-9185
▁pujo	-9186
▁rior	-9187
▁slon	-9188
▁taak	-9189
▁ukin	-9190
▁ulit	-9191
▁utum	-9192
▁ärkö	-9193
▁Maiju	-9194
▁Ritva	-9195
▁anant	-9196
▁asked	-9197
▁astia	-9198
▁emmet	-9199
▁ilton	-9200
▁istoi	-9201
▁joona	-9202
▁leipä	-9203
▁liina	-9204
▁lisia	-9205
▁lkeen	-9206
▁napsa	-9207
▁otsin	-9208
▁rnold	-9209
▁stedt	-9210
▁viher	-9211
▁ürich	-9212
EN	-9213
HC	-9214
OS	-9215
kit	-9216
oth	-9217
uar	-9218
▁vs	-9219
▁220	-9220
▁Ota	-9221
▁PGA	-9222
▁Tel	-9223
▁WSJ	-9224
▁aue	-9225
▁fil	-9226
▁hde	-9227
▁här	-9228
▁owe	-9229
▁owl	-9230
▁rog	-9231
▁tep	-9232
▁Dagb	-9233
▁Mire	-9234
▁aant	-9235
▁anit	-9236
▁apun	-9237
▁arge	-9238
▁ehke	-9239
▁esso	-9240
▁graa	-9241
▁jätt	-9242
▁loin	-9243
▁nuut	-9244
▁onil	-9245
▁oosa	-9246
▁ruce	-9247
▁tate	-9248
▁tomi	-9249
▁uhmo	-9250
▁utch	-9251
▁vail	-9252
▁ävää	-9253
▁öyty	-9254
▁Gibso	-9255
▁Kurki	-9256
▁Miina	-9257
▁aasut	-9258
▁andel	-9259
▁antib	-9260
▁eneve	-9261
▁erner	-9262
▁esten	-9263
▁eutan	-9264
▁ianca	-9265
▁itler	-9266
▁kuvas	-9267
▁misiä	-9268
▁nappa	-9269
▁ntava	-9270
▁selos	-9271
▁talve	-9272
▁tiika	-9273
▁ullon	-9274
▁uulin	-9275
▁vaini	-9276
US	-9277
py	-9278
mer	-9279
urs	-9280
usu	-9281
war	-9282
▁AT	-9283
▁Ow	-9284
▁1,8	-9285
▁16,	-9286
▁2-1	-9287
▁3-0	-9288
▁DCA	-9289
▁Dia	-9290
▁Eco	-9291
▁III	-9292
▁Kop	-9293
▁Mav	-9294
▁SKA	-9295
▁Sur	-9296
▁Uts	-9297
▁acq	-9298
▁epi	-9299
▁etz	-9300
▁iff	-9301
▁isv	-9302
▁lil	-9303
▁ytä	-9304
▁yyl	-9305
▁Glas	-9306
▁Good	-9307
▁Jana	-9308
▁Line	-9309
▁Nils	-9310
▁Oppi	-9311
▁Seur	-9312
▁Wing	-9313
▁aase	-9314
▁absu	-9315
▁alei	-9316
▁auks	-9317
▁deit	-9318
▁ehmo	-9319
▁elvo	-9320
▁evge	-9321
▁hart	-9322
▁layb	-9323
▁leff	-9324
▁lvar	-9325
▁moot	-9326
▁sato	-9327
▁selk	-9328
▁sien	-9329
▁suta	-9330
▁tova	-9331
▁urme	-9332
▁ynee	-9333
▁Kumpu	-9334
▁Niilo	-9335
▁aalei	-9336
▁abine	-9337
▁ammel	-9338
▁amppa	-9339
▁askin	-9340
▁enkin	-9341
▁essie	-9342
▁ieppa	-9343
▁iinty	-9344
▁intaa	-9345
▁kanne	-9346
▁karta	-9347
▁lahjo	-9348
▁rille	-9349
▁rince	-9350
▁ripul	-9351
▁ruins	-9352
▁stell	-9353
▁ukkul	-9354
▁umppu	-9355
▁viikk	-9356
▁vilah	-9357
PA	-9358
vy	-9359
zi	-9360
▁#	-9361
ban	-9362
mir	-9363
oms	-9364
ric	-9365
sio	-9366
▁3)	-9367
▁98	-9368
▁Ik	-9369
▁Kö	-9370
▁VI	-9371
▁Öl	-9372
▁Alf	-9373
▁Bob	-9374
▁Gon	-9375
▁ICJ	-9376
▁Ket	-9377
▁Kot	-9378
▁Sha	-9379
▁VPS	-9380
▁Vär	-9381
▁chi	-9382
▁com	-9383
▁huk	-9384
▁Auri	-9385
▁Bobr	-9386
▁Knig	-9387
▁Norf	-9388
▁Varo	-9389
▁aime	-9390
▁ales	-9391
▁amaa	-9392
▁amil	-9393
▁astr	-9394
▁atii	-9395
▁atim	-9396
▁demo	-9397
▁eeti	-9398
▁haro	-9399
▁isem	-9400
▁itul	-9401
▁iuha	-9402
▁ivit	-9403
▁kaku	-9404
▁lavi	-9405
▁leja	-9406
▁maut	-9407
▁melu	-9408
▁oime	-9409
▁ojel	-9410
▁onar	-9411
▁onse	-9412
▁opin	-9413
▁post	-9414
▁rtti	-9415
▁sova	-9416
▁stön	-9417
▁tank	-9418
▁taut	-9419
▁ujan	-9420
▁uoll	-9421
▁uruh	-9422
▁Armia	-9423
▁Kissa	-9424
▁Tahko	-9425
▁Tarmo	-9426
▁akkor	-9427
▁alehd	-9428
▁asino	-9429
▁dataa	-9430
▁essaa	-9431
▁hinna	-9432
▁iisau	-9433
▁losta	-9434
▁mekan	-9435
▁nippu	-9436
▁olppi	-9437
▁rankf	-9438
▁rokse	-9439
▁simul	-9440
▁surke	-9441
▁taika	-9442
▁tumin	-9443
▁uudel	-9444
▁ünche	-9445
LE	-9446
ct	-9447
ano	-9448
era	-9449
ida	-9450
mas	-9451
rig	-9452
sar	-9453
uay	-9454
ush	-9455
val	-9456
▁ET	-9457
▁dt	-9458
▁hm	-9459
▁hö	-9460
▁1-3	-9461
▁112	-9462
▁Cas	-9463
▁EIF	-9464
▁Hir	-9465
▁Jim	-9466
▁Mig	-9467
▁Xin	-9468
▁die	-9469
▁epo	-9470
▁gor	-9471
▁klu	-9472
▁kyä	-9473
▁lui	-9474
▁nda	-9475
▁rix	-9476
▁rkl	-9477
▁ukk	-9478
▁urp	-9479
▁ydä	-9480
▁äpi	-9481
▁ömä	-9482
▁Cola	-9483
▁East	-9484
▁Leaf	-9485
▁Resp	-9486
▁Wint	-9487
▁acob	-9488
▁ajas	-9489
▁akat	-9490
▁alhe	-9491
▁kust	-9492
▁lick	-9493
▁lipu	-9494
▁mane	-9495
▁nsio	-9496
▁oden	-9497
▁olau	-9498
▁ross	-9499
▁räik	-9500
▁sing	-9501
▁ufva	-9502
▁usic	-9503
▁uuvu	-9504
▁ytös	-9505
▁ämär	-9506
▁öyhö	-9507
▁Roste	-9508
▁alssi	-9509
▁arcia	-9510
▁atsas	-9511
▁dellä	-9512
▁evans	-9513
▁ikkoj	-9514
▁illeh	-9515
▁khani	-9516
▁kuski	-9517
▁misee	-9518
▁olour	-9519
▁onnah	-9520
▁reikä	-9521
▁sanka	-9522
▁sepel	-9523
▁tehtä	-9524
▁yönte	-9525
au	-9526
fi	-9527
ihk	-9528
jur	-9529
kei	-9530
kur	-9531
mat	-9532
▁AU	-9533
▁EX	-9534
▁GR	-9535
▁LU	-9536
▁Nm	-9537
▁Oi	-9538
▁0,5	-9539
▁270	-9540
▁4-5	-9541
▁41,	-9542
▁Dha	-9543
▁Eur	-9544
▁Wis	-9545
▁dun	-9546
▁häl	-9547
▁nop	-9548
▁rsi	-9549
▁try	-9550
▁uns	-9551
▁Hang	-9552
▁Kaja	-9553
▁Novo	-9554
▁Osmo	-9555
▁aavu	-9556
▁aila	-9557
▁ango	-9558
▁ayer	-9559
▁eice	-9560
▁iivu	-9561
▁inka	-9562
▁iväl	-9563
▁kajo	-9564
▁kets	-9565
▁miet	-9566
▁neul	-9567
▁nuot	-9568
▁olid	-9569
▁ossu	-9570
▁piru	-9571
▁rajo	-9572
▁raud	-9573
▁rent	-9574
▁rras	-9575
▁staj	-9576
▁trat	-9577
▁uhte	-9578
▁uluv	-9579
▁utsu	-9580
▁Cinia	-9581
▁Gordo	-9582
▁aasua	-9583
▁ainer	-9584
▁ajouk	-9585
▁aline	-9586
▁ammad	-9587
▁aniem	-9588
▁aston	-9589
▁autaa	-9590
▁kkäys	-9591
▁llisi	-9592
▁luisu	-9593
▁mikro	-9594
▁oikka	-9595
▁puuro	-9596
▁reunu	-9597
▁rilla	-9598
▁stall	-9599
▁stanb	-9600
▁tilas	-9601
▁tullu	-9602
▁ucker	-9603
▁ällee	-9604
AR	-9605
dor	-9606
gia	-9607
kan	-9608
roe	-9609
stö	-9610
tia	-9611
uez	-9612
▁1:	-9613
▁HD	-9614
▁HO	-9615
▁Ox	-9616
▁RE	-9617
▁Yi	-9618
▁aq	-9619
▁fu	-9620
▁1,1	-9621
▁550	-9622
▁750	-9623
▁Bra	-9624
▁Fab	-9625
▁Ian	-9626
▁eus	-9627
▁evp	-9628
▁hip	-9629
▁ild	-9630
▁ipa	-9631
▁kyn	-9632
▁lig	-9633
▁ody	-9634
▁orv	-9635
▁tiu	-9636
▁wer	-9637
▁Aron	-9638
▁Gonz	-9639
▁Iina	-9640
▁Kick	-9641
▁Kuri	-9642
▁Lago	-9643
▁Ossi	-9644
▁Saha	-9645
▁Weng	-9646
▁alah	-9647
▁alpa	-9648
▁dyna	-9649
▁entf	-9650
▁fest	-9651
▁ilpo	-9652
▁jono	-9653
▁kärk	-9654
▁leck	-9655
▁lija	-9656
▁noit	-9657
▁omeo	-9658
▁seli	-9659
▁tutt	-9660
▁uhma	-9661
▁urah	-9662
▁vint	-9663
▁öcke	-9664
▁Adria	-9665
▁Kauni	-9666
▁Kupar	-9667
▁Kurpi	-9668
▁Lempi	-9669
▁Viroo	-9670
▁aaruk	-9671
▁alain	-9672
▁ansio	-9673
▁arlon	-9674
▁assin	-9675
▁atsin	-9676
▁ausah	-9677
▁eilah	-9678
▁ellen	-9679
▁hiffr	-9680
▁koivu	-9681
▁kuorm	-9682
▁mages	-9683
▁oakim	-9684
▁onark	-9685
▁rigoz	-9686
▁ulvia	-9687
▁vaska	-9688
▁ygård	-9689
▁yrstö	-9690
hm	-9691
rå	-9692
ør	-9693
aar	-9694
med	-9695
▁IM	-9696
▁NC	-9697
▁bl	-9698
▁rm	-9699
▁uš	-9700
▁210	-9701
▁3-1	-9702
▁Let	-9703
▁OLS	-9704
▁Rey	-9705
▁Sol	-9706
▁THL	-9707
▁eep	-9708
▁loa	-9709
▁nde	-9710
▁oje	-9711
▁own	-9712
▁row	-9713
▁ryk	-9714
▁sie	-9715
▁vau	-9716
▁Cost	-9717
▁Gard	-9718
▁Gare	-9719
▁Hawk	-9720
▁Loma	-9721
▁Mach	-9722
▁Paja	-9723
▁STTK	-9724
▁Syke	-9725
▁Visa	-9726
▁ajak	-9727
▁amsa	-9728
▁	-9729
a	-9730
i	-9731
t	-9732
n	-9733
e	-9734
s	-9735
l	-9736
o	-9737
u	-9738
k	-9739
ä	-9740
m	-9741
r	-9742
v	-9743
h	-9744
p	-9745
j	-9746
y	-9747
.	-9748
d	-9749
,	-9750
ö	-9751
S	-9752
-	-9753
K	-9754
T	-9755
M	-9756
0	-9757
P	-9758
H	-9759
g	-9760
V	-9761
2	-9762
L	-9763
1	-9764
A	-9765
E	-9766
J	-9767
N	-9768
b	-9769
R	-9770
:	-9771
O	-9772
I	-9773
c	-9774
f	-9775
"	-9776
B	-9777
U	-9778
3	-9779
5	-9780
Y	-9781
4	-9782
C	-9783
9	-9784
F	-9785
6	-9786
D	-9787
8	-9788
7	-9789
)	-9790
(	-9791
G	-9792
z	-9793
w	-9794
W	-9795
?	-9796
x	-9797
­	-9798
/	-9799
!	-9800
Z	-9801
X	-9802
Ä	-9803
+	-9804
é	-9805
'	-9806
q	-9807
š	-9808
&	-9809
%	-9810
ü	-9811
å	-9812
Q	-9813
]	-9814
[	-9815
Ö	-9816
á	-9817
=	-9818
€	-9819
̈	-9820
Å	-9821
ž	-9822
ø	-9823
;	-9824
í	-9825
о	-9826
*	-9827
а	-9828
@	-9829
н	-9830
е	-9831
>	-9832
и	-9833
ó	-9834
Š	-9835
т	-9836
р	-9837
с	-9838
■	-9839
л	-9840
в	-9841
−	-9842
ñ	-9843
к	-9844
ë	-9845
è	-9846
д	-9847
у	-9848
č	-9849
#	-9850
г	-9851
п	-9852
ы	-9853
я	-9854
_	-9855
★	-9856
м	-9857
Ã	-9858
â	-9859
⁄	-9860
¤	-9861
ã	-9862
ú	-9863
à	-9864
ć	-9865
б	-9866
й	-9867
ğ	-9868
ł	-9869
ь	-9870
§	-9871
Á	-9872
з	-9873
ç	-9874
·	-9875
æ	-9876
ч	-9877
É	-9878
ý	-9879
ю	-9880
Ž	-9881
õ	-9882
<	-9883
ï	-9884
×	-9885
Ü	-9886
ô	-9887
ř	-9888
Ø	-9889
ð	-9890
ń	-9891
ж	-9892
х	-9893
Č	-9894
ě	-9895
В	-9896
ц	-9897
	-9898
°	-9899
ê	-9900
С	-9901
Ф	-9902
©	-9903
П	-9904
‒	-9905
Õ	-9906
Ú	-9907
ă	-9908
ė	-9909
ņ	-9910
́	-9911
ш	-9912
щ	-9913
	-9914
Ç	-9915
ß	-9916
ò	-9917
ā	-9918
ē	-9919
ı	-9920
ū	-9921
μ	-9922
А	-9923
Б	-9924
ф	-9925
э	-9926
‐	-9927
•	-9928
⭐	-9929
Æ	-9930
Í	-9931
Þ	-9932
ō	-9933
ț	-9934
α	-9935
К	-9936
Ш	-9937
●	-9938
$	-9939
\	-9940
`	-9941
¶	-9942
À	-9943
Ó	-9944
İ	-9945
ň	-9946
ŏ	-9947
œ	-9948
ş	-9949
ů	-9950
ż	-9951
ə	-9952
˗	-9953
Ж	-9954
И	-9955
Л	-9956
Н	-9957
‰	-9958
′	-9959
⁣	-9960
~	-9961
	-9962
¡	-9963
®	-9964
±	-9965
Â	-9966
Ò	-9967
Û	-9968
ì	-9969
î	-9970
û	-9971
ÿ	-9972
ą	-9973
đ	-9974
ę	-9975
ģ	-9976
ī	-9977
Ķ	-9978
ľ	-9979
Ł	-9980
ś	-9981
ų	-9982
ź	-9983
ǎ	-9984
Ș	-9985
ș	-9986
Д	-9987
З	-9988
О	-9989
Т	-9990
Э	-9991
ỏ	-9992
ố	-9993
‍	-9994
∞	-9995
😂	-9996
