[UNK]	0
[CLS]	1
[SEP]	2
[PAD]	3
[MASK]	4
!	5
"	6
#	7
$	8
%	9
&	10
'	11
(	12
)	13
*	14
+	15
,	16
-	17
.	18
/	19
0	20
1	21
2	22
3	23
4	24
5	25
6	26
7	27
8	28
9	29
:	30
;	31
<	32
=	33
>	34
?	35
@	36
[	37
\	38
]	39
_	40
`	41
a	42
b	43
c	44
d	45
e	46
f	47
g	48
h	49
i	50
j	51
k	52
l	53
m	54
n	55
o	56
p	57
q	58
r	59
s	60
t	61
u	62
v	63
w	64
x	65
y	66
z	67
~	68
	69
	70
	71
¡	72
¤	73
§	74
©	75
­	76
®	77
°	78
±	79
¶	80
·	81
×	82
ß	83
à	84
á	85
â	86
ã	87
ä	88
å	89
æ	90
ç	91
è	92
é	93
ê	94
ë	95
ì	96
í	97
î	98
ï	99
ð	100
ñ	101
ò	102
ó	103
ô	104
õ	105
ö	106
ø	107
ú	108
û	109
ü	110
ý	111
þ	112
ÿ	113
ā	114
ă	115
ą	116
ć	117
č	118
đ	119
ē	120
ė	121
ę	122
ě	123
ğ	124
ģ	125
ī	126
ı	127
ķ	128
ľ	129
ł	130
ń	131
ņ	132
ň	133
ō	134
ŏ	135
œ	136
ř	137
ś	138
ş	139
š	140
ū	141
ů	142
ų	143
ź	144
ż	145
ž	146
ǎ	147
ș	148
ț	149
ə	150
˗	151
̇	152
̈	153
α	154
μ	155
а	156
б	157
в	158
г	159
д	160
е	161
ж	162
з	163
и	164
й	165
к	166
л	167
м	168
н	169
о	170
п	171
р	172
с	173
т	174
у	175
ф	176
х	177
ц	178
ч	179
ш	180
щ	181
ы	182
ь	183
э	184
ю	185
я	186
ỏ	187
ố	188
‍	189
‐	190
‒	191
•	192
‰	193
′	194
⁄	195
⁣	196
€	197
−	198
∞	199
■	200
●	201
★	202
⭐	203
😂	204
🤌	205
##e	206
##r	207
##n	208
##a	209
##j	210
##l	211
##t	212
##i	213
##k	214
##s	215
##ä	216
##o	217
##d	218
##u	219
##f	220
##m	221
##y	222
##h	223
##v	224
##ö	225
##b	226
##p	227
##0	228
##1	229
##w	230
##5	231
##c	232
##z	233
##g	234
##é	235
##í	236
##6	237
##3	238
##2	239
##å	240
##x	241
##9	242
##ə	243
##4	244
###	245
##ó	246
##š	247
##ü	248
##ú	249
##в	250
##л	251
##я	252
##е	253
##т	254
##с	255
##"	256
##q	257
##á	258
##ñ	259
##è	260
##8	261
##ë	262
##ž	263
##ø	264
##7	265
##о	266
##р	267
##у	268
##ж	269
##н	270
##и	271
##й	272
##ń	273
##ã	274
##ă	275
##­	276
##č	277
##ð	278
##-	279
##ğ	280
##з	281
##а	282
##ы	283
##к	284
##г	285
##ю	286
##ч	287
##ь	288
##ý	289
##æ	290
##м	291
##д	292
##)	293
##п	294
##õ	295
##х	296
##ć	297
##,	298
##ł	299
##ě	300
##ų	301
##ц	302
##*	303
##ç	304
##б	305
##:	306
##ß	307
##_	308
##щ	309
##ż	310
##★	311
##ô	312
##‰	313
##±	314
##à	315
##ř	316
##ê	317
##ō	318
##@	319
##ā	320
##.	321
##ı	322
##â	323
##ï	324
##ą	325
##œ	326
##ň	327
##ț	328
##ò	329
##ŏ	330
##ľ	331
##ģ	332
##′	333
##ш	334
##!	335
##ē	336
##/	337
##<	338
##̇	339
##ỏ	340
##ū	341
##ş	342
##+	343
##]	344
##ố	345
##~	346
##ś	347
##\	348
##ė	349
##ę	350
##ņ	351
##⭐	352
##ů	353
##?	354
##ī	355
##ÿ	356
##∞	357
##î	358
##ì	359
##>	360
##ǎ	361
##đ	362
##;	363
##û	364
##[	365
##⁣	366
##en	367
##in	368
##ta	369
##is	370
##an	371
##ll	372
##tt	373
##sa	374
##si	375
##ka	376
##it	377
##es	378
##än	379
##ut	380
##uo	381
##el	382
##er	383
##aa	384
##us	385
##un	386
##ik	387
ja	388
##as	389
##on	390
##ti	391
on	392
##al	393
##at	394
##oi	395
##li	396
##tä	397
##ar	398
##et	399
##lla	400
##een	401
##ää	402
##uk	403
##os	404
##il	405
##ttä	406
ko	407
##ja	408
##uu	409
##ist	410
jo	411
##ki	412
ta	413
##ma	414
##le	415
##sä	416
##ko	417
##den	418
##lle	419
vi	420
ka	421
##mm	422
##te	423
##tti	424
##ista	425
##ur	426
##va	427
##isi	428
##inen	429
##llä	430
##yö	431
##ul	432
##to	433
##ri	434
mu	435
##vat	436
se	437
##ksi	438
si	439
##ys	440
##vä	441
va	442
##yt	443
##ks	444
##ke	445
##hd	446
##taa	447
että	448
##mi	449
##ei	450
ei	451
en	452
hän	453
la	454
##vi	455
tä	456
vuo	457
ku	458
##kaan	459
to	460
##pa	461
sa	462
##la	463
po	464
oli	465
##utta	466
##mp	467
ki	468
##uks	469
##ku	470
suo	471
##isen	472
##issa	473
##ään	474
##assa	475
ma	476
te	477
is	478
ker	479
##essa	480
##kin	481
##ie	482
kä	483
al	484
jä	485
##itä	486
##ra	487
##oit	488
##äh	489
##ina	490
##taan	491
##yy	492
ra	493
##uh	494
pa	495
##tu	496
##de	497
##im	498
pää	499
kan	500
##op	501
##ne	502
myö	503
##kä	504
##se	505
##ty	506
kun	507
val	508
##ih	509
##esta	510
ole	511
##ttu	512
##usta	513
##man	514
an	515
##mä	516
kes	517
il	518
nä	519
li	520
mukaan	521
##ttel	522
##jä	523
san	524
tu	525
##istä	526
##asta	527
ha	528
mi	529
##na	530
suom	531
##jan	532
##ot	533
##van	534
per	535
myös	536
voi	537
##jo	538
##maan	539
ol	540
pal	541
ni	542
##re	543
##ia	544
##pp	545
in	546
##ossa	547
saa	548
##oin	549
##äi	550
toi	551
pel	552
##ee	553
##ika	554
20	555
maa	556
##llis	557
##unn	558
##vät	559
##yn	560
##esti	561
hy	562
##uol	563
##or	564
##ussa	565
yh	566
##ala	567
mutta	568
vä	569
##ten	570
##rj	571
tar	572
par	573
var	574
läh	575
##sia	576
ovat	577
##ro	578
##mis	579
##ike	580
##llut	581
ti	582
##essä	583
tuo	584
##ssa	585
ke	586
##uksen	587
##oo	588
##tto	589
ar	590
##sin	591
esi	592
##jen	593
he	594
##ui	595
##min	596
as	597
ih	598
kau	599
##lä	600
##tel	601
na	602
##oa	603
pi	604
##he	605
##ikka	606
##eri	607
##ssä	608
##lo	609
##estä	610
so	611
##ttiin	612
##kka	613
sen	614
##ön	615
##ana	616
##taja	617
le	618
##issä	619
##nut	620
##tty	621
##ua	622
##ime	623
til	624
kerto	625
##tta	626
##toi	627
##stä	628
pit	629
##iten	630
työ	631
##sta	632
puol	633
##hti	634
##ha	635
su	636
kuu	637
##ise	638
vas	639
##me	640
tai	641
##enä	642
##men	643
##vin	644
tapa	645
##rin	646
##ken	647
##iko	648
##osta	649
tie	650
##keen	651
ne	652
##ve	653
osa	654
##tö	655
ollut	656
##ran	657
##ud	658
##etta	659
jäl	660
##isä	661
kaik	662
viime	663
##rit	664
##iden	665
##asti	666
##maa	667
joka	668
##ksen	669
kuin	670
##vo	671
##ir	672
##iksi	673
##ky	674
men	675
kertoo	676
käy	677
päi	678
##ttää	679
eur	680
##vaa	681
##erk	682
vaa	683
##teen	684
poli	685
min	686
##da	687
##kon	688
kor	689
venä	690
##kö	691
##inn	692
ed	693
puh	694
ky	695
hel	696
huo	697
##mmä	698
niin	699
har	700
##val	701
##isten	702
##män	703
asi	704
##mmin	705
yhd	706
##rä	707
##hdo	708
re	709
##tin	710
kul	711
##mat	712
##isia	713
mar	714
##ita	715
##uus	716
tur	717
jälkeen	718
##mme	719
##vän	720
seur	721
kat	722
nyt	723
sel	724
##ien	725
ensi	726
lop	727
kanssa	728
##eet	729
##kaa	730
suomen	731
kys	732
jos	733
luo	734
kol	735
lu	736
##unut	737
##isesti	738
kos	739
##minen	740
##isto	741
##di	742
##nna	743
aut	744
yli	745
vuonna	746
##ho	747
##elä	748
##mista	749
##isin	750
202	751
##pä	752
##lleen	753
tule	754
hall	755
it	756
##kan	757
suu	758
##eli	759
##iset	760
hal	761
lii	762
##hin	763
hen	764
##00	765
me	766
##mmen	767
##hta	768
sy	769
kil	770
yksi	771
sta	772
hänen	773
van	774
uu	775
oh	776
olisi	777
jul	778
##ton	779
##jän	780
kin	781
##ikä	782
oike	783
##tään	784
tun	785
##jat	786
aika	787
##sen	788
jat	789
enn	790
lo	791
kesk	792
##ellä	793
##mään	794
sanoo	795
tied	796
ilta	797
##jon	798
koko	799
no	800
##anta	801
##ukku	802
lle	803
##ella	804
mon	805
##kk	806
##pu	807
kuiten	808
os	809
olla	810
lä	811
##unta	812
tul	813
ri	814
aik	815
tapah	816
##yh	817
##nyt	818
##tte	819
muu	820
tut	821
yhte	822
##voi	823
teh	824
##mpi	825
tilan	826
##eita	827
mat	828
##itse	829
##elle	830
haa	831
tal	832
##kko	833
##massa	834
##ru	835
##lin	836
sai	837
ver	838
##kra	839
##ila	840
##io	841
##mo	842
sekä	843
syy	844
ruo	845
alu	846
vielä	847
lisä	848
miel	849
ro	850
ve	851
##oitta	852
er	853
us	854
vuoden	855
ul	856
##ikko	857
##isti	858
##ni	859
##oita	860
elä	861
##una	862
##tus	863
##lan	864
vain	865
järj	866
kaikki	867
perus	868
kuo	869
tiet	870
kertoi	871
maan	872
##kil	873
##vel	874
näy	875
##siden	876
mie	877
##han	878
##tää	879
##residen	880
kuva	881
kar	882
##kki	883
lap	884
kaup	885
##aan	886
liik	887
##osen	888
##uksia	889
siitä	890
kis	891
kas	892
##llo	893
ottel	894
hä	895
##so	896
##ilu	897
presiden	898
pr	899
##itta	900
##merk	901
##iste	902
##illa	903
väh	904
hyvin	905
ukra	906
##ttö	907
##pi	908
sitä	909
lö	910
##tiin	911
suomala	912
##inä	913
vasta	914
jon	915
ensimmä	916
sal	917
##emm	918
##tten	919
mahdo	920
ter	921
tämä	922
ohj	923
##gin	924
##uud	925
kirj	926
##kas	927
##uttaa	928
##isiin	929
ty	930
hi	931
esimerk	932
kuitenkin	933
##änyt	934
##no	935
##ttei	936
##lli	937
mää	938
hyvä	939
sar	940
kon	941
##est	942
itse	943
##tio	944
##ite	945
aina	946
keski	947
mies	948
##ihe	949
koh	950
##ille	951
##po	952
vuoti	953
ho	954
las	955
##isteri	956
kaksi	957
sitten	958
##kään	959
##lta	960
poliisi	961
poh	962
joh	963
noin	964
vir	965
vaik	966
yle	967
##yks	968
ennen	969
ään	970
19	971
##nä	972
esimerkiksi	973
##vää	974
epä	975
##isu	976
##malla	977
##della	978
jossa	979
aikana	980
jää	981
ai	982
sanoi	983
pe	984
pelaa	985
kir	986
tapahtu	987
##tuu	988
##mu	989
##yty	990
##koi	991
väli	992
##istu	993
##itus	994
##llinen	995
toimi	996
nuo	997
eri	998
kilpa	999
paika	1000
ilm	1001
paljon	1002
op	1003
luk	1004
henkil	1005
##tan	1006
euro	1007
##dän	1008
##hi	1009
mil	1010
sillä	1011
toimin	1012
##misen	1013
##lloin	1014
uut	1015
kann	1016
yhdys	1017
han	1018
eivät	1019
##iv	1020
muut	1021
venäjän	1022
maail	1023
##kuu	1024
sano	1025
ur	1026
kaa	1027
hei	1028
##eiden	1029
joukku	1030
##jaa	1031
ssa	1032
lisäksi	1033
##ystä	1034
##sti	1035
muun	1036
pys	1037
hyö	1038
sil	1039
lla	1040
##pan	1041
vaikka	1042
##utu	1043
tuli	1044
asia	1045
##vu	1046
mitä	1047
##tun	1048
##ito	1049
##joi	1050
aie	1051
ulko	1052
henkilö	1053
toim	1054
##iseen	1055
kuul	1056
##hde	1057
##ttia	1058
201	1059
lau	1060
ran	1061
lin	1062
##neet	1063
teke	1064
##ula	1065
sop	1066
##uden	1067
##up	1068
##dä	1069
met	1070
##mer	1071
kansa	1072
##ihin	1073
ede	1074
##mia	1075
##rke	1076
##din	1077
tunn	1078
nel	1079
##hden	1080
tö	1081
tuk	1082
mä	1083
eli	1084
helsin	1085
auto	1086
ettei	1087
##aal	1088
ukrain	1089
koul	1090
ny	1091
tämän	1092
vastaan	1093
##ili	1094
het	1095
##oittaa	1096
muassa	1097
##ministeri	1098
##do	1099
##lais	1100
mo	1101
##uksessa	1102
tru	1103
##llista	1104
##ga	1105
tutki	1106
laa	1107
##mma	1108
lis	1109
kommen	1110
prosen	1111
len	1112
##päi	1113
keskus	1114
kaupun	1115
##alta	1116
##via	1117
väl	1118
ajan	1119
raken	1120
##ttävä	1121
pitää	1122
puo	1123
mer	1124
pien	1125
##uuden	1126
jot	1127
tulee	1128
##kunn	1129
tote	1130
sisä	1131
##kea	1132
kut	1133
julka	1134
arvi	1135
järjes	1136
ihm	1137
juh	1138
##ssi	1139
##uksi	1140
##oitti	1141
nor	1142
##nan	1143
##paa	1144
##ven	1145
sija	1146
##uun	1147
##kkä	1148
trump	1149
##kuussa	1150
tän	1151
000	1152
##joh	1153
turva	1154
##isiä	1155
tehd	1156
##tteli	1157
##tain	1158
ruot	1159
py	1160
##ikon	1161
vier	1162
talo	1163
##llisen	1164
##vasti	1165
olen	1166
yl	1167
##erä	1168
seuraa	1169
##ksa	1170
olivat	1171
mei	1172
kyse	1173
##ino	1174
käsi	1175
uh	1176
vah	1177
##johtaja	1178
##istö	1179
vuosi	1180
##tui	1181
vuotta	1182
yrit	1183
tällä	1184
euroa	1185
mieh	1186
##mien	1187
##om	1188
##san	1189
##aali	1190
##var	1191
##pe	1192
ase	1193
koti	1194
juo	1195
päätö	1196
kiinn	1197
##llisesti	1198
suunn	1199
##elta	1200
kesä	1201
##emmän	1202
ista	1203
jotka	1204
yllä	1205
eikä	1206
suomessa	1207
ksi	1208
##son	1209
es	1210
##iti	1211
use	1212
aihe	1213
##ope	1214
et	1215
##llan	1216
vo	1217
##tyi	1218
sä	1219
##der	1220
##ch	1221
##ukset	1222
vaih	1223
##ikan	1224
presidentti	1225
elo	1226
##je	1227
##inta	1228
##gi	1229
##yyn	1230
koska	1231
##kun	1232
##eseen	1233
##ojen	1234
tor	1235
pol	1236
##eksi	1237
##yksen	1238
##kia	1239
##otta	1240
saan	1241
##oja	1242
jonka	1243
##istel	1244
##dan	1245
teki	1246
##ren	1247
mit	1248
aiemmin	1249
pu	1250
päivä	1251
##kona	1252
siir	1253
##antaina	1254
venäjä	1255
##kel	1256
##itt	1257
määrä	1258
##uuri	1259
lisää	1260
stu	1261
miten	1262
##von	1263
##joit	1264
##ver	1265
##ttaa	1266
##jien	1267
##ihen	1268
palvel	1269
put	1270
##ari	1271
yhdysval	1272
ken	1273
näin	1274
maailman	1275
kysy	1276
ohjel	1277
syn	1278
mikä	1279
##uri	1280
de	1281
sin	1282
pan	1283
siihen	1284
##bb	1285
halu	1286
##mpia	1287
##llaan	1288
##joon	1289
käyt	1290
rat	1291
seura	1292
kär	1293
##viä	1294
".	1295
kier	1296
##ttua	1297
##isessa	1298
sää	1299
vide	1300
##eltä	1301
pitä	1302
tas	1303
##matta	1304
##eh	1305
muuta	1306
pohjo	1307
olevan	1308
##uudessa	1309
tava	1310
rii	1311
##gel	1312
miljoon	1313
nyky	1314
keh	1315
ent	1316
##eella	1317
säh	1318
oul	1319
mm	1320
##ustus	1321
##ukseen	1322
taka	1323
tarko	1324
ille	1325
suosi	1326
##ras	1327
##kunta	1328
julk	1329
##hl	1330
##ynyt	1331
##ber	1332
##ine	1333
ll	1334
##ukka	1335
##oiden	1336
haasta	1337
työn	1338
aa	1339
katso	1340
uusi	1341
syö	1342
##iseksi	1343
ryh	1344
tilante	1345
##tia	1346
el	1347
##ulla	1348
taa	1349
ihan	1350
tässä	1351
aja	1352
terve	1353
##iin	1354
kannat	1355
enemmän	1356
kolme	1357
puheen	1358
euroop	1359
##ppu	1360
jen	1361
mur	1362
täy	1363
##ikki	1364
##kseen	1365
näh	1366
##oike	1367
illa	1368
##st	1369
muo	1370
nous	1371
##kuun	1372
##uksesta	1373
voit	1374
suh	1375
##olla	1376
oly	1377
##neen	1378
mme	1379
ssä	1380
##oihin	1381
stubb	1382
##llisuus	1383
sair	1384
##tion	1385
tan	1386
##vassa	1387
hallit	1388
tiedo	1389
##ttom	1390
asian	1391
ava	1392
perjan	1393
##kke	1394
##ttele	1395
vaan	1396
hui	1397
##mus	1398
##ing	1399
lei	1400
##mää	1401
vastaa	1402
sella	1403
erit	1404
joul	1405
ehdo	1406
tärke	1407
##onen	1408
jouk	1409
kohd	1410
##mpä	1411
##oilla	1412
##utui	1413
##ltä	1414
##mman	1415
viikon	1416
suomi	1417
lää	1418
oma	1419
ju	1420
yri	1421
koke	1422
##ittaa	1423
##osti	1424
##ker	1425
10	1426
mitään	1427
ala	1428
pari	1429
##ele	1430
erity	1431
siinä	1432
##hän	1433
yleis	1434
un	1435
neu	1436
fin	1437
##vit	1438
or	1439
maali	1440
kal	1441
vaike	1442
##vien	1443
kertaa	1444
usko	1445
issa	1446
vuotias	1447
##ttänyt	1448
isra	1449
##uteen	1450
15	1451
ihmis	1452
jal	1453
sähkö	1454
kunn	1455
lähe	1456
##oma	1457
##ol	1458
jopa	1459
ympä	1460
##vos	1461
##ukana	1462
nope	1463
##elin	1464
päivän	1465
puolu	1466
##llään	1467
edus	1468
liiken	1469
alku	1470
##gan	1471
uud	1472
peli	1473
##til	1474
kymmen	1475
keskustel	1476
##raa	1477
onne	1478
##masta	1479
##kellä	1480
##isesta	1481
esiin	1482
##kunnan	1483
hu	1484
##ter	1485
##tik	1486
pala	1487
suuri	1488
ukrainan	1489
tehtä	1490
##nö	1491
rah	1492
##tunut	1493
uuden	1494
##ju	1495
##yys	1496
osall	1497
##nin	1498
kuuka	1499
kommentoi	1500
##sina	1501
tila	1502
##utus	1503
##mmat	1504
##daan	1505
eh	1506
sunn	1507
##ea	1508
puoli	1509
pä	1510
kerro	1511
##asto	1512
##tys	1513
vaati	1514
suur	1515
##mio	1516
##itsi	1517
sunnunta	1518
##ilta	1519
##su	1520
ongel	1521
##ile	1522
lähes	1523
##ksu	1524
kyllä	1525
perjanta	1526
##tynyt	1527
prosenttia	1528
kello	1529
##per	1530
vat	1531
enää	1532
##ustaja	1533
yhteis	1534
urhe	1535
sopim	1536
vara	1537
liitty	1538
##voin	1539
pur	1540
kään	1541
luon	1542
12	1543
##ppi	1544
pohjois	1545
pitkä	1546
helsingin	1547
toinen	1548
tehdä	1549
##usi	1550
valta	1551
valmen	1552
mukana	1553
ratka	1554
##pal	1555
johta	1556
##ksan	1557
iltale	1558
##yr	1559
##ttelu	1560
loppu	1561
##ce	1562
lähte	1563
alle	1564
huol	1565
iso	1566
nat	1567
nim	1568
mark	1569
##istaa	1570
tilanne	1571
aikaa	1572
vie	1573
200	1574
tiista	1575
##into	1576
nuor	1577
##misesta	1578
tuh	1579
kauden	1580
hyökkä	1581
##uko	1582
##tettiin	1583
rik	1584
##don	1585
##ksiä	1586
##lainen	1587
rauh	1588
otta	1589
por	1590
etel	1591
##vuo	1592
pro	1593
torsta	1594
sosi	1595
todella	1596
matka	1597
##miseen	1598
juuri	1599
itä	1600
ale	1601
##ust	1602
##inte	1603
##lleet	1604
##alais	1605
kuten	1606
riko	1607
pois	1608
30	1609
käyttö	1610
##kuuta	1611
##ttämä	1612
ilma	1613
##eili	1614
##iton	1615
vähän	1616
epäil	1617
##itel	1618
keskivi	1619
##ytyy	1620
##alla	1621
##gen	1622
##dia	1623
arvioi	1624
isi	1625
än	1626
##ottaa	1627
##utti	1628
tarv	1629
joukkue	1630
##mas	1631
täys	1632
##llin	1633
neljä	1634
od	1635
##tteen	1636
kur	1637
löy	1638
##ttäjä	1639
kautta	1640
harr	1641
kulj	1642
saanut	1643
##lu	1644
##ettu	1645
hallitus	1646
##llen	1647
mesta	1648
##uussa	1649
##mon	1650
sat	1651
lain	1652
jäsen	1653
aikaan	1654
koi	1655
tyy	1656
asu	1657
etelä	1658
hie	1659
onn	1660
##ini	1661
##estaan	1662
vai	1663
eu	1664
tasa	1665
puu	1666
##ulta	1667
##eensä	1668
tarjo	1669
ero	1670
jäi	1671
voitto	1672
her	1673
pääs	1674
vuoksi	1675
huu	1676
piste	1677
##otus	1678
tulo	1679
##ksy	1680
yhtey	1681
ajat	1682
##tyy	1683
##ck	1684
ikä	1685
puolustus	1686
tuu	1687
##jia	1688
kansan	1689
##ttäin	1690
peruste	1691
##nus	1692
jär	1693
##mpaa	1694
man	1695
ras	1696
##isa	1697
##mar	1698
##kti	1699
##gra	1700
##oissa	1701
arvo	1702
##uta	1703
do	1704
##ura	1705
yhti	1706
da	1707
miehen	1708
voisi	1709
##väl	1710
halua	1711
medi	1712
ilman	1713
län	1714
merk	1715
lento	1716
kiinni	1717
eloku	1718
ch	1719
putin	1720
pyö	1721
yhteen	1722
##ilun	1723
uks	1724
vaali	1725
run	1726
paikka	1727
##mässä	1728
##jana	1729
selvi	1730
18	1731
stä	1732
##ff	1733
toisen	1734
tälla	1735
11	1736
lta	1737
vih	1738
pain	1739
joten	1740
uutis	1741
poik	1742
##isella	1743
##dy	1744
perä	1745
ainakin	1746
##dessä	1747
##ed	1748
##miin	1749
hetkellä	1750
vii	1751
vuod	1752
##ria	1753
ia	1754
##jassa	1755
viera	1756
kyl	1757
tullut	1758
silloin	1759
alkoi	1760
##tteessa	1761
##lii	1762
kai	1763
opp	1764
ga	1765
tapp	1766
##iä	1767
pah	1768
##missa	1769
##mala	1770
vahv	1771
##ily	1772
asti	1773
pela	1774
rä	1775
ystä	1776
##istui	1777
2022	1778
##oittanut	1779
eten	1780
hallituksen	1781
mahdollis	1782
valm	1783
toden	1784
amp	1785
ten	1786
vil	1787
2023	1788
di	1789
##riä	1790
##mmär	1791
perjantaina	1792
perhe	1793
##tetty	1794
##por	1795
lähti	1796
kysym	1797
siellä	1798
##ksin	1799
##ikolla	1800
asiasta	1801
lämp	1802
##kus	1803
##pää	1804
myy	1805
##lia	1806
kaudella	1807
myöhe	1808
kats	1809
edelleen	1810
alueella	1811
tänä	1812
parha	1813
taas	1814
mene	1815
##iselle	1816
käyn	1817
##tila	1818
kaupungin	1819
pitäisi	1820
bri	1821
##mistä	1822
pö	1823
##puol	1824
##kkaa	1825
presidentin	1826
ensimmäisen	1827
##eto	1828
##lella	1829
##ona	1830
kamp	1831
pare	1832
saada	1833
lauantaina	1834
venälä	1835
poliisin	1836
viran	1837
##ostaa	1838
vel	1839
##toa	1840
suk	1841
tode	1842
palj	1843
##oista	1844
saman	1845
##ska	1846
takia	1847
##iston	1848
kuitenkaan	1849
hava	1850
##oitus	1851
järjestel	1852
heidän	1853
merki	1854
samalla	1855
kirja	1856
##sson	1857
tavoi	1858
myöhemmin	1859
niitä	1860
yhdessä	1861
ymmär	1862
ukraina	1863
##ttelee	1864
perh	1865
##jö	1866
viesti	1867
##teki	1868
##lly	1869
##seen	1870
17	1871
yhden	1872
mielen	1873
##onsa	1874
st	1875
vaka	1876
##kkö	1877
epäi	1878
##tettu	1879
suomalais	1880
##llon	1881
##näkö	1882
##joukku	1883
keskiviik	1884
tätä	1885
eriko	1886
roo	1887
16	1888
##omet	1889
##ustan	1890
myön	1891
urheilu	1892
13	1893
##tunti	1894
lai	1895
toista	1896
tee	1897
ajo	1898
kahden	1899
##kee	1900
hänet	1901
trumpin	1902
missä	1903
viranoma	1904
näky	1905
poi	1906
##puo	1907
olympia	1908
jota	1909
häntä	1910
mel	1911
##nen	1912
##isille	1913
##non	1914
ir	1915
##tar	1916
nsa	1917
##ani	1918
tieto	1919
kuinka	1920
välillä	1921
ottelun	1922
##änä	1923
kana	1924
voitti	1925
pide	1926
yhdysvaltain	1927
kr	1928
muka	1929
##erin	1930
##kset	1931
moni	1932
histo	1933
väi	1934
muist	1935
heti	1936
ehkä	1937
omista	1938
sur	1939
yhtä	1940
olleet	1941
kansain	1942
biden	1943
nainen	1944
kansainväl	1945
tien	1946
verk	1947
hoi	1948
##kkää	1949
sul	1950
hieman	1951
pyy	1952
anta	1953
##tetään	1954
alue	1955
puheenjohtaja	1956
sijaitse	1957
##sky	1958
tunne	1959
edusta	1960
siis	1961
kii	1962
erila	1963
##vansa	1964
kuulu	1965
jalka	1966
tiedotteessa	1967
kie	1968
auton	1969
ru	1970
kilomet	1971
14	1972
ain	1973
##eensa	1974
tavalla	1975
##tteri	1976
##tetaan	1977
##itys	1978
##visi	1979
##ppa	1980
torstaina	1981
tta	1982
tiistaina	1983
aivan	1984
##ly	1985
oikeus	1986
todennäkö	1987
sunnuntaina	1988
##ksia	1989
kärä	1990
ap	1991
amma	1992
suunnitel	1993
nhl	1994
##ry	1995
##tua	1996
päästä	1997
kohta	1998
##isessä	1999
kuole	2000
##ela	2001
oman	2002
täysin	2003
##utunut	2004
25	2005
minu	2006
työnteki	2007
väki	2008
rikos	2009
joita	2010
pelas	2011
tutkin	2012
hiih	2013
##etaan	2014
insta	2015
viikolla	2016
maanantaina	2017
alka	2018
##uma	2019
asiantunti	2020
aiko	2021
##laa	2022
##vun	2023
##keä	2024
##imo	2025
2024	2026
keskiviikkona	2027
tunte	2028
euroopan	2029
oulun	2030
kerran	2031
tuomi	2032
kirjoittaa	2033
käytö	2034
##heili	2035
##ba	2036
leh	2037
##tyä	2038
lopulta	2039
pen	2040
edes	2041
lue	2042
meillä	2043
instagra	2044
jatku	2045
co	2046
##ge	2047
miljoonaa	2048
käyttä	2049
usein	2050
tää	2051
##annut	2052
raja	2053
##ttui	2054
tähän	2055
häi	2056
sosiaal	2057
vapaa	2058
##kul	2059
##kku	2060
##uto	2061
poliitt	2062
kilpailu	2063
ravin	2064
käräjä	2065
##itos	2066
##kasta	2067
##toon	2068
maksa	2069
kävi	2070
alkaa	2071
##ussi	2072
ura	2073
leikka	2074
##ilee	2075
tästä	2076
pääsi	2077
hil	2078
ruotsin	2079
ensimmäinen	2080
aamu	2081
##her	2082
##suo	2083
voin	2084
##lop	2085
##ettiin	2086
meni	2087
tv	2088
useita	2089
onko	2090
tuleva	2091
tänään	2092
ris	2093
piti	2094
viikko	2095
hoit	2096
##kän	2097
lopp	2098
harjoit	2099
vanhe	2100
new	2101
ää	2102
ihin	2103
##isestä	2104
olemme	2105
##osi	2106
mielestä	2107
vaikutta	2108
politi	2109
##uksista	2110
tek	2111
tehnyt	2112
##sy	2113
varm	2114
jaks	2115
##isty	2116
nimi	2117
näyttää	2118
##nes	2119
puhu	2120
##ttelussa	2121
meidän	2122
nähd	2123
yksity	2124
käräjäoike	2125
##eille	2126
tähti	2127
mole	2128
mistä	2129
prin	2130
##kie	2131
liikenne	2132
ita	2133
##isuus	2134
jatkaa	2135
kokona	2136
paik	2137
vaihto	2138
##jaan	2139
##kohta	2140
urheili	2141
huh	2142
musi	2143
sotil	2144
herä	2145
ba	2146
em	2147
##utuu	2148
the	2149
hur	2150
50	2151
##valta	2152
joukko	2153
##isuudessa	2154
its	2155
otti	2156
vies	2157
valtio	2158
huoli	2159
##iken	2160
lapsi	2161
##eelle	2162
##ukkaan	2163
yö	2164
vaihe	2165
euron	2166
##tyksen	2167
maal	2168
työs	2169
neuvo	2170
##vy	2171
ruoka	2172
korke	2173
llä	2174
tamm	2175
tausta	2176
metsä	2177
alussa	2178
##uudesta	2179
##ytyi	2180
ravinto	2181
pääse	2182
mitta	2183
##ron	2184
##kes	2185
aiheutta	2186
isän	2187
##hdelle	2188
pysty	2189
kyseessä	2190
suomeen	2191
voivat	2192
ottaa	2193
koskaan	2194
video	2195
niiden	2196
kuoli	2197
sään	2198
suun	2199
ven	2200
lähet	2201
mahdollista	2202
##ettava	2203
##kanen	2204
enna	2205
voima	2206
##osa	2207
yhdysva	2208
##illä	2209
suorit	2210
nousi	2211
siv	2212
##eilla	2213
tuolloin	2214
##alu	2215
puolestaan	2216
main	2217
turvallisuus	2218
##ali	2219
saap	2220
syys	2221
lääkä	2222
keske	2223
kapp	2224
af	2225
vapa	2226
kierro	2227
salon	2228
hir	2229
##kana	2230
##ast	2231
kolman	2232
lasten	2233
pysä	2234
vää	2235
vesi	2236
sis	2237
##iska	2238
##llisia	2239
muita	2240
mik	2241
yhteist	2242
viikonlop	2243
yhä	2244
erityisesti	2245
##talo	2246
##tojen	2247
##ikin	2248
##tyks	2249
yliop	2250
perusteella	2251
##ttuna	2252
israelin	2253
poikke	2254
##ttyi	2255
neljän	2256
laus	2257
näytteli	2258
sanomat	2259
##oon	2260
jään	2261
uran	2262
##isaa	2263
##konen	2264
järjestä	2265
huoma	2266
johtaja	2267
mus	2268
##essaan	2269
miksi	2270
saksa	2271
erittäin	2272
toteaa	2273
##ny	2274
yhtiö	2275
raa	2276
##vänsä	2277
elämän	2278
ympäri	2279
työsken	2280
odo	2281
jotta	2282
uutta	2283
joissa	2284
palvelu	2285
teko	2286
hyvinvoin	2287
sarjan	2288
maahan	2289
kappal	2290
pud	2291
selvä	2292
rovan	2293
##valla	2294
##teli	2295
kansaned	2296
##vissa	2297
199	2298
seitse	2299
liitto	2300
##vulla	2301
suhte	2302
sairaa	2303
länsi	2304
##usa	2305
",	2306
pääministeri	2307
tele	2308
##jel	2309
naisten	2310
##erg	2311
ehd	2312
asun	2313
suurin	2314
##res	2315
valtion	2316
##tele	2317
##telu	2318
kuljet	2319
kehi	2320
##ttely	2321
##ilä	2322
##innan	2323
tutkim	2324
iin	2325
vuosina	2326
##ehto	2327
##ttuu	2328
markkin	2329
##co	2330
ympär	2331
##kkaan	2332
toiv	2333
tarvitse	2334
tamp	2335
##uksissa	2336
##jät	2337
pelastus	2338
##haa	2339
hänellä	2340
tosi	2341
erä	2342
oikeuden	2343
lämpö	2344
lah	2345
##ttori	2346
yhteistyö	2347
laj	2348
valmista	2349
lapsen	2350
terveys	2351
joiden	2352
onnettom	2353
kisa	2354
josta	2355
myyn	2356
##sut	2357
##perä	2358
jolla	2359
kahde	2360
pysy	2361
ihmiset	2362
pidä	2363
sijaan	2364
saattaa	2365
##alainen	2366
varsin	2367
jälleen	2368
kolm	2369
##urin	2370
toiminta	2371
kri	2372
sota	2373
koulu	2374
##berg	2375
##kossa	2376
jotain	2377
##uuta	2378
mukaansa	2379
car	2380
##ttämään	2381
##voit	2382
uude	2383
fa	2384
sd	2385
##isellä	2386
teo	2387
päätös	2388
pitkään	2389
ihmistä	2390
läpi	2391
hänelle	2392
joukkueen	2393
21	2394
sm	2395
käynn	2396
viisi	2397
tehty	2398
don	2399
##reen	2400
##usti	2401
##oille	2402
miesten	2403
vaikuttaa	2404
##ttyy	2405
tulla	2406
käytän	2407
jatko	2408
kymmenen	2409
##udessa	2410
##stö	2411
##rik	2412
inen	2413
pelaaja	2414
tamper	2415
##mpa	2416
##era	2417
##liiton	2418
tapahtui	2419
##mmi	2420
takaisin	2421
##pallo	2422
22	2423
kohtaa	2424
vuotia	2425
##ander	2426
minen	2427
##uksiin	2428
kah	2429
kaan	2430
##llik	2431
##sivat	2432
huippu	2433
jan	2434
kei	2435
##raan	2436
##illaan	2437
luke	2438
##jää	2439
asiaa	2440
isä	2441
muuto	2442
pyr	2443
mita	2444
ry	2445
##tävä	2446
jouluk	2447
liian	2448
äänestä	2449
yhteensä	2450
##rän	2451
##usto	2452
osaa	2453
tekee	2454
##pon	2455
##inti	2456
pist	2457
##aika	2458
##ste	2459
lähi	2460
antaa	2461
pih	2462
##istus	2463
lähtö	2464
nämä	2465
##hing	2466
##joiden	2467
##uste	2468
loukkaan	2469
##las	2470
päivänä	2471
##kiä	2472
laps	2473
nu	2474
##rat	2475
ottelu	2476
##eraa	2477
lan	2478
##kaup	2479
##ytö	2480
##isena	2481
##tiiv	2482
demo	2483
##uutta	2484
##llia	2485
##ukse	2486
kaupunki	2487
nopeasti	2488
##ket	2489
ottelussa	2490
silti	2491
for	2492
bo	2493
##utun	2494
fi	2495
ex	2496
voidaan	2497
jääkie	2498
myötä	2499
kunin	2500
korva	2501
kons	2502
##päivä	2503
heinä	2504
puolue	2505
käyttää	2506
luku	2507
krit	2508
ranta	2509
##ttän	2510
alla	2511
pes	2512
puk	2513
##valmen	2514
olympi	2515
ihmisiä	2516
##ena	2517
vähen	2518
##mb	2519
kaiken	2520
yritys	2521
poika	2522
ilmoit	2523
kö	2524
##ald	2525
korkea	2526
sarja	2527
vaikut	2528
##llyt	2529
##ttävän	2530
kiel	2531
maks	2532
##jär	2533
huolimatta	2534
##vio	2535
tehtävä	2536
bar	2537
hien	2538
##ost	2539
40	2540
elin	2541
##istunut	2542
sodan	2543
touko	2544
kilpail	2545
kampan	2546
24	2547
ykkö	2548
##ttävät	2549
valko	2550
puolis	2551
haluaa	2552
##oni	2553
##yssä	2554
marras	2555
elämä	2556
eteen	2557
täällä	2558
nie	2559
##kää	2560
tarkas	2561
2021	2562
lyh	2563
##yyttä	2564
kahd	2565
##ulu	2566
##ase	2567
joutui	2568
##go	2569
##ensa	2570
##mik	2571
kesken	2572
##tteet	2573
paikalla	2574
##isista	2575
##ity	2576
##vasta	2577
näkö	2578
hake	2579
suunni	2580
histori	2581
löytyy	2582
##ude	2583
.)	2584
emme	2585
##yksessä	2586
##kraa	2587
vaikea	2588
##keli	2589
paljas	2590
23	2591
##kinen	2592
kiin	2593
##my	2594
##jar	2595
mieli	2596
##lliset	2597
ah	2598
##usten	2599
menn	2600
media	2601
kannattaa	2602
yhteydessä	2603
perheen	2604
verkko	2605
##miä	2606
koske	2607
rakenn	2608
ennä	2609
pako	2610
kump	2611
loka	2612
yksityis	2613
##issaan	2614
isku	2615
hinta	2616
##isissa	2617
näke	2618
pian	2619
osallistu	2620
vasemm	2621
##kut	2622
##päin	2623
vaiheessa	2624
liike	2625
paris	2626
kerrotaan	2627
##ppo	2628
vaale	2629
perinte	2630
lie	2631
jolloin	2632
tuotan	2633
entinen	2634
##itu	2635
kolmen	2636
##ttila	2637
varsina	2638
iltana	2639
kuuluu	2640
##jille	2641
vast	2642
##voima	2643
mikko	2644
##dio	2645
joku	2646
turna	2647
##vara	2648
ääri	2649
##rö	2650
jy	2651
##det	2652
normaa	2653
epäilty	2654
##kari	2655
hyväksy	2656
joista	2657
näk	2658
alex	2659
runsa	2660
##istää	2661
nime	2662
##tava	2663
##palvel	2664
sata	2665
siksi	2666
pekka	2667
maalis	2668
kohti	2669
yksin	2670
##ansa	2671
vaara	2672
iden	2673
kok	2674
julkais	2675
##kerta	2676
yleisö	2677
vali	2678
minkä	2679
huomio	2680
##viin	2681
teho	2682
ensin	2683
pai	2684
sopi	2685
naa	2686
##eu	2687
kerton	2688
helmik	2689
##ittaja	2690
##eeksi	2691
##uksena	2692
help	2693
talous	2694
##sto	2695
##esin	2696
israel	2697
maajoukku	2698
haastattelussa	2699
av	2700
tervey	2701
saar	2702
##udu	2703
asunn	2704
kuusi	2705
##ttyä	2706
kohte	2707
akti	2708
puna	2709
##netta	2710
##jasta	2711
##tit	2712
##ttunut	2713
kulu	2714
ulos	2715
##fi	2716
tulisi	2717
opis	2718
lat	2719
hyvinvointi	2720
meri	2721
taistel	2722
lind	2723
##kos	2724
päiv	2725
##logi	2726
tilanteessa	2727
tammik	2728
sala	2729
haav	2730
äiti	2731
##lamen	2732
my	2733
##ves	2734
##utua	2735
päävalmen	2736
##tänyt	2737
##kön	2738
kuvan	2739
viiden	2740
törke	2741
##ikku	2742
##mies	2743
##suomala	2744
##mesta	2745
##vaan	2746
ot	2747
kauppa	2748
varmasti	2749
##johta	2750
puhel	2751
##laisen	2752
lauanta	2753
##osin	2754
saira	2755
ilmi	2756
jun	2757
mal	2758
##ban	2759
##can	2760
##ikkaa	2761
kirjoitti	2762
toimitus	2763
amer	2764
##itoksen	2765
antti	2766
vien	2767
muiden	2768
toki	2769
olin	2770
##bi	2771
##koho	2772
seitsemän	2773
synty	2774
viestin	2775
jätti	2776
päälle	2777
ilmoitti	2778
tuki	2779
##vallan	2780
##ryh	2781
naisen	2782
asioita	2783
juttu	2784
pat	2785
puhe	2786
##und	2787
tuom	2788
ca	2789
alueen	2790
).	2791
suure	2792
##iri	2793
luki	2794
turvallis	2795
avaus	2796
takana	2797
ryhmä	2798
##rmä	2799
##tän	2800
ylen	2801
##ksella	2802
mö	2803
##tteita	2804
julkaisi	2805
kseen	2806
##hy	2807
##iltä	2808
muod	2809
mestar	2810
edessä	2811
mas	2812
##jista	2813
ympäristö	2814
vau	2815
toimitta	2816
totesi	2817
paikalle	2818
tuke	2819
100	2820
kel	2821
kanta	2822
##istun	2823
tod	2824
pohti	2825
ruu	2826
korja	2827
matk	2828
opet	2829
mediassa	2830
ren	2831
##vana	2832
tapahtuma	2833
hyökkäys	2834
lista	2835
kevä	2836
tili	2837
olleen	2838
lähde	2839
##astaan	2840
istä	2841
uutisoi	2842
wi	2843
päivää	2844
minä	2845
oikein	2846
kärsi	2847
huono	2848
tietojen	2849
ali	2850
##isenä	2851
kausi	2852
perussuomala	2853
juon	2854
##pel	2855
eng	2856
etenkin	2857
rin	2858
##onin	2859
uhka	2860
tuore	2861
tapaa	2862
kuvaa	2863
espan	2864
misen	2865
##estö	2866
tietoa	2867
leijon	2868
##estys	2869
##ttävästi	2870
sairaala	2871
essa	2872
kaun	2873
vanke	2874
verran	2875
##ers	2876
palkin	2877
hin	2878
konser	2879
valio	2880
milla	2881
anne	2882
super	2883
ruotsa	2884
moo	2885
yön	2886
huhtik	2887
##nassa	2888
paran	2889
kap	2890
laske	2891
##ksesta	2892
alkoho	2893
##uhte	2894
##peli	2895
alusta	2896
valmi	2897
##tal	2898
tarp	2899
jän	2900
##ota	2901
rapor	2902
##tis	2903
##misestä	2904
lih	2905
##yhti	2906
##hu	2907
paras	2908
muistuttaa	2909
miseen	2910
##isuuden	2911
tap	2912
##oitu	2913
kova	2914
liikku	2915
etsi	2916
kahdeksan	2917
aiku	2918
vuosien	2919
##puolella	2920
minulla	2921
tarkoitus	2922
##liitto	2923
##rien	2924
lehti	2925
2020	2926
etu	2927
inf	2928
vät	2929
sp	2930
##oim	2931
paikan	2932
tiedä	2933
yrityks	2934
gaz	2935
laula	2936
sama	2937
##neksi	2938
maalin	2939
##onn	2940
laki	2941
),	2942
kustan	2943
kokoom	2944
eduskunta	2945
antoi	2946
##veri	2947
linja	2948
ydin	2949
##pit	2950
##vissä	2951
##istuu	2952
tuomio	2953
##hall	2954
##kkos	2955
vuotiaan	2956
englan	2957
##äni	2958
##nalla	2959
nuorten	2960
##ca	2961
seksu	2962
ge	2963
##ttuuri	2964
auk	2965
##gissä	2966
##laista	2967
usea	2968
##ksiin	2969
tyh	2970
kysel	2971
tim	2972
##kit	2973
tel	2974
##tee	2975
kulttuuri	2976
vasemmisto	2977
toivo	2978
ratkaisu	2979
ykkös	2980
tra	2981
tapahtun	2982
##llikkö	2983
muista	2984
voitta	2985
##tien	2986
ranska	2987
sdp	2988
nuori	2989
ylä	2990
seuran	2991
todennäköisesti	2992
donald	2993
27	2994
##liin	2995
##änen	2996
##tiet	2997
samaan	2998
mika	2999
uusia	3000
##hol	3001
liikke	3002
käyttöön	3003
##lit	3004
kerä	3005
rea	3006
yleensä	3007
kokem	3008
vet	3009
tulos	3010
finaali	3011
nato	3012
pakka	3013
##telee	3014
minuu	3015
##kir	3016
ihme	3017
käytännö	3018
kannatta	3019
nosta	3020
om	3021
##määrä	3022
##ps	3023
##miseksi	3024
johon	3025
##huo	3026
demokraa	3027
turun	3028
asiantuntija	3029
##arin	3030
suoraan	3031
##kat	3032
oy	3033
##kse	3034
tuttu	3035
valmentaja	3036
##destä	3037
##ister	3038
melko	3039
##tonen	3040
monet	3041
kaikkien	3042
##gh	3043
lähellä	3044
aset	3045
tyttö	3046
torj	3047
niistä	3048
hyökkää	3049
##mät	3050
sam	3051
päätti	3052
britan	3053
luu	3054
tuntuu	3055
miljar	3056
välttämä	3057
kuollut	3058
näyttelijä	3059
26	3060
ben	3061
##ros	3062
##kissa	3063
##isuutta	3064
pet	3065
sisäl	3066
kertonut	3067
mista	3068
##oili	3069
sarjassa	3070
198	3071
pelasi	3072
erikois	3073
##vista	3074
##uksella	3075
nimen	3076
alexander	3077
##bo	3078
täytyy	3079
kevää	3080
syytä	3081
raj	3082
kisoissa	3083
##aat	3084
##laisia	3085
iä	3086
##ulo	3087
toimii	3088
naton	3089
##wa	3090
vaku	3091
asiakka	3092
pelastusla	3093
##ysti	3094
##sessa	3095
virka	3096
tus	3097
vanh	3098
pieni	3099
toistaiseksi	3100
aino	3101
##mpää	3102
ensimmäistä	3103
rahaa	3104
pir	3105
huomi	3106
mennessä	3107
##hdon	3108
poikkeukse	3109
##dassa	3110
palo	3111
salo	3112
minulle	3113
myr	3114
##sissa	3115
##hä	3116
yhde	3117
kone	3118
kiinte	3119
esiinty	3120
pöy	3121
##intään	3122
##eena	3123
eniten	3124
joilla	3125
pikku	3126
##etin	3127
##istön	3128
kuk	3129
##uti	3130
kukaan	3131
päivi	3132
orpo	3133
kad	3134
iltalehdelle	3135
vuodesta	3136
voinut	3137
klo	3138
kore	3139
saav	3140
arvos	3141
kuukauden	3142
kunni	3143
##kymmen	3144
kuljetta	3145
kovin	3146
ville	3147
loh	3148
rakenta	3149
päätöksen	3150
instagram	3151
anna	3152
muuten	3153
parlamen	3154
suomalainen	3155
tärkeä	3156
ampu	3157
##ell	3158
sanoa	3159
##kansa	3160
rei	3161
60	3162
##ivi	3163
vastuu	3164
tutkimus	3165
35	3166
##iaa	3167
##ttynyt	3168
ulkoministeri	3169
keskustelu	3170
ander	3171
##tut	3172
ministeri	3173
vero	3174
iltalehden	3175
massa	3176
heik	3177
puolesta	3178
olevansa	3179
muutos	3180
tanssi	3181
rovanie	3182
mihin	3183
tei	3184
##luo	3185
ohjelman	3186
##eni	3187
lupa	3188
##tteiden	3189
puolella	3190
sijoit	3191
kumppan	3192
keskusta	3193
lapin	3194
tekemään	3195
vastusta	3196
##kenut	3197
tietää	3198
näkyy	3199
pyrki	3200
##elma	3201
##onta	3202
menee	3203
##isuuteen	3204
##ustaa	3205
uudelleen	3206
ikään	3207
pil	3208
##vina	3209
aloitti	3210
kilometrin	3211
##joita	3212
##kkin	3213
kotiin	3214
##mir	3215
joskus	3216
selvästi	3217
jonkin	3218
metrin	3219
aj	3220
##tissa	3221
miestä	3222
lehden	3223
liiga	3224
##htiin	3225
tapauksessa	3226
valmenta	3227
aal	3228
isen	3229
oleva	3230
hyvää	3231
##tteja	3232
kaupung	3233
##mpien	3234
ottelua	3235
##har	3236
##ttien	3237
löytyi	3238
pohjan	3239
seuraava	3240
osta	3241
##iki	3242
##lelle	3243
##uttanut	3244
pitkän	3245
osalta	3246
marin	3247
tehdään	3248
käytännössä	3249
oi	3250
vira	3251
fo	3252
##mal	3253
parin	3254
estä	3255
tilanteen	3256
##stään	3257
ohi	3258
##palvelu	3259
res	3260
aho	3261
omaa	3262
##pin	3263
vaatii	3264
itali	3265
##mäki	3266
tilannetta	3267
##yksiä	3268
asen	3269
mieltä	3270
kirjoit	3271
suhteen	3272
kiekko	3273
päävalmentaja	3274
pul	3275
istu	3276
##ville	3277
alan	3278
sellainen	3279
elle	3280
##kar	3281
rauha	3282
##ero	3283
valo	3284
##vaali	3285
##gas	3286
loppuun	3287
##puna	3288
selvit	3289
johto	3290
kuning	3291
pelin	3292
minun	3293
joulu	3294
kansanedustaja	3295
luotta	3296
##kiin	3297
perin	3298
kuts	3299
ab	3300
teks	3301
uskon	3302
##ner	3303
palaa	3304
toimittaja	3305
kesällä	3306
putinin	3307
##yhtiö	3308
ajon	3309
##net	3310
##upin	3311
yor	3312
##utin	3313
##met	3314
kannalta	3315
koulut	3316
##empi	3317
at	3318
##tetta	3319
##ppä	3320
pitänyt	3321
jatkossa	3322
tyyty	3323
hyvinvointialu	3324
##len	3325
##imen	3326
kuvailee	3327
ranga	3328
taso	3329
##ger	3330
##tilais	3331
päivit	3332
rakennus	3333
##ttiä	3334
olet	3335
##skan	3336
sivu	3337
ohjelmassa	3338
sau	3339
syksy	3340
ohjaa	3341
ratkais	3342
musta	3343
löyt	3344
petteri	3345
uni	3346
##ess	3347
järjestö	3348
tarkoit	3349
karsin	3350
bi	3351
##ksyn	3352
##järj	3353
star	3354
jatkuu	3355
hote	3356
ihmisten	3357
sairas	3358
##kesk	3359
tes	3360
##htaa	3361
##ttoa	3362
sosiaalisessa	3363
ket	3364
##pol	3365
2019	3366
äi	3367
liigan	3368
operaa	3369
lehd	3370
##aston	3371
tarkoittaa	3372
##össä	3373
vahing	3374
liig	3375
nähtiin	3376
##hka	3377
lähtien	3378
suuntaan	3379
28	3380
jut	3381
treen	3382
##ue	3383
##toja	3384
tiedot	3385
doll	3386
mis	3387
vuoro	3388
ammatti	3389
paa	3390
sor	3391
valmis	3392
aikoina	3393
##ästä	3394
järjest	3395
hovi	3396
tärkeää	3397
hiihto	3398
sve	3399
##tämään	3400
##kien	3401
neet	3402
char	3403
##llat	3404
huone	3405
ongelma	3406
fan	3407
iran	3408
töitä	3409
kutsu	3410
mc	3411
ps	3412
kantaa	3413
arm	3414
koton	3415
##mmo	3416
ollaan	3417
naap	3418
##uku	3419
##kaupun	3420
bu	3421
misesta	3422
##tv	3423
valit	3424
hyvän	3425
##log	3426
helsingissä	3427
29	3428
paremmin	3429
taustalla	3430
loi	3431
riippu	3432
kunta	3433
juhla	3434
keväällä	3435
##hto	3436
stt	3437
sijoi	3438
ilo	3439
kasv	3440
kasva	3441
##ttun	3442
ohja	3443
yhdysvallo	3444
posi	3445
päättyi	3446
varten	3447
ruotsi	3448
vaihtoehto	3449
suomea	3450
poliis	3451
hallinn	3452
kasvat	3453
##ett	3454
##kirj	3455
##del	3456
yhty	3457
reut	3458
pahoin	3459
##vet	3460
aikoo	3461
pistettä	3462
flo	3463
##kinä	3464
kesän	3465
##ttoman	3466
##riö	3467
mennä	3468
verta	3469
juhli	3470
kre	3471
rikko	3472
##kassa	3473
##yyden	3474
pos	3475
##nos	3476
##sar	3477
##mmista	3478
##deksi	3479
stubbin	3480
tuhan	3481
ainoa	3482
500	3483
nen	3484
voiton	3485
sotilas	3486
saapui	3487
jussi	3488
##syt	3489
yhdist	3490
itsen	3491
apua	3492
illan	3493
kyy	3494
kuvassa	3495
päässä	3496
ukrainassa	3497
##ara	3498
osu	3499
viikonloppuna	3500
vei	3501
yhtiön	3502
toimitusjohtaja	3503
tait	3504
tapahtunut	3505
kerr	3506
##delle	3507
##ikaa	3508
virhe	3509
##päivän	3510
puolueen	3511
uransa	3512
##väli	3513
yhdysvalta	3514
##kor	3515
päällä	3516
##voimien	3517
jääkiekko	3518
kauh	3519
lopussa	3520
toimintaa	3521
lauka	3522
iltalehti	3523
molemmat	3524
jar	3525
##kot	3526
vaim	3527
##nalle	3528
ros	3529
sille	3530
##uilla	3531
suoja	3532
kertovat	3533
jatkoi	3534
aiheuttaa	3535
avulla	3536
##bri	3537
hätä	3538
tilanteesta	3539
kunnossa	3540
##röm	3541
##isoi	3542
myöskään	3543
##ikkoja	3544
tukea	3545
mäki	3546
##tie	3547
##ttivät	3548
tea	3549
arv	3550
##län	3551
maassa	3552
voittanut	3553
##istoim	3554
kerta	3555
erityisen	3556
##ian	3557
##itin	3558
##isemmin	3559
ajoi	3560
avio	3561
ad	3562
##ss	3563
sie	3564
kohtaan	3565
##kal	3566
raha	3567
saatta	3568
varha	3569
nähdään	3570
käräjäoikeus	3571
kaikkea	3572
##voja	3573
taloude	3574
suhta	3575
jäänyt	3576
ele	3577
huomatta	3578
##itetty	3579
tasolla	3580
päin	3581
tavoitteen	3582
nis	3583
ste	3584
tarvi	3585
art	3586
nostaa	3587
##mille	3588
saata	3589
sinne	3590
epäillään	3591
bidenin	3592
tappio	3593
ui	3594
matkusta	3595
kokon	3596
alueelle	3597
suomalaiset	3598
##ykset	3599
lasta	3600
nur	3601
ton	3602
vin	3603
tavan	3604
asiat	3605
kärki	3606
matti	3607
ansi	3608
pääsee	3609
kus	3610
piir	3611
##itsee	3612
##ointi	3613
##jal	3614
merkit	3615
työntekijö	3616
rek	3617
##ykseen	3618
##osuhte	3619
##mansa	3620
ulkoma	3621
venäjällä	3622
lapset	3623
ella	3624
iksi	3625
ltä	3626
##dyn	3627
vuor	3628
##käyn	3629
valvon	3630
luvun	3631
haaste	3632
##istettu	3633
ennakko	3634
##hun	3635
##tenä	3636
ihmisen	3637
hallinto	3638
talon	3639
vähä	3640
kilpailun	3641
yhdysvaltojen	3642
kiire	3643
##iso	3644
##isteli	3645
odot	3646
hoito	3647
vähintään	3648
miljoonan	3649
työtä	3650
kolmas	3651
kokoon	3652
mikäli	3653
##ehdo	3654
saksan	3655
2018	3656
välttämättä	3657
##lassa	3658
##ard	3659
pod	3660
kilpaili	3661
nykyään	3662
kokonais	3663
säily	3664
nähdä	3665
lääkäri	3666
lyhy	3667
dia	3668
##tävät	3669
menes	3670
amm	3671
mos	3672
##ute	3673
##kanut	3674
nähty	3675
odotta	3676
asunto	3677
minuuttia	3678
##ksista	3679
tilasto	3680
##uksien	3681
vähemmän	3682
asiassa	3683
numer	3684
terveyden	3685
ilme	3686
saakka	3687
levi	3688
maajoukkue	3689
##meen	3690
kaver	3691
kaupp	3692
kisojen	3693
sisällä	3694
neuvos	3695
rauhan	3696
uus	3697
kunto	3698
and	3699
##kunnassa	3700
sopimus	3701
kysymys	3702
br	3703
rinta	3704
##desta	3705
uutistoim	3706
puheenjohta	3707
saivat	3708
eläin	3709
uskoo	3710
olympiala	3711
##utensa	3712
##ttävää	3713
huon	3714
verra	3715
pyörä	3716
aurin	3717
olo	3718
hoita	3719
##jalla	3720
##yteen	3721
kunnan	3722
lauta	3723
kentä	3724
nos	3725
##hen	3726
takaa	3727
maananta	3728
elokuva	3729
myynti	3730
yhdeks	3731
##bli	3732
##kauden	3733
venäläis	3734
tarin	3735
##ttain	3736
syksyn	3737
mielenos	3738
kuningas	3739
bud	3740
##lj	3741
iset	3742
johtaa	3743
yhdysvalloissa	3744
positiiv	3745
tuotta	3746
artik	3747
##kein	3748
kuun	3749
parhaa	3750
kulta	3751
norjan	3752
säästö	3753
prinssi	3754
##pen	3755
ansa	3756
avoi	3757
muutaman	3758
sopimuksen	3759
kuljettaja	3760
britanni	3761
##tön	3762
##muna	3763
saatu	3764
pros	3765
maailmanmesta	3766
ehti	3767
ts	3768
##elen	3769
##uttava	3770
suomalaisten	3771
kokonaan	3772
aurinko	3773
##hte	3774
##llisten	3775
veto	3776
##muksen	3777
##ladi	3778
nais	3779
jatka	3780
mahdollisuus	3781
ystävä	3782
##tutkin	3783
##ytys	3784
repu	3785
sosiaali	3786
wa	3787
legen	3788
onnistu	3789
tuuli	3790
pyöri	3791
80	3792
maksu	3793
talvi	3794
toimia	3795
siltä	3796
koulun	3797
järky	3798
kanna	3799
##llisuuden	3800
prosentin	3801
eteenpäin	3802
andersson	3803
##des	3804
pelannut	3805
liittyy	3806
voittaja	3807
##atta	3808
malli	3809
odottaa	3810
00	3811
tavoit	3812
jälj	3813
vieras	3814
pas	3815
##laiset	3816
tehtiin	3817
luonnon	3818
republi	3819
neen	3820
joen	3821
toisella	3822
##uita	3823
ihminen	3824
##sori	3825
pudotus	3826
yhdeksän	3827
muistel	3828
paino	3829
##lliseen	3830
vastasi	3831
isiin	3832
flori	3833
##toin	3834
some	3835
ajoneu	3836
45	3837
##estään	3838
minua	3839
harjoi	3840
toiminut	3841
median	3842
armei	3843
##eihin	3844
tapahtuu	3845
ide	3846
sto	3847
##milla	3848
kieltä	3849
##eesta	3850
johan	3851
maiden	3852
##vaale	3853
aktiiv	3854
vuoteen	3855
toimen	3856
maaliva	3857
televisi	3858
##järjestö	3859
republikaan	3860
##essi	3861
avaa	3862
gu	3863
##zz	3864
rakka	3865
puolusta	3866
##etun	3867
tuntia	3868
loma	3869
siirty	3870
käytössä	3871
##isyys	3872
lip	3873
podc	3874
pin	3875
pelkä	3876
tuntu	3877
kisan	3878
uhkaa	3879
sch	3880
toiseksi	3881
hah	3882
2016	3883
kysyi	3884
vladi	3885
tilaa	3886
näytti	3887
jalkapallo	3888
ehdot	3889
willia	3890
f1	3891
lyö	3892
kuka	3893
saadaan	3894
orpon	3895
cat	3896
##mällä	3897
prinsessa	3898
##bc	3899
##llistä	3900
##ere	3901
saavat	3902
onkin	3903
sami	3904
päässyt	3905
viranomaiset	3906
viikkoa	3907
90	3908
##tinen	3909
käynyt	3910
##ttäjän	3911
##laisten	3912
issä	3913
alta	3914
riittää	3915
##ressi	3916
##mys	3917
kamer	3918
näitä	3919
heitä	3920
##uiden	3921
sol	3922
tiede	3923
monta	3924
197	3925
##muutta	3926
opposi	3927
neuvottelu	3928
kyn	3929
##ttinen	3930
sanon	3931
pika	3932
##isilla	3933
##hdy	3934
olosuhte	3935
##kelä	3936
##sel	3937
toisaa	3938
heiken	3939
harvina	3940
olisivat	3941
##istelu	3942
ryhmän	3943
opiskeli	3944
perussuomalaisten	3945
mun	3946
helpo	3947
materi	3948
##hansa	3949
häiriö	3950
##imm	3951
seli	3952
2025	3953
yksittä	3954
yönä	3955
vladimir	3956
##ivo	3957
##utettu	3958
totta	3959
##oituksen	3960
sydän	3961
##alle	3962
saisi	3963
##unnut	3964
metriä	3965
peräti	3966
uutistoimisto	3967
je	3968
timo	3969
##istuksen	3970
alun	3971
puolen	3972
tulevat	3973
miehet	3974
muutama	3975
säännö	3976
tuotanto	3977
selkeä	3978
lon	3979
alkaen	3980
palkka	3981
lumi	3982
kata	3983
varmaan	3984
pohja	3985
meille	3986
ongelmia	3987
janne	3988
tyytyvä	3989
vanha	3990
yrittäjä	3991
tunnettu	3992
##yksestä	3993
pienen	3994
amerikka	3995
##jun	3996
runko	3997
##ts	3998
##ssin	3999
##otto	4000
toiminnan	4001
vuosikymmen	4002
kuuden	4003
lähd	4004
yrityksen	4005
maailmanc	4006
varap	4007
niko	4008
tähd	4009
entistä	4010
##päivällä	4011
harris	4012
kilometriä	4013
ravintola	4014
##rää	4015
##aut	4016
##kkeen	4017
moottori	4018
osi	4019
ttä	4020
ennätys	4021
gol	4022
kru	4023
##kov	4024
seksi	4025
naur	4026
tieten	4027
tunnin	4028
juhl	4029
halusi	4030
videolla	4031
lähteä	4032
##etu	4033
juus	4034
##asen	4035
##ttäneet	4036
##istua	4037
##tanen	4038
yhdysvallat	4039
zelen	4040
viik	4041
sain	4042
aloitta	4043
harras	4044
kerrottiin	4045
kustann	4046
syksyllä	4047
mor	4048
##én	4049
kulutta	4050
##koja	4051
##mpp	4052
##mppu	4053
uhri	4054
helmikuussa	4055
hö	4056
##kso	4057
##iemi	4058
tark	4059
hetki	4060
mtv	4061
neli	4062
omat	4063
lakko	4064
lauri	4065
kivi	4066
##dion	4067
70	4068
illä	4069
##lö	4070
tietysti	4071
sellaista	4072
tik	4073
##ustelu	4074
kohdalla	4075
huolta	4076
##läh	4077
##vistä	4078
kalle	4079
kävel	4080
noussut	4081
ehdokka	4082
yk	4083
##iva	4084
veden	4085
##mur	4086
vuosia	4087
kuvia	4088
maksaa	4089
##dään	4090
##paika	4091
lopetta	4092
vetä	4093
edellis	4094
ohjelma	4095
sähköp	4096
huomiota	4097
kiinteistö	4098
itsensä	4099
sairaal	4100
musiikki	4101
itsenä	4102
##vinen	4103
kakkos	4104
##ulan	4105
monen	4106
ääni	4107
finaal	4108
eräs	4109
seksuaal	4110
##nasta	4111
vauh	4112
kaikille	4113
riski	4114
puke	4115
valtu	4116
##vell	4117
tulossa	4118
juha	4119
doku	4120
joulukuussa	4121
toisaalta	4122
##sivät	4123
pot	4124
isten	4125
##rella	4126
lähten	4127
itseään	4128
siirto	4129
maalia	4130
hor	4131
##for	4132
sieltä	4133
hankki	4134
tällainen	4135
tavoitteena	4136
via	4137
##maalla	4138
runsaasti	4139
hinn	4140
soi	4141
##um	4142
lata	4143
aloittaa	4144
pii	4145
konk	4146
kuukausi	4147
ammattila	4148
aalto	4149
##mieh	4150
pääkaupun	4151
miehe	4152
##ttöm	4153
suosikki	4154
##oikeus	4155
laulaja	4156
be	4157
##jelu	4158
##llö	4159
olemaan	4160
viimeisen	4161
lähtee	4162
dokumen	4163
##ikoi	4164
samaa	4165
keskellä	4166
kuor	4167
viestipalvelu	4168
##valio	4169
##pide	4170
mahdollisesti	4171
syntyi	4172
erilaisia	4173
kuoleman	4174
onnettomuus	4175
tammikuussa	4176
##yttä	4177
##uttamaan	4178
zelensky	4179
##llisi	4180
seud	4181
näkee	4182
osan	4183
##ttomasti	4184
kansanedusta	4185
gran	4186
##eista	4187
alas	4188
poliit	4189
areen	4190
historia	4191
jukka	4192
##fes	4193
##lehti	4194
sir	4195
tarke	4196
vene	4197
##juo	4198
viest	4199
##urhe	4200
tiedon	4201
suomalaisen	4202
##vonen	4203
jalkapa	4204
##uston	4205
lapp	4206
lapsia	4207
pri	4208
ölj	4209
puolustusministeri	4210
kierroksella	4211
verrattuna	4212
komp	4213
energ	4214
kesänä	4215
luvulla	4216
31	4217
au	4218
##nn	4219
tuomar	4220
esitys	4221
kaikkia	4222
tosin	4223
##hoit	4224
lainen	4225
isesti	4226
ampuma	4227
kokoomuksen	4228
ajaa	4229
oll	4230
##ytti	4231
päähän	4232
asukka	4233
tiedossa	4234
tyttä	4235
videon	4236
nouse	4237
##isterin	4238
rajan	4239
itselleen	4240
virta	4241
rakenne	4242
proje	4243
##kt	4244
##mite	4245
##gar	4246
##eillä	4247
iski	4248
halunnut	4249
vaikutus	4250
henkilökohta	4251
pariisin	4252
##du	4253
##hoi	4254
##kau	4255
kansalais	4256
##peä	4257
lausunn	4258
##vas	4259
##rian	4260
samassa	4261
##joja	4262
ilmasto	4263
nyr	4264
mikään	4265
varsinkin	4266
##saa	4267
syyttäjä	4268
päätöks	4269
kehitys	4270
vihre	4271
parempi	4272
##jala	4273
##ttoi	4274
##kalla	4275
halla	4276
##istetaan	4277
missään	4278
laitt	4279
vuokra	4280
katu	4281
vettä	4282
##uudet	4283
eduskunnan	4284
##yä	4285
##istaan	4286
##kejä	4287
hänestä	4288
aikaisemmin	4289
kesäkuussa	4290
ly	4291
keino	4292
matkan	4293
##nolla	4294
haavisto	4295
kevään	4296
een	4297
espo	4298
syyskuussa	4299
yliopiston	4300
helposti	4301
oire	4302
sti	4303
japan	4304
mad	4305
pron	4306
helsinki	4307
##isyy	4308
hamas	4309
mic	4310
sanomien	4311
kriti	4312
##fk	4313
joe	4314
real	4315
julkaise	4316
paikkaa	4317
##teri	4318
menet	4319
mennyt	4320
lääke	4321
väkivalta	4322
kuninkaa	4323
apu	4324
tahansa	4325
##ley	4326
liiton	4327
john	4328
asiakas	4329
instagramissa	4330
geor	4331
liikaa	4332
##kkaasti	4333
reil	4334
##ttömä	4335
kirjoitta	4336
osallistui	4337
yks	4338
heistä	4339
edustaja	4340
tuntui	4341
hävi	4342
yritti	4343
onnistui	4344
kotona	4345
##tella	4346
samm	4347
esitutkin	4348
remon	4349
tietoja	4350
miehi	4351
äänes	4352
vuodessa	4353
huomauttaa	4354
ahd	4355
##urva	4356
kestä	4357
haki	4358
kasvan	4359
##bert	4360
##tettä	4361
törmä	4362
täysi	4363
##intoja	4364
pakko	4365
suuren	4366
elämää	4367
kasvoi	4368
tuho	4369
ainoastaan	4370
ikk	4371
##ukan	4372
joutuu	4373
malla	4374
lasku	4375
uno	4376
##ilan	4377
##mättä	4378
kasvu	4379
hetken	4380
seurauksena	4381
##mpaan	4382
charl	4383
##tuo	4384
##yksi	4385
anal	4386
osuus	4387
tytä	4388
kaar	4389
lisään	4390
yllätys	4391
##ström	4392
mahdollisu	4393
tutkinnan	4394
harjoitus	4395
spor	4396
##kis	4397
lait	4398
kuule	4399
##kkiä	4400
löyty	4401
kiinan	4402
jyr	4403
##fa	4404
radio	4405
naiset	4406
viimeinen	4407
vihr	4408
ensimmäisenä	4409
hilja	4410
##vuus	4411
##gn	4412
##dät	4413
##hon	4414
##insa	4415
muisto	4416
sivi	4417
300	4418
osin	4419
##änsä	4420
reis	4421
lopu	4422
hii	4423
konf	4424
koira	4425
jaksossa	4426
##oilija	4427
##fessori	4428
jaka	4429
jokainen	4430
roman	4431
vor	4432
##sää	4433
##ineen	4434
##unsa	4435
koo	4436
äänestys	4437
marraskuussa	4438
varsinais	4439
maaliskuussa	4440
pohtii	4441
##usin	4442
auttaa	4443
laajen	4444
isia	4445
ann	4446
sovi	4447
oikea	4448
versi	4449
kirjan	4450
##utuvat	4451
nousee	4452
##sty	4453
##llyn	4454
päällikkö	4455
kaikkiaan	4456
##estäni	4457
bor	4458
hää	4459
##udesta	4460
tutus	4461
vahvistaa	4462
##ski	4463
tavar	4464
pallo	4465
ajattel	4466
toisessa	4467
##misessa	4468
arvon	4469
kisassa	4470
am	4471
gra	4472
nut	4473
##be	4474
pystyy	4475
sääntö	4476
pyyn	4477
vallan	4478
rakas	4479
##veä	4480
helppo	4481
kaupan	4482
ymmärtää	4483
##musta	4484
##mmalla	4485
##maksi	4486
liban	4487
perusta	4488
2017	4489
toukokuussa	4490
##imä	4491
olemassa	4492
välin	4493
viet	4494
vauri	4495
aste	4496
korona	4497
näyttä	4498
ruotsissa	4499
luonno	4500
sisään	4501
erin	4502
##lm	4503
saaneet	4504
oulussa	4505
kamppa	4506
kilpailussa	4507
##pla	4508
##täjä	4509
##ilen	4510
taan	4511
jättää	4512
puhd	4513
haluan	4514
lokakuussa	4515
##kussa	4516
##tala	4517
sade	4518
näistä	4519
joukossa	4520
katsoi	4521
##llisimman	4522
##ös	4523
##aria	4524
##istossa	4525
tall	4526
kalli	4527
toisin	4528
chr	4529
suru	4530
sito	4531
##hei	4532
sanna	4533
kari	4534
nuoret	4535
oikeudenkäyn	4536
##gu	4537
##ytön	4538
tunnel	4539
##gian	4540
murh	4541
suku	4542
viranomaisten	4543
afp	4544
##jiä	4545
##daa	4546
vaimo	4547
naura	4548
osaval	4549
lopet	4550
mahdollisimman	4551
laji	4552
face	4553
##tilaisuudessa	4554
##riin	4555
keho	4556
##ham	4557
tapaus	4558
kylä	4559
merkittävä	4560
teksti	4561
cather	4562
hon	4563
täh	4564
##ralla	4565
maasto	4566
mari	4567
elämään	4568
kansallis	4569
kehit	4570
##öi	4571
##istusta	4572
uuteen	4573
ranskan	4574
organ	4575
keskustelua	4576
huolto	4577
tampereen	4578
vuotiaana	4579
bbc	4580
risti	4581
##ler	4582
keskustan	4583
liha	4584
nosti	4585
psy	4586
kuvat	4587
toiseen	4588
##neensa	4589
william	4590
##eva	4591
##paikan	4592
aloit	4593
niinistö	4594
##tteeseen	4595
syntynyt	4596
lääkke	4597
hope	4598
saatiin	4599
tiedotus	4600
liikente	4601
##palo	4602
sijaitsee	4603
400	4604
##paikka	4605
päätty	4606
jälki	4607
opetta	4608
täyde	4609
##auto	4610
##itti	4611
##estiin	4612
##toihin	4613
venäjälle	4614
tasavallan	4615
palkinto	4616
##yl	4617
##essään	4618
lopulla	4619
vahvasti	4620
yllättä	4621
elokuussa	4622
tarvitta	4623
tekno	4624
kierroksen	4625
bra	4626
##llas	4627
korj	4628
johd	4629
joudu	4630
hypp	4631
sovell	4632
asioista	4633
syystä	4634
ottanut	4635
teemu	4636
##järvi	4637
historian	4638
34	4639
ollen	4640
##nön	4641
##peri	4642
##oida	4643
##tejä	4644
laine	4645
astetta	4646
vahvista	4647
kovaa	4648
##maton	4649
nähnyt	4650
energia	4651
eva	4652
pus	4653
nopea	4654
tyypi	4655
räjä	4656
lopput	4657
kampanja	4658
##villa	4659
yhtenä	4660
terä	4661
hyödyn	4662
käsite	4663
olli	4664
inves	4665
maata	4666
suunta	4667
maria	4668
oikeasti	4669
aikata	4670
kapteen	4671
hs	4672
##rinen	4673
##bu	4674
##orin	4675
palasi	4676
tarvitaan	4677
fyys	4678
##mit	4679
jari	4680
lupaa	4681
ainakaan	4682
##pala	4683
seinä	4684
paitsi	4685
vaaran	4686
kiinnosta	4687
reag	4688
voittaa	4689
##kainen	4690
##paan	4691
iseen	4692
suomesta	4693
peru	4694
kaksikko	4695
havai	4696
järjestelmä	4697
vaaleissa	4698
slo	4699
sara	4700
paikallis	4701
sprin	4702
herk	4703
##imi	4704
##vist	4705
harki	4706
##land	4707
##tieteen	4708
far	4709
nsä	4710
##eo	4711
##tuvat	4712
hyviä	4713
##uvo	4714
tarkka	4715
talouden	4716
fre	4717
##tter	4718
tappi	4719
näiden	4720
haus	4721
##oro	4722
entisen	4723
yrittää	4724
matkalla	4725
podcast	4726
aluksi	4727
tarjolla	4728
törkeästä	4729
aine	4730
dani	4731
##uva	4732
ralli	4733
##önen	4734
nuoren	4735
eurovi	4736
ajatus	4737
työskenne	4738
##ryhmän	4739
vauhd	4740
hyökkääjä	4741
ina	4742
kuol	4743
##zb	4744
##koa	4745
##tor	4746
päätyi	4747
##kilä	4748
kuukautta	4749
sulje	4750
muistelee	4751
puolet	4752
osoitta	4753
##tteitä	4754
määrän	4755
##mmaksi	4756
huomattavasti	4757
##kula	4758
kori	4759
viita	4760
laite	4761
varmista	4762
puolust	4763
veren	4764
oulula	4765
puoliväli	4766
lauantain	4767
kruun	4768
tytär	4769
36	4770
##ikke	4771
##ilua	4772
rata	4773
##ood	4774
asteen	4775
vaalit	4776
siirtyi	4777
jyvä	4778
cha	4779
spe	4780
##sikko	4781
komen	4782
esille	4783
jossain	4784
edellisen	4785
presidenttiehdo	4786
juontaja	4787
32	4788
##asi	4789
##ännyt	4790
##mmassa	4791
kunnia	4792
##markkin	4793
jänni	4794
dra	4795
##ismi	4796
saari	4797
hevos	4798
nuore	4799
tutkinta	4800
pariskunta	4801
##eg	4802
##boo	4803
##etyn	4804
##uivat	4805
##kela	4806
alkuperä	4807
käynnissä	4808
jutussa	4809
cnn	4810
of	4811
##ci	4812
##sien	4813
##tilla	4814
toy	4815
haas	4816
##ilais	4817
antanut	4818
hieno	4819
mestaruus	4820
pelastuslaitos	4821
uksen	4822
vastu	4823
ukrainaan	4824
fran	4825
##za	4826
joko	4827
käydä	4828
mukaisesti	4829
##nu	4830
mall	4831
##mana	4832
yhtään	4833
mielestäni	4834
kirjassa	4835
toimintaan	4836
välit	4837
juoksi	4838
euroopassa	4839
artikkel	4840
##ikö	4841
osto	4842
hyväksi	4843
heillä	4844
tutkija	4845
tekijä	4846
##das	4847
rauta	4848
julkisuudessa	4849
muutoksia	4850
näkökul	4851
##vyys	4852
##ukkaa	4853
##koti	4854
viittaa	4855
kaikista	4856
viimeksi	4857
etteivät	4858
aiheutti	4859
politiikan	4860
tekn	4861
linnan	4862
wal	4863
##ji	4864
##lää	4865
vall	4866
iseksi	4867
rajoit	4868
inter	4869
roh	4870
kasvaa	4871
purra	4872
sairaalaan	4873
up	4874
##lund	4875
##pitel	4876
##anen	4877
##ukä	4878
sekunn	4879
saun	4880
kisat	4881
rann	4882
uudesta	4883
mestari	4884
heinäkuussa	4885
pahoinpitel	4886
##bridi	4887
neuvosto	4888
lit	4889
##kisen	4890
kome	4891
joutunut	4892
selvää	4893
autoa	4894
sydä	4895
##sk	4896
##ya	4897
##uki	4898
tiellä	4899
erik	4900
kertoivat	4901
pelaajat	4902
etsin	4903
yliopisto	4904
sho	4905
ennuste	4906
roma	4907
##poli	4908
##ystävä	4909
arvio	4910
kiertu	4911
##terve	4912
aamulla	4913
viestintä	4914
jyväsky	4915
##by	4916
poissa	4917
tuote	4918
mieleen	4919
tuskin	4920
faceboo	4921
##empää	4922
kolle	4923
##käri	4924
hauta	4925
tietä	4926
##itetään	4927
löytää	4928
myöntää	4929
paljastaa	4930
vaimonsa	4931
upe	4932
heille	4933
julkaistu	4934
kohdistu	4935
auki	4936
##lon	4937
tuolla	4938
##istettiin	4939
##kasti	4940
rooli	4941
kalta	4942
##kp	4943
hengen	4944
2014	4945
tilanteeseen	4946
omistaja	4947
urallaan	4948
##missi	4949
##htia	4950
mietti	4951
kuvaili	4952
hankin	4953
uudet	4954
sukup	4955
mielenki	4956
##ttömästi	4957
33	4958
##omaan	4959
päättää	4960
sana	4961
noud	4962
mielessä	4963
ilmoitta	4964
vol	4965
yleisurhe	4966
hiljat	4967
uima	4968
rus	4969
usa	4970
##sit	4971
jor	4972
kiusa	4973
##ester	4974
strat	4975
rie	4976
##yttää	4977
kadon	4978
niihin	4979
varus	4980
lev	4981
##innä	4982
hiljattain	4983
fer	4984
##öri	4985
##bin	4986
##pite	4987
##kelu	4988
aih	4989
aje	4990
gr	4991
##emaan	4992
laita	4993
vantaan	4994
henkilöä	4995
puhelim	4996
riste	4997
##ov	4998
##teet	4999
