<unk>	0
<s>	0
</s>	0
▁.	-3.57766
▁n	-3.72402
▁,	-3.97126
▁k	-4.03495
▁a	-4.14589
▁t	-4.29063
▁i	-4.40228
e	-4.45343
▁s	-4.47248
a	-4.47719
i	-4.48078
▁v	-4.49661
▁p	-4.52065
▁	-4.57766
▁ja	-4.62531
▁on	-4.63548
▁m	-4.65505
t	-4.83741
s	-4.86788
▁-	-4.88541
n	-4.93294
▁en	-4.94636
▁ssa	-5.12314
▁in	-5.14224
▁h	-5.16154
▁an	-5.24237
▁l	-5.26078
▁e	-5.33223
u	-5.38682
▁S	-5.39744
o	-5.40619
▁K	-5.44374
▁lla	-5.51304
▁o	-5.51858
▁ä	-5.54811
▁T	-5.56796
k	-5.6103
▁P	-5.62259
▁että	-5.63607
▁sta	-5.64227
▁u	-5.64956
▁ta	-5.65026
l	-5.65474
▁oli	-5.67825
▁M	-5.69745
m	-5.75248
▁V	-5.76502
is	-5.77757
▁2	-5.78283
▁ei	-5.81217
▁jo	-5.83376
▁L	-5.85876
▁r	-5.87166
▁lle	-5.89269
▁ti	-5.90318
▁H	-5.90915
▁0	-5.93266
▁j	-5.94048
ä	-6.02038
▁is	-6.04397
▁:	-6.04934
▁1	-6.07059
▁än	-6.12804
▁A	-6.13831
▁ssä	-6.17078
▁llis	-6.19423
v	-6.23858
▁J	-6.25674
▁nen	-6.27953
▁R	-6.28571
▁ukaan	-6.28853
▁et	-6.29668
▁na	-6.3055
▁llä	-6.34012
▁y	-6.34582
▁ia	-6.35365
▁E	-6.36644
en	-6.39323
▁taa	-6.42807
▁"	-6.43615
▁hän	-6.4417
▁N	-6.4779
r	-6.48336
▁se	-6.53603
▁myös	-6.5463
▁issa	-6.5578
y	-6.56349
▁aa	-6.56444
▁ista	-6.56762
▁stä	-6.57142
▁kin	-6.59634
▁ole	-6.59839
▁I	-6.60279
▁at	-6.61931
▁nyt	-6.63357
▁tä	-6.63932
▁us	-6.65838
▁O	-6.66709
▁si	-6.67487
▁ovat	-6.67494
▁kun	-6.68607
▁ksi	-6.68848
▁ten	-6.70982
▁sen	-6.71498
▁vat	-6.73128
an	-6.73619
▁aika	-6.75195
▁nut	-6.76102
in	-6.76779
▁voi	-6.83304
▁te	-6.8499
▁aan	-6.85095
▁ttiin	-6.88577
▁lta	-6.88706
▁as	-6.89955
▁inen	-6.90135
h	-6.90338
▁toimi	-6.90751
▁tää	-6.91301
▁jen	-6.92807
▁tai	-6.93377
▁nä	-6.96403
▁tila	-6.96684
▁B	-6.96978
▁3	-6.97871
▁ukse	-6.9916
▁kse	-7.0031
▁ille	-7.00548
▁nsa	-7.01846
▁ty	-7.02085
▁9	-7.02425
si	-7.02939
▁ollut	-7.03983
▁illa	-7.04717
▁ma	-7.04729
▁tu	-7.04932
▁mutt	-7.05055
▁ien	-7.05385
▁5	-7.06009
▁esti	-7.0603
▁pää	-7.07185
▁ys	-7.07769
▁eri	-7.08429
▁ertoo	-7.09221
▁saa	-7.09342
ta	-7.0943
▁Hän	-7.1019
▁alla	-7.10967
▁osa	-7.12332
▁iin	-7.12885
▁ais	-7.14146
▁sa	-7.14488
▁4	-7.15056
▁(	-7.15703
▁taina	-7.16957
▁jälk	-7.17296
▁joka	-7.1792
▁)	-7.18292
▁ttu	-7.18982
iime	-7.20562
▁al	-7.21265
▁tam	-7.21331
▁ol	-7.22623
▁he	-7.22626
▁ku	-7.22863
▁tapa	-7.23468
▁yhte	-7.23608
▁ita	-7.24128
▁ää	-7.24968
▁taj	-7.25291
▁koko	-7.25728
▁anssa	-7.2577
▁ko	-7.25948
▁la	-7.25952
▁tus	-7.2598
▁esta	-7.26098
▁työ	-7.26273
▁U	-7.26942
▁F	-7.26977
▁iä	-7.27044
ukse	-7.28537
▁uonna	-7.31096
▁vast	-7.31124
▁oike	-7.31268
▁itse	-7.31555
▁un	-7.31613
▁niin	-7.31914
▁Suom	-7.32265
it	-7.32991
▁ensi	-7.33019
▁taja	-7.33283
▁el	-7.33306
▁ään	-7.34145
enäj	-7.35021
▁mme	-7.35711
▁it	-7.3611
▁nne	-7.36746
▁olisi	-7.36767
▁itä	-7.37252
▁nkin	-7.37493
▁ise	-7.38097
el	-7.38124
▁iden	-7.38643
▁taan	-7.38681
▁uomen	-7.39702
▁sto	-7.40146
▁D	-7.40586
▁yksi	-7.40711
▁kau	-7.41362
,	-7.42213
▁ilu	-7.42482
▁sai	-7.4253
▁asia	-7.42642
▁halli	-7.42981
▁alue	-7.43116
▁sanoo	-7.43942
▁essa	-7.44861
ti	-7.45592
ttel	-7.45597
▁6	-7.45718
▁maa	-7.45735
▁lähe	-7.46529
▁Y	-7.47644
▁8	-7.47655
▁käyt	-7.47723
▁yli	-7.4868
ty	-7.49111
▁tanut	-7.49566
▁asti	-7.49842
▁vät	-7.51154
▁joh	-7.5123
▁7	-7.51331
▁sti	-7.51756
p	-7.52282
▁Jo	-7.52918
▁peru	-7.53546
▁ihin	-7.53646
▁een	-7.55106
▁tois	-7.55336
▁paik	-7.55513
▁va	-7.55855
▁Se	-7.56133
▁oi	-7.56167
▁auto	-7.56555
▁uoden	-7.5656
▁sekä	-7.58122
ssa	-7.58151
▁tta	-7.58522
▁ainen	-7.58592
▁seura	-7.58906
▁ident	-7.5967
▁epä	-7.59698
▁aikki	-7.59715
▁olla	-7.60577
▁ede	-7.60603
▁ukkue	-7.61516
▁vielä	-7.61589
▁käy	-7.61775
▁ni	-7.6211
▁assa	-7.62197
il	-7.62322
▁luo	-7.62426
▁mis	-7.62592
▁täm	-7.63193
▁maan	-7.63199
▁oit	-7.63228
▁yl	-7.63269
▁C	-7.63969
▁lais	-7.64546
▁uus	-7.64966
▁näyt	-7.65127
▁nais	-7.65482
▁aj	-7.65654
▁uole	-7.65812
▁istä	-7.6591
▁ihmi	-7.65964
▁b	-7.66331
▁yrit	-7.66967
▁mies	-7.66967
▁oma	-7.68575
▁f	-7.68727
▁uussa	-7.68801
▁asu	-7.69097
▁nta	-7.6915
▁suur	-7.69159
▁kesk	-7.69242
utta	-7.69247
▁ertoi	-7.69876
lais	-7.70138
▁päivä	-7.70589
▁vain	-7.7164
▁täv	-7.71723
▁neet	-7.71933
▁issä	-7.72071
▁nsä	-7.72216
▁aina	-7.72737
▁per	-7.73385
hdo	-7.73454
▁siitä	-7.73756
▁ilta	-7.73862
▁vuosi	-7.7449
▁?	-7.7483
▁väli	-7.74975
tu	-7.75184
▁häne	-7.75606
d	-7.75864
▁talo	-7.76786
▁Ukra	-7.76877
▁olev	-7.76882
▁var	-7.77658
▁G	-7.77662
te	-7.7796
▁esi	-7.78224
▁ana	-7.78311
▁kosk	-7.78521
▁den	-7.78951
j	-7.79221
▁itten	-7.79845
▁jos	-7.80534
▁pel	-7.80755
▁sitä	-7.80904
▁suom	-7.80979
▁sanoi	-7.81295
▁uude	-7.81483
▁ava	-7.81735
ärje	-7.8174
▁tark	-7.81802
▁muut	-7.8201
emm	-7.82038
▁kui	-7.82061
▁teri	-7.82188
▁liik	-7.82189
er	-7.82439
uoti	-7.82671
▁nkilö	-7.84039
▁teh	-7.84252
▁määrä	-7.84491
▁kirj	-7.84495
▁puhe	-7.85386
tä	-7.85436
ko	-7.85912
▁noin	-7.86445
▁ö	-7.86594
st	-7.8667
▁aljon	-7.86855
▁ykse	-7.86913
▁alle	-7.86974
▁tode	-7.87302
▁ot	-7.88375
et	-7.88776
▁eskus	-7.8957
▁turva	-7.8957
▁tava	-7.8959
▁ka	-7.89656
▁kaksi	-7.90339
ilm	-7.91303
▁isto	-7.91557
▁sam	-7.9201
▁syy	-7.92025
on	-7.92059
▁uusi	-7.9212
▁asta	-7.93007
▁alve	-7.93124
▁vaih	-7.93513
▁ennen	-7.93618
▁eivät	-7.93865
▁tuo	-7.93967
▁il	-7.9404
▁lait	-7.94199
to	-7.95006
▁kuit	-7.95787
▁aiku	-7.95804
▁tel	-7.96025
▁jää	-7.96364
▁ella	-7.96475
▁aikka	-7.96661
▁hyvin	-7.97124
▁nto	-7.97176
▁tuli	-7.9718
▁ulko	-7.97311
▁­	-7.97574
ten	-7.97977
▁voit	-7.9798
▁W	-7.98592
▁edus	-7.98635
▁ist	-7.98755
▁kunn	-7.98931
▁uuta	-7.99451
erro	-7.99729
▁par	-7.99769
▁use	-8.00679
▁tav	-8.01309
▁esit	-8.01555
▁alta	-8.0162
▁tänyt	-8.01625
▁oulu	-8.01996
▁lleen	-8.02
kiks	-8.02115
ut	-8.02305
▁kuva	-8.02625
▁muun	-8.02756
▁rake	-8.0281
▁sano	-8.02962
▁aksi	-8.03362
▁Ilta	-8.03617
▁ent	-8.03817
▁Trump	-8.0482
▁to	-8.04935
▁er	-8.05332
▁usta	-8.0547
▁anna	-8.06019
▁julk	-8.062
▁tul	-8.06217
▁nnut	-8.06277
ö	-8.06306
▁eli	-8.06311
▁ne	-8.06687
▁käsi	-8.07107
▁opu	-8.07379
▁tulee	-8.07509
▁pitkä	-8.0776
▁eksi	-8.07815
▁arvio	-8.07927
▁ase	-8.08051
joh	-8.08485
▁arvo	-8.08906
▁tiin	-8.08994
▁vali	-8.09366
▁Hel	-8.09553
sta	-8.09812
▁valta	-8.09935
▁urhe	-8.10003
▁ette	-8.10186
▁sopi	-8.10191
▁yllä	-8.10293
▁le	-8.10555
▁miel	-8.1059
▁myö	-8.11019
▁istö	-8.11612
▁ilpa	-8.11701
▁istu	-8.11861
▁val	-8.11922
▁Tämä	-8.11934
▁arha	-8.12014
▁pitää	-8.12613
▁ässä	-8.12662
▁tieto	-8.12951
▁pois	-8.1297
▁ina	-8.13013
▁milj	-8.1346
▁uotta	-8.14098
▁ohj	-8.14099
▁iso	-8.14194
▁ansa	-8.14349
▁ltä	-8.14478
▁lut	-8.14846
▁illä	-8.15113
▁altio	-8.15287
▁d	-8.15671
pah	-8.15726
▁euroa	-8.15795
▁matka	-8.15831
▁av	-8.15999
▁etty	-8.16396
▁sy	-8.16652
laaj	-8.16827
▁pre	-8.17131
▁mi	-8.17458
▁pari	-8.17489
▁kunta	-8.17573
▁uutta	-8.17767
▁iiko	-8.18276
▁kesä	-8.18437
iden	-8.18487
▁anne	-8.18543
ar	-8.18579
▁ät	-8.1869
▁iha	-8.18718
▁sesti	-8.19214
▁ajan	-8.19328
▁tö	-8.19405
▁kansa	-8.19587
sa	-8.19624
▁piste	-8.19918
▁aali	-8.20022
▁mar	-8.20375
▁selv	-8.2056
▁koti	-8.20776
al	-8.20787
illä	-8.20789
ime	-8.20814
ll	-8.21469
▁000	-8.21738
▁aus	-8.21943
▁päät	-8.22054
▁minu	-8.22344
▁loppu	-8.22666
▁tiet	-8.22944
▁jonk	-8.22999
▁yö	-8.23087
▁aisu	-8.23127
▁nee	-8.23136
▁uuden	-8.23467
▁ttav	-8.23558
▁iksi	-8.23632
▁euro	-8.23685
▁pros	-8.23744
▁etaan	-8.23748
▁uksi	-8.23884
▁nuor	-8.23931
▁jotk	-8.23951
▁ällä	-8.24084
▁mene	-8.2444
▁uu	-8.24479
▁iikko	-8.24567
▁uut	-8.24581
▁neuvo	-8.24602
▁ystä	-8.2469
▁eikä	-8.24718
oi	-8.25011
▁ilma	-8.25074
▁/	-8.25168
ys	-8.25203
ks	-8.25241
▁valm	-8.25581
▁uolu	-8.25635
▁enne	-8.25878
▁oja	-8.26045
▁vara	-8.2644
▁etke	-8.26568
▁tavat	-8.26633
▁neljä	-8.26769
▁jä	-8.26934
▁tuot	-8.27109
▁elle	-8.27675
▁ee	-8.27738
▁perhe	-8.27953
▁peli	-8.27955
▁sija	-8.27989
▁empi	-8.28017
▁haas	-8.28121
▁mieh	-8.2815
▁minen	-8.28219
▁ikä	-8.2822
▁emmin	-8.28314
▁tämä	-8.28489
▁voima	-8.28516
▁Yhd	-8.28645
▁ala	-8.2876
▁ehdo	-8.28907
▁odot	-8.29044
▁pol	-8.29279
▁iihen	-8.2954
▁yhde	-8.29603
▁ntaj	-8.29702
▁puhu	-8.29741
op	-8.29838
▁nno	-8.29841
▁ussa	-8.29965
▁näh	-8.29969
▁jatk	-8.30178
▁kään	-8.30258
se	-8.30294
istu	-8.30323
erto	-8.30405
▁usko	-8.30416
▁hy	-8.30436
▁isi	-8.30651
▁Kun	-8.30724
▁mä	-8.31244
▁uomio	-8.31259
ka	-8.31406
ja	-8.32342
▁tunt	-8.3244
▁uksia	-8.32885
▁tämän	-8.32999
▁ivat	-8.33203
▁ttä	-8.33212
ri	-8.33397
▁kolme	-8.33547
▁lisä	-8.33659
▁tutk	-8.33823
▁tui	-8.3422
▁iesti	-8.34371
▁uun	-8.34619
▁saat	-8.35009
▁op	-8.35018
▁ästi	-8.351
▁ar	-8.35532
▁isää	-8.35811
▁ur	-8.36163
▁raj	-8.36175
us	-8.36532
▁En	-8.36541
▁uolue	-8.36585
▁taso	-8.3662
▁yt	-8.36632
▁täj	-8.36687
▁pung	-8.3675
mm	-8.36863
ne	-8.37105
▁mon	-8.37133
▁tunne	-8.37306
▁elä	-8.37689
▁tuu	-8.37896
▁tor	-8.38172
▁ru	-8.38221
ähkö	-8.38287
▁uotsi	-8.38326
▁stö	-8.3835
▁sarja	-8.38586
▁etään	-8.38629
▁tule	-8.38638
▁tti	-8.38881
▁tulo	-8.39031
▁halu	-8.39218
▁keh	-8.39254
▁eja	-8.39664
▁kov	-8.39853
▁uass	-8.3986
ku	-8.39961
▁almis	-8.40219
▁ry	-8.40238
▁eks	-8.40374
▁sisä	-8.4044
▁re	-8.40507
kä	-8.40765
▁muu	-8.40801
.	-8.4083
▁tie	-8.41174
▁ttaa	-8.41304
▁ura	-8.42068
▁nti	-8.42146
▁koke	-8.42228
▁Stubb	-8.42451
▁myy	-8.42693
▁kyse	-8.42773
▁isiin	-8.42858
▁antaa	-8.43254
▁kaan	-8.43294
omm	-8.43308
▁näkö	-8.43316
▁mit	-8.43635
▁ajo	-8.43934
▁ke	-8.43995
▁ij	-8.44193
▁ajat	-8.44898
▁hyvä	-8.45012
▁media	-8.45026
▁ääne	-8.45038
▁staan	-8.45328
▁koh	-8.45332
▁Kuva	-8.45364
▁itään	-8.45378
▁es	-8.45469
▁estä	-8.45475
▁Suomi	-8.45806
▁lau	-8.45875
▁aine	-8.45979
▁läh	-8.46185
▁tunti	-8.46452
▁Ny	-8.46601
▁erja	-8.46661
▁juo	-8.46711
▁llin	-8.46717
▁ik	-8.46821
▁isä	-8.46864
▁ori	-8.4688
▁ehti	-8.47009
▁vira	-8.47061
asta	-8.47244
▁eläm	-8.47293
▁Oulu	-8.47294
▁entoi	-8.47376
▁ettu	-8.47427
▁eseen	-8.47471
▁aatio	-8.47577
▁astus	-8.47627
▁alku	-8.47645
▁Ch	-8.4774
▁mini	-8.47771
▁yys	-8.48242
▁kisa	-8.48822
▁uoli	-8.48829
▁otte	-8.48979
▁eillä	-8.49145
▁vaal	-8.49198
▁kirja	-8.49375
▁ulje	-8.49622
me	-8.49702
▁ing	-8.49732
▁ttam	-8.49773
▁tied	-8.4979
▁huom	-8.50031
är	-8.50289
tel	-8.50495
▁neen	-8.50526
▁tane	-8.50642
▁os	-8.50752
uite	-8.50779
f	-8.50799
rael	-8.50909
▁ri	-8.5114
▁ero	-8.51239
▁ilij	-8.51402
▁ari	-8.51748
▁tum	-8.51887
▁MM	-8.52007
▁teki	-8.52026
▁hyök	-8.52148
yy	-8.52418
▁utu	-8.52714
▁tunut	-8.52917
▁kaa	-8.53048
▁esim	-8.53099
▁asian	-8.53246
▁maali	-8.53377
▁aste	-8.53541
▁video	-8.53664
▁olii	-8.53711
▁iera	-8.53734
▁essä	-8.53819
▁Ei	-8.53981
ist	-8.54004
dän	-8.5402
▁ju	-8.54205
▁ertaa	-8.5423
na	-8.5429
▁vaan	-8.54362
iemm	-8.54705
▁ohta	-8.54848
▁Salo	-8.55042
▁kasv	-8.55061
yky	-8.55367
▁oin	-8.55608
▁nkaan	-8.5564
▁tään	-8.55716
▁näky	-8.56276
▁erran	-8.56452
▁ratk	-8.56589
▁uoksi	-8.56918
▁ryhmä	-8.57272
ki	-8.57363
▁mään	-8.57376
▁kolm	-8.57384
▁aiko	-8.57386
▁nimi	-8.5741
▁tty	-8.57781
lla	-8.57823
telm	-8.57942
sime	-8.57974
▁Myö	-8.57993
▁ttöm	-8.58258
▁taisi	-8.5836
▁avu	-8.58571
de	-8.58583
▁nttia	-8.58583
▁vie	-8.58601
▁iinni	-8.58631
▁sell	-8.58657
itä	-8.58659
▁uosi	-8.58715
res	-8.58842
utki	-8.58958
▁erkit	-8.58967
▁arjo	-8.5905
▁ngin	-8.59155
▁saada	-8.59415
▁nope	-8.59416
▁ukana	-8.59445
ttav	-8.59446
▁päiv	-8.59501
▁suun	-8.59637
▁tehdä	-8.59889
▁aja	-8.60218
▁Pohj	-8.60316
▁uol	-8.60503
aa	-8.60552
än	-8.60562
htiö	-8.60707
▁kor	-8.60738
▁ut	-8.60829
▁puoli	-8.60927
▁ki	-8.61008
▁pohj	-8.61123
▁riit	-8.61177
▁pal	-8.61204
▁ästä	-8.6122
▁oinen	-8.61397
▁kilo	-8.61454
▁teen	-8.61542
▁uode	-8.61748
▁enää	-8.61868
▁alka	-8.62003
▁ymme	-8.62008
▁ymp	-8.62241
▁alo	-8.62353
▁anta	-8.62402
▁ahvi	-8.62456
▁amis	-8.62599
▁teke	-8.62853
▁eski	-8.63133
▁väit	-8.63461
▁aisi	-8.63733
ysty	-8.6374
▁vä	-8.63848
▁iitt	-8.63871
▁vanh	-8.6393
▁pitä	-8.63988
▁kohta	-8.64059
tty	-8.64185
▁atta	-8.64374
▁kiso	-8.64454
▁nte	-8.64569
▁aiva	-8.64623
▁yht	-8.64628
▁art	-8.64807
▁eissa	-8.6498
▁ilmo	-8.65213
▁teli	-8.65214
▁ote	-8.65461
ke	-8.65466
▁kö	-8.65489
▁ai	-8.65538
mis	-8.65701
▁puol	-8.65764
▁telee	-8.6583
arjo	-8.65895
▁pien	-8.6596
▁inna	-8.66125
▁synty	-8.66733
ykse	-8.67168
▁aikaa	-8.67273
▁leet	-8.67495
▁palk	-8.67584
▁aamu	-8.67599
▁vaara	-8.67731
säks	-8.67768
▁suora	-8.67928
▁kseen	-8.67989
▁anska	-8.6813
▁aihe	-8.68506
▁erä	-8.68513
▁de	-8.68525
▁omis	-8.68539
▁akko	-8.68758
▁koht	-8.69003
▁aam	-8.69084
▁ov	-8.69171
▁!	-8.69222
▁ena	-8.69361
▁uhka	-8.69435
▁ojen	-8.70114
▁jatku	-8.70172
▁asio	-8.70348
▁elok	-8.70448
▁ter	-8.70654
▁ejä	-8.70809
▁ker	-8.71002
▁etta	-8.71065
▁oimi	-8.71097
▁kuu	-8.71099
▁iellä	-8.71147
▁ic	-8.71166
▁anni	-8.71614
▁amma	-8.71655
▁sää	-8.71891
▁lloi	-8.72005
▁imm	-8.72063
▁unni	-8.72139
▁c	-8.72385
▁tee	-8.72522
lev	-8.72571
iedo	-8.72793
▁jäi	-8.73053
▁tely	-8.73069
aude	-8.7316
ai	-8.73368
▁ärje	-8.73532
▁ttee	-8.73564
▁siir	-8.7366
▁isäk	-8.73684
ksi	-8.73691
▁aloi	-8.73817
ää	-8.74226
▁iedot	-8.74243
▁me	-8.74453
▁olo	-8.74721
▁äällä	-8.74731
▁ssaan	-8.74845
▁uute	-8.74846
▁ttäin	-8.7486
▁mpi	-8.75276
▁äis	-8.75325
▁tasa	-8.75526
▁min	-8.75632
b	-8.75792
alai	-8.75817
▁ky	-8.75969
▁iseen	-8.7616
▁dään	-8.76271
▁emaan	-8.76322
utu	-8.76431
▁aita	-8.76546
▁kent	-8.76837
▁ttom	-8.76946
▁nnan	-8.76978
▁autta	-8.77025
▁unnu	-8.77122
▁EU	-8.77211
▁vähän	-8.77229
▁tse	-8.77475
▁kone	-8.77547
▁muis	-8.77572
▁tässä	-8.77711
▁Sen	-8.77888
vel	-8.77908
▁jät	-8.77944
▁omi	-8.77944
▁lai	-8.77996
▁lain	-8.77998
▁yde	-8.78498
▁iivi	-8.78527
▁laaj	-8.78554
▁täll	-8.78762
▁rauha	-8.79027
▁eille	-8.79032
▁merk	-8.79191
▁kats	-8.79288
▁ensa	-8.79401
es	-8.79428
▁iitto	-8.79795
▁iltä	-8.79856
▁lapsi	-8.79994
▁toivo	-8.80049
▁nan	-8.80063
▁kuul	-8.80091
▁elvi	-8.80133
▁Sano	-8.8032
▁On	-8.80498
▁tak	-8.80571
▁oitto	-8.80632
▁osi	-8.80802
mäis	-8.80878
▁ensä	-8.81161
▁ntaa	-8.81206
▁Kal	-8.81225
▁mise	-8.81311
▁yyd	-8.81334
▁ian	-8.81397
▁yhd	-8.81468
▁juur	-8.81469
▁tun	-8.81617
▁g	-8.81656
▁st	-8.81688
per	-8.81743
▁uo	-8.81862
▁dessa	-8.81919
▁ehtä	-8.8195
▁kamp	-8.82007
▁mus	-8.8203
▁amaan	-8.82079
▁lähti	-8.82116
▁ast	-8.82279
kse	-8.82347
▁tajan	-8.82456
llä	-8.82466
▁oki	-8.82576
▁up	-8.82905
▁lä	-8.82955
▁inä	-8.83274
▁kes	-8.8335
ällä	-8.83355
▁kysy	-8.83463
ine	-8.83825
▁isku	-8.83962
ide	-8.83983
▁alu	-8.84168
▁telu	-8.84181
▁iekk	-8.84185
▁Ja	-8.84416
▁tosi	-8.84434
▁ikos	-8.84459
▁alkoi	-8.84472
aine	-8.84772
▁tettu	-8.85009
▁aik	-8.85053
▁ravi	-8.85247
▁mu	-8.85365
▁nii	-8.85418
▁Mar	-8.85444
▁onne	-8.85616
▁ampu	-8.85961
▁alja	-8.86145
atso	-8.86168
▁tähti	-8.86491
iheu	-8.86526
▁sosi	-8.86568
▁elk	-8.86694
▁ilman	-8.8686
▁apu	-8.86919
ähd	-8.87113
öyty	-8.87138
▁hoito	-8.87206
▁ukset	-8.8725
▁ehde	-8.87289
▁kul	-8.87376
▁laan	-8.87382
▁pys	-8.87429
▁nous	-8.87457
▁rist	-8.87622
av	-8.87695
▁mai	-8.87737
▁lento	-8.87772
▁änsä	-8.87831
▁uori	-8.87985
▁suht	-8.88006
▁raha	-8.88055
▁punki	-8.88096
▁sä	-8.88213
▁olen	-8.88269
▁siin	-8.88291
▁naan	-8.88346
oit	-8.8841
▁aikea	-8.88647
▁rask	-8.88666
ivu	-8.88773
▁tävät	-8.88888
▁nnus	-8.89032
▁maksa	-8.89033
▁Val	-8.89091
▁ulki	-8.8912
▁kois	-8.89127
▁ohje	-8.89168
▁raala	-8.89201
tta	-8.89265
▁takia	-8.89664
lle	-8.8967
▁oima	-8.89773
▁emm	-8.90219
llis	-8.90297
▁sota	-8.90516
▁kohd	-8.90586
▁osu	-8.90662
▁äri	-8.90672
▁syö	-8.9069
▁vero	-8.90817
▁ahde	-8.90893
▁sson	-8.909
la	-8.90905
▁otta	-8.90906
ikä	-8.90908
▁sarj	-8.91296
ello	-8.91342
▁tys	-8.91631
▁ön	-8.91732
▁isin	-8.91931
▁tain	-8.92006
▁teko	-8.92041
▁nnö	-8.92241
eski	-8.92345
ttom	-8.92348
▁aisia	-8.92383
uin	-8.92452
▁enna	-8.92501
▁teriö	-8.92622
▁ruoka	-8.92787
uu	-8.9295
▁ittaa	-8.92966
▁kiel	-8.93001
▁liiga	-8.93004
▁eita	-8.9307
▁uraa	-8.93146
▁Z	-8.93413
▁maal	-8.93423
▁au	-8.93591
▁oitti	-8.93704
▁sin	-8.93857
▁palo	-8.93922
▁pallo	-8.94065
▁niem	-8.94158
▁oissa	-8.94568
▁Yle	-8.94579
▁Sam	-8.94735
▁ng	-8.94758
▁llaan	-8.94938
▁pela	-8.94968
▁ussi	-8.95112
▁änä	-8.95243
▁uoma	-8.95341
▁aal	-8.95388
ik	-8.9541
▁vaali	-8.95553
▁mieli	-8.95655
▁hake	-8.95712
▁ätä	-8.95861
▁Al	-8.959
ni	-8.95967
▁hyv	-8.96157
▁uor	-8.96187
sk	-8.96295
▁tune	-8.96301
▁ston	-8.9634
▁ymmä	-8.96515
▁uro	-8.9655
▁ed	-8.9659
tam	-8.9665
▁seen	-8.96705
▁nni	-8.96785
aikk	-8.9679
▁oona	-8.96811
▁Näi	-8.97067
▁Biden	-8.97071
▁läht	-8.97071
▁ieltä	-8.97093
▁laki	-8.97312
▁yle	-8.97318
▁ete	-8.97453
▁ntä	-8.97541
▁eg	-8.97565
uude	-8.97629
joit	-8.97681
▁kaup	-8.97721
▁mmä	-8.97745
▁oonaa	-8.97774
▁aista	-8.97825
▁malli	-8.97863
▁daan	-8.97898
▁ieman	-8.97952
▁osoi	-8.98075
▁ort	-8.98161
▁yty	-8.98346
▁kuulu	-8.98405
▁meni	-8.98448
▁han	-8.98541
▁iili	-8.98717
▁He	-8.98959
▁Saksa	-8.99006
▁ntää	-8.99063
▁avat	-8.99253
ude	-8.99312
▁sivat	-8.99369
▁auta	-8.99387
▁lask	-8.99413
▁yytä	-8.99417
▁pyör	-8.99575
▁akt	-8.99632
▁iito	-8.99683
▁halua	-8.99778
▁jäsen	-8.99779
▁taas	-8.99912
pa	-9.00014
▁oita	-9.00021
▁vir	-9.00042
▁uuka	-9.00136
▁rin	-9.00137
▁huono	-9.00294
▁einä	-9.00418
▁aut	-9.00443
▁jakso	-9.00638
▁äätös	-9.00697
ew	-9.00725
erä	-9.00899
▁kuoli	-9.00904
HL	-9.00935
äine	-9.01215
▁iehen	-9.01313
▁ata	-9.0139
▁siv	-9.01427
▁näin	-9.01495
ymy	-9.01634
▁siis	-9.01637
▁äysin	-9.01747
▁mäis	-9.01778
▁ang	-9.01862
▁IS	-9.01912
▁aatu	-9.01979
▁lehd	-9.02003
g	-9.02029
▁ani	-9.02077
ise	-9.02156
▁töks	-9.02207
▁ope	-9.0227
lä	-9.0237
ikeu	-9.02539
▁attu	-9.02553
▁una	-9.02688
tiik	-9.02761
▁luv	-9.02778
▁lma	-9.02814
▁yhä	-9.02875
▁oista	-9.02921
▁tivat	-9.02935
▁löyt	-9.0308
▁mite	-9.03087
▁est	-9.03094
▁uippu	-9.03134
▁järv	-9.03152
▁vi	-9.03227
▁yvä	-9.03275
▁vuo	-9.03357
▁agram	-9.03377
▁nos	-9.03511
tuks	-9.03521
▁otti	-9.03549
▁juhl	-9.03556
▁ttelu	-9.03654
▁aana	-9.03687
▁uk	-9.03699
▁elämä	-9.03714
▁van	-9.03854
▁laps	-9.03958
uks	-9.04197
▁kävi	-9.04389
▁unta	-9.04587
▁arki	-9.04628
▁tsee	-9.04634
▁kutsu	-9.04669
▁help	-9.04714
▁yvin	-9.04728
▁leen	-9.04774
▁meri	-9.048
▁heti	-9.04836
▁ellä	-9.04848
▁niitä	-9.04897
▁iini	-9.05003
▁ander	-9.05048
▁X	-9.05079
▁asema	-9.05239
▁vesi	-9.05331
inka	-9.05343
▁jop	-9.05345
▁väki	-9.05353
▁ttäj	-9.05452
▁ika	-9.05745
▁nnä	-9.05901
iide	-9.0605
uksi	-9.0619
▁pääse	-9.06261
▁vapaa	-9.06271
▁nnyt	-9.06311
▁iikon	-9.06407
va	-9.06438
▁iir	-9.06505
▁änään	-9.06581
at	-9.06694
▁und	-9.06828
▁äräj	-9.06838
▁ointi	-9.06863
▁joita	-9.06917
▁Ole	-9.06931
kem	-9.06956
▁etri	-9.07053
▁enti	-9.07077
▁auton	-9.07149
▁häntä	-9.07617
▁alkaa	-9.07637
▁atti	-9.07806
▁anto	-9.08086
▁dä	-9.08099
▁isti	-9.08102
▁man	-9.0813
▁tarv	-9.08163
▁sal	-9.08182
▁orva	-9.0826
▁tek	-9.08301
▁lää	-9.08388
▁uuti	-9.08419
kin	-9.08441
▁täne	-9.08835
▁eista	-9.08912
▁huol	-9.08955
▁atku	-9.09017
▁luku	-9.09019
▁älle	-9.09111
▁ard	-9.09138
assa	-9.09296
▁nna	-9.09301
▁työn	-9.09306
▁seks	-9.09345
jo	-9.09393
▁vah	-9.09429
▁pääsi	-9.09555
▁iih	-9.09556
▁Ä	-9.09683
▁massa	-9.09721
▁ilme	-9.09754
▁piti	-9.09765
mi	-9.09858
▁eihin	-9.10122
▁ii	-9.10301
▁äli	-9.10307
▁tkaa	-9.10571
as	-9.10843
▁da	-9.10868
▁ttel	-9.10892
▁tomu	-9.109
▁ra	-9.11185
▁herä	-9.11234
▁mmin	-9.11245
▁liit	-9.11259
▁hinta	-9.11435
▁uvai	-9.11501
▁nousi	-9.11658
▁pieni	-9.1177
▁illi	-9.11795
▁tulla	-9.1183
▁joulu	-9.11879
▁venä	-9.11937
▁rveys	-9.11963
00	-9.12106
em	-9.12135
▁uste	-9.1228
hdys	-9.12352
▁läpi	-9.12365
▁äästä	-9.12371
▁lään	-9.12381
▁ääri	-9.12425
▁auri	-9.12452
ahde	-9.12586
▁aati	-9.12597
▁kaik	-9.12608
▁ttuna	-9.1264
▁tuma	-9.12653
▁nnas	-9.12685
▁jalka	-9.12694
ais	-9.12719
▁elin	-9.12754
▁anki	-9.12755
▁iiga	-9.12822
yllä	-9.12891
▁arja	-9.12926
▁rki	-9.13015
ma	-9.1305
▁laji	-9.13056
▁yh	-9.13248
▁pala	-9.13317
▁+	-9.13321
▁ant	-9.1352
lymp	-9.1376
rpo	-9.13895
un	-9.13908
▁li	-9.13919
▁ukka	-9.13925
▁yhden	-9.13937
▁astuu	-9.14182
▁uoj	-9.14294
▁etu	-9.1438
▁lupa	-9.14399
▁tuksi	-9.14469
▁20	-9.14474
▁ll	-9.14823
▁vii	-9.14844
▁lö	-9.151
li	-9.15251
▁syksy	-9.15258
▁ell	-9.15452
edus	-9.15696
kku	-9.15711
▁taka	-9.15833
▁iikk	-9.15859
arvi	-9.15904
yö	-9.16026
▁pide	-9.16035
▁tuki	-9.16067
▁annut	-9.16086
▁Yl	-9.16229
▁silm	-9.16487
le	-9.16617
▁allo	-9.167
▁lin	-9.16812
▁näke	-9.1683
▁anssi	-9.17265
▁enä	-9.17496
▁riko	-9.17512
▁anen	-9.17648
▁inta	-9.17657
▁ntee	-9.17731
▁ami	-9.18114
▁tah	-9.18356
▁äy	-9.1838
▁nneet	-9.18531
▁aid	-9.18575
▁uisto	-9.18583
▁auppa	-9.18609
▁aton	-9.18672
▁iuk	-9.18675
▁appa	-9.18725
▁llään	-9.18881
lmoi	-9.18912
im	-9.18931
▁urk	-9.19028
▁kulut	-9.1905
vi	-9.19134
▁lan	-9.19153
▁In	-9.19195
▁leik	-9.19199
▁ksen	-9.19216
▁äte	-9.19348
▁eistä	-9.19391
▁kier	-9.19407
▁tseva	-9.19429
▁np	-9.19576
▁mur	-9.19762
▁hänet	-9.19886
▁ottaa	-9.19892
▁pid	-9.19944
▁nny	-9.19963
▁Tuo	-9.2
▁kkin	-9.2008
▁orke	-9.20102
▁yn	-9.20202
▁iele	-9.20313
▁änsi	-9.20467
otil	-9.20607
ia	-9.20647
▁yttä	-9.20672
▁uunta	-9.20794
▁aivo	-9.20815
uden	-9.20856
▁tätä	-9.20884
▁ttain	-9.20922
▁ide	-9.20939
▁täyt	-9.2096
▁uhri	-9.21086
▁gia	-9.21196
▁arl	-9.21202
▁ulos	-9.21221
▁ara	-9.2139
▁hyö	-9.21454
anna	-9.21609
▁aset	-9.2162
▁aahan	-9.2165
▁umma	-9.21682
▁alai	-9.21811
▁poika	-9.21906
öyd	-9.21968
ämpö	-9.21973
▁oilla	-9.21992
▁korj	-9.22087
▁tili	-9.22089
▁voim	-9.22159
▁onta	-9.22224
▁uha	-9.2225
▁koro	-9.22287
▁usi	-9.22372
am	-9.22416
▁luke	-9.22446
▁ältä	-9.22458
▁olm	-9.22491
▁pääs	-9.22611
▁ev	-9.22612
▁murha	-9.22694
▁aari	-9.22812
▁utki	-9.22834
▁heit	-9.2285
▁liike	-9.23227
▁viit	-9.23252
▁Ete	-9.23259
▁oman	-9.23395
▁saap	-9.23437
▁'	-9.23485
▁berg	-9.23513
▁sodan	-9.23535
▁Vil	-9.23625
▁ttaja	-9.23741
▁or	-9.23908
▁iina	-9.23948
▁metsä	-9.24017
▁anj	-9.24072
▁uurin	-9.24093
▁oukko	-9.24121
▁irv	-9.24209
▁asi	-9.24212
▁otain	-9.24273
▁eitä	-9.24306
▁sky	-9.2437
▁eijo	-9.24397
▁tehty	-9.24429
▁aisin	-9.2445
▁varm	-9.24523
▁ajoi	-9.247
ikko	-9.24804
uomi	-9.24809
or	-9.24851
▁ijaan	-9.24864
▁olog	-9.24904
▁Rova	-9.24964
▁äivän	-9.25042
▁Kor	-9.25063
▁ohi	-9.25137
▁tele	-9.25138
▁toim	-9.25245
▁ääni	-9.25253
alli	-9.25266
▁muka	-9.25424
▁eteen	-9.25974
▁eid	-9.26061
▁muita	-9.26149
os	-9.26185
▁erkko	-9.26267
▁atso	-9.26542
▁itti	-9.26588
▁lad	-9.26624
▁tio	-9.26635
▁tori	-9.26661
▁häi	-9.26712
▁elen	-9.26826
▁soit	-9.26869
▁levi	-9.26943
▁viet	-9.27027
▁uoto	-9.27036
▁ua	-9.27156
▁ks	-9.27373
▁etsi	-9.27483
▁ainoa	-9.27694
▁son	-9.2774
▁äys	-9.27796
▁elko	-9.27833
▁ust	-9.27854
▁lope	-9.27915
uunn	-9.27915
▁väks	-9.27933
▁lähtö	-9.28083
▁autu	-9.28091
▁inko	-9.28095
▁ahti	-9.28167
▁aar	-9.28201
▁em	-9.28215
no	-9.28558
▁heik	-9.28655
▁dy	-9.28715
evää	-9.28865
▁ouko	-9.28965
▁allan	-9.29161
ymme	-9.29168
▁mäki	-9.29255
▁idät	-9.29322
▁kylä	-9.2933
aan	-9.29364
▁aist	-9.29406
▁Antt	-9.29474
▁jot	-9.29657
▁nssi	-9.29881
▁julki	-9.29902
▁teho	-9.29903
▁maksu	-9.29918
▁vier	-9.30085
▁lah	-9.30131
▁ansi	-9.30135
▁ihme	-9.30151
▁Yks	-9.30178
▁äyttö	-9.30183
▁ivät	-9.30236
▁arris	-9.30314
▁eikk	-9.30326
▁löy	-9.30333
oop	-9.30351
ysy	-9.30467
▁hä	-9.30479
▁tähän	-9.30524
▁hank	-9.30535
▁sty	-9.30538
esku	-9.3055
▁eisö	-9.30787
▁rooli	-9.30787
▁Kiina	-9.30926
rit	-9.30929
▁tekee	-9.31164
▁väl	-9.31179
▁etriä	-9.31201
▁piir	-9.31279
▁kat	-9.31291
▁oikk	-9.31305
avai	-9.31459
iih	-9.31492
▁kuv	-9.31545
▁suku	-9.31784
▁määr	-9.31803
lloi	-9.31865
▁paras	-9.31885
▁ulok	-9.31909
▁aju	-9.31917
▁uot	-9.31984
▁onald	-9.32041
▁ih	-9.32073
▁myötä	-9.32078
▁alli	-9.32267
▁raat	-9.3229
▁rad	-9.32291
▁yky	-9.32341
▁ilun	-9.32441
ee	-9.32471
▁suu	-9.32478
lo	-9.32481
▁ovi	-9.32497
▁aani	-9.32691
▁apa	-9.32705
▁eet	-9.32783
▁ilija	-9.32803
▁jout	-9.32838
▁rof	-9.32865
▁arra	-9.32987
▁ulis	-9.33139
▁vai	-9.33167
▁sten	-9.33207
äil	-9.33208
▁aistu	-9.33221
vat	-9.33288
▁utin	-9.33306
den	-9.33307
▁oski	-9.33367
▁ver	-9.33427
▁loka	-9.33523
▁alous	-9.33524
han	-9.3358
▁linja	-9.33687
▁10	-9.33702
nnö	-9.33802
▁appio	-9.33821
▁urr	-9.33835
▁The	-9.3384
▁yr	-9.33955
▁Nato	-9.34103
▁eä	-9.34131
▁lauk	-9.34189
▁emme	-9.34268
koks	-9.34291
▁peri	-9.34291
akav	-9.34305
▁elmi	-9.3433
▁du	-9.34355
▁aluaa	-9.34412
ääk	-9.34437
▁ho	-9.34458
▁ankki	-9.3447
▁edel	-9.34541
▁tivät	-9.3463
▁demo	-9.34839
▁oihin	-9.34856
▁koulu	-9.34863
orm	-9.34906
nväl	-9.34917
▁rttu	-9.34995
▁kärs	-9.34996
▁keino	-9.35031
▁vahv	-9.35273
▁eissä	-9.35303
▁Var	-9.35396
▁uuluu	-9.35427
▁oitus	-9.3545
▁uonn	-9.35528
▁kon	-9.35587
▁ulk	-9.35933
▁mill	-9.35967
▁otea	-9.35967
▁Häne	-9.35968
▁lyt	-9.36092
▁äälle	-9.36239
▁kuol	-9.36317
▁aulu	-9.36355
▁ord	-9.36358
▁ak	-9.36482
▁harv	-9.36488
ttu	-9.36491
autu	-9.36524
▁Norja	-9.36528
▁imo	-9.36552
▁ain	-9.36572
▁ntola	-9.36586
▁riski	-9.36666
▁aha	-9.36685
ter	-9.36734
▁kaap	-9.37021
▁usu	-9.37062
▁uksen	-9.37101
ning	-9.37287
▁änne	-9.37297
▁ennus	-9.37301
▁yyttä	-9.3734
ol	-9.37361
▁hel	-9.37369
▁ie	-9.37452
▁suosi	-9.37498
▁imma	-9.37675
▁EM	-9.37756
hjel	-9.3783
▁Nii	-9.37846
▁uhd	-9.37923
▁inno	-9.37927
▁pro	-9.38161
yrki	-9.3818
▁ama	-9.38238
▁oulut	-9.38242
▁henki	-9.38416
▁tuke	-9.38453
▁vähe	-9.38492
▁ikään	-9.38506
▁Lu	-9.38786
▁om	-9.38841
▁vaimo	-9.38886
▁auk	-9.38904
▁uud	-9.39295
▁päin	-9.39374
▁aira	-9.3938
▁aku	-9.39531
▁äiv	-9.39641
▁tetty	-9.39751
▁hin	-9.39777
elij	-9.39836
lex	-9.39931
▁nost	-9.39977
▁ac	-9.40105
▁je	-9.4012
▁aav	-9.40147
▁ark	-9.40174
▁uiden	-9.40204
▁lehti	-9.40245
▁tulos	-9.40266
▁io	-9.40323
▁laul	-9.40622
▁kir	-9.4063
▁lii	-9.4068
▁illo	-9.40718
▁ilo	-9.40739
▁äit	-9.40755
▁ajaa	-9.41002
▁kasvu	-9.41013
▁koto	-9.41046
▁valo	-9.41046
issä	-9.41089
▁utk	-9.41091
▁empaa	-9.413
▁oiva	-9.41313
▁30	-9.41433
▁läis	-9.41626
▁kerta	-9.41684
▁erta	-9.41787
▁elta	-9.4179
▁lasku	-9.41794
▁Pekka	-9.41795
▁tästä	-9.41805
▁hilj	-9.41834
▁adu	-9.41919
▁mm	-9.42038
▁kausi	-9.4215
▁kka	-9.42197
▁iik	-9.42286
▁vede	-9.42358
ekij	-9.42376
▁äksi	-9.42407
oid	-9.42415
▁enno	-9.42437
▁ras	-9.42589
▁toi	-9.42622
▁jala	-9.428
oise	-9.42852
▁Kar	-9.42933
▁työtä	-9.42959
▁eng	-9.42968
▁tävä	-9.42983
▁mui	-9.42998
▁aiem	-9.43
▁tuho	-9.43032
▁ohu	-9.43033
▁Ru	-9.43061
▁ingo	-9.43064
▁no	-9.4314
▁tsi	-9.43418
inis	-9.43576
uhte	-9.43592
▁kahd	-9.43656
▁atu	-9.43663
ärke	-9.43668
▁Har	-9.43704
▁SM	-9.43838
sä	-9.43966
▁iiv	-9.4397
▁kko	-9.44014
▁uhti	-9.44133
▁sk	-9.44195
iik	-9.4434
nnat	-9.4436
▁otesi	-9.44367
▁ehdot	-9.44397
▁and	-9.44457
▁masti	-9.44499
▁ttava	-9.44522
▁Halli	-9.44546
▁avio	-9.44546
▁hien	-9.44589
▁paine	-9.44613
▁hoit	-9.44646
▁aki	-9.44741
▁vanha	-9.44773
▁aza	-9.44774
▁udu	-9.44802
▁tävän	-9.44926
▁alko	-9.45
▁tuh	-9.45157
▁ste	-9.45222
tees	-9.45228
uvu	-9.45296
▁uuli	-9.45296
ikke	-9.45389
▁ylä	-9.45452
▁ida	-9.45457
aino	-9.45518
äyty	-9.45565
▁kulu	-9.45594
▁asem	-9.4561
▁ilmi	-9.45615
▁rit	-9.45624
▁meno	-9.45797
▁tuks	-9.45975
rose	-9.46039
ippu	-9.46314
▁ude	-9.46472
▁am	-9.46485
▁asiaa	-9.46488
▁mere	-9.46637
▁huum	-9.46685
▁tais	-9.46712
▁aise	-9.46722
▁eh	-9.46736
kk	-9.4683
▁juhla	-9.46874
▁ro	-9.46952
▁virhe	-9.46981
▁oppi	-9.47
▁ietti	-9.47021
▁uutos	-9.47064
▁tut	-9.47076
▁osto	-9.4719
▁iikka	-9.47331
▁öl	-9.47445
▁järk	-9.47459
▁olme	-9.47496
▁Viim	-9.475
▁pain	-9.47545
do	-9.47554
▁runs	-9.47645
▁uuk	-9.47677
voit	-9.47708
▁rom	-9.47716
▁oir	-9.47883
▁pääty	-9.47897
▁suh	-9.47942
▁lli	-9.47946
▁irta	-9.47962
▁ruu	-9.48086
▁ake	-9.48232
▁dio	-9.48418
suud	-9.48472
lopp	-9.48522
▁Mie	-9.4859
▁Kansa	-9.48623
sim	-9.48828
▁uoro	-9.48885
▁tusta	-9.48971
▁koho	-9.48973
▁omm	-9.49132
▁ress	-9.49139
▁nn	-9.49195
ilpa	-9.49288
▁adio	-9.49309
▁vei	-9.4946
▁ikkö	-9.49492
▁esken	-9.49588
▁orm	-9.49638
▁veto	-9.49805
▁ennä	-9.49897
▁koira	-9.49938
▁pi	-9.49981
▁yksiä	-9.49986
▁ehk	-9.50029
▁Tap	-9.50052
▁tunnu	-9.50052
▁illis	-9.50083
aika	-9.50286
▁muuta	-9.50286
▁mut	-9.50402
▁imme	-9.50415
hkä	-9.50462
▁naur	-9.50494
▁tyi	-9.50566
▁eor	-9.50579
▁mo	-9.50579
▁anut	-9.50584
▁lik	-9.50634
▁50	-9.50666
▁ap	-9.50698
▁ul	-9.50753
▁tyy	-9.50781
▁ha	-9.51006
▁evy	-9.51071
▁iitä	-9.51167
eng	-9.51168
ra	-9.51293
▁aka	-9.5136
▁ssään	-9.51423
▁ich	-9.5162
▁väh	-9.51637
▁tavan	-9.51641
▁akana	-9.51695
▁ntam	-9.51796
ur	-9.51802
▁loma	-9.51854
▁iset	-9.51869
▁ovin	-9.51881
▁ekijä	-9.51944
▁sama	-9.51977
▁otiin	-9.5201
▁mennä	-9.52106
▁kok	-9.52233
▁ammi	-9.52328
uk	-9.52339
▁eessa	-9.52477
▁ohdi	-9.52526
▁ikko	-9.52536
▁hj	-9.52577
ei	-9.52628
äis	-9.52679
elä	-9.5277
▁törk	-9.52791
▁lor	-9.52829
kel	-9.52878
▁mah	-9.52953
▁oille	-9.52953
▁pa	-9.52973
▁vän	-9.5299
▁oitu	-9.53062
▁ksu	-9.53148
▁rssi	-9.53187
▁isia	-9.53206
▁uper	-9.53299
▁aiken	-9.5336
▁kkä	-9.53412
▁py	-9.53605
▁vel	-9.53703
ien	-9.53718
▁ime	-9.53836
▁silti	-9.53934
oteu	-9.53964
▁luki	-9.54021
▁akse	-9.54049
▁ehto	-9.5409
aal	-9.54551
▁akas	-9.54632
kkö	-9.54813
▁oehto	-9.55001
umpp	-9.55061
▁oll	-9.55256
▁äv	-9.55256
▁olle	-9.55304
▁myr	-9.55485
▁kää	-9.55539
▁ietoa	-9.55635
▁irt	-9.55673
yyp	-9.55689
▁poh	-9.55733
▁ksia	-9.55768
▁iisu	-9.55808
▁kee	-9.55812
▁miksi	-9.55876
▁rmä	-9.55915
▁eera	-9.55937
▁sul	-9.55946
pu	-9.55956
▁alas	-9.55968
▁töön	-9.56015
▁näi	-9.56016
yt	-9.5611
▁torj	-9.56202
▁stään	-9.56291
▁inte	-9.56386
▁elo	-9.56423
▁dolla	-9.56473
▁suoj	-9.56499
▁akka	-9.56596
▁ova	-9.56628
▁jätti	-9.56651
▁uni	-9.5672
▁jäl	-9.56751
▁okse	-9.56978
▁end	-9.56988
▁Sal	-9.56993
nen	-9.57069
▁of	-9.57143
▁mistä	-9.57165
nf	-9.57206
oska	-9.57299
pit	-9.57473
▁ksiä	-9.57714
▁ank	-9.57764
▁ener	-9.57796
oukk	-9.57824
▁sate	-9.57844
▁vaihe	-9.57856
▁para	-9.57929
▁onni	-9.57943
▁ämä	-9.5795
▁anno	-9.57952
▁nder	-9.57997
▁isen	-9.58102
▁impi	-9.58172
▁teo	-9.58259
▁TV	-9.58269
▁eutu	-9.58292
▁uum	-9.58317
▁ly	-9.5836
▁uku	-9.58364
▁tua	-9.58373
▁ob	-9.5841
▁uok	-9.58444
erve	-9.58506
▁tuttu	-9.58538
yttö	-9.58555
▁talli	-9.58711
▁ydi	-9.58893
▁ad	-9.58995
▁org	-9.59036
▁iit	-9.59083
▁tyä	-9.5909
▁kar	-9.59216
udu	-9.59264
▁odi	-9.59267
ävi	-9.59344
▁liha	-9.59417
▁eva	-9.59435
▁kanta	-9.59476
▁ukea	-9.59584
▁tiedä	-9.59608
▁ove	-9.59664
▁ola	-9.59716
▁iet	-9.59849
▁pakk	-9.59886
▁ado	-9.5999
▁äivä	-9.59995
▁entu	-9.60099
▁ork	-9.60116
▁aho	-9.60177
▁15	-9.60188
▁täisi	-9.6042
▁alv	-9.60456
▁im	-9.6066
▁oo	-9.60692
▁otto	-9.60791
est	-9.60801
▁eikka	-9.60923
kaa	-9.60947
▁Ne	-9.61062
▁ill	-9.61089
ome	-9.61144
▁esiin	-9.61162
▁ess	-9.6117
▁ehot	-9.61182
▁armaa	-9.61183
▁Ko	-9.61213
▁sana	-9.61225
star	-9.61266
▁sala	-9.61267
uist	-9.61295
▁elasi	-9.61306
▁eal	-9.6137
▁äyt	-9.61407
▁ärkeä	-9.61412
▁apsen	-9.61437
▁ääjä	-9.61604
▁Oli	-9.6162
▁stus	-9.61659
▁ärki	-9.61668
▁aad	-9.61699
▁ntti	-9.6171
▁inne	-9.61826
▁nko	-9.61864
▁uh	-9.61968
▁urna	-9.62003
▁tön	-9.6206
▁juttu	-9.62122
▁kap	-9.62285
ngel	-9.62287
▁hetki	-9.62416
▁Putin	-9.62429
▁akot	-9.6243
▁kom	-9.62458
▁louk	-9.62573
▁jouk	-9.62622
▁Osa	-9.62632
▁arla	-9.62633
▁asva	-9.62711
▁nk	-9.62821
▁öi	-9.62971
▁ksan	-9.63038
▁yksen	-9.63121
nä	-9.63208
▁ahd	-9.63259
tuur	-9.6332
▁yör	-9.63408
▁inti	-9.63517
▁id	-9.63835
▁isuus	-9.639
▁stu	-9.63965
▁tait	-9.63996
▁eikki	-9.64028
▁äh	-9.64151
▁reil	-9.64187
▁ib	-9.64237
aati	-9.64306
▁iki	-9.6437
▁huone	-9.64429
▁anc	-9.64488
▁yy	-9.64525
▁ihm	-9.64563
▁lu	-9.64572
▁vih	-9.64648
▁uone	-9.64773
▁äs	-9.64775
▁ausi	-9.64812
▁tte	-9.64828
▁äline	-9.64844
▁edu	-9.64859
▁ab	-9.64897
▁äm	-9.65123
▁annu	-9.65128
täis	-9.65248
▁ilv	-9.65407
▁od	-9.65488
▁onge	-9.655
▁mero	-9.65542
▁akuu	-9.65614
▁iirt	-9.65718
▁nt	-9.65753
eikk	-9.65779
äjä	-9.6581
▁elij	-9.65831
▁tilan	-9.65832
▁äytyy	-9.65891
▁armi	-9.65989
▁urma	-9.66115
▁arv	-9.66145
▁arka	-9.6619
▁äinen	-9.66228
▁Min	-9.66264
▁kato	-9.66342
▁terv	-9.66356
▁rek	-9.66364
▁umm	-9.66372
▁sov	-9.66433
▁main	-9.66435
▁virk	-9.66515
▁oimii	-9.66528
z	-9.66553
▁ideo	-9.66602
▁land	-9.66628
▁kkai	-9.66703
▁iko	-9.66793
panj	-9.66822
ah	-9.66844
▁ataan	-9.6688
▁otil	-9.66942
▁aito	-9.66948
▁isio	-9.66971
▁aatti	-9.67031
▁aiv	-9.67128
▁pian	-9.67176
▁kaat	-9.67258
▁ilj	-9.67334
▁uima	-9.67371
▁Mik	-9.67374
▁piiri	-9.67542
hemm	-9.6759
▁urj	-9.67642
re	-9.67895
unni	-9.67948
vo	-9.68071
▁tuv	-9.68091
▁valt	-9.68112
▁so	-9.68125
▁onen	-9.68125
▁ert	-9.68328
▁öm	-9.6835
kko	-9.68387
▁ex	-9.68419
▁teja	-9.6844
▁loh	-9.6855
▁ahta	-9.68557
iv	-9.68597
▁ria	-9.68617
aar	-9.68631
▁täyd	-9.68647
▁aare	-9.68697
▁hon	-9.6882
▁uri	-9.68916
▁äivää	-9.6892
▁dell	-9.68941
▁uodo	-9.6903
mmat	-9.69074
▁aud	-9.69188
▁ail	-9.69212
▁por	-9.69398
▁alus	-9.69452
▁tr	-9.69471
▁teet	-9.69517
yökk	-9.69537
▁Bri	-9.69627
▁tar	-9.69638
var	-9.69647
▁sinki	-9.6974
▁poik	-9.69872
▁vas	-9.69953
ind	-9.69987
▁log	-9.70041
▁Eur	-9.70049
▁kai	-9.70068
hden	-9.70269
▁netta	-9.70286
▁änen	-9.70302
▁ranta	-9.70357
unna	-9.7037
▁syyt	-9.7039
▁nteen	-9.70493
▁tussa	-9.70546
▁ran	-9.7055
ore	-9.70561
▁illan	-9.70562
▁Til	-9.70567
rkki	-9.70588
▁apin	-9.70653
▁aalia	-9.70868
▁ähte	-9.70883
▁osk	-9.70936
▁ehu	-9.70943
täv	-9.70957
ng	-9.70996
▁sio	-9.71003
▁sel	-9.71039
▁oni	-9.71126
▁ton	-9.7114
▁äässä	-9.71255
▁ahaa	-9.71363
▁siko	-9.71551
▁arkka	-9.717
▁elu	-9.7171
▁vall	-9.71748
▁avoi	-9.71863
oni	-9.71864
▁avo	-9.71931
▁omaa	-9.71983
▁äät	-9.72005
▁urun	-9.72046
▁oy	-9.72063
▁tella	-9.72114
▁ttia	-9.72133
▁kuvan	-9.72217
▁ely	-9.72243
▁vansa	-9.72254
▁Br	-9.72281
▁täys	-9.72328
▁ättä	-9.72438
▁yvää	-9.72466
▁anti	-9.72499
kert	-9.72528
▁aikan	-9.72549
▁eb	-9.72595
▁pitk	-9.72725
▁akso	-9.72767
▁aalin	-9.7279
▁ok	-9.72799
▁ryhm	-9.72885
iin	-9.72896
▁alt	-9.72963
▁12	-9.72982
▁str	-9.72991
▁di	-9.73034
äll	-9.73047
mper	-9.73082
ro	-9.73111
▁nap	-9.73206
▁all	-9.7323
▁ius	-9.73231
▁ppi	-9.73436
▁nnu	-9.73581
▁ub	-9.73637
▁lasta	-9.73722
▁amer	-9.73783
▁nnis	-9.73808
▁mmi	-9.73839
oj	-9.73913
▁seur	-9.73923
▁rinta	-9.74028
▁aatii	-9.74043
semm	-9.74089
▁40	-9.74211
nni	-9.74292
▁ardi	-9.74303
▁aino	-9.74362
po	-9.74437
▁puut	-9.74437
▁uita	-9.7447
▁naa	-9.74609
▁mink	-9.74634
▁luk	-9.74929
▁ntin	-9.7504
rus	-9.75083
▁koe	-9.75141
▁tto	-9.75142
▁elli	-9.75181
▁hti	-9.75246
▁alvi	-9.75277
▁otku	-9.75305
▁lista	-9.75328
mine	-9.75389
▁uru	-9.75534
▁Vir	-9.75559
▁Kau	-9.75756
ite	-9.75777
▁äivi	-9.75836
▁väri	-9.75883
▁oott	-9.7589
ista	-9.75998
▁katk	-9.76019
▁uutt	-9.76169
▁Auto	-9.76337
▁menee	-9.76361
▁tis	-9.76374
▁arina	-9.76504
▁Esp	-9.76624
▁nsi	-9.76729
▁nu	-9.76751
▁aat	-9.76812
ihr	-9.76894
▁ympi	-9.76896
irjo	-9.76978
▁äd	-9.77058
ak	-9.77271
▁mättä	-9.77517
▁port	-9.77531
▁pä	-9.77557
▁mpä	-9.77565
▁nau	-9.77578
▁desta	-9.77596
▁ralli	-9.77654
▁ikk	-9.77703
▁ammu	-9.77763
▁linj	-9.77814
▁rah	-9.77843
▁atar	-9.77855
▁ett	-9.7791
▁risti	-9.77934
▁esä	-9.78134
eli	-9.78321
▁vetä	-9.78464
▁ksiin	-9.78654
▁anke	-9.78654
▁stel	-9.78716
▁sina	-9.78976
ust	-9.79017
▁alto	-9.79055
▁aur	-9.79104
line	-9.79194
▁mont	-9.79209
äytö	-9.79302
▁ampi	-9.79318
▁ntö	-9.79367
▁rep	-9.7947
▁matta	-9.79513
▁kiis	-9.79525
▁raho	-9.79611
▁lämp	-9.79634
▁ettua	-9.79762
▁lumi	-9.79847
▁auko	-9.79869
▁ndr	-9.79881
▁opp	-9.79921
▁alaa	-9.79934
▁leg	-9.79985
▁lessa	-9.8006
▁uto	-9.8009
▁luot	-9.80097
ad	-9.80122
▁Nä	-9.8054
▁Asi	-9.8059
▁tuom	-9.80628
▁Sc	-9.80659
▁100	-9.80675
▁talia	-9.80773
▁into	-9.80818
▁w	-9.80891
yde	-9.81084
▁ong	-9.81124
▁isty	-9.81141
▁enr	-9.81157
▁fan	-9.81176
▁isk	-9.81217
▁uolta	-9.81281
▁um	-9.81387
▁jy	-9.81481
▁kasvo	-9.81557
▁kerr	-9.81715
▁ntie	-9.81772
▁uttaa	-9.81881
▁erg	-9.81962
▁tod	-9.82028
▁omp	-9.8208
▁ah	-9.82227
▁ir	-9.82325
▁altu	-9.82327
▁mpaa	-9.8235
▁ommi	-9.82433
▁osta	-9.82465
▁hahmo	-9.82483
▁äl	-9.82516
▁arti	-9.82556
▁ans	-9.82575
▁don	-9.82638
▁eitti	-9.82703
▁liia	-9.82716
aike	-9.82724
▁sat	-9.82732
ssä	-9.828
änä	-9.82884
▁oik	-9.82924
gel	-9.82934
inno	-9.82971
▁jääk	-9.83005
▁lav	-9.83043
▁ääk	-9.831
dot	-9.83131
▁hdy	-9.83212
▁ash	-9.83222
▁äly	-9.83243
▁kell	-9.83254
▁oiton	-9.83356
▁ykk	-9.83417
▁hu	-9.83418
nyt	-9.83568
▁nnon	-9.83641
▁eilla	-9.83762
▁ieli	-9.83936
▁arsi	-9.83992
ttei	-9.83993
▁yöpä	-9.84004
▁eir	-9.84031
nty	-9.84036
▁esu	-9.84087
uole	-9.84206
▁alan	-9.84246
▁sek	-9.84279
▁kilp	-9.84439
▁immi	-9.84529
▁ors	-9.84548
▁ismi	-9.84577
▁tsev	-9.84618
▁ppo	-9.8465
▁ano	-9.8467
▁eute	-9.84721
▁oti	-9.84731
▁ud	-9.84758
▁iski	-9.84767
▁ekij	-9.84845
▁paho	-9.84852
▁etä	-9.84939
▁kyl	-9.84953
▁salo	-9.84972
keu	-9.85002
auh	-9.85101
▁aksa	-9.85107
▁ink	-9.85307
▁osal	-9.85313
▁Ty	-9.85466
▁Ju	-9.85603
▁amme	-9.8572
hd	-9.85773
▁uola	-9.85815
eide	-9.85851
▁vahva	-9.85863
liok	-9.86009
▁nou	-9.86071
▁uno	-9.86123
▁vapa	-9.8613
▁set	-9.86142
▁iz	-9.86187
▁evä	-9.86209
▁mia	-9.86261
sem	-9.86292
▁ula	-9.86313
▁her	-9.86341
▁z	-9.86343
▁kä	-9.86513
▁lue	-9.86643
▁klo	-9.86668
▁ivi	-9.86834
▁TT	-9.86885
▁aul	-9.86991
lta	-9.8704
ot	-9.8709
▁aihto	-9.87147
▁ull	-9.8747
▁tapp	-9.87544
▁äki	-9.87628
▁ätk	-9.87687
▁urha	-9.87712
skus	-9.87721
▁uvi	-9.87786
▁ota	-9.87864
▁unnan	-9.87883
▁tär	-9.87975
▁ili	-9.88002
▁oppa	-9.88048
▁pur	-9.88113
▁rs	-9.88132
▁tan	-9.88139
tav	-9.88161
▁isan	-9.88249
▁esto	-9.88296
aise	-9.88416
▁hyp	-9.88422
▁antu	-9.88446
▁almi	-9.88499
ha	-9.88509
▁udo	-9.88786
▁irj	-9.88805
äk	-9.88993
▁sent	-9.89026
ors	-9.89127
▁ene	-9.89348
▁tuvat	-9.8935
yös	-9.89361
▁nähdä	-9.8948
▁ailla	-9.89517
▁mir	-9.8954
▁ämm	-9.89699
tell	-9.89777
0	-9.8979
▁ekon	-9.89838
▁ig	-9.8987
▁Per	-9.89909
▁oh	-9.89924
▁enit	-9.90019
▁uist	-9.90089
▁alio	-9.90136
▁ack	-9.9025
▁aikk	-9.90261
▁uski	-9.90333
her	-9.90503
sall	-9.90551
▁posti	-9.90564
▁kulm	-9.9068
▁elev	-9.90809
▁utta	-9.90929
▁iak	-9.90942
▁nio	-9.90988
▁ansan	-9.91233
▁sesta	-9.91292
▁ttaj	-9.91302
▁uis	-9.91351
▁esk	-9.91431
▁Tor	-9.91466
▁ine	-9.91502
▁é	-9.91621
▁linna	-9.91638
▁eena	-9.91644
▁amas	-9.9176
▁erää	-9.91829
▁nassa	-9.91893
▁sad	-9.92117
elsi	-9.92161
▁do	-9.92224
aver	-9.92294
▁vuor	-9.92317
▁äsi	-9.92351
▁ysti	-9.92363
▁sij	-9.92368
▁kesän	-9.9248
▁sille	-9.92551
▁ärj	-9.92696
▁iim	-9.92781
täm	-9.92853
▁ämme	-9.92948
▁Viro	-9.93023
▁inis	-9.93054
▁iö	-9.93193
▁ive	-9.9332
▁äkk	-9.93408
▁äärin	-9.93525
▁empa	-9.93616
▁ott	-9.93685
▁jäse	-9.93747
▁uudet	-9.93811
▁Nor	-9.93828
▁hall	-9.93847
▁Ol	-9.93992
▁rik	-9.94029
▁töä	-9.94039
▁kans	-9.94045
▁teita	-9.94055
▁evat	-9.94128
soit	-9.94162
▁ikka	-9.94275
▁riisi	-9.94279
▁Bar	-9.94354
▁aiset	-9.94389
▁vähä	-9.94492
▁uoll	-9.94498
port	-9.94618
▁riv	-9.94685
▁isko	-9.94721
▁enny	-9.94748
▁ippu	-9.94851
▁emp	-9.94866
▁maat	-9.94878
▁nnes	-9.94894
▁ääm	-9.95075
ivat	-9.95136
▁ety	-9.95295
▁toon	-9.95345
▁pano	-9.95414
▁välit	-9.95449
▁Muu	-9.95489
▁erot	-9.95508
▁list	-9.95674
nut	-9.95685
▁ieti	-9.957
ver	-9.95755
▁mais	-9.95899
▁ini	-9.96021
▁lko	-9.96066
▁Ala	-9.96132
▁sit	-9.96138
▁yri	-9.96139
▁ater	-9.96164
▁syyte	-9.96266
▁lina	-9.9634
▁erro	-9.96506
uur	-9.96525
▁kas	-9.96621
▁utis	-9.9696
▁assi	-9.96981
▁toks	-9.97002
▁eem	-9.97052
▁äid	-9.97169
▁ket	-9.97304
▁til	-9.97389
▁teitä	-9.97487
▁iske	-9.97525
nee	-9.97591
▁telua	-9.97625
▁Kat	-9.9763
▁aje	-9.97632
▁outu	-9.97642
▁tavi	-9.9768
▁öitä	-9.97713
▁arme	-9.97823
▁ntoja	-9.98092
kar	-9.98144
aav	-9.98202
alou	-9.98253
▁puk	-9.98358
om	-9.98372
▁amal	-9.98655
▁met	-9.98708
▁rang	-9.9877
▁yse	-9.98802
▁eren	-9.98828
▁tärk	-9.9884
▁mil	-9.98869
▁kome	-9.98925
▁äärä	-9.98936
väl	-9.99095
lier	-9.99246
kään	-9.99293
&	-9.99376
▁äin	-9.99499
▁ers	-9.99518
▁Pal	-9.99598
▁ele	-9.99628
▁tteri	-9.99643
yysk	-9.99672
▁mista	-9.99673
▁Ver	-9.99697
▁200	-9.9978
työ	-9.99782
▁suo	-9.99904
▁sata	-9.99954
loku	-9.99959
▁erk	-10.0018
omai	-10.0021
▁oisin	-10.0021
▁erra	-10.0022
▁vänsä	-10.0024
▁uaal	-10.0028
▁enni	-10.0039
yis	-10.0044
▁Lap	-10.0056
inä	-10.0061
▁ean	-10.0064
▁Maa	-10.0085
▁äyks	-10.009
▁nkari	-10.0092
▁ikui	-10.0095
▁suk	-10.0102
maan	-10.0102
▁ehd	-10.0103
äänt	-10.0103
▁unna	-10.0103
▁orn	-10.011
▁iho	-10.0111
▁mik	-10.0111
ensä	-10.0115
▁este	-10.0128
▁uolen	-10.0135
▁sill	-10.0138
▁Hu	-10.0149
▁syk	-10.0172
stor	-10.0192
▁iikki	-10.02
▁hak	-10.0203
itkä	-10.0204
▁oto	-10.0205
toi	-10.0217
▁äti	-10.0218
▁imi	-10.0221
▁arj	-10.0228
▁sia	-10.0229
▁ävät	-10.023
▁iety	-10.0249
▁tap	-10.025
▁ltiin	-10.0254
▁aaja	-10.0283
▁ial	-10.0288
▁HL	-10.0296
enne	-10.0298
▁hev	-10.0301
▁ep	-10.0307
▁yksin	-10.0311
▁oise	-10.0312
▁uule	-10.0321
▁entä	-10.034
▁nnee	-10.0352
naal	-10.0354
▁isuu	-10.0359
nis	-10.0364
▁ouk	-10.0375
▁laat	-10.038
▁nev	-10.0382
▁YK	-10.0391
▁keli	-10.0395
▁ös	-10.0402
▁oide	-10.0403
▁lve	-10.0406
▁annus	-10.0409
▁ster	-10.0416
▁ntaja	-10.0424
▁teena	-10.0425
▁uuri	-10.043
▁ere	-10.0433
▁kork	-10.0435
▁ein	-10.0442
tee	-10.0444
▁ypp	-10.0446
▁Mikk	-10.0457
▁ulo	-10.0458
▁amin	-10.0458
▁öy	-10.0465
▁itali	-10.0467
▁ael	-10.0481
▁ny	-10.0485
▁vaa	-10.0487
▁sivät	-10.0491
mu	-10.0499
▁ymy	-10.0507
iis	-10.0508
▁kke	-10.0513
▁roj	-10.0517
▁upe	-10.0517
▁Mark	-10.0521
▁tart	-10.0523
▁osaa	-10.0537
▁rann	-10.0543
▁metr	-10.0544
▁tajat	-10.0549
▁kuuta	-10.0552
▁ngl	-10.0552
sten	-10.0554
▁uul	-10.0561
▁lymp	-10.0562
▁isäl	-10.0565
▁omo	-10.0567
▁äih	-10.0571
ynni	-10.0579
iele	-10.0591
▁rea	-10.0599
▁otsa	-10.0601
▁uoka	-10.0603
▁arkk	-10.0607
ina	-10.0616
▁itta	-10.0621
▁arvi	-10.0621
▁musta	-10.0622
ske	-10.063
▁aalit	-10.0633
▁25	-10.0633
oivo	-10.0638
▁mita	-10.0639
▁saam	-10.0642
ser	-10.0643
▁ineen	-10.0643
▁takaa	-10.0645
▁mässä	-10.0647
▁anga	-10.0659
kki	-10.0671
sti	-10.0673
▁läm	-10.0674
imi	-10.0678
▁aria	-10.0684
▁äänt	-10.069
▁ysty	-10.0697
▁della	-10.0699
▁ham	-10.0702
sin	-10.0702
arpe	-10.0721
▁rint	-10.0722
▁uissa	-10.0729
▁Pari	-10.0729
▁oke	-10.073
▁su	-10.0731
▁aura	-10.0737
▁unti	-10.074
oll	-10.0748
aali	-10.0759
▁tarp	-10.0761
▁utun	-10.0767
▁syys	-10.0771
▁viid	-10.0772
▁ohtaa	-10.078
▁opis	-10.0781
▁elto	-10.0781
▁jote	-10.0786
▁kiit	-10.0792
▁amp	-10.0794
▁pu	-10.0795
▁tote	-10.0805
muks	-10.0809
▁aava	-10.0811
▁rata	-10.082
kuut	-10.0823
▁11	-10.0832
▁är	-10.0835
▁ente	-10.0844
▁pelin	-10.0852
▁össä	-10.0857
▁uop	-10.0866
▁intä	-10.0866
▁äätt	-10.0871
iivi	-10.0875
▁jäll	-10.0879
▁aroi	-10.089
▁Gu	-10.089
▁aip	-10.0892
attu	-10.0919
▁huoli	-10.0919
▁arve	-10.0923
▁irkk	-10.0936
▁selle	-10.0937
▁ante	-10.095
vu	-10.095
usta	-10.0951
elev	-10.0952
▁uheen	-10.0954
▁uka	-10.0954
▁mot	-10.0962
▁soti	-10.0968
▁dän	-10.0973
nna	-10.0998
▁aisk	-10.1001
▁sut	-10.1003
suu	-10.1017
▁ug	-10.1019
▁ou	-10.1028
▁uomi	-10.1043
▁oitt	-10.1044
▁60	-10.1047
▁paa	-10.1049
▁ossa	-10.1062
▁rikk	-10.1064
iri	-10.1068
▁rhei	-10.1072
au	-10.1087
kää	-10.1094
▁istus	-10.1105
▁Lin	-10.1115
▁annin	-10.1117
▁malla	-10.1122
▁tym	-10.1122
mise	-10.1125
▁aap	-10.1125
▁tok	-10.1125
ihto	-10.1134
▁atto	-10.1141
c	-10.1143
▁bo	-10.1144
hti	-10.1146
▁ali	-10.1156
alme	-10.1156
▁elt	-10.1176
▁anee	-10.118
▁ennu	-10.1185
▁tom	-10.1191
▁aini	-10.1195
▁Pe	-10.1195
tään	-10.1196
▁akaa	-10.1196
▁tv	-10.1197
▁opea	-10.1219
ivis	-10.123
rsin	-10.1232
uluv	-10.1235
▁tall	-10.1237
▁nnin	-10.1242
▁kiin	-10.1246
▁eella	-10.1266
▁aata	-10.1266
▁arin	-10.1268
▁omit	-10.127
▁ärv	-10.1275
arsi	-10.1282
▁enem	-10.1286
▁linen	-10.1309
▁syv	-10.1314
älke	-10.1322
▁nty	-10.133
▁lom	-10.1336
▁varo	-10.1338
▁18	-10.134
▁tensa	-10.1348
yönt	-10.1349
▁ipu	-10.1352
aust	-10.1363
▁keil	-10.138
kö	-10.1383
▁lime	-10.1387
yttä	-10.139
▁kevä	-10.1393
▁auna	-10.1398
▁lo	-10.1406
▁umi	-10.1411
▁osti	-10.1413
▁aaj	-10.1418
▁eit	-10.142
▁ay	-10.1424
▁aatto	-10.1424
▁ohk	-10.1435
▁rast	-10.1442
▁rä	-10.1452
▁uon	-10.1461
▁lisen	-10.1472
▁eett	-10.1476
▁edia	-10.1476
▁oj	-10.149
▁Mari	-10.1492
▁ade	-10.1493
▁oite	-10.1494
avut	-10.1506
▁alis	-10.1507
kkau	-10.151
▁aude	-10.1516
▁dia	-10.1518
▁anm	-10.1522
▁ento	-10.1554
▁kod	-10.1557
▁ämis	-10.1559
▁sella	-10.1561
▁aula	-10.1564
▁oka	-10.1574
▁viä	-10.1581
eri	-10.1586
▁tama	-10.1588
▁enk	-10.1602
alla	-10.1607
osit	-10.1626
▁inu	-10.1638
▁IFK	-10.1641
sen	-10.1641
▁isat	-10.1647
▁let	-10.1647
▁dr	-10.1649
▁kki	-10.1653
▁our	-10.1653
▁tusk	-10.1655
lai	-10.1662
ääst	-10.1662
▁uutu	-10.1665
▁hui	-10.1667
▁tien	-10.1684
nne	-10.1686
▁kum	-10.169
antu	-10.1697
▁vuoro	-10.1702
▁raja	-10.1702
▁ulke	-10.1705
▁ärke	-10.1708
▁14	-10.1711
▁ui	-10.1724
tti	-10.1725
▁sian	-10.1728
uuri	-10.1736
:	-10.1738
kaan	-10.1748
▁oska	-10.1748
▁pelaa	-10.1757
▁tyt	-10.1762
▁täjä	-10.1783
▁tellä	-10.1787
▁aras	-10.1798
▁töstä	-10.1799
▁vasti	-10.1805
▁usk	-10.1806
▁aansa	-10.181
▁ähi	-10.1812
▁rose	-10.182
▁ssi	-10.1826
▁Kär	-10.1826
▁kert	-10.1831
▁nv	-10.1839
▁No	-10.1841
▁jat	-10.1843
▁13	-10.1853
▁viis	-10.1863
voim	-10.1865
▁po	-10.1867
▁opi	-10.1871
▁ttäv	-10.188
▁nor	-10.1882
▁bri	-10.1885
▁mato	-10.1886
uan	-10.1892
▁16	-10.1894
anom	-10.1895
▁väk	-10.1896
▁appi	-10.1898
▁uom	-10.1905
▁äntä	-10.1908
nt	-10.191
▁tae	-10.1912
▁ym	-10.1918
▁öri	-10.1923
alta	-10.193
▁äästö	-10.1933
▁ukko	-10.1954
▁tuva	-10.1965
▁soda	-10.1987
▁lov	-10.2001
▁alun	-10.2009
▁etel	-10.2013
▁yk	-10.2022
▁kav	-10.2031
▁oha	-10.2036
lm	-10.2039
▁kuvaa	-10.2043
▁uvia	-10.2045
▁AFP	-10.2053
issa	-10.2055
▁ate	-10.2055
▁pö	-10.2061
▁teltu	-10.2061
DP	-10.2063
▁ica	-10.2063
▁iaal	-10.2079
▁aavu	-10.2085
▁ook	-10.2089
▁iemi	-10.2092
▁ök	-10.2094
▁inv	-10.2103
▁sko	-10.2105
ton	-10.2106
▁ip	-10.2107
▁leis	-10.2112
▁eeni	-10.2114
▁okk	-10.2115
▁enee	-10.2118
▁auki	-10.2125
▁Fin	-10.2125
▁jet	-10.213
▁taus	-10.2136
▁BBC	-10.2138
▁nuk	-10.2142
su	-10.216
▁kel	-10.2163
net	-10.217
▁rk	-10.2181
▁nö	-10.2183
▁ind	-10.2185
▁rut	-10.2185
▁atsa	-10.219
▁haa	-10.2194
alvo	-10.2208
▁az	-10.2209
▁urm	-10.2219
ok	-10.2219
▁gr	-10.2223
▁oste	-10.2225
▁nuori	-10.2228
▁tunn	-10.2234
S	-10.2242
▁hait	-10.2247
▁%	-10.2253
▁vaat	-10.2254
▁atr	-10.2263
▁tehd	-10.2264
▁dok	-10.2271
▁kset	-10.2273
▁eni	-10.2282
▁Leh	-10.2285
▁wa	-10.2298
leis	-10.2303
ieme	-10.2304
▁yyl	-10.2306
▁age	-10.2309
▁eino	-10.2316
kau	-10.2324
▁rem	-10.2328
▁täy	-10.2344
▁ens	-10.2347
▁suju	-10.2351
▁ow	-10.2362
K	-10.2364
▁goi	-10.2365
▁rikos	-10.2378
▁ykset	-10.2397
▁istää	-10.24
▁alm	-10.241
▁emi	-10.2416
▁uttu	-10.2423
▁ela	-10.243
▁Kir	-10.2436
▁17	-10.244
▁Q	-10.2441
▁pah	-10.2445
▁ars	-10.2448
▁mma	-10.2452
▁Sy	-10.2453
▁kut	-10.2501
etti	-10.2516
uri	-10.2519
▁aits	-10.2534
▁misen	-10.2535
▁ity	-10.2536
mä	-10.2541
aast	-10.2543
▁usei	-10.2548
taa	-10.2549
tuu	-10.2549
▁lus	-10.2569
ähän	-10.257
▁kanen	-10.2571
▁Mat	-10.2574
▁veri	-10.2581
▁dus	-10.2597
▁apor	-10.2597
▁yd	-10.2602
▁ttää	-10.2603
▁ron	-10.2605
▁los	-10.2605
▁eter	-10.2606
▁isena	-10.2609
▁lass	-10.261
▁ulj	-10.2614
▁ello	-10.2617
ev	-10.2622
ään	-10.2625
▁mer	-10.2627
unnu	-10.2647
äätö	-10.2656
▁olet	-10.2657
uh	-10.2659
▁maine	-10.266
▁eika	-10.2661
ho	-10.2662
▁elv	-10.2666
▁alua	-10.2673
▁iika	-10.2685
ikk	-10.2687
▁ern	-10.269
▁toa	-10.2693
he	-10.2695
▁araa	-10.2704
een	-10.2704
▁insa	-10.2712
▁niä	-10.2714
▁aris	-10.2714
▁auva	-10.2714
▁ohe	-10.2723
▁ane	-10.2725
▁kuka	-10.2729
opea	-10.2733
D	-10.2736
▁oksia	-10.2737
▁suos	-10.2749
erra	-10.275
▁aak	-10.2761
▁ier	-10.2761
▁lie	-10.2762
▁uhe	-10.2765
▁stra	-10.2765
▁anka	-10.2784
▁tyne	-10.2785
▁ome	-10.2786
▁reen	-10.2797
▁laa	-10.2815
all	-10.2819
äise	-10.2837
▁via	-10.2838
▁lat	-10.2841
▁pil	-10.2842
▁kirk	-10.2843
▁kkö	-10.2846
▁aide	-10.2847
▁CNN	-10.2848
▁ask	-10.2849
▁samaa	-10.2854
▁ausk	-10.2856
▁pet	-10.2874
tte	-10.2874
ch	-10.2874
▁alme	-10.2875
▁dat	-10.2876
▁hi	-10.2877
▁näy	-10.2882
▁Kys	-10.2897
▁iska	-10.2922
▁ore	-10.2925
▁koll	-10.2928
▁ley	-10.2932
▁jak	-10.2961
outu	-10.2962
▁uhr	-10.297
▁ilk	-10.2979
▁oos	-10.2992
▁iil	-10.2994
▁kea	-10.3
pää	-10.3005
▁kku	-10.3008
▁astu	-10.3027
▁arko	-10.3037
▁mb	-10.3065
▁ris	-10.3087
▁otk	-10.3107
▁senä	-10.3107
▁Me	-10.3119
▁Sai	-10.3121
tyvä	-10.3122
▁ek	-10.3125
atte	-10.3127
istä	-10.3131
▁Mc	-10.3134
▁kann	-10.3135
▁vää	-10.3136
▁ttäm	-10.3137
▁avaa	-10.3137
▁imes	-10.3142
▁nkii	-10.3154
▁anie	-10.3154
▁itu	-10.3155
▁ion	-10.3155
▁odis	-10.3157
pisk	-10.3158
▁onto	-10.3161
▁koi	-10.3168
▁äi	-10.3169
▁my	-10.3169
▁viil	-10.3171
▁yp	-10.3186
▁oon	-10.3196
▁estö	-10.3209
▁etr	-10.321
▁Pre	-10.3211
▁käs	-10.3223
▁ampa	-10.3225
▁une	-10.323
ilij	-10.324
▁olk	-10.3244
▁airas	-10.3251
▁ltaan	-10.3253
▁Gran	-10.3259
▁eron	-10.3262
▁tilaa	-10.3277
▁allis	-10.3278
▁ral	-10.3284
▁isään	-10.3289
lise	-10.33
▁allon	-10.3335
▁väksi	-10.3341
1	-10.335
▁essi	-10.3354
▁nlop	-10.3362
▁atri	-10.3365
▁ure	-10.3388
▁uhu	-10.3391
▁iel	-10.3394
▁ea	-10.3408
mar	-10.3412
▁rid	-10.3419
▁nmaa	-10.3426
▁ve	-10.3442
▁ellyt	-10.3452
▁elm	-10.3453
▁ost	-10.3459
▁Hy	-10.3468
▁ostaa	-10.3474
▁otus	-10.3492
▁aske	-10.3494
▁ment	-10.3509
▁vaik	-10.3513
uud	-10.3514
▁pite	-10.3517
stel	-10.3535
▁kkaa	-10.3537
▁seli	-10.3541
▁liev	-10.3548
▁issu	-10.356
▁ese	-10.3566
over	-10.3579
▁ngel	-10.3579
▁ältt	-10.358
▁nalle	-10.3587
and	-10.3588
▁gram	-10.3597
▁Tai	-10.3604
▁uulu	-10.3618
▁huip	-10.3627
▁ttävä	-10.3634
▁ile	-10.364
▁osit	-10.364
▁jok	-10.3642
▁otaa	-10.3642
▁mitt	-10.3658
isem	-10.3658
olem	-10.366
▁las	-10.3661
▁tuis	-10.3666
▁äkkä	-10.3675
▁dyt	-10.3679
▁ahi	-10.37
▁lyn	-10.3711
▁itt	-10.372
▁tystä	-10.372
▁iss	-10.3725
▁atko	-10.3734
▁eak	-10.3737
▁ntiin	-10.3737
▁äp	-10.3749
ila	-10.3764
▁neita	-10.378
▁kri	-10.3783
▁isiä	-10.3789
▁USA	-10.379
▁Esi	-10.3794
▁ysy	-10.3795
▁alik	-10.3797
▁yhmä	-10.3803
▁eer	-10.3806
▁oida	-10.3808
▁rat	-10.3808
▁mani	-10.3814
▁ryh	-10.3815
▁rok	-10.382
▁otu	-10.3843
siik	-10.3846
▁kk	-10.3852
▁De	-10.3858
▁tuul	-10.3862
▁vo	-10.3866
▁ttyä	-10.3867
▁elj	-10.387
▁verk	-10.3873
euvo	-10.3873
▁kivi	-10.3896
▁öjä	-10.39
▁asa	-10.39
▁q	-10.3919
ääd	-10.3942
ul	-10.3978
uo	-10.401
▁uov	-10.401
▁uran	-10.4018
▁tävää	-10.4023
▁äntö	-10.4032
▁unk	-10.4048
▁tia	-10.405
▁ch	-10.4052
▁henk	-10.4054
▁uht	-10.407
roit	-10.4086
olm	-10.4087
▁int	-10.4094
▁kol	-10.4096
▁Tur	-10.4113
▁nter	-10.4119
▁ital	-10.413
▁[	-10.4144
▁anha	-10.4152
▁iemm	-10.4152
▁toiv	-10.416
▁yll	-10.4176
▁orma	-10.418
▁kulk	-10.419
sia	-10.419
▁ape	-10.4198
▁aust	-10.4208
▁lon	-10.4214
aiki	-10.4219
▁Par	-10.422
▁inaa	-10.422
▁]	-10.4228
▁lois	-10.4249
hdis	-10.4257
▁Nik	-10.4262
▁ema	-10.4275
▁päi	-10.4282
▁sissa	-10.4286
▁seksi	-10.4289
)	-10.4299
▁kais	-10.4303
▁ritt	-10.4304
kuis	-10.4305
▁hun	-10.4323
▁ss	-10.4325
▁og	-10.4325
▁ito	-10.4326
▁Pol	-10.4345
kiv	-10.4345
▁amm	-10.435
▁verr	-10.4352
▁reit	-10.4362
▁24	-10.438
▁äme	-10.4381
tt	-10.4392
oko	-10.4394
unto	-10.4397
▁nähd	-10.4405
▁alvo	-10.4411
▁ruo	-10.4421
▁öytä	-10.4427
▁auti	-10.4432
▁Ede	-10.444
▁sih	-10.4443
▁erhe	-10.4451
▁inni	-10.4457
ppi	-10.447
sty	-10.4473
▁ulma	-10.448
▁ulta	-10.449
▁tyks	-10.4499
▁uho	-10.4509
aupp	-10.4515
▁Te	-10.4517
▁lemm	-10.4518
▁oom	-10.4519
▁ikeus	-10.4521
▁ec	-10.4531
▁valv	-10.4535
▁älä	-10.4535
▁men	-10.4545
▁sket	-10.4547
▁Kai	-10.4554
▁tän	-10.456
▁unai	-10.4565
id	-10.457
▁pak	-10.4575
▁lasi	-10.4583
▁uhk	-10.4585
▁spe	-10.4586
▁iku	-10.4587
▁Sa	-10.4592
▁htaa	-10.4593
▁osen	-10.4602
▁uli	-10.4612
▁kons	-10.4612
▁appe	-10.4613
tsal	-10.4613
▁eka	-10.4621
▁ye	-10.4622
▁eltä	-10.4633
ntu	-10.4638
▁akku	-10.4644
rjo	-10.4652
▁yyt	-10.4655
▁olu	-10.4659
▁ittu	-10.4663
▁nes	-10.4666
▁iusa	-10.4667
▁rj	-10.4691
▁äyte	-10.471
▁yte	-10.4722
▁Kur	-10.4767
▁aara	-10.4767
▁Ant	-10.4769
apau	-10.4774
▁ralla	-10.478
▁iisi	-10.4786
isi	-10.479
▁Mer	-10.48
aja	-10.4806
nsa	-10.4816
▁kossa	-10.4817
▁must	-10.4819
▁tue	-10.4821
ij	-10.4828
▁ohja	-10.4833
▁idä	-10.4842
ihin	-10.4848
▁ilä	-10.4856
ber	-10.4867
rin	-10.4871
▁öntä	-10.4874
van	-10.4876
▁HS	-10.4898
▁oen	-10.4903
▁konk	-10.4909
my	-10.491
▁omai	-10.4913
▁korva	-10.4923
▁Seur	-10.4925
ast	-10.4927
▁öt	-10.4941
okem	-10.495
4	-10.4958
▁tutu	-10.4967
▁ski	-10.4969
ttä	-10.497
▁delle	-10.4971
L	-10.4976
▁menn	-10.4977
inni	-10.4987
▁anis	-10.4988
▁pailu	-10.4998
▁ökk	-10.5005
io	-10.5013
▁ellu	-10.5015
▁Li	-10.5019
▁oneen	-10.5058
▁ntoa	-10.5063
▁itys	-10.5081
usu	-10.5082
▁pe	-10.5084
▁tont	-10.5091
▁Kok	-10.51
▁tilä	-10.5104
▁änt	-10.5112
▁nutta	-10.5113
inu	-10.5116
so	-10.5121
▁nei	-10.5122
tei	-10.5123
tyks	-10.5124
-	-10.5133
mo	-10.5133
▁rop	-10.5148
▁det	-10.5148
lli	-10.5152
▁ilja	-10.5156
iito	-10.5162
▁ankk	-10.5169
▁auha	-10.5174
▁varma	-10.5175
▁enn	-10.5181
laut	-10.5181
▁yistä	-10.5183
▁koit	-10.5185
aina	-10.5186
aist	-10.5192
▁oiv	-10.5192
▁ega	-10.5193
▁äär	-10.5193
▁änd	-10.5196
uode	-10.5199
▁oim	-10.5206
▁pasi	-10.5206
▁aitos	-10.5223
▁isenä	-10.523
aj	-10.5235
▁hetk	-10.5244
▁mala	-10.5253
▁untia	-10.5262
▁Lep	-10.5265
tor	-10.5269
tö	-10.5271
▁lly	-10.5271
▁itto	-10.5271
▁selvä	-10.5277
▁syd	-10.5278
▁eo	-10.5287
▁ose	-10.5288
▁kaal	-10.5299
▁rmo	-10.53
▁yhti	-10.5301
▁ora	-10.5315
olus	-10.5325
▁ija	-10.5328
tis	-10.533
▁yssä	-10.5332
▁isu	-10.5333
▁80	-10.5338
kino	-10.5341
▁sään	-10.5352
▁tem	-10.5352
▁allas	-10.5356
▁kyy	-10.5367
▁jaan	-10.5369
ve	-10.5374
▁nem	-10.5393
▁utui	-10.5397
▁tynyt	-10.5397
▁maaj	-10.5398
▁ousu	-10.5399
▁ivu	-10.54
taan	-10.5404
▁län	-10.5426
▁oro	-10.5428
▁pos	-10.5438
▁ähd	-10.5445
▁oilta	-10.5451
▁emma	-10.5454
▁she	-10.5461
▁iassa	-10.5462
▁ag	-10.549
▁aala	-10.5492
▁osak	-10.5494
amis	-10.5502
▁kkee	-10.5511
äär	-10.5514
▁siiv	-10.5515
uro	-10.5517
▁hav	-10.552
ava	-10.5537
▁ieto	-10.554
▁ait	-10.5544
▁dop	-10.5546
▁Caro	-10.5547
▁ttö	-10.5556
▁uuks	-10.5563
▁lou	-10.5573
▁harj	-10.5579
▁hte	-10.5593
ker	-10.5594
▁kump	-10.5607
nad	-10.5608
▁ähe	-10.5613
▁lty	-10.5617
▁iris	-10.5622
▁vist	-10.5627
▁uin	-10.5633
▁link	-10.5633
ahoi	-10.5633
▁35	-10.5635
▁eeri	-10.5638
▁miin	-10.5645
▁eik	-10.5653
▁uluv	-10.5654
▁hil	-10.5658
▁anh	-10.5659
▁kars	-10.566
▁ult	-10.5668
▁70	-10.5669
▁omero	-10.5671
▁itk	-10.5678
▁Matt	-10.5686
▁app	-10.5691
▁auka	-10.5694
llo	-10.5696
▁entää	-10.5704
▁alkan	-10.5718
▁okuv	-10.5744
P	-10.5744
▁ilm	-10.5771
▁olem	-10.5775
ttam	-10.5778
▁ute	-10.5783
ss	-10.5791
▁lis	-10.5795
▁lanti	-10.5797
▁aasu	-10.5801
▁jö	-10.5803
▁iks	-10.5805
▁Ku	-10.5816
▁äyty	-10.5822
▁uuto	-10.5824
▁ved	-10.5834
da	-10.5838
▁iell	-10.584
▁atvia	-10.5867
▁net	-10.5882
pär	-10.5883
▁ont	-10.5887
2	-10.5888
ääll	-10.589
ossa	-10.5894
▁etus	-10.5895
isto	-10.5898
▁yst	-10.59
▁iinn	-10.5902
rab	-10.5914
▁koo	-10.5915
▁läsnä	-10.5925
▁eto	-10.5931
inut	-10.5934
▁oppu	-10.5934
iehe	-10.5937
▁iste	-10.594
▁fi	-10.5945
▁yöt	-10.5952
▁avi	-10.5958
ilo	-10.5963
sy	-10.5971
▁luks	-10.5975
▁golf	-10.5988
▁otim	-10.6
▁rap	-10.6007
▁soi	-10.601
▁ähti	-10.6012
elen	-10.6045
▁matk	-10.6051
sal	-10.6059
▁avia	-10.6067
▁siä	-10.6074
▁kym	-10.609
uttu	-10.6113
urna	-10.6117
▁anss	-10.6121
▁arje	-10.6121
▁aiss	-10.6124
▁tinen	-10.6139
▁aaka	-10.6139
allo	-10.6145
▁rauh	-10.6145
▁juh	-10.6161
▁iilo	-10.6164
nsi	-10.6164
▁era	-10.6174
eis	-10.6185
▁mat	-10.6185
nno	-10.6186
ält	-10.6194
▁lent	-10.6216
▁lkee	-10.6217
llut	-10.6218
▁af	-10.6223
▁nant	-10.6237
▁anma	-10.6239
▁epp	-10.626
uut	-10.6261
▁27	-10.6263
▁inin	-10.6264
▁enin	-10.6272
erkk	-10.6284
▁Pa	-10.629
ita	-10.629
▁mpere	-10.6291
▁x	-10.6295
▁innu	-10.6298
▁Nic	-10.6308
▁eil	-10.6312
▁sijo	-10.6313
▁tt	-10.6315
▁evät	-10.6317
▁isa	-10.6324
▁aih	-10.6327
▁kala	-10.6338
▁kiva	-10.634
▁jalk	-10.6346
▁ode	-10.6347
▁ahv	-10.6352
▁23	-10.6373
▁tyk	-10.6374
iint	-10.6382
▁nten	-10.6386
▁puu	-10.6386
▁elp	-10.6397
▁altaa	-10.6397
▁olt	-10.6397
▁oso	-10.64
▁for	-10.64
▁mari	-10.6404
▁laski	-10.6413
▁tein	-10.6419
ois	-10.6422
▁teema	-10.6422
lee	-10.6426
änen	-10.6433
▁fr	-10.6434
▁rak	-10.6443
uru	-10.6444
▁orj	-10.6446
▁mist	-10.6452
▁pyst	-10.6463
▁Max	-10.6476
▁yrk	-10.648
▁Or	-10.6493
vä	-10.6494
▁aike	-10.6503
äl	-10.6504
ntee	-10.6516
▁ew	-10.652
▁amu	-10.6537
▁äily	-10.6549
▁tarj	-10.6562
lu	-10.6565
▁alk	-10.6572
▁lisi	-10.6574
ang	-10.6576
anan	-10.6577
▁aver	-10.6581
▁rill	-10.6586
▁ntia	-10.6592
▁tin	-10.6593
▁For	-10.6604
ät	-10.6613
lisi	-10.6613
rend	-10.6616
▁ävä	-10.662
▁noo	-10.6625
▁ace	-10.6625
▁yhdi	-10.6626
▁ttis	-10.6631
▁kah	-10.6633
▁aru	-10.6636
▁air	-10.6638
▁19	-10.6642
▁liv	-10.6647
▁misi	-10.6657
▁ulla	-10.6661
▁lari	-10.6662
nd	-10.6676
▁okka	-10.6689
▁utti	-10.6705
▁kari	-10.6707
▁reena	-10.6722
▁go	-10.6737
▁uunn	-10.675
▁hum	-10.6751
▁oisi	-10.6757
▁eltu	-10.6758
▁Oy	-10.6768
hit	-10.6772
▁Merc	-10.6782
▁usto	-10.6792
▁äve	-10.6793
ntam	-10.6798
▁vissa	-10.6812
ouko	-10.6816
▁luu	-10.6823
▁mal	-10.6824
yyte	-10.6832
▁Ed	-10.6832
▁sikko	-10.6833
▁ähkö	-10.6837
▁ber	-10.6849
KP	-10.6862
▁työt	-10.6867
syyd	-10.6873
▁lak	-10.6876
jan	-10.6886
▁raa	-10.6886
yvä	-10.6895
▁ikan	-10.6911
▁yön	-10.6913
▁lm	-10.6918
▁lia	-10.6918
▁unn	-10.6921
ell	-10.6924
▁iita	-10.6927
isuu	-10.6943
▁uja	-10.6944
▁äsk	-10.6944
▁vassa	-10.6964
▁pp	-10.6975
▁yti	-10.698
▁kuvat	-10.6998
▁unen	-10.7002
▁einen	-10.7007
riis	-10.7013
pi	-10.7021
▁aalis	-10.7021
▁mmo	-10.7029
▁hol	-10.703
▁imp	-10.7034
mahd	-10.7034
▁yyty	-10.704
▁Exp	-10.7055
▁arke	-10.7063
▁lio	-10.7063
▁muks	-10.7064
▁itel	-10.7067
▁äjä	-10.7069
▁rov	-10.707
▁nkk	-10.709
▁iv	-10.7107
▁ytti	-10.7108
hto	-10.7115
▁konen	-10.7116
▁kal	-10.7126
▁90	-10.7131
▁sestä	-10.7131
▁Ari	-10.7134
▁kant	-10.7135
▁kät	-10.7142
▁sorm	-10.7161
▁kunt	-10.7162
▁äisi	-10.7164
ski	-10.7167
▁tteli	-10.7185
▁aks	-10.7196
▁jou	-10.7197
▁Red	-10.7199
▁ikai	-10.7204
stä	-10.7211
▁eeksi	-10.7217
▁änny	-10.7225
▁Er	-10.7225
▁eon	-10.7246
änee	-10.7247
▁aval	-10.7263
▁uur	-10.7263
▁oc	-10.7266
▁iu	-10.7276
A	-10.7292
▁oksi	-10.7295
▁ääki	-10.7347
▁immä	-10.7349
oin	-10.7354
▁ez	-10.7357
ämm	-10.7367
itte	-10.7369
▁Aki	-10.7373
▁aivaa	-10.7373
▁22	-10.7373
uva	-10.7381
▁kär	-10.7382
▁iek	-10.7387
eljä	-10.7392
▁nl	-10.7393
▁estää	-10.7394
nnät	-10.7401
▁entaa	-10.7402
▁eos	-10.7417
▁amo	-10.742
tal	-10.743
▁tim	-10.7431
▁ikki	-10.7437
▁anth	-10.7455
w	-10.7462
▁eisk	-10.747
▁rav	-10.7471
▁tuut	-10.7478
▁innä	-10.7481
▁mman	-10.7482
▁lay	-10.7485
▁evan	-10.7492
elit	-10.7494
ag	-10.7499
▁Kaisa	-10.75
▁tuus	-10.75
▁auli	-10.7516
▁atin	-10.7528
▁atka	-10.753
▁rva	-10.7546
▁taut	-10.7547
ero	-10.7551
oker	-10.7559
aha	-10.7565
▁rati	-10.7588
▁aatt	-10.7589
▁nest	-10.759
▁ames	-10.7592
▁pila	-10.7597
▁Lat	-10.7599
aajo	-10.7611
▁dosta	-10.7615
hde	-10.7618
▁Ky	-10.7623
AK	-10.7627
▁etää	-10.7629
▁rss	-10.763
▁unne	-10.7646
orke	-10.765
▁etro	-10.7661
▁eut	-10.767
▁ullo	-10.767
oden	-10.7671
▁21	-10.7687
▁vank	-10.7696
▁ren	-10.77
▁arta	-10.7709
▁uska	-10.7717
▁ksa	-10.7723
▁uusk	-10.7723
▁lyy	-10.7732
▁br	-10.7736
▁uiv	-10.7737
▁tavaa	-10.7743
▁idea	-10.7746
▁hri	-10.7752
▁eko	-10.7753
illa	-10.7753
▁alau	-10.7757
uome	-10.7758
ika	-10.7781
▁rinen	-10.7783
▁hoi	-10.779
▁laj	-10.7793
▁vika	-10.7802
tila	-10.7813
▁be	-10.7825
▁oku	-10.7826
▁uris	-10.7827
isö	-10.7833
ing	-10.7842
oja	-10.7847
▁silta	-10.7852
rto	-10.7853
▁lassa	-10.7855
ani	-10.7857
pe	-10.7858
▁upo	-10.7862
▁ehn	-10.7867
▁Mont	-10.7876
▁keik	-10.7886
▁lku	-10.7907
▁elik	-10.791
▁As	-10.7916
men	-10.792
▁ike	-10.7921
▁lenk	-10.7925
mme	-10.7934
▁anner	-10.7936
▁soo	-10.7939
▁can	-10.7944
▁itsi	-10.7944
▁ääj	-10.7961
ie	-10.7965
▁ins	-10.7972
▁tajaa	-10.7975
▁alti	-10.7991
unno	-10.7993
▁emin	-10.8001
▁tietä	-10.8011
▁akia	-10.8018
elvi	-10.8018
ettu	-10.8022
▁joht	-10.8028
▁ekä	-10.8028
▁raal	-10.8031
▁uiva	-10.8037
akk	-10.8047
▁reun	-10.8049
▁ulm	-10.805
▁ros	-10.8062
lah	-10.8071
olla	-10.8076
▁Saa	-10.8082
▁nnet	-10.8085
▁mail	-10.8087
▁skal	-10.8106
▁tes	-10.8106
ltav	-10.8106
uodo	-10.8111
▁iedo	-10.8115
▁ue	-10.8117
▁ness	-10.8121
▁syl	-10.8128
▁uda	-10.813
▁PS	-10.8138
▁noma	-10.8148
▁nai	-10.8154
asti	-10.8156
elem	-10.8159
▁ino	-10.8161
▁emään	-10.8162
20	-10.8168
▁ato	-10.8169
▁rgi	-10.8178
▁elma	-10.8181
x	-10.8197
▁pudo	-10.8214
▁aasa	-10.8221
utis	-10.8235
▁evää	-10.825
▁paan	-10.8251
nnis	-10.8251
▁nnoi	-10.8255
▁sp	-10.8264
▁esse	-10.8267
▁ance	-10.8272
hy	-10.8272
▁hot	-10.8275
▁ande	-10.8279
▁auh	-10.8286
▁alat	-10.829
▁Toi	-10.8298
▁aate	-10.83
par	-10.8301
▁800	-10.8302
▁ca	-10.8319
▁muod	-10.8325
▁Ur	-10.8329
▁eske	-10.833
▁htiö	-10.834
ini	-10.8341
▁sh	-10.8342
▁iis	-10.8344
▁gat	-10.8352
▁ikon	-10.8359
▁erin	-10.836
evo	-10.8373
▁mpa	-10.8384
▁deb	-10.8389
▁eija	-10.839
▁ge	-10.8392
▁ltav	-10.8395
▁ram	-10.8398
neen	-10.8414
▁El	-10.8419
▁suor	-10.8425
▁uet	-10.8432
▁uee	-10.8435
▁rän	-10.8435
▁iskun	-10.8438
▁auvo	-10.8439
inai	-10.8439
hty	-10.8443
▁evi	-10.8454
▁hää	-10.8455
▁uso	-10.8458
▁uhel	-10.8463
▁ilti	-10.8473
▁tas	-10.8473
▁mys	-10.8476
,5	-10.8485
▁nim	-10.8506
▁Kouv	-10.8519
ap	-10.8519
▁Co	-10.8526
▁dig	-10.8528
ana	-10.8529
uute	-10.8539
▁esla	-10.8541
▁asku	-10.8545
▁vala	-10.855
▁inh	-10.8551
etri	-10.8551
▁mäk	-10.8566
▁emmä	-10.8567
▁lep	-10.8569
omis	-10.8572
▁Por	-10.8572
▁ary	-10.8573
ikea	-10.8583
▁stav	-10.8584
▁ytö	-10.8587
ppu	-10.86
uok	-10.8601
▁oika	-10.8604
▁Wal	-10.8607
▁uos	-10.8611
paik	-10.8614
▁aavo	-10.8626
▁Et	-10.8629
▁niuk	-10.8642
▁ulli	-10.8643
▁mann	-10.8645
▁aille	-10.8649
▁murh	-10.866
=	-10.8666
▁irr	-10.8669
▁tyvät	-10.867
▁alon	-10.867
▁jia	-10.867
inen	-10.868
▁ever	-10.8685
▁tanen	-10.8691
▁eam	-10.8692
ed	-10.8693
dp	-10.8706
▁pauk	-10.8711
essa	-10.8713
▁aast	-10.8715
▁vuod	-10.8721
▁koir	-10.8721
▁26	-10.8733
oisi	-10.8738
▁itää	-10.8743
liis	-10.8758
▁FC	-10.8761
kuu	-10.8771
▁ullu	-10.8774
▁iljo	-10.8775
▁ataa	-10.8776
▁iem	-10.878
▁ako	-10.8781
▁kolla	-10.8792
▁mana	-10.8793
▁akan	-10.8795
▁ff	-10.8797
tum	-10.8797
kon	-10.8802
▁iip	-10.8803
▁Is	-10.8818
▁iru	-10.8818
▁opo	-10.8819
ymp	-10.8821
okr	-10.8831
▁Tie	-10.8832
▁eist	-10.8837
▁mmat	-10.8839
ies	-10.8846
▁okai	-10.885
by	-10.8851
▁vaka	-10.8851
▁pist	-10.8856
▁ääv	-10.8864
loks	-10.8865
teis	-10.8871
▁GP	-10.8875
uoma	-10.8881
▁vinen	-10.8891
▁ijoi	-10.8909
▁vet	-10.8917
▁oho	-10.892
ket	-10.8924
▁To	-10.8929
▁eim	-10.8937
▁eili	-10.8945
▁aisee	-10.8951
ky	-10.8957
▁yönt	-10.8979
▁roo	-10.8998
▁moot	-10.9003
▁Col	-10.9013
▁aup	-10.9014
▁dossa	-10.9018
▁Kr	-10.9026
▁arm	-10.9027
▁vies	-10.9028
ehde	-10.903
▁öit	-10.9039
▁Elo	-10.904
iksi	-10.9044
▁ger	-10.9045
▁uoti	-10.9046
▁tajia	-10.9047
▁Maij	-10.9048
▁isar	-10.9048
▁kemi	-10.905
▁š	-10.9051
▁anch	-10.9055
▁aim	-10.9059
▁lit	-10.9097
▁mäl	-10.91
▁Mä	-10.9127
▁issi	-10.9128
▁noj	-10.9129
tai	-10.9135
▁uske	-10.9139
▁yne	-10.9142
esäk	-10.9144
▁ipe	-10.9157
skar	-10.9163
▁insä	-10.9163
nka	-10.9164
▁uuma	-10.9176
▁tea	-10.9184
one	-10.9185
▁uke	-10.9188
▁auhe	-10.9196
dist	-10.92
eit	-10.9202
▁ikoi	-10.9217
nb	-10.9223
▁ruok	-10.9228
T	-10.9228
▁ovan	-10.9234
▁emmi	-10.9243
iti	-10.9251
▁not	-10.9254
▁irk	-10.9278
▁are	-10.9291
▁ilpi	-10.9292
▁ierr	-10.9292
▁ieni	-10.9308
▁uva	-10.9309
▁45	-10.9311
emme	-10.9312
▁San	-10.932
amm	-10.9322
▁ht	-10.9323
9	-10.9326
▁uod	-10.9341
▁ynt	-10.9343
▁äni	-10.9343
▁läin	-10.9343
▁kult	-10.9344
▁ehe	-10.9359
▁enka	-10.936
▁edo	-10.9387
▁evo	-10.9394
▁lipu	-10.9398
▁ärä	-10.9405
▁iisa	-10.9419
▁Harr	-10.9427
▁agg	-10.9431
▁ärs	-10.9434
▁Sama	-10.9437
iiko	-10.9438
▁yttää	-10.9452
▁kti	-10.9456
aske	-10.9456
▁uihk	-10.9456
▁appu	-10.9458
▁taho	-10.946
urva	-10.9466
▁mie	-10.9488
min	-10.949
▁aksu	-10.9495
▁ass	-10.9502
▁Mu	-10.9512
▁reh	-10.9516
▁Vira	-10.9524
▁dip	-10.9529
▁tyn	-10.9531
▁tei	-10.9547
ksy	-10.9558
▁hjel	-10.9559
anta	-10.956
▁onse	-10.9565
ru	-10.9565
ähi	-10.9574
▁Kimm	-10.9577
▁ada	-10.9582
▁ppa	-10.9588
▁ies	-10.9602
▁Los	-10.9602
▁Turku	-10.9603
alt	-10.9605
▁öistä	-10.9605
▁öö	-10.961
▁kuo	-10.9612
▁akk	-10.9612
▁ung	-10.9614
▁St	-10.9615
▁len	-10.9619
▁Hall	-10.9624
▁äistä	-10.9625
▁osia	-10.9625
▁stap	-10.9627
▁pai	-10.9635
kut	-10.9646
▁Net	-10.9662
▁1.	-10.9668
irja	-10.9676
▁oope	-10.9685
5	-10.9694
▁kop	-10.97
▁nel	-10.9703
▁ouis	-10.9704
avid	-10.9712
oli	-10.9723
▁mällä	-10.9724
▁iov	-10.9725
▁eud	-10.9735
iton	-10.9739
▁150	-10.9749
▁inn	-10.9757
▁ation	-10.9762
jä	-10.9767
▁kave	-10.977
ir	-10.9774
ue	-10.9781
▁ehme	-10.9781
nais	-10.9792
▁lause	-10.9797
▁Ke	-10.9798
▁ykyä	-10.9809
▁Colo	-10.9816
▁hai	-10.9823
▁jut	-10.9838
▁mel	-10.9842
ju	-10.9853
▁ska	-10.9878
una	-10.9879
▁ump	-10.9889
▁Kiur	-10.9897
▁uvan	-10.9904
▁ret	-10.993
▁eppo	-10.9938
▁ric	-10.994
htä	-10.994
ogi	-10.9946
▁inal	-10.9952
▁sd	-10.997
rvi	-10.9975
▁llo	-10.9988
▁oton	-10.9998
▁lti	-11.0001
▁vy	-11.0007
▁emis	-11.0016
▁västi	-11.0016
▁akkaa	-11.0016
▁maid	-11.0026
kka	-11.0033
▁atk	-11.0034
▁nker	-11.0035
▁pr	-11.0036
▁kiek	-11.0053
ympä	-11.0056
▁him	-11.006
▁pan	-11.0074
▁wi	-11.0077
▁oks	-11.0089
▁das	-11.0092
▁one	-11.0108
▁nas	-11.0113
▁tilla	-11.0122
▁otia	-11.013
▁unno	-11.0139
▁utua	-11.014
▁kim	-11.0142
▁tter	-11.0144
▁ied	-11.0145
ova	-11.0148
▁auni	-11.0149
ijoi	-11.0154
▁ce	-11.0156
▁emo	-11.0156
▁13.	-11.0163
ura	-11.0165
▁mets	-11.0177
▁anja	-11.0178
▁uss	-11.0192
▁oder	-11.0193
idä	-11.0193
▁ntol	-11.0203
▁käi	-11.021
▁11.	-11.0212
uom	-11.0228
▁the	-11.0231
▁eih	-11.0232
▁auks	-11.0232
▁iti	-11.0238
▁Su	-11.0239
▁skin	-11.0242
▁telun	-11.0246
▁Ker	-11.0246
▁nilla	-11.0247
▁entt	-11.0247
lpo	-11.0249
ito	-11.025
▁erm	-11.0264
▁uks	-11.0266
ähte	-11.0271
▁uti	-11.0277
itta	-11.0278
▁mark	-11.0279
▁tal	-11.0308
▁gi	-11.0309
▁unu	-11.0318
▁firm	-11.033
▁itte	-11.0331
▁Hal	-11.0332
▁kkala	-11.0334
▁sc	-11.0336
▁anko	-11.0337
▁aken	-11.0347
▁saldo	-11.0349
▁JK	-11.0366
▁asv	-11.0387
äks	-11.0391
▁lys	-11.041
▁ntaan	-11.0411
ille	-11.0421
▁oinu	-11.0449
▁eits	-11.0449
▁onn	-11.0453
▁rien	-11.0456
▁28	-11.0457
oros	-11.0458
itti	-11.0469
▁€	-11.0471
erik	-11.0472
hi	-11.0474
▁yyn	-11.0477
▁ainaa	-11.0488
je	-11.0495
▁äkä	-11.0504
▁koon	-11.0504
▁posi	-11.0511
50	-11.0521
▁Rist	-11.0527
▁mii	-11.0527
aito	-11.0529
▁kauk	-11.0529
yl	-11.0529
▁eta	-11.053
▁täht	-11.0532
▁olin	-11.0533
▁oru	-11.054
▁ekka	-11.0542
▁Mi	-11.0546
lke	-11.0548
ger	-11.055
oita	-11.0556
tar	-11.0559
lis	-11.057
▁̈	-11.0577
▁pun	-11.0578
eilu	-11.0586
▁östä	-11.0587
▁unto	-11.059
etsä	-11.0595
▁Kuu	-11.0596
▁näk	-11.06
▁läi	-11.0603
▁nkiin	-11.0612
▁mall	-11.0612
ord	-11.0616
▁uott	-11.0622
lij	-11.0624
▁ärve	-11.0626
▁ranc	-11.0631
▁NBA	-11.0646
▁utuv	-11.0651
N	-11.0655
▁ns	-11.0665
▁seis	-11.0667
um	-11.0676
▁ttäi	-11.0697
▁ursk	-11.0699
▁vits	-11.0702
od	-11.0705
▁erve	-11.0706
ene	-11.0731
oide	-11.0735
▁Suz	-11.0744
▁34	-11.0747
▁Kim	-11.0756
▁atila	-11.0757
hte	-11.0762
▁yötä	-11.0772
▁kaut	-11.0789
▁ons	-11.081
ulku	-11.0825
▁otka	-11.0838
nto	-11.0849
älle	-11.0858
▁öide	-11.0861
▁12.	-11.0867
▁ttori	-11.087
▁rans	-11.0877
▁32	-11.0882
▁pla	-11.0886
▁unnas	-11.0899
▁ttuu	-11.0906
ohda	-11.0914
▁lahja	-11.0917
▁uuh	-11.0918
▁rkku	-11.0918
▁avol	-11.0928
oitu	-11.0937
▁itus	-11.0939
▁stee	-11.0955
▁iiva	-11.0958
tka	-11.0962
▁Sel	-11.0972
▁Terv	-11.0979
▁oito	-11.0981
▁outo	-11.0998
▁ambu	-11.1007
▁ler	-11.1018
nu	-11.1041
▁iihe	-11.1045
▁ppuun	-11.1049
ulje	-11.105
▁lkka	-11.1051
ska	-11.1055
▁rim	-11.1056
▁ötä	-11.1068
▁pit	-11.1072
▁kiri	-11.1072
▁otel	-11.1073
kun	-11.1085
▁rain	-11.1087
nst	-11.1101
▁maja	-11.1104
▁tyv	-11.1114
▁turma	-11.1129
▁line	-11.1135
▁elly	-11.1151
▁kyll	-11.117
▁ruk	-11.1174
pp	-11.1175
▁itäi	-11.1177
ih	-11.1208
▁erge	-11.1213
▁36	-11.1219
▁aill	-11.1222
▁dem	-11.1227
▁aimo	-11.1237
dy	-11.125
pel	-11.125
▁ukan	-11.1259
rke	-11.126
▁enj	-11.1271
▁sur	-11.1276
ail	-11.1277
iko	-11.128
▁Marc	-11.1283
▁Suo	-11.1285
▁void	-11.1291
▁turn	-11.1292
▁pot	-11.1294
▁entti	-11.1297
▁uma	-11.1298
tko	-11.1299
▁SSS	-11.1308
▁telmä	-11.1311
▁iala	-11.132
▁athe	-11.1329
▁arhu	-11.1334
▁rank	-11.1341
▁risk	-11.1344
▁apsi	-11.1353
▁tteet	-11.1354
▁omu	-11.1357
▁upp	-11.1378
▁väs	-11.1385
▁elmä	-11.1386
veri	-11.1405
▁ävän	-11.1414
▁mass	-11.1418
▁show	-11.1422
▁ayne	-11.1433
▁smi	-11.1436
▁hie	-11.1444
▁ipä	-11.1452
ttäv	-11.1466
▁iisp	-11.1477
▁lise	-11.1482
htee	-11.15
eh	-11.1509
▁Grön	-11.1509
▁joit	-11.1521
▁ranni	-11.1522
▁Pek	-11.1526
▁noll	-11.1526
vai	-11.1527
▁usin	-11.1527
▁sellä	-11.153
llin	-11.1534
▁sor	-11.1535
▁leve	-11.1536
ysä	-11.1545
ach	-11.1567
▁aas	-11.1573
▁ppu	-11.1575
▁kein	-11.1577
ong	-11.1577
▁nkki	-11.1581
▁alen	-11.1592
▁iert	-11.1598
▁700	-11.1612
▁outh	-11.1612
▁ois	-11.1623
ielä	-11.1624
▁if	-11.1625
▁LP	-11.1637
▁läp	-11.1649
▁korv	-11.165
▁ick	-11.1666
▁mas	-11.1673
▁levä	-11.1689
▁esäk	-11.1699
▁kus	-11.1707
▁ish	-11.1713
armo	-11.1723
▁ef	-11.1735
ig	-11.1739
▁auhu	-11.1743
▁tur	-11.1764
▁rvi	-11.1768
▁niid	-11.177
▁öä	-11.1772
▁29	-11.1779
VP	-11.1784
▁summa	-11.179
▁iike	-11.1792
iisi	-11.1792
▁mien	-11.1796
▁ey	-11.1801
▁viho	-11.1803
▁ann	-11.181
▁ulai	-11.1812
▁öllä	-11.1816
I	-11.1825
ic	-11.1826
▁IL	-11.1831
▁liput	-11.1834
▁Re	-11.1838
▁kij	-11.1843
3	-11.1851
▁utus	-11.1853
▁AC	-11.1854
sb	-11.1859
▁älk	-11.1866
▁omin	-11.1873
der	-11.1876
▁tuuri	-11.1877
▁hdi	-11.1879
▁västä	-11.1884
ow	-11.1887
▁Ras	-11.1888
▁Tero	-11.189
70	-11.1899
▁rme	-11.1901
▁aavat	-11.1915
▁nia	-11.1918
ff	-11.1923
▁inki	-11.1937
▁Robi	-11.1941
▁kg	-11.1944
mais	-11.1956
ino	-11.1965
▁ikeu	-11.1967
▁jar	-11.1977
▁räs	-11.1993
▁ttei	-11.2003
▁Karh	-11.2004
elm	-11.2004
G	-11.2012
▁stys	-11.2014
▁red	-11.2016
▁Group	-11.2029
▁iehe	-11.2038
▁Yh	-11.2044
▁16.	-11.2052
▁rei	-11.2053
▁ock	-11.2069
▁Ajo	-11.207
▁kan	-11.2071
ain	-11.2091
▁yös	-11.2098
ce	-11.2118
▁33	-11.212
▁sääs	-11.2123
▁oil	-11.2124
▁uhla	-11.2152
▁ath	-11.2153
▁ald	-11.2169
▁iaali	-11.217
▁rc	-11.2174
▁ba	-11.2179
▁uome	-11.2191
▁yökk	-11.2192
pä	-11.2207
▁ous	-11.221
▁teek	-11.2211
▁jär	-11.2216
kas	-11.2229
▁ntu	-11.2235
▁gin	-11.2238
▁ipp	-11.2242
▁Le	-11.2243
▁ZUMA	-11.2262
▁fto	-11.2276
▁audi	-11.2279
▁Traf	-11.2279
▁leht	-11.2281
rje	-11.2285
unte	-11.2288
wood	-11.2294
otka	-11.2294
▁tiö	-11.2303
▁ulvi	-11.2307
rag	-11.2308
änd	-11.2312
▁nett	-11.2315
▁uuni	-11.2317
▁;	-11.2318
▁Mel	-11.2329
sto	-11.233
▁vär	-11.234
▁lmoi	-11.2341
▁tani	-11.2345
▁14.	-11.2345
▁der	-11.2349
ike	-11.2358
▁inkku	-11.2361
ran	-11.237
nak	-11.2371
PS	-11.2371
▁1,	-11.2387
iä	-11.2392
▁prin	-11.2393
▁tko	-11.2398
▁miä	-11.2401
▁elit	-11.2421
▁ven	-11.2425
▁uko	-11.2435
▁ivoi	-11.2443
▁inja	-11.2444
muu	-11.245
▁MTV	-11.2451
▁kall	-11.2452
▁andy	-11.2459
▁che	-11.2459
▁vaar	-11.2474
▁ats	-11.2479
▁arma	-11.2481
hu	-11.2482
▁apau	-11.2484
▁htu	-11.2492
▁ias	-11.2495
▁Will	-11.2496
▁Fox	-11.2505
elk	-11.2506
▁Berl	-11.2511
▁del	-11.2517
▁ukas	-11.2529
B	-11.2535
▁äytä	-11.2561
▁iro	-11.2567
aini	-11.2569
▁co	-11.2572
ntoi	-11.2587
▁gh	-11.2589
▁pum	-11.2596
stu	-11.2597
▁rää	-11.2599
▁top	-11.2607
▁ulva	-11.2609
▁hat	-11.2615
▁vey	-11.2618
▁sohv	-11.262
▁ukku	-11.2626
▁kos	-11.2631
pet	-11.2637
▁urgh	-11.2637
▁akon	-11.2638
eske	-11.2639
▁eksa	-11.2639
▁keen	-11.2646
▁eessä	-11.2647
▁iipp	-11.2647
inne	-11.2652
ala	-11.2681
▁neu	-11.2683
▁20.	-11.2687
▁iest	-11.2688
näk	-11.2705
oh	-11.2727
ouse	-11.2729
▁ido	-11.273
▁uPS	-11.2745
▁aski	-11.2752
taj	-11.2753
▁eis	-11.276
▁irin	-11.2768
▁autt	-11.277
ntei	-11.2773
▁iva	-11.2788
▁ärk	-11.2788
▁15.	-11.2789
▁37	-11.2804
▁Sd	-11.2809
▁umis	-11.2816
▁niit	-11.2819
▁pui	-11.2829
inuu	-11.2843
▁teis	-11.2844
▁sken	-11.2848
lt	-11.2853
▁iiht	-11.2858
▁att	-11.2861
kus	-11.2863
▁äise	-11.2864
ent	-11.2867
▁yjä	-11.2873
▁pät	-11.2877
nta	-11.2881
▁lix	-11.2887
▁erj	-11.2888
äysi	-11.2889
▁dyn	-11.2895
▁Ex	-11.2897
▁hom	-11.2902
▁lack	-11.2911
▁Ar	-11.2928
▁7.	-11.2936
▁Aho	-11.2938
ster	-11.2946
▁uinti	-11.2955
ukai	-11.2957
▁lk	-11.2957
▁ivä	-11.2959
▁eppi	-11.296
pul	-11.2963
▁uokk	-11.2969
▁kara	-11.297
▁keit	-11.298
▁emok	-11.2983
▁last	-11.3008
up	-11.3015
dan	-11.3019
F	-11.3022
▁mith	-11.3029
▁öks	-11.3031
▁eny	-11.3033
oott	-11.3035
tz	-11.3048
▁ytt	-11.3063
▁neil	-11.3075
▁ämää	-11.3078
▁ivo	-11.3087
▁18.	-11.3089
▁ngo	-11.3101
▁auma	-11.3102
tane	-11.3104
iest	-11.3112
▁eck	-11.3115
▁reita	-11.3124
▁raut	-11.3128
▁Marg	-11.3133
▁ntav	-11.3134
man	-11.3136
▁ume	-11.3137
▁hal	-11.3138
▁nnos	-11.3141
llyt	-11.315
▁täs	-11.3156
mään	-11.3166
▁nd	-11.3179
oo	-11.3181
ick	-11.3185
▁nge	-11.3187
▁Alb	-11.3191
▁enki	-11.3192
▁17.	-11.3215
▁ville	-11.3217
▁ilt	-11.3221
▁38	-11.3225
▁sil	-11.323
▁elan	-11.3236
▁oss	-11.3244
▁Wilm	-11.3247
imm	-11.3248
M	-11.326
▁ulut	-11.3271
▁isyys	-11.3272
▁neksi	-11.3284
▁joll	-11.3289
▁udi	-11.3289
▁mpia	-11.3295
▁nnät	-11.3312
,2	-11.3314
▁Bil	-11.3317
▁Cap	-11.3319
▁hit	-11.3329
paa	-11.334
▁aama	-11.3345
▁Yö	-11.3355
R	-11.3363
▁tau	-11.3364
▁ekn	-11.3369
▁SE	-11.3386
▁wift	-11.3389
▁urg	-11.3393
old	-11.3408
▁Ni	-11.3411
isku	-11.3414
▁amuli	-11.3415
asi	-11.3416
▁telma	-11.3418
nsal	-11.3432
▁tissa	-11.3445
▁yks	-11.3457
iedä	-11.3458
oma	-11.3464
▁mein	-11.3475
▁oppuu	-11.3478
▁hii	-11.348
apu	-11.3481
yli	-11.3485
▁viin	-11.3501
▁aavi	-11.3503
▁kosta	-11.3512
uko	-11.3517
q	-11.3523
▁arr	-11.3523
▁aneet	-11.3546
▁arce	-11.3549
näkö	-11.3554
▁onia	-11.3564
▁kaav	-11.3576
▁tteen	-11.3578
▁enez	-11.3594
▁ulle	-11.3602
ock	-11.3605
V	-11.3608
▁Jan	-11.3612
ry	-11.362
▁orin	-11.3633
▁kont	-11.364
▁live	-11.3647
▁äll	-11.3647
▁JYP	-11.3651
▁Th	-11.3662
▁äytö	-11.3662
▁ysä	-11.3665
6	-11.367
▁eht	-11.3672
▁styi	-11.3693
iag	-11.3704
▁pail	-11.3705
okuv	-11.372
▁ör	-11.3721
▁emus	-11.3724
8	-11.3741
▁pass	-11.3743
ansa	-11.3755
▁iesel	-11.3756
▁rool	-11.3756
tie	-11.3765
▁yrki	-11.3786
▁rky	-11.3788
lut	-11.3793
▁rö	-11.3797
▁voin	-11.3799
▁ush	-11.38
ojen	-11.3805
▁yä	-11.3808
▁pua	-11.3814
nan	-11.3815
rii	-11.3828
▁Mac	-11.383
▁10.	-11.3848
▁lok	-11.3849
▁65	-11.3855
▁unt	-11.3856
▁39	-11.3865
▁aah	-11.387
▁PK	-11.3872
80	-11.3878
▁liss	-11.3879
▁usti	-11.3906
▁jalla	-11.3914
▁kyk	-11.3936
▁vista	-11.3941
▁paus	-11.3944
1,	-11.3947
▁lahj	-11.395
▁5.	-11.3952
uori	-11.3954
tää	-11.3959
ly	-11.3968
▁nnel	-11.3972
▁rot	-11.3973
▁puss	-11.3978
rka	-11.398
▁apeli	-11.3982
▁sun	-11.3985
▁eho	-11.399
▁eople	-11.3998
▁Mag	-11.4006
▁Adam	-11.401
▁piin	-11.4022
eb	-11.4038
▁ekt	-11.4046
▁tej	-11.4055
▁Volv	-11.4059
▁oid	-11.4064
▁alb	-11.4071
▁hdys	-11.4085
▁laus	-11.4109
▁250	-11.4116
▁urje	-11.4122
ipu	-11.4124
▁2.	-11.4126
ej	-11.4131
vist	-11.4136
▁ouse	-11.4146
ck	-11.415
▁jään	-11.4151
▁Mut	-11.4156
▁taji	-11.4157
aut	-11.416
▁keu	-11.4161
▁apo	-11.4164
▁ahin	-11.4174
hr	-11.418
▁uukka	-11.418
▁äättä	-11.4182
▁eru	-11.4182
iene	-11.4188
▁utto	-11.4192
▁kood	-11.4193
▁75	-11.4199
dä	-11.4199
▁tiiv	-11.4202
▁nat	-11.4203
jen	-11.4207
▁lava	-11.4219
elli	-11.4252
ote	-11.4256
ge	-11.4256
▁31	-11.4256
▁lian	-11.4265
▁alki	-11.4266
▁nään	-11.4267
ünch	-11.4274
▁ävi	-11.428
omi	-11.4291
tuja	-11.4293
isen	-11.4293
des	-11.4295
▁toh	-11.4295
▁*	-11.4297
▁rkk	-11.4298
▁rvo	-11.4303
imak	-11.431
▁apse	-11.4316
▁ilas	-11.4328
▁Wall	-11.4337
rja	-11.4337
▁iber	-11.4355
▁eiso	-11.4365
▁6.	-11.4384
▁kil	-11.4385
vau	-11.4389
▁uhan	-11.4392
utz	-11.4407
▁44	-11.4415
äi	-11.4418
▁riem	-11.4418
▁ergi	-11.4423
▁inai	-11.4435
ara	-11.4436
▁19.	-11.4447
▁Gold	-11.4469
du	-11.4477
▁alj	-11.4478
▁Lav	-11.4484
▁mäi	-11.4494
▁@	-11.4495
▁cha	-11.4498
htaj	-11.451
▁semi	-11.4512
▁aun	-11.4515
aks	-11.4516
uha	-11.4519
▁pas	-11.4523
äv	-11.4525
▁9.	-11.4542
▁Her	-11.4554
▁ree	-11.456
▁ae	-11.4566
onka	-11.4569
sel	-11.4571
▁Ter	-11.4572
é	-11.4573
▁Rint	-11.4574
▁onna	-11.4577
▁mäll	-11.4584
▁umu	-11.4591
simm	-11.4593
▁myks	-11.4593
▁omio	-11.4594
▁alkk	-11.462
▁8.	-11.4628
▁Eg	-11.4633
kan	-11.4637
▁oogl	-11.4638
▁yv	-11.4639
▁ampe	-11.4644
▁euv	-11.4647
▁oine	-11.4672
tune	-11.468
▁essu	-11.4683
▁maas	-11.4699
ivi	-11.4702
▁oht	-11.4707
öytä	-11.4713
▁nik	-11.4715
▁elem	-11.4722
▁Wood	-11.4725
▁lga	-11.4727
▁ält	-11.4739
▁oot	-11.4739
▁odel	-11.4743
▁ves	-11.4751
▁pull	-11.4751
▁san	-11.4766
olz	-11.4769
▁KU	-11.477
▁yss	-11.477
60	-11.478
▁Wil	-11.4781
empi	-11.4783
▁ning	-11.4811
▁ittää	-11.4815
kär	-11.4817
▁21.	-11.482
,8	-11.4821
ssi	-11.4822
▁aaha	-11.4833
▁iivo	-11.4836
eg	-11.4846
▁div	-11.4851
▁4.	-11.4855
▁30.	-11.4863
▁uen	-11.4875
▁urt	-11.4884
▁urger	-11.4891
▁Vi	-11.4904
oeh	-11.4908
▁Af	-11.4912
efa	-11.4914
▁soni	-11.4916
▁42	-11.4924
▁palj	-11.4926
alit	-11.4944
edo	-11.4961
▁Met	-11.4964
▁arh	-11.4967
oki	-11.4968
▁sku	-11.4979
▁Pan	-11.4986
di	-11.4991
▁lev	-11.4993
ulu	-11.4997
▁agne	-11.4999
aira	-11.5005
▁ulu	-11.5007
▁ttii	-11.5015
kij	-11.5019
▁kort	-11.502
rve	-11.5044
▁23.	-11.5054
▁ijat	-11.507
▁ioita	-11.5071
▁ajia	-11.5076
▁poo	-11.5086
E	-11.5107
▁>	-11.5117
▁isnes	-11.5123
▁22.	-11.513
▁nnek	-11.5131
▁TK	-11.5152
▁tro	-11.516
▁esin	-11.5162
▁uit	-11.5165
anni	-11.5166
▁jun	-11.5166
ilu	-11.5169
ras	-11.5173
▁kassa	-11.5182
että	-11.5182
▁din	-11.5193
val	-11.5195
▁tref	-11.5196
▁keä	-11.52
eura	-11.5204
▁uv	-11.5206
mmäi	-11.5214
raum	-11.5224
▁Kans	-11.5227
▁akar	-11.5247
▁staa	-11.5255
täj	-11.5256
tiiv	-11.5262
▁Noor	-11.5264
▁teht	-11.5273
ley	-11.5286
▁onka	-11.5289
▁out	-11.5302
nes	-11.5308
▁htia	-11.5309
▁auho	-11.5311
▁oron	-11.5316
▁yöp	-11.5318
7	-11.5337
▁nille	-11.5342
▁umpi	-11.5342
▁data	-11.5346
▁ABC	-11.5353
sit	-11.5354
▁istaa	-11.5355
Ei	-11.5356
nkaa	-11.5357
▁erh	-11.5365
,6	-11.5366
▁Kol	-11.5369
▁48	-11.5369
▁nun	-11.5375
VT	-11.5376
ud	-11.5402
ez	-11.5405
▁talla	-11.5406
▁rand	-11.5428
uoks	-11.5428
▁turv	-11.5431
pum	-11.5452
int	-11.5453
J	-11.5453
,7	-11.5455
eisö	-11.5458
yse	-11.5458
lerc	-11.5461
▁äytti	-11.5471
▁Oma	-11.5472
▁3.	-11.5476
▁kot	-11.549
▁aro	-11.5496
atko	-11.5496
▁ekk	-11.5497
▁46	-11.5499
▁almen	-11.5501
▁olod	-11.5501
▁ingi	-11.551
▁Gol	-11.5524
▁eine	-11.5532
▁etin	-11.5532
▁ila	-11.5533
▁orte	-11.5534
▁itio	-11.5547
ppa	-11.5554
maa	-11.5562
ohte	-11.5565
▁urn	-11.5569
C	-11.5573
ov	-11.5575
alkk	-11.558
ek	-11.5595
▁leip	-11.5609
ihd	-11.562
uno	-11.562
eidä	-11.564
▁bi	-11.5642
ääri	-11.5649
▁elaa	-11.5655
▁roa	-11.5659
▁sea	-11.5665
▁imaan	-11.5674
▁nuo	-11.5706
▁ämpö	-11.5708
▁lämä	-11.5708
▁Uu	-11.5718
lit	-11.5718
▁Sirp	-11.5719
▁ymi	-11.572
euro	-11.5723
ikka	-11.5751
▁orvoo	-11.5763
kav	-11.5764
▁äj	-11.577
co	-11.5788
aaj	-11.5796
▁lap	-11.5797
ulta	-11.5809
äsen	-11.5809
uver	-11.5811
▁iol	-11.5812
otta	-11.5815
▁aren	-11.5816
▁47	-11.5817
▁mun	-11.5819
▁luis	-11.5824
▁noja	-11.5825
▁ones	-11.5827
▁ämp	-11.5835
rand	-11.5836
▁BMW	-11.584
▁nnat	-11.5855
▁lemp	-11.5861
▁uki	-11.5876
▁Ma	-11.5879
▁jille	-11.5895
▁des	-11.5901
RC	-11.5906
▁tappo	-11.5913
gent	-11.5917
▁aato	-11.5918
▁uck	-11.5919
omar	-11.592
neks	-11.5923
▁steli	-11.5924
lmi	-11.5926
ttäm	-11.595
▁tuk	-11.5952
ajo	-11.5955
▁41	-11.5956
lust	-11.5957
▁puri	-11.5967
mman	-11.597
▁ammo	-11.5978
▁atte	-11.598
▁äris	-11.5984
▁Mah	-11.5988
öi	-11.5989
▁eve	-11.6001
▁anny	-11.6002
▁riid	-11.6008
ner	-11.602
▁leim	-11.6022
▁sid	-11.6026
▁ism	-11.6036
▁rto	-11.6039
O	-11.6048
▁nurk	-11.6054
▁pir	-11.6056
mpp	-11.6061
▁sauma	-11.6069
▁änni	-11.607
elle	-11.6076
cL	-11.6083
▁kyt	-11.6084
?	-11.6097
▁HJK	-11.61
ier	-11.6103
▁Ve	-11.6103
mpi	-11.6103
▁Ben	-11.6105
▁ähk	-11.6108
▁erbia	-11.6108
nat	-11.6109
kkaa	-11.6117
▁oint	-11.6126
▁55	-11.613
▁Aut	-11.6138
äri	-11.614
▁loku	-11.614
▁ainu	-11.6142
tau	-11.6146
uvi	-11.6147
▁hta	-11.615
▁2,	-11.6153
▁hir	-11.6157
saa	-11.6159
U	-11.6175
▁urkki	-11.6183
hän	-11.6186
▁eura	-11.6188
▁etki	-11.6193
▁outa	-11.6195
▁sum	-11.6199
▁hn	-11.6204
▁pääl	-11.6205
▁oud	-11.6208
leg	-11.6211
▁Ess	-11.6221
RP	-11.6229
▁oiti	-11.6235
▁kill	-11.624
▁kaks	-11.6246
▁lappu	-11.625
▁uupu	-11.6252
mmi	-11.6253
▁arter	-11.6266
▁enp	-11.6269
▁eria	-11.6271
rvio	-11.6272
▁jassa	-11.6277
▁28.	-11.6293
▁24.	-11.6301
▁annel	-11.631
▁Ski	-11.6337
▁okem	-11.634
ukar	-11.6342
▁öön	-11.6343
ait	-11.6345
orld	-11.6351
vid	-11.6351
▁rdi	-11.6358
rkea	-11.6361
▁säik	-11.6362
▁lt	-11.6363
▁ippa	-11.6364
▁Sh	-11.637
▁änak	-11.638
▁tuol	-11.6386
▁uija	-11.6395
▁54	-11.6418
▁tull	-11.642
▁erv	-11.6421
näj	-11.6425
▁aahe	-11.6426
▁ansk	-11.6429
▁kana	-11.6431
▁glo	-11.6437
▁itaan	-11.6442
▁uuro	-11.6445
▁dist	-11.6457
▁aant	-11.6458
alto	-11.6466
▁res	-11.6474
▁STT	-11.6475
▁ME	-11.6481
▁aska	-11.6481
▁eisto	-11.6488
▁iipu	-11.6489
▁2,5	-11.65
▁oul	-11.651
mik	-11.6521
ysym	-11.6531
▁raf	-11.6532
talo	-11.6538
▁olan	-11.6541
ert	-11.6549
▁sinn	-11.6549
tio	-11.6559
▁It	-11.656
▁itar	-11.6563
▁Korp	-11.6566
▁Mira	-11.6566
▁etti	-11.6567
▁aitta	-11.6568
▁unsi	-11.6574
lyf	-11.658
▁25.	-11.6582
nte	-11.6583
▁ets	-11.659
▁imon	-11.6596
eet	-11.6611
▁nss	-11.6617
▁NH	-11.6634
RK	-11.6643
▁gen	-11.6654
apse	-11.6674
nkar	-11.6676
▁Di	-11.6686
▁pul	-11.6691
▁sall	-11.6692
▁onal	-11.6704
▁uora	-11.6705
▁ame	-11.6707
ub	-11.6718
rva	-11.6724
del	-11.6735
ähtö	-11.6745
▁Kul	-11.6748
2,	-11.6749
▁tävi	-11.6764
▁ahtu	-11.6771
▁umpa	-11.6773
9,	-11.6776
og	-11.6782
▁Au	-11.6788
▁lint	-11.6792
▁43	-11.6812
eck	-11.6833
▁29.	-11.6833
▁ayah	-11.6833
mpä	-11.6834
▁isim	-11.6838
▁rii	-11.6849
▁matto	-11.6849
▁nh	-11.6851
▁kam	-11.6866
▁ksena	-11.6869
▁My	-11.688
yh	-11.6888
▁viiva	-11.689
oski	-11.6891
▁ilai	-11.6894
▁51	-11.69
▁You	-11.6902
yv	-11.6902
▁otis	-11.691
▁tre	-11.6915
▁jaus	-11.6919
▁ttua	-11.6921
▁26.	-11.6931
▁lb	-11.6934
yty	-11.6944
▁äst	-11.6946
ehty	-11.6957
▁nurm	-11.6962
▁mea	-11.6963
▁eää	-11.6963
▁Vuo	-11.6976
▁tissä	-11.6976
▁aiti	-11.6986
▁aajo	-11.6993
▁Buff	-11.7007
▁ersey	-11.7008
kr	-11.703
▁äyd	-11.703
▁sso	-11.7031
▁neut	-11.7036
▁Vo	-11.7037
▁lisa	-11.7043
▁auas	-11.7048
ns	-11.7059
▁har	-11.706
▁tell	-11.7067
▁rti	-11.7069
▁ooni	-11.7079
uni	-11.7085
▁Ali	-11.7089
▁oimin	-11.709
ab	-11.7101
▁stis	-11.7102
osia	-11.7116
▁bam	-11.712
essä	-11.7126
▁oolo	-11.7129
3,	-11.713
▁AP	-11.7131
▁hirm	-11.7131
▁ouver	-11.7135
len	-11.7138
▁smo	-11.7139
▁irjo	-11.7142
H	-11.7143
▁oria	-11.7156
hker	-11.7158
▁mät	-11.7166
▁dikt	-11.7173
▁iossa	-11.7174
▁tiik	-11.7174
rä	-11.7178
▁49	-11.7184
uot	-11.7194
,3	-11.7198
▁Rall	-11.7201
▁tso	-11.7215
▁Mic	-11.7225
▁ouhi	-11.7231
▁Tom	-11.7234
▁läk	-11.7236
▁rown	-11.7237
▁vihj	-11.7241
▁vill	-11.7243
▁Å	-11.7249
▁ite	-11.7257
▁äen	-11.7258
estä	-11.7261
iert	-11.7262
▁helm	-11.7266
nnyt	-11.7272
tely	-11.7281
▁ukai	-11.7303
▁oten	-11.7306
▁Aka	-11.7318
remm	-11.7329
teen	-11.733
6,	-11.7349
voi	-11.735
▁Miro	-11.7351
▁Ric	-11.7352
▁umpp	-11.7357
▁ieh	-11.736
▁eila	-11.7377
▁hau	-11.7382
lou	-11.7394
yyd	-11.7395
▁tuja	-11.7399
▁La	-11.7416
▁vart	-11.7419
▁kokki	-11.7429
▁eesta	-11.7431
▁olym	-11.7433
pal	-11.7435
▁orsb	-11.7436
ea	-11.7446
OK	-11.7446
ähet	-11.7447
nnos	-11.7454
▁umppa	-11.7458
▁Cor	-11.746
▁mää	-11.7471
▁Aku	-11.7471
▁ousi	-11.748
▁uudes	-11.748
ygg	-11.7486
▁iam	-11.7487
iva	-11.7487
aupa	-11.7491
▁Gal	-11.7493
▁Dahl	-11.7493
kym	-11.7497
▁rkis	-11.7498
▁shi	-11.7503
▁siaa	-11.7506
▁ewis	-11.7511
▁jal	-11.7514
▁rig	-11.7518
tus	-11.7523
▁ct	-11.7525
▁dol	-11.7532
▁luj	-11.7543
▁missa	-11.7545
▁akun	-11.7554
▁suj	-11.7557
hla	-11.7557
▁natsi	-11.7558
▁toip	-11.7564
▁kust	-11.7566
▁sr	-11.7568
▁enia	-11.7576
dut	-11.7583
arin	-11.7585
kai	-11.7586
ira	-11.7587
▁McC	-11.7588
aksi	-11.7594
yvät	-11.7595
▁Kirs	-11.7599
▁Rock	-11.7615
▁Ura	-11.7619
olf	-11.7619
▁hony	-11.7624
vaa	-11.7625
yksy	-11.7637
▁äke	-11.7645
▁hke	-11.7653
▁Am	-11.7655
äräj	-11.7657
▁yny	-11.7666
▁EK	-11.7673
äki	-11.7678
▁intr	-11.768
▁sity	-11.768
▁ieme	-11.7684
▁Gabr	-11.7691
rnau	-11.7693
▁iide	-11.7699
uhu	-11.7713
▁käl	-11.7732
ex	-11.7738
▁Ars	-11.7739
▁arii	-11.7739
▁hda	-11.7743
▁mak	-11.7743
▁riis	-11.7746
▁niel	-11.7747
▁mö	-11.7748
tämä	-11.7763
▁ntek	-11.7781
▁Ro	-11.7782
hta	-11.7789
ako	-11.7794
▁vu	-11.7806
ivo	-11.781
▁hee	-11.781
▁sein	-11.7811
▁nal	-11.7818
▁27.	-11.7822
▁eek	-11.7832
▁ioo	-11.7833
▁mek	-11.7839
ässä	-11.7848
▁lei	-11.7849
mer	-11.7856
aff	-11.7857
▁laut	-11.7861
▁iipi	-11.7862
▁naali	-11.7876
▁kkia	-11.7879
▁iepp	-11.788
▁reip	-11.7881
▁onk	-11.7882
▁summ	-11.7887
▁yysk	-11.7895
▁sui	-11.7897
▁tion	-11.7898
▁ando	-11.7901
▁Mil	-11.7902
▁ale	-11.7906
▁äil	-11.7919
▁Fil	-11.7922
▁Verm	-11.7932
ole	-11.7932
▁töi	-11.7932
▁ähet	-11.7934
▁uont	-11.7939
▁Pr	-11.7942
▁uulo	-11.7944
▁Azer	-11.7949
▁eroi	-11.795
▁hyvi	-11.7955
▁aiki	-11.7958
▁cm	-11.7964
▁sissä	-11.7965
▁Cal	-11.7969
▁how	-11.7974
▁aleh	-11.7978
käy	-11.7983
appi	-11.7986
tš	-11.7989
▁uitu	-11.7992
▁kei	-11.8
▁Comb	-11.8004
▁ähä	-11.8009
▁mans	-11.801
▁uudu	-11.8013
▁alin	-11.8015
ater	-11.8022
▁sista	-11.8028
▁iene	-11.8032
til	-11.8033
▁hana	-11.8037
▁anom	-11.804
ii	-11.8045
▁iiri	-11.8046
▁asse	-11.8048
MK	-11.8049
nkin	-11.8051
joi	-11.8061
▁onin	-11.8065
▁3,	-11.8073
ital	-11.8086
▁tami	-11.8094
▁rant	-11.8099
lf	-11.8107
entä	-11.8108
▁pat	-11.8108
▁eyen	-11.8109
vät	-11.811
che	-11.8124
▁matra	-11.8126
▁ekin	-11.8133
rj	-11.8137
▁enla	-11.8145
▁ouva	-11.8159
astu	-11.8161
▁lubi	-11.8171
lemm	-11.8173
▁ruud	-11.8178
▁Xi	-11.8181
▁57	-11.8185
▁erman	-11.8188
▁yyp	-11.8189
FC	-11.8191
▁mp	-11.8191
vy	-11.8195
off	-11.8197
▁Live	-11.82
8,	-11.8201
oks	-11.8206
▁isee	-11.8206
▁2-3	-11.821
aam	-11.8213
▁lf	-11.8216
rt	-11.8216
▁hdu	-11.8218
En	-11.8223
▁tot	-11.8226
kke	-11.8247
▁Ros	-11.825
▁th	-11.8254
sku	-11.8259
▁sauna	-11.8294
ierr	-11.8296
iste	-11.8305
nkä	-11.831
▁hdis	-11.8318
▁rotu	-11.8323
▁sco	-11.8333
▁vais	-11.8356
▁öll	-11.836
elee	-11.8364
▁VM	-11.8372
kos	-11.838
90	-11.8389
isia	-11.8415
tuo	-11.842
▁Club	-11.8427
▁vans	-11.8448
▁olai	-11.845
▁ach	-11.8457
▁Est	-11.8472
ammi	-11.8473
▁TPS	-11.8483
ussa	-11.8486
ond	-11.8493
▁aale	-11.8493
▁aassa	-11.8496
▁tra	-11.8496
ippa	-11.8497
▁lop	-11.8504
isäl	-11.8505
▁säh	-11.8506
▁temp	-11.8506
▁rian	-11.8508
▁rba	-11.8511
■	-11.8523
▁hen	-11.8524
lin	-11.8527
▁eitt	-11.8528
▁lek	-11.8536
otte	-11.8536
▁imet	-11.8538
▁ätti	-11.8565
▁öid	-11.8581
erem	-11.8581
▁NBC	-11.8581
ös	-11.8582
▁dek	-11.86
▁GT	-11.8602
▁kaao	-11.8609
▁ID	-11.8617
▁touh	-11.8619
ui	-11.8629
▁Es	-11.8631
▁ire	-11.8642
▁kalla	-11.8646
lem	-11.8649
▁Nat	-11.8654
▁npi	-11.8655
irmu	-11.8667
▁emä	-11.8669
▁iot	-11.8671
▁ati	-11.8673
▁usv	-11.8679
▁52	-11.868
kent	-11.8689
▁itaa	-11.8689
neet	-11.8691
iop	-11.8696
ich	-11.8702
▁Aura	-11.8703
loi	-11.8704
▁kio	-11.8704
30	-11.8704
▁önt	-11.8722
▁pakka	-11.8737
sein	-11.8761
▁saan	-11.8767
iera	-11.8796
▁aio	-11.88
▁urku	-11.8802
▁rego	-11.8823
15	-11.8832
▁Las	-11.8841
▁rät	-11.885
▁elas	-11.8851
ey	-11.8857
▁heff	-11.8859
▁Ö	-11.886
ant	-11.8864
▁tauti	-11.8871
▁puun	-11.8873
▁erkki	-11.8879
7,	-11.888
lk	-11.8883
▁Bob	-11.8892
rki	-11.8908
opa	-11.8908
▁nuel	-11.891
▁aija	-11.8918
▁tone	-11.892
▁lykk	-11.8923
▁loom	-11.8937
▁imaa	-11.8942
▁sito	-11.8943
▁inka	-11.8946
▁ynty	-11.8947
▁ner	-11.8959
▁äty	-11.8963
▁leiv	-11.8971
lme	-11.8974
▁ainz	-11.8975
▁helmi	-11.898
ep	-11.8981
unu	-11.8991
▁tåhl	-11.8992
▁Virpi	-11.8996
▁ortt	-11.9001
▁nyk	-11.9007
▁oukk	-11.9009
▁130	-11.9025
▁rio	-11.9026
▁juu	-11.9031
ox	-11.9036
eu	-11.9048
nnan	-11.9049
▁85	-11.9054
Z	-11.9063
ruz	-11.9065
▁aalu	-11.9065
▁vissä	-11.9076
▁pyr	-11.908
▁musi	-11.9081
▁loi	-11.9094
ima	-11.9104
▁Law	-11.9112
auha	-11.9114
▁umin	-11.9116
▁tykki	-11.9118
ood	-11.9121
▁ukon	-11.9129
▁56	-11.9131
tiin	-11.9132
nnet	-11.9135
▁rman	-11.9138
▁öksi	-11.9139
▁lake	-11.9148
▁ilp	-11.9153
▁nyrk	-11.916
▁sot	-11.9168
▁nuu	-11.9175
▁nkar	-11.9175
osi	-11.9176
WA	-11.9182
alon	-11.9185
▁nis	-11.9193
eld	-11.9198
X	-11.9217
▁Ry	-11.9224
▁anan	-11.9256
lan	-11.9263
ontr	-11.9265
▁apai	-11.9267
lam	-11.9277
▁inkin	-11.9286
erki	-11.9292
▁lissä	-11.9295
▁ady	-11.93
▁ahva	-11.9301
▁Cold	-11.9307
▁tm	-11.9314
▁ippo	-11.9314
▁ikää	-11.9328
iz	-11.9339
▁äne	-11.934
▁ollo	-11.9342
▁gelma	-11.9345
äin	-11.9347
ste	-11.9349
▁sep	-11.9358
▁Rosa	-11.9366
▁ji	-11.9368
▁ule	-11.9369
▁Car	-11.9374
▁ups	-11.9376
▁neid	-11.9381
▁unin	-11.9385
▁uca	-11.9387
▁Ham	-11.939
▁eens	-11.9399
wag	-11.9404
▁oteu	-11.9405
▁II	-11.9406
BI	-11.9407
kea	-11.9408
▁GM	-11.9414
▁vak	-11.9415
tim	-11.9418
enz	-11.9421
▁con	-11.9439
▁imu	-11.9444
▁low	-11.9446
▁Glob	-11.9465
▁UM	-11.9465
ga	-11.9475
▁stui	-11.9482
▁neks	-11.9484
▁tsa	-11.9494
▁aht	-11.9502
▁Ab	-11.9503
ano	-11.9503
ukka	-11.9514
ästä	-11.9517
▁pri	-11.9519
▁24,	-11.9521
▁offe	-11.9526
▁halpa	-11.9526
▁toja	-11.9535
▁ima	-11.9538
▁lusta	-11.9545
▁rieh	-11.9546
▁aps	-11.9547
▁lem	-11.9551
▁ihe	-11.9553
▁Don	-11.9557
TP	-11.9559
bá	-11.9559
ukki	-11.9578
▁pen	-11.9584
▁Amaz	-11.9586
▁oko	-11.959
▁Pia	-11.9591
▁kia	-11.9592
▁dit	-11.9594
▁leh	-11.9598
▁oopp	-11.9601
fg	-11.9605
▁ride	-11.9614
▁wall	-11.9621
▁nok	-11.9627
▁Rob	-11.9633
uka	-11.9651
▁ury	-11.9653
▁som	-11.9662
▁eti	-11.9663
▁irpp	-11.9675
▁ttila	-11.97
tso	-11.9701
▁ilkku	-11.9719
▁aji	-11.9721
ody	-11.9731
LS	-11.9735
▁lam	-11.9745
osti	-11.9762
▁Tä	-11.9767
▁koj	-11.9786
odan	-11.9797
▁Rub	-11.9805
lku	-11.9816
▁Rönn	-11.9819
▁ripu	-11.9821
▁Dor	-11.9829
▁mand	-11.983
▁Rein	-11.9831
▁58	-11.9835
▁käry	-11.9846
▁kWh	-11.9847
▁miss	-11.9847
▁inl	-11.9848
ele	-11.9857
nor	-11.9862
▁anin	-11.9872
▁Wild	-11.9876
▁möki	-11.9879
▁elg	-11.988
rty	-11.9881
▁säi	-11.9881
▁Ot	-11.9886
▁idli	-11.9888
▁lpp	-11.9892
ec	-11.9896
dec	-11.99
▁Open	-11.991
lon	-11.993
▁ääkä	-11.9936
▁Hint	-11.994
▁stää	-11.9944
▁Katj	-11.9957
▁ikal	-11.9961
▁sänky	-11.9962
▁SJK	-11.9966
▁off	-11.9981
▁owe	-11.9986
▁kkeen	-11.9997
▁rl	-12
iö	-12.0008
▁punk	-12.001
▁Oik	-12.0014
eula	-12.0014
▁kuki	-12.0022
ellä	-12.0022
rvos	-12.0025
▁tiv	-12.003
▁Lev	-12.0048
ard	-12.0048
eho	-12.0051
▁amara	-12.0057
▁Ka	-12.006
▁uhte	-12.0069
▁evin	-12.0078
▁idi	-12.0086
nn	-12.0087
ety	-12.0088
▁HSL	-12.0093
SB	-12.0098
▁itui	-12.011
noi	-12.0111
ian	-12.0117
rju	-12.0119
see	-12.0126
eppi	-12.0127
▁Go	-12.0145
▁talv	-12.0145
▁ppil	-12.0157
▁kW	-12.0158
▁hang	-12.0165
uor	-12.0165
▁Us	-12.0166
väs	-12.0167
▁rajo	-12.017
▁Aro	-12.0185
▁agle	-12.0191
HO	-12.0202
ctic	-12.0213
▁Wahl	-12.0218
▁tol	-12.0223
▁roos	-12.023
▁Barb	-12.0233
aunu	-12.0252
▁dom	-12.0267
▁ilkka	-12.0281
▁EV	-12.0283
urku	-12.0292
▁astaa	-12.0295
ech	-12.0301
▁64	-12.0313
▁Big	-12.0315
▁ytyy	-12.0317
▁iima	-12.0317
ney	-12.0324
▁oih	-12.0335
▁dis	-12.035
▁iaan	-12.0353
lma	-12.0354
isä	-12.0362
▁Öst	-12.0366
eff	-12.0371
mpu	-12.0372
-5	-12.0373
rjes	-12.0375
▁akob	-12.0376
▁erät	-12.0384
lve	-12.0385
ama	-12.0397
▁omer	-12.0399
änet	-12.0416
▁eelle	-12.0417
▁nomi	-12.0418
▁aiht	-12.0422
ehi	-12.0436
ekn	-12.0438
▁Roma	-12.0443
▁lun	-12.0449
▁Clar	-12.0452
riz	-12.0456
ua	-12.0457
iina	-12.0469
▁31.	-12.0498
rs	-12.0504
▁Lop	-12.0505
▁Adri	-12.0513
kou	-12.0514
▁eivä	-12.0516
mat	-12.0517
▁62	-12.0518
▁oudo	-12.0524
▁eu	-12.0533
▁aiho	-12.0547
▁orno	-12.0565
▁lehm	-12.0567
▁sii	-12.0569
▁hia	-12.0581
▁Ori	-12.0596
uku	-12.0603
▁aall	-12.0611
▁EHT	-12.0617
▁tuin	-12.0619
väli	-12.0622
▁ahar	-12.0626
▁ling	-12.0629
iete	-12.0635
▁All	-12.0637
▁oist	-12.0641
▁Wat	-12.0648
iski	-12.0662
▁uden	-12.0675
ip	-12.0676
etz	-12.0677
▁Mas	-12.068
ice	-12.0691
▁erik	-12.0691
▁ses	-12.0694
isk	-12.0698
▁ipsa	-12.0699
▁sas	-12.0709
SG	-12.071
▁fin	-12.0715
▁äist	-12.0718
▁kist	-12.0719
mia	-12.072
▁ipo	-12.0721
essu	-12.0727
▁59	-12.073
▁ohd	-12.0742
▁ysi	-12.0743
▁muk	-12.0744
ikki	-12.0751
▁ild	-12.0775
cia	-12.0779
▁estin	-12.0785
▁sop	-12.0801
▁ikat	-12.0803
ill	-12.0805
▁stad	-12.0821
▁korpi	-12.0824
ati	-12.0825
▁Mus	-12.0829
ros	-12.0833
▁ikro	-12.0833
▁uts	-12.0834
ukk	-12.0842
liv	-12.0842
erät	-12.0852
40	-12.0853
▁ney	-12.0866
▁iipa	-12.0867
▁lim	-12.0869
ins	-12.0873
NR	-12.0877
za	-12.0879
mb	-12.0887
▁Ger	-12.0888
oliv	-12.089
▁War	-12.0894
ux	-12.0897
▁EBU	-12.0898
▁äks	-12.0901
ston	-12.0911
uton	-12.0911
▁Rost	-12.0912
75	-12.0923
enet	-12.0924
▁tock	-12.0928
tuk	-12.093
▁hokki	-12.0931
▁oren	-12.0934
▁laf	-12.0935
▁sv	-12.0936
▁4,	-12.0937
ilja	-12.0938
▁gall	-12.0954
lmen	-12.0967
▁ilpp	-12.0976
▁Bir	-12.0982
▁Gar	-12.0982
▁okr	-12.0992
▁aalla	-12.0996
uee	-12.0997
▁äätö	-12.1
lpa	-12.1004
▁jeng	-12.1008
▁Ou	-12.1008
ou	-12.1013
rk	-12.1015
▁kip	-12.1027
▁err	-12.1035
▁Duba	-12.1043
▁onaco	-12.1047
▁Jar	-12.1049
teb	-12.105
▁ampo	-12.1057
yksi	-12.1062
▁sup	-12.1068
▁simm	-12.1078
▁US	-12.1082
▁olta	-12.1083
▁ilku	-12.1097
▁etso	-12.1105
olis	-12.1106
▁eell	-12.1112
▁eder	-12.1113
▁eur	-12.1113
▁uvat	-12.1113
▁unte	-12.1121
▁semm	-12.1123
▁uura	-12.1131
▁sapp	-12.1141
▁fer	-12.1143
urma	-12.1154
mist	-12.1158
▁liuk	-12.1163
▁äse	-12.1165
▁−	-12.117
▁oina	-12.117
▁semp	-12.117
▁aupa	-12.1179
▁thl	-12.1179
▁Gaud	-12.1187
▁ännä	-12.1191
IA	-12.1196
▁iia	-12.1197
▁unner	-12.1203
▁synt	-12.1205
▁tii	-12.1206
▁140	-12.1215
▁enet	-12.1224
▁uulos	-12.1224
▁Edu	-12.1229
lob	-12.1235
▁rooks	-12.1238
▁ääs	-12.1245
▁Air	-12.1253
▁Räis	-12.1269
š	-12.1288
oku	-12.1291
▁keva	-12.1294
▁Sag	-12.131
ippo	-12.1313
olo	-12.1317
ace	-12.1318
▁urh	-12.1319
▁sens	-12.1319
▁azer	-12.1336
itt	-12.1336
yyl	-12.1337
▁öns	-12.134
alo	-12.1352
▁Jarn	-12.1363
iput	-12.1367
▁ettaa	-12.1369
eppo	-12.1375
ark	-12.138
▁erto	-12.138
NA	-12.138
▁sink	-12.1387
▁Sp	-12.1394
▁äky	-12.14
▁acob	-12.1412
▁imag	-12.1413
ca	-12.1415
go	-12.1425
▁nista	-12.1428
▁vil	-12.143
▁otii	-12.1432
▁idaa	-12.1433
▁graf	-12.1438
▁TM	-12.1442
▁ltava	-12.1449
▁api	-12.1454
ari	-12.1459
▁EPP	-12.147
▁roit	-12.147
osta	-12.1477
▁jah	-12.148
▁rie	-12.1483
heil	-12.1487
iitt	-12.1491
▁Comp	-12.1491
▁3,5	-12.1492
▁utaa	-12.1493
▁isney	-12.1497
apa	-12.1502
oppi	-12.1525
▁72	-12.1549
▁jumb	-12.155
▁tapo	-12.1552
▁nilk	-12.1554
▁ievi	-12.1561
inoa	-12.1564
▁onki	-12.1564
▁nso	-12.1577
jel	-12.1578
▁uust	-12.1582
▁rh	-12.1586
▁ntoon	-12.1589
ankk	-12.1592
▁tänn	-12.1596
oida	-12.1599
med	-12.16
▁aros	-12.1603
ida	-12.1606
lton	-12.1606
▁taki	-12.1613
▁ourn	-12.1613
▁lakk	-12.1618
▁edro	-12.162
wer	-12.1621
▁53	-12.1622
▁happo	-12.1632
▁anaa	-12.164
▁turi	-12.1647
ahka	-12.1648
▁tist	-12.1665
▁66	-12.1668
▁uthi	-12.1675
igg	-12.1681
▁oker	-12.1682
rah	-12.1683
▁eide	-12.1687
▁nb	-12.1694
▁lerc	-12.1711
if	-12.1712
▁keul	-12.1714
▁hd	-12.1716
▁Aira	-12.1717
▁repe	-12.1719
▁nolo	-12.1729
hua	-12.1729
ris	-12.1739
tama	-12.1744
▁raam	-12.1749
▁aukko	-12.175
▁ruc	-12.1751
ny	-12.1756
▁äijä	-12.1756
▁star	-12.1758
kuv	-12.1759
YT	-12.176
uv	-12.1763
▁hier	-12.1765
▁WLTP	-12.1768
ril	-12.1769
mal	-12.1771
metr	-12.1782
▁itol	-12.1787
▁110	-12.1809
▁kua	-12.1809
▁pea	-12.1815
nk	-12.1816
ön	-12.1824
▁uivu	-12.183
▁omme	-12.1833
ase	-12.1846
▁opa	-12.1848
▁67	-12.1851
onku	-12.1852
▁von	-12.1857
rik	-12.1867
lvo	-12.1875
▁nats	-12.1876
▁aako	-12.188
▁iisaa	-12.1881
aiva	-12.1885
▁ej	-12.1892
▁nain	-12.1894
▁nony	-12.1897
krob	-12.19
nät	-12.1902
▁Pro	-12.1911
▁klub	-12.1911
nter	-12.1912
▁istan	-12.1913
pur	-12.1914
▁øiby	-12.1922
▁RoKi	-12.1923
▁nav	-12.1951
▁urri	-12.196
▁Amb	-12.197
▁lant	-12.1973
rist	-12.1982
nav	-12.2009
▁teph	-12.2012
▁hame	-12.2013
▁Kov	-12.2013
aljo	-12.2014
▁Py	-12.2016
▁olv	-12.2017
gor	-12.2018
rau	-12.2019
▁Urs	-12.203
▁ledo	-12.2043
▁ersu	-12.2055
yers	-12.2059
▁77	-12.2066
ntoj	-12.2066
teri	-12.2068
▁IC	-12.2069
▁ADHD	-12.2078
▁kupl	-12.2079
▁olas	-12.2083
▁rön	-12.209
▁äre	-12.2096
▁Win	-12.2098
aiko	-12.2099
▁ulha	-12.2099
▁cu	-12.2101
▁rja	-12.2104
▁aff	-12.2105
▁pie	-12.211
▁sch	-12.213
tom	-12.2137
iit	-12.2142
ielt	-12.2151
▁nkä	-12.2155
▁rho	-12.2159
▁Alfa	-12.2161
rro	-12.2183
▁inger	-12.2187
▁uter	-12.2187
▁gn	-12.2187
▁rvos	-12.2192
▁ps	-12.2199
rpe	-12.221
▁staf	-12.222
▁etra	-12.2227
▁lmaa	-12.2236
▁Ero	-12.2236
▁taav	-12.2239
▁kuud	-12.2252
▁arp	-12.2257
▁ksee	-12.226
▁bar	-12.2284
▁eise	-12.2285
az	-12.2292
▁iana	-12.2294
▁ysk	-12.2302
▁kart	-12.232
tur	-12.2324
tki	-12.2328
▁Lah	-12.2334
▁öd	-12.2334
▁täh	-12.2337
ld	-12.2341
▁82	-12.2352
▁tik	-12.2357
uun	-12.2361
▁roth	-12.2362
▁63	-12.2363
lvi	-12.2366
▁ice	-12.2376
▁kond	-12.2377
tiö	-12.2378
▁pisk	-12.2379
▁urkku	-12.2386
▁aili	-12.2387
itch	-12.2392
25	-12.2392
nsä	-12.2395
▁rida	-12.2408
▁arge	-12.2409
▁Š	-12.242
▁ona	-12.2426
▁wood	-12.2427
kop	-12.2428
▁geo	-12.2443
▁oinn	-12.2445
ler	-12.2447
▁ager	-12.2448
▁ämär	-12.2454
▁dire	-12.2455
▁erso	-12.246
▁piru	-12.247
▁uolt	-12.2472
▁ymm	-12.2473
▁ihi	-12.2486
▁Lee	-12.2489
▁jall	-12.249
erb	-12.2493
▁Hell	-12.2495
esta	-12.25
äivi	-12.2502
▁soke	-12.2544
aju	-12.2545
▁uci	-12.2545
aasu	-12.2549
▁Herm	-12.2553
▁NFL	-12.2561
▁Tove	-12.2565
alki	-12.2566
▁irku	-12.2591
▁Ukr	-12.2603
▁kuum	-12.2604
nti	-12.261
▁yste	-12.261
▁urp	-12.2612
ddy	-12.2614
▁dam	-12.2615
▁Verh	-12.2623
▁Rodr	-12.2632
▁61	-12.2638
▁Veri	-12.2642
nnu	-12.2643
▁68	-12.2651
▁Pä	-12.2653
apaa	-12.2662
▁lind	-12.2672
▁olma	-12.2685
ampu	-12.2685
opi	-12.2689
▁tumi	-12.2692
stö	-12.2696
lom	-12.2704
▁lini	-12.2708
▁Miha	-12.2708
▁ril	-12.2709
orit	-12.271
oje	-12.2717
▁umpu	-12.2724
▁1-2	-12.2728
▁Bab	-12.273
ämis	-12.2743
▁mouth	-12.2747
▁tab	-12.2748
▁rt	-12.2748
ede	-12.275
▁nasta	-12.2752
▁eki	-12.2761
eksi	-12.2773
▁eivo	-12.2778
▁sena	-12.2779
▁69	-12.278
▁hiff	-12.2791
onb	-12.28
▁vert	-12.2803
▁foo	-12.2806
▁Op	-12.2807
mit	-12.2814
idz	-12.2819
▁erkk	-12.2828
▁iipo	-12.2832
▁äht	-12.2835
täjä	-12.2835
suk	-12.2836
ulo	-12.2836
▁pär	-12.2836
▁nahk	-12.2842
▁andr	-12.2845
inna	-12.2847
▁rip	-12.2855
▁kur	-12.2858
▁sinut	-12.2862
▁its	-12.2867
▁litse	-12.2877
▁Ross	-12.2878
avan	-12.288
▁pis	-12.289
▁3-4	-12.2897
▁ador	-12.2915
imit	-12.2916
▁käv	-12.2934
▁Gard	-12.2936
ax	-12.2948
▁Gra	-12.2954
▁sus	-12.2958
▁ogg	-12.2967
uck	-12.2971
diz	-12.2975
▁6,	-12.299
▁aami	-12.2999
uuta	-12.3022
esti	-12.3024
▁äck	-12.3036
▁dl	-12.3047
luv	-12.3051
ori	-12.3058
▁gam	-12.3058
▁medi	-12.306
▁supi	-12.3084
▁irror	-12.3084
▁ilto	-12.3088
▁Mal	-12.3091
▁rina	-12.3101
▁avai	-12.3102
tys	-12.3123
▁olum	-12.3134
▁adi	-12.3141
▁viik	-12.3147
alle	-12.315
▁ross	-12.3154
▁ihl	-12.3155
▁lika	-12.3156
▁enta	-12.3173
▁Nig	-12.3175
▁Tuul	-12.318
▁lans	-12.3188
▁Mia	-12.3195
▁laiv	-12.3208
▁imai	-12.322
▁kass	-12.3224
▁Ron	-12.3226
▁intia	-12.3227
▁ken	-12.323
▁dorf	-12.3231
▁elon	-12.3235
itz	-12.3236
▁lanc	-12.3244
▁ring	-12.3247
vit	-12.3248
▁ICC	-12.325
▁dahl	-12.3274
▁eth	-12.3275
▁BY	-12.3277
▁450	-12.3279
▁rede	-12.3289
▁lasit	-12.3295
▁stock	-12.33
▁95	-12.3302
eutu	-12.331
zh	-12.3311
nist	-12.3323
ance	-12.3328
▁umni	-12.3328
LL	-12.3339
▁agr	-12.334
iff	-12.3346
ac	-12.3349
▁rmi	-12.3353
▁amf	-12.3354
oti	-12.3355
10	-12.336
▁agma	-12.3365
▁esp	-12.3367
▁PM	-12.3382
▁DC	-12.3385
▁tauko	-12.3401
rvo	-12.3401
asu	-12.3402
▁emen	-12.3406
onno	-12.3408
▁gl	-12.3411
▁alama	-12.3413
▁ntal	-12.3416
▁AKT	-12.3435
▁eat	-12.3437
▁syi	-12.3451
▁ence	-12.3452
▁ehm	-12.3453
▁loog	-12.3479
udet	-12.3485
ijo	-12.3486
▁hv	-12.3489
▁ophi	-12.3498
▁Ra	-12.3502
▁urvo	-12.3512
▁Mir	-12.3512
▁sort	-12.3514
▁Temp	-12.3518
nun	-12.3521
aisu	-12.3524
▁sän	-12.3524
▁nää	-12.3528
▁äk	-12.3537
▁avis	-12.3543
▁moi	-12.3545
imo	-12.3554
iak	-12.3559
▁aamaa	-12.357
taja	-12.358
▁tör	-12.3583
▁Bo	-12.3587
▁Nas	-12.3588
▁ave	-12.3595
ence	-12.3597
ohto	-12.3597
ild	-12.3606
arvo	-12.3607
rd	-12.3609
▁annet	-12.3612
▁kr	-12.3618
▁ESP	-12.3622
▁Oul	-12.3623
▁Maj	-12.3623
ena	-12.3624
mp	-12.3627
"	-12.363
osc	-12.3636
iver	-12.3636
▁rapu	-12.3639
▁73	-12.3645
▁byr	-12.365
ht	-12.3656
nö	-12.3657
äh	-12.3663
▁ukk	-12.3667
▁alos	-12.3694
ib	-12.3697
▁ilua	-12.3698
äng	-12.3703
▁rink	-12.3708
▁asin	-12.3713
uto	-12.3713
▁Cost	-12.3716
auti	-12.3724
35	-12.3735
sh	-12.3744
▁ärpi	-12.3744
los	-12.3746
oro	-12.3749
tler	-12.3753
ntis	-12.3756
▁nf	-12.3758
▁Kan	-12.3763
▁ufva	-12.3765
▁ool	-12.3777
▁sei	-12.3792
▁kkoon	-12.3796
5,	-12.3808
▁kup	-12.3809
▁5,5	-12.382
▁vere	-12.3823
oist	-12.3826
aman	-12.3828
▁OP	-12.3836
SW	-12.3846
▁kuut	-12.3846
▁aadu	-12.3854
▁orni	-12.3854
aur	-12.3854
uluu	-12.3856
▁diok	-12.3864
kais	-12.3869
▁tuur	-12.3869
▁vaim	-12.3874
▁eina	-12.388
olar	-12.3883
iusa	-12.3885
▁mär	-12.3889
▁yin	-12.3905
▁IIH	-12.3906
▁orne	-12.3908
tava	-12.391
▁sak	-12.3914
▁naal	-12.3919
▁88	-12.3923
nko	-12.3927
af	-12.3927
MP	-12.394
▁RoP	-12.3949
oppa	-12.3952
▁Wi	-12.3961
▁rb	-12.3962
sio	-12.3966
▁tke	-12.3967
▁Stu	-12.3968
kis	-12.3973
▁sakon	-12.3974
▁nossa	-12.3978
▁SYÖ	-12.398
▁Card	-12.3986
▁ääl	-12.4001
aat	-12.4015
▁swa	-12.4015
igu	-12.4017
▁ioi	-12.4026
▁Cole	-12.403
▁lang	-12.4032
stam	-12.4032
▁ilan	-12.4033
Se	-12.4041
▁lann	-12.4041
▁upa	-12.4046
▁Edw	-12.4054
▁tahti	-12.4054
▁Ruu	-12.4063
▁kasta	-12.4086
har	-12.4089
▁78	-12.4089
ivät	-12.4092
TA	-12.4098
W	-12.41
▁etes	-12.4101
tro	-12.4106
▁Fif	-12.4121
▁intu	-12.4135
▁saac	-12.4136
avig	-12.4167
4,	-12.4172
▁74	-12.4173
nai	-12.4182
almi	-12.419
▁Match	-12.4193
▁agua	-12.4195
▁Sun	-12.42
IF	-12.4202
▁Grah	-12.4207
▁tri	-12.4207
imb	-12.421
▁dler	-12.4213
▁8,	-12.4217
▁esal	-12.4225
▁layo	-12.4234
nig	-12.4248
rig	-12.4258
▁hk	-12.4258
▁anu	-12.4264
eag	-12.4265
anja	-12.4265
▁ääst	-12.4279
▁eel	-12.4283
▁äyn	-12.4286
ata	-12.4293
▁ymis	-12.4308
▁fa	-12.4312
▁pale	-12.4314
▁laam	-12.4316
▁rigo	-12.4316
dog	-12.4329
▁raus	-12.4332
▁bu	-12.4339
liit	-12.4342
▁87	-12.4343
vut	-12.435
▁lott	-12.4352
▁2-0	-12.4368
▁orbes	-12.4371
▁AOP	-12.4371
itu	-12.4375
▁ahte	-12.4384
▁Vie	-12.4396
umme	-12.4399
▁teem	-12.4401
▁Suu	-12.4404
▁kumpu	-12.441
▁Top	-12.4417
▁alal	-12.4417
▁86	-12.4417
▁ondo	-12.442
▁kem	-12.4423
nit	-12.4428
tin	-12.4433
▁haw	-12.4436
▁Mun	-12.4441
▁iego	-12.4448
▁ilkk	-12.4453
tr	-12.4453
uff	-12.4471
▁akki	-12.4482
▁hort	-12.4486
aadu	-12.4508
▁RB	-12.4509
rmo	-12.451
▁5,	-12.4511
▁syn	-12.4514
-7	-12.4521
▁uots	-12.454
▁lakki	-12.4543
▁Sé	-12.455
▁duum	-12.4551
▁Mos	-12.4557
▁sip	-12.4562
▁ahka	-12.4566
▁Bell	-12.457
▁aapo	-12.4573
▁Mai	-12.4574
▁reg	-12.4599
▁Rolf	-12.46
▁elat	-12.4603
gy	-12.4605
dio	-12.4611
ikoi	-12.4616
▁laud	-12.4617
ound	-12.4618
ein	-12.462
▁tettä	-12.4621
▁isy	-12.4622
▁enge	-12.4623
▁oksen	-12.4625
▁niska	-12.4633
▁Nobe	-12.4635
▁sema	-12.4646
▁saad	-12.4653
CR	-12.4656
uus	-12.4662
▁aalt	-12.4667
ort	-12.4671
▁mpu	-12.4672
▁Dub	-12.4675
WF	-12.4678
▁desi	-12.468
KV	-12.4682
▁pall	-12.4687
▁uih	-12.4698
lau	-12.4699
▁itma	-12.4702
zb	-12.4704
▁ökkä	-12.4709
▁kuppi	-12.4711
▁ikke	-12.4711
▁tust	-12.4721
atti	-12.4735
▁aupp	-12.474
iset	-12.4746
▁rett	-12.4747
▁orsa	-12.4754
▁Nils	-12.4755
▁Kump	-12.4757
▁Kes	-12.4761
▁Via	-12.4762
▁ts	-12.4762
ajur	-12.4763
mär	-12.4765
sp	-12.4768
/	-12.4773
oito	-12.4773
som	-12.4777
▁urin	-12.4785
lppi	-12.4785
▁hapo	-12.4786
gi	-12.4789
▁Haat	-12.4789
▁nist	-12.4791
▁Lamb	-12.4793
▁too	-12.4795
▁lmi	-12.4805
▁rosta	-12.4808
▁aie	-12.4813
▁kak	-12.4819
olle	-12.4835
▁oda	-12.4836
▁jost	-12.484
muel	-12.4842
▁rodu	-12.4844
aus	-12.4847
nos	-12.4849
uvo	-12.4852
▁Wolf	-12.4857
▁aster	-12.4861
▁lät	-12.4861
▁Abu	-12.4862
war	-12.4863
▁race	-12.4869
▁pia	-12.4873
▁iete	-12.4874
▁rais	-12.4889
uol	-12.4896
▁kuj	-12.4897
eder	-12.4898
▁assit	-12.4902
▁rost	-12.4903
ack	-12.491
▁BC	-12.4918
▁Geo	-12.4924
äs	-12.4928
▁tari	-12.4932
▁Abba	-12.4943
▁uupa	-12.4944
▁kain	-12.4953
▁BB	-12.4961
iel	-12.4966
▁edi	-12.4967
▁taud	-12.4983
oive	-12.4996
▁Hild	-12.501
▁enci	-12.5011
▁lobe	-12.5016
▁rima	-12.5022
▁iehu	-12.503
▁duun	-12.5031
▁med	-12.5037
▁adal	-12.5037
lus	-12.5039
itio	-12.5042
▁aai	-12.5057
tto	-12.5066
▁81	-12.5069
▁aitl	-12.5072
▁akav	-12.5077
▁owl	-12.508
eid	-12.5086
▁MV	-12.5087
gas	-12.5087
▁1)	-12.5091
▁kis	-12.5092
▁eitse	-12.5104
▁nati	-12.511
ärkä	-12.5111
▁ijo	-12.5122
▁Aff	-12.5134
▁llan	-12.5139
tol	-12.5142
▁uman	-12.5147
und	-12.5148
▁Maz	-12.5153
▁laad	-12.5154
▁kouk	-12.5156
▁ynä	-12.5158
▁komi	-12.5159
▁torp	-12.5168
▁ölkk	-12.5176
ric	-12.5187
▁2)	-12.5193
▁telut	-12.5197
▁Macc	-12.52
▁76	-12.5202
▁STM	-12.5202
▁itts	-12.5204
akar	-12.5207
▁Robb	-12.5214
▁Gla	-12.5217
▁nero	-12.5218
▁öysti	-12.5227
▁ruun	-12.523
▁Gib	-12.5237
▁viru	-12.5243
▁söi	-12.5246
▁TP	-12.5246
▁Lak	-12.5247
▁Fab	-12.5248
hin	-12.5251
BS	-12.5256
gr	-12.5261
lko	-12.5262
▁kille	-12.5281
iho	-12.5281
ula	-12.5287
▁amid	-12.5293
▁Mali	-12.5299
vain	-12.5305
ift	-12.5309
ermo	-12.5311
▁sunn	-12.5311
▁utch	-12.5324
▁Caru	-12.5326
oon	-12.5326
▁Bal	-12.5327
▁eff	-12.5329
▁Jer	-12.533
▁Kia	-12.5342
▁olis	-12.5344
▁ipal	-12.5358
▁ossu	-12.5362
▁uuha	-12.5365
▁lip	-12.537
▁bel	-12.5377
▁Cha	-12.5378
▁iinaa	-12.5383
▁ursu	-12.5396
▁lpin	-12.5399
▁yg	-12.5405
а	-12.5408
aka	-12.541
▁Gr	-12.541
▁apnea	-12.5415
▁Bird	-12.5417
vis	-12.5418
▁ohte	-12.542
▁okuva	-12.5424
▁repi	-12.5431
▁niv	-12.5435
esi	-12.5439
▁Terh	-12.5444
▁isco	-12.5447
▁Airi	-12.545
55	-12.5454
▁jev	-12.5455
▁kuk	-12.5458
▁iota	-12.546
Tu	-12.5467
uono	-12.5469
met	-12.547
arhu	-12.5475
▁skan	-12.5477
kak	-12.5478
ze	-12.5481
▁iand	-12.5485
▁Poh	-12.5488
soi	-12.5491
las	-12.5503
▁näe	-12.5516
bul	-12.5522
ré	-12.5524
its	-12.5536
änyt	-12.5537
▁orre	-12.5555
cz	-12.5559
▁odo	-12.5569
▁Ri	-12.5572
▁ipsi	-12.5577
▁iint	-12.5584
▁oppo	-12.5585
▁sijaa	-12.5586
▁ymä	-12.5587
▁Ba	-12.5593
▁hou	-12.5599
▁mökk	-12.5601
▁Pes	-12.5603
▁far	-12.5607
▁rey	-12.5641
▁lonso	-12.5641
▁tsal	-12.5647
sity	-12.565
▁sine	-12.5656
▁tten	-12.5661
▁Lov	-12.5667
▁oday	-12.5675
▁WS	-12.5678
vah	-12.5684
▁Kumm	-12.5685
▁ittä	-12.5685
▁lach	-12.5687
▁näp	-12.5694
▁uoje	-12.5694
▁Nige	-12.5696
san	-12.5699
yd	-12.5708
▁absu	-12.571
ob	-12.5713
▁ård	-12.5719
▁telm	-12.572
keus	-12.5723
▁Gord	-12.5724
GA	-12.5733
▁reda	-12.5739
▁reis	-12.574
▁uolla	-12.5743
iks	-12.5751
▁hart	-12.5762
▁Osm	-12.5768
▁Tah	-12.5778
▁Doug	-12.5786
▁Vah	-12.5789
▁udis	-12.5789
▁lako	-12.5791
ug	-12.5792
▁izz	-12.5798
▁Vä	-12.58
kal	-12.5801
geo	-12.5811
▁Del	-12.5813
▁väll	-12.5814
▁hei	-12.582
▁aisio	-12.5823
▁OI	-12.5824
koo	-12.5826
▁önki	-12.5832
ung	-12.5844
AA	-12.5845
aq	-12.5846
▁hass	-12.5857
▁juna	-12.5867
▁Paj	-12.5871
isti	-12.5873
▁lopp	-12.5875
▁stedt	-12.5879
▁argu	-12.588
▁Rat	-12.5885
▁ahoi	-12.5885
▁iida	-12.5891
▁4,5	-12.5892
ulee	-12.5899
▁napp	-12.5901
▁oost	-12.5905
▁ridg	-12.5916
uoll	-12.5922
▁Lag	-12.5922
▁Mond	-12.5923
▁Armi	-12.5927
ija	-12.593
▁leipä	-12.5934
ili	-12.5937
▁imar	-12.5953
▁vihk	-12.5964
▁ärmä	-12.5964
▁opra	-12.5972
hmo	-12.5987
▁ärsk	-12.5988
läk	-12.5991
▁lmo	-12.5992
▁apar	-12.5998
▁Hard	-12.6006
▁tš	-12.6009
▁Thom	-12.6009
▁kuun	-12.601
▁Tee	-12.601
lgar	-12.6017
pin	-12.602
▁innon	-12.6029
▁Ren	-12.6034
▁kyp	-12.6042
▁ione	-12.6052
▁ohto	-12.6055
▁uz	-12.6055
▁iq	-12.6077
alf	-12.6079
etta	-12.608
eht	-12.6084
kti	-12.6089
▁Ritv	-12.609
▁urme	-12.6093
II	-12.6093
etš	-12.6096
▁bra	-12.6097
▁å	-12.61
▁evge	-12.6102
▁tit	-12.6109
▁Wing	-12.6139
▁idl	-12.6145
wa	-12.6149
▁alou	-12.6154
uma	-12.6155
oke	-12.6169
▁Wic	-12.617
▁ukki	-12.6171
▁raud	-12.6188
mppa	-12.6191
▁hmi	-12.6193
▁pih	-12.6196
▁maz	-12.6196
▁dos	-12.6197
▁ees	-12.6202
▁á	-12.6206
ts	-12.6214
▁omeo	-12.6217
ppo	-12.6217
▁otsh	-12.6223
▁aivu	-12.623
▁sse	-12.6242
▁oihu	-12.6244
▁roc	-12.6249
tun	-12.6252
ett	-12.6264
▁aluk	-12.6265
rpi	-12.6281
е	-12.6285
▁ntar	-12.6286
▁etk	-12.6303
▁aso	-12.6306
▁VR	-12.6311
▁hina	-12.6312
▁kius	-12.6321
▁JP	-12.6323
▁eilu	-12.6327
▁3-0	-12.633
▁2-1	-12.6333
▁Airb	-12.6335
▁joi	-12.6341
▁AI	-12.6346
▁iola	-12.6348
▁uinn	-12.6349
▁acq	-12.6353
▁Cas	-12.6361
och	-12.6362
▁rince	-12.6366
auto	-12.6373
▁An	-12.6374
▁ilton	-12.6391
iss	-12.6394
▁own	-12.6401
MM	-12.6401
▁ezi	-12.6402
▁alib	-12.6402
▁nga	-12.6405
äy	-12.6406
▁irst	-12.6413
ron	-12.6417
▁Yo	-12.6431
▁Öl	-12.6439
ntä	-12.6445
▁Do	-12.6456
olpp	-12.646
85	-12.6463
itse	-12.6465
▁Eve	-12.6475
UE	-12.6479
▁ouhe	-12.6483
Y	-12.6489
▁ooli	-12.6505
▁SKA	-12.6512
ymä	-12.6513
▁ailu	-12.6521
äm	-12.6523
opp	-12.6524
äj	-12.6534
▁olli	-12.6536
▁Aug	-12.6539
yks	-12.6541
ngin	-12.6546
iber	-12.656
▁Wemb	-12.6575
▁Lip	-12.6575
▁hamp	-12.6576
örä	-12.6577
tej	-12.6583
▁Cy	-12.6591
▁Alf	-12.6598
▁rog	-12.6611
▁tiaa	-12.6629
▁79	-12.6631
▁gel	-12.6632
▁nki	-12.6633
▁Thor	-12.6635
▁ony	-12.6636
usi	-12.6644
▁Gaz	-12.6648
▁stin	-12.6651
▁ompp	-12.6655
▁Vai	-12.6656
▁arte	-12.6662
SN	-12.6668
▁öyh	-12.6674
▁uota	-12.6678
å	-12.6679
▁usic	-12.669
▁row	-12.6719
▁iky	-12.6729
▁kou	-12.673
ali	-12.6736
▁3)	-12.6744
▁yper	-12.6745
▁Reb	-12.6748
▁Res	-12.6748
28	-12.6749
▁omar	-12.675
ive	-12.6786
▁agen	-12.6793
▁Aarn	-12.6796
▁oa	-12.6815
▁hirs	-12.682
▁arc	-12.682
▁utoa	-12.6823
▁1-3	-12.6824
OS	-12.6826
▁omas	-12.6827
▁lig	-12.6828
▁upla	-12.6832
▁äytt	-12.6837
▁Pas	-12.6841
▁112	-12.6861
▁IF	-12.6862
▁gran	-12.687
▁Kurp	-12.6886
umis	-12.6893
▁rix	-12.6898
▁eito	-12.6902
▁olour	-12.6905
cker	-12.6905
jas	-12.6906
▁melu	-12.6914
ode	-12.6915
eni	-12.6923
▁ndy	-12.6928
▁9,	-12.6931
▁avin	-12.6941
lue	-12.6942
▁ivis	-12.6944
▁pihv	-12.6944
▁arri	-12.6948
▁ndia	-12.6957
▁war	-12.6958
ttaj	-12.6961
▁7,	-12.6964
▁oje	-12.6975
▁ärt	-12.6978
▁One	-12.6982
▁umar	-12.6986
▁leff	-12.6988
▁utsa	-12.699
▁ft	-12.6997
▁ttor	-12.6999
▁89	-12.7001
▁ävää	-12.7008
▁uim	-12.7009
▁impu	-12.7017
▁East	-12.7018
▁eaa	-12.702
▁iffe	-12.7043
be	-12.7044
▁lick	-12.7046
art	-12.7048
▁astr	-12.7049
▁Pat	-12.7051
▁eed	-12.7052
cob	-12.7057
uki	-12.7064
ollo	-12.707
uta	-12.7083
paus	-12.7085
▁ongo	-12.7087
▁Fu	-12.7091
11	-12.71
18	-12.71
▁91	-12.7103
▁orv	-12.7104
45	-12.7107
▁deit	-12.7108
▁ygår	-12.7112
▁Duc	-12.7113
▁htuu	-12.7115
rsi	-12.7117
▁disk	-12.7129
arma	-12.713
▁Novo	-12.7137
▁solm	-12.7137
▁etz	-12.7141
▁asvu	-12.7145
▁Saha	-12.7146
uihk	-12.7149
▁EX	-12.715
th	-12.7153
▁puuro	-12.7154
▁uzen	-12.7162
▁kane	-12.7174
ment	-12.7187
▁olar	-12.7196
▁raad	-12.7198
▁olva	-12.7202
rum	-12.7208
▁Gre	-12.7209
meri	-12.7229
▁sym	-12.7234
rof	-12.7238
▁eij	-12.724
uhe	-12.7241
▁raas	-12.725
26	-12.7257
uli	-12.7259
▁kuus	-12.7263
▁usse	-12.7267
▁92	-12.7271
▁tipa	-12.7277
lehd	-12.7282
osa	-12.7293
▁komp	-12.7295
▁Com	-12.7295
aud	-12.7296
▁Hang	-12.73
adu	-12.7303
ohja	-12.7308
▁arlo	-12.7313
inv	-12.7314
▁sikk	-12.732
▁ooga	-12.7322
ute	-12.7339
▁haro	-12.7357
vall	-12.7357
▁uisk	-12.7366
anne	-12.7366
▁mages	-12.7367
▁Virr	-12.7368
appa	-12.7372
▁auke	-12.7379
▁ripp	-12.7381
▁eiv	-12.7383
▁kran	-12.74
iehu	-12.7411
▁com	-12.7416
ban	-12.7419
ef	-12.7424
▁71	-12.7425
▁änee	-12.7437
▁Kih	-12.7442
▁yiv	-12.7448
▁uhma	-12.7458
▁0,	-12.7459
hö	-12.7462
tui	-12.7462
▁tyrm	-12.7464
▁omee	-12.7468
95	-12.7472
▁ärnä	-12.7477
unau	-12.7483
▁post	-12.7484
▁lsi	-12.7485
▁adon	-12.7489
hku	-12.7496
tak	-12.7498
▁vau	-12.7499
urmi	-12.75
mma	-12.75
lun	-12.7504
▁Ox	-12.751
▁erit	-12.7511
▁99	-12.7521
▁stam	-12.7524
▁fest	-12.7524
▁aute	-12.7561
▁sod	-12.7564
mppu	-12.7566
▁neul	-12.7574
▁Pep	-12.7582
▁Tul	-12.7589
▁Haw	-12.7593
▁Mars	-12.7602
▁3-1	-12.7614
outa	-12.7616
▁rum	-12.7618
▁losta	-12.7629
▁ange	-12.7634
BU	-12.7639
▁way	-12.7641
▁Haag	-12.7643
alve	-12.7643
▁ömä	-12.7647
rff	-12.7648
▁rook	-12.7651
▁Morg	-12.7651
▁buua	-12.7661
▁Kaski	-12.7663
▁ipi	-12.7668
ukaan	-12.7668
▁lepp	-12.7674
▁utsu	-12.7681
▁210	-12.7695
▁ga	-12.7699
▁Tre	-12.7701
mul	-12.7705
▁atsas	-12.7724
▁Eng	-12.7743
▁turb	-12.7744
▁oe	-12.775
▁nuku	-12.7752
▁ouri	-12.7756
app	-12.7757
▁uull	-12.776
▁abin	-12.7762
▁Con	-12.7767
▁arci	-12.7767
▁ck	-12.7779
epo	-12.7799
unn	-12.7807
ido	-12.781
▁ough	-12.781
▁intää	-12.7811
▁aua	-12.783
▁üri	-12.7833
oz	-12.7839
▁gor	-12.784
▁Etu	-12.7842
▁Call	-12.7842
19	-12.7843
▁iuha	-12.785
▁ahke	-12.7855
TV	-12.7866
▁örk	-12.7874
▁imrå	-12.7893
rhe	-12.7894
ella	-12.7903
▁CB	-12.7905
ento	-12.7905
17	-12.7906
ola	-12.7909
▁aler	-12.791
▁tree	-12.7913
▁Xin	-12.7918
án	-12.7924
dor	-12.7931
isa	-12.7936
▁Wald	-12.7939
dys	-12.7941
▁ynee	-12.7947
sai	-12.7953
▁ryp	-12.7968
▁Djur	-12.7975
▁Taur	-12.7989
▁ots	-12.8017
iq	-12.8018
▁achu	-12.8026
▁Dire	-12.8027
▁alhe	-12.804
öin	-12.805
odo	-12.8059
fe	-12.806
ijer	-12.8061
▁tyvä	-12.8066
▁Cyr	-12.807
of	-12.807
amma	-12.8071
▁Kaij	-12.8077
▁Tör	-12.8085
gg	-12.8087
▁new	-12.8087
▁chi	-12.8088
eita	-12.8091
son	-12.8092
▁trat	-12.8093
rkk	-12.8107
gan	-12.811
▁ago	-12.8116
▁likk	-12.8118
▁halp	-12.8121
▁Nar	-12.8122
tan	-12.813
▁dyna	-12.813
▁urb	-12.8139
▁Iina	-12.8142
ona	-12.8146
ämä	-12.8147
akko	-12.8149
▁1-0	-12.8176
▁öp	-12.8177
aple	-12.8177
▁Wire	-12.8184
▁ebab	-12.8188
▁rkl	-12.819
▁Glad	-12.8195
akka	-12.8196
▁luulo	-12.8205
PV	-12.8207
▁loj	-12.8219
siti	-12.8223
aš	-12.8229
▁malle	-12.823
roz	-12.8243
▁UN	-12.8246
▁Sav	-12.8256
▁och	-12.8269
▁Fit	-12.8275
ummu	-12.8284
▁hark	-12.8286
▁NY	-12.829
▁kärk	-12.8291
▁Koi	-12.8291
ääty	-12.8292
▁orce	-12.8292
atch	-12.8294
▁nic	-12.8296
▁Jr	-12.8304
llu	-12.8312
▁Narv	-12.8314
rho	-12.8323
▁bal	-12.8324
ane	-12.8329
▁We	-12.8333
▁1:	-12.8343
pun	-12.8344
▁Crai	-12.8346
▁kerh	-12.8351
▁nar	-12.8353
▁Digi	-12.8357
▁hok	-12.8362
▁Vär	-12.8368
ora	-12.8372
▁Bad	-12.8375
▁Stev	-12.8379
▁Aar	-12.8383
▁Dow	-12.839
onz	-12.8391
▁very	-12.8399
täne	-12.8403
ess	-12.8423
▁83	-12.843
▁lipa	-12.843
▁ubar	-12.844
iso	-12.8441
▁RE	-12.8457
SJ	-12.8458
▁Saks	-12.846
TK	-12.8464
▁tamm	-12.8465
▁jana	-12.8468
▁milla	-12.847
ym	-12.848
▁kärp	-12.8482
▁ske	-12.8483
▁Varo	-12.8485
▁Ara	-12.8488
▁oly	-12.8488
rra	-12.8492
▁eme	-12.8493
▁weg	-12.8507
▁lyk	-12.8515
▁uonio	-12.8518
▁Bon	-12.8519
▁2,3	-12.8521
yk	-12.8531
unt	-12.854
▁uzuk	-12.8542
▁rob	-12.8543
▁emu	-12.8544
▁jätt	-12.8546
▁layer	-12.855
tsi	-12.855
isco	-12.8558
▁icci	-12.8559
▁kour	-12.8562
▁maj	-12.8575
▁tahra	-12.8575
▁THL	-12.8576
▁Kiir	-12.8578
▁Well	-12.858
▁odge	-12.8583
▁stil	-12.8584
▁Kupi	-12.8586
uis	-12.8593
▁ränti	-12.8593
auks	-12.8598
▁Viho	-12.8602
▁PP	-12.8608
akuu	-12.8613
▁ueen	-12.8617
mpa	-12.8618
▁tök	-12.8621
▁ream	-12.8638
▁Rit	-12.8641
▁usku	-12.8647
▁uven	-12.8656
▁urpe	-12.8661
▁arib	-12.8665
aivo	-12.8666
▁road	-12.867
oth	-12.868
▁rille	-12.8691
▁iaa	-12.8698
▁hein	-12.8701
▁rall	-12.8705
▁eliv	-12.8716
-8	-12.8718
▁Walt	-12.8726
urbo	-12.873
65	-12.8731
On	-12.8738
▁Be	-12.8752
▁liho	-12.8757
str	-12.8761
▁Mona	-12.8763
_	-12.8764
▁pon	-12.8766
enä	-12.8767
ntti	-12.8776
▁ianc	-12.8786
▁hof	-12.8789
▁ärhä	-12.8792
iki	-12.8794
hkö	-12.8798
▁önkkö	-12.8798
▁buff	-12.8799
14	-12.8803
tch	-12.881
▁lot	-12.8814
▁kool	-12.8816
▁1,7	-12.8828
▁ohtu	-12.8834
oten	-12.8841
▁Carr	-12.8856
▁äysi	-12.8857
▁omie	-12.8871
▁näpp	-12.8873
▁Vivi	-12.8876
▁Skin	-12.8882
▁äij	-12.8886
+1	-12.8889
ahd	-12.889
▁MG	-12.8899
▁96	-12.8902
▁vid	-12.8904
▁sos	-12.8919
▁Šo	-12.8937
oyd	-12.8941
▁iiku	-12.8948
▁urst	-12.8954
elas	-12.8956
▁iri	-12.8958
ymis	-12.8958
▁Roz	-12.8958
▁kuor	-12.8962
▁lyps	-12.8968
▁HD	-12.8977
▁adre	-12.8982
▁jan	-12.8991
dia	-12.8992
▁ody	-12.8994
▁Nag	-12.9006
▁TS	-12.9007
▁elia	-12.901
ía	-12.901
▁tet	-12.9012
▁ulka	-12.9014
▁Jim	-12.9017
▁ulit	-12.9023
▁vaun	-12.9025
▁lank	-12.9045
ngo	-12.9046
▁Lar	-12.9049
▁rkin	-12.9049
pö	-12.905
nnoi	-12.9056
▁Far	-12.9064
▁urry	-12.9067
▁ämpp	-12.9069
▁patj	-12.9073
▁Sat	-12.9075
okki	-12.9075
YÖS	-12.9077
▁dal	-12.9079
sö	-12.9091
▁lepä	-12.9092
bi	-12.9097
▁SSA	-12.9101
▁ioni	-12.9103
▁räss	-12.9119
▁kkoa	-12.9124
▁elija	-12.9131
▁kets	-12.9132
▁IBA	-12.9134
▁agan	-12.914
▁lipp	-12.9144
▁lupia	-12.915
CA	-12.9153
▁ief	-12.9154
▁Obs	-12.9156
▁okki	-12.9157
ovi	-12.917
aki	-12.9175
▁240	-12.9189
▁GB	-12.919
▁sap	-12.9194
▁nie	-12.9194
▁Lea	-12.9195
tii	-12.9203
▁kapp	-12.9207
tri	-12.9214
YS	-12.9219
▁abso	-12.922
nnä	-12.922
ämän	-12.9229
iro	-12.9232
vää	-12.9233
▁teel	-12.9234
eiru	-12.9236
ärve	-12.9237
▁tage	-12.9243
▁imit	-12.9245
eks	-12.925
ied	-12.9253
▁Aren	-12.9259
▁With	-12.926
▁hams	-12.926
▁äjän	-12.9262
▁mpin	-12.9269
▁kla	-12.9271
▁4)	-12.9273
▁epsi	-12.9277
▁see	-12.928
▁uilu	-12.9289
▁taku	-12.9294
PM	-12.9297
▁hint	-12.93
SA	-12.9302
▁now	-12.9323
▁touk	-12.9334
▁Iit	-12.9339
▁kaar	-12.9339
▁erre	-12.9342
▁ban	-12.9344
ott	-12.935
▁suut	-12.935
orni	-12.9352
iuku	-12.9352
PR	-12.9355
lé	-12.9356
eaf	-12.9357
tia	-12.9358
▁utte	-12.9362
▁rail	-12.9363
▁ouch	-12.9366
▁yynä	-12.9369
mak	-12.9378
▁sääd	-12.9378
▁rent	-12.938
▁God	-12.9382
hah	-12.9383
uski	-12.9389
ayb	-12.939
dus	-12.9391
Ã	-12.9399
▁aš	-12.9404
ww	-12.9406
sw	-12.9407
▁Cross	-12.941
▁Die	-12.9412
▁warz	-12.9415
▁Road	-12.9417
eer	-12.943
Q	-12.9439
24	-12.9439
▁pes	-12.9443
▁HC	-12.9458
▁Abra	-12.9462
▁umme	-12.9463
use	-12.9466
jam	-12.9466
▁lames	-12.947
▁kiv	-12.9474
aura	-12.9478
dwi	-12.948
SO	-12.9495
▁lips	-12.9499
▁mess	-12.95
▁ärkä	-12.9504
hka	-12.951
▁auer	-12.9517
ont	-12.9532
▁Na	-12.9534
▁Cour	-12.9539
▁Cr	-12.954
▁Hag	-12.9559
▁KD	-12.9562
16	-12.9569
atam	-12.9574
yr	-12.9579
aula	-12.9584
▁sokki	-12.9587
mah	-12.9599
▁kula	-12.9602
▁selk	-12.9607
opra	-12.9612
▁rkad	-12.9622
IP	-12.9625
kei	-12.9625
▁ahmi	-12.9632
▁imak	-12.9633
▁reiv	-12.9642
▁Cam	-12.9645
hol	-12.9646
▁lif	-12.9648
idž	-12.9648
▁Lipe	-12.965
▁Heat	-12.965
▁uoks	-12.9653
▁ience	-12.9665
▁Comm	-12.9669
!	-12.967
▁ruma	-12.9678
▁ddi	-12.9679
aska	-12.9682
oimi	-12.9684
▁liff	-12.9699
▁nek	-12.9701
▁dea	-12.9703
▁laza	-12.9703
▁SA	-12.9708
▁suud	-12.971
▁Dep	-12.9718
▁solu	-12.9729
teki	-12.9734
astr	-12.9749
▁Kont	-12.9754
▁uan	-12.9756
▁Gamb	-12.9757
ehe	-12.9763
▁NCA	-12.9763
▁Ga	-12.9765
bo	-12.977
uume	-12.977
▁die	-12.9775
▁rla	-12.9778
▁Åb	-12.978
anto	-12.9781
▁ix	-12.979
oka	-12.9792
▁Tulv	-12.9793
TT	-12.9796
anga	-12.9799
68	-12.98
isko	-12.9808
▁buum	-12.9811
▁hur	-12.9812
arja	-12.9817
▁2,6	-12.9818
▁ruusu	-12.9818
yp	-12.982
eve	-12.9822
▁ül	-12.9825
▁uotia	-12.9836
daan	-12.9836
iero	-12.9836
▁Dop	-12.9842
ete	-12.9847
▁nif	-12.9849
aton	-12.9853
▁öpö	-12.9872
iemu	-12.9873
arri	-12.9876
▁isem	-12.9876
▁run	-12.9877
▁taid	-12.9878
cy	-12.989
▁graa	-12.9891
▁que	-12.9899
aiku	-12.99
oira	-12.9907
uosi	-12.9913
▁ilve	-12.9916
▁ehi	-12.9919
▁sm	-12.9923
▁rypt	-12.9926
JH	-12.9938
▁arik	-12.9944
▁wit	-12.9944
▁ehke	-12.9946
▁urpa	-12.9947
▁meen	-12.9952
deb	-12.9953
set	-12.996
66	-12.9962
▁Migr	-12.9964
▁sing	-12.9967
EF	-12.997
vas	-12.9975
▁Nea	-12.9978
äyt	-12.9984
odi	-12.9987
▁his	-12.9991
dig	-12.9993
aik	-13.0007
▁rg	-13.0014
▁nenä	-13.0029
▁84	-13.0031
vio	-13.0041
tul	-13.0041
öh	-13.0046
▁öykk	-13.0056
upis	-13.0062
▁lapu	-13.0077
▁3:	-13.0081
UL	-13.0081
▁OKM	-13.0085
▁UTERS	-13.0086
▁3-2	-13.0086
▁(1)	-13.0087
PA	-13.0088
seen	-13.0091
▁Weber	-13.0093
▁isso	-13.0094
▁Ör	-13.0094
▁Ek	-13.0096
▁tria	-13.0098
▁puj	-13.0099
▁HPK	-13.01
▁anp	-13.0104
▁hip	-13.0106
▁Midd	-13.0109
▁omen	-13.011
HC	-13.0111
▁Ki	-13.012
▁Alho	-13.0137
▁#	-13.014
▁surm	-13.0153
BC	-13.0178
▁aked	-13.0182
assu	-13.0191
▁kaku	-13.02
▁Keir	-13.0202
umpu	-13.0215
anka	-13.0217
▁lavi	-13.0219
cke	-13.0221
homp	-13.0237
▁Fi	-13.0254
▁Fem	-13.0258
▁hoff	-13.0259
▁Abr	-13.026
LY	-13.0263
nnen	-13.0277
▁akis	-13.0283
27	-13.0285
▁fo	-13.0303
▁rilla	-13.0303
▁karu	-13.0305
▁epo	-13.0313
▁Shu	-13.0324
OY	-13.0332
▁ango	-13.0338
48	-13.035
▁karhu	-13.0353
1:	-13.0355
DF	-13.0357
ttaa	-13.0359
▁ahna	-13.0362
itš	-13.0368
▁ouna	-13.0372
ass	-13.0372
▁ulga	-13.0377
▁Konk	-13.0383
mir	-13.0386
▁Cit	-13.0389
▁äisy	-13.0392
44	-13.0402
ba	-13.0405
ér	-13.0405
arku	-13.0407
▁Cola	-13.0414
▁uhl	-13.0416
mini	-13.0421
▁Der	-13.0424
▁Cla	-13.0433
¤	-13.0434
▁amol	-13.0437
esk	-13.0439
▁kumm	-13.0441
▁roën	-13.0443
▁üller	-13.0443
ellu	-13.0445
▁Wad	-13.0446
dok	-13.0454
▁urre	-13.0464
▁esa	-13.0474
▁Pihl	-13.048
▁в	-13.049
▁Sala	-13.0501
▁onnu	-13.0507
ulla	-13.0507
▁Gri	-13.051
▁Rasi	-13.0515
▁ourg	-13.0516
▁amul	-13.0519
▁äyk	-13.0522
▁LS	-13.0524
▁koota	-13.0524
▁naru	-13.0525
▁Korv	-13.0527
▁tistä	-13.0527
upla	-13.0529
▁Fay	-13.0531
KK	-13.0532
▁tank	-13.0537
iha	-13.0542
rem	-13.0546
MF	-13.055
▁Lif	-13.0558
▁liz	-13.0559
▁aw	-13.0564
▁Po	-13.0569
▁horm	-13.0574
▁lppi	-13.0574
▁plod	-13.0574
▁Rei	-13.0579
▁scu	-13.0581
DR	-13.0587
umma	-13.0589
ør	-13.0598
▁Ahme	-13.0602
ossu	-13.0606
▁laput	-13.0607
▁bba	-13.061
▁eill	-13.0613
▁ugen	-13.0614
TI	-13.0616
▁amaa	-13.0625
▁Cons	-13.0628
▁arit	-13.0629
13	-13.0641
▁rty	-13.0641
ortu	-13.0644
▁ög	-13.0644
▁alpp	-13.0646
▁kark	-13.065
rang	-13.0651
▁Ann	-13.0655
iim	-13.0656
yn	-13.0659
nce	-13.0672
iekk	-13.0681
▁Meil	-13.0683
eil	-13.0691
▁ramm	-13.0692
▁appo	-13.0698
isu	-13.07
▁try	-13.0703
myös	-13.0704
▁aston	-13.0717
▁Nil	-13.0721
▁nly	-13.0736
▁lup	-13.0752
▁Dip	-13.0756
ppil	-13.0766
▁Crui	-13.0774
sper	-13.078
▁läs	-13.0782
▁räp	-13.0784
▁Heal	-13.0787
▁uid	-13.0798
▁ira	-13.0802
▁look	-13.0803
▁ecc	-13.0804
▁ount	-13.0805
liz	-13.0817
▁Young	-13.0819
▁wich	-13.082
▁Kon	-13.0824
nny	-13.0829
▁tikk	-13.0829
üri	-13.083
lki	-13.0845
uoli	-13.0845
sar	-13.0847
▁eci	-13.0849
▁maks	-13.0849
BO	-13.085
▁Saka	-13.0851
▁Osk	-13.0852
▁iant	-13.0859
▁Rio	-13.0912
▁itul	-13.0917
▁torn	-13.092
ogle	-13.092
▁lym	-13.0921
äry	-13.0923
▁Part	-13.0932
lim	-13.0932
▁UK	-13.0933
apsi	-13.0934
hk	-13.0935
aux	-13.094
ramp	-13.0944
▁tef	-13.0949
▁löf	-13.095
▁ipsu	-13.0953
▁UV	-13.0966
alg	-13.0969
▁sjo	-13.0971
▁ääll	-13.0973
hal	-13.0974
▁rén	-13.0982
▁ikkia	-13.0985
▁eppä	-13.0991
olue	-13.0994
▁HTS	-13.0994
ER	-13.1
47	-13.1004
uez	-13.1013
▁lki	-13.1015
▁km	-13.1018
▁utva	-13.1025
33	-13.1027
ema	-13.1035
▁ales	-13.1038
▁Gag	-13.1045
▁ries	-13.1051
koi	-13.1055
oud	-13.1059
▁aye	-13.1059
▁Amy	-13.1062
▁gar	-13.1066
▁Fir	-13.1068
emp	-13.1083
▁ox	-13.1087
▁Dha	-13.1094
▁tory	-13.1096
▁amil	-13.1105
oona	-13.1105
nki	-13.1109
sala	-13.111
▁lead	-13.1116
trac	-13.1124
▁llu	-13.1125
▁TE	-13.1139
▁afa	-13.1139
▁ripo	-13.114
ost	-13.1151
▁GR	-13.1153
lop	-13.1153
▁les	-13.1157
▁iisas	-13.1165
▁coc	-13.1167
▁dan	-13.1179
anch	-13.118
▁reid	-13.1181
▁Cat	-13.1183
▁naud	-13.1183
▁Eps	-13.1185
ã	-13.1189
žžj	-13.1189
1⁄2	-13.1191
▁ushi	-13.1197
34	-13.1197
▁vdij	-13.12
▁uida	-13.1202
▁acka	-13.1203
▁arre	-13.1207
▁back	-13.1214
eva	-13.1217
▁3,3	-13.1218
▁Girl	-13.1226
tust	-13.1229
ERR	-13.1229
kra	-13.1231
▁Saab	-13.1234
▁6,5	-13.124
amu	-13.1243
▁oill	-13.1247
▁EQ	-13.125
alue	-13.1262
▁AMK	-13.1264
▁soa	-13.1265
▁lesb	-13.1267
▁KO	-13.127
nq	-13.1278
zer	-13.1279
able	-13.128
▁Rönk	-13.1293
▁rend	-13.1298
▁arro	-13.1302
jev	-13.1302
▁sivä	-13.1304
fa	-13.1307
tse	-13.1307
▁Marca	-13.1315
▁äyhä	-13.1324
37	-13.1326
▁ranz	-13.1327
▁Ram	-13.1329
▁reet	-13.1334
▁lossa	-13.1338
77	-13.1342
▁emor	-13.1343
▁silt	-13.1343
▁FA	-13.1346
ilkk	-13.1346
ysi	-13.135
▁Cin	-13.1354
tain	-13.1361
yer	-13.137
▁Row	-13.1374
hj	-13.1374
▁AT	-13.1378
mur	-13.1383
99	-13.1387
▁Arve	-13.1395
▁AU	-13.1398
reet	-13.1408
▁Hoid	-13.1411
▁bell	-13.1419
▁arth	-13.1443
▁Ad	-13.1446
▁we	-13.145
ECD	-13.1458
59	-13.1464
▁ürge	-13.1477
▁by	-13.1478
▁nnäk	-13.1479
▁pest	-13.1486
76	-13.1487
AR	-13.1488
▁tutt	-13.1488
mmä	-13.1491
▁rm	-13.1493
▁Dig	-13.1496
skal	-13.1497
▁bau	-13.1502
▁iman	-13.1503
78	-13.1505
valt	-13.1514
aug	-13.1523
29	-13.1523
▁tabu	-13.1524
omul	-13.153
▁50.	-13.1531
eiss	-13.1532
▁ijaa	-13.1535
▁eimo	-13.1542
▁Em	-13.1545
▁surk	-13.1545
▁Dag	-13.1549
jouk	-13.155
▁tiä	-13.1553
▁Mad	-13.1554
▁sb	-13.1563
end	-13.1575
uuto	-13.158
à	-13.1589
▁Rey	-13.1594
▁gency	-13.1599
▁bdul	-13.1613
upa	-13.1613
▁aane	-13.1614
▁box	-13.1615
▁eaf	-13.1616
eikä	-13.1621
▁ynamo	-13.1626
▁imbe	-13.1629
zon	-13.1637
fy	-13.1639
▁sik	-13.1641
▁Cru	-13.1642
▁asto	-13.1643
▁amsa	-13.1645
kok	-13.165
▁Simb	-13.1651
98	-13.1652
▁rv	-13.1658
▁Clo	-13.166
▁Caf	-13.1662
▁ardif	-13.1663
einä	-13.1666
▁orit	-13.1666
OR	-13.1671
▁KKO	-13.1673
sko	-13.1675
▁nom	-13.1676
era	-13.1678
itto	-13.1688
▁Rac	-13.1692
▁impa	-13.1699
▁Bol	-13.1701
▁oun	-13.1702
irut	-13.1712
▁soff	-13.1716
gu	-13.1718
▁2:	-13.1719
▁ilib	-13.1727
PD	-13.1729
VL	-13.173
▁opin	-13.1742
mien	-13.1745
▁lui	-13.1759
▁Sir	-13.176
lv	-13.1763
▁sis	-13.1764
inta	-13.1773
atc	-13.1773
▁Bib	-13.1777
ota	-13.1787
▁Line	-13.1787
▁uas	-13.1789
phy	-13.179
EN	-13.1794
ake	-13.1797
▁elde	-13.1798
▁sham	-13.1804
lvä	-13.181
▁Ti	-13.1812
ääss	-13.1814
▁Hol	-13.1817
▁rib	-13.1821
sf	-13.1826
aulu	-13.1826
▁rhe	-13.1834
▁Rog	-13.1835
sik	-13.1835
luk	-13.1838
aaha	-13.184
▁kii	-13.1845
pis	-13.1854
usti	-13.1857
▁amppi	-13.1857
▁kyä	-13.1867
put	-13.1887
▁Ap	-13.1888
▁uits	-13.1897
▁Lord	-13.1911
▁esee	-13.1924
vän	-13.193
ltä	-13.1933
▁arpe	-13.1936
kös	-13.1938
▁luuk	-13.194
▁Naur	-13.194
dz	-13.1941
▁Kong	-13.1941
31	-13.1944
12	-13.1948
▁khan	-13.1954
▁arch	-13.1955
▁Tu	-13.1964
ami	-13.1981
ihl	-13.1986
nik	-13.199
mmer	-13.1993
ikai	-13.1994
iru	-13.2002
ttua	-13.2003
ć	-13.2006
й	-13.2006
▁acho	-13.2008
▁rini	-13.2012
▁huo	-13.2012
▁0-2	-13.2015
ovat	-13.2017
▁nell	-13.2018
▁RK	-13.2023
▁äpi	-13.2023
▁telt	-13.2025
läi	-13.2027
▁PAM	-13.2027
▁rumba	-13.2036
eif	-13.2037
67	-13.2038
▁Tenho	-13.2038
RT	-13.2042
audi	-13.2045
▁Coll	-13.2046
▁PA	-13.206
IS	-13.2065
▁karv	-13.2069
▁uxe	-13.2073
▁agh	-13.2086
TU	-13.2087
sam	-13.2087
tyi	-13.2088
age	-13.2095
▁Cove	-13.21
▁Carl	-13.2101
rm	-13.2102
hoi	-13.2103
▁vin	-13.2107
rav	-13.211
eiju	-13.2112
▁Coc	-13.2115
leba	-13.2117
▁enh	-13.2121
tter	-13.2123
▁ioid	-13.2125
▁ono	-13.2126
▁slo	-13.2126
▁WA	-13.2127
▁Omen	-13.213
▁Ge	-13.2134
▁lum	-13.2136
▁outi	-13.2139
▁RS	-13.2144
▁virr	-13.2156
pau	-13.2159
▁span	-13.2161
onni	-13.2169
▁ryk	-13.2171
ay	-13.2174
erg	-13.2181
▁Kah	-13.2183
▁kien	-13.2185
▁zem	-13.2186
AN	-13.219
▁Rand	-13.2191
uhel	-13.2194
▁taht	-13.2197
kul	-13.2204
ihk	-13.2204
▁lash	-13.2207
57	-13.2215
▁Reg	-13.2216
▁fron	-13.2216
▁hili	-13.2216
hel	-13.2217
▁Ca	-13.2229
aga	-13.223
▁Rain	-13.2231
ohl	-13.2235
ogg	-13.2239
▁Lai	-13.2246
▁Sol	-13.2247
red	-13.225
jar	-13.2251
▁ilppi	-13.2261
▁ouka	-13.2274
▁ahma	-13.2275
▁roi	-13.2277
▁euk	-13.228
▁täl	-13.2307
▁empe	-13.2313
▁liig	-13.2316
BK	-13.232
▁Abb	-13.2325
mmo	-13.2327
agb	-13.2329
ihi	-13.2329
▁Leve	-13.2339
TL	-13.2343
▁sav	-13.2348
▁amb	-13.2363
udi	-13.237
▁kän	-13.2372
▁ibil	-13.2377
▁abal	-13.2382
▁Pé	-13.2384
▁örr	-13.2388
▁otet	-13.2406
iga	-13.2406
▁Amin	-13.2408
▁Alve	-13.241
▁uch	-13.2411
laud	-13.2414
ink	-13.2417
ukke	-13.2418
impu	-13.2419
alz	-13.2419
emo	-13.2428
aho	-13.2438
LA	-13.2439
ård	-13.2441
▁hipo	-13.2444
cep	-13.2445
▁unde	-13.2445
▁siep	-13.2448
▁€)	-13.2452
upp	-13.2454
UTO	-13.2456
▁Rahk	-13.2459
▁lusi	-13.2462
▁Goms	-13.247
▁Ada	-13.2472
▁alpa	-13.2472
▁gu	-13.2486
tk	-13.249
▁lbon	-13.2494
▁rnes	-13.2499
▁imin	-13.2499
▁Mo	-13.2504
rö	-13.2513
iitä	-13.252
▁latva	-13.2544
▁elod	-13.2556
alag	-13.2564
▁igue	-13.2564
alja	-13.2564
SF	-13.2566
▁Alm	-13.257
▁Hay	-13.2572
▁ufv	-13.2577
sco	-13.2591
▁leuk	-13.2593
93	-13.2607
▁niis	-13.2615
▁Bear	-13.2622
▁Web	-13.2622
▁tise	-13.2624
▁Edv	-13.2639
uti	-13.2641
ynyt	-13.2642
▁ikei	-13.2657
▁Glen	-13.2661
urme	-13.2661
▁alah	-13.267
telu	-13.2679
▁aado	-13.2689
▁talg	-13.2691
▁Sada	-13.2695
HS	-13.2696
у	-13.2703
▁amba	-13.2709
▁rol	-13.2711
elta	-13.2712
▁uc	-13.2715
▁Moun	-13.2715
▁ucc	-13.2717
▁kast	-13.2719
ärä	-13.2722
iab	-13.2724
▁VG	-13.2727
äkö	-13.2731
▁Yk	-13.2731
▁amad	-13.2732
vez	-13.2734
oğ	-13.2734
▁law	-13.2738
▁Nass	-13.2738
▁unaj	-13.2742
▁vit	-13.2744
▁97	-13.2745
ablo	-13.275
nost	-13.276
rez	-13.2764
▁Bobb	-13.2766
mand	-13.2767
ippi	-13.2771
38	-13.2779
▁Arm	-13.2784
▁noro	-13.2784
gar	-13.2784
ttai	-13.2797
stus	-13.2807
eno	-13.281
intu	-13.2815
bor	-13.283
▁Ec	-13.284
▁uš	-13.2846
lög	-13.2847
ón	-13.2851
yrö	-13.2851
▁kiks	-13.2856
▁ruin	-13.2858
▁ädän	-13.2862
mil	-13.2866
▁Kaj	-13.2869
pol	-13.2872
usk	-13.2873
▁arne	-13.2873
▁urra	-13.2874
▁ursi	-13.2875
▁ikol	-13.2885
▁eger	-13.2886
uul	-13.2886
▁LIV	-13.2903
▁2-4	-13.2904
▁4-2	-13.2904
▁1-1	-13.2907
▁dess	-13.2908
▁DPA	-13.2908
▁rity	-13.2915
▁SN	-13.2925
day	-13.2925
▁hje	-13.2927
▁Merv	-13.293
▁105	-13.2932
▁Owen	-13.2933
▁noi	-13.2948
▁Are	-13.295
▁7,5	-13.295
▁onas	-13.2952
▁gra	-13.2954
▁spr	-13.2959
mor	-13.2962
▁38.	-13.2974
▁ntei	-13.2974
▁augh	-13.2975
▁Rem	-13.2979
uuna	-13.298
▁mehu	-13.2983
▁ux	-13.2983
rza	-13.2983
ryp	-13.2984
▁affe	-13.2986
etu	-13.299
DC	-13.3007
▁Rad	-13.3011
▁Got	-13.3015
▁Mot	-13.3016
▁laid	-13.3018
▁otin	-13.3022
pre	-13.3025
▁avas	-13.3026
▁Demo	-13.3037
▁oran	-13.3042
▁Nu	-13.3051
sz	-13.3054
EM	-13.3061
rob	-13.3068
inz	-13.3071
▁Reim	-13.3076
▁nip	-13.3077
ups	-13.3103
▁sieni	-13.3107
▁less	-13.3114
▁peed	-13.3119
▁saum	-13.3121
и	-13.3122
▁utt	-13.3124
▁AJ	-13.3128
▁Zet	-13.3129
▁Hold	-13.313
rvit	-13.3152
▁sand	-13.3153
▁rump	-13.3166
▁94	-13.3173
▁viha	-13.3182
immo	-13.3184
▁Alc	-13.3194
▁huul	-13.3201
erma	-13.3202
▁ersun	-13.3202
oa	-13.3208
▁Reun	-13.3208
▁Niz	-13.3209
▁anyu	-13.3211
rog	-13.3214
duc	-13.3217
rv	-13.3217
amo	-13.3218
▁omeh	-13.3218
RJ	-13.322
▁eppe	-13.3225
LO	-13.3228
ven	-13.3235
utos	-13.3237
▁án	-13.3238
tra	-13.324
ees	-13.3245
lö	-13.3247
CC	-13.325
aid	-13.325
ci	-13.3252
▁Iis	-13.3275
cu	-13.3276
ose	-13.3276
sul	-13.3279
anoi	-13.3289
ž	-13.3294
▁jon	-13.331
▁aasi	-13.3314
▁kama	-13.3316
▁Tab	-13.3323
ntaa	-13.3332
▁once	-13.3334
riko	-13.3339
▁roph	-13.3343
▁eld	-13.335
▁ostu	-13.3352
aris	-13.3357
▁aleb	-13.3361
▁kit	-13.3365
ssu	-13.3367
▁Á	-13.3371
▁kosm	-13.3371
▁meko	-13.3371
▁5-6	-13.3383
▁ouhk	-13.3388
▁särö	-13.3397
▁xt	-13.3401
▁tric	-13.3404
0%	-13.3406
acu	-13.3409
▁Jä	-13.3411
▁olves	-13.3413
▁inez	-13.3415
▁steb	-13.3417
rg	-13.3422
LB	-13.3424
iida	-13.3426
▁Kass	-13.3431
vig	-13.3444
46	-13.3446
▁jie	-13.3448
▁IV	-13.3449
ream	-13.3457
▁erki	-13.3469
▁arppa	-13.3474
▁auhi	-13.3479
näl	-13.3481
tew	-13.3489
▁sumu	-13.3496
▁logg	-13.3509
▁nerg	-13.3517
ador	-13.3518
älk	-13.3518
▁kine	-13.3519
▁ripa	-13.352
ärmä	-13.3522
▁säl	-13.3524
▁anuc	-13.3543
▁Il	-13.3545
▁Rod	-13.3547
ulle	-13.3553
irhe	-13.3557
▁iron	-13.3571
▁Oj	-13.358
▁oust	-13.3586
BA	-13.3589
meno	-13.3591
té	-13.3597
▁Rup	-13.3602
MI	-13.3609
▁98	-13.3611
urne	-13.3612
▁May	-13.3618
akki	-13.3625
▁aram	-13.3626
▁iepi	-13.3627
▁amat	-13.3633
▁vaksi	-13.3636
▁Sham	-13.3638
▁maut	-13.3639
▁orto	-13.364
73	-13.3644
räs	-13.3644
etke	-13.3648
uge	-13.3648
▁ugu	-13.3662
▁hawn	-13.3675
ans	-13.3678
tkä	-13.3682
▁Gio	-13.3682
▁zz	-13.3689
uz	-13.3691
mon	-13.3694
▁Eck	-13.3696
ayer	-13.3697
ahmo	-13.3706
▁ås	-13.3709
eghe	-13.3711
▁hdo	-13.3717
alu	-13.3719
eima	-13.3725
▁ehmi	-13.3734
▁naps	-13.3735
iku	-13.3738
▁otes	-13.3752
ttiin	-13.3758
▁riep	-13.376
▁skä	-13.3763
▁unge	-13.3766
rich	-13.3766
▁lace	-13.3767
▁apper	-13.3768
uudu	-13.3768
▁atam	-13.3781
83	-13.3782
gia	-13.3793
sch	-13.3793
atz	-13.3797
ó	-13.3802
▁igg	-13.3804
ökk	-13.3804
dow	-13.3806
▁ägg	-13.3806
▁MT	-13.381
32	-13.3811
US	-13.3813
▁inas	-13.3819
aksa	-13.3821
low	-13.3822
▁hät	-13.383
ipun	-13.3831
56	-13.3831
iem	-13.3833
▁Eila	-13.3834
▁isc	-13.3843
▁Reini	-13.3846
osto	-13.3853
imä	-13.3854
▁SD	-13.3854
▁på	-13.3866
eimo	-13.3869
ksa	-13.3872
▁arkea	-13.3878
▁rü	-13.3878
▁3-6	-13.3884
▁hihn	-13.389
▁SWE	-13.3891
▁XC	-13.3897
▁woke	-13.3898
▁rive	-13.3898
▁Cars	-13.3898
▁Ow	-13.3899
▁Sur	-13.3907
ulko	-13.3916
CM	-13.3917
▁rosk	-13.3919
▁lond	-13.3927
▁Miya	-13.3929
▁Geb	-13.3931
alka	-13.3934
▁145	-13.3936
empu	-13.3941
▁Repo	-13.3948
▁max	-13.3948
▁harm	-13.3949
▁uite	-13.3954
▁nop	-13.3959
▁Demi	-13.3963
54	-13.3966
▁umpe	-13.3967
▁yrön	-13.3968
EA	-13.3969
▁Dan	-13.397
-6	-13.3975
toimi	-13.3981
▁Hä	-13.3983
▁renc	-13.3983
▁Nora	-13.3988
rma	-13.3991
▁Hear	-13.3991
▁Axe	-13.3994
atka	-13.4001
olu	-13.4018
▁Osto	-13.4024
▁kolo	-13.4026
▁Ups	-13.4028
▁RT	-13.4029
uaal	-13.4035
auma	-13.4046
siin	-13.4048
▁hill	-13.4057
▁arem	-13.4057
▁iano	-13.4059
▁vino	-13.4064
tod	-13.4066
arra	-13.4068
evi	-13.4072
▁Ii	-13.4082
▁Edm	-13.4086
▁93	-13.4089
▁näpä	-13.4106
▁ippi	-13.4108
hev	-13.4127
▁Hai	-13.4129
▁come	-13.4129
▁läpä	-13.4134
ampp	-13.4142
ajan	-13.4145
я	-13.4146
▁öss	-13.4149
▁seu	-13.4152
▁ruuat	-13.4161
▁enen	-13.4164
▁lama	-13.4165
▁ikaa	-13.417
örö	-13.4173
▁öylä	-13.4208
▁Hei	-13.4209
aiht	-13.4211
▁40.	-13.4217
nnut	-13.4219
impp	-13.4222
▁tian	-13.4227
▁Ay	-13.4228
▁uj	-13.4232
ajoi	-13.4234
▁aila	-13.4236
▁tuna	-13.4236
51	-13.424
▁urbo	-13.4242
▁osch	-13.425
▁cand	-13.4254
▁ppä	-13.4258
▁äppi	-13.4259
▁etab	-13.4262
▁Ly	-13.4268
▁hr	-13.4279
▁Habi	-13.4287
▁sö	-13.4289
▁puh	-13.4296
une	-13.4302
▁site	-13.4303
lei	-13.4306
▁iai	-13.4306
lor	-13.4308
ummi	-13.4325
vast	-13.4327
▁Of	-13.4331
▁lupi	-13.4331
hje	-13.4343
▁itin	-13.4345
▁eleb	-13.4345
▁Cé	-13.4348
▁liuo	-13.4365
nder	-13.4366
▁erb	-13.4369
▁itz	-13.4374
▁Viru	-13.4374
toa	-13.4379
▁vihe	-13.4381
▁erz	-13.4382
iini	-13.4385
ove	-13.4387
63	-13.4387
aatu	-13.4391
dr	-13.4391
▁ehj	-13.4396
▁tett	-13.4397
▁yhm	-13.4397
▁Wein	-13.4401
▁iaz	-13.4405
ouch	-13.4406
▁4-1	-13.4406
▁Åke	-13.4408
▁Todd	-13.441
о	-13.4413
▁365	-13.4423
asia	-13.4431
▁phone	-13.4432
▁work	-13.4432
▁Behm	-13.4434
▁isii	-13.4435
▁McM	-13.4437
▁§	-13.4445
▁irve	-13.4446
▁AR	-13.4452
▁irpa	-13.4456
▁2-5	-13.446
VI	-13.4464
lyt	-13.4467
▁oup	-13.4472
▁rac	-13.4478
▁WC	-13.4484
▁MAA	-13.4485
▁Garr	-13.4489
öngä	-13.449
▁arpi	-13.4491
moi	-13.4495
yck	-13.4496
96	-13.4502
iirt	-13.4506
appu	-13.4507
▁liiv	-13.4517
imme	-13.452
74	-13.4521
mari	-13.4521
▁Os	-13.4529
ammo	-13.4534
olku	-13.4537
▁Ha	-13.454
▁Def	-13.4548
noo	-13.4548
▁läps	-13.4549
86	-13.455
▁tk	-13.4552
▁sood	-13.4557
arva	-13.4567
VG	-13.4567
▁cro	-13.4581
ikal	-13.4585
▁Math	-13.4585
▁ärin	-13.4588
▁asch	-13.4593
mai	-13.4596
▁eiss	-13.4599
KT	-13.4602
▁eipa	-13.4612
anno	-13.4617
▁Tau	-13.4618
uho	-13.4619
pro	-13.4638
EL	-13.4642
▁bile	-13.4643
gin	-13.4643
▁uns	-13.4651
▁lvi	-13.4653
▁Wa	-13.4654
pon	-13.4661
84	-13.4661
raf	-13.4664
▁diak	-13.4674
UO	-13.4676
dar	-13.4677
-9	-13.4684
▁enze	-13.469
SM	-13.4698
▁yöd	-13.4713
▁Mig	-13.4714
▁oiju	-13.4729
▁vio	-13.4736
▁orgh	-13.474
▁repp	-13.474
.)	-13.4741
ate	-13.4757
▁Vier	-13.4766
22	-13.4769
gis	-13.4772
▁Toiv	-13.4776
▁love	-13.4776
▁uume	-13.4781
▁Fon	-13.4788
▁Shap	-13.4791
▁loks	-13.4796
män	-13.48
oil	-13.4803
▁mönk	-13.4804
pas	-13.4805
elu	-13.4805
▁revi	-13.4806
ussi	-13.4817
▁äpyl	-13.482
▁astma	-13.4825
▁els	-13.4827
ervo	-13.4833
▁amen	-13.4839
79	-13.486
ado	-13.4868
MC	-13.4892
▁vinh	-13.4926
irku	-13.4926
▁urro	-13.4926
bba	-13.4931
lsi	-13.4933
▁Deb	-13.4936
▁rwi	-13.494
eKi	-13.4944
▁kalt	-13.4945
▁bom	-13.4947
▁rez	-13.4948
raa	-13.495
·	-13.4953
▁4-3	-13.496
nap	-13.4962
▁0-3	-13.4962
▁uuss	-13.4965
▁YTK	-13.4967
▁feld	-13.4971
ead	-13.4971
88	-13.4973
▁Mizu	-13.4973
▁luja	-13.4975
▁Jarl	-13.4976
unee	-13.4977
58	-13.4978
kat	-13.4986
▁laum	-13.4988
▁ötkö	-13.5
tua	-13.5002
▁137	-13.5002
▁MP	-13.5006
▁AA	-13.5009
▁gang	-13.5011
ivaa	-13.5014
▁wort	-13.5019
▁Wir	-13.5021
▁Kaun	-13.5026
▁47.	-13.5026
AS	-13.5028
▁eith	-13.5033
▁360	-13.5035
▁rjala	-13.5039
▁achi	-13.5045
▁Vii	-13.5045
▁nusta	-13.5049
▁36.	-13.5055
▁Pou	-13.5063
▁avik	-13.5066
▁meka	-13.5075
▁oose	-13.5086
LF	-13.5086
▁enzo	-13.5086
▁rapp	-13.5089
umba	-13.5102
▁örpp	-13.5106
▁Dec	-13.5115
▁onee	-13.5116
▁alpe	-13.5116
▁roud	-13.5122
▁Karj	-13.5131
▁Ice	-13.5132
tine	-13.5136
87	-13.5136
owl	-13.514
89	-13.5141
esto	-13.5142
oman	-13.5142
row	-13.5143
▁epi	-13.5155
▁tumpi	-13.5157
▁nssa	-13.5158
▁qui	-13.5163
osk	-13.5177
▁IK	-13.5177
eru	-13.5184
▁osh	-13.5184
▁tappi	-13.5186
viä	-13.5187
▁ampp	-13.5189
▁rynt	-13.519
rek	-13.519
tf	-13.5193
uc	-13.5221
▁itsa	-13.5225
▁Dem	-13.5226
oc	-13.5228
▁onro	-13.5233
▁ärpä	-13.5234
▁Abdo	-13.5242
▁rüg	-13.5242
▁Whe	-13.5243
py	-13.5248
▁Gah	-13.5254
▁Kour	-13.5255
ksu	-13.5258
lkk	-13.5264
gré	-13.5268
▁Wine	-13.5272
▁ätt	-13.5275
▁Norr	-13.5283
▁neit	-13.5291
▁amps	-13.5292
▁Low	-13.5296
NHC	-13.5299
▁dema	-13.5302
▁HO	-13.5304
▁ilde	-13.5326
▁Noo	-13.5327
bb	-13.533
53	-13.5331
▁sist	-13.5332
▁oral	-13.5336
eits	-13.5342
ollut	-13.5342
▁euhu	-13.5342
tsa	-13.5345
▁Ray	-13.5345
▁ån	-13.5346
gen	-13.535
rey	-13.5351
cel	-13.5354
raat	-13.5363
ube	-13.5368
▁musk	-13.5382
36	-13.54
▁Bert	-13.5408
uija	-13.5415
▁rno	-13.543
▁andu	-13.5431
ough	-13.5439
▁(2	-13.544
▁höy	-13.5441
empa	-13.5444
ikro	-13.5446
▁suuk	-13.546
▁lp	-13.5461
zy	-13.5465
▁agna	-13.5467
pan	-13.5468
ji	-13.547
ppe	-13.5472
rut	-13.5473
▁hab	-13.548
▁kila	-13.549
▁iab	-13.5491
iikk	-13.5491
▁muna	-13.5499
▁né	-13.5506
▁ervo	-13.5522
▁EC	-13.5524
awa	-13.5537
anut	-13.5542
niem	-13.5555
▁Range	-13.5556
▁PR	-13.5566
VA	-13.5576
ily	-13.5577
▁sako	-13.5578
ft	-13.558
▁iid	-13.5582
▁rau	-13.5582
tami	-13.5583
▁sanat	-13.5589
MAA	-13.5592
▁и	-13.5593
uraa	-13.5603
▁Ritz	-13.5605
DA	-13.5606
empo	-13.5607
▁RN	-13.5607
▁ynch	-13.5616
oim	-13.5616
▁ála	-13.562
▁Cono	-13.5632
▁Kot	-13.5636
▁edge	-13.5637
▁leep	-13.5638
iir	-13.5639
▁gie	-13.5646
▁ilar	-13.5649
ken	-13.5653
KI	-13.5657
ram	-13.5657
haa	-13.5658
rod	-13.5658
▁Jumb	-13.5658
▁ollu	-13.5658
▁Nuo	-13.5665
▁kev	-13.567
▁evol	-13.5673
ush	-13.5673
▁ax	-13.5675
okse	-13.5676
▁225	-13.5686
▁mehua	-13.5688
▁dog	-13.5696
▁Bub	-13.57
ensi	-13.5707
▁agn	-13.5712
jer	-13.5712
▁DN	-13.5714
ynee	-13.5715
SKA	-13.5719
▁Colb	-13.5722
â	-13.5732
▁erem	-13.5738
▁rynä	-13.574
▁aivio	-13.5758
▁lag	-13.5758
69	-13.576
ittu	-13.5766
▁atem	-13.5772
▁riks	-13.5774
ix	-13.5776
otku	-13.5776
▁Awa	-13.5789
▁eton	-13.5794
▁trau	-13.5794
▁Sea	-13.5799
07	-13.5803
▁bl	-13.5804
hro	-13.5805
▁Saag	-13.5807
▁iga	-13.5808
▁nälk	-13.5809
▁Rams	-13.581
▁Nahk	-13.5811
por	-13.5814
▁wer	-13.5823
oder	-13.5829
▁nout	-13.5831
▁Fed	-13.5836
▁idge	-13.5838
SU	-13.584
▁Aw	-13.5843
▁siva	-13.5848
ico	-13.585
▁Grif	-13.5852
ämpy	-13.5858
äpy	-13.5858
▁over	-13.5868
▁obb	-13.5869
▁oyer	-13.587
aban	-13.5872
▁Rov	-13.5873
mutt	-13.5876
▁lipe	-13.5879
▁Ral	-13.5881
ertoo	-13.5882
juu	-13.5884
asio	-13.5884
▁amar	-13.5891
▁Oosa	-13.5891
nel	-13.5892
▁ahra	-13.5894
▁evr	-13.5902
▁isch	-13.5911
▁oili	-13.5913
▁outui	-13.5913
koll	-13.5918
▁män	-13.592
▁esko	-13.5928
▁Vihi	-13.5937
ilta	-13.5947
▁OIM	-13.595
uch	-13.5952
▁outaa	-13.5953
avat	-13.5955
▁Köp	-13.5955
▁icke	-13.5959
▁Hot	-13.5965
rni	-13.597
▁ippos	-13.5973
jak	-13.5978
▁aisp	-13.5979
▁idj	-13.5981
▁iist	-13.5984
▁Olo	-13.5986
▁Tr	-13.5987
▁tupa	-13.599
▁NO	-13.6002
▁nda	-13.6002
%	-13.6005
▁nauh	-13.6007
▁Lem	-13.6008
í	-13.6008
▁hre	-13.6011
▁oumi	-13.6019
kp	-13.603
▁asar	-13.6033
▁matt	-13.6034
vens	-13.6043
▁ilpe	-13.6044
▁rind	-13.6049
BL	-13.6051
▁eige	-13.6055
▁vis	-13.6057
▁öf	-13.6061
▁Byr	-13.6067
▁tomi	-13.6071
uss	-13.6078
▁wo	-13.6086
lar	-13.609
▁arsa	-13.6103
▁Wik	-13.6105
reb	-13.6105
had	-13.6107
ope	-13.6117
▁horn	-13.612
heu	-13.6126
▁patr	-13.6137
aad	-13.6141
▁Nec	-13.6153
jerf	-13.6155
▁rth	-13.6157
ю	-13.6166
err	-13.6171
▁loo	-13.6173
97	-13.6173
▁(2)	-13.6174
▁Ursa	-13.6177
▁COP	-13.6177
▁uill	-13.6178
▁oncé	-13.6182
elt	-13.6189
▁SRV	-13.6191
▁Guy	-13.6197
▁arom	-13.6198
avu	-13.6201
▁Nix	-13.6204
▁siru	-13.6204
leå	-13.6207
bar	-13.6208
▁Rab	-13.6211
enno	-13.6212
iska	-13.6212
▁Bamb	-13.6213
▁track	-13.6213
▁FB	-13.6214
▁orkka	-13.6219
kur	-13.622
vie	-13.622
▁Des	-13.6222
▁Map	-13.6225
▁Essa	-13.6225
▁101	-13.6229
▁stei	-13.6232
▁iep	-13.6233
▁ulkka	-13.6233
▁Wor	-13.6243
TS	-13.6244
▁ragh	-13.6245
Cap	-13.625
FA	-13.6252
▁efte	-13.6252
▁trot	-13.6258
▁ré	-13.6259
▁Baum	-13.626
▁ushk	-13.626
▁Nov	-13.6261
▁Dema	-13.6262
▁111	-13.6268
▁enzi	-13.627
▁33.	-13.6273
▁ahed	-13.6278
orf	-13.628
eber	-13.6281
▁Rud	-13.6285
▁elby	-13.63
▁SS	-13.63
aija	-13.6308
▁repu	-13.6316
orve	-13.6322
▁eas	-13.6324
▁Sul	-13.6325
AP	-13.6328
laa	-13.6328
ago	-13.6342
avol	-13.6345
▁Marb	-13.6347
▁Id	-13.6348
▁iulu	-13.6358
▁öyty	-13.6369
itov	-13.6377
äsi	-13.6377
▁Boy	-13.6387
▁Visu	-13.6388
▁Now	-13.6398
eur	-13.6402
lain	-13.6403
▁Ale	-13.6407
vin	-13.6413
▁NR	-13.6419
▁ech	-13.6423
onse	-13.6425
ylei	-13.6428
▁epsä	-13.6432
▁Tart	-13.6436
UR	-13.6436
▁agl	-13.6437
▁inj	-13.6439
▁Evo	-13.6445
▁nha	-13.6445
▁(1	-13.6446
oom	-13.6453
▁tyle	-13.6454
▁ions	-13.6467
▁IT	-13.6467
▁Lamp	-13.6467
▁addi	-13.6468
rant	-13.6468
ohj	-13.6475
▁Jon	-13.6494
▁(4	-13.6499
▁р	-13.65
▁Cori	-13.6503
ank	-13.6508
▁På	-13.6511
oulu	-13.6512
▁Eye	-13.6514
▁tups	-13.6521
TE	-13.6531
▁räpp	-13.6535
▁Pup	-13.6538
▁Liv	-13.6545
inb	-13.655
unta	-13.6552
▁Thun	-13.6556
▁mag	-13.6559
▁lomp	-13.656
ukku	-13.6563
▁Nost	-13.6564
▁asly	-13.6567
▁mau	-13.6568
▁ilvis	-13.657
▁eip	-13.6571
rku	-13.6574
▁osse	-13.6579
AI	-13.6579
▁azz	-13.6579
otea	-13.6592
ý	-13.6595
▁rund	-13.6595
▁sähk	-13.6603
yle	-13.6605
▁simp	-13.6609
ijö	-13.6612
▁uila	-13.6615
▁rtem	-13.6619
rug	-13.6642
▁Gome	-13.6643
oima	-13.6644
▁É	-13.6647
▁onja	-13.665
▁acia	-13.6658
▁Ber	-13.6659
▁hurm	-13.666
▁Brya	-13.6662
▁Who	-13.6667
▁mole	-13.6669
▁reat	-13.6673
uppa	-13.6673
▁order	-13.6675
▁åt	-13.6676
ever	-13.668
taina	-13.6682
▁Aje	-13.6684
iisa	-13.6684
▁orde	-13.6689
onza	-13.669
▁NA	-13.6691
▁ilat	-13.6696
▁iisku	-13.6697
én	-13.6701
▁Malt	-13.6703
▁tead	-13.6705
ndic	-13.6707
eja	-13.6713
▁Usk	-13.6727
▁sau	-13.6728
mut	-13.6744
▁ISS	-13.6751
MG	-13.6761
säk	-13.6763
kor	-13.6773
ompp	-13.6774
▁5:	-13.6775
ulos	-13.6779
▁Ruan	-13.6781
▁Lei	-13.6781
▁raiv	-13.6783
▁Ark	-13.6788
▁säk	-13.6789
▁Kub	-13.6794
▁Abs	-13.6801
▁Wim	-13.6804
▁ynni	-13.681
▁sere	-13.6817
iet	-13.6828
yön	-13.6831
rtf	-13.6834
▁TACM	-13.6838
▁alf	-13.6838
+2	-13.6839
even	-13.6843
▁awast	-13.6844
epä	-13.6845
▁Niil	-13.6845
▁ruyne	-13.6846
▁Croc	-13.6846
▁Gabb	-13.685
ukko	-13.6857
▁143	-13.6868
▁YLE	-13.6868
▁wive	-13.6871
▁ijö	-13.6882
▁Gil	-13.6884
mpia	-13.6886
▁trong	-13.6887
▁hup	-13.6887
▁о	-13.6889
▁ränn	-13.6891
▁uuse	-13.6892
▁nuut	-13.6893
pila	-13.6894
▁inho	-13.6894
▁Da	-13.6899
▁1/	-13.6911
▁116	-13.6913
utt	-13.6918
▁qu	-13.6922
anee	-13.6922
▁puro	-13.6923
olly	-13.6924
▁axim	-13.6924
92	-13.693
▁maku	-13.6934
▁utš	-13.694
▁üss	-13.6941
▁roub	-13.6944
▁Myers	-13.6945
▁hic	-13.6953
▁Mour	-13.6954
▁Kob	-13.6954
▁esku	-13.6957
▁32.	-13.6958
lb	-13.6965
gba	-13.6978
ouk	-13.6978
öm	-13.6981
▁einu	-13.6982
hmu	-13.6987
amp	-13.6988
▁inkki	-13.6988
▁imb	-13.6993
▁rtur	-13.6994
gh	-13.7006
▁liin	-13.7013
▁abri	-13.7015
▁esil	-13.7017
▁Ani	-13.7028
▁Torp	-13.703
▁iuna	-13.7032
▁uñ	-13.7039
▁Rash	-13.7045
tuva	-13.7056
rp	-13.7059
▁на	-13.7059
Jo	-13.7064
▁Abel	-13.7064
▁öv	-13.7066
▁snet	-13.7067
▁ihar	-13.7069
▁Ast	-13.707
Hän	-13.7073
▁sign	-13.7075
MA	-13.7084
▁Rahm	-13.7088
oike	-13.7089
▁Torni	-13.709
uuma	-13.7093
▁car	-13.7097
ask	-13.7107
osf	-13.7112
▁miks	-13.7115
▁Clev	-13.7118
41	-13.7125
▁Vika	-13.7126
▁Crom	-13.7126
▁Kyr	-13.7141
jälk	-13.7143
▁stan	-13.715
▁kook	-13.7155
▁lamp	-13.7162
sid	-13.7163
▁rod	-13.7166
▁imppu	-13.7176
▁Kup	-13.7196
▁yrö	-13.7196
edä	-13.7202
joka	-13.7205
▁outl	-13.7214
pid	-13.7219
▁Kobr	-13.7223
▁WR	-13.7225
lik	-13.7227
▁osle	-13.7231
▁PV	-13.7239
Me	-13.7243
▁iton	-13.7243
SY	-13.7244
▁Mand	-13.7257
▁Mod	-13.7259
rb	-13.7269
▁Glau	-13.7273
91	-13.7273
ihe	-13.7277
▁ead	-13.7277
uhk	-13.7282
▁orti	-13.7283
▁Dart	-13.7283
▁sato	-13.7285
leet	-13.7295
avi	-13.7298
ilma	-13.7303
ET	-13.7303
▁nummi	-13.7306
▁artia	-13.7311
ulis	-13.7311
▁Gü	-13.7313
FP	-13.7318
liff	-13.7318
▁kuur	-13.7319
▁env	-13.732
öck	-13.7325
▁Koms	-13.7327
▁inci	-13.7331
ikei	-13.7339
HA	-13.7341
cca	-13.7342
▁erne	-13.7349
▁+1	-13.7351
elvä	-13.7352
▁äe	-13.737
▁korp	-13.7373
adc	-13.7376
ли	-13.7376
pai	-13.7377
RW	-13.7379
▁bb	-13.7393
gaz	-13.7395
▁Burk	-13.7398
▁hell	-13.74
ps	-13.7411
kui	-13.7417
▁jauho	-13.7417
ulk	-13.7422
lag	-13.7434
▁nuij	-13.7443
▁Eem	-13.7449
▁acha	-13.7453
tut	-13.7458
▁evt	-13.7458
▁anab	-13.7461
EC	-13.7462
rot	-13.7465
▁änky	-13.7469
▁ze	-13.7481
▁iema	-13.7481
▁nuj	-13.7484
onna	-13.7486
▁ntui	-13.7492
▁Lam	-13.7493
tym	-13.7494
▁Cop	-13.7498
▁alil	-13.7515
ppä	-13.7518
▁Orte	-13.7523
uutt	-13.7529
▁Rea	-13.7533
kkä	-13.7537
PK	-13.7541
odg	-13.7545
▁Oivio	-13.7551
▁Circ	-13.7551
▁rejc	-13.7553
▁uidu	-13.7556
▁Gris	-13.7559
▁SUI	-13.7564
▁eep	-13.7572
▁Burg	-13.7577
▁Osi	-13.7584
▁vene	-13.7584
▁109	-13.7587
lj	-13.7587
▁CZ	-13.7588
urst	-13.7588
▁ärsky	-13.7591
▁146	-13.7595
anssa	-13.7596
ash	-13.7604
onne	-13.7604
▁Sec	-13.7607
▁Rota	-13.7607
nall	-13.7614
▁с	-13.7615
▁58.	-13.7615
23	-13.7619
▁132	-13.762
uas	-13.7621
▁Type	-13.7622
▁nelo	-13.7626
▁OK	-13.7629
▁Como	-13.7632
TC	-13.7635
▁asco	-13.7647
dur	-13.765
▁Grad	-13.765
irt	-13.7653
▁List	-13.7654
api	-13.7654
▁rus	-13.7657
▁trike	-13.7658
▁sive	-13.7659
▁Dar	-13.7661
▁oard	-13.7663
mas	-13.7667
omen	-13.7668
▁Man	-13.7669
▁mitr	-13.7671
▁mate	-13.7676
▁wans	-13.768
▁34.	-13.7681
▁mola	-13.7681
▁entia	-13.7693
▁Mala	-13.7695
▁Bö	-13.7695
▁rrow	-13.7707
▁Bel	-13.7711
nic	-13.7714
▁exic	-13.7716
auho	-13.7716
▁ivol	-13.7716
▁yövä	-13.7718
▁DJ	-13.7721
▁kulj	-13.7725
▁urmi	-13.7726
ica	-13.7732
inte	-13.7735
▁Reyn	-13.7735
oney	-13.7744
▁Bas	-13.7752
▁WP	-13.7758
▁ukin	-13.776
bel	-13.7761
▁80.	-13.7761
tkaa	-13.7765
appe	-13.7765
ince	-13.7773
tapa	-13.778
imma	-13.7791
▁egge	-13.7793
yhte	-13.7795
▁alho	-13.7796
▁risc	-13.7796
▁Maar	-13.78
ehr	-13.7807
elch	-13.781
▁jol	-13.7823
rna	-13.784
▁qua	-13.7842
▁MX	-13.7844
ath	-13.7845
tok	-13.7845
teli	-13.7854
avoi	-13.7858
▁kön	-13.7859
▁hanh	-13.7864
▁ivul	-13.7864
▁wede	-13.7871
▁Abde	-13.7871
▁erpa	-13.7883
▁fes	-13.7885
ehu	-13.7888
▁60.	-13.7892
IO	-13.7893
ASS	-13.7896
▁Kou	-13.7912
anc	-13.7914
▁Bur	-13.7917
ieto	-13.7919
▁isl	-13.7924
sc	-13.7926
CS	-13.7929
czy	-13.7935
▁lase	-13.7939
▁dob	-13.7943
▁Roda	-13.7952
42	-13.7956
▁lic	-13.7959
▁Kond	-13.796
▁KT	-13.7965
▁mado	-13.7977
▁alco	-13.7979
pr	-13.7983
▁rasta	-13.7984
▁sca	-13.7992
▁Van	-13.8004
▁Aur	-13.8006
▁tov	-13.8008
hor	-13.8011
koko	-13.8016
uppe	-13.8032
▁ätö	-13.8034
usjo	-13.804
AJ	-13.8046
▁Riste	-13.8056
▁Koru	-13.8059
▁reik	-13.8061
arv	-13.8061
arha	-13.8064
▁ilje	-13.8072
▁any	-13.8074
▁Seal	-13.8076
sky	-13.8082
▁hove	-13.8082
▁tron	-13.8084
▁Can	-13.8092
rla	-13.8093
▁Kiss	-13.8097
▁Sil	-13.8099
ästi	-13.8103
▁Tat	-13.8105
▁imuk	-13.8111
▁film	-13.8116
toj	-13.8119
▁vik	-13.812
itus	-13.812
▁Cu	-13.8124
pil	-13.8128
▁MS	-13.8129
▁ärkk	-13.8133
PO	-13.8135
81	-13.8138
uonna	-13.8149
hoit	-13.8151
▁yb	-13.8152
▁gg	-13.8158
tsh	-13.8161
▁Ryyn	-13.8165
▁iori	-13.8167
▁ulh	-13.8168
▁EL	-13.8179
ato	-13.8183
hli	-13.819
▁lax	-13.8199
atu	-13.82
▁supp	-13.82
▁Han	-13.8204
umi	-13.8209
▁CO	-13.8212
▁kuula	-13.8214
▁Mon	-13.8215
▁Hi	-13.8216
▁topp	-13.8217
onee	-13.8218
▁gla	-13.8218
▁orge	-13.822
▁ypo	-13.822
auk	-13.8221
ria	-13.8226
▁mood	-13.8226
▁doc	-13.8228
▁Tefl	-13.8229
ats	-13.8233
▁Baba	-13.8234
JS	-13.8239
ampo	-13.8239
▁paj	-13.8239
lio	-13.8241
▁elkk	-13.8245
▁uffe	-13.8253
▁stun	-13.8255
itys	-13.8255
▁oney	-13.8258
▁stoa	-13.8277
jy	-13.8278
52	-13.8283
gog	-13.829
let	-13.8291
nau	-13.8293
▁isyy	-13.8304
▁umaa	-13.8304
▁redi	-13.8308
anic	-13.8309
▁NTB	-13.8319
jat	-13.832
thle	-13.832
▁5-1	-13.8321
opu	-13.8321
▁4-0	-13.8322
▁šokki	-13.8323
▁Hihh	-13.8324
alko	-13.8325
▁örkkö	-13.8326
▁naut	-13.8329
▁Höj	-13.8331
▁marj	-13.8334
▁Niñ	-13.8335
▁sylk	-13.8336
▁Gjer	-13.8339
CE	-13.8341
▁Gibr	-13.8351
▁Sieg	-13.8352
▁Leb	-13.8357
▁uil	-13.836
etty	-13.8361
▁lost	-13.8362
▁Alvi	-13.8366
▁136	-13.8368
▁177	-13.8369
▁ETK	-13.837
▁Coz	-13.8371
ely	-13.8387
▁öttö	-13.8391
sup	-13.8392
anca	-13.8403
▁rade	-13.8405
▁comp	-13.8411
▁Six	-13.8413
rr	-13.8417
▁Gym	-13.8418
aku	-13.8421
vič	-13.8426
▁oodi	-13.8427
▁Marj	-13.8428
ior	-13.8433
hm	-13.8433
▁gil	-13.8435
▁aux	-13.8436
jut	-13.8437
WE	-13.8445
emok	-13.8448
▁vili	-13.8449
▁ihd	-13.8461
NK	-13.8462
▁lapp	-13.847
ump	-13.847
▁Yaho	-13.8481
▁aub	-13.8483
dag	-13.8483
öt	-13.8494
▁osé	-13.8497
▁oug	-13.85
far	-13.8503
▁Hab	-13.8503
▁eys	-13.8506
▁uent	-13.8508
rai	-13.8509
▁rew	-13.8514
hif	-13.8515
into	-13.8517
VK	-13.852
ego	-13.8527
▁roh	-13.8532
▁teve	-13.8533
nie	-13.8535
▁Yoo	-13.8545
▁rozd	-13.8549
▁obj	-13.8556
lii	-13.8561
ín	-13.8566
oto	-13.857
▁м	-13.8573
itc	-13.8575
▁epto	-13.8575
▁veh	-13.8577
▁toss	-13.8578
▁üh	-13.8591
nah	-13.8595
▁hear	-13.8602
▁Grin	-13.8606
▁Cab	-13.8607
▁duo	-13.8611
▁wal	-13.8615
94	-13.8617
EIT	-13.8634
▁reu	-13.8636
▁eemi	-13.8637
▁tolp	-13.8639
▁uig	-13.8641
ph	-13.8643
▁Nau	-13.8644
▁öyhe	-13.865
▁vivi	-13.8657
▁äljä	-13.8658
niin	-13.866
ugge	-13.8662
▁gan	-13.8665
▁ecil	-13.8667
ved	-13.8669
▁AS	-13.8675
43	-13.8679
▁Cl	-13.868
▁lv	-13.8682
▁spa	-13.8684
elo	-13.8685
gma	-13.8688
anz	-13.8689
Suom	-13.8698
uju	-13.8698
kir	-13.8701
▁Mid	-13.8706
aani	-13.8716
▁pec	-13.8718
pak	-13.8737
olisi	-13.874
▁ü	-13.8742
ader	-13.8747
▁eipp	-13.8758
kil	-13.8758
enti	-13.8759
▁Your	-13.8762
▁auhaa	-13.8764
▁Lor	-13.8765
▁Sak	-13.8771
▁ref	-13.8776
omer	-13.8779
arj	-13.8783
▁Cel	-13.88
edi	-13.881
▁Reic	-13.8811
WD	-13.8812
▁aint	-13.882
▁irne	-13.8831
▁nit	-13.8832
irpp	-13.8838
▁aavid	-13.8852
▁Edg	-13.8858
▁Koz	-13.8866
▁ür	-13.8874
tusj	-13.8877
▁Rima	-13.8884
▁Cra	-13.8886
▁enic	-13.8891
▁Gos	-13.8895
▁märä	-13.8898
▁herm	-13.8908
▁Nob	-13.891
▁aaku	-13.8912
▁kuop	-13.8913
øre	-13.8913
ökki	-13.8916
3%	-13.8918
▁ahne	-13.8922
▁Cz	-13.8923
psu	-13.8926
päi	-13.8928
▁nava	-13.8936
epp	-13.8939
ohd	-13.894
▁melo	-13.8959
▁4-	-13.8959
agg	-13.8965
▁Ut	-13.8965
▁kkas	-13.8993
▁erry	-13.8994
▁konv	-13.9
eo	-13.9001
avo	-13.9004
▁able	-13.9008
emil	-13.9011
▁Kiru	-13.9025
▁Hirs	-13.9038
▁hor	-13.9044
uomen	-13.9046
hdot	-13.9066
▁Liu	-13.9068
are	-13.9074
▁kömp	-13.908
▁ulvii	-13.9086
▁Pör	-13.9087
▁rass	-13.9088
NC	-13.9089
▁almu	-13.9103
▁riin	-13.9104
▁adja	-13.9107
21	-13.9109
rak	-13.9117
ené	-13.9117
kee	-13.9122
▁Azo	-13.9127
▁styl	-13.913
▁nho	-13.9136
ofe	-13.9142
emi	-13.9144
▁inke	-13.9151
▁5-4	-13.9152
▁naya	-13.9153
▁1-4	-13.9153
▁GBT	-13.9155
▁CAS	-13.9156
▁Dovh	-13.9161
▁Adid	-13.9161
▁Rabb	-13.9162
TY	-13.9169
nssi	-13.9171
▁vent	-13.9175
▁Rodg	-13.9179
wing	-13.9184
▁lug	-13.9184
▁Åker	-13.9189
▁2-6	-13.9189
íg	-13.919
▁Poju	-13.9194
▁vap	-13.9195
▁74.	-13.9196
▁oimu	-13.9197
▁Delo	-13.92
▁а	-13.9201
▁Gadd	-13.9207
▁bock	-13.9211
▁oivas	-13.9213
▁62.	-13.9214
eto	-13.9214
▁shaw	-13.9217
ure	-13.922
isyy	-13.9222
aido	-13.9223
olev	-13.9225
▁aker	-13.9232
SV	-13.9233
PI	-13.9237
▁raw	-13.9248
▁41.	-13.9251
arka	-13.9256
▁lkk	-13.9256
▁nin	-13.9257
ers	-13.9257
▁edne	-13.9257
sè	-13.9262
▁ynam	-13.9264
▁mep	-13.9268
▁122	-13.9269
lja	-13.9274
▁nob	-13.9277
▁tukun	-13.9277
syy	-13.9278
▁örni	-13.9279
▁ragm	-13.9279
▁köyh	-13.9286
▁37.	-13.9288
▁mast	-13.9296
▁ahan	-13.9298
▁uff	-13.9299
▁NNA	-13.9302
tais	-13.9306
▁kad	-13.9306
▁Noir	-13.9309
▁elec	-13.9315
▁down	-13.9323
näh	-13.9324
TO	-13.9325
▁orvo	-13.9326
nku	-13.9333
▁rago	-13.9338
▁ombe	-13.9346
▁Swa	-13.9351
▁llee	-13.9357
▁koot	-13.9358
▁afe	-13.9363
via	-13.9364
▁kpl	-13.9365
uman	-13.9366
mero	-13.937
▁edic	-13.9376
▁iorg	-13.9379
▁ни	-13.9389
halli	-13.9389
▁yly	-13.939
▁ombi	-13.9392
EK	-13.9394
▁Wel	-13.9398
▁acco	-13.9399
▁35.	-13.9411
ES	-13.9412
äd	-13.9413
rtz	-13.9414
rif	-13.9418
nef	-13.9428
▁Iin	-13.9441
▁volt	-13.9443
nuk	-13.9447
aro	-13.9459
▁ixi	-13.9465
rast	-13.9467
nkk	-13.9468
▁eBr	-13.9473
▁Neb	-13.9476
▁uaa	-13.9481
▁gard	-13.9484
aida	-13.9485
▁Ris	-13.9486
▁zu	-13.9486
▁pix	-13.9488
sanoo	-13.9489
▁erhi	-13.9491
▁Tort	-13.9496
namo	-13.9497
▁mane	-13.9506
ule	-13.9509
▁Sev	-13.9509
Agr	-13.951
uusi	-13.9511
tola	-13.9513
▁ajie	-13.9517
'	-13.9518
▁hiom	-13.9531
▁kaus	-13.9533
▁reig	-13.9545
ampi	-13.9546
SC	-13.9546
▁shor	-13.9552
läis	-13.9557
▁torm	-13.9561
▁lof	-13.9562
von	-13.9564
▁hive	-13.9584
▁limu	-13.9584
▁rama	-13.9584
▁reiä	-13.9585
▁Auc	-13.9588
▁ermaa	-13.9597
▁Koov	-13.9598
bot	-13.9599
▁Trag	-13.9599
▁nuol	-13.9601
nér	-13.9603
▁ähdä	-13.9603
▁umph	-13.9606
irg	-13.9611
▁Yu	-13.9612
▁occi	-13.9612
otor	-13.9613
▁numm	-13.962
▁rier	-13.9631
yne	-13.9639
▁PAL	-13.9643
▁SK	-13.9645
▁SP	-13.9645
▁sar	-13.9648
▁diil	-13.9666
▁tlan	-13.967
▁weet	-13.9672
▁Sah	-13.9677
▁nypp	-13.9678
▁cat	-13.9679
wo	-13.9683
▁Puu	-13.9687
wi	-13.9688
▁olhi	-13.9693
49	-13.9696
ttia	-13.9696
cid	-13.97
▁egem	-13.9704
▁urho	-13.9708
▁AY	-13.971
▁cc	-13.971
äe	-13.9722
udd	-13.9725
▁lata	-13.9734
▁seg	-13.9754
▁uipe	-13.9758
we	-13.9772
utk	-13.9785
▁aaso	-13.9785
▁★	-13.9793
▁lumo	-13.9795
▁Goo	-13.9799
atru	-13.9808
ity	-13.9811
asvo	-13.9812
uuku	-13.9812
▁lee	-13.9814
▁ipr	-13.9815
▁6-	-13.9824
▁esca	-13.9839
iffe	-13.9847
▁Kay	-13.9851
odz	-13.9851
▁liud	-13.9864
ilj	-13.9869
▁osco	-13.987
pse	-13.9872
äärä	-13.9881
▁kate	-13.9882
nas	-13.9887
zé	-13.9888
▁Az	-13.9889
▁heid	-13.989
▁naku	-13.989
uoro	-13.9898
▁Fü	-13.9901
▁arav	-13.9905
OM	-13.9914
auta	-13.9921
▁lesk	-13.9921
atk	-13.9923
RU	-13.9925
mbo	-13.993
lux	-13.9931
rom	-13.9932
iilo	-13.9933
lubi	-13.9935
▁onco	-13.9938
▁rupa	-13.9938
▁fil	-13.9939
▁Juse	-13.994
sää	-13.996
▁Wilk	-13.9965
▁edd	-13.9967
▁mg	-13.9971
ALA	-13.9972
▁add	-13.9972
dis	-13.9979
▁VI	-13.998
▁Fuen	-13.9985
rat	-13.9986
▁ylv	-13.9988
nci	-13.9988
▁Up	-13.999
▁Dela	-13.9991
▁Yah	-14.0001
önkä	-14.0007
dé	-14.0013
amer	-14.0014
ere	-14.0017
SD	-14.0024
aara	-14.0027
orja	-14.0035
IT	-14.0041
▁Camp	-14.0048
▁oosi	-14.0049
▁Kirg	-14.0051
▁kassi	-14.0051
▁så	-14.0054
▁<	-14.0059
▁Horky	-14.006
▁Lef	-14.006
▁5-2	-14.0063
▁weig	-14.0064
▁DR	-14.0064
él	-14.0064
▁Webb	-14.0065
▁kep	-14.0066
▁Dolp	-14.0069
br	-14.007
äne	-14.0072
▁rott	-14.0075
,0	-14.0076
tanut	-14.0079
▁game	-14.008
lbe	-14.0082
▁Siira	-14.0088
▁öte	-14.0089
ork	-14.009
▁Lviv	-14.0091
▁hatc	-14.0092
▁rouhe	-14.0096
uzz	-14.0096
▁96.	-14.0098
39	-14.0098
▁FI	-14.0102
▁ón	-14.0107
64	-14.0109
▁Foo	-14.0114
▁Camb	-14.0115
▁oiko	-14.0118
▁Dea	-14.0125
▁Carg	-14.0127
▁Ush	-14.0132
▁UP	-14.0132
tke	-14.0134
▁Sor	-14.0137
▁hihk	-14.0153
▁Witt	-14.0154
BB	-14.0154
PP	-14.0159
rmi	-14.0159
▁käpy	-14.0161
▁51.	-14.0161
imaa	-14.0162
ehto	-14.0163
ë	-14.0166
▁STU	-14.017
▁55.	-14.0173
▁Dal	-14.0174
▁kurs	-14.0175
sor	-14.0177
▁rkti	-14.0178
▁arse	-14.0188
isin	-14.0188
lähe	-14.0191
SI	-14.0191
CF	-14.0193
▁sär	-14.0196
lje	-14.02
▁Rip	-14.0201
▁oach	-14.0201
▁Kars	-14.0204
hmi	-14.021
▁Dog	-14.0215
▁col	-14.0224
▁Ik	-14.0225
nkr	-14.0226
rint	-14.0227
▁Niro	-14.0227
▁loy	-14.0236
▁unch	-14.0239
▁care	-14.0241
▁aq	-14.0244
▁oaa	-14.025
akin	-14.025
▁teip	-14.0253
▁Walta	-14.0254
▁Bra	-14.0255
▁älli	-14.0256
▁45.	-14.0257
▁ögl	-14.0261
▁gnes	-14.0263
arc	-14.0266
hl	-14.027
▁tiva	-14.0273
▁SC	-14.0274
ilai	-14.0275
uand	-14.0276
nch	-14.0284
▁Ned	-14.0287
▁Sä	-14.0293
ilb	-14.0295
ald	-14.0295
▁iner	-14.0296
obb	-14.031
ekä	-14.031
käyt	-14.0313
tru	-14.0314
irj	-14.0326
jai	-14.0328
▁lien	-14.0332
ifa	-14.0333
tig	-14.0338
▁šer	-14.0338
▁ilsk	-14.0338
▁rako	-14.0338
▁ompe	-14.0339
▁Hic	-14.0346
▁ušk	-14.0347
▁ios	-14.0347
ogo	-14.0352
RF	-14.0359
▁liu	-14.036
uke	-14.0367
sis	-14.0378
▁rouv	-14.0381
▁kog	-14.0384
▁otši	-14.0385
akt	-14.0386
▁huu	-14.0389
▁pt	-14.0398
▁hm	-14.0399
▁homm	-14.0399
atta	-14.0401
▁koos	-14.0402
▁aekw	-14.0405
yb	-14.0407
emb	-14.0408
▁Yag	-14.0413
VV	-14.0414
erin	-14.0417
udo	-14.043
▁Vih	-14.0443
umo	-14.0445
▁occ	-14.0446
väh	-14.0447
▁alba	-14.0463
lto	-14.0463
▁8)	-14.0468
sep	-14.0473
▁ouda	-14.0475
▁aldo	-14.0481
▁Gi	-14.0481
▁duon	-14.0483
Ä	-14.0498
▁act	-14.0505
ikaa	-14.0507
CO	-14.0508
▁luko	-14.051
atr	-14.0516
adi	-14.0524
▁ambo	-14.0526
▁Dat	-14.0532
erz	-14.0533
▁hips	-14.0535
fer	-14.0538
▁aga	-14.0542
▁Bez	-14.0545
PL	-14.0549
jät	-14.0551
▁asca	-14.0553
▁KK	-14.0553
▁bull	-14.0567
hak	-14.0569
kit	-14.057
▁odka	-14.0577
▁revo	-14.0589
ás	-14.0594
▁arza	-14.0598
KU	-14.0598
uja	-14.0602
▁Ripa	-14.0607
▁ökö	-14.061
▁Tru	-14.0615
▁Grie	-14.0615
ulva	-14.0615
▁rimp	-14.062
änni	-14.0627
▁utru	-14.0632
▁Nou	-14.0636
tos	-14.0636
eko	-14.0638
▁nipu	-14.064
▁omell	-14.064
ela	-14.0641
▁laku	-14.0643
▁yytt	-14.0644
▁Amé	-14.0652
▁Hend	-14.0661
▁keis	-14.0662
▁Weg	-14.0663
▁ayan	-14.0672
▁ambe	-14.0673
enes	-14.0678
▁reut	-14.0681
▁enz	-14.0686
▁lomi	-14.0694
kap	-14.0697
▁Mör	-14.0699
▁Uura	-14.07
AC	-14.0716
▁(6	-14.0723
▁Wins	-14.0726
▁sykk	-14.0739
▁väi	-14.0743
hme	-14.0744
7)	-14.0746
pper	-14.0754
▁leb	-14.0754
▁ilko	-14.0756
dos	-14.0763
▁Tolp	-14.0783
IU	-14.0783
▁Giu	-14.0787
yan	-14.0788
▁huik	-14.0792
▁eedi	-14.0793
orj	-14.0795
▁Ta	-14.0797
hä	-14.08
lov	-14.0806
uoden	-14.0813
▁Ž	-14.0815
▁Ås	-14.0817
▁emer	-14.0819
IR	-14.082
OT	-14.0826
▁(3	-14.0827
▁eres	-14.0829
ahl	-14.083
8.	-14.0851
▁Suv	-14.0851
▁â	-14.0854
▁Clio	-14.0863
öl	-14.0868
▁Du	-14.087
RI	-14.0877
▁öpp	-14.0881
rmu	-14.0885
cci	-14.0889
rok	-14.0889
rgen	-14.0896
▁oth	-14.0896
▁ahe	-14.0897
tuli	-14.0902
▁ouz	-14.0907
▁märk	-14.0907
▁BRI	-14.0908
▁urs	-14.0909
▁cran	-14.091
▁krob	-14.0911
BD	-14.0912
mith	-14.0919
▁(8	-14.0919
hiba	-14.0922
uth	-14.0922
peru	-14.0929
leen	-14.0936
▁Keul	-14.0945
▁ruua	-14.0946
▁Bard	-14.0947
71	-14.095
▁Hub	-14.0951
TM	-14.0954
▁synk	-14.0957
ardi	-14.0971
▁Abdi	-14.0976
ette	-14.0979
▁rp	-14.0985
KS	-14.0991
▁ostr	-14.1
▁siit	-14.1004
▁farm	-14.1005
▁käyn	-14.1007
▁olov	-14.1011
ärpä	-14.1013
iili	-14.1014
▁rips	-14.1015
▁uzm	-14.1015
▁Sta	-14.1019
▁Had	-14.1022
vent	-14.1027
ainen	-14.1028
nia	-14.1037
yvin	-14.1042
hes	-14.1045
RY	-14.1048
×	-14.1059
▁Díaz	-14.1059
seura	-14.1061
▁FRA	-14.1064
▁esl	-14.1066
▁heil	-14.1066
pé	-14.1067
▁karp	-14.1069
▁eltto	-14.1069
▁Ria	-14.107
▁jørn	-14.1072
agne	-14.1072
▁0-1	-14.1073
▁SUV	-14.1075
▁mage	-14.1078
asa	-14.1078
▁sig	-14.1081
▁atil	-14.1081
▁dj	-14.1094
▁Uro	-14.1095
▁redd	-14.1102
▁cio	-14.1102
▁abo	-14.1105
ürk	-14.1107
onta	-14.1114
▁179	-14.1114
▁Roth	-14.1116
tois	-14.1121
▁leuat	-14.1121
▁jän	-14.1122
▁FT	-14.1126
▁äsy	-14.1127
▁born	-14.1127
▁Bald	-14.114
ident	-14.1141
▁bah	-14.1142
▁Auk	-14.1144
aikki	-14.1146
▁56.	-14.1152
▁trad	-14.1154
▁egg	-14.1154
▁Gro	-14.1157
HOTO	-14.1158
▁Tenh	-14.1163
rauc	-14.1165
ök	-14.1166
esb	-14.1171
▁olkku	-14.1175
ook	-14.1179
ähti	-14.118
hma	-14.118
▁eggi	-14.1181
▁46.	-14.119
cco	-14.119
▁east	-14.1192
▁asha	-14.1194
▁7-	-14.1196
▁suol	-14.1196
▁HT	-14.1198
▁deep	-14.12
ulok	-14.1202
▁segg	-14.1203
▁Weis	-14.1205
▁ET	-14.1206
▁gent	-14.1208
▁39.	-14.1209
▁Ev	-14.1211
▁amel	-14.1213
▁Foun	-14.1215
▁Rec	-14.1221
▁Öö	-14.1226
▁ld	-14.1227
▁ättö	-14.1227
▁Ayla	-14.1231
ainz	-14.125
▁cal	-14.1254
▁itan	-14.1255
▁Ranki	-14.1259
gl	-14.1262
▁ausa	-14.1267
erta	-14.1268
▁Gand	-14.1274
anti	-14.1276
▁aluv	-14.1276
▁soja	-14.128
▁Mitr	-14.128
EI	-14.1287
ye	-14.1287
▁ärrä	-14.1288
▁Gyll	-14.129
0,	-14.1295
▁uneen	-14.1296
ož	-14.1303
▁NMKY	-14.1306
maj	-14.1307
▁ITU	-14.1314
▁doro	-14.1316
▁abw	-14.1317
▁OL	-14.1325
▁lå	-14.1328
arq	-14.133
ukkue	-14.1336
▁Wulf	-14.1337
▁MAL	-14.1343
vielä	-14.1343
▁AG	-14.1345
▁Rön	-14.1347
▁rame	-14.1352
urs	-14.1357
uiva	-14.1369
▁Wert	-14.1369
▁Ride	-14.137
yte	-14.1374
▁örö	-14.1375
▁Hör	-14.138
▁Dee	-14.1383
▁Get	-14.1387
▁Adv	-14.1389
▁sol	-14.1392
ipp	-14.1393
▁tyhj	-14.1401
nnus	-14.1403
▁elda	-14.1404
▁kilv	-14.1407
sekä	-14.1408
opin	-14.1413
▁IFA	-14.1415
▁ader	-14.1416
▁ieru	-14.1418
▁uuna	-14.1418
dw	-14.1426
DI	-14.1432
▁wee	-14.1439
▁owen	-14.1444
▁Mair	-14.1447
▁ertz	-14.1448
▁vob	-14.1459
▁iš	-14.146
▁oVo	-14.1466
aw	-14.1471
▁toko	-14.1472
inci	-14.1475
▁öysä	-14.1475
▁Abd	-14.1494
▁Nev	-14.1495
aare	-14.15
▁nave	-14.1502
hda	-14.1508
oht	-14.1515
jos	-14.1519
▁Rez	-14.1521
▁Bi	-14.1528
▁moz	-14.1539
▁anci	-14.1539
▁narut	-14.154
kub	-14.1561
▁altt	-14.1567
▁läpp	-14.1568
▁maju	-14.1572
▁ueb	-14.1573
▁Ana	-14.1575
OC	-14.1581
▁exu	-14.1583
▁liek	-14.1584
▁änn	-14.1586
▁Fut	-14.1588
▁ond	-14.1596
ohta	-14.1597
▁SJ	-14.1597
rh	-14.1608
▁werk	-14.1609
ARA	-14.1613
▁ielo	-14.1621
▁oph	-14.1628
urmo	-14.1638
▁kof	-14.1641
á	-14.1649
naa	-14.165
▁teta	-14.1653
▁Verd	-14.1656
▁owne	-14.1661
▁iett	-14.1663
tark	-14.1667
▁sha	-14.1668
epe	-14.1679
aste	-14.1685
▁atch	-14.1693
▁lyp	-14.1693
hon	-14.1695
rce	-14.1696
▁nyrp	-14.1698
▁tala	-14.1699
▁Tel	-14.1704
▁ubin	-14.1706
artu	-14.1706
hai	-14.1708
▁bur	-14.1709
urk	-14.1714
NBC	-14.1717
dju	-14.1722
▁agd	-14.1725
▁dow	-14.1726
▁eno	-14.1736
apon	-14.1736
▁ADA	-14.1739
▁Roms	-14.174
rups	-14.1741
▁inic	-14.1741
lly	-14.176
▁Sarp	-14.1762
▁koje	-14.1775
izz	-14.1775
mmin	-14.1776
▁UL	-14.1778
raya	-14.1793
▁mudi	-14.1793
▁Fua	-14.1806
PC	-14.1817
▁Sub	-14.1818
hdi	-14.1828
dol	-14.1829
▁lici	-14.1852
▁miet	-14.1853
▁Pub	-14.1856
▁Reis	-14.1856
▁Katt	-14.1857
▁Deg	-14.1864
▁uier	-14.187
▁huiv	-14.1877
esco	-14.1883
▁seit	-14.1886
82	-14.1886
aavu	-14.1888
öyh	-14.1889
▁ugar	-14.1889
ens	-14.1891
(	-14.1893
ltu	-14.1894
▁kummi	-14.1898
▁irko	-14.1898
▁aasin	-14.1918
▁xy	-14.1929
oug	-14.1952
▁hamu	-14.1957
ulki	-14.1968
kim	-14.1976
GM	-14.1986
vero	-14.1996
▁liä	-14.2009
▁4:	-14.2013
mitr	-14.2019
zar	-14.2022
orko	-14.2026
ehtä	-14.2026
▁PT	-14.2027
ente	-14.2032
▁erse	-14.2033
▁Dere	-14.2051
▁MMA	-14.2054
DS	-14.2071
▁Toh	-14.2077
kom	-14.2096
▁Hod	-14.2097
now	-14.2098
▁AL	-14.2099
▁Arg	-14.2102
▁Trö	-14.2103
uussa	-14.2106
▁näpy	-14.2107
▁till	-14.2108
▁Nola	-14.212
ELI	-14.2121
asem	-14.2132
▁Kerm	-14.2133
teh	-14.2135
▁mök	-14.2139
▁aipe	-14.2139
näyt	-14.2149
▁fu	-14.2151
▁wed	-14.2163
bah	-14.2165
▁Ø	-14.217
iiv	-14.2173
▁CLE	-14.2173
▁0-4	-14.2175
▁SEY	-14.2178
▁Cobb	-14.2178
▁PHEV	-14.218
ngi	-14.2182
▁iepa	-14.2183
▁lós	-14.2188
▁irma	-14.2188
▁õ	-14.2189
▁Daw	-14.2191
▁uppu	-14.2194
illo	-14.2194
▁Dr	-14.2195
mall	-14.2195
▁barb	-14.2196
tšer	-14.2197
▁eslaa	-14.2198
▁äva	-14.2198
▁SKS	-14.2202
▁Art	-14.2204
ALK	-14.2205
AU	-14.2206
▁п	-14.2208
▁Rise	-14.2213
▁inb	-14.2213
▁194	-14.2213
▁iren	-14.2214
ren	-14.2217
▁lits	-14.2217
ärsk	-14.2219
ertoi	-14.2221
▁ndré	-14.2224
DMA	-14.2229
▁Käp	-14.2231
auvo	-14.2232
raj	-14.2233
▁139	-14.2233
▁år	-14.2235
ihmi	-14.2244
▁Avi	-14.2244
▁68.	-14.2249
▁lush	-14.225
▁ietz	-14.2254
▁ISU	-14.2255
▁138	-14.2255
▁162	-14.2255
▁Beau	-14.2258
▁FX	-14.2263
▁Aj	-14.2267
▁247	-14.2275
▁Ghar	-14.2276
▁MAS	-14.228
▁ylvi	-14.2283
▁už	-14.2285
aroi	-14.2285
jet	-14.2288
▁tät	-14.2288
▁kyte	-14.2288
▁Lo	-14.2289
pio	-14.2292
▁ated	-14.2295
päivä	-14.2295
auri	-14.2299
▁43.	-14.2301
▁OSA	-14.2305
▁Sipe	-14.2314
mmu	-14.2314
hvi	-14.2316
▁ó	-14.2317
▁Lemp	-14.2319
esu	-14.2324
▁Foot	-14.2326
▁44.	-14.2326
▁65.	-14.2326
▁75.	-14.2328
/7	-14.2329
+3	-14.233
▁nudd	-14.2331
▁ebbi	-14.2332
jah	-14.2334
▁äbä	-14.2334
oss	-14.234
yrit	-14.2345
mies	-14.2345
▁nak	-14.2346
xio	-14.235
▁animo	-14.2352
▁uben	-14.2352
lap	-14.2357
▁yykö	-14.2357
▁Mix	-14.2364
▁PC	-14.2383
hri	-14.2386
IN	-14.2389
▁Kair	-14.2391
reg	-14.2394
üf	-14.2395
önki	-14.2397
lie	-14.2398
atri	-14.2398
shu	-14.2402
urz	-14.2407
aisi	-14.2408
gelm	-14.241
▁tukk	-14.2412
aekw	-14.2416
amb	-14.2417
▁mei	-14.2429
roo	-14.243
▁Kihu	-14.2435
▁eula	-14.2439
▁...	-14.2439
auna	-14.2439
▁Tsah	-14.244
▁aque	-14.2443
+	-14.2444
CL	-14.2453
yg	-14.2454
atuo	-14.2456
ikan	-14.2458
▁ár	-14.2465
▁rypä	-14.2468
▁Wien	-14.2469
▁CC	-14.247
▁Eq	-14.2474
▁Ronn	-14.2477
▁ämi	-14.2482
▁sät	-14.2488
NEN	-14.249
▁Cob	-14.2492
▁ött	-14.2495
▁Was	-14.2503
▁lair	-14.2505
▁LD	-14.2508
▁ljus	-14.252
▁opsu	-14.2522
RD	-14.2524
▁Outl	-14.2532
▁allu	-14.2532
ncy	-14.2532
▁eddy	-14.2533
lak	-14.2536
list	-14.2538
▁särk	-14.2541
▁orja	-14.255
luo	-14.2551
▁syt	-14.2553
eir	-14.2571
▁ulpp	-14.2572
▁л	-14.2577
▁Sirk	-14.2578
suur	-14.2578
▁amona	-14.2581
ywe	-14.2585
▁adj	-14.2588
▁eepr	-14.2589
kesk	-14.2589
utti	-14.2597
▁eppu	-14.2605
NS	-14.2606
▁Ruf	-14.2607
uuli	-14.2607
▁hif	-14.2608
fo	-14.2609
▁Hus	-14.2612
▁Posa	-14.2613
▁önö	-14.2621
▁zg	-14.2623
esp	-14.2629
emor	-14.2632
siitä	-14.2632
▁к	-14.2634
esä	-14.2636
oy	-14.2636
▁ouve	-14.2644
▁XL	-14.2649
auhu	-14.2652
▁etto	-14.2653
sut	-14.2655
ljo	-14.2662
▁AKK	-14.2665
▁ST	-14.2665
ер	-14.2667
▁BR	-14.2671
▁sapl	-14.2673
▁lend	-14.2675
▁amon	-14.2675
▁pac	-14.2679
▁Cro	-14.268
▁loa	-14.2684
äli	-14.2688
▁iero	-14.2693
▁rag	-14.2693
nh	-14.2702
rdi	-14.2707
vuosi	-14.271
▁ärp	-14.271
▁endo	-14.2712
▁nkoo	-14.272
▁Io	-14.2722
illi	-14.2726
▁iebe	-14.273
ahi	-14.2733
▁oukka	-14.2735
ddi	-14.274
▁Mol	-14.2755
▁ecu	-14.2773
ddik	-14.2775
▁arku	-14.2777
н	-14.2783
okka	-14.2786
да	-14.2793
▁peci	-14.2796
OP	-14.28
▁angi	-14.2807
log	-14.2814
▁ufo	-14.2814
▁ymni	-14.2815
▁cap	-14.2815
aksu	-14.2817
ynt	-14.2819
▁Xh	-14.2824
▁Mura	-14.2825
▁lej	-14.283
▁Tara	-14.2835
▁elc	-14.2836
▁reak	-14.2837
▁oge	-14.2844
▁ín	-14.2846
▁Haar	-14.2849
▁Tren	-14.2853
▁AUT	-14.2853
▁Traa	-14.286
▁oop	-14.2864
reep	-14.2865
rf	-14.2866
vil	-14.2867
add	-14.2868
▁Mr	-14.2869
▁Lapp	-14.2872
▁NEN	-14.2873
▁yvi	-14.2877
▁Kaut	-14.288
▁edda	-14.2881
aski	-14.2883
hopp	-14.2884
▁akr	-14.2887
▁amie	-14.2888
▁akin	-14.2889
lija	-14.2891
▁Enz	-14.2891
▁rash	-14.2896
He	-14.2897
aap	-14.2903
quar	-14.2905
etoa	-14.2908
▁Arma	-14.2909
▁Ove	-14.2915
▁töpp	-14.292
ikar	-14.2927
▁utej	-14.2928
▁iosk	-14.2929
ystä	-14.2935
ytö	-14.2937
ull	-14.294
▁CR	-14.2943
▁haue	-14.2943
▁trio	-14.2943
▁Sha	-14.2952
▁gol	-14.2955
gle	-14.2958
öf	-14.2959
nnel	-14.2967
itk	-14.2971
▁norp	-14.2976
▁roks	-14.2985
OI	-14.2995
det	-14.3
▁не	-14.3
▁GL	-14.3002
naan	-14.3003
nge	-14.301
▁upi	-14.3011
lipp	-14.3015
▁Zen	-14.3016
tek	-14.3016
alio	-14.3016
▁jel	-14.3016
▁Fue	-14.3019
▁rkko	-14.302
▁atio	-14.3023
umpi	-14.3027
▁suke	-14.3028
siä	-14.3029
▁camp	-14.3036
teet	-14.3037
▁Bus	-14.3039
▁ärsy	-14.3041
▁sess	-14.3043
▁auv	-14.3056
eik	-14.3061
▁Hor	-14.3072
dem	-14.3079
▁Roja	-14.3084
uuro	-14.3085
ocu	-14.3087
▁viev	-14.3094
▁Fl	-14.3095
roa	-14.3098
▁Riv	-14.3105
ée	-14.3109
rgo	-14.3113
▁Fat	-14.3114
▁kärki	-14.3124
outo	-14.3124
▁uij	-14.3128
▁FIN	-14.3128
▁Aspe	-14.3129
▁Zit	-14.313
ääsi	-14.3131
▁räpi	-14.3136
urm	-14.3138
iev	-14.314
øy	-14.3142
▁Opr	-14.3149
62	-14.3152
▁step	-14.3159
iap	-14.3162
▁Hin	-14.317
asc	-14.3172
moj	-14.3174
dze	-14.3175
peli	-14.3178
SP	-14.3183
▁esha	-14.3184
▁wig	-14.3185
72	-14.3192
▁läss	-14.3198
▁ALA	-14.3199
▁alek	-14.3199
▁hash	-14.3201
aft	-14.3212
np	-14.3214
▁cell	-14.322
ksia	-14.3227
▁Beh	-14.3234
▁joog	-14.3235
öy	-14.3236
▁asic	-14.3237
ND	-14.3238
▁odeo	-14.324
ń	-14.3247
wig	-14.3251
▁eol	-14.3258
▁Okko	-14.3259
häne	-14.3263
inko	-14.3264
nuu	-14.3265
▁Aart	-14.3266
pat	-14.3268
itten	-14.3281
▁Noa	-14.3281
▁Rans	-14.3284
töks	-14.3295
▁SUO	-14.3297
ME	-14.3297
unne	-14.3304
RA	-14.3304
▁cci	-14.3307
sef	-14.3315
▁Tra	-14.3315
▁rakk	-14.3317
▁Nooa	-14.3329
▁Wirt	-14.3333
NT	-14.3348
▁töyk	-14.3348
▁bin	-14.3356
att	-14.3361
▁room	-14.3365
▁eini	-14.3369
▁eade	-14.3376
▁jus	-14.3381
cha	-14.3388
ро	-14.3393
▁ugge	-14.3398
sey	-14.34
Ukra	-14.3403
IC	-14.3405
▁ardo	-14.3405
▁krik	-14.3412
▁lare	-14.3413
▁д	-14.3416
▁izhz	-14.3421
raal	-14.3422
▁5-3	-14.3424
čí	-14.3427
▁upra	-14.3428
3.	-14.3431
▁Yego	-14.3431
▁tipu	-14.3431
ouf	-14.3434
▁Paí	-14.3434
sanoi	-14.3436
▁Rü	-14.3447
▁usa	-14.3449
▁AIC	-14.3449
ohk	-14.345
▁givar	-14.345
▁wif	-14.3459
arla	-14.3462
▁Bubb	-14.3465
▁kt	-14.3468
HP	-14.347
▁sorru	-14.347
▁8,2	-14.3472
▁stems	-14.3485
▁Ak	-14.3486
▁atik	-14.349
oiv	-14.3491
▁Bahr	-14.3495
▁Kidm	-14.3495
▁anse	-14.3497
ör	-14.3499
▁69.	-14.3502
ller	-14.3504
▁67.	-14.3511
dzh	-14.3511
▁holo	-14.3512
▁77.	-14.3513
▁reez	-14.3518
▁Kap	-14.3521
▁JÄ	-14.3523
ensa	-14.3524
▁LKV	-14.3525
▁Bah	-14.3527
▁59.	-14.3527
ham	-14.3529
noma	-14.3531
ray	-14.3532
▁wis	-14.3534
nem	-14.3535
LC	-14.3538
▁lob	-14.354
eulo	-14.354
▁ülen	-14.3542
ral	-14.3542
▁Mitat	-14.3543
▁52.	-14.3544
▁PÄÄK	-14.3545
▁digg	-14.3551
RH	-14.3554
▁57.	-14.3555
oor	-14.3557
▁cy	-14.3559
▁ascal	-14.356
▁öper	-14.3561
dge	-14.3562
▁eq	-14.3563
▁upu	-14.3564
▁Haye	-14.3564
▁skab	-14.3571
▁ruuk	-14.3573
ndr	-14.3574
kosk	-14.3579
blic	-14.3581
▁Sip	-14.3586
▁ø	-14.3596
hab	-14.36
▁3-	-14.3602
▁irak	-14.3604
▁216	-14.3615
▁turm	-14.3615
etä	-14.3619
▁orro	-14.3621
▁Oura	-14.3621
▁ła	-14.3626
▁ege	-14.363
▁nars	-14.3633
VO	-14.364
▁goog	-14.3642
iht	-14.3648
▁ntis	-14.3653
tik	-14.3654
lia	-14.3657
alku	-14.366
▁Kore	-14.3661
▁Raff	-14.3662
kuva	-14.3664
▁Lipp	-14.3668
oho	-14.3669
▁latt	-14.3674
ehd	-14.3676
▁Wei	-14.3683
ksan	-14.3687
▁cop	-14.3687
▁(5	-14.3688
rås	-14.3689
gb	-14.3694
▁dump	-14.3699
▁Ze	-14.3699
▁ryn	-14.37
▁öhn	-14.3702
то	-14.3704
▁Rask	-14.3705
▁örmi	-14.3707
▁Aam	-14.3709
▁Bu	-14.3717
UP	-14.3717
▁för	-14.3719
▁agina	-14.3722
▁hib	-14.3722
nkilö	-14.3728
epti	-14.3742
mag	-14.3746
RS	-14.3754
▁orco	-14.3755
▁Oyj	-14.3755
▁nyök	-14.3755
AT	-14.3756
BT	-14.3764
▁alum	-14.3767
mus	-14.3771
▁ühl	-14.3775
määrä	-14.3777
wait	-14.3783
▁Syk	-14.3789
▁Den	-14.379
yke	-14.379
pia	-14.3793
▁true	-14.3805
▁70.	-14.3811
rss	-14.3811
aane	-14.3815
▁uiz	-14.382
sitä	-14.3831
▁09	-14.3835
▁kukk	-14.3837
▁ser	-14.3837
suom	-14.3838
lac	-14.3839
▁ilpu	-14.384
orme	-14.3844
▁lij	-14.3848
ST	-14.3853
▁Cord	-14.3855
Ka	-14.386
uod	-14.3867
▁McA	-14.387
▁MC	-14.3871
yys	-14.3872
▁Bask	-14.3875
▁Lug	-14.3877
▁Riko	-14.3877
▁hlö	-14.3881
▁abb	-14.3882
eed	-14.3884
lén	-14.389
▁erbi	-14.3893
▁uppo	-14.3904
▁ст	-14.3908
jää	-14.3909
▁rava	-14.3914
▁Moro	-14.3917
▁WW	-14.3918
▁loss	-14.3918
▁azza	-14.3919
aas	-14.392
KL	-14.392
▁rgan	-14.3922
▁embe	-14.3923
▁emoj	-14.3923
▁пр	-14.3924
tele	-14.3925
bin	-14.3927
▁kaas	-14.3929
▁ashi	-14.393
rq	-14.3946
anj	-14.3947
muut	-14.3952
▁jive	-14.3955
kana	-14.3959
liik	-14.3968
AM	-14.3977
▁Lab	-14.398
rran	-14.3984
iok	-14.3984
ylä	-14.3987
edd	-14.3991
stuu	-14.3993
▁renz	-14.3994
▁urch	-14.3997
ubb	-14.3998
rät	-14.4
AIK	-14.4006
▁Radi	-14.4013
▁uf	-14.4016
▁kare	-14.4022
▁röke	-14.4023
VR	-14.4026
aljon	-14.403
▁Duo	-14.4031
▁ynkr	-14.4033
nom	-14.4034
▁onrad	-14.4037
▁euli	-14.4039
▁Fo	-14.4042
▁н	-14.4042
▁★★	-14.4048
▁teit	-14.405
▁By	-14.4053
▁ipsin	-14.4053
suo	-14.4055
▁Clin	-14.4062
▁zum	-14.4065
aso	-14.4067
lep	-14.4071
▁rega	-14.4089
vir	-14.4092
▁aitt	-14.4093
▁tölk	-14.4095
▁MIN	-14.4098
▁katua	-14.4104
▁Va	-14.4106
ada	-14.4109
ljä	-14.4118
▁Gea	-14.4121
▁SIS	-14.414
onk	-14.4141
iske	-14.4142
▁rlea	-14.4148
itsu	-14.4148
esit	-14.4151
SE	-14.4151
▁ocka	-14.416
▁Whel	-14.4161
aami	-14.4161
▁itc	-14.4176
▁tou	-14.4181
▁kyn	-14.4183
▁uuru	-14.4187
▁aiska	-14.4189
DU	-14.4195
iza	-14.4195
▁horp	-14.4203
▁Roc	-14.4203
kirj	-14.4215
lti	-14.422
▁Amel	-14.4222
▁Hem	-14.4229
▁immo	-14.423
▁Ré	-14.4239
iipi	-14.4239
▁naul	-14.424
lbum	-14.4241
▁sähl	-14.4245
ajat	-14.4247
▁önn	-14.4254
▁Sipa	-14.4257
▁JS	-14.4261
apsu	-14.4265
▁umb	-14.4275
isar	-14.4277
ryff	-14.4277
kia	-14.4283
▁äPa	-14.4287
▁Lod	-14.4288
lad	-14.43
aqui	-14.4306
puhe	-14.4312
ärj	-14.4313
▁9)	-14.4314
▁albo	-14.4316
ätä	-14.432
▁inc	-14.4321
eskus	-14.4321
turva	-14.4321
rmä	-14.4323
▁taff	-14.4324
arko	-14.4326
▁nig	-14.4327
▁6:	-14.4336
nest	-14.434
▁Mais	-14.435
▁Bod	-14.4351
▁ylan	-14.4354
ESS	-14.4354
▁veiv	-14.4354
▁rd	-14.4357
▁ribu	-14.4357
nv	-14.4358
на	-14.4363
irkk	-14.4371
▁Run	-14.4372
hmä	-14.4373
käi	-14.4378
▁dra	-14.4378
▁Abro	-14.4381
agu	-14.4383
▁koa	-14.4384
▁ravu	-14.4385
äck	-14.4394
uuti	-14.4395
ukaa	-14.4398
▁KL	-14.4401
kaksi	-14.4404
▁Gl	-14.4408
LAS	-14.4412
uld	-14.4416
▁lokk	-14.4422
▁Ewa	-14.4424
noin	-14.4425
ars	-14.443
▁dass	-14.443
▁leur	-14.4434
ttö	-14.4443
▁amso	-14.4443
▁Gho	-14.4443
▁orri	-14.4447
▁mine	-14.445
▁Add	-14.4459
▁orpo	-14.446
▁Mak	-14.447
▁lac	-14.4471
▁you	-14.4476
▁год	-14.4476
▁JU	-14.4476
ret	-14.4477
umpa	-14.4477
▁Rin	-14.4482
▁karb	-14.4484
▁assu	-14.449
▁Trap	-14.4496
▁äihk	-14.4501
ür	-14.4503
occ	-14.451
lho	-14.452
tode	-14.4521
▁ych	-14.4526
JP	-14.4526
impi	-14.4529
kast	-14.4531
▁umba	-14.4532
bil	-14.4538
▁Yoa	-14.454
omio	-14.4548
▁Doo	-14.4552
arte	-14.4554
▁avlo	-14.4562
▁rVo	-14.4569
tuv	-14.4578
▁Lum	-14.4579
umb	-14.4579
▁narr	-14.4587
▁entr	-14.4603
▁foto	-14.4605
urha	-14.4607
ль	-14.4611
▁laba	-14.4611
nuut	-14.4619
nz	-14.4646
Ha	-14.4647
▁Rati	-14.4649
wan	-14.465
zzo	-14.4652
▁öngä	-14.4655
▁yam	-14.466
ämme	-14.4662
▁Rol	-14.4668
auni	-14.4672
iiva	-14.4673
▁EN	-14.4674
▁Sard	-14.4676
irma	-14.4678
▁ruis	-14.4683
tedt	-14.4688
▁utša	-14.4689
▁г	-14.4696
▁Asp	-14.4697
hort	-14.4697
▁tihu	-14.4698
önt	-14.4712
▁savu	-14.4714
ре	-14.4719
alv	-14.4728
sv	-14.4733
▁öyt	-14.4735
JO	-14.4737
▁SEL	-14.4739
lz	-14.474
etro	-14.4749
▁iuff	-14.4749
ED	-14.4749
▁oco	-14.4751
▁rait	-14.4752
bile	-14.4754
▁Ac	-14.4755
rib	-14.4757
04	-14.4757
ennen	-14.4757
▁Rib	-14.4759
omp	-14.476
LI	-14.4763
aul	-14.4765
▁savo	-14.4767
▁uta	-14.478
ugu	-14.4783
eivät	-14.4783
▁Maur	-14.4789
▁Gas	-14.479
▁Ruc	-14.4795
▁Aid	-14.4804
▁SV	-14.4805
▁ico	-14.481
bom	-14.4817
▁nalla	-14.4817
▁LDP	-14.4821
▁ezz	-14.4822
▁CV	-14.4822
▁ibb	-14.4825
▁futi	-14.4827
etto	-14.4829
▁CD	-14.4833
FT	-14.4838
▁Waf	-14.4838
▁Dup	-14.484
ulut	-14.4848
	-14.4849
▁PWHL	-14.4849
▁oulié	-14.4849
▁PuHu	-14.4849
▁rach	-14.4851
▁Nöjd	-14.4851
▁ranç	-14.4852
▁5-0	-14.4854
▁Deux	-14.4855
▁Rjab	-14.4855
▁hugk	-14.4858
anoo	-14.4862
▁2-2	-14.4863
ekon	-14.4865
awk	-14.4865
▁näpe	-14.4866
▁Craw	-14.4869
▁4-8	-14.487
▁UCL	-14.4874
▁NAF	-14.4877
▁Garb	-14.4883
dži	-14.4886
kes	-14.4887
▁pöll	-14.4889
Jar	-14.4889
▁ко	-14.489
▁öyrä	-14.4898
▁PI	-14.4901
▁itke	-14.4903
▁pilo	-14.4906
sea	-14.4907
▁tren	-14.4916
è	-14.4919
▁LSD	-14.492
▁estr	-14.4923
▁VPK	-14.4926
▁512	-14.4927
▁164	-14.4927
▁76.	-14.4929
▁81.	-14.4932
vak	-14.4932
▁Ló	-14.4932
ätö	-14.4933
▁10)	-14.4935
▁defi	-14.4937
▁AIM	-14.4938
cho	-14.4939
▁Dix	-14.4942
▁alsh	-14.4942
▁78.	-14.4943
▁161	-14.4944
rac	-14.4944
▁Barr	-14.4945
otto	-14.495
ekk	-14.4951
unti	-14.4952
▁comb	-14.4952
▁63.	-14.4955
▁72.	-14.4955
▁oros	-14.4961
▁amsau	-14.4967
LE	-14.4968
kist	-14.4971
▁268	-14.4974
▁takk	-14.4974
▁Räik	-14.4981
▁123	-14.4985
lok	-14.4987
ÄÄ	-14.4989
▁410	-14.4989
omb	-14.4989
ksen	-14.4999
avio	-14.4999
▁DeV	-14.5002
же	-14.5003
lek	-14.5003
inku	-14.5005
▁10:	-14.5006
▁amU	-14.5007
hdy	-14.5008
▁PuM	-14.5008
▁wc	-14.5009
▁atero	-14.501
▁ates	-14.501
too	-14.5012
ade	-14.5017
▁riek	-14.5018
▁alc	-14.5019
isch	-14.5019
kunt	-14.5021
sano	-14.5025
NTI	-14.5029
▁152	-14.5037
oq	-14.5038
▁tip	-14.5041
▁core	-14.5043
▁Garg	-14.5044
lp	-14.5045
▁zad	-14.5055
▁Daru	-14.5055
eme	-14.506
▁Kaa	-14.5066
▁deni	-14.5067
▁ophe	-14.5069
arki	-14.5073
aita	-14.5078
▁atha	-14.5079
▁AK	-14.508
т	-14.5082
▁Böh	-14.5085
▁Gob	-14.5085
▁trop	-14.5085
aikka	-14.5086
tha	-14.5086
▁820	-14.509
▁muhi	-14.5094
▁diili	-14.5115
uuka	-14.5117
▁boy	-14.512
▁212	-14.5121
л	-14.5122
▁IPA	-14.5123
61	-14.5123
olme	-14.5129
▁ES	-14.5131
hyvin	-14.5135
▁rn	-14.5144
▁Ovi	-14.515
▁Nm	-14.5153
▁giga	-14.5158
▁avic	-14.5166
▁SY	-14.5166
atj	-14.5169
mene	-14.5169
jon	-14.5185
vaih	-14.5187
▁cot	-14.5197
▁iablo	-14.52
▁Brab	-14.5202
▁Vit	-14.5206
▁520	-14.5212
▁ombo	-14.5218
▁ladu	-14.522
▁pii	-14.5223
oeb	-14.5225
▁rags	-14.5229
▁Than	-14.5239
▁town	-14.5249
▁Arl	-14.5256
▁iig	-14.5261
rger	-14.5263
lait	-14.5267
▁purj	-14.5274
▁Tolv	-14.5275
arkk	-14.5275
upe	-14.5276
FK	-14.5277
nze	-14.5281
▁SHL	-14.5281
ainu	-14.5282
▁asq	-14.5283
yör	-14.5291
▁sovi	-14.5294
▁spir	-14.5296
esän	-14.5303
ysv	-14.5308
▁ioit	-14.5309
▁trak	-14.5316
▁anak	-14.5321
▁Giss	-14.5321
▁Kupl	-14.5325
▁Aq	-14.5332
▁Hila	-14.5333
ubin	-14.5338
leh	-14.5342
▁Rysk	-14.5343
omaa	-14.5343
▁sara	-14.5344
▁jako	-14.5345
▁aapi	-14.5346
▁Öy	-14.5363
AF	-14.5364
▁anhu	-14.5365
▁ulpe	-14.5366
cor	-14.5368
▁ood	-14.537
ipi	-14.537
dex	-14.5381
▁WH	-14.5384
amar	-14.5386
▁Gabo	-14.5391
onja	-14.5393
▁aero	-14.5394
SS	-14.5399
psi	-14.5403
▁oshi	-14.5404
▁oppe	-14.5406
ango	-14.5415
▁Lise	-14.5427
rc	-14.543
sama	-14.543
ehti	-14.5433
▁ále	-14.5433
▁dub	-14.5433
kuit	-14.5435
▁oub	-14.5439
▁sien	-14.5443
eivo	-14.5445
▁Cos	-14.5445
▁Wid	-14.5451
▁Maid	-14.5459
▁ikar	-14.546
▁Maag	-14.5463
▁arac	-14.5465
▁Wenn	-14.5468
▁rypp	-14.5473
▁+4	-14.5476
ehm	-14.5477
▁romi	-14.5477
säh	-14.5483
▁Acc	-14.5485
▁aima	-14.5485
▁BA	-14.5487
▁Brah	-14.5498
▁ften	-14.5502
▁rime	-14.5503
▁ttoa	-14.5509
▁Nikk	-14.5513
▁ommo	-14.5514
▁SU	-14.5514
ntin	-14.5514
MS	-14.552
▁Rä	-14.5521
umm	-14.5525
▁hiha	-14.5529
▁Dua	-14.5533
▁Come	-14.5539
▁Cir	-14.5543
▁ömp	-14.5549
nin	-14.5551
unch	-14.5552
▁ipla	-14.5552
FF	-14.5553
▁magn	-14.5555
eki	-14.5557
gua	-14.5562
▁CAR	-14.5582
tsu	-14.5589
▁uhm	-14.559
NBA	-14.5595
ambo	-14.5595
erhe	-14.5596
▁Upi	-14.5597
▁öw	-14.5597
▁agin	-14.5598
8%	-14.5604
5%	-14.5607
▁го	-14.5609
enk	-14.5611
▁ulpu	-14.5616
ähe	-14.5618
nnas	-14.562
▁tup	-14.5621
tänyt	-14.5622
▁anhi	-14.5628
ukea	-14.5634
▁arf	-14.5634
▁raid	-14.5634
urg	-14.5635
▁ulkk	-14.564
▁ulvo	-14.5644
isiä	-14.5648
▁Ös	-14.5654
lleen	-14.5663
▁laak	-14.5667
ún	-14.567
▁Rapp	-14.5671
ymf	-14.5673
▁öpin	-14.5674
▁odom	-14.5674
▁Viv	-14.5679
Ö	-14.5684
▁sven	-14.5685
▁fro	-14.5689
▁Topp	-14.5691
▁Amo	-14.5691
▁bamb	-14.5694
▁ript	-14.57
iiga	-14.5702
▁ljo	-14.5702
▁Nac	-14.5708
rea	-14.5715
▁ahre	-14.5716
avis	-14.5723
▁ieet	-14.5724
ML	-14.5725
+0	-14.5727
ско	-14.5728
sian	-14.5732
▁Dah	-14.5732
▁wei	-14.5733
▁Kamb	-14.5736
▁í	-14.5737
▁nakit	-14.5744
▁Abo	-14.5756
üc	-14.5757
▁rila	-14.5765
▁raap	-14.5765
▁Sz	-14.5765
lät	-14.5771
kunn	-14.5779
▁Nurs	-14.5779
ial	-14.5793
▁Novi	-14.5794
▁impp	-14.5799
▁haku	-14.5799
kala	-14.5804
▁imus	-14.5805
▁peac	-14.581
▁cker	-14.5813
ble	-14.582
▁wien	-14.5822
▁nukk	-14.5823
▁yypp	-14.5828
▁SB	-14.5829
erk	-14.583
▁rpin	-14.5839
▁Rag	-14.5853
▁suvu	-14.5855
arl	-14.5863
▁reb	-14.5865
æ	-14.5871
▁acca	-14.5872
tec	-14.5873
HK	-14.5874
▁meet	-14.5878
▁8:	-14.5887
▁Szo	-14.5892
eut	-14.5893
▁IN	-14.5902
▁agos	-14.5907
▁ián	-14.5907
▁yba	-14.5912
uhka	-14.5915
oria	-14.5917
▁hipi	-14.5927
▁Liz	-14.5935
▁KS	-14.5935
▁Tar	-14.5942
▁ри	-14.5961
pec	-14.5961
▁Dou	-14.5962
▁Cala	-14.5965
AO	-14.5965
▁Ace	-14.5966
Trump	-14.5968
▁Mora	-14.5972
▁ilva	-14.5974
▁Miin	-14.5979
▁AB	-14.5987
▁Aqua	-14.5993
eman	-14.5996
▁Miri	-14.6017
▁Rast	-14.602
▁Ax	-14.6028
▁mom	-14.6044
tema	-14.6046
esc	-14.6049
nc	-14.6049
▁oyle	-14.6051
▁Risk	-14.6052
▁ytin	-14.6058
2%	-14.6096
▁Gram	-14.6099
▁bas	-14.6105
▁surd	-14.6106
uper	-14.6111
olii	-14.6114
ingo	-14.6119
dó	-14.6121
▁Rama	-14.613
igr	-14.6135
ael	-14.6146
iuk	-14.6148
▁agni	-14.6159
▁itr	-14.6163
uska	-14.6171
otti	-14.6171
▁Ree	-14.6172
▁nka	-14.618
ous	-14.6181
muun	-14.6189
rake	-14.6195
▁wam	-14.6206
laan	-14.6209
VM	-14.6211
▁xx	-14.6216
▁ummu	-14.6221
▁Ora	-14.6222
örh	-14.6226
▁tako	-14.6226
nev	-14.6227
▁Nür	-14.6236
­	-14.6243
smo	-14.6247
urss	-14.6248
ideo	-14.6253
▁älkk	-14.6255
acc	-14.6261
UI	-14.6261
tulee	-14.6262
▁odg	-14.627
toim	-14.6273
▁uang	-14.6278
▁MB	-14.6281
Ilta	-14.6282
▁ift	-14.6283
mpö	-14.6287
pitkä	-14.6289
NG	-14.6293
JK	-14.6295
▁ndi	-14.6297
▁wel	-14.6299
▁sok	-14.6304
arvio	-14.6307
olt	-14.6309
▁kidu	-14.6312
▁MH	-14.6315
vali	-14.6328
▁Ü	-14.6335
olvo	-14.6336
eter	-14.6342
▁adri	-14.6347
▁Eest	-14.6356
CD	-14.6357
▁BT	-14.6359
ihm	-14.636
▁eska	-14.6364
akia	-14.6372
iira	-14.6374
dam	-14.6376
apin	-14.6377
▁Dur	-14.6387
▁xe	-14.6387
weet	-14.6389
▁onci	-14.639
auva	-14.6391
unk	-14.6392
tuh	-14.6396
land	-14.6396
▁wart	-14.6401
▁PÄÄ	-14.6411
▁arco	-14.6414
▁Kii	-14.6416
▁mpe	-14.6418
gra	-14.6421
elv	-14.6437
yötä	-14.644
▁ulku	-14.6443
anen	-14.6446
▁Bud	-14.6449
yrk	-14.6457
äpi	-14.6461
+4	-14.6463
▁CN	-14.6472
▁rup	-14.648
▁joo	-14.6485
▁esc	-14.6487
▁ryy	-14.649
▁Gor	-14.649
▁eco	-14.649
▁PAC	-14.6501
▁pard	-14.6507
tunt	-14.6513
äät	-14.6513
▁Фин	-14.6515
©	-14.6515
‒	-14.6515
▁uxury	-14.6515
▁Wojc	-14.6516
▁lsb	-14.6517
▁6-4	-14.6519
▁ieuw	-14.6519
▁zomb	-14.652
▁äkkö	-14.652
▁iiru	-14.652
▁0-0	-14.6521
▁(3)	-14.6522
▁world	-14.6523
▁hulz	-14.6523
▁full	-14.6523
▁abba	-14.6523
▁säkä	-14.6524
▁Roob	-14.6525
▁Clá	-14.6526
chäf	-14.6527
valta	-14.6527
▁Hink	-14.6527
▁Če	-14.6529
ize	-14.6531
alj	-14.6535
▁sauv	-14.6535
▁place	-14.6536
▁Ajax	-14.6538
▁699	-14.6541
hv	-14.6542
▁lja	-14.6548
ř	-14.655
AB	-14.6551
▁Judd	-14.6552
ife	-14.6552
zz	-14.6554
▁moš	-14.6556
▁shok	-14.656
▁amux	-14.6563
julk	-14.6564
▁kuve	-14.6568
▁465	-14.6572
▁mour	-14.6575
▁°	-14.6576
▁rai	-14.6576
▁eega	-14.6576
▁ohra	-14.6577
uum	-14.6578
▁344	-14.6579
▁gy	-14.658
usko	-14.6581
▁Doz	-14.6581
▁84.	-14.6582
▁otor	-14.6586
▁tahr	-14.6587
▁0-6	-14.6589
▁Nee	-14.6592
▁uulas	-14.6596
▁79.	-14.6598
▁more	-14.6598
▁ynx	-14.6598
▁#3	-14.6598
▁JA	-14.6598
▁inz	-14.6598
zig	-14.6601
▁arbe	-14.6603
éré	-14.6604
▁92.	-14.6604
▁kra	-14.6606
▁STE	-14.6606
ngé	-14.6609
bal	-14.661
mppi	-14.6614
▁ultt	-14.6614
aihe	-14.6615
▁Raph	-14.6616
▁rotk	-14.662
šk	-14.6623
▁88.	-14.6623
▁vide	-14.6625
hot	-14.6626
▁tev	-14.6627
tku	-14.6631
▁по	-14.6631
▁82.	-14.6631
▁171	-14.6632
▁95.	-14.6634
bra	-14.6637
▁hoke	-14.6637
IMO	-14.6641
▁antha	-14.6642
és	-14.6642
▁dict	-14.6645
▁5,8	-14.6646
lka	-14.665
sson	-14.6655
itos	-14.6659
edia	-14.6661
▁äysk	-14.6663
▁MD	-14.6665
käsi	-14.6668
ych	-14.6672
▁85.	-14.6676
▁ual	-14.6677
▁Dik	-14.6679
ни	-14.6684
▁stal	-14.6691
▁saw	-14.6691
NI	-14.6695
▁örnä	-14.6696
etr	-14.6699
kol	-14.6702
UN	-14.6704
äp	-14.6706
▁äpäl	-14.6707
▁ižn	-14.6716
▁SOH	-14.6717
▁Mirz	-14.6718
▁Publ	-14.6719
IFK	-14.6721
mea	-14.6723
▁aiut	-14.6723
▁Fyr	-14.6724
STAR	-14.6726
▁luuvi	-14.6732
▁eña	-14.674
▁Hex	-14.6742
cm	-14.6747
ono	-14.6747
käys	-14.675
▁TVA	-14.6752
▁ränt	-14.6756
▁Zon	-14.676
▁ünd	-14.6763
▁Rå	-14.6765
▁lef	-14.6769
uita	-14.677
urr	-14.6772
▁lögi	-14.6772
▁cr	-14.6774
▁NED	-14.6776
▁suma	-14.6777
▁NIS	-14.6786
▁8-	-14.6794
▁ycke	-14.6796
rjaz	-14.6803
▁ORI	-14.6805
OL	-14.6809
▁ercu	-14.6809
▁Dorn	-14.6809
▁Berk	-14.6813
▁217	-14.6813
▁FS	-14.6814
pitää	-14.6819
▁axen	-14.6821
iemi	-14.6823
otk	-14.6826
▁loiv	-14.683
▁sakot	-14.6831
▁unic	-14.6831
▁öhnä	-14.6833
▁read	-14.6841
▁Kolb	-14.6841
▁LLA	-14.6842
cc	-14.6849
äsnä	-14.6849
▁cra	-14.6852
tieto	-14.6856
addi	-14.6858
▁(9	-14.6861
▁sorr	-14.6862
▁Säle	-14.6863
rta	-14.6864
▁ieska	-14.6866
ärki	-14.6866
▁aize	-14.6875
▁Föh	-14.6877
▁ч	-14.6878
▁Ranto	-14.6881
▁neuv	-14.6883
lat	-14.6885
evä	-14.6892
▁Fär	-14.6893
UVA	-14.6897
out	-14.6898
▁Näp	-14.6899
irc	-14.6905
▁ifta	-14.6912
▁dik	-14.6914
luu	-14.6915
▁iipe	-14.6916
elb	-14.6917
pos	-14.6929
▁Mé	-14.6934
▁orak	-14.6934
▁ogo	-14.6939
▁ipun	-14.695
▁bulv	-14.6953
▁LAT	-14.6966
▁mid	-14.6971
▁Ambr	-14.6971
VE	-14.6973
▁reum	-14.6976
NO	-14.698
urhe	-14.698
uotta	-14.6982
▁Duon	-14.6984
ird	-14.6985
ärp	-14.6985
▁pl	-14.7
▁MA	-14.7001
▁ruoat	-14.7003
sopi	-14.7004
▁reye	-14.701
▁Aamo	-14.7011
▁astia	-14.7013
jur	-14.7013
▁Kod	-14.702
▁adat	-14.7035
not	-14.7035
SSA	-14.7036
▁LO	-14.7037
årt	-14.704
▁gio	-14.7041
▁awe	-14.7046
▁kola	-14.7054
▁diff	-14.7055
miel	-14.7055
▁Rogo	-14.7059
▁dile	-14.7064
myr	-14.7065
rth	-14.7066
▁raci	-14.7066
▁Gene	-14.7083
▁mol	-14.71
altio	-14.7112
orre	-14.7116
EIP	-14.7122
apo	-14.7124
▁Höl	-14.7127
▁ibo	-14.7129
ukas	-14.713
▁oya	-14.7131
inch	-14.7133
IL	-14.7135
▁WHL	-14.7135
oët	-14.7142
▁Nap	-14.7147
▁ivin	-14.7147
istö	-14.7157
tov	-14.7157
▁cz	-14.7157
skit	-14.7161
euroa	-14.7168
äys	-14.717
eč	-14.7171
▁Koo	-14.7171
matka	-14.7172
pho	-14.7172
win	-14.7181
▁erie	-14.7184
Tämä	-14.7192
х	-14.7195
uppi	-14.7195
ouri	-14.7196
zo	-14.7199
▁andi	-14.7204
▁mua	-14.7207
▁äikk	-14.7207
atku	-14.7212
▁aci	-14.7213
lkoi	-14.7215
▁afka	-14.7215
▁ixe	-14.7222
▁afo	-14.7222
▁äpät	-14.7229
rän	-14.723
▁erf	-14.7233
▁Bou	-14.7235
▁latv	-14.7235
но	-14.7242
▁iñ	-14.7256
nio	-14.727
sur	-14.727
2.	-14.7278
▁was	-14.7289
ener	-14.7293
nja	-14.7296
▁QA	-14.7298
▁tl	-14.7303
▁torv	-14.7304
pois	-14.7307
▁Code	-14.7319
▁yhmy	-14.7319
▁Awak	-14.7322
▁rve	-14.7326
▁evel	-14.733
▁Mor	-14.733
▁goo	-14.7336
▁trav	-14.7345
▁räd	-14.7346
meni	-14.7346
▁eeve	-14.7352
tep	-14.7356
milj	-14.736
kunta	-14.7364
aput	-14.7366
▁Varp	-14.7366
key	-14.7367
▁ilf	-14.737
ärky	-14.7372
▁Kom	-14.7372
▁rec	-14.7377
▁Hoda	-14.7378
▁abs	-14.7384
uutta	-14.7386
▁iese	-14.739
alas	-14.739
▁Oas	-14.7396
ikon	-14.7403
▁Dumb	-14.7412
▁adar	-14.7419
▁ART	-14.7423
lops	-14.7435
STA	-14.7437
▁erde	-14.7441
CB	-14.7444
SL	-14.745
vey	-14.7451
▁trob	-14.7454
emis	-14.7458
▁asil	-14.7459
ми	-14.7459
▁Urb	-14.7464
▁iede	-14.7465
aë	-14.7469
ann	-14.7469
▁Rap	-14.747
äivä	-14.7471
▁Wra	-14.7474
де	-14.7476
▁pic	-14.7478
rme	-14.7484
lumm	-14.7488
▁örp	-14.749
▁uá	-14.749
upli	-14.7491
UH	-14.7492
▁rosv	-14.7496
▁MI	-14.7498
annu	-14.75
▁rush	-14.7501
▁Nish	-14.7502
apsa	-14.7507
▁ärr	-14.7507
▁eldi	-14.7509
▁lehv	-14.7511
anh	-14.7512
ezzo	-14.7514
▁öln	-14.7515
▁ML	-14.7517
azar	-14.7518
ffa	-14.752
▁ordo	-14.7524
PJ	-14.7534
▁rif	-14.7538
änt	-14.7542
sesti	-14.7544
▁lage	-14.7545
▁uuppa	-14.7553
▁kepi	-14.7553
vec	-14.7557
raz	-14.756
▁dale	-14.756
▁särm	-14.7564
amba	-14.7573
▁ömpp	-14.7575
kansa	-14.7585
ayne	-14.7595
▁iña	-14.7596
hamp	-14.7597
▁hiil	-14.7599
aco	-14.7613
lyn	-14.7613
▁Arv	-14.7615
rad	-14.7615
▁oote	-14.7615
▁uikk	-14.7615
ysz	-14.7616
▁Ahma	-14.7617
▁Baf	-14.7618
▁rae	-14.7618
piste	-14.7621
No	-14.7623
alvi	-14.7623
▁EA	-14.7623
▁lba	-14.7624
▁yong	-14.7624
▁Dele	-14.7624
р	-14.7633
▁omel	-14.7634
uca	-14.7634
ivas	-14.7636
Hel	-14.7638
noa	-14.7648
▁Säp	-14.765
▁oija	-14.7652
nner	-14.766
▁Nakk	-14.766
▁leua	-14.7668
uumu	-14.7671
AY	-14.7672
rtt	-14.7672
▁iken	-14.768
ilp	-14.7682
▁Ring	-14.7683
▁Mato	-14.7685
nää	-14.7689
ampa	-14.7698
▁jam	-14.7701
▁Darr	-14.7704
JL	-14.7707
kst	-14.7711
nger	-14.7712
▁VA	-14.7716
nnee	-14.7717
▁Arsk	-14.7718
▁abou	-14.7724
ämp	-14.7728
dal	-14.7733
amf	-14.7737
isb	-14.7739
ntää	-14.7743
▁ál	-14.7744
▁äng	-14.7748
ärk	-14.7749
▁ramp	-14.7755
▁Mii	-14.7756
bu	-14.7758
▁ige	-14.7758
kum	-14.7764
ömpe	-14.777
▁dor	-14.7774
▁unc	-14.778
▁ва	-14.7783
äksi	-14.7784
akso	-14.7786
sien	-14.779
▁lapa	-14.7792
▁Zoo	-14.7794
myö	-14.7799
či	-14.7801
ammu	-14.7804
pari	-14.7807
uolu	-14.7807
▁Elp	-14.7808
▁Anz	-14.7809
▁roms	-14.7822
yf	-14.7824
äiv	-14.7824
▁üb	-14.7825
▁Oasi	-14.7826
▁emul	-14.783
lsb	-14.7835
gat	-14.784
game	-14.7842
sent	-14.7845
▁aido	-14.7852
▁novi	-14.7855
▁Ruma	-14.7855
▁hiw	-14.7861
▁Ambe	-14.7867
oiva	-14.787
▁fe	-14.7871
▁nouk	-14.7873
arta	-14.7875
▁osm	-14.7883
shop	-14.7883
▁Magu	-14.7887
uda	-14.7891
▁HV	-14.7894
GS	-14.7896
▁Aske	-14.7898
ehdo	-14.7901
▁lka	-14.7903
▁Ripu	-14.7905
▁ogac	-14.7905
kesä	-14.7909
loppu	-14.7924
▁svall	-14.7925
▁wab	-14.7939
▁Hav	-14.794
▁nala	-14.7941
▁JC	-14.7944
▁ubj	-14.795
▁tali	-14.7954
▁Moc	-14.7966
▁imis	-14.797
▁lenn	-14.797
imbu	-14.7972
igo	-14.7974
Po	-14.7976
▁iisk	-14.7979
IDE	-14.7984
rkka	-14.7988
run	-14.799
ON	-14.7992
▁dipp	-14.7995
▁äynä	-14.7998
ravi	-14.7999
▁Emp	-14.8001
nga	-14.8004
▁rada	-14.8007
ô	-14.8011
▁OS	-14.8011
uuden	-14.8013
▁Amar	-14.8013
NMKY	-14.8014
1)	-14.8018
▁ourd	-14.8023
▁jang	-14.8026
tiv	-14.8027
cio	-14.8027
maz	-14.8033
▁saun	-14.8034
arb	-14.8038
ère	-14.8041
etaan	-14.8045
sma	-14.8049
irpa	-14.8051
▁App	-14.8054
▁Ope	-14.8061
▁ucu	-14.8062
4.	-14.8065
▁naly	-14.8066
mad	-14.8084
▁louh	-14.8089
▁Gé	-14.8089
óme	-14.8089
▁anz	-14.8095
▁orta	-14.8096
appo	-14.81
▁romb	-14.8105
aiv	-14.8106
▁Bry	-14.8114
▁oone	-14.8118
03	-14.8123
▁komb	-14.8127
▁nam	-14.813
▁Ste	-14.8132
iikko	-14.8135
▁RC	-14.8137
neuvo	-14.8138
▁Zam	-14.8139
▁Swi	-14.814
selv	-14.8147
▁ned	-14.8151
▁Carm	-14.8152
iist	-14.8156
eti	-14.8157
koti	-14.8169
ь	-14.8173
▁äisk	-14.8177
▁5-	-14.8186
▁Dia	-14.8187
▁ibre	-14.8187
▁kundi	-14.8189
▁-30	-14.8195
äkky	-14.8199
7%	-14.8213
▁Sid	-14.8214
mok	-14.8221
▁raita	-14.8223
▁nab	-14.823
aaja	-14.8235
▁evic	-14.8238
▁Glo	-14.8239
▁eye	-14.8247
EB	-14.825
▁ilit	-14.8251
armi	-14.8257
otsa	-14.8257
▁Not	-14.8259
▁TR	-14.8269
▁reci	-14.8269
▁Cov	-14.827
▁ytä	-14.827
▁EH	-14.8281
enna	-14.8282
ävät	-14.8282
ncho	-14.829
own	-14.8294
▁Ib	-14.8301
▁eig	-14.8302
alb	-14.8306
päät	-14.831
äätt	-14.8312
meg	-14.8315
DE	-14.8315
▁rinc	-14.8321
adw	-14.8321
▁ayle	-14.8334
siv	-14.8335
ISA	-14.8339
▁Gaur	-14.8341
SIN	-14.8348
▁Nab	-14.8348
minu	-14.8349
lous	-14.8355
▁ötte	-14.8356
▁awk	-14.8356
▁oiha	-14.8357
roc	-14.836
tub	-14.836
neg	-14.8364
▁UI	-14.8365
tavat	-14.8365
erh	-14.8368
▁Je	-14.8368
▁Rav	-14.8374
▁iX	-14.8374
▁Gud	-14.8375
▁Bomb	-14.8376
neljä	-14.8378
▁HK	-14.8381
nell	-14.8382
dic	-14.839
▁yx	-14.8394
▁sitt	-14.84
ets	-14.84
fu	-14.84
▁uurt	-14.8402
tiet	-14.8411
▁wia	-14.8414
▁oza	-14.8414
▁CH	-14.8419
▁anhe	-14.8419
jonk	-14.8424
äid	-14.8427
inee	-14.843
aje	-14.8433
▁huuh	-14.8435
▁aile	-14.8439
▁Arp	-14.8444
▁iqu	-14.8449
Bro	-14.8458
▁anar	-14.8467
▁rats	-14.8468
▁liti	-14.8473
lkaa	-14.8477
▁esco	-14.8487
▁wat	-14.8491
fi	-14.8493
ogre	-14.8497
pros	-14.85
▁nuha	-14.85
▁Doro	-14.8504
ayra	-14.8507
perhe	-14.851
iljo	-14.8515
iņ	-14.8515
Õ	-14.8515
Ú	-14.8515
́	-14.8515
▁ски	-14.8515
▁вы	-14.8515
íð	-14.8517
▁EDM	-14.8517
nuor	-14.8517
▁Sudž	-14.8517
▁OY	-14.8518
▁Såg	-14.8518
▁öhinä	-14.8518
▁Szij	-14.8519
▁Ghe	-14.852
▁ALV	-14.852
▁tép	-14.8523
▁3-3	-14.8523
ün	-14.8524
уб	-14.8524
▁(4)	-14.8525
▁ayrak	-14.8526
jotk	-14.8533
▁9:	-14.8534
▁rimo	-14.8537
▁Mån	-14.8539
▁xcel	-14.8539
▁día	-14.8541
▁Oss	-14.8541
minen	-14.8541
▁puo	-14.8543
▁ebb	-14.8544
▁FLA	-14.8545
▁4-6	-14.8545
▁yrn	-14.8545
▁stén	-14.8546
▁yrén	-14.8547
▁866	-14.8549
bri	-14.855
emmin	-14.8551
lina	-14.8551
▁Kiuas	-14.8553
▁NTAJ	-14.8555
aruk	-14.8555
▁29)	-14.8555
ña	-14.8557
тс	-14.8559
▁pin	-14.856
ы	-14.856
▁ENT	-14.8563
hra	-14.8563
▁Fix	-14.8566
ige	-14.8568
▁KUVA	-14.8569
▁fir	-14.8569
▁tofu	-14.8573
voima	-14.8573
▁atvo	-14.8573
▁NEV	-14.8574
-1	-14.8575
▁Dyb	-14.8579
▁544	-14.858
▁erw	-14.8583
▁Bed	-14.8583
▁Tod	-14.8592
▁93.	-14.8594
▁1-6	-14.8595
▁97.	-14.8597
▁erž	-14.8604
▁98.	-14.8607
▁rub	-14.8607
auli	-14.8608
▁øj	-14.8609
▁rug	-14.8612
▁83.	-14.8613
▁WHA	-14.8614
▁Year	-14.8616
agle	-14.8622
▁drog	-14.8622
kah	-14.8629
▁Cox	-14.863
▁149	-14.8632
▁oots	-14.8632
▁NSD	-14.8638
oë	-14.8643
▁#1	-14.865
▁rcad	-14.8651
▁oeh	-14.8653
▁Wish	-14.8654
▁Glim	-14.8658
aza	-14.8659
iema	-14.8661
uj	-14.8666
▁61.	-14.8667
▁woo	-14.867
anki	-14.8673
issu	-14.8673
ч	-14.8673
▁+2	-14.8674
▁vell	-14.8675
▁66.	-14.8677
evc	-14.8685
▁wire	-14.8686
▁Mutsi	-14.8686
iihen	-14.8687
▁bug	-14.8689
▁64.	-14.8693
▁CSA	-14.8693
▁esh	-14.8698
alk	-14.87
▁osq	-14.8702
▁Azar	-14.8709
▁Tuc	-14.871
valm	-14.8718
▁Mald	-14.872
CT	-14.8723
▁cco	-14.8723
▁Sad	-14.8725
▁adl	-14.873
▁0-5	-14.873
rl	-14.8731
▁hih	-14.8732
EV	-14.8732
ttee	-14.8736
▁nuja	-14.8737
▁Woke	-14.8738
▁mper	-14.8742
▁rexi	-14.8742
äntä	-14.8748
▁Sw	-14.8754
ärs	-14.8755
▁Weir	-14.8755
▁49.	-14.8762
▁Rom	-14.8763
▁315	-14.8764
▁önk	-14.8765
ävä	-14.877
▁ranko	-14.8773
sso	-14.8778
▁54.	-14.8779
hja	-14.878
iek	-14.8784
teu	-14.8785
▁Tuus	-14.8785
tkö	-14.879
▁EP	-14.8791
▁Nobo	-14.8793
vara	-14.8797
▁Öyst	-14.88
KA	-14.8803
▁Goul	-14.8806
▁Lup	-14.881
▁kenk	-14.8818
äky	-14.882
mez	-14.882
KAA	-14.882
tap	-14.8824
▁usine	-14.8825
▁cea	-14.8826
zeš	-14.8826
▁hoeb	-14.8833
▁ötz	-14.8837
outh	-14.8849
▁Merk	-14.8851
lmé	-14.8853
quo	-14.8855
▁obie	-14.8856
ütt	-14.8865
▁trip	-14.8869
olc	-14.8871
tuot	-14.8874
uomio	-14.8878
▁Kook	-14.8882
▁Pu	-14.8888
▁Nuc	-14.8888
▁puod	-14.8893
▁Deli	-14.8893
ór	-14.8898
▁staj	-14.8902
INA	-14.8905
▁tran	-14.8906
▁uyan	-14.8906
▁omed	-14.8911
oos	-14.8912
seva	-14.8914
sken	-14.8916
eläm	-14.8919
▁LC	-14.8921
▁ydro	-14.8922
ebe	-14.8923
▁Clif	-14.8923
song	-14.8924
▁HR	-14.8925
org	-14.8936
▁oubo	-14.894
▁igur	-14.8942
▁unez	-14.8945
horm	-14.895
wor	-14.8951
▁huk	-14.8953
GL	-14.896
▁onb	-14.8962
LP	-14.8965
▁köö	-14.8965
▁04	-14.8971
▁Pyr	-14.8971
dž	-14.8973
▁нд	-14.8974
sija	-14.8976
▁Dhak	-14.8984
▁LA	-14.899
000	-14.8991
▁espe	-14.8993
▁ece	-14.8994
+5	-14.8998
mieh	-14.8999
▁ect	-14.8999
lda	-14.9002
haas	-14.9004
▁rary	-14.9005
ykk	-14.9006
▁Aeb	-14.9013
▁onkey	-14.9019
▁uwa	-14.902
▁NPS	-14.9022
▁XP	-14.9026
▁rce	-14.9028
haw	-14.9031
▁erka	-14.9031
▁Lob	-14.9033
▁duc	-14.9034
tiz	-14.9037
AZ	-14.9039
▁htee	-14.904
▁arq	-14.9044
hva	-14.9051
oppu	-14.9052
▁Tal	-14.9053
▁Giz	-14.9054
lään	-14.9059
uksia	-14.906
▁FM	-14.9061
oitt	-14.9062
öjd	-14.9064
▁naci	-14.9069
tämän	-14.9073
▁rakt	-14.9087
odot	-14.9087
▁iw	-14.9104
▁CS	-14.911
▁oglo	-14.9115
▁DS	-14.9117
▁90.	-14.9119
uoj	-14.912
▁Rank	-14.912
▁herr	-14.9124
▁werp	-14.9127
▁Bef	-14.9129
▁erma	-14.913
▁nå	-14.913
kolme	-14.9134
▁ETS	-14.9143
ya	-14.9146
yhde	-14.9149
▁Ramb	-14.9149
PG	-14.9153
oir	-14.9156
saat	-14.916
ntaj	-14.9161
puhu	-14.9165
RO	-14.917
▁Dum	-14.918
▁ahl	-14.9184
▁oitis	-14.9192
▁vila	-14.9195
▁Riks	-14.9196
uuk	-14.9197
▁urge	-14.9198
▁iinat	-14.9199
inti	-14.9202
▁jör	-14.9209
▁läjä	-14.921
jatk	-14.9218
loh	-14.922
▁ya	-14.9222
▁nke	-14.9223
▁uula	-14.9223
iesti	-14.9227
säl	-14.9231
gne	-14.9233
▁ökit	-14.9239
▁Seve	-14.924
rop	-14.9244
slan	-14.9244
▁Aud	-14.9249
uste	-14.9254
hei	-14.9258
udry	-14.9259
eac	-14.9259
tsä	-14.926
tten	-14.926
▁burk	-14.9266
nuel	-14.9268
mic	-14.9272
▁vase	-14.9277
▁ouvi	-14.9277
▁mok	-14.9281
▁lman	-14.9287
▁orr	-14.9287
▁Kors	-14.9289
ega	-14.9294
▁INA	-14.931
▁Vip	-14.9312
▁onda	-14.9316
gså	-14.9317
▁alif	-14.9318
nii	-14.9318
▁alci	-14.9322
▁noit	-14.9326
▁ribe	-14.9329
▁kyps	-14.933
FS	-14.9337
▁rev	-14.9345
ahna	-14.9351
▁ež	-14.9356
▁taif	-14.9361
krom	-14.937
▁erce	-14.937
øl	-14.937
▁Fe	-14.9371
▁Vinh	-14.9374
▁mou	-14.9375
▁inda	-14.9377
▁00	-14.9382
raw	-14.9385
▁ipak	-14.9387
▁Gw	-14.9388
▁orse	-14.9388
▁eidas	-14.9389
▁zer	-14.939
▁elor	-14.9393
eriö	-14.9394
scal	-14.9395
▁ayo	-14.9401
▁dzh	-14.9422
▁añ	-14.9422
▁Maha	-14.9427
kro	-14.9427
▁ache	-14.9434
PE	-14.9436
äit	-14.9441
▁algo	-14.9449
▁aqu	-14.9449
▁rave	-14.9449
öylä	-14.9451
▁ugg	-14.9453
▁nive	-14.9453
El	-14.9454
▁UO	-14.9468
uolue	-14.9474
▁Dol	-14.9482
▁hima	-14.9482
▁zy	-14.9485
▁ienne	-14.9489
SR	-14.9491
uht	-14.9494
▁pnoo	-14.9499
rman	-14.9508
TF	-14.9511
▁AZ	-14.9518
▁wey	-14.9518
▁Gir	-14.952
▁Foto	-14.9522
▁Nur	-14.9524
▁Zipp	-14.9528
▁mash	-14.9537
inik	-14.9544
▁ozan	-14.9555
tunne	-14.9556
▁aron	-14.9557
▁mör	-14.9559
orva	-14.9564
úb	-14.958
oda	-14.9586
▁otvo	-14.9589
pf	-14.9589
aze	-14.9591
ymo	-14.9595
▁nde	-14.9596
ieli	-14.9604
lisä	-14.9605
inn	-14.9611
▁Terr	-14.9616
▁CP	-14.9616
tutk	-14.9622
arke	-14.9628
▁Kopp	-14.9631
▁lubb	-14.9635
▁laka	-14.9646
▁sl	-14.9646
▁himm	-14.9647
eip	-14.9649
äppi	-14.965
lg	-14.9656
]	-14.966
NL	-14.9665
uotsi	-14.967
eå	-14.9672
div	-14.9672
▁fü	-14.9673
▁sulat	-14.9673
änsä	-14.9687
rep	-14.9695
sarja	-14.9699
▁т	-14.9702
▁oft	-14.9704
etään	-14.9704
▁aij	-14.9711
kisa	-14.9711
▁led	-14.9714
ullu	-14.9715
offe	-14.9722
uora	-14.9735
▁akw	-14.9738
orbi	-14.9747
asku	-14.9749
ár	-14.975
ataa	-14.9752
▁GS	-14.9758
▁hipe	-14.9758
PF	-14.9761
Yhd	-14.9762
kset	-14.9771
2)	-14.9809
▁rinn	-14.9809
▁ulpa	-14.9812
▁Bei	-14.9815
aya	-14.9819
▁Uk	-14.9831
▁Cli	-14.9831
▁orb	-14.9832
▁izo	-14.9833
ivä	-14.9837
yhmä	-14.9842
uisk	-14.9845
▁Pic	-14.9845
isää	-14.9848
iima	-14.9853
▁ämpi	-14.9854
hara	-14.9854
åb	-14.9857
▁cel	-14.9859
▁Hö	-14.987
mara	-14.9874
gram	-14.988
almis	-14.9883
our	-14.989
aala	-14.989
gge	-14.9893
ouz	-14.9895
▁Door	-14.9897
▁enev	-14.99
▁roz	-14.9909
yi	-14.991
▁Sar	-14.991
iaf	-14.9912
taso	-14.9938
ijä	-14.9945
pung	-14.9953
▁ilon	-14.9953
eflo	-14.9953
esim	-14.9959
▁muusi	-14.996
ло	-14.996
▁PB	-14.9963
stau	-14.9977
öö	-14.9985
▁gne	-14.9993
▁romp	-14.9995
Kun	-15
erja	-15.0003
▁eac	-15.0009
stis	-15.0014
STO	-15.0016
▁äväk	-15.0016
▁rivo	-15.0022
▁+5	-15.0022
▁kukko	-15.0027
span	-15.0041
ury	-15.0042
▁webi	-15.0042
▁Kid	-15.0053
ур	-15.0057
MO	-15.006
TSI	-15.0063
▁Muz	-15.0068
▁Žu	-15.0072
kkai	-15.0076
azz	-15.0079
▁häl	-15.0081
jö	-15.0089
tě	-15.0108
▁osz	-15.0109
▁rebi	-15.0112
▁Rotk	-15.0123
▁jill	-15.0127
Stubb	-15.0134
▁Hom	-15.0137
▁aign	-15.0142
fr	-15.0144
▁aihi	-15.0145
die	-15.0145
▁åre	-15.0147
oot	-15.0149
uPS	-15.0155
utin	-15.0161
mel	-15.0161
tule	-15.0168
▁eiju	-15.0168
▁Orti	-15.0169
▁Heav	-15.0169
▁ööki	-15.0172
▁nur	-15.0175
Sa	-15.0178
TR	-15.018
isiin	-15.0182
ousi	-15.0185
▁zv	-15.019
▁het	-15.0201
ulju	-15.0203
tulo	-15.0211
orpi	-15.0214
▁Mell	-15.0217
auki	-15.0219
xp	-15.022
dg	-15.0222
ст	-15.0226
kein	-15.0227
antaa	-15.0227
halu	-15.023
▁limp	-15.0232
oler	-15.0232
nnes	-15.024
▁**	-15.0244
▁ené	-15.0245
tab	-15.0253
>	-15.0258
▁roze	-15.026
BF	-15.026
▁Armo	-15.0262
ekee	-15.0265
ilz	-15.0272
ynty	-15.0272
kri	-15.0273
▁Bala	-15.0273
▁drai	-15.0282
▁то	-15.0288
peu	-15.0294
ärv	-15.0297
▁gaz	-15.03
▁Já	-15.0304
UT	-15.0306
▁Arn	-15.0308
▁riz	-15.0321
stro	-15.0323
eppe	-15.0323
uass	-15.0326
▁Yous	-15.0331
innu	-15.0335
nssa	-15.034
▁ful	-15.0346
▁dart	-15.0348
▁dele	-15.0348
▁yj	-15.035
urke	-15.0355
▁Hama	-15.036
▁anda	-15.0364
▁agam	-15.0368
sisä	-15.0372
elin	-15.0374
4%	-15.0378
urkk	-15.0379
▁ER	-15.0379
uolt	-15.0381
amme	-15.0389
Mä	-15.0393
arso	-15.0394
▁xc	-15.0394
yppä	-15.04
▁eage	-15.04
ка	-15.0405
▁toff	-15.0407
▁ahak	-15.0415
▁з	-15.0419
▁ärri	-15.0421
▁sunt	-15.0421
▁Mits	-15.0423
▁pilv	-15.0423
LLA	-15.0425
media	-15.0426
▁abre	-15.0427
elj	-15.0435
▁dong	-15.0437
▁noch	-15.0443
ycl	-15.0444
ttäj	-15.0449
▁eyla	-15.0449
icc	-15.0449
aag	-15.0456
staan	-15.0462
itään	-15.0467
amor	-15.0473
▁icc	-15.0476
▁Gere	-15.0479
alan	-15.0482
ääne	-15.0495
AE	-15.0497
ны	-15.05
cif	-15.0503
▁olpp	-15.0506
URH	-15.051
▁ydra	-15.0512
rz	-15.0513
Suomi	-15.0514
lá	-15.0516
ü	-15.0522
▁Gen	-15.0524
rssi	-15.0528
▁arva	-15.0529
▁má	-15.0531
tori	-15.0535
▁tate	-15.0538
▁ämpt	-15.0548
▁izi	-15.0551
KH	-15.0551
uay	-15.0553
rén	-15.0563
thé	-15.0564
▁liim	-15.0569
▁nast	-15.0573
▁dz	-15.0575
koke	-15.0577
▁ambi	-15.0578
▁oile	-15.0579
▁lux	-15.0581
pitä	-15.0583
tunti	-15.0589
▁ayor	-15.0589
▁alam	-15.0596
▁Baz	-15.0598
palo	-15.0604
▁Ramm	-15.0604
roy	-15.061
▁pöt	-15.0613
löf	-15.0613
▁oog	-15.0613
▁loet	-15.0615
▁donk	-15.062
▁Vire	-15.0621
ruk	-15.0623
wal	-15.0625
▁lipi	-15.0628
kyse	-15.0637
BE	-15.064
▁Harb	-15.0641
tyy	-15.0642
KKO	-15.0642
▁unhu	-15.0644
ipe	-15.0644
▁katse	-15.0645
▁eipi	-15.0647
▁NÄ	-15.065
les	-15.0653
▁amet	-15.0666
urj	-15.0666
MV	-15.0672
▁agu	-15.0673
pla	-15.0674
uos	-15.0687
▁ât	-15.0694
entoi	-15.0694
▁ench	-15.07
rgi	-15.0701
▁kjei	-15.0703
eseen	-15.0704
kept	-15.0708
▁AD	-15.0712
▁aumo	-15.0714
aatio	-15.0715
uoka	-15.0719
▁awa	-15.0719
AX	-15.072
roth	-15.072
▁Rah	-15.0721
бо	-15.0722
astus	-15.0722
▁Ho	-15.0727
rack	-15.0733
ross	-15.0736
ID	-15.0736
owd	-15.0745
ær	-15.0746
▁arun	-15.0747
▁Mår	-15.0752
▁onl	-15.0753
▁atel	-15.0759
▁pezz	-15.0777
▁jyr	-15.0778
▁urv	-15.0785
та	-15.0785
▁TN	-15.0789
eltä	-15.0799
pect	-15.0804
wei	-15.0805
lib	-15.0806
ipal	-15.0806
arju	-15.0811
09	-15.0815
hir	-15.0823
olen	-15.0836
▁Mine	-15.0842
enni	-15.0844
kov	-15.0845
▁leu	-15.0851
dat	-15.0852
staa	-15.0855
▁lapi	-15.0862
▁Sho	-15.0863
▁ärti	-15.087
▁moka	-15.0876
▁Cors	-15.0883
▁Mort	-15.0885
hyvä	-15.0888
▁Zap	-15.0888
▁dt	-15.0889
▁zi	-15.0889
▁ulss	-15.0894
eillä	-15.0895
▁Gon	-15.0898
år	-15.0899
rikk	-15.09
GR	-15.0903
pra	-15.0907
с	-15.0912
▁säte	-15.0916
kirja	-15.0921
▁resh	-15.0921
Kuva	-15.0928
▁År	-15.0931
▁DA	-15.0932
MJ	-15.0934
▁USS	-15.0938
▁aida	-15.0943
rid	-15.0953
▁laff	-15.0957
ct	-15.096
▁Gat	-15.0961
pea	-15.0962
▁onec	-15.0963
iika	-15.0965
▁user	-15.0968
▁erno	-15.0968
ith	-15.0972
keh	-15.0977
SIS	-15.098
▁ulda	-15.0981
dler	-15.0987
kot	-15.0994
▁umal	-15.0996
eitä	-15.0997
▁aya	-15.1002
▁bat	-15.1004
non	-15.1006
ubl	-15.1011
▁В	-15.1015
▁С	-15.1015
ā	-15.1015
	-15.1015
Ç	-15.1015
ò	-15.1015
ı	-15.1015
ū	-15.1015
А	-15.1015
ля	-15.1015
‐	-15.1015
▁ē	-15.1015
▁•	-15.1015
▁⭐	-15.1015
▁μ	-15.1015
▁Ве	-15.1015
▁Buugi	-15.1016
▁eps	-15.1018
▁Röhr	-15.1019
▁Buzb	-15.1019
▁laï	-15.1022
▁atš	-15.1025
▁ESÄ	-15.1025
▁girl	-15.1025
▁6-2	-15.1028
▁mio	-15.103
▁COL	-15.103
▁IMD	-15.1031
▁ddic	-15.1031
▁6-1	-15.1031
▁58)	-15.1034
elok	-15.1037
▁Vis	-15.1048
▁962	-15.1049
▁CRO	-15.1051
▁alke	-15.1053
oïs	-15.1055
▁7,0	-15.1055
▁50%	-15.1061
▁677	-15.1061
åk	-15.1061
fro	-15.1063
▁BAC	-15.1063
▁Niss	-15.1063
▁eufo	-15.1067
▁täk	-15.1068
▁icro	-15.1068
▁Dokt	-15.1069
▁648	-15.107
uran	-15.1072
▁äry	-15.1072
▁Gimm	-15.1081
uima	-15.1082
▁IRA	-15.1084
▁Weib	-15.1085
▁Wohl	-15.1085
▁713	-15.1086
▁Gibb	-15.1087
▁iast	-15.1089
▁notk	-15.109
▁ycle	-15.1092
▁был	-15.1093
▁víki	-15.1093
▁tanu	-15.1094
▁0+2	-15.1094
▁3-7	-15.1095
ampe	-15.1095
▁Corb	-15.1096
▁rest	-15.1097
▁RFE	-15.11
▁Azz	-15.1103
isc	-15.1108
▁565	-15.1108
cal	-15.1112
ODE	-15.1114
▁ци	-15.1115
▁yngä	-15.1116
▁weis	-15.1116
Al	-15.1118
ció	-15.112
assi	-15.112
ähä	-15.1121
INF	-15.1123
▁attU	-15.1123
▁Teat	-15.1124
▁mask	-15.1124
vira	-15.1131
arti	-15.1131
▁särky	-15.1137
nl	-15.1137
dop	-15.1138
▁CAT	-15.1141
▁IA	-15.115
▁cud	-15.115
Oulu	-15.1151
▁Hobb	-15.1152
arg	-15.1153
▁enè	-15.1154
▁alya	-15.1154
▁EIL	-15.1154
▁EdP	-15.1157
Pa	-15.1158
näy	-15.116
▁ötös	-15.1163
ané	-15.1166
▁ockb	-15.1168
▁LI	-15.1168
▁KP	-15.1172
▁91.	-15.1173
åne	-15.1174
ave	-15.1182
ölkk	-15.1184
▁ndica	-15.1187
▁nium	-15.1191
▁TI	-15.1193
▁NLA	-15.1195
AH	-15.1208
▁815	-15.1208
▁305	-15.121
▁mor	-15.1215
ando	-15.1218
▁Bryn	-15.1219
▁aiji	-15.1229
▁че	-15.1231
dom	-15.1233
▁mount	-15.1233
con	-15.1234
▁CA	-15.1235
▁Cris	-15.1238
▁hatu	-15.1254
erv	-15.1257
▁ucke	-15.1259
JA	-15.126
▁RO	-15.1263
▁tras	-15.1263
▁ACE	-15.1267
dd	-15.1267
▁XJ	-15.1267
▁isog	-15.1268
▁ärn	-15.1278
4)	-15.128
▁rud	-15.1281
ipo	-15.1282
ausi	-15.1288
▁oijer	-15.1289
urki	-15.1291
▁Dyyn	-15.1293
ÄÄK	-15.1297
▁PET	-15.1299
▁Maze	-15.1299
▁UTA	-15.1301
▁KR	-15.1307
agl	-15.1309
edu	-15.1312
▁Nald	-15.1312
▁DAL	-15.1319
▁CNP	-15.1321
tunut	-15.1325
orb	-15.1326
tiva	-15.1328
▁bak	-15.1339
▁linn	-15.134
▁FK	-15.134
▁skep	-15.134
▁sykl	-15.1345
▁rå	-15.1345
▁Jag	-15.1347
▁Dug	-15.1352
▁agat	-15.1354
▁pect	-15.1356
▁olš	-15.136
▁lgar	-15.1361
myy	-15.1361
asian	-15.1364
▁kob	-15.1364
vaal	-15.1369
▁skay	-15.1369
▁taak	-15.1371
▁Ah	-15.1374
▁Wit	-15.1378
maali	-15.1378
oby	-15.1384
vos	-15.1384
▁Fram	-15.1388
rch	-15.1391
MD	-15.1396
▁tos	-15.1396
▁liip	-15.1397
▁SR	-15.1397
▁remp	-15.1405
▁Arb	-15.1406
video	-15.141
▁Jarva	-15.1413
▁kerm	-15.1414
▁Kop	-15.1416
г	-15.1419
▁Fah	-15.1424
tied	-15.1428
▁во	-15.1428
▁UUT	-15.1432
▁gly	-15.144
▁Koc	-15.1442
ikos	-15.1449
ehke	-15.145
▁hiba	-15.1451
rumb	-15.1452
▁ка	-15.1456
Bo	-15.1457
▁Nive	-15.1458
▁Sif	-15.1458
▁sauva	-15.1459
▁rike	-15.1465
arge	-15.1466
▁П	-15.1466
eq	-15.147
▁orz	-15.1471
cra	-15.1471
huom	-15.1475
ertaa	-15.1477
▁yi	-15.1483
▁Nutr	-15.1484
▁CE	-15.1495
▁Za	-15.1497
vei	-15.1501
iiri	-15.1503
▁Nürn	-15.1503
oya	-15.1511
▁nass	-15.1511
▁ütt	-15.1512
▁Tier	-15.1513
▁Mild	-15.1516
eä	-15.1522
ääl	-15.1529
▁iac	-15.1531
arm	-15.1531
Ve	-15.1544
▁ukal	-15.1548
▁hour	-15.1553
aiti	-15.1557
▁öpi	-15.1561
▁osmo	-15.1563
▁ardot	-15.1567
▁Thé	-15.157
▁lil	-15.1571
ult	-15.1575
matr	-15.1577
▁mant	-15.1579
SK	-15.1584
▁åge	-15.1588
▁èn	-15.16
▁cif	-15.1604
▁ilbe	-15.1608
▁deff	-15.1608
üth	-15.1616
pri	-15.162
ötä	-15.1625
eal	-15.1628
abz	-15.1633
osé	-15.1637
nkaan	-15.1639
xx	-15.1646
ume	-15.1648
arco	-15.1649
koh	-15.1653
atem	-15.1657
▁Vien	-15.1664
uidu	-15.1667
ormi	-15.167
▁Kaw	-15.1676
▁Aber	-15.1676
▁Grav	-15.1677
▁keiju	-15.1678
yad	-15.1679
▁turk	-15.1687
anb	-15.1694
sil	-15.1694
nkki	-15.1695
ác	-15.1706
hyök	-15.1706
osu	-15.1707
▁alab	-15.1718
erran	-15.1731
▁ildo	-15.1731
ättä	-15.1734
läh	-15.1742
igi	-15.1748
ekka	-15.1753
▁Pump	-15.1758
▁ryg	-15.1764
▁PeV	-15.1766
arr	-15.1767
▁sim	-15.1769
BM	-15.1769
▁CI	-15.177
▁Fid	-15.1773
▁ilet	-15.1774
▁но	-15.1774
ffe	-15.1777
▁lab	-15.1783
▁uire	-15.1783
uoksi	-15.1785
uola	-15.1788
▁past	-15.179
▁ubad	-15.1793
▁omura	-15.1805
▁ств	-15.1806
▁shop	-15.1806
▁obs	-15.1807
▁Coup	-15.1812
▁Kain	-15.1819
▁Nitr	-15.182
▁lze	-15.1822
oft	-15.1824
ryhmä	-15.1825
▁KH	-15.1825
rap	-15.1827
ullo	-15.1829
juo	-15.1831
▁itko	-15.1833
HJ	-15.1835
▁Mur	-15.1845
ø	-15.1846
▁synd	-15.1847
▁Hass	-15.1849
5.	-15.1851
▁aalb	-15.1853
abin	-15.1856
▁wij	-15.1857
▁Neve	-15.1864
wie	-15.1865
▁hipp	-15.1869
▁egga	-15.1871
▁Tarz	-15.1873
empp	-15.1877
pys	-15.1881
yhä	-15.1882
▁ragg	-15.1886
▁nad	-15.1888
▁äns	-15.189
shi	-15.189
okk	-15.1892
örs	-15.1892
▁Gab	-15.1897
▁Wo	-15.1899
anci	-15.1902
▁hemm	-15.1903
▁Dex	-15.1907
▁nelj	-15.1916
isäk	-15.1919
Ne	-15.1919
akon	-15.1923
riv	-15.1925
lmä	-15.193
▁liem	-15.1931
evp	-15.1938
[...]
