<unk>	0
<s>	0
</s>	0
en	-0
ta	-1
in	-2
is	-3
an	-4
▁k	-5
ll	-6
▁o	-7
▁s	-8
tä	-9
▁m	-10
▁v	-11
▁j	-12
▁p	-13
ti	-14
tu	-15
te	-16
sa	-17
es	-18
to	-19
as	-20
al	-21
ik	-22
▁e	-23
▁h	-24
än	-25
it	-26
▁l	-27
uo	-28
ka	-29
ks	-30
▁.	-31
er	-32
at	-33
us	-34
▁n	-35
ut	-36
li	-37
▁,	-38
▁ja	-39
▁on	-40
un	-41
aa	-42
on	-43
▁a	-44
et	-45
lla	-46
el	-47
▁S	-48
il	-49
ar	-50
im	-51
▁ta	-52
os	-53
ty	-54
lle	-55
oi	-56
▁K	-57
ää	-58
▁tu	-59
▁r	-60
ja	-61
ia	-62
ttä	-63
uu	-64
▁T	-65
ko	-66
le	-67
▁ko	-68
▁y	-69
sä	-70
ke	-71
den	-72
ista	-73
▁M	-74
ma	-75
iv	-76
▁jo	-77
▁H	-78
inen	-79
si	-80
llä	-81
ur	-82
▁P	-83
ki	-84
▁ka	-85
va	-86
▁vi	-87
ri	-88
ul	-89
een	-90
▁mu	-91
▁to	-92
▁V	-93
mm	-94
▁va	-95
hd	-96
ksi	-97
yt	-98
▁että	-99
taa	-100
isi	-101
vat	-102
ys	-103
▁L	-104
ih	-105
ku	-106
ais	-107
yö	-108
▁si	-109
▁se	-110
▁te	-111
▁A	-112
mä	-113
▁E	-114
▁-	-115
pa	-116
▁ti	-117
assa	-118
issa	-119
ir	-120
utta	-121
▁oli	-122
▁en	-123
kaan	-124
▁tä	-125
▁J	-126
▁ei	-127
▁ku	-128
vä	-129
asta	-130
ten	-131
itä	-132
mp	-133
▁N	-134
▁ma	-135
essa	-136
▁sa	-137
kin	-138
uom	-139
▁ker	-140
▁vuo	-141
tel	-142
äh	-143
ot	-144
▁R	-145
llis	-146
▁kä	-147
ina	-148
▁2	-149
uh	-150
▁jä	-151
ne	-152
▁al	-153
kä	-154
iin	-155
ra	-156
▁la	-157
tus	-158
▁as	-159
de	-160
▁hän	-161
op	-162
tö	-163
mis	-164
jo	-165
▁1	-166
ksen	-167
esta	-168
▁O	-169
▁po	-170
ei	-171
▁pää	-172
nn	-173
▁I	-174
tti	-175
vi	-176
ie	-177
man	-178
jä	-179
or	-180
▁kan	-181
▁myö	-182
uk	-183
▁ole	-184
▁mukaan	-185
▁pa	-186
▁is	-187
▁ra	-188
la	-189
jan	-190
▁kun	-191
lo	-192
▁val	-193
iden	-194
nut	-195
taan	-196
▁ha	-197
oit	-198
▁kerto	-199
isen	-200
▁ty	-201
▁kes	-202
yy	-203
pp	-204
mi	-205
ään	-206
usta	-207
van	-208
se	-209
maan	-210
▁nä	-211
istä	-212
oin	-213
▁per	-214
▁pal	-215
▁san	-216
▁myös	-217
teen	-218
ika	-219
▁B	-220
▁"	-221
ossa	-222
uks	-223
▁Suom	-224
esti	-225
▁20	-226
uol	-227
ton	-228
▁li	-229
▁an	-230
▁vä	-231
ussa	-232
ed	-233
ike	-234
ittä	-235
ien	-236
▁es	-237
▁ovat	-238
sin	-239
▁hy	-240
▁ol	-241
▁Y	-242
llut	-243
▁il	-244
▁yh	-245
ssä	-246
▁mi	-247
tta	-248
essä	-249
▁mutta	-250
utu	-251
▁U	-252
tiin	-253
nyt	-254
iste	-255
▁tar	-256
jen	-257
ro	-258
▁läh	-259
he	-260
▁saa	-261
▁voi	-262
aan	-263
▁in	-264
estä	-265
▁toim	-266
ssa	-267
unn	-268
up	-269
ön	-270
▁ke	-271
ivä	-272
▁var	-273
oo	-274
ee	-275
uus	-276
▁pel	-277
ita	-278
lä	-279
taja	-280
issä	-281
▁ih	-282
om	-283
ikka	-284
▁par	-285
ime	-286
00	-287
stä	-288
ana	-289
na	-290
▁t	-291
kka	-292
▁C	-293
iten	-294
pä	-295
asti	-296
▁Hän	-297
lan	-298
ken	-299
rin	-300
erk	-301
hti	-302
itse	-303
me	-304
iko	-305
ua	-306
▁pä	-307
▁ar	-308
enä	-309
ille	-310
▁käy	-311
▁tai	-312
keen	-313
iksi	-314
vin	-315
kk	-316
▁ollut	-317
isä	-318
alais	-319
▁he	-320
ha	-321
▁jäl	-322
▁sen	-323
lli	-324
yn	-325
vo	-326
▁F	-327
men	-328
rj	-329
▁kuin	-330
ve	-331
▁kertoo	-332
▁tapa	-333
isto	-334
▁puol	-335
▁pr	-336
ity	-337
▁joka	-338
▁aik	-339
▁kuu	-340
▁er	-341
tin	-342
illa	-343
osta	-344
▁Ka	-345
▁osa	-346
▁ki	-347
▁men	-348
▁(	-349
ttu	-350
hdo	-351
ikä	-352
ala	-353
▁D	-354
män	-355
ud	-356
oa	-357
▁su	-358
alta	-359
ky	-360
▁Se	-361
ol	-362
▁vasta	-363
▁kir	-364
kon	-365
re	-366
ran	-367
▁jälkeen	-368
mmin	-369
ise	-370
nna	-371
▁Sa	-372
vät	-373
▁puh	-374
▁maa	-375
▁G	-376
rä	-377
▁suo	-378
io	-379
ian	-380
htu	-381
▁viime	-382
▁:	-383
min	-384
▁kanssa	-385
▁kaik	-386
▁3	-387
istu	-388
▁us	-389
ivät	-390
▁kesk	-391
▁La	-392
▁ed	-393
elä	-394
▁niin	-395
itta	-396
▁teh	-397
kaa	-398
▁työ	-399
yty	-400
kö	-401
▁Venä	-402
uto	-403
mista	-404
▁le	-405
minen	-406
taina	-407
▁kul	-408
▁ky	-409
mmen	-410
kan	-411
tään	-412
pu	-413
▁seur	-414
▁pi	-415
▁Tä	-416
da	-417
▁sel	-418
oh	-419
lleen	-420
sim	-421
▁202	-422
nä	-423
▁tule	-424
eli	-425
▁poli	-426
telu	-427
▁lop	-428
isin	-429
▁lu	-430
jän	-431
etta	-432
tte	-433
▁kor	-434
▁na	-435
uksen	-436
▁sy	-437
isesti	-438
▁min	-439
▁Ta	-440
vaa	-441
uud	-442
ali	-443
hta	-444
mat	-445
▁Suomen	-446
jat	-447
▁kin	-448
▁pitä	-449
▁luo	-450
sen	-451
ivat	-452
▁vuonna	-453
ellä	-454
elle	-455
▁sanoo	-456
jon	-457
uut	-458
▁kol	-459
▁jat	-460
inn	-461
uden	-462
mään	-463
nen	-464
joi	-465
▁jul	-466
mme	-467
▁os	-468
▁so	-469
▁suu	-470
ukku	-471
yttä	-472
▁kuiten	-473
pi	-474
▁ä	-475
▁ni	-476
tää	-477
▁kys	-478
▁olla	-479
▁ne	-480
▁kos	-481
▁yli	-482
vuo	-483
▁ot	-484
▁olisi	-485
▁eur	-486
lais	-487
ikko	-488
kra	-489
asi	-490
kil	-491
▁kil	-492
so	-493
▁hen	-494
▁tied	-495
uuta	-496
▁sta	-497
neet	-498
▁oike	-499
▁tie	-500
▁tun	-501
▁hal	-502
tele	-503
ella	-504
▁yhte	-505
▁4	-506
itti	-507
▁re	-508
▁f	-509
koi	-510
▁W	-511
▁tuo	-512
▁tapahtu	-513
ilu	-514
yh	-515
▁tur	-516
kko	-517
han	-518
▁koko	-519
▁sekä	-520
▁lä	-521
ho	-522
▁b	-523
▁alu	-524
massa	-525
kun	-526
▁tilan	-527
▁vas	-528
tuks	-529
▁voit	-530
▁oh	-531
lta	-532
▁nyt	-533
isti	-534
ru	-535
hin	-536
▁päiv	-537
▁mitä	-538
▁kat	-539
usi	-540
esiden	-541
uv	-542
▁5	-543
maa	-544
▁vielä	-545
▁d	-546
tty	-547
▁epä	-548
isiin	-549
ari	-550
ttiin	-551
ni	-552
▁hänen	-553
▁van	-554
emm	-555
ihin	-556
ili	-557
mpi	-558
vel	-559
▁miel	-560
▁Jo	-561
tuksen	-562
▁vuoden	-563
▁no	-564
▁ul	-565
llo	-566
tia	-567
▁järj	-568
▁liik	-569
▁har	-570
▁elä	-571
▁ur	-572
sta	-573
uoli	-574
uuden	-575
mo	-576
osen	-577
▁perus	-578
▁aika	-579
▁mie	-580
är	-581
▁kertoi	-582
simmä	-583
▁ver	-584
▁vain	-585
▁mahdo	-586
vän	-587
▁Vi	-588
▁vo	-589
ui	-590
▁En	-591
▁mat	-592
▁To	-593
▁maan	-594
▁Hel	-595
neen	-596
▁lö	-597
tio	-598
▁Ha	-599
gin	-600
inä	-601
▁väh	-602
▁siitä	-603
▁kaup	-604
▁hyvin	-605
▁Mar	-606
▁lle	-607
▁hä	-608
▁kuitenkin	-609
ulu	-610
▁asi	-611
▁yr	-612
oli	-613
inta	-614
oita	-615
ihe	-616
▁Ukra	-617
kki	-618
toi	-619
itten	-620
itty	-621
teli	-622
llinen	-623
▁vaa	-624
▁tut	-625
▁sitä	-626
jaa	-627
isteri	-628
▁mon	-629
▁kas	-630
▁mää	-631
erkiksi	-632
eh	-633
▁suom	-634
tui	-635
▁Ma	-636
toa	-637
della	-638
▁hyvä	-639
sti	-640
▁presiden	-641
▁sanoi	-642
hdys	-643
▁lo	-644
▁vaik	-645
itys	-646
lin	-647
▁itse	-648
tuu	-649
▁?	-650
htaja	-651
val	-652
▁jossa	-653
▁ensimmä	-654
▁19	-655
kea	-656
eita	-657
▁Ra	-658
ito	-659
ter	-660
▁jon	-661
uttaa	-662
▁Ko	-663
hde	-664
▁i	-665
dän	-666
uole	-667
▁noin	-668
▁jos	-669
▁aina	-670
malla	-671
yr	-672
▁auto	-673
eet	-674
▁ihmis	-675
kuussa	-676
▁koh	-677
▁An	-678
ilta	-679
▁aikana	-680
▁pelaa	-681
iset	-682
isia	-683
▁pit	-684
ittaa	-685
▁Pa	-686
▁ään	-687
jel	-688
lloin	-689
▁yks	-690
▁paljon	-691
tettu	-692
ivi	-693
ig	-694
▁Va	-695
kia	-696
▁ennen	-697
▁lisä	-698
▁esim	-699
kään	-700
kilö	-701
kas	-702
▁väl	-703
▁kiin	-704
▁ilm	-705
kunn	-706
ikki	-707
▁eivät	-708
▁syy	-709
▁las	-710
no	-711
otta	-712
▁sitten	-713
▁sillä	-714
▁maal	-715
▁Venäjän	-716
ulla	-717
▁pys	-718
▁ri	-719
▁jää	-720
▁ette	-721
istö	-722
▁6	-723
▁sai	-724
▁lap	-725
▁lla	-726
▁Ku	-727
▁järjes	-728
▁teke	-729
eri	-730
▁kon	-731
▁hyö	-732
llista	-733
▁kuul	-734
uor	-735
anta	-736
▁yle	-737
▁tuli	-738
▁käyt	-739
▁kilpa	-740
kais	-741
▁muun	-742
ea	-743
▁201	-744
atti	-745
tua	-746
▁tul	-747
kis	-748
▁mil	-749
rke	-750
uot	-751
▁henkilö	-752
hden	-753
ikon	-754
▁op	-755
pan	-756
id	-757
▁keh	-758
▁kau	-759
▁muassa	-760
vuoti	-761
▁maail	-762
▁halli	-763
▁Yhdys	-764
▁mies	-765
▁joukku	-766
ima	-767
uutta	-768
ch	-769
▁Ilta	-770
että	-771
▁Tru	-772
▁vastaan	-773
▁kis	-774
▁ssa	-775
eksi	-776
▁tunn	-777
▁hel	-778
▁Trump	-779
▁ede	-780
▁esimerkiksi	-781
▁kaikki	-782
▁prosen	-783
▁Helsin	-784
ans	-785
tusta	-786
▁He	-787
erä	-788
▁sop	-789
ministeri	-790
misen	-791
isiä	-792
ann	-793
isty	-794
▁het	-795
mia	-796
▁00	-797
etti	-798
▁tö	-799
ittää	-800
llisen	-801
po	-802
▁ulko	-803
do	-804
ue	-805
tun	-806
▁tote	-807
▁kaksi	-808
iva	-809
▁Har	-810
▁asia	-811
ite	-812
▁Jos	-813
vää	-814
▁tulee	-815
una	-816
▁ter	-817
▁Sal	-818
▁kann	-819
▁lau	-820
je	-821
▁aie	-822
kkä	-823
▁7	-824
▁Nä	-825
▁000	-826
▁sija	-827
▁kommen	-828
son	-829
dä	-830
▁huo	-831
▁lis	-832
▁muu	-833
llaan	-834
kseen	-835
▁ajan	-836
ira	-837
teessa	-838
via	-839
▁toimi	-840
▁Ro	-841
llisesti	-842
▁pitää	-843
▁jot	-844
▁raken	-845
▁eli	-846
ksa	-847
▁ettei	-848
▁muut	-849
johtaja	-850
▁olivat	-851
▁suur	-852
din	-853
▁uh	-854
▁mieh	-855
▁arvi	-856
ila	-857
▁väli	-858
vasti	-859
▁ve	-860
iseen	-861
▁Kun	-862
▁Poli	-863
▁euroa	-864
▁Ja	-865
▁Val	-866
▁kaupun	-867
di	-868
▁nim	-869
▁ista	-870
▁sisä	-871
▁vuotta	-872
uksia	-873
▁huom	-874
▁Ukrain	-875
▁ottel	-876
mer	-877
▁tehd	-878
▁Is	-879
ven	-880
▁suunn	-881
▁Na	-882
▁pien	-883
▁nel	-884
▁kut	-885
▁yhd	-886
▁turva	-887
▁tav	-888
tyi	-889
▁yksi	-890
eiden	-891
▁vah	-892
▁uus	-893
▁jotka	-894
▁nais	-895
kuun	-896
▁vir	-897
▁keskus	-898
uro	-899
ing	-900
▁8	-901
▁kirjo	-902
▁Ol	-903
illä	-904
oitta	-905
▁käyttä	-906
isten	-907
▁talo	-908
▁len	-909
▁ksi	-910
onen	-911
emmän	-912
ale	-913
kim	-914
▁aihe	-915
tettiin	-916
▁kar	-917
▁kansa	-918
elta	-919
▁suomalais	-920
asto	-921
▁Li	-922
san	-923
▁laa	-924
▁kuva	-925
teet	-926
ula	-927
kana	-928
eseen	-929
ikan	-930
änä	-931
▁Le	-932
▁jonka	-933
tom	-934
▁Ne	-935
▁vier	-936
▁eikä	-937
▁päätö	-938
▁kunn	-939
▁uut	-940
ettu	-941
▁saan	-942
atta	-943
▁vaih	-944
uudessa	-945
ino	-946
llan	-947
▁met	-948
▁merk	-949
antaina	-950
▁Venäjä	-951
tojen	-952
ihen	-953
llin	-954
▁yllä	-955
▁Mi	-956
jien	-957
eltä	-958
▁tiedot	-959
▁Myö	-960
▁koti	-961
▁mo	-962
oma	-963
▁In	-964
sia	-965
der	-966
uun	-967
▁paika	-968
▁mar	-969
▁aja	-970
▁ase	-971
▁siir	-972
▁onn	-973
▁seuraa	-974
paa	-975
eidän	-976
▁määrä	-977
uri	-978
▁me	-979
▁hi	-980
▁Suomessa	-981
bb	-982
▁On	-983
▁eri	-984
joon	-985
▁Al	-986
▁sil	-987
▁vaikka	-988
ssi	-989
▁tämän	-990
▁lisää	-991
▁Ar	-992
yky	-993
oike	-994
uksessa	-995
▁mahdollis	-996
▁koska	-997
▁liitty	-998
tunut	-999
ine	-1000
▁palvel	-1001
valta	-1002
iti	-1003
▁9	-1004
▁han	-1005
▁olevan	-1006
ltä	-1007
▁ille	-1008
kke	-1009
▁Ruot	-1010
▁teki	-1011
tan	-1012
0-	-1013
▁kaa	-1014
oitti	-1015
gel	-1016
ope	-1017
ustus	-1018
toja	-1019
erg	-1020
▁Euro	-1021
iä	-1022
my	-1023
▁sä	-1024
▁sar	-1025
esty	-1026
▁kesä	-1027
kset	-1028
▁juo	-1029
dan	-1030
▁pu	-1031
▁miljoon	-1032
ppu	-1033
pe	-1034
▁hoi	-1035
▁nous	-1036
utti	-1037
▁tämä	-1038
eella	-1039
oiden	-1040
▁kier	-1041
▁presidentti	-1042
itto	-1043
▁näyt	-1044
▁joutu	-1045
▁myy	-1046
▁päivä	-1047
▁illa	-1048
▁aiemmin	-1049
ver	-1050
olla	-1051
kunta	-1052
▁työn	-1053
▁miten	-1054
▁siihen	-1055
elin	-1056
▁rat	-1057
▁Myös	-1058
▁tava	-1059
▁Si	-1060
osti	-1061
▁maailman	-1062
ansa	-1063
tinen	-1064
ttia	-1065
ulun	-1066
tetaan	-1067
▁g	-1068
▁näh	-1069
▁jota	-1070
▁)	-1071
▁mme	-1072
▁enemmän	-1073
▁muuta	-1074
toon	-1075
enn	-1076
tubb	-1077
▁tällä	-1078
mpia	-1079
mien	-1080
tion	-1081
▁haasta	-1082
yd	-1083
ker	-1084
▁Kes	-1085
oilla	-1086
▁puheen	-1087
viä	-1088
▁löyty	-1089
▁sää	-1090
ystä	-1091
ara	-1092
▁ehdo	-1093
▁Nyt	-1094
▁kysy	-1095
▁vaan	-1096
oihin	-1097
▁Tämä	-1098
▁lisäksi	-1099
▁med	-1100
yttää	-1101
ksia	-1102
▁kohd	-1103
▁peli	-1104
▁suh	-1105
telee	-1106
▁juh	-1107
etty	-1108
▁it	-1109
▁syö	-1110
▁ensi	-1111
▁poliisi	-1112
▁terve	-1113
▁".	-1114
▁muo	-1115
unta	-1116
kuu	-1117
▁säh	-1118
kel	-1119
tetta	-1120
▁saira	-1121
rs	-1122
▁piste	-1123
ettiin	-1124
mu	-1125
▁kertaa	-1126
kus	-1127
▁syn	-1128
jois	-1129
▁Tur	-1130
masta	-1131
▁Suomi	-1132
▁av	-1133
▁mikä	-1134
vuotias	-1135
▁ho	-1136
▁issa	-1137
▁kolme	-1138
▁MM	-1139
iseksi	-1140
▁Ke	-1141
▁mitään	-1142
▁Poliisi	-1143
ani	-1144
▁koke	-1145
▁joh	-1146
▁tärke	-1147
uko	-1148
▁osallis	-1149
▁uu	-1150
▁kyse	-1151
kellä	-1152
▁vaike	-1153
össä	-1154
teita	-1155
▁Per	-1156
▁ken	-1157
▁et	-1158
▁ryh	-1159
▁käs	-1160
tynyt	-1161
▁esiin	-1162
alainen	-1163
▁tal	-1164
▁ymp	-1165
eillä	-1166
▁un	-1167
attaa	-1168
▁nuor	-1169
▁Ukrainan	-1170
alla	-1171
▁mä	-1172
▁sella	-1173
pal	-1174
▁paik	-1175
▁vuos	-1176
▁viikon	-1177
▁Stubb	-1178
▁Ei	-1179
ittu	-1180
▁valmis	-1181
ile	-1182
▁ihan	-1183
itsi	-1184
▁Isra	-1185
▁Poh	-1186
▁u	-1187
▁usko	-1188
▁vide	-1189
▁elo	-1190
tetty	-1191
daan	-1192
yys	-1193
▁jopa	-1194
▁lin	-1195
▁use	-1196
tis	-1197
▁vastaa	-1198
ukka	-1199
▁nyky	-1200
kuuta	-1201
▁poh	-1202
ras	-1203
▁ruo	-1204
▁seura	-1205
▁Euroop	-1206
▁/	-1207
kunnan	-1208
▁oma	-1209
utin	-1210
▁tehtä	-1211
▁kats	-1212
▁prosenttia	-1213
oja	-1214
▁15	-1215
▁San	-1216
▁tarv	-1217
▁kuuka	-1218
attu	-1219
▁puoli	-1220
▁taka	-1221
▁vaati	-1222
▁perjan	-1223
▁au	-1224
til	-1225
vassa	-1226
▁Helsingin	-1227
▁lää	-1228
▁tehdä	-1229
▁kymmen	-1230
ura	-1231
▁rah	-1232
▁alku	-1233
▁Nor	-1234
ukset	-1235
▁vat	-1236
▁enää	-1237
uuri	-1238
▁Sen	-1239
▁sin	-1240
matta	-1241
▁arvioi	-1242
ulta	-1243
▁Vuo	-1244
▁Iltale	-1245
ksan	-1246
lleet	-1247
nus	-1248
osia	-1249
▁Te	-1250
ju	-1251
ivan	-1252
tori	-1253
▁­	-1254
tee	-1255
enne	-1256
istaa	-1257
▁Kuva	-1258
▁johta	-1259
isessa	-1260
ttö	-1261
voim	-1262
▁yleis	-1263
▁hui	-1264
tila	-1265
▁sähkö	-1266
▁kään	-1267
▁Re	-1268
HL	-1269
▁jal	-1270
▁toiv	-1271
▁vuosi	-1272
vien	-1273
▁ongel	-1274
tr	-1275
▁ilta	-1276
▁erity	-1277
▁Il	-1278
ksiä	-1279
▁turvallis	-1280
▁kuo	-1281
▁yhteis	-1282
ppi	-1283
▁selv	-1284
▁aikaa	-1285
▁toimin	-1286
▁ik	-1287
▁200	-1288
▁asian	-1289
misesta	-1290
uttu	-1291
imi	-1292
isa	-1293
▁de	-1294
▁oly	-1295
kes	-1296
mma	-1297
▁rik	-1298
▁halu	-1299
▁sopim	-1300
▁Vir	-1301
▁kello	-1302
▁ihm	-1303
▁mur	-1304
uksesta	-1305
▁kommentoi	-1306
▁aa	-1307
▁pääs	-1308
▁kär	-1309
2.	-1310
tyy	-1311
västi	-1312
ill	-1313
▁pois	-1314
miseen	-1315
▁Pe	-1316
▁än	-1317
▁pain	-1318
▁edus	-1319
▁ava	-1320
▁til	-1321
▁hyökkä	-1322
▁valmen	-1323
▁alle	-1324
ren	-1325
▁jouk	-1326
▁huol	-1327
▁käyttö	-1328
telä	-1329
hän	-1330
▁puolesta	-1331
ce	-1332
ustaja	-1333
mää	-1334
ck	-1335
1.	-1336
▁muuto	-1337
▁todella	-1338
mässä	-1339
▁kauden	-1340
▁Var	-1341
▁pyy	-1342
▁ohjel	-1343
▁saanut	-1344
puol	-1345
▁kautta	-1346
▁loppu	-1347
uta	-1348
gen	-1349
ttää	-1350
ksiin	-1351
▁julka	-1352
ityksen	-1353
uudesta	-1354
▁täys	-1355
▁pan	-1356
▁Es	-1357
▁pitkä	-1358
▁tulo	-1359
▁vara	-1360
tys	-1361
▁sunn	-1362
kee	-1363
▁tuom	-1364
▁voim	-1365
▁Lisä	-1366
▁otta	-1367
▁vuoksi	-1368
aisen	-1369
ikke	-1370
▁valta	-1371
▁nope	-1372
tely	-1373
eille	-1374
kti	-1375
▁10	-1376
ilun	-1377
▁jen	-1378
▁vahv	-1379
jia	-1380
isoi	-1381
su	-1382
▁!	-1383
väl	-1384
▁Ch	-1385
▁Mon	-1386
von	-1387
▁yl	-1388
utus	-1389
▁pah	-1390
ry	-1391
jassa	-1392
▁Viime	-1393
gra	-1394
iri	-1395
▁rauh	-1396
▁neljä	-1397
tetään	-1398
ilee	-1399
▁kuten	-1400
ittäin	-1401
ityks	-1402
▁vähän	-1403
tut	-1404
imo	-1405
▁tiista	-1406
iton	-1407
▁tässä	-1408
▁Min	-1409
heilu	-1410
▁aikaan	-1411
ksy	-1412
▁EU	-1413
ottaa	-1414
▁joukkue	-1415
ös	-1416
▁pro	-1417
▁tarkoi	-1418
▁amm	-1419
▁Putin	-1420
teiden	-1421
esi	-1422
kkin	-1423
innan	-1424
▁eh	-1425
▁olen	-1426
nan	-1427
teri	-1428
ff	-1429
▁Or	-1430
jana	-1431
oittaa	-1432
llen	-1433
kku	-1434
▁kie	-1435
ojen	-1436
▁täy	-1437
mpaa	-1438
▁Z	-1439
▁Hänen	-1440
▁Kar	-1441
▁mukana	-1442
▁hetkellä	-1443
mus	-1444
▁kokon	-1445
▁Ky	-1446
3.	-1447
▁lähes	-1448
itt	-1449
mistä	-1450
▁tullut	-1451
gi	-1452
pää	-1453
tie	-1454
don	-1455
▁tilanne	-1456
ria	-1457
▁keskivi	-1458
▁hall	-1459
▁ia	-1460
▁py	-1461
▁Yhdysvalta	-1462
▁tarjo	-1463
por	-1464
▁Kor	-1465
▁Pal	-1466
ikolla	-1467
▁onnistu	-1468
▁Lisäksi	-1469
▁alkoi	-1470
telussa	-1471
▁lta	-1472
kona	-1473
▁Par	-1474
▁juuri	-1475
ily	-1476
▁siinä	-1477
▁koulu	-1478
isesta	-1479
▁paikka	-1480
▁tutkim	-1481
ostaa	-1482
▁tyy	-1483
▁Pohjois	-1484
lainen	-1485
▁uuden	-1486
kul	-1487
▁pyö	-1488
▁vuod	-1489
▁joten	-1490
▁asti	-1491
▁18	-1492
mmär	-1493
teki	-1494
▁ilman	-1495
▁Ki	-1496
▁Lo	-1497
oissa	-1498
▁kiinni	-1499
▁sosia	-1500
isille	-1501
▁lähti	-1502
▁yhteen	-1503
nin	-1504
▁ras	-1505
▁kasv	-1506
kkaa	-1507
▁jäsen	-1508
mon	-1509
ointi	-1510
▁siv	-1511
▁pala	-1512
▁matka	-1513
annut	-1514
llään	-1515
um	-1516
▁näky	-1517
▁perä	-1518
hemmin	-1519
alu	-1520
ittiin	-1521
ang	-1522
riä	-1523
▁Lin	-1524
▁maks	-1525
▁saada	-1526
tön	-1527
▁Ale	-1528
▁taas	-1529
iku	-1530
ikk	-1531
▁kaudella	-1532
▁iso	-1533
▁riko	-1534
aar	-1535
▁toinen	-1536
yyttä	-1537
▁edelleen	-1538
▁Ho	-1539
▁Yle	-1540
▁ilma	-1541
▁lain	-1542
▁takia	-1543
▁tasa	-1544
var	-1545
uli	-1546
uolella	-1547
unut	-1548
▁Olen	-1549
▁kuitenkaan	-1550
▁palj	-1551
▁mesta	-1552
opp	-1553
eili	-1554
▁miehen	-1555
▁huu	-1556
▁jäi	-1557
▁Ukraina	-1558
▁pitäisi	-1559
itel	-1560
ber	-1561
▁suos	-1562
joukku	-1563
▁kyl	-1564
▁ystä	-1565
tunti	-1566
▁toden	-1567
▁Er	-1568
▁mielestä	-1569
▁hie	-1570
jö	-1571
▁pare	-1572
▁run	-1573
▁toisen	-1574
omet	-1575
▁arvo	-1576
▁Lap	-1577
▁Mo	-1578
▁12	-1579
näkö	-1580
▁kansan	-1581
miin	-1582
▁lämp	-1583
ukseen	-1584
ore	-1585
▁stä	-1586
iston	-1587
osa	-1588
▁asu	-1589
seen	-1590
▁halua	-1591
▁kiinn	-1592
llon	-1593
äs	-1594
▁perhe	-1595
▁alueella	-1596
kos	-1597
▁Trumpin	-1598
▁Mutta	-1599
▁viera	-1600
ettom	-1601
▁Pel	-1602
▁ro	-1603
▁pysty	-1604
▁ainakin	-1605
yks	-1606
tanut	-1607
▁17	-1608
joit	-1609
▁neuv	-1610
▁voisi	-1611
▁nsa	-1612
ona	-1613
▁Kys	-1614
▁peruste	-1615
▁päätty	-1616
▁perin	-1617
▁voitti	-1618
▁Näin	-1619
mpu	-1620
▁hava	-1621
▁Yhdysvaltain	-1622
▁ikä	-1623
▁ero	-1624
imme	-1625
▁lais	-1626
▁hallitus	-1627
ele	-1628
▁Me	-1629
▁löy	-1630
▁palvelu	-1631
▁kamp	-1632
▁vaka	-1633
▁olleet	-1634
▁kri	-1635
▁Van	-1636
▁Biden	-1637
San	-1638
▁opp	-1639
▁pol	-1640
inväl	-1641
▁viesti	-1642
▁yhdessä	-1643
her	-1644
alan	-1645
▁eten	-1646
▁vel	-1647
▁haastat	-1648
▁päästä	-1649
▁tta	-1650
▁perjantaina	-1651
missa	-1652
▁X	-1653
▁sijaitse	-1654
▁edusta	-1655
▁kaupungin	-1656
kkää	-1657
▁Mä	-1658
▁näin	-1659
▁mer	-1660
anne	-1661
▁ajo	-1662
▁IS	-1663
▁Ri	-1664
▁kolm	-1665
4.	-1666
▁main	-1667
▁Ni	-1668
▁jär	-1669
▁Pää	-1670
▁Ga	-1671
▁tuomi	-1672
ena	-1673
jät	-1674
▁vies	-1675
▁lento	-1676
▁omista	-1677
▁julkais	-1678
▁katso	-1679
▁tavalla	-1680
▁kilomet	-1681
▁ymmär	-1682
ly	-1683
▁saman	-1684
▁hallituksen	-1685
ase	-1686
mmat	-1687
untaina	-1688
▁ensimmäisen	-1689
per	-1690
▁od	-1691
astus	-1692
▁kerr	-1693
▁lauantaina	-1694
▁Da	-1695
▁NHL	-1696
ikkona	-1697
ga	-1698
▁16	-1699
▁ottelu	-1700
ottu	-1701
ilais	-1702
▁kerro	-1703
▁puheenjohtaja	-1704
▁ten	-1705
▁odo	-1706
▁tieto	-1707
▁yhden	-1708
ensä	-1709
▁kyllä	-1710
osi	-1711
▁yhti	-1712
▁ratkais	-1713
▁missä	-1714
▁viikolla	-1715
▁tiedotteessa	-1716
sson	-1717
▁histo	-1718
▁presidentin	-1719
sky	-1720
▁Insta	-1721
kasta	-1722
vansa	-1723
▁Oulun	-1724
keä	-1725
▁kirjoittaa	-1726
räjä	-1727
imp	-1728
sar	-1729
heili	-1730
aav	-1731
olo	-1732
▁rikos	-1733
▁kuinka	-1734
▁Instagra	-1735
▁miljoonaa	-1736
▁Hy	-1737
▁viran	-1738
ard	-1739
len	-1740
▁nuo	-1741
▁siis	-1742
▁heti	-1743
▁perh	-1744
▁hieman	-1745
rit	-1746
▁uusi	-1747
▁puolustus	-1748
▁niitä	-1749
oitus	-1750
▁alka	-1751
▁Kos	-1752
▁Hä	-1753
▁tän	-1754
▁parha	-1755
▁välillä	-1756
▁muistu	-1757
▁joita	-1758
▁kuulu	-1759
▁nor	-1760
▁fina	-1761
▁käsi	-1762
kuva	-1763
▁kahden	-1764
▁eriko	-1765
ris	-1766
äri	-1767
▁muka	-1768
▁verk	-1769
▁täysin	-1770
▁alkaa	-1771
▁venä	-1772
▁tilante	-1773
ket	-1774
▁sur	-1775
▁Kä	-1776
otti	-1777
kiin	-1778
▁kulj	-1779
▁yhtä	-1780
▁kuole	-1781
▁toista	-1782
tyä	-1783
▁maksa	-1784
mman	-1785
▁vih	-1786
▁ihin	-1787
ron	-1788
▁tek	-1789
joitus	-1790
ikin	-1791
▁häntä	-1792
▁c	-1793
▁tänä	-1794
▁tehnyt	-1795
▁tunne	-1796
urin	-1797
▁heidän	-1798
isessä	-1799
alin	-1800
raa	-1801
▁oman	-1802
▁työnteki	-1803
▁vai	-1804
▁suunnitel	-1805
▁ala	-1806
▁pur	-1807
▁aiko	-1808
▁todennäkö	-1809
▁edes	-1810
▁piti	-1811
▁julkis	-1812
▁30	-1813
▁mielen	-1814
▁etu	-1815
▁kohta	-1816
▁kerran	-1817
▁vaikutta	-1818
oista	-1819
▁auton	-1820
kohta	-1821
ota	-1822
vos	-1823
▁Euroopan	-1824
lia	-1825
räjäoike	-1826
▁lähe	-1827
▁taso	-1828
änn	-1829
paan	-1830
▁myöhemmin	-1831
alaisten	-1832
itos	-1833
▁myön	-1834
▁merkittä	-1835
dy	-1836
ytti	-1837
▁järjestel	-1838
▁jatkaa	-1839
▁tien	-1840
vinto	-1841
rstaina	-1842
▁koul	-1843
▁Su	-1844
▁tiet	-1845
▁useita	-1846
utui	-1847
▁varsin	-1848
▁0	-1849
▁koi	-1850
ba	-1851
▁viranoma	-1852
▁New	-1853
▁yrittä	-1854
▁pö	-1855
iassa	-1856
liig	-1857
▁Ä	-1858
▁vaihe	-1859
isella	-1860
▁torstaina	-1861
1-	-1862
▁sul	-1863
▁25	-1864
▁suosi	-1865
▁otti	-1866
ikkö	-1867
itte	-1868
▁Ruotsin	-1869
▁huoli	-1870
▁lopp	-1871
▁tutki	-1872
▁sal	-1873
▁nähd	-1874
ukkaan	-1875
Suom	-1876
otus	-1877
▁venälä	-1878
▁herä	-1879
▁euron	-1880
▁viikko	-1881
▁Itä	-1882
▁työs	-1883
▁näyttää	-1884
▁Tuo	-1885
▁Pari	-1886
hdelle	-1887
tella	-1888
▁ottelun	-1889
▁aiheutta	-1890
sy	-1891
ttaa	-1892
▁tiistaina	-1893
▁Kat	-1894
udessa	-1895
▁Kir	-1896
▁voivat	-1897
▁maanantaina	-1898
kän	-1899
▁pääse	-1900
▁aivan	-1901
ehto	-1902
▁väk	-1903
▁Vä	-1904
▁joukko	-1905
▁ottaa	-1906
▁tutkin	-1907
▁Vaikka	-1908
▁keskiviikkona	-1909
ällä	-1910
▁Puol	-1911
▁kuoli	-1912
▁alussa	-1913
▁El	-1914
hi	-1915
▁tuot	-1916
▁usein	-1917
▁jatku	-1918
uuteen	-1919
▁Yhdysva	-1920
▁alue	-1921
▁puolestaan	-1922
anna	-1923
onsa	-1924
▁hänet	-1925
▁mahdollista	-1926
eensa	-1927
▁vaihto	-1928
▁tod	-1929
▁koskaan	-1930
▁leikka	-1931
ulle	-1932
▁tan	-1933
essaan	-1934
▁sunnuntaina	-1935
luv	-1936
▁ris	-1937
▁jalka	-1938
▁yksity	-1939
ussi	-1940
▁llis	-1941
▁ir	-1942
▁liig	-1943
▁Po	-1944
▁vie	-1945
▁el	-1946
▁käytä	-1947
▁mistä	-1948
▁tila	-1949
▁tavoit	-1950
omat	-1951
tuksia	-1952
▁voima	-1953
▁joulu	-1954
tur	-1955
telun	-1956
▁perusteella	-1957
▁roo	-1958
era	-1959
▁Israelin	-1960
▁järjestä	-1961
▁voin	-1962
▁vanhe	-1963
kie	-1964
▁kierro	-1965
▁kilpailu	-1966
jaan	-1967
tar	-1968
▁por	-1969
▁Ti	-1970
▁asiasta	-1971
▁Suomeen	-1972
astaan	-1973
▁mitta	-1974
▁Ve	-1975
usto	-1976
aatio	-1977
▁toteaa	-1978
▁tuleva	-1979
mättä	-1980
▁siellä	-1981
▁Lu	-1982
▁jaks	-1983
▁epäil	-1984
▁tätä	-1985
▁Salon	-1986
▁minuut	-1987
▁pyr	-1988
▁puolu	-1989
ini	-1990
▁yhä	-1991
kir	-1992
kkaan	-1993
▁sään	-1994
▁tälla	-1995
▁ympär	-1996
▁ain	-1997
▁olympia	-1998
astaa	-1999
sut	-2000
▁silloin	-2001
▁So	-2002
▁pysä	-2003
▁käynn	-2004
▁työsken	-2005
▁Niin	-2006
▁lähte	-2007
kaup	-2008
neksi	-2009
▁politi	-2010
▁vapa	-2011
ero	-2012
ksesta	-2013
▁päivän	-2014
▁Tu	-2015
▁ap	-2016
▁her	-2017
▁turvallisuus	-2018
iselle	-2019
▁keske	-2020
▁tausta	-2021
▁Asi	-2022
mar	-2023
vuotiaan	-2024
perä	-2025
▁pysy	-2026
▁ää	-2027
yden	-2028
▁hiih	-2029
▁199	-2030
▁ehkä	-2031
▁jään	-2032
▁johtaja	-2033
▁äänestä	-2034
ge	-2035
▁tehty	-2036
ire	-2037
uha	-2038
▁kävi	-2039
▁toiminta	-2040
▁Kol	-2041
▁joissa	-2042
▁sijaan	-2043
▁kal	-2044
oille	-2045
tit	-2046
kusta	-2047
▁Etelä	-2048
uvo	-2049
eilla	-2050
▁kansainväl	-2051
berg	-2052
▁ent	-2053
▁korke	-2054
mät	-2055
res	-2056
▁sosiaal	-2057
▁iin	-2058
▁mukaansa	-2059
▁osallistu	-2060
▁ensimmäinen	-2061
ene	-2062
▁uud	-2063
▁Tar	-2064
vänsä	-2065
▁julk	-2066
talo	-2067
▁ohj	-2068
▁tarvitse	-2069
fi	-2070
isu	-2071
yyn	-2072
▁Lue	-2073
▁mel	-2074
▁puu	-2075
▁saattaa	-2076
▁Kyse	-2077
▁ihmistä	-2078
▁kaks	-2079
stö	-2080
▁vää	-2081
▁lapsi	-2082
uhti	-2083
päiv	-2084
▁pääsi	-2085
▁Hen	-2086
eelle	-2087
tänyt	-2088
ist	-2089
jää	-2090
▁Joh	-2091
▁jolla	-2092
mper	-2093
▁pari	-2094
▁vuosina	-2095
▁kokonais	-2096
lu	-2097
▁muita	-2098
▁ammatti	-2099
▁sano	-2100
▁tulla	-2101
▁enna	-2102
isellä	-2103
▁Rovan	-2104
▁2022	-2105
ela	-2106
osto	-2107
ttävä	-2108
▁raja	-2109
▁sotil	-2110
▁vaal	-2111
gan	-2112
▁2023	-2113
▁tosi	-2114
▁inen	-2115
▁Läh	-2116
▁its	-2117
▁tap	-2118
kossa	-2119
▁huippu	-2120
ivo	-2121
▁pe	-2122
▁urheili	-2123
las	-2124
▁Mies	-2125
utunut	-2126
▁josta	-2127
▁uutta	-2128
▁ravinto	-2129
▁läpi	-2130
▁jotta	-2131
▁jälleen	-2132
▁erittäin	-2133
▁minen	-2134
▁laus	-2135
▁luki	-2136
▁yö	-2137
ander	-2138
▁kirja	-2139
▁nainen	-2140
▁neljän	-2141
▁markkin	-2142
▁No	-2143
auto	-2144
▁käsit	-2145
▁liikenne	-2146
▁tode	-2147
residen	-2148
ip	-2149
vissa	-2150
▁kanna	-2151
▁yhteisty	-2152
▁varm	-2153
▁tänään	-2154
▁anta	-2155
▁kohtaa	-2156
▁Pet	-2157
▁ajat	-2158
▁sis	-2159
ryh	-2160
▁50	-2161
▁uude	-2162
▁11	-2163
palvel	-2164
▁viikonl	-2165
onal	-2166
ydessä	-2167
▁joiden	-2168
▁vaikuttaa	-2169
mentaja	-2170
▁perheen	-2171
tissa	-2172
jille	-2173
▁rakenn	-2174
▁syys	-2175
▁oikeus	-2176
▁kaan	-2177
joiden	-2178
▁seitse	-2179
kiä	-2180
mys	-2181
▁13	-2182
hing	-2183
▁nousi	-2184
▁päivänä	-2185
ude	-2186
▁meni	-2187
▁keski	-2188
▁tekee	-2189
▁jotain	-2190
▁urheilu	-2191
imaan	-2192
▁uutisoi	-2193
▁lopulta	-2194
visi	-2195
▁poikke	-2196
▁asiantunti	-2197
oni	-2198
ottelu	-2199
▁lähet	-2200
▁pitkään	-2201
ppo	-2202
▁takaisin	-2203
▁valmista	-2204
▁kahde	-2205
▁luonn	-2206
▁elämän	-2207
▁suora	-2208
▁tähän	-2209
▁näyttä	-2210
▁",	-2211
▁antaa	-2212
▁lasten	-2213
uksista	-2214
▁riittä	-2215
▁pidä	-2216
▁Esim	-2217
östä	-2218
▁The	-2219
▁osaa	-2220
▁maahan	-2221
ieh	-2222
▁Antti	-2223
▁hyvinv	-2224
▁lapsen	-2225
tann	-2226
rän	-2227
▁ssä	-2228
▁käyttää	-2229
liiton	-2230
▁myötä	-2231
▁kolman	-2232
▁tapahtui	-2233
▁Kaikki	-2234
ensa	-2235
▁teko	-2236
▁ympäri	-2237
▁nopeasti	-2238
▁onnettom	-2239
▁pud	-2240
hol	-2241
▁pos	-2242
imman	-2243
telua	-2244
▁niiden	-2245
iltä	-2246
toin	-2247
▁llä	-2248
▁laps	-2249
▁ampu	-2250
jär	-2251
▁kapp	-2252
▁voidaan	-2253
pallo	-2254
▁samalla	-2255
▁hänelle	-2256
▁huolimatta	-2257
kse	-2258
▁hu	-2259
▁ura	-2260
▁loukkaan	-2261
▁mais	-2262
▁vapaa	-2263
▁tähti	-2264
▁haluaa	-2265
yksen	-2266
▁eteen	-2267
uksi	-2268
▁luku	-2269
llisia	-2270
otto	-2271
▁liitto	-2272
▁yritys	-2273
,5	-2274
oon	-2275
▁län	-2276
▁lääkä	-2277
▁Esimerkiksi	-2278
▁14	-2279
vy	-2280
iha	-2281
▁Ed	-2282
▁liian	-2283
▁ihmisiä	-2284
▁puhu	-2285
▁ottelussa	-2286
▁käräjäoike	-2287
valla	-2288
▁suun	-2289
iken	-2290
suom	-2291
▁puut	-2292
▁voitto	-2293
▁Yksi	-2294
aap	-2295
kari	-2296
▁ruoka	-2297
▁valtio	-2298
usti	-2299
ikaan	-2300
▁sair	-2301
isestä	-2302
▁kuuluu	-2303
iso	-2304
rik	-2305
ser	-2306
▁vaali	-2307
▁yliop	-2308
ikuussa	-2309
▁rä	-2310
▁lämpö	-2311
▁Tamper	-2312
▁valtion	-2313
▁yhteydessä	-2314
tali	-2315
nti	-2316
oku	-2317
▁löytyy	-2318
▁kymmenen	-2319
▁kesken	-2320
▁kansaned	-2321
▁Car	-2322
ittaja	-2323
▁suuri	-2324
lliset	-2325
▁jatko	-2326
▁erityisesti	-2327
▁asiaa	-2328
▁viisi	-2329
▁Sil	-2330
▁poliisin	-2331
▁laj	-2332
▁joukkueen	-2333
▁Rans	-2334
dio	-2335
▁Oli	-2336
▁hil	-2337
▁menn	-2338
▁pelaaja	-2339
▁terveys	-2340
päin	-2341
▁musi	-2342
▁koske	-2343
▁saapu	-2344
▁vaiheessa	-2345
▁suor	-2346
▁kerrotaan	-2347
anen	-2348
▁2024	-2349
▁Hi	-2350
▁Mat	-2351
mppan	-2352
Sanomat	-2353
▁EM	-2354
usten	-2355
yhti	-2356
▁kur	-2357
▁tarko	-2358
▁yhteensä	-2359
▁kampan	-2360
ves	-2361
ytyy	-2362
▁alla	-2363
▁sota	-2364
▁jolloin	-2365
▁Maa	-2366
▁kysymy	-2367
estö	-2368
isivat	-2369
ettaja	-2370
▁lähtö	-2371
▁Tor	-2372
▁päätös	-2373
.)	-2374
ksella	-2375
▁Por	-2376
▁hake	-2377
▁moni	-2378
▁Pi	-2379
kinen	-2380
▁näkö	-2381
▁joista	-2382
▁kahd	-2383
▁Br	-2384
tonen	-2385
▁Mikko	-2386
▁kah	-2387
▁näke	-2388
▁aikais	-2389
▁tehtävä	-2390
▁ehd	-2391
▁lyh	-2392
▁suori	-2393
lee	-2394
▁Alex	-2395
▁syyt	-2396
▁huomio	-2397
▁meidän	-2398
▁metsä	-2399
ukse	-2400
▁ulos	-2401
▁tästä	-2402
▁luke	-2403
usa	-2404
▁asun	-2405
▁Tämän	-2406
co	-2407
▁Lei	-2408
▁ruu	-2409
mokra	-2410
▁ennä	-2411
▁ihmiset	-2412
reen	-2413
▁pako	-2414
▁iden	-2415
▁saav	-2416
ohjel	-2417
estari	-2418
▁kulttu	-2419
▁vaikea	-2420
kut	-2421
jasta	-2422
iky	-2423
▁SM	-2424
▁välttä	-2425
tos	-2426
joukkue	-2427
-2	-2428
▁Tuom	-2429
▁ilmoi	-2430
▁korkea	-2431
▁marras	-2432
▁Tie	-2433
▁ykk	-2434
▁Lind	-2435
▁naisten	-2436
▁keskusta	-2437
▁hien	-2438
▁viestin	-2439
▁Kon	-2440
▁Kiin	-2441
yyd	-2442
elen	-2443
▁Kan	-2444
isenä	-2445
istää	-2446
▁mene	-2447
ban	-2448
lamen	-2449
▁menesty	-2450
▁näytteli	-2451
johta	-2452
esin	-2453
peli	-2454
▁kannattaa	-2455
mmi	-2456
▁mieli	-2457
▁sodan	-2458
▁Pä	-2459
▁Mer	-2460
onn	-2461
▁Leh	-2462
ikkaa	-2463
und	-2464
ksua	-2465
▁touko	-2466
▁yksityis	-2467
go	-2468
▁prin	-2469
▁kohti	-2470
▁ympäristö	-2471
▁oikeuden	-2472
▁mole	-2473
alaiset	-2474
▁poliitt	-2475
ikku	-2476
▁onko	-2477
lad	-2478
▁liike	-2479
▁Hal	-2480
▁erilais	-2481
▁kirjoitti	-2482
hoi	-2483
mas	-2484
tukset	-2485
▁norma	-2486
▁runsa	-2487
▁yhtiö	-2488
itoksen	-2489
kerta	-2490
▁help	-2491
▁tilanteessa	-2492
rian	-2493
vasta	-2494
▁luon	-2495
uteen	-2496
▁korva	-2497
tukseen	-2498
itteli	-2499
▁joutui	-2500
▁tulisi	-2501
▁sairaal	-2502
▁ilmoitti	-2503
▁aam	-2504
issaan	-2505
▁Jä	-2506
tävä	-2507
utuu	-2508
▁rii	-2509
itystä	-2510
▁yksin	-2511
▁Ur	-2512
viin	-2513
▁loka	-2514
▁minkä	-2515
▁suurin	-2516
tien	-2517
▁mestar	-2518
▁kohdistu	-2519
▁tuke	-2520
▁kaikkia	-2521
▁pide	-2522
▁synty	-2523
alaisen	-2524
▁haastattelussa	-2525
▁miksi	-2526
▁vaara	-2527
netta	-2528
▁akti	-2529
toim	-2530
onald	-2531
▁muod	-2532
▁päälle	-2533
▁tilais	-2534
▁Nato	-2535
▁kseen	-2536
aleissa	-2537
▁kolmen	-2538
▁Ver	-2539
▁poika	-2540
tal	-2541
▁Ter	-2542
jista	-2543
▁istu	-2544
▁kisa	-2545
▁asioita	-2546
iltana	-2547
▁tunte	-2548
ilija	-2549
▁Syy	-2550
▁puolue	-2551
▁Saksa	-2552
▁hinta	-2553
▁jätti	-2554
▁helm	-2555
ksista	-2556
▁miesten	-2557
lly	-2558
▁kap	-2559
▁totesi	-2560
hy	-2561
ittain	-2562
▁kaiken	-2563
▁Ba	-2564
▁Til	-2565
▁olleen	-2566
▁istä	-2567
▁lah	-2568
▁hir	-2569
▁Työ	-2570
▁tapp	-2571
▁törke	-2572
▁40	-2573
▁Kr	-2574
▁kö	-2575
uur	-2576
▁tor	-2577
▁hallin	-2578
pon	-2579
▁isän	-2580
▁selvi	-2581
liin	-2582
▁kuts	-2583
▁pohti	-2584
▁tulevais	-2585
mies	-2586
▁som	-2587
kanen	-2588
ottiin	-2589
▁misen	-2590
▁pääministeri	-2591
▁heinä	-2592
▁Vil	-2593
▁olympi	-2594
▁mediassa	-2595
▁De	-2596
▁taa	-2597
▁hyväksy	-2598
vana	-2599
▁opis	-2600
▁kuvan	-2601
▁verran	-2602
uper	-2603
estään	-2604
ttänyt	-2605
teeseen	-2606
ihd	-2607
ksu	-2608
udesta	-2609
kää	-2610
voima	-2611
▁suure	-2612
▁muiden	-2613
▁Bar	-2614
öl	-2615
▁Fa	-2616
emmisto	-2617
▁oikein	-2618
uma	-2619
▁päivää	-2620
▁talous	-2621
▁Ylen	-2622
▁tietojen	-2623
tain	-2624
▁ilmi	-2625
uksissa	-2626
▁asunn	-2627
▁paikalla	-2628
▁tuki	-2629
▁viiden	-2630
▁kilpail	-2631
▁Ul	-2632
llisuus	-2633
päivä	-2634
▁silti	-2635
▁Yhdysval	-2636
▁kuvaa	-2637
▁vanke	-2638
▁pääval	-2639
8.	-2640
inna	-2641
▁joku	-2642
▁näy	-2643
▁muistuttaa	-2644
▁tietoa	-2645
▁itä	-2646
▁miseen	-2647
yl	-2648
▁Osa	-2649
▁tamm	-2650
ässä	-2651
▁varmasti	-2652
▁julkaisi	-2653
kok	-2654
▁ennus	-2655
▁edessä	-2656
▁toimitta	-2657
vaksi	-2658
▁tarp	-2659
▁perinte	-2660
▁100	-2661
▁As	-2662
▁tele	-2663
▁Tällä	-2664
▁tuttu	-2665
misestä	-2666
▁toimitus	-2667
▁Tässä	-2668
istelu	-2669
▁maalis	-2670
▁vät	-2671
konen	-2672
▁kevä	-2673
Suomen	-2674
▁elämä	-2675
tra	-2676
▁alueen	-2677
oittanut	-2678
bo	-2679
teena	-2680
glan	-2681
▁Kur	-2682
▁tuolloin	-2683
▁seitsemän	-2684
keli	-2685
ottori	-2686
▁tapaa	-2687
▁valmi	-2688
▁hänellä	-2689
etin	-2690
tilais	-2691
▁hyökkäys	-2692
astu	-2693
▁kuning	-2694
▁yön	-2695
▁ulkoma	-2696
▁kansalais	-2697
▁teo	-2698
laa	-2699
asen	-2700
▁eloku	-2701
▁huoma	-2702
▁Yh	-2703
gissä	-2704
palvelu	-2705
▁alusta	-2706
▁isä	-2707
▁Ca	-2708
▁Gaz	-2709
▁Halli	-2710
▁muiste	-2711
erin	-2712
llikkö	-2713
▁täällä	-2714
nö	-2715
tava	-2716
▁näk	-2717
▁yhde	-2718
änen	-2719
▁keskustelu	-2720
ps	-2721
haa	-2722
▁vil	-2723
▁avaus	-2724
▁yllättä	-2725
▁Donald	-2726
▁kannatta	-2727
▁epäilty	-2728
kenut	-2729
▁puhe	-2730
utua	-2731
miä	-2732
▁Sie	-2733
▁oleva	-2734
▁käyttöön	-2735
▁media	-2736
6.	-2737
▁vero	-2738
▁hyvinvointi	-2739
▁kai	-2740
▁Mika	-2741
▁isku	-2742
ilä	-2743
▁24	-2744
▁vien	-2745
iemi	-2746
▁maalin	-2747
▁kusta	-2748
▁sarja	-2749
▁Vuonna	-2750
▁tee	-2751
kissa	-2752
▁Haav	-2753
onin	-2754
tuksessa	-2755
▁paikalle	-2756
▁tuh	-2757
▁euro	-2758
▁pian	-2759
empi	-2760
▁huhti	-2761
▁Co	-2762
▁nu	-2763
vuotia	-2764
▁etelä	-2765
▁tarkoitus	-2766
▁äiti	-2767
▁Turun	-2768
kal	-2769
vio	-2770
▁Mu	-2771
▁Lop	-2772
▁kiv	-2773
▁Pekka	-2774
▁rea	-2775
▁suku	-2776
▁Oul	-2777
isissa	-2778
vissä	-2779
▁ry	-2780
▁juttu	-2781
▁johon	-2782
▁tv	-2783
teria	-2784
ytys	-2785
▁Yli	-2786
▁usea	-2787
▁vaat	-2788
▁ydin	-2789
▁Kyllä	-2790
ikais	-2791
▁lista	-2792
miseksi	-2793
▁liikke	-2794
▁huono	-2795
uraa	-2796
▁raa	-2797
▁liikku	-2798
residentti	-2799
▁27	-2800
▁Bo	-2801
▁teho	-2802
▁pelastus	-2803
▁Oike	-2804
▁For	-2805
jaus	-2806
▁Ole	-2807
▁pela	-2808
▁takana	-2809
▁vuosien	-2810
▁kahdeksan	-2811
kar	-2812
▁pes	-2813
sissa	-2814
ritann	-2815
mällä	-2816
▁kova	-2817
▁päätti	-2818
▁yleisö	-2819
▁Ot	-2820
▁epäillä	-2821
▁kertonut	-2822
▁1,	-2823
aston	-2824
▁mista	-2825
järj	-2826
irin	-2827
llyt	-2828
▁kiel	-2829
immi	-2830
alo	-2831
ppa	-2832
▁Kansa	-2833
▁nosta	-2834
▁lähellä	-2835
▁2-	-2836
isena	-2837
▁Tans	-2838
▁haas	-2839
▁suoraan	-2840
kat	-2841
▁milj	-2842
▁kokem	-2843
kot	-2844
▁Naton	-2845
▁paikan	-2846
▁demokra	-2847
▁kuollut	-2848
▁torj	-2849
▁seksua	-2850
veri	-2851
▁jääkie	-2852
▁Alexander	-2853
▁tyh	-2854
▁hur	-2855
▁alko	-2856
9.	-2857
uon	-2858
tona	-2859
▁Pur	-2860
oiv	-2861
voit	-2862
▁naisen	-2863
▁toimii	-2864
▁mennessä	-2865
eni	-2866
▁kaupunki	-2867
▁tiedä	-2868
haan	-2869
▁Leijon	-2870
mpää	-2871
oite	-2872
neensä	-2873
▁Enn	-2874
intään	-2875
▁up	-2876
illaan	-2877
▁syytä	-2878
yhtiö	-2879
iinä	-2880
▁kuusi	-2881
▁rapor	-2882
▁voinut	-2883
▁Iltalehdelle	-2884
iaa	-2885
▁Auto	-2886
▁joul	-2887
▁tas	-2888
▁turna	-2889
▁sarjan	-2890
▁Os	-2891
▁Tut	-2892
▁esiinty	-2893
▁äänesty	-2894
▁kentä	-2895
▁Instagram	-2896
▁sanoa	-2897
▁uk	-2898
ival	-2899
▁vau	-2900
joita	-2901
▁Mitä	-2902
laista	-2903
▁kausi	-2904
▁Las	-2905
▁melko	-2906
▁paras	-2907
inti	-2908
▁Tim	-2909
▁voitta	-2910
log	-2911
▁pid	-2912
▁Siinä	-2913
ikö	-2914
tulo	-2915
▁uusia	-2916
▁Iltalehden	-2917
▁vesi	-2918
▁käytänn	-2919
▁olevansa	-2920
▁198	-2921
▁aiku	-2922
▁uhka	-2923
▁virhe	-2924
poli	-2925
▁sata	-2926
▁kanta	-2927
▁kesku	-2928
▁todennäköisesti	-2929
luo	-2930
ineen	-2931
ca	-2932
▁Koko	-2933
▁vaikutu	-2934
▁Ensimmä	-2935
▁entinen	-2936
▁puolella	-2937
▁Ander	-2938
▁kuukauden	-2939
▁tuore	-2940
▁meillä	-2941
▁lauanta	-2942
▁tekemään	-2943
▁yhteistyö	-2944
ive	-2945
pin	-2946
▁Ker	-2947
▁olemme	-2948
puolella	-2949
hu	-2950
arin	-2951
tyksen	-2952
▁Espan	-2953
▁tietää	-2954
▁inf	-2955
sessa	-2956
▁joilla	-2957
▁tapahtuma	-2958
▁kilometrin	-2959
▁harjoi	-2960
▁pelasi	-2961
huo	-2962
▁mö	-2963
▁näkyy	-2964
tor	-2965
▁ST	-2966
▁kuljetta	-2967
▁kerä	-2968
alia	-2969
▁antoi	-2970
▁uudelleen	-2971
▁Ranta	-2972
▁metrin	-2973
▁aloitti	-2974
sio	-2975
alis	-2976
▁Kil	-2977
uuksia	-2978
▁rahaa	-2979
vir	-2980
▁isen	-2981
▁tarkas	-2982
opea	-2983
▁liiken	-2984
▁selvästi	-2985
ros	-2986
▁Orpo	-2987
▁kulu	-2988
▁sala	-2989
▁kestä	-2990
▁osalta	-2991
vara	-2992
▁ved	-2993
▁vastuu	-2994
trö	-2995
▁ruot	-2996
▁menee	-2997
iss	-2998
▁energ	-2999
▁sisäl	-3000
▁Un	-3001
vista	-3002
salais	-3003
30	-3004
▁kad	-3005
▁tyyty	-3006
▁asiakka	-3007
▁lähi	-3008
▁vastusta	-3009
▁poikkeukse	-3010
▁Sel	-3011
ikymmen	-3012
kesku	-3013
▁2020	-3014
▁juon	-3015
▁vähen	-3016
kkos	-3017
iemen	-3018
uolelle	-3019
sarj	-3020
ästä	-3021
upin	-3022
vaal	-3023
yssä	-3024
▁Sitten	-3025
▁yhdeks	-3026
▁pohjois	-3027
▁tapauksessa	-3028
teissa	-3029
▁massa	-3030
▁pieni	-3031
itin	-3032
enkin	-3033
▁mieltä	-3034
▁ensimmäistä	-3035
▁Lapin	-3036
▁kappal	-3037
▁kumppan	-3038
▁kovin	-3039
▁suhteen	-3040
▁päätöksen	-3041
▁hyökkää	-3042
pel	-3043
alle	-3044
▁olo	-3045
immat	-3046
▁kyseessä	-3047
▁elin	-3048
▁video	-3049
▁konser	-3050
▁kotiin	-3051
▁vaatii	-3052
▁klo	-3053
ettaa	-3054
isilla	-3055
▁keskitty	-3056
tety	-3057
liitto	-3058
▁ikään	-3059
▁milla	-3060
▁jatkuu	-3061
TV	-3062
bl	-3063
can	-3064
onut	-3065
▁Putinin	-3066
▁tehdään	-3067
-1	-3068
tuus	-3069
▁mus	-3070
istoim	-3071
▁ensin	-3072
▁vuodesta	-3073
▁loppuun	-3074
stään	-3075
▁paris	-3076
▁virka	-3077
▁Vo	-3078
essi	-3079
▁kannalta	-3080
▁kaun	-3081
▁Marin	-3082
▁pitänyt	-3083
▁Yor	-3084
▁tyttö	-3085
▁kuvailee	-3086
▁omaa	-3087
▁kauppa	-3088
▁kaikkien	-3089
kor	-3090
▁22	-3091
htaa	-3092
kien	-3093
▁ohi	-3094
▁rakenta	-3095
▁kustann	-3096
▁tilannetta	-3097
▁mik	-3098
jalla	-3099
uttanut	-3100
oitu	-3101
▁kaupung	-3102
▁lei	-3103
▁palaa	-3104
▁Tapa	-3105
▁misesta	-3106
▁elle	-3107
▁emme	-3108
▁poik	-3109
▁jonkin	-3110
kit	-3111
▁tuotan	-3112
immä	-3113
kassa	-3114
▁hei	-3115
▁oper	-3116
▁kysel	-3117
▁pyörä	-3118
▁tilanteen	-3119
▁valmentaja	-3120
▁Meillä	-3121
▁Matti	-3122
▁huomi	-3123
▁kevää	-3124
▁lähtien	-3125
▁suuntaan	-3126
▁Yhdysvallo	-3127
maat	-3128
▁Man	-3129
▁johto	-3130
▁mihin	-3131
▁varus	-3132
▁mietti	-3133
▁nähtiin	-3134
ät	-3135
▁huon	-3136
▁sunnunta	-3137
▁Sch	-3138
▁Harr	-3139
▁dolla	-3140
▁kuvat	-3141
▁tulos	-3142
▁töitä	-3143
▁tarkoittaa	-3144
▁hin	-3145
sarjan	-3146
▁ykkös	-3147
▁palkin	-3148
▁+	-3149
ville	-3150
▁lait	-3151
▁neet	-3152
ess	-3153
udu	-3154
uter	-3155
BC	-3156
mb	-3157
▁löytyi	-3158
▁johtu	-3159
▁Israel	-3160
▁etenkin	-3161
▁Kär	-3162
pailu	-3163
▁Kana	-3164
cas	-3165
its	-3166
teitä	-3167
tämään	-3168
▁kel	-3169
▁Tapp	-3170
▁vira	-3171
▁Saa	-3172
▁Petteri	-3173
▁23	-3174
▁Kuu	-3175
▁johd	-3176
▁Saar	-3177
▁rang	-3178
▁kantaa	-3179
tuksesta	-3180
▁Helsingissä	-3181
▁Sar	-3182
▁ryhmä	-3183
▁aikoina	-3184
▁ratkaisu	-3185
ysti	-3186
▁pöy	-3187
▁nuorten	-3188
meen	-3189
teistö	-3190
kein	-3191
▁pil	-3192
oston	-3193
▁täytyy	-3194
▁perussuom	-3195
jun	-3196
▁STT	-3197
▁ran	-3198
▁huone	-3199
mpa	-3200
alaista	-3201
▁erikois	-3202
▁paremmin	-3203
maksi	-3204
▁niistä	-3205
▁vahing	-3206
ksessa	-3207
▁luotta	-3208
▁varten	-3209
▁Char	-3210
▁esite	-3211
ivu	-3212
llat	-3213
▁ottelua	-3214
met	-3215
teja	-3216
ivalta	-3217
▁uudesta	-3218
▁pistettä	-3219
tissä	-3220
▁vanh	-3221
halli	-3222
▁Will	-3223
▁neen	-3224
▁mennä	-3225
yyden	-3226
teista	-3227
▁aikoo	-3228
▁miestä	-3229
▁poistu	-3230
▁Ih	-3231
itsee	-3232
oppuna	-3233
▁tuntuu	-3234
▁Län	-3235
joitta	-3236
▁hyvää	-3237
▁ihmisten	-3238
▁parlamen	-3239
tse	-3240
vas	-3241
▁Lä	-3242
rien	-3243
▁laki	-3244
▁muutos	-3245
▁tärkeää	-3246
▁500	-3247
▁2021	-3248
ivaa	-3249
skin	-3250
delle	-3251
kaupun	-3252
▁kasva	-3253
▁paran	-3254
rmä	-3255
uttua	-3256
▁pelin	-3257
▁Pan	-3258
▁lup	-3259
▁arvos	-3260
▁hallinn	-3261
▁eduskunta	-3262
▁seuran	-3263
▁Poliisin	-3264
önen	-3265
▁kone	-3266
▁nime	-3267
▁päässä	-3268
▁yleensä	-3269
▁ita	-3270
▁sama	-3271
▁verr	-3272
▁päällä	-3273
▁Kaup	-3274
neensa	-3275
▁itsen	-3276
▁eniten	-3277
▁Iltalehti	-3278
5.	-3279
hka	-3280
emmin	-3281
▁kana	-3282
▁ren	-3283
essään	-3284
▁Ge	-3285
▁jatkoi	-3286
▁kertovat	-3287
▁avulla	-3288
▁kunnossa	-3289
▁tilanteesta	-3290
be	-3291
imin	-3292
tröm	-3293
▁Jon	-3294
▁häiri	-3295
▁laula	-3296
▁nuori	-3297
▁Nis	-3298
▁Täh	-3299
▁lähd	-3300
aisten	-3301
▁aiheuttaa	-3302
▁sellainen	-3303
ostu	-3304
▁ylä	-3305
istaan	-3306
▁rikko	-3307
▁vuoro	-3308
▁rakennus	-3309
bri	-3310
▁or	-3311
▁juhli	-3312
▁parin	-3313
▁voittanut	-3314
▁Kre	-3315
▁ttä	-3316
▁nämä	-3317
▁tuntu	-3318
▁päävalmentaja	-3319
PS	-3320
olta	-3321
▁ann	-3322
isterin	-3323
▁pahoin	-3324
▁valmenta	-3325
tola	-3326
▁Kaa	-3327
▁syks	-3328
▁kohtaan	-3329
syt	-3330
▁Flo	-3331
▁treen	-3332
▁saatta	-3333
▁teks	-3334
▁jäänyt	-3335
▁aj	-3336
▁Kul	-3337
▁Sitä	-3338
teesta	-3339
▁poliis	-3340
▁toimintaa	-3341
▁Mc	-3342
ehdo	-3343
elma	-3344
▁mita	-3345
▁puolis	-3346
▁tapahtunut	-3347
osuh	-3348
▁Juh	-3349
▁Tee	-3350
▁Iran	-3351
▁jatkossa	-3352
▁Kaik	-3353
▁nostaa	-3354
väli	-3355
▁Reuter	-3356
▁muista	-3357
▁ratka	-3358
▁Varsin	-3359
▁Bidenin	-3360
▁minulle	-3361
har	-3362
iem	-3363
▁).	-3364
vaan	-3365
▁Her	-3366
kansa	-3367
▁esittä	-3368
▁tärkeä	-3369
mäki	-3370
deksi	-3371
▁rauha	-3372
▁kasvat	-3373
tiiv	-3374
▁hoito	-3375
▁kaver	-3376
▁kerta	-3377
▁lopussa	-3378
▁toistaiseksi	-3379
▁Af	-3380
prin	-3381
uton	-3382
▁minä	-3383
▁kirjoitta	-3384
▁Met	-3385
▁epäillään	-3386
ts	-3387
▁Be	-3388
▁suunnit	-3389
▁yrityks	-3390
pen	-3391
alissa	-3392
▁Olemme	-3393
jone	-3394
uksella	-3395
▁Sve	-3396
hun	-3397
▁piir	-3398
tutkin	-3399
▁nähdään	-3400
▁Sy	-3401
▁iksi	-3402
▁nähty	-3403
iki	-3404
▁Oh	-3405
tenä	-3406
▁Aal	-3407
lehti	-3408
▁pääsee	-3409
▁Yhdysvaltojen	-3410
hon	-3411
▁hyvän	-3412
▁sille	-3413
▁suhta	-3414
▁huomatta	-3415
▁lasta	-3416
▁Britann	-3417
▁miljoonan	-3418
▁jun	-3419
▁Oy	-3420
▁saap	-3421
▁laske	-3422
▁rangais	-3423
▁Niinistö	-3424
▁juhl	-3425
teeksi	-3426
▁alueelle	-3427
ens	-3428
▁työtä	-3429
▁puolus	-3430
▁esi	-3431
▁ilo	-3432
▁odotta	-3433
kanut	-3434
▁tukea	-3435
▁samaan	-3436
▁minuuttia	-3437
aati	-3438
▁ohjaa	-3439
▁välttämättä	-3440
tro	-3441
▁myr	-3442
▁sivu	-3443
▁nähdä	-3444
▁saata	-3445
▁syksy	-3446
▁kieltä	-3447
▁maassa	-3448
▁edellis	-3449
▁asiantuntija	-3450
▁60	-3451
▁ollaan	-3452
▁Venäjällä	-3453
län	-3454
▁21	-3455
▁35	-3456
vittä	-3457
▁aino	-3458
ikkoja	-3459
▁tuhan	-3460
▁saakka	-3461
▁Ukrainassa	-3462
▁kunto	-3463
▁nimen	-3464
▁epäill	-3465
▁päättyi	-3466
alti	-3467
▁ves	-3468
▁Maan	-3469
▁löyd	-3470
▁verkko	-3471
aika	-3472
eeksi	-3473
▁Tälla	-3474
▁tavan	-3475
▁välit	-3476
▁kirjoi	-3477
kunnassa	-3478
▁taloude	-3479
mei	-3480
▁Elä	-3481
▁nen	-3482
▁apua	-3483
▁Suomea	-3484
ministeriö	-3485
ukko	-3486
▁saivat	-3487
▁toimittaja	-3488
ytty	-3489
▁asiat	-3490
▁linja	-3491
▁näytti	-3492
sk	-3493
itiiv	-3494
tettä	-3495
bi	-3496
▁Jää	-3497
▁Kas	-3498
▁hätä	-3499
▁päin	-3500
▁halun	-3501
▁uskoo	-3502
▁tuomio	-3503
▁voiton	-3504
▁vähintään	-3505
▁br	-3506
voimien	-3507
järjestö	-3508
▁harjoit	-3509
▁sotilas	-3510
▁tasolla	-3511
mana	-3512
▁luu	-3513
▁kunin	-3514
▁puheli	-3515
▁sisällä	-3516
edia	-3517
▁toi	-3518
mansa	-3519
teisiin	-3520
▁siirty	-3521
▁kaikkea	-3522
uti	-3523
▁im	-3524
▁toimia	-3525
▁ministeri	-3526
▁työntekijö	-3527
omi	-3528
▁rek	-3529
▁ven	-3530
▁Ulko	-3531
▁iset	-3532
▁Yhdysvalloissa	-3533
vallan	-3534
▁kokoon	-3535
▁vähemmän	-3536
▁yliopisto	-3537
ksessä	-3538
▁kukaan	-3539
▁matkusta	-3540
▁toimitusjohtaja	-3541
arvo	-3542
▁osta	-3543
ikalla	-3544
ksestä	-3545
▁kokoom	-3546
▁1.	-3547
teltu	-3548
toista	-3549
llisuuden	-3550
▁sosiaalisessa	-3551
▁viikonloppuna	-3552
mpp	-3553
▁Lat	-3554
▁lai	-3555
▁Mikä	-3556
alisti	-3557
urinko	-3558
▁kesän	-3559
▁johtaa	-3560
ihto	-3561
▁määr	-3562
▁vaku	-3563
uksena	-3564
▁Charl	-3565
▁Norjan	-3566
uttiin	-3567
▁puheenjohta	-3568
7.	-3569
▁ru	-3570
imen	-3571
▁ehti	-3572
▁järjestö	-3573
▁3-	-3574
▁put	-3575
▁utu	-3576
wa	-3577
▁res	-3578
▁naap	-3579
kauden	-3580
▁ongelma	-3581
▁Kyseessä	-3582
▁prosentin	-3583
zz	-3584
▁Elo	-3585
▁Som	-3586
▁ltä	-3587
▁pun	-3588
▁sat	-3589
▁lehd	-3590
▁pikku	-3591
▁saatu	-3592
▁liittyy	-3593
▁pelannut	-3594
▁Andersson	-3595
sori	-3596
▁juhla	-3597
▁Ruotsi	-3598
▁pitkän	-3599
kisoissa	-3600
▁odottaa	-3601
ääkä	-3602
▁Vlad	-3603
▁kesällä	-3604
▁kansanedustaja	-3605
▁hote	-3606
▁Jussi	-3607
org	-3608
eena	-3609
▁Mos	-3610
▁karsin	-3611
▁Samalla	-3612
▁Luo	-3613
▁essa	-3614
▁isiin	-3615
▁keväällä	-3616
▁eteenpäin	-3617
publ	-3618
▁Anna	-3619
▁Koti	-3620
▁numer	-3621
telemaan	-3622
▁Silloin	-3623
▁Haavisto	-3624
▁kokonaan	-3625
▁lie	-3626
isuus	-3627
oikeus	-3628
innassa	-3629
▁toiminut	-3630
▁Us	-3631
nassa	-3632
▁menet	-3633
▁mahdollisuus	-3634
▁Ann	-3635
▁Pir	-3636
isteli	-3637
▁vastasi	-3638
▁neuvottelu	-3639
ppä	-3640
sel	-3641
▁),	-3642
telut	-3643
ttava	-3644
istoimisto	-3645
▁Aie	-3646
▁takaa	-3647
▁tuotta	-3648
▁vastus	-3649
▁Stubbin	-3650
iam	-3651
▁Jal	-3652
luvun	-3653
▁lyhy	-3654
▁tehtiin	-3655
▁vasemmisto	-3656
määrä	-3657
▁hoita	-3658
▁verta	-3659
▁tapahtuu	-3660
▁tark	-3661
▁Saksan	-3662
▁uransa	-3663
▁yhdisty	-3664
▁Nel	-3665
▁ansa	-3666
▁seksuaal	-3667
▁kiinteistö	-3668
▁tah	-3669
▁Rä	-3670
▁suk	-3671
▁Nyky	-3672
öi	-3673
ger	-3674
▁jättä	-3675
▁valvon	-3676
▁asiassa	-3677
▁ket	-3678
▁Sami	-3679
▁korj	-3680
▁tuntia	-3681
uhu	-3682
tilla	-3683
attiin	-3684
▁maali	-3685
▁yritti	-3686
by	-3687
▁ex	-3688
▁pros	-3689
▁saat	-3690
▁Oly	-3691
▁fan	-3692
etaan	-3693
attuna	-3694
▁Keski	-3695
lliseen	-3696
▁käytössä	-3697
mit	-3698
imir	-3699
▁Vide	-3700
▁Orpon	-3701
▁päässyt	-3702
▁tutkimus	-3703
▁Mur	-3704
▁avaa	-3705
▁siltä	-3706
▁tietä	-3707
▁käynyt	-3708
▁ystävä	-3709
▁saadaan	-3710
▁syyllis	-3711
▁veto	-3712
▁Virta	-3713
▁vuoteen	-3714
▁maailmanm	-3715
▁(1	-3716
▁issä	-3717
▁syksyn	-3718
kkeen	-3719
▁jälj	-3720
▁vali	-3721
ryhmän	-3722
▁Ennen	-3723
▁siksi	-3724
▁käytännössä	-3725
▁asio	-3726
▁Harris	-3727
▁saavat	-3728
▁mielipi	-3729
▁puolusta	-3730
▁iä	-3731
▁otte	-3732
▁vetä	-3733
▁uhkaa	-3734
▁olisivat	-3735
vu	-3736
hansa	-3737
▁jatka	-3738
▁positiiv	-3739
▁yönä	-3740
▁sinne	-3741
▁valko	-3742
▁26	-3743
▁Epä	-3744
▁Flori	-3745
▁lähde	-3746
▁Toinen	-3747
▁kunnan	-3748
▁myynti	-3749
▁Itali	-3750
▁aktiiv	-3751
▁Vladimir	-3752
▁ainoa	-3753
▁metriä	-3754
▁syyttä	-3755
▁Hur	-3756
▁lupa	-3757
▁viikkoa	-3758
immillaan	-3759
▁puolueen	-3760
▁lyö	-3761
isyys	-3762
▁alkaen	-3763
osin	-3764
▁Timo	-3765
▁2022.	-3766
▁onkin	-3767
▁näyttelijä	-3768
én	-3769
maton	-3770
▁nimi	-3771
▁Janne	-3772
▁Bu	-3773
▁väite	-3774
▁riittää	-3775
▁tulevat	-3776
joukkueen	-3777
▁Suo	-3778
ustelu	-3779
▁sosiaali	-3780
dyn	-3781
imää	-3782
▁helpo	-3783
▁muutaman	-3784
ministeriön	-3785
▁Jen	-3786
tisen	-3787
▁ääri	-3788
laisia	-3789
▁tyytyvä	-3790
▁erityisen	-3791
20	-3792
imaa	-3793
tähti	-3794
▁suomalainen	-3795
▁Peli	-3796
laisen	-3797
▁super	-3798
▁historia	-3799
gas	-3800
▁tarin	-3801
▁lähettä	-3802
▁arv	-3803
istus	-3804
▁rinta	-3805
oituksen	-3806
▁kilometriä	-3807
ilan	-3808
▁197	-3809
▁Kuo	-3810
▁Pit	-3811
▁Voi	-3812
▁Moni	-3813
▁Hamas	-3814
▁koulun	-3815
▁moottori	-3816
ruun	-3817
liigan	-3818
▁ihminen	-3819
▁yhdeksän	-3820
▁musta	-3821
▁vuosikymmen	-3822
▁pot	-3823
▁jänn	-3824
▁vaim	-3825
▁voito	-3826
▁lähteä	-3827
▁myöskään	-3828
▁sopimuksen	-3829
▁Gu	-3830
▁Jar	-3831
▁hah	-3832
▁Nuor	-3833
▁ajoi	-3834
llisten	-3835
▁Seuraa	-3836
fa	-3837
▁Wa	-3838
ather	-3839
▁hiihto	-3840
▁peräti	-3841
for	-3842
▁Aa	-3843
neita	-3844
neesta	-3845
▁2023.	-3846
▁Länsi	-3847
▁taustalla	-3848
lon	-3849
läh	-3850
▁Ah	-3851
▁Ville	-3852
▁ajone	-3853
▁tilaa	-3854
▁olosuh	-3855
▁Yhdysvallat	-3856
olf	-3857
milla	-3858
▁Zelen	-3859
▁talon	-3860
▁valio	-3861
▁toimen	-3862
▁torsta	-3863
▁aloitta	-3864
▁ongelmia	-3865
rain	-3866
▁puto	-3867
sarjassa	-3868
▁maajoukkue	-3869
non	-3870
dcas	-3871
dion	-3872
teeri	-3873
▁raha	-3874
▁minun	-3875
▁materia	-3876
fes	-3877
▁pih	-3878
▁illä	-3879
▁säil	-3880
▁toiminnan	-3881
▁kerrottiin	-3882
hä	-3883
▁MTV	-3884
▁lauta	-3885
▁selkeä	-3886
▁vieras	-3887
▁ennakko	-3888
▁entistä	-3889
▁kohdalla	-3890
ölj	-3891
▁Ben	-3892
▁onne	-3893
▁Lauri	-3894
▁varap	-3895
▁joskus	-3896
▁riippu	-3897
▁sijoit	-3898
kov	-3899
sää	-3900
tto	-3901
töä	-3902
▁YK	-3903
▁kysymys	-3904
▁noussut	-3905
▁Mus	-3906
▁loh	-3907
▁kuun	-3908
▁armei	-3909
▁kulje	-3910
▁kärki	-3911
▁yrity	-3912
ere	-3913
udet	-3914
vell	-3915
▁Kim	-3916
yttävä	-3917
▁saapui	-3918
ksin	-3919
▁Onn	-3920
▁pakk	-3921
▁urhe	-3922
▁monta	-3923
▁suoja	-3924
▁median	-3925
öt	-3926
▁Pen	-3927
▁mas	-3928
▁sor	-3929
merikk	-3930
▁maksaa	-3931
▁tunnettu	-3932
▁loukkaantu	-3933
hen	-3934
imä	-3935
ste	-3936
▁tuho	-3937
▁legen	-3938
▁säästö	-3939
▁sopimus	-3940
▁ihmisen	-3941
▁pudotus	-3942
▁terveyden	-3943
elu	-3944
pall	-3945
kainen	-3946
isaalta	-3947
sto	-3948
▁sol	-3949
▁isten	-3950
▁lähten	-3951
▁pahoinpi	-3952
▁yrityksen	-3953
tuun	-3954
▁lan	-3955
▁eläin	-3956
▁kamer	-3957
▁lauka	-3958
▁itsensä	-3959
▁Puolustus	-3960
▁osu	-3961
▁aamu	-3962
▁ella	-3963
muksen	-3964
▁pohja	-3965
▁puolen	-3966
▁kus	-3967
▁paljas	-3968
▁aloittaa	-3969
gh	-3970
mpien	-3971
▁Juha	-3972
▁loma	-3973
▁lämm	-3974
▁Jy	-3975
kentä	-3976
▁Vain	-3977
▁rann	-3978
▁maalia	-3979
▁Hu	-3980
llia	-3981
riin	-3982
▁Fin	-3983
▁oir	-3984
▁väit	-3985
okumen	-3986
tettava	-3987
▁itseään	-3988
▁olemaan	-3989
tilaisuudessa	-3990
▁alta	-3991
▁kuvia	-3992
▁tulossa	-3993
▁riski	-3994
▁tarvi	-3995
▁maaliva	-3996
▁tuotanto	-3997
gar	-3998
▁Uut	-3999
▁vin	-4000
laitos	-4001
▁lopetta	-4002
▁Presidentti	-4003
▁1-	-4004
tili	-4005
▁Toi	-4006
▁maksu	-4007
▁lapset	-4008
▁maananta	-4009
ytyi	-4010
▁lähtee	-4011
▁Zelensky	-4012
▁hallinto	-4013
▁puke	-4014
▁viik	-4015
llistä	-4016
▁huomiota	-4017
▁televisi	-4018
ham	-4019
▁vei	-4020
▁ilme	-4021
▁kuor	-4022
▁avoim	-4023
▁toivo	-4024
mite	-4025
ulais	-4026
▁pyör	-4027
▁tilo	-4028
▁Jukka	-4029
▁opiskeli	-4030
▁runsaasti	-4031
▁w	-4032
▁2,	-4033
▁nos	-4034
▁Väli	-4035
▁haav	-4036
▁vähä	-4037
▁vuosia	-4038
▁4-	-4039
oida	-4040
▁Ste	-4041
▁Koiv	-4042
▁yhdys	-4043
▁Iso	-4044
▁katu	-4045
▁tuuli	-4046
▁Syyttä	-4047
▁mielenos	-4048
aaja	-4049
oili	-4050
ikenne	-4051
▁kesänä	-4052
atar	-4053
▁ele	-4054
telin	-4055
tellä	-4056
▁Englan	-4057
▁kuuden	-4058
▁kulttuuri	-4059
kelä	-4060
▁dia	-4061
▁ide	-4062
▁huolta	-4063
▁isesti	-4064
▁elokuva	-4065
tär	-4066
▁ajaa	-4067
▁näkee	-4068
▁kiekko	-4069
▁kolmas	-4070
▁päähän	-4071
▁kierroksella	-4072
▁And	-4073
▁Kal	-4074
▁Pat	-4075
▁Tun	-4076
▁ope	-4077
▁heitä	-4078
▁kaupp	-4079
▁tunnin	-4080
▁ehdokka	-4081
▁itselleen	-4082
▁pen	-4083
▁muisto	-4084
▁sähköp	-4085
▁Pariisin	-4086
▁halunnut	-4087
▁harjoitus	-4088
▁kilpailun	-4089
▁maailmanc	-4090
▁verrattuna	-4091
opim	-4092
▁liiga	-4093
▁rauhan	-4094
▁sotila	-4095
▁kuljettaja	-4096
peä	-4097
turva	-4098
▁Asia	-4099
tettua	-4100
▁harras	-4101
▁äid	-4102
rella	-4103
▁olin	-4104
▁ihmet	-4105
▁havain	-4106
▁histori	-4107
▁viikonlop	-4108
▁Ru	-4109
▁kävel	-4110
▁sydän	-4111
▁lainen	-4112
nolla	-4113
▁Kaksi	-4114
▁Cather	-4115
▁Siellä	-4116
▁kaikille	-4117
ilua	-4118
▁Siitä	-4119
luvulla	-4120
tomasti	-4121
▁kehittä	-4122
▁mahdollisesti	-4123
▁Lau	-4124
tellut	-4125
▁hetki	-4126
▁nouse	-4127
uttamaan	-4128
▁Use	-4129
▁Aina	-4130
▁pelkä	-4131
▁runko	-4132
▁keskellä	-4133
mur	-4134
ikos	-4135
koja	-4136
▁kunta	-4137
▁rakka	-4138
▁viestipalvelu	-4139
nes	-4140
▁pis	-4141
▁palo	-4142
▁toki	-4143
▁lakko	-4144
▁väkivalta	-4145
keskus	-4146
▁Halla	-4147
▁muoto	-4148
▁Asiasta	-4149
▁toisella	-4150
dp	-4151
udun	-4152
▁Joe	-4153
vistä	-4154
alaisia	-4155
▁heiken	-4156
▁mennyt	-4157
▁tappio	-4158
▁tiedon	-4159
▁vaikutus	-4160
▁erilaisia	-4161
▁jääkiekko	-4162
ley	-4163
▁Yr	-4164
atin	-4165
▁Kiv	-4166
▁avi	-4167
▁Vuoden	-4168
▁tahansa	-4169
▁Instagramissa	-4170
▁St	-4171
▁Huu	-4172
omien	-4173
▁Kuus	-4174
▁auki	-4175
▁minua	-4176
▁monet	-4177
kkaasti	-4178
▁luonnon	-4179
▁&	-4180
vet	-4181
▁Ex	-4182
▁Tik	-4183
▁Ilma	-4184
▁erila	-4185
▁päättä	-4186
▁Tul	-4187
SA	-4188
par	-4189
htia	-4190
▁parhaan	-4191
▁tietoja	-4192
▁huomauttaa	-4193
▁henkilökohta	-4194
FK	-4195
änsä	-4196
▁kysyi	-4197
▁sukup	-4198
▁kasvan	-4199
▁maahanm	-4200
▁paikkaa	-4201
▁venäläis	-4202
▁voittaja	-4203
saa	-4204
matto	-4205
▁hoid	-4206
▁työpa	-4207
▁meille	-4208
kkiä	-4209
▁amp	-4210
tista	-4211
▁tois	-4212
▁rajan	-4213
▁halusi	-4214
▁sellaista	-4215
▁Pro	-4216
▁Nämä	-4217
▁tuul	-4218
uksiin	-4219
▁Asian	-4220
▁Valko	-4221
▁keino	-4222
▁uskon	-4223
▁itsenä	-4224
▁joutuu	-4225
▁suomalaisten	-4226
tai	-4227
sien	-4228
▁neli	-4229
▁liikaa	-4230
▁vuodessa	-4231
yksessä	-4232
▁alkoho	-4233
▁minulla	-4234
dät	-4235
▁Helsinki	-4236
▁julkaise	-4237
▁kuoleman	-4238
▁julkaistu	-4239
istan	-4240
aikais	-4241
▁syntyi	-4242
alue	-4243
▁konk	-4244
▁edell	-4245
▁lisään	-4246
▁missään	-4247
ak	-4248
▁28	-4249
land	-4250
▁vaale	-4251
▁asukka	-4252
▁helposti	-4253
▁ölj	-4254
▁some	-4255
fessori	-4256
▁pääkaupun	-4257
yttö	-4258
▁11.	-4259
▁jaka	-4260
▁kisan	-4261
▁pienen	-4262
▁kehitty	-4263
▁poliiti	-4264
▁keskimää	-4265
9,	-4266
▁Tuu	-4267
▁tel	-4268
▁osan	-4269
▁pohtii	-4270
▁yksittä	-4271
▁toimenpi	-4272
koko	-4273
▁Mal	-4274
risti	-4275
ström	-4276
▁tähd	-4277
FP	-4278
mil	-4279
▁Vas	-4280
▁haa	-4281
uudet	-4282
▁isia	-4283
▁petty	-4284
▁tyttä	-4285
▁lapsia	-4286
▁toiseksi	-4287
▁helmikuussa	-4288
dassa	-4289
muna	-4290
▁hev	-4291
▁malli	-4292
▁elämää	-4293
▁maasto	-4294
▁ennätys	-4295
▁vahvistaa	-4296
kasi	-4297
▁auttaa	-4298
▁nousee	-4299
▁yhtiön	-4300
asia	-4301
▁Ken	-4302
▁ahd	-4303
▁äär	-4304
▁Uusi	-4305
▁sito	-4306
▁malla	-4307
▁varmaan	-4308
▁päällikkö	-4309
usin	-4310
▁sam	-4311
tussa	-4312
▁alas	-4313
▁uran	-4314
▁palkka	-4315
▁kehitys	-4316
tera	-4317
▁Sin	-4318
▁Sto	-4319
tuksi	-4320
▁arti	-4321
▁murh	-4322
▁Kiinan	-4323
▁ukrain	-4324
▁miljard	-4325
▁perusta	-4326
DP	-4327
aho	-4328
vinen	-4329
▁uutis	-4330
▁hyväks	-4331
▁republ	-4332
▁kilpaili	-4333
▁suomalaiset	-4334
äni	-4335
ilma	-4336
▁bud	-4337
▁monen	-4338
▁lausunn	-4339
▁olemassa	-4340
▁syksyllä	-4341
▁300	-4342
▁Len	-4343
▁omat	-4344
▁selvä	-4345
▁Ruotsissa	-4346
▁seurauksena	-4347
elan	-4348
▁tra	-4349
ääkäri	-4350
▁veden	-4351
▁Oulussa	-4352
▁saaneet	-4353
aana	-4354
tman	-4355
▁hinn	-4356
▁miehe	-4357
urheilu	-4358
▁miehet	-4359
▁Vor	-4360
detään	-4361
▁Katso	-4362
▁vettä	-4363
▁katsoi	-4364
▁pystyy	-4365
▁aurinko	-4366
▁Hallitus	-4367
▁Salo	-4368
▁ääni	-4369
▁lasku	-4370
misessa	-4371
▁jättää	-4372
▁parempi	-4373
▁tilasto	-4374
▁kansanedusta	-4375
käy	-4376
ilen	-4377
veli	-4378
▁Sanna	-4379
▁talvi	-4380
▁uutistoimisto	-4381
teg	-4382
dellä	-4383
ksien	-4384
▁vang	-4385
▁tutus	-4386
jiä	-4387
isku	-4388
kussa	-4389
▁Toki	-4390
läinen	-4391
istettu	-4392
▁hyvinvointialu	-4393
▁mahdollisimman	-4394
ler	-4395
▁ikkun	-4396
▁kärsi	-4397
▁lehti	-4398
▁laajen	-4399
▁matkan	-4400
ukan	-4401
▁Jär	-4402
▁Gran	-4403
▁iski	-4404
▁välin	-4405
▁suojel	-4406
▁elämään	-4407
▁sarjassa	-4408
".	-4409
▁45	-4410
▁Jul	-4411
tisti	-4412
pallon	-4413
tellaan	-4414
▁suosikki	-4415
▁Varsinais	-4416
▁Di	-4417
▁Tai	-4418
▁osin	-4419
▁pele	-4420
llissa	-4421
▁huole	-4422
▁siirto	-4423
▁ymmärtää	-4424
suo	-4425
llas	-4426
mala	-4427
taus	-4428
▁BBC	-4429
▁nut	-4430
▁kirj	-4431
▁säännö	-4432
▁Tampereen	-4433
palo	-4434
veys	-4435
▁12.	-4436
▁Ala	-4437
▁Onko	-4438
ikassa	-4439
▁saisi	-4440
emmistö	-4441
▁hetken	-4442
▁sisään	-4443
▁väkiva	-4444
▁kuningas	-4445
mmo	-4446
erkki	-4447
kisen	-4448
▁Olin	-4449
▁ihme	-4450
▁kotima	-4451
▁sijaitsee	-4452
▁yliopiston	-4453
▁2.	-4454
udella	-4455
▁muutama	-4456
ers	-4457
▁My	-4458
▁AFP	-4459
▁Eli	-4460
▁meri	-4461
▁kakkos	-4462
▁katsom	-4463
▁edustaja	-4464
dään	-4465
▁alun	-4466
▁etsi	-4467
ikuuta	-4468
▁Perus	-4469
▁tarke	-4470
▁vauri	-4471
tieteen	-4472
▁häiriö	-4473
▁muuttu	-4474
▁osaval	-4475
▁William	-4476
▁lopulla	-4477
ukas	-4478
▁Teemu	-4479
▁kriti	-4480
▁seksi	-4481
▁esitys	-4482
▁ottanut	-4483
▁ravintola	-4484
▁yhdysvalta	-4485
▁joulukuussa	-4486
cha	-4487
▁omia	-4488
▁ollen	-4489
▁ampuma	-4490
▁tanssi	-4491
▁finaali	-4492
▁tiedossa	-4493
▁tietysti	-4494
▁vahvista	-4495
0.	-4496
ov	-4497
tala	-4498
täjä	-4499
▁roh	-4500
järvi	-4501
▁hovi	-4502
▁pakko	-4503
▁nähnyt	-4504
▁videon	-4505
▁sairaala	-4506
kön	-4507
▁80	-4508
tteri	-4509
▁vallan	-4510
▁mut	-4511
▁pus	-4512
lassa	-4513
mästi	-4514
▁Kale	-4515
▁kutsu	-4516
▁nosti	-4517
▁helppo	-4518
▁astetta	-4519
▁ruotsalais	-4520
tejä	-4521
▁tunnel	-4522
▁saatiin	-4523
koa	-4524
istel	-4525
lässä	-4526
ralla	-4527
ustaa	-4528
▁Olli	-4529
▁heng	-4530
utussa	-4531
▁Laine	-4532
▁tavar	-4533
▁kotona	-4534
▁toiseen	-4535
▁viimeisen	-4536
▁aikaisemmin	-4537
koti	-4538
▁Mad	-4539
▁Face	-4540
▁Jari	-4541
▁laaj	-4542
▁nopea	-4543
▁syystä	-4544
▁Ranskan	-4545
▁kulutta	-4546
▁keskustelua	-4547
za	-4548
ihde	-4549
▁samaa	-4550
immista	-4551
▁Tuolloin	-4552
▁vahvasti	-4553
▁Ruo	-4554
villa	-4555
▁luov	-4556
▁puhd	-4557
▁sivi	-4558
▁synn	-4559
▁iseen	-4560
▁remon	-4561
▁Aiemmin	-4562
▁vaihtoehto	-4563
▁tammikuussa	-4564
siiv	-4565
voja	-4566
▁SDP	-4567
▁lip	-4568
▁reil	-4569
▁kevään	-4570
▁lääkäri	-4571
vit	-4572
▁Haa	-4573
▁Tän	-4574
▁man	-4575
▁nykyään	-4576
▁viranomaiset	-4577
▁CN	-4578
iaan	-4579
▁400	-4580
iehen	-4581
▁Itse	-4582
iska	-4583
kala	-4584
▁Sir	-4585
▁sti	-4586
terin	-4587
tonta	-4588
▁Espo	-4589
▁ansi	-4590
maalla	-4591
▁maiden	-4592
▁voittaa	-4593
▁syntynyt	-4594
▁kierroksen	-4595
▁Pu	-4596
▁nsä	-4597
▁asiakas	-4598
▁yrittää	-4599
▁taistelu	-4600
ministerin	-4601
▁Venäjälle	-4602
▁ainoastaan	-4603
▁ks	-4604
sarja	-4605
▁John	-4606
▁myöh	-4607
▁Tästä	-4608
▁Yleis	-4609
▁palasi	-4610
bin	-4611
eja	-4612
gres	-4613
▁Sta	-4614
▁Suu	-4615
▁viid	-4616
▁hilja	-4617
▁kuninkaa	-4618
▁Suomalais	-4619
▁historian	-4620
ss	-4621
zb	-4622
ner	-4623
bert	-4624
kilä	-4625
▁13.	-4626
menta	-4627
▁illan	-4628
▁naura	-4629
▁aikata	-4630
▁luonno	-4631
▁uuteen	-4632
▁muistelee	-4633
▁Q	-4634
nnä	-4635
▁kyy	-4636
kalla	-4637
▁anal	-4638
asivat	-4639
▁proje	-4640
▁törmä	-4641
▁liiton	-4642
▁mikään	-4643
▁osoitta	-4644
▁kampanja	-4645
▁iltapäivä	-4646
▁työskenne	-4647
▁Je	-4648
▁Kuv	-4649
killä	-4650
tteja	-4651
▁Lapp	-4652
▁erin	-4653
▁herk	-4654
▁Siksi	-4655
▁kunni	-4656
▁vankeus	-4657
▁käräjäoikeus	-4658
ell	-4659
kejä	-4660
▁lupaa	-4661
▁ilmasto	-4662
▁prinssi	-4663
▁joukossa	-4664
▁HS	-4665
▁Mole	-4666
▁komp	-4667
▁organ	-4668
▁nyr	-4669
ännyt	-4670
▁Dani	-4671
▁inves	-4672
▁amerikk	-4673
▁yllätys	-4674
▁syyskuussa	-4675
boo	-4676
▁Pul	-4677
▁heik	-4678
▁kiinnosta	-4679
▁kuukautta	-4680
ic	-4681
asu	-4682
▁oll	-4683
malle	-4684
▁estä	-4685
▁kuka	-4686
▁maata	-4687
▁tappi	-4688
▁määrän	-4689
▁opetta	-4690
▁vaaran	-4691
yksiä	-4692
▁kovaa	-4693
▁pääty	-4694
ittänyt	-4695
▁antanut	-4696
ood	-4697
▁Ny	-4698
teis	-4699
▁CNN	-4700
mättö	-4701
telyn	-4702
ukkaa	-4703
▁hypp	-4704
neiden	-4705
▁uksen	-4706
▁esille	-4707
▁lääkke	-4708
▁tarvitta	-4709
▁Ukrainaan	-4710
▁huomattavasti	-4711
kone	-4712
desta	-4713
tilan	-4714
unnan	-4715
valio	-4716
▁haki	-4717
alassa	-4718
▁kruun	-4719
▁käydä	-4720
▁vauhd	-4721
▁asteen	-4722
▁asioista	-4723
▁käytetty	-4724
▁mukaisesti	-4725
llö	-4726
▁90	-4727
joja	-4728
tunn	-4729
▁	-4730
a	-4731
i	-4732
t	-4733
n	-4734
e	-4735
s	-4736
l	-4737
o	-4738
u	-4739
k	-4740
ä	-4741
m	-4742
r	-4743
v	-4744
h	-4745
p	-4746
j	-4747
y	-4748
.	-4749
d	-4750
,	-4751
ö	-4752
S	-4753
-	-4754
K	-4755
T	-4756
M	-4757
0	-4758
P	-4759
H	-4760
g	-4761
V	-4762
2	-4763
L	-4764
1	-4765
A	-4766
E	-4767
J	-4768
N	-4769
b	-4770
R	-4771
:	-4772
O	-4773
I	-4774
c	-4775
f	-4776
"	-4777
B	-4778
U	-4779
3	-4780
5	-4781
Y	-4782
4	-4783
C	-4784
9	-4785
F	-4786
6	-4787
D	-4788
8	-4789
7	-4790
)	-4791
(	-4792
G	-4793
z	-4794
w	-4795
W	-4796
?	-4797
x	-4798
­	-4799
/	-4800
!	-4801
Z	-4802
X	-4803
Ä	-4804
+	-4805
é	-4806
'	-4807
q	-4808
š	-4809
&	-4810
%	-4811
ü	-4812
å	-4813
Q	-4814
]	-4815
[	-4816
Ö	-4817
á	-4818
=	-4819
€	-4820
Å	-4821
ž	-4822
ø	-4823
;	-4824
í	-4825
о	-4826
*	-4827
а	-4828
@	-4829
н	-4830
е	-4831
>	-4832
и	-4833
ó	-4834
Š	-4835
т	-4836
р	-4837
с	-4838
■	-4839
л	-4840
в	-4841
−	-4842
ñ	-4843
к	-4844
ë	-4845
è	-4846
д	-4847
у	-4848
č	-4849
#	-4850
г	-4851
п	-4852
ы	-4853
я	-4854
_	-4855
★	-4856
м	-4857
Ã	-4858
â	-4859
⁄	-4860
¤	-4861
ã	-4862
ú	-4863
à	-4864
ć	-4865
б	-4866
й	-4867
ğ	-4868
ł	-4869
ь	-4870
§	-4871
Á	-4872
з	-4873
ç	-4874
·	-4875
æ	-4876
̈	-4877
ч	-4878
É	-4879
ý	-4880
ю	-4881
Ž	-4882
õ	-4883
<	-4884
ï	-4885
×	-4886
Ü	-4887
ô	-4888
ř	-4889
Ø	-4890
ð	-4891
ń	-4892
ж	-4893
х	-4894
Č	-4895
ě	-4896
В	-4897
ц	-4898
	-4899
°	-4900
ê	-4901
С	-4902
Ф	-4903
©	-4904
П	-4905
‒	-4906
Õ	-4907
Ú	-4908
ă	-4909
ė	-4910
ņ	-4911
ш	-4912
щ	-4913
	-4914
Ç	-4915
ß	-4916
ò	-4917
ā	-4918
ē	-4919
ı	-4920
ū	-4921
μ	-4922
А	-4923
Б	-4924
ф	-4925
э	-4926
‐	-4927
•	-4928
⭐	-4929
Æ	-4930
Í	-4931
Þ	-4932
ō	-4933
ț	-4934
α	-4935
К	-4936
Ш	-4937
●	-4938
$	-4939
\	-4940
`	-4941
¶	-4942
À	-4943
Ó	-4944
İ	-4945
ň	-4946
ŏ	-4947
œ	-4948
ş	-4949
ů	-4950
ż	-4951
ə	-4952
˗	-4953
Ж	-4954
И	-4955
Л	-4956
Н	-4957
‰	-4958
′	-4959
⁣	-4960
~	-4961
	-4962
¡	-4963
®	-4964
±	-4965
Â	-4966
Ò	-4967
Û	-4968
ì	-4969
î	-4970
û	-4971
ÿ	-4972
ą	-4973
đ	-4974
ę	-4975
ģ	-4976
ī	-4977
Ķ	-4978
ľ	-4979
Ł	-4980
ś	-4981
ų	-4982
ź	-4983
ǎ	-4984
Ș	-4985
ș	-4986
Д	-4987
З	-4988
О	-4989
Т	-4990
Э	-4991
ỏ	-4992
ố	-4993
‍	-4994
∞	-4995
😂	-4996
