{
  "version": "1.0",
  "truncation": null,
  "padding": null,
  "added_tokens": [
    {
      "id": 0,
      "content": "[UNK]",
      "single_word": false,
      "lstrip": false,
      "rstrip": false,
      "normalized": false,
      "special": true
    },
    {
      "id": 1,
      "content": "[CLS]",
      "single_word": false,
      "lstrip": false,
      "rstrip": false,
      "normalized": false,
      "special": true
    },
    {
      "id": 2,
      "content": "[SEP]",
      "single_word": false,
      "lstrip": false,
      "rstrip": false,
      "normalized": false,
      "special": true
    },
    {
      "id": 3,
      "content": "[PAD]",
      "single_word": false,
      "lstrip": false,
      "rstrip": false,
      "normalized": false,
      "special": true
    },
    {
      "id": 4,
      "content": "[MASK]",
      "single_word": false,
      "lstrip": false,
      "rstrip": false,
      "normalized": false,
      "special": true
    }
  ],
  "normalizer": {
    "type": "Sequence",
    "normalizers": [
      {
        "type": "NFKC"
      },
      {
        "type": "Lowercase"
      }
    ]
  },
  "pre_tokenizer": {
    "type": "Whitespace"
  },
  "post_processor": null,
  "decoder": {
    "type": "WordPiece",
    "prefix": "##",
    "cleanup": true
  },
  "model": {
    "type": "WordPiece",
    "unk_token": "[UNK]",
    "continuing_subword_prefix": "##",
    "max_input_chars_per_word": 100,
    "vocab": {
      "[UNK]": 0,
      "[CLS]": 1,
      "[SEP]": 2,
      "[PAD]": 3,
      "[MASK]": 4,
      "!": 5,
      "\"": 6,
      "#": 7,
      "$": 8,
      "%": 9,
      "&": 10,
      "'": 11,
      "(": 12,
      ")": 13,
      "*": 14,
      "+": 15,
      ",": 16,
      "-": 17,
      ".": 18,
      "/": 19,
      "0": 20,
      "1": 21,
      "2": 22,
      "3": 23,
      "4": 24,
      "5": 25,
      "6": 26,
      "7": 27,
      "8": 28,
      "9": 29,
      ":": 30,
      ";": 31,
      "<": 32,
      "=": 33,
      ">": 34,
      "?": 35,
      "@": 36,
      "[": 37,
      "\\": 38,
      "]": 39,
      "_": 40,
      "`": 41,
      "a": 42,
      "b": 43,
      "c": 44,
      "d": 45,
      "e": 46,
      "f": 47,
      "g": 48,
      "h": 49,
      "i": 50,
      "j": 51,
      "k": 52,
      "l": 53,
      "m": 54,
      "n": 55,
      "o": 56,
      "p": 57,
      "q": 58,
      "r": 59,
      "s": 60,
      "t": 61,
      "u": 62,
      "v": 63,
      "w": 64,
      "x": 65,
      "y": 66,
      "z": 67,
      "~": 68,
      "": 69,
      "": 70,
      "": 71,
      "¡": 72,
      "¤": 73,
      "§": 74,
      "©": 75,
      "­": 76,
      "®": 77,
      "°": 78,
      "±": 79,
      "¶": 80,
      "·": 81,
      "×": 82,
      "ß": 83,
      "à": 84,
      "á": 85,
      "â": 86,
      "ã": 87,
      "ä": 88,
      "å": 89,
      "æ": 90,
      "ç": 91,
      "è": 92,
      "é": 93,
      "ê": 94,
      "ë": 95,
      "ì": 96,
      "í": 97,
      "î": 98,
      "ï": 99,
      "ð": 100,
      "ñ": 101,
      "ò": 102,
      "ó": 103,
      "ô": 104,
      "õ": 105,
      "ö": 106,
      "ø": 107,
      "ú": 108,
      "û": 109,
      "ü": 110,
      "ý": 111,
      "þ": 112,
      "ÿ": 113,
      "ā": 114,
      "ă": 115,
      "ą": 116,
      "ć": 117,
      "č": 118,
      "đ": 119,
      "ē": 120,
      "ė": 121,
      "ę": 122,
      "ě": 123,
      "ğ": 124,
      "ģ": 125,
      "ī": 126,
      "ı": 127,
      "ķ": 128,
      "ľ": 129,
      "ł": 130,
      "ń": 131,
      "ņ": 132,
      "ň": 133,
      "ō": 134,
      "ŏ": 135,
      "œ": 136,
      "ř": 137,
      "ś": 138,
      "ş": 139,
      "š": 140,
      "ū": 141,
      "ů": 142,
      "ų": 143,
      "ź": 144,
      "ż": 145,
      "ž": 146,
      "ǎ": 147,
      "ș": 148,
      "ț": 149,
      "ə": 150,
      "˗": 151,
      "̇": 152,
      "α": 153,
      "μ": 154,
      "а": 155,
      "б": 156,
      "в": 157,
      "г": 158,
      "д": 159,
      "е": 160,
      "ж": 161,
      "з": 162,
      "и": 163,
      "й": 164,
      "к": 165,
      "л": 166,
      "м": 167,
      "н": 168,
      "о": 169,
      "п": 170,
      "р": 171,
      "с": 172,
      "т": 173,
      "у": 174,
      "ф": 175,
      "х": 176,
      "ц": 177,
      "ч": 178,
      "ш": 179,
      "щ": 180,
      "ы": 181,
      "ь": 182,
      "э": 183,
      "ю": 184,
      "я": 185,
      "ỏ": 186,
      "ố": 187,
      "‍": 188,
      "‐": 189,
      "‒": 190,
      "•": 191,
      "‰": 192,
      "′": 193,
      "⁄": 194,
      "⁣": 195,
      "€": 196,
      "−": 197,
      "∞": 198,
      "■": 199,
      "●": 200,
      "★": 201,
      "⭐": 202,
      "😂": 203,
      "🤌": 204,
      "##a": 205,
      "##i": 206,
      "##h": 207,
      "##d": 208,
      "##e": 209,
      "##v": 210,
      "##u": 211,
      "##o": 212,
      "##s": 213,
      "##r": 214,
      "##k": 215,
      "##n": 216,
      "##p": 217,
      "##l": 218,
      "##t": 219,
      "##ä": 220,
      "##c": 221,
      "##y": 222,
      "##m": 223,
      "##j": 224,
      "##ö": 225,
      "##3": 226,
      "##5": 227,
      "##b": 228,
      "##g": 229,
      "##f": 230,
      "##2": 231,
      "##1": 232,
      "##w": 233,
      "##z": 234,
      "##q": 235,
      "##4": 236,
      "##0": 237,
      "##é": 238,
      "##6": 239,
      "##8": 240,
      "##è": 241,
      "##á": 242,
      "##x": 243,
      "##ñ": 244,
      "##č": 245,
      "##š": 246,
      "##9": 247,
      "##7": 248,
      "##ы": 249,
      "##л": 250,
      "##а": 251,
      "##е": 252,
      "##т": 253,
      "##ü": 254,
      "##§": 255,
      "##å": 256,
      "##": 257,
      "##!": 258,
      "##ž": 259,
      "##ø": 260,
      "##)": 261,
      "##,": 262,
      "##р": 263,
      "##в": 264,
      "##д": 265,
      "##и": 266,
      "##â": 267,
      "##ł": 268,
      "##ó": 269,
      "##ý": 270,
      "##ū": 271,
      "##à": 272,
      "##★": 273,
      "##\"": 274,
      "##.": 275,
      "##_": 276,
      "##ç": 277,
      "##ğ": 278,
      "##ã": 279,
      "###": 280,
      "##ë": 281,
      "##­": 282,
      "##-": 283,
      "##?": 284,
      "##*": 285,
      "##í": 286,
      "##с": 287,
      "##к": 288,
      "##о": 289,
      "##ь": 290,
      "##н": 291,
      "##ч": 292,
      "##х": 293,
      "##у": 294,
      "##з": 295,
      "##ú": 296,
      "##м": 297,
      "##ə": 298,
      "##æ": 299,
      "##б": 300,
      "##ț": 301,
      "##г": 302,
      "##й": 303,
      "##ỏ": 304,
      "##ю": 305,
      "##я": 306,
      "##ê": 307,
      "##<": 308,
      "##/": 309,
      "##]": 310,
      "##ă": 311,
      "##ō": 312,
      "##ć": 313,
      "##ð": 314,
      "##ė": 315,
      "##ß": 316,
      "##ā": 317,
      "##:": 318,
      "##+": 319,
      "##̇": 320,
      "##ò": 321,
      "##ų": 322,
      "##~": 323,
      "##õ": 324,
      "##ш": 325,
      "##ř": 326,
      "##ǎ": 327,
      "##ń": 328,
      "##ï": 329,
      "##;": 330,
      "##п": 331,
      "##ň": 332,
      "##ě": 333,
      "##∞": 334,
      "##'": 335,
      "##ı": 336,
      "##ô": 337,
      "##ц": 338,
      "##⭐": 339,
      "##ņ": 340,
      "##ľ": 341,
      "##−": 342,
      "##ж": 343,
      "##⁣": 344,
      "##>": 345,
      "##đ": 346,
      "##ē": 347,
      "##@": 348,
      "##ů": 349,
      "##[": 350,
      "##‰": 351,
      "##ģ": 352,
      "##î": 353,
      "##ŏ": 354,
      "##±": 355,
      "##ż": 356,
      "##щ": 357,
      "##ź": 358,
      "##′": 359,
      "##ī": 360,
      "##ę": 361,
      "##ş": 362,
      "##û": 363,
      "##ì": 364,
      "##ą": 365,
      "##\\": 366,
      "##%": 367,
      "##ÿ": 368,
      "##œ": 369,
      "##ố": 370,
      "##ś": 371,
      "##en": 372,
      "##in": 373,
      "##is": 374,
      "##ta": 375,
      "##an": 376,
      "##ll": 377,
      "##tt": 378,
      "##sa": 379,
      "##si": 380,
      "##ka": 381,
      "##it": 382,
      "##es": 383,
      "##än": 384,
      "##ut": 385,
      "##uo": 386,
      "##el": 387,
      "##er": 388,
      "##aa": 389,
      "##ik": 390,
      "##un": 391,
      "##us": 392,
      "##on": 393,
      "##va": 394,
      "##ti": 395,
      "ja": 396,
      "##as": 397,
      "##oi": 398,
      "##li": 399,
      "on": 400,
      "##et": 401,
      "##al": 402,
      "##lla": 403,
      "##tä": 404,
      "##ar": 405,
      "##uk": 406,
      "##een": 407,
      "##os": 408,
      "##ää": 409,
      "##il": 410,
      "##ja": 411,
      "##ma": 412,
      "##ttä": 413,
      "##ist": 414,
      "##ur": 415,
      "##ul": 416,
      "ko": 417,
      "##lle": 418,
      "##ko": 419,
      "##ki": 420,
      "jo": 421,
      "##sä": 422,
      "##ista": 423,
      "ka": 424,
      "##den": 425,
      "##mm": 426,
      "##te": 427,
      "##isi": 428,
      "##tti": 429,
      "vi": 430,
      "ta": 431,
      "mu": 432,
      "##inen": 433,
      "##to": 434,
      "##llä": 435,
      "##yö": 436,
      "##vat": 437,
      "##le": 438,
      "##ksi": 439,
      "##vä": 440,
      "##ys": 441,
      "##yt": 442,
      "ku": 443,
      "##ke": 444,
      "va": 445,
      "se": 446,
      "##ks": 447,
      "##hd": 448,
      "si": 449,
      "##taa": 450,
      "##ri": 451,
      "##mi": 452,
      "että": 453,
      "##vi": 454,
      "##ei": 455,
      "##pa": 456,
      "ei": 457,
      "##ku": 458,
      "hän": 459,
      "##kaan": 460,
      "##ään": 461,
      "##kin": 462,
      "##uks": 463,
      "##issa": 464,
      "vuo": 465,
      "##la": 466,
      "##utta": 467,
      "tä": 468,
      "##isen": 469,
      "en": 470,
      "sa": 471,
      "##mp": 472,
      "to": 473,
      "oli": 474,
      "##ra": 475,
      "la": 476,
      "##tu": 477,
      "po": 478,
      "suo": 479,
      "ma": 480,
      "##essa": 481,
      "ki": 482,
      "##jo": 483,
      "##assa": 484,
      "ker": 485,
      "##taan": 486,
      "##ina": 487,
      "##äh": 488,
      "##uh": 489,
      "##itä": 490,
      "##op": 491,
      "##yn": 492,
      "##im": 493,
      "te": 494,
      "kä": 495,
      "ra": 496,
      "al": 497,
      "##ie": 498,
      "##ee": 499,
      "##kä": 500,
      "jä": 501,
      "##uu": 502,
      "##de": 503,
      "myö": 504,
      "kan": 505,
      "##unn": 506,
      "pää": 507,
      "##usta": 508,
      "##ih": 509,
      "##jä": 510,
      "##ttu": 511,
      "pa": 512,
      "##man": 513,
      "##esta": 514,
      "##mä": 515,
      "##ty": 516,
      "##istä": 517,
      "##na": 518,
      "ole": 519,
      "##van": 520,
      "##ttel": 521,
      "##jan": 522,
      "##tta": 523,
      "##ne": 524,
      "##se": 525,
      "mukaan": 526,
      "##maan": 527,
      "##asta": 528,
      "##oit": 529,
      "san": 530,
      "##ia": 531,
      "kes": 532,
      "suom": 533,
      "##yy": 534,
      "nä": 535,
      "myös": 536,
      "##ala": 537,
      "il": 538,
      "ha": 539,
      "val": 540,
      "per": 541,
      "ol": 542,
      "li": 543,
      "##ossa": 544,
      "kun": 545,
      "voi": 546,
      "##ika": 547,
      "##llis": 548,
      "##pp": 549,
      "##or": 550,
      "##oin": 551,
      "##vät": 552,
      "##mis": 553,
      "##ot": 554,
      "##äi": 555,
      "su": 556,
      "mi": 557,
      "##re": 558,
      "20": 559,
      "saa": 560,
      "ni": 561,
      "##ussa": 562,
      "##ssa": 563,
      "##uol": 564,
      "##esti": 565,
      "hy": 566,
      "mutta": 567,
      "maa": 568,
      "pel": 569,
      "##sia": 570,
      "##ten": 571,
      "##oa": 572,
      "##jen": 573,
      "toi": 574,
      "pal": 575,
      "yh": 576,
      "##essä": 577,
      "ovat": 578,
      "##uksen": 579,
      "##sin": 580,
      "##ike": 581,
      "##llut": 582,
      "##oo": 583,
      "##ien": 584,
      "par": 585,
      "##eh": 586,
      "läh": 587,
      "##ui": 588,
      "tar": 589,
      "##om": 590,
      "var": 591,
      "##ua": 592,
      "is": 593,
      "tul": 594,
      "##min": 595,
      "ar": 596,
      "##sta": 597,
      "vä": 598,
      "##tel": 599,
      "##ro": 600,
      "tuo": 601,
      "##kaa": 602,
      "esi": 603,
      "##ana": 604,
      "##ha": 605,
      "##ön": 606,
      "##ttiin": 607,
      "ti": 608,
      "an": 609,
      "##estä": 610,
      "##issä": 611,
      "he": 612,
      "##ssä": 613,
      "##up": 614,
      "##ise": 615,
      "##toi": 616,
      "##lo": 617,
      "as": 618,
      "##he": 619,
      "na": 620,
      "##itt": 621,
      "##nut": 622,
      "##hta": 623,
      "##ir": 624,
      "##stä": 625,
      "##osta": 626,
      "##etta": 627,
      "##rj": 628,
      "##lä": 629,
      "##ime": 630,
      "kerto": 631,
      "tu": 632,
      "ih": 633,
      "##iten": 634,
      "##iko": 635,
      "pit": 636,
      "##vin": 637,
      "##ken": 638,
      "##men": 639,
      "##eri": 640,
      "##iksi": 641,
      "##ud": 642,
      "##kk": 643,
      "##mme": 644,
      "##vaa": 645,
      "sen": 646,
      "##ikka": 647,
      "##enä": 648,
      "##iden": 649,
      "vas": 650,
      "##ran": 651,
      "puol": 652,
      "##maa": 653,
      "##tö": 654,
      "##ve": 655,
      "##val": 656,
      "##kka": 657,
      "tai": 658,
      "so": 659,
      "ollut": 660,
      "##rit": 661,
      "##yks": 662,
      "##hti": 663,
      "##isä": 664,
      "kaik": 665,
      "viime": 666,
      "jäl": 667,
      "##tin": 668,
      "työ": 669,
      "joka": 670,
      "##ky": 671,
      "##ton": 672,
      "##kon": 673,
      "##isten": 674,
      "kuin": 675,
      "##keen": 676,
      "tapa": 677,
      "##da": 678,
      "##rin": 679,
      "##teen": 680,
      "kertoo": 681,
      "osa": 682,
      "##eet": 683,
      "##vo": 684,
      "##isia": 685,
      "##mer": 686,
      "eur": 687,
      "##mmä": 688,
      "til": 689,
      "##vän": 690,
      "venä": 691,
      "##ytt": 692,
      "##inn": 693,
      "##ita": 694,
      "men": 695,
      "##män": 696,
      "ed": 697,
      "hel": 698,
      "niin": 699,
      "##ol": 700,
      "poli": 701,
      "##mmin": 702,
      "##minen": 703,
      "ke": 704,
      "min": 705,
      "##sti": 706,
      "##uden": 707,
      "##tka": 708,
      "##hdo": 709,
      "##hin": 710,
      "puh": 711,
      "huo": 712,
      "##uus": 713,
      "jälkeen": 714,
      "vaa": 715,
      "##rä": 716,
      "##uta": 717,
      "yhd": 718,
      "kor": 719,
      "##elä": 720,
      "har": 721,
      "ky": 722,
      "##ts": 723,
      "##isin": 724,
      "##itta": 725,
      "tie": 726,
      "##iset": 727,
      "##tty": 728,
      "##lleen": 729,
      "##mista": 730,
      "##isesti": 731,
      "lop": 732,
      "ensi": 733,
      "kanssa": 734,
      "mar": 735,
      "suomen": 736,
      "##kö": 737,
      "##kan": 738,
      "jos": 739,
      "le": 740,
      "nyt": 741,
      "tur": 742,
      "##usi": 743,
      "##unut": 744,
      "päi": 745,
      "sel": 746,
      "seur": 747,
      "ne": 748,
      "##nna": 749,
      "##mat": 750,
      "kol": 751,
      "##pä": 752,
      "##jän": 753,
      "kys": 754,
      "##ed": 755,
      "202": 756,
      "asi": 757,
      "##00": 758,
      "vuonna": 759,
      "##ikä": 760,
      "kos": 761,
      "kul": 762,
      "##mmen": 763,
      "##ellä": 764,
      "yli": 765,
      "hal": 766,
      "hänen": 767,
      "##mään": 768,
      "##ella": 769,
      "olisi": 770,
      "##voi": 771,
      "pi": 772,
      "lu": 773,
      "##anta": 774,
      "##yh": 775,
      "luo": 776,
      "##kko": 777,
      "##eli": 778,
      "jul": 779,
      "##elle": 780,
      "suur": 781,
      "##ila": 782,
      "##nen": 783,
      "hall": 784,
      "hen": 785,
      "##tto": 786,
      "aut": 787,
      "##do": 788,
      "ver": 789,
      "##jon": 790,
      "teh": 791,
      "sanoo": 792,
      "##ille": 793,
      "yksi": 794,
      "in": 795,
      "##lan": 796,
      "##isto": 797,
      "kir": 798,
      "##ukku": 799,
      "##illa": 800,
      "##jat": 801,
      "re": 802,
      "##han": 803,
      "##massa": 804,
      "oike": 805,
      "##uun": 806,
      "kuiten": 807,
      "##asti": 808,
      "van": 809,
      "##kil": 810,
      "kil": 811,
      "mon": 812,
      "##unta": 813,
      "##htu": 814,
      "##yttä": 815,
      "tiet": 816,
      "jat": 817,
      "lo": 818,
      "##aan": 819,
      "aik": 820,
      "no": 821,
      "##sen": 822,
      "olla": 823,
      "aika": 824,
      "##hj": 825,
      "##oita": 826,
      "##ksen": 827,
      "##eita": 828,
      "koko": 829,
      "##me": 830,
      "##mpi": 831,
      "kuva": 832,
      "##uka": 833,
      "##lin": 834,
      "##kra": 835,
      "sekä": 836,
      "##vel": 837,
      "sy": 838,
      "##tus": 839,
      "vielä": 840,
      "ri": 841,
      "##una": 842,
      "lisä": 843,
      "##tte": 844,
      "haa": 845,
      "er": 846,
      "yhte": 847,
      "##isiin": 848,
      "##kus": 849,
      "sai": 850,
      "##kki": 851,
      "ul": 852,
      "vuoden": 853,
      "ilta": 854,
      "miel": 855,
      "##ikko": 856,
      "##uksia": 857,
      "ruo": 858,
      "##itus": 859,
      "kaikki": 860,
      "##osen": 861,
      "vain": 862,
      "##oja": 863,
      "##siden": 864,
      "os": 865,
      "kertoi": 866,
      "##residen": 867,
      "lä": 868,
      "tut": 869,
      "##oitta": 870,
      "##isti": 871,
      "##est": 872,
      "##gin": 873,
      "perus": 874,
      "##nä": 875,
      "us": 876,
      "##inä": 877,
      "##ulla": 878,
      "##pi": 879,
      "tal": 880,
      "siitä": 881,
      "lap": 882,
      "kuo": 883,
      "ukra": 884,
      "presiden": 885,
      "ro": 886,
      "hyvin": 887,
      "elä": 888,
      "##malla": 889,
      "sitä": 890,
      "##kään": 891,
      "väh": 892,
      "tilan": 893,
      "hä": 894,
      "##iste": 895,
      "##olla": 896,
      "lö": 897,
      "ensimmä": 898,
      "##misen": 899,
      "##di": 900,
      "##uttaa": 901,
      "##tten": 902,
      "jon": 903,
      "it": 904,
      "kar": 905,
      "##tiin": 906,
      "syy": 907,
      "##uut": 908,
      "esimer": 909,
      "suomala": 910,
      "##emm": 911,
      "##änyt": 912,
      "##uud": 913,
      "##at": 914,
      "pr": 915,
      "##uri": 916,
      "kuitenkin": 917,
      "##eiden": 918,
      "##päi": 919,
      "tr": 920,
      "##ite": 921,
      "tunn": 922,
      "kas": 923,
      "tämä": 924,
      "mahdo": 925,
      "##johta": 926,
      "##ynyt": 927,
      "##aal": 928,
      "alu": 929,
      "##itse": 930,
      "hyvä": 931,
      "mer": 932,
      "vasta": 933,
      "##vää": 934,
      "mie": 935,
      "##ystä": 936,
      "tun": 937,
      "aina": 938,
      "##ni": 939,
      "liik": 940,
      "esimerk": 941,
      "##pu": 942,
      "##mo": 943,
      "##llinen": 944,
      "kis": 945,
      "##ude": 946,
      "ter": 947,
      "##ihe": 948,
      "itse": 949,
      "sitten": 950,
      "ottel": 951,
      "ai": 952,
      "##koi": 953,
      "##per": 954,
      "kaup": 955,
      "ennen": 956,
      "noin": 957,
      "19": 958,
      "##po": 959,
      "##mia": 960,
      "esimerkiksi": 961,
      "vuoti": 962,
      "##llo": 963,
      "kuul": 964,
      "##kunn": 965,
      "##tää": 966,
      "keski": 967,
      "tapahtu": 968,
      "kaksi": 969,
      "hi": 970,
      "jossa": 971,
      "##tan": 972,
      "yle": 973,
      "##ttää": 974,
      "##dän": 975,
      "epä": 976,
      "##jaa": 977,
      "##tun": 978,
      "aikana": 979,
      "sanoi": 980,
      "##ihin": 981,
      "poliisi": 982,
      "las": 983,
      "##dä": 984,
      "##istu": 985,
      "maan": 986,
      "##ho": 987,
      "sal": 988,
      "##kas": 989,
      "paljon": 990,
      "##isteri": 991,
      "kats": 992,
      "jää": 993,
      "##ula": 994,
      "ju": 995,
      "##pan": 996,
      "##ver": 997,
      "vaik": 998,
      "asia": 999,
      "##uksi": 1000,
      "##joi": 1001,
      "nuo": 1002,
      "mies": 1003,
      "järj": 1004,
      "ään": 1005,
      "##ttei": 1006,
      "##alta": 1007,
      "ohj": 1008,
      "##din": 1009,
      "##yr": 1010,
      "ilm": 1011,
      "##lloin": 1012,
      "##ttia": 1013,
      "##yty": 1014,
      "väli": 1015,
      "vir": 1016,
      "##nyt": 1017,
      "yhdys": 1018,
      "##ittaa": 1019,
      "eri": 1020,
      "eivät": 1021,
      "##utu": 1022,
      "venäjän": 1023,
      "##pail": 1024,
      "mil": 1025,
      "sar": 1026,
      "sillä": 1027,
      "kon": 1028,
      "##lli": 1029,
      "##kilö": 1030,
      "lisäksi": 1031,
      "##tio": 1032,
      "##no": 1033,
      "keh": 1034,
      "pys": 1035,
      "mää": 1036,
      "muun": 1037,
      "vaikka": 1038,
      "koh": 1039,
      "hei": 1040,
      "##ttaa": 1041,
      "aie": 1042,
      "luk": 1043,
      "mitä": 1044,
      "##iv": 1045,
      "##llista": 1046,
      "##uksessa": 1047,
      "##via": 1048,
      "##ojen": 1049,
      "##ump": 1050,
      "poh": 1051,
      "##ans": 1052,
      "201": 1053,
      "##ga": 1054,
      "pelaa": 1055,
      "ulko": 1056,
      "sil": 1057,
      "##rke": 1058,
      "##ian": 1059,
      "tuli": 1060,
      "##ili": 1061,
      "teke": 1062,
      "##etään": 1063,
      "me": 1064,
      "pe": 1065,
      "maail": 1066,
      "nel": 1067,
      "##lais": 1068,
      "helsin": 1069,
      "ve": 1070,
      "ettei": 1071,
      "tule": 1072,
      "muut": 1073,
      "ukrain": 1074,
      "##llisen": 1075,
      "kansa": 1076,
      "ede": 1077,
      "ur": 1078,
      "muassa": 1079,
      "tämän": 1080,
      "paika": 1081,
      "##uuden": 1082,
      "sano": 1083,
      "uut": 1084,
      "käy": 1085,
      "vastaan": 1086,
      "##hde": 1087,
      "euro": 1088,
      "liitt": 1089,
      "lis": 1090,
      "##ven": 1091,
      "##valla": 1092,
      "##mien": 1093,
      "ho": 1094,
      "##isiä": 1095,
      "toimin": 1096,
      "henkilö": 1097,
      "##ikon": 1098,
      "hyö": 1099,
      "kunn": 1100,
      "##valta": 1101,
      "kommen": 1102,
      "trump": 1103,
      "##yttää": 1104,
      "met": 1105,
      "pitää": 1106,
      "kaa": 1107,
      "väl": 1108,
      "eli": 1109,
      "##lta": 1110,
      "yl": 1111,
      "##elta": 1112,
      "##iin": 1113,
      "pien": 1114,
      "##vasti": 1115,
      "##kkä": 1116,
      "tulee": 1117,
      "##iseen": 1118,
      "ihm": 1119,
      "tode": 1120,
      "##johtaja": 1121,
      "tote": 1122,
      "##oitti": 1123,
      "prosen": 1124,
      "##eksi": 1125,
      "##ch": 1126,
      "##ito": 1127,
      "julka": 1128,
      "sisä": 1129,
      "joukku": 1130,
      "kut": 1131,
      "##tteli": 1132,
      "##ministeri": 1133,
      "##pal": 1134,
      "nor": 1135,
      "##kuussa": 1136,
      "tuk": 1137,
      "##ope": 1138,
      "toim": 1139,
      "toimi": 1140,
      "##kea": 1141,
      "##mma": 1142,
      "##llisesti": 1143,
      "het": 1144,
      "000": 1145,
      "her": 1146,
      "##pe": 1147,
      "##ukset": 1148,
      "lin": 1149,
      "olen": 1150,
      "##isu": 1151,
      "tehd": 1152,
      "##ksa": 1153,
      "##kel": 1154,
      "##ann": 1155,
      "sija": 1156,
      "##san": 1157,
      "olivat": 1158,
      "kaupun": 1159,
      "mei": 1160,
      "arvi": 1161,
      "tän": 1162,
      "##iti": 1163,
      "kyse": 1164,
      "##yksen": 1165,
      "mo": 1166,
      "##vuo": 1167,
      "seuraa": 1168,
      "##mää": 1169,
      "##kia": 1170,
      "##st": 1171,
      "##onen": 1172,
      "euroa": 1173,
      "##istö": 1174,
      "tällä": 1175,
      "len": 1176,
      "laa": 1177,
      "##ttom": 1178,
      "ajan": 1179,
      "##oon": 1180,
      "vuotta": 1181,
      "##eseen": 1182,
      "vah": 1183,
      "##ttua": 1184,
      "##yttö": 1185,
      "##ikan": 1186,
      "koul": 1187,
      "ny": 1188,
      "vier": 1189,
      "kiinn": 1190,
      "keskus": 1191,
      "##istel": 1192,
      "##son": 1193,
      "##emmän": 1194,
      "jotka": 1195,
      "##hi": 1196,
      "turva": 1197,
      "puo": 1198,
      "eikä": 1199,
      "suomessa": 1200,
      "juh": 1201,
      "##neet": 1202,
      "##tään": 1203,
      "use": 1204,
      "##der": 1205,
      "käsi": 1206,
      "tutki": 1207,
      "##llan": 1208,
      "uh": 1209,
      "vuosi": 1210,
      "kesä": 1211,
      "##ker": 1212,
      "kanna": 1213,
      "yllä": 1214,
      "##kun": 1215,
      "##hden": 1216,
      "##jien": 1217,
      "##oike": 1218,
      "##tyi": 1219,
      "aihe": 1220,
      "aja": 1221,
      "##dan": 1222,
      "koska": 1223,
      "sop": 1224,
      "tö": 1225,
      "##inta": 1226,
      "##kona": 1227,
      "##menta": 1228,
      "##paa": 1229,
      "##matta": 1230,
      "##eella": 1231,
      "jonka": 1232,
      "raken": 1233,
      "saan": 1234,
      "##ukseen": 1235,
      "aiemmin": 1236,
      "##ilta": 1237,
      "##hen": 1238,
      "##antaina": 1239,
      "venäjä": 1240,
      "presidentti": 1241,
      "op": 1242,
      "##mpia": 1243,
      "##ras": 1244,
      "##lia": 1245,
      "##tui": 1246,
      "##ihen": 1247,
      "##mar": 1248,
      "##tia": 1249,
      "miten": 1250,
      "tor": 1251,
      "##viä": 1252,
      "lisää": 1253,
      "käyt": 1254,
      "juo": 1255,
      "##llaan": 1256,
      "suunn": 1257,
      "##miseen": 1258,
      "elo": 1259,
      "##kseen": 1260,
      "näin": 1261,
      "tied": 1262,
      "stu": 1263,
      "##vit": 1264,
      "##oihin": 1265,
      "siir": 1266,
      "mikä": 1267,
      "##bb": 1268,
      "##isessa": 1269,
      "##eltä": 1270,
      "##joon": 1271,
      "ruot": 1272,
      "siihen": 1273,
      "yrit": 1274,
      "##je": 1275,
      "##kke": 1276,
      "##uksesta": 1277,
      "##ltä": 1278,
      "##vien": 1279,
      "han": 1280,
      "mit": 1281,
      "##ttävä": 1282,
      "\".": 1283,
      "joh": 1284,
      "##nus": 1285,
      "maailman": 1286,
      "päätö": 1287,
      "##nan": 1288,
      "##yyn": 1289,
      "vaih": 1290,
      "koti": 1291,
      "mat": 1292,
      "##hän": 1293,
      "syn": 1294,
      "##pää": 1295,
      "tiedo": 1296,
      "##ig": 1297,
      "##tion": 1298,
      "teki": 1299,
      "talo": 1300,
      "##ter": 1301,
      "##ber": 1302,
      "kirjo": 1303,
      "put": 1304,
      "##ituksen": 1305,
      "vo": 1306,
      "muuta": 1307,
      "olevan": 1308,
      "##utti": 1309,
      "pohjo": 1310,
      "##iseksi": 1311,
      "##ino": 1312,
      "##gel": 1313,
      "kär": 1314,
      "pitä": 1315,
      "kilpail": 1316,
      "miljoon": 1317,
      "lopp": 1318,
      "##var": 1319,
      "##tar": 1320,
      "##tik": 1321,
      "##oiden": 1322,
      "##elin": 1323,
      "es": 1324,
      "oul": 1325,
      "nyky": 1326,
      "##ttele": 1327,
      "##ing": 1328,
      "julk": 1329,
      "##misesta": 1330,
      "##von": 1331,
      "##oma": 1332,
      "med": 1333,
      "##kunta": 1334,
      "##hl": 1335,
      "de": 1336,
      "näy": 1337,
      "lau": 1338,
      "##kuun": 1339,
      "##io": 1340,
      "##heil": 1341,
      "säh": 1342,
      "taka": 1343,
      "jota": 1344,
      "seura": 1345,
      "tarko": 1346,
      "uusi": 1347,
      "tässä": 1348,
      "leh": 1349,
      "johta": 1350,
      "enemmän": 1351,
      "##uudessa": 1352,
      "##oilla": 1353,
      "euroop": 1354,
      "näh": 1355,
      "haasta": 1356,
      "##mus": 1357,
      "##tuu": 1358,
      "##masta": 1359,
      "ase": 1360,
      "vide": 1361,
      "ihan": 1362,
      "kysy": 1363,
      "##llään": 1364,
      "ent": 1365,
      "stubb": 1366,
      "edus": 1367,
      "nuor": 1368,
      "##llisuus": 1369,
      "sää": 1370,
      "##janta": 1371,
      "määrä": 1372,
      "##mman": 1373,
      "##toa": 1374,
      "mm": 1375,
      "nous": 1376,
      "oly": 1377,
      "##laa": 1378,
      "puheen": 1379,
      "perjanta": 1380,
      "taa": 1381,
      "##rity": 1382,
      "ty": 1383,
      "##ura": 1384,
      "##aali": 1385,
      "##kit": 1386,
      "##neen": 1387,
      "##utui": 1388,
      "sin": 1389,
      "##mpä": 1390,
      "joul": 1391,
      "tärke": 1392,
      "ava": 1393,
      "##uko": 1394,
      "pan": 1395,
      "##iä": 1396,
      "##ue": 1397,
      "pol": 1398,
      "syö": 1399,
      "##am": 1400,
      "##osti": 1401,
      "kolme": 1402,
      "puolus": 1403,
      "##ukka": 1404,
      "##llin": 1405,
      "työn": 1406,
      "##lainen": 1407,
      "mitään": 1408,
      "suosi": 1409,
      "##kusta": 1410,
      "erity": 1411,
      "##ssi": 1412,
      "##ttö": 1413,
      "vastaa": 1414,
      "suomi": 1415,
      "el": 1416,
      "ken": 1417,
      "##yksi": 1418,
      "10": 1419,
      "##ine": 1420,
      "siinä": 1421,
      "päivä": 1422,
      "##uutta": 1423,
      "et": 1424,
      "sair": 1425,
      "hui": 1426,
      "pala": 1427,
      "vaan": 1428,
      "##ikki": 1429,
      "##tyy": 1430,
      "##jana": 1431,
      "isra": 1432,
      "##pel": 1433,
      "##puol": 1434,
      "kertaa": 1435,
      "##vos": 1436,
      "##haa": 1437,
      "pääs": 1438,
      "15": 1439,
      "mur": 1440,
      "##yys": 1441,
      "##ukana": 1442,
      "kohd": 1443,
      "ohjel": 1444,
      "##daan": 1445,
      "##enn": 1446,
      "##kul": 1447,
      "jopa": 1448,
      "usko": 1449,
      "##uja": 1450,
      "##ea": 1451,
      "##kunnan": 1452,
      "terve": 1453,
      "kier": 1454,
      "##ria": 1455,
      "viikon": 1456,
      "##ulta": 1457,
      "##kellä": 1458,
      "##estaan": 1459,
      "ukrainan": 1460,
      "asian": 1461,
      "sähkö": 1462,
      "sella": 1463,
      "yri": 1464,
      "##sina": 1465,
      "ihmis": 1466,
      "vaike": 1467,
      "mä": 1468,
      "or": 1469,
      "osall": 1470,
      "pu": 1471,
      "lähe": 1472,
      "##itsi": 1473,
      "##kes": 1474,
      "suh": 1475,
      "voit": 1476,
      "lei": 1477,
      "ehdo": 1478,
      "##so": 1479,
      "lähes": 1480,
      "yleis": 1481,
      "##tila": 1482,
      "##isa": 1483,
      "muo": 1484,
      "esiin": 1485,
      "fin": 1486,
      "sä": 1487,
      "kommentoi": 1488,
      "oma": 1489,
      "sunn": 1490,
      "##voin": 1491,
      "jal": 1492,
      "##mässä": 1493,
      "##raa": 1494,
      "##vassa": 1495,
      "ympä": 1496,
      "kuuka": 1497,
      "##nin": 1498,
      "##tunut": 1499,
      "##kkaa": 1500,
      "tas": 1501,
      "##nö": 1502,
      "##miin": 1503,
      "##joukku": 1504,
      "sunnunta": 1505,
      "##las": 1506,
      "alku": 1507,
      "kyllä": 1508,
      "muu": 1509,
      "##ettu": 1510,
      "kerro": 1511,
      "vuotias": 1512,
      "prosenttia": 1513,
      "##udella": 1514,
      "##istaa": 1515,
      "##tettiin": 1516,
      "enää": 1517,
      "nope": 1518,
      "##tys": 1519,
      "onne": 1520,
      "##llen": 1521,
      "kr": 1522,
      "kymmen": 1523,
      "helsingin": 1524,
      "py": 1525,
      "tehdä": 1526,
      "pari": 1527,
      "pitkä": 1528,
      "mukana": 1529,
      "##järj": 1530,
      "##ksan": 1531,
      "keskustel": 1532,
      "12": 1533,
      "yhdysvalta": 1534,
      "eh": 1535,
      "##usa": 1536,
      "koke": 1537,
      "iltale": 1538,
      "##utus": 1539,
      "##toja": 1540,
      "##alla": 1541,
      "##yd": 1542,
      "toinen": 1543,
      "##iton": 1544,
      "nim": 1545,
      "pohjois": 1546,
      "liitty": 1547,
      "##uvo": 1548,
      "kirj": 1549,
      "rii": 1550,
      "##mistä": 1551,
      "kello": 1552,
      "tilante": 1553,
      "##gen": 1554,
      "##erin": 1555,
      "200": 1556,
      "tiista": 1557,
      "uuden": 1558,
      "##uussa": 1559,
      "##ikin": 1560,
      "##oista": 1561,
      "##ile": 1562,
      "jatku": 1563,
      "katso": 1564,
      "##don": 1565,
      "##isella": 1566,
      "etel": 1567,
      "##toon": 1568,
      "##mon": 1569,
      "##eensä": 1570,
      "vaati": 1571,
      "its": 1572,
      "todella": 1573,
      "##hei": 1574,
      "##kkin": 1575,
      "torsta": 1576,
      "vet": 1577,
      "valta": 1578,
      "##itel": 1579,
      "hu": 1580,
      "##inte": 1581,
      "sosi": 1582,
      "luon": 1583,
      "##ikke": 1584,
      "palvel": 1585,
      "pur": 1586,
      "ale": 1587,
      "##oissa": 1588,
      "##ytyy": 1589,
      "##kir": 1590,
      "kuten": 1591,
      "##kuuta": 1592,
      "ilma": 1593,
      "##ota": 1594,
      "##ottaa": 1595,
      "##kku": 1596,
      "tapp": 1597,
      "##lleet": 1598,
      "urheil": 1599,
      "ratka": 1600,
      "vara": 1601,
      "rauh": 1602,
      "vähän": 1603,
      "tuomi": 1604,
      "keskivi": 1605,
      "halu": 1606,
      "por": 1607,
      "##mas": 1608,
      "##jia": 1609,
      "huol": 1610,
      "30": 1611,
      "##isesta": 1612,
      "jouk": 1613,
      "tuh": 1614,
      "pois": 1615,
      "##tynyt": 1616,
      "##väl": 1617,
      "järjes": 1618,
      "##ele": 1619,
      "##mala": 1620,
      "pä": 1621,
      "tehtä": 1622,
      "yhteis": 1623,
      "##har": 1624,
      "##isille": 1625,
      "aikaa": 1626,
      "##su": 1627,
      "neljä": 1628,
      "juuri": 1629,
      "saanut": 1630,
      "täys": 1631,
      "##tien": 1632,
      "halua": 1633,
      "##tee": 1634,
      "##tojen": 1635,
      "##por": 1636,
      "lää": 1637,
      "epäil": 1638,
      "arvioi": 1639,
      "##ju": 1640,
      "etelä": 1641,
      "ran": 1642,
      "voitta": 1643,
      "harr": 1644,
      "kal": 1645,
      "##enne": 1646,
      "alle": 1647,
      "hie": 1648,
      "##vänä": 1649,
      "##tteen": 1650,
      "vuoksi": 1651,
      "rik": 1652,
      "##ustaja": 1653,
      "##gra": 1654,
      "##mmat": 1655,
      "##iselle": 1656,
      "hallitus": 1657,
      "opp": 1658,
      "##gi": 1659,
      "##mpaa": 1660,
      "##palvel": 1661,
      "itä": 1662,
      "##ttäin": 1663,
      "uud": 1664,
      "##unsa": 1665,
      "aikaan": 1666,
      "tarjo": 1667,
      "puoli": 1668,
      "ryh": 1669,
      "##ren": 1670,
      "##nist": 1671,
      "jäi": 1672,
      "vali": 1673,
      "eu": 1674,
      "otta": 1675,
      "ongel": 1676,
      "##osa": 1677,
      "##iston": 1678,
      "kautta": 1679,
      "##asi": 1680,
      "jäsen": 1681,
      "##järjes": 1682,
      "##otus": 1683,
      "##ttänyt": 1684,
      "##uma": 1685,
      "##suo": 1686,
      "tasa": 1687,
      "##essaan": 1688,
      "##tiiv": 1689,
      "##vansa": 1690,
      "pain": 1691,
      "ala": 1692,
      "voisi": 1693,
      "##missa": 1694,
      "##ff": 1695,
      "ras": 1696,
      "odo": 1697,
      "hyökkä": 1698,
      "putin": 1699,
      "##kaup": 1700,
      "ilman": 1701,
      "kauden": 1702,
      "##teki": 1703,
      "iso": 1704,
      "tilanne": 1705,
      "##ulle": 1706,
      "yhteen": 1707,
      "##ce": 1708,
      "siv": 1709,
      "län": 1710,
      "##oittaa": 1711,
      "11": 1712,
      "tälla": 1713,
      "##riä": 1714,
      "joten": 1715,
      "kansan": 1716,
      "puolustus": 1717,
      "lle": 1718,
      "##ust": 1719,
      "kur": 1720,
      "##tetty": 1721,
      "selvi": 1722,
      "ainakin": 1723,
      "##jö": 1724,
      "vahv": 1725,
      "toisen": 1726,
      "##ksin": 1727,
      "18": 1728,
      "##yä": 1729,
      "auto": 1730,
      "silloin": 1731,
      "##lu": 1732,
      "tullut": 1733,
      "koi": 1734,
      "käyttä": 1735,
      "##alu": 1736,
      "##tyn": 1737,
      "eloku": 1738,
      "av": 1739,
      "alkoi": 1740,
      "##ck": 1741,
      "##iva": 1742,
      "peruste": 1743,
      "pro": 1744,
      "##ttelee": 1745,
      "##yi": 1746,
      "2022": 1747,
      "maali": 1748,
      "eten": 1749,
      "##isista": 1750,
      "##ikolla": 1751,
      "##jaan": 1752,
      "##onsa": 1753,
      "##jät": 1754,
      "2023": 1755,
      "käyttö": 1756,
      "huomi": 1757,
      "##etaan": 1758,
      "##llon": 1759,
      "ikä": 1760,
      "pare": 1761,
      "##mmär": 1762,
      "##ikkaa": 1763,
      "lain": 1764,
      "muist": 1765,
      "siellä": 1766,
      "vuod": 1767,
      "uutis": 1768,
      "perjantaina": 1769,
      "matka": 1770,
      "vie": 1771,
      "##liitt": 1772,
      "myöhe": 1773,
      "##estar": 1774,
      "##ari": 1775,
      "##uksista": 1776,
      "löy": 1777,
      "edelleen": 1778,
      "toden": 1779,
      "##näkö": 1780,
      "##mist": 1781,
      "tänä": 1782,
      "sopim": 1783,
      "asiasta": 1784,
      "hallituksen": 1785,
      "##kos": 1786,
      "##jassa": 1787,
      "##eensa": 1788,
      "taas": 1789,
      "##ostaa": 1790,
      "parha": 1791,
      "un": 1792,
      "##omet": 1793,
      "ensimmäisen": 1794,
      "##mentaja": 1795,
      "perä": 1796,
      "ajo": 1797,
      "saada": 1798,
      "presidentin": 1799,
      "kulj": 1800,
      "rä": 1801,
      "pitäisi": 1802,
      "hetkellä": 1803,
      "lauantaina": 1804,
      "##oks": 1805,
      "kiinni": 1806,
      "riko": 1807,
      "amp": 1808,
      "##ani": 1809,
      "##ppu": 1810,
      "saman": 1811,
      "palj": 1812,
      "kuitenkaan": 1813,
      "poliisin": 1814,
      "viera": 1815,
      "takia": 1816,
      "##her": 1817,
      "##teet": 1818,
      "##ksu": 1819,
      "heidän": 1820,
      "##lella": 1821,
      "bri": 1822,
      "samalla": 1823,
      "venälä": 1824,
      "yhdessä": 1825,
      "myöhemmin": 1826,
      "kään": 1827,
      "##änä": 1828,
      "niitä": 1829,
      "##vasta": 1830,
      "ukraina": 1831,
      "##puo": 1832,
      "##ttämä": 1833,
      "##sson": 1834,
      "miehen": 1835,
      "kaupungin": 1836,
      "tavalla": 1837,
      "##kkää": 1838,
      "##kkö": 1839,
      "lämp": 1840,
      "merki": 1841,
      "yhden": 1842,
      "suuri": 1843,
      "piste": 1844,
      "arvo": 1845,
      "joukkue": 1846,
      "keskiviik": 1847,
      "##isissa": 1848,
      "ymmär": 1849,
      "aam": 1850,
      "ga": 1851,
      "pyö": 1852,
      "lento": 1853,
      "vaka": 1854,
      "17": 1855,
      "perh": 1856,
      "##ranoma": 1857,
      "##isena": 1858,
      "vil": 1859,
      "epäi": 1860,
      "da": 1861,
      "##paan": 1862,
      "käyn": 1863,
      "##jär": 1864,
      "tätä": 1865,
      "##urin": 1866,
      "tila": 1867,
      "##ela": 1868,
      "##ona": 1869,
      "eriko": 1870,
      "##tunti": 1871,
      "##tetaan": 1872,
      "##kohta": 1873,
      "kau": 1874,
      "##tettu": 1875,
      "##kee": 1876,
      "##kie": 1877,
      "kyl": 1878,
      "asti": 1879,
      "##kasta": 1880,
      "hänet": 1881,
      "tarv": 1882,
      "trumpin": 1883,
      "mielen": 1884,
      "kahden": 1885,
      "13": 1886,
      "main": 1887,
      "tans": 1888,
      "ssä": 1889,
      "myön": 1890,
      "16": 1891,
      "##id": 1892,
      "##see": 1893,
      "kuinka": 1894,
      "häntä": 1895,
      "välillä": 1896,
      "voitti": 1897,
      "yhdysvaltain": 1898,
      "##eilla": 1899,
      "##ttelussa": 1900,
      "##utun": 1901,
      "hava": 1902,
      "heti": 1903,
      "asu": 1904,
      "ir": 1905,
      "##visi": 1906,
      "mene": 1907,
      "##ettiin": 1908,
      "pah": 1909,
      "kansain": 1910,
      "olleet": 1911,
      "suk": 1912,
      "vai": 1913,
      "ehkä": 1914,
      "biden": 1915,
      "yhtä": 1916,
      "##tal": 1917,
      "mahdollis": 1918,
      "##vaan": 1919,
      "täy": 1920,
      "ero": 1921,
      "mel": 1922,
      "kai": 1923,
      "kansainväl": 1924,
      "##eelle": 1925,
      "ystä": 1926,
      "vaali": 1927,
      "##utunut": 1928,
      "hieman": 1929,
      "##udessa": 1930,
      "##kiin": 1931,
      "##tiet": 1932,
      "tiedotte": 1933,
      "ap": 1934,
      "##non": 1935,
      "##ba": 1936,
      "erila": 1937,
      "tavoi": 1938,
      "anta": 1939,
      "puu": 1940,
      "##hoit": 1941,
      "siis": 1942,
      "##joit": 1943,
      "##tyks": 1944,
      "viesti": 1945,
      "##ittää": 1946,
      "väi": 1947,
      "sosiaal": 1948,
      "sur": 1949,
      "myy": 1950,
      "##illä": 1951,
      "tapah": 1952,
      "##isessä": 1953,
      "##annut": 1954,
      "##ase": 1955,
      "aivan": 1956,
      "14": 1957,
      "torstaina": 1958,
      "tiistaina": 1959,
      "missä": 1960,
      "##mies": 1961,
      "##össä": 1962,
      "nhl": 1963,
      "##isuus": 1964,
      "alueella": 1965,
      "kilomet": 1966,
      "kärä": 1967,
      "##tyä": 1968,
      "näky": 1969,
      "kysym": 1970,
      "puheenjohtaja": 1971,
      "huu": 1972,
      "sunnuntaina": 1973,
      "täysin": 1974,
      "kaudella": 1975,
      "edusta": 1976,
      "pyy": 1977,
      "ain": 1978,
      "roo": 1979,
      "##sky": 1980,
      "perhe": 1981,
      "maanantaina": 1982,
      "insta": 1983,
      "olympia": 1984,
      "##eille": 1985,
      "luv": 1986,
      "tyy": 1987,
      "##lop": 1988,
      "##ast": 1989,
      "jär": 1990,
      "todennäkö": 1991,
      "##kän": 1992,
      "keskiviikkona": 1993,
      "##talo": 1994,
      "2024": 1995,
      "euroopan": 1996,
      "25": 1997,
      "alka": 1998,
      "##hja": 1999,
      "##yhti": 2000,
      "##heili": 2001,
      "amma": 2002,
      "kirjoittaa": 2003,
      "päästä": 2004,
      "miljoonaa": 2005,
      "instagra": 2006,
      "##kana": 2007,
      "##estin": 2008,
      "##ost": 2009,
      "lopulta": 2010,
      "##keä": 2011,
      "meillä": 2012,
      "tähän": 2013,
      "##tilan": 2014,
      "##tua": 2015,
      "usein": 2016,
      "##osi": 2017,
      "jalka": 2018,
      "kerran": 2019,
      "kamp": 2020,
      "##päivä": 2021,
      "oman": 2022,
      "sul": 2023,
      "##ket": 2024,
      "toimitta": 2025,
      "alkaa": 2026,
      "nainen": 2027,
      "poi": 2028,
      "pelas": 2029,
      "kuulu": 2030,
      "##ussi": 2031,
      "toista": 2032,
      "oulun": 2033,
      "##vänsä": 2034,
      "##ttuna": 2035,
      "##mieh": 2036,
      "tästä": 2037,
      "kuole": 2038,
      "hil": 2039,
      "##iss": 2040,
      "edes": 2041,
      "ensimmäinen": 2042,
      "##iska": 2043,
      "ruotsin": 2044,
      "##itos": 2045,
      "##ttui": 2046,
      "##aika": 2047,
      "viikolla": 2048,
      "##issaan": 2049,
      "pääsi": 2050,
      "kirja": 2051,
      "##llisia": 2052,
      "##utuu": 2053,
      "##viin": 2054,
      "useita": 2055,
      "käräjä": 2056,
      "tänään": 2057,
      "kat": 2058,
      "kana": 2059,
      "##mu": 2060,
      "##jää": 2061,
      "onko": 2062,
      "voin": 2063,
      "##otta": 2064,
      "maksa": 2065,
      "##tr": 2066,
      "tee": 2067,
      "olemme": 2068,
      "tehnyt": 2069,
      "mielestä": 2070,
      "tava": 2071,
      "piti": 2072,
      "som": 2073,
      "##uuteen": 2074,
      "auton": 2075,
      "br": 2076,
      "##uudesta": 2077,
      "ottelun": 2078,
      "##ryh": 2079,
      "yhti": 2080,
      "näyttää": 2081,
      "käräjäoike": 2082,
      "pö": 2083,
      "##liiton": 2084,
      "new": 2085,
      "moni": 2086,
      "heik": 2087,
      "meidän": 2088,
      "työs": 2089,
      "##asto": 2090,
      "nähd": 2091,
      "yksity": 2092,
      "##ttelu": 2093,
      "tv": 2094,
      "tää": 2095,
      "ää": 2096,
      "mole": 2097,
      "meni": 2098,
      "maal": 2099,
      "##ukkaan": 2100,
      "lue": 2101,
      "jatkaa": 2102,
      "syks": 2103,
      "kävi": 2104,
      "##uksiin": 2105,
      "od": 2106,
      "vapaa": 2107,
      "herä": 2108,
      "##ilä": 2109,
      "##kkaan": 2110,
      "vanhe": 2111,
      "omista": 2112,
      "rans": 2113,
      "##tyksen": 2114,
      "##ilee": 2115,
      "peli": 2116,
      "prin": 2117,
      "hur": 2118,
      "euron": 2119,
      "##vissa": 2120,
      "väki": 2121,
      "##vinto": 2122,
      "muka": 2123,
      "joita": 2124,
      "oikeus": 2125,
      "tim": 2126,
      "##ttäjä": 2127,
      "the": 2128,
      "##uksissa": 2129,
      "##uttanut": 2130,
      "em": 2131,
      "kolm": 2132,
      "##ansa": 2133,
      "##voit": 2134,
      "##kossa": 2135,
      "##hdelle": 2136,
      "varm": 2137,
      "huoli": 2138,
      "vel": 2139,
      "liig": 2140,
      "##tteri": 2141,
      "tamm": 2142,
      "alussa": 2143,
      "##iltä": 2144,
      "##kut": 2145,
      "50": 2146,
      "##isuudessa": 2147,
      "##yssä": 2148,
      "##ytyi": 2149,
      "osallist": 2150,
      "kyseessä": 2151,
      "huh": 2152,
      "suomeen": 2153,
      "histo": 2154,
      "koskaan": 2155,
      "voivat": 2156,
      "niiden": 2157,
      "##istyö": 2158,
      "saap": 2159,
      "##tit": 2160,
      "lähte": 2161,
      "mahdollista": 2162,
      "hiih": 2163,
      "onnettom": 2164,
      "##äni": 2165,
      "enna": 2166,
      "co": 2167,
      "##isestä": 2168,
      "##oille": 2169,
      "kuoli": 2170,
      "viikko": 2171,
      "puhu": 2172,
      "tutkin": 2173,
      "mieh": 2174,
      "##alainen": 2175,
      "for": 2176,
      "kie": 2177,
      "aiko": 2178,
      "puolestaan": 2179,
      "##illaan": 2180,
      "##par": 2181,
      "soti": 2182,
      "otti": 2183,
      "##ppal": 2184,
      "työnteki": 2185,
      "##teita": 2186,
      "##perä": 2187,
      "##vaksi": 2188,
      "kokona": 2189,
      "tuolloin": 2190,
      "kolman": 2191,
      "nousi": 2192,
      "##gan": 2193,
      "suora": 2194,
      "korke": 2195,
      "yliop": 2196,
      "muita": 2197,
      "mik": 2198,
      "##um": 2199,
      "erityisesti": 2200,
      "yhä": 2201,
      "##västi": 2202,
      "sis": 2203,
      "syys": 2204,
      ").": 2205,
      "##jar": 2206,
      "af": 2207,
      "ottaa": 2208,
      "raja": 2209,
      "puolu": 2210,
      "salon": 2211,
      "häi": 2212,
      "israelin": 2213,
      "asiantunti": 2214,
      "perusteella": 2215,
      "lapsi": 2216,
      "musi": 2217,
      "poikke": 2218,
      "##isellä": 2219,
      "##vana": 2220,
      "##joiden": 2221,
      "##kor": 2222,
      "##lliset": 2223,
      "sanomat": 2224,
      "\",": 2225,
      "##erg": 2226,
      "##uuta": 2227,
      "huoma": 2228,
      "lasten": 2229,
      "##luo": 2230,
      "##sy": 2231,
      "##llia": 2232,
      "erittäin": 2233,
      "##ena": 2234,
      "##miä": 2235,
      "toteaa": 2236,
      "##ksia": 2237,
      "##kar": 2238,
      "##joitus": 2239,
      "hir": 2240,
      "onnist": 2241,
      "##ensa": 2242,
      "jotta": 2243,
      "neljän": 2244,
      "##liin": 2245,
      "hyväks": 2246,
      "tuleva": 2247,
      "rovan": 2248,
      "vuotia": 2249,
      "jään": 2250,
      "##ily": 2251,
      "##esin": 2252,
      "saksa": 2253,
      "##iassa": 2254,
      "199": 2255,
      "##aut": 2256,
      "keske": 2257,
      "##sivat": 2258,
      "##paika": 2259,
      "viranoma": 2260,
      "##teli": 2261,
      "tien": 2262,
      "ympäri": 2263,
      "kasv": 2264,
      "##miseksi": 2265,
      "##määrä": 2266,
      "##ire": 2267,
      "##innan": 2268,
      "##llik": 2269,
      "##uteen": 2270,
      "hyvinvoin": 2271,
      "tiedotteessa": 2272,
      "##ytö": 2273,
      "kansaned": 2274,
      "##nn": 2275,
      "poliitt": 2276,
      "isän": 2277,
      "##mik": 2278,
      "##ttoa": 2279,
      "metsä": 2280,
      "työsken": 2281,
      "##stö": 2282,
      "##tele": 2283,
      "yö": 2284,
      "seitse": 2285,
      "jouluk": 2286,
      "##pon": 2287,
      "pud": 2288,
      "joissa": 2289,
      "elämän": 2290,
      "maahan": 2291,
      "ruoka": 2292,
      "pysä": 2293,
      "vih": 2294,
      "##usten": 2295,
      "hin": 2296,
      "##era": 2297,
      "vää": 2298,
      "tieto": 2299,
      "tamp": 2300,
      "hänellä": 2301,
      "viikonlop": 2302,
      "ris": 2303,
      "##yden": 2304,
      "kuljetta": 2305,
      "##log": 2306,
      "länsi": 2307,
      "pyr": 2308,
      "valtion": 2309,
      "##dy": 2310,
      "##isyy": 2311,
      "saattaa": 2312,
      "pysty": 2313,
      "josta": 2314,
      "varsin": 2315,
      "ba": 2316,
      "jälleen": 2317,
      "tehty": 2318,
      "##ron": 2319,
      "kahde": 2320,
      "##estari": 2321,
      "naisten": 2322,
      "pidä": 2323,
      "miksi": 2324,
      "##ess": 2325,
      "mukaansa": 2326,
      "jotain": 2327,
      "sm": 2328,
      "jolla": 2329,
      "##äneet": 2330,
      ".)": 2331,
      "sala": 2332,
      "##ppa": 2333,
      "##koon": 2334,
      "valtio": 2335,
      "ihmiset": 2336,
      "ven": 2337,
      "pitkään": 2338,
      "##jasta": 2339,
      "sijaan": 2340,
      "sd": 2341,
      "voitto": 2342,
      "ihmistä": 2343,
      "hänelle": 2344,
      "##vet": 2345,
      "##ister": 2346,
      "voima": 2347,
      "##hol": 2348,
      "pelastus": 2349,
      "##ehto": 2350,
      "pide": 2351,
      "##misestä": 2352,
      "ajat": 2353,
      "##itys": 2354,
      "laps": 2355,
      "lapsen": 2356,
      "##eeksi": 2357,
      "tausta": 2358,
      "vaikuttaa": 2359,
      "järjestä": 2360,
      "),": 2361,
      "21": 2362,
      "hoi": 2363,
      "raa": 2364,
      "kohta": 2365,
      "turvallisuus": 2366,
      "car": 2367,
      "##tali": 2368,
      "ravinto": 2369,
      "lähet": 2370,
      "##kesk": 2371,
      "pääministeri": 2372,
      "##ander": 2373,
      "olympi": 2374,
      "##ukse": 2375,
      "vaihto": 2376,
      "##kinen": 2377,
      "##oim": 2378,
      "laus": 2379,
      "##tut": 2380,
      "asun": 2381,
      "takaisin": 2382,
      "urheili": 2383,
      "tamper": 2384,
      "##ola": 2385,
      "vuosina": 2386,
      "keskusta": 2387,
      "##ge": 2388,
      "tosi": 2389,
      "jaks": 2390,
      "##joukkue": 2391,
      "##ksiä": 2392,
      "##ppi": 2393,
      "tapahtui": 2394,
      "ura": 2395,
      "##iheessa": 2396,
      "suunnitel": 2397,
      "tek": 2398,
      "suurin": 2399,
      "terveys": 2400,
      "##ynä": 2401,
      "22": 2402,
      "##muksen": 2403,
      "##essi": 2404,
      "mestar": 2405,
      "##jille": 2406,
      "liian": 2407,
      "yhteensä": 2408,
      "tekee": 2409,
      "don": 2410,
      "##berg": 2411,
      "näytteli": 2412,
      "##tusta": 2413,
      "rikos": 2414,
      "##kis": 2415,
      "##ly": 2416,
      "##hing": 2417,
      "##uke": 2418,
      "kuu": 2419,
      "##suomala": 2420,
      "erä": 2421,
      "suorit": 2422,
      "antaa": 2423,
      "toivo": 2424,
      "asiaa": 2425,
      "kann": 2426,
      "loukkaan": 2427,
      "nämä": 2428,
      "##ydessä": 2429,
      "fa": 2430,
      "##kti": 2431,
      "##yksiä": 2432,
      "##uki": 2433,
      "##toin": 2434,
      "hoit": 2435,
      "mus": 2436,
      "##isenä": 2437,
      "##tsa": 2438,
      "viisi": 2439,
      "silti": 2440,
      "##usia": 2441,
      "kohtaa": 2442,
      "kunin": 2443,
      "voidaan": 2444,
      "käytän": 2445,
      "nimi": 2446,
      "##ser": 2447,
      "##llyt": 2448,
      "##vään": 2449,
      "myötä": 2450,
      "suomalais": 2451,
      "##yhtiö": 2452,
      "kappal": 2453,
      "##yksessä": 2454,
      "##oku": 2455,
      "maks": 2456,
      "isä": 2457,
      "vaim": 2458,
      "nopeasti": 2459,
      "vii": 2460,
      "##anne": 2461,
      "##tetta": 2462,
      "heinä": 2463,
      "sairaa": 2464,
      "##inan": 2465,
      "käyttää": 2466,
      "sota": 2467,
      "lämpö": 2468,
      "##ald": 2469,
      "kaiken": 2470,
      "mitta": 2471,
      "##huo": 2472,
      "##pol": 2473,
      "jääkie": 2474,
      "sijaitse": 2475,
      "uran": 2476,
      "kilpa": 2477,
      "huolimatta": 2478,
      "uude": 2479,
      "menn": 2480,
      "ex": 2481,
      "valmista": 2482,
      "kymmenen": 2483,
      "##uksella": 2484,
      "paik": 2485,
      "##päin": 2486,
      "ihmisiä": 2487,
      "2021": 2488,
      "äänestä": 2489,
      "##netta": 2490,
      "marras": 2491,
      "ympär": 2492,
      "touko": 2493,
      "täällä": 2494,
      "##iso": 2495,
      "haluaa": 2496,
      "eteen": 2497,
      "##uissa": 2498,
      "##hall": 2499,
      "##kraa": 2500,
      "kesken": 2501,
      "vesi": 2502,
      "##liik": 2503,
      "##teessa": 2504,
      "miesten": 2505,
      "##ensä": 2506,
      "yhteistyö": 2507,
      "##osin": 2508,
      "hien": 2509,
      "joiden": 2510,
      "##vista": 2511,
      "kahd": 2512,
      "ykkö": 2513,
      "##ry": 2514,
      "myyn": 2515,
      "##uista": 2516,
      "päätty": 2517,
      "neuvo": 2518,
      "lääkä": 2519,
      "st": 2520,
      "##astaan": 2521,
      "sään": 2522,
      "läpi": 2523,
      "löytyy": 2524,
      "sarjan": 2525,
      "lyh": 2526,
      "joutui": 2527,
      "tulla": 2528,
      "ch": 2529,
      "##kerta": 2530,
      "##rik": 2531,
      "##oksen": 2532,
      "liikenne": 2533,
      "24": 2534,
      "krit": 2535,
      "##istää": 2536,
      "päivän": 2537,
      "40": 2538,
      "osaa": 2539,
      "##mät": 2540,
      "toiminta": 2541,
      "##hy": 2542,
      "##kää": 2543,
      "##ttila": 2544,
      "23": 2545,
      "##koa": 2546,
      "kannattaa": 2547,
      "##kiä": 2548,
      "ilmoit": 2549,
      "jalkapa": 2550,
      "pen": 2551,
      "##met": 2552,
      "##bo": 2553,
      "bar": 2554,
      "##jista": 2555,
      "##tuo": 2556,
      "järjest": 2557,
      "pela": 2558,
      "alue": 2559,
      "vaikutta": 2560,
      "loka": 2561,
      "ah": 2562,
      "valko": 2563,
      "vaikea": 2564,
      "##ros": 2565,
      "korkea": 2566,
      "##keli": 2567,
      "kah": 2568,
      "kerrotaan": 2569,
      "ranta": 2570,
      "oikeuden": 2571,
      "viestin": 2572,
      "pian": 2573,
      "pih": 2574,
      "##co": 2575,
      "##tteet": 2576,
      "näk": 2577,
      "##utua": 2578,
      "##ville": 2579,
      "pet": 2580,
      "lähti": 2581,
      "liikku": 2582,
      "yhteydessä": 2583,
      "paljas": 2584,
      "jolloin": 2585,
      "##pit": 2586,
      "##ban": 2587,
      "entinen": 2588,
      "varsina": 2589,
      "kolmen": 2590,
      "kuuluu": 2591,
      "demo": 2592,
      "##laisen": 2593,
      "kri": 2594,
      "osallistu": 2595,
      "##rän": 2596,
      "##yllä": 2597,
      "maalis": 2598,
      "aiheutta": 2599,
      "vasemm": 2600,
      "di": 2601,
      "elin": 2602,
      "##jalle": 2603,
      "##eena": 2604,
      "##laista": 2605,
      "talous": 2606,
      "man": 2607,
      "yksin": 2608,
      "##sar": 2609,
      "##vallan": 2610,
      "##vio": 2611,
      "##kön": 2612,
      "sodan": 2613,
      "joku": 2614,
      "ru": 2615,
      "runsa": 2616,
      "alex": 2617,
      "##ujen": 2618,
      "##uvos": 2619,
      "perinte": 2620,
      "##nes": 2621,
      "##työ": 2622,
      "##ttain": 2623,
      "mikko": 2624,
      "##ttävän": 2625,
      "kierro": 2626,
      "##onin": 2627,
      "näke": 2628,
      "##tilais": 2629,
      "helmik": 2630,
      "iltana": 2631,
      "normaa": 2632,
      "bo": 2633,
      "##ves": 2634,
      "##rian": 2635,
      "kerton": 2636,
      "saav": 2637,
      "paris": 2638,
      "minkä": 2639,
      "vapa": 2640,
      "näyttä": 2641,
      "israel": 2642,
      "##iaa": 2643,
      "##jel": 2644,
      "lie": 2645,
      "ensin": 2646,
      "suun": 2647,
      "##jalla": 2648,
      "##järjestel": 2649,
      "##isuuden": 2650,
      "##ustel": 2651,
      "perussuomala": 2652,
      "kei": 2653,
      "##liitto": 2654,
      "perheen": 2655,
      "##ttämään": 2656,
      "pekka": 2657,
      "##jal": 2658,
      "tammik": 2659,
      "##sto": 2660,
      "jy": 2661,
      "luke": 2662,
      "uutta": 2663,
      "pääval": 2664,
      "##mppan": 2665,
      "##llisuuden": 2666,
      "media": 2667,
      "lind": 2668,
      "poika": 2669,
      "ääri": 2670,
      "##ttunut": 2671,
      "##tur": 2672,
      "##alais": 2673,
      "tunte": 2674,
      "ottelussa": 2675,
      "joukkueen": 2676,
      "kannatta": 2677,
      "##erä": 2678,
      "kisa": 2679,
      "##gaist": 2680,
      "##imi": 2681,
      "##ag": 2682,
      "##voima": 2683,
      "##pin": 2684,
      "lähtö": 2685,
      "tulisi": 2686,
      "toiv": 2687,
      "tähti": 2688,
      "törke": 2689,
      "koske": 2690,
      "lähi": 2691,
      "##kaupun": 2692,
      "viiden": 2693,
      "leikka": 2694,
      "ulos": 2695,
      "##anen": 2696,
      "##läh": 2697,
      "haav": 2698,
      "##etä": 2699,
      "##koul": 2700,
      "##leissa": 2701,
      "##ps": 2702,
      "##itoksen": 2703,
      "paikka": 2704,
      "##vy": 2705,
      "##ohj": 2706,
      "##ttien": 2707,
      "##mmi": 2708,
      "lauanta": 2709,
      "reil": 2710,
      "päätös": 2711,
      "##ttuu": 2712,
      "##tissa": 2713,
      "##lit": 2714,
      "##tis": 2715,
      "muiden": 2716,
      "sata": 2717,
      "##udu": 2718,
      "kirjoitti": 2719,
      "toki": 2720,
      "alko": 2721,
      "antti": 2722,
      "politi": 2723,
      "varmasti": 2724,
      "##istaan": 2725,
      "##tonen": 2726,
      "##kanen": 2727,
      "siksi": 2728,
      "kok": 2729,
      "mieli": 2730,
      "kampan": 2731,
      "##koja": 2732,
      "hinta": 2733,
      "##ss": 2734,
      "##ini": 2735,
      "kohti": 2736,
      "##konen": 2737,
      "##yksestä": 2738,
      "ilmoitti": 2739,
      "haastattelussa": 2740,
      "seitsemän": 2741,
      "##hdot": 2742,
      "lii": 2743,
      "päälle": 2744,
      "hyvinvointi": 2745,
      "##eni": 2746,
      "opis": 2747,
      "##usto": 2748,
      "##oni": 2749,
      "##vara": 2750,
      "takana": 2751,
      "haas": 2752,
      "tuke": 2753,
      "kuusi": 2754,
      "verkko": 2755,
      "##tteita": 2756,
      "joista": 2757,
      "vaku": 2758,
      "##kkos": 2759,
      "##tänyt": 2760,
      "##este": 2761,
      "toimitus": 2762,
      "näkö": 2763,
      "edessä": 2764,
      "totesi": 2765,
      "##itsee": 2766,
      "sam": 2767,
      "100": 2768,
      "pohti": 2769,
      "olin": 2770,
      "olympiala": 2771,
      "##puh": 2772,
      "##kymmen": 2773,
      "ennä": 2774,
      "äiti": 2775,
      "laj": 2776,
      "pako": 2777,
      "##änen": 2778,
      "eng": 2779,
      "hake": 2780,
      "##ttivät": 2781,
      "valm": 2782,
      "ylen": 2783,
      "julkaisi": 2784,
      "pik": 2785,
      "##und": 2786,
      "saar": 2787,
      "oikein": 2788,
      "naa": 2789,
      "nime": 2790,
      "##isilla": 2791,
      "amer": 2792,
      "olleen": 2793,
      "##ykset": 2794,
      "##vissä": 2795,
      "korja": 2796,
      "paikalla": 2797,
      "##lly": 2798,
      "vaara": 2799,
      "etenkin": 2800,
      "##ers": 2801,
      "help": 2802,
      "mal": 2803,
      "sta": 2804,
      "päätt": 2805,
      "yritys": 2806,
      "##riin": 2807,
      "sopi": 2808,
      "##eihin": 2809,
      "tois": 2810,
      "merkit": 2811,
      "##alle": 2812,
      "##taja": 2813,
      "espan": 2814,
      "emme": 2815,
      "##kissa": 2816,
      "pist": 2817,
      "##joita": 2818,
      "markkin": 2819,
      "vaikut": 2820,
      "##ehdo": 2821,
      "elämä": 2822,
      "##isuutta": 2823,
      "avaus": 2824,
      "asunn": 2825,
      "uutisoi": 2826,
      "vaiheessa": 2827,
      "verran": 2828,
      "##ttyä": 2829,
      "##iemi": 2830,
      "muod": 2831,
      "fi": 2832,
      "puna": 2833,
      "huhtik": 2834,
      "asioita": 2835,
      "mistä": 2836,
      "ilmi": 2837,
      "kova": 2838,
      "super": 2839,
      "##joitta": 2840,
      "hallin": 2841,
      "##omaa": 2842,
      "luki": 2843,
      "kaun": 2844,
      "##mäki": 2845,
      "saira": 2846,
      "yhdysval": 2847,
      "kärsi": 2848,
      "##etin": 2849,
      "anne": 2850,
      "##ttuja": 2851,
      "minä": 2852,
      "##juo": 2853,
      "##usti": 2854,
      "kulttu": 2855,
      "mas": 2856,
      "##oittanut": 2857,
      "mediassa": 2858,
      "muistuttaa": 2859,
      "isku": 2860,
      "puhel": 2861,
      "ruotsa": 2862,
      "yleisö": 2863,
      "##uva": 2864,
      "##teiden": 2865,
      "tod": 2866,
      "tele": 2867,
      "paras": 2868,
      "vanke": 2869,
      "leijon": 2870,
      "2020": 2871,
      "##hä": 2872,
      "##mpien": 2873,
      "puolue": 2874,
      "naisen": 2875,
      "tietoa": 2876,
      "##pelaa": 2877,
      "##oili": 2878,
      "##ttävät": 2879,
      "##olta": 2880,
      "minulla": 2881,
      "ry": 2882,
      "alusta": 2883,
      "##iem": 2884,
      "##ttävästi": 2885,
      "hilja": 2886,
      "##kassa": 2887,
      "kesk": 2888,
      "##eitä": 2889,
      "sama": 2890,
      "tiedä": 2891,
      "gaz": 2892,
      "##uivat": 2893,
      "kuvan": 2894,
      "tuu": 2895,
      "##gissä": 2896,
      "##hdon": 2897,
      "juon": 2898,
      "huipp": 2899,
      "##opim": 2900,
      "##ppo": 2901,
      "##ikaa": 2902,
      "##puolella": 2903,
      "kokoom": 2904,
      "tarkoitus": 2905,
      "tarvitse": 2906,
      "kanta": 2907,
      "eduskunta": 2908,
      "##kein": 2909,
      "kahdeksan": 2910,
      "etsi": 2911,
      "##matto": 2912,
      "##laan": 2913,
      "##laisia": 2914,
      "##peli": 2915,
      "pelasi": 2916,
      "suunni": 2917,
      "##uksena": 2918,
      "##stään": 2919,
      "tapahtun": 2920,
      "alla": 2921,
      "##uilla": 2922,
      "antoi": 2923,
      "laske": 2924,
      "yksityis": 2925,
      "##neksi": 2926,
      "ennus": 2927,
      "kiel": 2928,
      "englan": 2929,
      "##nassa": 2930,
      "taistel": 2931,
      "korva": 2932,
      "##rö": 2933,
      "nato": 2934,
      "sarja": 2935,
      "##siin": 2936,
      "teko": 2937,
      "##mällä": 2938,
      "milla": 2939,
      "jen": 2940,
      "päivänä": 2941,
      "my": 2942,
      "ca": 2943,
      "tyh": 2944,
      "wi": 2945,
      "##htaa": 2946,
      "loppu": 2947,
      "sdp": 2948,
      "##vali": 2949,
      "##kse": 2950,
      "##udesta": 2951,
      "vähen": 2952,
      "ydin": 2953,
      "todennäköisesti": 2954,
      "samaan": 2955,
      "pir": 2956,
      "##län": 2957,
      "##tävä": 2958,
      "muista": 2959,
      "pelaaja": 2960,
      "mika": 2961,
      "uusia": 2962,
      "##tän": 2963,
      "##mansa": 2964,
      "tapaa": 2965,
      "kuvaa": 2966,
      "epäilty": 2967,
      "donald": 2968,
      "27": 2969,
      "##kien": 2970,
      "yleensä": 2971,
      "##mpää": 2972,
      "##yyttä": 2973,
      "##järjestö": 2974,
      "pes": 2975,
      "##vina": 2976,
      "##vas": 2977,
      "seksu": 2978,
      "mö": 2979,
      "##iki": 2980,
      "päiv": 2981,
      "vuosien": 2982,
      "pelastusla": 2983,
      "maalin": 2984,
      "##telee": 2985,
      "##tor": 2986,
      "liike": 2987,
      "##ttun": 2988,
      "tuore": 2989,
      "aiku": 2990,
      "##wa": 2991,
      "huon": 2992,
      "johon": 2993,
      "##llikkö": 2994,
      "kuts": 2995,
      "##umer": 2996,
      "##fi": 2997,
      "##mal": 2998,
      "##elma": 2999,
      "##lien": 3000,
      "turna": 3001,
      "valmi": 3002,
      "turun": 3003,
      "##ttely": 3004,
      "ympäristö": 3005,
      "##istön": 3006,
      "##käyn": 3007,
      "##rien": 3008,
      "##ykseen": 3009,
      "luku": 3010,
      "nuorten": 3011,
      "melko": 3012,
      "jän": 3013,
      "kaikkien": 3014,
      "##dia": 3015,
      "##lassa": 3016,
      "suoraan": 3017,
      "käytännö": 3018,
      "oy": 3019,
      "tarp": 3020,
      "poliis": 3021,
      "##estys": 3022,
      "pysy": 3023,
      "tili": 3024,
      "##kansa": 3025,
      "niistä": 3026,
      "lähellä": 3027,
      "monet": 3028,
      "ratkais": 3029,
      "uhka": 3030,
      "britan": 3031,
      "ge": 3032,
      "välttämä": 3033,
      "ylä": 3034,
      "##kat": 3035,
      "##aatio": 3036,
      "198": 3037,
      "tietojen": 3038,
      "##paikka": 3039,
      "kuollut": 3040,
      "tehtävä": 3041,
      "##tella": 3042,
      "laitt": 3043,
      "kertonut": 3044,
      "tra": 3045,
      "##mille": 3046,
      "##eista": 3047,
      "##uku": 3048,
      "tuntuu": 3049,
      "alexander": 3050,
      "##can": 3051,
      "tuotan": 3052,
      "##tteja": 3053,
      "jun": 3054,
      "##mpp": 3055,
      "julkais": 3056,
      "ali": 3057,
      "##oitu": 3058,
      "sisäl": 3059,
      "käytö": 3060,
      "hyökkäys": 3061,
      "laula": 3062,
      "##essään": 3063,
      "rapor": 3064,
      "kevää": 3065,
      "yhtiö": 3066,
      "rin": 3067,
      "naton": 3068,
      "##htiin": 3069,
      "yön": 3070,
      "##intään": 3071,
      "poikkeukse": 3072,
      "##olle": 3073,
      "##palvelu": 3074,
      "##kal": 3075,
      "##ysti": 3076,
      "miljar": 3077,
      "toistaiseksi": 3078,
      "##vir": 3079,
      "ensimmäistä": 3080,
      "##puna": 3081,
      "lih": 3082,
      "run": 3083,
      "##seen": 3084,
      "tapahtuma": 3085,
      "nosta": 3086,
      "##kauden": 3087,
      "kerä": 3088,
      "##oitus": 3089,
      "minulle": 3090,
      "##ttori": 3091,
      "toimii": 3092,
      "26": 3093,
      "35": 3094,
      "täytyy": 3095,
      "##mana": 3096,
      "matkusta": 3097,
      "##rmä": 3098,
      "##musta": 3099,
      "eniten": 3100,
      "syytä": 3101,
      "oh": 3102,
      "iltalehdelle": 3103,
      "##mitta": 3104,
      "##kari": 3105,
      "kukaan": 3106,
      "##kset": 3107,
      "paikalle": 3108,
      "##väli": 3109,
      "##misessa": 3110,
      "nuori": 3111,
      "raha": 3112,
      "voinut": 3113,
      "palkin": 3114,
      "minuu": 3115,
      "osta": 3116,
      "##ttiä": 3117,
      "yhde": 3118,
      "muuten": 3119,
      "sanoa": 3120,
      "arvos": 3121,
      "klo": 3122,
      "aset": 3123,
      "lapin": 3124,
      "kuukauden": 3125,
      "moo": 3126,
      "##vaih": 3127,
      "ander": 3128,
      "iltalehden": 3129,
      "##go": 3130,
      "##lamen": 3131,
      "ihme": 3132,
      "instagram": 3133,
      "##dio": 3134,
      "olevansa": 3135,
      "aa": 3136,
      "musta": 3137,
      "mihin": 3138,
      "tärkeä": 3139,
      "##eesta": 3140,
      "##lää": 3141,
      "yhdysva": 3142,
      "tilanteessa": 3143,
      "kovin": 3144,
      "vuodesta": 3145,
      "##ttor": 3146,
      "##liig": 3147,
      "##kenut": 3148,
      "löyt": 3149,
      "tekemään": 3150,
      "##jala": 3151,
      "anna": 3152,
      "ak": 3153,
      "sp": 3154,
      "##llisten": 3155,
      "usea": 3156,
      "aino": 3157,
      "##empi": 3158,
      "##inin": 3159,
      "##lelle": 3160,
      "aloitti": 3161,
      "##lliseen": 3162,
      "alueen": 3163,
      "tietää": 3164,
      "kilometrin": 3165,
      "##kilpail": 3166,
      "60": 3167,
      "##nissä": 3168,
      "##ity": 3169,
      "joskus": 3170,
      "uudelleen": 3171,
      "##valle": 3172,
      "jonkin": 3173,
      "johtaja": 3174,
      "ikään": 3175,
      "tyttö": 3176,
      "kiinte": 3177,
      "puolesta": 3178,
      "näkyy": 3179,
      "##insa": 3180,
      "menee": 3181,
      "suomalainen": 3182,
      "rakenn": 3183,
      "##onn": 3184,
      "kap": 3185,
      "##mir": 3186,
      "##politi": 3187,
      "##hdist": 3188,
      "itali": 3189,
      "tuomar": 3190,
      "ben": 3191,
      "##ilan": 3192,
      "vastusta": 3193,
      "osalta": 3194,
      "konser": 3195,
      "##teissa": 3196,
      "tehdään": 3197,
      "##isuuteen": 3198,
      "##ilu": 3199,
      "käytännössä": 3200,
      "kuk": 3201,
      "##hyö": 3202,
      "##maton": 3203,
      "urheilu": 3204,
      "am": 3205,
      "##sel": 3206,
      "##llist": 3207,
      "##itin": 3208,
      "inf": 3209,
      "demokraa": 3210,
      "kore": 3211,
      "teho": 3212,
      "löytyi": 3213,
      "orpo": 3214,
      "metrin": 3215,
      "vasemmisto": 3216,
      "torj": 3217,
      "päätti": 3218,
      "pitkän": 3219,
      "selvit": 3220,
      "sellainen": 3221,
      "##mur": 3222,
      "##ksella": 3223,
      "hyvää": 3224,
      "##upin": 3225,
      "selvästi": 3226,
      "mennessä": 3227,
      "lan": 3228,
      "##ara": 3229,
      "##bi": 3230,
      "##iemen": 3231,
      "pyrki": 3232,
      "##gh": 3233,
      "pieni": 3234,
      "loppuun": 3235,
      "vaatii": 3236,
      "saata": 3237,
      "valio": 3238,
      "minun": 3239,
      "##pr": 3240,
      "##sessa": 3241,
      "kisoissa": 3242,
      "näyttelijä": 3243,
      "omaa": 3244,
      "##matka": 3245,
      "##keskus": 3246,
      "##tsi": 3247,
      "##mmista": 3248,
      "meri": 3249,
      "##ell": 3250,
      "##ppä": 3251,
      "##yhte": 3252,
      "mieltä": 3253,
      "olet": 3254,
      "päivää": 3255,
      "putinin": 3256,
      "kotiin": 3257,
      "tait": 3258,
      "tapauksessa": 3259,
      "päivi": 3260,
      "tuki": 3261,
      "lai": 3262,
      "palaa": 3263,
      "ulkoministeri": 3264,
      "järjestel": 3265,
      "käyttöön": 3266,
      "kannalta": 3267,
      "yor": 3268,
      "vira": 3269,
      "jatkossa": 3270,
      "kusta": 3271,
      "##tul": 3272,
      "kysel": 3273,
      "uskon": 3274,
      "##oksia": 3275,
      "##gn": 3276,
      "kuvailee": 3277,
      "##estään": 3278,
      "puhe": 3279,
      "puolis": 3280,
      "##etun": 3281,
      "##ose": 3282,
      "##milla": 3283,
      "kesällä": 3284,
      "pitänyt": 3285,
      "vanh": 3286,
      "##joukkueen": 3287,
      "##pen": 3288,
      "##muut": 3289,
      "valmist": 3290,
      "ykkös": 3291,
      "joilla": 3292,
      "##hte": 3293,
      "sch": 3294,
      "kausi": 3295,
      "rahaa": 3296,
      "2019": 3297,
      "sosiaalisessa": 3298,
      "ohi": 3299,
      "jatkuu": 3300,
      "##raken": 3301,
      "juttu": 3302,
      "ab": 3303,
      "oper": 3304,
      "verra": 3305,
      "aal": 3306,
      "char": 3307,
      "##isemmin": 3308,
      "jatko": 3309,
      "rakenta": 3310,
      "tarkoittaa": 3311,
      "28": 3312,
      "kansanedustaja": 3313,
      "##ca": 3314,
      "lähtien": 3315,
      "nähtiin": 3316,
      "tyyty": 3317,
      "##eillä": 3318,
      "tuotta": 3319,
      "päävalmentaja": 3320,
      "##gas": 3321,
      "hallit": 3322,
      "petteri": 3323,
      "dolla": 3324,
      "##uksien": 3325,
      "pohjan": 3326,
      "ihmisten": 3327,
      "paran": 3328,
      "##ikkoja": 3329,
      "pääse": 3330,
      "liitto": 3331,
      "##hu": 3332,
      "##ttinen": 3333,
      "##kinä": 3334,
      "lähde": 3335,
      "iran": 3336,
      "##my": 3337,
      "pakka": 3338,
      "kasva": 3339,
      "tärkeää": 3340,
      "##ästä": 3341,
      "huono": 3342,
      "ainoa": 3343,
      "##pur": 3344,
      "##ukkaa": 3345,
      "##istoim": 3346,
      "sve": 3347,
      "##veri": 3348,
      "##tv": 3349,
      "##med": 3350,
      "koton": 3351,
      "##paikan": 3352,
      "rauha": 3353,
      "kel": 3354,
      "kalli": 3355,
      "sairas": 3356,
      "suhteen": 3357,
      "##tter": 3358,
      "##laiset": 3359,
      "helsingissä": 3360,
      "mc": 3361,
      "tulos": 3362,
      "kulu": 3363,
      "vanha": 3364,
      "kirjoitta": 3365,
      "finaali": 3366,
      "paremmin": 3367,
      "##det": 3368,
      "##isivat": 3369,
      "##imen": 3370,
      "paa": 3371,
      "stt": 3372,
      "virka": 3373,
      "taustalla": 3374,
      "ps": 3375,
      "tus": 3376,
      "##kur": 3377,
      "##gissa": 3378,
      "ottelua": 3379,
      "##markkin": 3380,
      "##kier": 3381,
      "##kojen": 3382,
      "##vistä": 3383,
      "##ineen": 3384,
      "luotta": 3385,
      "lehden": 3386,
      "päättyi": 3387,
      "keväällä": 3388,
      "yhdysvallo": 3389,
      "oleva": 3390,
      "vuotiaan": 3391,
      "kaupunki": 3392,
      "ren": 3393,
      "##del": 3394,
      "##mättä": 3395,
      "suomea": 3396,
      "reut": 3397,
      "presidentinvaa": 3398,
      "##bri": 3399,
      "varten": 3400,
      "hyökkää": 3401,
      "star": 3402,
      "##mit": 3403,
      "##urheil": 3404,
      "aikoo": 3405,
      "sukup": 3406,
      "##jaksi": 3407,
      "29": 3408,
      "suuntaan": 3409,
      "##voimien": 3410,
      "esiinty": 3411,
      "##ger": 3412,
      "##tapa": 3413,
      "##elen": 3414,
      "posi": 3415,
      "##inaan": 3416,
      "mennä": 3417,
      "ollaan": 3418,
      "kauppa": 3419,
      "stubbin": 3420,
      "liigan": 3421,
      "##ero": 3422,
      "##kunnassa": 3423,
      "pil": 3424,
      "##dyn": 3425,
      "kantaa": 3426,
      "kiekko": 3427,
      "lista": 3428,
      "pul": 3429,
      "##llisi": 3430,
      "muutos": 3431,
      "pahoin": 3432,
      "flo": 3433,
      "myr": 3434,
      "arm": 3435,
      "ukrainassa": 3436,
      "##llistä": 3437,
      "##yön": 3438,
      "valmenta": 3439,
      "minuut": 3440,
      "sarjassa": 3441,
      "##jun": 3442,
      "res": 3443,
      "kii": 3444,
      "##riö": 3445,
      "##osuh": 3446,
      "virta": 3447,
      "saatta": 3448,
      "hovi": 3449,
      "iltalehti": 3450,
      "molemmat": 3451,
      "##olo": 3452,
      "kesän": 3453,
      "tapahtunut": 3454,
      "kertovat": 3455,
      "jussi": 3456,
      "lopussa": 3457,
      "aiheuttaa": 3458,
      "päätöksen": 3459,
      "säil": 3460,
      "ad": 3461,
      "##isyys": 3462,
      "jar": 3463,
      "jätti": 3464,
      "myöskään": 3465,
      "##ettava": 3466,
      "tilannetta": 3467,
      "500": 3468,
      "##emaan": 3469,
      "sijoi": 3470,
      "tutkimus": 3471,
      "jut": 3472,
      "##teeseen": 3473,
      "päivit": 3474,
      "loi": 3475,
      "##lj": 3476,
      "hote": 3477,
      "linja": 3478,
      "##ttäjän": 3479,
      "kokon": 3480,
      "kauh": 3481,
      "rahoit": 3482,
      "päällä": 3483,
      "tuloks": 3484,
      "jatkoi": 3485,
      "kokoon": 3486,
      "ajon": 3487,
      "ilo": 3488,
      "voittanut": 3489,
      "avulla": 3490,
      "ved": 3491,
      "##len": 3492,
      "tuttu": 3493,
      "erityisen": 3494,
      "##tämään": 3495,
      "##laisten": 3496,
      "käräjäoikeus": 3497,
      "nähdään": 3498,
      "toimitusjohtaja": 3499,
      "##arin": 3500,
      "jäänyt": 3501,
      "fan": 3502,
      "huomatta": 3503,
      "koulut": 3504,
      "##itetty": 3505,
      "nostaa": 3506,
      "kaikkea": 3507,
      "suhta": 3508,
      "kre": 3509,
      "##imm": 3510,
      "##ksesta": 3511,
      "vastu": 3512,
      "maailmanm": 3513,
      "##kkiä": 3514,
      "bidenin": 3515,
      "lah": 3516,
      "kohtaan": 3517,
      "ulkoma": 3518,
      "##ttik": 3519,
      "##tenä": 3520,
      "epäillään": 3521,
      "##mys": 3522,
      "##tteiden": 3523,
      "mita": 3524,
      "halusi": 3525,
      "hätä": 3526,
      "##yteen": 3527,
      "ohjaa": 3528,
      "sinne": 3529,
      "tanssi": 3530,
      "sor": 3531,
      "lyhy": 3532,
      "johtu": 3533,
      "parlamen": 3534,
      "pistettä": 3535,
      "##usin": 3536,
      "varha": 3537,
      "juhla": 3538,
      "pääsee": 3539,
      "viikonloppuna": 3540,
      "uni": 3541,
      "##piir": 3542,
      "##eva": 3543,
      "tuul": 3544,
      "piir": 3545,
      "venäjällä": 3546,
      "nähty": 3547,
      "liiga": 3548,
      "##lehti": 3549,
      "puheenjohta": 3550,
      "odotta": 3551,
      "##asen": 3552,
      "##ingas": 3553,
      "video": 3554,
      "yhdysvaltojen": 3555,
      "ohja": 3556,
      "vei": 3557,
      "##teh": 3558,
      "miljoonan": 3559,
      "ranska": 3560,
      "##kot": 3561,
      "vau": 3562,
      "valmis": 3563,
      "aho": 3564,
      "vahing": 3565,
      "valit": 3566,
      "kolmas": 3567,
      "vähintään": 3568,
      "etu": 3569,
      "vähä": 3570,
      "2018": 3571,
      "mikäli": 3572,
      "ruu": 3573,
      "##ivi": 3574,
      "arv": 3575,
      "helpo": 3576,
      "välttämättä": 3577,
      "##dc": 3578,
      "##kuo": 3579,
      "##gr": 3580,
      "matti": 3581,
      "maassa": 3582,
      "tarvi": 3583,
      "ann": 3584,
      "loh": 3585,
      "johto": 3586,
      "nykyään": 3587,
      "ajoi": 3588,
      "##uttamaan": 3589,
      "saksan": 3590,
      "lat": 3591,
      "teks": 3592,
      "valmen": 3593,
      "liikke": 3594,
      "nähdä": 3595,
      "##nalla": 3596,
      "istu": 3597,
      "suomalaiset": 3598,
      "ohjelman": 3599,
      "mos": 3600,
      "rei": 3601,
      "##ute": 3602,
      "parin": 3603,
      "##kanut": 3604,
      "ohjelmassa": 3605,
      "##uiden": 3606,
      "nimen": 3607,
      "vähemmän": 3608,
      "avio": 3609,
      "nis": 3610,
      "teo": 3611,
      "ihmisen": 3612,
      "illan": 3613,
      "onn": 3614,
      "minuuttia": 3615,
      "##ivo": 3616,
      "##aat": 3617,
      "saakka": 3618,
      "puolella": 3619,
      "apua": 3620,
      "##tutkin": 3621,
      "yhdist": 3622,
      "tavoitteen": 3623,
      "jääkiekko": 3624,
      "##jalta": 3625,
      "##bli": 3626,
      "saivat": 3627,
      "sisällä": 3628,
      "tutkim": 3629,
      "britanni": 3630,
      "hoita": 3631,
      "##malle": 3632,
      "halunn": 3633,
      "rakennus": 3634,
      "taloude": 3635,
      "uskoo": 3636,
      "ongelma": 3637,
      "##inti": 3638,
      "##oimin": 3639,
      "##sää": 3640,
      "yhty": 3641,
      "tarkas": 3642,
      "verta": 3643,
      "erikois": 3644,
      "kunnossa": 3645,
      "kutsu": 3646,
      "vetä": 3647,
      "kokonais": 3648,
      "##sut": 3649,
      "##uita": 3650,
      "and": 3651,
      "##syt": 3652,
      "kuvassa": 3653,
      "##yyd": 3654,
      "valmentaja": 3655,
      "##päivän": 3656,
      "hiihto": 3657,
      "päässä": 3658,
      "miestä": 3659,
      "syyt": 3660,
      "yhdysvalloissa": 3661,
      "avoi": 3662,
      "##lon": 3663,
      "##lissa": 3664,
      "##oida": 3665,
      "vuor": 3666,
      "maananta": 3667,
      "norjan": 3668,
      "johtaa": 3669,
      "##päätö": 3670,
      "aurin": 3671,
      "##hoi": 3672,
      "##tön": 3673,
      "luvun": 3674,
      "##ksän": 3675,
      "perin": 3676,
      "asiantuntija": 3677,
      "saatu": 3678,
      "pelin": 3679,
      "##aalta": 3680,
      "pikku": 3681,
      "##aston": 3682,
      "##eili": 3683,
      "tilanteen": 3684,
      "ottelu": 3685,
      "odot": 3686,
      "##ttömä": 3687,
      "amm": 3688,
      "parhaa": 3689,
      "ansi": 3690,
      "kokonaan": 3691,
      "##for": 3692,
      "##nat": 3693,
      "nur": 3694,
      "vla": 3695,
      "##zz": 3696,
      "jatka": 3697,
      "voiton": 3698,
      "##tie": 3699,
      "##leja": 3700,
      "##yttänyt": 3701,
      "asiakka": 3702,
      "tukea": 3703,
      "muutaman": 3704,
      "päin": 3705,
      "positiiv": 3706,
      "##lm": 3707,
      "lauka": 3708,
      "sanon": 3709,
      "järky": 3710,
      "##teeksi": 3711,
      "##miel": 3712,
      "pelannut": 3713,
      "repu": 3714,
      "liittyy": 3715,
      "eteenpäin": 3716,
      "andersson": 3717,
      "##hto": 3718,
      "palo": 3719,
      "karsin": 3720,
      "ennakko": 3721,
      "bu": 3722,
      "levi": 3723,
      "lähd": 3724,
      "odottaa": 3725,
      "##lö": 3726,
      "lehti": 3727,
      "tehtiin": 3728,
      "opetta": 3729,
      "00": 3730,
      "republi": 3731,
      "##kelä": 3732,
      "##ttil": 3733,
      "toiminut": 3734,
      "lapset": 3735,
      "##sien": 3736,
      "##sivät": 3737,
      "muistel": 3738,
      "kerr": 3739,
      "##ttelun": 3740,
      "artik": 3741,
      "suomalaisten": 3742,
      "prinssi": 3743,
      "45": 3744,
      "laul": 3745,
      "minua": 3746,
      "republikaan": 3747,
      "ros": 3748,
      "##isteli": 3749,
      "energ": 3750,
      "rah": 3751,
      "paikan": 3752,
      "##fin": 3753,
      "johan": 3754,
      "asiassa": 3755,
      "vastasi": 3756,
      "luonnon": 3757,
      "puolueen": 3758,
      "##valio": 3759,
      "yhdeksän": 3760,
      "##toista": 3761,
      "##toihin": 3762,
      "ampu": 3763,
      "kilpaili": 3764,
      "ehti": 3765,
      "uutistoim": 3766,
      "synty": 3767,
      "pudotus": 3768,
      "##ny": 3769,
      "##koko": 3770,
      "##neensa": 3771,
      "##tinen": 3772,
      "##mpa": 3773,
      "turvallis": 3774,
      "##päällikkö": 3775,
      "##bc": 3776,
      "##ens": 3777,
      "takaa": 3778,
      "##villa": 3779,
      "sau": 3780,
      "lehd": 3781,
      "##isterin": 3782,
      "uransa": 3783,
      "##siv": 3784,
      "##kiel": 3785,
      "pelkä": 3786,
      "##istettu": 3787,
      "asiat": 3788,
      "f1": 3789,
      "##uneet": 3790,
      "toisella": 3791,
      "mahdollisuus": 3792,
      "siltä": 3793,
      "##strö": 3794,
      "##uude": 3795,
      "puolusta": 3796,
      "tapahtuu": 3797,
      "2016": 3798,
      "##oikeus": 3799,
      "orpon": 3800,
      "mielenos": 3801,
      "willia": 3802,
      "tap": 3803,
      "ruots": 3804,
      "dia": 3805,
      "##ard": 3806,
      "kuningas": 3807,
      "yhtiön": 3808,
      "vuotiaana": 3809,
      "##hon": 3810,
      "##ris": 3811,
      "##ytys": 3812,
      "saadaan": 3813,
      "tarvit": 3814,
      "##hansa": 3815,
      "flori": 3816,
      "vladi": 3817,
      "80": 3818,
      "ton": 3819,
      "onkin": 3820,
      "kiin": 3821,
      "##ehti": 3822,
      "ihminen": 3823,
      "##ira": 3824,
      "##kista": 3825,
      "##meen": 3826,
      "kisojen": 3827,
      "prosentin": 3828,
      "##tola": 3829,
      "saavat": 3830,
      "yksittä": 3831,
      "riittää": 3832,
      "197": 3833,
      "opet": 3834,
      "aktiiv": 3835,
      "ministeri": 3836,
      "olisivat": 3837,
      "##rää": 3838,
      "##uti": 3839,
      "toiseksi": 3840,
      "podc": 3841,
      "näitä": 3842,
      "##maalla": 3843,
      "prinsessa": 3844,
      "##tava": 3845,
      "##istään": 3846,
      "ilme": 3847,
      "hyvän": 3848,
      "vuosikymmen": 3849,
      "näytti": 3850,
      "gol": 3851,
      "##muka": 3852,
      "##ttävää": 3853,
      "suoja": 3854,
      "kerta": 3855,
      "kulutta": 3856,
      "kasvat": 3857,
      "päässyt": 3858,
      "ket": 3859,
      "kuka": 3860,
      "vuoteen": 3861,
      "kysyi": 3862,
      "perussuomalaisten": 3863,
      "jälj": 3864,
      "##utuvat": 3865,
      "pin": 3866,
      "rinta": 3867,
      "##taul": 3868,
      "2025": 3869,
      "monta": 3870,
      "huippu": 3871,
      "sähköp": 3872,
      "##pala": 3873,
      "käynyt": 3874,
      "heitä": 3875,
      "tuntia": 3876,
      "töitä": 3877,
      "##järvi": 3878,
      "kulta": 3879,
      "uhkaa": 3880,
      "armei": 3881,
      "nos": 3882,
      "##uuksia": 3883,
      "peräti": 3884,
      "alkaen": 3885,
      "##aati": 3886,
      "##ikkaan": 3887,
      "##teista": 3888,
      "totta": 3889,
      "kieltä": 3890,
      "##jouk": 3891,
      "##uhka": 3892,
      "kohdist": 3893,
      "ratkaisu": 3894,
      "toimittaja": 3895,
      "##yrit": 3896,
      "art": 3897,
      "tulevat": 3898,
      "##vun": 3899,
      "##vist": 3900,
      "ville": 3901,
      "tavoit": 3902,
      "harjoit": 3903,
      "harvina": 3904,
      "kehitt": 3905,
      "90": 3906,
      "varmaan": 3907,
      "tuntu": 3908,
      "hyvinvointialu": 3909,
      "janne": 3910,
      "ts": 3911,
      "selkeä": 3912,
      "metriä": 3913,
      "cat": 3914,
      "##oivat": 3915,
      "sami": 3916,
      "televisi": 3917,
      "vladimir": 3918,
      "##gar": 3919,
      "vuoro": 3920,
      "alun": 3921,
      "##itettu": 3922,
      "opposi": 3923,
      "työntekijö": 3924,
      "rikko": 3925,
      "##aalin": 3926,
      "##onta": 3927,
      "sydän": 3928,
      "meille": 3929,
      "maailmanc": 3930,
      "tilanteesta": 3931,
      "tappi": 3932,
      "sotilas": 3933,
      "##iri": 3934,
      "##imä": 3935,
      "tunnettu": 3936,
      "##vallat": 3937,
      "juhli": 3938,
      "terveyden": 3939,
      "seksuaal": 3940,
      "estä": 3941,
      "salo": 3942,
      "ui": 3943,
      "##mästä": 3944,
      "viikkoa": 3945,
      "gu": 3946,
      "kumppan": 3947,
      "kunto": 3948,
      "varus": 3949,
      "areen": 3950,
      "median": 3951,
      "##vinen": 3952,
      "##utettu": 3953,
      "rakka": 3954,
      "tieten": 3955,
      "timo": 3956,
      "lon": 3957,
      "seuran": 3958,
      "##terve": 3959,
      "säästö": 3960,
      "lähteä": 3961,
      "##ytti": 3962,
      "##uston": 3963,
      "kestä": 3964,
      "lähten": 3965,
      "videolla": 3966,
      "lasta": 3967,
      "##tär": 3968,
      "pika": 3969,
      "wa": 3970,
      "aloitta": 3971,
      "##istetaan": 3972,
      "muutama": 3973,
      "harris": 3974,
      "kilometriä": 3975,
      "uutistoimisto": 3976,
      "mor": 3977,
      "##esi": 3978,
      "naur": 3979,
      "lämpötila": 3980,
      "tyytyvä": 3981,
      "zelen": 3982,
      "lopetta": 3983,
      "inn": 3984,
      "##dion": 3985,
      "kerrottiin": 3986,
      "elokuva": 3987,
      "##ppaa": 3988,
      "lupa": 3989,
      "rangaist": 3990,
      "##ustus": 3991,
      "sie": 3992,
      "##manin": 3993,
      "hauta": 3994,
      "ammatti": 3995,
      "helmikuussa": 3996,
      "treen": 3997,
      "pienen": 3998,
      "kysymys": 3999,
      "at": 4000,
      "niko": 4001,
      "##otto": 4002,
      "kuuden": 4003,
      "vieras": 4004,
      "syksyllä": 4005,
      "##tilaisuudessa": 4006,
      "##pö": 4007,
      "##tos": 4008,
      "##cha": 4009,
      "##yl": 4010,
      "kata": 4011,
      "sellaista": 4012,
      "tasolla": 4013,
      "mtv": 4014,
      "##ikoi": 4015,
      "sol": 4016,
      "siirty": 4017,
      "##tällä": 4018,
      "tietysti": 4019,
      "eläin": 4020,
      "yhdysvallat": 4021,
      "##utki": 4022,
      "##ttelua": 4023,
      "##innon": 4024,
      "noussut": 4025,
      "kohdalla": 4026,
      "pyöri": 4027,
      "##ohjel": 4028,
      "tik": 4029,
      "##eja": 4030,
      "osu": 4031,
      "entistä": 4032,
      "itsenä": 4033,
      "ste": 4034,
      "##maksi": 4035,
      "##ttomasti": 4036,
      "aurinko": 4037,
      "31": 4038,
      "##tilla": 4039,
      "liiken": 4040,
      "itsensä": 4041,
      "maksaa": 4042,
      "onnistu": 4043,
      "avaa": 4044,
      "pas": 4045,
      "yk": 4046,
      "##vil": 4047,
      "##tista": 4048,
      "##istossa": 4049,
      "sain": 4050,
      "tunnin": 4051,
      "toimintaa": 4052,
      "illa": 4053,
      "ide": 4054,
      "##jään": 4055,
      "##ulo": 4056,
      "pöy": 4057,
      "70": 4058,
      "##isistä": 4059,
      "##ikö": 4060,
      "tavan": 4061,
      "kaikille": 4062,
      "eräs": 4063,
      "##imin": 4064,
      "##vell": 4065,
      "huomiota": 4066,
      "joulukuussa": 4067,
      "toisaalta": 4068,
      "gr": 4069,
      "##org": 4070,
      "luov": 4071,
      "itseään": 4072,
      "##detään": 4073,
      "sieltä": 4074,
      "##llisena": 4075,
      "tällainen": 4076,
      "saapui": 4077,
      "kansanedusta": 4078,
      "bi": 4079,
      "kus": 4080,
      "##evat": 4081,
      "##kula": 4082,
      "perusta": 4083,
      "##issään": 4084,
      "ruotsi": 4085,
      "tuomio": 4086,
      "##het": 4087,
      "##nasta": 4088,
      "##zin": 4089,
      "##killä": 4090,
      "aloittaa": 4091,
      "##rilla": 4092,
      "tulossa": 4093,
      "henkilökohta": 4094,
      "##ytön": 4095,
      "lapp": 4096,
      "maiden": 4097,
      "maaliva": 4098,
      "histori": 4099,
      "oll": 4100,
      "lauri": 4101,
      "olemaan": 4102,
      "nais": 4103,
      "viimeisen": 4104,
      "väkivalta": 4105,
      "runsaasti": 4106,
      "äi": 4107,
      "##kkeen": 4108,
      "##ryhmän": 4109,
      "keskellä": 4110,
      "##voja": 4111,
      "juha": 4112,
      "käytössä": 4113,
      "##llö": 4114,
      "##yne": 4115,
      "##kkaasti": 4116,
      "mahdollisesti": 4117,
      "sähköaut": 4118,
      "kruun": 4119,
      "tammikuussa": 4120,
      "alkoho": 4121,
      "##itti": 4122,
      "##ukan": 4123,
      "täh": 4124,
      "samaa": 4125,
      "erilaisia": 4126,
      "amerikka": 4127,
      "##én": 4128,
      "pääkaupun": 4129,
      "monen": 4130,
      "zelensky": 4131,
      "tes": 4132,
      "paimi": 4133,
      "näkee": 4134,
      "tarke": 4135,
      "hankki": 4136,
      "lopput": 4137,
      "runko": 4138,
      "##kov": 4139,
      "vero": 4140,
      "sosiaali": 4141,
      "##keskuksen": 4142,
      "hö": 4143,
      "##alin": 4144,
      "sir": 4145,
      "##uudet": 4146,
      "##tettä": 4147,
      "sille": 4148,
      "kesänä": 4149,
      "##yyden": 4150,
      "rek": 4151,
      "lapsia": 4152,
      "jukka": 4153,
      "toimia": 4154,
      "opiskeli": 4155,
      "mun": 4156,
      "vin": 4157,
      "##tuksen": 4158,
      "##lian": 4159,
      "##udun": 4160,
      "finaal": 4161,
      "verrattuna": 4162,
      "jan": 4163,
      "##pyö": 4164,
      "##uon": 4165,
      "kans": 4166,
      "olo": 4167,
      "kaikkia": 4168,
      "be": 4169,
      "##rjaa": 4170,
      "koulun": 4171,
      "tuhan": 4172,
      "ajone": 4173,
      "puke": 4174,
      "lähtee": 4175,
      "##tyneet": 4176,
      "kokoomuksen": 4177,
      "reh": 4178,
      "tosin": 4179,
      "##muna": 4180,
      "##mite": 4181,
      "tall": 4182,
      "itselleen": 4183,
      "kuoleman": 4184,
      "##mäen": 4185,
      "##ttelin": 4186,
      "tei": 4187,
      "vuosia": 4188,
      "##jansa": 4189,
      "neu": 4190,
      "tietä": 4191,
      "##itettiin": 4192,
      "alueelle": 4193,
      "edellis": 4194,
      "tiedossa": 4195,
      "sairaal": 4196,
      "halunnut": 4197,
      "##tet": 4198,
      "syntyi": 4199,
      "espo": 4200,
      "##sori": 4201,
      "pariisin": 4202,
      "uudist": 4203,
      "mikään": 4204,
      "tavoitteena": 4205,
      "##ttilä": 4206,
      "kalle": 4207,
      "viik": 4208,
      "samassa": 4209,
      "maalia": 4210,
      "##kilä": 4211,
      "##ttöm": 4212,
      "luvulla": 4213,
      "varsinkin": 4214,
      "yönä": 4215,
      "bud": 4216,
      "##pall": 4217,
      "##ukselle": 4218,
      "doku": 4219,
      "gran": 4220,
      "##fk": 4221,
      "##llyn": 4222,
      "japan": 4223,
      "laki": 4224,
      "##rella": 4225,
      "##päivänä": 4226,
      "##tala": 4227,
      "tuor": 4228,
      "##upaa": 4229,
      "iltapäivä": 4230,
      "katsom": 4231,
      "eduskunnan": 4232,
      "juus": 4233,
      "##vaik": 4234,
      "hänestä": 4235,
      "aikaisemmin": 4236,
      "suomalaisen": 4237,
      "kansalais": 4238,
      "kesäkuussa": 4239,
      "kiinteistö": 4240,
      "poik": 4241,
      "##pide": 4242,
      "talon": 4243,
      "##tkut": 4244,
      "##alan": 4245,
      "##alue": 4246,
      "kasvan": 4247,
      "virhe": 4248,
      "huolta": 4249,
      "##järven": 4250,
      "syyskuussa": 4251,
      "helposti": 4252,
      "tan": 4253,
      "##dassa": 4254,
      "puolen": 4255,
      "sopimus": 4256,
      "ssa": 4257,
      "##kussa": 4258,
      "##ilun": 4259,
      "tuom": 4260,
      "esitutkin": 4261,
      "presidenttiehdo": 4262,
      "##ilen": 4263,
      "##kua": 4264,
      "alan": 4265,
      "mennyt": 4266,
      "##estäni": 4267,
      "tyttä": 4268,
      "##dun": 4269,
      "##ät": 4270,
      "##juh": 4271,
      "kamer": 4272,
      "lip": 4273,
      "##ointi": 4274,
      "viestipalvelu": 4275,
      "heiken": 4276,
      "jyr": 4277,
      "##lista": 4278,
      "tahansa": 4279,
      "halla": 4280,
      "sanomien": 4281,
      "instagramissa": 4282,
      "##ksiin": 4283,
      "alas": 4284,
      "palkka": 4285,
      "iski": 4286,
      "##valtu": 4287,
      "julkaise": 4288,
      "omat": 4289,
      "##ste": 4290,
      "##saa": 4291,
      "saisi": 4292,
      "liikaa": 4293,
      "kone": 4294,
      "yliopiston": 4295,
      "##vuus": 4296,
      "##kasti": 4297,
      "heistä": 4298,
      "videon": 4299,
      "ryhmä": 4300,
      "##mpaan": 4301,
      "poist": 4302,
      "##ttelut": 4303,
      "tilaa": 4304,
      "huomauttaa": 4305,
      "ele": 4306,
      "##pist": 4307,
      "##muksia": 4308,
      "##jiä": 4309,
      "##be": 4310,
      "je": 4311,
      "##kso": 4312,
      "##ralla": 4313,
      "hamas": 4314,
      "lisään": 4315,
      "kuukausi": 4316,
      "täysi": 4317,
      "missään": 4318,
      "dokumen": 4319,
      "##fa": 4320,
      "lakko": 4321,
      "kein": 4322,
      "yritti": 4323,
      "parempi": 4324,
      "ainoastaan": 4325,
      "##ilin": 4326,
      "joutuu": 4327,
      "##viras": 4328,
      "helsinki": 4329,
      "kävel": 4330,
      "kilpailun": 4331,
      "seurauksena": 4332,
      "haavisto": 4333,
      "hor": 4334,
      "pri": 4335,
      "uno": 4336,
      "##iky": 4337,
      "##ksista": 4338,
      "##eellä": 4339,
      "vuodessa": 4340,
      "sotilaa": 4341,
      "lausunn": 4342,
      "bra": 4343,
      "##daa": 4344,
      "##joja": 4345,
      "viimeinen": 4346,
      "pron": 4347,
      "##utuminen": 4348,
      "rauhan": 4349,
      "onnettomuus": 4350,
      "kotona": 4351,
      "##ltaan": 4352,
      "joe": 4353,
      "kakkos": 4354,
      "kiinan": 4355,
      "##yneet": 4356,
      "kasvoi": 4357,
      "ensimmäisenä": 4358,
      "ammattila": 4359,
      "ajaa": 4360,
      "##uin": 4361,
      "harjoi": 4362,
      "##tieteen": 4363,
      "säännö": 4364,
      "##iaan": 4365,
      "tuntui": 4366,
      "tuuli": 4367,
      "ehd": 4368,
      "##sille": 4369,
      "venäläis": 4370,
      "300": 4371,
      "##mmo": 4372,
      "jokainen": 4373,
      "päähän": 4374,
      "##dät": 4375,
      "##peä": 4376,
      "marraskuussa": 4377,
      "kriti": 4378,
      "maaliskuussa": 4379,
      "##urva": 4380,
      "nousee": 4381,
      "vihr": 4382,
      "valvon": 4383,
      "kunta": 4384,
      "neuvos": 4385,
      "hetken": 4386,
      "uhri": 4387,
      "vahvistaa": 4388,
      "prof": 4389,
      "##yksellä": 4390,
      "kevään": 4391,
      "kunnan": 4392,
      "kuljet": 4393,
      "ampuma": 4394,
      "pohtii": 4395,
      "ongelmia": 4396,
      "mestari": 4397,
      "vor": 4398,
      "##ukä": 4399,
      "mad": 4400,
      "##joen": 4401,
      "##töä": 4402,
      "marin": 4403,
      "kaikkiaan": 4404,
      "tutus": 4405,
      "roh": 4406,
      "yllättä": 4407,
      "ymmärtää": 4408,
      "vihre": 4409,
      "sivi": 4410,
      "vuode": 4411,
      "lata": 4412,
      "##alaisen": 4413,
      "selvä": 4414,
      "##mpiin": 4415,
      "osan": 4416,
      "kisan": 4417,
      "pystyy": 4418,
      "auki": 4419,
      "neli": 4420,
      "##välin": 4421,
      "kiire": 4422,
      "tea": 4423,
      "kevä": 4424,
      "2017": 4425,
      "vettä": 4426,
      "riippu": 4427,
      "##llisimman": 4428,
      "cha": 4429,
      "om": 4430,
      "##ler": 4431,
      "vien": 4432,
      "olemassa": 4433,
      "liban": 4434,
      "maajoukkue": 4435,
      "##pua": 4436,
      "vauh": 4437,
      "menes": 4438,
      "pyörä": 4439,
      "toukokuussa": 4440,
      "##pään": 4441,
      "##..": 4442,
      "##ere": 4443,
      "viranomaiset": 4444,
      "charl": 4445,
      "paino": 4446,
      "hah": 4447,
      "saaneet": 4448,
      "##lääkä": 4449,
      "ruotsissa": 4450,
      "numer": 4451,
      "spor": 4452,
      "##dään": 4453,
      "samm": 4454,
      "oulussa": 4455,
      "aikoina": 4456,
      "kuninkaa": 4457,
      "rann": 4458,
      "jättää": 4459,
      "##oituksen": 4460,
      "harjoitus": 4461,
      "kehi": 4462,
      "haluan": 4463,
      "lokakuussa": 4464,
      "##ya": 4465,
      "toisessa": 4466,
      "mahdollisimman": 4467,
      "veden": 4468,
      "laajen": 4469,
      "tytär": 4470,
      "##omaan": 4471,
      "##uneen": 4472,
      "##tähti": 4473,
      "##uran": 4474,
      "##mmassa": 4475,
      "keskustan": 4476,
      "viet": 4477,
      "lopet": 4478,
      "##ystävä": 4479,
      "havain": 4480,
      "##tas": 4481,
      "##tille": 4482,
      "oikea": 4483,
      "tiedon": 4484,
      "puolustusministeri": 4485,
      "hävi": 4486,
      "sisään": 4487,
      "afp": 4488,
      "kö": 4489,
      "kyn": 4490,
      "##ji": 4491,
      "pakko": 4492,
      "sanna": 4493,
      "roman": 4494,
      "historia": 4495,
      "myynti": 4496,
      "muua": 4497,
      "vauri": 4498,
      "##yttävä": 4499,
      "##vonen": 4500,
      "naura": 4501,
      "ystävä": 4502,
      "bbc": 4503,
      "do": 4504,
      "sto": 4505,
      "##dettiin": 4506,
      "ansa": 4507,
      "vaalit": 4508,
      "lopu": 4509,
      "konf": 4510,
      "yllätys": 4511,
      "joukossa": 4512,
      "tarvitta": 4513,
      "ranskan": 4514,
      "ravintola": 4515,
      "tampereen": 4516,
      "varsinais": 4517,
      "kulttuur": 4518,
      "merkittävä": 4519,
      "täyde": 4520,
      "asunto": 4521,
      "##lik": 4522,
      "##koti": 4523,
      "kaver": 4524,
      "työtä": 4525,
      "niinistö": 4526,
      "##nön": 4527,
      "##sit": 4528,
      "jaka": 4529,
      "##ley": 4530,
      "saatiin": 4531,
      "arvon": 4532,
      "##koihin": 4533,
      "sijaitsee": 4534,
      "vahvista": 4535,
      "sopimuksen": 4536,
      "laulaja": 4537,
      "kuol": 4538,
      "sytt": 4539,
      "##kr": 4540,
      "##upäi": 4541,
      "##innassa": 4542,
      "tunnet": 4543,
      "elokuussa": 4544,
      "komp": 4545,
      "##isillä": 4546,
      "haki": 4547,
      "tunne": 4548,
      "venäjälle": 4549,
      "koira": 4550,
      "näkem": 4551,
      "32": 4552,
      "mann": 4553,
      "##mmalla": 4554,
      "##bu": 4555,
      "##essori": 4556,
      "näistä": 4557,
      "##rjassa": 4558,
      "sovi": 4559,
      "vahvasti": 4560,
      "yrityksen": 4561,
      "maahanm": 4562,
      "ennätys": 4563,
      "toiseen": 4564,
      "##lliseksi": 4565,
      "lopulla": 4566,
      "##ellaan": 4567,
      "tulipal": 4568,
      "törmä": 4569,
      "rakenne": 4570,
      "hyväksy": 4571,
      "jaksossa": 4572,
      "kuninga": 4573,
      "400": 4574,
      "##bin": 4575,
      "##ongel": 4576,
      "##kohd": 4577,
      "toisin": 4578,
      "osaval": 4579,
      "edustaja": 4580,
      "##tteeseen": 4581,
      "face": 4582,
      "sito": 4583,
      "##pain": 4584,
      "raj": 4585,
      "anal": 4586,
      "##lässä": 4587,
      "harras": 4588,
      "elämää": 4589,
      "syntynyt": 4590,
      "cather": 4591,
      "hon": 4592,
      "##llas": 4593,
      "lait": 4594,
      "pohj": 4595,
      "syystä": 4596,
      "nähnyt": 4597,
      "tutkinnan": 4598,
      "##ganis": 4599,
      "ollen": 4600,
      "##sian": 4601,
      "kovaa": 4602,
      "asiakas": 4603,
      "##mmaksi": 4604,
      "##henkilö": 4605,
      "tiedotus": 4606,
      "kärki": 4607,
      "tasavallan": 4608,
      "teemu": 4609,
      "##skin": 4610,
      "##teri": 4611,
      "joudu": 4612,
      "##yneen": 4613,
      "olosuh": 4614,
      "loma": 4615,
      "##istettiin": 4616,
      "hyödyn": 4617,
      "34": 4618,
      "gra": 4619,
      "##tävät": 4620,
      "##oitiin": 4621,
      "yhtenä": 4622,
      "##önen": 4623,
      "##kkejä": 4624,
      "vaihtoehto": 4625,
      "tarvitaan": 4626,
      "erin": 4627,
      "hää": 4628,
      "##mmasta": 4629,
      "syyttäjä": 4630,
      "ainakaan": 4631,
      "käsite": 4632,
      "palasi": 4633,
      "hallinto": 4634,
      "##ström": 4635,
      "osin": 4636,
      "##iku": 4637,
      "suomesta": 4638,
      "##llisesta": 4639,
      "löyty": 4640,
      "##itetaan": 4641,
      "kiinnosta": 4642,
      "nuoret": 4643,
      "##kkaat": 4644,
      "##ittu": 4645,
      "paitsi": 4646,
      "auttaa": 4647,
      "reag": 4648,
      "oikeasti": 4649,
      "juoks": 4650,
      "hom": 4651,
      "nyr": 4652,
      "##ssin": 4653,
      "##kisen": 4654,
      "##isuudesta": 4655,
      "##maansa": 4656,
      "##tonin": 4657,
      "puoliväli": 4658,
      "fo": 4659,
      "##pul": 4660,
      "##ttän": 4661,
      "tähd": 4662,
      "##udet": 4663,
      "ottanut": 4664,
      "##miehen": 4665,
      "##issut": 4666,
      "tuotanto": 4667,
      "william": 4668,
      "##vyys": 4669,
      "##komite": 4670,
      "##pallo": 4671,
      "maria": 4672,
      "jänn": 4673,
      "##eraa": 4674,
      "saun": 4675,
      "##käyttö": 4676,
      "hyviä": 4677,
      "osoitta": 4678,
      "ilmoitta": 4679,
      "yrittää": 4680,
      "hs": 4681,
      "jaa": 4682,
      "##tunn": 4683,
      "##isar": 4684,
      "##isku": 4685,
      "##ännyt": 4686,
      "laine": 4687,
      "näiden": 4688,
      "##omista": 4689,
      "##uda": 4690,
      "harki": 4691,
      "häl": 4692,
      "kunnia": 4693,
      "entisen": 4694,
      "mäki": 4695,
      "keskustelua": 4696,
      "miehet": 4697,
      "##mattom": 4698,
      "aloit": 4699,
      "##vaara": 4700,
      "john": 4701,
      "oulula": 4702,
      "tarjolla": 4703,
      "sairaala": 4704,
      "törkeästä": 4705,
      "au": 4706,
      "nosti": 4707,
      "ölj": 4708,
      "##etyn": 4709,
      "sade": 4710,
      "##ester": 4711,
      "muistelee": 4712,
      "fyys": 4713,
      "##eissa": 4714,
      "##ova": 4715,
      "kuvia": 4716,
      "##mpana": 4717,
      "##htia": 4718,
      "##mmät": 4719,
      "##kela": 4720,
      "tuho": 4721,
      "hope": 4722,
      "slo": 4723,
      "##pitel": 4724,
      "##jet": 4725,
      "toimen": 4726,
      "varmista": 4727,
      "##veä": 4728,
      "terä": 4729,
      "voittaa": 4730,
      "työskenne": 4731,
      "huomattavasti": 4732,
      "heh": 4733,
      "##lasta": 4734,
      "##zb": 4735,
      "sav": 4736,
      "##land": 4737,
      "real": 4738,
      "##kilön": 4739,
      "elämään": 4740,
      "ilmasto": 4741,
      "päätöks": 4742,
      "kilpailu": 4743,
      "kuukautta": 4744,
      "joukko": 4745,
      "##sk": 4746,
      "jari": 4747,
      "vuokra": 4748,
      "eurovi": 4749,
      "pahoinpitel": 4750,
      "##boo": 4751,
      "##saar": 4752,
      "jossain": 4753,
      "vaikutus": 4754,
      "nuore": 4755,
      "kehitys": 4756,
      "edellisen": 4757,
      "valmistel": 4758,
      "eva": 4759,
      "##ror": 4760,
      "##ös": 4761,
      "päätyi": 4762,
      "haus": 4763,
      "tulo": 4764,
      "tietoja": 4765,
      "ikk": 4766,
      "##eeseen": 4767,
      "##py": 4768,
      "##enin": 4769,
      "##hdin": 4770,
      "toy": 4771,
      "esille": 4772,
      "puolet": 4773,
      "alkuperä": 4774,
      "cnn": 4775,
      "viita": 4776,
      "##uttava": 4777,
      "aluksi": 4778,
      "liikenn": 4779,
      "kaar": 4780,
      "siirtyi": 4781,
      "antanut": 4782,
      "jyvä": 4783,
      "pudotuspel": 4784,
      "far": 4785,
      "olli": 4786,
      "##ak": 4787,
      "maasto": 4788,
      "osuus": 4789,
      "käydä": 4790,
      "##ttelemaan": 4791,
      "räjä": 4792,
      "ukrainaan": 4793,
      "fran": 4794,
      "##rassa": 4795,
      "alta": 4796,
      "huone": 4797,
      "suuren": 4798,
      "yrittä": 4799,
      "onnistui": 4800,
      "##ph": 4801,
      "joko": 4802,
      "viid": 4803,
      "rakas": 4804,
      "yhtään": 4805,
      "esitys": 4806,
      "##htuu": 4807,
      "mielestäni": 4808,
      "euroopassa": 4809,
      "ajatus": 4810,
      "dani": 4811,
      "lyö": 4812,
      "sekunn": 4813,
      "rajan": 4814,
      "naiset": 4815,
      "helppo": 4816,
      "remon": 4817,
      "heillä": 4818,
      "kansallis": 4819,
      "kuljettaja": 4820,
      "podcast": 4821,
      "##rinen": 4822,
      "##anin": 4823,
      "johd": 4824,
      "##ood": 4825,
      "hyväksi": 4826,
      "etteivät": 4827,
      "välit": 4828,
      "nopea": 4829,
      "käynnissä": 4830,
      "##talon": 4831,
      "häiriö": 4832,
      "soi": 4833,
      "##joista": 4834,
      "astetta": 4835,
      "kaikista": 4836,
      "julkisuudessa": 4837,
      "##liiken": 4838,
      "lauantain": 4839,
      "kustann": 4840,
      "hann": 4841,
      "of": 4842,
      "##use": 4843,
      "##rate": 4844,
      "valtu": 4845,
      "viimeksi": 4846,
      "kasvaa": 4847,
      "kritis": 4848,
      "pelastuslaitos": 4849,
      "artikkel": 4850,
      "36": 4851,
      "korona": 4852,
      "mari": 4853,
      "erik": 4854,
      "kuor": 4855,
      "hii": 4856,
      "aiheutti": 4857,
      "heinäkuussa": 4858,
      "##pot": 4859,
      "viittaa": 4860,
      "tunnel": 4861,
      "katsoi": 4862,
      "matkan": 4863,
      "ryhmän": 4864,
      "musiikki": 4865,
      "wal": 4866,
      "##pite": 4867,
      "##minister": 4868,
      "vastuu": 4869,
      "kertoivat": 4870,
      "äänestys": 4871,
      "murh": 4872,
      "##utuneet": 4873,
      "##ttömästi": 4874,
      "kiv": 4875,
      "aikataul": 4876,
      "##osassa": 4877,
      "löytää": 4878,
      "sprin": 4879,
      "faceboo": 4880,
      "jyväsky": 4881,
      "dra": 4882,
      "th": 4883,
      "tyr": 4884,
      "##sty": 4885,
      "##änsä": 4886,
      "##istin": 4887,
      "kunni": 4888,
      "siirto": 4889,
      "purra": 4890,
      "paljastaa": 4891,
      "cr": 4892,
      "osi": 4893,
      "##das": 4894,
      "##utetta": 4895,
      "mieleen": 4896,
      "myöntää": 4897,
      "tyypi": 4898,
      "tuskin": 4899,
      "33": 4900,
      "##ttynyt": 4901,
      "##ttäneet": 4902,
      "vall": 4903,
      "##rangaist": 4904,
      "heille": 4905,
      "ulkopuol": 4906,
      "näkökul": 4907,
      "##eessa": 4908,
      "##urn": 4909,
      "joutunut": 4910,
      "totu": 4911,
      "maku": 4912,
      "kierroksella": 4913,
      "usa": 4914,
      "##kosta": 4915,
      "jor": 4916,
      "palesti": 4917,
      "tuolla": 4918,
      "##toimin": 4919,
      "poliit": 4920,
      "##poliitt": 4921,
      "2014": 4922,
      "hetki": 4923,
      "tiedustel": 4924,
      "kohdistu": 4925,
      "tappio": 4926,
      "käynnist": 4927,
      "osallistui": 4928,
      "##isty": 4929,
      "##omin": 4930,
      "korvaa": 4931,
      "veren": 4932,
      "työnanta": 4933,
      "puk": 4934,
      "uus": 4935,
      "upe": 4936,
      "##jetta": 4937,
      "kivi": 4938,
      "päättää": 4939,
      "maata": 4940,
      "vol": 4941,
      "##illut": 4942,
      "##isissä": 4943,
      "ark": 4944,
      "asteen": 4945,
      "inves": 4946,
      "vantaan": 4947,
      "oikeudenkäyn": 4948,
      "spe": 4949,
      "##ejä": 4950,
      "##yhdist": 4951,
      "##by": 4952,
      "niihin": 4953,
      "##ranta": 4954,
      "sydä": 4955,
      "kari": 4956,
      "käytetty": 4957,
      "aamulla": 4958,
      "vaimonsa": 4959,
      "bl": 4960,
      "##kau": 4961,
      "##aalia": 4962,
      "##kille": 4963,
      "tarina": 4964,
      "##ministerin": 4965,
      "tapaus": 4966,
      "kuvaili": 4967,
      "britannian": 4968,
      "##kp": 4969,
      "tilasto": 4970,
      "##istiin": 4971,
      "tiedotta": 4972,
      "musiik": 4973,
      "rovaniem": 4974,
      "hiljattain": 4975,
      "##pro": 4976,
      "##isiko": 4977,
      "kadon": 4978,
      "##kkinen": 4979,
      "menet": 4980,
      "lapissa": 4981,
      "##vuoden": 4982,
      "kotima": 4983,
      "sulje": 4984,
      "pelkästään": 4985,
      "##ttoi": 4986,
      "##uttavat": 4987,
      "##missä": 4988,
      "esittää": 4989,
      "jalkapall": 4990,
      "aje": 4991,
      "##jk": 4992,
      "##immat": 4993,
      "##ikassa": 4994,
      "vaaleissa": 4995,
      "inter": 4996,
      "mietti": 4997,
      "katsoa": 4998,
      "toiminnan": 4999
    }
  }
}