<unk>	0
<s>	0
</s>	0
.	-3.28503
n	-3.32783
,	-3.65154
▁	-3.74249
a	-3.79871
t	-4.33929
▁ja	-4.47239
▁on	-4.514
i	-4.68814
-	-4.83917
in	-4.98524
ssa	-5.03708
en	-5.05158
ta	-5.07415
ä	-5.10236
s	-5.14575
sta	-5.30489
▁että	-5.38738
ja	-5.41604
lla	-5.48075
lle	-5.50601
an	-5.53173
▁ei	-5.54726
si	-5.62309
e	-5.65988
u	-5.70813
▁oli	-5.70845
h	-5.71067
r	-5.73811
:	-5.74584
ko	-5.81726
la	-5.85267
na	-5.85766
ksi	-5.90481
o	-5.98888
l	-5.99168
te	-5.99769
kin	-5.999
tu	-6.0115
y	-6.05639
on	-6.07629
sti	-6.08813
▁mukaan	-6.09535
tä	-6.11024
ka	-6.11986
ri	-6.14678
ki	-6.14875
▁se	-6.19387
vat	-6.20286
ista	-6.23687
ke	-6.24615
ssä	-6.2477
▁ole	-6.24905
to	-6.25658
m	-6.27726
▁-	-6.27771
tti	-6.28181
us	-6.28545
▁myös	-6.29167
k	-6.32155
tta	-6.3265
ni	-6.32778
va	-6.3364
stä	-6.34963
ti	-6.35135
sa	-6.35332
▁jo	-6.35349
maan	-6.37158
▁hän	-6.37633
vi	-6.38653
▁ovat	-6.40222
li	-6.41764
▁kun	-6.41803
nen	-6.43299
▁mutta	-6.43717
inen	-6.46442
ma	-6.47104
et	-6.48325
▁voi	-6.52461
▁A	-6.54043
d	-6.5475
is	-6.55349
issa	-6.5577
llä	-6.57149
ku	-6.58361
nut	-6.59318
le	-6.60799
pa	-6.64353
ra	-6.64408
re	-6.64814
kä	-6.67336
mme	-6.69261
▁tai	-6.69271
lta	-6.70955
ille	-6.71105
ttu	-6.71986
lo	-6.7205
▁ollut	-6.74784
nsa	-6.758
ro	-6.75852
vät	-6.76544
ty	-6.76726
pu	-6.76772
nä	-6.78072
▁E	-6.78481
p	-6.78611
illa	-6.79716
jen	-6.80188
▁kertoo	-6.81005
▁S	-6.81648
ne	-6.81663
jä	-6.81871
▁Hän	-6.82947
▁joka	-6.83175
mi	-6.83523
sen	-6.84068
▁(	-6.85823
▁"	-6.86977
un	-6.87941
▁Se	-6.8929
lu	-6.91759
▁jälkeen	-6.93176
ita	-6.93386
▁o	-6.95393
▁O	-6.95838
neet	-6.9636
▁kuin	-6.96421
▁kanssa	-6.96822
▁saa	-6.98384
ttä	-6.98715
ten	-7.00089
de	-7.00638
▁ra	-7.02328
▁ka	-7.02416
▁niin	-7.02501
taan	-7.02876
istä	-7.0318
ve	-7.03633
▁sen	-7.04481
ihin	-7.04609
ö	-7.05396
jo	-7.0553
isi	-7.05589
▁pa	-7.06256
▁viime	-7.07069
iden	-7.07301
pi	-7.07848
)	-7.09228
no	-7.09386
mo	-7.09728
se	-7.10127
▁pää	-7.10871
ho	-7.10986
kka	-7.11304
minen	-7.11954
he	-7.1319
isen	-7.13368
da	-7.13778
▁Suomen	-7.13807
än	-7.13875
"	-7.1425
mä	-7.14831
▁olisi	-7.15225
▁sanoo	-7.15368
▁vuonna	-7.15444
ha	-7.15503
ia	-7.1613
g	-7.16668
▁I	-7.17285
me	-7.18784
▁ma	-7.18912
pe	-7.22277
c	-7.22835
nyt	-7.22932
▁työ	-7.23117
▁pi	-7.244
▁La	-7.24474
van	-7.2551
▁Ka	-7.25774
▁Sa	-7.2629
kko	-7.26608
▁la	-7.26949
2	-7.27287
kki	-7.2764
er	-7.29028
▁sekä	-7.29671
ttiin	-7.29767
▁Jo	-7.30533
v	-7.3134
lä	-7.31444
lan	-7.31892
▁olla	-7.31957
tö	-7.3214
neen	-7.32591
di	-7.32963
nne	-7.33126
▁kertoi	-7.3318
▁vielä	-7.33283
▁Ko	-7.33535
▁yli	-7.33806
po	-7.3408
▁ke	-7.36889
▁hänen	-7.37003
▁tuo	-7.38331
▁vuoden	-7.38855
man	-7.39095
3	-7.40058
9	-7.41003
0	-7.41618
▁nyt	-7.41727
do	-7.4281
▁Ja	-7.42854
sin	-7.42858
▁vain	-7.43315
▁K	-7.43503
▁ku	-7.44494
?	-7.44508
▁Ma	-7.45359
▁siitä	-7.4542
▁Ta	-7.45451
ttaa	-7.45948
so	-7.46229
▁kuitenkin	-7.46419
teen	-7.46472
maa	-7.46732
▁va	-7.46816
4	-7.46855
vä	-7.46857
▁toimi	-7.46995
▁To	-7.47446
▁käy	-7.47763
1	-7.4798
▁Mi	-7.4843
▁he	-7.48609
▁sanoi	-7.48631
llis	-7.48702
▁koko	-7.48933
sto	-7.50312
▁P	-7.50428
kse	-7.50754
▁osa	-7.50795
▁ko	-7.51147
lin	-7.51317
▁sitä	-7.51995
essa	-7.52386
▁F	-7.52498
▁ha	-7.52505
7	-7.52792
▁T	-7.53376
8	-7.53621
▁Si	-7.53705
▁Ra	-7.53752
▁te	-7.54126
ssi	-7.5476
hi	-7.55589
taa	-7.56444
▁esi	-7.56816
elle	-7.56893
mista	-7.56941
▁sa	-7.56993
▁ki	-7.57087
nsä	-7.57207
rin	-7.57225
▁po	-7.57503
▁Li	-7.57633
▁aikana	-7.57816
mis	-7.57983
▁si	-7.58039
tus	-7.58235
▁itse	-7.58255
▁Pa	-7.58369
▁jossa	-7.58728
▁noin	-7.5891
5	-7.59341
lli	-7.59417
mään	-7.59727
▁to	-7.5981
▁yksi	-7.60218
su	-7.60434
it	-7.60463
▁Ku	-7.60713
z	-7.61148
itä	-7.61306
vo	-7.6141
lainen	-7.61627
▁sai	-7.62174
mpi	-7.62354
uksia	-7.62431
▁kaksi	-7.62456
▁paljon	-7.6254
▁le	-7.62957
aan	-7.63247
tys	-7.63646
▁hyvä	-7.63715
▁eri	-7.63756
tty	-7.63839
hti	-7.64063
▁ennen	-7.64336
sä	-7.64879
▁hyvin	-7.6498
ltä	-7.65267
pä	-7.6539
kke	-7.65436
▁Ha	-7.65551
▁eivät	-7.66561
▁sitten	-7.66601
▁tu	-7.66733
kuu	-7.67067
▁me	-7.67377
misen	-7.6743
kaa	-7.68368
6	-7.68606
ut	-7.68759
hde	-7.6907
­	-7.69237
▁sillä	-7.69653
▁Venäjän	-7.70339
▁kaikki	-7.70619
▁B	-7.71068
issä	-7.72118
ste	-7.72255
▁jos	-7.72282
ska	-7.72558
▁He	-7.72872
ju	-7.73252
massa	-7.73412
usta	-7.73496
▁mu	-7.73823
hu	-7.73884
▁Ki	-7.73985
kaan	-7.74173
▁muassa	-7.74317
ur	-7.74443
▁eli	-7.74573
▁muun	-7.74763
S	-7.75013
P	-7.75207
kö	-7.7524
▁luo	-7.75519
▁C	-7.75947
ään	-7.75971
▁syy	-7.76039
▁ase	-7.76328
▁auto	-7.76542
▁19	-7.76568
▁su	-7.76689
os	-7.76781
▁esimerkiksi	-7.77132
tto	-7.77686
ili	-7.77822
▁vie	-7.7789
tään	-7.78067
▁e	-7.78092
tin	-7.78353
▁hu	-7.78609
▁tulee	-7.78734
▁kuva	-7.78837
kään	-7.78999
▁tuli	-7.79061
uksen	-7.79189
oi	-7.79358
▁Va	-7.7939
▁vasta	-7.79902
mmi	-7.80564
han	-7.80644
▁Tu	-7.80795
▁Te	-7.80896
tuu	-7.80986
▁U	-7.81098
llinen	-7.81194
f	-7.81989
tte	-7.82423
▁aja	-7.82583
▁ettei	-7.82588
esta	-7.82653
lais	-7.82695
▁Le	-7.82941
▁ensi	-7.83688
ar	-7.83718
▁vastaan	-7.83845
▁000	-7.83921
▁pu	-7.83937
kku	-7.83945
▁pitää	-7.84231
ru	-7.84489
▁mitä	-7.84607
▁jotk	-7.8486
men	-7.85065
▁Y	-7.85473
kan	-7.855
ng	-7.85708
▁olivat	-7.86594
K	-7.86754
▁Ro	-7.86862
ikka	-7.86877
▁euroa	-7.87206
je	-7.87223
b	-7.87303
illä	-7.87512
▁katso	-7.88147
ella	-7.88334
▁Jos	-7.88517
▁4	-7.88673
▁lisää	-7.88953
▁vuotta	-7.89024
nti	-7.89039
▁Pi	-7.89071
▁En	-7.89634
via	-7.90035
utta	-7.90143
▁Kun	-7.90555
▁jää	-7.90588
ran	-7.90783
▁oma	-7.91014
ga	-7.9125
▁henkilö	-7.91282
▁Ni	-7.91368
▁aika	-7.91482
al	-7.91632
ske	-7.91674
T	-7.9198
kseen	-7.92409
▁peli	-7.92534
mu	-7.92573
ttää	-7.92576
tiin	-7.92753
A	-7.93002
▁kuu	-7.93108
▁Ke	-7.93109
isesti	-7.93149
▁maa	-7.93356
ika	-7.93676
ppi	-7.93785
▁re	-7.93786
▁väli	-7.93803
el	-7.93845
▁koti	-7.93999
▁p	-7.94301
▁Ri	-7.94427
▁20	-7.94613
vaa	-7.94674
▁asu	-7.94765
▁ne	-7.94915
▁Me	-7.95173
▁jonka	-7.95386
▁poliisi	-7.95462
▁al	-7.95848
ön	-7.95966
kkaa	-7.95977
▁3	-7.96358
▁keski	-7.96366
▁määrä	-7.96388
tila	-7.96633
een	-7.96933
▁Poliisi	-7.97357
▁muut	-7.97933
▁Ju	-7.98108
rä	-7.9876
kas	-7.98802
▁kolme	-7.98904
▁5	-7.99616
▁pe	-7.99707
ji	-7.99844
▁hi	-8.00065
den	-8.00074
▁so	-8.00988
ys	-8.01122
▁seura	-8.01138
du	-8.01317
▁Ei	-8.01546
▁Pe	-8.01695
▁Al	-8.02046
ly	-8.02239
ttava	-8.02452
▁vaikka	-8.02459
iin	-8.02489
▁iso	-8.02581
▁Mu	-8.0264
tteli	-8.02693
ilu	-8.0275
▁Suomessa	-8.02763
▁pois	-8.02843
ski	-8.03002
▁ai	-8.03263
▁asia	-8.03366
ky	-8.03914
▁puhu	-8.03978
nee	-8.04076
▁koska	-8.04241
ilta	-8.04258
essä	-8.04366
vuo	-8.04517
isia	-8.0507
vu	-8.05352
ellä	-8.0551
▁Ho	-8.05848
iset	-8.05965
▁presidentti	-8.0612
▁Venäjä	-8.06259
isiin	-8.06638
▁tämän	-8.06653
kon	-8.06786
tava	-8.07135
ppa	-8.07336
or	-8.07392
estä	-8.07517
▁koulu	-8.08422
▁pari	-8.08562
▁maali	-8.08913
▁1	-8.09613
▁Hu	-8.09784
▁suomalais	-8.09854
▁ajan	-8.09959
ks	-8.10513
▁käsi	-8.10554
ck	-8.10657
".	-8.10799
▁aiemmin	-8.10938
▁siihen	-8.11136
▁tämä	-8.11289
▁Myös	-8.11415
▁miten	-8.11424
ina	-8.11767
▁Ar	-8.11899
▁M	-8.12274
▁mi	-8.12381
▁lu	-8.12656
misesta	-8.1283
ver	-8.13126
ää	-8.13129
min	-8.13218
▁muu	-8.13364
vuotias	-8.13389
▁Tämä	-8.13507
miseen	-8.13633
▁vara	-8.1365
voi	-8.13799
tettiin	-8.13817
il	-8.13874
▁Vi	-8.13919
▁enemmän	-8.13957
tuksen	-8.14171
staan	-8.14183
▁kommentoi	-8.14279
▁Mo	-8.14613
▁vii	-8.14628
▁tällä	-8.14701
▁aina	-8.14717
▁Kuva	-8.15055
▁Pu	-8.1545
ll	-8.15515
▁ve	-8.15982
▁tutki	-8.15994
▁Val	-8.16055
▁Su	-8.16371
mma	-8.16395
▁Ve	-8.16436
▁Nyt	-8.16713
mia	-8.16862
jien	-8.16919
▁arvioi	-8.16962
▁lisäksi	-8.17132
nnan	-8.17437
ksen	-8.17439
▁kau	-8.17873
▁u	-8.17905
▁Tä	-8.17953
▁neljä	-8.18066
▁kertaa	-8.18077
▁vai	-8.18623
din	-8.18699
▁ri	-8.18699
▁Suomi	-8.18904
lleen	-8.18925
ba	-8.18983
aika	-8.19099
isten	-8.19253
▁li	-8.1935
tyy	-8.19354
▁So	-8.19399
tettu	-8.1942
ttävä	-8.1958
bi	-8.19653
▁mies	-8.19788
▁G	-8.19995
▁ar	-8.20177
hdi	-8.20195
▁Na	-8.20607
▁vali	-8.21138
C	-8.2116
▁selvi	-8.21341
talo	-8.21358
mm	-8.21511
▁uusi	-8.21699
laa	-8.21737
▁mikä	-8.22041
iä	-8.22409
▁elä	-8.22557
tää	-8.2293
▁pitkä	-8.22981
▁vaan	-8.23045
▁ihan	-8.23123
▁Re	-8.23135
▁kar	-8.23217
▁mo	-8.23228
▁V	-8.23265
▁puhe	-8.23476
▁puu	-8.23597
▁MM	-8.23621
tun	-8.23776
▁tapa	-8.23895
isin	-8.24013
▁mitään	-8.2428
ot	-8.24358
w	-8.24466
jat	-8.24568
auto	-8.24666
▁var	-8.24868
▁hy	-8.25069
nnut	-8.25187
L	-8.25316
vien	-8.25521
▁päivä	-8.25582
pää	-8.25652
▁tila	-8.26218
x	-8.26626
▁Po	-8.26915
▁Ti	-8.27052
▁arvo	-8.27242
▁teki	-8.27256
malla	-8.27435
▁tuleva	-8.27532
iko	-8.27628
▁ero	-8.27824
gi	-8.27854
▁jopa	-8.28806
ppu	-8.28911
▁6	-8.28964
eksi	-8.29088
▁Trump	-8.29093
▁matka	-8.29116
yty	-8.29527
▁Ukrainan	-8.29554
ttua	-8.29877
kohta	-8.30067
▁Ne	-8.30116
▁prosenttia	-8.30161
▁alku	-8.30282
llisesti	-8.30404
tar	-8.30421
▁loppu	-8.30469
▁tarjo	-8.30759
ry	-8.3087
▁tie	-8.30898
päivä	-8.30911
▁tehdä	-8.31439
▁perus	-8.31749
▁Helsingin	-8.31757
ssaan	-8.31764
ton	-8.31836
▁usko	-8.31851
▁On	-8.31855
aali	-8.3194
ike	-8.31954
hin	-8.31969
▁moni	-8.32549
▁epä	-8.326
tynyt	-8.3266
▁kiinni	-8.3267
▁enää	-8.32671
▁Lo	-8.32916
ude	-8.33079
▁lähes	-8.33532
▁no	-8.3369
halli	-8.34447
llaan	-8.34472
▁Ukraina	-8.3455
vin	-8.34688
▁kello	-8.34887
▁Lu	-8.34965
▁2	-8.35089
stus	-8.35302
dy	-8.354
ttänyt	-8.35434
▁hä	-8.35525
▁ro	-8.35623
▁mahdollis	-8.35697
ps	-8.35736
▁pala	-8.35818
yn	-8.35976
▁sano	-8.36209
▁vaikut	-8.36509
▁lii	-8.36534
▁joukkue	-8.36681
▁näy	-8.37053
▁jäi	-8.37334
▁kirja	-8.37629
▁vuosi	-8.37782
len	-8.37874
▁ilma	-8.38018
go	-8.38084
▁mukana	-8.38252
osa	-8.38287
teet	-8.38338
ol	-8.38351
▁Mar	-8.38469
▁olevan	-8.38639
▁ottelu	-8.38708
llo	-8.38741
▁kisa	-8.3919
tee	-8.39429
▁kasva	-8.39429
!	-8.39528
▁200	-8.39611
▁sy	-8.39616
oma	-8.39972
▁video	-8.40165
sten	-8.40273
▁ju	-8.40318
R	-8.40323
tetty	-8.40362
liitto	-8.40908
son	-8.40923
yri	-8.41203
▁saanut	-8.41384
kunta	-8.41496
har	-8.41672
ava	-8.41707
▁todella	-8.41724
▁kesä	-8.41895
j	-8.41954
▁pelaa	-8.41986
▁f	-8.42237
M	-8.42254
▁10	-8.42504
ivat	-8.42556
▁ulko	-8.428
▁lait	-8.42963
I	-8.43013
▁b	-8.43056
▁en	-8.4316
▁15	-8.43355
▁7	-8.43364
palvelu	-8.4343
ch	-8.43608
im	-8.4368
▁aikaa	-8.43916
vy	-8.44061
sko	-8.44164
ttanut	-8.44347
▁vuoksi	-8.44654
lö	-8.44891
▁tieto	-8.45079
▁juuri	-8.45152
rk	-8.45409
vel	-8.45484
E	-8.45602
▁mene	-8.45957
▁vä	-8.46039
ge	-8.46042
ttele	-8.46047
co	-8.46211
ce	-8.46237
ansa	-8.46248
sy	-8.46422
▁vaali	-8.46439
▁huo	-8.46458
▁pal	-8.46614
var	-8.46916
▁puheenjohtaja	-8.47066
ukset	-8.47142
▁tiedo	-8.47216
mien	-8.47245
ker	-8.47311
▁Viime	-8.47415
johtaja	-8.47608
▁alue	-8.47658
ul	-8.47831
▁syö	-8.47843
▁sää	-8.48129
llista	-8.48174
▁lisä	-8.48356
▁Hi	-8.485
▁pela	-8.4853
▁kuten	-8.48603
▁kautta	-8.48838
▁voisi	-8.48862
▁hei	-8.48987
▁tässä	-8.49219
▁Co	-8.49234
tia	-8.49242
ministeri	-8.49359
▁koke	-8.49505
▁EU	-8.49697
▁kii	-8.49704
stö	-8.49738
työ	-8.50008
tunut	-8.50029
▁Oli	-8.50242
▁vähän	-8.50365
▁kova	-8.50544
▁kulu	-8.50712
▁9	-8.5094
val	-8.51168
tui	-8.51362
laisen	-8.51403
kuva	-8.51423
▁talo	-8.51765
alue	-8.51933
ile	-8.5213
bo	-8.5242
▁tullut	-8.52441
▁kilpailu	-8.52489
mistä	-8.52499
▁puoli	-8.52637
▁ru	-8.52645
▁osallistu	-8.52953
mon	-8.53315
▁kai	-8.53518
tulo	-8.5384
▁8	-8.53885
ven	-8.5397
▁raja	-8.54121
▁nais	-8.54151
▁voima	-8.5436
▁Stubb	-8.54363
fi	-8.54394
em	-8.54431
▁olympia	-8.54655
voima	-8.54871
V	-8.55002
▁lo	-8.5507
▁Pohjois	-8.55086
▁Lisäksi	-8.55248
▁koh	-8.55258
▁Sen	-8.55315
▁nime	-8.55446
▁alkoi	-8.55479
▁juo	-8.55631
▁siinä	-8.55643
yys	-8.55666
tyksen	-8.55821
tetaan	-8.55987
▁sama	-8.5612
ter	-8.56122
▁12	-8.56133
isto	-8.56201
es	-8.56242
▁perhe	-8.56414
▁taka	-8.56419
▁val	-8.56596
▁Hänen	-8.56629
jia	-8.56661
tel	-8.56681
▁ho	-8.56683
▁suu	-8.56686
llisen	-8.57011
istu	-8.57058
▁Ilta	-8.57179
nes	-8.57217
▁pitäisi	-8.57434
llään	-8.57553
▁Har	-8.57643
▁joten	-8.5767
itti	-8.57718
▁pysty	-8.5773
dan	-8.57752
▁aikaan	-8.57797
00	-8.5781
mies	-8.5781
▁lapsi	-8.57834
ele	-8.58075
B	-8.58319
kunnan	-8.58784
▁tosi	-8.58952
st	-8.59027
mer	-8.59203
hte	-8.59218
▁kohtaa	-8.59772
▁saada	-8.59773
mat	-8.59841
mus	-8.59859
▁vir	-8.60093
▁hetkellä	-8.60122
▁taas	-8.60131
toja	-8.60242
▁euro	-8.6046
▁Kor	-8.60547
▁edelleen	-8.60575
▁esiin	-8.606
▁maan	-8.60729
▁kauden	-8.60844
iseen	-8.60924
py	-8.60972
▁takia	-8.61094
eseen	-8.61258
▁kuitenkaan	-8.61376
/	-8.61493
▁suuri	-8.6153
▁Olen	-8.61534
määrä	-8.61615
tie	-8.61886
▁2022	-8.62242
ilija	-8.62377
uuden	-8.62482
▁tar	-8.62695
▁lähet	-8.62807
stään	-8.62981
riko	-8.62997
mmat	-8.63022
▁nuor	-8.63066
dä	-8.63067
▁ilman	-8.63158
▁halua	-8.63189
▁laske	-8.63456
▁sisä	-8.63459
▁Bo	-8.63497
▁Ai	-8.63572
uksesta	-8.63608
▁toinen	-8.63681
▁edes	-8.63733
▁hallitus	-8.6377
peli	-8.63843
▁No	-8.64161
▁ura	-8.644
▁voitto	-8.64459
▁R	-8.64638
▁Yle	-8.6468
ir	-8.64827
▁tavalla	-8.64877
▁maailman	-8.64899
tio	-8.64921
▁mielestä	-8.64986
▁D	-8.65067
uh	-8.65112
ren	-8.65326
uvo	-8.65422
▁/	-8.6548
▁järjest	-8.6556
▁Ba	-8.65602
▁jäsen	-8.65619
oja	-8.65654
▁toisen	-8.65661
ttelu	-8.65876
▁piste	-8.65893
ettiin	-8.65945
▁kuo	-8.66056
vää	-8.66298
▁Mutta	-8.66309
▁L	-8.66428
▁Be	-8.66648
▁sähkö	-8.66696
kset	-8.66723
tävä	-8.66861
▁paikka	-8.66944
ajan	-8.67099
▁yhteis	-8.67115
▁Trumpin	-8.67187
▁alle	-8.67322
ivo	-8.67394
▁vaikea	-8.67398
tut	-8.67435
▁palvelu	-8.6747
▁ainakin	-8.6749
ide	-8.67571
▁Näin	-8.67699
hy	-8.6772
▁Yhdysvaltain	-8.67721
ikko	-8.67831
▁ala	-8.67842
▁asti	-8.6794
▁18	-8.67962
▁maksa	-8.67971
▁osu	-8.68237
▁pelaaja	-8.68314
▁olleet	-8.68339
▁kyse	-8.68483
tusta	-8.68486
▁Je	-8.68526
mmin	-8.68541
▁näin	-8.68594
▁piene	-8.6861
▁vih	-8.68656
▁2023	-8.68774
yd	-8.69008
▁vaati	-8.69016
▁kerto	-8.69027
▁H	-8.69107
▁voitti	-8.69113
itse	-8.69167
▁lä	-8.69536
▁yhdessä	-8.69637
▁siis	-8.69698
H	-8.6976
O	-8.69963
seen	-8.70026
▁ääne	-8.70196
eh	-8.70214
▁kysy	-8.70262
▁tunte	-8.70306
ime	-8.70378
puoli	-8.70406
matta	-8.70449
▁perjantaina	-8.705
ura	-8.70624
▁ihmis	-8.70672
▁miljoonaa	-8.70683
vansa	-8.70689
lti	-8.70733
lje	-8.70757
▁teho	-8.70822
▁meni	-8.70978
▁viesti	-8.71002
yhtiö	-8.71008
uri	-8.71026
toimi	-8.71149
▁ry	-8.71181
▁W	-8.71221
sivat	-8.71256
neensa	-8.71378
▁yleis	-8.71433
ida	-8.7144
▁ajo	-8.71477
▁Vir	-8.71808
uudesta	-8.71836
ryhmä	-8.71894
▁myy	-8.72098
uko	-8.72142
▁kuoli	-8.72222
ottelu	-8.72555
ikki	-8.72685
paikka	-8.72749
valla	-8.72814
▁lauantaina	-8.72864
▁huono	-8.72917
▁X	-8.72919
▁tilanne	-8.72924
▁uuden	-8.73017
▁kor	-8.7304
▁NHL	-8.73071
▁jota	-8.73264
pallo	-8.73296
▁keskustelu	-8.73308
▁seuraa	-8.73371
▁herä	-8.73487
mpa	-8.73629
erä	-8.73727
tanut	-8.73755
uksessa	-8.73823
lm	-8.74077
ria	-8.74122
▁ty	-8.74441
▁kaupungin	-8.74517
20	-8.74519
▁joulu	-8.74568
kilpailu	-8.74765
▁kirjoittaa	-8.74873
▁IS	-8.74902
uudessa	-8.74949
▁seuraava	-8.74985
joukkue	-8.75029
▁isä	-8.75076
mpaa	-8.75107
▁kyllä	-8.75113
▁omi	-8.75333
vän	-8.75483
▁tiedotteessa	-8.75881
kun	-8.7595
nnin	-8.76089
▁oikea	-8.76126
▁niitä	-8.76164
lehti	-8.76184
▁kaudella	-8.76234
htaa	-8.76236
▁Saksa	-8.76292
▁hieman	-8.76348
▁heti	-8.76429
▁kuinka	-8.7647
▁Oulun	-8.76637
kor	-8.76744
suo	-8.7678
asia	-8.76841
kea	-8.76889
▁hallituksen	-8.76908
▁puolustus	-8.76982
esi	-8.77067
▁päästä	-8.77068
▁viikon	-8.77086
▁välillä	-8.77159
▁Kau	-8.77245
ston	-8.77267
ris	-8.7731
miin	-8.77399
▁tapahtuma	-8.77451
▁kahden	-8.77566
▁alkaa	-8.77676
▁17	-8.77677
▁30	-8.77708
▁aloi	-8.77717
▁suur	-8.77802
ito	-8.77871
mman	-8.77894
▁tehnyt	-8.77895
▁11	-8.7791
▁yhtä	-8.78076
don	-8.78221
▁Kar	-8.78234
▁Tuo	-8.78342
▁Nä	-8.78358
▁viikolla	-8.78379
rit	-8.78505
io	-8.7852
▁miehen	-8.78543
▁täysin	-8.78701
▁saman	-8.78706
▁ensimmäisen	-8.78729
▁Voi	-8.78841
itta	-8.78921
ensa	-8.79091
▁julki	-8.79244
▁heidän	-8.79273
▁nyky	-8.79333
▁tänä	-8.7934
tetään	-8.79536
N	-8.79858
ttamaan	-8.79965
▁yhden	-8.80169
▁Ru	-8.80322
▁Maa	-8.80497
▁kävi	-8.80542
▁De	-8.80585
▁kutsu	-8.80655
▁Per	-8.80657
▁Asia	-8.80733
▁myöhemmin	-8.80851
▁turva	-8.80857
imi	-8.80865
▁urheilu	-8.80904
sia	-8.80929
▁tehtävä	-8.80937
▁muuta	-8.81102
▁miele	-8.81125
udu	-8.81176
▁piti	-8.81341
▁Orpo	-8.81343
▁Yksi	-8.81493
▁pääsi	-8.81495
▁kerran	-8.81515
▁sairaala	-8.81556
uksista	-8.81636
ssään	-8.81654
isti	-8.81699
▁sä	-8.81845
ise	-8.81881
▁usea	-8.81987
tojen	-8.81996
▁häntä	-8.82134
▁useita	-8.82143
▁13	-8.82326
▁Euroopan	-8.82379
▁pieni	-8.8241
isiä	-8.82459
▁jatkaa	-8.82709
▁paino	-8.82739
ikä	-8.82747
osta	-8.82915
kasta	-8.82924
▁Tur	-8.82982
hän	-8.82988
▁näky	-8.83033
▁torstaina	-8.83041
▁yö	-8.83104
▁sota	-8.83135
huone	-8.83291
▁nimi	-8.83327
▁Sal	-8.8336
ttelee	-8.83384
▁New	-8.83486
▁Vuo	-8.83554
▁vastaa	-8.83646
▁media	-8.8365
▁Kir	-8.83794
▁nousi	-8.83846
▁aiheutta	-8.83945
suhte	-8.84032
▁ky	-8.84097
raa	-8.84139
▁toivo	-8.84157
▁läpi	-8.84302
▁oleva	-8.84339
▁uhka	-8.84487
mö	-8.84493
▁näyttää	-8.84609
ttavat	-8.84682
kau	-8.85044
D	-8.85104
laisten	-8.8535
ossa	-8.85445
peri	-8.85462
▁16	-8.85529
▁maanantaina	-8.85572
▁tiistaina	-8.85653
▁edusta	-8.85713
▁yllä	-8.85729
▁harjoit	-8.8582
berg	-8.85873
▁Salon	-8.85902
oo	-8.85919
▁aivan	-8.85965
é	-8.86082
rei	-8.861
mässä	-8.86131
1-	-8.86226
▁suure	-8.86286
▁keskiviikkona	-8.86303
▁tehty	-8.86381
▁kuulu	-8.86421
▁alussa	-8.86443
tyi	-8.86452
▁Vaikka	-8.86468
▁Di	-8.86686
▁Er	-8.86893
järjestö	-8.86921
▁Itä	-8.86947
▁siir	-8.87077
▁14	-8.87102
ras	-8.87143
▁Pal	-8.8718
yö	-8.87288
▁Ruotsin	-8.87297
▁rauha	-8.87303
▁silloin	-8.87317
▁puolestaan	-8.8762
▁J	-8.87916
perä	-8.88004
isesta	-8.88153
▁Kaikki	-8.88164
valta	-8.88168
▁voivat	-8.88186
▁kr	-8.88219
▁olen	-8.88235
▁poika	-8.88389
ing	-8.88448
▁lähi	-8.88474
▁koskaan	-8.88606
ttäjä	-8.88614
kkä	-8.88635
▁ti	-8.887
▁sarja	-8.88738
▁alueella	-8.88747
▁sunnuntaina	-8.88965
▁euron	-8.88976
viä	-8.89024
▁usein	-8.89044
▁Hei	-8.89071
▁Ca	-8.89081
tor	-8.89083
▁mahdollista	-8.89093
▁hänet	-8.8913
▁otti	-8.8918
▁lau	-8.89305
lly	-8.8932
uu	-8.89469
▁isku	-8.89472
▁joita	-8.89708
liiga	-8.89779
tori	-8.89791
▁korva	-8.89794
▁vaara	-8.89823
Sanomat	-8.89865
▁erikois	-8.89888
▁perusteella	-8.89935
yksiä	-8.89936
ca	-8.89937
ohjelma	-8.89994
▁Ruotsi	-8.90029
piste	-8.90132
oli	-8.90136
uka	-8.90164
teli	-8.9033
ministeriö	-8.90342
▁ottaa	-8.90354
▁juhli	-8.90369
▁rikos	-8.90408
▁toteaa	-8.90519
▁toisi	-8.90552
iste	-8.90704
▁puolue	-8.90765
▁Israelin	-8.90913
mattom	-8.90928
▁siellä	-8.90935
wa	-8.90942
▁lento	-8.90955
▁sija	-8.91176
▁oppi	-8.9147
▁tätä	-8.91537
ppo	-8.9189
lve	-8.91943
masta	-8.91969
▁asiaa	-8.92086
▁uutisoi	-8.92184
▁nuori	-8.9251
tra	-8.92518
▁Suomeen	-8.92634
▁muutama	-8.92762
iselle	-8.92764
▁asiasta	-8.92824
▁hyväksy	-8.92855
▁yhä	-8.92871
▁Bu	-8.92933
▁varsin	-8.92943
▁pysy	-8.92974
▁huippu	-8.93011
▁tulla	-8.93223
ettu	-8.93341
ell	-8.93401
▁uhri	-8.93592
aine	-8.93631
▁tasa	-8.93636
▁Tie	-8.93654
teiden	-8.93729
esti	-8.93782
sel	-8.93801
▁tapahtui	-8.93881
▁rii	-8.93904
isuus	-8.94159
ija	-8.94194
der	-8.94225
▁Etelä	-8.94283
▁aamu	-8.94296
fa	-8.94359
'	-8.94359
▁ohja	-8.94515
▁mitta	-8.94561
▁tarvitse	-8.94769
laiset	-8.94825
▁hake	-8.94871
▁soi	-8.94959
▁Lä	-8.94975
▁valta	-8.95047
▁ensimmäise	-8.95059
▁my	-8.95096
▁Kai	-8.95097
▁jatko	-8.95141
▁viikko	-8.95184
be	-8.95216
eltä	-8.9524
▁Jä	-8.95318
▁The	-8.95481
▁vero	-8.95482
matka	-8.95532
▁In	-8.95599
miseksi	-8.95643
pin	-8.95724
▁oman	-8.95766
▁Da	-8.95775
▁ver	-8.95931
▁Par	-8.95968
▁ensimmäinen	-8.9597
ien	-8.96003
▁pidä	-8.96015
▁ehkä	-8.96057
▁venäläis	-8.96133
▁Var	-8.96171
).	-8.96176
▁päätös	-8.96228
▁van	-8.96256
U	-8.96433
▁kuolema	-8.96506
▁väh	-8.96521
yttä	-8.96548
▁ratkaisu	-8.96716
▁viisi	-8.96721
mpia	-8.96729
laista	-8.96776
▁Lue	-8.96806
kisa	-8.96853
empi	-8.96927
▁saattaa	-8.97004
my	-8.9701
▁sijaan	-8.97121
▁ihmistä	-8.97164
▁pääministeri	-8.97164
ukka	-8.972
▁Salo	-8.97472
teita	-8.97567
▁istu	-8.97642
▁Ga	-8.97737
isella	-8.97766
lis	-8.97776
▁muita	-8.97895
etaan	-8.97915
arvo	-8.98037
ole	-8.98048
▁valmis	-8.9806
odo	-8.98085
mäki	-8.98269
utui	-8.98366
elta	-8.98368
gin	-8.98596
iseksi	-8.98626
sarja	-8.98797
▁erittäin	-8.98856
▁Putin	-8.98938
jille	-8.98941
uutta	-8.9896
▁N	-8.9902
usten	-8.99037
▁äänestä	-8.99177
▁jälleen	-8.99279
▁mukaansa	-8.99296
▁Z	-8.99305
lvi	-8.99354
▁ruoka	-8.99408
▁tulo	-8.99558
oista	-8.99577
▁linja	-8.99621
▁Norja	-8.99654
otto	-8.99784
▁25	-8.99784
▁turvallisuus	-8.99795
▁etsi	-8.99799
▁toi	-8.99809
▁Kuu	-8.99815
ber	-8.99859
▁edu	-8.99859
lähe	-8.9987
liiton	-8.9987
▁tänään	-8.99907
▁joissa	-8.99939
ppe	-9.0016
),	-9.00519
▁aihe	-9.0052
▁lähti	-9.00556
▁sopi	-9.00728
▁vaikuttaa	-9.00831
kesk	-9.00841
▁por	-9.00851
▁joutui	-9.00976
tystä	-9.01028
▁ihme	-9.01051
▁tekee	-9.01054
▁sosiaali	-9.01135
nnu	-9.0121
▁Mies	-9.01306
▁liikenne	-9.01358
▁äiti	-9.01398
uus	-9.01435
▁terveys	-9.01597
lloin	-9.01622
▁Mari	-9.01623
isu	-9.01625
taso	-9.01693
teri	-9.01702
▁pitkään	-9.01712
ukseen	-9.01763
▁takaisin	-9.01786
▁lopulta	-9.01817
▁kansa	-9.01855
▁kärsi	-9.01855
▁ympäri	-9.01887
▁tähän	-9.01915
missa	-9.01955
ojen	-9.01971
▁Gr	-9.02069
ltaan	-9.02135
▁tah	-9.02141
▁Mie	-9.02293
▁yksityis	-9.02313
iltana	-9.02342
F	-9.02478
▁johtaja	-9.0256
olo	-9.02571
▁sijoit	-9.02593
▁sivu	-9.02613
ajo	-9.02614
iksi	-9.02689
▁Harris	-9.02765
▁jotain	-9.02775
▁kokonais	-9.02871
op	-9.02927
lassa	-9.02943
isku	-9.03032
▁levi	-9.03149
J	-9.03194
▁toiminta	-9.03222
▁korja	-9.03311
uksissa	-9.03318
isessa	-9.03351
▁halu	-9.03519
▁Hy	-9.03525
▁Nato	-9.03588
▁Ä	-9.03719
asema	-9.03741
▁ulos	-9.03746
▁Mikko	-9.03764
eli	-9.03823
▁para	-9.03911
▁Antti	-9.03918
▁myötä	-9.03998
▁käyttää	-9.03999
▁jolla	-9.04011
▁korkea	-9.04048
▁koske	-9.04094
kar	-9.04147
▁Tar	-9.04153
▁Ty	-9.0428
yy	-9.04382
▁niiden	-9.04387
▁nopeasti	-9.04387
▁vuosina	-9.04552
▁finaali	-9.04563
▁Mä	-9.04639
jö	-9.04643
▁antaa	-9.04692
▁kerä	-9.04747
▁Israel	-9.04783
kauden	-9.04879
ologi	-9.04911
▁kirjoit	-9.04953
▁sala	-9.05035
▁Kiina	-9.0504
sesti	-9.0508
▁voidaan	-9.05155
▁päi	-9.05253
▁50	-9.05402
▁huolimatta	-9.05416
▁valtio	-9.05421
▁lasten	-9.05422
▁havai	-9.05557
▁tuomio	-9.05603
▁luku	-9.05676
▁suosi	-9.05806
▁vesi	-9.05915
▁hänelle	-9.05937
▁samalla	-9.0595
▁ehdot	-9.0597
▁pol	-9.05994
laisia	-9.06068
▁suora	-9.06086
▁oikeus	-9.06124
kirja	-9.06215
▁perin	-9.06392
▁per	-9.06567
▁Esimerkiksi	-9.06583
▁päivi	-9.06723
▁liike	-9.06743
piiri	-9.06768
mestari	-9.06821
▁loukkaantu	-9.06855
omi	-9.06985
▁tule	-9.07081
järjestelmä	-9.07129
▁taso	-9.07177
essaan	-9.07285
▁de	-9.07381
▁ääni	-9.07388
▁Hä	-9.07435
▁maailma	-9.0758
ttyä	-9.07685
▁hinta	-9.07739
uksiin	-9.07834
▁merkit	-9.07884
eri	-9.07937
▁ilo	-9.0801
▁liian	-9.08039
▁kuuluu	-9.08169
▁Mat	-9.08332
▁suo	-9.08336
seura	-9.08433
▁ottelun	-9.0845
sarjan	-9.08521
▁kesken	-9.08523
▁vahv	-9.08547
▁löytyy	-9.08602
▁kuvi	-9.08779
▁erityisesti	-9.08781
milla	-9.0885
syy	-9.08983
+	-9.09047
▁ihmisiä	-9.091
▁josta	-9.09257
▁haasta	-9.09276
▁Minu	-9.09329
▁parhaa	-9.09422
ensä	-9.09458
per	-9.09504
▁kymmenen	-9.09508
oitu	-9.09524
▁keskusta	-9.0962
ero	-9.09715
▁ohi	-9.09723
yyttä	-9.09737
▁vapaa	-9.09816
▁kerrotaan	-9.09874
▁haluaa	-9.0995
neensä	-9.10167
misestä	-9.10195
▁sijaitseva	-9.10262
▁0	-9.10329
▁yhteensä	-9.1039
▁etu	-9.10438
▁pyrki	-9.10543
▁nainen	-9.10673
▁yhteydessä	-9.10731
kok	-9.10761
fe	-9.10941
▁yleisö	-9.11007
mb	-9.11046
▁San	-9.11085
▁hävi	-9.11104
▁EM	-9.11141
her	-9.11185
▁talous	-9.11394
▁Keski	-9.11413
▁rooli	-9.11433
▁Pää	-9.11466
▁lapsen	-9.11475
▁tapaa	-9.11606
▁muista	-9.11724
ohja	-9.11759
tilan	-9.1184
▁raha	-9.11963
▁suori	-9.12172
uma	-9.12246
▁helpo	-9.12307
set	-9.12356
poli	-9.12507
▁Ranska	-9.1264
▁Nu	-9.12641
ttämään	-9.12727
▁Do	-9.12768
▁valo	-9.12769
▁presidentin	-9.12798
uden	-9.12831
tettava	-9.1287
▁tästä	-9.13009
▁metsä	-9.13123
▁käyttö	-9.13268
ff	-9.13365
30	-9.13394
▁2021	-9.13402
▁meidän	-9.13418
▁yliopisto	-9.13421
▁vil	-9.13654
tähti	-9.13732
▁vastuu	-9.13791
▁saira	-9.13819
▁perheen	-9.13952
vas	-9.14023
▁ongelma	-9.14031
▁täyt	-9.14195
▁mur	-9.1421
▁tuki	-9.1426
▁kaupunki	-9.14302
▁tavoit	-9.14309
neiden	-9.14317
▁terve	-9.14461
▁minkä	-9.14627
▁peru	-9.14662
ov	-9.14714
▁luonno	-9.14744
miehi	-9.14826
llisia	-9.14846
▁21	-9.14911
▁historia	-9.14949
▁vanha	-9.14988
aatio	-9.14998
neita	-9.15059
▁2024	-9.15087
vara	-9.15121
▁Suo	-9.15184
▁kyl	-9.15343
▁Fi	-9.15409
▁elämä	-9.15412
sson	-9.15436
▁pohjois	-9.15453
nnasta	-9.15633
▁auton	-9.15733
viiko	-9.15787
▁ihmiset	-9.15798
stelu	-9.15816
▁tunne	-9.15828
▁ajoi	-9.15833
väli	-9.15874
viin	-9.15882
loi	-9.16041
ase	-9.16139
▁Instagram	-9.16193
▁joiden	-9.16213
▁liiga	-9.16213
▁epäilty	-9.16245
▁SM	-9.1628
läinen	-9.16426
▁saavu	-9.16457
▁suku	-9.16631
vir	-9.16679
▁Wi	-9.16728
▁joukkueen	-9.1674
▁palo	-9.16787
▁tulisi	-9.16798
oitus	-9.16835
10	-9.16908
pari	-9.16916
koulu	-9.16932
ud	-9.17076
▁kilpa	-9.17196
▁yl	-9.17227
vasta	-9.17457
▁totesi	-9.17556
▁ope	-9.17576
kkaan	-9.17642
ori	-9.17694
por	-9.17704
▁keho	-9.17728
joiden	-9.17818
▁osaa	-9.17829
käytö	-9.17998
▁laji	-9.18042
tyä	-9.1824
▁au	-9.18384
▁laaj	-9.18399
▁jul	-9.18458
iivi	-9.18464
▁paras	-9.18493
▁hieno	-9.1859
utumis	-9.18643
see	-9.1874
▁Koko	-9.18763
▁kannattaa	-9.1887
▁jakso	-9.18881
▁lain	-9.18911
ukku	-9.18931
▁etelä	-9.18973
▁kirjoitti	-9.18976
▁Eli	-9.19142
▁ilmoitti	-9.19172
▁kolmanne	-9.19173
är	-9.1924
ranta	-9.19267
Suomen	-9.19271
▁laki	-9.19325
jaan	-9.19327
▁paljas	-9.19402
▁suunnitel	-9.19491
▁koro	-9.19502
▁Vil	-9.19538
▁päälle	-9.19566
▁ilmoitta	-9.19587
▁joukko	-9.19597
utunut	-9.196
▁kohdistu	-9.19685
vasti	-9.1995
▁My	-9.20103
▁naisten	-9.20227
hetke	-9.20271
▁pako	-9.20365
▁yhteistyö	-9.2037
▁poliisin	-9.20449
▁Suomalais	-9.20521
▁heng	-9.20657
▁tur	-9.20844
kaise	-9.21071
uuteen	-9.21232
▁Biden	-9.2135
▁kannatta	-9.21351
päällikkö	-9.2145
itsi	-9.21556
kisoissa	-9.21565
itte	-9.2167
▁julkaisi	-9.21871
▁kaiken	-9.22001
▁Auto	-9.22025
▁synty	-9.22187
aste	-9.22197
▁marraskuu	-9.22292
▁elokuva	-9.22345
▁missä	-9.22402
▁lupa	-9.22405
▁Lind	-9.22441
▁Osa	-9.22443
▁asian	-9.22557
neuvottelu	-9.22636
▁kohti	-9.22797
jista	-9.228
▁olleen	-9.2289
stettu	-9.22926
▁vahvista	-9.2295
▁asioi	-9.23094
▁vetä	-9.2311
▁Työ	-9.23144
▁kanna	-9.2319
▁tarkoi	-9.23286
▁ikä	-9.2334
▁Tämän	-9.23543
▁tiedä	-9.23615
res	-9.23633
ville	-9.23711
▁selvä	-9.23785
▁mennä	-9.23813
maali	-9.23859
pano	-9.23899
▁verran	-9.23949
▁peruste	-9.24059
▁tien	-9.24253
▁40	-9.24272
▁tärkeä	-9.24286
▁sodan	-9.24293
▁vaiheessa	-9.24321
▁vaike	-9.24357
▁mie	-9.24384
▁edellis	-9.24652
▁muiden	-9.24712
▁22	-9.24737
puolue	-9.24777
ed	-9.24897
▁kerro	-9.24946
▁joista	-9.25014
▁vastaava	-9.25034
▁pelk	-9.25052
▁normaali	-9.25078
▁Ter	-9.25084
oita	-9.25086
▁osta	-9.25103
vista	-9.25151
G	-9.25179
teeseen	-9.25302
keskus	-9.25392
▁ilme	-9.25428
▁jatku	-9.25456
▁silti	-9.25499
▁Sil	-9.25502
tion	-9.25563
▁autta	-9.25566
▁hoito	-9.25677
▁uutis	-9.2573
▁hyökkäys	-9.25737
tro	-9.25806
-20	-9.25841
kkää	-9.2588
▁muistuttaa	-9.2588
▁Ver	-9.25934
mitali	-9.26122
▁osalta	-9.26126
▁lokakuu	-9.2617
▁oikein	-9.26172
vaihe	-9.26217
▁menesty	-9.26245
▁suoja	-9.26309
um	-9.26371
▁joku	-9.26405
▁yhtiö	-9.26525
▁lie	-9.26542
ily	-9.26701
ham	-9.26774
▁kehitt	-9.26851
▁reilu	-9.26867
▁elämän	-9.27059
▁edessä	-9.27115
utua	-9.27118
▁kansalais	-9.2716
▁kansanedustaja	-9.27163
läis	-9.27191
▁asioita	-9.27207
▁onnistu	-9.2727
▁takana	-9.27303
turva	-9.2731
▁Tällä	-9.2736
▁ohjelma	-9.27368
liikke	-9.27476
luu	-9.27494
muoto	-9.27504
▁antoi	-9.27614
▁Sy	-9.27666
▁24	-9.27785
gen	-9.27818
▁haastattelussa	-9.2784
mällä	-9.27938
▁some	-9.27952
▁Yli	-9.2801
▁tuolloin	-9.28026
▁valtion	-9.28165
▁varmasti	-9.28177
tukset	-9.28185
▁miksi	-9.28187
malli	-9.28304
▁uutta	-9.2833
utuva	-9.28408
▁Tässä	-9.28412
▁Ker	-9.2842
nny	-9.28446
▁kappale	-9.28478
▁suurin	-9.28499
▁päävalmentaja	-9.28669
ment	-9.28688
kone	-9.28785
▁tekemi	-9.28796
▁hänellä	-9.28867
▁maahan	-9.28921
▁yritys	-9.29105
▁laaja	-9.29126
telee	-9.29183
▁sata	-9.29323
▁mediassa	-9.2933
▁kär	-9.2934
hoito	-9.29586
metri	-9.29726
▁päivän	-9.29845
sarjassa	-9.29875
▁Vii	-9.29919
▁23	-9.30174
▁ykkös	-9.30204
▁täällä	-9.30214
▁kaup	-9.30221
▁viiden	-9.30292
▁jätti	-9.30372
▁luki	-9.3039
▁kier	-9.304
▁pro	-9.30411
muka	-9.30421
▁ker	-9.30601
▁johto	-9.3063
▁pelasi	-9.30731
lke	-9.30763
▁osoitta	-9.30778
▁Ensi	-9.30919
▁puoliso	-9.30984
▁Bi	-9.3099
elämä	-9.31008
▁tarkast	-9.31016
kir	-9.31103
▁tarkoitus	-9.3115
maton	-9.31262
▁kilo	-9.31266
hl	-9.31305
▁virhe	-9.31406
ger	-9.31454
▁tul	-9.31466
▁Donald	-9.3147
▁tuttu	-9.3149
▁seitsemän	-9.31581
12	-9.31684
▁avaus	-9.31727
▁kuollut	-9.3183
oksi	-9.31887
▁Juha	-9.3197
▁Ylen	-9.32023
▁sana	-9.32038
▁Pel	-9.32055
▁Car	-9.32056
reiden	-9.32078
▁tarvi	-9.32185
tapa	-9.32232
tieto	-9.3225
emmin	-9.32306
ilee	-9.32356
▁riski	-9.32466
▁Ky	-9.32478
▁keskus	-9.32487
ola	-9.32512
uku	-9.32516
▁jalkapallo	-9.32528
▁Hal	-9.32668
▁varoit	-9.32715
▁vanhe	-9.32772
ttinen	-9.3281
telu	-9.32871
▁miesten	-9.32891
▁tarpee	-9.32892
▁100	-9.33116
▁päivänä	-9.33118
tien	-9.33136
▁mietti	-9.33214
▁heinäkuu	-9.33222
puu	-9.33305
▁paikalla	-9.33323
▁ympäristö	-9.33512
▁teko	-9.33517
vaaleissa	-9.33527
teitä	-9.33596
▁johon	-9.33649
hoido	-9.33778
isuuden	-9.33808
▁matkusta	-9.33866
▁Turun	-9.33912
▁verkko	-9.33924
▁juttu	-9.33924
▁elämää	-9.3407
▁ystävä	-9.34075
▁tap	-9.34124
pal	-9.34137
nnalla	-9.34156
▁Kan	-9.34169
del	-9.34298
▁pohja	-9.34461
▁Kyllä	-9.34478
▁virka	-9.34537
▁2020	-9.34593
▁kulje	-9.34711
▁Haavisto	-9.34766
Ma	-9.34791
▁ottelussa	-9.34855
▁ryhmä	-9.34869
▁kasvu	-9.35011
uksella	-9.35091
▁Kur	-9.35092
▁maaliskuu	-9.35127
▁tuntu	-9.35199
▁kolmen	-9.35281
▁tietoa	-9.35376
▁kertonut	-9.35396
vaihto	-9.35442
▁usei	-9.3552
▁koo	-9.35528
▁kanta	-9.35603
▁kahdeksan	-9.35627
PS	-9.35665
uudet	-9.35738
▁Vuon	-9.35792
▁60	-9.35835
▁lähellä	-9.35977
▁For	-9.35992
▁ohje	-9.3606
▁murha	-9.36228
kla	-9.36281
ster	-9.36287
▁lopetta	-9.36304
▁malli	-9.36346
▁kuusi	-9.36355
vänsä	-9.36451
▁määri	-9.36481
salo	-9.36524
▁mieltä	-9.36572
▁päätti	-9.36663
kyky	-9.36688
▁Pekka	-9.36727
▁Il	-9.36844
suu	-9.36874
▁pur	-9.36899
▁mennessä	-9.36949
▁asunto	-9.36969
▁Alexander	-9.37066
▁säily	-9.37086
risti	-9.37277
▁pääse	-9.37355
▁Pari	-9.37359
illaan	-9.37378
▁tapahtunut	-9.37558
llisuus	-9.3758
24	-9.37635
keä	-9.37693
▁suoraan	-9.37728
▁pian	-9.37768
▁omaa	-9.37786
▁toimii	-9.3783
▁löytyi	-9.37938
▁toimintaa	-9.38039
▁Iltalehdelle	-9.38061
kaveri	-9.38079
isessä	-9.38231
▁mieli	-9.38356
▁alusta	-9.38404
▁liittyvä	-9.38429
▁tietojen	-9.38511
laitos	-9.38554
johdo	-9.38594
▁ruo	-9.3873
▁tv	-9.38755
▁päivää	-9.38825
▁Au	-9.38927
▁jättä	-9.39123
▁hoita	-9.39147
numero	-9.39173
merkki	-9.39178
poliittise	-9.39297
▁tulokse	-9.39298
▁melko	-9.393
ttavaa	-9.39367
▁syytä	-9.39375
by	-9.39406
▁Iltalehden	-9.39437
▁alla	-9.39456
ikku	-9.39465
▁valmentaja	-9.39623
iltä	-9.39647
▁Por	-9.39652
ökkä	-9.3966
kari	-9.39734
kylä	-9.39771
▁väl	-9.39785
▁Siinä	-9.39836
ehdokas	-9.39925
▁nosta	-9.40212
▁lähte	-9.40271
▁kan	-9.40293
▁alkoholi	-9.40303
▁todennäköisesti	-9.40306
▁entinen	-9.40316
▁muutos	-9.40368
▁tekemään	-9.40541
▁Rau	-9.40561
▁kie	-9.40572
elma	-9.40618
▁ammatti	-9.40694
▁Fa	-9.40723
▁voinut	-9.40786
▁tärkei	-9.4081
▁olevansa	-9.40817
yksestä	-9.40968
▁vuoro	-9.41076
▁lauantai	-9.41082
▁näkyy	-9.4112
▁hil	-9.41199
▁Her	-9.41234
▁tietää	-9.41337
▁Kaksi	-9.41345
▁kuukauden	-9.41373
▁toimitusjohtaja	-9.41448
▁Syy	-9.41456
▁arvio	-9.41474
▁lääkäri	-9.41572
▁tunnu	-9.41574
▁kilometrin	-9.41576
▁sairas	-9.41582
utuu	-9.41599
▁tuho	-9.41601
▁erilaisi	-9.41651
▁neuvo	-9.41728
▁Uusi	-9.41745
vaara	-9.41781
▁meillä	-9.41811
▁puolesta	-9.41864
puisto	-9.4187
ic	-9.41875
▁Helsinki	-9.41961
▁omista	-9.42027
bu	-9.42032
▁kol	-9.42101
▁Naton	-9.42156
▁Vai	-9.42169
▁aloitti	-9.42187
oikeus	-9.42235
lliset	-9.42285
jää	-9.42305
ttaisi	-9.42337
▁uudelleen	-9.42354
▁edustaja	-9.42384
▁maajoukkue	-9.4239
▁vuosien	-9.42428
▁Ur	-9.42466
▁oikeude	-9.42476
▁Ranta	-9.42537
isuutta	-9.4257
▁toimittaja	-9.42621
▁paha	-9.42728
▁kulttuuri	-9.42765
▁Tai	-9.42776
▁paikallis	-9.42787
▁tee	-9.42798
▁anta	-9.42805
mpää	-9.42941
▁olo	-9.43018
▁kieltä	-9.43112
▁rikko	-9.43174
W	-9.43221
oissa	-9.43227
vaali	-9.43247
niemi	-9.43279
ttely	-9.43368
pelaaja	-9.43526
▁Krist	-9.43575
suhde	-9.43598
▁metrin	-9.4362
▁kauppa	-9.43661
▁tekemä	-9.43729
▁olemme	-9.4377
š	-9.43778
hyökkääjä	-9.43778
tilaisuudessa	-9.43985
lämpö	-9.44302
▁Espanja	-9.44303
▁Kyse	-9.44336
ttävät	-9.44403
▁jatkuva	-9.44412
▁tiuk	-9.44426
▁ensimmäistä	-9.44435
▁ilta	-9.44459
▁Sitten	-9.4446
puolen	-9.44473
▁valtava	-9.44521
▁naisen	-9.44527
▁täyde	-9.44583
▁selvästi	-9.44585
reita	-9.44734
▁klo	-9.4476
gra	-9.44869
▁hal	-9.44894
▁sanoa	-9.44975
▁kymmen	-9.4507
ope	-9.45098
▁menee	-9.45143
▁kannalta	-9.45156
▁kyseessä	-9.45169
teksti	-9.45227
50	-9.45257
▁perjantai	-9.4526
▁ainoa	-9.45343
▁Moni	-9.45357
▁vaihtoehto	-9.45362
▁tappio	-9.45386
▁27	-9.45457
▁kuvaa	-9.4547
▁Saari	-9.45619
▁lopu	-9.45671
toista	-9.45713
▁tilanteessa	-9.45794
▁Iso	-9.45901
▁yhdeksä	-9.4603
vuotiaan	-9.46084
▁jatkuu	-9.46135
▁yrittä	-9.46224
▁tehdään	-9.46225
▁jatka	-9.46293
yksen	-9.46404
▁vei	-9.46422
operaatio	-9.46434
▁lähtö	-9.46439
▁riippu	-9.46479
puhe	-9.46489
▁loppuun	-9.46541
▁Wa	-9.46564
▁väkivalta	-9.46576
▁nousu	-9.46711
▁kuvailee	-9.46751
kainen	-9.46802
muu	-9.46831
turnaukse	-9.46856
udella	-9.46857
▁Lapin	-9.46861
▁käyttöön	-9.469
▁vaatii	-9.47067
raha	-9.47074
pri	-9.47166
▁kevään	-9.4726
▁uusia	-9.4731
▁paikalle	-9.47331
▁pitänyt	-9.4738
▁am	-9.474
ähtä	-9.47471
pel	-9.47494
▁riittävä	-9.47514
lauta	-9.47533
▁Marin	-9.47534
▁vakuu	-9.47604
▁vuokra	-9.4765
▁hau	-9.4769
toteut	-9.47754
emmä	-9.4777
▁Putinin	-9.47877
▁kävel	-9.47888
ström	-9.47924
▁York	-9.48072
▁Go	-9.48075
▁tapauksessa	-9.48114
istui	-9.48299
kumppani	-9.48337
neuvosto	-9.48365
▁ravintola	-9.48463
▁ikään	-9.48464
▁vuodesta	-9.4847
▁kampanja	-9.48635
kää	-9.48724
▁yhteen	-9.48733
▁tähti	-9.48846
maiden	-9.48943
HL	-9.48952
▁nähtiin	-9.49021
imman	-9.49041
▁jonkin	-9.49097
▁lähde	-9.49132
▁hetki	-9.49164
▁mihin	-9.4919
kirjo	-9.49222
▁pyöri	-9.49352
▁kovin	-9.4941
▁rake	-9.4943
za	-9.49448
luke	-9.49602
▁tarkoittaa	-9.49656
▁Muu	-9.49656
▁hyvää	-9.4984
▁päättyi	-9.49862
▁lähtien	-9.49945
ttäisi	-9.49957
▁sunnuntai	-9.50042
▁mistä	-9.50174
▁Ala	-9.50201
ykset	-9.50278
▁Elo	-9.50313
▁Meillä	-9.50317
▁puolusta	-9.50326
▁kantaa	-9.50396
▁etenkin	-9.50414
muksen	-9.50499
▁sotilas	-9.50553
kausi	-9.50726
▁Vasta	-9.50877
▁tarkka	-9.51046
▁avo	-9.51064
▁tyhj	-9.51223
häiriö	-9.51254
▁STT	-9.51396
▁asiantuntija	-9.51401
▁Heikki	-9.51479
▁koira	-9.51577
▁tärkeää	-9.51581
▁Mark	-9.51597
todennäköis	-9.51628
11	-9.51762
che	-9.51775
▁paremmin	-9.51821
yyden	-9.51831
joita	-9.51842
linna	-9.5199
▁niistä	-9.52023
▁kaikkien	-9.52079
tuksessa	-9.52085
▁Niin	-9.52322
misessa	-9.52353
ellinen	-9.5238
▁kaatu	-9.52477
▁Helsingissä	-9.52533
chi	-9.52536
ointi	-9.52592
▁aikuis	-9.52647
juoksu	-9.52719
mari	-9.52764
▁miljardi	-9.52819
▁Petteri	-9.5282
ehto	-9.52835
▁saapui	-9.52867
▁suhteen	-9.5288
ssu	-9.52922
▁varten	-9.5293
▁työntekijä	-9.52964
▁kunnia	-9.53025
steli	-9.53036
▁ennakko	-9.53107
▁aikoo	-9.5311
puolella	-9.53174
▁jäänyt	-9.53234
▁dollari	-9.53395
▁Mitä	-9.53524
▁pyytä	-9.53585
kierroks	-9.53666
▁sisällä	-9.53755
▁suuntaan	-9.53776
▁tuntuu	-9.53816
▁selkeä	-9.53833
▁Laine	-9.53837
▁26	-9.53891
▁avu	-9.53913
▁merkittävä	-9.53918
▁päällä	-9.53928
▁täytyy	-9.5399
▁juhla	-9.54024
▁joilla	-9.54185
▁piha	-9.54194
hahmo	-9.5421
käsittely	-9.54357
▁kärki	-9.54378
sopimuksen	-9.5444
▁yleensä	-9.54554
▁kuljettaja	-9.54636
▁kotiin	-9.54694
▁palaa	-9.54703
yyde	-9.54824
▁käydä	-9.54868
ard	-9.54874
▁Iltalehti	-9.54889
▁eniten	-9.55002
voiton	-9.55036
▁keino	-9.55138
▁pitki	-9.55233
▁perusta	-9.55244
▁nähty	-9.55287
▁voittanut	-9.55309
▁Matti	-9.55377
kanava	-9.55413
▁silmä	-9.55576
▁meri	-9.55595
huolto	-9.55655
▁ruu	-9.55675
▁sellainen	-9.55754
▁ylä	-9.55769
▁kertovat	-9.55775
▁Kol	-9.55839
politiikka	-9.55876
teltu	-9.55918
gu	-9.55953
▁kuuluva	-9.56002
▁julkaistu	-9.56024
▁tilannetta	-9.56071
▁kato	-9.56134
▁liha	-9.56145
▁ehti	-9.56154
▁tanssi	-9.56178
▁näyttelijä	-9.5623
▁myynti	-9.56253
▁Jussi	-9.56295
lehden	-9.56314
▁rahaa	-9.56359
▁Oulu	-9.56372
▁nämä	-9.56506
▁rajoi	-9.5656
urheilu	-9.56637
voitto	-9.56686
▁ihmisten	-9.56726
▁puna	-9.56741
hke	-9.56751
▁koe	-9.5681
▁Anna	-9.56821
▁apu	-9.56871
▁avulla	-9.56914
Y	-9.56928
suosikki	-9.56935
▁valmistu	-9.57031
aamu	-9.57133
▁henki	-9.57135
▁tulos	-9.57203
▁vahva	-9.57246
▁lasku	-9.5727
▁Jul	-9.5728
Espoo	-9.57373
▁täyttä	-9.57393
▁Koti	-9.57433
▁julkise	-9.57463
▁halusi	-9.57477
▁2019	-9.57515
▁kausi	-9.5757
▁minulle	-9.57666
▁Ulko	-9.5767
▁naura	-9.57673
▁Am	-9.57791
▁Italia	-9.57817
▁lähtee	-9.57839
prosentti	-9.57969
vuosi	-9.58053
▁toistaiseksi	-9.58131
▁katk	-9.58152
▁nuorten	-9.58393
▁jatkossa	-9.58438
▁lista	-9.5845
mättä	-9.58494
holm	-9.58549
▁meno	-9.58574
▁kotona	-9.58594
▁Bidenin	-9.58711
▁Reuters	-9.58725
▁energia	-9.58725
▁minuuti	-9.58725
▁epäillään	-9.58725
▁aikoina	-9.58726
▁Olemme	-9.58727
▁Kanada	-9.58746
sää	-9.5876
▁herk	-9.58925
▁vakava	-9.58988
▁läheis	-9.5922
ow	-9.59284
▁lopussa	-9.59319
▁Lehti	-9.59324
tuomari	-9.59398
▁Nor	-9.59441
kieli	-9.59485
▁nähdään	-9.59591
▁kehu	-9.59656
▁pistettä	-9.59732
▁Katso	-9.59805
miehen	-9.59893
▁odotta	-9.59911
▁Sitä	-9.59949
▁Yhdysvaltojen	-9.59949
▁Luo	-9.59989
▁neli	-9.6001
▁jatkoi	-9.60067
▁haaste	-9.60092
▁tapahtunee	-9.60103
▁helppo	-9.60104
▁avio	-9.60137
▁pääsee	-9.60192
sivusto	-9.60215
▁nostaa	-9.60251
▁aiheuttaa	-9.60263
kisojen	-9.60277
Korea	-9.60316
hel	-9.60338
▁500	-9.60346
oiden	-9.60362
luvun	-9.60451
▁asema	-9.60478
▁mar	-9.60499
▁Niinistö	-9.60567
▁entise	-9.60612
▁Mer	-9.60745
▁pikku	-9.60746
tuksesta	-9.60783
▁välttämättä	-9.60883
▁sovi	-9.60911
▁nähdä	-9.60928
▁uskoo	-9.60945
mieli	-9.61148
▁Aalto	-9.61191
▁veto	-9.61228
▁turvallis	-9.61376
maksu	-9.61496
▁minuuttia	-9.61501
▁minä	-9.61561
▁vastasi	-9.61569
toiminta	-9.6168
▁nau	-9.61693
▁muodo	-9.61719
▁hyvinvointialue	-9.61764
▁tyttö	-9.61816
▁sisältä	-9.6183
lait	-9.6185
▁Viro	-9.62071
vierailu	-9.62135
▁nautti	-9.62165
▁alueen	-9.62241
▁kansallis	-9.62318
▁Väli	-9.62448
▁lumi	-9.62492
▁saakka	-9.62534
▁keh	-9.62628
▁hankki	-9.62633
▁järkyt	-9.62639
▁toista	-9.62704
▁verta	-9.62757
▁aj	-9.62869
▁Oy	-9.62904
▁Mikä	-9.62929
ketju	-9.63051
▁vähintään	-9.63077
▁Venäjällä	-9.63115
▁puolella	-9.63138
▁näytti	-9.6314
kalta	-9.63177
henkilö	-9.63248
▁kunnossa	-9.63264
▁Sami	-9.63348
▁miljoonan	-9.63369
suojelu	-9.63398
▁kaikkea	-9.63398
ohjelmassa	-9.63428
▁Ste	-9.63445
vuotiaana	-9.6349
▁Yhdysvalloissa	-9.63554
▁vähemmän	-9.63555
▁Purra	-9.63561
tukseen	-9.63565
▁samaan	-9.63661
▁Uude	-9.63663
▁pelannut	-9.63812
zz	-9.63825
▁rakennus	-9.63838
▁saivat	-9.63869
llistä	-9.63894
▁sosiaalisessa	-9.64196
▁Timo	-9.64276
▁piir	-9.64336
▁vastusta	-9.64459
▁puh	-9.64474
▁Sveitsi	-9.64517
▁kohdalla	-9.64519
▁Länsi	-9.64545
▁kuukausi	-9.6456
media	-9.6456
▁Silloin	-9.64623
▁Suomea	-9.64681
▁Mäki	-9.64709
▁saatu	-9.64771
▁epäilly	-9.6484
▁johtaa	-9.64936
▁Lau	-9.64938
potku	-9.64988
▁kukaan	-9.65151
▁loma	-9.65161
▁Lauri	-9.65205
▁monta	-9.65212
▁päätöksen	-9.65362
▁julkaisu	-9.65387
keskuksen	-9.65389
▁poistu	-9.65402
sääntö	-9.65567
▁liittyy	-9.65653
▁Andersson	-9.65659
säännö	-9.65672
▁Kyseessä	-9.65693
mar	-9.65735
▁palkka	-9.6583
▁Ukrainassa	-9.65894
▁musiikki	-9.65978
▁oire	-9.66044
rö	-9.66184
▁toiminut	-9.66271
ongelmi	-9.6643
lohko	-9.66452
▁aktiivi	-9.66469
▁eteenpäin	-9.6647
▁Tappara	-9.66471
▁Kesä	-9.66497
teisiin	-9.66549
▁vähä	-9.66672
suunnitelma	-9.667
▁välise	-9.66787
▁tukea	-9.668
kokoukse	-9.66809
▁tarina	-9.66861
▁seksuaali	-9.6695
▁kokonaan	-9.66995
tyvä	-9.6701
▁nopea	-9.67019
▁Samalla	-9.67024
▁kiire	-9.67044
▁Du	-9.67047
▁hovi	-9.67197
▁keväällä	-9.67295
▁ystäv	-9.67322
ok	-9.67413
▁vaikutus	-9.67463
ttaisiin	-9.67481
▁korkei	-9.67496
▁Pro	-9.6757
▁tehtiin	-9.67631
▁uima	-9.67638
▁Gu	-9.67645
▁Ed	-9.67651
▁Ny	-9.67716
myy	-9.67747
▁näkö	-9.67815
järjestel	-9.67914
▁tapahtuu	-9.6796
tellut	-9.68003
paikan	-9.68017
▁sopimus	-9.6804
uhka	-9.68041
▁29	-9.68069
▁Keskus	-9.6813
▁raju	-9.68138
▁2018	-9.6815
▁28	-9.68177
▁odottaa	-9.68227
▁Halu	-9.68325
▁jy	-9.68355
▁kohde	-9.68383
virasto	-9.68398
▁kesällä	-9.68459
▁tal	-9.68555
radio	-9.68782
ottelussa	-9.68882
▁rakenne	-9.68935
▁lämmi	-9.68948
▁yritti	-9.68982
▁Nyky	-9.68998
▁päässä	-9.69015
lääkäri	-9.69138
▁pudot	-9.69141
kauppa	-9.69209
ystävä	-9.69269
▁tekevä	-9.69279
▁hallin	-9.69318
laatu	-9.69367
▁ulkomai	-9.69401
▁päässyt	-9.69472
▁keskeyt	-9.69504
alisti	-9.69588
▁Pir	-9.69589
▁parhai	-9.69619
▁William	-9.69642
▁parempi	-9.69645
▁Janne	-9.69691
▁ihmisen	-9.69708
pito	-9.69752
▁ollaan	-9.69798
▁kansainvälise	-9.69811
▁prosentin	-9.69868
▁iske	-9.6987
▁tiistai	-9.69918
▁talvi	-9.69958
stetaan	-9.69981
▁opi	-9.70005
▁tuore	-9.70113
▁tutkimus	-9.70137
uksien	-9.70313
▁70	-9.70352
▁Lei	-9.70375
▁hallinto	-9.70412
legenda	-9.70496
▁viikonloppuna	-9.70498
fo	-9.70498
▁paine	-9.7057
▁Stubbin	-9.70577
▁Sama	-9.70656
wi	-9.70693
▁urheilija	-9.70736
▁ansio	-9.70772
▁mahdollisuus	-9.7106
▁maassa	-9.71151
&	-9.7118
▁töitä	-9.71197
▁saadaan	-9.71279
jakso	-9.71287
▁käynyt	-9.71351
▁jänni	-9.71358
llut	-9.7147
▁törkeä	-9.71478
▁viimeisen	-9.71484
päivänä	-9.71522
▁tilanteen	-9.71538
▁We	-9.71541
▁Kansa	-9.7157
▁paikan	-9.71581
▁käytännössä	-9.71587
kentällä	-9.71704
▁Tanska	-9.71717
miehet	-9.71969
▁muistu	-9.71984
▁sinne	-9.72011
▁Ennen	-9.72017
▁kasvo	-9.721
toimisto	-9.72128
mys	-9.72165
▁tekijä	-9.72165
▁emme	-9.72206
▁väri	-9.72207
▁jälki	-9.72219
▁alkaen	-9.72228
▁tuntia	-9.72237
▁valko	-9.72243
▁riittää	-9.7248
▁Ge	-9.72488
▁Cha	-9.72535
▁Vladimir	-9.72568
▁tunnettu	-9.72569
▁jär	-9.72577
▁Joki	-9.72621
▁talli	-9.72623
▁viide	-9.72662
▁metriä	-9.72765
▁maksu	-9.72766
▁tyyli	-9.72778
nnat	-9.7282
valtio	-9.72849
▁alas	-9.72888
tteja	-9.72914
▁kone	-9.73025
15	-9.73048
▁kiinnosta	-9.73093
▁vuoteen	-9.73101
▁miestä	-9.73105
valmentaja	-9.73118
▁voittaja	-9.73146
▁Vo	-9.73207
▁Toinen	-9.73214
▁pystyy	-9.73326
keli	-9.73345
▁Harry	-9.73354
▁taustalla	-9.7338
▁siltä	-9.73395
▁suru	-9.73409
tekijä	-9.73421
▁kerta	-9.73426
%	-9.73445
▁super	-9.73448
▁apua	-9.73473
leiri	-9.73512
▁toimiva	-9.73531
sor	-9.73536
valmi	-9.7357
▁Florida	-9.73621
▁törmä	-9.73622
materiaali	-9.73623
koske	-9.73654
▁erityisen	-9.73663
▁etene	-9.73714
ykseen	-9.73758
tomuus	-9.73803
▁ex	-9.74013
vuus	-9.74018
tyksessä	-9.74113
terve	-9.74356
syksy	-9.74382
▁Hamas	-9.74388
▁puolueen	-9.74432
▁Hyvä	-9.746
▁saavat	-9.74619
▁torju	-9.74662
▁moottori	-9.74684
▁olisivat	-9.74697
▁peräti	-9.747
rada	-9.74788
▁Wal	-9.74819
▁kilometriä	-9.74865
▁ennuste	-9.74884
▁vuosikymmen	-9.74938
kuski	-9.74985
tiellä	-9.75078
▁Ilma	-9.75107
mitta	-9.75171
▁lähteä	-9.75193
▁noussut	-9.75223
▁Ville	-9.7523
rakennukse	-9.75302
▁väite	-9.75322
pyör	-9.75375
▁ilm	-9.75465
▁taistelu	-9.75468
▁myöskään	-9.75469
meri	-9.7551
meren	-9.75541
▁suju	-9.75558
▁lämpötila	-9.75584
todellis	-9.75598
▁tuotanto	-9.75599
▁Huo	-9.75748
juontaja	-9.75779
▁pelastus	-9.75848
puolelle	-9.75944
kulku	-9.75944
neista	-9.7601
▁kerrottiin	-9.76059
palo	-9.76059
käyttö	-9.76117
prosessi	-9.76125
▁yllättävä	-9.76229
öljy	-9.76305
▁omistaja	-9.76312
▁joskus	-9.76314
▁torstai	-9.76331
▁minun	-9.76342
▁Puola	-9.76379
▁jääkiekko	-9.76668
▁asiakkai	-9.76742
tilanne	-9.76771
▁Yhdysvallat	-9.7685
viikko	-9.76925
▁YK	-9.76928
▁hinna	-9.77011
alueella	-9.77067
▁haastattelu	-9.77082
vamma	-9.77338
▁ilmi	-9.77362
▁Ry	-9.77397
▁musta	-9.7742
▁varus	-9.77431
ttaminen	-9.77444
▁Suuri	-9.7753
▁MTV	-9.77611
liikenne	-9.77672
▁uudis	-9.77692
tiimi	-9.77843
▁vääri	-9.77914
▁lenno	-9.78012
▁tili	-9.78027
95	-9.78034
▁kiito	-9.78081
▁tilanteesta	-9.78135
▁kysyi	-9.78412
▁kyy	-9.78419
▁valmista	-9.7848
▁vieras	-9.78499
▁Puolustus	-9.78505
▁ihminen	-9.78506
siirto	-9.78572
isellä	-9.78603
▁aloittaa	-9.78676
▁Olli	-9.78682
oikeuden	-9.78691
▁tapaus	-9.78796
▁itsensä	-9.78813
▁hiihto	-9.78848
▁Presidentti	-9.78876
▁kiinteistö	-9.78876
▁suunta	-9.78951
ltään	-9.78969
▁Aho	-9.79023
▁suomalainen	-9.79063
▁2016	-9.7909
stettiin	-9.79122
▁saisi	-9.7929
yhtye	-9.793
empaa	-9.79562
podcast	-9.79623
▁itseään	-9.79649
▁avaa	-9.79681
kaupungissa	-9.79811
▁kel	-9.79836
▁summa	-9.79879
▁alkava	-9.79952
▁asiassa	-9.79988
▁entistä	-9.8001
▁iho	-9.8015
▁maanantai	-9.80374
Q	-9.80376
▁kiinnostu	-9.80376
▁35	-9.80429
▁pelo	-9.80475
▁Paul	-9.80478
TV	-9.80563
▁Zelenskyi	-9.80565
▁huomiota	-9.80565
toimen	-9.80578
▁kehitys	-9.80585
▁korona	-9.80634
▁runsaasti	-9.80668
▁Leijoni	-9.80755
▁kolmas	-9.80761
▁kysymys	-9.80777
ryhm	-9.8081
teltiin	-9.80825
▁2025	-9.80975
▁pahoi	-9.81022
▁jalka	-9.81083
oto	-9.81104
▁inno	-9.81111
vaiht	-9.81216
elokuva	-9.81256
viesti	-9.81299
▁Jukka	-9.81326
▁mennyt	-9.81366
▁käytössä	-9.81404
▁kuului	-9.81524
▁Meri	-9.81549
rake	-9.81575
75	-9.8163
järven	-9.81655
▁kysely	-9.81668
▁onnistui	-9.81683
luvulla	-9.81727
▁välttä	-9.81764
▁syntyi	-9.81795
▁näkee	-9.81899
▁miljoona	-9.81994
▁tulossa	-9.82003
▁rinta	-9.82027
▁elo	-9.82087
▁Muut	-9.82115
▁pyörä	-9.82149
opettaja	-9.82161
▁liittyvi	-9.82287
osasto	-9.82297
▁Mika	-9.82331
▁halunnut	-9.82351
▁itselleen	-9.82381
yksellä	-9.82431
▁esitykse	-9.8244
▁verrattuna	-9.82475
▁Pariisin	-9.82526
▁neljänne	-9.82558
▁kesänä	-9.82559
▁Charles	-9.82668
▁turha	-9.82694
▁nouse	-9.82726
▁lapset	-9.82761
▁maailmancup	-9.82862
▁surma	-9.82894
▁toteutta	-9.82935
▁tunnetu	-9.82955
▁vaimo	-9.82968
▁sotila	-9.83001
vauhti	-9.83019
neitä	-9.83135
mmaksi	-9.83152
vuotis	-9.83176
▁yönä	-9.83235
▁Catherine	-9.8325
▁ammu	-9.83334
ley	-9.8345
▁komm	-9.83462
▁mahdollisesti	-9.83506
▁siksi	-9.83597
▁täys	-9.83608
▁kaikille	-9.83643
▁Mal	-9.83674
epäily	-9.83679
▁kiekko	-9.83749
▁heitä	-9.83888
▁paluu	-9.83937
▁pohti	-9.84011
toimittaja	-9.84024
▁kylmä	-9.84081
▁sopiva	-9.84084
nomaise	-9.84098
▁vanhempi	-9.84275
▁iski	-9.84299
▁katse	-9.84331
▁Siellä	-9.8435
▁palasi	-9.8435
▁huomioi	-9.84437
▁Tutki	-9.84479
kulma	-9.84485
▁harki	-9.84606
politiikan	-9.84612
▁keskellä	-9.84622
▁Siitä	-9.84754
▁luovu	-9.84838
▁Itse	-9.84845
▁tahansa	-9.84873
yhteisö	-9.84878
▁Toise	-9.84902
▁joudu	-9.84927
▁armeija	-9.85014
▁tuuli	-9.85018
▁monet	-9.85067
▁joutuu	-9.85091
▁80	-9.85104
kymppi	-9.85214
▁minua	-9.85215
valtuusto	-9.85217
▁kuuden	-9.85273
tuomio	-9.85316
▁Instagramissa	-9.85316
hevos	-9.85365
pyy	-9.85395
▁paina	-9.85419
Sanomien	-9.85423
▁Syyttäjä	-9.85433
▁Vuoden	-9.85516
ttäneet	-9.8556
▁Varsinais	-9.8561
▁sydän	-9.85615
▁huomauttaa	-9.85641
▁huolta	-9.85892
▁Ruu	-9.85929
yhdiste	-9.86038
▁nykyise	-9.86067
▁tunnin	-9.86168
▁hallitukse	-9.86205
luottamus	-9.86222
▁sellaista	-9.86244
▁kakkos	-9.86301
▁tietä	-9.86318
▁muisto	-9.8639
▁eteen	-9.86432
▁toisella	-9.86544
▁toki	-9.86646
▁lakko	-9.86852
▁harmi	-9.86878
areena	-9.869
▁erityis	-9.86942
▁Toimi	-9.86948
▁pakkas	-9.86989
▁minulla	-9.87013
▁tausta	-9.87227
suus	-9.87235
▁liikaa	-9.87267
▁samoi	-9.87296
llisten	-9.87407
▁Seura	-9.87414
▁löysi	-9.87417
▁nope	-9.87467
▁Kemi	-9.87471
▁Hau	-9.87539
▁John	-9.87616
▁viestipalvelu	-9.8769
▁koskeva	-9.87718
liike	-9.87735
▁sito	-9.87743
▁Oma	-9.87763
▁ilmasto	-9.87779
▁vuodessa	-9.87823
▁hotelli	-9.87826
merkin	-9.87879
kaudella	-9.87945
▁ydin	-9.87955
▁meille	-9.88004
▁televisio	-9.88027
▁lyhye	-9.88029
▁ennätys	-9.88033
▁kahvi	-9.88062
▁Rovanperä	-9.88231
▁tavoite	-9.88283
▁Wil	-9.88288
mur	-9.88305
▁helposti	-9.88313
▁säästö	-9.88318
▁kokemus	-9.88377
▁Halla	-9.88404
▁perinteise	-9.88471
▁Nämä	-9.88477
immista	-9.88512
▁Pitkä	-9.88519
▁löyty	-9.88524
▁kohu	-9.88582
▁maasto	-9.88586
▁kons	-9.88767
tiedustelu	-9.88846
▁Fo	-9.88883
▁sulke	-9.88933
▁suurimma	-9.89077
ilma	-9.89137
▁pohtii	-9.89168
▁päähän	-9.89298
tapahtuma	-9.89371
versio	-9.89519
▁aivo	-9.89521
▁täysi	-9.89548
finaali	-9.89594
▁nousee	-9.89616
▁silmi	-9.89729
johtaj	-9.8973
liikenteen	-9.89761
Pohjanmaa	-9.8988
kulu	-9.89934
▁markkinoi	-9.90069
▁tasolla	-9.90087
▁työskentele	-9.90087
▁Paimio	-9.90094
kaupunki	-9.90239
professori	-9.90295
▁uutistoimisto	-9.90306
oksen	-9.90314
stadion	-9.9032
▁suomalaisten	-9.90333
kamera	-9.90355
▁monen	-9.90402
▁Hallitus	-9.90504
str	-9.90504
▁ampuma	-9.90507
▁seurauksena	-9.9051
luvu	-9.90722
▁varmaan	-9.9085
▁toiseksi	-9.90851
▁länsi	-9.90912
▁helmikuussa	-9.90922
▁prinsessa	-9.91132
▁Nord	-9.91133
▁aurinko	-9.91133
▁yrittäjä	-9.91135
▁syksyllä	-9.91136
▁Jär	-9.91286
▁Sanna	-9.91302
▁syntynyt	-9.91524
maailma	-9.91601
▁presidentinvaal	-9.91624
▁Oulussa	-9.91635
veli	-9.91643
teatteri	-9.91769
▁Seuraava	-9.91835
▁missään	-9.91858
pronssi	-9.9187
lander	-9.91958
▁Kari	-9.91965
▁edistä	-9.91984
valvonta	-9.91995
▁pukeutu	-9.92036
▁olemassa	-9.9204
▁auki	-9.92044
▁ilmesty	-9.92068
▁kolmi	-9.9208
▁Pol	-9.92205
▁Euro	-9.9223
elli	-9.92244
▁Kivi	-9.92289
▁mieti	-9.92359
▁osallistui	-9.92416
Britannia	-9.92531
▁jättää	-9.92622
koski	-9.92696
▁saaneet	-9.92739
laitoksen	-9.9274
▁Bar	-9.92798
myrsky	-9.92829
▁ylivoima	-9.92882
illut	-9.93006
▁BBC	-9.93043
▁Eurooppa	-9.93043
▁Teemu	-9.93045
▁tutustu	-9.93071
65	-9.9308
isestä	-9.9311
▁ongelmia	-9.93116
▁varma	-9.93235
▁prinssi	-9.93258
▁ymmärtää	-9.93356
▁Ruo	-9.93374
▁taakse	-9.93392
isuuteen	-9.93398
▁sijaitsee	-9.93473
▁alueelle	-9.93496
kenttä	-9.935
▁käänty	-9.93535
▁asiakas	-9.93566
alus	-9.93617
▁opiskeli	-9.93688
▁ruotsalais	-9.93689
▁suositu	-9.93702
yrityksi	-9.93759
raport	-9.93785
▁kuule	-9.93795
▁AFP	-9.93905
▁lyö	-9.93952
▁Tampereen	-9.94059
▁tuoree	-9.94107
▁Kaarina	-9.94123
▁tunnista	-9.94125
▁Hil	-9.9424
▁Sara	-9.9429
valiokunnan	-9.94342
▁hätä	-9.94361
ttoman	-9.94364
vahinko	-9.94367
▁jäte	-9.94691
▁tietysti	-9.94766
▁nähnyt	-9.94773
▁joulukuussa	-9.94774
arvio	-9.94784
▁Chris	-9.94804
▁päätyi	-9.94842
saira	-9.949
paikkoja	-9.95018
▁lopulla	-9.95023
▁kovi	-9.95026
reissu	-9.95048
ilmiö	-9.95067
rikoksesta	-9.95084
▁sie	-9.9513
Libanon	-9.95212
▁Tilanne	-9.95212
ettava	-9.9529
▁sanottu	-9.95296
▁juna	-9.95391
▁Onko	-9.95466
▁sisään	-9.95493
viranomaiset	-9.95547
▁nap	-9.95737
we	-9.95748
▁aikaisemmin	-9.9587
▁Uutis	-9.95908
suomalais	-9.95986
▁kasvi	-9.96034
hopea	-9.96059
▁heiko	-9.96063
▁Toivo	-9.96082
25	-9.96097
▁Tuolloin	-9.96131
▁siirtyi	-9.9614
▁tuule	-9.96186
▁saatiin	-9.962
▁Aiemmin	-9.96348
▁kulta	-9.96413
Karjala	-9.96447
▁Jari	-9.9645
neeseen	-9.96497
▁alun	-9.96575
paikalta	-9.96628
luokka	-9.9665
▁Ottelu	-9.96662
▁suomalaiset	-9.96665
▁vahvasti	-9.96668
å	-9.96756
▁naapuri	-9.96756
▁SDP	-9.96756
▁tammikuussa	-9.96978
▁kuningas	-9.96979
▁sauna	-9.97059
▁vangit	-9.97069
▁kohtalo	-9.97111
▁fani	-9.97118
▁positiivis	-9.97201
▁harv	-9.9721
▁ottanut	-9.97217
▁toiseen	-9.97242
▁nykyään	-9.97341
▁kuka	-9.97413
mätön	-9.97459
▁ainoastaan	-9.97479
aattori	-9.97489
turvallisuuden	-9.97512
▁Kyl	-9.97529
vero	-9.97564
▁reagoi	-9.97874
▁Vier	-9.97937
▁sähköauto	-9.97973
▁nosti	-9.98047
▁yhteiskunna	-9.98095
▁terrori	-9.981
▁muistelee	-9.981
▁laulaja	-9.98105
vuori	-9.98121
▁Ihmis	-9.98149
murha	-9.98155
▁poikkeuksellise	-9.98162
▁syystä	-9.98409
▁yrittää	-9.98457
▁300	-9.98538
▁väittä	-9.98541
▁käräjäoikeus	-9.98551
▁vettä	-9.98722
▁Ensimmäise	-9.98778
▁2017	-9.98778
▁tuntui	-9.98784
▁vit	-9.98842
aaleja	-9.98874
▁eräs	-9.98941
▁kome	-9.98941
▁mukava	-9.98951
▁osavaltio	-9.99078
▁yh	-9.99205
▁Aika	-9.99272
▁antanut	-9.99297
▁Suur	-9.99309
▁ratkaise	-9.99464
▁suostu	-9.99571
▁mikään	-9.99678
▁Lehto	-9.99726
kielto	-9.99742
▁Tästä	-9.99872
▁salli	-9.99931
▁asuva	-9.99953
gg	-10.001
▁kuukautta	-10.0015
ffi	-10.0019
▁Niemi	-10.0028
markkina	-10.0033
vuoden	-10.0036
▁ukrainalais	-10.0038
▁CNN	-10.0038
form	-10.0046
▁huomattavasti	-10.0047
▁joukossa	-10.0062
▁komp	-10.0062
▁hetken	-10.0067
▁tuhansi	-10.0085
▁Lähi	-10.0089
▁Sch	-10.01
▁joutunut	-10.0101
▁kasvoi	-10.0102
▁hurja	-10.011
ü	-10.0131
▁aiheutti	-10.0131
▁huume	-10.0131
järvi	-10.0134
▁käytetty	-10.0136
▁varmista	-10.0139
▁HS	-10.0148
▁tarvitaan	-10.0149
▁väärä	-10.0155
+1	-10.0155
tauti	-10.0156
▁Times	-10.0157
▁Kolme	-10.0163
▁häly	-10.0173
▁viestintä	-10.0175
▁400	-10.0185
kyvy	-10.0186
▁hanki	-10.0192
▁syyskuussa	-10.0201
▁synny	-10.0214
▁Asu	-10.0218
asiantuntija	-10.0223
▁pakko	-10.0226
mmät	-10.0228
▁etteivät	-10.0235
▁oikeasti	-10.0235
▁Talo	-10.0241
ottaja	-10.0245
▁Unkari	-10.0248
▁Palo	-10.0254
▁kannatus	-10.0259
▁väki	-10.0262
▁viittaa	-10.0265
▁kritisoi	-10.0271
▁astetta	-10.0272
▁näitä	-10.0299
laulu	-10.03
▁tiedotus	-10.0304
kaupan	-10.0309
▁paljastaa	-10.031
▁tutu	-10.0313
▁lapse	-10.0315
▁löytää	-10.0319
mestaruus	-10.0319
▁Varha	-10.0325
▁vastustaja	-10.0328
▁mielessä	-10.0338
▁Joukkue	-10.0343
luokan	-10.0347
▁osto	-10.0352
mahdollisuuksi	-10.0355
▁tyttäre	-10.0366
historia	-10.0369
pakka	-10.037
▁este	-10.0374
▁osin	-10.0374
▁31	-10.0376
▁Urheilu	-10.039
▁molemmat	-10.039
▁kesäkuussa	-10.039
▁pärjä	-10.039
▁yrityksen	-10.039
▁tehdy	-10.0391
lehdelle	-10.0393
▁valinta	-10.0399
▁antama	-10.0408
▁republikaani	-10.0414
▁Vielä	-10.0414
paikalla	-10.042
utuminen	-10.0425
huole	-10.0428
▁kuvaili	-10.0434
▁myöntää	-10.044
▁Valtio	-10.0457
▁Facebook	-10.0462
▁tiety	-10.0462
▁Toyota	-10.0462
▁puolet	-10.0462
▁suosio	-10.0471
hallinnon	-10.048
▁päättää	-10.0484
▁toukokuussa	-10.0486
Suomessa	-10.0492
▁yllätys	-10.0497
▁yhtään	-10.0504
▁Yhde	-10.0504
kunnassa	-10.0509
▁avoime	-10.0514
kunnioit	-10.052
▁muisti	-10.053
▁britti	-10.0535
ight	-10.0543
▁hyviä	-10.0544
tähden	-10.0564
▁tekni	-10.0565
▁sade	-10.0585
▁Luu	-10.0591
▁tytö	-10.0593
▁hymy	-10.0601
▁vajaa	-10.0605
▁paitsi	-10.0605
mestaruuden	-10.0608
▁näyttävä	-10.0616
▁haluaisi	-10.0621
▁tilasto	-10.0622
projekti	-10.0632
▁oppositio	-10.0632
▁pahoinpitely	-10.0632
▁Mäkelä	-10.0632
▁Lauantai	-10.0632
▁ainakaan	-10.0639
▁näe	-10.0643
sihteeri	-10.0657
▁eduskuntaryhmä	-10.0658
▁alkuperä	-10.0664
kiertue	-10.0676
▁kumma	-10.0677
▁ulkoministeri	-10.0684
▁Syyria	-10.0688
museo	-10.069
▁ajatus	-10.0691
▁sieltä	-10.0705
▁yksittäis	-10.0706
▁esittää	-10.0727
▁eduskunta	-10.0729
▁tulevi	-10.073
▁tavoin	-10.0731
▁noudat	-10.0731
niemen	-10.0732
▁aikataulu	-10.0734
▁asteen	-10.0735
16	-10.074
▁valmistautu	-10.0746
yydestä	-10.0746
▁kierroksella	-10.0755
▁Sdp	-10.0756
▁Pelto	-10.0758
▁Gazan	-10.078
▁Kaleva	-10.0783
▁veden	-10.0784
▁selit	-10.0786
▁Nainen	-10.0787
▁Savo	-10.0791
▁ymmärtä	-10.0794
▁Hizbollah	-10.0805
▁käynnissä	-10.0805
ohjus	-10.081
▁Hanna	-10.0811
▁tavara	-10.0817
▁liikunta	-10.0818
▁otettu	-10.082
tyyppi	-10.0829
▁järjestetään	-10.083
▁Suomesta	-10.083
▁tuomittiin	-10.083
▁Linnan	-10.084
▁lopet	-10.0848
▁toive	-10.0852
▁Marko	-10.0854
iselta	-10.0859
▁tällaise	-10.0881
ehdokkai	-10.0905
▁huolestu	-10.0905
puolelta	-10.0906
kerr	-10.092
▁näki	-10.0922
▁syvä	-10.0927
▁tunnetaan	-10.0929
▁merkittävästi	-10.0945
▁lähtenyt	-10.0945
hankkee	-10.0952
▁Jyväskylä	-10.0955
▁eduskunnan	-10.0955
▁perussuomalaist	-10.0956
▁mukaisesti	-10.0981
▁City	-10.0984
▁of	-10.0989
▁runkosarja	-10.1032
pesu	-10.1042
18	-10.1048
prosenti	-10.1053
▁Perjantai	-10.1057
▁johtava	-10.1058
▁lausu	-10.1072
lasku	-10.1077
president	-10.108
▁elokuussa	-10.1083
▁alkanut	-10.1083
▁tulipalo	-10.1089
▁ajattele	-10.1095
paino	-10.1106
▁vieraa	-10.1106
▁korostaa	-10.1111
liito	-10.1114
▁Jenni	-10.1126
perhe	-10.1131
▁selvittää	-10.1133
▁yhtenä	-10.1134
▁viranomais	-10.1136
▁Meidän	-10.1137
viranomaisten	-10.1144
vuutta	-10.1157
tellen	-10.117
▁Puu	-10.1173
▁Euroopassa	-10.1186
ampumis	-10.1202
hybridi	-10.1212
▁investoi	-10.1212
▁pidetään	-10.1212
paketti	-10.1216
llisuutta	-10.1217
kertainen	-10.1219
ilmoitus	-10.1222
taulu	-10.1233
▁tavoitteena	-10.1238
▁Japani	-10.1239
▁Ihan	-10.1251
strategi	-10.1264
▁hirveä	-10.1264
▁Daniel	-10.1264
kymmentä	-10.1268
uutis	-10.1275
▁vaihtu	-10.1278
▁taju	-10.1281
ttavissa	-10.1288
]	-10.129
▁45	-10.1301
[	-10.1316
▁sanonut	-10.1318
▁Sport	-10.1318
▁syyttäjä	-10.1331
▁siirtä	-10.1331
▁USA	-10.1342
tellyt	-10.1358
▁tiedotti	-10.1361
▁toivoo	-10.1367
parlamentti	-10.1368
▁julkisuudessa	-10.1368
▁Moskova	-10.1369
▁perään	-10.1384
▁muuttaa	-10.1392
demokraatti	-10.1393
▁kommentti	-10.1395
▁Ehkä	-10.1396
▁käräjäoikeude	-10.1397
vaihdo	-10.14
▁2014	-10.1421
▁Kär	-10.1424
havainto	-10.1431
▁vallan	-10.1431
isempi	-10.1432
▁vakavasti	-10.1435
väline	-10.1437
▁HIFK	-10.1448
▁nimenomaan	-10.1448
▁Joensuu	-10.1448
q	-10.1473
hyökkäyksen	-10.1474
▁odotetaan	-10.1474
▁muutoksia	-10.1475
▁tytär	-10.1475
▁pysyvä	-10.1476
▁vaurioi	-10.1494
▁koho	-10.1496
hoitaja	-10.1498
▁suurempi	-10.1499
organisaatio	-10.1501
▁harrasta	-10.1501
▁Oikeus	-10.1501
▁hyödy	-10.152
▁henkilöstö	-10.1521
▁Red	-10.1525
avust	-10.1526
▁hyöty	-10.1529
kisoihin	-10.1556
▁ulkopuolella	-10.1559
▁heikko	-10.1563
▁lainkaan	-10.1568
▁artikkeli	-10.1581
▁Kansainväli	-10.1581
vuotiaiden	-10.1585
▁jäädä	-10.1603
▁Kreml	-10.1608
▁pyysi	-10.161
▁rahoitus	-10.1636
▁32	-10.1636
▁kilpaile	-10.1639
rauha	-10.1645
Vantaa	-10.1646
ttomasti	-10.1653
▁vaimonsa	-10.1653
immillaan	-10.1653
uutensa	-10.1655
▁34	-10.1661
Ö	-10.1662
▁kaikista	-10.1663
▁käynnist	-10.1664
▁talouden	-10.1669
video	-10.1685
rikoksista	-10.1691
▁aiempaa	-10.1694
▁kiusa	-10.1699
lliseen	-10.1712
▁syyllisty	-10.1721
▁luonto	-10.1726
▁raskaa	-10.1733
▁Päivä	-10.1744
▁epäilee	-10.175
tiedot	-10.1753
tutkija	-10.1755
sähkö	-10.1758
▁toisessa	-10.1762
▁suoritus	-10.1765
▁Bra	-10.1767
pörssi	-10.1772
▁sähköposti	-10.1772
▁raiska	-10.1774
▁Usei	-10.1777
johto	-10.1786
▁rangaistus	-10.1796
▁ammattilais	-10.1797
▁hiljattain	-10.1799
▁sellaisia	-10.18
▁Sää	-10.18
▁astu	-10.1803
tutkimuksen	-10.1808
▁löytynyt	-10.1809
▁aluksi	-10.1813
ffe	-10.1815
lliseksi	-10.1826
▁Toisaalta	-10.1827
▁väestö	-10.1827
▁liittyen	-10.1827
▁Ab	-10.1841
▁Metsä	-10.1855
▁onnistunut	-10.1863
lähetyks	-10.1868
▁huhtikuussa	-10.1882
oikeisto	-10.1882
▁Viesti	-10.1893
▁hö	-10.1905
▁iltapäivällä	-10.191
▁nähden	-10.191
▁tiivis	-10.1913
▁niihin	-10.1921
▁keikka	-10.1927
▁vasemmisto	-10.1936
▁yhdysvaltalais	-10.1938
▁yhteyttä	-10.1938
▁myönsi	-10.1938
▁sammu	-10.194
▁36	-10.195
▁kokoomuksen	-10.1966
▁Tampereella	-10.1968
▁elämässä	-10.1975
▁pelkästään	-10.1994
▁lähinnä	-10.1995
▁tunnelma	-10.1996
kultaa	-10.2007
ilmoituksen	-10.2015
▁nimittäin	-10.2022
puhdist	-10.2027
Hämeen	-10.2027
▁virallise	-10.2028
▁Käy	-10.203
▁paikallise	-10.2044
▁Olympia	-10.205
▁Niskanen	-10.205
▁yksilö	-10.2051
▁lahja	-10.2053
▁Haapa	-10.2055
vaunu	-10.2058
▁pääsy	-10.206
▁hidas	-10.2073
mättömä	-10.2075
▁purka	-10.2075
yhdistykse	-10.2077
studio	-10.2078
siiv	-10.2082
▁parhaillaan	-10.2082
▁jaksa	-10.2085
▁tuskin	-10.2091
▁Molemm	-10.2103
▁tyytyväinen	-10.2106
▁Koivu	-10.2107
▁vauva	-10.2117
▁Britannian	-10.2118
▁etukäteen	-10.2135
▁julkaisema	-10.2135
kaudesta	-10.2136
▁Cup	-10.214
oittaja	-10.2141
vuotiai	-10.2142
▁isänsä	-10.2158
▁allekirjoit	-10.2165
▁Perhe	-10.2169
▁tiedottaa	-10.2171
▁valvo	-10.2173
▁käsitellä	-10.2183
yhä	-10.2189
▁Euroviisu	-10.2192
▁Lopulta	-10.2192
▁saattoi	-10.2195
▁kritiikki	-10.2221
▁kapteeni	-10.2221
▁julkisuuteen	-10.2221
▁lämpimä	-10.2221
▁Kamala	-10.2221
▁käytetään	-10.2244
▁selviää	-10.2245
▁matala	-10.2257
▁käynnisty	-10.2267
▁Loimaa	-10.2267
▁Sunnuntai	-10.2278
▁Washington	-10.2278
▁Joulu	-10.2279
▁selkä	-10.2288
▁Martin	-10.2291
voittaja	-10.231
▁ikävä	-10.2314
vaattei	-10.2316
▁väitti	-10.232
tappio	-10.2328
▁Andre	-10.2336
▁Angel	-10.2337
▁kerralla	-10.2337
▁huomasi	-10.2338
▁vene	-10.2343
▁Tähän	-10.2348
puolustaja	-10.2361
sopimus	-10.2362
▁amerikkalais	-10.2365
▁muodostu	-10.2373
▁Henri	-10.2376
▁sekuntia	-10.2394
▁Koulu	-10.2396
▁ydinase	-10.2396
▁pinta	-10.2397
▁kestää	-10.2399
taistelu	-10.2401
▁pystynyt	-10.2403
▁tappa	-10.2412
moottori	-10.2424
▁vaadi	-10.2428
näytö	-10.2432
▁start	-10.244
hdys	-10.244
Stubb	-10.2452
▁ylös	-10.2453
▁aikojen	-10.2483
käynti	-10.2488
▁seinä	-10.2502
▁Päivi	-10.2512
▁kuninkaallis	-10.2512
▁Pääministeri	-10.2518
▁lausunto	-10.2518
▁kestävä	-10.252
▁sijoittui	-10.252
paikasta	-10.2534
▁myöntä	-10.254
▁Pelicans	-10.2541
▁Barkov	-10.2542
▁kierroksen	-10.2545
▁vieraili	-10.2571
oikeutta	-10.2572
idän	-10.2578
tuotteita	-10.258
▁kyseise	-10.259
▁Maailman	-10.2601
tuottee	-10.2602
▁tarkist	-10.2603
▁raportoi	-10.2605
lund	-10.261
▁epäonnistu	-10.2631
▁tilanteeseen	-10.2631
pöytä	-10.2631
▁Monet	-10.2637
syöttö	-10.265
▁vuodelta	-10.266
▁huolissaan	-10.2661
▁yhdistä	-10.2661
tekijöitä	-10.2661
▁siviili	-10.2661
▁edellä	-10.2662
▁lukemi	-10.2662
Uudenmaan	-10.267
▁Mikael	-10.2674
kaapeli	-10.2682
mark	-10.2682
▁haavoittu	-10.2691
▁välittömästi	-10.2691
▁hankala	-10.2691
ohje	-10.2692
▁illalla	-10.2694
▁Emil	-10.2709
▁kohtuu	-10.2719
toimet	-10.2724
▁suunnittele	-10.2751
▁Liiga	-10.2751
▁vankila	-10.2752
▁Lapissa	-10.2752
▁lukio	-10.2757
▁valitse	-10.2772
hetki	-10.2776
▁upea	-10.2784
▁ennakoi	-10.2812
▁merkittävi	-10.2813
kriittis	-10.2813
▁seiso	-10.2814
torjunta	-10.2816
maajoukkue	-10.2816
partio	-10.2828
▁Loppu	-10.283
▁Sähkö	-10.2842
▁Rovaniemen	-10.2842
tilillään	-10.2855
▁mitat	-10.2859
▁tuomitsi	-10.2873
▁Koskela	-10.2873
▁Robert	-10.2874
viiva	-10.2877
▁käytöstä	-10.2885
ruoka	-10.2886
▁Englanni	-10.2903
▁joulukuuta	-10.2903
▁tietenkin	-10.2903
▁todista	-10.2904
kappale	-10.2911
palkinno	-10.2911
▁vink	-10.2917
▁lippu	-10.2926
▁Media	-10.2937
▁epävarm	-10.2939
▁maailmanmestari	-10.294
▁Innes	-10.2944
▁homma	-10.2945
▁pysähty	-10.2965
▁sydäme	-10.2996
▁kirje	-10.2996
▁vihreä	-10.2998
▁hehku	-10.2999
▁muuttui	-10.3001
▁2015	-10.3002
▁Vantaan	-10.301
▁luvassa	-10.3028
▁laadu	-10.303
▁Australia	-10.3058
kuljettaja	-10.3072
▁tällainen	-10.3089
▁Anton	-10.3095
▁viedä	-10.3096
▁näiden	-10.3098
▁ehtinyt	-10.3105
putki	-10.3117
oikeuteen	-10.3121
▁yllättäen	-10.3121
▁avautu	-10.3129
▁huomaa	-10.3129
▁keskimäärin	-10.3152
ileva	-10.3153
▁West	-10.3157
▁ollessa	-10.3182
▁maalivahti	-10.3184
▁heikentä	-10.3184
▁Yhtiö	-10.3184
▁muistel	-10.3195
▁urallaan	-10.3197
karsinta	-10.3199
▁hauska	-10.3201
▁muuttunut	-10.3205
▁Ilmatieteen	-10.3215
▁sisältö	-10.3215
▁Sosiaali	-10.3215
▁läsnä	-10.3216
turnaus	-10.3222
far	-10.3226
▁piilo	-10.3251
▁HJK	-10.3279
▁tarkemmin	-10.3279
▁syksynä	-10.3279
▁Musk	-10.3287
▁louk	-10.3288
▁esiintyi	-10.3288
▁hyödyntä	-10.3289
ttömän	-10.3291
joukot	-10.3304
yhteyden	-10.3311
▁huomioon	-10.3311
▁Neljä	-10.3311
▁ikinä	-10.3312
puolustukse	-10.3317
▁Alue	-10.3321
kentän	-10.3324
▁laati	-10.3334
▁innostu	-10.3336
▁terveyden	-10.3339
▁Harkimo	-10.3343
▁edeltä	-10.3344
▁lukema	-10.3347
▁rikollis	-10.3353
hiihtäjä	-10.3353
valmiste	-10.3368
yhteys	-10.3376
▁käyttämä	-10.3376
▁bussi	-10.3377
taiteilija	-10.3379
ukselle	-10.339
harjoittelu	-10.3392
opisto	-10.3399
juhla	-10.3402
uudelle	-10.3408
▁Hallitukse	-10.3408
▁kymmeniä	-10.3415
▁milloin	-10.3419
▁välierä	-10.3428
▁ikkuna	-10.3443
▁Finland	-10.3444
▁Nokia	-10.3446
▁pysäyttä	-10.3448
▁lehdistö	-10.3472
▁rauhoit	-10.3472
▁ohella	-10.3474
▁kont	-10.3481
▁hyvinvointi	-10.3482
tilanteessa	-10.3497
▁tavallise	-10.3501
▁täynnä	-10.3505
▁askel	-10.3511
▁suomen	-10.3521
puheenjohtaja	-10.353
▁Kallio	-10.354
▁valitsi	-10.3554
▁Kuopio	-10.357
▁Siihen	-10.357
dellyt	-10.3587
▁vapaaehtois	-10.3605
▁Juuso	-10.3607
▁talven	-10.3609
▁näistä	-10.3612
▁erässä	-10.362
▁poikkeus	-10.3636
komissio	-10.3637
valiokunta	-10.3637
▁irti	-10.364
▁Somero	-10.367
▁esimerkki	-10.3683
▁lyhyt	-10.3702
rekisteri	-10.3702
▁paremma	-10.3705
▁kaasu	-10.3708
▁vahvisti	-10.3709
päivinä	-10.3727
seudun	-10.3733
▁Super	-10.3734
▁keittiö	-10.3736
▁järjestää	-10.3741
lähtö	-10.3768
▁Myöhemmin	-10.3769
▁parlamenti	-10.3769
▁hallitse	-10.3769
Sanomille	-10.377
▁leikkaus	-10.3771
▁ajatella	-10.3776
gaala	-10.3783
kamppailu	-10.3786
uksilla	-10.3798
▁Michael	-10.3803
merkkejä	-10.3803
▁varrella	-10.3803
▁kaipaa	-10.3806
▁eteni	-10.3808
kokemukse	-10.3808
▁ulkoministeriö	-10.3822
▁hiihtä	-10.3826
▁valmennus	-10.3836
▁ennätykse	-10.3837
▁Sarja	-10.3841
▁selittää	-10.3841
▁varsinaise	-10.3873
▁haave	-10.3876
▁pudotuspeli	-10.3904
▁niissä	-10.3912
▁menehty	-10.3917
mättö	-10.3928
▁näkökulmasta	-10.3938
▁tehneet	-10.3939
tuotanno	-10.3942
▁800	-10.3943
▁Aamu	-10.3944
▁työmarkkina	-10.3949
joukkojen	-10.3956
▁veny	-10.3958
▁Venäläis	-10.3972
▁irtisano	-10.3972
▁enempää	-10.3972
peleissä	-10.3973
▁valmiiksi	-10.4007
▁Kanerva	-10.4007
▁voitaisiin	-10.4008
▁kahta	-10.4013
kuntien	-10.4033
viikonloppu	-10.404
▁Asiantuntija	-10.4041
▁tällaista	-10.4041
▁taloudellise	-10.4042
pelaajien	-10.4063
teollisuude	-10.4075
▁kesäkuuta	-10.4076
▁Lindtman	-10.4076
▁siirtyy	-10.4088
▁avasi	-10.4101
▁Valtteri	-10.411
yksistä	-10.4112
▁yleisurheilu	-10.4114
rajoit	-10.4116
tapahtumien	-10.4145
päätöksiä	-10.4145
▁Valtonen	-10.4145
▁kunnolla	-10.4147
▁sotilaallis	-10.416
vaikuttaja	-10.4165
▁km	-10.417
poliitikko	-10.418
▁Lontoo	-10.418
▁Järjest	-10.4181
varuste	-10.4181
▁Latvia	-10.4181
▁paljastui	-10.4188
▁pidetty	-10.4215
▁olosuhtei	-10.4223
X	-10.4224
▁mainos	-10.4225
▁tänne	-10.4227
▁väkivallan	-10.425
▁äidin	-10.425
▁Pariisissa	-10.425
saaren	-10.4277
▁olympialaisissa	-10.4285
▁rakentaa	-10.4285
▁arvostel	-10.4287
keskustelu	-10.4299
poliittisi	-10.432
▁Johanna	-10.4321
▁toimeen	-10.4321
▁liittyi	-10.4322
▁pankki	-10.4328
bb	-10.4328
▁Katri	-10.4329
työhön	-10.4348
▁putosi	-10.4359
▁vuosittain	-10.4359
▁Daily	-10.436
▁Dallas	-10.4364
näyttely	-10.4367
▁viimeistel	-10.4379
▁velka	-10.4381
▁Näyttelijä	-10.4391
▁päätteeksi	-10.4391
▁annettu	-10.4392
▁kallii	-10.4397
▁Ilves	-10.4397
iteetti	-10.4405
▁estää	-10.4409
▁löi	-10.4421
▁tiedottaja	-10.4427
hyppy	-10.4428
▁päättyy	-10.4428
▁todiste	-10.4429
▁äly	-10.4443
▁Tiktok	-10.4463
▁lääke	-10.4463
sovelluks	-10.4463
▁kuluttaja	-10.4464
▁Heidän	-10.4469
leikkauksi	-10.4476
▁yllätykse	-10.4496
▁pelastuslaitoks	-10.4498
▁tapahtumia	-10.4499
▁toukokuuta	-10.4499
▁elokuuta	-10.4499
▁tekoäly	-10.4499
▁kahdesti	-10.4499
kierros	-10.45
▁kahdesta	-10.45
▁Helena	-10.4501
kohtei	-10.4514
▁ehdokkaa	-10.4522
▁mahdollinen	-10.4535
▁paikoin	-10.4535
▁viikossa	-10.4542
▁polttoaine	-10.4571
▁presidentiksi	-10.4571
komitea	-10.4571
Carolina	-10.4572
▁näkyvä	-10.4575
▁muualla	-10.4582
▁kahdeksa	-10.4602
▁eduskunnassa	-10.4607
mestaruutta	-10.4607
▁evakuoi	-10.4607
▁parempaa	-10.4608
▁rakentamis	-10.4609
▁kuningatar	-10.4644
▁reaktio	-10.4644
eurooppalais	-10.4644
▁melkein	-10.4644
▁seitsemä	-10.4653
▁törkeäst	-10.4654
▁Kataja	-10.4654
▁Georgia	-10.4681
▁äärimmäise	-10.4681
▁hallussa	-10.4681
▁Turussa	-10.4682
▁ulkomaalais	-10.4683
kunnissa	-10.4684
urheilija	-10.4702
tilaisuude	-10.4705
▁Verstappen	-10.4717
▁julkaissut	-10.4717
budjetti	-10.4717
▁kulkee	-10.4717
▁lentokone	-10.4733
▁tukeva	-10.4751
▁laite	-10.4751
▁mahdoton	-10.4791
kalusto	-10.4804
▁Väi	-10.4808
Venäjä	-10.4813
▁viihty	-10.4825
▁työnantaja	-10.4828
▁työskennellyt	-10.4828
▁2026	-10.4828
▁tasavallan	-10.4829
▁Torstai	-10.483
tiloissa	-10.4837
oksessa	-10.4839
▁itsenäis	-10.484
▁Kilpailu	-10.4866
▁Tesla	-10.4875
▁rauta	-10.4881
▁vankeus	-10.4881
▁keskuudessa	-10.4903
▁edellyttä	-10.4903
▁kerrostalo	-10.4903
▁entisestään	-10.4907
▁Vaasa	-10.4911
nopeus	-10.4924
▁lattia	-10.4924
▁yhteise	-10.4938
Express	-10.4941
▁Maanantai	-10.4941
▁johtama	-10.4942
▁sattui	-10.4946
▁synk	-10.4959
vaikutuksia	-10.4963
kangas	-10.4974
▁2013	-10.4979
kulttuuri	-10.5008
tehtävä	-10.501
▁syyskuuta	-10.5016
▁SAK	-10.5016
viestejä	-10.5019
▁kannusta	-10.5023
▁uudestaan	-10.5023
▁Tampere	-10.5023
kurssi	-10.5025
kampanja	-10.5047
▁anteeksi	-10.5054
▁unelma	-10.5056
▁Tapio	-10.5057
▁Bottas	-10.5058
osoitte	-10.5058
määri	-10.5059
televa	-10.5059
kadulla	-10.5062
uutena	-10.5071
vaatimukse	-10.5075
▁maine	-10.5088
▁kaunii	-10.5089
▁tukemi	-10.5091
▁maksoi	-10.5093
▁todetaan	-10.5093
sankari	-10.5094
▁Kysy	-10.5118
▁järjestety	-10.5132
▁vieressä	-10.5133
kolari	-10.5139
päätös	-10.5143
omistaja	-10.5147
▁Lähte	-10.5159
onnettomuudessa	-10.5169
▁Tuomas	-10.517
yksikkö	-10.5172
▁Jaakko	-10.5173
▁kuiva	-10.5228
paikat	-10.5228
▁unioni	-10.5247
que	-10.5248
mpänä	-10.5248
menettely	-10.5249
▁valmistelu	-10.5252
konsertti	-10.5253
▁rasva	-10.5258
▁lataus	-10.526
▁Lento	-10.527
ennuste	-10.5281
▁Guardian	-10.5286
▁Ohjelma	-10.5286
▁tarkoituksena	-10.5287
▁pääosin	-10.5287
▁Nuore	-10.5287
▁vasemmistoliito	-10.5288
▁kyseenalais	-10.5325
▁nappasi	-10.5325
▁joutunee	-10.5325
▁suhteessa	-10.5326
▁tasapaino	-10.5327
▁Berg	-10.5327
telleet	-10.536
▁Foreca	-10.5364
▁Helmi	-10.5387
▁kehittämis	-10.5388
lause	-10.5389
▁matkust	-10.5394
▁Panthers	-10.5403
▁vankeuteen	-10.5403
▁todettiin	-10.5403
▁Hieta	-10.5409
▁ravinto	-10.5425
▁lausunnossa	-10.5443
▁haittaa	-10.5445
▁vastaukse	-10.5454
▁tukee	-10.5455
koira	-10.5467
▁Ensimmäinen	-10.5482
▁meteorologi	-10.5482
▁kruunu	-10.5482
▁Laakso	-10.5483
▁Latvala	-10.5483
▁Kiekko	-10.5483
▁Vähä	-10.5484
▁Miss	-10.5485
yleisö	-10.5485
▁Uhri	-10.5486
▁jonkun	-10.5487
▁putoa	-10.5496
▁Rikos	-10.551
▁Kangas	-10.5523
kumppa	-10.5524
▁Sauli	-10.5525
▁käänne	-10.553
kunnalle	-10.5543
▁Henkilö	-10.5562
▁kansainvälist	-10.5562
▁varapresidentti	-10.5562
▁valtiovarain	-10.5562
pyynnö	-10.5562
▁heidät	-10.5563
▁haltuun	-10.5567
▁jäljellä	-10.5602
▁palestiinalais	-10.5602
järvellä	-10.5602
▁osoitti	-10.5603
persoona	-10.5603
▁vastaisena	-10.5605
heitto	-10.5613
kohdat	-10.5631
▁ajatukse	-10.5632
diagnoosi	-10.5643
▁töihin	-10.5648
ehdot	-10.5674
▁ruumii	-10.5674
▁Ferrari	-10.5683
▁KalPa	-10.5683
▁esiintymis	-10.5713
▁huomaut	-10.5719
festivaali	-10.5724
▁Gazassa	-10.5724
▁kohteeksi	-10.5724
▁Yhteis	-10.5726
▁tukema	-10.5744
▁Suomelle	-10.5765
aloitte	-10.5785
▁huhtikuuta	-10.5806
▁pitämään	-10.5806
sairaala	-10.582
burg	-10.5826
▁hevose	-10.5834
=	-10.5847
▁Valioliiga	-10.5847
▁yrityksestä	-10.5847
pyyntö	-10.5847
▁huipu	-10.5849
▁henkilökohtaise	-10.585
▁nuo	-10.5877
▁puolivälierä	-10.5888
▁ymmärrä	-10.5888
▁treena	-10.5888
▁Oikeude	-10.5888
▁bändi	-10.5889
▁Täällä	-10.5889
▁varhain	-10.589
▁demokraattien	-10.5891
korkeakoulu	-10.5921
▁Vornanen	-10.593
▁huumausaine	-10.593
▁kirkko	-10.5931
verkosto	-10.5934
▁Pajari	-10.5935
yhdistys	-10.594
▁treeni	-10.5971
▁pariskunta	-10.5972
▁kesäkuun	-10.5973
▁hermo	-10.5973
▁ulkopuolelle	-10.5976
paikalle	-10.5989
vakuutus	-10.5999
▁suljettu	-10.6013
▁saksalais	-10.6013
qvist	-10.6013
▁keskustella	-10.6015
▁Kemp	-10.6029
▁naimisiin	-10.6055
▁mielipide	-10.6055
▁osittain	-10.6055
▁ampui	-10.6056
▁maalei	-10.6077
▁runsaa	-10.608
▁golf	-10.6097
▁puolivälissä	-10.6097
▁asunnon	-10.6098
kustannuksi	-10.6098
puolustus	-10.6115
muutoksen	-10.6118
▁Nurmi	-10.6119
▁koulutukse	-10.6134
päivystykse	-10.614
▁Meghan	-10.614
▁tällaisi	-10.6141
▁Äiti	-10.6141
▁kokemuksi	-10.6142
▁1,5	-10.6143
▁poiki	-10.6147
▁kuudes	-10.6175
▁kuukaudessa	-10.6182
▁tapahtumista	-10.6182
▁komentaja	-10.6182
▁Leppä	-10.6183
▁ulottu	-10.6183
▁David	-10.6183
▁solmi	-10.6184
▁hakeutu	-10.6191
▁2-1	-10.6191
▁siirtymä	-10.6192
▁Leijonat	-10.6211
▁näkemykse	-10.6225
▁isännöi	-10.6225
▁rasismi	-10.6225
▁molempi	-10.6225
▁Jesse	-10.6226
▁Paikalli	-10.6229
▁irto	-10.623
ehdokkaan	-10.6242
ravintola	-10.6247
€	-10.6268
▁kansainvälisi	-10.6268
▁konkurssi	-10.6268
▁2-0	-10.6268
▁Usea	-10.6272
ongelma	-10.6291
▁Aftonbladet	-10.6311
▁demokratia	-10.6311
▁enemmistö	-10.6311
▁jääkieko	-10.6311
▁Suomalainen	-10.6311
▁työntekijöiden	-10.6311
▁tarvetta	-10.6311
▁saapunut	-10.6312
▁digi	-10.6313
▁Areena	-10.6314
▁pariskunna	-10.6315
▁keskustele	-10.6348
valvoja	-10.6353
▁Ykkös	-10.6354
▁helmikuuta	-10.6354
▁Tornio	-10.6354
▁ylläpitä	-10.6356
kaudelle	-10.6391
▁Radio	-10.6393
▁Aleksand	-10.6398
▁Käräjäoikeus	-10.6398
▁Montreal	-10.6398
vyöry	-10.6398
albumi	-10.64
muutos	-10.6405
á	-10.6442
▁Patrik	-10.6442
▁Markkanen	-10.6442
▁johtuu	-10.6443
joukko	-10.6459
▁Louis	-10.6461
järjestäjä	-10.6462
julkaisu	-10.6469
▁rauhallise	-10.6475
pysäyt	-10.6476
▁United	-10.6485
tilanteissa	-10.6486
▁Joskus	-10.6487
▁parantaa	-10.6488
käytävä	-10.6488
▁majoit	-10.649
yhteyksi	-10.6504
▁vahingoi	-10.6529
▁norjalais	-10.653
▁itäraja	-10.653
teollisuus	-10.6531
▁avajais	-10.6532
asunnossa	-10.6532
▁Petri	-10.6535
▁Portugali	-10.6574
▁julkaistiin	-10.6574
▁tammikuuta	-10.6574
pelejä	-10.6582
▁Epäilty	-10.6618
▁Helenius	-10.6618
hiihdon	-10.6618
▁kahteen	-10.6619
kaupassa	-10.6621
▁2000-	-10.6621
▁Pyr	-10.6625
minuutt	-10.6628
▁taistele	-10.6643
▁Colorado	-10.6663
▁liikkeelle	-10.6663
▁päivittäin	-10.6664
▁Etenkin	-10.6664
▁kiinalais	-10.668
▁Henriksson	-10.6708
▁maahanmuutto	-10.6708
▁hyökkää	-10.6708
▁hirvi	-10.671
▁Tuleva	-10.671
▁pitkäaikais	-10.6716
ttömiä	-10.6721
juoksija	-10.6741
▁Hiihto	-10.6753
▁RKP	-10.6753
▁Olympiakomitea	-10.6753
▁kaikilla	-10.6754
▁penk	-10.6768
▁Jasmi	-10.6776
ympäristö	-10.6788
▁Lääkäri	-10.6798
▁motiivi	-10.6798
▁rahoituks	-10.6798
▁johtanut	-10.6798
▁Edellis	-10.681
valmistaja	-10.6833
▁myöhään	-10.6843
▁kaikissa	-10.6845
päivityksessä	-10.6873
haastattelu	-10.6882
▁musiikin	-10.6889
▁vähentää	-10.6889
▁Alex	-10.6889
▁cup	-10.6889
▁tuhat	-10.6908
▁rakente	-10.692
▁Kiuru	-10.6936
myönteis	-10.6937
kisoja	-10.6958
2023	-10.6977
käräjäoikeudessa	-10.6977
tehtävissä	-10.6981
kustannukset	-10.6981
kautensa	-10.6999
▁tulkit	-10.7011
▁harvinaise	-10.7015
tuotanto	-10.7023
▁Eduskunta	-10.7027
▁huumori	-10.7027
▁parhaimmillaan	-10.7027
▁Mikkel	-10.7034
ymmärret	-10.7074
▁Pelastuslaitos	-10.7074
▁Schumacher	-10.7074
▁pysäköi	-10.7074
▁doping	-10.7074
▁poikkea	-10.7074
▁Tällainen	-10.7075
▁muovi	-10.7086
edustaja	-10.712
▁Manchester	-10.7121
▁Sebastian	-10.7121
▁yhteinen	-10.7121
harvinais	-10.7121
▁ranskalais	-10.7121
▁puolust	-10.7152
▁poliittist	-10.7168
▁koripallo	-10.7168
▁tulleet	-10.7169
metsä	-10.7173
kirjoitus	-10.7214
▁tavallista	-10.7215
Pekka	-10.7216
tarkoitukse	-10.7218
asunto	-10.7231
▁kevye	-10.7233
▁näkemys	-10.7262
tehtäviä	-10.7262
▁hätäkeskukse	-10.7267
maraton	-10.7274
kuorma	-10.7277
▁Puljujärvi	-10.731
▁omakotitalo	-10.731
▁houkuttele	-10.731
▁lahjoit	-10.731
▁sisällö	-10.731
▁vihdoin	-10.731
▁kielletty	-10.7311
luokassa	-10.735
▁tavoittele	-10.7352
▁vuodeksi	-10.7358
liikenteessä	-10.7358
▁ajautu	-10.7397
▁elinkeino	-10.7406
▁toukokuun	-10.7406
▁äärioikeisto	-10.7406
▁sittemmin	-10.7406
▁kaatoi	-10.7406
▁fyysise	-10.7407
▁huima	-10.7454
▁kädessä	-10.7455
draama	-10.7457
säätiö	-10.747
katsomo	-10.7481
huollon	-10.7499
▁Madrid	-10.7502
▁oululais	-10.7502
▁vasemma	-10.7503
▁kaudeksi	-10.7503
▁syttyi	-10.7503
▁kerännyt	-10.7504
▁satei	-10.7509
hiihto	-10.751
▁mielenkiinto	-10.7517
saldo	-10.7518
kallio	-10.7523
▁erilaise	-10.7543
▁Benjamin	-10.7551
▁todellinen	-10.7551
▁kahdessa	-10.7552
▁täältä	-10.7553
yhteistyö	-10.7558
katastrofi	-10.76
▁1990-	-10.76
▁Granlund	-10.76
▁Puolue	-10.76
▁syyskuun	-10.76
▁viivästy	-10.76
▁Mestarie	-10.7601
▁odotettu	-10.7601
lehdessä	-10.7603
▁Jääkiekko	-10.7649
▁Käytännö	-10.765
▁päivystävä	-10.765
▁hyökkäsi	-10.765
▁Laulaja	-10.765
▁kaukana	-10.7652
▁Liettua	-10.7653
▁liikkuva	-10.7655
▁raskas	-10.766
▁Rovaniemellä	-10.7699
▁Slovakia	-10.7699
▁Muutama	-10.7712
rakennus	-10.7713
▁Tutkimukse	-10.7721
▁Presidenti	-10.7748
▁löydettiin	-10.7749
▁Finnair	-10.7749
▁Häkkänen	-10.7749
▁resurss	-10.7749
▁oikeudenkäynti	-10.7749
▁julkaista	-10.7749
▁Vainio	-10.7751
ford	-10.7752
▁kolmos	-10.7753
▁potilas	-10.7761
palkkio	-10.7766
vaurio	-10.7798
vähemmistö	-10.7799
▁Käärijä	-10.7799
▁Onnettomuus	-10.7799
▁analysoi	-10.7799
▁hämmästy	-10.7799
▁löytänyt	-10.7799
▁miljooni	-10.7799
▁työskenteli	-10.7799
▁Taylor	-10.7799
▁yhdellä	-10.7799
▁tyypillise	-10.7799
▁kahdella	-10.78
▁Tuomio	-10.7802
politiikassa	-10.7843
▁NBA	-10.7849
▁konkreetti	-10.7849
▁tarvittaessa	-10.7849
▁otsikoi	-10.7849
kaupasta	-10.7849
▁Jorma	-10.7852
▁loistava	-10.7856
▁Jalkapallo	-10.79
▁Victoria	-10.79
▁suihku	-10.79
▁epäselvä	-10.79
olosuhteet	-10.79
▁Tör	-10.7901
▁länsimai	-10.7915
▁perustuva	-10.792
▁Prinsessa	-10.795
▁ensimmäisi	-10.795
▁konflikti	-10.795
▁kaksois	-10.795
▁tyytyväis	-10.795
▁väittely	-10.795
▁elokuun	-10.7951
▁alkanee	-10.7974
▁ilmastonmuuto	-10.798
parlamentaari	-10.8001
oikeudenkäynni	-10.8001
▁Lounais	-10.8001
▁Perussuomalaist	-10.8001
▁Ruotsalais	-10.8001
▁kokoomus	-10.8001
▁annetaan	-10.8002
opas	-10.8002
▁Sofia	-10.8002
▁ärsy	-10.8004
▁kadonne	-10.8011
▁Netanjahu	-10.8053
▁vapaute	-10.8053
kysymyksen	-10.8053
▁todettu	-10.8053
myymälä	-10.8054
väylä	-10.8056
▁minkäänlai	-10.806
▁kiristy	-10.8061
kaikkein	-10.8068
▁kamppail	-10.8079
päivystys	-10.8104
▁kanslia	-10.8104
▁Hyundai	-10.8156
▁tapahtua	-10.8156
▁mikro	-10.8156
▁mahtava	-10.8157
▁1-0	-10.8158
▁Volodymyr	-10.8208
▁kimppuun	-10.8208
▁Stanley	-10.8208
▁Suzanne	-10.8208
▁rohkea	-10.8208
asiantuntijoi	-10.8208
▁järkevä	-10.8209
▁Kainuu	-10.8209
▁Windows	-10.826
brändi	-10.826
▁sekunnin	-10.8261
▁liikkuu	-10.8261
vaihtoehdo	-10.8284
maisema	-10.8285
▁henkirikokse	-10.8291
▁Edmonton	-10.8313
▁ruokavalio	-10.8313
▁Rydman	-10.8313
▁SaiPa	-10.8313
▁ihastu	-10.8313
▁Paikalla	-10.8314
▁tunnissa	-10.8314
häirintä	-10.8314
▁Pöy	-10.8315
▁kykene	-10.8317
▁ammati	-10.8318
▁oltava	-10.8318
kannust	-10.8345
▁järjestämä	-10.8347
lähdössä	-10.8366
▁Telegram	-10.8366
▁Kärpät	-10.8366
▁noussee	-10.8366
▁unohta	-10.8367
▁harvoin	-10.8367
▁seksuaalisest	-10.837
▁päättymis	-10.8409
▁sattum	-10.8416
infrastruktuuri	-10.8419
▁Pärmäkoski	-10.8419
▁kommentteja	-10.8419
kalenteri	-10.842
tuotteiden	-10.8436
helikopteri	-10.8473
▁Ilveksen	-10.8473
▁Oilers	-10.8473
▁haastattelema	-10.8473
SSS	-10.8476
näyttelijä	-10.8505
Z	-10.8505
lainsäädäntö	-10.8526
▁kongressi	-10.8526
▁onnettomuuden	-10.8526
▁saatavilla	-10.8526
▁miehistö	-10.8527
▁kulkeva	-10.8529
▁Blue	-10.853
▁käytännö	-10.8561
muod	-10.8568
▁Hamilton	-10.858
▁äärijärjestö	-10.858
kampanjoi	-10.8581
▁ukkos	-10.8602
ttomuutta	-10.8632
▁Brasilia	-10.8635
▁fiilis	-10.8635
▁jälkeis	-10.8635
▁tiivii	-10.8639
vastaanoto	-10.8651
firma	-10.8668
Å	-10.8689
▁Tasavallan	-10.8689
▁päätöksestä	-10.8689
▁Rangers	-10.8689
▁pehme	-10.8691
laukaus	-10.8698
▁Mielestäni	-10.8744
▁huomannut	-10.8745
tehdas	-10.8749
▁Kommentti	-10.88
▁Vornase	-10.88
▁kenties	-10.88
▁päätökseen	-10.88
itsenäisyyspäivä	-10.8801
kiellon	-10.8802
▁monipuolis	-10.8808
kysely	-10.8842
ž	-10.8855
▁Ministeri	-10.8855
▁toisaalta	-10.8855
pandemia	-10.8855
▁syrjä	-10.8856
ttomuudesta	-10.886
lämmö	-10.8861
lähteiden	-10.8863
sektori	-10.8863
päätöksen	-10.8899
▁poliisilaitokse	-10.8903
▁Ronaldo	-10.8911
▁arvonlisävero	-10.8911
▁asianajaja	-10.8911
▁kotoisin	-10.8911
kriteer	-10.8915
tutkimus	-10.8956
konferenssi	-10.8967
▁Vasemmistoliito	-10.8967
▁rekisteröi	-10.8967
▁Kansanedustaja	-10.8967
gallup	-10.8967
yksikön	-10.8967
▁Seppä	-10.8967
▁mielipitee	-10.8969
▁Anders	-10.9021
▁työttömyys	-10.9024
▁drooni	-10.9024
▁Toivottavasti	-10.9024
Arabia	-10.9025
▁Borg	-10.9025
▁seurustel	-10.9025
▁Päätös	-10.9027
▁huomattava	-10.9058
ratkaisu	-10.9072
▁tuhoutu	-10.9076
dokumentti	-10.9081
▁Nuorten	-10.9081
▁rahoitta	-10.9082
ø	-10.9138
;	-10.9428
í	-10.9607
Ä	-10.9798
о	-11.0099
*	-11.042
а	-11.0955
@	-11.1667
н	-11.1741
е	-11.1891
и	-11.1967
>	-11.1967
ó	-11.3092
Š	-11.4361
т	-11.4755
р	-11.4958
с	-11.5485
■	-11.5703
л	-11.7254
в	-11.8201
−	-11.8344
ñ	-11.8785
к	-11.909
ë	-11.973
è	-12.1737
д	-12.1737
у	-12.1737
č	-12.2149
#	-12.3744
г	-12.4513
п	-12.4513
я	-12.5641
ы	-12.5641
★	-12.5944
_	-12.5944
м	-12.6257
â	-12.6579
Ã	-12.6579
¤	-12.7614
ú	-12.8369
à	-12.8769
б	-12.9186
ć	-12.9186
й	-12.9186
ł	-12.9621
ь	-13.0075
§	-13.0552
з	-13.1052
ç	-13.1578
æ	-13.2134
ч	-13.2134
·	-13.2134
É	-13.2722
ý	-13.2722
ю	-13.3347
Ž	-13.4013
õ	-13.5497
ï	-13.7239
<	-13.7239
ř	-13.8239
×	-13.8239
Ü	-13.8239
ô	-13.8239
х	-13.935
ж	-13.935
Ø	-13.935
ń	-13.935
ð	-13.9351
В	-14.06
Č	-14.0601
ě	-14.0601
ц	-14.0601
ê	-14.2029
°	-14.2029
Ф	-14.2029
	-14.2029
С	-14.2029
П	-14.3696
‒	-14.3696
©	-14.3696
Ú	-14.5696
ă	-14.5696
ш	-14.5696
щ	-14.5696
ė	-14.5696
ņ	-14.5696
ā	-14.8196
ß	-14.8196
Б	-14.8196
⭐	-14.8196
	-14.8196
ē	-14.8196
ò	-14.8196
ı	-14.8196
А	-14.8196
ф	-14.8196
‐	-14.8196
•	-14.8196
ū	-14.8196
μ	-14.8196
э	-14.8196
Ç	-14.8196
Ш	-15.1529
Æ	-15.1529
α	-15.1529
Í	-15.1529
Þ	-15.1529
ō	-15.1529
ț	-15.1529
К	-15.1529
●	-15.1529
\	-15.6529
‰	-15.6529
À	-15.6529
˗	-15.6529
Л	-15.6529
ů	-15.6529
$	-15.6529
Ó	-15.6529
İ	-15.6529
ň	-15.6529
ŏ	-15.6529
œ	-15.6529
ż	-15.6529
ə	-15.6529
Ж	-15.6529
И	-15.6529
′	-15.6529
⁣	-15.6529
`	-15.6529
¶	-15.6529
ş	-15.6529
Н	-15.6529
Õ	-16.6524
Á	-16.6525
ğ	-16.6526
ã	-16.6527
⁄	-16.6528
Т	-16.6529
	-16.6529
î	-16.6529
ę	-16.6529
Ķ	-16.6529
Ș	-16.6529
~	-16.6529
¡	-16.6529
®	-16.6529
±	-16.6529
Â	-16.6529
Ò	-16.6529
Û	-16.6529
ì	-16.6529
ÿ	-16.6529
ą	-16.6529
đ	-16.6529
ģ	-16.6529
ī	-16.6529
ľ	-16.6529
Ł	-16.6529
ś	-16.6529
ų	-16.6529
ź	-16.6529
ǎ	-16.6529
ș	-16.6529
Д	-16.6529
Э	-16.6529
ỏ	-16.6529
ố	-16.6529
‍	-16.6529
∞	-16.6529
😂	-16.6529
û	-16.6529
З	-16.6529
(	-16.6529
О	-16.6529
