<unk>	0
<s>	0
</s>	0
en	-0
ta	-1
in	-2
is	-3
an	-4
▁k	-5
ll	-6
▁o	-7
▁s	-8
tä	-9
▁m	-10
▁v	-11
▁j	-12
▁p	-13
ti	-14
tu	-15
te	-16
sa	-17
es	-18
to	-19
as	-20
al	-21
ik	-22
▁e	-23
▁h	-24
än	-25
it	-26
▁l	-27
uo	-28
ka	-29
ks	-30
▁.	-31
er	-32
at	-33
us	-34
▁n	-35
ut	-36
li	-37
▁,	-38
▁ja	-39
▁on	-40
un	-41
aa	-42
on	-43
▁a	-44
et	-45
lla	-46
el	-47
▁S	-48
il	-49
ar	-50
im	-51
▁ta	-52
os	-53
ty	-54
lle	-55
oi	-56
▁K	-57
ää	-58
▁tu	-59
▁r	-60
ja	-61
ia	-62
ttä	-63
uu	-64
▁T	-65
ko	-66
le	-67
▁ko	-68
▁y	-69
sä	-70
ke	-71
den	-72
ista	-73
▁M	-74
ma	-75
iv	-76
▁jo	-77
▁H	-78
inen	-79
si	-80
llä	-81
ur	-82
▁P	-83
ki	-84
▁ka	-85
va	-86
▁vi	-87
ri	-88
ul	-89
een	-90
▁mu	-91
▁to	-92
▁V	-93
mm	-94
▁va	-95
hd	-96
ksi	-97
yt	-98
▁että	-99
taa	-100
isi	-101
vat	-102
ys	-103
▁L	-104
ih	-105
ku	-106
ais	-107
yö	-108
▁si	-109
▁se	-110
▁te	-111
▁A	-112
mä	-113
▁E	-114
▁-	-115
pa	-116
▁ti	-117
assa	-118
issa	-119
ir	-120
utta	-121
▁oli	-122
▁en	-123
kaan	-124
▁tä	-125
▁J	-126
▁ei	-127
▁ku	-128
vä	-129
asta	-130
ten	-131
itä	-132
mp	-133
▁N	-134
▁ma	-135
essa	-136
▁sa	-137
kin	-138
uom	-139
▁ker	-140
▁vuo	-141
tel	-142
äh	-143
ot	-144
▁R	-145
llis	-146
▁kä	-147
ina	-148
▁2	-149
uh	-150
▁jä	-151
ne	-152
▁al	-153
kä	-154
iin	-155
ra	-156
▁la	-157
tus	-158
▁as	-159
de	-160
▁hän	-161
op	-162
tö	-163
mis	-164
jo	-165
▁1	-166
ksen	-167
esta	-168
▁O	-169
▁po	-170
ei	-171
▁pää	-172
nn	-173
▁I	-174
tti	-175
vi	-176
ie	-177
man	-178
jä	-179
or	-180
▁kan	-181
▁myö	-182
uk	-183
▁ole	-184
▁mukaan	-185
▁pa	-186
▁is	-187
▁ra	-188
la	-189
jan	-190
▁kun	-191
lo	-192
▁val	-193
iden	-194
nut	-195
taan	-196
▁ha	-197
oit	-198
▁kerto	-199
isen	-200
▁ty	-201
▁kes	-202
yy	-203
pp	-204
mi	-205
ään	-206
usta	-207
van	-208
se	-209
maan	-210
▁nä	-211
istä	-212
oin	-213
▁per	-214
▁pal	-215
▁san	-216
▁myös	-217
teen	-218
ika	-219
▁B	-220
▁"	-221
ossa	-222
uks	-223
▁Suom	-224
esti	-225
▁20	-226
uol	-227
ton	-228
▁li	-229
▁an	-230
▁vä	-231
ussa	-232
ed	-233
ike	-234
ittä	-235
ien	-236
▁es	-237
▁ovat	-238
sin	-239
▁hy	-240
▁ol	-241
▁Y	-242
llut	-243
▁il	-244
▁yh	-245
ssä	-246
▁mi	-247
tta	-248
essä	-249
▁mutta	-250
utu	-251
▁U	-252
tiin	-253
nyt	-254
iste	-255
▁tar	-256
jen	-257
ro	-258
▁läh	-259
he	-260
▁saa	-261
▁voi	-262
aan	-263
▁in	-264
estä	-265
▁toim	-266
ssa	-267
unn	-268
up	-269
ön	-270
▁ke	-271
ivä	-272
▁var	-273
oo	-274
ee	-275
uus	-276
▁pel	-277
ita	-278
lä	-279
taja	-280
issä	-281
▁ih	-282
om	-283
ikka	-284
▁par	-285
ime	-286
00	-287
stä	-288
ana	-289
na	-290
▁t	-291
kka	-292
▁C	-293
iten	-294
pä	-295
asti	-296
▁Hän	-297
lan	-298
ken	-299
rin	-300
erk	-301
hti	-302
itse	-303
me	-304
iko	-305
ua	-306
▁pä	-307
▁ar	-308
enä	-309
ille	-310
▁käy	-311
▁tai	-312
keen	-313
iksi	-314
vin	-315
kk	-316
▁ollut	-317
isä	-318
alais	-319
▁he	-320
ha	-321
▁jäl	-322
▁sen	-323
lli	-324
yn	-325
vo	-326
▁F	-327
men	-328
rj	-329
▁kuin	-330
ve	-331
▁kertoo	-332
▁tapa	-333
isto	-334
▁puol	-335
▁pr	-336
ity	-337
▁joka	-338
▁aik	-339
▁kuu	-340
▁er	-341
tin	-342
illa	-343
osta	-344
▁Ka	-345
▁osa	-346
▁ki	-347
▁men	-348
▁(	-349
ttu	-350
hdo	-351
ikä	-352
ala	-353
▁D	-354
män	-355
ud	-356
oa	-357
▁su	-358
alta	-359
ky	-360
▁Se	-361
ol	-362
▁vasta	-363
▁kir	-364
kon	-365
re	-366
ran	-367
▁jälkeen	-368
mmin	-369
ise	-370
nna	-371
▁Sa	-372
vät	-373
▁puh	-374
▁maa	-375
▁G	-376
rä	-377
▁suo	-378
io	-379
ian	-380
htu	-381
▁viime	-382
▁:	-383
min	-384
▁kanssa	-385
▁kaik	-386
▁3	-387
istu	-388
▁us	-389
ivät	-390
▁kesk	-391
▁La	-392
▁ed	-393
elä	-394
▁niin	-395
itta	-396
▁teh	-397
kaa	-398
▁työ	-399
yty	-400
kö	-401
▁Venä	-402
uto	-403
mista	-404
▁le	-405
minen	-406
taina	-407
▁kul	-408
▁ky	-409
mmen	-410
kan	-411
tään	-412
pu	-413
▁seur	-414
▁pi	-415
▁Tä	-416
da	-417
▁sel	-418
oh	-419
lleen	-420
sim	-421
▁202	-422
nä	-423
▁tule	-424
eli	-425
▁poli	-426
telu	-427
▁lop	-428
isin	-429
▁lu	-430
jän	-431
etta	-432
tte	-433
▁kor	-434
▁na	-435
uksen	-436
▁sy	-437
isesti	-438
▁min	-439
▁Ta	-440
vaa	-441
uud	-442
ali	-443
hta	-444
mat	-445
▁Suomen	-446
jat	-447
▁kin	-448
▁pitä	-449
▁luo	-450
sen	-451
ivat	-452
▁vuonna	-453
ellä	-454
elle	-455
▁sanoo	-456
jon	-457
uut	-458
▁kol	-459
▁jat	-460
inn	-461
uden	-462
mään	-463
nen	-464
joi	-465
▁jul	-466
mme	-467
▁os	-468
▁so	-469
▁suu	-470
ukku	-471
yttä	-472
▁kuiten	-473
pi	-474
▁ä	-475
▁ni	-476
tää	-477
▁kys	-478
▁olla	-479
▁ne	-480
▁kos	-481
▁yli	-482
vuo	-483
▁ot	-484
▁olisi	-485
▁eur	-486
lais	-487
ikko	-488
kra	-489
asi	-490
kil	-491
▁kil	-492
so	-493
▁hen	-494
▁tied	-495
uuta	-496
▁sta	-497
neet	-498
▁oike	-499
▁tie	-500
▁tun	-501
▁hal	-502
tele	-503
ella	-504
▁yhte	-505
▁4	-506
itti	-507
▁re	-508
▁f	-509
koi	-510
▁W	-511
▁tuo	-512
▁tapahtu	-513
ilu	-514
yh	-515
▁tur	-516
kko	-517
han	-518
▁koko	-519
▁sekä	-520
▁lä	-521
ho	-522
▁b	-523
▁alu	-524
massa	-525
kun	-526
▁tilan	-527
▁vas	-528
tuks	-529
▁voit	-530
▁oh	-531
lta	-532
▁nyt	-533
isti	-534
ru	-535
hin	-536
▁päiv	-537
▁mitä	-538
▁kat	-539
usi	-540
esiden	-541
uv	-542
▁5	-543
maa	-544
▁vielä	-545
▁d	-546
tty	-547
▁epä	-548
isiin	-549
ari	-550
ttiin	-551
ni	-552
▁hänen	-553
▁van	-554
emm	-555
ihin	-556
ili	-557
mpi	-558
vel	-559
▁miel	-560
▁Jo	-561
tuksen	-562
▁vuoden	-563
▁no	-564
▁ul	-565
llo	-566
tia	-567
▁järj	-568
▁liik	-569
▁har	-570
▁elä	-571
▁ur	-572
sta	-573
uoli	-574
uuden	-575
mo	-576
osen	-577
▁perus	-578
▁aika	-579
▁mie	-580
är	-581
▁kertoi	-582
simmä	-583
▁ver	-584
▁vain	-585
▁mahdo	-586
vän	-587
▁Vi	-588
▁vo	-589
ui	-590
▁En	-591
▁mat	-592
▁To	-593
▁maan	-594
▁Hel	-595
neen	-596
▁lö	-597
tio	-598
▁Ha	-599
gin	-600
inä	-601
▁väh	-602
▁siitä	-603
▁kaup	-604
▁hyvin	-605
▁Mar	-606
▁lle	-607
▁hä	-608
▁kuitenkin	-609
ulu	-610
▁asi	-611
▁yr	-612
oli	-613
inta	-614
oita	-615
ihe	-616
▁Ukra	-617
kki	-618
toi	-619
itten	-620
itty	-621
teli	-622
llinen	-623
▁vaa	-624
▁tut	-625
▁sitä	-626
jaa	-627
isteri	-628
▁mon	-629
▁kas	-630
▁mää	-631
erkiksi	-632
eh	-633
▁suom	-634
tui	-635
▁Ma	-636
toa	-637
della	-638
▁hyvä	-639
sti	-640
▁presiden	-641
▁sanoi	-642
hdys	-643
▁lo	-644
▁vaik	-645
itys	-646
lin	-647
▁itse	-648
tuu	-649
▁?	-650
htaja	-651
val	-652
▁jossa	-653
▁ensimmä	-654
▁19	-655
kea	-656
eita	-657
▁Ra	-658
ito	-659
ter	-660
▁jon	-661
uttaa	-662
▁Ko	-663
hde	-664
▁i	-665
dän	-666
uole	-667
▁noin	-668
▁jos	-669
▁aina	-670
malla	-671
yr	-672
▁auto	-673
eet	-674
▁ihmis	-675
kuussa	-676
▁koh	-677
▁An	-678
ilta	-679
▁aikana	-680
▁pelaa	-681
iset	-682
isia	-683
▁pit	-684
ittaa	-685
▁Pa	-686
▁ään	-687
jel	-688
lloin	-689
▁yks	-690
▁paljon	-691
tettu	-692
ivi	-693
ig	-694
▁Va	-695
kia	-696
▁ennen	-697
▁lisä	-698
▁esim	-699
kään	-700
kilö	-701
kas	-702
▁väl	-703
▁kiin	-704
▁ilm	-705
kunn	-706
ikki	-707
▁eivät	-708
▁syy	-709
▁las	-710
no	-711
otta	-712
▁sitten	-713
▁sillä	-714
▁maal	-715
▁Venäjän	-716
ulla	-717
▁pys	-718
▁ri	-719
▁jää	-720
▁ette	-721
istö	-722
▁6	-723
▁sai	-724
▁lap	-725
▁lla	-726
▁Ku	-727
▁järjes	-728
▁teke	-729
eri	-730
▁kon	-731
▁hyö	-732
llista	-733
▁kuul	-734
uor	-735
anta	-736
▁yle	-737
▁tuli	-738
▁käyt	-739
▁kilpa	-740
kais	-741
▁muun	-742
ea	-743
▁201	-744
atti	-745
tua	-746
▁tul	-747
kis	-748
▁mil	-749
rke	-750
uot	-751
▁henkilö	-752
hden	-753
ikon	-754
▁op	-755
pan	-756
id	-757
▁keh	-758
▁kau	-759
▁muassa	-760
vuoti	-761
▁maail	-762
▁halli	-763
▁Yhdys	-764
▁mies	-765
▁joukku	-766
ima	-767
uutta	-768
ch	-769
▁Ilta	-770
että	-771
▁Tru	-772
▁vastaan	-773
▁kis	-774
▁ssa	-775
eksi	-776
▁tunn	-777
▁hel	-778
▁Trump	-779
▁ede	-780
▁esimerkiksi	-781
▁kaikki	-782
▁prosen	-783
▁Helsin	-784
ans	-785
tusta	-786
▁He	-787
erä	-788
▁sop	-789
ministeri	-790
misen	-791
isiä	-792
ann	-793
isty	-794
▁het	-795
mia	-796
▁00	-797
etti	-798
▁tö	-799
ittää	-800
llisen	-801
po	-802
▁ulko	-803
do	-804
ue	-805
tun	-806
▁tote	-807
▁kaksi	-808
iva	-809
▁Har	-810
▁asia	-811
ite	-812
▁Jos	-813
vää	-814
▁tulee	-815
una	-816
▁ter	-817
▁Sal	-818
▁kann	-819
▁lau	-820
je	-821
▁aie	-822
kkä	-823
▁7	-824
▁Nä	-825
▁000	-826
▁sija	-827
▁kommen	-828
son	-829
dä	-830
▁huo	-831
▁lis	-832
▁muu	-833
llaan	-834
kseen	-835
▁ajan	-836
ira	-837
teessa	-838
via	-839
▁toimi	-840
▁Ro	-841
llisesti	-842
▁pitää	-843
▁jot	-844
▁raken	-845
▁eli	-846
ksa	-847
▁ettei	-848
▁muut	-849
johtaja	-850
▁olivat	-851
▁suur	-852
din	-853
▁uh	-854
▁mieh	-855
▁arvi	-856
ila	-857
▁väli	-858
vasti	-859
▁ve	-860
iseen	-861
▁Kun	-862
▁Poli	-863
▁euroa	-864
▁Ja	-865
▁Val	-866
▁kaupun	-867
di	-868
▁nim	-869
▁ista	-870
▁sisä	-871
▁vuotta	-872
uksia	-873
▁huom	-874
▁Ukrain	-875
▁ottel	-876
mer	-877
▁tehd	-878
▁Is	-879
ven	-880
▁suunn	-881
▁Na	-882
▁pien	-883
▁nel	-884
▁kut	-885
▁yhd	-886
▁turva	-887
▁tav	-888
tyi	-889
▁yksi	-890
eiden	-891
▁vah	-892
▁uus	-893
▁jotka	-894
▁nais	-895
kuun	-896
▁vir	-897
▁keskus	-898
uro	-899
ing	-900
▁8	-901
▁kirjo	-902
▁Ol	-903
illä	-904
oitta	-905
▁käyttä	-906
isten	-907
▁talo	-908
▁len	-909
▁ksi	-910
onen	-911
emmän	-912
ale	-913
kim	-914
▁aihe	-915
tettiin	-916
▁kar	-917
▁kansa	-918
elta	-919
▁suomalais	-920
asto	-921
▁Li	-922
san	-923
▁laa	-924
▁kuva	-925
teet	-926
ula	-927
kana	-928
eseen	-929
ikan	-930
änä	-931
▁Le	-932
▁jonka	-933
tom	-934
▁Ne	-935
▁vier	-936
▁eikä	-937
▁päätö	-938
▁kunn	-939
▁uut	-940
ettu	-941
▁saan	-942
atta	-943
▁vaih	-944
uudessa	-945
ino	-946
llan	-947
▁met	-948
▁merk	-949
antaina	-950
▁Venäjä	-951
tojen	-952
ihen	-953
llin	-954
▁yllä	-955
▁Mi	-956
jien	-957
eltä	-958
▁tiedot	-959
▁Myö	-960
▁koti	-961
▁mo	-962
oma	-963
▁In	-964
sia	-965
der	-966
uun	-967
▁paika	-968
▁mar	-969
▁aja	-970
▁ase	-971
▁siir	-972
▁onn	-973
▁seuraa	-974
paa	-975
eidän	-976
▁määrä	-977
uri	-978
▁me	-979
▁hi	-980
▁Suomessa	-981
bb	-982
▁On	-983
▁eri	-984
joon	-985
▁Al	-986
▁sil	-987
▁vaikka	-988
ssi	-989
▁tämän	-990
▁lisää	-991
▁Ar	-992
yky	-993
oike	-994
uksessa	-995
▁mahdollis	-996
▁koska	-997
▁liitty	-998
tunut	-999
ine	-1000
▁palvel	-1001
valta	-1002
iti	-1003
▁9	-1004
▁han	-1005
▁olevan	-1006
ltä	-1007
▁ille	-1008
kke	-1009
▁Ruot	-1010
▁teki	-1011
tan	-1012
0-	-1013
▁kaa	-1014
oitti	-1015
gel	-1016
ope	-1017
ustus	-1018
toja	-1019
erg	-1020
▁Euro	-1021
iä	-1022
my	-1023
▁sä	-1024
▁sar	-1025
esty	-1026
▁kesä	-1027
kset	-1028
▁juo	-1029
dan	-1030
▁pu	-1031
▁miljoon	-1032
ppu	-1033
pe	-1034
▁hoi	-1035
▁nous	-1036
utti	-1037
▁tämä	-1038
eella	-1039
oiden	-1040
▁kier	-1041
▁presidentti	-1042
itto	-1043
▁näyt	-1044
▁joutu	-1045
▁myy	-1046
▁päivä	-1047
▁illa	-1048
▁aiemmin	-1049
ver	-1050
olla	-1051
kunta	-1052
▁työn	-1053
▁miten	-1054
▁siihen	-1055
elin	-1056
▁rat	-1057
▁Myös	-1058
▁tava	-1059
▁Si	-1060
osti	-1061
▁maailman	-1062
ansa	-1063
tinen	-1064
ttia	-1065
ulun	-1066
tetaan	-1067
▁g	-1068
▁näh	-1069
▁jota	-1070
▁)	-1071
▁mme	-1072
▁enemmän	-1073
▁muuta	-1074
toon	-1075
enn	-1076
tubb	-1077
▁tällä	-1078
mpia	-1079
mien	-1080
tion	-1081
▁haasta	-1082
yd	-1083
ker	-1084
▁Kes	-1085
oilla	-1086
▁puheen	-1087
viä	-1088
▁löyty	-1089
▁sää	-1090
ystä	-1091
ara	-1092
▁ehdo	-1093
▁Nyt	-1094
▁kysy	-1095
▁vaan	-1096
oihin	-1097
▁Tämä	-1098
▁lisäksi	-1099
▁med	-1100
yttää	-1101
ksia	-1102
▁kohd	-1103
▁peli	-1104
▁suh	-1105
telee	-1106
▁juh	-1107
etty	-1108
▁it	-1109
▁syö	-1110
▁ensi	-1111
▁poliisi	-1112
▁terve	-1113
▁".	-1114
▁muo	-1115
unta	-1116
kuu	-1117
▁säh	-1118
kel	-1119
tetta	-1120
▁saira	-1121
rs	-1122
▁piste	-1123
ettiin	-1124
mu	-1125
▁kertaa	-1126
kus	-1127
▁syn	-1128
jois	-1129
▁Tur	-1130
masta	-1131
▁Suomi	-1132
▁av	-1133
▁mikä	-1134
vuotias	-1135
▁ho	-1136
▁issa	-1137
▁kolme	-1138
▁MM	-1139
iseksi	-1140
▁Ke	-1141
▁mitään	-1142
▁Poliisi	-1143
ani	-1144
▁koke	-1145
▁joh	-1146
▁tärke	-1147
uko	-1148
▁osallis	-1149
▁uu	-1150
▁kyse	-1151
kellä	-1152
▁vaike	-1153
össä	-1154
teita	-1155
▁Per	-1156
▁ken	-1157
▁et	-1158
▁ryh	-1159
▁käs	-1160
tynyt	-1161
▁esiin	-1162
alainen	-1163
▁tal	-1164
▁ymp	-1165
eillä	-1166
▁un	-1167
attaa	-1168
▁nuor	-1169
▁Ukrainan	-1170
alla	-1171
▁mä	-1172
▁sella	-1173
pal	-1174
▁paik	-1175
▁vuos	-1176
▁viikon	-1177
▁Stubb	-1178
▁Ei	-1179
ittu	-1180
▁valmis	-1181
ile	-1182
▁ihan	-1183
itsi	-1184
▁Isra	-1185
▁Poh	-1186
▁u	-1187
▁usko	-1188
▁vide	-1189
▁elo	-1190
tetty	-1191
daan	-1192
yys	-1193
▁jopa	-1194
▁lin	-1195
▁use	-1196
tis	-1197
▁vastaa	-1198
ukka	-1199
▁nyky	-1200
kuuta	-1201
▁poh	-1202
ras	-1203
▁ruo	-1204
▁seura	-1205
▁Euroop	-1206
▁/	-1207
kunnan	-1208
▁oma	-1209
utin	-1210
▁tehtä	-1211
▁kats	-1212
▁prosenttia	-1213
oja	-1214
▁15	-1215
▁San	-1216
▁tarv	-1217
▁kuuka	-1218
attu	-1219
▁puoli	-1220
▁taka	-1221
▁vaati	-1222
▁perjan	-1223
▁au	-1224
til	-1225
vassa	-1226
▁Helsingin	-1227
▁lää	-1228
▁tehdä	-1229
▁kymmen	-1230
ura	-1231
▁rah	-1232
▁alku	-1233
▁Nor	-1234
ukset	-1235
▁vat	-1236
▁enää	-1237
uuri	-1238
▁Sen	-1239
▁sin	-1240
matta	-1241
▁arvioi	-1242
ulta	-1243
▁Vuo	-1244
▁Iltale	-1245
ksan	-1246
lleet	-1247
nus	-1248
osia	-1249
▁Te	-1250
ju	-1251
ivan	-1252
tori	-1253
▁­	-1254
tee	-1255
enne	-1256
istaa	-1257
▁Kuva	-1258
▁johta	-1259
isessa	-1260
ttö	-1261
voim	-1262
▁yleis	-1263
▁hui	-1264
tila	-1265
▁sähkö	-1266
▁kään	-1267
▁Re	-1268
HL	-1269
▁jal	-1270
▁toiv	-1271
▁vuosi	-1272
vien	-1273
▁ongel	-1274
tr	-1275
▁ilta	-1276
▁erity	-1277
▁Il	-1278
ksiä	-1279
▁turvallis	-1280
▁kuo	-1281
▁yhteis	-1282
ppi	-1283
▁selv	-1284
▁aikaa	-1285
▁toimin	-1286
▁ik	-1287
▁200	-1288
▁asian	-1289
misesta	-1290
uttu	-1291
imi	-1292
isa	-1293
▁de	-1294
▁oly	-1295
kes	-1296
mma	-1297
▁rik	-1298
▁halu	-1299
▁sopim	-1300
▁Vir	-1301
▁kello	-1302
▁ihm	-1303
▁mur	-1304
uksesta	-1305
▁kommentoi	-1306
▁aa	-1307
▁pääs	-1308
▁kär	-1309
2.	-1310
tyy	-1311
västi	-1312
ill	-1313
▁pois	-1314
miseen	-1315
▁Pe	-1316
▁än	-1317
▁pain	-1318
▁edus	-1319
▁ava	-1320
▁til	-1321
▁hyökkä	-1322
▁valmen	-1323
▁alle	-1324
ren	-1325
▁jouk	-1326
▁huol	-1327
▁käyttö	-1328
telä	-1329
hän	-1330
▁puolesta	-1331
ce	-1332
ustaja	-1333
mää	-1334
ck	-1335
1.	-1336
▁muuto	-1337
▁todella	-1338
mässä	-1339
▁kauden	-1340
▁Var	-1341
▁pyy	-1342
▁ohjel	-1343
▁saanut	-1344
puol	-1345
▁kautta	-1346
▁loppu	-1347
uta	-1348
gen	-1349
ttää	-1350
ksiin	-1351
▁julka	-1352
ityksen	-1353
uudesta	-1354
▁täys	-1355
▁pan	-1356
▁Es	-1357
▁pitkä	-1358
▁tulo	-1359
▁vara	-1360
tys	-1361
▁sunn	-1362
kee	-1363
▁tuom	-1364
▁voim	-1365
▁Lisä	-1366
▁otta	-1367
▁vuoksi	-1368
aisen	-1369
ikke	-1370
▁valta	-1371
▁nope	-1372
tely	-1373
eille	-1374
kti	-1375
▁10	-1376
ilun	-1377
▁jen	-1378
▁vahv	-1379
jia	-1380
isoi	-1381
su	-1382
▁!	-1383
väl	-1384
▁Ch	-1385
▁Mon	-1386
von	-1387
▁yl	-1388
utus	-1389
▁pah	-1390
ry	-1391
jassa	-1392
▁Viime	-1393
gra	-1394
iri	-1395
▁rauh	-1396
▁neljä	-1397
tetään	-1398
ilee	-1399
▁kuten	-1400
ittäin	-1401
ityks	-1402
▁vähän	-1403
tut	-1404
imo	-1405
▁tiista	-1406
iton	-1407
▁tässä	-1408
▁Min	-1409
heilu	-1410
▁aikaan	-1411
ksy	-1412
▁EU	-1413
ottaa	-1414
▁joukkue	-1415
ös	-1416
▁pro	-1417
▁tarkoi	-1418
▁amm	-1419
▁Putin	-1420
teiden	-1421
esi	-1422
kkin	-1423
innan	-1424
▁eh	-1425
▁olen	-1426
nan	-1427
teri	-1428
ff	-1429
▁Or	-1430
jana	-1431
oittaa	-1432
llen	-1433
kku	-1434
▁kie	-1435
ojen	-1436
▁täy	-1437
mpaa	-1438
▁Z	-1439
▁Hänen	-1440
▁Kar	-1441
▁mukana	-1442
▁hetkellä	-1443
mus	-1444
▁kokon	-1445
▁Ky	-1446
3.	-1447
▁lähes	-1448
itt	-1449
mistä	-1450
▁tullut	-1451
gi	-1452
pää	-1453
tie	-1454
don	-1455
▁tilanne	-1456
ria	-1457
▁keskivi	-1458
▁hall	-1459
▁ia	-1460
▁py	-1461
▁Yhdysvalta	-1462
▁tarjo	-1463
por	-1464
▁Kor	-1465
▁Pal	-1466
ikolla	-1467
▁onnistu	-1468
▁Lisäksi	-1469
▁alkoi	-1470
telussa	-1471
▁lta	-1472
kona	-1473
▁Par	-1474
▁juuri	-1475
ily	-1476
▁siinä	-1477
▁koulu	-1478
isesta	-1479
▁paikka	-1480
▁tutkim	-1481
ostaa	-1482
▁tyy	-1483
▁Pohjois	-1484
lainen	-1485
▁uuden	-1486
kul	-1487
▁pyö	-1488
▁vuod	-1489
▁joten	-1490
▁asti	-1491
▁18	-1492
mmär	-1493
teki	-1494
▁ilman	-1495
▁Ki	-1496
▁Lo	-1497
oissa	-1498
▁kiinni	-1499
▁sosia	-1500
isille	-1501
▁lähti	-1502
▁yhteen	-1503
nin	-1504
▁ras	-1505
▁kasv	-1506
kkaa	-1507
▁jäsen	-1508
mon	-1509
ointi	-1510
▁siv	-1511
▁pala	-1512
▁matka	-1513
annut	-1514
llään	-1515
um	-1516
▁näky	-1517
▁perä	-1518
hemmin	-1519
alu	-1520
ittiin	-1521
ang	-1522
riä	-1523
▁Lin	-1524
▁maks	-1525
▁saada	-1526
tön	-1527
▁Ale	-1528
▁taas	-1529
iku	-1530
ikk	-1531
▁kaudella	-1532
▁iso	-1533
▁riko	-1534
aar	-1535
▁toinen	-1536
yyttä	-1537
▁edelleen	-1538
▁Ho	-1539
▁Yle	-1540
▁ilma	-1541
▁lain	-1542
▁takia	-1543
▁tasa	-1544
var	-1545
uli	-1546
uolella	-1547
unut	-1548
▁Olen	-1549
▁kuitenkaan	-1550
▁palj	-1551
▁mesta	-1552
opp	-1553
eili	-1554
▁miehen	-1555
▁huu	-1556
▁jäi	-1557
▁Ukraina	-1558
▁pitäisi	-1559
itel	-1560
ber	-1561
▁suos	-1562
joukku	-1563
▁kyl	-1564
▁ystä	-1565
tunti	-1566
▁toden	-1567
▁Er	-1568
▁mielestä	-1569
▁hie	-1570
jö	-1571
▁pare	-1572
▁run	-1573
▁toisen	-1574
omet	-1575
▁arvo	-1576
▁Lap	-1577
▁Mo	-1578
▁12	-1579
näkö	-1580
▁kansan	-1581
miin	-1582
▁lämp	-1583
ukseen	-1584
ore	-1585
▁stä	-1586
iston	-1587
osa	-1588
▁asu	-1589
seen	-1590
▁halua	-1591
▁kiinn	-1592
llon	-1593
äs	-1594
▁perhe	-1595
▁alueella	-1596
kos	-1597
▁Trumpin	-1598
▁Mutta	-1599
▁viera	-1600
ettom	-1601
▁Pel	-1602
▁ro	-1603
▁pysty	-1604
▁ainakin	-1605
yks	-1606
tanut	-1607
▁17	-1608
joit	-1609
▁neuv	-1610
▁voisi	-1611
▁nsa	-1612
ona	-1613
▁Kys	-1614
▁peruste	-1615
▁päätty	-1616
▁perin	-1617
▁voitti	-1618
▁Näin	-1619
mpu	-1620
▁hava	-1621
▁Yhdysvaltain	-1622
▁ikä	-1623
▁ero	-1624
imme	-1625
▁lais	-1626
▁hallitus	-1627
ele	-1628
▁Me	-1629
▁löy	-1630
▁palvelu	-1631
▁kamp	-1632
▁vaka	-1633
▁olleet	-1634
▁kri	-1635
▁Van	-1636
▁Biden	-1637
San	-1638
▁opp	-1639
▁pol	-1640
inväl	-1641
▁viesti	-1642
▁yhdessä	-1643
her	-1644
alan	-1645
▁eten	-1646
▁vel	-1647
▁haastat	-1648
▁päästä	-1649
▁tta	-1650
▁perjantaina	-1651
missa	-1652
▁X	-1653
▁sijaitse	-1654
▁edusta	-1655
▁kaupungin	-1656
kkää	-1657
▁Mä	-1658
▁näin	-1659
▁mer	-1660
anne	-1661
▁ajo	-1662
▁IS	-1663
▁Ri	-1664
▁kolm	-1665
4.	-1666
▁main	-1667
▁Ni	-1668
▁jär	-1669
▁Pää	-1670
▁Ga	-1671
▁tuomi	-1672
ena	-1673
jät	-1674
▁vies	-1675
▁lento	-1676
▁omista	-1677
▁julkais	-1678
▁katso	-1679
▁tavalla	-1680
▁kilomet	-1681
▁ymmär	-1682
ly	-1683
▁saman	-1684
▁hallituksen	-1685
ase	-1686
mmat	-1687
untaina	-1688
▁ensimmäisen	-1689
per	-1690
▁od	-1691
astus	-1692
▁kerr	-1693
▁lauantaina	-1694
▁Da	-1695
▁NHL	-1696
ikkona	-1697
ga	-1698
▁16	-1699
▁ottelu	-1700
ottu	-1701
ilais	-1702
▁kerro	-1703
▁puheenjohtaja	-1704
▁ten	-1705
▁odo	-1706
▁tieto	-1707
▁yhden	-1708
ensä	-1709
▁kyllä	-1710
osi	-1711
▁yhti	-1712
▁ratkais	-1713
▁missä	-1714
▁viikolla	-1715
▁tiedotteessa	-1716
sson	-1717
▁histo	-1718
▁presidentin	-1719
sky	-1720
▁Insta	-1721
kasta	-1722
vansa	-1723
▁Oulun	-1724
keä	-1725
▁kirjoittaa	-1726
räjä	-1727
imp	-1728
sar	-1729
heili	-1730
aav	-1731
olo	-1732
▁rikos	-1733
▁kuinka	-1734
▁Instagra	-1735
▁miljoonaa	-1736
▁Hy	-1737
▁viran	-1738
ard	-1739
len	-1740
▁nuo	-1741
▁siis	-1742
▁heti	-1743
▁perh	-1744
▁hieman	-1745
rit	-1746
▁uusi	-1747
▁puolustus	-1748
▁niitä	-1749
oitus	-1750
▁alka	-1751
▁Kos	-1752
▁Hä	-1753
▁tän	-1754
▁parha	-1755
▁välillä	-1756
▁muistu	-1757
▁joita	-1758
▁kuulu	-1759
▁nor	-1760
▁fina	-1761
▁käsi	-1762
kuva	-1763
▁kahden	-1764
▁eriko	-1765
ris	-1766
äri	-1767
▁muka	-1768
▁verk	-1769
▁täysin	-1770
▁alkaa	-1771
▁venä	-1772
▁tilante	-1773
ket	-1774
▁sur	-1775
▁Kä	-1776
otti	-1777
kiin	-1778
▁kulj	-1779
▁yhtä	-1780
▁kuole	-1781
▁toista	-1782
tyä	-1783
▁maksa	-1784
mman	-1785
▁vih	-1786
▁ihin	-1787
ron	-1788
▁tek	-1789
joitus	-1790
ikin	-1791
▁häntä	-1792
▁c	-1793
▁tänä	-1794
▁tehnyt	-1795
▁tunne	-1796
urin	-1797
▁heidän	-1798
isessä	-1799
alin	-1800
raa	-1801
▁oman	-1802
▁työnteki	-1803
▁vai	-1804
▁suunnitel	-1805
▁ala	-1806
▁pur	-1807
▁aiko	-1808
▁todennäkö	-1809
▁edes	-1810
▁piti	-1811
▁julkis	-1812
▁30	-1813
▁mielen	-1814
▁etu	-1815
▁kohta	-1816
▁kerran	-1817
▁vaikutta	-1818
oista	-1819
▁auton	-1820
kohta	-1821
ota	-1822
vos	-1823
▁Euroopan	-1824
lia	-1825
räjäoike	-1826
▁lähe	-1827
▁taso	-1828
änn	-1829
paan	-1830
▁myöhemmin	-1831
alaisten	-1832
itos	-1833
▁myön	-1834
▁merkittä	-1835
dy	-1836
ytti	-1837
▁järjestel	-1838
▁jatkaa	-1839
▁tien	-1840
vinto	-1841
rstaina	-1842
▁koul	-1843
▁Su	-1844
▁tiet	-1845
▁useita	-1846
utui	-1847
▁varsin	-1848
▁0	-1849
▁koi	-1850
ba	-1851
▁viranoma	-1852
▁New	-1853
▁yrittä	-1854
▁pö	-1855
iassa	-1856
liig	-1857
▁Ä	-1858
▁vaihe	-1859
isella	-1860
▁torstaina	-1861
1-	-1862
▁sul	-1863
▁25	-1864
▁suosi	-1865
▁otti	-1866
ikkö	-1867
itte	-1868
▁Ruotsin	-1869
▁huoli	-1870
▁lopp	-1871
▁tutki	-1872
▁sal	-1873
▁nähd	-1874
ukkaan	-1875
Suom	-1876
otus	-1877
▁venälä	-1878
▁herä	-1879
▁euron	-1880
▁viikko	-1881
▁Itä	-1882
▁työs	-1883
▁näyttää	-1884
▁Tuo	-1885
▁Pari	-1886
hdelle	-1887
tella	-1888
▁ottelun	-1889
▁aiheutta	-1890
sy	-1891
ttaa	-1892
▁tiistaina	-1893
▁Kat	-1894
udessa	-1895
▁Kir	-1896
▁voivat	-1897
▁maanantaina	-1898
kän	-1899
▁pääse	-1900
▁aivan	-1901
ehto	-1902
▁väk	-1903
▁Vä	-1904
▁joukko	-1905
▁ottaa	-1906
▁tutkin	-1907
▁Vaikka	-1908
▁keskiviikkona	-1909
ällä	-1910
▁Puol	-1911
▁kuoli	-1912
▁alussa	-1913
▁El	-1914
hi	-1915
▁tuot	-1916
▁usein	-1917
▁jatku	-1918
uuteen	-1919
▁Yhdysva	-1920
▁alue	-1921
▁puolestaan	-1922
anna	-1923
onsa	-1924
▁hänet	-1925
▁mahdollista	-1926
eensa	-1927
▁vaihto	-1928
▁tod	-1929
▁koskaan	-1930
▁leikka	-1931
ulle	-1932
▁tan	-1933
essaan	-1934
▁sunnuntaina	-1935
luv	-1936
▁ris	-1937
▁jalka	-1938
▁yksity	-1939
ussi	-1940
▁llis	-1941
▁ir	-1942
▁liig	-1943
▁Po	-1944
▁vie	-1945
▁el	-1946
▁käytä	-1947
▁mistä	-1948
▁tila	-1949
▁tavoit	-1950
omat	-1951
tuksia	-1952
▁voima	-1953
▁joulu	-1954
tur	-1955
telun	-1956
▁perusteella	-1957
▁roo	-1958
era	-1959
▁Israelin	-1960
▁järjestä	-1961
▁voin	-1962
▁vanhe	-1963
kie	-1964
▁kierro	-1965
▁kilpailu	-1966
jaan	-1967
tar	-1968
▁por	-1969
▁Ti	-1970
▁asiasta	-1971
▁Suomeen	-1972
astaan	-1973
▁mitta	-1974
▁Ve	-1975
usto	-1976
aatio	-1977
▁toteaa	-1978
▁tuleva	-1979
mättä	-1980
▁siellä	-1981
▁Lu	-1982
▁jaks	-1983
▁epäil	-1984
▁tätä	-1985
▁Salon	-1986
▁minuut	-1987
▁pyr	-1988
▁puolu	-1989
ini	-1990
▁yhä	-1991
kir	-1992
kkaan	-1993
▁sään	-1994
▁tälla	-1995
▁ympär	-1996
▁ain	-1997
▁olympia	-1998
astaa	-1999
sut	-2000
▁silloin	-2001
▁So	-2002
▁pysä	-2003
▁käynn	-2004
▁työsken	-2005
▁Niin	-2006
▁lähte	-2007
kaup	-2008
neksi	-2009
▁politi	-2010
▁vapa	-2011
ero	-2012
ksesta	-2013
▁päivän	-2014
▁Tu	-2015
▁ap	-2016
▁her	-2017
▁turvallisuus	-2018
iselle	-2019
▁keske	-2020
▁tausta	-2021
▁Asi	-2022
mar	-2023
vuotiaan	-2024
perä	-2025
▁pysy	-2026
▁ää	-2027
yden	-2028
▁hiih	-2029
▁199	-2030
▁ehkä	-2031
▁jään	-2032
▁johtaja	-2033
▁äänestä	-2034
ge	-2035
▁tehty	-2036
ire	-2037
uha	-2038
▁kävi	-2039
▁toiminta	-2040
▁Kol	-2041
▁joissa	-2042
▁sijaan	-2043
▁kal	-2044
oille	-2045
tit	-2046
kusta	-2047
▁Etelä	-2048
uvo	-2049
eilla	-2050
▁kansainväl	-2051
berg	-2052
▁ent	-2053
▁korke	-2054
mät	-2055
res	-2056
▁sosiaal	-2057
▁iin	-2058
▁mukaansa	-2059
▁osallistu	-2060
▁ensimmäinen	-2061
ene	-2062
▁uud	-2063
▁Tar	-2064
vänsä	-2065
▁julk	-2066
talo	-2067
▁ohj	-2068
▁tarvitse	-2069
fi	-2070
isu	-2071
yyn	-2072
▁Lue	-2073
▁mel	-2074
▁puu	-2075
▁saattaa	-2076
▁Kyse	-2077
▁ihmistä	-2078
▁kaks	-2079
stö	-2080
▁vää	-2081
▁lapsi	-2082
uhti	-2083
päiv	-2084
▁pääsi	-2085
▁Hen	-2086
eelle	-2087
tänyt	-2088
ist	-2089
jää	-2090
▁Joh	-2091
▁jolla	-2092
mper	-2093
▁pari	-2094
▁vuosina	-2095
▁kokonais	-2096
lu	-2097
▁muita	-2098
▁ammatti	-2099
▁sano	-2100
▁tulla	-2101
▁enna	-2102
isellä	-2103
▁Rovan	-2104
▁2022	-2105
ela	-2106
osto	-2107
ttävä	-2108
▁raja	-2109
▁sotil	-2110
▁vaal	-2111
gan	-2112
▁2023	-2113
▁tosi	-2114
▁inen	-2115
▁Läh	-2116
▁its	-2117
▁tap	-2118
kossa	-2119
▁huippu	-2120
ivo	-2121
▁pe	-2122
▁urheili	-2123
las	-2124
▁Mies	-2125
utunut	-2126
▁josta	-2127
▁uutta	-2128
▁ravinto	-2129
▁läpi	-2130
▁jotta	-2131
▁jälleen	-2132
▁erittäin	-2133
▁minen	-2134
▁laus	-2135
▁luki	-2136
▁yö	-2137
ander	-2138
▁kirja	-2139
▁nainen	-2140
▁neljän	-2141
▁markkin	-2142
▁No	-2143
auto	-2144
▁käsit	-2145
▁liikenne	-2146
▁tode	-2147
residen	-2148
ip	-2149
vissa	-2150
▁kanna	-2151
▁yhteisty	-2152
▁varm	-2153
▁tänään	-2154
▁anta	-2155
▁kohtaa	-2156
▁Pet	-2157
▁ajat	-2158
▁sis	-2159
ryh	-2160
▁50	-2161
▁uude	-2162
▁11	-2163
palvel	-2164
▁viikonl	-2165
onal	-2166
ydessä	-2167
▁joiden	-2168
▁vaikuttaa	-2169
mentaja	-2170
▁perheen	-2171
tissa	-2172
jille	-2173
▁rakenn	-2174
▁syys	-2175
▁oikeus	-2176
▁kaan	-2177
joiden	-2178
▁seitse	-2179
kiä	-2180
mys	-2181
▁13	-2182
hing	-2183
▁nousi	-2184
▁päivänä	-2185
ude	-2186
▁meni	-2187
▁keski	-2188
▁tekee	-2189
▁jotain	-2190
▁urheilu	-2191
imaan	-2192
▁uutisoi	-2193
▁lopulta	-2194
visi	-2195
▁poikke	-2196
▁asiantunti	-2197
oni	-2198
ottelu	-2199
▁lähet	-2200
▁pitkään	-2201
ppo	-2202
▁takaisin	-2203
▁valmista	-2204
▁kahde	-2205
▁luonn	-2206
▁elämän	-2207
▁suora	-2208
▁tähän	-2209
▁näyttä	-2210
▁",	-2211
▁antaa	-2212
▁lasten	-2213
uksista	-2214
▁riittä	-2215
▁pidä	-2216
▁Esim	-2217
östä	-2218
▁The	-2219
▁osaa	-2220
▁maahan	-2221
ieh	-2222
▁Antti	-2223
▁hyvinv	-2224
▁lapsen	-2225
tann	-2226
rän	-2227
▁ssä	-2228
▁käyttää	-2229
liiton	-2230
▁myötä	-2231
▁kolman	-2232
▁tapahtui	-2233
▁Kaikki	-2234
ensa	-2235
▁teko	-2236
▁ympäri	-2237
▁nopeasti	-2238
▁onnettom	-2239
▁pud	-2240
hol	-2241
▁pos	-2242
imman	-2243
telua	-2244
▁niiden	-2245
iltä	-2246
toin	-2247
▁llä	-2248
▁laps	-2249
▁ampu	-2250
jär	-2251
▁kapp	-2252
▁voidaan	-2253
pallo	-2254
▁samalla	-2255
▁hänelle	-2256
▁huolimatta	-2257
kse	-2258
▁hu	-2259
▁ura	-2260
▁loukkaan	-2261
▁mais	-2262
▁vapaa	-2263
▁tähti	-2264
▁haluaa	-2265
yksen	-2266
▁eteen	-2267
uksi	-2268
▁luku	-2269
llisia	-2270
otto	-2271
▁liitto	-2272
▁yritys	-2273
,5	-2274
oon	-2275
▁län	-2276
▁lääkä	-2277
▁Esimerkiksi	-2278
▁14	-2279
vy	-2280
iha	-2281
▁Ed	-2282
▁liian	-2283
▁ihmisiä	-2284
▁puhu	-2285
▁ottelussa	-2286
▁käräjäoike	-2287
valla	-2288
▁suun	-2289
iken	-2290
suom	-2291
▁puut	-2292
▁voitto	-2293
▁Yksi	-2294
aap	-2295
kari	-2296
▁ruoka	-2297
▁valtio	-2298
usti	-2299
ikaan	-2300
▁sair	-2301
isestä	-2302
▁kuuluu	-2303
iso	-2304
rik	-2305
ser	-2306
▁vaali	-2307
▁yliop	-2308
ikuussa	-2309
▁rä	-2310
▁lämpö	-2311
▁Tamper	-2312
▁valtion	-2313
▁yhteydessä	-2314
tali	-2315
nti	-2316
oku	-2317
▁löytyy	-2318
▁kymmenen	-2319
▁kesken	-2320
▁kansaned	-2321
▁Car	-2322
ittaja	-2323
▁suuri	-2324
lliset	-2325
▁jatko	-2326
▁erityisesti	-2327
▁asiaa	-2328
▁viisi	-2329
▁Sil	-2330
▁poliisin	-2331
▁laj	-2332
▁joukkueen	-2333
▁Rans	-2334
dio	-2335
▁Oli	-2336
▁hil	-2337
▁menn	-2338
▁pelaaja	-2339
▁terveys	-2340
päin	-2341
▁musi	-2342
▁koske	-2343
▁saapu	-2344
▁vaiheessa	-2345
▁suor	-2346
▁kerrotaan	-2347
anen	-2348
▁2024	-2349
▁Hi	-2350
▁Mat	-2351
mppan	-2352
Sanomat	-2353
▁EM	-2354
usten	-2355
yhti	-2356
▁kur	-2357
▁tarko	-2358
▁yhteensä	-2359
▁kampan	-2360
ves	-2361
ytyy	-2362
▁alla	-2363
▁sota	-2364
▁jolloin	-2365
▁Maa	-2366
▁kysymy	-2367
estö	-2368
isivat	-2369
ettaja	-2370
▁lähtö	-2371
▁Tor	-2372
▁päätös	-2373
.)	-2374
ksella	-2375
▁Por	-2376
▁hake	-2377
▁moni	-2378
▁Pi	-2379
kinen	-2380
▁näkö	-2381
▁joista	-2382
▁kahd	-2383
▁Br	-2384
tonen	-2385
▁Mikko	-2386
▁kah	-2387
▁näke	-2388
▁aikais	-2389
▁tehtävä	-2390
▁ehd	-2391
▁lyh	-2392
▁suori	-2393
lee	-2394
▁Alex	-2395
▁syyt	-2396
▁huomio	-2397
▁meidän	-2398
▁metsä	-2399
ukse	-2400
▁ulos	-2401
▁tästä	-2402
▁luke	-2403
usa	-2404
▁asun	-2405
▁Tämän	-2406
co	-2407
▁Lei	-2408
▁ruu	-2409
mokra	-2410
▁ennä	-2411
▁ihmiset	-2412
reen	-2413
▁pako	-2414
▁iden	-2415
▁saav	-2416
ohjel	-2417
estari	-2418
▁kulttu	-2419
▁vaikea	-2420
kut	-2421
jasta	-2422
iky	-2423
▁SM	-2424
▁välttä	-2425
tos	-2426
joukkue	-2427
-2	-2428
▁Tuom	-2429
▁ilmoi	-2430
▁korkea	-2431
▁marras	-2432
▁Tie	-2433
▁ykk	-2434
▁Lind	-2435
▁naisten	-2436
▁keskusta	-2437
▁hien	-2438
▁viestin	-2439
▁Kon	-2440
▁Kiin	-2441
yyd	-2442
elen	-2443
▁Kan	-2444
isenä	-2445
istää	-2446
▁mene	-2447
ban	-2448
lamen	-2449
▁menesty	-2450
▁näytteli	-2451
johta	-2452
esin	-2453
peli	-2454
▁kannattaa	-2455
mmi	-2456
▁mieli	-2457
▁sodan	-2458
▁Pä	-2459
▁Mer	-2460
onn	-2461
▁Leh	-2462
ikkaa	-2463
und	-2464
ksua	-2465
▁touko	-2466
▁yksityis	-2467
go	-2468
▁prin	-2469
▁kohti	-2470
▁ympäristö	-2471
▁oikeuden	-2472
▁mole	-2473
alaiset	-2474
▁poliitt	-2475
ikku	-2476
▁onko	-2477
lad	-2478
▁liike	-2479
▁Hal	-2480
▁erilais	-2481
▁kirjoitti	-2482
hoi	-2483
mas	-2484
tukset	-2485
▁norma	-2486
▁runsa	-2487
▁yhtiö	-2488
itoksen	-2489
kerta	-2490
▁help	-2491
▁tilanteessa	-2492
rian	-2493
vasta	-2494
▁luon	-2495
uteen	-2496
▁korva	-2497
tukseen	-2498
itteli	-2499
▁joutui	-2500
▁tulisi	-2501
▁sairaal	-2502
▁ilmoitti	-2503
▁aam	-2504
issaan	-2505
▁Jä	-2506
tävä	-2507
utuu	-2508
▁rii	-2509
itystä	-2510
▁yksin	-2511
▁Ur	-2512
viin	-2513
▁loka	-2514
▁minkä	-2515
▁suurin	-2516
tien	-2517
▁mestar	-2518
▁kohdistu	-2519
▁tuke	-2520
▁kaikkia	-2521
▁pide	-2522
▁synty	-2523
alaisen	-2524
▁haastattelussa	-2525
▁miksi	-2526
▁vaara	-2527
netta	-2528
▁akti	-2529
toim	-2530
onald	-2531
▁muod	-2532
▁päälle	-2533
▁tilais	-2534
▁Nato	-2535
▁kseen	-2536
aleissa	-2537
▁kolmen	-2538
▁Ver	-2539
▁poika	-2540
tal	-2541
▁Ter	-2542
jista	-2543
▁istu	-2544
▁kisa	-2545
▁asioita	-2546
iltana	-2547
▁tunte	-2548
ilija	-2549
▁Syy	-2550
▁puolue	-2551
▁Saksa	-2552
▁hinta	-2553
▁jätti	-2554
▁helm	-2555
ksista	-2556
▁miesten	-2557
lly	-2558
▁kap	-2559
▁totesi	-2560
hy	-2561
ittain	-2562
▁kaiken	-2563
▁Ba	-2564
▁Til	-2565
▁olleen	-2566
▁istä	-2567
▁lah	-2568
▁hir	-2569
▁Työ	-2570
▁tapp	-2571
▁törke	-2572
▁40	-2573
▁Kr	-2574
▁kö	-2575
uur	-2576
▁tor	-2577
▁hallin	-2578
pon	-2579
▁isän	-2580
▁selvi	-2581
liin	-2582
▁kuts	-2583
▁pohti	-2584
▁tulevais	-2585
mies	-2586
▁som	-2587
kanen	-2588
ottiin	-2589
▁misen	-2590
▁pääministeri	-2591
▁heinä	-2592
▁Vil	-2593
▁olympi	-2594
▁mediassa	-2595
▁De	-2596
▁taa	-2597
▁hyväksy	-2598
vana	-2599
▁opis	-2600
▁kuvan	-2601
▁verran	-2602
uper	-2603
estään	-2604
ttänyt	-2605
teeseen	-2606
ihd	-2607
ksu	-2608
udesta	-2609
kää	-2610
voima	-2611
▁suure	-2612
▁muiden	-2613
▁Bar	-2614
öl	-2615
▁Fa	-2616
emmisto	-2617
▁oikein	-2618
uma	-2619
▁päivää	-2620
▁talous	-2621
▁Ylen	-2622
▁tietojen	-2623
tain	-2624
▁ilmi	-2625
uksissa	-2626
▁asunn	-2627
▁paikalla	-2628
▁tuki	-2629
▁viiden	-2630
▁kilpail	-2631
▁Ul	-2632
llisuus	-2633
päivä	-2634
▁silti	-2635
▁Yhdysval	-2636
▁kuvaa	-2637
▁vanke	-2638
▁pääval	-2639
8.	-2640
inna	-2641
▁joku	-2642
▁näy	-2643
▁muistuttaa	-2644
▁tietoa	-2645
▁itä	-2646
▁miseen	-2647
yl	-2648
▁Osa	-2649
▁tamm	-2650
ässä	-2651
▁varmasti	-2652
▁julkaisi	-2653
kok	-2654
▁ennus	-2655
▁edessä	-2656
▁toimitta	-2657
vaksi	-2658
▁tarp	-2659
▁perinte	-2660
▁100	-2661
▁As	-2662
▁tele	-2663
▁Tällä	-2664
▁tuttu	-2665
misestä	-2666
▁toimitus	-2667
▁Tässä	-2668
istelu	-2669
▁maalis	-2670
▁vät	-2671
konen	-2672
▁kevä	-2673
Suomen	-2674
▁elämä	-2675
tra	-2676
▁alueen	-2677
oittanut	-2678
bo	-2679
teena	-2680
glan	-2681
▁Kur	-2682
▁tuolloin	-2683
▁seitsemän	-2684
keli	-2685
ottori	-2686
▁tapaa	-2687
▁valmi	-2688
▁hänellä	-2689
etin	-2690
tilais	-2691
▁hyökkäys	-2692
astu	-2693
▁kuning	-2694
▁yön	-2695
▁ulkoma	-2696
▁kansalais	-2697
▁teo	-2698
laa	-2699
asen	-2700
▁eloku	-2701
▁huoma	-2702
▁Yh	-2703
gissä	-2704
palvelu	-2705
▁alusta	-2706
▁isä	-2707
▁Ca	-2708
▁Gaz	-2709
▁Halli	-2710
▁muiste	-2711
erin	-2712
llikkö	-2713
▁täällä	-2714
nö	-2715
tava	-2716
▁näk	-2717
▁yhde	-2718
änen	-2719
▁keskustelu	-2720
ps	-2721
haa	-2722
▁vil	-2723
▁avaus	-2724
▁yllättä	-2725
▁Donald	-2726
▁kannatta	-2727
▁epäilty	-2728
kenut	-2729
▁puhe	-2730
utua	-2731
miä	-2732
▁Sie	-2733
▁oleva	-2734
▁käyttöön	-2735
▁media	-2736
6.	-2737
▁vero	-2738
▁hyvinvointi	-2739
▁kai	-2740
▁Mika	-2741
▁isku	-2742
ilä	-2743
▁24	-2744
▁vien	-2745
iemi	-2746
▁maalin	-2747
▁kusta	-2748
▁sarja	-2749
▁Vuonna	-2750
▁tee	-2751
kissa	-2752
▁Haav	-2753
onin	-2754
tuksessa	-2755
▁paikalle	-2756
▁tuh	-2757
▁euro	-2758
▁pian	-2759
empi	-2760
▁huhti	-2761
▁Co	-2762
▁nu	-2763
vuotia	-2764
▁etelä	-2765
▁tarkoitus	-2766
▁äiti	-2767
▁Turun	-2768
kal	-2769
vio	-2770
▁Mu	-2771
▁Lop	-2772
▁kiv	-2773
▁Pekka	-2774
▁rea	-2775
▁suku	-2776
▁Oul	-2777
isissa	-2778
vissä	-2779
▁ry	-2780
▁juttu	-2781
▁johon	-2782
▁tv	-2783
teria	-2784
ytys	-2785
▁Yli	-2786
▁usea	-2787
▁vaat	-2788
▁ydin	-2789
▁Kyllä	-2790
ikais	-2791
▁lista	-2792
miseksi	-2793
▁liikke	-2794
▁huono	-2795
uraa	-2796
▁raa	-2797
▁liikku	-2798
residentti	-2799
▁27	-2800
▁Bo	-2801
▁teho	-2802
▁pelastus	-2803
▁Oike	-2804
▁For	-2805
jaus	-2806
▁Ole	-2807
▁pela	-2808
▁takana	-2809
▁vuosien	-2810
▁kahdeksan	-2811
kar	-2812
▁pes	-2813
sissa	-2814
ritann	-2815
mällä	-2816
▁kova	-2817
▁päätti	-2818
▁yleisö	-2819
▁Ot	-2820
▁epäillä	-2821
▁kertonut	-2822
▁1,	-2823
aston	-2824
▁mista	-2825
järj	-2826
irin	-2827
llyt	-2828
▁kiel	-2829
immi	-2830
alo	-2831
ppa	-2832
▁Kansa	-2833
▁nosta	-2834
▁lähellä	-2835
▁2-	-2836
isena	-2837
▁Tans	-2838
▁haas	-2839
▁suoraan	-2840
kat	-2841
▁milj	-2842
▁kokem	-2843
kot	-2844
▁Naton	-2845
▁paikan	-2846
▁demokra	-2847
▁kuollut	-2848
▁torj	-2849
▁seksua	-2850
veri	-2851
▁jääkie	-2852
▁Alexander	-2853
▁tyh	-2854
▁hur	-2855
▁alko	-2856
9.	-2857
uon	-2858
tona	-2859
▁Pur	-2860
oiv	-2861
voit	-2862
▁naisen	-2863
▁toimii	-2864
▁mennessä	-2865
eni	-2866
▁kaupunki	-2867
▁tiedä	-2868
haan	-2869
▁Leijon	-2870
mpää	-2871
oite	-2872
neensä	-2873
▁Enn	-2874
intään	-2875
▁up	-2876
illaan	-2877
▁syytä	-2878
yhtiö	-2879
iinä	-2880
▁kuusi	-2881
▁rapor	-2882
▁voinut	-2883
▁Iltalehdelle	-2884
iaa	-2885
▁Auto	-2886
▁joul	-2887
▁tas	-2888
▁turna	-2889
▁sarjan	-2890
▁Os	-2891
▁Tut	-2892
▁esiinty	-2893
▁äänesty	-2894
▁kentä	-2895
▁Instagram	-2896
▁sanoa	-2897
▁uk	-2898
ival	-2899
▁vau	-2900
joita	-2901
▁Mitä	-2902
laista	-2903
▁kausi	-2904
▁Las	-2905
▁melko	-2906
▁paras	-2907
inti	-2908
▁Tim	-2909
▁voitta	-2910
log	-2911
▁pid	-2912
▁Siinä	-2913
ikö	-2914
tulo	-2915
▁uusia	-2916
▁Iltalehden	-2917
▁vesi	-2918
▁käytänn	-2919
▁olevansa	-2920
▁198	-2921
▁aiku	-2922
▁uhka	-2923
▁virhe	-2924
poli	-2925
▁sata	-2926
▁kanta	-2927
▁kesku	-2928
▁todennäköisesti	-2929
luo	-2930
ineen	-2931
ca	-2932
▁Koko	-2933
▁vaikutu	-2934
▁Ensimmä	-2935
▁entinen	-2936
▁puolella	-2937
▁Ander	-2938
▁kuukauden	-2939
▁tuore	-2940
▁meillä	-2941
▁lauanta	-2942
▁tekemään	-2943
▁yhteistyö	-2944
ive	-2945
pin	-2946
▁Ker	-2947
▁olemme	-2948
puolella	-2949
hu	-2950
arin	-2951
tyksen	-2952
▁Espan	-2953
▁tietää	-2954
▁inf	-2955
sessa	-2956
▁joilla	-2957
▁tapahtuma	-2958
▁kilometrin	-2959
▁harjoi	-2960
▁pelasi	-2961
huo	-2962
▁mö	-2963
▁näkyy	-2964
tor	-2965
▁ST	-2966
▁kuljetta	-2967
▁kerä	-2968
alia	-2969
▁antoi	-2970
▁uudelleen	-2971
▁Ranta	-2972
▁metrin	-2973
▁aloitti	-2974
sio	-2975
alis	-2976
▁Kil	-2977
uuksia	-2978
▁rahaa	-2979
vir	-2980
▁isen	-2981
▁tarkas	-2982
opea	-2983
▁liiken	-2984
▁selvästi	-2985
ros	-2986
▁Orpo	-2987
▁kulu	-2988
▁sala	-2989
▁kestä	-2990
▁osalta	-2991
vara	-2992
▁ved	-2993
▁vastuu	-2994
trö	-2995
▁ruot	-2996
▁menee	-2997
iss	-2998
▁energ	-2999
▁sisäl	-3000
▁Un	-3001
vista	-3002
salais	-3003
30	-3004
▁kad	-3005
▁tyyty	-3006
▁asiakka	-3007
▁lähi	-3008
▁vastusta	-3009
▁poikkeukse	-3010
▁Sel	-3011
ikymmen	-3012
kesku	-3013
▁2020	-3014
▁juon	-3015
▁vähen	-3016
kkos	-3017
iemen	-3018
uolelle	-3019
sarj	-3020
ästä	-3021
upin	-3022
vaal	-3023
yssä	-3024
▁Sitten	-3025
▁yhdeks	-3026
▁pohjois	-3027
▁tapauksessa	-3028
teissa	-3029
▁massa	-3030
▁pieni	-3031
itin	-3032
enkin	-3033
▁mieltä	-3034
▁ensimmäistä	-3035
▁Lapin	-3036
▁kappal	-3037
▁kumppan	-3038
▁kovin	-3039
▁suhteen	-3040
▁päätöksen	-3041
▁hyökkää	-3042
pel	-3043
alle	-3044
▁olo	-3045
immat	-3046
▁kyseessä	-3047
▁elin	-3048
▁video	-3049
▁konser	-3050
▁kotiin	-3051
▁vaatii	-3052
▁klo	-3053
ettaa	-3054
isilla	-3055
▁keskitty	-3056
tety	-3057
liitto	-3058
▁ikään	-3059
▁milla	-3060
▁jatkuu	-3061
TV	-3062
bl	-3063
can	-3064
onut	-3065
▁Putinin	-3066
▁tehdään	-3067
-1	-3068
tuus	-3069
▁mus	-3070
istoim	-3071
▁ensin	-3072
▁vuodesta	-3073
▁loppuun	-3074
stään	-3075
▁paris	-3076
▁virka	-3077
▁Vo	-3078
essi	-3079
▁kannalta	-3080
▁kaun	-3081
▁Marin	-3082
▁pitänyt	-3083
▁Yor	-3084
▁tyttö	-3085
▁kuvailee	-3086
▁omaa	-3087
▁kauppa	-3088
▁kaikkien	-3089
kor	-3090
▁22	-3091
htaa	-3092
kien	-3093
▁ohi	-3094
▁rakenta	-3095
▁kustann	-3096
▁tilannetta	-3097
▁mik	-3098
jalla	-3099
uttanut	-3100
oitu	-3101
▁kaupung	-3102
▁lei	-3103
▁palaa	-3104
▁Tapa	-3105
▁misesta	-3106
▁elle	-3107
▁emme	-3108
▁poik	-3109
▁jonkin	-3110
kit	-3111
▁tuotan	-3112
immä	-3113
kassa	-3114
▁hei	-3115
▁oper	-3116
▁kysel	-3117
▁pyörä	-3118
▁tilanteen	-3119
▁valmentaja	-3120
▁Meillä	-3121
▁Matti	-3122
▁huomi	-3123
▁kevää	-3124
▁lähtien	-3125
▁suuntaan	-3126
▁Yhdysvallo	-3127
maat	-3128
▁Man	-3129
▁johto	-3130
▁mihin	-3131
▁varus	-3132
▁mietti	-3133
▁nähtiin	-3134
ät	-3135
▁huon	-3136
▁sunnunta	-3137
▁Sch	-3138
▁Harr	-3139
▁dolla	-3140
▁kuvat	-3141
▁tulos	-3142
▁töitä	-3143
▁tarkoittaa	-3144
▁hin	-3145
sarjan	-3146
▁ykkös	-3147
▁palkin	-3148
▁+	-3149
ville	-3150
▁lait	-3151
▁neet	-3152
ess	-3153
udu	-3154
uter	-3155
BC	-3156
mb	-3157
▁löytyi	-3158
▁johtu	-3159
▁Israel	-3160
▁etenkin	-3161
▁Kär	-3162
pailu	-3163
▁Kana	-3164
cas	-3165
its	-3166
teitä	-3167
tämään	-3168
▁kel	-3169
▁Tapp	-3170
▁vira	-3171
▁Saa	-3172
▁Petteri	-3173
▁23	-3174
▁Kuu	-3175
▁johd	-3176
▁Saar	-3177
▁rang	-3178
▁kantaa	-3179
tuksesta	-3180
▁Helsingissä	-3181
▁Sar	-3182
▁ryhmä	-3183
▁aikoina	-3184
▁ratkaisu	-3185
ysti	-3186
▁pöy	-3187
▁nuorten	-3188
meen	-3189
teistö	-3190
kein	-3191
▁pil	-3192
oston	-3193
▁täytyy	-3194
▁perussuom	-3195
jun	-3196
▁STT	-3197
▁ran	-3198
▁huone	-3199
mpa	-3200
alaista	-3201
▁erikois	-3202
▁paremmin	-3203
maksi	-3204
▁niistä	-3205
▁vahing	-3206
ksessa	-3207
▁luotta	-3208
▁varten	-3209
▁Char	-3210
▁esite	-3211
ivu	-3212
llat	-3213
▁ottelua	-3214
met	-3215
teja	-3216
ivalta	-3217
▁uudesta	-3218
▁pistettä	-3219
tissä	-3220
▁vanh	-3221
halli	-3222
▁Will	-3223
▁neen	-3224
▁mennä	-3225
yyden	-3226
teista	-3227
▁aikoo	-3228
▁miestä	-3229
▁poistu	-3230
▁Ih	-3231
itsee	-3232
oppuna	-3233
▁tuntuu	-3234
▁Län	-3235
joitta	-3236
▁hyvää	-3237
▁ihmisten	-3238
▁parlamen	-3239
tse	-3240
vas	-3241
▁Lä	-3242
rien	-3243
▁laki	-3244
▁muutos	-3245
▁tärkeää	-3246
▁500	-3247
▁2021	-3248
ivaa	-3249
skin	-3250
delle	-3251
kaupun	-3252
▁kasva	-3253
▁paran	-3254
rmä	-3255
uttua	-3256
▁pelin	-3257
▁Pan	-3258
▁lup	-3259
▁arvos	-3260
▁hallinn	-3261
▁eduskunta	-3262
▁seuran	-3263
▁Poliisin	-3264
önen	-3265
▁kone	-3266
▁nime	-3267
▁päässä	-3268
▁yleensä	-3269
▁ita	-3270
▁sama	-3271
▁verr	-3272
▁päällä	-3273
▁Kaup	-3274
neensa	-3275
▁itsen	-3276
▁eniten	-3277
▁Iltalehti	-3278
5.	-3279
hka	-3280
emmin	-3281
▁kana	-3282
▁ren	-3283
essään	-3284
▁Ge	-3285
▁jatkoi	-3286
▁kertovat	-3287
▁avulla	-3288
▁kunnossa	-3289
▁tilanteesta	-3290
be	-3291
imin	-3292
tröm	-3293
▁Jon	-3294
▁häiri	-3295
▁laula	-3296
▁nuori	-3297
▁Nis	-3298
▁Täh	-3299
▁lähd	-3300
aisten	-3301
▁aiheuttaa	-3302
▁sellainen	-3303
ostu	-3304
▁ylä	-3305
istaan	-3306
▁rikko	-3307
▁vuoro	-3308
▁rakennus	-3309
bri	-3310
▁or	-3311
▁juhli	-3312
▁parin	-3313
▁voittanut	-3314
▁Kre	-3315
▁ttä	-3316
▁nämä	-3317
▁tuntu	-3318
▁päävalmentaja	-3319
PS	-3320
olta	-3321
▁ann	-3322
isterin	-3323
▁pahoin	-3324
▁valmenta	-3325
tola	-3326
▁Kaa	-3327
▁syks	-3328
▁kohtaan	-3329
syt	-3330
▁Flo	-3331
▁treen	-3332
▁saatta	-3333
▁teks	-3334
▁jäänyt	-3335
▁aj	-3336
▁Kul	-3337
▁Sitä	-3338
teesta	-3339
▁poliis	-3340
▁toimintaa	-3341
▁Mc	-3342
ehdo	-3343
elma	-3344
▁mita	-3345
▁puolis	-3346
▁tapahtunut	-3347
osuh	-3348
▁Juh	-3349
▁Tee	-3350
▁Iran	-3351
▁jatkossa	-3352
▁Kaik	-3353
▁nostaa	-3354
väli	-3355
▁Reuter	-3356
▁muista	-3357
▁ratka	-3358
▁Varsin	-3359
▁Bidenin	-3360
▁minulle	-3361
har	-3362
iem	-3363
▁).	-3364
vaan	-3365
▁Her	-3366
kansa	-3367
▁esittä	-3368
▁tärkeä	-3369
mäki	-3370
deksi	-3371
▁rauha	-3372
▁kasvat	-3373
tiiv	-3374
▁hoito	-3375
▁kaver	-3376
▁kerta	-3377
▁lopussa	-3378
▁toistaiseksi	-3379
▁Af	-3380
prin	-3381
uton	-3382
▁minä	-3383
▁kirjoitta	-3384
▁Met	-3385
▁epäillään	-3386
ts	-3387
▁Be	-3388
▁suunnit	-3389
▁yrityks	-3390
pen	-3391
alissa	-3392
▁Olemme	-3393
jone	-3394
uksella	-3395
▁Sve	-3396
hun	-3397
▁piir	-3398
tutkin	-3399
▁nähdään	-3400
▁Sy	-3401
▁iksi	-3402
▁nähty	-3403
iki	-3404
▁Oh	-3405
tenä	-3406
▁Aal	-3407
lehti	-3408
▁pääsee	-3409
▁Yhdysvaltojen	-3410
hon	-3411
▁hyvän	-3412
▁sille	-3413
▁suhta	-3414
▁huomatta	-3415
▁lasta	-3416
▁Britann	-3417
▁miljoonan	-3418
▁jun	-3419
▁Oy	-3420
▁saap	-3421
▁laske	-3422
▁rangais	-3423
▁Niinistö	-3424
▁juhl	-3425
teeksi	-3426
▁alueelle	-3427
ens	-3428
▁työtä	-3429
▁puolus	-3430
▁esi	-3431
▁ilo	-3432
▁odotta	-3433
kanut	-3434
▁tukea	-3435
▁samaan	-3436
▁minuuttia	-3437
aati	-3438
▁ohjaa	-3439
▁välttämättä	-3440
tro	-3441
▁myr	-3442
▁sivu	-3443
▁nähdä	-3444
▁saata	-3445
▁syksy	-3446
▁kieltä	-3447
▁maassa	-3448
▁edellis	-3449
▁asiantuntija	-3450
▁60	-3451
▁ollaan	-3452
▁Venäjällä	-3453
län	-3454
▁21	-3455
▁35	-3456
vittä	-3457
▁aino	-3458
ikkoja	-3459
▁tuhan	-3460
▁saakka	-3461
▁Ukrainassa	-3462
▁kunto	-3463
▁nimen	-3464
▁epäill	-3465
▁päättyi	-3466
alti	-3467
▁ves	-3468
▁Maan	-3469
▁löyd	-3470
▁verkko	-3471
aika	-3472
eeksi	-3473
▁Tälla	-3474
▁tavan	-3475
▁välit	-3476
▁kirjoi	-3477
kunnassa	-3478
▁taloude	-3479
mei	-3480
▁Elä	-3481
▁nen	-3482
▁apua	-3483
▁Suomea	-3484
ministeriö	-3485
ukko	-3486
▁saivat	-3487
▁toimittaja	-3488
ytty	-3489
▁asiat	-3490
▁linja	-3491
▁näytti	-3492
sk	-3493
itiiv	-3494
tettä	-3495
bi	-3496
▁Jää	-3497
▁Kas	-3498
▁hätä	-3499
▁päin	-3500
▁halun	-3501
▁uskoo	-3502
▁tuomio	-3503
▁voiton	-3504
▁vähintään	-3505
▁br	-3506
voimien	-3507
järjestö	-3508
▁harjoit	-3509
▁sotilas	-3510
▁tasolla	-3511
mana	-3512
▁luu	-3513
▁kunin	-3514
▁puheli	-3515
▁sisällä	-3516
edia	-3517
▁toi	-3518
mansa	-3519
teisiin	-3520
▁siirty	-3521
▁kaikkea	-3522
uti	-3523
▁im	-3524
▁toimia	-3525
▁ministeri	-3526
▁työntekijö	-3527
omi	-3528
▁rek	-3529
▁ven	-3530
▁Ulko	-3531
▁iset	-3532
▁Yhdysvalloissa	-3533
vallan	-3534
▁kokoon	-3535
▁vähemmän	-3536
▁yliopisto	-3537
ksessä	-3538
▁kukaan	-3539
▁matkusta	-3540
▁toimitusjohtaja	-3541
arvo	-3542
▁osta	-3543
ikalla	-3544
ksestä	-3545
▁kokoom	-3546
▁1.	-3547
teltu	-3548
toista	-3549
llisuuden	-3550
▁sosiaalisessa	-3551
▁viikonloppuna	-3552
mpp	-3553
▁Lat	-3554
▁lai	-3555
▁Mikä	-3556
alisti	-3557
urinko	-3558
▁kesän	-3559
▁johtaa	-3560
ihto	-3561
▁määr	-3562
▁vaku	-3563
uksena	-3564
▁Charl	-3565
▁Norjan	-3566
uttiin	-3567
▁puheenjohta	-3568
7.	-3569
▁ru	-3570
imen	-3571
▁ehti	-3572
▁järjestö	-3573
▁3-	-3574
▁put	-3575
▁utu	-3576
wa	-3577
▁res	-3578
▁naap	-3579
kauden	-3580
▁ongelma	-3581
▁Kyseessä	-3582
▁prosentin	-3583
zz	-3584
▁Elo	-3585
▁Som	-3586
▁ltä	-3587
▁pun	-3588
▁sat	-3589
▁lehd	-3590
▁pikku	-3591
▁saatu	-3592
▁liittyy	-3593
▁pelannut	-3594
▁Andersson	-3595
sori	-3596
▁juhla	-3597
▁Ruotsi	-3598
▁pitkän	-3599
kisoissa	-3600
▁odottaa	-3601
ääkä	-3602
▁Vlad	-3603
▁kesällä	-3604
▁kansanedustaja	-3605
▁hote	-3606
▁Jussi	-3607
org	-3608
eena	-3609
▁Mos	-3610
▁karsin	-3611
▁Samalla	-3612
▁Luo	-3613
▁essa	-3614
▁isiin	-3615
▁keväällä	-3616
▁eteenpäin	-3617
publ	-3618
▁Anna	-3619
▁Koti	-3620
▁numer	-3621
telemaan	-3622
▁Silloin	-3623
▁Haavisto	-3624
▁kokonaan	-3625
▁lie	-3626
isuus	-3627
oikeus	-3628
innassa	-3629
▁toiminut	-3630
▁Us	-3631
nassa	-3632
▁menet	-3633
▁mahdollisuus	-3634
▁Ann	-3635
▁Pir	-3636
isteli	-3637
▁vastasi	-3638
▁neuvottelu	-3639
ppä	-3640
sel	-3641
▁),	-3642
telut	-3643
ttava	-3644
istoimisto	-3645
▁Aie	-3646
▁takaa	-3647
▁tuotta	-3648
▁vastus	-3649
▁Stubbin	-3650
iam	-3651
▁Jal	-3652
luvun	-3653
▁lyhy	-3654
▁tehtiin	-3655
▁vasemmisto	-3656
määrä	-3657
▁hoita	-3658
▁verta	-3659
▁tapahtuu	-3660
▁tark	-3661
▁Saksan	-3662
▁uransa	-3663
▁yhdisty	-3664
▁Nel	-3665
▁ansa	-3666
▁seksuaal	-3667
▁kiinteistö	-3668
▁tah	-3669
▁Rä	-3670
▁suk	-3671
▁Nyky	-3672
öi	-3673
ger	-3674
▁jättä	-3675
▁valvon	-3676
▁asiassa	-3677
▁ket	-3678
▁Sami	-3679
▁korj	-3680
▁tuntia	-3681
uhu	-3682
tilla	-3683
attiin	-3684
▁maali	-3685
▁yritti	-3686
by	-3687
▁ex	-3688
▁pros	-3689
▁saat	-3690
▁Oly	-3691
▁fan	-3692
etaan	-3693
attuna	-3694
▁Keski	-3695
lliseen	-3696
▁käytössä	-3697
mit	-3698
imir	-3699
▁Vide	-3700
▁Orpon	-3701
▁päässyt	-3702
▁tutkimus	-3703
▁Mur	-3704
▁avaa	-3705
▁siltä	-3706
▁tietä	-3707
▁käynyt	-3708
▁ystävä	-3709
▁saadaan	-3710
▁syyllis	-3711
▁veto	-3712
▁Virta	-3713
▁vuoteen	-3714
▁maailmanm	-3715
▁(1	-3716
▁issä	-3717
▁syksyn	-3718
kkeen	-3719
▁jälj	-3720
▁vali	-3721
ryhmän	-3722
▁Ennen	-3723
▁siksi	-3724
▁käytännössä	-3725
▁asio	-3726
▁Harris	-3727
▁saavat	-3728
▁mielipi	-3729
▁puolusta	-3730
▁iä	-3731
▁otte	-3732
▁vetä	-3733
▁uhkaa	-3734
▁olisivat	-3735
vu	-3736
hansa	-3737
▁jatka	-3738
▁positiiv	-3739
▁yönä	-3740
▁sinne	-3741
▁valko	-3742
▁26	-3743
▁Epä	-3744
▁Flori	-3745
▁lähde	-3746
▁Toinen	-3747
▁kunnan	-3748
▁myynti	-3749
▁Itali	-3750
▁aktiiv	-3751
▁Vladimir	-3752
▁ainoa	-3753
▁metriä	-3754
▁syyttä	-3755
▁Hur	-3756
▁lupa	-3757
▁viikkoa	-3758
immillaan	-3759
▁puolueen	-3760
▁lyö	-3761
isyys	-3762
▁alkaen	-3763
osin	-3764
▁Timo	-3765
▁2022.	-3766
▁onkin	-3767
▁näyttelijä	-3768
én	-3769
maton	-3770
▁nimi	-3771
▁Janne	-3772
▁Bu	-3773
▁väite	-3774
▁riittää	-3775
▁tulevat	-3776
joukkueen	-3777
▁Suo	-3778
ustelu	-3779
▁sosiaali	-3780
dyn	-3781
imää	-3782
▁helpo	-3783
▁muutaman	-3784
ministeriön	-3785
▁Jen	-3786
tisen	-3787
▁ääri	-3788
laisia	-3789
▁tyytyvä	-3790
▁erityisen	-3791
20	-3792
imaa	-3793
tähti	-3794
▁suomalainen	-3795
▁Peli	-3796
laisen	-3797
▁super	-3798
▁historia	-3799
gas	-3800
▁tarin	-3801
▁lähettä	-3802
▁arv	-3803
istus	-3804
▁rinta	-3805
oituksen	-3806
▁kilometriä	-3807
ilan	-3808
▁197	-3809
▁Kuo	-3810
▁Pit	-3811
▁Voi	-3812
▁Moni	-3813
▁Hamas	-3814
▁koulun	-3815
▁moottori	-3816
ruun	-3817
liigan	-3818
▁ihminen	-3819
▁yhdeksän	-3820
▁musta	-3821
▁vuosikymmen	-3822
▁pot	-3823
▁jänn	-3824
▁vaim	-3825
▁voito	-3826
▁lähteä	-3827
▁myöskään	-3828
▁sopimuksen	-3829
▁Gu	-3830
▁Jar	-3831
▁hah	-3832
▁Nuor	-3833
▁ajoi	-3834
llisten	-3835
▁Seuraa	-3836
fa	-3837
▁Wa	-3838
ather	-3839
▁hiihto	-3840
▁peräti	-3841
for	-3842
▁Aa	-3843
neita	-3844
neesta	-3845
▁2023.	-3846
▁Länsi	-3847
▁taustalla	-3848
lon	-3849
läh	-3850
▁Ah	-3851
▁Ville	-3852
▁ajone	-3853
▁tilaa	-3854
▁olosuh	-3855
▁Yhdysvallat	-3856
olf	-3857
milla	-3858
▁Zelen	-3859
▁talon	-3860
▁valio	-3861
▁toimen	-3862
▁torsta	-3863
▁aloitta	-3864
▁ongelmia	-3865
rain	-3866
▁puto	-3867
sarjassa	-3868
▁maajoukkue	-3869
non	-3870
dcas	-3871
dion	-3872
teeri	-3873
▁raha	-3874
▁minun	-3875
▁materia	-3876
fes	-3877
▁pih	-3878
▁illä	-3879
▁säil	-3880
▁toiminnan	-3881
▁kerrottiin	-3882
hä	-3883
▁MTV	-3884
▁lauta	-3885
▁selkeä	-3886
▁vieras	-3887
▁ennakko	-3888
▁entistä	-3889
▁kohdalla	-3890
ölj	-3891
▁Ben	-3892
▁onne	-3893
▁Lauri	-3894
▁varap	-3895
▁joskus	-3896
▁riippu	-3897
▁sijoit	-3898
kov	-3899
sää	-3900
tto	-3901
töä	-3902
▁YK	-3903
▁kysymys	-3904
▁noussut	-3905
▁Mus	-3906
▁loh	-3907
▁kuun	-3908
▁armei	-3909
▁kulje	-3910
▁kärki	-3911
▁yrity	-3912
ere	-3913
udet	-3914
vell	-3915
▁Kim	-3916
yttävä	-3917
▁saapui	-3918
ksin	-3919
▁Onn	-3920
▁pakk	-3921
▁urhe	-3922
▁monta	-3923
▁suoja	-3924
▁median	-3925
öt	-3926
▁Pen	-3927
▁mas	-3928
▁sor	-3929
merikk	-3930
▁maksaa	-3931
▁tunnettu	-3932
▁loukkaantu	-3933
hen	-3934
imä	-3935
ste	-3936
▁tuho	-3937
▁legen	-3938
▁säästö	-3939
▁sopimus	-3940
▁ihmisen	-3941
▁pudotus	-3942
▁terveyden	-3943
elu	-3944
pall	-3945
kainen	-3946
isaalta	-3947
sto	-3948
▁sol	-3949
▁isten	-3950
▁lähten	-3951
▁pahoinpi	-3952
▁yrityksen	-3953
tuun	-3954
▁lan	-3955
▁eläin	-3956
▁kamer	-3957
▁lauka	-3958
▁itsensä	-3959
▁Puolustus	-3960
▁osu	-3961
▁aamu	-3962
▁ella	-3963
muksen	-3964
▁pohja	-3965
▁puolen	-3966
▁kus	-3967
▁paljas	-3968
▁aloittaa	-3969
gh	-3970
mpien	-3971
▁Juha	-3972
▁loma	-3973
▁lämm	-3974
▁Jy	-3975
kentä	-3976
▁Vain	-3977
▁rann	-3978
▁maalia	-3979
▁Hu	-3980
llia	-3981
riin	-3982
▁Fin	-3983
▁oir	-3984
▁väit	-3985
okumen	-3986
tettava	-3987
▁itseään	-3988
▁olemaan	-3989
tilaisuudessa	-3990
▁alta	-3991
▁kuvia	-3992
▁tulossa	-3993
▁riski	-3994
▁tarvi	-3995
▁maaliva	-3996
▁tuotanto	-3997
gar	-3998
▁Uut	-3999
▁vin	-4000
laitos	-4001
▁lopetta	-4002
▁Presidentti	-4003
▁1-	-4004
tili	-4005
▁Toi	-4006
▁maksu	-4007
▁lapset	-4008
▁maananta	-4009
ytyi	-4010
▁lähtee	-4011
▁Zelensky	-4012
▁hallinto	-4013
▁puke	-4014
▁viik	-4015
llistä	-4016
▁huomiota	-4017
▁televisi	-4018
ham	-4019
▁vei	-4020
▁ilme	-4021
▁kuor	-4022
▁avoim	-4023
▁toivo	-4024
mite	-4025
ulais	-4026
▁pyör	-4027
▁tilo	-4028
▁Jukka	-4029
▁opiskeli	-4030
▁runsaasti	-4031
▁w	-4032
▁2,	-4033
▁nos	-4034
▁Väli	-4035
▁haav	-4036
▁vähä	-4037
▁vuosia	-4038
▁4-	-4039
oida	-4040
▁Ste	-4041
▁Koiv	-4042
▁yhdys	-4043
▁Iso	-4044
▁katu	-4045
▁tuuli	-4046
▁Syyttä	-4047
▁mielenos	-4048
aaja	-4049
oili	-4050
ikenne	-4051
▁kesänä	-4052
atar	-4053
▁ele	-4054
telin	-4055
tellä	-4056
▁Englan	-4057
▁kuuden	-4058
▁kulttuuri	-4059
kelä	-4060
▁dia	-4061
▁ide	-4062
▁huolta	-4063
▁isesti	-4064
▁elokuva	-4065
tär	-4066
▁ajaa	-4067
▁näkee	-4068
▁kiekko	-4069
▁kolmas	-4070
▁päähän	-4071
▁kierroksella	-4072
▁And	-4073
▁Kal	-4074
▁Pat	-4075
▁Tun	-4076
▁ope	-4077
▁heitä	-4078
▁kaupp	-4079
▁tunnin	-4080
▁ehdokka	-4081
▁itselleen	-4082
▁pen	-4083
▁muisto	-4084
▁sähköp	-4085
▁Pariisin	-4086
▁halunnut	-4087
▁harjoitus	-4088
▁kilpailun	-4089
▁maailmanc	-4090
▁verrattuna	-4091
opim	-4092
▁liiga	-4093
▁rauhan	-4094
▁sotila	-4095
▁kuljettaja	-4096
peä	-4097
turva	-4098
▁Asia	-4099
tettua	-4100
▁harras	-4101
▁äid	-4102
rella	-4103
▁olin	-4104
▁ihmet	-4105
▁havain	-4106
▁histori	-4107
▁viikonlop	-4108
▁Ru	-4109
▁kävel	-4110
▁sydän	-4111
▁lainen	-4112
nolla	-4113
▁Kaksi	-4114
▁Cather	-4115
▁Siellä	-4116
▁kaikille	-4117
ilua	-4118
▁Siitä	-4119
luvulla	-4120
tomasti	-4121
▁kehittä	-4122
▁mahdollisesti	-4123
▁Lau	-4124
tellut	-4125
▁hetki	-4126
▁nouse	-4127
uttamaan	-4128
▁Use	-4129
▁Aina	-4130
▁pelkä	-4131
▁runko	-4132
▁keskellä	-4133
mur	-4134
ikos	-4135
koja	-4136
▁kunta	-4137
▁rakka	-4138
▁viestipalvelu	-4139
nes	-4140
▁pis	-4141
▁palo	-4142
▁toki	-4143
▁lakko	-4144
▁väkivalta	-4145
keskus	-4146
▁Halla	-4147
▁muoto	-4148
▁Asiasta	-4149
▁toisella	-4150
dp	-4151
udun	-4152
▁Joe	-4153
vistä	-4154
alaisia	-4155
▁heiken	-4156
▁mennyt	-4157
▁tappio	-4158
▁tiedon	-4159
▁vaikutus	-4160
▁erilaisia	-4161
▁jääkiekko	-4162
ley	-4163
▁Yr	-4164
atin	-4165
▁Kiv	-4166
▁avi	-4167
▁Vuoden	-4168
▁tahansa	-4169
▁Instagramissa	-4170
▁St	-4171
▁Huu	-4172
omien	-4173
▁Kuus	-4174
▁auki	-4175
▁minua	-4176
▁monet	-4177
kkaasti	-4178
▁luonnon	-4179
▁&	-4180
vet	-4181
▁Ex	-4182
▁Tik	-4183
▁Ilma	-4184
▁erila	-4185
▁päättä	-4186
▁Tul	-4187
SA	-4188
par	-4189
htia	-4190
▁parhaan	-4191
▁tietoja	-4192
▁huomauttaa	-4193
▁henkilökohta	-4194
FK	-4195
änsä	-4196
▁kysyi	-4197
▁sukup	-4198
▁kasvan	-4199
▁maahanm	-4200
▁paikkaa	-4201
▁venäläis	-4202
▁voittaja	-4203
saa	-4204
matto	-4205
▁hoid	-4206
▁työpa	-4207
▁meille	-4208
kkiä	-4209
▁amp	-4210
tista	-4211
▁tois	-4212
▁rajan	-4213
▁halusi	-4214
▁sellaista	-4215
▁Pro	-4216
▁Nämä	-4217
▁tuul	-4218
uksiin	-4219
▁Asian	-4220
▁Valko	-4221
▁keino	-4222
▁uskon	-4223
▁itsenä	-4224
▁joutuu	-4225
▁suomalaisten	-4226
tai	-4227
sien	-4228
▁neli	-4229
▁liikaa	-4230
▁vuodessa	-4231
yksessä	-4232
▁alkoho	-4233
▁minulla	-4234
dät	-4235
▁Helsinki	-4236
▁julkaise	-4237
▁kuoleman	-4238
▁julkaistu	-4239
istan	-4240
aikais	-4241
▁syntyi	-4242
alue	-4243
▁konk	-4244
▁edell	-4245
▁lisään	-4246
▁missään	-4247
ak	-4248
▁28	-4249
land	-4250
▁vaale	-4251
▁asukka	-4252
▁helposti	-4253
▁ölj	-4254
▁some	-4255
fessori	-4256
▁pääkaupun	-4257
yttö	-4258
▁11.	-4259
▁jaka	-4260
▁kisan	-4261
▁pienen	-4262
▁kehitty	-4263
▁poliiti	-4264
▁keskimää	-4265
9,	-4266
▁Tuu	-4267
▁tel	-4268
▁osan	-4269
▁pohtii	-4270
▁yksittä	-4271
▁toimenpi	-4272
koko	-4273
▁Mal	-4274
risti	-4275
ström	-4276
▁tähd	-4277
FP	-4278
mil	-4279
▁Vas	-4280
▁haa	-4281
uudet	-4282
▁isia	-4283
▁petty	-4284
▁tyttä	-4285
▁lapsia	-4286
▁toiseksi	-4287
▁helmikuussa	-4288
dassa	-4289
muna	-4290
▁hev	-4291
▁malli	-4292
▁elämää	-4293
▁maasto	-4294
▁ennätys	-4295
▁vahvistaa	-4296
kasi	-4297
▁auttaa	-4298
▁nousee	-4299
▁yhtiön	-4300
asia	-4301
▁Ken	-4302
▁ahd	-4303
▁äär	-4304
▁Uusi	-4305
▁sito	-4306
▁malla	-4307
▁varmaan	-4308
▁päällikkö	-4309
usin	-4310
▁sam	-4311
tussa	-4312
▁alas	-4313
▁uran	-4314
▁palkka	-4315
▁kehitys	-4316
tera	-4317
▁Sin	-4318
▁Sto	-4319
tuksi	-4320
▁arti	-4321
▁murh	-4322
▁Kiinan	-4323
▁ukrain	-4324
▁miljard	-4325
▁perusta	-4326
DP	-4327
aho	-4328
vinen	-4329
▁uutis	-4330
▁hyväks	-4331
▁republ	-4332
▁kilpaili	-4333
▁suomalaiset	-4334
äni	-4335
ilma	-4336
▁bud	-4337
▁monen	-4338
▁lausunn	-4339
▁olemassa	-4340
▁syksyllä	-4341
▁300	-4342
▁Len	-4343
▁omat	-4344
▁selvä	-4345
▁Ruotsissa	-4346
▁seurauksena	-4347
elan	-4348
▁tra	-4349
ääkäri	-4350
▁veden	-4351
▁Oulussa	-4352
▁saaneet	-4353
aana	-4354
tman	-4355
▁hinn	-4356
▁miehe	-4357
urheilu	-4358
▁miehet	-4359
▁Vor	-4360
detään	-4361
▁Katso	-4362
▁vettä	-4363
▁katsoi	-4364
▁pystyy	-4365
▁aurinko	-4366
▁Hallitus	-4367
▁Salo	-4368
▁ääni	-4369
▁lasku	-4370
misessa	-4371
▁jättää	-4372
▁parempi	-4373
▁tilasto	-4374
▁kansanedusta	-4375
käy	-4376
ilen	-4377
veli	-4378
▁Sanna	-4379
▁talvi	-4380
▁uutistoimisto	-4381
teg	-4382
dellä	-4383
ksien	-4384
▁vang	-4385
▁tutus	-4386
jiä	-4387
isku	-4388
kussa	-4389
▁Toki	-4390
läinen	-4391
istettu	-4392
▁hyvinvointialu	-4393
▁mahdollisimman	-4394
ler	-4395
▁ikkun	-4396
▁kärsi	-4397
▁lehti	-4398
▁laajen	-4399
▁matkan	-4400
ukan	-4401
▁Jär	-4402
▁Gran	-4403
▁iski	-4404
▁välin	-4405
▁suojel	-4406
▁elämään	-4407
▁sarjassa	-4408
".	-4409
▁45	-4410
▁Jul	-4411
tisti	-4412
pallon	-4413
tellaan	-4414
▁suosikki	-4415
▁Varsinais	-4416
▁Di	-4417
▁Tai	-4418
▁osin	-4419
▁pele	-4420
llissa	-4421
▁huole	-4422
▁siirto	-4423
▁ymmärtää	-4424
suo	-4425
llas	-4426
mala	-4427
taus	-4428
▁BBC	-4429
▁nut	-4430
▁kirj	-4431
▁säännö	-4432
▁Tampereen	-4433
palo	-4434
veys	-4435
▁12.	-4436
▁Ala	-4437
▁Onko	-4438
ikassa	-4439
▁saisi	-4440
emmistö	-4441
▁hetken	-4442
▁sisään	-4443
▁väkiva	-4444
▁kuningas	-4445
mmo	-4446
erkki	-4447
kisen	-4448
▁Olin	-4449
▁ihme	-4450
▁kotima	-4451
▁sijaitsee	-4452
▁yliopiston	-4453
▁2.	-4454
udella	-4455
▁muutama	-4456
ers	-4457
▁My	-4458
▁AFP	-4459
▁Eli	-4460
▁meri	-4461
▁kakkos	-4462
▁katsom	-4463
▁edustaja	-4464
dään	-4465
▁alun	-4466
▁etsi	-4467
ikuuta	-4468
▁Perus	-4469
▁tarke	-4470
▁vauri	-4471
tieteen	-4472
▁häiriö	-4473
▁muuttu	-4474
▁osaval	-4475
▁William	-4476
▁lopulla	-4477
ukas	-4478
▁Teemu	-4479
▁kriti	-4480
▁seksi	-4481
▁esitys	-4482
▁ottanut	-4483
▁ravintola	-4484
▁yhdysvalta	-4485
▁joulukuussa	-4486
cha	-4487
▁omia	-4488
▁ollen	-4489
▁ampuma	-4490
▁tanssi	-4491
▁finaali	-4492
▁tiedossa	-4493
▁tietysti	-4494
▁vahvista	-4495
0.	-4496
ov	-4497
tala	-4498
täjä	-4499
▁roh	-4500
järvi	-4501
▁hovi	-4502
▁pakko	-4503
▁nähnyt	-4504
▁videon	-4505
▁sairaala	-4506
kön	-4507
▁80	-4508
tteri	-4509
▁vallan	-4510
▁mut	-4511
▁pus	-4512
lassa	-4513
mästi	-4514
▁Kale	-4515
▁kutsu	-4516
▁nosti	-4517
▁helppo	-4518
▁astetta	-4519
▁ruotsalais	-4520
tejä	-4521
▁tunnel	-4522
▁saatiin	-4523
koa	-4524
istel	-4525
lässä	-4526
ralla	-4527
ustaa	-4528
▁Olli	-4529
▁heng	-4530
utussa	-4531
▁Laine	-4532
▁tavar	-4533
▁kotona	-4534
▁toiseen	-4535
▁viimeisen	-4536
▁aikaisemmin	-4537
koti	-4538
▁Mad	-4539
▁Face	-4540
▁Jari	-4541
▁laaj	-4542
▁nopea	-4543
▁syystä	-4544
▁Ranskan	-4545
▁kulutta	-4546
▁keskustelua	-4547
za	-4548
ihde	-4549
▁samaa	-4550
immista	-4551
▁Tuolloin	-4552
▁vahvasti	-4553
▁Ruo	-4554
villa	-4555
▁luov	-4556
▁puhd	-4557
▁sivi	-4558
▁synn	-4559
▁iseen	-4560
▁remon	-4561
▁Aiemmin	-4562
▁vaihtoehto	-4563
▁tammikuussa	-4564
siiv	-4565
voja	-4566
▁SDP	-4567
▁lip	-4568
▁reil	-4569
▁kevään	-4570
▁lääkäri	-4571
vit	-4572
▁Haa	-4573
▁Tän	-4574
▁man	-4575
▁nykyään	-4576
▁viranomaiset	-4577
▁CN	-4578
iaan	-4579
▁400	-4580
iehen	-4581
▁Itse	-4582
iska	-4583
kala	-4584
▁Sir	-4585
▁sti	-4586
terin	-4587
tonta	-4588
▁Espo	-4589
▁ansi	-4590
maalla	-4591
▁maiden	-4592
▁voittaa	-4593
▁syntynyt	-4594
▁kierroksen	-4595
▁Pu	-4596
▁nsä	-4597
▁asiakas	-4598
▁yrittää	-4599
▁taistelu	-4600
ministerin	-4601
▁Venäjälle	-4602
▁ainoastaan	-4603
▁ks	-4604
sarja	-4605
▁John	-4606
▁myöh	-4607
▁Tästä	-4608
▁Yleis	-4609
▁palasi	-4610
bin	-4611
eja	-4612
gres	-4613
▁Sta	-4614
▁Suu	-4615
▁viid	-4616
▁hilja	-4617
▁kuninkaa	-4618
▁Suomalais	-4619
▁historian	-4620
ss	-4621
zb	-4622
ner	-4623
bert	-4624
kilä	-4625
▁13.	-4626
menta	-4627
▁illan	-4628
▁naura	-4629
▁aikata	-4630
▁luonno	-4631
▁uuteen	-4632
▁muistelee	-4633
▁Q	-4634
nnä	-4635
▁kyy	-4636
kalla	-4637
▁anal	-4638
asivat	-4639
▁proje	-4640
▁törmä	-4641
▁liiton	-4642
▁mikään	-4643
▁osoitta	-4644
▁kampanja	-4645
▁iltapäivä	-4646
▁työskenne	-4647
▁Je	-4648
▁Kuv	-4649
killä	-4650
tteja	-4651
▁Lapp	-4652
▁erin	-4653
▁herk	-4654
▁Siksi	-4655
▁kunni	-4656
▁vankeus	-4657
▁käräjäoikeus	-4658
ell	-4659
kejä	-4660
▁lupaa	-4661
▁ilmasto	-4662
▁prinssi	-4663
▁joukossa	-4664
▁HS	-4665
▁Mole	-4666
▁komp	-4667
▁organ	-4668
▁nyr	-4669
ännyt	-4670
▁Dani	-4671
▁inves	-4672
▁amerikk	-4673
▁yllätys	-4674
▁syyskuussa	-4675
boo	-4676
▁Pul	-4677
▁heik	-4678
▁kiinnosta	-4679
▁kuukautta	-4680
ic	-4681
asu	-4682
▁oll	-4683
malle	-4684
▁estä	-4685
▁kuka	-4686
▁maata	-4687
▁tappi	-4688
▁määrän	-4689
▁opetta	-4690
▁vaaran	-4691
yksiä	-4692
▁kovaa	-4693
▁pääty	-4694
ittänyt	-4695
▁antanut	-4696
ood	-4697
▁Ny	-4698
teis	-4699
▁CNN	-4700
mättö	-4701
telyn	-4702
ukkaa	-4703
▁hypp	-4704
neiden	-4705
▁uksen	-4706
▁esille	-4707
▁lääkke	-4708
▁tarvitta	-4709
▁Ukrainaan	-4710
▁huomattavasti	-4711
kone	-4712
desta	-4713
tilan	-4714
unnan	-4715
valio	-4716
▁haki	-4717
alassa	-4718
▁kruun	-4719
▁käydä	-4720
▁vauhd	-4721
▁asteen	-4722
▁asioista	-4723
▁käytetty	-4724
▁mukaisesti	-4725
llö	-4726
▁90	-4727
joja	-4728
tunn	-4729
▁Jan	-4730
▁oikeasti	-4731
▁tiedotus	-4732
▁toimintaan	-4733
▁Ad	-4734
▁Toy	-4735
▁osallistui	-4736
▁ga	-4737
▁Jor	-4738
jalta	-4739
▁muuten	-4740
▁suunta	-4741
▁Suomesta	-4742
Pa	-4743
ilman	-4744
rilla	-4745
▁sääntö	-4746
▁aiheutti	-4747
▁etteivät	-4748
▁varmista	-4749
▁tarvitaan	-4750
▁ensimmäisenä	-4751
▁Prin	-4752
▁Sara	-4753
▁pyrki	-4754
▁iseksi	-4755
▁kasvaa	-4756
▁täyttä	-4757
▁äänestys	-4758
▁törkeästä	-4759
▁marraskuussa	-4760
▁Laa	-4761
▁apu	-4762
rasta	-4763
▁poliit	-4764
▁lähesty	-4765
▁talouden	-4766
▁Eh	-4767
▁uni	-4768
▁viittaa	-4769
laitoksen	-4770
▁joutunut	-4771
▁ohjelmassa	-4772
▁17.	-4773
▁Ensi	-4774
ystävä	-4775
▁vihre	-4776
▁Keskus	-4777
▁kisassa	-4778
▁kertoivat	-4779
▁demokraatti	-4780
2-	-4781
▁Aus	-4782
▁Han	-4783
▁inn	-4784
▁mis	-4785
väsky	-4786
▁saun	-4787
estiin	-4788
▁britti	-4789
▁dokumen	-4790
▁merkittävä	-4791
voi	-4792
▁krit	-4793
▁Harry	-4794
▁näitä	-4795
▁riste	-4796
▁sekun	-4797
▁sovell	-4798
▁Israeli	-4799
▁järjestelmä	-4800
▁Ts	-4801
▁sijoi	-4802
▁Joukku	-4803
▁löytää	-4804
▁mieleen	-4805
▁musiikki	-4806
▁paljastaa	-4807
▁kesäkuussa	-4808
▁sairaalaan	-4809
veä	-4810
▁Fr	-4811
valle	-4812
▁puolet	-4813
▁näkökul	-4814
▁onnistui	-4815
sas	-4816
kkia	-4817
lund	-4818
▁18.	-4819
liiga	-4820
omaan	-4821
piiri	-4822
▁tili	-4823
▁Vielä	-4824
▁oikea	-4825
▁kaupan	-4826
▁teksti	-4827
▁matkalla	-4828
▁viimeinen	-4829
▁9.	-4830
▁Ee	-4831
musta	-4832
▁kauk	-4833
reiden	-4834
▁Purra	-4835
▁molemmat	-4836
▁toukokuussa	-4837
4,	-4838
▁Am	-4839
▁hyviä	-4840
▁kalta	-4841
televat	-4842
▁kuvaili	-4843
▁myöntää	-4844
▁videolla	-4845
▁jalkapallo	-4846
▁Lon	-4847
▁Nur	-4848
▁ina	-4849
▁eräs	-4850
▁fyys	-4851
▁päättää	-4852
▁prinsessa	-4853
2,	-4854
öri	-4855
▁hää	-4856
▁tuu	-4857
tonsa	-4858
▁räjä	-4859
▁viet	-4860
tisesti	-4861
▁vuokra	-4862
▁Faceboo	-4863
▁samassa	-4864
▁ilmoitta	-4865
▁Luu	-4866
▁Tal	-4867
▁ali	-4868
▁Fran	-4869
▁teat	-4870
▁vuok	-4871
▁Liban	-4872
▁hevos	-4873
▁kulta	-4874
jattain	-4875
▁yhtään	-4876
▁sisältä	-4877
▁valinta	-4878
▁muutoksia	-4879
▁3,	-4880
▁70	-4881
kela	-4882
▁häl	-4883
▁Niko	-4884
▁liha	-4885
osassa	-4886
▁laito	-4887
▁Pelastus	-4888
▁ainakaan	-4889
est	-4890
unto	-4891
kilön	-4892
ryhmä	-4893
▁Mari	-4894
▁noud	-4895
▁arvon	-4896
▁kiinnos	-4897
▁henkilöä	-4898
gu	-4899
ilin	-4900
joen	-4901
▁21.	-4902
empää	-4903
ohjan	-4904
▁York	-4905
▁paitsi	-4906
▁lokakuussa	-4907
1,	-4908
▁my	-4909
▁Käy	-4910
▁harv	-4911
▁konf	-4912
▁Japan	-4913
▁korvaa	-4914
▁sekunn	-4915
▁tiellä	-4916
▁kapteen	-4917
bu	-4918
vyys	-4919
▁omin	-4920
ettava	-4921
markkin	-4922
▁hyödyn	-4923
▁katsoa	-4924
▁oppila	-4925
▁esittää	-4926
▁voimaan	-4927
▁puoliväli	-4928
ska	-4929
▁10.	-4930
▁14.	-4931
▁Kari	-4932
▁olet	-4933
▁reag	-4934
▁kiire	-4935
teltiin	-4936
▁laittaa	-4937
▁ohjelman	-4938
▁käynnissä	-4939
▁Ukrainalle	-4940
▁Hon	-4941
▁lih	-4942
▁mit	-4943
▁kato	-4944
▁vamm	-4945
ilussa	-4946
mmalla	-4947
▁2024.	-4948
▁Miten	-4949
▁huolto	-4950
▁tilanteeseen	-4951
ya	-4952
kelu	-4953
seet	-4954
▁täh	-4955
▁laite	-4956
▁peliä	-4957
▁Nainen	-4958
▁ryhmän	-4959
▁Minulla	-4960
▁hänestä	-4961
▁esitutkin	-4962
▁viestintä	-4963
kio	-4964
ror	-4965
vuus	-4966
▁Sdp	-4967
▁2025	-4968
▁vall	-4969
ksissa	-4970
toihin	-4971
▁rooli	-4972
▁kunnia	-4973
▁sieltä	-4974
▁Tilanne	-4975
5-	-4976
innä	-4977
▁Tes	-4978
▁Wal	-4979
▁pas	-4980
▁2018	-4981
▁samm	-4982
kkonen	-4983
kselle	-4984
paikan	-4985
▁Gazan	-4986
▁Lehti	-4987
▁laati	-4988
▁tosin	-4989
▁voita	-4990
▁tekijä	-4991
▁mielessä	-4992
▁suunnite	-4993
▁kilpailussa	-4994
▁ö	-4995
▁15.	-4996
▁vär	-4997
jäsen	-4998
▁alan	-4999
▁Kalle	-5000
▁tavoin	-5001
▁suomalaisen	-5002
JK	-5003
Kore	-5004
▁yri	-5005
▁Hann	-5006
▁napp	-5007
▁naur	-5008
uvosto	-5009
zbolla	-5010
llisena	-5011
▁vaikeaa	-5012
▁jaksossa	-5013
yä	-5014
uhe	-5015
▁HI	-5016
▁of	-5017
logi	-5018
▁2000	-5019
▁kalli	-5020
▁osuus	-5021
▁veren	-5022
▁poissa	-5023
▁yrittäjä	-5024
▁vaaleissa	-5025
bridi	-5026
tinyt	-5027
▁haus	-5028
▁ohje	-5029
▁osto	-5030
päivän	-5031
▁länsi	-5032
▁vaihd	-5033
▁liigan	-5034
▁selvää	-5035
▁muistaa	-5036
▁siirtyi	-5037
▁Hizbolla	-5038
▁Leijonien	-5039
▁tutkinnan	-5040
kso	-5041
rang	-5042
▁Muu	-5043
tteli	-5044
▁Spor	-5045
▁laad	-5046
▁Botta	-5047
▁sentti	-5048
▁tuntui	-5049
▁Euroopassa	-5050
▁tuomittiin	-5051
▁viranomaisten	-5052
▁36	-5053
▁mun	-5054
mpaan	-5055
ksilla	-5056
▁hengen	-5057
▁huoles	-5058
keskuksen	-5059
▁järjestetään	-5060
▁maaliskuussa	-5061
▁0,	-5062
aari	-5063
ääri	-5064
▁Inn	-5065
▁suru	-5066
komite	-5067
▁nuore	-5068
▁tarjolla	-5069
▁paikallis	-5070
▁196	-5071
▁20.	-5072
ikuun	-5073
tuksena	-5074
▁Meidän	-5075
▁Jyväsky	-5076
vaaleissa	-5077
▁tunnetaan	-5078
▁presidenti	-5079
▁merkittävästi	-5080
hl	-5081
poo	-5082
▁Slo	-5083
ester	-5084
▁joko	-5085
▁rais	-5086
varain	-5087
▁Erity	-5088
▁Kaupun	-5089
▁nautti	-5090
▁lähtenyt	-5091
▁elokuussa	-5092
▁tavoitteena	-5093
▁Tätä	-5094
▁Vuor	-5095
lehden	-5096
▁Maria	-5097
▁kolle	-5098
▁vaimo	-5099
ittelee	-5100
▁otettu	-5101
▁entisen	-5102
▁eduskunnan	-5103
▁0-	-5104
inut	-5105
kene	-5106
teko	-5107
▁käd	-5108
aliin	-5109
istys	-5110
▁Suur	-5111
▁Voit	-5112
▁presidenttiehdo	-5113
ilo	-5114
net	-5115
▁etä	-5116
impia	-5117
▁kiito	-5118
▁kuule	-5119
▁palau	-5120
▁Perjan	-5121
▁korona	-5122
▁vankil	-5123
▁henkilön	-5124
▁ulkopuol	-5125
ano	-5126
▁19.	-5127
▁Kesä	-5128
▁budj	-5129
▁valo	-5130
▁välittö	-5131
▁sähköauto	-5132
▁Gr	-5133
sina	-5134
ketti	-5135
▁2019	-5136
▁tiiv	-5137
▁Vasta	-5138
innasta	-5139
▁hankin	-5140
▁Harrisin	-5141
▁korostaa	-5142
pit	-5143
vis	-5144
▁Tö	-5145
▁Hyvä	-5146
▁taan	-5147
▁rakas	-5148
▁tyypi	-5149
▁koulutu	-5150
▁politiikan	-5151
mpö	-5152
pua	-5153
zin	-5154
▁Hir	-5155
▁rei	-5156
▁saar	-5157
▁tuote	-5158
▁kirjan	-5159
▁suuren	-5160
▁vaihtoeh	-5161
▁selvittää	-5162
▁7.	-5163
▁Ari	-5164
sivät	-5165
isillä	-5166
▁yhtenä	-5167
▁aikojen	-5168
ws	-5169
del	-5170
nim	-5171
pio	-5172
▁Sam	-5173
olais	-5174
viisu	-5175
▁2016	-5176
▁Edus	-5177
▁jutu	-5178
▁sydä	-5179
▁Marko	-5180
▁täyde	-5181
▁perään	-5182
▁varmis	-5183
▁sanottu	-5184
▁voittoa	-5185
▁omistaja	-5186
▁tutkinta	-5187
enin	-5188
▁raj	-5189
kille	-5190
nolog	-5191
▁stra	-5192
ikkaan	-5193
istään	-5194
vaalien	-5195
▁ohjelma	-5196
los	-5197
kinä	-5198
▁Uni	-5199
▁HIFK	-5200
▁pika	-5201
▁kiusa	-5202
▁yksil	-5203
▁naiset	-5204
▁tarjoa	-5205
▁toistu	-5206
▁väärin	-5207
▁mestari	-5208
▁tutkija	-5209
▁käytöstä	-5210
▁pidetään	-5211
▁Hie	-5212
ologi	-5213
▁laji	-5214
paikka	-5215
politi	-5216
▁järky	-5217
▁juoksi	-5218
▁sanonut	-5219
3,	-5220
eo	-5221
teh	-5222
hoja	-5223
iver	-5224
kaus	-5225
▁Mik	-5226
▁uks	-5227
▁Ehkä	-5228
▁Halu	-5229
▁naim	-5230
▁star	-5231
▁hieno	-5232
▁täysi	-5233
▁Heikki	-5234
▁Iranin	-5235
▁energia	-5236
▁tiedotti	-5237
▁yhteyttä	-5238
▁Rovanperä	-5239
▁vakavasti	-5240
▁5-	-5241
imet	-5242
▁Fer	-5243
▁Red	-5244
▁USA	-5245
▁summ	-5246
yttiin	-5247
▁joihin	-5248
▁muutti	-5249
▁muuttaa	-5250
▁kannatus	-5251
▁hyökkääjä	-5252
▁julkisuudessa	-5253
ija	-5254
▁16.	-5255
▁tes	-5256
inaan	-5257
miset	-5258
▁eksi	-5259
▁puna	-5260
▁sade	-5261
▁Paimi	-5262
▁paino	-5263
▁sairas	-5264
▁Tapahtu	-5265
▁jutussa	-5266
▁lopputu	-5267
▁organis	-5268
▁uudistu	-5269
▁[	-5270
▁di	-5271
peri	-5272
jojen	-5273
▁olle	-5274
▁kunnes	-5275
▁näkemy	-5276
▁toivoo	-5277
▁kansallis	-5278
ny	-5279
▁psy	-5280
▁rin	-5281
▁tekn	-5282
▁Hanna	-5283
▁Mosko	-5284
▁katsoo	-5285
▁taakse	-5286
▁urallaan	-5287
▁Paa	-5288
▁Was	-5289
▁esta	-5290
▁tuon	-5291
aisesti	-5292
▁tarkka	-5293
▁aamulla	-5294
▁lähetti	-5295
▁alkuperä	-5296
▁kuolleen	-5297
▁vaimonsa	-5298
▁nimenomaan	-5299
▁At	-5300
estar	-5301
kista	-5302
▁koro	-5303
kkinen	-5304
▁kasvu	-5305
▁vanha	-5306
▁Olympia	-5307
vuotiaana	-5308
▁puolelle	-5309
▁selvittä	-5310
lik	-5311
ikön	-5312
▁lev	-5313
▁lääke	-5314
▁omaan	-5315
▁puhua	-5316
▁tuomar	-5317
▁miseksi	-5318
▁Zelenskyi	-5319
▁Kansainväl	-5320
pito	-5321
▁roma	-5322
▁autta	-5323
▁entis	-5324
▁risti	-5325
▁Tutkim	-5326
puolelle	-5327
▁palkinto	-5328
▁odotetaan	-5329
▁Vih	-5330
ister	-5331
▁asen	-5332
attori	-5333
oilija	-5334
▁kertoa	-5335
▁puoliso	-5336
▁sotilaa	-5337
▁tekevät	-5338
tas	-5339
urn	-5340
▁8.	-5341
▁via	-5342
▁Krem	-5343
▁kyky	-5344
▁kadon	-5345
▁koira	-5346
▁neuvo	-5347
▁ajatus	-5348
▁päätyi	-5349
▁tapaus	-5350
▁Reuters	-5351
▁alkanut	-5352
▁tavoite	-5353
ityksessä	-5354
▁toisessa	-5355
sik	-5356
vinnyt	-5357
Suomessa	-5358
▁pelissä	-5359
▁uksesta	-5360
▁lainkaan	-5361
▁ulkopuolella	-5362
▁da	-5363
hais	-5364
pään	-5365
▁Kie	-5366
▁Näyt	-5367
tuusto	-5368
▁Uuden	-5369
▁kauan	-5370
▁vahva	-5371
▁hankke	-5372
▁heille	-5373
▁tapaan	-5374
ii	-5375
htuu	-5376
tonin	-5377
käteen	-5378
teessä	-5379
▁johti	-5380
▁heistä	-5381
▁sairaus	-5382
▁pelaajat	-5383
▁prosentti	-5384
▁haastattelu	-5385
isko	-5386
käyn	-5387
▁Jaa	-5388
ikkiä	-5389
toivat	-5390
iaamuna	-5391
▁kaikista	-5392
▁heinäkuussa	-5393
mmäs	-5394
ukut	-5395
teistä	-5396
▁Markk	-5397
▁alueilla	-5398
▁ratkaise	-5399
omin	-5400
sivat	-5401
järven	-5402
▁etsin	-5403
▁matto	-5404
▁myynn	-5405
▁pyytää	-5406
▁epäilee	-5407
▁varsinkin	-5408
▁työmarkkin	-5409
▁huhtikuussa	-5410
mö	-5411
pes	-5412
▁Emme	-5413
▁kuol	-5414
rangais	-5415
▁asunto	-5416
▁soitti	-5417
▁viettä	-5418
▁Salossa	-5419
▁menettä	-5420
istettiin	-5421
▁laitoksen	-5422
▁iltapäivällä	-5423
▁Tuk	-5424
▁mään	-5425
▁Charles	-5426
▁kannata	-5427
▁dollaria	-5428
ons	-5429
inin	-5430
▁Mac	-5431
▁Pie	-5432
isiko	-5433
ttele	-5434
▁Oulu	-5435
taalla	-5436
▁vakuu	-5437
▁valin	-5438
▁isänsä	-5439
▁puisto	-5440
▁kuukaus	-5441
▁voittoon	-5442
▁poliisille	-5443
▁kaupungissa	-5444
juo	-5445
▁ohe	-5446
dalla	-5447
▁Lähi	-5448
säädän	-5449
▁ilmen	-5450
▁jouko	-5451
▁asiaan	-5452
▁määrää	-5453
▁löytynyt	-5454
▁sellaisia	-5455
▁hiljattain	-5456
uste	-5457
▁hid	-5458
▁ryö	-5459
ettua	-5460
mätön	-5461
kanaan	-5462
▁jouluk	-5463
▁kulttuur	-5464
▁liittyen	-5465
▁Toisaalta	-5466
..	-5467
ttoa	-5468
▁Win	-5469
▁Juus	-5470
netaan	-5471
▁pääll	-5472
▁säily	-5473
▁asetta	-5474
▁mestaruus	-5475
tossa	-5476
▁käytö	-5477
yydestä	-5478
▁englan	-5479
▁niihin	-5480
▁nähden	-5481
▁taiste	-5482
▁tuolla	-5483
iro	-5484
aisa	-5485
hdin	-5486
illut	-5487
onnut	-5488
▁vuor	-5489
isistä	-5490
▁tyyli	-5491
▁isesta	-5492
▁toisin	-5493
ohjelman	-5494
▁yhteisö	-5495
▁kuuluvat	-5496
urg	-5497
wan	-5498
ajan	-5499
▁soi	-5500
▁Mann	-5501
▁Muut	-5502
▁mäki	-5503
▁pojan	-5504
▁sprin	-5505
▁vahin	-5506
▁Linnan	-5507
▁omasta	-5508
▁lähinnä	-5509
▁Tampereella	-5510
▁22.	-5511
itaan	-5512
uheen	-5513
▁Aika	-5514
▁uhri	-5515
▁yhty	-5516
▁lahja	-5517
▁siirr	-5518
▁keitti	-5519
▁suuria	-5520
▁tähden	-5521
utuminen	-5522
▁Hänellä	-5523
▁paikkoja	-5524
▁vastaava	-5525
▁pelkästään	-5526
▁kokoomuksen	-5527
▁6.	-5528
▁mm	-5529
iväs	-5530
yhty	-5531
ähkö	-5532
▁suj	-5533
▁aine	-5534
▁lumi	-5535
▁muutta	-5536
▁naista	-5537
▁kuvassa	-5538
▁kaikkiaan	-5539
pot	-5540
kivi	-5541
▁Väh	-5542
▁hom	-5543
paino	-5544
▁Pien	-5545
▁Tele	-5546
▁kans	-5547
ikasta	-5548
▁Kalli	-5549
▁Oikeus	-5550
▁potila	-5551
▁Niskanen	-5552
▁elämässä	-5553
▁kirjassa	-5554
▁nimittäin	-5555
▁ulkoministeri	-5556
kiel	-5557
unen	-5558
▁Jun	-5559
▁eroa	-5560
▁hymy	-5561
▁lopu	-5562
▁alais	-5563
▁tuskin	-5564
▁laulaja	-5565
▁onnistunut	-5566
ario	-5567
▁Roo	-5568
▁maku	-5569
▁nousu	-5570
▁merkin	-5571
▁Britannian	-5572
▁parhaillaan	-5573
dot	-5574
hto	-5575
rjä	-5576
▁fi	-5577
▁Ede	-5578
▁aid	-5579
▁Ihan	-5580
▁piha	-5581
▁kulke	-5582
▁nukku	-5583
▁epäonn	-5584
▁Washing	-5585
▁kokemus	-5586
▁tyytyväinen	-5587
▁tytär	-5588
▁pitkin	-5589
päällikkö	-5590
▁etukäteen	-5591
▁käytetään	-5592
▁tiedottaa	-5593
▁julkisuuteen	-5594
vid	-5595
▁3.	-5596
▁Ros	-5597
▁Sunn	-5598
▁löysi	-5599
▁rajoi	-5600
▁Lopulta	-5601
▁vaikutti	-5602
▁tarvitsee	-5603
pr	-5604
▁Ras	-5605
▁inno	-5606
▁seen	-5607
▁Kamala	-5608
▁hävisi	-5609
▁myönsi	-5610
▁pisteen	-5611
▁selviää	-5612
▁minuutin	-5613
▁itsestään	-5614
hön	-5615
▁37	-5616
▁Fo	-5617
vist	-5618
▁Hil	-5619
▁Jas	-5620
tuvat	-5621
▁Jenni	-5622
▁ranta	-5623
tuntija	-5624
▁kasvanut	-5625
tkä	-5626
▁Vaa	-5627
karin	-5628
▁Hyvin	-5629
▁paket	-5630
▁pallo	-5631
▁suhde	-5632
▁eläkke	-5633
▁llinen	-5634
▁työttö	-5635
▁väliin	-5636
▁Lapissa	-5637
▁parissa	-5638
▁käyttäyty	-5639
▁yksinkerta	-5640
▁Vol	-5641
ilijä	-5642
▁rool	-5643
utusta	-5644
▁autoa	-5645
▁etene	-5646
▁musiik	-5647
▁kritisoi	-5648
▁valittiin	-5649
ilm	-5650
▁29	-5651
esse	-5652
ktio	-5653
joista	-5654
utensa	-5655
utettu	-5656
▁Koska	-5657
▁Tähän	-5658
▁Valio	-5659
▁siten	-5660
kisojen	-5661
▁väitti	-5662
▁jossain	-5663
▁kokouksessa	-5664
insa	-5665
▁kka	-5666
anaan	-5667
estön	-5668
missä	-5669
unais	-5670
uksien	-5671
▁sattu	-5672
▁kokenut	-5673
▁suurläh	-5674
▁joukkoon	-5675
▁pystynyt	-5676
▁sekuntia	-5677
▁TV	-5678
vänä	-5679
▁Pes	-5680
▁aio	-5681
▁pin	-5682
▁Kans	-5683
▁Talo	-5684
▁uima	-5685
▁jäädä	-5686
▁saksa	-5687
▁uudet	-5688
▁kiertu	-5689
▁neuvot	-5690
▁päivys	-5691
▁Trumpia	-5692
▁haluavat	-5693
▁harrasta	-5694
mppu	-5695
▁Koh	-5696
▁Viron	-5697
▁järke	-5698
▁kiell	-5699
innalla	-5700
▁kestää	-5701
▁pelata	-5702
▁maaliin	-5703
▁ajoneuvo	-5704
-20	-5705
eer	-5706
ueen	-5707
▁Tra	-5708
▁Tänä	-5709
yökkää	-5710
▁Daniel	-5711
▁ruokaa	-5712
▁tervey	-5713
▁täyden	-5714
▁Maailman	-5715
▁esityksen	-5716
▁hallinnon	-5717
▁keskustan	-5718
▁käynnisty	-5719
ci	-5720
pla	-5721
▁Aho	-5722
▁Mor	-5723
tävät	-5724
▁Liig	-5725
Pohjan	-5726
▁Paika	-5727
▁puuko	-5728
▁aluksi	-5729
▁omalla	-5730
▁ehdokas	-5731
▁vieraili	-5732
▁vuodelta	-5733
3-	-5734
che	-5735
▁Th	-5736
▁Men	-5737
▁koe	-5738
tessa	-5739
▁Kaar	-5740
▁kein	-5741
▁mikäli	-5742
▁illalla	-5743
▁Espanjan	-5744
▁liikunta	-5745
▁hyökkäyksen	-5746
▁loukkaantui	-5747
yörä	-5748
▁enn	-5749
eltaan	-5750
jalais	-5751
udulla	-5752
▁Angel	-5753
▁ennäty	-5754
▁harvin	-5755
▁verkkos	-5756
▁kokoonpan	-5757
▁4.	-5758
holm	-5759
▁kod	-5760
mästä	-5761
tusti	-5762
▁aloi	-5763
▁kuvi	-5764
▁seka	-5765
▁vied	-5766
▁Metsä	-5767
▁Monet	-5768
isuutta	-5769
▁Pohjan	-5770
▁toisia	-5771
▁haavoit	-5772
▁selvisi	-5773
▁puhutaan	-5774
ttyä	-5775
▁Austr	-5776
▁puhui	-5777
▁totta	-5778
▁esitti	-5779
▁Hamasin	-5780
▁aiempaa	-5781
▁epäillyn	-5782
▁ammattilais	-5783
).	-5784
4-	-5785
▁Mas	-5786
kistä	-5787
koski	-5788
▁juoks	-5789
▁puhuu	-5790
misario	-5791
▁kasvoi	-5792
▁käytti	-5793
▁tietty	-5794
sd	-5795
tän	-5796
▁een	-5797
jattu	-5798
▁keho	-5799
ikaani	-5800
▁haita	-5801
▁pyysi	-5802
▁ylivoima	-5803
▁Käräjäoike	-5804
nee	-5805
turi	-5806
▁Sim	-5807
▁Pitä	-5808
maiden	-5809
▁Aalto	-5810
alaisissa	-5811
▁huolissaan	-5812
▁mielenkiin	-5813
▁onnettomuus	-5814
▁republikaan	-5815
▁välittömästi	-5816
▁Cha	-5817
▁Hol	-5818
▁Lan	-5819
▁Nik	-5820
▁Sus	-5821
uston	-5822
▁essä	-5823
▁kodin	-5824
▁kysely	-5825
▁nuoret	-5826
▁tarttu	-5827
▁paikkaan	-5828
▁lämpötila	-5829
▁5.	-5830
▁Col	-5831
▁Yhd	-5832
▁paid	-5833
▁lippu	-5834
▁paina	-5835
▁sulke	-5836
▁ilmoituksen	-5837
ett	-5838
asin	-5839
▁häir	-5840
▁pään	-5841
▁sana	-5842
▁viin	-5843
▁Martin	-5844
▁Tappara	-5845
▁työllis	-5846
▁Onnettom	-5847
▁kisoissa	-5848
▁urheilija	-5849
▁vapaaehto	-5850
siv	-5851
jänä	-5852
▁läs	-5853
aseen	-5854
▁sulj	-5855
isista	-5856
tuksiin	-5857
▁Kaarin	-5858
▁merkki	-5859
▁ilmesty	-5860
▁äärimmä	-5861
▁paljasti	-5862
▁pelaajia	-5863
▁lauantain	-5864
▁lainsäädän	-5865
kuo	-5866
▁38	-5867
lliin	-5868
▁käyttöä	-5869
▁keskuksen	-5870
▁tuotteita	-5871
▁tutkimuksen	-5872
set	-5873
piir	-5874
▁heh	-5875
▁vyö	-5876
kalta	-5877
▁Päiv	-5878
▁elää	-5879
▁ohja	-5880
▁jakoi	-5881
▁luvan	-5882
▁olevat	-5883
▁paikalta	-5884
▁Rovaniemen	-5885
mes	-5886
sit	-5887
uth	-5888
iaat	-5889
iini	-5890
▁Pos	-5891
▁net	-5892
▁sie	-5893
▁tää	-5894
▁juom	-5895
▁rans	-5896
▁rata	-5897
▁ylös	-5898
erässä	-5899
▁kokee	-5900
▁uhrin	-5901
▁naapur	-5902
▁osoittaa	-5903
▁sanotaan	-5904
▁saattavat	-5905
▁tietenkin	-5906
▁tulevaisuudessa	-5907
kirj	-5908
▁Rin	-5909
▁eva	-5910
▁jyr	-5911
vellä	-5912
▁Joka	-5913
▁sope	-5914
▁Innes	-5915
▁rahoi	-5916
▁Riikka	-5917
▁hämmen	-5918
▁hämmäs	-5919
▁korjaa	-5920
▁poikan	-5921
▁talven	-5922
▁töihin	-5923
▁Vantaan	-5924
▁päätöstä	-5925
▁joulukuuta	-5926
lass	-5927
ssin	-5928
teor	-5929
▁aan	-5930
▁tom	-5931
lääkäri	-5932
▁edellä	-5933
▁pankki	-5934
▁suurta	-5935
▁tunnista	-5936
▁tällainen	-5937
kohd	-5938
▁15-	-5939
▁pul	-5940
▁diag	-5941
mattom	-5942
▁pysäh	-5943
▁valti	-5944
▁Heleni	-5945
tuksissa	-5946
▁eivätkä	-5947
▁jokainen	-5948
▁otettiin	-5949
▁suoritus	-5950
uku	-5951
tapa	-5952
usen	-5953
▁Ber	-5954
▁uim	-5955
meren	-5956
rinen	-5957
▁tuor	-5958
▁2021.	-5959
▁viita	-5960
ulainen	-5961
▁heikko	-5962
▁kuului	-5963
▁omassa	-5964
▁podcas	-5965
▁lehdistö	-5966
vuotiaiden	-5967
▁maalivahti	-5968
▁tapahtumia	-5969
▁suomalaista	-5970
▁Top	-5971
▁kyn	-5972
Stubb	-5973
▁Toim	-5974
▁korja	-5975
▁tason	-5976
▁erässä	-5977
▁syöttö	-5978
▁luvassa	-5979
▁liittyvät	-5980
▁maailmassa	-5981
ylä	-5982
▁yn	-5983
ieme	-5984
teer	-5985
▁ota	-5986
kilpa	-5987
aation	-5988
▁Hänet	-5989
▁epävar	-5990
▁miljar	-5991
▁Kuvassa	-5992
▁Urheilu	-5993
▁ehtinyt	-5994
▁keväänä	-5995
▁sijoittui	-5996
ug	-5997
upä	-5998
jala	-5999
▁hyl	-6000
Korean	-6001
▁tekni	-6002
▁Kansan	-6003
▁näiden	-6004
▁parasta	-6005
▁professori	-6006
▁keskimäärin	-6007
läis	-6008
myys	-6009
▁Yhti	-6010
▁Paris	-6011
▁Sosia	-6012
▁laita	-6013
▁artisti	-6014
▁Saksassa	-6015
▁alkoholi	-6016
▁tuloksen	-6017
▁yllättäen	-6018
kija	-6019
uran	-6020
iksen	-6021
ntiin	-6022
▁tarj	-6023
enkään	-6024
▁näistä	-6025
▁liikenteen	-6026
ji	-6027
ismi	-6028
▁ros	-6029
matka	-6030
qvist	-6031
▁huum	-6032
▁terä	-6033
▁Miksi	-6034
▁kulku	-6035
▁ttiin	-6036
▁Henrik	-6037
▁läheis	-6038
▁yksilö	-6039
▁legenda	-6040
▁muuttunut	-6041
▁(2	-6042
▁SA	-6043
▁...	-6044
▁HJK	-6045
▁Max	-6046
▁Nie	-6047
vaara	-6048
▁Tamm	-6049
▁asuu	-6050
▁kerää	-6051
▁viisu	-6052
▁poista	-6053
▁eurolla	-6054
▁kymmeniä	-6055
▁tyttären	-6056
▁puolisonsa	-6057
▁Ilmatieteen	-6058
ova	-6059
▁Sää	-6060
kasen	-6061
kirja	-6062
tilat	-6063
▁läsnä	-6064
▁artikk	-6065
▁kappale	-6066
▁syksynä	-6067
▁tuomitsi	-6068
▁Bel	-6069
▁Oma	-6070
▁for	-6071
kunna	-6072
▁Sain	-6073
▁kasa	-6074
▁tutk	-6075
▁Video	-6076
▁ikinä	-6077
▁prote	-6078
▁alkavat	-6079
▁ottamaan	-6080
▁tarkemmin	-6081
▁henkilöstö	-6082
▁Yo	-6083
▁nn	-6084
pari	-6085
sion	-6086
uoto	-6087
▁moti	-6088
▁näki	-6089
▁oppi	-6090
▁osui	-6091
▁viih	-6092
▁Harkim	-6093
▁henkir	-6094
▁isella	-6095
▁Rantanen	-6096
▁huomioon	-6097
▁kommentti	-6098
aik	-6099
tena	-6100
▁bän	-6101
jöitä	-6102
ositi	-6103
▁puku	-6104
▁hakea	-6105
▁edeltä	-6106
▁erinoma	-6107
▁euroopp	-6108
▁tapausta	-6109
▁kommentoin	-6110
▁bi	-6111
▁Uus	-6112
▁Tule	-6113
itetty	-6114
▁syöpä	-6115
▁laitta	-6116
ittemmin	-6117
▁milloin	-6118
▁ominais	-6119
▁ensimmäisellä	-6120
muu	-6121
pis	-6122
rid	-6123
kiko	-6124
▁20-	-6125
▁Pol	-6126
▁2017	-6127
▁avio	-6128
▁vauh	-6129
▁Valta	-6130
▁monia	-6131
▁taite	-6132
tettävä	-6133
▁Mikäli	-6134
▁sähkön	-6135
▁Aleksan	-6136
ityksestä	-6137
ata	-6138
tre	-6139
▁irti	-6140
▁hahmo	-6141
▁silmä	-6142
▁edistä	-6143
▁muihin	-6144
▁ohella	-6145
▁vaatim	-6146
jalainen	-6147
▁aiheuttanut	-6148
llu	-6149
ppe	-6150
jelu	-6151
ynen	-6152
▁Kis	-6153
▁edu	-6154
attia	-6155
itinsä	-6156
uttava	-6157
utuvat	-6158
▁Micha	-6159
▁laitos	-6160
▁osasto	-6161
▁täynnä	-6162
▁autojen	-6163
▁ennakoi	-6164
▁kerrosta	-6165
▁valvonta	-6166
▁operaatio	-6167
▁kuningatar	-6168
imm	-6169
▁km	-6170
▁sov	-6171
vaali	-6172
yttyi	-6173
äällä	-6174
▁Meri	-6175
▁erän	-6176
käynti	-6177
▁maise	-6178
▁Veikka	-6179
liigassa	-6180
tuksella	-6181
▁kohtalo	-6182
▁jatkuvasti	-6183
▁yhteistyötä	-6184
fe	-6185
heen	-6186
▁ile	-6187
huone	-6188
kojen	-6189
▁Muun	-6190
▁koto	-6191
▁ehdot	-6192
▁kasvo	-6193
▁puole	-6194
▁Jääkie	-6195
▁Siihen	-6196
▁kuvattu	-6197
▁työntekijä	-6198
myr	-6199
▁Mel	-6200
▁lit	-6201
oikeisto	-6202
▁paranta	-6203
▁epäonnistu	-6204
),	-6205
▁800	-6206
hoito	-6207
joille	-6208
▁Kaner	-6209
▁jaksa	-6210
▁millä	-6211
uutensa	-6212
▁Italian	-6213
ottelussa	-6214
▁käsittely	-6215
▁tarpeeksi	-6216
▁Pääministeri	-6217
▁ensimmäisessä	-6218
▁Uh	-6219
▁sho	-6220
oping	-6221
▁Järj	-6222
▁kohu	-6223
ittava	-6224
kkänen	-6225
▁Pulju	-6226
▁ilmiö	-6227
▁käänn	-6228
▁sotaa	-6229
▁testa	-6230
▁tuoda	-6231
▁Tappar	-6232
▁heillä	-6233
▁pyrkii	-6234
▁siviili	-6235
▁vahvisti	-6236
ohjelmassa	-6237
▁investoin	-6238
▁kolmannen	-6239
KP	-6240
▁Du	-6241
pres	-6242
vala	-6243
▁rav	-6244
kaisi	-6245
▁Vilp	-6246
▁juur	-6247
▁omis	-6248
▁pais	-6249
▁vene	-6250
ikseen	-6251
▁Anton	-6252
▁Super	-6253
▁laaja	-6254
▁luonto	-6255
▁muille	-6256
▁vakava	-6257
▁kisojen	-6258
▁kuntoon	-6259
▁strateg	-6260
▁valmennus	-6261
▁näkökulmasta	-6262
one	-6263
▁Pö	-6264
loma	-6265
▁jum	-6266
rillä	-6267
välin	-6268
▁levy	-6269
illeen	-6270
ksellä	-6271
▁omien	-6272
▁äidin	-6273
▁Mäkelä	-6274
▁yleisön	-6275
ottavasti	-6276
▁tavanoma	-6277
▁varrella	-6278
▁järjestää	-6279
▁sairaalassa	-6280
ted	-6281
use	-6282
▁Paj	-6283
▁Pär	-6284
issään	-6285
ittele	-6286
ruutta	-6287
▁isessa	-6288
▁matkus	-6289
▁nyrkke	-6290
llisesta	-6291
▁alkohol	-6292
▁toimeen	-6293
▁sijoitus	-6294
▁maksamaan	-6295
▁kappaletta	-6296
uni	-6297
▁Nuo	-6298
▁stu	-6299
auton	-6300
basti	-6301
itsin	-6302
▁Mäki	-6303
▁miin	-6304
omille	-6305
▁Guard	-6306
▁Suurin	-6307
▁polttoa	-6308
▁Myöhemmin	-6309
▁Vasemmisto	-6310
▁mestaruuden	-6311
sal	-6312
▁isi	-6313
▁päih	-6314
▁rive	-6315
▁Kolme	-6316
▁Sähkö	-6317
▁lenno	-6318
▁Tiista	-6319
▁hoitaa	-6320
▁pallon	-6321
▁kuukausi	-6322
▁ympärillä	-6323
▁Ir	-6324
▁Vik	-6325
kkain	-6326
▁Anne	-6327
▁kylä	-6328
ittävä	-6329
▁Kiina	-6330
▁kahta	-6331
▁liito	-6332
▁keikka	-6333
▁lämmin	-6334
▁matkaa	-6335
▁alkoivat	-6336
▁selittää	-6337
▁teknolog	-6338
▁viimeksi	-6339
▁Washington	-6340
▁väkivallan	-6341
enee	-6342
ller	-6343
▁10-	-6344
ihdon	-6345
▁Tshe	-6346
▁lask	-6347
▁naut	-6348
ettävä	-6349
kauppa	-6350
▁Somer	-6351
▁jalkapall	-6352
▁turvallisuuden	-6353
rassa	-6354
▁Juli	-6355
▁kori	-6356
▁sote	-6357
tastro	-6358
▁isoja	-6359
▁kisaa	-6360
▁meneh	-6361
▁paiko	-6362
▁uksia	-6363
mestari	-6364
▁Krista	-6365
▁kamppa	-6366
▁mitali	-6367
▁niissä	-6368
▁enempää	-6369
▁lopettaa	-6370
▁yhteyden	-6371
▁Euroviisu	-6372
▁perjantai	-6373
▁hyökkäysso	-6374
▁merkitystä	-6375
▁tapahtuneesta	-6376
SS	-6377
▁Nu	-6378
▁18-	-6379
▁avo	-6380
innin	-6381
media	-6382
vella	-6383
▁Sisä	-6384
▁kärj	-6385
▁Joker	-6386
▁kiloa	-6387
▁minuu	-6388
▁ransk	-6389
▁koiran	-6390
▁tehneet	-6391
▁valmiiksi	-6392
▁vankeusrangais	-6393
▁olympialaisissa	-6394
piä	-6395
hdus	-6396
eloku	-6397
▁tiuk	-6398
ositio	-6399
vuoden	-6400
▁Joens	-6401
▁asema	-6402
▁juoksu	-6403
yökkääjä	-6404
▁havainn	-6405
▁hybridi	-6406
▁peräkkä	-6407
▁tärkein	-6408
▁uudestaan	-6409
▁voitaisiin	-6410
hdy	-6411
▁48	-6412
▁Ali	-6413
▁Lah	-6414
jansa	-6415
▁Miel	-6416
koihin	-6417
neista	-6418
▁aloit	-6419
▁festi	-6420
▁lakka	-6421
▁radio	-6422
▁varaa	-6423
▁Vastaa	-6424
▁kriitt	-6425
▁Valtteri	-6426
▁tällaista	-6427
▁keskiviikko	-6428
ep	-6429
kier	-6430
pitä	-6431
▁aiv	-6432
▁hor	-6433
▁ise	-6434
▁tak	-6435
▁arki	-6436
▁ksen	-6437
▁terv	-6438
▁Musta	-6439
▁pakka	-6440
isuuden	-6441
▁epäsel	-6442
▁saattoi	-6443
▁Valtonen	-6444
▁kesäkuuta	-6445
▁suhteessa	-6446
▁työskentele	-6447
▁mahdollisuuksia	-6448
pö	-6449
▁ly	-6450
sonin	-6451
▁koki	-6452
▁kome	-6453
▁viha	-6454
▁väär	-6455
▁esillä	-6456
▁huomaa	-6457
▁lailla	-6458
▁terror	-6459
▁hyväksi	-6460
▁siirtyy	-6461
▁tulevan	-6462
▁Lindtman	-6463
▁kunnolla	-6464
▁tapauksen	-6465
ash	-6466
fia	-6467
tei	-6468
tic	-6469
ytö	-6470
kyky	-6471
omaa	-6472
anoma	-6473
▁liki	-6474
▁Elina	-6475
▁pysyy	-6476
▁varma	-6477
itteitä	-6478
▁Tänään	-6479
▁jäivät	-6480
▁muodos	-6481
▁Keskivi	-6482
▁esiintyi	-6483
▁huolestu	-6484
▁joukkuetta	-6485
▁sunnuntain	-6486
▁verkkosivu	-6487
Pan	-6488
ther	-6489
▁spe	-6490
tusten	-6491
▁estää	-6492
▁tänne	-6493
▁Huuhka	-6494
▁Mikael	-6495
▁houkut	-6496
▁päätte	-6497
▁pidetty	-6498
▁lisäänty	-6499
▁pelataan	-6500
▁toiselle	-6501
▁finaalissa	-6502
▁sosiaalisen	-6503
mäen	-6504
▁23.	-6505
▁aih	-6506
▁pat	-6507
käynn	-6508
llöin	-6509
oinut	-6510
urssi	-6511
▁Jani	-6512
▁Vier	-6513
vuotis	-6514
▁Ensin	-6515
▁löytä	-6516
▁Dallas	-6517
istuksen	-6518
▁pelasta	-6519
▁vaikkapa	-6520
▁poliisila	-6521
▁Pariisissa	-6522
▁ilmoittanut	-6523
▁vaikuttavat	-6524
sse	-6525
▁46	-6526
ivuo	-6527
▁Blo	-6528
▁kim	-6529
▁laul	-6530
▁tuen	-6531
▁askel	-6532
▁tekoä	-6533
▁juhann	-6534
▁laiset	-6535
▁loista	-6536
▁Johanna	-6537
▁Näytteli	-6538
▁juontaja	-6539
▁kapteeni	-6540
▁kerrottu	-6541
▁palvelun	-6542
▁tulokset	-6543
▁pelaamaan	-6544
▁rangaistus	-6545
▁keskustassa	-6546
ntö	-6547
▁Go	-6548
ikoi	-6549
ppoa	-6550
ttin	-6551
▁Aki	-6552
▁Vic	-6553
▁ton	-6554
villä	-6555
▁Kaks	-6556
llisiä	-6557
▁testi	-6558
▁turha	-6559
▁asiana	-6560
▁naisia	-6561
▁tutkii	-6562
▁itsekin	-6563
▁Presiden	-6564
▁haluaisi	-6565
▁rakentaa	-6566
▁voimassa	-6567
▁miljardia	-6568
▁sähköposti	-6569
taso	-6570
mille	-6571
raali	-6572
▁Noin	-6573
▁Palo	-6574
▁kieli	-6575
▁luopu	-6576
▁puuta	-6577
▁tarina	-6578
▁hoitoon	-6579
tilillään	-6580
▁johtajan	-6581
▁nykyinen	-6582
▁poikansa	-6583
▁rahoitus	-6584
▁tapahtuman	-6585
▁suomalaisia	-6586
ow	-6587
ski	-6588
tuin	-6589
▁set	-6590
nutta	-6591
▁Nord	-6592
▁iltä	-6593
▁öljy	-6594
isissä	-6595
tellyt	-6596
▁Daily	-6597
▁erään	-6598
▁velvo	-6599
tellään	-6600
telusta	-6601
▁lataus	-6602
▁matala	-6603
▁liikenn	-6604
▁tuomion	-6605
alaisille	-6606
▁mukanaan	-6607
▁tiedotteessaan	-6608
wi	-6609
jiin	-6610
▁Med	-6611
▁Mie	-6612
▁Yks	-6613
▁kuv	-6614
▁Ilve	-6615
▁Matt	-6616
▁Roman	-6617
asiassa	-6618
▁iselle	-6619
▁kaksin	-6620
▁kohden	-6621
▁pidemm	-6622
▁suoritta	-6623
▁joukkojen	-6624
▁sijaitsevan	-6625
lti	-6626
pia	-6627
▁Ty	-6628
▁Mil	-6629
▁ret	-6630
heilun	-6631
teetti	-6632
▁hyvät	-6633
▁isänn	-6634
▁kaatu	-6635
▁Heidän	-6636
▁Markku	-6637
▁tiedus	-6638
▁väestö	-6639
utumista	-6640
▁Paimion	-6641
▁tuhansia	-6642
▁liittyviä	-6643
▁seuraavan	-6644
▁päätteeksi	-6645
▁tiedotteen	-6646
▁kolmanneksi	-6647
▁työmarkkina	-6648
mieh	-6649
vero	-6650
▁rad	-6651
▁ttu	-6652
▁Minä	-6653
▁sein	-6654
▁suomen	-6655
▁päättyy	-6656
▁viikossa	-6657
▁presidentiksi	-6658
igh	-6659
▁6-	-6660
talli	-6661
▁Alku	-6662
▁Taka	-6663
▁homm	-6664
oinnin	-6665
▁Tikto	-6666
▁Times	-6667
▁vamma	-6668
vuodesta	-6669
▁kahdesti	-6670
▁Perussuom	-6671
yhä	-6672
▁47	-6673
pele	-6674
utto	-6675
▁Mää	-6676
▁Rus	-6677
▁kse	-6678
kunut	-6679
▁alus	-6680
▁siiv	-6681
▁evakuo	-6682
▁pakkas	-6683
▁ymmärr	-6684
▁äitinsä	-6685
▁elokuuta	-6686
▁kahdesta	-6687
▁kentällä	-6688
▁kilpaile	-6689
▁päivässä	-6690
▁toimisto	-6691
▁toukokuuta	-6692
▁mahdollinen	-6693
▁pudotuspeli	-6694
are	-6695
bor	-6696
▁hö	-6697
▁600	-6698
▁Hei	-6699
▁erä	-6700
▁kärs	-6701
▁Päätö	-6702
▁nähtä	-6703
▁vetää	-6704
virasto	-6705
▁Marinin	-6706
▁Michael	-6707
▁miettiä	-6708
▁paikoin	-6709
▁perässä	-6710
▁sukupol	-6711
▁tuotann	-6712
▁väkival	-6713
▁aikanaan	-6714
llisuudessa	-6715
▁tasavallan	-6716
▁normaalisti	-6717
▁maajoukkueen	-6718
▁maailmancupin	-6719
joa	-6720
tul	-6721
▁pir	-6722
▁Fred	-6723
▁suol	-6724
▁irtis	-6725
▁jakaa	-6726
▁ukset	-6727
pelaaja	-6728
▁Versta	-6729
▁kaipaa	-6730
salainen	-6731
▁asunnon	-6732
▁misestä	-6733
▁muualla	-6734
▁välinen	-6735
▁vierailu	-6736
▁pelaajien	-6737
▁heinäkuuta	-6738
udi	-6739
Uuden	-6740
ottava	-6741
▁insti	-6742
uudella	-6743
▁Hämeen	-6744
▁ajaksi	-6745
▁kaatui	-6746
▁nousta	-6747
▁melkein	-6748
▁yhdiste	-6749
▁Verstapp	-6750
▁murhasta	-6751
▁toimivat	-6752
▁perjantain	-6753
▁eduskunnassa	-6754
kson	-6755
▁Kann	-6756
▁kiva	-6757
kultaa	-6758
tuista	-6759
▁edustus	-6760
▁koulutus	-6761
▁palvelut	-6762
▁tapauksesta	-6763
▁vaikutuksia	-6764
▁yrityksestä	-6765
▁eduskuntaryhmän	-6766
nsa	-6767
uru	-6768
aste	-6769
hain	-6770
olle	-6771
otan	-6772
▁Bor	-6773
▁Sai	-6774
asian	-6775
htori	-6776
jalan	-6777
▁Puha	-6778
▁kulkee	-6779
▁yhteys	-6780
▁Turussa	-6781
▁herätti	-6782
▁varasto	-6783
▁hallussa	-6784
▁sairastu	-6785
▁Catherine	-6786
▁Hallituksen	-6787
vil	-6788
mari	-6789
neuv	-6790
▁uhr	-6791
▁uno	-6792
▁Colo	-6793
▁vään	-6794
ittäjä	-6795
voitto	-6796
▁raska	-6797
▁periaat	-6798
▁ristiri	-6799
▁uudessa	-6800
▁väittää	-6801
kertainen	-6802
▁esiintyy	-6803
▁maailmaa	-6804
▁enemmistö	-6805
▁muistutti	-6806
▁paljastui	-6807
▁televisio	-6808
▁julkaissut	-6809
▁mielestään	-6810
▁tapahtumien	-6811
tian	-6812
▁oul	-6813
▁enkä	-6814
▁pyri	-6815
▁jokin	-6816
▁kohde	-6817
▁voida	-6818
▁autoja	-6819
▁paremm	-6820
istetaan	-6821
muksesta	-6822
▁misessa	-6823
▁valitsi	-6824
▁valtava	-6825
Uudenmaan	-6826
▁Salminen	-6827
▁anteeksi	-6828
▁poikkeus	-6829
▁sairaalan	-6830
▁tuomioistu	-6831
het	-6832
▁55	-6833
orin	-6834
uring	-6835
▁leik	-6836
▁oire	-6837
ikosta	-6838
telyyn	-6839
▁Katri	-6840
▁Pitkä	-6841
▁ostaa	-6842
▁ralli	-6843
utumaan	-6844
▁Kokoom	-6845
▁Tukhol	-6846
▁laisen	-6847
▁ukseen	-6848
▁korjaus	-6849
▁muuttuu	-6850
▁paljasta	-6851
▁perustus	-6852
du	-6853
usu	-6854
▁der	-6855
immät	-6856
radio	-6857
talon	-6858
▁Yllä	-6859
▁ison	-6860
▁tall	-6861
▁Ohjel	-6862
▁veron	-6863
▁kyseen	-6864
▁lisäsi	-6865
▁nuoria	-6866
▁puuttu	-6867
▁tapasi	-6868
teorologi	-6869
▁kahdeksa	-6870
▁lukuisia	-6871
▁paikassa	-6872
▁osallistua	-6873
▁viikonlopun	-6874
▁Ph	-6875
aisia	-6876
anssi	-6877
▁Tasa	-6878
▁tren	-6879
▁tupa	-6880
tentia	-6881
▁arvio	-6882
▁avoin	-6883
▁laatu	-6884
▁riipp	-6885
telystä	-6886
▁poseer	-6887
▁työelä	-6888
▁pitävät	-6889
▁seurasi	-6890
▁uksista	-6891
▁halutaan	-6892
▁lääkärin	-6893
▁puolustaja	-6894
▁joukkueessa	-6895
▁työntekijöiden	-6896
▁65	-6897
▁City	-6898
▁Geor	-6899
▁Penn	-6900
▁Toiv	-6901
▁oven	-6902
▁syvä	-6903
▁lyhyt	-6904
▁paluu	-6905
telyssä	-6906
▁hiihtä	-6907
▁toimiva	-6908
▁vaalien	-6909
▁tarkasti	-6910
▁kritiikkiä	-6911
▁entisestään	-6912
▁keskuudessa	-6913
BA	-6914
▁ju	-6915
▁150	-6916
▁Lou	-6917
tosta	-6918
▁joud	-6919
maansa	-6920
▁Harri	-6921
▁kesti	-6922
▁koskee	-6923
▁olisin	-6924
▁tallen	-6925
▁pisteet	-6926
▁lauantai	-6927
▁paikasta	-6928
▁lokakuuta	-6929
▁oikeudessa	-6930
▁rikoksista	-6931
nnut	-6932
▁taj	-6933
nella	-6934
▁Star	-6935
▁golf	-6936
▁maat	-6937
ajalla	-6938
eltään	-6939
ittasi	-6940
▁keräsi	-6941
▁päivinä	-6942
▁Syyttäjä	-6943
▁muutenkin	-6944
ds	-6945
ft	-6946
kkö	-6947
vun	-6948
▁SAK	-6949
▁Fore	-6950
▁Stan	-6951
▁hetk	-6952
▁järk	-6953
▁kiih	-6954
▁huuma	-6955
▁huume	-6956
▁meren	-6957
▁puhel	-6958
▁Jaakko	-6959
▁Robert	-6960
▁häirin	-6961
▁Naisten	-6962
▁haittaa	-6963
▁puhunut	-6964
▁katastro	-6965
▁syyskuuta	-6966
▁herättänyt	-6967
▁vuosittain	-6968
▁Ö	-6969
ois	-6970
rio	-6971
▁Jat	-6972
▁TPS	-6973
▁ens	-6974
ksistä	-6975
▁Ilves	-6976
▁asenn	-6977
▁hinnat	-6978
▁maksoi	-6979
▁Kanadan	-6980
▁tulivat	-6981
▁tulosta	-6982
▁Molemmat	-6983
▁markkina	-6984
▁suurempi	-6985
lö	-6986
syy	-6987
tug	-6988
▁Koi	-6989
ppuun	-6990
▁fiil	-6991
▁teen	-6992
antaja	-6993
voimat	-6994
▁tavat	-6995
▁tottu	-6996
▁Kuning	-6997
▁käytön	-6998
▁parkki	-6999
▁töissä	-7000
kilpailu	-7001
▁Telegra	-7002
▁elämänsä	-7003
▁hallitse	-7004
▁kaksikko	-7005
▁todetaan	-7006
▁rikoksesta	-7007
▁äärimmäisen	-7008
▁kansainvälisen	-7009
▁dra	-7010
ppien	-7011
▁palk	-7012
ellään	-7013
▁Juuso	-7014
▁klass	-7015
▁määri	-7016
▁pinta	-7017
▁taide	-7018
ottanut	-7019
yksestä	-7020
▁Tuomas	-7021
▁arvion	-7022
▁Venäjää	-7023
▁todista	-7024
▁järjestelmän	-7025
gon	-7026
ikas	-7027
▁1,5	-7028
uneet	-7029
▁Ferr	-7030
▁kauh	-7031
▁Laura	-7032
▁tarjon	-7033
▁Miesten	-7034
▁annettu	-7035
▁valittu	-7036
▁lähettää	-7037
▁mielenter	-7038
▁syytetään	-7039
▁marraskuuta	-7040
▁demokraattien	-7041
▁maailmanmestari	-7042
▁'	-7043
ast	-7044
kky	-7045
umb	-7046
unu	-7047
▁ön	-7048
este	-7049
▁Gar	-7050
▁Ran	-7051
piste	-7052
▁Paul	-7053
▁laiv	-7054
▁tenn	-7055
▁totu	-7056
tenkin	-7057
▁meitä	-7058
▁ajanut	-7059
▁muisti	-7060
Sanomien	-7061
▁Panther	-7062
▁otteluun	-7063
▁arvioidaan	-7064
▁julkisesti	-7065
ida	-7066
▁Fi	-7067
olin	-7068
unda	-7069
verk	-7070
▁löi	-7071
▁Ään	-7072
aiset	-7073
panen	-7074
▁pärj	-7075
▁Kokko	-7076
▁Lento	-7077
▁kenti	-7078
▁minut	-7079
▁reilut	-7080
▁johtoon	-7081
▁pääosin	-7082
▁lapsille	-7083
▁pitkälle	-7084
▁äänestää	-7085
▁osallistuu	-7086
▁pariskunta	-7087
▁lausunnossa	-7088
tyn	-7089
ikat	-7090
siin	-7091
sima	-7092
▁Kut	-7093
▁gra	-7094
▁Kang	-7095
uttaja	-7096
▁Lehto	-7097
▁Muuta	-7098
▁pohjo	-7099
▁rauta	-7100
laisten	-7101
▁säästä	-7102
▁erityis	-7103
▁puhelin	-7104
▁Guardian	-7105
▁Liikenne	-7106
▁Rovanieme	-7107
edel	-7108
omas	-7109
▁Bro	-7110
▁Hui	-7111
▁Mir	-7112
▁kyt	-7113
▁the	-7114
▁täs	-7115
eista	-7116
▁Tuli	-7117
▁viis	-7118
inaali	-7119
▁lunta	-7120
▁molemm	-7121
▁ansiosta	-7122
▁miehelle	-7123
▁pelaajan	-7124
▁kohteeksi	-7125
MA	-7126
ein	-7127
▁ark	-7128
kattu	-7129
kosta	-7130
▁Tunn	-7131
▁Vali	-7132
▁haku	-7133
▁juna	-7134
▁sovi	-7135
▁2019.	-7136
▁Andre	-7137
▁laaje	-7138
▁matta	-7139
▁viedä	-7140
joittaa	-7141
▁Bottas	-7142
▁jonkun	-7143
▁projek	-7144
▁korkein	-7145
▁Ukrainaa	-7146
▁musiikin	-7147
▁puoliväl	-7148
▁palestiin	-7149
▁riittävän	-7150
▁todettiin	-7151
▁vastaisena	-7152
uheenjohtaja	-7153
▁toiminnasta	-7154
rah	-7155
ric	-7156
vyt	-7157
▁FC	-7158
blad	-7159
moja	-7160
▁kiir	-7161
▁muus	-7162
teensä	-7163
▁Silti	-7164
▁näkyi	-7165
▁osoit	-7166
▁rahat	-7167
llisiin	-7168
▁lisätä	-7169
▁neiden	-7170
▁käydään	-7171
▁lähetys	-7172
▁nuoriso	-7173
▁luottamus	-7174
▁painottaa	-7175
▁yritysten	-7176
▁poliitikko	-7177
▁vankeuteen	-7178
▁työskennellyt	-7179
jäh	-7180
put	-7181
rat	-7182
▁ah	-7183
kaut	-7184
mmas	-7185
▁Hin	-7186
▁Los	-7187
▁Alan	-7188
▁Olet	-7189
▁Sauli	-7190
▁Uskon	-7191
▁avasi	-7192
▁huuto	-7193
▁kaupa	-7194
▁potil	-7195
▁selle	-7196
▁pieniä	-7197
▁putosi	-7198
▁syistä	-7199
▁millään	-7200
▁rakasta	-7201
▁tarjoaa	-7202
▁vanhemm	-7203
▁potentia	-7204
▁musiikkia	-7205
▁paikkansa	-7206
▁tekemistä	-7207
▁pääministerin	-7208
▁4,	-7209
▁Ab	-7210
konä	-7211
▁ili	-7212
kaisu	-7213
▁sinä	-7214
mmaksi	-7215
talous	-7216
▁Kiekko	-7217
▁kenttä	-7218
▁minkään	-7219
▁päiväko	-7220
ikoksesta	-7221
▁Sveitsin	-7222
▁seuraava	-7223
▁sunnuntai	-7224
▁Ensimmäinen	-7225
▁rakennuksen	-7226
mpana	-7227
▁Serg	-7228
▁roko	-7229
teinen	-7230
▁Expres	-7231
▁edusti	-7232
▁euroon	-7233
▁koneen	-7234
▁päästö	-7235
▁spekul	-7236
▁tunnus	-7237
▁Gazassa	-7238
▁haltuun	-7239
▁somessa	-7240
▁vetäyty	-7241
▁syytetty	-7242
▁tuomittu	-7243
▁järjestety	-7244
▁liikkeelle	-7245
▁tapahtumista	-7246
▁valtiovarain	-7247
▁järjestettiin	-7248
▁75	-7249
▁Meg	-7250
▁dro	-7251
intar	-7252
neitä	-7253
▁Grön	-7254
▁Kata	-7255
▁levi	-7256
▁teon	-7257
iemelä	-7258
▁paper	-7259
▁rahan	-7260
▁Kommen	-7261
▁hankal	-7262
▁heidät	-7263
▁kirkko	-7264
▁lämpim	-7265
▁myrsky	-7266
▁silmin	-7267
tuksista	-7268
▁Sebasti	-7269
▁sijalla	-7270
▁sivusto	-7271
▁Tapparan	-7272
▁alueelta	-7273
▁armeijan	-7274
▁jäljellä	-7275
▁rekister	-7276
▁mielestäni	-7277
▁oikeastaan	-7278
▁palveluiden	-7279
▁39	-7280
tias	-7281
uvon	-7282
▁Air	-7283
▁dig	-7284
▁Heis	-7285
▁lauk	-7286
hallin	-7287
▁hauta	-7288
▁seinä	-7289
▁sopii	-7290
▁talli	-7291
yydessä	-7292
▁kuulla	-7293
▁luonne	-7294
▁pystyi	-7295
▁samana	-7296
▁sattui	-7297
▁vanhan	-7298
▁Entinen	-7299
▁hyvältä	-7300
▁menetti	-7301
▁osoitti	-7302
▁otetaan	-7303
▁tiistai	-7304
llisuutta	-7305
▁ilmoittaa	-7306
kohtaisesti	-7307
ikir	-7308
▁peh	-7309
pyörä	-7310
▁Sekä	-7311
▁Sella	-7312
▁Sillä	-7313
▁eilen	-7314
▁eteni	-7315
▁kylmä	-7316
▁psyko	-7317
▁riitä	-7318
päivänä	-7319
▁vaalit	-7320
▁hävittä	-7321
▁dollarin	-7322
▁kesäkuun	-7323
▁henkilöitä	-7324
con	-7325
▁Za	-7326
▁jy	-7327
ting	-7328
vian	-7329
▁Don	-7330
▁Berg	-7331
▁akku	-7332
▁Jalka	-7333
▁Raken	-7334
▁nimet	-7335
▁tytön	-7336
▁ville	-7337
▁Juttua	-7338
▁toimet	-7339
▁valite	-7340
kunnalle	-7341
▁Koskela	-7342
▁kertoja	-7343
▁matkaan	-7344
▁tekivät	-7345
▁välissä	-7346
▁Suomelle	-7347
▁valmistu	-7348
▁selkeästi	-7349
hallituksen	-7350
py	-7351
mal	-7352
kola	-7353
▁30.	-7354
▁Hor	-7355
▁Raa	-7356
▁hau	-7357
uolto	-7358
yyteen	-7359
▁Henri	-7360
▁asuva	-7361
▁Täällä	-7362
▁lehden	-7363
▁linjan	-7364
▁Ainakin	-7365
▁Mestari	-7366
▁Sveitsi	-7367
▁menivät	-7368
▁puhelim	-7369
▁ilmaston	-7370
▁raportoi	-7371
▁vanhemmat	-7372
▁huhtikuuta	-7373
▁yllättävän	-7374
▁suunnitteli	-7375
yry	-7376
dell	-7377
▁17-	-7378
▁bio	-7379
▁far	-7380
▁sän	-7381
ikois	-7382
puoli	-7383
▁Samu	-7384
▁hark	-7385
▁matk	-7386
ikympp	-7387
laiset	-7388
▁tulle	-7389
▁Espoon	-7390
▁kiekon	-7391
▁osassa	-7392
▁muuttui	-7393
▁oireita	-7394
▁toteutu	-7395
▁Keskusta	-7396
▁Sanomien	-7397
▁Viranoma	-7398
▁toisensa	-7399
▁vieressä	-7400
▁Sh	-7401
▁ba	-7402
▁tto	-7403
▁Savo	-7404
▁kevy	-7405
▁suih	-7406
▁unel	-7407
▁Epäil	-7408
▁Joulu	-7409
▁Rikos	-7410
▁Seura	-7411
▁Totta	-7412
▁koken	-7413
▁mökki	-7414
▁räjäh	-7415
▁sauna	-7416
suojelu	-7417
▁uksessa	-7418
▁Virtanen	-7419
▁lehdelle	-7420
▁pitämään	-7421
▁tarvetta	-7422
▁Englannin	-7423
▁saaneensa	-7424
še	-7425
▁ag	-7426
misia	-7427
▁Pärmä	-7428
▁heiko	-7429
▁lajin	-7430
▁leviä	-7431
▁mahta	-7432
▁rasis	-7433
▁Haluan	-7434
▁muissa	-7435
▁Henkilö	-7436
▁pyritään	-7437
▁rikoksen	-7438
▁alkoholin	-7439
▁maailmancup	-7440
▁kr	-7441
pain	-7442
▁195	-7443
▁nur	-7444
▁näe	-7445
tetun	-7446
▁Rang	-7447
▁kuud	-7448
▁soit	-7449
▁katoa	-7450
▁purka	-7451
▁pöydä	-7452
▁tälle	-7453
▁johdon	-7454
▁kiisti	-7455
▁seikka	-7456
▁huumausa	-7457
▁koulussa	-7458
▁olleensa	-7459
▁ajankohta	-7460
▁edellisen	-7461
▁maahanmuut	-7462
95	-7463
rab	-7464
▁Reh	-7465
▁tör	-7466
ltaan	-7467
nanen	-7468
▁Raja	-7469
▁rehe	-7470
▁tais	-7471
▁väsy	-7472
▁Selän	-7473
▁komis	-7474
▁llaan	-7475
ilainen	-7476
▁Barkov	-7477
▁peliin	-7478
▁pelkää	-7479
alaisiin	-7480
▁Vornanen	-7481
▁Näyttelijä	-7482
▁lentokentä	-7483
▁päävalmenta	-7484
▁mahdollisuutta	-7485
▁Wil	-7486
sille	-7487
utumis	-7488
chester	-7489
▁isista	-7490
▁konflik	-7491
▁pahasti	-7492
▁tasolle	-7493
▁ilmeisesti	-7494
▁ulkopuolelle	-7495
▁Ju	-7496
▁194	-7497
kausi	-7498
tuomi	-7499
▁asuin	-7500
▁jutun	-7501
▁reiss	-7502
▁rohke	-7503
ikkojen	-7504
▁Britti	-7505
▁parhaa	-7506
▁reagoi	-7507
▁vaihta	-7508
▁tulipal	-7509
▁herättää	-7510
▁monipuol	-7511
▁muitakin	-7512
▁oikeutta	-7513
▁opettaja	-7514
▁suljettu	-7515
▁päätöksiä	-7516
▁kysymyksiä	-7517
omo	-7518
gren	-7519
ilas	-7520
uusu	-7521
▁Ris	-7522
▁Tas	-7523
hojen	-7524
▁hylä	-7525
▁kivi	-7526
▁raju	-7527
kaista	-7528
ksille	-7529
prosen	-7530
▁Kuopi	-7531
▁eläke	-7532
▁iskun	-7533
▁kaveri	-7534
▁proses	-7535
oikeuden	-7536
▁Finland	-7537
▁mennään	-7538
▁varhain	-7539
▁yksikkö	-7540
▁menestys	-7541
▁pienempi	-7542
▁naimisiin	-7543
▁tiedottaja	-7544
▁Erityisesti	-7545
▁suunnitelma	-7546
▁12-	-7547
▁Huo	-7548
▁Juk	-7549
▁str	-7550
manin	-7551
timme	-7552
▁opin	-7553
▁väle	-7554
estäni	-7555
jetaan	-7556
▁Jesse	-7557
▁Toivo	-7558
▁areen	-7559
▁laski	-7560
▁Montre	-7561
▁Ranska	-7562
▁kärsin	-7563
▁luokan	-7564
▁työssä	-7565
▁todiste	-7566
▁pitkälti	-7567
▁puolelta	-7568
▁toteutta	-7569
▁katsomaan	-7570
▁Presidentin	-7571
▁puolivälissä	-7572
▁suomalaisista	-7573
▁puheenjohtajan	-7574
th	-7575
aren	-7576
ivar	-7577
kisa	-7578
udan	-7579
▁Teo	-7580
kisat	-7581
▁Hovi	-7582
▁Kysy	-7583
▁avun	-7584
▁deby	-7585
▁sain	-7586
impien	-7587
▁2020.	-7588
▁Loppu	-7589
▁Olisi	-7590
▁Pitää	-7591
▁johdo	-7592
▁käsin	-7593
▁Meghan	-7594
▁valita	-7595
▁Florida	-7596
▁autolla	-7597
▁menossa	-7598
▁tuomari	-7599
▁välierä	-7600
▁kanssaan	-7601
▁kokemusta	-7602
▁perustusla	-7603
▁meteorologi	-7604
▁Ry	-7605
salo	-7606
ssia	-7607
ööri	-7608
malta	-7609
vonen	-7610
▁Joon	-7611
▁aiemm	-7612
▁pyöri	-7613
▁uskoa	-7614
▁kutsui	-7615
▁maasta	-7616
edustaja	-7617
▁huomasi	-7618
▁kysyttiin	-7619
▁miljardin	-7620
▁kuukaudessa	-7621
▁olympialaisten	-7622
▁Do	-7623
▁We	-7624
etys	-7625
▁Ser	-7626
▁Teh	-7627
mpään	-7628
▁hedel	-7629
▁nimeä	-7630
istänyt	-7631
▁vaihtaa	-7632
opimuksen	-7633
▁kuulunut	-7634
▁miehistö	-7635
▁prosessi	-7636
▁aloittanut	-7637
▁helmikuuta	-7638
▁Suomalainen	-7639
ulan	-7640
▁jar	-7641
▁mpi	-7642
hdoin	-7643
paine	-7644
uneen	-7645
vuori	-7646
▁News	-7647
▁Inter	-7648
▁Jukur	-7649
▁avaja	-7650
▁koste	-7651
▁selke	-7652
▁Helena	-7653
▁Patrik	-7654
▁haluan	-7655
▁kriisi	-7656
▁satoja	-7657
urheilun	-7658
▁Sanomat	-7659
▁nappasi	-7660
▁havaittu	-7661
▁nykyisin	-7662
▁ehdokkaan	-7663
▁Manchester	-7664
▁marraskuun	-7665
▁seuraavaksi	-7666
▁voimakkaasti	-7667
keni	-7668
tina	-7669
▁Jer	-7670
▁Puu	-7671
▁Suz	-7672
asema	-7673
kosen	-7674
murha	-7675
telyä	-7676
▁seko	-7677
▁Afton	-7678
▁kysyy	-7679
▁monin	-7680
▁väärä	-7681
▁Colora	-7682
▁Valtio	-7683
▁juonta	-7684
▁kuolle	-7685
▁linjaa	-7686
▁llisen	-7687
▁turvaa	-7688
lliseksi	-7689
▁ongelmat	-7690
▁oppositi	-7691
▁voisivat	-7692
▁ottamatta	-7693
▁tiedustelu	-7694
▁mys	-7695
annin	-7696
mitta	-7697
▁laje	-7698
ttinen	-7699
▁Murto	-7700
▁Pelic	-7701
▁varti	-7702
▁Miehen	-7703
▁Portug	-7704
▁Toyota	-7705
▁ajassa	-7706
▁ulkonä	-7707
hallitus	-7708
▁Tanskan	-7709
▁miselle	-7710
hyökkääjä	-7711
teellisen	-7712
▁Leijonat	-7713
▁asioiden	-7714
▁liigassa	-7715
▁liittyvä	-7716
▁miljoona	-7717
▁republikaanien	-7718
La	-7719
ajo	-7720
käs	-7721
lyö	-7722
kula	-7723
▁iku	-7724
▁riv	-7725
ketta	-7726
yhtiön	-7727
▁Käytä	-7728
▁alkan	-7729
▁esity	-7730
▁jälke	-7731
▁lleen	-7732
udutaan	-7733
▁Niiden	-7734
▁Puolan	-7735
▁Libanon	-7736
▁vauhtia	-7737
▁viettää	-7738
▁käytettä	-7739
▁pisteitä	-7740
▁palautetta	-7741
▁maaliskuuta	-7742
▁Käräjäoikeus	-7743
▁tarkoituksena	-7744
▁varapresidentti	-7745
▁Mia	-7746
▁Pas	-7747
gissa	-7748
▁Kemi	-7749
▁mien	-7750
▁sten	-7751
▁Tapio	-7752
▁katto	-7753
▁staan	-7754
▁Joskus	-7755
▁avusta	-7756
▁hienoa	-7757
▁samoin	-7758
▁sodassa	-7759
▁tilalle	-7760
▁aiheesta	-7761
▁jokaisen	-7762
▁leikkaus	-7763
▁parantaa	-7764
▁roolissa	-7765
▁Haaviston	-7766
▁Markkanen	-7767
▁seuraavana	-7768
▁poliittinen	-7769
▁mielenkiinto	-7770
ze	-7771
▁€	-7772
car	-7773
elo	-7774
gle	-7775
▁34	-7776
reet	-7777
unsa	-7778
▁Kai	-7779
▁Pih	-7780
▁Tiet	-7781
▁mana	-7782
llasta	-7783
ointia	-7784
▁Kimmo	-7785
▁jakso	-7786
▁tarve	-7787
▁tehot	-7788
▁tunti	-7789
▁kannat	-7790
▁luotto	-7791
▁vienti	-7792
▁tilassa	-7793
▁joukkoja	-7794
▁kaudeksi	-7795
▁muutosta	-7796
▁osittain	-7797
▁tammikuuta	-7798
▁riittävästi	-7799
▁tilanteissa	-7800
hia	-7801
keri	-7802
lian	-7803
lisä	-7804
sani	-7805
▁700	-7806
▁hehk	-7807
▁pito	-7808
teilla	-7809
▁Georg	-7810
▁Niitä	-7811
▁itära	-7812
▁heitti	-7813
▁kaista	-7814
▁kunnon	-7815
▁herättä	-7816
▁levittä	-7817
▁myöhään	-7818
▁valitse	-7819
▁vastaus	-7820
▁sisältää	-7821
▁käyttänyt	-7822
▁tarkoitta	-7823
ion	-7824
▁Lö	-7825
ikop	-7826
▁Sun	-7827
imiel	-7828
soona	-7829
tessä	-7830
▁2014	-7831
▁Ajat	-7832
▁Kain	-7833
▁West	-7834
osissa	-7835
▁David	-7836
▁tyypp	-7837
▁vatsa	-7838
▁Kristi	-7839
▁ketään	-7840
▁lukuun	-7841
▁maissa	-7842
▁Etenkin	-7843
▁kadulla	-7844
▁kahteen	-7845
▁kunnian	-7846
▁omakoti	-7847
▁talossa	-7848
▁perustuu	-7849
▁viestejä	-7850
▁liiketoim	-7851
▁päättänyt	-7852
▁julkaistiin	-7853
▁käräjäoikeuden	-7854
kele	-7855
▁Rei	-7856
▁Huom	-7857
▁Sata	-7858
▁Tall	-7859
▁työt	-7860
▁veti	-7861
diossa	-7862
▁Media	-7863
▁alkua	-7864
▁aseen	-7865
▁kaava	-7866
▁ohjus	-7867
▁reilu	-7868
▁sanat	-7869
▁Pirkan	-7870
▁miehiä	-7871
▁edustaa	-7872
▁parhaat	-7873
▁uksella	-7874
▁käyttäjä	-7875
▁ylläpitä	-7876
▁hallituks	-7877
▁Olympiakomite	-7878
ms	-7879
itu	-7880
mok	-7881
▁Au	-7882
alit	-7883
kesi	-7884
▁Aja	-7885
▁Kot	-7886
▁Män	-7887
ineet	-7888
jalle	-7889
koulu	-7890
pelin	-7891
▁Pian	-7892
▁pime	-7893
▁tytö	-7894
kkaita	-7895
llessa	-7896
tekijä	-7897
▁2000-	-7898
▁Kouvo	-7899
▁Perhe	-7900
▁Päivi	-7901
▁hetke	-7902
▁myymä	-7903
uontaja	-7904
▁hyppää	-7905
▁pysäkö	-7906
▁tuonut	-7907
ettävästi	-7908
▁Saarinen	-7909
▁saapunut	-7910
▁Reutersin	-7911
▁naurahtaa	-7912
▁yllätyksen	-7913
teo	-7914
chen	-7915
mmun	-7916
▁RKP	-7917
tille	-7918
▁Kats	-7919
▁kaiv	-7920
▁kynn	-7921
▁tyyl	-7922
ikohta	-7923
▁piiri	-7924
huollon	-7925
▁Samaan	-7926
▁alalla	-7927
▁auring	-7928
▁johtuu	-7929
▁joukot	-7930
▁numero	-7931
▁palata	-7932
▁Unkarin	-7933
▁maailma	-7934
▁onneksi	-7935
▁varhais	-7936
▁kaikilla	-7937
▁Henriksson	-7938
▁vanhempien	-7939
mos	-7940
enna	-7941
▁ryt	-7942
estin	-7943
tanen	-7944
▁into	-7945
▁kyyd	-7946
▁medi	-7947
▁paha	-7948
▁syty	-7949
▁Radio	-7950
▁lintu	-7951
▁rajaa	-7952
▁ranna	-7953
▁sekin	-7954
▁tauko	-7955
▁määrin	-7956
▁tukiko	-7957
▁senttiä	-7958
▁Kaarinan	-7959
▁Neuvosto	-7960
▁Nieminen	-7961
▁videoita	-7962
▁tiedetään	-7963
att	-7964
ott	-7965
mpan	-7966
lleni	-7967
telty	-7968
▁Sari	-7969
hdessa	-7970
▁Petri	-7971
▁Tommi	-7972
▁fanit	-7973
▁kassa	-7974
▁sakko	-7975
kumppan	-7976
▁Lahden	-7977
▁joille	-7978
▁koulua	-7979
▁saapuu	-7980
▁Forecan	-7981
▁hyökkäy	-7982
▁kuntien	-7983
▁kaikissa	-7984
▁pääsevät	-7985
▁välisenä	-7986
▁tapahtumat	-7987
▁vaikuttanut	-7988
▁pelastuslaitos	-7989
gy	-7990
gor	-7991
pät	-7992
▁Wh	-7993
kian	-7994
▁26.	-7995
▁Jus	-7996
▁Rau	-7997
innut	-7998
nissa	-7999
▁kipu	-8000
▁Hannu	-8001
▁katse	-8002
▁mieti	-8003
▁syynä	-8004
▁tiede	-8005
utuneet	-8006
▁Hiihto	-8007
▁jakson	-8008
▁sisäll	-8009
▁Tilasto	-8010
▁tullaan	-8011
▁uudella	-8012
▁Veikkaus	-8013
▁julkisen	-8014
▁merkkejä	-8015
▁vähentää	-8016
▁havaintoja	-8017
pro	-8018
▁Sä	-8019
▁bo	-8020
mbul	-8021
▁Gro	-8022
▁Kio	-8023
▁pop	-8024
▁tyl	-8025
innon	-8026
telmä	-8027
▁osti	-8028
▁Laula	-8029
▁Marja	-8030
▁Peter	-8031
▁Päivä	-8032
▁arvel	-8033
▁mässä	-8034
▁Markus	-8035
▁etenee	-8036
▁laskee	-8037
▁pientä	-8038
▁valoku	-8039
▁uutisia	-8040
▁finaaliin	-8041
▁Perjantaina	-8042
▁ensimmäiset	-8043
▁prosenttiin	-8044
▁parhaimmillaan	-8045
▁Py	-8046
iman	-8047
näki	-8048
udin	-8049
kinta	-8050
tolla	-8051
umach	-8052
▁Amer	-8053
▁Korh	-8054
jöiden	-8055
riassa	-8056
▁Tältä	-8057
▁palkan	-8058
▁työhön	-8059
▁Mikkola	-8060
▁Schumach	-8061
▁nykyisen	-8062
▁Syyttäjän	-8063
▁Sunnuntaina	-8064
▁selvityksen	-8065
▁suunniteltu	-8066
rn	-8067
uva	-8068
taar	-8069
▁Hau	-8070
▁Net	-8071
telli	-8072
▁2015	-8073
▁Topi	-8074
▁luom	-8075
▁lääk	-8076
▁Pelto	-8077
▁Turva	-8078
▁hyödy	-8079
▁jolle	-8080
▁jonne	-8081
▁jälki	-8082
▁valvo	-8083
merellä	-8084
▁alaikä	-8085
▁reitti	-8086
▁allekir	-8087
▁autosta	-8088
▁henkilöt	-8089
▁muutamia	-8090
▁taisteli	-8091
▁Tällainen	-8092
▁järjestön	-8093
▁käsittele	-8094
▁ohjelmaan	-8095
▁järjestely	-8096
▁valiokunnan	-8097
kesk	-8098
ling	-8099
▁Kau	-8100
▁Ven	-8101
▁dip	-8102
▁vii	-8103
kasti	-8104
▁sall	-8105
▁tahd	-8106
kselta	-8107
kuntaa	-8108
teihin	-8109
▁2018.	-8110
▁etten	-8111
▁jalan	-8112
▁kauni	-8113
utuksen	-8114
▁tarken	-8115
voittaja	-8116
▁vietiin	-8117
▁Facebook	-8118
▁Helenius	-8119
▁jatkuvat	-8120
▁kuluttua	-8121
▁neuvosto	-8122
▁paidassa	-8123
▁Sebastian	-8124
▁aikataulu	-8125
▁ulkomailla	-8126
▁haastattele	-8127
▁tilaisuudessa	-8128
▁nö	-8129
mian	-8130
reff	-8131
▁30-	-8132
▁Lar	-8133
▁upe	-8134
enssi	-8135
kaise	-8136
▁väri	-8137
▁Nokia	-8138
▁toipu	-8139
▁epäily	-8140
▁Harkimo	-8141
▁lähelle	-8142
▁olevien	-8143
▁syntymä	-8144
▁kerralla	-8145
▁rikosilm	-8146
▁yhteinen	-8147
▁todellinen	-8148
▁vaikutusta	-8149
▁Pelastuslaitos	-8150
rov	-8151
vaih	-8152
▁aut	-8153
pissa	-8154
▁Rich	-8155
▁aivo	-8156
▁brän	-8157
▁ineen	-8158
▁kovan	-8159
▁sadan	-8160
▁tarpe	-8161
▁tukee	-8162
ottelun	-8163
▁Joonas	-8164
▁Viikon	-8165
▁heittä	-8166
▁pärjää	-8167
▁äänesti	-8168
▁huonosti	-8169
▁toukokuun	-8170
▁valitetta	-8171
▁vihreiden	-8172
▁viimeiset	-8173
▁tavallista	-8174
▁turnauksen	-8175
ehd	-8176
▁Et	-8177
hotos	-8178
keino	-8179
kella	-8180
nasta	-8181
▁mäen	-8182
mmalle	-8183
mokraa	-8184
vaalit	-8185
▁Liike	-8186
▁murha	-8187
▁selkä	-8188
▁Varhan	-8189
▁edestä	-8190
▁iltana	-8191
▁joulun	-8192
▁nopeus	-8193
▁suojaa	-8194
▁tulleet	-8195
▁yllätti	-8196
▁Pelicans	-8197
▁toisiaan	-8198
▁päätökseen	-8199
▁prosenttiyks	-8200
TK	-8201
vih	-8202
itsa	-8203
kisi	-8204
▁Pri	-8205
▁Ton	-8206
▁haj	-8207
▁kih	-8208
▁naa	-8209
▁Miss	-8210
▁Musi	-8211
▁Sala	-8212
▁eden	-8213
▁pohd	-8214
rainen	-8215
▁Slova	-8216
▁ampui	-8217
▁katta	-8218
▁lentä	-8219
▁jäävät	-8220
llisessa	-8221
▁Jokinen	-8222
▁Loimaan	-8223
▁harvina	-8224
▁rikosta	-8225
▁ajatella	-8226
▁jättänyt	-8227
▁tunnelma	-8228
▁vuodeksi	-8229
▁kielletty	-8230
▁ollenkaan	-8231
▁vastustaja	-8232
▁työntekijät	-8233
rea	-8234
uho	-8235
uno	-8236
▁32	-8237
▁5,	-8238
kalu	-8239
▁Sha	-8240
iläis	-8241
ttinä	-8242
▁Hämä	-8243
▁Kemp	-8244
▁aito	-8245
▁kehu	-8246
▁kera	-8247
▁kove	-8248
kymmen	-8249
mainen	-8250
▁maala	-8251
▁tyhjä	-8252
▁vaate	-8253
▁Olympi	-8254
▁olevia	-8255
▁syntyy	-8256
▁kovasti	-8257
▁kruunun	-8258
▁seurata	-8259
▁vihdoin	-8260
▁merkitys	-8261
▁vakuutus	-8262
▁mihinkään	-8263
▁parlamentti	-8264
▁kommentoinut	-8265
▁onnettomuuden	-8266
▁yhdysvaltalais	-8267
cia	-8268
lay	-8269
▁fir	-8270
▁hum	-8271
▁rie	-8272
▁sad	-8273
▁Arto	-8274
▁isin	-8275
▁vire	-8276
altaan	-8277
▁Heinä	-8278
▁huija	-8279
▁monim	-8280
▁hirveä	-8281
▁opetus	-8282
▁sanoin	-8283
▁suurim	-8284
▁tyhjen	-8285
▁uusien	-8286
▁Epäilty	-8287
▁Ihmiset	-8288
▁aluetta	-8289
▁huomion	-8290
▁iloinen	-8291
▁arvioida	-8292
▁elokuvan	-8293
▁erikseen	-8294
▁syyskuun	-8295
▁historiaa	-8296
▁näyttävät	-8297
▁syyllisty	-8298
▁Puljujärvi	-8299
hko	-8300
▁44	-8301
heim	-8302
iori	-8303
immin	-8304
▁pyyh	-8305
▁reis	-8306
▁Balti	-8307
▁Paavo	-8308
▁Ruoka	-8309
▁ainut	-8310
▁kovia	-8311
▁kunna	-8312
▁kuuli	-8313
▁paine	-8314
▁roman	-8315
ytyksen	-8316
▁doping	-8317
▁kuolin	-8318
▁murhan	-8319
johtajan	-8320
▁Joukkue	-8321
Sanomille	-8322
ityksellä	-8323
▁työnanta	-8324
▁sittemmin	-8325
▁päivittäin	-8326
▁sijaitseva	-8327
▁parlamentin	-8328
▁lähetyksessä	-8329
15	-8330
dia	-8331
roa	-8332
koon	-8333
opar	-8334
▁29.	-8335
▁Bla	-8336
▁Rat	-8337
▁sav	-8338
▁Holl	-8339
▁suhd	-8340
ittely	-8341
tonaan	-8342
▁Arttu	-8343
▁pyynn	-8344
kuntaan	-8345
▁Tiedot	-8346
▁alkuun	-8347
▁jatkui	-8348
▁kuussa	-8349
▁neljäs	-8350
▁nuoren	-8351
▁ulkona	-8352
▁välier	-8353
moottori	-8354
▁menevät	-8355
▁tiennyt	-8356
uudessaan	-8357
▁esitteli	-8358
▁Expressen	-8359
▁esimerkki	-8360
▁maanantai	-8361
▁henkilöauto	-8362
▁mahdollisuuden	-8363
▁57	-8364
idän	-8365
osan	-8366
▁bis	-8367
▁Volo	-8368
anneet	-8369
▁1990-	-8370
▁laulu	-8371
▁luvat	-8372
▁sataa	-8373
▁summa	-8374
dennäkö	-8375
▁iselta	-8376
▁kokous	-8377
▁mainos	-8378
▁tavara	-8379
▁hevonen	-8380
▁täyttää	-8381
▁äänistä	-8382
▁torstain	-8383
▁useamman	-8384
▁ottelusta	-8385
▁yllättävä	-8386
▁Lauantaina	-8387
▁järjestetty	-8388
MK	-8389
Sa	-8390
cen	-8391
dor	-8392
kevä	-8393
kise	-8394
▁Bay	-8395
▁Chi	-8396
▁Far	-8397
▁Keh	-8398
▁tus	-8399
aleja	-8400
jamin	-8401
malli	-8402
sista	-8403
▁Kunn	-8404
▁elta	-8405
▁tein	-8406
▁tera	-8407
▁Äiti	-8408
▁Pikku	-8409
▁osana	-8410
▁sanon	-8411
▁syyte	-8412
▁ääniä	-8413
▁ääntä	-8414
istunut	-8415
▁Kataja	-8416
▁asumis	-8417
▁kävely	-8418
▁täältä	-8419
▁viiväs	-8420
▁väline	-8421
tilainen	-8422
▁kuuluva	-8423
▁liittyi	-8424
▁stadion	-8425
▁kerännyt	-8426
▁suosittu	-8427
▁katsotaan	-8428
▁perheensä	-8429
▁Helsinkiin	-8430
▁Verstappen	-8431
▁rakennettu	-8432
▁väkivaltaa	-8433
▁julkaisussa	-8434
tuva	-8435
veto	-8436
▁Ase	-8437
kkejä	-8438
tystä	-8439
▁Heik	-8440
▁Jere	-8441
▁Pres	-8442
▁avan	-8443
▁miet	-8444
▁raiv	-8445
alista	-8446
ostaan	-8447
▁Robin	-8448
▁iloit	-8449
▁raaka	-8450
▁avioli	-8451
▁käänty	-8452
▁institu	-8453
▁jostain	-8454
▁kulutus	-8455
▁useiden	-8456
▁Benjamin	-8457
▁julkaisu	-8458
▁kahdessa	-8459
▁noudatta	-8460
tettavissa	-8461
▁Eduskunta	-8462
▁perusteli	-8463
com	-8464
eld	-8465
eta	-8466
fan	-8467
▁33	-8468
▁MV	-8469
Venä	-8470
lerc	-8471
usia	-8472
▁Aar	-8473
dossa	-8474
▁Toni	-8475
omista	-8476
tellen	-8477
▁Koulu	-8478
▁hirve	-8479
▁kadun	-8480
▁vaadi	-8481
▁Kärpät	-8482
▁Mielen	-8483
▁järven	-8484
▁Latvala	-8485
▁Lauanta	-8486
▁ennalta	-8487
▁häneltä	-8488
▁kaukana	-8489
▁asianaja	-8490
▁tunnusta	-8491
▁epäiltynä	-8492
▁ihmisille	-8493
▁mitenkään	-8494
▁itsenäisyys	-8495
▁mahdollisuudet	-8496
dr	-8497
dun	-8498
hdu	-8499
tiö	-8500
yhd	-8501
yne	-8502
dows	-8503
rori	-8504
truk	-8505
▁16-	-8506
▁Amm	-8507
▁tyk	-8508
kkien	-8509
mystä	-8510
talia	-8511
▁Anni	-8512
▁Carl	-8513
▁Tayl	-8514
muksia	-8515
▁Elisa	-8516
▁innos	-8517
▁miltä	-8518
▁palat	-8519
▁pommi	-8520
▁viile	-8521
▁Tanssi	-8522
▁analys	-8523
▁ilmaan	-8524
▁vuodet	-8525
gressiiv	-8526
▁Käytänn	-8527
▁johtava	-8528
▁korosti	-8529
▁tarpeen	-8530
▁uudelle	-8531
▁kohteena	-8532
▁muodosta	-8533
▁poliisia	-8534
▁syyttäjä	-8535
▁tiistain	-8536
▁Mestarien	-8537
▁varoittaa	-8538
▁minuutilla	-8539
lun	-8540
moi	-8541
nön	-8542
▁Uta	-8543
▁von	-8544
▁äly	-8545
otkut	-8546
▁Eikä	-8547
▁Erik	-8548
koneen	-8549
teluun	-8550
veyden	-8551
vyyttä	-8552
▁Finna	-8553
▁Kääri	-8554
▁Toista	-8555
▁hankki	-8556
▁kolleg	-8557
▁maista	-8558
▁helikop	-8559
▁leikkaa	-8560
▁näkynyt	-8561
▁yhdellä	-8562
▁Häkkänen	-8563
▁alueiden	-8564
▁budjetti	-8565
▁hyvinkin	-8566
▁normaali	-8567
keskukseen	-8568
▁sukupuoli	-8569
▁vastannut	-8570
▁keskustelun	-8571
▁tapahtuneen	-8572
▁Rovaniemellä	-8573
PK	-8574
ney	-8575
▁7-	-8576
arit	-8577
oper	-8578
▁Con	-8579
▁Kap	-8580
▁NBA	-8581
▁Opp	-8582
▁häv	-8583
opuol	-8584
tetyn	-8585
▁eron	-8586
▁veri	-8587
▁vika	-8588
▁yltä	-8589
voiman	-8590
vuutta	-8591
▁Kilpa	-8592
▁Kirja	-8593
▁Minun	-8594
▁Netan	-8595
▁Seinä	-8596
▁bussi	-8597
▁istuu	-8598
▁tiedo	-8599
▁Kerttu	-8600
▁sotaan	-8601
▁Ottelun	-8602
▁elokuun	-8603
oparlamen	-8604
▁artikkel	-8605
▁julkista	-8606
▁kahdella	-8607
▁kotonaan	-8608
▁osavalti	-8609
▁ylimäärä	-8610
▁erilainen	-8611
▁oppositio	-8612
▁yrittänyt	-8613
▁löydettiin	-8614
▁työskenteli	-8615
▁kustannukset	-8616
▁puheenjohtajana	-8617
st	-8618
▁AC	-8619
ivän	-8620
rata	-8621
vaus	-8622
▁ärs	-8623
isija	-8624
kensa	-8625
▁luot	-8626
▁kisat	-8627
▁kysyn	-8628
▁syytö	-8629
▁versi	-8630
isyyttä	-8631
▁suostu	-8632
▁valtaa	-8633
aikainen	-8634
▁Syyrian	-8635
▁helppoa	-8636
▁raskaan	-8637
▁tettiin	-8638
▁tutustu	-8639
▁kasvatta	-8640
▁kumppani	-8641
▁löytänyt	-8642
▁sijoitta	-8643
▁suurimman	-8644
▁Onnettomuus	-8645
▁jalkapallon	-8646
Amer	-8647
iltu	-8648
ppaa	-8649
▁bus	-8650
▁rup	-8651
tetut	-8652
turna	-8653
▁Vesa	-8654
▁juus	-8655
kanava	-8656
luokan	-8657
▁ikävä	-8658
▁kehuu	-8659
▁ketju	-8660
▁nolla	-8661
▁polku	-8662
▁sillo	-8663
▁vastu	-8664
▁kisaan	-8665
▁mallin	-8666
▁reilun	-8667
▁työstä	-8668
▁kaksois	-8669
▁Floridan	-8670
▁aikataul	-8671
▁seudulla	-8672
▁toiminnassa	-8673
▁tarvittaessa	-8674
▁ch	-8675
▁kg	-8676
▁oy	-8677
▁25.	-8678
▁Bil	-8679
aisin	-8680
▁osuu	-8681
▁peru	-8682
opiste	-8683
▁Risto	-8684
▁Suunn	-8685
▁purje	-8686
▁silta	-8687
istusta	-8688
▁Lehden	-8689
▁Viesti	-8690
▁Ylelle	-8691
▁aamupä	-8692
▁diagno	-8693
▁Nykyään	-8694
▁laisten	-8695
▁ollessa	-8696
▁pakotte	-8697
▁torstai	-8698
▁aikoihin	-8699
▁annetaan	-8700
▁varoitus	-8701
▁Lehtikuva	-8702
▁kokouksen	-8703
▁lähteiden	-8704
▁mielipide	-8705
▁perustelee	-8706
▁kuljettajan	-8707
▁politiikkaa	-8708
▁organisaatio	-8709
cel	-8710
▁Sc	-8711
▁at	-8712
▁28.	-8713
▁Puo	-8714
torin	-8715
▁2026	-8716
▁Eero	-8717
▁Musk	-8718
▁pron	-8719
gatiiv	-8720
joilla	-8721
toksen	-8722
▁Ilkka	-8723
▁Rinne	-8724
▁hankk	-8725
▁kaasu	-8726
▁mällä	-8727
▁tappa	-8728
▁lausun	-8729
▁niillä	-8730
▁raiska	-8731
▁vietti	-8732
▁Kremlin	-8733
▁Lounais	-8734
▁jäsenet	-8735
▁sekunnin	-8736
▁tuloksia	-8737
▁vaaranta	-8738
▁parhaiten	-8739
▁poliittis	-8740
▁varmistaa	-8741
▁Ruotsalais	-8742
▁viimeistään	-8743
▁vaihtoehtoja	-8744
Kor	-8745
cke	-8746
ets	-8747
▁9,	-8748
daar	-8749
mula	-8750
umer	-8751
▁All	-8752
▁Myy	-8753
▁Ruu	-8754
▁sek	-8755
annes	-8756
hamin	-8757
nista	-8758
raken	-8759
relle	-8760
▁Hein	-8761
▁fani	-8762
▁sula	-8763
bergin	-8764
▁Sport	-8765
▁autot	-8766
▁hanke	-8767
▁kelpo	-8768
▁lakia	-8769
▁neliö	-8770
▁ruoan	-8771
▁toive	-8772
▁mallia	-8773
▁soitta	-8774
▁versio	-8775
▁Laineen	-8776
▁valmenn	-8777
▁asioihin	-8778
▁tehtävän	-8779
▁palveluita	-8780
▁teollisuus	-8781
▁jatkossakin	-8782
▁pudotuspele	-8783
▁49	-8784
▁56	-8785
asan	-8786
mpin	-8787
tilo	-8788
aissa	-8789
kunsa	-8790
nessa	-8791
perin	-8792
▁Hall	-8793
▁Kinn	-8794
▁jäte	-8795
▁kala	-8796
hoidon	-8797
▁Häntä	-8798
▁Kuten	-8799
▁Neljä	-8800
▁lapse	-8801
▁radan	-8802
▁hinnan	-8803
▁kentän	-8804
▁niille	-8805
▁Kanerva	-8806
▁Netanja	-8807
▁autossa	-8808
▁Eurooppa	-8809
▁johtanut	-8810
▁nykyistä	-8811
▁valtavan	-8812
▁kuolemaan	-8813
▁kommentteja	-8814
▁pariskunnan	-8815
▁viikonloppu	-8816
tt	-8817
Kar	-8818
ikaa	-8819
kate	-8820
▁Hus	-8821
▁Tše	-8822
▁War	-8823
▁sup	-8824
tinsa	-8825
ttien	-8826
▁Emil	-8827
▁Sama	-8828
▁muse	-8829
▁Kokon	-8830
▁Vapaa	-8831
▁ambul	-8832
▁malti	-8833
▁perun	-8834
▁renka	-8835
▁yöllä	-8836
▁Hyunda	-8837
▁Volody	-8838
▁alijää	-8839
▁hoitoa	-8840
▁ilmais	-8841
▁metsäs	-8842
▁palkki	-8843
▁syttyi	-8844
▁takais	-8845
▁Kalevan	-8846
▁alueita	-8847
▁hyvässä	-8848
▁kaikkein	-8849
▁Tiistaina	-8850
▁aikoinaan	-8851
▁Hizbollahin	-8852
▁oikeudenkäynn	-8853
8,	-8854
TP	-8855
▁7,	-8856
▁LP	-8857
unas	-8858
▁koo	-8859
▁pei	-8860
ileva	-8861
vaihe	-8862
▁Brys	-8863
▁Heli	-8864
▁Tour	-8865
▁temp	-8866
▁myönn	-8867
▁putoa	-8868
▁tilat	-8869
▁toteu	-8870
toimaan	-8871
▁Juhani	-8872
▁Kallio	-8873
▁autoon	-8874
▁odotti	-8875
▁pelejä	-8876
▁Suzanne	-8877
▁kongres	-8878
▁miettii	-8879
▁turisti	-8880
▁operaati	-8881
▁rauhassa	-8882
▁seurassa	-8883
▁tapahtua	-8884
▁valtuusto	-8885
▁tyttärensä	-8886
▁ilmastonmuu	-8887
▁venäläisten	-8888
▁osallistunut	-8889
▁työntekijöitä	-8890
▁maailmanmestar	-8891
himo	-8892
rand	-8893
sila	-8894
ttua	-8895
▁24.	-8896
▁keih	-8897
▁meno	-8898
▁Areen	-8899
▁Edmon	-8900
▁Jorma	-8901
▁Juuri	-8902
▁Lonto	-8903
▁haave	-8904
▁miell	-8905
▁Jotkut	-8906
▁Turkin	-8907
▁loppua	-8908
▁päiviä	-8909
kisoihin	-8910
▁Stanley	-8911
▁Windows	-8912
▁harvoin	-8913
▁liikkuu	-8914
▁lopuksi	-8915
▁juhlissa	-8916
▁kimppuun	-8917
▁lokakuun	-8918
▁perjanta	-8919
▁ravintol	-8920
▁teatteri	-8921
▁tiloissa	-8922
▁Volodymyr	-8923
▁puheenvuo	-8924
▁vastaavan	-8925
▁käyttämään	-8926
▁yleisradio	-8927
▁mestaruutta	-8928
▁ehdottomasti	-8929
cks	-8930
eth	-8931
ihi	-8932
▁pl	-8933
keaa	-8934
▁Loh	-8935
▁Ylä	-8936
▁jän	-8937
▁lum	-8938
▁tau	-8939
kästi	-8940
▁Mieh	-8941
▁uhre	-8942
▁Lähde	-8943
▁Milla	-8944
▁oliko	-8945
▁syrjä	-8946
▁Oliver	-8947
▁kaatoi	-8948
▁katson	-8949
▁mietin	-8950
▁paikat	-8951
▁riskiä	-8952
▁karsinta	-8953
▁syytteet	-8954
▁tunnissa	-8955
valmentaja	-8956
▁yritykset	-8957
▁kysymykseen	-8958
▁ukrainalais	-8959
▁oikeudenkäynti	-8960
bur	-8961
teä	-8962
▁IL	-8963
dien	-8964
idan	-8965
▁Esa	-8966
▁Oil	-8967
▁Ryd	-8968
▁She	-8969
▁Mich	-8970
▁pani	-8971
▁unoh	-8972
televa	-8973
vointi	-8974
▁juoma	-8975
▁kirje	-8976
▁koron	-8977
▁kuski	-8978
▁Kauppa	-8979
▁iskuja	-8980
▁maksan	-8981
▁neuvon	-8982
▁ottivat	-8983
▁uutinen	-8984
▁Kaksikko	-8985
▁Paikalla	-8986
▁liikkeen	-8987
▁palannut	-8988
▁urheilun	-8989
▁yhdistys	-8990
▁edustalla	-8991
▁toteuttaa	-8992
▁mahdollisia	-8993
▁työskentelee	-8994
idä	-8995
▁Esi	-8996
▁Lie	-8997
annan	-8998
ersin	-8999
pagan	-9000
toria	-9001
▁Otta	-9002
truktu	-9003
▁kalen	-9004
▁kehys	-9005
▁kevät	-9006
▁laiva	-9007
▁Kolman	-9008
▁juokse	-9009
▁kiusaa	-9010
▁tarvin	-9011
▁yksikö	-9012
istyksen	-9013
▁Kaikkia	-9014
▁hankala	-9015
▁poikkea	-9016
▁Ilveksen	-9017
▁Kaupungin	-9018
▁tapauksia	-9019
▁poliittisen	-9020
fer	-9021
rot	-9022
imiä	-9023
kina	-9024
▁Cup	-9025
▁tte	-9026
Korea	-9027
tömän	-9028
▁Vene	-9029
▁este	-9030
▁harm	-9031
ikalle	-9032
llassa	-9033
ustaan	-9034
▁sesta	-9035
▁sopiv	-9036
▁Martti	-9037
▁isissa	-9038
▁näissä	-9039
▁olevaa	-9040
▁puutar	-9041
▁pääsih	-9042
▁tielle	-9043
▁törmäsi	-9044
▁ymmärrä	-9045
rastruktu	-9046
▁ilmoitus	-9047
▁järjesti	-9048
▁lapsensa	-9049
▁projekti	-9050
▁normaalia	-9051
▁Pärmäkoski	-9052
▁aktiivisesti	-9053
qu	-9054
▁6,	-9055
▁85	-9056
▁Yl	-9057
essu	-9058
▁Cor	-9059
▁Kuk	-9060
▁henk	-9061
▁ketj	-9062
▁Brasi	-9063
▁huipu	-9064
▁taipu	-9065
▁useat	-9066
▁vahve	-9067
ittinen	-9068
▁Paljon	-9069
▁oltava	-9070
▁veljen	-9071
▁iskussa	-9072
▁tähtien	-9073
▁vammoja	-9074
▁välistä	-9075
▁llisesti	-9076
▁selvitys	-9077
▁jääkiekon	-9078
▁yleisesti	-9079
valiokunnan	-9080
▁lämpötilat	-9081
▁tarkoitettu	-9082
▁yleisurheilu	-9083
▁onnettomuudessa	-9084
Ma	-9085
tz	-9086
nea	-9087
ong	-9088
jeli	-9089
▁Bas	-9090
▁nuk	-9091
▁sia	-9092
▁tyr	-9093
▁piil	-9094
▁show	-9095
kinnan	-9096
viesti	-9097
▁Hamil	-9098
▁Suuri	-9099
▁henki	-9100
ilemaan	-9101
iläinen	-9102
▁Kangas	-9103
▁kirkon	-9104
▁ohjaus	-9105
▁oireet	-9106
ikenteen	-9107
▁Mäkinen	-9108
▁lämpimä	-9109
▁parisuh	-9110
▁päivään	-9111
▁takavar	-9112
▁viimeis	-9113
▁jotenkin	-9114
▁kaudelle	-9115
▁yhdistel	-9116
▁Libanonin	-9117
▁korkealla	-9118
▁Jyväskylän	-9119
▁saatavilla	-9120
▁Käytännössä	-9121
▁podcastissa	-9122
ish	-9123
ston	-9124
▁Lis	-9125
▁Vei	-9126
▁mal	-9127
▁rom	-9128
utuva	-9129
ystee	-9130
▁Emma	-9131
▁anna	-9132
▁kons	-9133
▁pyrk	-9134
isivät	-9135
▁Naval	-9136
▁Vähän	-9137
▁tauon	-9138
▁varoi	-9139
▁Kaiken	-9140
▁Kukaan	-9141
▁Pajari	-9142
▁aseita	-9143
▁essaan	-9144
▁kärsim	-9145
▁osannut	-9146
▁pronssi	-9147
▁suositu	-9148
▁suuntaa	-9149
▁useampi	-9150
▁vaaleja	-9151
▁pysäyttä	-9152
▁vanhempi	-9153
▁Jääkiekko	-9154
▁arvonlisä	-9155
▁avoimesti	-9156
▁konkurssi	-9157
▁muuttanut	-9158
▁mahdotonta	-9159
▁olosuhteissa	-9160
▁mielenosoitta	-9161
ij	-9162
jas	-9163
mun	-9164
zer	-9165
enny	-9166
▁27.	-9167
▁Erä	-9168
▁Jyr	-9169
▁lad	-9170
▁läp	-9171
▁tol	-9172
▁Kaisa	-9173
▁Lähes	-9174
▁Sofia	-9175
▁Tuore	-9176
▁mättö	-9177
▁Tavoit	-9178
▁asunut	-9179
▁hyötyä	-9180
▁määrit	-9181
▁Laulaja	-9182
▁minusta	-9183
▁ohjaaja	-9184
▁osapuol	-9185
▁sivussa	-9186
▁todettu	-9187
▁välttää	-9188
▁Lehtonen	-9189
▁kaksikon	-9190
▁kehottaa	-9191
▁tärkeitä	-9192
▁vastaano	-9193
▁Niinistön	-9194
▁haasteita	-9195
▁Tasavallan	-9196
▁europarlamen	-9197
1:	-9198
and	-9199
▁Gi	-9200
▁SE	-9201
vina	-9202
▁Tek	-9203
▁ien	-9204
astat	-9205
ittua	-9206
▁Fors	-9207
▁Kuin	-9208
▁Lain	-9209
▁Vero	-9210
▁koho	-9211
▁lata	-9212
impiin	-9213
koulun	-9214
▁2016.	-9215
▁eroon	-9216
▁eseen	-9217
▁kaune	-9218
▁otsik	-9219
▁salli	-9220
▁tavoi	-9221
utuivat	-9222
llessaan	-9223
mattoman	-9224
paikalla	-9225
▁naapuri	-9226
▁tarjota	-9227
▁vapautta	-9228
▁viitaten	-9229
▁Catherinen	-9230
▁Mielestäni	-9231
▁ravintolan	-9232
▁vaikeuksia	-9233
▁käsitellään	-9234
▁vaikutukset	-9235
▁joukkueeseen	-9236
ble	-9237
pil	-9238
koro	-9239
roja	-9240
▁Bra	-9241
▁Ykk	-9242
▁Tors	-9243
▁Työn	-9244
▁Vesi	-9245
▁Vorn	-9246
▁kump	-9247
▁pitu	-9248
▁real	-9249
opimus	-9250
voimaa	-9251
▁Raita	-9252
▁Torni	-9253
▁koros	-9254
▁käyty	-9255
▁luona	-9256
▁sanan	-9257
▁tulot	-9258
lleensa	-9259
tessaan	-9260
▁Silven	-9261
▁isempi	-9262
▁laitte	-9263
▁panssa	-9264
kkoilija	-9265
▁Onneksi	-9266
▁Prinssi	-9267
▁Toyotan	-9268
▁avustus	-9269
▁keittiö	-9270
▁viestiä	-9271
▁yllätty	-9272
▁menehtyi	-9273
▁toisesta	-9274
▁vahingon	-9275
▁huomannut	-9276
▁komentaja	-9277
maattisesti	-9278
▁kuolemasta	-9279
▁yhdistyksen	-9280
▁Toivottavasti	-9281
▁Å	-9282
ola	-9283
▁41	-9284
▁ad	-9285
keja	-9286
telö	-9287
▁McD	-9288
▁ila	-9289
▁draa	-9290
▁huhu	-9291
▁outo	-9292
alinen	-9293
puisto	-9294
▁tauti	-9295
ottavaa	-9296
▁rallin	-9297
▁tervee	-9298
▁kenties	-9299
▁monella	-9300
▁Silvenno	-9301
▁analysoi	-9302
▁edustava	-9303
▁kisoihin	-9304
▁Aftonblad	-9305
▁Kommentti	-9306
▁muutoksen	-9307
▁tutkitaan	-9308
▁puheessaan	-9309
▁Suomalaiset	-9310
▁kysymyksiin	-9311
▁virallisesti	-9312
Pe	-9313
ital	-9314
ityn	-9315
laus	-9316
mpär	-9317
älle	-9318
▁huv	-9319
aansa	-9320
▁Jazz	-9321
▁Tero	-9322
▁irto	-9323
▁vaja	-9324
▁kylän	-9325
▁pelit	-9326
▁tahto	-9327
▁häneen	-9328
▁kohtuu	-9329
▁määrät	-9330
▁Jalonen	-9331
▁Valtion	-9332
▁autoili	-9333
▁kuullut	-9334
▁joutuvat	-9335
▁kaudesta	-9336
▁propagan	-9337
▁rajoitta	-9338
▁sairasta	-9339
▁yhdistää	-9340
▁heinäkuun	-9341
▁toisaalta	-9342
▁turnauksessa	-9343
▁luonnollisesti	-9344
ppy	-9345
llus	-9346
ppua	-9347
▁Puh	-9348
▁rus	-9349
▁tti	-9350
tistä	-9351
▁Ampu	-9352
▁Merc	-9353
▁Suvi	-9354
▁agen	-9355
▁avar	-9356
▁iske	-9357
▁linn	-9358
ikunta	-9359
kosken	-9360
puolue	-9361
▁Hauta	-9362
▁koski	-9363
▁kukka	-9364
▁kulki	-9365
▁lipun	-9366
▁lohko	-9367
▁moder	-9368
▁teini	-9369
▁haaste	-9370
▁näillä	-9371
▁punais	-9372
▁tallin	-9373
▁kierros	-9374
▁sisältö	-9375
▁tekoäly	-9376
▁tuottaa	-9377
▁valossa	-9378
▁Espoossa	-9379
▁Oikeuden	-9380
▁kasvatti	-9381
▁kotoisin	-9382
▁medialle	-9383
▁tarvinnut	-9384
▁kilpailuun	-9385
▁tehtävissä	-9386
▁liikennettä	-9387
▁päätöksestä	-9388
▁puolivälierä	-9389
▁äärijärjestö	-9390
puh	-9391
ennä	-9392
fina	-9393
uhan	-9394
änny	-9395
▁2,5	-9396
▁leh	-9397
jistä	-9398
sojen	-9399
▁Real	-9400
▁erot	-9401
▁hell	-9402
▁pahe	-9403
▁väki	-9404
tamiin	-9405
▁Syynä	-9406
▁Tieto	-9407
▁ansio	-9408
▁itali	-9409
▁kuver	-9410
▁vauva	-9411
▁olikin	-9412
▁pyrkin	-9413
▁salais	-9414
▁suosio	-9415
▁Nuorten	-9416
▁Yleensä	-9417
▁käymään	-9418
▁nuorena	-9419
▁siirtää	-9420
komisario	-9421
▁Lehtinen	-9422
▁kokoomus	-9423
▁pelaajaa	-9424
▁tuottaja	-9425
▁muutokset	-9426
▁kaupunkiin	-9427
▁suorastaan	-9428
▁tilanteita	-9429
▁yhteiskunnan	-9430
▁jö	-9431
jasi	-9432
▁Tha	-9433
▁gri	-9434
▁sär	-9435
▁vis	-9436
▁Aino	-9437
▁tauo	-9438
lannin	-9439
misten	-9440
tiellä	-9441
▁Tärke	-9442
▁isuus	-9443
▁kuiva	-9444
▁puhta	-9445
▁Aleksi	-9446
▁Kymmen	-9447
▁vauhti	-9448
▁jotakin	-9449
▁kuvernö	-9450
▁länsima	-9451
▁pihalla	-9452
▁laajasti	-9453
▁negatiiv	-9454
▁oikeisto	-9455
▁puolilla	-9456
▁saavutta	-9457
▁tekemässä	-9458
▁yleisölle	-9459
▁päivystävä	-9460
▁loukkaantunut	-9461
▁tulevaisuuden	-9462
ysi	-9463
▁8,	-9464
otte	-9465
▁Che	-9466
▁arj	-9467
▁tiu	-9468
aaksi	-9469
hinta	-9470
maksu	-9471
▁veny	-9472
peutti	-9473
▁Heikk	-9474
▁Onhan	-9475
▁Roope	-9476
▁Tiina	-9477
▁rento	-9478
▁tasan	-9479
▁ttava	-9480
▁Ottelu	-9481
▁Taylor	-9482
▁jotkut	-9483
▁kasvua	-9484
▁kuvasi	-9485
▁riitti	-9486
▁tarpee	-9487
▁Aaltola	-9488
▁armeija	-9489
▁kuvissa	-9490
▁mistään	-9491
▁terrori	-9492
▁ensisija	-9493
▁irtisano	-9494
▁maalilla	-9495
▁tunteita	-9496
▁voitosta	-9497
▁asunnossa	-9498
▁aiemminkin	-9499
▁suurlähetti	-9500
▁kommentoimaan	-9501
▁turvallisuutta	-9502
▁THL	-9503
▁kaas	-9504
▁Aivan	-9505
▁Yhtiö	-9506
Britann	-9507
rallaan	-9508
sinkilä	-9509
▁Kanada	-9510
▁Toisen	-9511
▁ajalla	-9512
▁kartan	-9513
▁kaukal	-9514
▁käänne	-9515
▁lattia	-9516
tuutettu	-9517
▁Richard	-9518
▁Urheili	-9519
▁nimellä	-9520
▁radalla	-9521
▁rakenne	-9522
▁rauhoit	-9523
▁ydinase	-9524
▁joitakin	-9525
▁myyntiin	-9526
▁vaatinut	-9527
▁Prinsessa	-9528
▁edustajat	-9529
▁helsinkilä	-9530
▁pelaajista	-9531
▁taiteilija	-9532
▁ihmisoikeus	-9533
▁äärioikeisto	-9534
▁urheilijoiden	-9535
mel	-9536
▁ai	-9537
ähti	-9538
▁Tan	-9539
▁Tyy	-9540
▁nis	-9541
kivat	-9542
verta	-9543
▁Aamu	-9544
▁Pitt	-9545
▁avat	-9546
▁lemm	-9547
▁pomm	-9548
hdella	-9549
▁Pallo	-9550
▁leika	-9551
uuksien	-9552
▁poikki	-9553
▁puolta	-9554
▁reissu	-9555
▁unelma	-9556
▁yleinen	-9557
mokraatti	-9558
▁Kärppien	-9559
▁Norjassa	-9560
▁auringon	-9561
▁hyökkäsi	-9562
▁koskevat	-9563
▁pohjalta	-9564
aikaisesti	-9565
▁joulukuun	-9566
▁kilpailua	-9567
▁sopimusta	-9568
▁mielenosoi	-9569
▁valtavasti	-9570
▁todennäköis	-9571
▁Keskiviikkona	-9572
▁presidenttinä	-9573
jal	-9574
psi	-9575
paus	-9576
▁25-	-9577
▁Mun	-9578
▁Sor	-9579
▁tin	-9580
ketin	-9581
ottom	-9582
yökkä	-9583
▁Eetu	-9584
▁lenn	-9585
▁luks	-9586
▁olis	-9587
▁vaiv	-9588
maatti	-9589
neessa	-9590
▁Carol	-9591
▁Ronal	-9592
▁Vuosi	-9593
▁Yhden	-9594
▁helle	-9595
▁julki	-9596
▁kolar	-9597
▁tiivi	-9598
ittävät	-9599
mistaan	-9600
▁Macron	-9601
▁Tausta	-9602
▁Voitto	-9603
▁kolmos	-9604
▁leviää	-9605
▁lukien	-9606
▁rankka	-9607
▁teillä	-9608
▁apulais	-9609
▁jääneet	-9610
▁toisten	-9611
ikymmentä	-9612
▁Moskovan	-9613
▁elämästä	-9614
▁laskenut	-9615
politiikan	-9616
toimittaja	-9617
▁juurikaan	-9618
▁kuvattuna	-9619
▁millainen	-9620
▁tilaisuus	-9621
▁Pariskunta	-9622
▁aggressiiv	-9623
▁elokuvassa	-9624
▁maaliskuun	-9625
▁joukkueensa	-9626
▁keskustella	-9627
▁paikallista	-9628
▁liikenteessä	-9629
▁läheisyydessä	-9630
▁sijaitsevassa	-9631
eä	-9632
sh	-9633
▁x	-9634
-2-	-9635
ass	-9636
epä	-9637
jus	-9638
koo	-9639
lyn	-9640
nat	-9641
uel	-9642
kans	-9643
sija	-9644
▁Isä	-9645
▁kov	-9646
Pekka	-9647
estyi	-9648
estys	-9649
maali	-9650
ukana	-9651
▁Evan	-9652
▁Kela	-9653
▁Pala	-9654
▁anti	-9655
▁ihas	-9656
▁ihon	-9657
▁koos	-9658
▁mall	-9659
intarv	-9660
▁journ	-9661
▁pääsy	-9662
▁ratti	-9663
▁rinna	-9664
▁taito	-9665
▁tilin	-9666
ikainen	-9667
telivat	-9668
▁Kahden	-9669
▁laista	-9670
▁mukava	-9671
▁pantti	-9672
▁poltto	-9673
▁valiko	-9674
▁varova	-9675
▁viides	-9676
▁voimme	-9677
▁Christi	-9678
▁lopetti	-9679
▁nimissä	-9680
▁johdolla	-9681
▁kutsuttu	-9682
▁poseeraa	-9683
▁pääsivät	-9684
Pohjanmaan	-9685
▁pidettiin	-9686
▁viimeistä	-9687
▁ratkaisuja	-9688
▁perinteisen	-9689
▁yhteiskunta	-9690
▁yllätyksenä	-9691
▁infrastruktu	-9692
▁Yhdysvaltoihin	-9693
▁säännöllisesti	-9694
▁pahoinpitelystä	-9695
ald	-9696
que	-9697
säh	-9698
▁54	-9699
▁GP	-9700
kata	-9701
meri	-9702
ukon	-9703
▁Eur	-9704
▁Pah	-9705
▁Sär	-9706
▁Tyn	-9707
▁kää	-9708
dissa	-9709
kkuri	-9710
telen	-9711
tulla	-9712
▁Karl	-9713
▁King	-9714
▁alen	-9715
▁juos	-9716
▁kahv	-9717
▁mara	-9718
vainen	-9719
▁kolmi	-9720
▁resur	-9721
yttynyt	-9722
▁Lasten	-9723
▁kierrä	-9724
▁oikean	-9725
▁pitkiä	-9726
▁päivät	-9727
▁virhee	-9728
▁ylipää	-9729
▁Japanin	-9730
▁Someron	-9731
▁arvosta	-9732
▁kauteen	-9733
▁korvaus	-9734
▁lausunto	-9735
▁osaltaan	-9736
▁parempaa	-9737
▁tuotteet	-9738
▁vuodelle	-9739
▁myynnissä	-9740
▁ratkaisua	-9741
▁keskimäärä	-9742
▁kirjailija	-9743
▁tuotteiden	-9744
UMA	-9745
kei	-9746
▁Ant	-9747
▁Gra	-9748
tosen	-9749
▁Kump	-9750
▁Soin	-9751
▁avus	-9752
▁gall	-9753
▁pyyd	-9754
▁viho	-9755
eenran	-9756
▁Kemin	-9757
▁Kuusi	-9758
▁Rauta	-9759
▁Ykkös	-9760
▁aluee	-9761
▁kohtu	-9762
▁sivat	-9763
▁syödä	-9764
▁tiety	-9765
huoneen	-9766
ittisen	-9767
jettaja	-9768
▁Freder	-9769
▁fiilis	-9770
▁poikaa	-9771
▁torjui	-9772
▁tähdet	-9773
▁voimaa	-9774
▁Angeles	-9775
▁keinoja	-9776
▁lavalle	-9777
▁pienemm	-9778
▁rajusti	-9779
▁reaktio	-9780
▁ryhmään	-9781
▁saamaan	-9782
▁Helander	-9783
▁esitetty	-9784
▁liikente	-9785
▁tarkkaan	-9786
▁yhteisen	-9787
▁käsitellä	-9788
▁toimimaan	-9789
▁lautakunta	-9790
▁päivitetty	-9791
▁vähemmistö	-9792
▁kansallisen	-9793
▁maahanmuutta	-9794
▁politiikassa	-9795
▁tutkimuksessa	-9796
▁hyvinvointialue	-9797
fin	-9798
▁Op	-9799
ikea	-9800
velu	-9801
▁250	-9802
▁Ilm	-9803
▁Mag	-9804
▁Run	-9805
▁Tol	-9806
tolan	-9807
velle	-9808
▁Juho	-9809
▁Tupp	-9810
▁erää	-9811
▁haud	-9812
▁sävy	-9813
▁tonn	-9814
karsin	-9815
vaihto	-9816
▁Puola	-9817
▁Toimi	-9818
▁avain	-9819
▁homma	-9820
▁hyöty	-9821
▁netti	-9822
▁posti	-9823
▁sisar	-9824
tuuston	-9825
yksissä	-9826
▁lienee	-9827
▁Terveys	-9828
▁edistää	-9829
▁esimerk	-9830
▁puuttuu	-9831
▁vastata	-9832
▁asukkaat	-9833
▁listalla	-9834
▁torjunta	-9835
▁Hizbollah	-9836
▁tuoreessa	-9837
▁ystävänsä	-9838
▁hovioikeus	-9839
▁suurlähetys	-9840
▁turvapaikan	-9841
▁suomalaisille	-9842
tsa	-9843
työ	-9844
emme	-9845
merk	-9846
▁Ada	-9847
▁Can	-9848
dasta	-9849
rille	-9850
▁amma	-9851
▁ellä	-9852
▁jien	-9853
▁opti	-9854
▁pesu	-9855
ivällä	-9856
podcas	-9857
▁Pohjo	-9858
▁epäto	-9859
▁myrky	-9860
▁torju	-9861
▁vista	-9862
ikoksen	-9863
kkaaksi	-9864
telleet	-9865
▁kyntti	-9866
▁lasken	-9867
ittämään	-9868
▁Joensuu	-9869
▁soittaa	-9870
▁suorana	-9871
▁ystäviä	-9872
▁Kaupunki	-9873
▁asemassa	-9874
▁hakemaan	-9875
▁kaikesta	-9876
▁kentälle	-9877
▁miehensä	-9878
▁nuorille	-9879
▁ryhmässä	-9880
▁vaativat	-9881
▁Venäjältä	-9882
▁otteeseen	-9883
▁yksityisko	-9884
▁Asiantuntija	-9885
▁mielenterveys	-9886
pul	-9887
▁31	-9888
▁12,	-9889
▁120	-9890
▁inh	-9891
innat	-9892
italo	-9893
kkasi	-9894
▁Elon	-9895
▁Jack	-9896
▁anno	-9897
▁lope	-9898
▁sijo	-9899
teella	-9900
ukasta	-9901
▁Cupin	-9902
▁Heidi	-9903
▁Mauri	-9904
▁rasva	-9905
▁isilla	-9906
▁käytös	-9907
▁loppup	-9908
▁neensa	-9909
▁lavalla	-9910
▁sijalle	-9911
▁vakavia	-9912
▁Jokainen	-9913
▁hyväksyi	-9914
▁matkailu	-9915
▁nousevat	-9916
▁uskotaan	-9917
▁erilaista	-9918
▁ihmisistä	-9919
▁käännytys	-9920
▁puolustaa	-9921
▁vakuuttaa	-9922
▁ennätyksen	-9923
▁Maanantaina	-9924
▁prosentilla	-9925
▁toistuvasti	-9926
▁mahdollistaa	-9927
▁hätäkeskukseen	-9928
wn	-9929
ety	-9930
tes	-9931
▁Ryh	-9932
▁iha	-9933
▁ote	-9934
▁uun	-9935
mossa	-9936
oivat	-9937
▁Kali	-9938
▁KuPS	-9939
▁Malm	-9940
▁lasi	-9941
▁para	-9942
▁Harko	-9943
▁Seppo	-9944
▁aktiv	-9945
▁eroja	-9946
▁hopea	-9947
▁istui	-9948
▁pysyä	-9949
▁pöytä	-9950
▁asetel	-9951
▁heitto	-9952
▁hoidon	-9953
▁kannan	-9954
▁treeni	-9955
▁Mattila	-9956
▁alkunsa	-9957
▁ehdolla	-9958
▁nauttia	-9959
▁sanovat	-9960
▁taminen	-9961
▁arvioitu	-9962
▁kautensa	-9963
▁taloutta	-9964
▁tehtäviä	-9965
▁vieraana	-9966
▁Israeliin	-9967
▁helmikuun	-9968
▁kappaleen	-9969
▁huippukoko	-9970
▁matkustaja	-9971
▁politiikka	-9972
tot	-9973
▁Av	-9974
isan	-9975
saar	-9976
▁(20	-9977
▁Syö	-9978
▁glo	-9979
attua	-9980
▁Otto	-9981
▁Satu	-9982
▁isiä	-9983
▁luet	-9984
▁pall	-9985
▁peto	-9986
▁skan	-9987
▁taha	-9988
Photos	-9989
aseman	-9990
itsija	-9991
llisin	-9992
läisen	-9993
miehen	-9994
▁etsim	-9995
▁järvi	-9996
▁karta	-9997
▁keksi	-9998
▁kelta	-9999
▁korko	-10000
▁palon	-10001
▁tehta	-10002
▁tuhoa	-10003
massaan	-10004
▁Huippu	-10005
▁Purran	-10006
▁aseman	-10007
▁osaksi	-10008
▁suosik	-10009
▁syytti	-10010
▁teille	-10011
▁ydinas	-10012
alueella	-10013
mpäristö	-10014
▁Helsing	-10015
▁juttuja	-10016
▁käytiin	-10017
▁maaperä	-10018
▁vastoin	-10019
▁yhdestä	-10020
teellinen	-10021
▁konserva	-10022
▁kunnassa	-10023
▁rinnalla	-10024
▁ratkaisun	-10025
▁sellaisen	-10026
▁olosuhteet	-10027
▁pääasiassa	-10028
▁Kokoomuksen	-10029
bs	-10030
we	-10031
lop	-10032
yle	-10033
▁PS	-10034
▁19-	-10035
▁KHL	-10036
opeaa	-10037
▁Borg	-10038
▁James	-10039
▁Joona	-10040
▁Matka	-10041
▁Näitä	-10042
▁kissa	-10043
▁kulut	-10044
▁lukee	-10045
▁mikro	-10046
yksellä	-10047
▁joutua	-10048
▁mootto	-10049
▁muilla	-10050
▁nauraa	-10051
▁pääsiä	-10052
▁roolin	-10053
▁vetera	-10054
▁väistä	-10055
▁ajetaan	-10056
▁toisena	-10057
▁Kuningas	-10058
▁nousivat	-10059
▁näkemään	-10060
▁varoitti	-10061
▁vastuuta	-10062
▁Ranskassa	-10063
▁tammikuun	-10064
▁tiettävästi	-10065
▁vaikutuksen	-10066
▁pääkaupunkise	-10067
pl	-10068
ust	-10069
ckin	-10070
stön	-10071
vaik	-10072
▁27,	-10073
▁Bir	-10074
▁Bjö	-10075
▁kät	-10076
▁soh	-10077
▁tos	-10078
eensä	-10079
nästä	-10080
▁Sota	-10081
▁koor	-10082
▁pelä	-10083
aisena	-10084
keissä	-10085
tiikka	-10086
▁Hakka	-10087
▁Kenne	-10088
▁Usein	-10089
▁poimi	-10090
▁profi	-10091
▁sytty	-10092
▁vuoti	-10093
uksensa	-10094
▁Tuleva	-10095
▁isäntä	-10096
▁kielen	-10097
▁monien	-10098
▁sillan	-10099
lehdelle	-10100
utumisen	-10101
▁ajamaan	-10102
▁kauppaa	-10103
▁kiistää	-10104
▁kolmeen	-10105
▁luottaa	-10106
▁näkemys	-10107
▁välille	-10108
▁huomenna	-10109
▁kehittää	-10110
▁kirjasto	-10111
▁kärsinyt	-10112
▁muutakin	-10113
▁selvitti	-10114
▁oikeuteen	-10115
▁viranomais	-10116
▁työntekijää	-10117
▁vastaanotto	-10118
▁rakentaminen	-10119
▁olympialaisiin	-10120
ün	-10121
▁;	-10122
▁]	-10123
▁II	-10124
ydet	-10125
▁25,	-10126
▁31.	-10127
▁Kom	-10128
▁luk	-10129
eleen	-10130
kolla	-10131
kuvan	-10132
rosta	-10133
▁Haap	-10134
▁kaul	-10135
▁keng	-10136
▁mets	-10137
tuttaa	-10138
vuuden	-10139
▁Honka	-10140
▁Ilman	-10141
▁Mänty	-10142
▁Nurmi	-10143
▁Vanhe	-10144
▁julkk	-10145
▁mahtu	-10146
▁sovel	-10147
▁yhtey	-10148
▁ylpeä	-10149
mminkin	-10150
talisti	-10151
▁Columb	-10152
▁Manner	-10153
▁Mukana	-10154
▁painaa	-10155
▁tietyn	-10156
▁Ravinto	-10157
▁sanotus	-10158
▁vastuun	-10159
▁kaupassa	-10160
▁muodossa	-10161
▁alkoholia	-10162
▁huhtikuun	-10163
▁mainitsee	-10164
▁kokemuksia	-10165
asiantuntija	-10166
▁keskiviikon	-10167
▁amerikkalais	-10168
art	-10169
ose	-10170
viö	-10171
▁mp	-10172
mmaa	-10173
▁App	-10174
▁Eri	-10175
▁Fox	-10176
▁Ten	-10177
▁UMK	-10178
▁jut	-10179
▁sot	-10180
aalle	-10181
emman	-10182
ottua	-10183
ppiin	-10184
▁hill	-10185
▁pizz	-10186
ilusta	-10187
▁1980-	-10188
▁2017.	-10189
▁Eloka	-10190
▁Karhu	-10191
▁Poika	-10192
▁kohun	-10193
▁oppia	-10194
▁pisto	-10195
▁pärjä	-10196
▁yhtye	-10197
▁Talous	-10198
▁kuultu	-10199
▁pyyntö	-10200
▁tunten	-10201
▁Susanna	-10202
▁hyvällä	-10203
▁lukemin	-10204
▁syyttää	-10205
▁vähentä	-10206
▁ymmärtä	-10207
▁Ruotsiin	-10208
▁esitystä	-10209
▁kannusta	-10210
▁puolueet	-10211
▁pyytänyt	-10212
▁päivällä	-10213
▁tavallaan	-10214
▁Asiantunti	-10215
▁ristiriita	-10216
▁saataisiin	-10217
▁vastaajista	-10218
▁kierrokselle	-10219
▁hallituksessa	-10220
kua	-10221
pir	-10222
▁66	-10223
▁Ya	-10224
kiat	-10225
▁(19	-10226
▁Hun	-10227
▁Jäl	-10228
▁Kop	-10229
▁Kri	-10230
▁tri	-10231
kival	-10232
▁Mäen	-10233
▁Yhtä	-10234
▁joen	-10235
joella	-10236
▁Auton	-10237
▁Chris	-10238
▁Lämpö	-10239
▁Useat	-10240
▁myyjä	-10241
▁siivo	-10242
▁teitä	-10243
tiainen	-10244
▁Pitkän	-10245
▁luokka	-10246
▁myönte	-10247
▁tappion	-10248
▁vaikuta	-10249
▁välisen	-10250
▁Kilpailu	-10251
▁Korhonen	-10252
▁Koskinen	-10253
▁metsästä	-10254
tettavasti	-10255
▁seksuaali	-10256
▁seuraavat	-10257
▁tällaisia	-10258
▁teknologia	-10259
vic	-10260
▁77	-10261
▁ll	-10262
bota	-10263
hall	-10264
nnon	-10265
▁Dig	-10266
▁Ero	-10267
▁käv	-10268
istui	-10269
kimmä	-10270
laatu	-10271
▁jälk	-10272
▁löys	-10273
▁syrj	-10274
kkosen	-10275
▁Tutki	-10276
▁avata	-10277
▁kilow	-10278
▁makuu	-10279
▁pehme	-10280
▁vitsa	-10281
▁Matias	-10282
▁Päätös	-10283
▁aikoja	-10284
▁saaren	-10285
▁Minusta	-10286
▁asiakir	-10287
▁hotelli	-10288
▁huomioi	-10289
▁muuttua	-10290
▁omistaa	-10291
▁sydämen	-10292
▁kolmesta	-10293
▁kyseisen	-10294
▁päivittä	-10295
▁selväksi	-10296
▁tavoitti	-10297
▁tietävät	-10298
▁valitaan	-10299
▁Torstaina	-10300
▁ajatuksia	-10301
▁kamppailu	-10302
▁kertomaan	-10303
▁keskenään	-10304
▁riittänyt	-10305
▁määrättiin	-10306
▁politiikkaan	-10307
ese	-10308
▁43	-10309
▁99	-10310
kean	-10311
äksi	-10312
▁Gre	-10313
▁Pop	-10314
▁sit	-10315
ennus	-10316
essan	-10317
▁Tulo	-10318
ilassa	-10319
▁Ongel	-10320
▁Parha	-10321
▁Ymmär	-10322
▁esine	-10323
▁kehui	-10324
▁luoda	-10325
▁resep	-10326
▁reser	-10327
mätöntä	-10328
▁Näistä	-10329
▁ajasta	-10330
▁lakies	-10331
▁laukoi	-10332
▁leikki	-10333
▁selviä	-10334
▁syöksy	-10335
llisella	-10336
▁Salonen	-10337
▁epävarm	-10338
▁jakanut	-10339
▁kehotti	-10340
▁kirjeen	-10341
▁päivien	-10342
▁tarkkaa	-10343
▁Suomella	-10344
▁päässeet	-10345
▁vaarassa	-10346
▁syyttäjän	-10347
▁asiakkaita	-10348
▁rahoitusta	-10349
▁z	-10350
▁Gol	-10351
▁Neu	-10352
▁log	-10353
alian	-10354
ikään	-10355
illan	-10356
tarin	-10357
▁Kuka	-10358
▁Smit	-10359
▁isot	-10360
▁keuh	-10361
▁muis	-10362
▁syyn	-10363
aikaan	-10364
isuhde	-10365
joissa	-10366
teensa	-10367
▁Lahti	-10368
▁Mahdo	-10369
▁Trafi	-10370
▁mitkä	-10371
neeseen	-10372
▁Liettu	-10373
▁Sloven	-10374
▁Toivon	-10375
▁kiista	-10376
▁kristi	-10377
▁parann	-10378
▁summaa	-10379
▁suuret	-10380
tietojen	-10381
▁maalein	-10382
▁varsina	-10383
▁energiaa	-10384
▁hotellin	-10385
▁lähdössä	-10386
▁muusikko	-10387
▁ohjelmaa	-10388
▁poliisit	-10389
▁raportin	-10390
▁reilusti	-10391
▁saavutti	-10392
▁sisältöä	-10393
▁Vantaalla	-10394
▁tehtävään	-10395
▁Lappeenran	-10396
▁esiintynyt	-10397
▁kysymyksen	-10398
▁venäläiset	-10399
▁tapahtumaan	-10400
▁toimittajan	-10401
▁uutisoitiin	-10402
▁viimeisteli	-10403
▁Toistaiseksi	-10404
lix	-10405
énin	-10406
▁Kah	-10407
▁Koo	-10408
▁Via	-10409
▁pyh	-10410
kkään	-10411
seura	-10412
▁Joki	-10413
▁koea	-10414
▁niem	-10415
▁suju	-10416
attona	-10417
tyneet	-10418
uransa	-10419
uummin	-10420
▁Holly	-10421
▁Koivu	-10422
▁Minna	-10423
▁Puoli	-10424
▁Wilma	-10425
▁arjen	-10426
▁hirmu	-10427
▁hylkä	-10428
▁komen	-10429
▁känny	-10430
▁maine	-10431
▁rikki	-10432
ihteeri	-10433
rikaani	-10434
▁Sergei	-10435
▁Valkea	-10436
▁kallis	-10437
▁katosi	-10438
▁kiitos	-10439
▁laitto	-10440
▁tieltä	-10441
▁tuntee	-10442
▁ulottu	-10443
▁isuutta	-10444
▁antamaan	-10445
▁edetessä	-10446
▁päästään	-10447
▁sprintti	-10448
▁taistele	-10449
▁valmiita	-10450
▁Christian	-10451
▁nimeltään	-10452
▁seurannut	-10453
▁asevoimien	-10454
▁maailmalla	-10455
▁maanantain	-10456
▁tietenkään	-10457
▁puolivälier	-10458
▁tapauksissa	-10459
▁julkaistussa	-10460
YP	-10461
aro	-10462
läs	-10463
ost	-10464
rss	-10465
ryn	-10466
▁67	-10467
▁Tr	-10468
mppi	-10469
muka	-10470
pano	-10471
wood	-10472
▁Hul	-10473
▁Lea	-10474
▁nat	-10475
▁Lepp	-10476
▁ZUMA	-10477
ksissä	-10478
maalin	-10479
mmasta	-10480
vartio	-10481
▁Kulta	-10482
▁Leppä	-10483
▁Oscar	-10484
▁hyppy	-10485
▁lensi	-10486
▁loput	-10487
▁tiimi	-10488
▁tuhat	-10489
▁Boston	-10490
▁Julkis	-10491
▁Naisen	-10492
▁konfer	-10493
▁meistä	-10494
liikenne	-10495
▁Selänne	-10496
▁asettaa	-10497
▁laittoi	-10498
▁unionin	-10499
▁vanhoja	-10500
▁Yorkissa	-10501
▁huolehti	-10502
▁miehistä	-10503
▁pakettia	-10504
▁syytteen	-10505
▁Charlesin	-10506
▁esitetään	-10507
▁haavoittu	-10508
▁joukkueet	-10509
▁kampanjan	-10510
▁vastuussa	-10511
▁supertähti	-10512
▁kiinnostunut	-10513
▁kirjoittanut	-10514
▁suhteellisen	-10515
▁tapahtumassa	-10516
▁liikenneturva	-10517
▁rikoskomisario	-10518
ent	-10519
▁kW	-10520
isit	-10521
▁Ajo	-10522
▁Glo	-10523
päätö	-10524
telup	-10525
tuhan	-10526
tulle	-10527
▁aset	-10528
▁tulk	-10529
isempi	-10530
päivää	-10531
ytynyt	-10532
▁Haapa	-10533
▁Lotta	-10534
▁Niemi	-10535
▁ellei	-10536
▁vajaa	-10537
▁viiko	-10538
tenberg	-10539
▁Kiitos	-10540
▁United	-10541
▁lukija	-10542
▁sopiva	-10543
▁tiloja	-10544
▁juhliin	-10545
▁monelle	-10546
▁poistaa	-10547
▁turnaus	-10548
▁ennustaa	-10549
▁hovioike	-10550
▁keskelle	-10551
▁kohteita	-10552
▁keskittyä	-10553
▁millaista	-10554
▁tasapaino	-10555
▁havaittiin	-10556
▁Ensimmäisen	-10557
▁esitutkinta	-10558
▁leikkaukset	-10559
▁suunnittele	-10560
iks	-10561
ret	-10562
ute	-10563
vea	-10564
▁Tv	-10565
bumi	-10566
mann	-10567
paik	-10568
rssi	-10569
▁Ama	-10570
▁Bry	-10571
▁McL	-10572
▁ots	-10573
▁Riih	-10574
▁Syys	-10575
▁leir	-10576
▁mmin	-10577
▁niko	-10578
tettyä	-10579
▁isken	-10580
▁kaven	-10581
▁piilo	-10582
▁tanut	-10583
▁ajalta	-10584
▁päästy	-10585
▁seudun	-10586
▁tulita	-10587
▁Halonen	-10588
▁Sosiaal	-10589
▁hintaan	-10590
▁kiittää	-10591
▁massiiv	-10592
▁muualle	-10593
▁palkkaa	-10594
▁täyteen	-10595
▁enintään	-10596
▁neljänne	-10597
▁nikotiin	-10598
▁pitkällä	-10599
▁sukupuol	-10600
▁talvella	-10601
▁tulipalo	-10602
▁yhtäkkiä	-10603
▁kuolleena	-10604
▁lopputulo	-10605
▁millaisia	-10606
▁panttivan	-10607
▁väitteitä	-10608
▁Eurooppaan	-10609
▁korvauksia	-10610
▁otteluissa	-10611
▁merkittäviä	-10612
▁markkinoilla	-10613
▁harjoituksissa	-10614
nio	-10615
vyn	-10616
aria	-10617
edes	-10618
ihän	-10619
isel	-10620
▁50-	-10621
▁Kyl	-10622
▁Wor	-10623
eellä	-10624
tunto	-10625
▁Kier	-10626
▁Merk	-10627
▁etta	-10628
▁idea	-10629
▁kate	-10630
alueen	-10631
ikaali	-10632
laatio	-10633
tuotta	-10634
▁2025.	-10635
▁Hinta	-10636
▁Kysel	-10637
▁Lisää	-10638
▁maini	-10639
▁parve	-10640
▁putki	-10641
ottelut	-10642
▁Konsta	-10643
▁Thomas	-10644
▁kuvaus	-10645
▁Välillä	-10646
▁heittää	-10647
▁kouluun	-10648
▁luokkaa	-10649
▁määräsi	-10650
valtuusto	-10651
▁Granlund	-10652
▁Victoria	-10653
▁hankkeen	-10654
▁kestänyt	-10655
▁rattijuo	-10656
▁yhteistä	-10657
▁Ministeri	-10658
▁julkaisun	-10659
▁kertoneet	-10660
▁senttimet	-10661
▁Espanjassa	-10662
▁kerrallaan	-10663
▁mielellään	-10664
▁muistetaan	-10665
▁Hyvinvointi	-10666
▁historiassa	-10667
▁aamupäivällä	-10668
10	-10669
siä	-10670
▁Swi	-10671
jillä	-10672
kkaat	-10673
ostus	-10674
▁Emmi	-10675
▁Laki	-10676
▁Rafa	-10677
▁Tosi	-10678
▁joki	-10679
linnan	-10680
▁Eihän	-10681
▁Kello	-10682
▁Lappi	-10683
▁Perin	-10684
▁Tynkk	-10685
▁Vaali	-10686
▁laina	-10687
▁villa	-10688
ikunnan	-10689
jattiin	-10690
▁isille	-10691
▁kapina	-10692
▁kävele	-10693
▁lliset	-10694
▁lupasi	-10695
▁muttei	-10696
▁pariin	-10697
▁tuovat	-10698
▁vasten	-10699
▁viljel	-10700
▁Minulle	-10701
▁Timesin	-10702
▁vaalika	-10703
vuotiasta	-10704
▁verkkoon	-10705
▁Heiskanen	-10706
▁asteeseen	-10707
▁sotilaita	-10708
▁tehopiste	-10709
▁vaatteita	-10710
▁valtakunna	-10711
▁asiakkaiden	-10712
▁leikkauksia	-10713
▁miljoonalla	-10714
▁päivityksen	-10715
▁suunnitelman	-10716
▁yhteistyössä	-10717
▁Kansainvälisen	-10718
00-	-10719
eng	-10720
moa	-10721
kita	-10722
port	-10723
tuom	-10724
▁fak	-10725
itsen	-10726
mäksi	-10727
perän	-10728
tieto	-10729
untaa	-10730
▁Blin	-10731
▁Terä	-10732
▁Yhte	-10733
▁aike	-10734
▁asui	-10735
▁selä	-10736
▁sena	-10737
itsisi	-10738
▁Black	-10739
▁Norja	-10740
▁Saira	-10741
▁espan	-10742
▁hakee	-10743
▁inter	-10744
▁löydy	-10745
▁sinua	-10746
▁virta	-10747
▁Tuntuu	-10748
▁kommun	-10749
▁ottaen	-10750
▁piikki	-10751
▁sattuu	-10752
piirissä	-10753
▁Kalifor	-10754
▁Kurskin	-10755
▁kehysri	-10756
▁potilas	-10757
▁sankari	-10758
▁tuttuja	-10759
▁Lindholm	-10760
▁finaalin	-10761
▁peräisin	-10762
▁riittävä	-10763
▁Varsinkin	-10764
▁harrastus	-10765
▁parhaaksi	-10766
▁lähetyksen	-10767
▁ylipäätään	-10768
▁maahanmuutto	-10769
0,	-10770
wer	-10771
onto	-10772
oria	-10773
tisi	-10774
▁Fur	-10775
▁Odo	-10776
▁Tap	-10777
▁kke	-10778
immän	-10779
impiä	-10780
kkeja	-10781
kkoja	-10782
▁Blom	-10783
▁Sini	-10784
▁astu	-10785
▁kaar	-10786
attava	-10787
ksossa	-10788
▁Mylly	-10789
▁käden	-10790
▁malle	-10791
▁maton	-10792
▁omiin	-10793
▁rikka	-10794
▁tiesi	-10795
▁treff	-10796
▁varas	-10797
▁vessa	-10798
immassa	-10799
kenaari	-10800
▁Alanko	-10801
▁epäile	-10802
▁henkeä	-10803
▁hintaa	-10804
▁identi	-10805
▁kapasi	-10806
▁käyvät	-10807
▁laskea	-10808
▁nousua	-10809
▁sarjaa	-10810
▁taloon	-10811
itykseen	-10812
▁oikeude	-10813
▁pelattu	-10814
▁sairaan	-10815
▁sovittu	-10816
▁Lahdessa	-10817
▁elintarv	-10818
▁hämmästy	-10819
▁järkyttä	-10820
▁mainittu	-10821
▁Taustalla	-10822
▁heikentää	-10823
▁jatkamaan	-10824
▁viestissä	-10825
▁yrityksiä	-10826
▁eläkkeelle	-10827
▁hallitusta	-10828
▁ihmettelee	-10829
▁Anderssonin	-10830
▁joukkueiden	-10831
▁osavaltiossa	-10832
▁ravintolassa	-10833
cus	-10834
ipe	-10835
mot	-10836
nät	-10837
▁58	-10838
▁Kö	-10839
ison	-10840
▁JYP	-10841
▁Pud	-10842
▁lom	-10843
▁puv	-10844
▁Älä	-10845
junen	-10846
ktiiv	-10847
valan	-10848
▁Mail	-10849
▁Utah	-10850
▁kadu	-10851
▁niuk	-10852
▁teet	-10853
▁upea	-10854
iltaan	-10855
kkosuo	-10856
maatio	-10857
uutena	-10858
▁2022,	-10859
▁Tervo	-10860
▁bändi	-10861
▁halve	-10862
▁lihas	-10863
▁museo	-10864
▁näytä	-10865
▁viihd	-10866
iverpoo	-10867
▁ikäluo	-10868
▁kirjaa	-10869
▁myöntä	-10870
▁riskin	-10871
▁virtaa	-10872
▁voiman	-10873
▁juniori	-10874
▁kuluvan	-10875
▁tekemis	-10876
▁tällöin	-10877
▁uksissa	-10878
▁yksikön	-10879
▁hyväksyä	-10880
▁ulkomaan	-10881
▁Kaikkonen	-10882
▁asunnosta	-10883
▁esittelee	-10884
▁käynnistä	-10885
▁myöntänyt	-10886
▁ennakkosuo	-10887
▁kerrostalo	-10888
▁kuulustelu	-10889
▁silminnäki	-10890
▁terroristi	-10891
▁vaikuttaja	-10892
▁yhteistyön	-10893
▁koulutuksen	-10894
▁poliittista	-10895
▁pääsihteeri	-10896
▁riippumatta	-10897
▁tavanomaista	-10898
dea	-10899
▁Bur	-10900
▁Sau	-10901
▁mor	-10902
▁Alko	-10903
▁Mike	-10904
▁Netf	-10905
valtio	-10906
▁Savon	-10907
▁Tilan	-10908
▁diabe	-10909
▁murta	-10910
▁syitä	-10911
▁tapon	-10912
▁Unkari	-10913
▁kultaa	-10914
▁luonte	-10915
▁lännen	-10916
▁pyrkim	-10917
▁vapaan	-10918
llisista	-10919
▁huoneen	-10920
▁kädessä	-10921
▁taposta	-10922
▁viimein	-10923
▁Edmonton	-10924
▁Mercedes	-10925
▁lähtivät	-10926
▁riveissä	-10927
▁viittasi	-10928
▁ajoittain	-10929
▁annettiin	-10930
▁lentokone	-10931
▁menestystä	-10932
▁näkemyksen	-10933
▁työnantaja	-10934
▁investointi	-10935
▁neuvottelut	-10936
▁tapahtumiin	-10937
▁tilaisuuden	-10938
▁tyypillisesti	-10939
▁todellisuudessa	-10940
▁95	-10941
▁be	-10942
Assa	-10943
miel	-10944
teks	-10945
vihr	-10946
▁26,	-10947
▁Myr	-10948
▁loi	-10949
sikki	-10950
▁Entä	-10951
▁Minn	-10952
▁Piis	-10953
▁keik	-10954
elämän	-10955
voiton	-10956
▁Chica	-10957
▁Kreml	-10958
▁hattu	-10959
▁kaiva	-10960
▁kalle	-10961
▁lataa	-10962
▁myydä	-10963
▁Vainio	-10964
▁kisoja	-10965
▁kontro	-10966
▁mattom	-10967
▁pienet	-10968
▁sanoja	-10969
▁suklaa	-10970
udestaan	-10971
▁Netflix	-10972
▁paketti	-10973
▁puhetta	-10974
▁riippuu	-10975
▁ruumiin	-10976
▁tavaraa	-10977
▁uskotta	-10978
▁yleisty	-10979
▁MVPhotos	-10980
▁Vilppaan	-10981
▁arviolta	-10982
▁epäiltyä	-10983
▁säästöjä	-10984
▁Italiassa	-10985
▁nopeammin	-10986
▁tuotannon	-10987
▁Teollisuus	-10988
▁tehtävässä	-10989
▁sairaalahoi	-10990
▁suunnitelmat	-10991
▁Kansainvälinen	-10992
+1	-10993
em	-10994
leh	-10995
luu	-10996
vut	-10997
▁76	-10998
▁KU	-10999
▁do	-11000
gian	-11001
liik	-11002
misa	-11003
poja	-11004
uria	-11005
▁Goo	-11006
▁cup	-11007
mella	-11008
mpänä	-11009
▁Arti	-11010
▁Vanh	-11011
▁tiim	-11012
▁uhan	-11013
aliban	-11014
▁1970-	-11015
▁Tesla	-11016
▁kulma	-11017
▁Kaleva	-11018
▁Määttä	-11019
▁joulua	-11020
▁loppuk	-11021
▁temppu	-11022
▁vaaraa	-11023
▁Ammatti	-11024
▁Tampere	-11025
▁kieltää	-11026
▁tietoon	-11027
▁Liverpoo	-11028
▁korjattu	-11029
▁pettymys	-11030
▁seuraaja	-11031
▁tarkasta	-11032
▁tarvikke	-11033
▁puhelimen	-11034
▁tutkintaa	-11035
▁Tavoitteena	-11036
▁kruununprin	-11037
▁todellakaan	-11038
▁valmentajan	-11039
▁hallitukselle	-11040
▁kansainvälinen	-11041
▁seksuaalisesta	-11042
▁ulkoministeriön	-11043
▁%	-11044
udo	-11045
yyt	-11046
▁Gö	-11047
lään	-11048
▁Cru	-11049
▁Siv	-11050
▁bak	-11051
▁sir	-11052
▁vän	-11053
aalla	-11054
sähkö	-11055
tillä	-11056
viera	-11057
▁Joel	-11058
▁Joku	-11059
▁Uhri	-11060
▁huus	-11061
▁isoa	-11062
▁kuum	-11063
▁olka	-11064
▁pesä	-11065
▁symb	-11066
ittelu	-11067
merkki	-11068
udelta	-11069
▁Varha	-11070
▁globa	-11071
▁hylly	-11072
▁kanad	-11073
▁kasvi	-11074
▁menne	-11075
▁näytö	-11076
▁uhria	-11077
▁vakio	-11078
isemmin	-11079
urheili	-11080
▁hetkiä	-11081
▁llista	-11082
▁nuorta	-11083
▁näyttö	-11084
▁Aurinko	-11085
▁arvelee	-11086
▁hauskaa	-11087
▁hevosen	-11088
▁kenelle	-11089
▁kulunut	-11090
▁suojelu	-11091
▁Carolina	-11092
▁Johannes	-11093
▁Suominen	-11094
▁Venäläis	-11095
▁Videolla	-11096
▁hankinta	-11097
▁hengitys	-11098
▁johdosta	-11099
▁kolmatta	-11100
▁kyydissä	-11101
▁persoona	-11102
▁haltuunsa	-11103
▁saapuivat	-11104
▁menettänyt	-11105
▁kiitollinen	-11106
▁kommentoida	-11107
▁järjestelmää	-11108
▁markkinointi	-11109
▁puolustuksen	-11110
▁tapahtunutta	-11111
joh	-11112
pyn	-11113
uda	-11114
▁Yö	-11115
▁är	-11116
ahon	-11117
alaa	-11118
assi	-11119
geri	-11120
jais	-11121
ment	-11122
pron	-11123
rann	-11124
tere	-11125
ytyä	-11126
▁23,	-11127
▁Fri	-11128
▁Syn	-11129
▁Tom	-11130
▁jur	-11131
▁mia	-11132
jilta	-11133
▁Nais	-11134
▁Peop	-11135
▁dies	-11136
astoin	-11137
inkaan	-11138
▁Pauli	-11139
▁kalus	-11140
▁muovi	-11141
▁saari	-11142
▁Vilpas	-11143
▁jatkoa	-11144
▁muutto	-11145
linnassa	-11146
▁kiristy	-11147
▁kohtasi	-11148
▁puoleen	-11149
▁tekemän	-11150
▁toimiin	-11151
▁yleisöä	-11152
mokraatit	-11153
▁ilmestyi	-11154
▁käyntiin	-11155
▁miehestä	-11156
▁puhemies	-11157
▁ajattelee	-11158
▁lääkkeitä	-11159
▁osaamista	-11160
▁pidempään	-11161
▁pisteellä	-11162
▁salamurha	-11163
▁Pirkanmaan	-11164
▁puolueiden	-11165
▁toisistaan	-11166
▁instituutin	-11167
▁työntekijän	-11168
▁asiantuntijat	-11169
▁Kansanedustaja	-11170
fr	-11171
ph	-11172
gna	-11173
ilyn	-11174
raja	-11175
reut	-11176
▁Ain	-11177
▁Käs	-11178
▁Mba	-11179
▁Sol	-11180
▁Sop	-11181
▁ben	-11182
▁iho	-11183
alien	-11184
kelan	-11185
oitui	-11186
raeli	-11187
▁2012	-11188
▁Andr	-11189
▁Only	-11190
▁Usko	-11191
▁Vara	-11192
▁keli	-11193
▁pure	-11194
▁puus	-11195
▁vaki	-11196
myksen	-11197
▁Pitts	-11198
▁hidas	-11199
▁piire	-11200
estarin	-11201
poliisi	-11202
▁Tanska	-11203
▁näihin	-11204
▁toimiv	-11205
▁valais	-11206
▁antavat	-11207
▁ikäänty	-11208
▁pelistä	-11209
▁tekijät	-11210
▁virasto	-11211
▁virheen	-11212
▁yhdistä	-11213
vuotiaita	-11214
▁Kinnunen	-11215
▁Niskasen	-11216
▁aikaisin	-11217
▁johtajat	-11218
▁järjesty	-11219
▁erilaiset	-11220
▁kuvitella	-11221
▁käyttävät	-11222
▁selvinnyt	-11223
▁siirtynyt	-11224
▁Aleksander	-11225
▁liikkeellä	-11226
▁naimisissa	-11227
▁sekunnissa	-11228
▁seuraamaan	-11229
▁tuloksella	-11230
▁Helsingistä	-11231
▁neljänneksi	-11232
MW	-11233
jar	-11234
jin	-11235
▁Mö	-11236
-202	-11237
ckey	-11238
eeni	-11239
llun	-11240
usar	-11241
▁Bol	-11242
▁Cro	-11243
▁Ikä	-11244
▁Res	-11245
▁Tea	-11246
▁viä	-11247
kkite	-11248
konsa	-11249
ppäri	-11250
tunen	-11251
▁2008	-11252
▁Alue	-11253
▁Enna	-11254
▁Junn	-11255
▁aste	-11256
▁vaad	-11257
isteja	-11258
llalla	-11259
▁Press	-11260
▁Turku	-11261
▁aptee	-11262
▁herku	-11263
▁ltaan	-11264
▁muoti	-11265
▁prons	-11266
▁rajat	-11267
▁tunut	-11268
▁vansa	-11269
▁Barcel	-11270
▁olimme	-11271
▁ylläty	-11272
▁Erikois	-11273
▁Navalny	-11274
▁Puhakka	-11275
▁eläkelä	-11276
▁israeli	-11277
▁jatkoon	-11278
▁käsikir	-11279
▁poistui	-11280
▁väestön	-11281
▁Sosiaali	-11282
▁löydetty	-11283
▁onnistuu	-11284
▁rannalla	-11285
▁toiminna	-11286
▁uudistus	-11287
▁palkinnon	-11288
▁suostunut	-11289
▁vastaavaa	-11290
▁onnellinen	-11291
▁aiheuttavat	-11292
▁suunnittelu	-11293
▁yhteiskunna	-11294
▁Facebookissa	-11295
▁Viranomaiset	-11296
▁haastattelun	-11297
▁henkilökunta	-11298
▁republikaani	-11299
▁urheilijoita	-11300
lue	-11301
nän	-11302
ome	-11303
chin	-11304
line	-11305
ppio	-11306
▁40-	-11307
▁Son	-11308
▁Tys	-11309
▁imp	-11310
mpiin	-11311
ppari	-11312
sseja	-11313
▁2013	-11314
▁Alle	-11315
▁Essa	-11316
▁Kris	-11317
▁Rehn	-11318
▁hier	-11319
▁länn	-11320
▁ruud	-11321
netään	-11322
▁Ahven	-11323
▁Pakar	-11324
▁Simon	-11325
▁ajoin	-11326
▁iskut	-11327
▁isyys	-11328
▁karme	-11329
▁odote	-11330
ikäinen	-11331
valtion	-11332
▁Harryn	-11333
▁Pentti	-11334
▁Tarkoi	-11335
▁juhlat	-11336
▁jäällä	-11337
▁kortti	-11338
▁kuvien	-11339
▁mittaa	-11340
▁roolia	-11341
▁uksiin	-11342
▁hankkia	-11343
▁neeseen	-11344
▁nimensä	-11345
▁porukka	-11346
▁puhuttu	-11347
▁sijasta	-11348
▁useissa	-11349
▁löytyvät	-11350
▁nostanut	-11351
▁ammuttiin	-11352
▁erikoisko	-11353
▁tehtäviin	-11354
▁tunnistaa	-11355
▁kulttuurin	-11356
▁kuukausien	-11357
▁työttömyys	-11358
▁vuorokauden	-11359
▁järjestetyssä	-11360
dit	-11361
gyp	-11362
hmo	-11363
▁NR	-11364
ikuu	-11365
kila	-11366
mmer	-11367
raag	-11368
sali	-11369
tein	-11370
ward	-11371
▁Chr	-11372
▁Lid	-11373
▁meh	-11374
ikkää	-11375
lanti	-11376
rinta	-11377
▁Kaun	-11378
▁abor	-11379
▁hita	-11380
▁ravi	-11381
▁teos	-11382
koista	-11383
vaatio	-11384
▁Juttu	-11385
▁Selvi	-11386
▁hiili	-11387
▁human	-11388
▁lukea	-11389
▁masta	-11390
▁pelas	-11391
▁pojat	-11392
▁taita	-11393
▁varka	-11394
itykset	-11395
▁Hollan	-11396
▁Jarkko	-11397
▁Madrid	-11398
▁Nuoret	-11399
▁lyhyen	-11400
▁potkut	-11401
▁taudin	-11402
▁testaa	-11403
▁tuntua	-11404
▁tuossa	-11405
▁tuulet	-11406
▁vajaat	-11407
▁ääneen	-11408
▁Anttila	-11409
▁Käärijä	-11410
▁Tällöin	-11411
▁edennyt	-11412
▁monessa	-11413
▁uudeksi	-11414
▁Colorado	-11415
▁Kokonais	-11416
▁kaikkiin	-11417
▁kolmessa	-11418
▁Ajattelin	-11419
▁erikoinen	-11420
▁kasvattaa	-11421
▁kiistänyt	-11422
▁osavaltio	-11423
▁rikokseen	-11424
▁saattaisi	-11425
▁Zelenskyin	-11426
▁edellyttää	-11427
▁kuvernööri	-11428
▁pormestari	-11429
▁tapahtumaa	-11430
▁henkilöllis	-11431
▁vaarallinen	-11432
▁ensimmäisestä	-11433
Se	-11434
ld	-11435
off	-11436
irto	-11437
pide	-11438
puli	-11439
roos	-11440
ukki	-11441
▁Lun	-11442
▁Mün	-11443
▁nes	-11444
kamer	-11445
kenee	-11446
kkiin	-11447
kkuus	-11448
▁Hurs	-11449
▁Kolm	-11450
▁Mark	-11451
▁Meks	-11452
▁maja	-11453
▁napa	-11454
kuusta	-11455
▁Kuusa	-11456
▁Pihla	-11457
▁Saari	-11458
▁kasti	-11459
▁kauhe	-11460
▁konta	-11461
▁mille	-11462
▁potku	-11463
▁sisko	-11464
▁tusta	-11465
▁tyrmä	-11466
▁väkeä	-11467
▁väliä	-11468
yttänyt	-11469
▁Essaya	-11470
▁kaunis	-11471
▁kuorma	-11472
▁kykene	-11473
▁luksus	-11474
▁mmaksi	-11475
▁määriä	-11476
▁neista	-11477
▁siirtä	-11478
▁sivuun	-11479
▁toissa	-11480
▁uutuus	-11481
▁vuotia	-11482
kaudella	-11483
kymmentä	-11484
▁Kesällä	-11485
▁ajoissa	-11486
▁loukkaa	-11487
▁lukemat	-11488
▁näkyvät	-11489
▁uksilla	-11490
▁hiihtäjä	-11491
▁häiritse	-11492
▁lähtevät	-11493
▁tehtävää	-11494
▁verkosto	-11495
▁asiakkaat	-11496
▁hirveästi	-11497
▁huoneessa	-11498
▁keskiarvo	-11499
▁kouluampu	-11500
▁kuvattiin	-11501
▁tietoinen	-11502
▁vaaditaan	-11503
▁Hämäläinen	-11504
▁kiinnostaa	-11505
▁opiskelija	-11506
▁keskuksessa	-11507
▁käännytysla	-11508
▁materiaalia	-11509
▁poliittisia	-11510
▁Olympiakomitean	-11511
cky	-11512
rup	-11513
upu	-11514
▁8-	-11515
ästy	-11516
▁22,	-11517
▁23-	-11518
▁lii	-11519
▁pik	-11520
▁Joni	-11521
▁Koke	-11522
▁kuiv	-11523
▁oltu	-11524
▁pann	-11525
▁sien	-11526
▁ylsi	-11527
ittämä	-11528
kangas	-11529
▁Seppä	-11530
▁annos	-11531
▁kahvi	-11532
immistä	-11533
ityksiä	-11534
▁Niistä	-11535
▁Sveits	-11536
▁Tuomio	-11537
▁Yhtiön	-11538
▁Yritys	-11539
▁asuvat	-11540
▁kertyi	-11541
▁kunhan	-11542
▁syyksi	-11543
▁Lääkäri	-11544
▁Pelican	-11545
▁diploma	-11546
▁hoitaja	-11547
▁kestävä	-11548
▁menneet	-11549
▁metalli	-11550
▁mieliku	-11551
▁mittaan	-11552
▁ohjeita	-11553
▁ottelut	-11554
▁painetta	-11555
▁peleissä	-11556
▁riippuen	-11557
▁räjähdys	-11558
▁videolta	-11559
▁elämäänsä	-11560
▁kohtaavat	-11561
▁Australian	-11562
▁jouduttiin	-11563
▁kolmannessa	-11564
▁keskusteluun	-11565
▁valitettavasti	-11566
daa	-11567
hei	-11568
mpiä	-11569
▁29,	-11570
▁60-	-11571
▁Alu	-11572
▁Ley	-11573
▁inä	-11574
▁rep	-11575
Matti	-11576
laaju	-11577
neena	-11578
▁Iivo	-11579
▁Luki	-11580
▁Simo	-11581
▁Sing	-11582
▁hämä	-11583
▁kore	-11584
▁pomo	-11585
▁Jarmo	-11586
▁Jyrki	-11587
▁Stora	-11588
▁Vegas	-11589
▁Youtu	-11590
▁asele	-11591
▁etsiä	-11592
▁kuuma	-11593
▁tempa	-11594
▁toisi	-11595
sivusto	-11596
▁Loimaa	-11597
▁Yhteis	-11598
▁kielto	-11599
▁puheet	-11600
▁seksiä	-11601
▁töiden	-11602
▁joitain	-11603
▁misella	-11604
▁pysynyt	-11605
▁yleistä	-11606
▁Heikkilä	-11607
▁hävinnyt	-11608
▁rikollis	-11609
▁tarkoita	-11610
▁Joukkueen	-11611
▁johtajana	-11612
▁prosessin	-11613
poliittisen	-11614
▁katsomassa	-11615
▁materiaali	-11616
▁ministerin	-11617
▁valiokunta	-11618
▁täydellinen	-11619
▁valtioviera	-11620
▁viimeisellä	-11621
▁alkuvuodesta	-11622
▁sähköpostitse	-11623
Ha	-11624
oik	-11625
▁59	-11626
borg	-11627
cros	-11628
intä	-11629
mena	-11630
vään	-11631
▁Etu	-11632
▁Räs	-11633
eissa	-11634
misiä	-11635
västä	-11636
▁2011	-11637
▁Kori	-11638
▁Lumi	-11639
▁Riku	-11640
▁Tomi	-11641
▁nöyr	-11642
▁siin	-11643
tuomio	-11644
▁Louis	-11645
▁pysyi	-11646
▁säätä	-11647
▁tasoa	-11648
▁tunnu	-11649
▁tältä	-11650
uuksiin	-11651
▁Sieltä	-11652
▁aamuyö	-11653
▁aikuis	-11654
▁asemaa	-11655
▁enimmä	-11656
▁lähemm	-11657
▁ruumis	-11658
▁sateen	-11659
▁studio	-11660
▁teiden	-11661
▁toivon	-11662
▁tuulen	-11663
järvellä	-11664
▁Räsänen	-11665
▁ennuste	-11666
▁ilmenee	-11667
▁jäseniä	-11668
▁putkeen	-11669
▁rajalla	-11670
▁stressi	-11671
▁Hamilton	-11672
▁edellyty	-11673
▁johdossa	-11674
▁kaupasta	-11675
▁konkreet	-11676
▁osapuoli	-11677
▁tiloihin	-11678
▁tutkijat	-11679
▁vakuutti	-11680
▁yksimiel	-11681
▁Palestiin	-11682
▁ajattelin	-11683
▁harvinais	-11684
▁keskeinen	-11685
▁konsertti	-11686
▁toisinaan	-11687
▁täyssähkö	-11688
▁välikohta	-11689
▁mieluummin	-11690
▁paikkakunn	-11691
▁viimeisenä	-11692
▁kiinteistön	-11693
▁alkupuolella	-11694
▁järjestyksen	-11695
▁olympiakomite	-11696
▁olympiavoittaja	-11697
35	-11698
ye	-11699
euv	-11700
miö	-11701
see	-11702
tiaa	-11703
▁Hoi	-11704
▁Mes	-11705
▁Pra	-11706
▁tis	-11707
ergia	-11708
kkaus	-11709
kseni	-11710
ppäsi	-11711
▁Cana	-11712
▁Pasi	-11713
▁oles	-11714
▁varj	-11715
assaan	-11716
atteri	-11717
kkanen	-11718
ydestä	-11719
▁Tuuli	-11720
▁Uutis	-11721
▁hyökä	-11722
▁isena	-11723
▁jäähy	-11724
▁kysyä	-11725
▁maase	-11726
▁oppim	-11727
▁päätä	-11728
▁vasti	-11729
▁äänes	-11730
▁äänet	-11731
istossa	-11732
▁George	-11733
▁Minnes	-11734
▁Sauber	-11735
▁isestä	-11736
▁koostu	-11737
▁myöten	-11738
▁painon	-11739
▁sateet	-11740
▁tehdys	-11741
▁trendi	-11742
▁työnsä	-11743
▁vamman	-11744
▁väisty	-11745
elokuvan	-11746
lercreut	-11747
▁jäsentä	-11748
▁kuolema	-11749
▁kärkeen	-11750
▁maaleja	-11751
▁nimessä	-11752
▁pintaan	-11753
▁pukeutu	-11754
▁uhriksi	-11755
▁Aaltonen	-11756
▁Panthers	-11757
▁johonkin	-11758
▁olevasta	-11759
▁vangittu	-11760
▁Itävallan	-11761
▁ehdokasta	-11762
▁kehitystä	-11763
▁liittyvän	-11764
▁säilyttää	-11765
▁katastrofi	-11766
▁urheilijat	-11767
▁pohjoisessa	-11768
▁yliopistossa	-11769
▁mahdollisesta	-11770
▁kansainvälistä	-11771
▁ulkoministeriö	-11772
Van	-11773
lie	-11774
nos	-11775
tiä	-11776
uka	-11777
▁9-	-11778
enka	-11779
gner	-11780
joki	-11781
kapp	-11782
mmän	-11783
spir	-11784
utis	-11785
▁rap	-11786
telta	-11787
▁mein	-11788
mmassa	-11789
▁osake	-11790
▁teema	-11791
▁äänen	-11792
▁Heistä	-11793
▁Kuinka	-11794
▁Taiwan	-11795
▁paperi	-11796
▁vienyt	-11797
viikosta	-11798
▁alainen	-11799
▁kylässä	-11800
▁sisälle	-11801
▁sopivat	-11802
▁talvena	-11803
▁Viimeksi	-11804
▁energian	-11805
▁kirjattu	-11806
▁kokeilla	-11807
▁koulujen	-11808
▁suuressa	-11809
▁aikuisten	-11810
▁helpottaa	-11811
▁ihmetteli	-11812
▁kunniaksi	-11813
▁tekeminen	-11814
ityksessään	-11815
▁Adlercreut	-11816
▁käsittelee	-11817
▁polttoaine	-11818
▁työllisyys	-11819
▁kansalaisten	-11820
▁kilpailuissa	-11821
▁hyökkäyssodan	-11822
▁perinteisesti	-11823
Es	-11824
fo	-11825
gg	-11826
dar	-11827
myy	-11828
▁64	-11829
anin	-11830
eeta	-11831
mela	-11832
rejä	-11833
vies	-11834
▁Bre	-11835
▁Ski	-11836
▁TTK	-11837
▁Vah	-11838
▁Vel	-11839
▁div	-11840
kisti	-11841
niemi	-11842
stein	-11843
▁kaus	-11844
▁seis	-11845
▁suoj	-11846
▁täyt	-11847
▁veli	-11848
▁Franc	-11849
▁Perni	-11850
▁Saudi	-11851
▁Vaasa	-11852
▁kehon	-11853
▁maino	-11854
▁gallup	-11855
▁iltaan	-11856
▁mahtuu	-11857
▁neelle	-11858
▁rutiin	-11859
▁räjähd	-11860
▁useaan	-11861
kumppani	-11862
▁Latvian	-11863
▁hautaja	-11864
▁juhlien	-11865
▁panosta	-11866
▁ravitse	-11867
▁saaneen	-11868
▁toisiin	-11869
▁Israelia	-11870
▁Vornasen	-11871
▁Williams	-11872
▁asuntoon	-11873
▁kaikessa	-11874
▁katsojaa	-11875
▁kuolemaa	-11876
▁odotettu	-11877
▁koripallo	-11878
▁norjalais	-11879
▁vastustaa	-11880
▁Olympiasta	-11881
▁odottamaan	-11882
▁seurakunta	-11883
▁paikallisen	-11884
▁rahoituksen	-11885
▁runkosarjan	-11886
▁hyvinvoinnin	-11887
▁yksityiskohtia	-11888
▁yleisradioyhtiö	-11889
juh	-11890
kyn	-11891
▁Pl	-11892
▁Rö	-11893
▁SV	-11894
Euro	-11895
arja	-11896
atsa	-11897
idin	-11898
iriö	-11899
mori	-11900
seja	-11901
öity	-11902
▁Cen	-11903
▁Gri	-11904
▁Het	-11905
▁Suv	-11906
kulku	-11907
▁2007	-11908
▁infe	-11909
▁reun	-11910
▁vase	-11911
▁vihj	-11912
▁Atlan	-11913
▁Paula	-11914
▁hitti	-11915
▁kumma	-11916
▁pelko	-11917
▁seiso	-11918
▁taulu	-11919
▁vedon	-11920
▁velka	-11921
immiten	-11922
▁Lapset	-11923
▁Seudun	-11924
▁Tiedän	-11925
▁alueet	-11926
▁analyy	-11927
▁juusto	-11928
▁moneen	-11929
▁palaut	-11930
▁päihde	-11931
▁rikkoi	-11932
▁skanda	-11933
▁uhrien	-11934
▁Espanja	-11935
▁Viestin	-11936
▁arkisto	-11937
▁lähistö	-11938
ystävänsä	-11939
▁Itävalta	-11940
▁Sunnunta	-11941
▁alueille	-11942
▁kadonnut	-11943
▁kaupunge	-11944
▁naiselle	-11945
▁opiskelu	-11946
▁päivysty	-11947
▁Tapahtuma	-11948
▁demokraat	-11949
▁kirjoitus	-11950
▁klassikko	-11951
▁metsästys	-11952
▁palveluja	-11953
▁saatetaan	-11954
▁tarkastus	-11955
▁valmistui	-11956
▁asianajaja	-11957
▁kannattaja	-11958
▁kirjassaan	-11959
▁lopputulos	-11960
▁Seuraavaksi	-11961
▁pidätettiin	-11962
▁seurakunnan	-11963
▁keskustelussa	-11964
▁minkäänlaista	-11965
år	-11966
ath	-11967
etr	-11968
nia	-11969
▁Tw	-11970
tela	-11971
yhte	-11972
▁Vin	-11973
▁bon	-11974
▁här	-11975
▁kyp	-11976
▁ses	-11977
kansl	-11978
kkeli	-11979
kkoon	-11980
tilaa	-11981
▁Beir	-11982
▁Golf	-11983
▁Kyll	-11984
▁Puna	-11985
▁Sund	-11986
▁aita	-11987
▁elän	-11988
▁hank	-11989
▁kiri	-11990
▁kite	-11991
▁lang	-11992
▁ovet	-11993
▁rivi	-11994
▁spon	-11995
▁sääd	-11996
Euroop	-11997
ottaja	-11998
▁Santa	-11999
▁Schol	-12000
▁erosi	-12001
▁kauko	-12002
▁kulis	-12003
▁kykyä	-12004
▁leveä	-12005
▁pettä	-12006
▁soker	-12007
▁tulen	-12008
▁tuota	-12009
▁Harala	-12010
▁People	-12011
▁Viapla	-12012
▁asettu	-12013
▁elemen	-12014
▁kiertä	-12015
▁kärsii	-12016
▁muusta	-12017
▁toivoa	-12018
▁vähenn	-12019
▁Tanssii	-12020
▁dramaat	-12021
▁kaapeli	-12022
▁puuttua	-12023
▁valitta	-12024
▁hoidossa	-12025
▁joukosta	-12026
▁katsottu	-12027
▁kuuluvan	-12028
▁kärjessä	-12029
▁ohjuksia	-12030
▁sijoittu	-12031
▁valtaosa	-12032
▁varautua	-12033
▁virheitä	-12034
▁Finnairin	-12035
▁Netanjahu	-12036
▁esittänyt	-12037
▁käytännön	-12038
▁lähtemään	-12039
▁puistossa	-12040
▁kokoukseen	-12041
▁valmistettu	-12042
▁vastustajan	-12043
▁teollisuuden	-12044
▁Uutistoimisto	-12045
▁lausunnossaan	-12046
▁työskentelevä	-12047
▁vuosikymmenen	-12048
▁Neuvostoliiton	-12049
tv	-12050
bal	-12051
gia	-12052
tim	-12053
▁51	-12054
▁ok	-12055
▁ui	-12056
usut	-12057
ylän	-12058
▁fil	-12059
▁fin	-12060
▁lun	-12061
▁nap	-12062
kkari	-12063
pelaa	-12064
äänsä	-12065
▁Bill	-12066
▁Pere	-12067
▁iloa	-12068
▁luva	-12069
▁suke	-12070
palkin	-12071
▁Arsen	-12072
▁Ruusu	-12073
▁Touko	-12074
▁Venez	-12075
▁myrsk	-12076
▁sävel	-12077
tapahtu	-12078
▁Eniten	-12079
▁Heillä	-12080
▁Seiska	-12081
▁aamuna	-12082
▁ammati	-12083
▁puolin	-12084
▁päältä	-12085
▁ruuhka	-12086
▁seurus	-12087
▁vaihde	-12088
▁veteen	-12089
asemalla	-12090
tuksensa	-12091
▁Berliin	-12092
▁Putinia	-12093
▁isännöi	-12094
▁päiväsa	-12095
▁sinänsä	-12096
▁tarinan	-12097
▁tehtaan	-12098
isuudessa	-12099
mitalisti	-12100
▁kyseinen	-12101
▁puhdista	-12102
▁pyrkinyt	-12103
▁sääntöjä	-12104
▁tiukasti	-12105
▁Kaikkiaan	-12106
▁Lontoossa	-12107
▁edustanut	-12108
▁ennusteen	-12109
▁komission	-12110
▁kuluttaja	-12111
▁matkustaa	-12112
▁ongelmien	-12113
▁paikoista	-12114
▁ratkaista	-12115
▁vankeutta	-12116
▁vieläkään	-12117
▁yhdistelmä	-12118
▁ympäristön	-12119
▁haastatteli	-12120
▁helikopteri	-12121
▁kannattaisi	-12122
▁käsittelyyn	-12123
▁politiikasta	-12124
▁rauhallisesti	-12125
▁>	-12126
önä	-12127
▁VR	-12128
▁sh	-12129
veen	-12130
vesi	-12131
▁17,	-12132
▁Aku	-12133
▁Dup	-12134
▁Pin	-12135
▁Sot	-12136
▁ovi	-12137
dalle	-12138
isalo	-12139
▁Amaz	-12140
▁Eräs	-12141
▁Wood	-12142
▁etel	-12143
▁kita	-12144
▁make	-12145
▁pano	-12146
▁varr	-12147
▁viiv	-12148
detaan	-12149
▁Hakan	-12150
▁Pelaa	-12151
▁Tulos	-12152
▁Viera	-12153
▁etsii	-12154
▁kohda	-12155
▁liput	-12156
▁pullo	-12157
▁solmi	-12158
▁ukkos	-12159
▁voitu	-12160
paikkaa	-12161
▁Kolmas	-12162
▁Rydman	-12163
▁Vaasan	-12164
▁Willia	-12165
▁asukas	-12166
▁partio	-12167
▁pääoma	-12168
▁tuksen	-12169
▁vaihtu	-12170
▁ilmassa	-12171
▁jaetaan	-12172
▁kävivät	-12173
▁työehto	-12174
▁ukselle	-12175
▁Suomenla	-12176
▁etelässä	-12177
▁maksetta	-12178
▁ulkonäkö	-12179
▁voimakas	-12180
▁Hollannin	-12181
▁isuudesta	-12182
▁kohdistuu	-12183
▁pitävänsä	-12184
▁saksalais	-12185
▁sanotusti	-12186
▁sotilasta	-12187
▁tärkeintä	-12188
▁hyökkäystä	-12189
▁käsityksen	-12190
▁tunnetuksi	-12191
▁välityksellä	-12192
ct	-12193
kt	-12194
chi	-12195
yrä	-12196
▁Pr	-12197
ette	-12198
haki	-12199
ihuo	-12200
iluo	-12201
maal	-12202
rans	-12203
▁21,	-12204
▁Här	-12205
▁Sul	-12206
▁and	-12207
ikköä	-12208
lasku	-12209
misti	-12210
simme	-12211
tukse	-12212
▁Jopa	-12213
▁Kone	-12214
▁Puus	-12215
kierro	-12216
tuloja	-12217
▁Jutta	-12218
▁Kanta	-12219
▁Kirsi	-12220
▁Sodan	-12221
▁halus	-12222
▁hampa	-12223
▁lakot	-12224
▁maita	-12225
▁palan	-12226
▁piden	-12227
▁taksi	-12228
▁takti	-12229
matonta	-12230
täväksi	-12231
urainen	-12232
vastoin	-12233
▁Niklas	-12234
▁Näiden	-12235
▁Yleisö	-12236
▁Yorkin	-12237
▁ampuja	-12238
▁kurssi	-12239
▁loppuu	-12240
▁uusiin	-12241
▁Ahvenan	-12242
▁Camilla	-12243
▁Johnson	-12244
▁Kaarina	-12245
▁Kapanen	-12246
▁Lähteet	-12247
▁perusti	-12248
▁sanojen	-12249
▁sarjaan	-12250
▁vihreät	-12251
▁Itämeren	-12252
▁Koivisto	-12253
▁päivästä	-12254
▁skenaari	-12255
▁väitteet	-12256
▁arvioivat	-12257
▁joutuivat	-12258
▁jättämään	-12259
▁kutsutaan	-12260
▁kuulostaa	-12261
▁muistutta	-12262
▁nyrkkeily	-12263
▁paikoissa	-12264
▁ongelmista	-12265
▁ruokavalio	-12266
▁vahingossa	-12267
▁henkilöiden	-12268
▁artikkelissa	-12269
▁toimenpiteitä	-12270
▁maajoukkueessa	-12271
▁taloudellisesti	-12272
45	-12273
Ei	-12274
Hä	-12275
rää	-12276
tyt	-12277
yli	-12278
ight	-12279
ihan	-12280
ikäs	-12281
ilut	-12282
tiön	-12283
tuen	-12284
utun	-12285
▁28,	-12286
▁Bru	-12287
▁Com	-12288
▁Lim	-12289
▁Spe	-12290
▁Stu	-12291
▁Veh	-12292
koita	-12293
liike	-12294
nyttä	-12295
tansa	-12296
yleis	-12297
▁Chan	-12298
▁Nash	-12299
▁Tava	-12300
▁Ystä	-12301
▁vala	-12302
koilla	-12303
▁Lapsi	-12304
▁Villa	-12305
▁cupin	-12306
▁kulun	-12307
▁telee	-12308
▁tupla	-12309
aleihin	-12310
▁Liigan	-12311
▁Piikki	-12312
▁Republ	-12313
▁hetkeä	-12314
▁lumisa	-12315
▁lähdön	-12316
▁protes	-12317
▁runsas	-12318
▁suoran	-12319
▁systee	-12320
▁tehdas	-12321
▁tilapä	-12322
▁tykkää	-12323
▁vastan	-12324
▁katsoja	-12325
▁sateita	-12326
▁treenaa	-12327
▁uusista	-12328
▁uutisen	-12329
järjestön	-12330
kilpailun	-12331
▁asioissa	-12332
▁hetkessä	-12333
▁muokattu	-12334
▁toimesta	-12335
▁Keskustan	-12336
▁elinkeino	-12337
▁inflaatio	-12338
▁kommentit	-12339
▁legendaar	-12340
▁saattanut	-12341
▁virkamies	-12342
mokraattien	-12343
▁Schumacher	-12344
▁kieltäytyi	-12345
▁rattijuopu	-12346
▁sopimuksesta	-12347
▁suunnitellut	-12348
▁yksityiskohta	-12349
▁verkkosivuilla	-12350
puu	-12351
▁42	-12352
▁ME	-12353
▁äi	-12354
tasa	-12355
toni	-12356
▁13,	-12357
▁ABC	-12358
▁Afr	-12359
▁Dis	-12360
▁Les	-12361
▁Ogi	-12362
▁SSS	-12363
▁Tus	-12364
▁nar	-12365
▁näl	-12366
biili	-12367
imäki	-12368
isinä	-12369
jilla	-12370
kseli	-12371
▁2006	-12372
▁Ivan	-12373
▁rasi	-12374
▁savu	-12375
▁sääs	-12376
▁trag	-12377
päivys	-12378
▁Jessi	-12379
▁Leena	-12380
▁Tarja	-12381
▁ahker	-12382
▁biisi	-12383
▁harha	-12384
▁hiihd	-12385
▁häviä	-12386
▁kiihd	-12387
▁neita	-12388
▁totea	-12389
▁traag	-12390
▁viere	-12391
ineiden	-12392
tuomari	-12393
unnossa	-12394
▁Elisab	-12395
▁Elämän	-12396
▁Kauden	-12397
▁Vanhan	-12398
▁käsiin	-12399
▁motiiv	-12400
▁ratsas	-12401
▁viihde	-12402
kentällä	-12403
▁haastaa	-12404
▁kyselyn	-12405
▁lähteen	-12406
▁mittaus	-12407
▁Joensuun	-12408
▁Kyllähän	-12409
▁Telegram	-12410
▁arvokisa	-12411
▁koskevan	-12412
▁ohjelmis	-12413
▁säilyttä	-12414
▁tasapain	-12415
▁useammin	-12416
▁hyväksikä	-12417
▁kenenkään	-12418
▁näyttäisi	-12419
▁peräkkäin	-12420
▁rekisteri	-12421
▁suhtautuu	-12422
▁valkoinen	-12423
▁vastaavat	-12424
▁vauhdilla	-12425
▁väitetään	-12426
▁käytettiin	-12427
▁miettimään	-12428
▁urheilijan	-12429
▁valmistelu	-12430
▁pitkäaikais	-12431
▁tiedustelup	-12432
▁toimittajat	-12433
▁suunnittelee	-12434
▁maailmanlaaju	-12435
ey	-12436
▁69	-12437
▁Sp	-12438
Arab	-12439
ivas	-12440
rade	-12441
torj	-12442
▁10,	-12443
▁14-	-12444
▁Dra	-12445
▁HPK	-12446
▁Ves	-12447
areen	-12448
other	-12449
ttejä	-12450
▁Esko	-12451
▁Olga	-12452
▁Sand	-12453
▁esti	-12454
▁pane	-12455
▁ponn	-12456
astaja	-12457
ilevat	-12458
kaappa	-12459
korkea	-12460
udeksi	-12461
▁Koleh	-12462
▁Orban	-12463
▁Tähti	-12464
▁lukio	-12465
▁mättä	-12466
▁sujui	-12467
ulaisen	-12468
▁Matthe	-12469
▁Olimme	-12470
▁euroja	-12471
▁inspir	-12472
▁itseni	-12473
▁juhlia	-12474
▁kolmea	-12475
▁ryöstö	-12476
▁sanoen	-12477
▁tennis	-12478
▁Stubbia	-12479
▁Virossa	-12480
▁Yhdessä	-12481
▁aluksen	-12482
▁hautaus	-12483
▁loppuot	-12484
▁olisiko	-12485
▁poliise	-12486
▁romahta	-12487
▁tarjosi	-12488
▁tuminen	-12489
▁Englanti	-12490
▁Kyseinen	-12491
▁käytäntö	-12492
▁pyöräily	-12493
▁toimivan	-12494
▁keskeyttä	-12495
▁päätökset	-12496
▁Moskovassa	-12497
▁enemmänkin	-12498
▁asiakkaille	-12499
▁harvinaisen	-12500
▁viimeisessä	-12501
▁mielipiteitä	-12502
▁päävalmentajana	-12503
blo	-12504
eda	-12505
ysy	-12506
▁OP	-12507
pina	-12508
uoka	-12509
▁193	-12510
▁80-	-12511
▁Jac	-12512
▁Ori	-12513
▁Sea	-12514
▁aku	-12515
▁huh	-12516
▁jia	-12517
▁rai	-12518
ilevä	-12519
lämpö	-12520
toman	-12521
▁Finn	-12522
▁Kivi	-12523
▁Kova	-12524
▁entu	-12525
▁ykkö	-12526
ivuoro	-12527
saatio	-12528
tisivu	-12529
▁Henna	-12530
▁KalPa	-12531
▁droon	-12532
▁luoki	-12533
▁näkyä	-12534
▁tanss	-12535
▁Jasmin	-12536
▁Mitään	-12537
▁Rooman	-12538
▁listan	-12539
▁pituus	-12540
▁sabota	-12541
▁tetaan	-12542
▁tyyppi	-12543
▁täsmen	-12544
▁töistä	-12545
▁voimin	-12546
▁yllään	-12547
▁hirveän	-12548
▁hyppäsi	-12549
▁kodissa	-12550
▁korjata	-12551
▁korosta	-12552
▁psykiat	-12553
▁uusiksi	-12554
▁ykkönen	-12555
▁ystävän	-12556
neuvoston	-12557
▁ennenkin	-12558
▁kuultiin	-12559
▁laajalti	-12560
▁muisteli	-12561
▁oululais	-12562
▁pelaavat	-12563
▁remontti	-12564
▁yritystä	-12565
▁lähdetään	-12566
▁sensaatio	-12567
▁Pelicansin	-12568
▁hälytyksen	-12569
▁ministeriö	-12570
▁palvelujen	-12571
▁puoluekoko	-12572
▁vastaamaan	-12573
▁Libanonissa	-12574
▁Suomalaisen	-12575
▁kaupungista	-12576
▁valmentajana	-12577
jul	-12578
lls	-12579
rna	-12580
sey	-12581
syl	-12582
▁co	-12583
▁ts	-12584
llaa	-12585
sian	-12586
sään	-12587
ukot	-12588
▁Lee	-12589
▁Ron	-12590
empaa	-12591
kissä	-12592
rikos	-12593
▁Eeva	-12594
▁Joha	-12595
▁Mona	-12596
▁Rita	-12597
▁Sano	-12598
lander	-12599
teossa	-12600
▁2020-	-12601
▁Argen	-12602
▁Farmi	-12603
▁Milan	-12604
▁Sarja	-12605
▁Volks	-12606
▁eskal	-12607
▁hurja	-12608
▁iskeä	-12609
▁jille	-12610
▁kurin	-12611
▁latti	-12612
▁nimiä	-12613
▁nosto	-12614
▁opera	-12615
▁porta	-12616
▁tuken	-12617
▁Maahan	-12618
▁Täytyy	-12619
▁hammas	-12620
▁isiksi	-12621
▁käveli	-12622
vuotiaat	-12623
▁Lisätty	-12624
▁huijaus	-12625
▁jollain	-12626
▁käsitys	-12627
▁lapsena	-12628
▁monissa	-12629
▁muutkin	-12630
▁suhteet	-12631
▁voineet	-12632
▁Rakennus	-12633
▁eläinten	-12634
▁hetkeksi	-12635
▁hintojen	-12636
▁kuljetus	-12637
▁lapsista	-12638
▁tuntunut	-12639
terapeutti	-12640
▁itselleni	-12641
▁kaupunkia	-12642
▁kustannus	-12643
▁nukkumaan	-12644
▁päättynyt	-12645
▁Huuhkajien	-12646
▁osavaltion	-12647
▁pisteeseen	-12648
▁runkosarja	-12649
▁Tuppurainen	-12650
▁perinteinen	-12651
▁tulevaisuus	-12652
▁Britanniassa	-12653
▁positiivinen	-12654
▁runkosarjassa	-12655
▁Fl	-12656
▁äl	-12657
guin	-12658
oppa	-12659
väen	-12660
▁90-	-12661
▁Bon	-12662
▁Noo	-12663
▁Pun	-12664
▁alt	-12665
▁äki	-12666
liito	-12667
▁Ehdo	-12668
▁Heti	-12669
▁Linn	-12670
▁Numm	-12671
▁Rauh	-12672
▁imme	-12673
▁laid	-12674
▁tune	-12675
kkäsen	-12676
llossa	-12677
▁Maija	-12678
▁Nuori	-12679
▁Talvi	-12680
▁liber	-12681
▁palom	-12682
▁tonti	-12683
▁tunke	-12684
▁Keskis	-12685
▁Postin	-12686
▁Yrittä	-12687
▁erotta	-12688
▁hiukan	-12689
▁jatkos	-12690
▁leijon	-12691
▁levisi	-12692
▁pöydän	-12693
▁romaan	-12694
▁teemme	-12695
▁välein	-12696
ltavasti	-12697
onnettom	-12698
▁Bryssel	-12699
▁kanslia	-12700
▁korkeus	-12701
▁käsittä	-12702
▁kääntää	-12703
▁romahti	-12704
▁ylivoim	-12705
prosentti	-12706
puolustus	-12707
▁haastava	-12708
▁perhettä	-12709
▁piirissä	-12710
▁taiteili	-12711
▁valmiina	-12712
▁veljensä	-12713
▁voitolla	-12714
▁Heikkinen	-12715
▁Hollywood	-12716
▁Viertolan	-12717
▁keskeytti	-12718
▁maailmaan	-12719
▁maksetaan	-12720
▁perustaja	-12721
▁saavuttaa	-12722
▁ambulanssi	-12723
▁omaisuutta	-12724
▁tapaukseen	-12725
▁käsiteltiin	-12726
▁mahdollisen	-12727
▁merkittävää	-12728
▁Valtiovarain	-12729
▁kustannuksia	-12730
▁ruotsalainen	-12731
▁senttimetriä	-12732
▁suunnitelmia	-12733
▁yksityiskohd	-12734
▁äänestyksessä	-12735
dol	-12736
▁du	-12737
▁fo	-12738
eera	-12739
ffic	-12740
isio	-12741
ness	-12742
▁1,7	-12743
▁Rii	-12744
▁Rod	-12745
▁SVT	-12746
▁Väl	-12747
▁den	-12748
erkko	-12749
ittoa	-12750
kuski	-12751
verin	-12752
wagen	-12753
▁Ahti	-12754
▁Kisa	-12755
▁Stol	-12756
▁Teko	-12757
▁velj	-12758
maissa	-12759
taansa	-12760
tappio	-12761
tyneen	-12762
▁Sirpa	-12763
▁Virkk	-12764
▁ammus	-12765
▁hoiva	-12766
▁reita	-12767
▁saldo	-12768
▁sinun	-12769
ikäteen	-12770
ittojen	-12771
▁harmit	-12772
▁hauska	-12773
▁herkku	-12774
▁kelpaa	-12775
▁kutsua	-12776
▁kuudes	-12777
▁muuhun	-12778
▁rengas	-12779
▁saamme	-12780
▁silmän	-12781
▁tekemä	-12782
▁tiedän	-12783
▁Lappiin	-12784
▁innostu	-12785
▁läheltä	-12786
▁tunnetu	-12787
▁Vuorinen	-12788
▁kokoontu	-12789
▁nostettu	-12790
▁näyttele	-12791
▁rikosepä	-12792
▁risteily	-12793
▁terveysa	-12794
▁vieläkin	-12795
▁kiinalais	-12796
▁monimuoto	-12797
▁kulttuuria	-12798
▁pelaaminen	-12799
▁pukeutunut	-12800
▁ehdokkaiden	-12801
▁kansalaisia	-12802
▁kuvauksissa	-12803
▁vaatimukset	-12804
▁Ruotsalainen	-12805
▁entuudestaan	-12806
▁pahoinpitely	-12807
▁moottoripyörä	-12808
Li	-12809
RC	-12810
dal	-12811
iho	-12812
ith	-12813
mara	-12814
ttis	-12815
urio	-12816
▁900	-12817
▁BMW	-12818
▁Cap	-12819
▁Ola	-12820
▁Tro	-12821
▁Uot	-12822
▁hyy	-12823
▁juu	-12824
ennis	-12825
kieli	-12826
umero	-12827
▁ISTV	-12828
▁Perä	-12829
▁Shar	-12830
▁kylp	-12831
▁nnin	-12832
▁samo	-12833
▁ylpe	-12834
dionin	-12835
iladel	-12836
▁Viita	-12837
▁kseni	-12838
▁oppil	-12839
▁riita	-12840
▁roole	-12841
▁tarkk	-12842
▁tehdy	-12843
eillään	-12844
▁Korkea	-12845
▁Neljän	-12846
▁Poikke	-12847
▁Toveri	-12848
▁inhimi	-12849
▁laskel	-12850
▁mitale	-12851
▁tapana	-12852
▁teosta	-12853
▁tulehd	-12854
▁Kosonen	-12855
▁Kotimaa	-12856
▁sentään	-12857
ikoksista	-12858
▁Kyllönen	-12859
▁Philadel	-12860
▁jatkunut	-12861
▁miehellä	-12862
▁pakolais	-12863
▁tunnetun	-12864
▁vaatimus	-12865
▁vaatteet	-12866
▁ystävien	-12867
▁auttamaan	-12868
▁hylättiin	-12869
▁kuntosali	-12870
▁liittyvää	-12871
▁vaihtoehd	-12872
▁vastuulla	-12873
▁Volkswagen	-12874
▁lähettänyt	-12875
▁Hakkarainen	-12876
▁harjoittelu	-12877
▁huolestutta	-12878
▁esitutkinnan	-12879
▁odotettavissa	-12880
▁toimittajille	-12881
▁toivottavasti	-12882
RP	-12883
bla	-12884
ote	-12885
ivel	-12886
juus	-12887
uman	-12888
vain	-12889
▁20,	-12890
▁Cal	-12891
▁Nim	-12892
▁Wol	-12893
▁hyv	-12894
▁kit	-12895
▁mei	-12896
innot	-12897
pitsa	-12898
puolu	-12899
▁Eikö	-12900
▁Elin	-12901
▁Hien	-12902
▁Kroa	-12903
▁Leon	-12904
▁Nina	-12905
▁kuoh	-12906
▁köyh	-12907
▁latu	-12908
▁teli	-12909
▁uraa	-12910
▁vako	-12911
▁vale	-12912
eremon	-12913
sylvan	-12914
teissä	-12915
▁Saman	-12916
▁kauhu	-12917
▁keven	-12918
▁löytö	-12919
▁panos	-12920
▁posta	-12921
▁rekry	-12922
▁tettu	-12923
▁valoa	-12924
aisivat	-12925
▁Italia	-12926
▁Laakso	-12927
▁Perttu	-12928
▁Puolue	-12929
▁Sanoin	-12930
▁mukais	-12931
▁tiukka	-12932
▁viileä	-12933
▁yliopp	-12934
▁Tornion	-12935
▁aidosti	-12936
▁hyvissä	-12937
▁hälytys	-12938
▁johtama	-12939
▁kertaan	-12940
▁koriste	-12941
▁mitattu	-12942
▁puhuvat	-12943
▁riskejä	-12944
▁siirtyä	-12945
▁tekijän	-12946
▁uskonut	-12947
▁havainto	-12948
▁metrillä	-12949
▁muodostu	-12950
▁paineita	-12951
▁suhdetta	-12952
▁vuorossa	-12953
▁huomautti	-12954
▁hyödyntää	-12955
▁oikeuksia	-12956
▁suhteesta	-12957
▁vahinkoja	-12958
▁vietetään	-12959
▁Valmentaja	-12960
▁esiintymis	-12961
▁kunnioitta	-12962
▁tekemiseen	-12963
▁harvinainen	-12964
▁kokonaisuus	-12965
▁mahdolliset	-12966
▁tavoittanut	-12967
▁parikymmentä	-12968
▁presidenttiä	-12969
▁loppupuolella	-12970
",	-12971
cy	-12972
kp	-12973
ior	-12974
▁AP	-12975
▁UN	-12976
gare	-12977
llot	-12978
▁1,8	-12979
▁16,	-12980
▁180	-12981
▁70-	-12982
▁Ilo	-12983
▁Kle	-12984
▁Suh	-12985
▁Wir	-12986
▁gen	-12987
▁mop	-12988
▁nne	-12989
▁tit	-12990
itaar	-12991
kisto	-12992
könen	-12993
▁Syyt	-12994
▁Valo	-12995
▁Yhty	-12996
▁anne	-12997
▁mega	-12998
▁Hrade	-12999
▁Katja	-13000
▁Mette	-13001
▁Tosin	-13002
▁Tyttö	-13003
▁World	-13004
▁mielu	-13005
▁pereh	-13006
▁saavu	-13007
hoitaja	-13008
ohjelma	-13009
▁kamera	-13010
▁murhaa	-13011
▁oltiin	-13012
▁siisti	-13013
▁toiset	-13014
▁törkeä	-13015
kunnasta	-13016
▁Lassila	-13017
▁Perheen	-13018
▁autonsa	-13019
▁hylkäsi	-13020
▁miehenä	-13021
▁oikeaan	-13022
▁olekaan	-13023
▁realist	-13024
▁riippuv	-13025
▁tunteja	-13026
▁uskalta	-13027
▁Georgian	-13028
▁Järvinen	-13029
▁epäselvä	-13030
▁laskettu	-13031
▁lämmintä	-13032
▁menettää	-13033
▁pudonnut	-13034
▁tunnetta	-13035
▁joidenkin	-13036
▁kuninkaan	-13037
▁Eduskunnan	-13038
▁tuntumassa	-13039
▁yhdenverta	-13040
▁järjestettä	-13041
▁lainsäädäntö	-13042
▁allekirjoitta	-13043
▁palestiinalais	-13044
etz	-13045
▁(5	-13046
▁62	-13047
imat	-13048
imio	-13049
isaa	-13050
pola	-13051
tuma	-13052
vali	-13053
▁21-	-13054
▁Dia	-13055
▁Eer	-13056
▁Eva	-13057
▁Huh	-13058
▁Lep	-13059
▁Oba	-13060
eihin	-13061
jakso	-13062
teeni	-13063
tehtä	-13064
▁2005	-13065
▁Hale	-13066
▁Tode	-13067
▁helv	-13068
▁inti	-13069
▁jarr	-13070
▁pykä	-13071
kielto	-13072
osivat	-13073
teille	-13074
toisto	-13075
▁Anssi	-13076
▁Bayer	-13077
▁Ransk	-13078
▁Volvo	-13079
▁arkea	-13080
▁paita	-13081
▁viiva	-13082
henkilö	-13083
tasolla	-13084
▁ehdokk	-13085
▁maihin	-13086
▁omissa	-13087
▁tehtyä	-13088
▁totuus	-13089
▁vakuut	-13090
▁vasemm	-13091
▁Penguin	-13092
▁ehdotti	-13093
▁julisti	-13094
▁tilasta	-13095
▁viestit	-13096
▁Kiljunen	-13097
▁mainitsi	-13098
▁neljästä	-13099
▁yöpäivys	-13100
▁erityistä	-13101
▁keskittyy	-13102
▁kiinnostu	-13103
▁poissaolo	-13104
▁sääntöjen	-13105
▁kiinnittää	-13106
▁kilpailija	-13107
▁koulutusta	-13108
▁venäläinen	-13109
▁ulkopuolelta	-13110
▁päätoimittaja	-13111
hua	-13112
mmy	-13113
ilaa	-13114
ster	-13115
▁11,	-13116
▁2-3	-13117
▁Alo	-13118
▁Mit	-13119
▁all	-13120
▁lat	-13121
istoa	-13122
ivuot	-13123
▁Bull	-13124
▁Egyp	-13125
▁kyyn	-13126
▁mani	-13127
▁taho	-13128
alalla	-13129
nuksen	-13130
tekevä	-13131
ukossa	-13132
▁2023,	-13133
▁Ainoa	-13134
▁Niina	-13135
▁Voima	-13136
▁harva	-13137
▁infor	-13138
▁myyty	-13139
▁pätkä	-13140
▁ravin	-13141
▁synny	-13142
▁uimar	-13143
▁vetoa	-13144
kivalio	-13145
oissaan	-13146
▁Rasmus	-13147
▁Tiktok	-13148
▁Toisin	-13149
▁digita	-13150
▁huonoa	-13151
▁katuma	-13152
▁korrup	-13153
▁kuuluv	-13154
▁listaa	-13155
▁paljoa	-13156
▁tekisi	-13157
▁ylitti	-13158
dionilla	-13159
iteilija	-13160
juontaja	-13161
▁kisasta	-13162
▁kohteen	-13163
▁käyneet	-13164
▁rakkaus	-13165
▁tanssin	-13166
▁tehneen	-13167
▁vuosika	-13168
▁ylittää	-13169
▁Myöskään	-13170
▁Tutkimus	-13171
▁Yhteensä	-13172
▁ehdottaa	-13173
▁itärajan	-13174
▁järvellä	-13175
▁kohdista	-13176
▁kuullaan	-13177
▁luotetta	-13178
▁nousseet	-13179
▁sähköpot	-13180
▁varmisti	-13181
tettaisiin	-13182
▁Ruotsista	-13183
▁Trumpille	-13184
▁itsessään	-13185
▁johtajien	-13186
▁melkoinen	-13187
▁mitattiin	-13188
▁ollessaan	-13189
▁tarkistaa	-13190
▁vierailun	-13191
▁Savolainen	-13192
▁muuttamaan	-13193
▁pysäköinti	-13194
▁samankalta	-13195
▁tehtävistä	-13196
▁puolitoista	-13197
▁tehokkaasti	-13198
▁viidenneksi	-13199
▁Suomalaisten	-13200
OK	-13201
kär	-13202
les	-13203
mie	-13204
poa	-13205
▁(3	-13206
▁68	-13207
▁?"	-13208
cker	-13209
hdon	-13210
isal	-13211
pärä	-13212
▁18,	-13213
▁Juo	-13214
▁Leo	-13215
▁Lew	-13216
▁Mai	-13217
▁Pil	-13218
▁les	-13219
▁oto	-13220
comin	-13221
detta	-13222
ettyä	-13223
llani	-13224
tensä	-13225
▁Että	-13226
▁Ismo	-13227
▁Kala	-13228
▁Miet	-13229
▁kilo	-13230
▁päte	-13231
▁semi	-13232
▁susi	-13233
kansaa	-13234
ttamus	-13235
väline	-13236
▁Kelan	-13237
▁Kiuru	-13238
▁Viisi	-13239
▁arvot	-13240
▁huipp	-13241
▁kädet	-13242
▁syven	-13243
oitusta	-13244
yhtyeen	-13245
▁Samuli	-13246
▁Venälä	-13247
▁ajettu	-13248
▁fanien	-13249
▁kortin	-13250
▁kosken	-13251
▁laivan	-13252
▁maansa	-13253
▁miljon	-13254
▁sulkea	-13255
llisempi	-13256
▁aseiden	-13257
▁käsissä	-13258
▁misessä	-13259
▁pelaava	-13260
▁rajojen	-13261
▁rooliin	-13262
▁taiteen	-13263
▁yhdeksi	-13264
▁yhtyeen	-13265
▁Kiinassa	-13266
▁Montreal	-13267
▁Moottori	-13268
▁epäillyt	-13269
▁matkusti	-13270
▁näyttely	-13271
▁sanoivat	-13272
▁tutustua	-13273
ivuorokaut	-13274
▁Todennäkö	-13275
▁joutuneet	-13276
▁luonnehti	-13277
▁otteluita	-13278
▁päällikön	-13279
▁suurimmat	-13280
▁tallentui	-13281
▁tekijöitä	-13282
▁tosissaan	-13283
▁yritetään	-13284
▁Panthersin	-13285
▁Satakunnan	-13286
▁Toimittaja	-13287
▁liittolais	-13288
▁nostettiin	-13289
▁sotilaiden	-13290
▁valmistaja	-13291
▁eduskuntaan	-13292
▁pääkaupunki	-13293
▁dokumentissa	-13294
▁pudotuspeleissä	-13295
HO	-13296
pas	-13297
▁61	-13298
▁Wi	-13299
hdet	-13300
tilä	-13301
vion	-13302
▁22-	-13303
▁Hag	-13304
▁Pia	-13305
▁aav	-13306
▁cha	-13307
hahmo	-13308
kkois	-13309
▁Blue	-13310
▁Ella	-13311
▁Joen	-13312
▁Lein	-13313
▁Siis	-13314
▁mpaa	-13315
▁peri	-13316
▁taju	-13317
▁tatu	-13318
hiihto	-13319
ktiivi	-13320
teestä	-13321
▁Hurri	-13322
▁Sanni	-13323
▁jarru	-13324
▁jengi	-13325
▁karsi	-13326
▁kolum	-13327
▁pesti	-13328
▁selos	-13329
▁vihje	-13330
luvulta	-13331
▁Ahonen	-13332
▁Duplan	-13333
▁Niinpä	-13334
▁elimis	-13335
▁heräsi	-13336
▁otteli	-13337
▁parane	-13338
▁pohtia	-13339
▁rauhaa	-13340
▁seiväs	-13341
▁vauvan	-13342
euvoston	-13343
▁Satonen	-13344
▁aikansa	-13345
▁kalusto	-13346
▁konkari	-13347
▁normaal	-13348
▁tulleen	-13349
▁virkaan	-13350
▁Canadien	-13351
▁Frederik	-13352
▁Musiikki	-13353
▁hienosti	-13354
▁käänteen	-13355
▁luokassa	-13356
▁sotilaat	-13357
▁sähköpos	-13358
▁tuomiota	-13359
▁täysistu	-13360
▁kilowatti	-13361
▁lakkautta	-13362
▁lasketaan	-13363
▁perheelle	-13364
▁perusteet	-13365
▁päivystys	-13366
▁Pennsylvan	-13367
▁humanitaar	-13368
▁palkittiin	-13369
▁todisteita	-13370
▁virallinen	-13371
▁ehdolliseen	-13372
▁saavuttanut	-13373
▁tyytyväisiä	-13374
▁Jyväskylässä	-13375
▁markkinoille	-13376
▁tilaisuuteen	-13377
▁henkilökunnan	-13378
▁poliisilaitos	-13379
TA	-13380
hn	-13381
kl	-13382
hil	-13383
koh	-13384
▁52	-13385
▁63	-13386
▁Od	-13387
varm	-13388
▁Emi	-13389
▁Nas	-13390
▁Rää	-13391
▁ets	-13392
aikaa	-13393
niksi	-13394
pande	-13395
reitä	-13396
tetyt	-13397
turma	-13398
▁Alun	-13399
▁Dmit	-13400
▁Muur	-13401
▁Susi	-13402
▁Toto	-13403
▁metr	-13404
▁pinn	-13405
▁välä	-13406
impana	-13407
ineita	-13408
kaisen	-13409
oranta	-13410
▁Kaupp	-13411
▁Lähtö	-13412
▁Marie	-13413
▁Muita	-13414
▁Paras	-13415
▁Smith	-13416
▁Tapan	-13417
▁Vanha	-13418
▁harmi	-13419
▁kohen	-13420
▁lajia	-13421
▁pyytä	-13422
▁usean	-13423
▁velje	-13424
elokuva	-13425
katemia	-13426
usarvio	-13427
▁Andrew	-13428
▁Jokela	-13429
▁Muista	-13430
▁Niissä	-13431
▁Päivän	-13432
▁Samoin	-13433
▁Teslan	-13434
▁huipen	-13435
▁hyvänä	-13436
▁ihastu	-13437
▁jaettu	-13438
▁kosket	-13439
▁käynti	-13440
▁luokse	-13441
▁pyrkiä	-13442
▁tienaa	-13443
▁tuista	-13444
▁tuleen	-13445
▁tuneet	-13446
▁täytty	-13447
hallinto	-13448
puolueen	-13449
▁Dokumen	-13450
▁Haastat	-13451
▁Veitola	-13452
▁haetaan	-13453
▁jatkuva	-13454
▁tiedetä	-13455
▁vieraat	-13456
immillään	-13457
▁Liettuan	-13458
▁Peltonen	-13459
▁haluamme	-13460
▁loistava	-13461
▁niukasti	-13462
▁perustaa	-13463
▁rautatie	-13464
▁vahvistu	-13465
▁Lauantain	-13466
▁Suunnitel	-13467
▁ajatellut	-13468
▁ajoneuvon	-13469
▁asevoimat	-13470
▁ehdokkaat	-13471
▁häiriöitä	-13472
▁kiinnitti	-13473
▁näyttänyt	-13474
▁tehneensä	-13475
▁vastaavia	-13476
▁Hovioikeus	-13477
▁haluavansa	-13478
▁jääkiekkoa	-13479
▁joukkueesta	-13480
▁kannattajat	-13481
▁poliittiset	-13482
▁rauhallinen	-13483
▁tuomioistuin	-13484
▁julkisuudesta	-13485
▁kansainvälisten	-13486
▁maailmancupissa	-13487
▁onnettomuudesta	-13488
kur	-13489
aani	-13490
ikul	-13491
lien	-13492
yöry	-13493
▁1,2	-13494
▁30,	-13495
▁Kup	-13496
▁NRK	-13497
▁Sis	-13498
▁Helm	-13499
▁Viro	-13500
▁jääd	-13501
▁mahd	-13502
▁nauh	-13503
▁tipp	-13504
intalo	-13505
mukset	-13506
▁Halua	-13507
▁Jonna	-13508
▁Jouni	-13509
▁Koris	-13510
▁aviom	-13511
▁ihmee	-13512
▁metro	-13513
▁minne	-13514
▁mökin	-13515
▁pussi	-13516
▁sammu	-13517
▁suola	-13518
▁tekoa	-13519
▁teste	-13520
hiihdon	-13521
immaksi	-13522
oillaan	-13523
ustilan	-13524
▁Margar	-13525
▁Torsta	-13526
▁arkeen	-13527
▁hiljaa	-13528
▁illaan	-13529
▁kiiree	-13530
▁kuulus	-13531
▁laisia	-13532
▁litraa	-13533
▁luopua	-13534
▁Brother	-13535
▁Keränen	-13536
▁Puhakan	-13537
▁ajautui	-13538
▁annetta	-13539
▁liittyä	-13540
▁myydään	-13541
▁ottavat	-13542
▁puheena	-13543
▁pysyvät	-13544
▁rehtori	-13545
johtajana	-13546
▁juhlista	-13547
▁kenraali	-13548
▁koulutta	-13549
▁kuluessa	-13550
▁mysteeri	-13551
▁olevista	-13552
▁pystyisi	-13553
▁vapaasti	-13554
▁hehkuttaa	-13555
▁joudutaan	-13556
▁tulitauko	-13557
yhdistyksen	-13558
▁Keskustelu	-13559
▁kaikkialla	-13560
▁tarvitsisi	-13561
▁Karjalainen	-13562
▁näyttelijän	-13563
▁omakotitalo	-13564
▁ulkomaalais	-13565
▁konservatiiv	-13566
▁rikkomisesta	-13567
▁ympäristössä	-13568
▁Sosiaalisessa	-13569
▁liikenteeseen	-13570
▁varsinaisesti	-13571
gn	-13572
▁Ek	-13573
▁Hö	-13574
alus	-13575
cede	-13576
otin	-13577
▁11-	-13578
▁24,	-13579
▁Lev	-13580
▁Muo	-13581
▁Yri	-13582
▁mou	-13583
▁rän	-13584
kelee	-13585
visen	-13586
▁Arch	-13587
▁Ford	-13588
▁Luke	-13589
▁Selv	-13590
▁Zuma	-13591
▁edun	-13592
ihessä	-13593
nnossa	-13594
▁Cityn	-13595
▁Missä	-13596
▁Räikk	-13597
▁SaiPa	-13598
▁ehtii	-13599
▁iässä	-13600
▁jatke	-13601
▁joudu	-13602
▁kokea	-13603
▁leiri	-13604
▁samat	-13605
▁sessa	-13606
▁uskal	-13607
itellen	-13608
sinööri	-13609
tietoja	-13610
ukselle	-13611
▁Hyökkä	-13612
▁Jordan	-13613
▁Maalis	-13614
▁Muutos	-13615
▁Natoon	-13616
▁Pietar	-13617
▁helpot	-13618
▁isompi	-13619
▁ovatko	-13620
▁raskas	-13621
▁tilaan	-13622
▁vahvaa	-13623
▁vanhat	-13624
▁varaus	-13625
▁vertaa	-13626
▁viihty	-13627
hallissa	-13628
▁Mercede	-13629
▁maraton	-13630
▁piiriin	-13631
▁poikien	-13632
▁tienasi	-13633
▁vaihtoi	-13634
▁yleisen	-13635
operaatio	-13636
vaiheessa	-13637
▁Karlsson	-13638
▁Neuville	-13639
▁Toisessa	-13640
▁ajatteli	-13641
▁pidemmän	-13642
▁tuntuvat	-13643
valtuuston	-13644
▁Räikkönen	-13645
▁edustajan	-13646
▁helpompaa	-13647
▁huomioida	-13648
▁kauppojen	-13649
▁liikkuvat	-13650
▁neuvoston	-13651
▁ongelmiin	-13652
▁pidätetty	-13653
▁ympärille	-13654
kilpailussa	-13655
▁innoissaan	-13656
▁kehityksen	-13657
▁paikallaan	-13658
▁seksuaalir	-13659
▁tavoitteet	-13660
▁Tukholmassa	-13661
▁leikkauksen	-13662
▁luultavasti	-13663
▁vahvistanut	-13664
▁automaattisesti	-13665
enz	-13666
lub	-13667
ytä	-13668
▁Dr	-13669
▁IC	-13670
aali	-13671
jään	-13672
oste	-13673
▁Bri	-13674
▁Ger	-13675
▁Ram	-13676
▁Tem	-13677
▁jät	-13678
▁paa	-13679
hypyn	-13680
iskun	-13681
▁2030	-13682
▁Aiku	-13683
▁Fina	-13684
▁Lamp	-13685
▁Lund	-13686
▁Puhu	-13687
▁Sven	-13688
▁enne	-13689
▁liia	-13690
▁lipu	-13691
▁pila	-13692
joitti	-13693
vyyden	-13694
▁Kevin	-13695
▁Kunta	-13696
▁Liiga	-13697
▁katsa	-13698
▁mulla	-13699
▁niemi	-13700
▁nuoru	-13701
oitettu	-13702
▁Marras	-13703
▁Naiset	-13704
▁Seitse	-13705
▁brutto	-13706
▁nnista	-13707
▁raakku	-13708
▁uutena	-13709
tikainen	-13710
▁Tshekin	-13711
▁avautuu	-13712
▁kiertää	-13713
▁kääntyi	-13714
▁myytiin	-13715
▁osaston	-13716
▁panssar	-13717
▁samasta	-13718
▁sinulla	-13719
uksessaan	-13720
▁Juontaja	-13721
▁Lahtinen	-13722
▁Manninen	-13723
▁Nykyisin	-13724
▁Venäjään	-13725
▁jälkimmä	-13726
▁oikealta	-13727
▁tulosten	-13728
▁vertailu	-13729
▁Eurooppaa	-13730
▁Slovakian	-13731
▁edellinen	-13732
▁ennakkoon	-13733
▁ilmapiiri	-13734
▁pelaajana	-13735
▁toimittaa	-13736
▁vastausta	-13737
▁Jalkapallo	-13738
▁Kiinteistö	-13739
▁Rajavartio	-13740
▁kokoonpano	-13741
▁tehtävästä	-13742
▁ulkomaille	-13743
▁Brysselissä	-13744
▁ministeriön	-13745
▁palveluista	-13746
▁sopimukseen	-13747
▁henkilöauton	-13748
▁kirjoitetaan	-13749
▁tarkoittaisi	-13750
▁henkirikoksen	-13751
▁pitkäaikainen	-13752
▁suurlähetystö	-13753
▁Yhdysvaltalais	-13754
▁turvallisuuteen	-13755
▁ympärivuorokaut	-13756
ib	-13757
ffi	-13758
imu	-13759
ort	-13760
pun	-13761
▁Cl	-13762
▁rö	-13763
ikta	-13764
kuus	-13765
stan	-13766
tero	-13767
terä	-13768
▁130	-13769
▁24-	-13770
▁Rkp	-13771
▁blo	-13772
▁pät	-13773
elius	-13774
itään	-13775
kasva	-13776
ranta	-13777
▁Dian	-13778
▁Iida	-13779
▁Nico	-13780
▁Ruus	-13781
▁Skot	-13782
▁Sten	-13783
▁blog	-13784
▁live	-13785
▁luvu	-13786
▁satu	-13787
areena	-13788
atissa	-13789
mättöm	-13790
teillä	-13791
▁2014.	-13792
▁Aleks	-13793
▁Group	-13794
▁Huhti	-13795
▁Merja	-13796
▁Mäkel	-13797
▁Rapor	-13798
▁Saara	-13799
▁paria	-13800
▁ryhty	-13801
▁sanom	-13802
▁sulje	-13803
▁täsmä	-13804
▁vyöhy	-13805
ottelua	-13806
▁Tuisku	-13807
▁budjet	-13808
▁laajan	-13809
▁loppui	-13810
▁lukema	-13811
▁murska	-13812
▁osuman	-13813
▁sähköä	-13814
▁tartun	-13815
▁tekijö	-13816
▁vaaliv	-13817
▁vähene	-13818
Karjalan	-13819
sivuston	-13820
▁Niemelä	-13821
▁Tshekki	-13822
▁grammaa	-13823
▁korkean	-13824
▁monesti	-13825
▁tulevaa	-13826
▁työkalu	-13827
▁useista	-13828
▁väkisin	-13829
▁välittä	-13830
▁Harrisia	-13831
▁Tikkanen	-13832
▁Toiseksi	-13833
▁alijäämä	-13834
▁kolmella	-13835
▁saarella	-13836
▁valinnan	-13837
▁Kuopiossa	-13838
▁Putinille	-13839
▁julkaista	-13840
▁molempien	-13841
▁sairauden	-13842
▁tilanteet	-13843
▁ilmoitettu	-13844
▁kohteisiin	-13845
▁ohjelmasta	-13846
▁raportissa	-13847
▁suoritusta	-13848
▁tasaisesti	-13849
▁ulkomailta	-13850
▁varustettu	-13851
▁englanniksi	-13852
▁puhelimitse	-13853
▁rakennetaan	-13854
▁suurimmista	-13855
▁takavarikoi	-13856
▁tutkinnassa	-13857
▁kuljetettiin	-13858
▁osallistuvat	-13859
▁positiivista	-13860
▁rakentamisen	-13861
▁selvittämään	-13862
▁sähköautojen	-13863
▁keskustelemaan	-13864
▁pääkaupungissa	-13865
BU	-13866
isy	-13867
lää	-13868
▁87	-13869
▁Cr	-13870
▁ID	-13871
▁am	-13872
▁ay	-13873
kkoa	-13874
onta	-13875
oski	-13876
työt	-13877
ytön	-13878
▁Bea	-13879
▁Dar	-13880
▁IFK	-13881
▁Sky	-13882
▁aal	-13883
▁fik	-13884
▁hyt	-13885
▁pii	-13886
athan	-13887
dosta	-13888
ittyy	-13889
losta	-13890
tikka	-13891
tiksi	-13892
tinut	-13893
uonto	-13894
varti	-13895
▁2010	-13896
▁Arvo	-13897
▁Hell	-13898
▁Kulu	-13899
▁Post	-13900
▁Seur	-13901
▁berg	-13902
▁ikon	-13903
▁tori	-13904
▁tyyd	-13905
asturi	-13906
hdessä	-13907
vaaran	-13908
▁Asiaa	-13909
▁Lukas	-13910
▁Tyson	-13911
▁huuta	-13912
▁pidet	-13913
▁pouta	-13914
▁puutu	-13915
▁ssaan	-13916
▁suhte	-13917
▁tulva	-13918
▁tutut	-13919
▁tähtä	-13920
▁ulosa	-13921
kanavan	-13922
utuksia	-13923
välillä	-13924
▁Georgi	-13925
▁Politi	-13926
▁diesel	-13927
▁poltta	-13928
▁reiden	-13929
▁vaivaa	-13930
▁velkaa	-13931
jalaisen	-13932
joittaja	-13933
torjunta	-13934
▁koordin	-13935
▁lähteet	-13936
▁mukavaa	-13937
▁olevaan	-13938
▁perinne	-13939
▁rintama	-13940
▁selitti	-13941
▁seremon	-13942
▁sodasta	-13943
▁suunnan	-13944
▁velvoit	-13945
▁Kristian	-13946
▁katsonut	-13947
▁manageri	-13948
▁oikealla	-13949
▁ongelmaa	-13950
▁surmansa	-13951
▁viivästy	-13952
ikymppinen	-13953
▁Tynkkynen	-13954
▁huumeiden	-13955
▁nostamaan	-13956
▁vanhempia	-13957
▁varsinais	-13958
▁keskusteli	-13959
▁meneillään	-13960
▁operaation	-13961
▁sopimuksia	-13962
▁todellakin	-13963
▁aikavälillä	-13964
▁julkisuuden	-13965
▁järjestöjen	-13966
▁vaihtoehtoa	-13967
▁voittajaksi	-13968
▁Euroviisujen	-13969
▁keskusteluja	-13970
▁televisiossa	-13971
NA	-13972
PA	-13973
cin	-13974
dic	-13975
uan	-13976
etön	-13977
ford	-13978
ippa	-13979
kosi	-13980
mppa	-13981
uski	-13982
▁14,	-13983
▁35,	-13984
▁Nic	-13985
▁Urp	-13986
iraan	-13987
vuoro	-13988
▁Buff	-13989
▁Veli	-13990
▁kara	-13991
▁puun	-13992
▁tiin	-13993
▁upse	-13994
ihtäjä	-13995
istele	-13996
sessan	-13997
sääntö	-13998
▁Ogier	-13999
▁Vaara	-14000
▁Vance	-14001
▁houku	-14002
▁isemm	-14003
▁kauas	-14004
▁liity	-14005
▁luvut	-14006
▁polvi	-14007
▁ruumi	-14008
▁ttävä	-14009
▁tulta	-14010
▁tuotu	-14011
▁vaiva	-14012
▁öljyn	-14013
anninen	-14014
kkuutta	-14015
pisteen	-14016
usiness	-14017
▁Bullin	-14018
▁Epäill	-14019
▁Leikka	-14020
▁hiekka	-14021
▁hiljen	-14022
▁katego	-14023
▁omilla	-14024
▁paluun	-14025
▁rahoja	-14026
▁ylittä	-14027
kansleri	-14028
▁Amerikk	-14029
▁Bidenia	-14030
▁Kainuun	-14031
▁arkkite	-14032
▁diagnos	-14033
▁elämäni	-14034
▁sopivan	-14035
▁säästää	-14036
▁tilojen	-14037
▁tyyliin	-14038
▁vuokraa	-14039
ohjelmaan	-14040
urheilija	-14041
▁autoista	-14042
▁finaalis	-14043
▁heikentä	-14044
▁laitteen	-14045
▁läsnäolo	-14046
▁puhumaan	-14047
▁sekaisin	-14048
▁työryhmä	-14049
professori	-14050
▁Hyvärinen	-14051
▁asuntojen	-14052
▁kannustaa	-14053
▁seikkailu	-14054
▁toisiinsa	-14055
▁valmistaa	-14056
▁viettänyt	-14057
▁Itämerellä	-14058
▁edustajain	-14059
Pohjanmaalla	-14060
▁henkilöstön	-14061
▁joukkueelle	-14062
▁kumppaninsa	-14063
▁lopettamaan	-14064
▁sairaalasta	-14065
▁käsittelyssä	-14066
▁vuosikymmeniä	-14067
ius	-14068
kik	-14069
msä	-14070
reä	-14071
▁05	-14072
couv	-14073
ftin	-14074
ppää	-14075
▁19,	-14076
▁31,	-14077
▁AHL	-14078
▁Der	-14079
▁Vää	-14080
▁eks	-14081
burgh	-14082
isikö	-14083
netty	-14084
tavan	-14085
virus	-14086
yhtye	-14087
▁Conn	-14088
▁Dann	-14089
▁Kiur	-14090
▁Team	-14091
▁Vaik	-14092
▁Varm	-14093
▁ojen	-14094
neessä	-14095
opputu	-14096
piirin	-14097
ulussa	-14098
vuoren	-14099
▁Rally	-14100
▁alenn	-14101
▁kovat	-14102
▁nahka	-14103
▁nauti	-14104
▁osaan	-14105
▁tansk	-14106
▁viksi	-14107
▁vuokr	-14108
Venäjän	-14109
▁Aluksi	-14110
▁Dmitri	-14111
▁Kirves	-14112
▁Tokion	-14113
▁edisty	-14114
▁elossa	-14115
▁isännö	-14116
▁kustan	-14117
▁kutsun	-14118
▁kylmän	-14119
▁lajien	-14120
▁läinen	-14121
▁mallis	-14122
▁menisi	-14123
▁merkit	-14124
▁pakene	-14125
▁pörssi	-14126
▁unohtu	-14127
itettiin	-14128
omistaja	-14129
teisesti	-14130
▁Hänestä	-14131
▁Luonnon	-14132
▁Muutama	-14133
▁Vancouv	-14134
▁aihetta	-14135
▁ehdolle	-14136
▁ehdotus	-14137
▁epäasia	-14138
▁komissa	-14139
▁liikkua	-14140
▁nousuun	-14141
▁pitivät	-14142
▁salissa	-14143
▁uudista	-14144
▁antoivat	-14145
▁asetettu	-14146
▁auttanut	-14147
▁kokoinen	-14148
▁maksanut	-14149
▁naapurin	-14150
▁pysäytti	-14151
▁sattunut	-14152
▁tulehdus	-14153
▁vastassa	-14154
▁viidestä	-14155
finaalissa	-14156
▁Erityisen	-14157
▁Tällaisia	-14158
▁hoidetaan	-14159
▁lapsuuden	-14160
▁linjoilla	-14161
▁nostetaan	-14162
▁parempaan	-14163
▁tulokseen	-14164
▁vaaleihin	-14165
▁valitsija	-14166
▁vankilaan	-14167
▁vaurioita	-14168
▁ennakkoään	-14169
▁henkisesti	-14170
▁vastakkain	-14171
▁uudenvuoden	-14172
▁vaarallista	-14173
▁viimeiseksi	-14174
▁Silvennoinen	-14175
▁sähköpotkula	-14176
▁olympiakultaa	-14177
▁suunnittelija	-14178
▁Valitettavasti	-14179
▁eduskuntaryhmä	-14180
To	-14181
aly	-14182
let	-14183
pyy	-14184
kara	-14185
moni	-14186
oolo	-14187
ysty	-14188
▁Aam	-14189
▁Roy	-14190
▁Sho	-14191
▁WRC	-14192
▁olu	-14193
ction	-14194
iinia	-14195
kovin	-14196
rssin	-14197
sodan	-14198
ähtää	-14199
▁Haka	-14200
▁Kera	-14201
▁Laur	-14202
▁Laus	-14203
▁Miro	-14204
▁Ryan	-14205
▁haju	-14206
▁mill	-14207
käyttö	-14208
noissa	-14209
vaalin	-14210
▁Histo	-14211
▁Posti	-14212
▁eista	-14213
▁ihana	-14214
▁makaa	-14215
▁uinti	-14216
▁varjo	-14217
uudelle	-14218
▁bändin	-14219
▁esimer	-14220
▁lakiin	-14221
▁llisia	-14222
▁lupaus	-14223
▁meidät	-14224
▁muilta	-14225
▁pahoit	-14226
▁suoraa	-14227
▁tiimin	-14228
▁vajaan	-14229
▁varmaa	-14230
▁Edellis	-14231
▁Kennedy	-14232
▁ajoneuv	-14233
▁epäilly	-14234
▁isuuden	-14235
▁juoksun	-14236
▁jäätelö	-14237
▁keskinä	-14238
▁kotinsa	-14239
▁ministe	-14240
▁puiston	-14241
▁pöytään	-14242
▁tahtiin	-14243
huoneessa	-14244
▁Mielenos	-14245
▁heikkene	-14246
▁kantaman	-14247
▁kateissa	-14248
▁myöhässä	-14249
▁oikeassa	-14250
▁pitäneet	-14251
▁punainen	-14252
▁puutarha	-14253
▁pystyvät	-14254
▁raskaana	-14255
▁seitsemä	-14256
▁suhteita	-14257
▁tottunut	-14258
▁tulevana	-14259
▁tuotteen	-14260
▁ylöspäin	-14261
ikomisario	-14262
▁englannin	-14263
▁kilpailut	-14264
▁paikkojen	-14265
▁paikoilla	-14266
▁perheessä	-14267
▁sarjoissa	-14268
▁Seuraavana	-14269
▁korvaamaan	-14270
▁pelaajille	-14271
▁liittyvistä	-14272
▁osakilpailu	-14273
▁alaisuudessa	-14274
▁sijaitsevaan	-14275
▁tapahtumasta	-14276
▁järjestelmään	-14277
▁lentokentällä	-14278
▁neuvotteluissa	-14279
▁Ulkopoliittisen	-14280
far	-14281
ght	-14282
mpe	-14283
▁cm	-14284
▁ys	-14285
ffer	-14286
masi	-14287
pala	-14288
pula	-14289
teon	-14290
töjä	-14291
▁32,	-14292
▁Mol	-14293
▁höl	-14294
▁omi	-14295
▁oud	-14296
millä	-14297
otten	-14298
tamme	-14299
tehel	-14300
▁Haar	-14301
▁Isän	-14302
▁Loka	-14303
▁Pris	-14304
▁Puhe	-14305
▁koka	-14306
▁ruuh	-14307
▁sopi	-14308
▁yötä	-14309
doista	-14310
hoista	-14311
palloa	-14312
telmän	-14313
▁Elämä	-14314
▁Koski	-14315
▁Veera	-14316
▁arvoa	-14317
▁hovin	-14318
▁iltaa	-14319
▁laitu	-14320
▁maito	-14321
▁musti	-14322
▁signa	-14323
▁vahti	-14324
yksistä	-14325
▁Champi	-14326
▁Gazaan	-14327
▁Mailin	-14328
▁Oilers	-14329
▁Sieppi	-14330
▁allevi	-14331
▁kylläs	-14332
▁käteen	-14333
▁lennon	-14334
▁naures	-14335
▁niemen	-14336
▁omalle	-14337
▁perinn	-14338
▁puhelu	-14339
▁rannan	-14340
▁tamper	-14341
▁varaan	-14342
▁väitte	-14343
uuksista	-14344
▁alaisen	-14345
▁areenan	-14346
▁hakenut	-14347
▁hintoja	-14348
▁näyttöä	-14349
▁runsaat	-14350
▁ryhmien	-14351
▁sujunut	-14352
▁valitti	-14353
▁viereen	-14354
▁Kaikkien	-14355
▁Kastehel	-14356
▁ajattele	-14357
▁arvoinen	-14358
▁asukkaan	-14359
▁helpompi	-14360
▁juhannus	-14361
▁maksavat	-14362
▁määrästä	-14363
▁ottaneet	-14364
▁Edellisen	-14365
▁aktivisti	-14366
▁edellyttä	-14367
▁merkeissä	-14368
▁omistajan	-14369
▁sanottuna	-14370
▁tarinoita	-14371
▁tekemättä	-14372
erikoksesta	-14373
▁fyysisesti	-14374
▁rintamalla	-14375
▁diplomaatti	-14376
▁käytöksestä	-14377
▁pahimmillaan	-14378
▁poliittisten	-14379
▁yleisurheilun	-14380
▁turvapaikanhaki	-14381
2)	-14382
IA	-14383
umi	-14384
aine	-14385
imia	-14386
llyn	-14387
zaks	-14388
▁Anu	-14389
▁Pyy	-14390
▁You	-14391
▁hul	-14392
▁kkä	-14393
▁älä	-14394
istön	-14395
potku	-14396
ruuna	-14397
vaunu	-14398
▁Adam	-14399
▁Arja	-14400
▁Beck	-14401
▁Jose	-14402
▁McDa	-14403
▁Muus	-14404
▁Paan	-14405
▁eltä	-14406
▁lohd	-14407
▁säng	-14408
▁tuoh	-14409
issani	-14410
nantti	-14411
osasto	-14412
versti	-14413
▁2012.	-14414
▁Kauko	-14415
▁Kevää	-14416
▁Silja	-14417
▁ilmaa	-14418
▁kesto	-14419
▁omais	-14420
▁passi	-14421
▁vapau	-14422
▁väylä	-14423
▁Kolmen	-14424
▁Kotkan	-14425
▁Latvia	-14426
▁Miehet	-14427
▁Paimio	-14428
▁erolla	-14429
▁issaan	-14430
▁johtui	-14431
▁keuhko	-14432
▁lukion	-14433
▁purkaa	-14434
▁reippa	-14435
▁taivaa	-14436
▁Blinken	-14437
▁Jokerit	-14438
▁Lontoon	-14439
▁diabete	-14440
▁koskeva	-14441
▁motiivi	-14442
▁taitoja	-14443
▁Paikalle	-14444
▁harkitse	-14445
▁hengissä	-14446
▁kunnosta	-14447
▁lehdessä	-14448
▁lähemmäs	-14449
▁merkitty	-14450
▁parempia	-14451
▁rannikko	-14452
▁rikoksia	-14453
▁sivuilla	-14454
▁Huuhkajat	-14455
▁Sittemmin	-14456
▁Vihreiden	-14457
▁Williamin	-14458
▁sanottiin	-14459
▁vieraiden	-14460
▁kirjattiin	-14461
▁paikkaansa	-14462
▁halutessaan	-14463
▁kirjoitettu	-14464
▁lautakunnan	-14465
▁lisääntynyt	-14466
▁luottamusta	-14467
▁kaupungeissa	-14468
▁perheenjäsen	-14469
▁risteyksessä	-14470
▁järjestettävä	-14471
▁tiedustelupal	-14472
▁kansanedustajat	-14473
HT	-14474
kr	-14475
ux	-14476
▁Š	-14477
nny	-14478
▁86	-14479
burg	-14480
hony	-14481
ning	-14482
tula	-14483
yyli	-14484
▁Ped	-14485
▁ime	-14486
ismin	-14487
romis	-14488
▁Fili	-14489
▁Neuv	-14490
▁Ther	-14491
▁Voin	-14492
▁hakk	-14493
▁hyöd	-14494
▁louk	-14495
isoitu	-14496
kseksi	-14497
maisen	-14498
mmanen	-14499
udelle	-14500
vuonna	-14501
▁2015.	-14502
▁Ameri	-14503
▁Emman	-14504
▁Gusta	-14505
▁Hussi	-14506
▁Ihmis	-14507
▁Minua	-14508
▁Määrä	-14509
▁Noora	-14510
▁Pieni	-14511
▁Raimo	-14512
▁kerty	-14513
▁kesää	-14514
▁liuku	-14515
▁marja	-14516
▁paloi	-14517
▁reuna	-14518
▁vistä	-14519
▁voiko	-14520
oittaja	-14521
▁Kontio	-14522
▁Kulttu	-14523
▁Sports	-14524
▁harkin	-14525
▁kiitti	-14526
▁kunnat	-14527
▁kutsut	-14528
▁lähtöä	-14529
▁ostaja	-14530
▁reakti	-14531
▁soitto	-14532
▁tuoksu	-14533
▁törmän	-14534
▁vahvan	-14535
▁vastin	-14536
taarikko	-14537
▁Samassa	-14538
▁aktiivi	-14539
▁aloitus	-14540
▁arjessa	-14541
▁avaruus	-14542
▁hankkin	-14543
▁julista	-14544
▁kuvasta	-14545
▁nauttii	-14546
▁nähneet	-14547
▁oppilas	-14548
▁osuutta	-14549
▁tukevat	-14550
▁tuoreen	-14551
▁tutuksi	-14552
▁Haluamme	-14553
▁Summanen	-14554
▁Toisella	-14555
▁kotimaan	-14556
▁lastensa	-14557
▁palautta	-14558
▁pyrkivät	-14559
▁salolais	-14560
▁sijainti	-14561
▁suomeksi	-14562
▁taakseen	-14563
▁tuntenut	-14564
▁valmiste	-14565
kuljettaja	-14566
▁Jääkiekon	-14567
▁Kansallis	-14568
▁asiakkaan	-14569
▁kierrosta	-14570
▁kilpailee	-14571
▁nettisivu	-14572
▁palauttaa	-14573
▁rakkautta	-14574
▁tiivistää	-14575
▁velvollis	-14576
▁Rovanperän	-14577
▁erilaisten	-14578
▁kokemuksen	-14579
▁oppilaiden	-14580
▁ranskalais	-14581
▁sukupolven	-14582
▁useimmiten	-14583
▁Instagramin	-14584
▁ennustetaan	-14585
▁konkurssiin	-14586
▁korkeintaan	-14587
▁yksittäisiä	-14588
▁arvonlisävero	-14589
WA	-14590
án	-14591
bia	-14592
▁Xi	-14593
kkua	-14594
kore	-14595
tetä	-14596
öllä	-14597
▁Asu	-14598
▁Ham	-14599
▁Has	-14600
▁Käh	-14601
▁Ren	-14602
▁eja	-14603
▁elv	-14604
istin	-14605
mmola	-14606
siaan	-14607
▁2003	-14608
▁Rosa	-14609
▁Ruud	-14610
▁assa	-14611
▁elek	-14612
▁flun	-14613
▁jauh	-14614
▁rave	-14615
▁ttää	-14616
tutkim	-14617
verkko	-14618
▁Frank	-14619
▁Jasmi	-14620
▁Mesti	-14621
▁Russe	-14622
▁Valen	-14623
▁eläim	-14624
▁hehta	-14625
▁herää	-14626
▁jäisi	-14627
▁listo	-14628
▁ostos	-14629
▁taisi	-14630
▁uskoi	-14631
▁vaina	-14632
▁veris	-14633
istetty	-14634
isyyden	-14635
oittain	-14636
yydellä	-14637
▁Herman	-14638
▁Ikonen	-14639
▁Järven	-14640
▁Mikkel	-14641
▁SalPan	-14642
▁Ylellä	-14643
▁esitel	-14644
▁isellä	-14645
▁isessä	-14646
▁isistä	-14647
▁konsul	-14648
▁kuolon	-14649
▁nousun	-14650
▁osakke	-14651
▁rajoja	-14652
▁tausto	-14653
▁vakiin	-14654
ottamaan	-14655
▁Afrikan	-14656
▁Essayah	-14657
▁Ferrari	-14658
▁Ronaldo	-14659
▁hidasta	-14660
▁irtisan	-14661
▁kahvila	-14662
▁leikata	-14663
▁määrään	-14664
▁nimetty	-14665
▁puuttui	-14666
▁syömään	-14667
▁tohtori	-14668
▁toimien	-14669
▁uraansa	-14670
joituksen	-14671
▁Hurrican	-14672
▁Salmisen	-14673
▁Seuraava	-14674
▁esiintyä	-14675
▁hehkutti	-14676
▁kasvavat	-14677
▁kyselyyn	-14678
▁löysivät	-14679
▁parvekke	-14680
▁pitkästä	-14681
▁pyöräili	-14682
▁rikosnim	-14683
▁tervehti	-14684
▁valitsee	-14685
▁verkossa	-14686
▁Bottaksen	-14687
▁asukkaita	-14688
▁halusivat	-14689
▁lausunnon	-14690
▁merkityks	-14691
▁suurempia	-14692
▁vauhdissa	-14693
▁artikkelin	-14694
▁terveydenh	-14695
▁venäläisiä	-14696
▁ylioppilas	-14697
▁Adlercreutz	-14698
▁liikevaihto	-14699
▁taloustilan	-14700
▁tulevaisuutta	-14701
▁tulevaisuudesta	-14702
3:	-14703
rö	-14704
10.	-14705
jer	-14706
mir	-14707
▁Sö	-14708
▁st	-14709
dina	-14710
imur	-14711
ossi	-14712
raal	-14713
vene	-14714
▁34,	-14715
▁Ira	-14716
▁Tyr	-14717
▁emo	-14718
▁hol	-14719
[...]
