<unk>	0
<s>	0
</s>	0
▁a	-0
▁t	-1
▁i	-2
▁e	-3
▁n	-4
▁s	-5
▁k	-6
▁o	-7
▁u	-8
▁l	-9
▁m	-10
▁.	-11
▁v	-12
ta	-13
▁p	-14
en	-15
▁j	-16
is	-17
in	-18
▁,	-19
an	-20
sa	-21
▁ä	-22
▁h	-23
▁ta	-24
si	-25
tä	-26
ll	-27
▁y	-28
▁ll	-29
ti	-30
▁en	-31
▁r	-32
▁an	-33
▁is	-34
ut	-35
▁on	-36
ka	-37
▁ja	-38
li	-39
▁in	-40
it	-41
än	-42
el	-43
▁tu	-44
ik	-45
▁et	-46
se	-47
▁va	-48
er	-49
▁S	-50
▁-	-51
to	-52
aa	-53
▁uo	-54
▁al	-55
▁ti	-56
▁ssa	-57
▁ko	-58
▁jo	-59
▁tä	-60
▁K	-61
va	-62
▁ku	-63
ki	-64
te	-65
▁T	-66
tu	-67
uo	-68
sä	-69
oi	-70
de	-71
me	-72
▁M	-73
us	-74
▁er	-75
ko	-76
ke	-77
▁ei	-78
▁aa	-79
▁H	-80
▁P	-81
▁te	-82
yt	-83
▁ka	-84
▁ol	-85
▁ar	-86
▁si	-87
▁lla	-88
es	-89
▁as	-90
ää	-91
▁es	-92
ja	-93
▁la	-94
ma	-95
▁sta	-96
▁V	-97
et	-98
yö	-99
▁2	-100
▁oli	-101
lla	-102
▁että	-103
den	-104
▁il	-105
mi	-106
▁ma	-107
▁ai	-108
ra	-109
ksi	-110
▁se	-111
▁na	-112
▁el	-113
▁L	-114
▁uu	-115
▁än	-116
on	-117
▁nn	-118
▁lle	-119
ku	-120
▁1	-121
▁A	-122
▁vi	-123
▁pa	-124
▁sa	-125
▁E	-126
▁0	-127
ri	-128
uu	-129
ty	-130
kse	-131
il	-132
▁us	-133
▁J	-134
▁at	-135
pa	-136
na	-137
▁nä	-138
ät	-139
mm	-140
▁to	-141
▁N	-142
▁it	-143
la	-144
lle	-145
vat	-146
ks	-147
▁ni	-148
he	-149
▁R	-150
hd	-151
▁:	-152
vi	-153
▁ra	-154
▁hän	-155
mp	-156
ro	-157
▁ia	-158
▁ssä	-159
▁ais	-160
llä	-161
▁jä	-162
▁kä	-163
kaan	-164
▁O	-165
▁ne	-166
ssa	-167
▁llis	-168
▁I	-169
▁lä	-170
▁kun	-171
▁mi	-172
ul	-173
▁nen	-174
▁aik	-175
▁un	-176
▁d	-177
▁llä	-178
kä	-179
▁ukaan	-180
le	-181
ina	-182
utta	-183
▁ole	-184
ne	-185
▁myö	-186
▁oi	-187
▁taa	-188
▁ty	-189
rj	-190
lo	-191
▁ha	-192
▁vä	-193
▁yh	-194
▁ih	-195
▁au	-196
▁ki	-197
un	-198
▁ää	-199
▁ii	-200
▁ot	-201
▁no	-202
mis	-203
▁"	-204
▁tta	-205
vo	-206
▁pää	-207
▁ke	-208
tel	-209
ys	-210
▁ö	-211
▁stä	-212
▁le	-213
▁pi	-214
▁ksi	-215
▁li	-216
isi	-217
sta	-218
▁ista	-219
▁aan	-220
▁saa	-221
▁B	-222
▁myös	-223
▁issa	-224
▁ur	-225
pp	-226
▁mu	-227
▁kin	-228
▁san	-229
▁per	-230
lli	-231
▁toi	-232
ine	-233
mä	-234
▁sen	-235
▁aj	-236
▁aika	-237
▁tti	-238
oit	-239
▁ys	-240
ha	-241
▁ie	-242
▁ten	-243
kk	-244
▁nyt	-245
▁sy	-246
▁voi	-247
vä	-248
▁erto	-249
▁ovat	-250
tö	-251
▁po	-252
▁ul	-253
▁U	-254
▁Y	-255
▁iin	-256
▁so	-257
ot	-258
▁3	-259
▁tun	-260
▁vat	-261
▁mutta	-262
▁lo	-263
▁nut	-264
▁asi	-265
▁tel	-266
▁esi	-267
▁he	-268
inen	-269
taa	-270
▁iden	-271
▁kse	-272
▁oh	-273
▁oit	-274
▁os	-275
▁lta	-276
▁tie	-277
▁or	-278
ise	-279
▁vuo	-280
al	-281
ni	-282
ike	-283
▁maa	-284
▁5	-285
▁kau	-286
▁inen	-287
▁ään	-288
▁ttiin	-289
ue	-290
▁C	-291
▁ukse	-292
▁eh	-293
▁val	-294
▁hy	-295
▁toimi	-296
ia	-297
▁tää	-298
▁jen	-299
▁iik	-300
▁oll	-301
▁ttu	-302
▁4	-303
▁op	-304
▁uk	-305
uh	-306
▁tapa	-307
▁tai	-308
▁työ	-309
st	-310
▁uus	-311
▁9	-312
▁osa	-313
▁itä	-314
ten	-315
▁ien	-316
▁mä	-317
▁nta	-318
▁läh	-319
▁tila	-320
▁nsa	-321
jä	-322
▁Hän	-323
▁taj	-324
äi	-325
▁sano	-326
▁tan	-327
▁Suo	-328
▁ille	-329
ist	-330
kin	-331
jo	-332
▁vasta	-333
▁ah	-334
▁suu	-335
▁aut	-336
▁ollut	-337
▁äs	-338
▁ala	-339
▁illa	-340
ime	-341
▁ise	-342
▁ker	-343
▁jäl	-344
▁ita	-345
▁mis	-346
▁esti	-347
▁F	-348
▁ter	-349
▁alla	-350
▁lu	-351
▁suo	-352
▁uol	-353
▁tar	-354
vät	-355
▁ky	-356
ar	-357
▁ertoo	-358
▁kes	-359
or	-360
▁uon	-361
ve	-362
▁b	-363
pi	-364
▁nne	-365
▁min	-366
▁ut	-367
▁enn	-368
▁oike	-369
▁esta	-370
▁(	-371
enä	-372
▁re	-373
▁D	-374
ulu	-375
▁tus	-376
▁taina	-377
▁uut	-378
▁joka	-379
▁sto	-380
men	-381
▁)	-382
▁jälke	-383
▁men	-384
▁iä	-385
os	-386
▁G	-387
▁ttä	-388
▁ri	-389
hdo	-390
ur	-391
rit	-392
▁ak	-393
▁yhte	-394
▁tö	-395
▁ensi	-396
▁isi	-397
▁ap	-398
vu	-399
▁ed	-400
ite	-401
▁kuin	-402
▁anssa	-403
▁täm	-404
▁viime	-405
▁koko	-406
▁de	-407
▁6	-408
▁taja	-409
▁tam	-410
▁een	-411
▁f	-412
▁ase	-413
▁eri	-414
uk	-415
▁tän	-416
▁8	-417
▁niin	-418
▁uonna	-419
▁itse	-420
so	-421
▁päi	-422
rä	-423
▁am	-424
▁oliis	-425
▁7	-426
pä	-427
▁ro	-428
▁koh	-429
ky	-430
▁yksi	-431
▁eis	-432
itä	-433
▁taan	-434
enäj	-435
▁Venäj	-436
▁mme	-437
▁kan	-438
▁muu	-439
▁olisi	-440
▁nkin	-441
▁isä	-442
no	-443
▁uh	-444
▁pel	-445
▁tule	-446
tka	-447
ee	-448
▁tut	-449
do	-450
▁uomen	-451
▁g	-452
▁äi	-453
▁vai	-454
▁käyt	-455
▁iit	-456
elä	-457
▁sai	-458
▁alue	-459
ska	-460
▁Se	-461
▁ilu	-462
▁Suome	-463
ppu	-464
▁halli	-465
▁teh	-466
llo	-467
▁ana	-468
▁eu	-469
▁essa	-470
▁joh	-471
▁sanoo	-472
▁asia	-473
mo	-474
▁sti	-475
ura	-476
▁uot	-477
▁ik	-478
▁huo	-479
▁yli	-480
ikk	-481
▁kuite	-482
▁ir	-483
▁var	-484
▁luo	-485
▁sä	-486
lu	-487
mme	-488
▁asti	-489
vin	-490
▁tanut	-491
▁nto	-492
▁täv	-493
▁pu	-494
▁yl	-495
▁vät	-496
ir	-497
yy	-498
kö	-499
▁tapah	-500
tää	-501
tio	-502
▁W	-503
▁ihin	-504
▁rk	-505
▁ve	-506
▁yö	-507
kus	-508
vel	-509
▁oma	-510
▁teri	-511
00	-512
▁ry	-513
emm	-514
▁yy	-515
man	-516
▁uoden	-517
esti	-518
▁assa	-519
▁ohj	-520
da	-521
▁auto	-522
▁uksi	-523
▁ainen	-524
▁oikeu	-525
▁sekä	-526
utu	-527
▁ede	-528
▁ui	-529
▁tuo	-530
▁ident	-531
▁seura	-532
▁ukku	-533
▁elä	-534
kaa	-535
▁käy	-536
▁epä	-537
▁tukse	-538
▁aikki	-539
▁olla	-540
res	-541
▁ottel	-542
▁perus	-543
▁mää	-544
▁ihmis	-545
▁van	-546
▁maan	-547
kem	-548
▁mer	-549
▁lais	-550
▁ukkue	-551
▁vielä	-552
▁ava	-553
▁av	-554
▁yt	-555
▁alais	-556
▁me	-557
▁hänen	-558
▁Sa	-559
isä	-560
▁tse	-561
▁istä	-562
▁näyt	-563
ino	-564
dot	-565
▁jat	-566
▁lö	-567
ikä	-568
▁vuoti	-569
▁yrit	-570
▁mies	-571
lta	-572
▁isto	-573
pe	-574
▁ee	-575
▁kol	-576
rjo	-577
▁mahdo	-578
▁tur	-579
▁uude	-580
▁uussa	-581
▁ua	-582
▁uole	-583
rja	-584
▁nte	-585
▁vaa	-586
tti	-587
rje	-588
▁ertoi	-589
▁päivä	-590
▁issä	-591
▁vain	-592
▁nsä	-593
▁väli	-594
▁neet	-595
▁kat	-596
▁nki	-597
▁tav	-598
▁eli	-599
▁euro	-600
tei	-601
▁aina	-602
di	-603
▁ilta	-604
▁ng	-605
ol	-606
om	-607
▁kaa	-608
▁siitä	-609
▁ks	-610
▁par	-611
▁ent	-612
rai	-613
▁talo	-614
▁vuosi	-615
▁aja	-616
▁?	-617
▁den	-618
▁pres	-619
mu	-620
mpi	-621
▁Uk	-622
aaj	-623
▁asu	-624
▁Ukrai	-625
▁ät	-626
▁pro	-627
po	-628
▁nais	-629
▁ykse	-630
▁mie	-631
iks	-632
▁tutki	-633
▁emm	-634
gi	-635
▁anna	-636
▁itten	-637
▁kis	-638
▁muut	-639
▁sitä	-640
▁sanoi	-641
▁oin	-642
▁jul	-643
vio	-644
▁suom	-645
▁rkiks	-646
▁iih	-647
▁tark	-648
▁ote	-649
▁syy	-650
▁jää	-651
▁ina	-652
▁ier	-653
▁aikut	-654
lö	-655
▁use	-656
▁puo	-657
▁pit	-658
▁järje	-659
▁nkilö	-660
▁liik	-661
▁määrä	-662
▁kas	-663
ga	-664
▁alj	-665
är	-666
täv	-667
▁sel	-668
▁minis	-669
▁noin	-670
▁pun	-671
▁alle	-672
▁asta	-673
tus	-674
ru	-675
▁suur	-676
▁aali	-677
op	-678
as	-679
▁aljon	-680
▁ill	-681
ide	-682
▁uun	-683
tee	-684
▁pal	-685
▁voit	-686
▁lait	-687
▁aus	-688
▁haa	-689
▁eskus	-690
▁turva	-691
▁äl	-692
rke	-693
▁ver	-694
yty	-695
▁kaksi	-696
▁alta	-697
▁uusi	-698
ran	-699
▁tava	-700
ilm	-701
▁ist	-702
▁lin	-703
▁olev	-704
▁aailm	-705
▁sam	-706
▁uuta	-707
▁jos	-708
▁jossa	-709
▁c	-710
▁ennen	-711
▁alvel	-712
▁mit	-713
▁Tä	-714
▁isäks	-715
▁ili	-716
▁Yhd	-717
▁hyö	-718
taan	-719
▁ois	-720
▁nti	-721
ika	-722
▁eivät	-723
▁vaih	-724
▁ella	-725
▁Hel	-726
sit	-727
▁kunna	-728
ana	-729
maan	-730
▁halu	-731
▁mon	-732
▁tuli	-733
▁aikka	-734
▁esime	-735
▁ulko	-736
▁prose	-737
▁koska	-738
▁ikä	-739
ele	-740
▁pys	-741
▁mil	-742
▁hyvin	-743
▁sillä	-744
▁edus	-745
▁äh	-746
▁­	-747
▁paika	-748
▁ij	-749
▁lleen	-750
▁uis	-751
▁utu	-752
▁ettei	-753
▁erk	-754
▁ansa	-755
toi	-756
▁vali	-757
▁kul	-758
▁puhe	-759
▁aksi	-760
▁tänyt	-761
▁iko	-762
ita	-763
▁muun	-764
▁kil	-765
▁ran	-766
▁ann	-767
▁las	-768
▁lline	-769
▁uassa	-770
▁Yhdys	-771
▁usta	-772
▁toise	-773
▁Ilta	-774
em	-775
▁Tru	-776
▁nuo	-777
▁Trump	-778
▁kuva	-779
▁nnut	-780
▁tiin	-781
▁ell	-782
▁eksi	-783
▁pe	-784
▁komm	-785
ssä	-786
▁arvo	-787
▁tulee	-788
▁äät	-789
▁istu	-790
iste	-791
▁tulo	-792
▁julk	-793
▁uolus	-794
ttu	-795
▁tyis	-796
▁pitkä	-797
▁aihe	-798
▁arvio	-799
du	-800
tom	-801
hti	-802
▁puh	-803
▁ic	-804
▁Jo	-805
▁valta	-806
iko	-807
▁esit	-808
▁sopi	-809
vis	-810
▁kuu	-811
▁opu	-812
▁aluee	-813
ään	-814
▁urhe	-815
▁illä	-816
▁hi	-817
▁oon	-818
▁väh	-819
▁ilpa	-820
pu	-821
▁unn	-822
▁istö	-823
van	-824
▁ilm	-825
▁da	-826
stä	-827
▁ässä	-828
▁pien	-829
ppi	-830
▁kesä	-831
▁haast	-832
▁ltä	-833
▁pitää	-834
▁tieto	-835
▁rake	-836
▁mitä	-837
▁ing	-838
rin	-839
joh	-840
▁lut	-841
▁etä	-842
▁tul	-843
▁äy	-844
▁mar	-845
▁suh	-846
▁kerto	-847
▁tode	-848
▁uotta	-849
ho	-850
▁uomi	-851
▁jon	-852
▁elaaj	-853
▁euroa	-854
▁lap	-855
▁pois	-856
inä	-857
▁raa	-858
▁altio	-859
▁etty	-860
▁ata	-861
▁matka	-862
▁st	-863
▁neu	-864
hde	-865
▁all	-866
kiv	-867
ksa	-868
▁elo	-869
▁kunta	-870
▁milj	-871
ssi	-872
▁uutta	-873
▁teki	-874
▁paikk	-875
▁su	-876
▁miele	-877
▁ou	-878
▁epäil	-879
▁nel	-880
▁ryh	-881
▁jotka	-882
▁suun	-883
▁olo	-884
▁etta	-885
▁iiko	-886
▁anne	-887
▁nee	-888
▁ilmoi	-889
▁äiv	-890
▁sesti	-891
▁tor	-892
▁kansa	-893
▁ajan	-894
▁kut	-895
▁piste	-896
▁sin	-897
▁iso	-898
▁koti	-899
▁eid	-900
▁tiedo	-901
▁amp	-902
▁iksi	-903
▁om	-904
▁En	-905
▁ällä	-906
▁ttav	-907
▁Helsi	-908
▁000	-909
▁mmä	-910
▁ettu	-911
▁Jos	-912
▁uuden	-913
▁teli	-914
▁oulu	-915
jan	-916
▁loppu	-917
▁estar	-918
▁em	-919
▁etaan	-920
▁Ku	-921
▁ymp	-922
▁jonka	-923
▁iikko	-924
▁eikä	-925
su	-926
▁vara	-927
▁Ma	-928
▁kään	-929
▁neuvo	-930
▁rin	-931
kki	-932
▁ny	-933
deo	-934
▁annat	-935
▁nuor	-936
▁tavat	-937
▁/	-938
▁ilma	-939
▁päät	-940
▁ena	-941
▁lan	-942
▁oja	-943
▁valme	-944
▁ru	-945
▁ag	-946
▁nan	-947
▁etke	-948
▁oti	-949
▁eidän	-950
▁peli	-951
▁sija	-952
▁neljä	-953
▁ntti	-954
▁ttel	-955
▁äyt	-956
▁ussa	-957
▁aiemm	-958
▁kor	-959
▁suunn	-960
ini	-961
▁py	-962
▁minen	-963
▁empi	-964
▁nno	-965
▁elle	-966
▁vah	-967
▁tuu	-968
▁voima	-969
▁perhe	-970
▁ese	-971
▁emmin	-972
▁ulo	-973
▁ehdo	-974
▁lii	-975
▁är	-976
▁tui	-977
▁anta	-978
▁ensim	-979
▁tuot	-980
▁tois	-981
▁näh	-982
▁iihen	-983
▁enne	-984
▁alu	-985
▁ohjel	-986
▁yhde	-987
▁usko	-988
▁Kun	-989
▁hyökk	-990
▁alo	-991
▁vir	-992
▁ntaj	-993
▁lau	-994
▁ivat	-995
bb	-996
▁ntä	-997
▁uomio	-998
▁iitty	-999
▁pol	-1000
▁uksia	-1001
hjo	-1002
▁kon	-1003
▁iel	-1004
▁han	-1005
▁tämän	-1006
▁kerro	-1007
der	-1008
▁enemm	-1009
▁kolme	-1010
▁ari	-1011
▁tty	-1012
kka	-1013
▁nou	-1014
▁saat	-1015
▁uutis	-1016
▁lisä	-1017
▁ulj	-1018
▁iesti	-1019
lai	-1020
▁imm	-1021
▁ästi	-1022
▁tulev	-1023
▁ete	-1024
hdä	-1025
▁kaan	-1026
▁ev	-1027
▁raj	-1028
▁kesku	-1029
kau	-1030
▁aloit	-1031
▁täj	-1032
▁uolue	-1033
▁isää	-1034
▁teen	-1035
sti	-1036
▁taso	-1037
▁ttaa	-1038
▁ong	-1039
▁up	-1040
tiö	-1041
▁tunne	-1042
▁lähet	-1043
▁eja	-1044
▁tämä	-1045
▁sisä	-1046
tk	-1047
▁stö	-1048
▁säh	-1049
▁kirjo	-1050
▁sarja	-1051
▁puhu	-1052
kai	-1053
▁jät	-1054
ev	-1055
hin	-1056
▁etään	-1057
▁uotsi	-1058
▁met	-1059
▁aiheu	-1060
▁Myö	-1061
▁hel	-1062
▁mus	-1063
▁katso	-1064
▁odot	-1065
ea	-1066
▁im	-1067
▁Stu	-1068
▁ris	-1069
▁Myös	-1070
▁almis	-1071
oli	-1072
ksy	-1073
▁yll	-1074
dia	-1075
▁keski	-1076
▁man	-1077
▁suhte	-1078
▁juo	-1079
▁Vi	-1080
▁sähkö	-1081
▁id	-1082
▁oj	-1083
▁juh	-1084
▁atta	-1085
▁antaa	-1086
▁pungi	-1087
▁staan	-1088
▁myy	-1089
▁mur	-1090
▁len	-1091
▁isiin	-1092
ton	-1093
▁kyse	-1094
▁eks	-1095
▁Stubb	-1096
▁Mar	-1097
▁Suomi	-1098
▁aine	-1099
▁nope	-1100
▁näkö	-1101
▁tällä	-1102
▁onn	-1103
▁Tämä	-1104
▁kirj	-1105
▁aisu	-1106
sk	-1107
len	-1108
▁tee	-1109
▁arj	-1110
▁äys	-1111
▁erjan	-1112
▁keh	-1113
▁ali	-1114
▁Nyt	-1115
▁ajat	-1116
▁löyty	-1117
ter	-1118
▁estä	-1119
▁amis	-1120
▁ttö	-1121
ras	-1122
▁itään	-1123
▁hyvä	-1124
▁Ei	-1125
▁Ka	-1126
▁ajo	-1127
▁mm	-1128
▁pysty	-1129
oin	-1130
▁media	-1131
▁hin	-1132
▁Kuva	-1133
▁joutu	-1134
▁mmäis	-1135
äin	-1136
▁tunti	-1137
▁amma	-1138
▁sää	-1139
aal	-1140
▁uro	-1141
▁ian	-1142
▁lähe	-1143
▁neen	-1144
ito	-1145
▁jär	-1146
▁ken	-1147
▁ehti	-1148
▁hen	-1149
▁entoi	-1150
▁kirja	-1151
▁häne	-1152
▁miten	-1153
tuu	-1154
▁alku	-1155
▁perä	-1156
▁eläm	-1157
▁aatio	-1158
▁astus	-1159
▁eseen	-1160
▁aku	-1161
▁eillä	-1162
▁tään	-1163
▁io	-1164
▁aal	-1165
▁kisa	-1166
▁yhtiö	-1167
▁ju	-1168
▁usi	-1169
▁San	-1170
▁ohta	-1171
▁arha	-1172
ck	-1173
▁Ch	-1174
▁pari	-1175
▁lää	-1176
nt	-1177
▁iis	-1178
▁mikä	-1179
sen	-1180
▁äis	-1181
▁Po	-1182
▁asian	-1183
▁huoma	-1184
▁lääk	-1185
▁tarvi	-1186
▁tarjo	-1187
▁vaan	-1188
re	-1189
▁ama	-1190
▁ihan	-1191
▁nime	-1192
kea	-1193
▁MM	-1194
▁ani	-1195
▁ero	-1196
▁kaude	-1197
▁ilij	-1198
▁ov	-1199
▁kk	-1200
▁iet	-1201
▁maali	-1202
▁osall	-1203
▁sivu	-1204
▁enjoh	-1205
▁vaal	-1206
▁essä	-1207
▁tunut	-1208
▁iera	-1209
ikko	-1210
▁alk	-1211
▁ympär	-1212
▁sil	-1213
▁ura	-1214
▁video	-1215
▁ertaa	-1216
▁kö	-1217
▁äänes	-1218
my	-1219
▁sopim	-1220
paa	-1221
▁ori	-1222
▁nkaan	-1223
▁tekem	-1224
▁yllät	-1225
▁osi	-1226
rael	-1227
▁srael	-1228
▁hoi	-1229
▁lis	-1230
▁Ro	-1231
▁np	-1232
▁kasv	-1233
▁do	-1234
▁jopa	-1235
▁mään	-1236
▁näky	-1237
▁lloin	-1238
▁nimi	-1239
▁erran	-1240
vit	-1241
▁vo	-1242
▁telu	-1243
▁ratk	-1244
▁nyky	-1245
▁taisi	-1246
▁uoksi	-1247
▁aisi	-1248
▁ryhmä	-1249
▁uoli	-1250
▁inn	-1251
ust	-1252
▁iinni	-1253
▁oo	-1254
▁nttia	-1255
▁kolm	-1256
▁Ne	-1257
▁ärj	-1258
lt	-1259
▁di	-1260
▁moni	-1261
▁osoit	-1262
▁ngin	-1263
▁erkit	-1264
▁kello	-1265
▁käsit	-1266
▁ttöm	-1267
▁ukana	-1268
▁kahde	-1269
▁saada	-1270
▁ly	-1271
▁aikaa	-1272
▁lauan	-1273
▁uroop	-1274
▁iir	-1275
▁tehdä	-1276
▁puoli	-1277
▁öy	-1278
▁una	-1279
▁ongel	-1280
▁tane	-1281
▁enää	-1282
▁ästä	-1283
kso	-1284
▁oinen	-1285
▁um	-1286
▁kehit	-1287
kko	-1288
▁ruo	-1289
ss	-1290
▁miehe	-1291
▁otta	-1292
▁avo	-1293
vää	-1294
▁Iltal	-1295
▁w	-1296
▁riit	-1297
▁uode	-1298
▁sell	-1299
▁ön	-1300
▁oliit	-1301
▁tum	-1302
▁Sanom	-1303
▁aati	-1304
▁yle	-1305
▁her	-1306
▁syn	-1307
▁ystäv	-1308
▁avu	-1309
▁ota	-1310
ulun	-1311
▁kohta	-1312
▁alka	-1313
▁eissa	-1314
▁juu	-1315
▁pitä	-1316
▁nk	-1317
▁väit	-1318
▁yhd	-1319
▁tiet	-1320
kia	-1321
▁kov	-1322
▁ea	-1323
▁art	-1324
▁ntees	-1325
▁uks	-1326
▁kiso	-1327
▁uin	-1328
▁ymme	-1329
▁vanh	-1330
▁telee	-1331
▁omis	-1332
▁yty	-1333
▁Ki	-1334
▁sijai	-1335
▁lähte	-1336
▁eskiv	-1337
▁kseen	-1338
▁aka	-1339
▁inä	-1340
hi	-1341
▁synty	-1342
▁yleis	-1343
▁oik	-1344
▁aanan	-1345
▁aamu	-1346
▁leet	-1347
▁ss	-1348
▁akko	-1349
▁Sen	-1350
▁vaara	-1351
▁omi	-1352
▁attel	-1353
▁suora	-1354
tta	-1355
▁anska	-1356
▁uraa	-1357
▁ssaan	-1358
▁eik	-1359
▁uoma	-1360
▁illoi	-1361
▁Ni	-1362
▁iha	-1363
ver	-1364
▁uljet	-1365
▁tis	-1366
essa	-1367
▁mo	-1368
▁aam	-1369
▁uhka	-1370
▁muist	-1371
▁!	-1372
▁stu	-1373
▁koke	-1374
kkö	-1375
▁jatku	-1376
▁ojen	-1377
▁isku	-1378
▁ain	-1379
▁tied	-1380
▁jäi	-1381
▁iti	-1382
▁tom	-1383
▁ejä	-1384
▁talou	-1385
▁tykse	-1386
uha	-1387
▁hu	-1388
▁Sal	-1389
▁iellä	-1390
▁til	-1391
▁Ja	-1392
▁ika	-1393
rsi	-1394
▁tors	-1395
▁tuntu	-1396
▁anni	-1397
▁ulk	-1398
▁ehtäv	-1399
▁tely	-1400
▁mai	-1401
▁siir	-1402
▁tasa	-1403
▁mäise	-1404
▁autta	-1405
▁Al	-1406
▁myöh	-1407
▁juuri	-1408
▁oim	-1409
▁äli	-1410
▁tautu	-1411
▁ensa	-1412
▁iedot	-1413
▁aita	-1414
▁ttee	-1415
▁eet	-1416
▁äällä	-1417
▁asio	-1418
▁ttäin	-1419
▁net	-1420
▁itäis	-1421
til	-1422
▁ntaa	-1423
▁iseen	-1424
▁kone	-1425
▁On	-1426
▁nnan	-1427
iden	-1428
▁ttom	-1429
▁Pohjo	-1430
▁Mi	-1431
▁mpi	-1432
▁Viime	-1433
▁arjoi	-1434
ram	-1435
ske	-1436
▁emaan	-1437
▁jatko	-1438
sia	-1439
▁mise	-1440
▁dään	-1441
▁keske	-1442
▁kuten	-1443
▁apa	-1444
▁ysy	-1445
▁aino	-1446
▁vähän	-1447
▁aat	-1448
▁enna	-1449
▁EU	-1450
▁olen	-1451
▁tässä	-1452
▁stel	-1453
▁nna	-1454
▁yys	-1455
▁minu	-1456
▁tiis	-1457
▁tajan	-1458
▁amm	-1459
▁auden	-1460
▁oikea	-1461
▁paino	-1462
▁nt	-1463
▁tyy	-1464
▁eille	-1465
▁yn	-1466
▁Z	-1467
▁laine	-1468
eh	-1469
▁tak	-1470
▁lähes	-1471
▁tuomi	-1472
▁ensä	-1473
▁jal	-1474
▁He	-1475
▁rauha	-1476
▁selv	-1477
▁kohd	-1478
▁naan	-1479
▁sk	-1480
▁iltä	-1481
▁iitto	-1482
▁lapsi	-1483
▁yks	-1484
▁lämp	-1485
▁uraav	-1486
▁aav	-1487
▁Kal	-1488
▁toivo	-1489
ysy	-1490
▁kysy	-1491
▁oitto	-1492
▁erä	-1493
▁sty	-1494
▁enä	-1495
▁iivis	-1496
▁unnun	-1497
▁vie	-1498
▁yhtä	-1499
▁Hänen	-1500
▁lai	-1501
▁inna	-1502
▁amaan	-1503
▁kuul	-1504
▁lähti	-1505
ös	-1506
▁elvit	-1507
▁alja	-1508
▁uutam	-1509
ch	-1510
▁täy	-1511
ppa	-1512
▁isuu	-1513
▁dessa	-1514
▁eit	-1515
▁tain	-1516
▁oki	-1517
▁ukset	-1518
▁tys	-1519
▁kamp	-1520
▁ahden	-1521
▁inaal	-1522
▁ant	-1523
▁tosi	-1524
▁uukau	-1525
▁oni	-1526
▁ikos	-1527
▁alkoi	-1528
▁siinä	-1529
▁ehdok	-1530
▁isin	-1531
▁laske	-1532
▁nii	-1533
▁laa	-1534
▁laan	-1535
▁hoit	-1536
▁oiden	-1537
▁kyl	-1538
▁omais	-1539
▁tettu	-1540
kee	-1541
▁ilman	-1542
▁nis	-1543
▁löy	-1544
▁esk	-1545
sin	-1546
▁ymm	-1547
▁ysymy	-1548
▁tähti	-1549
▁arhai	-1550
▁tune	-1551
▁eloku	-1552
▁koske	-1553
▁ärjes	-1554
▁ampu	-1555
▁nnu	-1556
▁ravi	-1557
▁hoito	-1558
▁Olen	-1559
▁aljas	-1560
▁selvi	-1561
▁emp	-1562
▁ija	-1563
▁eita	-1564
▁änsä	-1565
▁raha	-1566
▁Ko	-1567
▁istor	-1568
▁lento	-1569
▁sal	-1570
▁aikea	-1571
▁Val	-1572
▁ttam	-1573
▁punki	-1574
▁aiko	-1575
▁Ha	-1576
▁tävät	-1577
▁La	-1578
▁itiik	-1579
▁ola	-1580
▁eril	-1581
▁od	-1582
▁kiel	-1583
▁leikk	-1584
▁maksa	-1585
▁ine	-1586
▁änä	-1587
▁nopea	-1588
▁raala	-1589
▁syö	-1590
▁llaan	-1591
▁taas	-1592
▁eki	-1593
▁laaj	-1594
▁tte	-1595
▁sotil	-1596
▁takia	-1597
▁einä	-1598
▁ouk	-1599
▁rit	-1600
▁ime	-1601
▁sota	-1602
▁ulkis	-1603
▁ton	-1604
▁vero	-1605
▁Ta	-1606
▁aisia	-1607
▁uuttu	-1608
▁inty	-1609
▁seen	-1610
ukk	-1611
▁asiak	-1612
▁ad	-1613
▁sson	-1614
▁nnä	-1615
▁teko	-1616
▁tunte	-1617
▁apu	-1618
▁ärä	-1619
▁ston	-1620
▁aukse	-1621
▁terve	-1622
▁voisi	-1623
▁ellis	-1624
▁eg	-1625
▁ac	-1626
▁eer	-1627
▁puole	-1628
ff	-1629
▁saapu	-1630
▁kent	-1631
▁ahvis	-1632
▁äri	-1633
▁oita	-1634
▁ho	-1635
▁ätä	-1636
▁Nor	-1637
▁ittaa	-1638
▁lähi	-1639
▁my	-1640
▁ierro	-1641
▁sarj	-1642
▁teriö	-1643
nu	-1644
▁avat	-1645
▁ruoka	-1646
▁oitti	-1647
▁palo	-1648
▁ieh	-1649
▁aikai	-1650
▁aista	-1651
▁ehde	-1652
▁käsi	-1653
▁liiga	-1654
ila	-1655
ert	-1656
▁vaali	-1657
▁X	-1658
▁aste	-1659
▁nnus	-1660
▁ussi	-1661
▁mieli	-1662
▁oissa	-1663
▁äätty	-1664
▁oly	-1665
▁ide	-1666
▁pallo	-1667
kar	-1668
▁yr	-1669
▁yde	-1670
▁Mutta	-1671
▁ymmär	-1672
▁ast	-1673
▁uva	-1674
▁oimi	-1675
▁laj	-1676
▁iekko	-1677
▁luok	-1678
▁piene	-1679
HL	-1680
väl	-1681
▁uinka	-1682
hoi	-1683
▁uul	-1684
▁pysy	-1685
▁tärke	-1686
▁kois	-1687
▁hake	-1688
▁ara	-1689
▁Sam	-1690
▁taist	-1691
▁Näin	-1692
▁joten	-1693
▁ettav	-1694
▁siis	-1695
▁unni	-1696
▁vän	-1697
▁oonaa	-1698
▁olymp	-1699
▁In	-1700
▁Biden	-1701
▁hyv	-1702
▁häi	-1703
▁ieltä	-1704
▁malli	-1705
▁anen	-1706
▁oikei	-1707
▁maal	-1708
▁appi	-1709
▁iini	-1710
▁laki	-1711
▁inväl	-1712
▁IS	-1713
yttä	-1714
iki	-1715
▁meni	-1716
▁daan	-1717
▁tomuu	-1718
▁halua	-1719
▁mukse	-1720
▁Syy	-1721
▁kuulu	-1722
▁ieman	-1723
▁isa	-1724
▁nnö	-1725
▁attu	-1726
▁auta	-1727
▁iili	-1728
▁sivat	-1729
▁az	-1730
han	-1731
▁kilom	-1732
▁näin	-1733
pal	-1734
▁Saksa	-1735
vai	-1736
▁nnuks	-1737
▁yytä	-1738
▁hä	-1739
▁Inst	-1740
▁jäsen	-1741
▁entis	-1742
▁kilpa	-1743
ön	-1744
▁pyö	-1745
▁nu	-1746
▁tamis	-1747
▁kuoli	-1748
▁Or	-1749
▁etrin	-1750
▁huono	-1751
▁ehd	-1752
▁aatu	-1753
▁näköi	-1754
▁jakso	-1755
▁por	-1756
▁äätös	-1757
▁nos	-1758
▁NHL	-1759
▁ksen	-1760
▁helpo	-1761
▁ber	-1762
▁iehen	-1763
▁otti	-1764
▁ang	-1765
▁20	-1766
▁ellä	-1767
▁työnt	-1768
▁lma	-1769
▁oista	-1770
▁tivat	-1771
▁äysin	-1772
▁eä	-1773
▁edes	-1774
ing	-1775
▁koro	-1776
▁son	-1777
▁ort	-1778
▁havai	-1779
▁yhä	-1780
▁isen	-1781
▁leen	-1782
▁kyllä	-1783
▁Pe	-1784
▁menet	-1785
▁arki	-1786
nä	-1787
▁rä	-1788
▁vira	-1789
▁tsee	-1790
▁Oulun	-1791
▁attom	-1792
▁uippu	-1793
▁nnyt	-1794
▁ammat	-1795
▁Na	-1796
▁ttelu	-1797
▁auton	-1798
▁elämä	-1799
▁ake	-1800
▁agram	-1801
▁juhli	-1802
▁nor	-1803
▁isti	-1804
▁onta	-1805
▁oikke	-1806
▁unta	-1807
ilu	-1808
▁heti	-1809
▁kävi	-1810
▁toden	-1811
▁kokou	-1812
▁yvin	-1813
▁asema	-1814
▁iikon	-1815
▁niitä	-1816
▁mäine	-1817
▁inta	-1818
▁kutsu	-1819
▁kevää	-1820
▁vesi	-1821
▁ander	-1822
▁äräjä	-1823
▁minuu	-1824
▁pääse	-1825
▁kaiki	-1826
kon	-1827
▁arh	-1828
▁eista	-1829
▁vapaa	-1830
▁alkaa	-1831
▁asten	-1832
▁uute	-1833
iksi	-1834
▁ela	-1835
▁lah	-1836
▁pid	-1837
▁eur	-1838
▁koi	-1839
▁änään	-1840
▁joita	-1841
▁Tuo	-1842
▁oima	-1843
▁ste	-1844
▁häntä	-1845
▁ointi	-1846
▁älle	-1847
▁viide	-1848
▁dä	-1849
▁uvail	-1850
▁tänä	-1851
▁oivat	-1852
▁massa	-1853
▁toime	-1854
▁hil	-1855
▁täll	-1856
▁pääsi	-1857
▁pan	-1858
▁orva	-1859
▁avoit	-1860
▁ilme	-1861
▁mitta	-1862
▁tr	-1863
▁laito	-1864
▁Yksi	-1865
▁nsi	-1866
▁tote	-1867
▁vaka	-1868
▁uolis	-1869
▁luku	-1870
▁piti	-1871
▁tkaa	-1872
▁atti	-1873
▁uolem	-1874
▁vakav	-1875
▁yllä	-1876
▁missä	-1877
▁jota	-1878
▁Ä	-1879
▁Orpo	-1880
▁utki	-1881
▁häiri	-1882
▁Esi	-1883
▁seks	-1884
▁kko	-1885
▁täh	-1886
▁yky	-1887
▁elin	-1888
▁illi	-1889
▁uloks	-1890
▁mmin	-1891
▁eihin	-1892
elm	-1893
ksu	-1894
▁pala	-1895
▁kohte	-1896
▁tuma	-1897
▁ystä	-1898
▁New	-1899
▁ikku	-1900
▁lään	-1901
▁nousi	-1902
▁pieni	-1903
▁stelm	-1904
▁iku	-1905
▁venä	-1906
▁+	-1907
▁elm	-1908
▁und	-1909
▁venäl	-1910
▁tulla	-1911
▁iina	-1912
▁taust	-1913
▁rve	-1914
▁auri	-1915
▁päivi	-1916
▁tuksi	-1917
dy	-1918
▁anc	-1919
▁hinta	-1920
▁uosi	-1921
▁loukk	-1922
▁yhden	-1923
▁uoj	-1924
▁Kor	-1925
▁akt	-1926
▁ard	-1927
▁luvu	-1928
▁nnas	-1929
▁joulu	-1930
▁oona	-1931
▁kanna	-1932
▁ami	-1933
▁appal	-1934
▁rveys	-1935
▁etu	-1936
▁etri	-1937
▁läpi	-1938
▁äästä	-1939
▁ääri	-1940
▁ttuna	-1941
▁viran	-1942
▁jalka	-1943
eme	-1944
▁dy	-1945
▁lähd	-1946
▁euron	-1947
▁tio	-1948
▁aivan	-1949
▁laji	-1950
maa	-1951
▁silm	-1952
▁uistu	-1953
▁ärke	-1954
▁äte	-1955
▁ait	-1956
▁pide	-1957
ih	-1958
▁pä	-1959
▁Itä	-1960
▁tek	-1961
▁Pa	-1962
▁astuu	-1963
▁rins	-1964
▁ans	-1965
▁itsem	-1966
▁atu	-1967
▁kir	-1968
▁nlo	-1969
▁lupa	-1970
ok	-1971
▁anki	-1972
▁isuud	-1973
▁kohda	-1974
▁annut	-1975
▁tökse	-1976
▁tuki	-1977
▁urk	-1978
▁har	-1979
▁äiti	-1980
▁uuksi	-1981
▁10	-1982
▁kka	-1983
▁nieme	-1984
▁poh	-1985
▁syksy	-1986
▁hänet	-1987
▁usein	-1988
▁kunno	-1989
▁tiete	-1990
▁aton	-1991
▁uha	-1992
▁anssi	-1993
▁soit	-1994
▁osta	-1995
▁je	-1996
▁isu	-1997
▁ehkä	-1998
▁elkä	-1999
▁aantu	-2000
▁valit	-2001
▁pyör	-2002
▁nneet	-2003
▁ay	-2004
▁ok	-2005
▁lapse	-2006
▁aar	-2007
▁yvinv	-2008
est	-2009
▁änsi	-2010
▁ääni	-2011
▁iuk	-2012
▁ansi	-2013
▁arr	-2014
▁naa	-2015
▁llään	-2016
▁aset	-2017
▁lämpö	-2018
▁väkiv	-2019
▁Lin	-2020
▁Vir	-2021
▁uisto	-2022
▁ottaa	-2023
▁Har	-2024
▁kulut	-2025
uko	-2026
▁aid	-2027
▁ntää	-2028
▁auppa	-2029
▁eistä	-2030
▁orkea	-2031
▁15	-2032
▁telij	-2033
▁itelm	-2034
▁väksy	-2035
▁test	-2036
▁ansal	-2037
▁oteaa	-2038
▁tseva	-2039
män	-2040
▁onal	-2041
▁hj	-2042
▁ned	-2043
▁atso	-2044
▁oman	-2045
▁tili	-2046
▁pääll	-2047
▁nny	-2048
▁liike	-2049
▁tänee	-2050
▁riko	-2051
▁ttäj	-2052
▁nedus	-2053
▁ttain	-2054
▁tätä	-2055
ess	-2056
▁Salo	-2057
▁aani	-2058
▁hävi	-2059
▁nni	-2060
▁sod	-2061
▁eitä	-2062
▁aivo	-2063
▁iu	-2064
▁kohti	-2065
▁täyty	-2066
▁ämä	-2067
▁viit	-2068
▁pysä	-2069
▁voim	-2070
▁uunta	-2071
▁ses	-2072
▁anke	-2073
▁ako	-2074
▁An	-2075
▁ulos	-2076
▁ohd	-2077
▁uhri	-2078
▁umma	-2079
▁naine	-2080
▁uorit	-2081
▁gia	-2082
▁poi	-2083
▁Salon	-2084
▁aisin	-2085
▁yliop	-2086
▁lehde	-2087
▁anj	-2088
▁ini	-2089
▁lop	-2090
▁työsk	-2091
▁iirty	-2092
▁oilla	-2093
▁poika	-2094
▁ene	-2095
▁onnet	-2096
▁tsi	-2097
▁öyd	-2098
▁aahan	-2099
▁sp	-2100
▁allan	-2101
▁utta	-2102
▁vaati	-2103
▁viisi	-2104
▁Vil	-2105
▁autu	-2106
▁est	-2107
▁sten	-2108
▁taka	-2109
▁tori	-2110
via	-2111
▁Ru	-2112
▁ttaja	-2113
▁elen	-2114
▁ältä	-2115
telä	-2116
▁vier	-2117
▁Etelä	-2118
▁Niin	-2119
▁aist	-2120
▁arsin	-2121
▁murha	-2122
▁Mies	-2123
ero	-2124
mok	-2125
▁itti	-2126
▁ruu	-2127
▁atkus	-2128
▁hoita	-2129
▁uonno	-2130
▁aari	-2131
▁allo	-2132
▁usiik	-2133
inu	-2134
▁Lind	-2135
▁sodan	-2136
▁hiih	-2137
▁ieto	-2138
▁toteu	-2139
▁'	-2140
▁Kar	-2141
▁sky	-2142
▁berg	-2143
▁onnis	-2144
▁uurin	-2145
▁liito	-2146
▁syys	-2147
▁miehi	-2148
▁ohi	-2149
▁metsä	-2150
▁inko	-2151
▁ikoks	-2152
▁otain	-2153
▁oukko	-2154
▁tehty	-2155
▁lopet	-2156
▁mene	-2157
▁ouko	-2158
▁iikku	-2159
▁ijoit	-2160
▁oimit	-2161
▁het	-2162
▁varm	-2163
▁osu	-2164
▁etsi	-2165
▁äivän	-2166
▁aiden	-2167
▁asemm	-2168
▁ijaan	-2169
▁viet	-2170
▁minkä	-2171
▁aha	-2172
▁Lue	-2173
▁eteen	-2174
▁uolim	-2175
▁oul	-2176
▁kunto	-2177
▁tekij	-2178
eri	-2179
▁mone	-2180
▁mukai	-2181
▁sit	-2182
mpp	-2183
▁uhe	-2184
▁muita	-2185
▁ukka	-2186
▁eijo	-2187
▁iinno	-2188
▁uosit	-2189
▁tua	-2190
▁erkko	-2191
▁julki	-2192
▁uote	-2193
▁uoto	-2194
kr	-2195
▁ahti	-2196
▁arhaa	-2197
▁elko	-2198
▁levi	-2199
▁ilun	-2200
▁ittel	-2201
▁ainoa	-2202
▁Co	-2203
▁heit	-2204
▁jälle	-2205
ore	-2206
▁lad	-2207
▁jotta	-2208
▁ude	-2209
▁mp	-2210
▁sina	-2211
nö	-2212
▁teho	-2213
▁uksen	-2214
▁tah	-2215
▁itta	-2216
▁jouko	-2217
▁ab	-2218
▁ivät	-2219
▁Antti	-2220
▁kerä	-2221
▁uning	-2222
▁alise	-2223
▁altuu	-2224
▁lähtö	-2225
ott	-2226
▁usu	-2227
▁opet	-2228
▁heik	-2229
▁palki	-2230
▁ihme	-2231
▁nssi	-2232
▁sij	-2233
▁pela	-2234
▁mäki	-2235
▁aistu	-2236
▁eikk	-2237
▁kylä	-2238
▁kokem	-2239
▁idät	-2240
▁eiden	-2241
▁yyde	-2242
▁kärsi	-2243
▁tekee	-2244
▁aju	-2245
▁kesäk	-2246
int	-2247
▁12	-2248
▁tet	-2249
▁ennät	-2250
▁maksu	-2251
▁tähän	-2252
▁äyttö	-2253
▁ilija	-2254
▁eisö	-2255
▁ull	-2256
▁hoid	-2257
▁arris	-2258
▁Pel	-2259
▁vel	-2260
▁rooli	-2261
▁aki	-2262
▁Mikko	-2263
▁ttuur	-2264
▁Kiina	-2265
▁etriä	-2266
▁kymme	-2267
▁irv	-2268
▁emme	-2269
▁rist	-2270
▁paras	-2271
▁kar	-2272
▁suku	-2273
▁ane	-2274
▁aikke	-2275
ude	-2276
▁loka	-2277
▁eng	-2278
▁onen	-2279
▁Esime	-2280
▁ielen	-2281
▁myötä	-2282
▁herät	-2283
▁onald	-2284
isk	-2285
ort	-2286
▁äv	-2287
▁Oulu	-2288
▁piir	-2289
▁ovi	-2290
▁pyr	-2291
▁eni	-2292
▁niide	-2293
▁ähe	-2294
▁akuut	-2295
▁rof	-2296
▁To	-2297
▁linja	-2298
lam	-2299
▁aisuu	-2300
▁utini	-2301
▁määri	-2302
▁30	-2303
▁The	-2304
▁edel	-2305
▁alous	-2306
▁maajo	-2307
▁naise	-2308
ute	-2309
▁nistu	-2310
▁ae	-2311
▁Var	-2312
▁ankki	-2313
▁appio	-2314
▁ksia	-2315
▁aluaa	-2316
▁usten	-2317
▁Nato	-2318
▁eissä	-2319
▁tivät	-2320
sal	-2321
▁arl	-2322
rju	-2323
▁tuore	-2324
▁and	-2325
▁liian	-2326
▁rik	-2327
▁oski	-2328
▁rttu	-2329
▁koulu	-2330
▁oihin	-2331
▁oitus	-2332
▁korj	-2333
▁ologi	-2334
▁Minu	-2335
▁norm	-2336
▁Kan	-2337
▁jut	-2338
▁tunni	-2339
▁urr	-2340
▁keino	-2341
▁osuu	-2342
▁telev	-2343
▁lyt	-2344
▁imo	-2345
▁ustel	-2346
▁uuluu	-2347
▁aulu	-2348
▁oulut	-2349
eno	-2350
▁änne	-2351
▁maini	-2352
▁äälle	-2353
▁uor	-2354
▁rask	-2355
▁olemm	-2356
▁tarpe	-2357
▁olmen	-2358
▁tekn	-2359
▁ntola	-2360
▁Saa	-2361
▁vahv	-2362
ser	-2363
▁riski	-2364
▁äm	-2365
▁Norja	-2366
▁run	-2367
▁elta	-2368
▁harv	-2369
▁demok	-2370
▁joide	-2371
▁suosi	-2372
rau	-2373
▁huu	-2374
▁antam	-2375
▁ennus	-2376
▁suuri	-2377
▁ajoit	-2378
▁ialai	-2379
▁nko	-2380
▁uhd	-2381
▁ajaa	-2382
▁kuvi	-2383
▁lauk	-2384
▁pyrki	-2385
▁täyt	-2386
▁yyttä	-2387
▁EM	-2388
▁ord	-2389
▁oukok	-2390
▁ib	-2391
▁kaap	-2392
▁kuol	-2393
▁asiaa	-2394
▁ikään	-2395
▁tal	-2396
▁valo	-2397
▁avau	-2398
▁Ale	-2399
▁tuke	-2400
▁henki	-2401
▁Pää	-2402
▁päin	-2403
▁tulos	-2404
▁erta	-2405
▁krit	-2406
ce	-2407
▁ykkö	-2408
▁tae	-2409
▁uhti	-2410
▁uiden	-2411
▁vaimo	-2412
▁ausu	-2413
▁ida	-2414
▁enno	-2415
▁Tila	-2416
▁aiva	-2417
▁käytö	-2418
▁sinai	-2419
▁tetty	-2420
▁set	-2421
▁ttava	-2422
▁laul	-2423
▁kerta	-2424
▁itu	-2425
▁iiga	-2426
▁pohjo	-2427
▁aih	-2428
▁ihr	-2429
▁anut	-2430
▁koto	-2431
▁ennak	-2432
▁kasvu	-2433
▁lehti	-2434
aali	-2435
▁Alex	-2436
▁kee	-2437
▁onne	-2438
▁äksi	-2439
▁syysk	-2440
▁omm	-2441
▁raat	-2442
▁merkk	-2443
▁nv	-2444
▁hti	-2445
▁empaa	-2446
▁kaupa	-2447
▁Ensi	-2448
▁elmik	-2449
▁vaike	-2450
▁öl	-2451
▁älier	-2452
▁adi	-2453
▁ike	-2454
▁nau	-2455
▁kausi	-2456
▁nl	-2457
▁kysee	-2458
▁lasku	-2459
▁tästä	-2460
uro	-2461
▁iset	-2462
▁entee	-2463
▁aisem	-2464
▁ity	-2465
▁ysel	-2466
▁tto	-2467
▁udu	-2468
▁paine	-2469
▁sosia	-2470
▁vede	-2471
▁Pekka	-2472
▁ingo	-2473
▁heng	-2474
vaa	-2475
▁ehdot	-2476
▁työtä	-2477
▁vanha	-2478
▁ohu	-2479
▁Tämän	-2480
▁onko	-2481
▁löytä	-2482
▁ylä	-2483
▁tuho	-2484
▁mill	-2485
▁adu	-2486
▁SM	-2487
▁Suom	-2488
▁ähemm	-2489
uto	-2490
▁saar	-2491
▁menne	-2492
▁ulisi	-2493
▁Ky	-2494
▁sia	-2495
▁tävä	-2496
▁ikuis	-2497
▁ink	-2498
▁tia	-2499
▁vapa	-2500
▁ilmi	-2501
▁aavut	-2502
▁muuta	-2503
▁tävän	-2504
▁eo	-2505
▁ati	-2506
▁isia	-2507
▁masti	-2508
▁ikko	-2509
▁akse	-2510
▁iitä	-2511
▁inti	-2512
▁peri	-2513
▁Halli	-2514
▁illis	-2515
▁otesi	-2516
▁aliok	-2517
▁avio	-2518
▁päiv	-2519
▁tyyp	-2520
▁ras	-2521
▁tähd	-2522
ge	-2523
▁hieno	-2524
▁inf	-2525
▁arlam	-2526
▁alko	-2527
▁jolla	-2528
▁yhdis	-2529
▁tusta	-2530
▁tännö	-2531
▁tv	-2532
▁utk	-2533
▁kulu	-2534
▁meno	-2535
▁intei	-2536
▁teo	-2537
▁iikka	-2538
▁nouse	-2539
▁einäk	-2540
▁nd	-2541
▁aza	-2542
▁hevo	-2543
▁juhla	-2544
▁valla	-2545
▁olle	-2546
▁näkem	-2547
▁pohti	-2548
lit	-2549
▁säil	-2550
▁aroit	-2551
▁mere	-2552
▁asvat	-2553
▁tavan	-2554
▁Uude	-2555
▁hon	-2556
▁arras	-2557
▁hilja	-2558
▁merki	-2559
▁ano	-2560
▁josta	-2561
▁kuude	-2562
▁oppi	-2563
▁ietti	-2564
▁vaiht	-2565
▁alli	-2566
▁anto	-2567
je	-2568
▁kää	-2569
▁irta	-2570
▁pääty	-2571
▁yttä	-2572
▁uutos	-2573
▁No	-2574
▁ksu	-2575
▁runsa	-2576
▁iki	-2577
▁etelä	-2578
▁virhe	-2579
kas	-2580
▁Re	-2581
▁auk	-2582
▁iiton	-2583
▁lukem	-2584
▁järk	-2585
▁ohdis	-2586
▁ank	-2587
▁yksiä	-2588
▁udot	-2589
▁merik	-2590
▁ark	-2591
▁puol	-2592
▁uuli	-2593
▁vähi	-2594
▁akkau	-2595
▁valvo	-2596
▁aikal	-2597
▁ampum	-2598
▁nlopp	-2599
▁reilu	-2600
▁uoro	-2601
▁dio	-2602
▁mui	-2603
▁sul	-2604
▁asa	-2605
▁näis	-2606
▁Kansa	-2607
▁ariis	-2608
▁uni	-2609
▁urna	-2610
▁vapau	-2611
▁du	-2612
▁eor	-2613
▁entu	-2614
▁11	-2615
▁ikkö	-2616
▁jatk	-2617
▁altav	-2618
▁antoi	-2619
▁avar	-2620
▁tait	-2621
▁istyö	-2622
▁oy	-2623
▁johto	-2624
uru	-2625
▁esken	-2626
▁orm	-2627
▁rom	-2628
▁adio	-2629
▁tunnu	-2630
▁anad	-2631
▁huum	-2632
▁onet	-2633
▁ress	-2634
kino	-2635
▁oitu	-2636
▁veto	-2637
▁alaut	-2638
▁koira	-2639
▁arja	-2640
▁imme	-2641
▁lik	-2642
▁yhy	-2643
▁kkino	-2644
▁Yle	-2645
▁vauh	-2646
▁ssään	-2647
▁aana	-2648
▁mita	-2649
▁kumpp	-2650
▁Euro	-2651
▁nous	-2652
▁ovin	-2653
▁rikko	-2654
▁lokak	-2655
▁ilo	-2656
▁törke	-2657
▁Tap	-2658
▁evy	-2659
▁ich	-2660
▁amise	-2661
▁valmi	-2662
▁Kes	-2663
▁loma	-2664
▁pahoi	-2665
▁torju	-2666
▁eva	-2667
▁läis	-2668
▁koros	-2669
▁vähe	-2670
▁esä	-2671
▁lor	-2672
▁uku	-2673
▁vih	-2674
▁uulu	-2675
▁ävel	-2676
▁akana	-2677
▁otiin	-2678
▁ener	-2679
▁aiken	-2680
▁elok	-2681
▁selit	-2682
▁alas	-2683
▁eessa	-2684
▁joku	-2685
▁ekijä	-2686
mai	-2687
▁ail	-2688
▁ksiä	-2689
▁mennä	-2690
▁oille	-2691
▁end	-2692
▁uper	-2693
▁onser	-2694
▁rs	-2695
▁anav	-2696
▁opisk	-2697
▁otsal	-2698
▁täyde	-2699
▁eal	-2700
▁peru	-2701
▁virka	-2702
▁enti	-2703
▁lämm	-2704
▁rad	-2705
▁eläi	-2706
▁uhtik	-2707
▁koe	-2708
▁luki	-2709
▁rssi	-2710
▁ob	-2711
▁aatim	-2712
▁otu	-2713
▁ajoi	-2714
▁uokr	-2715
▁saman	-2716
▁vaihe	-2717
▁tin	-2718
▁eudu	-2719
▁kohol	-2720
▁vält	-2721
▁aport	-2722
▁Ylen	-2723
▁ehto	-2724
▁airau	-2725
▁arvos	-2726
▁paiko	-2727
▁ttamu	-2728
▁valto	-2729
▁iippu	-2730
▁näi	-2731
▁änen	-2732
▁hui	-2733
▁oeh	-2734
▁anno	-2735
▁tilan	-2736
▁sio	-2737
▁ylm	-2738
▁inne	-2739
▁änty	-2740
▁silti	-2741
▁yksik	-2742
▁Keski	-2743
▁ankeu	-2744
▁stään	-2745
▁tyä	-2746
▁tilo	-2747
▁of	-2748
▁uosik	-2749
▁okse	-2750
▁kok	-2751
▁Yl	-2752
▁vis	-2753
▁one	-2754
▁opp	-2755
▁iito	-2756
▁pohja	-2757
▁kusta	-2758
▁iisu	-2759
▁miksi	-2760
▁oehto	-2761
▁myr	-2762
▁Voi	-2763
▁ietoa	-2764
▁aad	-2765
▁oir	-2766
▁eera	-2767
▁Asia	-2768
▁paris	-2769
▁mäe	-2770
▁rmä	-2771
▁mistä	-2772
▁talli	-2773
▁50	-2774
▁sis	-2775
▁npit	-2776
▁sate	-2777
▁amper	-2778
▁inis	-2779
▁aikan	-2780
▁uuluv	-2781
▁ate	-2782
▁töön	-2783
▁nkert	-2784
▁mia	-2785
▁some	-2786
▁unti	-2787
▁karsi	-2788
▁jätti	-2789
▁palkk	-2790
▁TV	-2791
▁lti	-2792
▁dolla	-2793
▁eutu	-2794
▁13	-2795
▁kova	-2796
▁ket	-2797
▁nder	-2798
▁lain	-2799
▁Pet	-2800
▁sun	-2801
▁Brit	-2802
▁sana	-2803
iri	-2804
▁ip	-2805
▁ssi	-2806
▁ettäv	-2807
▁voito	-2808
▁pyy	-2809
▁impi	-2810
▁ouluk	-2811
▁org	-2812
▁tuttu	-2813
▁anti	-2814
▁haav	-2815
▁yttö	-2816
▁ila	-2817
▁tön	-2818
▁oimak	-2819
▁yksen	-2820
▁usjoh	-2821
▁yysi	-2822
▁inu	-2823
▁kanta	-2824
▁uod	-2825
▁yyd	-2826
▁stus	-2827
▁entel	-2828
▁illan	-2829
▁tiedä	-2830
▁ausi	-2831
▁sosi	-2832
▁aatte	-2833
▁ado	-2834
▁järve	-2835
▁stuks	-2836
▁iil	-2837
▁eikka	-2838
▁uum	-2839
▁vää	-2840
▁ydi	-2841
▁eläk	-2842
▁ukea	-2843
▁telem	-2844
kuv	-2845
▁ean	-2846
▁mät	-2847
▁iivi	-2848
▁ius	-2849
▁Pres	-2850
▁ein	-2851
▁liha	-2852
▁sattu	-2853
▁z	-2854
her	-2855
▁esiin	-2856
▁Oli	-2857
▁enr	-2858
▁eensä	-2859
▁avoi	-2860
▁täisi	-2861
▁ork	-2862
▁äivä	-2863
▁uaali	-2864
▁ub	-2865
▁ria	-2866
▁aho	-2867
▁ksan	-2868
▁uone	-2869
▁iv	-2870
▁nap	-2871
▁armaa	-2872
▁Osa	-2873
▁isk	-2874
▁umm	-2875
▁ehot	-2876
▁elasi	-2877
▁ärki	-2878
▁ääjä	-2879
▁apsen	-2880
▁ärkeä	-2881
co	-2882
▁ahde	-2883
▁Mat	-2884
▁Put	-2885
▁elke	-2886
▁eikki	-2887
▁yvä	-2888
▁akot	-2889
▁hetki	-2890
▁juttu	-2891
▁Saar	-2892
▁25	-2893
▁ig	-2894
▁into	-2895
▁pakk	-2896
▁kap	-2897
▁uri	-2898
▁Putin	-2899
▁ranna	-2900
▁irt	-2901
▁ust	-2902
▁sala	-2903
▁sään	-2904
▁mmi	-2905
▁kier	-2906
▁ert	-2907
▁osto	-2908
▁aikoi	-2909
▁ataan	-2910
▁isuus	-2911
▁ek	-2912
▁ntam	-2913
▁väl	-2914
▁eb	-2915
▁ex	-2916
▁jala	-2917
▁Te	-2918
▁joe	-2919
▁tuv	-2920
▁aito	-2921
▁isio	-2922
▁tais	-2923
▁nomai	-2924
▁omu	-2925
▁eetti	-2926
hu	-2927
▁uoliv	-2928
▁elu	-2929
▁ont	-2930
▁mero	-2931
▁uksel	-2932
▁edu	-2933
▁huone	-2934
▁oimii	-2935
▁kato	-2936
▁oper	-2937
▁äline	-2938
▁otto	-2939
▁ttia	-2940
▁14	-2941
▁rek	-2942
▁ideo	-2943
▁uto	-2944
▁annu	-2945
▁miel	-2946
▁unna	-2947
▁ael	-2948
▁syyt	-2949
▁armi	-2950
▁äinen	-2951
▁tter	-2952
▁kkä	-2953
▁urma	-2954
▁aalia	-2955
▁oleva	-2956
▁Li	-2957
▁pian	-2958
▁äytyy	-2959
▁ue	-2960
▁aatti	-2961
▁kiint	-2962
▁piiri	-2963
▁mma	-2964
▁teja	-2965
▁oitte	-2966
▁land	-2967
▁meri	-2968
▁ähtee	-2969
▁hank	-2970
▁oinut	-2971
▁tussa	-2972
▁uud	-2973
▁iten	-2974
▁uomar	-2975
▁täe	-2976
▁teet	-2977
▁uima	-2978
▁nteen	-2979
▁ntään	-2980
▁aare	-2981
▁kkai	-2982
▁kuvan	-2983
▁ahta	-2984
▁nost	-2985
▁tsem	-2986
ju	-2987
▁iinä	-2988
▁kaat	-2989
▁kats	-2990
▁aket	-2991
▁eir	-2992
▁Koko	-2993
▁alve	-2994
▁luva	-2995
▁odi	-2996
▁delli	-2997
▁jy	-2998
▁sent	-2999
▁aalin	-3000
▁ammik	-3001
▁ely	-3002
▁ors	-3003
▁auan	-3004
▁vallo	-3005
▁äivää	-3006
▁öi	-3007
▁ess	-3008
▁Täll	-3009
▁pääss	-3010
▁öm	-3011
▁tuh	-3012
▁kilo	-3013
▁tämis	-3014
▁Ca	-3015
▁Ju	-3016
▁ask	-3017
▁ehu	-3018
▁ula	-3019
▁ardi	-3020
▁amine	-3021
▁netta	-3022
▁siko	-3023
▁span	-3024
▁iihto	-3025
▁kaise	-3026
▁ahaa	-3027
▁äykse	-3028
▁äd	-3029
▁sinki	-3030
▁uomal	-3031
▁poj	-3032
▁liit	-3033
▁imman	-3034
▁tella	-3035
▁spanj	-3036
▁16	-3037
▁Ra	-3038
▁kku	-3039
▁urj	-3040
▁skus	-3041
▁ranta	-3042
▁ud	-3043
▁alaa	-3044
▁ottam	-3045
▁Eri	-3046
▁uuk	-3047
▁alust	-3048
▁18	-3049
▁akas	-3050
▁mistu	-3051
▁Le	-3052
▁loh	-3053
▁nkä	-3054
▁asem	-3055
▁lasta	-3056
▁ele	-3057
▁ppi	-3058
▁usea	-3059
▁arkka	-3060
▁uolle	-3061
od	-3062
▁ilv	-3063
▁lue	-3064
▁apin	-3065
▁ekst	-3066
▁poik	-3067
▁äässä	-3068
▁kaver	-3069
▁urun	-3070
▁vansa	-3071
▁ove	-3072
▁ahvi	-3073
▁kulta	-3074
▁Es	-3075
▁tapp	-3076
▁ättä	-3077
▁sata	-3078
▁päätö	-3079
▁iak	-3080
▁nty	-3081
▁muuto	-3082
▁ilj	-3083
▁yvää	-3084
▁aatii	-3085
▁neli	-3086
▁paa	-3087
▁dia	-3088
▁omp	-3089
▁str	-3090
▁akso	-3091
▁komis	-3092
▁alan	-3093
▁uori	-3094
▁lista	-3095
▁menee	-3096
▁ion	-3097
▁17	-3098
▁imi	-3099
▁pitk	-3100
▁uita	-3101
▁kkina	-3102
▁rinta	-3103
▁erg	-3104
▁iz	-3105
▁Työ	-3106
▁ryhm	-3107
▁ji	-3108
▁isan	-3109
▁elij	-3110
▁luot	-3111
▁Hu	-3112
▁puut	-3113
▁oulun	-3114
▁alvi	-3115
▁niem	-3116
▁ksiin	-3117
▁antu	-3118
▁otell	-3119
▁immi	-3120
▁port	-3121
▁Rova	-3122
▁aur	-3123
▁nes	-3124
▁otku	-3125
▁para	-3126
▁seur	-3127
▁ttäis	-3128
▁oott	-3129
▁väri	-3130
▁esu	-3131
▁lus	-3132
▁ome	-3133
▁atar	-3134
▁arina	-3135
▁risti	-3136
▁ntö	-3137
▁Me	-3138
▁ettua	-3139
▁puhel	-3140
▁uno	-3141
▁Valt	-3142
▁katk	-3143
▁alto	-3144
▁ympia	-3145
▁iö	-3146
▁ety	-3147
▁ntie	-3148
▁reen	-3149
▁vamm	-3150
▁sek	-3151
▁Auto	-3152
▁ial	-3153
▁Mik	-3154
▁nla	-3155
▁uru	-3156
▁isält	-3157
▁nlais	-3158
lia	-3159
▁lm	-3160
▁mpä	-3161
▁amer	-3162
▁Esp	-3163
▁nio	-3164
▁enit	-3165
▁huol	-3166
▁kalai	-3167
▁erro	-3168
▁menes	-3169
▁ralli	-3170
▁säänt	-3171
▁40	-3172
▁Ty	-3173
▁äin	-3174
▁ammu	-3175
▁desta	-3176
▁mont	-3177
▁arkki	-3178
▁mättä	-3179
▁verra	-3180
▁Kau	-3181
▁uola	-3182
▁avi	-3183
▁suude	-3184
▁ow	-3185
▁iski	-3186
▁enk	-3187
▁lko	-3188
▁vetä	-3189
BC	-3190
▁arti	-3191
▁ndr	-3192
▁ekij	-3193
▁oksi	-3194
▁ito	-3195
▁kkää	-3196
▁olmi	-3197
▁matta	-3198
▁iim	-3199
▁Tois	-3200
▁jälk	-3201
▁lessa	-3202
▁Kat	-3203
▁linj	-3204
▁nnon	-3205
▁fan	-3206
▁leg	-3207
▁eena	-3208
▁nneen	-3209
▁otil	-3210
hmo	-3211
▁sat	-3212
▁ieli	-3213
▁eilla	-3214
▁ampi	-3215
▁don	-3216
▁sov	-3217
▁kasvo	-3218
▁klo	-3219
▁uolta	-3220
ivi	-3221
▁ääne	-3222
▁Sc	-3223
▁eili	-3224
▁omaa	-3225
▁uttaa	-3226
▁100	-3227
▁lumi	-3228
▁muis	-3229
▁Bar	-3230
▁jääk	-3231
▁lav	-3232
▁veit	-3233
▁talia	-3234
▁äsi	-3235
▁nassa	-3236
▁ye	-3237
▁äyn	-3238
▁Mä	-3239
▁anm	-3240
▁atsom	-3241
▁istol	-3242
▁ino	-3243
▁oto	-3244
▁mpaa	-3245
▁ommi	-3246
▁eitti	-3247
▁ppo	-3248
▁lie	-3249
▁aksa	-3250
▁auko	-3251
▁taha	-3252
▁auksi	-3253
▁raska	-3254
▁oiton	-3255
▁sääst	-3256
▁yse	-3257
▁aimi	-3258
▁ääk	-3259
▁iele	-3260
▁oppa	-3261
▁hahmo	-3262
▁salo	-3263
▁äly	-3264
▁lemme	-3265
▁rahoi	-3266
▁uodos	-3267
▁Br	-3268
▁hdy	-3269
▁itkä	-3270
▁järv	-3271
▁maat	-3272
▁ep	-3273
▁pp	-3274
▁tien	-3275
▁esto	-3276
▁aul	-3277
▁ers	-3278
▁äti	-3279
▁kiert	-3280
▁lli	-3281
▁osaa	-3282
▁vahva	-3283
▁rep	-3284
▁ismi	-3285
▁yöpä	-3286
▁aisen	-3287
▁nnes	-3288
▁TT	-3289
▁eute	-3290
▁naur	-3291
▁inkaa	-3292
▁rak	-3293
▁yyli	-3294
▁yv	-3295
▁jak	-3296
▁ritti	-3297
▁oa	-3298
▁mir	-3299
▁vei	-3300
▁ere	-3301
▁rah	-3302
▁evä	-3303
▁ivi	-3304
▁ekijö	-3305
▁ält	-3306
▁ätk	-3307
▁oske	-3308
▁tsev	-3309
▁pur	-3310
▁tär	-3311
▁uvi	-3312
▁ossa	-3313
▁Per	-3314
▁sut	-3315
▁tavi	-3316
▁ailla	-3317
▁äynni	-3318
▁ahd	-3319
▁kke	-3320
▁mais	-3321
▁ansan	-3322
▁Mc	-3323
▁ämm	-3324
▁imma	-3325
▁vast	-3326
▁metri	-3327
▁Tor	-3328
▁rea	-3329
▁isty	-3330
▁aihto	-3331
per	-3332
▁almi	-3333
▁nien	-3334
▁räjä	-3335
▁läine	-3336
▁aje	-3337
▁hty	-3338
▁korke	-3339
▁unnan	-3340
▁urnau	-3341
▁nnit	-3342
▁urha	-3343
▁uudet	-3344
▁äki	-3345
▁enni	-3346
▁äänty	-3347
▁sesta	-3348
▁oka	-3349
▁sille	-3350
▁suk	-3351
▁entä	-3352
▁kesän	-3353
▁asen	-3354
▁oivo	-3355
▁tyn	-3356
▁osin	-3357
▁tuvat	-3358
▁älttä	-3359
▁24	-3360
▁ash	-3361
▁jatka	-3362
▁hyp	-3363
▁uski	-3364
▁unnis	-3365
▁Joe	-3366
▁anga	-3367
▁omuks	-3368
▁välit	-3369
▁Ver	-3370
▁ive	-3371
▁evat	-3372
▁leis	-3373
▁ysti	-3374
▁ekon	-3375
▁isko	-3376
▁é	-3377
▁aiv	-3378
▁outu	-3379
▁nähdä	-3380
▁viest	-3381
▁luk	-3382
dä	-3383
▁orn	-3384
▁oise	-3385
▁tama	-3386
▁ttaj	-3387
iv	-3388
▁kiis	-3389
▁Maa	-3390
▁posti	-3391
▁amas	-3392
▁nö	-3393
▁aise	-3394
▁erää	-3395
▁rasi	-3396
▁Ala	-3397
▁sor	-3398
▁ääm	-3399
▁kulm	-3400
im	-3401
▁ins	-3402
▁oen	-3403
▁ntäm	-3404
▁täne	-3405
▁ater	-3406
▁lina	-3407
▁ntin	-3408
▁elev	-3409
▁vuor	-3410
▁ämme	-3411
▁linna	-3412
▁pelas	-3413
▁tiivi	-3414
▁uolen	-3415
▁ska	-3416
▁aiset	-3417
▁äärin	-3418
▁let	-3419
▁ysee	-3420
▁mista	-3421
▁ös	-3422
▁eem	-3423
▁amme	-3424
▁näke	-3425
▁jalai	-3426
▁yksin	-3427
▁our	-3428
▁aaliv	-3429
▁avoim	-3430
▁töä	-3431
▁kome	-3432
▁mah	-3433
▁erot	-3434
▁lat	-3435
▁puk	-3436
▁tod	-3437
▁parin	-3438
ker	-3439
▁lon	-3440
▁sad	-3441
▁tajat	-3442
▁ttuja	-3443
▁nnis	-3444
▁Muu	-3445
▁nka	-3446
▁empa	-3447
▁teita	-3448
ppo	-3449
▁aata	-3450
▁ug	-3451
▁toon	-3452
▁kel	-3453
▁nuk	-3454
▁tue	-3455
▁eren	-3456
▁riisi	-3457
▁rhe	-3458
▁Häne	-3459
▁hall	-3460
▁jäse	-3461
▁syyte	-3462
▁telua	-3463
▁kait	-3464
▁pano	-3465
▁pani	-3466
▁ennyt	-3467
▁kea	-3468
▁isemm	-3469
▁ntaja	-3470
▁vuode	-3471
▁HL	-3472
▁Pal	-3473
▁irj	-3474
▁ovel	-3475
▁vähä	-3476
▁ääd	-3477
▁kaup	-3478
▁eta	-3479
▁yörä	-3480
▁yri	-3481
▁toks	-3482
▁ysty	-3483
▁nev	-3484
▁este	-3485
▁ieti	-3486
▁intä	-3487
▁arv	-3488
▁via	-3489
▁olet	-3490
▁ohtaj	-3491
▁ositi	-3492
▁rheil	-3493
▁ham	-3494
▁iho	-3495
▁isö	-3496
▁asuk	-3497
▁kans	-3498
▁Kyse	-3499
▁iske	-3500
▁pet	-3501
▁tyt	-3502
▁usp	-3503
▁aaja	-3504
▁riv	-3505
▁teitä	-3506
▁äkk	-3507
▁elt	-3508
▁ope	-3509
▁wa	-3510
▁ack	-3511
▁dän	-3512
▁toa	-3513
▁jais	-3514
▁osan	-3515
▁äärä	-3516
▁emma	-3517
▁öitä	-3518
▁uuri	-3519
▁esity	-3520
▁iston	-3521
▁ntoja	-3522
hl	-3523
▁bo	-3524
▁aini	-3525
▁arme	-3526
▁aite	-3527
▁arkas	-3528
▁anl	-3529
▁kti	-3530
▁uka	-3531
▁erra	-3532
▁keli	-3533
▁iikki	-3534
▁eto	-3535
▁kki	-3536
▁äid	-3537
▁jaan	-3538
▁tteri	-3539
▁ade	-3540
▁ron	-3541
▁anis	-3542
▁nnen	-3543
▁iiv	-3544
▁ite	-3545
▁aiem	-3546
▁assi	-3547
▁ento	-3548
▁ulki	-3549
▁mel	-3550
▁utis	-3551
▁oite	-3552
▁täysi	-3553
▁200	-3554
▁ens	-3555
▁teena	-3556
▁inv	-3557
▁aakk	-3558
▁suoj	-3559
▁oisin	-3560
▁sinne	-3561
,5	-3562
▁Kir	-3563
▁olm	-3564
▁lymp	-3565
▁Ga	-3566
▁oke	-3567
▁atal	-3568
▁ova	-3569
▁posit	-3570
by	-3571
▁nat	-3572
▁sisäl	-3573
▁vänsä	-3574
mar	-3575
▁lve	-3576
▁oil	-3577
▁ytyvä	-3578
▁äivit	-3579
▁De	-3580
▁työn	-3581
▁sijoi	-3582
▁Gu	-3583
▁aud	-3584
▁une	-3585
▁aria	-3586
▁aalit	-3587
▁nkari	-3588
▁ps	-3589
▁amu	-3590
▁pil	-3591
▁eräs	-3592
▁koit	-3593
▁ävät	-3594
▁vasti	-3595
▁kkel	-3596
▁kset	-3597
▁logi	-3598
▁nkään	-3599
▁tea	-3600
▁talon	-3601
▁Suu	-3602
▁ääs	-3603
▁ippu	-3604
▁innan	-3605
▁pelin	-3606
▁muo	-3607
▁tap	-3608
▁arus	-3609
▁iety	-3610
▁ihmi	-3611
▁aisk	-3612
▁uule	-3613
▁ltiin	-3614
istä	-3615
▁syk	-3616
▁uhta	-3617
▁takaa	-3618
▁tunee	-3619
▁ranga	-3620
▁Ar	-3621
▁äk	-3622
▁ous	-3623
▁uvu	-3624
▁uoka	-3625
▁annus	-3626
▁upe	-3627
▁erus	-3628
▁otte	-3629
▁ineen	-3630
▁pö	-3631
▁ärje	-3632
▁ohtaa	-3633
▁alt	-3634
▁omo	-3635
▁amal	-3636
▁selle	-3637
▁aaj	-3638
▁ren	-3639
▁kunni	-3640
▁musta	-3641
▁tilai	-3642
▁mot	-3643
▁äih	-3644
▁anee	-3645
▁arjan	-3646
▁itali	-3647
▁käänt	-3648
▁tilaa	-3649
▁YK	-3650
▁hn	-3651
▁app	-3652
▁hte	-3653
▁ämis	-3654
▁muksi	-3655
▁hak	-3656
▁kuuta	-3657
▁tumis	-3658
▁Ke	-3659
▁sivät	-3660
▁utkij	-3661
tr	-3662
▁inun	-3663
▁ypp	-3664
▁arin	-3665
▁istus	-3666
▁&	-3667
olf	-3668
▁aalta	-3669
▁ngl	-3670
▁kiit	-3671
▁pako	-3672
▁aap	-3673
▁Mark	-3674
▁sian	-3675
▁aava	-3676
▁ister	-3677
▁ern	-3678
▁opea	-3679
▁rata	-3680
▁sain	-3681
▁ather	-3682
▁della	-3683
▁mital	-3684
▁uissa	-3685
▁ape	-3686
▁mat	-3687
▁sama	-3688
▁mässä	-3689
▁oska	-3690
▁ame	-3691
▁uop	-3692
▁Pari	-3693
▁23	-3694
▁IF	-3695
▁500	-3696
▁eeni	-3697
▁huoli	-3698
▁elk	-3699
▁akaa	-3700
▁elto	-3701
▁nnin	-3702
▁tall	-3703
▁allin	-3704
▁ilk	-3705
▁olu	-3706
▁yht	-3707
▁insa	-3708
▁ähän	-3709
▁sella	-3710
▁roje	-3711
▁ästy	-3712
▁annin	-3713
▁21	-3714
▁22	-3715
▁ante	-3716
▁tety	-3717
▁tm	-3718
▁ksa	-3719
▁pah	-3720
▁Suur	-3721
▁ba	-3722
▁osti	-3723
▁olais	-3724
▁kaupp	-3725
▁malla	-3726
▁ona	-3727
▁onni	-3728
▁attav	-3729
▁siksi	-3730
▁angai	-3731
▁olk	-3732
▁ello	-3733
▁kaike	-3734
▁Kol	-3735
▁ind	-3736
▁jet	-3737
▁ntu	-3738
▁umi	-3739
▁enee	-3740
▁rose	-3741
▁össä	-3742
▁hd	-3743
▁ipu	-3744
▁omit	-3745
▁tele	-3746
▁inno	-3747
▁raja	-3748
▁pääst	-3749
▁viä	-3750
▁unais	-3751
▁Nä	-3752
▁siv	-3753
▁ennu	-3754
▁tusk	-3755
▁uheen	-3756
▁ule	-3757
▁vut	-3758
▁lime	-3759
▁Lapi	-3760
▁linen	-3761
▁rastu	-3762
▁19	-3763
▁olin	-3764
▁uutu	-3765
▁yvän	-3766
▁kuvaa	-3767
▁atsa	-3768
▁nei	-3769
▁ute	-3770
▁yöh	-3771
▁sko	-3772
▁ymy	-3773
▁Mari	-3774
▁tyne	-3775
▁vien	-3776
▁tensa	-3777
▁og	-3778
▁rut	-3779
▁60	-3780
▁kai	-3781
▁mpää	-3782
▁ttäv	-3783
▁kkö	-3784
▁aura	-3785
▁isat	-3786
▁Mäk	-3787
▁era	-3788
▁oha	-3789
▁arjo	-3790
▁ster	-3791
ent	-3792
▁27	-3793
▁Su	-3794
▁ikka	-3795
▁eella	-3796
▁huole	-3797
▁turna	-3798
▁iemm	-3799
▁irkk	-3800
▁uttu	-3801
▁aluei	-3802
▁ose	-3803
▁tt	-3804
▁lom	-3805
▁ajam	-3806
▁lehd	-3807
ba	-3808
▁ski	-3809
▁onto	-3810
▁yden	-3811
▁perin	-3812
▁ey	-3813
▁kod	-3814
▁toki	-3815
▁äänt	-3816
▁ähi	-3817
▁ulke	-3818
▁äni	-3819
▁aula	-3820
▁pelaa	-3821
▁anon	-3822
▁keil	-3823
▁äntä	-3824
▁odist	-3825
▁edia	-3826
▁ulje	-3827
▁US	-3828
▁rän	-3829
▁ntai	-3830
▁aatto	-3831
▁lisen	-3832
▁alun	-3833
▁aansa	-3834
▁nuori	-3835
▁Leh	-3836
▁ärv	-3837
▁nnee	-3838
▁tart	-3839
PS	-3840
dp	-3841
▁kalli	-3842
▁niä	-3843
▁ohk	-3844
▁ilev	-3845
▁uuten	-3846
▁emi	-3847
▁olt	-3848
▁Kolm	-3849
▁aris	-3850
▁ukem	-3851
▁ica	-3852
▁avaa	-3853
▁enin	-3854
▁tuis	-3855
▁tuva	-3856
▁kokoo	-3857
▁tusti	-3858
▁äp	-3859
▁tellä	-3860
at	-3861
▁alv	-3862
▁ykk	-3863
▁ykset	-3864
▁denk	-3865
▁iaal	-3866
erc	-3867
▁tem	-3868
▁täjä	-3869
▁raina	-3870
▁Kär	-3871
▁atr	-3872
▁Rovan	-3873
▁muutt	-3874
▁tyttä	-3875
▁vuoro	-3876
▁IFK	-3877
▁air	-3878
▁aper	-3879
▁auki	-3880
▁ukko	-3881
▁uunni	-3882
▁q	-3883
▁ette	-3884
▁mato	-3885
▁neide	-3886
▁nneks	-3887
▁puu	-3888
ca	-3889
▁Sai	-3890
▁allis	-3891
▁misen	-3892
▁eika	-3893
▁senä	-3894
▁veri	-3895
▁alm	-3896
▁rkki	-3897
FP	-3898
▁anka	-3899
▁yttäv	-3900
▁bri	-3901
▁ovaa	-3902
▁töstä	-3903
DP	-3904
▁lit	-3905
▁rem	-3906
go	-3907
▁tim	-3908
▁istää	-3909
▁ttää	-3910
▁vas	-3911
▁öri	-3912
▁ec	-3913
▁ore	-3914
▁usk	-3915
▁eino	-3916
▁stäj	-3917
▁teke	-3918
▁uvia	-3919
▁oimaa	-3920
▁dus	-3921
▁ump	-3922
▁alme	-3923
▁äästö	-3924
▁gr	-3925
▁iemi	-3926
▁inin	-3927
▁lei	-3928
▁ure	-3929
▁uste	-3930
▁teide	-3931
▁teltu	-3932
▁avan	-3933
isa	-3934
▁ilä	-3935
▁kum	-3936
▁vey	-3937
▁oittu	-3938
▁ohe	-3939
▁ulu	-3940
▁omat	-3941
▁AFP	-3942
▁Mon	-3943
▁oris	-3944
▁soda	-3945
▁maine	-3946
▁viera	-3947
▁alua	-3948
▁atau	-3949
▁iika	-3950
▁oisi	-3951
▁lov	-3952
▁urm	-3953
▁iska	-3954
▁dok	-3955
▁ies	-3956
▁osk	-3957
▁Hy	-3958
▁BBC	-3959
▁los	-3960
▁nem	-3961
▁äil	-3962
▁nutta	-3963
▁rj	-3964
▁tehd	-3965
▁rikos	-3966
▁CN	-3967
▁yk	-3968
▁Kai	-3969
▁änn	-3970
▁Meri	-3971
▁araa	-3972
▁yyte	-3973
▁Q	-3974
▁eter	-3975
▁hait	-3976
▁iihd	-3977
▁kielt	-3978
▁%	-3979
▁ew	-3980
▁aip	-3981
▁jan	-3982
▁ilee	-3983
▁saan	-3984
▁isena	-3985
▁arve	-3986
▁eilij	-3987
▁isimm	-3988
▁eka	-3989
▁goi	-3990
▁kuka	-3991
▁otuks	-3992
ber	-3993
▁aaks	-3994
▁lip	-3995
▁Turu	-3996
▁tulle	-3997
ood	-3998
▁Fin	-3999
▁astu	-4000
▁pidä	-4001
▁sunnu	-4002
▁26	-4003
▁arvit	-4004
▁omaan	-4005
▁dr	-4006
▁kanen	-4007
▁aits	-4008
▁inni	-4009
▁luu	-4010
▁urg	-4011
▁nten	-4012
▁innoi	-4013
▁mb	-4014
▁näy	-4015
▁oro	-4016
▁Tuom	-4017
▁auva	-4018
▁isään	-4019
▁uollo	-4020
▁ök	-4021
▁SDP	-4022
▁oste	-4023
▁samaa	-4024
▁hol	-4025
▁ral	-4026
▁rid	-4027
▁eron	-4028
▁hmis	-4029
▁stra	-4030
▁aala	-4031
▁elli	-4032
▁essi	-4033
▁inais	-4034
▁ltaan	-4035
▁ollis	-4036
▁HS	-4037
▁län	-4038
▁koll	-4039
▁list	-4040
▁yp	-4041
▁ley	-4042
▁uore	-4043
▁yväs	-4044
▁ksien	-4045
▁liitt	-4046
▁Ex	-4047
▁sh	-4048
▁okk	-4049
▁age	-4050
▁anie	-4051
▁iss	-4052
▁ook	-4053
▁unk	-4054
▁lass	-4055
▁oksia	-4056
▁veyde	-4057
▁nanta	-4058
▁ikk	-4059
▁enny	-4060
▁suos	-4061
▁uoles	-4062
▁ato	-4063
▁otk	-4064
▁aiss	-4065
▁ausk	-4066
▁af	-4067
▁vy	-4068
▁Tai	-4069
▁nter	-4070
▁pohj	-4071
▁aras	-4072
▁jaka	-4073
▁ht	-4074
▁tas	-4075
▁kirk	-4076
▁viil	-4077
▁Gran	-4078
▁konf	-4079
▁saam	-4080
▁varo	-4081
▁ske	-4082
▁arko	-4083
▁kkaa	-4084
▁Seura	-4085
▁CNN	-4086
▁mut	-4087
▁omia	-4088
and	-4089
▁eon	-4090
▁Ter	-4091
▁soi	-4092
▁misi	-4093
▁väär	-4094
▁ehk	-4095
▁nas	-4096
▁yte	-4097
▁imes	-4098
▁ulis	-4099
▁muodo	-4100
▁atko	-4101
▁isoi	-4102
▁öt	-4103
▁Par	-4104
▁eti	-4105
▁pite	-4106
▁ahi	-4107
▁ale	-4108
▁auna	-4109
▁atri	-4110
▁untu	-4111
▁väksi	-4112
▁uhr	-4113
▁keho	-4114
▁allon	-4115
▁kentä	-4116
▁ema	-4117
▁stol	-4118
▁ntiin	-4119
▁viiko	-4120
ie	-4121
▁ora	-4122
▁nkii	-4123
▁rint	-4124
▁hankk	-4125
▁riste	-4126
una	-4127
▁oos	-4128
▁ampa	-4129
▁estö	-4130
▁irja	-4131
▁uran	-4132
▁airas	-4133
▁istis	-4134
▁rkist	-4135
▁35	-4136
▁dat	-4137
▁ainee	-4138
▁itell	-4139
▁luke	-4140
▁päil	-4141
▁Nik	-4142
▁alus	-4143
▁ielä	-4144
▁mani	-4145
▁ros	-4146
▁siä	-4147
▁ittu	-4148
▁nalle	-4149
▁sissa	-4150
▁uttav	-4151
rii	-4152
▁eak	-4153
▁uhu	-4154
▁issu	-4155
▁otus	-4156
▁istam	-4157
▁rat	-4158
▁sih	-4159
▁ostaa	-4160
▁ikäi	-4161
▁teer	-4162
▁allas	-4163
▁ansai	-4164
▁kav	-4165
▁äme	-4166
▁euvo	-4167
▁ttäm	-4168
▁astel	-4169
ci	-4170
▁anh	-4171
▁hun	-4172
▁ivu	-4173
▁jar	-4174
▁sum	-4175
▁emis	-4176
▁enta	-4177
▁otaa	-4178
▁uoti	-4179
▁wi	-4180
▁isiä	-4181
▁leik	-4182
▁täys	-4183
▁luist	-4184
▁sydä	-4185
▁ellyt	-4186
▁nia	-4187
▁ison	-4188
▁dyt	-4189
▁lay	-4190
▁28	-4191
▁lyn	-4192
▁Ed	-4193
▁Sdp	-4194
▁hkä	-4195
▁ile	-4196
▁alik	-4197
▁iisi	-4198
▁ngel	-4199
▁ellut	-4200
▁kär	-4201
▁krii	-4202
▁tutu	-4203
▁ökse	-4204
▁seksi	-4205
▁koo	-4206
▁ost	-4207
▁uov	-4208
▁lisi	-4209
▁takin	-4210
▁ttävä	-4211
▁ns	-4212
▁ym	-4213
▁opi	-4214
▁ntoa	-4215
▁tuul	-4216
▁äkkä	-4217
▁oinni	-4218
▁tystä	-4219
▁eil	-4220
▁älä	-4221
▁oida	-4222
▁muute	-4223
▁nteis	-4224
▁huip	-4225
▁oiva	-4226
▁averi	-4227
▁deksi	-4228
▁neita	-4229
▁raken	-4230
▁kal	-4231
▁nai	-4232
▁kivi	-4233
▁ttyä	-4234
▁aide	-4235
▁gram	-4236
▁yd	-4237
▁anha	-4238
▁siin	-4239
▁suju	-4240
▁ch	-4241
▁int	-4242
▁oom	-4243
▁näki	-4244
▁palk	-4245
▁uotte	-4246
▁aas	-4247
▁sur	-4248
▁alvo	-4249
▁öiden	-4250
▁USA	-4251
▁änt	-4252
▁kene	-4253
▁ulta	-4254
▁ähkö	-4255
▁x	-4256
▁sea	-4257
▁aara	-4258
▁aust	-4259
▁orma	-4260
▁eskit	-4261
mpu	-4262
▁iks	-4263
▁itt	-4264
▁nähd	-4265
▁tävää	-4266
▁imä	-4267
▁öjä	-4268
▁ökk	-4269
▁tuha	-4270
▁laati	-4271
▁tei	-4272
▁etuk	-4273
▁akku	-4274
▁atto	-4275
▁pään	-4276
▁pääs	-4277
▁nlop	-4278
▁äntö	-4279
▁isyy	-4280
▁oku	-4281
▁pen	-4282
▁vuu	-4283
▁iassa	-4284
▁nosti	-4285
▁1,	-4286
▁St	-4287
▁kyy	-4288
▁kail	-4289
▁onsa	-4290
▁kossa	-4291
▁miste	-4292
▁elj	-4293
▁uho	-4294
▁eltä	-4295
▁enkä	-4296
▁nalai	-4297
▁ees	-4298
▁lty	-4299
▁apah	-4300
▁kaal	-4301
▁koja	-4302
▁sm	-4303
▁Kur	-4304
▁ode	-4305
▁rok	-4306
▁diag	-4307
▁henk	-4308
▁nmaa	-4309
▁kulku	-4310
▁suute	-4311
▁[	-4312
▁29	-4313
▁auti	-4314
▁ntel	-4315
▁väis	-4316
ere	-4317
▁nh	-4318
▁syv	-4319
▁nnist	-4320
▁erhe	-4321
▁öytä	-4322
▁aalli	-4323
▁]	-4324
▁Wil	-4325
▁ven	-4326
▁utun	-4327
▁ohjan	-4328
▁spe	-4329
▁paran	-4330
▁salli	-4331
▁suori	-4332
▁epp	-4333
▁must	-4334
▁isyyd	-4335
▁ämään	-4336
▁ania	-4337
▁enäl	-4338
▁ital	-4339
▁iusa	-4340
▁äyte	-4341
mmo	-4342
▁Poh	-4343
▁itto	-4344
▁ulma	-4345
▁jö	-4346
▁Ant	-4347
▁nkk	-4348
▁det	-4349
▁käs	-4350
▁läs	-4351
▁äär	-4352
▁osak	-4353
▁400	-4354
▁ilja	-4355
▁lasi	-4356
▁sket	-4357
▁verk	-4358
▁oneen	-4359
isto	-4360
▁Ede	-4361
▁she	-4362
▁ikeus	-4363
▁tajaa	-4364
▁välis	-4365
▁eim	-4366
▁ioi	-4367
▁rop	-4368
▁änd	-4369
▁As	-4370
▁oc	-4371
▁rie	-4372
▁Pol	-4373
▁aak	-4374
▁uli	-4375
▁etsä	-4376
▁lk	-4377
▁väk	-4378
▁utui	-4379
gan	-4380
▁fi	-4381
▁ega	-4382
▁iita	-4383
▁ttane	-4384
fa	-4385
▁300	-4386
▁uen	-4387
▁yti	-4388
▁noo	-4389
▁tre	-4390
▁nnet	-4391
▁tein	-4392
▁altai	-4393
▁aremm	-4394
▁juoks	-4395
▁ralla	-4396
▁Ny	-4397
▁Ari	-4398
▁odo	-4399
▁ret	-4400
▁appe	-4401
▁mala	-4402
▁ohti	-4403
▁tilä	-4404
▁ttoi	-4405
▁80	-4406
▁ars	-4407
▁reit	-4408
▁varma	-4409
▁emä	-4410
▁Sy	-4411
▁sv	-4412
▁Koi	-4413
▁kus	-4414
▁astau	-4415
▁tinen	-4416
▁aike	-4417
▁auha	-4418
▁nite	-4419
▁delle	-4420
▁sessa	-4421
▁tym	-4422
▁uja	-4423
▁uso	-4424
▁auka	-4425
▁pasi	-4426
▁vala	-4427
▁altaa	-4428
▁korva	-4429
▁nmaan	-4430
▁Joh	-4431
▁ttis	-4432
▁väki	-4433
▁öntä	-4434
mb	-4435
▁itk	-4436
▁mari	-4437
▁tont	-4438
▁vist	-4439
▁äyty	-4440
▁isten	-4441
▁nku	-4442
▁vit	-4443
▁Koivu	-4444
▁ittav	-4445
▁Ba	-4446
▁uit	-4447
▁yön	-4448
▁etus	-4449
▁ulla	-4450
up	-4451
▁inh	-4452
▁aaka	-4453
▁kuri	-4454
▁pailu	-4455
▁selvä	-4456
▁tanee	-4457
▁kät	-4458
▁tit	-4459
▁ankk	-4460
▁ieni	-4461
▁staa	-4462
▁työt	-4463
▁ulkom	-4464
▁ez	-4465
▁kuo	-4466
▁aitos	-4467
▁alkan	-4468
▁isenä	-4469
▁are	-4470
▁imp	-4471
▁eeri	-4472
▁olme	-4473
▁stav	-4474
▁unen	-4475
▁untia	-4476
▁70	-4477
▁idä	-4478
▁yöt	-4479
▁herä	-4480
▁yssä	-4481
▁istel	-4482
▁itys	-4483
▁ment	-4484
▁osen	-4485
▁moott	-4486
▁yistä	-4487
▁uhk	-4488
▁emmat	-4489
▁llist	-4490
▁ult	-4491
▁issi	-4492
▁PS	-4493
▁dis	-4494
▁not	-4495
▁rmo	-4496
▁askel	-4497
▁ittai	-4498
▁Wal	-4499
▁Leht	-4500
▁Pohj	-4501
▁laaja	-4502
▁ias	-4503
▁kej	-4504
▁avid	-4505
▁koil	-4506
▁oisia	-4507
▁telle	-4508
▁toive	-4509
▁oks	-4510
▁iris	-4511
▁irka	-4512
▁ousu	-4513
▁ytys	-4514
▁uihin	-4515
▁yksis	-4516
▁log	-4517
▁tok	-4518
▁tra	-4519
▁anma	-4520
▁kkee	-4521
▁ttui	-4522
▁entää	-4523
▁oilta	-4524
▁tynyt	-4525
end	-4526
▁tko	-4527
▁oistu	-4528
▁suoja	-4529
▁tavaa	-4530
▁Ur	-4531
▁Lep	-4532
▁inte	-4533
▁Viron	-4534
▁iigan	-4535
▁ge	-4536
▁sd	-4537
▁pos	-4538
▁kava	-4539
▁eko	-4540
▁lia	-4541
▁yst	-4542
▁alai	-4543
▁koise	-4544
▁hir	-4545
▁arje	-4546
▁ähti	-4547
▁vassa	-4548
▁go	-4549
▁auh	-4550
▁mii	-4551
▁tyi	-4552
▁vet	-4553
▁Caro	-4554
▁iell	-4555
▁ikki	-4556
▁njoh	-4557
▁tuut	-4558
▁nettu	-4559
▁be	-4560
▁ämp	-4561
▁Viro	-4562
▁innos	-4563
▁sän	-4564
▁adan	-4565
▁iekk	-4566
▁fr	-4567
▁ima	-4568
▁rap	-4569
▁erän	-4570
▁htaa	-4571
▁atkuv	-4572
▁konee	-4573
▁uluva	-4574
▁Wa	-4575
▁opeu	-4576
▁oppu	-4577
▁jokai	-4578
▁omero	-4579
ft	-4580
▁Oy	-4581
▁aks	-4582
▁leh	-4583
▁itty	-4584
▁paan	-4585
▁Kr	-4586
▁Matt	-4587
▁merk	-4588
▁okuv	-4589
▁kuvat	-4590
▁lanti	-4591
▁dop	-4592
▁ved	-4593
▁rista	-4594
▁kuv	-4595
▁lku	-4596
▁ons	-4597
▁tes	-4598
▁ikan	-4599
▁kari	-4600
▁aalis	-4601
▁huolt	-4602
▁ekä	-4603
▁äne	-4604
▁öin	-4605
▁arka	-4606
▁nsim	-4607
▁tasi	-4608
▁tauo	-4609
▁tyyl	-4610
▁yvät	-4611
▁ankar	-4612
▁45	-4613
▁avia	-4614
▁innu	-4615
▁styks	-4616
▁arta	-4617
▁tarv	-4618
▁atvia	-4619
▁einen	-4620
▁km	-4621
▁lio	-4622
▁tau	-4623
▁äisi	-4624
▁änet	-4625
▁laski	-4626
kär	-4627
▁Ri	-4628
▁eos	-4629
▁ävy	-4630
▁htiö	-4631
▁joukk	-4632
▁läsnä	-4633
▁yhtey	-4634
▁tyk	-4635
▁asva	-4636
▁evät	-4637
▁iilo	-4638
▁neis	-4639
▁kiva	-4640
▁tuus	-4641
▁laitt	-4642
▁omien	-4643
▁ulkop	-4644
▁Mai	-4645
▁Tur	-4646
▁hai	-4647
▁kah	-4648
▁lent	-4649
▁luks	-4650
▁ntia	-4651
▁siiv	-4652
▁töks	-4653
▁vissa	-4654
▁Bo	-4655
▁out	-4656
▁alio	-4657
▁istaa	-4658
▁Au	-4659
▁mö	-4660
▁amo	-4661
▁eljä	-4662
▁kuit	-4663
▁matk	-4664
▁liv	-4665
▁löi	-4666
▁nik	-4667
▁uet	-4668
▁yne	-4669
▁anss	-4670
▁iedo	-4671
▁ace	-4672
▁kym	-4673
▁mys	-4674
▁ataa	-4675
▁Di	-4676
▁SA	-4677
▁lou	-4678
▁iste	-4679
▁link	-4680
▁utti	-4681
▁konen	-4682
bin	-4683
▁mmo	-4684
▁golf	-4685
▁saane	-4686
▁tarin	-4687
▁jalk	-4688
▁rauh	-4689
▁usto	-4690
▁ostam	-4691
gg	-4692
▁Ol	-4693
▁eny	-4694
▁lak	-4695
▁alon	-4696
▁eltu	-4697
▁mpere	-4698
▁odote	-4699
▁inl	-4700
▁kim	-4701
▁äsk	-4702
▁kop	-4703
▁ävä	-4704
▁jonk	-4705
▁otim	-4706
▁tkin	-4707
▁lukse	-4708
▁hit	-4709
▁köi	-4710
▁elpo	-4711
▁nnoi	-4712
▁nsin	-4713
▁sikko	-4714
▁teema	-4715
▁tteli	-4716
▁aast	-4717
▁lari	-4718
▁ähde	-4719
▁ca	-4720
▁erin	-4721
▁llan	-4722
▁äsen	-4723
▁entaa	-4724
KP	-4725
za	-4726
▁For	-4727
▁Max	-4728
▁for	-4729
▁hri	-4730
▁kasi	-4731
▁laat	-4732
▁malt	-4733
▁lanni	-4734
▁pt	-4735
▁soo	-4736
▁alat	-4737
▁ituks	-4738
▁rva	-4739
▁amin	-4740
▁kons	-4741
▁äily	-4742
▁reena	-4743
be	-4744
▁ehe	-4745
▁hal	-4746
▁syl	-4747
▁uee	-4748
▁ikse	-4749
▁aivaa	-4750
▁th	-4751
▁hää	-4752
▁uma	-4753
▁laps	-4754
▁Jar	-4755
▁yör	-4756
▁innä	-4757
▁oika	-4758
▁ytty	-4759
▁tammi	-4760
ah	-4761
▁Mu	-4762
▁elv	-4763
▁llyt	-4764
▁mman	-4765
▁uusk	-4766
▁lassa	-4767
▁masta	-4768
▁oe	-4769
▁hum	-4770
▁aate	-4771
▁idea	-4772
▁koho	-4773
▁ytti	-4774
▁tanen	-4775
▁vaikk	-4776
▁90	-4777
▁yrk	-4778
▁yös	-4779
▁atka	-4780
▁eoll	-4781
▁evan	-4782
▁isän	-4783
▁itsi	-4784
▁rill	-4785
▁toisi	-4786
▁yöm	-4787
▁äivi	-4788
▁Ab	-4789
▁arke	-4790
▁onna	-4791
▁tetu	-4792
▁uutee	-4793
▁edo	-4794
▁oko	-4795
▁aalie	-4796
uni	-4797
▁keu	-4798
▁lly	-4799
▁ltav	-4800
▁ääki	-4801
▁eija	-4802
▁entin	-4803
▁sestä	-4804
▁Wi	-4805
▁pla	-4806
▁ande	-4807
▁yyty	-4808
▁iista	-4809
▁Kou	-4810
▁evi	-4811
▁ipp	-4812
▁ärs	-4813
▁Merc	-4814
▁ammi	-4815
▁anja	-4816
▁auli	-4817
▁ieno	-4818
▁uista	-4819
▁31	-4820
▁akuu	-4821
▁alti	-4822
▁anan	-4823
▁evää	-4824
▁nest	-4825
▁estää	-4826
▁päätt	-4827
▁hot	-4828
▁mas	-4829
▁ner	-4830
▁äjä	-4831
▁aval	-4832
▁inal	-4833
▁kaut	-4834
▁seis	-4835
▁toipu	-4836
▁2,	-4837
▁oiv	-4838
▁tsa	-4839
▁eisk	-4840
▁ijan	-4841
▁ikea	-4842
▁uudi	-4843
▁voin	-4844
▁eeksi	-4845
▁netti	-4846
▁elik	-4847
▁hetk	-4848
▁rati	-4849
▁äj	-4850
▁nur	-4851
▁etää	-4852
▁ohdi	-4853
▁kaist	-4854
▁Aki	-4855
▁Car	-4856
▁Exp	-4857
▁Yli	-4858
▁lyy	-4859
▁mpa	-4860
▁rov	-4861
▁atin	-4862
▁harj	-4863
▁ohja	-4864
▁uska	-4865
▁llise	-4866
▁utust	-4867
lem	-4868
▁akka	-4869
▁ntak	-4870
▁ulev	-4871
▁kerra	-4872
▁eut	-4873
▁unu	-4874
▁uuto	-4875
▁eskel	-4876
lor	-4877
▁tl	-4878
▁yä	-4879
▁eam	-4880
▁ler	-4881
▁tik	-4882
▁mana	-4883
▁onin	-4884
▁rii	-4885
▁akia	-4886
▁eist	-4887
▁elee	-4888
▁olem	-4889
▁Harri	-4890
▁32	-4891
▁etti	-4892
▁melk	-4893
▁mmat	-4894
▁pila	-4895
▁dut	-4896
▁nun	-4897
▁esse	-4898
▁kang	-4899
▁nton	-4900
▁ohje	-4901
▁ottu	-4902
▁stap	-4903
▁rinen	-4904
ek	-4905
hku	-4906
par	-4907
▁Lat	-4908
▁Red	-4909
▁Sel	-4910
▁ram	-4911
▁rss	-4912
▁uda	-4913
▁alit	-4914
▁anth	-4915
▁ilti	-4916
▁itää	-4917
▁unai	-4918
▁vank	-4919
▁mater	-4920
▁okkaa	-4921
▁tietä	-4922
▁utune	-4923
▁ass	-4924
▁asku	-4925
▁mail	-4926
▁Kaisa	-4927
▁anche	-4928
▁aske	-4929
▁entt	-4930
▁etro	-4931
▁kkiä	-4932
▁lkee	-4933
▁ivist	-4934
▁silta	-4935
▁ttäjä	-4936
▁urist	-4937
▁š	-4938
▁doi	-4939
▁nal	-4940
▁opo	-4941
▁uko	-4942
▁aille	-4943
▁aru	-4944
▁iem	-4945
▁inp	-4946
▁aavo	-4947
▁ihla	-4948
▁ikon	-4949
▁vais	-4950
▁ainaa	-4951
▁dosta	-4952
▁kia	-4953
▁upo	-4954
▁aasa	-4955
▁anner	-4956
▁voida	-4957
▁Ö	-4958
▁sc	-4959
▁ts	-4960
▁Eli	-4961
▁keik	-4962
▁urva	-4963
▁tover	-4964
wa	-4965
jen	-4966
oni	-4967
▁SS	-4968
▁jia	-4969
▁ääj	-4970
▁hjel	-4971
▁ikai	-4972
▁jien	-4973
▁iskun	-4974
▁36	-4975
▁Nii	-4976
▁SAK	-4977
▁can	-4978
▁etr	-4979
▁kua	-4980
▁mäk	-4981
▁anko	-4982
▁enka	-4983
▁toni	-4984
▁ary	-4985
▁ily	-4986
▁ono	-4987
▁sas	-4988
▁uti	-4989
▁atie	-4990
▁kolla	-4991
ud	-4992
▁rei	-4993
▁ames	-4994
▁siirt	-4995
▁tymis	-4996
▁El	-4997
▁rav	-4998
▁lenk	-4999
▁ness	-5000
▁osia	-5001
▁ntaan	-5002
BA	-5003
▁br	-5004
▁ulm	-5005
▁ekse	-5006
▁äyks	-5007
▁ü	-5008
▁34	-5009
▁uiv	-5010
▁uss	-5011
▁isar	-5012
▁ovan	-5013
▁raal	-5014
▁iitti	-5015
▁trend	-5016
▁2-	-5017
▁ao	-5018
▁kt	-5019
▁pat	-5020
▁ääv	-5021
▁ikeu	-5022
▁iljo	-5023
▁insä	-5024
▁kant	-5025
▁skal	-5026
▁minut	-5027
lob	-5028
▁Da	-5029
▁evo	-5030
▁hat	-5031
▁alen	-5032
▁skel	-5033
▁vinen	-5034
▁tol	-5035
▁akti	-5036
▁ikoi	-5037
▁mien	-5038
▁stan	-5039
▁uiva	-5040
▁sitte	-5041
▁co	-5042
▁Kon	-5043
▁täs	-5044
▁aasu	-5045
▁emään	-5046
▁mäl	-5047
▁ytö	-5048
▁akan	-5049
▁uise	-5050
bi	-5051
▁Do	-5052
▁iru	-5053
▁isy	-5054
▁iisa	-5055
▁otan	-5056
▁tymä	-5057
▁uuti	-5058
▁aikko	-5059
▁soker	-5060
▁eih	-5061
▁ipe	-5062
▁käi	-5063
▁yyt	-5064
▁tail	-5065
▁pyörä	-5066
ry	-5067
▁ff	-5068
▁Por	-5069
▁mal	-5070
▁oso	-5071
▁nant	-5072
▁uske	-5073
▁aisee	-5074
▁loist	-5075
▁ce	-5076
▁800	-5077
▁ish	-5078
▁the	-5079
▁äen	-5080
▁line	-5081
▁mann	-5082
▁uulla	-5083
▁Yo	-5084
▁unne	-5085
▁puhut	-5086
▁satam	-5087
▁tilla	-5088
▁hta	-5089
▁iip	-5090
▁empä	-5091
▁joit	-5092
▁skon	-5093
▁teis	-5094
▁ierai	-5095
▁iikke	-5096
▁ntine	-5097
▁Th	-5098
▁Ker	-5099
▁Näi	-5100
▁hko	-5101
▁ähd	-5102
▁emmi	-5103
▁oide	-5104
▁valt	-5105
▁konku	-5106
▁yttäm	-5107
▁Is	-5108
▁Mo	-5109
▁Kouvo	-5110
▁uttua	-5111
▁FC	-5112
▁Tie	-5113
▁ajar	-5114
▁ance	-5115
▁ränd	-5116
▁skin	-5117
▁ainut	-5118
▁stain	-5119
▁apaik	-5120
bul	-5121
▁Va	-5122
▁dl	-5123
▁htu	-5124
▁Sama	-5125
▁millä	-5126
▁tyvät	-5127
▁1.	-5128
▁rb	-5129
▁gat	-5130
▁yyn	-5131
▁öit	-5132
▁lleet	-5133
▁uheli	-5134
kuu	-5135
▁We	-5136
▁rc	-5137
▁pot	-5138
▁niuk	-5139
▁ullu	-5140
▁Viran	-5141
▁=	-5142
▁33	-5143
▁ger	-5144
▁uki	-5145
▁tävi	-5146
▁vika	-5147
▁kaani	-5148
▁gi	-5149
▁Ara	-5150
▁dig	-5151
▁noj	-5152
▁anot	-5153
▁auno	-5154
▁ellu	-5155
▁elma	-5156
▁koir	-5157
▁murh	-5158
▁utua	-5159
▁uuma	-5160
▁Kimmo	-5161
▁entam	-5162
▁konkr	-5163
▁ottav	-5164
▁orj	-5165
▁sse	-5166
▁irto	-5167
▁puna	-5168
▁unsa	-5169
▁harjo	-5170
▁Elo	-5171
▁Net	-5172
▁arm	-5173
▁esa	-5174
▁htä	-5175
▁ppu	-5176
▁apaa	-5177
▁emmä	-5178
▁kulk	-5179
▁liev	-5180
▁mini	-5181
▁ppaa	-5182
▁tajia	-5183
▁sr	-5184
▁ett	-5185
▁ivä	-5186
▁appu	-5187
▁kauk	-5188
▁lton	-5189
▁otka	-5190
▁tiai	-5191
▁Montr	-5192
▁arc	-5193
▁emo	-5194
▁uuh	-5195
▁itus	-5196
▁käis	-5197
▁molem	-5198
▁nilla	-5199
▁saira	-5200
fe	-5201
▁Gr	-5202
▁Ete	-5203
▁ehn	-5204
▁inja	-5205
▁keen	-5206
▁ullo	-5207
▁ilais	-5208
▁aup	-5209
▁kyv	-5210
▁auhe	-5211
▁seni	-5212
▁taho	-5213
▁ainaj	-5214
▁dossa	-5215
▁lintu	-5216
▁naura	-5217
MA	-5218
lar	-5219
▁Her	-5220
▁lys	-5221
▁kkös	-5222
▁oito	-5223
▁Color	-5224
▁mällä	-5225
▁saami	-5226
▁silla	-5227
ger	-5228
▁ynt	-5229
▁ittä	-5230
▁lois	-5231
▁austa	-5232
▁oteut	-5233
▁valio	-5234
▁Fo	-5235
▁rl	-5236
▁him	-5237
▁erve	-5238
▁inki	-5239
▁3-	-5240
▁ga	-5241
tonb	-5242
▁mite	-5243
▁ellai	-5244
▁ftonb	-5245
▁tämät	-5246
▁Lo	-5247
▁anu	-5248
▁oho	-5249
▁rot	-5250
▁tij	-5251
▁tri	-5252
▁ekko	-5253
▁onka	-5254
gu	-5255
▁Ot	-5256
▁iek	-5257
▁iov	-5258
▁mun	-5259
▁rvo	-5260
▁sau	-5261
▁ruok	-5262
▁tani	-5263
▁iiden	-5264
▁€	-5265
▁öö	-5266
▁Ben	-5267
▁ung	-5268
▁pist	-5269
▁yttää	-5270
▁ärkei	-5271
bo	-5272
▁Hal	-5273
▁irr	-5274
▁miä	-5275
▁smi	-5276
▁top	-5277
▁aksu	-5278
▁elit	-5279
▁ever	-5280
▁kiri	-5281
▁ulli	-5282
▁usin	-5283
▁tuoll	-5284
▁Am	-5285
▁Los	-5286
▁erm	-5287
▁iia	-5288
▁ikin	-5289
▁ähtä	-5290
▁akkaa	-5291
▁oimis	-5292
▁aken	-5293
▁elim	-5294
▁elmi	-5295
▁koon	-5296
▁otia	-5297
▁oton	-5298
▁uvan	-5299
▁telun	-5300
▁äistä	-5301
nes	-5302
uun	-5303
▁38	-5304
▁Kuu	-5305
▁reh	-5306
▁uok	-5307
▁syvä	-5308
▁unto	-5309
▁yönt	-5310
lä	-5311
▁37	-5312
▁iro	-5313
▁jok	-5314
▁kij	-5315
▁väs	-5316
▁iljoo	-5317
▁ör	-5318
▁RKP	-5319
▁das	-5320
▁tro	-5321
▁uke	-5322
▁auni	-5323
▁iloi	-5324
▁ntol	-5325
▁roon	-5326
▁tissa	-5327
▁if	-5328
▁dip	-5329
▁hee	-5330
▁iai	-5331
▁ido	-5332
▁Hall	-5333
▁huom	-5334
▁mark	-5335
▁Turku	-5336
▁inuut	-5337
▁öistä	-5338
▁600	-5339
▁ysi	-5340
▁rast	-5341
▁ykyä	-5342
▁Karhu	-5343
▁jassa	-5344
▁lause	-5345
▁MT	-5346
▁Ras	-5347
▁pis	-5348
▁rto	-5349
▁aiki	-5350
▁iike	-5351
▁ttei	-5352
▁selta	-5353
▁yrity	-5354
▁ef	-5355
▁150	-5356
▁oru	-5357
▁uos	-5358
▁anin	-5359
▁emin	-5360
▁enki	-5361
▁ation	-5362
▁emise	-5363
raf	-5364
▁Du	-5365
▁akk	-5366
▁ivo	-5367
▁rvi	-5368
▁ehme	-5369
▁Kiuru	-5370
▁istum	-5371
▁Be	-5372
▁kg	-5373
▁enj	-5374
▁tyv	-5375
▁myön	-5376
▁ttua	-5377
▁yhty	-5378
▁antee	-5379
cu	-5380
ze	-5381
▁aio	-5382
▁anoi	-5383
▁esin	-5384
▁itaa	-5385
▁taji	-5386
▁immäi	-5387
▁otila	-5388
▁uihku	-5389
ya	-5390
▁Mel	-5391
▁Pan	-5392
▁Ros	-5393
▁agg	-5394
▁ahdo	-5395
▁ekka	-5396
▁Risto	-5397
▁atila	-5398
▁oonas	-5399
▁västi	-5400
▁MV	-5401
▁nin	-5402
▁nuu	-5403
▁pak	-5404
▁sho	-5405
▁ikas	-5406
▁maja	-5407
▁nkki	-5408
▁eelli	-5409
ps	-5410
ire	-5411
▁ats	-5412
▁enp	-5413
▁nar	-5414
▁pät	-5415
▁eits	-5416
▁kesk	-5417
▁laus	-5418
▁jalla	-5419
▁lokuv	-5420
▁rt	-5421
▁von	-5422
▁arvi	-5423
▁hyök	-5424
▁kemi	-5425
▁maid	-5426
▁oder	-5427
▁yhmä	-5428
▁änny	-5429
▁listi	-5430
▁toria	-5431
▁tynee	-5432
▁ikö	-5433
▁ksy	-5434
▁nään	-5435
▁oiti	-5436
▁JK	-5437
▁13.	-5438
▁Kim	-5439
▁ald	-5440
▁Arab	-5441
▁Vero	-5442
▁paik	-5443
▁rien	-5444
▁usti	-5445
▁uton	-5446
▁GP	-5447
▁11.	-5448
▁iam	-5449
▁iert	-5450
▁entti	-5451
▁ikais	-5452
▁Lu	-5453
▁sl	-5454
▁aim	-5455
▁aji	-5456
▁fir	-5457
▁nge	-5458
▁ilpi	-5459
▁inai	-5460
▁kala	-5461
▁stee	-5462
▁uuni	-5463
▁Tim	-5464
▁dot	-5465
▁ltu	-5466
▁läi	-5467
▁ruk	-5468
▁onia	-5469
▁tääl	-5470
▁ärve	-5471
▁Granl	-5472
▁alkap	-5473
▁kkala	-5474
▁ääkär	-5475
MK	-5476
▁ST	-5477
▁rg	-5478
▁pas	-5479
▁enem	-5480
▁kump	-5481
▁stis	-5482
▁utuu	-5483
▁viin	-5484
▁yötä	-5485
▁aamis	-5486
▁auhea	-5487
▁nkiin	-5488
▁saldo	-5489
▁treff	-5490
▁3,	-5491
▁iol	-5492
▁oss	-5493
▁pui	-5494
▁rim	-5495
▁rme	-5496
▁kais	-5497
▁toeh	-5498
▁yökk	-5499
▁koitu	-5500
▁reuna	-5501
▁kit	-5502
▁rgi	-5503
▁ysä	-5504
▁Sata	-5505
▁eppo	-5506
▁iihe	-5507
▁kkos	-5508
▁kkuu	-5509
▁sena	-5510
▁ammas	-5511
▁tteet	-5512
kal	-5513
▁onk	-5514
▁sip	-5515
▁yss	-5516
▁Kana	-5517
▁kiek	-5518
▁lepo	-5519
▁mall	-5520
▁östä	-5521
▁Maija	-5522
▁Robin	-5523
▁istuv	-5524
▁sellä	-5525
▁uisku	-5526
▁Ber	-5527
▁uur	-5528
▁vii	-5529
▁ötä	-5530
▁arkk	-5531
▁ertt	-5532
▁hdys	-5533
▁okai	-5534
▁täht	-5535
▁distu	-5536
▁kiist	-5537
JK	-5538
▁̈	-5539
▁Si	-5540
▁öä	-5541
▁sei	-5542
▁elan	-5543
▁johd	-5544
▁ntav	-5545
▁omea	-5546
▁pudo	-5547
▁roll	-5548
▁kulje	-5549
▁NBA	-5550
▁ipä	-5551
▁jah	-5552
▁upp	-5553
▁aill	-5554
▁erge	-5555
▁iene	-5556
▁llät	-5557
▁mets	-5558
▁kkaan	-5559
▁käyte	-5560
▁unnas	-5561
▁vistä	-5562
▁der	-5563
▁älk	-5564
▁iaan	-5565
▁ntee	-5566
▁onie	-5567
▁rkku	-5568
▁Bu	-5569
▁Bil	-5570
▁Suz	-5571
▁asv	-5572
▁avol	-5573
▁miin	-5574
▁ukan	-5575
▁uome	-5576
▁ehden	-5577
▁ttely	-5578
▁ullis	-5579
▁hv	-5580
▁Kyl	-5581
▁kyt	-5582
▁mea	-5583
▁pua	-5584
▁vär	-5585
▁jään	-5586
▁lkka	-5587
▁uten	-5588
▁Tervo	-5589
▁ankin	-5590
▁lahja	-5591
▁ttori	-5592
▁uojel	-5593
lah	-5594
▁41	-5595
▁12.	-5596
▁kuk	-5597
▁äty	-5598
▁etin	-5599
▁kein	-5600
▁istan	-5601
▁ttais	-5602
▁ännyt	-5603
▁39	-5604
▁75	-5605
▁aimo	-5606
▁apsi	-5607
▁olody	-5608
▁oston	-5609
▁tapau	-5610
▁aun	-5611
▁ets	-5612
▁urt	-5613
▁arhu	-5614
▁niit	-5615
▁ttyi	-5616
▁ulle	-5617
▁ambul	-5618
▁ertai	-5619
old	-5620
ord	-5621
▁Gro	-5622
▁ihe	-5623
▁kur	-5624
▁ävi	-5625
▁aama	-5626
▁arra	-5627
▁eria	-5628
▁immä	-5629
▁pauk	-5630
▁vits	-5631
sb	-5632
▁1-	-5633
▁SE	-5634
▁atk	-5635
▁pum	-5636
▁ush	-5637
▁elly	-5638
▁iehe	-5639
▁umis	-5640
▁iaali	-5641
▁ppuun	-5642
▁suunt	-5643
▁turma	-5644
▁tuuri	-5645
uhu	-5646
▁Af	-5647
▁ick	-5648
▁res	-5649
▁iiva	-5650
▁outo	-5651
▁ävän	-5652
▁aavat	-5653
▁airaa	-5654
▁55	-5655
▁AC	-5656
▁Pek	-5657
▁ied	-5658
▁kot	-5659
▁roa	-5660
▁tso	-5661
▁nnat	-5662
▁oten	-5663
▁ulai	-5664
▁akaan	-5665
▁edust	-5666
▁inaan	-5667
▁kierr	-5668
▁sessä	-5669
▁toist	-5670
▁unnos	-5671
▁yhmän	-5672
▁elmä	-5673
▁eris	-5674
▁rans	-5675
▁stys	-5676
▁ettom	-5677
▁italo	-5678
▁ranni	-5679
▁talla	-5680
▁44	-5681
▁Jan	-5682
▁anaa	-5683
▁louk	-5684
▁risk	-5685
▁tusp	-5686
▁äytä	-5687
▁telmä	-5688
▁ämine	-5689
▁46	-5690
▁IL	-5691
▁LP	-5692
▁Op	-5693
▁SSS	-5694
▁prin	-5695
▁Rin	-5696
▁rää	-5697
▁uan	-5698
▁audi	-5699
▁ayne	-5700
▁jote	-5701
▁leve	-5702
▁siak	-5703
▁uist	-5704
▁uulo	-5705
▁ähes	-5706
cia	-5707
▁1,5	-5708
▁McD	-5709
▁roo	-5710
▁tyj	-5711
▁ivan	-5712
▁kara	-5713
▁show	-5714
▁ukas	-5715
▁korko	-5716
▁kuume	-5717
br	-5718
▁hom	-5719
▁nää	-5720
▁ser	-5721
▁sus	-5722
▁ume	-5723
▁äkä	-5724
▁Grön	-5725
▁ehty	-5726
▁inan	-5727
▁maas	-5728
▁ones	-5729
▁piin	-5730
▁uhal	-5731
▁hdist	-5732
▁prins	-5733
tai	-5734
▁II	-5735
▁kr	-5736
▁elp	-5737
▁ree	-5738
▁iedä	-5739
▁inut	-5740
▁ivoi	-5741
▁noll	-5742
▁ittäm	-5743
▁vähen	-5744
▁Å	-5745
llu	-5746
▁700	-5747
▁mpu	-5748
▁uom	-5749
▁eksa	-5750
▁esäk	-5751
▁nnät	-5752
▁teek	-5753
▁iller	-5754
▁kassa	-5755
▁korja	-5756
▁65	-5757
▁ism	-5758
▁jun	-5759
▁kam	-5760
▁pon	-5761
▁tiö	-5762
▁ves	-5763
▁äit	-5764
▁inoa	-5765
▁llut	-5766
▁mpia	-5767
▁nssa	-5768
▁outh	-5769
▁smin	-5770
▁tusl	-5771
▁viho	-5772
▁istuu	-5773
ld	-5774
▁47	-5775
▁rö	-5776
▁Ajo	-5777
▁mass	-5778
▁ning	-5779
▁uris	-5780
▁yrki	-5781
▁änte	-5782
▁öllä	-5783
▁akast	-5784
▁summa	-5785
▁tyksi	-5786
▁västä	-5787
▁äneen	-5788
ak	-5789
eni	-5790
gle	-5791
uss	-5792
▁Sh	-5793
▁bi	-5794
▁läp	-5795
▁levä	-5796
▁nhan	-5797
▁oope	-5798
▁liput	-5799
▁tteen	-5800
▁uhtee	-5801
var	-5802
▁Et	-5803
▁Ho	-5804
▁uv	-5805
▁aah	-5806
▁kei	-5807
▁lyh	-5808
▁akon	-5809
▁eine	-5810
▁kist	-5811
▁kuver	-5812
▁reder	-5813
▁vista	-5814
unu	-5815
▁ada	-5816
▁toh	-5817
▁vin	-5818
▁irin	-5819
▁jotk	-5820
▁akkar	-5821
▁ellei	-5822
▁firma	-5823
▁inter	-5824
▁mansa	-5825
▁Go	-5826
▁opa	-5827
▁ott	-5828
▁alki	-5829
▁ekti	-5830
▁etel	-5831
▁orin	-5832
▁vaar	-5833
▁arvel	-5834
▁htaan	-5835
▁taito	-5836
▁42	-5837
▁che	-5838
▁ekn	-5839
▁eän	-5840
▁iaa	-5841
▁räs	-5842
▁sku	-5843
▁tke	-5844
▁iest	-5845
▁ttim	-5846
▁ännö	-5847
▁inkku	-5848
wn	-5849
pis	-5850
▁2.	-5851
▁äe	-5852
▁16.	-5853
▁äll	-5854
▁Tero	-5855
▁ilah	-5856
▁kevä	-5857
▁tiik	-5858
▁uhla	-5859
▁Group	-5860
▁lutta	-5861
▁maksi	-5862
▁eää	-5863
▁hdi	-5864
▁ngo	-5865
▁jaus	-5866
▁keit	-5867
▁muka	-5868
▁kalta	-5869
▁lipun	-5870
▁ottom	-5871
ena	-5872
▁hie	-5873
▁enet	-5874
▁olan	-5875
▁ainav	-5876
▁ikkaa	-5877
UMA	-5878
▁MVP	-5879
▁eck	-5880
▁keä	-5881
▁aipu	-5882
▁andy	-5883
▁sens	-5884
▁Tover	-5885
▁syyde	-5886
hka	-5887
▁eno	-5888
▁kio	-5889
▁ZUMA	-5890
▁enen	-5891
▁ennä	-5892
▁eppi	-5893
▁leht	-5894
▁nnos	-5895
▁enkaa	-5896
▁iasta	-5897
▁kosta	-5898
▁täviä	-5899
▁;	-5900
ney	-5901
▁PK	-5902
▁14.	-5903
▁glob	-5904
▁neil	-5905
▁ville	-5906
eli	-5907
▁My	-5908
▁lam	-5909
▁mik	-5910
▁oot	-5911
▁rip	-5912
▁vil	-5913
▁avon	-5914
▁istaj	-5915
▁laina	-5916
▁varoi	-5917
▁MTV	-5918
▁Met	-5919
▁dyn	-5920
▁ilt	-5921
▁off	-5922
▁sui	-5923
▁aale	-5924
▁kaav	-5925
▁ngas	-5926
▁oine	-5927
▁tten	-5928
▁tuin	-5929
▁ulut	-5930
▁arcel	-5931
▁rajoi	-5932
gy	-5933
▁å	-5934
mia	-5935
▁lb	-5936
▁pr	-5937
▁Fox	-5938
▁gin	-5939
▁iva	-5940
▁moi	-5941
▁rti	-5942
▁soh	-5943
▁Traf	-5944
▁auvo	-5945
▁kana	-5946
▁eessä	-5947
▁neksi	-5948
um	-5949
▁7.	-5950
▁Ada	-5951
▁Gar	-5952
▁aso	-5953
▁nav	-5954
▁ulva	-5955
▁aneet	-5956
▁hteis	-5957
▁paljo	-5958
▁48	-5959
▁20.	-5960
▁eaa	-5961
▁iky	-5962
▁lava	-5963
▁sein	-5964
▁lempi	-5965
▁nolla	-5966
lan	-5967
▁McL	-5968
▁eho	-5969
▁kup	-5970
▁lun	-5971
▁nss	-5972
▁uPS	-5973
▁ysv	-5974
▁emok	-5975
▁nnel	-5976
▁styi	-5977
▁ämpö	-5978
▁koord	-5979
▁51	-5980
▁gh	-5981
▁15.	-5982
▁UMK	-5983
▁mes	-5984
▁ock	-5985
▁yjä	-5986
▁Colu	-5987
▁mith	-5988
▁oisa	-5989
▁poli	-5990
▁urgh	-5991
▁annee	-5992
▁hirmu	-5993
▁reita	-5994
kun	-5995
▁Gi	-5996
▁Sir	-5997
▁läm	-5998
▁suj	-5999
▁udi	-6000
▁ikro	-6001
▁kont	-6002
▁mein	-6003
▁omin	-6004
▁tist	-6005
▁udet	-6006
▁uure	-6007
▁estin	-6008
▁kissa	-6009
▁tetta	-6010
▁kW	-6011
▁ya	-6012
▁Aho	-6013
▁lix	-6014
▁rja	-6015
▁inoi	-6016
▁kave	-6017
▁keus	-6018
▁uden	-6019
▁estäm	-6020
▁leima	-6021
▁riemu	-6022
▁uinti	-6023
▁äytös	-6024
▁43	-6025
▁apo	-6026
▁edet	-6027
▁eske	-6028
▁ippa	-6029
▁isma	-6030
▁lack	-6031
▁pail	-6032
▁emine	-6033
▁kasti	-6034
▁omist	-6035
▁uinni	-6036
▁54	-6037
▁tk	-6038
▁etf	-6039
▁key	-6040
▁ppa	-6041
▁sep	-6042
▁kort	-6043
▁mmär	-6044
▁ouis	-6045
▁sito	-6046
▁uunn	-6047
▁itaan	-6048
▁ntami	-6049
har	-6050
▁Yh	-6051
▁18.	-6052
▁del	-6053
▁aavi	-6054
▁alin	-6055
▁diab	-6056
▁idän	-6057
▁korv	-6058
▁rank	-6059
▁aassa	-6060
▁skand	-6061
▁ustav	-6062
ui	-6063
▁lsi	-6064
▁ony	-6065
▁tej	-6066
▁Berl	-6067
▁ahin	-6068
▁aski	-6069
▁esla	-6070
▁star	-6071
▁uhan	-6072
▁Wilma	-6073
▁ergei	-6074
▁eriko	-6075
▁leisö	-6076
▁telma	-6077
iss	-6078
wood	-6079
▁17.	-6080
▁gis	-6081
▁hau	-6082
▁iväs	-6083
▁kase	-6084
▁omio	-6085
▁teht	-6086
▁vart	-6087
▁isyys	-6088
▁nille	-6089
▁nnell	-6090
▁ruudu	-6091
YP	-6092
rah	-6093
▁nok	-6094
▁aili	-6095
▁alis	-6096
▁ouse	-6097
▁umen	-6098
▁iistä	-6099
▁5.	-6100
▁Via	-6101
▁kän	-6102
▁näe	-6103
▁udo	-6104
▁lian	-6105
▁lise	-6106
▁liss	-6107
▁luee	-6108
▁oira	-6109
▁okem	-6110
▁soni	-6111
▁oogle	-6112
▁takai	-6113
▁Ase	-6114
▁aren	-6115
▁elvi	-6116
▁olta	-6117
▁paus	-6118
▁stam	-6119
▁wift	-6120
▁amuli	-6121
▁ingin	-6122
▁oppuu	-6123
▁rinte	-6124
▁takki	-6125
▁Ali	-6126
▁Mil	-6127
▁pir	-6128
▁poo	-6129
▁arma	-6130
▁elem	-6131
▁ilas	-6132
▁loit	-6133
▁raut	-6134
▁semm	-6135
▁sken	-6136
▁panja	-6137
▁pisto	-6138
▁0,	-6139
▁alb	-6140
▁iot	-6141
▁mek	-6142
▁rky	-6143
▁adel	-6144
▁alkk	-6145
▁isät	-6146
▁last	-6147
▁mäis	-6148
▁urje	-6149
▁kukis	-6150
ner	-6151
▁liu	-6152
▁Maja	-6153
▁emus	-6154
▁enez	-6155
▁enla	-6156
▁isee	-6157
▁uaal	-6158
▁änes	-6159
▁asper	-6160
▁istui	-6161
▁ywood	-6162
TP	-6163
yan	-6164
olvo	-6165
▁Esa	-6166
▁JYP	-6167
▁apse	-6168
▁kkar	-6169
▁pass	-6170
▁mykse	-6171
▁Alb	-6172
▁Cap	-6173
▁Mac	-6174
▁eop	-6175
▁pea	-6176
▁enia	-6177
▁itar	-6178
▁semi	-6179
▁sido	-6180
▁ukai	-6181
▁Volvo	-6182
▁iesel	-6183
▁sista	-6184
▁äisen	-6185
án	-6186
▁10.	-6187
▁töi	-6188
▁auhu	-6189
▁itoi	-6190
▁itte	-6191
▁keri	-6192
▁opim	-6193
▁otis	-6194
▁päri	-6195
▁radi	-6196
▁rool	-6197
▁ttii	-6198
▁uodo	-6199
▁Liver	-6200
▁alloi	-6201
▁apeli	-6202
▁tapon	-6203
tan	-6204
utz	-6205
▁9.	-6206
▁hk	-6207
▁120	-6208
▁Lav	-6209
▁tot	-6210
▁umu	-6211
▁avuu	-6212
▁intu	-6213
▁kork	-6214
▁olog	-6215
▁pung	-6216
▁tion	-6217
▁vani	-6218
▁äyttä	-6219
▁äättä	-6220
▁*	-6221
▁6.	-6222
▁Ai	-6223
▁Mer	-6224
▁his	-6225
▁les	-6226
▁lkä	-6227
▁läk	-6228
▁mär	-6229
▁essu	-6230
▁etki	-6231
▁iivo	-6232
▁tsis	-6233
▁yksy	-6234
▁Kirsi	-6235
▁ittsb	-6236
▁rikka	-6237
▁sohva	-6238
▁tteis	-6239
▁uudes	-6240
▁valli	-6241
▁kos	-6242
▁käl	-6243
▁loi	-6244
▁nly	-6245
▁pul	-6246
▁ksel	-6247
▁live	-6248
▁nnös	-6249
▁uora	-6250
▁aitio	-6251
▁eople	-6252
▁missa	-6253
▁nnäkö	-6254
▁onkin	-6255
▁sipul	-6256
▁soitu	-6257
sey	-6258
▁250	-6259
▁eat	-6260
▁gel	-6261
▁pri	-6262
▁eila	-6263
▁mäll	-6264
▁määr	-6265
▁uokk	-6266
▁kojen	-6267
▁raeli	-6268
▁touhu	-6269
▁uukka	-6270
MW	-6271
▁49	-6272
▁57	-6273
▁8.	-6274
▁Ad	-6275
▁KU	-6276
▁NR	-6277
▁we	-6278
▁Noo	-6279
▁cha	-6280
▁hke	-6281
▁kui	-6282
▁usa	-6283
▁Älä	-6284
▁elpa	-6285
▁lkop	-6286
▁puss	-6287
▁Matth	-6288
▁astaa	-6289
▁keude	-6290
▁reutz	-6291
▁sunto	-6292
bs	-6293
▁4.	-6294
raum	-6295
▁Ski	-6296
▁eve	-6297
▁gen	-6298
▁hia	-6299
▁fina	-6300
▁ield	-6301
▁raho	-6302
▁utuv	-6303
▁imaan	-6304
▁stila	-6305
▁uz	-6306
▁Cru	-6307
▁ekk	-6308
▁lvä	-6309
▁sak	-6310
▁ymi	-6311
▁jatte	-6312
ppe	-6313
▁TK	-6314
▁lf	-6315
▁des	-6316
▁sso	-6317
▁tiv	-6318
▁Wall	-6319
▁ijat	-6320
▁metr	-6321
▁mpär	-6322
▁unnu	-6323
▁uust	-6324
▁maast	-6325
▁okemu	-6326
▁traum	-6327
▁4,	-6328
▁4-	-6329
▁19.	-6330
▁Com	-6331
▁ach	-6332
▁eise	-6333
▁iitt	-6334
▁koom	-6335
▁ulvi	-6336
▁htiön	-6337
▁@	-6338
▁52	-6339
▁Bir	-6340
▁ire	-6341
▁kou	-6342
▁lev	-6343
▁red	-6344
▁aato	-6345
▁eroi	-6346
▁hana	-6347
▁htia	-6348
▁itio	-6349
▁kill	-6350
▁orte	-6351
▁ters	-6352
▁Jarmo	-6353
▁auber	-6354
▁kaasu	-6355
▁läise	-6356
▁nauti	-6357
▁sängy	-6358
ley	-6359
▁SV	-6360
▁lt	-6361
▁Iso	-6362
▁Sea	-6363
▁uck	-6364
▁aajo	-6365
▁aska	-6366
▁ente	-6367
▁eura	-6368
▁iikk	-6369
▁odel	-6370
▁oria	-6371
▁stum	-6372
▁tora	-6373
▁ttuu	-6374
▁vall	-6375
▁äise	-6376
▁apaus	-6377
▁lussa	-6378
▁ttämä	-6379
▁ukkaa	-6380
lub	-6381
▁3.	-6382
skar	-6383
▁lga	-6384
▁mak	-6385
▁ainv	-6386
▁iide	-6387
▁juur	-6388
▁noja	-6389
▁ntok	-6390
▁oina	-6391
▁oini	-6392
▁ioita	-6393
▁ittää	-6394
▁liset	-6395
▁steli	-6396
lly	-6397
▁Ris	-6398
▁aro	-6399
▁idi	-6400
▁kla	-6401
▁shi	-6402
▁ytt	-6403
▁Wood	-6404
▁ajia	-6405
▁akun	-6406
▁odan	-6407
▁odis	-6408
▁oron	-6409
▁orvo	-6410
▁siaa	-6411
▁tuja	-6412
▁ähet	-6413
▁anter	-6414
▁dlerc	-6415
▁ettel	-6416
▁misto	-6417
▁olley	-6418
▁steri	-6419
▁uttam	-6420
▁vaunu	-6421
id	-6422
ts	-6423
▁58	-6424
▁IC	-6425
▁So	-6426
▁21.	-6427
▁30.	-6428
▁ouh	-6429
▁äke	-6430
▁Arse	-6431
▁aroi	-6432
▁artt	-6433
▁aver	-6434
▁iber	-6435
▁laut	-6436
▁lmoi	-6437
▁oint	-6438
▁okka	-6439
▁puri	-6440
▁almen	-6441
▁avall	-6442
▁keula	-6443
uno	-6444
▁Ge	-6445
▁Rön	-6446
▁din	-6447
▁imu	-6448
▁lep	-6449
▁usv	-6450
▁äve	-6451
▁Gall	-6452
▁Golf	-6453
▁aaha	-6454
▁eski	-6455
▁stiv	-6456
▁ätty	-6457
▁annel	-6458
▁llain	-6459
▁tissä	-6460
▁urger	-6461
▁56	-6462
▁Az	-6463
▁Py	-6464
▁sö	-6465
▁kem	-6466
▁reg	-6467
▁Viap	-6468
▁holz	-6469
▁ingi	-6470
▁nnak	-6471
▁unsi	-6472
▁uono	-6473
▁kinen	-6474
▁ksena	-6475
▁nista	-6476
▁valti	-6477
sh	-6478
▁Vä	-6479
▁23.	-6480
▁Wor	-6481
▁Adam	-6482
▁ilua	-6483
▁kall	-6484
▁lisa	-6485
▁myks	-6486
▁oleh	-6487
▁aasta	-6488
▁demar	-6489
▁isnes	-6490
▁ktiiv	-6491
▁tellu	-6492
▁>	-6493
ona	-6494
▁ME	-6495
▁22.	-6496
▁hdo	-6497
▁lek	-6498
▁tiä	-6499
▁akau	-6500
▁ando	-6501
▁antt	-6502
▁autt	-6503
▁hilj	-6504
▁iint	-6505
▁iiri	-6506
▁raff	-6507
▁rban	-6508
▁rvio	-6509
▁aavis	-6510
▁tahto	-6511
▁totea	-6512
io	-6513
rö	-6514
▁Aut	-6515
▁euv	-6516
▁yöp	-6517
▁Kans	-6518
▁erja	-6519
▁stää	-6520
▁trag	-6521
ig	-6522
▁Bri	-6523
▁eas	-6524
▁eru	-6525
▁nso	-6526
▁bama	-6527
▁gier	-6528
▁mpum	-6529
▁musi	-6530
▁niel	-6531
▁pitu	-6532
▁stäv	-6533
▁tuol	-6534
▁utto	-6535
▁Rasmu	-6536
▁avain	-6537
▁äytti	-6538
RC	-6539
ua	-6540
▁UN	-6541
▁Yö	-6542
▁bu	-6543
rand	-6544
▁ABC	-6545
▁Mag	-6546
▁yin	-6547
▁ammo	-6548
▁ekin	-6549
▁imon	-6550
▁umpi	-6551
▁unno	-6552
▁änyt	-6553
▁ahker	-6554
▁eskal	-6555
▁serem	-6556
▁stari	-6557
▁uonee	-6558
▁voite	-6559
▁Hi	-6560
▁nf	-6561
▁Oma	-6562
▁isl	-6563
▁kyk	-6564
▁olv	-6565
▁ilai	-6566
▁kood	-6567
▁liia	-6568
▁okou	-6569
▁rade	-6570
▁yysk	-6571
▁Oskar	-6572
▁oimin	-6573
▁other	-6574
▁sorme	-6575
▁torni	-6576
▁27,	-6577
▁ioo	-6578
▁kue	-6579
▁aane	-6580
▁olis	-6581
▁orju	-6582
▁ouni	-6583
▁aitta	-6584
▁laadu	-6585
▁laiva	-6586
▁naali	-6587
▁nahka	-6588
▁nasta	-6589
▁rgent	-6590
▁uteen	-6591
mpo	-6592
ski	-6593
▁62	-6594
▁Eg	-6595
▁Eva	-6596
▁ave	-6597
▁oud	-6598
▁arsi	-6599
▁avai	-6600
▁deby	-6601
▁riis	-6602
▁änni	-6603
▁aessa	-6604
▁eisto	-6605
▁jille	-6606
▁tappo	-6607
Ei	-6608
ang	-6609
bia	-6610
▁Pr	-6611
▁Rä	-6612
▁Aka	-6613
▁Ran	-6614
▁SVT	-6615
▁apä	-6616
▁deb	-6617
▁erv	-6618
▁see	-6619
▁sid	-6620
▁smo	-6621
▁urn	-6622
▁yyp	-6623
▁Bild	-6624
▁anny	-6625
▁erit	-6626
▁kumo	-6627
▁pull	-6628
▁sall	-6629
▁stin	-6630
▁voja	-6631
▁miljo	-6632
▁tuota	-6633
▁urske	-6634
▁ymmen	-6635
rk	-6636
▁85	-6637
▁nb	-6638
▁Kul	-6639
▁Ron	-6640
▁swa	-6641
▁ähk	-6642
▁hist	-6643
▁ieme	-6644
▁inaa	-6645
▁kaam	-6646
▁kaks	-6647
▁mmän	-6648
▁neut	-6649
▁taav	-6650
▁tioi	-6651
▁kalla	-6652
▁muude	-6653
▁orvoo	-6654
▁tartu	-6655
dd	-6656
▁Fi	-6657
▁BMW	-6658
▁Col	-6659
▁Mah	-6660
▁div	-6661
▁eth	-6662
▁sco	-6663
▁Marg	-6664
▁aahe	-6665
▁asin	-6666
▁roja	-6667
▁erint	-6668
▁ourne	-6669
▁stune	-6670
▁swage	-6671
▁unnel	-6672
▁ls	-6673
▁yi	-6674
▁Ste	-6675
▁eek	-6676
▁pin	-6677
▁aloi	-6678
▁eimm	-6679
▁uupu	-6680
▁ettaa	-6681
▁urkki	-6682
RP	-6683
ard	-6684
ler	-6685
▁fo	-6686
▁lp	-6687
▁onl	-6688
▁syi	-6689
▁öön	-6690
▁Nico	-6691
▁Sano	-6692
▁anom	-6693
▁apau	-6694
▁eina	-6695
▁kiru	-6696
▁ksee	-6697
▁omen	-6698
▁onki	-6699
▁Noora	-6700
▁aalea	-6701
▁intoj	-6702
▁maaha	-6703
▁radec	-6704
▁reiss	-6705
▁sauma	-6706
ei	-6707
ug	-6708
jer	-6709
▁Ess	-6710
▁HJK	-6711
▁noi	-6712
▁nua	-6713
▁ssy	-6714
▁apur	-6715
▁ikym	-6716
▁ollo	-6717
▁ooni	-6718
▁orke	-6719
▁tone	-6720
▁uija	-6721
▁Sirpa	-6722
▁World	-6723
▁arter	-6724
▁erbia	-6725
▁heilu	-6726
▁iossa	-6727
▁lokuu	-6728
▁tisen	-6729
▁uutel	-6730
▁Sp	-6731
▁Tom	-6732
▁rdi	-6733
▁ric	-6734
▁aalu	-6735
▁ansk	-6736
▁htii	-6737
▁iana	-6738
▁ower	-6739
▁sine	-6740
▁stit	-6741
▁stua	-6742
▁toin	-6743
▁uijo	-6744
▁äris	-6745
▁Katja	-6746
▁Korpi	-6747
▁lappu	-6748
▁taido	-6749
▁KO	-6750
▁24.	-6751
▁28.	-6752
▁Est	-6753
▁lät	-6754
▁rio	-6755
▁ärk	-6756
▁Ryan	-6757
▁apan	-6758
▁jall	-6759
▁kine	-6760
▁nnik	-6761
▁ttej	-6762
▁ttäi	-6763
▁turv	-6764
▁uuro	-6765
▁autti	-6766
▁hiero	-6767
▁immil	-6768
▁sissä	-6769
las	-6770
tuo	-6771
▁Vuo	-6772
▁jam	-6773
▁onu	-6774
▁upa	-6775
▁uts	-6776
▁ahtu	-6777
▁akar	-6778
▁apor	-6779
▁asse	-6780
▁lahj	-6781
▁rman	-6782
▁änak	-6783
▁Grand	-6784
▁riida	-6785
▁supis	-6786
ün	-6787
ven	-6788
▁59	-6789
▁AP	-6790
▁ct	-6791
▁rh	-6792
▁2,5	-6793
▁NRK	-6794
▁STT	-6795
▁erh	-6796
▁ios	-6797
▁nus	-6798
▁ousi	-6799
▁ähtö	-6800
▁inkin	-6801
▁ityks	-6802
▁sanai	-6803
og	-6804
hua	-6805
ilo	-6806
▁25.	-6807
▁Haa	-6808
▁Las	-6809
▁dik	-6810
▁eel	-6811
▁hda	-6812
▁oam	-6813
▁töt	-6814
▁aija	-6815
▁ilan	-6816
▁illo	-6817
▁lmia	-6818
▁vill	-6819
▁ääty	-6820
▁Vermo	-6821
▁aalla	-6822
▁eesta	-6823
hy	-6824
▁Ou	-6825
▁fa	-6826
▁Aku	-6827
▁KRP	-6828
▁enh	-6829
▁män	-6830
▁auas	-6831
▁erät	-6832
▁kkia	-6833
▁levo	-6834
▁rygg	-6835
▁säik	-6836
▁eslan	-6837
▁kaine	-6838
▁konse	-6839
▁linik	-6840
▁liuku	-6841
▁oliti	-6842
▁raati	-6843
▁ustan	-6844
BU	-6845
kp	-6846
ssu	-6847
▁64	-6848
▁Mos	-6849
▁hme	-6850
▁ira	-6851
▁näö	-6852
▁äse	-6853
▁Rita	-6854
▁ikui	-6855
▁ätti	-6856
▁ieppi	-6857
▁lmoit	-6858
▁matto	-6859
▁viiva	-6860
put	-6861
▁29.	-6862
▁Ama	-6863
▁Mal	-6864
▁Rkp	-6865
▁Yht	-6866
▁rkk	-6867
▁elek	-6868
▁hyvi	-6869
▁imen	-6870
▁lämä	-6871
▁nlyf	-6872
▁ntal	-6873
▁rika	-6874
▁atama	-6875
▁nnall	-6876
▁okais	-6877
▁onnor	-6878
dt	-6879
ffe	-6880
▁5,	-6881
▁Fa	-6882
▁ID	-6883
▁26.	-6884
▁Isä	-6885
▁Jok	-6886
▁naal	-6887
▁nurk	-6888
▁okas	-6889
▁oval	-6890
▁summi	-6891
ad	-6892
ye	-6893
ene	-6894
pin	-6895
▁72	-6896
▁pl	-6897
▁Lea	-6898
▁You	-6899
▁duu	-6900
▁eme	-6901
▁moj	-6902
▁rät	-6903
▁Hero	-6904
▁Mira	-6905
▁Will	-6906
▁eitt	-6907
▁ntek	-6908
▁taam	-6909
▁vans	-6910
▁ersey	-6911
▁keutu	-6912
▁miino	-6913
▁oukar	-6914
erb	-6915
uks	-6916
▁EK	-6917
▁26,	-6918
▁maj	-6919
▁mau	-6920
▁ney	-6921
▁oid	-6922
▁pes	-6923
▁sol	-6924
▁auma	-6925
▁ayah	-6926
▁ball	-6927
▁erik	-6928
▁imaa	-6929
▁imet	-6930
▁kaao	-6931
▁oolo	-6932
▁äist	-6933
▁Rally	-6934
▁alist	-6935
▁arast	-6936
▁ittaj	-6937
▁kolar	-6938
▁kysym	-6939
▁messu	-6940
▁mitri	-6941
▁ouver	-6942
▁tavoi	-6943
▁utuva	-6944
▁ämise	-6945
▁6,	-6946
▁Mas	-6947
▁WRC	-6948
▁anp	-6949
▁ath	-6950
▁niv	-6951
▁oda	-6952
▁tab	-6953
▁itel	-6954
▁rant	-6955
▁äkär	-6956
▁kasta	-6957
▁kokki	-6958
▁pauks	-6959
▁tatuo	-6960
▁utuks	-6961
▁61	-6962
▁77	-6963
▁cm	-6964
▁Cal	-6965
▁Ruu	-6966
▁eht	-6967
▁uta	-6968
▁Miro	-6969
▁iive	-6970
▁rian	-6971
▁uudu	-6972
▁uvat	-6973
▁alppi	-6974
▁asioi	-6975
▁umppa	-6976
▁Š	-6977
ehu	-6978
eng	-6979
ont	-6980
▁GT	-6981
▁Us	-6982
▁Fil	-6983
▁Gol	-6984
▁Sta	-6985
▁ahv	-6986
▁env	-6987
▁joi	-6988
▁lok	-6989
▁nil	-6990
▁önt	-6991
▁ewis	-6992
▁ivaa	-6993
▁ouhi	-6994
▁rown	-6995
▁stui	-6996
▁utus	-6997
▁innea	-6998
▁laatu	-6999
▁natsi	-7000
▁nauha	-7001
▁otaan	-7002
und	-7003
▁uf	-7004
▁Aar	-7005
▁Mün	-7006
▁Pia	-7007
▁luj	-7008
▁ogi	-7009
▁auho	-7010
▁insi	-7011
▁kain	-7012
▁ntum	-7013
▁ouva	-7014
▁iskar	-7015
▁lausu	-7016
▁nellä	-7017
▁ottee	-7018
▁pakka	-7019
▁sormu	-7020
▁ttila	-7021
▁uonta	-7022
ins	-7023
ond	-7024
▁5-	-7025
▁63	-7026
▁Xi	-7027
▁Air	-7028
▁Det	-7029
▁McC	-7030
▁Mus	-7031
▁hav	-7032
▁Dahl	-7033
▁Rock	-7034
▁eiso	-7035
▁hony	-7036
▁iipu	-7037
▁intr	-7038
▁jana	-7039
▁kkan	-7040
▁nenä	-7041
▁nkar	-7042
▁rise	-7043
▁toja	-7044
▁turi	-7045
▁ymis	-7046
▁äkiv	-7047
▁Liper	-7048
▁á	-7049
▁KK	-7050
▁nr	-7051
▁25,	-7052
▁Tar	-7053
▁hei	-7054
▁ipo	-7055
▁pia	-7056
▁ysp	-7057
▁äyd	-7058
▁Lisä	-7059
▁Vira	-7060
▁aiku	-7061
▁ierr	-7062
▁irjo	-7063
▁lake	-7064
▁okak	-7065
▁opul	-7066
▁dikta	-7067
▁ergia	-7068
▁ikaan	-7069
▁nnust	-7070
▁ranci	-7071
▁steis	-7072
▁tettä	-7073
▁uutok	-7074
▁PA	-7075
▁27.	-7076
▁dit	-7077
▁hdu	-7078
▁luv	-7079
▁non	-7080
▁oop	-7081
▁vak	-7082
▁iisp	-7083
▁kiin	-7084
▁lias	-7085
▁urku	-7086
▁Münch	-7087
▁ellar	-7088
▁ntama	-7089
▁oikku	-7090
▁ruuna	-7091
▁tauti	-7092
▁vissä	-7093
ly	-7094
des	-7095
los	-7096
▁53	-7097
▁66	-7098
▁FB	-7099
▁23,	-7100
▁All	-7101
▁api	-7102
▁arp	-7103
▁att	-7104
▁els	-7105
▁hor	-7106
▁how	-7107
▁hto	-7108
▁iri	-7109
▁leu	-7110
▁usm	-7111
▁äks	-7112
▁Gabr	-7113
▁Hint	-7114
▁ahva	-7115
▁aleh	-7116
▁eisi	-7117
▁ikal	-7118
▁ikää	-7119
▁neks	-7120
▁ortt	-7121
▁puun	-7122
▁rbán	-7123
▁syve	-7124
▁vaus	-7125
▁estaa	-7126
▁itsee	-7127
▁ittäv	-7128
▁karku	-7129
▁lippu	-7130
▁nauru	-7131
imb	-7132
▁67	-7133
▁8,	-7134
▁NY	-7135
▁VM	-7136
▁by	-7137
▁lim	-7138
▁nit	-7139
▁Buff	-7140
▁amen	-7141
▁olai	-7142
▁palj	-7143
▁reip	-7144
▁ride	-7145
▁siel	-7146
▁telm	-7147
▁unte	-7148
▁ynty	-7149
▁eirut	-7150
▁etter	-7151
▁nestä	-7152
▁outai	-7153
▁sukel	-7154
▁teemo	-7155
▁äiset	-7156
rd	-7157
mbo	-7158
von	-7159
▁Nu	-7160
mist	-7161
▁Cup	-7162
▁Cruz	-7163
▁asto	-7164
▁idem	-7165
▁kärä	-7166
▁nomi	-7167
▁rotu	-7168
▁sity	-7169
▁teil	-7170
▁tuom	-7171
▁Azerb	-7172
▁eksan	-7173
▁erman	-7174
▁kerho	-7175
▁matra	-7176
NA	-7177
tur	-7178
▁EV	-7179
▁PM	-7180
▁2-3	-7181
▁29,	-7182
▁900	-7183
▁Nil	-7184
▁koa	-7185
▁lki	-7186
▁llo	-7187
▁llu	-7188
▁too	-7189
▁niis	-7190
▁oukk	-7191
▁ukon	-7192
▁uota	-7193
▁vaam	-7194
▁aunio	-7195
▁erkki	-7196
▁käräj	-7197
▁reide	-7198
▁sauna	-7199
zh	-7200
▁ES	-7201
▁Pi	-7202
▁rn	-7203
▁Rit	-7204
▁ady	-7205
▁lem	-7206
▁yny	-7207
▁kiks	-7208
▁ksaa	-7209
▁kyke	-7210
▁rina	-7211
▁roit	-7212
▁tutk	-7213
▁vuod	-7214
▁ennes	-7215
▁käytä	-7216
▁netto	-7217
▁ttäne	-7218
RW	-7219
hö	-7220
ers	-7221
met	-7222
▁ej	-7223
▁yg	-7224
▁Mia	-7225
▁TPS	-7226
▁dem	-7227
▁ekt	-7228
▁ril	-7229
▁Seag	-7230
▁avin	-7231
▁eett	-7232
▁ikat	-7233
▁stad	-7234
▁uaan	-7235
▁askar	-7236
▁elijä	-7237
▁iispa	-7238
▁lalla	-7239
▁liivi	-7240
▁lissä	-7241
▁nivel	-7242
▁oshua	-7243
▁sistä	-7244
▁syytt	-7245
▁uolon	-7246
FC	-7247
▁■	-7248
ong	-7249
▁EP	-7250
▁GM	-7251
▁FBI	-7252
▁Man	-7253
▁NBC	-7254
▁Nas	-7255
▁Nic	-7256
▁Ori	-7257
▁nak	-7258
▁Aura	-7259
▁Club	-7260
▁aiti	-7261
▁alal	-7262
▁ampe	-7263
▁elas	-7264
▁kuut	-7265
▁nati	-7266
▁okoo	-7267
▁simm	-7268
▁annet	-7269
▁lieve	-7270
zo	-7271
ham	-7272
teb	-7273
▁73	-7274
▁jän	-7275
▁kak	-7276
▁ups	-7277
▁ysk	-7278
▁öll	-7279
▁eder	-7280
▁iima	-7281
▁itui	-7282
▁lmaa	-7283
▁pale	-7284
▁rock	-7285
▁ätys	-7286
▁öksi	-7287
▁lusta	-7288
▁oimia	-7289
▁poist	-7290
▁uotsa	-7291
En	-7292
kky	-7293
uth	-7294
▁68	-7295
▁69	-7296
▁tå	-7297
▁Don	-7298
▁McG	-7299
▁Nar	-7300
▁Ott	-7301
▁Rod	-7302
▁eij	-7303
▁exa	-7304
▁ice	-7305
▁rig	-7306
▁thl	-7307
▁Benz	-7308
▁Nick	-7309
▁aako	-7310
▁ekan	-7311
▁heff	-7312
▁ippo	-7313
▁unin	-7314
▁enäjä	-7315
▁helmi	-7316
▁sormi	-7317
gr	-7318
hk	-7319
ör	-7320
mmu	-7321
▁EH	-7322
issa	-7323
▁28,	-7324
▁ilp	-7325
▁kip	-7326
▁low	-7327
▁sav	-7328
▁sjo	-7329
▁unt	-7330
▁ainz	-7331
▁alos	-7332
▁apai	-7333
▁data	-7334
▁inyt	-7335
▁kkei	-7336
▁lona	-7337
▁loom	-7338
▁mans	-7339
▁oikk	-7340
▁olma	-7341
▁tefa	-7342
▁toiv	-7343
▁umin	-7344
▁ytyi	-7345
▁ajien	-7346
▁ippur	-7347
▁tempu	-7348
▁trand	-7349
▁varsi	-7350
IA	-7351
LA	-7352
TA	-7353
▁ø	-7354
RWA	-7355
▁130	-7356
▁Afg	-7357
▁dol	-7358
▁Paju	-7359
▁Rosa	-7360
▁aupa	-7361
▁etes	-7362
▁hina	-7363
▁iipi	-7364
▁UNRWA	-7365
▁Virpi	-7366
▁attil	-7367
▁auvon	-7368
▁mille	-7369
▁thlet	-7370
▁tykki	-7371
▁vaisu	-7372
bba	-7373
▁(1	-7374
▁82	-7375
▁99	-7376
▁DC	-7377
▁Fu	-7378
▁Os	-7379
▁30,	-7380
▁32,	-7381
▁Min	-7382
▁Sky	-7383
▁Ura	-7384
▁Wat	-7385
▁con	-7386
▁uik	-7387
▁ury	-7388
▁äre	-7389
▁Alma	-7390
▁aall	-7391
▁iipa	-7392
▁iran	-7393
▁pisk	-7394
▁tåhl	-7395
▁idaan	-7396
▁kemis	-7397
▁oster	-7398
▁stand	-7399
▁vastu	-7400
YÖ	-7401
gar	-7402
mpe	-7403
▁81	-7404
▁AI	-7405
▁Ek	-7406
▁Ii	-7407
eleg	-7408
▁180	-7409
▁lpp	-7410
▁nek	-7411
▁rus	-7412
▁ähä	-7413
▁Mold	-7414
▁appa	-7415
▁avis	-7416
▁etra	-7417
▁evin	-7418
▁nemm	-7419
▁nkäy	-7420
▁nuel	-7421
▁olas	-7422
▁taus	-7423
▁uitu	-7424
▁uolt	-7425
▁utaa	-7426
▁äsit	-7427
▁ääsi	-7428
▁Golde	-7429
▁aasup	-7430
▁etoni	-7431
▁sunno	-7432
▁virra	-7433
HO	-7434
gh	-7435
ulo	-7436
▁enu	-7437
▁ool	-7438
▁pih	-7439
▁uca	-7440
▁aami	-7441
▁iete	-7442
▁isim	-7443
▁kuun	-7444
▁lika	-7445
▁otel	-7446
▁tiaa	-7447
▁tian	-7448
▁uluu	-7449
▁uont	-7450
▁vert	-7451
▁Rinte	-7452
▁aksik	-7453
▁annes	-7454
▁antel	-7455
▁dessä	-7456
▁gelma	-7457
▁jaksi	-7458
▁karva	-7459
▁kkeen	-7460
▁nissa	-7461
▁urski	-7462
KA	-7463
MP	-7464
▁0-	-7465
▁AK	-7466
▁Cy	-7467
▁FS	-7468
▁gn	-7469
▁24,	-7470
▁Law	-7471
▁Sää	-7472
▁öns	-7473
▁akki	-7474
▁arab	-7475
▁atte	-7476
▁omas	-7477
▁tuna	-7478
▁tusv	-7479
▁tuur	-7480
▁yste	-7481
▁aival	-7482
▁halpa	-7483
▁miina	-7484
▁sinni	-7485
▁ulkko	-7486
▁vaale	-7487
LS	-7488
th	-7489
we	-7490
pat	-7491
▁95	-7492
▁AD	-7493
▁31,	-7494
▁Lev	-7495
▁aht	-7496
▁etk	-7497
▁oaa	-7498
▁rum	-7499
▁Glob	-7500
▁Hell	-7501
▁Konf	-7502
▁aiht	-7503
▁aute	-7504
▁elia	-7505
▁ilda	-7506
▁irvo	-7507
▁ntar	-7508
▁roop	-7509
▁tetä	-7510
▁ulee	-7511
▁wall	-7512
▁ytyy	-7513
▁äätö	-7514
▁Rinta	-7515
▁Risti	-7516
▁ilkku	-7517
▁mästä	-7518
▁nappi	-7519
▁neuro	-7520
▁oukse	-7521
▁riitt	-7522
▁sortu	-7523
iku	-7524
▁74	-7525
▁uc	-7526
▁Ham	-7527
▁KOK	-7528
▁Leo	-7529
▁Mic	-7530
▁irk	-7531
▁myi	-7532
▁oih	-7533
▁Ariz	-7534
▁Walz	-7535
▁aasi	-7536
▁idli	-7537
▁kyll	-7538
▁käry	-7539
▁omme	-7540
▁umpa	-7541
▁äiri	-7542
▁öteb	-7543
▁ainan	-7544
▁amuel	-7545
▁arlos	-7546
▁eelle	-7547
▁maist	-7548
▁orner	-7549
▁ttele	-7550
BS	-7551
ead	-7552
▁78	-7553
▁EC	-7554
▁hl	-7555
▁hr	-7556
▁kl	-7557
▁AfD	-7558
▁Anu	-7559
▁aff	-7560
▁aie	-7561
▁iat	-7562
▁kWh	-7563
▁Amaz	-7564
▁Saga	-7565
▁aiho	-7566
▁ehit	-7567
▁helm	-7568
▁inkä	-7569
▁keva	-7570
▁mand	-7571
▁omer	-7572
▁oopp	-7573
▁urri	-7574
▁Hintz	-7575
▁aisti	-7576
▁deleg	-7577
▁kinta	-7578
▁ltava	-7579
▁ustaa	-7580
ic	-7581
tic	-7582
▁7,	-7583
▁SU	-7584
▁350	-7585
▁Lee	-7586
▁SJK	-7587
▁Tul	-7588
▁ihi	-7589
▁raf	-7590
▁äky	-7591
▁ääl	-7592
▁aliv	-7593
▁aros	-7594
▁avos	-7595
▁emen	-7596
▁ikke	-7597
▁ilku	-7598
▁liop	-7599
▁nker	-7600
▁punk	-7601
▁stat	-7602
▁suus	-7603
▁tiko	-7604
▁vies	-7605
▁Coldp	-7606
▁Marcu	-7607
▁Roman	-7608
▁amara	-7609
▁eskar	-7610
▁iittä	-7611
▁kesto	-7612
▁kestä	-7613
▁sijaa	-7614
▁sänky	-7615
▁9,	-7616
▁Ti	-7617
▁21,	-7618
▁Cha	-7619
▁GPS	-7620
▁Gra	-7621
▁HSL	-7622
▁Lop	-7623
▁dom	-7624
▁agle	-7625
▁ainu	-7626
▁ampo	-7627
▁asee	-7628
▁etso	-7629
▁eyen	-7630
▁mist	-7631
▁urin	-7632
▁urpi	-7633
▁Sakar	-7634
▁astio	-7635
▁ilkka	-7636
▁ippar	-7637
▁numme	-7638
▁terin	-7639
▁uutti	-7640
▁vihja	-7641
OP	-7642
mil	-7643
pas	-7644
▁Tr	-7645
▁WS	-7646
▁öp	-7647
▁Cro	-7648
▁Edu	-7649
▁Päi	-7650
▁Use	-7651
▁pär	-7652
▁Wahl	-7653
▁Wild	-7654
▁anel	-7655
▁avah	-7656
▁eksu	-7657
▁iehi	-7658
▁lans	-7659
▁lykk	-7660
▁nyrk	-7661
▁orno	-7662
▁orsa	-7663
▁orto	-7664
▁otii	-7665
▁rais	-7666
▁ähte	-7667
▁Grönb	-7668
▁astee	-7669
▁ellin	-7670
▁heitt	-7671
▁ikkar	-7672
▁irppu	-7673
▁maala	-7674
▁omena	-7675
▁omini	-7676
▁ooper	-7677
ph	-7678
zy	-7679
▁76	-7680
▁86	-7681
▁Tu	-7682
▁34,	-7683
▁Del	-7684
▁Tho	-7685
▁UFC	-7686
▁aps	-7687
▁sym	-7688
▁akav	-7689
▁arit	-7690
▁aude	-7691
▁each	-7692
▁eivä	-7693
▁iian	-7694
▁imia	-7695
▁isaa	-7696
▁itol	-7697
▁kose	-7698
▁omal	-7699
▁roos	-7700
▁taku	-7701
▁uite	-7702
▁ylli	-7703
▁ynyt	-7704
▁ytkö	-7705
▁anoma	-7706
▁aukio	-7707
▁eisoi	-7708
▁enter	-7709
▁maise	-7710
▁matti	-7711
▁ntial	-7712
▁ppila	-7713
che	-7714
its	-7715
mes	-7716
uta	-7717
▁91	-7718
▁Jr	-7719
▁nm	-7720
▁31.	-7721
▁35,	-7722
▁Kia	-7723
▁Mun	-7724
▁any	-7725
▁dan	-7726
▁err	-7727
▁hur	-7728
▁soa	-7729
▁vio	-7730
▁Adri	-7731
▁Digg	-7732
▁PMMP	-7733
▁hang	-7734
▁lant	-7735
▁ngeb	-7736
▁onja	-7737
▁sema	-7738
▁usku	-7739
▁uter	-7740
▁Jarno	-7741
▁hassu	-7742
▁kukin	-7743
▁nossa	-7744
▁tauks	-7745
▁tiena	-7746
▁tista	-7747
▁vässä	-7748
sah	-7749
str	-7750
▁TM	-7751
▁Big	-7752
▁EHT	-7753
▁Pes	-7754
▁aco	-7755
▁buu	-7756
▁laf	-7757
▁Öst	-7758
▁ahte	-7759
▁ikäl	-7760
▁itan	-7761
▁jeng	-7762
▁kien	-7763
▁kula	-7764
▁kuor	-7765
▁kuus	-7766
▁llen	-7767
▁olue	-7768
▁stal	-7769
▁ujen	-7770
▁esper	-7771
▁heito	-7772
▁iiski	-7773
▁mento	-7774
▁regor	-7775
▁taput	-7776
hä	-7777
ji	-7778
gio	-7779
vig	-7780
▁87	-7781
▁Il	-7782
▁SP	-7783
▁Lah	-7784
▁Oik	-7785
▁Pro	-7786
▁Vai	-7787
▁dea	-7788
▁fer	-7789
▁skä	-7790
▁tuk	-7791
▁Barb	-7792
▁Duba	-7793
▁Rein	-7794
▁Rena	-7795
▁Veri	-7796
▁aunu	-7797
▁ilot	-7798
▁inas	-7799
▁repe	-7800
▁talv	-7801
▁tock	-7802
▁utos	-7803
▁ymys	-7804
▁aunan	-7805
▁dassa	-7806
▁encia	-7807
▁eriaa	-7808
▁ilpai	-7809
▁iskel	-7810
▁itsen	-7811
▁korpi	-7812
▁ntise	-7813
▁offer	-7814
▁ortai	-7815
▁rance	-7816
▁tisoi	-7817
ant	-7818
usa	-7819
▁71	-7820
▁Ul	-7821
▁22,	-7822
▁33,	-7823
▁EBU	-7824
▁War	-7825
▁asf	-7826
▁joo	-7827
▁lot	-7828
▁mag	-7829
▁nmu	-7830
▁rmi	-7831
▁sik	-7832
▁Over	-7833
▁eilu	-7834
▁etor	-7835
▁jois	-7836
▁keng	-7837
▁muod	-7838
▁sapp	-7839
▁semp	-7840
▁soti	-7841
▁tant	-7842
▁tise	-7843
▁tsen	-7844
▁eloni	-7845
▁hokki	-7846
▁iinaa	-7847
▁kille	-7848
▁nnost	-7849
▁ntoon	-7850
▁roski	-7851
▁suver	-7852
▁tusjo	-7853
▁uomat	-7854
rs	-7855
én	-7856
hko	-7857
▁Em	-7858
▁ld	-7859
▁Ger	-7860
▁Juh	-7861
▁Tuu	-7862
▁ahe	-7863
▁esp	-7864
▁ipi	-7865
▁kiv	-7866
▁sap	-7867
▁ärt	-7868
▁Vala	-7869
▁eivo	-7870
▁hame	-7871
▁kate	-7872
▁nolo	-7873
▁staf	-7874
▁uura	-7875
▁Rossi	-7876
▁Thomp	-7877
▁ammer	-7878
▁inttu	-7879
▁menti	-7880
▁onaco	-7881
▁sulku	-7882
▁taulu	-7883
▁unner	-7884
▁uulos	-7885
yd	-7886
▁−	-7887
emb	-7888
väli	-7889
▁140	-7890
▁FSB	-7891
▁NYT	-7892
▁hät	-7893
▁jöi	-7894
▁käv	-7895
▁nam	-7896
▁ryn	-7897
▁war	-7898
▁arte	-7899
▁esim	-7900
▁gall	-7901
▁ilto	-7902
▁lerc	-7903
▁olii	-7904
▁ooli	-7905
▁ssut	-7906
▁synt	-7907
▁tola	-7908
▁uivu	-7909
▁umpp	-7910
▁uuse	-7911
▁vise	-7912
▁ympi	-7913
▁ainal	-7914
▁atina	-7915
▁intia	-7916
▁nväli	-7917
▁rooks	-7918
▁uutal	-7919
HD	-7920
LL	-7921
iby	-7922
ppä	-7923
▁aw	-7924
▁Con	-7925
▁elg	-7926
▁kuj	-7927
▁lpo	-7928
▁rdo	-7929
▁rho	-7930
▁sch	-7931
▁sha	-7932
▁Calg	-7933
▁Gaud	-7934
▁ahoi	-7935
▁aluk	-7936
▁idut	-7937
▁kahd	-7938
▁ling	-7939
▁myar	-7940
▁okin	-7941
▁onas	-7942
▁osep	-7943
▁oudo	-7944
▁paam	-7945
▁raam	-7946
▁rida	-7947
▁sink	-7948
▁stia	-7949
▁tsal	-7950
▁ucia	-7951
▁uuna	-7952
▁wood	-7953
▁Combs	-7954
▁aukko	-7955
▁hetke	-7956
▁iisaa	-7957
▁nurmi	-7958
▁oppar	-7959
▁surma	-7960
▁telut	-7961
▁treet	-7962
▁tukka	-7963
▁uilla	-7964
▁umaan	-7965
▁utaan	-7966
▁valle	-7967
AA	-7968
am	-7969
ep	-7970
ér	-7971
▁н	-7972
ith	-7973
▁(2	-7974
▁170	-7975
▁3,5	-7976
▁EPP	-7977
▁Ero	-7978
▁Top	-7979
▁dam	-7980
▁ehi	-7981
▁kra	-7982
▁näp	-7983
▁alou	-7984
▁azer	-7985
▁edro	-7986
▁elat	-7987
▁erkk	-7988
▁evil	-7989
▁iala	-7990
▁idaa	-7991
▁ilvo	-7992
▁ipsa	-7993
▁itru	-7994
▁koal	-7995
▁oist	-7996
▁osit	-7997
▁rkin	-7998
▁vere	-7999
▁atker	-8000
▁easti	-8001
▁ioski	-8002
▁isney	-8003
▁ittam	-8004
▁kukki	-8005
▁linto	-8006
▁ometr	-8007
▁rctic	-8008
▁riehu	-8009
▁utist	-8010
FL	-8011
ira	-8012
▁88	-8013
▁Sä	-8014
▁cu	-8015
▁vu	-8016
▁öd	-8017
▁Gri	-8018
▁Kas	-8019
▁Rat	-8020
▁Sun	-8021
▁Toi	-8022
▁eiv	-8023
▁agne	-8024
▁amed	-8025
▁arai	-8026
▁foor	-8027
▁ievi	-8028
▁ledo	-8029
▁lehm	-8030
▁liko	-8031
▁nelm	-8032
▁ondo	-8033
▁outa	-8034
▁rand	-8035
▁usia	-8036
▁ääst	-8037
▁aaton	-8038
▁ament	-8039
▁happo	-8040
▁kanto	-8041
▁lappi	-8042
▁mitus	-8043
▁sinut	-8044
▁taudi	-8045
▁ummel	-8046
▁vakuu	-8047
▁ärist	-8048
ey	-8049
LTP	-8050
ror	-8051
▁OP	-8052
ortm	-8053
▁110	-8054
▁160	-8055
▁CBS	-8056
▁PSG	-8057
▁Tee	-8058
▁dor	-8059
▁lja	-8060
▁Clar	-8061
▁Open	-8062
▁Oper	-8063
▁Räis	-8064
▁WLTP	-8065
▁esän	-8066
▁meen	-8067
▁nats	-8068
▁stoa	-8069
▁ulka	-8070
▁auman	-8071
▁inger	-8072
▁irjoi	-8073
▁istee	-8074
▁kunin	-8075
▁luuku	-8076
▁lyers	-8077
▁milla	-8078
▁outil	-8079
▁ulgar	-8080
▁undes	-8081
▁uutio	-8082
▁äisyy	-8083
TO	-8084
cy	-8085
▁EI	-8086
▁ck	-8087
▁uj	-8088
▁36,	-8089
▁Aro	-8090
▁Cla	-8091
▁Ole	-8092
▁One	-8093
▁Pas	-8094
▁RoK	-8095
▁hka	-8096
▁jaa	-8097
▁nim	-8098
▁rki	-8099
▁sim	-8100
▁Aira	-8101
▁RoPS	-8102
▁ager	-8103
▁ailu	-8104
▁aivu	-8105
▁eneg	-8106
▁imai	-8107
▁kapa	-8108
▁kart	-8109
▁kond	-8110
▁orni	-8111
▁orod	-8112
▁osoi	-8113
▁pall	-8114
▁rice	-8115
▁rvos	-8116
▁side	-8117
▁ännä	-8118
▁Dortm	-8119
▁kinna	-8120
▁orvar	-8121
▁rmist	-8122
▁uolla	-8123
hr	-8124
bel	-8125
nau	-8126
tun	-8127
▁Ay	-8128
▁Jä	-8129
▁PP	-8130
▁Ue	-8131
▁ix	-8132
▁20,	-8133
▁Ilm	-8134
▁Jer	-8135
▁Kov	-8136
▁Lap	-8137
▁TMZ	-8138
▁bar	-8139
▁euk	-8140
▁isr	-8141
▁lmä	-8142
▁mua	-8143
▁rön	-8144
▁ADHD	-8145
▁Alfa	-8146
▁Lovi	-8147
▁Saat	-8148
▁anse	-8149
▁elun	-8150
▁ilos	-8151
▁kass	-8152
▁lakk	-8153
▁omar	-8154
▁orit	-8155
▁tari	-8156
▁tikk	-8157
▁toim	-8158
▁väll	-8159
▁øiby	-8160
▁aavan	-8161
▁ergio	-8162
▁eutta	-8163
▁kupla	-8164
▁maino	-8165
▁nurme	-8166
▁taudu	-8167
▁teven	-8168
▁untar	-8169
SA	-8170
uho	-8171
▁6-	-8172
▁83	-8173
▁89	-8174
▁96	-8175
▁1,2	-8176
▁Urs	-8177
▁ijo	-8178
▁iän	-8179
▁rno	-8180
▁syt	-8181
▁Antt	-8182
▁Kihl	-8183
▁eten	-8184
▁iirt	-8185
▁kina	-8186
▁nilk	-8187
▁olli	-8188
▁rönl	-8189
▁tala	-8190
▁tami	-8191
▁vela	-8192
▁Kaija	-8193
▁ailij	-8194
▁heinä	-8195
▁iivaa	-8196
▁ikrob	-8197
▁lauma	-8198
▁liima	-8199
▁miinu	-8200
▁seits	-8201
▁sitou	-8202
▁sitys	-8203
▁urkku	-8204
▁ökkää	-8205
tor	-8206
ård	-8207
▁OI	-8208
▁Gla	-8209
▁Rei	-8210
▁hou	-8211
▁rla	-8212
▁rty	-8213
▁sii	-8214
▁täk	-8215
▁Comp	-8216
▁Uefa	-8217
▁avas	-8218
▁elvä	-8219
▁esty	-8220
▁imit	-8221
▁irku	-8222
▁lubi	-8223
▁luis	-8224
▁nero	-8225
▁nony	-8226
▁usse	-8227
▁yhti	-8228
▁äijä	-8229
▁aamaa	-8230
▁aatam	-8231
▁akker	-8232
▁atema	-8233
▁avint	-8234
▁enner	-8235
▁istut	-8236
▁liioi	-8237
▁litse	-8238
▁osent	-8239
▁sitov	-8240
▁udist	-8241
▁välin	-8242
ER	-8243
jy	-8244
wi	-8245
iru	-8246
▁79	-8247
▁TE	-8248
▁Cor	-8249
▁NFL	-8250
▁Res	-8251
▁Vie	-8252
▁WHO	-8253
▁pai	-8254
▁roi	-8255
▁rou	-8256
▁vok	-8257
▁ynä	-8258
▁Laur	-8259
▁Miha	-8260
▁Sean	-8261
▁ador	-8262
▁alie	-8263
▁elei	-8264
▁iipo	-8265
▁itin	-8266
▁lind	-8267
▁mart	-8268
▁ojaa	-8269
▁sijo	-8270
▁site	-8271
▁skuu	-8272
▁tsin	-8273
▁urhi	-8274
▁vaim	-8275
▁aisio	-8276
▁amina	-8277
▁aster	-8278
▁esala	-8279
▁imago	-8280
▁imber	-8281
▁kumpi	-8282
▁laino	-8283
▁lasit	-8284
▁majur	-8285
▁osmet	-8286
▁reppu	-8287
▁seita	-8288
▁tahti	-8289
▁tempo	-8290
▁ärski	-8291
rt	-8292
unt	-8293
▁92	-8294
▁Er	-8295
▁Ly	-8296
▁Vo	-8297
▁1-2	-8298
▁17,	-8299
▁Amb	-8300
▁Gib	-8301
▁Hil	-8302
▁Ral	-8303
▁far	-8304
▁jev	-8305
▁maz	-8306
▁mei	-8307
▁pie	-8308
▁rpo	-8309
▁sot	-8310
▁Auer	-8311
▁Sana	-8312
▁edio	-8313
▁ersu	-8314
▁hiff	-8315
▁Monte	-8316
▁laise	-8317
▁mouth	-8318
▁oksen	-8319
▁sujuu	-8320
▁teell	-8321
cke	-8322
gen	-8323
ple	-8324
▁3-4	-8325
▁Etu	-8326
▁dek	-8327
▁lup	-8328
▁lvi	-8329
▁okr	-8330
▁MacK	-8331
▁ahar	-8332
▁dire	-8333
▁ence	-8334
▁ikaa	-8335
▁ilpp	-8336
▁laam	-8337
▁lusi	-8338
▁olum	-8339
▁orsb	-8340
▁rell	-8341
▁vase	-8342
▁viru	-8343
▁Ruand	-8344
▁Virra	-8345
▁ennet	-8346
▁harks	-8347
▁ittei	-8348
▁lasin	-8349
▁leivo	-8350
▁rinna	-8351
▁saati	-8352
▁tiput	-8353
▁vikaa	-8354
bu	-8355
eld	-8356
org	-8357
rag	-8358
ung	-8359
vas	-8360
▁RB	-8361
ilai	-8362
▁18,	-8363
▁Cin	-8364
▁Cry	-8365
▁Lar	-8366
▁Von	-8367
▁gam	-8368
▁slo	-8369
▁Wimb	-8370
▁akis	-8371
▁desi	-8372
▁iant	-8373
▁kand	-8374
▁kunt	-8375
▁medi	-8376
▁nnek	-8377
▁ohto	-8378
▁saha	-8379
▁teta	-8380
▁uman	-8381
▁önki	-8382
▁Sarah	-8383
▁Wille	-8384
▁alama	-8385
▁iosta	-8386
▁irror	-8387
▁iunau	-8388
▁kuuro	-8389
▁naula	-8390
▁ngelm	-8391
▁pudot	-8392
▁sovel	-8393
▁stava	-8394
▁tauko	-8395
▁äytän	-8396
PN	-8397
tar	-8398
▁BY	-8399
▁Je	-8400
▁kd	-8401
▁ms	-8402
▁ux	-8403
▁450	-8404
▁ICC	-8405
▁Van	-8406
▁loo	-8407
▁new	-8408
▁ond	-8409
▁ymä	-8410
▁äck	-8411
▁Brig	-8412
▁aler	-8413
▁amfe	-8414
▁apar	-8415
▁auke	-8416
▁aupp	-8417
▁dahl	-8418
▁diok	-8419
▁eräi	-8420
▁lase	-8421
▁okra	-8422
▁olar	-8423
▁rond	-8424
▁sist	-8425
▁stil	-8426
▁tunt	-8427
▁umni	-8428
▁äyde	-8429
▁öran	-8430
▁Niger	-8431
▁aataa	-8432
▁ajana	-8433
▁ellak	-8434
▁emeri	-8435
▁ester	-8436
▁ikent	-8437
▁ikoll	-8438
▁intsa	-8439
▁opist	-8440
▁stock	-8441
▁tapaa	-8442
▁tukki	-8443
▁utkim	-8444
▁vaiku	-8445
fs	-8446
tz	-8447
bes	-8448
inb	-8449
▁TP	-8450
▁TS	-8451
▁Yu	-8452
▁sb	-8453
▁Hai	-8454
▁Jon	-8455
▁Kom	-8456
▁Lak	-8457
▁aen	-8458
▁edi	-8459
▁emu	-8460
▁jus	-8461
▁med	-8462
▁noa	-8463
▁rey	-8464
▁ryp	-8465
▁öid	-8466
▁Cole	-8467
▁aidz	-8468
▁aint	-8469
▁enis	-8470
▁iand	-8471
▁iopi	-8472
▁iota	-8473
▁keis	-8474
▁lopp	-8475
▁nsid	-8476
▁ntil	-8477
▁ohte	-8478
▁oren	-8479
▁oril	-8480
▁rgia	-8481
▁sikk	-8482
▁teel	-8483
▁ukki	-8484
▁ulun	-8485
▁aasal	-8486
▁agner	-8487
▁asara	-8488
▁eitse	-8489
▁ineet	-8490
▁istin	-8491
▁kerma	-8492
▁kohdi	-8493
▁liika	-8494
▁naure	-8495
▁ntero	-8496
▁oksis	-8497
▁rappu	-8498
▁rilai	-8499
▁tuoma	-8500
▁uulan	-8501
gb	-8502
rm	-8503
▁с	-8504
▁Ah	-8505
▁Pu	-8506
▁tš	-8507
▁ze	-8508
▁19,	-8509
▁Han	-8510
▁Ida	-8511
▁Lai	-8512
▁Pat	-8513
▁Tre	-8514
▁bra	-8515
▁byr	-8516
▁eff	-8517
▁lfy	-8518
▁lmi	-8519
▁äji	-8520
▁ahka	-8521
▁akob	-8522
▁ange	-8523
▁erby	-8524
▁ipar	-8525
▁itma	-8526
▁iton	-8527
▁lako	-8528
▁muot	-8529
▁oker	-8530
▁onis	-8531
▁otsa	-8532
▁oyal	-8533
▁raus	-8534
▁repi	-8535
▁rett	-8536
▁rigo	-8537
▁roth	-8538
▁täyd	-8539
▁örke	-8540
▁assit	-8541
▁atter	-8542
▁enior	-8543
▁ioide	-8544
▁jumbo	-8545
▁kkoon	-8546
▁kummu	-8547
▁mökki	-8548
▁ornet	-8549
▁soitt	-8550
▁ummas	-8551
▁ummer	-8552
▁vihki	-8553
▁äläis	-8554
wk	-8555
zb	-8556
▁в	-8557
geo	-8558
hah	-8559
▁84	-8560
▁Ee	-8561
▁5,5	-8562
▁AKT	-8563
▁ATP	-8564
▁IIH	-8565
▁Klo	-8566
▁Lei	-8567
▁Mit	-8568
▁Ulf	-8569
▁bel	-8570
▁ict	-8571
▁lea	-8572
▁ogg	-8573
▁säl	-8574
▁öys	-8575
▁Hoff	-8576
▁Rick	-8577
▁aapo	-8578
▁aber	-8579
▁ehmu	-8580
▁igan	-8581
▁ipal	-8582
▁itsa	-8583
▁jelm	-8584
▁kane	-8585
▁kong	-8586
▁lini	-8587
▁lott	-8588
▁ntym	-8589
▁okon	-8590
▁oles	-8591
▁rink	-8592
▁tiön	-8593
▁urvo	-8594
▁vihi	-8595
▁Miisa	-8596
▁ackal	-8597
▁ainel	-8598
▁innas	-8599
▁innon	-8600
▁kaato	-8601
▁koura	-8602
▁kumpu	-8603
▁sakon	-8604
▁salam	-8605
▁skent	-8606
▁talte	-8607
▁önkij	-8608
AS	-8609
ny	-8610
ble	-8611
nea	-8612
▁BC	-8613
▁Io	-8614
▁iq	-8615
▁42,	-8616
▁BYD	-8617
▁Bay	-8618
▁EKP	-8619
▁Iis	-8620
▁SYÖ	-8621
▁agr	-8622
▁hes	-8623
▁hkö	-8624
▁oun	-8625
▁sät	-8626
▁ual	-8627
▁ESPN	-8628
▁Kara	-8629
▁akin	-8630
▁eesu	-8631
▁elip	-8632
▁elon	-8633
▁iiku	-8634
▁layo	-8635
▁likk	-8636
▁olia	-8637
▁onnu	-8638
▁oppo	-8639
▁paja	-8640
▁rima	-8641
▁saac	-8642
▁saad	-8643
▁Sukar	-8644
▁aivas	-8645
▁amall	-8646
▁aneen	-8647
▁inner	-8648
▁lauku	-8649
▁stelu	-8650
▁ttien	-8651
▁tämää	-8652
▁vihel	-8653
▁ydney	-8654
sy	-8655
diz	-8656
▁Ap	-8657
▁Fe	-8658
▁HT	-8659
▁Kä	-8660
▁RT	-8661
▁ax	-8662
▁Oul	-8663
▁dos	-8664
▁eed	-8665
▁ndy	-8666
▁uil	-8667
▁uim	-8668
▁Gold	-8669
▁Grah	-8670
▁IIHF	-8671
▁Mosc	-8672
▁aamo	-8673
▁aisa	-8674
▁dorf	-8675
▁enge	-8676
▁etur	-8677
▁geop	-8678
▁iner	-8679
▁irhe	-8680
▁kosi	-8681
▁lask	-8682
▁llek	-8683
▁loog	-8684
▁loyd	-8685
▁okki	-8686
▁olva	-8687
▁piho	-8688
▁rost	-8689
▁ueen	-8690
▁uisi	-8691
▁äjät	-8692
▁ärpi	-8693
▁Match	-8694
▁Nobel	-8695
▁Teppo	-8696
▁antio	-8697
▁ikkel	-8698
▁ilkki	-8699
▁isäll	-8700
▁kurku	-8701
▁lakki	-8702
▁lievi	-8703
▁lpine	-8704
▁nessä	-8705
▁niska	-8706
▁noita	-8707
▁okuva	-8708
▁osien	-8709
▁otter	-8710
▁rosta	-8711
▁umari	-8712
▁ummit	-8713
éb	-8714
ens	-8715
kim	-8716
pit	-8717
▁AR	-8718
▁BB	-8719
▁Wo	-8720
▁Ya	-8721
▁2-0	-8722
▁39,	-8723
▁AOP	-8724
▁Kaa	-8725
▁Nat	-8726
▁Sav	-8727
▁Tol	-8728
▁eys	-8729
▁ihd	-8730
▁jel	-8731
▁rag	-8732
▁seu	-8733
▁sup	-8734
▁söi	-8735
▁Herb	-8736
▁aitl	-8737
▁arik	-8738
▁ehjä	-8739
▁ehno	-8740
▁iida	-8741
▁isso	-8742
▁sime	-8743
▁telt	-8744
▁uthi	-8745
▁vihj	-8746
▁ärin	-8747
▁Kontu	-8748
▁Pouta	-8749
▁Ruuna	-8750
▁Tuula	-8751
▁aalar	-8752
▁ensor	-8753
▁iikar	-8754
▁kalle	-8755
▁lempe	-8756
▁orbes	-8757
▁sataa	-8758
▁tihku	-8759
▁tistä	-8760
▁unter	-8761
▁urbul	-8762
▁urmer	-8763
▁uutaa	-8764
Tu	-8765
yn	-8766
die	-8767
lak	-8768
rey	-8769
▁EL	-8770
▁UP	-8771
▁wo	-8772
▁ün	-8773
hani	-8774
▁45,	-8775
▁Abu	-8776
▁Gor	-8777
▁Hei	-8778
▁ban	-8779
▁kyp	-8780
▁mmu	-8781
▁äva	-8782
▁Birg	-8783
▁Gola	-8784
▁Mali	-8785
▁Rolf	-8786
▁arsa	-8787
▁avel	-8788
▁eini	-8789
▁eito	-8790
▁eman	-8791
▁erho	-8792
▁erso	-8793
▁ezir	-8794
▁hdot	-8795
▁ihlo	-8796
▁ince	-8797
▁kouk	-8798
▁kran	-8799
▁lata	-8800
▁läin	-8801
▁mpin	-8802
▁olop	-8803
▁rdog	-8804
▁redr	-8805
▁risb	-8806
▁stie	-8807
▁tapo	-8808
▁äksy	-8809
▁Grahn	-8810
▁Maple	-8811
▁aaduk	-8812
▁istos	-8813
▁kauno	-8814
▁kuppi	-8815
▁malle	-8816
▁märkä	-8817
▁ouise	-8818
▁solmu	-8819
▁untaa	-8820
▁äneet	-8821
GA	-8822
PK	-8823
ast	-8824
eat	-8825
hio	-8826
▁1)	-8827
▁2)	-8828
▁97	-8829
▁OK	-8830
▁PV	-8831
▁lv	-8832
▁38,	-8833
▁Bal	-8834
▁Bur	-8835
▁Fit	-8836
▁ISW	-8837
▁Nig	-8838
▁Séb	-8839
▁hev	-8840
▁jol	-8841
▁lke	-8842
▁lmo	-8843
▁lyö	-8844
▁rni	-8845
▁säk	-8846
▁tät	-8847
▁Wick	-8848
▁adal	-8849
▁esil	-8850
▁hort	-8851
▁ioni	-8852
▁juna	-8853
▁käyn	-8854
▁leip	-8855
▁lint	-8856
▁naja	-8857
▁nell	-8858
▁oost	-8859
▁race	-8860
▁tipa	-8861
▁tyvä	-8862
▁Clark	-8863
▁Korve	-8864
▁Ronja	-8865
▁Terho	-8866
▁aarin	-8867
▁akkai	-8868
▁amist	-8869
▁ankal	-8870
▁athan	-8871
▁hampu	-8872
▁intää	-8873
▁ippil	-8874
▁leuka	-8875
▁lämän	-8876
▁nukut	-8877
▁ollin	-8878
▁style	-8879
▁uikko	-8880
▁ukkar	-8881
▁uosma	-8882
▁äytte	-8883
ng	-8884
tš	-8885
wl	-8886
él	-8887
ray	-8888
▁JS	-8889
▁LS	-8890
▁VR	-8891
▁rp	-8892
ukki	-8893
▁DNA	-8894
▁Iit	-8895
▁KKV	-8896
▁Maz	-8897
▁Sil	-8898
▁gra	-8899
▁hii	-8900
▁idl	-8901
▁Airi	-8902
▁Fing	-8903
▁Lamb	-8904
▁Mala	-8905
▁Mars	-8906
▁dist	-8907
▁eide	-8908
▁graf	-8909
▁haja	-8910
▁iehu	-8911
▁imar	-8912
▁inke	-8913
▁itch	-8914
▁kila	-8915
▁lkaa	-8916
▁nava	-8917
▁pace	-8918
▁pest	-8919
▁ring	-8920
▁rodu	-8921
▁tial	-8922
▁ukaš	-8923
▁utoa	-8924
▁utsa	-8925
▁Cardi	-8926
▁Verho	-8927
▁YouTu	-8928
▁ahtui	-8929
▁allor	-8930
▁atkaa	-8931
▁eippa	-8932
▁eisar	-8933
▁eugeo	-8934
▁iastr	-8935
▁kanno	-8936
▁kokse	-8937
▁mazon	-8938
▁nukke	-8939
▁rando	-8940
▁ulais	-8941
▁ärtha	-8942
Se	-8943
ds	-8944
eed	-8945
mpt	-8946
sol	-8947
▁7-	-8948
▁GB	-8949
▁It	-8950
▁JP	-8951
▁Mr	-8952
▁gl	-8953
▁1,3	-8954
▁40,	-8955
▁Aff	-8956
▁Ana	-8957
▁Dar	-8958
▁Edw	-8959
▁Ram	-8960
▁STM	-8961
▁Ten	-8962
▁koj	-8963
▁npa	-8964
▁näl	-8965
▁äkö	-8966
▁Alzh	-8967
▁Bond	-8968
▁Hild	-8969
▁Robb	-8970
▁Stew	-8971
▁adon	-8972
▁amid	-8973
▁eliv	-8974
▁hapo	-8975
▁iano	-8976
▁iddy	-8977
▁imin	-8978
▁iola	-8979
▁ione	-8980
▁ipsi	-8981
▁jako	-8982
▁joll	-8983
▁kool	-8984
▁möki	-8985
▁nist	-8986
▁rapu	-8987
▁reda	-8988
▁rini	-8989
▁tako	-8990
▁torp	-8991
▁ttor	-8992
▁ursu	-8993
▁uupa	-8994
▁Marco	-8995
▁Nissa	-8996
▁Pukki	-8997
▁alker	-8998
▁allei	-8999
▁autio	-9000
▁eiton	-9001
▁lasma	-9002
▁listä	-9003
▁opher	-9004
▁taiva	-9005
▁tolku	-9006
▁ulham	-9007
▁uusul	-9008
▁yynär	-9009
▁öysti	-9010
IN	-9011
hma	-9012
kos	-9013
▁RS	-9014
▁UK	-9015
▁rv	-9016
▁år	-9017
▁37,	-9018
▁dal	-9019
▁inj	-9020
▁sop	-9021
▁vik	-9022
▁Bird	-9023
▁Caru	-9024
▁Mere	-9025
▁agen	-9026
▁asvu	-9027
▁atel	-9028
▁atoi	-9029
▁auaa	-9030
▁epal	-9031
▁etoa	-9032
▁igel	-9033
▁ikis	-9034
▁irus	-9035
▁isco	-9036
▁kaar	-9037
▁kult	-9038
▁lach	-9039
▁lang	-9040
▁laud	-9041
▁nuri	-9042
▁otoi	-9043
▁ouri	-9044
▁ried	-9045
▁uhel	-9046
▁utte	-9047
▁yper	-9048
▁äysi	-9049
▁Nikki	-9050
▁Tempt	-9051
▁agnee	-9052
▁annik	-9053
▁apnea	-9054
▁duuma	-9055
▁elija	-9056
▁elmar	-9057
▁heimo	-9058
▁hinku	-9059
▁navig	-9060
▁nteki	-9061
▁osley	-9062
▁ranno	-9063
▁ryntä	-9064
▁taava	-9065
▁tojen	-9066
▁ttama	-9067
▁ttine	-9068
IS	-9069
ab	-9070
nig	-9071
one	-9072
▁NO	-9073
▁1,4	-9074
▁1,6	-9075
▁50,	-9076
▁Cli	-9077
▁Mir	-9078
▁Vah	-9079
▁edä	-9080
▁eip	-9081
▁hmi	-9082
▁hok	-9083
▁lka	-9084
▁mio	-9085
▁sir	-9086
▁sos	-9087
▁tru	-9088
▁uer	-9089
▁yna	-9090
▁Doug	-9091
▁Fifa	-9092
▁Land	-9093
▁Macc	-9094
▁ajor	-9095
▁akoi	-9096
▁arri	-9097
▁evon	-9098
▁ilut	-9099
▁imal	-9100
▁iman	-9101
▁iper	-9102
▁kkoa	-9103
▁kore	-9104
▁lana	-9105
▁llin	-9106
▁lobe	-9107
▁oday	-9108
▁otin	-9109
▁raas	-9110
▁seva	-9111
▁spel	-9112
▁uhli	-9113
▁ulho	-9114
▁uoni	-9115
▁Kummo	-9116
▁Mariu	-9117
▁ashar	-9118
▁astis	-9119
▁hermo	-9120
▁ildiz	-9121
▁lauta	-9122
▁leipo	-9123
▁lonso	-9124
▁lähei	-9125
▁ohtee	-9126
▁orsby	-9127
▁ripus	-9128
▁rmand	-9129
▁tajak	-9130
▁ymise	-9131
AC	-9132
ía	-9133
etz	-9134
ile	-9135
kkä	-9136
lee	-9137
uma	-9138
▁Oo	-9139
▁WW	-9140
▁rü	-9141
rich	-9142
▁4,5	-9143
▁Dub	-9144
▁ECR	-9145
▁Lor	-9146
▁Nea	-9147
▁Spe	-9148
▁Vis	-9149
▁Vit	-9150
▁ear	-9151
▁icz	-9152
▁ijä	-9153
▁ljo	-9154
▁npi	-9155
▁nst	-9156
▁sär	-9157
▁tup	-9158
▁vid	-9159
▁yiv	-9160
▁Abba	-9161
▁Ralf	-9162
▁Rönn	-9163
▁Skin	-9164
▁agma	-9165
▁ahan	-9166
▁ajel	-9167
▁amat	-9168
▁argu	-9169
▁asvo	-9170
▁erie	-9171
▁esal	-9172
▁hein	-9173
▁htuu	-9174
▁iego	-9175
▁ilve	-9176
▁imak	-9177
▁isel	-9178
▁ndia	-9179
▁oihu	-9180
▁omee	-9181
▁ongo	-9182
▁osas	-9183
▁otet	-9184
▁ouhe	-9185
▁pujo	-9186
▁rior	-9187
▁slon	-9188
▁taak	-9189
▁ukin	-9190
▁ulit	-9191
▁utum	-9192
▁ärkö	-9193
▁Maiju	-9194
▁Ritva	-9195
▁anant	-9196
▁asked	-9197
▁astia	-9198
▁emmet	-9199
▁ilton	-9200
▁istoi	-9201
▁joona	-9202
▁leipä	-9203
▁liina	-9204
▁lisia	-9205
▁lkeen	-9206
▁napsa	-9207
▁otsin	-9208
▁rnold	-9209
▁stedt	-9210
▁viher	-9211
▁ürich	-9212
EN	-9213
HC	-9214
OS	-9215
kit	-9216
oth	-9217
uar	-9218
▁vs	-9219
▁220	-9220
▁Ota	-9221
▁PGA	-9222
▁Tel	-9223
▁WSJ	-9224
▁aue	-9225
▁fil	-9226
▁hde	-9227
▁här	-9228
▁owe	-9229
▁owl	-9230
▁rog	-9231
▁tep	-9232
▁Dagb	-9233
▁Mire	-9234
▁aant	-9235
▁anit	-9236
▁apun	-9237
▁arge	-9238
▁ehke	-9239
▁esso	-9240
▁graa	-9241
▁jätt	-9242
▁loin	-9243
▁nuut	-9244
▁onil	-9245
▁oosa	-9246
▁ruce	-9247
▁tate	-9248
▁tomi	-9249
▁uhmo	-9250
▁utch	-9251
▁vail	-9252
▁ävää	-9253
▁öyty	-9254
▁Gibso	-9255
▁Kurki	-9256
▁Miina	-9257
▁aasut	-9258
▁andel	-9259
▁antib	-9260
▁eneve	-9261
▁erner	-9262
▁esten	-9263
▁eutan	-9264
▁ianca	-9265
▁itler	-9266
▁kuvas	-9267
▁misiä	-9268
▁nappa	-9269
▁ntava	-9270
▁selos	-9271
▁talve	-9272
▁tiika	-9273
▁ullon	-9274
▁uulin	-9275
▁vaini	-9276
US	-9277
py	-9278
mer	-9279
urs	-9280
usu	-9281
war	-9282
▁AT	-9283
▁Ow	-9284
▁1,8	-9285
▁16,	-9286
▁2-1	-9287
▁3-0	-9288
▁DCA	-9289
▁Dia	-9290
▁Eco	-9291
▁III	-9292
▁Kop	-9293
▁Mav	-9294
▁SKA	-9295
▁Sur	-9296
▁Uts	-9297
▁acq	-9298
▁epi	-9299
▁etz	-9300
▁iff	-9301
▁isv	-9302
▁lil	-9303
▁ytä	-9304
▁yyl	-9305
▁Glas	-9306
▁Good	-9307
▁Jana	-9308
▁Line	-9309
▁Nils	-9310
▁Oppi	-9311
▁Seur	-9312
▁Wing	-9313
▁aase	-9314
▁absu	-9315
▁alei	-9316
▁auks	-9317
▁deit	-9318
▁ehmo	-9319
▁elvo	-9320
▁evge	-9321
▁hart	-9322
▁layb	-9323
▁leff	-9324
▁lvar	-9325
▁moot	-9326
▁sato	-9327
▁selk	-9328
▁sien	-9329
▁suta	-9330
▁tova	-9331
▁urme	-9332
▁ynee	-9333
▁Kumpu	-9334
▁Niilo	-9335
▁aalei	-9336
▁abine	-9337
▁ammel	-9338
▁amppa	-9339
▁askin	-9340
▁enkin	-9341
▁essie	-9342
▁ieppa	-9343
▁iinty	-9344
▁intaa	-9345
▁kanne	-9346
▁karta	-9347
▁lahjo	-9348
▁rille	-9349
▁rince	-9350
▁ripul	-9351
▁ruins	-9352
▁stell	-9353
▁ukkul	-9354
▁umppu	-9355
▁viikk	-9356
▁vilah	-9357
PA	-9358
vy	-9359
zi	-9360
▁#	-9361
ban	-9362
mir	-9363
oms	-9364
ric	-9365
sio	-9366
▁3)	-9367
▁98	-9368
▁Ik	-9369
▁Kö	-9370
▁VI	-9371
▁Öl	-9372
▁Alf	-9373
▁Bob	-9374
▁Gon	-9375
▁ICJ	-9376
▁Ket	-9377
▁Kot	-9378
▁Sha	-9379
▁VPS	-9380
▁Vär	-9381
▁chi	-9382
▁com	-9383
▁huk	-9384
▁Auri	-9385
▁Bobr	-9386
▁Knig	-9387
▁Norf	-9388
▁Varo	-9389
▁aime	-9390
▁ales	-9391
▁amaa	-9392
▁amil	-9393
▁astr	-9394
▁atii	-9395
▁atim	-9396
▁demo	-9397
▁eeti	-9398
▁haro	-9399
▁isem	-9400
▁itul	-9401
▁iuha	-9402
▁ivit	-9403
▁kaku	-9404
▁lavi	-9405
▁leja	-9406
▁maut	-9407
▁melu	-9408
▁oime	-9409
▁ojel	-9410
▁onar	-9411
▁onse	-9412
▁opin	-9413
▁post	-9414
▁rtti	-9415
▁sova	-9416
▁stön	-9417
▁tank	-9418
▁taut	-9419
▁ujan	-9420
▁uoll	-9421
▁uruh	-9422
▁Armia	-9423
▁Kissa	-9424
▁Tahko	-9425
▁Tarmo	-9426
▁akkor	-9427
▁alehd	-9428
▁asino	-9429
▁dataa	-9430
▁essaa	-9431
▁hinna	-9432
▁iisau	-9433
▁losta	-9434
▁mekan	-9435
▁nippu	-9436
▁olppi	-9437
▁rankf	-9438
▁rokse	-9439
▁simul	-9440
▁surke	-9441
▁taika	-9442
▁tumin	-9443
▁uudel	-9444
▁ünche	-9445
LE	-9446
ct	-9447
ano	-9448
era	-9449
ida	-9450
mas	-9451
rig	-9452
sar	-9453
uay	-9454
ush	-9455
val	-9456
▁ET	-9457
▁dt	-9458
▁hm	-9459
▁hö	-9460
▁1-3	-9461
▁112	-9462
▁Cas	-9463
▁EIF	-9464
▁Hir	-9465
▁Jim	-9466
▁Mig	-9467
▁Xin	-9468
▁die	-9469
▁epo	-9470
▁gor	-9471
▁klu	-9472
▁kyä	-9473
▁lui	-9474
▁nda	-9475
▁rix	-9476
▁rkl	-9477
▁ukk	-9478
▁urp	-9479
▁ydä	-9480
▁äpi	-9481
▁ömä	-9482
▁Cola	-9483
▁East	-9484
▁Leaf	-9485
▁Resp	-9486
▁Wint	-9487
▁acob	-9488
▁ajas	-9489
▁akat	-9490
▁alhe	-9491
▁kust	-9492
▁lick	-9493
▁lipu	-9494
▁mane	-9495
▁nsio	-9496
▁oden	-9497
▁olau	-9498
▁ross	-9499
▁räik	-9500
▁sing	-9501
▁ufva	-9502
▁usic	-9503
▁uuvu	-9504
▁ytös	-9505
▁ämär	-9506
▁öyhö	-9507
▁Roste	-9508
▁alssi	-9509
▁arcia	-9510
▁atsas	-9511
▁dellä	-9512
▁evans	-9513
▁ikkoj	-9514
▁illeh	-9515
▁khani	-9516
▁kuski	-9517
▁misee	-9518
▁olour	-9519
▁onnah	-9520
▁reikä	-9521
▁sanka	-9522
▁sepel	-9523
▁tehtä	-9524
▁yönte	-9525
au	-9526
fi	-9527
ihk	-9528
jur	-9529
kei	-9530
kur	-9531
mat	-9532
▁AU	-9533
▁EX	-9534
▁GR	-9535
▁LU	-9536
▁Nm	-9537
▁Oi	-9538
▁0,5	-9539
▁270	-9540
▁4-5	-9541
▁41,	-9542
▁Dha	-9543
▁Eur	-9544
▁Wis	-9545
▁dun	-9546
▁häl	-9547
▁nop	-9548
▁rsi	-9549
▁try	-9550
▁uns	-9551
▁Hang	-9552
▁Kaja	-9553
▁Novo	-9554
▁Osmo	-9555
▁aavu	-9556
▁aila	-9557
▁ango	-9558
▁ayer	-9559
▁eice	-9560
▁iivu	-9561
▁inka	-9562
▁iväl	-9563
▁kajo	-9564
▁kets	-9565
▁miet	-9566
▁neul	-9567
▁nuot	-9568
▁olid	-9569
▁ossu	-9570
▁piru	-9571
▁rajo	-9572
▁raud	-9573
▁rent	-9574
▁rras	-9575
▁staj	-9576
▁trat	-9577
▁uhte	-9578
▁uluv	-9579
▁utsu	-9580
▁Cinia	-9581
▁Gordo	-9582
▁aasua	-9583
▁ainer	-9584
▁ajouk	-9585
▁aline	-9586
▁ammad	-9587
▁aniem	-9588
▁aston	-9589
▁autaa	-9590
▁kkäys	-9591
▁llisi	-9592
▁luisu	-9593
▁mikro	-9594
▁oikka	-9595
▁puuro	-9596
▁reunu	-9597
▁rilla	-9598
▁stall	-9599
▁stanb	-9600
▁tilas	-9601
▁tullu	-9602
▁ucker	-9603
▁ällee	-9604
AR	-9605
dor	-9606
gia	-9607
kan	-9608
roe	-9609
stö	-9610
tia	-9611
uez	-9612
▁1:	-9613
▁HD	-9614
▁HO	-9615
▁Ox	-9616
▁RE	-9617
▁Yi	-9618
▁aq	-9619
▁fu	-9620
▁1,1	-9621
▁550	-9622
▁750	-9623
▁Bra	-9624
▁Fab	-9625
▁Ian	-9626
▁eus	-9627
▁evp	-9628
▁hip	-9629
▁ild	-9630
▁ipa	-9631
▁kyn	-9632
▁lig	-9633
▁ody	-9634
▁orv	-9635
▁tiu	-9636
▁wer	-9637
▁Aron	-9638
▁Gonz	-9639
▁Iina	-9640
▁Kick	-9641
▁Kuri	-9642
▁Lago	-9643
▁Ossi	-9644
▁Saha	-9645
▁Weng	-9646
▁alah	-9647
▁alpa	-9648
▁dyna	-9649
▁entf	-9650
▁fest	-9651
▁ilpo	-9652
▁jono	-9653
▁kärk	-9654
▁leck	-9655
▁lija	-9656
▁noit	-9657
▁omeo	-9658
▁seli	-9659
▁tutt	-9660
▁uhma	-9661
▁urah	-9662
▁vint	-9663
▁öcke	-9664
▁Adria	-9665
▁Kauni	-9666
▁Kupar	-9667
▁Kurpi	-9668
▁Lempi	-9669
▁Viroo	-9670
▁aaruk	-9671
▁alain	-9672
▁ansio	-9673
▁arlon	-9674
▁assin	-9675
▁atsin	-9676
▁ausah	-9677
▁eilah	-9678
▁ellen	-9679
▁hiffr	-9680
▁koivu	-9681
▁kuorm	-9682
▁mages	-9683
▁oakim	-9684
▁onark	-9685
▁rigoz	-9686
▁ulvia	-9687
▁vaska	-9688
▁ygård	-9689
▁yrstö	-9690
hm	-9691
rå	-9692
ør	-9693
aar	-9694
med	-9695
▁IM	-9696
▁NC	-9697
▁bl	-9698
▁rm	-9699
▁uš	-9700
▁210	-9701
▁3-1	-9702
▁Let	-9703
▁OLS	-9704
▁Rey	-9705
▁Sol	-9706
▁THL	-9707
▁eep	-9708
▁loa	-9709
▁nde	-9710
▁oje	-9711
▁own	-9712
▁row	-9713
▁ryk	-9714
▁sie	-9715
▁vau	-9716
▁Cost	-9717
▁Gard	-9718
▁Gare	-9719
▁Hawk	-9720
▁Loma	-9721
▁Mach	-9722
▁Paja	-9723
▁STTK	-9724
▁Syke	-9725
▁Visa	-9726
▁ajak	-9727
▁amsa	-9728
▁deni	-9729
▁edal	-9730
▁ikei	-9731
▁juni	-9732
▁kast	-9733
▁kius	-9734
▁klub	-9735
▁komp	-9736
▁laiv	-9737
▁lank	-9738
▁ohtu	-9739
▁opra	-9740
▁ostu	-9741
▁ppil	-9742
▁rail	-9743
▁reau	-9744
▁ritz	-9745
▁runs	-9746
▁tyrm	-9747
▁uoja	-9748
▁very	-9749
▁viik	-9750
▁Claud	-9751
▁Grönh	-9752
▁Kaski	-9753
▁Kokki	-9754
▁Ranna	-9755
▁Steve	-9756
▁aavol	-9757
▁ailah	-9758
▁aiste	-9759
▁amero	-9760
▁amppu	-9761
▁errok	-9762
▁grand	-9763
▁herne	-9764
▁hinno	-9765
▁immel	-9766
▁kilva	-9767
▁klubi	-9768
▁kuitu	-9769
▁liffe	-9770
▁maall	-9771
▁nesty	-9772
▁nuore	-9773
▁oreno	-9774
▁oteta	-9775
▁otors	-9776
▁ridge	-9777
▁rosby	-9778
▁sanel	-9779
▁suihk	-9780
▁ttiva	-9781
▁uutar	-9782
▁uzeni	-9783
AB	-9784
EC	-9785
YS	-9786
ón	-9787
aag	-9788
aru	-9789
gor	-9790
kat	-9791
▁(3	-9792
▁(4	-9793
▁94	-9794
▁Ob	-9795
▁SN	-9796
▁gu	-9797
▁115	-9798
▁46,	-9799
▁54,	-9800
▁Ann	-9801
▁Far	-9802
▁Geo	-9803
▁Hol	-9804
▁How	-9805
▁Men	-9806
▁Sar	-9807
▁Tra	-9808
▁Yhä	-9809
▁liä	-9810
▁now	-9811
▁oph	-9812
▁sar	-9813
▁sjä	-9814
▁täl	-9815
▁öti	-9816
▁Baby	-9817
▁Dire	-9818
▁Essa	-9819
▁Hand	-9820
▁Morg	-9821
▁Reid	-9822
▁Rene	-9823
▁RoKi	-9824
▁Ruby	-9825
▁Sala	-9826
▁Weck	-9827
▁aalt	-9828
▁alil	-9829
▁anar	-9830
▁aoke	-9831
▁ares	-9832
▁atuk	-9833
▁auer	-9834
▁eval	-9835
▁hdis	-9836
▁hdok	-9837
▁hild	-9838
▁imrå	-9839
▁kama	-9840
▁kapp	-9841
▁kert	-9842
▁nnäk	-9843
▁orik	-9844
▁ouna	-9845
▁ront	-9846
▁ruck	-9847
▁sive	-9848
▁void	-9849
▁yhdi	-9850
▁Adrie	-9851
▁Pippa	-9852
▁Rönni	-9853
▁ailee	-9854
▁anaka	-9855
▁arner	-9856
▁eleva	-9857
▁eller	-9858
▁iiber	-9859
▁korve	-9860
▁kuula	-9861
▁latti	-9862
▁liepe	-9863
▁llais	-9864
▁lusik	-9865
▁napsi	-9866
▁nusta	-9867
▁okero	-9868
▁onroe	-9869
▁onter	-9870
▁selli	-9871
▁siuna	-9872
▁takka	-9873
▁tephe	-9874
▁tiski	-9875
▁uitsu	-9876
▁uokka	-9877
▁uorsa	-9878
▁uskar	-9879
▁utina	-9880
▁vaksi	-9881
▁yller	-9882
fu	-9883
zz	-9884
dah	-9885
dar	-9886
ppy	-9887
▁93	-9888
▁Aw	-9889
▁ER	-9890
▁MG	-9891
▁Sw	-9892
▁yo	-9893
ista	-9894
▁1-0	-9895
▁43,	-9896
▁Bol	-9897
▁Eng	-9898
▁God	-9899
▁McK	-9900
▁Ren	-9901
▁Tör	-9902
▁UPM	-9903
▁Yön	-9904
▁aga	-9905
▁dna	-9906
▁gow	-9907
▁haw	-9908
▁kad	-9909
▁lum	-9910
▁nha	-9911
▁psw	-9912
▁tou	-9913
▁änk	-9914
▁ätö	-9915
▁Birm	-9916
▁Crai	-9917
▁Digi	-9918
▁Font	-9919
▁Gior	-9920
▁Haat	-9921
▁Herm	-9922
▁Hond	-9923
▁Mong	-9924
▁Saks	-9925
▁Uran	-9926
▁Wire	-9927
▁akai	-9928
▁alii	-9929
▁ausa	-9930
▁ebab	-9931
▁eude	-9932
▁hams	-9933
▁itos	-9934
▁itun	-9935
▁ival	-9936
▁kses	-9937
▁lepp	-9938
▁lien	-9939
▁lipa	-9940
▁loks	-9941
▁miva	-9942
▁muna	-9943
▁neid	-9944
▁ntuu	-9945
▁oili	-9946
▁oran	-9947
▁ound	-9948
▁pele	-9949
▁pelk	-9950
▁rall	-9951
▁ream	-9952
▁retz	-9953
▁riin	-9954
▁road	-9955
▁ruth	-9956
▁saal	-9957
▁sulu	-9958
▁taki	-9959
▁touk	-9960
▁tumi	-9961
▁udis	-9962
▁uilu	-9963
▁uluk	-9964
▁urau	-9965
▁urik	-9966
▁urst	-9967
▁uzne	-9968
▁ärnä	-9969
▁årde	-9970
▁Demar	-9971
▁Dubai	-9972
▁Essay	-9973
▁Rasti	-9974
▁agher	-9975
▁annis	-9976
▁arron	-9977
▁attaa	-9978
▁auhio	-9979
▁entia	-9980
▁hinau	-9981
▁inkko	-9982
▁iutta	-9983
▁kalan	-9984
▁luulo	-9985
▁ransa	-9986
▁ravis	-9987
▁sakko	-9988
▁steet	-9989
▁ukala	-9990
▁umpal	-9991
▁uotia	-9992
▁uskur	-9993
▁uudah	-9994
▁ärkky	-9995
EF	-9996
RI	-9997
▁т	-9998
bby	-9999
tum	-10000
▁05	-10001
▁AS	-10002
▁Bi	-10003
▁MA	-10004
▁Oj	-10005
▁UT	-10006
▁UV	-10007
▁Ye	-10008
▁aš	-10009
▁ür	-10010
jurg	-10011
▁10,	-10012
▁2,3	-10013
▁44,	-10014
▁59,	-10015
▁Der	-10016
▁Gir	-10017
▁JSN	-10018
▁PeU	-10019
▁Sul	-10020
▁ago	-10021
▁hje	-10022
▁iab	-10023
▁jou	-10024
▁kön	-10025
▁lij	-10026
▁loj	-10027
▁mog	-10028
▁mom	-10029
▁nif	-10030
▁nip	-10031
▁ppä	-10032
▁rmu	-10033
▁sva	-10034
▁vyy	-10035
▁yvö	-10036
▁Coro	-10037
▁Ever	-10038
▁Glad	-10039
▁Hard	-10040
▁Noah	-10041
▁Wemb	-10042
▁abot	-10043
▁aero	-10044
▁ajau	-10045
▁altt	-10046
▁anas	-10047
▁ancy	-10048
▁dler	-10049
▁elet	-10050
▁elva	-10051
▁fter	-10052
▁halp	-10053
▁hili	-10054
▁icci	-10055
▁imis	-10056
▁isii	-10057
▁itee	-10058
▁joht	-10059
▁keha	-10060
▁lepä	-10061
▁ohon	-10062
▁omai	-10063
▁onee	-10064
▁orti	-10065
▁oust	-10066
▁rikk	-10067
▁sako	-10068
▁sand	-10069
▁tell	-10070
▁vahn	-10071
▁vent	-10072
▁äide	-10073
▁äjän	-10074
▁ärkä	-10075
▁Arena	-10076
▁Beiru	-10077
▁Brian	-10078
▁Djurg	-10079
▁Mervi	-10080
▁aasun	-10081
▁aatel	-10082
▁alnes	-10083
▁alter	-10084
▁arant	-10085
▁erson	-10086
▁everi	-10087
▁himme	-10088
▁iippo	-10089
▁jista	-10090
▁kontr	-10091
▁kumar	-10092
▁kupar	-10093
▁layer	-10094
▁lossa	-10095
▁lubin	-10096
▁nalla	-10097
▁omeno	-10098
▁omppi	-10099
▁pissa	-10100
▁ränti	-10101
▁suaal	-10102
▁tahra	-10103
▁tanko	-10104
▁tulok	-10105
▁tulva	-10106
▁ubaru	-10107
▁uonio	-10108
▁viina	-10109
▁_	-10110
▁к	-10111
ket	-10112
net	-10113
▁Ax	-10114
▁HC	-10115
▁KD	-10116
▁ox	-10117
oker	-10118
äter	-10119
▁1,7	-10120
▁49,	-10121
▁Ast	-10122
▁Dan	-10123
▁Eve	-10124
▁Joo	-10125
▁LUE	-10126
▁Nit	-10127
▁Osi	-10128
▁Pih	-10129
▁Rub	-10130
▁Tat	-10131
▁Wir	-10132
▁eso	-10133
▁hof	-10134
▁nho	-10135
▁nom	-10136
▁tör	-10137
▁uih	-10138
▁Augu	-10139
▁Gear	-10140
▁Rodr	-10141
▁aker	-10142
▁amie	-10143
▁anoo	-10144
▁appo	-10145
▁arro	-10146
▁eevi	-10147
▁eimo	-10148
▁einu	-10149
▁elde	-10150
▁etis	-10151
▁evad	-10152
▁hint	-10153
▁hitt	-10154
▁iist	-10155
▁kolo	-10156
▁lppi	-10157
▁maux	-10158
▁odge	-10159
▁oiko	-10160
▁ooga	-10161
▁oore	-10162
▁orai	-10163
▁over	-10164
▁piro	-10165
▁ppar	-10166
▁rick	-10167
▁suuk	-10168
▁tage	-10169
▁tran	-10170
▁uira	-10171
▁ursi	-10172
▁vust	-10173
▁änee	-10174
▁ärhä	-10175
▁Gaudr	-10176
▁Komul	-10177
▁Kupit	-10178
▁Soker	-10179
▁Säter	-10180
▁Toive	-10181
▁Wisco	-10182
▁ammed	-10183
▁arren	-10184
▁aukon	-10185
▁eijon	-10186
▁ellit	-10187
▁graaf	-10188
▁iinus	-10189
▁iippa	-10190
▁ilpel	-10191
▁innut	-10192
▁itelt	-10193
▁kanka	-10194
▁kiksi	-10195
▁kuuma	-10196
▁leffa	-10197
▁onkar	-10198
▁risto	-10199
▁suure	-10200
▁tossu	-10201
▁uikka	-10202
▁umpul	-10203
▁urphy	-10204
▁viini	-10205
▁önkkö	-10206
+1	-10207
JH	-10208
eep	-10209
eru	-10210
iva	-10211
lev	-10212
nis	-10213
psy	-10214
vah	-10215
yne	-10216
▁4)	-10217
▁By	-10218
▁Gy	-10219
▁IT	-10220
▁iž	-10221
▁lj	-10222
▁mg	-10223
olff	-10224
▁240	-10225
▁Bel	-10226
▁CIA	-10227
▁Cit	-10228
▁IBA	-10229
▁Iin	-10230
▁Oxf	-10231
▁Reb	-10232
▁Sat	-10233
▁Syr	-10234
▁Wel	-10235
▁duo	-10236
▁gar	-10237
▁kro	-10238
▁lym	-10239
▁myt	-10240
▁plo	-10241
▁rka	-10242
▁sig	-10243
▁tat	-10244
▁uid	-10245
▁veh	-10246
▁Anah	-10247
▁Carr	-10248
▁LSJH	-10249
▁Rost	-10250
▁Viho	-10251
▁ahmi	-10252
▁aisp	-10253
▁akub	-10254
▁arib	-10255
▁atut	-10256
▁eleg	-10257
▁empe	-10258
▁ense	-10259
▁enäh	-10260
▁etoj	-10261
▁impa	-10262
▁ksin	-10263
▁lama	-10264
▁leiv	-10265
▁llei	-10266
▁mmil	-10267
▁naud	-10268
▁nihk	-10269
▁noro	-10270
▁ntis	-10271
▁oput	-10272
▁raad	-10273
▁ranz	-10274
▁rich	-10275
▁räss	-10276
▁sivä	-10277
▁stei	-10278
▁stut	-10279
▁tory	-10280
▁tria	-10281
▁tsom	-10282
▁urmi	-10283
▁uron	-10284
▁urpe	-10285
▁urry	-10286
▁uuha	-10287
▁viha	-10288
▁äkel	-10289
▁Craig	-10290
▁Kopra	-10291
▁Mazda	-10292
▁Tauno	-10293
▁Tulva	-10294
▁Waldo	-10295
▁aasti	-10296
▁absol	-10297
▁ainui	-10298
▁amber	-10299
▁asima	-10300
▁askia	-10301
▁astro	-10302
▁eimar	-10303
▁huuta	-10304
▁imien	-10305
▁irsti	-10306
▁ittis	-10307
▁itute	-10308
▁kurss	-10309
▁lains	-10310
▁lampi	-10311
▁lasei	-10312
▁leipi	-10313
▁leivi	-10314
▁lupia	-10315
▁naker	-10316
▁oisen	-10317
▁orter	-10318
▁paito	-10319
▁palau	-10320
▁raatt	-10321
▁rasta	-10322
▁rieha	-10323
▁teise	-10324
▁unnit	-10325
▁urska	-10326
▁ustus	-10327
▁uuhaa	-10328
▁wegia	-10329
MI	-10330
On	-10331
ww	-10332
ür	-10333
▁р	-10334
MAA	-10335
YÖS	-10336
ehr	-10337
hie	-10338
itz	-10339
ken	-10340
ork	-10341
reu	-10342
▁FA	-10343
▁HB	-10344
▁KP	-10345
▁PR	-10346
▁€.	-10347
ller	-10348
▁1,9	-10349
▁12,	-10350
▁13,	-10351
▁Dop	-10352
▁Rad	-10353
▁Rio	-10354
▁Roy	-10355
▁Tää	-10356
▁evt	-10357
▁nke	-10358
▁psi	-10359
▁sua	-10360
▁wat	-10361
▁www	-10362
▁äes	-10363
▁önn	-10364
▁MYÖS	-10365
▁Mona	-10366
▁Nath	-10367
▁Opel	-10368
▁Road	-10369
▁aidž	-10370
▁ajev	-10371
▁anat	-10372
▁andi	-10373
▁elce	-10374
▁endo	-10375
▁epsi	-10376
▁erek	-10377
▁etto	-10378
▁häik	-10379
▁iite	-10380
▁inei	-10381
▁itam	-10382
▁kinn	-10383
▁kino	-10384
▁kofe	-10385
▁kori	-10386
▁liin	-10387
▁naru	-10388
▁onte	-10389
▁rity	-10390
▁rook	-10391
▁tand	-10392
▁tärä	-10393
▁urpa	-10394
▁urre	-10395
▁urro	-10396
▁viis	-10397
▁äkem	-10398
▁ääll	-10399
▁Bella	-10400
▁Cross	-10401
▁Kainu	-10402
▁Narva	-10403
▁OIMAA	-10404
▁River	-10405
▁Siper	-10406
▁aijer	-10407
▁arkku	-10408
▁arvas	-10409
▁assar	-10410
▁attai	-10411
▁divar	-10412
▁duuni	-10413
▁esong	-10414
▁ience	-10415
▁iisto	-10416
▁ilain	-10417
▁ionel	-10418
▁karun	-10419
▁kenut	-10420
▁kkail	-10421
▁kouri	-10422
▁lames	-10423
▁laste	-10424
▁leiki	-10425
▁manni	-10426
▁simpp	-10427
▁sokki	-10428
▁tahko	-10429
▁talut	-10430
▁tempa	-10431
▁toppa	-10432
▁touko	-10433
▁tunno	-10434
▁uotan	-10435
▁ötila	-10436
AN	-10437
gä	-10438
yo	-10439
▁í	-10440
ERS	-10441
inz	-10442
reb	-10443
▁3:	-10444
▁Ci	-10445
▁Hö	-10446
▁NA	-10447
▁ds	-10448
▁ög	-10449
▁2,6	-10450
▁47,	-10451
▁48,	-10452
▁Alé	-10453
▁Bas	-10454
▁Cam	-10455
▁Die	-10456
▁Fem	-10457
▁Hag	-10458
▁Mur	-10459
▁Rob	-10460
▁Shu	-10461
▁WWF	-10462
▁Win	-10463
▁lae	-10464
▁lsa	-10465
▁lyk	-10466
▁mul	-10467
▁mön	-10468
▁nad	-10469
▁nja	-10470
▁och	-10471
▁rib	-10472
▁spa	-10473
▁upi	-10474
▁Bell	-10475
▁Dead	-10476
▁Diag	-10477
▁Food	-10478
▁Kuru	-10479
▁Mick	-10480
▁Noro	-10481
▁Part	-10482
▁Suni	-10483
▁Uske	-10484
▁Walt	-10485
▁aado	-10486
▁alez	-10487
▁allu	-10488
▁aman	-10489
▁aral	-10490
▁aram	-10491
▁asip	-10492
▁cock	-10493
▁eniä	-10494
▁geel	-10495
▁ijaa	-10496
▁impu	-10497
▁irla	-10498
▁irve	-10499
▁itra	-10500
▁kaus	-10501
▁life	-10502
▁lkon	-10503
▁mpie	-10504
▁oher	-10505
▁onaa	-10506
▁onan	-10507
▁oped	-10508
▁oroz	-10509
▁otes	-10510
▁ouch	-10511
▁rady	-10512
▁ramm	-10513
▁rang	-10514
▁riks	-10515
▁solu	-10516
▁ssan	-10517
▁taid	-10518
▁ther	-10519
▁ttik	-10520
▁tull	-10521
▁tupa	-10522
▁turb	-10523
▁urtb	-10524
▁uume	-10525
▁vino	-10526
▁Aarni	-10527
▁Award	-10528
▁Carlo	-10529
▁Eemil	-10530
▁Fueng	-10531
▁aarte	-10532
▁ahoit	-10533
▁ainam	-10534
▁amsay	-10535
▁assis	-10536
▁datan	-10537
▁eipas	-10538
▁entor	-10539
▁eymar	-10540
▁firmo	-10541
▁hirly	-10542
▁hoeni	-10543
▁ieber	-10544
▁iemur	-10545
▁iepin	-10546
▁iitep	-10547
▁ikkia	-10548
▁ikrof	-10549
▁imist	-10550
▁istuk	-10551
▁katem	-10552
▁kauks	-10553
▁kiusa	-10554
▁kurpi	-10555
▁maana	-10556
▁mesta	-10557
▁mukaa	-10558
▁muuri	-10559
▁nauho	-10560
▁onees	-10561
▁orsku	-10562
▁ortod	-10563
▁patru	-10564
▁ranka	-10565
▁ruusu	-10566
▁takku	-10567
▁tappi	-10568
▁torve	-10569
▁tulko	-10570
▁uiten	-10571
▁vauva	-10572
▁voimi	-10573
hn	-10574
ov	-10575
pö	-10576
tt	-10577
bra	-10578
eam	-10579
kow	-10580
lau	-10581
ssy	-10582
ure	-10583
url	-10584
urt	-10585
zer	-10586
▁5)	-10587
▁CD	-10588
▁Fl	-10589
▁SK	-10590
▁ph	-10591
oigu	-10592
▁(1)	-10593
▁125	-10594
▁15,	-10595
▁2,1	-10596
▁2,2	-10597
▁2,4	-10598
▁3-2	-10599
▁52,	-10600
▁56,	-10601
▁Amy	-10602
▁HPK	-10603
▁Hin	-10604
▁Hor	-10605
▁Maj	-10606
▁OKM	-10607
▁Ria	-10608
▁Wit	-10609
▁afa	-10610
▁car	-10611
▁iht	-10612
▁kie	-10613
▁nyk	-10614
▁orr	-10615
▁que	-10616
▁scu	-10617
▁uzu	-10618
▁ömp	-10619
▁Airb	-10620
▁Alho	-10621
▁Heal	-10622
▁Kast	-10623
▁Marc	-10624
▁Nich	-10625
▁Nora	-10626
▁Pepe	-10627
▁Rasi	-10628
▁SSAB	-10629
▁ammy	-10630
▁andr	-10631
▁arse	-10632
▁dopt	-10633
▁ecim	-10634
▁erki	-10635
▁esko	-10636
▁hill	-10637
▁hine	-10638
▁hing	-10639
▁hoff	-10640
▁ikil	-10641
▁ilat	-10642
▁ilkk	-10643
▁ioon	-10644
▁kkas	-10645
▁koju	-10646
▁lkoi	-10647
▁musk	-10648
▁nain	-10649
▁nita	-10650
▁okan	-10651
▁orce	-10652
▁orja	-10653
▁pere	-10654
▁skau	-10655
▁stuu	-10656
▁uhje	-10657
▁ujah	-10658
▁yijy	-10659
▁ynti	-10660
▁Costa	-10661
▁Dhabi	-10662
▁Grant	-10663
▁Kirby	-10664
▁Konku	-10665
▁Makar	-10666
▁RoKin	-10667
▁UTERS	-10668
▁Weber	-10669
▁achuk	-10670
▁ahara	-10671
▁ainat	-10672
▁allen	-10673
▁aruna	-10674
▁autak	-10675
▁eltta	-10676
▁eluun	-10677
▁ethro	-10678
▁harma	-10679
▁ilano	-10680
▁illar	-10681
▁ilpis	-10682
▁inwar	-10683
▁karhu	-10684
▁koist	-10685
▁koota	-10686
▁leini	-10687
▁lesta	-10688
▁liive	-10689
▁lippi	-10690
▁liuta	-10691
▁napat	-10692
▁omppu	-10693
▁ophie	-10694
▁opter	-10695
▁rammy	-10696
▁rinne	-10697
▁rnest	-10698
▁rophy	-10699
▁salem	-10700
▁tisti	-10701
▁uplas	-10702
▁vasem	-10703
▁vensk	-10704
▁verho	-10705
▁verko	-10706
▁ynnis	-10707
▁ämppä	-10708
▁Šoigu	-10709
EL	-10710
OY	-10711
pt	-10712
ub	-10713
▁¤	-10714
▁г	-10715
▁п	-10716
dat	-10717
deb	-10718
hel	-10719
lat	-10720
mah	-10721
nik	-10722
yed	-10723
ösf	-10724
▁2:	-10725
▁EQ	-10726
▁NT	-10727
▁bd	-10728
▁14,	-10729
▁175	-10730
▁51,	-10731
▁70,	-10732
▁Ani	-10733
▁Box	-10734
▁DeS	-10735
▁Dep	-10736
▁ELY	-10737
▁MLS	-10738
▁MVp	-10739
▁OYS	-10740
▁Puu	-10741
▁Ric	-10742
▁Sit	-10743
▁Vel	-10744
▁ece	-10745
▁eke	-10746
▁iga	-10747
▁isp	-10748
▁jao	-10749
▁lel	-10750
▁nic	-10751
▁roë	-10752
▁vdi	-10753
▁Arje	-10754
▁Desi	-10755
▁Duck	-10756
▁Haja	-10757
▁Heat	-10758
▁Hösf	-10759
▁Kahi	-10760
▁Leag	-10761
▁Midd	-10762
▁Sohl	-10763
▁Suik	-10764
▁WSOY	-10765
▁Yoon	-10766
▁adre	-10767
▁agan	-10768
▁alau	-10769
▁aluu	-10770
▁angi	-10771
▁ared	-10772
▁asil	-10773
▁auda	-10774
▁buua	-10775
▁eipz	-10776
▁elvy	-10777
▁eppä	-10778
▁esee	-10779
▁etiz	-10780
▁etol	-10781
▁hell	-10782
▁ibel	-10783
▁ibor	-10784
▁ilit	-10785
▁ilko	-10786
▁inot	-10787
▁ioid	-10788
▁isil	-10789
▁katu	-10790
▁lips	-10791
▁lomi	-10792
▁maku	-10793
▁nuol	-10794
▁oger	-10795
▁ohva	-10796
▁oose	-10797
▁ough	-10798
▁piri	-10799
▁real	-10800
▁reet	-10801
▁ruma	-10802
▁siva	-10803
▁stoi	-10804
▁säry	-10805
▁till	-10806
▁toko	-10807
▁uida	-10808
▁uoks	-10809
▁utva	-10810
▁uusa	-10811
▁uvai	-10812
▁Abreu	-10813
▁Maisa	-10814
▁Malag	-10815
▁Marca	-10816
▁Obser	-10817
▁Rönkä	-10818
▁Trend	-10819
▁aller	-10820
▁arkea	-10821
▁arkel	-10822
▁astor	-10823
▁audio	-10824
▁elkka	-10825
▁ellow	-10826
▁hirsi	-10827
▁iffel	-10828
▁iider	-10829
▁iisas	-10830
▁inamo	-10831
▁ingle	-10832
▁inkut	-10833
▁jalle	-10834
▁kumma	-10835
▁laput	-10836
▁lievä	-10837
▁lipui	-10838
▁mance	-10839
▁olleg	-10840
▁ophia	-10841
▁rande	-10842
▁ratsu	-10843
▁rumpu	-10844
▁talko	-10845
▁uguay	-10846
▁uivas	-10847
▁uppar	-10848
▁utler	-10849
▁uunar	-10850
▁watch	-10851
▁ämärä	-10852
▁ärmän	-10853
▁üller	-10854
20	-10855
vö	-10856
aat	-10857
art	-10858
oid	-10859
päl	-10860
üri	-10861
▁(5	-10862
▁00	-10863
▁04	-10864
▁AJ	-10865
▁LI	-10866
▁MP	-10867
▁ül	-10868
▁230	-10869
▁Bon	-10870
▁Clo	-10871
▁Dip	-10872
▁Hus	-10873
▁Rea	-10874
▁SUL	-10875
▁VIP	-10876
▁aye	-10877
▁bba	-10878
▁enz	-10879
▁hae	-10880
▁hre	-10881
▁ijö	-10882
▁kii	-10883
▁löf	-10884
▁nve	-10885
▁onc	-10886
▁som	-10887
▁utš	-10888
▁way	-10889
▁äyk	-10890
▁öpö	-10891
▁öyt	-10892
▁Deni	-10893
▁Fina	-10894
▁Head	-10895
▁Keir	-10896
▁List	-10897
▁Meil	-10898
▁Modi	-10899
▁Omen	-10900
▁Pihl	-10901
▁Thor	-10902
▁Wars	-10903
▁aked	-10904
▁andu	-10905
▁arne	-10906
▁ddie	-10907
▁eafs	-10908
▁eduz	-10909
▁eill	-10910
▁emor	-10911
▁ende	-10912
▁hien	-10913
▁iger	-10914
▁ihti	-10915
▁ijai	-10916
▁ikol	-10917
▁ilar	-10918
▁ilon	-10919
▁ioit	-10920
▁ipsu	-10921
▁klah	-10922
▁liho	-10923
▁lous	-10924
▁ntui	-10925
▁oill	-10926
▁olah	-10927
▁osef	-10928
▁oteu	-10929
▁ourg	-10930
▁patj	-10931
▁ryer	-10932
▁scob	-10933
▁silt	-10934
▁sovu	-10935
▁ssak	-10936
▁stak	-10937
▁suht	-10938
▁suor	-10939
▁tore	-10940
▁udel	-10941
▁umme	-10942
▁vene	-10943
▁wich	-10944
▁with	-10945
▁zemp	-10946
▁ädän	-10947
▁ääse	-10948
▁Direc	-10949
▁Fayed	-10950
▁Hermo	-10951
▁Karvo	-10952
▁Kiusa	-10953
▁Tolpp	-10954
▁Young	-10955
▁aakal	-10956
▁acobs	-10957
▁ailer	-10958
▁ainij	-10959
▁ainio	-10960
▁akara	-10961
▁aldwi	-10962
▁ampin	-10963
▁andra	-10964
▁auhun	-10965
▁egger	-10966
▁einie	-10967
▁eresa	-10968
▁eyttä	-10969
▁graff	-10970
▁hanhi	-10971
▁hoigu	-10972
▁iidak	-10973
▁itusj	-10974
▁kkien	-10975
▁kompp	-10976
▁lanad	-10977
▁lanic	-10978
▁laser	-10979
▁llois	-10980
▁neula	-10981
▁neulo	-10982
▁ouisi	-10983
▁oukku	-10984
▁pence	-10985
▁pirun	-10986
▁riepo	-10987
▁saali	-10988
▁saavu	-10989
▁toppi	-10990
▁traag	-10991
▁ttise	-10992
▁ttyvä	-10993
▁tulta	-10994
▁typer	-10995
▁uimar	-10996
▁ullin	-10997
▁utton	-10998
▁uussi	-10999
▁uusto	-11000
▁yskow	-11001
▁ülken	-11002
▁ürgen	-11003
1:	-11004
AT	-11005
ES	-11006
ap	-11007
av	-11008
ão	-11009
⁄2	-11010
esk	-11011
gie	-11012
kul	-11013
lin	-11014
pai	-11015
pio	-11016
ury	-11017
▁AL	-11018
▁PT	-11019
▁SR	-11020
▁WA	-11021
▁lh	-11022
▁äx	-11023
osto	-11024
▁190	-11025
▁260	-11026
▁3,3	-11027
▁50.	-11028
▁6,5	-11029
▁60,	-11030
▁66,	-11031
▁AMK	-11032
▁Bad	-11033
▁DeB	-11034
▁Hes	-11035
▁Hot	-11036
▁Iki	-11037
▁Nag	-11038
▁Olo	-11039
▁Pen	-11040
▁Pit	-11041
▁Set	-11042
▁eld	-11043
▁esl	-11044
▁hul	-11045
▁iid	-11046
▁kry	-11047
▁lkk	-11048
▁mor	-11049
▁ots	-11050
▁oup	-11051
▁paj	-11052
▁pse	-11053
▁puj	-11054
▁rob	-11055
▁rol	-11056
▁rte	-11057
▁rén	-11058
▁vol	-11059
▁yip	-11060
▁äst	-11061
▁ätt	-11062
▁Jare	-11063
▁Karo	-11064
▁Rach	-11065
▁Saab	-11066
▁Sene	-11067
▁Winb	-11068
▁ablo	-11069
▁affa	-11070
▁anye	-11071
▁aser	-11072
▁back	-11073
▁dolf	-11074
▁epar	-11075
▁epin	-11076
▁esis	-11077
▁esku	-11078
▁etam	-11079
▁gran	-11080
▁iero	-11081
▁ilde	-11082
▁itok	-11083
▁lice	-11084
▁llaa	-11085
▁llak	-11086
▁ntoi	-11087
▁odia	-11088
▁orde	-11089
▁orre	-11090
▁puro	-11091
▁pyst	-11092
▁raft	-11093
▁ripo	-11094
▁rive	-11095
▁snet	-11096
▁tarl	-11097
▁teph	-11098
▁trum	-11099
▁täin	-11100
▁vdij	-11101
▁vetš	-11102
▁vili	-11103
▁åkan	-11104
▁Ahmed	-11105
▁Arvel	-11106
▁March	-11107
▁Minsk	-11108
▁Murza	-11109
▁Vieru	-11110
▁aguar	-11111
▁ainau	-11112
▁antia	-11113
▁arker	-11114
▁askis	-11115
▁aunaa	-11116
▁autai	-11117
▁enver	-11118
▁euraa	-11119
▁iipal	-11120
▁imppa	-11121
▁inist	-11122
▁inkun	-11123
▁irvel	-11124
▁kukka	-11125
▁lapun	-11126
▁lääni	-11127
▁neule	-11128
▁ollaa	-11129
▁onner	-11130
▁ranco	-11131
▁reiki	-11132
▁sampp	-11133
▁siaal	-11134
▁tango	-11135
▁tolpa	-11136
▁uxemb	-11137
▁yivät	-11138
WE	-11139
gl	-11140
cid	-11141
hev	-11142
näs	-11143
rac	-11144
žja	-11145
▁Aj	-11146
▁BS	-11147
▁Bö	-11148
▁EN	-11149
▁IK	-11150
▁IV	-11151
▁JA	-11152
▁Jy	-11153
▁KT	-11154
▁RN	-11155
▁ci	-11156
▁uy	-11157
▁öv	-11158
▁340	-11159
▁53,	-11160
▁61,	-11161
▁Abd	-11162
▁Cat	-11163
▁ERR	-11164
▁Ekh	-11165
▁GPT	-11166
▁Gal	-11167
▁HTS	-11168
▁KKO	-11169
▁Kaj	-11170
▁Lem	-11171
▁Mot	-11172
▁Sue	-11173
▁Tal	-11174
▁box	-11175
▁cro	-11176
▁dri	-11177
▁iaz	-11178
▁its	-11179
▁jes	-11180
▁put	-11181
▁upu	-11182
▁Amor	-11183
▁Benf	-11184
▁Cora	-11185
▁Cyru	-11186
▁Gamb	-11187
▁Girl	-11188
▁Hert	-11189
▁Nizh	-11190
▁Sahl	-11191
▁Voro	-11192
▁With	-11193
▁aaku	-11194
▁ahke	-11195
▁ahna	-11196
▁anak	-11197
▁arel	-11198
▁azon	-11199
▁ecep	-11200
▁ehma	-11201
▁eras	-11202
▁erem	-11203
▁ersh	-11204
▁ervo	-11205
▁htum	-11206
▁iame	-11207
▁ient	-11208
▁ills	-11209
▁irik	-11210
▁käri	-11211
▁lmat	-11212
▁lock	-11213
▁meko	-11214
▁mioi	-11215
▁mmas	-11216
▁napp	-11217
▁nelo	-11218
▁nian	-11219
▁nick	-11220
▁nlyF	-11221
▁olhu	-11222
▁ouka	-11223
▁pong	-11224
▁rkka	-11225
▁soff	-11226
▁soke	-11227
▁sääd	-11228
▁unak	-11229
▁urek	-11230
▁ushi	-11231
▁uuka	-11232
▁virk	-11233
▁vään	-11234
▁äisy	-11235
▁äitä	-11236
▁Ambul	-11237
▁Griff	-11238
▁Kiira	-11239
▁Migri	-11240
▁Rista	-11241
▁Watch	-11242
▁Wolff	-11243
▁aitou	-11244
▁almar	-11245
▁amppi	-11246
▁ancia	-11247
▁annah	-11248
▁ardif	-11249
▁arpee	-11250
▁arvia	-11251
▁demil	-11252
▁derby	-11253
▁elast	-11254
▁emmän	-11255
▁entra	-11256
▁gency	-11257
▁hemmo	-11258
▁ibila	-11259
▁ietil	-11260
▁iisil	-11261
▁iknik	-11262
▁ikrom	-11263
▁ilppi	-11264
▁isker	-11265
▁istav	-11266
▁ižžja	-11267
▁liehu	-11268
▁lokse	-11269
▁miini	-11270
▁nouto	-11271
▁nujer	-11272
▁outsi	-11273
▁reivi	-11274
▁rence	-11275
▁rikoi	-11276
▁rossi	-11277
▁sanat	-11278
▁sinet	-11279
▁stent	-11280
▁surff	-11281
▁surku	-11282
▁svalt	-11283
▁taiki	-11284
▁tamat	-11285
▁toler	-11286
▁ttrac	-11287
▁ugene	-11288
▁ukais	-11289
▁urner	-11290
▁ustil	-11291
▁uuhta	-11292
▁uusio	-11293
▁vihko	-11294
▁ynamo	-11295
és	-11296
ECD	-11297
ald	-11298
cal	-11299
gea	-11300
hna	-11301
ima	-11302
tig	-11303
uri	-11304
win	-11305
ylä	-11306
▁AA	-11307
▁Ak	-11308
▁KS	-11309
▁LR	-11310
▁SC	-11311
▁SO	-11312
▁VG	-11313
▁vt	-11314
▁yb	-11315
ikka	-11316
▁0-2	-11317
▁155	-11318
▁2,7	-11319
▁3,2	-11320
▁3,7	-11321
▁3-5	-11322
▁58,	-11323
▁75,	-11324
▁8,5	-11325
▁Abb	-11326
▁Cra	-11327
▁Eps	-11328
▁IMF	-11329
▁KTP	-11330
▁NRJ	-11331
▁PAM	-11332
▁Sev	-11333
▁Tro	-11334
▁akr	-11335
▁eul	-11336
▁hjo	-11337
▁jer	-11338
▁lar	-11339
▁law	-11340
▁rro	-11341
▁sey	-11342
▁ues	-11343
▁Dogg	-11344
▁Leif	-11345
▁Leve	-11346
▁Life	-11347
▁Lock	-11348
▁OECD	-11349
▁Simb	-11350
▁Vaan	-11351
▁Wolf	-11352
▁Wrig	-11353
▁aijo	-11354
▁ajah	-11355
▁alsa	-11356
▁arei	-11357
▁aril	-11358
▁avik	-11359
▁bell	-11360
▁eger	-11361
▁ehmi	-11362
▁eiva	-11363
▁etka	-11364
▁etod	-11365
▁htel	-11366
▁iani	-11367
▁idol	-11368
▁ijöi	-11369
▁ilau	-11370
▁ilib	-11371
▁ilis	-11372
▁ilje	-11373
▁ipru	-11374
▁irni	-11375
▁irtf	-11376
▁isit	-11377
▁itco	-11378
▁jurs	-11379
▁karu	-11380
▁lman	-11381
▁love	-11382
▁luja	-11383
▁migr	-11384
▁neit	-11385
▁oosi	-11386
▁past	-11387
▁posi	-11388
▁rauk	-11389
▁reil	-11390
▁rvan	-11391
▁sara	-11392
▁slam	-11393
▁ssin	-11394
▁suol	-11395
▁syke	-11396
▁tadi	-11397
▁ugby	-11398
▁unaj	-11399
▁uost	-11400
▁yösk	-11401
▁äijy	-11402
▁äkki	-11403
▁äyhä	-11404
▁ölli	-11405
▁örrö	-11406
▁Calle	-11407
▁Conor	-11408
▁Haaga	-11409
▁Motor	-11410
▁Mount	-11411
▁Omena	-11412
▁Polar	-11413
▁Tenho	-11414
▁aakel	-11415
▁allak	-11416
▁arhub	-11417
▁arihu	-11418
▁auder	-11419
▁disko	-11420
▁eader	-11421
▁elleg	-11422
▁helma	-11423
▁idney	-11424
▁illin	-11425
▁kärpä	-11426
▁lanet	-11427
▁liini	-11428
▁liste	-11429
▁mehev	-11430
▁mekko	-11431
▁miner	-11432
▁niput	-11433
▁ommer	-11434
▁orsaa	-11435
▁ountr	-11436
▁rumba	-11437
▁ruuhk	-11438
▁sieni	-11439
▁sovit	-11440
▁tahna	-11441
▁teeti	-11442
▁termi	-11443
▁tonni	-11444
▁trang	-11445
▁turmi	-11446
▁uhkar	-11447
▁uivat	-11448
▁umppi	-11449
▁warze	-11450
▁äväkä	-11451
▁ölkky	-11452
DR	-11453
Ki	-11454
MS	-11455
RA	-11456
VI	-11457
ag	-11458
dr	-11459
ño	-11460
ani	-11461
cio	-11462
hit	-11463
ish	-11464
mba	-11465
tit	-11466
ves	-11467
▁(7	-11468
▁AN	-11469
▁Aa	-11470
▁MS	-11471
▁PI	-11472
▁SD	-11473
▁bb	-11474
▁eB	-11475
▁iy	-11476
▁án	-11477
▁€)	-11478
▁0,6	-11479
▁050	-11480
▁135	-11481
▁1⁄2	-11482
▁2,8	-11483
▁460	-11484
▁650	-11485
▁Bab	-11486
▁Can	-11487
▁GTX	-11488
▁Gaz	-11489
▁Gre	-11490
▁Jus	-11491
▁Nel	-11492
▁Pér	-11493
▁SBU	-11494
▁UTO	-11495
▁isc	-11496
▁itz	-11497
▁kne	-11498
▁lee	-11499
▁liz	-11500
▁lme	-11501
▁ndo	-11502
▁nsu	-11503
▁sem	-11504
▁tip	-11505
▁tyl	-11506
▁öss	-11507
▁Avar	-11508
▁Call	-11509
▁Coli	-11510
▁Cont	-11511
▁Copa	-11512
▁Cove	-11513
▁Eder	-11514
▁Eila	-11515
▁Gaga	-11516
▁Glen	-11517
▁Goms	-11518
▁Hoid	-11519
▁Käpy	-11520
▁Last	-11521
▁Mina	-11522
▁Rädy	-11523
▁Saan	-11524
▁Watf	-11525
▁Well	-11526
▁aadu	-11527
▁abal	-11528
▁acho	-11529
▁ahma	-11530
▁aima	-11531
▁aira	-11532
▁akut	-11533
▁amps	-11534
▁anam	-11535
▁ates	-11536
▁bdul	-11537
▁come	-11538
▁eddi	-11539
▁erre	-11540
▁illu	-11541
▁ilva	-11542
▁irst	-11543
▁iulu	-11544
▁lash	-11545
▁lbon	-11546
▁liuo	-11547
▁naku	-11548
▁nast	-11549
▁ntan	-11550
▁nuku	-11551
▁ohmu	-11552
▁okun	-11553
▁ompa	-11554
▁once	-11555
▁ouge	-11556
▁ovak	-11557
▁pede	-11558
▁rime	-11559
▁ripa	-11560
▁rude	-11561
▁siep	-11562
▁tiiv	-11563
▁uent	-11564
▁uhki	-11565
▁uila	-11566
▁uoan	-11567
▁ware	-11568
▁ynni	-11569
▁älli	-11570
▁Colap	-11571
▁Cruis	-11572
▁Hamar	-11573
▁Keuru	-11574
▁Lordi	-11575
▁Reima	-11576
▁Rikko	-11577
▁Rodri	-11578
▁Varpu	-11579
▁aaban	-11580
▁aasaa	-11581
▁agdeb	-11582
▁aiska	-11583
▁aisto	-11584
▁ammen	-11585
▁anske	-11586
▁anuel	-11587
▁artia	-11588
▁askul	-11589
▁asser	-11590
▁astin	-11591
▁astre	-11592
▁attar	-11593
▁aussi	-11594
▁diska	-11595
▁elman	-11596
▁enita	-11597
▁erlev	-11598
▁ihara	-11599
▁iiska	-11600
▁inkki	-11601
▁innai	-11602
▁karja	-11603
▁karvo	-11604
▁kiekk	-11605
▁lammi	-11606
▁latva	-11607
▁lipuk	-11608
▁ltain	-11609
▁maito	-11610
▁mönki	-11611
▁nakin	-11612
▁oihah	-11613
▁outui	-11614
▁satoa	-11615
▁seulo	-11616
▁sirku	-11617
▁sukki	-11618
▁taide	-11619
▁ttömä	-11620
▁ulkki	-11621
▁ullat	-11622
▁uzuki	-11623
▁vitse	-11624
EV	-11625
TU	-11626
dz	-11627
eb	-11628
xo	-11629
MWF	-11630
etš	-11631
käl	-11632
lög	-11633
näv	-11634
tid	-11635
▁(6	-11636
▁IN	-11637
▁ML	-11638
▁Of	-11639
▁né	-11640
▁pk	-11641
▁qu	-11642
▁sw	-11643
▁€,	-11644
inea	-11645
▁0,4	-11646
▁1-1	-11647
▁105	-11648
▁11,	-11649
▁2-4	-11650
▁3,1	-11651
▁38.	-11652
▁4-2	-11653
▁7,5	-11654
▁Aja	-11655
▁DPA	-11656
▁FIA	-11657
▁Got	-11658
▁Kis	-11659
▁LIV	-11660
▁NOR	-11661
▁Noi	-11662
▁Nuo	-11663
▁Zet	-11664
▁awa	-11665
▁bom	-11666
▁dra	-11667
▁geo	-11668
▁ics	-11669
▁itš	-11670
▁iul	-11671
▁jax	-11672
▁miv	-11673
▁mok	-11674
▁pio	-11675
▁ray	-11676
▁riä	-11677
▁uch	-11678
▁ujo	-11679
▁yhm	-11680
▁Asio	-11681
▁Axel	-11682
▁Beng	-11683
▁Cloo	-11684
▁Demo	-11685
▁Duro	-11686
▁Gala	-11687
▁Hesb	-11688
▁Kass	-11689
▁KeKi	-11690
▁Milo	-11691
▁Oras	-11692
▁Roza	-11693
▁Tech	-11694
▁Tove	-11695
▁Viru	-11696
▁Wine	-11697
▁Yuki	-11698
▁alet	-11699
▁alia	-11700
▁amol	-11701
▁amul	-11702
▁aner	-11703
▁antz	-11704
▁anyu	-11705
▁asel	-11706
▁atil	-11707
▁atis	-11708
▁atja	-11709
▁baum	-11710
▁buff	-11711
▁drag	-11712
▁eemi	-11713
▁ehnä	-11714
▁enos	-11715
▁epon	-11716
▁eppe	-11717
▁fron	-11718
▁gand	-11719
▁glög	-11720
▁ielo	-11721
▁iiht	-11722
▁inez	-11723
▁inga	-11724
▁iori	-11725
▁itai	-11726
▁jano	-11727
▁kalt	-11728
▁kuur	-11729
▁kärp	-11730
▁laka	-11731
▁laku	-11732
▁lapu	-11733
▁lead	-11734
▁lood	-11735
▁look	-11736
▁luko	-11737
▁nerg	-11738
▁nier	-11739
▁nout	-11740
▁ooth	-11741
▁oraa	-11742
▁paho	-11743
▁reed	-11744
▁talg	-11745
▁tlan	-11746
▁torm	-11747
▁uhut	-11748
▁ulku	-11749
▁umpe	-11750
▁unge	-11751
▁uoko	-11752
▁utam	-11753
▁ylsy	-11754
▁ylvö	-11755
▁äppi	-11756
▁äytö	-11757
▁öise	-11758
▁Garde	-11759
▁Hirmu	-11760
▁Jusel	-11761
▁Reuna	-11762
▁ammal	-11763
▁apper	-11764
▁armai	-11765
▁arvai	-11766
▁athar	-11767
▁aunii	-11768
▁cross	-11769
▁drift	-11770
▁eensa	-11771
▁eiger	-11772
▁ennar	-11773
▁epper	-11774
▁ersun	-11775
▁eskon	-11776
▁esley	-11777
▁ikein	-11778
▁kaivo	-11779
▁katte	-11780
▁kuole	-11781
▁känni	-11782
▁lasej	-11783
▁letku	-11784
▁liede	-11785
▁linko	-11786
▁menta	-11787
▁mökin	-11788
▁nakut	-11789
▁ompel	-11790
▁ouhki	-11791
▁riide	-11792
▁roduc	-11793
▁rypto	-11794
▁simpu	-11795
▁sitom	-11796
▁sokko	-11797
▁steen	-11798
▁svens	-11799
▁tream	-11800
▁ttomi	-11801
▁täjän	-11802
▁uoska	-11803
▁urkis	-11804
▁urray	-11805
▁usina	-11806
▁utter	-11807
▁vador	-11808
▁väitt	-11809
▁ännik	-11810
AP	-11811
DA	-11812
KI	-11813
cc	-11814
df	-11815
ed	-11816
fo	-11817
if	-11818
iz	-11819
mf	-11820
yh	-11821
ÄÄ	-11822
ña	-11823
▁Á	-11824
ass	-11825
bit	-11826
hur	-11827
imo	-11828
lik	-11829
mor	-11830
mpa	-11831
nap	-11832
päs	-11833
rat	-11834
uer	-11835
vud	-11836
▁(8	-11837
▁6)	-11838
▁Cl	-11839
▁FL	-11840
▁PC	-11841
▁Ut	-11842
▁YT	-11843
▁Ze	-11844
▁på	-11845
▁ås	-11846
▁öh	-11847
▁0,3	-11848
▁107	-11849
▁280	-11850
▁330	-11851
▁5-6	-11852
▁55,	-11853
▁57,	-11854
▁6-7	-11855
▁64,	-11856
▁Alc	-11857
▁BSW	-11858
▁DeA	-11859
▁Fir	-11860
▁Gil	-11861
▁Hem	-11862
▁Hod	-11863
▁Keu	-11864
▁Koo	-11865
▁LRT	-11866
▁Lam	-11867
▁Les	-11868
▁Mad	-11869
▁Nee	-11870
▁Oon	-11871
▁Pep	-11872
▁Run	-11873
▁SPR	-11874
▁Une	-11875
▁bin	-11876
▁erj	-11877
▁ery	-11878
▁inb	-11879
▁jov	-11880
▁max	-11881
▁nyr	-11882
▁näj	-11883
▁rae	-11884
▁rew	-11885
▁rje	-11886
▁uhl	-11887
▁ägg	-11888
▁Abra	-11889
▁Akin	-11890
▁Amin	-11891
▁Bear	-11892
▁Cars	-11893
▁Coll	-11894
▁Down	-11895
▁Eppu	-11896
▁Juri	-11897
▁Katz	-11898
▁Kori	-11899
▁Lint	-11900
▁Osto	-11901
▁Raci	-11902
▁Suna	-11903
▁Yoav	-11904
▁agna	-11905
▁almu	-11906
▁amad	-11907
▁arch	-11908
▁ario	-11909
▁arpi	-11910
▁atik	-11911
▁eiss	-11912
▁eriö	-11913
▁erka	-11914
▁hamp	-11915
▁hawn	-11916
▁ides	-11917
▁iihi	-11918
▁iine	-11919
▁ikar	-11920
▁immo	-11921
▁inho	-11922
▁inze	-11923
▁ions	-11924
▁kare	-11925
▁kilp	-11926
▁konk	-11927
▁koos	-11928
▁lace	-11929
▁laza	-11930
▁lban	-11931
▁lohe	-11932
▁maje	-11933
▁miks	-11934
▁näpä	-11935
▁néll	-11936
▁oija	-11937
▁oimu	-11938
▁oksa	-11939
▁olik	-11940
▁oral	-11941
▁osni	-11942
▁otsh	-11943
▁pain	-11944
▁pajo	-11945
▁pake	-11946
▁part	-11947
▁rain	-11948
▁rass	-11949
▁rsan	-11950
▁rwin	-11951
▁särö	-11952
▁tepa	-11953
▁tras	-11954
▁ttoa	-11955
▁uktö	-11956
▁ulha	-11957
▁usit	-11958
▁viko	-11959
▁ylan	-11960
▁älbe	-11961
▁öllö	-11962
▁Court	-11963
▁ECMWF	-11964
▁Found	-11965
▁Kairo	-11966
▁Margo	-11967
▁Mirva	-11968
▁Mitch	-11969
▁Molly	-11970
▁Nosta	-11971
▁Rainb	-11972
▁Raska	-11973
▁Reini	-11974
▁Rover	-11975
▁Sever	-11976
▁Sippo	-11977
▁Table	-11978
▁Vivia	-11979
▁aahar	-11980
▁aitau	-11981
▁akobs	-11982
▁allow	-11983
▁aluma	-11984
▁ampur	-11985
▁anmor	-11986
▁antan	-11987
▁arber	-11988
▁arper	-11989
▁arppa	-11990
▁attia	-11991
▁auras	-11992
▁eijer	-11993
▁field	-11994
▁htaja	-11995
▁huuma	-11996
▁idnap	-11997
▁iemen	-11998
▁iivas	-11999
▁issaa	-12000
▁kater	-12001
▁katse	-12002
▁lampp	-12003
▁leuan	-12004
▁liber	-12005
▁lisuk	-12006
▁livat	-12007
▁oitis	-12008
▁olves	-12009
▁opper	-12010
▁pihvi	-12011
▁pollo	-12012
▁riesa	-12013
▁sanaa	-12014
▁sentt	-12015
▁siint	-12016
▁sokea	-12017
▁telli	-12018
▁tormy	-12019
▁tukke	-12020
▁ufvud	-12021
▁ulina	-12022
▁ullek	-12023
▁upper	-12024
▁vaiva	-12025
▁vällä	-12026
EA	-12027
HA	-12028
Po	-12029
bh	-12030
kw	-12031
ms	-12032
sr	-12033
yk	-12034
yr	-12035
ée	-12036
▁л	-12037
AAN	-12038
dig	-12039
mic	-12040
ret	-12041
tos	-12042
uld	-12043
yes	-12044
▁8-	-12045
▁FI	-12046
▁NS	-12047
▁Oh	-12048
▁Uu	-12049
▁WP	-12050
▁XC	-12051
▁Za	-12052
▁nj	-12053
▁rr	-12054
▁zo	-12055
▁ст	-12056
orth	-12057
▁145	-12058
▁2,9	-12059
▁3-6	-12060
▁40.	-12061
▁63,	-12062
▁Ask	-12063
▁Edm	-12064
▁Eks	-12065
▁Evo	-12066
▁Hat	-12067
▁Hør	-12068
▁Lot	-12069
▁Out	-12070
▁Rup	-12071
▁SSO	-12072
▁SWE	-12073
▁Sor	-12074
▁agl	-12075
▁bal	-12076
▁ech	-12077
▁hli	-12078
▁ief	-12079
▁ith	-12080
▁kep	-12081
▁lag	-12082
▁mos	-12083
▁nsk	-12084
▁oux	-12085
▁rai	-12086
▁rna	-12087
▁sca	-12088
▁sda	-12089
▁spr	-12090
▁tov	-12091
▁wan	-12092
▁yöd	-12093
▁Åbo	-12094
▁Airo	-12095
▁Amal	-12096
▁Comm	-12097
▁Late	-12098
▁Lent	-12099
▁Miya	-12100
▁Reko	-12101
▁Repo	-12102
▁Rowl	-12103
▁Ukon	-12104
▁aapu	-12105
▁aaso	-12106
▁adju	-12107
▁aetz	-12108
▁agar	-12109
▁aitt	-12110
▁alpe	-12111
▁alui	-12112
▁aluv	-12113
▁amar	-12114
▁amba	-12115
▁anhe	-12116
▁arom	-12117
▁arth	-12118
▁cand	-12119
▁diak	-12120
▁ecca	-12121
▁edof	-12122
▁elaa	-12123
▁erse	-12124
▁etab	-12125
▁eton	-12126
▁horm	-12127
▁huij	-12128
▁hukr	-12129
▁iacu	-12130
▁iesi	-12131
▁iipp	-12132
▁itsu	-12133
▁kepe	-12134
▁kini	-12135
▁kook	-12136
▁kosm	-12137
▁kryp	-12138
▁lair	-12139
▁lear	-12140
▁less	-12141
▁lger	-12142
▁lite	-12143
▁llio	-12144
▁logg	-12145
▁lond	-12146
▁lupi	-12147
▁mati	-12148
▁moit	-12149
▁obje	-12150
▁ogan	-12151
▁okei	-12152
▁onté	-12153
▁pero	-12154
▁purs	-12155
▁rava	-12156
▁reat	-12157
▁rend	-12158
▁reta	-12159
▁rkei	-12160
▁rkko	-12161
▁ruko	-12162
▁ränn	-12163
▁saap	-12164
▁savo	-12165
▁sett	-12166
▁sham	-12167
▁skaj	-12168
▁sort	-12169
▁tabu	-12170
▁tade	-12171
▁taht	-12172
▁tale	-12173
▁upon	-12174
▁urja	-12175
▁utik	-12176
▁vaja	-12177
▁well	-12178
▁ylyn	-12179
▁yrön	-12180
▁Öreb	-12181
▁älve	-12182
▁ävis	-12183
▁Alves	-12184
▁Amber	-12185
▁Bobby	-12186
▁Hahmo	-12187
▁Tauru	-12188
▁Toipu	-12189
▁Touru	-12190
▁Willa	-12191
▁aadut	-12192
▁aalas	-12193
▁alley	-12194
▁ammar	-12195
▁ancho	-12196
▁andez	-12197
▁ankka	-12198
▁arvaa	-12199
▁askil	-12200
▁asmir	-12201
▁assaa	-12202
▁astma	-12203
▁eimah	-12204
▁elmer	-12205
▁enger	-12206
▁etero	-12207
▁helli	-12208
▁iemas	-12209
▁ienne	-12210
▁iguez	-12211
▁iisku	-12212
▁irppi	-12213
▁jaksa	-12214
▁kupli	-12215
▁laime	-12216
▁lakko	-12217
▁lance	-12218
▁lanco	-12219
▁lieke	-12220
▁linss	-12221
▁lisee	-12222
▁lissa	-12223
▁lypsy	-12224
▁mants	-12225
▁maski	-12226
▁matsi	-12227
▁ndiat	-12228
▁odiaq	-12229
▁oivas	-12230
▁okkar	-12231
▁omppa	-12232
▁onkai	-12233
▁ookas	-12234
▁opkin	-12235
▁ortol	-12236
▁radar	-12237
▁rippe	-12238
▁rippi	-12239
▁ruuat	-12240
▁ruutu	-12241
▁salpa	-12242
▁sokeu	-12243
▁taime	-12244
▁tatko	-12245
▁tavar	-12246
▁uento	-12247
▁uleba	-12248
▁uster	-12249
▁verkk	-12250
▁yrnäv	-12251
+2	-12252
.)	-12253
DS	-12254
HS	-12255
KT	-12256
TI	-12257
UR	-12258
ht	-12259
jk	-12260
pr	-12261
ux	-12262
wo	-12263
zu	-12264
▁§	-12265
▁★	-12266
cho	-12267
did	-12268
ehm	-12269
gaz	-12270
ghe	-12271
had	-12272
jak	-12273
lop	-12274
mei	-12275
mpä	-12276
nas	-12277
ste	-12278
vak	-12279
▁+1	-12280
▁AM	-12281
▁At	-12282
▁CS	-12283
▁HV	-12284
▁RA	-12285
▁WC	-12286
▁cc	-12287
▁kb	-12288
▁oz	-12289
▁sA	-12290
▁xt	-12291
ikar	-12292
▁0,8	-12293
▁185	-12294
▁2,0	-12295
▁2-5	-12296
▁320	-12297
▁365	-12298
▁4-1	-12299
▁78,	-12300
▁Bib	-12301
▁Cir	-12302
▁EVA	-12303
▁Het	-12304
▁Jäi	-12305
▁KHO	-12306
▁McM	-12307
▁Mut	-12308
▁Old	-12309
▁PKK	-12310
▁PVL	-12311
▁Pup	-12312
▁Rog	-12313
▁SPD	-12314
▁Son	-12315
▁USU	-12316
▁Ups	-12317
▁VAR	-12318
▁Wik	-12319
▁act	-12320
▁add	-12321
▁enm	-12322
▁hyg	-12323
▁ico	-12324
▁lex	-12325
▁oan	-12326
▁roz	-12327
▁ryy	-12328
▁sev	-12329
▁sme	-12330
▁tev	-12331
▁töl	-12332
▁uff	-12333
▁vim	-12334
▁ypo	-12335
▁Åke	-12336
▁äsy	-12337
▁ång	-12338
▁önä	-12339
▁Arie	-12340
▁Deut	-12341
▁Eeli	-12342
▁Gang	-12343
▁Gebh	-12344
▁Grek	-12345
▁MAAN	-12346
▁Marq	-12347
▁Nohy	-12348
▁Omar	-12349
▁Rand	-12350
▁Seal	-12351
▁Soit	-12352
▁Verh	-12353
▁Wadd	-12354
▁abah	-12355
▁achi	-12356
▁aiut	-12357
▁altu	-12358
▁anes	-12359
▁arey	-12360
▁augh	-12361
▁cean	-12362
▁east	-12363
▁egse	-12364
▁ehen	-12365
▁eith	-12366
▁elka	-12367
▁elkk	-12368
▁enze	-12369
▁ergh	-12370
▁ersi	-12371
▁hara	-12372
▁hirs	-12373
▁hitu	-12374
▁iede	-12375
▁ihar	-12376
▁ijoi	-12377
▁ikor	-12378
▁ilet	-12379
▁ilju	-12380
▁itke	-12381
▁itro	-12382
▁iups	-12383
▁kkun	-12384
▁koin	-12385
▁ksua	-12386
▁kulo	-12387
▁kuop	-12388
▁kyrö	-12389
▁laho	-12390
▁lech	-12391
▁liie	-12392
▁marj	-12393
▁mola	-12394
▁olio	-12395
▁oney	-12396
▁opis	-12397
▁orge	-12398
▁ormu	-12399
▁ovio	-12400
▁pare	-12401
▁peed	-12402
▁ravd	-12403
▁reiv	-12404
▁räpä	-12405
▁rück	-12406
▁sade	-12407
▁sche	-12408
▁sher	-12409
▁soja	-12410
▁sumu	-12411
▁sääs	-12412
▁tric	-12413
▁uill	-12414
▁uivi	-12415
▁ujut	-12416
▁unde	-12417
▁urbo	-12418
▁uuss	-12419
▁vell	-12420
▁vioi	-12421
▁ward	-12422
▁Barde	-12423
▁Haata	-12424
▁Happy	-12425
▁Marju	-12426
▁Nahka	-12427
▁Nassr	-12428
▁Owino	-12429
▁Teuro	-12430
▁Turbo	-12431
▁aatta	-12432
▁aaval	-12433
▁aeghe	-12434
▁aippa	-12435
▁aisut	-12436
▁aivel	-12437
▁anuck	-12438
▁aravo	-12439
▁argea	-12440
▁arkti	-12441
▁assat	-12442
▁conne	-12443
▁duuna	-12444
▁ender	-12445
▁enget	-12446
▁erraf	-12447
▁erros	-12448
▁erätt	-12449
▁huivi	-12450
▁hurmo	-12451
▁iello	-12452
▁immer	-12453
▁inikk	-12454
▁innaa	-12455
▁irona	-12456
▁iselt	-12457
▁itsub	-12458
▁jousi	-12459
▁kalor	-12460
▁kauma	-12461
▁kirpp	-12462
▁koodi	-12463
▁laida	-12464
▁laivo	-12465
▁latur	-12466
▁lieki	-12467
▁lilla	-12468
▁luumu	-12469
▁nisko	-12470
▁nnett	-12471
▁olver	-12472
▁onttu	-12473
▁otret	-12474
▁oulin	-12475
▁phone	-12476
▁pilot	-12477
▁ranne	-12478
▁rasti	-12479
▁reuno	-12480
▁riday	-12481
▁rthur	-12482
▁siipi	-12483
▁sinis	-12484
▁sitoi	-12485
▁sotki	-12486
▁suppe	-12487
▁taksi	-12488
▁tamaa	-12489
▁tikku	-12490
▁tukko	-12491
▁tumpi	-12492
▁tuoki	-12493
▁urhei	-12494
▁uthit	-12495
▁uukku	-12496
▁uvent	-12497
▁yrkkö	-12498
▁yttel	-12499
Me	-12500
TV	-12501
eo	-12502
pl	-12503
öl	-12504
▁·	-12505
▁и	-12506
▁о	-12507
hea	-12508
mad	-12509
min	-12510
mmä	-12511
tim	-12512
▁02	-12513
▁09	-12514
▁CC	-12515
▁CO	-12516
▁Dr	-12517
▁JV	-12518
▁MC	-12519
▁OS	-12520
▁QR	-12521
▁TN	-12522
▁nc	-12523
▁ré	-12524
▁0,2	-12525
▁0,7	-12526
▁0-3	-12527
▁128	-12528
▁137	-12529
▁165	-12530
▁3,6	-12531
▁36.	-12532
▁360	-12533
▁4-3	-12534
▁47.	-12535
▁480	-12536
▁570	-12537
▁65,	-12538
▁81,	-12539
▁990	-12540
▁Are	-12541
▁Cel	-12542
▁Dal	-12543
▁FLF	-12544
▁HBO	-12545
▁Hih	-12546
▁Ice	-12547
▁MTK	-12548
▁McI	-12549
▁Mär	-12550
▁Naz	-12551
▁Sie	-12552
▁Sto	-12553
▁Web	-12554
▁dog	-12555
▁esh	-12556
▁evr	-12557
▁hab	-12558
▁hio	-12559
▁höy	-12560
▁juk	-12561
▁lal	-12562
▁mep	-12563
▁nyö	-12564
▁seg	-12565
▁tii	-12566
▁uaa	-12567
▁vor	-12568
▁ála	-12569
▁äik	-12570
▁Abdo	-12571
▁Alin	-12572
▁Arff	-12573
▁Behm	-12574
▁Data	-12575
▁Drag	-12576
▁Gahr	-12577
▁Grin	-12578
▁Hold	-12579
▁Kars	-12580
▁Kore	-12581
▁Masa	-12582
▁Rico	-12583
▁Rika	-12584
▁Suek	-12585
▁Tatj	-12586
▁Vika	-12587
▁acra	-12588
▁ader	-12589
▁adim	-12590
▁afar	-12591
▁affe	-12592
▁ahli	-12593
▁airf	-12594
▁airo	-12595
▁alep	-12596
▁alke	-12597
▁alzb	-12598
▁arat	-12599
▁arpe	-12600
▁asch	-12601
▁asik	-12602
▁asiv	-12603
▁avez	-12604
▁deba	-12605
▁eiän	-12606
▁ekem	-12607
▁elpy	-12608
▁enzo	-12609
▁erpa	-12610
▁euhu	-12611
▁evel	-12612
▁evol	-12613
▁glam	-12614
▁hane	-12615
▁hero	-12616
▁hipo	-12617
▁hliz	-12618
▁home	-12619
▁htee	-12620
▁ibom	-12621
▁ilin	-12622
▁ilpe	-12623
▁isch	-12624
▁ivin	-12625
▁kell	-12626
▁koot	-12627
▁lipe	-12628
▁liti	-12629
▁lost	-12630
▁lykä	-12631
▁mate	-12632
▁midt	-12633
▁naha	-12634
▁nger	-12635
▁ntei	-12636
▁obba	-12637
▁opio	-12638
▁orgh	-12639
▁osch	-12640
▁osse	-12641
▁parv	-12642
▁pice	-12643
▁pihv	-12644
▁purt	-12645
▁rama	-12646
▁rdoğ	-12647
▁rech	-12648
▁rena	-12649
▁ries	-12650
▁rind	-12651
▁rype	-12652
▁siru	-12653
▁sämp	-12654
▁tamm	-12655
▁tans	-12656
▁tiku	-12657
▁trot	-12658
▁tudy	-12659
▁täji	-12660
▁ucci	-12661
▁uinn	-12662
▁ultq	-12663
▁umaa	-12664
▁urra	-12665
▁vaat	-12666
▁vivi	-12667
▁work	-12668
▁ytin	-12669
▁ärsi	-12670
▁örkö	-12671
▁ötkö	-12672
▁Cliff	-12673
▁Const	-12674
▁Koppi	-12675
▁Oikar	-12676
▁Puput	-12677
▁Salah	-12678
▁Tartu	-12679
▁Viroa	-12680
▁Visur	-12681
▁Weins	-12682
▁aajan	-12683
▁aaska	-12684
▁aerob	-12685
▁aihee	-12686
▁aikur	-12687
▁aitur	-12688
▁algor	-12689
▁altam	-12690
▁andes	-12691
▁anger	-12692
▁anmar	-12693
▁annek	-12694
▁arjas	-12695
▁arley	-12696
▁comeb	-12697
▁ecker	-12698
▁edell	-12699
▁eijuu	-12700
▁euran	-12701
▁hanat	-12702
▁heter	-12703
▁hihna	-12704
▁härmä	-12705
▁iakko	-12706
▁iekka	-12707
▁iiker	-12708
▁iinej	-12709
▁ilvis	-12710
▁iusaa	-12711
▁kakka	-12712
▁kammo	-12713
▁knech	-12714
▁kosme	-12715
▁kuisk	-12716
▁lahke	-12717
▁lanch	-12718
▁lapas	-12719
▁nakki	-12720
▁nilkk	-12721
▁näppä	-12722
▁näytt	-12723
▁offey	-12724
▁olkut	-12725
▁outaa	-12726
▁plodi	-12727
▁pullo	-12728
▁rjala	-12729
▁ronor	-12730
▁ryant	-12731
▁sitoa	-12732
▁steba	-12733
▁tarmo	-12734
▁toivu	-12735
▁tomaa	-12736
▁trasb	-12737
▁uerto	-12738
▁uiska	-12739
▁ulkka	-12740
▁ullah	-12741
▁umput	-12742
▁uolan	-12743
▁urmio	-12744
▁uulok	-12745
▁uutav	-12746
▁vanto	-12747
▁vents	-12748
▁ömpel	-12749
▁öykkä	-12750
▁öytyy	-12751
LI	-12752
UO	-12753
nb	-12754
uz	-12755
ás	-12756
▁É	-12757
▁м	-12758
bbi	-12759
con	-12760
flo	-12761
iju	-12762
kes	-12763
lek	-12764
lom	-12765
mak	-12766
mez	-12767
pel	-12768
plä	-12769
vea	-12770
viv	-12771
zar	-12772
ång	-12773
▁(9	-12774
▁CR	-12775
▁DS	-12776
▁KL	-12777
▁SJ	-12778
▁Up	-12779
▁dj	-12780
▁fe	-12781
▁öf	-12782
▁на	-12783
ence	-12784
okki	-12785
▁(10	-12786
▁0,1	-12787
▁225	-12788
▁3,4	-12789
▁370	-12790
▁7-6	-12791
▁Aje	-12792
▁Cél	-12793
▁DDR	-12794
▁Duo	-12795
▁Gen	-12796
▁Ilo	-12797
▁JEF	-12798
▁JHL	-12799
▁JVG	-12800
▁Jää	-12801
▁Kah	-12802
▁Ken	-12803
▁Kyr	-12804
▁Lux	-12805
▁MLB	-12806
▁Oas	-12807
▁Pea	-12808
▁Pis	-12809
▁Ray	-12810
▁Sri	-12811
▁TEM	-12812
▁Uta	-12813
▁YTK	-12814
▁deo	-12815
▁eol	-12816
▁erz	-12817
▁gan	-12818
▁gil	-12819
▁hlo	-12820
▁hup	-12821
▁igg	-12822
▁lyp	-12823
▁mol	-12824
▁neb	-12825
▁osf	-12826
▁qui	-12827
▁rug	-12828
▁spo	-12829
▁uat	-12830
▁uvo	-12831
▁zzy	-12832
▁Arke	-12833
▁Bale	-12834
▁Bent	-12835
▁Cale	-12836
▁Cast	-12837
▁Cori	-12838
▁Cort	-12839
▁Dora	-12840
▁Huff	-12841
▁Lips	-12842
▁Maar	-12843
▁Mack	-12844
▁Math	-12845
▁Oosa	-12846
▁Radc	-12847
▁Rice	-12848
▁Ritc	-12849
▁Rosb	-12850
▁Sham	-12851
▁Stad	-12852
▁Tort	-12853
▁Ursa	-12854
▁Vaar	-12855
▁Vaha	-12856
▁Winf	-12857
▁aame	-12858
▁aapi	-12859
▁acia	-12860
▁aida	-12861
▁aido	-12862
▁aipe	-12863
▁ajaj	-12864
▁ajal	-12865
▁ardo	-12866
▁asis	-12867
▁assu	-12868
▁atam	-12869
▁bile	-12870
▁edge	-12871
▁edot	-12872
▁egen	-12873
▁ehta	-12874
▁eida	-12875
▁elsi	-12876
▁eppu	-12877
▁eres	-12878
▁erne	-12879
▁hard	-12880
▁head	-12881
▁hear	-12882
▁huul	-12883
▁icke	-12884
▁ieet	-12885
▁inea	-12886
▁ippi	-12887
▁jang	-12888
▁koni	-12889
▁krav	-12890
▁late	-12891
▁laue	-12892
▁leep	-12893
▁lena	-12894
▁lier	-12895
▁läpä	-12896
▁mado	-12897
▁meet	-12898
▁mine	-12899
▁odig	-12900
▁ohol	-12901
▁olap	-12902
▁ollu	-12903
▁olov	-12904
▁omeh	-12905
▁onde	-12906
▁oyer	-12907
▁pisi	-12908
▁rako	-12909
▁reek	-12910
▁reve	-12911
▁rier	-12912
▁rupe	-12913
▁ruua	-12914
▁seik	-12915
▁siit	-12916
▁ssää	-12917
▁tiva	-12918
▁täis	-12919
▁ujau	-12920
▁usch	-12921
▁uumo	-12922
▁uver	-12923
▁ušev	-12924
▁verb	-12925
▁viev	-12926
▁vitu	-12927
▁ynch	-12928
▁äkke	-12929
▁Grönf	-12930
▁Hints	-12931
▁Konkr	-12932
▁Monde	-12933
▁Nivel	-12934
▁Range	-12935
▁Reich	-12936
▁Ronni	-12937
▁Rönnb	-12938
▁Rönnh	-12939
▁Terva	-12940
▁aasto	-12941
▁aikar	-12942
▁aipal	-12943
▁aivio	-12944
▁alamy	-12945
▁aliba	-12946
▁allaa	-12947
▁ampan	-12948
▁andar	-12949
▁anity	-12950
▁ankit	-12951
▁armor	-12952
▁artut	-12953
▁assel	-12954
▁auhaa	-12955
▁auhua	-12956
▁austi	-12957
▁eippo	-12958
▁eitot	-12959
▁ellik	-12960
▁ellov	-12961
▁enett	-12962
▁ertun	-12963
▁esäku	-12964
▁fence	-12965
▁idesz	-12966
▁iinat	-12967
▁iipik	-12968
▁iitos	-12969
▁insul	-12970
▁intta	-12971
▁ippos	-12972
▁isemp	-12973
▁istai	-12974
▁istro	-12975
▁iukaa	-12976
▁kamar	-12977
▁kannu	-12978
▁kelle	-12979
▁kenno	-12980
▁kirch	-12981
▁kummo	-12982
▁kuulo	-12983
▁lakka	-12984
▁lampu	-12985
▁lanka	-12986
▁lauto	-12987
▁lieme	-12988
▁livel	-12989
▁mehua	-12990
▁murro	-12991
▁napit	-12992
▁nuken	-12993
▁oloni	-12994
▁ommel	-12995
▁ontro	-12996
▁oomer	-12997
▁oonat	-12998
▁orkka	-12999
▁orval	-13000
▁oskia	-13001
▁otima	-13002
▁otshi	-13003
▁parra	-13004
▁pilvi	-13005
▁ramme	-13006
▁rassa	-13007
▁regon	-13008
▁riana	-13009
▁rient	-13010
▁rigož	-13011
▁riita	-13012
▁rimpu	-13013
▁ripsi	-13014
▁rshad	-13015
▁siivu	-13016
▁sämpy	-13017
▁tajie	-13018
▁teadf	-13019
▁tinno	-13020
▁tottu	-13021
▁tuppa	-13022
▁turko	-13023
▁ugano	-13024
▁uhmak	-13025
▁ukkah	-13026
▁ulssi	-13027
▁uoksa	-13028
▁urtis	-13029
▁vihar	-13030
▁yttäj	-13031
▁álaga	-13032
▁ähety	-13033
ai	-13034
ij	-13035
jl	-13036
jâ	-13037
uf	-13038
yl	-13039
ро	-13040
▁ó	-13041
▁д	-13042
deh	-13043
eau	-13044
elo	-13045
itt	-13046
jân	-13047
lei	-13048
mmi	-13049
nef	-13050
omb	-13051
ros	-13052
ugh	-13053
uul	-13054
vek	-13055
yer	-13056
▁-1	-13057
▁-3	-13058
▁1/	-13059
▁5:	-13060
▁Aq	-13061
▁If	-13062
▁MD	-13063
▁På	-13064
▁Ve	-13065
▁gg	-13066
▁iC	-13067
▁sS	-13068
▁yj	-13069
ilux	-13070
iteb	-13071
jerf	-13072
uija	-13073
urst	-13074
▁(2)	-13075
▁101	-13076
▁102	-13077
▁111	-13078
▁144	-13079
▁3,8	-13080
▁33.	-13081
▁4,4	-13082
▁470	-13083
▁720	-13084
▁77,	-13085
▁And	-13086
▁Bub	-13087
▁CDC	-13088
▁CNA	-13089
▁COP	-13090
▁Cle	-13091
▁Dol	-13092
▁Gos	-13093
▁Guy	-13094
▁IDF	-13095
▁ISS	-13096
▁Ina	-13097
▁Kob	-13098
▁Kos	-13099
▁Kup	-13100
▁MLL	-13101
▁May	-13102
▁Mie	-13103
▁Nur	-13104
▁Pub	-13105
▁RTL	-13106
▁Rie	-13107
▁SRV	-13108
▁Sao	-13109
▁Shi	-13110
▁Soi	-13111
▁Suv	-13112
▁Tia	-13113
▁Uzb	-13114
▁Who	-13115
▁abb	-13116
▁afe	-13117
▁cup	-13118
▁fes	-13119
▁hic	-13120
▁iny	-13121
▁iön	-13122
▁jie	-13123
▁kye	-13124
▁ndi	-13125
▁ndu	-13126
▁nig	-13127
▁pee	-13128
▁pii	-13129
▁pno	-13130
▁rej	-13131
▁rod	-13132
▁roh	-13133
▁usr	-13134
▁yrö	-13135
▁äij	-13136
▁äsä	-13137
▁Baum	-13138
▁Bert	-13139
▁Edvi	-13140
▁Even	-13141
▁Gazp	-13142
▁Grey	-13143
▁Haya	-13144
▁Kaut	-13145
▁Koch	-13146
▁Koru	-13147
▁Lumo	-13148
▁Malt	-13149
▁Melb	-13150
▁Neea	-13151
▁Owen	-13152
▁Rams	-13153
▁Ritz	-13154
▁Rota	-13155
▁Stat	-13156
▁Stig	-13157
▁Swan	-13158
▁Todd	-13159
▁Tolo	-13160
▁abri	-13161
▁acka	-13162
▁agua	-13163
▁ahja	-13164
▁ahla	-13165
▁aikk	-13166
▁aldo	-13167
▁aleb	-13168
▁amon	-13169
▁anuc	-13170
▁arku	-13171
▁arre	-13172
▁asso	-13173
▁atio	-13174
▁avie	-13175
▁aymo	-13176
▁edag	-13177
▁elby	-13178
▁elor	-13179
▁erhi	-13180
▁gang	-13181
▁hani	-13182
▁hawk	-13183
▁homm	-13184
▁hälv	-13185
▁idge	-13186
▁iefs	-13187
▁ieru	-13188
▁iila	-13189
▁iltu	-13190
▁inci	-13191
▁ipit	-13192
▁ipon	-13193
▁irot	-13194
▁iter	-13195
▁itko	-13196
▁iuas	-13197
▁izza	-13198
▁jost	-13199
▁kann	-13200
▁kete	-13201
▁kuki	-13202
▁lanc	-13203
▁ller	-13204
▁lomp	-13205
▁lone	-13206
▁läps	-13207
▁maaj	-13208
▁melo	-13209
▁nkoo	-13210
▁nurm	-13211
▁olos	-13212
▁oncé	-13213
▁oniq	-13214
▁oros	-13215
▁otox	-13216
▁oumi	-13217
▁pand	-13218
▁pros	-13219
▁raiv	-13220
▁raot	-13221
▁repu	-13222
▁riff	-13223
▁rike	-13224
▁romi	-13225
▁ruis	-13226
▁ssuo	-13227
▁summ	-13228
▁ttiä	-13229
▁täpö	-13230
▁uleå	-13231
▁umpu	-13232
▁uner	-13233
▁urho	-13234
▁urpo	-13235
▁uvas	-13236
▁yrhö	-13237
▁yövä	-13238
▁änky	-13239
▁ärmä	-13240
▁ökkä	-13241
▁ölni	-13242
▁öyvä	-13243
▁Djerf	-13244
▁Jumbo	-13245
▁Kermi	-13246
▁Kirmu	-13247
▁Kisso	-13248
▁Korih	-13249
▁Kumpi	-13250
▁Mondo	-13251
▁Monza	-13252
▁Oprah	-13253
▁Ralph	-13254
▁Riste	-13255
▁Sadat	-13256
▁aakao	-13257
▁adura	-13258
▁aerod	-13259
▁agmar	-13260
▁ahama	-13261
▁aitis	-13262
▁aitti	-13263
▁alttu	-13264
▁alvez	-13265
▁amolo	-13266
▁andor	-13267
▁andri	-13268
▁anina	-13269
▁arkut	-13270
▁arrer	-13271
▁askie	-13272
▁biteb	-13273
▁buumi	-13274
▁eanne	-13275
▁earma	-13276
▁edric	-13277
▁efner	-13278
▁ehner	-13279
▁eitos	-13280
▁eline	-13281
▁endez	-13282
▁entur	-13283
▁eonor	-13284
▁ettur	-13285
▁helme	-13286
▁ialue	-13287
▁idjân	-13288
▁ienes	-13289
▁iinas	-13290
▁ilkko	-13291
▁illon	-13292
▁ityst	-13293
▁iukas	-13294
▁iulis	-13295
▁karke	-13296
▁karvi	-13297
▁keiso	-13298
▁kitar	-13299
▁kraat	-13300
▁kramp	-13301
▁kurvi	-13302
▁kuuse	-13303
▁ladno	-13304
▁lasti	-13305
▁lille	-13306
▁linev	-13307
▁listo	-13308
▁loker	-13309
▁loosi	-13310
▁maita	-13311
▁nistr	-13312
▁oduul	-13313
▁olker	-13314
▁omeon	-13315
▁ontev	-13316
▁ooney	-13317
▁order	-13318
▁orrel	-13319
▁ossit	-13320
▁ottia	-13321
▁pilar	-13322
▁popin	-13323
▁ramer	-13324
▁rapsu	-13325
▁rauto	-13326
▁renda	-13327
▁rough	-13328
▁rüger	-13329
▁salin	-13330
▁sinko	-13331
▁soija	-13332
▁stoim	-13333
▁säkki	-13334
▁track	-13335
▁ttend	-13336
▁tuhki	-13337
▁tupak	-13338
▁turbo	-13339
▁uente	-13340
▁ufvan	-13341
▁uikku	-13342
▁uiske	-13343
▁ulviv	-13344
▁ummut	-13345
▁uneen	-13346
▁uplan	-13347
▁urton	-13348
▁ustom	-13349
▁vetur	-13350
▁vivah	-13351
▁vurst	-13352
▁worth	-13353
▁ärnef	-13354
▁ärpäs	-13355
▁äytet	-13356
▁önkit	-13357
AJ	-13358
HK	-13359
Ka	-13360
UK	-13361
Vo	-13362
ez	-13363
ré	-13364
sö	-13365
xi	-13366
▁â	-13367
▁Ž	-13368
▁а	-13369
MKY	-13370
gel	-13371
ird	-13372
mut	-13373
pan	-13374
ppö	-13375
rug	-13376
uhe	-13377
vie	-13378
vik	-13379
zel	-13380
▁07	-13381
▁DN	-13382
▁LA	-13383
▁Qa	-13384
▁SB	-13385
▁gy	-13386
▁åt	-13387
▁104	-13388
▁116	-13389
▁117	-13390
▁143	-13391
▁290	-13392
▁32.	-13393
▁380	-13394
▁390	-13395
▁4,2	-13396
▁4,8	-13397
▁420	-13398
▁5-7	-13399
▁72,	-13400
▁Aam	-13401
▁Ark	-13402
▁Auk	-13403
▁Avi	-13404
▁BKT	-13405
▁Caf	-13406
▁Des	-13407
▁Dor	-13408
▁Fua	-13409
▁Fut	-13410
▁Ikä	-13411
▁KPV	-13412
▁Kap	-13413
▁Kid	-13414
▁Laj	-13415
▁Lan	-13416
▁Nis	-13417
▁Not	-13418
▁Nou	-13419
▁Now	-13420
▁Ryy	-13421
▁Syö	-13422
▁TAC	-13423
▁TVO	-13424
▁Tah	-13425
▁Tea	-13426
▁UKK	-13427
▁Vih	-13428
▁YLE	-13429
▁als	-13430
▁aux	-13431
▁cat	-13432
▁exi	-13433
▁fax	-13434
▁fro	-13435
▁kiä	-13436
▁kog	-13437
▁lca	-13438
▁lro	-13439
▁naj	-13440
▁nuh	-13441
▁nui	-13442
▁ood	-13443
▁oog	-13444
▁otš	-13445
▁rsk	-13446
▁say	-13447
▁seo	-13448
▁säi	-13449
▁tig	-13450
▁tsu	-13451
▁tök	-13452
▁Aito	-13453
▁Arno	-13454
▁Arva	-13455
▁Bing	-13456
▁Body	-13457
▁Bush	-13458
▁Colb	-13459
▁Colt	-13460
▁Crui	-13461
▁Deep	-13462
▁Erva	-13463
▁Giul	-13464
▁Jarl	-13465
▁Karj	-13466
▁Katt	-13467
▁Kero	-13468
▁Lamp	-13469
▁Lise	-13470
▁Liuh	-13471
▁Maca	-13472
▁Mand	-13473
▁Maxi	-13474
▁Merz	-13475
▁Mess	-13476
▁Mita	-13477
▁NCAP	-13478
▁Nate	-13479
▁Oopp	-13480
▁Orte	-13481
▁Pata	-13482
▁Rash	-13483
▁Read	-13484
▁Regi	-13485
▁Risi	-13486
▁Taur	-13487
▁Thun	-13488
▁Torp	-13489
▁aatt	-13490
▁acha	-13491
▁ados	-13492
▁ahed	-13493
▁ahne	-13494
▁aihi	-13495
▁aisy	-13496
▁alfa	-13497
▁alho	-13498
▁alum	-13499
▁alut	-13500
▁amel	-13501
▁anab	-13502
▁anda	-13503
▁aron	-13504
▁asly	-13505
▁atku	-13506
▁bara	-13507
▁dino	-13508
▁edar	-13509
▁elod	-13510
▁epsu	-13511
▁ergo	-13512
▁erko	-13513
▁erni	-13514
▁ersa	-13515
▁estr	-13516
▁etos	-13517
▁eyer	-13518
▁feld	-13519
▁hden	-13520
▁heer	-13521
▁iCap	-13522
▁ianl	-13523
▁idal	-13524
▁ielu	-13525
▁ihka	-13526
▁iken	-13527
▁ilmo	-13528
▁ilmu	-13529
▁imea	-13530
▁imuk	-13531
▁ines	-13532
▁irnu	-13533
▁itso	-13534
▁ivol	-13535
▁ivul	-13536
▁kers	-13537
▁krik	-13538
▁ksik	-13539
▁kuru	-13540
▁latt	-13541
▁lesk	-13542
▁loju	-13543
▁mper	-13544
▁nika	-13545
▁nnam	-13546
▁nore	-13547
▁nouk	-13548
▁oiju	-13549
▁onea	-13550
▁onya	-13551
▁opel	-13552
▁redi	-13553
▁rott	-13554
▁rton	-13555
▁sSKA	-13556
▁sais	-13557
▁saum	-13558
▁skis	-13559
▁taju	-13560
▁taud	-13561
▁tiot	-13562
▁tost	-13563
▁tube	-13564
▁tyle	-13565
▁udso	-13566
▁uier	-13567
▁uigi	-13568
▁unut	-13569
▁user	-13570
▁ushk	-13571
▁uull	-13572
▁visa	-13573
▁ymin	-13574
▁ymmä	-13575
▁ähdä	-13576
▁äihä	-13577
▁ölin	-13578
▁Baumg	-13579
▁Hardy	-13580
▁Hilux	-13581
▁Hinku	-13582
▁Jukar	-13583
▁Karri	-13584
▁Kauma	-13585
▁Kiiru	-13586
▁Lumme	-13587
▁Mikha	-13588
▁Minaj	-13589
▁Myers	-13590
▁Nitsh	-13591
▁Nuija	-13592
▁Röngä	-13593
▁Shifa	-13594
▁Tohma	-13595
▁Torni	-13596
▁Welch	-13597
▁Wirtz	-13598
▁aasio	-13599
▁aavid	-13600
▁ainuv	-13601
▁aisel	-13602
▁aiski	-13603
▁aisla	-13604
▁aivai	-13605
▁ajist	-13606
▁alkin	-13607
▁alsam	-13608
▁amtid	-13609
▁andic	-13610
▁ansik	-13611
▁antim	-13612
▁antos	-13613
▁appel	-13614
▁apsah	-13615
▁arnev	-13616
▁astan	-13617
▁awast	-13618
▁berde	-13619
▁ellas	-13620
▁eltas	-13621
▁endes	-13622
▁enera	-13623
▁eside	-13624
▁esine	-13625
▁filma	-13626
▁hattu	-13627
▁idier	-13628
▁ietou	-13629
▁iilaa	-13630
▁iipai	-13631
▁iitis	-13632
▁ikkee	-13633
▁ildur	-13634
▁ilppu	-13635
▁imppu	-13636
▁inski	-13637
▁jauhe	-13638
▁jauho	-13639
▁kaare	-13640
▁kassi	-13641
▁kikka	-13642
▁kimpu	-13643
▁kisoi	-13644
▁konnu	-13645
▁kouru	-13646
▁kätis	-13647
▁kömmä	-13648
▁liino	-13649
▁lossy	-13650
▁louho	-13651
▁metso	-13652
▁moitu	-13653
▁mytro	-13654
▁nujak	-13655
▁nummi	-13656
▁ockas	-13657
▁ohvel	-13658
▁olina	-13659
▁ollah	-13660
▁oltin	-13661
▁ommej	-13662
▁onder	-13663
▁onski	-13664
▁ookos	-13665
▁ooley	-13666
▁ostet	-13667
▁pakki	-13668
▁peuro	-13669
▁puhee	-13670
▁rador	-13671
▁rinki	-13672
▁rissa	-13673
▁rossf	-13674
▁ruyne	-13675
▁rynnä	-13676
▁salla	-13677
▁sanan	-13678
▁sanee	-13679
▁satum	-13680
▁setel	-13681
▁siper	-13682
▁surmi	-13683
▁trong	-13684
▁tukun	-13685
▁tupsu	-13686
▁tyles	-13687
▁uenne	-13688
▁uitsi	-13689
▁ukkia	-13690
▁ullaa	-13691
▁usero	-13692
▁uudut	-13693
▁viine	-13694
DE	-13695
MC	-13696
kt	-13697
mw	-13698
wb	-13699
zj	-13700
ер	-13701
ли	-13702
ASS	-13703
ash	-13704
blu	-13705
ela	-13706
pei	-13707
rak	-13708
rir	-13709
teå	-13710
tif	-13711
tol	-13712
usk	-13713
▁CZ	-13714
▁DJ	-13715
▁Gü	-13716
▁IA	-13717
▁Ji	-13718
▁Lä	-13719
▁MO	-13720
▁MX	-13721
▁PH	-13722
▁RC	-13723
▁SI	-13724
▁UM	-13725
▁Un	-13726
▁Zo	-13727
▁го	-13728
ssel	-13729
uare	-13730
umaj	-13731
▁109	-13732
▁126	-13733
▁132	-13734
▁146	-13735
▁176	-13736
▁34.	-13737
▁440	-13738
▁5,6	-13739
▁58.	-13740
▁6,4	-13741
▁60.	-13742
▁62,	-13743
▁73,	-13744
▁76,	-13745
▁80.	-13746
▁Cos	-13747
▁Dec	-13748
▁Eck	-13749
▁FDP	-13750
▁Fed	-13751
▁Fis	-13752
▁Get	-13753
▁Hav	-13754
▁Ile	-13755
▁Jay	-13756
▁Käy	-13757
▁Myk	-13758
▁Nai	-13759
▁Nau	-13760
▁Ote	-13761
▁PÄÄ	-13762
▁RIA	-13763
▁Rol	-13764
▁Rot	-13765
▁Rud	-13766
▁SAS	-13767
▁SUI	-13768
▁Saf	-13769
▁See	-13770
▁Usa	-13771
▁Vas	-13772
▁Whe	-13773
▁bor	-13774
▁ead	-13775
▁eci	-13776
▁ehj	-13777
▁hmy	-13778
▁iya	-13779
▁jne	-13780
▁mee	-13781
▁mpe	-13782
▁nse	-13783
▁ntt	-13784
▁onb	-13785
▁pik	-13786
▁rku	-13787
▁sdp	-13788
▁urb	-13789
▁yly	-13790
▁äns	-13791
▁Aste	-13792
▁Bamb	-13793
▁Base	-13794
▁Café	-13795
▁Camd	-13796
▁Cowb	-13797
▁Etup	-13798
▁Gaze	-13799
▁Gill	-13800
▁Glau	-13801
▁Half	-13802
▁Jovi	-13803
▁Kilo	-13804
▁Kinz	-13805
▁Kong	-13806
▁Kort	-13807
▁Köpi	-13808
▁Märy	-13809
▁NCAA	-13810
▁Pura	-13811
▁Ratc	-13812
▁Reed	-13813
▁Rise	-13814
▁Rist	-13815
▁Rusi	-13816
▁Secu	-13817
▁Seva	-13818
▁Shap	-13819
▁Shop	-13820
▁Sten	-13821
▁Sver	-13822
▁Tran	-13823
▁Wass	-13824
▁Watk	-13825
▁aaga	-13826
▁adde	-13827
▁adja	-13828
▁aher	-13829
▁aiso	-13830
▁ajav	-13831
▁akit	-13832
▁akne	-13833
▁alid	-13834
▁alva	-13835
▁amib	-13836
▁anet	-13837
▁anev	-13838
▁anhi	-13839
▁anik	-13840
▁asha	-13841
▁ause	-13842
▁ašar	-13843
▁buum	-13844
▁dith	-13845
▁edne	-13846
▁eedi	-13847
▁eese	-13848
▁elez	-13849
▁elii	-13850
▁elis	-13851
▁elki	-13852
▁elot	-13853
▁elua	-13854
▁elve	-13855
▁epsä	-13856
▁erei	-13857
▁etas	-13858
▁etre	-13859
▁filz	-13860
▁gent	-13861
▁gina	-13862
▁haku	-13863
▁hamu	-13864
▁heid	-13865
▁hove	-13866
▁iere	-13867
▁iett	-13868
▁ilaa	-13869
▁inem	-13870
▁ipun	-13871
▁irpa	-13872
▁isak	-13873
▁isäk	-13874
▁jong	-13875
▁juju	-13876
▁kele	-13877
▁kove	-13878
▁kylt	-13879
▁kyte	-13880
▁laid	-13881
▁lane	-13882
▁lenn	-13883
▁llia	-13884
▁miah	-13885
▁nave	-13886
▁newt	-13887
▁newy	-13888
▁nicu	-13889
▁ntto	-13890
▁nytk	-13891
▁oand	-13892
▁oard	-13893
▁ocky	-13894
▁ogel	-13895
▁ohjo	-13896
▁oile	-13897
▁olhi	-13898
▁olod	-13899
▁onba	-13900
▁ontu	-13901
▁otat	-13902
▁oudu	-13903
▁outl	-13904
▁ovik	-13905
▁paju	-13906
▁park	-13907
▁reiä	-13908
▁rest	-13909
▁rics	-13910
▁ritt	-13911
▁roën	-13912
▁rrow	-13913
▁russ	-13914
▁sday	-13915
▁selä	-13916
▁stab	-13917
▁sykk	-13918
▁tali	-13919
▁tron	-13920
▁ubut	-13921
▁uher	-13922
▁uoje	-13923
▁uppu	-13924
▁urab	-13925
▁urce	-13926
▁vihe	-13927
▁viro	-13928
▁vuok	-13929
▁wald	-13930
▁wamy	-13931
▁woke	-13932
▁zoff	-13933
▁ängy	-13934
▁önnq	-13935
▁šetš	-13936
▁Adamu	-13937
▁Askel	-13938
▁Bryan	-13939
▁Bukar	-13940
▁Byram	-13941
▁Campu	-13942
▁Cleve	-13943
▁Corve	-13944
▁Cromw	-13945
▁Kauhu	-13946
▁Livel	-13947
▁Manti	-13948
▁Meiju	-13949
▁Minna	-13950
▁Monto	-13951
▁Oivio	-13952
▁Rahko	-13953
▁Ryynä	-13954
▁TACMS	-13955
▁Tappo	-13956
▁Teflo	-13957
▁Thunb	-13958
▁Thüri	-13959
▁Törhö	-13960
▁Uumaj	-13961
▁aanii	-13962
▁aasin	-13963
▁aaver	-13964
▁abina	-13965
▁ahrir	-13966
▁ainuu	-13967
▁allia	-13968
▁alsar	-13969
▁amstr	-13970
▁antar	-13971
▁antsi	-13972
▁arkun	-13973
▁asvio	-13974
▁atsia	-13975
▁aumaa	-13976
▁auvol	-13977
▁efteå	-13978
▁eisah	-13979
▁elmaa	-13980
▁elodi	-13981
▁entuc	-13982
▁eppon	-13983
▁erena	-13984
▁ergen	-13985
▁evkur	-13986
▁harav	-13987
▁hoksa	-13988
▁hormo	-13989
▁iensi	-13990
▁iffer	-13991
▁iihko	-13992
▁iiras	-13993
▁iirus	-13994
▁inssi	-13995
▁inuhe	-13996
▁ismit	-13997
▁kaart	-13998
▁kampa	-13999
▁kanni	-14000
▁keppi	-14001
▁kepti	-14002
▁kilve	-14003
▁kokka	-14004
▁kokko	-14005
▁konna	-14006
▁konve	-14007
▁laidu	-14008
▁lapio	-14009
▁lasik	-14010
▁later	-14011
▁liemi	-14012
▁liigo	-14013
▁linnu	-14014
▁lunas	-14015
▁luter	-14016
▁miset	-14017
▁montu	-14018
▁mökit	-14019
▁natri	-14020
▁nesco	-14021
▁norsu	-14022
▁oisto	-14023
▁olmes	-14024
▁ongor	-14025
▁onnel	-14026
▁ottei	-14027
▁oukka	-14028
▁quare	-14029
▁ragon	-14030
▁ramma	-14031
▁ranzé	-14032
▁reeno	-14033
▁reiti	-14034
▁rihma	-14035
▁rosvo	-14036
▁roëni	-14037
▁ränni	-14038
▁savul	-14039
▁short	-14040
▁sitta	-14041
▁soppa	-14042
▁sorto	-14043
▁sotur	-14044
▁stiin	-14045
▁stuva	-14046
▁tigma	-14047
▁treep	-14048
▁trike	-14049
▁tulli	-14050
▁tunki	-14051
▁tölki	-14052
▁uikki	-14053
▁ulvah	-14054
▁ulvii	-14055
▁umina	-14056
▁uoski	-14057
▁uotar	-14058
▁ursti	-14059
▁uuilo	-14060
▁uulle	-14061
▁uumer	-14062
▁uupum	-14063
▁vilkk	-14064
▁vormu	-14065
▁yeong	-14066
▁ällik	-14067
▁äpylä	-14068
▁ärinä	-14069
▁ärsky	-14070
▁äster	-14071
▁üssel	-14072
BK	-14073
ED	-14074
Pa	-14075
TT	-14076
kh	-14077
xe	-14078
ен	-14079
▁à	-14080
▁è	-14081
gat	-14082
gog	-14083
hei	-14084
jev	-14085
kir	-14086
kön	-14087
lim	-14088
mid	-14089
mig	-14090
osp	-14091
pid	-14092
pil	-14093
pär	-14094
rik	-14095
ris	-14096
tec	-14097
tik	-14098
udu	-14099
uty	-14100
vor	-14101
ärp	-14102
üll	-14103
▁08	-14104
▁AG	-14105
▁DR	-14106
▁HK	-14107
▁Hä	-14108
▁KC	-14109
▁LK	-14110
▁MI	-14111
▁PE	-14112
▁RF	-14113
▁SY	-14114
▁UL	-14115
▁cy	-14116
▁iw	-14117
▁mv	-14118
inar	-14119
nesk	-14120
zaka	-14121
▁1/2	-14122
▁136	-14123
▁142	-14124
▁147	-14125
▁156	-14126
▁168	-14127
▁177	-14128
▁195	-14129
▁4,7	-14130
▁4-0	-14131
▁415	-14132
▁5,7	-14133
▁5-1	-14134
▁68,	-14135
▁69,	-14136
▁79,	-14137
▁8,7	-14138
▁999	-14139
▁AKP	-14140
▁ALS	-14141
▁BRI	-14142
▁Boy	-14143
▁Dov	-14144
▁Dow	-14145
▁Duu	-14146
▁Ege	-14147
▁Fat	-14148
▁Gas	-14149
▁Gym	-14150
▁Iho	-14151
▁Kui	-14152
▁Liu	-14153
▁Luc	-14154
▁Mak	-14155
▁Mor	-14156
▁Nap	-14157
▁Ora	-14158
▁Pål	-14159
▁Pör	-14160
▁Rav	-14161
▁Rem	-14162
▁She	-14163
▁Six	-14164
▁Spa	-14165
▁Tot	-14166
▁Tri	-14167
▁WWE	-14168
▁adh	-14169
▁afg	-14170
▁bas	-14171
▁ege	-14172
▁gai	-14173
▁hny	-14174
▁iod	-14175
▁irs	-14176
▁joj	-14177
▁kow	-14178
▁kpl	-14179
▁köy	-14180
▁laz	-14181
▁lej	-14182
▁mou	-14183
▁nob	-14184
▁nyy	-14185
▁oas	-14186
▁oge	-14187
▁orc	-14188
▁osé	-14189
▁pec	-14190
▁rle	-14191
▁rma	-14192
▁rri	-14193
▁röl	-14194
▁töy	-14195
▁uar	-14196
▁uwa	-14197
▁ött	-14198
▁öyl	-14199
▁Baba	-14200
▁Coca	-14201
▁Dach	-14202
▁Disa	-14203
▁Geog	-14204
▁Gilb	-14205
▁Gina	-14206
▁Grad	-14207
▁Haag	-14208
▁Hepo	-14209
▁Jaro	-14210
▁Jont	-14211
▁Kond	-14212
▁Lahj	-14213
▁Lina	-14214
▁Magi	-14215
▁Neca	-14216
▁Nenä	-14217
▁Nove	-14218
▁Närp	-14219
▁Ohra	-14220
▁Puri	-14221
▁Reis	-14222
▁Reit	-14223
▁René	-14224
▁Ride	-14225
▁Roda	-14226
▁Roma	-14227
▁Shah	-14228
▁Step	-14229
▁Tiff	-14230
▁Tuah	-14231
▁Type	-14232
▁Törm	-14233
▁Uska	-14234
▁Vita	-14235
▁Wade	-14236
▁Wise	-14237
▁Yaho	-14238
▁Zito	-14239
▁aahu	-14240
▁aave	-14241
▁addy	-14242
▁agel	-14243
▁agom	-14244
▁ahon	-14245
▁aith	-14246
▁akom	-14247
▁alek	-14248
▁aloo	-14249
▁alot	-14250
▁amet	-14251
▁anhu	-14252
▁ants	-14253
▁anya	-14254
▁anza	-14255
▁aolo	-14256
▁aomi	-14257
▁arav	-14258
▁arol	-14259
▁asar	-14260
▁asco	-14261
▁asit	-14262
▁auff	-14263
▁aygu	-14264
▁aštš	-14265
▁dida	-14266
▁dini	-14267
▁eBro	-14268
▁eace	-14269
▁eesa	-14270
▁egor	-14271
▁ehmä	-14272
▁ekee	-14273
▁elai	-14274
▁emaj	-14275
▁enko	-14276
▁erry	-14277
▁eung	-14278
▁geor	-14279
▁haas	-14280
▁hkun	-14281
▁hold	-14282
▁holo	-14283
▁huik	-14284
▁iepa	-14285
▁ilki	-14286
▁ilom	-14287
▁inda	-14288
▁iren	-14289
▁iron	-14290
▁irra	-14291
▁irre	-14292
▁isse	-14293
▁jats	-14294
▁jumb	-14295
▁kasa	-14296
▁kenk	-14297
▁körö	-14298
▁ladu	-14299
▁lesb	-14300
▁liis	-14301
▁ljas	-14302
▁lope	-14303
▁läty	-14304
▁mehu	-14305
▁nana	-14306
▁naya	-14307
▁nsai	-14308
▁nsig	-14309
▁nälk	-14310
▁ogba	-14311
▁olje	-14312
▁omel	-14313
▁omes	-14314
▁omie	-14315
▁oote	-14316
▁orse	-14317
▁ovac	-14318
▁owel	-14319
▁pera	-14320
▁riik	-14321
▁rohl	-14322
▁rong	-14323
▁rran	-14324
▁rtur	-14325
▁savi	-14326
▁sohv	-14327
▁sose	-14328
▁stun	-14329
▁suri	-14330
▁teit	-14331
▁than	-14332
▁tkim	-14333
▁tolt	-14334
▁trog	-14335
▁tyre	-14336
▁ucid	-14337
▁unca	-14338
▁urta	-14339
▁usik	-14340
▁uuru	-14341
▁uven	-14342
▁vita	-14343
▁volt	-14344
▁wede	-14345
▁wive	-14346
▁yppö	-14347
▁yytt	-14348
▁äljä	-14349
▁ärsä	-14350
▁öfgr	-14351
▁öide	-14352
▁öttö	-14353
▁Abbey	-14354
▁Abdel	-14355
▁Airbu	-14356
▁Arman	-14357
▁Czaka	-14358
▁Delon	-14359
▁Güzel	-14360
▁Haart	-14361
▁Haiti	-14362
▁Hodor	-14363
▁Keula	-14364
▁Kouri	-14365
▁Minea	-14366
▁Minni	-14367
▁Nublu	-14368
▁Patti	-14369
▁Qaida	-14370
▁Ramza	-14371
▁Ranka	-14372
▁Reyno	-14373
▁Rosti	-14374
▁Rubin	-14375
▁Salak	-14376
▁Usain	-14377
▁Vivek	-14378
▁Welle	-14379
▁aaper	-14380
▁aasuk	-14381
▁addik	-14382
▁akuli	-14383
▁alium	-14384
▁alppa	-14385
▁ampsa	-14386
▁andal	-14387
▁ankel	-14388
▁anski	-14389
▁antro	-14390
▁armas	-14391
▁ashin	-14392
▁asuri	-14393
▁atami	-14394
▁atsos	-14395
▁atura	-14396
▁auhoi	-14397
▁auhot	-14398
▁autoj	-14399
▁azard	-14400
▁draft	-14401
▁elleb	-14402
▁ellet	-14403
▁elust	-14404
▁emira	-14405
▁emper	-14406
▁enzie	-14407
▁eonid	-14408
▁erhee	-14409
▁eries	-14410
▁ermaa	-14411
▁eskos	-14412
▁estra	-14413
▁exico	-14414
▁hampa	-14415
▁hinto	-14416
▁hivel	-14417
▁ibero	-14418
▁ienee	-14419
▁iimes	-14420
▁iipah	-14421
▁iirun	-14422
▁illaa	-14423
▁illem	-14424
▁ingis	-14425
▁iptum	-14426
▁ittas	-14427
▁korku	-14428
▁kouku	-14429
▁kämpä	-14430
▁laani	-14431
▁lamme	-14432
▁lasie	-14433
▁lastu	-14434
▁lenno	-14435
▁lesbo	-14436
▁lisäk	-14437
▁louna	-14438
▁läisk	-14439
▁magne	-14440
▁muusi	-14441
▁mykkä	-14442
▁napin	-14443
▁napis	-14444
▁nauta	-14445
▁nissä	-14446
▁nouta	-14447
▁nuiji	-14448
▁näppi	-14449
▁oipil	-14450
▁okkel	-14451
▁ollec	-14452
▁oplop	-14453
▁otelo	-14454
▁ounty	-14455
▁ousku	-14456
▁pulah	-14457
▁rakon	-14458
▁risci	-14459
▁roadw	-14460
▁rohmu	-14461
▁romss	-14462
▁ryyni	-14463
▁räppi	-14464
▁sauru	-14465
▁sikar	-14466
▁siker	-14467
▁sitel	-14468
▁suuta	-14469
▁taaka	-14470
▁taiko	-14471
▁taita	-14472
▁takel	-14473
▁talvi	-14474
▁tampo	-14475
▁tankk	-14476
▁timul	-14477
▁tuiki	-14478
▁tukea	-14479
▁tunei	-14480
▁ulkin	-14481
▁ullak	-14482
▁ulloi	-14483
▁umara	-14484
▁unkku	-14485
▁usine	-14486
▁ustam	-14487
▁uurni	-14488
▁verro	-14489
▁wanse	-14490
▁yykkö	-14491
▁äisky	-14492
▁ånesk	-14493
▁ölkki	-14494
▁örkkö	-14495
▁šokki	-14496
EI	-14497
Ha	-14498
OM	-14499
WD	-14500
ej	-14501
gk	-14502
nn	-14503
ou	-14504
sc	-14505
ík	-14506
ín	-14507
öt	-14508
gré	-14509
lov	-14510
meg	-14511
ono	-14512
pen	-14513
rab	-14514
ria	-14515
ron	-14516
uel	-14517
uts	-14518
zuh	-14519
zyk	-14520
èle	-14521
øre	-14522
▁7)	-14523
▁AY	-14524
▁BT	-14525
▁FT	-14526
▁GL	-14527
▁Gj	-14528
▁HP	-14529
▁KV	-14530
▁Lö	-14531
▁NI	-14532
▁RO	-14533
▁Sk	-14534
▁Zi	-14535
▁dv	-14536
▁uq	-14537
▁zu	-14538
▁ко	-14539
▁ни	-14540
iate	-14541
rime	-14542
▁1-4	-14543
▁106	-14544
▁118	-14545
▁122	-14546
▁163	-14547
▁166	-14548
▁178	-14549
▁2-6	-14550
▁215	-14551
▁265	-14552
▁35.	-14553
▁37.	-14554
▁4,1	-14555
▁41.	-14556
▁5-4	-14557
▁580	-14558
▁6,2	-14559
▁62.	-14560
▁74.	-14561
▁85,	-14562
▁850	-14563
▁AEA	-14564
▁AIU	-14565
▁Alo	-14566
▁Art	-14567
▁CAS	-14568
▁Coz	-14569
▁DeC	-14570
▁Def	-14571
▁EIT	-14572
▁EPA	-14573
▁ETK	-14574
▁Edv	-14575
▁Emp	-14576
▁Fia	-14577
▁GBT	-14578
▁GER	-14579
▁GRU	-14580
▁HBL	-14581
▁IBU	-14582
▁IoT	-14583
▁Iro	-14584
▁Kay	-14585
▁Kit	-14586
▁Kub	-14587
▁NNA	-14588
▁NTB	-14589
▁Nev	-14590
▁OAJ	-14591
▁Rel	-14592
▁Rex	-14593
▁Sub	-14594
▁Syl	-14595
▁Uro	-14596
▁Ust	-14597
▁Yah	-14598
▁Zal	-14599
▁aci	-14600
▁adl	-14601
▁asp	-14602
▁big	-14603
▁cal	-14604
▁cob	-14605
▁dar	-14606
▁dli	-14607
▁dow	-14608
▁dro	-14609
▁exu	-14610
▁flo	-14611
▁hym	-14612
▁jug	-14613
▁lax	-14614
▁lof	-14615
▁lug	-14616
▁lös	-14617
▁mad	-14618
▁nga	-14619
▁nue	-14620
▁pix	-14621
▁rez	-14622
▁tac	-14623
▁töm	-14624
▁väy	-14625
▁ähö	-14626
▁Alep	-14627
▁Behr	-14628
▁Beka	-14629
▁Bilb	-14630
▁Care	-14631
▁Cena	-14632
▁Cody	-14633
▁Cons	-14634
▁Cyan	-14635
▁Dubl	-14636
▁Duud	-14637
▁Eyes	-14638
▁Füll	-14639
▁Garr	-14640
▁Gosl	-14641
▁Gray	-14642
▁Grip	-14643
▁Hend	-14644
▁Hera	-14645
▁Herl	-14646
▁Hihh	-14647
▁Kiru	-14648
▁Liev	-14649
▁Luin	-14650
▁Mura	-14651
▁Nata	-14652
▁Nixo	-14653
▁Reet	-14654
▁Riha	-14655
▁Rima	-14656
▁Ripo	-14657
▁Roos	-14658
▁Rund	-14659
▁Saad	-14660
▁Saka	-14661
▁Sera	-14662
▁Yang	-14663
▁achu	-14664
▁acin	-14665
▁ahel	-14666
▁aiHa	-14667
▁alav	-14668
▁alba	-14669
▁alco	-14670
▁alib	-14671
▁alje	-14672
▁ally	-14673
▁amoo	-14674
▁anuk	-14675
▁asai	-14676
▁astm	-14677
▁auré	-14678
▁avut	-14679
▁ayan	-14680
▁bird	-14681
▁bock	-14682
▁comp	-14683
▁cool	-14684
▁diil	-14685
▁ecil	-14686
▁eige	-14687
▁eiti	-14688
▁eleb	-14689
▁entc	-14690
▁epte	-14691
▁etoo	-14692
▁euli	-14693
▁eyde	-14694
▁good	-14695
▁gård	-14696
▁hloé	-14697
▁iday	-14698
▁ider	-14699
▁ihvi	-14700
▁iipe	-14701
▁ilei	-14702
▁iles	-14703
▁ilsk	-14704
▁inge	-14705
▁inku	-14706
▁inus	-14707
▁ipah	-14708
▁ipas	-14709
▁iral	-14710
▁iril	-14711
▁irko	-14712
▁irne	-14713
▁ispa	-14714
▁itzb	-14715
▁iver	-14716
▁jung	-14717
▁junt	-14718
▁kijä	-14719
▁koop	-14720
▁krob	-14721
▁krug	-14722
▁laak	-14723
▁lafk	-14724
▁lapa	-14725
▁lare	-14726
▁lemi	-14727
▁lich	-14728
▁limu	-14729
▁litk	-14730
▁lumo	-14731
▁lvis	-14732
▁läss	-14733
▁main	-14734
▁mood	-14735
▁nahi	-14736
▁nink	-14737
▁nska	-14738
▁näär	-14739
▁oila	-14740
▁okos	-14741
▁olea	-14742
▁olek	-14743
▁oliv	-14744
▁olph	-14745
▁olut	-14746
▁ommo	-14747
▁onco	-14748
▁onst	-14749
▁ordo	-14750
▁orsi	-14751
▁orth	-14752
▁ossi	-14753
▁outi	-14754
▁owal	-14755
▁pirt	-14756
▁rack	-14757
▁rada	-14758
▁rakt	-14759
▁rame	-14760
▁reis	-14761
▁roft	-14762
▁roud	-14763
▁rsti	-14764
▁sgré	-14765
▁shak	-14766
▁shor	-14767
▁sign	-14768
▁suma	-14769
▁tase	-14770
▁tedt	-14771
▁tent	-14772
▁tesi	-14773
▁tisi	-14774
▁toss	-14775
▁ttal	-14776
▁tøre	-14777
▁ubje	-14778
▁ugos	-14779
▁uidu	-14780
▁uksu	-14781
▁ulok	-14782
▁ultt	-14783
▁urtu	-14784
▁uset	-14785
▁utel	-14786
▁uyck	-14787
▁vant	-14788
▁vide	-14789
▁visi	-14790
▁wang	-14791
▁weet	-14792
▁ytyn	-14793
▁Åker	-14794
▁äggl	-14795
▁äisä	-14796
▁äkin	-14797
▁ärnu	-14798
▁äviä	-14799
▁äysk	-14800
▁ögle	-14801
▁ölkk	-14802
▁önnr	-14803
▁öyhe	-14804
▁ühel	-14805
▁Aarte	-14806
▁Beurl	-14807
▁Crocu	-14808
▁Gibra	-14809
▁Gjert	-14810
▁Heart	-14811
▁Keila	-14812
▁Kirit	-14813
▁Kongi	-14814
▁Magic	-14815
▁Mizuh	-14816
▁Openi	-14817
▁Rahka	-14818
▁Rashf	-14819
▁Tapsa	-14820
▁Thorg	-14821
▁Verme	-14822
▁Viher	-14823
▁Virve	-14824
▁Walta	-14825
▁aakut	-14826
▁aatat	-14827
▁aguay	-14828
▁aiher	-14829
▁ailio	-14830
▁akaro	-14831
▁akava	-14832
▁akent	-14833
▁alamo	-14834
▁alvar	-14835
▁alvin	-14836
▁ammio	-14837
▁ankas	-14838
▁appor	-14839
▁artio	-14840
▁artis	-14841
▁arvis	-14842
▁atkos	-14843
▁attio	-14844
▁aueta	-14845
▁aukun	-14846
▁auski	-14847
▁avast	-14848
▁denti	-14849
▁einer	-14850
▁eipur	-14851
▁elleh	-14852
▁enere	-14853
▁entio	-14854
▁errer	-14855
▁ertif	-14856
▁erzog	-14857
▁eslaa	-14858
▁etkut	-14859
▁eulan	-14860
▁hatun	-14861
▁horts	-14862
▁huuli	-14863
▁idley	-14864
▁ienss	-14865
▁iente	-14866
▁ierra	-14867
▁ieruk	-14868
▁iinap	-14869
▁ikoni	-14870
▁imara	-14871
▁imitr	-14872
▁iraal	-14873
▁itara	-14874
▁itkar	-14875
▁jukka	-14876
▁karne	-14877
▁konsu	-14878
▁ksist	-14879
▁kulho	-14880
▁laiho	-14881
▁lakon	-14882
▁lakto	-14883
▁leury	-14884
▁lillä	-14885
▁linic	-14886
▁linno	-14887
▁lisko	-14888
▁loona	-14889
▁meppi	-14890
▁muura	-14891
▁napsu	-14892
▁narsi	-14893
▁nauli	-14894
▁navak	-14895
▁nekke	-14896
▁neutr	-14897
▁nipis	-14898
▁nitra	-14899
▁nodar	-14900
▁nurkk	-14901
▁nälkä	-14902
▁occia	-14903
▁oitam	-14904
▁olkku	-14905
▁ompik	-14906
▁ontis	-14907
▁oppet	-14908
▁opran	-14909
▁orata	-14910
▁oraya	-14911
▁orina	-14912
▁orost	-14913
▁ostan	-14914
▁perma	-14915
▁range	-14916
▁rangé	-14917
▁rappe	-14918
▁rauma	-14919
▁renna	-14920
▁reuma	-14921
▁rkady	-14922
▁rlean	-14923
▁rokki	-14924
▁rouba	-14925
▁rouva	-14926
▁rugge	-14927
▁rupat	-14928
▁rynäs	-14929
▁sauvo	-14930
▁seini	-14931
▁selon	-14932
▁sieto	-14933
▁siive	-14934
▁silak	-14935
▁sivel	-14936
▁soudu	-14937
▁steta	-14938
▁swana	-14939
▁sääti	-14940
▁tarkk	-14941
▁tarra	-14942
▁temme	-14943
▁tempp	-14944
▁tolpp	-14945
▁tosta	-14946
▁tramp	-14947
▁tulki	-14948
▁turki	-14949
▁typpi	-14950
▁uihke	-14951
▁ultse	-14952
▁uslai	-14953
▁uuter	-14954
▁vaivo	-14955
▁vihka	-14956
▁vilku	-14957
▁ännää	-14958
),	-14959
/7	-14960
DL	-14961
FT	-14962
NK	-14963
SI	-14964
cl	-14965
gt	-14966
jj	-14967
ns	-14968
uv	-14969
ël	-14970
ко	-14971
▁<	-14972
▁ł	-14973
▁б	-14974
▁з	-14975
Agr	-14976
bbe	-14977
ben	-14978
bon	-14979
dad	-14980
ddi	-14981
gne	-14982
hor	-14983
ind	-14984
kis	-14985
nez	-14986
osk	-14987
red	-14988
reg	-14989
uas	-14990
ups	-14991
ved	-14992
voi	-14993
wer	-14994
yaq	-14995
ñoz	-14996
▁+4	-14997
▁01	-14998
▁8)	-14999
▁CH	-15000
▁JI	-15001
▁MH	-15002
▁PO	-15003
▁Rö	-15004
▁TI	-15005
▁UC	-15006
▁VK	-15007
▁ić	-15008
▁iš	-15009
▁sf	-15010
▁íg	-15011
▁ón	-15012
erek	-15013
rant	-15014
▁-20	-15015
▁0,9	-15016
▁1-5	-15017
▁113	-15018
▁133	-15019
▁172	-15020
▁174	-15021
▁205	-15022
▁227	-15023
▁259	-15024
▁275	-15025
▁375	-15026
▁430	-15027
▁45.	-15028
▁5-2	-15029
▁51.	-15030
▁55.	-15031
▁6,7	-15032
▁67,	-15033
▁96.	-15034
▁Aly	-15035
▁Ane	-15036
▁Apu	-15037
▁Bet	-15038
▁DeG	-15039
▁Dik	-15040
▁Eka	-15041
▁FIS	-15042
▁Fry	-15043
▁HVK	-15044
▁Hab	-15045
▁Hea	-15046
▁Hit	-15047
▁Häi	-15048
▁Ira	-15049
▁Kak	-15050
▁LTU	-15051
▁Leb	-15052
▁Len	-15053
▁Lil	-15054
▁Lys	-15055
▁MTS	-15056
▁Mid	-15057
▁Mug	-15058
▁NHC	-15059
▁Neb	-15060
▁Ned	-15061
▁OPS	-15062
▁Ovi	-15063
▁Pop	-15064
▁RSF	-15065
▁Rab	-15066
▁Rox	-15067
▁Rys	-15068
▁SML	-15069
▁Sov	-15070
▁Sut	-15071
▁Ted	-15072
▁Tut	-15073
▁Uni	-15074
▁Utö	-15075
▁VTV	-15076
▁Vin	-15077
▁Wul	-15078
▁alf	-15079
▁anU	-15080
▁bah	-15081
▁cel	-15082
▁doc	-15083
▁eby	-15084
▁eku	-15085
▁ext	-15086
▁has	-15087
▁iar	-15088
▁ieg	-15089
▁ilf	-15090
▁iät	-15091
▁jør	-15092
▁leb	-15093
▁led	-15094
▁maf	-15095
▁nab	-15096
▁pad	-15097
▁pus	-15098
▁rau	-15099
▁rta	-15100
▁ted	-15101
▁tku	-15102
▁tlk	-15103
▁ueb	-15104
▁utt	-15105
▁vap	-15106
▁vob	-15107
▁yni	-15108
▁ård	-15109
▁ömi	-15110
▁šer	-15111
▁Adid	-15112
▁Aiko	-15113
▁Aila	-15114
▁Aita	-15115
▁Aliz	-15116
▁Arne	-15117
▁Belf	-15118
▁Both	-15119
▁Bran	-15120
▁Cava	-15121
▁Cona	-15122
▁Cool	-15123
▁Corr	-15124
▁Habi	-15125
▁Haro	-15126
▁Kovi	-15127
▁Kupi	-15128
▁Lviv	-15129
▁MacD	-15130
▁Mask	-15131
▁Mato	-15132
▁Niro	-15133
▁Noir	-15134
▁Olse	-15135
▁Ormo	-15136
▁Pist	-15137
▁Posa	-15138
▁Riad	-15139
▁RoPo	-15140
▁Rodg	-15141
▁Säpo	-15142
▁TASS	-15143
▁Tara	-15144
▁Trag	-15145
▁Uura	-15146
▁Vivi	-15147
▁Vowl	-15148
▁Ward	-15149
▁Wikl	-15150
▁Wins	-15151
▁aekw	-15152
▁ahak	-15153
▁ajul	-15154
▁aluz	-15155
▁amos	-15156
▁anal	-15157
▁anca	-15158
▁apat	-15159
▁apet	-15160
▁apis	-15161
▁aran	-15162
▁arza	-15163
▁asal	-15164
▁ashi	-15165
▁ated	-15166
▁ator	-15167
▁avil	-15168
▁avuk	-15169
▁brav	-15170
▁buss	-15171
▁care	-15172
▁duon	-15173
▁egem	-15174
▁ehtä	-15175
▁elda	-15176
▁elec	-15177
▁ells	-15178
▁emän	-15179
▁enpä	-15180
▁entr	-15181
▁enty	-15182
▁epot	-15183
▁ergb	-15184
▁erku	-15185
▁erna	-15186
▁erst	-15187
▁etan	-15188
▁game	-15189
▁goot	-15190
▁hatc	-15191
▁hepo	-15192
▁hiom	-15193
▁iang	-15194
▁iedd	-15195
▁iese	-15196
▁ievo	-15197
▁ilpu	-15198
▁ilus	-15199
▁imus	-15200
▁inco	-15201
▁intt	-15202
▁iogo	-15203
▁ipri	-15204
▁ipul	-15205
▁irma	-15206
▁iros	-15207
▁ivia	-15208
▁izzj	-15209
▁izzo	-15210
▁kaja	-15211
▁keel	-15212
▁konv	-15213
▁koru	-15214
▁kuis	-15215
▁kuud	-15216
▁lade	-15217
▁laks	-15218
▁latu	-15219
▁leks	-15220
▁like	-15221
▁lkin	-15222
▁llas	-15223
▁lose	-15224
▁lter	-15225
▁läjä	-15226
▁mage	-15227
▁mase	-15228
▁meka	-15229
▁mirn	-15230
▁more	-15231
▁motr	-15232
▁nars	-15233
▁nett	-15234
▁nuha	-15235
▁odeo	-15236
▁okit	-15237
▁oler	-15238
▁olji	-15239
▁onda	-15240
▁ondi	-15241
▁onif	-15242
▁onig	-15243
▁onio	-15244
▁onny	-15245
▁onut	-15246
▁oodi	-15247
▁oone	-15248
▁oora	-15249
▁osif	-15250
▁ostr	-15251
▁otko	-15252
▁ouda	-15253
▁owen	-15254
▁paat	-15255
▁pant	-15256
▁pard	-15257
▁pihi	-15258
▁raan	-15259
▁ragm	-15260
▁rakk	-15261
▁rato	-15262
▁reak	-15263
▁refe	-15264
▁reid	-15265
▁rift	-15266
▁rigi	-15267
▁rkad	-15268
▁rkti	-15269
▁roas	-15270
▁room	-15271
▁rote	-15272
▁rtem	-15273
▁ruuk	-15274
▁sado	-15275
▁sali	-15276
▁shaw	-15277
▁sima	-15278
▁sioi	-15279
▁skog	-15280
▁step	-15281
▁stik	-15282
▁stos	-15283
▁stäm	-15284
▁sulf	-15285
▁suna	-15286
▁take	-15287
▁taru	-15288
▁tens	-15289
▁tisk	-15290
▁töre	-15291
▁tört	-15292
▁uice	-15293
▁uiko	-15294
▁ukal	-15295
▁umph	-15296
▁unch	-15297
▁uolu	-15298
▁urak	-15299
▁urem	-15300
▁ushb	-15301
▁utro	-15302
▁uuno	-15303
▁uñoz	-15304
▁vinh	-15305
▁ways	-15306
▁witz	-15307
▁yise	-15308
▁ylvi	-15309
▁ypäl	-15310
▁äger	-15311
▁ämpi	-15312
▁ättö	-15313
▁äämi	-15314
▁örni	-15315
▁Carpe	-15316
▁Comba	-15317
▁Comic	-15318
▁Cozme	-15319
▁Einar	-15320
▁Enyaq	-15321
▁Gambi	-15322
▁Hilal	-15323
▁Horky	-15324
▁Jippo	-15325
▁Katse	-15326
▁Kirgi	-15327
▁Komso	-15328
▁Konti	-15329
▁Korko	-15330
▁Korso	-15331
▁Kouta	-15332
▁Magaz	-15333
▁Maire	-15334
▁Malac	-15335
▁Mouri	-15336
▁Nigel	-15337
▁Osman	-15338
▁PAMin	-15339
▁Pisci	-15340
▁Rapid	-15341
▁Remig	-15342
▁Siira	-15343
▁Stina	-15344
▁Tarto	-15345
▁Tempp	-15346
▁Tenhu	-15347
▁Tiusa	-15348
▁Varsa	-15349
▁Wineh	-15350
▁Women	-15351
▁Xinhu	-15352
▁aadui	-15353
▁aavio	-15354
▁adine	-15355
▁ahter	-15356
▁ailak	-15357
▁akkul	-15358
▁alara	-15359
▁aleni	-15360
▁alino	-15361
▁almas	-15362
▁altar	-15363
▁ammak	-15364
▁ancel	-15365
▁antal	-15366
▁arcía	-15367
▁ardio	-15368
▁armei	-15369
▁arski	-15370
▁askio	-15371
▁askit	-15372
▁asman	-15373
▁aspia	-15374
▁atero	-15375
▁auraa	-15376
▁buffe	-15377
▁elmen	-15378
▁eltto	-15379
▁emmel	-15380
▁enkar	-15381
▁ennig	-15382
▁ensas	-15383
▁entso	-15384
▁eodor	-15385
▁ertil	-15386
▁erton	-15387
▁escal	-15388
▁etano	-15389
▁haaro	-15390
▁hakki	-15391
▁hteen	-15392
▁hukka	-15393
▁härsk	-15394
▁iakon	-15395
▁ickel	-15396
▁iinal	-15397
▁iisai	-15398
▁iiske	-15399
▁iivai	-15400
▁innui	-15401
▁intuh	-15402
▁issio	-15403
▁isson	-15404
▁isèle	-15405
▁itkaa	-15406
▁itter	-15407
▁kansi	-15408
▁katra	-15409
▁katve	-15410
▁kauti	-15411
▁kista	-15412
▁kompl	-15413
▁korpe	-15414
▁koski	-15415
▁kuiva	-15416
▁kulla	-15417
▁kummi	-15418
▁kumpa	-15419
▁kuoro	-15420
▁kuper	-15421
▁lanna	-15422
▁laton	-15423
▁licia	-15424
▁loppi	-15425
▁lossi	-15426
▁lyttä	-15427
▁läppä	-15428
▁memor	-15429
▁merta	-15430
▁nalja	-15431
▁nalta	-15432
▁napos	-15433
▁nosta	-15434
▁notke	-15435
▁nuiva	-15436
▁nyppi	-15437
▁nyrkk	-15438
▁olski	-15439
▁omell	-15440
▁ondor	-15441
▁onial	-15442
▁ontol	-15443
▁oppoo	-15444
▁orjah	-15445
▁orups	-15446
▁osmar	-15447
▁ounci	-15448
▁overo	-15449
▁pisku	-15450
▁puiko	-15451
▁riima	-15452
▁rityi	-15453
▁rivak	-15454
▁roAgr	-15455
▁roiss	-15456
▁rouhe	-15457
▁rässä	-15458
▁sammu	-15459
▁sanah	-15460
▁selän	-15461
▁shopp	-15462
▁sianl	-15463
▁siene	-15464
▁sitoo	-15465
▁sooda	-15466
▁sorre	-15467
▁sotku	-15468
▁soutu	-15469
▁ssefa	-15470
▁stads	-15471
▁suole	-15472
▁sählä	-15473
▁säädi	-15474
▁teesk	-15475
▁temma	-15476
▁tiikk	-15477
▁torvi	-15478
▁treme	-15479
▁turve	-15480
▁tyyni	-15481
▁ukkur	-15482
▁ulkon	-15483
▁uopol	-15484
▁urkun	-15485
▁utših	-15486
▁uukki	-15487
▁uulon	-15488
▁uunis	-15489
▁uuras	-15490
▁vaate	-15491
▁vinha	-15492
▁wiate	-15493
▁íguez	-15494
1,	-15495
CC	-15496
CS	-15497
JS	-15498
ON	-15499
RY	-15500
TE	-15501
VA	-15502
VE	-15503
aw	-15504
cs	-15505
ec	-15506
fr	-15507
of	-15508
ås	-15509
ís	-15510
да	-15511
ин	-15512
ла	-15513
но	-15514
ны	-15515
ст	-15516
▁ë	-15517
▁ч	-15518
LLO	-15519
bil	-15520
dez	-15521
dom	-15522
dow	-15523
eny	-15524
esh	-15525
hdi	-15526
iam	-15527
ikh	-15528
juk	-15529
lic	-15530
llö	-15531
mbi	-15532
mbu	-15533
myn	-15534
mär	-15535
nat	-15536
nel	-15537
nia	-15538
osf	-15539
rif	-15540
sak	-15541
tal	-15542
vei	-15543
íaz	-15544
ürk	-15545
▁--	-15546
▁-2	-15547
▁-4	-15548
▁4:	-15549
▁9-	-15550
▁AB	-15551
▁CX	-15552
▁DA	-15553
▁EA	-15554
▁Ep	-15555
▁Eq	-15556
▁IB	-15557
▁LC	-15558
▁LL	-15559
▁MK	-15560
▁Mk	-15561
▁Må	-15562
▁ON	-15563
▁RI	-15564
▁TA	-15565
▁TR	-15566
▁Tö	-15567
▁Xh	-15568
▁eq	-15569
▁iP	-15570
▁ló	-15571
▁pj	-15572
▁xy	-15573
▁yf	-15574
▁zi	-15575
▁§:	-15576
▁Ál	-15577
▁★★	-15578
bbie	-15579
umba	-15580
örkö	-15581
▁0-1	-15582
▁040	-15583
▁108	-15584
▁131	-15585
▁154	-15586
▁158	-15587
▁179	-15588
▁183	-15589
▁188	-15590
▁189	-15591
▁196	-15592
▁235	-15593
▁246	-15594
▁285	-15595
▁3,0	-15596
▁39.	-15597
▁4,3	-15598
▁4,6	-15599
▁4,9	-15600
▁416	-15601
▁46.	-15602
▁466	-15603
▁5,2	-15604
▁551	-15605
▁56.	-15606
▁560	-15607
▁6,3	-15608
▁6-8	-15609
▁625	-15610
▁7,1	-15611
▁74,	-15612
▁82,	-15613
▁9,2	-15614
▁950	-15615
▁970	-15616
▁Aco	-15617
▁Aid	-15618
▁Asf	-15619
▁Asi	-15620
▁Awa	-15621
▁Bah	-15622
▁Bou	-15623
▁But	-15624
▁Deb	-15625
▁Doo	-15626
▁ELA	-15627
▁ETA	-15628
▁Ema	-15629
▁Eni	-15630
▁FRA	-15631
▁Fär	-15632
▁HSY	-15633
▁Hic	-15634
▁Här	-15635
▁IOS	-15636
▁Juu	-15637
▁KHL	-15638
▁LDL	-15639
▁Loi	-15640
▁Mao	-15641
▁Mua	-15642
▁NEN	-15643
▁NHK	-15644
▁Nio	-15645
▁Nir	-15646
▁Nür	-15647
▁Ore	-15648
▁PPO	-15649
▁PVP	-15650
▁Pax	-15651
▁Pui	-15652
▁RBK	-15653
▁Ree	-15654
▁Ret	-15655
▁Rip	-15656
▁Roe	-15657
▁Roz	-15658
▁Ruo	-15659
▁SHL	-15660
▁SLL	-15661
▁SUO	-15662
▁SUV	-15663
▁Sew	-15664
▁Sud	-15665
▁Tex	-15666
▁Trö	-15667
▁Uju	-15668
▁Uos	-15669
▁Vox	-15670
▁WBA	-15671
▁Zac	-15672
▁Zug	-15673
▁anf	-15674
▁aty	-15675
▁aya	-15676
▁ayo	-15677
▁col	-15678
▁ecu	-15679
▁edf	-15680
▁eea	-15681
▁hku	-15682
▁hop	-15683
▁ift	-15684
▁ior	-15685
▁kno	-15686
▁kom	-15687
▁ksp	-15688
▁kta	-15689
▁meh	-15690
▁moz	-15691
▁oKP	-15692
▁oco	-15693
▁oft	-15694
▁ols	-15695
▁osh	-15696
▁oug	-15697
▁oão	-15698
▁pho	-15699
▁pöt	-15700
▁rao	-15701
▁rys	-15702
▁shu	-15703
▁tad	-15704
▁tyh	-15705
▁ucy	-15706
▁uhi	-15707
▁umo	-15708
▁urs	-15709
▁ušk	-15710
▁yam	-15711
▁ynö	-15712
▁you	-15713
▁yvi	-15714
▁Åsa	-15715
▁äry	-15716
▁Aden	-15717
▁Armf	-15718
▁Arpi	-15719
▁Baer	-15720
▁Bilt	-15721
▁Boat	-15722
▁Cafe	-15723
▁Cana	-15724
▁Cyri	-15725
▁Dela	-15726
▁Demi	-15727
▁Díaz	-15728
▁Eevi	-15729
▁Emho	-15730
▁Gabb	-15731
▁Golb	-15732
▁Hatc	-15733
▁Hick	-15734
▁Höjl	-15735
▁Jüri	-15736
▁Loeb	-15737
▁Lowe	-15738
▁Mast	-15739
▁Mati	-15740
▁Mehr	-15741
▁Mond	-15742
▁Moty	-15743
▁NMKY	-15744
▁Nare	-15745
▁Nero	-15746
▁Noor	-15747
▁Oili	-15748
▁Okko	-15749
▁Omeg	-15750
▁PALA	-15751
▁PaKa	-15752
▁Pate	-15753
▁Piru	-15754
▁Reck	-15755
▁Reip	-15756
▁Roth	-15757
▁Rush	-15758
▁Ruth	-15759
▁SJRY	-15760
▁Saag	-15761
▁Savi	-15762
▁Sieg	-15763
▁Siff	-15764
▁Solo	-15765
▁Soro	-15766
▁Syön	-15767
▁Tauo	-15768
▁Vihi	-15769
▁Vire	-15770
▁Wald	-15771
▁Webb	-15772
▁Weis	-15773
▁Wert	-15774
▁Witt	-15775
▁Your	-15776
▁aada	-15777
▁acco	-15778
▁agin	-15779
▁ahra	-15780
▁alak	-15781
▁alsi	-15782
▁ambo	-15783
▁amoa	-15784
▁amud	-15785
▁anaj	-15786
▁arek	-15787
▁arni	-15788
▁atch	-15789
▁atul	-15790
▁atur	-15791
▁avec	-15792
▁azze	-15793
▁biza	-15794
▁bohm	-15795
▁born	-15796
▁czyk	-15797
▁deep	-15798
▁deer	-15799
▁doro	-15800
▁down	-15801
▁eiko	-15802
▁eipa	-15803
▁eipi	-15804
▁eleh	-15805
▁elut	-15806
▁endz	-15807
▁enic	-15808
▁enso	-15809
▁erde	-15810
▁erez	-15811
▁erno	-15812
▁erri	-15813
▁erwa	-15814
▁esel	-15815
▁esha	-15816
▁eslo	-15817
▁etaf	-15818
▁etit	-15819
▁etsa	-15820
▁etut	-15821
▁evak	-15822
▁even	-15823
▁gend	-15824
▁gnes	-15825
▁hako	-15826
▁heis	-15827
▁hemo	-15828
▁hift	-15829
▁hima	-15830
▁hips	-15831
▁hood	-15832
▁iane	-15833
▁ickf	-15834
▁ieta	-15835
▁igen	-15836
▁iino	-15837
▁ilke	-15838
▁imel	-15839
▁imeo	-15840
▁inar	-15841
▁inic	-15842
▁iorg	-15843
▁ipin	-15844
▁irak	-15845
▁irtt	-15846
▁itka	-15847
▁iuka	-15848
▁ixin	-15849
▁jaon	-15850
▁jerg	-15851
▁keää	-15852
▁kola	-15853
▁konl	-15854
▁laht	-15855
▁lauo	-15856
▁lemp	-15857
▁lend	-15858
▁liig	-15859
▁lobb	-15860
▁loni	-15861
▁lric	-15862
▁lyko	-15863
▁maht	-15864
▁mara	-15865
▁masa	-15866
▁mole	-15867
▁märä	-15868
▁nich	-15869
▁niid	-15870
▁noma	-15871
▁noud	-15872
▁ntii	-15873
▁ocha	-15874
▁odar	-15875
▁odka	-15876
▁ogor	-15877
▁olot	-15878
▁ombe	-15879
▁opah	-15880
▁orri	-15881
▁orro	-15882
▁orts	-15883
▁osvo	-15884
▁ouli	-15885
▁ovaj	-15886
▁ovis	-15887
▁owie	-15888
▁pino	-15889
▁ppsa	-15890
▁pääm	-15891
▁rash	-15892
▁rave	-15893
▁rego	-15894
▁rene	-15895
▁reni	-15896
▁revi	-15897
▁rhea	-15898
▁rica	-15899
▁rine	-15900
▁rino	-15901
▁rowd	-15902
▁rund	-15903
▁sant	-15904
▁satu	-15905
▁segg	-15906
▁skan	-15907
▁sood	-15908
▁sovi	-15909
▁sper	-15910
▁ssoc	-15911
▁sund	-15912
▁synk	-15913
▁säät	-15914
▁sång	-15915
▁tacm	-15916
▁taff	-15917
▁talu	-15918
▁tamo	-15919
▁tomu	-15920
▁trak	-15921
▁tuum	-15922
▁uben	-15923
▁uffe	-15924
▁uhda	-15925
▁uipe	-15926
▁ulpa	-15927
▁ului	-15928
▁umul	-15929
▁umyn	-15930
▁vael	-15931
▁vana	-15932
▁vehr	-15933
▁vers	-15934
▁will	-15935
▁yisi	-15936
▁yrsy	-15937
▁ädeh	-15938
▁äisk	-15939
▁äkää	-15940
▁ärde	-15941
▁ärrä	-15942
▁äsäh	-15943
▁ätik	-15944
▁äävi	-15945
▁årdh	-15946
▁ökäl	-15947
▁öreg	-15948
▁öylä	-15949
▁Aarne	-15950
▁Abram	-15951
▁Apina	-15952
▁BRICS	-15953
▁Berlu	-15954
▁Bubka	-15955
▁Buffe	-15956
▁Cinci	-15957
▁Circu	-15958
▁Clipp	-15959
▁Dikta	-15960
▁Dolph	-15961
▁Gomez	-15962
▁Habib	-15963
▁Habit	-15964
▁Kaijo	-15965
▁Kervi	-15966
▁Kiera	-15967
▁Kirst	-15968
▁Kolpp	-15969
▁Kupla	-15970
▁Mahla	-15971
▁Mainz	-15972
▁Malka	-15973
▁Mular	-15974
▁Nakki	-15975
▁Nosto	-15976
▁Oasis	-15977
▁PALLO	-15978
▁Ranki	-15979
▁Riemu	-15980
▁Riida	-15981
▁Roder	-15982
▁Sipar	-15983
▁Swing	-15984
▁Tiira	-15985
▁Viesk	-15986
▁Visul	-15987
▁Vitto	-15988
▁Waltz	-15989
▁Weide	-15990
▁Wheel	-15991
▁Wilke	-15992
▁aasia	-15993
▁ahkin	-15994
▁ahven	-15995
▁ailas	-15996
▁ainua	-15997
▁aitaa	-15998
▁aitse	-15999
▁alsta	-16000
▁amaha	-16001
▁amari	-16002
▁ameso	-16003
▁anage	-16004
▁ancea	-16005
▁animo	-16006
▁ankku	-16007
▁antha	-16008
▁antri	-16009
▁appam	-16010
▁apsan	-16011
▁aroni	-16012
▁arsii	-16013
▁artha	-16014
▁arvuu	-16015
▁assie	-16016
▁astat	-16017
▁aukai	-16018
▁aurai	-16019
▁autas	-16020
▁bauer	-16021
▁carte	-16022
▁crant	-16023
▁dista	-16024
▁dvent	-16025
▁eclan	-16026
▁eerum	-16027
▁eilau	-16028
▁eippi	-16029
▁eisau	-16030
▁ekkal	-16031
▁ekker	-16032
▁elmah	-16033
▁emmen	-16034
▁encho	-16035
▁enkka	-16036
▁erger	-16037
▁ergey	-16038
▁erkel	-16039
▁ermes	-16040
▁ervas	-16041
▁eyeno	-16042
▁hamma	-16043
▁herru	-16044
▁huket	-16045
▁ielto	-16046
▁iimei	-16047
▁iipun	-16048
▁illas	-16049
▁inila	-16050
▁inklu	-16051
▁itker	-16052
▁iuski	-16053
▁jumpa	-16054
▁kaija	-16055
▁karju	-16056
▁kateu	-16057
▁kaust	-16058
▁kelau	-16059
▁kerke	-16060
▁kilpi	-16061
▁kimpp	-16062
▁kiosk	-16063
▁kirve	-16064
▁kisko	-16065
▁kuidu	-16066
▁kuohk	-16067
▁kuosi	-16068
▁kuske	-16069
▁kämme	-16070
▁kärki	-16071
▁kömpe	-16072
▁kömpi	-16073
▁laavi	-16074
▁larna	-16075
▁lauda	-16076
▁lease	-16077
▁leike	-16078
▁leuat	-16079
▁livah	-16080
▁lokki	-16081
▁lower	-16082
▁marjo	-16083
▁narut	-16084
▁natol	-16085
▁nimma	-16086
▁numer	-16087
▁offee	-16088
▁oitel	-16089
▁oivio	-16090
▁oksah	-16091
▁olini	-16092
▁oltti	-16093
▁omano	-16094
▁onkal	-16095
▁onker	-16096
▁onnej	-16097
▁orton	-16098
▁oskis	-16099
▁otero	-16100
▁otini	-16101
▁owler	-16102
▁pecia	-16103
▁raisk	-16104
▁revia	-16105
▁riipu	-16106
▁ringe	-16107
▁roduk	-16108
▁romit	-16109
▁rooke	-16110
▁rosse	-16111
▁rozde	-16112
▁rtama	-16113
▁rumpi	-16114
▁runko	-16115
▁ruoho	-16116
▁ruuti	-16117
▁ruuva	-16118
▁ruuvi	-16119
▁rypäl	-16120
▁rännf	-16121
▁sakea	-16122
▁sauno	-16123
▁shiba	-16124
▁siilo	-16125
▁skies	-16126
▁smith	-16127
▁sorro	-16128
▁spray	-16129
▁stadt	-16130
▁staur	-16131
▁steam	-16132
▁surev	-16133
▁sympa	-16134
▁tanki	-16135
▁tarpo	-16136
▁tasur	-16137
▁terli	-16138
▁torne	-16139
▁tride	-16140
▁trull	-16141
▁ttako	-16142
▁täplä	-16143
▁tökki	-16144
▁ubins	-16145
▁uentz	-16146
▁uitul	-16147
▁ukayo	-16148
▁ukkel	-16149
▁ummet	-16150
▁uuper	-16151
▁uusan	-16152
▁valke	-16153
▁velho	-16154
▁vilja	-16155
▁yyssö	-16156
▁yövär	-16157
▁Álvar	-16158
▁älkky	-16159
▁ännär	-16160
▁ärvel	-16161
▁äsken	-16162
+0	-16163
+3	-16164
..	-16165
BD	-16166
ET	-16167
FA	-16168
IT	-16169
JA	-16170
TC	-16171
VV	-16172
bä	-16173
jd	-16174
jt	-16175
yu	-16176
šk	-16177
žd	-16178
ре	-16179
▁Ø	-16180
▁õ	-16181
TOS	-16182
Von	-16183
akt	-16184
ane	-16185
arn	-16186
bak	-16187
bio	-16188
cor	-16189
ebe	-16190
erd	-16191
isb	-16192
jab	-16193
jun	-16194
kil	-16195
kku	-16196
kol	-16197
lag	-16198
let	-16199
mur	-16200
odg	-16201
oré	-16202
pir	-16203
pon	-16204
por	-16205
qui	-16206
rad	-16207
ral	-16208
rea	-16209
vil	-16210
väh	-16211
wan	-16212
yde	-16213
ysm	-16214
yst	-16215
öti	-16216
štš	-16217
žik	-16218
▁+2	-16219
▁-5	-16220
▁Ac	-16221
▁CP	-16222
▁Eu	-16223
▁FK	-16224
▁FM	-16225
▁FX	-16226
▁IP	-16227
▁JC	-16228
▁JD	-16229
▁JÄ	-16230
▁KI	-16231
▁Kd	-16232
▁MB	-16233
▁PL	-16234
▁RK	-16235
▁Ui	-16236
▁VA	-16237
▁XL	-16238
▁Xa	-16239
▁cl	-16240
▁tz	-16241
▁už	-16242
▁zy	-16243
▁Åb	-16244
gita	-16245
lumm	-16246
raiv	-16247
rotr	-16248
▁...	-16249
▁0-4	-16250
▁007	-16251
▁1,0	-16252
▁134	-16253
▁138	-16254
▁139	-16255
▁157	-16256
▁159	-16257
▁162	-16258
▁192	-16259
▁194	-16260
▁232	-16261
▁238	-16262
▁247	-16263
▁310	-16264
▁411	-16265
▁42.	-16266
▁43.	-16267
▁44.	-16268
▁473	-16269
▁48.	-16270
▁5,9	-16271
▁540	-16272
▁6,1	-16273
▁65.	-16274
▁660	-16275
▁68.	-16276
▁680	-16277
▁7-9	-16278
▁71,	-16279
▁75.	-16280
▁770	-16281
▁8,3	-16282
▁830	-16283
▁87,	-16284
▁870	-16285
▁911	-16286
▁ALA	-16287
▁ARD	-16288
▁ATT	-16289
▁AUT	-16290
▁Ano	-16291
▁CLE	-16292
▁CMI	-16293
▁Dem	-16294
▁EQE	-16295
▁Fid	-16296
▁HUS	-16297
▁Hon	-16298
▁Hub	-16299
▁IFA	-16300
▁ISU	-16301
▁JUO	-16302
▁Kie	-16303
▁Kod	-16304
▁Koz	-16305
▁Kro	-16306
▁Lod	-16307
▁Low	-16308
▁Löf	-16309
▁MMA	-16310
▁McE	-16311
▁Mix	-16312
▁Myy	-16313
▁Mél	-16314
▁Noa	-16315
▁OSA	-16316
▁Pön	-16317
▁RMC	-16318
▁Ril	-16319
▁Row	-16320
▁Ryn	-16321
▁SDF	-16322
▁SEY	-16323
▁SIS	-16324
▁SKS	-16325
▁SOK	-16326
▁SOS	-16327
▁Sex	-16328
▁Sid	-16329
▁Sih	-16330
▁Sär	-16331
▁UNI	-16332
▁Una	-16333
▁Vii	-16334
▁XVI	-16335
▁Xia	-16336
▁abs	-16337
▁aij	-16338
▁amb	-16339
▁bat	-16340
▁bul	-16341
▁bur	-16342
▁cic	-16343
▁cio	-16344
▁cop	-16345
▁cti	-16346
▁day	-16347
▁dii	-16348
▁dob	-16349
▁dpa	-16350
▁eco	-16351
▁enl	-16352
▁fig	-16353
▁gri	-16354
▁hey	-16355
▁hlö	-16356
▁hov	-16357
▁huh	-16358
▁hut	-16359
▁iee	-16360
▁jyr	-16361
▁kiT	-16362
▁kob	-16363
▁kre	-16364
▁lje	-16365
▁mix	-16366
▁mud	-16367
▁muk	-16368
▁nir	-16369
▁noy	-16370
▁nän	-16371
▁nök	-16372
▁oor	-16373
▁rkp	-16374
▁rul	-16375
▁sah	-16376
▁sna	-16377
▁tag	-16378
▁tax	-16379
▁tuj	-16380
▁vus	-16381
▁ylo	-16382
▁zio	-16383
▁äPS	-16384
▁ämi	-16385
▁äng	-16386
▁ärp	-16387
▁ärr	-16388
▁ökö	-16389
▁ADAC	-16390
▁Abel	-16391
▁Aija	-16392
▁Airf	-16393
▁Alvi	-16394
▁Auck	-16395
▁Aula	-16396
▁Azov	-16397
▁Bald	-16398
▁Bend	-16399
▁Boud	-16400
▁Calv	-16401
▁Camb	-16402
▁Canm	-16403
▁Carg	-16404
▁Cobb	-16405
▁Coco	-16406
▁Como	-16407
▁Cook	-16408
▁Dodg	-16409
▁Ecke	-16410
▁Edge	-16411
▁Eili	-16412
▁Enzo	-16413
▁Fabr	-16414
▁Fine	-16415
▁Focu	-16416
▁Foot	-16417
▁Foxx	-16418
▁Fuad	-16419
▁Gach	-16420
▁Gand	-16421
▁Geir	-16422
▁Ghar	-16423
▁Glor	-16424
▁Homs	-16425
▁Härö	-16426
▁Kihu	-16427
▁Kitu	-16428
▁Köyh	-16429
▁Lapp	-16430
▁Left	-16431
▁Lima	-16432
▁Lipa	-16433
▁Loko	-16434
▁Maje	-16435
▁Medi	-16436
▁Mila	-16437
▁Mino	-16438
▁Miri	-16439
▁Neal	-16440
▁Neel	-16441
▁Nitš	-16442
▁Niño	-16443
▁Noel	-16444
▁Nola	-16445
▁Norb	-16446
▁PHEV	-16447
▁Pene	-16448
▁PiPS	-16449
▁Poju	-16450
▁Raat	-16451
▁Rebe	-16452
▁Reki	-16453
▁Retz	-16454
▁Reyk	-16455
▁Rica	-16456
▁Riko	-16457
▁Rosi	-16458
▁STUK	-16459
▁Saja	-16460
▁Side	-16461
▁Siro	-16462
▁Song	-16463
▁Sora	-16464
▁Stav	-16465
▁Stop	-16466
▁Sysm	-16467
▁Tiaf	-16468
▁Tren	-16469
▁Tuch	-16470
▁Türk	-16471
▁Uimo	-16472
▁Ural	-16473
▁Uuni	-16474
▁Wien	-16475
▁Wiur	-16476
▁able	-16477
▁adas	-16478
▁adat	-16479
▁adez	-16480
▁aest	-16481
▁aget	-16482
▁aiga	-16483
▁ailo	-16484
▁akir	-16485
▁akwa	-16486
▁amda	-16487
▁anci	-16488
▁arli	-16489
▁arty	-16490
▁arva	-16491
▁asas	-16492
▁asca	-16493
▁asek	-16494
▁atha	-16495
▁atus	-16496
▁atvo	-16497
▁avoy	-16498
▁ayla	-16499
▁azio	-16500
▁bank	-16501
▁bull	-16502
▁burl	-16503
▁cont	-16504
▁eddy	-16505
▁ehey	-16506
▁ehni	-16507
▁elge	-16508
▁eltz	-16509
▁eluj	-16510
▁epto	-16511
▁epun	-16512
▁eret	-16513
▁esar	-16514
▁esii	-16515
▁etal	-16516
▁etch	-16517
▁etik	-16518
▁etil	-16519
▁eusz	-16520
▁evit	-16521
▁fine	-16522
▁ften	-16523
▁gini	-16524
▁glau	-16525
▁gnet	-16526
▁gola	-16527
▁gyir	-16528
▁hano	-16529
▁harm	-16530
▁haue	-16531
▁have	-16532
▁hiha	-16533
▁hode	-16534
▁hoke	-16535
▁häpe	-16536
▁iall	-16537
▁icky	-16538
▁idia	-16539
▁iela	-16540
▁ieri	-16541
▁iers	-16542
▁ietz	-16543
▁ietä	-16544
▁ilek	-16545
▁ilfv	-16546
▁ilov	-16547
▁imsa	-16548
▁imtš	-16549
▁inth	-16550
▁iolo	-16551
▁irty	-16552
▁itis	-16553
▁iuku	-16554
▁jäni	-16555
▁jørn	-16556
▁kano	-16557
▁karp	-16558
▁kiil	-16559
▁kika	-16560
▁kins	-16561
▁kitu	-16562
▁kkol	-16563
▁kole	-16564
▁korp	-16565
▁kors	-16566
▁krok	-16567
▁kura	-16568
▁kuve	-16569
▁kääj	-16570
▁laum	-16571
▁lepa	-16572
▁leps	-16573
▁lett	-16574
▁lies	-16575
▁lift	-16576
▁lins	-16577
▁lush	-16578
▁made	-16579
▁majo	-16580
▁mekt	-16581
▁moka	-16582
▁mold	-16583
▁mono	-16584
▁muni	-16585
▁muru	-16586
▁narr	-16587
▁nesl	-16588
▁ngro	-16589
▁niek	-16590
▁nipu	-16591
▁nivo	-16592
▁noby	-16593
▁novi	-16594
▁nudd	-16595
▁nuok	-16596
▁ohvi	-16597
▁oitt	-16598
▁ojui	-16599
▁ojuu	-16600
▁olvo	-16601
▁onsu	-16602
▁opsi	-16603
▁orak	-16604
[...]
