<unk>	0
<s>	0
</s>	0
en	-0
ta	-1
is	-2
in	-3
an	-4
▁k	-5
ll	-6
▁o	-7
tt	-8
sa	-9
si	-10
▁j	-11
va	-12
▁m	-13
▁p	-14
▁t	-15
ka	-16
it	-17
es	-18
el	-19
än	-20
er	-21
ut	-22
uo	-23
▁s	-24
▁h	-25
us	-26
ik	-27
▁v	-28
un	-29
▁e	-30
on	-31
al	-32
as	-33
ti	-34
▁l	-35
▁ja	-36
oi	-37
tä	-38
▁on	-39
il	-40
lla	-41
et	-42
ma	-43
▁a	-44
uk	-45
▁va	-46
li	-47
een	-48
ja	-49
os	-50
▁S	-51
ää	-52
▁n	-53
ra	-54
uu	-55
ttä	-56
▁K	-57
ist	-58
▁ta	-59
lle	-60
ul	-61
ko	-62
ar	-63
ki	-64
▁T	-65
ista	-66
te	-67
sä	-68
den	-69
mm	-70
▁M	-71
isi	-72
▁y	-73
▁ko	-74
aa	-75
tti	-76
▁jo	-77
▁H	-78
inen	-79
to	-80
llä	-81
ri	-82
▁P	-83
yö	-84
vat	-85
▁ka	-86
ksi	-87
vä	-88
▁mu	-89
ys	-90
▁si	-91
▁V	-92
yt	-93
ke	-94
le	-95
ur	-96
ks	-97
▁sa	-98
▁vi	-99
hd	-100
taa	-101
mi	-102
▁että	-103
vi	-104
pa	-105
▁L	-106
ei	-107
kaan	-108
ään	-109
kin	-110
▁ei	-111
uks	-112
ih	-113
▁A	-114
issa	-115
utta	-116
▁E	-117
isen	-118
▁se	-119
mp	-120
ku	-121
▁oli	-122
la	-123
▁J	-124
▁r	-125
äh	-126
ina	-127
uh	-128
assa	-129
essa	-130
jo	-131
▁N	-132
▁ma	-133
ie	-134
op	-135
taan	-136
▁ku	-137
▁ker	-138
▁R	-139
de	-140
yn	-141
im	-142
▁vuo	-143
▁en	-144
or	-145
ee	-146
ir	-147
tu	-148
▁hän	-149
är	-150
▁2	-151
unn	-152
▁O	-153
usta	-154
▁al	-155
ann	-156
ot	-157
itä	-158
uom	-159
▁I	-160
▁te	-161
ty	-162
esta	-163
kä	-164
▁to	-165
mä	-166
istä	-167
ia	-168
▁pää	-169
▁1	-170
ttu	-171
yös	-172
iin	-173
at	-174
ttel	-175
▁la	-176
jan	-177
van	-178
▁ole	-179
▁ra	-180
▁mukaan	-181
man	-182
maan	-183
oit	-184
äl	-185
▁kä	-186
yy	-187
▁tä	-188
ala	-189
asta	-190
▁po	-191
äi	-192
jä	-193
ika	-194
ossa	-195
llis	-196
▁-	-197
oin	-198
vät	-199
pp	-200
▁pa	-201
▁voi	-202
mis	-203
▁ha	-204
sia	-205
uol	-206
▁myös	-207
▁kes	-208
se	-209
ussa	-210
▁san	-211
ne	-212
▁B	-213
esti	-214
▁per	-215
na	-216
ssa	-217
▁kan	-218
re	-219
oa	-220
ten	-221
jen	-222
ol	-223
elä	-224
ien	-225
ui	-226
▁nä	-227
▁kun	-228
▁val	-229
sta	-230
▁ol	-231
▁20	-232
essä	-233
▁ovat	-234
uksen	-235
ike	-236
up	-237
llut	-238
▁Y	-239
tta	-240
▁hy	-241
sin	-242
he	-243
ua	-244
▁mutta	-245
eri	-246
ana	-247
▁toi	-248
▁U	-249
ssä	-250
▁Suom	-251
min	-252
oo	-253
eli	-254
eh	-255
▁li	-256
estä	-257
▁yh	-258
ön	-259
ttiin	-260
▁pal	-261
om	-262
▁as	-263
▁läh	-264
issä	-265
▁mi	-266
toi	-267
itt	-268
ise	-269
▁tar	-270
▁saa	-271
ikka	-272
kka	-273
▁tul	-274
ha	-275
taja	-276
ust	-277
ime	-278
00	-279
osta	-280
▁pel	-281
ro	-282
▁kerto	-283
▁il	-284
▁esi	-285
▁C	-286
lta	-287
stä	-288
▁Hän	-289
vin	-290
ken	-291
tan	-292
iten	-293
mme	-294
iko	-295
men	-296
lo	-297
kk	-298
▁par	-299
iksi	-300
eet	-301
▁ih	-302
ve	-303
▁pit	-304
iden	-305
tö	-306
▁ollut	-307
etta	-308
da	-309
▁Ka	-310
yks	-311
hti	-312
ura	-313
ky	-314
kon	-315
tka	-316
▁jäl	-317
isten	-318
▁tuo	-319
keen	-320
rin	-321
isä	-322
▁tai	-323
▁kuin	-324
▁kuu	-325
▁kertoo	-326
mer	-327
▁F	-328
▁er	-329
▁Sa	-330
isia	-331
itse	-332
▁tu	-333
▁joka	-334
▁ki	-335
▁ar	-336
oh	-337
teen	-338
maa	-339
▁"	-340
vän	-341
ytt	-342
▁(	-343
uut	-344
uus	-345
▁ti	-346
enä	-347
hin	-348
män	-349
tin	-350
▁puol	-351
▁tapa	-352
mmin	-353
▁var	-354
ila	-355
vaa	-356
▁he	-357
▁D	-358
ita	-359
ikä	-360
vo	-361
minen	-362
▁tie	-363
hdo	-364
▁sen	-365
▁Se	-366
mat	-367
vuo	-368
▁jälkeen	-369
▁vas	-370
▁men	-371
di	-372
▁osa	-373
sti	-374
nna	-375
uun	-376
ikki	-377
isin	-378
anta	-379
tty	-380
iset	-381
lleen	-382
isesti	-383
▁viime	-384
mista	-385
▁kanssa	-386
▁G	-387
ud	-388
kö	-389
▁La	-390
ran	-391
▁puh	-392
unut	-393
rit	-394
▁na	-395
jän	-396
▁niin	-397
▁ed	-398
mmä	-399
▁so	-400
kan	-401
▁us	-402
▁maa	-403
▁kir	-404
inn	-405
yh	-406
▁huo	-407
ella	-408
mmen	-409
ton	-410
voi	-411
▁suo	-412
pä	-413
▁työ	-414
▁vä	-415
tään	-416
mään	-417
illa	-418
uud	-419
sen	-420
▁Venä	-421
do	-422
me	-423
kil	-424
ille	-425
▁lop	-426
joit	-427
kko	-428
▁Ta	-429
▁kor	-430
▁olisi	-431
tto	-432
▁ensi	-433
▁Tä	-434
jon	-435
est	-436
ärj	-437
asti	-438
▁Suomen	-439
▁ke	-440
kaa	-441
aan	-442
▁päi	-443
▁sanoo	-444
▁asi	-445
▁vuonna	-446
ili	-447
▁3	-448
isto	-449
val	-450
▁sai	-451
ellä	-452
elle	-453
so	-454
kra	-455
uden	-456
ukku	-457
▁min	-458
massa	-459
▁teh	-460
▁202	-461
▁kol	-462
▁kuiten	-463
▁til	-464
▁is	-465
▁jul	-466
uuta	-467
▁yli	-468
yttä	-469
▁sel	-470
hta	-471
▁ky	-472
ksen	-473
▁eur	-474
▁olla	-475
eita	-476
joi	-477
▁kul	-478
kun	-479
▁suu	-480
▁aik	-481
vel	-482
▁kos	-483
oli	-484
▁kys	-485
▁luo	-486
▁W	-487
▁enn	-488
▁hal	-489
tte	-490
han	-491
isiin	-492
▁sekä	-493
▁En	-494
ali	-495
ikko	-496
rä	-497
ea	-498
kki	-499
jat	-500
uksia	-501
osen	-502
ni	-503
siden	-504
▁aika	-505
oja	-506
residen	-507
▁ni	-508
▁vielä	-509
▁hen	-510
▁kertoi	-511
▁Ma	-512
mpi	-513
▁hall	-514
▁jä	-515
tää	-516
isti	-517
▁poli	-518
una	-519
▁pi	-520
uttaa	-521
▁hänen	-522
pu	-523
▁tapah	-524
▁yhte	-525
▁oike	-526
▁uu	-527
▁ver	-528
▁yksi	-529
gin	-530
inä	-531
▁su	-532
▁koko	-533
iste	-534
uva	-535
▁vuoden	-536
pi	-537
▁kil	-538
▁nyt	-539
▁ul	-540
malla	-541
▁Jo	-542
▁miel	-543
▁Mar	-544
alta	-545
ru	-546
ite	-547
▁Vi	-548
▁seura	-549
▁Ha	-550
itta	-551
tiin	-552
▁tur	-553
misen	-554
uomala	-555
▁vain	-556
uto	-557
päi	-558
änyt	-559
jaa	-560
koi	-561
merk	-562
▁Hel	-563
▁lö	-564
eiden	-565
lan	-566
▁siitä	-567
usi	-568
ed	-569
▁lä	-570
▁hyvin	-571
ulla	-572
▁kuitenkin	-573
▁no	-574
▁4	-575
ynyt	-576
vää	-577
iken	-578
▁väh	-579
nut	-580
▁jat	-581
kas	-582
▁sy	-583
ast	-584
iv	-585
ue	-586
vuoti	-587
ttää	-588
▁mahdo	-589
uv	-590
▁f	-591
▁To	-592
▁Ukra	-593
llinen	-594
▁An	-595
oita	-596
▁van	-597
▁tiet	-598
ihe	-599
▁an	-600
ele	-601
▁le	-602
nä	-603
ystä	-604
▁kuo	-605
▁sitä	-606
▁os	-607
hde	-608
▁ri	-609
▁tut	-610
kunn	-611
merkiksi	-612
mia	-613
▁tunn	-614
▁elä	-615
kään	-616
della	-617
▁5	-618
▁mon	-619
llo	-620
▁oh	-621
htaja	-622
▁har	-623
istu	-624
mo	-625
▁Ra	-626
▁kat	-627
dän	-628
▁hyvä	-629
▁Pa	-630
▁vasta	-631
hdys	-632
▁presiden	-633
tten	-634
▁ensimmä	-635
anne	-636
▁jossa	-637
▁kaikki	-638
▁sanoi	-639
minist	-640
yr	-641
▁kesk	-642
▁ne	-643
ari	-644
▁b	-645
▁aikana	-646
dä	-647
▁myö	-648
▁jon	-649
itus	-650
▁tun	-651
▁jos	-652
▁kann	-653
▁noin	-654
▁aina	-655
▁itse	-656
din	-657
lä	-658
▁Va	-659
▁Ko	-660
uksi	-661
upun	-662
▁pr	-663
▁koh	-664
emm	-665
ttei	-666
ihin	-667
ttia	-668
yty	-669
lloin	-670
▁paljon	-671
nyt	-672
▁kas	-673
ula	-674
ilta	-675
elin	-676
tun	-677
erä	-678
jel	-679
pail	-680
ga	-681
▁mie	-682
▁vaik	-683
▁ennen	-684
isäksi	-685
▁19	-686
▁syy	-687
kilö	-688
tui	-689
▁eivät	-690
tio	-691
▁lo	-692
pan	-693
ver	-694
kis	-695
▁sitten	-696
uste	-697
tanut	-698
via	-699
llista	-700
uksessa	-701
▁kiin	-702
▁Venäjän	-703
uuden	-704
▁re	-705
pal	-706
▁pys	-707
▁suomala	-708
▁ai	-709
▁epä	-710
▁sillä	-711
äärä	-712
▁käy	-713
▁vaa	-714
▁kaksi	-715
utu	-716
▁teke	-717
▁kuul	-718
▁ottel	-719
▁keh	-720
▁väl	-721
esk	-722
▁keski	-723
lli	-724
▁ilm	-725
▁muun	-726
▁järj	-727
otta	-728
johtaja	-729
▁eri	-730
llisen	-731
uutta	-732
ch	-733
▁maan	-734
po	-735
▁ään	-736
▁ettei	-737
ikon	-738
▁muassa	-739
▁lap	-740
isa	-741
▁jää	-742
▁Yhdys	-743
lin	-744
▁mil	-745
▁Ilta	-746
tuu	-747
rump	-748
son	-749
▁me	-750
iseen	-751
mien	-752
▁tuli	-753
▁mer	-754
elta	-755
isiä	-756
▁las	-757
ikke	-758
valta	-759
▁kuva	-760
uot	-761
▁Trump	-762
ministeri	-763
▁esimerkiksi	-764
▁väli	-765
▁vastaan	-766
▁hä	-767
san	-768
ven	-769
yttää	-770
▁pelaa	-771
000	-772
uka	-773
▁Helsin	-774
▁201	-775
era	-776
je	-777
len	-778
mma	-779
erin	-780
kkä	-781
▁liitt	-782
valla	-783
ojen	-784
▁Sal	-785
▁voit	-786
lais	-787
▁He	-788
▁ede	-789
onen	-790
▁hel	-791
▁toimin	-792
▁tote	-793
▁tulee	-794
tteli	-795
unta	-796
▁tule	-797
▁Jos	-798
kuussa	-799
▁nuo	-800
oike	-801
▁aie	-802
▁lis	-803
▁Har	-804
urhe	-805
llisesti	-806
▁prosen	-807
olla	-808
▁henkilö	-809
ustel	-810
▁maail	-811
ukset	-812
▁000	-813
▁ihm	-814
ksa	-815
▁pitää	-816
▁hyö	-817
iti	-818
▁kommen	-819
ian	-820
▁toimi	-821
▁olivat	-822
▁mitä	-823
▁ulko	-824
hden	-825
eksi	-826
▁kunn	-827
▁sija	-828
yksen	-829
vasti	-830
▁Ro	-831
▁On	-832
istö	-833
tar	-834
▁maal	-835
oon	-836
▁euroa	-837
▁luk	-838
ssi	-839
st	-840
▁Ja	-841
▁alu	-842
▁ve	-843
eseen	-844
▁het	-845
▁tehd	-846
inan	-847
ttua	-848
ikan	-849
▁Is	-850
▁In	-851
yttö	-852
▁asia	-853
▁pien	-854
▁vuotta	-855
▁kut	-856
▁Li	-857
▁muu	-858
▁paika	-859
▁julka	-860
▁hei	-861
▁6	-862
▁jotka	-863
its	-864
oma	-865
▁el	-866
▁Nä	-867
▁Kun	-868
uomi	-869
änä	-870
ho	-871
▁kär	-872
▁arvi	-873
tia	-874
emmän	-875
der	-876
▁mies	-877
▁Mi	-878
▁Val	-879
▁nel	-880
ttom	-881
▁Poli	-882
0-	-883
▁Na	-884
▁vah	-885
jien	-886
▁ter	-887
llaan	-888
▁toim	-889
tyi	-890
▁uh	-891
llan	-892
▁yle	-893
eltä	-894
uuri	-895
uro	-896
▁uut	-897
kona	-898
ity	-899
▁ajan	-900
kia	-901
▁jonka	-902
dan	-903
▁eli	-904
uta	-905
enn	-906
▁joh	-907
matta	-908
▁kaupun	-909
▁Ne	-910
uudessa	-911
yyn	-912
ukseen	-913
▁Si	-914
▁eikä	-915
ito	-916
mpia	-917
▁aihe	-918
▁met	-919
▁saan	-920
antaina	-921
▁kansa	-922
▁turva	-923
▁tuk	-924
pe	-925
ker	-926
▁kon	-927
ihen	-928
▁sop	-929
pää	-930
▁käsi	-931
viä	-932
eella	-933
▁joukku	-934
▁yhd	-935
kseen	-936
til	-937
▁hi	-938
inta	-939
▁koul	-940
▁Al	-941
joon	-942
ria	-943
▁vuosi	-944
paa	-945
miseen	-946
bb	-947
▁kau	-948
ale	-949
▁et	-950
hen	-951
".	-952
▁yllä	-953
uksesta	-954
oihin	-955
ansa	-956
yky	-957
sar	-958
▁op	-959
ttävä	-960
isessa	-961
vien	-962
▁vaikka	-963
▁Suomessa	-964
ig	-965
dot	-966
▁Ar	-967
▁lisää	-968
▁tämän	-969
▁aut	-970
ano	-971
ärke	-972
▁seuraa	-973
tion	-974
▁koska	-975
ans	-976
▁siir	-977
iseksi	-978
▁puo	-979
▁raken	-980
▁olevan	-981
ing	-982
kke	-983
var	-984
istel	-985
kea	-986
▁mit	-987
neet	-988
ren	-989
▁laa	-990
▁tor	-991
▁7	-992
▁suunn	-993
▁Venäjä	-994
kel	-995
ustus	-996
▁tö	-997
oiden	-998
▁teki	-999
▁sil	-1000
ttele	-1001
▁Ruot	-1002
▁vaih	-1003
▁Ki	-1004
gel	-1005
ope	-1006
ukka	-1007
▁aja	-1008
kul	-1009
iä	-1010
▁miljoon	-1011
ino	-1012
▁pitä	-1013
▁talo	-1014
misesta	-1015
kuun	-1016
um	-1017
▁syn	-1018
puol	-1019
tel	-1020
▁aiemmin	-1021
▁siihen	-1022
▁miten	-1023
▁Myös	-1024
ber	-1025
▁Le	-1026
▁vir	-1027
oitti	-1028
kir	-1029
uja	-1030
asto	-1031
oilla	-1032
▁Euro	-1033
yys	-1034
▁tilan	-1035
annut	-1036
▁tapahtu	-1037
llään	-1038
▁näh	-1039
▁jota	-1040
mman	-1041
▁päätö	-1042
▁enemmän	-1043
▁8	-1044
▁tutki	-1045
tubb	-1046
uon	-1047
▁kar	-1048
llin	-1049
▁muuta	-1050
ett	-1051
usti	-1052
▁tällä	-1053
janta	-1054
ettu	-1055
alla	-1056
▁tämä	-1057
▁muut	-1058
ituksen	-1059
ym	-1060
llisuus	-1061
oitta	-1062
jassa	-1063
▁in	-1064
▁kirjoit	-1065
▁tarko	-1066
▁Nyt	-1067
masta	-1068
ittaa	-1069
▁presidentti	-1070
utui	-1071
▁maailman	-1072
▁lisäksi	-1073
nan	-1074
▁kesä	-1075
ytö	-1076
alu	-1077
▁Vuo	-1078
▁Tämä	-1079
pel	-1080
tila	-1081
ter	-1082
don	-1083
▁Oul	-1084
iku	-1085
este	-1086
itsi	-1087
hi	-1088
oissa	-1089
▁yrit	-1090
tyy	-1091
▁nous	-1092
yi	-1093
yksi	-1094
▁määrä	-1095
toa	-1096
änn	-1097
▁yl	-1098
▁Kuva	-1099
▁kolm	-1100
▁puheen	-1101
kuu	-1102
ine	-1103
mus	-1104
jana	-1105
kesk	-1106
osti	-1107
▁haasta	-1108
▁kertaa	-1109
▁kannat	-1110
joukku	-1111
▁vaan	-1112
▁lopp	-1113
▁mikä	-1114
ukana	-1115
järj	-1116
ähkö	-1117
kunnan	-1118
▁Tur	-1119
daan	-1120
ota	-1121
▁taka	-1122
▁kohd	-1123
▁Ei	-1124
▁MM	-1125
▁mar	-1126
eensa	-1127
▁mitään	-1128
isille	-1129
▁näy	-1130
ttö	-1131
kellä	-1132
▁tärke	-1133
eensä	-1134
▁kyse	-1135
▁ent	-1136
estaan	-1137
▁len	-1138
sina	-1139
▁tiedo	-1140
▁d	-1141
▁pääs	-1142
ost	-1143
vuotias	-1144
20	-1145
▁mei	-1146
▁ava	-1147
▁Suomi	-1148
▁Ukrainan	-1149
▁vara	-1150
am	-1151
▁Stubb	-1152
2.	-1153
▁lau	-1154
ppi	-1155
▁urhe	-1156
oista	-1157
utti	-1158
▁koti	-1159
kunta	-1160
▁syö	-1161
▁Poliisi	-1162
von	-1163
▁jopa	-1164
tys	-1165
▁Poh	-1166
▁Isra	-1167
▁suosi	-1168
ikin	-1169
▁täh	-1170
mässä	-1171
unnunta	-1172
lainen	-1173
▁kolme	-1174
1.	-1175
▁ihan	-1176
▁kommentoi	-1177
▁osall	-1178
miin	-1179
osa	-1180
▁sää	-1181
▁sisä	-1182
▁usko	-1183
▁päivä	-1184
▁prosenttia	-1185
oku	-1186
▁nyky	-1187
▁kis	-1188
istaa	-1189
voin	-1190
▁Per	-1191
mää	-1192
vit	-1193
▁saira	-1194
▁esiin	-1195
▁vaike	-1196
llen	-1197
▁tehdä	-1198
▁vastaa	-1199
ile	-1200
▁perjanta	-1201
gen	-1202
▁Helsingin	-1203
▁kilpail	-1204
ulta	-1205
gra	-1206
isu	-1207
▁Euroop	-1208
▁Sen	-1209
väl	-1210
▁Iltale	-1211
▁enää	-1212
yd	-1213
▁kaa	-1214
▁kuuka	-1215
▁Nor	-1216
▁sis	-1217
▁joul	-1218
▁vo	-1219
▁ymp	-1220
▁auto	-1221
jois	-1222
iton	-1223
▁juh	-1224
uko	-1225
▁hui	-1226
▁suh	-1227
tien	-1228
▁kerro	-1229
▁yri	-1230
HL	-1231
▁viikon	-1232
haa	-1233
utin	-1234
uri	-1235
▁työn	-1236
palvel	-1237
ksan	-1238
▁sella	-1239
▁use	-1240
▁lähes	-1241
isella	-1242
▁erity	-1243
▁Il	-1244
nn	-1245
ustaja	-1246
▁tal	-1247
älä	-1248
▁mo	-1249
▁kier	-1250
ras	-1251
itel	-1252
▁pala	-1253
toja	-1254
▁lähe	-1255
olo	-1256
opp	-1257
▁muo	-1258
ona	-1259
kkin	-1260
▁ty	-1261
ytyy	-1262
▁uusi	-1263
▁Vir	-1264
kuuta	-1265
jia	-1266
utus	-1267
ani	-1268
▁mukana	-1269
▁liik	-1270
▁terve	-1271
lleet	-1272
gi	-1273
▁9	-1274
▁sähkö	-1275
▁kymmen	-1276
▁saat	-1277
▁koke	-1278
▁ihmis	-1279
▁vide	-1280
mmat	-1281
keä	-1282
▁vaati	-1283
▁oly	-1284
tynyt	-1285
▁15	-1286
▁Ke	-1287
▁tarv	-1288
▁lu	-1289
isesta	-1290
tik	-1291
3.	-1292
▁pois	-1293
por	-1294
▁ven	-1295
▁ehdo	-1296
▁kats	-1297
ju	-1298
ase	-1299
▁alku	-1300
▁todella	-1301
su	-1302
▁kello	-1303
▁saanut	-1304
▁tilante	-1305
▁ho	-1306
▁jal	-1307
▁han	-1308
▁oma	-1309
▁pol	-1310
▁Var	-1311
mar	-1312
▁rii	-1313
yä	-1314
▁Re	-1315
ilu	-1316
toon	-1317
ini	-1318
ttaa	-1319
mistä	-1320
ynn	-1321
▁py	-1322
▁arvioi	-1323
▁pitkä	-1324
tävä	-1325
vänä	-1326
mpaa	-1327
uvo	-1328
▁vuoksi	-1329
kit	-1330
etaan	-1331
▁ik	-1332
ukko	-1333
▁ase	-1334
▁ruo	-1335
alais	-1336
▁aikaa	-1337
▁poliisi	-1338
iselle	-1339
▁poh	-1340
har	-1341
▁200	-1342
▁sunnunta	-1343
yllä	-1344
▁peruste	-1345
istui	-1346
ttäin	-1347
▁mat	-1348
▁ratka	-1349
▁jatka	-1350
voit	-1351
▁huol	-1352
▁juo	-1353
kku	-1354
teki	-1355
▁Viime	-1356
▁halu	-1357
asi	-1358
vassa	-1359
unsa	-1360
▁täys	-1361
▁jäi	-1362
▁yleis	-1363
▁tuh	-1364
▁kuten	-1365
tiiv	-1366
▁kautta	-1367
per	-1368
vansa	-1369
essaan	-1370
iston	-1371
▁kaik	-1372
jet	-1373
▁olen	-1374
äjä	-1375
▁puoli	-1376
ff	-1377
▁tässä	-1378
▁vähän	-1379
mon	-1380
anna	-1381
▁yhteis	-1382
uha	-1383
▁EU	-1384
▁juuri	-1385
tettiin	-1386
▁perus	-1387
▁tiista	-1388
tteen	-1389
▁torsta	-1390
▁suur	-1391
tojen	-1392
▁onn	-1393
ce	-1394
ppa	-1395
▁sar	-1396
jö	-1397
▁aikaan	-1398
viik	-1399
mentaja	-1400
▁Putin	-1401
riä	-1402
▁Min	-1403
▁tarjo	-1404
kos	-1405
▁voisi	-1406
▁alle	-1407
▁Mon	-1408
▁Or	-1409
▁de	-1410
▁valta	-1411
▁liitty	-1412
isena	-1413
ksin	-1414
▁Kar	-1415
▁Hänen	-1416
▁neljä	-1417
▁Te	-1418
▁nim	-1419
▁ken	-1420
▁tuomi	-1421
▁tullut	-1422
▁Z	-1423
onsa	-1424
usten	-1425
▁lähte	-1426
ck	-1427
0.	-1428
▁sä	-1429
kkaa	-1430
tyn	-1431
▁kiinni	-1432
▁Yhdysvalta	-1433
ostaa	-1434
▁vahv	-1435
ttelee	-1436
▁sin	-1437
oittaa	-1438
▁Lisäksi	-1439
kus	-1440
ulle	-1441
ikolla	-1442
▁Kor	-1443
4.	-1444
▁Par	-1445
missa	-1446
▁siinä	-1447
▁Kes	-1448
▁palvel	-1449
▁Pal	-1450
▁edus	-1451
▁alkoi	-1452
▁hyökkä	-1453
▁lin	-1454
raa	-1455
kana	-1456
▁eh	-1457
usa	-1458
▁joten	-1459
iva	-1460
mmär	-1461
antun	-1462
-1	-1463
ris	-1464
ron	-1465
▁Es	-1466
▁muist	-1467
no	-1468
eto	-1469
yyttä	-1470
jät	-1471
▁työs	-1472
▁av	-1473
▁halua	-1474
▁pain	-1475
▁matka	-1476
laa	-1477
▁otta	-1478
▁nope	-1479
uksista	-1480
ikkaa	-1481
▁ä	-1482
jasta	-1483
▁suuri	-1484
▁käyttä	-1485
▁ilman	-1486
▁mur	-1487
tunut	-1488
▁yhteen	-1489
▁sosia	-1490
ry	-1491
össä	-1492
▁ongel	-1493
llon	-1494
▁käyttö	-1495
ilee	-1496
estel	-1497
hemmin	-1498
yl	-1499
uudesta	-1500
▁Pe	-1501
▁kauden	-1502
näkö	-1503
ttelussa	-1504
▁parha	-1505
eilla	-1506
▁Ri	-1507
aika	-1508
ettiin	-1509
uole	-1510
▁selvi	-1511
▁Ol	-1512
▁saada	-1513
tal	-1514
▁Lin	-1515
▁taas	-1516
▁Ale	-1517
▁hetkellä	-1518
▁liiken	-1519
omet	-1520
▁lisä	-1521
pin	-1522
alin	-1523
▁edelleen	-1524
▁pare	-1525
kie	-1526
▁Ni	-1527
▁Pohjois	-1528
eille	-1529
▁huomi	-1530
▁Olen	-1531
▁takia	-1532
▁kuitenkaan	-1533
ppu	-1534
jär	-1535
▁vuod	-1536
▁katso	-1537
▁ro	-1538
ttämä	-1539
▁lää	-1540
id	-1541
▁pitäisi	-1542
kkää	-1543
kkö	-1544
▁/	-1545
▁toinen	-1546
kohta	-1547
visi	-1548
▁Ukraina	-1549
▁löy	-1550
alan	-1551
oim	-1552
▁keskustel	-1553
▁Pel	-1554
ikos	-1555
▁onne	-1556
▁hie	-1557
▁tavalla	-1558
kasta	-1559
lu	-1560
kee	-1561
▁Me	-1562
dennäkö	-1563
▁Ku	-1564
ttelu	-1565
▁pu	-1566
kor	-1567
alainen	-1568
▁jäsen	-1569
sson	-1570
antunti	-1571
▁Mutta	-1572
▁Trumpin	-1573
yhti	-1574
vasta	-1575
ohjel	-1576
isenä	-1577
tua	-1578
▁vie	-1579
kiin	-1580
▁perä	-1581
▁ainakin	-1582
▁Leh	-1583
▁18	-1584
▁Ho	-1585
uttu	-1586
▁Kys	-1587
jaan	-1588
isista	-1589
tetty	-1590
▁voitti	-1591
▁Yhdysvaltain	-1592
▁Näin	-1593
▁ilma	-1594
koh	-1595
utun	-1596
▁medi	-1597
▁un	-1598
▁tasa	-1599
▁olleet	-1600
▁kään	-1601
ela	-1602
estö	-1603
▁asti	-1604
▁sano	-1605
▁tila	-1606
uku	-1607
▁Biden	-1608
iss	-1609
inväl	-1610
ppo	-1611
mies	-1612
utki	-1613
eelle	-1614
kset	-1615
▁valm	-1616
▁merki	-1617
äär	-1618
▁kiinn	-1619
yden	-1620
▁eten	-1621
utunut	-1622
▁yhdessä	-1623
▁ras	-1624
▁tör	-1625
▁Van	-1626
▁vaka	-1627
hoit	-1628
▁uutis	-1629
eillä	-1630
▁perjantaina	-1631
ttänyt	-1632
▁uuden	-1633
▁Kan	-1634
▁näin	-1635
▁Ti	-1636
▁pide	-1637
▁riko	-1638
▁viera	-1639
astus	-1640
▁piste	-1641
ba	-1642
▁kansan	-1643
▁tode	-1644
äri	-1645
▁So	-1646
▁Tuo	-1647
▁Yle	-1648
▁puheenjohtaja	-1649
▁mahdollis	-1650
▁X	-1651
Sano	-1652
jää	-1653
teet	-1654
▁lauantaina	-1655
tyä	-1656
▁Esi	-1657
▁perh	-1658
▁pyö	-1659
▁seur	-1660
isessä	-1661
▁NHL	-1662
▁Mä	-1663
▁Pää	-1664
▁iso	-1665
▁myön	-1666
▁hallitus	-1667
ket	-1668
sky	-1669
▁kilomet	-1670
▁tiedotte	-1671
Suom	-1672
itto	-1673
▁saman	-1674
▁ymmär	-1675
päivä	-1676
itsee	-1677
).	-1678
viikkona	-1679
▁tilanne	-1680
urin	-1681
▁amp	-1682
▁kaupungin	-1683
▁sopim	-1684
iltä	-1685
▁hava	-1686
vaan	-1687
ääri	-1688
▁her	-1689
▁i	-1690
▁IS	-1691
tetaan	-1692
▁perin	-1693
ltä	-1694
▁Insta	-1695
▁kyllä	-1696
▁kirjoittaa	-1697
estin	-1698
▁Et	-1699
▁lämp	-1700
▁johta	-1701
▁yhden	-1702
▁presidentin	-1703
▁edusta	-1704
▁toisen	-1705
▁miljoonaa	-1706
▁kaudella	-1707
▁päästä	-1708
▁Instagra	-1709
▁hallituksen	-1710
uki	-1711
uma	-1712
▁vali	-1713
▁kuinka	-1714
res	-1715
▁heti	-1716
▁kyl	-1717
imo	-1718
▁pah	-1719
iska	-1720
ikuussa	-1721
▁erila	-1722
talo	-1723
▁niitä	-1724
6.	-1725
▁alka	-1726
▁hieman	-1727
ussi	-1728
vänsä	-1729
uke	-1730
▁pan	-1731
▁tän	-1732
▁17	-1733
vuotia	-1734
utuu	-1735
▁täysin	-1736
▁välillä	-1737
▁Ve	-1738
itos	-1739
▁Oulun	-1740
▁alkaa	-1741
▁kahden	-1742
▁Kos	-1743
▁epäi	-1744
llisia	-1745
▁10	-1746
▁väi	-1747
▁siis	-1748
▁yhtä	-1749
▁ryh	-1750
▁Ga	-1751
▁vast	-1752
▁viikolla	-1753
▁jatku	-1754
▁näky	-1755
uuteen	-1756
tettu	-1757
▁ystä	-1758
▁tehnyt	-1759
▁Haa	-1760
▁vai	-1761
▁eriko	-1762
▁heidän	-1763
▁tänä	-1764
▁mielestä	-1765
▁Hy	-1766
nin	-1767
ranoma	-1768
▁häntä	-1769
▁Da	-1770
äjäoike	-1771
yyd	-1772
yön	-1773
▁miehen	-1774
▁nor	-1775
▁palj	-1776
▁its	-1777
uksissa	-1778
uli	-1779
▁vier	-1780
▁myöhemmin	-1781
ge	-1782
▁ala	-1783
▁nuor	-1784
▁maksa	-1785
▁varm	-1786
ukkaan	-1787
viin	-1788
kar	-1789
äni	-1790
▁missä	-1791
▁huu	-1792
▁jatkaa	-1793
luv	-1794
▁useita	-1795
▁pääsi	-1796
ilä	-1797
ttui	-1798
▁piti	-1799
▁kerran	-1800
▁sur	-1801
esty	-1802
uksiin	-1803
▁edes	-1804
▁Euroopan	-1805
kkaan	-1806
▁epäil	-1807
▁todennäkö	-1808
▁lento	-1809
▁sosiaal	-1810
mieh	-1811
▁mielen	-1812
▁torstaina	-1813
▁puu	-1814
▁pyy	-1815
▁vaal	-1816
▁joukkue	-1817
vinto	-1818
astaan	-1819
▁New	-1820
isuus	-1821
johta	-1822
▁meni	-1823
▁nähd	-1824
▁12	-1825
▁julk	-1826
▁El	-1827
hdelle	-1828
▁suun	-1829
uttanut	-1830
kän	-1831
▁Lo	-1832
▁kysym	-1833
▁Ruotsin	-1834
kossa	-1835
▁tavoi	-1836
),	-1837
▁kuole	-1838
▁Mo	-1839
kut	-1840
las	-1841
▁aam	-1842
▁oman	-1843
▁euron	-1844
paan	-1845
puole	-1846
▁näyttää	-1847
▁Ä	-1848
▁arvo	-1849
▁siv	-1850
▁Puol	-1851
▁herä	-1852
▁tava	-1853
par	-1854
ytyi	-1855
hän	-1856
esin	-1857
ill	-1858
estar	-1859
ttuna	-1860
▁tulo	-1861
▁tiistaina	-1862
▁maanantaina	-1863
ttuu	-1864
▁ohjel	-1865
▁poikke	-1866
▁aivan	-1867
illaan	-1868
udessa	-1869
her	-1870
▁huoli	-1871
▁voivat	-1872
▁peli	-1873
▁Itä	-1874
▁Vaikka	-1875
▁keskiviikkona	-1876
▁alussa	-1877
▁Kir	-1878
ryh	-1879
▁voin	-1880
▁sul	-1881
▁muka	-1882
oille	-1883
▁perhe	-1884
▁omista	-1885
▁kuoli	-1886
▁joita	-1887
▁mahdollista	-1888
▁hänet	-1889
▁tiedot	-1890
▁mene	-1891
▁Hä	-1892
▁usein	-1893
▁venälä	-1894
▁puolestaan	-1895
istun	-1896
▁koskaan	-1897
menta	-1898
vissa	-1899
▁Yksi	-1900
▁pro	-1901
▁käytö	-1902
co	-1903
▁lain	-1904
▁otti	-1905
▁tuu	-1906
▁Pi	-1907
▁lei	-1908
sivat	-1909
isissa	-1910
",	-1911
▁kie	-1912
uista	-1913
▁Kaikki	-1914
▁alueella	-1915
▁yksity	-1916
perä	-1917
▁Kat	-1918
▁saap	-1919
▁sunnuntaina	-1920
,5	-1921
▁amma	-1922
lliset	-1923
▁Pari	-1924
▁mieh	-1925
▁viesti	-1926
tee	-1927
▁kävi	-1928
▁maks	-1929
▁odot	-1930
▁nousi	-1931
yssä	-1932
gan	-1933
mpan	-1934
joukkue	-1935
ksia	-1936
▁hoi	-1937
isellä	-1938
vana	-1939
vaksi	-1940
joiden	-1941
▁ottaa	-1942
▁perusteella	-1943
5.	-1944
▁julkis	-1945
▁Asi	-1946
▁Israelin	-1947
▁ir	-1948
miä	-1949
paika	-1950
▁toteaa	-1951
ude	-1952
isestä	-1953
uteen	-1954
▁siellä	-1955
ily	-1956
▁pur	-1957
▁aiko	-1958
▁puolustus	-1959
▁väki	-1960
ältä	-1961
▁tätä	-1962
▁huoma	-1963
1-	-1964
▁toista	-1965
isk	-1966
vaal	-1967
▁asiasta	-1968
ittää	-1969
▁pe	-1970
▁Ensi	-1971
▁Ver	-1972
▁yhä	-1973
▁Salon	-1974
▁por	-1975
llik	-1976
tali	-1977
▁syks	-1978
▁tälla	-1979
▁Suomeen	-1980
dia	-1981
kat	-1982
ensa	-1983
▁silloin	-1984
▁hyväks	-1985
▁Po	-1986
itys	-1987
ps	-1988
kapa	-1989
▁vih	-1990
västi	-1991
ilja	-1992
istori	-1993
ksiä	-1994
▁Niin	-1995
miseksi	-1996
▁rakenn	-1997
hdot	-1998
▁arv	-1999
ttoa	-2000
▁jään	-2001
ulo	-2002
onn	-2003
maal	-2004
änsi	-2005
toin	-2006
mokra	-2007
▁viikko	-2008
▁pä	-2009
▁g	-2010
▁Kol	-2011
hall	-2012
▁uud	-2013
▁vanhe	-2014
▁työsken	-2015
äällä	-2016
▁rauh	-2017
▁ympäri	-2018
illä	-2019
ilun	-2020
▁käyt	-2021
vir	-2022
▁suk	-2023
▁fina	-2024
▁työnteki	-2025
estari	-2026
issaan	-2027
▁mukaansa	-2028
▁kansainväl	-2029
▁asu	-2030
▁ensimmäinen	-2031
äneet	-2032
▁ehkä	-2033
▁tied	-2034
▁kirja	-2035
▁tehty	-2036
nö	-2037
tur	-2038
▁poi	-2039
innan	-2040
teita	-2041
▁tiedotteessa	-2042
▁saattaa	-2043
▁tyy	-2044
▁ilmoit	-2045
▁sijaan	-2046
erg	-2047
kär	-2048
mper	-2049
tiet	-2050
▁Etelä	-2051
istunut	-2052
▁ihmistä	-2053
misestä	-2054
▁Hen	-2055
▁Lue	-2056
▁Tar	-2057
pol	-2058
▁ran	-2059
eeksi	-2060
ira	-2061
▁do	-2062
▁tien	-2063
▁muita	-2064
ihto	-2065
▁pysty	-2066
eihin	-2067
▁Kyse	-2068
▁joissa	-2069
▁Kä	-2070
▁Rovan	-2071
▁eloku	-2072
astaa	-2073
▁kasv	-2074
▁suora	-2075
ukse	-2076
▁jolla	-2077
eraa	-2078
▁enna	-2079
▁Er	-2080
yhtiö	-2081
▁Joh	-2082
▁Läh	-2083
▁mel	-2084
▁pysä	-2085
fi	-2086
▁erittäin	-2087
▁jotta	-2088
▁keske	-2089
igan	-2090
▁Kr	-2091
▁vel	-2092
vas	-2093
▁No	-2094
▁Mies	-2095
▁ilta	-2096
▁jälleen	-2097
ittaja	-2098
▁josta	-2099
▁ap	-2100
iheessa	-2101
kem	-2102
▁odo	-2103
elen	-2104
▁ajo	-2105
jille	-2106
▁tänään	-2107
▁tapahtui	-2108
pah	-2109
onal	-2110
▁menn	-2111
8.	-2112
▁Su	-2113
määrä	-2114
berg	-2115
ehto	-2116
laisen	-2117
▁199	-2118
▁Mer	-2119
▁kokona	-2120
▁olympia	-2121
hing	-2122
▁vaikuttaa	-2123
öl	-2124
tetään	-2125
▁täy	-2126
joitus	-2127
▁tekee	-2128
kilpail	-2129
▁2022	-2130
ydessä	-2131
▁neljän	-2132
pon	-2133
▁pitkään	-2134
kti	-2135
kse	-2136
opim	-2137
▁jotain	-2138
▁lopulta	-2139
▁takaisin	-2140
ata	-2141
ilija	-2142
▁tähän	-2143
▁poliitt	-2144
stö	-2145
ros	-2146
▁korke	-2147
▁lapsi	-2148
▁kahde	-2149
suomala	-2150
hy	-2151
▁kuulu	-2152
▁it	-2153
▁sotil	-2154
▁pidä	-2155
▁tutkin	-2156
▁järjestä	-2157
▁antaa	-2158
yksessä	-2159
▁kaup	-2160
reen	-2161
▁käynn	-2162
▁myy	-2163
▁auton	-2164
0,	-2165
ander	-2166
▁seitse	-2167
▁käyttää	-2168
▁ain	-2169
kerta	-2170
▁vuosina	-2171
▁myötä	-2172
▁yhteist	-2173
▁sijaitse	-2174
▁main	-2175
▁tuleva	-2176
9.	-2177
▁pyr	-2178
▁niiden	-2179
▁syys	-2180
▁kohtaa	-2181
▁ensimmäisen	-2182
▁suorit	-2183
päin	-2184
mu	-2185
uksella	-2186
▁ottelun	-2187
▁järjeste	-2188
iha	-2189
▁The	-2190
▁kai	-2191
▁2023	-2192
▁ur	-2193
▁Ukrain	-2194
▁hänelle	-2195
▁samalla	-2196
▁voidaan	-2197
osin	-2198
▁puolu	-2199
▁lasten	-2200
▁Ter	-2201
järjestel	-2202
-2	-2203
▁huolimatta	-2204
utkin	-2205
liiton	-2206
pit	-2207
▁opp	-2208
▁ajat	-2209
▁lapsen	-2210
ser	-2211
tit	-2212
llyt	-2213
joitti	-2214
▁Vä	-2215
kusta	-2216
▁anta	-2217
▁turvallisuus	-2218
istuu	-2219
▁voima	-2220
▁nopeasti	-2221
▁yö	-2222
anska	-2223
▁loukkaan	-2224
▁hyvinvoin	-2225
ers	-2226
uissa	-2227
▁eteen	-2228
▁maahan	-2229
teessa	-2230
läh	-2231
▁Ed	-2232
▁Hi	-2233
▁käräjäoike	-2234
▁Esimerkiksi	-2235
mät	-2236
▁haluaa	-2237
met	-2238
▁liian	-2239
▁vaihto	-2240
▁voitto	-2241
mmi	-2242
edia	-2243
▁elämän	-2244
▁tulla	-2245
▁päätty	-2246
7.	-2247
▁Ch	-2248
▁pud	-2249
ottaa	-2250
▁For	-2251
▁huon	-2252
▁11	-2253
▁jär	-2254
istää	-2255
yksiä	-2256
▁huh	-2257
▁vapa	-2258
▁joutui	-2259
uraa	-2260
▁läpi	-2261
▁puhu	-2262
▁kesken	-2263
▁löytyy	-2264
jista	-2265
kiä	-2266
ola	-2267
ttila	-2268
▁Tamper	-2269
▁erityisesti	-2270
▁uude	-2271
▁joukko	-2272
▁ihmisiä	-2273
ire	-2274
olta	-2275
otus	-2276
▁laus	-2277
202	-2278
vara	-2279
▁ikä	-2280
mppan	-2281
tteet	-2282
utua	-2283
pelaa	-2284
ville	-2285
▁kerrotaan	-2286
ksua	-2287
▁kohta	-2288
Sanomat	-2289
▁Bri	-2290
▁Lei	-2291
▁luonn	-2292
tor	-2293
▁paik	-2294
▁toiv	-2295
▁Car	-2296
▁hoit	-2297
▁viikonl	-2298
▁Kär	-2299
▁tehtä	-2300
▁yhteensä	-2301
▁raja	-2302
▁puole	-2303
▁kymmenen	-2304
▁25	-2305
▁nainen	-2306
▁jolloin	-2307
valmentaja	-2308
▁äänestä	-2309
▁yhteydessä	-2310
onin	-2311
▁tan	-2312
▁lähti	-2313
▁EM	-2314
▁Oli	-2315
▁kuuluu	-2316
▁13	-2317
▁asiaa	-2318
kön	-2319
▁tosi	-2320
▁San	-2321
▁vapaa	-2322
▁Por	-2323
▁aiheutta	-2324
▁poliisin	-2325
▁valtion	-2326
▁suunnitel	-2327
▁Tor	-2328
vallan	-2329
▁kansaned	-2330
ustaa	-2331
▁viisi	-2332
▁näk	-2333
▁varsin	-2334
oni	-2335
▁Ur	-2336
ttain	-2337
ban	-2338
▁kahd	-2339
ves	-2340
▁osaa	-2341
▁yliop	-2342
▁16	-2343
▁joiden	-2344
ete	-2345
▁Hal	-2346
▁laps	-2347
ttävän	-2348
▁kerton	-2349
▁valmista	-2350
▁tästä	-2351
tuo	-2352
ilan	-2353
ujen	-2354
▁kilpa	-2355
koa	-2356
puh	-2357
eena	-2358
▁Alex	-2359
▁mitta	-2360
▁Israel	-2361
▁vaikutta	-2362
siin	-2363
▁Mikko	-2364
▁Tämän	-2365
▁meidän	-2366
nen	-2367
istus	-2368
ena	-2369
hä	-2370
▁Maa	-2371
▁Nat	-2372
tilan	-2373
tyksen	-2374
kinen	-2375
tanen	-2376
▁terveys	-2377
koul	-2378
▁myyn	-2379
ttäjä	-2380
▁tieto	-2381
▁Hall	-2382
▁tausta	-2383
uni	-2384
ttämään	-2385
öy	-2386
▁lyh	-2387
▁nimi	-2388
vy	-2389
riin	-2390
▁Toi	-2391
pahtu	-2392
vista	-2393
voima	-2394
▁kuljet	-2395
isuudessa	-2396
▁ympär	-2397
▁ihmiset	-2398
llisuuden	-2399
▁koi	-2400
▁sään	-2401
att	-2402
mas	-2403
▁Kon	-2404
▁SM	-2405
muksen	-2406
▁viranoma	-2407
siv	-2408
▁saav	-2409
▁Lind	-2410
kaup	-2411
▁pari	-2412
▁vaikea	-2413
▁valtio	-2414
▁Kiin	-2415
▁jaks	-2416
▁vähen	-2417
▁kannattaa	-2418
tele	-2419
ttien	-2420
▁ruoka	-2421
bo	-2422
▁musi	-2423
kaupun	-2424
▁krit	-2425
▁kierro	-2426
▁marras	-2427
uton	-2428
ksella	-2429
luo	-2430
anen	-2431
▁Ba	-2432
uvos	-2433
▁hien	-2434
itoksen	-2435
▁tulisi	-2436
▁14	-2437
▁näyttä	-2438
▁Sil	-2439
▁mole	-2440
▁help	-2441
▁onko	-2442
▁yksin	-2443
konen	-2444
▁toiminta	-2445
laista	-2446
▁runsa	-2447
▁kirjoitti	-2448
kanen	-2449
▁osallistu	-2450
sy	-2451
usto	-2452
ttyä	-2453
▁taso	-2454
ehdo	-2455
ineen	-2456
ttunut	-2457
▁lämpö	-2458
▁erä	-2459
▁minkä	-2460
yksestä	-2461
▁ura	-2462
▁koske	-2463
imi	-2464
änsä	-2465
▁olympi	-2466
▁naisten	-2467
▁ilmoitti	-2468
rien	-2469
▁prin	-2470
ksesta	-2471
sissa	-2472
▁Antti	-2473
änen	-2474
joita	-2475
tänyt	-2476
aleissa	-2477
▁kal	-2478
▁moni	-2479
▁päivän	-2480
kää	-2481
matto	-2482
▁rikos	-2483
onald	-2484
▁sota	-2485
▁suurin	-2486
ihd	-2487
kymmen	-2488
▁tek	-2489
▁kolmen	-2490
▁30	-2491
▁loka	-2492
istaan	-2493
▁touko	-2494
▁ratkais	-2495
tteita	-2496
▁joista	-2497
▁korkea	-2498
▁päälle	-2499
jar	-2500
Suomen	-2501
▁luki	-2502
▁keskusta	-2503
etin	-2504
▁elo	-2505
▁kaiken	-2506
kissa	-2507
ttivät	-2508
▁kohti	-2509
▁tunte	-2510
dy	-2511
▁ris	-2512
▁tuke	-2513
jalla	-2514
▁totesi	-2515
▁ravinto	-2516
ykset	-2517
▁yhti	-2518
isilla	-2519
▁olleen	-2520
iki	-2521
alle	-2522
vissä	-2523
▁maali	-2524
hte	-2525
tis	-2526
iemi	-2527
annetta	-2528
▁julkaisi	-2529
▁pohti	-2530
uur	-2531
▁kapp	-2532
▁ulos	-2533
▁asun	-2534
▁puolis	-2535
▁uutisoi	-2536
auto	-2537
ttelun	-2538
ynä	-2539
ikku	-2540
▁helm	-2541
▁onnettom	-2542
▁Lu	-2543
▁muiden	-2544
▁tehtävä	-2545
▁vaiheessa	-2546
rö	-2547
▁De	-2548
▁pako	-2549
▁metsä	-2550
iga	-2551
jun	-2552
▁nime	-2553
▁suure	-2554
▁verran	-2555
järjestö	-2556
▁neuvo	-2557
▁päätt	-2558
▁sodan	-2559
▁Bar	-2560
▁oikeus	-2561
vali	-2562
▁Ylen	-2563
▁uutta	-2564
..	-2565
▁tamm	-2566
▁vaikut	-2567
väli	-2568
▁som	-2569
matka	-2570
▁jouk	-2571
▁viestin	-2572
mpp	-2573
sel	-2574
▁Un	-2575
mäki	-2576
▁heinä	-2577
▁viiden	-2578
▁Yhdysval	-2579
▁muistuttaa	-2580
▁Ul	-2581
▁kah	-2582
▁muuto	-2583
mpien	-2584
tetta	-2585
▁vesi	-2586
▁oikein	-2587
antuntija	-2588
und	-2589
lehti	-2590
▁Saksa	-2591
▁Osa	-2592
mästä	-2593
▁elin	-2594
▁joku	-2595
▁maalis	-2596
▁takana	-2597
lly	-2598
▁hir	-2599
ttävät	-2600
ttävästi	-2601
oili	-2602
▁Kesk	-2603
▁Tällä	-2604
▁silti	-2605
puolella	-2606
▁perinte	-2607
▁muod	-2608
kok	-2609
gissä	-2610
▁miksi	-2611
▁asioita	-2612
▁haastattelussa	-2613
▁Fa	-2614
▁sair	-2615
kauden	-2616
▁kärsi	-2617
▁edessä	-2618
▁perheen	-2619
uilla	-2620
uksena	-2621
nes	-2622
▁Tässä	-2623
▁vanke	-2624
isuuden	-2625
iks	-2626
inna	-2627
mana	-2628
tava	-2629
iltana	-2630
kal	-2631
kau	-2632
vio	-2633
estys	-2634
kansa	-2635
sarjan	-2636
▁hänellä	-2637
▁johtaja	-2638
▁mediassa	-2639
▁näkö	-2640
▁varmasti	-2641
▁yksityis	-2642
▁alue	-2643
▁ulkoma	-2644
alaisten	-2645
cup	-2646
▁sopi	-2647
▁liikenne	-2648
▁Kur	-2649
▁ohj	-2650
▁tuolloin	-2651
ikaa	-2652
insa	-2653
paikka	-2654
▁asian	-2655
▁lähtö	-2656
mällä	-2657
▁tietoa	-2658
▁luon	-2659
kot	-2660
uper	-2661
▁paikka	-2662
poli	-2663
5-	-2664
istön	-2665
▁antoi	-2666
ör	-2667
tie	-2668
annin	-2669
▁seitsemän	-2670
▁juhli	-2671
▁täällä	-2672
▁ykkö	-2673
▁kampan	-2674
▁leikka	-2675
▁päätös	-2676
yhte	-2677
▁loppu	-2678
▁mieli	-2679
▁pääministeri	-2680
▁Gaz	-2681
▁Päi	-2682
tissa	-2683
▁pelasi	-2684
▁päivänä	-2685
▁tarvitse	-2686
hon	-2687
maton	-2688
▁haa	-2689
▁ennä	-2690
▁ottelussa	-2691
astusla	-2692
tsa	-2693
▁Nato	-2694
laisia	-2695
residentti	-2696
▁Ky	-2697
pen	-2698
▁50	-2699
mpää	-2700
▁toimitus	-2701
mansa	-2702
iaa	-2703
▁Ole	-2704
▁Sitt	-2705
▁Donald	-2706
olle	-2707
▁Nuo	-2708
▁Vuonna	-2709
▁demokra	-2710
▁tapahtun	-2711
▁Sie	-2712
▁jalkapa	-2713
inin	-2714
▁teko	-2715
vina	-2716
▁yhde	-2717
isuutta	-2718
▁Mika	-2719
llikkö	-2720
▁markkin	-2721
▁miesten	-2722
umer	-2723
▁vase	-2724
vet	-2725
imen	-2726
oitus	-2727
raken	-2728
ttelijä	-2729
▁liikku	-2730
suo	-2731
kkos	-2732
▁etsi	-2733
▁laske	-2734
▁ääri	-2735
go	-2736
kier	-2737
▁kevä	-2738
ykseen	-2739
▁Keski	-2740
▁johon	-2741
huo	-2742
▁Turun	-2743
▁kaikke	-2744
▁inn	-2745
▁Haav	-2746
palvelu	-2747
▁tarkoitus	-2748
ca	-2749
assi	-2750
▁Saar	-2751
▁pist	-2752
▁usea	-2753
politi	-2754
▁kunin	-2755
ji	-2756
jetta	-2757
▁suomalais	-2758
▁kuts	-2759
▁luke	-2760
▁Kyllä	-2761
▁talous	-2762
▁Kul	-2763
hoi	-2764
ehti	-2765
mit	-2766
rik	-2767
▁Oike	-2768
▁pian	-2769
▁sisäl	-2770
▁suunni	-2771
▁joukkueen	-2772
▁vaara	-2773
.)	-2774
tän	-2775
▁kisa	-2776
kien	-2777
▁100	-2778
▁kertonut	-2779
tavat	-2780
can	-2781
▁As	-2782
▁Syy	-2783
intään	-2784
mille	-2785
▁verkko	-2786
▁välttämä	-2787
▁kr	-2788
▁kri	-2789
tteja	-2790
alaisen	-2791
▁Pit	-2792
▁tod	-2793
ister	-2794
▁tuom	-2795
▁avaus	-2796
ttely	-2797
▁hinta	-2798
▁lähellä	-2799
▁mistä	-2800
▁kuollut	-2801
tinen	-2802
essään	-2803
▁Til	-2804
▁Vil	-2805
enkin	-2806
▁Kansa	-2807
▁hyvinvointi	-2808
1,	-2809
▁Kuu	-2810
▁tarp	-2811
oitu	-2812
▁Pur	-2813
jalta	-2814
▁kuvaa	-2815
▁valmi	-2816
▁Voi	-2817
▁Naton	-2818
▁Bo	-2819
▁suoraan	-2820
aste	-2821
▁tiedä	-2822
▁ydin	-2823
▁Pekka	-2824
▁Leijon	-2825
▁Mat	-2826
▁Ran	-2827
▁Ca	-2828
▁tapaa	-2829
dio	-2830
▁toimii	-2831
ysti	-2832
▁Iltalehdelle	-2833
▁tietojen	-2834
ttori	-2835
▁ilmi	-2836
▁voinut	-2837
▁tyh	-2838
▁poika	-2839
▁Alexander	-2840
▁ero	-2841
hdist	-2842
htiin	-2843
lamen	-2844
arin	-2845
▁pysy	-2846
▁etelä	-2847
▁hur	-2848
▁kuusi	-2849
▁sanoa	-2850
▁Tie	-2851
▁hilja	-2852
▁histori	-2853
ull	-2854
ttiä	-2855
▁alla	-2856
eni	-2857
hyö	-2858
udu	-2859
▁tv	-2860
tonen	-2861
▁melko	-2862
misessa	-2863
käri	-2864
tyks	-2865
▁Iltalehden	-2866
bi	-2867
eitä	-2868
▁korja	-2869
neen	-2870
▁olevansa	-2871
TV	-2872
▁Koko	-2873
▁Pett	-2874
▁Siin	-2875
▁syytä	-2876
▁uusia	-2877
▁seksua	-2878
▁sairaala	-2879
▁paras	-2880
▁Instagram	-2881
▁rea	-2882
▁Ander	-2883
▁alkoh	-2884
▁Ensimmä	-2885
▁entinen	-2886
▁todennäköisesti	-2887
▁tekemään	-2888
aat	-2889
olog	-2890
ivo	-2891
▁di	-2892
▁isä	-2893
kenut	-2894
▁Yhdysva	-2895
▁Ker	-2896
▁tee	-2897
▁vanh	-2898
▁Siinä	-2899
▁puhel	-2900
▁olemme	-2901
▁urheil	-2902
▁pelaaja	-2903
ttun	-2904
eidän	-2905
lliseen	-2906
▁vuosien	-2907
▁Her	-2908
▁löyt	-2909
joitta	-2910
alaiset	-2911
▁alusta	-2912
▁nosta	-2913
▁tuttu	-2914
▁vaali	-2915
sit	-2916
▁lah	-2917
▁yön	-2918
▁miljar	-2919
joukkueen	-2920
▁kuukauden	-2921
gissa	-2922
▁aset	-2923
▁minuu	-2924
▁jääkie	-2925
▁lauanta	-2926
▁meillä	-2927
▁oikeuden	-2928
▁kilometrin	-2929
gn	-2930
ess	-2931
▁Co	-2932
ktiiv	-2933
▁ST	-2934
▁Harr	-2935
▁merkit	-2936
▁aloitti	-2937
▁tietää	-2938
lia	-2939
▁kur	-2940
ännössä	-2941
peli	-2942
yrit	-2943
▁Kil	-2944
▁Ven	-2945
teiden	-2946
▁hyökkäys	-2947
▁puolesta	-2948
▁uudelleen	-2949
olin	-2950
▁Sel	-2951
▁uhka	-2952
▁näkyy	-2953
3,	-2954
▁yritys	-2955
▁Tu	-2956
▁Koi	-2957
▁osalta	-2958
koko	-2959
▁yleisö	-2960
▁euro	-2961
hol	-2962
kari	-2963
ät	-2964
▁kei	-2965
▁Orpo	-2966
use	-2967
iemen	-2968
▁Espan	-2969
▁asunn	-2970
▁korva	-2971
▁Lop	-2972
markkin	-2973
▁metrin	-2974
4,	-2975
▁ruu	-2976
▁hallin	-2977
äiri	-2978
▁Tul	-2979
▁vii	-2980
istoim	-2981
▁menee	-2982
llisten	-2983
▁löytyi	-2984
eor	-2985
alis	-2986
▁media	-2987
▁tappi	-2988
▁mennessä	-2989
ytti	-2990
▁Kaksi	-2991
ttor	-2992
▁puolue	-2993
▁ensimmäistä	-2994
▁Sitten	-2995
▁päätti	-2996
▁kuvan	-2997
juo	-2998
mmista	-2999
▁Tal	-3000
▁päiv	-3001
▁huipp	-3002
▁198	-3003
▁oleva	-3004
▁kyseessä	-3005
sien	-3006
▁määr	-3007
▁poikkeukse	-3008
mir	-3009
nassa	-3010
▁ympäristö	-3011
jal	-3012
muut	-3013
▁raa	-3014
yyden	-3015
▁paikalla	-3016
▁tehdään	-3017
▁tilanteessa	-3018
for	-3019
itin	-3020
▁Tim	-3021
▁naisen	-3022
▁vaatii	-3023
▁loppuun	-3024
▁kahdeksan	-3025
uita	-3026
▁mieltä	-3027
▁up	-3028
milla	-3029
▁ihme	-3030
▁kerä	-3031
▁kannalta	-3032
ose	-3033
asen	-3034
▁Yor	-3035
tämään	-3036
▁ensin	-3037
▁nimen	-3038
▁kuvailee	-3039
2,	-3040
estään	-3041
▁Lapin	-3042
▁käyttöön	-3043
eesta	-3044
▁pyrki	-3045
▁Putinin	-3046
▁selvästi	-3047
▁osta	-3048
isteri	-3049
▁kovin	-3050
▁aiku	-3051
▁ruot	-3052
▁lähet	-3053
▁vastusta	-3054
ivi	-3055
▁klo	-3056
eista	-3057
▁hake	-3058
▁normaal	-3059
▁pitänyt	-3060
liitto	-3061
▁maalin	-3062
sessa	-3063
udesta	-3064
▁jatkuu	-3065
▁rah	-3066
llistä	-3067
▁tuotan	-3068
▁ikään	-3069
▁kaikkien	-3070
▁Lap	-3071
▁Sch	-3072
musta	-3073
▁tapauksessa	-3074
sää	-3075
▁opet	-3076
▁äiti	-3077
isemmin	-3078
vuotiaan	-3079
jalle	-3080
tähti	-3081
▁juon	-3082
ikkoja	-3083
▁mestar	-3084
▁päivää	-3085
non	-3086
▁palaa	-3087
▁jonkin	-3088
▁lähtien	-3089
▁vuodesta	-3090
teissa	-3091
▁mihin	-3092
▁nähtiin	-3093
BC	-3094
uksien	-3095
▁perussuomala	-3096
▁naa	-3097
hto	-3098
▁dolla	-3099
▁perust	-3100
▁vet	-3101
▁kova	-3102
▁tarkoittaa	-3103
opea	-3104
isivat	-3105
▁aloit	-3106
▁politi	-3107
▁vil	-3108
tävät	-3109
paikan	-3110
▁kevää	-3111
▁verra	-3112
uti	-3113
aran	-3114
htaa	-3115
▁Mie	-3116
malle	-3117
ttuuri	-3118
▁juttu	-3119
gas	-3120
▁Meillä	-3121
mur	-3122
ettava	-3123
▁tyyty	-3124
▁tärkeä	-3125
▁etenkin	-3126
▁taa	-3127
▁omaa	-3128
▁pääse	-3129
▁kotiin	-3130
▁poliis	-3131
▁1,	-3132
neksi	-3133
gl	-3134
bri	-3135
▁St	-3136
▁sata	-3137
▁u	-3138
ikenne	-3139
▁asiakka	-3140
▁STT	-3141
▁joilla	-3142
▁paikalle	-3143
tajat	-3144
mari	-3145
deksi	-3146
▁harjoit	-3147
▁paremmin	-3148
etun	-3149
mättä	-3150
▁tuore	-3151
inaan	-3152
stään	-3153
▁lähi	-3154
▁niistä	-3155
▁päättyi	-3156
anskan	-3157
▁yhteistyö	-3158
2-	-3159
▁tavoit	-3160
ministeriön	-3161
▁Yhdysvallo	-3162
▁(1	-3163
istan	-3164
uiden	-3165
▁Char	-3166
▁Kana	-3167
▁varten	-3168
▁Helsingissä	-3169
isaa	-3170
▁Will	-3171
voimien	-3172
▁suhteen	-3173
ore	-3174
▁Lä	-3175
veri	-3176
gaist	-3177
▁rapor	-3178
lon	-3179
▁Sar	-3180
▁Yli	-3181
llist	-3182
▁aikoo	-3183
▁paris	-3184
▁suuntaan	-3185
▁mennä	-3186
kunnassa	-3187
▁Työ	-3188
oppuna	-3189
▁Ih	-3190
menn	-3191
vistä	-3192
▁jatko	-3193
ens	-3194
▁ry	-3195
irin	-3196
▁Os	-3197
▁uk	-3198
▁tärkeää	-3199
dyn	-3200
▁isku	-3201
▁täytyy	-3202
ts	-3203
prin	-3204
▁ohi	-3205
▁Sano	-3206
del	-3207
aston	-3208
oimin	-3209
▁2024	-3210
alissa	-3211
laiset	-3212
▁milla	-3213
▁tuntuu	-3214
PS	-3215
▁40	-3216
▁Rä	-3217
▁minuut	-3218
▁vasemm	-3219
▁Petteri	-3220
my	-3221
ero	-3222
osuh	-3223
▁kasva	-3224
▁rahaa	-3225
▁yleensä	-3226
▁Poliisin	-3227
vos	-3228
ähän	-3229
kassa	-3230
▁itsen	-3231
▁kantaa	-3232
▁saapui	-3233
äiriö	-3234
isku	-3235
▁eniten	-3236
▁hyvää	-3237
teeseen	-3238
▁Iltalehti	-3239
▁kertovat	-3240
▁Br	-3241
▁vira	-3242
ksista	-3243
▁Oh	-3244
isyys	-3245
oikeus	-3246
▁paran	-3247
▁urheili	-3248
▁aiheuttaa	-3249
▁sellainen	-3250
eria	-3251
miel	-3252
delle	-3253
6,	-3254
▁Mitä	-3255
sut	-3256
▁päällä	-3257
sarjassa	-3258
hka	-3259
itetty	-3260
▁pieni	-3261
▁avulla	-3262
▁ihmisten	-3263
alia	-3264
▁Jon	-3265
▁pot	-3266
päätö	-3267
▁nämä	-3268
llisi	-3269
valle	-3270
▁voittanut	-3271
istelee	-3272
▁hallit	-3273
▁jatkoi	-3274
▁ui	-3275
▁Juh	-3276
▁run	-3277
▁jäänyt	-3278
▁tapahtunut	-3279
▁laitt	-3280
▁jatkossa	-3281
tön	-3282
▁Mc	-3283
▁Us	-3284
▁Iran	-3285
▁teho	-3286
▁lähde	-3287
▁nuori	-3288
kkiä	-3289
▁mik	-3290
▁nostaa	-3291
ikoi	-3292
▁kappal	-3293
▁Bidenin	-3294
▁minulle	-3295
elma	-3296
tenä	-3297
▁Itali	-3298
▁kusta	-3299
▁pahoin	-3300
▁tuotta	-3301
▁luku	-3302
kur	-3303
▁roo	-3304
yteen	-3305
isteli	-3306
nettom	-3307
▁nuorten	-3308
▁seksuaal	-3309
▁toistaiseksi	-3310
olan	-3311
▁tuki	-3312
▁sijoi	-3313
▁kohtaan	-3314
uoli	-3315
▁Pan	-3316
▁etu	-3317
uttua	-3318
keskus	-3319
gh	-3320
▁Reut	-3321
▁koton	-3322
▁kolmann	-3323
▁lopussa	-3324
▁Sitä	-3325
tteiden	-3326
▁epäillään	-3327
▁Flo	-3328
▁nähty	-3329
▁Olemme	-3330
▁mö	-3331
▁Tee	-3332
▁epäilty	-3333
ingas	-3334
uskin	-3335
▁kanta	-3336
äärin	-3337
kisoissa	-3338
▁päävalmentaja	-3339
lää	-3340
yvä	-3341
▁Aal	-3342
▁Man	-3343
▁tas	-3344
▁nähdään	-3345
mei	-3346
istua	-3347
valio	-3348
▁anne	-3349
tilais	-3350
▁rauha	-3351
▁pääsee	-3352
▁rahoit	-3353
▁puna	-3354
▁luotta	-3355
imm	-3356
▁Kuo	-3357
▁pistettä	-3358
ministeriö	-3359
▁tilannetta	-3360
▁Yhdysvaltojen	-3361
lassa	-3362
▁sama	-3363
hun	-3364
▁24	-3365
▁Uusi	-3366
▁suhta	-3367
▁Britan	-3368
uttamaan	-3369
mil	-3370
▁sala	-3371
päivän	-3372
▁huomatta	-3373
▁miljoonan	-3374
▁Oy	-3375
▁aino	-3376
rän	-3377
▁mä	-3378
▁samaan	-3379
▁välttämättä	-3380
5,	-3381
meen	-3382
kanut	-3383
alassa	-3384
▁länsi	-3385
▁nähdä	-3386
▁Jussi	-3387
▁kausi	-3388
▁valmis	-3389
9,	-3390
▁kiinte	-3391
▁Pet	-3392
dotta	-3393
▁esit	-3394
▁säil	-3395
▁pääss	-3396
▁saakka	-3397
vuotiaana	-3398
▁minuuttia	-3399
▁julkais	-3400
bli	-3401
vaik	-3402
sitiiv	-3403
laisten	-3404
▁tapahtuma	-3405
llia	-3406
▁Maan	-3407
▁pakka	-3408
▁halunn	-3409
jone	-3410
ttuja	-3411
▁puhe	-3412
▁saivat	-3413
liin	-3414
▁Sve	-3415
▁Tälla	-3416
▁sukup	-3417
▁ottelua	-3418
▁om	-3419
▁esiinty	-3420
▁Venäjällä	-3421
ger	-3422
▁jätti	-3423
▁uskoo	-3424
▁liitto	-3425
▁puolella	-3426
▁toimitusjohtaja	-3427
▁alueen	-3428
wa	-3429
▁500	-3430
▁sisällä	-3431
het	-3432
ute	-3433
▁2-	-3434
▁rä	-3435
▁ylä	-3436
▁kokoon	-3437
▁vähintään	-3438
▁Jal	-3439
ttinen	-3440
teli	-3441
▁minä	-3442
johtajan	-3443
▁rakenta	-3444
▁kunnossa	-3445
▁lie	-3446
▁virka	-3447
▁vähemmän	-3448
▁Ukrainassa	-3449
▁Yhdysvalloissa	-3450
▁rik	-3451
▁kaikkea	-3452
mpa	-3453
jala	-3454
▁Nel	-3455
8,	-3456
▁Af	-3457
▁halusi	-3458
▁vahing	-3459
▁kannatta	-3460
pur	-3461
konaan	-3462
ttelua	-3463
▁jouluk	-3464
▁sosiaalisessa	-3465
astu	-3466
utettu	-3467
▁tyttö	-3468
▁kokoom	-3469
▁kukaan	-3470
▁ollaan	-3471
7,	-3472
dc	-3473
tra	-3474
alue	-3475
▁kiel	-3476
▁johtaa	-3477
▁päässä	-3478
luvun	-3479
▁vaku	-3480
▁linja	-3481
▁Suomea	-3482
▁muista	-3483
päällikkö	-3484
estön	-3485
▁toimitta	-3486
mb	-3487
zz	-3488
▁lyhy	-3489
▁päätöksen	-3490
uran	-3491
▁ajoi	-3492
yttänyt	-3493
iso	-3494
atin	-3495
▁kap	-3496
villa	-3497
▁tarvi	-3498
3-	-3499
pposi	-3500
▁tekn	-3501
▁Mikä	-3502
toista	-3503
▁saata	-3504
▁saatu	-3505
▁sarja	-3506
▁liittyy	-3507
▁Kyseessä	-3508
▁pelannut	-3509
▁Andersson	-3510
ladi	-3511
▁vaim	-3512
▁Norjan	-3513
▁maailmanm	-3514
▁Jää	-3515
publi	-3516
▁odottaa	-3517
▁toimittaja	-3518
rilla	-3519
igassa	-3520
30	-3521
ytys	-3522
▁Aie	-3523
iskeli	-3524
istään	-3525
▁ykkös	-3526
▁Samalla	-3527
hu	-3528
oida	-3529
▁Som	-3530
eloku	-3531
▁Urhe	-3532
▁liike	-3533
▁toivo	-3534
▁eteenpäin	-3535
ikö	-3536
▁hu	-3537
▁vei	-3538
yneet	-3539
publikaan	-3540
▁Elä	-3541
sivät	-3542
▁ehdot	-3543
▁Silloin	-3544
keskuksen	-3545
▁laj	-3546
▁maassa	-3547
▁kokonaan	-3548
▁toiminut	-3549
kuo	-3550
kein	-3551
▁Mos	-3552
asin	-3553
kiel	-3554
koja	-3555
▁liikke	-3556
▁taloude	-3557
▁keväällä	-3558
▁Ken	-3559
▁harr	-3560
maalla	-3561
toihin	-3562
▁kesän	-3563
▁itä	-3564
annan	-3565
vittä	-3566
▁tehtiin	-3567
atta	-3568
▁Suo	-3569
hei	-3570
▁moo	-3571
▁hiih	-3572
▁pela	-3573
kkääjä	-3574
▁pitkän	-3575
▁ihmisen	-3576
▁kesällä	-3577
iri	-3578
muka	-3579
strö	-3580
lö	-3581
▁Elo	-3582
uston	-3583
▁ehti	-3584
▁Länsi	-3585
istettu	-3586
▁Stubbin	-3587
▁vastasi	-3588
ksän	-3589
▁matkusta	-3590
▁Pir	-3591
▁vär	-3592
teeksi	-3593
▁kutsu	-3594
▁voitta	-3595
▁seli	-3596
▁es	-3597
hansa	-3598
▁laula	-3599
ss	-3600
▁johto	-3601
kelä	-3602
mitta	-3603
▁Saksan	-3604
▁tapahtuu	-3605
jään	-3606
▁järjestel	-3607
arvo	-3608
voim	-3609
▁teo	-3610
▁Willia	-3611
▁taistel	-3612
pot	-3613
aren	-3614
▁Anna	-3615
▁saadaan	-3616
▁prosentin	-3617
▁Oly	-3618
miehen	-3619
▁huono	-3620
▁tarkas	-3621
ard	-3622
taul	-3623
▁sam	-3624
▁johd	-3625
▁Orpon	-3626
▁näkem	-3627
▁Tuom	-3628
▁Tutki	-3629
▁turvallis	-3630
▁Flori	-3631
▁muutos	-3632
▁päässyt	-3633
▁viikonloppuna	-3634
tola	-3635
järvi	-3636
▁Nyky	-3637
▁ansi	-3638
▁Ennen	-3639
▁Vladi	-3640
▁juhla	-3641
▁sanon	-3642
ere	-3643
län	-3644
usin	-3645
sille	-3646
utuvat	-3647
ilman	-3648
innon	-3649
▁Ulko	-3650
▁olisivat	-3651
▁mahdollisuus	-3652
otto	-3653
▁apua	-3654
▁päin	-3655
ikkaan	-3656
▁ruotsa	-3657
▁Mur	-3658
mattom	-3659
▁sinne	-3660
▁käynyt	-3661
▁saavat	-3662
inti	-3663
▁hin	-3664
▁ohja	-3665
▁tukea	-3666
▁tilanteen	-3667
▁käytännössä	-3668
▁c	-3669
▁näi	-3670
▁suoja	-3671
▁Toinen	-3672
▁kansanedustaja	-3673
▁onkin	-3674
▁Harris	-3675
▁Lat	-3676
tul	-3677
tili	-3678
▁Hur	-3679
ralla	-3680
istossa	-3681
▁tuntia	-3682
rah	-3683
▁Kre	-3684
▁ilo	-3685
tteena	-3686
▁riittää	-3687
aut	-3688
▁emme	-3689
▁sarjan	-3690
▁Jar	-3691
oivat	-3692
▁tuntu	-3693
merikka	-3694
▁alkaen	-3695
▁metriä	-3696
▁tulevat	-3697
▁luva	-3698
▁ainoa	-3699
▁siltä	-3700
▁Seuraa	-3701
uudet	-3702
vallat	-3703
▁miestä	-3704
▁vuoteen	-3705
ikk	-3706
tär	-3707
dian	-3708
▁elämä	-3709
▁takaa	-3710
▁konser	-3711
▁näytti	-3712
▁positiiv	-3713
tella	-3714
issään	-3715
▁järky	-3716
▁vau	-3717
▁hätä	-3718
ttävää	-3719
▁kysel	-3720
istoimisto	-3721
▁erityisen	-3722
▁ex	-3723
▁Sami	-3724
▁kehitt	-3725
vist	-3726
osoit	-3727
elevisi	-3728
▁törkeä	-3729
▁Vladimir	-3730
▁myöskään	-3731
pyö	-3732
dion	-3733
▁Sin	-3734
▁Timo	-3735
uuksia	-3736
uksensa	-3737
▁lähteä	-3738
▁muutaman	-3739
fa	-3740
itti	-3741
▁estä	-3742
▁vuosikymmen	-3743
▁uhkaa	-3744
▁lähten	-3745
istetaan	-3746
▁valmentaja	-3747
genda	-3748
▁lopet	-3749
▁synty	-3750
▁töitä	-3751
▁peräti	-3752
▁parlamen	-3753
▁kilometriä	-3754
joja	-3755
ytön	-3756
▁Uut	-3757
▁pil	-3758
▁teks	-3759
▁Janne	-3760
▁tulos	-3761
▁eduskun	-3762
▁2022.	-3763
▁Zelen	-3764
rain	-3765
▁aktiiv	-3766
▁taustalla	-3767
▁äi	-3768
▁Jen	-3769
▁Kaar	-3770
▁Paika	-3771
▁lauka	-3772
▁treen	-3773
▁Ah	-3774
ppaa	-3775
▁asiat	-3776
htä	-3777
moit	-3778
▁amm	-3779
tällä	-3780
▁puolusta	-3781
▁kerrottiin	-3782
eja	-3783
ölj	-3784
tilla	-3785
▁2021	-3786
kainen	-3787
▁Gu	-3788
▁lenn	-3789
▁piir	-3790
▁minun	-3791
▁pelin	-3792
▁rikko	-3793
▁valko	-3794
▁joskus	-3795
▁kieltä	-3796
▁asiassa	-3797
▁ongelma	-3798
▁tyytyvä	-3799
ssin	-3800
▁Cat	-3801
▁kustann	-3802
▁viikkoa	-3803
▁kaupunki	-3804
▁kohdalla	-3805
▁YK	-3806
ttömä	-3807
alueen	-3808
▁Ville	-3809
▁noussut	-3810
manin	-3811
▁lasta	-3812
▁heiken	-3813
▁Yhdysvallat	-3814
esi	-3815
olf	-3816
▁Ben	-3817
▁Met	-3818
▁nos	-3819
isistä	-3820
ell	-3821
▁yhtiö	-3822
▁selkeä	-3823
▁monta	-3824
▁kasvat	-3825
▁maksaa	-3826
empi	-3827
vell	-3828
▁MTV	-3829
▁put	-3830
ustaan	-3831
ukuussa	-3832
imä	-3833
taso	-3834
killä	-3835
▁vähä	-3836
▁Lauri	-3837
isaalta	-3838
▁paikan	-3839
ukan	-3840
▁jut	-3841
mpaan	-3842
▁reil	-3843
▁pyöri	-3844
▁palkin	-3845
▁selvit	-3846
yne	-3847
▁Di	-3848
▁vuoro	-3849
llisena	-3850
▁koulut	-3851
▁harvina	-3852
isko	-3853
kista	-3854
▁ohjaa	-3855
▁odotta	-3856
▁itsensä	-3857
▁tunnettu	-3858
kr	-3859
zin	-3860
hdin	-3861
▁parin	-3862
▁ihminen	-3863
▁aloittaa	-3864
4-	-3865
▁0	-3866
det	-3867
▁Varsina	-3868
unnossa	-3869
▁työntekijö	-3870
én	-3871
▁lai	-3872
mmaksi	-3873
▁siirty	-3874
▁suomalainen	-3875
gar	-3876
juh	-3877
kkeen	-3878
telee	-3879
▁itseään	-3880
▁olemaan	-3881
▁yhdeksän	-3882
työ	-3883
▁avaa	-3884
▁Kal	-3885
urinko	-3886
kkaasti	-3887
essi	-3888
ilen	-3889
ulan	-3890
kso	-3891
▁kerta	-3892
▁kysyi	-3893
▁entistä	-3894
▁pohjois	-3895
▁Puolustus	-3896
imin	-3897
▁Juha	-3898
▁helpo	-3899
▁tulossa	-3900
▁Zelensky	-3901
▁vetä	-3902
▁valit	-3903
▁pudotus	-3904
▁toimintaa	-3905
onta	-3906
piir	-3907
jäsen	-3908
▁verta	-3909
▁tutkim	-3910
▁maananta	-3911
▁musiikki	-3912
▁Wa	-3913
▁Pen	-3914
▁siksi	-3915
kov	-3916
urva	-3917
▁kesänä	-3918
▁huomiota	-3919
udun	-3920
▁Jukka	-3921
tos	-3922
pide	-3923
▁197	-3924
▁Moni	-3925
▁huom	-3926
maiden	-3927
▁hyvän	-3928
▁kunto	-3929
▁Syyttä	-3930
▁toimia	-3931
▁vastuu	-3932
▁perusta	-3933
▁kokonais	-3934
▁käytössä	-3935
▁runsaasti	-3936
llö	-3937
elan	-3938
kuva	-3939
ttelut	-3940
tyneet	-3941
▁onnistu	-3942
koti	-3943
▁hote	-3944
ttelin	-3945
▁näkee	-3946
istoria	-3947
▁kerr	-3948
▁lupa	-3949
päivänä	-3950
▁hankki	-3951
▁itselleen	-3952
SA	-3953
kilä	-3954
sori	-3955
ongel	-3956
▁olet	-3957
▁super	-3958
▁halunnut	-3959
ento	-3960
pain	-3961
▁Las	-3962
▁luov	-3963
luvulla	-3964
▁urheilu	-3965
▁varsina	-3966
▁Pariisin	-3967
▁verrattuna	-3968
▁tilanteesta	-3969
▁3-	-3970
kkoa	-3971
▁Laa	-3972
▁res	-3973
▁yönä	-3974
▁lähtee	-3975
vun	-3976
fina	-3977
muna	-3978
ukselle	-3979
unnitel	-3980
▁maailmancup	-3981
ly	-3982
pr	-3983
dät	-3984
▁Ste	-3985
▁ilme	-3986
anneet	-3987
▁heitä	-3988
▁kolmas	-3989
▁pelastusla	-3990
▁Presidentti	-3991
tala	-3992
vahti	-3993
▁pienen	-3994
6-	-3995
ilin	-3996
joen	-3997
mäen	-3998
upaa	-3999
▁tiede	-4000
▁huippu	-4001
▁mahdollisesti	-4002
▁Koti	-4003
järven	-4004
▁pyörä	-4005
▁yhdys	-4006
▁kauppa	-4007
▁kaikille	-4008
ilma	-4009
innä	-4010
llyn	-4011
miset	-4012
vinen	-4013
▁Muut	-4014
▁Britanni	-4015
50	-4016
dun	-4017
jiä	-4018
udet	-4019
▁luu	-4020
ointi	-4021
iselta	-4022
▁pelkä	-4023
▁Siellä	-4024
▁nouse	-4025
00-	-4026
mala	-4027
dassa	-4028
valtu	-4029
estäni	-4030
▁kasvan	-4031
▁maalia	-4032
▁syntyi	-4033
▁Asiasta	-4034
pall	-4035
▁inf	-4036
jansa	-4037
▁toki	-4038
▁Siitä	-4039
▁keskellä	-4040
dp	-4041
▁puke	-4042
▁armei	-4043
▁pohjo	-4044
iskanen	-4045
▁kuuden	-4046
▁mennyt	-4047
▁tahansa	-4048
▁erilaisia	-4049
tiä	-4050
▁1.	-4051
kausi	-4052
vonen	-4053
▁Aina	-4054
▁Asia	-4055
▁Väli	-4056
▁Halla	-4057
tapahtu	-4058
▁ennakko	-4059
▁Instagramissa	-4060
vil	-4061
▁It	-4062
kasti	-4063
nasta	-4064
▁minua	-4065
▁Ranska	-4066
mpö	-4067
▁fan	-4068
viikon	-4069
ystävä	-4070
▁monet	-4071
▁Vuoden	-4072
FK	-4073
pro	-4074
▁60	-4075
jänä	-4076
▁musta	-4077
▁sydän	-4078
▁vuokra	-4079
▁huomauttaa	-4080
net	-4081
ressi	-4082
▁kauh	-4083
▁kulttuuri	-4084
tteri	-4085
teista	-4086
▁tunnin	-4087
▁or	-4088
▁iski	-4089
▁sellaista	-4090
▁Ex	-4091
maksi	-4092
▁kaun	-4093
▁itsenä	-4094
▁luonnon	-4095
peä	-4096
sal	-4097
▁Pol	-4098
eellä	-4099
▁raha	-4100
▁Hamas	-4101
▁sille	-4102
▁joutuu	-4103
▁median	-4104
ic	-4105
ös	-4106
▁Hu	-4107
voja	-4108
▁Tik	-4109
▁myr	-4110
▁2023.	-4111
▁meille	-4112
▁And	-4113
▁pes	-4114
maatt	-4115
uivat	-4116
▁Peli	-4117
▁mita	-4118
▁suom	-4119
▁Matti	-4120
▁energ	-4121
▁naura	-4122
▁sijoit	-4123
▁vuosia	-4124
▁minulla	-4125
▁toisella	-4126
iem	-4127
ester	-4128
▁eläin	-4129
▁liikaa	-4130
utuminen	-4131
▁Haavisto	-4132
▁henkilökohta	-4133
▁lisään	-4134
▁kumppan	-4135
▁yksittä	-4136
▁osallistui	-4137
ittä	-4138
maks	-4139
välin	-4140
▁yritti	-4141
▁julkaise	-4142
▁&	-4143
mmo	-4144
▁Yl	-4145
ttöm	-4146
terve	-4147
▁Ilma	-4148
▁ajaa	-4149
▁helposti	-4150
▁vuodessa	-4151
▁Bu	-4152
▁kel	-4153
▁viik	-4154
mmalla	-4155
▁onnistui	-4156
▁televisi	-4157
7-	-4158
alti	-4159
▁Joe	-4160
▁Kas	-4161
sarja	-4162
tista	-4163
▁Geor	-4164
▁Valko	-4165
▁lapsia	-4166
▁kuljetta	-4167
▁puolueen	-4168
▁väkivalta	-4169
FP	-4170
pua	-4171
teria	-4172
yneen	-4173
▁kasvoi	-4174
be	-4175
ska	-4176
etyn	-4177
kula	-4178
innut	-4179
ohjan	-4180
▁hypp	-4181
▁olin	-4182
▁rinta	-4183
▁uskon	-4184
▁vasemmisto	-4185
sto	-4186
▁kysy	-4187
yksellä	-4188
▁pohtii	-4189
rian	-4190
▁Puh	-4191
dellä	-4192
ksiin	-4193
▁Nämä	-4194
liigan	-4195
▁saisi	-4196
DP	-4197
iky	-4198
ukkaa	-4199
voitto	-4200
▁asukka	-4201
▁nousee	-4202
▁uransa	-4203
▁Pat	-4204
▁pih	-4205
▁ved	-4206
rinen	-4207
uihin	-4208
alaista	-4209
▁varmaan	-4210
▁valmenta	-4211
▁vahvistaa	-4212
▁viestipalvelu	-4213
tansa	-4214
unnan	-4215
▁lapset	-4216
▁tanssi	-4217
▁suomalaisten	-4218
pist	-4219
▁Tai	-4220
▁pääkaupun	-4221
taryh	-4222
▁Paimi	-4223
pään	-4224
jaksi	-4225
▁Charl	-4226
▁pikku	-4227
▁virhe	-4228
llisimman	-4229
▁kuoleman	-4230
▁olemassa	-4231
uin	-4232
▁torj	-4233
▁Kiinan	-4234
▁säästö	-4235
▁kaikkia	-4236
▁seurauksena	-4237
ttik	-4238
ukon	-4239
▁kein	-4240
oimaan	-4241
yttävä	-4242
▁runko	-4243
▁Oulussa	-4244
▁toiseksi	-4245
▁näyttelijä	-4246
cha	-4247
uoto	-4248
▁sal	-4249
▁sor	-4250
▁tuho	-4251
▁lista	-4252
▁rakka	-4253
▁voiton	-4254
▁saaneet	-4255
▁helmikuussa	-4256
▁republikaan	-4257
saa	-4258
▁Vor	-4259
uvosto	-4260
▁päähän	-4261
▁aloitta	-4262
▁kulutta	-4263
▁syksyllä	-4264
ukä	-4265
▁Pu	-4266
▁Salo	-4267
▁laul	-4268
mmassa	-4269
▁pystyy	-4270
käyn	-4271
▁Sam	-4272
astui	-4273
▁varha	-4274
▁jättää	-4275
▁kotima	-4276
▁missään	-4277
▁tasolla	-4278
tsi	-4279
mist	-4280
▁istu	-4281
▁turna	-4282
▁puolen	-4283
alueella	-4284
▁Helsinki	-4285
▁perustel	-4286
▁Toki	-4287
ohjelman	-4288
▁kansanedusta	-4289
▁Iso	-4290
▁häl	-4291
piste	-4292
▁illa	-4293
▁isän	-4294
▁koulun	-4295
▁asiantunti	-4296
fes	-4297
mpiin	-4298
▁auki	-4299
▁omat	-4300
▁valmenn	-4301
▁lämpötila	-4302
▁mahdollisimman	-4303
▁pika	-4304
yhdist	-4305
▁monen	-4306
▁aikoina	-4307
ley	-4308
▁Marin	-4309
▁juoks	-4310
▁ukrain	-4311
▁Hallitus	-4312
▁ymmärtää	-4313
▁BBC	-4314
▁Jär	-4315
ännyt	-4316
io	-4317
ilua	-4318
▁Mad	-4319
tille	-4320
▁Kesä	-4321
▁Sanna	-4322
▁kruun	-4323
tapa	-4324
vaih	-4325
▁Ala	-4326
▁Jul	-4327
▁jälj	-4328
koihin	-4329
▁vieras	-4330
▁sotilas	-4331
▁sijaitsee	-4332
▁terveyden	-4333
▁sol	-4334
▁Vide	-4335
▁lehd	-4336
▁saar	-4337
▁sito	-4338
ikuuta	-4339
joista	-4340
▁selvä	-4341
▁huolta	-4342
▁palkka	-4343
▁yllättä	-4344
vaaleissa	-4345
▁Niinistö	-4346
▁Tampereen	-4347
ak	-4348
▁AFP	-4349
▁Onko	-4350
▁häir	-4351
▁ajone	-4352
ip	-4353
skin	-4354
▁Fin	-4355
▁Gran	-4356
▁alas	-4357
eeseen	-4358
isillä	-4359
käyttö	-4360
▁parhaa	-4361
lliseksi	-4362
▁kysymys	-4363
▁alueelle	-4364
sk	-4365
▁4-	-4366
upäi	-4367
mmasta	-4368
▁kävel	-4369
alaisia	-4370
▁lääkär	-4371
▁tiedon	-4372
▁ystävä	-4373
▁lopulla	-4374
▁parempi	-4375
▁ongelmia	-4376
▁yhdysvalta	-4377
tuvat	-4378
rakenn	-4379
▁tilaa	-4380
tteeseen	-4381
▁kuljettaja	-4382
isty	-4383
▁loh	-4384
tiota	-4385
▁tarke	-4386
▁ampuma	-4387
▁joulukuussa	-4388
▁+	-4389
uska	-4390
innassa	-4391
▁harjoi	-4392
▁laajen	-4393
▁nähnyt	-4394
▁sisään	-4395
▁opiskeli	-4396
▁tiedossa	-4397
▁tietysti	-4398
ario	-4399
orin	-4400
ukin	-4401
▁rek	-4402
dalla	-4403
eessa	-4404
▁Kaik	-4405
▁Olin	-4406
elemaan	-4407
henkilö	-4408
llisesta	-4409
▁Mal	-4410
▁Ruo	-4411
talon	-4412
▁Espo	-4413
▁Katso	-4414
▁Ranta	-4415
▁ollen	-4416
▁täysi	-4417
▁karsin	-4418
valmenta	-4419
▁saatiin	-4420
istettiin	-4421
ya	-4422
otti	-4423
▁dia	-4424
ström	-4425
▁alun	-4426
▁jaka	-4427
▁artik	-4428
▁käsite	-4429
▁säännö	-4430
▁puolust	-4431
▁Ruotsissa	-4432
▁suomalaiset	-4433
önen	-4434
omista	-4435
fessori	-4436
▁aikaisemmin	-4437
ler	-4438
▁Be	-4439
teri	-4440
▁Paa	-4441
vaara	-4442
tieteen	-4443
▁Ranskan	-4444
8-	-4445
kua	-4446
kohd	-4447
koon	-4448
▁Kale	-4449
▁hovi	-4450
maansa	-4451
▁Teemu	-4452
▁palasi	-4453
▁Aiemmin	-4454
▁vahvasti	-4455
▁vahvista	-4456
▁viimeisen	-4457
NN	-4458
bin	-4459
▁Lau	-4460
▁työtä	-4461
▁kotona	-4462
▁muutama	-4463
atti	-4464
▁SDP	-4465
lässä	-4466
▁Face	-4467
▁Vali	-4468
▁meri	-4469
▁Siksi	-4470
▁samaa	-4471
▁hiihto	-4472
▁syystä	-4473
▁rakenne	-4474
▁presidenttiehdo	-4475
kes	-4476
vyys	-4477
tonin	-4478
▁sytt	-4479
▁löyty	-4480
▁vauri	-4481
▁ottanut	-4482
▁toiseen	-4483
▁kuukausi	-4484
▁ammattila	-4485
▁tammikuussa	-4486
veä	-4487
▁Epä	-4488
▁pöy	-4489
issut	-4490
jojen	-4491
▁Mann	-4492
▁kana	-4493
mppail	-4494
ttomasti	-4495
▁nykyään	-4496
mö	-4497
▁21	-4498
kela	-4499
ueen	-4500
uvon	-4501
▁haas	-4502
▁rann	-4503
▁kuule	-4504
▁nopea	-4505
poliitt	-4506
vaalien	-4507
▁auttaa	-4508
minister	-4509
▁yrittää	-4510
▁Tuolloin	-4511
▁ainoastaan	-4512
▁Saa	-4513
▁ampu	-4514
▁tyttä	-4515
▁1-	-4516
▁My	-4517
▁Pul	-4518
ellaan	-4519
ksestä	-4520
merkki	-4521
▁vanha	-4522
itetään	-4523
▁hyödyn	-4524
▁William	-4525
▁Venäjälle	-4526
mmät	-4527
vuus	-4528
mpana	-4529
▁vaar	-4530
▁vettä	-4531
▁muistelee	-4532
▁yliopiston	-4533
▁2,	-4534
Kore	-4535
ttil	-4536
yhty	-4537
▁Bor	-4538
▁Sir	-4539
uttava	-4540
▁edellis	-4541
zb	-4542
eva	-4543
ood	-4544
▁Tän	-4545
kilön	-4546
osassa	-4547
▁Laine	-4548
▁riippu	-4549
▁suuren	-4550
oikeuden	-4551
öi	-4552
iaan	-4553
▁ide	-4554
omaan	-4555
▁sivi	-4556
▁Tästä	-4557
▁mikään	-4558
▁työskenne	-4559
▁käräjäoikeus	-4560
boo	-4561
ähti	-4562
▁Tun	-4563
aleja	-4564
▁reag	-4565
▁osaval	-4566
▁tutkimus	-4567
▁Jä	-4568
dcast	-4569
istin	-4570
▁Mole	-4571
▁video	-4572
▁ottelu	-4573
viranoma	-4574
▁syntynyt	-4575
▁Varsinais	-4576
▁Pro	-4577
iikki	-4578
▁elämää	-4579
▁tarvitta	-4580
bor	-4581
▁Eli	-4582
▁Jari	-4583
▁ansa	-4584
▁nosti	-4585
▁päätyi	-4586
pitel	-4587
ähkön	-4588
▁kamer	-4589
▁iltapäivä	-4590
201	-4591
rille	-4592
▁kestä	-4593
▁tunnet	-4594
▁siirtyi	-4595
ttelemaan	-4596
▁kuukautta	-4597
sty	-4598
▁CNN	-4599
▁roh	-4600
▁tap	-4601
desta	-4602
▁sovi	-4603
▁hetken	-4604
▁antanut	-4605
▁ennätys	-4606
▁osoitta	-4607
ottelussa	-4608
▁eduskuntaryh	-4609
▁huomattavasti	-4610
▁Luo	-4611
ologi	-4612
▁Nuor	-4613
operaa	-4614
▁kovaa	-4615
▁rauhan	-4616
▁voittaa	-4617
▁joukossa	-4618
kais	-4619
▁asen	-4620
isissä	-4621
ryhmän	-4622
▁arvos	-4623
▁kaver	-4624
▁käydä	-4625
dettiin	-4626
▁esille	-4627
▁kiinnosta	-4628
▁Q	-4629
pite	-4630
▁Huu	-4631
▁Jor	-4632
▁oll	-4633
▁John	-4634
▁tuhan	-4635
▁huhtik	-4636
▁kunnan	-4637
ustilais	-4638
▁kilpaili	-4639
▁varmista	-4640
▁HS	-4641
imet	-4642
täjä	-4643
▁Han	-4644
▁Auto	-4645
▁Lapp	-4646
▁murh	-4647
▁muuten	-4648
▁sekunn	-4649
▁etteivät	-4650
▁tarvitaan	-4651
▁ensimmäisenä	-4652
töä	-4653
▁bri	-4654
toimin	-4655
▁kuningas	-4656
ai	-4657
▁Olli	-4658
muksia	-4659
▁numer	-4660
▁tunne	-4661
▁tähti	-4662
▁kasvaa	-4663
▁elämään	-4664
▁aiheutti	-4665
▁Ukrainaan	-4666
▁törkeästä	-4667
sil	-4668
▁tra	-4669
▁kuvia	-4670
▁Ruotsi	-4671
▁prinssi	-4672
▁puoliväli	-4673
▁syyskuussa	-4674
▁keskustelua	-4675
9-	-4676
hkä	-4677
▁Je	-4678
▁Toy	-4679
▁Use	-4680
▁2020	-4681
▁osin	-4682
▁vaikutus	-4683
ministerin	-4684
▁kansalais	-4685
▁kertoivat	-4686
▁uutistoimisto	-4687
▁Ny	-4688
peri	-4689
toim	-4690
▁Aika	-4691
▁loma	-4692
vuoden	-4693
yväsky	-4694
▁tuomio	-4695
itettiin	-4696
▁viittaa	-4697
▁oikeasti	-4698
▁Ad	-4699
aliin	-4700
kussa	-4701
▁Dani	-4702
▁kuka	-4703
▁vall	-4704
utetta	-4705
utuneet	-4706
▁päivit	-4707
▁astetta	-4708
▁tietoja	-4709
▁voittaja	-4710
hdi	-4711
▁Tan	-4712
▁oir	-4713
▁raj	-4714
kosta	-4715
kumen	-4716
missi	-4717
▁Mari	-4718
▁näitä	-4719
▁katsoi	-4720
▁videon	-4721
▁paljastaa	-4722
omo	-4723
▁näke	-4724
▁kritis	-4725
▁kunnia	-4726
▁löytää	-4727
nim	-4728
mmän	-4729
▁heh	-4730
oksen	-4731
▁Itse	-4732
▁haki	-4733
▁hinn	-4734
▁vien	-4735
▁Joukku	-4736
▁kevään	-4737
▁seuran	-4738
▁viikonlop	-4739
▁marraskuussa	-4740
ste	-4741
isan	-4742
kala	-4743
▁Suu	-4744
▁uus	-4745
▁Prin	-4746
▁nais	-4747
▁nuore	-4748
▁joutunut	-4749
lun	-4750
htia	-4751
▁osu	-4752
▁tah	-4753
▁Hann	-4754
kirjoit	-4755
kumppan	-4756
▁kakkos	-4757
▁valvon	-4758
▁aurinko	-4759
▁lopetta	-4760
▁myöntää	-4761
▁molemmat	-4762
▁viimeinen	-4763
▁kesäkuussa	-4764
kt	-4765
kys	-4766
▁lyö	-4767
isiko	-4768
ikseen	-4769
▁Vielä	-4770
▁päättää	-4771
▁alkoholi	-4772
bert	-4773
missä	-4774
istuva	-4775
▁hoita	-4776
▁vaalit	-4777
▁yrittä	-4778
▁samassa	-4779
by	-4780
▁Bra	-4781
▁Nur	-4782
▁ali	-4783
kille	-4784
▁pakko	-4785
▁puolet	-4786
▁tuntui	-4787
▁yhtään	-4788
ttömästi	-4789
▁Faceboo	-4790
▁edustaja	-4791
▁merkittävä	-4792
▁asiantuntija	-4793
käsi	-4794
▁Sai	-4795
▁Sto	-4796
huone	-4797
lehden	-4798
▁Purra	-4799
▁kuvaili	-4800
▁maajoukkue	-4801
▁toukokuussa	-4802
▁veto	-4803
etut	-4804
unen	-4805
▁Fran	-4806
estiin	-4807
kkinen	-4808
▁Yleis	-4809
▁hyviä	-4810
▁liiga	-4811
▁oikea	-4812
teisiin	-4813
uttavat	-4814
johtajana	-4815
▁Men	-4816
▁suj	-4817
▁Liban	-4818
puolelle	-4819
▁esitutkin	-4820
▁kiinteistö	-4821
▁pahoinpitel	-4822
seet	-4823
▁Lon	-4824
▁eräs	-4825
▁laki	-4826
ikassa	-4827
joille	-4828
▁Harry	-4829
▁talon	-4830
▁katsoa	-4831
▁paitsi	-4832
▁hyväksi	-4833
▁ilmasto	-4834
▁historia	-4835
▁kuninkaa	-4836
gg	-4837
fan	-4838
▁komp	-4839
reiden	-4840
▁havai	-4841
▁toimen	-4842
tikuussa	-4843
▁mieleen	-4844
▁ainakaan	-4845
▁prinsessa	-4846
▁Ukrainalle	-4847
teg	-4848
▁Vo	-4849
mpiä	-4850
▁lait	-4851
▁ikkun	-4852
▁kärki	-4853
▁törmä	-4854
ettänyt	-4855
ilainen	-4856
▁korvaa	-4857
▁opposi	-4858
▁rajoit	-4859
▁hyväksy	-4860
▁ilmoitta	-4861
▁lokakuussa	-4862
ulu	-4863
▁Ts	-4864
ajan	-4865
sani	-4866
▁400	-4867
▁pen	-4868
tettä	-4869
istiin	-4870
▁lakko	-4871
▁mietti	-4872
▁hänestä	-4873
za	-4874
...	-4875
▁Aut	-4876
uneet	-4877
▁Erit	-4878
ellään	-4879
▁Nainen	-4880
▁sieltä	-4881
▁esittää	-4882
▁laittaa	-4883
▁näkökul	-4884
JK	-4885
▁Mik	-4886
▁Vas	-4887
▁heik	-4888
▁neli	-4889
▁rool	-4890
estaru	-4891
kkanen	-4892
▁päivi	-4893
▁sulje	-4894
▁tunnel	-4895
kinä	-4896
▁300	-4897
intoja	-4898
▁maini	-4899
▁tosin	-4900
▁asteen	-4901
▁tavoin	-4902
Suomessa	-4903
▁aikataul	-4904
▁vaihtoehto	-4905
Pa	-4906
ttoi	-4907
▁Sdp	-4908
pelin	-4909
▁vauh	-4910
ostaan	-4911
valtaa	-4912
zbolla	-4913
▁veden	-4914
▁keskus	-4915
▁maasto	-4916
▁Minulla	-4917
▁kierroksella	-4918
ety	-4919
ror	-4920
ärä	-4921
▁my	-4922
ukot	-4923
▁Tuk	-4924
▁aje	-4925
illut	-4926
▁viid	-4927
varain	-4928
▁Gazan	-4929
▁helppo	-4930
▁sähköp	-4931
▁yllätys	-4932
IFK	-4933
aho	-4934
muu	-4935
rat	-4936
ikuun	-4937
oitiin	-4938
▁Miten	-4939
▁lopput	-4940
▁kehitys	-4941
▁muistaa	-4942
▁vaikeaa	-4943
▁Hizbolla	-4944
▁hallinto	-4945
▁Leijonien	-4946
▁käynnissä	-4947
put	-4948
▁Mu	-4949
▁Ru	-4950
▁ele	-4951
▁vin	-4952
▁York	-4953
▁fyys	-4954
▁Botta	-4955
▁olosuh	-4956
▁asiakas	-4957
▁Suomesta	-4958
▁tuomittiin	-4959
▁järjestetään	-4960
▁hah	-4961
mmissa	-4962
▁Japan	-4963
▁kunni	-4964
▁järjest	-4965
▁käytetty	-4966
land	-4967
vinä	-4968
▁Hon	-4969
ltaan	-4970
udella	-4971
▁rajan	-4972
▁välit	-4973
paikkaa	-4974
▁yhdist	-4975
▁tuotanto	-4976
ham	-4977
ilo	-4978
hdet	-4979
veli	-4980
▁olo	-4981
▁matk	-4982
▁voita	-4983
▁tarjolla	-4984
▁videolla	-4985
▁tunnetaan	-4986
▁maaliskuussa	-4987
▁ölj	-4988
pallo	-4989
▁saun	-4990
▁Erity	-4991
▁illan	-4992
▁henkilöä	-4993
▁merkittävästi	-4994
unto	-4995
ersin	-4996
gatar	-4997
kisen	-4998
villä	-4999
▁Aust	-5000
▁jänn	-5001
▁saapu	-5002
▁Jyväsky	-5003
▁ministeri	-5004
▁ravintola	-5005
▁eduskunnan	-5006
lik	-5007
▁Bl	-5008
▁of	-5009
isyyd	-5010
koski	-5011
ysten	-5012
▁Yrit	-5013
taneen	-5014
yhtiön	-5015
▁Perus	-5016
▁maata	-5017
paikalla	-5018
kyky	-5019
turna	-5020
▁joko	-5021
▁nautti	-5022
▁elokuva	-5023
▁entisen	-5024
▁lähtenyt	-5025
▁mukaisesti	-5026
▁sairaalaan	-5027
▁some	-5028
▁sekun	-5029
▁Kaupun	-5030
▁Tilanne	-5031
▁Jaa	-5032
▁Lan	-5033
oilta	-5034
kselle	-5035
llissa	-5036
▁lupaa	-5037
▁Harrisin	-5038
▁Perjanta	-5039
▁asioista	-5040
▁avi	-5041
dossa	-5042
käynn	-5043
▁Tätä	-5044
▁lata	-5045
▁Kalle	-5046
miselle	-5047
mistaan	-5048
▁tulipal	-5049
▁ulkopuol	-5050
ohjelmassa	-5051
▁elokuussa	-5052
mpu	-5053
huol	-5054
kaut	-5055
▁Vaa	-5056
auton	-5057
▁räjä	-5058
opimuksen	-5059
▁korostaa	-5060
▁selvittää	-5061
▁toiminnan	-5062
ci	-5063
ynnä	-5064
▁Niko	-5065
▁anal	-5066
▁avio	-5067
▁vihre	-5068
ganisaa	-5069
▁Meidän	-5070
▁ennuste	-5071
▁suomalaisen	-5072
▁lih	-5073
aseen	-5074
yrkke	-5075
attien	-5076
prosen	-5077
▁sopimus	-5078
▁22	-5079
hdon	-5080
hään	-5081
kirja	-5082
▁Vasta	-5083
▁hetki	-5084
▁yhtenä	-5085
▁amerikka	-5086
▁Euroopassa	-5087
▁ann	-5088
maali	-5089
▁uran	-5090
eltaan	-5091
▁inves	-5092
ikkojen	-5093
kisojen	-5094
▁hengen	-5095
▁pidetään	-5096
▁venäläis	-5097
bu	-5098
jaks	-5099
stit	-5100
▁Lie	-5101
▁Tuu	-5102
▁Wal	-5103
▁Vain	-5104
▁naim	-5105
teesta	-5106
▁Maria	-5107
▁paino	-5108
▁sanonut	-5109
jiin	-5110
mann	-5111
▁13.	-5112
▁kuol	-5113
▁Iranin	-5114
▁tarjoa	-5115
▁väärin	-5116
▁sosiaali	-5117
▁tiedotti	-5118
▁viestintä	-5119
bla	-5120
▁11.	-5121
▁Chr	-5122
▁Eri	-5123
▁Hir	-5124
itään	-5125
jöitä	-5126
▁este	-5127
▁Marko	-5128
uvoston	-5129
▁muutti	-5130
▁muuttaa	-5131
kertainen	-5132
▁Sy	-5133
▁ju	-5134
▁21.	-5135
rella	-5136
vällä	-5137
▁Spor	-5138
ksessä	-5139
puheen	-5140
anneksi	-5141
▁epäonn	-5142
▁selvää	-5143
muksesta	-5144
wan	-5145
▁(2	-5146
oaan	-5147
▁Fer	-5148
▁USA	-5149
▁virh	-5150
ussaan	-5151
▁Mosko	-5152
▁veren	-5153
utuksen	-5154
▁kunnes	-5155
▁toivoo	-5156
asia	-5157
paus	-5158
▁art	-5159
▁heng	-5160
▁samm	-5161
▁tuul	-5162
▁väär	-5163
▁huone	-5164
▁remon	-5165
▁katsoo	-5166
▁perään	-5167
▁voimaan	-5168
▁julkisuudessa	-5169
▁Slo	-5170
▁Ehkä	-5171
▁Kari	-5172
▁ehtin	-5173
▁törke	-5174
▁vakavasti	-5175
▁[	-5176
pun	-5177
ski	-5178
▁Hie	-5179
iaamuna	-5180
▁poissa	-5181
bur	-5182
▁Kaa	-5183
tiksi	-5184
▁HIFK	-5185
▁tait	-5186
▁nuoren	-5187
▁yhtiön	-5188
estyksen	-5189
▁nimenomaan	-5190
▁tavoitteena	-5191
hl	-5192
▁Edus	-5193
▁kulu	-5194
bergin	-5195
kauppa	-5196
kierro	-5197
▁puhua	-5198
▁häiriö	-5199
▁parhaan	-5200
▁kuolleen	-5201
▁mielessä	-5202
▁muutoksia	-5203
▁odotetaan	-5204
eta	-5205
vik	-5206
lain	-5207
▁Vih	-5208
▁lopu	-5209
▁sydä	-5210
▁kulta	-5211
rangaist	-5212
▁tekevät	-5213
llisuutta	-5214
vään	-5215
▁18.	-5216
▁Win	-5217
pyörä	-5218
▁tutus	-5219
▁kertoa	-5220
▁taakse	-5221
isuuteen	-5222
▁työmarkkin	-5223
pes	-5224
usen	-5225
▁Was	-5226
▁kuk	-5227
istoa	-5228
▁Venälä	-5229
▁lainkaan	-5230
▁ulkopuolella	-5231
tre	-5232
töjä	-5233
▁rei	-5234
herin	-5235
media	-5236
äneen	-5237
▁levi	-5238
ttelyn	-5239
yksiin	-5240
▁Uuden	-5241
uksilla	-5242
ukäteen	-5243
▁heille	-5244
▁alkanut	-5245
▁materia	-5246
▁näytteli	-5247
▁yrityksen	-5248
▁Kansainväl	-5249
kene	-5250
mälä	-5251
uhan	-5252
▁Ari	-5253
▁Red	-5254
▁hom	-5255
dissa	-5256
kistä	-5257
▁Krem	-5258
▁kauan	-5259
▁täyde	-5260
▁heistä	-5261
▁otettu	-5262
▁siirto	-5263
▁alkuperä	-5264
oton	-5265
▁Tes	-5266
▁leh	-5267
västä	-5268
▁konf	-5269
itettu	-5270
oilija	-5271
▁vastu	-5272
tteluun	-5273
▁aamulla	-5274
▁vaimonsa	-5275
▁tiedustel	-5276
py	-5277
opi	-5278
empää	-5279
kuljet	-5280
vinnyt	-5281
▁Heikki	-5282
▁jaksossa	-5283
▁kaikista	-5284
▁keskuste	-5285
▁talouden	-5286
▁harjoitus	-5287
-,	-5288
▁17.	-5289
▁Koiv	-5290
▁alta	-5291
▁sotila	-5292
▁selvisi	-5293
▁ratkaise	-5294
▁syyllist	-5295
▁Rovanperä	-5296
▁Do	-5297
▁Gr	-5298
▁bi	-5299
kunna	-5300
▁Hanna	-5301
▁kisan	-5302
▁esitys	-5303
▁poliit	-5304
▁pyytää	-5305
llisessa	-5306
▁Salossa	-5307
▁varsinkin	-5308
La	-5309
▁23	-5310
▁12.	-5311
mpään	-5312
▁kirj	-5313
▁uima	-5314
säädän	-5315
▁johti	-5316
▁kadon	-5317
▁kriitt	-5318
▁epäilee	-5319
▁merkittä	-5320
▁toisessa	-5321
vuotiaiden	-5322
ny	-5323
kast	-5324
maat	-5325
▁bud	-5326
lähet	-5327
tissä	-5328
hallin	-5329
▁operaa	-5330
▁ammatti	-5331
▁dollaria	-5332
▁rakennus	-5333
paik	-5334
helle	-5335
ryhmä	-5336
▁kiire	-5337
▁Reuters	-5338
▁sellaisia	-5339
ejä	-5340
enin	-5341
sikko	-5342
uomio	-5343
▁Joka	-5344
▁palo	-5345
utusta	-5346
▁liittyen	-5347
▁äänestys	-5348
▁Toisaalta	-5349
▁Ber	-5350
▁Sta	-5351
viera	-5352
▁Juus	-5353
▁omia	-5354
ikansa	-5355
▁arvon	-5356
yönteki	-5357
▁hiljattain	-5358
▁Th	-5359
▁196	-5360
kalla	-5361
kkejä	-5362
sista	-5363
▁Hyvä	-5364
▁vang	-5365
▁ilmen	-5366
uudella	-5367
▁ehdokka	-5368
▁kannata	-5369
▁kiinnost	-5370
▁löytynyt	-5371
▁poliisille	-5372
▁sopimuksen	-5373
▁huhtikuussa	-5374
isal	-5375
kone	-5376
▁kii	-5377
▁ohe	-5378
▁tiiv	-5379
isivät	-5380
ksessa	-5381
tiellä	-5382
▁löysi	-5383
▁hävisi	-5384
▁niihin	-5385
▁nähden	-5386
▁toimintaan	-5387
▁heinäkuussa	-5388
▁iltapäivällä	-5389
mite	-5390
ttin	-5391
▁Koh	-5392
▁Sara	-5393
▁roma	-5394
▁yhteyttä	-5395
▁tutkinnan	-5396
isit	-5397
vide	-5398
▁14.	-5399
▁Mac	-5400
▁hid	-5401
▁kato	-5402
▁vahva	-5403
▁maiden	-5404
▁myynti	-5405
▁Hänellä	-5406
▁kampanja	-5407
▁kuuluvat	-5408
▁suosikki	-5409
▁Tampereella	-5410
▁kokoomuksen	-5411
▁loukkaantui	-5412
hön	-5413
öyr	-5414
▁80	-5415
▁aa	-5416
2024	-5417
mpär	-5418
▁mah	-5419
▁Pien	-5420
▁juhl	-5421
Pohjan	-5422
▁tuolla	-5423
▁keskust	-5424
▁lähinnä	-5425
▁pelkästään	-5426
dään	-5427
▁Myö	-5428
kalta	-5429
onnut	-5430
tisen	-5431
▁rooli	-5432
▁tapaan	-5433
▁Zelenskyi	-5434
▁kilpailun	-5435
▁nimittäin	-5436
▁vaaleissa	-5437
con	-5438
mys	-5439
kojen	-5440
meren	-5441
▁jalka	-5442
▁Linnan	-5443
▁asiaan	-5444
▁kiekko	-5445
yttelijä	-5446
▁Niskanen	-5447
▁ratkaisu	-5448
▁Suomalais	-5449
hel	-5450
poh	-5451
▁Yh	-5452
taalla	-5453
▁valtu	-5454
äneensä	-5455
▁juoksi	-5456
▁tuskin	-5457
▁Olympia	-5458
▁sotilaa	-5459
▁henkilön	-5460
▁kaikkiaan	-5461
▁onnistunut	-5462
▁parhaillaan	-5463
▁Jas	-5464
▁Emme	-5465
▁osan	-5466
▁suor	-5467
▁haavoi	-5468
▁Britannian	-5469
▁tyytyväinen	-5470
osi	-5471
ergi	-5472
isar	-5473
oika	-5474
▁Cup	-5475
vellä	-5476
▁vauhd	-5477
▁isänsä	-5478
▁katsom	-5479
▁suunta	-5480
▁voittoa	-5481
▁etukäteen	-5482
▁tiedottaa	-5483
ttop	-5484
▁Ede	-5485
▁Kie	-5486
▁Mir	-5487
▁ton	-5488
dulla	-5489
sonin	-5490
▁edell	-5491
▁nukku	-5492
▁ryhmä	-5493
▁tyypi	-5494
utetaan	-5495
istuksen	-5496
▁tarvitsee	-5497
ep	-5498
▁27	-5499
▁lan	-5500
▁näki	-5501
▁star	-5502
▁varo	-5503
joukko	-5504
▁Eurovi	-5505
▁korona	-5506
▁Lopulta	-5507
▁kapteen	-5508
▁Fo	-5509
▁hää	-5510
▁moti	-5511
▁olle	-5512
▁terv	-5513
tiossa	-5514
▁raska	-5515
▁pitkin	-5516
▁selviää	-5517
▁jalkapall	-5518
▁käytetään	-5519
▁julkisuuteen	-5520
gon	-5521
▁2.	-5522
alit	-5523
ulos	-5524
lleni	-5525
▁etene	-5526
▁kalta	-5527
glannin	-5528
utumaan	-5529
uutensa	-5530
▁myönsi	-5531
utumista	-5532
▁itsestään	-5533
öitä	-5534
▁mää	-5535
▁vero	-5536
erässä	-5537
määrin	-5538
▁Tappa	-5539
▁kunta	-5540
ttäneet	-5541
▁asunto	-5542
▁Washing	-5543
▁Sunnunta	-5544
▁minuutin	-5545
▁vaihtoeh	-5546
▁valittiin	-5547
stu	-5548
yle	-5549
paino	-5550
▁sade	-5551
▁suru	-5552
▁Kalli	-5553
▁siten	-5554
▁valio	-5555
▁finaali	-5556
kkit	-5557
▁15-	-5558
▁19.	-5559
▁20.	-5560
▁Tra	-5561
▁Ihan	-5562
kkonen	-5563
▁Tähän	-5564
▁tavan	-5565
▁kokenut	-5566
▁vaikutti	-5567
▁loukkaantu	-5568
sd	-5569
ene	-5570
rei	-5571
▁ru	-5572
▁Hei	-5573
▁Nik	-5574
▁uni	-5575
oinut	-5576
▁ääni	-5577
hyökkä	-5578
▁jäädä	-5579
▁kulke	-5580
tilanne	-5581
▁soitti	-5582
▁suuria	-5583
▁toisin	-5584
▁Trumpia	-5585
▁jossain	-5586
▁kasvanut	-5587
▁pystynyt	-5588
▁julkaistu	-5589
▁Roo	-5590
lliin	-5591
▁Lähi	-5592
muutta	-5593
▁kalli	-5594
▁haluavat	-5595
▁sekuntia	-5596
▁jääkiekko	-5597
▁kritiikki	-5598
▁Pelastusla	-5599
▁Op	-5600
tilo	-5601
▁Pes	-5602
▁erin	-5603
▁kans	-5604
▁puto	-5605
ttömän	-5606
▁Virta	-5607
▁omaan	-5608
▁pelata	-5609
▁hyökkää	-5610
▁puhelim	-5611
▁keskitty	-5612
▁ylivoima	-5613
innin	-5614
kkien	-5615
suojel	-5616
vaihto	-5617
▁Hyvin	-5618
▁Koska	-5619
▁puhui	-5620
▁riski	-5621
▁Kamala	-5622
▁kestää	-5623
▁tarkka	-5624
▁väliin	-5625
alaisissa	-5626
▁kirjoitta	-5627
▁Käräjäoike	-5628
th	-5629
vala	-5630
▁mun	-5631
▁Star	-5632
▁Tänä	-5633
▁eroa	-5634
▁talvi	-5635
▁mikäli	-5636
▁aikojen	-5637
▁keskustan	-5638
pul	-5639
urn	-5640
kata	-5641
▁15.	-5642
▁16.	-5643
▁vied	-5644
▁huija	-5645
yksistä	-5646
▁omasta	-5647
ash	-5648
log	-5649
iksen	-5650
vuoro	-5651
▁Tamm	-5652
udulla	-5653
▁joudu	-5654
▁kehit	-5655
▁luonno	-5656
▁matkan	-5657
▁kehittä	-5658
▁käynnist	-5659
▁puhutaan	-5660
▁puolelle	-5661
▁kierroksen	-5662
▁iä	-5663
▁Ann	-5664
▁ket	-5665
▁selv	-5666
▁järke	-5667
▁riste	-5668
mestari	-5669
▁Oikeus	-5670
kaudella	-5671
▁aiempaa	-5672
▁Rin	-5673
▁koki	-5674
▁kuor	-5675
▁turha	-5676
pelaaja	-5677
▁Hamasin	-5678
▁parissa	-5679
▁Espanjan	-5680
öt	-5681
snä	-5682
▁Am	-5683
seja	-5684
vall	-5685
▁Pie	-5686
▁ren	-5687
▁tyr	-5688
▁Matt	-5689
▁tapp	-5690
▁täyden	-5691
▁Maailman	-5692
▁verkkosiv	-5693
▁yleisurhe	-5694
presidentti	-5695
▁tilanteeseen	-5696
rali	-5697
ssia	-5698
▁Vol	-5699
▁soi	-5700
karin	-5701
perin	-5702
▁Heik	-5703
▁katu	-5704
▁Jenni	-5705
▁Metsä	-5706
▁Monet	-5707
▁kiusa	-5708
▁osuus	-5709
▁miehet	-5710
▁illalla	-5711
▁vuodelta	-5712
▁kansallis	-5713
▁sijoittui	-5714
▁huolissaan	-5715
teo	-5716
lund	-5717
Stubb	-5718
ihdon	-5719
ottelu	-5720
▁pyysi	-5721
▁rakas	-5722
▁rinna	-5723
jalainen	-5724
▁välittömästi	-5725
syy	-5726
vih	-5727
osan	-5728
▁10.	-5729
uneen	-5730
▁Viron	-5731
▁puhuu	-5732
▁Tapahtu	-5733
▁Catherin	-5734
▁joukkoon	-5735
▁pitkäaika	-5736
kila	-5737
tunn	-5738
uosi	-5739
▁aio	-5740
ustan	-5741
▁2019	-5742
▁petty	-5743
▁liigan	-5744
▁Lapissa	-5745
▁jutussa	-5746
ikoksesta	-5747
immillaan	-5748
▁viranomaiset	-5749
95	-5750
asu	-5751
glan	-5752
▁liha	-5753
▁naur	-5754
▁totta	-5755
▁henkir	-5756
▁vankeus	-5757
vuotiasta	-5758
▁epäillyn	-5759
▁mielenkiin	-5760
usk	-5761
mmaa	-5762
ttilä	-5763
uille	-5764
▁Tiet	-5765
▁puhd	-5766
idassa	-5767
kaansa	-5768
tyneen	-5769
▁täytt	-5770
▁dokumen	-5771
▁energia	-5772
▁vapaaehto	-5773
ivan	-5774
▁lämm	-5775
▁vamm	-5776
▁Daniel	-5777
▁siirre	-5778
▁edellisen	-5779
▁Rovaniemen	-5780
▁0,	-5781
▁Lää	-5782
joilla	-5783
▁etsin	-5784
▁jälki	-5785
▁tietä	-5786
▁ajatus	-5787
▁aluksi	-5788
▁muutta	-5789
▁olevat	-5790
▁saattavat	-5791
pio	-5792
vuutta	-5793
▁saksa	-5794
▁Martin	-5795
▁suojel	-5796
▁väitti	-5797
▁Onnettom	-5798
▁osoittaa	-5799
▁paljasti	-5800
▁tietenkin	-5801
▁yliopisto	-5802
▁joulukuuta	-5803
jul	-5804
teja	-5805
▁Hol	-5806
▁aih	-5807
iskel	-5808
▁Tunn	-5809
▁elää	-5810
enkään	-5811
▁Paris	-5812
▁jakoi	-5813
▁pysäh	-5814
▁risti	-5815
▁epävar	-5816
uksessaan	-5817
▁tuomitsi	-5818
Sa	-5819
▁Nie	-5820
päivää	-5821
viikko	-5822
▁Innes	-5823
▁hämmä	-5824
▁sprin	-5825
▁joihin	-5826
▁tarina	-5827
▁tarkoit	-5828
▁elämässä	-5829
ostu	-5830
qvist	-5831
▁kuun	-5832
▁ylös	-5833
ikkaus	-5834
ikohta	-5835
▁ranga	-5836
misario	-5837
▁omalla	-5838
▁Vantaan	-5839
▁eivätkä	-5840
▁maaliin	-5841
▁lauantain	-5842
▁tulevaisuudessa	-5843
ima	-5844
vis	-5845
▁Teh	-5846
▁syr	-5847
alist	-5848
eissa	-5849
intaan	-5850
ttynyt	-5851
▁uhrin	-5852
▁edellä	-5853
▁hämmen	-5854
▁oppila	-5855
▁suurta	-5856
▁vallan	-5857
▁luvassa	-5858
▁jokainen	-5859
▁kannatus	-5860
▁lentoken	-5861
▁liittyvät	-5862
▁w	-5863
hat	-5864
▁3,	-5865
▁70	-5866
▁sta	-5867
▁ohje	-5868
▁unoh	-5869
estejä	-5870
▁Hänet	-5871
▁ajate	-5872
▁tytär	-5873
mmäisen	-5874
▁Kuvassa	-5875
▁sisältä	-5876
▁matkalla	-5877
▁sanotaan	-5878
▁vieraili	-5879
▁Jes	-5880
▁etä	-5881
▁hyl	-5882
Korean	-5883
ilpail	-5884
▁sanot	-5885
▁muuttu	-5886
▁näiden	-5887
▁toisia	-5888
▁ehtinyt	-5889
▁erikois	-5890
▁parasta	-5891
▁tilasto	-5892
▁historian	-5893
▁tällainen	-5894
cen	-5895
itu	-5896
jek	-5897
ner	-5898
uth	-5899
vid	-5900
uuto	-5901
▁Sim	-5902
▁jyr	-5903
▁Yhte	-5904
▁huum	-5905
komite	-5906
▁Heleni	-5907
▁huolto	-5908
▁huolest	-5909
▁kaupung	-5910
▁kohdistu	-5911
tilaisuudessa	-5912
joa	-5913
▁Aki	-5914
▁2025	-5915
▁Lepp	-5916
▁Pohjan	-5917
▁Riikka	-5918
▁Ruotsa	-5919
▁muisto	-5920
▁naiset	-5921
▁yksilö	-5922
ettavasti	-5923
▁yllättäen	-5924
▁ohjelmassa	-5925
▁keskimäärin	-5926
▁äl	-5927
tiop	-5928
▁Cha	-5929
▁Jan	-5930
▁Yhti	-5931
▁aamu	-5932
▁Anton	-5933
▁Miksi	-5934
▁Vasemm	-5935
▁vastan	-5936
▁keväänä	-5937
▁urallaan	-5938
▁suomalaista	-5939
ynen	-5940
▁Fre	-5941
▁2021.	-5942
▁Somer	-5943
▁Sosia	-5944
▁hieno	-5945
▁läsnä	-5946
isuudesta	-5947
▁liikunta	-5948
▁yrittäjä	-5949
▁Ilmatieteen	-5950
tena	-5951
▁viis	-5952
▁menet	-5953
▁poista	-5954
▁eurolla	-5955
yri	-5956
▁ep	-5957
▁är	-5958
pele	-5959
ytyä	-5960
▁HJK	-5961
▁käs	-5962
▁rat	-5963
▁Halu	-5964
isempi	-5965
llisiä	-5966
▁Terve	-5967
▁pojan	-5968
emmistö	-5969
▁Kansan	-5970
▁naista	-5971
▁syksynä	-5972
▁tunnista	-5973
▁tarkemmin	-5974
öö	-5975
▁SA	-5976
emme	-5977
pros	-5978
▁Bel	-5979
▁Kot	-5980
▁läp	-5981
▁piha	-5982
▁Harki	-5983
▁ikinä	-5984
▁kiito	-5985
▁kokee	-5986
▁Henrik	-5987
▁tapaus	-5988
vaikutta	-5989
▁Charles	-5990
▁alkavat	-5991
▁huomioon	-5992
▁pelaajat	-5993
▁muuttunut	-5994
▁kommentoin	-5995
▁kaupungissa	-5996
▁0-	-5997
ennä	-5998
▁22.	-5999
▁Col	-6000
ttivat	-6001
ttujen	-6002
▁hakea	-6003
ituksena	-6004
onnettom	-6005
▁lähesty	-6006
▁ulkoministeri	-6007
all	-6008
▁90	-6009
ieme	-6010
▁asuu	-6011
▁pron	-6012
itinsä	-6013
vaalit	-6014
▁lääke	-6015
▁monia	-6016
▁sulke	-6017
yksissä	-6018
▁Rantanen	-6019
▁esiintyi	-6020
▁jalkapallo	-6021
nön	-6022
vian	-6023
▁Mel	-6024
▁eva	-6025
▁Angel	-6026
▁kuvat	-6027
▁lakka	-6028
▁eläkke	-6029
▁erinoma	-6030
▁milloin	-6031
▁Saksassa	-6032
▁kymmeniä	-6033
▁rekister	-6034
valiokunnan	-6035
tr	-6036
Pan	-6037
kap	-6038
▁Oma	-6039
▁noud	-6040
ttoman	-6041
▁myöhä	-6042
▁tuuli	-6043
▁Mikäli	-6044
▁kuului	-6045
▁nuoret	-6046
▁tiedotustilais	-6047
che	-6048
ein	-6049
pres	-6050
▁Max	-6051
▁Sää	-6052
kkiin	-6053
vuori	-6054
▁2018	-6055
▁Tapp	-6056
▁käyn	-6057
▁otsi	-6058
assaan	-6059
mukset	-6060
▁jättä	-6061
▁katka	-6062
▁paina	-6063
▁teatt	-6064
▁keitti	-6065
▁ohella	-6066
KP	-6067
▁9.	-6068
osto	-6069
stro	-6070
▁ahd	-6071
teitä	-6072
▁osui	-6073
tuivat	-6074
▁korjaa	-6075
▁muihin	-6076
▁täynnä	-6077
alaa	-6078
▁Mor	-6079
neuvo	-6080
tilaa	-6081
▁Koul	-6082
▁Talo	-6083
▁stra	-6084
▁hoito	-6085
▁Jääkie	-6086
▁kaupan	-6087
▁raiska	-6088
▁Aleksan	-6089
ottavasti	-6090
▁hyökkäysso	-6091
▁jatkuvasti	-6092
kto	-6093
itun	-6094
pitä	-6095
▁jun	-6096
▁psy	-6097
▁Kuus	-6098
▁Muun	-6099
▁Toim	-6100
kkänen	-6101
voiton	-6102
▁peliä	-6103
▁Siihen	-6104
▁määrää	-6105
▁pystyi	-6106
▁otettiin	-6107
▁sarjassa	-6108
▁väliaika	-6109
▁mielenosoit	-6110
▁osi	-6111
▁laad	-6112
▁terä	-6113
maalin	-6114
teessä	-6115
voimat	-6116
▁Micha	-6117
▁koira	-6118
▁näistä	-6119
▁talven	-6120
▁täyttä	-6121
▁tutkinta	-6122
▁vastaava	-6123
▁kokoonpan	-6124
▁aiheuttanut	-6125
SS	-6126
▁Uh	-6127
▁Aho	-6128
▁Ras	-6129
▁Kaner	-6130
▁avoim	-6131
▁hyvät	-6132
▁riipp	-6133
▁erässä	-6134
▁tekijä	-6135
▁paikkaa	-6136
▁sairaus	-6137
▁ensimmäisessä	-6138
▁20-	-6139
▁pei	-6140
rillä	-6141
▁koto	-6142
▁seka	-6143
▁Pulju	-6144
▁kerää	-6145
▁tuoda	-6146
▁heillä	-6147
▁muille	-6148
▁Tappara	-6149
▁tarpeeksi	-6150
▁ensimmäisellä	-6151
ohj	-6152
▁35	-6153
▁5-	-6154
▁TV	-6155
ppoa	-6156
äluo	-6157
▁10-	-6158
korva	-6159
▁Järj	-6160
▁Voit	-6161
▁jaksa	-6162
▁salli	-6163
▁kirjassa	-6164
▁poliisila	-6165
▁valmistel	-6166
▁Yo	-6167
laan	-6168
tian	-6169
itsin	-6170
jalan	-6171
mainen	-6172
palkin	-6173
▁pyrkii	-6174
▁ba	-6175
mppu	-6176
oten	-6177
ottu	-6178
pito	-6179
▁kot	-6180
basti	-6181
koita	-6182
▁laaj	-6183
▁liki	-6184
▁epäsel	-6185
▁suomen	-6186
▁sähkön	-6187
▁tallen	-6188
ikenteen	-6189
vuodesta	-6190
▁vahvisti	-6191
▁Myöhemmin	-6192
▁maksamaan	-6193
▁Perussuomala	-6194
eltu	-6195
▁Raa	-6196
tutki	-6197
vella	-6198
▁pose	-6199
istele	-6200
ksissa	-6201
▁heikko	-6202
ttelyssä	-6203
▁menesty	-6204
▁varrella	-6205
▁voittoon	-6206
▁ympärillä	-6207
kn	-6208
oil	-6209
▁spe	-6210
▁sope	-6211
▁uudet	-6212
▁Mäkelä	-6213
▁Suurin	-6214
▁Tiista	-6215
▁esitti	-6216
▁selittää	-6217
▁kolmannen	-6218
▁paikallis	-6219
hah	-6220
ysa	-6221
▁26	-6222
holm	-6223
pari	-6224
unnon	-6225
▁Suur	-6226
▁viih	-6227
▁autoa	-6228
isyyttä	-6229
tteessa	-6230
▁hoitaa	-6231
▁alkoivat	-6232
ds	-6233
hot	-6234
tkä	-6235
▁kasa	-6236
▁päih	-6237
▁Sähkö	-6238
▁kaupa	-6239
▁meneh	-6240
▁seksi	-6241
▁niissä	-6242
▁valinta	-6243
▁käytöstä	-6244
▁lopettaa	-6245
▁viimeksi	-6246
politiikan	-6247
▁puolisonsa	-6248
▁tapahtuneesta	-6249
wi	-6250
hdus	-6251
sään	-6252
▁luv	-6253
kkain	-6254
simme	-6255
▁Guar	-6256
▁Juli	-6257
▁pros	-6258
▁vuor	-6259
▁kiloa	-6260
ottelun	-6261
▁lämmin	-6262
▁tehneet	-6263
tilillään	-6264
▁Presiden	-6265
▁palkinto	-6266
▁tavanoma	-6267
tter	-6268
▁Aam	-6269
▁ves	-6270
ppien	-6271
▁Tele	-6272
▁lumi	-6273
▁tuon	-6274
alista	-6275
eltään	-6276
jöiden	-6277
▁irtis	-6278
▁pääty	-6279
▁varoit	-6280
ttelevat	-6281
▁kokemus	-6282
▁peräkkä	-6283
▁tärkein	-6284
▁entisestä	-6285
ov	-6286
uone	-6287
vesi	-6288
väki	-6289
▁Muu	-6290
▁Sus	-6291
areen	-6292
▁Emil	-6293
▁Miel	-6294
▁kome	-6295
tamaan	-6296
▁kahta	-6297
▁lasku	-6298
▁omassa	-6299
▁terror	-6300
eellinen	-6301
▁Italian	-6302
▁valmiiksi	-6303
▁voitaisiin	-6304
▁Pääministeri	-6305
▁Pär	-6306
▁ota	-6307
▁sav	-6308
tappi	-6309
▁uhri	-6310
▁Lindt	-6311
▁hevos	-6312
▁hybri	-6313
▁isoja	-6314
virasto	-6315
▁Krista	-6316
▁Vastaa	-6317
▁valoku	-6318
▁kulttuu	-6319
▁haluaisi	-6320
▁järjestää	-6321
▁tällaista	-6322
▁Washington	-6323
▁merkitystä	-6324
ug	-6325
art	-6326
fia	-6327
ule	-6328
keli	-6329
▁Hin	-6330
▁Hui	-6331
▁Tei	-6332
▁hau	-6333
ilais	-6334
ulais	-6335
▁Tshe	-6336
hteeri	-6337
▁esillä	-6338
▁uuteen	-6339
liigassa	-6340
▁siirtyy	-6341
▁kesäkuuta	-6342
puri	-6343
▁län	-6344
jältä	-6345
miaan	-6346
▁lähd	-6347
hdessä	-6348
▁Joens	-6349
▁pysyy	-6350
▁verot	-6351
▁huomaa	-6352
▁jäivät	-6353
▁muistu	-6354
▁ranska	-6355
▁ottamaan	-6356
em	-6357
pas	-6358
eett	-6359
kenn	-6360
▁Lah	-6361
käytö	-6362
kuntaa	-6363
▁Kiina	-6364
▁kaupp	-6365
▁viest	-6366
ittänyt	-6367
materia	-6368
▁Huuhka	-6369
▁enempää	-6370
▁Valtonen	-6371
▁kerrosta	-6372
▁kunnolla	-6373
▁pelataan	-6374
llas	-6375
▁man	-6376
▁puk	-6377
▁sie	-6378
llöin	-6379
netty	-6380
ostun	-6381
mmilla	-6382
▁eteni	-6383
▁moottor	-6384
▁saattoi	-6385
▁vaikkapa	-6386
▁yksinkerta	-6387
▁ilmoittanut	-6388
▁vaikuttavat	-6389
iil	-6390
tas	-6391
▁km	-6392
ther	-6393
▁Joul	-6394
▁puut	-6395
▁pään	-6396
ikasta	-6397
uransa	-6398
▁laita	-6399
▁osoit	-6400
▁pohja	-6401
▁tänne	-6402
▁versi	-6403
etoimin	-6404
▁kaksin	-6405
▁teksti	-6406
▁kuvassa	-6407
▁laulaja	-6408
▁valitsi	-6409
▁henkilöstö	-6410
▁työskentele	-6411
muo	-6412
mppa	-6413
▁Kim	-6414
oping	-6415
ppasi	-6416
▁Kann	-6417
▁erän	-6418
▁sote	-6419
kkaita	-6420
mmalle	-6421
uttiin	-6422
▁Ensin	-6423
▁äidin	-6424
▁tietty	-6425
▁tutkii	-6426
▁vakava	-6427
▁itsekin	-6428
▁lääkäri	-6429
▁tavoite	-6430
▁pelaamaan	-6431
▁Pariisissa	-6432
▁väkivallan	-6433
▁sosiaalisen	-6434
▁näkökulmasta	-6435
▁viranomaisten	-6436
ez	-6437
etu	-6438
rast	-6439
▁800	-6440
▁Jun	-6441
▁ros	-6442
oston	-6443
puoli	-6444
yleis	-6445
karsin	-6446
▁2024.	-6447
▁Suuri	-6448
▁kolle	-6449
▁laski	-6450
▁vahin	-6451
▁Tänään	-6452
▁keikka	-6453
▁kohden	-6454
▁ruokaa	-6455
▁työelä	-6456
utumisen	-6457
▁pisteen	-6458
▁kamppail	-6459
▁kerrottu	-6460
▁rakentaa	-6461
▁miljardia	-6462
llisuudessa	-6463
▁maalivahti	-6464
▁keskustassa	-6465
1:	-6466
ws	-6467
kejä	-6468
▁Luu	-6469
▁Vik	-6470
istop	-6471
▁osto	-6472
▁soit	-6473
ytynyt	-6474
▁Aalto	-6475
▁testa	-6476
itetaan	-6477
▁määrän	-6478
▁päättä	-6479
▁euroopp	-6480
▁mukanaan	-6481
▁sunnuntain	-6482
▁ga	-6483
▁Ilve	-6484
▁Noin	-6485
▁Penn	-6486
▁syyt	-6487
▁Daily	-6488
▁Elina	-6489
▁Valta	-6490
▁omien	-6491
histori	-6492
llisiin	-6493
▁juhann	-6494
▁kaipaa	-6495
▁syöttö	-6496
▁muuttui	-6497
▁toimeen	-6498
▁tulevan	-6499
▁harrasta	-6500
▁omistaja	-6501
▁toiselle	-6502
▁paljastui	-6503
▁sijaitsevan	-6504
▁yhteistyötä	-6505
▁olympialaisissa	-6506
des	-6507
▁Ir	-6508
▁Vic	-6509
▁jän	-6510
▁yks	-6511
alvel	-6512
kkoja	-6513
▁Jani	-6514
▁estää	-6515
▁ranta	-6516
▁viita	-6517
▁edistä	-6518
▁Paimion	-6519
▁rangaist	-6520
▁liittyviä	-6521
▁seuraavan	-6522
▁päätteeksi	-6523
vys	-6524
▁8.	-6525
▁pus	-6526
nytys	-6527
▁2016	-6528
▁Taka	-6529
▁avoi	-6530
▁länn	-6531
▁vaimo	-6532
▁päättyy	-6533
▁kolmanneksi	-6534
bet	-6535
how	-6536
ide	-6537
▁7.	-6538
unni	-6539
▁Ään	-6540
ilijä	-6541
▁Minä	-6542
▁totu	-6543
yhteis	-6544
▁Tikto	-6545
▁näkyi	-6546
istosta	-6547
▁Heidän	-6548
▁Mikael	-6549
▁tuhansia	-6550
▁tyttären	-6551
▁tiedotteessaan	-6552
lti	-6553
▁18-	-6554
▁Ros	-6555
▁lit	-6556
▁viha	-6557
▁Kolme	-6558
▁Päätö	-6559
▁Roman	-6560
stituut	-6561
▁tekoäl	-6562
▁Kilpail	-6563
▁polttoa	-6564
hyökkääjä	-6565
▁elokuuta	-6566
▁kahdesti	-6567
▁nykyinen	-6568
estaruutta	-6569
▁tapahtumia	-6570
▁toukokuuta	-6571
▁hyökkäyksen	-6572
teena	-6573
istoon	-6574
▁Super	-6575
▁miettiä	-6576
▁paikoin	-6577
▁Valtteri	-6578
▁viikossa	-6579
▁kappaletta	-6580
▁mahdollinen	-6581
ek	-6582
nia	-6583
gren	-6584
roon	-6585
detty	-6586
liiga	-6587
stapp	-6588
▁Vier	-6589
kultaa	-6590
merkin	-6591
▁taite	-6592
▁vetää	-6593
▁kielle	-6594
▁puuttu	-6595
▁järjestö	-6596
▁heinäkuuta	-6597
▁presidentiksi	-6598
cin	-6599
osu	-6600
öyh	-6601
kapp	-6602
liik	-6603
ston	-6604
▁uhr	-6605
Uuden	-6606
▁asiana	-6607
▁evakuo	-6608
▁matala	-6609
▁nousta	-6610
▁poistu	-6611
▁Marinin	-6612
▁muualla	-6613
▁mielenterve	-6614
▁eduskunnassa	-6615
▁maailmancupin	-6616
ass	-6617
vyö	-6618
▁Du	-6619
▁Sau	-6620
pakka	-6621
▁Puha	-6622
▁irti	-6623
▁kiir	-6624
▁Joker	-6625
▁huole	-6626
ulainen	-6627
▁asetta	-6628
paikkoja	-6629
▁käyttöä	-6630
▁melkein	-6631
▁paranta	-6632
▁yhteisö	-6633
▁kilpailu	-6634
▁tapausta	-6635
▁voimassa	-6636
▁onnettomuus	-6637
▁vankeusrangaist	-6638
tus	-6639
▁Ali	-6640
▁oul	-6641
dosta	-6642
uring	-6643
▁Carl	-6644
▁Kata	-6645
▁Seura	-6646
▁asuva	-6647
▁isänn	-6648
▁omina	-6649
▁Turussa	-6650
▁Verstapp	-6651
▁ohjelman	-6652
▁toimivat	-6653
▁eduskuntaryhmän	-6654
teko	-6655
▁Mil	-6656
▁käd	-6657
ketin	-6658
▁yhty	-6659
uoneen	-6660
▁haita	-6661
▁kodin	-6662
▁kulkee	-6663
▁lähetti	-6664
▁väittää	-6665
▁esiintyy	-6666
▁moottori	-6667
▁kuningatar	-6668
▁mielestään	-6669
siä	-6670
yli	-6671
ikot	-6672
ikul	-6673
ivat	-6674
▁Aja	-6675
▁Eur	-6676
llise	-6677
vainen	-6678
▁Ohjel	-6679
▁jakaa	-6680
▁lauta	-6681
yydestä	-6682
▁kyseen	-6683
▁käytti	-6684
▁potila	-6685
mmillaan	-6686
▁Johanna	-6687
▁Michael	-6688
▁äitinsä	-6689
Uudenmaan	-6690
▁Salminen	-6691
▁investoin	-6692
▁Hallituksen	-6693
BA	-6694
ain	-6695
dit	-6696
▁3.	-6697
kisa	-6698
▁Air	-6699
▁Pri	-6700
▁apu	-6701
keino	-6702
▁sana	-6703
iltaan	-6704
ointia	-6705
▁voida	-6706
huollon	-6707
▁kirjan	-6708
▁mahdot	-6709
▁perässä	-6710
▁strateg	-6711
▁paljasta	-6712
kohtaisesti	-6713
▁Vasemmisto	-6714
▁julkaissut	-6715
▁professori	-6716
▁normaalisti	-6717
15	-6718
gian	-6719
iver	-6720
lisä	-6721
▁Ser	-6722
▁löi	-6723
immat	-6724
tonsa	-6725
▁Fore	-6726
▁enkä	-6727
opimus	-6728
▁Kokoom	-6729
▁Torsta	-6730
▁haaste	-6731
▁kaatui	-6732
kunnalle	-6733
▁alueilla	-6734
▁lehdistö	-6735
▁osallistua	-6736
▁tasavallan	-6737
chin	-6738
östä	-6739
▁Meri	-6740
▁kohtuu	-6741
▁lisäsi	-6742
▁tapasi	-6743
▁lukuisia	-6744
▁perustus	-6745
▁poikansa	-6746
▁mestaruus	-6747
▁prosentti	-6748
▁perjantain	-6749
MA	-6750
▁Kut	-6751
kisat	-6752
selle	-6753
▁Mäki	-6754
▁avoin	-6755
▁vaadi	-6756
▁pelasta	-6757
▁ristiri	-6758
▁halutaan	-6759
▁Euroviisu	-6760
▁entisestään	-6761
▁keskuudessa	-6762
▁suomalaisia	-6763
opar	-6764
istys	-6765
tävän	-6766
▁Sain	-6767
▁Tasa	-6768
▁pake	-6769
▁Epäil	-6770
▁erään	-6771
▁jokin	-6772
▁Markku	-6773
▁määrit	-6774
▁ehdokas	-6775
▁yleisön	-6776
dcastissa	-6777
▁urheilija	-6778
▁hyvinvointialu	-6779
cks	-6780
▁Kai	-6781
▁Rei	-6782
▁kyy	-6783
laatu	-6784
töjen	-6785
▁Nord	-6786
▁harmi	-6787
▁toden	-6788
oissaan	-6789
▁Robert	-6790
▁mitali	-6791
▁pitävät	-6792
▁lokakuuta	-6793
▁muutenkin	-6794
lay	-6795
väs	-6796
▁Lou	-6797
▁SAK	-6798
kinta	-6799
▁Yllä	-6800
▁haus	-6801
▁hymy	-6802
istian	-6803
koneen	-6804
▁joulu	-6805
▁ostaa	-6806
▁varma	-6807
▁olisin	-6808
▁Naisten	-6809
▁valtava	-6810
▁Syyttäjä	-6811
▁perjantai	-6812
▁syyskuuta	-6813
▁uudestaan	-6814
▁herättänyt	-6815
poo	-6816
rot	-6817
Venä	-6818
dien	-6819
ison	-6820
▁Gar	-6821
▁Stan	-6822
▁kone	-6823
▁kärj	-6824
osissa	-6825
▁Andre	-6826
▁Pitkä	-6827
▁laaja	-6828
▁laaje	-6829
▁Tukhol	-6830
▁keräsi	-6831
voittaja	-6832
▁Telegra	-6833
▁tulivat	-6834
▁välinen	-6835
▁anteeksi	-6836
▁vuosittain	-6837
40	-6838
tug	-6839
palo	-6840
▁Jat	-6841
hdoin	-6842
▁Katri	-6843
▁Kuopi	-6844
▁askel	-6845
▁loista	-6846
▁naisia	-6847
▁nuoria	-6848
utettiin	-6849
▁Kanadan	-6850
▁muuttuu	-6851
▁tutkija	-6852
▁Molemmat	-6853
▁juontaja	-6854
▁kahdeksa	-6855
▁pelaajia	-6856
▁todetaan	-6857
▁varapuheen	-6858
jin	-6859
mes	-6860
laki	-6861
istit	-6862
▁akti	-6863
▁houku	-6864
▁syksyn	-6865
Sanomien	-6866
komitean	-6867
▁Venäjää	-6868
▁kisassa	-6869
▁puhelin	-6870
▁puhunut	-6871
▁suoritus	-6872
▁tarkasti	-6873
▁Catherine	-6874
▁sairaalassa	-6875
▁Ph	-6876
heen	-6877
immä	-6878
▁Kau	-6879
▁gra	-6880
▁hil	-6881
rajan	-6882
▁Colo	-6883
hoidon	-6884
voiman	-6885
▁tuote	-6886
▁varaa	-6887
▁Tuomas	-6888
▁koskee	-6889
▁seurasi	-6890
▁lähettää	-6891
▁syytetään	-6892
▁tiedotteen	-6893
mun	-6894
saar	-6895
▁Kiv	-6896
▁mas	-6897
anoma	-6898
eistä	-6899
▁Anne	-6900
▁Hein	-6901
▁kiva	-6902
kurssi	-6903
▁Ferra	-6904
llisyys	-6905
tteesta	-6906
▁lääkke	-6907
▁Miesten	-6908
▁Sveitsi	-6909
▁kuntoon	-6910
▁päiväko	-6911
▁artikkel	-6912
▁elämänsä	-6913
▁hallitse	-6914
▁muistutti	-6915
▁arvioidaan	-6916
▁julkisesti	-6917
▁marraskuuta	-6918
▁Ö	-6919
-1-	-6920
lop	-6921
kkia	-6922
töön	-6923
ulin	-6924
kunut	-6925
mpänä	-6926
panen	-6927
saira	-6928
seura	-6929
ittasi	-6930
ikäinen	-6931
▁Jaakko	-6932
▁opetta	-6933
▁reilut	-6934
▁syyttä	-6935
järjestön	-6936
▁Australi	-6937
▁pitkälle	-6938
▁päätöstä	-6939
▁suunnite	-6940
▁Rovanieme	-6941
arit	-6942
ckin	-6943
elee	-6944
konä	-6945
▁City	-6946
pallon	-6947
puolue	-6948
▁minut	-6949
▁sotaa	-6950
▁kärsin	-6951
▁sattui	-6952
▁pääosin	-6953
▁tekemistä	-6954
hallituksen	-6955
▁keskustelu	-6956
▁kritiikkiä	-6957
kuk	-6958
ysi	-6959
▁Ab	-6960
omas	-6961
veto	-6962
unais	-6963
▁kiih	-6964
ikympp	-6965
utensa	-6966
matonta	-6967
▁ajanut	-6968
▁meteor	-6969
mpäristö	-6970
▁Panther	-6971
▁puoliväl	-6972
▁tapauksesta	-6973
▁Don	-6974
kosen	-6975
▁Kolm	-6976
joissa	-6977
▁Muuta	-6978
▁meitä	-6979
▁viedä	-6980
▁jatkoa	-6981
▁lailla	-6982
istuneet	-6983
▁Guardian	-6984
▁Ukrainaa	-6985
▁organisaa	-6986
▁palestiin	-6987
▁oikeudessa	-6988
▁kansainvälisen	-6989
ruo	-6990
etyt	-6991
ihla	-6992
llit	-6993
rann	-6994
usia	-6995
▁Juk	-6996
▁bän	-6997
jetti	-6998
mausa	-6999
murha	-7000
nista	-7001
▁Käyt	-7002
▁Sisä	-7003
▁fiil	-7004
▁kori	-7005
▁Kokko	-7006
▁Laura	-7007
▁Silti	-7008
▁kesti	-7009
▁nuoris	-7010
edustaja	-7011
▁käydään	-7012
▁aikanaan	-7013
▁kilpaile	-7014
keskukseen	-7015
▁eduskunta	-7016
▁todettiin	-7017
▁vankeuteen	-7018
▁työskennellyt	-7019
▁4.	-7020
▁Tea	-7021
▁tav	-7022
detta	-7023
▁Kaup	-7024
▁ison	-7025
aseman	-7026
isiksi	-7027
▁Harri	-7028
▁silmä	-7029
asiassa	-7030
▁Tanska	-7031
▁lisätä	-7032
▁päivys	-7033
▁haittaa	-7034
▁tarjoaa	-7035
▁kahdesta	-7036
▁päivässä	-7037
▁esityksen	-7038
▁painottaa	-7039
▁lausunnossa	-7040
ylä	-7041
ilas	-7042
inaa	-7043
opet	-7044
unda	-7045
▁Keh	-7046
kattu	-7047
ostuu	-7048
▁aivo	-7049
talous	-7050
tteitä	-7051
▁kisaa	-7052
▁säily	-7053
▁vakuu	-7054
ilemaan	-7055
misella	-7056
▁Bottas	-7057
▁menest	-7058
llisella	-7059
▁Sveitsin	-7060
▁äänestää	-7061
▁laitoksen	-7062
▁suhteessa	-7063
▁politiikan	-7064
▁Ensimmäinen	-7065
car	-7066
isy	-7067
▁6.	-7068
▁Za	-7069
isiv	-7070
kise	-7071
▁Huh	-7072
▁lev	-7073
kella	-7074
kuvan	-7075
radio	-7076
detään	-7077
ologia	-7078
▁koken	-7079
▁laiva	-7080
▁määri	-7081
▁tiuka	-7082
mpötila	-7083
ravinto	-7084
▁Hämeen	-7085
▁euroon	-7086
▁jonkun	-7087
▁pieniä	-7088
▁putosi	-7089
▁somessa	-7090
▁hyökkääjä	-7091
▁äärimmäisen	-7092
▁järjestettiin	-7093
epä	-7094
pala	-7095
▁Meg	-7096
▁dra	-7097
▁löyd	-7098
▁tark	-7099
iemelä	-7100
voimaa	-7101
▁haltu	-7102
▁Kommen	-7103
▁edusti	-7104
▁heidät	-7105
▁koiran	-7106
▁minkään	-7107
▁pidetty	-7108
▁ilmaston	-7109
▁mielestäni	-7110
▁oikeastaan	-7111
▁mestaruuden	-7112
▁päävalmenta	-7113
▁valtiovarain	-7114
arv	-7115
urna	-7116
▁TPS	-7117
▁pir	-7118
entia	-7119
äältä	-7120
ritään	-7121
istusta	-7122
▁Expres	-7123
▁periaa	-7124
▁todista	-7125
▁tulosta	-7126
▁Tapparan	-7127
▁ansiosta	-7128
▁jäljellä	-7129
▁pelastus	-7130
▁ilmoittaa	-7131
▁osallistuu	-7132
▁vastaisena	-7133
and	-7134
leh	-7135
umb	-7136
ensä	-7137
vaun	-7138
▁600	-7139
▁Hil	-7140
silla	-7141
terin	-7142
ttuun	-7143
ttynä	-7144
vaati	-7145
yössä	-7146
▁Kivi	-7147
▁Paja	-7148
▁Sekä	-7149
▁unel	-7150
tuotta	-7151
▁Ilves	-7152
▁Uskon	-7153
▁avasi	-7154
▁puuta	-7155
misessä	-7156
utuivat	-7157
▁töihin	-7158
ttäisiin	-7159
▁Sebasti	-7160
▁hyvältä	-7161
▁sukupol	-7162
▁dollarin	-7163
▁seuraava	-7164
▁riittävän	-7165
kol	-7166
plo	-7167
mela	-7168
sili	-7169
▁täs	-7170
hoito	-7171
▁Puna	-7172
▁maala	-7173
▁riitä	-7174
▁sopii	-7175
tasolla	-7176
täminen	-7177
▁Juttua	-7178
▁kuulla	-7179
▁samana	-7180
järvellä	-7181
▁Entinen	-7182
▁kohtalo	-7183
▁kuuluva	-7184
▁osoitti	-7185
▁tekivät	-7186
▁murhasta	-7187
aja	-7188
▁At	-7189
▁Ty	-7190
etti	-7191
tulo	-7192
▁nau	-7193
▁the	-7194
hinta	-7195
varti	-7196
▁Grön	-7197
kosken	-7198
mmille	-7199
ttelyä	-7200
▁Lassi	-7201
▁Sauli	-7202
▁Sella	-7203
▁Selän	-7204
▁Sillä	-7205
▁syöpä	-7206
▁pallon	-7207
▁Gazassa	-7208
▁varuste	-7209
▁suurempi	-7210
▁kohteeksi	-7211
▁selkeästi	-7212
ow	-7213
fin	-7214
hia	-7215
mian	-7216
▁17-	-7217
▁taj	-7218
▁klas	-7219
▁lauk	-7220
▁ryös	-7221
▁millä	-7222
ilaisen	-7223
oottori	-7224
sivusto	-7225
▁Espoon	-7226
hallitus	-7227
▁Ainakin	-7228
▁liittyi	-7229
▁Suomelle	-7230
▁vieressä	-7231
suh	-7232
vii	-7233
▁Cr	-7234
kate	-7235
▁23.	-7236
▁Näi	-7237
ismin	-7238
puolu	-7239
tilas	-7240
verta	-7241
▁Alan	-7242
▁kyky	-7243
▁tall	-7244
▁nähtä	-7245
▁silmin	-7246
ttelusta	-7247
▁tuomion	-7248
▁Viranoma	-7249
▁pitämään	-7250
▁toisensa	-7251
▁saaneensa	-7252
▁huhtikuuta	-7253
▁lainsäädän	-7254
pät	-7255
▁5.	-7256
otan	-7257
ttyy	-7258
▁lum	-7259
▁tyl	-7260
eraan	-7261
kseni	-7262
misti	-7263
▁Tapa	-7264
▁poik	-7265
▁suoj	-7266
miehet	-7267
ssonin	-7268
▁Henri	-7269
▁Lento	-7270
▁Pärmä	-7271
▁eilen	-7272
▁lunta	-7273
▁sattu	-7274
piteitä	-7275
▁vaatin	-7276
▁Valioli	-7277
▁menivät	-7278
▁rakasta	-7279
uudestaan	-7280
▁Sanomien	-7281
▁pyritään	-7282
▁tapauksen	-7283
järjestelmä	-7284
▁yrityksestä	-7285
▁FC	-7286
ikop	-7287
▁Wil	-7288
▁hor	-7289
dasta	-7290
ettua	-7291
nanen	-7292
▁tenn	-7293
erissä	-7294
rikaan	-7295
▁Pohjo	-7296
▁Totta	-7297
ttömyys	-7298
▁Täällä	-7299
▁kiisti	-7300
▁matkaa	-7301
▁muissa	-7302
▁puoliso	-7303
▁Virtanen	-7304
▁maailmaa	-7305
▁olleensa	-7306
▁tuloksen	-7307
▁yhteyden	-7308
▁demokraattien	-7309
90	-7310
daa	-7311
kik	-7312
▁28	-7313
aria	-7314
tuen	-7315
▁Hor	-7316
▁Täh	-7317
▁edu	-7318
▁pos	-7319
▁pul	-7320
eriin	-7321
tellä	-7322
ksellä	-7323
▁suhde	-7324
ttelyyn	-7325
yksikkö	-7326
▁koulua	-7327
▁väestö	-7328
▁toimiva	-7329
kilpailun	-7330
▁Vornanen	-7331
▁huumausa	-7332
▁paikalta	-7333
ksu	-7334
lee	-7335
▁6-	-7336
issi	-7337
isyy	-7338
kola	-7339
▁Sat	-7340
annen	-7341
hamin	-7342
▁2019.	-7343
▁Times	-7344
ikoista	-7345
nettiin	-7346
teltiin	-7347
▁Miehen	-7348
▁Henkilö	-7349
▁välissä	-7350
▁kesäkuun	-7351
▁yllättävän	-7352
▁ulkopuolelle	-7353
vah	-7354
mmun	-7355
pyyn	-7356
▁lue	-7357
annes	-7358
mätön	-7359
ppaan	-7360
▁hetk	-7361
▁maku	-7362
▁oven	-7363
valvon	-7364
▁katta	-7365
▁koulu	-7366
▁leviä	-7367
▁murha	-7368
▁Puolan	-7369
▁spekul	-7370
▁ennakoi	-7371
▁vaalien	-7372
▁herättää	-7373
▁monipuol	-7374
▁muitakin	-7375
▁alkoholin	-7376
▁ilmeisesti	-7377
▁työntekijä	-7378
rov	-7379
hypp	-7380
tasa	-7381
▁for	-7382
▁pat	-7383
erape	-7384
▁rata	-7385
▁sein	-7386
tenkin	-7387
▁tälle	-7388
ytyksen	-7389
▁annettu	-7390
▁kisojen	-7391
▁lauantai	-7392
▁naimisiin	-7393
▁vanhemmat	-7394
▁Näyttelijä	-7395
▁pudotuspel	-7396
▁Erityisesti	-7397
▁kilpailussa	-7398
▁puheenjohtajan	-7399
▁Tš	-7400
enna	-7401
▁kiv	-7402
▁Toiv	-7403
▁hylä	-7404
▁kevy	-7405
▁paha	-7406
koulun	-7407
▁kylmä	-7408
▁selke	-7409
chester	-7410
urheili	-7411
▁luonne	-7412
▁luonto	-7413
▁Koskela	-7414
▁asunnon	-7415
▁hallinn	-7416
▁hoitoon	-7417
▁mennään	-7418
▁lapsille	-7419
▁Englannin	-7420
ble	-7421
rab	-7422
▁Nu	-7423
rata	-7424
ytty	-7425
▁1,5	-7426
▁peh	-7427
▁räj	-7428
ketta	-7429
kysym	-7430
lossa	-7431
ttinä	-7432
▁Ruus	-7433
alisti	-7434
lähett	-7435
▁Torni	-7436
▁alkan	-7437
▁alkua	-7438
▁ilmes	-7439
▁ilmiö	-7440
ukseksi	-7441
▁pelkää	-7442
▁suoras	-7443
mattoman	-7444
▁konflik	-7445
▁pahasti	-7446
▁palvelu	-7447
moituksen	-7448
ttelemään	-7449
▁huolehti	-7450
▁kanssaan	-7451
▁pitkälti	-7452
eellisesti	-7453
jäl	-7454
one	-7455
yhä	-7456
kisi	-7457
tynä	-7458
kkään	-7459
ostui	-7460
tarin	-7461
▁Luon	-7462
▁suol	-7463
▁Kiekko	-7464
▁Meghan	-7465
▁tarjoi	-7466
▁valita	-7467
▁valittu	-7468
▁Leijonat	-7469
▁katsomaan	-7470
▁kysyttiin	-7471
▁miljardin	-7472
▁kuukaudessa	-7473
▁puolivälissä	-7474
▁tapahtumista	-7475
▁Au	-7476
ling	-7477
mmas	-7478
sten	-7479
▁Jer	-7480
▁Los	-7481
▁kus	-7482
ppiin	-7483
tälle	-7484
▁Joon	-7485
▁kyyn	-7486
▁väit	-7487
alalla	-7488
▁keino	-7489
▁myynn	-7490
▁purka	-7491
▁rohke	-7492
▁Haluan	-7493
▁sovell	-7494
▁menossa	-7495
▁mestari	-7496
▁vaihtaa	-7497
▁varhain	-7498
▁kuulunut	-7499
▁maailmassa	-7500
▁Presidentin	-7501
▁ilmoituksen	-7502
▁viikonlopun	-7503
▁olympialaisten	-7504
▁republikaanien	-7505
fer	-7506
▁Aa	-7507
inut	-7508
laus	-7509
▁kad	-7510
▁kyn	-7511
▁kata	-7512
altaan	-7513
diossa	-7514
tettua	-7515
▁katoa	-7516
lleensa	-7517
▁arvion	-7518
▁todist	-7519
llisista	-7520
▁Sanomat	-7521
▁rikosil	-7522
▁armeijan	-7523
▁kisoissa	-7524
kilpailussa	-7525
▁työmarkkina	-7526
▁voimakkaasti	-7527
▁maailmanmestari	-7528
Pe	-7529
eng	-7530
nat	-7531
ome	-7532
▁30-	-7533
▁Jot	-7534
▁kyt	-7535
kaver	-7536
ojaan	-7537
▁Alku	-7538
▁Fors	-7539
▁Oulu	-7540
▁Ykkö	-7541
▁pyör	-7542
▁sain	-7543
▁vaki	-7544
tonbla	-7545
tyksiä	-7546
usteen	-7547
▁konkr	-7548
▁kuunn	-7549
▁kysyy	-7550
▁nousu	-7551
harjoit	-7552
tellaan	-7553
▁naapur	-7554
ettavissa	-7555
▁Aftonbla	-7556
▁Suomalainen	-7557
▁seuraavaksi	-7558
▁turvallisuuden	-7559
▁työntekijöiden	-7560
Kar	-7561
elu	-7562
▁Go	-7563
chen	-7564
hiih	-7565
kian	-7566
▁Suz	-7567
▁mut	-7568
dille	-7569
kkaat	-7570
turva	-7571
ustyö	-7572
utiin	-7573
vyyttä	-7574
▁lahja	-7575
uontaja	-7576
utuksia	-7577
▁Montre	-7578
▁haluan	-7579
▁vanhan	-7580
▁havainn	-7581
▁nappasi	-7582
▁tarvetta	-7583
▁helmikuuta	-7584
järjestelmän	-7585
ish	-7586
keni	-7587
ties	-7588
ikana	-7589
itiin	-7590
kitse	-7591
kkoon	-7592
▁Hovi	-7593
▁Tuli	-7594
▁laji	-7595
rainen	-7596
▁Olisi	-7597
▁lyhyt	-7598
▁Barkov	-7599
▁Niiden	-7600
▁Olympi	-7601
▁liiton	-7602
▁ulkonä	-7603
▁esityks	-7604
▁huomasi	-7605
▁viettää	-7606
▁ajankohta	-7607
▁hallinnon	-7608
▁tapahtuman	-7609
▁tiedottaja	-7610
▁tutkimuksen	-7611
▁Käräjäoikeus	-7612
▁suomalaisista	-7613
gu	-7614
▁Fi	-7615
▁Sh	-7616
ytel	-7617
▁sup	-7618
▁tup	-7619
dässä	-7620
▁pärj	-7621
▁Pitää	-7622
▁asuin	-7623
▁paluu	-7624
merellä	-7625
▁arvost	-7626
▁kutsui	-7627
▁samoin	-7628
▁lähettä	-7629
▁otetaan	-7630
▁nykyisin	-7631
▁poliisia	-7632
▁Haaviston	-7633
▁Markkanen	-7634
▁sähköauto	-7635
▁aloittanut	-7636
▁marraskuun	-7637
▁rangaistus	-7638
▁maaliskuuta	-7639
dat	-7640
▁45	-7641
jaus	-7642
▁Kei	-7643
▁Mia	-7644
korot	-7645
malta	-7646
▁golf	-7647
▁rehe	-7648
mmäksi	-7649
▁Jesse	-7650
▁Unite	-7651
▁käsin	-7652
demokra	-7653
▁Joskus	-7654
▁toimit	-7655
▁Mestari	-7656
▁Tanskan	-7657
▁parantaa	-7658
▁toteutta	-7659
▁tulokset	-7660
▁valvonta	-7661
▁seuraavana	-7662
▁riittävästi	-7663
▁tarkoituksena	-7664
Ka	-7665
▁12-	-7666
▁Uni	-7667
itali	-7668
▁Kats	-7669
▁Musi	-7670
▁Savo	-7671
▁onni	-7672
konser	-7673
käyttä	-7674
▁avaja	-7675
▁hauta	-7676
▁lenno	-7677
▁summa	-7678
▁uskoa	-7679
▁varus	-7680
ikoksen	-7681
▁hienoa	-7682
▁hinnat	-7683
▁menetti	-7684
▁sijalla	-7685
▁jokaisen	-7686
▁tuomittu	-7687
yste	-7688
▁Kis	-7689
▁Män	-7690
dilla	-7691
tehtä	-7692
yistä	-7693
▁Kain	-7694
▁Vesa	-7695
riassa	-7696
▁mahta	-7697
▁rauta	-7698
estarin	-7699
massaan	-7700
▁Portug	-7701
▁osittain	-7702
▁poliisit	-7703
▁voisivat	-7704
▁sairaalan	-7705
▁tammikuuta	-7706
▁julkaistiin	-7707
▁käräjäoikeuden	-7708
▁mahdollisuutta	-7709
uru	-7710
ilää	-7711
koil	-7712
▁150	-7713
▁pun	-7714
▁sän	-7715
▁Olet	-7716
▁Sari	-7717
▁kove	-7718
vuuden	-7719
▁Media	-7720
▁nyrkke	-7721
▁osassa	-7722
paikalle	-7723
taneensa	-7724
▁kahteen	-7725
▁kappale	-7726
▁päivinä	-7727
▁ajoneuvo	-7728
▁rahoitus	-7729
▁mielipide	-7730
▁päättänyt	-7731
▁mielenkiinto	-7732
10	-7733
99	-7734
ft	-7735
sän	-7736
toh	-7737
iski	-7738
kann	-7739
usko	-7740
▁pör	-7741
laitt	-7742
▁hävi	-7743
▁väle	-7744
elämän	-7745
misten	-7746
▁Niitä	-7747
▁arvel	-7748
▁kasvo	-7749
▁tuoma	-7750
ityksen	-7751
ukkonen	-7752
▁Colora	-7753
▁maksoi	-7754
▁säästä	-7755
▁vankil	-7756
oikeisto	-7757
▁Etenkin	-7758
▁Libanon	-7759
▁parhaat	-7760
▁sairaal	-7761
▁aiheesta	-7762
▁perustuu	-7763
▁saapunut	-7764
▁sisältää	-7765
▁Reutersin	-7766
▁naurahtaa	-7767
▁mahdollisuuksia	-7768
ze	-7769
cia	-7770
keh	-7771
puu	-7772
näki	-7773
udin	-7774
▁Lar	-7775
rosta	-7776
▁Raja	-7777
▁kaas	-7778
neensä	-7779
utumis	-7780
▁Kimmo	-7781
▁autta	-7782
▁keksi	-7783
▁viile	-7784
▁Samaan	-7785
▁Valtio	-7786
▁johtuu	-7787
▁palata	-7788
kisoihin	-7789
tteisiin	-7790
▁herätti	-7791
▁johtoon	-7792
▁kertoja	-7793
▁millään	-7794
▁maahanmuu	-7795
▁maailmanmestar	-7796
alo	-7797
loh	-7798
kesi	-7799
ller	-7800
omer	-7801
▁Hyö	-7802
▁RKP	-7803
▁väs	-7804
kamer	-7805
raali	-7806
▁Pall	-7807
▁sinä	-7808
eltiin	-7809
hdessa	-7810
olosuh	-7811
▁sekin	-7812
▁Patrik	-7813
▁Pirkan	-7814
▁ketään	-7815
▁kunnian	-7816
keskustel	-7817
▁Nieminen	-7818
▁Saarinen	-7819
▁kaikilla	-7820
▁poikkeus	-7821
▁sijoitus	-7822
▁tiedetään	-7823
jas	-7824
kri	-7825
mie	-7826
yyt	-7827
udan	-7828
▁Teo	-7829
dista	-7830
jilla	-7831
▁Pian	-7832
▁pime	-7833
haasta	-7834
▁tyyli	-7835
oillaan	-7836
▁Mielen	-7837
▁ajaksi	-7838
▁esittä	-7839
▁tuonut	-7840
▁Forecan	-7841
▁Unkarin	-7842
▁edustaa	-7843
▁onneksi	-7844
▁valitse	-7845
▁pääsevät	-7846
▁välisenä	-7847
▁finaalissa	-7848
▁tapahtumien	-7849
sul	-7850
säh	-7851
usu	-7852
liig	-7853
▁rav	-7854
maail	-7855
malli	-7856
misia	-7857
ttili	-7858
viksi	-7859
▁muse	-7860
▁voim	-7861
▁vään	-7862
etyssä	-7863
itosta	-7864
luokan	-7865
udelle	-7866
▁kauka	-7867
▁koron	-7868
▁palki	-7869
▁Toyota	-7870
▁autojen	-7871
▁myöhään	-7872
▁opiskel	-7873
▁senttiä	-7874
▁tullaan	-7875
▁Kaarinan	-7876
▁kaikissa	-7877
yhdistyksen	-7878
▁palautetta	-7879
▁ensimmäiset	-7880
▁varapresidentti	-7881
cke	-7882
tuk	-7883
inio	-7884
määr	-7885
▁195	-7886
▁cup	-7887
ulaja	-7888
umach	-7889
▁arki	-7890
▁kauni	-7891
▁Lahden	-7892
▁etenee	-7893
▁laskee	-7894
▁määrin	-7895
▁omakoti	-7896
ettaisiin	-7897
vaiheessa	-7898
▁musiikin	-7899
▁vähentää	-7900
▁ottamatta	-7901
▁pelaajien	-7902
▁pariskunta	-7903
▁prosenttiin	-7904
uno	-7905
▁au	-7906
tori	-7907
▁pri	-7908
hotos	-7909
vuosi	-7910
▁Paul	-7911
▁alus	-7912
▁inno	-7913
▁juna	-7914
▁teon	-7915
▁vaja	-7916
päivys	-7917
viesti	-7918
▁2020.	-7919
▁Tältä	-7920
▁kasvu	-7921
▁koste	-7922
▁monim	-7923
▁väärä	-7924
▁Helena	-7925
▁muotoi	-7926
▁pienempi	-7927
▁käyttänyt	-7928
▁sunnuntai	-7929
▁Perjantaina	-7930
▁36	-7931
Amer	-7932
ilaa	-7933
sisi	-7934
▁Rat	-7935
itaan	-7936
mahdo	-7937
vosen	-7938
väksi	-7939
▁Holl	-7940
▁Korh	-7941
▁tuen	-7942
▁2000-	-7943
▁Murto	-7944
▁Musta	-7945
▁hetke	-7946
▁jolle	-7947
▁näytö	-7948
▁tosia	-7949
lähetys	-7950
▁auring	-7951
▁edeltä	-7952
▁lukuun	-7953
▁pientä	-7954
▁ryhmän	-7955
▁saapuu	-7956
▁suosit	-7957
▁komissi	-7958
▁tiistai	-7959
▁julkaist	-7960
▁muutamia	-7961
▁nykyisen	-7962
▁paikassa	-7963
▁luottamus	-7964
▁suunniteltu	-7965
▁vaikuttanut	-7966
ruk	-7967
▁We	-7968
▁Mai	-7969
▁iku	-7970
▁pär	-7971
isinä	-7972
sella	-7973
tiola	-7974
▁Palo	-7975
▁juni	-7976
▁kyyd	-7977
▁lien	-7978
▁lipp	-7979
▁salo	-7980
▁seis	-7981
iseltä	-7982
▁lajin	-7983
▁luopu	-7984
▁hirveä	-7985
▁Florida	-7986
▁lämpimä	-7987
▁tilalle	-7988
▁uudesta	-7989
▁vietiin	-7990
suunnitel	-7991
▁Neuvosto	-7992
▁katastro	-7993
▁kuluttua	-7994
▁Syyttäjän	-7995
▁liikkeelle	-7996
▁ulkomailla	-7997
▁Sunnuntaina	-7998
▁parhaimmillaan	-7999
itty	-8000
raja	-8001
tarv	-8002
eissä	-8003
▁2017	-8004
▁News	-8005
▁David	-8006
▁Inter	-8007
▁Marja	-8008
▁jälke	-8009
▁malli	-8010
▁tytön	-8011
▁Markus	-8012
▁loppua	-8013
▁pysäkö	-8014
▁vastaus	-8015
▁Schumach	-8016
▁jatkuvat	-8017
▁raportoi	-8018
▁Tällainen	-8019
▁vaikutuksia	-8020
▁pelastuslaitos	-8021
cel	-8022
oid	-8023
▁tot	-8024
kunsa	-8025
pissa	-8026
öiden	-8027
▁Anni	-8028
▁Vuor	-8029
▁osti	-8030
▁pyyt	-8031
▁rive	-8032
netään	-8033
▁jonne	-8034
▁rahan	-8035
▁tukee	-8036
▁valti	-8037
ggressi	-8038
▁Viikon	-8039
▁parkki	-8040
▁pärjää	-8041
▁saatta	-8042
▁sairast	-8043
▁Veikkaus	-8044
▁elämästä	-8045
▁huonosti	-8046
▁yhteinen	-8047
▁yllätyks	-8048
▁Sebastian	-8049
▁maajoukkueen	-8050
▁Pelastuslaitos	-8051
30.	-8052
▁Bla	-8053
▁Kio	-8054
▁Loi	-8055
▁Mas	-8056
▁Sun	-8057
▁Ton	-8058
paine	-8059
▁Sata	-8060
▁vala	-8061
ilussa	-8062
▁Kunin	-8063
▁ihmet	-8064
▁kovan	-8065
tteista	-8066
alaisiin	-8067
▁Tilasto	-8068
▁legenda	-8069
▁tulleet	-8070
▁välierä	-8071
▁toisiaan	-8072
▁vanhempien	-8073
▁oikeudenkäyn	-8074
TK	-8075
Euro	-8076
anni	-8077
into	-8078
▁Kri	-8079
▁Vii	-8080
▁far	-8081
▁näe	-8082
jistä	-8083
kadun	-8084
ttoon	-8085
▁Berg	-8086
▁neuv	-8087
▁pahi	-8088
mpikin	-8089
▁Petri	-8090
▁etten	-8091
▁Varhan	-8092
▁joutun	-8093
▁jäävät	-8094
▁kiekon	-8095
▁syistä	-8096
valmista	-8097
▁Harkimo	-8098
▁olevien	-8099
▁julkisen	-8100
▁päätöksiä	-8101
▁joukkuetta	-8102
▁tavallista	-8103
hui	-8104
tuh	-8105
isee	-8106
yynä	-8107
glann	-8108
mättö	-8109
tillä	-8110
tolan	-8111
versi	-8112
▁Rich	-8113
▁eden	-8114
▁maat	-8115
▁suih	-8116
▁tren	-8117
▁vene	-8118
ttuaan	-8119
▁Pelaa	-8120
▁sitte	-8121
▁surma	-8122
ohjelma	-8123
▁lähete	-8124
▁neljäs	-8125
▁turvaa	-8126
▁tähden	-8127
▁seurata	-8128
▁Facebook	-8129
▁ajatella	-8130
▁minister	-8131
▁potentia	-8132
▁mihinkään	-8133
▁neuvottel	-8134
▁ollenkaan	-8135
▁paikkansa	-8136
▁viimeiset	-8137
▁henkilöitä	-8138
dor	-8139
gia	-8140
tic	-8141
ehdot	-8142
jilta	-8143
yrsky	-8144
▁Kemi	-8145
▁pyyn	-8146
hdella	-8147
kautta	-8148
▁Balti	-8149
▁Niska	-8150
▁ampui	-8151
▁hedel	-8152
▁meren	-8153
päällik	-8154
▁Joonas	-8155
▁energi	-8156
▁kuolle	-8157
▁laitta	-8158
yttämään	-8159
▁Jokinen	-8160
▁kruunun	-8161
▁lähelle	-8162
▁vihdoin	-8163
▁Helenius	-8164
▁erikseen	-8165
▁näyttävät	-8166
▁Puljujärvi	-8167
▁kommentoinut	-8168
vyt	-8169
▁st	-8170
▁Gro	-8171
▁Yri	-8172
mital	-8173
piiri	-8174
ttejä	-8175
▁Miss	-8176
▁Topi	-8177
▁aloi	-8178
▁meta	-8179
leikka	-8180
teistä	-8181
▁syyte	-8182
▁vatsa	-8183
mentaar	-8184
urheilu	-8185
▁ajassa	-8186
urheilun	-8187
Sanomille	-8188
▁jättänyt	-8189
▁vuodeksi	-8190
toimittaja	-8191
▁vihreiden	-8192
▁päivittäin	-8193
▁ruotsalais	-8194
▁sijaitseva	-8195
▁haastattele	-8196
▁ah	-8197
mpin	-8198
musi	-8199
otuo	-8200
tied	-8201
▁Reh	-8202
▁jar	-8203
▁vit	-8204
attaa	-8205
▁Volo	-8206
▁tein	-8207
▁valo	-8208
Euroop	-8209
aikaan	-8210
eellis	-8211
▁2018.	-8212
▁Carol	-8213
▁eläke	-8214
▁nolla	-8215
▁syynä	-8216
▁kaatoi	-8217
▁maasta	-8218
▁suhtee	-8219
▁ulkona	-8220
▁uusien	-8221
▁iloinen	-8222
▁kovasti	-8223
▁tiennyt	-8224
▁uudessa	-8225
▁ymmärre	-8226
▁kapteeni	-8227
▁menestys	-8228
▁merkitys	-8229
▁roolissa	-8230
▁musiikkia	-8231
▁sittemmin	-8232
▁kysymyksiä	-8233
▁toiminnasta	-8234
MK	-8235
ajo	-8236
moa	-8237
pui	-8238
yan	-8239
▁Gi	-8240
utia	-8241
vuor	-8242
essin	-8243
jamin	-8244
perhe	-8245
joella	-8246
teinen	-8247
▁asema	-8248
▁nimeä	-8249
iläinen	-8250
▁jatkui	-8251
▁kunnon	-8252
▁olevia	-8253
▁syntyy	-8254
▁Ihmiset	-8255
▁Loimaan	-8256
▁artisti	-8257
▁arvioida	-8258
▁Expressen	-8259
▁toukokuun	-8260
▁yllättävä	-8261
dr	-8262
hal	-8263
dell	-8264
tuin	-8265
Pekka	-8266
ussin	-8267
▁Sama	-8268
▁alen	-8269
neensa	-8270
▁Madri	-8271
▁ainut	-8272
▁satoja	-8273
▁tyhjen	-8274
▁vaihde	-8275
▁pronssi	-8276
▁kaudeksi	-8277
▁kritisoi	-8278
▁useamman	-8279
▁vaaranta	-8280
▁katsotaan	-8281
siantuntija	-8282
▁Lauantaina	-8283
▁meteorologi	-8284
▁mm	-8285
llei	-8286
pako	-8287
énin	-8288
jossa	-8289
liike	-8290
millä	-8291
▁kera	-8292
hdolla	-8293
itystä	-8294
muutos	-8295
ttomia	-8296
▁Slova	-8297
▁maise	-8298
astossa	-8299
ottelua	-8300
▁edestä	-8301
▁tuomar	-8302
▁täältä	-8303
▁paljast	-8304
▁täyttää	-8305
▁useiden	-8306
lamentaar	-8307
▁Benjamin	-8308
▁Lindtman	-8309
▁kahdessa	-8310
▁syytetty	-8311
▁Helsinkiin	-8312
▁Verstappen	-8313
▁liikenteen	-8314
▁todellinen	-8315
oog	-8316
osaa	-8317
seen	-8318
▁Rus	-8319
▁jum	-8320
▁koe	-8321
kolla	-8322
▁Lisä	-8323
▁aine	-8324
▁osoi	-8325
anneen	-8326
▁1990-	-8327
▁Rikos	-8328
▁bussi	-8329
▁jutun	-8330
▁osana	-8331
▁Hämälä	-8332
▁alkuun	-8333
▁heitti	-8334
▁Epäilty	-8335
▁Mikkola	-8336
▁häneltä	-8337
▁jostain	-8338
▁vauhtia	-8339
▁äänesti	-8340
▁syyskuun	-8341
▁epäiltynä	-8342
▁instituut	-8343
▁kohdistun	-8344
▁mitenkään	-8345
▁Manchester	-8346
▁vaikutusta	-8347
▁loukkaantun	-8348
35	-8349
▁pl	-8350
vaus	-8351
▁194	-8352
▁hym	-8353
oitui	-8354
velle	-8355
▁2014	-8356
▁Arto	-8357
▁pall	-8358
kaista	-8359
mmälle	-8360
▁Rinne	-8361
▁jalan	-8362
▁kakso	-8363
▁kovia	-8364
▁resur	-8365
lääkäri	-8366
▁Muista	-8367
▁syttyi	-8368
utkinnan	-8369
▁Lauanta	-8370
▁kaukana	-8371
▁kerännyt	-8372
▁muutosta	-8373
▁Mestarien	-8374
▁perusteli	-8375
▁itsenäisyys	-8376
PK	-8377
TP	-8378
gor	-8379
▁ly	-8380
usar	-8381
vero	-8382
▁Far	-8383
▁jot	-8384
velvo	-8385
▁Eikä	-8386
▁myyd	-8387
häiriö	-8388
mppuun	-8389
▁Arttu	-8390
▁Finna	-8391
▁Hannu	-8392
▁Victo	-8393
▁sauna	-8394
▁viisu	-8395
▁joulun	-8396
▁kuussa	-8397
▁loppup	-8398
▁paremm	-8399
▁huomion	-8400
▁näkynyt	-8401
▁varoittaa	-8402
▁puolustaja	-8403
▁tapahtuneen	-8404
▁Rovaniemellä	-8405
käs	-8406
▁37	-8407
dika	-8408
ikir	-8409
rauh	-8410
salo	-8411
ttit	-8412
iskun	-8413
istyö	-8414
▁piil	-8415
istelu	-8416
▁Kääri	-8417
▁Netan	-8418
▁Perhe	-8419
▁hoide	-8420
▁iloit	-8421
istänyt	-8422
▁analys	-8423
▁autoja	-8424
▁kaveri	-8425
▁käänne	-8426
▁merkki	-8427
▁Ottelun	-8428
▁ennalta	-8429
▁korosti	-8430
▁menevät	-8431
▁ohjelma	-8432
▁suorana	-8433
▁Häkkänen	-8434
▁havaittu	-8435
▁kotonaan	-8436
▁pelaajan	-8437
▁perheensä	-8438
▁löydettiin	-8439
▁pääministerin	-8440
erve	-8441
▁30.	-8442
▁Aar	-8443
isina	-8444
kkeja	-8445
▁pett	-8446
kselta	-8447
tikuva	-8448
uomion	-8449
yksenä	-8450
▁Elisa	-8451
▁Toivo	-8452
oliiton	-8453
▁kartan	-8454
▁näyttö	-8455
▁sanoin	-8456
▁yhdellä	-8457
▁kahdella	-8458
▁vaihtele	-8459
▁yrittänyt	-8460
▁kokouksessa	-8461
tro	-8462
joki	-8463
mina	-8464
▁All	-8465
▁NBA	-8466
▁nur	-8467
mossa	-8468
utuva	-8469
▁Jere	-8470
▁Lopp	-8471
▁mall	-8472
▁miet	-8473
kkaana	-8474
▁Tommi	-8475
▁kaava	-8476
▁kokem	-8477
kuntaan	-8478
▁katson	-8479
▁tappio	-8480
▁tarjon	-8481
kymmentä	-8482
▁Latvala	-8483
▁Floridan	-8484
▁esitteli	-8485
▁löytänyt	-8486
▁ylimäärä	-8487
▁vastannut	-8488
▁selvityksen	-8489
▁tarvittaessa	-8490
kni	-8491
ksä	-8492
pöy	-8493
erit	-8494
isää	-8495
kerr	-8496
uken	-8497
▁16-	-8498
▁Chi	-8499
▁amb	-8500
▁vyö	-8501
▁Räik	-8502
▁veti	-8503
koista	-8504
▁Nokia	-8505
▁kotio	-8506
▁kuuli	-8507
▁sanat	-8508
▁syytö	-8509
▁veron	-8510
▁yrite	-8511
ttelija	-8512
▁Lehden	-8513
▁Ylelle	-8514
▁kuolin	-8515
▁käytön	-8516
▁maksan	-8517
▁reilun	-8518
▁töissä	-8519
▁valmen	-8520
▁ydinas	-8521
puolueen	-8522
ukilpail	-8523
▁Jalkapa	-8524
▁Nykyään	-8525
▁Syyrian	-8526
▁raskaan	-8527
▁sanottu	-8528
▁hyvinkin	-8529
▁julkista	-8530
▁koulutus	-8531
▁ihmisille	-8532
▁suurimman	-8533
▁perustelee	-8534
▁tapahtumat	-8535
▁poliittinen	-8536
▁puheenjohtajana	-8537
ret	-8538
sas	-8539
tai	-8540
kans	-8541
ylän	-8542
▁Bay	-8543
▁Net	-8544
▁tel	-8545
kkeet	-8546
tyvät	-8547
▁West	-8548
▁pelä	-8549
▁tytö	-8550
▁vaat	-8551
istuin	-8552
ittain	-8553
jalais	-8554
matkan	-8555
▁Juuso	-8556
▁Volod	-8557
▁jänni	-8558
▁tehop	-8559
ettavaa	-8560
ottavaa	-8561
▁Tanssi	-8562
▁Toista	-8563
▁Urheil	-8564
▁ilmaan	-8565
▁yhteys	-8566
dionilla	-8567
▁elokuun	-8568
▁helppoa	-8569
▁ollessa	-8570
▁pelissä	-8571
▁valmist	-8572
▁yllätti	-8573
▁torstain	-8574
▁parhaiten	-8575
▁varmistaa	-8576
käy	-8577
psi	-8578
uho	-8579
▁Ge	-8580
haki	-8581
ikuu	-8582
mene	-8583
mmia	-8584
muse	-8585
▁700	-8586
lista	-8587
▁Kouv	-8588
▁iske	-8589
▁oppi	-8590
arissa	-8591
gatiiv	-8592
tuotan	-8593
tyivät	-8594
vaaran	-8595
▁Ilkka	-8596
▁Seinä	-8597
▁hahmo	-8598
▁sillo	-8599
▁vamma	-8600
▁Laineen	-8601
▁autosta	-8602
▁uutisia	-8603
▁äänistä	-8604
isyydessä	-8605
yrityksen	-8606
▁annetaan	-8607
▁kentällä	-8608
▁kuulustel	-8609
▁jatkossakin	-8610
▁viimeistään	-8611
▁mahdollisuuden	-8612
ppe	-8613
▁ää	-8614
keja	-8615
▁Con	-8616
▁Tör	-8617
▁Uta	-8618
▁War	-8619
▁pii	-8620
kaisi	-8621
kisto	-8622
reita	-8623
vaihe	-8624
▁Pres	-8625
▁Tayl	-8626
▁jäte	-8627
elleet	-8628
kaupan	-8629
olassa	-8630
▁Kuten	-8631
▁Lähde	-8632
▁Minun	-8633
▁Radio	-8634
▁luona	-8635
▁niillä	-8636
▁seikka	-8637
▁suojaa	-8638
▁tarken	-8639
▁Netanja	-8640
▁naapuri	-8641
▁asianaja	-8642
▁johtanut	-8643
▁muodosta	-8644
▁nykyistä	-8645
estyksessä	-8646
▁erilainen	-8647
▁minuutilla	-8648
▁jalkapallon	-8649
▁parlamentin	-8650
3:	-8651
eir	-8652
▁4,	-8653
llup	-8654
ymyr	-8655
tason	-8656
▁oire	-8657
alinen	-8658
oinnin	-8659
ottava	-8660
sisija	-8661
▁Risto	-8662
▁rahat	-8663
▁sadan	-8664
valtion	-8665
▁toivon	-8666
▁Kalevan	-8667
▁Kremlin	-8668
▁hankala	-8669
▁rikosta	-8670
ikoksista	-8671
▁elokuvan	-8672
▁johtajan	-8673
▁kerralla	-8674
▁lehdelle	-8675
▁miljoona	-8676
▁Hizbollahin	-8677
▁työskenteli	-8678
25	-8679
ag	-8680
▁€	-8681
▁oy	-8682
myyn	-8683
tela	-8684
uver	-8685
▁ret	-8686
▁upe	-8687
kelin	-8688
sojen	-8689
soona	-8690
utaan	-8691
▁Brys	-8692
▁Kinn	-8693
▁Toni	-8694
▁Äiti	-8695
ksistä	-8696
ymistä	-8697
▁Häntä	-8698
▁Liike	-8699
▁Tapio	-8700
▁kehuu	-8701
▁oliko	-8702
▁seinä	-8703
▁vahve	-8704
itoista	-8705
kkaaksi	-8706
▁Hyunda	-8707
▁Politi	-8708
▁alijää	-8709
▁lataus	-8710
▁niille	-8711
▁Lounais	-8712
▁aamupäi	-8713
▁hyvässä	-8714
▁parisuh	-8715
▁Liikenne	-8716
▁kaikkein	-8717
▁palvelun	-8718
▁tapahtua	-8719
▁tiistain	-8720
▁tunnusta	-8721
▁Tiistaina	-8722
▁kuolemaan	-8723
tilanteessa	-8724
Li	-8725
kyv	-8726
etus	-8727
teks	-8728
▁Bil	-8729
▁Ryd	-8730
kästi	-8731
lauta	-8732
tosen	-8733
▁Mati	-8734
▁Otta	-8735
osasto	-8736
▁kevät	-8737
▁putoa	-8738
ustalla	-8739
▁Jotkut	-8740
▁linjaa	-8741
▁maissa	-8742
▁tarvin	-8743
▁uudist	-8744
lehdelle	-8745
▁europar	-8746
puolustus	-8747
▁kimppuun	-8748
▁markkina	-8749
▁sukupuol	-8750
▁Volodymyr	-8751
maattisesti	-8752
wn	-8753
10.	-8754
psa	-8755
▁29	-8756
▁MV	-8757
cans	-8758
ilyn	-8759
roja	-8760
▁Oil	-8761
▁von	-8762
konsa	-8763
tystä	-8764
viras	-8765
▁prot	-8766
assiiv	-8767
kohtia	-8768
▁Edmon	-8769
▁Windo	-8770
▁hirve	-8771
▁paper	-8772
▁tulle	-8773
istetty	-8774
kkeiden	-8775
neturva	-8776
taminen	-8777
vuotiaa	-8778
alueilla	-8779
▁Stanley	-8780
▁kaksikko	-8781
▁sekunnin	-8782
yp	-8783
kky	-8784
vion	-8785
▁Cor	-8786
▁Loh	-8787
dalle	-8788
illan	-8789
iteen	-8790
▁kong	-8791
maissa	-8792
ruktuu	-8793
▁Päivä	-8794
▁Turva	-8795
▁kieli	-8796
▁lakie	-8797
▁tehot	-8798
▁toipu	-8799
▁vauva	-8800
isinaan	-8801
utkinta	-8802
vuosina	-8803
▁Turkin	-8804
▁kiertu	-8805
▁laitos	-8806
llessaan	-8807
▁lopuksi	-8808
▁miettii	-8809
▁tunnissa	-8810
rastruktuu	-8811
▁toteuttaa	-8812
▁käyttämään	-8813
▁väkivaltaa	-8814
▁mahdollisia	-8815
▁työskentelee	-8816
Bri	-8817
uan	-8818
xin	-8819
ihan	-8820
sian	-8821
▁hum	-8822
iassa	-8823
kalaa	-8824
ostin	-8825
pagan	-8826
tieto	-8827
▁Areen	-8828
▁diagn	-8829
▁rajaa	-8830
▁suori	-8831
▁ääntä	-8832
▁Kärpät	-8833
eellisen	-8834
▁harvoin	-8835
▁osapuol	-8836
▁sodassa	-8837
▁Paikalla	-8838
▁aggressi	-8839
▁arvonlisä	-8840
▁finaaliin	-8841
▁järjestetty	-8842
▁venäläisten	-8843
+1	-8844
45	-8845
are	-8846
▁LP	-8847
vapa	-8848
▁Esa	-8849
▁ehd	-8850
kolog	-8851
▁Erik	-8852
▁Mich	-8853
▁Tall	-8854
isilta	-8855
neista	-8856
ttelen	-8857
▁Milla	-8858
▁Paavo	-8859
▁Robin	-8860
▁kysyn	-8861
▁käytä	-8862
▁monin	-8863
▁roman	-8864
ikymmen	-8865
ologian	-8866
tuminen	-8867
▁Kataja	-8868
▁näissä	-8869
▁Suzanne	-8870
▁asiakir	-8871
▁liikkuu	-8872
▁tasolle	-8873
▁uskotta	-8874
▁ymmärrä	-8875
▁rauhassa	-8876
▁tunnelma	-8877
▁viestejä	-8878
▁Kaupungin	-8879
▁kokemusta	-8880
▁tarkoitta	-8881
▁valmennus	-8882
▁Pärmäkoski	-8883
▁liiketoimin	-8884
▁aktiivisesti	-8885
▁ehdottomasti	-8886
60	-8887
ese	-8888
ets	-8889
otul	-8890
▁sei	-8891
ordin	-8892
▁Lain	-8893
▁keho	-8894
▁siiv	-8895
ukasta	-8896
▁Lonto	-8897
▁Neljä	-8898
▁Peter	-8899
▁Vapaa	-8900
▁useat	-8901
▁Rakenn	-8902
▁doping	-8903
▁juokse	-8904
▁pyrkin	-8905
▁Ilveksen	-8906
▁järjesti	-8907
▁leikkaus	-8908
▁lokakuun	-8909
▁lääkärin	-8910
▁miehelle	-8911
▁opettaja	-8912
▁paikkoja	-8913
▁palannut	-8914
▁syyttäjä	-8915
▁Keskustel	-8916
▁edustalla	-8917
▁vastaavan	-8918
▁havaintoja	-8919
▁neuvottelu	-8920
ryn	-8921
▁IL	-8922
▁Py	-8923
lerc	-8924
vast	-8925
jekti	-8926
llani	-8927
telli	-8928
ystee	-8929
ähtää	-8930
▁Musk	-8931
▁Sepp	-8932
estiva	-8933
ttimet	-8934
▁Ruoka	-8935
▁iskun	-8936
poliisi	-8937
uillaan	-8938
ukselta	-8939
ustusta	-8940
▁alaikä	-8941
▁hiihtä	-8942
viraston	-8943
▁Mäkinen	-8944
▁puolelta	-8945
▁toistuva	-8946
▁työnanta	-8947
▁Libanonin	-8948
▁aikoinaan	-8949
▁esimerkki	-8950
▁tuotteita	-8951
▁yritysten	-8952
isuudessaan	-8953
▁Jyväskylän	-8954
▁rikoksista	-8955
▁parlamentti	-8956
▁osallistunut	-8957
▁onnettomuuden	-8958
fo	-8959
lei	-8960
nea	-8961
raha	-8962
salu	-8963
vuot	-8964
▁McD	-8965
▁tak	-8966
lähtö	-8967
edusta	-8968
ilijat	-8969
▁Hamil	-8970
▁Juuri	-8971
▁ihast	-8972
▁raaka	-8973
▁yöllä	-8974
oliitto	-8975
ostunut	-8976
▁Kaiken	-8977
▁myrsky	-8978
▁olikin	-8979
▁oltava	-8980
▁peliin	-8981
▁suostu	-8982
tietojen	-8983
▁Kanerva	-8984
▁Windows	-8985
▁käytänn	-8986
▁leikkaa	-8987
▁oireita	-8988
▁osannut	-8989
▁kohteena	-8990
▁lapsensa	-8991
▁sairastu	-8992
▁Eduskunta	-8993
▁saatavilla	-8994
▁Käytännössä	-8995
▁keskiviikko	-8996
joh	-8997
koo	-8998
ityn	-8999
▁29.	-9000
▁Jyr	-9001
▁Sha	-9002
sähkö	-9003
valan	-9004
▁kynn	-9005
▁luom	-9006
▁merk	-9007
▁usei	-9008
ikolle	-9009
kangas	-9010
portin	-9011
tioita	-9012
vointi	-9013
▁Naval	-9014
▁Tavoi	-9015
▁korot	-9016
▁tappa	-9017
pelissä	-9018
▁Oliver	-9019
▁Paljon	-9020
peleissä	-9021
ttäminen	-9022
▁autolla	-9023
▁minusta	-9024
▁takavar	-9025
▁välttää	-9026
▁Kaksikko	-9027
▁jotenkin	-9028
▁kehottaa	-9029
▁rikoksen	-9030
▁valmistu	-9031
▁valtavan	-9032
▁Lehtikuva	-9033
▁avoimesti	-9034
▁mahdotonta	-9035
iap	-9036
kyn	-9037
nöö	-9038
pil	-9039
zer	-9040
kasv	-9041
▁26.	-9042
ukoko	-9043
yöstä	-9044
▁Riih	-9045
▁kylä	-9046
▁pomm	-9047
▁synn	-9048
uduttu	-9049
vuotis	-9050
▁Jorma	-9051
▁pinta	-9052
herinen	-9053
isyyden	-9054
▁Juhani	-9055
▁Keskus	-9056
▁lausun	-9057
▁olevaa	-9058
ustuksen	-9059
▁allekir	-9060
▁Eurooppa	-9061
▁paikkaan	-9062
▁viitaten	-9063
▁muuttanut	-9064
▁normaalia	-9065
▁Catherinen	-9066
▁Tasavallan	-9067
▁rakennettu	-9068
▁yleisradio	-9069
▁32	-9070
asun	-9071
▁pas	-9072
hakem	-9073
könen	-9074
rista	-9075
ttoja	-9076
▁Heli	-9077
▁Kuin	-9078
▁Vorn	-9079
▁avun	-9080
▁raju	-9081
kiertu	-9082
kkönen	-9083
▁lehti	-9084
▁miltä	-9085
estissä	-9086
▁Silven	-9087
▁avusta	-9088
▁ikäluo	-9089
▁siviil	-9090
▁siviili	-9091
▁sivussa	-9092
▁törmäsi	-9093
▁Lehtonen	-9094
▁esitetty	-9095
▁käytettä	-9096
▁tärkeitä	-9097
▁Niinistön	-9098
▁huomannut	-9099
▁yleisesti	-9100
▁Mielestäni	-9101
▁käsitellään	-9102
sh	-9103
-2-	-9104
11.	-9105
12.	-9106
com	-9107
lat	-9108
mal	-9109
ahon	-9110
siir	-9111
▁Erä	-9112
▁Tše	-9113
ineet	-9114
innat	-9115
vässä	-9116
▁Pitt	-9117
▁herm	-9118
▁pani	-9119
▁tähd	-9120
▁öljy	-9121
▁itali	-9122
▁malti	-9123
▁tiivi	-9124
▁Kerttu	-9125
▁Onneksi	-9126
▁Valtion	-9127
▁jäsenet	-9128
▁kenties	-9129
▁pisteet	-9130
▁tarjota	-9131
▁koulussa	-9132
▁korkealla	-9133
▁tutkitaan	-9134
▁päätökseen	-9135
▁rikoksesta	-9136
▁kommentteja	-9137
▁AC	-9138
kson	-9139
misa	-9140
ttyi	-9141
▁ryt	-9142
▁stu	-9143
alien	-9144
mella	-9145
▁Kunn	-9146
▁Merc	-9147
▁taha	-9148
Britan	-9149
täneen	-9150
täneet	-9151
uutena	-9152
▁Kirja	-9153
▁Vuosi	-9154
▁asunut	-9155
▁häneen	-9156
paikalta	-9157
ttämällä	-9158
▁monella	-9159
▁poikkea	-9160
▁tarpeen	-9161
▁hallussa	-9162
▁irtisano	-9163
▁joutuvat	-9164
▁syytteet	-9165
▁jääkiekon	-9166
▁konkreett	-9167
▁toisaalta	-9168
llisuudesta	-9169
▁Suomalaiset	-9170
▁paikallista	-9171
myy	-9172
ney	-9173
ons	-9174
▁7-	-9175
änny	-9176
▁Alu	-9177
▁Puo	-9178
▁pop	-9179
juoks	-9180
teatt	-9181
tioon	-9182
joihin	-9183
llessa	-9184
läinen	-9185
▁Lähes	-9186
▁käyty	-9187
▁laina	-9188
uksille	-9189
uloksen	-9190
▁Varsin	-9191
▁hyötyä	-9192
▁mietin	-9193
▁sotaan	-9194
▁Jalonen	-9195
▁kuullut	-9196
▁ottivat	-9197
▁poistui	-9198
▁suuntaa	-9199
▁tuottaa	-9200
▁Espoossa	-9201
▁kotoisin	-9202
▁yhdistää	-9203
▁ratkaisua	-9204
▁tarvinnut	-9205
Se	-9206
qu	-9207
▁Å	-9208
kean	-9209
mula	-9210
taus	-9211
▁Siv	-9212
▁Tas	-9213
▁Ylä	-9214
johto	-9215
pohja	-9216
▁reak	-9217
itossa	-9218
oidaan	-9219
päivit	-9220
▁Syynä	-9221
▁Varha	-9222
▁diplo	-9223
▁helle	-9224
▁huuto	-9225
▁miell	-9226
▁pelit	-9227
mminkin	-9228
▁Kukaan	-9229
▁näillä	-9230
isuuksia	-9231
palvelut	-9232
▁siirtää	-9233
▁Lehtinen	-9234
▁Oikeuden	-9235
▁alueelta	-9236
▁sairasta	-9237
▁heinäkuun	-9238
oto	-9239
pat	-9240
pron	-9241
▁der	-9242
asema	-9243
ikkoa	-9244
muuto	-9245
▁levy	-9246
▁eroon	-9247
▁kehys	-9248
▁maksu	-9249
▁ohjus	-9250
▁pelia	-9251
▁viete	-9252
rallaan	-9253
▁Kymmen	-9254
▁johdon	-9255
▁kasvua	-9256
▁leikki	-9257
▁Prinssi	-9258
▁jotakin	-9259
▁käymään	-9260
▁toisesta	-9261
▁tekemässä	-9262
▁Toivottavasti	-9263
▁loukkaantunut	-9264
▁luonnollisesti	-9265
fe	-9266
rn	-9267
gno	-9268
tim	-9269
▁SE	-9270
▁Sä	-9271
erro	-9272
kevä	-9273
yhmä	-9274
▁ist	-9275
poika	-9276
tinsa	-9277
▁Amer	-9278
▁ette	-9279
▁lemm	-9280
▁seko	-9281
▁sula	-9282
mallin	-9283
▁Vähän	-9284
▁taide	-9285
▁toive	-9286
isterin	-9287
▁hyppää	-9288
maailman	-9289
▁Nuorten	-9290
▁Yleensä	-9291
▁nuorena	-9292
▁syntymä	-9293
komisario	-9294
▁aikoihin	-9295
▁menehtyi	-9296
▁videoita	-9297
▁aiemminkin	-9298
▁suorastaan	-9299
▁allekirjoit	-9300
▁kommentoimaan	-9301
▁da	-9302
jeli	-9303
lopp	-9304
▁Fri	-9305
▁Tha	-9306
▁Tyn	-9307
gistä	-9308
lilla	-9309
▁2026	-9310
▁Jenn	-9311
▁etel	-9312
▁noja	-9313
oottor	-9314
▁2016.	-9315
▁Aivan	-9316
▁Group	-9317
▁Tärke	-9318
▁miehi	-9319
ottanut	-9320
sinkilä	-9321
yksikön	-9322
▁jotkut	-9323
▁kolleg	-9324
▁valtaa	-9325
asemalla	-9326
▁Toyotan	-9327
▁todettu	-9328
▁vaalika	-9329
llisyyttä	-9330
▁ensisija	-9331
▁taisteli	-9332
▁Prinsessa	-9333
▁konkurssi	-9334
▁maanantai	-9335
▁kuolemasta	-9336
itoa	-9337
pake	-9338
valo	-9339
▁THL	-9340
▁Urp	-9341
▁Väh	-9342
▁pin	-9343
eestä	-9344
tavan	-9345
yivät	-9346
▁Aino	-9347
▁Eero	-9348
▁Jazz	-9349
▁Pala	-9350
▁mana	-9351
▁pahe	-9352
isaira	-9353
kasvat	-9354
llisin	-9355
teensä	-9356
▁kohde	-9357
▁taksi	-9358
kustann	-9359
ttuneet	-9360
▁Aleksi	-9361
▁Toisen	-9362
▁kenttä	-9363
▁murhan	-9364
liikenne	-9365
▁talossa	-9366
▁varasto	-9367
muutoksen	-9368
▁Silvenno	-9369
▁koskevat	-9370
▁laajasti	-9371
▁negatiiv	-9372
▁Asiantunti	-9373
▁päivystävä	-9374
▁tyttärensä	-9375
▁valtavasti	-9376
▁vastustaja	-9377
▁virallisesti	-9378
▁Keskiviikkona	-9379
tv	-9380
iro	-9381
let	-9382
pii	-9383
kkua	-9384
▁She	-9385
enssi	-9386
kalle	-9387
timme	-9388
▁Emma	-9389
▁anna	-9390
tellyt	-9391
ttijuo	-9392
yritys	-9393
▁Eriko	-9394
▁Sofia	-9395
▁fanit	-9396
▁tarpe	-9397
▁Macron	-9398
▁leviää	-9399
▁räjähd	-9400
paikasta	-9401
▁johtava	-9402
▁lähetys	-9403
▁tuomari	-9404
▁useampi	-9405
▁valossa	-9406
▁Kärppien	-9407
▁Moskovan	-9408
▁joitakin	-9409
▁laskenut	-9410
▁oikeutta	-9411
▁paidassa	-9412
▁vaatinut	-9413
▁juurikaan	-9414
▁kuvattuna	-9415
▁lämpötilat	-9416
▁keskustella	-9417
▁pariskunnan	-9418
▁maahanmuutta	-9419
▁läheisyydessä	-9420
▁sijaitsevassa	-9421
hdu	-9422
▁48	-9423
anin	-9424
reja	-9425
▁Gra	-9426
▁Mun	-9427
▁rin	-9428
osten	-9429
perän	-9430
telua	-9431
vosta	-9432
▁Evan	-9433
▁Soin	-9434
▁alha	-9435
▁irto	-9436
▁talv	-9437
▁tili	-9438
doista	-9439
isteja	-9440
maisen	-9441
miestä	-9442
▁Saira	-9443
▁Yhden	-9444
▁aseen	-9445
▁sataa	-9446
▁varti	-9447
päätään	-9448
tarkast	-9449
▁Dallas	-9450
▁Kangas	-9451
▁Pajari	-9452
▁iltana	-9453
▁viides	-9454
▁kaksois	-9455
▁torstai	-9456
▁vierail	-9457
▁yleinen	-9458
▁asioiden	-9459
▁henkilöt	-9460
▁poseeraa	-9461
▁pääsivät	-9462
▁tunteita	-9463
▁vanhempi	-9464
Pohjanmaan	-9465
▁käyttäyty	-9466
▁millainen	-9467
▁pidettiin	-9468
▁sähköpost	-9469
▁Onnettomuus	-9470
▁kysymykseen	-9471
▁äärijärjestö	-9472
UMA	-9473
ske	-9474
urg	-9475
▁38	-9476
katu	-9477
oimi	-9478
oppa	-9479
riih	-9480
stys	-9481
▁28.	-9482
▁Len	-9483
▁aiv	-9484
vahin	-9485
▁King	-9486
▁Tila	-9487
▁syvä	-9488
ettaan	-9489
huolto	-9490
lannin	-9491
maalle	-9492
mmalta	-9493
▁Onhan	-9494
▁Tiina	-9495
▁heiko	-9496
▁istui	-9497
▁pallo	-9498
▁tilin	-9499
▁ääniä	-9500
käynnin	-9501
▁Hiihto	-9502
▁Kahden	-9503
▁koneen	-9504
▁lukien	-9505
euvoston	-9506
tilainen	-9507
▁Aaltola	-9508
▁hevonen	-9509
▁nimissä	-9510
▁Norjassa	-9511
▁mielipit	-9512
finaalissa	-9513
▁viimeistä	-9514
▁perinteisen	-9515
▁poliittisen	-9516
▁yllätyksenä	-9517
▁pahoinpitelystä	-9518
Kor	-9519
igh	-9520
ori	-9521
uel	-9522
atit	-9523
ihän	-9524
ikun	-9525
imme	-9526
mita	-9527
▁24.	-9528
▁50-	-9529
▁Sär	-9530
▁dig	-9531
rikos	-9532
▁Tupp	-9533
▁Vesi	-9534
▁sivu	-9535
kkasen	-9536
maista	-9537
valtio	-9538
▁Hauta	-9539
▁huipu	-9540
▁kuver	-9541
▁kuvit	-9542
▁lakia	-9543
▁palat	-9544
▁piene	-9545
▁ruoan	-9546
▁syödä	-9547
▁tunti	-9548
▁velvo	-9549
etuista	-9550
tykseen	-9551
▁Lasten	-9552
▁Viesti	-9553
▁pitkiä	-9554
▁tunten	-9555
▁Bryssel	-9556
▁Pelican	-9557
▁Richard	-9558
▁epäillä	-9559
▁hybridi	-9560
▁korjaus	-9561
▁viestiä	-9562
ohjelmaan	-9563
▁asioihin	-9564
▁auringon	-9565
▁hyökkäsi	-9566
▁kokoomus	-9567
▁myyntiin	-9568
▁parempaa	-9569
▁seudulla	-9570
▁yhteisen	-9571
▁joulukuun	-9572
▁toimimaan	-9573
▁helsinkilä	-9574
▁keskimäärä	-9575
▁rakennuksen	-9576
▁työntekijät	-9577
▁liikenneturva	-9578
▁pääkaupunkise	-9579
▁Yhdysvaltoihin	-9580
eld	-9581
ida	-9582
▁GP	-9583
telu	-9584
ttee	-9585
uman	-9586
öllä	-9587
▁Mää	-9588
▁rom	-9589
eleen	-9590
rissa	-9591
uotta	-9592
▁Karl	-9593
▁Kova	-9594
▁alan	-9595
▁mäki	-9596
▁ääre	-9597
etessä	-9598
reista	-9599
ttivan	-9600
verkko	-9601
vuoren	-9602
yneitä	-9603
▁istuu	-9604
▁moder	-9605
▁vaihe	-9606
julkais	-9607
kkaiden	-9608
▁Freder	-9609
▁Taylor	-9610
▁lienee	-9611
▁soitta	-9612
▁työnan	-9613
▁veljen	-9614
kkosuosi	-9615
ytettiin	-9616
▁Laulaja	-9617
▁Sosiaal	-9618
▁autossa	-9619
▁vastata	-9620
▁Pelicans	-9621
▁käyttäjä	-9622
▁osaltaan	-9623
▁otteluun	-9624
▁tarkkaan	-9625
▁toisista	-9626
▁Hizbollah	-9627
▁käsitellä	-9628
▁Pariskunta	-9629
▁hovioikeus	-9630
▁joukkueessa	-9631
▁turvapaikan	-9632
mara	-9633
torj	-9634
▁Myy	-9635
▁Puu	-9636
▁Tol	-9637
▁ihon	-9638
▁kuvi	-9639
mmällä	-9640
taansa	-9641
vuonna	-9642
▁Kaisa	-9643
▁Ronal	-9644
▁torju	-9645
▁vaale	-9646
tyminen	-9647
▁Englan	-9648
▁Finlan	-9649
▁Haasta	-9650
▁kirkon	-9651
▁olenna	-9652
▁opetus	-9653
▁tulita	-9654
▁vajaat	-9655
▁voimme	-9656
▁Someron	-9657
▁arvosta	-9658
▁edustus	-9659
▁jääneet	-9660
▁rajusti	-9661
▁soittaa	-9662
▁hakemaan	-9663
▁kaikesta	-9664
▁saavutta	-9665
▁vaativat	-9666
▁Jääkiekko	-9667
▁Venäjältä	-9668
▁enemmistö	-9669
▁sosiaalit	-9670
▁presidenttinä	-9671
▁tulevaisuuden	-9672
tz	-9673
gaa	-9674
tii	-9675
▁ad	-9676
ital	-9677
pset	-9678
urit	-9679
ymys	-9680
▁25.	-9681
▁27.	-9682
▁Bas	-9683
▁Can	-9684
▁Dra	-9685
▁Kap	-9686
▁sot	-9687
▁äly	-9688
marin	-9689
umaan	-9690
▁2015	-9691
▁Käsi	-9692
kappal	-9693
keissä	-9694
tekijä	-9695
tiosta	-9696
tuneet	-9697
▁Harko	-9698
▁pelat	-9699
▁perun	-9700
▁reilu	-9701
▁syöks	-9702
▁tarve	-9703
legenda	-9704
▁Kallio	-9705
▁aseita	-9706
▁kuvasi	-9707
▁lehden	-9708
▁lämpim	-9709
▁poikki	-9710
kunnasta	-9711
▁Japanin	-9712
▁edistää	-9713
▁uutinen	-9714
▁vammoja	-9715
hallinnon	-9716
▁nousevat	-9717
▁puolilla	-9718
▁uskotaan	-9719
▁vahingon	-9720
▁puolustaa	-9721
▁vakuuttaa	-9722
ministerinä	-9723
▁maaliskuun	-9724
▁päivitetty	-9725
▁Maanantaina	-9726
▁toistuvasti	-9727
▁mahdollistaa	-9728
▁hätäkeskukseen	-9729
hyp	-9730
kei	-9731
uoh	-9732
orit	-9733
suur	-9734
wood	-9735
▁äit	-9736
mänsä	-9737
▁Mail	-9738
▁Tero	-9739
paikat	-9740
▁Hakka	-9741
▁Roope	-9742
▁kaiva	-9743
▁karsi	-9744
▁laatu	-9745
▁maksi	-9746
▁sanan	-9747
▁sovel	-9748
huoneen	-9749
kadulla	-9750
tteissa	-9751
▁inflaa	-9752
▁merkin	-9753
▁rankka	-9754
laisille	-9755
viikosta	-9756
▁alkunsa	-9757
▁nauttia	-9758
▁välistä	-9759
▁pohjalta	-9760
▁propagan	-9761
▁päivittä	-9762
▁sähköaut	-9763
▁ylläpitä	-9764
▁käsittely	-9765
▁tuoreessa	-9766
kokouksessa	-9767
▁joukkueensa	-9768
▁säännöllisesti	-9769
IS	-9770
ah	-9771
rd	-9772
mpe	-9773
que	-9774
▁Tr	-9775
asan	-9776
▁Isä	-9777
▁loi	-9778
▁rup	-9779
laaju	-9780
▁Serg	-9781
▁Yhtä	-9782
▁kaue	-9783
▁luks	-9784
Photos	-9785
koilla	-9786
linnan	-9787
▁Kemin	-9788
▁huume	-9789
▁kulku	-9790
▁paine	-9791
▁pysyä	-9792
istähti	-9793
uudelle	-9794
▁autoon	-9795
▁kosket	-9796
▁käytiin	-9797
▁puuttuu	-9798
▁sanovat	-9799
▁vakavia	-9800
päätöksen	-9801
▁Jokainen	-9802
▁vuodelle	-9803
▁sellaisen	-9804
▁mestaruutta	-9805
▁yhteiskunnan	-9806
äsi	-9807
ilmi	-9808
juus	-9809
stan	-9810
väen	-9811
▁KHL	-9812
aikaa	-9813
iluun	-9814
kunto	-9815
▁avar	-9816
▁temp	-9817
teihin	-9818
tumaan	-9819
▁1980-	-9820
▁Cupin	-9821
▁Halua	-9822
▁kisat	-9823
▁kulki	-9824
▁käyte	-9825
▁lukee	-9826
▁tarin	-9827
▁tasan	-9828
▁vaiva	-9829
▁joutua	-9830
▁muilla	-9831
▁oikean	-9832
▁otetta	-9833
▁palkan	-9834
▁puukot	-9835
▁puutar	-9836
▁ajetaan	-9837
▁iskussa	-9838
▁toisten	-9839
▁nousivat	-9840
▁nuorille	-9841
▁näkemään	-9842
▁ongelmat	-9843
▁ravintol	-9844
▁erilaista	-9845
▁joukkojen	-9846
▁rekisterö	-9847
▁pääasiassa	-9848
▁Kokoomuksen	-9849
▁tiettävästi	-9850
▁vaihtoehtoja	-9851
00.	-9852
ehd	-9853
pör	-9854
▁jy	-9855
keri	-9856
mall	-9857
puna	-9858
tani	-9859
tiot	-9860
▁Ada	-9861
▁nuk	-9862
▁ten	-9863
opeaa	-9864
▁Elon	-9865
▁Fina	-9866
▁KuPS	-9867
▁Pasi	-9868
▁Rauta	-9869
▁Sport	-9870
▁Suosi	-9871
▁Tiedo	-9872
▁Usein	-9873
▁areen	-9874
▁joutu	-9875
▁taist	-9876
kisassa	-9877
mukseen	-9878
▁Purran	-9879
▁britti	-9880
▁kaista	-9881
▁mukava	-9882
▁nauraa	-9883
▁rasist	-9884
▁suosio	-9885
▁tiellä	-9886
piirissä	-9887
▁Demokra	-9888
▁kiistää	-9889
▁kolmeen	-9890
▁lopetti	-9891
▁luottaa	-9892
▁maailma	-9893
▁vastoin	-9894
▁vetäyty	-9895
▁yhdestä	-9896
▁johdolla	-9897
▁kehittää	-9898
▁muutakin	-9899
▁tasapain	-9900
▁haasteita	-9901
▁käännytys	-9902
▁otteeseen	-9903
▁tammikuun	-9904
palveluiden	-9905
▁aggressiiv	-9906
▁puolivälierä	-9907
ün	-9908
▁34	-9909
▁kg	-9910
kaat	-9911
kiat	-9912
rael	-9913
rand	-9914
rori	-9915
työn	-9916
▁Ama	-9917
▁Bjö	-9918
▁Bro	-9919
▁Glo	-9920
▁Sor	-9921
▁eks	-9922
▁ärs	-9923
kaksi	-9924
verin	-9925
▁Ajat	-9926
▁Mäen	-9927
▁raiv	-9928
joukot	-9929
musten	-9930
udeksi	-9931
▁Heidi	-9932
▁Ilman	-9933
▁Lehti	-9934
▁Seppo	-9935
▁Vanhe	-9936
▁ellei	-9937
▁luvan	-9938
▁poimi	-9939
▁Liettu	-9940
▁osaksi	-9941
▁painaa	-9942
▁pääsiä	-9943
▁tietyn	-9944
▁torjui	-9945
linnassa	-9946
▁ajoitta	-9947
▁asukkaat	-9948
▁hyväksyi	-9949
▁Ranskassa	-9950
▁mainitsee	-9951
▁keskiviikon	-9952
▁mielenterveys	-9953
we	-9954
▁ö	-9955
kah	-9956
off	-9957
luke	-9958
utoa	-9959
▁UMK	-9960
▁glo	-9961
▁mal	-9962
misiä	-9963
▁Kali	-9964
▁Kela	-9965
▁Otto	-9966
▁hajo	-9967
▁hell	-9968
etusta	-9969
hdetta	-9970
sarjaa	-9971
ttisen	-9972
▁Asian	-9973
▁Joona	-9974
▁Näitä	-9975
▁julki	-9976
▁tekni	-9977
▁jatkos	-9978
▁kielen	-9979
▁miehiä	-9980
matkalla	-9981
▁Joensuu	-9982
▁saamaan	-9983
▁suunnit	-9984
▁Kuningas	-9985
▁edustava	-9986
▁kuvernöö	-9987
▁pisteitä	-9988
▁pyytänyt	-9989
▁tehtävän	-9990
▁alkoholia	-9991
▁saataisiin	-9992
▁turnauksen	-9993
▁vaikeuksia	-9994
▁valtakunna	-9995
aro	-9996
ght	-9997
isse	-9998
mppi	-9999
opin	-10000
ster	-10001
ukea	-10002
▁Huo	-10003
kitta	-10004
radan	-10005
rasta	-10006
sopim	-10007
uorit	-10008
▁Amma	-10009
▁hull	-10010
▁kipu	-10011
▁pyri	-10012
ilijan	-10013
kaappa	-10014
luokka	-10015
▁Kenne	-10016
▁Päivi	-10017
▁Tynkk	-10018
▁Useat	-10019
▁mital	-10020
miesten	-10021
▁Columb	-10022
▁Mukana	-10023
▁kolman	-10024
▁monien	-10025
▁nopeus	-10026
▁rallin	-10027
▁riitti	-10028
▁äänest	-10029
elokuvan	-10030
▁Selänne	-10031
▁ajamaan	-10032
▁ehdolla	-10033
▁syyttää	-10034
▁toisena	-10035
yksessään	-10036
▁Korhonen	-10037
▁kärsinyt	-10038
▁rinnalla	-10039
▁helmikuun	-10040
▁huhtikuun	-10041
▁seuraavat	-10042
▁tavallaan	-10043
▁tällaisia	-10044
▁kysymyksiin	-10045
▁yhdysvaltalais	-10046
Es	-10047
rea	-10048
ettö	-10049
gina	-10050
isat	-10051
keaa	-10052
sbur	-10053
skyn	-10054
ting	-10055
unas	-10056
▁Bir	-10057
▁Dig	-10058
▁Rön	-10059
hellä	-10060
▁Juho	-10061
itsisi	-10062
kkosen	-10063
ollaan	-10064
▁autot	-10065
▁avata	-10066
▁homma	-10067
▁tuhoa	-10068
▁vitsa	-10069
ikainen	-10070
yksensä	-10071
▁Pitkän	-10072
▁kolmos	-10073
▁mainos	-10074
▁väistä	-10075
▁Brasili	-10076
▁Urheilu	-10077
▁hyvällä	-10078
▁muuttua	-10079
▁vaikuta	-10080
ilijoiden	-10081
mahdollis	-10082
▁Koskinen	-10083
▁kyseisen	-10084
▁normaali	-10085
▁tuloksia	-10086
▁valitaan	-10087
▁vapautta	-10088
▁Kommentti	-10089
▁keskenään	-10090
▁ottelusta	-10091
▁päällikkö	-10092
▁riittänyt	-10093
▁määrättiin	-10094
▁prosentilla	-10095
▁ennakkosuosi	-10096
▁suomalaisille	-10097
▁47	-10098
▁65	-10099
nyin	-10100
tein	-10101
▁App	-10102
▁Gre	-10103
▁Jäl	-10104
▁Ris	-10105
▁Eetu	-10106
▁Jack	-10107
▁Mest	-10108
mestar	-10109
ossaan	-10110
▁Mauri	-10111
▁jatke	-10112
▁kanna	-10113
▁näytt	-10114
▁pahoi	-10115
▁salaa	-10116
taistel	-10117
▁iskuja	-10118
▁riittä	-10119
▁vienti	-10120
▁vuodet	-10121
muksessa	-10122
tarvikke	-10123
▁Lappeen	-10124
▁Salonen	-10125
▁maaperä	-10126
▁pihalla	-10127
▁tähtien	-10128
prosentti	-10129
uksestaan	-10130
▁Ruotsiin	-10131
▁hovioike	-10132
▁päässeet	-10133
▁tietävät	-10134
▁vieraana	-10135
▁Torstaina	-10136
▁ihmisistä	-10137
▁senttimet	-10138
▁televisio	-10139
▁kaupunkiin	-10140
kierroksella	-10141
▁kansallisen	-10142
▁toiminnassa	-10143
▁mahdollisuudet	-10144
kl	-10145
blo	-10146
erän	-10147
staa	-10148
▁Ase	-10149
▁Gol	-10150
▁Kah	-10151
▁Lee	-10152
▁arj	-10153
▁koo	-10154
▁rie	-10155
alaan	-10156
kerin	-10157
tistä	-10158
▁pyyh	-10159
isikin	-10160
llossa	-10161
ttinsa	-10162
▁Auton	-10163
▁Heinä	-10164
▁Ongel	-10165
▁Trafi	-10166
▁mitkä	-10167
▁reiss	-10168
innalla	-10169
▁lattia	-10170
▁muisti	-10171
▁reagoi	-10172
▁riskiä	-10173
▁suuret	-10174
mattomia	-10175
▁Joukkue	-10176
▁Minusta	-10177
▁jakanut	-10178
▁maalein	-10179
▁Suomella	-10180
▁huomenna	-10181
▁kolmesta	-10182
▁lausunto	-10183
▁onnistun	-10184
▁Israeliin	-10185
▁edustajat	-10186
▁elinkeino	-10187
▁kertomaan	-10188
▁huumausain	-10189
▁venäläiset	-10190
▁uutisoitiin	-10191
▁vastaajista	-10192
jut	-10193
teh	-10194
▁II	-10195
▁19-	-10196
▁Sol	-10197
istyy	-10198
▁teen	-10199
elevat	-10200
etussa	-10201
ilevat	-10202
illeen	-10203
rahoit	-10204
ytteli	-10205
▁Honka	-10206
▁Kirsi	-10207
▁kolmi	-10208
▁käytt	-10209
▁luoda	-10210
▁Näistä	-10211
▁Toivon	-10212
▁hankin	-10213
▁ilmest	-10214
▁kirkko	-10215
▁kiusaa	-10216
▁odotti	-10217
▁tuntee	-10218
kilpailu	-10219
▁Mattila	-10220
▁Ravinto	-10221
▁helikop	-10222
▁välisen	-10223
▁luotetta	-10224
▁maalilla	-10225
▁saavutti	-10226
▁Vantaalla	-10227
▁esiintynyt	-10228
▁ristiriita	-10229
▁tietenkään	-10230
▁podcastissa	-10231
▁tarkoitettu	-10232
▁viimeisteli	-10233
▁Toistaiseksi	-10234
▁julkaistussa	-10235
An	-10236
YP	-10237
rup	-10238
tiö	-10239
yjä	-10240
alus	-10241
himi	-10242
kena	-10243
ydet	-10244
▁120	-10245
▁25-	-10246
▁Kyl	-10247
▁Syn	-10248
▁Väl	-10249
itunn	-10250
kisin	-10251
yillä	-10252
▁ZUMA	-10253
▁hill	-10254
▁kaul	-10255
▁syyn	-10256
kanava	-10257
moitus	-10258
tykset	-10259
uummin	-10260
voilla	-10261
▁Holly	-10262
▁Ymmär	-10263
▁jakso	-10264
▁kirje	-10265
▁oppia	-10266
▁pahen	-10267
▁rehto	-10268
oistaan	-10269
pisteen	-10270
utettua	-10271
▁Kauppa	-10272
▁Ottelu	-10273
▁kierrä	-10274
▁tavara	-10275
anneensa	-10276
ottamaan	-10277
▁Tuppura	-10278
▁kehotti	-10279
▁laittoi	-10280
▁omistaa	-10281
ettavaksi	-10282
ympäristö	-10283
▁Yorkissa	-10284
▁päästään	-10285
▁selväksi	-10286
▁varoitti	-10287
▁Charlesin	-10288
▁historiaa	-10289
▁keskittyä	-10290
▁komentaja	-10291
▁sukupuoli	-10292
▁ystävänsä	-10293
▁asevoimien	-10294
▁maailmalla	-10295
▁haastattelu	-10296
▁keskustelun	-10297
▁kuljettajan	-10298
▁Asiantuntija	-10299
Ta	-10300
ald	-10301
jus	-10302
▁33	-10303
▁Sp	-10304
edes	-10305
▁Fox	-10306
▁McL	-10307
▁Swi	-10308
essan	-10309
ottel	-10310
▁kate	-10311
▁keuh	-10312
▁nett	-10313
▁niko	-10314
▁vire	-10315
elivat	-10316
lääkär	-10317
ydestä	-10318
▁James	-10319
▁Kysel	-10320
▁isken	-10321
▁radio	-10322
▁siivo	-10323
annalle	-10324
▁Manner	-10325
▁Matias	-10326
▁laukoi	-10327
▁projek	-10328
▁suunna	-10329
▁autoili	-10330
▁monelle	-10331
▁poistaa	-10332
▁tarinan	-10333
vuotiaita	-10334
▁edetessä	-10335
▁ennustaa	-10336
▁liigassa	-10337
▁miehensä	-10338
▁mielenos	-10339
▁pelaajaa	-10340
▁rattijuo	-10341
▁reilusti	-10342
kuljettaja	-10343
▁ajatuksia	-10344
▁esitetään	-10345
▁käsittele	-10346
▁maajoukku	-10347
▁millaista	-10348
▁panttivan	-10349
▁yleisölle	-10350
keskuksessa	-10351
▁havaittiin	-10352
▁päätöksestä	-10353
▁tilanteissa	-10354
mot	-10355
▁PS	-10356
kuul	-10357
ulun	-10358
ästä	-10359
▁Bry	-10360
maata	-10361
vältä	-10362
▁Borg	-10363
▁Rafa	-10364
▁isot	-10365
ikentä	-10366
▁Hauki	-10367
▁Kuusi	-10368
▁Lehto	-10369
▁Oscar	-10370
▁droon	-10371
▁känny	-10372
▁suhte	-10373
isempaa	-10374
uuksien	-10375
▁Elokap	-10376
▁Naisen	-10377
▁Sergei	-10378
▁katosi	-10379
▁päästy	-10380
▁rauhoi	-10381
yhdistys	-10382
▁Halonen	-10383
▁kehitty	-10384
▁kiittää	-10385
▁muualle	-10386
▁tarkkaa	-10387
uksistaan	-10388
▁kannusta	-10389
▁keskelle	-10390
▁yhtäkkiä	-10391
▁kilpailuk	-10392
▁millaisia	-10393
▁myynnissä	-10394
▁Henriksson	-10395
▁Ensimmäisen	-10396
▁rikoskomisario	-10397
▁Tv	-10398
itua	-10399
lien	-10400
pasi	-10401
▁Ant	-10402
▁Hun	-10403
▁Lea	-10404
▁Ten	-10405
▁juu	-10406
kkuus	-10407
parin	-10408
tujen	-10409
▁Kuka	-10410
▁Peng	-10411
▁Real	-10412
▁kaks	-10413
▁Mahdo	-10414
▁kaune	-10415
▁kehui	-10416
▁lensi	-10417
▁solmi	-10418
▁suost	-10419
▁joukot	-10420
▁sopiva	-10421
▁vietti	-10422
▁Terveys	-10423
▁heittää	-10424
▁määräsi	-10425
▁sydämen	-10426
▁välille	-10427
joukkojen	-10428
▁enintään	-10429
▁kestänyt	-10430
▁nikotiin	-10431
▁seurassa	-10432
▁vakuutus	-10433
▁kertoneet	-10434
▁kommentti	-10435
▁seurannut	-10436
▁syyttäjän	-10437
▁mielellään	-10438
▁muistetaan	-10439
▁supertähti	-10440
▁suunnittele	-10441
▁yhteiskunta	-10442
▁kirjoittanut	-10443
2)	-10444
ipp	-10445
set	-10446
vea	-10447
muus	-10448
▁40-	-10449
▁Che	-10450
▁Hul	-10451
junen	-10452
kympp	-10453
puhel	-10454
töntä	-10455
veron	-10456
▁Blin	-10457
▁Sota	-10458
▁houk	-10459
▁hous	-10460
▁pila	-10461
▁2017.	-10462
▁Eihän	-10463
▁Minna	-10464
▁Poika	-10465
▁haave	-10466
▁rikki	-10467
▁räjäh	-10468
▁tiesi	-10469
▁ylpeä	-10470
kuntien	-10471
tilassa	-10472
ttomuus	-10473
yneensä	-10474
▁fiilis	-10475
▁muttei	-10476
▁tuovat	-10477
▁vasten	-10478
alueelle	-10479
yksikköä	-10480
▁Timesin	-10481
▁Välillä	-10482
▁harrast	-10483
▁näkemys	-10484
▁perustu	-10485
▁sijalle	-10486
▁uudelle	-10487
▁vanhoja	-10488
▁antamaan	-10489
▁joukkoja	-10490
▁karsinta	-10491
▁Christian	-10492
▁kuolleena	-10493
▁kerrallaan	-10494
▁kiinnostunut	-10495
▁lähetyksessä	-10496
▁suhteellisen	-10497
cus	-10498
▁Ban	-10499
▁Stu	-10500
▁Wor	-10501
▁avo	-10502
Matti	-10503
kaisu	-10504
kolle	-10505
mitea	-10506
umero	-10507
usina	-10508
▁Sand	-10509
▁anti	-10510
▁eron	-10511
▁erää	-10512
▁liig	-10513
ilassa	-10514
toimen	-10515
▁Video	-10516
▁Yhtiö	-10517
▁avain	-10518
▁rasis	-10519
▁rento	-10520
▁sinua	-10521
▁talli	-10522
▁linjan	-10523
▁luotto	-10524
▁mallia	-10525
▁rikost	-10526
sivuston	-10527
▁Angeles	-10528
▁Kurskin	-10529
▁korkein	-10530
▁unionin	-10531
▁juhlissa	-10532
▁medialle	-10533
▁peräisin	-10534
▁pitkällä	-10535
▁riittävä	-10536
▁tavoitti	-10537
▁valmiita	-10538
▁yhteistä	-10539
▁Heiskanen	-10540
▁Ministeri	-10541
▁ohjelmaan	-10542
▁silminnäki	-10543
▁ylipäätään	-10544
▁merkittäviä	-10545
▁suunnitelma	-10546
▁ukrainalais	-10547
▁valiokunnan	-10548
▁hyvinvointialue	-10549
fli	-10550
nän	-10551
▁44	-10552
▁kW	-10553
kaar	-10554
vaku	-10555
▁Ain	-10556
▁Lun	-10557
▁Naa	-10558
▁nis	-10559
▁näl	-10560
▁tos	-10561
Korea	-10562
sseja	-10563
▁Syys	-10564
▁epär	-10565
▁koea	-10566
▁vika	-10567
kansan	-10568
tellut	-10569
▁Lotta	-10570
▁asenn	-10571
▁espan	-10572
▁hakee	-10573
▁hakem	-10574
▁harha	-10575
▁kukka	-10576
▁lippu	-10577
▁muoto	-10578
ikoissa	-10579
utukset	-10580
yttävää	-10581
▁Kiitos	-10582
▁Päätös	-10583
▁kiitos	-10584
▁vaaran	-10585
▁keittiö	-10586
▁kulutus	-10587
▁täyteen	-10588
▁yhdeksä	-10589
▁Lahdessa	-10590
▁rajoitta	-10591
▁Varsinkin	-10592
▁heikentää	-10593
▁jatkamaan	-10594
▁parhaaksi	-10595
poliittisen	-10596
▁ihmettelee	-10597
▁maanantain	-10598
▁ratkaisuja	-10599
▁Anderssonin	-10600
▁huolestutta	-10601
▁miljoonalla	-10602
▁Kansainvälisen	-10603
far	-10604
tak	-10605
▁bo	-10606
Assa	-10607
arvi	-10608
eeta	-10609
eton	-10610
idan	-10611
iman	-10612
itio	-10613
moja	-10614
vihr	-10615
▁250	-10616
▁27,	-10617
▁bru	-10618
▁lii	-10619
itoja	-10620
nettu	-10621
ustin	-10622
▁Piis	-10623
▁Terä	-10624
issani	-10625
joilta	-10626
koinen	-10627
lahden	-10628
oineen	-10629
päässä	-10630
uohjel	-10631
▁Perin	-10632
▁hanki	-10633
▁pehme	-10634
▁selkä	-10635
▁tavar	-10636
▁tuhat	-10637
hoitaja	-10638
puiston	-10639
tilasta	-10640
tämistä	-10641
▁Tuleva	-10642
▁laskea	-10643
▁lupasi	-10644
▁meistä	-10645
▁sattuu	-10646
▁summaa	-10647
▁tarpee	-10648
▁ulottu	-10649
kunnalla	-10650
▁Minulle	-10651
▁asettaa	-10652
▁erityis	-10653
▁keinoja	-10654
▁kuluvan	-10655
▁lavalle	-10656
▁tällöin	-10657
▁vankila	-10658
ikymmentä	-10659
operaatio	-10660
▁arvioitu	-10661
▁hyväksyä	-10662
▁noudatta	-10663
▁sijoitta	-10664
▁ulkomaan	-10665
▁urheilun	-10666
▁Kaikkonen	-10667
▁Taustalla	-10668
▁esittelee	-10669
▁myöntänyt	-10670
▁riippumatta	-10671
▁olympialaisiin	-10672
Van	-10673
ort	-10674
anno	-10675
mena	-10676
uvan	-10677
▁12,	-10678
▁Sab	-10679
▁Suk	-10680
▁Syö	-10681
htori	-10682
kelan	-10683
purin	-10684
▁Joki	-10685
▁Smit	-10686
▁Tour	-10687
▁iden	-10688
▁kiri	-10689
▁para	-10690
määrät	-10691
▁Lisää	-10692
▁halve	-10693
▁herku	-10694
▁katto	-10695
▁löydy	-10696
▁neste	-10697
▁parve	-10698
▁teini	-10699
laiseen	-10700
mastaan	-10701
uolella	-10702
▁Alanko	-10703
▁Kanada	-10704
▁Kokona	-10705
▁Opposi	-10706
▁Valkea	-10707
▁poikaa	-10708
eellistä	-10709
▁armeija	-10710
▁massiiv	-10711
▁uudella	-10712
▁viimein	-10713
▁lähtivät	-10714
▁neljänne	-10715
▁vastuuta	-10716
valiokunta	-10717
▁kielletty	-10718
▁yritykset	-10719
▁elokuvassa	-10720
▁ihmisoikeus	-10721
▁vaikutukset	-10722
▁työntekijöitä	-10723
oly	-10724
vyy	-10725
▁75	-10726
▁Lö	-10727
koke	-10728
onto	-10729
sija	-10730
uhka	-10731
ukas	-10732
ysin	-10733
▁Kop	-10734
▁Res	-10735
▁tes	-10736
eetti	-10737
kkuja	-10738
maise	-10739
oitua	-10740
virhe	-10741
virta	-10742
▁Entä	-10743
▁Luki	-10744
▁upea	-10745
puisto	-10746
yksikö	-10747
▁Kaupp	-10748
▁Matka	-10749
▁Nurmi	-10750
▁Tarko	-10751
▁Tilan	-10752
▁Wilma	-10753
▁myydä	-10754
▁neliö	-10755
▁näytä	-10756
▁oppim	-10757
▁sisar	-10758
▁tason	-10759
▁väite	-10760
eillään	-10761
▁Sloven	-10762
▁häirin	-10763
▁kuultu	-10764
▁kävele	-10765
▁käytän	-10766
▁oulula	-10767
▁selviä	-10768
estivaal	-10769
hallissa	-10770
▁Susanna	-10771
▁ystäviä	-10772
▁Edmonton	-10773
▁epäiltyä	-10774
▁päivällä	-10775
▁riveissä	-10776
▁selvitys	-10777
▁viittasi	-10778
▁annettiin	-10779
▁muutokset	-10780
▁ruokavali	-10781
▁huippukoko	-10782
▁osavaltiossa	-10783
▁tavanomaista	-10784
▁todellisuudessa	-10785
nät	-10786
geri	-10787
inni	-10788
kina	-10789
kkik	-10790
lyön	-10791
pesi	-10792
tain	-10793
tona	-10794
tsaa	-10795
veen	-10796
ööri	-10797
▁(19	-10798
▁2,5	-10799
▁Ori	-10800
▁fak	-10801
eetta	-10802
forni	-10803
itsen	-10804
rinta	-10805
▁Malm	-10806
▁Suvi	-10807
▁asui	-10808
▁vuok	-10809
ksilla	-10810
mitali	-10811
ttonsa	-10812
▁2022,	-10813
▁Artik	-10814
▁palon	-10815
▁reser	-10816
▁tapon	-10817
Venäjän	-10818
isiinsa	-10819
▁Netfli	-10820
▁epäile	-10821
▁käyvät	-10822
▁neuvon	-10823
▁panssa	-10824
▁pienet	-10825
▁tervet	-10826
▁kieltää	-10827
▁taposta	-10828
▁terrori	-10829
▁tuttuja	-10830
ystävänsä	-10831
▁Vilppaan	-10832
▁arviolta	-10833
▁sisältöä	-10834
▁talvella	-10835
maajoukkue	-10836
utumisesta	-10837
▁ajoittain	-10838
▁ratkaisun	-10839
▁valtuusto	-10840
▁vastuussa	-10841
▁Espanjassa	-10842
▁kruununprin	-10843
▁todellakaan	-10844
▁olosuhteissa	-10845
▁kansainvälinen	-10846
▁ulkoministeriön	-10847
lub	-10848
vai	-10849
wer	-10850
▁41	-10851
cros	-10852
lian	-10853
vila	-10854
▁Pud	-10855
▁Rai	-10856
▁pik	-10857
▁uun	-10858
kaupp	-10859
kkina	-10860
kuski	-10861
ukesk	-10862
▁hita	-10863
▁nöyr	-10864
▁rivi	-10865
▁viet	-10866
▁väri	-10867
osella	-10868
ttomat	-10869
▁Norja	-10870
▁Savon	-10871
▁Tuore	-10872
▁hirvi	-10873
▁kaatu	-10874
▁viivä	-10875
annissa	-10876
ustilan	-10877
▁Thomas	-10878
▁kommun	-10879
▁käytös	-10880
▁ottaen	-10881
▁yksikö	-10882
hetkellä	-10883
mmillään	-10884
▁arvelee	-10885
▁mistään	-10886
▁riippuu	-10887
itokselta	-10888
▁kaksikon	-10889
▁kasvatti	-10890
▁kolmatta	-10891
▁voitosta	-10892
▁haltuunsa	-10893
▁saapuivat	-10894
▁tehtävään	-10895
▁menettänyt	-10896
▁henkilöauto	-10897
▁kommentoida	-10898
▁tapahtunutta	-10899
▁tyypillisesti	-10900
▁seksuaalisesta	-10901
imur	-10902
issu	-10903
▁Cen	-10904
▁Cru	-10905
▁Mba	-10906
▁Sis	-10907
▁iha	-10908
▁Älä	-10909
kenee	-10910
kkana	-10911
vitys	-10912
▁Blom	-10913
▁Emmi	-10914
▁Peop	-10915
▁Rauh	-10916
▁Satu	-10917
▁kovi	-10918
▁kumm	-10919
▁Mänty	-10920
▁globa	-10921
▁pärjä	-10922
▁välin	-10923
hoitoon	-10924
yttävän	-10925
▁syytti	-10926
▁unelma	-10927
liikkeen	-10928
▁apulais	-10929
▁kenelle	-10930
▁kuntien	-10931
▁nimellä	-10932
▁vaaleja	-10933
historian	-10934
▁Johannes	-10935
▁Mercedes	-10936
▁Videolla	-10937
▁budjetti	-10938
▁kyydissä	-10939
▁selvitti	-10940
▁yksimiel	-10941
▁ajattelee	-10942
▁erikoisko	-10943
▁legendaar	-10944
▁nopeammin	-10945
▁pidempään	-10946
politiikkaa	-10947
▁toisistaan	-10948
maajoukkueen	-10949
▁aamupäivällä	-10950
▁yhteistyössä	-10951
▁Kansainvälinen	-10952
▁turvallisuutta	-10953
▁onnettomuudessa	-10954
oik	-10955
▁46	-10956
elaa	-10957
etön	-10958
iltu	-10959
kita	-10960
oloa	-10961
raal	-10962
reut	-10963
stön	-10964
tiaa	-10965
vier	-10966
▁60-	-10967
▁Gri	-10968
▁JYP	-10969
▁Son	-10970
▁Tap	-10971
▁deb	-10972
▁fut	-10973
▁hii	-10974
▁nat	-10975
▁äär	-10976
kanda	-10977
ratka	-10978
vaihd	-10979
▁Elin	-10980
▁Enna	-10981
▁Only	-10982
▁Vero	-10983
▁kaiv	-10984
koissa	-10985
liikke	-10986
uttaja	-10987
utuvan	-10988
▁Kello	-10989
▁journ	-10990
▁kauhe	-10991
▁tauon	-10992
ttäneen	-10993
viikkoi	-10994
▁Koivun	-10995
▁myönte	-10996
▁näihin	-10997
merkkejä	-10998
▁antavat	-10999
▁maaliva	-11000
▁matkaan	-11001
▁Kinnunen	-11002
▁Suominen	-11003
▁Victoria	-11004
▁aikaisin	-11005
▁hotellin	-11006
▁konserva	-11007
▁kilpailua	-11008
▁Aleksander	-11009
▁Eurooppaan	-11010
▁Pirkanmaan	-11011
▁asiakkaita	-11012
▁kokemuksia	-11013
▁naimisissa	-11014
▁seuraamaan	-11015
viranomaiset	-11016
▁neljänneksi	-11017
Hä	-11018
MW	-11019
kyl	-11020
▁55	-11021
▁6,	-11022
itie	-11023
jouk	-11024
ässä	-11025
▁25,	-11026
▁Tys	-11027
▁aid	-11028
▁jen	-11029
▁soh	-11030
▁tri	-11031
innes	-11032
kissä	-11033
kovin	-11034
ohjaa	-11035
▁Essa	-11036
▁Joel	-11037
▁Mike	-11038
▁Syks	-11039
▁isoa	-11040
kaisen	-11041
tymään	-11042
udelta	-11043
▁1970-	-11044
▁Kuusa	-11045
▁Lahti	-11046
▁Pauli	-11047
▁Pikku	-11048
▁ikävä	-11049
▁inter	-11050
▁juoma	-11051
▁leika	-11052
▁mökki	-11053
ehdokas	-11054
ulanssi	-11055
▁hankke	-11056
▁hinnan	-11057
▁kristi	-11058
▁lännen	-11059
sarjasta	-11060
ttäväksi	-11061
▁Finland	-11062
▁kohtasi	-11063
▁lavalla	-11064
▁levittä	-11065
▁puhuttu	-11066
▁tietoon	-11067
▁ääneste	-11068
paikkojen	-11069
▁MVPhotos	-11070
▁Niskasen	-11071
▁asemassa	-11072
▁ilmestyi	-11073
▁muodossa	-11074
▁onnistuu	-11075
▁selvittä	-11076
▁suljettu	-11077
▁kyseenala	-11078
▁käyttävät	-11079
▁selvinnyt	-11080
▁suostunut	-11081
▁väitteitä	-11082
▁Teollisuus	-11083
▁eläkkeelle	-11084
▁sekunnissa	-11085
▁aiheuttavat	-11086
▁kansalaisia	-11087
▁kiitollinen	-11088
▁Facebookissa	-11089
▁Viranomaiset	-11090
Ei	-11091
dea	-11092
iho	-11093
sun	-11094
uor	-11095
▁5,	-11096
▁KU	-11097
bumi	-11098
eeni	-11099
isän	-11100
kikä	-11101
kore	-11102
llot	-11103
tiön	-11104
tuja	-11105
▁Kui	-11106
▁mus	-11107
▁uno	-11108
estit	-11109
ilaat	-11110
kylän	-11111
venan	-11112
▁Huol	-11113
▁Junn	-11114
▁jarr	-11115
▁viho	-11116
ajalla	-11117
▁2025.	-11118
▁Chica	-11119
▁Hinta	-11120
▁Kreml	-11121
▁Liver	-11122
▁Ykkös	-11123
▁Harryn	-11124
▁jakson	-11125
▁nuorta	-11126
▁olimme	-11127
▁pariin	-11128
kkoilija	-11129
ttelivat	-11130
▁Puhakka	-11131
▁hankkia	-11132
▁jatkoon	-11133
▁päiväsa	-11134
▁useissa	-11135
▁korjattu	-11136
▁löytyvät	-11137
▁viimeisi	-11138
▁ammuttiin	-11139
▁erilaiset	-11140
▁muutoksen	-11141
▁tunnistaa	-11142
▁vastaavaa	-11143
▁hallitusta	-11144
▁puheessaan	-11145
▁työntekijää	-11146
▁vaikutuksen	-11147
▁hallituksessa	-11148
▁järjestetyssä	-11149
▁maailmanlaaju	-11150
En	-11151
bs	-11152
gyp	-11153
oom	-11154
▁NR	-11155
evat	-11156
ikea	-11157
oosi	-11158
raag	-11159
▁Med	-11160
▁mor	-11161
▁pöl	-11162
▁sär	-11163
▁tol	-11164
jalti	-11165
kaise	-11166
kykyä	-11167
ukell	-11168
veden	-11169
▁ketj	-11170
ojensa	-11171
piirin	-11172
tuneen	-11173
▁Haapa	-11174
▁arvio	-11175
▁kaven	-11176
▁lukea	-11177
▁omiin	-11178
▁vaihd	-11179
misensa	-11180
ttomana	-11181
viestin	-11182
▁Barcel	-11183
▁englan	-11184
▁israel	-11185
▁joille	-11186
▁matkus	-11187
vallasta	-11188
vartiola	-11189
▁McLaren	-11190
▁Tällöin	-11191
▁hauskaa	-11192
▁kulunut	-11193
▁lukemin	-11194
▁monessa	-11195
▁liittyvä	-11196
▁paikasta	-11197
▁yöpäivys	-11198
▁asteeseen	-11199
▁erikoinen	-11200
▁kiistänyt	-11201
▁kuvitella	-11202
▁salamurha	-11203
▁siirtynyt	-11204
▁Zelenskyin	-11205
▁edellyttää	-11206
▁onnellinen	-11207
▁ravintolan	-11208
▁Hyvinvointi	-11209
▁Tavoitteena	-11210
▁yhteiskunna	-11211
▁ensimmäisestä	-11212
bar	-11213
kasi	-11214
oite	-11215
ukki	-11216
▁Fur	-11217
lalla	-11218
vatta	-11219
▁Joku	-11220
▁Kaun	-11221
▁Rehn	-11222
▁Utah	-11223
▁abor	-11224
▁miin	-11225
▁oltu	-11226
▁tyyl	-11227
eisiin	-11228
istien	-11229
ttuvat	-11230
▁Franc	-11231
▁Loppu	-11232
▁Pakar	-11233
▁Pelto	-11234
▁Vaasa	-11235
▁ajoin	-11236
▁krite	-11237
▁kuiva	-11238
▁valvo	-11239
itteitä	-11240
kkaansa	-11241
oitunut	-11242
▁Essaya	-11243
▁kiista	-11244
▁tuossa	-11245
▁ääneen	-11246
lliselle	-11247
▁Kesällä	-11248
▁kädessä	-11249
▁Pittsbur	-11250
▁energiaa	-11251
▁kaikkiin	-11252
▁kolmessa	-11253
▁lähtevät	-11254
▁pettymys	-11255
▁puhemies	-11256
▁veteraan	-11257
▁hirveästi	-11258
▁kuvattiin	-11259
▁vaaditaan	-11260
▁Hämäläinen	-11261
▁kiinnostaa	-11262
▁Helsingistä	-11263
▁rakentaminen	-11264
▁Kansanedustaja	-11265
3)	-11266
75	-11267
-19	-11268
Mar	-11269
bis	-11270
▁pö	-11271
etel	-11272
mmer	-11273
omon	-11274
vira	-11275
kisan	-11276
lento	-11277
ostus	-11278
sänen	-11279
öissä	-11280
▁Vanh	-11281
▁kala	-11282
▁peto	-11283
hankke	-11284
istina	-11285
▁Black	-11286
▁Hakan	-11287
▁arjen	-11288
▁kanad	-11289
▁käden	-11290
▁makuu	-11291
▁tyhjä	-11292
ennuste	-11293
hiihdon	-11294
talossa	-11295
tietoja	-11296
tiopuol	-11297
▁Jarkko	-11298
▁Kaleva	-11299
▁Niistä	-11300
▁Nuoret	-11301
▁Toimin	-11302
▁Tuntuu	-11303
▁Yhtiön	-11304
▁asuvat	-11305
▁harras	-11306
▁mittaa	-11307
▁osasto	-11308
▁päiviä	-11309
▁päivät	-11310
▁tallin	-11311
▁tuntua	-11312
laisesta	-11313
▁edennyt	-11314
▁loukkaa	-11315
▁varhais	-11316
▁ydinase	-11317
erapeutti	-11318
▁johdosta	-11319
▁kutsuttu	-11320
llisuuteen	-11321
▁kasvattaa	-11322
▁kohtaavat	-11323
▁jouduttiin	-11324
▁kolmannessa	-11325
▁vuorokauden	-11326
▁kustannukset	-11327
To	-11328
chi	-11329
olu	-11330
diin	-11331
eliä	-11332
port	-11333
tejä	-11334
▁Bur	-11335
▁Ket	-11336
▁Mün	-11337
▁Run	-11338
▁Tom	-11339
▁Vel	-11340
▁lat	-11341
▁log	-11342
▁oud	-11343
emmin	-11344
isikö	-11345
kettä	-11346
valvo	-11347
▁Tekn	-11348
▁hehk	-11349
▁napa	-11350
eitaan	-11351
ilauta	-11352
isuhde	-11353
llistu	-11354
teistö	-11355
▁asele	-11356
▁epäto	-11357
▁henki	-11358
▁human	-11359
▁lataa	-11360
▁massa	-11361
▁pidet	-11362
▁puhta	-11363
▁testi	-11364
tioiden	-11365
valtaan	-11366
▁kunhan	-11367
▁lukija	-11368
▁lyhyen	-11369
▁oireet	-11370
▁potkut	-11371
▁radika	-11372
▁yliopp	-11373
▁Suomala	-11374
▁eläkelä	-11375
▁hämmäst	-11376
▁näkyvät	-11377
tilanteen	-11378
▁Granlund	-11379
▁häiritse	-11380
▁löydetty	-11381
▁riippuen	-11382
▁taloutta	-11383
▁verkkoon	-11384
▁Ajattelin	-11385
▁Italiassa	-11386
▁tietoinen	-11387
▁katsomassa	-11388
▁kieltäytyi	-11389
▁liikkeellä	-11390
▁alkuvuodesta	-11391
▁sähköpostitse	-11392
▁valitettavasti	-11393
uda	-11394
▁31	-11395
mänä	-11396
tisi	-11397
▁blo	-11398
▁bon	-11399
▁huv	-11400
nosta	-11401
peliä	-11402
staan	-11403
ttään	-11404
tyypp	-11405
viiva	-11406
yissä	-11407
▁2012	-11408
▁Alle	-11409
▁Cana	-11410
▁fysi	-11411
▁oper	-11412
▁ylsi	-11413
etusti	-11414
formaa	-11415
kampan	-11416
mmistä	-11417
mmiten	-11418
peliin	-11419
▁Stora	-11420
▁etsiä	-11421
▁istun	-11422
▁menne	-11423
▁toisi	-11424
▁vessa	-11425
kanavan	-11426
potkula	-11427
sarjaan	-11428
tteihin	-11429
▁Palvel	-11430
▁hoitoa	-11431
▁hotell	-11432
▁juonta	-11433
▁kertyi	-11434
▁kykene	-11435
▁musiik	-11436
▁sairas	-11437
▁sivuun	-11438
▁testaa	-11439
▁vaaraa	-11440
alueiden	-11441
luokassa	-11442
ttelevät	-11443
▁Räsänen	-11444
▁ilmenee	-11445
▁joitain	-11446
▁pysynyt	-11447
▁tilassa	-11448
lähettilä	-11449
▁alueiden	-11450
▁hävinnyt	-11451
▁lentokon	-11452
▁vaarassa	-11453
▁yhdistel	-11454
▁ajattelin	-11455
▁toisinaan	-11456
▁valmistui	-11457
▁seksuaalir	-11458
▁esitutkinta	-11459
▁alkupuolella	-11460
▁Olympiakomitean	-11461
cky	-11462
isua	-11463
ykse	-11464
ähet	-11465
▁Neu	-11466
▁kyp	-11467
arvon	-11468
eelta	-11469
halli	-11470
isalo	-11471
suosi	-11472
ttava	-11473
uunta	-11474
visen	-11475
▁Bull	-11476
▁Lait	-11477
▁Susi	-11478
▁henk	-11479
tellen	-11480
tähden	-11481
ullaan	-11482
usteli	-11483
▁Juttu	-11484
▁eroja	-11485
▁hyökä	-11486
▁intoh	-11487
▁kohun	-11488
▁kysyä	-11489
▁lipun	-11490
▁syitä	-11491
▁syrjä	-11492
▁tuken	-11493
▁ukkos	-11494
▁vangi	-11495
suojelu	-11496
▁Lääkär	-11497
▁Sieltä	-11498
▁enimmä	-11499
▁gallup	-11500
▁levisi	-11501
▁murska	-11502
▁myöten	-11503
lercreut	-11504
oituksen	-11505
torjunta	-11506
vuotiaat	-11507
▁alkohol	-11508
▁sairaan	-11509
▁uhriksi	-11510
▁valikoi	-11511
▁yleistä	-11512
mitalisti	-11513
▁Hamilton	-11514
▁kasvatta	-11515
▁kisoihin	-11516
▁käyntiin	-11517
▁merkkejä	-11518
▁muusikko	-11519
▁olevasta	-11520
▁pakettia	-11521
▁perustee	-11522
▁syytteen	-11523
▁järjestön	-11524
▁mieluummin	-11525
▁viimeisenä	-11526
▁järjestelmä	-11527
▁pohjoisessa	-11528
▁valtioviera	-11529
▁viimeisellä	-11530
▁hyökkäyssodan	-11531
▁ulkoministeriö	-11532
ms	-11533
yin	-11534
zan	-11535
▁8,	-11536
eenä	-11537
fiil	-11538
inat	-11539
jina	-11540
▁Ajo	-11541
▁Eer	-11542
▁Ikä	-11543
▁Ley	-11544
▁lom	-11545
ikaan	-11546
mpina	-11547
niemi	-11548
▁2013	-11549
▁Mark	-11550
▁Riku	-11551
▁Sala	-11552
▁hyöd	-11553
▁linn	-11554
▁rake	-11555
▁työt	-11556
ikosta	-11557
▁Meksi	-11558
▁Youtu	-11559
▁aptee	-11560
▁huumo	-11561
▁piilo	-11562
▁polku	-11563
▁tyrmä	-11564
▁tältä	-11565
elokuva	-11566
johtoon	-11567
komitea	-11568
ottavat	-11569
ttömänä	-11570
▁Heistä	-11571
▁Viestin	-11572
▁isännöi	-11573
▁menneet	-11574
▁sopivat	-11575
▁Aaltonen	-11576
▁Viimeksi	-11577
▁johonkin	-11578
▁miehistä	-11579
▁terveysa	-11580
▁videolta	-11581
vaikuttaja	-11582
▁Keskustan	-11583
▁helpottaa	-11584
▁kouluampu	-11585
▁Adlercreut	-11586
▁Australian	-11587
▁Toimittaja	-11588
▁käsittelee	-11589
▁työttömyys	-11590
asiantuntija	-11591
▁yksityiskohd	-11592
▁infrastruktuu	-11593
▁mahdollisesta	-11594
▁perinteisesti	-11595
▁kansainvälistä	-11596
▁kaupunginvaltu	-11597
ph	-11598
poa	-11599
psy	-11600
syl	-11601
▁Gö	-11602
▁SV	-11603
▁co	-11604
gers	-11605
mmäs	-11606
oksi	-11607
▁Pyö	-11608
▁ben	-11609
elman	-11610
ergia	-11611
kensa	-11612
kulku	-11613
nissa	-11614
▁Liik	-11615
▁brän	-11616
▁draa	-11617
▁kuiv	-11618
▁olka	-11619
▁roko	-11620
▁touh	-11621
ikoina	-11622
ilusta	-11623
rannan	-11624
vastaa	-11625
vastuu	-11626
▁Lappi	-11627
▁Niemi	-11628
▁karme	-11629
▁maase	-11630
▁uhria	-11631
ettavan	-11632
udutaan	-11633
▁Keskis	-11634
▁kisaan	-11635
▁lasken	-11636
▁mahtuu	-11637
▁ruumis	-11638
▁useaan	-11639
▁Latvian	-11640
▁kestävä	-11641
▁laittom	-11642
▁vaihtoi	-11643
▁yhdistä	-11644
▁Israelia	-11645
▁Lindholm	-11646
▁Vornasen	-11647
▁palvelut	-11648
▁suuressa	-11649
▁tehtäviä	-11650
▁Itävallan	-11651
▁Kaliforni	-11652
▁ihmetteli	-11653
▁julkaisun	-11654
▁kunniaksi	-11655
▁säilyttää	-11656
▁Olympiasta	-11657
▁asiakkaiden	-11658
▁runkosarjan	-11659
▁yleisradioyhtiö	-11660
uc	-11661
bon	-11662
huu	-11663
lam	-11664
ure	-11665
ckey	-11666
▁Bru	-11667
▁Hus	-11668
▁Vah	-11669
▁pui	-11670
2024.	-11671
arvoa	-11672
elämä	-11673
kutti	-11674
maksu	-11675
tietä	-11676
tykse	-11677
▁Viro	-11678
▁harm	-11679
▁lasi	-11680
▁vihj	-11681
palloa	-11682
teossa	-11683
toilla	-11684
▁Jarmo	-11685
▁Perni	-11686
▁Saman	-11687
▁Valit	-11688
▁kelta	-11689
▁tuota	-11690
▁työeh	-11691
istynyt	-11692
yttävät	-11693
▁Hollan	-11694
▁Mikkel	-11695
▁Seudun	-11696
▁Vilpas	-11697
▁pettym	-11698
▁roolia	-11699
▁toimet	-11700
juontaja	-11701
▁Anttila	-11702
▁hautaja	-11703
▁mittaan	-11704
▁nimessä	-11705
▁talvena	-11706
▁yleisöä	-11707
palkinnon	-11708
vuorokaut	-11709
▁kadonnut	-11710
▁kaikessa	-11711
▁suoritta	-11712
▁tarkoita	-11713
▁aikuisten	-11714
▁asiakkaat	-11715
▁liittyvän	-11716
▁nimeltään	-11717
▁saatetaan	-11718
▁sopimusta	-11719
▁vastustaa	-11720
▁ennakkoään	-11721
▁matkustaja	-11722
▁Seuraavaksi	-11723
▁paikallisen	-11724
▁pidätettiin	-11725
▁viikonloppu	-11726
80	-11727
Af	-11728
bud	-11729
gna	-11730
ova	-11731
riko	-11732
valm	-11733
▁193	-11734
▁Bon	-11735
▁Dup	-11736
▁Het	-11737
▁Lid	-11738
▁TTK	-11739
▁nop	-11740
astin	-11741
erasi	-11742
imman	-11743
▁2000	-11744
▁Kyll	-11745
▁Viap	-11746
▁dies	-11747
▁edel	-11748
mallia	-11749
rajoit	-11750
▁Press	-11751
▁Tieto	-11752
▁Kuinka	-11753
▁Minnes	-11754
▁People	-11755
▁Taiwan	-11756
▁hintaa	-11757
▁kyynel	-11758
▁luonte	-11759
▁moneen	-11760
▁muusta	-11761
▁painon	-11762
▁rikkoi	-11763
▁seksiä	-11764
ttomaksi	-11765
▁Käärijä	-11766
▁Tanssii	-11767
▁juttuja	-11768
▁nimensä	-11769
▁palkkaa	-11770
▁perusti	-11771
▁puuttua	-11772
▁ravitse	-11773
▁sisälle	-11774
▁Heikkilä	-11775
▁katsojaa	-11776
▁suosittu	-11777
▁varautua	-11778
▁Finnairin	-11779
▁lopputulos	-11780
▁instituutin	-11781
▁minkäänlaista	-11782
▁yksityiskohtia	-11783
12	-11784
▁Av	-11785
eran	-11786
eson	-11787
kirj	-11788
▁31.	-11789
▁Muo	-11790
▁Sot	-11791
▁Veh	-11792
rikan	-11793
▁Goog	-11794
▁Sten	-11795
▁kite	-11796
▁radi	-11797
▁suin	-11798
ttunen	-11799
▁Kulta	-11800
▁Parha	-11801
▁Saudi	-11802
▁Schol	-11803
▁halut	-11804
▁latti	-11805
▁mikro	-11806
▁tulot	-11807
jilleen	-11808
opiston	-11809
vastoin	-11810
▁Eniten	-11811
▁Heillä	-11812
▁Yrittä	-11813
▁ajalla	-11814
▁mallin	-11815
▁nousua	-11816
▁piikki	-11817
▁puolta	-11818
▁sääntö	-11819
▁toivoa	-11820
▁vienyt	-11821
sihteeri	-11822
▁lakiesi	-11823
▁realist	-11824
utuksesta	-11825
▁kaudesta	-11826
▁kyseinen	-11827
▁nostanut	-11828
▁pyrkinyt	-11829
▁torjunta	-11830
▁valtaosa	-11831
▁varoitus	-11832
▁Kaikkiaan	-11833
▁harrastus	-11834
▁lähteiden	-11835
▁lähtemään	-11836
▁matkustaa	-11837
▁ratkaista	-11838
▁saattaisi	-11839
▁täyssähkö	-11840
▁vankeutta	-11841
▁vieläkään	-11842
▁ennätyksen	-11843
▁odottamaan	-11844
▁pääsihteeri	-11845
▁toimittajan	-11846
▁lausunnossaan	-11847
▁Neuvostoliiton	-11848
▁turvapaikanhaki	-11849
RC	-11850
lap	-11851
vic	-11852
▁39	-11853
ehän	-11854
sell	-11855
▁26,	-11856
▁Lim	-11857
▁est	-11858
▁ins	-11859
muoto	-11860
uotan	-11861
▁Helm	-11862
▁Numm	-11863
▁Usko	-11864
▁Vara	-11865
▁agen	-11866
▁show	-11867
oltaan	-11868
teille	-11869
▁etsii	-11870
▁kehon	-11871
▁pysyi	-11872
▁resep	-11873
▁tahto	-11874
▁viihd	-11875
innasta	-11876
▁Kolmas	-11877
▁Rydman	-11878
▁Tiedän	-11879
▁jäällä	-11880
▁kultaa	-11881
▁luokan	-11882
▁ohjaus	-11883
▁sukula	-11884
voimalla	-11885
▁Ahvenan	-11886
▁Putinia	-11887
▁kävivät	-11888
▁lähistö	-11889
▁panosta	-11890
▁saaneen	-11891
▁sinänsä	-11892
▁yksikkö	-11893
neuvoston	-11894
▁Amerikka	-11895
▁analysoi	-11896
▁etelässä	-11897
▁hämmästy	-11898
▁kuolemaa	-11899
▁kuuluvan	-11900
▁lähdössä	-11901
▁odotettu	-11902
▁tiukasti	-11903
▁voimakas	-11904
▁asunnossa	-11905
▁edustanut	-11906
▁esittänyt	-11907
▁kappaleen	-11908
▁kohdistuu	-11909
▁oikeuteen	-11910
▁pitävänsä	-11911
▁sanotusti	-11912
▁tärkeintä	-11913
▁välikohta	-11914
▁tunnetuksi	-11915
▁työnantaja	-11916
▁tapauksissa	-11917
▁täydellinen	-11918
▁vastustajan	-11919
▁hyvinvoinnin	-11920
▁kansalaisten	-11921
▁välityksellä	-11922
▁asiantuntijat	-11923
▁57	-11924
▁7,	-11925
▁Mö	-11926
▁Tw	-11927
▁hö	-11928
Vide	-11929
ffic	-11930
itot	-11931
lähd	-11932
ppia	-11933
rade	-11934
uuna	-11935
▁23-	-11936
▁Bol	-11937
▁Här	-11938
Video	-11939
elius	-11940
hahmo	-11941
senin	-11942
tävää	-11943
öistä	-11944
▁Amaz	-11945
▁pääo	-11946
▁sali	-11947
dionin	-11948
doissa	-11949
kirjan	-11950
maatti	-11951
toimia	-11952
▁Sodan	-11953
▁Venez	-11954
▁erosi	-11955
▁lapse	-11956
▁liiku	-11957
▁olesk	-11958
▁rajat	-11959
▁rasva	-11960
▁väliä	-11961
ilaiset	-11962
istanut	-11963
vuosien	-11964
▁Kristi	-11965
▁Näiden	-11966
▁Vaasan	-11967
▁Yorkin	-11968
▁kontro	-11969
▁kärsii	-11970
▁syntyn	-11971
miehensä	-11972
▁Lähteet	-11973
▁jaetaan	-11974
▁kirjeen	-11975
▁nuoriso	-11976
käynnissä	-11977
▁kentälle	-11978
▁kokeilla	-11979
▁metsästä	-11980
▁säästöjä	-11981
▁tiloissa	-11982
▁ulkonäkö	-11983
▁Hollannin	-11984
▁arvioivat	-11985
▁joutuivat	-11986
▁jättämään	-11987
▁kutsutaan	-11988
▁kuulostaa	-11989
▁tekeminen	-11990
▁menestystä	-11991
▁rahoitusta	-11992
▁leikkauksia	-11993
▁joukkueeseen	-11994
▁rauhallisesti	-11995
▁tilaisuudessa	-11996
Ma	-11997
lah	-11998
lit	-11999
▁VR	-12000
elia	-12001
reff	-12002
rite	-12003
uusi	-12004
äiti	-12005
▁Kom	-12006
▁nyr	-12007
itiet	-12008
ymmär	-12009
▁Beir	-12010
▁Kori	-12011
▁Tomi	-12012
▁kivi	-12013
▁tahd	-12014
ilmoit	-12015
kkoili	-12016
mmilta	-12017
päätös	-12018
▁Jutta	-12019
▁Puoli	-12020
▁hopea	-12021
▁kasvi	-12022
▁kohen	-12023
▁kulun	-12024
▁lakot	-12025
▁pääsy	-12026
ennätys	-12027
kkuutta	-12028
upalvel	-12029
yhtyeen	-12030
▁Niklas	-12031
▁Seiska	-12032
▁Vainio	-12033
▁Voitto	-12034
▁kaunis	-12035
▁puolin	-12036
▁tilapä	-12037
▁tykkää	-12038
iteilija	-12039
käytöstä	-12040
llisempi	-12041
▁hävittä	-12042
▁koordin	-12043
▁pintaan	-12044
▁puoleen	-12045
▁Itämeren	-12046
▁esitystä	-12047
▁oikeisto	-12048
▁Joukkueen	-12049
▁Lontoossa	-12050
▁Tapahtuma	-12051
▁asunnosta	-12052
▁kuluttaja	-12053
▁kerrostalo	-12054
▁rattijuopu	-12055
▁sähköposti	-12056
▁työskentel	-12057
▁kiinteistön	-12058
ld	-12059
mär	-12060
syö	-12061
aloi	-12062
stra	-12063
▁Käy	-12064
▁Ogi	-12065
▁alt	-12066
▁bis	-12067
comin	-12068
ennus	-12069
kalli	-12070
kansl	-12071
kysel	-12072
masti	-12073
tamme	-12074
utoja	-12075
▁Bill	-12076
▁Golf	-12077
▁Ivan	-12078
▁Joni	-12079
▁Samu	-12080
▁Simo	-12081
▁Tans	-12082
▁haav	-12083
▁juus	-12084
▁kehi	-12085
▁säng	-12086
▁tipp	-12087
imellä	-12088
ukkasi	-12089
▁Jessi	-12090
▁Kaste	-12091
▁Simon	-12092
▁niuka	-12093
▁sanom	-12094
istivat	-12095
misista	-12096
tumista	-12097
uttavan	-12098
▁Julkis	-12099
▁Kauden	-12100
▁joulup	-12101
▁kohtal	-12102
▁loppuo	-12103
▁palkki	-12104
▁salais	-12105
▁tuulet	-12106
▁uusiin	-12107
▁viihde	-12108
▁virtaa	-12109
kaudesta	-12110
rakennus	-12111
talouden	-12112
▁Kapanen	-12113
▁avustus	-12114
▁haastaa	-12115
▁hintaan	-12116
▁jäsentä	-12117
▁puhetta	-12118
▁ruumiin	-12119
▁sijasta	-12120
uttamista	-12121
▁Joensuun	-12122
▁koskevan	-12123
▁vakuutti	-12124
▁kenenkään	-12125
▁peräkkäin	-12126
▁saattanut	-12127
▁väitetään	-12128
▁kunnioitta	-12129
▁käytettiin	-12130
▁miettimään	-12131
▁Republikaan	-12132
▁kannattaisi	-12133
▁neuvottelut	-12134
▁suunnittelee	-12135
▁verkkosivuilla	-12136
ct	-12137
eha	-12138
eth	-12139
kät	-12140
olm	-12141
ree	-12142
▁ge	-12143
iluo	-12144
insä	-12145
ismi	-12146
teon	-12147
tina	-12148
unin	-12149
▁ABC	-12150
▁SSS	-12151
erien	-12152
ikset	-12153
kuvia	-12154
sodan	-12155
tajaa	-12156
toitu	-12157
täisi	-12158
▁Jopa	-12159
▁Kumm	-12160
▁Olga	-12161
▁Ruka	-12162
▁Sund	-12163
▁Tomm	-12164
▁Uhri	-12165
▁Wood	-12166
▁Ystä	-12167
▁pizz	-12168
▁spon	-12169
ikkoon	-12170
itojen	-12171
kkisen	-12172
kkojen	-12173
otusta	-12174
teilla	-12175
▁Arsen	-12176
▁Koleh	-12177
▁Orban	-12178
▁Paula	-12179
▁Tesla	-12180
▁häviä	-12181
▁kumpi	-12182
▁ruumi	-12183
missaan	-12184
utuneen	-12185
ytyksiä	-12186
▁Yhdist	-12187
▁kentän	-12188
▁loppuu	-12189
▁sanoen	-12190
▁seudun	-12191
▁taloon	-12192
▁toissa	-12193
▁tulkin	-12194
▁vapaan	-12195
llisissa	-12196
prosentt	-12197
▁hevosen	-12198
▁ilmassa	-12199
▁jäseniä	-12200
▁kärkeen	-12201
▁lahjoit	-12202
▁olisiko	-12203
▁sisällö	-12204
▁Itävalta	-12205
▁Kyseinen	-12206
▁liittola	-12207
lähettiläs	-12208
professori	-12209
▁oppositio	-12210
▁polttoain	-12211
▁Moskovassa	-12212
▁enemmänkin	-12213
▁epäonnistu	-12214
▁haastattel	-12215
▁tehtävässä	-12216
▁liikennettä	-12217
▁poliittista	-12218
▁seurakunnan	-12219
▁viimeisessä	-12220
▁suunnitellut	-12221
▁yliopistossa	-12222
▁vuosikymmenen	-12223
kp	-12224
lor	-12225
syn	-12226
uen	-12227
idän	-12228
intä	-12229
uusa	-12230
ysym	-12231
▁Dis	-12232
▁Ski	-12233
jakso	-12234
kkaus	-12235
kkuri	-12236
lläni	-12237
vatko	-12238
▁Eräs	-12239
▁Iivo	-12240
▁Kilp	-12241
▁Meta	-12242
▁Onni	-12243
▁Tode	-12244
▁köyh	-12245
erille	-12246
etystä	-12247
hoitoa	-12248
llasta	-12249
toimet	-12250
ttömiä	-12251
yleisö	-12252
▁Alkoh	-12253
▁Leppä	-12254
▁Santa	-12255
▁Tarja	-12256
▁Touko	-12257
▁Turku	-12258
▁Virkk	-12259
▁iskut	-12260
▁kiihd	-12261
▁kilow	-12262
▁korko	-12263
▁piden	-12264
▁sujui	-12265
▁tulen	-12266
▁voitu	-12267
kuvassa	-12268
välillä	-12269
▁Lapset	-12270
▁Matthe	-12271
▁Olimme	-12272
▁Rooman	-12273
▁Unkari	-12274
▁Vanhan	-12275
▁budjet	-12276
▁kasvot	-12277
▁kolmea	-12278
▁kuvata	-12279
▁pelejä	-12280
▁päältä	-12281
▁päästö	-12282
isyyteen	-12283
llisille	-12284
▁Johnson	-12285
▁Stubbia	-12286
▁uusiksi	-12287
▁uusista	-12288
urheilija	-12289
▁Carolina	-12290
▁ennenkin	-12291
▁kuultiin	-12292
▁laajalti	-12293
▁pelaavat	-12294
▁raportin	-12295
kierroksen	-12296
▁elämäänsä	-12297
▁kommentit	-12298
▁lähdetään	-12299
▁näyttäisi	-12300
▁suhtautuu	-12301
▁Pelicansin	-12302
▁kirjailija	-12303
▁korvauksia	-12304
▁vastaamaan	-12305
▁vaarallinen	-12306
▁Valtiovarain	-12307
▁Uutistoimisto	-12308
▁päävalmentajana	-12309
see	-12310
▁Yö	-12311
ftin	-12312
ukoa	-12313
vaim	-12314
▁23,	-12315
▁Fil	-12316
▁Jut	-12317
▁Odo	-12318
itola	-12319
oimme	-12320
opeus	-12321
▁Kemp	-12322
▁Nash	-12323
▁juur	-12324
▁koho	-12325
▁renn	-12326
▁selä	-12327
▁symb	-12328
kkäsen	-12329
käynti	-12330
mmässä	-12331
neesta	-12332
▁2020-	-12333
▁Jyrki	-12334
▁Tervo	-12335
▁Vegas	-12336
▁laati	-12337
▁näkyä	-12338
▁tekoa	-12339
▁traag	-12340
▁tyypp	-12341
▁valin	-12342
valvoja	-12343
ykselle	-12344
▁Georgi	-12345
▁Jokela	-12346
▁Konsta	-12347
▁Maahan	-12348
▁Pietar	-12349
▁Piikki	-12350
▁Poikke	-12351
▁asumis	-12352
▁henkeä	-12353
▁Yhdessä	-12354
▁hirveän	-12355
▁korjata	-12356
▁kuntosa	-12357
▁maaleja	-12358
▁monissa	-12359
▁muutkin	-12360
▁putkeen	-12361
▁tarjosi	-12362
▁vihreät	-12363
▁voineet	-12364
▁väestön	-12365
huoneessa	-12366
kanavalla	-12367
▁Colorado	-12368
▁Kaupunki	-12369
▁hengitys	-12370
▁hetkessä	-12371
▁tuntunut	-12372
▁useammin	-12373
▁nukkumaan	-12374
▁päättynyt	-12375
▁tapauksia	-12376
▁vastaavat	-12377
▁Huuhkajien	-12378
▁tilanteita	-12379
▁Libanonissa	-12380
▁Tuppurainen	-12381
▁merkittävää	-12382
▁suurlähetys	-12383
▁Britanniassa	-12384
▁keskiviikkoi	-12385
▁runkosarjassa	-12386
cy	-12387
ye	-12388
mor	-12389
oso	-12390
uhe	-12391
▁49	-12392
ment	-12393
puhe	-12394
▁29,	-12395
▁Tem	-12396
▁and	-12397
ehall	-12398
hoita	-12399
wagen	-12400
▁2011	-12401
▁Eikö	-12402
▁Shar	-12403
▁huut	-12404
▁mara	-12405
▁pann	-12406
▁pelo	-12407
▁ryhd	-12408
▁ylin	-12409
alisar	-12410
laitos	-12411
ukossa	-12412
▁Selvi	-12413
▁iskeä	-12414
▁leveä	-12415
▁lihas	-12416
▁myyjä	-12417
▁vajaa	-12418
aleista	-12419
itellen	-12420
miehenä	-12421
▁George	-12422
▁Liigan	-12423
▁Postin	-12424
▁harkin	-12425
▁hauska	-12426
▁ruuhka	-12427
▁sateet	-12428
▁syyksi	-12429
▁tekemä	-12430
▁tuulen	-12431
▁työhön	-12432
gaalassa	-12433
ltavasti	-12434
tiloissa	-12435
▁Lisätty	-12436
▁Virossa	-12437
▁aluetta	-12438
▁jollain	-12439
▁korosta	-12440
▁kääntää	-12441
▁puuttui	-12442
▁käytännön	-12443
▁lopputulo	-12444
▁maksetaan	-12445
▁monimuoto	-12446
▁operaatio	-12447
▁saavuttaa	-12448
▁tutkintaa	-12449
▁Valmentaja	-12450
▁ainutlaatu	-12451
▁samankalta	-12452
▁seurakunta	-12453
▁mahdollisen	-12454
▁vastaanotto	-12455
▁artikkelissa	-12456
▁oikeudenmuka	-12457
▁positiivinen	-12458
▁senttimetriä	-12459
▁urheilijoiden	-12460
hil	-12461
ihi	-12462
▁ME	-12463
▁OP	-12464
▁kö	-12465
onan	-12466
onia	-12467
vain	-12468
▁70-	-12469
▁HPK	-12470
▁Pre	-12471
▁SVT	-12472
▁Tyy	-12473
▁gri	-12474
▁syt	-12475
▁tei	-12476
iinia	-12477
itaar	-12478
ppäri	-12479
rahaa	-12480
yöllä	-12481
äänsä	-12482
▁Heti	-12483
▁Joha	-12484
▁Lein	-12485
▁Tenn	-12486
▁idea	-12487
▁kell	-12488
▁opti	-12489
ikalla	-12490
iladel	-12491
itusta	-12492
juoksi	-12493
kokous	-12494
oranta	-12495
puolen	-12496
saaren	-12497
vyyden	-12498
▁Argen	-12499
▁Kanta	-12500
▁Mylly	-12501
▁Nuori	-12502
▁Pihla	-12503
▁kotik	-12504
▁lohko	-12505
▁murta	-12506
▁vitsi	-12507
▁Yleisö	-12508
▁asettu	-12509
▁itseni	-12510
▁kelpaa	-12511
▁kuudes	-12512
▁kävely	-12513
▁muuhun	-12514
▁saamme	-12515
▁varova	-12516
▁yllään	-12517
kaupassa	-12518
kaupunki	-12519
kikäteen	-12520
palvelun	-12521
▁kauteen	-12522
▁kuvattu	-12523
▁läheltä	-12524
▁romahti	-12525
▁tekemis	-12526
uttaminen	-12527
▁Kyllähän	-12528
▁Vuorinen	-12529
▁hetkeksi	-12530
▁joukosta	-12531
▁prosessi	-12532
▁tulipalo	-12533
▁vieläkin	-12534
▁Heikkinen	-12535
▁Viertolan	-12536
▁joukkueet	-12537
▁käsittämä	-12538
▁ambulanssi	-12539
▁demokraatt	-12540
▁pukeutunut	-12541
kilpailuissa	-12542
▁harvinaisen	-12543
▁käsiteltiin	-12544
▁perinteinen	-12545
▁suunnitteli	-12546
▁Ruotsalainen	-12547
▁entuudestaan	-12548
▁epätodennäkö	-12549
▁kierrokselle	-12550
▁äärioikeisto	-12551
TA	-12552
bus	-12553
dal	-12554
ern	-12555
etr	-12556
pos	-12557
pri	-12558
pyh	-12559
▁51	-12560
▁54	-12561
luon	-12562
naan	-12563
oire	-12564
ällä	-12565
▁14-	-12566
▁Suv	-12567
▁Uot	-12568
▁Vin	-12569
kuvaa	-12570
other	-12571
pande	-12572
ranta	-12573
▁Finn	-12574
▁Hell	-12575
▁ponn	-12576
▁prof	-12577
ettuna	-12578
hoista	-12579
htanut	-12580
isassa	-12581
sylvan	-12582
▁Villa	-12583
▁Volks	-12584
▁hanke	-12585
▁myste	-12586
▁sinun	-12587
▁tiimi	-12588
▁tilat	-12589
▁tunnu	-12590
ttuneen	-12591
▁Neljän	-12592
▁Täytyy	-12593
▁ajalta	-12594
▁asukas	-12595
▁euroja	-12596
▁hetkiä	-12597
▁hiukan	-12598
▁kokous	-12599
▁tiedän	-12600
▁uhrien	-12601
oikeutta	-12602
presiden	-12603
tarkasta	-12604
▁Kosonen	-12605
▁Kotimaa	-12606
▁Liverpo	-12607
▁edellyt	-12608
▁kuvissa	-12609
▁sentään	-12610
▁stressi	-12611
▁tavaraa	-12612
▁vastuun	-12613
utumiseen	-12614
yhteistyö	-12615
▁Kyllönen	-12616
▁Philadel	-12617
▁kaudelle	-12618
▁kommentt	-12619
▁naiselle	-12620
▁Hurrikaan	-12621
▁ehdokkaan	-12622
▁hylättiin	-12623
▁liittyvää	-12624
▁houkuttele	-12625
▁lähettänyt	-12626
▁osavaltion	-12627
▁Hakkarainen	-12628
▁Suomalaisen	-12629
▁tulevaisuus	-12630
▁esitutkinnan	-12631
▁odotettavissa	-12632
▁tutkimuksessa	-12633
OK	-12634
RP	-12635
zen	-12636
▁(3	-12637
-200	-12638
gner	-12639
yötä	-12640
▁Rod	-12641
▁Ron	-12642
▁säv	-12643
▁vää	-12644
aaksi	-12645
ellut	-12646
hasta	-12647
kieli	-12648
nöstä	-12649
ustoa	-12650
▁Doku	-12651
▁Ehdo	-12652
▁Esko	-12653
▁Stol	-12654
▁Tule	-12655
▁juom	-12656
▁samo	-12657
▁taul	-12658
hiihto	-12659
ittava	-12660
ktorin	-12661
▁Henna	-12662
▁esine	-12663
▁kohda	-12664
▁kuuma	-12665
▁lääkä	-12666
▁palom	-12667
▁pojat	-12668
▁ravin	-12669
▁sisko	-12670
▁sytty	-12671
oittain	-12672
strömin	-12673
▁Andrew	-12674
▁Duplan	-12675
▁Elämän	-12676
▁Harala	-12677
▁epäill	-12678
▁lumisa	-12679
▁runsas	-12680
▁toivoi	-12681
▁tukiko	-12682
▁työstä	-12683
kentällä	-12684
▁ajoissa	-12685
▁hyvissä	-12686
▁kuolema	-12687
▁lapsena	-12688
▁ohjaaja	-12689
▁siirtyä	-12690
▁uskonut	-12691
▁ykkönen	-12692
laitoksen	-12693
▁Williams	-12694
▁kunnioit	-12695
▁nostettu	-12696
▁toimivan	-12697
▁tunnetun	-12698
▁valmiina	-12699
aikaisesti	-12700
▁hyödyntää	-12701
▁kampanjan	-12702
▁kaupunkia	-12703
▁kehysriih	-12704
▁keskeinen	-12705
▁sotilaita	-12706
▁vietetään	-12707
▁tavoittanut	-12708
▁työntekijän	-12709
2:	-12710
pö	-12711
▁>	-12712
gät	-12713
ith	-12714
ius	-12715
pia	-12716
päh	-12717
ikas	-12718
kkis	-12719
otin	-12720
raan	-12721
ward	-12722
▁80-	-12723
▁Asu	-12724
▁Com	-12725
▁Pil	-12726
▁Ren	-12727
▁Wir	-12728
▁häi	-12729
derin	-12730
eessä	-12731
jolla	-12732
koulu	-12733
telty	-12734
ttona	-12735
▁Kier	-12736
▁Lamp	-12737
▁Tulo	-12738
▁puus	-12739
▁susi	-12740
▁suut	-12741
eremon	-12742
mäinen	-12743
noissa	-12744
teella	-12745
teelle	-12746
▁Hrade	-12747
▁Tosin	-12748
▁Tyttö	-12749
▁Vanha	-12750
▁kovat	-12751
▁senaa	-12752
▁väkeä	-12753
isimmin	-12754
▁Kaarin	-12755
▁Mitään	-12756
▁United	-12757
▁hetkeä	-12758
▁konfer	-12759
▁kärsim	-12760
▁voimaa	-12761
▁välein	-12762
jalaisen	-12763
lahdella	-12764
▁Camilla	-12765
▁aidosti	-12766
▁alueita	-12767
▁juhliin	-12768
▁korvaus	-12769
▁oikeaan	-12770
▁olekaan	-12771
▁sateita	-12772
▁tekemän	-12773
▁uskalta	-12774
oimittaja	-12775
▁Georgian	-12776
▁Järvinen	-12777
▁Panthers	-12778
▁kärjessä	-12779
▁lämmintä	-12780
▁menettää	-12781
▁miehistö	-12782
▁toiminna	-12783
▁väitteet	-12784
▁Hollywood	-12785
▁huomautti	-12786
▁komission	-12787
▁Eduskunnan	-12788
▁kiinnostun	-12789
▁kysymyksen	-12790
▁tekemiseen	-12791
▁yhdenverta	-12792
▁demokraatti	-12793
▁harvinainen	-12794
▁mahdolliset	-12795
▁poliittisia	-12796
▁ruotsalainen	-12797
▁hallitukselle	-12798
▁loppupuolella	-12799
▁mielenosoitta	-12800
▁toivottavasti	-12801
▁yksityiskohta	-12802
▁ympärivuorokaut	-12803
dra	-12804
rek	-12805
▁Bi	-12806
iske	-12807
opäi	-12808
tsan	-12809
veja	-12810
▁Art	-12811
▁BMW	-12812
▁Dia	-12813
▁Kle	-12814
▁Lep	-12815
▁Pop	-12816
▁Pys	-12817
▁här	-12818
▁häv	-12819
▁äki	-12820
hypyn	-12821
iseja	-12822
kanta	-12823
ketju	-12824
maksa	-12825
ukuun	-12826
▁Hale	-12827
▁Hien	-12828
▁iloa	-12829
▁maja	-12830
essani	-12831
oineet	-12832
proses	-12833
▁Viera	-12834
▁kalen	-12835
▁kulma	-12836
▁pereh	-12837
▁skena	-12838
▁soker	-12839
▁sävel	-12840
▁tehta	-12841
▁tunke	-12842
itsemän	-12843
voittoa	-12844
▁Jasmin	-12845
▁Sanoin	-12846
▁oltiin	-12847
▁puheet	-12848
▁tervey	-12849
▁tieltä	-12850
kaupasta	-12851
▁Espanja	-12852
▁Tornion	-12853
▁hylkäsi	-12854
▁hyppäsi	-12855
▁itselle	-12856
▁puhuvat	-12857
▁tarkast	-12858
▁treenaa	-12859
▁voittop	-12860
▁Helander	-12861
▁Kiljunen	-12862
▁ajattele	-12863
▁kirjattu	-12864
▁koulujen	-12865
▁lapsista	-12866
▁lisäänty	-12867
▁muokattu	-12868
▁neljästä	-12869
▁painetta	-12870
▁rannalla	-12871
▁ystävien	-12872
politiikka	-12873
▁Volkswagen	-12874
▁kiinnittää	-12875
▁kuvernööri	-12876
▁käsityksen	-12877
▁runkosarja	-12878
▁tuntumassa	-12879
▁vahingossa	-12880
▁leikkaukset	-12881
▁puheenjohta	-12882
viranomaisten	-12883
▁liikenteessä	-12884
▁parikymmentä	-12885
▁ulkopuolelta	-12886
Ukra	-12887
kaas	-12888
kkur	-12889
ogra	-12890
pani	-12891
▁Aku	-12892
▁Juo	-12893
▁Oba	-12894
▁Ola	-12895
▁Pin	-12896
▁kin	-12897
▁kui	-12898
▁ope	-12899
▁tär	-12900
etsin	-12901
vaike	-12902
▁Blue	-12903
▁Epäi	-12904
▁Kisa	-12905
▁Nimi	-12906
▁Nina	-12907
▁heij	-12908
▁olee	-12909
▁viin	-12910
etulla	-12911
isteet	-12912
istoja	-12913
kuusta	-12914
liiken	-12915
ymmärr	-12916
yrittä	-12917
▁Puola	-12918
▁Ruusu	-12919
▁Sarja	-12920
▁hurja	-12921
▁kurin	-12922
▁rikka	-12923
▁syven	-12924
etyistä	-12925
kylässä	-12926
oiminta	-12927
varuste	-12928
▁Boston	-12929
▁Päivän	-12930
▁Toveri	-12931
▁elemen	-12932
▁jaettu	-12933
▁käveli	-12934
▁sateen	-12935
▁suklaa	-12936
▁tapana	-12937
▁vanhen	-12938
Britanni	-12939
ilijoita	-12940
▁Perheen	-12941
▁ajoneuv	-12942
▁hautaus	-12943
▁pelattu	-12944
▁tarttui	-12945
▁tehneen	-12946
▁ystävän	-12947
llisyyden	-12948
▁Koivisto	-12949
▁Myöskään	-12950
▁Telegram	-12951
▁Yhteensä	-12952
▁asuntoon	-12953
▁ehdottaa	-12954
▁energian	-12955
▁hallitsi	-12956
▁kuullaan	-12957
▁mainitsi	-12958
▁metrillä	-12959
▁määritel	-12960
▁nousseet	-12961
liikenteen	-12962
▁ihmisoike	-12963
▁itselleni	-12964
▁joidenkin	-12965
▁keskittyy	-12966
▁käynnistä	-12967
▁tehopiste	-12968
▁Savolainen	-12969
▁hälytyksen	-12970
▁muuttamaan	-12971
▁pelaajista	-12972
▁pormestari	-12973
▁teknologia	-12974
▁käsittelyyn	-12975
▁viidenneksi	-12976
▁amerikkalais	-12977
▁keskusteluun	-12978
▁presidenttiä	-12979
▁ravintolassa	-12980
haastattelussa	-12981
▁harjoituksissa	-12982
▁taloudellisesti	-12983
HO	-12984
NA	-12985
bl	-12986
eg	-12987
dic	-12988
myr	-12989
▁9,	-12990
▁Yr	-12991
▁ch	-12992
elun	-12993
eriä	-12994
euvo	-12995
gaan	-12996
ikor	-12997
layn	-12998
utaa	-12999
▁Eva	-13000
▁Koo	-13001
▁kit	-13002
ikesk	-13003
metsä	-13004
piire	-13005
▁Että	-13006
▁kumo	-13007
▁osuu	-13008
▁puuk	-13009
▁rasi	-13010
▁täyt	-13011
sääntö	-13012
teestä	-13013
▁Kelan	-13014
▁Louis	-13015
▁Mette	-13016
▁Niina	-13017
▁Raita	-13018
▁World	-13019
▁avust	-13020
▁kolar	-13021
▁kytke	-13022
▁lämmi	-13023
▁myyty	-13024
▁pöydä	-13025
▁silta	-13026
▁viere	-13027
▁vihja	-13028
ityksiä	-13029
täväksi	-13030
▁digita	-13031
▁huomio	-13032
▁kutsua	-13033
▁paljoa	-13034
▁tehtyä	-13035
▁tekisi	-13036
▁tärkei	-13037
Karjalan	-13038
istamaan	-13039
istetään	-13040
kirjassa	-13041
käyttöön	-13042
vityksen	-13043
vuotisen	-13044
▁Penguin	-13045
▁englann	-13046
▁tienasi	-13047
▁tuoreen	-13048
▁jatkunut	-13049
▁listalla	-13050
▁muisteli	-13051
▁nettisiv	-13052
▁pudonnut	-13053
▁sanoivat	-13054
▁tuottaja	-13055
▁tutustua	-13056
▁tämänhet	-13057
ohjelmasta	-13058
▁Ruotsista	-13059
▁Trumpille	-13060
▁itsessään	-13061
▁tallentui	-13062
▁tarkistaa	-13063
▁yritetään	-13064
neuvottelut	-13065
▁Panthersin	-13066
▁osallistun	-13067
▁asianomista	-13068
▁eduskuntaan	-13069
▁puolitoista	-13070
▁tehokkaasti	-13071
▁Suomalaisten	-13072
▁sähköpotkula	-13073
▁toimittajille	-13074
▁työskentelevä	-13075
4:	-13076
PA	-13077
av	-13078
20.	-13079
Car	-13080
byn	-13081
git	-13082
jua	-13083
not	-13084
ous	-13085
▁43	-13086
▁Tö	-13087
cker	-13088
hous	-13089
iker	-13090
medi	-13091
rejä	-13092
▁Enn	-13093
▁Lew	-13094
▁Suh	-13095
▁Wol	-13096
▁meh	-13097
detin	-13098
kiksi	-13099
marit	-13100
teeni	-13101
vilta	-13102
▁Eeva	-13103
▁Kroa	-13104
▁Post	-13105
▁aito	-13106
▁ruut	-13107
▁tupa	-13108
▁varr	-13109
▁ylpe	-13110
▁Ääri	-13111
alisen	-13112
tausta	-13113
teensa	-13114
ukassa	-13115
ustyöt	-13116
uutnan	-13117
▁mouka	-13118
▁tempa	-13119
▁totea	-13120
luvulta	-13121
tumisen	-13122
▁Heiska	-13123
▁Niinpä	-13124
▁Rasmus	-13125
▁Samuli	-13126
▁Toisin	-13127
▁Yritys	-13128
▁kaapel	-13129
▁korrup	-13130
▁kuvaus	-13131
▁pohtia	-13132
▁sulkea	-13133
▁tiukka	-13134
Euroopan	-13135
kuljetta	-13136
▁Satonen	-13137
▁irtisan	-13138
▁käyneet	-13139
▁rajalla	-13140
▁ylittää	-13141
▁Canadien	-13142
▁haastava	-13143
▁tehtävää	-13144
▁toimesta	-13145
palvelussa	-13146
▁Netanjahu	-13147
▁Suunnitel	-13148
▁Todennäkö	-13149
▁erityistä	-13150
▁lasketaan	-13151
▁melkoinen	-13152
▁mitattiin	-13153
▁suurimmat	-13154
▁tosissaan	-13155
▁Pennsylvan	-13156
▁Satakunnan	-13157
▁omaisuutta	-13158
▁palkittiin	-13159
▁tuotteiden	-13160
▁venäläinen	-13161
▁ehdolliseen	-13162
▁päivityksen	-13163
▁saavuttanut	-13164
▁tyytyväisiä	-13165
▁Jyväskylässä	-13166
▁olympiavoittaja	-13167
-1,	-13168
ihl	-13169
kyt	-13170
▁(5	-13171
▁Cl	-13172
▁Pl	-13173
iini	-13174
kalu	-13175
oora	-13176
ossi	-13177
seur	-13178
tuli	-13179
ukun	-13180
▁Rää	-13181
▁kuv	-13182
eemme	-13183
itulo	-13184
▁Alun	-13185
▁Egyp	-13186
▁Kiur	-13187
▁Rann	-13188
▁akku	-13189
▁kast	-13190
kkansa	-13191
tekevä	-13192
ttikor	-13193
▁Anssi	-13194
▁Muita	-13195
▁Mäkel	-13196
▁asett	-13197
▁lentä	-13198
▁pohdi	-13199
▁radan	-13200
▁sakko	-13201
▁vaate	-13202
isempia	-13203
▁Martti	-13204
▁Niissä	-13205
▁Samoin	-13206
▁erotta	-13207
▁heräsi	-13208
▁huonoa	-13209
▁isäntä	-13210
▁kapina	-13211
▁kirjaa	-13212
▁luokse	-13213
▁pyrkiä	-13214
▁sillan	-13215
▁teemme	-13216
▁totuus	-13217
▁työnsä	-13218
▁täsmen	-13219
ilääkäri	-13220
koulussa	-13221
oinnista	-13222
saaressa	-13223
ttämässä	-13224
▁Kaarina	-13225
▁Lassila	-13226
▁haetaan	-13227
▁kertaan	-13228
▁keskinä	-13229
▁kongres	-13230
▁käsissä	-13231
▁miettin	-13232
▁radalla	-13233
▁tiedetä	-13234
▁äänesty	-13235
▁Frederik	-13236
▁Kiinassa	-13237
▁epäillyt	-13238
▁finaalin	-13239
▁haluamme	-13240
▁hienosti	-13241
▁itärajan	-13242
▁kaupunge	-13243
▁niukasti	-13244
▁perustaa	-13245
▁rikosepä	-13246
▁tuotteet	-13247
▁varmisti	-13248
puolueiden	-13249
▁Edellisen	-13250
▁ajatellut	-13251
▁asevoimat	-13252
▁määräaika	-13253
▁näyttänyt	-13254
▁ollessaan	-13255
▁seksuaali	-13256
▁sotilasta	-13257
▁tehneensä	-13258
▁vaatteita	-13259
▁Hovioikeus	-13260
▁haluavansa	-13261
▁kokemuksen	-13262
▁haastattelun	-13263
▁henkilökunta	-13264
▁järjestyksen	-13265
▁puolustuksen	-13266
▁julkisuudesta	-13267
▁päätoimittaja	-13268
dar	-13269
rid	-13270
tut	-13271
▁UN	-13272
aine	-13273
hemm	-13274
isel	-13275
kylä	-13276
llim	-13277
poja	-13278
ssis	-13279
ulaa	-13280
▁21,	-13281
▁21-	-13282
▁NRK	-13283
▁Pia	-13284
istot	-13285
killa	-13286
kkasi	-13287
kokem	-13288
pitsa	-13289
saari	-13290
▁Dmit	-13291
▁Joen	-13292
▁Päiv	-13293
▁Sini	-13294
▁leik	-13295
koitti	-13296
ksille	-13297
oliitt	-13298
projek	-13299
sessan	-13300
tterin	-13301
ttoria	-13302
▁Atlan	-13303
▁Hurri	-13304
▁Jacks	-13305
▁Leena	-13306
▁Paras	-13307
▁jakel	-13308
▁keven	-13309
▁maine	-13310
▁raivo	-13311
▁takla	-13312
▁usean	-13313
▁vetoa	-13314
gnoosin	-13315
uttavaa	-13316
yksille	-13317
▁Ahonen	-13318
▁Korkea	-13319
▁Teslan	-13320
▁aikoja	-13321
▁huipen	-13322
▁hyvänä	-13323
▁kriisi	-13324
▁luopua	-13325
▁numero	-13326
▁päästi	-13327
▁veteen	-13328
▁viileä	-13329
istuimen	-13330
merkkinä	-13331
▁Keränen	-13332
▁Palesti	-13333
▁Puhakan	-13334
▁liittyä	-13335
▁länsima	-13336
▁myydään	-13337
▁pysyvät	-13338
▁Liettuan	-13339
▁arvokisa	-13340
▁kuluessa	-13341
▁rahoitta	-13342
▁tiedotus	-13343
▁veljensä	-13344
▁vierailu	-13345
▁hehkuttaa	-13346
▁joudutaan	-13347
▁joutuneet	-13348
▁luonnehti	-13349
▁humanitaar	-13350
▁kaikkialla	-13351
▁rauhallinen	-13352
▁rikkomisesta	-13353
▁suunnitelmat	-13354
▁Sosiaalisessa	-13355
▁poliisilaitos	-13356
onnettomuudessa	-13357
▁maajoukkueessa	-13358
▁kansainvälisten	-13359
▁maailmancupissa	-13360
dt	-13361
dol	-13362
pir	-13363
▁AP	-13364
▁Pö	-13365
aser	-13366
bera	-13367
cede	-13368
deja	-13369
iesi	-13370
ikäs	-13371
ilut	-13372
kaus	-13373
ness	-13374
teta	-13375
umin	-13376
▁22,	-13377
▁28,	-13378
▁90-	-13379
▁Wat	-13380
lassi	-13381
ltana	-13382
tilin	-13383
tolla	-13384
uloja	-13385
vauri	-13386
▁Ella	-13387
▁Leon	-13388
▁Linn	-13389
▁Mona	-13390
▁Tosi	-13391
▁aike	-13392
▁elim	-13393
▁hier	-13394
▁koet	-13395
▁syty	-13396
▁tyyn	-13397
tamiin	-13398
▁Saari	-13399
▁hyödy	-13400
▁johtu	-13401
▁katse	-13402
▁kokea	-13403
▁kolum	-13404
▁nuoru	-13405
▁vaina	-13406
▁Maalis	-13407
▁Margar	-13408
▁Natoon	-13409
▁Sveits	-13410
▁avioer	-13411
▁loppui	-13412
▁ovatko	-13413
▁rutiin	-13414
▁sisäll	-13415
▁temppu	-13416
▁vauhti	-13417
koskella	-13418
▁Dokumen	-13419
▁Kolmann	-13420
▁Mercede	-13421
▁käsitys	-13422
▁reaktio	-13423
▁sisältö	-13424
▁sovittu	-13425
▁tappion	-13426
▁tulleen	-13427
▁Peltonen	-13428
▁Toisessa	-13429
▁matkusti	-13430
▁olevista	-13431
▁pidemmän	-13432
▁tutkijat	-13433
▁auttamaan	-13434
▁helpompaa	-13435
▁huomioida	-13436
▁hurrikaan	-13437
▁kokouksen	-13438
▁liikkuvat	-13439
▁vastaavia	-13440
▁asianajaja	-13441
▁olosuhteet	-13442
▁palveluita	-13443
▁tapaukseen	-13444
▁tarvitsisi	-13445
▁teollisuus	-13446
▁työllisyys	-13447
▁urheilijan	-13448
▁virallinen	-13449
▁luultavasti	-13450
▁valmentajan	-13451
▁perheenjäsen	-13452
▁varsinaisesti	-13453
▁automaattisesti	-13454
▁pudotuspeleissä	-13455
BU	-13456
äy	-13457
hko	-13458
hua	-13459
trö	-13460
▁(4	-13461
▁Ap	-13462
isut	-13463
omen	-13464
ppua	-13465
uhet	-13466
uvat	-13467
▁17,	-13468
▁Ram	-13469
▁pet	-13470
dolla	-13471
iehdo	-13472
ikoko	-13473
jillä	-13474
tavoi	-13475
tensä	-13476
yhmän	-13477
▁Dian	-13478
▁Lumi	-13479
▁Sven	-13480
▁Toto	-13481
▁eläi	-13482
▁huvi	-13483
▁liia	-13484
▁reun	-13485
▁semi	-13486
▁tauo	-13487
▁vale	-13488
keista	-13489
llassa	-13490
miehiä	-13491
siassa	-13492
siirto	-13493
teillä	-13494
tielle	-13495
utkija	-13496
verkos	-13497
voihin	-13498
▁Cityn	-13499
▁Katja	-13500
▁Kevin	-13501
▁Maali	-13502
▁Missä	-13503
▁Sirpa	-13504
▁Tuomi	-13505
▁kädet	-13506
▁samat	-13507
▁seiso	-13508
▁säätä	-13509
▁uimar	-13510
▁ulosa	-13511
▁äänet	-13512
anninen	-13513
loppuna	-13514
päivinä	-13515
visioon	-13516
yleisön	-13517
▁Jordan	-13518
▁Marras	-13519
▁Tiktok	-13520
▁ampuja	-13521
▁hiljaa	-13522
▁vanhat	-13523
▁vertaa	-13524
alisesti	-13525
hallinto	-13526
kymmenen	-13527
tyksestä	-13528
▁Tshekin	-13529
▁avautuu	-13530
▁huomioi	-13531
▁identit	-13532
▁kiertää	-13533
▁lausunn	-13534
▁myytiin	-13535
▁puheena	-13536
▁samasta	-13537
▁tekijät	-13538
▁turkula	-13539
▁yleisen	-13540
kirjoitus	-13541
kokouksen	-13542
vahinkoja	-13543
▁Englanti	-13544
▁Nykyisin	-13545
▁Venäjään	-13546
▁koulutta	-13547
▁tuntuvat	-13548
▁Räikkönen	-13549
▁edellinen	-13550
▁ehdokasta	-13551
▁ennakkoon	-13552
▁toimittaa	-13553
keskuksesta	-13554
▁todisteita	-13555
▁ulkomaille	-13556
▁Brysselissä	-13557
▁Karjalainen	-13558
▁kuvauksissa	-13559
▁toimittajat	-13560
▁vahvistanut	-13561
▁henkirikoksen	-13562
▁pitkäaikainen	-13563
.),	-13564
etz	-13565
pyy	-13566
vie	-13567
▁IC	-13568
▁ok	-13569
llun	-13570
telö	-13571
tymä	-13572
vauh	-13573
▁Bea	-13574
▁Rkp	-13575
▁fir	-13576
hybri	-13577
juttu	-13578
kkila	-13579
rahan	-13580
telun	-13581
voite	-13582
▁2008	-13583
▁Aiku	-13584
▁What	-13585
▁pure	-13586
▁uhan	-13587
itikko	-13588
johdon	-13589
kaiden	-13590
median	-13591
mmiksi	-13592
tettyä	-13593
utojen	-13594
▁2023,	-13595
▁Merja	-13596
▁Sirvi	-13597
▁minne	-13598
eellaan	-13599
hyökkää	-13600
ointiin	-13601
▁Yhteis	-13602
▁jatkun	-13603
▁loppus	-13604
▁raskas	-13605
▁toiset	-13606
▁tuleen	-13607
▁uutuus	-13608
▁vähene	-13609
laiselle	-13610
▁ehdotti	-13611
▁kauppaa	-13612
▁kyselyt	-13613
▁luokkaa	-13614
▁monesti	-13615
▁potilas	-13616
▁sinulla	-13617
alaisille	-13618
kulttuuri	-13619
▁Harrisia	-13620
▁Neuville	-13621
▁Tikkanen	-13622
▁Toiseksi	-13623
▁kolmella	-13624
▁käänteen	-13625
▁miehestä	-13626
▁persoona	-13627
▁työehtos	-13628
▁Kuopiossa	-13629
▁Putinille	-13630
▁Slovakian	-13631
▁haavoittu	-13632
▁julkaista	-13633
▁osaamista	-13634
▁valkoinen	-13635
▁vauhdilla	-13636
▁edustajain	-13637
▁hyökkäystä	-13638
▁kannattaja	-13639
▁tuloksella	-13640
▁ulkomailta	-13641
▁vähemmistö	-13642
▁asiakkaille	-13643
▁haastatteli	-13644
▁joukkueiden	-13645
▁kannattajat	-13646
▁koulutuksen	-13647
▁materiaalia	-13648
▁palveluiden	-13649
▁pudotuspeli	-13650
▁puhelimitse	-13651
▁rakennetaan	-13652
▁suurimmista	-13653
▁mielipiteitä	-13654
▁perustuslaki	-13655
▁selvittämään	-13656
▁keskustelemaan	-13657
5:	-13658
Ja	-13659
Ra	-13660
enz	-13661
inf	-13662
pih	-13663
▁aj	-13664
elua	-13665
upää	-13666
▁Cal	-13667
▁Sky	-13668
juhla	-13669
paita	-13670
pista	-13671
▁Rita	-13672
▁kohu	-13673
▁ovet	-13674
hyppää	-13675
llinto	-13676
turvaa	-13677
▁Aleks	-13678
▁Asiaa	-13679
▁Kiuru	-13680
▁Koris	-13681
▁Kunta	-13682
▁Tuuli	-13683
▁arkea	-13684
▁itsel	-13685
▁nimiä	-13686
▁osake	-13687
▁päätä	-13688
▁pöytä	-13689
▁tuule	-13690
istelun	-13691
mallaan	-13692
tteella	-13693
uuksiin	-13694
▁Hyökkä	-13695
▁Talous	-13696
▁ajetta	-13697
▁litraa	-13698
▁voiman	-13699
lehdessä	-13700
voittoon	-13701
▁Veitola	-13702
▁ajautui	-13703
▁asuntoa	-13704
▁epäasia	-13705
▁johtama	-13706
▁juhlien	-13707
▁julisti	-13708
▁olevaan	-13709
▁useista	-13710
▁Lahtinen	-13711
▁Manninen	-13712
▁katsonut	-13713
▁kunnosta	-13714
▁surmansa	-13715
▁Tynkkynen	-13716
▁klassikko	-13717
▁kuninkaan	-13718
▁puhelimen	-13719
▁vastuulla	-13720
▁ympärille	-13721
llisdemokra	-13722
▁innoissaan	-13723
▁meneillään	-13724
▁tehtävissä	-13725
▁todellakin	-13726
Pohjanmaalla	-13727
▁Tukholmassa	-13728
▁aikavälillä	-13729
▁englanniksi	-13730
▁julkisuuden	-13731
▁Euroviisujen	-13732
▁osallistuvat	-13733
▁positiivista	-13734
▁tarkoittaisi	-13735
▁pääkaupungissa	-13736
19	-13737
On	-13738
ou	-13739
rad	-13740
sey	-13741
▁1+	-13742
▁42	-13743
▁ot	-13744
kuja	-13745
könä	-13746
meri	-13747
olon	-13748
omur	-13749
pomo	-13750
poon	-13751
roos	-13752
▁Cap	-13753
▁Kup	-13754
▁Pyr	-13755
▁Rii	-13756
▁Ruu	-13757
▁Spe	-13758
▁lun	-13759
▁mop	-13760
▁oik	-13761
▁ulo	-13762
mpson	-13763
osuus	-13764
ssien	-13765
vamma	-13766
▁Ismo	-13767
▁Mikk	-13768
▁Moha	-13769
▁Muur	-13770
▁Paan	-13771
▁Ryan	-13772
▁tiim	-13773
intalo	-13774
kohtaa	-13775
maahan	-13776
sovell	-13777
tilaat	-13778
▁Hussi	-13779
▁Jouni	-13780
▁Marie	-13781
▁Smith	-13782
▁cupin	-13783
▁kauas	-13784
▁kihla	-13785
▁mieti	-13786
▁paloi	-13787
▁pouta	-13788
▁riita	-13789
istuvat	-13790
isuudet	-13791
oihinsa	-13792
ttoivat	-13793
▁Bullin	-13794
▁Kotkan	-13795
▁aikuis	-13796
▁hiljen	-13797
▁katego	-13798
▁pituus	-13799
▁tienaa	-13800
▁vahvaa	-13801
▁vauvan	-13802
▁vieste	-13803
▁voimin	-13804
kamppail	-13805
lliselta	-13806
mpötilat	-13807
▁Bidenia	-13808
▁Brother	-13809
▁annetta	-13810
▁grammaa	-13811
▁hälytys	-13812
▁kouluun	-13813
▁kynttil	-13814
▁kääntyi	-13815
▁sopivan	-13816
▁säästää	-13817
▁väkisin	-13818
▁yhdeksi	-13819
organisaa	-13820
yhtiöiden	-13821
▁Venäläis	-13822
▁puhumaan	-13823
▁tunnetta	-13824
▁vankeust	-13825
▁Hyvärinen	-13826
▁Lauantain	-13827
▁huumeiden	-13828
▁kannustaa	-13829
▁molempien	-13830
▁valmistaa	-13831
▁vastausta	-13832
▁viettänyt	-13833
▁Itämerellä	-13834
▁finaalisar	-13835
▁ilmoitettu	-13836
▁jääkiekkoa	-13837
▁nostettiin	-13838
▁paikallaan	-13839
▁puolueiden	-13840
▁urheilijat	-13841
järjestelmää	-13842
politiikassa	-13843
▁keskustelut	-13844
▁televisiossa	-13845
roo	-13846
sor	-13847
leja	-13848
masi	-13849
ylle	-13850
▁10,	-13851
▁AHL	-13852
▁Ero	-13853
▁Gam	-13854
▁Ilm	-13855
▁Pyy	-13856
▁sho	-13857
asian	-13858
dessa	-13859
eläin	-13860
lissa	-13861
lleja	-13862
oimen	-13863
tinut	-13864
tunna	-13865
töstä	-13866
visti	-13867
▁(201	-13868
▁hark	-13869
▁käte	-13870
▁pano	-13871
▁pesä	-13872
ttojen	-13873
voista	-13874
▁Ainoa	-13875
▁Jonna	-13876
▁KalPa	-13877
▁Korja	-13878
▁Koski	-13879
▁Lapsi	-13880
▁Patri	-13881
▁Sanni	-13882
▁ihana	-13883
▁tieli	-13884
▁vedon	-13885
▁veris	-13886
isimmät	-13887
kankaan	-13888
ryhmään	-13889
ukellus	-13890
▁Kirves	-13891
▁Laakso	-13892
▁Naiset	-13893
▁Tokion	-13894
▁hankal	-13895
▁inhimi	-13896
▁kannan	-13897
▁listaa	-13898
▁tanska	-13899
ohjelmaa	-13900
tyksessä	-13901
utapahtu	-13902
▁Hänestä	-13903
▁Lappiin	-13904
▁haltuun	-13905
▁liikkua	-13906
▁mukavaa	-13907
▁pelaava	-13908
▁riskejä	-13909
alaisista	-13910
tapahtuma	-13911
▁antoivat	-13912
▁neuvosto	-13913
▁oikealla	-13914
▁oikealta	-13915
▁projekti	-13916
▁rikosnim	-13917
▁seitsemä	-13918
▁seuraaja	-13919
▁vapaasti	-13920
▁vastassa	-13921
▁Erityisen	-13922
▁keskeytti	-13923
▁nostetaan	-13924
▁parempaan	-13925
▁toisiinsa	-13926
▁tapahtumaa	-13927
▁historiassa	-13928
▁lopettamaan	-13929
▁uudenvuoden	-13930
▁Rajavartiola	-13931
▁Silvennoinen	-13932
▁henkilöauton	-13933
▁kirjoitetaan	-13934
▁kuljetettiin	-13935
▁Valitettavasti	-13936
1)	-13937
70	-13938
ffi	-13939
lav	-13940
▁ts	-13941
kats	-13942
kuor	-13943
mani	-13944
ssit	-13945
tilä	-13946
▁Dar	-13947
▁Vet	-13948
▁rus	-13949
▁rän	-13950
annon	-13951
hyppy	-13952
liitt	-13953
tunen	-13954
▁000.	-13955
▁Adam	-13956
▁Ahti	-13957
▁Laur	-13958
▁Lund	-13959
▁Yhty	-13960
▁uraa	-13961
isimme	-13962
reillä	-13963
väällä	-13964
▁Chris	-13965
▁Saara	-13966
▁ehtii	-13967
▁hyöty	-13968
▁kesäl	-13969
▁kumma	-13970
▁tatuo	-13971
▁uskal	-13972
▁vuokr	-13973
▁yksis	-13974
▁Kajaan	-13975
▁Kuljet	-13976
▁arkeen	-13977
▁meidät	-13978
▁muilta	-13979
▁ohjelm	-13980
▁omissa	-13981
▁poltta	-13982
▁seiväs	-13983
▁työssä	-13984
▁ymmärr	-13985
hoidossa	-13986
telemaan	-13987
toiminta	-13988
▁Kainuun	-13989
▁hankkin	-13990
▁kierros	-13991
▁korkean	-13992
▁pitivät	-13993
▁satunna	-13994
▁suositu	-13995
▁turnaus	-13996
▁yhtyeen	-13997
mattomana	-13998
▁Kristian	-13999
▁heikkene	-14000
▁julkaisu	-14001
▁kateissa	-14002
▁maksanut	-14003
▁myöhässä	-14004
▁pystyvät	-14005
▁räjähdys	-14006
▁sekaisin	-14007
▁tuomiota	-14008
▁ylöspäin	-14009
▁Huuhkajat	-14010
▁hoidetaan	-14011
▁tehtäviin	-14012
joukkueessa	-14013
▁Seuraavana	-14014
▁korvaamaan	-14015
▁liittyvistä	-14016
▁valmistettu	-14017
▁sijaitsevaan	-14018
▁varhaiskasvat	-14019
▁vuosikymmeniä	-14020
▁Ulkopoliittisen	-14021
HT	-14022
IA	-14023
▁x	-14024
fir	-14025
mpo	-14026
msä	-14027
öin	-14028
önä	-14029
▁62	-14030
▁Ek	-14031
▁Wi	-14032
▁ay	-14033
gare	-14034
hier	-14035
kkai	-14036
mpun	-14037
soja	-14038
uter	-14039
yssa	-14040
▁Leo	-14041
▁Mus	-14042
▁Sco	-14043
▁WRC	-14044
▁gen	-14045
▁lad	-14046
inion	-14047
kkois	-14048
kseli	-14049
manen	-14050
osaan	-14051
teltä	-14052
tensi	-14053
▁Buff	-14054
▁Iida	-14055
▁Laus	-14056
▁Luke	-14057
▁Pris	-14058
▁Siir	-14059
▁Vast	-14060
▁Voin	-14061
▁hiil	-14062
▁kauk	-14063
▁make	-14064
kausia	-14065
nainen	-14066
päiviä	-14067
▁Karhu	-14068
▁Lähtö	-14069
▁Tyson	-14070
▁epäre	-14071
▁kahvi	-14072
▁koski	-14073
▁lukio	-14074
▁makaa	-14075
▁tutut	-14076
ikunnan	-14077
issaira	-14078
tävänsä	-14079
unnassa	-14080
usiness	-14081
varasto	-14082
▁Aluksi	-14083
▁Champi	-14084
▁Dmitri	-14085
▁Sieppi	-14086
▁Summan	-14087
▁isompi	-14088
▁koostu	-14089
▁laajan	-14090
▁laskel	-14091
▁pakene	-14092
▁sähköä	-14093
▁törmän	-14094
mattomat	-14095
utukseen	-14096
▁Luonnon	-14097
▁autonsa	-14098
▁rakkaus	-14099
▁valitta	-14100
▁Kastehel	-14101
▁Keskusta	-14102
▁Selviyty	-14103
▁ajatteli	-14104
▁dramaatt	-14105
▁eläinten	-14106
▁helpompi	-14107
▁johdossa	-14108
▁oikeassa	-14109
▁pitäneet	-14110
▁raskaana	-14111
▁tulevana	-14112
▁viidestä	-14113
▁ennusteen	-14114
▁lapsuuden	-14115
▁perustaja	-14116
▁sanottuna	-14117
▁tekemättä	-14118
▁toimenpit	-14119
▁yrityksiä	-14120
järjestöjen	-14121
▁Schumacher	-14122
▁otteluissa	-14123
▁tilaisuuden	-14124
▁pahimmillaan	-14125
▁politiikassa	-14126
▁sähköautojen	-14127
▁lentokentällä	-14128
bal	-14129
ult	-14130
▁61	-14131
▁Wh	-14132
erät	-14133
kolo	-14134
ohja	-14135
opol	-14136
pano	-14137
ppiä	-14138
tisa	-14139
vire	-14140
zaks	-14141
▁20,	-14142
▁ser	-14143
▁tus	-14144
merin	-14145
sikka	-14146
untaa	-14147
▁Arch	-14148
▁Conn	-14149
▁Dann	-14150
▁Huon	-14151
▁Kala	-14152
▁Kera	-14153
▁McDa	-14154
▁Skot	-14155
▁jauh	-14156
▁jätt	-14157
▁kaar	-14158
▁koka	-14159
▁mill	-14160
▁suos	-14161
aamuna	-14162
lander	-14163
määrän	-14164
niemen	-14165
tilaan	-14166
uvista	-14167
▁Farmi	-14168
▁Laaks	-14169
▁Liiga	-14170
▁Lukas	-14171
▁Puust	-14172
▁Viisi	-14173
▁japan	-14174
▁mielu	-14175
▁mökin	-14176
▁netti	-14177
▁nouda	-14178
▁pelik	-14179
▁tupla	-14180
▁tähtä	-14181
ikenttä	-14182
kuuroja	-14183
tteistä	-14184
uneensa	-14185
zakstan	-14186
▁Gazaan	-14187
▁Tuisku	-14188
▁elossa	-14189
▁johtui	-14190
▁vaivaa	-14191
▁vastin	-14192
erveyden	-14193
ryhmässä	-14194
tikainen	-14195
ttilehti	-14196
▁Blinken	-14197
▁Niemelä	-14198
▁elämäni	-14199
▁hakenut	-14200
▁ohjeita	-14201
▁pelatta	-14202
▁pelistä	-14203
▁päivien	-14204
▁runsaat	-14205
▁selitti	-14206
▁sujunut	-14207
▁teatter	-14208
▁tulevaa	-14209
voimainen	-14210
yöntekijä	-14211
▁Kaikkien	-14212
▁asetettu	-14213
▁asukkaan	-14214
▁hintojen	-14215
▁kantaman	-14216
▁parempia	-14217
▁taistele	-14218
▁tiedotta	-14219
▁tottunut	-14220
sopimuksen	-14221
▁Sittemmin	-14222
▁Tällaisia	-14223
▁Vihreiden	-14224
▁Williamin	-14225
▁pisteellä	-14226
▁sanottiin	-14227
▁vanhempia	-14228
▁viestinnä	-14229
▁Ruotsalais	-14230
▁kilpailuun	-14231
▁kirjattiin	-14232
▁tasaisesti	-14233
▁vastakkain	-14234
▁halutessaan	-14235
▁käsikirjoit	-14236
▁rahoituksen	-14237
▁vaarallista	-14238
▁viimeiseksi	-14239
▁kilpakumppan	-14240
▁tapahtumassa	-14241
LA	-14242
▁Š	-14243
jer	-14244
ush	-14245
▁ID	-14246
▁Kh	-14247
kälä	-14248
luku	-14249
main	-14250
yyli	-14251
▁900	-14252
▁Nis	-14253
▁Orb	-14254
▁Sav	-14255
▁hyp	-14256
▁nar	-14257
asunn	-14258
erapi	-14259
kulki	-14260
kuloh	-14261
urien	-14262
uskel	-14263
vastu	-14264
▁Esit	-14265
▁Isän	-14266
▁Teko	-14267
▁Veli	-14268
▁lada	-14269
▁pohd	-14270
▁taju	-14271
▁tonn	-14272
▁valv	-14273
antaja	-14274
hallit	-14275
ttäviä	-14276
versti	-14277
▁2014.	-14278
▁Gusta	-14279
▁Valen	-14280
▁Valio	-14281
▁Veera	-14282
▁hoiva	-14283
▁kuski	-14284
▁laite	-14285
▁puuko	-14286
▁ralli	-14287
▁voiko	-14288
mperela	-14289
perheen	-14290
uudussa	-14291
▁Mailin	-14292
▁Yksity	-14293
▁asemaa	-14294
▁jääkaa	-14295
▁laitto	-14296
▁maalit	-14297
▁omilla	-14298
▁paluun	-14299
▁riskin	-14300
▁tielle	-14301
▁vaihta	-14302
▁vajaan	-14303
▁varaan	-14304
▁väline	-14305
hiihtäjä	-14306
jaksossa	-14307
▁Jokerit	-14308
▁Samassa	-14309
▁nähneet	-14310
▁stadion	-14311
▁tutuksi	-14312
puistossa	-14313
▁Toisella	-14314
▁hengissä	-14315
▁kotimaan	-14316
▁lähemmäs	-14317
▁maksavat	-14318
▁pakolais	-14319
▁pyrkivät	-14320
▁sattunut	-14321
▁suomeksi	-14322
▁tuntenut	-14323
mattomasti	-14324
▁Jääkiekon	-14325
▁kehitystä	-14326
▁kilpailee	-14327
▁metsästys	-14328
▁perheelle	-14329
▁suurempia	-14330
▁tiivistää	-14331
▁Rovanperän	-14332
▁kirjassaan	-14333
▁opiskelija	-14334
▁useimmiten	-14335
turnauksessa	-14336
▁ennustetaan	-14337
▁konkurssiin	-14338
▁korkeintaan	-14339
▁tapahtumaan	-14340
▁tapahtumiin	-14341
▁yksittäisiä	-14342
▁europarlamen	-14343
gat	-14344
sep	-14345
▁cm	-14346
2023	-14347
▁Bre	-14348
▁Nic	-14349
▁Sur	-14350
▁net	-14351
ction	-14352
esiin	-14353
uilta	-14354
▁Arvi	-14355
▁Fili	-14356
▁Loka	-14357
▁Team	-14358
▁Vaik	-14359
▁eikö	-14360
▁opin	-14361
▁päte	-14362
essäni	-14363
jöille	-14364
ksissä	-14365
loukka	-14366
lundin	-14367
ustelu	-14368
vahing	-14369
verkus	-14370
▁Aamul	-14371
▁Minua	-14372
▁Vance	-14373
▁Vanco	-14374
▁biisi	-14375
▁kotia	-14376
▁liity	-14377
▁maino	-14378
▁ratsa	-14379
▁treff	-14380
kkeihin	-14381
mmäinen	-14382
▁Ikonen	-14383
▁Järven	-14384
▁Kolmen	-14385
▁SalPan	-14386
▁Ylellä	-14387
▁kirist	-14388
▁kuolon	-14389
▁suoraa	-14390
▁verkos	-14391
ttelystä	-14392
▁Aurinko	-14393
▁Essayah	-14394
▁Lontoon	-14395
▁Stolten	-14396
▁aihetta	-14397
▁hidasta	-14398
▁leikata	-14399
▁nimetty	-14400
▁tukevat	-14401
päällikön	-14402
▁Hurrican	-14403
▁Juontaja	-14404
▁Paikalle	-14405
▁Sosiaali	-14406
▁Summanen	-14407
▁esiintyä	-14408
▁kasvavat	-14409
▁löysivät	-14410
▁ottaneet	-14411
▁pitkästä	-14412
▁urheilut	-14413
▁valitsee	-14414
▁virheitä	-14415
▁Bottaksen	-14416
▁Eurooppaa	-14417
▁asukkaita	-14418
▁merkeissä	-14419
▁osavaltio	-14420
▁palauttaa	-14421
▁henkisesti	-14422
▁ympäristön	-14423
▁Adlercreutz	-14424
▁Instagramin	-14425
▁politiikkaa	-14426
▁palestiinalais	-14427
-3	-14428
gt	-14429
rk	-14430
▁.	-14431
ahd	-14432
ben	-14433
pus	-14434
tol	-14435
tot	-14436
▁85	-14437
▁yr	-14438
ffer	-14439
tusa	-14440
tuul	-14441
ukes	-14442
▁22-	-14443
▁24,	-14444
▁Avi	-14445
▁Ele	-14446
▁Kel	-14447
▁Ped	-14448
▁Shi	-14449
▁kod	-14450
▁älä	-14451
jonen	-14452
lauka	-14453
nessä	-14454
tekni	-14455
▁Miro	-14456
▁Tava	-14457
▁aita	-14458
▁fani	-14459
▁kemi	-14460
▁koro	-14461
▁meno	-14462
harjoi	-14463
ikkeet	-14464
ikoksi	-14465
iltään	-14466
jakson	-14467
keistä	-14468
kisoja	-14469
saatio	-14470
töihin	-14471
voitta	-14472
▁Rally	-14473
▁harva	-14474
▁kissa	-14475
▁metro	-14476
▁mulla	-14477
▁myymä	-14478
▁passi	-14479
▁suuru	-14480
▁uskoi	-14481
▁valoa	-14482
▁varas	-14483
Assadin	-14484
kappale	-14485
kkuuden	-14486
ussaira	-14487
valinta	-14488
▁Miehet	-14489
▁Näissä	-14490
▁heittä	-14491
▁hiekka	-14492
▁joulua	-14493
▁purkaa	-14494
▁pyrkim	-14495
▁varmaa	-14496
▁versio	-14497
ilaisten	-14498
moottori	-14499
otteluun	-14500
valvonta	-14501
▁koskeva	-14502
▁muualta	-14503
▁pystyyn	-14504
▁syömään	-14505
▁tekijän	-14506
▁toteutu	-14507
isyydestä	-14508
oliikenne	-14509
uutnantti	-14510
▁Haluamme	-14511
▁Keväällä	-14512
▁Maananta	-14513
▁hankalaa	-14514
▁kertynyt	-14515
▁laskettu	-14516
▁piirissä	-14517
▁samoilla	-14518
turnauksen	-14519
▁edustajan	-14520
▁halusivat	-14521
▁tamperela	-14522
▁tiiviisti	-14523
▁tulipalon	-14524
▁yrittivät	-14525
▁Sveitsissä	-14526
▁kohtasivat	-14527
▁kolmantena	-14528
▁osoittanut	-14529
▁terveysase	-14530
▁vähitellen	-14531
▁erinomainen	-14532
▁henkilöiden	-14533
▁kaupungista	-14534
▁käytöksestä	-14535
▁paikallinen	-14536
▁päinvastoin	-14537
▁sairaalasta	-14538
▁tuoreeltaan	-14539
▁alaisuudessa	-14540
▁olympiakultaa	-14541
▁tulevaisuutta	-14542
▁kansanedustajat	-14543
):	-14544
6:	-14545
?"	-14546
FC	-14547
án	-14548
-10	-14549
bil	-14550
luu	-14551
väi	-14552
öön	-14553
▁Ju	-14554
Arab	-14555
brän	-14556
kuus	-14557
pela	-14558
uijo	-14559
vene	-14560
▁1,8	-14561
▁13,	-14562
▁16,	-14563
▁180	-14564
▁30,	-14565
▁32,	-14566
▁Der	-14567
▁Ene	-14568
▁Has	-14569
▁Moi	-14570
▁Sul	-14571
▁bio	-14572
▁sov	-14573
eesti	-14574
ikiel	-14575
ikoul	-14576
innit	-14577
kulta	-14578
▁2005	-14579
▁Arja	-14580
▁Koke	-14581
▁Must	-14582
▁Vaki	-14583
▁enne	-14584
▁inti	-14585
▁pane	-14586
▁sien	-14587
▁tiuk	-14588
▁tyyd	-14589
albumi	-14590
elämää	-14591
ikkeen	-14592
iltiin	-14593
istuim	-14594
ketjun	-14595
llosta	-14596
olympi	-14597
päästö	-14598
tiloja	-14599
veissa	-14600
vemmin	-14601
▁Hilja	-14602
▁Jasmi	-14603
▁Jossa	-14604
▁Milan	-14605
▁jäähy	-14606
▁kiiva	-14607
▁lyhen	-14608
▁menes	-14609
▁opisk	-14610
▁polvi	-14611
hävittä	-14612
istinen	-14613
tteensa	-14614
ustehtä	-14615
ystävän	-14616
▁KalPan	-14617
▁Mestar	-14618
▁Muuten	-14619
▁Oilers	-14620
▁Vikman	-14621
▁huonon	-14622
▁kisoja	-14623
▁laivan	-14624
▁näytel	-14625
▁pystyn	-14626
▁reakti	-14627
▁suorat	-14628
▁tuohon	-14629
▁vahvan	-14630
llisestä	-14631
opettaja	-14632
paikkaan	-14633
▁Hänelle	-14634
▁Walesin	-14635
▁aluksen	-14636
▁ehdolle	-14637
▁kokevat	-14638
▁käytävä	-14639
▁tosiaan	-14640
paikoilla	-14641
▁Montreal	-14642
▁ohjuksia	-14643
▁pettynyt	-14644
▁tavannut	-14645
▁tukemaan	-14646
▁Pakarinen	-14647
▁linjoilla	-14648
▁rakkautta	-14649
▁rikokseen	-14650
▁valitsija	-14651
▁näyttämään	-14652
▁surullinen	-14653
▁yhteistyön	-14654
▁vaikuttamaan	-14655
WA	-14656
lai	-14657
nus	-14658
▁52	-14659
▁Sc	-14660
ehkä	-14661
ilyä	-14662
ukup	-14663
▁Dam	-14664
▁Hja	-14665
▁Ira	-14666
▁Mol	-14667
▁Tyr	-14668
▁bak	-14669
▁paa	-14670
▁tyk	-14671
Suomi	-14672
annet	-14673
denin	-14674
ikuva	-14675
kensä	-14676
ktron	-14677
kulla	-14678
rosen	-14679
tajan	-14680
ttina	-14681
ustar	-14682
vyöhy	-14683
zerba	-14684
▁Jose	-14685
▁Para	-14686
▁Pitä	-14687
▁Thai	-14688
▁Zuma	-14689
▁flun	-14690
▁hirm	-14691
▁lyön	-14692
▁veli	-14693
etysti	-14694
kansaa	-14695
ttilan	-14696
ulassa	-14697
▁Avaus	-14698
▁Eläin	-14699
▁Elämä	-14700
▁Gabri	-14701
▁Green	-14702
▁Jotta	-14703
▁Maija	-14704
▁Mbapp	-14705
▁budje	-14706
▁esite	-14707
▁hampa	-14708
▁posta	-14709
▁velje	-14710
Stubbin	-14711
otuksen	-14712
ttomaan	-14713
▁Peskov	-14714
▁Puolue	-14715
▁Tallin	-14716
▁Viktor	-14717
▁aamuna	-14718
▁erolla	-14719
▁kadonn	-14720
▁pakeni	-14721
▁paljas	-14722
▁parann	-14723
▁pystys	-14724
▁pystyä	-14725
▁tappaa	-14726
▁tuorei	-14727
▁turhan	-14728
▁yksinä	-14729
ttämättä	-14730
viikolla	-14731
▁Lundell	-14732
▁Muutama	-14733
▁aseiden	-14734
▁koulula	-14735
▁nauttii	-14736
▁tanssin	-14737
▁viereen	-14738
estivaali	-14739
vaaleihin	-14740
▁Salmisen	-14741
▁hitaasti	-14742
▁jaettiin	-14743
▁jatkanut	-14744
▁miehellä	-14745
▁ohjelmaa	-14746
▁parvekke	-14747
▁puhdista	-14748
▁pystyisi	-14749
▁päätynyt	-14750
▁tarkasta	-14751
▁yritystä	-14752
puolustaja	-14753
▁englannin	-14754
▁laitetaan	-14755
▁miljoonia	-14756
▁nostamaan	-14757
▁pystytään	-14758
▁pyydetään	-14759
▁rajoittaa	-14760
▁sittenkin	-14761
▁tällaisen	-14762
▁Poliisilla	-14763
▁Tiktokissa	-14764
▁fyysisesti	-14765
▁haavoittui	-14766
▁hyväksynyt	-14767
▁kuukausien	-14768
▁lähistöllä	-14769
▁maahanmuut	-14770
▁poliisilla	-14771
▁polttoaine	-14772
▁valiokunta	-14773
▁kohdistuvat	-14774
▁lisääntynyt	-14775
▁selvitetään	-14776
▁suunnilleen	-14777
▁vaihtoehtoa	-14778
▁aiheuttaneet	-14779
▁loppukilpail	-14780
▁kuolemantuotta	-14781
MM	-14782
gs	-14783
med	-14784
mäh	-14785
▁(8	-14786
▁58	-14787
▁8-	-14788
▁FB	-14789
ning	-14790
olaa	-14791
pola	-14792
saan	-14793
sast	-14794
vies	-14795
önki	-14796
▁11,	-14797
▁24-	-14798
▁Dan	-14799
▁Kra	-14800
autoa	-14801
hevos	-14802
ilevä	-14803
reiss	-14804
relle	-14805
ruoka	-14806
virus	-14807
▁Flor	-14808
▁Inde	-14809
▁Nico	-14810
▁Siis	-14811
▁Tein	-14812
▁Ther	-14813
▁Väki	-14814
▁mega	-14815
▁nost	-14816
enssin	-14817
mannin	-14818
matkaa	-14819
veitsi	-14820
▁2015.	-14821
▁Ameri	-14822
▁Emman	-14823
▁Heliö	-14824
▁Pekin	-14825
▁Porvo	-14826
▁Raimo	-14827
▁Silja	-14828
▁bakte	-14829
▁esiko	-14830
▁hehta	-14831
▁herää	-14832
▁ilmaa	-14833
▁kalle	-14834
▁nelin	-14835
▁pääst	-14836
▁täsmä	-14837
[...]
