<unk>	0
<s>	0
</s>	0
.	-3.14435
n	-3.41681
,	-3.50825
a	-3.94592
▁	-4.04917
▁ja	-4.33218
▁on	-4.3796
t	-4.41378
-	-4.75058
ssa	-5.07231
in	-5.09518
en	-5.12461
i	-5.20803
▁että	-5.24224
sta	-5.27706
ä	-5.32174
ta	-5.34687
▁ei	-5.40736
▁oli	-5.56285
lla	-5.56882
lle	-5.5714
an	-5.57615
:	-5.61003
s	-5.62321
ja	-5.74554
si	-5.945
▁mukaan	-5.95062
na	-6.00892
kin	-6.02586
ksi	-6.06706
▁-	-6.10259
u	-6.12259
e	-6.13557
▁ole	-6.14109
▁myös	-6.1467
▁se	-6.15112
ko	-6.23974
▁ovat	-6.25646
vat	-6.25829
h	-6.26188
▁hän	-6.2674
ssä	-6.28014
sti	-6.28467
▁mutta	-6.29177
on	-6.3118
▁kun	-6.35851
y	-6.39628
ista	-6.40412
▁jo	-6.43029
stä	-6.43946
tä	-6.45955
la	-6.46103
sa	-6.46159
tu	-6.47823
te	-6.49146
▁voi	-6.50971
l	-6.52641
o	-6.5584
maan	-6.56805
nen	-6.57525
▁tai	-6.60144
r	-6.60233
▁ollut	-6.60274
ka	-6.60343
ni	-6.61909
us	-6.62154
lta	-6.64619
llä	-6.64921
ki	-6.66431
▁kertoo	-6.66467
inen	-6.66776
tti	-6.67633
tta	-6.67926
va	-6.68441
issa	-6.68728
ke	-6.70661
▁"	-6.71983
▁joka	-6.73678
▁Hän	-6.75073
ti	-6.77572
▁jälkeen	-6.78669
▁(	-6.78768
nsa	-6.79189
nut	-6.80073
jen	-6.80259
▁kuin	-6.81749
kä	-6.81765
li	-6.8183
to	-6.82194
mme	-6.8221
ma	-6.82259
▁kanssa	-6.82292
et	-6.83026
sen	-6.83208
ille	-6.85031
ri	-6.87145
▁niin	-6.87959
▁sen	-6.90454
illa	-6.91083
k	-6.91371
m	-6.92489
▁Se	-6.92759
re	-6.93591
vi	-6.98985
un	-6.98996
ten	-6.99756
"	-6.99837
ku	-6.99839
is	-6.9995
▁A	-7.00301
▁olisi	-7.00573
▁Suomen	-7.00767
▁sanoo	-7.00811
▁vuonna	-7.00977
▁saa	-7.04076
ita	-7.05227
minen	-7.056
nä	-7.07027
▁viime	-7.07249
)	-7.07456
lo	-7.08228
jä	-7.08409
d	-7.08424
neet	-7.09002
ttu	-7.09077
le	-7.1086
än	-7.12544
iden	-7.13378
ne	-7.13681
vät	-7.14458
▁sekä	-7.15015
pu	-7.15336
pa	-7.16089
▁S	-7.16317
▁olla	-7.17132
▁vielä	-7.18747
ra	-7.20491
ty	-7.22126
▁hänen	-7.22274
▁yli	-7.23722
▁kertoi	-7.25023
▁nyt	-7.25656
▁vuoden	-7.25901
▁vain	-7.27401
ve	-7.29491
?	-7.30001
▁siitä	-7.30874
mi	-7.31223
isi	-7.3134
▁kuitenkin	-7.31912
ia	-7.31916
taan	-7.32411
p	-7.32683
▁sanoi	-7.33471
lu	-7.33933
mo	-7.35121
ttä	-7.35267
ttiin	-7.35731
pi	-7.37222
▁sitä	-7.37316
▁E	-7.37384
ro	-7.37945
istä	-7.39237
no	-7.39815
ihin	-7.39881
ho	-7.40421
▁I	-7.41134
▁pää	-7.4219
neen	-7.42336
kki	-7.43016
▁aikana	-7.43241
me	-7.44208
▁noin	-7.44226
kka	-7.45323
▁koko	-7.45637
▁la	-7.46405
▁sai	-7.46833
▁ka	-7.47043
isen	-7.47275
de	-7.47328
▁osa	-7.476
van	-7.48029
▁paljon	-7.48032
▁O	-7.49074
▁ma	-7.49109
▁jossa	-7.50345
▁ennen	-7.50473
ha	-7.51103
▁eivät	-7.51752
▁sitten	-7.52092
▁kaksi	-7.5214
▁hyvin	-7.5358
se	-7.5363
man	-7.54503
­	-7.54731
▁Venäjän	-7.54901
▁sillä	-7.55038
pe	-7.56617
▁jos	-7.56807
g	-7.5704
ö	-7.57201
▁pa	-7.57524
▁he	-7.5756
nyt	-7.58148
da	-7.58269
sin	-7.58423
▁työ	-7.58551
▁muun	-7.58952
▁muassa	-7.59802
maa	-7.60599
jo	-7.60779
▁o	-7.6124
▁itse	-7.62128
▁esimerkiksi	-7.62626
po	-7.62739
mista	-7.62742
▁yksi	-7.64078
▁tulee	-7.64191
▁hyvä	-7.6493
nsä	-7.6574
v	-7.66686
▁Pa	-7.66787
mä	-7.67123
▁toimi	-7.67405
▁eli	-7.68014
▁ettei	-7.68117
lan	-7.68584
▁Jo	-7.68797
▁000	-7.69413
er	-7.69559
▁Ja	-7.69584
▁pitää	-7.69687
▁mitä	-7.69968
▁F	-7.70505
▁He	-7.706
lainen	-7.70918
▁auto	-7.70944
▁olivat	-7.71963
▁Ra	-7.72238
▁Jos	-7.72358
▁euroa	-7.72374
▁K	-7.72444
kko	-7.72691
▁Ka	-7.73006
▁vastaan	-7.73026
▁tuli	-7.73525
misen	-7.73846
uksia	-7.74253
▁vuotta	-7.74536
3	-7.74719
▁Ko	-7.74792
▁jotk	-7.74838
hi	-7.75016
do	-7.75928
issä	-7.75937
▁Ta	-7.76006
▁eri	-7.76014
tin	-7.76025
4	-7.76497
▁Kun	-7.77554
taa	-7.78027
▁vasta	-7.78424
ltä	-7.79849
▁kaikki	-7.8014
▁jonka	-7.80858
▁jää	-7.81079
▁pi	-7.81851
▁lisää	-7.81861
aan	-7.82193
massa	-7.82303
kaan	-7.83131
ju	-7.83239
▁ha	-7.83942
▁ra	-7.83981
▁ne	-7.84107
so	-7.84327
▁kolme	-7.84678
tus	-7.84872
7	-7.85034
▁aika	-7.85216
▁tuo	-7.85243
c	-7.85944
ssi	-7.86172
essa	-7.86298
▁me	-7.8638
ttaa	-7.86597
kseen	-7.87373
di	-7.87447
llis	-7.87626
▁En	-7.87891
kö	-7.87986
▁Suomessa	-7.88171
8	-7.88555
sto	-7.88563
S	-7.88689
5	-7.88966
▁ku	-7.89063
6	-7.89098
▁ase	-7.8921
▁Ei	-7.89392
f	-7.89468
▁koska	-7.89715
▁Mi	-7.89742
P	-7.89788
mään	-7.8986
llinen	-7.90204
iin	-7.91041
▁presidentti	-7.91689
os	-7.91795
▁tämän	-7.91866
▁Li	-7.92514
elle	-7.92667
▁poliisi	-7.92912
▁ensi	-7.9307
▁La	-7.93276
▁U	-7.93685
kaa	-7.93851
han	-7.94065
it	-7.9425
ili	-7.94306
▁Sa	-7.94649
esta	-7.94746
0	-7.94899
T	-7.95072
▁määrä	-7.9552
vä	-7.95591
▁Si	-7.95728
▁luo	-7.95992
A	-7.96307
▁aiemmin	-7.96569
▁siihen	-7.9663
▁C	-7.96751
▁Myös	-7.96908
▁Ro	-7.97149
▁tämä	-7.97242
▁vaikka	-7.9736
lä	-7.97631
nne	-7.977
".	-7.97743
een	-7.97916
teen	-7.98006
▁kuva	-7.98364
▁Ku	-7.98544
▁Me	-7.98734
▁ko	-7.98847
ilta	-7.99069
▁Tämä	-7.99232
▁enemmän	-7.9945
▁koti	-7.99492
▁käy	-7.99511
lin	-7.99663
9	-7.99675
kku	-7.99765
▁te	-7.99876
▁aina	-7.99885
▁tällä	-8.00179
hu	-8.0125
ut	-8.01379
tty	-8.01712
▁le	-8.02134
▁Nyt	-8.02155
▁19	-8.02436
▁su	-8.02515
▁lisäksi	-8.02548
je	-8.02562
uksen	-8.02645
▁Poliisi	-8.02903
2	-8.02929
▁maa	-8.03282
▁kertaa	-8.03487
▁iso	-8.03569
▁pois	-8.03616
▁P	-8.0367
ella	-8.03677
▁po	-8.03748
▁Ma	-8.03988
▁miten	-8.04184
▁Suomi	-8.04283
kään	-8.04383
▁mies	-8.04533
he	-8.05005
sä	-8.05632
mis	-8.06364
▁Ri	-8.06508
▁pu	-8.06656
tö	-8.06719
▁ajan	-8.0695
▁Ke	-8.06973
via	-8.07055
▁uusi	-8.07439
▁mikä	-8.0744
el	-8.07498
pä	-8.07579
▁peli	-8.08135
kas	-8.08243
▁ihan	-8.08592
▁vaan	-8.08663
▁Te	-8.08954
su	-8.0899
▁MM	-8.09105
lais	-8.0929
ään	-8.09491
kan	-8.09664
▁mitään	-8.09725
mpi	-8.09884
den	-8.10084
▁1	-8.10308
vuotias	-8.10857
▁vara	-8.11234
essä	-8.11305
▁Kuva	-8.11834
ppi	-8.12244
▁vie	-8.12252
ste	-8.12386
vo	-8.12566
kuu	-8.13546
▁Ukrainan	-8.13691
▁jopa	-8.13827
ske	-8.13914
kon	-8.13966
men	-8.14175
miseen	-8.14193
▁kommentoi	-8.14594
hti	-8.14678
usta	-8.15055
▁pe	-8.15635
▁prosenttia	-8.15646
▁hi	-8.15872
ksen	-8.16219
tään	-8.16477
rin	-8.16601
▁tehdä	-8.16939
▁Helsingin	-8.17251
▁Pi	-8.17463
ar	-8.17754
▁asia	-8.17804
ilu	-8.18028
▁enää	-8.1813
▁kiinni	-8.18156
K	-8.18274
▁T	-8.18293
▁ke	-8.18417
iä	-8.18462
▁syy	-8.1848
isiin	-8.18561
▁väli	-8.18599
isia	-8.18924
yn	-8.19329
itä	-8.19485
ru	-8.19573
▁re	-8.19656
▁On	-8.19841
isesti	-8.20176
lli	-8.20184
▁kello	-8.20321
▁arvioi	-8.20349
tiin	-8.20368
▁moni	-8.20434
▁Le	-8.20693
▁arvo	-8.21054
or	-8.21468
▁Su	-8.2166
▁ki	-8.22076
▁Va	-8.22477
▁Ni	-8.22698
▁sa	-8.22778
▁Ve	-8.23101
iset	-8.23249
misesta	-8.23379
▁olevan	-8.23785
▁teki	-8.24094
▁lähes	-8.24533
▁loppu	-8.24871
▁20	-8.25006
!	-8.25022
▁koulu	-8.2536
▁oma	-8.25636
1	-8.26074
ellä	-8.2619
tys	-8.26293
▁Tu	-8.266
ön	-8.2666
▁saanut	-8.26666
illä	-8.2671
ck	-8.27178
▁mu	-8.27181
▁todella	-8.27216
▁10	-8.27347
▁henkilö	-8.27859
▁al	-8.28012
▁ero	-8.28139
al	-8.28175
kke	-8.28819
▁käsi	-8.28833
▁aikaa	-8.28961
▁to	-8.29058
ng	-8.29207
ski	-8.29259
ys	-8.29281
tettiin	-8.294
L	-8.29565
▁Trump	-8.30155
vien	-8.30163
▁vuoksi	-8.30208
▁aja	-8.30218
du	-8.30423
ky	-8.30868
▁usko	-8.31106
▁Na	-8.31281
▁Venäjä	-8.31524
▁Pe	-8.31822
mmi	-8.31867
▁Al	-8.31905
ppa	-8.31958
▁Ho	-8.32219
▁puheenjohtaja	-8.32637
▁2	-8.32696
vin	-8.33009
ran	-8.33154
ch	-8.33199
▁Re	-8.33215
staan	-8.33547
▁So	-8.33626
▁kuten	-8.33935
mu	-8.33984
▁maan	-8.34084
▁keski	-8.3411
ssaan	-8.34225
▁alku	-8.34438
▁tässä	-8.34684
▁seura	-8.34881
▁Sen	-8.3493
▁Ne	-8.34974
▁EU	-8.35151
ll	-8.3533
▁V	-8.35338
tila	-8.35348
ttää	-8.35486
▁vähän	-8.35721
▁Mo	-8.35808
▁epä	-8.35857
▁Vi	-8.36023
▁päivä	-8.36094
oi	-8.3612
ga	-8.36126
▁jäi	-8.36213
ry	-8.3637
ur	-8.36451
▁B	-8.3659
▁en	-8.36775
tto	-8.36904
▁mukana	-8.37193
▁lu	-8.37276
ska	-8.37572
j	-8.37819
bi	-8.37828
▁tu	-8.37889
▁tullut	-8.37922
▁pari	-8.38125
isten	-8.38297
▁kautta	-8.38418
vaa	-8.38622
ina	-8.38689
vu	-8.38725
▁puoli	-8.38769
min	-8.39051
z	-8.39145
▁e	-8.39176
pää	-8.39365
▁juuri	-8.39416
▁Stubb	-8.39824
estä	-8.39849
▁raja	-8.40032
▁si	-8.40398
▁neljä	-8.40723
▁Lisäksi	-8.40741
▁ilma	-8.40761
tte	-8.40967
▁7	-8.41015
▁siinä	-8.41128
voi	-8.41297
ton	-8.41527
▁To	-8.41589
palvelu	-8.41616
▁Hänen	-8.41618
b	-8.41747
▁joukkue	-8.41966
▁voisi	-8.41994
lleen	-8.42004
▁Ilta	-8.42351
var	-8.42373
ce	-8.42383
▁Viime	-8.42515
auto	-8.42616
ttava	-8.42849
▁pitäisi	-8.42927
▁joten	-8.42931
R	-8.43021
▁aikaan	-8.43176
▁kilpailu	-8.4341
▁Lu	-8.43491
mia	-8.43917
w	-8.4424
M	-8.44297
▁Ha	-8.44443
seen	-8.44537
iko	-8.44726
▁8	-8.44845
▁saada	-8.451
▁esi	-8.45302
▁sää	-8.45464
hde	-8.45567
▁taas	-8.45582
▁kauden	-8.4561
▁muut	-8.45717
▁Ki	-8.4575
▁3	-8.45778
▁hetkellä	-8.45809
ikka	-8.46007
▁edelleen	-8.46099
▁hu	-8.46178
▁Mu	-8.46444
ttävä	-8.46533
▁takia	-8.46584
ge	-8.46679
▁asu	-8.46738
▁kuitenkaan	-8.4687
▁Olen	-8.47069
din	-8.47103
isin	-8.47123
▁Pu	-8.47225
▁ilman	-8.47414
tteli	-8.47425
aika	-8.4753
/	-8.47634
▁Po	-8.47711
tuu	-8.47966
llista	-8.48482
▁u	-8.48535
dy	-8.48691
malla	-8.48742
tunut	-8.48752
▁toinen	-8.4881
tuksen	-8.48899
jien	-8.49092
▁12	-8.49169
E	-8.49299
ba	-8.49302
▁Pohjois	-8.49751
▁li	-8.49766
I	-8.50288
▁/	-8.50304
▁tavalla	-8.50338
kse	-8.5063
llaan	-8.50644
▁M	-8.50727
il	-8.50761
ver	-8.50777
utta	-8.5097
▁kuu	-8.51284
▁sähkö	-8.51373
osa	-8.51552
sten	-8.51552
▁Mutta	-8.51554
rä	-8.51646
▁vuosi	-8.51654
▁Ju	-8.5174
tettu	-8.51861
teet	-8.52043
ks	-8.52092
x	-8.52115
▁muu	-8.52129
▁puu	-8.52367
▁Trumpin	-8.52424
▁Näin	-8.52873
▁ainakin	-8.52963
▁asti	-8.53077
▁suomalais	-8.53093
▁Yhdysvaltain	-8.53214
nee	-8.53563
ttanut	-8.53651
▁siis	-8.53729
▁perhe	-8.53845
▁olleet	-8.53952
▁näin	-8.54009
▁2023	-8.54183
▁maailman	-8.54459
▁tila	-8.54611
▁kyse	-8.54633
▁voitti	-8.54636
hin	-8.54873
C	-8.5494
tie	-8.55008
nti	-8.55105
▁yhdessä	-8.5513
eksi	-8.55542
▁G	-8.55587
▁perjantaina	-8.55953
ven	-8.55956
▁alle	-8.56002
▁miljoonaa	-8.56065
▁jota	-8.56223
ps	-8.56321
▁uuden	-8.5707
▁palvelu	-8.57096
V	-8.57139
▁ru	-8.57221
ot	-8.57292
▁Ar	-8.57539
▁kesä	-8.57887
es	-8.5814
▁tilanne	-8.58169
▁alkoi	-8.58253
▁X	-8.58293
▁kar	-8.58525
johtaja	-8.58536
▁NHL	-8.58561
ministeri	-8.58621
▁lauantaina	-8.5865
tee	-8.58653
ly	-8.58729
ukset	-8.58744
gi	-8.58963
talo	-8.59033
go	-8.59471
tui	-8.59638
▁kirja	-8.59915
▁päästä	-8.60027
▁9	-8.60102
▁kirjoittaa	-8.60335
ji	-8.60396
▁IS	-8.60529
▁so	-8.60907
▁viesti	-8.60976
tava	-8.61155
▁tieto	-8.61379
▁vaali	-8.61401
▁kaudella	-8.61423
mies	-8.61495
▁kuinka	-8.61495
tetaan	-8.61522
▁heti	-8.6158
▁niitä	-8.61645
kkaa	-8.61781
▁hieman	-8.61841
▁Oulun	-8.61987
vansa	-8.62
▁15	-8.62008
▁ro	-8.62012
yhtiö	-8.62271
▁mahdollis	-8.62388
▁välillä	-8.6244
▁alue	-8.62442
▁30	-8.62466
▁kuoli	-8.62467
▁viikon	-8.62506
▁hallituksen	-8.62588
▁kahden	-8.63052
▁alkaa	-8.63104
▁tehnyt	-8.63387
mm	-8.63397
▁11	-8.63635
▁viikolla	-8.63867
▁täysin	-8.63999
▁selvi	-8.64016
▁mo	-8.64095
▁tosi	-8.6448
▁Y	-8.64687
▁heidän	-8.64762
▁tänä	-8.64808
▁ri	-8.64815
neensa	-8.6487
O	-8.65097
▁ala	-8.6514
▁Co	-8.65182
peli	-8.65234
ottelu	-8.65396
▁yhden	-8.65656
▁edes	-8.65941
▁urheilu	-8.65972
▁no	-8.66004
▁R	-8.66126
▁ve	-8.66164
▁puhu	-8.66212
▁piti	-8.66221
▁tehtävä	-8.66312
▁myöhemmin	-8.66345
määrä	-8.6643
▁toisen	-8.66616
▁häntä	-8.66754
▁suuri	-8.66807
▁lisä	-8.66867
▁Bo	-8.66918
▁kerran	-8.6699
▁Hu	-8.67034
00	-8.67109
ika	-8.67203
▁puolustus	-8.67308
▁kaupungin	-8.67308
mma	-8.67423
▁useita	-8.67424
▁kyllä	-8.67499
▁lo	-8.67511
▁Lo	-8.67523
▁pysty	-8.67655
fi	-8.67691
▁Ukraina	-8.67768
▁Euroopan	-8.6782
hy	-8.67945
▁jatkaa	-8.6802
▁vai	-8.68273
ansa	-8.68324
▁vii	-8.68345
▁jäsen	-8.68498
▁torstaina	-8.68511
hän	-8.68664
▁pitkä	-8.68708
sia	-8.68723
▁Asia	-8.68749
▁olen	-8.68869
▁13	-8.69173
▁nousi	-8.69327
▁ulko	-8.69391
▁ottelu	-8.69526
▁Salon	-8.69585
▁sisä	-8.69834
ivat	-8.6992
llisesti	-8.69953
nnut	-8.69997
▁oleva	-8.70016
▁näyttää	-8.70062
▁nimi	-8.70133
laisen	-8.7016
▁4	-8.70217
▁kävi	-8.70513
oja	-8.70596
▁halua	-8.7065
▁maanantaina	-8.71026
▁tiistaina	-8.71107
▁tapahtuma	-8.71228
▁va	-8.71294
kuva	-8.71296
▁aivan	-8.71328
▁Ruotsin	-8.71459
▁16	-8.71462
▁hallitus	-8.71602
▁Vaikka	-8.71856
▁keskiviikkona	-8.71866
▁tehty	-8.71871
▁alussa	-8.71979
▁joulu	-8.71994
▁euron	-8.7201
oma	-8.72393
▁meni	-8.72508
▁pelaaja	-8.72531
H	-8.72562
nes	-8.72668
sy	-8.72683
▁silloin	-8.72783
voima	-8.72793
eseen	-8.72855
st	-8.7289
▁huono	-8.72928
mien	-8.72973
▁kova	-8.73078
▁puolestaan	-8.73091
▁saman	-8.73247
▁voivat	-8.73268
▁lii	-8.73287
▁Yksi	-8.73455
▁usein	-8.73495
tää	-8.73502
▁Kaikki	-8.73554
kset	-8.73741
▁mahdollista	-8.73784
▁alueella	-8.73951
▁hänet	-8.73995
▁koskaan	-8.74009
▁isku	-8.74133
tusta	-8.74177
▁18	-8.74324
▁joita	-8.74332
▁yhtä	-8.74504
▁läpi	-8.74611
valla	-8.74611
▁laske	-8.74661
▁14	-8.74673
▁otti	-8.74683
▁miehen	-8.74722
▁sunnuntaina	-8.74764
ttele	-8.74866
tun	-8.74876
▁asiaa	-8.75033
bo	-8.75189
▁var	-8.75208
ura	-8.75322
▁puolue	-8.75326
▁perusteella	-8.75419
▁ottaa	-8.75533
Sanomat	-8.75552
▁osallistu	-8.75632
llisen	-8.75679
▁5	-8.75695
▁juhli	-8.7586
▁oman	-8.7587
tulo	-8.7606
▁Kau	-8.76159
▁seuraava	-8.76199
▁toteaa	-8.76207
▁Israelin	-8.76253
toimi	-8.76292
▁siellä	-8.76338
▁mene	-8.76463
▁De	-8.76549
▁Val	-8.76847
▁tätä	-8.76968
▁Yle	-8.77263
▁yhteis	-8.77483
▁nime	-8.77546
laa	-8.77622
▁kai	-8.7777
yty	-8.77877
▁yhä	-8.77878
jat	-8.7791
▁asiasta	-8.78054
▁Suomeen	-8.78079
▁suu	-8.7812
ir	-8.78122
▁hyväksy	-8.78347
▁No	-8.78355
son	-8.78482
▁toivo	-8.78517
kunta	-8.78663
ter	-8.78813
▁vaikea	-8.78922
▁kii	-8.78994
N	-8.79182
▁tapahtui	-8.79374
▁erikois	-8.79448
ile	-8.79485
▁Be	-8.79665
▁Etelä	-8.79774
len	-8.79792
'	-8.79853
▁oikea	-8.79881
▁perus	-8.79939
mmin	-8.79959
▁muuta	-8.80007
lehti	-8.80137
tetty	-8.80373
▁Ba	-8.80437
stö	-8.80512
▁kisa	-8.80589
▁hä	-8.80994
▁The	-8.81056
▁piste	-8.8106
matka	-8.81215
▁b	-8.81223
▁ar	-8.81252
▁jatko	-8.81347
▁tiedotteessa	-8.81427
▁yö	-8.81441
▁ensimmäinen	-8.81464
▁ehkä	-8.81547
▁viisi	-8.81671
asia	-8.81844
▁s	-8.81909
▁Lue	-8.81917
▁ratkaisu	-8.82116
▁saattaa	-8.82279
▁vero	-8.82381
▁sijaan	-8.82384
aali	-8.82418
▁ihmistä	-8.82501
▁2022	-8.8255
▁maali	-8.82559
nnan	-8.82564
▁17	-8.82565
tori	-8.82565
▁pääministeri	-8.82601
ul	-8.82665
päivä	-8.83054
vel	-8.83066
arvo	-8.83489
ensa	-8.83501
vän	-8.83519
tynyt	-8.8363
hdi	-8.83945
ää	-8.84207
▁mukaansa	-8.84289
▁syö	-8.84322
▁video	-8.84322
▁erittäin	-8.8435
▁f	-8.84376
▁yleis	-8.84377
▁Putin	-8.84459
llo	-8.84472
iseen	-8.84476
▁val	-8.84484
val	-8.84516
▁mielestä	-8.84596
▁kulu	-8.84667
tyy	-8.84685
isto	-8.84692
työ	-8.84703
▁jälleen	-8.84768
▁joissa	-8.84772
ava	-8.84891
mistä	-8.84936
▁Kor	-8.85079
▁Par	-8.85103
mat	-8.85182
▁etsi	-8.85231
▁tänään	-8.85392
▁turvallisuus	-8.8545
miin	-8.85558
▁esiin	-8.85612
▁ho	-8.85688
uksista	-8.85696
▁linja	-8.85712
mässä	-8.85885
▁D	-8.86007
▁lähti	-8.86049
uus	-8.86149
▁vaikuttaa	-8.8623
▁johtaja	-8.86268
▁talo	-8.86277
▁joutui	-8.86403
pin	-8.86444
▁tekee	-8.86545
▁taka	-8.86646
ude	-8.86713
mon	-8.86858
lloin	-8.86957
tel	-8.87078
▁pitkään	-8.87091
jan	-8.87225
▁takaisin	-8.87254
▁lopulta	-8.87292
▁teho	-8.87296
▁tähän	-8.87405
iksi	-8.87448
iltana	-8.87497
vää	-8.87553
▁huippu	-8.87577
▁sivu	-8.8763
▁paino	-8.87733
ttua	-8.87821
ol	-8.87823
▁jolla	-8.8789
▁toiminta	-8.87917
▁keskustelu	-8.87947
▁jotain	-8.88131
▁6	-8.88286
llään	-8.88294
B	-8.88294
▁pelaa	-8.88409
▁Di	-8.88419
▁sano	-8.88434
aja	-8.88557
▁Ru	-8.88637
▁vali	-8.88716
itti	-8.88869
▁ry	-8.88897
ajan	-8.89213
▁ulos	-8.89231
▁käyttää	-8.89375
▁myötä	-8.89492
▁Da	-8.89528
▁Nato	-8.89628
▁koke	-8.89631
▁vuosina	-8.89775
▁nopeasti	-8.89834
▁niiden	-8.8986
▁50	-8.89881
▁antaa	-8.8989
▁liikenne	-8.90071
liiton	-8.90207
▁oikeus	-8.90492
▁ensimmäisen	-8.90544
ettiin	-8.90583
don	-8.90591
▁ottelun	-8.90711
▁voidaan	-8.9075
▁uutisoi	-8.90771
▁lasten	-8.90836
▁näy	-8.90887
▁huolimatta	-8.90913
▁rikos	-8.90933
▁samalla	-8.91049
).	-8.91082
▁matka	-8.91137
▁hänelle	-8.91162
▁katso	-8.91269
▁vesi	-8.91428
valta	-8.91475
ssään	-8.9148
▁Voi	-8.91507
▁terveys	-8.91515
▁Je	-8.91557
mäki	-8.91614
▁J	-8.91708
▁pääsi	-8.92008
▁Esimerkiksi	-8.92076
▁sota	-8.92605
▁olympia	-8.92615
▁valta	-8.92671
),	-8.92915
▁josta	-8.92919
▁tulla	-8.92961
▁Hi	-8.92999
eli	-8.9303
▁liian	-8.93072
▁vir	-8.93087
teli	-8.93259
▁kuuluu	-8.9335
▁hinta	-8.93553
▁ai	-8.93594
▁tule	-8.93804
tar	-8.93841
▁nais	-8.939
tio	-8.93998
▁Tuo	-8.94017
▁löytyy	-8.94066
▁tasa	-8.94167
kunnan	-8.94178
▁mitta	-8.94244
▁tarjo	-8.94268
▁erityisesti	-8.94272
▁tie	-8.94345
▁haluaa	-8.94369
▁Ti	-8.94398
▁ohi	-8.94494
▁tutki	-8.94501
▁ihmisiä	-8.94574
seura	-8.94588
▁tapa	-8.94599
be	-8.9467
▁turva	-8.94679
ppu	-8.9474
▁seuraa	-8.94842
▁sala	-8.94869
▁mi	-8.94914
ajo	-8.94961
▁kymmenen	-8.9507
piste	-8.95088
lö	-8.95298
▁pidä	-8.95305
udu	-8.95313
▁vaati	-8.95322
▁kerrotaan	-8.95327
▁sijaitseva	-8.95755
▁yhteensä	-8.95872
set	-8.95965
▁nuori	-8.96029
▁yleisö	-8.96145
stus	-8.96152
▁25	-8.9618
▁yhteydessä	-8.96224
▁vapaa	-8.96396
▁pieni	-8.96444
▁EM	-8.96517
▁lapsi	-8.966
▁poika	-8.96625
▁kasva	-8.96809
rk	-8.96828
▁nainen	-8.96852
▁Keski	-8.96855
ell	-8.96875
erä	-8.96979
ida	-8.96983
kok	-8.96992
alue	-8.97019
▁rooli	-8.97131
kirja	-8.97269
▁myy	-8.97297
▁sama	-8.97345
▁Mar	-8.97349
▁ihmis	-8.97557
vuo	-8.97661
▁p	-8.97805
hte	-8.97832
py	-8.97967
▁0	-8.97975
ren	-8.98107
▁raha	-8.98167
kar	-8.98217
▁auton	-8.98243
▁tästä	-8.98449
▁hy	-8.98705
kkä	-8.9878
D	-8.98843
▁2021	-8.98902
▁meidän	-8.98906
▁tunte	-8.9891
ston	-8.98976
▁oppi	-8.98989
tia	-8.99077
▁kaupunki	-8.99087
mman	-8.9914
rei	-8.99184
▁lähi	-8.99229
mpaa	-8.99314
▁ongelma	-8.99378
laiset	-8.99383
yö	-8.99598
30	-8.99651
▁presidentin	-8.99658
mer	-8.99716
▁vastuu	-8.99722
▁ti	-8.99851
co	-8.99871
▁minkä	-8.9988
▁Var	-9.0009
▁vanha	-9.00133
▁joiden	-9.00264
▁de	-9.00271
▁korkea	-9.00417
▁tuki	-9.00426
▁Per	-9.00488
▁Kan	-9.00533
▁2024	-9.00567
▁usea	-9.00614
sivat	-9.00777
▁osaa	-9.00805
pari	-9.00832
matta	-9.01032
▁New	-9.0115
▁ihmiset	-9.0116
ron	-9.01275
▁vastaa	-9.01291
▁21	-9.0152
ettu	-9.01575
istu	-9.01583
ca	-9.01636
▁Instagram	-9.0164
▁tulisi	-9.01674
▁SM	-9.01678
▁kutsu	-9.01689
tävä	-9.01869
kohta	-9.02027
▁kor	-9.02086
▁joukkueen	-9.02245
uuden	-9.02414
▁isä	-9.02439
miseksi	-9.02817
▁ju	-9.02857
▁laji	-9.02955
isku	-9.02993
▁totesi	-9.03048
▁sy	-9.0307
sh	-9.03169
uksesta	-9.03187
▁kannattaa	-9.03193
▁päälle	-9.03252
▁yllä	-9.03301
▁Kar	-9.03368
▁An	-9.03427
ime	-9.03432
jia	-9.03495
ilija	-9.03503
esi	-9.03526
▁poliisin	-9.03554
▁nuor	-9.03646
▁Oli	-9.0378
▁asian	-9.04058
▁hieno	-9.04072
sko	-9.04165
▁kohtaa	-9.04193
▁H	-9.04193
▁kirjoitti	-9.04321
▁etelä	-9.04462
▁etu	-9.04505
im	-9.04546
gin	-9.04556
▁ilmoitti	-9.04665
U	-9.04776
▁puhe	-9.04864
▁muita	-9.04918
kun	-9.0523
Suomen	-9.05414
järjestö	-9.05421
▁Antti	-9.05432
▁Israel	-9.05433
▁pala	-9.05487
liitto	-9.0549
▁W	-9.05573
koulu	-9.0559
▁naisten	-9.05616
▁suur	-9.05632
joukkue	-9.0564
ing	-9.05711
▁Mies	-9.05985
▁Hä	-9.06019
▁osta	-9.0606
laista	-9.06101
sesti	-9.06122
elta	-9.06153
▁Itä	-9.06495
vasta	-9.06549
ija	-9.06587
asema	-9.06682
▁Biden	-9.06708
op	-9.06832
isiä	-9.06845
▁voitto	-9.06859
▁päätös	-9.0692
päällikkö	-9.06944
lje	-9.06994
▁ajo	-9.07037
kisoissa	-9.07052
ase	-9.07205
▁aihe	-9.07273
▁Auto	-9.07283
▁julkaisi	-9.07364
▁kaiken	-9.07492
▁missä	-9.07493
ber	-9.0752
berg	-9.07648
▁uhri	-9.07711
▁kohti	-9.07743
▁tar	-9.0799
dan	-9.08006
toja	-9.08106
▁Tämän	-9.08154
ttänyt	-9.0835
suhte	-9.08398
▁Osa	-9.08439
▁Pää	-9.08463
toi	-9.0851
puoli	-9.08556
20	-9.08626
▁kokonais	-9.08695
mpia	-9.0874
ise	-9.08784
ttelu	-9.08824
▁tuomio	-9.08856
▁Ca	-9.08884
▁hei	-9.09068
▁tulo	-9.09071
▁tiedä	-9.09074
▁vastaava	-9.09163
▁valmis	-9.09384
▁verran	-9.09406
taso	-9.09435
ito	-9.09468
▁In	-9.09505
▁juo	-9.0958
▁kesken	-9.09794
▁joista	-9.09872
▁tärkeä	-9.099
▁palo	-9.0993
▁muiden	-9.09996
laisten	-9.10032
tojen	-9.10063
▁sodan	-9.10131
▁40	-9.10153
▁media	-9.10261
▁vaiheessa	-9.10325
laisia	-9.10338
kor	-9.10511
ien	-9.10542
ltaan	-9.10546
▁finaali	-9.10648
▁joku	-9.10729
keskus	-9.1077
▁N	-9.1078
ken	-9.10842
▁silti	-9.10955
▁talous	-9.11149
▁ajoi	-9.1125
▁osalta	-9.11269
ukku	-9.1127
kilpailu	-9.11315
▁muistuttaa	-9.11343
uh	-9.11375
kat	-9.11573
▁olleen	-9.11607
tapa	-9.11688
▁edusta	-9.11693
▁lä	-9.11787
▁suurin	-9.1181
▁suoja	-9.11834
▁euro	-9.11884
ikko	-9.11904
eh	-9.1195
▁asioita	-9.12023
▁Z	-9.12062
▁valtion	-9.12116
▁oikein	-9.1212
▁elokuva	-9.12246
▁22	-9.12263
▁uutta	-9.12294
▁takana	-9.12422
malli	-9.12438
▁edessä	-9.12534
▁Tällä	-9.12548
▁kansanedustaja	-9.12658
▁laki	-9.12804
ppo	-9.12906
lve	-9.12913
tähti	-9.13028
▁miksi	-9.13056
ari	-9.13089
▁antoi	-9.13111
ukseen	-9.13112
▁tarvitse	-9.13114
lm	-9.13226
▁ruoka	-9.13242
▁haastattelussa	-9.13322
neiden	-9.13356
▁24	-9.13414
▁Har	-9.13415
my	-9.13458
▁tuolloin	-9.13487
▁Tässä	-9.1349
▁päivän	-9.13525
▁äiti	-9.13642
▁varmasti	-9.13648
osta	-9.13683
olo	-9.13713
▁sarja	-9.13728
▁Maa	-9.13933
▁päävalmentaja	-9.14147
▁hänellä	-9.14233
vy	-9.14249
oo	-9.1437
▁vaara	-9.14402
▁mediassa	-9.14445
▁venäläis	-9.14457
▁metsä	-9.14507
▁sija	-9.14588
ker	-9.14615
viä	-9.14674
ger	-9.14837
▁ikä	-9.1497
▁ääni	-9.1497
▁pelasi	-9.14985
her	-9.14995
kauden	-9.15002
viin	-9.1504
▁Mikko	-9.15184
▁toi	-9.15269
masta	-9.15282
▁200	-9.15321
ttelee	-9.15338
▁lapsen	-9.15359
▁Ylen	-9.15385
isti	-9.15567
hoito	-9.15591
sarjan	-9.15648
▁ykkös	-9.15697
▁täällä	-9.15701
▁ihme	-9.1578
▁jätti	-9.15889
fa	-9.15909
tetään	-9.16279
väli	-9.16289
▁sana	-9.1646
▁lento	-9.16508
▁Orpo	-9.16599
▁tarkoitus	-9.166
▁tuttu	-9.16677
ff	-9.16749
▁tuleva	-9.16838
tor	-9.16839
▁seitsemän	-9.16861
iltä	-9.16894
▁23	-9.16934
▁koh	-9.16942
▁Donald	-9.16963
▁Nä	-9.17049
▁kuollut	-9.17314
F	-9.17334
▁ky	-9.17394
▁Työ	-9.17439
lassa	-9.17446
▁paikka	-9.17469
uka	-9.1752
▁ehdot	-9.17701
▁Do	-9.17725
▁suure	-9.17803
▁Vuon	-9.1781
▁tunne	-9.17832
um	-9.17832
mus	-9.17857
▁päivänä	-9.17858
koi	-9.17905
jille	-9.17977
▁jalkapallo	-9.18016
empi	-9.18027
kkaan	-9.18099
der	-9.1816
dä	-9.18221
sel	-9.18236
é	-9.18292
▁riski	-9.18309
▁miesten	-9.1835
▁paikalla	-9.18405
paikka	-9.18583
▁ympäristö	-9.18822
ria	-9.18831
-20	-9.1886
G	-9.18891
▁valo	-9.18898
▁Salo	-9.18914
▁ottelussa	-9.18983
▁tietoa	-9.18985
iseksi	-9.18993
▁100	-9.18998
▁johon	-9.19107
▁toimii	-9.19142
▁Turun	-9.19286
ras	-9.19294
ivo	-9.19295
tua	-9.19309
▁Tar	-9.19318
▁juttu	-9.19343
isella	-9.19437
▁teko	-9.19513
ole	-9.19574
▁kolmen	-9.19609
▁suosi	-9.19719
▁perin	-9.19795
▁Pari	-9.19804
▁Kyllä	-9.19891
▁Ruotsi	-9.19969
uu	-9.20008
kea	-9.20033
▁2020	-9.2005
▁au	-9.20073
▁kulje	-9.20095
ris	-9.20211
▁Haavisto	-9.2026
▁sä	-9.20265
▁malli	-9.20312
▁kasvu	-9.20501
1-	-9.20656
ala	-9.20669
▁kertonut	-9.20676
ike	-9.20723
ttyä	-9.2073
▁kuusi	-9.20749
uko	-9.20752
▁Sal	-9.20761
utui	-9.2077
▁pian	-9.20823
essaan	-9.20836
▁kahdeksan	-9.20883
tyi	-9.20975
▁uhka	-9.21001
▁kau	-9.21047
ikä	-9.2106
maali	-9.21078
stään	-9.21162
▁kanta	-9.2128
är	-9.21375
▁ympäri	-9.21418
▁lähellä	-9.21466
▁Yli	-9.21616
▁mieltä	-9.21638
▁rauha	-9.21723
▁määri	-9.2177
usten	-9.21826
riko	-9.21896
tut	-9.21949
kesk	-9.21991
isesta	-9.22007
▁voima	-9.22078
isessa	-9.22095
▁asunto	-9.22163
▁pako	-9.22217
▁Pekka	-9.2222
kone	-9.22238
ttamaan	-9.22286
▁mennessä	-9.2244
▁kärsi	-9.2247
▁Alexander	-9.2256
▁ura	-9.2256
▁vei	-9.22599
uutta	-9.22642
aho	-9.22735
ossa	-9.22791
aste	-9.22809
▁alla	-9.22944
▁suoraan	-9.22964
J	-9.23027
▁tapahtunut	-9.23051
▁päätti	-9.23102
▁paras	-9.23163
em	-9.23283
▁por	-9.23358
tien	-9.23487
▁löytyi	-9.2351
▁Her	-9.23537
▁Iltalehdelle	-9.23556
▁ääne	-9.23588
▁terve	-9.23628
▁kyl	-9.23633
▁toimintaa	-9.23716
etaan	-9.23858
▁suori	-9.23863
▁tv	-9.23947
▁syytä	-9.24009
▁Kir	-9.2401
▁ohja	-9.24011
ov	-9.24031
▁Vii	-9.24126
▁hal	-9.2413
▁aamu	-9.24143
▁alusta	-9.24298
▁helpo	-9.24299
ud	-9.24301
▁epäilty	-9.24312
▁ver	-9.24339
halli	-9.24401
▁päivää	-9.24413
▁elämän	-9.24455
▁valtio	-9.2447
▁tietojen	-9.2449
▁valmentaja	-9.24633
▁kan	-9.24642
sarja	-9.24675
▁tur	-9.24695
uksissa	-9.2472
▁melko	-9.2479
▁maksa	-9.24813
ide	-9.24851
▁Iltalehden	-9.24933
ele	-9.2494
viiko	-9.24959
suo	-9.25032
▁Siinä	-9.25306
▁nosta	-9.25306
▁sijoit	-9.2532
yys	-9.25351
miehi	-9.25414
▁pol	-9.25448
▁onko	-9.25476
▁voinut	-9.25531
▁pohjois	-9.25558
▁pal	-9.25589
▁vahv	-9.25629
▁Ty	-9.25632
▁kuvaa	-9.25641
▁olo	-9.25681
syy	-9.25724
▁todennäköisesti	-9.25797
▁entinen	-9.25804
▁Fi	-9.25826
ukka	-9.25939
▁Sy	-9.25963
eltä	-9.25979
uma	-9.26028
▁Ga	-9.26046
siin	-9.26084
ttavat	-9.26138
isuus	-9.26144
▁tekemään	-9.26157
ik	-9.26207
▁olevansa	-9.26233
▁saavu	-9.26242
▁näkyy	-9.26345
▁ammatti	-9.26372
hoido	-9.26391
▁tuho	-9.26439
kasta	-9.26493
▁tietää	-9.26569
▁lääkäri	-9.26577
▁Suomalais	-9.26579
vara	-9.26661
▁viiden	-9.26685
▁kuukauden	-9.26836
▁lau	-9.26841
puisto	-9.26867
▁toimitusjohtaja	-9.26941
▁sanoa	-9.27043
▁kilometrin	-9.27069
yttä	-9.27101
▁Naton	-9.27156
utunut	-9.27167
ttämään	-9.2717
▁meillä	-9.27181
▁mistä	-9.27218
▁rii	-9.27236
▁perheen	-9.27278
▁Er	-9.27315
▁Uusi	-9.27345
▁toimittaja	-9.27377
▁Ä	-9.27392
▁puolesta	-9.27396
▁Tur	-9.27452
▁vuosien	-9.27487
▁sairaala	-9.2752
▁äänestä	-9.27549
nnin	-9.27577
▁Tä	-9.27607
▁aloitti	-9.27637
uden	-9.27742
▁uudelleen	-9.27845
▁sosiaali	-9.27846
teita	-9.27932
▁kulttuuri	-9.28037
▁Ver	-9.28108
▁Bu	-9.28227
gen	-9.28336
▁yl	-9.28426
▁mur	-9.28566
▁peruste	-9.28592
per	-9.28633
esti	-9.28787
▁olemme	-9.28815
.)	-9.28871
▁soi	-9.28881
ilee	-9.28885
uksiin	-9.28969
ner	-9.29031
▁metrin	-9.29065
ppe	-9.29083
lke	-9.29127
▁vä	-9.29136
▁Fa	-9.29161
▁Koko	-9.29172
▁arvio	-9.29192
oista	-9.29242
▁San	-9.29407
tilaisuudessa	-9.2948
▁naisen	-9.29519
▁kilpa	-9.29587
▁elä	-9.29769
see	-9.2987
▁ensimmäistä	-9.29928
▁selvästi	-9.29929
▁Sitten	-9.29938
▁anta	-9.29973
▁menee	-9.29977
▁aloi	-9.29987
▁paikallis	-9.30064
▁ty	-9.30125
oitu	-9.30135
▁Moni	-9.30168
▁klo	-9.30208
▁rikko	-9.30274
lia	-9.30334
▁L	-9.30356
▁ilo	-9.304
iivi	-9.30465
▁työn	-9.30576
▁tappio	-9.30581
▁kannalta	-9.30593
▁kyseessä	-9.30655
▁halu	-9.3073
mpa	-9.30754
▁Iso	-9.30766
▁27	-9.30769
▁ainoa	-9.30832
oitus	-9.30838
▁vaihtoehto	-9.3086
mällä	-9.30966
lly	-9.30995
▁tilanteessa	-9.31022
▁yksityis	-9.31067
hen	-9.31088
vista	-9.31131
▁Ensi	-9.31189
▁ruo	-9.31233
▁jatkuu	-9.31311
puhe	-9.31315
uudesta	-9.3139
▁vaatii	-9.31412
▁sata	-9.31488
▁Bi	-9.31496
uri	-9.31561
▁Wi	-9.31608
▁Mari	-9.31652
▁lähtö	-9.31672
▁tehdään	-9.31699
▁uusia	-9.3177
vuotiaan	-9.31876
▁jatka	-9.31897
▁loppuun	-9.31951
▁Harris	-9.31994
▁näky	-9.32033
▁kuvailee	-9.3223
vas	-9.32291
▁koe	-9.32295
▁varsin	-9.32314
▁vil	-9.32329
▁Lapin	-9.32511
▁paikalle	-9.32555
▁nousu	-9.32562
▁käyttöön	-9.32674
▁Suo	-9.3275
▁Hy	-9.32869
▁pitänyt	-9.32893
▁suora	-9.32901
illaan	-9.32951
▁muutama	-9.32974
▁tähti	-9.33083
▁alkoholi	-9.33144
▁kuulu	-9.33224
▁Putinin	-9.33227
mattom	-9.33234
utumis	-9.33261
jää	-9.33299
peri	-9.33513
ero	-9.33518
▁tapauksessa	-9.33565
▁nyky	-9.33593
▁kampanja	-9.33627
▁Ala	-9.33656
ee	-9.33657
tra	-9.33665
▁ravintola	-9.33684
▁omi	-9.33792
▁hyvää	-9.33964
▁vuodesta	-9.33964
▁tien	-9.33973
teiden	-9.34097
▁yhteen	-9.34219
vis	-9.34301
▁taso	-9.34335
▁hetki	-9.34353
▁kier	-9.34479
▁kovin	-9.34504
▁käyttö	-9.34504
▁nähtiin	-9.34514
▁Mitä	-9.34521
▁lähde	-9.34543
pallo	-9.34581
yri	-9.34654
▁avaus	-9.34697
▁palaa	-9.34776
▁pyöri	-9.34825
▁uutis	-9.34857
▁per	-9.34882
jö	-9.34928
▁piene	-9.34956
otto	-9.34981
imman	-9.35033
▁tarkoittaa	-9.35105
osi	-9.35112
▁Vir	-9.35138
llisia	-9.35218
pelaaja	-9.35238
▁tarkka	-9.3528
kari	-9.35287
▁kantaa	-9.35298
tyksen	-9.35317
alan	-9.35334
▁kuvan	-9.35346
▁päättyi	-9.35351
▁lähtien	-9.35359
oita	-9.35613
bu	-9.35699
jista	-9.35733
▁Niin	-9.35733
▁Meillä	-9.35736
nnasta	-9.35861
▁sopi	-9.3589
▁etenkin	-9.35905
kausi	-9.36042
▁ohje	-9.36124
joiden	-9.36145
loi	-9.36216
itse	-9.36267
▁ryhmä	-9.36341
▁sotilas	-9.36391
▁asiantuntija	-9.36507
▁kaikkien	-9.36535
raa	-9.36582
ministeriö	-9.36655
ojen	-9.36689
isu	-9.36772
▁Kuu	-9.36863
▁viikko	-9.36864
▁STT	-9.36889
▁tärkeää	-9.36919
rit	-9.36934
▁keskus	-9.36934
sson	-9.36955
tukset	-9.36963
▁koira	-9.37043
mmat	-9.37115
▁Jä	-9.37193
▁ker	-9.37245
▁tavoit	-9.37255
tettava	-9.37259
ss	-9.37267
▁paremmin	-9.37321
▁päällä	-9.37382
▁Kur	-9.37422
▁kauppa	-9.37427
▁niistä	-9.37475
▁saira	-9.37639
▁historia	-9.37706
jaan	-9.37712
ttely	-9.37724
ment	-9.3774
metri	-9.3783
▁Helsingissä	-9.38026
▁omaa	-9.38058
isuutta	-9.3806
▁virhe	-9.3808
▁ystävä	-9.38085
▁sisällä	-9.38094
▁perusta	-9.3821
▁varten	-9.38228
tanut	-9.38264
▁saapui	-9.38333
▁suhteen	-9.38342
▁mennä	-9.38379
▁Petteri	-9.3843
itta	-9.385
salo	-9.38501
▁hake	-9.38588
▁jäänyt	-9.386
▁aikoo	-9.386
▁koske	-9.38662
▁piha	-9.38673
▁perjantai	-9.38725
▁joilla	-9.38829
▁kotiin	-9.38865
▁työntekijä	-9.3889
▁yritys	-9.38989
▁tuntuu	-9.39091
▁suuntaan	-9.39102
▁vuokra	-9.39136
▁60	-9.39211
▁merkittävä	-9.39434
▁täytyy	-9.39473
▁kärki	-9.3951
▁siir	-9.39541
vaara	-9.39634
▁kuljettaja	-9.39744
▁asema	-9.39761
▁yleensä	-9.40048
▁hoito	-9.4008
▁Ed	-9.40123
kanava	-9.40147
▁säily	-9.4018
th	-9.40318
▁herä	-9.40364
▁Iltalehti	-9.4038
del	-9.40391
misestä	-9.40435
▁eniten	-9.40491
▁Tai	-9.4053
▁valmistu	-9.40553
▁meri	-9.40576
▁26	-9.40614
▁neuvo	-9.40691
▁voittanut	-9.40699
▁nähty	-9.4078
▁ylä	-9.40804
▁Minu	-9.4084
▁vahva	-9.40885
▁kertovat	-9.409
iste	-9.40902
▁edustaja	-9.40937
ed	-9.40974
tystä	-9.40978
toista	-9.41072
▁keino	-9.41074
ryhmä	-9.4108
▁kausi	-9.41107
▁julki	-9.41121
las	-9.41132
▁yhteistyö	-9.41229
▁sellainen	-9.41239
ow	-9.41286
▁rahaa	-9.41297
▁pela	-9.41362
▁ehti	-9.41417
▁tilannetta	-9.41423
▁julkaistu	-9.41517
ström	-9.41518
▁näyttelijä	-9.41545
▁haasta	-9.41577
gan	-9.4161
▁Jussi	-9.41615
uksessa	-9.41615
▁liha	-9.4167
lehden	-9.41696
▁Anna	-9.41947
▁halusi	-9.41954
▁myynti	-9.41972
▁nämä	-9.41973
▁liike	-9.42011
▁sairas	-9.42035
▁tanssi	-9.4208
wa	-9.42123
▁ihmisten	-9.42126
▁Oulu	-9.42201
har	-9.42234
▁Han	-9.42244
▁avulla	-9.42291
▁lasku	-9.42328
▁Ai	-9.42331
▁Kiina	-9.42482
▁lähtee	-9.42514
vuosi	-9.4255
▁huo	-9.42562
▁muista	-9.42646
voitto	-9.4273
▁Laine	-9.42744
▁onnistu	-9.4283
ek	-9.42861
uku	-9.42892
▁aiheuttaa	-9.42974
ttavaa	-9.42986
▁2019	-9.43019
▁pohja	-9.43047
eri	-9.43065
▁koo	-9.43116
▁minulle	-9.43159
▁Juha	-9.43167
▁puna	-9.43261
▁juhla	-9.43331
▁kansalais	-9.43389
▁toistaiseksi	-9.43622
▁silmä	-9.43635
emmin	-9.43658
▁Man	-9.43684
kkää	-9.43743
▁nuorten	-9.43768
▁Sitä	-9.4384
▁ikään	-9.4389
▁väh	-9.43915
▁kysy	-9.44043
▁Bidenin	-9.44078
▁virka	-9.44108
lis	-9.44221
▁Olemme	-9.44223
▁Kanada	-9.44228
▁epäillään	-9.44244
▁ohjelma	-9.44287
▁lista	-9.44393
uvo	-9.44424
▁elämä	-9.44428
▁energia	-9.44468
▁keho	-9.4456
▁lopussa	-9.44595
▁neli	-9.44625
▁jatkoi	-9.44682
hl	-9.44718
▁reilu	-9.44832
ic	-9.4493
▁lähte	-9.44968
läinen	-9.45002
ville	-9.45005
reita	-9.45012
▁nähdään	-9.45079
za	-9.45121
▁tarkoi	-9.45177
▁Eli	-9.45182
▁pistettä	-9.45214
▁maalin	-9.4528
▁Katso	-9.45292
yksen	-9.45308
▁nostaa	-9.45344
▁pääsee	-9.45395
▁vakava	-9.45409
▁Yhdysvaltojen	-9.45442
▁vastasi	-9.4545
▁maahan	-9.45461
▁odotta	-9.45462
▁väl	-9.45485
▁Mer	-9.45531
▁helppo	-9.45597
▁vaikut	-9.45629
luvun	-9.45685
kisojen	-9.45757
▁uskoo	-9.45876
▁Mikä	-9.45994
10	-9.46
▁toista	-9.46019
▁normaali	-9.46028
▁Niinistö	-9.4606
▁laaj	-9.4616
▁500	-9.46203
▁Oy	-9.46362
▁peru	-9.46372
▁välttämättä	-9.46374
▁nähdä	-9.46427
▁minä	-9.46463
ologi	-9.46516
omi	-9.46632
joita	-9.46652
htaa	-9.46659
▁vuoro	-9.46665
▁hyökkäys	-9.4671
▁ensin	-9.46742
▁pysy	-9.46747
▁van	-9.46797
▁veto	-9.46813
▁lumi	-9.46832
▁luku	-9.47118
▁some	-9.47126
ila	-9.47145
▁muodo	-9.47173
io	-9.47182
stelu	-9.47209
▁puolella	-9.47213
neita	-9.47243
▁minuuttia	-9.47391
▁levi	-9.47403
▁Lind	-9.47479
▁saakka	-9.47529
missa	-9.47549
maksu	-9.47562
▁nautti	-9.47634
yy	-9.47671
ola	-9.47675
imme	-9.47739
▁hyvinvointialue	-9.47764
tyä	-9.47888
▁Am	-9.48091
▁hankki	-9.4811
▁tuntu	-9.4816
▁alueen	-9.48187
sivusto	-9.48275
vänsä	-9.48318
itsi	-9.48338
▁Venäjällä	-9.48354
▁kieltä	-9.48378
iri	-9.48422
ketju	-9.48461
▁jatku	-9.48473
▁miljoonan	-9.48546
▁vähintään	-9.4857
vuotiaana	-9.48629
▁ilta	-9.4865
▁liiga	-9.48728
▁Sami	-9.48805
▁saatu	-9.48835
rö	-9.48838
▁kaikkea	-9.48889
▁Hei	-9.48904
ehto	-9.48905
▁näytti	-9.48907
▁kunnossa	-9.48968
▁menesty	-9.48975
▁Yhdysvalloissa	-9.49048
▁vähemmän	-9.49048
tuksi	-9.49048
▁El	-9.49087
▁kohtaan	-9.49114
▁rakennus	-9.49121
▁tah	-9.49127
▁Purra	-9.4913
▁saivat	-9.49137
▁pelannut	-9.4923
▁Saa	-9.4944
fe	-9.4948
▁yksin	-9.49565
▁aiheutta	-9.49567
järjestelmä	-9.4957
▁Timo	-9.49621
▁sosiaalisessa	-9.49694
jät	-9.49714
▁mieli	-9.49719
henkilö	-9.49732
eissa	-9.49765
ttäjä	-9.49901
mättä	-9.49904
▁samaan	-9.49958
tilan	-9.49986
▁Sveitsi	-9.5001
▁kohdalla	-9.5001
▁Länsi	-9.50017
▁Go	-9.50022
▁kuukausi	-9.50033
▁Saksa	-9.50066
▁Silloin	-9.50078
teri	-9.5015
▁Suomea	-9.50173
▁johtaa	-9.50177
▁loma	-9.50235
▁jakso	-9.50271
▁jonkin	-9.50342
▁Lauri	-9.50363
▁kukaan	-9.50394
potku	-9.50407
▁Ukrainassa	-9.50476
iselle	-9.50492
▁päätöksen	-9.50574
▁monta	-9.50581
▁julkaisu	-9.50641
aatio	-9.50647
▁Tie	-9.50702
▁palkka	-9.50772
sarjassa	-9.50791
neuvosto	-9.50854
▁kappale	-9.50941
▁kone	-9.50955
pito	-9.51026
▁Ker	-9.51035
kel	-9.51079
▁kymmen	-9.51085
▁johto	-9.51139
▁liittyy	-9.51145
▁Kyseessä	-9.5117
▁muutos	-9.51186
▁Andersson	-9.51187
▁my	-9.51191
▁toiminut	-9.51217
▁vähä	-9.513
maton	-9.5156
miehen	-9.51567
▁rake	-9.51702
▁Sil	-9.51704
▁musiikki	-9.51789
▁yliopisto	-9.51799
▁Ranska	-9.51818
met	-9.51822
▁tee	-9.51847
▁Du	-9.51885
neensä	-9.51928
ongelmi	-9.51938
por	-9.51947
media	-9.51948
▁Tappara	-9.51963
▁eteenpäin	-9.51967
▁vih	-9.51976
▁kanna	-9.52041
▁Kai	-9.52079
▁Ge	-9.52108
▁tukea	-9.52176
niemi	-9.52216
▁kerro	-9.5222
▁Samalla	-9.52253
▁Vasta	-9.52274
▁Nu	-9.52297
▁miele	-9.52362
▁Rau	-9.52431
▁Syy	-9.52456
▁kokonaan	-9.52478
▁seuran	-9.52656
▁kohde	-9.52681
▁päässä	-9.52743
▁tarina	-9.52755
▁keväällä	-9.52788
päivän	-9.52886
▁Ky	-9.52893
▁verta	-9.52903
▁Kaksi	-9.52967
▁tehtiin	-9.53121
ministeriön	-9.53157
nnu	-9.53174
käytö	-9.53209
▁sopimus	-9.5332
▁edellis	-9.53341
▁odottaa	-9.5338
oto	-9.53402
▁tapahtuu	-9.53453
▁Poliisin	-9.53466
vasti	-9.53513
▁ottelua	-9.53528
▁törkeä	-9.53551
▁vuo	-9.53566
▁g	-9.53582
▁2018	-9.53637
mpää	-9.53661
res	-9.53683
▁tuore	-9.53738
▁kesällä	-9.53792
▁valtava	-9.53869
lliset	-9.53887
▁pääse	-9.5394
▁kansan	-9.5404
▁riippu	-9.54141
▁Norjan	-9.5432
▁tapaa	-9.54395
▁yritti	-9.54479
▁Norja	-9.54502
▁We	-9.54502
▁omista	-9.54526
▁ihmisen	-9.54526
ssu	-9.54555
▁ollaan	-9.54657
▁pallo	-9.54678
▁Janne	-9.54731
▁laaja	-9.54757
▁neljän	-9.54762
▁Toise	-9.54779
▁tekemä	-9.54782
▁29	-9.54842
par	-9.54864
puu	-9.54879
▁päässyt	-9.54966
ikki	-9.55066
▁iske	-9.55147
▁parempi	-9.55147
▁päivi	-9.55247
lääkäri	-9.5528
▁28	-9.5528
▁talvi	-9.55294
▁kansainvälise	-9.55305
▁prosentin	-9.55324
risti	-9.55327
▁istu	-9.55481
▁kohdistu	-9.55484
▁tutkimus	-9.55494
▁maassa	-9.55563
▁Stubbin	-9.55796
laitos	-9.55859
▁tarkast	-9.55894
▁lain	-9.55902
▁urheilija	-9.55932
▁viikonloppuna	-9.55989
▁Au	-9.56044
▁pikku	-9.56195
▁kr	-9.56274
uudessa	-9.56287
50	-9.56304
läis	-9.5633
kir	-9.56344
mar	-9.56348
ksesta	-9.56349
▁luki	-9.56357
▁paikan	-9.56373
▁käynyt	-9.56409
▁murha	-9.56422
teko	-9.56457
▁hallinto	-9.5646
▁viimeisen	-9.56524
▁mahdollisuus	-9.5654
▁suku	-9.56568
stettu	-9.56617
etta	-9.56619
ineen	-9.56635
▁saadaan	-9.56654
▁väri	-9.56793
▁jänni	-9.56848
▁tekijä	-9.569
▁pro	-9.56908
paikan	-9.56947
▁par	-9.5695
lähe	-9.56956
kisa	-9.5696
▁Mie	-9.56962
▁Gu	-9.56969
▁sinne	-9.56992
elämä	-9.57067
▁käytännössä	-9.57079
▁Ennen	-9.57099
yyttä	-9.57122
uteen	-9.57179
▁Tanska	-9.57197
lee	-9.57247
▁York	-9.57254
ranta	-9.57259
▁töitä	-9.57285
jakso	-9.57416
▁Helsinki	-9.57425
▁Haa	-9.57483
rs	-9.57518
▁maksu	-9.57534
itte	-9.57589
▁Toinen	-9.57603
▁alas	-9.57608
▁miestä	-9.57612
▁pur	-9.57613
▁tilanteen	-9.57628
▁Vuo	-9.57657
▁alkaen	-9.57716
▁paine	-9.5774
tro	-9.57755
▁voittaja	-9.57826
kit	-9.57828
▁riittää	-9.57919
yyden	-9.57993
ykset	-9.57994
keskuksen	-9.5806
▁Vladimir	-9.58061
▁tunnettu	-9.58086
▁keh	-9.58091
▁lasta	-9.5812
▁kasvo	-9.58135
tavan	-9.58194
nnalla	-9.58205
▁korja	-9.58234
▁metriä	-9.58247
▁Saksan	-9.58293
▁tulos	-9.58338
▁korva	-9.58348
ori	-9.58359
▁puoliso	-9.58392
tamaan	-9.58438
▁pystyy	-9.58482
▁näkö	-9.58545
utti	-9.58551
▁emme	-9.58587
▁apua	-9.5861
▁Pel	-9.58621
▁vuoteen	-9.58626
▁vaike	-9.58669
▁talli	-9.58671
▁jär	-9.58679
▁siltä	-9.58697
▁tuntia	-9.58731
▁Harry	-9.588
▁taustalla	-9.58838
%	-9.58938
kyky	-9.58952
fo	-9.58986
päivänä	-9.59075
uuteen	-9.59092
▁Florida	-9.59115
▁erityisen	-9.59115
▁yhtiö	-9.5913
▁vakuu	-9.59141
▁tyyli	-9.59245
valmentaja	-9.59251
▁saavat	-9.59297
24	-9.59315
▁kaikkia	-9.59317
▁kunnia	-9.59321
▁maajoukkue	-9.59321
misessa	-9.59327
▁ex	-9.59369
lista	-9.59534
▁Ville	-9.59634
▁olisivat	-9.59739
isista	-9.59776
▁kerta	-9.59942
aine	-9.59949
raja	-9.5997
ily	-9.60019
▁torju	-9.6006
▁ennuste	-9.60072
chi	-9.60141
▁peräti	-9.60283
▁kilometriä	-9.60358
▁lähteä	-9.60384
▁tulevat	-9.6043
ster	-9.6044
teitä	-9.60451
▁taistelu	-9.60487
▁täyt	-9.60519
▁vuosikymmen	-9.60525
▁Orpon	-9.60595
vuus	-9.606
▁puolueen	-9.6066
▁myöskään	-9.60672
▁noussut	-9.60716
▁tuotanto	-9.60842
▁pitkän	-9.60858
om	-9.60905
▁suju	-9.60913
puolue	-9.60919
urheilu	-9.60954
▁Muut	-9.6102
▁Lau	-9.61025
ci	-9.61052
vaali	-9.61072
▁kuului	-9.61093
kieli	-9.61106
▁avu	-9.61124
▁Joe	-9.61157
▁synty	-9.61164
▁omistaja	-9.61171
ikku	-9.61192
▁yhdeksän	-9.61212
▁kesän	-9.61228
▁tulokse	-9.61251
▁musta	-9.61252
▁valmista	-9.61283
▁puolusta	-9.61328
▁kannatta	-9.61439
miä	-9.61499
15	-9.61508
▁kerrottiin	-9.61508
▁kysyi	-9.61612
huone	-9.61613
▁mar	-9.61674
▁lämpötila	-9.61682
ttavan	-9.61694
kauppa	-9.61721
isena	-9.61764
▁joskus	-9.61802
▁minun	-9.61811
▁Puola	-9.6183
▁torstai	-9.61859
▁yllättävä	-9.61866
▁lopu	-9.6189
▁tarpee	-9.61943
▁Ny	-9.61965
▁Ulko	-9.6198
ttävät	-9.62091
ohjelma	-9.62101
▁YK	-9.62236
ite	-9.62261
▁haastattelu	-9.62315
▁henki	-9.62339
▁yrittä	-9.62342
▁Yhdysvallat	-9.62344
▁Mä	-9.62377
eja	-9.6242
hke	-9.62508
tilanne	-9.6253
▁Huo	-9.62544
▁Sai	-9.62699
▁takaa	-9.62709
udella	-9.62744
pol	-9.62758
ima	-9.62783
▁liitto	-9.62874
alueella	-9.62905
ohjelman	-9.62974
ivät	-9.62984
by	-9.63003
▁Car	-9.63007
ad	-9.63038
kää	-9.63063
▁MTV	-9.63085
▁elämää	-9.63132
tiellä	-9.63172
▁Aho	-9.63216
▁Vai	-9.63333
▁toimia	-9.63374
▁lopetta	-9.63451
▁Ste	-9.63511
▁paha	-9.6354
▁kiire	-9.63555
▁muutaman	-9.63559
▁ilme	-9.63578
▁lenno	-9.63601
▁Sama	-9.63626
▁Olli	-9.6371
tit	-9.63713
ottelussa	-9.63744
▁aikuis	-9.63776
liikenne	-9.63779
▁selvä	-9.63792
erin	-9.63815
▁Heikki	-9.63854
▁Gr	-9.63889
mäen	-9.63899
nny	-9.63949
▁ihminen	-9.63998
▁aloittaa	-9.64055
län	-9.64086
▁hiihto	-9.64095
▁tilanteesta	-9.6411
▁Pro	-9.64115
▁itsensä	-9.64173
▁vieras	-9.64226
▁suo	-9.64289
▁viikkoa	-9.64347
▁ennakko	-9.64369
▁Presidentti	-9.6437
siä	-9.64409
▁saisi	-9.6452
▁asiassa	-9.64533
▁kiinteistö	-9.64567
▁2016	-9.64575
▁lie	-9.64579
tuksesta	-9.646
▁muka	-9.6465
utuu	-9.64702
oilla	-9.64712
tri	-9.64783
▁Vil	-9.64843
▁suomalainen	-9.64856
ok	-9.64865
2-	-9.64952
▁itseään	-9.64982
ttinen	-9.64994
▁onnistui	-9.65095
sääntö	-9.651
podcast	-9.65117
▁Mat	-9.65239
▁para	-9.65354
▁iho	-9.65397
▁maksaa	-9.65438
oli	-9.65495
▁Meri	-9.65529
▁entistä	-9.6554
▁esitykse	-9.65548
▁havai	-9.65584
▁summa	-9.65591
sija	-9.65598
▁korona	-9.65659
▁Koti	-9.65664
▁matkusta	-9.65728
▁sopiva	-9.65762
▁Cha	-9.65793
▁kirjoit	-9.65794
▁kehitt	-9.65831
▁seksi	-9.65864
▁Saari	-9.65915
▁ilmi	-9.65991
▁Hal	-9.66016
▁Mika	-9.6605
▁Zelenskyi	-9.66058
▁syntyi	-9.66078
▁Paul	-9.66135
turva	-9.66138
▁runsaasti	-9.66142
▁Lai	-9.662
▁35	-9.66221
▁Leijoni	-9.66248
▁Ilma	-9.66311
▁seksuaali	-9.66313
ley	-9.6633
perä	-9.66389
▁kehitys	-9.66407
▁Oma	-9.66443
▁2025	-9.66459
▁Jukka	-9.6646
milla	-9.66506
osasto	-9.66517
merkki	-9.66521
▁huomiota	-9.66547
▁tiistai	-9.66599
Y	-9.666
▁kysymys	-9.66621
▁mennyt	-9.66835
▁kysely	-9.66895
▁ralli	-9.67004
▁tulossa	-9.67023
valmi	-9.67046
▁käytössä	-9.67054
vissa	-9.67077
sivät	-9.67082
▁nykyise	-9.67178
luvulla	-9.67181
odo	-9.67218
▁asiat	-9.67234
▁siksi	-9.67261
▁näkee	-9.67392
elokuva	-9.67395
▁palasi	-9.6744
meren	-9.67455
▁kär	-9.67519
▁poliittise	-9.676
▁neuvottelu	-9.6766
selle	-9.67668
▁isän	-9.67675
gu	-9.67717
▁St	-9.67725
▁itselleen	-9.67774
nnat	-9.67797
▁halunnut	-9.67806
tteja	-9.67866
vuotis	-9.67896
keä	-9.67914
▁Ter	-9.67962
▁verrattuna	-9.67969
▁turha	-9.68004
▁Pariisin	-9.68008
▁jääkiekko	-9.68057
▁Charles	-9.68161
▁miljoona	-9.68209
▁kesänä	-9.68218
▁mä	-9.68224
▁nouse	-9.68341
▁surma	-9.68364
vauhti	-9.68384
▁Pal	-9.68395
▁toteutta	-9.68396
▁heitä	-9.68503
▁yönä	-9.686
▁vaimo	-9.68611
▁merkit	-9.68625
▁Catherine	-9.68743
tilaa	-9.68768
▁sotila	-9.68822
▁sarjan	-9.68836
▁Matti	-9.68933
▁kylmä	-9.68934
▁mahdollisesti	-9.68966
▁mihin	-9.68969
▁kuo	-9.69045
▁koskeva	-9.69077
▁kaikille	-9.69134
▁lähet	-9.69152
ointi	-9.69177
▁maailma	-9.69221
▁paluu	-9.69231
▁tunnetu	-9.69348
▁pohti	-9.69537
▁olemaan	-9.69564
▁iski	-9.69595
mari	-9.6961
uha	-9.69663
▁Siellä	-9.69672
lti	-9.69686
▁verkko	-9.69738
▁harjoit	-9.69777
▁katse	-9.69815
▁kansa	-9.69841
▁Siitä	-9.69885
▁kur	-9.69893
▁kuvi	-9.70105
▁keskellä	-9.70114
▁luovu	-9.70146
▁riittävä	-9.70244
▁joudu	-9.70263
▁sille	-9.70284
muu	-9.70297
▁Itse	-9.70333
▁tahansa	-9.70333
▁paina	-9.70341
▁tyttö	-9.70363
▁käsittely	-9.70396
▁Kyse	-9.7042
▁toki	-9.70482
▁joutuu	-9.70484
▁armeija	-9.70508
▁monet	-9.70527
▁tuuli	-9.70601
▁kohu	-9.70608
▁2022.	-9.7068
▁minua	-9.70706
kymppi	-9.70706
valtuusto	-9.70707
▁tili	-9.70744
▁lapset	-9.70755
▁paikkaa	-9.70809
▁eläin	-9.70878
▁Instagramissa	-9.70901
▁Syyttäjä	-9.70913
▁vaa	-9.70922
▁Vuoden	-9.70942
▁tiedo	-9.70944
neitä	-9.70953
lait	-9.70988
▁pienen	-9.71076
▁huolta	-9.7108
▁Varsinais	-9.71103
legenda	-9.71104
raha	-9.71125
▁huomauttaa	-9.71127
▁suru	-9.71167
▁80	-9.71322
▁Halla	-9.71363
▁eteen	-9.71478
▁erilaisia	-9.71521
▁tunnin	-9.71546
▁sie	-9.7165
▁Kari	-9.71675
▁parin	-9.717
▁sellaista	-9.71728
▁kakkos	-9.71737
telu	-9.71916
▁toisella	-9.71958
▁vetä	-9.72005
▁jalka	-9.72027
▁pakkas	-9.72203
▁hoita	-9.72214
▁muisto	-9.7223
areena	-9.72274
pyör	-9.72284
▁apu	-9.7231
▁hallitukse	-9.72333
▁erityis	-9.72387
wi	-9.72443
▁kons	-9.72477
▁samoi	-9.72484
kirjo	-9.7249
▁minulla	-9.72506
▁harmi	-9.72609
▁liikaa	-9.72616
kainen	-9.7272
kau	-9.72756
emme	-9.72789
▁Seura	-9.72852
▁täysi	-9.72865
ryhmän	-9.72884
▁puolen	-9.72895
ellinen	-9.72898
▁löysi	-9.7291
imi	-9.72955
▁meille	-9.73022
▁tavoite	-9.73088
▁ilmasto	-9.73101
virasto	-9.7316
yd	-9.73176
▁viestipalvelu	-9.73181
kulma	-9.73211
mb	-9.73236
lain	-9.73245
▁vuodessa	-9.73317
talon	-9.73321
▁ydin	-9.73324
llistä	-9.73348
▁Nor	-9.7335
elli	-9.73366
▁kuolema	-9.73424
neista	-9.73475
ilma	-9.73487
▁lyhye	-9.73559
▁katsoi	-9.73576
▁helposti	-9.73621
▁&	-9.73633
▁Rovanperä	-9.73724
▁televisio	-9.73726
▁hotelli	-9.73727
▁liittyvä	-9.73732
▁90	-9.73753
▁Pitkä	-9.7376
▁Marin	-9.73763
▁säästö	-9.73778
teeseen	-9.73791
▁Nämä	-9.7381
▁kei	-9.73897
pel	-9.73906
▁kaup	-9.73913
▁perinteise	-9.73943
▁suurimma	-9.73945
▁tausta	-9.73946
▁ennätys	-9.73952
▁löyty	-9.73971
▁70	-9.73986
▁osallistui	-9.74034
▁kahvi	-9.74041
▁luonnon	-9.74053
koski	-9.7406
▁nap	-9.74114
ensä	-9.74156
▁presidentinvaal	-9.74165
▁koro	-9.74241
oiden	-9.74251
▁pohtii	-9.74285
▁nope	-9.74363
▁syksy	-9.74387
empaa	-9.74396
▁Os	-9.74461
▁vastusta	-9.74479
▁haaste	-9.74574
▁ruu	-9.74593
95	-9.74644
▁maalia	-9.74727
▁päähän	-9.74742
▁avaa	-9.74786
▁osu	-9.74915
▁kuoleman	-9.74922
▁nousee	-9.74975
uro	-9.74995
piiri	-9.75023
ham	-9.75056
kierroks	-9.75126
▁jättä	-9.75127
kul	-9.75144
järven	-9.75156
▁pudot	-9.75211
▁mitali	-9.75263
▁pelk	-9.75283
▁monen	-9.75299
▁Väli	-9.75316
asu	-9.75384
tur	-9.7542
▁kel	-9.7551
▁suomalaisten	-9.7552
tapahtuma	-9.75521
▁suunnitelma	-9.75534
▁suosikki	-9.75671
uttaa	-9.75676
▁lämmi	-9.75753
▁kovi	-9.75765
▁varmaan	-9.75792
▁uutistoimisto	-9.75796
toteut	-9.7582
▁sovi	-9.7582
▁voiton	-9.7583
▁jäte	-9.75915
▁kiekko	-9.75934
▁ampuma	-9.75998
▁seurauksena	-9.75999
▁Hallitus	-9.76049
▁Sanna	-9.76053
▁tot	-9.76088
gh	-9.76097
▁uransa	-9.76111
▁tap	-9.76126
▁tasolla	-9.76148
▁toiseksi	-9.76263
▁pyrki	-9.76323
▁pahoi	-9.76327
▁muoto	-9.76404
▁helmikuussa	-9.76416
▁Por	-9.76468
kenttä	-9.76597
tukseen	-9.76624
▁prinsessa	-9.76626
▁aurinko	-9.76626
▁mieti	-9.76639
kulu	-9.76664
▁varma	-9.76701
▁Luo	-9.76703
▁syksyllä	-9.76758
▁kulta	-9.76821
kentällä	-9.76833
▁vahvistaa	-9.76844
mmaksi	-9.76868
▁syntynyt	-9.76913
▁hätä	-9.77018
12	-9.77024
▁Kii	-9.77024
▁lakko	-9.77037
▁Oulussa	-9.77093
reiden	-9.77103
▁Wa	-9.77139
▁yrittäjä	-9.77151
▁usei	-9.77172
▁ali	-9.77218
luvu	-9.77247
▁autta	-9.77248
ttaminen	-9.77263
tellut	-9.77267
▁missään	-9.77277
▁Seuraava	-9.77313
▁Hil	-9.77316
▁olemassa	-9.77321
ajalla	-9.77349
▁koi	-9.77356
▁edistä	-9.77473
▁pukeutu	-9.775
▁ilmesty	-9.77504
▁aikoina	-9.77547
▁jättää	-9.77551
maailma	-9.77654
▁saaneet	-9.77701
▁neljänne	-9.77795
▁median	-9.77807
vero	-9.7782
▁luu	-9.77831
tavat	-9.77904
▁jatkuva	-9.77964
rah	-9.77994
▁länsi	-9.78021
Britannia	-9.78052
▁harjoitus	-9.7806
▁Kesä	-9.78131
koske	-9.78229
we	-9.78267
istaan	-9.78285
▁toimiva	-9.78297
▁esitys	-9.78305
▁ylivoima	-9.78321
▁tuoree	-9.78327
▁käänty	-9.78444
▁asiakas	-9.78515
▁juoksu	-9.78536
▁BBC	-9.78537
▁Teemu	-9.78537
▁tutustu	-9.78555
▁ymmärtää	-9.7858
▁ongelmia	-9.78583
▁vuosia	-9.78591
▁vahvista	-9.78605
▁maanantai	-9.78644
▁Rai	-9.78688
▁keskusta	-9.78696
▁Eurooppa	-9.78706
▁työtä	-9.7871
▁taakse	-9.78725
▁parhaan	-9.78734
▁prinssi	-9.78751
kaise	-9.78846
ystä	-9.78853
▁tutkinta	-9.78862
▁jatkossa	-9.78879
▁viha	-9.7892
liikenteen	-9.78932
▁raa	-9.78955
▁sijaitsee	-9.78966
▁Kas	-9.78978
▁katk	-9.79024
▁Pir	-9.79082
stettiin	-9.7909
▁tiedot	-9.7914
nainen	-9.79166
liiga	-9.79192
▁Ranta	-9.79225
▁selit	-9.79231
▁rauhan	-9.79247
▁lapsia	-9.79261
▁Maria	-9.79264
▁kilo	-9.7928
▁Reuters	-9.79306
pohja	-9.79339
liikke	-9.79378
▁AFP	-9.79398
teltu	-9.79443
▁lyö	-9.79464
▁Tampereen	-9.79526
▁Kaarina	-9.79615
▁alueelle	-9.79618
▁tunnista	-9.79648
luke	-9.79662
▁Video	-9.79666
ser	-9.79744
▁tilaa	-9.79797
▁ajoneuvo	-9.79834
valiokunnan	-9.79835
muka	-9.79869
▁Jari	-9.79883
▁päin	-9.79888
▁moottori	-9.80013
▁pika	-9.80024
yksiä	-9.80039
▁kotona	-9.80045
▁sydän	-9.8005
▁nopea	-9.80079
▁Onko	-9.80198
▁tietysti	-9.8022
▁Sara	-9.80258
▁nähnyt	-9.80266
▁joulukuussa	-9.80267
▁lopulla	-9.80292
tuo	-9.80355
▁sanottu	-9.80361
▁kome	-9.80416
▁Hyvä	-9.8044
▁Il	-9.80517
▁Lä	-9.80585
mpaan	-9.80613
▁heiko	-9.80634
▁vaihto	-9.80688
▁kala	-9.80693
▁Tilanne	-9.80704
▁Kiinan	-9.80713
Karjala	-9.80738
oksen	-9.81013
▁Kemi	-9.81027
▁huomio	-9.81086
▁tiedossa	-9.81106
▁kuka	-9.81127
▁mer	-9.81224
reissu	-9.81263
▁ajaa	-9.81291
suus	-9.81306
▁asuva	-9.81323
▁aikaisemmin	-9.81371
▁saatiin	-9.81379
ttaisi	-9.814
▁Toivo	-9.81404
arvio	-9.8147
isessä	-9.81476
▁kasvi	-9.81494
▁tuntui	-9.81525
▁suomalaiset	-9.81542
▁Lin	-9.81555
keli	-9.81558
▁siirtyi	-9.81601
▁Tuolloin	-9.81618
▁alun	-9.81628
▁auki	-9.81794
uk	-9.81803
▁Aiemmin	-9.81818
▁joukko	-9.81818
zz	-9.81873
▁tuule	-9.8192
▁Ottelu	-9.81923
kkari	-9.81965
▁vahvasti	-9.82094
tili	-9.821
▁sisään	-9.82148
alueen	-9.82222
▁SDP	-9.82249
tuneet	-9.82283
▁Ruotsissa	-9.8231
▁kovaa	-9.82346
▁ottanut	-9.82435
▁tammikuussa	-9.82472
▁päätyi	-9.82473
▁sauna	-9.82501
toimisto	-9.82514
rikoksesta	-9.82534
▁toiseen	-9.82591
▁aivo	-9.82633
▁kohtalo	-9.82646
rake	-9.82652
▁naapuri	-9.82658
tieto	-9.82699
▁Ur	-9.8272
linja	-9.82737
▁kuningas	-9.82745
▁nykyään	-9.82746
ard	-9.8276
▁kaveri	-9.82813
▁tutkija	-9.82817
▁pyörä	-9.82861
▁nosti	-9.82877
▁tuomari	-9.82897
▁vaikutus	-9.82913
oksi	-9.82922
W	-9.82962
▁ainoastaan	-9.82963
▁yhteiskunna	-9.83071
▁vit	-9.83087
▁syystä	-9.83179
▁suositu	-9.83306
▁fani	-9.83318
▁reagoi	-9.83368
ttaneet	-9.83403
▁selkeä	-9.83412
▁yrittää	-9.8352
luu	-9.83554
▁kävel	-9.83595
▁muistelee	-9.836
▁poikkeuksellise	-9.83602
▁katu	-9.83652
oihin	-9.83694
▁samaa	-9.83705
▁järkyt	-9.83737
▁vettä	-9.83811
▁Siksi	-9.83967
▁valko	-9.83973
▁uima	-9.83994
▁tekemi	-9.84012
▁käräjäoikeus	-9.84045
tön	-9.84117
vir	-9.84196
murha	-9.84204
▁laulaja	-9.84221
▁eräs	-9.84245
▁sito	-9.84253
▁Mal	-9.84271
▁Ensimmäise	-9.84271
▁Palo	-9.84277
▁2017	-9.8429
toon	-9.84292
rd	-9.84299
▁tiedon	-9.84417
▁naura	-9.84422
sää	-9.84436
▁Mäki	-9.84528
▁osavaltio	-9.8455
▁Tästä	-9.8456
▁Kul	-9.84565
▁300	-9.84693
▁antanut	-9.84704
ep	-9.84873
politiikkaa	-9.84925
▁mikään	-9.84933
jana	-9.84981
pal	-9.85011
▁salli	-9.85025
▁tiuk	-9.85044
▁sähköauto	-9.85082
▁Espanja	-9.85086
▁Venäjälle	-9.85126
▁auttaa	-9.8513
▁julkise	-9.85265
tuksessa	-9.85297
che	-9.85297
▁rajoi	-9.85457
▁poistu	-9.85616
▁kuukautta	-9.85657
▁syöpä	-9.8566
isille	-9.85679
▁uhkaa	-9.8574
▁hallin	-9.85774
▁kasvoi	-9.85783
llisten	-9.85797
▁pääty	-9.85824
ilun	-9.85832
▁CNN	-9.85873
▁ukrainalais	-9.85873
tauti	-9.85917
▁huomattavasti	-9.85949
▁hetken	-9.85952
▁Ranskan	-9.86085
▁tutu	-9.86112
▁Tor	-9.86117
▁kerto	-9.86137
▁Lähi	-9.86189
▁raju	-9.8622
kaudella	-9.86229
▁käydä	-9.86305
vuoden	-9.86324
sesta	-9.86333
▁joutunut	-9.86394
mitali	-9.86404
sella	-9.86469
▁korkei	-9.86479
kkeen	-9.86538
▁silmi	-9.86542
▁Ol	-9.86567
▁haki	-9.86635
▁käytetty	-9.86667
udesta	-9.86708
▁varmista	-9.86725
▁Kolme	-9.86734
▁pakko	-9.86788
▁huume	-9.86802
teista	-9.86815
▁aiheutti	-9.86818
kokoukse	-9.86827
▁tarvitaan	-9.86868
puolella	-9.86877
▁joukossa	-9.86881
▁korvaa	-9.86885
▁HS	-9.86892
päin	-9.86901
▁mukava	-9.86922
▁hurja	-9.8696
ttoman	-9.87006
▁väärä	-9.87036
▁Times	-9.87068
▁Talo	-9.87082
▁Bar	-9.87129
▁kansallis	-9.8714
laan	-9.87214
▁Muu	-9.87217
▁omat	-9.87245
merkin	-9.87281
▁voittaa	-9.87289
▁suunta	-9.87322
▁mielessä	-9.87343
▁tal	-9.87435
muoto	-9.87461
▁syyskuussa	-9.87501
luokka	-9.87511
▁etteivät	-9.87513
▁synny	-9.87542
▁400	-9.87572
▁oikeasti	-9.87581
ikan	-9.87589
▁mö	-9.87632
▁antama	-9.87642
▁meno	-9.87653
luokan	-9.87654
neuvottelu	-9.87661
▁juna	-9.87671
lauta	-9.87705
▁esille	-9.87705
mpe	-9.87753
25	-9.87794
mur	-9.87802
▁kannatus	-9.87844
▁ope	-9.87849
▁viittaa	-9.87874
todennäköis	-9.87905
▁Unkari	-9.87974
paikkoja	-9.88036
mieli	-9.88075
▁osin	-9.88101
▁ensimmäisenä	-9.88164
▁väki	-9.88188
▁kritisoi	-9.88207
▁astetta	-9.88212
▁pelin	-9.88218
linna	-9.88243
▁Varha	-9.88259
simme	-9.88353
asiantuntija	-9.88375
▁yliopiston	-9.88397
▁suosio	-9.88399
▁tiedotus	-9.88449
▁näitä	-9.88453
▁vastustaja	-9.88489
▁kevään	-9.88601
▁31	-9.8865
veli	-9.88671
▁löytää	-9.8868
▁miljardi	-9.88689
▁Ukrainaan	-9.88746
viesti	-9.88779
tion	-9.88897
▁suomalaisen	-9.88897
▁Joukkue	-9.8892
ruu	-9.88922
änsä	-9.8898
▁numero	-9.89041
▁Kivi	-9.89044
▁Olin	-9.8908
pyy	-9.89113
▁katsoja	-9.89183
▁asetta	-9.89212
▁inno	-9.8924
dia	-9.89241
▁tiety	-9.89287
▁marraskuussa	-9.89322
▁aktiivi	-9.89349
▁Urheilu	-9.89395
▁molemmat	-9.89395
▁kesäkuussa	-9.89395
▁tehdy	-9.894
▁osto	-9.89405
lehdelle	-9.89412
ttaisiin	-9.89413
lau	-9.89421
▁muuten	-9.89429
▁Euro	-9.89458
▁tuu	-9.89512
issaan	-9.89574
▁myöntää	-9.89615
▁näe	-9.89623
▁Vielä	-9.89635
▁kuvaili	-9.89636
▁paljastaa	-9.89686
▁valinta	-9.89699
isuuden	-9.89756
▁lämpö	-9.89776
historia	-9.8978
ehdokas	-9.8983
rada	-9.89844
▁piir	-9.89877
▁päättää	-9.89921
▁Pol	-9.89955
▁mieleen	-9.89957
▁kuuluva	-9.90033
▁yrityksen	-9.90071
▁tarvi	-9.90098
▁Toyota	-9.90114
▁puolet	-9.90115
▁tietoja	-9.90123
▁kuvia	-9.90259
▁di	-9.90275
muksen	-9.90285
▁yllätys	-9.90314
käyttö	-9.90325
▁kolmi	-9.90332
▁toukokuussa	-9.90355
ope	-9.90379
▁este	-9.90401
▁Gi	-9.90409
▁yhtään	-9.90448
▁kertoivat	-9.90456
pela	-9.90493
▁Niko	-9.90591
▁Yhde	-9.90616
elma	-9.90623
vesi	-9.9065
▁vajaa	-9.90654
▁muisti	-9.90662
▁jul	-9.90721
▁Luu	-9.90794
▁poista	-9.90796
▁asiakkai	-9.90844
▁Sch	-9.90911
yksi	-9.90932
▁opi	-9.90951
▁päi	-9.91012
Suomessa	-9.91057
operaatio	-9.91058
▁kolmanne	-9.91231
päivää	-9.91265
▁hyviä	-9.91296
▁kolmas	-9.91306
mpien	-9.91343
▁tytö	-9.91349
▁hymy	-9.91375
▁paitsi	-9.91407
▁Taka	-9.91563
▁viimeinen	-9.91626
▁järjest	-9.91627
▁samassa	-9.91728
▁Oh	-9.91788
▁oppositio	-9.91813
▁Mäkelä	-9.91814
▁tö	-9.91827
▁ainakaan	-9.91854
▁kumma	-9.91927
liito	-9.91962
▁haluaisi	-9.91986
▁kasvaa	-9.92079
▁tilasto	-9.92093
▁Marko	-9.92111
kerta	-9.9212
istään	-9.92128
▁lokakuussa	-9.92182
▁ministeri	-9.92187
kiertue	-9.92221
▁Puu	-9.92285
▁Aika	-9.92291
▁Syyria	-9.92334
▁Mil	-9.92347
▁sieltä	-9.92408
+1	-9.9241
▁esittää	-9.92411
▁ulkoministeri	-9.9242
▁Ry	-9.92468
hdin	-9.92536
▁Aalto	-9.92551
ler	-9.92601
▁teksti	-9.92615
▁mestari	-9.92659
▁kaatu	-9.92727
▁tulevi	-9.92736
▁tavoin	-9.92799
▁noudat	-9.92801
niemen	-9.92805
+	-9.9283
▁aikataulu	-9.92835
▁asteen	-9.92856
▁Ukrainalle	-9.92894
työn	-9.9291
▁hanki	-9.92916
▁hänestä	-9.92942
▁Nainen	-9.92968
▁kiito	-9.92981
mys	-9.92999
eihin	-9.93026
▁Sdp	-9.93046
▁valmistautu	-9.93131
▁veden	-9.9318
▁koulun	-9.93184
▁ajattele	-9.93217
nnista	-9.93225
▁Pelto	-9.93271
tuvat	-9.93283
▁Gazan	-9.93294
▁Kaleva	-9.93303
▁laittaa	-9.93349
stetaan	-9.93369
▁of	-9.93396
▁otettu	-9.93433
11	-9.93457
saira	-9.93483
▁käynnissä	-9.93542
ralli	-9.9356
▁tavara	-9.93579
▁hyväksi	-9.93581
▁Hanna	-9.93585
ze	-9.93623
▁liikunta	-9.93634
tyyppi	-9.93635
▁kierroksella	-9.93639
Ma	-9.93642
▁maata	-9.93665
▁Minulla	-9.93684
▁Linnan	-9.9369
▁suuren	-9.93702
▁toive	-9.93722
▁järjestetään	-9.93795
▁tuomittiin	-9.93856
▁lauantai	-9.93951
prosentti	-9.93972
ähtä	-9.94005
▁Suomesta	-9.94014
hyökkääjä	-9.94069
▁Lei	-9.94093
yydestä	-9.94197
▁Mai	-9.94255
▁omia	-9.94255
▁tällaise	-9.94297
rie	-9.94309
▁William	-9.94317
▁palkinto	-9.94331
▁Miten	-9.9435
tyvät	-9.94355
tyksestä	-9.94358
talli	-9.94388
▁paljas	-9.94416
▁perä	-9.94457
▁aio	-9.94467
▁tuomi	-9.945
▁Leh	-9.9451
kielto	-9.94517
ehdokkai	-9.94543
vahinko	-9.94549
▁näki	-9.94591
teisiin	-9.94621
▁tunnetaan	-9.94694
▁Yh	-9.94718
ttäneet	-9.94765
▁lapse	-9.94814
ohja	-9.94842
teltiin	-9.94846
▁äänestys	-9.94851
▁merkittävästi	-9.94868
▁maaliskuussa	-9.94872
▁lähtenyt	-9.94881
poli	-9.95035
▁Jyväskylä	-9.95047
▁eduskunnan	-9.95048
▁perussuomalaist	-9.95049
▁Nyky	-9.9505
koko	-9.95058
▁entisen	-9.95086
llisuus	-9.95162
valtio	-9.95203
liike	-9.95288
ippu	-9.95322
▁mukaisesti	-9.95339
▁loukkaantu	-9.95345
joukkueen	-9.95354
▁häiriö	-9.95409
kerr	-9.95423
▁kuule	-9.9543
▁öljy	-9.95482
meri	-9.95515
▁tarjolla	-9.95582
valo	-9.95645
steli	-9.95663
▁Usko	-9.95666
▁pysyvä	-9.95676
▁parhai	-9.95722
▁syvä	-9.95738
▁as	-9.95741
▁uran	-9.95807
▁runkosarja	-9.95809
▁Kalle	-9.95824
villa	-9.95829
idi	-9.95866
▁herk	-9.9593
▁keskustelua	-9.95959
▁kyy	-9.95969
▁illan	-9.95998
▁järjestö	-9.96037
▁johtava	-9.96075
tänyt	-9.96128
tekijä	-9.96129
▁kol	-9.96162
▁Kirja	-9.96197
▁parhaa	-9.96198
ksessä	-9.96203
▁videolla	-9.96206
ltään	-9.96294
▁elokuussa	-9.9632
▁alkanut	-9.96321
▁selvää	-9.9634
yhdiste	-9.96351
▁tulipalo	-9.96362
hankkee	-9.96387
▁asioista	-9.9642
▁sairaalaan	-9.96441
▁kiva	-9.96472
▁Elo	-9.96497
▁korostaa	-9.9659
▁lupaa	-9.96596
laki	-9.9661
gon	-9.96614
▁Tätä	-9.96647
▁Jenni	-9.9666
▁selvittää	-9.96667
oh	-9.96723
▁katsoa	-9.96725
▁maku	-9.96757
▁muistaa	-9.96832
▁jälki	-9.96833
▁yhtenä	-9.96834
▁Meidän	-9.96857
▁matkaa	-9.96868
▁hahmo	-9.96879
▁pystyi	-9.9689
▁hevos	-9.96894
▁sulke	-9.96928
▁tue	-9.96935
illut	-9.96942
uutis	-9.96953
ääri	-9.96996
ttuja	-9.97052
ystävä	-9.9708
▁videon	-9.97081
rakennukse	-9.9711
▁keskeyt	-9.97138
paino	-9.97151
HL	-9.97158
kkoja	-9.97161
kansa	-9.97161
perhe	-9.97255
▁halli	-9.97264
▁Harrisin	-9.97322
▁toisi	-9.97356
▁vaikeaa	-9.97394
▁henkilöä	-9.97427
▁pahe	-9.97445
▁osoitta	-9.97456
pala	-9.97497
rr	-9.97544
▁Euroopassa	-9.97556
▁45	-9.97576
ilmoitus	-9.97601
▁pidetään	-9.97609
▁hengen	-9.97611
▁Ihan	-9.97611
▁koho	-9.97631
▁tärkei	-9.97673
suu	-9.97718
taulu	-9.97796
kertainen	-9.97828
▁tavoitteena	-9.9787
▁Japani	-9.97873
joen	-9.97903
▁Eri	-9.97929
land	-9.97957
kyvy	-9.98037
▁hirveä	-9.98129
▁Daniel	-9.98131
koon	-9.98133
▁arki	-9.98161
▁vaihtu	-9.98174
▁sanonut	-9.982
▁taju	-9.98203
laji	-9.98231
▁puhui	-9.98294
oppi	-9.98302
]	-9.9839
siko	-9.98521
▁tiedotti	-9.98544
ajat	-9.98575
▁sopimuksen	-9.98588
▁kohta	-9.98588
▁välise	-9.98591
▁Iranin	-9.98601
▁pelo	-9.98653
▁Sport	-9.9866
hoitaja	-9.98676
▁ravi	-9.98683
▁Las	-9.98688
▁syyttäjä	-9.98697
16	-9.98707
▁toivoo	-9.98716
▁5-	-9.98718
▁Italia	-9.98726
▁muuttaa	-9.98834
▁ajatus	-9.9886
▁keksi	-9.98862
▁USA	-9.98929
▁vierailu	-9.98949
yli	-9.98958
ohjelmassa	-9.98991
▁lait	-9.99029
▁elo	-9.99051
sor	-9.99053
▁My	-9.99071
järvi	-9.99107
▁saama	-9.9915
▁julkisuudessa	-9.99177
▁Moskova	-9.99178
▁jutu	-9.99188
tähden	-9.99191
vaaleissa	-9.99211
▁hää	-9.99211
teja	-9.99219
numero	-9.99312
▁loi	-9.99419
▁ulkomai	-9.99422
▁Ehkä	-9.99444
vaihdo	-9.99461
▁jouko	-9.99474
väline	-9.99479
mö	-9.9951
▁väärin	-9.99546
ido	-9.99574
▁Kär	-9.99579
▁perään	-9.99584
▁katsoo	-9.99594
maiden	-9.99604
▁Aja	-9.99626
hel	-9.99669
▁[	-9.99722
▁2014	-9.99725
▁kumppani	-9.99727
tumaan	-9.99732
▁vakavasti	-9.99768
▁Sha	-9.9978
tellyt	-9.99815
etu	-9.99856
gra	-9.99861
▁rakenne	-9.99889
▁tuoda	-9.99902
vaan	-9.99935
▁HIFK	-9.99971
▁nimenomaan	-9.99971
▁Joensuu	-9.99971
▁har	-9.99992
uksella	-9.99993
▁ehdokas	-10.0002
▁Juttu	-10.0002
▁kal	-10.0003
18	-10.0008
vuutta	-10.0014
▁laite	-10.0017
▁odotetaan	-10.0024
▁suurempi	-10.0025
▁ba	-10.0027
tz	-10.0032
▁vaurioi	-10.0038
▁kiinnostu	-10.0039
suojelu	-10.0041
▁muutti	-10.0042
▁talon	-10.0048
▁Oikeus	-10.005
▁sunnuntai	-10.0053
ettava	-10.0055
▁nu	-10.0058
▁henkilöstö	-10.0059
▁Red	-10.0059
▁kiinnosta	-10.006
▁hyödy	-10.0064
▁tytär	-10.0065
isissa	-10.0066
oissa	-10.0071
▁Sää	-10.008
▁muutoksia	-10.0091
käs	-10.0094
imen	-10.0098
▁tapasi	-10.0098
▁voimaan	-10.0099
kisoihin	-10.0105
▁ulkopuolella	-10.0106
▁nuoren	-10.0107
▁lainkaan	-10.0111
utuva	-10.0111
▁hyökkääjä	-10.0117
▁kerää	-10.0119
▁tekevät	-10.0122
otte	-10.0127
paikkaa	-10.0128
▁Sta	-10.0129
▁artikkeli	-10.0131
ros	-10.0133
vuotiaiden	-10.0134
▁Elä	-10.0135
cia	-10.0135
ykseen	-10.0138
▁jäädä	-10.0142
manin	-10.0145
▁heikko	-10.0145
mestari	-10.0146
▁hovi	-10.015
▁Olisi	-10.0151
▁Sam	-10.0152
cu	-10.0153
▁vangit	-10.0154
▁pyysi	-10.0159
lasku	-10.0176
▁huolto	-10.0181
▁rahoitus	-10.0185
mpiä	-10.0191
▁Kal	-10.0191
ttivat	-10.0193
toimittaja	-10.0196
kiä	-10.0197
ikkaa	-10.0197
kkö	-10.0199
▁vaimonsa	-10.0201
▁joko	-10.0203
▁yhteisö	-10.0204
teistä	-10.0205
bor	-10.0207
▁kaikista	-10.0212
▁paikallise	-10.0212
▁Ab	-10.0212
hinta	-10.0213
▁suhde	-10.0219
paikalla	-10.0227
40	-10.023
▁aiempaa	-10.0241
▁selvisi	-10.0243
PS	-10.0249
finaali	-10.0254
▁kuolleen	-10.0255
▁kauan	-10.0258
▁pyytää	-10.0261
▁Vain	-10.0265
▁aamulla	-10.0269
▁kertoa	-10.0269
tettua	-10.0269
▁raskaa	-10.0271
▁heistä	-10.0272
▁elämässä	-10.0274
▁luonto	-10.0281
▁maasto	-10.0283
▁talouden	-10.0287
video	-10.029
▁johti	-10.0293
▁aluksi	-10.0293
▁suoritus	-10.0293
▁Päivä	-10.0294
▁pil	-10.0295
teessa	-10.0295
▁täyttä	-10.0295
▁epäilee	-10.0299
▁toisessa	-10.0301
▁väkivalta	-10.0302
▁vene	-10.0304
kaveri	-10.0306
▁Usei	-10.0308
▁kato	-10.0312
utua	-10.0313
▁kilpaile	-10.0315
▁varsinkin	-10.0316
tyksiä	-10.0317
▁laita	-10.0319
▁jaksossa	-10.032
ula	-10.0321
sessa	-10.0327
▁City	-10.0332
▁rangaistus	-10.0335
▁juontaja	-10.0337
▁15-	-10.0341
▁osui	-10.0344
▁hiljattain	-10.0348
▁sellaisia	-10.0349
▁puolelle	-10.0353
▁heille	-10.0354
▁löytynyt	-10.0356
kla	-10.0357
säännö	-10.0357
▁hävisi	-10.0358
▁ammattilais	-10.036
▁koki	-10.0363
▁dollaria	-10.0366
å	-10.0376
▁Toisaalta	-10.0376
▁liittyen	-10.0376
▁rai	-10.0387
▁komp	-10.0388
▁kunta	-10.0391
▁32	-10.0393
▁onnistunut	-10.0397
▁alta	-10.0398
johto	-10.0402
▁hyvi	-10.0403
tämään	-10.0405
iselta	-10.0407
▁kannata	-10.0408
▁Viro	-10.0409
▁väestö	-10.0413
▁Salossa	-10.0416
▁Ruu	-10.0418
joille	-10.0419
▁sotaa	-10.0422
▁käräjäoikeude	-10.0429
▁Koska	-10.0429
▁pii	-10.0431
tausta	-10.0431
▁huhtikuussa	-10.0431
▁Viesti	-10.0437
▁pääsy	-10.044
▁nähden	-10.0459
▁vaiva	-10.046
▁tiivis	-10.0462
▁niihin	-10.0463
▁Tutki	-10.0463
▁iltapäivällä	-10.0464
tteiden	-10.0475
▁nau	-10.0476
▁keikka	-10.0484
▁yhdysvaltalais	-10.0487
▁yhteyttä	-10.0487
▁myönsi	-10.0487
▁sammu	-10.0489
▁heinäkuussa	-10.0497
ntia	-10.0504
▁34	-10.0505
▁Mur	-10.051
▁pien	-10.0511
▁lupa	-10.0514
▁kokoomuksen	-10.0515
▁Tampereella	-10.0517
▁Hur	-10.0517
dra	-10.052
mitta	-10.0521
▁purka	-10.0525
kkaita	-10.0526
▁hö	-10.053
yrityksi	-10.0536
ttavissa	-10.0536
▁törmä	-10.0538
▁pelkästään	-10.0543
▁tunnelma	-10.0544
▁lähinnä	-10.0544
▁36	-10.0545
▁loukkaantui	-10.0553
▁edu	-10.0557
▁Sano	-10.0557
▁luonno	-10.0558
jiä	-10.0564
▁kunto	-10.057
▁tosin	-10.0571
▁nimittäin	-10.0571
▁tapahtunee	-10.0576
▁yksilö	-10.0586
▁Hänellä	-10.0586
▁kuuden	-10.0586
▁Joki	-10.0591
▁pinta	-10.0595
palo	-10.0598
▁Niskanen	-10.0599
▁lahja	-10.06
emmä	-10.0604
▁hidas	-10.0611
▁Molemm	-10.0613
kov	-10.0614
▁Emme	-10.0616
▁jaksa	-10.0619
▁Virta	-10.0622
▁peri	-10.0624
studio	-10.0627
▁parhaillaan	-10.063
▁tuskin	-10.0633
▁eduskunta	-10.0637
▁pelasta	-10.0642
▁piiri	-10.0651
alisti	-10.0652
▁eroa	-10.0653
▁tyytyväinen	-10.0656
▁Koivu	-10.0656
ttäisi	-10.0657
▁vauva	-10.0658
lähetyks	-10.066
▁Britannian	-10.0663
▁tuote	-10.0664
▁kokenut	-10.0664
▁sanotu	-10.0665
▁yhtiön	-10.067
zi	-10.067
▁Anni	-10.0671
▁määrää	-10.0672
kumppani	-10.0677
▁Haapa	-10.068
vuotiai	-10.0683
▁etukäteen	-10.0684
▁Cup	-10.0687
pula	-10.0687
▁super	-10.0694
▁Perhe	-10.0695
▁tiedottaa	-10.0697
▁kuuluvat	-10.0698
▁isänsä	-10.0703
▁käynnisty	-10.0705
▁itä	-10.0714
▁kie	-10.0716
▁Or	-10.0723
▁kylä	-10.0726
ttajien	-10.0734
▁sal	-10.0734
pl	-10.0735
eistä	-10.0739
▁saattoi	-10.0743
▁Valko	-10.0743
▁tuk	-10.0744
▁kaikkiaan	-10.0746
▁Lopulta	-10.0749
▁selkä	-10.075
▁poliisille	-10.0752
▁kisan	-10.0755
▁sil	-10.076
▁vaaleissa	-10.0761
▁Wal	-10.0764
▁tarvitsee	-10.0767
▁astu	-10.0767
tuomio	-10.0768
▁julkisuuteen	-10.077
▁lämpimä	-10.077
▁Kamala	-10.077
▁selviää	-10.0777
▁käytetään	-10.0778
▁etene	-10.0778
▁puhua	-10.0781
▁allekirjoit	-10.0782
▁Star	-10.0788
paine	-10.079
90	-10.0793
▁asuu	-10.0802
ttomasti	-10.0802
▁matala	-10.0805
▁Loimaa	-10.0805
▁kapteeni	-10.0807
sar	-10.0807
▁maiden	-10.0807
▁kyseise	-10.0814
▁Ly	-10.0814
▁Martin	-10.0817
pakka	-10.0819
▁ikävä	-10.0823
▁hävi	-10.0825
▁Washington	-10.0827
▁Joulu	-10.0828
▁kasvanut	-10.0833
▁Venäjää	-10.0845
▁valittiin	-10.0849
aattori	-10.085
kuski	-10.085
▁vaikutti	-10.0853
yttää	-10.0858
▁kertoma	-10.0859
▁väitti	-10.086
uhka	-10.0868
▁pitkin	-10.088
rikoksista	-10.0885
▁tuolla	-10.0885
▁kriisi	-10.0885
▁kerralla	-10.0886
▁huomasi	-10.0886
▁Tähän	-10.0889
▁Jää	-10.0894
▁Jul	-10.0897
kilpailussa	-10.0899
▁harki	-10.0899
llut	-10.0905
koti	-10.0913
▁amerikkalais	-10.0914
▁tietä	-10.0915
▁seinä	-10.0916
▁Henri	-10.0919
▁muodostu	-10.0921
▁jutussa	-10.0923
▁siten	-10.0923
Ka	-10.0925
tappio	-10.093
▁tappa	-10.0931
hetke	-10.0933
▁pystynyt	-10.0936
les	-10.0936
mal	-10.0938
vistä	-10.094
▁start	-10.094
▁minuutin	-10.0941
ttavia	-10.0943
▁sekuntia	-10.0944
hal	-10.0944
▁Koulu	-10.0944
▁ydinase	-10.0946
▁soitti	-10.0946
▁hil	-10.0951
▁harrasta	-10.0952
▁lukemi	-10.0953
musta	-10.0955
▁Trumpia	-10.0961
▁tul	-10.0969
holm	-10.097
▁opettaja	-10.0975
sopimus	-10.0977
▁tulevan	-10.098
▁toisin	-10.0982
▁kestää	-10.0988
tettävä	-10.1
▁For	-10.1007
taistelu	-10.1011
sd	-10.1016
od	-10.1018
▁haluavat	-10.1022
aamu	-10.1023
▁julkaisema	-10.1025
▁pelata	-10.1027
▁aikojen	-10.1032
▁lukio	-10.1032
▁Tom	-10.104
▁velje	-10.104
osto	-10.1042
▁Tänä	-10.1046
viiva	-10.105
seksi	-10.1059
▁Vanha	-10.1061
▁Päivi	-10.1061
▁tapaan	-10.1061
▁lausunto	-10.1065
▁sijoittui	-10.1066
Stubb	-10.1066
▁Pääministeri	-10.1066
pö	-10.1076
▁Ali	-10.1084
ld	-10.1089
▁Pelicans	-10.1091
▁Barkov	-10.1092
▁kierroksen	-10.1092
ttivät	-10.1098
▁matkan	-10.1109
immat	-10.111
▁am	-10.111
▁vamma	-10.1112
saari	-10.1118
▁puhutaan	-10.112
▁vieraili	-10.1121
tuotteita	-10.1125
ttäisiin	-10.1126
▁radio	-10.1129
veto	-10.113
▁tarkist	-10.1131
lvi	-10.1134
▁kasa	-10.1134
shi	-10.1139
▁uudis	-10.1142
▁John	-10.1148
paikasta	-10.115
▁Maailman	-10.115
▁raportoi	-10.1152
▁matkalla	-10.1154
kalta	-10.1159
kylä	-10.1163
gg	-10.1167
▁osuus	-10.1173
mmät	-10.1176
lund	-10.1176
▁20-	-10.1178
liigan	-10.1178
▁epäonnistu	-10.118
▁tilanteeseen	-10.118
▁kuulla	-10.1184
istui	-10.1187
▁ympärillä	-10.1187
▁Hamasin	-10.1192
▁Jani	-10.1193
▁professori	-10.1195
▁Gre	-10.1195
▁aine	-10.1196
kaudesta	-10.1196
▁avo	-10.1197
▁valita	-10.12
▁täyte	-10.1203
▁viestintä	-10.1208
▁siviili	-10.121
▁vuodelta	-10.121
▁edellä	-10.121
kaapeli	-10.1211
▁huolissaan	-10.1212
▁hinna	-10.1216
▁Mikael	-10.1224
▁33	-10.1226
▁illalla	-10.1226
▁aj	-10.1229
▁kestävä	-10.1229
▁sade	-10.123
▁heng	-10.1233
▁joukkoon	-10.1235
▁haavoittu	-10.124
▁Monet	-10.1243
isivat	-10.1243
▁välittömästi	-10.1243
▁puhuu	-10.1249
▁tapaus	-10.125
▁huoli	-10.1253
▁Emil	-10.1254
ou	-10.1254
Korean	-10.1254
ttävää	-10.1256
▁hankala	-10.1263
▁operaatio	-10.1273
▁lähetti	-10.1273
▁pelastus	-10.1275
ling	-10.1281
▁lipu	-10.1287
▁Tei	-10.1296
mätön	-10.1297
talous	-10.13
lohko	-10.13
▁suunnittele	-10.13
▁Liiga	-10.1301
ismi	-10.1304
▁ensimmäise	-10.1305
▁valitse	-10.1309
▁kokee	-10.131
tyksessä	-10.1321
▁tiedustelu	-10.1321
▁Anne	-10.1323
▁News	-10.1328
▁ranta	-10.1331
▁upea	-10.1332
▁miehet	-10.1338
▁britti	-10.1339
▁ilmiö	-10.1342
liigassa	-10.1343
Uudenmaan	-10.1348
▁seiso	-10.1351
▁Lapissa	-10.1355
▁Kansa	-10.1356
rvi	-10.136
▁ennakoi	-10.1361
▁merkittävi	-10.1361
▁ruotsalais	-10.1363
▁vankila	-10.1364
▁Loppu	-10.1366
hetki	-10.1378
ittain	-10.1379
▁kerä	-10.1383
▁ota	-10.1385
▁viranomaiset	-10.1386
▁luottamus	-10.139
▁Rovaniemen	-10.1391
▁Sähkö	-10.1391
isuuteen	-10.1393
▁laski	-10.1401
▁Maan	-10.1401
tyyli	-10.1402
tilillään	-10.1405
▁laina	-10.1406
▁omasta	-10.141
▁homma	-10.1412
▁tarttu	-10.1415
▁Koskela	-10.1422
▁tuomitsi	-10.1423
▁Robert	-10.1423
▁parasta	-10.1428
▁Hau	-10.1431
oikeuden	-10.1433
ohje	-10.1434
▁Ad	-10.1435
▁Vuosi	-10.1438
▁esitti	-10.144
▁saattavat	-10.1445
▁ele	-10.145
▁väliin	-10.145
▁Englanni	-10.1453
▁joulukuuta	-10.1453
▁tietenkin	-10.1453
▁todista	-10.1453
palkinno	-10.1456
▁lippu	-10.146
▁paljasti	-10.1468
ey	-10.1469
luku	-10.1474
▁Kokko	-10.1477
▁maailmanmestari	-10.1486
▁Media	-10.1489
▁Innes	-10.149
meno	-10.1491
▁totta	-10.1493
▁keskustan	-10.1496
▁oikeuden	-10.1503
▁mestaruus	-10.1504
▁edellisen	-10.1505
voiton	-10.1513
▁pysähty	-10.1514
▁parissa	-10.1517
▁Simo	-10.1517
▁Uutis	-10.1518
▁tyhj	-10.1521
ttamista	-10.1526
▁Bri	-10.1526
kappale	-10.1528
▁Air	-10.1528
miselle	-10.1529
▁Viron	-10.1529
▁muuttui	-10.153
▁Aki	-10.153
▁huomaa	-10.1532
▁käytöstä	-10.1538
▁seuraaja	-10.1542
▁sydäme	-10.1545
▁vihreä	-10.1546
pur	-10.1547
▁hehku	-10.1547
▁2015	-10.155
▁Vantaan	-10.1551
neeseen	-10.1558
▁turvallis	-10.1558
▁Espanjan	-10.1558
telty	-10.1568
▁tulevaisuudessa	-10.1569
▁Esi	-10.157
▁rakasta	-10.1574
▁luvassa	-10.1577
ruoka	-10.158
▁Käy	-10.1586
▁elää	-10.1599
▁Alku	-10.1601
toimet	-10.1604
kortti	-10.1605
▁lauantain	-10.1606
▁Australia	-10.1607
▁louk	-10.1609
pussi	-10.1611
▁viedä	-10.162
▁täyden	-10.162
kunto	-10.162
lasi	-10.1627
▁artisti	-10.1628
▁epäillyn	-10.1631
▁sanotaan	-10.1632
loma	-10.1637
tonta	-10.1637
▁siirto	-10.1637
▁tällainen	-10.1639
▁näiden	-10.1642
kli	-10.1645
▁ehtinyt	-10.165
▁estä	-10.1653
partio	-10.1654
▁avautu	-10.1657
▁ystäv	-10.166
▁Kahde	-10.1664
tsu	-10.1666
▁yllättäen	-10.167
putki	-10.167
tsh	-10.1679
▁osoittaa	-10.1684
▁Riikka	-10.1689
▁matkustaja	-10.1694
alus	-10.1697
▁terä	-10.1701
▁keskimäärin	-10.1702
▁valvonta	-10.1703
▁voittoa	-10.1706
▁materiaali	-10.1711
▁Kyl	-10.1712
▁ollessa	-10.1714
Korea	-10.1716
vuotiasta	-10.1718
▁Carl	-10.1721
▁muistel	-10.1729
▁Yhtiö	-10.1733
▁heikentä	-10.1733
▁maalivahti	-10.1735
mmalla	-10.1738
▁urallaan	-10.1739
▁viide	-10.1739
▁West	-10.174
▁Musk	-10.1742
▁naiset	-10.1743
nimi	-10.1744
▁muuttunut	-10.1745
▁suurta	-10.1748
▁viisu	-10.1748
teihin	-10.1749
▁asui	-10.1754
uudet	-10.1755
vuoro	-10.1755
▁vaka	-10.1755
kala	-10.1758
35	-10.176
turnaus	-10.1762
▁liittyvät	-10.1764
▁Ilmatieteen	-10.1765
▁sisältö	-10.1765
▁Tulo	-10.1765
pelissä	-10.1768
kisat	-10.1769
▁joihin	-10.1773
▁keväänä	-10.1776
▁suuria	-10.1779
▁lukema	-10.1789
oikeuteen	-10.179
▁toden	-10.1791
▁syv	-10.1792
▁maaliin	-10.1793
vahti	-10.1803
▁maailmaa	-10.1804
▁historian	-10.1814
häiriö	-10.1815
▁jossain	-10.1815
▁piilo	-10.1816
tteri	-10.1818
▁hauska	-10.182
▁uhrin	-10.1821
evä	-10.1826
nder	-10.1827
▁HJK	-10.1828
▁tarkemmin	-10.1828
oikeutta	-10.1829
▁esiintyi	-10.1833
järjestely	-10.1836
▁rikollis	-10.1836
▁omalla	-10.1841
uutensa	-10.1843
▁hyödyntä	-10.1844
▁syksynä	-10.1844
prosessi	-10.1847
▁pojan	-10.185
br	-10.1851
turnaukse	-10.1855
maajoukkue	-10.1855
▁Neljä	-10.186
▁epävarm	-10.1861
▁37	-10.1863
▁täys	-10.1864
▁Alue	-10.1864
▁Fo	-10.1864
▁innostu	-10.1865
kentän	-10.1866
korva	-10.1866
▁ikinä	-10.1867
▁liiku	-10.1867
suunnitelma	-10.188
▁kisaa	-10.1881
▁huomioon	-10.1886
▁Harkimo	-10.1892
▁Isä	-10.1894
vah	-10.1897
pro	-10.1902
▁ammu	-10.191
▁eurolla	-10.1911
▁savu	-10.1914
taito	-10.1914
▁Tuu	-10.1916
▁bussi	-10.1925
taiteilija	-10.1927
▁hyvinvointi	-10.1927
▁kaupungissa	-10.1933
isä	-10.1934
▁puhelin	-10.1938
▁sote	-10.194
▁taide	-10.194
isestä	-10.1944
▁alkavat	-10.1947
neesta	-10.1947
immista	-10.1948
▁Rantanen	-10.1949
▁Hänet	-10.195
▁jakoi	-10.195
▁valvo	-10.1952
▁Puhe	-10.1953
▁milloin	-10.1962
▁kulku	-10.1965
▁välierä	-10.1966
▁Miksi	-10.1969
uudelle	-10.197
▁käytti	-10.1973
tuki	-10.1974
yyde	-10.1975
aikaa	-10.1982
▁kipu	-10.1986
▁yhteise	-10.1987
far	-10.1987
▁ikkuna	-10.199
▁Nokia	-10.1992
ffe	-10.1992
▁keskiviikko	-10.1993
▁pysäyttä	-10.1993
17	-10.1994
▁viranomais	-10.2
etään	-10.2003
▁nolla	-10.2003
▁ensimmäisellä	-10.2004
▁ilm	-10.2007
▁Vier	-10.2008
▁tavallise	-10.2008
▁Hallitukse	-10.201
oikeus	-10.201
▁laiva	-10.201
▁jokainen	-10.2013
myy	-10.2016
▁tyhjä	-10.2017
▁lehdistö	-10.2021
▁rauhoit	-10.2022
▁ohella	-10.2022
▁nuoret	-10.2025
▁naista	-10.2028
▁epäily	-10.2032
▁Enti	-10.2035
▁Max	-10.2039
▁aiheuttanut	-10.2044
▁vanhempi	-10.2045
▁kaupan	-10.2051
▁täynnä	-10.2054
▁askel	-10.2061
sivu	-10.2064
▁elämään	-10.2067
▁suomen	-10.2067
kokemukse	-10.2068
▁ohjelmassa	-10.2077
▁suomalaista	-10.2077
▁peliä	-10.2083
▁pronssi	-10.2083
▁Saksassa	-10.2084
ffi	-10.2084
▁markkinoi	-10.2085
▁leiri	-10.2085
▁Kallio	-10.2087
pano	-10.2088
▁muihin	-10.2096
▁valitsi	-10.2096
▁Sisä	-10.2109
tilanteessa	-10.2112
▁harv	-10.2113
▁Kuvassa	-10.2115
▁kunnan	-10.2116
▁liigan	-10.2116
▁jatkuvasti	-10.2117
▁Kuopio	-10.212
▁Siihen	-10.212
▁testi	-10.212
telee	-10.212
▁omaan	-10.2122
hko	-10.2124
▁Vali	-10.2126
oikeisto	-10.2127
▁rakas	-10.213
▁pyrkii	-10.2137
▁henkilöauto	-10.2138
▁Uuden	-10.2142
puheenjohtaja	-10.2144
▁lausu	-10.215
▁vallan	-10.215
▁Juuso	-10.2154
▁vapaaehtois	-10.2154
▁Vo	-10.2155
▁otettiin	-10.2155
▁näistä	-10.2155
▁talven	-10.2156
▁erässä	-10.2162
▁ajankohta	-10.2163
▁koulutus	-10.2166
▁Vuori	-10.2167
zin	-10.2169
utuminen	-10.217
ved	-10.2178
▁kaiva	-10.2181
▁poikkeus	-10.2185
komissio	-10.2186
valiokunta	-10.2186
▁irti	-10.2187
ksella	-10.2189
rauha	-10.2191
▁keräsi	-10.2193
▁Haka	-10.2194
▁kokoonpano	-10.2195
▁ensimmäisessä	-10.2206
▁liki	-10.2207
▁pommi	-10.2209
aikaan	-10.2211
sana	-10.2211
▁aiheuttama	-10.2213
▁yksittäis	-10.2216
▁kirje	-10.2219
toimen	-10.2228
▁näkyvä	-10.2229
▁ruokaa	-10.2231
vamma	-10.2231
▁Somero	-10.2236
oksia	-10.2241
▁esimerkki	-10.2241
verkko	-10.2242
ü	-10.2248
ejä	-10.2249
rekisteri	-10.2252
▁pö	-10.2253
▁paremma	-10.2253
▁vahvisti	-10.2255
joukkojen	-10.2258
▁järjestää	-10.2258
▁tarpeeksi	-10.2261
▁lyhyt	-10.2264
▁Krista	-10.2264
hiihtäjä	-10.2265
ttavaksi	-10.2271
▁Pri	-10.2271
▁Super	-10.2273
▁Metsä	-10.2278
▁tukemi	-10.2279
hahmo	-10.228
▁keittiö	-10.2285
yksestä	-10.2286
▁sula	-10.2286
ampumis	-10.2293
▁muille	-10.2294
▁suunnitel	-10.2295
▁Ari	-10.2297
▁heillä	-10.2297
▁laitta	-10.2304
▁Toki	-10.2307
▁voittoon	-10.2312
etty	-10.2317
▁Myöhemmin	-10.2319
▁parlamenti	-10.2319
▁kommentti	-10.2319
rata	-10.2321
▁Mc	-10.2323
▁maksamaan	-10.2323
bb	-10.2325
Sanomille	-10.2327
▁epäilly	-10.2327
▁varuste	-10.233
ksessa	-10.2331
kuvia	-10.2332
lliseksi	-10.2336
▁Erik	-10.2338
▁hakea	-10.234
▁Aino	-10.2343
juhla	-10.2349
lliseen	-10.235
▁Michael	-10.2352
▁varrella	-10.2352
▁kaipaa	-10.2353
gaala	-10.2354
▁eteni	-10.2355
▁kaasu	-10.2359
▁käyttäjä	-10.2359
▁kamera	-10.236
gar	-10.2362
▁taho	-10.2362
sarjaa	-10.2365
▁leikkaus	-10.2366
merkkejä	-10.2369
kesä	-10.2371
▁tiede	-10.2372
▁tär	-10.2376
▁suostu	-10.2376
▁Tuli	-10.2378
työhön	-10.2379
lähtö	-10.2382
▁kaatui	-10.2382
▁varsinaise	-10.2385
▁valmennus	-10.2386
▁kerrottu	-10.2388
▁selittää	-10.2389
kselle	-10.2389
▁vakavi	-10.2394
ttuu	-10.2394
▁ulkoministeriö	-10.2398
ight	-10.2399
▁TV	-10.2413
pörssi	-10.242
▁haave	-10.2424
▁Sarja	-10.2425
tiimi	-10.2426
tyvä	-10.243
▁veny	-10.2433
▁ilmoitta	-10.2434
sco	-10.2434
kautta	-10.2435
▁erilaisi	-10.2441
▁huomioi	-10.2442
ohjaaja	-10.2444
▁pelaava	-10.245
▁myrsky	-10.2453
▁pudotuspeli	-10.2453
▁Valtio	-10.2456
▁kestä	-10.2456
▁Lappi	-10.2456
▁niissä	-10.2457
▁onnettomuus	-10.2462
▁pelaajat	-10.2464
▁18-	-10.2465
▁ajatella	-10.2472
yhtye	-10.2473
torjunta	-10.2474
▁puolisonsa	-10.2477
▁näkökulmasta	-10.2487
▁tehneet	-10.2488
▁Aamu	-10.2489
▁työmarkkina	-10.249
▁Perjantain	-10.2491
tuotanno	-10.25
▁800	-10.25
▁Harri	-10.2505
ung	-10.251
tellaan	-10.251
emi	-10.2513
▁väite	-10.2514
▁tapahtuneesta	-10.2516
hallitus	-10.2517
osio	-10.252
▁Savo	-10.2521
▁alkoivat	-10.2522
▁Venäläis	-10.2522
š	-10.2523
▁enempää	-10.2524
▁kehu	-10.2533
▁kokemus	-10.2534
▁Suur	-10.2538
▁seurasi	-10.2544
▁tunti	-10.2545
▁merkitystä	-10.2546
▁valmiiksi	-10.2556
▁Kanerva	-10.2556
▁voitaisiin	-10.2556
▁kahta	-10.2557
▁uudet	-10.257
käynti	-10.2573
▁Lehti	-10.2584
viikonloppu	-10.259
▁Asiantuntija	-10.259
▁tällaista	-10.259
▁taloudellise	-10.259
lupa	-10.2592
kkaus	-10.26
▁varo	-10.26
lie	-10.2604
innin	-10.2607
kamppailu	-10.261
itin	-10.2611
▁mie	-10.2612
tasolla	-10.2616
tellen	-10.2617
yhdistyksen	-10.2623
▁Muun	-10.2625
▁kesäkuuta	-10.2625
▁Lindtman	-10.2625
▁siirtyy	-10.2628
▁puolustaja	-10.2629
▁Minä	-10.2631
▁karsi	-10.2633
ttuaan	-10.2633
▁avasi	-10.2633
▁ohjus	-10.2645
teollisuude	-10.2646
▁näkyi	-10.2647
▁sarjassa	-10.2648
tola	-10.2649
▁Valtteri	-10.2661
▁yleisurheilu	-10.2662
▁ottamaan	-10.2663
▁Bra	-10.2663
isempi	-10.2671
▁38	-10.2671
▁erän	-10.2673
▁yhteistyötä	-10.2675
vaikuttaja	-10.268
tuista	-10.2685
▁täyde	-10.2686
▁Valtonen	-10.2694
▁kunnolla	-10.2695
▁pysyy	-10.2696
▁avio	-10.2696
▁juoksi	-10.2696
▁km	-10.2699
▁esillä	-10.2706
terve	-10.2712
▁Lap	-10.2712
▁jäivät	-10.2713
mainen	-10.2717
töm	-10.272
poliitikko	-10.2729
▁Latvia	-10.2729
▁Lontoo	-10.273
▁paljastui	-10.2732
ktio	-10.2736
▁vastaus	-10.2738
▁ilmoittanut	-10.274
▁kolmannen	-10.2744
▁Tra	-10.2754
▁hoitaa	-10.2754
kuntien	-10.2759
▁Suurin	-10.276
▁pelataan	-10.2763
▁pidetty	-10.2764
poika	-10.2766
▁tänne	-10.2767
▁mainos	-10.2768
▁vaihe	-10.2768
▁järjestelmä	-10.277
▁sunnuntain	-10.2771
▁Suuri	-10.2781
▁olosuhtei	-10.2781
▁Perus	-10.2783
▁lukija	-10.279
▁Turku	-10.279
▁vaikuttavat	-10.2794
pullo	-10.2794
▁kiloa	-10.2798
▁äidin	-10.2799
▁väkivallan	-10.2799
▁Pariisissa	-10.28
▁Tapahtuma	-10.2802
kuljettaja	-10.2802
▁Op	-10.2802
ileva	-10.2806
▁vaikkapa	-10.2807
laatu	-10.2809
▁Elina	-10.2811
▁Musta	-10.2811
ilemaan	-10.2815
▁nousta	-10.2816
▁lopettaa	-10.2816
järjestel	-10.2818
▁pelaamaan	-10.2822
▁sosiaalisen	-10.283
uransa	-10.2832
▁Post	-10.2832
▁viimeistel	-10.2833
▁olympialaisissa	-10.2834
▁rakentaa	-10.2834
alalla	-10.2835
X	-10.2838
sonin	-10.2842
▁osuma	-10.2842
▁Tänään	-10.2846
▁Iran	-10.2854
▁isoja	-10.2855
▁kadu	-10.2862
▁vink	-10.2867
▁varjo	-10.2867
uksien	-10.2869
▁Johanna	-10.287
▁toimeen	-10.287
▁liittyi	-10.287
bergin	-10.2873
joista	-10.2876
▁toiselle	-10.2878
▁Katri	-10.2881
▁viranomaisten	-10.2882
gren	-10.2889
▁hiihtä	-10.2889
▁hyökkäyksen	-10.2891
vaihto	-10.2891
▁versio	-10.2893
▁velka	-10.2895
▁Italian	-10.2895
kevä	-10.2895
1:	-10.2898
▁Pallo	-10.2905
▁putosi	-10.2906
▁vuosittain	-10.2907
▁Daily	-10.2908
▁Toimi	-10.2911
▁Dallas	-10.2912
keskustelu	-10.2912
sestä	-10.2913
mpiin	-10.2914
▁kallii	-10.2914
▁pisteen	-10.2921
näyttely	-10.2922
puolelta	-10.2923
▁39	-10.2933
▁Lahti	-10.2937
▁keskustassa	-10.2939
▁Näyttelijä	-10.2941
▁päätteeksi	-10.2941
▁annettu	-10.2941
vaihe	-10.2943
▁Ilves	-10.2944
▁toipu	-10.2949
▁löi	-10.2953
▁hybridi	-10.297
▁Mail	-10.2971
▁pankki	-10.2971
▁pelastuslaitoks	-10.2972
▁palkan	-10.2974
▁päättyy	-10.2977
hyppy	-10.2977
▁todiste	-10.2977
virta	-10.2977
▁tiedottaja	-10.2977
▁äly	-10.2981
▁uuteen	-10.2982
▁liittyviä	-10.2982
▁tutkii	-10.2983
▁Jär	-10.2993
▁varoit	-10.2998
▁kiusa	-10.3
▁estää	-10.3004
misia	-10.3006
▁kolmanneksi	-10.301
▁teatteri	-10.3012
▁Tiktok	-10.3012
llisuutta	-10.3012
▁kuluttaja	-10.3012
liikkeen	-10.3013
utus	-10.3013
▁lapsille	-10.3014
▁Heidän	-10.3017
▁itsestään	-10.3021
▁tunnus	-10.3023
▁viimeksi	-10.3023
lahti	-10.3025
▁korjaus	-10.3035
▁lohko	-10.304
▁tuntee	-10.3042
kierros	-10.3043
toihin	-10.3046
▁tapahtumia	-10.3048
▁toukokuuta	-10.3048
▁elokuuta	-10.3048
▁tekoäly	-10.3048
▁kahdesti	-10.3048
▁kahdesta	-10.3048
▁Helena	-10.3049
veri	-10.3052
ttamisesta	-10.3058
▁yh	-10.3063
▁levy	-10.3066
▁kappaletta	-10.3078
tilaisuude	-10.3079
tietojen	-10.3081
▁nykyinen	-10.3083
▁mahdollinen	-10.3084
▁paikoin	-10.3084
14	-10.3088
▁viikossa	-10.3088
▁varus	-10.3092
hdys	-10.3095
▁Olet	-10.3095
▁haastava	-10.31
▁Matka	-10.3106
edus	-10.3109
▁päätöstä	-10.3111
21	-10.3118
ottaja	-10.3118
▁miljardia	-10.3119
▁polttoaine	-10.312
▁presidentiksi	-10.312
▁tuhansia	-10.3121
Carolina	-10.3121
sso	-10.3125
▁muualla	-10.3125
▁omassa	-10.3126
▁kymmeniä	-10.3127
▁6-	-10.3128
▁Chi	-10.3129
▁miettiä	-10.313
▁etä	-10.3134
yden	-10.3136
▁ajatteli	-10.3136
45	-10.3139
▁Facebook	-10.3144
kkala	-10.3145
▁lisätä	-10.3145
ation	-10.3148
ökkä	-10.3149
▁omien	-10.3149
▁(1	-10.3152
mestaruutta	-10.3157
▁eduskunnassa	-10.3157
▁evakuoi	-10.3157
▁rakentamis	-10.3158
▁parempaa	-10.3158
▁itsekin	-10.3159
▁heinäkuuta	-10.316
▁laati	-10.316
▁Ham	-10.316
▁vanhe	-10.3162
▁Noin	-10.3162
▁katto	-10.3162
▁normaalisti	-10.3164
▁useampi	-10.3167
▁mukanaan	-10.3176
▁oire	-10.3179
mille	-10.3181
poliisi	-10.3182
▁Paimion	-10.3184
sopimuksen	-10.3188
▁Uude	-10.3191
▁synk	-10.3191
▁kuningatar	-10.3193
▁reaktio	-10.3193
▁melkein	-10.3193
▁Kataja	-10.3198
▁kont	-10.3198
▁rata	-10.3202
▁tapausta	-10.3205
▁merkki	-10.3206
▁Hir	-10.3207
▁tiedotteessaan	-10.321
▁the	-10.3212
essään	-10.3212
▁vatsa	-10.3213
▁maailmancupin	-10.3213
idän	-10.3215
▁vetää	-10.3219
▁kahdeksa	-10.3223
▁hur	-10.3224
kaali	-10.3224
▁44	-10.3226
▁Georgia	-10.323
▁äärimmäise	-10.323
▁hallussa	-10.323
▁Turussa	-10.323
▁ulkomaalais	-10.3231
▁Kela	-10.3234
pri	-10.3235
▁Onne	-10.3238
kunnissa	-10.3241
▁Marinin	-10.3244
paketti	-10.3256
▁toiminnan	-10.3258
▁Peli	-10.3261
▁lisäsi	-10.3265
▁seitsemä	-10.3266
▁Verstappen	-10.3267
▁julkaissut	-10.3267
▁kulkee	-10.3267
▁kuuma	-10.3269
▁150	-10.3271
vedo	-10.3273
▁esiintyy	-10.3273
▁sijoitus	-10.3274
▁puku	-10.3274
▁lentokone	-10.3275
▁arvostel	-10.3277
▁tukeva	-10.3278
palveluiden	-10.3282
▁tunnusta	-10.3282
▁muistutti	-10.3283
75	-10.3285
poliittinen	-10.3286
▁Markku	-10.3289
iltaan	-10.3293
▁kodin	-10.3293
▁valmiste	-10.3293
▁väittää	-10.3298
▁Halu	-10.33
▁Tour	-10.3308
▁Laura	-10.331
▁mielestään	-10.3312
urheilija	-10.3316
▁äitinsä	-10.3319
▁laulu	-10.3323
▁käyttöä	-10.3325
▁Lou	-10.3329
▁Salminen	-10.333
▁edustava	-10.3335
▁marraskuu	-10.3339
▁Väi	-10.3341
▁kuri	-10.3342
oittaja	-10.3347
▁tiedotteen	-10.3347
kalusto	-10.3349
▁viihty	-10.335
▁Mor	-10.335
▁kirjassa	-10.3351
vio	-10.3355
▁muuttuu	-10.3357
▁palautta	-10.3358
▁itsenäis	-10.3362
▁kaava	-10.3365
▁Euroviisu	-10.3366
todellis	-10.337
▁Gar	-10.337
▁työskennellyt	-10.3378
▁työnantaja	-10.3378
▁tasavallan	-10.3378
▁2026	-10.3379
tiloissa	-10.3382
leiri	-10.3383
tuksiin	-10.3387
▁kuvassa	-10.3387
▁perässä	-10.3387
▁välttä	-10.3389
▁luvan	-10.339
▁Pla	-10.3391
vaiheessa	-10.3399
▁alueilla	-10.3399
poliittisi	-10.3402
▁vapa	-10.3405
kkejä	-10.341
kokous	-10.341
▁Kilpailu	-10.3418
▁Tesla	-10.3418
▁lukuisia	-10.3422
▁jatkui	-10.3422
▁kivi	-10.3423
suhde	-10.3424
▁vaihde	-10.3426
Venäjä	-10.343
▁keskuudessa	-10.3453
▁edellyttä	-10.3453
▁kerrostalo	-10.3453
▁entisestään	-10.3453
kymmentä	-10.3455
▁Vaasa	-10.3456
▁lattia	-10.3461
etti	-10.3462
toiminta	-10.3462
▁poikansa	-10.3462
▁Martti	-10.3463
▁halutaan	-10.3472
ttelemaan	-10.3474
▁juoma	-10.3474
▁alkuperä	-10.3479
▁valittu	-10.3479
▁Kuusi	-10.3482
vaatimukse	-10.3484
22	-10.3484
tš	-10.3488
▁Nord	-10.3489
mpo	-10.3491
▁erään	-10.3492
▁sattui	-10.3492
teille	-10.3492
▁johtama	-10.3493
▁2012	-10.3495
Express	-10.3496
▁avoin	-10.3496
dro	-10.3498
▁alus	-10.3498
▁suomalaisia	-10.35
▁rinta	-10.3501
isyys	-10.3506
Sanomien	-10.3506
kangas	-10.3518
▁herätti	-10.3519
▁markkina	-10.3524
ttäminen	-10.3529
▁2013	-10.353
▁voida	-10.3537
▁siivo	-10.3537
▁läheis	-10.3539
▁kokouksessa	-10.3548
▁pais	-10.3548
vall	-10.355
▁Yllä	-10.3552
ikäinen	-10.3552
▁kesti	-10.3552
kseni	-10.3554
▁65	-10.3561
blo	-10.3561
tymään	-10.3564
▁syyskuuta	-10.3566
▁SAK	-10.3566
▁rivi	-10.3567
viestejä	-10.3567
▁uudestaan	-10.3568
▁muutenkin	-10.3568
▁herättänyt	-10.3569
▁kannusta	-10.357
▁lokakuuta	-10.3573
▁vika	-10.3577
▁Tampere	-10.3578
▁eduskuntaryhmän	-10.3578
▁kaunii	-10.3579
▁voimassa	-10.3581
▁Naisten	-10.3584
mmista	-10.3585
▁sanoma	-10.3598
saaren	-10.3599
▁anteeksi	-10.3604
▁unelma	-10.3604
▁Tapio	-10.3605
▁600	-10.3605
▁Mikkola	-10.3606
▁Bottas	-10.3606
▁Myy	-10.3607
kolari	-10.3609
avust	-10.361
▁ajanut	-10.3612
kulttuuri	-10.3622
eks	-10.3622
tehtävä	-10.3623
sankari	-10.3623
uutena	-10.363
vastuu	-10.363
▁pitävät	-10.3633
▁Mark	-10.3635
tunto	-10.3636
▁juokse	-10.3638
▁maksoi	-10.3642
▁laula	-10.3645
▁puh	-10.3648
turnauksessa	-10.3655
▁todetaan	-10.3656
▁Kysy	-10.3659
heitto	-10.366
▁Miss	-10.3661
▁Marja	-10.3664
pomo	-10.3672
paikat	-10.3675
▁naisia	-10.368
läisen	-10.3681
▁vieressä	-10.3681
määri	-10.3682
▁puhunut	-10.3704
▁eläke	-10.3706
▁pelaajia	-10.3708
▁paljasta	-10.3716
onnettomuudessa	-10.3719
▁Tuomas	-10.3719
▁Jaakko	-10.372
▁lähettää	-10.3722
▁koskee	-10.3723
▁kuiva	-10.3725
väki	-10.3725
▁toimivat	-10.3726
▁syytetään	-10.3728
▁Aina	-10.3732
▁laatu	-10.3733
▁Ase	-10.3744
▁tuomittu	-10.3745
päätös	-10.3747
▁rajoitta	-10.3747
timme	-10.3751
lause	-10.3756
omistaja	-10.3758
▁vaativa	-10.3762
▁ajatukse	-10.3767
▁rasva	-10.3772
kurssi	-10.3777
▁somessa	-10.3778
▁elämänsä	-10.378
▁kritiikkiä	-10.3782
▁maine	-10.3786
menettely	-10.3786
▁välinen	-10.3789
▁julkisesti	-10.3792
▁kiri	-10.3792
▁arvioidaan	-10.3793
que	-10.3797
▁unioni	-10.3799
▁Miesten	-10.3801
konsertti	-10.3802
esitys	-10.3802
joki	-10.3804
uksilla	-10.3805
▁tiimi	-10.3805
▁Lento	-10.3805
▁minut	-10.3806
▁valmistelu	-10.3808
▁marraskuuta	-10.381
ehdot	-10.3812
▁Ö	-10.3814
▁kuntoon	-10.3815
▁17-	-10.3824
▁tarkasti	-10.3831
▁vasemmistoliito	-10.3831
▁Guardian	-10.3835
▁Ohjelma	-10.3835
▁tarkoituksena	-10.3835
▁Nuore	-10.3836
▁pääosin	-10.3836
▁Liikenne	-10.3838
▁tapauksesta	-10.384
▁mietti	-10.3843
▁myydä	-10.3844
näytö	-10.3846
▁jono	-10.3846
suoja	-10.3855
13	-10.3858
huole	-10.3865
▁sisältä	-10.387
▁sairaalassa	-10.3871
▁vastaukse	-10.3871
▁kyseenalais	-10.3874
▁nappasi	-10.3874
▁Elämä	-10.3874
▁suhteessa	-10.3875
▁Sini	-10.3876
▁tasapaino	-10.3876
▁tulivat	-10.3876
▁huolehti	-10.3878
mästä	-10.388
▁tekemistä	-10.3882
▁litra	-10.3884
▁hopea	-10.3892
▁ehdokkaa	-10.3897
▁lataus	-10.3897
▁tapauksen	-10.39
yritys	-10.3902
teillä	-10.3906
▁paikalta	-10.3907
▁kehittämis	-10.3907
▁Halli	-10.3911
▁rintama	-10.3912
▁Foreca	-10.3913
▁kuski	-10.3914
▁Kova	-10.3915
▁Helmi	-10.3917
kykyä	-10.3921
yksikkö	-10.3924
sky	-10.3927
▁Berg	-10.3931
▁puhtaa	-10.3931
▁Che	-10.3932
▁vaaranta	-10.3932
ble	-10.3941
ennuste	-10.3945
piir	-10.3949
q	-10.3951
▁meitä	-10.3951
uksensa	-10.3952
▁Panthers	-10.3953
▁vankeuteen	-10.3953
▁todettiin	-10.3953
aaleja	-10.3956
▁kuuli	-10.3956
▁Hieta	-10.3957
pöytä	-10.3957
▁Lehto	-10.3957
TV	-10.3957
▁Wil	-10.3963
kim	-10.3966
▁oikeudessa	-10.3967
▁törkeäst	-10.3969
▁käydään	-10.3969
▁asumis	-10.3971
▁kannattaja	-10.3975
▁nuoriso	-10.398
▁Kol	-10.3985
▁Kim	-10.3987
▁Silti	-10.3988
▁lausunnossa	-10.3992
▁haittaa	-10.3995
▁kilpailija	-10.3996
▁ravinto	-10.3997
▁parlamentti	-10.4
▁äänestää	-10.4
▁pitkälle	-10.4004
▁vasemmisto	-10.4004
▁suojelu	-10.4006
▁vastus	-10.4008
▁tarjoaa	-10.4008
yyteen	-10.4009
▁osallistuu	-10.4009
▁painottaa	-10.4011
▁75	-10.4014
▁kisassa	-10.4015
▁Fors	-10.4019
▁tukee	-10.4019
▁lailla	-10.4023
▁teini	-10.4028
▁lasi	-10.4029
str	-10.403
▁Ensimmäinen	-10.4032
▁meteorologi	-10.4032
▁Laakso	-10.4032
▁Latvala	-10.4032
▁Kiekko	-10.4032
▁Uhri	-10.4033
▁Vähä	-10.4033
▁jonkun	-10.4034
▁putoa	-10.4036
▁organisaatio	-10.4036
▁2010	-10.4039
▁ansiosta	-10.4045
▁nimeä	-10.4046
▁Tark	-10.4061
19	-10.4063
▁Kangas	-10.4072
ilevä	-10.4074
▁järjestettiin	-10.4074
▁käänne	-10.4076
▁Suvi	-10.4079
kumppa	-10.4079
▁Th	-10.408
▁Sauli	-10.4083
▁Kisa	-10.4084
isellä	-10.4084
▁huolestu	-10.409
kkeiden	-10.4091
▁kohdistuva	-10.4093
▁edusti	-10.4099
yleisö	-10.41
▁levittä	-10.4104
kunnassa	-10.4106
▁Ex	-10.4107
▁reilut	-10.4107
telleet	-10.4109
▁Henkilö	-10.4112
▁kansainvälist	-10.4112
▁valtiovarain	-10.4112
▁heidät	-10.4112
pyynnö	-10.4112
▁varapresidentti	-10.4113
▁Tosi	-10.4119
▁sopii	-10.4123
Pohjanmaan	-10.4124
▁oikeastaan	-10.4125
koira	-10.4125
llisiä	-10.4129
▁petty	-10.4136
▁euroon	-10.4139
▁päivässä	-10.4139
immillaan	-10.414
materiaali	-10.414
▁jäljellä	-10.4152
▁palestiinalais	-10.4152
▁osoitti	-10.4152
persoona	-10.4152
▁neljäs	-10.4153
▁TPS	-10.4156
aatti	-10.4156
tuottee	-10.4158
▁matkust	-10.4158
▁Grön	-10.4158
▁idea	-10.4158
▁yhteiskunta	-10.416
▁huvi	-10.416
▁laitoksen	-10.4161
▁47	-10.4162
▁vastaisena	-10.4163
▁hau	-10.4167
▁joutunee	-10.4168
▁Hannu	-10.4171
kuulu	-10.4173
tulos	-10.4176
▁Mel	-10.4182
keri	-10.4185
▁mielestäni	-10.4185
teksti	-10.4185
eillä	-10.4189
ellu	-10.4189
diagnoosi	-10.4192
kri	-10.4193
isyyttä	-10.4196
tiikka	-10.4197
kkeet	-10.4198
▁politiikan	-10.4199
▁ruumii	-10.4202
▁töihin	-10.4203
▁komm	-10.4204
▁pelkää	-10.4204
▁kutsui	-10.4207
mppu	-10.4219
katsomo	-10.422
moottori	-10.4221
mättömä	-10.4221
▁mestaruuden	-10.4225
▁Ferrari	-10.4233
▁KalPa	-10.4233
ampuja	-10.4235
▁rauhallise	-10.4239
▁sisko	-10.4245
▁suunnittelu	-10.4245
▁pienempi	-10.4249
▁vapautta	-10.4251
▁paperi	-10.4252
▁tukema	-10.4252
▁hyvältä	-10.4258
▁48	-10.4259
▁taksi	-10.426
miehet	-10.4262
katko	-10.4264
▁selkeästi	-10.4266
tuksella	-10.4268
▁tyttäre	-10.4269
▁huomaut	-10.427
▁ymmärtä	-10.4273
festivaali	-10.4273
▁Gazassa	-10.4273
▁kohteeksi	-10.4273
oille	-10.4281
▁mökki	-10.4284
▁pieniä	-10.4285
▁kuolemaan	-10.429
ohjelmaan	-10.4292
eme	-10.4301
▁Q	-10.4302
▁riitä	-10.4302
▁Yhteis	-10.4303
▁tekivät	-10.4304
-19	-10.4304
▁dollarin	-10.4305
suomalais	-10.4306
▁kuulunut	-10.4309
▁Ruo	-10.4313
väri	-10.4314
▁Suomelle	-10.4314
▁55	-10.4319
▁Espoon	-10.432
▁murhasta	-10.4321
ukselle	-10.4322
▁Liike	-10.4324
torni	-10.4325
▁nur	-10.4328
kulku	-10.4329
▁parkki	-10.4329
▁uni	-10.433
▁koulutukse	-10.4331
▁ollen	-10.4332
28	-10.4332
23	-10.4336
▁Ainakin	-10.4341
▁kevät	-10.4341
kadulla	-10.4343
▁ap	-10.4345
▁Tuore	-10.4347
matonta	-10.4349
▁huhtikuuta	-10.4355
▁satei	-10.436
▁esiintymis	-10.4362
burg	-10.4363
huoneen	-10.4363
▁millä	-10.4365
▁tulokset	-10.4367
▁opiskeli	-10.4368
▁syytetty	-10.437
ttaessa	-10.4372
▁maailmancup	-10.4374
▁suunniteltu	-10.4382
▁ilmoittaa	-10.4384
huo	-10.4385
▁pitämään	-10.4386
paita	-10.4386
▁sini	-10.4387
Espoo	-10.439
toimintaa	-10.4394
=	-10.4396
▁yrityksestä	-10.4396
▁Valioliiga	-10.4396
▁huipu	-10.4397
toiminnan	-10.4397
▁henkilökohtaise	-10.4397
pyyntö	-10.4397
▁pyritään	-10.4399
▁eläkkee	-10.4407
▁tiesi	-10.4407
kohtei	-10.4408
▁varasto	-10.4408
▁lunta	-10.441
yhdistys	-10.441
politiikan	-10.4421
suora	-10.4423
▁Epä	-10.4428
▁puolivälierä	-10.4438
▁ymmärrä	-10.4438
▁treena	-10.4438
▁Oikeude	-10.4438
▁bändi	-10.4438
▁Täällä	-10.4438
▁varhain	-10.4438
▁menetti	-10.4439
▁menivät	-10.4441
▁Pyr	-10.4442
80	-10.4447
▁Kimmo	-10.4447
▁pohdi	-10.4447
sairaala	-10.445
▁Ero	-10.445
rannan	-10.445
▁toisensa	-10.4452
▁osuu	-10.4452
mmän	-10.4454
▁palata	-10.4459
▁jokaisen	-10.4461
yhtyeen	-10.4461
▁Virtanen	-10.4462
▁käyttämä	-10.4462
▁FC	-10.4468
isistä	-10.447
▁ilmoituksen	-10.4478
▁huumausaine	-10.4479
▁Vornanen	-10.4479
▁kirkko	-10.448
▁Pajari	-10.4481
verkosto	-10.4481
▁Miehen	-10.4482
▁Sekä	-10.4483
▁41	-10.4483
▁(20	-10.4488
▁hakeutu	-10.449
▁Keskusta	-10.4497
korkeakoulu	-10.4497
▁demokraattien	-10.4498
tämä	-10.4499
▁Sillä	-10.4506
▁liittyvi	-10.4514
▁luotto	-10.4518
▁demokraatti	-10.4519
▁pariskunta	-10.4521
▁kesäkuun	-10.4521
▁ulkopuolelle	-10.4522
▁ilmeisesti	-10.4527
▁lokakuu	-10.4533
▁raiska	-10.4535
▁Totta	-10.4536
▁prosessi	-10.4537
▁Palm	-10.4538
lander	-10.4541
puolueen	-10.4547
▁kiisti	-10.4548
televa	-10.4549
▁muissa	-10.4549
60	-10.4549
vuori	-10.4552
▁lyh	-10.4555
ruo	-10.4557
▁eilen	-10.4558
▁projekti	-10.4559
kadun	-10.4562
▁suljettu	-10.4563
▁saksalais	-10.4563
qvist	-10.4563
▁46	-10.4563
▁Ajo	-10.4565
politiikka	-10.4569
▁herättää	-10.4569
▁pure	-10.4571
▁Valkea	-10.4571
▁Sari	-10.4575
▁treeni	-10.4579
▁Britti	-10.458
▁Huu	-10.458
▁Rikos	-10.4582
▁Miele	-10.4584
▁Sanomien	-10.4589
▁maalei	-10.4595
kunnalle	-10.46
vihr	-10.4601
▁tälle	-10.4601
▁naimisiin	-10.4605
▁osittain	-10.4605
▁ampui	-10.4605
▁nuo	-10.4605
▁pahasti	-10.4605
rikos	-10.4606
tiedot	-10.4607
▁Erityisesti	-10.4613
▁Los	-10.4627
▁keskustella	-10.4629
▁+	-10.463
▁runsaa	-10.4632
▁oven	-10.4639
▁tuoma	-10.4639
▁Ihmis	-10.4643
▁yltä	-10.4646
▁ylös	-10.4646
▁Olympia	-10.4647
▁golf	-10.4647
▁puolivälissä	-10.4647
▁asunnon	-10.4647
kustannuksi	-10.4647
▁jy	-10.465
▁Kemp	-10.4652
▁väkivaltaa	-10.4655
▁julkaise	-10.4657
▁lääke	-10.4658
▁kuudes	-10.4661
ely	-10.4662
▁vanhemmat	-10.4663
▁joukkuetta	-10.4663
▁muitakin	-10.4664
▁mennään	-10.4676
▁lähetys	-10.4683
▁tekni	-10.4684
päivystykse	-10.4689
▁Meghan	-10.4689
▁Aaltola	-10.4689
▁tällaisi	-10.469
▁kokemuksi	-10.469
▁Äiti	-10.469
▁pitkälti	-10.4693
▁poiki	-10.4693
▁1,5	-10.4693
▁teknologia	-10.4694
▁välissä	-10.4697
▁tehokkaa	-10.4699
▁positiivis	-10.47
▁hoitoon	-10.4702
eet	-10.4709
▁Yo	-10.471
▁kansallise	-10.4713
▁katsomaan	-10.4715
ttomia	-10.4717
▁irtisano	-10.4721
▁poissa	-10.4724
mpana	-10.4726
puolustus	-10.473
▁kuukaudessa	-10.4732
▁tapahtumista	-10.4732
▁Leppä	-10.4732
▁komentaja	-10.4732
▁solmi	-10.4732
▁ulottu	-10.4732
▁David	-10.4732
käräjäoikeudessa	-10.4735
▁sävy	-10.4736
ttelemään	-10.4737
▁aito	-10.474
▁2-1	-10.4744
▁kysyttiin	-10.475
▁Holm	-10.4753
▁entise	-10.4753
▁Leijonat	-10.4759
▁näkemykse	-10.4774
▁rasismi	-10.4775
▁isännöi	-10.4775
▁Jesse	-10.4775
▁molempi	-10.4775
▁irto	-10.4776
▁vaihtaa	-10.4779
▁olympialaisten	-10.478
▁menestys	-10.4781
▁vire	-10.4784
▁Sar	-10.4788
▁viides	-10.4789
▁vieraa	-10.4801
▁käytä	-10.4804
yksellä	-10.4808
▁tietty	-10.4815
viikko	-10.4815
▁kansainvälisi	-10.4817
€	-10.4817
▁konkurssi	-10.4818
▁2-0	-10.4818
▁Usea	-10.4819
▁republikaanien	-10.4822
▁aloittanut	-10.4824
▁kääntä	-10.4825
▁Hyvin	-10.4826
▁Haluan	-10.4827
▁hallinnon	-10.483
▁mitat	-10.4832
▁Karhu	-10.4832
▁Vaali	-10.4833
▁maailmassa	-10.4833
▁voimakkaasti	-10.4834
▁matkailu	-10.4841
▁talle	-10.4842
Pohjanmaa	-10.4847
kerho	-10.4851
joukot	-10.4858
▁demokratia	-10.486
▁Aftonbladet	-10.486
▁jääkieko	-10.486
▁Suomalainen	-10.486
juoksu	-10.4861
▁saapunut	-10.4861
ravintola	-10.4861
▁työntekijöiden	-10.4861
▁enemmistö	-10.4862
▁Areena	-10.4862
▁pariskunna	-10.4862
▁tunnu	-10.4865
▁havaittu	-10.4868
▁tarvetta	-10.487
laiva	-10.4872
radalla	-10.4878
siiv	-10.4885
▁pesu	-10.4889
▁menossa	-10.4893
▁ennätykse	-10.4895
▁kohtasi	-10.4897
kaupunki	-10.4899
▁Fri	-10.49
kkeja	-10.49
▁helmikuuta	-10.4904
▁Ykkös	-10.4904
▁Tornio	-10.4905
▁ylläpitä	-10.4905
ongelma	-10.4905
▁2011	-10.4908
ric	-10.4909
▁kysyy	-10.4912
▁työelämä	-10.4917
▁suosittu	-10.4919
▁42	-10.4923
▁avoime	-10.4936
kultaa	-10.4937
▁Radio	-10.4937
hallituksen	-10.4937
stelee	-10.4939
▁Murto	-10.4941
▁Tieto	-10.4942
▁Montreal	-10.4947
vyöry	-10.4947
▁Aleksand	-10.4947
▁Käräjäoikeus	-10.4947
albumi	-10.4948
▁Marc	-10.4949
▁Lö	-10.495
▁raaka	-10.4956
▁siirtymä	-10.4963
▁viettää	-10.4973
▁huhu	-10.4974
▁ajautu	-10.4984
▁seuraavaksi	-10.499
á	-10.4991
▁sähköposti	-10.4991
▁Markkanen	-10.4991
▁johtuu	-10.4991
▁Patrik	-10.4991
▁osti	-10.4993
▁nykyisin	-10.4999
▁istui	-10.4999
järjestäjä	-10.5006
▁Pitää	-10.5008
kkojen	-10.501
▁keskustele	-10.5019
ehdokkaan	-10.5019
nnoista	-10.5024
▁Niiden	-10.5025
▁otetaan	-10.5025
▁turvallisuuden	-10.5029
▁koste	-10.5032
▁Bro	-10.5034
▁United	-10.5035
▁parantaa	-10.5035
▁Joskus	-10.5035
▁majoit	-10.5037
▁maaliskuuta	-10.5037
yhteyksi	-10.504
▁ratkaise	-10.5041
▁suunnitellu	-10.5044
▁sijalla	-10.5045
vaunu	-10.505
rak	-10.5054
▁tutkimuksen	-10.5056
▁tilalle	-10.5062
kaudelle	-10.5064
ytyy	-10.5066
▁tahto	-10.5066
▁suomalaisista	-10.5068
▁riittävästi	-10.5076
▁vahingoi	-10.5079
▁norjalais	-10.5079
▁avajais	-10.5079
joukko	-10.508
teollisuus	-10.508
kirjoitus	-10.508
▁itäraja	-10.508
julkaisu	-10.5083
tymistä	-10.5084
▁pitävä	-10.5087
▁pärjää	-10.5089
▁leikki	-10.5089
▁satoja	-10.5092
puolen	-10.5094
▁opetus	-10.5102
line	-10.5106
▁Niitä	-10.5107
▁puhelu	-10.5111
kaupassa	-10.5113
▁54	-10.5115
tilanteissa	-10.5117
ttajia	-10.5117
vier	-10.5121
▁Portugali	-10.5123
▁julkaistiin	-10.5123
▁tammikuuta	-10.5123
pelejä	-10.5128
▁mahdollisuutta	-10.513
tetun	-10.513
▁kertoja	-10.5143
▁avata	-10.5143
▁syyllisty	-10.5147
▁päättänyt	-10.5148
kkaasti	-10.5148
▁perustuu	-10.5152
▁Petri	-10.5153
riski	-10.5157
▁tulosta	-10.5162
▁tapaamis	-10.5165
▁vaalien	-10.5166
hiihdon	-10.5167
▁Epäilty	-10.5167
▁Helenius	-10.5167
▁kahteen	-10.5168
kodissa	-10.5169
▁vihje	-10.5178
▁ansio	-10.5188
▁Topi	-10.5189
eitä	-10.5195
▁sopeutu	-10.5206
muutoksen	-10.5206
▁lopet	-10.5206
kisassa	-10.521
▁Colorado	-10.5212
▁liikkeelle	-10.5212
▁päivittäin	-10.5212
▁Etenkin	-10.5213
▁naurahtaa	-10.5214
kuri	-10.5215
▁mahdollisuuksia	-10.5215
▁sellaisen	-10.5218
huolto	-10.5219
havainto	-10.522
▁kiinalais	-10.522
▁sisältää	-10.5225
▁toiminnasta	-10.5227
▁aiheesta	-10.5228
▁päivinä	-10.5239
65	-10.5247
▁palautetta	-10.525
▁läheise	-10.525
sihteeri	-10.5251
▁käynnistä	-10.5255
▁maahanmuutto	-10.5257
▁Henriksson	-10.5257
▁huuto	-10.5258
▁pitkäaikais	-10.526
▁hirvi	-10.5262
▁tulkit	-10.5263
▁hinnat	-10.5268
▁alkava	-10.5273
▁millään	-10.5275
▁muo	-10.5284
▁Kansainväli	-10.5291
▁Krist	-10.5292
johdo	-10.53
▁Hiihto	-10.5302
▁RKP	-10.5302
▁Olympiakomitea	-10.5302
▁kaikilla	-10.5302
▁vienti	-10.5304
▁Nuori	-10.5305
▁tiedetään	-10.5306
▁johtoon	-10.5309
tuomari	-10.5312
▁Jasmi	-10.5313
▁Nieminen	-10.5318
▁yhteys	-10.5326
▁Lar	-10.5331
ttäviä	-10.5332
▁ketään	-10.5335
▁Saarinen	-10.5341
▁Lääkäri	-10.5347
▁motiivi	-10.5347
▁rahoituks	-10.5347
▁johtanut	-10.5347
▁pelastuslaitos	-10.5348
▁Bal	-10.5349
▁Hamas	-10.5349
▁voisivat	-10.5352
▁Edellis	-10.5352
▁Andre	-10.5356
turvallisuuden	-10.5357
▁syys	-10.5358
▁Anton	-10.5363
▁välisenä	-10.5366
▁pääsevät	-10.5369
▁saapuu	-10.5373
▁rankka	-10.5374
▁Arvo	-10.5375
Mari	-10.5376
▁tekevä	-10.5376
▁tuonut	-10.5379
päivityksessä	-10.5386
▁onneksi	-10.5387
▁tapahtumien	-10.5389
▁myöhään	-10.5393
▁kaikissa	-10.5393
▁senttiä	-10.5395
▁Heino	-10.5396
ympäristö	-10.5403
▁käyttänyt	-10.5407
▁opiskelija	-10.541
ring	-10.5411
▁sinä	-10.5416
▁parhaat	-10.5419
▁musiikin	-10.5438
▁vähentää	-10.5438
▁Lahden	-10.5439
▁prosenttiin	-10.544
▁vaikuttanut	-10.5441
▁cup	-10.5443
▁tuhat	-10.5444
▁Maali	-10.5446
▁ottamatta	-10.5447
isuudesta	-10.5454
▁Dr	-10.5454
▁Hai	-10.5454
▁pahoinpitely	-10.546
▁2000-	-10.5461
▁kuninkaallis	-10.5465
lento	-10.5466
huoneessa	-10.5469
▁etenee	-10.5472
▁Pala	-10.5477
▁Ruoka	-10.5479
järvellä	-10.5484
▁Kiuru	-10.5485
▁Chris	-10.5485
▁veti	-10.5487
▁aiempi	-10.549
▁rakente	-10.5491
▁syntyy	-10.5491
kisoja	-10.5492
haastattelu	-10.5496
▁Sau	-10.5501
lahden	-10.5509
tetut	-10.5513
sodan	-10.5516
▁pelaajien	-10.5518
▁Niemi	-10.5523
▁43	-10.5525
▁rakennettu	-10.5527
kustannukset	-10.553
▁paikassa	-10.5531
▁päätöksiä	-10.5541
▁pani	-10.5543
▁suola	-10.5544
▁muutamia	-10.5544
▁harvinaise	-10.5544
▁museo	-10.5546
▁kaula	-10.5548
apua	-10.5555
▁pientä	-10.5559
▁ajaksi	-10.5559
▁Raja	-10.556
▁lukuun	-10.5562
▁oikeude	-10.5562
▁Peter	-10.5565
und	-10.5566
▁laskee	-10.5566
▁kävely	-10.5567
opisto	-10.5571
▁Uni	-10.5574
▁huumori	-10.5577
▁parhaimmillaan	-10.5577
▁Eduskunta	-10.5577
▁ensimmäiset	-10.5578
▁Mikkel	-10.5578
▁Kaisa	-10.5582
Hämeen	-10.5583
▁kuluttua	-10.5585
▁Louis	-10.5586
▁Sunnuntaina	-10.5595
▁Tii	-10.5596
▁Tommi	-10.5596
▁Markus	-10.5596
mark	-10.5599
▁heinäkuu	-10.5603
▁vietiin	-10.5609
otetta	-10.5613
Vantaa	-10.5613
▁finaalissa	-10.5613
▁mini	-10.5617
käytävä	-10.5621
▁penk	-10.5623
▁Pelastuslaitos	-10.5623
▁Schumacher	-10.5623
▁doping	-10.5623
▁poikkea	-10.5623
ymmärret	-10.5623
▁Tällainen	-10.5623
▁lähelle	-10.5625
▁Tanssi	-10.5625
▁Vapaa	-10.5626
▁Lähde	-10.5628
war	-10.5629
tuotanto	-10.5637
kselta	-10.564
▁panosta	-10.564
▁tullaan	-10.564
▁hyökkää	-10.5641
▁ulkomailla	-10.5644
▁julkista	-10.5646
ryhm	-10.5656
▁puheen	-10.5664
▁budjetti	-10.567
▁Manchester	-10.567
▁Sebastian	-10.567
▁yhteinen	-10.567
▁ranskalais	-10.567
2023	-10.5672
▁muovi	-10.5678
▁tarjota	-10.5679
▁Kauppa	-10.5685
▁vaikutuksia	-10.5691
form	-10.57
▁teon	-10.5701
2,5	-10.5706
järjestelmää	-10.571
▁700	-10.5712
oksessa	-10.5712
▁Pikku	-10.5715
▁poliittist	-10.5717
▁koripallo	-10.5717
▁tulleet	-10.5717
▁karsinta	-10.5718
▁veri	-10.5719
kautensa	-10.572
▁näytte	-10.5725
▁tavoittele	-10.5726
▁syödä	-10.5726
▁toisiaan	-10.5726
▁ulkona	-10.5728
▁kevye	-10.5728
tutkija	-10.5733
edustaja	-10.5733
kaupan	-10.5734
paikalle	-10.5737
▁autojen	-10.5739
bri	-10.574
▁seikka	-10.5747
valmistaja	-10.575
▁positiivise	-10.5751
▁syistä	-10.5756
yhteyden	-10.5761
▁heitti	-10.5764
▁ratkaist	-10.5764
▁tavallista	-10.5764
▁kiekon	-10.577
▁sukupuoli	-10.5774
▁etten	-10.5774
▁jättänyt	-10.5777
kuorma	-10.578
▁Nurmi	-10.5784
▁Inter	-10.5785
▁aikaise	-10.5786
▁huonosti	-10.5788
▁äänesti	-10.5789
yhä	-10.5791
▁syty	-10.5792
▁erilaise	-10.5792
▁henkilöitä	-10.5794
kiele	-10.5798
▁maajoukkueen	-10.58
▁Asu	-10.5804
▁näkemys	-10.5811
▁potentiaali	-10.5811
▁ollenkaan	-10.5816
maraton	-10.5818
▁mihinkään	-10.5819
stadion	-10.5822
▁Mir	-10.5823
▁edustus	-10.5827
Pekka	-10.5829
▁mielenkiinto	-10.583
▁arva	-10.5832
▁vaate	-10.5834
päiviä	-10.584
opas	-10.5845
▁ratkaiseva	-10.5852
luokassa	-10.5853
▁tiukka	-10.5855
▁Puljujärvi	-10.5859
▁omakotitalo	-10.5859
▁lahjoit	-10.5859
▁houkuttele	-10.5859
▁sisällö	-10.5859
▁vihdoin	-10.5859
▁kielletty	-10.586
▁paikkansa	-10.5861
asunto	-10.5861
▁ääntä	-10.5861
▁Joonas	-10.5865
tiloja	-10.5866
▁törmäsi	-10.5867
▁tarkoitettu	-10.5873
mbo	-10.5878
pesu	-10.5885
▁villi	-10.5889
llisuuden	-10.589
▁Jokinen	-10.589
▁Hizbollah	-10.5891
▁jäävät	-10.5892
▁jonne	-10.5895
+2	-10.5895
▁viimeiset	-10.5901
▁Risto	-10.5903
sseja	-10.5906
▁vuodeksi	-10.5907
▁vihreiden	-10.5909
▁näyttö	-10.591
▁yllätti	-10.5912
▁näyttävä	-10.5916
puolustukse	-10.5918
▁GP	-10.5921
▁Bur	-10.5923
▁erikseen	-10.5924
▁syynä	-10.5925
▁Leo	-10.5927
▁laadu	-10.5932
▁maaliskuu	-10.5938
▁nauti	-10.5939
muutos	-10.5939
▁kommentoinut	-10.5941
▁kovasti	-10.5943
sport	-10.5943
▁harjoittelu	-10.5948
▁katsoji	-10.5952
mielise	-10.5952
▁kysymyksiä	-10.5955
▁sittemmin	-10.5955
▁toukokuun	-10.5955
▁elinkeino	-10.5955
▁kaatoi	-10.5956
▁Paavo	-10.5956
▁rauta	-10.596
▁kunnon	-10.5964
▁murska	-10.5965
▁fyysise	-10.5967
▁aku	-10.5971
▁huima	-10.5972
▁tiennyt	-10.5975
▁merkitys	-10.5978
iltiin	-10.5981
▁Intia	-10.5981
voittaja	-10.5981
▁näyttävät	-10.5985
▁siirtä	-10.5985
▁(19	-10.599
▁Bru	-10.599
aihe	-10.5992
▁Mattila	-10.5998
▁Arto	-10.6003
▁iloinen	-10.6003
▁kädessä	-10.6004
▁järjestetty	-10.6004
▁kunnioitta	-10.6009
kallio	-10.6011
▁Jere	-10.6012
säätiö	-10.6013
▁Näy	-10.6014
▁Paimio	-10.6016
▁Ihmiset	-10.6016
draama	-10.6016
▁tutkinnan	-10.6017
▁2008	-10.6019
alueilla	-10.602
▁arvioida	-10.6021
▁esitteli	-10.6022
työtä	-10.6035
▁vahvistu	-10.6039
▁Nur	-10.6039
▁pääasia	-10.604
▁51	-10.6048
▁akku	-10.6049
huollon	-10.6049
▁Muista	-10.6051
▁Madrid	-10.6052
▁oululais	-10.6052
▁kaudeksi	-10.6052
▁vasemma	-10.6052
▁syttyi	-10.6052
▁kerännyt	-10.6052
korot	-10.6062
▁poimi	-10.6062
ttämisestä	-10.6065
▁jarru	-10.6065
▁tappo	-10.6068
▁elämästä	-10.6075
▁länsimai	-10.6077
▁väistä	-10.608
▁Lauantaina	-10.6082
versio	-10.6086
▁katsotaan	-10.609
▁väsy	-10.6097
prosenti	-10.6099
▁kaksikko	-10.61
▁Benjamin	-10.6101
▁todellinen	-10.6101
▁kahdessa	-10.6101
▁täältä	-10.6101
▁Robin	-10.6102
▁valokuva	-10.6108
▁useiden	-10.6108
2)	-10.6111
▁töissä	-10.6111
leik	-10.6113
zo	-10.6115
▁49	-10.6115
▁myyjä	-10.6124
hiihto	-10.6124
▁raskas	-10.613
▁Joka	-10.6142
▁Rinne	-10.6146
katastrofi	-10.615
▁Puolue	-10.615
▁Granlund	-10.615
▁viivästy	-10.615
▁syyskuun	-10.615
▁1990-	-10.615
▁Mestarie	-10.615
fani	-10.615
▁odotettu	-10.615
lehdessä	-10.6151
▁edestä	-10.6151
▁perusteli	-10.6152
▁vaadi	-10.6155
▁maaperä	-10.6159
▁Ahti	-10.6161
kunnioit	-10.6161
▁Lopu	-10.6164
▁Lauantai	-10.6168
▁Eero	-10.6174
tietoja	-10.6179
▁Bre	-10.6182
tilanteen	-10.6187
yhteisö	-10.6188
▁epäiltynä	-10.619
▁mitenkään	-10.6192
▁haku	-10.6192
▁keskeyttä	-10.6193
▁vanhempien	-10.6193
▁täyttää	-10.6193
▁Käytännö	-10.6199
▁päivystävä	-10.6199
▁hyökkäsi	-10.6199
▁Laulaja	-10.6199
▁kaukana	-10.6199
▁Liettua	-10.6201
▁liikkuva	-10.6201
▁Rehn	-10.6206
▁korko	-10.6208
syöttö	-10.621
▁miehelle	-10.621
▁Arttu	-10.6216
▁Kaiki	-10.622
▁kamppail	-10.6221
▁häneltä	-10.6226
ihmis	-10.6229
▁roh	-10.6229
▁Tim	-10.6231
▁korosti	-10.6245
▁Rovaniemellä	-10.6248
▁Slovakia	-10.6248
▁Odo	-10.6252
tilaisuus	-10.6255
▁varoittaa	-10.6255
▁Muutama	-10.6259
▁alkuun	-10.626
▁Tutkimukse	-10.626
▁näkynyt	-10.6267
▁käyty	-10.6271
▁voimakas	-10.6276
palkkio	-10.6278
▁asioi	-10.628
▁Helsinkiin	-10.6281
▁vaikutusta	-10.6282
▁vastannut	-10.6284
ttömän	-10.6286
▁löydettiin	-10.6298
▁Finnair	-10.6298
▁Häkkänen	-10.6298
▁resurss	-10.6298
▁julkaista	-10.6298
▁oikeudenkäynti	-10.6299
▁kolmos	-10.63
▁Elokuva	-10.6302
▁Vainio	-10.6302
▁potilas	-10.6304
alueelle	-10.6304
▁lintu	-10.6309
▁perheensä	-10.6317
▁Aleksi	-10.6319
▁Mag	-10.6322
tehtävissä	-10.6327
rakennus	-10.6328
vaurio	-10.633
▁pelko	-10.6336
raati	-10.6336
▁peruu	-10.6338
▁tasolle	-10.6341
vyyttä	-10.6342
▁Onnettomuus	-10.6348
▁analysoi	-10.6348
▁hämmästy	-10.6348
▁löytänyt	-10.6348
▁miljooni	-10.6348
▁työskenteli	-10.6348
▁Taylor	-10.6348
▁yhdellä	-10.6348
▁Käärijä	-10.6348
▁kahdella	-10.6348
▁Tuomio	-10.6349
▁menevät	-10.635
vähemmistö	-10.6357
kaupasta	-10.6358
▁yrittänyt	-10.6362
▁miltä	-10.6364
▁Juhani	-10.6366
hetkellä	-10.6368
asunnossa	-10.6368
ttämistä	-10.6368
liikenteessä	-10.6374
▁Kerttu	-10.6376
tutkinta	-10.6376
▁All	-10.6379
hopea	-10.6381
▁NBA	-10.6398
▁konkreetti	-10.6398
▁kruunu	-10.6398
▁otsikoi	-10.6399
▁Jorma	-10.6399
▁tarvittaessa	-10.6399
▁muistu	-10.64
▁kotonaan	-10.6401
▁Käsi	-10.6401
lautakunta	-10.6402
ikäisen	-10.6404
▁loistava	-10.6405
▁selvityksen	-10.6406
mmilla	-10.6406
tuneita	-10.6408
▁tyly	-10.6408
▁Toni	-10.6412
▁Lumi	-10.6415
▁Jääkiekko	-10.6416
▁Tunne	-10.6419
▁käytön	-10.6425
▁Tiedo	-10.6429
▁terrori	-10.6429
hallinto	-10.6433
▁työskentelevä	-10.6436
▁kehuu	-10.6436
saldo	-10.6444
▁Eikä	-10.6447
▁muutosta	-10.6449
▁Jalkapallo	-10.6449
▁Victoria	-10.6449
▁suihku	-10.6449
▁kustannus	-10.6449
▁epäselvä	-10.6449
▁Tör	-10.6449
▁tunteita	-10.6451
▁asukas	-10.6451
nimellä	-10.6453
▁perustelee	-10.6455
▁Nykyään	-10.6455
▁Lehden	-10.6456
Jo	-10.6458
pyr	-10.6469
▁Leino	-10.6475
▁korvaus	-10.6475
▁Koke	-10.6476
olosuhteet	-10.648
▁äänistä	-10.6485
▁suorana	-10.649
▁taistele	-10.6491
ryhmään	-10.6492
oida	-10.6495
▁Rauha	-10.6497
▁Jotk	-10.6497
▁ensimmäisi	-10.65
▁konflikti	-10.65
▁väittely	-10.65
▁Prinsessa	-10.65
▁elokuun	-10.65
▁sadan	-10.6502
▁ihmisille	-10.6507
▁Juuri	-10.6508
▁alkanee	-10.6508
▁vastaavi	-10.6509
▁hevose	-10.651
▁pyri	-10.6514
▁Ilkka	-10.6515
▁parhaiten	-10.6521
▁Vero	-10.6521
▁ilmastonmuuto	-10.6531
töiden	-10.6533
▁anna	-10.6535
▁verrat	-10.6539
▁elävä	-10.6542
töitä	-10.6544
parlamentaari	-10.6551
▁Ruotsalais	-10.6551
▁Lounais	-10.6551
▁Perussuomalaist	-10.6551
▁annetaan	-10.6551
▁kokoomus	-10.6551
▁Sofia	-10.6551
▁ärsy	-10.6552
▁57	-10.6552
▁hyöty	-10.6554
▁kadonne	-10.6556
▁Tervo	-10.6559
▁mahdollisuuden	-10.656
▁Honka	-10.6562
▁sairaus	-10.6563
misella	-10.6567
ttomat	-10.6571
▁Emma	-10.6574
▁kokemusta	-10.658
▁uutisia	-10.658
puoliso	-10.658
▁kiinnostava	-10.6582
mmistä	-10.6583
▁edeltä	-10.6585
▁ehdi	-10.6588
seutu	-10.6596
▁War	-10.6599
▁Netanjahu	-10.6602
▁todettu	-10.6602
kysymyksen	-10.6602
▁kil	-10.6603
myymälä	-10.6603
väylä	-10.6604
▁niillä	-10.6605
töntä	-10.6606
kaikkein	-10.6608
▁minkäänlai	-10.6609
▁jatkossakin	-10.6611
▁kiristy	-10.6622
▁Reutersi	-10.6624
▁nykyistä	-10.6625
▁minuutilla	-10.6626
kaupungissa	-10.6628
▁kuole	-10.6631
päivystys	-10.6653
▁kanslia	-10.6653
▁ovi	-10.6654
▁leikkaa	-10.6661
metsä	-10.6667
oikeudenkäynni	-10.667
▁henkilökunta	-10.6671
rytmi	-10.6671
▁vapaute	-10.6685
▁erilainen	-10.6685
▁Valo	-10.6702
▁peto	-10.6703
▁Puolustus	-10.6704
▁Hyundai	-10.6705
▁tapahtua	-10.6705
▁mikro	-10.6705
▁mahtava	-10.6706
▁1-0	-10.6706
▁odotti	-10.6708
▁James	-10.6711
▁verkkosivuilla	-10.6711
▁puolust	-10.6712
▁Kremlin	-10.6712
kohdat	-10.6715
blogi	-10.6716
▁osakilpailu	-10.6716
dellyt	-10.6718
▁niille	-10.6718
▁kriittise	-10.672
▁Tiistaina	-10.6722
▁Hizbollahin	-10.6722
▁52	-10.6741
pesä	-10.6743
museo	-10.6744
▁pärjä	-10.6746
▁Some	-10.6748
▁Laki	-10.6754
▁asenne	-10.6756
▁Suzanne	-10.6757
▁Volodymyr	-10.6757
▁kimppuun	-10.6757
▁Stanley	-10.6757
▁Angel	-10.6757
▁Kainuu	-10.6758
▁järkevä	-10.6759
▁rohkea	-10.6759
▁julkisi	-10.676
ttömiä	-10.6763
▁Puoli	-10.6764
asiantuntijoi	-10.6766
▁yhdeksä	-10.677
▁säätä	-10.6771
▁Liperi	-10.6774
kannust	-10.6776
▁kuninkaa	-10.678
yksistä	-10.6784
▁osallistunut	-10.6784
▁miettii	-10.6789
politiikassa	-10.6792
empää	-10.6793
▁Williams	-10.6805
▁vanki	-10.6809
▁Windows	-10.681
brändi	-10.681
▁liikkuu	-10.681
▁sekunnin	-10.681
▁Tiina	-10.6823
▁järjestämä	-10.6824
misessä	-10.6828
▁henkirikokse	-10.6832
▁loukkaantunut	-10.6835
▁tasoit	-10.6836
▁Ylä	-10.6837
▁Lähes	-10.6843
▁Tre	-10.6845
▁kaunis	-10.6852
maisema	-10.6854
▁Edmonton	-10.6862
▁ihastu	-10.6862
▁Rydman	-10.6862
▁tunnissa	-10.6863
▁Paikalla	-10.6863
▁Pöy	-10.6863
häirintä	-10.6863
▁ruokavalio	-10.6863
▁SaiPa	-10.6863
▁ammati	-10.6864
▁kykene	-10.6864
▁oltava	-10.6864
▁järkyttävä	-10.6866
▁sattum	-10.6867
▁kanne	-10.6867
▁King	-10.687
juoksija	-10.6871
stetty	-10.6871
▁työskentelee	-10.6873
▁palannut	-10.6874
▁Kaksikko	-10.6877
▁LP	-10.6878
▁Voitto	-10.688
▁von	-10.689
ryhmässä	-10.6895
▁yleise	-10.6896
juontaja	-10.6902
▁omistama	-10.6905
vuoren	-10.6905
▁lensi	-10.6905
▁käyttämään	-10.6906
nopeus	-10.6906
liha	-10.6909
▁myöntä	-10.6915
▁Telegram	-10.6915
lähdössä	-10.6915
nyrkkeily	-10.6915
▁Kärpät	-10.6915
▁noussee	-10.6915
▁unohta	-10.6915
▁sodassa	-10.6916
▁harvoin	-10.6916
▁digi	-10.6921
▁mahdollisia	-10.6924
com	-10.6927
▁oireita	-10.6929
mmäksi	-10.6929
▁lopuksi	-10.693
hö	-10.6932
▁Stra	-10.694
▁voimakkaa	-10.6942
▁luoda	-10.6945
▁päättymis	-10.6945
äiti	-10.695
käsittely	-10.6955
▁Turkin	-10.6963
▁venäläisten	-10.6965
▁kulutus	-10.6966
infrastruktuuri	-10.6968
▁Pärmäkoski	-10.6968
▁kommentteja	-10.6968
kalenteri	-10.6969
▁aktiivisesti	-10.6971
yhteistyö	-10.6972
▁näissä	-10.6972
laulu	-10.6974
▁ehdottomasti	-10.6977
suhteet	-10.6983
toveri	-10.6988
tarina	-10.6991
▁Vanh	-10.7
▁työvoima	-10.7006
▁pysyi	-10.7007
▁juonta	-10.701
▁yritysten	-10.7011
▁seksuaalisest	-10.7018
helikopteri	-10.7022
▁Ilveksen	-10.7022
▁Oilers	-10.7022
▁havaintoja	-10.7023
SSS	-10.7024
▁kohteena	-10.7025
▁biisi	-10.7032
rov	-10.7033
▁Oliver	-10.7034
▁haastattelema	-10.7036
▁haju	-10.7039
laitoksen	-10.7041
laukaus	-10.7047
▁iki	-10.7053
ksestä	-10.7062
▁Sand	-10.7064
ttomuudesta	-10.7067
▁vedet	-10.7072
lainsäädäntö	-10.7076
▁kongressi	-10.7076
▁onnettomuuden	-10.7076
▁saatavilla	-10.7076
▁miehistö	-10.7076
▁Libanonin	-10.7077
▁Blue	-10.7077
ilijoiden	-10.7077
▁kulkeva	-10.7077
▁uudistu	-10.7085
▁lähettämä	-10.7096
▁yleisesti	-10.7103
▁ainut	-10.7109
▁käytännö	-10.7111
▁tumma	-10.7113
▁Mäkinen	-10.7115
näyttelijä	-10.712
▁republikaani	-10.7123
kamera	-10.7125
▁Hamilton	-10.713
▁äärijärjestö	-10.713
kampanjoi	-10.713
▁Lindholm	-10.7131
▁Lehtikuva	-10.7132
▁Kaiken	-10.7136
▁pääsihteeri	-10.7137
▁ukkos	-10.7139
▁IL	-10.7143
autojen	-10.7151
▁esittämä	-10.7153
▁58	-10.7159
▁taisteli	-10.716
▁teema	-10.7166
▁perustuva	-10.7169
summa	-10.7174
▁häly	-10.7176
vaimo	-10.7179
tähdet	-10.7182
▁osannut	-10.7183
▁Brasilia	-10.7184
▁fiilis	-10.7184
▁jälkeis	-10.7184
▁rikoksen	-10.7184
▁Paljon	-10.7185
▁minusta	-10.7185
▁tiivii	-10.7185
▁aikoinaan	-10.719
▁Joona	-10.719
▁Utah	-10.7192
▁häviä	-10.7194
▁Viimeise	-10.7195
▁hanke	-10.7196
▁kehottaa	-10.7199
firma	-10.72
▁maistu	-10.7201
▁Lapsi	-10.7203
▁liittolais	-10.7206
puolelle	-10.7207
▁edustalla	-10.7207
▁avoimesti	-10.7208
▁mahdotonta	-10.7208
öö	-10.7214
▁yöllä	-10.7218
▁raivo	-10.722
▁valitta	-10.7233
▁lapsensa	-10.7234
▁hauta	-10.7236
tuotteiden	-10.7237
▁Tasavallan	-10.7239
▁päätöksestä	-10.7239
Å	-10.7239
▁Rangers	-10.7239
▁viitaten	-10.7239
▁Keskustelu	-10.7239
▁pehme	-10.7239
peleissä	-10.724
ttejä	-10.7244
▁niska	-10.7251
▁She	-10.7251
▁esitetty	-10.7254
▁rento	-10.7261
▁muuttanut	-10.7266
▁välttää	-10.7266
tehtäviä	-10.727
vapau	-10.7271
tunne	-10.7272
▁Julia	-10.7273
▁Samaa	-10.7276
▁virallise	-10.7279
levy	-10.729
lämpötila	-10.729
▁joukkoja	-10.7292
▁asunut	-10.7293
▁Mielestäni	-10.7294
▁huomannut	-10.7294
▁vapautu	-10.7294
tehdas	-10.7295
▁SalPa	-10.7295
empana	-10.7295
▁esitutkinta	-10.7296
▁Sor	-10.7297
▁kärsivä	-10.7297
▁And	-10.73
sovelluks	-10.7302
▁käsitellään	-10.7303
▁Jatko	-10.7303
▁Levi	-10.7304
▁outo	-10.7305
▁kutsuttu	-10.7313
▁Lehtonen	-10.7316
tomuus	-10.7319
▁Ze	-10.732
suhteita	-10.7323
▁tärkeitä	-10.7328
▁Ruka	-10.733
▁istuva	-10.7336
▁Cor	-10.7346
▁Vornase	-10.7349
▁kenties	-10.7349
▁Kommentti	-10.7349
▁päätökseen	-10.7349
▁Prinssi	-10.7349
kiellon	-10.735
itsenäisyyspäivä	-10.7351
vaattei	-10.7352
▁menehtyi	-10.7353
▁kive	-10.7356
▁monipuolis	-10.7356
▁huolen	-10.7359
▁selvitys	-10.7363
▁poliisilaitokse	-10.7364
vastaanoto	-10.7364
rajoit	-10.7364
▁ryhmi	-10.7368
keskuksessa	-10.7369
▁kirkka	-10.737
mättö	-10.737
▁herku	-10.7376
▁tulvi	-10.738
▁anti	-10.7386
strategi	-10.7389
▁tutkitaan	-10.7391
▁56	-10.7392
29	-10.7399
▁korkeimma	-10.7403
▁Ministeri	-10.7404
▁toisaalta	-10.7404
pandemia	-10.7405
▁syrjä	-10.7405
▁syytteet	-10.7405
▁joutuvat	-10.7405
▁monella	-10.7406
vankeusrangaistu	-10.7406
lämmö	-10.7406
▁kuullut	-10.7408
▁sokeri	-10.7408
▁porukka	-10.741
sektori	-10.741
▁Pur	-10.7423
oire	-10.7424
▁2005	-10.7426
▁järjesti	-10.7427
lähteiden	-10.7428
▁Mac	-10.7432
▁jäsenet	-10.7435
rén	-10.7438
▁tuska	-10.7445
▁Ber	-10.7446
▁Yö	-10.7452
▁Suomalaiset	-10.7453
kysely	-10.7456
opettaja	-10.7456
▁läsnä	-10.7459
▁arvonlisävero	-10.746
▁Ronaldo	-10.746
▁kotoisin	-10.746
▁asianajaja	-10.746
▁Jalonen	-10.7461
▁kauhea	-10.7461
▁kulki	-10.7462
▁Espoossa	-10.7462
hevos	-10.7465
▁tarvinnut	-10.7465
äytti	-10.7469
indeksi	-10.7469
▁alueelta	-10.7471
▁vaarallise	-10.7471
▁turvallise	-10.7477
▁kuulo	-10.7484
▁AC	-10.7486
▁Heidi	-10.7501
▁yhdistää	-10.7503
▁Kreml	-10.7509
varuste	-10.7511
yksikön	-10.7511
▁tyyty	-10.7512
▁hyötyä	-10.7514
vaihtoehdo	-10.7515
▁muoti	-10.7515
▁rekisteröi	-10.7517
gallup	-10.7517
▁Kansanedustaja	-10.7517
▁Seppä	-10.7517
▁mielipitee	-10.7517
▁uhan	-10.7518
▁näillä	-10.7519
virhe	-10.7522
▁videoita	-10.7522
▁Vasemmistoliito	-10.753
mahdollisuuksi	-10.7532
▁toisesta	-10.7532
▁tuottaa	-10.7535
▁195	-10.7536
▁Lehtinen	-10.7544
▁Kotka	-10.7546
▁Valkoise	-10.7562
konferenssi	-10.7563
▁Anders	-10.7565
▁Tro	-10.7567
ttomuutta	-10.7569
tutkimus	-10.7571
▁työttömyys	-10.7573
▁Toivottavasti	-10.7573
▁drooni	-10.7573
▁seurustel	-10.7574
▁Borg	-10.7574
Arabia	-10.7574
tiloihin	-10.7574
▁Kap	-10.7575
▁Päätös	-10.7575
▁luonnollisesti	-10.7576
▁johdon	-10.758
▁Kymmen	-10.7581
▁siirtää	-10.7581
▁Kukaan	-10.7582
▁vakio	-10.7588
▁korjattu	-10.7593
▁valu	-10.7593
korotus	-10.7602
muod	-10.7608
▁vale	-10.761
▁huomattava	-10.7611
▁Lähe	-10.762
▁kohtuu	-10.7627
▁viini	-10.7628
▁mielipide	-10.7628
dokumentti	-10.763
▁Nuorten	-10.763
▁aikoihin	-10.763
▁rahoitta	-10.763
mpänä	-10.7632
▁käymään	-10.7633
▁kirjoittama	-10.7633
IS	-10.7634
▁Huippu	-10.7634
▁Yleensä	-10.7634
▁katosi	-10.7639
▁suorastaan	-10.7641
▁kommentoida	-10.7646
26	-10.7647
jalka	-10.7648
▁virallisesti	-10.7649
▁Poika	-10.765
▁parantu	-10.7656
▁joukkueessa	-10.7657
▁Keskus	-10.7662
▁Koski	-10.7667
▁poistui	-10.7668
rahoja	-10.7669
kuljetus	-10.7673
ratkaisu	-10.7686
▁Veikkausliiga	-10.7687
▁opiskelu	-10.7687
▁Group	-10.7687
▁perussuomalaise	-10.7687
▁tutkimuksi	-10.7688
▁vuodet	-10.7692
▁rinnalla	-10.7693
urheilijoiden	-10.7694
tunti	-10.7694
▁malt	-10.7694
▁Roope	-10.7695
▁kirjailija	-10.7698
▁laittoma	-10.7698
virus	-10.7698
tarha	-10.77
▁SE	-10.7706
▁laittee	-10.7709
▁Aivan	-10.7712
▁valikoi	-10.7718
▁karu	-10.7721
▁rikki	-10.7744
▁Keskiviikkona	-10.7744
▁nöyr	-10.7744
terapia	-10.7745
▁kasvava	-10.7746
▁selvitti	-10.7747
▁ruuhka	-10.7749
▁tuottaja	-10.775
▁THL	-10.7751
▁tyttärensä	-10.7751
▁avustus	-10.7752
▁laajasti	-10.7753
▁yhdisty	-10.7756
▁poikki	-10.7756
▁Jazz	-10.7757
▁vaatinut	-10.7757
teatteri	-10.7759
▁tuhoutu	-10.776
▁jotkut	-10.7762
▁tekemässä	-10.7764
▁pelattu	-10.7771
▁Tero	-10.7781
▁vietti	-10.7781
▁Pori	-10.7785
▁satama	-10.7799
▁kohtaamis	-10.78
▁kirjasto	-10.7802
▁ambulanssi	-10.7802
▁kysymykseen	-10.7802
▁läheisyydessä	-10.7802
▁vaihteleva	-10.7802
▁Kärppien	-10.7802
▁Pariskunta	-10.7802
▁Huuhkaji	-10.7802
▁ylpeä	-10.7802
▁paidassa	-10.7802
▁kuvattuna	-10.7803
myrsky	-10.7804
▁Macron	-10.7804
▁Oscar	-10.7805
työntekijä	-10.7805
siirto	-10.7806
▁leviää	-10.7808
▁markkinointi	-10.7814
▁valtavasti	-10.7815
tettaisiin	-10.7816
▁varoitus	-10.7817
paikoilla	-10.7817
osoitte	-10.7826
▁istuu	-10.7826
▁kuulustelu	-10.7827
imp	-10.7831
fer	-10.7836
▁perustu	-10.784
▁väittä	-10.7846
▁juurikaan	-10.7848
▁Richard	-10.786
▁poseeraa	-10.786
▁pidettiin	-10.786
▁yleinen	-10.7861
▁Ehdo	-10.7861
▁Juho	-10.7861
▁millainen	-10.7861
▁ihmisoikeus	-10.7863
luottamus	-10.7863
▁laittoi	-10.7864
▁asioiden	-10.7864
▁Tuuli	-10.7865
▁isompi	-10.7865
▁Mylly	-10.7865
▁avain	-10.787
vuonna	-10.7871
▁tennis	-10.7877
kilpailuissa	-10.7877
▁peruna	-10.7886
▁laskenut	-10.7889
▁kehui	-10.7892
kriisi	-10.7894
05	-10.7907
▁hevonen	-10.7919
valtuutettu	-10.7919
▁tupla	-10.7919
▁tykkää	-10.7923
▁yllätyksenä	-10.7925
▁räp	-10.7929
▁pääsivät	-10.7931
▁Mauri	-10.7935
▁lopetti	-10.7935
▁Eetu	-10.7936
ijoi	-10.7937
▁läheisi	-10.7939
▁epäillä	-10.7939
▁pahoinpitelystä	-10.794
uinti	-10.7941
▁Kello	-10.7941
▁tarve	-10.7944
▁pitki	-10.795
kraat	-10.7956
▁Tokio	-10.7956
aineita	-10.7959
▁kysyntä	-10.7964
▁Esko	-10.7965
▁passi	-10.7973
1)	-10.7976
;	-10.7978
▁Yhdysvaltoihin	-10.7978
▁auringon	-10.7978
▁alijäämä	-10.7978
tutkimuksessa	-10.7978
▁miellyttä	-10.7978
▁Samuli	-10.7978
▁joulukuun	-10.7979
▁asioihin	-10.798
▁apulais	-10.798
▁päästy	-10.7981
▁Tällaise	-10.7982
projekti	-10.7982
▁Lasten	-10.7982
▁päivitetty	-10.7983
▁Helander	-10.7984
▁ikäluok	-10.7984
▁rakennuksen	-10.7991
▁pilvi	-10.7992
▁Real	-10.7997
▁neste	-10.7999
▁syntyne	-10.8003
▁seudulla	-10.8011
vaihte	-10.8017
▁rajusti	-10.8026
▁pitkiä	-10.8027
▁käsitellä	-10.8028
suurlähetystö	-10.8037
▁Frederik	-10.8037
▁vammoja	-10.8037
▁Pietari	-10.8037
▁kadonnut	-10.8037
▁59	-10.8037
▁Tammi	-10.8037
▁hovioikeus	-10.8038
▁johdolla	-10.8038
▁heikenty	-10.8038
markkina	-10.8038
▁puuttuu	-10.8041
▁historiallise	-10.8041
▁lienee	-10.8043
▁vähene	-10.8045
▁jyrk	-10.8054
▁puuttee	-10.8055
tilasto	-10.8063
▁reitti	-10.8063
▁sovittu	-10.8066
keino	-10.8079
pyöräily	-10.8095
▁Englanti	-10.8096
▁häiritse	-10.8096
▁juniori	-10.8096
▁trendi	-10.8096
▁kaukalo	-10.8096
▁kirkon	-10.8097
▁kaikesta	-10.8097
▁tulevaisuuden	-10.8099
▁kumo	-10.8107
älkä	-10.8108
▁Anttila	-10.8108
▁tuntuva	-10.8109
▁titteli	-10.8112
▁mitkä	-10.8114
▁soittaa	-10.8116
uudeksi	-10.8116
▁hullu	-10.8119
▁otteluun	-10.8122
▁Heikkilä	-10.8122
johtaj	-10.8137
▁riitti	-10.8138
yhtymä	-10.8144
tekniikka	-10.8145
▁Venäjältä	-10.8147
tehtaan	-10.8147
▁Voima	-10.8152
tekijöitä	-10.8154
▁hakemaan	-10.8155
í	-10.8156
▁mielenterveys	-10.8156
▁uutinen	-10.8156
▁syöksy	-10.8157
▁Mänty	-10.8158
▁pormestari	-10.8159
▁leikata	-10.8159
▁Toveri	-10.8162
▁suuremma	-10.8163
▁toistuvasti	-10.8164
pronssi	-10.8164
▁lopputulos	-10.8165
▁vakuuttaa	-10.817
▁Raha	-10.8171
▁hätäkeskukseen	-10.8172
▁Maanantaina	-10.8175
▁kauhu	-10.8175
jakelu	-10.8175
▁turnauksen	-10.8175
▁työpaikka	-10.818
vakuutus	-10.8182
▁Toisin	-10.8183
steri	-10.8185
▁romu	-10.8194
harju	-10.8194
eurooppalais	-10.8197
▁harras	-10.8204
▁koskevi	-10.8211
▁inflaatio	-10.8217
▁mainittu	-10.8217
▁kyydissä	-10.8217
▁heikkene	-10.8217
▁säännöllisesti	-10.8217
▁Harkova	-10.8218
kaasu	-10.8221
▁laajenta	-10.8222
valvoja	-10.8222
▁Sauvo	-10.8235
▁2007	-10.8237
▁uskotaan	-10.8242
▁seuraavi	-10.8242
▁kielen	-10.8243
▁120	-10.8245
▁äänestäjä	-10.8246
lupaus	-10.8251
▁85	-10.8253
▁Hö	-10.8254
▁vääri	-10.8265
paikalta	-10.8268
▁Otto	-10.827
▁pohjalta	-10.827
▁Kaupunki	-10.8277
▁Koivisto	-10.8277
▁kuvernööri	-10.8277
▁vuodelle	-10.8277
▁Oikea	-10.8278
▁syytety	-10.8278
▁seurakunna	-10.8279
▁Seiska	-10.828
▁tulkin	-10.8281
▁riste	-10.8282
▁jyrä	-10.8285
▁osoittautu	-10.8285
▁viil	-10.8289
▁onnistunee	-10.8295
▁pyytä	-10.8298
▁Hinta	-10.83
▁Jokainen	-10.8308
▁plus	-10.8311
arkisto	-10.8316
▁käytiin	-10.8325
kylässä	-10.8329
▁ristiriita	-10.8338
▁George	-10.8338
▁tiettävästi	-10.8338
systeemi	-10.8338
▁Romania	-10.8338
▁1980-	-10.8338
▁Lassila	-10.8339
▁lukee	-10.8339
▁ajetaan	-10.834
issut	-10.8341
▁kokonaisuudessa	-10.8342
▁kotiottelu	-10.8343
lämpö	-10.8345
▁sisar	-10.8346
▁hylly	-10.8347
▁Mö	-10.8347
▁KHL	-10.8349
▁valtaosa	-10.8353
yrityksen	-10.8353
Liisa	-10.8363
▁erilaista	-10.8364
▁haasteita	-10.8365
valmiste	-10.8371
▁näkemään	-10.8372
▁joutua	-10.8375
lyönti	-10.8384
▁1-1	-10.8385
▁toisten	-10.8392
▁Seppo	-10.8392
▁Kuningas	-10.8399
▁Terveys	-10.8399
▁yhdestä	-10.8399
▁suhteellise	-10.8399
▁tammikuun	-10.84
▁otteeseen	-10.84
▁puheenvuoro	-10.84
▁kiistää	-10.8401
tarkoitukse	-10.8403
▁kehittää	-10.8405
▁KuPS	-10.8407
▁keskeisi	-10.8407
Ä	-10.8411
mestaruuden	-10.8412
valvonta	-10.8412
▁vastaanotto	-10.842
▁pisteitä	-10.8423
▁kärsinyt	-10.8427
▁Pohjoismai	-10.8435
president	-10.8447
▁ollee	-10.846
▁Belgia	-10.8461
▁Jyrki	-10.8461
▁juhannus	-10.8461
▁asukkaat	-10.8461
▁keskiviikon	-10.8462
▁Björ	-10.8462
▁Mukana	-10.8462
▁kg	-10.8466
▁Tuomari	-10.8466
▁yksityiskohta	-10.8467
▁ystäviä	-10.847
▁mainitsee	-10.8472
▁kestänyt	-10.8473
▁luottaa	-10.8473
▁61	-10.8474
▁Näitä	-10.8476
syöpä	-10.848
▁Turkki	-10.849
▁Hus	-10.8497
täessä	-10.8498
▁Konsta	-10.8501
▁ellei	-10.8501
▁Finlandi	-10.8502
▁metalli	-10.8506
SA	-10.8519
▁näytä	-10.8521
▁Palestiina	-10.8523
▁kysymyksiin	-10.8523
▁UMK	-10.8523
▁Yleisö	-10.8523
▁saataisiin	-10.8524
▁Jukuri	-10.8527
▁investointi	-10.8527
▁tuloksia	-10.8527
▁Fox	-10.8527
konserti	-10.8528
▁pyytänyt	-10.8529
▁keskusteli	-10.853
PA	-10.853
▁ohjaus	-10.8534
▁Sund	-10.8536
suur	-10.8536
päivityksen	-10.854
▁vaikeuksia	-10.8541
▁2006	-10.8544
pankki	-10.8547
▁ruumis	-10.8548
tanssi	-10.8549
▁salolais	-10.8554
▁karhu	-10.8559
▁syyttää	-10.8561
▁lupasi	-10.8564
▁250	-10.8567
▁hylk	-10.8571
▁2000	-10.8581
▁Elokapina	-10.8586
▁Lämpö	-10.8586
▁ehdolla	-10.8586
▁helmikuun	-10.8586
▁löydy	-10.8586
▁Korhonen	-10.8586
▁Selänne	-10.8586
▁Christian	-10.8586
▁Eduskunna	-10.8586
▁kuultu	-10.8586
▁suklaa	-10.8586
▁puolta	-10.8586
konserni	-10.8588
▁hoiva	-10.8588
▁vaikeutta	-10.8589
▁paini	-10.8593
▁Ralli	-10.8594
▁Itävalta	-10.8594
▁voitosta	-10.8596
▁turisti	-10.8602
radio	-10.8604
▁2009	-10.8604
solu	-10.8607
▁2004	-10.8609
ydestä	-10.8611
▁harjoittele	-10.8616
▁Col	-10.862
▁Jokela	-10.8622
▁käytös	-10.863
ford	-10.8635
hävittäjä	-10.8636
raport	-10.8648
о	-10.8649
profiili	-10.8649
▁Susanna	-10.8649
poikkeuksellinen	-10.8649
▁hämmentä	-10.8649
▁prosentilla	-10.865
▁ihail	-10.865
▁viileä	-10.8651
▁harkitse	-10.8653
▁riittänyt	-10.8654
▁3-1	-10.8662
valmentaj	-10.8663
▁Koskinen	-10.8667
▁keskenään	-10.8667
▁harha	-10.867
▁sisältävä	-10.8675
▁luokkaa	-10.8676
▁saattaisi	-10.8677
▁Paras	-10.8677
▁Johnson	-10.8678
▁muuttua	-10.868
▁Sosiaali	-10.8681
kauppia	-10.8684
seudun	-10.8686
▁tavoitti	-10.8704
kiekkoilija	-10.8707
▁päässeet	-10.8712
▁Thaimaa	-10.8712
▁ahdistu	-10.8712
▁toiminnassa	-10.8712
▁puoleen	-10.8712
▁osoite	-10.8713
▁työntekijöitä	-10.8713
▁housu	-10.8714
▁tunnelmi	-10.8714
▁mahdollisuudet	-10.8716
▁kotijoukkue	-10.8717
▁reuna	-10.8718
▁laukoi	-10.8719
▁teknise	-10.8722
▁tunsi	-10.8723
ttäneensä	-10.8723
▁Tv	-10.8728
▁tietävät	-10.873
öljy	-10.873
▁hauda	-10.8733
▁Torstaina	-10.8734
▁Sosiaalise	-10.8743
▁Järjest	-10.8747
▁ihmisistä	-10.8754
▁vieraana	-10.8758
▁Puolustusvoimie	-10.8759
utensa	-10.8764
▁täydellise	-10.8764
▁sad	-10.8772
▁Kimi	-10.8773
▁Alex	-10.8776
▁Neuvostoliito	-10.8776
▁Traficom	-10.8776
▁takavarikoi	-10.8776
▁ryöstö	-10.8776
▁verenpaine	-10.8776
▁riveissä	-10.8776
▁huomenna	-10.8776
▁Suomella	-10.8776
▁viittasi	-10.8776
suunta	-10.8778
▁päädy	-10.8778
▁vastaajista	-10.8782
▁esiintynyt	-10.8787
▁huuta	-10.8787
tiedustelu	-10.8795
▁uutisoitiin	-10.8796
▁laih	-10.8796
▁Israeliin	-10.8801
nousu	-10.8804
vaiht	-10.8812
▁pääsiäis	-10.8814
▁kannatukse	-10.8814
▁Harala	-10.8827
▁vankeus	-10.8837
▁venäläiset	-10.8839
▁tuhansi	-10.884
▁edetessä	-10.884
▁Toistaiseksi	-10.884
▁Ottawa	-10.884
▁tietenkään	-10.884
▁luksus	-10.884
▁gramma	-10.884
▁Vantaalla	-10.8841
▁avioero	-10.8842
laukaukse	-10.8842
▁lähipiiri	-10.8844
ttomaksi	-10.8844
tilaisuuksi	-10.8846
▁kohdan	-10.8849
vaaleihin	-10.8849
▁kierrä	-10.885
iteetti	-10.8853
▁tasaise	-10.8854
▁yhdistä	-10.8855
▁työryhmä	-10.8859
▁yksinkertais	-10.886
▁harrastus	-10.8864
▁varoitti	-10.8867
▁kehotti	-10.8874
▁Näistä	-10.8874
▁Jokaise	-10.8875
▁Pidä	-10.8875
▁kyynel	-10.8887
▁ymmärtävä	-10.8892
▁hyppää	-10.8894
▁Sergei	-10.8904
▁ZUMA	-10.8904
▁rikoskomisario	-10.8904
▁asevoimien	-10.8904
▁Kolmanne	-10.8904
▁Matias	-10.8905
▁lempi	-10.8905
▁ajatuksia	-10.8906
▁Kiitos	-10.8907
▁Tällaisi	-10.8907
▁seurannut	-10.8912
▁saavutti	-10.8915
▁keskittyä	-10.8917
markkinoilla	-10.8919
▁millaise	-10.8925
▁ystävänsä	-10.8927
▁Wilma	-10.8928
▁kiinnostunut	-10.8933
▁pakolais	-10.8938
▁pyrkivä	-10.8949
▁Mone	-10.895
▁Yorkissa	-10.8952
kuvio	-10.8961
kertaise	-10.8964
old	-10.8968
*	-10.8969
▁keuhko	-10.8969
▁luottamukse	-10.8969
oikeuksia	-10.897
▁millaista	-10.8971
▁monelle	-10.8971
▁takla	-10.8971
▁supertähti	-10.8972
▁Kier	-10.8972
▁kirjoittanut	-10.8972
kisoista	-10.8974
▁esitetään	-10.8982
▁alukse	-10.899
▁havaittiin	-10.8992
uute	-10.8993
korealai	-10.8993
▁2003	-10.8994
▁lopullise	-10.8998
▁miehensä	-10.8999
talouden	-10.9004
▁Kaivo	-10.9007
peleihin	-10.9009
▁korostu	-10.9015
▁Minna	-10.9019
▁ehdollise	-10.9035
▁myynnissä	-10.9035
▁Toimittaja	-10.9035
▁peräkkäin	-10.9035
psykologi	-10.9035
▁yhtäkkiä	-10.9035
▁keskelle	-10.9035
▁Halonen	-10.9035
▁pettymys	-10.9036
▁Vance	-10.9036
▁Angelesi	-10.9037
▁väliaikaise	-10.9037
▁varmistu	-10.9037
▁terveydenhuollo	-10.9039
▁muualle	-10.9043
▁Lisää	-10.9046
▁huomioida	-10.9049
▁Nico	-10.9055
▁kiittää	-10.9055
leikkauksi	-10.9058
ilmiö	-10.9059
▁aloittama	-10.906
vaatimus	-10.9076
▁sotilaallis	-10.908
▁Pieni	-10.9082
▁näp	-10.9086
▁Pyy	-10.9088
▁tutkinnanjohtaj	-10.9092
vapaa	-10.9093
▁Tuleva	-10.9093
▁hallitseva	-10.9094
Matti	-10.9096
▁nikotiini	-10.91
▁muistetaan	-10.91
käyttäytymis	-10.9101
▁riemu	-10.9101
▁3-2	-10.9104
▁mielellään	-10.9106
▁Kysely	-10.9107
▁Cam	-10.9108
näytelmä	-10.9109
▁kaverei	-10.9111
▁Tavio	-10.9114
▁käänny	-10.9115
▁heittää	-10.9116
▁kertoneet	-10.9124
KK	-10.9125
tilanteesta	-10.9127
▁bio	-10.913
▁järjestämis	-10.9135
▁alkamis	-10.9137
▁Erikois	-10.9138
lähtee	-10.914
▁vanhempa	-10.9153
▁stadioni	-10.9156
▁Kra	-10.9159
▁sakko	-10.916
▁polvi	-10.916
▁poikkeuksellis	-10.9164
lääkkeitä	-10.9167
▁negatiivis	-10.9167
▁rehtori	-10.9167
▁vanhoja	-10.9167
▁muttei	-10.9167
▁Yhdist	-10.9168
tilojen	-10.9169
▁sauno	-10.9169
▁kaata	-10.9171
telemaan	-10.9179
▁Camilla	-10.9184
▁tonni	-10.9185
▁pääsarja	-10.9188
▁kuudenne	-10.9189
▁vasten	-10.919
ammu	-10.92
▁Välillä	-10.921
▁77	-10.9218
▁oireet	-10.9228
▁Swift	-10.9233
▁Kennedy	-10.9233
▁Heiskanen	-10.9233
▁ylipäätään	-10.9233
▁massiivi	-10.9233
▁Mahdolli	-10.9233
▁sinua	-10.9234
▁Kurskin	-10.9234
▁Tiedottee	-10.9235
▁käyttäji	-10.9235
▁hallitusohjelma	-10.9236
▁oltu	-10.9237
syntymäpäivä	-10.9237
▁erinomaise	-10.9237
▁peräisin	-10.924
▁sattuu	-10.924
▁Selvi	-10.9248
▁Kansainvälisen	-10.925
car	-10.9257
▁Harju	-10.9257
▁vähenty	-10.9272
▁harmaa	-10.9278
▁hanka	-10.928
▁parane	-10.9291
Libanon	-10.9299
työskentely	-10.93
▁spekuloi	-10.93
▁yleisradioyhtiö	-10.93
▁Valmentaja	-10.93
▁Puhakka	-10.93
▁Varsinkin	-10.93
▁muusikko	-10.9301
▁sprintti	-10.9301
▁Lahdessa	-10.9301
Amerikan	-10.9301
▁kW	-10.9301
▁puhdista	-10.9303
▁irrot	-10.9304
▁Koira	-10.9306
▁ihmettelee	-10.9307
▁Tutkimus	-10.9312
▁pr	-10.9313
▁kotoa	-10.9314
ominaisuuksi	-10.9315
mittari	-10.9318
▁kuohu	-10.9318
puolustaja	-10.933
▁perheelle	-10.9344
vaikuttamis	-10.9349
päivien	-10.935
▁Will	-10.935
kampanja	-10.9357
▁vaikuttava	-10.9358
▁vaikutuksen	-10.9367
▁tällöin	-10.9368
▁Thomas	-10.9368
▁asunnosta	-10.9368
▁olympialaisiin	-10.9368
▁Kaikkonen	-10.9368
▁romahta	-10.9368
▁ansaitse	-10.9368
▁Press	-10.937
▁Wall	-10.937
▁Luonno	-10.9371
alojen	-10.9371
▁riippumatta	-10.9373
▁myöntänyt	-10.9375
▁Korkea	-10.938
▁ihmetteli	-10.938
▁esittelee	-10.9381
▁Boston	-10.9382
▁Tähti	-10.9384
▁64	-10.9386
▁leima	-10.9389
▁rangaist	-10.9391
▁sävel	-10.9391
mattomia	-10.9395
▁kiristä	-10.94
▁Finland	-10.9402
▁huolestuttava	-10.9405
▁ilmoittautu	-10.9409
osuma	-10.9422
▁Mercedes	-10.9436
▁Oppositio	-10.9436
▁Viranomaise	-10.9436
▁pelottava	-10.9436
▁Tapaukse	-10.9439
▁ajoittain	-10.9439
▁tauko	-10.9441
▁Kotimaa	-10.9444
▁vaikutukset	-10.9445
▁hallitse	-10.9446
▁Talvi	-10.9447
▁keula	-10.9447
nnoissa	-10.9448
▁piikki	-10.9469
▁kuuntele	-10.9472
yrittäjä	-10.9473
▁todellise	-10.9474
▁Ford	-10.9474
▁jumi	-10.9475
▁ohjuksi	-10.9485
▁katoamis	-10.9495
▁Hollywood	-10.9504
а	-10.9504
▁Slovenia	-10.9504
▁perustuslaki	-10.9504
▁tavanomaista	-10.9504
▁todellisuudessa	-10.9504
▁muutokset	-10.9505
▁järjestettävä	-10.9505
▁annettiin	-10.9505
▁kartano	-10.9505
▁puutarha	-10.9507
▁nopeammin	-10.951
▁kuollei	-10.9513
▁puhemies	-10.9517
▁Piene	-10.9519
▁Alb	-10.9524
▁lyk	-10.953
▁terroristi	-10.9531
järjestyksen	-10.9534
professori	-10.9539
aineisto	-10.9547
▁peittä	-10.9563
▁hermo	-10.9572
▁Netflix	-10.9573
mielenosoitukse	-10.9573
▁kansainvälinen	-10.9573
▁Vilppaan	-10.9573
lähtökohtaisesti	-10.9574
▁talvella	-10.9574
▁hirmu	-10.9574
▁Ammatti	-10.9574
▁Tuntuu	-10.9575
▁Isku	-10.9575
▁taposta	-10.9577
▁tippu	-10.9591
▁Tuisku	-10.9592
▁Wol	-10.9594
tarkastus	-10.9595
▁Kirkko	-10.9598
▁palkat	-10.9601
päätöksen	-10.9601
▁kilpailijoi	-10.9603
viranomaiset	-10.9609
suunnittelija	-10.9609
kaupungista	-10.961
uudistus	-10.962
kahvi	-10.9627
▁arvelee	-10.9643
▁periaattee	-10.9643
▁Johannes	-10.9643
▁reservi	-10.9643
▁Määttä	-10.9643
▁Toronto	-10.9643
▁3-0	-10.9643
▁maksettava	-10.9643
lääketietee	-10.9644
▁tuhanne	-10.9644
▁Pelaaja	-10.9645
▁ottaen	-10.9645
▁Vilpas	-10.9646
▁kolmatta	-10.9646
▁työllisyys	-10.9648
▁kertyi	-10.9649
▁tyypillisesti	-10.965
▁käsitykse	-10.9652
▁menettänyt	-10.9653
▁haltuunsa	-10.9655
▁Kokonais	-10.9664
▁eduskuntaryhmä	-10.9664
oidu	-10.9664
▁runsas	-10.9665
▁metsi	-10.9668
aikoina	-10.9681
▁sovellu	-10.9681
▁seudu	-10.9693
huoneeseen	-10.9694
jöitä	-10.97
uksille	-10.9703
ahdus	-10.9709
tapahtumiin	-10.9713
▁Tavoitteena	-10.9713
▁pidempään	-10.9713
▁propaganda	-10.9713
▁People	-10.9713
▁aamupäivällä	-10.9713
▁Volvo	-10.9713
▁ulkonäkö	-10.9713
▁nähtävä	-10.9713
▁vaaleja	-10.9713
▁lääkkee	-10.9713
▁vaalea	-10.9715
▁näyttäisi	-10.9716
▁Kävi	-10.9717
▁Tapaus	-10.9717
▁turvallisuutta	-10.9718
▁baari	-10.9719
▁toisistaan	-10.972
▁Älä	-10.9732
valinta	-10.9743
▁käynnist	-10.9746
▁rehellis	-10.9753
▁pääkaupunki	-10.9762
▁koriste	-10.9765
▁väitety	-10.9774
▁kansanedustaji	-10.9783
▁naimisissa	-10.9783
▁väitteitä	-10.9783
▁JYP	-10.9783
▁Kinnunen	-10.9783
▁Niemelä	-10.9783
▁Pirkanmaan	-10.9783
▁Aurinko	-10.9783
▁Smith	-10.9783
▁Piispa	-10.9783
▁Yritys	-10.9784
▁johda	-10.9785
▁kytke	-10.9785
▁Malmö	-10.9785
▁selvinnyt	-10.9785
▁näihin	-10.979
▁kuvitella	-10.979
▁siirtynyt	-10.979
rooli	-10.9791
▁ilmapiiri	-10.9791
▁palaute	-10.9794
▁tunniste	-10.9799
▁Adam	-10.98
▁Pelast	-10.98
▁Kansallis	-10.9811
nomaise	-10.9812
▁alkuperäise	-10.9814
asetelma	-10.9817
▁syyllistyneen	-10.9821
tutkimuksen	-10.9824
▁Hussi	-10.9831
fyysis	-10.9852
komitea	-10.9853
▁Artikkeli	-10.9854
▁1970-	-10.9854
▁Google	-10.9854
▁Navalnyi	-10.9854
▁Yhdysvaltalais	-10.9854
▁löydetty	-10.9854
urheilijoita	-10.9854
▁Niskasen	-10.9854
▁Syksy	-10.9854
▁lopputulokse	-10.9855
▁syytteen	-10.9855
lautakunnan	-10.9859
▁lännen	-10.986
▁hillit	-10.9861
▁liikkumis	-10.9863
▁lievä	-10.9864
▁Kesäkuu	-10.9864
▁kiitollinen	-10.9865
NA	-10.9867
▁käyttävät	-10.9868
▁Payne	-10.9872
▁metro	-10.9874
llisyys	-10.9876
▁suostunut	-10.9878
▁Facebookissa	-10.9879
▁entis	-10.9881
varasto	-10.9882
▁vanhoi	-10.9885
back	-10.9893
demokraatti	-10.9896
▁kansalaisia	-10.9899
tehtäviin	-10.9899
rangaistuksen	-10.9904
▁kokenee	-10.9909
▁näkyvi	-10.991
▁62	-10.9912
▁63	-10.9915
▁Liverpool	-10.9926
terapeutti	-10.9926
▁Chicago	-10.9926
▁Hämeenlinna	-10.9926
▁luonnehti	-10.9926
▁maailmanlaajui	-10.9926
▁stressi	-10.9926
▁hyökkäyssota	-10.9926
▁peräkkäis	-10.9926
▁kotimaise	-10.993
▁lentopallo	-10.9931
▁temppu	-10.9932
▁puheessaan	-10.9933
▁nostettu	-10.9934
▁ammuttiin	-10.994
▁järjestetyssä	-10.9942
▁ajattelu	-10.9942
ttomien	-10.9951
▁KU	-10.9957
▁opinto	-10.9958
▁kymmenes	-10.9959
▁roska	-10.996
tävyys	-10.9961
▁useimmi	-10.9963
▁kuluttaji	-10.9997
▁Barcelona	-10.9998
▁McLaren	-10.9998
▁Tällöin	-10.9998
kansleri	-10.9998
▁näkemyksi	-10.9998
häirinnä	-10.9998
oikeuksien	-10.9998
▁edennyt	-10.9998
▁kieltäytyi	-10.9998
▁kiistänyt	-10.9998
▁Tallinna	-10.9998
▁erikoinen	-10.9998
▁tasku	-10.9998
kierroksella	-10.9999
▁asteeseen	-10.9999
▁monessa	-11
stre	-11.0001
▁Pyhä	-11.0003
▁Tyson	-11.0008
▁onnellinen	-11.0015
▁uuni	-11.002
▁lukea	-11.0027
myynti	-11.0051
▁aiheuttami	-11.0057
▁Essayah	-11.007
▁Pittsburgh	-11.007
▁Helsingistä	-11.007
▁Hämäläinen	-11.007
▁rakentaminen	-11.007
▁turvapaikanhak	-11.007
▁Jarkko	-11.007
▁Ryhmä	-11.0071
▁Viertola	-11.0071
▁leveä	-11.0072
▁paksu	-11.0077
▁Asunto	-11.008
▁vaaditaan	-11.008
▁vappu	-11.0085
▁ottama	-11.0099
kaupungin	-11.0109
▁kuntoutu	-11.0109
▁sotilaallise	-11.0138
▁kiihty	-11.0142
vuotiaat	-11.0143
▁enimmä	-11.0143
▁Kuusamo	-11.0143
▁odotetu	-11.0143
▁perussuomalaisi	-11.0143
▁johtui	-11.0143
▁läsnäolo	-11.0144
▁Bottakse	-11.0144
▁johdosta	-11.0144
paikoista	-11.0146
▁käden	-11.0147
▁vuorokauden	-11.0148
rajojen	-11.0148
voitolla	-11.0165
▁viihde	-11.0165
▁for	-11.0165
kohteisiin	-11.0172
▁kasvattaa	-11.0175
+3	-11.0175
▁tietokone	-11.0181
kriittis	-11.0198
▁67	-11.02
▁testaa	-11.02
▁urhe	-11.0203
rangaistukseen	-11.0207
gue	-11.021
päällikön	-11.0217
▁valitettavasti	-11.0217
▁Berliini	-11.0217
@	-11.0217
▁sähköpostitse	-11.0217
▁liikkeellä	-11.0217
▁Ajattelin	-11.0217
▁hävinnyt	-11.0217
▁pidety	-11.0217
▁Stora	-11.0218
▁vaarallisi	-11.0226
sängy	-11.0226
tarkastaja	-11.023
▁Praha	-11.023
▁viimeisellä	-11.0233
▁päätoimittaja	-11.0233
▁Audi	-11.0236
▁taloutta	-11.0237
▁valkoise	-11.024
▁pysynyt	-11.0241
▁kestänee	-11.0245
▁katsomassa	-11.0251
kohteen	-11.0253
finaal	-11.0254
▁verkkosivu	-11.0267
▁ruotsalaise	-11.0287
▁julkiste	-11.029
▁Räsänen	-11.0291
▁mieluummin	-11.0291
н	-11.0291
▁moderni	-11.0291
▁henkeä	-11.0292
▁olympiakomitea	-11.0292
▁oudo	-11.0292
▁poissaolo	-11.0293
▁alkupuolella	-11.0298
▁ilmenee	-11.0299
▁humala	-11.0299
▁rakkaus	-11.03
▁toisinaan	-11.0304
▁tulva	-11.0305
hakemuksen	-11.0344
▁luontee	-11.0347
käyttöön	-11.0351
presidentti	-11.036
▁Lähte	-11.0363
▁loukkaantumise	-11.0365
▁sisäise	-11.0365
▁intohimo	-11.0365
kirurgi	-11.0365
▁myöten	-11.0365
▁äärioikeisto	-11.0365
▁Veitola	-11.0365
muisto	-11.0365
▁huijaus	-11.0365
▁Jarmo	-11.0365
▁mainio	-11.0365
▁2-3	-11.0366
▁hyökkäyssodan	-11.0366
▁olympiavoittaja	-11.0367
▁operoi	-11.0368
▁käyntiin	-11.037
▁Pihla	-11.0371
lapsi	-11.0374
▁Sieltä	-11.0387
▁syitä	-11.0387
▁pohjoisessa	-11.0389
▁käyttämi	-11.039
▁aikuisi	-11.0396
▁kohdistunee	-11.0397
tyttö	-11.0421
▁Adlercreutz	-11.044
▁Youtube	-11.044
е	-11.044
▁huipen	-11.044
▁Wood	-11.044
▁italialais	-11.044
▁puhelimen	-11.044
▁uskomattoma	-11.0442
▁miehistä	-11.0442
▁Sauber	-11.0442
▁Meksiko	-11.0444
▁jengi	-11.0445
▁tältä	-11.0448
▁menneet	-11.045
IC	-11.0451
putken	-11.0456
▁käsittelee	-11.0457
remonti	-11.0459
▁helpottaa	-11.0465
Perniö	-11.0475
paikkojen	-11.0486
haitta	-11.0498
pyöräilijä	-11.0507
▁Jim	-11.0512
>	-11.0516
▁München	-11.0516
▁hyppäsi	-11.0516
и	-11.0516
▁1999	-11.0516
▁ryhtyi	-11.0516
▁syöttöpiste	-11.0516
▁mahtuu	-11.0516
▁Itävallan	-11.0517
▁aikoja	-11.0517
▁Kuinka	-11.052
▁laituri	-11.052
▁perusteltu	-11.0522
▁Saudi	-11.0523
▁tarjoava	-11.0525
▁asiakkaiden	-11.0527
▁säilyttää	-11.0529
▁Olga	-11.0529
▁hengitys	-11.0531
▁arvokisa	-11.0556
▁totea	-11.056
▁Sunnuntai	-11.0562
markkinoiden	-11.0563
hallinnon	-11.0567
▁pitämä	-11.057
äänestys	-11.0574
yksinkertaisesti	-11.0584
▁66	-11.0586
lähdön	-11.0592
infektio	-11.0593
komissaari	-11.0593
▁asiakkaat	-11.0593
▁kuormi	-11.0593
▁voimakkai	-11.0593
▁valtiovierailu	-11.0593
▁kaikessa	-11.0594
palkka	-11.0596
▁ajettu	-11.0596
▁kameroi	-11.0597
▁nimeltään	-11.0597
▁Soini	-11.0597
▁varhais	-11.06
▁Grand	-11.0602
▁päiväkoti	-11.0603
▁kunnosta	-11.0603
▁hautajais	-11.0605
▁pidätettiin	-11.0613
▁pienemmä	-11.0614
▁mittaise	-11.0623
uuksien	-11.064
merkit	-11.0646
▁Henna	-11.0652
terveys	-11.0657
▁maakunna	-11.0662
kärry	-11.0668
▁Minnesota	-11.0669
▁Viaplay	-11.0669
▁yksityiskohtia	-11.0669
▁kehysriihe	-11.0669
▁Pohjola	-11.0669
▁TTK	-11.0669
▁tallentui	-11.067
▁Tähkä	-11.067
▁Taiwan	-11.067
tulehdus	-11.067
▁odotuksi	-11.067
▁Uutistoimisto	-11.0671
▁palvele	-11.0671
▁Leyen	-11.0671
▁hedelmä	-11.0675
▁käteen	-11.0675
▁varautua	-11.0678
ryhmien	-11.0679
▁esittänyt	-11.0685
▁puuttua	-11.069
▁1-2	-11.0691
▁seurakunta	-11.0693
▁Järjestö	-11.0706
▁niuk	-11.0717
▁osapuole	-11.0728
Video	-11.073
▁päivittäis	-11.073
▁Ravintola	-11.0747
▁Ongelma	-11.0747
▁Moottori	-11.0747
▁vankeutta	-11.0747
▁Vilén	-11.0747
▁touhu	-11.0747
▁Palvelu	-11.0747
▁täyssähkö	-11.0747
▁päättynyt	-11.0748
▁Amaz	-11.0748
▁tyttöystävä	-11.0749
▁päihde	-11.0754
ür	-11.0756
▁valmistettu	-11.0758
hyppääjä	-11.076
▁lähtemään	-11.0766
▁pyrkinyt	-11.0766
▁tarjoama	-11.0768
tunnist	-11.0769
▁jakama	-11.0776
▁Island	-11.078
kaupat	-11.0789
▁tavata	-11.0795
liittymä	-11.0803
hyökkäys	-11.0809
▁aiemmi	-11.0812
▁käsitys	-11.0815
Amerikassa	-11.0825
▁hyvinvoinnin	-11.0825
pöydän	-11.0825
▁kentälle	-11.0825
▁välityksellä	-11.0825
leijona	-11.0825
▁Kolmas	-11.0825
▁kuntosali	-11.0825
▁Tiedän	-11.0825
▁tiukasti	-11.0826
▁metsästys	-11.0826
▁tuoksu	-11.0826
▁uutuus	-11.0826
▁kipeä	-11.0827
▁tärkeintä	-11.0827
▁juure	-11.0827
▁traum	-11.0829
▁Lidl	-11.0832
minuutt	-11.0832
▁tapauksissa	-11.0833
▁täydellinen	-11.0833
▁sinänsä	-11.0834
▁tarvittava	-11.0835
▁kulunee	-11.0843
▁panos	-11.0847
▁siirtolais	-11.0855
▁Lapset	-11.0855
liikenteeseen	-11.0856
▁muutoksi	-11.0876
sähkö	-11.0882
parlamentti	-11.0889
syötö	-11.0891
pohj	-11.0892
televä	-11.0893
kirjoittaja	-11.0898
▁kaksois	-11.0904
toimenpiteitä	-11.0904
▁Scholz	-11.0904
▁globaali	-11.0904
▁diesel	-11.0904
▁Hollannin	-11.0904
▁Golf	-11.0904
▁auttoi	-11.0904
▁kuulostaa	-11.0905
▁hiekka	-11.0905
▁johtamis	-11.0906
▁hiljaise	-11.0906
▁Markkase	-11.0907
▁puuttui	-11.0908
▁leikkauksia	-11.0908
▁päättäji	-11.0909
▁avoimi	-11.091
▁palatsi	-11.0913
▁Norris	-11.0913
▁hälytys	-11.0914
▁haastatteli	-11.0915
▁Lähteet	-11.0916
laatikko	-11.0917
heimo	-11.0917
▁jättämään	-11.0919
▁kaltaisi	-11.0921
ction	-11.0922
▁uhkaava	-11.0941
▁aloittee	-11.0941
▁edullise	-11.0952
valikoima	-11.0957
▁oppilas	-11.0961
▁Miami	-11.0964
aalto	-11.0967
olympia	-11.0971
▁vastustaji	-11.098
Afrikan	-11.0983
psykiatri	-11.0983
▁Ahvenanmaa	-11.0983
▁helsinkiläis	-11.0983
▁surkea	-11.0983
▁Niklas	-11.0983
▁Kapanen	-11.0984
▁Tilantee	-11.0985
▁päättynee	-11.0986
▁tuomitse	-11.0989
▁lakot	-11.0992
▁perinteisi	-11.0993
▁tammi	-11.1
lapse	-11.101
▁ohjaama	-11.1012
▁pelaamise	-11.1024
▁osallistumise	-11.1025
▁raiskaukse	-11.1044
ennettu	-11.1055
▁Arvio	-11.1056
mylly	-11.1056
▁suhtautuu	-11.1063
▁Elisabet	-11.1063
▁muokattu	-11.1063
▁Pelastuslaitoks	-11.1063
▁kenenkään	-11.1063
▁Ogier	-11.1063
▁kohdista	-11.1064
▁voittanee	-11.1065
▁valmennukse	-11.1069
▁väitetään	-11.107
▁miettimään	-11.1071
▁useammin	-11.1076
▁iltapäivä	-11.1084
▁liiketoiminta	-11.1098
▁spr	-11.1108
rahasto	-11.1111
▁oikei	-11.1118
▁terveyden	-11.1131
vierailu	-11.1132
palkinto	-11.1134
pysäyt	-11.1136
ttomuuden	-11.114
kuitu	-11.1143
▁räjähdys	-11.1144
▁mielipiteitä	-11.1144
▁hämmästel	-11.1144
▁ABC	-11.1144
▁Orban	-11.1144
▁kärkeen	-11.1144
▁hylkäsi	-11.1144
▁uhrei	-11.1145
▁Oksa	-11.1147
▁rakentama	-11.116
▁Kolmi	-11.1183
▁Nordmo	-11.1183
vuudesta	-11.119
▁eurovaali	-11.1193
paikkakunna	-11.1196
syövä	-11.1211
organisaatio	-11.1216
▁yksityise	-11.1216
▁investoi	-11.122
politiikasta	-11.1222
onnettomuuksi	-11.1225
▁Alkoholi	-11.1225
▁Matthew	-11.1225
▁israelilais	-11.1225
▁ympäröi	-11.1225
▁kommentit	-11.1225
▁puolivälieri	-11.1225
▁1994	-11.1225
▁Valtiovarain	-11.1225
▁kuultiin	-11.1225
▁lämpimi	-11.1225
▁maaleja	-11.1226
▁maastopalo	-11.1227
▁raportin	-11.1227
▁Rooman	-11.1227
▁Lundell	-11.1227
▁kerätä	-11.1228
▁laajalti	-11.1228
paketin	-11.1229
▁Paikalli	-11.1231
▁lentoasema	-11.1234
▁Vaara	-11.1248
▁Andrew	-11.125
▁Valmi	-11.1281
mahdollis	-11.1296
teknologi	-11.1298
demokraatit	-11.1307
▁Tshekki	-11.1307
▁Tuppurainen	-11.1307
▁putkeen	-11.1307
▁Lisätty	-11.1307
▁pätkä	-11.1307
▁Libanonissa	-11.1307
▁Farmi	-11.1308
▁tilanteita	-11.1308
▁hetkessä	-11.1308
▁Eeva	-11.1309
▁itselleni	-11.1309
▁sijainti	-11.1309
qui	-11.131
▁kiihdyt	-11.1311
▁voittomaali	-11.1315
slav	-11.1318
ennätys	-11.132
▁hammas	-11.1322
2022	-11.1328
▁termi	-11.1335
poliittise	-11.1347
harjoituksi	-11.1351
harvinais	-11.1359
▁laivasto	-11.1361
▁kuivu	-11.1361
▁renno	-11.1369
kulmi	-11.1371
▁järjestety	-11.1372
aktivisti	-11.139
▁Republikaani	-11.139
▁ilmoitettu	-11.139
▁internet	-11.139
▁positiivinen	-11.139
▁senttimetriä	-11.139
▁Neuville	-11.139
▁maksetaan	-11.139
▁Peskov	-11.139
äänestyksessä	-11.139
▁takaise	-11.1391
▁tapahtumapaika	-11.1391
▁Jakso	-11.1392
▁karmea	-11.1393
▁uimahalli	-11.1393
▁mainita	-11.1393
▁parisuhde	-11.1395
▁ajokeli	-11.1395
kivääri	-11.1396
▁sohva	-11.1396
▁eläkeläis	-11.1404
▁sairastumis	-11.1405
▁Tänak	-11.1406
turvallisuudesta	-11.1411
▁vaihtee	-11.1418
saaressa	-11.1422
▁puolustuksen	-11.1441
▁minuuti	-11.1441
▁liikkuma	-11.146
▁Presidenti	-11.1464
Z	-11.1464
▁turvapaikka	-11.1464
▁HPK	-11.1473
▁Ruotsalainen	-11.1473
▁entuudestaan	-11.1473
▁Johaug	-11.1473
▁Juontaja	-11.1473
▁Rakennus	-11.1473
▁juhannukse	-11.1473
▁täsmä	-11.1473
▁SVT	-11.1473
▁romahti	-11.1473
▁perinteinen	-11.1473
▁pidettävä	-11.1473
▁Bill	-11.1473
▁läheltä	-11.1473
▁Reijo	-11.1474
▁kelpaa	-11.1474
▁ennalta	-11.1474
idässä	-11.1474
▁hetkeksi	-11.1474
▁muuhun	-11.1475
▁henkirikos	-11.1476
▁hallitsi	-11.1478
tuomioistuin	-11.1479
esiintymi	-11.1481
▁käsiteltiin	-11.1481
▁sinun	-11.1486
kohdassa	-11.1491
▁täyttävä	-11.1499
▁Ystäv	-11.1504
risteily	-11.1511
▁hallituspuolue	-11.1515
aaleista	-11.152
tilaisuuteen	-11.1522
▁voittama	-11.1522
▁ominais	-11.1536
vaikeuksi	-11.1547
▁sukulais	-11.1554
istunno	-11.1554
▁Argentiina	-11.1557
▁Hakkarainen	-11.1557
▁Philadelphia	-11.1557
▁esitutkinnan	-11.1557
▁espanjalai	-11.1557
▁odotettavissa	-11.1557
▁Kyllönen	-11.1557
▁tarvitsisi	-11.1557
▁hylättiin	-11.1557
▁grilli	-11.1557
▁miehestä	-11.1557
▁Arsenal	-11.1557
▁Kosonen	-11.1558
▁korkeude	-11.1558
rosenttiyksikköä	-11.1558
▁hiukan	-11.1558
▁Land	-11.1558
▁ilk	-11.1558
▁Täytyy	-11.1559
▁lähettänyt	-11.1559
paneeli	-11.1562
▁Bild	-11.1562
▁tulevaisuus	-11.1564
esteissä	-11.1572
▁parantamis	-11.1572
taktiik	-11.1584
▁jakautu	-11.1584
▁Michel	-11.1585
▁Team	-11.1588
▁alenta	-11.1588
käynnin	-11.1589
▁Vastaava	-11.159
▁Kent	-11.1636
turvallisuus	-11.1639
viranomaisten	-11.1639
skandaali	-11.1642
ó	-11.1642
▁Hurrikaani	-11.1642
▁Jungner	-11.1642
▁ykkönen	-11.1642
▁Musiikki	-11.1642
▁keskeinen	-11.1642
klubi	-11.1642
▁Olympiastadioni	-11.1642
▁lämpene	-11.1642
▁tapahtuva	-11.1642
▁Sirpa	-11.1642
▁kihla	-11.1643
▁pakeni	-11.1644
▁Krimi	-11.1645
▁vaatteita	-11.1645
▁Tammikuu	-11.1646
▁siirtyä	-11.1646
▁johtuva	-11.1647
▁tavoittanut	-11.1647
▁Nordea	-11.1648
▁korkeamma	-11.1649
▁Lamp	-11.1649
▁Jouni	-11.1651
▁loppupuolella	-11.1651
▁täytyi	-11.1652
▁aviomiehe	-11.1652
▁virkamies	-11.1652
▁lähetyksen	-11.1654
eläin	-11.1661
suunnitelmia	-11.1662
aloitte	-11.1675
tutkinto	-11.1682
alisoi	-11.1692
▁miehittä	-11.1698
▁Suomenlahde	-11.1701
▁ranka	-11.1704
vaikutus	-11.1725
ajoneuvo	-11.1726
bakteeri	-11.1727
ympärivuorokauti	-11.1727
▁Apple	-11.1727
▁Nashville	-11.1727
▁ruotsalainen	-11.1727
▁harvinainen	-11.1727
▁väitteet	-11.1727
▁kärjessä	-11.1727
▁pudonnut	-11.1727
▁toivottavasti	-11.1727
▁Järvinen	-11.1727
▁Tyttö	-11.1728
▁välein	-11.1728
▁saaristo	-11.1729
▁lämmintä	-11.173
▁maksimi	-11.173
hakemus	-11.173
▁hetkeä	-11.173
hotelli	-11.173
paikoille	-11.173
▁kotimaassa	-11.1731
▁väkeä	-11.1732
▁kolmasosa	-11.1735
▁tekemiseen	-11.1736
▁tienasi	-11.1738
▁Kohta	-11.1738
▁4-1	-11.1748
▁edeltävä	-11.1756
▁Suure	-11.1764
▁suunnitteli	-11.1769
▁myrky	-11.1771
ehdokkaaksi	-11.1774
rintama	-11.1788
keitto	-11.1795
myönteis	-11.1797
▁BMW	-11.1814
▁klassikko	-11.1814
▁Kiljunen	-11.1814
▁Volkswagen	-11.1814
▁World	-11.1814
▁skenaario	-11.1814
▁vahingossa	-11.1814
▁Piikkiö	-11.1814
▁Teatteri	-11.1814
▁mainitsi	-11.1814
▁näyttäyty	-11.1814
Ukraina	-11.1814
▁oltiin	-11.1814
▁häpeä	-11.1814
▁nettisivu	-11.1817
▁ulkopuolelta	-11.1818
▁julisti	-11.1818
▁parikymmentä	-11.1819
▁pöly	-11.1819
selvityks	-11.1822
▁Elokuu	-11.1824
▁keskeise	-11.1827
▁arkea	-11.1828
▁ystävien	-11.1829
sovellus	-11.1839
▁pakettiauto	-11.1846
kelpois	-11.1851
▁rikosilmoitukse	-11.1852
+0	-11.1868
▁selv	-11.1875
▁muuttunee	-11.1883
näytte	-11.1885
▁tehokkai	-11.1897
ehdokkuude	-11.19
▁Yhteensä	-11.19
▁diplomaatti	-11.19
▁mysteeri	-11.19
▁Yrittäjä	-11.19
▁varmisti	-11.1901
▁Vikman	-11.1901
▁vastoin	-11.1901
▁keskittyy	-11.1901
▁viidenneksi	-11.1901
▁Kuusela	-11.1901
▁Finaali	-11.1901
▁Obama	-11.1901
▁metrillä	-11.1902
päivinä	-11.1902
Euroopan	-11.1903
▁Nelose	-11.1903
▁käytety	-11.1903
▁harjoituksissa	-11.1906
▁hälytyksen	-11.1907
▁strategia	-11.1916
▁herra	-11.192
▁luultav	-11.192
▁aloittava	-11.1923
▁juliste	-11.1928
ammatti	-11.1929
kerroin	-11.193
▁hengit	-11.1932
▁mutka	-11.1933
sopimuksesta	-11.1954
ilmoituksen	-11.1954
oppaa	-11.1954
▁kuninkaallise	-11.1955
varoituksen	-11.1964
hallinta	-11.197
laitteiden	-11.198
toiminnanjohtaja	-11.1988
▁budjeti	-11.1988
dokumentissa	-11.1988
ilmoituksia	-11.1988
insinööri	-11.1988
▁Hradecky	-11.1988
▁ohjelmisto	-11.1988
▁ymmärsi	-11.1988
marginaali	-11.1988
▁toimittajille	-11.1988
▁yritetään	-11.1988
▁Qatar	-11.1988
▁ranniko	-11.1988
▁Ennakko	-11.1989
▁paljoa	-11.1989
▁Ulkopoliittise	-11.1989
▁huomata	-11.1992
▁palomestari	-11.1992
▁kevyt	-11.1992
▁Hieno	-11.1994
▁totuus	-11.1995
▁Katja	-11.2001
▁menehty	-11.2003
kymmenen	-11.2005
▁Fico	-11.201
▁tullessa	-11.2011
▁Lund	-11.202
▁esimerk	-11.203
▁laadukkaa	-11.2035
▁Tilasto	-11.2056
▁korvaukse	-11.2065
tuneena	-11.2068
▁Canadiens	-11.2077
▁Duplantis	-11.2077
▁Kroatia	-11.2077
▁Pennsylvania	-11.2077
▁venäläinen	-11.2077
▁palkittiin	-11.2077
▁Rasmus	-11.2077
▁Satakunnan	-11.2077
▁maalivahdi	-11.2077
▁rinnalle	-11.2077
▁Porvoo	-11.2077
▁toimesta	-11.2077
▁Hollanti	-11.2077
▁kuunnella	-11.2077
lääkärei	-11.2078
▁Satonen	-11.2078
▁Noora	-11.2078
▁liikevaihto	-11.2079
▁tyytyväisiä	-11.2079
suosikki	-11.2081
▁mitattiin	-11.2083
▁kannattava	-11.2084
▁sisäpiiri	-11.2084
▁huusi	-11.2089
▁kaltaise	-11.2105
▁itke	-11.2106
▁ilmaise	-11.2107
kamp	-11.2114
▁varmiste	-11.2116
▁Kansalais	-11.2127
▁vanhemma	-11.2158
▁Bess	-11.2162
▁Egypti	-11.2166
▁Julkaisu	-11.2166
▁veteraani	-11.2166
▁Hovioikeus	-11.2166
▁julkisuudesta	-11.2166
sarjoissa	-11.2166
▁Lähtö	-11.2166
▁tehneensä	-11.2166
▁käytäntö	-11.2166
▁Viktor	-11.2166
▁niukasti	-11.2166
▁oleskelu	-11.2166
▁asevoimat	-11.2167
▁Tapani	-11.2167
▁Ismo	-11.2167
▁rikosepäily	-11.2167
▁Juhla	-11.2167
▁Samoin	-11.2168
▁yritä	-11.2168
▁Kontio	-11.2171
musiikki	-11.2171
▁valtioneuvosto	-11.2171
▁tuotteet	-11.2171
kysymys	-11.2173
äyttö	-11.2176
▁ajatellut	-11.2176
varovais	-11.2211
▁Paikallise	-11.2213
vaalikampanja	-11.2222
väisty	-11.2226
rikoksia	-11.2231
▁Käräjäoikeude	-11.2256
▁humanitaari	-11.2256
▁NRK	-11.2256
▁Penguins	-11.2256
▁käytöksestä	-11.2256
▁1998	-11.2256
▁2027	-11.2256
▁Brother	-11.2256
▁Puhakan	-11.2256
▁tulitauko	-11.2256
▁mainitu	-11.2256
viljely	-11.2256
▁rengas	-11.2256
▁Keränen	-11.2257
▁vammoi	-11.2259
▁pakene	-11.2259
▁luopua	-11.226
▁sosiaaliturva	-11.2261
▁kunnanjohtaja	-11.2262
peruste	-11.227
luodon	-11.2276
▁Torstai	-11.2279
▁johtaji	-11.2283
▁samanlaise	-11.2308
vaiheeseen	-11.2315
▁Tusk	-11.2315
ø	-11.2347
▁sabotaasi	-11.2347
▁Räikkönen	-11.2347
▁pudotuspeleissä	-11.2347
▁Karlsson	-11.2347
▁pidemmän	-11.2347
▁automaattisesti	-11.2347
▁remontoi	-11.2347
▁Haastattelu	-11.2347
▁perheenjäsen	-11.2347
▁edisty	-11.2347
▁Jackson	-11.2347
▁tempu	-11.2347
▁terassi	-11.2347
piireissä	-11.2348
▁virallinen	-11.2348
kauppojen	-11.2348
▁yhdistetty	-11.2348
▁odotus	-11.2349
▁pysäköinti	-11.235
▁Veera	-11.235
▁mielui	-11.2352
▁huippukokoukse	-11.2353
koodi	-11.2353
▁helpompaa	-11.2356
▁lähettämi	-11.236
▁puhdistu	-11.2366
▁raskai	-11.2381
▁saapuva	-11.2397
divisioon	-11.2439
▁Rääkkylä	-11.2439
▁Brysselissä	-11.2439
▁Tshekin	-11.2439
▁Yleisurheilu	-11.2439
▁vauhdilla	-11.2439
▁pitkäaikainen	-11.2439
▁Syyskuu	-11.2439
▁edellinen	-11.2439
▁kädet	-11.2439
▁Jordan	-11.2439
▁Lindén	-11.2439
▁Kilpi	-11.2439
▁Seitsemä	-11.2439
kaappaus	-11.2439
▁hiljaa	-11.2441
▁raportti	-11.2441
▁avioliitto	-11.2442
▁tarkoittaisi	-11.2442
▁huuli	-11.2443
epäily	-11.2449
laitteita	-11.2451
aktiivi	-11.2452
valio	-11.2457
kaarti	-11.2478
▁kaupunginjohtaj	-11.2497
▁esityksi	-11.2506
▁Erityise	-11.2513
▁Onlyfans	-11.2531
▁resepti	-11.2531
kapasiteetti	-11.2531
▁Hyvinvointialue	-11.2531
▁Toukokuu	-11.2531
▁puhelimitse	-11.2531
▁ratkaisi	-11.2531
▁Epäilly	-11.2531
▁Sirviö	-11.2531
▁Rkp	-11.2531
▁sinulla	-11.2531
▁Tikkanen	-11.2531
▁lainsäädännö	-11.2532
▁johtanee	-11.2532
äänestyksen	-11.2532
▁monesti	-11.2532
▁käänteen	-11.2533
▁Jenna	-11.2534
jäsenyyden	-11.2536
▁Salmela	-11.2536
jälji	-11.2538
kumpu	-11.2538
▁suurimmista	-11.2539
▁Ilmoit	-11.254
kiekko	-11.2543
eläke	-11.2549
▁edetä	-11.2551
▁eurooppalaise	-11.2562
▁supist	-11.2574
▁1,7	-11.2583
makuuhuone	-11.2583
▁hinnoi	-11.2585
▁ponnist	-11.259
miljonääri	-11.2625
▁Mercedekse	-11.2625
▁Tukholmassa	-11.2625
▁Tynkkynen	-11.2625
▁englanniksi	-11.2625
▁löydä	-11.2625
▁Kiinteistö	-11.2625
▁hurrikaani	-11.2625
▁julkisuuden	-11.2625
▁aikavälillä	-11.2625
▁yhdeksi	-11.2625
▁Savonlinna	-11.2625
kengät	-11.2625
▁meneillään	-11.2625
▁avaruus	-11.2625
▁puheenaihe	-11.2625
▁Väki	-11.2626
▁innoissaan	-11.2627
▁virtsa	-11.2627
▁työkalu	-11.2628
▁olympiakultaa	-11.2628
▁Manninen	-11.2628
▁ansiotulo	-11.2628
seurojen	-11.2629
▁ovet	-11.263
▁Kajaani	-11.2631
pettymykse	-11.2632
▁Korona	-11.2634
▁lakkautt	-11.2636
naapuri	-11.2641
▁huolet	-11.2643
▁maailmanennäty	-11.2653
▁yllätykse	-11.266
jumala	-11.2664
ytety	-11.2666
kodista	-11.2666
▁väkivaltaise	-11.2672
▁suuntautu	-11.2685
vasemmistoliitto	-11.2692
▁haltuun	-11.2703
▁muistuttava	-11.2712
vieras	-11.2712
▁mielenosoittaji	-11.2719
▁myöhästy	-11.2719
▁Itämerellä	-11.2719
▁Amerikkalai	-11.2719
▁suojele	-11.2719
▁elimistö	-11.2719
▁Määrä	-11.2719
▁salamurhayrity	-11.2719
▁tunkeutu	-11.2719
▁Hyvärinen	-11.2719
valiokunnassa	-11.272
▁arjessa	-11.272
▁vankeustuomio	-11.272
▁pituus	-11.2721
▁jonkinlaise	-11.2722
heittäjä	-11.2723
▁kohtelu	-11.2725
▁yrityksiä	-11.2727
▁kauas	-11.2732
harjoittelu	-11.2736
hybridi	-11.2736
▁Tilastokeskukse	-11.2741
sopimukseen	-11.2801
▁pysäköi	-11.2811
viranomainen	-11.2814
▁Silvennoinen	-11.2814
▁Valitettavasti	-11.2814
▁Heinäkuu	-11.2814
▁Rajavartiolaito	-11.2814
▁riskejä	-11.2814
▁suunnattu	-11.2814
▁kristillis	-11.2814
▁unohd	-11.2815
▁toisiinsa	-11.2815
▁sattunut	-11.2815
▁liikkua	-11.2815
▁Kristian	-11.2815
pylvä	-11.2816
▁vihollis	-11.2817
▁esiintyvä	-11.2819
▁kirjoitetaan	-11.2819
ymmärrys	-11.282
▁Ojala	-11.282
▁Evans	-11.2828
▁Onnettomuude	-11.283
karsinta	-11.2835
kehitys	-11.284
▁Kenia	-11.2848
▁moottoritie	-11.2858
▁Aluksi	-11.2859
puhdist	-11.2866
yhteis	-11.2875
▁Temp	-11.2909
nyrkkeilijä	-11.291
seremonia	-11.291
Š	-11.291
▁diagnosoi	-11.291
▁meidät	-11.291
▁myöhässä	-11.291
upseeri	-11.291
▁Dmitri	-11.291
▁hoidetaan	-11.291
▁alaisuudessa	-11.2911
▁talouskasvu	-11.2911
▁pysäytti	-11.2911
▁siirretty	-11.2911
▁Korisliiga	-11.2911
lääkkeiden	-11.2911
▁sekaisin	-11.2911
▁nahka	-11.2911
▁Spr	-11.2911
▁satunnai	-11.2912
▁ylöspäin	-11.2912
▁kateissa	-11.2912
▁arkeen	-11.2913
▁Puolustusvoima	-11.2914
▁pomp	-11.2914
▁tatuoi	-11.2919
tunnilla	-11.2922
rittäin	-11.2926
harjoitus	-11.2932
kaudet	-11.295
▁Tiistai	-11.2952
▁Huuhkajat	-11.2957
omistukse	-11.2961
silmä	-11.2962
▁kuollee	-11.2986
▁sort	-11.2999
▁Blomqvist	-11.3008
▁Jääkieko	-11.3008
▁Kastehelm	-11.3008
▁Urheilija	-11.3008
▁WRC	-11.3008
▁rekrytoi	-11.3008
▁tragedia	-11.3008
▁lapsuuden	-11.3008
▁naureskel	-11.3008
▁pahimmillaan	-11.3008
▁vaihtelu	-11.3008
▁pitäneet	-11.3008
▁soveltu	-11.3008
▁Sipilä	-11.3009
▁johdossa	-11.301
▁katkea	-11.301
▁lentokentällä	-11.3012
▁terveydentila	-11.3019
▁pelannee	-11.3025
▁kyllästy	-11.3056
aituri	-11.306
▁hyökkäyksi	-11.3074
▁yksittäise	-11.3075
▁Kyseise	-11.3094
▁Jersey	-11.3106
▁Marraskuu	-11.3106
▁debytoi	-11.3106
▁lähemmäs	-11.3106
▁olkapää	-11.3106
▁silminnäkijä	-11.3106
▁Blinken	-11.3106
▁Vihreiden	-11.3106
▁Serbia	-11.3106
▁Gazaan	-11.3106
▁abortti	-11.3106
▁miehellä	-11.3106
skusrikospoliisi	-11.3106
▁halutessaan	-11.3106
kypärä	-11.3106
▁Mirror	-11.3106
▁ratkea	-11.3106
▁Yritykse	-11.3106
▁Paikalle	-11.3106
musikaali	-11.3106
▁Perez	-11.3107
▁taustoi	-11.3107
▁silloise	-11.3107
▁hintojen	-11.3107
▁konkari	-11.3107
▁lisääntynyt	-11.3107
▁vaatimuksi	-11.3108
▁viereen	-11.3109
päivitys	-11.311
harrastukse	-11.311
▁lohdut	-11.3111
vieraiden	-11.3112
stedt	-11.3116
▁näytös	-11.3116
▁sakot	-11.3117
▁laajentu	-11.3123
▁myönteise	-11.313
Suomi	-11.3131
▁1,8	-11.3138
▁keskinäi	-11.3177
suurlähettiläs	-11.3205
▁Yleisradio	-11.3205
▁McDavid	-11.3205
▁parvekkee	-11.3205
▁tuomioistuime	-11.3205
▁nähneet	-11.3205
▁järjestäyty	-11.3205
▁suomeksi	-11.3205
▁Jokerit	-11.3205
kentältä	-11.3205
▁protesti	-11.3205
▁käsittelevä	-11.3205
▁kohdalle	-11.3205
▁ennakkosuosikki	-11.3205
sopimuksia	-11.3206
Hallberg	-11.3207
▁liittovaltio	-11.3207
▁odota	-11.3211
▁edustajainhuone	-11.3213
teollis	-11.3214
▁Aikuis	-11.3217
▁vanhus	-11.3217
▁itku	-11.3225
▁painu	-11.3229
Q	-11.3231
▁istunto	-11.3235
▁taipui	-11.3236
▁saapunee	-11.3239
kokemus	-11.3244
▁kohtuullise	-11.3246
▁minuutti	-11.3257
▁erillise	-11.3276
▁Vahv	-11.3279
▁Vancouver	-11.3305
т	-11.3305
▁Hockey	-11.3305
▁Hurricane	-11.3305
▁Stoltenberg	-11.3305
▁Maaliskuu	-11.3305
▁merkeissä	-11.3305
▁1996	-11.3305
▁kapinallis	-11.3305
pykälä	-11.3305
▁Harald	-11.3305
▁Yhtye	-11.3305
▁terrorismi	-11.3306
▁värvä	-11.3306
▁elinvoima	-11.3307
▁Ikonen	-11.3309
▁maltillise	-11.3309
▁cm	-11.331
▁söi	-11.3311
▁sormi	-11.3318
▁väist	-11.3354
osuudella	-11.3355
romaani	-11.3356
kaupoissa	-11.3365
▁Maanantai	-11.3375
nimikkee	-11.34
johtajien	-11.3406
yhdysvaltalainen	-11.3406
▁Russell	-11.3406
▁kolmantena	-11.3406
▁päinvastoin	-11.3406
kuningattar	-11.3406
▁Kulttuuri	-11.3406
▁erinomainen	-11.3406
▁varhaiskasvatu	-11.3406
▁vähitellen	-11.3406
ž	-11.3406
▁ahkera	-11.3406
▁paikallinen	-11.3406
▁Keväällä	-11.3406
▁fakta	-11.3406
▁Mäenpää	-11.3406
Irlanni	-11.3406
▁Miehet	-11.3406
▁Haluamme	-11.3406
▁kukisti	-11.3406
▁oikeudenmukais	-11.3407
▁heijastu	-11.3407
▁tekstiviesti	-11.3408
▁lähetetty	-11.3408
▁Antonio	-11.3408
▁Kahvi	-11.3409
▁muualta	-11.341
▁esikois	-11.3429
hämär	-11.3455
▁Perjantai	-11.3496
▁sulkeutu	-11.3497
▁puheenjohtaj	-11.3501
▁rattijuopumukse	-11.3508
▁ravitsemus	-11.3508
▁Kuljettaja	-11.3508
▁Ratkaisu	-11.3508
▁ehdolle	-11.3508
▁korruptio	-11.3508
р	-11.3508
▁linjoilla	-11.3508
▁kokaiini	-11.3508
hormoni	-11.3508
▁lähistöllä	-11.3508
▁taloudellisi	-11.3508
▁Lämsä	-11.3508
▁rakkautta	-11.3508
▁Pakarinen	-11.3508
▁Walesin	-11.3508
▁ulkopuolise	-11.3508
▁rikokseen	-11.3508
▁tyydy	-11.3509
▁lounas	-11.3509
▁tavannut	-11.3509
▁tulevaisuudesta	-11.351
▁Vakio	-11.3512
▁avioitu	-11.3514
▁yllättävi	-11.3517
▁pelätä	-11.3519
▁itäise	-11.3521
mestaruus	-11.3541
▁Kumpik	-11.3556
▁1,2	-11.3576
▁Tapahtu	-11.3603
▁presidentill	-11.3603
uudistuksen	-11.3605
▁neuvonantaja	-11.3611
▁pyydetään	-11.3611
▁radikaali	-11.3611
▁suunnilleen	-11.3611
▁Orbán	-11.3611
▁englannin	-11.3611
▁symboli	-11.3611
▁ylioppilas	-11.3611
▁kauneus	-11.3611
▁Matintalo	-11.3611
▁Kaarle	-11.3611
▁tähdittä	-11.3611
▁suhteesta	-11.3612
▁Hotelli	-11.3612
▁teoria	-11.3612
▁Hakola	-11.3612
▁sorme	-11.3614
▁itseäni	-11.3616
▁Eerik	-11.3623
lahdella	-11.3623
▁aloittanee	-11.3627
▁Petr	-11.3647
▁opettaji	-11.3647
▁Kuiva	-11.3659
automaatti	-11.3662
▁Filip	-11.3664
▁leiki	-11.3684
vuotiaalle	-11.3715
▁Demokraatti	-11.3715
▁dramaattise	-11.3715
▁traagis	-11.3715
▁vaihtelee	-11.3715
▁Gabriel	-11.3715
▁ryhdy	-11.3715
▁siirrettiin	-11.3715
myrkky	-11.3715
▁Valtaosa	-11.3715
▁vieraille	-11.3715
▁Jalosen	-11.3715
▁Lewis	-11.3716
▁tavallinen	-11.3716
ografi	-11.3716
▁Haukio	-11.3717
▁varsinainen	-11.3717
▁Yksityis	-11.3723
▁kirkas	-11.3724
esiintyjä	-11.3732
energia	-11.3753
yliopisto	-11.3753
artisti	-11.3757
tekijöiden	-11.3773
uimari	-11.3794
▁Energia	-11.382
▁Heliövaara	-11.382
▁Katariina	-11.382
▁Terveyden	-11.382
▁Tukholman	-11.382
▁Leverkusen	-11.382
▁IFK	-11.382
▁ensisijaisesti	-11.382
▁fiksu	-11.382
▁iloitsee	-11.382
▁sisustus	-11.382
▁jäljiltä	-11.382
▁Cruz	-11.382
näyttämö	-11.382
▁Hieman	-11.382
▁pidempi	-11.3821
▁keihää	-11.3821
▁levinnyt	-11.3822
▁Liitto	-11.3822
▁hermostu	-11.3825
▁tavallisi	-11.3826
▁havainnoi	-11.383
▁nelos	-11.3834
ehdokkaat	-11.3843
▁Tällaist	-11.3848
joulu	-11.3863
kirjoituksessa	-11.3898
velvollisuus	-11.3925
▁Heleniukse	-11.3927
▁jälkikäteen	-11.3927
▁tykistö	-11.3927
▁flunssa	-11.3927
▁kanadalais	-11.3927
▁ankkuri	-11.3927
▁semifinaali	-11.3927
▁horju	-11.3927
▁keihäs	-11.3927
▁Junnila	-11.3927
▁Tietysti	-11.3927
▁maisteri	-11.3927
▁Baltian	-11.3927
▁Gnistan	-11.3927
▁prosenttiyksikö	-11.3927
▁Roomassa	-11.3927
▁Archie	-11.3927
▁lääkit	-11.3927
karsinnassa	-11.3927
▁ateria	-11.3928
▁vuodenvaihtee	-11.3928
▁lentää	-11.3929
▁Linnea	-11.3931
▁4-2	-11.3931
rokotte	-11.3957
suomalainen	-11.3969
Suomeen	-11.3969
hyökkäyksen	-11.3969
▁vastine	-11.3996
heiton	-11.4001
▁tuottama	-11.4004
järjestys	-11.4004
ajilta	-11.4017
kalvo	-11.4025
▁Twitter	-11.4034
▁Ympäristö	-11.4034
▁käytettävissä	-11.4034
▁nähtävissä	-11.4034
с	-11.4034
▁America	-11.4034
▁1997	-11.4034
▁kolumni	-11.4034
▁tapahdu	-11.4034
▁sukupolvi	-11.4034
▁ehdoi	-11.4034
▁henkilökohtaisi	-11.4035
▁lisääntynee	-11.4035
▁huikea	-11.4035
tulehduks	-11.4035
▁Ennuste	-11.4035
▁harvinaista	-11.4035
▁Hautala	-11.4035
▁keskittyvä	-11.4041
▁työskentele	-11.4042
▁Brand	-11.4064
ottelija	-11.407
suorituksen	-11.408
lääkettä	-11.4113
jäsenyyttä	-11.4119
▁Kilpa	-11.4136
päätöksessä	-11.414
▁syrji	-11.4142
kruununprinsessa	-11.4143
▁Anthony	-11.4143
▁Bryggare	-11.4143
▁Buffalo	-11.4143
▁Business	-11.4143
▁Francis	-11.4143
▁Mestaruus	-11.4143
▁Yhdysvaltoja	-11.4143
▁prikaati	-11.4143
▁risteyksessä	-11.4143
▁taloudellista	-11.4143
▁Lepistö	-11.4143
▁aamuyöllä	-11.4143
kurpitsa	-11.4143
▁Lokakuu	-11.4143
▁lemmikki	-11.4143
▁Atlanti	-11.4143
▁vanhojen	-11.4143
▁tutkinnassa	-11.4143
▁aselepo	-11.4143
▁sinulle	-11.4143
▁Kukkonen	-11.4143
kysymykset	-11.4143
▁Journal	-11.4143
▁päiväsakko	-11.4143
▁virheellisesti	-11.4144
henkilökohtainen	-11.4145
▁pahimma	-11.4145
▁herättänee	-11.4146
ohjus	-11.4154
▁tärkeimmä	-11.4168
makkara	-11.4175
▁naama	-11.4201
pelaajia	-11.4227
Benz	-11.4232
kolmikko	-11.4236
▁Chelsea	-11.4253
▁Jylhä	-11.4253
▁NBC	-11.4253
▁kenellekään	-11.4253
▁polttomoottori	-11.4253
▁pysähdy	-11.4253
■	-11.4253
▁Urpilainen	-11.4253
▁toimenpitee	-11.4253
▁johtuen	-11.4253
▁mahdottom	-11.4253
▁lentäjä	-11.4253
▁Jokerien	-11.4253
niemessä	-11.4253
▁hehtaari	-11.4253
▁vetäytyi	-11.4253
▁samoja	-11.4253
▁avannut	-11.4253
▁ennemmin	-11.4254
▁sairausloma	-11.4254
▁kriteeri	-11.4259
▁puhdas	-11.4262
▁sanojens	-11.4267
tarjonta	-11.4269
▁tiettyj	-11.4278
▁kritiikki	-11.4293
&	-11.4302
Saksa	-11.4302
kävijä	-11.4334
tavoittei	-11.4342
▁maahanmuuttaja	-11.4364
▁FBI	-11.4364
▁Huhtikuu	-11.4364
▁esitutkinnassa	-11.4364
▁pidemmälle	-11.4364
▁spekulaatio	-11.4364
▁valtakunnallise	-11.4364
kynttilöi	-11.4364
▁euroviisu	-11.4364
▁Kläbo	-11.4364
▁osoitteeseen	-11.4364
▁Black	-11.4364
▁asukkaiden	-11.4364
▁raskaus	-11.4364
▁Club	-11.4364
▁tuntemattoma	-11.4365
tutkimukseen	-11.4365
▁romahd	-11.4365
valintoja	-11.4389
jäsenyys	-11.439
▁upei	-11.4409
yhteys	-11.4416
tytär	-11.4418
▁näkemä	-11.4433
▁Puljujärve	-11.4476
▁ilahdu	-11.4476
▁Kuningatar	-11.4476
▁ilmoitettiin	-11.4476
▁poliiseja	-11.4476
▁yhteydenotto	-11.4476
▁liikkunut	-11.4476
▁lausunnon	-11.4476
▁suojella	-11.4476
▁erityinen	-11.4477
▁sodasta	-11.4477
▁Opetus	-11.4477
▁4-3	-11.4477
▁maksettu	-11.4477
▁kouluampumise	-11.4477
▁Lukija	-11.4478
▁rutiini	-11.4478
puoliskolla	-11.4478
▁strategise	-11.4489
suunnitelmista	-11.4496
▁avaukse	-11.4513
press	-11.4516
salmen	-11.4523
▁kiusaamis	-11.4528
▁edelle	-11.453
harjoituksen	-11.4539
salaatti	-11.4559
▁väläyt	-11.4571
▁Avalanche	-11.459
▁bensiini	-11.459
▁identiteetti	-11.459
▁yhteyteen	-11.459
vahingot	-11.459
▁Eveliina	-11.459
▁Madeleine	-11.459
neutraali	-11.459
▁tupakoi	-11.459
▁äidille	-11.459
▁todennäköisyyde	-11.459
▁ankara	-11.459
▁1960-	-11.459
▁käsky	-11.4591
▁rajoja	-11.4591
tarinoissa	-11.4591
kriteer	-11.4591
▁maisemi	-11.4591
▁ihastel	-11.4592
▁annetu	-11.4592
▁drone	-11.4594
tehtaalla	-11.4596
▁Sainz	-11.4597
▁aloittami	-11.4604
▁ulkopolitiika	-11.4609
▁määräaikais	-11.4616
▁pohjoismai	-11.4655
viljelijä	-11.4705
▁Ståhl	-11.4705
▁pyyhki	-11.4705
▁toimenpide	-11.4705
▁ilmavoimien	-11.4705
▁Detroit	-11.4705
▁formula	-11.4705
▁1991	-11.4705
▁valmentama	-11.4705
▁yhdenvertaisuu	-11.4705
▁kuittasi	-11.4705
▁keskiössä	-11.4705
tekijöistä	-11.4705
▁kumpikin	-11.4705
▁ennallaan	-11.4705
▁keskittynyt	-11.4705
▁totuttu	-11.4706
▁hintoja	-11.4706
▁Huomio	-11.4706
▁puhalta	-11.4707
▁futis	-11.4707
▁Myrsky	-11.4707
▁raivostu	-11.4708
▁virallisi	-11.4709
Sanomissa	-11.4712
asiakirjoj	-11.4716
suunnitelmien	-11.4717
näyttelee	-11.4726
pelaajien	-11.4728
karsinnan	-11.4732
▁0-1	-11.4732
▁pitämi	-11.4741
▁onnellise	-11.4753
▁mahdoton	-11.4771
▁ideoi	-11.4771
korjaamo	-11.478
pysäk	-11.4796
▁nimettömä	-11.48
▁psyko	-11.4821
▁Seagulls	-11.4821
▁kritiiki	-11.4821
▁mielenosoittaja	-11.4821
▁mielenosoituksi	-11.4821
▁ensimmäisten	-11.4821
▁myöhäis	-11.4821
löydö	-11.4821
▁Mykkänen	-11.4821
▁mobiili	-11.4821
▁kehityksen	-11.4821
▁Kreikan	-11.4821
▁Kuluttaja	-11.4821
▁kaikkensa	-11.4821
▁tähtää	-11.4821
▁hoidettu	-11.4821
▁työnantaji	-11.4821
▁koostuu	-11.4821
▁Sairaala	-11.4821
▁toteutuu	-11.4821
▁Keisteri	-11.4821
▁jatketaan	-11.4821
▁oppilaiden	-11.4821
▁pieleen	-11.4821
▁Päätökse	-11.4821
▁Todella	-11.4822
▁Artisti	-11.4822
▁tekemisissä	-11.4822
▁puukotukse	-11.4825
▁keskimääräist	-11.4826
▁hyttys	-11.4828
tartunta	-11.4831
▁Puolustusvoimi	-11.4852
kammo	-11.4861
▁pienituloi	-11.4863
▁arvokkai	-11.4863
taipale	-11.4874
▁dollari	-11.4889
kaupunkiseudulla	-11.4902
▁heltei	-11.4913
vaikutuksista	-11.4919
▁ehdottoma	-11.4937
▁Akatemia	-11.4939
▁Ymmärrän	-11.4939
▁suhtaudu	-11.4939
▁inhimillis	-11.4939
▁perustuslain	-11.4939
▁ryhtyä	-11.4939
signaali	-11.4939
▁1993	-11.4939
▁motivoi	-11.4939
käärme	-11.4939
▁Brown	-11.4939
▁kiinteä	-11.4939
▁räjäyt	-11.4939
▁terveydenhuolto	-11.4939
▁yksittäinen	-11.4939
▁Alankomai	-11.4939
▁1-3	-11.4941
▁sijoitukse	-11.4942
cross	-11.4943
▁Stefan	-11.4956
varmuus	-11.4956
▁leipo	-11.496
▁hampai	-11.4987
▁lähestymis	-11.4988
▁turvautu	-11.4997
▁aggressiivis	-11.5003
▁Väl	-11.501
▁säännölli	-11.5031
sotilas	-11.5035
Savon	-11.5051
▁tyytyväis	-11.5056
▁Afganistan	-11.5058
▁Aleksei	-11.5058
▁Charlotte	-11.5058
▁Moldova	-11.5058
▁Pohjanpalo	-11.5058
▁UNRWA	-11.5058
▁Venezuela	-11.5058
▁Yhdysvaltalain	-11.5058
▁loppuvuodesta	-11.5058
▁panttivanki	-11.5058
▁puhelimeen	-11.5058
▁salibandy	-11.5058
▁verisuoni	-11.5058
▁Fintraffic	-11.5058
▁uhreja	-11.5058
▁Formula	-11.5058
▁Naapuri	-11.5058
▁lukeutuva	-11.5058
▁kehittynyt	-11.5058
▁moukari	-11.5058
▁Varmasti	-11.5058
▁Pennanen	-11.5058
kirjoituksen	-11.5058
▁hiihti	-11.5058
▁4-0	-11.5058
▁Halikon	-11.5058
▁havahtu	-11.5058
▁Volley	-11.5058
▁katkaisi	-11.5059
▁vaikuttaisi	-11.5059
▁valmius	-11.5059
▁välikohtauks	-11.5064
▁Phil	-11.5071
▁Asunno	-11.5074
sulku	-11.5076
▁niemimaa	-11.5076
▁kallistu	-11.5077
▁keskittymis	-11.5085
kioski	-11.5108
Lapissa	-11.5126
▁todeta	-11.5134
▁brittiläi	-11.5146
kilpi	-11.5152
▁Täysi	-11.5168
▁Bayern	-11.5178
▁Kardashian	-11.5178
▁Kazakstan	-11.5178
▁Mbappe	-11.5178
▁Neuvottelu	-11.5178
▁Thierry	-11.5178
▁käännytyslaki	-11.5178
▁traktori	-11.5178
▁äärellä	-11.5178
▁Kaakkois	-11.5178
▁kirkossa	-11.5178
▁laiminlyö	-11.5178
▁maahanmuuttaji	-11.5178
▁Kokoomus	-11.5178
▁viitteitä	-11.5178
▁vedessä	-11.5179
▁kauttaaltaan	-11.5179
▁aallo	-11.5179
▁wc	-11.518
paikkoihin	-11.518
finalisti	-11.518
▁vetäytymi	-11.5187
▁Outi	-11.5208
vuokra	-11.525
▁Tilaisuu	-11.5252
tunturi	-11.5253
tempauks	-11.5288
vuotiaasta	-11.53
▁vauhdissa	-11.53
▁legendaarise	-11.53
▁Emmanuel	-11.53
▁lähempänä	-11.53
▁Flores	-11.53
▁minulta	-11.53
▁tarinoita	-11.53
tauolle	-11.53
▁toteutettu	-11.53
vitamiini	-11.53
▁vieraita	-11.53
▁keskiosassa	-11.53
▁herkästi	-11.5301
▁raportissa	-11.5302
▁kustanta	-11.5302
▁esitety	-11.5302
▁tehdessä	-11.5305
▁pääsääntöise	-11.5306
huijaukse	-11.5314
▁Tekni	-11.5319
kunnossa	-11.5376
leikkaus	-11.5383
▁mainitse	-11.5403
▁Todellisuude	-11.5424
▁Microsoft	-11.5424
▁Athletic	-11.5424
▁Columbus	-11.5424
▁Independent	-11.5424
▁Teknologia	-11.5424
▁Tšekin	-11.5424
▁Winnipeg	-11.5424
▁ennaltaehkäis	-11.5424
festivaale	-11.5424
▁Hirvonen	-11.5424
▁vieraillut	-11.5424
▁vierailee	-11.5424
Töölö	-11.5424
▁päiväkodin	-11.5424
▁Vuokra	-11.5424
▁aikuinen	-11.5424
▁tapaturma	-11.5424
▁liittynyt	-11.5424
▁uskalla	-11.5424
▁Temonen	-11.5424
▁Kreikka	-11.5424
▁kulutukse	-11.5425
▁läntise	-11.5426
▁liikkui	-11.5426
▁pöytään	-11.5426
▁syttymis	-11.5427
▁altistu	-11.5427
▁Scott	-11.5428
▁tuijot	-11.5432
▁Presidentinvaal	-11.5436
treeni	-11.5438
▁Hevos	-11.5444
näköistä	-11.5459
▁Euroviisuj	-11.5463
kaapelei	-11.5478
▁yhteisymmärry	-11.5541
panssarivaunu	-11.5549
▁Politico	-11.5549
▁Tarkoituksena	-11.5549
▁koordinoi	-11.5549
▁molemmissa	-11.5549
▁päätöksellä	-11.5549
▁räjähdykse	-11.5549
▁tehtävistä	-11.5549
▁elektroni	-11.5549
▁elinkautis	-11.5549
▁Venäläinen	-11.5549
▁ohjukse	-11.5549
▁kommenttikentä	-11.5549
▁nähdy	-11.5549
▁tappelu	-11.5549
▁1992	-11.5549
▁Koripallo	-11.5549
▁rakkauden	-11.5549
▁Kivelä	-11.5549
tutkimuksesta	-11.5549
valtuutetu	-11.5549
katsaukse	-11.5552
field	-11.5553
▁sattunee	-11.5556
hoitaji	-11.5564
valvonnan	-11.5576
▁Petter	-11.5582
kokonaisuutta	-11.5601
laulaja	-11.5632
pääkaupunkiseudu	-11.5645
▁Coldplay	-11.5675
▁kuukaudeksi	-11.5675
▁sadekuuro	-11.5675
▁Eagle	-11.5675
▁Historia	-11.5675
▁Kiovassa	-11.5675
▁viestinnästä	-11.5675
▁Moilanen	-11.5675
▁Samuel	-11.5675
▁Hulkko	-11.5675
▁todisti	-11.5675
▁Vuorela	-11.5675
▁Vanhemma	-11.5676
▁Hintz	-11.5676
▁Korjattu	-11.5676
▁kahdelle	-11.5676
▁koostuva	-11.5676
▁tukenut	-11.5676
▁laajemma	-11.5676
kiintiö	-11.5676
▁Museo	-11.5676
▁palautte	-11.5679
menestyksen	-11.5685
neuvos	-11.5756
sijoitus	-11.5771
sopimukset	-11.5793
▁Beckham	-11.5803
▁Medvedev	-11.5803
debyytti	-11.5803
▁Vihreä	-11.5803
▁merkityksellis	-11.5803
▁myönnetty	-11.5803
л	-11.5803
ooppera	-11.5803
▁Päijä	-11.5803
▁lakiesitykse	-11.5803
▁vanhemmille	-11.5803
▁Hjallis	-11.5804
▁Show	-11.5804
▁kaikilta	-11.5804
▁Raporti	-11.5804
▁vuoristo	-11.5804
▁yritettiin	-11.5804
etäisyyde	-11.5804
▁kuolinsyy	-11.5804
▁lietso	-11.5804
▁kovempi	-11.5804
▁turkulais	-11.5807
kauppoja	-11.5808
▁Prisma	-11.5811
▁Halose	-11.5816
▁tyhjentä	-11.5817
▁kypsy	-11.582
karsinnoissa	-11.582
vaikutukse	-11.5824
▁hallinnoi	-11.5829
emoji	-11.5837
vaikutelma	-11.585
▁hausk	-11.5858
haittoj	-11.5861
kaupalla	-11.5874
syksy	-11.5888
väestö	-11.5891
▁bruttokansantu	-11.5933
▁journalisti	-11.5933
Afrikassa	-11.5933
epidemia	-11.5933
osapuolten	-11.5933
▁Arizona	-11.5933
▁Ruusuvuori	-11.5933
▁Suunnitelma	-11.5933
▁Tšekki	-11.5933
▁varmuudella	-11.5933
▁purjehti	-11.5933
▁pääomatulo	-11.5933
▁Pietilä	-11.5933
▁varmuutta	-11.5933
▁vakuutusyhtiö	-11.5933
galleria	-11.5933
▁betoni	-11.5933
▁japanilais	-11.5934
▁Kittilä	-11.5934
▁nilk	-11.5934
▁mökillä	-11.5935
▁Kolmos	-11.5937
▁Jumala	-11.5937
▁Games	-11.594
▁Saarela	-11.5942
▁alueellise	-11.5947
▁kaivos	-11.5951
▁fanei	-11.5953
▁renkai	-11.5955
▁trans	-11.5964
suunnittelu	-11.6024
▁kääntei	-11.6037
▁Aleksanteri	-11.6065
▁huonekalu	-11.6065
▁Kirvesniemi	-11.6065
▁Penttilä	-11.6065
▁Räikköse	-11.6065
▁Seinäjoen	-11.6065
▁aktivoi	-11.6065
▁elokuvissa	-11.6065
▁kynnyksellä	-11.6065
▁löytämään	-11.6065
▁pöyristy	-11.6065
▁tanskalais	-11.6065
▁havainnot	-11.6065
▁pesäpallo	-11.6065
▁tyrmää	-11.6065
▁aikovansa	-11.6065
▁haastoi	-11.6065
▁alkuviikosta	-11.6065
järjestyksessä	-11.6065
▁unelmi	-11.6065
▁ulkopuolisi	-11.6065
▁Melania	-11.6065
▁vaikkei	-11.6065
▁annettava	-11.6065
▁Junior	-11.6066
▁Kuolema	-11.6067
▁julkkis	-11.6067
▁vangitsemis	-11.6069
▁terveellise	-11.607
▁Syyttee	-11.6077
▁suorittama	-11.6122
▁esittämi	-11.6123
oikeutettu	-11.6141
kokoonpano	-11.6159
kapteeni	-11.6159
▁Järvenpää	-11.6198
▁Lavrov	-11.6198
▁Ylivieska	-11.6198
kategoriassa	-11.6198
▁Diggins	-11.6198
▁Kolehmainen	-11.6198
▁PMMP	-11.6198
▁UFC	-11.6198
▁perusterveyden	-11.6198
▁pikemminkin	-11.6198
▁puhelimessa	-11.6198
▁tavaroita	-11.6198
▁Porsche	-11.6198
▁eläköity	-11.6198
▁epätoivo	-11.6198
▁terveyteen	-11.6198
▁Sopimus	-11.6198
▁vahvistettu	-11.6198
▁säilö	-11.6198
▁vakiintu	-11.6198
▁Kappale	-11.6198
▁yritetty	-11.6198
▁alkaessa	-11.6198
▁Jakob	-11.6199
▁Kristiina	-11.6199
▁viimeisimmä	-11.6199
todistus	-11.6199
▁Pysty	-11.6199
▁kroppa	-11.6206
porukan	-11.6213
hyökkäyksiä	-11.6242
▁kuulustel	-11.625
▁soittama	-11.6287
▁tahallis	-11.6293
▁äärioikeistolai	-11.6333
suurlähettilää	-11.6333
pöydälle	-11.6333
▁Yhdysvalloista	-11.6333
▁nähneensä	-11.6333
▁pyydettiin	-11.6333
▁vuosituhanne	-11.6333
▁pyörätuoli	-11.6333
▁tehopistettä	-11.6333
▁KOK	-11.6333
▁näkevät	-11.6333
▁tarkalleen	-11.6333
▁1985	-11.6333
▁meininki	-11.6333
▁myynnistä	-11.6333
▁toteutetaan	-11.6333
▁hetkellisesti	-11.6333
▁Sivusto	-11.6334
▁sipuli	-11.6334
▁mummo	-11.6335
▁Tennis	-11.6336
▁järjestäji	-11.6339
▁elintarvikkei	-11.6343
tallente	-11.6357
▁selvittämise	-11.6359
▁puuttuva	-11.636
▁kansalaisuude	-11.638
uudistuksia	-11.6401
▁kirjoittami	-11.6413
▁Whatsapp	-11.647
▁Classic	-11.647
▁inspiroi	-11.647
▁norjalainen	-11.647
▁tamperelais	-11.647
▁terveydelle	-11.647
▁liikennöi	-11.647
▁taloudellinen	-11.647
▁SJK	-11.647
▁kiteyttää	-11.647
▁Särkkä	-11.647
▁sisältyy	-11.647
▁kävelemään	-11.647
в	-11.675
−	-11.6893
ñ	-11.7334
к	-11.764
ë	-11.828
è	-12.0286
д	-12.0286
у	-12.0286
č	-12.0699
#	-12.2293
г	-12.3063
п	-12.3063
ы	-12.419
я	-12.419
★	-12.4493
_	-12.4494
м	-12.4806
Ã	-12.5129
â	-12.5129
¤	-12.6164
Ö	-12.6359
ú	-12.6919
à	-12.7319
й	-12.7735
ć	-12.7736
б	-12.7736
ł	-12.817
ь	-12.8625
§	-12.9101
з	-12.9601
ç	-13.0127
·	-13.0683
æ	-13.0683
ч	-13.0683
ý	-13.1271
É	-13.1271
ю	-13.1896
Ž	-13.2563
õ	-13.4046
<	-13.5789
ï	-13.5789
×	-13.6789
ô	-13.6789
Ü	-13.6789
ř	-13.6789
Ø	-13.79
ń	-13.79
ð	-13.79
х	-13.79
ж	-13.79
ě	-13.915
ц	-13.915
Č	-13.915
В	-13.915
°	-14.0578
С	-14.0578
	-14.0578
ê	-14.0578
Ф	-14.0578
П	-14.2245
©	-14.2245
‒	-14.2245
ă	-14.4245
ņ	-14.4245
ė	-14.4245
Ú	-14.4245
ш	-14.4245
щ	-14.4245
[	-14.6571
А	-14.6745
Ç	-14.6745
ß	-14.6745
ū	-14.6745
ē	-14.6745
‐	-14.6745
	-14.6745
ò	-14.6745
ā	-14.6745
Б	-14.6745
ı	-14.6745
μ	-14.6745
э	-14.6745
•	-14.6745
⭐	-14.6745
ф	-14.6745
Þ	-15.0078
Í	-15.0078
ō	-15.0078
●	-15.0078
К	-15.0078
Æ	-15.0078
ț	-15.0078
Ш	-15.0078
α	-15.0079
\	-15.5078
¶	-15.5078
À	-15.5078
`	-15.5078
Ó	-15.5078
$	-15.5078
İ	-15.5078
ň	-15.5078
ŏ	-15.5078
œ	-15.5078
ə	-15.5078
˗	-15.5078
Ж	-15.5078
‰	-15.5078
′	-15.5078
⁣	-15.5078
ů	-15.5078
ż	-15.5078
Л	-15.5078
ş	-15.5078
И	-15.5079
Н	-15.5079
Õ	-16.5074
Á	-16.5075
ğ	-16.5076
ã	-16.5077
⁄	-16.5078
Т	-16.5078
¡	-16.5078
®	-16.5078
û	-16.5078
~	-16.5078
	-16.5078
Â	-16.5078
Ò	-16.5078
Û	-16.5078
ì	-16.5078
î	-16.5078
ÿ	-16.5078
ą	-16.5078
ģ	-16.5078
ī	-16.5078
Ķ	-16.5078
ľ	-16.5078
Ł	-16.5078
ś	-16.5078
ų	-16.5078
ź	-16.5078
ǎ	-16.5078
Ș	-16.5078
ș	-16.5078
Д	-16.5078
З	-16.5078
О	-16.5078
ỏ	-16.5078
ố	-16.5078
‍	-16.5078
∞	-16.5078
😂	-16.5078
±	-16.5078
ę	-16.5078
(	-16.5079
đ	-16.5079
Э	-16.5079
