{
  "version": "1.0",
  "truncation": null,
  "padding": null,
  "added_tokens": [
    {
      "id": 0,
      "content": "[UNK]",
      "single_word": false,
      "lstrip": false,
      "rstrip": false,
      "normalized": false,
      "special": true
    },
    {
      "id": 1,
      "content": "[CLS]",
      "single_word": false,
      "lstrip": false,
      "rstrip": false,
      "normalized": false,
      "special": true
    },
    {
      "id": 2,
      "content": "[SEP]",
      "single_word": false,
      "lstrip": false,
      "rstrip": false,
      "normalized": false,
      "special": true
    },
    {
      "id": 3,
      "content": "[PAD]",
      "single_word": false,
      "lstrip": false,
      "rstrip": false,
      "normalized": false,
      "special": true
    },
    {
      "id": 4,
      "content": "[MASK]",
      "single_word": false,
      "lstrip": false,
      "rstrip": false,
      "normalized": false,
      "special": true
    }
  ],
  "normalizer": {
    "type": "Sequence",
    "normalizers": [
      {
        "type": "NFKC"
      },
      {
        "type": "Lowercase"
      }
    ]
  },
  "pre_tokenizer": {
    "type": "Whitespace"
  },
  "post_processor": null,
  "decoder": {
    "type": "WordPiece",
    "prefix": "##",
    "cleanup": true
  },
  "model": {
    "type": "WordPiece",
    "unk_token": "[UNK]",
    "continuing_subword_prefix": "##",
    "max_input_chars_per_word": 100,
    "vocab": {
      "[UNK]": 0,
      "[CLS]": 1,
      "[SEP]": 2,
      "[PAD]": 3,
      "[MASK]": 4,
      "!": 5,
      "\"": 6,
      "#": 7,
      "$": 8,
      "%": 9,
      "&": 10,
      "'": 11,
      "(": 12,
      ")": 13,
      "*": 14,
      "+": 15,
      ",": 16,
      "-": 17,
      ".": 18,
      "/": 19,
      "0": 20,
      "1": 21,
      "2": 22,
      "3": 23,
      "4": 24,
      "5": 25,
      "6": 26,
      "7": 27,
      "8": 28,
      "9": 29,
      ":": 30,
      ";": 31,
      "<": 32,
      "=": 33,
      ">": 34,
      "?": 35,
      "@": 36,
      "[": 37,
      "\\": 38,
      "]": 39,
      "_": 40,
      "`": 41,
      "a": 42,
      "b": 43,
      "c": 44,
      "d": 45,
      "e": 46,
      "f": 47,
      "g": 48,
      "h": 49,
      "i": 50,
      "j": 51,
      "k": 52,
      "l": 53,
      "m": 54,
      "n": 55,
      "o": 56,
      "p": 57,
      "q": 58,
      "r": 59,
      "s": 60,
      "t": 61,
      "u": 62,
      "v": 63,
      "w": 64,
      "x": 65,
      "y": 66,
      "z": 67,
      "~": 68,
      "": 69,
      "": 70,
      "": 71,
      "¡": 72,
      "¤": 73,
      "§": 74,
      "©": 75,
      "­": 76,
      "®": 77,
      "°": 78,
      "±": 79,
      "¶": 80,
      "·": 81,
      "×": 82,
      "ß": 83,
      "à": 84,
      "á": 85,
      "â": 86,
      "ã": 87,
      "ä": 88,
      "å": 89,
      "æ": 90,
      "ç": 91,
      "è": 92,
      "é": 93,
      "ê": 94,
      "ë": 95,
      "ì": 96,
      "í": 97,
      "î": 98,
      "ï": 99,
      "ð": 100,
      "ñ": 101,
      "ò": 102,
      "ó": 103,
      "ô": 104,
      "õ": 105,
      "ö": 106,
      "ø": 107,
      "ú": 108,
      "û": 109,
      "ü": 110,
      "ý": 111,
      "þ": 112,
      "ÿ": 113,
      "ā": 114,
      "ă": 115,
      "ą": 116,
      "ć": 117,
      "č": 118,
      "đ": 119,
      "ē": 120,
      "ė": 121,
      "ę": 122,
      "ě": 123,
      "ğ": 124,
      "ģ": 125,
      "ī": 126,
      "ı": 127,
      "ķ": 128,
      "ľ": 129,
      "ł": 130,
      "ń": 131,
      "ņ": 132,
      "ň": 133,
      "ō": 134,
      "ŏ": 135,
      "œ": 136,
      "ř": 137,
      "ś": 138,
      "ş": 139,
      "š": 140,
      "ū": 141,
      "ů": 142,
      "ų": 143,
      "ź": 144,
      "ż": 145,
      "ž": 146,
      "ǎ": 147,
      "ș": 148,
      "ț": 149,
      "ə": 150,
      "˗": 151,
      "̇": 152,
      "α": 153,
      "μ": 154,
      "а": 155,
      "б": 156,
      "в": 157,
      "г": 158,
      "д": 159,
      "е": 160,
      "ж": 161,
      "з": 162,
      "и": 163,
      "й": 164,
      "к": 165,
      "л": 166,
      "м": 167,
      "н": 168,
      "о": 169,
      "п": 170,
      "р": 171,
      "с": 172,
      "т": 173,
      "у": 174,
      "ф": 175,
      "х": 176,
      "ц": 177,
      "ч": 178,
      "ш": 179,
      "щ": 180,
      "ы": 181,
      "ь": 182,
      "э": 183,
      "ю": 184,
      "я": 185,
      "ỏ": 186,
      "ố": 187,
      "‍": 188,
      "‐": 189,
      "‒": 190,
      "•": 191,
      "‰": 192,
      "′": 193,
      "⁄": 194,
      "⁣": 195,
      "€": 196,
      "−": 197,
      "∞": 198,
      "■": 199,
      "●": 200,
      "★": 201,
      "⭐": 202,
      "😂": 203,
      "🤌": 204,
      "##i": 205,
      "##n": 206,
      "##k": 207,
      "##u": 208,
      "##v": 209,
      "##o": 210,
      "##l": 211,
      "##e": 212,
      "##ä": 213,
      "##t": 214,
      "##s": 215,
      "##m": 216,
      "##a": 217,
      "##j": 218,
      "##r": 219,
      "##c": 220,
      "##p": 221,
      "##y": 222,
      "##ö": 223,
      "##w": 224,
      "##g": 225,
      "##d": 226,
      "##h": 227,
      "##b": 228,
      "##x": 229,
      "##f": 230,
      "##а": 231,
      "##т": 232,
      "##е": 233,
      "##м": 234,
      "##z": 235,
      "##2": 236,
      "##7": 237,
      "##9": 238,
      "##3": 239,
      "##8": 240,
      "##å": 241,
      "##5": 242,
      "##č": 243,
      "##ć": 244,
      "##4": 245,
      "##é": 246,
      "##1": 247,
      "##ü": 248,
      "##í": 249,
      "##q": 250,
      "##0": 251,
      "##æ": 252,
      "##ð": 253,
      "##о": 254,
      "##с": 255,
      "##у": 256,
      "##п": 257,
      "##н": 258,
      "##/": 259,
      "##6": 260,
      "##л": 261,
      "##и": 262,
      "##-": 263,
      "##]": 264,
      "##š": 265,
      "##ø": 266,
      "##ó": 267,
      "##ž": 268,
      "##á": 269,
      "##)": 270,
      "##â": 271,
      "##.": 272,
      "##,": 273,
      "##ë": 274,
      "##ь": 275,
      "##к": 276,
      "##я": 277,
      "##ñ": 278,
      "##­": 279,
      "##ż": 280,
      "##ю": 281,
      "##\"": 282,
      "##_": 283,
      "##ч": 284,
      "##г": 285,
      "##д": 286,
      "##è": 287,
      "##р": 288,
      "##ů": 289,
      "##:": 290,
      "##ŏ": 291,
      "##ê": 292,
      "##в": 293,
      "##ы": 294,
      "##ã": 295,
      "##ā": 296,
      "##ģ": 297,
      "##?": 298,
      "##з": 299,
      "##ō": 300,
      "##ł": 301,
      "##ū": 302,
      "##й": 303,
      "##ú": 304,
      "##б": 305,
      "##ш": 306,
      "##'": 307,
      "##ń": 308,
      "##ô": 309,
      "###": 310,
      "##ß": 311,
      "##ç": 312,
      "##ï": 313,
      "##!": 314,
      "##à": 315,
      "##ă": 316,
      "##ț": 317,
      "##ı": 318,
      "##ņ": 319,
      "##ś": 320,
      "##*": 321,
      "##ė": 322,
      "##ж": 323,
      "##ò": 324,
      "##õ": 325,
      "##ř": 326,
      "##": 327,
      "##ē": 328,
      "##î": 329,
      "##щ": 330,
      "##ý": 331,
      "##⭐": 332,
      "##ỏ": 333,
      "##%": 334,
      "##х": 335,
      "##>": 336,
      "##<": 337,
      "##ę": 338,
      "##ц": 339,
      "##+": 340,
      "##ğ": 341,
      "##∞": 342,
      "##ľ": 343,
      "##★": 344,
      "##ų": 345,
      "##ố": 346,
      "##̇": 347,
      "##û": 348,
      "##ě": 349,
      "##−": 350,
      "##;": 351,
      "##ň": 352,
      "##@": 353,
      "##ş": 354,
      "##⁣": 355,
      "##′": 356,
      "##±": 357,
      "##‰": 358,
      "##œ": 359,
      "##ǎ": 360,
      "##ī": 361,
      "##đ": 362,
      "##ÿ": 363,
      "##§": 364,
      "##~": 365,
      "##ə": 366,
      "##\\": 367,
      "##[": 368,
      "##ą": 369,
      "##ź": 370,
      "##ì": 371,
      "##en": 372,
      "##in": 373,
      "##is": 374,
      "##ta": 375,
      "##an": 376,
      "##ll": 377,
      "##tt": 378,
      "##sa": 379,
      "##si": 380,
      "##ka": 381,
      "##it": 382,
      "##es": 383,
      "##än": 384,
      "##ut": 385,
      "##uo": 386,
      "##el": 387,
      "##er": 388,
      "##aa": 389,
      "##ik": 390,
      "##un": 391,
      "##us": 392,
      "##on": 393,
      "##va": 394,
      "##ti": 395,
      "ja": 396,
      "##as": 397,
      "##oi": 398,
      "##li": 399,
      "on": 400,
      "##et": 401,
      "##al": 402,
      "##lla": 403,
      "##tä": 404,
      "##ar": 405,
      "##uk": 406,
      "##een": 407,
      "##os": 408,
      "##ää": 409,
      "##il": 410,
      "##ja": 411,
      "##ma": 412,
      "##ttä": 413,
      "##ist": 414,
      "##ur": 415,
      "##ul": 416,
      "ko": 417,
      "##lle": 418,
      "##ko": 419,
      "##ki": 420,
      "jo": 421,
      "##sä": 422,
      "##ista": 423,
      "ka": 424,
      "##den": 425,
      "##mm": 426,
      "##te": 427,
      "##isi": 428,
      "##tti": 429,
      "vi": 430,
      "ta": 431,
      "mu": 432,
      "##inen": 433,
      "##to": 434,
      "##llä": 435,
      "##yö": 436,
      "##vat": 437,
      "##le": 438,
      "##ksi": 439,
      "##vä": 440,
      "##ys": 441,
      "##yt": 442,
      "ku": 443,
      "##ke": 444,
      "va": 445,
      "se": 446,
      "##ks": 447,
      "##hd": 448,
      "si": 449,
      "##taa": 450,
      "##ri": 451,
      "##mi": 452,
      "että": 453,
      "##vi": 454,
      "##ei": 455,
      "##pa": 456,
      "ei": 457,
      "##ku": 458,
      "hän": 459,
      "##kaan": 460,
      "##ään": 461,
      "##kin": 462,
      "##uks": 463,
      "##issa": 464,
      "vuo": 465,
      "##la": 466,
      "##utta": 467,
      "tä": 468,
      "##isen": 469,
      "en": 470,
      "sa": 471,
      "##mp": 472,
      "to": 473,
      "oli": 474,
      "##ra": 475,
      "la": 476,
      "##tu": 477,
      "po": 478,
      "suo": 479,
      "ma": 480,
      "##essa": 481,
      "ki": 482,
      "##jo": 483,
      "##assa": 484,
      "ker": 485,
      "##taan": 486,
      "##ina": 487,
      "##äh": 488,
      "##uh": 489,
      "##itä": 490,
      "##op": 491,
      "##yn": 492,
      "##im": 493,
      "te": 494,
      "kä": 495,
      "ra": 496,
      "al": 497,
      "##ie": 498,
      "##ee": 499,
      "##kä": 500,
      "jä": 501,
      "##uu": 502,
      "##de": 503,
      "myö": 504,
      "kan": 505,
      "##unn": 506,
      "pää": 507,
      "##usta": 508,
      "##ih": 509,
      "##jä": 510,
      "##ttu": 511,
      "pa": 512,
      "##man": 513,
      "##esta": 514,
      "##mä": 515,
      "##ty": 516,
      "##istä": 517,
      "##na": 518,
      "ole": 519,
      "##van": 520,
      "##ttel": 521,
      "##jan": 522,
      "##tta": 523,
      "##ne": 524,
      "##se": 525,
      "mukaan": 526,
      "##maan": 527,
      "##asta": 528,
      "##oit": 529,
      "san": 530,
      "##ia": 531,
      "kes": 532,
      "suom": 533,
      "##yy": 534,
      "nä": 535,
      "myös": 536,
      "##ala": 537,
      "il": 538,
      "ha": 539,
      "val": 540,
      "per": 541,
      "ol": 542,
      "li": 543,
      "##ossa": 544,
      "kun": 545,
      "voi": 546,
      "##ika": 547,
      "##llis": 548,
      "##pp": 549,
      "##or": 550,
      "##oin": 551,
      "##vät": 552,
      "##mis": 553,
      "##ot": 554,
      "##äi": 555,
      "su": 556,
      "mi": 557,
      "##re": 558,
      "20": 559,
      "saa": 560,
      "ni": 561,
      "##ussa": 562,
      "##ssa": 563,
      "##uol": 564,
      "##esti": 565,
      "hy": 566,
      "mutta": 567,
      "maa": 568,
      "pel": 569,
      "##sia": 570,
      "##ten": 571,
      "##oa": 572,
      "##jen": 573,
      "toi": 574,
      "pal": 575,
      "yh": 576,
      "##essä": 577,
      "ovat": 578,
      "##uksen": 579,
      "##sin": 580,
      "##ike": 581,
      "##llut": 582,
      "##oo": 583,
      "##ien": 584,
      "par": 585,
      "##eh": 586,
      "läh": 587,
      "##ui": 588,
      "tar": 589,
      "##om": 590,
      "var": 591,
      "##ua": 592,
      "is": 593,
      "tul": 594,
      "##min": 595,
      "ar": 596,
      "##sta": 597,
      "vä": 598,
      "##tel": 599,
      "##ro": 600,
      "tuo": 601,
      "##kaa": 602,
      "esi": 603,
      "##ana": 604,
      "##ha": 605,
      "##ön": 606,
      "##ttiin": 607,
      "ti": 608,
      "an": 609,
      "##estä": 610,
      "##issä": 611,
      "he": 612,
      "##ssä": 613,
      "##up": 614,
      "##ise": 615,
      "##toi": 616,
      "##lo": 617,
      "as": 618,
      "##he": 619,
      "na": 620,
      "##itt": 621,
      "##nut": 622,
      "##hta": 623,
      "##ir": 624,
      "##stä": 625,
      "##osta": 626,
      "##etta": 627,
      "##rj": 628,
      "##lä": 629,
      "##ime": 630,
      "kerto": 631,
      "tu": 632,
      "ih": 633,
      "##iten": 634,
      "##iko": 635,
      "pit": 636,
      "##vin": 637,
      "##ken": 638,
      "##men": 639,
      "##eri": 640,
      "##iksi": 641,
      "##ud": 642,
      "##kk": 643,
      "##mme": 644,
      "##vaa": 645,
      "sen": 646,
      "##ikka": 647,
      "##enä": 648,
      "##iden": 649,
      "vas": 650,
      "##ran": 651,
      "puol": 652,
      "##maa": 653,
      "##tö": 654,
      "##ve": 655,
      "##val": 656,
      "##kka": 657,
      "tai": 658,
      "so": 659,
      "ollut": 660,
      "##rit": 661,
      "##yks": 662,
      "##hti": 663,
      "##isä": 664,
      "kaik": 665,
      "viime": 666,
      "jäl": 667,
      "##tin": 668,
      "työ": 669,
      "joka": 670,
      "##ky": 671,
      "##ton": 672,
      "##kon": 673,
      "##isten": 674,
      "kuin": 675,
      "##keen": 676,
      "tapa": 677,
      "##da": 678,
      "##rin": 679,
      "##teen": 680,
      "kertoo": 681,
      "osa": 682,
      "##eet": 683,
      "##vo": 684,
      "##isia": 685,
      "##mer": 686,
      "eur": 687,
      "##mmä": 688,
      "til": 689,
      "##vän": 690,
      "venä": 691,
      "##ytt": 692,
      "##inn": 693,
      "##ita": 694,
      "men": 695,
      "##män": 696,
      "ed": 697,
      "hel": 698,
      "niin": 699,
      "##ol": 700,
      "poli": 701,
      "##mmin": 702,
      "##minen": 703,
      "ke": 704,
      "min": 705,
      "##sti": 706,
      "##uden": 707,
      "##tka": 708,
      "##hdo": 709,
      "##hin": 710,
      "puh": 711,
      "huo": 712,
      "##uus": 713,
      "jälkeen": 714,
      "vaa": 715,
      "##rä": 716,
      "##uta": 717,
      "yhd": 718,
      "kor": 719,
      "##elä": 720,
      "har": 721,
      "ky": 722,
      "##ts": 723,
      "##isin": 724,
      "##itta": 725,
      "tie": 726,
      "##iset": 727,
      "##tty": 728,
      "##lleen": 729,
      "##mista": 730,
      "##isesti": 731,
      "lop": 732,
      "ensi": 733,
      "kanssa": 734,
      "mar": 735,
      "suomen": 736,
      "##kö": 737,
      "##kan": 738,
      "jos": 739,
      "le": 740,
      "nyt": 741,
      "tur": 742,
      "##usi": 743,
      "##unut": 744,
      "päi": 745,
      "sel": 746,
      "seur": 747,
      "ne": 748,
      "##nna": 749,
      "##mat": 750,
      "kol": 751,
      "##pä": 752,
      "##jän": 753,
      "kys": 754,
      "##ed": 755,
      "202": 756,
      "asi": 757,
      "##00": 758,
      "vuonna": 759,
      "##ikä": 760,
      "kos": 761,
      "kul": 762,
      "##mmen": 763,
      "##ellä": 764,
      "yli": 765,
      "hal": 766,
      "hänen": 767,
      "##mään": 768,
      "##ella": 769,
      "olisi": 770,
      "##voi": 771,
      "pi": 772,
      "lu": 773,
      "##anta": 774,
      "##yh": 775,
      "luo": 776,
      "##kko": 777,
      "##eli": 778,
      "jul": 779,
      "##elle": 780,
      "suur": 781,
      "##ila": 782,
      "##nen": 783,
      "hall": 784,
      "hen": 785,
      "##tto": 786,
      "aut": 787,
      "##do": 788,
      "ver": 789,
      "##jon": 790,
      "teh": 791,
      "sanoo": 792,
      "##ille": 793,
      "yksi": 794,
      "in": 795,
      "##lan": 796,
      "##isto": 797,
      "kir": 798,
      "##ukku": 799,
      "##illa": 800,
      "##jat": 801,
      "re": 802,
      "##han": 803,
      "##massa": 804,
      "oike": 805,
      "##uun": 806,
      "kuiten": 807,
      "##asti": 808,
      "van": 809,
      "##kil": 810,
      "kil": 811,
      "mon": 812,
      "##unta": 813,
      "##htu": 814,
      "##yttä": 815,
      "tiet": 816,
      "jat": 817,
      "lo": 818,
      "##aan": 819,
      "aik": 820,
      "no": 821,
      "##sen": 822,
      "olla": 823,
      "aika": 824,
      "##hj": 825,
      "##oita": 826,
      "##ksen": 827,
      "##eita": 828,
      "koko": 829,
      "##me": 830,
      "##mpi": 831,
      "kuva": 832,
      "##uka": 833,
      "##lin": 834,
      "##kra": 835,
      "sekä": 836,
      "##vel": 837,
      "sy": 838,
      "##tus": 839,
      "vielä": 840,
      "ri": 841,
      "##una": 842,
      "lisä": 843,
      "##tte": 844,
      "haa": 845,
      "er": 846,
      "yhte": 847,
      "##isiin": 848,
      "##kus": 849,
      "sai": 850,
      "##kki": 851,
      "ul": 852,
      "vuoden": 853,
      "ilta": 854,
      "miel": 855,
      "##ikko": 856,
      "##uksia": 857,
      "ruo": 858,
      "##itus": 859,
      "kaikki": 860,
      "##osen": 861,
      "vain": 862,
      "##oja": 863,
      "##siden": 864,
      "os": 865,
      "kertoi": 866,
      "##residen": 867,
      "lä": 868,
      "tut": 869,
      "##oitta": 870,
      "##isti": 871,
      "##est": 872,
      "##gin": 873,
      "perus": 874,
      "##nä": 875,
      "us": 876,
      "##inä": 877,
      "##ulla": 878,
      "##pi": 879,
      "tal": 880,
      "siitä": 881,
      "lap": 882,
      "kuo": 883,
      "ukra": 884,
      "presiden": 885,
      "ro": 886,
      "hyvin": 887,
      "elä": 888,
      "##malla": 889,
      "sitä": 890,
      "##kään": 891,
      "väh": 892,
      "tilan": 893,
      "hä": 894,
      "##iste": 895,
      "##olla": 896,
      "lö": 897,
      "ensimmä": 898,
      "##misen": 899,
      "##di": 900,
      "##uttaa": 901,
      "##tten": 902,
      "jon": 903,
      "it": 904,
      "kar": 905,
      "##tiin": 906,
      "syy": 907,
      "##uut": 908,
      "esimer": 909,
      "suomala": 910,
      "##emm": 911,
      "##änyt": 912,
      "##uud": 913,
      "##at": 914,
      "pr": 915,
      "##uri": 916,
      "kuitenkin": 917,
      "##eiden": 918,
      "##päi": 919,
      "tr": 920,
      "##ite": 921,
      "tunn": 922,
      "kas": 923,
      "tämä": 924,
      "mahdo": 925,
      "##johta": 926,
      "##ynyt": 927,
      "##aal": 928,
      "alu": 929,
      "##itse": 930,
      "hyvä": 931,
      "mer": 932,
      "vasta": 933,
      "##vää": 934,
      "mie": 935,
      "##ystä": 936,
      "tun": 937,
      "aina": 938,
      "##ni": 939,
      "liik": 940,
      "esimerk": 941,
      "##pu": 942,
      "##mo": 943,
      "##llinen": 944,
      "kis": 945,
      "##ude": 946,
      "ter": 947,
      "##ihe": 948,
      "itse": 949,
      "sitten": 950,
      "ottel": 951,
      "ai": 952,
      "##koi": 953,
      "##per": 954,
      "kaup": 955,
      "ennen": 956,
      "noin": 957,
      "19": 958,
      "##po": 959,
      "##mia": 960,
      "esimerkiksi": 961,
      "vuoti": 962,
      "##llo": 963,
      "kuul": 964,
      "##kunn": 965,
      "##tää": 966,
      "keski": 967,
      "tapahtu": 968,
      "kaksi": 969,
      "hi": 970,
      "jossa": 971,
      "##tan": 972,
      "yle": 973,
      "##ttää": 974,
      "##dän": 975,
      "epä": 976,
      "##jaa": 977,
      "##tun": 978,
      "aikana": 979,
      "sanoi": 980,
      "##ihin": 981,
      "poliisi": 982,
      "las": 983,
      "##dä": 984,
      "##istu": 985,
      "maan": 986,
      "##ho": 987,
      "sal": 988,
      "##kas": 989,
      "paljon": 990,
      "##isteri": 991,
      "kats": 992,
      "jää": 993,
      "##ula": 994,
      "ju": 995,
      "##pan": 996,
      "##ver": 997,
      "vaik": 998,
      "asia": 999,
      "##uksi": 1000,
      "##joi": 1001,
      "nuo": 1002,
      "mies": 1003,
      "järj": 1004,
      "ään": 1005,
      "##ttei": 1006,
      "##alta": 1007,
      "ohj": 1008,
      "##din": 1009,
      "##yr": 1010,
      "ilm": 1011,
      "##lloin": 1012,
      "##ttia": 1013,
      "##yty": 1014,
      "väli": 1015,
      "vir": 1016,
      "##nyt": 1017,
      "yhdys": 1018,
      "##ittaa": 1019,
      "eri": 1020,
      "eivät": 1021,
      "##utu": 1022,
      "venäjän": 1023,
      "##pail": 1024,
      "mil": 1025,
      "sar": 1026,
      "sillä": 1027,
      "kon": 1028,
      "##lli": 1029,
      "##kilö": 1030,
      "lisäksi": 1031,
      "##tio": 1032,
      "##no": 1033,
      "keh": 1034,
      "pys": 1035,
      "mää": 1036,
      "muun": 1037,
      "vaikka": 1038,
      "koh": 1039,
      "hei": 1040,
      "##ttaa": 1041,
      "aie": 1042,
      "luk": 1043,
      "mitä": 1044,
      "##iv": 1045,
      "##llista": 1046,
      "##uksessa": 1047,
      "##via": 1048,
      "##ojen": 1049,
      "##ump": 1050,
      "poh": 1051,
      "##ans": 1052,
      "201": 1053,
      "##ga": 1054,
      "pelaa": 1055,
      "ulko": 1056,
      "sil": 1057,
      "##rke": 1058,
      "##ian": 1059,
      "tuli": 1060,
      "##ili": 1061,
      "teke": 1062,
      "##etään": 1063,
      "me": 1064,
      "pe": 1065,
      "maail": 1066,
      "nel": 1067,
      "##lais": 1068,
      "helsin": 1069,
      "ve": 1070,
      "ettei": 1071,
      "tule": 1072,
      "muut": 1073,
      "ukrain": 1074,
      "##llisen": 1075,
      "kansa": 1076,
      "ede": 1077,
      "ur": 1078,
      "muassa": 1079,
      "tämän": 1080,
      "paika": 1081,
      "##uuden": 1082,
      "sano": 1083,
      "uut": 1084,
      "käy": 1085,
      "vastaan": 1086,
      "##hde": 1087,
      "euro": 1088,
      "liitt": 1089,
      "lis": 1090,
      "##ven": 1091,
      "##valla": 1092,
      "##mien": 1093,
      "ho": 1094,
      "##isiä": 1095,
      "toimin": 1096,
      "henkilö": 1097,
      "##ikon": 1098,
      "hyö": 1099,
      "kunn": 1100,
      "##valta": 1101,
      "kommen": 1102,
      "trump": 1103,
      "##yttää": 1104,
      "met": 1105,
      "pitää": 1106,
      "kaa": 1107,
      "väl": 1108,
      "eli": 1109,
      "##lta": 1110,
      "yl": 1111,
      "##elta": 1112,
      "##iin": 1113,
      "pien": 1114,
      "##vasti": 1115,
      "##kkä": 1116,
      "tulee": 1117,
      "##iseen": 1118,
      "ihm": 1119,
      "tode": 1120,
      "##johtaja": 1121,
      "tote": 1122,
      "##oitti": 1123,
      "prosen": 1124,
      "##eksi": 1125,
      "##ch": 1126,
      "##ito": 1127,
      "julka": 1128,
      "sisä": 1129,
      "joukku": 1130,
      "kut": 1131,
      "##tteli": 1132,
      "##ministeri": 1133,
      "##pal": 1134,
      "nor": 1135,
      "##kuussa": 1136,
      "tuk": 1137,
      "##ope": 1138,
      "toim": 1139,
      "toimi": 1140,
      "##kea": 1141,
      "##mma": 1142,
      "##llisesti": 1143,
      "het": 1144,
      "000": 1145,
      "her": 1146,
      "##pe": 1147,
      "##ukset": 1148,
      "lin": 1149,
      "olen": 1150,
      "##isu": 1151,
      "tehd": 1152,
      "##ksa": 1153,
      "##kel": 1154,
      "##ann": 1155,
      "sija": 1156,
      "##san": 1157,
      "olivat": 1158,
      "kaupun": 1159,
      "mei": 1160,
      "arvi": 1161,
      "tän": 1162,
      "##iti": 1163,
      "kyse": 1164,
      "##yksen": 1165,
      "mo": 1166,
      "##vuo": 1167,
      "seuraa": 1168,
      "##mää": 1169,
      "##kia": 1170,
      "##st": 1171,
      "##onen": 1172,
      "euroa": 1173,
      "##istö": 1174,
      "tällä": 1175,
      "len": 1176,
      "laa": 1177,
      "##ttom": 1178,
      "ajan": 1179,
      "##oon": 1180,
      "vuotta": 1181,
      "##eseen": 1182,
      "vah": 1183,
      "##ttua": 1184,
      "##yttö": 1185,
      "##ikan": 1186,
      "koul": 1187,
      "ny": 1188,
      "vier": 1189,
      "kiinn": 1190,
      "keskus": 1191,
      "##istel": 1192,
      "##son": 1193,
      "##emmän": 1194,
      "jotka": 1195,
      "##hi": 1196,
      "turva": 1197,
      "puo": 1198,
      "eikä": 1199,
      "suomessa": 1200,
      "juh": 1201,
      "##neet": 1202,
      "##tään": 1203,
      "use": 1204,
      "##der": 1205,
      "käsi": 1206,
      "tutki": 1207,
      "##llan": 1208,
      "uh": 1209,
      "vuosi": 1210,
      "kesä": 1211,
      "##ker": 1212,
      "kanna": 1213,
      "yllä": 1214,
      "##kun": 1215,
      "##hden": 1216,
      "##jien": 1217,
      "##oike": 1218,
      "##tyi": 1219,
      "aihe": 1220,
      "aja": 1221,
      "##dan": 1222,
      "koska": 1223,
      "sop": 1224,
      "tö": 1225,
      "##inta": 1226,
      "##kona": 1227,
      "##menta": 1228,
      "##paa": 1229,
      "##matta": 1230,
      "##eella": 1231,
      "jonka": 1232,
      "raken": 1233,
      "saan": 1234,
      "##ukseen": 1235,
      "aiemmin": 1236,
      "##ilta": 1237,
      "##hen": 1238,
      "##antaina": 1239,
      "venäjä": 1240,
      "presidentti": 1241,
      "op": 1242,
      "##mpia": 1243,
      "##ras": 1244,
      "##lia": 1245,
      "##tui": 1246,
      "##ihen": 1247,
      "##mar": 1248,
      "##tia": 1249,
      "miten": 1250,
      "tor": 1251,
      "##viä": 1252,
      "lisää": 1253,
      "käyt": 1254,
      "juo": 1255,
      "##llaan": 1256,
      "suunn": 1257,
      "##miseen": 1258,
      "elo": 1259,
      "##kseen": 1260,
      "näin": 1261,
      "tied": 1262,
      "stu": 1263,
      "##vit": 1264,
      "##oihin": 1265,
      "siir": 1266,
      "mikä": 1267,
      "##bb": 1268,
      "##isessa": 1269,
      "##eltä": 1270,
      "##joon": 1271,
      "ruot": 1272,
      "siihen": 1273,
      "yrit": 1274,
      "##je": 1275,
      "##kke": 1276,
      "##uksesta": 1277,
      "##ltä": 1278,
      "##vien": 1279,
      "han": 1280,
      "mit": 1281,
      "##ttävä": 1282,
      "\".": 1283,
      "joh": 1284,
      "##nus": 1285,
      "maailman": 1286,
      "päätö": 1287,
      "##nan": 1288,
      "##yyn": 1289,
      "vaih": 1290,
      "koti": 1291,
      "mat": 1292,
      "##hän": 1293,
      "syn": 1294,
      "##pää": 1295,
      "tiedo": 1296,
      "##ig": 1297,
      "##tion": 1298,
      "teki": 1299,
      "talo": 1300,
      "##ter": 1301,
      "##ber": 1302,
      "kirjo": 1303,
      "put": 1304,
      "##ituksen": 1305,
      "vo": 1306,
      "muuta": 1307,
      "olevan": 1308,
      "##utti": 1309,
      "pohjo": 1310,
      "##iseksi": 1311,
      "##ino": 1312,
      "##gel": 1313,
      "kär": 1314,
      "pitä": 1315,
      "kilpail": 1316,
      "miljoon": 1317,
      "lopp": 1318,
      "##var": 1319,
      "##tar": 1320,
      "##tik": 1321,
      "##oiden": 1322,
      "##elin": 1323,
      "es": 1324,
      "oul": 1325,
      "nyky": 1326,
      "##ttele": 1327,
      "##ing": 1328,
      "julk": 1329,
      "##misesta": 1330,
      "##von": 1331,
      "##oma": 1332,
      "med": 1333,
      "##kunta": 1334,
      "##hl": 1335,
      "de": 1336,
      "näy": 1337,
      "lau": 1338,
      "##kuun": 1339,
      "##io": 1340,
      "##heil": 1341,
      "säh": 1342,
      "taka": 1343,
      "jota": 1344,
      "seura": 1345,
      "tarko": 1346,
      "uusi": 1347,
      "tässä": 1348,
      "leh": 1349,
      "johta": 1350,
      "enemmän": 1351,
      "##uudessa": 1352,
      "##oilla": 1353,
      "euroop": 1354,
      "näh": 1355,
      "haasta": 1356,
      "##mus": 1357,
      "##tuu": 1358,
      "##masta": 1359,
      "ase": 1360,
      "vide": 1361,
      "ihan": 1362,
      "kysy": 1363,
      "##llään": 1364,
      "ent": 1365,
      "stubb": 1366,
      "edus": 1367,
      "nuor": 1368,
      "##llisuus": 1369,
      "sää": 1370,
      "##janta": 1371,
      "määrä": 1372,
      "##mman": 1373,
      "##toa": 1374,
      "mm": 1375,
      "nous": 1376,
      "oly": 1377,
      "##laa": 1378,
      "puheen": 1379,
      "perjanta": 1380,
      "taa": 1381,
      "##rity": 1382,
      "ty": 1383,
      "##ura": 1384,
      "##aali": 1385,
      "##kit": 1386,
      "##neen": 1387,
      "##utui": 1388,
      "sin": 1389,
      "##mpä": 1390,
      "joul": 1391,
      "tärke": 1392,
      "ava": 1393,
      "##uko": 1394,
      "pan": 1395,
      "##iä": 1396,
      "##ue": 1397,
      "pol": 1398,
      "syö": 1399,
      "##am": 1400,
      "##osti": 1401,
      "kolme": 1402,
      "puolus": 1403,
      "##ukka": 1404,
      "##llin": 1405,
      "työn": 1406,
      "##lainen": 1407,
      "mitään": 1408,
      "suosi": 1409,
      "##kusta": 1410,
      "erity": 1411,
      "##ssi": 1412,
      "##ttö": 1413,
      "vastaa": 1414,
      "suomi": 1415,
      "el": 1416,
      "ken": 1417,
      "##yksi": 1418,
      "10": 1419,
      "##ine": 1420,
      "siinä": 1421,
      "päivä": 1422,
      "##uutta": 1423,
      "et": 1424,
      "sair": 1425,
      "hui": 1426,
      "pala": 1427,
      "vaan": 1428,
      "##ikki": 1429,
      "##tyy": 1430,
      "##jana": 1431,
      "isra": 1432,
      "##pel": 1433,
      "##puol": 1434,
      "kertaa": 1435,
      "##vos": 1436,
      "##haa": 1437,
      "pääs": 1438,
      "15": 1439,
      "mur": 1440,
      "##yys": 1441,
      "##ukana": 1442,
      "kohd": 1443,
      "ohjel": 1444,
      "##daan": 1445,
      "##enn": 1446,
      "##kul": 1447,
      "jopa": 1448,
      "usko": 1449,
      "##uja": 1450,
      "##ea": 1451,
      "##kunnan": 1452,
      "terve": 1453,
      "kier": 1454,
      "##ria": 1455,
      "viikon": 1456,
      "##ulta": 1457,
      "##kellä": 1458,
      "##estaan": 1459,
      "ukrainan": 1460,
      "asian": 1461,
      "sähkö": 1462,
      "sella": 1463,
      "yri": 1464,
      "##sina": 1465,
      "ihmis": 1466,
      "vaike": 1467,
      "mä": 1468,
      "or": 1469,
      "osall": 1470,
      "pu": 1471,
      "lähe": 1472,
      "##itsi": 1473,
      "##kes": 1474,
      "suh": 1475,
      "voit": 1476,
      "lei": 1477,
      "ehdo": 1478,
      "##so": 1479,
      "lähes": 1480,
      "yleis": 1481,
      "##tila": 1482,
      "##isa": 1483,
      "muo": 1484,
      "esiin": 1485,
      "fin": 1486,
      "sä": 1487,
      "kommentoi": 1488,
      "oma": 1489,
      "sunn": 1490,
      "##voin": 1491,
      "jal": 1492,
      "##mässä": 1493,
      "##raa": 1494,
      "##vassa": 1495,
      "ympä": 1496,
      "kuuka": 1497,
      "##nin": 1498,
      "##tunut": 1499,
      "##kkaa": 1500,
      "tas": 1501,
      "##nö": 1502,
      "##miin": 1503,
      "##joukku": 1504,
      "sunnunta": 1505,
      "##las": 1506,
      "alku": 1507,
      "kyllä": 1508,
      "muu": 1509,
      "##ettu": 1510,
      "kerro": 1511,
      "vuotias": 1512,
      "prosenttia": 1513,
      "##udella": 1514,
      "##istaa": 1515,
      "##tettiin": 1516,
      "enää": 1517,
      "nope": 1518,
      "##tys": 1519,
      "onne": 1520,
      "##llen": 1521,
      "kr": 1522,
      "kymmen": 1523,
      "helsingin": 1524,
      "py": 1525,
      "tehdä": 1526,
      "pari": 1527,
      "pitkä": 1528,
      "mukana": 1529,
      "##järj": 1530,
      "##ksan": 1531,
      "keskustel": 1532,
      "12": 1533,
      "yhdysvalta": 1534,
      "eh": 1535,
      "##usa": 1536,
      "koke": 1537,
      "iltale": 1538,
      "##utus": 1539,
      "##toja": 1540,
      "##alla": 1541,
      "##yd": 1542,
      "toinen": 1543,
      "##iton": 1544,
      "nim": 1545,
      "pohjois": 1546,
      "liitty": 1547,
      "##uvo": 1548,
      "kirj": 1549,
      "rii": 1550,
      "##mistä": 1551,
      "kello": 1552,
      "tilante": 1553,
      "##gen": 1554,
      "##erin": 1555,
      "200": 1556,
      "tiista": 1557,
      "uuden": 1558,
      "##uussa": 1559,
      "##ikin": 1560,
      "##oista": 1561,
      "##ile": 1562,
      "jatku": 1563,
      "katso": 1564,
      "##don": 1565,
      "##isella": 1566,
      "etel": 1567,
      "##toon": 1568,
      "##mon": 1569,
      "##eensä": 1570,
      "vaati": 1571,
      "its": 1572,
      "todella": 1573,
      "##kkin": 1574,
      "##hei": 1575,
      "torsta": 1576,
      "vet": 1577,
      "valta": 1578,
      "##itel": 1579,
      "hu": 1580,
      "##inte": 1581,
      "sosi": 1582,
      "luon": 1583,
      "##ikke": 1584,
      "palvel": 1585,
      "pur": 1586,
      "ale": 1587,
      "##oissa": 1588,
      "##ytyy": 1589,
      "##kir": 1590,
      "kuten": 1591,
      "##kuuta": 1592,
      "ilma": 1593,
      "##ota": 1594,
      "##ottaa": 1595,
      "##kku": 1596,
      "tapp": 1597,
      "##lleet": 1598,
      "urheil": 1599,
      "ratka": 1600,
      "vara": 1601,
      "rauh": 1602,
      "vähän": 1603,
      "tuomi": 1604,
      "keskivi": 1605,
      "halu": 1606,
      "por": 1607,
      "##mas": 1608,
      "##jia": 1609,
      "huol": 1610,
      "30": 1611,
      "##isesta": 1612,
      "jouk": 1613,
      "tuh": 1614,
      "pois": 1615,
      "##tynyt": 1616,
      "##väl": 1617,
      "järjes": 1618,
      "##ele": 1619,
      "##mala": 1620,
      "pä": 1621,
      "tehtä": 1622,
      "yhteis": 1623,
      "##har": 1624,
      "##isille": 1625,
      "aikaa": 1626,
      "##su": 1627,
      "neljä": 1628,
      "juuri": 1629,
      "saanut": 1630,
      "täys": 1631,
      "##tien": 1632,
      "halua": 1633,
      "##tee": 1634,
      "##tojen": 1635,
      "##por": 1636,
      "lää": 1637,
      "epäil": 1638,
      "arvioi": 1639,
      "##ju": 1640,
      "etelä": 1641,
      "ran": 1642,
      "voitta": 1643,
      "harr": 1644,
      "kal": 1645,
      "##enne": 1646,
      "alle": 1647,
      "hie": 1648,
      "##vänä": 1649,
      "##tteen": 1650,
      "vuoksi": 1651,
      "rik": 1652,
      "##ustaja": 1653,
      "##gra": 1654,
      "##mmat": 1655,
      "##iselle": 1656,
      "hallitus": 1657,
      "opp": 1658,
      "##gi": 1659,
      "##mpaa": 1660,
      "##palvel": 1661,
      "itä": 1662,
      "##ttäin": 1663,
      "uud": 1664,
      "##unsa": 1665,
      "aikaan": 1666,
      "tarjo": 1667,
      "puoli": 1668,
      "ryh": 1669,
      "##ren": 1670,
      "##nist": 1671,
      "jäi": 1672,
      "vali": 1673,
      "eu": 1674,
      "otta": 1675,
      "ongel": 1676,
      "##osa": 1677,
      "##iston": 1678,
      "kautta": 1679,
      "##asi": 1680,
      "jäsen": 1681,
      "##järjes": 1682,
      "##otus": 1683,
      "##ttänyt": 1684,
      "##uma": 1685,
      "##suo": 1686,
      "tasa": 1687,
      "##essaan": 1688,
      "##tiiv": 1689,
      "##vansa": 1690,
      "pain": 1691,
      "ala": 1692,
      "voisi": 1693,
      "##missa": 1694,
      "##ff": 1695,
      "ras": 1696,
      "odo": 1697,
      "hyökkä": 1698,
      "putin": 1699,
      "##kaup": 1700,
      "ilman": 1701,
      "kauden": 1702,
      "##teki": 1703,
      "iso": 1704,
      "tilanne": 1705,
      "##ulle": 1706,
      "yhteen": 1707,
      "##ce": 1708,
      "siv": 1709,
      "län": 1710,
      "##oittaa": 1711,
      "11": 1712,
      "tälla": 1713,
      "##riä": 1714,
      "joten": 1715,
      "kansan": 1716,
      "puolustus": 1717,
      "lle": 1718,
      "##ust": 1719,
      "kur": 1720,
      "##tetty": 1721,
      "selvi": 1722,
      "ainakin": 1723,
      "##jö": 1724,
      "vahv": 1725,
      "toisen": 1726,
      "##ksin": 1727,
      "18": 1728,
      "##yä": 1729,
      "auto": 1730,
      "silloin": 1731,
      "##lu": 1732,
      "tullut": 1733,
      "koi": 1734,
      "käyttä": 1735,
      "##alu": 1736,
      "##tyn": 1737,
      "eloku": 1738,
      "av": 1739,
      "alkoi": 1740,
      "##ck": 1741,
      "##iva": 1742,
      "peruste": 1743,
      "pro": 1744,
      "##ttelee": 1745,
      "##yi": 1746,
      "2022": 1747,
      "maali": 1748,
      "eten": 1749,
      "##isista": 1750,
      "##ikolla": 1751,
      "##jaan": 1752,
      "##onsa": 1753,
      "##jät": 1754,
      "2023": 1755,
      "käyttö": 1756,
      "huomi": 1757,
      "##etaan": 1758,
      "##llon": 1759,
      "ikä": 1760,
      "pare": 1761,
      "##mmär": 1762,
      "##ikkaa": 1763,
      "lain": 1764,
      "muist": 1765,
      "siellä": 1766,
      "vuod": 1767,
      "uutis": 1768,
      "perjantaina": 1769,
      "matka": 1770,
      "vie": 1771,
      "##liitt": 1772,
      "myöhe": 1773,
      "##estar": 1774,
      "##ari": 1775,
      "##uksista": 1776,
      "löy": 1777,
      "edelleen": 1778,
      "toden": 1779,
      "##näkö": 1780,
      "##mist": 1781,
      "tänä": 1782,
      "sopim": 1783,
      "asiasta": 1784,
      "hallituksen": 1785,
      "##kos": 1786,
      "##jassa": 1787,
      "##eensa": 1788,
      "taas": 1789,
      "##ostaa": 1790,
      "parha": 1791,
      "un": 1792,
      "##omet": 1793,
      "ensimmäisen": 1794,
      "##mentaja": 1795,
      "perä": 1796,
      "ajo": 1797,
      "saada": 1798,
      "presidentin": 1799,
      "kulj": 1800,
      "rä": 1801,
      "pitäisi": 1802,
      "hetkellä": 1803,
      "lauantaina": 1804,
      "##oks": 1805,
      "kiinni": 1806,
      "riko": 1807,
      "amp": 1808,
      "##ani": 1809,
      "##ppu": 1810,
      "saman": 1811,
      "palj": 1812,
      "kuitenkaan": 1813,
      "poliisin": 1814,
      "viera": 1815,
      "takia": 1816,
      "##her": 1817,
      "##teet": 1818,
      "##ksu": 1819,
      "heidän": 1820,
      "##lella": 1821,
      "bri": 1822,
      "samalla": 1823,
      "venälä": 1824,
      "yhdessä": 1825,
      "myöhemmin": 1826,
      "kään": 1827,
      "##änä": 1828,
      "niitä": 1829,
      "##vasta": 1830,
      "ukraina": 1831,
      "##puo": 1832,
      "##ttämä": 1833,
      "##sson": 1834,
      "miehen": 1835,
      "kaupungin": 1836,
      "tavalla": 1837,
      "##kkää": 1838,
      "##kkö": 1839,
      "lämp": 1840,
      "merki": 1841,
      "yhden": 1842,
      "suuri": 1843,
      "piste": 1844,
      "arvo": 1845,
      "joukkue": 1846,
      "keskiviik": 1847,
      "##isissa": 1848,
      "ymmär": 1849,
      "aam": 1850,
      "ga": 1851,
      "pyö": 1852,
      "lento": 1853,
      "vaka": 1854,
      "17": 1855,
      "perh": 1856,
      "##ranoma": 1857,
      "##isena": 1858,
      "vil": 1859,
      "epäi": 1860,
      "da": 1861,
      "##paan": 1862,
      "käyn": 1863,
      "##jär": 1864,
      "tätä": 1865,
      "##urin": 1866,
      "tila": 1867,
      "##ela": 1868,
      "##ona": 1869,
      "eriko": 1870,
      "##tunti": 1871,
      "##tetaan": 1872,
      "##kohta": 1873,
      "kau": 1874,
      "##tettu": 1875,
      "##kee": 1876,
      "##kie": 1877,
      "kyl": 1878,
      "asti": 1879,
      "##kasta": 1880,
      "hänet": 1881,
      "tarv": 1882,
      "trumpin": 1883,
      "mielen": 1884,
      "kahden": 1885,
      "13": 1886,
      "main": 1887,
      "tans": 1888,
      "ssä": 1889,
      "myön": 1890,
      "16": 1891,
      "##id": 1892,
      "##see": 1893,
      "kuinka": 1894,
      "häntä": 1895,
      "välillä": 1896,
      "voitti": 1897,
      "yhdysvaltain": 1898,
      "##eilla": 1899,
      "##ttelussa": 1900,
      "##utun": 1901,
      "hava": 1902,
      "heti": 1903,
      "asu": 1904,
      "ir": 1905,
      "##visi": 1906,
      "mene": 1907,
      "##ettiin": 1908,
      "pah": 1909,
      "kansain": 1910,
      "olleet": 1911,
      "suk": 1912,
      "vai": 1913,
      "ehkä": 1914,
      "biden": 1915,
      "yhtä": 1916,
      "##tal": 1917,
      "mahdollis": 1918,
      "##vaan": 1919,
      "täy": 1920,
      "ero": 1921,
      "mel": 1922,
      "kai": 1923,
      "kansainväl": 1924,
      "##eelle": 1925,
      "ystä": 1926,
      "vaali": 1927,
      "##utunut": 1928,
      "hieman": 1929,
      "##udessa": 1930,
      "##kiin": 1931,
      "##tiet": 1932,
      "tiedotte": 1933,
      "ap": 1934,
      "##non": 1935,
      "##ba": 1936,
      "erila": 1937,
      "tavoi": 1938,
      "anta": 1939,
      "puu": 1940,
      "##hoit": 1941,
      "siis": 1942,
      "##joit": 1943,
      "##tyks": 1944,
      "viesti": 1945,
      "##ittää": 1946,
      "väi": 1947,
      "sosiaal": 1948,
      "sur": 1949,
      "myy": 1950,
      "##illä": 1951,
      "tapah": 1952,
      "##isessä": 1953,
      "##annut": 1954,
      "##ase": 1955,
      "aivan": 1956,
      "14": 1957,
      "torstaina": 1958,
      "tiistaina": 1959,
      "missä": 1960,
      "##mies": 1961,
      "##össä": 1962,
      "nhl": 1963,
      "##isuus": 1964,
      "alueella": 1965,
      "kilomet": 1966,
      "kärä": 1967,
      "##tyä": 1968,
      "näky": 1969,
      "kysym": 1970,
      "puheenjohtaja": 1971,
      "huu": 1972,
      "sunnuntaina": 1973,
      "täysin": 1974,
      "kaudella": 1975,
      "edusta": 1976,
      "pyy": 1977,
      "ain": 1978,
      "roo": 1979,
      "##sky": 1980,
      "perhe": 1981,
      "maanantaina": 1982,
      "insta": 1983,
      "olympia": 1984,
      "##eille": 1985,
      "luv": 1986,
      "tyy": 1987,
      "##lop": 1988,
      "##ast": 1989,
      "jär": 1990,
      "todennäkö": 1991,
      "##kän": 1992,
      "keskiviikkona": 1993,
      "##talo": 1994,
      "2024": 1995,
      "euroopan": 1996,
      "25": 1997,
      "alka": 1998,
      "##hja": 1999,
      "##yhti": 2000,
      "##heili": 2001,
      "amma": 2002,
      "kirjoittaa": 2003,
      "päästä": 2004,
      "miljoonaa": 2005,
      "instagra": 2006,
      "##kana": 2007,
      "##estin": 2008,
      "##ost": 2009,
      "lopulta": 2010,
      "##keä": 2011,
      "meillä": 2012,
      "tähän": 2013,
      "##tilan": 2014,
      "##tua": 2015,
      "usein": 2016,
      "##osi": 2017,
      "jalka": 2018,
      "kerran": 2019,
      "kamp": 2020,
      "##päivä": 2021,
      "oman": 2022,
      "sul": 2023,
      "##ket": 2024,
      "toimitta": 2025,
      "alkaa": 2026,
      "nainen": 2027,
      "poi": 2028,
      "pelas": 2029,
      "kuulu": 2030,
      "##ussi": 2031,
      "toista": 2032,
      "oulun": 2033,
      "##vänsä": 2034,
      "##ttuna": 2035,
      "##mieh": 2036,
      "tästä": 2037,
      "kuole": 2038,
      "hil": 2039,
      "##iss": 2040,
      "edes": 2041,
      "ensimmäinen": 2042,
      "##iska": 2043,
      "ruotsin": 2044,
      "##itos": 2045,
      "##ttui": 2046,
      "##aika": 2047,
      "viikolla": 2048,
      "##issaan": 2049,
      "pääsi": 2050,
      "kirja": 2051,
      "##llisia": 2052,
      "##utuu": 2053,
      "##viin": 2054,
      "useita": 2055,
      "käräjä": 2056,
      "tänään": 2057,
      "kat": 2058,
      "kana": 2059,
      "##mu": 2060,
      "##jää": 2061,
      "onko": 2062,
      "voin": 2063,
      "##otta": 2064,
      "maksa": 2065,
      "##tr": 2066,
      "tee": 2067,
      "olemme": 2068,
      "tehnyt": 2069,
      "mielestä": 2070,
      "tava": 2071,
      "piti": 2072,
      "som": 2073,
      "##uuteen": 2074,
      "auton": 2075,
      "br": 2076,
      "##uudesta": 2077,
      "ottelun": 2078,
      "##ryh": 2079,
      "yhti": 2080,
      "näyttää": 2081,
      "käräjäoike": 2082,
      "pö": 2083,
      "##liiton": 2084,
      "new": 2085,
      "moni": 2086,
      "heik": 2087,
      "meidän": 2088,
      "työs": 2089,
      "##asto": 2090,
      "nähd": 2091,
      "yksity": 2092,
      "##ttelu": 2093,
      "tv": 2094,
      "tää": 2095,
      "ää": 2096,
      "mole": 2097,
      "meni": 2098,
      "maal": 2099,
      "##ukkaan": 2100,
      "lue": 2101,
      "jatkaa": 2102,
      "syks": 2103,
      "kävi": 2104,
      "##uksiin": 2105,
      "od": 2106,
      "vapaa": 2107,
      "herä": 2108,
      "##ilä": 2109,
      "##kkaan": 2110,
      "vanhe": 2111,
      "omista": 2112,
      "rans": 2113,
      "##tyksen": 2114,
      "##ilee": 2115,
      "peli": 2116,
      "prin": 2117,
      "hur": 2118,
      "euron": 2119,
      "##vissa": 2120,
      "väki": 2121,
      "##vinto": 2122,
      "muka": 2123,
      "joita": 2124,
      "oikeus": 2125,
      "tim": 2126,
      "##ttäjä": 2127,
      "the": 2128,
      "##uksissa": 2129,
      "##uttanut": 2130,
      "em": 2131,
      "kolm": 2132,
      "##ansa": 2133,
      "##kossa": 2134,
      "##voit": 2135,
      "##hdelle": 2136,
      "varm": 2137,
      "huoli": 2138,
      "vel": 2139,
      "liig": 2140,
      "##tteri": 2141,
      "tamm": 2142,
      "alussa": 2143,
      "##iltä": 2144,
      "##kut": 2145,
      "50": 2146,
      "##isuudessa": 2147,
      "##yssä": 2148,
      "##ytyi": 2149,
      "osallist": 2150,
      "kyseessä": 2151,
      "huh": 2152,
      "suomeen": 2153,
      "histo": 2154,
      "koskaan": 2155,
      "voivat": 2156,
      "niiden": 2157,
      "##istyö": 2158,
      "saap": 2159,
      "##tit": 2160,
      "lähte": 2161,
      "mahdollista": 2162,
      "hiih": 2163,
      "onnettom": 2164,
      "##äni": 2165,
      "enna": 2166,
      "co": 2167,
      "##isestä": 2168,
      "##oille": 2169,
      "kuoli": 2170,
      "viikko": 2171,
      "puhu": 2172,
      "tutkin": 2173,
      "mieh": 2174,
      "##alainen": 2175,
      "for": 2176,
      "kie": 2177,
      "aiko": 2178,
      "puolestaan": 2179,
      "##illaan": 2180,
      "##par": 2181,
      "soti": 2182,
      "otti": 2183,
      "##ppal": 2184,
      "työnteki": 2185,
      "##teita": 2186,
      "##perä": 2187,
      "##vaksi": 2188,
      "kokona": 2189,
      "tuolloin": 2190,
      "kolman": 2191,
      "nousi": 2192,
      "##gan": 2193,
      "suora": 2194,
      "korke": 2195,
      "yliop": 2196,
      "muita": 2197,
      "mik": 2198,
      "##um": 2199,
      "erityisesti": 2200,
      "yhä": 2201,
      "##västi": 2202,
      "sis": 2203,
      "syys": 2204,
      ").": 2205,
      "##jar": 2206,
      "af": 2207,
      "ottaa": 2208,
      "raja": 2209,
      "puolu": 2210,
      "salon": 2211,
      "häi": 2212,
      "israelin": 2213,
      "asiantunti": 2214,
      "perusteella": 2215,
      "lapsi": 2216,
      "musi": 2217,
      "poikke": 2218,
      "##isellä": 2219,
      "##vana": 2220,
      "##joiden": 2221,
      "##kor": 2222,
      "##lliset": 2223,
      "sanomat": 2224,
      "\",": 2225,
      "##erg": 2226,
      "##uuta": 2227,
      "huoma": 2228,
      "lasten": 2229,
      "##luo": 2230,
      "##sy": 2231,
      "##llia": 2232,
      "erittäin": 2233,
      "##ena": 2234,
      "##miä": 2235,
      "toteaa": 2236,
      "##ksia": 2237,
      "##kar": 2238,
      "##joitus": 2239,
      "hir": 2240,
      "onnist": 2241,
      "##ensa": 2242,
      "jotta": 2243,
      "neljän": 2244,
      "##liin": 2245,
      "hyväks": 2246,
      "tuleva": 2247,
      "rovan": 2248,
      "vuotia": 2249,
      "jään": 2250,
      "##ily": 2251,
      "##esin": 2252,
      "saksa": 2253,
      "##iassa": 2254,
      "199": 2255,
      "##aut": 2256,
      "keske": 2257,
      "##sivat": 2258,
      "##paika": 2259,
      "viranoma": 2260,
      "##teli": 2261,
      "tien": 2262,
      "ympäri": 2263,
      "kasv": 2264,
      "##miseksi": 2265,
      "##määrä": 2266,
      "##ire": 2267,
      "##innan": 2268,
      "##llik": 2269,
      "##uteen": 2270,
      "hyvinvoin": 2271,
      "tiedotteessa": 2272,
      "##ytö": 2273,
      "kansaned": 2274,
      "##nn": 2275,
      "poliitt": 2276,
      "isän": 2277,
      "##mik": 2278,
      "##ttoa": 2279,
      "metsä": 2280,
      "työsken": 2281,
      "##stö": 2282,
      "##tele": 2283,
      "yö": 2284,
      "seitse": 2285,
      "jouluk": 2286,
      "##pon": 2287,
      "pud": 2288,
      "joissa": 2289,
      "elämän": 2290,
      "maahan": 2291,
      "ruoka": 2292,
      "pysä": 2293,
      "vih": 2294,
      "##usten": 2295,
      "hin": 2296,
      "##era": 2297,
      "vää": 2298,
      "tieto": 2299,
      "tamp": 2300,
      "hänellä": 2301,
      "viikonlop": 2302,
      "ris": 2303,
      "##yden": 2304,
      "kuljetta": 2305,
      "##log": 2306,
      "länsi": 2307,
      "pyr": 2308,
      "valtion": 2309,
      "##dy": 2310,
      "##isyy": 2311,
      "saattaa": 2312,
      "pysty": 2313,
      "josta": 2314,
      "varsin": 2315,
      "ba": 2316,
      "jälleen": 2317,
      "tehty": 2318,
      "##ron": 2319,
      "kahde": 2320,
      "##estari": 2321,
      "naisten": 2322,
      "pidä": 2323,
      "miksi": 2324,
      "##ess": 2325,
      "mukaansa": 2326,
      "jotain": 2327,
      "sm": 2328,
      "jolla": 2329,
      "##äneet": 2330,
      ".)": 2331,
      "sala": 2332,
      "##ppa": 2333,
      "##koon": 2334,
      "valtio": 2335,
      "ihmiset": 2336,
      "ven": 2337,
      "pitkään": 2338,
      "##jasta": 2339,
      "sijaan": 2340,
      "sd": 2341,
      "voitto": 2342,
      "ihmistä": 2343,
      "hänelle": 2344,
      "##vet": 2345,
      "##ister": 2346,
      "voima": 2347,
      "##hol": 2348,
      "pelastus": 2349,
      "##ehto": 2350,
      "pide": 2351,
      "##misestä": 2352,
      "ajat": 2353,
      "##itys": 2354,
      "laps": 2355,
      "lapsen": 2356,
      "##eeksi": 2357,
      "tausta": 2358,
      "vaikuttaa": 2359,
      "järjestä": 2360,
      "),": 2361,
      "21": 2362,
      "hoi": 2363,
      "raa": 2364,
      "kohta": 2365,
      "turvallisuus": 2366,
      "car": 2367,
      "##tali": 2368,
      "ravinto": 2369,
      "lähet": 2370,
      "##kesk": 2371,
      "pääministeri": 2372,
      "##ander": 2373,
      "olympi": 2374,
      "##ukse": 2375,
      "vaihto": 2376,
      "##kinen": 2377,
      "##oim": 2378,
      "laus": 2379,
      "##tut": 2380,
      "asun": 2381,
      "takaisin": 2382,
      "urheili": 2383,
      "tamper": 2384,
      "##ola": 2385,
      "vuosina": 2386,
      "keskusta": 2387,
      "##ge": 2388,
      "tosi": 2389,
      "jaks": 2390,
      "##joukkue": 2391,
      "##ksiä": 2392,
      "##ppi": 2393,
      "tapahtui": 2394,
      "ura": 2395,
      "##iheessa": 2396,
      "suunnitel": 2397,
      "tek": 2398,
      "suurin": 2399,
      "terveys": 2400,
      "##ynä": 2401,
      "22": 2402,
      "##muksen": 2403,
      "##essi": 2404,
      "mestar": 2405,
      "##jille": 2406,
      "liian": 2407,
      "yhteensä": 2408,
      "tekee": 2409,
      "don": 2410,
      "##berg": 2411,
      "näytteli": 2412,
      "##tusta": 2413,
      "rikos": 2414,
      "##kis": 2415,
      "##ly": 2416,
      "##hing": 2417,
      "##uke": 2418,
      "kuu": 2419,
      "##suomala": 2420,
      "erä": 2421,
      "suorit": 2422,
      "antaa": 2423,
      "toivo": 2424,
      "asiaa": 2425,
      "kann": 2426,
      "loukkaan": 2427,
      "nämä": 2428,
      "##ydessä": 2429,
      "fa": 2430,
      "##kti": 2431,
      "##yksiä": 2432,
      "##uki": 2433,
      "##toin": 2434,
      "hoit": 2435,
      "mus": 2436,
      "##isenä": 2437,
      "##tsa": 2438,
      "viisi": 2439,
      "silti": 2440,
      "##usia": 2441,
      "kohtaa": 2442,
      "kunin": 2443,
      "voidaan": 2444,
      "käytän": 2445,
      "nimi": 2446,
      "##ser": 2447,
      "##llyt": 2448,
      "##vään": 2449,
      "myötä": 2450,
      "suomalais": 2451,
      "##yhtiö": 2452,
      "kappal": 2453,
      "##yksessä": 2454,
      "##oku": 2455,
      "maks": 2456,
      "isä": 2457,
      "vaim": 2458,
      "nopeasti": 2459,
      "vii": 2460,
      "##anne": 2461,
      "##tetta": 2462,
      "heinä": 2463,
      "sairaa": 2464,
      "##inan": 2465,
      "käyttää": 2466,
      "sota": 2467,
      "lämpö": 2468,
      "##ald": 2469,
      "kaiken": 2470,
      "mitta": 2471,
      "##pol": 2472,
      "##huo": 2473,
      "jääkie": 2474,
      "sijaitse": 2475,
      "uran": 2476,
      "kilpa": 2477,
      "huolimatta": 2478,
      "uude": 2479,
      "menn": 2480,
      "ex": 2481,
      "valmista": 2482,
      "kymmenen": 2483,
      "##uksella": 2484,
      "paik": 2485,
      "##päin": 2486,
      "ihmisiä": 2487,
      "2021": 2488,
      "äänestä": 2489,
      "##netta": 2490,
      "marras": 2491,
      "ympär": 2492,
      "touko": 2493,
      "täällä": 2494,
      "##iso": 2495,
      "haluaa": 2496,
      "eteen": 2497,
      "##uissa": 2498,
      "##hall": 2499,
      "##kraa": 2500,
      "kesken": 2501,
      "vesi": 2502,
      "##liik": 2503,
      "##teessa": 2504,
      "miesten": 2505,
      "##ensä": 2506,
      "yhteistyö": 2507,
      "##osin": 2508,
      "hien": 2509,
      "joiden": 2510,
      "##vista": 2511,
      "kahd": 2512,
      "ykkö": 2513,
      "##ry": 2514,
      "myyn": 2515,
      "##uista": 2516,
      "päätty": 2517,
      "neuvo": 2518,
      "lääkä": 2519,
      "st": 2520,
      "##astaan": 2521,
      "sään": 2522,
      "läpi": 2523,
      "löytyy": 2524,
      "sarjan": 2525,
      "lyh": 2526,
      "joutui": 2527,
      "tulla": 2528,
      "ch": 2529,
      "##kerta": 2530,
      "##rik": 2531,
      "##oksen": 2532,
      "liikenne": 2533,
      "24": 2534,
      "krit": 2535,
      "##istää": 2536,
      "päivän": 2537,
      "40": 2538,
      "osaa": 2539,
      "##mät": 2540,
      "toiminta": 2541,
      "##kää": 2542,
      "##hy": 2543,
      "##ttila": 2544,
      "23": 2545,
      "##koa": 2546,
      "kannattaa": 2547,
      "##kiä": 2548,
      "ilmoit": 2549,
      "jalkapa": 2550,
      "pen": 2551,
      "##met": 2552,
      "##bo": 2553,
      "bar": 2554,
      "##jista": 2555,
      "##tuo": 2556,
      "järjest": 2557,
      "pela": 2558,
      "alue": 2559,
      "vaikutta": 2560,
      "loka": 2561,
      "ah": 2562,
      "valko": 2563,
      "vaikea": 2564,
      "##ros": 2565,
      "korkea": 2566,
      "##keli": 2567,
      "kah": 2568,
      "kerrotaan": 2569,
      "ranta": 2570,
      "oikeuden": 2571,
      "viestin": 2572,
      "pian": 2573,
      "pih": 2574,
      "##co": 2575,
      "##tteet": 2576,
      "näk": 2577,
      "##utua": 2578,
      "##ville": 2579,
      "pet": 2580,
      "lähti": 2581,
      "liikku": 2582,
      "yhteydessä": 2583,
      "paljas": 2584,
      "jolloin": 2585,
      "##pit": 2586,
      "##ban": 2587,
      "entinen": 2588,
      "varsina": 2589,
      "kolmen": 2590,
      "kuuluu": 2591,
      "demo": 2592,
      "##laisen": 2593,
      "kri": 2594,
      "osallistu": 2595,
      "##rän": 2596,
      "##yllä": 2597,
      "maalis": 2598,
      "aiheutta": 2599,
      "vasemm": 2600,
      "di": 2601,
      "elin": 2602,
      "##jalle": 2603,
      "##eena": 2604,
      "##laista": 2605,
      "talous": 2606,
      "man": 2607,
      "yksin": 2608,
      "##sar": 2609,
      "##vallan": 2610,
      "##vio": 2611,
      "##kön": 2612,
      "sodan": 2613,
      "joku": 2614,
      "ru": 2615,
      "runsa": 2616,
      "alex": 2617,
      "##ujen": 2618,
      "##uvos": 2619,
      "perinte": 2620,
      "##nes": 2621,
      "##työ": 2622,
      "##ttain": 2623,
      "mikko": 2624,
      "##ttävän": 2625,
      "kierro": 2626,
      "##onin": 2627,
      "näke": 2628,
      "##tilais": 2629,
      "helmik": 2630,
      "iltana": 2631,
      "normaa": 2632,
      "bo": 2633,
      "##ves": 2634,
      "##rian": 2635,
      "kerton": 2636,
      "saav": 2637,
      "paris": 2638,
      "minkä": 2639,
      "vapa": 2640,
      "näyttä": 2641,
      "israel": 2642,
      "##iaa": 2643,
      "##jel": 2644,
      "lie": 2645,
      "ensin": 2646,
      "suun": 2647,
      "##jalla": 2648,
      "##järjestel": 2649,
      "##isuuden": 2650,
      "##ustel": 2651,
      "perussuomala": 2652,
      "kei": 2653,
      "##liitto": 2654,
      "perheen": 2655,
      "##ttämään": 2656,
      "pekka": 2657,
      "##jal": 2658,
      "tammik": 2659,
      "##sto": 2660,
      "jy": 2661,
      "luke": 2662,
      "uutta": 2663,
      "pääval": 2664,
      "##mppan": 2665,
      "##llisuuden": 2666,
      "media": 2667,
      "lind": 2668,
      "poika": 2669,
      "ääri": 2670,
      "##ttunut": 2671,
      "##tur": 2672,
      "##alais": 2673,
      "tunte": 2674,
      "ottelussa": 2675,
      "joukkueen": 2676,
      "kannatta": 2677,
      "##erä": 2678,
      "kisa": 2679,
      "##gaist": 2680,
      "##imi": 2681,
      "##ag": 2682,
      "##voima": 2683,
      "##pin": 2684,
      "lähtö": 2685,
      "tulisi": 2686,
      "toiv": 2687,
      "tähti": 2688,
      "törke": 2689,
      "koske": 2690,
      "lähi": 2691,
      "##kaupun": 2692,
      "viiden": 2693,
      "leikka": 2694,
      "ulos": 2695,
      "##anen": 2696,
      "##läh": 2697,
      "haav": 2698,
      "##etä": 2699,
      "##koul": 2700,
      "##leissa": 2701,
      "##ps": 2702,
      "##itoksen": 2703,
      "paikka": 2704,
      "##vy": 2705,
      "##ohj": 2706,
      "##ttien": 2707,
      "##mmi": 2708,
      "lauanta": 2709,
      "reil": 2710,
      "päätös": 2711,
      "##ttuu": 2712,
      "##tissa": 2713,
      "##lit": 2714,
      "##tis": 2715,
      "muiden": 2716,
      "sata": 2717,
      "##udu": 2718,
      "kirjoitti": 2719,
      "toki": 2720,
      "alko": 2721,
      "antti": 2722,
      "politi": 2723,
      "varmasti": 2724,
      "##istaan": 2725,
      "##tonen": 2726,
      "##kanen": 2727,
      "siksi": 2728,
      "kok": 2729,
      "mieli": 2730,
      "kampan": 2731,
      "##koja": 2732,
      "hinta": 2733,
      "##ss": 2734,
      "##ini": 2735,
      "kohti": 2736,
      "##konen": 2737,
      "##yksestä": 2738,
      "ilmoitti": 2739,
      "haastattelussa": 2740,
      "seitsemän": 2741,
      "##hdot": 2742,
      "lii": 2743,
      "päälle": 2744,
      "hyvinvointi": 2745,
      "##eni": 2746,
      "opis": 2747,
      "##usto": 2748,
      "##oni": 2749,
      "##vara": 2750,
      "takana": 2751,
      "haas": 2752,
      "tuke": 2753,
      "kuusi": 2754,
      "verkko": 2755,
      "##tteita": 2756,
      "joista": 2757,
      "vaku": 2758,
      "##kkos": 2759,
      "##tänyt": 2760,
      "##este": 2761,
      "toimitus": 2762,
      "näkö": 2763,
      "edessä": 2764,
      "totesi": 2765,
      "##itsee": 2766,
      "sam": 2767,
      "100": 2768,
      "pohti": 2769,
      "olin": 2770,
      "olympiala": 2771,
      "##puh": 2772,
      "##kymmen": 2773,
      "ennä": 2774,
      "äiti": 2775,
      "laj": 2776,
      "pako": 2777,
      "##änen": 2778,
      "eng": 2779,
      "hake": 2780,
      "##ttivät": 2781,
      "valm": 2782,
      "ylen": 2783,
      "julkaisi": 2784,
      "pik": 2785,
      "##und": 2786,
      "saar": 2787,
      "oikein": 2788,
      "naa": 2789,
      "nime": 2790,
      "##isilla": 2791,
      "amer": 2792,
      "olleen": 2793,
      "##ykset": 2794,
      "##vissä": 2795,
      "korja": 2796,
      "paikalla": 2797,
      "##lly": 2798,
      "vaara": 2799,
      "etenkin": 2800,
      "##ers": 2801,
      "help": 2802,
      "mal": 2803,
      "sta": 2804,
      "päätt": 2805,
      "yritys": 2806,
      "##riin": 2807,
      "sopi": 2808,
      "##eihin": 2809,
      "tois": 2810,
      "merkit": 2811,
      "##alle": 2812,
      "##taja": 2813,
      "espan": 2814,
      "emme": 2815,
      "##kissa": 2816,
      "pist": 2817,
      "##joita": 2818,
      "markkin": 2819,
      "vaikut": 2820,
      "##ehdo": 2821,
      "elämä": 2822,
      "##isuutta": 2823,
      "avaus": 2824,
      "asunn": 2825,
      "uutisoi": 2826,
      "vaiheessa": 2827,
      "verran": 2828,
      "##ttyä": 2829,
      "##iemi": 2830,
      "muod": 2831,
      "fi": 2832,
      "puna": 2833,
      "huhtik": 2834,
      "asioita": 2835,
      "mistä": 2836,
      "ilmi": 2837,
      "kova": 2838,
      "super": 2839,
      "##joitta": 2840,
      "hallin": 2841,
      "##omaa": 2842,
      "luki": 2843,
      "kaun": 2844,
      "##mäki": 2845,
      "saira": 2846,
      "yhdysval": 2847,
      "kärsi": 2848,
      "##etin": 2849,
      "anne": 2850,
      "##ttuja": 2851,
      "minä": 2852,
      "##juo": 2853,
      "##usti": 2854,
      "kulttu": 2855,
      "mas": 2856,
      "##oittanut": 2857,
      "mediassa": 2858,
      "muistuttaa": 2859,
      "isku": 2860,
      "puhel": 2861,
      "ruotsa": 2862,
      "yleisö": 2863,
      "##uva": 2864,
      "##teiden": 2865,
      "tod": 2866,
      "tele": 2867,
      "paras": 2868,
      "vanke": 2869,
      "leijon": 2870,
      "2020": 2871,
      "##hä": 2872,
      "##mpien": 2873,
      "puolue": 2874,
      "naisen": 2875,
      "tietoa": 2876,
      "##pelaa": 2877,
      "##oili": 2878,
      "##ttävät": 2879,
      "##olta": 2880,
      "minulla": 2881,
      "ry": 2882,
      "alusta": 2883,
      "##iem": 2884,
      "##ttävästi": 2885,
      "hilja": 2886,
      "##kassa": 2887,
      "kesk": 2888,
      "##eitä": 2889,
      "sama": 2890,
      "tiedä": 2891,
      "gaz": 2892,
      "##uivat": 2893,
      "kuvan": 2894,
      "tuu": 2895,
      "##gissä": 2896,
      "##hdon": 2897,
      "juon": 2898,
      "huipp": 2899,
      "##opim": 2900,
      "##ppo": 2901,
      "##ikaa": 2902,
      "##puolella": 2903,
      "kokoom": 2904,
      "tarkoitus": 2905,
      "tarvitse": 2906,
      "kanta": 2907,
      "eduskunta": 2908,
      "##kein": 2909,
      "kahdeksan": 2910,
      "etsi": 2911,
      "##matto": 2912,
      "##laan": 2913,
      "##laisia": 2914,
      "##peli": 2915,
      "pelasi": 2916,
      "suunni": 2917,
      "##uksena": 2918,
      "##stään": 2919,
      "tapahtun": 2920,
      "alla": 2921,
      "##uilla": 2922,
      "antoi": 2923,
      "laske": 2924,
      "yksityis": 2925,
      "##neksi": 2926,
      "ennus": 2927,
      "kiel": 2928,
      "englan": 2929,
      "##nassa": 2930,
      "taistel": 2931,
      "korva": 2932,
      "##rö": 2933,
      "nato": 2934,
      "sarja": 2935,
      "##siin": 2936,
      "teko": 2937,
      "##mällä": 2938,
      "milla": 2939,
      "jen": 2940,
      "päivänä": 2941,
      "my": 2942,
      "ca": 2943,
      "tyh": 2944,
      "wi": 2945,
      "##htaa": 2946,
      "loppu": 2947,
      "sdp": 2948,
      "##vali": 2949,
      "##kse": 2950,
      "##udesta": 2951,
      "vähen": 2952,
      "ydin": 2953,
      "todennäköisesti": 2954,
      "samaan": 2955,
      "pir": 2956,
      "##län": 2957,
      "##tävä": 2958,
      "muista": 2959,
      "pelaaja": 2960,
      "mika": 2961,
      "uusia": 2962,
      "##tän": 2963,
      "##mansa": 2964,
      "tapaa": 2965,
      "kuvaa": 2966,
      "epäilty": 2967,
      "donald": 2968,
      "27": 2969,
      "##kien": 2970,
      "yleensä": 2971,
      "##mpää": 2972,
      "##yyttä": 2973,
      "##järjestö": 2974,
      "pes": 2975,
      "##vina": 2976,
      "##vas": 2977,
      "seksu": 2978,
      "mö": 2979,
      "##iki": 2980,
      "päiv": 2981,
      "vuosien": 2982,
      "pelastusla": 2983,
      "maalin": 2984,
      "##telee": 2985,
      "##tor": 2986,
      "liike": 2987,
      "##ttun": 2988,
      "tuore": 2989,
      "aiku": 2990,
      "##wa": 2991,
      "huon": 2992,
      "johon": 2993,
      "##llikkö": 2994,
      "kuts": 2995,
      "##umer": 2996,
      "##fi": 2997,
      "##mal": 2998,
      "##elma": 2999,
      "##lien": 3000,
      "turna": 3001,
      "valmi": 3002,
      "turun": 3003,
      "##ttely": 3004,
      "ympäristö": 3005,
      "##istön": 3006,
      "##käyn": 3007,
      "##rien": 3008,
      "##ykseen": 3009,
      "luku": 3010,
      "nuorten": 3011,
      "melko": 3012,
      "jän": 3013,
      "kaikkien": 3014,
      "##lassa": 3015,
      "##dia": 3016,
      "suoraan": 3017,
      "käytännö": 3018,
      "oy": 3019,
      "tarp": 3020,
      "poliis": 3021,
      "##estys": 3022,
      "pysy": 3023,
      "tili": 3024,
      "##kansa": 3025,
      "niistä": 3026,
      "lähellä": 3027,
      "monet": 3028,
      "ratkais": 3029,
      "uhka": 3030,
      "britan": 3031,
      "ge": 3032,
      "välttämä": 3033,
      "ylä": 3034,
      "##kat": 3035,
      "##aatio": 3036,
      "198": 3037,
      "tietojen": 3038,
      "##paikka": 3039,
      "kuollut": 3040,
      "tehtävä": 3041,
      "##tella": 3042,
      "laitt": 3043,
      "kertonut": 3044,
      "tra": 3045,
      "##mille": 3046,
      "##eista": 3047,
      "##uku": 3048,
      "tuntuu": 3049,
      "alexander": 3050,
      "##can": 3051,
      "tuotan": 3052,
      "##tteja": 3053,
      "jun": 3054,
      "##mpp": 3055,
      "julkais": 3056,
      "ali": 3057,
      "##oitu": 3058,
      "sisäl": 3059,
      "käytö": 3060,
      "hyökkäys": 3061,
      "laula": 3062,
      "##essään": 3063,
      "rapor": 3064,
      "kevää": 3065,
      "yhtiö": 3066,
      "rin": 3067,
      "naton": 3068,
      "##htiin": 3069,
      "yön": 3070,
      "##intään": 3071,
      "poikkeukse": 3072,
      "##olle": 3073,
      "##palvelu": 3074,
      "##kal": 3075,
      "##ysti": 3076,
      "miljar": 3077,
      "toistaiseksi": 3078,
      "##vir": 3079,
      "ensimmäistä": 3080,
      "##puna": 3081,
      "lih": 3082,
      "run": 3083,
      "##seen": 3084,
      "tapahtuma": 3085,
      "nosta": 3086,
      "##kauden": 3087,
      "kerä": 3088,
      "##oitus": 3089,
      "minulle": 3090,
      "##ttori": 3091,
      "toimii": 3092,
      "26": 3093,
      "35": 3094,
      "täytyy": 3095,
      "##mana": 3096,
      "matkusta": 3097,
      "##musta": 3098,
      "##rmä": 3099,
      "eniten": 3100,
      "syytä": 3101,
      "oh": 3102,
      "iltalehdelle": 3103,
      "##mitta": 3104,
      "##kari": 3105,
      "kukaan": 3106,
      "##kset": 3107,
      "paikalle": 3108,
      "##väli": 3109,
      "##misessa": 3110,
      "nuori": 3111,
      "raha": 3112,
      "voinut": 3113,
      "palkin": 3114,
      "minuu": 3115,
      "osta": 3116,
      "##ttiä": 3117,
      "yhde": 3118,
      "muuten": 3119,
      "sanoa": 3120,
      "arvos": 3121,
      "klo": 3122,
      "aset": 3123,
      "lapin": 3124,
      "kuukauden": 3125,
      "moo": 3126,
      "##vaih": 3127,
      "ander": 3128,
      "iltalehden": 3129,
      "##go": 3130,
      "##lamen": 3131,
      "ihme": 3132,
      "instagram": 3133,
      "##dio": 3134,
      "olevansa": 3135,
      "aa": 3136,
      "musta": 3137,
      "mihin": 3138,
      "tärkeä": 3139,
      "##lää": 3140,
      "##eesta": 3141,
      "yhdysva": 3142,
      "tilanteessa": 3143,
      "kovin": 3144,
      "vuodesta": 3145,
      "##ttor": 3146,
      "##liig": 3147,
      "##kenut": 3148,
      "löyt": 3149,
      "tekemään": 3150,
      "##jala": 3151,
      "anna": 3152,
      "ak": 3153,
      "sp": 3154,
      "##llisten": 3155,
      "usea": 3156,
      "aino": 3157,
      "##empi": 3158,
      "##inin": 3159,
      "##lelle": 3160,
      "aloitti": 3161,
      "##lliseen": 3162,
      "alueen": 3163,
      "tietää": 3164,
      "kilometrin": 3165,
      "##kilpail": 3166,
      "60": 3167,
      "##nissä": 3168,
      "##ity": 3169,
      "joskus": 3170,
      "uudelleen": 3171,
      "##valle": 3172,
      "jonkin": 3173,
      "johtaja": 3174,
      "ikään": 3175,
      "tyttö": 3176,
      "kiinte": 3177,
      "puolesta": 3178,
      "näkyy": 3179,
      "##insa": 3180,
      "menee": 3181,
      "suomalainen": 3182,
      "rakenn": 3183,
      "##onn": 3184,
      "kap": 3185,
      "##mir": 3186,
      "##politi": 3187,
      "##hdist": 3188,
      "itali": 3189,
      "tuomar": 3190,
      "ben": 3191,
      "##ilan": 3192,
      "vastusta": 3193,
      "osalta": 3194,
      "konser": 3195,
      "##teissa": 3196,
      "tehdään": 3197,
      "##isuuteen": 3198,
      "##ilu": 3199,
      "käytännössä": 3200,
      "kuk": 3201,
      "##hyö": 3202,
      "##maton": 3203,
      "urheilu": 3204,
      "am": 3205,
      "##sel": 3206,
      "##llist": 3207,
      "##itin": 3208,
      "inf": 3209,
      "demokraa": 3210,
      "kore": 3211,
      "teho": 3212,
      "löytyi": 3213,
      "orpo": 3214,
      "metrin": 3215,
      "vasemmisto": 3216,
      "torj": 3217,
      "päätti": 3218,
      "pitkän": 3219,
      "selvit": 3220,
      "sellainen": 3221,
      "##mur": 3222,
      "##ksella": 3223,
      "hyvää": 3224,
      "##upin": 3225,
      "selvästi": 3226,
      "mennessä": 3227,
      "lan": 3228,
      "##ara": 3229,
      "##bi": 3230,
      "##iemen": 3231,
      "pyrki": 3232,
      "##gh": 3233,
      "pieni": 3234,
      "loppuun": 3235,
      "vaatii": 3236,
      "saata": 3237,
      "valio": 3238,
      "minun": 3239,
      "##pr": 3240,
      "##sessa": 3241,
      "kisoissa": 3242,
      "näyttelijä": 3243,
      "omaa": 3244,
      "##matka": 3245,
      "##keskus": 3246,
      "##tsi": 3247,
      "##mmista": 3248,
      "meri": 3249,
      "##ell": 3250,
      "##ppä": 3251,
      "##yhte": 3252,
      "mieltä": 3253,
      "olet": 3254,
      "päivää": 3255,
      "putinin": 3256,
      "kotiin": 3257,
      "tait": 3258,
      "tapauksessa": 3259,
      "päivi": 3260,
      "tuki": 3261,
      "lai": 3262,
      "palaa": 3263,
      "ulkoministeri": 3264,
      "järjestel": 3265,
      "käyttöön": 3266,
      "kannalta": 3267,
      "yor": 3268,
      "vira": 3269,
      "jatkossa": 3270,
      "kusta": 3271,
      "##tul": 3272,
      "kysel": 3273,
      "uskon": 3274,
      "##oksia": 3275,
      "##gn": 3276,
      "kuvailee": 3277,
      "##estään": 3278,
      "puhe": 3279,
      "puolis": 3280,
      "##etun": 3281,
      "##ose": 3282,
      "##milla": 3283,
      "kesällä": 3284,
      "pitänyt": 3285,
      "vanh": 3286,
      "##joukkueen": 3287,
      "##muut": 3288,
      "##pen": 3289,
      "valmist": 3290,
      "ykkös": 3291,
      "joilla": 3292,
      "##hte": 3293,
      "sch": 3294,
      "kausi": 3295,
      "rahaa": 3296,
      "2019": 3297,
      "sosiaalisessa": 3298,
      "ohi": 3299,
      "jatkuu": 3300,
      "##raken": 3301,
      "juttu": 3302,
      "ab": 3303,
      "oper": 3304,
      "verra": 3305,
      "aal": 3306,
      "char": 3307,
      "##isemmin": 3308,
      "jatko": 3309,
      "rakenta": 3310,
      "tarkoittaa": 3311,
      "28": 3312,
      "kansanedustaja": 3313,
      "##ca": 3314,
      "lähtien": 3315,
      "nähtiin": 3316,
      "tyyty": 3317,
      "##eillä": 3318,
      "tuotta": 3319,
      "päävalmentaja": 3320,
      "##gas": 3321,
      "hallit": 3322,
      "petteri": 3323,
      "dolla": 3324,
      "##uksien": 3325,
      "pohjan": 3326,
      "ihmisten": 3327,
      "paran": 3328,
      "##ikkoja": 3329,
      "pääse": 3330,
      "liitto": 3331,
      "##hu": 3332,
      "##ttinen": 3333,
      "##kinä": 3334,
      "lähde": 3335,
      "iran": 3336,
      "##my": 3337,
      "pakka": 3338,
      "kasva": 3339,
      "tärkeää": 3340,
      "##ästä": 3341,
      "huono": 3342,
      "ainoa": 3343,
      "##pur": 3344,
      "##ukkaa": 3345,
      "##istoim": 3346,
      "sve": 3347,
      "##veri": 3348,
      "##tv": 3349,
      "##med": 3350,
      "koton": 3351,
      "##paikan": 3352,
      "rauha": 3353,
      "kel": 3354,
      "kalli": 3355,
      "sairas": 3356,
      "suhteen": 3357,
      "##tter": 3358,
      "##laiset": 3359,
      "helsingissä": 3360,
      "mc": 3361,
      "tulos": 3362,
      "kulu": 3363,
      "vanha": 3364,
      "kirjoitta": 3365,
      "finaali": 3366,
      "paremmin": 3367,
      "##det": 3368,
      "##isivat": 3369,
      "##imen": 3370,
      "paa": 3371,
      "stt": 3372,
      "virka": 3373,
      "taustalla": 3374,
      "ps": 3375,
      "tus": 3376,
      "##kur": 3377,
      "##gissa": 3378,
      "ottelua": 3379,
      "##markkin": 3380,
      "##kier": 3381,
      "##kojen": 3382,
      "##vistä": 3383,
      "##ineen": 3384,
      "luotta": 3385,
      "lehden": 3386,
      "päättyi": 3387,
      "keväällä": 3388,
      "yhdysvallo": 3389,
      "oleva": 3390,
      "vuotiaan": 3391,
      "kaupunki": 3392,
      "ren": 3393,
      "##del": 3394,
      "##mättä": 3395,
      "suomea": 3396,
      "reut": 3397,
      "presidentinvaa": 3398,
      "##bri": 3399,
      "varten": 3400,
      "hyökkää": 3401,
      "star": 3402,
      "##mit": 3403,
      "##urheil": 3404,
      "aikoo": 3405,
      "sukup": 3406,
      "##jaksi": 3407,
      "29": 3408,
      "suuntaan": 3409,
      "##voimien": 3410,
      "esiinty": 3411,
      "##ger": 3412,
      "##tapa": 3413,
      "##elen": 3414,
      "posi": 3415,
      "##inaan": 3416,
      "mennä": 3417,
      "ollaan": 3418,
      "kauppa": 3419,
      "stubbin": 3420,
      "liigan": 3421,
      "##ero": 3422,
      "##kunnassa": 3423,
      "pil": 3424,
      "##dyn": 3425,
      "kantaa": 3426,
      "kiekko": 3427,
      "lista": 3428,
      "pul": 3429,
      "##llisi": 3430,
      "muutos": 3431,
      "pahoin": 3432,
      "flo": 3433,
      "myr": 3434,
      "arm": 3435,
      "ukrainassa": 3436,
      "##llistä": 3437,
      "##yön": 3438,
      "valmenta": 3439,
      "minuut": 3440,
      "sarjassa": 3441,
      "##jun": 3442,
      "res": 3443,
      "kii": 3444,
      "##riö": 3445,
      "##osuh": 3446,
      "virta": 3447,
      "saatta": 3448,
      "hovi": 3449,
      "iltalehti": 3450,
      "molemmat": 3451,
      "##olo": 3452,
      "kesän": 3453,
      "tapahtunut": 3454,
      "kertovat": 3455,
      "jussi": 3456,
      "lopussa": 3457,
      "aiheuttaa": 3458,
      "päätöksen": 3459,
      "säil": 3460,
      "ad": 3461,
      "##isyys": 3462,
      "jar": 3463,
      "jätti": 3464,
      "myöskään": 3465,
      "##ettava": 3466,
      "tilannetta": 3467,
      "500": 3468,
      "##emaan": 3469,
      "sijoi": 3470,
      "tutkimus": 3471,
      "jut": 3472,
      "##teeseen": 3473,
      "päivit": 3474,
      "loi": 3475,
      "##lj": 3476,
      "hote": 3477,
      "linja": 3478,
      "##ttäjän": 3479,
      "kokon": 3480,
      "kauh": 3481,
      "rahoit": 3482,
      "päällä": 3483,
      "tuloks": 3484,
      "jatkoi": 3485,
      "kokoon": 3486,
      "ajon": 3487,
      "ilo": 3488,
      "voittanut": 3489,
      "avulla": 3490,
      "ved": 3491,
      "##len": 3492,
      "tuttu": 3493,
      "erityisen": 3494,
      "##tämään": 3495,
      "##laisten": 3496,
      "käräjäoikeus": 3497,
      "nähdään": 3498,
      "toimitusjohtaja": 3499,
      "##arin": 3500,
      "jäänyt": 3501,
      "fan": 3502,
      "huomatta": 3503,
      "koulut": 3504,
      "##itetty": 3505,
      "nostaa": 3506,
      "kaikkea": 3507,
      "suhta": 3508,
      "kre": 3509,
      "##imm": 3510,
      "##ksesta": 3511,
      "vastu": 3512,
      "maailmanm": 3513,
      "##kkiä": 3514,
      "bidenin": 3515,
      "lah": 3516,
      "kohtaan": 3517,
      "ulkoma": 3518,
      "##ttik": 3519,
      "##tenä": 3520,
      "epäillään": 3521,
      "##mys": 3522,
      "##tteiden": 3523,
      "mita": 3524,
      "halusi": 3525,
      "hätä": 3526,
      "##yteen": 3527,
      "ohjaa": 3528,
      "sinne": 3529,
      "tanssi": 3530,
      "sor": 3531,
      "lyhy": 3532,
      "johtu": 3533,
      "parlamen": 3534,
      "pistettä": 3535,
      "##usin": 3536,
      "varha": 3537,
      "juhla": 3538,
      "pääsee": 3539,
      "viikonloppuna": 3540,
      "uni": 3541,
      "##piir": 3542,
      "##eva": 3543,
      "tuul": 3544,
      "piir": 3545,
      "venäjällä": 3546,
      "nähty": 3547,
      "liiga": 3548,
      "##lehti": 3549,
      "puheenjohta": 3550,
      "odotta": 3551,
      "##asen": 3552,
      "##ingas": 3553,
      "video": 3554,
      "yhdysvaltojen": 3555,
      "ohja": 3556,
      "vei": 3557,
      "##teh": 3558,
      "miljoonan": 3559,
      "ranska": 3560,
      "##kot": 3561,
      "vau": 3562,
      "valmis": 3563,
      "aho": 3564,
      "vahing": 3565,
      "valit": 3566,
      "kolmas": 3567,
      "vähintään": 3568,
      "etu": 3569,
      "vähä": 3570,
      "2018": 3571,
      "mikäli": 3572,
      "ruu": 3573,
      "##ivi": 3574,
      "arv": 3575,
      "helpo": 3576,
      "välttämättä": 3577,
      "##kuo": 3578,
      "##gr": 3579,
      "##dc": 3580,
      "matti": 3581,
      "maassa": 3582,
      "tarvi": 3583,
      "ann": 3584,
      "loh": 3585,
      "johto": 3586,
      "nykyään": 3587,
      "ajoi": 3588,
      "##uttamaan": 3589,
      "saksan": 3590,
      "lat": 3591,
      "teks": 3592,
      "valmen": 3593,
      "liikke": 3594,
      "nähdä": 3595,
      "##nalla": 3596,
      "istu": 3597,
      "suomalaiset": 3598,
      "ohjelman": 3599,
      "mos": 3600,
      "rei": 3601,
      "##ute": 3602,
      "parin": 3603,
      "##kanut": 3604,
      "ohjelmassa": 3605,
      "##uiden": 3606,
      "nimen": 3607,
      "vähemmän": 3608,
      "avio": 3609,
      "nis": 3610,
      "teo": 3611,
      "ihmisen": 3612,
      "illan": 3613,
      "onn": 3614,
      "minuuttia": 3615,
      "##ivo": 3616,
      "##aat": 3617,
      "saakka": 3618,
      "puolella": 3619,
      "apua": 3620,
      "##tutkin": 3621,
      "yhdist": 3622,
      "tavoitteen": 3623,
      "jääkiekko": 3624,
      "##jalta": 3625,
      "##bli": 3626,
      "saivat": 3627,
      "sisällä": 3628,
      "tutkim": 3629,
      "britanni": 3630,
      "hoita": 3631,
      "##malle": 3632,
      "halunn": 3633,
      "rakennus": 3634,
      "taloude": 3635,
      "uskoo": 3636,
      "ongelma": 3637,
      "##inti": 3638,
      "##oimin": 3639,
      "##sää": 3640,
      "yhty": 3641,
      "tarkas": 3642,
      "verta": 3643,
      "erikois": 3644,
      "kunnossa": 3645,
      "kutsu": 3646,
      "vetä": 3647,
      "kokonais": 3648,
      "##sut": 3649,
      "##uita": 3650,
      "and": 3651,
      "##syt": 3652,
      "kuvassa": 3653,
      "##yyd": 3654,
      "valmentaja": 3655,
      "##päivän": 3656,
      "hiihto": 3657,
      "päässä": 3658,
      "miestä": 3659,
      "syyt": 3660,
      "yhdysvalloissa": 3661,
      "avoi": 3662,
      "##lon": 3663,
      "##lissa": 3664,
      "##oida": 3665,
      "vuor": 3666,
      "maananta": 3667,
      "norjan": 3668,
      "johtaa": 3669,
      "##päätö": 3670,
      "aurin": 3671,
      "##tön": 3672,
      "##hoi": 3673,
      "luvun": 3674,
      "##ksän": 3675,
      "perin": 3676,
      "asiantuntija": 3677,
      "saatu": 3678,
      "pelin": 3679,
      "##aalta": 3680,
      "pikku": 3681,
      "##aston": 3682,
      "##eili": 3683,
      "tilanteen": 3684,
      "ottelu": 3685,
      "odot": 3686,
      "##ttömä": 3687,
      "amm": 3688,
      "parhaa": 3689,
      "ansi": 3690,
      "kokonaan": 3691,
      "##for": 3692,
      "##nat": 3693,
      "nur": 3694,
      "vla": 3695,
      "##zz": 3696,
      "jatka": 3697,
      "voiton": 3698,
      "##tie": 3699,
      "##leja": 3700,
      "##yttänyt": 3701,
      "asiakka": 3702,
      "tukea": 3703,
      "muutaman": 3704,
      "päin": 3705,
      "positiiv": 3706,
      "##lm": 3707,
      "lauka": 3708,
      "sanon": 3709,
      "järky": 3710,
      "##teeksi": 3711,
      "##miel": 3712,
      "pelannut": 3713,
      "repu": 3714,
      "liittyy": 3715,
      "eteenpäin": 3716,
      "andersson": 3717,
      "##hto": 3718,
      "palo": 3719,
      "karsin": 3720,
      "ennakko": 3721,
      "bu": 3722,
      "levi": 3723,
      "lähd": 3724,
      "odottaa": 3725,
      "##lö": 3726,
      "lehti": 3727,
      "tehtiin": 3728,
      "opetta": 3729,
      "00": 3730,
      "republi": 3731,
      "##kelä": 3732,
      "##ttil": 3733,
      "toiminut": 3734,
      "lapset": 3735,
      "##sien": 3736,
      "##sivät": 3737,
      "muistel": 3738,
      "kerr": 3739,
      "##ttelun": 3740,
      "artik": 3741,
      "suomalaisten": 3742,
      "prinssi": 3743,
      "45": 3744,
      "laul": 3745,
      "minua": 3746,
      "republikaan": 3747,
      "ros": 3748,
      "##isteli": 3749,
      "energ": 3750,
      "rah": 3751,
      "paikan": 3752,
      "##fin": 3753,
      "johan": 3754,
      "asiassa": 3755,
      "vastasi": 3756,
      "luonnon": 3757,
      "puolueen": 3758,
      "##valio": 3759,
      "yhdeksän": 3760,
      "##toista": 3761,
      "##toihin": 3762,
      "ampu": 3763,
      "kilpaili": 3764,
      "ehti": 3765,
      "uutistoim": 3766,
      "synty": 3767,
      "pudotus": 3768,
      "##ny": 3769,
      "##koko": 3770,
      "##neensa": 3771,
      "##tinen": 3772,
      "##mpa": 3773,
      "turvallis": 3774,
      "##päällikkö": 3775,
      "##bc": 3776,
      "##ens": 3777,
      "takaa": 3778,
      "##villa": 3779,
      "sau": 3780,
      "lehd": 3781,
      "##isterin": 3782,
      "uransa": 3783,
      "##siv": 3784,
      "##kiel": 3785,
      "pelkä": 3786,
      "##istettu": 3787,
      "asiat": 3788,
      "f1": 3789,
      "##uneet": 3790,
      "toisella": 3791,
      "mahdollisuus": 3792,
      "siltä": 3793,
      "##strö": 3794,
      "##uude": 3795,
      "puolusta": 3796,
      "tapahtuu": 3797,
      "2016": 3798,
      "##oikeus": 3799,
      "orpon": 3800,
      "mielenos": 3801,
      "willia": 3802,
      "tap": 3803,
      "ruots": 3804,
      "dia": 3805,
      "##ard": 3806,
      "kuningas": 3807,
      "yhtiön": 3808,
      "vuotiaana": 3809,
      "##ris": 3810,
      "##hon": 3811,
      "##ytys": 3812,
      "saadaan": 3813,
      "tarvit": 3814,
      "##hansa": 3815,
      "flori": 3816,
      "vladi": 3817,
      "80": 3818,
      "ton": 3819,
      "onkin": 3820,
      "kiin": 3821,
      "##ehti": 3822,
      "ihminen": 3823,
      "##ira": 3824,
      "##kista": 3825,
      "##meen": 3826,
      "kisojen": 3827,
      "prosentin": 3828,
      "##tola": 3829,
      "saavat": 3830,
      "yksittä": 3831,
      "riittää": 3832,
      "197": 3833,
      "opet": 3834,
      "aktiiv": 3835,
      "ministeri": 3836,
      "olisivat": 3837,
      "##rää": 3838,
      "##uti": 3839,
      "toiseksi": 3840,
      "podc": 3841,
      "näitä": 3842,
      "##maalla": 3843,
      "prinsessa": 3844,
      "##tava": 3845,
      "##istään": 3846,
      "ilme": 3847,
      "hyvän": 3848,
      "vuosikymmen": 3849,
      "näytti": 3850,
      "gol": 3851,
      "##muka": 3852,
      "##ttävää": 3853,
      "suoja": 3854,
      "kerta": 3855,
      "kulutta": 3856,
      "kasvat": 3857,
      "päässyt": 3858,
      "ket": 3859,
      "kuka": 3860,
      "vuoteen": 3861,
      "kysyi": 3862,
      "perussuomalaisten": 3863,
      "jälj": 3864,
      "##utuvat": 3865,
      "pin": 3866,
      "rinta": 3867,
      "##taul": 3868,
      "2025": 3869,
      "monta": 3870,
      "huippu": 3871,
      "sähköp": 3872,
      "##pala": 3873,
      "käynyt": 3874,
      "heitä": 3875,
      "tuntia": 3876,
      "töitä": 3877,
      "##järvi": 3878,
      "kulta": 3879,
      "uhkaa": 3880,
      "armei": 3881,
      "nos": 3882,
      "##uuksia": 3883,
      "peräti": 3884,
      "alkaen": 3885,
      "##aati": 3886,
      "##ikkaan": 3887,
      "##teista": 3888,
      "totta": 3889,
      "kieltä": 3890,
      "##jouk": 3891,
      "##uhka": 3892,
      "kohdist": 3893,
      "ratkaisu": 3894,
      "toimittaja": 3895,
      "##yrit": 3896,
      "art": 3897,
      "tulevat": 3898,
      "##vun": 3899,
      "##vist": 3900,
      "ville": 3901,
      "tavoit": 3902,
      "harjoit": 3903,
      "harvina": 3904,
      "kehitt": 3905,
      "90": 3906,
      "varmaan": 3907,
      "tuntu": 3908,
      "hyvinvointialu": 3909,
      "janne": 3910,
      "ts": 3911,
      "selkeä": 3912,
      "metriä": 3913,
      "cat": 3914,
      "##oivat": 3915,
      "sami": 3916,
      "televisi": 3917,
      "vladimir": 3918,
      "##gar": 3919,
      "vuoro": 3920,
      "alun": 3921,
      "##itettu": 3922,
      "opposi": 3923,
      "työntekijö": 3924,
      "rikko": 3925,
      "##aalin": 3926,
      "##onta": 3927,
      "sydän": 3928,
      "meille": 3929,
      "maailmanc": 3930,
      "tilanteesta": 3931,
      "tappi": 3932,
      "sotilas": 3933,
      "##iri": 3934,
      "##imä": 3935,
      "tunnettu": 3936,
      "##vallat": 3937,
      "juhli": 3938,
      "terveyden": 3939,
      "seksuaal": 3940,
      "estä": 3941,
      "salo": 3942,
      "ui": 3943,
      "##mästä": 3944,
      "viikkoa": 3945,
      "gu": 3946,
      "kumppan": 3947,
      "kunto": 3948,
      "varus": 3949,
      "areen": 3950,
      "median": 3951,
      "##vinen": 3952,
      "##utettu": 3953,
      "rakka": 3954,
      "tieten": 3955,
      "timo": 3956,
      "lon": 3957,
      "seuran": 3958,
      "##terve": 3959,
      "säästö": 3960,
      "lähteä": 3961,
      "##ytti": 3962,
      "##uston": 3963,
      "kestä": 3964,
      "lähten": 3965,
      "videolla": 3966,
      "lasta": 3967,
      "##tär": 3968,
      "pika": 3969,
      "wa": 3970,
      "aloitta": 3971,
      "##istetaan": 3972,
      "muutama": 3973,
      "harris": 3974,
      "kilometriä": 3975,
      "uutistoimisto": 3976,
      "mor": 3977,
      "##esi": 3978,
      "naur": 3979,
      "lämpötila": 3980,
      "tyytyvä": 3981,
      "zelen": 3982,
      "lopetta": 3983,
      "inn": 3984,
      "##dion": 3985,
      "kerrottiin": 3986,
      "elokuva": 3987,
      "##ppaa": 3988,
      "lupa": 3989,
      "rangaist": 3990,
      "##ustus": 3991,
      "sie": 3992,
      "##manin": 3993,
      "hauta": 3994,
      "ammatti": 3995,
      "helmikuussa": 3996,
      "treen": 3997,
      "pienen": 3998,
      "kysymys": 3999,
      "at": 4000,
      "niko": 4001,
      "##otto": 4002,
      "kuuden": 4003,
      "vieras": 4004,
      "syksyllä": 4005,
      "##tilaisuudessa": 4006,
      "##tos": 4007,
      "##cha": 4008,
      "##pö": 4009,
      "##yl": 4010,
      "kata": 4011,
      "sellaista": 4012,
      "tasolla": 4013,
      "mtv": 4014,
      "##ikoi": 4015,
      "sol": 4016,
      "siirty": 4017,
      "##tällä": 4018,
      "tietysti": 4019,
      "eläin": 4020,
      "yhdysvallat": 4021,
      "##utki": 4022,
      "##ttelua": 4023,
      "##innon": 4024,
      "noussut": 4025,
      "kohdalla": 4026,
      "pyöri": 4027,
      "##ohjel": 4028,
      "tik": 4029,
      "##eja": 4030,
      "osu": 4031,
      "entistä": 4032,
      "itsenä": 4033,
      "ste": 4034,
      "##maksi": 4035,
      "##ttomasti": 4036,
      "aurinko": 4037,
      "31": 4038,
      "##tilla": 4039,
      "liiken": 4040,
      "itsensä": 4041,
      "maksaa": 4042,
      "onnistu": 4043,
      "avaa": 4044,
      "pas": 4045,
      "yk": 4046,
      "##vil": 4047,
      "##tista": 4048,
      "##istossa": 4049,
      "sain": 4050,
      "tunnin": 4051,
      "toimintaa": 4052,
      "illa": 4053,
      "ide": 4054,
      "##jään": 4055,
      "##ulo": 4056,
      "pöy": 4057,
      "70": 4058,
      "##isistä": 4059,
      "##ikö": 4060,
      "tavan": 4061,
      "kaikille": 4062,
      "eräs": 4063,
      "##imin": 4064,
      "##vell": 4065,
      "huomiota": 4066,
      "joulukuussa": 4067,
      "toisaalta": 4068,
      "gr": 4069,
      "##org": 4070,
      "luov": 4071,
      "itseään": 4072,
      "##detään": 4073,
      "sieltä": 4074,
      "##llisena": 4075,
      "tällainen": 4076,
      "saapui": 4077,
      "kansanedusta": 4078,
      "bi": 4079,
      "kus": 4080,
      "##kula": 4081,
      "##evat": 4082,
      "perusta": 4083,
      "##issään": 4084,
      "ruotsi": 4085,
      "tuomio": 4086,
      "##nasta": 4087,
      "##het": 4088,
      "##zin": 4089,
      "##killä": 4090,
      "aloittaa": 4091,
      "##rilla": 4092,
      "tulossa": 4093,
      "henkilökohta": 4094,
      "##ytön": 4095,
      "lapp": 4096,
      "maiden": 4097,
      "maaliva": 4098,
      "histori": 4099,
      "oll": 4100,
      "lauri": 4101,
      "olemaan": 4102,
      "nais": 4103,
      "viimeisen": 4104,
      "väkivalta": 4105,
      "runsaasti": 4106,
      "äi": 4107,
      "##kkeen": 4108,
      "##ryhmän": 4109,
      "keskellä": 4110,
      "##voja": 4111,
      "juha": 4112,
      "käytössä": 4113,
      "##llö": 4114,
      "##yne": 4115,
      "##kkaasti": 4116,
      "mahdollisesti": 4117,
      "sähköaut": 4118,
      "kruun": 4119,
      "tammikuussa": 4120,
      "alkoho": 4121,
      "##itti": 4122,
      "##ukan": 4123,
      "täh": 4124,
      "samaa": 4125,
      "erilaisia": 4126,
      "amerikka": 4127,
      "##én": 4128,
      "pääkaupun": 4129,
      "monen": 4130,
      "zelensky": 4131,
      "tes": 4132,
      "paimi": 4133,
      "näkee": 4134,
      "tarke": 4135,
      "hankki": 4136,
      "lopput": 4137,
      "runko": 4138,
      "##kov": 4139,
      "vero": 4140,
      "sosiaali": 4141,
      "##keskuksen": 4142,
      "hö": 4143,
      "##alin": 4144,
      "sir": 4145,
      "##uudet": 4146,
      "##tettä": 4147,
      "sille": 4148,
      "kesänä": 4149,
      "##yyden": 4150,
      "rek": 4151,
      "lapsia": 4152,
      "jukka": 4153,
      "toimia": 4154,
      "opiskeli": 4155,
      "mun": 4156,
      "vin": 4157,
      "##tuksen": 4158,
      "##lian": 4159,
      "##udun": 4160,
      "finaal": 4161,
      "verrattuna": 4162,
      "jan": 4163,
      "##pyö": 4164,
      "##uon": 4165,
      "kans": 4166,
      "olo": 4167,
      "kaikkia": 4168,
      "be": 4169,
      "##rjaa": 4170,
      "koulun": 4171,
      "tuhan": 4172,
      "ajone": 4173,
      "puke": 4174,
      "lähtee": 4175,
      "##tyneet": 4176,
      "kokoomuksen": 4177,
      "reh": 4178,
      "tosin": 4179,
      "##muna": 4180,
      "##mite": 4181,
      "tall": 4182,
      "itselleen": 4183,
      "kuoleman": 4184,
      "##mäen": 4185,
      "##ttelin": 4186,
      "tei": 4187,
      "vuosia": 4188,
      "##jansa": 4189,
      "neu": 4190,
      "tietä": 4191,
      "##itettiin": 4192,
      "alueelle": 4193,
      "edellis": 4194,
      "tiedossa": 4195,
      "sairaal": 4196,
      "halunnut": 4197,
      "##tet": 4198,
      "syntyi": 4199,
      "espo": 4200,
      "##sori": 4201,
      "pariisin": 4202,
      "uudist": 4203,
      "mikään": 4204,
      "tavoitteena": 4205,
      "##ttilä": 4206,
      "kalle": 4207,
      "viik": 4208,
      "samassa": 4209,
      "maalia": 4210,
      "##kilä": 4211,
      "##ttöm": 4212,
      "luvulla": 4213,
      "varsinkin": 4214,
      "yönä": 4215,
      "bud": 4216,
      "##pall": 4217,
      "##ukselle": 4218,
      "doku": 4219,
      "gran": 4220,
      "##fk": 4221,
      "##llyn": 4222,
      "japan": 4223,
      "laki": 4224,
      "##rella": 4225,
      "##päivänä": 4226,
      "##tala": 4227,
      "tuor": 4228,
      "##upaa": 4229,
      "iltapäivä": 4230,
      "katsom": 4231,
      "eduskunnan": 4232,
      "juus": 4233,
      "##vaik": 4234,
      "hänestä": 4235,
      "aikaisemmin": 4236,
      "suomalaisen": 4237,
      "kansalais": 4238,
      "kesäkuussa": 4239,
      "kiinteistö": 4240,
      "poik": 4241,
      "##pide": 4242,
      "talon": 4243,
      "##tkut": 4244,
      "##alan": 4245,
      "##alue": 4246,
      "kasvan": 4247,
      "virhe": 4248,
      "huolta": 4249,
      "##järven": 4250,
      "syyskuussa": 4251,
      "helposti": 4252,
      "tan": 4253,
      "##dassa": 4254,
      "puolen": 4255,
      "sopimus": 4256,
      "ssa": 4257,
      "##kussa": 4258,
      "##ilun": 4259,
      "tuom": 4260,
      "esitutkin": 4261,
      "presidenttiehdo": 4262,
      "##ilen": 4263,
      "##kua": 4264,
      "alan": 4265,
      "mennyt": 4266,
      "##estäni": 4267,
      "tyttä": 4268,
      "##ät": 4269,
      "##juh": 4270,
      "##dun": 4271,
      "kamer": 4272,
      "lip": 4273,
      "##ointi": 4274,
      "viestipalvelu": 4275,
      "heiken": 4276,
      "jyr": 4277,
      "##lista": 4278,
      "tahansa": 4279,
      "halla": 4280,
      "sanomien": 4281,
      "instagramissa": 4282,
      "##ksiin": 4283,
      "alas": 4284,
      "palkka": 4285,
      "iski": 4286,
      "##valtu": 4287,
      "julkaise": 4288,
      "omat": 4289,
      "##ste": 4290,
      "##saa": 4291,
      "saisi": 4292,
      "liikaa": 4293,
      "kone": 4294,
      "yliopiston": 4295,
      "##vuus": 4296,
      "##kasti": 4297,
      "heistä": 4298,
      "videon": 4299,
      "ryhmä": 4300,
      "##mpaan": 4301,
      "poist": 4302,
      "##ttelut": 4303,
      "tilaa": 4304,
      "huomauttaa": 4305,
      "ele": 4306,
      "##muksia": 4307,
      "##jiä": 4308,
      "##pist": 4309,
      "##be": 4310,
      "je": 4311,
      "##kso": 4312,
      "##ralla": 4313,
      "hamas": 4314,
      "lisään": 4315,
      "kuukausi": 4316,
      "täysi": 4317,
      "missään": 4318,
      "dokumen": 4319,
      "##fa": 4320,
      "lakko": 4321,
      "kein": 4322,
      "yritti": 4323,
      "parempi": 4324,
      "ainoastaan": 4325,
      "##ilin": 4326,
      "joutuu": 4327,
      "##viras": 4328,
      "helsinki": 4329,
      "kävel": 4330,
      "kilpailun": 4331,
      "seurauksena": 4332,
      "haavisto": 4333,
      "hor": 4334,
      "pri": 4335,
      "uno": 4336,
      "##iky": 4337,
      "##ksista": 4338,
      "##eellä": 4339,
      "vuodessa": 4340,
      "sotilaa": 4341,
      "lausunn": 4342,
      "bra": 4343,
      "##daa": 4344,
      "##joja": 4345,
      "viimeinen": 4346,
      "pron": 4347,
      "##utuminen": 4348,
      "rauhan": 4349,
      "onnettomuus": 4350,
      "kotona": 4351,
      "##ltaan": 4352,
      "joe": 4353,
      "kakkos": 4354,
      "kiinan": 4355,
      "##yneet": 4356,
      "kasvoi": 4357,
      "ensimmäisenä": 4358,
      "ammattila": 4359,
      "ajaa": 4360,
      "##uin": 4361,
      "harjoi": 4362,
      "##tieteen": 4363,
      "säännö": 4364,
      "##iaan": 4365,
      "tuntui": 4366,
      "tuuli": 4367,
      "ehd": 4368,
      "##sille": 4369,
      "venäläis": 4370,
      "300": 4371,
      "##mmo": 4372,
      "jokainen": 4373,
      "päähän": 4374,
      "##dät": 4375,
      "##peä": 4376,
      "marraskuussa": 4377,
      "kriti": 4378,
      "maaliskuussa": 4379,
      "##urva": 4380,
      "nousee": 4381,
      "vihr": 4382,
      "valvon": 4383,
      "kunta": 4384,
      "neuvos": 4385,
      "hetken": 4386,
      "uhri": 4387,
      "vahvistaa": 4388,
      "prof": 4389,
      "##yksellä": 4390,
      "kevään": 4391,
      "kunnan": 4392,
      "kuljet": 4393,
      "ampuma": 4394,
      "pohtii": 4395,
      "ongelmia": 4396,
      "mestari": 4397,
      "vor": 4398,
      "##ukä": 4399,
      "mad": 4400,
      "##joen": 4401,
      "##töä": 4402,
      "marin": 4403,
      "kaikkiaan": 4404,
      "tutus": 4405,
      "roh": 4406,
      "yllättä": 4407,
      "ymmärtää": 4408,
      "vihre": 4409,
      "sivi": 4410,
      "vuode": 4411,
      "lata": 4412,
      "##alaisen": 4413,
      "selvä": 4414,
      "##mpiin": 4415,
      "osan": 4416,
      "kisan": 4417,
      "pystyy": 4418,
      "auki": 4419,
      "neli": 4420,
      "##välin": 4421,
      "kiire": 4422,
      "tea": 4423,
      "kevä": 4424,
      "2017": 4425,
      "vettä": 4426,
      "riippu": 4427,
      "##llisimman": 4428,
      "cha": 4429,
      "om": 4430,
      "##ler": 4431,
      "vien": 4432,
      "olemassa": 4433,
      "liban": 4434,
      "maajoukkue": 4435,
      "##pua": 4436,
      "vauh": 4437,
      "menes": 4438,
      "pyörä": 4439,
      "toukokuussa": 4440,
      "##pään": 4441,
      "##..": 4442,
      "##ere": 4443,
      "viranomaiset": 4444,
      "charl": 4445,
      "paino": 4446,
      "hah": 4447,
      "saaneet": 4448,
      "##lääkä": 4449,
      "ruotsissa": 4450,
      "numer": 4451,
      "spor": 4452,
      "##dään": 4453,
      "samm": 4454,
      "oulussa": 4455,
      "aikoina": 4456,
      "kuninkaa": 4457,
      "rann": 4458,
      "jättää": 4459,
      "##oituksen": 4460,
      "harjoitus": 4461,
      "kehi": 4462,
      "haluan": 4463,
      "lokakuussa": 4464,
      "##ya": 4465,
      "toisessa": 4466,
      "mahdollisimman": 4467,
      "veden": 4468,
      "laajen": 4469,
      "tytär": 4470,
      "##omaan": 4471,
      "##uneen": 4472,
      "##tähti": 4473,
      "##uran": 4474,
      "##mmassa": 4475,
      "keskustan": 4476,
      "viet": 4477,
      "lopet": 4478,
      "##ystävä": 4479,
      "havain": 4480,
      "##tas": 4481,
      "##tille": 4482,
      "oikea": 4483,
      "tiedon": 4484,
      "puolustusministeri": 4485,
      "hävi": 4486,
      "sisään": 4487,
      "afp": 4488,
      "kö": 4489,
      "kyn": 4490,
      "##ji": 4491,
      "pakko": 4492,
      "sanna": 4493,
      "roman": 4494,
      "historia": 4495,
      "myynti": 4496,
      "muua": 4497,
      "vauri": 4498,
      "##yttävä": 4499,
      "##vonen": 4500,
      "naura": 4501,
      "ystävä": 4502,
      "bbc": 4503,
      "do": 4504,
      "sto": 4505,
      "##dettiin": 4506,
      "ansa": 4507,
      "vaalit": 4508,
      "lopu": 4509,
      "konf": 4510,
      "yllätys": 4511,
      "joukossa": 4512,
      "tarvitta": 4513,
      "ranskan": 4514,
      "ravintola": 4515,
      "tampereen": 4516,
      "varsinais": 4517,
      "kulttuur": 4518,
      "merkittävä": 4519,
      "täyde": 4520,
      "asunto": 4521,
      "##lik": 4522,
      "##koti": 4523,
      "kaver": 4524,
      "työtä": 4525,
      "niinistö": 4526,
      "##nön": 4527,
      "##sit": 4528,
      "jaka": 4529,
      "##ley": 4530,
      "saatiin": 4531,
      "arvon": 4532,
      "##koihin": 4533,
      "sijaitsee": 4534,
      "vahvista": 4535,
      "sopimuksen": 4536,
      "laulaja": 4537,
      "kuol": 4538,
      "sytt": 4539,
      "##kr": 4540,
      "##upäi": 4541,
      "##innassa": 4542,
      "tunnet": 4543,
      "elokuussa": 4544,
      "komp": 4545,
      "##isillä": 4546,
      "haki": 4547,
      "tunne": 4548,
      "venäjälle": 4549,
      "koira": 4550,
      "näkem": 4551,
      "32": 4552,
      "mann": 4553,
      "##mmalla": 4554,
      "##bu": 4555,
      "##essori": 4556,
      "näistä": 4557,
      "##rjassa": 4558,
      "sovi": 4559,
      "vahvasti": 4560,
      "yrityksen": 4561,
      "maahanm": 4562,
      "ennätys": 4563,
      "toiseen": 4564,
      "##lliseksi": 4565,
      "lopulla": 4566,
      "##ellaan": 4567,
      "tulipal": 4568,
      "törmä": 4569,
      "rakenne": 4570,
      "hyväksy": 4571,
      "jaksossa": 4572,
      "kuninga": 4573,
      "400": 4574,
      "##bin": 4575,
      "##ongel": 4576,
      "##kohd": 4577,
      "toisin": 4578,
      "osaval": 4579,
      "edustaja": 4580,
      "##tteeseen": 4581,
      "face": 4582,
      "sito": 4583,
      "##pain": 4584,
      "raj": 4585,
      "anal": 4586,
      "##lässä": 4587,
      "harras": 4588,
      "elämää": 4589,
      "syntynyt": 4590,
      "cather": 4591,
      "hon": 4592,
      "##llas": 4593,
      "lait": 4594,
      "pohj": 4595,
      "syystä": 4596,
      "nähnyt": 4597,
      "tutkinnan": 4598,
      "##ganis": 4599,
      "ollen": 4600,
      "##sian": 4601,
      "kovaa": 4602,
      "asiakas": 4603,
      "##mmaksi": 4604,
      "##henkilö": 4605,
      "tiedotus": 4606,
      "kärki": 4607,
      "tasavallan": 4608,
      "teemu": 4609,
      "##teri": 4610,
      "##skin": 4611,
      "joudu": 4612,
      "##yneen": 4613,
      "olosuh": 4614,
      "loma": 4615,
      "##istettiin": 4616,
      "hyödyn": 4617,
      "34": 4618,
      "gra": 4619,
      "##tävät": 4620,
      "##oitiin": 4621,
      "yhtenä": 4622,
      "##önen": 4623,
      "##kkejä": 4624,
      "vaihtoehto": 4625,
      "tarvitaan": 4626,
      "erin": 4627,
      "hää": 4628,
      "##mmasta": 4629,
      "syyttäjä": 4630,
      "ainakaan": 4631,
      "käsite": 4632,
      "palasi": 4633,
      "hallinto": 4634,
      "##ström": 4635,
      "osin": 4636,
      "##iku": 4637,
      "suomesta": 4638,
      "##llisesta": 4639,
      "löyty": 4640,
      "##itetaan": 4641,
      "kiinnosta": 4642,
      "nuoret": 4643,
      "##kkaat": 4644,
      "##ittu": 4645,
      "paitsi": 4646,
      "auttaa": 4647,
      "reag": 4648,
      "oikeasti": 4649,
      "juoks": 4650,
      "hom": 4651,
      "nyr": 4652,
      "##kisen": 4653,
      "##ssin": 4654,
      "##isuudesta": 4655,
      "##maansa": 4656,
      "##tonin": 4657,
      "puoliväli": 4658,
      "fo": 4659,
      "##pul": 4660,
      "##ttän": 4661,
      "tähd": 4662,
      "##udet": 4663,
      "ottanut": 4664,
      "##miehen": 4665,
      "##issut": 4666,
      "tuotanto": 4667,
      "william": 4668,
      "##vyys": 4669,
      "##komite": 4670,
      "##pallo": 4671,
      "maria": 4672,
      "jänn": 4673,
      "##eraa": 4674,
      "saun": 4675,
      "##käyttö": 4676,
      "hyviä": 4677,
      "osoitta": 4678,
      "ilmoitta": 4679,
      "yrittää": 4680,
      "hs": 4681,
      "jaa": 4682,
      "##tunn": 4683,
      "##isar": 4684,
      "##isku": 4685,
      "##ännyt": 4686,
      "laine": 4687,
      "näiden": 4688,
      "##omista": 4689,
      "##uda": 4690,
      "harki": 4691,
      "häl": 4692,
      "kunnia": 4693,
      "entisen": 4694,
      "mäki": 4695,
      "keskustelua": 4696,
      "miehet": 4697,
      "##mattom": 4698,
      "aloit": 4699,
      "##vaara": 4700,
      "john": 4701,
      "oulula": 4702,
      "tarjolla": 4703,
      "sairaala": 4704,
      "törkeästä": 4705,
      "au": 4706,
      "nosti": 4707,
      "ölj": 4708,
      "##etyn": 4709,
      "sade": 4710,
      "##ester": 4711,
      "muistelee": 4712,
      "fyys": 4713,
      "##ova": 4714,
      "##eissa": 4715,
      "kuvia": 4716,
      "##mpana": 4717,
      "##htia": 4718,
      "##mmät": 4719,
      "##kela": 4720,
      "tuho": 4721,
      "hope": 4722,
      "slo": 4723,
      "##jet": 4724,
      "##pitel": 4725,
      "toimen": 4726,
      "varmista": 4727,
      "##veä": 4728,
      "terä": 4729,
      "voittaa": 4730,
      "työskenne": 4731,
      "huomattavasti": 4732,
      "heh": 4733,
      "##lasta": 4734,
      "##zb": 4735,
      "sav": 4736,
      "##land": 4737,
      "real": 4738,
      "##kilön": 4739,
      "elämään": 4740,
      "ilmasto": 4741,
      "päätöks": 4742,
      "kilpailu": 4743,
      "kuukautta": 4744,
      "joukko": 4745,
      "##sk": 4746,
      "jari": 4747,
      "vuokra": 4748,
      "eurovi": 4749,
      "pahoinpitel": 4750,
      "##boo": 4751,
      "##saar": 4752,
      "jossain": 4753,
      "vaikutus": 4754,
      "nuore": 4755,
      "kehitys": 4756,
      "edellisen": 4757,
      "valmistel": 4758,
      "eva": 4759,
      "##ror": 4760,
      "##ös": 4761,
      "päätyi": 4762,
      "haus": 4763,
      "tulo": 4764,
      "tietoja": 4765,
      "ikk": 4766,
      "##eeseen": 4767,
      "##py": 4768,
      "##enin": 4769,
      "##hdin": 4770,
      "toy": 4771,
      "esille": 4772,
      "puolet": 4773,
      "alkuperä": 4774,
      "cnn": 4775,
      "viita": 4776,
      "##uttava": 4777,
      "aluksi": 4778,
      "liikenn": 4779,
      "kaar": 4780,
      "siirtyi": 4781,
      "antanut": 4782,
      "jyvä": 4783,
      "pudotuspel": 4784,
      "far": 4785,
      "olli": 4786,
      "##ak": 4787,
      "maasto": 4788,
      "osuus": 4789,
      "käydä": 4790,
      "##ttelemaan": 4791,
      "räjä": 4792,
      "ukrainaan": 4793,
      "fran": 4794,
      "##rassa": 4795,
      "alta": 4796,
      "huone": 4797,
      "suuren": 4798,
      "yrittä": 4799,
      "onnistui": 4800,
      "##ph": 4801,
      "joko": 4802,
      "viid": 4803,
      "rakas": 4804,
      "yhtään": 4805,
      "esitys": 4806,
      "##htuu": 4807,
      "mielestäni": 4808,
      "euroopassa": 4809,
      "ajatus": 4810,
      "dani": 4811,
      "lyö": 4812,
      "sekunn": 4813,
      "rajan": 4814,
      "naiset": 4815,
      "helppo": 4816,
      "remon": 4817,
      "heillä": 4818,
      "kansallis": 4819,
      "kuljettaja": 4820,
      "podcast": 4821,
      "##rinen": 4822,
      "##anin": 4823,
      "johd": 4824,
      "##ood": 4825,
      "hyväksi": 4826,
      "etteivät": 4827,
      "välit": 4828,
      "nopea": 4829,
      "käynnissä": 4830,
      "##talon": 4831,
      "häiriö": 4832,
      "soi": 4833,
      "##joista": 4834,
      "astetta": 4835,
      "kaikista": 4836,
      "julkisuudessa": 4837,
      "##liiken": 4838,
      "lauantain": 4839,
      "kustann": 4840,
      "hann": 4841,
      "of": 4842,
      "##use": 4843,
      "##rate": 4844,
      "valtu": 4845,
      "viimeksi": 4846,
      "kasvaa": 4847,
      "kritis": 4848,
      "pelastuslaitos": 4849,
      "artikkel": 4850,
      "36": 4851,
      "korona": 4852,
      "mari": 4853,
      "erik": 4854,
      "kuor": 4855,
      "hii": 4856,
      "aiheutti": 4857,
      "heinäkuussa": 4858,
      "##pot": 4859,
      "viittaa": 4860,
      "tunnel": 4861,
      "katsoi": 4862,
      "matkan": 4863,
      "ryhmän": 4864,
      "musiikki": 4865,
      "wal": 4866,
      "##pite": 4867,
      "##minister": 4868,
      "vastuu": 4869,
      "kertoivat": 4870,
      "äänestys": 4871,
      "murh": 4872,
      "##utuneet": 4873,
      "##ttömästi": 4874,
      "kiv": 4875,
      "aikataul": 4876,
      "##osassa": 4877,
      "löytää": 4878,
      "sprin": 4879,
      "faceboo": 4880,
      "jyväsky": 4881,
      "dra": 4882,
      "th": 4883,
      "tyr": 4884,
      "##sty": 4885,
      "##änsä": 4886,
      "##istin": 4887,
      "kunni": 4888,
      "siirto": 4889,
      "purra": 4890,
      "paljastaa": 4891,
      "cr": 4892,
      "osi": 4893,
      "##das": 4894,
      "##utetta": 4895,
      "mieleen": 4896,
      "myöntää": 4897,
      "tyypi": 4898,
      "tuskin": 4899,
      "33": 4900,
      "##ttynyt": 4901,
      "##ttäneet": 4902,
      "vall": 4903,
      "##rangaist": 4904,
      "heille": 4905,
      "ulkopuol": 4906,
      "näkökul": 4907,
      "##eessa": 4908,
      "##urn": 4909,
      "joutunut": 4910,
      "totu": 4911,
      "maku": 4912,
      "kierroksella": 4913,
      "usa": 4914,
      "##kosta": 4915,
      "jor": 4916,
      "palesti": 4917,
      "tuolla": 4918,
      "##toimin": 4919,
      "poliit": 4920,
      "##poliitt": 4921,
      "2014": 4922,
      "hetki": 4923,
      "tiedustel": 4924,
      "kohdistu": 4925,
      "tappio": 4926,
      "käynnist": 4927,
      "osallistui": 4928,
      "##isty": 4929,
      "##omin": 4930,
      "korvaa": 4931,
      "veren": 4932,
      "työnanta": 4933,
      "puk": 4934,
      "uus": 4935,
      "upe": 4936,
      "##jetta": 4937,
      "kivi": 4938,
      "päättää": 4939,
      "maata": 4940,
      "vol": 4941,
      "##illut": 4942,
      "##isissä": 4943,
      "ark": 4944,
      "asteen": 4945,
      "inves": 4946,
      "vantaan": 4947,
      "oikeudenkäyn": 4948,
      "spe": 4949,
      "##ejä": 4950,
      "##yhdist": 4951,
      "##by": 4952,
      "niihin": 4953,
      "##ranta": 4954,
      "sydä": 4955,
      "kari": 4956,
      "käytetty": 4957,
      "aamulla": 4958,
      "vaimonsa": 4959,
      "bl": 4960,
      "##kau": 4961,
      "##aalia": 4962,
      "##kille": 4963,
      "tarina": 4964,
      "##ministerin": 4965,
      "tapaus": 4966,
      "kuvaili": 4967,
      "britannian": 4968,
      "##kp": 4969,
      "tilasto": 4970,
      "##istiin": 4971,
      "tiedotta": 4972,
      "musiik": 4973,
      "rovaniem": 4974,
      "hiljattain": 4975,
      "##pro": 4976,
      "##isiko": 4977,
      "kadon": 4978,
      "##kkinen": 4979,
      "menet": 4980,
      "lapissa": 4981,
      "##vuoden": 4982,
      "kotima": 4983,
      "sulje": 4984,
      "pelkästään": 4985,
      "##ttoi": 4986,
      "##uttavat": 4987,
      "##missä": 4988,
      "esittää": 4989,
      "jalkapall": 4990,
      "aje": 4991,
      "##jk": 4992,
      "##immat": 4993,
      "##ikassa": 4994,
      "vaaleissa": 4995,
      "inter": 4996,
      "mietti": 4997,
      "katsoa": 4998,
      "toiminnan": 4999,
      "vaikeaa": 5000,
      "yleisurheil": 5001,
      "huhtikuussa": 5002,
      "##ov": 5003,
      "##viranoma": 5004,
      "##dellä": 5005,
      "##missi": 5006,
      "roma": 5007,
      "miehe": 5008,
      "ukrainalle": 5009,
      "##puolelle": 5010,
      "##unen": 5011,
      "##tellaan": 5012,
      "tah": 5013,
      "rauta": 5014,
      "materi": 5015,
      "##liigan": 5016,
      "##kala": 5017,
      "muistaa": 5018,
      "laittaa": 5019,
      "##seet": 5020,
      "asioista": 5021,
      "##ellään": 5022,
      "lumi": 5023,
      "##mpiä": 5024,
      "ulkomaa": 5025,
      "koiv": 5026,
      "väärin": 5027,
      "jutussa": 5028,
      "hol": 5029,
      "lit": 5030,
      "##lund": 5031,
      "##con": 5032,
      "##poo": 5033,
      "##peri": 5034,
      "laita": 5035,
      "voita": 5036,
      "niissä": 5037,
      "tarkka": 5038,
      "selvää": 5039,
      "suru": 5040,
      "iltapäivällä": 5041,
      "...": 5042,
      "##err": 5043,
      "##tiä": 5044,
      "##ostaan": 5045,
      "##imet": 5046,
      "##kkanen": 5047,
      "työmarkkin": 5048,
      "heng": 5049,
      "hengen": 5050,
      "kansainvälisen": 5051,
      "tekn": 5052,
      "gazan": 5053,
      "kapteen": 5054,
      "reuters": 5055,
      "lupaa": 5056,
      "tavoin": 5057,
      "##innä": 5058,
      "hizb": 5059,
      "onneksi": 5060,
      "luonno": 5061,
      "leijonien": 5062,
      "energia": 5063,
      "aih": 5064,
      "ehdot": 5065,
      "##kamp": 5066,
      "##teisiin": 5067,
      "seinä": 5068,
      "autoa": 5069,
      "196": 5070,
      "ratkaise": 5071,
      "viestintä": 5072,
      "hizbolla": 5073,
      "dig": 5074,
      "##veli": 5075,
      "##tystä": 5076,
      "2000": 5077,
      "tark": 5078,
      "##valtaa": 5079,
      "järjestetään": 5080,
      "wil": 5081,
      "##kistä": 5082,
      "##mmaa": 5083,
      "##joille": 5084,
      "suosikki": 5085,
      "tuomittiin": 5086,
      "sairaalaan": 5087,
      "chr": 5088,
      "botta": 5089,
      "##tuvat": 5090,
      "poissa": 5091,
      "nautti": 5092,
      "kaksikko": 5093,
      "##sani": 5094,
      "uima": 5095,
      "oire": 5096,
      "##za": 5097,
      "kori": 5098,
      "saapu": 5099,
      "naim": 5100,
      "pidetään": 5101,
      "henkilöä": 5102,
      "järjestö": 5103,
      "##varain": 5104,
      "aust": 5105,
      "##dessä": 5106,
      "##tian": 5107,
      "##vinä": 5108,
      "jälki": 5109,
      "tunnetaan": 5110,
      "kiinnos": 5111,
      "kirjassa": 5112,
      "pariskunta": 5113,
      "york": 5114,
      "tietenkin": 5115,
      "##itaan": 5116,
      "##otti": 5117,
      "##eto": 5118,
      "harry": 5119,
      "tarjoa": 5120,
      "merkittävästi": 5121,
      "##mö": 5122,
      "sekun": 5123,
      "kisat": 5124,
      "kehit": 5125,
      "vakavasti": 5126,
      "kaupp": 5127,
      "lääkäri": 5128,
      "liha": 5129,
      "linnan": 5130,
      "nik": 5131,
      "nukku": 5132,
      "##lun": 5133,
      "kuun": 5134,
      "voittoa": 5135,
      "hypp": 5136,
      "##uksensa": 5137,
      "virh": 5138,
      "##koski": 5139,
      "merkittä": 5140,
      "mukaisesti": 5141,
      "jalkapallo": 5142,
      "pei": 5143,
      "##mmissa": 5144,
      "marko": 5145,
      "kunnes": 5146,
      "tärkein": 5147,
      "lähtenyt": 5148,
      "turha": 5149,
      "etsin": 5150,
      "vene": 5151,
      "was": 5152,
      "##kausi": 5153,
      "##läinen": 5154,
      "##mistaan": 5155,
      "kirjan": 5156,
      "kuolleen": 5157,
      "muutoksia": 5158,
      "tarkoituksen": 5159,
      "##ttömän": 5160,
      "sellaisia": 5161,
      "yrittäjä": 5162,
      "kriitt": 5163,
      "nimenomaan": 5164,
      "psy": 5165,
      "##jojen": 5166,
      "##miselle": 5167,
      "harrisin": 5168,
      "riski": 5169,
      "mosko": 5170,
      "##ci": 5171,
      "##iselta": 5172,
      "##uoto": 5173,
      "korostaa": 5174,
      "sara": 5175,
      "selvittää": 5176,
      "37": 5177,
      "##muksesta": 5178,
      "##paikkaa": 5179,
      "lauta": 5180,
      "voimaan": 5181,
      "talouden": 5182,
      "##paikalla": 5183,
      "##ska": 5184,
      "##ynnä": 5185,
      "sotila": 5186,
      "##kyky": 5187,
      "##sarjan": 5188,
      "austra": 5189,
      "ulo": 5190,
      "##eissä": 5191,
      "##hään": 5192,
      "kato": 5193,
      "muuttaa": 5194,
      "##paino": 5195,
      "poliisille": 5196,
      "vahva": 5197,
      "yksinkerta": 5198,
      "alkohol": 5199,
      "-,": 5200,
      "red": 5201,
      "##ttisesti": 5202,
      "##eltaan": 5203,
      "##oilta": 5204,
      "väit": 5205,
      "syynä": 5206,
      "mielessä": 5207,
      "hifk": 5208,
      "paikallis": 5209,
      "uhrin": 5210,
      "55": 5211,
      "##tiksi": 5212,
      "muutti": 5213,
      "mall": 5214,
      "##imaa": 5215,
      "##olan": 5216,
      "##genda": 5217,
      "vasemmistoliiton": 5218,
      "iranin": 5219,
      "huut": 5220,
      "ves": 5221,
      "win": 5222,
      "katu": 5223,
      "vallan": 5224,
      "vastus": 5225,
      "talvi": 5226,
      "terv": 5227,
      "kristi": 5228,
      "tällaista": 5229,
      "elokuvan": 5230,
      "##huone": 5231,
      "sanonut": 5232,
      "kritiikki": 5233,
      "##piste": 5234,
      "##bla": 5235,
      "##orin": 5236,
      "ylivoima": 5237,
      "##ukas": 5238,
      "liikunta": 5239,
      "asiaan": 5240,
      "tiedotti": 5241,
      "aamu": 5242,
      "##myr": 5243,
      "##isal": 5244,
      "kaude": 5245,
      "##tellut": 5246,
      "##lain": 5247,
      "##käsi": 5248,
      "perään": 5249,
      "##ham": 5250,
      "suurläh": 5251,
      "##estön": 5252,
      "##stit": 5253,
      "proje": 5254,
      "parhaan": 5255,
      "epäillyn": 5256,
      "ser": 5257,
      "siten": 5258,
      "##ski": 5259,
      "##ttin": 5260,
      "##etut": 5261,
      "kokenut": 5262,
      "##istan": 5263,
      "pojan": 5264,
      "suunta": 5265,
      "nimittäin": 5266,
      "naapur": 5267,
      "muodos": 5268,
      "fre": 5269,
      "##unnitel": 5270,
      "äänes": 5271,
      "taakse": 5272,
      "etukä": 5273,
      "huolto": 5274,
      "parhaillaan": 5275,
      "toivoo": 5276,
      "ber": 5277,
      "juna": 5278,
      "viest": 5279,
      "katsoo": 5280,
      "matkus": 5281,
      "odotetaan": 5282,
      "rovanperä": 5283,
      "vaimo": 5284,
      "##liikenne": 5285,
      "pos": 5286,
      "risti": 5287,
      "##empää": 5288,
      "##ersin": 5289,
      "##täjä": 5290,
      "alkanut": 5291,
      "lähinnä": 5292,
      "##ilainen": 5293,
      "eroa": 5294,
      "syyttäjän": 5295,
      "sisältä": 5296,
      "ehtin": 5297,
      "kauan": 5298,
      "juontaja": 5299,
      "krem": 5300,
      "ari": 5301,
      "##sisi": 5302,
      "##itu": 5303,
      "##estivaa": 5304,
      "hevos": 5305,
      "henkilöaut": 5306,
      "##iaamuna": 5307,
      "##vik": 5308,
      "##evan": 5309,
      "##vai": 5310,
      "##kumppan": 5311,
      "temp": 5312,
      "juoksi": 5313,
      "illalla": 5314,
      "ly": 5315,
      "##jiin": 5316,
      "##utuksen": 5317,
      "kot": 5318,
      "kuvat": 5319,
      "valin": 5320,
      "##dalla": 5321,
      "puhua": 5322,
      "selvisi": 5323,
      "kaupan": 5324,
      "ulkopuolella": 5325,
      "tekevät": 5326,
      "##bergin": 5327,
      "veto": 5328,
      "vapaaehto": 5329,
      "loukkaantu": 5330,
      "##hyökkää": 5331,
      "##ustaan": 5332,
      "##lii": 5333,
      "##nalle": 5334,
      "parasta": 5335,
      "tiiv": 5336,
      "vaale": 5337,
      "syyllist": 5338,
      "kaarin": 5339,
      "##bert": 5340,
      "palvelu": 5341,
      "raska": 5342,
      "puhutaan": 5343,
      "valtiovarain": 5344,
      "tekno": 5345,
      "palkinto": 5346,
      "##västä": 5347,
      "##unnan": 5348,
      "kertoa": 5349,
      "pelaajat": 5350,
      "otettu": 5351,
      "##bur": 5352,
      "##uto": 5353,
      "koo": 5354,
      "hybri": 5355,
      "asetta": 5356,
      "julkaistu": 5357,
      "voittaja": 5358,
      "uudet": 5359,
      "##jöitä": 5360,
      "lainkaan": 5361,
      "omia": 5362,
      "radio": 5363,
      "##ttelyn": 5364,
      "heikki": 5365,
      "henkir": 5366,
      "mielenkiin": 5367,
      "isänsä": 5368,
      "moottor": 5369,
      "kamala": 5370,
      "##vällä": 5371,
      "toimintaan": 5372,
      "kannatus": 5373,
      "##tyksessä": 5374,
      "lausun": 5375,
      "mestaruus": 5376,
      "etukäteen": 5377,
      "ohe": 5378,
      "##kys": 5379,
      "##eta": 5380,
      "##cin": 5381,
      "##wi": 5382,
      "##maiden": 5383,
      "##ähti": 5384,
      "##ttava": 5385,
      "miehi": 5386,
      "##uksilla": 5387,
      "##ilija": 5388,
      "lääke": 5389,
      "viranomaisten": 5390,
      "vaihtoeh": 5391,
      "bel": 5392,
      "tenn": 5393,
      "##pes": 5394,
      "##kalta": 5395,
      "##istus": 5396,
      "kad": 5397,
      "kiusa": 5398,
      "##llisuutta": 5399,
      "##vinnyt": 5400,
      "inno": 5401,
      "yhteyttä": 5402,
      "##kkien": 5403,
      "ääni": 5404,
      "pyytää": 5405,
      "some": 5406,
      "75": 5407,
      "rus": 5408,
      "##riko": 5409,
      "##liit": 5410,
      "jotkut": 5411,
      "ilmen": 5412,
      "##töjä": 5413,
      "haavoi": 5414,
      "##ikkojen": 5415,
      "salossa": 5416,
      "häirin": 5417,
      "normaal": 5418,
      "##oilija": 5419,
      "moottori": 5420,
      "lopputul": 5421,
      "38": 5422,
      "##tra": 5423,
      "##tre": 5424,
      "johti": 5425,
      "##taalla": 5426,
      "löysi": 5427,
      "urallaan": 5428,
      "kampanja": 5429,
      "ota": 5430,
      "##tisen": 5431,
      "##tissä": 5432,
      "##mpään": 5433,
      "asen": 5434,
      "luvassa": 5435,
      "henkilön": 5436,
      "sanotaan": 5437,
      "epäilee": 5438,
      "##ryhmä": 5439,
      "ilmiö": 5440,
      "pus": 5441,
      "sho": 5442,
      "milloin": 5443,
      "puhui": 5444,
      "kuopi": 5445,
      "petty": 5446,
      "moti": 5447,
      "kannata": 5448,
      "julkisuuteen": 5449,
      "pitkäaika": 5450,
      "keskustelu": 5451,
      "dollaria": 5452,
      "omasta": 5453,
      "##pito": 5454,
      "##teesta": 5455,
      "##imo": 5456,
      "##alaisten": 5457,
      "##alaiset": 5458,
      "##oton": 5459,
      "##jänä": 5460,
      "seuraavaksi": 5461,
      "hanna": 5462,
      "onnistunut": 5463,
      "vuotiaiden": 5464,
      "47": 5465,
      "iä": 5466,
      "nie": 5467,
      "##uosi": 5468,
      "kuulla": 5469,
      "lehdelle": 5470,
      "vang": 5471,
      "##kunna": 5472,
      "2015": 5473,
      "tiedotteen": 5474,
      "liittyen": 5475,
      "täyden": 5476,
      "hoito": 5477,
      "vauhd": 5478,
      "kuningatar": 5479,
      "pie": 5480,
      "##presiden": 5481,
      "##pelin": 5482,
      "##äili": 5483,
      "lev": 5484,
      "hävisi": 5485,
      "verkkosiv": 5486,
      "löytynyt": 5487,
      "sveit": 5488,
      "##säädän": 5489,
      "aki": 5490,
      "##uttu": 5491,
      "##dissa": 5492,
      "##karin": 5493,
      "##istoa": 5494,
      "suojel": 5495,
      "piil": 5496,
      "suure": 5497,
      "suuria": 5498,
      "eläkke": 5499,
      "ensimmäisessä": 5500,
      "tunnista": 5501,
      "##lliin": 5502,
      "liigassa": 5503,
      "##media": 5504,
      "euroviisu": 5505,
      "bal": 5506,
      "##vuutta": 5507,
      "##ano": 5508,
      "nähden": 5509,
      "organis": 5510,
      "olympiakomite": 5511,
      "voittoon": 5512,
      "kierroksen": 5513,
      "keitti": 5514,
      "##ivat": 5515,
      "##llasta": 5516,
      "kuus": 5517,
      "mac": 5518,
      "tuon": 5519,
      "tapaan": 5520,
      "##tuivat": 5521,
      "sunnuntain": 5522,
      "tampereella": 5523,
      "washing": 5524,
      ".-": 5525,
      "39": 5526,
      "ryö": 5527,
      "riste": 5528,
      "##jas": 5529,
      "pitkin": 5530,
      "vanhan": 5531,
      "vaikutti": 5532,
      "##yksiin": 5533,
      "kuuluvat": 5534,
      "yliopisto": 5535,
      "äärimmä": 5536,
      "##hön": 5537,
      "##ilua": 5538,
      "##paik": 5539,
      "pros": 5540,
      "historian": 5541,
      "tutkinta": 5542,
      "hieno": 5543,
      "zelenskyi": 5544,
      "##voitta": 5545,
      "##ttop": 5546,
      "##mmän": 5547,
      "##isivät": 5548,
      "lauk": 5549,
      "näki": 5550,
      "##kkonen": 5551,
      "elämässä": 5552,
      "käytetään": 5553,
      "nykyinen": 5554,
      "puhelim": 5555,
      "niskanen": 5556,
      "är": 5557,
      "##che": 5558,
      "##ttäminen": 5559,
      "sana": 5560,
      "##johtajan": 5561,
      "edell": 5562,
      "itsestään": 5563,
      "##kauppa": 5564,
      "myönsi": 5565,
      "huum": 5566,
      "tulevaisuudessa": 5567,
      "tarvitsee": 5568,
      "44": 5569,
      "viis": 5570,
      "##ussaan": 5571,
      "toivon": 5572,
      "##voitto": 5573,
      "tyytyväinen": 5574,
      "##rjä": 5575,
      "##pas": 5576,
      "##utetaan": 5577,
      "onni": 5578,
      "muisto": 5579,
      "##lein": 5580,
      "##uhun": 5581,
      "etene": 5582,
      "rooli": 5583,
      "yo": 5584,
      "##lar": 5585,
      "##pil": 5586,
      "##kalla": 5587,
      "korjaa": 5588,
      "##vellä": 5589,
      "##meren": 5590,
      "hämmen": 5591,
      "juhann": 5592,
      "tiedottaa": 5593,
      "perjantain": 5594,
      "##puolu": 5595,
      "matkalla": 5596,
      "hurri": 5597,
      "##kierro": 5598,
      "##kila": 5599,
      "vajaa": 5600,
      "tältä": 5601,
      "##ossaan": 5602,
      "lämm": 5603,
      "keskitty": 5604,
      "valittiin": 5605,
      "##suojel": 5606,
      "aikojen": 5607,
      "ag": 5608,
      "kalta": 5609,
      "olle": 5610,
      "##etti": 5611,
      "##huol": 5612,
      "##aran": 5613,
      "seksi": 5614,
      "olisin": 5615,
      "määrän": 5616,
      "##ikansa": 5617,
      "selviää": 5618,
      "opiskel": 5619,
      "omaan": 5620,
      "##onnut": 5621,
      "##teo": 5622,
      "kemi": 5623,
      "##ittain": 5624,
      "##tansa": 5625,
      "edellä": 5626,
      "##lleni": 5627,
      "tilanteeseen": 5628,
      "kolmannen": 5629,
      "espanjan": 5630,
      "##dasta": 5631,
      "rakasta": 5632,
      "ensimmäisellä": 5633,
      "##uutensa": 5634,
      "väliin": 5635,
      "##utumaan": 5636,
      "##utumista": 5637,
      "pyör": 5638,
      "minuutin": 5639,
      "##gressi": 5640,
      "äidin": 5641,
      "omalla": 5642,
      "soitti": 5643,
      "##tiellä": 5644,
      "koki": 5645,
      "##kuva": 5646,
      "enn": 5647,
      "kestää": 5648,
      "aio": 5649,
      "epävar": 5650,
      "aiempaa": 5651,
      "##määrin": 5652,
      "useat": 5653,
      "kotimaa": 5654,
      "huolest": 5655,
      "sus": 5656,
      "välierä": 5657,
      "veikka": 5658,
      "haluavat": 5659,
      "lentoken": 5660,
      "englannin": 5661,
      "kasvanut": 5662,
      "kää": 5663,
      "##utensa": 5664,
      "##koh": 5665,
      "##kselle": 5666,
      "angel": 5667,
      "kulke": 5668,
      "lämmin": 5669,
      "jäädä": 5670,
      "pystynyt": 5671,
      "trumpia": 5672,
      "pyysi": 5673,
      "korean": 5674,
      "65": 5675,
      "col": 5676,
      "ten": 5677,
      "##eo": 5678,
      "##euvos": 5679,
      "##ario": 5680,
      "joens": 5681,
      "vied": 5682,
      "##oinut": 5683,
      "läp": 5684,
      "vastan": 5685,
      "keskimäärin": 5686,
      "oppila": 5687,
      "toivotta": 5688,
      "strate": 5689,
      "##puheen": 5690,
      "sekuntia": 5691,
      "ron": 5692,
      "vik": 5693,
      "##nän": 5694,
      "##kainen": 5695,
      "##utusta": 5696,
      "##tori": 5697,
      "##ysten": 5698,
      "##mpö": 5699,
      "rat": 5700,
      "rata": 5701,
      "järke": 5702,
      "##oaan": 5703,
      "parissa": 5704,
      "minusta": 5705,
      "hämeen": 5706,
      "##emmistö": 5707,
      "viron": 5708,
      "ohjelma": 5709,
      "pelata": 5710,
      "##kosen": 5711,
      "##fan": 5712,
      "lakka": 5713,
      "##ttoman": 5714,
      "koulu": 5715,
      "nykyisin": 5716,
      "ilmatieteen": 5717,
      "joukkoon": 5718,
      "maaliin": 5719,
      "apu": 5720,
      "rkp": 5721,
      "##ner": 5722,
      "##set": 5723,
      "##kata": 5724,
      "max": 5725,
      "matt": 5726,
      "valoku": 5727,
      "hyvät": 5728,
      "versi": 5729,
      "johtoon": 5730,
      "samoin": 5731,
      "sairaus": 5732,
      "kokoonpan": 5733,
      "##kuk": 5734,
      "##esse": 5735,
      "muutta": 5736,
      "kiito": 5737,
      "sote": 5738,
      "##yksistä": 5739,
      "##eliin": 5740,
      "monia": 5741,
      "erään": 5742,
      "välittömästi": 5743,
      "puolelle": 5744,
      "somer": 5745,
      "teksti": 5746,
      "tikto": 5747,
      "neuvosto": 5748,
      "##jaks": 5749,
      "##maks": 5750,
      "##rillä": 5751,
      "##villä": 5752,
      "sovell": 5753,
      "riikka": 5754,
      "hämmä": 5755,
      "kaupung": 5756,
      "sveitsi": 5757,
      "##ym": 5758,
      "##sal": 5759,
      "vieste": 5760,
      "raiska": 5761,
      "tarin": 5762,
      "##udulla": 5763,
      "kisassa": 5764,
      "seuraava": 5765,
      "tör": 5766,
      "sähkön": 5767,
      "loukkaantui": 5768,
      "kulttuuri": 5769,
      "ara": 5770,
      "etä": 5771,
      "asukka": 5772,
      "##innin": 5773,
      "##ministeriön": 5774,
      "tiedot": 5775,
      "huija": 5776,
      "kymmeniä": 5777,
      "käräjäoikeudessa": 5778,
      "##isyyttä": 5779,
      "vankeus": 5780,
      "jenni": 5781,
      "poikkeuksellisen": 5782,
      "##vaihto": 5783,
      "hamasin": 5784,
      "stan": 5785,
      "##tkä": 5786,
      "##mukset": 5787,
      "##kaudella": 5788,
      "##tilo": 5789,
      "yksilö": 5790,
      "puuk": 5791,
      "vieraili": 5792,
      "##ek": 5793,
      "kolle": 5794,
      "##oper": 5795,
      "paina": 5796,
      "ison": 5797,
      "martin": 5798,
      "eivätkä": 5799,
      "meta": 5800,
      "julkaist": 5801,
      "joulu": 5802,
      "uudenmaan": 5803,
      "huolissaan": 5804,
      "vuodelta": 5805,
      "alkoholi": 5806,
      "yllättäen": 5807,
      "41": 5808,
      "##snä": 5809,
      "koto": 5810,
      "naista": 5811,
      "##kkit": 5812,
      "##kkaita": 5813,
      "muuttu": 5814,
      "sijoittui": 5815,
      "professori": 5816,
      "otsi": 5817,
      "up": 5818,
      "##essin": 5819,
      "##iksen": 5820,
      "tallen": 5821,
      "pallo": 5822,
      "##kone": 5823,
      "puhuu": 5824,
      "luul": 5825,
      "suomalaista": 5826,
      "terror": 5827,
      "seuraavana": 5828,
      "yhteisö": 5829,
      "koiran": 5830,
      "liki": 5831,
      "##isan": 5832,
      "##ulu": 5833,
      "seka": 5834,
      "##rah": 5835,
      "valinta": 5836,
      "paranta": 5837,
      "kaupungissa": 5838,
      "elina": 5839,
      "tarkemmin": 5840,
      "daniel": 5841,
      "joihin": 5842,
      "##tetään": 5843,
      "##uomi": 5844,
      "##uni": 5845,
      "vamm": 5846,
      "täytt": 5847,
      "osoittaa": 5848,
      "##vuoro": 5849,
      "laad": 5850,
      "pysäh": 5851,
      "valitetta": 5852,
      "##uton": 5853,
      "##kinta": 5854,
      "##alaista": 5855,
      "suurta": 5856,
      "talven": 5857,
      "##vuod": 5858,
      "tutkimuksen": 5859,
      "perjantai": 5860,
      "tshe": 5861,
      "erinoma": 5862,
      "aur": 5863,
      "kasa": 5864,
      "pall": 5865,
      "##hallin": 5866,
      "muutoks": 5867,
      "##oikeuden": 5868,
      "elää": 5869,
      "##tyneen": 5870,
      "maailmanmestar": 5871,
      "48": 5872,
      "##cen": 5873,
      "##tiop": 5874,
      "poista": 5875,
      "edu": 5876,
      "tapahtuman": 5877,
      "ylös": 5878,
      "tutkija": 5879,
      "tekijä": 5880,
      "vastaava": 5881,
      "riipp": 5882,
      "kaupa": 5883,
      "väitti": 5884,
      "rovaniemen": 5885,
      "glo": 5886,
      "sot": 5887,
      "str": 5888,
      "##silla": 5889,
      "##ulan": 5890,
      "olevat": 5891,
      "haita": 5892,
      "hyl": 5893,
      "puoliso": 5894,
      "krista": 5895,
      "paljasti": 5896,
      "##idassa": 5897,
      "ruotsalais": 5898,
      "hyökkääjä": 5899,
      "saattavat": 5900,
      "ikinä": 5901,
      "##yistä": 5902,
      "##ene": 5903,
      "##tanut": 5904,
      "##tteluun": 5905,
      "suj": 5906,
      "##ikohta": 5907,
      "juttua": 5908,
      "##nanen": 5909,
      "##yhtiön": 5910,
      "##tilanne": 5911,
      "joulukuuta": 5912,
      "puolisonsa": 5913,
      "##immillaan": 5914,
      "tuomitsi": 5915,
      "##aari": 5916,
      "jakoi": 5917,
      "##kuu": 5918,
      "toisia": 5919,
      "heleni": 5920,
      "epäsel": 5921,
      "##uksessaan": 5922,
      "kolmanneksi": 5923,
      "tekoä": 5924,
      "42": 5925,
      "bän": 5926,
      "tup": 5927,
      "uim": 5928,
      "##ottelussa": 5929,
      "##emme": 5930,
      "##fia": 5931,
      "##onne": 5932,
      "vaki": 5933,
      "valitsi": 5934,
      "##misario": 5935,
      "innes": 5936,
      "seuraavan": 5937,
      "lähesty": 5938,
      "tavoite": 5939,
      "cup": 5940,
      "##öi": 5941,
      "##qvist": 5942,
      "##tilas": 5943,
      "##urheili": 5944,
      "komissi": 5945,
      "kahta": 5946,
      "hämä": 5947,
      "päih": 5948,
      "du": 5949,
      "anton": 5950,
      "##teena": 5951,
      "keikka": 5952,
      "instit": 5953,
      "vuotiasta": 5954,
      "kesäkuun": 5955,
      "kilpailussa": 5956,
      "kokemus": 5957,
      "liittyvät": 5958,
      "sosiaalisen": 5959,
      "##hyökkä": 5960,
      "tyttären": 5961,
      "46": 5962,
      "##bul": 5963,
      "##ttit": 5964,
      "##ttivat": 5965,
      "##kaansa": 5966,
      "myöhä": 5967,
      "pake": 5968,
      "peliä": 5969,
      "selän": 5970,
      "läsnä": 5971,
      "##päivää": 5972,
      "uuteen": 5973,
      "vaalien": 5974,
      "kyy": 5975,
      "sope": 5976,
      "kodin": 5977,
      "käs": 5978,
      "alus": 5979,
      "heikko": 5980,
      "tänne": 5981,
      "polttoa": 5982,
      "kiertu": 5983,
      "saksassa": 5984,
      "tilillään": 5985,
      "ehtinyt": 5986,
      "eilen": 5987,
      "hjk": 5988,
      "##ap": 5989,
      "##car": 5990,
      "##vid": 5991,
      "paikkaa": 5992,
      "sanoin": 5993,
      "##tena": 5994,
      "##uille": 5995,
      "osto": 5996,
      "alueilla": 5997,
      "##ytyä": 5998,
      "henkilöstö": 5999,
      "##sonin": 6000,
      "sulke": 6001,
      "käräjäoikeuden": 6002,
      "##tehtä": 6003,
      "tavanoma": 6004,
      "charles": 6005,
      "aine": 6006,
      "omassa": 6007,
      "##eistä": 6008,
      "##usen": 6009,
      "täyttä": 6010,
      "silmin": 6011,
      "jatkuvasti": 6012,
      "käynn": 6013,
      "keväänä": 6014,
      "ikkun": 6015,
      "800": 6016,
      "pl": 6017,
      "##hoita": 6018,
      "##ilpail": 6019,
      "viih": 6020,
      "salli": 6021,
      "##ynen": 6022,
      "##seja": 6023,
      "oikeudessa": 6024,
      "erän": 6025,
      "perustus": 6026,
      "kisoihin": 6027,
      "murha": 6028,
      "avoim": 6029,
      "puut": 6030,
      "vala": 6031,
      "##mil": 6032,
      "##uth": 6033,
      "##tilaa": 6034,
      "tapausta": 6035,
      "nouda": 6036,
      "väliaika": 6037,
      "kokee": 6038,
      "huomioon": 6039,
      "alkavat": 6040,
      "aalto": 6041,
      "festivaa": 6042,
      "peh": 6043,
      "sun": 6044,
      "yks": 6045,
      "##sarjassa": 6046,
      "##arvo": 6047,
      "kaksin": 6048,
      "muihin": 6049,
      "sitte": 6050,
      "eurolla": 6051,
      "huomaa": 6052,
      "suomalaisia": 6053,
      "poliisila": 6054,
      "all": 6055,
      "net": 6056,
      "ruus": 6057,
      "vit": 6058,
      "##dossa": 6059,
      "##uha": 6060,
      "tein": 6061,
      "isoja": 6062,
      "##isempi": 6063,
      "työelä": 6064,
      "tapauksen": 6065,
      "henrik": 6066,
      "louna": 6067,
      "kuule": 6068,
      "pystyi": 6069,
      "kommentti": 6070,
      "laaj": 6071,
      "puhd": 6072,
      "muuttunut": 6073,
      "syksynä": 6074,
      "rantanen": 6075,
      "kerrosta": 6076,
      "finaalissa": 6077,
      "räjähd": 6078,
      "bor": 6079,
      "omien": 6080,
      "##nissa": 6081,
      "##ardi": 6082,
      "##koke": 6083,
      "joker": 6084,
      "##tettua": 6085,
      "viha": 6086,
      "muille": 6087,
      "patr": 6088,
      "asuu": 6089,
      "kommentoin": 6090,
      "##stro": 6091,
      "##usar": 6092,
      "irtis": 6093,
      "kamppail": 6094,
      "##vis": 6095,
      "##eor": 6096,
      "##tossa": 6097,
      "##öri": 6098,
      "##wan": 6099,
      "##ds": 6100,
      "##bet": 6101,
      "##llissa": 6102,
      "tol": 6103,
      "matala": 6104,
      "kerää": 6105,
      "hakea": 6106,
      "##roon": 6107,
      "##kkiin": 6108,
      "kuului": 6109,
      "##kuntaan": 6110,
      "esiintyi": 6111,
      "varapresiden": 6112,
      "vakava": 6113,
      "##opimuksen": 6114,
      "pelastuslaitoksen": 6115,
      "hyökkäysso": 6116,
      "sittemmin": 6117,
      "pose": 6118,
      "testa": 6119,
      "laitta": 6120,
      "kera": 6121,
      "pelasta": 6122,
      "##teltiin": 6123,
      "##yksissä": 6124,
      "##tuneet": 6125,
      "aleksan": 6126,
      "##itinsä": 6127,
      "vihreiden": 6128,
      "muualla": 6129,
      "los": 6130,
      "##asia": 6131,
      "##uria": 6132,
      "katka": 6133,
      "lahja": 6134,
      "kaner": 6135,
      "##telu": 6136,
      "##joilla": 6137,
      "##hiih": 6138,
      "politiikan": 6139,
      "vankeusrangaist": 6140,
      "oir": 6141,
      "##gon": 6142,
      "##vala": 6143,
      "jokin": 6144,
      "täynnä": 6145,
      "mai": 6146,
      "lipp": 6147,
      "micha": 6148,
      "askel": 6149,
      "määrää": 6150,
      "pohja": 6151,
      "laaja": 6152,
      "##työn": 6153,
      "maalivahti": 6154,
      "##net": 6155,
      "##vot": 6156,
      "kiitos": 6157,
      "välin": 6158,
      "kilo": 6159,
      "##perin": 6160,
      "yleisra": 6161,
      "carol": 6162,
      "lauantai": 6163,
      "italian": 6164,
      "innos": 6165,
      "nyrkke": 6166,
      "tarkoituksena": 6167,
      "teknolog": 6168,
      "ohella": 6169,
      "otettiin": 6170,
      "##llisiä": 6171,
      "enkä": 6172,
      "esityksen": 6173,
      "minut": 6174,
      "osui": 6175,
      "ensimmäiset": 6176,
      "melkein": 6177,
      "ympärillä": 6178,
      "##ologi": 6179,
      "klas": 6180,
      "##elan": 6181,
      "jaksa": 6182,
      "##ukin": 6183,
      "meneh": 6184,
      "##kirja": 6185,
      "syksyn": 6186,
      "tapahtuneesta": 6187,
      "tarpeeksi": 6188,
      "omina": 6189,
      "palestiin": 6190,
      "akti": 6191,
      "taj": 6192,
      "vahin": 6193,
      "##kkänen": 6194,
      "tulevan": 6195,
      "##ministeriö": 6196,
      "aiheuttanut": 6197,
      "syöpä": 6198,
      "mielenterve": 6199,
      "väkivallan": 6200,
      "erässä": 6201,
      "artisti": 6202,
      "##vian": 6203,
      "toistu": 6204,
      "laiva": 6205,
      "##detty": 6206,
      "tietty": 6207,
      "kultaa": 6208,
      "uudessa": 6209,
      "hyökkäyksen": 6210,
      "omistaja": 6211,
      "pulju": 6212,
      "mut": 6213,
      "##ata": 6214,
      "##osan": 6215,
      "liiton": 6216,
      "tuoda": 6217,
      "tapauksesta": 6218,
      "##voimat": 6219,
      "eduskunnassa": 6220,
      "poliisit": 6221,
      "washington": 6222,
      "pään": 6223,
      "##ston": 6224,
      "##jalainen": 6225,
      "##pitä": 6226,
      "##ennus": 6227,
      "##istit": 6228,
      "koos": 6229,
      "esitti": 6230,
      "asiana": 6231,
      "kirkko": 6232,
      "aivo": 6233,
      "ilmes": 6234,
      "##tiota": 6235,
      "meteor": 6236,
      "torni": 6237,
      "entisestä": 6238,
      "luonto": 6239,
      "harrasta": 6240,
      "republikaanien": 6241,
      "ph": 6242,
      "##cks": 6243,
      "##alis": 6244,
      "##teitä": 6245,
      "##vannut": 6246,
      "ilve": 6247,
      "##ppoa": 6248,
      "marja": 6249,
      "itsekin": 6250,
      "vanhemmat": 6251,
      "maailmancupin": 6252,
      "rekister": 6253,
      "espoon": 6254,
      "toivottavasti": 6255,
      "air": 6256,
      "km": 6257,
      "vään": 6258,
      "##pari": 6259,
      "##enee": 6260,
      "toiselle": 6261,
      "kannus": 6262,
      "ruokaa": 6263,
      "uhr": 6264,
      "mäkelä": 6265,
      "sivu": 6266,
      "samana": 6267,
      "merkitystä": 6268,
      "pyrkii": 6269,
      "lopettaa": 6270,
      "strateg": 6271,
      "##nista": 6272,
      "##basti": 6273,
      "##isy": 6274,
      "muusi": 6275,
      "rallin": 6276,
      "periaa": 6277,
      "anteeksi": 6278,
      "harmi": 6279,
      "2012": 6280,
      "silmä": 6281,
      "sanomille": 6282,
      "##vuori": 6283,
      "vahvisti": 6284,
      "maksamaan": 6285,
      "tavara": 6286,
      "paikoin": 6287,
      "käytöstä": 6288,
      "##uudella": 6289,
      "sit": 6290,
      "enempää": 6291,
      "##iha": 6292,
      "##ttelyssä": 6293,
      "varrella": 6294,
      "esillä": 6295,
      "##vella": 6296,
      "selittää": 6297,
      "löyd": 6298,
      "yleisön": 6299,
      "lääkke": 6300,
      "hoitaa": 6301,
      "yhteistyötä": 6302,
      "tulokset": 6303,
      "kehittä": 6304,
      "voitaisiin": 6305,
      "ii": 6306,
      "##ittiin": 6307,
      "##imme": 6308,
      "##etty": 6309,
      "##lilla": 6310,
      "suos": 6311,
      "kim": 6312,
      "suhde": 6313,
      "puha": 6314,
      "lasku": 6315,
      "meitä": 6316,
      "##sarja": 6317,
      "demokraattien": 6318,
      "tuhansia": 6319,
      "54": 6320,
      "gri": 6321,
      "pyh": 6322,
      "##ug": 6323,
      "##misia": 6324,
      "kumm": 6325,
      "seis": 6326,
      "##vide": 6327,
      "##miset": 6328,
      "kisaa": 6329,
      "##kuntaa": 6330,
      "valtava": 6331,
      "haluaisi": 6332,
      "alkoivat": 6333,
      "korkein": 6334,
      "##prosen": 6335,
      "ilmeisesti": 6336,
      "normaalisti": 6337,
      "##estö": 6338,
      "##hdus": 6339,
      "kiina": 6340,
      "##llisessa": 6341,
      "tuote": 6342,
      "##ittänyt": 6343,
      "2026": 6344,
      "2013": 6345,
      "##mari": 6346,
      "syöttö": 6347,
      "huuhka": 6348,
      "tuomion": 6349,
      "peräkkä": 6350,
      "pääty": 6351,
      "##vaaleissa": 6352,
      "tehneet": 6353,
      "kiloa": 6354,
      "mahdollinen": 6355,
      "ilmaston": 6356,
      "päiväko": 6357,
      "tappara": 6358,
      "##jalan": 6359,
      "pisteen": 6360,
      "valmiiksi": 6361,
      "##vuodesta": 6362,
      "jas": 6363,
      "kesku": 6364,
      "##kkain": 6365,
      "juur": 6366,
      "##ttelevat": 6367,
      "työskentele": 6368,
      "järjestää": 6369,
      "kappaletta": 6370,
      "pelataan": 6371,
      "##hteeri": 6372,
      "cupin": 6373,
      "rie": 6374,
      "##ip": 6375,
      "##soon": 6376,
      "##llisiin": 6377,
      "##ergi": 6378,
      "##mainen": 6379,
      "tak": 6380,
      "tallin": 6381,
      "##viera": 6382,
      "suor": 6383,
      "##eellinen": 6384,
      "pysyy": 6385,
      "vaikkapa": 6386,
      "heidät": 6387,
      "allekir": 6388,
      "pör": 6389,
      "kahdesti": 6390,
      "olympialaisissa": 6391,
      "valmennus": 6392,
      "sairaalassa": 6393,
      "ret": 6394,
      "##ysa": 6395,
      "##ttisen": 6396,
      "kome": 6397,
      "muistu": 6398,
      "valtonen": 6399,
      "##ppien": 6400,
      "saattoi": 6401,
      "vär": 6402,
      "kunnolla": 6403,
      "toimeen": 6404,
      "kesäkuuta": 6405,
      "siirtyy": 6406,
      "jäivät": 6407,
      "ottamaan": 6408,
      "kaipaa": 6409,
      "kansainvälinen": 6410,
      "1990": 6411,
      "keskustassa": 6412,
      "lindt": 6413,
      "##valiokunnan": 6414,
      "guardi": 6415,
      "lunta": 6416,
      "sh": 6417,
      "##siiv": 6418,
      "##etoimin": 6419,
      "koken": 6420,
      "kiih": 6421,
      "tupa": 6422,
      "hallitse": 6423,
      "tapahtumia": 6424,
      "laski": 6425,
      "ohje": 6426,
      "##huollon": 6427,
      "##kertainen": 6428,
      "##pelaaja": 6429,
      "tel": 6430,
      "##mestari": 6431,
      "##chin": 6432,
      "##pros": 6433,
      "sekin": 6434,
      "kiva": 6435,
      "verot": 6436,
      "##tuneen": 6437,
      "ilmoituksen": 6438,
      "52": 6439,
      "avi": 6440,
      "sinä": 6441,
      "##uttiin": 6442,
      "##ikasta": 6443,
      "kaikilla": 6444,
      "vuotiaa": 6445,
      "ehdokas": 6446,
      "kerrottu": 6447,
      "työntekijä": 6448,
      "viikonlopun": 6449,
      "##holm": 6450,
      "taiteili": 6451,
      "män": 6452,
      "pun": 6453,
      "##ikot": 6454,
      "##ustaa": 6455,
      "tällö": 6456,
      "mati": 6457,
      "näissä": 6458,
      "presidentiksi": 6459,
      "ilmoittanut": 6460,
      "pariisissa": 6461,
      "eteni": 6462,
      "vaikuttavat": 6463,
      "päävalmenta": 6464,
      "näkökulmasta": 6465,
      "tällöin": 6466,
      "ac": 6467,
      "der": 6468,
      "##tamaan": 6469,
      "kotik": 6470,
      "##väki": 6471,
      "sijoitus": 6472,
      "##maail": 6473,
      "loista": 6474,
      "lenno": 6475,
      "rakentaa": 6476,
      "150": 6477,
      "sär": 6478,
      "mukanaan": 6479,
      "geor": 6480,
      "lehdistö": 6481,
      "libanon": 6482,
      "43": 6483,
      "avoin": 6484,
      "jani": 6485,
      "pla": 6486,
      "##ther": 6487,
      "vic": 6488,
      "##miaan": 6489,
      "poistu": 6490,
      "potila": 6491,
      "##oping": 6492,
      "tapasi": 6493,
      "kohden": 6494,
      "pelaamaan": 6495,
      "tutkii": 6496,
      "unel": 6497,
      "kylmä": 6498,
      "puuttu": 6499,
      "##ppasi": 6500,
      "##tapahtu": 6501,
      "evakuo": 6502,
      "49": 6503,
      "600": 6504,
      "kala": 6505,
      "##silm": 6506,
      "##utin": 6507,
      "##oston": 6508,
      "##mmilla": 6509,
      "##joa": 6510,
      "aloi": 6511,
      "paha": 6512,
      "##llisuudessa": 6513,
      "tuloksen": 6514,
      "##utumisen": 6515,
      "2010": 6516,
      "tarkoit": 6517,
      "jääkiekon": 6518,
      "asunnon": 6519,
      "mikael": 6520,
      "miljardia": 6521,
      "zuma": 6522,
      "##nia": 6523,
      "kain": 6524,
      "päättä": 6525,
      "summa": 6526,
      "##vesi": 6527,
      "jokaisen": 6528,
      "venäjää": 6529,
      "edistä": 6530,
      "suomalaisista": 6531,
      "pärj": 6532,
      "somessa": 6533,
      "poikkeus": 6534,
      "todista": 6535,
      "eduskuntaryhmän": 6536,
      "estää": 6537,
      "##lääkäri": 6538,
      "ristiri": 6539,
      "##anna": 6540,
      "##eltään": 6541,
      "##ytynyt": 6542,
      "maksu": 6543,
      "oikeastaan": 6544,
      "salminen": 6545,
      "##neensä": 6546,
      "muuttui": 6547,
      "daily": 6548,
      "tiedotteessaan": 6549,
      "väär": 6550,
      "sijaitsevan": 6551,
      "naap": 6552,
      "juk": 6553,
      "valtteri": 6554,
      "hell": 6555,
      "liittyviä": 6556,
      "irti": 6557,
      "päättyy": 6558,
      "päätteeksi": 6559,
      "kustan": 6560,
      "hovioikeus": 6561,
      "paimion": 6562,
      "siviili": 6563,
      "kritiikkiä": 6564,
      "äärimmäisen": 6565,
      "nu": 6566,
      "äitinsä": 6567,
      "##tied": 6568,
      "savo": 6569,
      "kärj": 6570,
      "valo": 6571,
      "saari": 6572,
      "vaadi": 6573,
      "##materi": 6574,
      "##nytys": 6575,
      "pelaajia": 6576,
      "matkaa": 6577,
      "putosi": 6578,
      "seksuaali": 6579,
      "gar": 6580,
      "tš": 6581,
      "##lti": 6582,
      "##histo": 6583,
      "##isit": 6584,
      "##alvel": 6585,
      "##istop": 6586,
      "vihj": 6587,
      "kump": 6588,
      "mahdot": 6589,
      "pahi": 6590,
      "voimassa": 6591,
      "varma": 6592,
      "nau": 6593,
      "##kene": 6594,
      "kyseen": 6595,
      "##kkoja": 6596,
      "elokuuta": 6597,
      "seurasi": 6598,
      "##jöiden": 6599,
      "näkyi": 6600,
      "kahdeksa": 6601,
      "fiil": 6602,
      "lukuisia": 6603,
      "viikossa": 6604,
      "com": 6605,
      "sha": 6606,
      "kauka": 6607,
      "viisu": 6608,
      "poikansa": 6609,
      "##tinut": 6610,
      "veron": 6611,
      "jonkun": 6612,
      "tukhol": 6613,
      "toimivat": 6614,
      "päätöstä": 6615,
      "lainsäädän": 6616,
      "suoritus": 6617,
      "toukokuuta": 6618,
      "##aation": 6619,
      "##kirj": 6620,
      "täs": 6621,
      "maat": 6622,
      "kasvo": 6623,
      "miettiä": 6624,
      "konkur": 6625,
      "vetää": 6626,
      "##ws": 6627,
      "##mmillaan": 6628,
      "##tykseen": 6629,
      "ilves": 6630,
      "##stapp": 6631,
      "markku": 6632,
      "marinin": 6633,
      "verstapp": 6634,
      "##istoon": 6635,
      "nousta": 6636,
      "prosentti": 6637,
      "tanska": 6638,
      "väittää": 6639,
      "heinäkuuta": 6640,
      "jalkapallon": 6641,
      "muutenkin": 6642,
      "##politiikan": 6643,
      "pronssi": 6644,
      "maahanmuu": 6645,
      "catherine": 6646,
      "we": 6647,
      "##tanen": 6648,
      "##eltu": 6649,
      "##istosta": 6650,
      "##teko": 6651,
      "naisia": 6652,
      "sotaa": 6653,
      "käytti": 6654,
      "vuosittain": 6655,
      "katsotaan": 6656,
      "halutaan": 6657,
      "perässä": 6658,
      "huuma": 6659,
      "hienoa": 6660,
      "armeijan": 6661,
      "alkoholin": 6662,
      "oven": 6663,
      "##ep": 6664,
      "##mb": 6665,
      "tapi": 6666,
      "##leis": 6667,
      "##vii": 6668,
      "tähden": 6669,
      "sak": 6670,
      "pääosin": 6671,
      "hymy": 6672,
      "##kky": 6673,
      "syytetty": 6674,
      "ajattelin": 6675,
      "murto": 6676,
      "lähetti": 6677,
      "taso": 6678,
      "käyttöä": 6679,
      "dallas": 6680,
      "colo": 6681,
      "johanna": 6682,
      "##hyökkääjä": 6683,
      "michael": 6684,
      "51": 6685,
      "bon": 6686,
      "##ller": 6687,
      "##kaut": 6688,
      "##iken": 6689,
      "##vainen": 6690,
      "##tettävä": 6691,
      "##paikkoja": 6692,
      "kesti": 6693,
      "maala": 6694,
      "##tonsa": 6695,
      "osassa": 6696,
      "turussa": 6697,
      "kulkee": 6698,
      "jatkoa": 6699,
      "julkaissut": 6700,
      "ajankohta": 6701,
      "aiheesta": 6702,
      "esiintyy": 6703,
      "lämpimä": 6704,
      "carl": 6705,
      "demokra": 6706,
      "myrsky": 6707,
      "ryt": 6708,
      "##ketta": 6709,
      "##kunut": 6710,
      "##lisä": 6711,
      "##llit": 6712,
      "jakaa": 6713,
      "muissa": 6714,
      "näillä": 6715,
      "iskun": 6716,
      "aikanaan": 6717,
      "nuoria": 6718,
      "ihmet": 6719,
      "laaje": 6720,
      "##ketin": 6721,
      "mielestään": 6722,
      "mestaruuden": 6723,
      "paljastui": 6724,
      "golf": 6725,
      "go": 6726,
      "##uli": 6727,
      "##olog": 6728,
      "##hal": 6729,
      "##uste": 6730,
      "millä": 6731,
      "autolla": 6732,
      "varapuheen": 6733,
      "itära": 6734,
      "paljasta": 6735,
      "andre": 6736,
      "##siantunti": 6737,
      "murhasta": 6738,
      "##vyö": 6739,
      "##isee": 6740,
      "onhan": 6741,
      "sein": 6742,
      "##joituksen": 6743,
      "voida": 6744,
      "yhteyden": 6745,
      "usei": 6746,
      "nord": 6747,
      "yllättävän": 6748,
      "katri": 6749,
      "osallistua": 6750,
      "lähtökohta": 6751,
      "olympialaisten": 6752,
      "teollisuus": 6753,
      "maailmancup": 6754,
      "jutun": 6755,
      "tavar": 6756,
      "##pasi": 6757,
      "tälle": 6758,
      "malli": 6759,
      "jättä": 6760,
      "##ointia": 6761,
      "viimeiset": 6762,
      "europ": 6763,
      "autojen": 6764,
      "löi": 6765,
      "vastaus": 6766,
      "määrit": 6767,
      "kaatui": 6768,
      "pieniä": 6769,
      "##alueella": 6770,
      "elämänsä": 6771,
      "marraskuun": 6772,
      "kahdesta": 6773,
      "reilut": 6774,
      "sukupol": 6775,
      "budje": 6776,
      "##mes": 6777,
      "##gren": 6778,
      "##uone": 6779,
      "##kolla": 6780,
      "laitoksen": 6781,
      "lisäsi": 6782,
      "##kunnalle": 6783,
      "meg": 6784,
      "urheilun": 6785,
      "##hoito": 6786,
      "kanadan": 6787,
      "fore": 6788,
      "keräsi": 6789,
      "luottamus": 6790,
      "##virasto": 6791,
      "entisestään": 6792,
      "nas": 6793,
      "##immä": 6794,
      "##häi": 6795,
      "##kola": 6796,
      "##pallon": 6797,
      "##ritään": 6798,
      "menest": 6799,
      "lapse": 6800,
      "2011": 6801,
      "pitävät": 6802,
      "nähtä": 6803,
      "omakoti": 6804,
      "oppil": 6805,
      "expr": 6806,
      "turnauksen": 6807,
      "muistutti": 6808,
      "##ssia": 6809,
      "##pl": 6810,
      "##tic": 6811,
      "sattu": 6812,
      "paul": 6813,
      "varaa": 6814,
      "koron": 6815,
      "##ilais": 6816,
      "tren": 6817,
      "sivusto": 6818,
      "##alueen": 6819,
      "herättänyt": 6820,
      "kohtalo": 6821,
      "lokakuuta": 6822,
      "##yydestä": 6823,
      "valvonta": 6824,
      "aj": 6825,
      "hul": 6826,
      "rom": 6827,
      "stä": 6828,
      "tps": 6829,
      "olimme": 6830,
      "##eriin": 6831,
      "##udi": 6832,
      "kaikissa": 6833,
      "työttöm": 6834,
      "minkään": 6835,
      "kyky": 6836,
      "koskee": 6837,
      "suurempi": 6838,
      "##mmalle": 6839,
      "edustus": 6840,
      "suhteessa": 6841,
      "uudestaan": 6842,
      "tällaisia": 6843,
      "##tyksestä": 6844,
      "konflik": 6845,
      "podcastissa": 6846,
      "ferr": 6847,
      "niska": 6848,
      "tha": 6849,
      "##teessä": 6850,
      "seudun": 6851,
      "mahta": 6852,
      "##alaisia": 6853,
      "##llise": 6854,
      "tulosta": 6855,
      "##irin": 6856,
      "ostaa": 6857,
      "julkisesti": 6858,
      "pitkälle": 6859,
      "tyyli": 6860,
      "syyskuuta": 6861,
      "juonta": 6862,
      "maailmanmestari": 6863,
      "##pyörä": 6864,
      "jaakko": 6865,
      "keskuudessa": 6866,
      "kokko": 6867,
      "kohtuu": 6868,
      "lailla": 6869,
      "pallon": 6870,
      "tarkasti": 6871,
      "arki": 6872,
      "tulivat": 6873,
      "houku": 6874,
      "välinen": 6875,
      "todetaan": 6876,
      "muuttuu": 6877,
      "lapsille": 6878,
      "sopii": 6879,
      "kauni": 6880,
      "telegra": 6881,
      "jäljellä": 6882,
      "ajoneuvo": 6883,
      "bas": 6884,
      "##ennä": 6885,
      "##kap": 6886,
      "##tim": 6887,
      "##osto": 6888,
      "pot": 6889,
      "kuntoon": 6890,
      "puhunut": 6891,
      "tekemistä": 6892,
      "maailmassa": 6893,
      "portu": 6894,
      "havainn": 6895,
      "instituut": 6896,
      "lun": 6897,
      "luu": 6898,
      "älä": 6899,
      "##put": 6900,
      "##dien": 6901,
      "##lahd": 6902,
      "sauna": 6903,
      "##ttujen": 6904,
      "tuomas": 6905,
      "pii": 6906,
      "##kkoa": 6907,
      "##kkia": 6908,
      "jonne": 6909,
      "hyvältä": 6910,
      "195": 6911,
      "vieressä": 6912,
      "siirre": 6913,
      "kärsin": 6914,
      "eurooppala": 6915,
      "arvioidaan": 6916,
      "asuin": 6917,
      "muitakin": 6918,
      "##murha": 6919,
      "yhtyeen": 6920,
      "syytetään": 6921,
      "työmarkkina": 6922,
      "oik": 6923,
      "##ckin": 6924,
      "##dr": 6925,
      "##dit": 6926,
      "##kad": 6927,
      "##osissa": 6928,
      "##tea": 6929,
      "##joittaa": 6930,
      "##llisyys": 6931,
      "maajoukkueen": 6932,
      "paluu": 6933,
      "karh": 6934,
      "kartan": 6935,
      "pelaajien": 6936,
      "käydään": 6937,
      "todettiin": 6938,
      "suunnite": 6939,
      "lähettää": 6940,
      "mennään": 6941,
      "marraskuuta": 6942,
      "laji": 6943,
      "sattui": 6944,
      "##misa": 6945,
      "puhelin": 6946,
      "##ittasi": 6947,
      "lou": 6948,
      "paikalta": 6949,
      "monipuol": 6950,
      "lääkärin": 6951,
      "ajoneu": 6952,
      "llä": 6953,
      "##prin": 6954,
      "##etu": 6955,
      "##mpänä": 6956,
      "kielle": 6957,
      "rav": 6958,
      "##töjen": 6959,
      "harri": 6960,
      "meren": 6961,
      "panther": 6962,
      "riittävän": 6963,
      "väärä": 6964,
      "neuvottel": 6965,
      "pohjanmaan": 6966,
      "yhtye": 6967,
      "##hoidon": 6968,
      "parhaat": 6969,
      "##liiga": 6970,
      "auring": 6971,
      "lounais": 6972,
      "aar": 6973,
      "city": 6974,
      "##istys": 6975,
      "laura": 6976,
      "##konä": 6977,
      "osakilpail": 6978,
      "piikki": 6979,
      "ukrainaa": 6980,
      "ajanut": 6981,
      "##laatu": 6982,
      "päivässä": 6983,
      "puoliväl": 6984,
      "parhaimmillaan": 6985,
      "rikosilm": 6986,
      "syyskuun": 6987,
      "aka": 6988,
      "##tri": 6989,
      "##laki": 6990,
      "##ttuaan": 6991,
      "susi": 6992,
      "tiuka": 6993,
      "huoman": 6994,
      "lopuksi": 6995,
      "legen": 6996,
      "selke": 6997,
      "luokan": 6998,
      "koulua": 6999,
      "uusien": 7000,
      "rasis": 7001,
      "vierail": 7002,
      "toukokuun": 7003,
      "päivys": 7004,
      "rohke": 7005,
      "lataus": 7006,
      "työskennellyt": 7007,
      "spekul": 7008,
      "viedä": 7009,
      "von": 7010,
      "##vuuden": 7011,
      "##asin": 7012,
      "##sään": 7013,
      "##tellä": 7014,
      "##riassa": 7015,
      "mietin": 7016,
      "##koneen": 7017,
      "selv": 7018,
      "##voiman": 7019,
      "##panen": 7020,
      "turvallisuuden": 7021,
      "töihin": 7022,
      "tiistai": 7023,
      "käänne": 7024,
      "urheilija": 7025,
      "lyhyt": 7026,
      "mielipide": 7027,
      "todist": 7028,
      "opetus": 7029,
      "selkeästi": 7030,
      "kruunun": 7031,
      "##ikympp": 7032,
      "sän": 7033,
      "##kik": 7034,
      "##vys": 7035,
      "##poi": 7036,
      "##tävän": 7037,
      "viro": 7038,
      "tosia": 7039,
      "rad": 7040,
      "##ttanut": 7041,
      "haittaa": 7042,
      "lisätä": 7043,
      "##hojen": 7044,
      "asema": 7045,
      "pyritään": 7046,
      "painottaa": 7047,
      "isännö": 7048,
      "vankeuteen": 7049,
      "huumausa": 7050,
      "tri": 7051,
      "##isiksi": 7052,
      "##onnist": 7053,
      "##rille": 7054,
      "##misella": 7055,
      "tarjoi": 7056,
      "automaa": 7057,
      "##tteitä": 7058,
      "##tteesta": 7059,
      "kyseinen": 7060,
      "tarjoaa": 7061,
      "kokoomus": 7062,
      "auk": 7063,
      "tytön": 7064,
      "äit": 7065,
      "##vila": 7066,
      "oliko": 7067,
      "väestö": 7068,
      "helle": 7069,
      "haltu": 7070,
      "hallinnon": 7071,
      "arvion": 7072,
      "elokuun": 7073,
      "edusti": 7074,
      "sunnuntai": 7075,
      "##ssonin": 7076,
      "##talous": 7077,
      "hinnat": 7078,
      "pidetty": 7079,
      "äänestää": 7080,
      "puheenjohtajan": 7081,
      "bottas": 7082,
      "sveitsin": 7083,
      "pime": 7084,
      "##kattu": 7085,
      "##isiv": 7086,
      "##ksessa": 7087,
      "##paus": 7088,
      "poliisia": 7089,
      "kevy": 7090,
      "huole": 7091,
      "tiedän": 7092,
      "ulkonä": 7093,
      "perustel": 7094,
      "194": 7095,
      "euroon": 7096,
      "yrityksestä": 7097,
      "oulu": 7098,
      "avasi": 7099,
      "järjestettiin": 7100,
      "kiekon": 7101,
      "musiikin": 7102,
      "##tutki": 7103,
      "gazassa": 7104,
      "57": 7105,
      "sebasti": 7106,
      "##tuminen": 7107,
      "kaas": 7108,
      "ohjelmaan": 7109,
      "tapparan": 7110,
      "osallistuu": 7111,
      "hoitoon": 7112,
      "piha": 7113,
      "varhain": 7114,
      "mielenkiinto": 7115,
      "ahd": 7116,
      "pyyn": 7117,
      "##ttynä": 7118,
      "##utettiin": 7119,
      "##urna": 7120,
      "näyt": 7121,
      "osoitti": 7122,
      "vastaisena": 7123,
      "ilmoittaa": 7124,
      "kohteeksi": 7125,
      "toimiva": 7126,
      "##vuor": 7127,
      "lenn": 7128,
      "tekivät": 7129,
      "julkisen": 7130,
      "##utuivat": 7131,
      "joulun": 7132,
      "tuomittu": 7133,
      "alaikä": 7134,
      "##keskukseen": 7135,
      "ansiosta": 7136,
      "serg": 7137,
      "##ruo": 7138,
      "##öitä": 7139,
      "##oimaan": 7140,
      "vihd": 7141,
      "##väs": 7142,
      "suoj": 7143,
      "valitse": 7144,
      "##misessä": 7145,
      "tuen": 7146,
      "puolustaja": 7147,
      "kylä": 7148,
      "##voimaa": 7149,
      "##tteessa": 7150,
      "kuolle": 7151,
      "##poli": 7152,
      "lassi": 7153,
      "konkr": 7154,
      "maailmaa": 7155,
      "yllättävä": 7156,
      "##kosken": 7157,
      "jostain": 7158,
      "dollarin": 7159,
      "sauli": 7160,
      "grön": 7161,
      "59": 7162,
      "ee": 7163,
      "fc": 7164,
      "fil": 7165,
      "kyt": 7166,
      "linn": 7167,
      "puus": 7168,
      "##tro": 7169,
      "##ikosta": 7170,
      "eihän": 7171,
      "##oite": 7172,
      "suomelle": 7173,
      "##llisella": 7174,
      "niillä": 7175,
      "kysyn": 7176,
      "riitä": 7177,
      "tapahtumien": 7178,
      "yleisesti": 7179,
      "##umb": 7180,
      "##veto": 7181,
      "sairaalan": 7182,
      "operaatio": 7183,
      "kapteeni": 7184,
      "##kampan": 7185,
      "huuto": 7186,
      "##muo": 7187,
      "##raali": 7188,
      "##dosta": 7189,
      "katoa": 7190,
      "viile": 7191,
      "teon": 7192,
      "##ttelyä": 7193,
      "hylä": 7194,
      "arvel": 7195,
      "keino": 7196,
      "minister": 7197,
      "henri": 7198,
      "syvä": 7199,
      "avaja": 7200,
      "pitkälti": 7201,
      "liittyi": 7202,
      "toisensa": 7203,
      "menivät": 7204,
      "annettu": 7205,
      "pirkan": 7206,
      "työntekijöiden": 7207,
      "naimisiin": 7208,
      "bil": 7209,
      "eden": 7210,
      "##kte": 7211,
      "##isaa": 7212,
      "koe": 7213,
      "kiisti": 7214,
      "pääministerin": 7215,
      "palki": 7216,
      "##töön": 7217,
      "kaikkein": 7218,
      "hidas": 7219,
      "##varti": 7220,
      "yhdysvaltalais": 7221,
      "torstain": 7222,
      "luonne": 7223,
      "purka": 7224,
      "##hallituksen": 7225,
      "äärioike": 7226,
      "huhtikuuta": 7227,
      "virtanen": 7228,
      "psyko": 7229,
      "glob": 7230,
      "out": 7231,
      "otetaan": 7232,
      "##jari": 7233,
      "##yp": 7234,
      "##hah": 7235,
      "robert": 7236,
      "eläke": 7237,
      "välissä": 7238,
      "yllätyks": 7239,
      "saaneensa": 7240,
      "tiedetään": 7241,
      "pitämään": 7242,
      "nykyisen": 7243,
      "##ilemaan": 7244,
      "pärmä": 7245,
      "##asiassa": 7246,
      "##liigassa": 7247,
      "rahoitus": 7248,
      "ketään": 7249,
      "mys": 7250,
      "##mun": 7251,
      "##täminen": 7252,
      "##ule": 7253,
      "kovan": 7254,
      "##mmille": 7255,
      "##viikon": 7256,
      "kimmo": 7257,
      "##tyksiä": 7258,
      "keksi": 7259,
      "leviä": 7260,
      "helsinkilä": 7261,
      "koulutus": 7262,
      "unit": 7263,
      "##järvellä": 7264,
      "times": 7265,
      "onnettomuudessa": 7266,
      "korjaus": 7267,
      "sisältää": 7268,
      "kuolin": 7269,
      "##piteitä": 7270,
      "osittain": 7271,
      "58": 7272,
      "bis": 7273,
      "##kise": 7274,
      "##tuk": 7275,
      "##ret": 7276,
      "##30": 7277,
      "##ttinä": 7278,
      "kuunn": 7279,
      "samu": 7280,
      "suoras": 7281,
      "##ttavaa": 7282,
      "sanom": 7283,
      "valti": 7284,
      "##misti": 7285,
      "parkki": 7286,
      "##valmentaja": 7287,
      "menossa": 7288,
      "tunnelma": 7289,
      "kunnian": 7290,
      "säily": 7291,
      "puolustusvoimien": 7292,
      "asuva": 7293,
      "herättää": 7294,
      "olleensa": 7295,
      "lonto": 7296,
      "valitettavasti": 7297,
      "autta": 7298,
      "##sista": 7299,
      "##sissa": 7300,
      "##llassa": 7301,
      "##eraan": 7302,
      "##ikos": 7303,
      "##oil": 7304,
      "##ttelyyn": 7305,
      "hein": 7306,
      "puolan": 7307,
      "##pät": 7308,
      "hallinn": 7309,
      "autoja": 7310,
      "##massaan": 7311,
      "##verta": 7312,
      "määri": 7313,
      "ulkopuolelle": 7314,
      "tarkoitta": 7315,
      "nuoren": 7316,
      "nousu": 7317,
      "alkua": 7318,
      "räj": 7319,
      "onnettomuuden": 7320,
      "ennakoi": 7321,
      "huomasi": 7322,
      "##rakenn": 7323,
      "fanit": 7324,
      "mielenosoitta": 7325,
      "vornanen": 7326,
      "##liikenteen": 7327,
      "arab": 7328,
      "esin": 7329,
      "##otan": 7330,
      "##tosen": 7331,
      "kaveri": 7332,
      "satoja": 7333,
      "lakie": 7334,
      "koskela": 7335,
      "montre": 7336,
      "tyl": 7337,
      "ehdokka": 7338,
      "uudesta": 7339,
      "valittu": 7340,
      "##ffi": 7341,
      "manch": 7342,
      "ruotsalainen": 7343,
      "selvityksen": 7344,
      "katastro": 7345,
      "hurrikaan": 7346,
      "varapresidentti": 7347,
      "##th": 7348,
      "##yleis": 7349,
      "##ikop": 7350,
      "joon": 7351,
      "alkan": 7352,
      "alkuun": 7353,
      "suih": 7354,
      "pelkää": 7355,
      "kokouksessa": 7356,
      "tiistain": 7357,
      "tilalle": 7358,
      "myönte": 7359,
      "pahasti": 7360,
      "##mätön": 7361,
      "85": 7362,
      "jer": 7363,
      "penn": 7364,
      "##ottelu": 7365,
      "##pyyn": 7366,
      "joki": 7367,
      "häneltä": 7368,
      "rahan": 7369,
      "##jäsen": 7370,
      "##toimitta": 7371,
      "##kkara": 7372,
      "##dat": 7373,
      "huolehti": 7374,
      "selkä": 7375,
      "merkki": 7376,
      "tapahtumista": 7377,
      "pelaajan": 7378,
      "holl": 7379,
      "pientä": 7380,
      "pienempi": 7381,
      "##terin": 7382,
      "säästä": 7383,
      "kenti": 7384,
      "pariskunnan": 7385,
      "miljardin": 7386,
      "ulkomailla": 7387,
      "mielenosoit": 7388,
      "rehe": 7389,
      "56": 7390,
      "iku": 7391,
      "kyyd": 7392,
      "##mela": 7393,
      "##ukes": 7394,
      "vatsa": 7395,
      "maja": 7396,
      "myöhään": 7397,
      "levy": 7398,
      "##voiton": 7399,
      "pysäkö": 7400,
      "##hallitus": 7401,
      "neuvottelu": 7402,
      "barkov": 7403,
      "brasi": 7404,
      "puolivälierä": 7405,
      "##sten": 7406,
      "##siä": 7407,
      "##oid": 7408,
      "##ukseksi": 7409,
      "##lat": 7410,
      "##laus": 7411,
      "##mpu": 7412,
      "poten": 7413,
      "##eellisesti": 7414,
      "tilin": 7415,
      "kanssaan": 7416,
      "ulkona": 7417,
      "opin": 7418,
      "studi": 7419,
      "muutamia": 7420,
      "##ttelemään": 7421,
      "kysyttiin": 7422,
      "katsomaan": 7423,
      "valita": 7424,
      "##hypp": 7425,
      "järjestön": 7426,
      "normaali": 7427,
      "lajin": 7428,
      "leijonat": 7429,
      "meghan": 7430,
      "puolivälissä": 7431,
      "mv": 7432,
      "##oli": 7433,
      "##ylä": 7434,
      "##ble": 7435,
      "##ikul": 7436,
      "##osu": 7437,
      "##ytyksen": 7438,
      "käsin": 7439,
      "##otos": 7440,
      "mitali": 7441,
      "##hamin": 7442,
      "##kkään": 7443,
      "viimeistään": 7444,
      "kysyy": 7445,
      "vesa": 7446,
      "vaihtaa": 7447,
      "kuukaudessa": 7448,
      "##tynä": 7449,
      "britti": 7450,
      "loimaan": 7451,
      "itsenäisyys": 7452,
      "jukur": 7453,
      "bur": 7454,
      "##syy": 7455,
      "##elman": 7456,
      "##tälle": 7457,
      "journ": 7458,
      "##kella": 7459,
      "tarken": 7460,
      "##omo": 7461,
      "kuulunut": 7462,
      "kenttä": 7463,
      "uskoa": 7464,
      "palvelun": 7465,
      "elokuvassa": 7466,
      "##puoli": 7467,
      "vanhempien": 7468,
      "voimakkaasti": 7469,
      "helmikuuta": 7470,
      "##koulun": 7471,
      "presidentinvaalien": 7472,
      "jarr": 7473,
      "tiedottaja": 7474,
      "kääri": 7475,
      "colora": 7476,
      "za": 7477,
      "##detta": 7478,
      "##ft": 7479,
      "##tiossa": 7480,
      "kakso": 7481,
      "##mmun": 7482,
      "pelissä": 7483,
      "kemp": 7484,
      "##lleensa": 7485,
      "loun": 7486,
      "##kseni": 7487,
      "yhteinen": 7488,
      "sijalla": 7489,
      "hankke": 7490,
      "kenen": 7491,
      "##kuljetta": 7492,
      "muotoi": 7493,
      "rinne": 7494,
      "rangaistus": 7495,
      "liikennet": 7496,
      "meteorologi": 7497,
      "bio": 7498,
      "jesse": 7499,
      "lar": 7500,
      "mia": 7501,
      "##taso": 7502,
      "##usu": 7503,
      "kouvo": 7504,
      "suz": 7505,
      "##tonbla": 7506,
      "luva": 7507,
      "##ling": 7508,
      "yhteys": 7509,
      "syyte": 7510,
      "##chen": 7511,
      "riittävästi": 7512,
      "viettää": 7513,
      "tarvetta": 7514,
      "tanskan": 7515,
      "mahdollisuuksia": 7516,
      "##miehet": 7517,
      "fors": 7518,
      "aftonbla": 7519,
      "maaliskuuta": 7520,
      "kutsui": 7521,
      "##yhteis": 7522,
      "parantaa": 7523,
      "##ukkaat": 7524,
      "slova": 7525,
      "ilmastonmuut": 7526,
      "700": 7527,
      "sula": 7528,
      "testi": 7529,
      "##kitse": 7530,
      "##vyyttä": 7531,
      "##ppaan": 7532,
      "##kaver": 7533,
      "##unda": 7534,
      "kove": 7535,
      "kotio": 7536,
      "pomm": 7537,
      "##käytö": 7538,
      "näytö": 7539,
      "nappasi": 7540,
      "menestys": 7541,
      "##hinta": 7542,
      "monim": 7543,
      "kuulustel": 7544,
      "kunnon": 7545,
      "voisivat": 7546,
      "menetti": 7547,
      "lähetys": 7548,
      "uudella": 7549,
      "##cke": 7550,
      "##ze": 7551,
      "##utiin": 7552,
      "##uraa": 7553,
      "taksi": 7554,
      "kiri": 7555,
      "##ikoista": 7556,
      "tapahtumat": 7557,
      "yleinen": 7558,
      "todellinen": 7559,
      "joukkuetta": 7560,
      "palautetta": 7561,
      "neljäs": 7562,
      "venäläiset": 7563,
      "kahteen": 7564,
      "liikenteen": 7565,
      "hahmo": 7566,
      "henkiriko": 7567,
      "veikkaus": 7568,
      "potenti": 7569,
      "bussi": 7570,
      "meh": 7571,
      "##östä": 7572,
      "##tterin": 7573,
      "##itään": 7574,
      "##vaiheessa": 7575,
      "jolle": 7576,
      "aloittanut": 7577,
      "##neuvo": 7578,
      "##otuo": 7579,
      "##oog": 7580,
      "##telua": 7581,
      "##keni": 7582,
      "##merellä": 7583,
      "##ytty": 7584,
      "markkanen": 7585,
      "rive": 7586,
      "##dässä": 7587,
      "toteutta": 7588,
      "täältä": 7589,
      "haaviston": 7590,
      "parlamentin": 7591,
      "liikkeelle": 7592,
      "toyota": 7593,
      "les": 7594,
      "##erissä": 7595,
      "jalan": 7596,
      "savon": 7597,
      "maissa": 7598,
      "##kär": 7599,
      "paper": 7600,
      "##mmäksi": 7601,
      "koneen": 7602,
      "hetke": 7603,
      "tammikuuta": 7604,
      "saarinen": 7605,
      "florida": 7606,
      "öljy": 7607,
      "europar": 7608,
      "vihdoin": 7609,
      "united": 7610,
      "bla": 7611,
      "chi": 7612,
      "suu": 7613,
      "tytö": 7614,
      "##tk": 7615,
      "##sh": 7616,
      "##asu": 7617,
      "kaisa": 7618,
      "vamma": 7619,
      "sate": 7620,
      "##valvon": 7621,
      "yhdellä": 7622,
      "##ojaan": 7623,
      "useiden": 7624,
      "hollan": 7625,
      "vaihde": 7626,
      "hirveä": 7627,
      "maksoi": 7628,
      "##könen": 7629,
      "tuomioistu": 7630,
      "tiedotustilaisuudessa": 7631,
      "patrik": 7632,
      "##kisi": 7633,
      "##mula": 7634,
      "##ttyy": 7635,
      "##kian": 7636,
      "##leikka": 7637,
      "sijoitta": 7638,
      "maise": 7639,
      "##joissa": 7640,
      "##estarin": 7641,
      "keskit": 7642,
      "millään": 7643,
      "toive": 7644,
      "##eha": 7645,
      "edeltä": 7646,
      "korh": 7647,
      "lemp": 7648,
      "päivinä": 7649,
      "into": 7650,
      "merkin": 7651,
      "käytä": 7652,
      "julkaistiin": 7653,
      "suurimman": 7654,
      "mahdollisuutta": 7655,
      "surma": 7656,
      "heinäkuun": 7657,
      "kahdessa": 7658,
      "tuomari": 7659,
      "päivityksessä": 7660,
      "ek": 7661,
      "eks": 7662,
      "eikö": 7663,
      "nö": 7664,
      "##voa": 7665,
      "##viksi": 7666,
      "##sul": 7667,
      "##llessaan": 7668,
      "##etys": 7669,
      "kaul": 7670,
      "##lauta": 7671,
      "lahden": 7672,
      "pohd": 7673,
      "päättänyt": 7674,
      "hev": 7675,
      "hedel": 7676,
      "##ettavissa": 7677,
      "kertoja": 7678,
      "##ilaisen": 7679,
      "sanottu": 7680,
      "todellisuudessa": 7681,
      "miljoona": 7682,
      "loppua": 7683,
      "edustaa": 7684,
      "##mpär": 7685,
      "kolmann": 7686,
      "kasvu": 7687,
      "manchester": 7688,
      "soitta": 7689,
      "##tait": 7690,
      "##ith": 7691,
      "satu": 7692,
      "##tyvät": 7693,
      "autosta": 7694,
      "##tteisiin": 7695,
      "osana": 7696,
      "perustuu": 7697,
      "##koil": 7698,
      "lukuun": 7699,
      "huomion": 7700,
      "##kköä": 7701,
      "havaittu": 7702,
      "herätti": 7703,
      "saapunut": 7704,
      "suunniteltu": 7705,
      "kappale": 7706,
      "reutersin": 7707,
      "vauhtia": 7708,
      "naurahtaa": 7709,
      "con": 7710,
      "##ikaan": 7711,
      "##ey": 7712,
      "##tisi": 7713,
      "##inaa": 7714,
      "##essen": 7715,
      "##ttäisiin": 7716,
      "kate": 7717,
      "energi": 7718,
      "kiur": 7719,
      "pahe": 7720,
      "tullaan": 7721,
      "kaikesta": 7722,
      "uutinen": 7723,
      "päätöksiä": 7724,
      "palata": 7725,
      "jatkuvat": 7726,
      "unkarin": 7727,
      "ainut": 7728,
      "##paikalle": 7729,
      "perussuomalaiset": 7730,
      "ydinas": 7731,
      "johtuu": 7732,
      "arvosta": 7733,
      "musiikkia": 7734,
      "show": 7735,
      "est": 7736,
      "##kyn": 7737,
      "##sän": 7738,
      "##malta": 7739,
      "##cia": 7740,
      "##tavat": 7741,
      "##istuksen": 7742,
      "##pahtu": 7743,
      "##llisista": 7744,
      "maasta": 7745,
      "##udin": 7746,
      "osasto": 7747,
      "autoon": 7748,
      "##ttomuus": 7749,
      "suhtee": 7750,
      "ehdottomasti": 7751,
      "2008": 7752,
      "keskiviikon": 7753,
      "news": 7754,
      "poliittinen": 7755,
      "##isyyden": 7756,
      "reilun": 7757,
      "valmistu": 7758,
      "huonosti": 7759,
      "pääsevät": 7760,
      "kaarinan": 7761,
      "nieminen": 7762,
      "ajassa": 7763,
      "hus": 7764,
      "has": 7765,
      "kuiva": 7766,
      "miet": 7767,
      "palon": 7768,
      "tuonut": 7769,
      "luopu": 7770,
      "vankil": 7771,
      "osoi": 7772,
      "##näki": 7773,
      "äänest": 7774,
      "välisenä": 7775,
      "##palo": 7776,
      "ajaksi": 7777,
      "tavallista": 7778,
      "äärijärjestö": 7779,
      "yritysten": 7780,
      "georg": 7781,
      "silminnäki": 7782,
      "pärjää": 7783,
      "forecan": 7784,
      "mana": 7785,
      "##uel": 7786,
      "##gor": 7787,
      "##tellen": 7788,
      "##kesi": 7789,
      "kiir": 7790,
      "##hake": 7791,
      "napa": 7792,
      "senttiä": 7793,
      "helena": 7794,
      "turvaa": 7795,
      "laskee": 7796,
      "paikassa": 7797,
      "ottamatta": 7798,
      "##turva": 7799,
      "leikkaus": 7800,
      "vaikutuksia": 7801,
      "vähentää": 7802,
      "##matonta": 7803,
      "finaaliin": 7804,
      "niemi": 7805,
      "osti": 7806,
      "vyö": 7807,
      "koho": 7808,
      "##logi": 7809,
      "ihas": 7810,
      "taide": 7811,
      "markus": 7812,
      "oikeutta": 7813,
      "prot": 7814,
      "sari": 7815,
      "määrin": 7816,
      "prosenttiin": 7817,
      "johtajan": 7818,
      "##umach": 7819,
      "jotenkin": 7820,
      "etenee": 7821,
      "parhaiten": 7822,
      "david": 7823,
      "yhtäkkiä": 7824,
      "##korva": 7825,
      "##järjestelmän": 7826,
      "nimeä": 7827,
      "korjattu": 7828,
      "ambul": 7829,
      "schumach": 7830,
      "ambulans": 7831,
      "kovasti": 7832,
      "sei": 7833,
      "käyttänyt": 7834,
      "anti": 7835,
      "autossa": 7836,
      "miltä": 7837,
      "kentällä": 7838,
      "venäläisten": 7839,
      "kysymyksiä": 7840,
      "lokakuun": 7841,
      "##järjestelmä": 7842,
      "tyhjen": 7843,
      "1980": 7844,
      "päivittäin": 7845,
      "sukupuol": 7846,
      "iloinen": 7847,
      "tarvittaessa": 7848,
      "61": 7849,
      "berg": 7850,
      "gi": 7851,
      "##umaan": 7852,
      "##kaar": 7853,
      "##utuksia": 7854,
      "talli": 7855,
      "näe": 7856,
      "##ppiin": 7857,
      "koste": 7858,
      "talossa": 7859,
      "epäonnist": 7860,
      "vaikuttanut": 7861,
      "hull": 7862,
      "saapuu": 7863,
      "millainen": 7864,
      "päivitetty": 7865,
      "prosenttiyksi": 7866,
      "kenties": 7867,
      "cor": 7868,
      "doping": 7869,
      "##lossa": 7870,
      "##ysi": 7871,
      "##simme": 7872,
      "##oillaan": 7873,
      "##ukon": 7874,
      "##eett": 7875,
      "iskussa": 7876,
      "##isinä": 7877,
      "nolla": 7878,
      "##uriin": 7879,
      "##päivys": 7880,
      "herm": 7881,
      "arvio": 7882,
      "ajatella": 7883,
      "valtaosa": 7884,
      "raskaan": 7885,
      "vietiin": 7886,
      "joukkueessa": 7887,
      "aamupäi": 7888,
      "markkina": 7889,
      "useamman": 7890,
      "kuluttua": 7891,
      "helenius": 7892,
      "asianaja": 7893,
      "ama": 7894,
      "aku": 7895,
      "ruut": 7896,
      "##lie": 7897,
      "kovia": 7898,
      "##mmas": 7899,
      "seikka": 7900,
      "sillo": 7901,
      "##tuin": 7902,
      "##demo": 7903,
      "hevonen": 7904,
      "jälke": 7905,
      "katson": 7906,
      "jäävät": 7907,
      "ohjus": 7908,
      "##utumis": 7909,
      "lehtik": 7910,
      "kanad": 7911,
      "viihde": 7912,
      "järjestet": 7913,
      "ahon": 7914,
      "raportoi": 7915,
      "mihinkään": 7916,
      "lämpötilat": 7917,
      "facebook": 7918,
      "##häiriö": 7919,
      "evan": 7920,
      "gp": 7921,
      "thl": 7922,
      "##mossa": 7923,
      "##jilla": 7924,
      "##cel": 7925,
      "##dor": 7926,
      "##tek": 7927,
      "##keh": 7928,
      "##laitt": 7929,
      "niille": 7930,
      "varhan": 7931,
      "harvoin": 7932,
      "kulku": 7933,
      "ylimäärä": 7934,
      "rich": 7935,
      "henkilöitä": 7936,
      "tukee": 7937,
      "töissä": 7938,
      "pyyt": 7939,
      "##tekijä": 7940,
      "paikkansa": 7941,
      "##tuotta": 7942,
      "##mattoman": 7943,
      "alijää": 7944,
      "joonas": 7945,
      "etten": 7946,
      "gro": 7947,
      "she": 7948,
      "##lyn": 7949,
      "##salo": 7950,
      "##eriko": 7951,
      "jauh": 7952,
      "##istunut": 7953,
      "kaukana": 7954,
      "##paine": 7955,
      "lähelle": 7956,
      "tarjon": 7957,
      "tulleet": 7958,
      "vaaranta": 7959,
      "koros": 7960,
      "syistä": 7961,
      "##tteista": 7962,
      "otteluun": 7963,
      "##ttömiä": 7964,
      "keskiviikko": 7965,
      "haluamme": 7966,
      "ampui": 7967,
      "myymä": 7968,
      "##aseman": 7969,
      "pisteet": 7970,
      "tapahtuneen": 7971,
      "erikseen": 7972,
      "toisiaan": 7973,
      "ori": 7974,
      "##aseen": 7975,
      "joutun": 7976,
      "jokinen": 7977,
      "katto": 7978,
      "##torin": 7979,
      "##lamenta": 7980,
      "topi": 7981,
      "olevien": 7982,
      "hym": 7983,
      "##ttomia": 7984,
      "liiketoimin": 7985,
      "toiminnasta": 7986,
      "hanka": 7987,
      "syntyy": 7988,
      "loppup": 7989,
      "häirit": 7990,
      "petri": 7991,
      "jänni": 7992,
      "resur": 7993,
      "diagn": 7994,
      "pääkaupunkise": 7995,
      "ollenkaan": 7996,
      "sebastian": 7997,
      "miss": 7998,
      "uta": 7999,
      "##ryn": 8000,
      "##pui": 8001,
      "##isel": 8002,
      "##iseltä": 8003,
      "##äneensä": 8004,
      "##jamin": 8005,
      "##mian": 8006,
      "suojaa": 8007,
      "näyttö": 8008,
      "##valmenta": 8009,
      "##olin": 8010,
      "syytö": 8011,
      "lisätty": 8012,
      "här": 8013,
      "kärpät": 8014,
      "seurata": 8015,
      "vastaavan": 8016,
      "asiantuntijat": 8017,
      "kahdella": 8018,
      "maaliskuun": 8019,
      "näyttävät": 8020,
      "rahat": 8021,
      "presidenttiehdokas": 8022,
      "madri": 8023,
      "olympiakomitean": 8024,
      "id": 8025,
      "tui": 8026,
      "war": 8027,
      "west": 8028,
      "##kri": 8029,
      "##uttaja": 8030,
      "sab": 8031,
      "raju": 8032,
      "voimme": 8033,
      "toipu": 8034,
      "varas": 8035,
      "vast": 8036,
      "kyyn": 8037,
      "##kans": 8038,
      "koski": 8039,
      "reak": 8040,
      "##yttämään": 8041,
      "maailma": 8042,
      "muutosta": 8043,
      "hetk": 8044,
      "vaihtele": 8045,
      "espoo": 8046,
      "haastattele": 8047,
      "epäiltynä": 8048,
      "joulukuun": 8049,
      "rikosko": 8050,
      "##rikos": 8051,
      "stadion": 8052,
      "merkitys": 8053,
      "vuodeksi": 8054,
      "hizbollah": 8055,
      "aggressi": 8056,
      "ennalta": 8057,
      "kommentoinut": 8058,
      "puljujärvi": 8059,
      "tše": 8060,
      "avar": 8061,
      "fut": 8062,
      "veli": 8063,
      "##jilta": 8064,
      "##inut": 8065,
      "##kadun": 8066,
      "täyttää": 8067,
      "tour": 8068,
      "jättänyt": 8069,
      "paine": 8070,
      "##netty": 8071,
      "pelä": 8072,
      "paremm": 8073,
      "osapuol": 8074,
      "##merkki": 8075,
      "autot": 8076,
      "kirkon": 8077,
      "erää": 8078,
      "roko": 8079,
      "kaksikon": 8080,
      "koulussa": 8081,
      "putoa": 8082,
      "volo": 8083,
      "torstai": 8084,
      "roolissa": 8085,
      "sijaitseva": 8086,
      "päivystävä": 8087,
      "lohko": 8088,
      "kritisoi": 8089,
      "australi": 8090,
      "kin": 8091,
      "##itiin": 8092,
      "##tolan": 8093,
      "sadan": 8094,
      "##eellis": 8095,
      "##neuvos": 8096,
      "tuotteita": 8097,
      "esittä": 8098,
      "##vaati": 8099,
      "helppoa": 8100,
      "tehop": 8101,
      "inti": 8102,
      "kirsi": 8103,
      "##ttejä": 8104,
      "kaatoi": 8105,
      "arvioida": 8106,
      "##tilanteessa": 8107,
      "afr": 8108,
      "tiennyt": 8109,
      "tekni": 8110,
      "kaune": 8111,
      "annetaan": 8112,
      "parlamentti": 8113,
      "maanantai": 8114,
      "testaa": 8115,
      "analys": 8116,
      "kaudeksi": 8117,
      "expressen": 8118,
      "##demokraa": 8119,
      "kän": 8120,
      "neste": 8121,
      "##ez": 8122,
      "##jistä": 8123,
      "##95": 8124,
      "##istui": 8125,
      "johdo": 8126,
      "##säh": 8127,
      "kuussa": 8128,
      "olevia": 8129,
      "##oten": 8130,
      "##omer": 8131,
      "##lämpö": 8132,
      "##valmista": 8133,
      "monella": 8134,
      "##piiri": 8135,
      "##ulais": 8136,
      "heitti": 8137,
      "##päällik": 8138,
      "gall": 8139,
      "vaihd": 8140,
      "bru": 8141,
      "alueelta": 8142,
      "useampi": 8143,
      "mestarien": 8144,
      "yleisradio": 8145,
      "64": 8146,
      "nar": 8147,
      "##llaa": 8148,
      "##eskel": 8149,
      "siiv": 8150,
      "##millä": 8151,
      "##taansa": 8152,
      "##ttavat": 8153,
      "sanat": 8154,
      "para": 8155,
      "aseen": 8156,
      "riih": 8157,
      "perusteli": 8158,
      "keho": 8159,
      "helsinkiin": 8160,
      "uutisia": 8161,
      "kaava": 8162,
      "##istelu": 8163,
      "mitenkään": 8164,
      "##puolue": 8165,
      "jatkui": 8166,
      "rikoksista": 8167,
      "##iläinen": 8168,
      "pelic": 8169,
      "mikkola": 8170,
      "areenan": 8171,
      "syttyi": 8172,
      "harkimo": 8173,
      "verstappen": 8174,
      "teen": 8175,
      "##nessä": 8176,
      "##we": 8177,
      "##énin": 8178,
      "##ilo": 8179,
      "##uransa": 8180,
      "tappa": 8181,
      "kio": 8182,
      "##dell": 8183,
      "##ttelusta": 8184,
      "ilmaan": 8185,
      "##tela": 8186,
      "viimeisi": 8187,
      "edestä": 8188,
      "kevät": 8189,
      "##ittaja": 8190,
      "piis": 8191,
      "hill": 8192,
      "##kunsa": 8193,
      "avun": 8194,
      "ymmärrä": 8195,
      "tulevaisuuden": 8196,
      "vakuutus": 8197,
      "vaikutusta": 8198,
      "benjamin": 8199,
      "kotonaan": 8200,
      "teatter": 8201,
      "suorana": 8202,
      "lindtman": 8203,
      "##lamentaar": 8204,
      "cit": 8205,
      "ruud": 8206,
      "##vyt": 8207,
      "##utia": 8208,
      "kali": 8209,
      "vauva": 8210,
      "sijoit": 8211,
      "laitos": 8212,
      "##tumisen": 8213,
      "maksan": 8214,
      "varoittaa": 8215,
      "arto": 8216,
      "esitteli": 8217,
      "tunnusta": 8218,
      "##aalassa": 8219,
      "##tuneita": 8220,
      "äänesti": 8221,
      "ihmisille": 8222,
      "##mara": 8223,
      "2005": 8224,
      "järjestetty": 8225,
      "rikoksen": 8226,
      "kolmos": 8227,
      "hiihtä": 8228,
      "hirve": 8229,
      "yöllä": 8230,
      "hoide": 8231,
      "kuuli": 8232,
      "parisuh": 8233,
      "tuoreessa": 8234,
      "puheenjohtajana": 8235,
      "tutkimuksessa": 8236,
      "kehitty": 8237,
      "arvonlisä": 8238,
      "##photos": 8239,
      "hannu": 8240,
      "hybridi": 8241,
      "##siantuntija": 8242,
      "mvphotos": 8243,
      "62": 8244,
      "74": 8245,
      "app": 8246,
      "jere": 8247,
      "ok": 8248,
      "rön": 8249,
      "##moa": 8250,
      "##rk": 8251,
      "##ish": 8252,
      "##llessa": 8253,
      "##utkin": 8254,
      "tommi": 8255,
      "##joella": 8256,
      "kerännyt": 8257,
      "rasi": 8258,
      "##oitui": 8259,
      "##vaaran": 8260,
      "##mmälle": 8261,
      "syrj": 8262,
      "hyvinkin": 8263,
      "mahdollisia": 8264,
      "julkista": 8265,
      "elisa": 8266,
      "kokemusta": 8267,
      "pohjoisma": 8268,
      "rankka": 8269,
      "löydettiin": 8270,
      "perheensä": 8271,
      "bay": 8272,
      "huhtikuun": 8273,
      "rakennuksen": 8274,
      "investoin": 8275,
      "viestejä": 8276,
      "53": 8277,
      "junn": 8278,
      "äly": 8279,
      "##kaista": 8280,
      "##maksu": 8281,
      "mail": 8282,
      "iloit": 8283,
      "##otusta": 8284,
      "##rann": 8285,
      "##velle": 8286,
      "korosti": 8287,
      "häkkänen": 8288,
      "##johtajana": 8289,
      "miell": 8290,
      "##udelle": 8291,
      "##kkeja": 8292,
      "nykyistä": 8293,
      "finna": 8294,
      "tasolle": 8295,
      "käyttäjä": 8296,
      "avusta": 8297,
      "brän": 8298,
      "kappaleen": 8299,
      "näkynyt": 8300,
      "##mppuun": 8301,
      "rovaniemellä": 8302,
      "miehelle": 8303,
      "pinta": 8304,
      "##pun": 8305,
      "##öt": 8306,
      "##talia": 8307,
      "##istänyt": 8308,
      "##koista": 8309,
      "kup": 8310,
      "sali": 8311,
      "kangas": 8312,
      "palkan": 8313,
      "##olosuh": 8314,
      "netan": 8315,
      "monin": 8316,
      "##tiola": 8317,
      "veti": 8318,
      "kansallisen": 8319,
      "vahve": 8320,
      "##hii": 8321,
      "puolia": 8322,
      "rikosta": 8323,
      "toisena": 8324,
      "menevät": 8325,
      "erilainen": 8326,
      "kuolemaan": 8327,
      "paavo": 8328,
      "victo": 8329,
      "auringon": 8330,
      "kaksois": 8331,
      "lehtikuva": 8332,
      "72": 8333,
      "bus": 8334,
      "##destä": 8335,
      "##isse": 8336,
      "##kamer": 8337,
      "##istuu": 8338,
      "##kohtia": 8339,
      "kaks": 8340,
      "persoon": 8341,
      "peliin": 8342,
      "##udestaan": 8343,
      "##yksenä": 8344,
      "leikkaa": 8345,
      "turkin": 8346,
      "nokia": 8347,
      "syyrian": 8348,
      "äänistä": 8349,
      "seuraavat": 8350,
      "yllätti": 8351,
      "käytön": 8352,
      "eurooppa": 8353,
      "yrittänyt": 8354,
      "valtavan": 8355,
      "ikäluo": 8356,
      "puutar": 8357,
      "kokonaisuudessa": 8358,
      "huippuko": 8359,
      "oppositio": 8360,
      "##pöy": 8361,
      "##ttäneen": 8362,
      "suurlähe": 8363,
      "kremlin": 8364,
      "95": 8365,
      "nba": 8366,
      "##ympär": 8367,
      "##bor": 8368,
      "kop": 8369,
      "##hdet": 8370,
      "##assaan": 8371,
      "##opo": 8372,
      "##delle": 8373,
      "kannan": 8374,
      "##ppe": 8375,
      "##otul": 8376,
      "hyunda": 8377,
      "leikki": 8378,
      "##verin": 8379,
      "ehdokkaan": 8380,
      "räik": 8381,
      "väkivaltaa": 8382,
      "aikoinaan": 8383,
      "sisar": 8384,
      "hirvi": 8385,
      "##kymmentä": 8386,
      "löytänyt": 8387,
      "latvala": 8388,
      "floridan": 8389,
      "tärkeintä": 8390,
      "vastannut": 8391,
      "kolleg": 8392,
      "ilveksen": 8393,
      "konkurssi": 8394,
      "lp": 8395,
      "tyn": 8396,
      "##suh": 8397,
      "##rissa": 8398,
      "##ukilpail": 8399,
      "tayl": 8400,
      "##kuur": 8401,
      "ensisi": 8402,
      "kerralla": 8403,
      "##käs": 8404,
      "pelit": 8405,
      "varti": 8406,
      "tiuk": 8407,
      "anni": 8408,
      "inde": 8409,
      "perustelee": 8410,
      "syytteet": 8411,
      "ylelle": 8412,
      "##vero": 8413,
      "kyseisen": 8414,
      "##vuosi": 8415,
      "pyri": 8416,
      "ongelmat": 8417,
      "irlan": 8418,
      "raaka": 8419,
      "muse": 8420,
      "iskuja": 8421,
      "inflaa": 8422,
      "valiokunnan": 8423,
      "lla": 8424,
      "pre": 8425,
      "rup": 8426,
      "risto": 8427,
      "toni": 8428,
      "##vaihe": 8429,
      "kuvi": 8430,
      "suori": 8431,
      "##joki": 8432,
      "##nettiin": 8433,
      "varoit": 8434,
      "##rov": 8435,
      "##menna": 8436,
      "nega": 8437,
      "kolar": 8438,
      "ottelusta": 8439,
      "moder": 8440,
      "takavar": 8441,
      "##järjestön": 8442,
      "##isyydessä": 8443,
      "helmikuun": 8444,
      "muodosta": 8445,
      "palkinnon": 8446,
      "jatkossakin": 8447,
      "ollessa": 8448,
      "juuso": 8449,
      "havaintoja": 8450,
      "varmistaa": 8451,
      "tapio": 8452,
      "vastustaja": 8453,
      "fri": 8454,
      "##ksä": 8455,
      "##gu": 8456,
      "##itystä": 8457,
      "##uky": 8458,
      "##iltaan": 8459,
      "kauko": 8460,
      "##leista": 8461,
      "sillan": 8462,
      "paikkoja": 8463,
      "ilkka": 8464,
      "aseita": 8465,
      "tehot": 8466,
      "monien": 8467,
      "hyvässä": 8468,
      "kehys": 8469,
      "linjaa": 8470,
      "##annin": 8471,
      "##tyivät": 8472,
      "##tarv": 8473,
      "lähettä": 8474,
      "laineen": 8475,
      "rikoksesta": 8476,
      "tilaisuudessa": 8477,
      "mahdollisuuden": 8478,
      "pääsiä": 8479,
      "virallisesti": 8480,
      "oireita": 8481,
      "kit": 8482,
      "##epä": 8483,
      "##tz": 8484,
      "jazz": 8485,
      "##mahdo": 8486,
      "##kselta": 8487,
      "raita": 8488,
      "##otuksen": 8489,
      "pelotta": 8490,
      "sodassa": 8491,
      "##yhty": 8492,
      "luona": 8493,
      "norjala": 8494,
      "johtanut": 8495,
      "murhan": 8496,
      "##suunnitel": 8497,
      "huume": 8498,
      "joitakin": 8499,
      "työskenteli": 8500,
      "tammikuun": 8501,
      "malti": 8502,
      "minuutilla": 8503,
      "windo": 8504,
      "volody": 8505,
      "netanja": 8506,
      "ensisija": 8507,
      "negatiiv": 8508,
      "assa": 8509,
      "kinn": 8510,
      "sss": 8511,
      "##yri": 8512,
      "##istinen": 8513,
      "koea": 8514,
      "vuok": 8515,
      "##oinnin": 8516,
      "tuloksia": 8517,
      "##ettaisiin": 8518,
      "tulle": 8519,
      "sofia": 8520,
      "helikop": 8521,
      "mara": 8522,
      "lemm": 8523,
      "henk": 8524,
      "##perhe": 8525,
      "poliisilla": 8526,
      "asiakir": 8527,
      "kehuu": 8528,
      "juokse": 8529,
      "videoita": 8530,
      "kalevan": 8531,
      "ikävä": 8532,
      "unelma": 8533,
      "##oksesta": 8534,
      "venäläinen": 8535,
      "käännytys": 8536,
      "vanhempi": 8537,
      "syntymä": 8538,
      "libanonin": 8539,
      "luonnollisesti": 8540,
      "hizbollahin": 8541,
      "ette": 8542,
      "hinn": 8543,
      "kg": 8544,
      "##ikir": 8545,
      "##uno": 8546,
      "##altaan": 8547,
      "johdon": 8548,
      "##lee": 8549,
      "##ksestä": 8550,
      "radi": 8551,
      "##kyv": 8552,
      "edmon": 8553,
      "##elleet": 8554,
      "reiss": 8555,
      "##velvo": 8556,
      "tapahtua": 8557,
      "olenna": 8558,
      "juhani": 8559,
      "nuorena": 8560,
      "##kkaaksi": 8561,
      "joukkojen": 8562,
      "brys": 8563,
      "saatavilla": 8564,
      "maanantain": 8565,
      "##yhdistyksen": 8566,
      "muusikko": 8567,
      "volodymyr": 8568,
      "agen": 8569,
      "ovet": 8570,
      "rehto": 8571,
      "soin": 8572,
      "tre": 8573,
      "veh": 8574,
      "##ons": 8575,
      "##liikke": 8576,
      "##ttimet": 8577,
      "siivo": 8578,
      "enemmistö": 8579,
      "maksi": 8580,
      "kimppuun": 8581,
      "rajaa": 8582,
      "##kästi": 8583,
      "##ttamaan": 8584,
      "tarvin": 8585,
      "##maat": 8586,
      "talv": 8587,
      "ääntä": 8588,
      "sarjaa": 8589,
      "kohteena": 8590,
      "##itoista": 8591,
      "##isuuksia": 8592,
      "käsikir": 8593,
      "uhre": 8594,
      "panssa": 8595,
      "rauhassa": 8596,
      "sosiaalit": 8597,
      "työntekijät": 8598,
      "työskentelee": 8599,
      "reser": 8600,
      "karsinta": 8601,
      "sport": 8602,
      "kanerva": 8603,
      "legendaa": 8604,
      "elle": 8605,
      "oil": 8606,
      "pitt": 8607,
      "ryd": 8608,
      "##ior": 8609,
      "##wn": 8610,
      "##dot": 8611,
      "##ityksen": 8612,
      "##uktu": 8613,
      "taha": 8614,
      "##leihin": 8615,
      "##keja": 8616,
      "##tumaan": 8617,
      "paidassa": 8618,
      "lähteet": 8619,
      "asioiden": 8620,
      "##istetty": 8621,
      "tunnissa": 8622,
      "##vernö": 8623,
      "ääniä": 8624,
      "käytettä": 8625,
      "toteuttaa": 8626,
      "##ttelija": 8627,
      "##annan": 8628,
      "##stön": 8629,
      "jotakin": 8630,
      "tavallaan": 8631,
      "kuuluva": 8632,
      "emil": 8633,
      "julkaisun": 8634,
      "poikkea": 8635,
      "viides": 8636,
      "sekunnin": 8637,
      "miettii": 8638,
      "stanley": 8639,
      "liikenneturva": 8640,
      "che": 8641,
      "esa": 8642,
      "hun": 8643,
      "##myyn": 8644,
      "##psi": 8645,
      "##une": 8646,
      "##liike": 8647,
      "##etyt": 8648,
      "##eir": 8649,
      "##rata": 8650,
      "##rauh": 8651,
      "##raha": 8652,
      "mir": 8653,
      "mital": 8654,
      "##omas": 8655,
      "puolelta": 8656,
      "esimerkki": 8657,
      "##rastr": 8658,
      "hankala": 8659,
      "este": 8660,
      "##kaupan": 8661,
      "sivuston": 8662,
      "käyttämään": 8663,
      "lähetyksessä": 8664,
      "reilu": 8665,
      "hotellin": 8666,
      "aktiivisesti": 8667,
      "manner": 8668,
      "tutkinnanjohtaja": 8669,
      "dramaa": 8670,
      "##rastruktu": 8671,
      "avo": 8672,
      "##oksi": 8673,
      "##muksista": 8674,
      "##puu": 8675,
      "##kalle": 8676,
      "##pakka": 8677,
      "##pagan": 8678,
      "teini": 8679,
      "##eellisen": 8680,
      "##tyminen": 8681,
      "mich": 8682,
      "tarkkaa": 8683,
      "iske": 8684,
      "isot": 8685,
      "##rannan": 8686,
      "leik": 8687,
      "kolmi": 8688,
      "pohjoisessa": 8689,
      "ihmisoikeus": 8690,
      "human": 8691,
      "kasvua": 8692,
      "peter": 8693,
      "liikkuu": 8694,
      "toisinaan": 8695,
      "youtu": 8696,
      "varapuheenjohtaja": 8697,
      "suzanne": 8698,
      "ait": 8699,
      "soit": 8700,
      "um": 8701,
      "##pk": 8702,
      "##yissä": 8703,
      "##and": 8704,
      "##tillä": 8705,
      "##kejä": 8706,
      "lakia": 8707,
      "##ttelen": 8708,
      "##neista": 8709,
      "sanan": 8710,
      "##relle": 8711,
      "soh": 8712,
      "##matkan": 8713,
      "kulutus": 8714,
      "eron": 8715,
      "robin": 8716,
      "järjesti": 8717,
      "edellinen": 8718,
      "kommentteja": 8719,
      "linjan": 8720,
      "##llani": 8721,
      "haastattelu": 8722,
      "nouse": 8723,
      "mäkinen": 8724,
      "2007": 8725,
      "sivussa": 8726,
      "selviyty": 8727,
      "##tietojen": 8728,
      "viestiä": 8729,
      "edustalla": 8730,
      "kuljettajan": 8731,
      "suuntaa": 8732,
      "##lähtö": 8733,
      "##ght": 8734,
      "##ikymmen": 8735,
      "kynn": 8736,
      "rakennettu": 8737,
      "hyppää": 8738,
      "projek": 8739,
      "tyttärensä": 8740,
      "teknologia": 8741,
      "pärmäkoski": 8742,
      "pelicans": 8743,
      "windows": 8744,
      "uhan": 8745,
      "äl": 8746,
      "##ii": 8747,
      "##utaan": 8748,
      "##xin": 8749,
      "##issi": 8750,
      "##ttona": 8751,
      "##kautta": 8752,
      "##iks": 8753,
      "##are": 8754,
      "kohde": 8755,
      "##ystee": 8756,
      "seko": 8757,
      "häneen": 8758,
      "##ukselta": 8759,
      "toisesta": 8760,
      "laina": 8761,
      "##ordin": 8762,
      "palannut": 8763,
      "##uillaan": 8764,
      "tiivi": 8765,
      "##ettavaa": 8766,
      "tiettävästi": 8767,
      "suuret": 8768,
      "suomalaisille": 8769,
      "kirjoit": 8770,
      "jäsenet": 8771,
      "pisteitä": 8772,
      "poliittisen": 8773,
      "##telemaan": 8774,
      "pyrkin": 8775,
      "lapsensa": 8776,
      "haaste": 8777,
      "ratkaisua": 8778,
      "ohjaus": 8779,
      "hyvinvointialueen": 8780,
      "nikotiin": 8781,
      "##lerc": 8782,
      "mahdotonta": 8783,
      "rää": 8784,
      "##euvo": 8785,
      "##ehdot": 8786,
      "##geri": 8787,
      "##salu": 8788,
      "##til": 8789,
      "##ilyn": 8790,
      "viit": 8791,
      "##vässä": 8792,
      "##opp": 8793,
      "ratti": 8794,
      "rajoitta": 8795,
      "hamil": 8796,
      "olikin": 8797,
      "esitetty": 8798,
      "##ikolle": 8799,
      "karjalan": 8800,
      "paikallista": 8801,
      "päätökseen": 8802,
      "tärkeitä": 8803,
      "##mastaan": 8804,
      "veljen": 8805,
      "osallistunut": 8806,
      "mikkel": 8807,
      "musk": 8808,
      "normaalia": 8809,
      "tähtien": 8810,
      "##viraston": 8811,
      "maahanmuutta": 8812,
      "jyväskylän": 8813,
      "can": 8814,
      "kukka": 8815,
      "posti": 8816,
      "##ehd": 8817,
      "##sija": 8818,
      "kuud": 8819,
      "##tuhan": 8820,
      "make": 8821,
      "oltava": 8822,
      "varova": 8823,
      "arttu": 8824,
      "ant": 8825,
      "##elämän": 8826,
      "turkula": 8827,
      "##ukasta": 8828,
      "osannut": 8829,
      "ulkopoliitt": 8830,
      "välttää": 8831,
      "norjassa": 8832,
      "tehtävään": 8833,
      "mainos": 8834,
      "##tykse": 8835,
      "##ttuneet": 8836,
      "##malan": 8837,
      "turnaus": 8838,
      "turnauksessa": 8839,
      "konfer": 8840,
      "avoimesti": 8841,
      "irtisano": 8842,
      "klassi": 8843,
      "mielenterveys": 8844,
      "iha": 8845,
      "muuttanut": 8846,
      "##keino": 8847,
      "##unni": 8848,
      "pääasiassa": 8849,
      "##ttuun": 8850,
      "liit": 8851,
      "summan": 8852,
      "mill": 8853,
      "naval": 8854,
      "##valan": 8855,
      "niinistön": 8856,
      "tiellä": 8857,
      "##kangas": 8858,
      "ruoan": 8859,
      "tunti": 8860,
      "kehottaa": 8861,
      "lukio": 8862,
      "lehtonen": 8863,
      "sairasta": 8864,
      "hallitusohjel": 8865,
      "parempaa": 8866,
      "loukkaantunut": 8867,
      "paikkaan": 8868,
      "perinteisen": 8869,
      "vorn": 8870,
      "viitaten": 8871,
      "jorma": 8872,
      "laajasti": 8873,
      "ada": 8874,
      "luks": 8875,
      "##nsa": 8876,
      "##nim": 8877,
      "##sas": 8878,
      "##ilma": 8879,
      "##teks": 8880,
      "kuvernö": 8881,
      "##rat": 8882,
      "mallia": 8883,
      "kerttu": 8884,
      "##ähtää": 8885,
      "##ttuvat": 8886,
      "olevaa": 8887,
      "suju": 8888,
      "##haki": 8889,
      "ihon": 8890,
      "heli": 8891,
      "luvan": 8892,
      "luotto": 8893,
      "perustu": 8894,
      "eurovaa": 8895,
      "toimit": 8896,
      "pani": 8897,
      "mäen": 8898,
      "kyllähän": 8899,
      "keskustelun": 8900,
      "yhdysvaltalainen": 8901,
      "valtakunna": 8902,
      "tarjota": 8903,
      "eroon": 8904,
      "kysymykseen": 8905,
      "jakso": 8906,
      "joidenkin": 8907,
      "korkealla": 8908,
      "poikkeuksellinen": 8909,
      "espoossa": 8910,
      "##tasolla": 8911,
      "törmäsi": 8912,
      "catherinen": 8913,
      "käsitellään": 8914,
      "tähdet": 8915,
      "suurlähetys": 8916,
      "valtiovarainministeri": 8917,
      "aggressiiv": 8918,
      "69": 8919,
      "##ässä": 8920,
      "##ytteli": 8921,
      "##dista": 8922,
      "##erit": 8923,
      "##ustin": 8924,
      "##mmia": 8925,
      "taisteli": 8926,
      "muilla": 8927,
      "##hdessa": 8928,
      "##käy": 8929,
      "näihin": 8930,
      "lienee": 8931,
      "##kkönen": 8932,
      "työssä": 8933,
      "##konsa": 8934,
      "log": 8935,
      "yhteisen": 8936,
      "##pohja": 8937,
      "keskimäärä": 8938,
      "silven": 8939,
      "turvapaikan": 8940,
      "tutkitaan": 8941,
      "tutkijat": 8942,
      "voiko": 8943,
      "2009": 8944,
      "##osaa": 8945,
      "irto": 8946,
      "pyyh": 8947,
      "jakson": 8948,
      "tarpeen": 8949,
      "sukupuo": 8950,
      "neliö": 8951,
      "keittiö": 8952,
      "huomannut": 8953,
      "63": 8954,
      "ahdist": 8955,
      "pui": 8956,
      "##misten": 8957,
      "##gno": 8958,
      "##hel": 8959,
      "##timme": 8960,
      "##ets": 8961,
      "##koo": 8962,
      "sek": 8963,
      "##ney": 8964,
      "pelto": 8965,
      "pelia": 8966,
      "asunut": 8967,
      "asukkaat": 8968,
      "##tinsa": 8969,
      "vaal": 8970,
      "hallussa": 8971,
      "autoili": 8972,
      "oikean": 8973,
      "merc": 8974,
      "epäonn": 8975,
      "laatu": 8976,
      "jalonen": 8977,
      "velvo": 8978,
      "##huoneen": 8979,
      "neuvottelut": 8980,
      "ulkoministeriön": 8981,
      "televisio": 8982,
      "suostu": 8983,
      "lähtökohtaisesti": 8984,
      "kruununprin": 8985,
      "silvenno": 8986,
      "77": 8987,
      "76": 8988,
      "iden": 8989,
      "test": 8990,
      "##uen": 8991,
      "##rasta": 8992,
      "##yli": 8993,
      "joutuvat": 8994,
      "kape": 8995,
      "maajoukku": 8996,
      "##kaat": 8997,
      "##loissa": 8998,
      "sotaan": 8999,
      "vaasa": 9000,
      "yhdestä": 9001,
      "yhdistää": 9002,
      "monelle": 9003,
      "##unat": 9004,
      "tunteita": 9005,
      "##versi": 9006,
      "tulita": 9007,
      "henkilöt": 9008,
      "hyötyä": 9009,
      "käsittely": 9010,
      "aiemminkin": 9011,
      "ely": 9012,
      "kenraali": 9013,
      "##ttämällä": 9014,
      "kirjailija": 9015,
      "ravintolan": 9016,
      "fak": 9017,
      "lukemin": 9018,
      "kirjoittanut": 9019,
      "hätäkeskukseen": 9020,
      "kuski": 9021,
      "lausunto": 9022,
      "##euvoston": 9023,
      "kotoisin": 9024,
      "suorastaan": 9025,
      "99": 9026,
      "fe": 9027,
      "lim": 9028,
      "##täneet": 9029,
      "##vaun": 9030,
      "viin": 9031,
      "##väksi": 9032,
      "kuvit": 9033,
      "##kuvan": 9034,
      "##tuja": 9035,
      "pop": 9036,
      "käyty": 9037,
      "ralli": 9038,
      "rajoit": 9039,
      "alha": 9040,
      "##unnossa": 9041,
      "päällikkö": 9042,
      "valtaa": 9043,
      "##llisuudesta": 9044,
      "tuossa": 9045,
      "tuottaa": 9046,
      "heiko": 9047,
      "##htanut": 9048,
      "vastoin": 9049,
      "osaltaan": 9050,
      "huomenna": 9051,
      "lep": 9052,
      "rivi": 9053,
      "presidenttinä": 9054,
      "karsi": 9055,
      "##uutena": 9056,
      "##ivuo": 9057,
      "nelos": 9058,
      "käytiin": 9059,
      "liittola": 9060,
      "venäjältä": 9061,
      "lehtinen": 9062,
      "vastaajista": 9063,
      "avustus": 9064,
      "propagan": 9065,
      "ottivat": 9066,
      "suunnitelma": 9067,
      "kuullut": 9068,
      "valkoinen": 9069,
      "mielipit": 9070,
      "supertähti": 9071,
      "järjestelmä": 9072,
      "1970": 9073,
      "arkisto": 9074,
      "tarvinnut": 9075,
      "81": 9076,
      "ay": 9077,
      "akku": 9078,
      "een": 9079,
      "otto": 9080,
      "##isina": 9081,
      "##taminen": 9082,
      "##eloku": 9083,
      "##alisti": 9084,
      "##tellyt": 9085,
      "mah": 9086,
      "mallin": 9087,
      "alen": 9088,
      "##käyttä": 9089,
      "pahen": 9090,
      "##mann": 9091,
      "näytt": 9092,
      "olisiko": 9093,
      "##ikas": 9094,
      "varj": 9095,
      "esityks": 9096,
      "senaa": 9097,
      "viimeistä": 9098,
      "##ting": 9099,
      "##mminkin": 9100,
      "vaaran": 9101,
      "##ttyi": 9102,
      "aikoihin": 9103,
      "##ikkoa": 9104,
      "tekemässä": 9105,
      "urp": 9106,
      "pienet": 9107,
      "käsitel": 9108,
      "siirtää": 9109,
      "johtava": 9110,
      "sini": 9111,
      "syöks": 9112,
      "##kuljet": 9113,
      "kierrä": 9114,
      "aleksi": 9115,
      "yhteiskunnan": 9116,
      "etelässä": 9117,
      "kuolemasta": 9118,
      "päivittä": 9119,
      "vertail": 9120,
      "homma": 9121,
[...]
