<unk>	0
<s>	0
</s>	0
.	-2.98232
,	-3.3292
n	-3.60919
▁ja	-4.14805
▁on	-4.19405
a	-4.2832
-	-4.66291
t	-4.68484
▁	-4.73999
▁että	-5.05032
en	-5.16719
▁ei	-5.21517
in	-5.26349
ssa	-5.28241
sta	-5.28592
▁oli	-5.38249
:	-5.42767
lle	-5.64296
an	-5.71834
ä	-5.72768
lla	-5.74164
▁mukaan	-5.75902
ta	-5.79715
▁-	-5.87599
▁myös	-5.95483
i	-6.02434
▁ole	-6.02715
▁ovat	-6.06409
▁hän	-6.08473
▁mutta	-6.09971
▁se	-6.10822
s	-6.15382
kin	-6.15586
▁kun	-6.18222
ksi	-6.19802
na	-6.27752
▁jo	-6.34047
ja	-6.36311
ssä	-6.38868
▁ollut	-6.41654
▁voi	-6.43448
▁kertoo	-6.4727
▁tai	-6.50873
▁"	-6.52121
stä	-6.52597
▁joka	-6.56875
▁Hän	-6.57605
vat	-6.59512
▁jälkeen	-6.59914
si	-6.61352
ista	-6.62263
▁kuin	-6.62481
▁kanssa	-6.65747
▁niin	-6.69551
▁(	-6.70011
lta	-6.72737
▁sen	-6.73162
on	-6.74309
llä	-6.76458
sa	-6.77212
ko	-6.79621
▁olisi	-6.80829
▁Suomen	-6.81546
▁sanoo	-6.816
sti	-6.81682
▁vuonna	-6.81757
nsa	-6.8198
"	-6.83468
▁Se	-6.86553
mme	-6.8994
)	-6.92042
tä	-6.93176
e	-6.93543
jen	-6.9542
▁sekä	-6.95692
nen	-6.96676
▁olla	-6.97831
ni	-6.97853
u	-6.99571
▁hänen	-7.02967
▁viime	-7.03082
▁vielä	-7.03356
issa	-7.03771
kä	-7.04845
▁nyt	-7.05475
tta	-7.06184
▁kertoi	-7.06719
▁vuoden	-7.07034
▁vain	-7.0929
ten	-7.10391
et	-7.10896
ille	-7.11008
▁siitä	-7.11674
▁kuitenkin	-7.1272
?	-7.12812
▁sanoi	-7.15814
illa	-7.16898
▁sitä	-7.18065
la	-7.18283
▁yli	-7.20281
y	-7.22575
minen	-7.22621
sen	-7.23256
än	-7.23595
▁noin	-7.24912
▁saa	-7.25275
inen	-7.25803
h	-7.27068
ia	-7.27882
▁aikana	-7.28937
▁sai	-7.30318
▁paljon	-7.30606
maan	-7.30712
▁jossa	-7.30717
o	-7.3111
▁eivät	-7.32341
▁sitten	-7.34868
▁Venäjän	-7.35449
­	-7.35538
▁ennen	-7.35744
▁sillä	-7.35794
▁jos	-7.37464
nut	-7.37673
▁muun	-7.38888
▁hyvin	-7.3976
tti	-7.40011
▁muassa	-7.40611
un	-7.41857
nä	-7.42776
▁kaksi	-7.43393
▁esimerkiksi	-7.43433
▁tulee	-7.4494
▁koko	-7.44995
tu	-7.46618
▁ettei	-7.48955
iden	-7.50253
▁000	-7.503
▁pitää	-7.50481
us	-7.50743
▁mitä	-7.51469
▁olivat	-7.52269
▁euroa	-7.53231
vät	-7.53536
▁yksi	-7.54338
▁eli	-7.55307
▁vuotta	-7.55348
▁jotk	-7.55436
▁tuli	-7.55627
ke	-7.56
va	-7.56436
li	-7.56507
▁vastaan	-7.58277
neet	-7.58352
ihin	-7.59537
▁Kun	-7.59632
▁Jos	-7.59907
▁itse	-7.6097
▁he	-7.61021
▁jonka	-7.61652
r	-7.64842
▁kaikki	-7.65281
ka	-7.65413
▁eri	-7.65724
ki	-7.66879
ita	-7.68039
ti	-7.69344
ma	-7.70154
▁koska	-7.70577
▁Suomessa	-7.71366
te	-7.71602
re	-7.72189
▁lisää	-7.72194
ri	-7.72777
▁osa	-7.73121
▁S	-7.73477
▁tämän	-7.74953
ltä	-7.75279
▁siihen	-7.77437
istä	-7.77576
▁Myös	-7.77716
▁vaikka	-7.7818
▁tämä	-7.7852
to	-7.78669
jä	-7.78726
▁ne	-7.79211
l	-7.79346
▁aika	-7.796
m	-7.801
▁aina	-7.80608
▁Tämä	-7.8064
▁A	-7.80713
".	-7.80787
▁Ei	-7.80811
▁tällä	-7.8099
▁En	-7.81017
▁Nyt	-7.82774
▁lisäksi	-7.83302
▁aiemmin	-7.8334
▁ensi	-7.83791
▁enemmän	-7.84579
▁miten	-7.84963
▁hyvä	-7.85704
▁Poliisi	-7.85829
is	-7.85884
▁mies	-7.85889
mista	-7.87313
▁presidentti	-7.87597
pa	-7.87669
▁ajan	-7.87878
▁mikä	-7.88223
▁vaan	-7.88621
▁kolme	-7.88744
iin	-7.89371
isi	-7.89434
▁MM	-7.89909
le	-7.90175
▁Suomi	-7.90246
▁kertaa	-7.90266
▁mitään	-7.90493
k	-7.90932
den	-7.91132
vuotias	-7.91853
ne	-7.92031
sä	-7.93204
▁Ukrainan	-7.93697
neen	-7.93893
▁Kuva	-7.94256
d	-7.94317
▁jopa	-7.94393
ttu	-7.95202
▁prosenttia	-7.9649
kseen	-7.96744
taan	-7.96752
▁tehdä	-7.97763
▁ihan	-7.9777
▁Helsingin	-7.98069
▁enää	-7.98927
sin	-7.98991
▁He	-7.99138
▁vasta	-8.00278
▁pää	-8.00848
▁kello	-8.01152
▁poliisi	-8.01328
lainen	-8.01517
▁Ja	-8.02661
ttiin	-8.03348
▁olevan	-8.03543
aan	-8.04356
▁pois	-8.0453
nsä	-8.04762
van	-8.04855
▁toimi	-8.06978
▁saanut	-8.0723
kaan	-8.07336
misen	-8.07829
▁On	-8.08223
isen	-8.08792
▁K	-8.09219
▁kommentoi	-8.09292
▁työ	-8.0936
▁en	-8.09464
kka	-8.09542
vi	-8.09993
!	-8.10337
▁aikaa	-8.10347
▁jää	-8.10871
▁vuoksi	-8.10985
▁Sen	-8.1199
da	-8.12052
ra	-8.12444
▁määrä	-8.12886
▁teki	-8.13136
▁Venäjä	-8.13603
ku	-8.14027
no	-8.145
▁kuten	-8.14598
pu	-8.15239
▁tässä	-8.15499
▁asia	-8.15666
▁EU	-8.15936
▁vähän	-8.16014
ro	-8.16071
kö	-8.16392
mo	-8.16827
ve	-8.16851
▁lähes	-8.1705
de	-8.17053
kki	-8.17722
se	-8.17855
▁mukana	-8.1801
p	-8.187
▁tullut	-8.18726
pi	-8.18784
▁kautta	-8.18955
▁O	-8.19149
man	-8.19265
ttä	-8.19666
ilta	-8.19912
▁juuri	-8.20252
▁todella	-8.20441
▁F	-8.20541
▁uusi	-8.20675
▁kiinni	-8.21
▁Lisäksi	-8.21559
▁voisi	-8.21619
▁siinä	-8.21936
▁jäi	-8.22039
ksen	-8.22139
▁Hänen	-8.2214
han	-8.22367
maa	-8.22378
▁maan	-8.22578
▁Trump	-8.22998
kään	-8.24348
▁aikaan	-8.24887
▁E	-8.25123
miseen	-8.25399
▁ilman	-8.2552
▁kauden	-8.25822
issä	-8.26191
▁20	-8.26296
▁1	-8.26306
▁taas	-8.26408
essa	-8.26459
▁hetkellä	-8.26522
ty	-8.26731
lo	-8.26789
▁Ilta	-8.26798
▁edelleen	-8.26905
llinen	-8.26996
▁Stubb	-8.27309
▁takia	-8.27431
▁kuitenkaan	-8.27677
▁I	-8.27891
▁Olen	-8.27982
▁pitäisi	-8.28195
▁auto	-8.28935
tin	-8.29367
▁toinen	-8.29429
er	-8.29841
me	-8.29934
▁/	-8.30135
▁saada	-8.31344
▁Mutta	-8.32243
een	-8.32833
▁iso	-8.32872
lu	-8.32949
▁Jo	-8.33003
▁Trumpin	-8.33022
massa	-8.33047
ut	-8.3319
nyt	-8.33334
▁Pohjois	-8.33422
▁Näin	-8.33454
▁ainakin	-8.33714
▁me	-8.34004
▁Yhdysvaltain	-8.34022
▁joten	-8.34031
pe	-8.34058
▁puheenjohtaja	-8.34464
▁olleet	-8.34709
▁näin	-8.34773
▁2023	-8.34842
▁asti	-8.3498
it	-8.35211
lan	-8.3527
▁peli	-8.35572
▁yhdessä	-8.35938
▁10	-8.36305
▁miljoonaa	-8.36509
▁koti	-8.36679
▁arvioi	-8.36767
▁Viime	-8.36771
▁perjantaina	-8.36911
ö	-8.3836
▁voitti	-8.38826
▁alkoi	-8.39103
▁lauantaina	-8.39321
▁NHL	-8.39366
mi	-8.39442
▁neljä	-8.39502
▁pari	-8.40218
▁tavalla	-8.40756
▁Me	-8.40824
▁kirjoittaa	-8.41127
▁alle	-8.41632
▁kuinka	-8.41702
▁kaudella	-8.41887
elle	-8.42031
▁vuosi	-8.42147
▁heti	-8.42157
▁hallituksen	-8.4217
▁siis	-8.42227
▁niitä	-8.42457
▁hieman	-8.42648
▁tilanne	-8.42683
esta	-8.42826
▁tuo	-8.42919
▁välillä	-8.43011
g	-8.43024
mis	-8.43765
▁alkaa	-8.43866
/	-8.44057
mpi	-8.44176
▁la	-8.44192
▁tehnyt	-8.44195
▁täysin	-8.4421
illä	-8.44303
▁Oulun	-8.44368
staan	-8.44475
▁oma	-8.44673
▁viikolla	-8.44709
hi	-8.44729
tus	-8.4473
mään	-8.44795
isiin	-8.45115
▁heidän	-8.45566
▁käy	-8.45591
▁tänä	-8.45632
▁X	-8.46132
v	-8.46273
▁uuden	-8.46518
▁jota	-8.46733
▁häntä	-8.46871
▁myöhemmin	-8.47152
▁kahden	-8.47154
▁2	-8.47573
▁jatkaa	-8.48053
▁useita	-8.48134
▁kerran	-8.48165
kan	-8.48201
▁kyllä	-8.48224
po	-8.48547
▁Euroopan	-8.48557
seen	-8.48559
ään	-8.48568
T	-8.48617
▁maailman	-8.49385
▁torstaina	-8.4944
▁kuoli	-8.49711
▁Ne	-8.49736
▁Ko	-8.49768
▁IS	-8.49892
▁päivä	-8.49945
▁näyttää	-8.50874
▁Ruotsin	-8.51353
▁olen	-8.5141
▁euron	-8.51544
▁La	-8.51593
▁yhden	-8.51652
ella	-8.51796
iä	-8.51906
▁kyse	-8.51916
▁maanantaina	-8.51995
▁tiistaina	-8.52043
▁aivan	-8.52094
do	-8.52211
ton	-8.52378
ön	-8.52431
▁pa	-8.52573
▁Vaikka	-8.52613
▁keskiviikkona	-8.52626
▁alussa	-8.52772
▁voivat	-8.53414
misesta	-8.53513
▁silloin	-8.53646
▁usein	-8.53774
sten	-8.53831
▁puolestaan	-8.53851
uksia	-8.5387
jo	-8.5394
▁piti	-8.54211
▁alueella	-8.54322
▁kaupungin	-8.54366
yn	-8.54447
▁otti	-8.54455
▁hänet	-8.54457
▁koskaan	-8.54642
ar	-8.55263
▁miehen	-8.55387
▁sunnuntaina	-8.55428
▁puoli	-8.55538
▁oman	-8.55624
▁maa	-8.55713
▁edes	-8.5608
▁koulu	-8.56083
▁perusteella	-8.56212
▁ottaa	-8.56216
ho	-8.56507
hän	-8.56615
▁suuri	-8.56806
▁Israelin	-8.56868
▁toteaa	-8.56881
▁moni	-8.56898
▁siellä	-8.57073
A	-8.57225
▁tätä	-8.57774
▁ka	-8.57792
▁30	-8.58199
ili	-8.58244
▁puolustus	-8.58374
▁yhä	-8.58379
di	-8.5863
▁asiasta	-8.58683
▁Suomeen	-8.58823
▁Salon	-8.5923
ha	-8.59741
'	-8.6066
▁Ka	-8.60731
▁meni	-8.61397
▁toisen	-8.61433
▁päästä	-8.61436
▁U	-8.61497
▁henkilö	-8.61928
▁ase	-8.61981
▁ensimmäinen	-8.62271
▁tiedotteessa	-8.62327
▁Lue	-8.62335
S	-8.62549
▁Yksi	-8.62633
▁3	-8.62874
▁saattaa	-8.62915
▁sijaan	-8.63095
▁ihmistä	-8.63213
isia	-8.63264
▁hallitus	-8.63434
▁yhtä	-8.63728
kko	-8.64069
▁arvo	-8.64232
▁mukaansa	-8.64295
▁ra	-8.64358
ttaa	-8.64511
▁viisi	-8.64816
▁viikon	-8.64995
▁joissa	-8.65046
▁Re	-8.65098
▁tapahtui	-8.65144
▁erittäin	-8.65183
ju	-8.65244
▁mielestä	-8.65406
vien	-8.6551
▁läpi	-8.65621
▁mahdollista	-8.65803
▁2022	-8.6595
▁tehty	-8.65993
▁Etelä	-8.66036
▁tänään	-8.66179
pä	-8.66359
▁P	-8.66498
▁15	-8.66504
▁The	-8.66671
▁urheilu	-8.66911
▁T	-8.66988
▁vaikuttaa	-8.67013
▁jälleen	-8.67266
▁nousi	-8.6735
▁tekee	-8.67353
▁luo	-8.67445
▁kävi	-8.67546
at	-8.67595
malla	-8.67603
lä	-8.67968
▁takaisin	-8.68044
▁pitkään	-8.68053
▁lopulta	-8.68054
johtaja	-8.68198
▁tähän	-8.68215
▁jotain	-8.68709
vä	-8.68733
▁Le	-8.68773
sto	-8.68833
▁vaikea	-8.69222
▁antaa	-8.69555
▁presidentin	-8.69648
▁käyttää	-8.70138
▁tosi	-8.70208
▁19	-8.70409
▁12	-8.70479
▁vuosina	-8.705
▁turvallisuus	-8.70595
▁nopeasti	-8.70599
▁niiden	-8.70659
llaan	-8.70998
▁ensimmäisen	-8.71105
mistä	-8.71147
▁voidaan	-8.71569
▁samalla	-8.71694
▁huolimatta	-8.71719
▁hänelle	-8.71763
lloin	-8.71989
via	-8.72071
▁Li	-8.72099
▁Kaikki	-8.72741
▁Esimerkiksi	-8.72884
▁ottelun	-8.72991
▁Ri	-8.73102
▁tulla	-8.73194
x	-8.73408
▁liian	-8.73471
itä	-8.73748
▁haluaa	-8.73779
▁kuuluu	-8.74031
tiin	-8.7414
▁muut	-8.74165
neensa	-8.74546
uksen	-8.74623
▁myötä	-8.74732
su	-8.74765
▁löytyy	-8.74807
▁erityisesti	-8.7508
▁huippu	-8.75194
▁ihmisiä	-8.75363
Sanomat	-8.75418
▁C	-8.755
▁vai	-8.75536
f	-8.75649
kaa	-8.7566
sia	-8.75665
ssaan	-8.75796
▁kerrotaan	-8.76109
▁joukkue	-8.76533
▁asiaa	-8.7663
▁auton	-8.76653
▁yhteensä	-8.76678
▁Ke	-8.76978
▁yhteydessä	-8.77054
▁nainen	-8.77064
▁EM	-8.77258
▁M	-8.77575
mä	-8.77863
▁Asia	-8.77893
▁kymmenen	-8.77908
▁ehkä	-8.78225
▁jolla	-8.78651
▁huono	-8.78678
he	-8.7872
c	-8.78846
ys	-8.78957
▁kesä	-8.79196
▁tästä	-8.79271
▁raja	-8.79292
▁joita	-8.79425
hin	-8.79475
▁vie	-8.79521
▁meidän	-8.79707
▁muuta	-8.79734
▁loppu	-8.79932
▁perhe	-8.80053
K	-8.80083
▁ha	-8.80337
kok	-8.80623
lin	-8.80636
6	-8.80682
ps	-8.80742
▁Nato	-8.80749
▁poliisin	-8.80817
▁seura	-8.81063
so	-8.81153
▁vara	-8.81506
▁ihmiset	-8.81897
▁ma	-8.82017
ina	-8.82036
▁4	-8.82065
teen	-8.82291
iset	-8.82383
▁tulisi	-8.82429
▁SM	-8.82439
▁pääsi	-8.82512
7	-8.82536
▁kannattaa	-8.83104
▁5	-8.83368
▁pu	-8.83428
),	-8.83667
▁New	-8.83672
▁pääministeri	-8.83682
▁pieni	-8.83692
isesti	-8.83739
essä	-8.83753
▁totesi	-8.83849
▁suomalais	-8.83868
isten	-8.84068
tty	-8.84222
▁Ukraina	-8.84227
▁Pa	-8.84275
▁sää	-8.8435
iksi	-8.84426
▁uutisoi	-8.84464
▁joutui	-8.84654
▁Ku	-8.84975
▁50	-8.85021
▁kirjoitti	-8.85075
ttava	-8.8523
▁Mies	-8.8532
▁muita	-8.85599
▁kuva	-8.86203
▁Antti	-8.8628
▁naisten	-8.86336
mies	-8.86612
4	-8.86819
▁päälle	-8.86897
R	-8.8694
Suomen	-8.87095
▁R	-8.87144
pää	-8.87146
▁Putin	-8.87298
eksi	-8.88002
▁isä	-8.88142
▁missä	-8.88144
▁julkaisi	-8.88171
▁B	-8.88272
▁Sa	-8.88333
▁kisa	-8.88449
▁kohti	-8.88599
▁Vi	-8.88607
8	-8.88686
fi	-8.89309
).	-8.89413
▁Tämän	-8.89537
ge	-8.89547
▁joista	-8.89627
P	-8.89658
▁lähti	-8.8995
oja	-8.90084
▁verran	-8.90192
iltana	-8.90201
▁kova	-8.9028
▁liikenne	-8.90355
▁päivän	-8.90506
▁Ro	-8.90564
▁joku	-8.90575
▁muiden	-8.90636
▁pelaaja	-8.90647
▁oleva	-8.90686
▁vaiheessa	-8.9079
▁matka	-8.90796
lleen	-8.91015
kku	-8.9104
▁joiden	-8.91191
▁suurin	-8.9121
tettiin	-8.91316
▁pe	-8.9164
▁silti	-8.91717
▁josta	-8.91748
▁sähkö	-8.91785
▁uutta	-8.91925
▁muistuttaa	-8.92144
▁olleen	-8.92172
▁sota	-8.92292
estä	-8.92647
▁oikein	-8.92663
▁kai	-8.9271
▁keski	-8.92721
▁asioita	-8.9279
▁lisä	-8.92977
▁vesi	-8.93031
▁ero	-8.93187
▁kesken	-8.93225
aika	-8.93245
▁Tällä	-8.93307
9	-8.93583
▁lasten	-8.93596
▁miksi	-8.93636
▁Ylen	-8.93744
▁Ta	-8.93813
set	-8.93838
mu	-8.93865
el	-8.93953
▁Na	-8.93994
▁haastattelussa	-8.94034
▁Tässä	-8.94226
▁tuolloin	-8.94271
hti	-8.9437
▁varmasti	-8.94403
▁oikeus	-8.9445
▁hänellä	-8.94777
5	-8.9491
▁mediassa	-8.94912
▁No	-8.95026
▁ilmoitti	-8.95118
0	-8.95135
al	-8.95384
ru	-8.95665
▁ku	-8.95723
▁Al	-8.96014
▁kolmen	-8.96016
▁valtion	-8.96316
z	-8.96468
▁onko	-8.96494
▁toimii	-8.96502
▁täällä	-8.96506
▁kilpailu	-8.96535
▁maali	-8.9664
▁13	-8.96751
▁Osa	-8.9681
lais	-8.96865
▁11	-8.97003
ur	-8.97177
▁joukkueen	-8.97187
▁hi	-8.972
▁Vuon	-8.97318
▁tarkoitus	-8.97318
▁Oli	-8.97407
nne	-8.97473
ppa	-8.97483
▁tietoa	-8.97592
▁päivänä	-8.97596
ska	-8.97632
tteli	-8.9775
▁Donald	-8.97771
2	-8.97873
▁väli	-8.97902
▁Si	-8.97928
▁Orpo	-8.97986
▁perus	-8.98048
▁syy	-8.98077
▁kuollut	-8.98119
▁ottelussa	-8.98271
▁nimi	-8.98343
▁minkä	-8.98615
kon	-8.98966
▁johtaja	-8.99042
H	-8.99084
▁miesten	-8.99208
voi	-8.9924
▁18	-8.99486
▁Ar	-8.99586
du	-8.99635
▁esiin	-8.9968
▁Turun	-9.00014
▁pian	-9.00076
▁halua	-9.00148
▁sodan	-9.00172
▁usko	-9.00189
ministeri	-9.00392
▁ala	-9.00457
auto	-9.00465
▁Kyllä	-9.00639
3	-9.00683
▁100	-9.0077
▁vaali	-9.0087
▁takana	-9.01268
▁kertonut	-9.01436
▁Po	-9.01595
▁sama	-9.01652
▁edessä	-9.01766
▁re	-9.01784
▁V	-9.018
▁pelasi	-9.0195
tö	-9.01958
▁tuki	-9.01977
rin	-9.02042
▁tule	-9.02102
j	-9.02113
▁So	-9.02194
▁lähellä	-9.02271
▁alla	-9.02281
tähti	-9.02498
00	-9.02522
▁kuusi	-9.02546
▁ajo	-9.02604
▁su	-9.02639
yhtiö	-9.02779
▁video	-9.02933
▁Instagram	-9.02941
ste	-9.03047
▁valmis	-9.0308
▁ohi	-9.031
▁ottelu	-9.03267
▁Alexander	-9.03381
▁päivää	-9.03837
▁suoraan	-9.03844
▁pitkä	-9.03956
▁2020	-9.04072
▁al	-9.04099
▁G	-9.04113
▁Iltalehdelle	-9.04359
▁syytä	-9.04379
llis	-9.04391
palvelu	-9.04647
min	-9.047
ry	-9.04848
▁tv	-9.04996
▁toiminta	-9.05085
▁p	-9.05112
il	-9.05235
▁Mo	-9.05281
▁ulko	-9.05337
▁paras	-9.05385
bi	-9.05388
▁voinut	-9.05468
▁sanoa	-9.0556
▁osaa	-9.05563
vansa	-9.05715
▁Iltalehden	-9.05737
▁Ha	-9.05774
▁Biden	-9.05872
▁s	-9.05923
▁Mikko	-9.05991
▁Siinä	-9.06107
▁antoi	-9.06216
▁tietojen	-9.06278
▁14	-9.06302
▁poika	-9.06408
▁taka	-9.06536
▁todennäköisesti	-9.06604
▁entinen	-9.06606
▁olevansa	-9.06676
▁Naton	-9.06688
▁jätti	-9.06708
▁tekemään	-9.06775
▁näkyy	-9.0701
▁pidä	-9.07075
▁kuvan	-9.07095
▁kaiken	-9.07132
ter	-9.07179
▁tietää	-9.07249
▁16	-9.07254
▁asu	-9.07313
vo	-9.07333
ce	-9.07372
▁Pe	-9.07417
▁40	-9.07513
tetaan	-9.07578
▁kuukauden	-9.07624
▁ulos	-9.07685
▁Su	-9.07728
▁toimitusjohtaja	-9.07758
▁kaupunki	-9.07789
sarjan	-9.07817
▁kahdeksan	-9.07817
▁Pekka	-9.07882
▁meillä	-9.07924
or	-9.07942
▁muu	-9.08032
▁vuosien	-9.08103
▁tiedä	-9.08171
▁Pu	-9.08211
▁kilometrin	-9.08289
▁pysty	-9.08331
▁Mi	-9.08699
dy	-9.08791
O	-9.08858
C	-9.08955
tään	-9.09039
ssi	-9.09109
ellä	-9.09147
▁kulttuuri	-9.09197
▁olemme	-9.09248
men	-9.09255
▁osalta	-9.09263
▁uusia	-9.09358
llisesti	-9.09363
ck	-9.09417
▁te	-9.09586
▁päävalmentaja	-9.09609
▁vero	-9.09641
din	-9.0967
▁mennessä	-9.09735
▁naisen	-9.09857
ch	-9.09969
ly	-9.10056
▁päätti	-9.10075
▁metrin	-9.10125
▁seitsemän	-9.10213
▁päätös	-9.10233
▁puolesta	-9.10234
▁k	-9.10322
▁menee	-9.10432
▁Moni	-9.10433
▁uudelleen	-9.1049
B	-9.10579
▁selvästi	-9.10659
▁lapsi	-9.10685
▁ensimmäistä	-9.10736
▁Sitten	-9.10738
▁mieltä	-9.10931
▁Ho	-9.10948
▁e	-9.10964
usta	-9.11074
▁tieto	-9.1121
▁voitto	-9.1123
▁Iso	-9.11287
▁kannalta	-9.11313
päivä	-9.11412
ski	-9.1142
▁kyseessä	-9.11424
▁tilanteessa	-9.11454
▁paikalla	-9.11521
▁ruoka	-9.11521
▁vastaa	-9.11559
▁17	-9.11562
ppi	-9.11567
▁vaatii	-9.11575
▁ainoa	-9.1164
▁jatkuu	-9.11846
N	-9.11891
▁ongelma	-9.1204
▁klo	-9.12104
▁palvelu	-9.12112
kas	-9.12407
▁tehdään	-9.12454
ttää	-9.12461
os	-9.12736
▁D	-9.12826
▁kuvailee	-9.1301
▁hyvää	-9.13021
▁paikalle	-9.13062
▁asian	-9.13104
▁hinta	-9.13121
▁Lapin	-9.13178
vuotiaan	-9.13256
ien	-9.13326
▁ko	-9.13355
▁paikka	-9.13426
▁Yle	-9.13471
▁tarvitse	-9.13477
▁De	-9.13542
▁syö	-9.13599
▁pitänyt	-9.13681
▁Putinin	-9.13689
▁hu	-9.13724
lehti	-9.13802
go	-9.13808
▁kovin	-9.13885
I	-9.13963
▁Pi	-9.14071
▁kantaa	-9.14203
ver	-9.14229
▁terveys	-9.14292
▁tapauksessa	-9.14395
▁lu	-9.14591
▁tärkeä	-9.14653
▁vuodesta	-9.14772
M	-9.14818
vaa	-9.1495
▁lapsen	-9.14965
uksista	-9.14969
tun	-9.15058
▁alue	-9.15059
▁valmentaja	-9.15278
▁nähtiin	-9.15322
30	-9.15324
mia	-9.15446
▁saman	-9.15472
tettu	-9.15513
▁2024	-9.15523
mmin	-9.15653
▁2021	-9.15705
▁tarkoittaa	-9.15878
▁lähtien	-9.15924
vin	-9.15939
▁omaa	-9.1597
▁löytyi	-9.16026
ajan	-9.16082
▁6	-9.16125
ll	-9.16313
▁seuraa	-9.16374
▁Meillä	-9.16482
▁Uusi	-9.16502
▁etenkin	-9.16713
▁johon	-9.1685
ng	-9.16856
▁joulu	-9.16924
▁ympäristö	-9.16968
▁kansanedustaja	-9.16969
▁kaikkien	-9.17079
▁vapaa	-9.17117
▁si	-9.17138
tuksen	-9.17165
▁aloitti	-9.17165
D	-9.17213
kuu	-9.17241
mpaa	-9.17287
▁N	-9.17396
▁tärkeää	-9.17409
▁Auto	-9.17651
nti	-9.17674
nnut	-9.17783
lli	-9.17802
▁viesti	-9.17833
▁Va	-9.17842
▁perheen	-9.18027
taa	-9.18034
▁paremmin	-9.18122
ansa	-9.18134
b	-9.18247
▁niistä	-9.18291
▁Ra	-9.18464
1	-9.18614
▁puolue	-9.18643
▁vei	-9.18693
▁etu	-9.18764
kkaa	-9.18832
▁Helsingissä	-9.18847
▁varten	-9.18907
laisen	-9.18977
▁to	-9.19009
▁joilla	-9.19035
▁Itä	-9.19038
mässä	-9.19051
▁ry	-9.19055
▁loppuun	-9.1908
▁äiti	-9.1915
▁mennä	-9.19187
▁Petteri	-9.19206
▁jäänyt	-9.19209
nes	-9.19363
▁aikoo	-9.19407
paikka	-9.19487
▁tuntuu	-9.19704
llista	-9.19876
ltaan	-9.20105
ky	-9.20105
▁Israel	-9.20221
▁täytyy	-9.20275
hu	-9.20278
▁teho	-9.20293
▁ki	-9.20295
▁Voi	-9.20307
▁kausi	-9.20321
▁rahaa	-9.20329
ile	-9.20657
▁riski	-9.20684
E	-9.20727
▁suuntaan	-9.20759
▁yleensä	-9.20855
tte	-9.209
ga	-9.21052
1-	-9.2107
▁Iltalehti	-9.21175
▁lähtee	-9.21213
▁linja	-9.21215
▁voittanut	-9.21258
▁eniten	-9.21304
▁käyttö	-9.21404
▁ääni	-9.21458
▁pala	-9.21462
▁ratkaisu	-9.21551
▁nähty	-9.21587
▁päällä	-9.21599
▁kertovat	-9.21775
ks	-9.21784
utta	-9.2182
▁pi	-9.2188
▁talous	-9.21897
▁Anna	-9.2197
▁sellainen	-9.22035
▁Mitä	-9.22085
▁viiden	-9.22098
▁näyttelijä	-9.22147
▁tilannetta	-9.22215
▁aiheuttaa	-9.22274
▁le	-9.22355
▁Jussi	-9.22386
▁yhteis	-9.2254
liitto	-9.22653
määrä	-9.22735
▁alku	-9.22747
▁nämä	-9.22771
▁avulla	-9.22812
▁ihmisten	-9.22842
▁H	-9.22978
▁jatkoi	-9.22991
▁tapahtunut	-9.2305
▁STT	-9.23056
▁o	-9.23259
▁mistä	-9.23314
▁alusta	-9.23406
▁tasa	-9.23536
▁muista	-9.23592
▁Te	-9.23627
arvo	-9.23752
▁kuvaa	-9.23781
▁Sitä	-9.23868
▁2019	-9.23901
ensa	-9.23903
▁minulle	-9.23967
▁paino	-9.24095
▁jäsen	-9.24128
▁nostaa	-9.24354
▁toistaiseksi	-9.24424
luvun	-9.24424
▁nuorten	-9.24508
ukset	-9.24537
▁Bidenin	-9.24599
▁ajoi	-9.24703
päällikkö	-9.24715
▁piste	-9.24737
▁sarja	-9.24959
▁lopussa	-9.25001
▁epäillään	-9.25048
▁Olemme	-9.25069
ilu	-9.25267
▁päättyi	-9.25277
▁kirja	-9.25301
▁keskustelu	-9.25337
kke	-9.25457
▁puu	-9.25493
▁8	-9.25551
je	-9.2561
▁de	-9.25691
▁200	-9.25693
▁pistettä	-9.25769
▁kohtaa	-9.25859
▁nähdään	-9.25869
▁ympäri	-9.25936
▁Mu	-9.26
▁uskoo	-9.2604
▁pääsee	-9.26041
▁Keski	-9.26056
teli	-9.26131
▁olo	-9.26139
▁Oy	-9.2616
▁Yhdysvaltojen	-9.2625
▁kokonais	-9.26302
▁suhteen	-9.26523
▁käyttöön	-9.26546
▁ensin	-9.26681
▁Pää	-9.2671
▁epä	-9.26711
▁Yli	-9.26727
ivat	-9.26765
talo	-9.26814
▁Mar	-9.2686
▁Harris	-9.27068
tee	-9.27088
▁puolella	-9.27117
▁välttämättä	-9.27179
▁varsin	-9.27184
▁minä	-9.27185
▁alueen	-9.27225
▁nähdä	-9.27254
▁käsi	-9.27291
matta	-9.27446
▁kohtaan	-9.27449
▁juttu	-9.27456
ttua	-9.27586
▁pelaa	-9.27717
▁24	-9.2778
▁saakka	-9.27892
.)	-9.27935
tien	-9.27943
vän	-9.28044
▁ikään	-9.28098
▁turva	-9.28155
▁miljoonan	-9.28242
▁sisällä	-9.28273
kisoissa	-9.28327
▁Sami	-9.28359
▁sijaitseva	-9.28424
ura	-9.28424
▁500	-9.2856
▁minuuttia	-9.2865
vuotiaana	-9.28764
isin	-9.28864
tto	-9.2903
mäki	-9.29076
▁melko	-9.29103
▁Venäjällä	-9.29111
kset	-9.29151
be	-9.2934
▁vähintään	-9.29378
▁saivat	-9.29429
▁hyvinvointialue	-9.29515
▁samaan	-9.29636
essaan	-9.29645
▁puhu	-9.29672
▁kaikkea	-9.29696
▁suur	-9.29774
▁Yhdysvalloissa	-9.29855
▁vähemmän	-9.29855
▁pelannut	-9.30018
U	-9.30088
eseen	-9.30143
▁Salo	-9.30247
▁Timo	-9.30263
▁J	-9.30285
▁25	-9.30288
▁valtio	-9.30373
▁Haavisto	-9.30401
▁sosiaalisessa	-9.30542
▁päässä	-9.30565
ää	-9.30628
▁pohja	-9.30647
▁mahdollis	-9.30667
ing	-9.30681
▁Ukrainassa	-9.30748
tulo	-9.30751
iltä	-9.30799
▁kohdalla	-9.30818
▁Silloin	-9.3084
▁Mikä	-9.30865
▁johtaa	-9.30884
▁kukaan	-9.30976
▁Lauri	-9.31014
▁Suomea	-9.31022
▁7	-9.31127
▁monta	-9.31333
▁Ki	-9.31369
▁toiminut	-9.31527
▁Poliisin	-9.31531
▁Bo	-9.31566
▁ottelua	-9.31593
alan	-9.31793
▁yhteen	-9.31913
▁liittyy	-9.31952
▁Kyseessä	-9.31964
▁laji	-9.3201
ee	-9.32029
toimi	-9.32072
▁Ju	-9.32099
▁Co	-9.3212
▁ykkös	-9.32207
aho	-9.32231
▁esi	-9.32273
ikka	-9.32325
▁odottaa	-9.32376
▁olympia	-9.325
sy	-9.3266
▁eteenpäin	-9.32772
▁toi	-9.32819
▁Samalla	-9.32859
▁vastasi	-9.32918
▁tukea	-9.33089
tui	-9.33162
▁elämän	-9.33204
kauden	-9.33207
▁Norjan	-9.33213
▁kokonaan	-9.33276
▁hä	-9.33287
tilaisuudessa	-9.33328
▁kotiin	-9.33386
▁keväällä	-9.33595
tys	-9.33643
▁Niin	-9.33657
▁tehtiin	-9.33928
▁Työ	-9.34148
▁tapahtuu	-9.3426
▁maassa	-9.34427
▁kesällä	-9.34461
▁Juha	-9.34531
▁ollaan	-9.34534
▁kunnossa	-9.34547
▁muutama	-9.3455
▁sivu	-9.34553
▁kampanja	-9.34568
len	-9.3468
keskus	-9.34769
bo	-9.34939
▁po	-9.3518
▁epäilty	-9.35202
▁asiantuntija	-9.35272
▁L	-9.35285
laiset	-9.3531
▁Janne	-9.35401
neiden	-9.3554
▁tuttu	-9.35547
▁kasvu	-9.35567
▁sotilas	-9.35635
▁Ru	-9.35707
L	-9.35721
▁pääse	-9.35743
▁päässyt	-9.35773
▁To	-9.35905
▁oikea	-9.35968
▁paikan	-9.36063
▁prosentin	-9.36116
ir	-9.36155
▁hieno	-9.36198
▁lasku	-9.36205
▁ro	-9.36237
▁Stubbin	-9.36285
▁tehtävä	-9.36291
▁Lu	-9.36413
▁raha	-9.36425
miseksi	-9.36597
tila	-9.36673
elta	-9.36731
st	-9.36786
▁viikonloppuna	-9.36852
▁saatu	-9.36917
▁halusi	-9.36953
▁käynyt	-9.37028
siin	-9.37104
▁saadaan	-9.37196
ttävä	-9.3729
▁Lo	-9.37298
▁sosiaali	-9.3731
▁mahdollisuus	-9.37353
▁pitkän	-9.37421
▁Ennen	-9.37513
▁miestä	-9.37571
▁Saksan	-9.37599
rä	-9.37636
kirja	-9.37649
▁sinne	-9.37674
▁töitä	-9.37752
▁käytännössä	-9.37853
▁Tu	-9.37871
▁apua	-9.37914
▁tapahtuma	-9.38009
▁palaa	-9.38031
▁tilanteen	-9.3808
▁emme	-9.381
▁Toinen	-9.38108
▁näytti	-9.38169
▁ilma	-9.38233
▁var	-9.38316
▁alkaen	-9.3852
▁kesän	-9.38695
▁riittää	-9.38698
▁pystyy	-9.38786
▁saavat	-9.38795
tie	-9.38815
▁kärki	-9.38836
▁Vladimir	-9.38882
▁metriä	-9.39089
▁tuntia	-9.39157
peli	-9.39219
▁media	-9.39277
▁loma	-9.39324
▁siltä	-9.3933
▁yritys	-9.39335
▁Ville	-9.39407
▁työn	-9.39421
▁vuoteen	-9.39462
▁olisivat	-9.39536
▁taustalla	-9.39544
▁mene	-9.39818
▁erityisen	-9.39849
▁tulevat	-9.39857
▁toista	-9.3991
▁maalin	-9.40024
▁Pari	-9.4013
F	-9.40149
ava	-9.40162
▁ex	-9.40225
toista	-9.40262
gi	-9.40476
▁Orpon	-9.40489
uus	-9.40534
ven	-9.40608
sesti	-9.40738
▁lähteä	-9.40784
▁Ni	-9.40843
matka	-9.40891
▁kysyi	-9.4096
▁omistaja	-9.40999
▁peräti	-9.41007
▁kilometriä	-9.41235
▁myöskään	-9.41289
▁neljän	-9.41322
vas	-9.4141
▁rakennus	-9.41478
▁noussut	-9.41524
▁Ruotsi	-9.4155
nee	-9.41752
▁60	-9.41824
▁lento	-9.42106
▁saapui	-9.42108
▁nuori	-9.42175
▁kerrottiin	-9.42268
▁yhtiö	-9.42363
▁seuran	-9.42442
▁tulo	-9.42552
▁tie	-9.42556
mman	-9.42589
▁li	-9.42591
▁joskus	-9.42607
▁minun	-9.4262
▁hallinto	-9.4278
▁muutaman	-9.42793
kun	-9.42853
▁9	-9.42854
▁tanssi	-9.42889
esti	-9.4291
▁lasta	-9.42937
▁YK	-9.4298
▁ammatti	-9.43038
V	-9.43098
▁Yhdysvallat	-9.43166
berg	-9.43186
kuva	-9.43207
▁toimittaja	-9.43252
es	-9.43395
tusta	-9.43478
▁viikkoa	-9.43671
▁kii	-9.4373
▁Kar	-9.43793
don	-9.43818
▁soi	-9.4382
▁MTV	-9.43887
▁ihmis	-9.44029
▁yhdeksän	-9.44132
▁Olli	-9.44167
osa	-9.44213
▁Hi	-9.44271
▁muutos	-9.44327
pari	-9.4435
▁maksaa	-9.44353
▁Ma	-9.44424
jien	-9.44483
▁tunne	-9.44541
▁asiassa	-9.44563
▁tilanteesta	-9.44649
▁taistelu	-9.44666
eli	-9.44671
teet	-9.44711
▁aloittaa	-9.44818
▁itsensä	-9.44827
▁ihminen	-9.44857
ot	-9.44933
esi	-9.44939
▁so	-9.45081
▁sy	-9.45107
sivat	-9.45116
▁kuljettaja	-9.45158
▁ryhmä	-9.45376
▁2016	-9.45426
▁suomalainen	-9.45435
▁syntyi	-9.45444
▁ri	-9.45641
▁itseään	-9.45684
▁palo	-9.45775
laisten	-9.45839
sarjassa	-9.45892
▁Mika	-9.45923
tuu	-9.4594
▁ihmisen	-9.45993
▁toimintaa	-9.46064
tunut	-9.4623
▁entistä	-9.46318
viä	-9.46433
▁lääkäri	-9.46465
▁Ala	-9.46539
miin	-9.46566
G	-9.46742
mon	-9.46849
▁runsaasti	-9.46881
▁takaa	-9.46905
▁lain	-9.46919
ba	-9.46927
▁huomiota	-9.47011
▁Leijoni	-9.47055
▁Jukka	-9.47097
▁tulossa	-9.47138
▁asiat	-9.47214
▁lähde	-9.47229
▁ke	-9.47283
▁juhla	-9.47358
▁siksi	-9.47393
▁tunnettu	-9.47394
▁va	-9.4747
▁W	-9.4749
▁palasi	-9.47504
ov	-9.47568
▁mennyt	-9.47629
▁olemaan	-9.47654
luvulla	-9.47674
▁Kari	-9.47698
tel	-9.47791
▁aja	-9.47904
▁katso	-9.47928
▁parin	-9.47933
seura	-9.47968
▁suoja	-9.47995
▁julkaistu	-9.48072
▁näkee	-9.48199
▁metsä	-9.48219
▁vii	-9.48291
▁vuokra	-9.48298
▁tulos	-9.48301
asti	-9.48308
▁Be	-9.48333
▁tapa	-9.48356
tava	-9.48383
▁meri	-9.48422
misestä	-9.48469
▁halunnut	-9.48592
um	-9.48593
▁itselleen	-9.4861
▁no	-9.48639
uksiin	-9.48654
▁sarjan	-9.48678
▁kesänä	-9.487
▁kärsi	-9.48734
▁verrattuna	-9.48776
▁Matti	-9.48899
▁heitä	-9.48947
▁Helsinki	-9.49044
▁kar	-9.49098
▁rooli	-9.49156
▁Pariisin	-9.49162
▁jalkapallo	-9.49305
▁vaati	-9.49353
liiton	-9.49359
isiä	-9.49443
▁yönä	-9.49509
▁maahan	-9.49546
▁Ba	-9.49685
▁sille	-9.49702
▁mahdollisesti	-9.49755
vu	-9.49756
▁mihin	-9.49768
▁Tuo	-9.4979
▁Suomalais	-9.49794
▁hy	-9.49929
▁kaikille	-9.4994
▁osallistui	-9.50047
J	-9.5012
▁Oma	-9.50278
▁Kaksi	-9.50295
▁finaali	-9.50308
▁Siellä	-9.50372
▁toimia	-9.50382
ran	-9.50399
▁Joe	-9.50423
▁Siitä	-9.50554
▁kanta	-9.50598
rei	-9.50619
ske	-9.50641
▁kuulu	-9.50686
▁Koko	-9.50693
▁toki	-9.50789
voima	-9.50829
▁Länsi	-9.50857
▁uhka	-9.50887
▁keskellä	-9.5092
työ	-9.5093
▁saisi	-9.50943
▁erikois	-9.51001
▁katsoi	-9.51022
▁myynti	-9.51028
taso	-9.51047
▁tahansa	-9.51121
▁joutuu	-9.51215
▁yllä	-9.51245
▁monet	-9.51319
▁hetki	-9.51347
▁sata	-9.51363
▁Halla	-9.51391
▁minua	-9.51514
▁Instagramissa	-9.51576
▁puolueen	-9.51741
▁oppi	-9.51748
▁huolta	-9.51779
▁Kyse	-9.51877
▁lähi	-9.51892
▁huomauttaa	-9.51913
▁virka	-9.51915
▁erilaisia	-9.51944
▁Marin	-9.51962
▁tilaa	-9.52079
▁eteen	-9.52156
▁Hu	-9.52226
▁malli	-9.52244
▁tunnin	-9.52316
▁Tä	-9.52326
▁2025	-9.52326
ul	-9.52391
w	-9.52476
▁Varsinais	-9.52516
▁sellaista	-9.52523
▁yksin	-9.52645
toja	-9.52649
kit	-9.52659
▁ravintola	-9.52671
▁toisella	-9.52722
▁Laine	-9.52845
▁jakso	-9.52886
▁Presidentti	-9.52895
th	-9.52982
tää	-9.52987
▁2022.	-9.52991
mpia	-9.53158
▁maalia	-9.53187
▁minulla	-9.53313
ari	-9.53347
▁meille	-9.53389
▁yritti	-9.53462
▁liikaa	-9.5349
▁hoito	-9.53513
sarja	-9.53554
▁etelä	-9.5356
▁parempi	-9.53563
▁talvi	-9.53599
ed	-9.53773
asia	-9.53793
▁elokuva	-9.53866
ele	-9.53876
▁kerta	-9.53891
▁lapset	-9.53905
▁viestipalvelu	-9.54028
mällä	-9.54108
▁vuodessa	-9.54125
▁helposti	-9.54173
▁&	-9.54281
▁ura	-9.5436
eissa	-9.54383
▁vahva	-9.54403
iseen	-9.54451
▁laki	-9.54495
▁Nämä	-9.54543
▁pohtii	-9.54653
▁tila	-9.54697
udu	-9.54807
kar	-9.54873
hdi	-9.54896
jille	-9.54945
▁Vuoden	-9.55038
kunta	-9.55057
▁perin	-9.55266
▁talo	-9.55303
▁ilmi	-9.55335
▁median	-9.55361
▁onnistui	-9.55377
▁juo	-9.55386
son	-9.55421
▁päähän	-9.55444
▁ajaa	-9.55537
▁palkka	-9.55549
▁some	-9.55558
▁nousee	-9.55581
llisen	-9.55829
▁voiton	-9.55869
▁tasolla	-9.55943
▁val	-9.55991
mien	-9.56048
tar	-9.56057
▁kiekko	-9.56063
▁suomalaisten	-9.56154
▁rikos	-9.56191
▁uransa	-9.56276
▁koo	-9.56312
kat	-9.56334
▁Sanna	-9.56381
▁maksu	-9.56433
keskuksen	-9.56438
▁tuntui	-9.5651
▁vahvistaa	-9.56522
▁uutistoimisto	-9.56646
▁ystävä	-9.56756
▁seurauksena	-9.56811
▁Ga	-9.56837
▁vuosia	-9.56852
▁toiseksi	-9.57026
▁käytössä	-9.57064
uksesta	-9.57164
▁kaikkia	-9.57254
▁Niinistö	-9.57258
▁Purra	-9.57273
▁helmikuussa	-9.57281
▁lapsia	-9.57362
▁Oulussa	-9.57407
▁prinsessa	-9.57433
▁syksyllä	-9.57471
stään	-9.57488
▁Ensi	-9.575
▁sa	-9.57533
▁voittaja	-9.57624
▁yö	-9.57654
▁syntynyt	-9.57657
▁Par	-9.57742
jat	-9.57758
ministeriön	-9.57774
▁saaneet	-9.57855
▁pyöri	-9.57888
▁jättää	-9.57956
▁missään	-9.58023
▁aikoina	-9.58063
▁pelin	-9.58226
per	-9.58235
ikko	-9.58366
ottelu	-9.58406
pelaaja	-9.58421
hde	-9.58459
▁per	-9.58504
▁jatkossa	-9.58572
▁Maa	-9.58584
%	-9.5862
▁tee	-9.58677
neensä	-9.58684
joukkue	-9.58686
▁puolen	-9.58715
▁Val	-9.58752
▁juoksu	-9.58778
▁Kiinan	-9.5886
nnin	-9.58973
▁ymmärtää	-9.59186
▁korkea	-9.59213
▁Andersson	-9.59247
yö	-9.59282
lehden	-9.59319
▁BBC	-9.59347
▁Teemu	-9.59348
▁kovaa	-9.5936
ttänyt	-9.59433
▁ongelmia	-9.59501
▁iski	-9.59516
▁prinssi	-9.59559
kesk	-9.5959
▁jatko	-9.59675
▁sijaitsee	-9.59774
▁väri	-9.59841
pin	-9.59852
eja	-9.59858
kor	-9.5988
▁alueelle	-9.59893
▁sala	-9.59916
▁vaimo	-9.60071
▁lo	-9.60104
val	-9.60123
▁Jari	-9.60127
▁Tampereen	-9.60148
▁AFP	-9.60208
ji	-9.60224
päivän	-9.60262
▁kauppa	-9.60264
ttanut	-9.60483
▁uhri	-9.60496
▁Onko	-9.60515
▁kysymys	-9.60528
ohjelman	-9.60552
▁tiedot	-9.60635
▁kuka	-9.60718
▁merkittävä	-9.60723
▁lopulla	-9.60754
uutta	-9.6082
▁Tai	-9.60914
▁kotona	-9.60923
▁tietysti	-9.60933
▁nyky	-9.60955
▁sisä	-9.61009
▁nähnyt	-9.61074
alueella	-9.61085
▁helppo	-9.6114
▁euro	-9.61167
▁joulukuussa	-9.61198
▁ti	-9.61269
▁tiedossa	-9.61292
▁työtä	-9.61292
puoli	-9.61315
isti	-9.61693
▁kasvoi	-9.617
▁auki	-9.61706
▁Itse	-9.61761
uuden	-9.61787
▁yksityis	-9.61806
▁tappio	-9.61965
▁saatiin	-9.61977
▁aamu	-9.62061
▁suomalaiset	-9.62131
▁aikaisemmin	-9.62172
imme	-9.62198
omi	-9.62247
▁teko	-9.62331
▁Tuolloin	-9.6241
▁York	-9.62439
media	-9.62453
▁yleisö	-9.62544
py	-9.62549
▁Ruotsissa	-9.62573
▁Reuters	-9.62595
mer	-9.62624
▁Ottelu	-9.62638
isku	-9.62685
▁vahvasti	-9.62735
järjestö	-9.62739
▁Aiemmin	-9.6274
ryhmä	-9.62761
▁samaa	-9.62831
selle	-9.62834
▁parhaan	-9.62857
▁tien	-9.62876
▁valo	-9.63024
▁SDP	-9.6306
▁ottanut	-9.63067
▁jonkin	-9.63077
▁keho	-9.63092
▁aihe	-9.6311
▁vanha	-9.63224
▁puoliso	-9.63268
▁toiseen	-9.6332
▁tammikuussa	-9.63329
▁elämää	-9.63332
▁syystä	-9.63379
▁ehti	-9.6338
vero	-9.6343
▁viimeisen	-9.63442
▁nykyään	-9.6354
▁Siksi	-9.6354
▁sä	-9.63641
▁venäläis	-9.63689
▁ainoastaan	-9.63766
▁poikkeuksellise	-9.63814
▁yrittää	-9.63835
▁vaihtoehto	-9.6415
▁auttaa	-9.64295
▁pienen	-9.64364
vänsä	-9.64382
▁muistelee	-9.64418
ero	-9.64427
▁vettä	-9.64569
ineen	-9.64584
▁Ranskan	-9.64643
vel	-9.64646
▁etsi	-9.6473
▁ru	-9.64761
▁käräjäoikeus	-9.64853
uh	-9.64916
hy	-9.65019
▁Harry	-9.65049
▁nousu	-9.65136
▁El	-9.65141
▁Tästä	-9.65247
▁antanut	-9.65324
▁omat	-9.65439
▁mikään	-9.65574
▁tutkimus	-9.65654
▁tiedon	-9.65707
20	-9.6573
▁Venäjälle	-9.65781
▁voima	-9.65911
niemi	-9.65972
▁mo	-9.66016
▁hiihto	-9.66034
malli	-9.661
▁kansan	-9.6621
var	-9.66227
▁valtava	-9.66344
▁koulun	-9.6637
▁sisään	-9.664
▁Palo	-9.66429
tojen	-9.66434
▁kuukautta	-9.66453
▁300	-9.66527
▁Eli	-9.66579
▁kasva	-9.66592
▁elämä	-9.66644
▁mä	-9.66662
▁olemassa	-9.66673
▁CNN	-9.66681
▁hetken	-9.66692
▁huomattavasti	-9.66725
▁sopimus	-9.66757
ker	-9.66848
▁raju	-9.66879
▁tausta	-9.66883
▁mielessä	-9.66908
▁Saksa	-9.6691
▁joutunut	-9.67021
llisia	-9.67057
▁käydä	-9.67074
▁päätöksen	-9.67087
▁Olin	-9.67094
ala	-9.67104
▁joukossa	-9.67172
▁ennätys	-9.67351
▁voittaa	-9.67391
▁esille	-9.67439
aali	-9.67478
▁käytetty	-9.67486
▁hurja	-9.67521
imman	-9.67557
▁vastaava	-9.67653
▁tarvitaan	-9.67681
▁eräs	-9.67707
valta	-9.67785
▁liiga	-9.67803
ajo	-9.67812
kkaan	-9.6792
▁vastuu	-9.67967
▁kuoleman	-9.67986
▁kuvia	-9.67987
▁oikeasti	-9.6799
▁etteivät	-9.68087
vasta	-9.68165
oi	-9.682
▁Ti	-9.6825
co	-9.68372
▁syyskuussa	-9.68412
▁varmaan	-9.68423
▁avaa	-9.68485
▁ensimmäisenä	-9.68504
▁juna	-9.68529
za	-9.68563
▁Maria	-9.68563
▁suomalaisen	-9.68706
▁Koti	-9.68735
▁suosikki	-9.68735
ttavat	-9.68775
▁yrittäjä	-9.6881
kunnan	-9.68825
paikan	-9.68825
kkä	-9.6892
▁yliopiston	-9.6899
▁kiinteistö	-9.69006
▁koira	-9.69042
▁ihme	-9.69164
▁astetta	-9.69174
▁näitä	-9.69253
▁uhkaa	-9.69272
ase	-9.69313
tia	-9.69355
▁tietoja	-9.69372
aja	-9.69387
▁nais	-9.69395
▁400	-9.69397
▁kasvaa	-9.6946
▁löytää	-9.69488
▁Hy	-9.6949
▁koe	-9.69545
▁kevään	-9.69578
merkki	-9.6959
▁viikko	-9.69608
▁arvio	-9.69703
▁suuren	-9.69714
▁Sama	-9.69737
▁paljastaa	-9.69738
iko	-9.69778
▁Tilanne	-9.69903
▁ampuma	-9.69969
ik	-9.69988
▁marraskuussa	-9.70051
asiantuntija	-9.70054
▁molemmat	-9.70202
▁kuvaili	-9.70247
▁myöntää	-9.7027
▁kesäkuussa	-9.70341
▁ilmasto	-9.70394
▁kertoivat	-9.70431
▁maajoukkue	-9.70444
▁Vielä	-9.70447
▁tu	-9.70475
der	-9.70491
▁pakko	-9.70501
▁päättää	-9.70502
▁Ukrainaan	-9.70527
olo	-9.70533
▁osin	-9.70765
ek	-9.7083
▁puolet	-9.70922
▁alas	-9.70945
ministeriö	-9.71044
▁yllätys	-9.71047
▁Mä	-9.71107
ren	-9.71118
▁vir	-9.71118
ville	-9.71144
▁yhtään	-9.71164
laista	-9.71171
illaan	-9.71177
▁toukokuussa	-9.71207
▁alun	-9.71286
▁mitali	-9.71321
▁siirtyi	-9.71351
▁hyökkäys	-9.71418
▁viimeinen	-9.71422
▁Lähi	-9.71432
as	-9.71432
▁päin	-9.71447
▁naapuri	-9.71507
kisojen	-9.71514
ca	-9.71518
▁pikku	-9.71522
▁juhli	-9.7158
▁samassa	-9.71726
▁hyviä	-9.71748
▁valta	-9.71812
ston	-9.71884
▁2018	-9.71924
▁Aika	-9.71966
ol	-9.71997
▁lähtö	-9.72045
▁kolmas	-9.72051
▁talon	-9.72077
lassa	-9.72123
▁lumi	-9.72127
▁sana	-9.72172
▁seksi	-9.72219
▁haluaisi	-9.72253
▁kulu	-9.72295
ise	-9.72347
▁maata	-9.72431
kausi	-9.72479
▁lii	-9.72486
sh	-9.7249
▁johto	-9.7252
▁ainakaan	-9.72594
▁Marko	-9.72597
ttelu	-9.7272
Suomessa	-9.72739
▁suure	-9.72749
isessa	-9.72796
▁mieleen	-9.72879
▁lokakuussa	-9.72919
▁yleis	-9.72945
▁Katso	-9.73058
mat	-9.73092
▁laittaa	-9.73127
▁esittää	-9.73128
▁sieltä	-9.73141
kohta	-9.73158
▁21	-9.73164
▁rikko	-9.73182
ettu	-9.73182
▁Ukrainalle	-9.73234
▁Nainen	-9.73273
▁Ve	-9.73325
▁vuo	-9.73351
▁hänestä	-9.73378
▁tähti	-9.735
▁tavoin	-9.73605
▁kerro	-9.73657
▁ulkoministeri	-9.73715
▁asteen	-9.73747
tut	-9.73761
▁Hanna	-9.73812
▁In	-9.73848
▁Sdp	-9.73852
▁katsoa	-9.7389
▁ministeri	-9.73928
▁Ca	-9.73935
▁otettu	-9.73961
▁Minulla	-9.74003
▁Y	-9.7401
▁ar	-9.74076
▁kierroksella	-9.74103
▁videon	-9.74116
▁veden	-9.74134
▁Wi	-9.74141
siä	-9.7415
▁liike	-9.74182
▁Kalle	-9.74186
▁entisen	-9.74222
▁koske	-9.74259
▁kansa	-9.74288
ehdokas	-9.74307
vää	-9.74321
▁käynnissä	-9.74349
utti	-9.74355
▁keskustelua	-9.74476
▁puhui	-9.74511
▁Miten	-9.74523
▁Gazan	-9.74557
▁of	-9.74567
▁0	-9.74587
▁vakava	-9.74591
▁järjestetään	-9.746
▁tuomittiin	-9.74608
▁Zelenskyi	-9.74651
▁Suomesta	-9.74709
▁Har	-9.74725
istu	-9.74778
koi	-9.74819
lain	-9.74836
▁Rovanperä	-9.74906
▁laaja	-9.7509
alue	-9.75155
teiden	-9.75259
▁nosti	-9.75363
▁tunnetaan	-9.75399
ksesta	-9.75407
▁merkittävästi	-9.75477
▁tarjolla	-9.75525
▁lauantai	-9.75538
ojen	-9.75596
▁lähtenyt	-9.75619
▁musta	-9.75632
▁maaliskuussa	-9.75677
▁m	-9.75765
▁perjantai	-9.7579
▁eduskunnan	-9.75855
▁perussuomalaist	-9.75856
▁vaikeaa	-9.75897
▁muisto	-9.7596
▁rauhan	-9.75987
las	-9.76019
▁asunto	-9.76029
▁korona	-9.76055
▁kohu	-9.76101
▁mukaisesti	-9.76145
mus	-9.7619
▁kuningas	-9.76191
eltä	-9.76201
▁maksa	-9.76243
▁löysi	-9.76308
▁asiakas	-9.76395
▁videolla	-9.76456
tilanne	-9.76469
▁sairaalaan	-9.7658
▁henkilöä	-9.76615
▁muistaa	-9.76648
mm	-9.76709
▁selvää	-9.76765
▁hahmo	-9.76827
▁piha	-9.7683
▁80	-9.76839
▁vähä	-9.7686
▁Vain	-9.76864
▁35	-9.76868
▁Hallitus	-9.77033
▁Da	-9.77036
▁sauna	-9.77051
▁alkanut	-9.77132
▁asioista	-9.77155
▁elokuussa	-9.7719
masta	-9.77243
▁Tätä	-9.77257
▁toivo	-9.77271
asu	-9.77308
▁selvittää	-9.77392
▁varma	-9.77491
▁Meidän	-9.77652
oista	-9.77764
▁Harrisin	-9.77767
▁Kai	-9.77799
▁korostaa	-9.77809
▁päätyi	-9.77836
▁seuraava	-9.77973
▁kala	-9.78012
tyy	-9.78041
tua	-9.78068
▁suosi	-9.78164
ila	-9.78215
mmat	-9.78255
▁Euroopassa	-9.78259
▁Meri	-9.7826
▁kunnia	-9.78395
ger	-9.78406
▁lämpötila	-9.78415
▁pidetään	-9.78421
mäen	-9.78447
▁avaus	-9.78458
▁1.	-9.78522
▁Du	-9.78567
▁sopimuksen	-9.7867
▁paikallis	-9.78689
▁selvä	-9.7871
▁sanonut	-9.78721
ttamaan	-9.7873
valmentaja	-9.78793
tetty	-9.78833
ttele	-9.78932
viin	-9.7894
▁muuten	-9.78944
oita	-9.78983
▁toivoo	-9.79037
▁tavoitteena	-9.7904
▁hyväksy	-9.79044
▁tiedotti	-9.79046
▁Juttu	-9.79168
▁kakkos	-9.79182
]	-9.79197
suo	-9.79218
▁muuttaa	-9.79279
▁Iranin	-9.79326
uka	-9.79368
ikki	-9.79434
▁ilme	-9.79538
▁Heikki	-9.7954
▁joko	-9.79572
ilee	-9.79574
linja	-9.79592
▁näy	-9.7961
em	-9.79627
uksissa	-9.79718
▁USA	-9.7973
▁laske	-9.79749
▁Saa	-9.79771
▁muutti	-9.79785
vesi	-9.79911
uri	-9.79967
▁julkisuudessa	-9.79985
▁katsoo	-9.80077
▁Ehkä	-9.80249
▁vakavasti	-9.80365
▁taso	-9.80389
▁selvisi	-9.80439
▁[	-9.80521
▁2014	-9.80526
ss	-9.80542
nnan	-9.80555
▁hyökkääjä	-9.80622
ria	-9.80755
▁nimenomaan	-9.80779
▁HIFK	-9.80779
▁tuomio	-9.80801
▁normaali	-9.80922
▁Hyvä	-9.80943
ssään	-9.81001
▁23	-9.81036
▁odotetaan	-9.81059
▁yrityksen	-9.81109
▁halu	-9.81113
▁koskeva	-9.81114
▁paha	-9.81298
vista	-9.81332
▁toimiva	-9.8134
▁muutoksia	-9.81363
▁katu	-9.8143
▁tekevät	-9.81481
▁tuleva	-9.81489
▁energia	-9.81501
▁Her	-9.81541
laisia	-9.81541
▁ralli	-9.81601
▁Gu	-9.81646
▁osui	-9.81732
▁kertoa	-9.81753
▁Ranska	-9.81802
▁tosin	-9.81803
▁heikko	-9.81811
▁tulevan	-9.81826
▁Sai	-9.81846
▁ulkopuolella	-9.81852
▁lainkaan	-9.81893
▁uran	-9.82041
vuotiaiden	-9.82124
▁jäädä	-9.8214
▁Urheilu	-9.82172
yty	-9.82175
▁kaveri	-9.822
ah	-9.82221
▁sunnuntai	-9.82257
▁hää	-9.8233
tit	-9.8234
▁pyysi	-9.82387
▁tuomari	-9.82387
▁asuva	-9.82418
▁f	-9.82431
▁presidentinvaal	-9.82502
▁St	-9.82606
▁Red	-9.82607
▁70	-9.82618
▁Kor	-9.82625
▁22	-9.82666
▁joukko	-9.82668
▁kauan	-9.82687
▁tapaa	-9.82702
▁Tappara	-9.82725
▁Seuraava	-9.82732
▁urheilija	-9.82767
▁aluksi	-9.82793
▁virhe	-9.82803
▁televisio	-9.82822
▁selkeä	-9.82844
laa	-9.82863
▁vaimonsa	-9.82906
▁heistä	-9.82907
▁isku	-9.82923
▁kaikista	-9.82932
▁myy	-9.82952
▁ravi	-9.82955
▁aurinko	-9.83001
▁kunta	-9.8301
▁Oulu	-9.8305
▁aamulla	-9.83052
ner	-9.83102
▁talouden	-9.83167
▁heille	-9.8319
▁aiempaa	-9.832
▁puhua	-9.83286
▁pyytää	-9.83291
▁An	-9.83361
llään	-9.83491
▁laulaja	-9.83566
etaan	-9.83575
▁Fa	-9.83643
valla	-9.83647
▁puolelle	-9.83665
toimittaja	-9.83667
▁paitsi	-9.83721
ime	-9.83747
▁maasto	-9.83754
▁toisessa	-9.83764
▁epäilee	-9.83774
▁jaksossa	-9.83795
▁halli	-9.83812
iseksi	-9.83829
ija	-9.83837
▁varsinkin	-9.83847
▁hävisi	-9.84
▁Charles	-9.84042
ole	-9.84055
iri	-9.84147
▁aiheutti	-9.84162
vuosi	-9.84178
▁kannata	-9.84223
▁hiljattain	-9.84292
▁sellaisia	-9.84295
▁löytynyt	-9.84301
▁dollaria	-9.84327
▁Salossa	-9.84337
▁kisan	-9.84351
▁omia	-9.84359
mar	-9.84493
▁Toisaalta	-9.84568
▁liittyen	-9.84568
sd	-9.84612
▁onnistunut	-9.84623
▁HS	-9.84692
inä	-9.84713
hoito	-9.8479
ohjelmassa	-9.84803
▁Koska	-9.84896
▁illan	-9.84917
▁et	-9.85132
jan	-9.85169
▁huhtikuussa	-9.85183
▁loukkaantui	-9.85194
▁keikka	-9.85205
▁määrää	-9.85211
pan	-9.85282
▁mieli	-9.85288
▁Kiina	-9.85329
▁tiedotus	-9.85365
▁mestari	-9.85393
▁nähden	-9.85399
▁niihin	-9.85412
▁Mari	-9.85452
dan	-9.8547
▁iltapäivällä	-9.85477
ment	-9.85536
▁viittaa	-9.85567
▁tutki	-9.85591
▁haastattelu	-9.85627
ryhmän	-9.85659
▁myönsi	-9.85677
▁onkin	-9.85679
▁heinäkuussa	-9.85703
▁yhteyttä	-9.8573
▁tuote	-9.85803
▁Emme	-9.85908
▁kokoomuksen	-9.85956
▁Ali	-9.85963
▁Tampereella	-9.85964
▁lie	-9.8606
rk	-9.86236
▁pelkästään	-9.86239
▁lähinnä	-9.86239
▁kone	-9.86251
ttelee	-9.86251
▁Hänellä	-9.86257
hte	-9.86375
▁miljoona	-9.86472
▁nimittäin	-9.86518
▁yhtiön	-9.86606
▁yksilö	-9.86644
▁Ver	-9.86709
▁Molemm	-9.86813
vuus	-9.86819
järjestelmä	-9.8682
▁Niskanen	-9.86821
▁maiden	-9.86863
▁u	-9.86878
tra	-9.86888
▁kuuluvat	-9.86951
yttä	-9.86956
▁asuu	-9.87005
▁ikä	-9.87036
▁parhaillaan	-9.87088
▁tuskin	-9.87092
▁nopea	-9.87108
▁kokenut	-9.87113
▁vaaleissa	-9.87197
mmi	-9.8722
▁Syy	-9.87265
laji	-9.87304
▁Pro	-9.87313
▁tapaan	-9.87327
▁super	-9.87363
▁tyytyväinen	-9.87365
▁poliisille	-9.87368
▁r	-9.8763
▁etukäteen	-9.87649
▁tavoite	-9.87658
▁istu	-9.87658
▁tiedottaa	-9.87677
päivänä	-9.87698
▁tuore	-9.87715
▁isänsä	-9.87768
tuksi	-9.8786
▁kaikkiaan	-9.87931
tiellä	-9.87992
osta	-9.87998
pallo	-9.88003
▁eroa	-9.88018
raja	-9.88066
ossa	-9.88078
▁tarvitsee	-9.88142
▁Taka	-9.88177
▁haaste	-9.88189
▁saattoi	-9.88222
▁Lopulta	-9.8828
▁tutkija	-9.88284
▁Valko	-9.88337
▁suu	-9.88359
koulu	-9.88462
voitto	-9.88478
▁usea	-9.88501
▁julkisuuteen	-9.88506
▁Kamala	-9.88514
▁käytetään	-9.88534
oma	-9.88538
▁tili	-9.88596
misessa	-9.88623
▁aikataulu	-9.8863
▁selviää	-9.88653
▁Britannian	-9.88676
▁edustaja	-9.88689
▁kapteeni	-9.8869
▁vaike	-9.88712
▁silmä	-9.88769
▁matkan	-9.88783
▁ilta	-9.8884
▁Martin	-9.88853
▁kasvanut	-9.88873
▁ota	-9.88905
▁45	-9.88912
▁jalka	-9.88913
▁pitkin	-9.88921
ell	-9.88921
ori	-9.89013
▁vaikutus	-9.89085
50	-9.89125
▁keino	-9.89146
▁36	-9.89177
▁valittiin	-9.89257
▁ilo	-9.89311
sella	-9.89315
puu	-9.89357
▁väitti	-9.89374
▁esitys	-9.89385
▁minuutin	-9.89401
ude	-9.89404
▁aloi	-9.89496
▁Var	-9.89513
▁jutussa	-9.89546
▁aivo	-9.89547
kuski	-9.89563
maali	-9.89581
▁siten	-9.89585
▁pohjois	-9.89614
▁Niko	-9.89638
▁Tähän	-9.89688
▁pika	-9.8975
uuteen	-9.89756
▁valinta	-9.89798
▁verta	-9.89817
▁g	-9.89855
▁musiikki	-9.89872
▁pystynyt	-9.90006
▁tilasto	-9.90034
▁por	-9.90038
▁jääkiekko	-9.9005
▁Oikeus	-9.90067
▁historian	-9.90089
▁puhe	-9.90128
jia	-9.90224
tor	-9.90273
▁27	-9.90281
▁pelata	-9.90302
▁tyyli	-9.90341
▁Trumpia	-9.90345
▁90	-9.90408
▁kestää	-9.90427
▁sekuntia	-9.90434
sesta	-9.90529
imi	-9.90548
▁Seura	-9.90575
▁haluavat	-9.90581
lääkäri	-9.90754
▁Catherine	-9.90774
▁tuuli	-9.90815
▁hankki	-9.91035
▁kokee	-9.91039
iste	-9.91074
▁numero	-9.91114
▁uhrin	-9.91115
-20	-9.91128
▁Tänä	-9.91142
uttaa	-9.91157
▁Per	-9.912
▁ympärillä	-9.91206
▁soitti	-9.91213
▁aikojen	-9.91275
▁Kolme	-9.91309
▁sijoittui	-9.91425
▁Pääministeri	-9.91463
▁viestintä	-9.91598
etu	-9.91651
▁kansainvälise	-9.91659
▁talli	-9.91687
▁puhutaan	-9.91779
▁San	-9.91784
raa	-9.91809
▁tiistai	-9.9181
▁kiire	-9.91852
väli	-9.9192
▁vuoro	-9.91937
maksu	-9.9198
▁kierroksen	-9.91982
ltään	-9.91988
▁vieraili	-9.92013
▁Jenni	-9.92027
▁monen	-9.92095
▁kylmä	-9.92098
▁kehitys	-9.92167
▁väliin	-9.92181
▁matkalla	-9.92187
▁Mäki	-9.92209
Korean	-9.9224
▁lakko	-9.92258
▁yliopisto	-9.92259
é	-9.92333
▁hyvän	-9.92376
▁Jani	-9.92378
▁professori	-9.92379
▁yhteisö	-9.92383
pit	-9.92389
▁osuus	-9.92432
▁puhuu	-9.92492
▁Hamasin	-9.92607
sessa	-9.92654
im	-9.92656
▁pyörä	-9.92667
▁kilpailun	-9.92698
▁Daniel	-9.92775
▁tilanteeseen	-9.92789
▁hei	-9.92791
piste	-9.92791
▁aio	-9.92872
▁vuodelta	-9.92906
▁edellä	-9.92907
▁huolissaan	-9.92919
▁Viron	-9.92946
▁illalla	-9.92951
▁joukkoon	-9.93053
▁Mikael	-9.93089
▁Monet	-9.93113
▁sydän	-9.93156
▁välittömästi	-9.93226
▁parasta	-9.93276
15	-9.93327
▁miehet	-9.93421
▁ty	-9.93443
▁suori	-9.9346
25	-9.93484
työn	-9.93556
▁suora	-9.9358
▁tuotanto	-9.93586
reita	-9.93635
▁omasta	-9.93647
▁voimaan	-9.93691
kilpailu	-9.9375
▁ydin	-9.93786
▁Aho	-9.93903
▁Espanjan	-9.93907
amaan	-9.94038
▁Lapissa	-9.94065
▁yhteistyö	-9.94081
▁upea	-9.94115
ttyä	-9.94194
▁viranomaiset	-9.94229
▁kilpa	-9.94246
▁ilmiö	-9.94295
▁Enti	-9.94324
▁kuuden	-9.94397
▁Vasta	-9.94429
▁totta	-9.94466
▁törkeäst	-9.94469
miehen	-9.94478
▁tekijä	-9.94494
▁parissa	-9.94499
▁kuului	-9.94506
▁verkko	-9.94521
▁suosio	-9.94521
▁uima	-9.94548
▁15-	-9.94556
▁homma	-9.946
legenda	-9.94684
▁Rovaniemen	-9.94721
ber	-9.94763
▁epäillyn	-9.94799
tilillään	-9.94876
▁sähköauto	-9.94891
paikkaa	-9.94934
ottelussa	-9.9496
▁tuomitsi	-9.95028
▁Robert	-9.95028
▁äänestys	-9.95076
▁luku	-9.95079
▁saattavat	-9.95123
▁Koskela	-9.9518
▁kritisoi	-9.95202
alueen	-9.95282
▁luki	-9.95324
▁20-	-9.95331
▁tietenkin	-9.95334
▁keskusta	-9.95366
▁paljasti	-9.9538
▁suuria	-9.95397
▁joulukuuta	-9.9541
▁kriisi	-9.95536
▁van	-9.95544
▁keskustan	-9.95549
▁raa	-9.95577
▁osoittaa	-9.95582
▁Linnan	-9.95602
▁Innes	-9.95656
▁Olisi	-9.95679
▁ajatus	-9.95768
▁käytöstä	-9.958
eri	-9.95823
▁13.	-9.95915
del	-9.95917
met	-9.95922
nneet	-9.95924
▁elää	-9.95952
tori	-9.96059
▁summa	-9.96086
▁voittoa	-9.96087
▁Kan	-9.9609
▁siviili	-9.96178
▁tapaus	-9.96233
▁Pan	-9.9625
▁hal	-9.96264
har	-9.96269
▁johti	-9.96295
▁tiety	-9.96319
tur	-9.96346
▁Mäkelä	-9.96353
▁tulevaisuudessa	-9.9637
▁korva	-9.96404
▁vä	-9.96427
▁liikunta	-9.96431
▁vierailu	-9.96461
uksessa	-9.96466
op	-9.96482
vuotiasta	-9.96519
▁Ari	-9.96535
▁maailmanmestari	-9.96561
ranta	-9.96565
▁luvassa	-9.96575
▁paine	-9.96581
▁toive	-9.96581
▁lauantain	-9.96599
▁taakse	-9.96632
▁Ihan	-9.9667
▁luonnon	-9.96679
▁maanantai	-9.96709
▁Man	-9.96773
nnasta	-9.96783
▁operaatio	-9.96815
▁artisti	-9.96824
▁tytär	-9.96825
▁kiva	-9.96898
▁sanotaan	-9.96912
▁asiaan	-9.96967
tetään	-9.97033
▁liittyvät	-9.97119
lista	-9.97125
▁tällainen	-9.97195
▁Vantaan	-9.97198
▁näiden	-9.97201
eh	-9.9721
▁ehtinyt	-9.97228
▁alkoholi	-9.97245
ketju	-9.97268
▁julkaisu	-9.9727
▁jossain	-9.97339
▁perään	-9.97346
tapahtuma	-9.97373
▁sija	-9.97415
▁lau	-9.97444
▁suurta	-9.97494
▁yllättäen	-9.97508
▁toisin	-9.97549
Y	-9.97561
▁liigan	-9.97587
▁Riikka	-9.97594
liiga	-9.97729
▁maaliin	-9.97754
vaara	-9.97759
▁omalla	-9.97816
▁keskimäärin	-9.97822
emme	-9.97851
▁maku	-9.97851
ron	-9.97865
▁jakoi	-9.97867
▁omaan	-9.97898
▁Nä	-9.97934
▁naiset	-9.97938
lly	-9.97941
uma	-9.9795
▁kyl	-9.98002
▁joihin	-9.98036
sija	-9.98072
▁Yhtiö	-9.98138
▁muuttunut	-9.98165
▁usei	-9.98166
▁hyvinvointi	-9.98194
▁juontaja	-9.9823
▁keväänä	-9.98335
▁tuho	-9.98352
ad	-9.98364
▁maalivahti	-9.98365
▁torstai	-9.98374
▁urallaan	-9.98405
▁Bu	-9.98418
▁peruste	-9.98423
▁Ilmatieteen	-9.98455
mestari	-9.98514
▁peliä	-9.98523
▁lähetti	-9.98537
ster	-9.98558
▁Kesä	-9.98564
urheilu	-9.98617
eihin	-9.98658
▁Miksi	-9.98675
gin	-9.98782
▁kan	-9.98819
ily	-9.9885
▁sote	-9.98868
teko	-9.98878
▁jokainen	-9.98895
▁Video	-9.98969
▁väl	-9.99009
▁kansalais	-9.99033
▁11.	-9.99037
▁alta	-9.99069
kasta	-9.99076
▁HJK	-9.9909
▁tarkemmin	-9.9909
▁esiintyi	-9.991
▁pojan	-9.99125
▁ylä	-9.99184
ttaminen	-9.99187
toi	-9.99198
▁kaupungissa	-9.99258
▁eurolla	-9.99259
▁lupaa	-9.99317
▁ohjelmassa	-9.99366
▁koki	-9.99373
▁Hänet	-9.99374
▁syksynä	-9.99391
▁johtava	-9.99411
▁Kur	-9.99412
▁ikinä	-9.99447
▁huomioon	-9.99481
▁kumppani	-9.99495
itte	-9.99495
ttaisi	-9.99503
tteja	-9.99515
▁naista	-9.99571
tyksen	-9.9962
▁Harkimo	-9.9973
▁lä	-9.99734
▁viha	-9.99734
▁suru	-9.99779
ukseen	-9.99833
▁rajan	-9.99872
▁uutis	-9.99881
40	-9.999
▁Ben	-9.99931
▁paluu	-9.99937
▁luonto	-10.0005
▁alkavat	-10.0007
perä	-10.0008
▁osta	-10.001
▁kannatus	-10.0012
▁Rantanen	-10.0015
▁yhtenä	-10.0024
▁haki	-10.0025
▁Koivu	-10.0026
▁viestin	-10.0027
oilla	-10.0028
ehto	-10.0029
▁ruokaa	-10.0033
▁Koulu	-10.0034
gen	-10.0038
auton	-10.0039
▁milloin	-10.0039
▁hakea	-10.0044
▁Hallitukse	-10.0054
▁ensimmäisellä	-10.0059
▁vil	-10.0061
maiden	-10.0061
kse	-10.0065
▁suomalaista	-10.0066
tellut	-10.007
▁näki	-10.0074
▁Fi	-10.0077
▁nuoret	-10.0082
▁oikeuden	-10.0083
vara	-10.0086
isto	-10.0089
ttely	-10.009
▁Kuvassa	-10.009
gan	-10.0095
▁ruotsalais	-10.0096
▁ohella	-10.0102
▁aiheuttanut	-10.0105
▁2015	-10.0105
▁Max	-10.0105
▁Saksassa	-10.0109
▁testi	-10.0109
mmaksi	-10.0114
rit	-10.0116
ike	-10.0119
▁mestaruus	-10.0121
ken	-10.0121
ohjelma	-10.0123
▁elä	-10.0128
▁sammu	-10.013
▁Go	-10.0135
▁täynnä	-10.0135
▁Aki	-10.0135
▁pelastus	-10.0138
▁muihin	-10.0138
vuutta	-10.0147
▁pyrkii	-10.0149
▁tiedustelu	-10.0151
valiokunnan	-10.0154
▁Uuden	-10.0156
▁keräsi	-10.0165
▁Kallio	-10.0168
mpaan	-10.0168
▁onnistu	-10.0171
▁jatkuvasti	-10.0173
▁täysi	-10.0185
▁Vuosi	-10.0185
▁henkilön	-10.0186
▁pol	-10.0192
▁reilu	-10.0195
▁palkinto	-10.0197
▁Siihen	-10.02
▁otettiin	-10.0204
tanut	-10.021
▁sula	-10.021
▁14.	-10.0213
▁liki	-10.0213
pal	-10.0214
▁Krista	-10.0216
mättä	-10.0224
▁näistä	-10.0234
utui	-10.0237
▁bussi	-10.0239
▁väärin	-10.0242
▁ali	-10.0242
isesta	-10.0244
▁irti	-10.0262
▁öljy	-10.0265
▁erässä	-10.0267
▁Maan	-10.0268
isena	-10.027
talon	-10.0273
▁kau	-10.0274
▁tarina	-10.0275
▁tuoda	-10.0277
▁ensimmäisessä	-10.028
▁Do	-10.0286
tro	-10.0288
▁mitta	-10.0297
▁asema	-10.0297
chi	-10.0303
rö	-10.0309
▁muille	-10.0313
▁tyttö	-10.0316
▁pystyi	-10.0318
▁tarpeeksi	-10.0318
▁Muun	-10.0318
simme	-10.0319
▁Wa	-10.032
kea	-10.0325
▁näkyi	-10.0329
▁osan	-10.0329
▁kei	-10.0331
▁vahvisti	-10.0333
▁järjestää	-10.0334
▁Toki	-10.0335
tettava	-10.0336
liike	-10.0336
▁heillä	-10.0336
▁kuu	-10.0338
▁kaatui	-10.0347
erin	-10.0348
▁Kau	-10.0353
▁Suo	-10.0361
ras	-10.0362
my	-10.0371
uudesta	-10.0377
▁maksamaan	-10.038
▁TV	-10.0387
puolue	-10.0389
▁12.	-10.0391
issaan	-10.0392
▁seurasi	-10.0393
▁pelaajat	-10.0395
▁voittoon	-10.0396
▁Myöhemmin	-10.0399
▁pal	-10.0404
▁Tie	-10.041
▁harjoitus	-10.0412
koti	-10.0419
▁valvo	-10.0421
laki	-10.0424
▁terve	-10.0425
maton	-10.0427
jät	-10.0427
ensä	-10.0428
▁Michael	-10.0433
▁varrella	-10.0433
▁kunto	-10.0438
▁sarjassa	-10.0439
▁esitti	-10.044
pohja	-10.0441
hen	-10.0445
▁kuuluva	-10.0446
▁tuoree	-10.0452
▁Florida	-10.0453
▁kerrottu	-10.0453
▁käyttäjä	-10.0454
▁Di	-10.0455
▁kolmannen	-10.0463
▁selittää	-10.0467
tyyli	-10.0479
kkari	-10.0481
▁tapasi	-10.0486
▁olevat	-10.0487
▁tä	-10.0488
▁Tor	-10.0495
▁Car	-10.0496
▁paikkaa	-10.0498
res	-10.05
utuu	-10.0502
isuus	-10.0505
▁My	-10.0506
▁uudet	-10.051
▁ohja	-10.051
puhe	-10.0513
▁saavu	-10.0514
ström	-10.0515
▁onnettomuus	-10.0521
tko	-10.0526
lve	-10.0526
ris	-10.0527
kaudella	-10.0528
▁Syyttäjä	-10.053
vy	-10.0531
▁tapahtuneesta	-10.0537
usten	-10.0537
▁niissä	-10.0541
▁este	-10.0544
päivää	-10.0545
▁yhdysvaltalais	-10.0548
kari	-10.0549
▁Usei	-10.0554
▁puolisonsa	-10.0566
▁työmarkkina	-10.057
▁puolustaja	-10.057
▁alkoivat	-10.0572
▁tehneet	-10.0577
▁Perjantain	-10.0577
▁täyttä	-10.0579
▁800	-10.0581
land	-10.0581
▁näkökulmasta	-10.0585
jakso	-10.0586
ito	-10.059
▁neuvo	-10.059
▁autoa	-10.0591
▁ammattilais	-10.0592
▁vaikutti	-10.0593
ukka	-10.0593
▁lopettaa	-10.0594
▁hoitaa	-10.0595
▁enempää	-10.0604
▁kokemus	-10.0607
▁yhteistyötä	-10.0607
▁erityis	-10.0608
liigan	-10.0612
ellinen	-10.0613
▁merkitystä	-10.0619
▁kiloa	-10.0625
jista	-10.0635
ettiin	-10.0635
▁Kanerva	-10.0637
▁voitaisiin	-10.0637
▁Minä	-10.064
fe	-10.0642
▁valmiiksi	-10.0642
tävä	-10.0643
▁kahta	-10.0645
hun	-10.0645
sää	-10.0647
▁erilaisi	-10.0652
par	-10.0652
▁pako	-10.0653
▁edustava	-10.0657
▁huomasi	-10.0657
▁radio	-10.0661
her	-10.0661
▁tur	-10.0667
istaan	-10.0671
▁äänestä	-10.0673
luku	-10.0679
▁tällaista	-10.0685
▁kahvi	-10.0689
▁rata	-10.0701
▁kulta	-10.0702
▁Suurin	-10.0705
▁siirtyy	-10.0706
▁avasi	-10.0707
ilija	-10.0708
▁kesäkuuta	-10.0712
▁ottamaan	-10.0713
▁Italian	-10.0717
▁18-	-10.0721
▁37	-10.0724
▁2017	-10.0727
▁esillä	-10.0731
▁isoja	-10.0737
▁Valtteri	-10.074
▁itsestään	-10.0744
▁pysyy	-10.0746
▁William	-10.0747
▁kaasu	-10.0748
▁sanottu	-10.0751
▁kohtalo	-10.0755
neita	-10.0761
▁vene	-10.0763
▁vastustaja	-10.0763
pala	-10.0765
teita	-10.0769
tz	-10.0772
▁haave	-10.0774
▁jäivät	-10.0774
▁kunnolla	-10.0776
▁Valtonen	-10.0777
▁vieras	-10.078
ksia	-10.078
▁lukija	-10.0781
▁km	-10.0786
▁teksti	-10.0789
▁tunnelma	-10.0796
▁Ge	-10.0798
▁Sara	-10.0802
▁tunnista	-10.0807
▁sunnuntain	-10.0809
▁paljastui	-10.081
▁16.	-10.081
▁uuteen	-10.0811
▁ilmoittanut	-10.0812
lon	-10.0817
ssu	-10.0818
▁pelataan	-10.0821
ika	-10.0824
telu	-10.0827
▁pisteen	-10.0829
▁liitto	-10.0835
▁kaupan	-10.0836
▁John	-10.0836
▁raportoi	-10.0837
▁par	-10.0837
▁Mal	-10.0837
om	-10.084
▁pidetty	-10.0846
▁tänne	-10.0846
▁vaikkapa	-10.0848
▁toiminnan	-10.0851
▁kuukausi	-10.0857
▁vaikuttavat	-10.0859
▁pelaamaan	-10.0861
▁Elina	-10.0868
kisat	-10.0878
▁äidin	-10.088
▁tutkii	-10.0882
▁nousta	-10.0882
lö	-10.0883
▁tarpee	-10.0886
stus	-10.0888
▁päätöstä	-10.0888
▁Norja	-10.0889
▁Pariisissa	-10.0893
▁liha	-10.0898
▁lausunto	-10.09
▁sano	-10.0901
▁17.	-10.0902
▁Harri	-10.0903
▁Media	-10.0903
poika	-10.0904
▁versio	-10.0907
▁tietä	-10.0914
▁olympialaisissa	-10.0915
▁rakentaa	-10.0915
▁omassa	-10.0919
▁sito	-10.0921
▁viranomaisten	-10.0921
▁Tänään	-10.0925
▁hyökkäyksen	-10.0926
▁Iran	-10.0929
ic	-10.0934
▁26	-10.0934
uransa	-10.0939
ikä	-10.094
▁Au	-10.0942
▁kansallis	-10.0942
▁sosiaalisen	-10.0943
▁länsi	-10.0944
läinen	-10.0946
koski	-10.0948
aikaa	-10.095
▁myrsky	-10.0951
▁toiselle	-10.0953
ola	-10.0957
▁Johanna	-10.0958
▁viimeksi	-10.0961
▁lupa	-10.0961
utumis	-10.0968
▁lapsille	-10.0968
▁Anne	-10.0971
▁keskustassa	-10.0973
▁miljardia	-10.0975
▁Bar	-10.0977
▁ikävä	-10.0978
▁Ranta	-10.0979
tilanteessa	-10.0983
uden	-10.0984
▁Maailman	-10.0985
▁putosi	-10.0986
▁Daily	-10.0986
▁vuosittain	-10.0986
▁Huo	-10.0992
▁sovi	-10.0998
▁mur	-10.1001
▁Peli	-10.1001
vet	-10.1002
▁hybridi	-10.1003
▁ajoneuvo	-10.1009
▁toisi	-10.1011
asema	-10.1011
▁omien	-10.1018
▁toipu	-10.1019
▁Näyttelijä	-10.1021
▁päätteeksi	-10.1021
▁annettu	-10.1021
▁Ilves	-10.1022
▁löi	-10.1023
missa	-10.1024
▁38	-10.1024
▁edusta	-10.1026
▁teatteri	-10.1026
▁huo	-10.1027
▁hyväksi	-10.1033
▁suurempi	-10.1036
▁estää	-10.1046
▁piene	-10.1048
▁muuttui	-10.1048
▁liittyviä	-10.1049
▁erän	-10.1052
▁kuvassa	-10.1055
▁päättyy	-10.1057
▁tiedottaja	-10.1057
▁pelastuslaitoks	-10.1059
tieto	-10.1061
▁nimeä	-10.1061
▁Vanha	-10.1062
nnista	-10.1063
▁kolmanneksi	-10.1065
▁pääsy	-10.1066
▁Virta	-10.1069
▁armeija	-10.1069
▁murha	-10.1071
sson	-10.1072
▁kutsu	-10.1073
▁seuraavan	-10.1074
▁2021.	-10.1081
▁Pal	-10.1081
wi	-10.1089
▁Times	-10.1094
▁näkö	-10.1097
▁reagoi	-10.1097
▁Ai	-10.1098
▁ho	-10.1098
keskustelu	-10.1099
llisten	-10.111
W	-10.1113
eista	-10.1114
▁ju	-10.1118
▁Noin	-10.1119
ttavaa	-10.1124
tynyt	-10.1124
ismi	-10.1124
kerta	-10.1126
▁sijoitus	-10.1129
▁kivi	-10.1129
▁kahdesti	-10.1129
▁kahdesta	-10.1129
▁lasi	-10.1129
▁Helena	-10.1129
▁monia	-10.1132
▁toukokuuta	-10.1133
▁elokuuta	-10.1134
▁Paimion	-10.1134
▁Heidän	-10.1137
▁kappaletta	-10.1137
▁itsekin	-10.1138
ida	-10.114
▁nykyinen	-10.1141
▁moottori	-10.1141
▁tapahtumia	-10.1148
ud	-10.1151
▁leiri	-10.1157
▁mahdollinen	-10.1165
▁paikoin	-10.1165
▁kohde	-10.1165
▁viikossa	-10.1165
▁tuhansia	-10.1169
aste	-10.1171
▁kor	-10.1182
▁miettiä	-10.1185
▁isän	-10.1186
numero	-10.1187
▁välise	-10.1193
uk	-10.1194
▁veto	-10.1199
▁presidentiksi	-10.1201
▁kymmeniä	-10.1203
▁mukanaan	-10.1204
▁suku	-10.1205
▁juoma	-10.1207
sel	-10.1209
▁Sy	-10.1215
▁normaalisti	-10.1216
▁vetää	-10.122
▁heinäkuuta	-10.1226
tukset	-10.1227
voiton	-10.1229
▁Facebook	-10.1229
▁eduskunnassa	-10.1237
▁West	-10.1238
▁39	-10.124
ivät	-10.124
joen	-10.1245
toimisto	-10.1247
▁tapausta	-10.1248
ley	-10.1253
empi	-10.1254
▁lehdistö	-10.1256
otto	-10.1257
▁tiedotteessaan	-10.1257
▁lisäsi	-10.1261
istään	-10.1261
▁maailmancupin	-10.1263
vii	-10.1263
▁Z	-10.1265
fa	-10.1268
▁melkein	-10.1274
▁Kataja	-10.1275
▁vatsa	-10.1278
▁Mat	-10.1278
▁kuningatar	-10.1285
▁vankeus	-10.1295
vaaleissa	-10.1296
Uudenmaan	-10.1297
utunut	-10.1301
▁Marinin	-10.1301
empaa	-10.131
▁Turussa	-10.1311
▁vallan	-10.1314
▁näe	-10.1323
▁nosta	-10.1325
kone	-10.1327
teja	-10.1327
▁jatka	-10.1328
lis	-10.1337
▁Aalto	-10.1345
▁julkaissut	-10.1347
▁perässä	-10.1349
▁kulkee	-10.1349
▁esiintyy	-10.1349
▁muistutti	-10.1352
▁Markku	-10.1353
▁alueilla	-10.1355
▁väittää	-10.1356
▁Kivi	-10.1358
reiden	-10.1358
▁Laura	-10.1359
kau	-10.1359
▁sijoit	-10.1361
elokuva	-10.1367
▁Liiga	-10.137
tukseen	-10.1375
▁käytti	-10.1375
ttaisiin	-10.1379
▁käyttöä	-10.138
▁mielestään	-10.1384
▁Rai	-10.1386
▁äitinsä	-10.1393
▁Salminen	-10.1394
▁lähte	-10.1397
▁herätti	-10.1398
▁heiko	-10.14
ok	-10.1401
lliset	-10.1401
henkilö	-10.1402
▁työntekijä	-10.1417
▁tiedotteen	-10.1424
▁muuttuu	-10.1425
▁rikollis	-10.1425
▁Jä	-10.1434
▁15.	-10.1439
valo	-10.144
ite	-10.1448
▁Sha	-10.1449
elli	-10.145
▁ennuste	-10.1452
▁voimassa	-10.1454
kää	-10.1454
▁marraskuu	-10.1456
▁Er	-10.1457
hinta	-10.1458
▁työskennellyt	-10.1458
▁tasavallan	-10.1459
▁2026	-10.146
▁muisti	-10.1461
▁vahvista	-10.1468
▁mun	-10.1478
▁kesti	-10.1484
ham	-10.1487
oitu	-10.1488
uu	-10.149
▁34	-10.1498
palo	-10.1504
▁voida	-10.1507
▁valittu	-10.1508
▁Neljä	-10.1512
▁luu	-10.1514
▁Barkov	-10.1518
oikeus	-10.152
ie	-10.1521
isella	-10.1525
▁laski	-10.1529
▁poikansa	-10.1529
45	-10.153
▁kommentti	-10.1531
▁rauhoit	-10.1532
▁keskuudessa	-10.1533
▁entisestään	-10.1534
▁21.	-10.1537
▁pakkas	-10.1543
ula	-10.1545
▁ehdokas	-10.1546
erä	-10.1546
▁halutaan	-10.1547
▁markkina	-10.155
▁toimivat	-10.155
▁tulevi	-10.1552
▁ohjelma	-10.1552
▁suomalaisia	-10.1561
mpiä	-10.1561
▁9.	-10.1562
▁lukuisia	-10.1564
▁kiri	-10.1568
testi	-10.157
▁sattui	-10.1571
▁johtama	-10.1571
▁seinä	-10.1574
▁eduskuntaryhmän	-10.1579
ttämään	-10.1583
uha	-10.1583
▁osallistua	-10.1584
▁ajanut	-10.1584
illut	-10.1597
▁jaksa	-10.1598
shi	-10.1599
▁lippu	-10.16
▁sijaitsevan	-10.1604
▁perjantain	-10.1604
▁äärimmäise	-10.1611
▁Mikkola	-10.1615
kisa	-10.1625
▁lämpö	-10.1628
▁siirto	-10.163
▁lokakuuta	-10.1637
▁meno	-10.1638
kansa	-10.1639
▁muutenkin	-10.164
▁Bi	-10.1642
▁tunti	-10.1644
▁SAK	-10.1646
▁herättänyt	-10.1647
mpa	-10.1647
▁pitävät	-10.165
oto	-10.165
▁syyskuuta	-10.1653
▁Naisten	-10.1655
sko	-10.1663
▁ukrainalais	-10.1667
Sanomien	-10.1674
▁Eri	-10.1675
Ka	-10.1676
▁uudestaan	-10.1677
▁perinteise	-10.1677
▁Tapio	-10.1685
▁Bottas	-10.1686
▁unelma	-10.1696
▁keksi	-10.1696
5.	-10.1701
ajat	-10.171
▁korjaus	-10.1712
▁au	-10.1715
▁kappale	-10.1716
▁päivi	-10.1717
▁huolto	-10.1721
▁maksoi	-10.1723
▁City	-10.1725
arvio	-10.1728
▁taho	-10.1729
▁laina	-10.173
keli	-10.1731
▁Venäjää	-10.1733
▁todetaan	-10.1734
▁600	-10.1735
▁naisia	-10.1735
▁puhunut	-10.1738
▁kunnan	-10.1741
piiri	-10.1741
▁tiimi	-10.1742
▁pelaajia	-10.1742
▁Marja	-10.1742
▁koskee	-10.1757
▁huume	-10.1758
▁vieressä	-10.1761
operaatio	-10.1767
▁kuiva	-10.1771
tuomio	-10.1772
▁kutsui	-10.1776
▁somessa	-10.1776
▁mukava	-10.1778
llo	-10.1778
aikaan	-10.178
▁tal	-10.1782
linna	-10.1783
▁tarkasti	-10.1783
jää	-10.1789
kulttuuri	-10.179
▁lähettää	-10.18
▁Tuomas	-10.18
▁syytetään	-10.1802
▁sairaalassa	-10.1807
▁tuomittu	-10.1808
▁ostaa	-10.181
▁laulu	-10.1815
▁Mai	-10.1817
▁välinen	-10.1818
▁44	-10.1827
▁Miss	-10.1827
▁tutkinta	-10.1828
etti	-10.183
▁ennakoi	-10.1832
▁viimeistä	-10.1833
kkää	-10.1833
meno	-10.1835
▁minut	-10.1845
▁kuski	-10.1848
▁ohjelman	-10.1848
▁julkisesti	-10.1849
▁harmi	-10.1851
▁elämänsä	-10.1852
▁kritiikkiä	-10.1856
uko	-10.1856
▁säästö	-10.1857
▁kuuli	-10.1858
kymppi	-10.1862
▁arvioidaan	-10.187
▁marraskuuta	-10.1871
▁tulivat	-10.1872
▁Miesten	-10.1873
▁koh	-10.1874
luokan	-10.1875
▁nolla	-10.1875
id	-10.1878
▁vaihe	-10.1881
▁kisassa	-10.1883
nainen	-10.1884
▁Tapahtuma	-10.1884
▁Sveitsi	-10.1886
vuotis	-10.1886
tonta	-10.1888
▁opettaja	-10.1888
▁Suur	-10.1888
▁kuntoon	-10.1891
▁salli	-10.1892
▁tekemistä	-10.1893
▁vasemmistoliito	-10.1897
cu	-10.1897
35	-10.1899
▁syksyn	-10.19
▁ky	-10.1903
ppe	-10.1909
▁Sam	-10.1912
▁pääosin	-10.1916
▁Am	-10.1916
▁paikalta	-10.1916
▁jakaa	-10.1917
▁tapauksesta	-10.1917
▁amerikkalais	-10.1922
aatti	-10.1924
▁juoksi	-10.1925
▁hätä	-10.1926
▁osallistu	-10.193
▁lailla	-10.1932
järvi	-10.1933
▁kohta	-10.1933
▁toimintaan	-10.1933
▁osallistuu	-10.1934
▁suo	-10.1936
▁hyödy	-10.1937
▁Cha	-10.1939
▁d	-10.194
▁valmistelu	-10.1941
hyökkääjä	-10.1945
kuljettaja	-10.195
▁b	-10.1952
▁nappasi	-10.1955
▁hyvät	-10.1956
▁äänestää	-10.1958
io	-10.196
▁hau	-10.196
▁tarkoituksena	-10.1965
lia	-10.1965
▁Kanadan	-10.1966
▁suhteessa	-10.1969
teeseen	-10.197
llisuus	-10.1972
▁tapauksen	-10.1977
▁suhde	-10.1977
▁Kim	-10.1984
▁reilut	-10.1987
tasolla	-10.1987
▁viedä	-10.1987
▁pitkälle	-10.1989
▁nuoria	-10.1989
▁eteni	-10.199
joita	-10.1992
▁Foreca	-10.1994
▁Joki	-10.1995
liikenne	-10.1996
tehtävä	-10.2002
▁meitä	-10.2005
uksella	-10.2005
ei	-10.2008
▁kasvi	-10.2009
▁tulokset	-10.2018
▁merkki	-10.202
▁oikeudessa	-10.202
oo	-10.2025
▁pallo	-10.2026
aatio	-10.2027
▁sopii	-10.2031
hon	-10.2032
▁todettiin	-10.2033
▁vankeuteen	-10.2033
▁jälki	-10.2035
▁Silti	-10.2037
▁nuoriso	-10.204
▁käydään	-10.2047
▁idea	-10.2047
▁seksuaali	-10.2052
tuksesta	-10.2054
wa	-10.2059
▁erä	-10.2061
▁Tanskan	-10.2063
▁Kisa	-10.2065
▁Ry	-10.2068
aminen	-10.2071
▁organisaatio	-10.2075
oppi	-10.2075
▁kieltä	-10.2078
▁painottaa	-10.2078
▁tukee	-10.2079
▁Kii	-10.2079
▁28	-10.2085
pen	-10.2094
▁sotaa	-10.2096
tapa	-10.21
▁lisätä	-10.2101
lund	-10.2101
▁huomaa	-10.2105
▁neuvottelu	-10.2106
▁Or	-10.2109
vasti	-10.2111
ttäjä	-10.2111
▁ansiosta	-10.2111
▁Ensimmäinen	-10.2113
▁Latvala	-10.2113
▁Uhri	-10.2113
▁Kiekko	-10.2114
▁jonkun	-10.2114
▁the	-10.2115
▁meteorologi	-10.2116
▁haittaa	-10.2121
▁pommi	-10.2127
▁arvion	-10.2134
▁tarjoaa	-10.2138
▁palata	-10.2139
▁suositu	-10.2141
stö	-10.2146
▁laitoksen	-10.2152
▁järjestettiin	-10.2153
▁2013	-10.2153
▁Ex	-10.2156
▁Sauli	-10.2156
▁edusti	-10.2157
▁kansainvälisen	-10.216
Korea	-10.216
▁2012	-10.2163
meri	-10.2163
▁päivässä	-10.2166
▁kymmen	-10.217
▁euroon	-10.2174
▁sopi	-10.2183
▁politiikan	-10.2187
24	-10.219
▁heidät	-10.2192
▁varapresidentti	-10.2193
▁150	-10.2195
loi	-10.2198
▁oikeastaan	-10.2198
▁esityksen	-10.2203
▁huoli	-10.2206
▁Fo	-10.2208
nimi	-10.2211
koira	-10.2214
▁pohti	-10.2215
1:	-10.2226
jaan	-10.2227
▁joutunee	-10.2229
yy	-10.223
rr	-10.2231
▁jäljellä	-10.2233
▁TPS	-10.2234
ottelun	-10.2236
▁Hannu	-10.2237
▁järjestelmä	-10.2239
▁mielestäni	-10.224
dä	-10.2242
▁mestaruuden	-10.2243
olla	-10.2246
▁vastaisena	-10.2246
▁varaa	-10.225
▁leikkaus	-10.225
▁Ukrainaa	-10.225
90	-10.2257
▁riittävän	-10.2261
uhka	-10.2262
▁yön	-10.2265
tekijä	-10.2265
▁törkeä	-10.2272
▁loi	-10.2278
▁17-	-10.228
▁Juuso	-10.2281
▁pieniä	-10.2284
tason	-10.2285
7.	-10.2285
▁vauva	-10.2285
▁Henri	-10.2287
rata	-10.2291
▁taksi	-10.2292
▁ilmoittaa	-10.2292
▁suunnittelu	-10.2299
▁käsittely	-10.2299
timme	-10.2301
▁iho	-10.2302
▁hengen	-10.2303
▁työnantaja	-10.2306
kilpailun	-10.231
▁2024.	-10.2311
▁Sch	-10.2313
▁töihin	-10.2314
▁kuulla	-10.2315
▁hyvältä	-10.2319
▁rahoitus	-10.2322
▁kamera	-10.2322
▁yllättävän	-10.2323
kov	-10.2323
▁riitä	-10.2325
▁selkeästi	-10.233
▁murhasta	-10.2332
▁julkaisema	-10.2338
merkin	-10.2348
▁maailmaa	-10.2348
▁yleisön	-10.2351
▁paperi	-10.2352
▁kohteeksi	-10.2354
▁tekivät	-10.2357
▁Jää	-10.2358
▁Gi	-10.236
▁elämään	-10.2361
▁dollarin	-10.2363
▁menetti	-10.2367
by	-10.2368
▁Gazassa	-10.2368
▁kuulunut	-10.2368
▁väkivaltaa	-10.2375
▁mökki	-10.2376
▁Onne	-10.2376
▁Toyota	-10.2378
htaa	-10.238
pol	-10.238
nnu	-10.2386
nny	-10.2387
▁Sveitsin	-10.2388
▁kuuma	-10.2388
▁sähkön	-10.2393
▁Suomelle	-10.2395
▁ollen	-10.2396
▁paikallise	-10.2406
▁Sari	-10.241
▁varasto	-10.2411
stelu	-10.2413
95	-10.2413
▁Ainakin	-10.2415
lje	-10.2416
▁Chi	-10.2416
▁Uskon	-10.2418
kseni	-10.2419
▁jokaisen	-10.2419
▁hirveä	-10.242
▁Sillä	-10.2422
▁Metsä	-10.2426
▁kulku	-10.2428
-19	-10.2432
▁millä	-10.2432
neista	-10.2434
▁Katri	-10.2435
▁Super	-10.2436
▁Sekä	-10.2439
mb	-10.2439
▁suunniteltu	-10.244
▁huhtikuuta	-10.2442
teista	-10.2446
▁pitämään	-10.2447
▁Los	-10.2451
▁lyhyt	-10.2456
hdin	-10.2472
▁henkilökohtaise	-10.2477
▁pyritään	-10.2477
▁Vuo	-10.2479
▁lunta	-10.248
▁syöpä	-10.2485
▁yrityksestä	-10.2488
▁arki	-10.2491
▁toisensa	-10.2497
▁Han	-10.2501
▁kylä	-10.2501
▁menivät	-10.2505
▁eilen	-10.2507
▁ilmoituksen	-10.2508
▁kaipaa	-10.2512
▁ymmärrä	-10.2518
▁varhain	-10.2518
▁Täällä	-10.2518
▁Pitkä	-10.2519
▁puolivälierä	-10.2519
▁Samaa	-10.252
aine	-10.2523
▁Kimmo	-10.2523
▁Espoon	-10.2524
oli	-10.2527
▁18.	-10.2527
▁FC	-10.2527
▁Virtanen	-10.2531
▁ensimmäise	-10.2535
▁Totta	-10.254
▁muissa	-10.2541
▁edellisen	-10.2541
▁pallon	-10.2541
odo	-10.2543
▁l	-10.2545
▁Kuu	-10.2545
▁kiisti	-10.2545
▁Väli	-10.2549
▁tavallise	-10.2549
ivo	-10.2551
vaihe	-10.2552
valtio	-10.2556
kisoihin	-10.2557
▁kal	-10.2559
▁Vornanen	-10.256
▁Pajari	-10.256
▁Miehen	-10.256
▁pur	-10.2565
▁luotto	-10.2566
▁Il	-10.2566
▁Sanomien	-10.2571
▁projekti	-10.2573
seksi	-10.2574
▁väestö	-10.2575
tauti	-10.2575
▁samana	-10.2575
yhtiön	-10.2582
▁News	-10.2583
▁tulipalo	-10.2583
▁Loppu	-10.259
▁jokin	-10.2592
▁demokraattien	-10.2594
▁Ker	-10.26
▁Hei	-10.2601
▁Joulu	-10.2601
▁ulkopuolelle	-10.2602
▁kanna	-10.2602
▁41	-10.2603
tuki	-10.2603
teltiin	-10.2603
▁antama	-10.2603
▁ilmeisesti	-10.2604
▁teini	-10.2604
▁olevaa	-10.2605
kilpailussa	-10.2608
▁poissa	-10.2608
▁Sähkö	-10.2608
▁liittyvi	-10.2611
▁pariskunta	-10.2619
▁kodin	-10.2621
fo	-10.2623
▁välit	-10.2628
▁omista	-10.263
Stubb	-10.263
▁treeni	-10.263
▁anteeksi	-10.2631
▁välissä	-10.2631
▁ranta	-10.2634
▁joulun	-10.2637
▁Tapparan	-10.2641
▁yhteise	-10.2644
▁herättää	-10.2644
▁22.	-10.2647
▁lokakuu	-10.2651
▁maalei	-10.2652
▁pil	-10.2655
lahti	-10.2658
▁viisu	-10.266
ide	-10.266
▁selvi	-10.266
▁pahasti	-10.266
che	-10.2662
▁kesäkuun	-10.2667
▁tuntee	-10.2673
ystä	-10.2674
▁järjestö	-10.2674
▁turha	-10.2676
län	-10.2679
▁hotelli	-10.268
▁liittyi	-10.268
▁joukkuetta	-10.268
▁naimisiin	-10.2685
▁ampui	-10.2685
▁osittain	-10.2685
▁matkaa	-10.2687
▁Paul	-10.2688
▁Erityisesti	-10.269
prosentti	-10.2692
▁tälle	-10.2697
▁prosessi	-10.2699
▁torju	-10.27
▁luovu	-10.2701
osto	-10.2704
▁pysy	-10.2711
▁Emil	-10.2716
▁Aaltola	-10.2717
▁julkise	-10.2724
▁selkä	-10.2726
▁puolivälissä	-10.2728
järven	-10.2729
▁vanhemmat	-10.2729
uran	-10.2729
essään	-10.273
▁Matka	-10.2731
▁muitakin	-10.2731
por	-10.2737
▁aikanaan	-10.2739
▁Perhe	-10.2741
▁näky	-10.2742
▁katsomaan	-10.2743
▁asunnon	-10.2746
▁mennään	-10.2752
▁Raa	-10.2752
▁Sini	-10.2753
▁istui	-10.2753
2-	-10.2756
▁Englannin	-10.2762
▁mahdollisi	-10.2763
käräjäoikeudessa	-10.2764
▁savu	-10.2765
▁suunnitelma	-10.2767
stettu	-10.2767
▁Äiti	-10.277
miä	-10.277
▁britti	-10.277
▁valita	-10.277
▁pitkälti	-10.2771
▁33	-10.2771
▁rai	-10.2771
▁pinta	-10.2772
halli	-10.2773
▁osti	-10.2774
▁kilpailussa	-10.2775
▁vanhan	-10.2776
tavat	-10.2778
▁kaatu	-10.2779
▁valmistu	-10.278
▁48	-10.278
▁varjo	-10.2781
▁hoitoon	-10.2784
▁valtiovarain	-10.2793
▁Tur	-10.2798
▁teknologia	-10.28
▁tilalle	-10.28
▁Lehti	-10.281
▁kuukaudessa	-10.2812
▁solmi	-10.2812
▁David	-10.2813
▁kysyttiin	-10.2815
▁tapahtumista	-10.2816
▁lohko	-10.2817
▁1,5	-10.2819
▁Viesti	-10.2821
▁(1	-10.2823
▁komentaja	-10.2824
▁samoin	-10.2827
▁lehti	-10.2829
▁Muut	-10.2833
les	-10.2834
▁kisojen	-10.2836
▁kohden	-10.2839
▁Tieto	-10.2841
▁di	-10.2847
▁elämässä	-10.2848
▁maailmassa	-10.2849
▁Puolan	-10.2851
▁Puola	-10.2853
▁tuomion	-10.2854
▁hallinnon	-10.2854
▁Jesse	-10.2855
▁Tar	-10.2855
▁vaihtaa	-10.2857
▁olympialaisten	-10.2857
tis	-10.286
▁uni	-10.2862
▁Haluan	-10.2864
▁lyö	-10.2866
am	-10.2868
oihin	-10.2872
manin	-10.2873
▁kuri	-10.2879
▁Kanada	-10.2879
8.	-10.2886
risti	-10.2887
ler	-10.2889
▁Talo	-10.2889
▁tarjo	-10.2889
saari	-10.289
▁Espanja	-10.2891
▁suostu	-10.2894
▁rauha	-10.2894
▁aloittanut	-10.2899
▁republikaanien	-10.2901
▁Vaali	-10.2901
▁ve	-10.2901
gu	-10.2902
▁havaittu	-10.2905
▁voimakkaasti	-10.2906
▁Kal	-10.2908
yyttä	-10.2908
▁edellis	-10.2912
▁menossa	-10.2914
▁7.	-10.2914
▁viikonlopun	-10.2934
▁määrän	-10.2938
▁8.	-10.2939
▁Suomalainen	-10.2941
▁saapunut	-10.2941
vamma	-10.2942
▁enemmistö	-10.2942
▁henki	-10.2943
▁12-	-10.2945
▁tarvetta	-10.2948
▁kysyy	-10.2948
kel	-10.295
juhla	-10.295
▁sairaala	-10.2953
▁työntekijöiden	-10.2954
▁koulutus	-10.2955
▁miljardin	-10.2956
▁tö	-10.2957
▁Musk	-10.2958
▁polttoaine	-10.2958
itta	-10.2961
rs	-10.2963
▁raaka	-10.2964
video	-10.297
mas	-10.2972
▁sanotu	-10.2973
▁seuraavaksi	-10.2975
ser	-10.298
▁menesty	-10.2981
ikan	-10.2982
▁säily	-10.2982
▁esimerkki	-10.2984
▁helmikuuta	-10.2989
▁Nu	-10.2991
▁vaara	-10.2993
▁Murto	-10.2995
▁asumis	-10.2998
järjestelmän	-10.2998
▁sijalla	-10.2998
tystä	-10.3001
▁kisoissa	-10.3005
▁Leijonat	-10.3007
▁47	-10.3008
kainen	-10.3009
tettävä	-10.3009
▁muoto	-10.301
ttoman	-10.3011
▁tasapaino	-10.3012
▁kieli	-10.3018
▁keittiö	-10.3022
▁avoime	-10.3022
▁Käräjäoikeus	-10.3028
▁hankala	-10.3029
▁viettää	-10.3033
ravintola	-10.3036
▁iske	-10.3038
▁huomioi	-10.3041
▁Niiden	-10.3041
sopimuksen	-10.3044
▁häiriö	-10.3045
▁jatkui	-10.3051
▁muualla	-10.3052
▁ovi	-10.3058
▁42	-10.3058
▁syyttäjä	-10.3059
we	-10.3063
▁kol	-10.3064
▁ulkomaalais	-10.3064
ttaneet	-10.3065
▁vaiva	-10.3067
▁tutkimuksen	-10.3069
▁Markkanen	-10.3072
▁johtuu	-10.3072
▁Patrik	-10.3072
▁tuloksen	-10.3072
▁Pitää	-10.3074
▁otetaan	-10.3077
▁10.	-10.3082
▁ennakko	-10.3084
▁Kova	-10.3085
▁suomalaisista	-10.3086
teltu	-10.3089
▁Eurooppa	-10.3092
verkko	-10.3092
▁kisaa	-10.3096
▁etä	-10.3096
▁maaliskuuta	-10.31
▁ketju	-10.3104
ima	-10.311
ilma	-10.3112
sissa	-10.3113
▁purka	-10.3114
▁lukio	-10.3114
▁Joskus	-10.3116
▁parantaa	-10.3116
▁Puu	-10.3123
▁riittävästi	-10.3123
▁itä	-10.3124
villa	-10.3126
▁29	-10.3127
▁pärjää	-10.3127
bu	-10.3132
muu	-10.3133
▁yllättävä	-10.3134
riko	-10.3134
▁Tanska	-10.3135
▁vaalien	-10.3137
▁turvallisuuden	-10.3145
etta	-10.3145
työt	-10.3152
▁Lin	-10.3154
▁ba	-10.3154
▁koho	-10.3161
▁veny	-10.3163
▁Niitä	-10.3164
ido	-10.3164
▁kertoja	-10.3169
▁matala	-10.3172
prosessi	-10.3177
▁nykyisin	-10.3179
▁leikki	-10.3179
▁täyt	-10.3184
silla	-10.3187
säännö	-10.3193
▁vaalit	-10.3196
▁tulosta	-10.3197
▁pelaava	-10.32
▁julkaistiin	-10.3204
▁mahdollisuutta	-10.3206
▁Sisä	-10.3206
▁armeijan	-10.3207
▁tammikuuta	-10.321
▁päättänyt	-10.3211
▁perustuu	-10.3211
▁Tuli	-10.3212
isivat	-10.3214
▁Ero	-10.3219
▁Petri	-10.3219
▁henkilöstö	-10.3219
▁hinnat	-10.3225
▁kuolleen	-10.3225
▁päivinä	-10.3231
johto	-10.3239
kymmentä	-10.3242
▁Et	-10.3246
▁Nokia	-10.3246
▁Epäilty	-10.3248
▁Helenius	-10.3248
llistä	-10.325
▁Nor	-10.3252
▁vakuu	-10.3252
▁vaa	-10.3255
telee	-10.3259
▁2.	-10.326
tilan	-10.3262
▁täyden	-10.3263
veto	-10.3267
▁peri	-10.3269
▁reaktio	-10.327
▁Joukkue	-10.3271
ig	-10.3272
vistä	-10.3276
▁sisältää	-10.3279
ykset	-10.328
▁Aina	-10.3281
▁ison	-10.3289
▁liikkeelle	-10.3293
▁päivittäin	-10.3293
▁naurahtaa	-10.3293
▁Etenkin	-10.3293
tyi	-10.3295
▁oppositio	-10.3297
▁aiheesta	-10.3297
▁Sanomat	-10.3299
▁kevät	-10.3303
oni	-10.3307
ff	-10.3313
vis	-10.3318
▁toiminnasta	-10.3322
▁seuraavana	-10.3325
▁palautetta	-10.3329
mur	-10.333
yksen	-10.3331
toimintaa	-10.3331
iselle	-10.3333
yri	-10.3335
▁ylös	-10.3338
▁maahanmuutto	-10.3338
▁Henriksson	-10.3341
▁mi	-10.3341
▁tuonut	-10.3341
riski	-10.3342
kautta	-10.3345
▁osto	-10.3346
▁parhaat	-10.3346
ci	-10.3347
▁millään	-10.3348
▁katse	-10.3349
▁korvaa	-10.335
▁my	-10.335
▁avo	-10.3352
▁edistä	-10.3352
▁vastaus	-10.3352
▁voisivat	-10.3356
tio	-10.3361
sk	-10.3361
▁Päivi	-10.3365
▁Vai	-10.3378
▁käräjäoikeuden	-10.3379
▁alkava	-10.338
raha	-10.3383
▁RKP	-10.3383
▁kaikilla	-10.3383
▁As	-10.3387
▁tiedetään	-10.3387
tuneet	-10.3388
▁mahdollisuuksia	-10.3388
▁ketään	-10.3389
▁Nieminen	-10.3391
tilaa	-10.3392
▁Saarinen	-10.3394
isuutta	-10.3401
▁opi	-10.3402
▁Ly	-10.3402
▁kaula	-10.3402
miehi	-10.3403
yli	-10.3406
koon	-10.3407
▁liiton	-10.3413
▁johtoon	-10.3415
tos	-10.3418
▁opiskelija	-10.3419
▁vapaaehtois	-10.342
▁sairaalan	-10.3423
▁tapahtuman	-10.3426
▁Käy	-10.3428
isista	-10.3428
▁Lääkäri	-10.3428
▁motiivi	-10.3428
▁johtanut	-10.3428
▁pelastuslaitos	-10.3428
▁tarkka	-10.343
▁Ter	-10.3431
suhde	-10.3433
▁keskus	-10.3434
▁täyde	-10.3437
▁saapuu	-10.3439
▁pääsevät	-10.3442
6.	-10.3444
käyttö	-10.3446
▁onneksi	-10.345
▁laiva	-10.3451
▁tapahtumien	-10.3451
▁pro	-10.3454
▁Ty	-10.3455
▁välisenä	-10.3459
▁aito	-10.3462
paino	-10.3463
▁veti	-10.3468
elin	-10.3469
lasku	-10.3473
▁myöhään	-10.3473
▁helpo	-10.3474
tuksessa	-10.3474
▁senttiä	-10.3474
▁kaikissa	-10.3475
eita	-10.3477
▁käyttänyt	-10.3478
▁välierä	-10.348
▁Asiantuntija	-10.348
gh	-10.3482
4.	-10.3482
▁mainos	-10.3485
▁Haa	-10.3487
▁alus	-10.3488
▁Sta	-10.3488
3.	-10.3489
ointi	-10.349
▁peru	-10.3494
▁ajaksi	-10.3504
▁pin	-10.3507
salo	-10.3508
alalla	-10.3509
▁i	-10.3512
▁vähentää	-10.3519
▁Lahden	-10.3519
▁vaikuttanut	-10.352
▁kahteen	-10.352
▁ottamatta	-10.3521
▁hienoa	-10.3521
mma	-10.3522
▁etenee	-10.3523
▁syntyy	-10.3528
▁museo	-10.3534
▁musiikin	-10.3535
▁laskee	-10.3536
▁prosenttiin	-10.3537
▁uskoa	-10.3545
▁pelaajien	-10.3547
ppo	-10.3548
▁tiesi	-10.355
lm	-10.3555
lau	-10.3556
▁Kiuru	-10.3565
▁vahv	-10.357
turvallisuuden	-10.3571
hoitaja	-10.3571
▁suojelu	-10.3574
▁ensimmäiset	-10.3575
▁rakennettu	-10.3575
kauppa	-10.3578
kiin	-10.3578
▁Sal	-10.3579
ntia	-10.3579
▁75	-10.3587
pula	-10.359
▁finaalissa	-10.3592
▁teon	-10.3592
▁Mas	-10.3593
▁kävely	-10.3595
▁musiikkia	-10.3595
▁edustaa	-10.3599
yyden	-10.3603
kisassa	-10.3607
itsi	-10.361
▁päätöksiä	-10.3612
▁Vir	-10.3615
▁pientä	-10.3621
▁lukuun	-10.3621
syy	-10.3625
▁2000-	-10.3625
dia	-10.3626
▁Tommi	-10.3629
▁roolissa	-10.363
▁Ol	-10.3634
▁paikassa	-10.3635
▁autojen	-10.3637
▁vali	-10.3642
▁Pian	-10.3644
▁Peter	-10.3644
suus	-10.3645
▁Ensin	-10.3649
▁erään	-10.365
politiikan	-10.365
oissa	-10.3653
▁muutamia	-10.3654
▁ratkaiseva	-10.3656
å	-10.3656
▁Hä	-10.3657
▁parhaimmillaan	-10.3657
▁Pelicans	-10.3658
▁kuluttua	-10.3659
▁ulkomailla	-10.3661
▁epäily	-10.3662
▁Markus	-10.3665
▁tullaan	-10.3665
▁vietiin	-10.3665
talli	-10.3676
▁pankki	-10.3681
tyä	-10.3681
ou	-10.3686
▁Unkarin	-10.3687
▁Kaarinan	-10.3688
▁19.	-10.369
▁(2	-10.3691
itti	-10.3691
sivät	-10.3691
▁materiaali	-10.3693
yhdistyksen	-10.3698
jana	-10.3698
sky	-10.3699
▁määrin	-10.3702
▁kirjoit	-10.3703
▁Tällainen	-10.3704
▁Pelastuslaitos	-10.3704
▁lähelle	-10.3704
▁Lähde	-10.3705
▁Tanssi	-10.3706
▁heitti	-10.3707
mpää	-10.3709
▁jono	-10.3709
▁Sunnuntaina	-10.3711
▁puhelin	-10.3714
▁Kaleva	-10.3715
▁lajin	-10.3716
▁Varha	-10.3718
liigassa	-10.3722
▁heinäkuu	-10.3723
▁vaikutuksia	-10.3729
niemen	-10.3732
▁muovi	-10.3735
▁uudesta	-10.3738
▁Euro	-10.3742
är	-10.3746
▁veri	-10.3746
á	-10.3751
▁Sebastian	-10.3751
▁yhteinen	-10.3751
▁55	-10.3755
▁Lehto	-10.3755
▁fani	-10.3756
▁Manchester	-10.3758
▁vasemmisto	-10.376
▁lämpimä	-10.376
▁katsoja	-10.3763
änsä	-10.3763
finaali	-10.3765
▁23.	-10.3765
▁kumma	-10.3766
llisiä	-10.3766
joukkueen	-10.3768
▁tuen	-10.3768
▁syvä	-10.3769
▁2011	-10.377
tili	-10.3775
▁jatkuvat	-10.3777
▁54	-10.378
▁vauhtia	-10.3789
▁vaate	-10.3791
▁lenno	-10.3791
▁törmäsi	-10.3792
▁nykyisen	-10.3797
▁koripallo	-10.3798
▁surma	-10.38
▁askel	-10.3801
▁toisiaan	-10.3803
▁Saari	-10.3804
▁huonosti	-10.3804
vastuu	-10.3805
▁For	-10.3807
▁ehdot	-10.3814
▁700	-10.3814
▁huomion	-10.3816
▁Liikenne	-10.3817
▁Haaviston	-10.3825
vuoro	-10.3838
▁hoita	-10.3838
▁tulleet	-10.3838
▁syistä	-10.3842
▁Liike	-10.3843
▁tavallista	-10.3845
koko	-10.3846
▁Luo	-10.3847
▁Suvi	-10.3847
▁jättänyt	-10.3847
hahmo	-10.3852
▁ajatella	-10.3857
▁kuvat	-10.3863
▁kiekon	-10.3865
▁julkisen	-10.3866
▁henkilöitä	-10.3867
oikeuden	-10.3874
10	-10.3876
▁tytön	-10.3877
▁yllätti	-10.388
ard	-10.3882
▁mie	-10.3884
▁maajoukkueen	-10.3884
Pa	-10.3885
ani	-10.389
▁aine	-10.3893
▁ollenkaan	-10.3896
▁Tour	-10.3897
▁jäävät	-10.3897
▁Lei	-10.3898
▁mihinkään	-10.3899
▁ääntä	-10.3899
▁hel	-10.39
Sanomille	-10.3901
▁Sää	-10.3905
▁yl	-10.3914
=	-10.3916
otti	-10.3919
stettiin	-10.3925
urheilija	-10.3928
laitos	-10.3933
▁kaunii	-10.3933
▁apu	-10.3933
▁Italia	-10.3938
▁Joonas	-10.3939
▁Puljujärvi	-10.394
▁omakotitalo	-10.394
▁vihdoin	-10.394
vuo	-10.394
▁syynä	-10.3941
▁tarkoitettu	-10.3941
▁isännöi	-10.3941
▁kovasti	-10.3942
▁nuor	-10.3944
▁etten	-10.3945
▁golf	-10.3947
kadun	-10.3948
▁reissu	-10.3948
▁seurata	-10.3949
▁uskon	-10.3951
▁Karhu	-10.3952
▁Suuri	-10.3954
▁Jokinen	-10.3954
▁paikkansa	-10.3955
▁kuluttaja	-10.3956
▁kommentoinut	-10.3956
▁Unkari	-10.3957
▁46	-10.3958
▁puna	-10.3958
ejä	-10.3959
▁lataus	-10.3959
▁Sä	-10.3962
ähtä	-10.3964
▁Toisen	-10.3972
turva	-10.3973
muoto	-10.3977
▁Mer	-10.3977
ze	-10.3978
▁osassa	-10.3978
isissa	-10.398
▁pö	-10.398
▁viimeiset	-10.3981
▁kulje	-10.3987
▁rasismi	-10.3988
▁vuodeksi	-10.3988
▁vihreiden	-10.3988
emi	-10.3988
▁erikseen	-10.3994
▁Syyttäjän	-10.3994
▁harjoittelu	-10.3996
Pekka	-10.3998
▁haastava	-10.3999
▁tutkinnan	-10.3999
neuvoston	-10.4
▁kysy	-10.4004
▁asui	-10.4006
▁varapuheen	-10.4006
sor	-10.4007
▁saama	-10.4007
▁Mie	-10.401
▁Arto	-10.4012
▁tekni	-10.4015
▁linjaa	-10.4016
ykseen	-10.4019
vaalien	-10.402
▁näyttävät	-10.4022
ling	-10.4023
▁kunnon	-10.4025
▁ydinase	-10.4027
ak	-10.4033
▁Sarja	-10.4036
▁Paavo	-10.4036
▁sittemmin	-10.4036
▁Ensimmäisen	-10.4037
huone	-10.4039
▁huima	-10.4039
▁tiennyt	-10.4041
▁tyhjä	-10.4041
kaupunki	-10.4042
▁kaatoi	-10.4046
▁iloinen	-10.4048
▁kysymyksiä	-10.4049
nder	-10.4049
▁maaliskuu	-10.405
▁Mattila	-10.4052
ntaa	-10.4057
▁Kangas	-10.4061
imen	-10.4064
▁käyty	-10.4065
▁neljäs	-10.4069
▁arvioida	-10.4071
▁Jere	-10.4074
daan	-10.4077
lehdelle	-10.4077
▁haluan	-10.4078
▁Je	-10.408
itse	-10.4082
▁toukokuun	-10.4083
▁ver	-10.4086
▁järjestetty	-10.4087
▁esitteli	-10.4088
▁ohje	-10.4088
▁Lä	-10.4088
▁akku	-10.4089
▁Ihmiset	-10.409
häiriö	-10.4093
▁merkitys	-10.4094
▁vanhempien	-10.4094
▁ollessa	-10.4096
▁uudessa	-10.4099
▁lääke	-10.4101
▁sisältä	-10.4106
▁kipu	-10.4109
▁ajassa	-10.4111
▁haku	-10.4112
▁Washington	-10.4119
ttia	-10.4123
▁ulkona	-10.4123
▁pudotuspeli	-10.4125
▁Varhan	-10.4126
rannan	-10.4127
▁Verstappen	-10.4128
▁Lindtman	-10.4128
▁ajattele	-10.4129
kut	-10.4129
▁lava	-10.413
▁kaudeksi	-10.4133
▁kerännyt	-10.4133
▁syttyi	-10.4133
9.	-10.4134
▁saamaan	-10.4134
tön	-10.4136
hl	-10.4137
▁sini	-10.4138
▁satoja	-10.4138
▁katsotaan	-10.4142
▁edestä	-10.4142
▁vanhempi	-10.4143
▁kaksikko	-10.4146
ukku	-10.4146
▁sairas	-10.4148
▁Ab	-10.4151
uksilla	-10.4151
▁pien	-10.4152
▁vaihto	-10.4156
tausta	-10.4157
▁maat	-10.4157
▁Van	-10.4158
▁palestiinalais	-10.4158
maat	-10.4168
▁Joka	-10.4172
▁pelissä	-10.4172
utuminen	-10.4172
▁valmennus	-10.4173
▁julki	-10.4176
▁Benjamin	-10.4181
▁todellinen	-10.4181
▁kahdessa	-10.4181
▁täältä	-10.4181
▁puolusta	-10.4185
▁useiden	-10.4187
▁Rinne	-10.4189
▁alkua	-10.4189
▁51	-10.4191
▁perusteli	-10.4193
ulo	-10.4194
oik	-10.4196
ikkaa	-10.4199
▁nuoren	-10.4199
▁henkilöauto	-10.4199
▁Loimaan	-10.42
uli	-10.42
suoja	-10.4202
▁20.	-10.4202
▁syytetty	-10.4205
neeseen	-10.4206
ive	-10.4209
oille	-10.421
milla	-10.4212
▁töissä	-10.4216
▁Lauantaina	-10.4216
▁Ny	-10.4216
isessä	-10.4218
▁olevia	-10.4218
▁We	-10.4221
▁Vii	-10.4229
▁täyttää	-10.4229
steli	-10.4232
▁käsin	-10.4235
▁Eero	-10.4236
sivusto	-10.424
▁Arttu	-10.4245
▁ai	-10.4245
versio	-10.4246
▁kanssaan	-10.425
▁epäiltynä	-10.425
uvo	-10.4252
▁alkuun	-10.4253
▁miehelle	-10.4256
eilla	-10.4257
▁Valo	-10.4259
mit	-10.4259
▁useamman	-10.426
mpe	-10.426
▁miltä	-10.4263
▁mitenkään	-10.4265
▁häneltä	-10.4274
▁piir	-10.4277
▁voit	-10.4278
▁käänne	-10.4279
▁hyökkäsi	-10.428
▁Laulaja	-10.428
▁kaukana	-10.428
▁koiran	-10.428
▁43	-10.4281
▁Rehn	-10.4281
▁päivystävä	-10.4281
▁tasolle	-10.4283
loma	-10.4283
▁Lumi	-10.4284
▁1990-	-10.4285
▁korosti	-10.4288
ttavan	-10.429
toiminta	-10.429
▁tappa	-10.4292
▁vaikutusta	-10.4292
teisiin	-10.4292
▁maasta	-10.4297
▁syyskuun	-10.4299
▁kovan	-10.4299
▁sil	-10.4303
kyky	-10.4304
▁matkailu	-10.4305
eva	-10.4306
Sa	-10.4309
18	-10.431
oksen	-10.4311
▁pääasia	-10.4314
▁Helsinkiin	-10.4316
▁Toni	-10.4316
▁lahja	-10.432
▁Hal	-10.432
lahden	-10.4322
▁mm	-10.4327
▁Käytännö	-10.4329
▁Rovaniemellä	-10.4329
▁Tutkimukse	-10.433
▁varoittaa	-10.433
▁menestys	-10.4331
▁synny	-10.4331
▁näkynyt	-10.4332
▁Muutama	-10.4332
▁Mail	-10.4334
▁pesu	-10.4335
kulma	-10.4337
▁korja	-10.4339
materiaali	-10.4341
▁Ky	-10.4342
▁vastannut	-10.4343
▁tapahtuneen	-10.4351
▁rivi	-10.4352
▁32	-10.4365
▁kovi	-10.4365
▁vih	-10.4366
▁ele	-10.4367
▁oikeutta	-10.4372
neitä	-10.4373
▁Kaa	-10.4376
▁v	-10.4379
▁Häkkänen	-10.4379
▁löydettiin	-10.4379
▁Vainio	-10.438
▁Elokuva	-10.4384
▁Aleksi	-10.4385
paikalla	-10.4391
▁oikeudenkäynti	-10.4392
▁perheensä	-10.4394
▁alkoholin	-10.4397
idi	-10.4398
▁luottamus	-10.4402
▁kuussa	-10.4406
▁levy	-10.4406
kalla	-10.441
puolueen	-10.4418
▁kovia	-10.4421
▁Juhani	-10.4421
ruoka	-10.4423
ppu	-10.4425
▁Pen	-10.4425
▁Käärijä	-10.4429
▁Taylor	-10.4429
▁analysoi	-10.4429
▁löytänyt	-10.4429
▁yhdellä	-10.4429
▁työskenteli	-10.4429
▁kahdella	-10.4429
▁yrittänyt	-10.4431
▁Onnettomuus	-10.4431
▁julkista	-10.4432
▁Kerttu	-10.4434
▁yleise	-10.4439
▁hävi	-10.444
▁Mark	-10.4441
muutos	-10.4441
▁menevät	-10.4444
poja	-10.445
▁kokouksessa	-10.4453
▁Eikä	-10.4454
▁työskentelevä	-10.4457
▁eläke	-10.4457
miehet	-10.446
poliisi	-10.4461
▁yleisurheilu	-10.4461
iltaan	-10.4462
▁varsinaise	-10.4463
▁kotonaan	-10.4464
▁anna	-10.4468
▁Ham	-10.4471
▁autolla	-10.4472
▁autoja	-10.4477
▁kruunu	-10.4479
▁Jorma	-10.4479
▁tarvittaessa	-10.4479
▁NBA	-10.4479
que	-10.4479
▁selvityksen	-10.448
▁jutun	-10.448
▁loistava	-10.4481
▁suorana	-10.4482
peri	-10.4482
▁tunteita	-10.4483
sopimus	-10.4484
▁16-	-10.4485
▁kehuu	-10.449
▁jostain	-10.4491
taistelu	-10.4492
▁eläin	-10.4494
▁Venäläis	-10.4494
rakennus	-10.4495
toiminnan	-10.4495
virta	-10.4497
teri	-10.4498
▁estä	-10.4499
joille	-10.45
▁useampi	-10.4501
ksessa	-10.4503
lee	-10.4503
hetkellä	-10.4504
▁kirjassa	-10.4506
▁puolelta	-10.4511
udesta	-10.4514
▁All	-10.4515
▁terrori	-10.4518
▁ohjaaja	-10.4523
▁käytön	-10.4523
▁Ed	-10.4523
kappale	-10.4525
▁äänistä	-10.4526
▁kehu	-10.4529
▁Nykyään	-10.4531
▁perustelee	-10.4532
▁Lehden	-10.4532
▁Victoria	-10.4532
mö	-10.4532
kaista	-10.4535
▁Inter	-10.4536
▁yhteys	-10.4543
▁sadan	-10.4545
miselle	-10.4545
▁muutosta	-10.4549
ralli	-10.455
▁ihmisille	-10.4552
▁vamma	-10.4555
▁poliittinen	-10.4558
alus	-10.4559
▁tekoäly	-10.456
▁Carolina	-10.4564
▁uusien	-10.4565
▁tar	-10.4565
▁Emma	-10.4569
▁tehdy	-10.4569
▁maailma	-10.4569
kaveri	-10.457
▁Musta	-10.4571
▁luona	-10.4571
▁tunnus	-10.4573
▁Chris	-10.458
▁konflikti	-10.458
▁Prinsessa	-10.458
▁alkanee	-10.4581
▁nuo	-10.4583
▁taa	-10.4583
▁Jotk	-10.4584
▁Juuri	-10.4584
▁Ilkka	-10.4584
▁ope	-10.4585
▁parhaiten	-10.4587
▁torstain	-10.4589
▁kahdeksa	-10.4591
▁väittely	-10.4596
amme	-10.4597
▁3.	-10.4598
▁oire	-10.4602
kaise	-10.4609
▁omistama	-10.4616
▁kokemusta	-10.4617
▁kentällä	-10.4617
▁murhan	-10.4618
▁kokoonpano	-10.4621
jö	-10.4624
▁Jalkapallo	-10.4628
▁Rikos	-10.4628
▁Perussuomalaist	-10.4631
▁mahdollisuuden	-10.4634
▁Tervo	-10.4635
▁tauti	-10.4635
▁annetaan	-10.4636
osasto	-10.4639
▁vessa	-10.4641
▁Sofia	-10.4641
näytö	-10.4642
▁uutisia	-10.4643
▁6.	-10.4645
▁elokuun	-10.4647
▁puheenjohtajan	-10.4648
eissä	-10.4651
▁sanat	-10.4652
ers	-10.4652
▁Sand	-10.4653
▁varmistaa	-10.4653
eet	-10.4656
▁täys	-10.4662
▁sinä	-10.4663
▁Ylelle	-10.4664
▁hyöty	-10.4665
von	-10.4673
▁Ski	-10.4673
▁Usea	-10.4677
hke	-10.468
▁Netanjahu	-10.4683
▁todettu	-10.4683
▁Lounais	-10.4683
▁jatkossakin	-10.4683
▁taide	-10.4685
kaikkein	-10.4685
▁liittolais	-10.4686
▁Kansa	-10.4688
▁minuutilla	-10.4689
▁tuotteita	-10.469
▁Syyrian	-10.469
▁niillä	-10.469
+1	-10.4692
▁mu	-10.4693
▁lentokone	-10.4694
▁suurimman	-10.4697
▁kerralla	-10.4697
▁nykyistä	-10.4697
▁autosta	-10.4702
▁karsinta	-10.4702
tyksiä	-10.4708
kangas	-10.471
▁49	-10.4714
▁ilmaan	-10.4721
▁mar	-10.4724
▁pelkää	-10.4729
▁doping	-10.4734
▁erilainen	-10.4738
joki	-10.4738
▁parlamentin	-10.4739
▁sisko	-10.4749
ttomasti	-10.4749
▁syyt	-10.4749
▁vahvistu	-10.475
▁kato	-10.475
▁verkkosivuilla	-10.475
paita	-10.4751
ksiin	-10.4753
pomo	-10.4754
▁suojaa	-10.4757
▁valitsi	-10.4768
14	-10.4776
kultaa	-10.4776
gg	-10.478
▁Hizbollahin	-10.4781
▁Kremlin	-10.4783
▁osana	-10.4784
▁suoritus	-10.4785
▁Puolustus	-10.4785
▁tapahtua	-10.4786
▁odotti	-10.4786
▁James	-10.4787
▁Laineen	-10.4789
▁selvitti	-10.4789
▁tehot	-10.4792
2.	-10.4793
▁osallistunut	-10.4795
▁kyseise	-10.4795
työtä	-10.4797
siko	-10.4797
▁Tiistaina	-10.4798
▁kanne	-10.4799
▁Mestarie	-10.48
▁nimen	-10.4806
▁laitos	-10.4806
▁sopiva	-10.4807
▁niille	-10.481
▁osasto	-10.4812
▁oy	-10.4812
▁miettii	-10.4816
vaan	-10.4817
▁kulutus	-10.4818
▁kamppailu	-10.4824
▁lehdelle	-10.4827
see	-10.483
▁Kilpailu	-10.4831
▁Pir	-10.4832
kir	-10.4833
läis	-10.4834
▁Vesi	-10.4835
▁rii	-10.4837
▁Suzanne	-10.4838
▁Volodymyr	-10.4838
▁kimppuun	-10.4838
▁Stanley	-10.4838
▁valmistautu	-10.484
hau	-10.4842
▁valko	-10.4847
▁puheenjohtajana	-10.4856
▁30-	-10.4867
▁Tiina	-10.4869
kanava	-10.487
tappio	-10.4871
▁Lappi	-10.4872
bb	-10.4873
▁katto	-10.4874
▁avoin	-10.4878
▁kulma	-10.4881
▁väkivallan	-10.4883
60	-10.4886
▁Windows	-10.489
▁liikkuu	-10.489
▁sekunnin	-10.4891
▁hymy	-10.4891
▁Floridan	-10.4891
▁loukkaantunut	-10.4892
tion	-10.4894
tiedot	-10.4895
▁Lähes	-10.4902
▁reilun	-10.4903
▁tapahtumat	-10.4905
X	-10.4906
▁lensi	-10.4906
yt	-10.4908
▁jy	-10.4909
▁Minu	-10.4909
▁tiistain	-10.4913
▁Hamas	-10.4913
toa	-10.4913
▁Esa	-10.4914
▁Toivo	-10.4917
ilun	-10.4918
▁7-	-10.4919
▁viestejä	-10.4924
▁Sport	-10.4925
▁maissa	-10.4927
▁helppoa	-10.4928
kala	-10.4931
▁52	-10.4934
▁tumma	-10.4941
mpiin	-10.4941
▁Edmonton	-10.4943
▁ihastu	-10.4943
▁Radio	-10.4943
▁oltava	-10.4943
▁Paikalla	-10.4943
▁pan	-10.4944
▁tunnissa	-10.4944
▁SaiPa	-10.4944
▁sukupuoli	-10.4944
▁työskentelee	-10.4945
▁palannut	-10.4947
▁LP	-10.4947
▁Kaksikko	-10.4948
▁autoon	-10.4949
perhe	-10.4949
▁lapse	-10.4952
▁lattia	-10.4952
▁Minun	-10.4953
▁synty	-10.4955
▁2008	-10.4955
▁ruokavalio	-10.4955
▁kerää	-10.4956
▁käyttämään	-10.4959
▁kestä	-10.4959
▁lopuksi	-10.4961
▁sekin	-10.4962
puolella	-10.4966
▁osakilpailu	-10.4966
▁istuva	-10.4972
▁aseen	-10.4973
tyn	-10.4973
tuvat	-10.4973
ellu	-10.4973
▁tor	-10.4976
▁Voitto	-10.498
kui	-10.4981
▁Turkin	-10.4981
▁liikenteen	-10.4986
▁kysely	-10.4986
▁Elämä	-10.499
ya	-10.4992
▁hyvinkin	-10.4995
▁harvoin	-10.4996
▁kirjan	-10.4999
▁teema	-10.5
▁hö	-10.5001
▁Kärpät	-10.5006
▁von	-10.5006
llisuutta	-10.501
▁rauhassa	-10.5011
▁kuolemaan	-10.5016
▁venäläisten	-10.5017
▁noudat	-10.5019
▁hyvässä	-10.5021
tettua	-10.5021
▁sodassa	-10.5025
▁oireita	-10.5027
oiden	-10.5028
kkala	-10.503
neesta	-10.5031
▁rikoksista	-10.5037
▁Kalevan	-10.5038
tavan	-10.5039
▁Tii	-10.5041
hankkee	-10.5042
ation	-10.5043
virasto	-10.5046
▁luoda	-10.5046
idän	-10.5049
▁Pärmäkoski	-10.5049
▁kommentteja	-10.5049
▁viivästy	-10.5049
▁näissä	-10.505
▁autta	-10.505
▁Dallas	-10.5051
ova	-10.5053
▁rahat	-10.5053
▁ehdottomasti	-10.5054
▁aktiivisesti	-10.5055
tuminen	-10.5056
▁aikuis	-10.5058
▁haju	-10.5059
laan	-10.5059
▁muka	-10.506
▁toteuttaa	-10.5062
▁hyväksyi	-10.5065
ttuja	-10.507
joista	-10.5075
▁tunnetu	-10.5078
▁väärä	-10.5089
▁jutu	-10.5095
poli	-10.5097
▁2018.	-10.5098
pl	-10.5098
Mi	-10.51
▁Kaisa	-10.5102
ikäinen	-10.5103
▁Ilveksen	-10.5103
▁Oliver	-10.5108
▁yritysten	-10.5111
▁hur	-10.5112
rd	-10.5113
▁ui	-10.5117
▁haastattelema	-10.5121
▁Cup	-10.5122
▁mahdollisia	-10.5123
▁Bre	-10.5124
sana	-10.5127
hel	-10.5128
▁4.	-10.513
kkejä	-10.5131
▁havaintoja	-10.5133
leiri	-10.5133
▁kuvasi	-10.5136
▁puhtaa	-10.5136
sivu	-10.5137
▁kera	-10.5138
lasi	-10.5138
▁finaaliin	-10.514
kkeet	-10.5142
zin	-10.5143
▁biisi	-10.5144
mmista	-10.5144
▁Leo	-10.5146
▁huomio	-10.5148
▁levi	-10.5149
▁edustalla	-10.515
▁tavara	-10.515
suu	-10.5155
pun	-10.5156
▁Lie	-10.5156
▁kongressi	-10.5156
▁saatavilla	-10.5156
▁Libanonin	-10.5157
Ma	-10.5157
▁Joensuu	-10.5159
moottori	-10.5166
laiva	-10.5169
▁sataa	-10.5169
▁yleisesti	-10.5169
▁kohteena	-10.5171
▁toimisto	-10.5172
▁onnettomuuden	-10.5172
▁nimissä	-10.5176
▁Mäkinen	-10.5177
ep	-10.5178
▁paikkoja	-10.5179
▁miehistö	-10.5186
▁sade	-10.5187
▁vapautu	-10.5187
▁IL	-10.5188
kumppani	-10.5188
▁Esi	-10.519
▁järjesti	-10.519
▁pesti	-10.5192
▁osoitti	-10.5197
liito	-10.5198
etty	-10.52
tavaa	-10.5201
▁Pai	-10.5206
▁republikaani	-10.5207
kien	-10.521
▁Lindholm	-10.5211
▁kerrostalo	-10.5211
▁pääsihteeri	-10.5212
▁mer	-10.5213
▁Lehtikuva	-10.5217
sista	-10.5219
▁äärijärjestö	-10.5222
▁Don	-10.5224
yksiä	-10.5228
ttuaan	-10.523
▁Toivon	-10.5233
▁Satu	-10.5234
järjestön	-10.5236
▁osannut	-10.524
▁pahe	-10.524
▁yöllä	-10.5241
▁Jyväskylän	-10.5248
teilla	-10.5249
▁taiteilija	-10.5249
▁Häntä	-10.5249
▁aikoinaan	-10.5251
▁Lapsi	-10.5252
ilua	-10.5254
▁vaarallise	-10.5256
lut	-10.5257
palvelut	-10.5259
▁satama	-10.5261
▁raivo	-10.5262
mallin	-10.5264
▁fiilis	-10.5265
▁Paljon	-10.5265
yys	-10.5265
▁minusta	-10.5266
▁Utah	-10.5267
▁lapsensa	-10.5269
▁Joona	-10.5269
▁Päivä	-10.5271
▁tulvi	-10.5274
▁Ilma	-10.5276
▁avoimesti	-10.5279
▁pila	-10.5279
▁mahdotonta	-10.528
▁välttää	-10.5281
tuotanto	-10.5287
näyttelijä	-10.5288
▁asunut	-10.5293
reissu	-10.5293
tal	-10.5294
▁viranomais	-10.5297
▁rikoksen	-10.5297
▁65	-10.5298
▁poliittisen	-10.53
▁sydäme	-10.5301
▁vietti	-10.5305
▁karu	-10.5306
kkö	-10.5308
kkaat	-10.5308
▁pienempi	-10.5308
▁Laakso	-10.5309
▁joukkoja	-10.5314
▁kutsuttu	-10.5316
▁Kaiken	-10.5318
▁viitaten	-10.532
▁Tasavallan	-10.532
▁Topi	-10.5323
▁kehottaa	-10.5324
▁Keskustelu	-10.5325
▁muuttanut	-10.5325
käs	-10.5328
▁esitetty	-10.533
kanta	-10.5331
▁päätöksestä	-10.5331
▁pisteet	-10.5333
▁esiintymis	-10.5337
▁mau	-10.5341
▁Risto	-10.5342
hetki	-10.5345
▁laita	-10.5349
uteen	-10.535
hko	-10.5354
▁virallise	-10.5365
pro	-10.5365
▁Tiktok	-10.5366
▁rikoksesta	-10.5366
▁Lind	-10.5367
▁demokraatti	-10.5369
▁Che	-10.5372
▁huomannut	-10.5374
▁Mielestäni	-10.5374
▁SalPa	-10.5375
▁esitutkinta	-10.5375
▁rajoi	-10.5377
▁kokoomus	-10.5377
▁tärkeitä	-10.538
hallituksen	-10.5381
▁käsitellään	-10.5382
▁tavoit	-10.5383
katu	-10.5384
rai	-10.5386
▁Lehtonen	-10.5388
▁lääkärin	-10.5389
▁läheise	-10.5392
▁korkeimma	-10.5392
yleisö	-10.5397
Britannia	-10.5398
rauha	-10.5398
▁Kuusi	-10.5398
▁ryhmän	-10.5402
▁menehtyi	-10.5402
mal	-10.5404
sarjaa	-10.5416
insa	-10.5417
tumaan	-10.5418
▁paljas	-10.5421
ld	-10.5421
▁Yö	-10.5429
▁Prinssi	-10.543
▁kenties	-10.543
▁tarjota	-10.543
zi	-10.5434
▁57	-10.5435
▁tutkitaan	-10.5437
▁Aamu	-10.5439
▁päätökseen	-10.544
▁Kansainväli	-10.5443
▁poliisilaitokse	-10.5444
▁tuska	-10.5444
▁opetus	-10.5447
▁kaava	-10.5449
▁Lou	-10.545
▁arva	-10.5453
▁neuvosto	-10.5457
jäsen	-10.5458
▁jotenkin	-10.5459
▁kur	-10.5459
▁suosittu	-10.546
▁jäsenet	-10.546
▁ampuja	-10.5461
▁Bro	-10.5465
▁rap	-10.5468
▁jalkapallon	-10.5468
▁kertoma	-10.5473
let	-10.5475
joiden	-10.5484
▁toisaalta	-10.5485
▁joutuvat	-10.5485
▁monella	-10.5485
▁Ran	-10.5486
yritys	-10.5486
▁syytteet	-10.5486
▁myyjä	-10.5494
▁rajaa	-10.5496
▁Puhe	-10.5497
▁Kela	-10.55
musta	-10.55
▁sokeri	-10.5501
▁ruo	-10.5502
▁kuullut	-10.5502
▁2005	-10.5503
▁tuoma	-10.5508
tuista	-10.5509
▁Suomalaiset	-10.5509
mari	-10.5509
hiihtäjä	-10.551
▁korkealla	-10.5514
▁kaiva	-10.5518
▁saaneen	-10.5519
kaupan	-10.5521
▁Haka	-10.5524
▁pelaajan	-10.5527
▁korko	-10.5532
kalle	-10.5533
yd	-10.5536
▁Alku	-10.5537
▁viini	-10.5537
tyksestä	-10.5539
▁läsnä	-10.5541
▁arvonlisävero	-10.5541
▁vapautta	-10.5541
▁tarvinnut	-10.5541
▁seuraaja	-10.5542
od	-10.5542
▁sivussa	-10.5544
▁Jalonen	-10.5545
▁Some	-10.5545
▁kotoisin	-10.5546
pel	-10.5547
▁AC	-10.5548
▁Heidi	-10.5551
▁asianajaja	-10.5552
▁puisto	-10.5552
▁Ura	-10.5553
ympäristö	-10.5555
▁tuottaa	-10.5557
▁Ronaldo	-10.5559
▁yhdistää	-10.5559
▁tähden	-10.5561
▁5.	-10.5561
▁nykyise	-10.5562
▁jääkiekon	-10.5562
▁laati	-10.5563
▁Vähän	-10.5565
▁iskun	-10.5569
▁Vih	-10.5571
▁Espoossa	-10.5574
▁hyötyä	-10.5577
▁alueelta	-10.5579
▁muoti	-10.5581
▁vaikut	-10.5584
▁vika	-10.5585
▁videoita	-10.5586
▁har	-10.5586
▁katosi	-10.5587
kk	-10.5588
▁leikkaa	-10.5591
▁kulki	-10.5596
▁Kansanedustaja	-10.5597
▁näillä	-10.5598
▁Kauppa	-10.5599
▁kuolemasta	-10.5599
▁elokuvan	-10.5599
▁Å	-10.5599
▁Voit	-10.56
▁seudu	-10.56
▁toisesta	-10.5601
▁Kreml	-10.5601
ettava	-10.5601
▁Toi	-10.5604
▁Vasemmistoliito	-10.5606
▁Ohjelma	-10.5609
eitä	-10.5612
▁Lehtinen	-10.5612
▁korjattu	-10.5619
▁tarpeen	-10.5622
ret	-10.5623
▁siirtää	-10.5624
pö	-10.5631
▁seuraavi	-10.5634
▁arvioitu	-10.5639
▁Kukaan	-10.5647
▁Kaupungin	-10.5649
▁koi	-10.565
palveluiden	-10.5651
▁normaalia	-10.5653
▁Toivottavasti	-10.5654
▁kel	-10.5654
▁Päätös	-10.5655
▁valtavan	-10.5655
▁Eva	-10.5656
▁vakio	-10.5656
▁luonnollisesti	-10.5657
▁väkivalta	-10.5658
kortti	-10.5659
▁suomen	-10.566
töitä	-10.5662
▁Borg	-10.5664
nnalla	-10.5667
▁pyrki	-10.5667
▁käymään	-10.5672
▁lukemi	-10.5674
kisan	-10.5675
▁koulussa	-10.5675
▁liittyvä	-10.5675
▁58	-10.5678
voittaja	-10.5681
▁joudu	-10.5682
▁peliin	-10.5684
ttamista	-10.5686
▁Las	-10.5687
▁vajaa	-10.569
▁vienti	-10.5691
▁tekemässä	-10.5694
▁Tero	-10.5699
▁huomattava	-10.57
ius	-10.57
▁posti	-10.5704
▁saksalais	-10.5705
▁Lopu	-10.5705
▁pelattu	-10.5708
19	-10.5709
maailman	-10.5711
▁Huippu	-10.5711
▁Yleensä	-10.5713
▁Poika	-10.5713
▁Nuorten	-10.5714
▁suorastaan	-10.5715
▁eroon	-10.5715
▁luvan	-10.5715
▁Hol	-10.5716
▁kilpailija	-10.5717
▁kyky	-10.5717
▁varoit	-10.5719
▁häneen	-10.5719
kia	-10.572
▁aikoihin	-10.5722
▁virallisesti	-10.5722
▁Asu	-10.5724
▁ok	-10.5725
▁huhu	-10.5726
▁joukkueessa	-10.5726
väline	-10.5726
▁työelämä	-10.5727
▁potilas	-10.5732
▁toden	-10.5732
ruo	-10.5735
teho	-10.5737
tuksiin	-10.5743
levy	-10.5744
ua	-10.5748
▁konsertti	-10.5751
▁valmista	-10.5752
ttinen	-10.5753
▁suljettu	-10.5753
▁isompi	-10.5754
vihr	-10.5757
▁Jan	-10.576
viiva	-10.5761
paikasta	-10.5762
immista	-10.5764
▁kadu	-10.5766
▁Anton	-10.5766
▁muodo	-10.5766
▁Lahti	-10.5767
▁opiskelu	-10.5768
▁perussuomalaise	-10.5768
▁talven	-10.5768
▁rinnalla	-10.5769
▁Roope	-10.5769
ttäisiin	-10.577
ttäisi	-10.577
eta	-10.5771
▁Perus	-10.5771
▁Aivan	-10.5773
▁parempaa	-10.5785
vaiheessa	-10.5786
▁vaatinut	-10.5787
▁vuodet	-10.5792
▁kommentoimaan	-10.5792
▁laajasti	-10.5793
suunnitelma	-10.5796
▁Wal	-10.5798
▁mietti	-10.5798
▁hauska	-10.5798
kkia	-10.58
▁Ahti	-10.58
▁kirjailija	-10.5804
liikkeen	-10.5805
▁istuu	-10.5807
▁kehui	-10.5807
▁paikallista	-10.5809
rie	-10.5814
kulku	-10.5815
▁syyte	-10.5817
▁siirtymä	-10.5817
metsä	-10.5819
pon	-10.582
▁jotkut	-10.5821
▁aseita	-10.5822
kassa	-10.5823
▁hopea	-10.5823
▁poikkeus	-10.5823
▁poikki	-10.5827
▁pääministerin	-10.583
▁Milla	-10.583
▁tyttärensä	-10.583
▁Keskiviikkona	-10.5832
▁jotakin	-10.5835
▁Catherinen	-10.5836
isille	-10.5836
hoido	-10.5838
com	-10.5839
▁rahan	-10.5842
▁kirjasto	-10.5842
▁THL	-10.5845
▁keskustella	-10.5846
▁tukeva	-10.5849
▁iskuja	-10.585
▁Kaarina	-10.5851
▁kuluvan	-10.5851
piir	-10.5853
▁valtavasti	-10.5853
ratkaisu	-10.5854
▁ajankohta	-10.5859
▁varoitus	-10.586
parin	-10.586
▁nimellä	-10.586
▁kommentoida	-10.5861
▁tuottaja	-10.5863
▁peruna	-10.5863
▁Sun	-10.5864
▁Sota	-10.5866
sali	-10.5871
▁Pii	-10.5872
▁nuorena	-10.5873
▁Epä	-10.5873
▁Arvo	-10.5875
▁loppua	-10.5875
▁viestiä	-10.5876
apua	-10.5877
▁heitto	-10.5882
▁der	-10.5882
▁tot	-10.5883
▁Huuhkaji	-10.5883
▁ambulanssi	-10.5883
▁Kärppien	-10.5883
▁ylpeä	-10.5883
▁läheisyydessä	-10.5883
▁Oscar	-10.5883
▁Pariskunta	-10.5883
▁leviää	-10.5884
▁ostaja	-10.5886
▁rinta	-10.5891
▁Juho	-10.5891
▁ajat	-10.5892
▁Ainoa	-10.5894
▁podcastissa	-10.5894
kuvia	-10.5895
viesti	-10.5896
▁kysymykseen	-10.5896
▁laskenut	-10.5897
ukko	-10.5897
▁Ad	-10.5897
▁markkinointi	-10.5898
että	-10.5899
kunto	-10.5901
▁Tuuli	-10.5902
▁jolle	-10.5903
▁kuvattuna	-10.5904
▁paidassa	-10.5905
▁tilan	-10.5906
▁Keskus	-10.5907
80	-10.5909
▁tietty	-10.5909
gar	-10.5911
tutkija	-10.5912
▁Vara	-10.5913
▁Nord	-10.5914
hr	-10.5915
telleet	-10.5916
▁juurikaan	-10.5918
▁paikkaan	-10.5918
▁Tuomio	-10.5924
▁perusta	-10.5925
▁yleinen	-10.5941
▁millainen	-10.5941
▁pidettiin	-10.5941
▁laittoi	-10.5942
▁Raha	-10.5942
▁ihmisoikeus	-10.5942
rangaistukseen	-10.5944
▁Mylly	-10.5944
▁tennis	-10.5945
▁pakolais	-10.5946
▁Moskovan	-10.5947
puisto	-10.5951
▁2010	-10.5951
▁johtajan	-10.5954
▁Real	-10.5955
ros	-10.5955
▁koneen	-10.5961
immat	-10.5963
tv	-10.5964
▁tekemä	-10.597
▁tärkein	-10.5971
▁sävy	-10.5972
▁Voima	-10.5973
työntekijä	-10.5973
kriisi	-10.5973
isyys	-10.5974
siirto	-10.5975
▁pääsivät	-10.5977
▁Vil	-10.5978
▁asioiden	-10.5978
Pohjanmaan	-10.5979
▁sie	-10.5979
▁poseeraa	-10.5982
▁Tausta	-10.5985
▁pariskunnan	-10.5989
▁puheen	-10.5991
▁Kommentti	-10.6
valtuutettu	-10.6
▁epäillä	-10.6
▁tykkää	-10.6
▁lopetti	-10.6003
▁yllätyksenä	-10.6004
▁Kello	-10.6005
▁Britannia	-10.6006
aikana	-10.6008
▁todiste	-10.6008
▁Kemi	-10.601
▁jatku	-10.601
▁Eetu	-10.6011
▁pahoinpitelystä	-10.6012
▁jul	-10.6013
▁joitakin	-10.6014
kirjo	-10.6014
š	-10.6016
▁aiheuttama	-10.6018
▁valossa	-10.6018
▁Toyotan	-10.6024
luokassa	-10.6025
▁Lasten	-10.6025
▁hevonen	-10.6026
▁rakasta	-10.6026
tietojen	-10.6027
▁Hai	-10.6029
▁56	-10.603
▁tupla	-10.6032
▁Mone	-10.6032
ttavia	-10.6035
▁tuon	-10.6035
▁tarve	-10.6037
▁ääri	-10.6038
▁Yhteis	-10.604
▁talossa	-10.604
veli	-10.604
▁laatu	-10.6041
▁poistu	-10.6043
+	-10.6047
▁netti	-10.6047
▁aiemminkin	-10.6047
nnoista	-10.6047
▁Con	-10.6049
▁toteutta	-10.6052
▁syödä	-10.6052
▁ylivoima	-10.6053
▁Hizbollah	-10.6057
mpien	-10.6058
qvist	-10.6058
;	-10.6058
▁Yhdysvaltoihin	-10.6058
▁alijäämä	-10.6058
▁Tällaise	-10.606
▁Helander	-10.6062
▁Meghan	-10.6065
▁Samuli	-10.6066
▁päivitetty	-10.6067
▁koskevat	-10.6068
luu	-10.6069
▁pysyvä	-10.6069
▁eduskunta	-10.6072
▁asioihin	-10.6072
tiimi	-10.6074
▁piiri	-10.6078
▁sisältö	-10.6079
itin	-10.6082
▁pitkiä	-10.6082
▁ehdokkaan	-10.6082
▁Norjassa	-10.6085
▁rajusti	-10.6086
▁budjetti	-10.6087
isilla	-10.6088
utua	-10.6088
▁pul	-10.6089
▁riitti	-10.609
▁pani	-10.609
▁lämpötilat	-10.6093
▁seudulla	-10.6093
▁ääniä	-10.6094
kais	-10.6096
lvi	-10.6096
▁lue	-10.6097
▁vastata	-10.6099
keino	-10.6101
▁Anttila	-10.6102
teille	-10.6105
▁Niinistön	-10.6108
ev	-10.6108
▁Sor	-10.6108
▁tutu	-10.6109
▁lukien	-10.6111
▁rakennuksen	-10.6112
▁käsitellä	-10.6113
veri	-10.6115
▁kadonnut	-10.6118
▁Pietari	-10.6118
▁Frederik	-10.6118
▁johdolla	-10.6118
▁hovioikeus	-10.6118
▁puuttuu	-10.6118
▁lienee	-10.6119
tilasto	-10.612
▁GP	-10.6123
▁sovittu	-10.6128
kielto	-10.6128
lupaus	-10.6128
▁vammoja	-10.6136
▁Tra	-10.6141
▁toimimaan	-10.6144
määri	-10.6148
70	-10.6148
▁poliittise	-10.615
ahon	-10.6151
▁torjui	-10.6151
▁Aja	-10.6152
emmin	-10.6153
tämään	-10.6155
▁bo	-10.6156
yle	-10.6156
apu	-10.6158
ologi	-10.6159
liha	-10.616
kulu	-10.616
▁Kahden	-10.616
▁Kokko	-10.616
▁markkinoi	-10.6162
sso	-10.6163
▁jäte	-10.6165
▁erää	-10.6166
osi	-10.6171
▁sairaus	-10.6174
▁huumori	-10.6177
▁kaikesta	-10.6177
ttivat	-10.6177
▁tulevaisuuden	-10.6178
▁Cor	-10.6181
holm	-10.6181
▁parlamentti	-10.6181
▁mitkä	-10.6182
▁soittaa	-10.6183
▁hakemaan	-10.6184
▁joulukuun	-10.6184
▁Englanti	-10.6185
kuvaa	-10.6186
▁kyseisen	-10.6187
▁Heikkilä	-10.6187
illeen	-10.6188
alueilla	-10.6192
▁otteluun	-10.6195
paikalle	-10.6195
▁hovi	-10.6201
ttivät	-10.6202
iivi	-10.6204
▁kasvua	-10.6205
▁työntekijät	-10.6208
julkaisu	-10.6208
markkina	-10.6209
▁hullu	-10.6211
▁titteli	-10.6212
lähe	-10.6213
▁huone	-10.6216
▁myyntiin	-10.6218
tš	-10.6218
yksi	-10.6219
onsa	-10.6219
▁edistää	-10.622
▁Apu	-10.6221
▁napa	-10.6224
tellyt	-10.6225
▁olet	-10.6225
tamaan	-10.6226
▁Venäjältä	-10.6229
▁maalilla	-10.6229
▁Sain	-10.6229
zz	-10.6234
▁juniori	-10.6234
▁mielenterveys	-10.6237
▁pormestari	-10.6238
▁Toveri	-10.6238
▁vakuuttaa	-10.624
suora	-10.624
▁jääneet	-10.624
▁koke	-10.6241
▁toistuvasti	-10.6241
▁lopputulos	-10.6243
▁Anni	-10.6243
▁Maanantaina	-10.625
▁velje	-10.6251
▁valtaa	-10.6252
▁hätäkeskukseen	-10.6252
▁jonne	-10.6254
▁uskotaan	-10.6255
▁sotaan	-10.6256
16	-10.6256
tilanteen	-10.6261
▁iki	-10.6263
▁uutinen	-10.6265
▁trendi	-10.6267
▁Uutis	-10.6272
▁pysyi	-10.6276
▁rasva	-10.6277
▁Isä	-10.6278
▁nousevat	-10.6281
▁presidenttinä	-10.6284
▁kori	-10.6285
▁Louis	-10.6286
▁matkusta	-10.6287
▁näyttävä	-10.6287
▁ruumis	-10.6287
▁Otto	-10.6289
▁drooni	-10.629
▁yhteisen	-10.6293
▁Ruotsalais	-10.6296
▁inflaatio	-10.6297
▁mainittu	-10.6297
▁kyydissä	-10.6297
kim	-10.6299
neelle	-10.6299
▁säännöllisesti	-10.63
▁aiempi	-10.6301
hui	-10.6303
▁kielen	-10.6304
▁kanslia	-10.6305
▁Guardian	-10.6305
▁turnauksen	-10.6307
▁osaltaan	-10.6307
muka	-10.6308
ehdokkaan	-10.6309
▁Someron	-10.631
▁vaativat	-10.6313
▁SE	-10.6316
▁2007	-10.6316
▁julkisi	-10.6318
▁120	-10.6321
▁ratkaista	-10.6323
▁suunta	-10.6325
▁Kir	-10.6326
▁Kulta	-10.6327
mattom	-10.6332
uku	-10.6332
▁piilo	-10.6337
▁perinteisen	-10.6337
uutis	-10.6341
vaihto	-10.6342
▁Maali	-10.6342
▁pohjalta	-10.6343
▁alkunsa	-10.6343
gra	-10.6348
tola	-10.6352
▁Mun	-10.6355
▁Toimi	-10.6357
▁Koivisto	-10.6358
▁vuodelle	-10.6358
▁Seiska	-10.6359
▁Cupin	-10.636
▁lopu	-10.6361
▁kuvernööri	-10.6362
▁lähet	-10.6362
▁tutustu	-10.6365
kis	-10.6366
▁joukkueensa	-10.6367
▁Hinta	-10.637
▁Jokainen	-10.637
kkeja	-10.6372
▁käytiin	-10.6373
▁arvosta	-10.6373
▁lista	-10.6374
▁sanovat	-10.638
▁välistä	-10.6381
▁viil	-10.6383
▁asetta	-10.6388
▁Za	-10.6389
▁äly	-10.6392
jiä	-10.6396
▁tarkkaan	-10.6398
▁puolilla	-10.6403
▁pysyä	-10.6405
▁puolustaa	-10.6405
▁pukeutu	-10.6406
▁nauttia	-10.6408
▁mestaruutta	-10.641
kee	-10.6411
▁os	-10.6411
▁henkilöt	-10.6412
hallitus	-10.6413
kai	-10.6414
▁selit	-10.6415
▁korkein	-10.6416
▁rauta	-10.6417
▁tiettävästi	-10.6419
▁ajetaan	-10.6419
▁lukee	-10.642
▁KHL	-10.642
tanssi	-10.6421
▁Japanin	-10.6423
▁edustus	-10.6423
kadulla	-10.6424
▁bändi	-10.6425
▁Romania	-10.6425
▁yhteiskunta	-10.6425
▁penk	-10.6425
▁valtaosa	-10.6426
▁kokonaisuudessa	-10.6427
▁haasteita	-10.6429
▁Seppo	-10.6433
▁Lassila	-10.6436
▁joutua	-10.6437
eistä	-10.6437
▁vaativa	-10.6437
▁sisäise	-10.6438
pyörä	-10.6439
▁näkemään	-10.6439
▁sulke	-10.6441
paikkoja	-10.6441
▁asuin	-10.6441
▁vastaavaa	-10.6442
▁muilla	-10.6442
saira	-10.6444
seuran	-10.6445
▁ylsi	-10.6447
▁fanit	-10.6447
etään	-10.6451
vari	-10.6452
▁Kokoomuksen	-10.6455
tunti	-10.6456
▁herä	-10.6457
sarjasta	-10.6459
lke	-10.6461
▁hylly	-10.6461
▁kil	-10.6463
▁turvaa	-10.6466
kerr	-10.6466
▁vaihtoehtoja	-10.6469
▁työstä	-10.6469
▁iltana	-10.6469
▁vakavia	-10.6474
kerho	-10.6476
tkö	-10.6478
▁erilaista	-10.6479
lait	-10.6479
▁Käsi	-10.648
▁yhdestä	-10.648
▁Kuningas	-10.648
▁otteeseen	-10.648
▁kehittää	-10.6481
▁ansio	-10.6481
▁lehden	-10.6482
▁Uni	-10.6485
pussi	-10.6485
▁Nuori	-10.6487
▁kärsinyt	-10.6489
▁George	-10.6489
pito	-10.6491
▁luottaa	-10.6493
▁seurassa	-10.6494
▁yhteiskunnan	-10.6494
ey	-10.6495
▁puheenvuoro	-10.6496
▁kiistää	-10.6497
▁vastaanotto	-10.6499
▁voimakkaa	-10.65
pakka	-10.6505
▁näytä	-10.6508
▁Tesla	-10.6509
▁Bra	-10.6511
▁laittee	-10.6511
▁villi	-10.6513
vuoden	-10.6516
▁nousivat	-10.6517
ama	-10.6525
▁suhteellise	-10.6526
aseman	-10.6526
▁joukkojen	-10.6526
alueelle	-10.6528
▁Tv	-10.6529
▁molempi	-10.6529
jako	-10.6531
ttävät	-10.6531
▁kenttä	-10.6532
väri	-10.6532
▁pisteitä	-10.6536
kli	-10.6538
kiä	-10.654
▁Jyrki	-10.6542
▁Mukana	-10.6542
▁asukkaat	-10.6543
▁ystäviä	-10.6544
▁mainitsee	-10.6544
▁Näitä	-10.6545
▁kestänyt	-10.6546
kselle	-10.6547
▁1980-	-10.6547
▁Pur	-10.6548
▁Kär	-10.6548
▁iskussa	-10.6549
lander	-10.6549
▁ellei	-10.6549
▁nuorille	-10.655
▁ratkaisua	-10.6552
▁kiista	-10.6552
▁Turkki	-10.6552
▁tammikuun	-10.6554
▁kuume	-10.6554
▁nauraa	-10.6557
▁59	-10.6559
11	-10.6561
▁metalli	-10.6562
vil	-10.6562
oksi	-10.6568
mättömä	-10.6569
▁kansainvälisi	-10.6571
▁Ya	-10.6571
toihin	-10.6573
▁Ä	-10.6574
▁nime	-10.6579
▁partio	-10.6579
▁alkoholia	-10.658
▁lupasi	-10.658
▁Haapa	-10.6582
▁kg	-10.6582
valvonta	-10.6583
▁Tila	-10.6584
▁kuolema	-10.6585
▁väki	-10.6585
▁ruoan	-10.6585
▁Por	-10.6585
▁Pasi	-10.6588
vuori	-10.6589
ileva	-10.6592
▁pelasta	-10.6594
laatu	-10.6595
▁Ihmis	-10.6596
kanut	-10.6598
pur	-10.6599
▁UMK	-10.6604
▁saataisiin	-10.6604
▁pyytänyt	-10.6606
▁Fox	-10.6607
▁Hyvin	-10.6607
▁vaikeuksia	-10.6609
▁Ralli	-10.6609
▁lakia	-10.661
▁ikkuna	-10.661
▁näyttely	-10.6611
-1	-10.6611
▁syyttää	-10.6612
▁85	-10.6612
▁Yleisö	-10.6613
▁kysymyksiin	-10.6615
▁kiristy	-10.6615
▁investointi	-10.6615
▁keskiviikon	-10.6617
▁25-	-10.6617
▁paini	-10.6619
▁muutakin	-10.662
▁2006	-10.6623
▁Finland	-10.6628
yrityksen	-10.6628
kissa	-10.663
sääntö	-10.6631
väki	-10.6631
isee	-10.6633
▁tarkast	-10.6638
▁pihalla	-10.6639
▁tuloksia	-10.664
tarina	-10.6643
▁taju	-10.6645
▁karhu	-10.6646
▁Ase	-10.6647
▁miehiä	-10.6651
▁suuntaa	-10.6654
lupa	-10.6658
▁oven	-10.666
▁Ranskassa	-10.6661
▁Fu	-10.6663
▁50-	-10.6665
evä	-10.6665
▁painaa	-10.6667
▁ehdolla	-10.6667
▁löydy	-10.6667
▁Korhonen	-10.6667
▁Selänne	-10.6667
▁Eduskunna	-10.6667
▁Christian	-10.6667
bergin	-10.6667
▁poimi	-10.6668
▁käytä	-10.6669
▁seksuaalise	-10.6672
omistaja	-10.6675
▁työryhmä	-10.6676
▁Itävalta	-10.6676
▁Vesa	-10.6681
▁vaaranta	-10.6682
▁susi	-10.6682
▁Mil	-10.6684
raport	-10.6684
utuva	-10.6685
▁historiaa	-10.6685
▁jär	-10.6687
▁2004	-10.6688
▁karsi	-10.669
▁pullo	-10.669
▁puolta	-10.6691
▁vastusta	-10.6692
neuvosto	-10.6692
dra	-10.6693
▁Ir	-10.6693
▁suklaa	-10.6693
▁avata	-10.6694
1.	-10.6694
▁turisti	-10.6695
▁voitosta	-10.6698
▁ongelmat	-10.67
▁Jaakko	-10.67
paikoilla	-10.6703
▁Th	-10.6705
vah	-10.6706
liikenteen	-10.6708
▁tiellä	-10.6709
▁syytti	-10.6709
▁29.	-10.6711
▁kasvatti	-10.6711
▁ajamaan	-10.6712
valiokunta	-10.6712
▁Latvia	-10.6715
▁puuttee	-10.6716
▁asiakkaita	-10.672
▁neli	-10.6722
▁helmikuun	-10.6727
▁harjoit	-10.6728
о	-10.6729
poikkeuksellinen	-10.6729
▁prosentilla	-10.673
▁riittänyt	-10.673
tähden	-10.6732
▁tällaisia	-10.6733
indeksi	-10.6733
▁muutto	-10.6734
▁tavoitti	-10.6735
▁perä	-10.6736
▁Koskinen	-10.6739
▁muuttua	-10.6739
▁meren	-10.674
▁Susanna	-10.6741
▁keskenään	-10.6742
▁huhtikuun	-10.6744
▁vetä	-10.6744
▁saattaisi	-10.6745
▁hake	-10.6745
▁Johnson	-10.6746
▁täyte	-10.6748
▁talle	-10.6753
▁kansallisen	-10.6757
kola	-10.6758
▁Kirsi	-10.6759
▁oliko	-10.6759
▁maine	-10.6759
steri	-10.6761
▁Sosiaali	-10.6762
▁250	-10.6762
▁autossa	-10.6764
▁2000	-10.6764
laus	-10.6766
matkalla	-10.6766
▁tiedo	-10.6769
▁määrättiin	-10.6771
▁tap	-10.6772
▁ulkoministeriö	-10.6772
▁Berg	-10.6776
▁Niemi	-10.678
▁ilmestyi	-10.678
▁suomalaisille	-10.6781
▁kyy	-10.6782
▁kaista	-10.6785
▁kertomaan	-10.6788
isä	-10.6789
ope	-10.6789
▁valitaan	-10.6789
saaren	-10.6792
▁päässeet	-10.6793
▁Thaimaa	-10.6793
▁laukoi	-10.6794
pyy	-10.6794
▁Tom	-10.6795
▁digi	-10.6795
▁syyllistyneen	-10.6796
▁Ste	-10.68
ajalla	-10.6802
if	-10.6802
▁tietävät	-10.6802
ör	-10.6803
lasta	-10.6806
▁Sol	-10.6806
▁Raja	-10.6807
▁ihmisistä	-10.6807
▁puoleen	-10.6808
▁Torstaina	-10.6809
▁työntekijöitä	-10.6811
iselta	-10.6812
▁Ylä	-10.6812
▁€	-10.6812
yyteen	-10.6812
▁vieraana	-10.6813
politiikkaa	-10.6813
▁lait	-10.6814
▁Min	-10.6815
▁py	-10.6816
iten	-10.6816
▁hyppää	-10.6816
▁mahdollisuudet	-10.6819
▁kieltää	-10.6819
▁reuna	-10.682
▁toiminnassa	-10.6821
▁ker	-10.6823
matkan	-10.6823
▁Sosiaalise	-10.6824
▁vaikuta	-10.683
tri	-10.683
▁Saman	-10.6836
▁keli	-10.6837
▁käytös	-10.6838
▁tahto	-10.6838
▁norjalais	-10.6841
▁Ferrari	-10.6841
▁päällikkö	-10.6842
oit	-10.6843
▁Kuka	-10.6846
▁jouko	-10.6847
maajoukkue	-10.685
▁matkustaja	-10.6854
▁huomenna	-10.6856
▁takavarikoi	-10.6856
▁riveissä	-10.6856
▁Suomella	-10.6856
kuvan	-10.6857
▁verenpaine	-10.6857
▁viittasi	-10.6857
▁Alex	-10.6857
▁Kirja	-10.6857
▁huuta	-10.6858
▁vastaajista	-10.6859
▁esiintynyt	-10.6859
▁tue	-10.686
▁voimme	-10.6862
▁ryöstö	-10.6864
und	-10.6865
▁uutisoitiin	-10.6867
▁kehotti	-10.6868
▁kiusa	-10.687
▁yksityise	-10.6871
▁viimeisteli	-10.6871
▁Israeliin	-10.6874
kevä	-10.6879
juoksu	-10.6881
▁sujui	-10.6881
▁Harala	-10.6882
▁kier	-10.6889
elokuvan	-10.6891
▁saavutti	-10.6891
▁Lau	-10.6895
▁vakaa	-10.6905
▁koro	-10.6905
▁elinkeino	-10.6905
▁vertailu	-10.6907
▁pääsiäis	-10.6907
▁hanki	-10.6908
▁suksi	-10.691
▁yleisölle	-10.691
▁kome	-10.691
▁toimija	-10.6911
isiksi	-10.6916
▁3-1	-10.6916
sestä	-10.6918
▁venäläiset	-10.6919
▁Minusta	-10.6919
▁edetessä	-10.6921
▁Toistaiseksi	-10.6921
▁tietenkään	-10.6921
▁luksus	-10.6921
▁lähipiiri	-10.6922
suunta	-10.6922
pelissä	-10.6923
▁hyvällä	-10.6925
▁osaksi	-10.6927
▁varoitti	-10.6927
▁Näistä	-10.6929
▁vastaavan	-10.693
pelin	-10.6933
▁Vantaalla	-10.6937
vuotiaita	-10.6937
yttää	-10.6938
ävä	-10.6944
▁tähtien	-10.6945
teitä	-10.6946
▁harrastus	-10.6947
mille	-10.695
▁kiinnosta	-10.6951
▁seurannut	-10.6952
▁seuraavat	-10.6953
▁astu	-10.6954
▁Ilman	-10.6954
▁ottelusta	-10.6954
▁Wilma	-10.6954
▁yhdisty	-10.6956
ittain	-10.6957
▁kas	-10.6959
▁hinnan	-10.696
▁+	-10.696
▁kolari	-10.6963
▁rangaistus	-10.6964
▁liiku	-10.6967
vissa	-10.6967
yhteisö	-10.6969
▁kuninkaallis	-10.6974
▁ajalla	-10.6978
▁Ruotsiin	-10.698
▁luokkaa	-10.698
kiele	-10.6983
▁aku	-10.6985
▁Sergei	-10.6985
▁asevoimien	-10.6985
▁Kolmanne	-10.6985
▁rikoskomisario	-10.6985
intään	-10.6985
lti	-10.6985
▁hanke	-10.6986
▁Kiitos	-10.6986
▁Tällaisi	-10.6986
▁Matias	-10.6987
▁ajatuksia	-10.6987
▁millaise	-10.6988
▁keskittyä	-10.6988
▁kiinnostunut	-10.699
▁yrittä	-10.699
▁ZUMA	-10.6993
▁minkäänlai	-10.6993
▁tuhansi	-10.6994
▁hallitseva	-10.6994
▁ystävänsä	-10.6995
▁United	-10.6997
hallin	-10.6998
▁riittävä	-10.6999
▁riskiä	-10.7
▁selvitys	-10.7005
▁turvallise	-10.7007
▁nu	-10.701
▁avun	-10.7011
▁Yorkissa	-10.7011
immillaan	-10.7017
▁kisat	-10.7017
▁työvoima	-10.7018
▁Lai	-10.702
▁keh	-10.702
▁2-0	-10.702
▁kaata	-10.7022
▁antamaan	-10.7024
▁26.	-10.7025
des	-10.7026
▁maailmalla	-10.7026
▁tavallaan	-10.7027
▁valvonta	-10.7028
museo	-10.7029
11.	-10.7031
uudeksi	-10.7031
▁Puolustusvoimie	-10.7032
mitta	-10.7033
summa	-10.7033
▁omistaa	-10.7034
turnauksessa	-10.7035
▁selväksi	-10.7036
▁Leppä	-10.7039
sha	-10.7039
▁tyly	-10.7042
▁Teo	-10.7049
▁Star	-10.705
▁millaista	-10.705
▁monelle	-10.705
▁kirjoittanut	-10.7051
▁havaittiin	-10.7051
▁esitetään	-10.7052
▁supertähti	-10.7053
▁suihku	-10.7053
jiin	-10.7054
hdan	-10.7056
▁kaupunkiin	-10.7057
▁Pikku	-10.7058
10.	-10.706
▁eron	-10.7062
▁nyrkkeily	-10.7066
▁edustajat	-10.7066
▁reilusti	-10.7072
bri	-10.7072
tsh	-10.7073
▁diagnoosi	-10.7074
▁2003	-10.7079
▁Minna	-10.7081
▁Simo	-10.7083
▁torjunta	-10.7085
▁tilanteissa	-10.7085
▁tulle	-10.7086
▁tiuk	-10.709
▁silta	-10.7091
kkaita	-10.7092
▁co	-10.7092
▁julkaistussa	-10.7093
▁kana	-10.7096
▁Oikeuden	-10.7098
koske	-10.7099
▁ennustaa	-10.7101
▁mittaise	-10.7104
▁Henkilö	-10.7105
mmissa	-10.7107
▁Vuori	-10.7108
▁Naisen	-10.7109
▁Charlesin	-10.711
▁Mc	-10.7111
kosken	-10.7114
▁miehensä	-10.7115
▁ehdollise	-10.7115
▁peräkkäin	-10.7115
▁Toimittaja	-10.7115
▁keskelle	-10.7115
▁yhtäkkiä	-10.7115
▁Halonen	-10.7115
▁pettymys	-10.7115
projekti	-10.7116
huollon	-10.7116
▁Pat	-10.7117
▁KalPa	-10.7117
▁muualle	-10.7118
▁Vance	-10.7119
▁kiittää	-10.7119
2023	-10.712
ban	-10.7122
▁myynnissä	-10.7125
▁syksy	-10.7126
ec	-10.7126
▁Mike	-10.7127
▁keskustelun	-10.7129
▁mielen	-10.7129
▁Pieni	-10.7129
2)	-10.7131
rak	-10.7131
ottelua	-10.7133
▁terveydenhuollo	-10.7134
▁määräsi	-10.7135
▁rikki	-10.7136
▁kuljettajan	-10.7136
▁suuret	-10.7137
maalla	-10.714
▁valu	-10.714
▁asettaa	-10.7141
pela	-10.7143
▁Kone	-10.7144
▁Lisää	-10.7145
▁Ze	-10.7146
▁Lap	-10.7147
▁kappaleen	-10.715
▁Wil	-10.715
teollisuuden	-10.7155
▁huomioida	-10.7155
▁tehtävään	-10.7157
▁synk	-10.7158
▁millaisia	-10.7162
▁välille	-10.7163
▁esittämä	-10.7164
paketti	-10.7165
sivuston	-10.7167
▁vastuuta	-10.7167
▁jarru	-10.7169
▁liito	-10.7172
▁tunnu	-10.7174
▁poistaa	-10.7179
mys	-10.7181
▁muistetaan	-10.7181
▁riemu	-10.7181
▁Tavio	-10.7183
▁heittää	-10.7184
▁mielellään	-10.7184
▁Kysely	-10.7185
▁kertoneet	-10.7185
▁kauhu	-10.7185
mark	-10.7186
▁jättä	-10.7186
kalta	-10.7186
▁hirvi	-10.7189
kesä	-10.7192
▁saatava	-10.7192
▁harmaa	-10.7202
▁Sir	-10.7203
▁päästään	-10.7203
aattori	-10.7205
▁korjata	-10.7206
▁pui	-10.721
▁vastaukse	-10.7212
▁lähetyksessä	-10.7219
▁kuvattu	-10.7229
▁Os	-10.7232
toimet	-10.7233
uudet	-10.7233
▁passi	-10.7233
▁uudelle	-10.7234
Matti	-10.7235
▁tunte	-10.7239
▁puhelu	-10.7241
llut	-10.7243
uudessa	-10.7245
osan	-10.7247
▁rehtori	-10.7247
▁vanhoja	-10.7247
▁muttei	-10.7247
▁sauno	-10.7248
▁kannattaja	-10.725
▁Camilla	-10.7253
▁Muu	-10.7253
▁lukemin	-10.7256
▁vasten	-10.726
Li	-10.726
▁Granlund	-10.7261
▁tuhoa	-10.7262
hm	-10.7262
▁Areena	-10.7264
▁Välillä	-10.7267
▁oireet	-10.7268
▁mahdollistaa	-10.7269
▁julkaise	-10.7271
▁sak	-10.7271
▁Yhden	-10.7274
ttaessa	-10.7277
55	-10.7278
▁Laki	-10.7283
▁selviä	-10.7284
yksestä	-10.7284
▁pop	-10.7289
lauta	-10.7291
▁Op	-10.7293
▁pronssi	-10.7294
▁kerrallaan	-10.7295
▁sankari	-10.7297
▁Hau	-10.7298
▁Elon	-10.7299
▁linjan	-10.7303
▁Purran	-10.7304
▁kiitos	-10.7307
▁elämästä	-10.7307
▁Gre	-10.7307
▁osallistumise	-10.731
▁pahoinpitely	-10.731
sch	-10.7312
▁Heiskanen	-10.7314
▁Kennedy	-10.7314
▁ylipäätään	-10.7314
▁sinua	-10.7314
▁sattuu	-10.7314
▁Kurskin	-10.7315
▁Salonen	-10.7315
▁oltu	-10.7315
▁peräisin	-10.7315
▁liigassa	-10.7317
▁Alue	-10.7321
▁pahoi	-10.7321
▁lauta	-10.7321
▁sijalle	-10.7323
▁tutkinnanjohtaj	-10.7325
▁valmiita	-10.733
neuvottelut	-10.7335
▁Emmi	-10.7335
▁Kaupunki	-10.7337
▁ohjelmaan	-10.7337
▁Villa	-10.7338
▁hakee	-10.7338
dal	-10.7339
kuri	-10.7344
▁merkittäviä	-10.7344
▁tukema	-10.7344
▁joukot	-10.7345
▁hallitusohjelma	-10.7346
▁Timesin	-10.7347
paikat	-10.7347
▁viikonloppu	-10.7348
▁Lotta	-10.7352
▁vankila	-10.7352
putki	-10.7353
▁yhteistä	-10.736
tuva	-10.7361
mun	-10.7362
▁artikkelissa	-10.7363
▁Ford	-10.7367
▁summaa	-10.7369
▁tyttäre	-10.7371
▁rallin	-10.7372
▁Gar	-10.7372
▁kehittämis	-10.7373
ü	-10.7374
▁pelaajaa	-10.7375
▁pitkällä	-10.7377
▁Colorado	-10.738
▁pilvi	-10.738
▁Puhakka	-10.7381
▁Valmentaja	-10.7381
▁Lahdessa	-10.7381
▁Varsinkin	-10.7381
▁sprintti	-10.7381
▁Lento	-10.7382
▁Sar	-10.7382
▁Tutkimus	-10.7382
▁tuovat	-10.7383
▁yleisradioyhtiö	-10.7383
▁Koira	-10.7384
▁kuohu	-10.7386
▁rauhallise	-10.7387
▁ihmettelee	-10.7388
▁muusikko	-10.7392
▁jatkamaan	-10.7393
▁miljoonalla	-10.7396
▁perheelle	-10.7397
koja	-10.7398
▁vaikutuksen	-10.7398
▁parhaaksi	-10.7399
▁levittä	-10.74
▁heikentää	-10.7403
▁Kansainvälisen	-10.7403
▁vihja	-10.7404
▁6-	-10.7405
▁tyyppi	-10.7407
sille	-10.7412
▁kääntyi	-10.7412
con	-10.7413
▁paina	-10.7413
▁juhlissa	-10.7416
▁tuhat	-10.7419
▁määri	-10.742
▁syys	-10.7425
▁kolmeen	-10.7425
ttomia	-10.7426
▁syty	-10.7427
▁vaikuttava	-10.7431
mitali	-10.7433
tyyppi	-10.7433
▁välisen	-10.7434
▁onnistuu	-10.7435
▁puhuttu	-10.7435
▁Kotimaa	-10.7437
▁ratkaisun	-10.7441
aihe	-10.7442
▁Pah	-10.7444
ajien	-10.7444
q	-10.7447
▁täyteen	-10.7447
▁Thomas	-10.7449
▁olympialaisiin	-10.7449
▁tällöin	-10.7449
▁Kaikkonen	-10.7449
Jo	-10.7449
▁riippumatta	-10.7449
▁myöntänyt	-10.745
▁medialle	-10.745
▁esittelee	-10.7451
▁Boston	-10.7452
▁unionin	-10.7452
▁ihmetteli	-10.7452
▁Tähti	-10.7453
otte	-10.7455
▁Nurmi	-10.7458
▁valokuva	-10.7458
▁kirkko	-10.7463
▁asunnosta	-10.7464
▁ratkaisuja	-10.7466
▁huolestuttava	-10.7466
teihin	-10.7467
▁tarjosi	-10.747
▁kuolleena	-10.747
▁remontti	-10.7473
▁pelottava	-10.7474
ity	-10.7475
▁oikean	-10.7477
▁uudistu	-10.7478
12	-10.748
▁kohdistunee	-10.748
tsu	-10.7481
halu	-10.7481
▁työntekijää	-10.7483
▁kielletty	-10.7484
ric	-10.7484
vir	-10.7487
▁Piene	-10.7488
▁keinoja	-10.7489
tulos	-10.7491
▁valiokunnan	-10.7492
toveri	-10.7494
▁Minulle	-10.7494
▁Press	-10.7496
▁keskiarvo	-10.7496
▁Mel	-10.7497
▁meistä	-10.7497
rekisteri	-10.7498
puolustaja	-10.7499
▁lavalle	-10.75
kkeen	-10.7504
▁Tan	-10.7505
▁maanantain	-10.7505
▁Air	-10.7508
uksi	-10.7508
28	-10.7512
▁Ek	-10.7515
▁oppia	-10.7516
▁Mercedes	-10.7517
▁vaikutukset	-10.7518
▁ajoittain	-10.7518
▁keula	-10.7519
▁tekisi	-10.7521
elo	-10.7522
▁todellise	-10.7522
▁parkki	-10.7525
idan	-10.7528
osaa	-10.7528
yl	-10.7529
▁leima	-10.7532
29	-10.7532
▁hyväksyä	-10.7532
tellaan	-10.7532
▁tuule	-10.7535
▁rakas	-10.7536
▁yritykset	-10.7542
▁rahoitta	-10.7545
teillä	-10.7546
17	-10.7548
▁Anderssonin	-10.7548
▁hallin	-10.755
▁lähtivät	-10.7551
▁huuto	-10.7552
▁juusto	-10.7552
▁kaunis	-10.7555
▁19-	-10.7555
▁käyttämä	-10.7558
▁heräsi	-10.7558
▁tasan	-10.7559
▁kissa	-10.756
▁pelo	-10.7563
valmistaja	-10.7564
▁tauko	-10.7566
▁uudella	-10.7567
▁Ras	-10.7568
▁osuu	-10.7569
▁ranskalais	-10.7569
▁Tapaukse	-10.757
zo	-10.7572
▁osuma	-10.7573
▁sisältöä	-10.7577
▁myydä	-10.7578
▁Hollywood	-10.7585
▁perustuslaki	-10.7585
▁tavanomaista	-10.7585
▁todellisuudessa	-10.7585
▁järjestettävä	-10.7585
▁annettiin	-10.7586
▁puutarha	-10.7586
▁Port	-10.7586
▁nopeammin	-10.7588
▁riippuu	-10.7588
▁Slovenia	-10.7592
▁järjestely	-10.7593
▁paljasta	-10.7594
lah	-10.7596
▁lukema	-10.7597
▁muutokset	-10.7601
▁2009	-10.7603
▁Tunne	-10.7606
▁pela	-10.7607
▁hermo	-10.7607
▁Turku	-10.7609
▁Aleksand	-10.761
▁järkyttävä	-10.761
▁kartano	-10.7611
▁terroristi	-10.7612
▁Williams	-10.7613
▁sotilaallise	-10.7615
ennuste	-10.7616
▁laitta	-10.7619
tteiden	-10.762
▁Kuul	-10.7621
▁oikeudenkäynni	-10.7621
Ei	-10.7623
isu	-10.7626
▁vihreä	-10.7628
▁osavaltiossa	-10.763
ohjelmaan	-10.7631
neenä	-10.7632
yhdistys	-10.7635
yrittäjä	-10.7638
▁kaapeli	-10.7639
valvoja	-10.7642
▁She	-10.7643
huo	-10.7646
selta	-10.7648
▁näkyvi	-10.765
▁viides	-10.7651
teistä	-10.7654
▁kansainvälinen	-10.7654
▁talvella	-10.7654
▁Tuntuu	-10.7654
vaihtoehdo	-10.7655
▁taposta	-10.7655
▁tuttuja	-10.7656
ikku	-10.7662
▁Tuisku	-10.7663
▁Isku	-10.7667
▁ajatteli	-10.7667
▁tapon	-10.7667
vaali	-10.7667
määrät	-10.7668
kampanja	-10.767
▁kesto	-10.7679
luokka	-10.7679
▁ympärille	-10.768
▁hevos	-10.768
▁runkosarja	-10.7684
▁energiaa	-10.7684
cha	-10.7685
▁osu	-10.7686
täessä	-10.7687
▁kolmesta	-10.7687
▁katastrofi	-10.769
▁31	-10.7695
▁todellakaan	-10.7696
▁riko	-10.7696
tutkimus	-10.7697
▁päivällä	-10.7697
▁Viranomaise	-10.7698
▁marja	-10.7701
▁vitsi	-10.7702
▁monin	-10.7702
käsittely	-10.7706
virhe	-10.7707
professori	-10.7707
alojen	-10.7707
▁kolmi	-10.7708
▁olosuhteissa	-10.7709
maajoukkueen	-10.7709
haku	-10.7713
▁poikaa	-10.7714
kohu	-10.7719
▁epäiltyä	-10.7719
▁28.	-10.7719
eillä	-10.7722
▁arvelee	-10.7724
▁Toronto	-10.7724
▁3-0	-10.7724
▁ottaen	-10.7724
▁Pelaaja	-10.7724
▁kertyi	-10.7724
▁Johannes	-10.7724
▁kolmatta	-10.7725
▁työllisyys	-10.7726
▁2,5	-10.7726
▁menettänyt	-10.7726
▁tyypillisesti	-10.7728
▁Gr	-10.7729
▁Vilpas	-10.7732
▁Vilppaan	-10.7732
▁haltuunsa	-10.7732
▁Olympia	-10.7734
▁metsi	-10.7735
lähtökohtaisesti	-10.7736
käynti	-10.7736
▁Espanjassa	-10.7736
▁62	-10.7741
▁pääkaupunki	-10.7742
▁kulunut	-10.7742
▁palon	-10.7745
▁järjest	-10.7745
kaasu	-10.7746
▁helikopteri	-10.775
▁vaaraa	-10.7759
▁kirjo	-10.7765
▁mistään	-10.7765
▁käyvät	-10.7765
▁Olet	-10.7769
ksella	-10.777
▁77	-10.7771
johtajan	-10.7771
▁kiinnostava	-10.7774
▁valkoise	-10.7775
▁kiinalais	-10.7775
tteri	-10.7776
suomalais	-10.7776
▁saapuivat	-10.7777
▁kokous	-10.7777
▁elokuvassa	-10.7777
viranomaiset	-10.7777
päätös	-10.778
▁Entä	-10.7784
▁näkemys	-10.7785
mestaruuden	-10.7787
▁toisena	-10.7788
lippu	-10.7788
taito	-10.7789
▁työt	-10.779
▁Kom	-10.7792
▁sairasta	-10.7793
▁People	-10.7794
▁Tavoitteena	-10.7794
▁pidempään	-10.7794
▁kaksikon	-10.7794
▁Kävi	-10.7794
▁Puolue	-10.7795
▁Älä	-10.7796
▁muodossa	-10.7796
Venäjän	-10.7796
▁äänesti	-10.7797
▁aamupäivällä	-10.7797
▁toisistaan	-10.7798
▁propaganda	-10.7801
▁Videolla	-10.7801
▁sur	-10.7802
ight	-10.7803
▁Volvo	-10.7804
▁asemassa	-10.7804
▁vastuussa	-10.7805
lehdessä	-10.7805
▁Lö	-10.7805
▁Joel	-10.7805
▁laskea	-10.7806
ksista	-10.7807
▁Tuu	-10.7808
▁40-	-10.7808
▁Robin	-10.781
▁ajattelee	-10.781
▁kohtasi	-10.7811
▁ruumiin	-10.7812
ystävä	-10.7813
▁vanki	-10.7815
Pohjanmaalla	-10.7816
▁Kati	-10.7816
dis	-10.7818
▁tulva	-10.7819
▁Ah	-10.7819
▁näyttäisi	-10.782
▁turvallisuutta	-10.7821
tämä	-10.7822
▁siivo	-10.7822
▁helpot	-10.7822
pah	-10.7826
▁poistui	-10.7827
▁asunnossa	-10.7827
▁vaaleja	-10.7828
▁Joku	-10.7828
▁kuluttaji	-10.783
uksensa	-10.783
▁merkin	-10.7831
▁yhteistyössä	-10.7834
lisä	-10.7835
▁w	-10.7837
▁baari	-10.7838
▁näkyvä	-10.7839
▁historia	-10.7842
▁harva	-10.7842
▁hallituksessa	-10.7843
▁pienet	-10.7844
ttavaksi	-10.7845
huolto	-10.7846
▁mallia	-10.7846
▁Hussi	-10.7849
laulu	-10.7855
▁hyppy	-10.7856
taulu	-10.7856
▁laula	-10.7856
rake	-10.7863
edustaja	-10.7864
▁sopeutu	-10.7864
▁laaj	-10.7864
▁Kinnunen	-10.7864
▁kansanedustaji	-10.7864
▁naimisissa	-10.7864
▁väitteitä	-10.7864
▁Yritys	-10.7864
▁Smith	-10.7864
▁selvinnyt	-10.7864
▁siirtynyt	-10.7864
▁onnettomuudessa	-10.7865
▁kuvitella	-10.7865
▁näihin	-10.7865
▁ilmapiiri	-10.7866
▁eduskuntaryhmä	-10.7866
▁musti	-10.7866
▁Mor	-10.7866
▁tarkkaa	-10.7868
▁kirje	-10.7868
▁Tapaus	-10.7869
▁kasa	-10.7869
kello	-10.787
▁Adam	-10.7871
▁Niemelä	-10.7872
▁tapahtunutta	-10.7872
▁hillit	-10.7877
▁neljänneksi	-10.7879
▁Tre	-10.7893
▁lintu	-10.7893
▁lähetys	-10.7899
To	-10.79
▁vajaat	-10.79
▁Pirkanmaan	-10.79
▁Tomi	-10.7901
▁paikasta	-10.7901
▁siirtä	-10.7901
▁seuraamaan	-10.7903
▁tup	-10.7903
▁antavat	-10.7904
kkaasti	-10.7913
palvelun	-10.7916
▁oululais	-10.7918
▁Tuore	-10.7919
lliseksi	-10.7922
moi	-10.7923
▁vaihtu	-10.7923
PA	-10.7927
▁kokemuksia	-10.7929
▁katoa	-10.793
▁lahjoit	-10.7931
▁Alle	-10.7931
uro	-10.7932
▁Ur	-10.7933
▁2-1	-10.7934
▁Artikkeli	-10.7935
▁Google	-10.7935
▁Yhdysvaltalais	-10.7935
▁juhannus	-10.7935
▁löydetty	-10.7935
▁1970-	-10.7935
▁lännen	-10.7936
▁sääntö	-10.7936
▁Ulko	-10.7937
▁Payne	-10.7937
▁kiitollinen	-10.7937
▁käyttävät	-10.7937
▁Nyky	-10.7938
▁kons	-10.7938
▁loput	-10.7942
▁suola	-10.7943
▁Maija	-10.7943
▁MVPhotos	-10.7945
▁suostunut	-10.7946
rvi	-10.7946
▁sekunnissa	-10.7947
▁alan	-10.795
▁eläkkeelle	-10.7951
▁Facebookissa	-10.7952
▁Panthers	-10.7953
▁kansalaisia	-10.7954
yden	-10.7954
▁tär	-10.7955
lautakunnan	-10.7956
13	-10.7957
▁syytteen	-10.7958
ilemaan	-10.7959
▁Sanni	-10.7961
La	-10.7961
▁nope	-10.7962
▁persoona	-10.7963
▁kokeilla	-10.7963
▁ulkoministeriön	-10.7964
▁Kesäkuu	-10.7964
gaalassa	-10.7964
▁Hö	-10.7967
▁kuntien	-10.7968
▁vieraa	-10.7968
era	-10.7968
▁live	-10.797
▁mielipide	-10.7972
▁kuo	-10.7973
▁syyttäjän	-10.7979
▁jatkoon	-10.7982
▁Asian	-10.7982
tyt	-10.7984
alisti	-10.7986
▁aiheuttavat	-10.7986
nneksi	-10.7986
▁yleisöä	-10.7988
▁lavalla	-10.799
▁Eduskunta	-10.7992
▁parhai	-10.7996
▁oo	-10.7998
▁toimet	-10.7999
sairaala	-10.8004
▁ihail	-10.8004
järvellä	-10.8006
▁Chicago	-10.8006
▁peräkkäis	-10.8007
▁nap	-10.8009
▁ammuttiin	-10.8009
26	-10.8009
▁mö	-10.8011
mpana	-10.8013
▁roska	-10.8013
▁lyhyen	-10.8017
▁nostettu	-10.8018
▁Pol	-10.802
▁väh	-10.8021
▁järjestetyssä	-10.8021
▁Tyson	-10.8021
3-	-10.8023
▁Niskasen	-10.8025
▁Madrid	-10.8025
alusta	-10.8026
▁lentopallo	-10.8027
varasto	-10.803
▁el	-10.803
▁temppu	-10.8032
▁kiito	-10.8033
▁Ruoka	-10.8035
▁muutoksen	-10.8035
▁komea	-10.8035
▁useimmi	-10.8037
▁Riku	-10.804
kyvy	-10.804
▁tauon	-10.8042
▁tehtäviä	-10.8046
▁ajattelu	-10.8048
▁via	-10.8051
▁Luke	-10.8052
▁KU	-10.8053
▁puheessaan	-10.8054
▁Lain	-10.8055
opettaja	-10.806
suojelu	-10.8062
▁Carl	-10.8063
hiihto	-10.8064
▁tuu	-10.8065
▁merkittävi	-10.8065
▁hauskaa	-10.8066
▁kestänee	-10.8066
▁päästö	-10.8066
▁hai	-10.8066
▁Fri	-10.8067
▁yhdeksä	-10.807
▁kädessä	-10.807
▁löytyvät	-10.8071
eille	-10.8073
▁nuorta	-10.8075
kustannuksi	-10.8076
▁Tällöin	-10.8078
▁Barcelona	-10.8078
▁edennyt	-10.8078
▁kieltäytyi	-10.8078
▁erikoinen	-10.8078
▁monessa	-10.8079
▁asteeseen	-10.8079
▁kiistänyt	-10.808
▁Leino	-10.808
▁lukea	-10.8082
▁Suominen	-10.8083
▁Tallinna	-10.8085
▁erilaiset	-10.8086
▁onnellinen	-10.8088
▁päiviä	-10.8088
gon	-10.8091
▁Reutersi	-10.8093
▁avioero	-10.8095
kanavan	-10.8097
▁liittyvää	-10.8098
▁tutkintaa	-10.8099
reille	-10.8099
▁litra	-10.8099
▁edellyttää	-10.8101
▁tasku	-10.8101
▁ryhmi	-10.8104
-16	-10.8105
▁Kaiki	-10.8106
joukko	-10.8107
▁Auton	-10.8108
▁myymälä	-10.8113
ds	-10.8114
teesta	-10.8114
▁Eurooppaan	-10.8116
▁23-	-10.8118
▁uuni	-10.8119
vahti	-10.8119
▁käyttäji	-10.8122
▁Harju	-10.8124
▁poliitikko	-10.8124
én	-10.8126
▁omiin	-10.8127
▁isot	-10.8128
taisi	-10.8131
ttamisesta	-10.8138
▁kuvi	-10.8143
▁tietoon	-10.8144
▁lausu	-10.8144
▁festivaali	-10.8146
kulut	-10.8146
▁toimeen	-10.815
▁valmiste	-10.815
▁Essayah	-10.8151
▁Hämäläinen	-10.8151
▁Viertola	-10.8151
▁Ryhmä	-10.8151
▁Helsingistä	-10.8151
▁Jarkko	-10.8152
▁Bull	-10.8152
▁vaaditaan	-10.8153
▁roolia	-10.8153
▁vakavi	-10.8157
▁lähtevät	-10.8161
Se	-10.8163
misessä	-10.8164
▁rakentaminen	-10.8165
ffi	-10.8165
▁hallitusta	-10.8166
maailma	-10.8167
▁käräjäoikeude	-10.8168
▁valtuusto	-10.8168
▁hirveästi	-10.817
yhteistyö	-10.817
pullo	-10.8173
rikos	-10.8173
▁kuvattiin	-10.8176
▁Kesällä	-10.8177
▁luokse	-10.8179
sota	-10.8179
▁valmistui	-10.818
kertainen	-10.8184
▁palkat	-10.8184
▁paksu	-10.8188
neille	-10.8189
isyyttä	-10.8191
vio	-10.8196
▁ääneen	-10.8196
▁leveä	-10.8199
▁tori	-10.8199
▁asenne	-10.82
isempi	-10.82
off	-10.8204
mästä	-10.8207
logi	-10.8209
Ko	-10.8211
▁pudotta	-10.8211
myynti	-10.8212
▁Mur	-10.8212
▁kauhea	-10.8213
ffe	-10.8218
▁27,	-10.8221
llisuuden	-10.8222
isuudesta	-10.8223
▁auringon	-10.8223
vuotiaat	-10.8224
▁johtui	-10.8224
▁perussuomalaisi	-10.8224
▁Kuusamo	-10.8224
▁johdosta	-10.8224
▁läsnäolo	-10.8225
▁käden	-10.8225
▁kannattava	-10.8225
▁64	-10.8226
▁sähköposti	-10.8228
tumista	-10.8229
▁kasvattaa	-10.823
+2	-10.8231
▁Niistä	-10.8241
▁60-	-10.8245
▁puku	-10.8245
▁vastustajan	-10.8246
oitus	-10.8246
▁paremma	-10.8246
▁Audi	-10.825
▁vuorokauden	-10.8251
▁Portugali	-10.8252
▁arjen	-10.8253
toon	-10.8259
▁tulleen	-10.826
cin	-10.8261
ongelma	-10.8265
▁keskiviikko	-10.827
▁kolmannessa	-10.827
▁kustannukset	-10.8271
▁lipun	-10.8272
▁Simon	-10.8274
▁2017.	-10.8276
▁pelaamise	-10.828
▁Ros	-10.8281
yksistä	-10.8284
iitti	-10.8285
tilaisuuden	-10.8286
▁tuntua	-10.8286
▁jatkuva	-10.8288
▁kohtaavat	-10.829
▁tunnistaa	-10.829
vapaa	-10.8291
▁Nuoret	-10.8297
@	-10.8297
▁liikkeellä	-10.8297
▁sähköpostitse	-10.8297
▁Ajattelin	-10.8297
▁hävinnyt	-10.8297
▁anti	-10.8298
▁pysynyt	-10.8302
juna	-10.8303
▁pidety	-10.8303
▁valitettavasti	-10.8304
▁para	-10.8305
▁pime	-10.8305
▁kiinnostaa	-10.8305
▁päätoimittaja	-10.8306
▁muodostu	-10.8306
▁katsomassa	-10.8307
▁Konsta	-10.8312
▁tuota	-10.8312
▁alkuvuodesta	-10.8315
▁riippuen	-10.8318
▁tarkoita	-10.8318
▁lataa	-10.8319
▁putki	-10.832
▁viimeisellä	-10.8321
solu	-10.8324
▁verkkoon	-10.8327
keskuksessa	-10.8327
▁esitystä	-10.8327
▁lainsäädäntö	-10.8329
▁lip	-10.833
▁malt	-10.833
▁taloutta	-10.833
matonta	-10.8336
▁Aku	-10.8338
opisto	-10.8338
▁tietoinen	-10.8338
▁hankkia	-10.8341
▁tiukka	-10.8342
▁saldo	-10.8345
▁cha	-10.8346
▁vapaan	-10.8348
vaimo	-10.8349
▁vit	-10.8354
ehdokkai	-10.8354
dit	-10.8355
▁suun	-10.8357
▁rohkea	-10.8361
▁Telegram	-10.8362
järjestely	-10.8362
rakennukse	-10.8366
▁äärioikeisto	-10.8367
▁Räsänen	-10.8371
▁mieluummin	-10.8371
▁oudo	-10.8372
mmiksi	-10.8372
▁poissaolo	-10.8372
▁alkupuolella	-10.8373
▁ilmenee	-10.8374
▁Stora	-10.8375
▁Italiassa	-10.8376
▁Iivo	-10.8376
▁mallin	-10.8376
▁Sala	-10.8377
impia	-10.8377
▁toisinaan	-10.8381
politiikka	-10.8383
torni	-10.8383
▁Kotka	-10.8383
▁henkeä	-10.8388
▁seurue	-10.8389
vallan	-10.8391
pommi	-10.8392
▁juttuja	-10.8393
▁Hamilton	-10.8393
isistä	-10.8394
▁ministeriö	-10.8396
▁seka	-10.8397
toimia	-10.8399
▁Bur	-10.8399
▁sivuun	-10.8399
▁vakuutti	-10.8401
ellin	-10.8404
▁entise	-10.8407
▁havainto	-10.8408
nnissa	-10.841
▁näkyvät	-10.841
neistä	-10.8414
05	-10.8416
▁pelejä	-10.843
▁metsästä	-10.843
▁potku	-10.8431
▁samoi	-10.8436
▁82	-10.8438
▁Viisi	-10.8441
▁ohjaa	-10.8442
▁yleistä	-10.8446
▁rakente	-10.8446
▁myöten	-10.8446
▁intohimo	-10.8446
▁Veitola	-10.8446
▁operoi	-10.8446
▁hyökkäyssodan	-10.8446
▁2-3	-10.8447
▁olympiavoittaja	-10.8447
▁säätä	-10.8447
▁Jarmo	-10.8448
▁paloi	-10.8449
▁rikkoi	-10.8449
▁runsas	-10.845
▁syitä	-10.8453
▁Sieltä	-10.8453
▁pohjoisessa	-10.8453
johtoon	-10.8455
▁varo	-10.8455
▁Odo	-10.8455
▁artikkeli	-10.8457
tiedustelu	-10.8458
▁odotettu	-10.8458
▁alueiden	-10.8459
▁lempi	-10.8459
▁nostanut	-10.8459
▁vaarassa	-10.846
tilanteesta	-10.846
▁velka	-10.8461
▁Ö	-10.8463
▁potkut	-10.8465
▁sukulais	-10.8465
Po	-10.8465
▁mittaa	-10.8468
▁käyntiin	-10.8468
▁allekirjoit	-10.847
mainen	-10.8472
▁puhetta	-10.8473
▁raskaa	-10.8474
▁kansainvälistä	-10.8476
▁toisten	-10.848
▁etsiä	-10.848
▁huolestu	-10.8482
kanavalla	-10.8482
▁pysähty	-10.8483
laat	-10.8484
nnat	-10.8484
▁hallussa	-10.8484
▁Seudu	-10.8486
▁kie	-10.8486
▁10-	-10.8488
▁nosto	-10.8488
▁Vie	-10.8492
vaalit	-10.8493
▁hil	-10.8495
▁kysyä	-10.8497
▁5-	-10.8499
▁käytävä	-10.8499
▁Es	-10.8502
teatteri	-10.8505
12.	-10.8506
▁maista	-10.8506
meren	-10.8508
ahtaa	-10.8508
▁ruuhka	-10.8508
kallio	-10.8511
▁uhriksi	-10.8516
isestä	-10.8517
▁Eräs	-10.8518
▁siisti	-10.8519
▁Oikea	-10.8519
е	-10.8521
▁Adlercreutz	-10.8521
▁Youtube	-10.8521
▁miehistä	-10.8521
▁Meksiko	-10.8522
▁Bal	-10.8525
▁helpottaa	-10.8526
▁merkkejä	-10.8527
▁käsittelee	-10.8528
▁menneet	-10.8529
stelee	-10.853
▁puhelimen	-10.8532
▁mahdollisesta	-10.8532
▁tältä	-10.8533
historian	-10.8535
▁kotimaan	-10.8536
▁levisi	-10.8536
▁uhria	-10.8538
▁rintama	-10.8539
▁rekisteri	-10.8542
visa	-10.8542
▁Aaltonen	-10.8544
▁perhettä	-10.8545
oh	-10.8547
▁(19	-10.8549
▁nimessä	-10.855
verkosto	-10.855
▁laite	-10.8551
▁Olympiakomitean	-10.8551
▁Halli	-10.8552
vart	-10.8554
▁tarkist	-10.8556
▁perustaja	-10.8557
▁tehta	-10.8557
▁asuvat	-10.8558
▁rake	-10.8558
▁tuolla	-10.8562
ui	-10.8564
amo	-10.8566
▁siirtolais	-10.8566
▁merkittävää	-10.8567
▁viimeisenä	-10.8569
kokemukse	-10.8569
▁Soini	-10.8569
▁tietokone	-10.8573
yhtyeen	-10.8574
▁erikoise	-10.8575
▁kolmos	-10.8578
▁4-	-10.8578
olle	-10.858
▁pienemmä	-10.8582
▁sijasta	-10.8587
▁säilyttä	-10.859
▁palautta	-10.8591
▁sisälle	-10.8591
jin	-10.8591
▁alkuperäise	-10.8593
▁eroja	-10.8596
▁mikro	-10.8596
▁videolta	-10.8596
▁hyppäsi	-10.8597
▁ryhtyi	-10.8597
▁1999	-10.8597
▁mahtuu	-10.8597
▁Kuinka	-10.8597
▁Itävallan	-10.8598
puiston	-10.8599
▁Saudi	-10.8599
▁Olga	-10.86
emmä	-10.8601
▁asiakkaiden	-10.8601
▁Tim	-10.8601
▁kisoihin	-10.8603
tuotteita	-10.8607
▁hotellin	-10.8607
lähtö	-10.8609
▁Joni	-10.8609
komitea	-10.8611
▁maailmancup	-10.8612
kilpailuissa	-10.8612
▁korjaa	-10.8614
▁Keske	-10.8614
▁tah	-10.8615
maalin	-10.8616
▁vienyt	-10.8619
lähde	-10.8622
▁laituri	-10.8622
▁Heistä	-10.8623
▁aikoja	-10.8627
▁sovellu	-10.8627
palkinnon	-10.8629
31	-10.863
ew	-10.8631
▁pariin	-10.8631
▁tilassa	-10.8631
▁säilyttää	-10.8632
▁Hovi	-10.8633
▁infrastruktuuri	-10.8634
▁Israelia	-10.8636
▁johonkin	-10.8637
▁julkaisun	-10.8638
vassa	-10.8639
▁myyty	-10.8639
sonin	-10.8639
▁matkaan	-10.864
puku	-10.8645
turnauksen	-10.8646
▁herk	-10.8648
▁manageri	-10.8651
▁haasta	-10.8652
uun	-10.8652
▁kunniaksi	-10.8657
päin	-10.8658
▁kumo	-10.8662
▁tulkit	-10.8662
▁hiihtäjä	-10.8662
▁Pyy	-10.8663
Espoo	-10.8664
▁Kaivo	-10.8664
▁kriittise	-10.8665
▁ajattelin	-10.8666
▁tehtävän	-10.8669
kyl	-10.867
▁kaudesta	-10.8672
▁Korkea	-10.8672
▁vaalea	-10.8673
▁kaikessa	-10.8673
▁ajettu	-10.8674
▁valtiovierailu	-10.8674
▁hautajais	-10.8676
▁asiakkaat	-10.8677
▁vastustaji	-10.8679
▁päiväkoti	-10.8679
▁Jutu	-10.8679
jään	-10.868
▁pidätettiin	-10.8681
▁kirjattu	-10.8682
▁kyseenalaista	-10.8683
▁kauppaa	-10.8683
▁aikuisten	-10.8686
▁sopivat	-10.8687
▁Gran	-10.8688
harju	-10.8692
▁seksiä	-10.8692
▁Jokaise	-10.8693
▁väsy	-10.8694
▁Henna	-10.8694
▁useaan	-10.8695
▁nimeltään	-10.8696
▁Vornasen	-10.87
▁odottamaan	-10.8701
▁start	-10.8704
▁Tei	-10.8704
lim	-10.8706
▁nautti	-10.8706
▁Turva	-10.8708
yydestä	-10.8709
▁vääri	-10.871
▁teen	-10.8713
▁asiakkaille	-10.8713
tänyt	-10.8713
▁tuossa	-10.8714
palkka	-10.8714
Karjalan	-10.8716
▁saatetaan	-10.8716
▁katsojaa	-10.8717
▁annos	-10.8722
▁huumausaine	-10.8723
ovi	-10.8724
tyneet	-10.8729
▁opinto	-10.8732
▁poliisia	-10.8736
▁Elo	-10.8738
tetun	-10.8742
▁avain	-10.8742
▁Koski	-10.8744
▁elävä	-10.8748
▁mietin	-10.8748
▁Tulo	-10.8749
▁Joukkueen	-10.8749
▁Pallo	-10.875
▁Minnesota	-10.875
▁Pohjola	-10.875
▁tallentui	-10.875
▁Tähkä	-10.875
▁yksityiskohtia	-10.8751
▁Uutistoimisto	-10.8751
▁53	-10.8751
▁TTK	-10.8752
▁varautua	-10.8752
▁esittänyt	-10.8753
▁innostu	-10.8754
▁puuttua	-10.8755
▁Asunto	-10.8755
▁hedelmä	-10.8757
▁1-2	-10.8759
▁nimensä	-10.876
▁kuolemaa	-10.8761
▁Ag	-10.8761
▁Järjestö	-10.8762
▁moneen	-10.8763
ikat	-10.8764
▁tulokse	-10.8765
▁taulu	-10.8766
▁sanoja	-10.8767
▁tapahtumapaika	-10.8769
▁Viimeksi	-10.8769
▁tarvittava	-10.8769
pesu	-10.8769
▁loppuu	-10.877
▁seiso	-10.8773
▁Ensimmäise	-10.8773
paine	-10.8776
▁vastustaa	-10.8776
▁Tau	-10.8777
▁instituutin	-10.8777
▁menestystä	-10.8777
▁Finnairin	-10.8779
time	-10.878
▁Viro	-10.8786
▁Australian	-10.8786
▁yksittäise	-10.8786
lie	-10.8789
▁toimittajan	-10.879
▁joitain	-10.879
ktio	-10.8799
kista	-10.88
▁vaihtoi	-10.8802
miestä	-10.8807
▁valmistettu	-10.8808
▁Sim	-10.8809
kysely	-10.8809
sp	-10.8812
▁lukuisi	-10.8812
▁Wall	-10.8812
▁johdon	-10.8815
mielise	-10.8815
▁laittoma	-10.8817
wan	-10.8817
▁72	-10.8818
▁Australia	-10.8819
hdys	-10.8819
▁ravinto	-10.8819
ilmiö	-10.8819
▁syntymä	-10.8819
säätiö	-10.882
▁vankeutta	-10.8828
▁Ravintola	-10.8828
▁Ongelma	-10.8828
▁Palvelu	-10.8828
▁päättynyt	-10.883
▁pelko	-10.883
▁pyrkinyt	-10.8831
▁lähtemään	-10.8832
▁kannattaisi	-10.8833
kri	-10.8834
valinta	-10.8836
▁Race	-10.8837
▁heng	-10.8838
▁Can	-10.8839
▁jäseniä	-10.884
▁edustanut	-10.8841
▁huolehti	-10.8842
line	-10.8846
▁kärsii	-10.8846
▁saira	-10.8852
▁poliisit	-10.8853
▁liittyvän	-10.8854
▁osavaltio	-10.8854
▁osaamista	-10.8854
ttelemaan	-10.8856
merkit	-10.8859
▁talvena	-10.8859
tilojen	-10.886
▁Kaikkiaan	-10.886
mmistä	-10.8861
▁panos	-10.8862
▁lausunnossaan	-10.8863
▁kasvava	-10.8867
▁vauhti	-10.8869
▁puhemies	-10.887
▁Kanna	-10.887
▁kultaa	-10.887
▁Luu	-10.8872
▁kukka	-10.8873
tavia	-10.8874
▁kesää	-10.8874
▁korti	-10.8875
▁Tampere	-10.8875
▁parhaa	-10.8878
▁kr	-10.8879
▁lähteiden	-10.8881
rio	-10.8882
▁voimakas	-10.8882
▁olevasta	-10.8884
tuneita	-10.8886
▁Neuvostoliiton	-10.8887
▁Heillä	-10.8889
▁Zelenskyin	-10.889
▁Q	-10.8891
▁hoitoa	-10.8893
▁hämmästy	-10.8894
▁ollee	-10.8894
ttäminen	-10.8897
Ä	-10.8897
kseksi	-10.8899
vaurio	-10.8899
nousu	-10.89
▁kirkon	-10.8903
▁kyseinen	-10.8905
▁hyvinvoinnin	-10.8906
Amerikassa	-10.8906
▁Tiedän	-10.8906
▁kipeä	-10.8906
▁Kolmas	-10.8906
▁välityksellä	-10.8906
▁kuntosali	-10.8906
▁viihde	-10.8907
▁uutuus	-10.8907
▁tiukasti	-10.8907
▁tapauksissa	-10.8908
▁Linna	-10.8909
▁kohdistuu	-10.891
▁täydellinen	-10.891
▁Jouko	-10.8911
▁sinänsä	-10.8911
▁säästöjä	-10.8914
▁metsästys	-10.8917
▁tärkeintä	-10.892
▁Harryn	-10.892
▁Pla	-10.892
maista	-10.8921
47	-10.8922
▁Latvian	-10.8924
▁tuoksu	-10.8924
▁epävarma	-10.8925
kur	-10.8925
▁sanotusti	-10.8926
▁67	-10.8927
▁kysymyksen	-10.8927
▁lähdössä	-10.8927
▁irtisano	-10.8929
▁kentälle	-10.893
▁jakson	-10.893
▁kansalaisten	-10.8931
▁Lapset	-10.8933
▁mittaan	-10.8934
▁nimet	-10.8935
▁tunnetuksi	-10.8938
uutensa	-10.8941
▁palkkaa	-10.8944
▁oikeuteen	-10.8945
yhdiste	-10.8945
▁vuosikymmenen	-10.8946
▁vieläkään	-10.8953
▁kävivät	-10.8955
▁poiki	-10.8955
▁Sports	-10.8957
▁27.	-10.896
▁salolais	-10.896
▁Putinia	-10.8962
br	-10.8962
ssin	-10.8964
▁toivoi	-10.8965
▁joudutti	-10.8967
▁rauhaa	-10.8968
▁61	-10.8968
kokous	-10.897
▁käveli	-10.8971
▁etelässä	-10.8972
▁pääty	-10.8972
yksikkö	-10.8975
▁taloon	-10.8976
lähtee	-10.8977
▁runkosarjan	-10.8977
kamera	-10.8978
▁avusta	-10.8979
▁seitsemä	-10.898
í	-10.8985
▁globaali	-10.8985
▁Hollannin	-10.8985
▁auttoi	-10.8985
▁diesel	-10.8985
▁hiekka	-10.8985
▁Golf	-10.8985
▁hiljaise	-10.8985
▁vastaaja	-10.8985
▁puuttui	-10.8985
▁leikkauksia	-10.8986
▁up	-10.8986
▁haastatteli	-10.8986
▁avoimi	-10.8986
▁Norris	-10.8986
▁Lähteet	-10.8987
▁kortti	-10.8988
▁etsii	-10.8989
▁jäsentä	-10.899
▁jättämään	-10.8992
▁varus	-10.8992
▁palvelun	-10.8992
▁kutsutaan	-10.8992
▁tekeminen	-10.8993
▁pukeutunut	-10.8994
▁säästä	-10.8994
▁hälytys	-10.8997
▁aloittee	-10.8997
▁Näiden	-10.8998
pello	-10.8999
tuja	-10.8999
▁rauhallisesti	-10.8999
▁Paula	-10.9003
▁matkustaa	-10.9004
▁erosi	-10.9005
▁kuumi	-10.9005
▁sotilaita	-10.9007
dun	-10.9007
▁apulais	-10.9008
▁jänni	-10.9008
▁miljardi	-10.9009
▁löyty	-10.901
▁palatsi	-10.9011
perin	-10.9011
rajan	-10.9012
ikon	-10.9013
▁panosta	-10.9018
mie	-10.9021
▁tavata	-10.9023
arin	-10.9024
▁Kanta	-10.9024
▁ilmastonmuuto	-10.9024
▁sanoma	-10.9024
▁perusti	-10.9025
▁sopimusta	-10.9026
dd	-10.9026
▁Pri	-10.9029
▁63	-10.903
asunto	-10.903
▁yhdistelmä	-10.903
▁66	-10.9033
▁tiloissa	-10.9037
▁asukas	-10.9041
▁joukkueeseen	-10.9042
▁kuorma	-10.9043
▁pelatu	-10.9046
vaikuttaja	-10.9048
▁taito	-10.9052
▁painava	-10.9052
▁muusta	-10.9052
▁linna	-10.9054
▁Esko	-10.9056
▁aiheutta	-10.9057
▁kuulostaa	-10.9057
▁Miami	-10.9058
▁hauda	-10.9058
koneen	-10.906
▁Richard	-10.9062
▁rankka	-10.9064
▁Ahvenanmaa	-10.9064
▁Niklas	-10.9064
▁Kapanen	-10.9064
▁surkea	-10.9065
▁Aino	-10.9065
▁päättynee	-10.9065
▁Tulos	-10.9065
▁lakot	-10.9065
▁Viestin	-10.9066
kro	-10.9067
joukkojen	-10.9071
▁Tilantee	-10.9071
▁VR	-10.9073
▁Sil	-10.9075
▁Lontoossa	-10.9077
▁alueita	-10.9077
▁tekemän	-10.9078
▁as	-10.9082
ydy	-10.9085
▁25.	-10.9088
stre	-10.909
▁ohjaus	-10.909
▁saattanut	-10.909
▁Grand	-10.909
▁joutuivat	-10.9092
kkoja	-10.9093
▁jäällä	-10.9095
▁Yhde	-10.9101
▁luokan	-10.9103
ira	-10.9104
▁polve	-10.9107
▁kaudelle	-10.9107
▁katsomo	-10.911
▁Jutta	-10.9111
ttaneen	-10.9112
▁risti	-10.9113
▁24.	-10.9114
▁autot	-10.9115
▁ihon	-10.9115
yksinkertaisesti	-10.9115
vaihdo	-10.9121
▁Gra	-10.9126
▁Vaasan	-10.913
▁Ehdo	-10.9132
▁Jopa	-10.9134
▁arviointi	-10.9134
▁suunnitellut	-10.9135
sistä	-10.9137
lautakunta	-10.9139
▁tallin	-10.9139
näyttely	-10.9139
▁Puoli	-10.914
▁kolmessa	-10.9143
autojen	-10.9143
▁suhtautuu	-10.9144
▁Ogier	-10.9144
▁Itämeren	-10.9144
▁muokattu	-10.9144
▁väitetään	-10.9145
▁kenenkään	-10.9145
tussa	-10.9147
▁miettimään	-10.9147
▁useammin	-10.9147
▁valmennukse	-10.9147
▁tarttu	-10.9148
▁suunnittelee	-10.9148
▁74	-10.9149
▁pintaan	-10.9153
▁tytö	-10.9157
▁Kauden	-10.9157
▁King	-10.9158
▁oikeisto	-10.9159
▁teknise	-10.9159
▁käytettiin	-10.916
▁tulot	-10.916
▁arvioivat	-10.9161
▁Kemin	-10.9161
▁pitki	-10.9166
▁Mac	-10.9166
▁Pelastuslaitoks	-10.9167
kylä	-10.9167
▁Dar	-10.9168
▁varuste	-10.9168
▁suin	-10.917
▁pystyisi	-10.9171
▁kohdista	-10.9172
▁Yorkin	-10.9175
▁Tarja	-10.9176
▁kattava	-10.9177
▁mittava	-10.9179
▁sali	-10.9181
▁murska	-10.9181
▁and	-10.9184
▁puh	-10.9184
rahaa	-10.9185
▁toivoa	-10.9187
▁lausunnossa	-10.9187
▁pörssi	-10.9188
pako	-10.9188
▁kestävä	-10.919
muod	-10.9191
▁Kas	-10.9192
▁avajais	-10.9192
▁järjestön	-10.9193
▁avustus	-10.9193
ihmis	-10.9194
▁vis	-10.9195
vissä	-10.9196
▁hintaa	-10.9206
▁tarjoava	-10.9208
▁väliä	-10.9209
▁Kimi	-10.9211
äjä	-10.9211
sar	-10.9214
▁turma	-10.9215
▁kilpailua	-10.9218
merkkejä	-10.9219
▁jaettu	-10.9223
▁mielipiteitä	-10.9225
▁hylkäsi	-10.9225
▁turnaus	-10.9226
▁ABC	-10.9226
▁vappu	-10.9226
▁teos	-10.9228
▁Rauta	-10.9233
▁lopetta	-10.9234
▁kärkeen	-10.9236
kul	-10.9236
▁terveyden	-10.9236
loo	-10.9239
▁Nordmo	-10.924
▁paketti	-10.9241
▁Moskovassa	-10.9241
▁ajautui	-10.9242
▁Mänty	-10.9242
rahasto	-10.9244
▁Ruo	-10.9248
▁Keskustan	-10.9248
▁tutkimuksessa	-10.9249
▁ravintolan	-10.9251
▁Schumacher	-10.9253
▁virtaa	-10.9255
▁soti	-10.9255
ippu	-10.926
▁lapsista	-10.9261
▁huvi	-10.9264
▁SSS	-10.9269
kuntien	-10.927
haastattelussa	-10.927
▁ukkos	-10.9271
back	-10.9272
▁palkkio	-10.928
▁Tuleva	-10.9284
▁voittanee	-10.9284
▁haastaa	-10.9285
▁kentän	-10.929
▁Valtio	-10.9292
urheilun	-10.9294
▁Tuomari	-10.9297
kylän	-10.9297
▁ranka	-10.9299
menettely	-10.9299
vierailu	-10.93
▁liikennettä	-10.9301
palkinto	-10.9302
▁Matthew	-10.9306
▁kommentit	-10.9306
▁kuultiin	-10.9306
▁1994	-10.9306
▁lämpimi	-10.9306
▁Alkoholi	-10.9306
▁maaleja	-10.9307
paketin	-10.9307
▁laajalti	-10.9307
▁maastopalo	-10.9307
▁raportin	-10.9307
▁päältä	-10.9308
▁vaarallinen	-10.9311
▁lähdetään	-10.9311
alin	-10.9312
▁Lundell	-10.9312
▁Andrew	-10.9312
▁Suure	-10.9314
▁Kro	-10.9314
▁kuvio	-10.9315
rov	-10.9316
▁osapuole	-10.9316
▁huijaus	-10.9318
▁satu	-10.9319
▁Rooman	-10.932
▁ristiriita	-10.932
▁osapuoli	-10.9322
▁tilaisuudessa	-10.9323
▁OP	-10.9323
empää	-10.9324
▁poliittista	-10.9325
▁elämäänsä	-10.9327
▁Syn	-10.9327
▁teollisuus	-10.9327
▁nenä	-10.9328
▁data	-10.9331
▁ly	-10.9332
▁päivityksen	-10.9333
▁seurakunnan	-10.9333
Assadin	-10.9334
valmi	-10.9335
▁Tosi	-10.9335
▁tehtävää	-10.9338
▁siir	-10.934
TV	-10.9342
▁Vali	-10.9343
järjestöjen	-10.9343
▁korvauksia	-10.9344
puolen	-10.9347
▁sanoen	-10.9351
▁aluetta	-10.9352
hyökkäys	-10.9353
▁kuuluvan	-10.9355
▁rahoitusta	-10.9355
▁vastaamaan	-10.9359
mmalla	-10.9361
mir	-10.9361
▁Rita	-10.9361
Venäjä	-10.9362
▁poltta	-10.9364
▁yliopistossa	-10.9365
▁sisällö	-10.9365
▁taloudellise	-10.9367
▁koru	-10.9369
▁jollain	-10.937
isillä	-10.937
ttämisestä	-10.9375
mmät	-10.9376
ksemme	-10.9379
▁elo	-10.9381
▁mut	-10.9381
▁tul	-10.9382
stein	-10.9382
organisaatio	-10.9384
nopeus	-10.9384
fl	-10.9386
▁Valkea	-10.9386
а	-10.9388
▁Tshekki	-10.9388
▁Tuppurainen	-10.9388
▁putkeen	-10.9388
▁Libanonissa	-10.9388
▁hetkessä	-10.9388
▁sijainti	-10.9388
▁Lisätty	-10.9389
vaunu	-10.9389
▁lämmin	-10.9389
▁tuntunut	-10.9391
▁Eeva	-10.9393
kkuus	-10.9393
käyttöön	-10.9395
▁korvaus	-10.9395
▁poista	-10.9395
▁muisteli	-10.9396
▁nukkumaan	-10.9398
▁Pelicansin	-10.9399
▁Farmi	-10.94
eläin	-10.9402
▁itselleni	-10.9402
▁korosta	-10.9403
▁Usko	-10.9403
ow	-10.9403
▁häviä	-10.9404
mansa	-10.9404
▁Yhdessä	-10.9405
aamu	-10.9409
▁esine	-10.9411
▁Stubbia	-10.9412
▁Huu	-10.9412
▁Pyhä	-10.9412
▁taisteli	-10.9413
▁voittomaali	-10.9413
murha	-10.9414
▁nousua	-10.9416
▁täyttävä	-10.9417
rada	-10.9417
kusta	-10.9421
▁lihas	-10.9422
▁korkeamma	-10.9422
▁tilanteita	-10.9422
▁pätkä	-10.9426
▁näkymä	-10.9427
ehdokkaaksi	-10.9428
▁Nina	-10.9431
▁lika	-10.9433
▁Fe	-10.9436
▁huud	-10.9436
▁be	-10.9437
▁tapauksia	-10.9438
vala	-10.9439
vaaran	-10.9439
mpänä	-10.944
kaus	-10.9442
▁laskettu	-10.9444
vier	-10.9445
▁jaetaan	-10.9445
▁laih	-10.9447
▁päävalmentajana	-10.9448
▁Mah	-10.9448
▁runkosarjassa	-10.9449
sport	-10.9449
▁68	-10.9449
▁sallittu	-10.9451
▁Ole	-10.9451
▁näkyä	-10.9452
▁kilo	-10.9453
▁järjestety	-10.9454
päällikön	-10.9455
▁epäonnistu	-10.9456
▁Talvi	-10.9458
gren	-10.9458
▁Britanniassa	-10.946
muksen	-10.946
▁ilmassa	-10.9463
paikkojen	-10.9464
▁harvinaisen	-10.9464
potku	-10.9466
pyyntö	-10.9467
teksti	-10.9467
▁tyhj	-10.9468
▁uhrien	-10.947
▁kahvila	-10.947
▁internet	-10.947
▁maksetaan	-10.947
▁positiivinen	-10.947
▁Neuville	-10.947
▁Peskov	-10.9471
▁ilmoitettu	-10.9471
▁karmea	-10.9471
▁Jakso	-10.9471
▁for	-10.9472
ez	-10.9473
▁keskeytti	-10.9473
▁ajokeli	-10.9473
▁parisuhde	-10.9475
▁kaikkiin	-10.9475
▁saavuttaa	-10.9475
ohjaaja	-10.9476
▁Tänak	-10.9479
▁senttimetriä	-10.948
luke	-10.948
▁juhlista	-10.9481
▁lennokki	-10.9481
eme	-10.9483
▁puolustuksen	-10.9483
▁jakautu	-10.9487
▁sohva	-10.9487
▁uimahalli	-10.9489
tapaus	-10.9489
▁76	-10.949
ttamalla	-10.9493
▁kääntää	-10.9493
ttuna	-10.9494
jilla	-10.9495
▁sateet	-10.9497
▁Euroviisuj	-10.9498
▁vihreät	-10.9499
▁Pel	-10.95
▁Rangers	-10.9501
▁itseni	-10.9502
▁Suora	-10.9503
▁kohtaamis	-10.9504
▁suurlähetystö	-10.9505
▁urheilijoiden	-10.9507
▁alkuperä	-10.9508
radan	-10.951
tutkinto	-10.9511
▁Perä	-10.9514
75-	-10.9514
▁kuljettaji	-10.9517
▁kierrokselle	-10.9517
mpo	-10.9518
▁tieltä	-10.9518
▁asiantuntijat	-10.9519
▁kohun	-10.9522
▁Moottori	-10.9522
▁hankinta	-10.9525
▁Virossa	-10.9526
▁iskeä	-10.9532
▁turvapaikka	-10.9532
ihinsa	-10.9534
▁toissa	-10.9535
▁69	-10.9536
jev	-10.9536
▁keskeisi	-10.9537
▁81	-10.9538
potti	-10.9539
▁autoilija	-10.9539
▁merkit	-10.9547
▁sakko	-10.9547
kohtei	-10.9549
tuomari	-10.955
Ki	-10.955
▁työhön	-10.9551
viikko	-10.9551
▁pelaavat	-10.9551
▁HPK	-10.9554
▁Juontaja	-10.9554
▁Ruotsalainen	-10.9554
▁entuudestaan	-10.9554
▁juhannukse	-10.9554
▁romahti	-10.9554
▁SVT	-10.9554
▁Johaug	-10.9554
▁Reijo	-10.9554
▁läheltä	-10.9554
▁kelpaa	-10.9554
▁pidettävä	-10.9554
▁Rakennus	-10.9554
▁hetkeksi	-10.9554
idässä	-10.9554
▁syntymäpäivä	-10.9554
▁ennalta	-10.9554
▁perinteinen	-10.9554
▁henkirikos	-10.9555
▁Joensuun	-10.9555
▁käsiteltiin	-10.9556
▁sinun	-10.9556
ussa	-10.9556
▁muuhun	-10.9557
▁kertova	-10.9557
▁tason	-10.9558
kuvassa	-10.9561
▁maila	-10.9563
▁rikosta	-10.9564
▁tekoa	-10.9568
▁Vuorinen	-10.9568
luvulta	-10.9569
▁Blue	-10.9569
▁Heti	-10.957
toimen	-10.9574
▁Tuomo	-10.9575
▁pisteellä	-10.9576
IS	-10.9577
▁hintaan	-10.9579
▁Valtiovarain	-10.9582
▁sydämen	-10.9584
▁Sky	-10.9584
▁latu	-10.9585
▁muutkin	-10.9586
▁ohjaama	-10.9586
▁yllään	-10.9589
▁Heikkinen	-10.959
▁käytännön	-10.9593
▁kilometri	-10.9593
töm	-10.9594
▁muistel	-10.9598
sarjaan	-10.9598
ryhmään	-10.96
▁ammu	-10.9601
▁kilpaili	-10.9603
hor	-10.9603
▁Hyundai	-10.9604
rah	-10.9605
mätön	-10.9606
▁kanava	-10.9608
isuuden	-10.961
▁eläkeläis	-10.961
vene	-10.9612
▁ajalta	-10.9614
▁kerto	-10.9615
▁c	-10.9617
▁pahin	-10.9617
▁syyksi	-10.9619
▁uusiksi	-10.9621
▁joukosta	-10.9622
▁kauteen	-10.9622
▁joukkueet	-10.9629
▁kisaan	-10.9629
kokouksessa	-10.9631
siiv	-10.9632
▁satei	-10.9634
▁Suomalaisen	-10.9634
▁pääsisi	-10.9634
▁isoa	-10.9634
ksessä	-10.9635
myrsky	-10.9635
▁Argentiina	-10.9638
▁Hakkarainen	-10.9638
▁Kyllönen	-10.9638
▁Philadelphia	-10.9638
▁hylättiin	-10.9638
▁odotettavissa	-10.9638
▁korkeude	-10.9638
▁Arsenal	-10.9638
▁Kosonen	-10.9638
▁hiukan	-10.9638
▁lähettänyt	-10.9638
▁esitutkinnan	-10.9638
▁Täytyy	-10.9639
▁tulevaisuus	-10.9639
▁mahdollisen	-10.964
▁hakeutu	-10.964
rosenttiyksikköä	-10.9641
vik	-10.9641
▁Team	-10.9643
▁26,	-10.9644
▁naiselle	-10.9646
▁jatkunut	-10.9647
▁Vastaava	-10.9647
▁kohdistuva	-10.9648
▁taloudellisesti	-10.9649
▁tuomi	-10.9651
mistaan	-10.9655
▁Rydman	-10.9656
▁paista	-10.9656
sseja	-10.9657
▁Paimio	-10.9659
ennätys	-10.9662
▁Syyria	-10.9662
▁miehestä	-10.9662
turvallisuus	-10.9663
▁alenta	-10.9666
▁tilat	-10.9667
paikalta	-10.9667
▁grilli	-10.9667
▁reitti	-10.9667
▁sellaisen	-10.9667
▁Kohta	-10.9668
rivi	-10.9669
▁Macron	-10.967
▁luuli	-10.967
▁paita	-10.967
neestä	-10.9671
▁Post	-10.9673
▁tarvitsisi	-10.9673
kyvyn	-10.9674
▁jatkoa	-10.9676
vedo	-10.9677
▁jälkeise	-10.9678
paneeli	-10.968
▁tappo	-10.968
▁fa	-10.9683
▁kuvissa	-10.9683
▁rulla	-10.9685
tietoja	-10.9686
esitys	-10.9689
▁ilmoitus	-10.969
▁törkeää	-10.969
▁usean	-10.9692
ukselle	-10.9692
▁nii	-10.9693
▁hyökkäystä	-10.9694
▁treena	-10.9694
pyör	-10.9697
▁enemmänkin	-10.97
▁euroja	-10.9704
▁Yllä	-10.9706
▁korkeampi	-10.9707
3:	-10.9707
▁Hor	-10.9708
turnaus	-10.9715
▁tunsi	-10.9718
▁Jokela	-10.972
▁iskut	-10.972
hetke	-10.972
onnettomuudessa	-10.9721
1)	-10.9721
▁päästy	-10.9721
▁Elä	-10.9722
▁peto	-10.9722
▁sentään	-10.9722
▁Hurrikaani	-10.9723
▁Jungner	-10.9723
▁keskeinen	-10.9723
▁ykkönen	-10.9723
▁Musiikki	-10.9723
▁tapahtuva	-10.9723
klubi	-10.9723
▁pakeni	-10.9723
▁siirtyä	-10.9723
konserti	-10.9723
▁Tammikuu	-10.9723
▁tavoittanut	-10.9723
▁hyvi	-10.9724
▁Jouni	-10.9725
▁piikki	-10.9726
▁vietetään	-10.9727
▁kurssi	-10.9727
▁poikkeuksellis	-10.9727
▁mahtava	-10.9728
▁pojat	-10.9728
▁Sirpa	-10.973
viikon	-10.9731
▁Postin	-10.9732
▁johtamis	-10.9732
▁loppupuolella	-10.9733
metri	-10.9733
▁Tuomi	-10.9735
▁Olympiastadioni	-10.9737
▁vastaavat	-10.9737
▁valmiina	-10.9737
▁hyvissä	-10.974
▁(3	-10.974
▁tahdo	-10.974
▁hevose	-10.9742
▁poikkea	-10.9743
▁sanan	-10.9745
▁hyödyntää	-10.9748
▁Kul	-10.9751
▁hoi	-10.9754
▁vaatteita	-10.9755
▁ME	-10.9757
uuksia	-10.9757
kierroksella	-10.9758
▁tohtori	-10.9759
▁voitu	-10.976
▁25,	-10.9761
▁Syyn	-10.9763
▁niska	-10.9766
▁hallitukselle	-10.9768
▁tuomiota	-10.9768
▁Sten	-10.9769
oon	-10.9772
▁uskonut	-10.9773
▁Bay	-10.9774
suuden	-10.9776
▁hetkiä	-10.9778
pas	-10.9779
suhteiden	-10.9782
ved	-10.9784
▁palvelut	-10.9784
▁Keskusta	-10.9787
▁Tiedo	-10.9788
keitto	-10.9791
▁virheen	-10.9794
▁kuvaus	-10.9797
tell	-10.9798
kieli	-10.9799
▁kaksois	-10.9803
▁kuultu	-10.9804
ohjelmasta	-10.9805
viranomaisten	-10.9808
▁Apple	-10.9808
▁Nashville	-10.9808
▁harvinainen	-10.9808
▁kärjessä	-10.9808
▁pudonnut	-10.9808
▁ruotsalainen	-10.9808
▁väitteet	-10.9808
▁toivottavasti	-10.9808
▁Tyttö	-10.9808
▁välein	-10.9808
▁Aurinko	-10.9808
▁hetkeä	-10.9808
▁väkeä	-10.9809
mmän	-10.9809
rintama	-10.981
▁loppui	-10.981
▁Erik	-10.9811
▁tienasi	-10.9811
kurssi	-10.9811
▁israelilais	-10.9812
▁huomautti	-10.9812
▁pehmeä	-10.9813
▁menettää	-10.9814
▁Järvinen	-10.9815
▁Hus	-10.9816
▁aidosti	-10.9817
▁lämmintä	-10.9819
▁>	-10.9819
▁Lee	-10.9823
▁pii	-10.9826
▁päädy	-10.9827
pia	-10.9828
▁Nope	-10.9828
▁painetta	-10.983
▁78	-10.9831
▁seikka	-10.9835
▁vastuulla	-10.9836
▁kolmasosa	-10.9838
▁herkku	-10.9839
▁suhdetta	-10.9841
vie	-10.9843
ttamassa	-10.9844
▁sateita	-10.9844
▁Missä	-10.9844
▁nauti	-10.9845
tilillä	-10.9846
ves	-10.9849
ttomaksi	-10.9849
▁häly	-10.985
▁tekemiseen	-10.9851
▁itäraja	-10.9852
valmiste	-10.9852
▁massa	-10.9852
▁tavaraa	-10.9853
▁suuremma	-10.9853
▁mahdolliset	-10.9854
▁tuulen	-10.9855
▁Tokio	-10.9858
▁maraton	-10.9858
▁yhtye	-10.9859
▁Martti	-10.9859
▁kansainvälist	-10.986
▁voineet	-10.986
▁järkevä	-10.9861
uute	-10.9862
▁8-	-10.9863
▁Mitään	-10.9863
▁kokeilu	-10.9864
▁Pala	-10.9869
▁tarjoa	-10.9869
▁viimein	-10.9871
▁Leena	-10.9873
▁avustaja	-10.9878
▁henkilökunta	-10.9878
▁ajoin	-10.9879
▁Talous	-10.9882
▁kierros	-10.9884
▁konferenssi	-10.9884
▁suurimma	-10.9885
▁uudista	-10.9887
puolustukse	-10.9888
joukot	-10.9889
ttomat	-10.9894
▁keuhko	-10.9894
▁BMW	-10.9894
▁Volkswagen	-10.9894
▁Kiljunen	-10.9894
▁World	-10.9894
▁Teatteri	-10.9894
▁mainitsi	-10.9894
▁oltiin	-10.9894
yhteyksi	-10.9895
▁hevosen	-10.9895
▁ulkopuolelta	-10.9895
hotelli	-10.9895
▁julisti	-10.9895
▁Elokuu	-10.9895
▁arkea	-10.9896
▁pöly	-10.9896
▁Intia	-10.9897
▁rannalla	-10.9897
kr	-10.9897
▁keskeise	-10.9897
tavaksi	-10.9898
▁puhdista	-10.9899
▁parikymmentä	-10.9899
lento	-10.99
▁vahingossa	-10.9903
▁ehdotti	-10.9904
▁luultav	-10.9905
▁tein	-10.9907
▁Perttu	-10.9907
ajoneuvo	-10.9907
▁klassikko	-10.9908
yhtye	-10.9908
teella	-10.9908
▁häpeä	-10.9909
▁skenaario	-10.9911
utus	-10.9911
▁kiinnittää	-10.9912
hei	-10.9913
▁opiskeli	-10.9915
▁puhuvat	-10.9915
▁rikosilmoitukse	-10.9915
▁päätyy	-10.9918
▁työskentely	-10.9919
▁puheet	-10.9919
▁tuntumassa	-10.992
▁perustelu	-10.9921
▁virkamies	-10.9921
▁leikkaukset	-10.9922
viestin	-10.9922
▁tarttui	-10.9923
▁litraa	-10.9924
mmäksi	-10.9925
▁ihana	-10.9926
▁Espoo	-10.9927
▁kuuluvi	-10.9929
▁73	-10.993
▁urheilijan	-10.993
▁Sanoin	-10.993
▁poliittisia	-10.9933
▁syyn	-10.9935
▁liikenteessä	-10.9935
▁2001	-10.9936
▁kirjaa	-10.9936
▁vastauksen	-10.9937
▁hinna	-10.9938
▁perustuva	-10.9941
▁vastuun	-10.9942
▁monissa	-10.9943
▁varustettu	-10.9948
▁14-	-10.9948
▁näyttö	-10.995
car	-10.9953
▁joulua	-10.9955
▁Perheen	-10.9959
▁uusiin	-10.9963
sellä	-10.9964
ilo	-10.9964
kautensa	-10.9964
▁ehdi	-10.9965
▁Anders	-10.9968
▁ilmoittautu	-10.9969
▁kär	-10.9972
▁saamme	-10.9972
äh	-10.9972
▁osavaltion	-10.9978
▁varmisti	-10.9981
▁Vikman	-10.9981
▁keskittyy	-10.9981
▁Obama	-10.9981
▁vastoin	-10.9981
▁Kuusela	-10.9981
▁viidenneksi	-10.9982
▁Finaali	-10.9982
▁Sau	-10.9982
kamppailu	-10.9982
▁Yhteensä	-10.9982
▁harjoituksissa	-10.9982
▁maito	-10.9983
▁hälytyksen	-10.9984
▁ehdottaa	-10.9984
kisoja	-10.9984
▁strategia	-10.9984
▁70-	-10.9986
▁konkurssi	-10.9986
▁Yrittäjä	-10.9986
▁käsittelyyn	-10.9986
▁Savolainen	-10.9987
▁Diili	-10.9987
▁muuttamaan	-10.9988
5-	-10.9988
▁palveluita	-10.9988
▁diplomaatti	-10.9988
▁odotta	-10.9988
▁Koke	-10.9989
▁metrillä	-10.9989
▁juhliin	-10.999
kkojen	-10.9991
▁pakettiauto	-10.9991
▁Rauma	-10.9992
▁miele	-10.9993
▁urheilun	-10.9995
▁oikeaan	-10.9996
▁koriste	-10.9996
▁käytety	-10.9997
▁Mette	-10.9997
▁Hämeen	-10.9997
▁Com	-10.9997
▁komission	-10.9998
▁väestön	-11
▁päivystys	-11.0001
▁joukkueelle	-11.0003
▁mysteeri	-11.0003
▁koulujen	-11.0003
▁historiassa	-11.0004
misella	-11.0007
laitoksen	-11.0009
▁Ella	-11.001
▁psykologi	-11.001
▁sii	-11.001
▁listalla	-11.001
gel	-11.001
isellä	-11.0012
▁Merja	-11.0014
▁hitti	-11.0014
▁pelaajista	-11.0014
▁keskusteluun	-11.0017
ilijoiden	-11.0018
töiden	-11.0019
▁Col	-11.0023
▁uusista	-11.0024
tejä	-11.0027
▁kansallise	-11.0027
▁pysäyttä	-11.0028
▁kuudes	-11.0028
▁ulkomaan	-11.0028
▁Aloi	-11.003
▁kuulo	-11.003
▁jengi	-11.0033
+3	-11.0036
▁Yhtä	-11.0038
▁mäki	-11.0041
▁nousseet	-11.0041
▁Roman	-11.0042
▁neste	-11.0042
cho	-11.0043
tuo	-11.0044
▁äänet	-11.0044
▁Paras	-11.0049
etin	-11.005
▁Tro	-11.0051
▁podcast	-11.0055
tavara	-11.0055
▁Georgian	-11.0057
▁ohjus	-11.0057
23	-11.0058
▁taloyhtiö	-11.0062
▁tehneen	-11.0063
▁Japani	-11.0063
▁yksityiskohta	-11.0064
▁grammaa	-11.0065
▁kuullaan	-11.0066
▁Ryan	-11.0068
▁viileä	-11.0069
▁Hradecky	-11.0069
▁ymmärsi	-11.0069
▁toimittajille	-11.0069
▁yritetään	-11.0069
▁paljoa	-11.0069
▁Ennakko	-11.0069
▁Ulkopoliittise	-11.0069
▁kevyt	-11.0069
▁huomata	-11.0069
▁totuus	-11.007
▁Hieno	-11.0071
▁Katja	-11.0071
Euroopan	-11.0071
▁palomestari	-11.0071
▁kannatta	-11.0071
väylä	-11.0072
osuus	-11.0075
▁Live	-11.0076
▁ohjelmisto	-11.0077
▁ajoissa	-11.0077
▁Sund	-11.0079
▁puolitoista	-11.0079
▁tehokkaasti	-11.0079
▁ehdokasta	-11.008
kato	-11.008
▁vaivaa	-11.0082
▁lumen	-11.0082
▁helpompi	-11.0083
▁potentiaali	-11.0085
▁mini	-11.0085
▁itsessään	-11.0086
▁Jones	-11.0086
▁tapana	-11.0087
▁Ukko	-11.0089
▁omistaji	-11.009
▁Fico	-11.0091
▁toimivan	-11.0092
mel	-11.0092
▁laadukkaa	-11.0097
udella	-11.0099
▁ennenkin	-11.01
isissä	-11.0102
▁Kala	-11.0102
hallinnon	-11.0109
▁Jazz	-11.0109
▁Hill	-11.0112
27	-11.0112
▁neljästä	-11.0113
▁tehtyä	-11.0116
▁Tosin	-11.0116
▁kiinteistön	-11.0119
▁näp	-11.0119
ttejä	-11.0121
kkuutta	-11.0122
iro	-11.0122
▁juoksija	-11.0122
▁show	-11.0123
▁asuntoon	-11.0123
▁ylle	-11.0123
rek	-11.0124
▁eduskuntaan	-11.0124
ilmoitus	-11.0126
▁kiinnostu	-11.0127
ier	-11.0128
▁Myy	-11.0129
▁Panthersin	-11.0134
▁länsimai	-11.0134
juu	-11.0135
▁Ava	-11.0138
▁raskas	-11.0141
▁Erä	-11.0143
▁syöttö	-11.0143
▁tarkistaa	-11.0144
▁22-	-11.0145
▁pitävän	-11.0147
▁vihje	-11.0148
▁asemaa	-11.015
▁mutka	-11.0151
syöpä	-11.0152
keä	-11.0153
▁195	-11.0154
johtajana	-11.0154
ble	-11.0155
▁ulkonäkö	-11.0155
▁jalan	-11.0156
▁käsissä	-11.0156
hommi	-11.0157
▁joidenkin	-11.0157
tutkinta	-11.0157
▁Duplantis	-11.0157
▁palkittiin	-11.0157
▁venäläinen	-11.0157
▁Kroatia	-11.0157
▁Satakunnan	-11.0157
▁Porvoo	-11.0157
▁rinnalle	-11.0157
▁Hollanti	-11.0158
▁toimesta	-11.0158
▁Satonen	-11.0158
▁kuunnella	-11.0158
▁Noora	-11.0158
▁Mary	-11.0158
▁Rasmus	-11.0158
▁tyytyväisiä	-11.0158
▁liikevaihto	-11.0158
▁mitattiin	-11.0158
▁tunnetun	-11.0159
▁kotiottelu	-11.0159
▁huusi	-11.0159
▁saavuttanut	-11.0159
▁kilpaile	-11.0159
▁omaisuutta	-11.0162
▁Anssi	-11.0162
▁kaltaise	-11.0162
▁Mauri	-11.0162
hai	-11.0164
▁samanlaise	-11.0165
▁Vas	-11.0165
ehdot	-11.0165
can	-11.0165
▁Toisin	-11.0165
▁matkusti	-11.0166
▁itke	-11.0166
▁Jyväskylässä	-11.0167
▁heilu	-11.0167
▁lasketaan	-11.017
▁pitävä	-11.017
finaalissa	-11.0171
▁tasaise	-11.0172
▁bensa	-11.0173
▁Mene	-11.0174
▁Muutos	-11.0174
▁tuulet	-11.0174
▁tosissaan	-11.0175
▁Saara	-11.0176
▁voimaa	-11.0176
tilat	-11.0176
kuvio	-11.018
▁mielenosoitukse	-11.0182
▁erityistä	-11.0184
luokkaa	-11.0184
▁uraa	-11.0184
ttujen	-11.0184
▁vanhemma	-11.019
▁kollega	-11.0191
▁cup	-11.0194
▁Herman	-11.0194
▁KuPS	-11.0195
ote	-11.0198
▁melkoinen	-11.0199
▁Miro	-11.0199
▁Trumpille	-11.0203
radalla	-11.0205
▁ruu	-11.0206
▁Valmi	-11.0206
▁tuotteiden	-11.0207
ther	-11.0207
▁29,	-11.0207
▁ylittää	-11.0207
▁kauko	-11.0209
▁Ger	-11.0213
▁poliisilaitos	-11.0214
▁hienosti	-11.0215
juttu	-11.0217
▁Aasia	-11.0219
▁Bri	-11.022
▁pelkä	-11.0222
▁käyneet	-11.0224
▁Ykkös	-11.0226
peliä	-11.0226
▁sisar	-11.0231
▁sopivan	-11.0232
▁hehku	-11.0232
liikke	-11.0234
▁juosta	-11.0235
▁Jean	-11.0235
dessä	-11.0237
▁Kansan	-11.024
kirjan	-11.0241
▁110	-11.0242
vuoren	-11.0243
▁iloa	-11.0244
▁radalla	-11.0244
▁Ammatti	-11.0246
▁tiedetä	-11.0246
▁tunniste	-11.0247
▁Egypti	-11.0247
▁julkisuudesta	-11.0247
▁Julkaisu	-11.0247
▁Viktor	-11.0247
▁asevoimat	-11.0247
▁yritä	-11.0247
▁Samoin	-11.0247
▁Hovioikeus	-11.0247
▁niukasti	-11.0247
▁rikosepäily	-11.0247
▁tuotu	-11.0248
▁ajatellut	-11.0249
▁Ismo	-11.025
oikeutta	-11.025
öljy	-11.025
▁näyttänyt	-11.0251
▁tehneensä	-11.0251
▁Dan	-11.0251
▁Arvio	-11.0253
▁haetaan	-11.0254
▁minne	-11.0254
telty	-11.0254
▁haluavansa	-11.0256
lleni	-11.0258
▁Rosa	-11.0259
▁radan	-11.026
▁Niissä	-11.026
▁nouse	-11.026
▁suurimmat	-11.0262
▁ravintolassa	-11.0262
evat	-11.0262
▁kive	-11.0263
▁sillan	-11.0264
ring	-11.0266
▁herku	-11.0266
▁tutustua	-11.0267
▁Tapani	-11.0267
▁vastausta	-11.0268
▁veteraani	-11.0271
▁kulkeva	-11.0271
▁olekaan	-11.0272
▁80-	-11.0273
▁23,	-11.0273
▁Muita	-11.0274
▁War	-11.0278
▁tienaa	-11.0278
hoidon	-11.0279
stro	-11.0282
kaudesta	-11.0283
▁kokemuksen	-11.0284
▁edustajan	-11.0285
aaleja	-11.0285
▁hallituspuolue	-11.0286
▁rajoitta	-11.0286
kaali	-11.0286
▁tuotteet	-11.0291
▁Leh	-11.0291
työhön	-11.0292
▁4-1	-11.0292
▁marssi	-11.0292
uksien	-11.0293
▁Teko	-11.0293
▁teemme	-11.0294
▁valtioneuvosto	-11.0294
▁kasvoja	-11.0295
▁aloitettu	-11.0297
▁Alun	-11.0298
▁menisi	-11.0299
▁pyrkiä	-11.0299
ijoiden	-11.03
▁käsityksen	-11.0302
ahdus	-11.0306
▁riita	-11.0308
teessa	-11.0308
lohko	-11.0308
tilaan	-11.031
▁Vo	-11.0312
▁kalusto	-11.0315
▁ollessaan	-11.0316
▁epäillyt	-11.0317
▁Mira	-11.0318
kaupasta	-11.0318
▁iltapäivä	-11.0319
▁Ruotsista	-11.032
▁koski	-11.0323
▁osoite	-11.0323
dut	-11.0323
▁haluamme	-11.0325
▁min	-11.0328
▁pääsarja	-11.0328
▁työnsä	-11.0328
suhte	-11.033
?"	-11.0333
▁Hur	-11.0334
▁vähemmistö	-11.0334
▁Valtion	-11.0335
▁studio	-11.0335
▁käynnistä	-11.0336
▁Käräjäoikeude	-11.0337
▁Puhakan	-11.0337
▁käytöksestä	-11.0337
▁NRK	-11.0337
▁mainitu	-11.0337
▁Keränen	-11.0337
▁Brother	-11.0337
▁luopua	-11.0337
▁1998	-11.0338
▁sosiaaliturva	-11.0338
▁liittyä	-11.0339
▁hehkuttaa	-11.0339
▁2027	-11.034
▁veteen	-11.034
▁tulitauko	-11.0341
kysymys	-11.0341
musiikki	-11.0341
▁Torstai	-11.0342
▁valitsija	-11.0342
▁veljensä	-11.0342
▁rauhallinen	-11.0342
▁joudutaan	-11.0343
▁haukku	-11.0343
▁kirjeen	-11.0344
▁iltaa	-11.0344
▁peruu	-11.0344
▁sävel	-11.0346
▁kuluessa	-11.0346
▁maailmancupissa	-11.0347
▁myydään	-11.0348
▁maajoukkueessa	-11.0348
podcastissa	-11.0349
▁sulkea	-11.035
koodi	-11.035
▁sivuilla	-11.0355
▁rikkomisesta	-11.0355
kiellon	-11.0356
▁ääne	-11.0358
▁Silja	-11.0359
▁Is	-11.036
tilaisuus	-11.0361
tettaisiin	-11.0362
tteleva	-11.0363
▁analyysi	-11.0364
▁rengas	-11.0364
▁kunnanjohtaja	-11.0366
▁Toto	-11.0368
vuotisen	-11.0369
▁Ahonen	-11.0371
▁parantu	-11.0371
öö	-11.0372
kenttä	-11.0373
▁AP	-11.0373
▁putoa	-11.0375
▁otteluissa	-11.0377
▁Kuopio	-11.038
▁suunnittelema	-11.038
▁Kakkos	-11.0381
▁itärajan	-11.0383
päätöksen	-11.0384
paja	-11.0384
22	-11.0384
mmilla	-11.0385
tuho	-11.0387
▁startti	-11.0389
▁työntekijän	-11.039
▁perustaa	-11.039
▁Siis	-11.0391
ohjelmaa	-11.0391
▁maisema	-11.0391
televat	-11.0392
▁rajalla	-11.0393
luvan	-11.0394
▁(20	-11.0395
▁vaihtui	-11.0396
▁yhtyeen	-11.0398
▁arvostelu	-11.0398
tilassa	-11.0401
▁Nais	-11.0401
▁Kakko	-11.0403
kivi	-11.0405
östä	-11.0406
este	-11.0406
▁pure	-11.0408
▁Hieta	-11.0408
▁työpaikka	-11.0413
▁Kiinassa	-11.0413
▁koskettava	-11.0413
lava	-11.0414
▁Kol	-11.0415
vire	-11.042
▁900	-11.0422
▁moderni	-11.0426
▁Niina	-11.0426
▁unioni	-11.0427
▁til	-11.0427
peruste	-11.0427
и	-11.0428
ó	-11.0428
▁Räikkönen	-11.0428
▁pidemmän	-11.0428
▁remontoi	-11.0428
▁sabotaasi	-11.0428
▁Haastattelu	-11.0428
▁osake	-11.0428
▁virallinen	-11.0428
▁odotus	-11.0428
▁automaattisesti	-11.0428
▁pysäköinti	-11.0428
▁Veera	-11.0429
▁pudotuspeleissä	-11.043
▁helpompaa	-11.043
▁tapaukseen	-11.043
▁Karlsson	-11.043
miset	-11.043
▁yhdistetty	-11.0431
▁pidätetty	-11.0432
▁romu	-11.0432
miaan	-11.0434
päästö	-11.0435
▁Peltonen	-11.0436
▁työssä	-11.0436
▁viety	-11.0438
piireissä	-11.0439
presidentti	-11.0439
▁auttamaan	-11.0441
koulun	-11.0441
▁vahvistanut	-11.0443
▁kutsua	-11.0444
▁sairastumis	-11.0445
▁Jonna	-11.0448
järjestelmää	-11.0448
▁Rauha	-11.0449
▁käytäntö	-11.0451
▁tempu	-11.0453
▁kokouksen	-11.0456
▁or	-11.0456
▁korvata	-11.0457
▁yhteiskunnallis	-11.0458
▁terassi	-11.0458
▁Salla	-11.0459
▁polvi	-11.0459
suur	-11.0461
▁pohtia	-11.0464
▁raiska	-11.0466
▁Oilers	-11.0466
▁Montreal	-11.0467
aikainen	-11.0468
▁leipä	-11.047
▁Bru	-11.0472
▁yleisty	-11.0472
▁tarkastus	-11.0473
▁Toisessa	-11.0475
▁ystäv	-11.0482
▁salaa	-11.0483
▁Bulli	-11.0484
▁uskomaton	-11.0487
▁tuntuvat	-11.0487
▁Lauantain	-11.0489
▁pysyvät	-11.0489
▁kaikkialla	-11.0491
▁mulla	-11.0491
En	-11.0492
▁Edellisen	-11.0495
skin	-11.0497
▁olosuhteet	-11.0498
▁Neli	-11.0499
▁Aftonbladet	-11.0501
▁vertaa	-11.0501
terve	-11.0507
▁liikkuvat	-11.0507
oksessa	-11.051
▁Näy	-11.0513
▁olevista	-11.0513
▁Brysselissä	-11.0519
▁Rääkkylä	-11.0519
▁Syyskuu	-11.0519
▁Tshekin	-11.0519
▁kädet	-11.0519
▁Jordan	-11.0519
▁edellinen	-11.052
▁hiljaa	-11.052
▁tarkoittaisi	-11.052
▁Lindén	-11.052
▁avioliitto	-11.052
▁raportti	-11.052
▁seitsemänne	-11.052
▁Hurske	-11.052
▁kiertää	-11.0521
▁pitkäaikainen	-11.0521
▁Nykyisin	-11.0521
▁Yleisurheilu	-11.0522
▁huuli	-11.0523
▁Shi	-11.0523
▁kuvauksissa	-11.0524
mallia	-11.0525
▁myytiin	-11.0525
▁Karjalainen	-11.0526
tutkimuksen	-11.0526
keit	-11.0527
▁avautuu	-11.0527
▁todisteita	-11.0527
kaarti	-11.0527
▁ulkomaille	-11.0528
▁Jenna	-11.0529
hevos	-11.053
▁vaatimus	-11.053
vol	-11.0532
▁vauhdilla	-11.0532
▁Kevin	-11.0532
▁liity	-11.0534
▁kuole	-11.0536
▁Vei	-11.0538
▁suunnitelmat	-11.0538
▁tunnetta	-11.0538
▁Natoon	-11.0542
miesten	-11.0543
▁kampanjoi	-11.0544
▁ennakkoon	-11.0545
yhtiöiden	-11.0545
▁Nuore	-11.0547
▁päätä	-11.0549
▁Xi	-11.0551
▁Kelan	-11.0552
▁Nyman	-11.0554
▁kodissa	-11.0554
▁toimittaa	-11.0556
▁pahaa	-11.0559
▁Group	-11.0559
käsi	-11.0561
ajossa	-11.0561
▁mieti	-11.0563
jäsenyyden	-11.0564
alo	-11.0564
▁vastaavia	-11.0564
▁huippukokoukse	-11.0565
▁vasemma	-11.0568
▁Liettuan	-11.0569
▁harrasta	-11.057
▁mukaise	-11.0573
▁180	-11.0574
▁omi	-11.0576
▁ajava	-11.0577
▁olimme	-11.058
puistossa	-11.0583
▁Valioliiga	-11.0585
▁Hir	-11.0585
▁kuit	-11.0586
▁yllätykse	-11.0587
isivät	-11.0587
▁vahvaa	-11.0588
▁ote	-11.059
osio	-11.0599
▁kaukalo	-11.0602
▁vähene	-11.0603
▁hyvänä	-11.0604
▁neuvottelut	-11.0604
yksellä	-11.0607
▁kuun	-11.0609
▁1-0	-11.0612
▁Onlyfans	-11.0612
▁Rkp	-11.0612
▁ratkaisi	-11.0612
▁Sirviö	-11.0612
▁Toukokuu	-11.0612
▁puhelimitse	-11.0612
▁sinulla	-11.0612
▁johtanee	-11.0612
▁monesti	-11.0612
Ra	-11.0612
keri	-11.0612
▁nuorempi	-11.0613
▁Sieppi	-11.0613
▁selvittämään	-11.0613
▁tarkasta	-11.0613
▁Epäilly	-11.0615
▁ulkomailta	-11.0615
▁resepti	-11.0615
▁rakennetaan	-11.0615
▁eurooppalaise	-11.0615
▁keskustelemaan	-11.0615
▁edetä	-11.0616
▁Tikkanen	-11.0616
▁suurimmista	-11.0617
epäily	-11.0618
festivaali	-11.0619
innin	-11.0621
▁logo	-11.0623
▁käänty	-11.0623
▁Cla	-11.0623
▁tiettyj	-11.0623
▁toiset	-11.063
▁Toiseksi	-11.0633
▁henkirikoksen	-11.0635
▁Pre	-11.0635
ttäviä	-11.0636
lähetyks	-11.0636
▁Ilo	-11.0637
▁kohdistui	-11.0643
▁kokea	-11.0643
▁runo	-11.0643
▁paikat	-11.0644
▁95	-11.0646
▁lapsena	-11.0647
▁jäähalli	-11.0647
▁valkoinen	-11.065
sihteeri	-11.0656
rooli	-11.0656
▁Muuten	-11.0657
▁Arja	-11.0659
▁31.	-11.0659
poliittise	-11.0661
▁Harrisia	-11.0661
▁Edu	-11.0663
▁Kuopiossa	-11.0664
bor	-11.0667
▁joukkueiden	-11.0668
▁Tö	-11.067
▁omilla	-11.0671
velje	-11.0676
▁tuloksella	-11.0676
▁osallistuvat	-11.0676
▁lämmi	-11.0676
▁Rak	-11.0678
▁(4	-11.0679
elämä	-11.0679
SA	-11.0679
▁ennusteen	-11.068
▁myi	-11.0684
pis	-11.0684
▁ilmoitta	-11.0685
kauppaa	-11.0685
▁Putinille	-11.0686
▁näytte	-11.0689
▁yleisen	-11.069
posti	-11.0693
▁vieläkin	-11.0697
▁käsitys	-11.0698
▁Pohjoismai	-11.07
stetty	-11.07
▁bi	-11.0701
▁mielipitee	-11.0702
▁Dr	-11.0703
▁Kiinteistö	-11.0706
▁Tukholmassa	-11.0706
▁Tynkkynen	-11.0706
▁englanniksi	-11.0706
▁löydä	-11.0706
▁avaruus	-11.0706
▁yhdeksi	-11.0706
▁Savonlinna	-11.0706
▁innoissaan	-11.0706
▁julkisuuden	-11.0706
▁virtsa	-11.0706
▁moottoritie	-11.0706
▁meneillään	-11.0706
▁rakkaus	-11.0707
▁aukea	-11.0707
▁kolmanne	-11.0707
kykyä	-11.0707
▁olympiakultaa	-11.0707
▁pääkaupungissa	-11.0707
▁sairastui	-11.0708
katko	-11.0708
▁Joulukuu	-11.0708
▁ovet	-11.0709
▁Hyvinvointialue	-11.0712
▁evakuoi	-11.0713
▁hurrikaani	-11.0713
▁aikavälillä	-11.0713
▁selitti	-11.0715
tyttö	-11.0715
▁Iida	-11.0716
▁menet	-11.0718
▁kaupat	-11.0719
▁positiivista	-11.0719
▁verkosto	-11.0719
▁presidenttiä	-11.072
iskun	-11.0721
▁Korona	-11.0723
▁saaristo	-11.0724
▁elämäni	-11.0724
▁Pet	-11.0724
▁Lahtinen	-11.0724
▁itselle	-11.0724
▁väistä	-11.0725
mail	-11.0725
▁ehdotus	-11.0726
▁vahingoitta	-11.0726
▁Pia	-11.0727
▁surmansa	-11.0728
▁koskevi	-11.073
▁sanoivat	-11.0731
▁tutkijat	-11.0732
▁2002	-11.0733
▁pä	-11.0734
▁Veikkausliiga	-11.0735
▁katsonut	-11.0737
▁Andre	-11.0738
huoneen	-11.0739
▁Presidentin	-11.0741
▁voimin	-11.0743
▁kampanjan	-11.0744
▁Manninen	-11.0744
▁kannattajat	-11.0744
▁syv	-11.0748
tymistä	-11.0748
▁esiintyvä	-11.0748
▁Kokkola	-11.0748
pul	-11.0749
▁aikaisin	-11.075
yo	-11.0751
▁ulosajo	-11.0751
kata	-11.0755
▁Erikois	-11.0755
▁Liisa	-11.0757
▁Finn	-11.0757
kunnassa	-11.0761
▁Georgia	-11.0764
tukea	-11.0765
▁Tee	-11.0767
▁Lähe	-11.0768
▁90-	-11.077
▁ay	-11.0772
tunto	-11.0773
▁älä	-11.0775
LA	-11.0778
▁tehtävissä	-11.0779
▁1,7	-11.0781
▁Julia	-11.0782
up	-11.0784
▁haltuun	-11.0788
ruu	-11.0789
evät	-11.079
▁palveluiden	-11.0794
Ku	-11.0795
▁fyysise	-11.0797
▁Määrä	-11.08
▁arjessa	-11.08
▁Hyvärinen	-11.08
▁kertynyt	-11.08
▁vankeustuomio	-11.0801
▁budjeti	-11.0802
form	-11.0802
▁aikuisi	-11.0802
▁Haley	-11.0804
▁nostettiin	-11.0804
▁pelit	-11.0804
▁astui	-11.0804
▁Itämerellä	-11.0805
moni	-11.0806
▁väkisin	-11.0806
▁rytmi	-11.0806
▁viettänyt	-11.0807
▁cupin	-11.0807
▁mielenosoittaji	-11.0809
▁positiivise	-11.0809
▁pohdi	-11.0811
▁jäähy	-11.0813
▁huumeiden	-11.0814
▁Savo	-11.0815
udan	-11.0816
▁Tilastokeskukse	-11.0817
▁es	-11.0818
▁Kyseise	-11.0819
▁kohtelu	-11.082
▁pelistä	-11.082
▁katko	-11.0821
▁antami	-11.0824
▁kerrokse	-11.0828
▁uskottava	-11.0828
▁haluttu	-11.0829
▁varmistu	-11.083
▁lopullise	-11.0832
▁yrityksiä	-11.0835
▁ale	-11.0837
▁puutu	-11.0838
▁lapselle	-11.0838
▁puhumaan	-11.0839
▁säästää	-11.0839
asemalla	-11.084
▁oikeude	-11.0841
pper	-11.0841
▁piina	-11.0845
▁nimiä	-11.0845
▁koulutuksen	-11.0847
▁Jens	-11.085
▁sotilasta	-11.085
▁Teslan	-11.085
▁syrjä	-11.0852
▁vahvan	-11.0852
▁21-	-11.0852
▁politiikkaa	-11.0854
▁jäisi	-11.0854
tonin	-11.0855
▁Bidenia	-11.0856
ult	-11.0857
▁Slovakian	-11.0857
▁raiva	-11.0858
kuitu	-11.086
▁outo	-11.0861
▁kuninkaan	-11.0861
sovelluks	-11.0862
▁Asiaa	-11.0863
▁Jatko	-11.0863
▁omissa	-11.0864
▁Jar	-11.0864
▁kosto	-11.0866
aineita	-11.0869
edus	-11.0869
▁juhlien	-11.0873
rasi	-11.0874
oosi	-11.0874
▁anta	-11.0875
▁kouluun	-11.0879
▁julma	-11.088
▁oikealta	-11.088
teema	-11.0883
▁puolueiden	-11.0884
stunut	-11.0884
▁korvi	-11.0884
tetut	-11.0885
▁poliittisi	-11.0886
▁taistele	-11.0888
▁Ikä	-11.0889
▁materiaalia	-11.0893
▁käynnistyi	-11.0893
▁Britti	-11.0894
▁haastattelun	-11.0894
▁Juhla	-11.0895
▁Silvennoinen	-11.0895
▁Valitettavasti	-11.0895
▁riskejä	-11.0895
▁Rajavartiolaito	-11.0895
▁unohd	-11.0895
viranomainen	-11.0895
▁kristillis	-11.0895
▁sattunut	-11.0895
▁liikkua	-11.0895
▁suunnattu	-11.0895
▁Kristian	-11.0895
▁vihollis	-11.0895
▁Heinäkuu	-11.0896
▁toisiinsa	-11.0896
▁Helmikuu	-11.0896
▁kirjoitetaan	-11.0896
▁palaute	-11.0897
▁hirmu	-11.0898
▁kuljetettiin	-11.0898
▁AHL	-11.0898
▁nostetaan	-11.0899
suosikki	-11.09
▁vauvan	-11.0901
▁tekijät	-11.0901
elämän	-11.0902
▁peruskoulu	-11.0902
▁ehtii	-11.0902
▁lopettamaan	-11.0904
▁Kenia	-11.0905
harjoittelu	-11.0905
▁vanhat	-11.0909
▁130	-11.091
▁mittari	-11.0911
▁Aluksi	-11.0914
▁asetettu	-11.0914
▁Evans	-11.0915
▁voiman	-11.0916
▁Onnettomuude	-11.0916
▁Naiset	-11.0916
▁nimetty	-11.0916
▁Ojala	-11.0916
verkon	-11.0917
▁saari	-11.0918
▁Kiri	-11.092
▁sisu	-11.0923
▁kirjoitus	-11.0923
kierroksen	-11.0924
vasemmistoliitto	-11.0928
▁korkeinta	-11.093
▁kannustaa	-11.0931
▁sivusto	-11.0933
▁Oh	-11.0933
-15	-11.0935
▁erillise	-11.0943
▁kärsivä	-11.0943
▁toimineen	-11.0944
▁suunnitteli	-11.0944
▁Mati	-11.0945
töihin	-11.0946
▁Karjala	-11.0946
▁Paikallise	-11.0948
▁ajatukse	-11.0948
aloitte	-11.0949
▁miljooni	-11.095
▁ladu	-11.0951
hyppääjä	-11.0955
▁kylmää	-11.0957
osen	-11.0957
▁poro	-11.0958
▁pyytä	-11.0959
▁Wo	-11.0959
▁tehdas	-11.0959
75	-11.0963
▁brändi	-11.0965
▁Päivän	-11.0966
▁ennätykse	-11.0967
▁vapaasti	-11.0971
▁Eikö	-11.0971
▁uudis	-11.0975
34	-11.0978
▁televisiossa	-11.098
▁heikkene	-11.0981
39	-11.0981
▁valmistaja	-11.0982
▁keskusteli	-11.0985
läisen	-11.0989
▁Uude	-11.099
silta	-11.099
▁räjähdys	-11.0991
▁Dmitri	-11.0991
▁alaisuudessa	-11.0991
▁meidät	-11.0991
▁myöhässä	-11.0991
▁siirretty	-11.0991
▁pysäytti	-11.0991
▁Korisliiga	-11.0991
pano	-11.0991
▁nahka	-11.0991
▁aiheuttami	-11.0992
▁arkeen	-11.0992
▁ylöspäin	-11.0992
▁hoidetaan	-11.0992
▁talouskasvu	-11.0992
▁Luonno	-11.0992
▁tottunut	-11.0993
▁sekaisin	-11.0993
doista	-11.0994
▁Rally	-11.0994
▁ongelmaa	-11.0994
elämää	-11.0995
kuntaa	-11.0998
▁kateissa	-11.0998
▁oikealla	-11.0999
Z	-11.0999
▁antoivat	-11.0999
pöytä	-11.1
▁toimittajat	-11.1001
▁Tiistai	-11.1002
vuonna	-11.1002
stetaan	-11.1004
▁Rock	-11.1004
▁muilta	-11.1005
▁korvaamaan	-11.1008
▁Lappiin	-11.1009
ttämistä	-11.1014
▁jäätelö	-11.1015
▁maksanut	-11.1016
pesä	-11.1017
ääri	-11.1019
pinta	-11.102
▁Saramo	-11.102
▁itäise	-11.102
▁vuosikymmeniä	-11.102
▁uskoi	-11.1021
kokouksen	-11.1021
▁Ajo	-11.1021
▁28,	-11.1026
ympärivuorokauti	-11.1026
▁tehtäviin	-11.1027
hö	-11.1027
▁Jose	-11.1029
▁pystyvät	-11.1031
▁laivasto	-11.1032
▁Huuhkajat	-11.1033
▁rahoituksen	-11.1034
▁valmistaa	-11.1039
▁Far	-11.1039
▁kuuluisi	-11.1039
▁Salmela	-11.1041
ome	-11.1041
3)	-11.1042
▁pöytä	-11.1044
rikoksesta	-11.1047
▁ilmaisku	-11.1047
▁ylläpitä	-11.105
▁minuutti	-11.105
▁Kia	-11.1052
wo	-11.1053
▁ap	-11.1053
toiminnanjohtaja	-11.1053
▁makaa	-11.1056
vaatimukse	-11.106
ohja	-11.106
▁pitivät	-11.1061
ohje	-11.1062
hallinto	-11.1064
▁Pul	-11.1067
lliseen	-11.1067
▁Ram	-11.1068
▁paikallaan	-11.1068
▁tällaisen	-11.1069
▁yhteiskuva	-11.1069
▁Seuraavana	-11.1072
▁viimeise	-11.1074
puheenjohtaja	-11.1076
▁armo	-11.1077
▁liput	-11.108
▁Kainuun	-11.108
▁Jääkiekko	-11.1081
▁tekijän	-11.1082
▁syöpää	-11.1083
▁Vapaa	-11.1083
mmille	-11.1084
▁kisoja	-11.1087
▁aloitus	-11.1088
▁lapsuuden	-11.1088
▁tragedia	-11.1088
▁pitäneet	-11.1088
▁vaihtelu	-11.1088
▁Sipilä	-11.1088
▁Blomqvist	-11.1088
▁WRC	-11.1089
▁johdossa	-11.1089
▁lentokentällä	-11.1089
▁pahimmillaan	-11.1089
▁urheilijat	-11.1089
▁todellakin	-11.109
qui	-11.109
-18	-11.1091
historia	-11.1092
48	-11.1093
ittemmin	-11.1093
▁kehitystä	-11.1094
▁hankalaa	-11.1094
▁sujunut	-11.1094
▁Isän	-11.1094
teinen	-11.1094
▁virheitä	-11.1095
▁Jääkieko	-11.1095
▁mukavaa	-11.1095
▁Tuukka	-11.1097
▁hakenut	-11.1098
▁terveydentila	-11.1098
▁tekemättä	-11.1099
▁pomo	-11.1099
aluetta	-11.1099
fer	-11.11
▁sauma	-11.11
ttavissa	-11.1101
hyppy	-11.1104
▁eläinten	-11.1106
▁pelkkä	-11.1111
▁viidestä	-11.1114
▁sal	-11.1114
▁irtisanomis	-11.1114
▁ikäluok	-11.1116
▁sakot	-11.1121
elma	-11.1123
▁ohjeita	-11.1127
▁sähköautojen	-11.1128
▁am	-11.1131
▁Kara	-11.1133
▁Neste	-11.1133
▁puolueet	-11.1133
uksille	-11.1133
▁turvapaikanhak	-11.1135
▁valitti	-11.1139
tavissa	-11.1143
▁Bor	-11.1147
▁huolet	-11.1147
ajon	-11.1148
ney	-11.1149
pisteen	-11.1151
▁sanottuna	-11.1152
▁politiikassa	-11.1153
▁pimeä	-11.1154
▁Erika	-11.1165
kohde	-11.1165
▁viettävä	-11.1166
▁legenda	-11.1169
▁tutut	-11.1169
▁yltä	-11.1169
▁Oppositio	-11.117
hal	-11.1171
▁Tarkka	-11.1172
kova	-11.1174
ellään	-11.1175
ytyy	-11.1176
▁kassa	-11.1176
▁harkitse	-11.1179
suutta	-11.1182
miehenä	-11.1186
▁taitava	-11.1186
▁Blinken	-11.1186
▁Marraskuu	-11.1186
▁debytoi	-11.1186
▁silminnäkijä	-11.1186
▁Mirror	-11.1186
▁miehellä	-11.1186
▁halutessaan	-11.1186
▁lähemmäs	-11.1186
▁Yritykse	-11.1186
▁ratkea	-11.1186
▁Jersey	-11.1186
▁Serbia	-11.1186
▁hintojen	-11.1187
▁lisääntynyt	-11.1187
▁viereen	-11.1187
▁Paikalle	-11.1187
▁olkapää	-11.1187
▁Vihreiden	-11.1187
▁Perez	-11.1188
loissa	-11.1188
▁vaarallista	-11.1189
▁näytteli	-11.1189
▁laajentu	-11.119
▁kohdistunut	-11.1191
▁asukkaan	-11.1191
▁Cityn	-11.1193
eiden	-11.1194
▁Uima	-11.1195
▁sanottiin	-11.1195
▁äänen	-11.1195
utensa	-11.1196
▁tutustui	-11.1196
▁tuottama	-11.1196
▁Del	-11.1198
▁henkisesti	-11.1198
▁fyysisesti	-11.1198
▁Kut	-11.1199
elmi	-11.12
▁kantaman	-11.1201
lähetys	-11.1201
▁samat	-11.1204
52	-11.1204
kom	-11.1205
▁koulutukse	-11.1205
▁tilaisuuden	-11.1205
tuli	-11.1206
▁suurempaa	-11.1206
▁kuljetus	-11.1207
▁kirjattiin	-11.1207
tietä	-11.1207
▁tasaisesti	-11.1208
▁jännittävä	-11.1208
▁Holm	-11.1209
harjoituksi	-11.121
▁Gazaan	-11.1211
tallin	-11.1213
▁konkari	-11.1214
▁mökin	-11.1216
vaihdon	-11.1217
▁tahti	-11.1218
▁heikentä	-11.1218
▁Expressen	-11.122
isuuteen	-11.1221
elu	-11.1223
jensa	-11.1224
▁88	-11.1227
▁käyttämi	-11.1227
lapsi	-11.123
▁lopet	-11.123
▁kiinnitti	-11.123
▁kehitt	-11.1232
ota	-11.1233
dor	-11.1234
▁maksavat	-11.124
▁viimeiseksi	-11.124
nauha	-11.1241
▁komissio	-11.1241
+4	-11.1242
▁raskaana	-11.1244
▁karva	-11.1247
▁tärkei	-11.1248
▁Eläin	-11.1248
▁tukemi	-11.1248
▁elossa	-11.1248
▁Veli	-11.1249
▁rekisteröi	-11.1249
▁silloise	-11.125
▁runsaat	-11.125
49	-11.1251
▁esittävä	-11.1253
▁mus	-11.1254
▁Kerro	-11.1256
▁Pauli	-11.1258
▁kannusta	-11.1264
▁sulkeutu	-11.1265
hakemuksen	-11.1266
▁tuomitu	-11.1269
lämpö	-11.1269
▁terä	-11.1274
vaiheeseen	-11.1274
iso	-11.1275
isenä	-11.1275
lause	-11.1279
▁panna	-11.1282
▁tosiasia	-11.1284
▁jääkiekkoa	-11.1285
▁McDavid	-11.1285
▁suomeksi	-11.1285
▁kohdalle	-11.1285
▁Yleisradio	-11.1286
▁Jokerit	-11.1286
▁ennakkosuosikki	-11.1286
▁odota	-11.1286
▁protesti	-11.1286
▁liittovaltio	-11.1286
▁Aikuis	-11.1287
vieraiden	-11.1287
asiantuntijoiden	-11.1287
▁nähneet	-11.1288
▁edustajainhuone	-11.1288
▁liuku	-11.1288
▁itku	-11.1288
▁hengissä	-11.1289
▁törmä	-11.129
ttävää	-11.129
valtaa	-11.1291
usko	-11.1293
parlamentaarikko	-11.1293
kehitys	-11.1294
▁taipui	-11.1294
▁tuntenut	-11.1295
▁ennustetaan	-11.1295
▁istunto	-11.1296
▁Summanen	-11.1296
▁kilpailee	-11.1298
▁menettely	-11.1299
rakennuksen	-11.1299
Suomi	-11.1299
▁hauta	-11.1302
▁kamppail	-11.1302
sken	-11.1302
mos	-11.1303
▁yksittäisiä	-11.1303
▁ID	-11.1303
▁2030	-11.1304
▁Top	-11.1306
▁tiivistää	-11.1306
näytte	-11.1306
ökkä	-11.1306
▁pelattava	-11.1307
▁kasvo	-11.1307
▁Santa	-11.1308
▁uhan	-11.1309
ennettu	-11.1311
pisteet	-11.1312
turnaukseen	-11.1313
eks	-11.1313
▁j	-11.1315
▁kilpailuun	-11.1315
▁Toisella	-11.1318
▁1,8	-11.1321
▁evä	-11.1322
▁Cas	-11.1322
▁tutuksi	-11.1322
talous	-11.1323
▁Hall	-11.1324
▁ajama	-11.1324
▁kehon	-11.1325
▁tapahtumiin	-11.1328
▁rangaistusta	-11.1329
▁Mahdolli	-11.1331
▁Jaakkola	-11.1332
▁(5	-11.1333
▁mopo	-11.1335
▁Dia	-11.1336
▁vaaran	-11.1337
▁Williamin	-11.1337
▁varmista	-11.1339
▁lisätty	-11.134
▁Tuki	-11.1342
▁tapahtumaa	-11.1343
heitto	-11.1344
2022	-11.1344
▁Bill	-11.1345
▁konkurssiin	-11.1345
2:	-11.1347
suunnittelija	-11.1347
näyte	-11.1348
08	-11.1352
▁Venäjään	-11.1355
▁parempaan	-11.1356
▁arkisto	-11.1357
▁pyrkivät	-11.1358
sessä	-11.1359
▁turvallisuude	-11.136
▁lopettamis	-11.1361
▁aj	-11.1361
▁käsittelevä	-11.1364
▁ilmaisi	-11.1366
seuraa	-11.1366
▁22,	-11.1367
gaala	-11.1368
▁vakavaa	-11.1369
▁Spe	-11.1371
ampumis	-11.1373
▁valtakunnan	-11.1374
▁viiva	-11.1378
allo	-11.1381
▁päivien	-11.1381
▁sähköä	-11.1383
▁oikeassa	-11.1384
▁Hockey	-11.1385
▁Maaliskuu	-11.1385
▁Stoltenberg	-11.1385
▁Vancouver	-11.1385
▁merkeissä	-11.1385
▁Harald	-11.1385
▁värvä	-11.1385
▁terrorismi	-11.1386
▁Ikonen	-11.1386
▁1996	-11.1386
uska	-11.1387
▁asukkaita	-11.1387
▁söi	-11.1387
▁nauru	-11.1387
▁elinvoima	-11.1388
▁ottaneet	-11.1388
▁sormi	-11.1388
▁Danny	-11.1388
▁Silvia	-11.1388
▁esiintyä	-11.1388
▁Manner	-11.1388
▁tervehti	-11.1389
▁käytettävä	-11.139
▁cm	-11.1391
▁valitsee	-11.1391
▁merkitty	-11.1391
▁Vaara	-11.1394
kaupoissa	-11.1394
▁tielle	-11.1395
▁leikata	-11.1396
▁Anu	-11.1396
▁rakenne	-11.1398
▁käänsi	-11.1398
▁tuoreen	-11.1399
Q	-11.14
tarha	-11.14
▁tunnusta	-11.1401
vall	-11.1402
▁lainsäädännö	-11.1403
tumisen	-11.1403
▁tulevaa	-11.1404
▁kirjassaan	-11.1404
▁hehkutti	-11.1404
▁tyyty	-11.1405
▁kolmella	-11.1406
▁löysivät	-11.1407
▁autonsa	-11.1408
▁Valkoise	-11.1409
▁väitetty	-11.141
yrityksi	-11.1412
▁yh	-11.1414
▁valiokunta	-11.1417
▁kuvasta	-11.1418
▁kaupunginjohtaj	-11.1419
▁piirissä	-11.142
▁Eurooppaa	-11.1423
▁Luko	-11.1424
▁korkean	-11.1424
puut	-11.1424
▁kuulustelu	-11.1425
▁aihetta	-11.1426
▁kohtuu	-11.1426
▁muistu	-11.1429
jalka	-11.1431
▁21,	-11.1432
mais	-11.1435
▁eteläise	-11.1437
▁nauttii	-11.1438
▁henkilöauton	-11.1444
valiokunnassa	-11.1444
▁eurovaali	-11.1445
talouden	-11.1447
▁tarinan	-11.1449
▁julkaisemassa	-11.1453
▁edellyttä	-11.1454
6)	-11.1457
▁Tori	-11.1458
▁uinti	-11.146
▁Tiedottee	-11.146
▁hidastu	-11.146
▁Maanantai	-11.1464
▁harki	-11.1469
kymmenen	-11.1472
▁Ylellä	-11.1473
▁treenaa	-11.1473
▁Lontoon	-11.1474
tuloksen	-11.1477
▁kerä	-11.1479
kier	-11.1479
▁herää	-11.148
▁Amaz	-11.1484
▁Kulttuuri	-11.1486
▁kolmantena	-11.1486
▁paikallinen	-11.1486
▁päinvastoin	-11.1486
▁vähitellen	-11.1486
kuningattar	-11.1486
yhdysvaltalainen	-11.1486
▁Russell	-11.1486
▁Mäenpää	-11.1486
▁Miehet	-11.1486
▁erinomainen	-11.1486
▁Haluamme	-11.1487
▁heijastu	-11.1487
▁laajemmin	-11.1487
▁Antonio	-11.1487
▁tulevaisuutta	-11.1488
▁muualta	-11.1488
▁Zuma	-11.1488
▁Bottaksen	-11.1488
▁tuoreeltaan	-11.149
▁osoittanut	-11.149
▁Sie	-11.1492
▁+1	-11.1492
▁kukisti	-11.1494
▁Keväällä	-11.1494
▁Näissä	-11.1495
▁tiiviisti	-11.1496
▁Raimo	-11.1496
▁Kaikke	-11.1496
liivi	-11.1497
vuosina	-11.1499
viikonloppu	-11.1502
▁syömään	-11.1503
kalusto	-11.1503
▁Paju	-11.1504
▁lähetetty	-11.1504
▁Inari	-11.1504
▁pitkästä	-11.1507
cen	-11.1507
▁Tarjo	-11.1508
▁kohtasivat	-11.1508
dro	-11.151
▁kokevat	-11.151
▁yrittivät	-11.1513
▁vaihde	-11.1514
▁muo	-11.1516
▁kaupungista	-11.1517
▁Alma	-11.1519
▁tulen	-11.152
Hallberg	-11.1521
▁san	-11.1521
▁hidasta	-11.1521
▁selvit	-11.1522
▁yritystä	-11.1524
▁kaupunkia	-11.1524
▁Viimeisen	-11.1526
palkinno	-11.1527
pak	-11.1528
▁kuule	-11.1529
cher	-11.1529
▁Sveitsissä	-11.153
▁Summa	-11.1531
▁Heli	-11.1532
ttajia	-11.1533
autoja	-11.1534
itto	-11.1534
▁varhaiskasvatu	-11.1534
▁perinne	-11.1536
ikolla	-11.1537
▁Kaupa	-11.1538
sissä	-11.1538
▁jätetty	-11.1539
▁moka	-11.1539
▁yhdistä	-11.154
vyyttä	-11.1543
▁tappion	-11.1544
▁jät	-11.1544
▁kuuluisa	-11.1545
7-	-11.1546
ippa	-11.1547
▁tukevat	-11.1548
rg	-11.1551
▁Ravi	-11.1554
hakemus	-11.1554
▁Suomalaiste	-11.1554
▁kutsuu	-11.1555
▁hoitaja	-11.1556
▁edu	-11.1558
ttamisen	-11.1558
▁hyväksyttävä	-11.1558
arvon	-11.1559
▁suoraa	-11.1559
▁Perjantai	-11.1563
▁kasvavat	-11.1563
▁tapahtumassa	-11.1564
▁luottamusta	-11.1566
desta	-11.1566
tilaisuuksi	-11.1567
▁purkaa	-11.1568
▁halusivat	-11.1571
▁palauttaa	-11.1571
▁Erityise	-11.1575
tuksella	-11.1578
▁synkkä	-11.1578
▁huomaut	-11.1581
▁tiedän	-11.1581
▁vanhempia	-11.1584
kkaiden	-11.1584
▁Angel	-11.1586
kkaus	-11.1586
ylä	-11.1587
▁nimeltä	-11.1587
lapse	-11.1588
р	-11.1588
▁Kuljettaja	-11.1588
▁Ratkaisu	-11.1588
▁ehdolle	-11.1588
▁kokaiini	-11.1588
▁korruptio	-11.1588
▁lähistöllä	-11.1588
▁rattijuopumukse	-11.1588
▁Lämsä	-11.1588
▁Pakarinen	-11.1588
▁rakkautta	-11.1588
▁taloudellisi	-11.1588
▁Walesin	-11.1588
▁ulkopuolise	-11.1589
▁lounas	-11.1589
▁Vakio	-11.1589
▁väärää	-11.1589
▁tulevaisuudesta	-11.1589
▁katkesi	-11.1589
▁kirjoitettu	-11.159
01	-11.159
▁Väi	-11.1591
▁pettynyt	-11.1591
▁näyttämään	-11.1592
▁tavannut	-11.1593
▁linjoilla	-11.1593
▁huonoa	-11.1593
▁rikokseen	-11.1594
▁tuohon	-11.1595
▁Toiminta	-11.1596
▁vaikuttamaan	-11.1596
▁surullinen	-11.1597
taisto	-11.1598
▁Kanso	-11.1599
▁Kumpik	-11.1601
▁päätynyt	-11.1601
▁vastaavi	-11.1601
▁täytti	-11.1602
torjunta	-11.1603
juontaja	-11.1604
▁ohjelmaa	-11.1605
▁sairaalasta	-11.1608
sco	-11.1608
▁Johan	-11.1608
oppaa	-11.1608
▁Huono	-11.1608
▁käteen	-11.161
▁pannu	-11.161
▁sanomaan	-11.1611
▁opettaji	-11.1613
▁herättävä	-11.1614
mää	-11.1617
▁kuollee	-11.1618
▁pizza	-11.1621
▁Minja	-11.1622
▁työmaa	-11.1622
▁investoi	-11.1629
lakka	-11.163
veden	-11.1631
▁Tri	-11.1631
▁valitus	-11.1632
▁tosiaan	-11.1633
kelpois	-11.1636
▁ammuttu	-11.1638
mpään	-11.1639
▁aloittanee	-11.164
kappaleen	-11.1642
▁Palm	-11.1642
heimo	-11.1644
▁seikkailu	-11.1645
▁tukemaan	-11.1645
tuote	-11.1646
▁13-	-11.1649
▁Toise	-11.1651
ilijat	-11.1651
▁teosta	-11.1653
kankaan	-11.1653
valtuusto	-11.1653
▁veli	-11.1654
▁Lista	-11.1656
▁rahoja	-11.1656
▁porukka	-11.1657
▁sektori	-11.1662
puoliso	-11.1663
cia	-11.1664
▁Tornion	-11.1664
▁finaalin	-11.1669
▁edustama	-11.167
▁nähtävä	-11.1671
ksestä	-11.1672
tymään	-11.1672
▁Rod	-11.1672
▁Mad	-11.1672
▁pitkäaikais	-11.1673
juoksija	-11.1673
hoitoa	-11.1675
▁suurempia	-11.1679
▁vajaan	-11.168
▁ylitti	-11.1681
▁Ber	-11.1683
ajia	-11.1686
ttajien	-11.1688
▁pyydetään	-11.1692
▁radikaali	-11.1692
▁suunnilleen	-11.1692
▁Matintalo	-11.1692
▁teoria	-11.1692
▁Tehtävä	-11.1692
▁sorme	-11.1692
▁selvitetään	-11.1693
▁itseäni	-11.1693
▁Hakola	-11.1694
▁ylioppilas	-11.1695
▁Perry	-11.1696
▁vesistö	-11.1697
mestaruutta	-11.1697
▁laitetaan	-11.1697
▁vastaise	-11.1698
▁Juu	-11.1698
▁aiheuttaneet	-11.1698
▁Lämpötila	-11.1698
▁hitaasti	-11.1698
▁Avaus	-11.1698
▁Anti	-11.1699
▁Kirkko	-11.17
▁aluksen	-11.1701
▁pystytään	-11.1701
▁sanaa	-11.1701
▁hyväksynyt	-11.1701
▁leiki	-11.1702
▁Kaarle	-11.1702
▁neuvonantaja	-11.1703
voittoon	-11.1704
▁symboli	-11.1705
▁Hotelli	-11.1705
▁Salmisen	-11.1705
▁ainut	-11.1706
tajia	-11.1706
▁Alus	-11.1706
dissa	-11.1706
▁asiakkaan	-11.1707
▁Tiktokissa	-11.1708
wer	-11.1709
Me	-11.1709
▁kiitti	-11.1709
rus	-11.171
▁jatkanut	-11.1712
▁ohjuksia	-11.1714
▁Laji	-11.1715
▁ilmatila	-11.1715
▁suunnitelmia	-11.1716
▁avautui	-11.1716
▁listaa	-11.1717
▁haavoittui	-11.1717
▁Korte	-11.1718
malleja	-11.1719
▁Ministeriö	-11.172
▁seurakunta	-11.1722
▁perustettu	-11.1723
areenan	-11.1724
▁tyttären	-11.1728
▁Mou	-11.173
▁puuha	-11.1731
4)	-11.1731
▁parane	-11.1731
▁nostamaan	-11.1735
Stubbin	-11.1735
kortin	-11.1737
▁sisäpiiri	-11.174
▁jakelu	-11.1741
▁Yleis	-11.1741
▁nolo	-11.1742
ttömiä	-11.1742
paperi	-11.1742
▁Slovakia	-11.1743
▁merkittävän	-11.1745
▁aido	-11.1746
▁ajasta	-11.1748
▁Elisa	-11.1749
▁näkemyksiä	-11.175
▁termi	-11.1753
▁Hans	-11.1754
▁virasto	-11.1755
▁hiero	-11.1755
▁Henrik	-11.1757
▁dokumentti	-11.1759
▁hidas	-11.176
32	-11.176
▁energian	-11.1761
kart	-11.1762
▁aseiden	-11.1763
kaudet	-11.1765
▁ruumii	-11.1769
▁antamassa	-11.1771
▁varmaa	-11.1771
▁Kauko	-11.1772
selvityks	-11.1772
▁kierrä	-11.1775
leikkauksi	-11.1777
▁useamma	-11.1781
imet	-11.1782
▁pelkkää	-11.1785
▁Green	-11.1786
▁tapahtumaan	-11.1786
▁urhe	-11.1787
▁huolen	-11.1788
▁myrky	-11.1789
▁kansanedustajan	-11.179
▁tukija	-11.1791
46	-11.1792
töntä	-11.1793
▁valitu	-11.1793
vuotiaalle	-11.1796
▁siirrettiin	-11.1796
▁vaihtelee	-11.1796
▁Gabriel	-11.1796
▁edisty	-11.1796
▁vieraille	-11.1796
▁tavallinen	-11.1796
▁Lewis	-11.1796
▁varsinainen	-11.1796
ryhmässä	-11.1797
▁aiheutunut	-11.1798
est	-11.1798
▁Valtaosa	-11.1798
viiko	-11.1799
▁Jalosen	-11.18
▁roikku	-11.18
▁tuotteen	-11.1803
▁Vappu	-11.1803
▁satojen	-11.1804
▁esitettiin	-11.1804
▁3-2	-11.1806
varuste	-11.1806
▁edullise	-11.1806
▁Annika	-11.1807
▁harvinaise	-11.1807
johtaj	-11.1808
peleihin	-11.181
▁kohdistuvat	-11.1812
▁päihde	-11.1812
▁paineita	-11.1813
kaappi	-11.1814
▁9-	-11.1814
osuma	-11.1816
▁sääntöjä	-11.1817
▁palkinnon	-11.1817
▁Ouluun	-11.182
▁perustu	-11.182
-23	-11.1821
▁tunteja	-11.1822
▁hyökkää	-11.1823
▁1,2	-11.1823
▁rento	-11.1825
▁kartoi	-11.1825
▁86	-11.1825
▁lääkkeitä	-11.1829
nnoissa	-11.183
▁urheilijoita	-11.1831
autolla	-11.1832
▁häiritse	-11.1835
▁tiensä	-11.1835
sataa	-11.1836
▁Kaikkien	-11.1836
leet	-11.1837
▁miljoonia	-11.1841
osiossa	-11.1841
▁tällaiset	-11.1842
▁parhaita	-11.1842
▁mediaan	-11.1843
▁Haukio	-11.1845
▁salamurhayrity	-11.1846
▁Swift	-11.1848
▁rajoittaa	-11.1848
▁tärkeänä	-11.1848
▁Mir	-11.1849
▁kierto	-11.1852
▁kovat	-11.1852
▁profiili	-11.1853
!"	-11.1854
▁vankilaan	-11.1854
kunnasta	-11.1854
laisille	-11.1854
▁Mia	-11.1855
▁poliitiko	-11.1856
▁kohteita	-11.1856
▁keskiviikkoilta	-11.1857
▁matsi	-11.1858
▁paluuta	-11.1858
▁odottavat	-11.186
▁laadu	-11.1861
▁Lauantai	-11.1862
▁kuukausien	-11.1863
eltiin	-11.1863
▁Alko	-11.1864
▁tajusi	-11.1864
päällikkönä	-11.1867
▁demokratia	-11.1867
▁varsinaisen	-11.1867
▁stressi	-11.1868
▁käynnisty	-11.1871
harjoitus	-11.1871
-17	-11.1872
TA	-11.1872
▁poistettu	-11.1872
07	-11.1876
▁parempia	-11.1877
▁salamurha	-11.1879
syyt	-11.188
▁kirkas	-11.188
naisen	-11.1884
▁Instagramin	-11.1884
▁Kr	-11.1885
▁kunnosta	-11.1885
▁lämmittä	-11.1885
pri	-11.1886
▁arvoinen	-11.1889
ttäneet	-11.1889
▁hyväkseen	-11.1893
▁aloittami	-11.1894
▁ammati	-11.1895
▁kohtuullise	-11.1895
ajasta	-11.1896
oksia	-11.1897
karsinta	-11.1898
▁maita	-11.1901
▁Katariina	-11.1901
▁Tukholman	-11.1901
▁iloitsee	-11.1901
▁Energia	-11.1901
▁Heliövaara	-11.1901
▁fiksu	-11.1901
▁Cruz	-11.1901
▁jäljiltä	-11.1901
▁Hieman	-11.1901
▁levinnyt	-11.1901
▁Terveyden	-11.1901
▁kuulemma	-11.1901
▁ensisijaisesti	-11.1901
▁pidempi	-11.1901
▁sisustus	-11.1902
▁otsikoihin	-11.1902
▁tavallisi	-11.1902
▁Liitto	-11.1903
yksikön	-11.1903
▁suorat	-11.1905
▁iässä	-11.1905
▁iskenyt	-11.1907
▁hallitukse	-11.1908
▁Erkki	-11.1909
▁yrittävät	-11.1909
▁osoittavat	-11.1909
▁tehokkaa	-11.1911
▁lähialue	-11.1912
Marit	-11.1915
▁hoidon	-11.1916
▁päivät	-11.1916
▁Br	-11.1916
▁Tällaist	-11.1917
▁meiltä	-11.1917
▁Laita	-11.1919
▁pystyä	-11.192
▁Emilia	-11.192
ainetta	-11.192
energia	-11.192
artisti	-11.1921
kerroin	-11.1921
yliopisto	-11.1921
kiekkoilija	-11.1921
rahoitus	-11.1922
ruokaa	-11.1922
▁valmistunut	-11.1924
▁IFK	-11.1924
▁julkinen	-11.1926
▁samanlainen	-11.1927
peleissä	-11.1928
▁Valta	-11.1929
▁psykiatri	-11.1929
laakso	-11.1929
tuottee	-11.1931
kierroks	-11.1934
▁aste	-11.1934
▁luokka	-11.1935
tiikka	-11.1938
▁aamuna	-11.194
▁kehuja	-11.194
▁pysäyttää	-11.194
tapahtumassa	-11.1941
▁vakavan	-11.1943
▁Jack	-11.1943
▁perustama	-11.1943
joukkueessa	-11.1945
▁asiakirja	-11.1946
▁kylmi	-11.1947
▁lähtisi	-11.1947
lajien	-11.1948
▁tapasivat	-11.1948
▁Vilma	-11.1949
▁poikkeava	-11.195
ung	-11.195
tim	-11.195
▁Netflix	-11.1954
ministerinä	-11.1954
johdon	-11.1955
▁140	-11.1958
fani	-11.1958
▁näyttä	-11.1958
▁turhan	-11.196
▁tuhoutui	-11.196
jätti	-11.1961
▁saadakseen	-11.1963
▁kasaan	-11.1964
▁kenraali	-11.1965
▁kalenteri	-11.1965
▁Liettua	-11.1969
▁hermostu	-11.1974
▁Venäläise	-11.1975
▁Bess	-11.1977
▁tappaa	-11.1982
▁Keho	-11.1982
puri	-11.1988
▁Lisä	-11.1989
▁tiedosta	-11.1991
▁top	-11.1991
▁epäonnistui	-11.1992
maksuja	-11.1992
▁erolla	-11.1996
korva	-11.1996
▁luontee	-11.2002
▁Dallasin	-11.2006
▁flunssa	-11.2007
▁jälkikäteen	-11.2007
▁tykistö	-11.2007
▁keihäs	-11.2007
▁Baltian	-11.2007
▁kanadalais	-11.2007
▁lentää	-11.2008
▁Archie	-11.2008
▁Roomassa	-11.2008
▁semifinaali	-11.2008
▁Linnea	-11.2008
▁korot	-11.2008
▁vuodenvaihtee	-11.2008
▁tehtävänä	-11.2009
▁maisteri	-11.2009
▁lastensuojelu	-11.2009
▁kerätä	-11.201
▁valinnut	-11.201
▁edellisestä	-11.2011
▁suunnan	-11.2012
▁pitkää	-11.2012
▁vaka	-11.2012
▁samanlaista	-11.2012
sodan	-11.2013
▁Tietysti	-11.2013
▁prosenttiyksikö	-11.2014
▁Helmi	-11.2015
▁Over	-11.2015
▁lastensa	-11.2015
▁henkilökunnan	-11.2016
alueita	-11.2016
▁suosittelee	-11.2017
▁nauttimaan	-11.2017
▁horju	-11.2017
▁venäläisiä	-11.2017
▁kauppakeskus	-11.2018
▁Heinonen	-11.2018
▁Lapsen	-11.202
▁Junnila	-11.202
▁KalPan	-11.2021
▁laajan	-11.2021
▁liikkuva	-11.2022
▁Kansalais	-11.2022
▁auttanut	-11.2022
▁pelasti	-11.2025
▁käydy	-11.2025
rik	-11.2026
▁katk	-11.2026
Video	-11.2028
välittäjä	-11.2031
▁saarella	-11.2031
finaal	-11.2033
▁viestissä	-11.2034
dosta	-11.2034
▁ateria	-11.2036
▁paikoissa	-11.2037
rallin	-11.2038
▁paikallisia	-11.2038
▁x	-11.2042
▁laitettu	-11.2042
pankki	-11.2044
▁johtaji	-11.2044
▁valituksi	-11.2046
▁näyttöä	-11.2047
ingin	-11.2048
neessa	-11.2048
kentän	-11.2049
▁Rata	-11.2049
▁tutkimuksi	-11.2049
▁valikoima	-11.2053
Vantaan	-11.2054
uudistuksen	-11.2055
▁sijoitukse	-11.2056
▁Tampa	-11.2057
▁palamaan	-11.2058
▁hoiva	-11.2058
▁Kymmen	-11.2061
nimellä	-11.2063
▁4-2	-11.2064
yhä	-11.2064
▁soitto	-11.2065
ovin	-11.2066
▁jakama	-11.2067
stetään	-11.2067
▁jouduttu	-11.2067
▁rock	-11.2069
▁vaisu	-11.207
▁alkamis	-11.2071
▁Syyriassa	-11.2071
▁Brand	-11.2073
▁toimitus	-11.2075
▁tahtiin	-11.2075
▁vahinko	-11.2077
olin	-11.2077
tielle	-11.2077
▁näytös	-11.2077
▁konservatiivi	-11.2078
▁tuomiosta	-11.208
▁tähdet	-11.2084
▁pakote	-11.2085
▁Hag	-11.2086
▁näkymin	-11.2087
▁laatua	-11.2087
▁kaupassa	-11.2091
▁tehtävästä	-11.2092
▁kolmesti	-11.2092
▁valoa	-11.2093
▁Linda	-11.2096
jäsenyyttä	-11.2098
▁ulottu	-11.2098
▁tekniikka	-11.21
▁Fors	-11.2101
▁PS	-11.2104
skele	-11.2104
pelaajan	-11.2104
▁Markkasen	-11.2105
▁housu	-11.2106
▁romahta	-11.2108
▁yksikään	-11.2111
▁pahoin	-11.2111
▁Kouvolan	-11.2112
▁voittajaksi	-11.2112
▁epäili	-11.2113
▁tarjous	-11.2115
▁America	-11.2115
▁kolumni	-11.2115
▁nähtävissä	-11.2115
▁sukupolvi	-11.2115
▁tapahdu	-11.2115
▁henkilökohtaisi	-11.2115
▁Ympäristö	-11.2115
▁pituus	-11.2115
▁harvinaista	-11.2115
▁huikea	-11.2115
tulehduks	-11.2115
rallissa	-11.2115
▁rooliin	-11.2116
▁keskittyvä	-11.2116
▁1997	-11.2116
▁käytettävissä	-11.2116
▁Tony	-11.2117
leh	-11.2118
▁välttämään	-11.2118
▁vaarantamisesta	-11.2118
▁ottavat	-11.212
▁Temp	-11.212
▁tippu	-11.2122
▁ylivoimaisesti	-11.2123
▁työllistä	-11.2123
▁32,	-11.2124
▁aikuisen	-11.2126
▁Tasa	-11.2126
▁kiristä	-11.2127
▁ajanjakso	-11.2127
▁luvannut	-11.2127
▁keskusteluja	-11.2128
▁Uutta	-11.2129
ttämässä	-11.213
tes	-11.2131
▁Lar	-11.2131
▁Ele	-11.2131
▁lepo	-11.2132
▁räppäri	-11.2133
imma	-11.2134
pila	-11.2135
poliitikko	-11.2136
37	-11.2137
Suomeen	-11.2137
▁Rantasen	-11.2138
▁Pertti	-11.2138
varoitus	-11.2138
▁hämmentävä	-11.2139
▁toiste	-11.2142
blo	-11.2142
▁julkaistaan	-11.2142
▁arvioitiin	-11.2144
▁Kysy	-11.2144
▁liikkumis	-11.2144
▁jatkua	-11.2144
▁tärkeimmä	-11.2146
käytön	-11.2147
▁Hautala	-11.2149
▁suosituin	-11.215
▁Vesala	-11.2153
▁tulipalon	-11.2155
▁Vol	-11.2155
▁vanhin	-11.2156
▁Sanoma	-11.2158
mylly	-11.2159
▁Messi	-11.2164
▁Kyl	-11.2167
▁haava	-11.2168
▁teitä	-11.2168
▁tunteet	-11.2168
▁Muistan	-11.2168
▁Tuominen	-11.2169
▁raskaan	-11.217
▁tekemi	-11.217
▁Liverpool	-11.217
▁kansanedustajat	-11.2171
▁Uudessa	-11.2172
▁You	-11.2173
out	-11.2174
▁poliittiset	-11.2176
▁neljänne	-11.2177
haastattelu	-11.2178
vaihte	-11.2178
▁tuoli	-11.2179
▁Kansallis	-11.218
ilevat	-11.2182
way	-11.2183
omista	-11.2184
ttelemään	-11.2184
▁kukin	-11.2186
▁menevä	-11.2186
▁kasvis	-11.2186
▁vastassa	-11.2187
▁pyöräily	-11.2187
ominaisuuksi	-11.2189
tehtaan	-11.2191
ärje	-11.2191
▁vartalo	-11.2194
▁Keskinen	-11.2194
▁nau	-11.2197
▁jaettiin	-11.2198
luoma	-11.2199
tappion	-11.22
▁kotinsa	-11.2201
▁firma	-11.2201
seremonia	-11.2202
mppu	-11.2203
▁24-	-11.2203
▁kertaakaan	-11.2203
▁tuomioistuime	-11.2205
▁unohtaa	-11.221
▁vakuutus	-11.221
ish	-11.2211
▁Ivan	-11.2212
▁tappiota	-11.2215
jäsenyys	-11.2217
▁seurustel	-11.2221
onnettomuuksi	-11.2222
▁piiriin	-11.2223
kruununprinsessa	-11.2224
▁Anthony	-11.2224
▁Bryggare	-11.2224
▁Buffalo	-11.2224
▁Business	-11.2224
▁Lepistö	-11.2224
▁Yhdysvaltoja	-11.2224
▁aamuyöllä	-11.2224
▁lemmikki	-11.2224
▁risteyksessä	-11.2224
▁vanhojen	-11.2224
▁Kukkonen	-11.2224
▁sinulle	-11.2224
▁rangaistuspotku	-11.2224
▁pahimma	-11.2224
henkilökohtainen	-11.2224
isoi	-11.2224
▁vinkkaa	-11.2225
▁kautensa	-11.2225
▁kustannuksia	-11.2226
▁halunneet	-11.2226
ikäisen	-11.2226
valmentaj	-11.2227
▁virheellisesti	-11.2228
▁Atlanti	-11.2228
▁pelaajille	-11.2229
▁olu	-11.223
▁Intian	-11.2231
ettaisiin	-11.2232
▁mauste	-11.2235
▁todennut	-11.2236
▁prikaati	-11.2236
tilannetta	-11.2237
▁tutkinnassa	-11.2238
empana	-11.2242
▁politiikka	-11.2242
▁pohtimaan	-11.2242
65	-11.2242
▁taloudellista	-11.2243
▁toivon	-11.2243
▁sotilaat	-11.2244
koru	-11.2245
▁seurauksia	-11.2245
firma	-11.2248
pelejä	-11.2248
▁ur	-11.2249
▁Lasse	-11.2249
▁Aston	-11.225
▁repi	-11.225
▁Rau	-11.2251
▁ystävät	-11.2253
▁yhteistyön	-11.2254
▁julkaisussa	-11.2254
AS	-11.2255
juoma	-11.2255
▁pisteeseen	-11.2257
▁Liperin	-11.2258
▁naura	-11.226
▁turnauksessa	-11.226
▁naama	-11.226
▁majoitus	-11.2261
▁jäsenmaa	-11.2261
▁Aro	-11.2262
▁Muista	-11.2264
▁laivan	-11.2265
▁jokaisella	-11.2265
henkinen	-11.2266
iteetti	-11.2266
▁into	-11.2267
▁Kolmen	-11.2268
demokraattien	-11.227
▁asetelma	-11.2271
▁omalle	-11.2272
▁harrastaa	-11.2272
▁Leyen	-11.2274
▁albumi	-11.2278
▁kummi	-11.2279
▁kysyntää	-11.228
▁Vero	-11.228
▁pudot	-11.2282
▁Onni	-11.2282
▁Saksaan	-11.229
44	-11.2293
▁markkinoille	-11.2293
vuoto	-11.2294
▁Mö	-11.2294
kuvat	-11.2295
▁Schumacherin	-11.2295
▁kuluva	-11.2298
▁mahdollisena	-11.2299
03	-11.23
öitä	-11.2302
▁Palmu	-11.2304
▁vetoa	-11.2305
▁sov	-11.2307
▁27-	-11.2307
▁Selvi	-11.2307
▁raskasta	-11.2308
▁hyödyntä	-11.2309
▁vanhe	-11.2309
▁pitämä	-11.231
▁maksettava	-11.2313
▁varattu	-11.2313
▁keinoin	-11.2316
▁vale	-11.2319
tettyä	-11.2319
seurojen	-11.2319
▁Guardianin	-11.232
▁Marc	-11.2322
bal	-11.2323
▁yötä	-11.2323
▁ansaitse	-11.2324
▁toimintansa	-11.2324
▁juhlat	-11.2324
▁ilmaa	-11.2324
▁350	-11.2326
▁Ruka	-11.2326
▁väärän	-11.2327
yksissä	-11.2333
▁lukion	-11.2333
▁Chelsea	-11.2333
▁Jylhä	-11.2333
▁Urpilainen	-11.2333
▁johtuen	-11.2333
▁mahdottom	-11.2333
■	-11.2333
▁vetäytyi	-11.2333
▁hehtaari	-11.2334
▁avannut	-11.2334
▁ennemmin	-11.2334
▁Jokerien	-11.2334
▁polttomoottori	-11.2334
▁NBC	-11.2334
▁sairausloma	-11.2334
▁samoja	-11.2334
▁ny	-11.2334
▁enimmä	-11.2334
▁kenellekään	-11.2335
kuulu	-11.2335
opas	-11.2335
▁Joshua	-11.2335
▁Herola	-11.2336
▁ymmärtänyt	-11.2336
▁lähetettiin	-11.2336
▁Venla	-11.2336
▁olosuhtei	-11.2336
▁Pittsburgh	-11.2338
▁viimeiseen	-11.2338
▁varassa	-11.2339
▁valittaa	-11.2339
▁tuulivoima	-11.2339
PS	-11.234
▁Lund	-11.2341
▁Posti	-11.2342
▁vaihtoehtoa	-11.2342
ore	-11.2344
▁perheessä	-11.2344
IC	-11.2347
▁nuku	-11.2349
▁varaan	-11.235
▁Lindberg	-11.2351
▁punaisen	-11.2353
kuvissa	-11.2354
▁hoid	-11.2354
▁paska	-11.2356
▁lapsiperhe	-11.2357
▁lentäjä	-11.2357
katsomo	-11.2357
▁päätökset	-11.2358
vaihtoehto	-11.2359
▁aktiivise	-11.236
▁ilm	-11.2361
maissa	-11.2361
▁EK	-11.2362
silmä	-11.2364
▁ohjeista	-11.2365
osaston	-11.2365
▁tarjottu	-11.2367
▁Miele	-11.2367
▁toimenpiteitä	-11.2368
▁lähtöä	-11.2369
▁sanojens	-11.2369
▁loppukilpailu	-11.2369
▁Instagramiin	-11.237
▁Wol	-11.237
▁2-1-	-11.2371
▁teille	-11.2371
salon	-11.2371
▁Navalnyin	-11.2372
ryhmien	-11.2372
rikoksista	-11.2373
mbo	-11.2374
tellen	-11.2374
▁Varmaan	-11.2375
▁Kyy	-11.2375
▁71	-11.2375
kaupassa	-11.2377
▁täysillä	-11.2377
▁Isis	-11.2378
21	-11.2379
▁aita	-11.238
▁mahdollisuuksi	-11.2383
kaupunkiseudulla	-11.2384
▁veren	-11.2385
▁Suurimma	-11.2387
▁harha	-11.2387
▁hallussaan	-11.2388
pisteitä	-11.2388
mittari	-11.239
▁kritiikki	-11.2394
▁Hämeenlinna	-11.2394
arvoa	-11.2395
▁Belgia	-11.2396
▁Teho	-11.2396
▁ensimmäisi	-11.2397
▁vaadi	-11.2399
kuo	-11.2399
▁juokse	-11.2401
kohtia	-11.2402
▁Maili	-11.2403
listalla	-11.2405
▁Oja	-11.2407
otteluun	-11.2408
▁ajatuksen	-11.2416
▁Aira	-11.2416
▁nopein	-11.2417
▁järjestämis	-11.2418
▁vähäise	-11.2418
▁poliittist	-11.2419
▁Rovanperän	-11.2419
▁miellyttävä	-11.2419
▁viikkoja	-11.242
mallista	-11.242
mielis	-11.2422
▁uhkasi	-11.2422
▁Oulusta	-11.2431
▁Palestiinan	-11.2431
luoto	-11.2431
esityksen	-11.2433
▁Pohjan	-11.2433
tyvä	-11.2434
▁kuormi	-11.2438
▁kirkkaa	-11.2438
▁oiva	-11.2439
lman	-11.244
lämmö	-11.2442
▁Black	-11.2444
ø	-11.2445
▁valtakunnallise	-11.2445
▁FBI	-11.2445
▁Huhtikuu	-11.2445
▁Kläbo	-11.2445
▁euroviisu	-11.2445
▁maahanmuuttaja	-11.2445
▁pidemmälle	-11.2445
▁Club	-11.2445
▁osoitteeseen	-11.2445
▁esitutkinnassa	-11.2445
▁sairauden	-11.2445
▁kapea	-11.2446
▁tarvitsevat	-11.2446
▁asukkaiden	-11.2446
▁saatossa	-11.2446
▁turvin	-11.2448
maailmassa	-11.2449
▁kovalla	-11.2449
▁raskaus	-11.245
illään	-11.245
huuma	-11.245
pakki	-11.2454
▁pohjoiseen	-11.2454
▁vaikuttaja	-11.2454
▁etsimään	-11.2455
04	-11.2455
▁spekulaatio	-11.2456
▁monipuolis	-11.2458
▁tuntemattoma	-11.2459
▁järkeä	-11.2459
▁sisältävä	-11.2459
▁hengitys	-11.246
talossa	-11.246
▁Mistä	-11.246
▁pistä	-11.2463
▁erottaa	-11.2463
▁tutkia	-11.2465
tuuli	-11.2465
▁aikansa	-11.2466
▁erilaise	-11.2468
▁ilmoittivat	-11.2468
▁elämässään	-11.2469
uudistus	-11.247
&	-11.247
Saksa	-11.247
▁Ferrarin	-11.2471
▁oikeuksia	-11.2472
▁tuntematon	-11.2472
▁Punaise	-11.2474
▁poliisilla	-11.2475
▁selvillä	-11.2477
▁liittouma	-11.2477
▁koeajo	-11.248
▁silmät	-11.248
▁kustannus	-11.2484
▁Traficomin	-11.2484
▁jatkavat	-11.2486
▁Kahde	-11.2486
▁pysähtyi	-11.2487
▁31,	-11.2487
▁yleisurheilun	-11.2487
▁Salmi	-11.2487
Va	-11.2488
syys	-11.249
▁puolison	-11.249
▁ajoneuvon	-11.2492
▁kop	-11.2493
▁nopeutta	-11.2494
järjestöt	-11.2494
▁Atte	-11.2495
▁tarkoi	-11.2496
▁lopun	-11.2497
kaapeli	-11.2498
kannan	-11.25
ilevä	-11.2502
noin	-11.2505
▁Angeles	-11.2505
elokuvassa	-11.2508
▁Eivät	-11.2509
▁Kovi	-11.2509
▁paikalliset	-11.2511
Arabia	-11.2511
▁jaksaa	-11.2512
▁Olympiakomitea	-11.2512
▁Portugalin	-11.2513
▁pyörii	-11.2515
llisena	-11.2516
▁Newsin	-11.2517
▁Ruoho	-11.2518
▁Ser	-11.2521
▁Brad	-11.2521
▁järjestäjä	-11.2522
▁kiusaa	-11.2522
▁parhaista	-11.2524
▁vuorossa	-11.2526
▁areena	-11.2526
▁Avo	-11.2527
▁näkemä	-11.2528
▁tuhanne	-11.2528
▁huolehtia	-11.253
▁keskeyttä	-11.2531
▁illallis	-11.2533
▁ruuna	-11.2533
▁pakkasta	-11.2538
▁jättäyty	-11.2538
▁silmään	-11.2539
▁kirkka	-11.2541
hallissa	-11.2541
▁alaisen	-11.2541
▁tavoitteen	-11.2544
▁juure	-11.2546
▁nykyisi	-11.2546
▁87	-11.2548
alueiden	-11.2548
▁valitettava	-11.2548
▁menetys	-11.255
▁suoritti	-11.255
▁katoamis	-11.2551
kipu	-11.2553
ilmoituksen	-11.2553
▁taiteen	-11.2554
▁ely	-11.2555
▁maksimi	-11.2556
▁suju	-11.2556
н	-11.2557
pelaajat	-11.2557
▁Kuningatar	-11.2557
▁Puljujärve	-11.2557
▁ilmoitettiin	-11.2557
▁liikkunut	-11.2557
▁poliiseja	-11.2557
▁lausunnon	-11.2557
▁maksettu	-11.2557
▁erityinen	-11.2557
▁käänteen	-11.2557
▁rutiini	-11.2557
▁rikosilmoitus	-11.2558
▁tarkoitetaan	-11.2558
iltiin	-11.2558
▁apuvalmentaja	-11.2558
▁Luulen	-11.2558
▁Viihde	-11.2559
▁kuivu	-11.2559
▁moitti	-11.2559
▁Harkovan	-11.256
▁strategise	-11.256
▁uudenvuoden	-11.2561
▁Päävalmentaja	-11.2561
▁avaukse	-11.2562
▁ihanaa	-11.2562
▁itsemurha	-11.2564
▁Hetke	-11.2564
▁houkutteleva	-11.2567
▁yhteiskunna	-11.2567
▁osunut	-11.2567
huoneessa	-11.2568
▁maailmaan	-11.2569
▁tulevaisuuteen	-11.2569
▁voiko	-11.2573
▁ulkopolitiika	-11.2573
▁4-3	-11.2574
▁jonkinlainen	-11.2574
▁koettiin	-11.2577
▁tulokseen	-11.2577
▁pudotuspelien	-11.2578
llisyys	-11.258
▁Mikkel	-11.258
▁onnettomuudesta	-11.258
▁Lukija	-11.258
▁Riski	-11.2581
▁raiskauksesta	-11.2581
▁Vuode	-11.2581
▁maakunta	-11.2582
▁kont	-11.2582
▁turvautu	-11.2583
konserni	-11.2583
teollisuus	-11.2584
▁Big	-11.2584
tytär	-11.2584
▁kävijä	-11.2586
▁Ota	-11.2587
▁tunnusti	-11.2587
▁Puolustusvoimi	-11.2588
▁sodasta	-11.2588
▁nousuun	-11.2588
valtuuston	-11.2589
prosessin	-11.2589
▁poistunut	-11.2589
olosuhteet	-11.259
▁pitkäaikaise	-11.259
▁antaisi	-11.2591
▁kokonaisuus	-11.2591
▁Sarjan	-11.2592
▁artikkelin	-11.2593
▁vahinkoa	-11.2593
▁Bild	-11.2593
▁sul	-11.2595
▁Loimaa	-11.2595
▁Kam	-11.2596
▁26-	-11.2596
▁myöntä	-11.2597
▁lähettämä	-11.2599
▁seuraajaa	-11.2599
33	-11.2599
katto	-11.2601
▁uudistus	-11.2601
▁salassa	-11.2602
▁testaa	-11.2603
fel	-11.2605
uutena	-11.2608
▁lause	-11.261
▁kasvot	-11.2611
▁edelle	-11.2613
kiv	-11.2615
▁uusinta	-11.2617
▁JYP	-11.2617
tilä	-11.2618
▁teillä	-11.2621
urallaan	-11.2623
▁Herra	-11.2624
die	-11.2624
▁osoittautui	-11.2626
kate	-11.2627
▁paikkaansa	-11.2629
▁tilaus	-11.2629
▁ruudu	-11.2631
▁vapa	-11.2631
asiassa	-11.2633
rp	-11.2633
aitojen	-11.2638
▁väist	-11.2638
mmalta	-11.2639
▁kannatti	-11.2639
43	-11.2641
▁kisasta	-11.2645
▁lopputulokse	-11.2646
▁Sanomille	-11.265
▁keskity	-11.265
ttäjien	-11.2653
▁1-1	-11.2654
mmassa	-11.2654
president	-11.2655
▁Seuran	-11.2655
▁tuk	-11.2657
▁Rantala	-11.2658
▁juhlia	-11.2658
▁auta	-11.2659
▁panostaa	-11.2662
▁Porin	-11.2662
▁harkita	-11.2663
▁paluun	-11.2666
▁vuosikymmeni	-11.2666
▁kadulla	-11.2666
▁kestävän	-11.2668
▁pohjoisen	-11.2668
▁kulutukse	-11.267
▁luomaan	-11.267
▁Avalanche	-11.2671
▁yhteyteen	-11.2671
▁Madeleine	-11.2671
▁fakta	-11.2671
▁Eveliina	-11.2671
▁ankara	-11.2671
▁käsky	-11.2671
▁annetu	-11.2671
▁todennäköisyyde	-11.2671
oire	-11.2671
▁1960-	-11.2671
▁ihastel	-11.2671
▁drone	-11.2671
▁sellaiset	-11.2672
kulta	-11.2672
▁luettelee	-11.2672
▁nälkä	-11.2672
▁asianomistaja	-11.2673
▁uhkaava	-11.2673
▁Oskari	-11.2673
▁vahvoja	-11.2674
▁siemen	-11.2675
▁Kisko	-11.2677
▁sielu	-11.2678
▁arvostel	-11.2678
▁identiteetti	-11.2678
▁vaatisi	-11.2679
▁Honka	-11.2679
▁bensiini	-11.2684
▁92	-11.2684
Vi	-11.2688
▁ylipaino	-11.2689
yk	-11.2691
▁osallistuminen	-11.2691
▁Aluee	-11.2691
▁tunnettiin	-11.2691
▁Yksityis	-11.2692
▁vaihteleva	-11.2692
▁pelastaa	-11.2692
▁yleisin	-11.2692
▁punainen	-11.2693
▁ulkoilu	-11.2695
arvoise	-11.2695
▁päivitys	-11.2696
▁viemään	-11.2696
▁rajoja	-11.2698
▁Sainz	-11.27
▁korotus	-11.27
▁lähdön	-11.2701
▁keskustaan	-11.2703
muisto	-11.2703
▁saavutus	-11.2703
▁isossa	-11.2703
▁käänny	-11.2704
vuudesta	-11.2705
▁kouluissa	-11.2705
▁levä	-11.2706
lohkon	-11.2706
▁Afrikan	-11.2708
▁Mag	-11.271
Savon	-11.271
▁luotettava	-11.2711
stoon	-11.2714
str	-11.2717
▁taudin	-11.2717
▁sittenkin	-11.272
▁alalla	-11.2724
▁yhteiskunnassa	-11.2724
▁voitolla	-11.2727
▁liikkeen	-11.273
voittoa	-11.2732
▁lapsesta	-11.2734
▁tappoi	-11.2734
tykki	-11.2736
lume	-11.274
▁lyhye	-11.2741
▁pitkät	-11.2742
▁järjestyksen	-11.2744
▁Elisabet	-11.2746
▁vire	-11.2746
▁korkealle	-11.2748
▁suorassa	-11.2748
▁saimme	-11.2751
▁otettava	-11.2753
▁Hiihto	-11.2754
imp	-11.2755
▁Heino	-11.2757
▁kotiinsa	-11.276
▁Juo	-11.276
johdo	-11.2761
palvelussa	-11.2761
▁onnellise	-11.2761
▁ajatellaan	-11.2762
luottamus	-11.2762
▁Mont	-11.2763
▁sisäministeri	-11.2764
▁voittamaan	-11.2768
▁kommentoivat	-11.2768
Benz	-11.2769
EN	-11.277
▁maansa	-11.277
▁mekko	-11.2772
▁asuntoa	-11.2775
putken	-11.2776
▁taakseen	-11.2776
▁kävel	-11.2778
▁laulaa	-11.2778
▁kuollei	-11.278
▁Kuopion	-11.2781
▁kyselyn	-11.2783
▁Ståhl	-11.2786
▁formula	-11.2786
▁ilmavoimien	-11.2786
▁pyyhki	-11.2786
▁Detroit	-11.2786
▁valmentama	-11.2786
▁keskiössä	-11.2786
▁kuittasi	-11.2786
▁ennallaan	-11.2786
▁hintoja	-11.2786
anto	-11.2786
▁puhalta	-11.2786
▁havaitsi	-11.2787
▁1991	-11.2787
▁käsitelty	-11.2787
▁keskittynyt	-11.2787
▁virallisi	-11.2787
▁Peltola	-11.2787
▁tasoa	-11.2788
▁Jessi	-11.2788
▁Pimiä	-11.2789
▁voitoi	-11.2789
▁väkivaltaise	-11.2789
▁erikoistunut	-11.279
▁syytety	-11.279
▁Finlandia	-11.279
▁Reetta	-11.2791
▁opposition	-11.2791
▁91	-11.2791
▁futis	-11.2791
▁suorittaa	-11.2793
▁tavat	-11.2793
▁vuosikymmenten	-11.2793
▁totuttu	-11.2794
▁kunnassa	-11.2794
▁käsitteli	-11.2795
▁neljännen	-11.2796
tiloja	-11.2798
▁kivaa	-11.2799
▁menemään	-11.28
▁kumpikin	-11.28
▁pihalle	-11.2802
kkeiden	-11.2803
old	-11.2804
▁vastus	-11.2804
▁toimenpide	-11.2804
▁jatkoajalla	-11.2804
▁vaikeita	-11.2804
▁säilyy	-11.2805
▁Oletko	-11.2805
▁kokoukseen	-11.2807
▁mittainen	-11.2812
▁Elias	-11.2813
▁Malmö	-11.2813
kuljetus	-11.2815
komissio	-11.2815
▁Ilona	-11.2815
kisoista	-11.2816
▁raivostu	-11.2816
▁kohteen	-11.2816
osoitte	-11.2821
sankari	-11.2821
yhtymä	-11.2824
▁pienellä	-11.2825
▁ISTV	-11.2828
▁henkise	-11.2829
▁rakastaa	-11.2829
▁komissaari	-11.283
Arabian	-11.2832
▁Muskin	-11.2833
▁katsoji	-11.2833
IN	-11.2833
lev	-11.2834
▁lähettämi	-11.2837
▁sopivi	-11.2838
▁ratkaisuun	-11.2838
▁syntyneen	-11.2843
▁kilon	-11.2843
kselta	-11.2844
▁Etsi	-11.2846
▁poikien	-11.2848
▁Näky	-11.2848
▁tutun	-11.2851
▁Stars	-11.2854
▁päätetty	-11.2857
▁kannatuksen	-11.2857
▁(8	-11.2861
▁irtoa	-11.2862
▁Syö	-11.2864
▁Mäkelän	-11.2867
▁kotoa	-11.2868
▁hovin	-11.2869
▁kasvaneet	-11.2869
ttavien	-11.2869
▁mahdoton	-11.287
▁luottamukse	-11.2872
▁käsittelyssä	-11.2872
kele	-11.2874
▁vetosi	-11.2876
▁Nick	-11.2877
▁isäntä	-11.2878
▁lievä	-11.2881
▁asuntojen	-11.2881
▁kohdistuvi	-11.2881
▁99	-11.2883
▁Fin	-11.2883
emaan	-11.2884
▁muutamaa	-11.2884
osiin	-11.2886
▁presidenttipari	-11.2886
iho	-11.2889
▁jalat	-11.289
▁Terveys	-11.2892
▁Valioliigan	-11.2892
▁hyvästä	-11.2893
▁opettajan	-11.2893
▁kotijoukkue	-11.2895
▁tilaisuus	-11.2899
▁Kreikan	-11.2902
▁mielenosoituksi	-11.2902
▁myöhäis	-11.2902
löydö	-11.2902
▁Mykkänen	-11.2902
▁Seagulls	-11.2902
▁ensimmäisten	-11.2902
[...]
