[UNK]	0
[CLS]	1
[SEP]	2
[PAD]	3
[MASK]	4
!	5
"	6
#	7
$	8
%	9
&	10
'	11
(	12
)	13
*	14
+	15
,	16
-	17
.	18
/	19
0	20
1	21
2	22
3	23
4	24
5	25
6	26
7	27
8	28
9	29
:	30
;	31
<	32
=	33
>	34
?	35
@	36
[	37
\	38
]	39
_	40
`	41
a	42
b	43
c	44
d	45
e	46
f	47
g	48
h	49
i	50
j	51
k	52
l	53
m	54
n	55
o	56
p	57
q	58
r	59
s	60
t	61
u	62
v	63
w	64
x	65
y	66
z	67
~	68
	69
	70
	71
¡	72
¤	73
§	74
©	75
­	76
®	77
°	78
±	79
¶	80
·	81
×	82
ß	83
à	84
á	85
â	86
ã	87
ä	88
å	89
æ	90
ç	91
è	92
é	93
ê	94
ë	95
ì	96
í	97
î	98
ï	99
ð	100
ñ	101
ò	102
ó	103
ô	104
õ	105
ö	106
ø	107
ú	108
û	109
ü	110
ý	111
þ	112
ÿ	113
ā	114
ă	115
ą	116
ć	117
č	118
đ	119
ē	120
ė	121
ę	122
ě	123
ğ	124
ģ	125
ī	126
ı	127
ķ	128
ľ	129
ł	130
ń	131
ņ	132
ň	133
ō	134
ŏ	135
œ	136
ř	137
ś	138
ş	139
š	140
ū	141
ů	142
ų	143
ź	144
ż	145
ž	146
ǎ	147
ș	148
ț	149
ə	150
˗	151
̇	152
̈	153
α	154
μ	155
а	156
б	157
в	158
г	159
д	160
е	161
ж	162
з	163
и	164
й	165
к	166
л	167
м	168
н	169
о	170
п	171
р	172
с	173
т	174
у	175
ф	176
х	177
ц	178
ч	179
ш	180
щ	181
ы	182
ь	183
э	184
ю	185
я	186
ỏ	187
ố	188
‍	189
‐	190
‒	191
•	192
‰	193
′	194
⁄	195
⁣	196
€	197
−	198
∞	199
■	200
●	201
★	202
⭐	203
😂	204
🤌	205
##t	206
##s	207
##i	208
##k	209
##o	210
##a	211
##e	212
##u	213
##y	214
##d	215
##m	216
##n	217
##r	218
##l	219
##c	220
##h	221
##v	222
##ä	223
##j	224
##p	225
##g	226
##z	227
##f	228
##x	229
##ö	230
##b	231
##ı	232
##0	233
##3	234
##w	235
##å	236
##)	237
##,	238
##8	239
##é	240
##í	241
##5	242
##2	243
##q	244
##6	245
##1	246
##о	247
##д	248
##в	249
##ü	250
##а	251
##9	252
##š	253
##с	254
##т	255
##у	256
##п	257
##е	258
##н	259
##á	260
##ã	261
##7	262
##4	263
##-	264
##ë	265
##и	266
##р	267
##č	268
##л	269
##я	270
##ю	271
##ó	272
##ц	273
##ú	274
##ā	275
##з	276
##ы	277
##м	278
##ï	279
##ř	280
##к	281
##ь	282
##★	283
##ч	284
##щ	285
##й	286
##ž	287
##à	288
##è	289
##đ	290
##.	291
##ò	292
##ć	293
##"	294
##_	295
##ñ	296
##ø	297
##æ	298
##ū	299
##ē	300
##­	301
##ğ	302
##б	303
##г	304
##*	305
##ý	306
##ə	307
##ł	308
##ç	309
##х	310
##ă	311
##ų	312
##+	313
##ð	314
##ģ	315
##:	316
##ż	317
##ė	318
##ж	319
##î	320
##ô	321
##̇	322
##ț	323
##ņ	324
##õ	325
##ę	326
##;	327
##ß	328
##ÿ	329
##∞	330
##′	331
##ş	332
##>	333
##<	334
##/	335
##ỏ	336
##ш	337
##ê	338
##ì	339
##ō	340
##ń	341
##â	342
##ň	343
##ś	344
##ě	345
##!	346
##ŏ	347
##ố	348
##±	349
##‰	350
##ľ	351
##⁣	352
##]	353
##[	354
##ī	355
##⭐	356
##ǎ	357
##û	358
##œ	359
##@	360
##ą	361
##ů	362
##~	363
##?	364
###	365
##\	366
##en	367
##in	368
##ta	369
##is	370
##an	371
##ll	372
##tt	373
##sa	374
##si	375
##ka	376
##it	377
##es	378
##än	379
##ut	380
##uo	381
##el	382
##er	383
##aa	384
##us	385
##un	386
##ik	387
ja	388
##as	389
##on	390
##ti	391
on	392
##al	393
##at	394
##oi	395
##li	396
##tä	397
##ar	398
##et	399
##lla	400
##een	401
##ää	402
##uk	403
##os	404
##il	405
##ttä	406
ko	407
##ja	408
##uu	409
##ist	410
jo	411
##ki	412
ta	413
##ma	414
##le	415
##sä	416
##ko	417
##den	418
##lle	419
vi	420
ka	421
##mm	422
##te	423
##tti	424
##ista	425
##ur	426
##va	427
##isi	428
##inen	429
##llä	430
##yö	431
##ul	432
##to	433
##ri	434
mu	435
##vat	436
se	437
##ksi	438
si	439
##ys	440
##vä	441
va	442
##yt	443
##ks	444
##ke	445
##hd	446
##taa	447
että	448
##mi	449
##ei	450
ei	451
en	452
hän	453
la	454
##vi	455
tä	456
vuo	457
ku	458
##kaan	459
to	460
##pa	461
sa	462
##la	463
po	464
oli	465
##utta	466
##mp	467
ki	468
##uks	469
##ku	470
suo	471
##isen	472
##issa	473
##ään	474
##assa	475
ma	476
te	477
is	478
ker	479
##essa	480
##kin	481
##ie	482
kä	483
al	484
jä	485
##itä	486
##ra	487
##oit	488
##äh	489
##ina	490
##taan	491
##yy	492
ra	493
##uh	494
pa	495
##tu	496
##de	497
##im	498
pää	499
kan	500
##op	501
##ne	502
myö	503
##kä	504
##se	505
##ty	506
kun	507
val	508
##ih	509
##esta	510
ole	511
##ttu	512
##usta	513
##man	514
an	515
##mä	516
kes	517
il	518
nä	519
li	520
mukaan	521
##ttel	522
##jä	523
san	524
tu	525
##istä	526
##asta	527
ha	528
mi	529
##na	530
suom	531
##ot	532
##jan	533
##van	534
per	535
myös	536
voi	537
##jo	538
##maan	539
ol	540
pal	541
ni	542
##re	543
##ia	544
##pp	545
in	546
##ossa	547
saa	548
##oin	549
##äi	550
toi	551
pel	552
##ee	553
##ika	554
20	555
maa	556
##llis	557
##unn	558
##vät	559
##yn	560
##esti	561
hy	562
##uol	563
##or	564
##ussa	565
yh	566
##ala	567
mutta	568
vä	569
##ten	570
##rj	571
tar	572
par	573
var	574
läh	575
##sia	576
ovat	577
##ro	578
##mis	579
##ike	580
##llut	581
ti	582
##essä	583
tuo	584
##ssa	585
ke	586
##uksen	587
##oo	588
##tto	589
ar	590
##sin	591
esi	592
##jen	593
he	594
##ui	595
##min	596
as	597
ih	598
kau	599
##lä	600
##tel	601
na	602
##oa	603
pi	604
##he	605
##ikka	606
##eri	607
##ssä	608
##lo	609
##estä	610
so	611
##ttiin	612
##kka	613
sen	614
##ön	615
##ana	616
##taja	617
le	618
##issä	619
##nut	620
##tty	621
##ua	622
##ime	623
til	624
kerto	625
##tta	626
##toi	627
##stä	628
pit	629
##iten	630
työ	631
##sta	632
puol	633
##hti	634
##ha	635
su	636
kuu	637
##ise	638
vas	639
##me	640
tai	641
##enä	642
##men	643
##vin	644
tapa	645
##rin	646
##ken	647
##iko	648
##osta	649
tie	650
##keen	651
ne	652
##ve	653
osa	654
##tö	655
ollut	656
##ran	657
##ud	658
##etta	659
jäl	660
##isä	661
kaik	662
viime	663
##rit	664
##iden	665
##asti	666
##maa	667
joka	668
##ksen	669
kuin	670
##vo	671
##ir	672
##iksi	673
##ky	674
men	675
kertoo	676
käy	677
päi	678
##ttää	679
eur	680
##vaa	681
##erk	682
vaa	683
##teen	684
poli	685
min	686
##da	687
##kon	688
kor	689
venä	690
##kö	691
##inn	692
ed	693
puh	694
ky	695
hel	696
huo	697
##mmä	698
niin	699
har	700
##val	701
##isten	702
##män	703
asi	704
##mmin	705
yhd	706
##rä	707
##hdo	708
re	709
##tin	710
kul	711
##mat	712
##isia	713
mar	714
##ita	715
##uus	716
tur	717
jälkeen	718
##mme	719
##vän	720
seur	721
kat	722
nyt	723
sel	724
##ien	725
ensi	726
lop	727
kanssa	728
##eet	729
##kaa	730
suomen	731
kys	732
jos	733
luo	734
kol	735
lu	736
##unut	737
##isesti	738
kos	739
##minen	740
##isto	741
##di	742
##nna	743
aut	744
yli	745
vuonna	746
##ho	747
##elä	748
##mista	749
##isin	750
202	751
##pä	752
##lleen	753
tule	754
hall	755
it	756
##kan	757
suu	758
##eli	759
##iset	760
hal	761
lii	762
##hin	763
hen	764
##00	765
me	766
##mmen	767
##hta	768
sy	769
kil	770
yksi	771
sta	772
hänen	773
van	774
uu	775
oh	776
olisi	777
jul	778
##ton	779
##jän	780
kin	781
##ikä	782
oike	783
##tään	784
tun	785
##jat	786
aika	787
##sen	788
jat	789
enn	790
lo	791
kesk	792
##ellä	793
##mään	794
sanoo	795
tied	796
ilta	797
##jon	798
koko	799
no	800
##anta	801
##ukku	802
lle	803
##ella	804
mon	805
##kk	806
##pu	807
kuiten	808
os	809
olla	810
lä	811
##unta	812
tul	813
ri	814
aik	815
tapah	816
##yh	817
##nyt	818
##tte	819
muu	820
tut	821
yhte	822
##voi	823
teh	824
##mpi	825
tilan	826
##eita	827
mat	828
##itse	829
##elle	830
haa	831
tal	832
##kko	833
##massa	834
##ru	835
##lin	836
sai	837
ver	838
##kra	839
##ila	840
##io	841
##mo	842
sekä	843
syy	844
ruo	845
alu	846
vielä	847
lisä	848
miel	849
ro	850
ve	851
##oitta	852
er	853
us	854
vuoden	855
ul	856
##ikko	857
##isti	858
##ni	859
##oita	860
elä	861
##una	862
##tus	863
##lan	864
vain	865
järj	866
kaikki	867
perus	868
kuo	869
tiet	870
kertoi	871
maan	872
##kil	873
##vel	874
näy	875
##siden	876
mie	877
##han	878
##tää	879
##residen	880
kuva	881
kar	882
##kki	883
lap	884
kaup	885
##aan	886
liik	887
##osen	888
##uksia	889
siitä	890
kis	891
kas	892
##llo	893
ottel	894
hä	895
##so	896
##ilu	897
presiden	898
pr	899
##itta	900
##merk	901
##iste	902
##illa	903
väh	904
hyvin	905
ukra	906
##ttö	907
##pi	908
sitä	909
lö	910
##tiin	911
suomala	912
##inä	913
vasta	914
jon	915
ensimmä	916
sal	917
##emm	918
##tten	919
mahdo	920
ter	921
tämä	922
ohj	923
##gin	924
##uud	925
kirj	926
##kas	927
##uttaa	928
##isiin	929
ty	930
hi	931
esimerk	932
kuitenkin	933
##änyt	934
##no	935
##ttei	936
##lli	937
mää	938
hyvä	939
sar	940
kon	941
##est	942
itse	943
##tio	944
##ite	945
aina	946
keski	947
mies	948
##ihe	949
koh	950
##ille	951
##po	952
vuoti	953
ho	954
las	955
##isteri	956
kaksi	957
sitten	958
##kään	959
##lta	960
poliisi	961
poh	962
joh	963
noin	964
vir	965
vaik	966
yle	967
##yks	968
ennen	969
ään	970
19	971
##nä	972
esimerkiksi	973
##vää	974
epä	975
##isu	976
##malla	977
##della	978
jossa	979
aikana	980
jää	981
ai	982
sanoi	983
pe	984
pelaa	985
kir	986
tapahtu	987
##tuu	988
##mu	989
##yty	990
##koi	991
väli	992
##istu	993
##itus	994
##llinen	995
toimi	996
nuo	997
eri	998
kilpa	999
paika	1000
ilm	1001
paljon	1002
op	1003
luk	1004
henkil	1005
##tan	1006
euro	1007
##dän	1008
##hi	1009
mil	1010
sillä	1011
toimin	1012
##misen	1013
##lloin	1014
uut	1015
kann	1016
yhdys	1017
han	1018
eivät	1019
##iv	1020
muut	1021
venäjän	1022
maail	1023
##kuu	1024
sano	1025
ur	1026
kaa	1027
hei	1028
##eiden	1029
joukku	1030
##jaa	1031
ssa	1032
lisäksi	1033
##ystä	1034
##sti	1035
muun	1036
pys	1037
hyö	1038
sil	1039
lla	1040
##pan	1041
vaikka	1042
##utu	1043
tuli	1044
asia	1045
##vu	1046
mitä	1047
##tun	1048
##ito	1049
##joi	1050
aie	1051
ulko	1052
henkilö	1053
toim	1054
##iseen	1055
kuul	1056
##hde	1057
##ttia	1058
201	1059
lau	1060
ran	1061
lin	1062
##neet	1063
teke	1064
##ula	1065
sop	1066
##uden	1067
##up	1068
##dä	1069
met	1070
##mer	1071
kansa	1072
##ihin	1073
ede	1074
##mia	1075
##rke	1076
##din	1077
tunn	1078
nel	1079
##hden	1080
tö	1081
tuk	1082
mä	1083
eli	1084
helsin	1085
auto	1086
ettei	1087
##aal	1088
ukrain	1089
koul	1090
ny	1091
tämän	1092
vastaan	1093
##ili	1094
het	1095
##oittaa	1096
muassa	1097
##ministeri	1098
##do	1099
##lais	1100
mo	1101
##uksessa	1102
tru	1103
##llista	1104
##ga	1105
tutki	1106
laa	1107
##mma	1108
lis	1109
kommen	1110
prosen	1111
len	1112
##päi	1113
keskus	1114
kaupun	1115
##alta	1116
##via	1117
väl	1118
ajan	1119
raken	1120
##ttävä	1121
pitää	1122
puo	1123
mer	1124
pien	1125
##uuden	1126
jot	1127
tulee	1128
##kunn	1129
tote	1130
sisä	1131
##kea	1132
kut	1133
julka	1134
arvi	1135
järjes	1136
ihm	1137
juh	1138
##ssi	1139
##uksi	1140
##oitti	1141
nor	1142
##nan	1143
##paa	1144
##ven	1145
sija	1146
##uun	1147
##kkä	1148
trump	1149
##kuussa	1150
tän	1151
000	1152
##joh	1153
turva	1154
##isiä	1155
tehd	1156
##tteli	1157
##tain	1158
ruot	1159
py	1160
##ikon	1161
vier	1162
talo	1163
##llisen	1164
##vasti	1165
olen	1166
yl	1167
##erä	1168
seuraa	1169
##ksa	1170
olivat	1171
mei	1172
kyse	1173
##ino	1174
käsi	1175
uh	1176
vah	1177
##johtaja	1178
##istö	1179
vuosi	1180
##tui	1181
vuotta	1182
yrit	1183
tällä	1184
euroa	1185
mieh	1186
##mien	1187
##om	1188
##san	1189
##aali	1190
##var	1191
##pe	1192
ase	1193
koti	1194
juo	1195
päätö	1196
kiinn	1197
##llisesti	1198
suunn	1199
##elta	1200
kesä	1201
##emmän	1202
ista	1203
jotka	1204
yllä	1205
eikä	1206
suomessa	1207
ksi	1208
##son	1209
es	1210
##iti	1211
use	1212
aihe	1213
##ope	1214
et	1215
##llan	1216
vo	1217
##tyi	1218
sä	1219
##der	1220
##ch	1221
##ukset	1222
vaih	1223
##ikan	1224
presidentti	1225
elo	1226
##je	1227
##inta	1228
##gi	1229
##yyn	1230
koska	1231
##kun	1232
##eseen	1233
##ojen	1234
tor	1235
pol	1236
##eksi	1237
##yksen	1238
##kia	1239
##otta	1240
saan	1241
##oja	1242
jonka	1243
##istel	1244
##dan	1245
teki	1246
##ren	1247
mit	1248
aiemmin	1249
pu	1250
päivä	1251
##kona	1252
siir	1253
##antaina	1254
venäjä	1255
##kel	1256
##itt	1257
määrä	1258
##uuri	1259
lisää	1260
stu	1261
miten	1262
##von	1263
##joit	1264
##ver	1265
##ttaa	1266
##jien	1267
##ihen	1268
palvel	1269
put	1270
##ari	1271
yhdysval	1272
ken	1273
näin	1274
maailman	1275
kysy	1276
ohjel	1277
syn	1278
mikä	1279
##uri	1280
de	1281
sin	1282
pan	1283
siihen	1284
##bb	1285
halu	1286
##mpia	1287
##llaan	1288
##joon	1289
käyt	1290
rat	1291
seura	1292
kär	1293
##viä	1294
".	1295
kier	1296
##ttua	1297
##isessa	1298
sää	1299
vide	1300
##eltä	1301
pitä	1302
tas	1303
##matta	1304
##eh	1305
muuta	1306
pohjo	1307
olevan	1308
##uudessa	1309
tava	1310
rii	1311
##gel	1312
miljoon	1313
nyky	1314
keh	1315
ent	1316
##eella	1317
säh	1318
oul	1319
mm	1320
##ustus	1321
##ukseen	1322
taka	1323
tarko	1324
ille	1325
suosi	1326
##ras	1327
##kunta	1328
julk	1329
##hl	1330
##ynyt	1331
##ber	1332
##ine	1333
ll	1334
##ukka	1335
##oiden	1336
haasta	1337
työn	1338
aa	1339
katso	1340
uusi	1341
syö	1342
##iseksi	1343
ryh	1344
tilante	1345
##tia	1346
el	1347
##ulla	1348
taa	1349
ihan	1350
tässä	1351
aja	1352
terve	1353
##iin	1354
kannat	1355
enemmän	1356
kolme	1357
puheen	1358
euroop	1359
##ppu	1360
jen	1361
mur	1362
täy	1363
##ikki	1364
##kseen	1365
näh	1366
##oike	1367
illa	1368
##st	1369
muo	1370
nous	1371
##kuun	1372
##uksesta	1373
voit	1374
suh	1375
##olla	1376
oly	1377
##neen	1378
mme	1379
ssä	1380
##oihin	1381
stubb	1382
##llisuus	1383
sair	1384
##tion	1385
tan	1386
##vassa	1387
hallit	1388
tiedo	1389
##ttom	1390
asian	1391
ava	1392
perjan	1393
##kke	1394
##ttele	1395
vaan	1396
hui	1397
##mus	1398
##ing	1399
lei	1400
##mää	1401
vastaa	1402
sella	1403
erit	1404
joul	1405
ehdo	1406
tärke	1407
##onen	1408
jouk	1409
kohd	1410
##mpä	1411
##oilla	1412
##utui	1413
##ltä	1414
##mman	1415
viikon	1416
suomi	1417
lää	1418
oma	1419
ju	1420
yri	1421
koke	1422
##ittaa	1423
##osti	1424
##ker	1425
10	1426
mitään	1427
ala	1428
pari	1429
##ele	1430
erity	1431
siinä	1432
##hän	1433
yleis	1434
un	1435
neu	1436
fin	1437
##vit	1438
or	1439
maali	1440
kal	1441
vaike	1442
##vien	1443
kertaa	1444
usko	1445
issa	1446
vuotias	1447
##ttänyt	1448
isra	1449
##uteen	1450
15	1451
ihmis	1452
jal	1453
sähkö	1454
kunn	1455
lähe	1456
##oma	1457
##ol	1458
jopa	1459
ympä	1460
##vos	1461
##ukana	1462
nope	1463
##elin	1464
päivän	1465
puolu	1466
##llään	1467
edus	1468
liiken	1469
alku	1470
##gan	1471
uud	1472
peli	1473
##til	1474
kymmen	1475
keskustel	1476
##raa	1477
onne	1478
##masta	1479
##kellä	1480
##isesta	1481
esiin	1482
##kunnan	1483
hu	1484
##ter	1485
##tik	1486
pala	1487
suuri	1488
ukrainan	1489
tehtä	1490
##nö	1491
rah	1492
##tunut	1493
uuden	1494
##ju	1495
##yys	1496
osall	1497
##nin	1498
kuuka	1499
kommentoi	1500
##sina	1501
tila	1502
##utus	1503
##mmat	1504
##daan	1505
eh	1506
sunn	1507
##ea	1508
puoli	1509
pä	1510
kerro	1511
##asto	1512
##tys	1513
vaati	1514
suur	1515
##mio	1516
##itsi	1517
sunnunta	1518
##ilta	1519
##su	1520
ongel	1521
##ile	1522
lähes	1523
##ksu	1524
kyllä	1525
perjanta	1526
##tynyt	1527
prosenttia	1528
kello	1529
##per	1530
vat	1531
enää	1532
##ustaja	1533
yhteis	1534
urhe	1535
sopim	1536
vara	1537
liitty	1538
##voin	1539
pur	1540
kään	1541
luon	1542
12	1543
##ppi	1544
pohjois	1545
pitkä	1546
helsingin	1547
toinen	1548
tehdä	1549
##usi	1550
valta	1551
valmen	1552
mukana	1553
ratka	1554
##pal	1555
johta	1556
##ksan	1557
iltale	1558
##yr	1559
##ttelu	1560
loppu	1561
##ce	1562
lähte	1563
alle	1564
huol	1565
iso	1566
nat	1567
nim	1568
mark	1569
##istaa	1570
tilanne	1571
aikaa	1572
vie	1573
200	1574
tiista	1575
##into	1576
nuor	1577
##misesta	1578
tuh	1579
kauden	1580
hyökkä	1581
##uko	1582
##tettiin	1583
rik	1584
##don	1585
##ksiä	1586
##lainen	1587
rauh	1588
otta	1589
por	1590
etel	1591
##vuo	1592
pro	1593
torsta	1594
sosi	1595
todella	1596
matka	1597
##miseen	1598
juuri	1599
itä	1600
ale	1601
##ust	1602
##inte	1603
##lleet	1604
##alais	1605
kuten	1606
riko	1607
pois	1608
30	1609
käyttö	1610
##kuuta	1611
##ttämä	1612
ilma	1613
##eili	1614
##iton	1615
vähän	1616
epäil	1617
##itel	1618
keskivi	1619
##ytyy	1620
##alla	1621
##gen	1622
##dia	1623
arvioi	1624
isi	1625
än	1626
##ottaa	1627
##utti	1628
tarv	1629
joukkue	1630
##mas	1631
täys	1632
##llin	1633
neljä	1634
od	1635
##tteen	1636
kur	1637
löy	1638
##ttäjä	1639
kautta	1640
harr	1641
kulj	1642
saanut	1643
##lu	1644
##ettu	1645
hallitus	1646
##llen	1647
mesta	1648
##uussa	1649
##mon	1650
sat	1651
lain	1652
jäsen	1653
aikaan	1654
koi	1655
tyy	1656
asu	1657
etelä	1658
hie	1659
onn	1660
##ini	1661
##estaan	1662
vai	1663
eu	1664
tasa	1665
puu	1666
##ulta	1667
##eensä	1668
tarjo	1669
ero	1670
jäi	1671
voitto	1672
her	1673
pääs	1674
vuoksi	1675
huu	1676
piste	1677
##otus	1678
tulo	1679
##ksy	1680
yhtey	1681
ajat	1682
##tyy	1683
##ck	1684
ikä	1685
puolustus	1686
tuu	1687
##jia	1688
kansan	1689
##ttäin	1690
peruste	1691
##nus	1692
jär	1693
##mpaa	1694
man	1695
ras	1696
##isa	1697
##mar	1698
##kti	1699
##gra	1700
##oissa	1701
arvo	1702
##uta	1703
do	1704
##ura	1705
yhti	1706
da	1707
miehen	1708
voisi	1709
##väl	1710
halua	1711
medi	1712
ilman	1713
län	1714
merk	1715
lento	1716
kiinni	1717
eloku	1718
ch	1719
putin	1720
pyö	1721
yhteen	1722
##ilun	1723
uks	1724
vaali	1725
run	1726
paikka	1727
##mässä	1728
##jana	1729
selvi	1730
18	1731
stä	1732
##ff	1733
toisen	1734
tälla	1735
11	1736
lta	1737
vih	1738
pain	1739
joten	1740
uutis	1741
poik	1742
##isella	1743
##dy	1744
perä	1745
ainakin	1746
##dessä	1747
##ed	1748
##miin	1749
hetkellä	1750
vii	1751
vuod	1752
##ria	1753
ia	1754
##jassa	1755
viera	1756
kyl	1757
tullut	1758
silloin	1759
alkoi	1760
##tteessa	1761
##lii	1762
kai	1763
opp	1764
ga	1765
tapp	1766
##iä	1767
pah	1768
##missa	1769
##mala	1770
vahv	1771
##ily	1772
asti	1773
pela	1774
rä	1775
ystä	1776
##istui	1777
2022	1778
##oittanut	1779
eten	1780
hallituksen	1781
mahdollis	1782
valm	1783
toden	1784
amp	1785
ten	1786
vil	1787
2023	1788
di	1789
##riä	1790
##mmär	1791
perjantaina	1792
perhe	1793
##tetty	1794
##por	1795
lähti	1796
kysym	1797
siellä	1798
##ksin	1799
##ikolla	1800
asiasta	1801
lämp	1802
##kus	1803
##pää	1804
myy	1805
##lia	1806
kaudella	1807
myöhe	1808
kats	1809
edelleen	1810
alueella	1811
tänä	1812
parha	1813
taas	1814
mene	1815
##iselle	1816
käyn	1817
##tila	1818
kaupungin	1819
pitäisi	1820
bri	1821
##mistä	1822
pö	1823
##puol	1824
##kkaa	1825
presidentin	1826
ensimmäisen	1827
##eto	1828
##lella	1829
##ona	1830
kamp	1831
pare	1832
saada	1833
lauantaina	1834
venälä	1835
poliisin	1836
viran	1837
##ostaa	1838
vel	1839
##toa	1840
suk	1841
tode	1842
palj	1843
##oista	1844
saman	1845
##ska	1846
takia	1847
##iston	1848
kuitenkaan	1849
hava	1850
##oitus	1851
järjestel	1852
heidän	1853
merki	1854
samalla	1855
kirja	1856
##sson	1857
tavoi	1858
myöhemmin	1859
niitä	1860
yhdessä	1861
ymmär	1862
ukraina	1863
##ttelee	1864
perh	1865
##jö	1866
viesti	1867
##teki	1868
##lly	1869
##seen	1870
17	1871
yhden	1872
mielen	1873
##onsa	1874
st	1875
vaka	1876
##kkö	1877
epäi	1878
##tettu	1879
suomalais	1880
##llon	1881
##näkö	1882
##joukku	1883
keskiviik	1884
tätä	1885
eriko	1886
roo	1887
16	1888
##omet	1889
##ustan	1890
myön	1891
urheilu	1892
13	1893
##tunti	1894
lai	1895
toista	1896
tee	1897
ajo	1898
kahden	1899
##kee	1900
hänet	1901
trumpin	1902
missä	1903
viranoma	1904
näky	1905
poi	1906
##puo	1907
olympia	1908
jota	1909
häntä	1910
mel	1911
##nen	1912
##isille	1913
##non	1914
ir	1915
##tar	1916
nsa	1917
##ani	1918
tieto	1919
kuinka	1920
välillä	1921
ottelun	1922
##änä	1923
kana	1924
voitti	1925
pide	1926
yhdysvaltain	1927
kr	1928
muka	1929
##erin	1930
##kset	1931
moni	1932
histo	1933
väi	1934
muist	1935
heti	1936
ehkä	1937
omista	1938
sur	1939
yhtä	1940
olleet	1941
kansain	1942
biden	1943
nainen	1944
kansainväl	1945
tien	1946
verk	1947
hoi	1948
##kkää	1949
sul	1950
hieman	1951
pyy	1952
anta	1953
##tetään	1954
alue	1955
puheenjohtaja	1956
sijaitse	1957
##sky	1958
tunne	1959
edusta	1960
siis	1961
kii	1962
erila	1963
##vansa	1964
kuulu	1965
jalka	1966
tiedotteessa	1967
kie	1968
auton	1969
ru	1970
kilomet	1971
14	1972
ain	1973
##eensa	1974
tavalla	1975
##tteri	1976
##tetaan	1977
##itys	1978
##visi	1979
##ppa	1980
torstaina	1981
tta	1982
tiistaina	1983
aivan	1984
##ly	1985
oikeus	1986
todennäkö	1987
sunnuntaina	1988
##ksia	1989
kärä	1990
ap	1991
amma	1992
suunnitel	1993
nhl	1994
##ry	1995
##tua	1996
päästä	1997
kohta	1998
##isessä	1999
kuole	2000
##ela	2001
oman	2002
täysin	2003
##utunut	2004
25	2005
minu	2006
työnteki	2007
väki	2008
rikos	2009
joita	2010
pelas	2011
tutkin	2012
hiih	2013
##etaan	2014
insta	2015
viikolla	2016
maanantaina	2017
alka	2018
##uma	2019
asiantunti	2020
aiko	2021
##laa	2022
##vun	2023
##keä	2024
##imo	2025
2024	2026
keskiviikkona	2027
tunte	2028
euroopan	2029
oulun	2030
kerran	2031
tuomi	2032
kirjoittaa	2033
käytö	2034
##heili	2035
##ba	2036
leh	2037
##tyä	2038
lopulta	2039
pen	2040
edes	2041
lue	2042
meillä	2043
instagra	2044
jatku	2045
co	2046
##ge	2047
miljoonaa	2048
käyttä	2049
usein	2050
tää	2051
##annut	2052
raja	2053
##ttui	2054
tähän	2055
häi	2056
sosiaal	2057
vapaa	2058
##kul	2059
##kku	2060
##uto	2061
poliitt	2062
kilpailu	2063
ravin	2064
käräjä	2065
##itos	2066
##kasta	2067
##toon	2068
maksa	2069
kävi	2070
alkaa	2071
##ussi	2072
ura	2073
leikka	2074
##ilee	2075
tästä	2076
pääsi	2077
hil	2078
ruotsin	2079
ensimmäinen	2080
aamu	2081
##her	2082
##suo	2083
voin	2084
##lop	2085
##ettiin	2086
meni	2087
tv	2088
useita	2089
onko	2090
tuleva	2091
tänään	2092
ris	2093
piti	2094
viikko	2095
hoit	2096
##kän	2097
lopp	2098
harjoit	2099
vanhe	2100
new	2101
ää	2102
ihin	2103
##isestä	2104
olemme	2105
##osi	2106
mielestä	2107
vaikutta	2108
politi	2109
##uksista	2110
tek	2111
tehnyt	2112
##sy	2113
varm	2114
jaks	2115
##isty	2116
nimi	2117
näyttää	2118
##nes	2119
puhu	2120
##ttelussa	2121
meidän	2122
nähd	2123
yksity	2124
käräjäoike	2125
##eille	2126
tähti	2127
mole	2128
mistä	2129
prin	2130
##kie	2131
liikenne	2132
ita	2133
##isuus	2134
jatkaa	2135
kokona	2136
paik	2137
vaihto	2138
##jaan	2139
##kohta	2140
urheili	2141
huh	2142
musi	2143
sotil	2144
herä	2145
ba	2146
em	2147
##utuu	2148
the	2149
hur	2150
50	2151
##valta	2152
joukko	2153
##isuudessa	2154
its	2155
otti	2156
vies	2157
valtio	2158
huoli	2159
##iken	2160
lapsi	2161
##eelle	2162
##ukkaan	2163
yö	2164
vaihe	2165
euron	2166
##tyksen	2167
maal	2168
työs	2169
neuvo	2170
##vy	2171
ruoka	2172
korke	2173
llä	2174
tamm	2175
tausta	2176
metsä	2177
alussa	2178
##uudesta	2179
##ytyi	2180
ravinto	2181
pääse	2182
mitta	2183
##kes	2184
##ron	2185
aiheutta	2186
isän	2187
##hdelle	2188
pysty	2189
kyseessä	2190
suomeen	2191
voivat	2192
ottaa	2193
koskaan	2194
video	2195
niiden	2196
kuoli	2197
sään	2198
suun	2199
ven	2200
lähet	2201
mahdollista	2202
##ettava	2203
##kanen	2204
enna	2205
voima	2206
##osa	2207
yhdysva	2208
##illä	2209
suorit	2210
nousi	2211
siv	2212
##eilla	2213
tuolloin	2214
##alu	2215
puolestaan	2216
main	2217
turvallisuus	2218
##ali	2219
saap	2220
syys	2221
lääkä	2222
keske	2223
kapp	2224
af	2225
vapa	2226
kierro	2227
salon	2228
hir	2229
##kana	2230
##ast	2231
kolman	2232
lasten	2233
pysä	2234
vää	2235
vesi	2236
sis	2237
##iska	2238
##llisia	2239
muita	2240
mik	2241
yhteist	2242
viikonlop	2243
yhä	2244
erityisesti	2245
##talo	2246
##tojen	2247
##ikin	2248
##tyks	2249
yliop	2250
perusteella	2251
##ttuna	2252
israelin	2253
poikke	2254
##ttyi	2255
neljän	2256
laus	2257
näytteli	2258
sanomat	2259
##oon	2260
jään	2261
uran	2262
##isaa	2263
##konen	2264
järjestä	2265
huoma	2266
johtaja	2267
mus	2268
##essaan	2269
miksi	2270
saksa	2271
erittäin	2272
toteaa	2273
##ny	2274
yhtiö	2275
raa	2276
##vänsä	2277
elämän	2278
ympäri	2279
työsken	2280
odo	2281
jotta	2282
uutta	2283
joissa	2284
palvelu	2285
teko	2286
hyvinvoin	2287
sarjan	2288
maahan	2289
kappal	2290
pud	2291
selvä	2292
rovan	2293
##valla	2294
##teli	2295
kansaned	2296
##vissa	2297
199	2298
seitse	2299
liitto	2300
##vulla	2301
suhte	2302
sairaa	2303
länsi	2304
##usa	2305
",	2306
pääministeri	2307
tele	2308
##jel	2309
naisten	2310
##erg	2311
ehd	2312
asun	2313
suurin	2314
##res	2315
valtion	2316
##tele	2317
##telu	2318
kuljet	2319
kehi	2320
##ttely	2321
##ilä	2322
##innan	2323
tutkim	2324
iin	2325
vuosina	2326
##ehto	2327
##ttuu	2328
markkin	2329
##co	2330
ympär	2331
##kkaan	2332
toiv	2333
tarvitse	2334
tamp	2335
##uksissa	2336
##jät	2337
pelastus	2338
##haa	2339
hänellä	2340
tosi	2341
erä	2342
oikeuden	2343
lämpö	2344
lah	2345
##ttori	2346
yhteistyö	2347
laj	2348
valmista	2349
lapsen	2350
terveys	2351
joiden	2352
onnettom	2353
kisa	2354
josta	2355
myyn	2356
##sut	2357
##perä	2358
jolla	2359
kahde	2360
pysy	2361
ihmiset	2362
pidä	2363
sijaan	2364
saattaa	2365
##alainen	2366
varsin	2367
jälleen	2368
kolm	2369
##urin	2370
toiminta	2371
kri	2372
sota	2373
koulu	2374
##berg	2375
##kossa	2376
jotain	2377
##uuta	2378
mukaansa	2379
car	2380
##ttämään	2381
##voit	2382
uude	2383
fa	2384
sd	2385
##isellä	2386
teo	2387
päätös	2388
pitkään	2389
ihmistä	2390
läpi	2391
hänelle	2392
joukkueen	2393
21	2394
sm	2395
käynn	2396
viisi	2397
tehty	2398
don	2399
##reen	2400
##usti	2401
##oille	2402
miesten	2403
vaikuttaa	2404
##ttyy	2405
tulla	2406
käytän	2407
jatko	2408
kymmenen	2409
##udessa	2410
##stö	2411
##rik	2412
inen	2413
pelaaja	2414
tamper	2415
##mpa	2416
##era	2417
##liiton	2418
tapahtui	2419
##mmi	2420
takaisin	2421
##pallo	2422
22	2423
kohtaa	2424
vuotia	2425
##ander	2426
minen	2427
##uksiin	2428
kah	2429
kaan	2430
##llik	2431
##sivat	2432
huippu	2433
jan	2434
kei	2435
##raan	2436
##illaan	2437
luke	2438
##jää	2439
asiaa	2440
isä	2441
muuto	2442
pyr	2443
mita	2444
ry	2445
##tävä	2446
jouluk	2447
liian	2448
äänestä	2449
yhteensä	2450
##rän	2451
##usto	2452
osaa	2453
tekee	2454
##pon	2455
##inti	2456
pist	2457
##ste	2458
##aika	2459
lähi	2460
antaa	2461
pih	2462
##istus	2463
lähtö	2464
nämä	2465
##hing	2466
##joiden	2467
##uste	2468
loukkaan	2469
##las	2470
päivänä	2471
##kiä	2472
laps	2473
nu	2474
##rat	2475
ottelu	2476
##eraa	2477
lan	2478
##kaup	2479
##ytö	2480
##isena	2481
##tiiv	2482
demo	2483
##uutta	2484
##llia	2485
##ukse	2486
kaupunki	2487
nopeasti	2488
##ket	2489
ottelussa	2490
silti	2491
for	2492
bo	2493
##utun	2494
fi	2495
ex	2496
voidaan	2497
jääkie	2498
myötä	2499
kunin	2500
korva	2501
kons	2502
##päivä	2503
heinä	2504
puolue	2505
käyttää	2506
luku	2507
krit	2508
ranta	2509
##ttän	2510
alla	2511
pes	2512
puk	2513
##valmen	2514
olympi	2515
ihmisiä	2516
##ena	2517
vähen	2518
##mb	2519
kaiken	2520
yritys	2521
poika	2522
ilmoit	2523
kö	2524
##ald	2525
korkea	2526
sarja	2527
vaikut	2528
##llyt	2529
##ttävän	2530
kiel	2531
maks	2532
##jär	2533
huolimatta	2534
##vio	2535
tehtävä	2536
bar	2537
hien	2538
##ost	2539
40	2540
elin	2541
##istunut	2542
sodan	2543
touko	2544
kilpail	2545
kampan	2546
24	2547
ykkö	2548
##ttävät	2549
valko	2550
puolis	2551
haluaa	2552
##oni	2553
##yssä	2554
marras	2555
elämä	2556
eteen	2557
täällä	2558
nie	2559
##kää	2560
tarkas	2561
2021	2562
lyh	2563
##yyttä	2564
kahd	2565
##ulu	2566
##ase	2567
joutui	2568
##go	2569
##ensa	2570
##mik	2571
kesken	2572
##tteet	2573
paikalla	2574
##isista	2575
##ity	2576
##vasta	2577
näkö	2578
hake	2579
suunni	2580
histori	2581
löytyy	2582
##ude	2583
.)	2584
emme	2585
##yksessä	2586
##kraa	2587
vaikea	2588
##keli	2589
paljas	2590
23	2591
##kinen	2592
kiin	2593
##my	2594
##jar	2595
mieli	2596
##lliset	2597
ah	2598
##usten	2599
menn	2600
media	2601
kannattaa	2602
yhteydessä	2603
perheen	2604
verkko	2605
##miä	2606
koske	2607
rakenn	2608
ennä	2609
pako	2610
kump	2611
loka	2612
yksityis	2613
##issaan	2614
isku	2615
hinta	2616
##isissa	2617
näke	2618
pian	2619
osallistu	2620
vasemm	2621
##kut	2622
##päin	2623
vaiheessa	2624
liike	2625
paris	2626
kerrotaan	2627
##ppo	2628
vaale	2629
perinte	2630
lie	2631
jolloin	2632
tuotan	2633
entinen	2634
##itu	2635
kolmen	2636
##ttila	2637
varsina	2638
iltana	2639
kuuluu	2640
##jille	2641
vast	2642
##voima	2643
mikko	2644
##dio	2645
joku	2646
turna	2647
##vara	2648
ääri	2649
##rö	2650
jy	2651
##det	2652
normaa	2653
epäilty	2654
##kari	2655
hyväksy	2656
joista	2657
näk	2658
alex	2659
runsa	2660
##istää	2661
nime	2662
##tava	2663
##palvel	2664
sata	2665
siksi	2666
pekka	2667
maalis	2668
kohti	2669
yksin	2670
##ansa	2671
vaara	2672
iden	2673
kok	2674
julkais	2675
##kerta	2676
yleisö	2677
vali	2678
minkä	2679
huomio	2680
##viin	2681
teho	2682
ensin	2683
pai	2684
sopi	2685
naa	2686
##eu	2687
kerton	2688
helmik	2689
##ittaja	2690
##eeksi	2691
##uksena	2692
help	2693
talous	2694
##sto	2695
##esin	2696
israel	2697
maajoukku	2698
haastattelussa	2699
av	2700
tervey	2701
saar	2702
##udu	2703
asunn	2704
kuusi	2705
##ttyä	2706
kohte	2707
akti	2708
puna	2709
##netta	2710
##jasta	2711
##tit	2712
##ttunut	2713
kulu	2714
ulos	2715
##fi	2716
tulisi	2717
opis	2718
lat	2719
hyvinvointi	2720
meri	2721
taistel	2722
lind	2723
##kos	2724
päiv	2725
##logi	2726
tilanteessa	2727
tammik	2728
sala	2729
haav	2730
äiti	2731
##lamen	2732
my	2733
##ves	2734
##utua	2735
päävalmen	2736
##tänyt	2737
##kön	2738
kuvan	2739
viiden	2740
törke	2741
##ikku	2742
##mies	2743
##suomala	2744
##mesta	2745
##vaan	2746
ot	2747
kauppa	2748
varmasti	2749
##johta	2750
puhel	2751
##laisen	2752
lauanta	2753
##osin	2754
saira	2755
ilmi	2756
jun	2757
mal	2758
##can	2759
##ban	2760
##ikkaa	2761
kirjoitti	2762
toimitus	2763
amer	2764
##itoksen	2765
antti	2766
vien	2767
muiden	2768
toki	2769
olin	2770
##bi	2771
##koho	2772
seitsemän	2773
synty	2774
viestin	2775
jätti	2776
päälle	2777
ilmoitti	2778
tuki	2779
##vallan	2780
##ryh	2781
naisen	2782
asioita	2783
juttu	2784
pat	2785
puhe	2786
##und	2787
tuom	2788
ca	2789
alueen	2790
).	2791
suure	2792
##iri	2793
luki	2794
turvallis	2795
avaus	2796
takana	2797
ryhmä	2798
##tän	2799
##rmä	2800
ylen	2801
##ksella	2802
mö	2803
##tteita	2804
julkaisi	2805
kseen	2806
##hy	2807
##iltä	2808
muod	2809
mestar	2810
edessä	2811
mas	2812
##jista	2813
ympäristö	2814
vau	2815
toimitta	2816
totesi	2817
paikalle	2818
tuke	2819
100	2820
kel	2821
kanta	2822
##istun	2823
tod	2824
pohti	2825
ruu	2826
korja	2827
matk	2828
opet	2829
mediassa	2830
ren	2831
##vana	2832
tapahtuma	2833
hyökkäys	2834
lista	2835
kevä	2836
tili	2837
olleen	2838
lähde	2839
##astaan	2840
istä	2841
uutisoi	2842
wi	2843
päivää	2844
minä	2845
oikein	2846
kärsi	2847
huono	2848
tietojen	2849
ali	2850
##isenä	2851
kausi	2852
perussuomala	2853
juon	2854
##pel	2855
eng	2856
etenkin	2857
rin	2858
##onin	2859
uhka	2860
tuore	2861
tapaa	2862
kuvaa	2863
espan	2864
misen	2865
##estö	2866
tietoa	2867
leijon	2868
##estys	2869
##ttävästi	2870
sairaala	2871
essa	2872
kaun	2873
vanke	2874
verran	2875
##ers	2876
palkin	2877
hin	2878
konser	2879
valio	2880
milla	2881
anne	2882
super	2883
ruotsa	2884
moo	2885
yön	2886
huhtik	2887
##nassa	2888
paran	2889
kap	2890
laske	2891
##ksesta	2892
alkoho	2893
##uhte	2894
##peli	2895
alusta	2896
valmi	2897
##tal	2898
tarp	2899
jän	2900
##ota	2901
rapor	2902
##tis	2903
##misestä	2904
lih	2905
##yhti	2906
##hu	2907
paras	2908
muistuttaa	2909
miseen	2910
##isuuden	2911
tap	2912
##oitu	2913
kova	2914
liikku	2915
etsi	2916
kahdeksan	2917
aiku	2918
vuosien	2919
##puolella	2920
minulla	2921
tarkoitus	2922
##liitto	2923
##rien	2924
lehti	2925
2020	2926
etu	2927
inf	2928
vät	2929
sp	2930
##oim	2931
paikan	2932
tiedä	2933
yrityks	2934
gaz	2935
laula	2936
sama	2937
##neksi	2938
maalin	2939
##onn	2940
laki	2941
),	2942
kustan	2943
kokoom	2944
eduskunta	2945
antoi	2946
##veri	2947
linja	2948
ydin	2949
##pit	2950
##vissä	2951
##istuu	2952
tuomio	2953
##hall	2954
##kkos	2955
vuotiaan	2956
englan	2957
##äni	2958
##nalla	2959
nuorten	2960
##ca	2961
seksu	2962
ge	2963
##ttuuri	2964
auk	2965
##gissä	2966
##laista	2967
usea	2968
##ksiin	2969
tyh	2970
kysel	2971
tim	2972
##kit	2973
tel	2974
##tee	2975
kulttuuri	2976
vasemmisto	2977
toivo	2978
ratkaisu	2979
ykkös	2980
tra	2981
tapahtun	2982
##llikkö	2983
muista	2984
voitta	2985
##tien	2986
ranska	2987
sdp	2988
nuori	2989
ylä	2990
seuran	2991
todennäköisesti	2992
donald	2993
27	2994
##liin	2995
##änen	2996
##tiet	2997
samaan	2998
mika	2999
uusia	3000
##hol	3001
liikke	3002
käyttöön	3003
##lit	3004
kerä	3005
rea	3006
yleensä	3007
kokem	3008
vet	3009
tulos	3010
finaali	3011
nato	3012
pakka	3013
##telee	3014
minuu	3015
##kir	3016
ihme	3017
käytännö	3018
kannatta	3019
nosta	3020
om	3021
##määrä	3022
##ps	3023
##miseksi	3024
johon	3025
##huo	3026
demokraa	3027
turun	3028
asiantuntija	3029
##arin	3030
suoraan	3031
##kat	3032
oy	3033
##kse	3034
tuttu	3035
valmentaja	3036
##destä	3037
##ister	3038
melko	3039
##tonen	3040
monet	3041
kaikkien	3042
##gh	3043
lähellä	3044
aset	3045
tyttö	3046
torj	3047
niistä	3048
hyökkää	3049
##mät	3050
sam	3051
päätti	3052
britan	3053
luu	3054
tuntuu	3055
miljar	3056
välttämä	3057
kuollut	3058
näyttelijä	3059
26	3060
ben	3061
##kissa	3062
##ros	3063
##isuutta	3064
pet	3065
sisäl	3066
kertonut	3067
mista	3068
##oili	3069
sarjassa	3070
198	3071
pelasi	3072
erikois	3073
##vista	3074
##uksella	3075
nimen	3076
alexander	3077
##bo	3078
täytyy	3079
kevää	3080
syytä	3081
raj	3082
kisoissa	3083
##aat	3084
##laisia	3085
iä	3086
##ulo	3087
toimii	3088
naton	3089
##wa	3090
vaku	3091
asiakka	3092
pelastusla	3093
##ysti	3094
##sessa	3095
virka	3096
tus	3097
vanh	3098
pieni	3099
toistaiseksi	3100
aino	3101
##mpää	3102
ensimmäistä	3103
rahaa	3104
pir	3105
huomi	3106
mennessä	3107
##hdon	3108
poikkeukse	3109
##dassa	3110
palo	3111
salo	3112
minulle	3113
myr	3114
##sissa	3115
##hä	3116
yhde	3117
kone	3118
kiinte	3119
esiinty	3120
pöy	3121
##intään	3122
##eena	3123
eniten	3124
joilla	3125
pikku	3126
##etin	3127
##istön	3128
kuk	3129
##uti	3130
kukaan	3131
päivi	3132
orpo	3133
kad	3134
iltalehdelle	3135
vuodesta	3136
voinut	3137
klo	3138
kore	3139
saav	3140
arvos	3141
kuukauden	3142
kunni	3143
##kymmen	3144
kuljetta	3145
kovin	3146
ville	3147
loh	3148
rakenta	3149
päätöksen	3150
instagram	3151
anna	3152
muuten	3153
parlamen	3154
suomalainen	3155
tärkeä	3156
ampu	3157
##ell	3158
sanoa	3159
##kansa	3160
rei	3161
60	3162
##ivi	3163
vastuu	3164
tutkimus	3165
35	3166
##iaa	3167
##ttynyt	3168
ulkoministeri	3169
keskustelu	3170
ander	3171
##tut	3172
ministeri	3173
vero	3174
iltalehden	3175
massa	3176
heik	3177
puolesta	3178
olevansa	3179
muutos	3180
tanssi	3181
rovanie	3182
mihin	3183
tei	3184
##luo	3185
ohjelman	3186
##eni	3187
lupa	3188
##tteiden	3189
puolella	3190
sijoit	3191
kumppan	3192
keskusta	3193
lapin	3194
tekemään	3195
vastusta	3196
##kenut	3197
tietää	3198
näkyy	3199
pyrki	3200
##elma	3201
##onta	3202
menee	3203
##isuuteen	3204
##ustaa	3205
uudelleen	3206
ikään	3207
pil	3208
##vina	3209
aloitti	3210
kilometrin	3211
##kkin	3212
##joita	3213
kotiin	3214
##mir	3215
joskus	3216
selvästi	3217
jonkin	3218
metrin	3219
aj	3220
##tissa	3221
miestä	3222
lehden	3223
liiga	3224
##htiin	3225
tapauksessa	3226
valmenta	3227
aal	3228
isen	3229
oleva	3230
hyvää	3231
##tteja	3232
kaupung	3233
##mpien	3234
ottelua	3235
##har	3236
##ttien	3237
löytyi	3238
pohjan	3239
seuraava	3240
osta	3241
##iki	3242
##lelle	3243
##uttanut	3244
pitkän	3245
osalta	3246
marin	3247
tehdään	3248
käytännössä	3249
oi	3250
vira	3251
fo	3252
##mal	3253
parin	3254
estä	3255
tilanteen	3256
##stään	3257
ohi	3258
##palvelu	3259
res	3260
aho	3261
omaa	3262
##pin	3263
vaatii	3264
itali	3265
##mäki	3266
tilannetta	3267
##yksiä	3268
asen	3269
mieltä	3270
kirjoit	3271
suhteen	3272
kiekko	3273
päävalmentaja	3274
pul	3275
istu	3276
##ville	3277
alan	3278
sellainen	3279
elle	3280
##kar	3281
rauha	3282
##ero	3283
valo	3284
##vaali	3285
##gas	3286
loppuun	3287
##puna	3288
selvit	3289
johto	3290
kuning	3291
pelin	3292
minun	3293
joulu	3294
kansanedustaja	3295
luotta	3296
##kiin	3297
perin	3298
kuts	3299
ab	3300
teks	3301
uskon	3302
##ner	3303
palaa	3304
toimittaja	3305
kesällä	3306
putinin	3307
##yhtiö	3308
ajon	3309
##net	3310
##upin	3311
yor	3312
##utin	3313
##met	3314
kannalta	3315
koulut	3316
##empi	3317
at	3318
##tetta	3319
##ppä	3320
pitänyt	3321
jatkossa	3322
tyyty	3323
hyvinvointialu	3324
##len	3325
##imen	3326
kuvailee	3327
ranga	3328
taso	3329
##ger	3330
##tilais	3331
päivit	3332
rakennus	3333
##ttiä	3334
olet	3335
##skan	3336
sivu	3337
ohjelmassa	3338
sau	3339
syksy	3340
ohjaa	3341
ratkais	3342
musta	3343
löyt	3344
petteri	3345
uni	3346
##ess	3347
järjestö	3348
tarkoit	3349
karsin	3350
bi	3351
##ksyn	3352
##järj	3353
star	3354
jatkuu	3355
hote	3356
ihmisten	3357
sairas	3358
##kesk	3359
tes	3360
##htaa	3361
##ttoa	3362
sosiaalisessa	3363
ket	3364
##pol	3365
2019	3366
äi	3367
liigan	3368
operaa	3369
lehd	3370
##aston	3371
tarkoittaa	3372
##össä	3373
vahing	3374
liig	3375
nähtiin	3376
##hka	3377
lähtien	3378
suuntaan	3379
28	3380
jut	3381
treen	3382
##ue	3383
##toja	3384
tiedot	3385
doll	3386
mis	3387
vuoro	3388
ammatti	3389
paa	3390
sor	3391
valmis	3392
aikoina	3393
##ästä	3394
järjest	3395
hovi	3396
tärkeää	3397
hiihto	3398
sve	3399
##tämään	3400
##kien	3401
neet	3402
char	3403
##llat	3404
huone	3405
ongelma	3406
fan	3407
iran	3408
töitä	3409
kutsu	3410
mc	3411
ps	3412
kantaa	3413
arm	3414
koton	3415
##mmo	3416
ollaan	3417
naap	3418
##uku	3419
##kaupun	3420
bu	3421
misesta	3422
##tv	3423
valit	3424
hyvän	3425
##log	3426
helsingissä	3427
29	3428
paremmin	3429
taustalla	3430
loi	3431
riippu	3432
kunta	3433
juhla	3434
keväällä	3435
##hto	3436
stt	3437
sijoi	3438
ilo	3439
kasv	3440
kasva	3441
##ttun	3442
ohja	3443
yhdysvallo	3444
posi	3445
päättyi	3446
varten	3447
ruotsi	3448
vaihtoehto	3449
suomea	3450
poliis	3451
hallinn	3452
kasvat	3453
##ett	3454
##kirj	3455
##del	3456
yhty	3457
reut	3458
pahoin	3459
##vet	3460
aikoo	3461
pistettä	3462
flo	3463
##kinä	3464
kesän	3465
##ttoman	3466
##riö	3467
mennä	3468
verta	3469
juhli	3470
kre	3471
rikko	3472
##kassa	3473
##yyden	3474
pos	3475
##nos	3476
##sar	3477
##mmista	3478
##deksi	3479
stubbin	3480
tuhan	3481
ainoa	3482
500	3483
nen	3484
voiton	3485
sotilas	3486
saapui	3487
jussi	3488
##syt	3489
yhdist	3490
itsen	3491
apua	3492
illan	3493
kyy	3494
kuvassa	3495
päässä	3496
ukrainassa	3497
##ara	3498
osu	3499
viikonloppuna	3500
vei	3501
yhtiön	3502
toimitusjohtaja	3503
tait	3504
tapahtunut	3505
kerr	3506
##delle	3507
##ikaa	3508
virhe	3509
##päivän	3510
puolueen	3511
uransa	3512
##väli	3513
yhdysvalta	3514
##kor	3515
päällä	3516
##voimien	3517
jääkiekko	3518
kauh	3519
lopussa	3520
toimintaa	3521
lauka	3522
iltalehti	3523
molemmat	3524
jar	3525
##kot	3526
vaim	3527
##nalle	3528
ros	3529
sille	3530
##uilla	3531
suoja	3532
kertovat	3533
jatkoi	3534
aiheuttaa	3535
avulla	3536
##bri	3537
hätä	3538
tilanteesta	3539
kunnossa	3540
##röm	3541
##isoi	3542
myöskään	3543
##ikkoja	3544
tukea	3545
mäki	3546
##tie	3547
##ttivät	3548
tea	3549
arv	3550
##län	3551
maassa	3552
voittanut	3553
##istoim	3554
kerta	3555
erityisen	3556
##ian	3557
##itin	3558
##isemmin	3559
ajoi	3560
avio	3561
ad	3562
##ss	3563
sie	3564
kohtaan	3565
##kal	3566
raha	3567
saatta	3568
varha	3569
nähdään	3570
käräjäoikeus	3571
kaikkea	3572
##voja	3573
taloude	3574
suhta	3575
jäänyt	3576
ele	3577
huomatta	3578
##itetty	3579
tasolla	3580
päin	3581
tavoitteen	3582
nis	3583
ste	3584
tarvi	3585
art	3586
nostaa	3587
##mille	3588
saata	3589
sinne	3590
epäillään	3591
bidenin	3592
tappio	3593
ui	3594
matkusta	3595
kokon	3596
alueelle	3597
suomalaiset	3598
##ykset	3599
lasta	3600
nur	3601
ton	3602
vin	3603
tavan	3604
asiat	3605
kärki	3606
matti	3607
ansi	3608
pääsee	3609
kus	3610
piir	3611
##itsee	3612
##ointi	3613
##jal	3614
merkit	3615
työntekijö	3616
rek	3617
##ykseen	3618
##osuhte	3619
##mansa	3620
ulkoma	3621
venäjällä	3622
lapset	3623
ella	3624
iksi	3625
ltä	3626
##dyn	3627
vuor	3628
##käyn	3629
valvon	3630
luvun	3631
haaste	3632
##istettu	3633
ennakko	3634
##hun	3635
##tenä	3636
ihmisen	3637
hallinto	3638
talon	3639
vähä	3640
kilpailun	3641
yhdysvaltojen	3642
kiire	3643
##iso	3644
##isteli	3645
odot	3646
hoito	3647
vähintään	3648
miljoonan	3649
työtä	3650
kolmas	3651
kokoon	3652
mikäli	3653
##ehdo	3654
saksan	3655
2018	3656
välttämättä	3657
##lassa	3658
##ard	3659
pod	3660
kilpaili	3661
nykyään	3662
kokonais	3663
säily	3664
nähdä	3665
lääkäri	3666
lyhy	3667
dia	3668
##tävät	3669
menes	3670
amm	3671
mos	3672
##ute	3673
##kanut	3674
nähty	3675
odotta	3676
asunto	3677
minuuttia	3678
##ksista	3679
tilasto	3680
##uksien	3681
vähemmän	3682
asiassa	3683
numer	3684
terveyden	3685
ilme	3686
saakka	3687
levi	3688
maajoukkue	3689
##meen	3690
kaver	3691
kaupp	3692
kisojen	3693
sisällä	3694
neuvos	3695
rauhan	3696
uus	3697
kunto	3698
and	3699
##kunnassa	3700
sopimus	3701
kysymys	3702
br	3703
rinta	3704
##desta	3705
uutistoim	3706
puheenjohta	3707
saivat	3708
eläin	3709
uskoo	3710
olympiala	3711
##utensa	3712
##ttävää	3713
huon	3714
verra	3715
pyörä	3716
aurin	3717
olo	3718
hoita	3719
##jalla	3720
##yteen	3721
kunnan	3722
lauta	3723
kentä	3724
nos	3725
##hen	3726
takaa	3727
maananta	3728
elokuva	3729
myynti	3730
yhdeks	3731
##bli	3732
##kauden	3733
venäläis	3734
tarin	3735
##ttain	3736
syksyn	3737
mielenos	3738
kuningas	3739
bud	3740
##lj	3741
iset	3742
johtaa	3743
yhdysvalloissa	3744
positiiv	3745
tuotta	3746
artik	3747
##kein	3748
kuun	3749
parhaa	3750
kulta	3751
norjan	3752
säästö	3753
prinssi	3754
##pen	3755
ansa	3756
avoi	3757
muutaman	3758
sopimuksen	3759
kuljettaja	3760
britanni	3761
##tön	3762
##muna	3763
saatu	3764
pros	3765
maailmanmesta	3766
ehti	3767
ts	3768
##elen	3769
##uttava	3770
suomalaisten	3771
kokonaan	3772
aurinko	3773
##hte	3774
##llisten	3775
veto	3776
##muksen	3777
##ladi	3778
nais	3779
jatka	3780
mahdollisuus	3781
ystävä	3782
##tutkin	3783
##ytys	3784
repu	3785
sosiaali	3786
wa	3787
legen	3788
onnistu	3789
tuuli	3790
pyöri	3791
80	3792
maksu	3793
talvi	3794
toimia	3795
siltä	3796
koulun	3797
järky	3798
kanna	3799
##llisuuden	3800
prosentin	3801
eteenpäin	3802
andersson	3803
##des	3804
pelannut	3805
liittyy	3806
voittaja	3807
##atta	3808
malli	3809
odottaa	3810
00	3811
tavoit	3812
jälj	3813
vieras	3814
pas	3815
##laiset	3816
tehtiin	3817
luonnon	3818
republi	3819
neen	3820
joen	3821
toisella	3822
##uita	3823
ihminen	3824
##sori	3825
pudotus	3826
yhdeksän	3827
muistel	3828
paino	3829
##lliseen	3830
vastasi	3831
isiin	3832
flori	3833
##toin	3834
some	3835
ajoneu	3836
45	3837
##estään	3838
minua	3839
harjoi	3840
toiminut	3841
median	3842
armei	3843
##eihin	3844
tapahtuu	3845
ide	3846
sto	3847
##milla	3848
kieltä	3849
##eesta	3850
johan	3851
maiden	3852
##vaale	3853
aktiiv	3854
vuoteen	3855
toimen	3856
maaliva	3857
televisi	3858
##järjestö	3859
republikaan	3860
##essi	3861
avaa	3862
gu	3863
##zz	3864
rakka	3865
puolusta	3866
##etun	3867
tuntia	3868
loma	3869
siirty	3870
käytössä	3871
##isyys	3872
lip	3873
podc	3874
pin	3875
pelkä	3876
tuntu	3877
kisan	3878
uhkaa	3879
sch	3880
toiseksi	3881
hah	3882
2016	3883
kysyi	3884
vladi	3885
tilaa	3886
näytti	3887
jalkapallo	3888
ehdot	3889
willia	3890
f1	3891
lyö	3892
kuka	3893
saadaan	3894
orpon	3895
cat	3896
##mällä	3897
prinsessa	3898
##bc	3899
##llistä	3900
##ere	3901
saavat	3902
onkin	3903
sami	3904
päässyt	3905
viranomaiset	3906
viikkoa	3907
90	3908
##tinen	3909
käynyt	3910
##ttäjän	3911
##laisten	3912
issä	3913
alta	3914
riittää	3915
##ressi	3916
##mys	3917
kamer	3918
näitä	3919
heitä	3920
##uiden	3921
sol	3922
tiede	3923
monta	3924
197	3925
##muutta	3926
opposi	3927
neuvottelu	3928
kyn	3929
##ttinen	3930
sanon	3931
pika	3932
##isilla	3933
##hdy	3934
olosuhte	3935
##sel	3936
##kelä	3937
toisaa	3938
heiken	3939
harvina	3940
olisivat	3941
##istelu	3942
ryhmän	3943
opiskeli	3944
perussuomalaisten	3945
mun	3946
helpo	3947
materi	3948
##hansa	3949
häiriö	3950
##imm	3951
seli	3952
2025	3953
yksittä	3954
yönä	3955
vladimir	3956
##ivo	3957
##utettu	3958
totta	3959
##oituksen	3960
sydän	3961
##alle	3962
saisi	3963
##unnut	3964
metriä	3965
peräti	3966
uutistoimisto	3967
je	3968
timo	3969
##istuksen	3970
alun	3971
puolen	3972
tulevat	3973
miehet	3974
muutama	3975
säännö	3976
tuotanto	3977
selkeä	3978
lon	3979
alkaen	3980
palkka	3981
lumi	3982
kata	3983
varmaan	3984
pohja	3985
meille	3986
ongelmia	3987
janne	3988
tyytyvä	3989
vanha	3990
yrittäjä	3991
tunnettu	3992
##yksestä	3993
pienen	3994
amerikka	3995
##jun	3996
runko	3997
##ts	3998
##ssin	3999
##otto	4000
toiminnan	4001
vuosikymmen	4002
kuuden	4003
lähd	4004
yrityksen	4005
maailmanc	4006
varap	4007
niko	4008
tähd	4009
entistä	4010
##päivällä	4011
harris	4012
kilometriä	4013
ravintola	4014
##kkeen	4015
##aut	4016
##rää	4017
moottori	4018
osi	4019
ttä	4020
ennätys	4021
gol	4022
kru	4023
##kov	4024
seksi	4025
naur	4026
tieten	4027
tunnin	4028
juhl	4029
halusi	4030
videolla	4031
lähteä	4032
##etu	4033
juus	4034
##asen	4035
##ttäneet	4036
##istua	4037
##tanen	4038
yhdysvallat	4039
zelen	4040
viik	4041
sain	4042
aloitta	4043
harras	4044
kerrottiin	4045
kustann	4046
syksyllä	4047
mor	4048
##én	4049
kulutta	4050
##koja	4051
##mpp	4052
##mppu	4053
uhri	4054
helmikuussa	4055
hö	4056
##kso	4057
##iemi	4058
tark	4059
hetki	4060
mtv	4061
neli	4062
omat	4063
lakko	4064
lauri	4065
kivi	4066
##dion	4067
70	4068
illä	4069
##lö	4070
tietysti	4071
sellaista	4072
tik	4073
##ustelu	4074
kohdalla	4075
huolta	4076
##läh	4077
##vistä	4078
kalle	4079
kävel	4080
noussut	4081
ehdokka	4082
yk	4083
##iva	4084
veden	4085
##mur	4086
vuosia	4087
kuvia	4088
maksaa	4089
##dään	4090
##paika	4091
lopetta	4092
vetä	4093
edellis	4094
ohjelma	4095
sähköp	4096
huomiota	4097
kiinteistö	4098
itsensä	4099
sairaal	4100
musiikki	4101
itsenä	4102
##vinen	4103
kakkos	4104
##ulan	4105
monen	4106
ääni	4107
finaal	4108
eräs	4109
seksuaal	4110
##nasta	4111
vauh	4112
kaikille	4113
riski	4114
puke	4115
valtu	4116
##vell	4117
tulossa	4118
juha	4119
doku	4120
joulukuussa	4121
toisaalta	4122
##sivät	4123
pot	4124
isten	4125
##rella	4126
lähten	4127
itseään	4128
siirto	4129
maalia	4130
hor	4131
##for	4132
sieltä	4133
hankki	4134
tällainen	4135
tavoitteena	4136
via	4137
##maalla	4138
runsaasti	4139
hinn	4140
soi	4141
##um	4142
lata	4143
aloittaa	4144
pii	4145
konk	4146
kuukausi	4147
ammattila	4148
aalto	4149
##mieh	4150
pääkaupun	4151
miehe	4152
##ttöm	4153
suosikki	4154
##oikeus	4155
laulaja	4156
be	4157
##jelu	4158
##llö	4159
olemaan	4160
viimeisen	4161
lähtee	4162
dokumen	4163
##ikoi	4164
samaa	4165
keskellä	4166
kuor	4167
viestipalvelu	4168
##valio	4169
##pide	4170
mahdollisesti	4171
syntyi	4172
erilaisia	4173
kuoleman	4174
onnettomuus	4175
tammikuussa	4176
##yttä	4177
##uttamaan	4178
zelensky	4179
##llisi	4180
seud	4181
näkee	4182
osan	4183
##ttomasti	4184
kansanedusta	4185
gran	4186
##eista	4187
alas	4188
poliit	4189
areen	4190
historia	4191
jukka	4192
##fes	4193
##lehti	4194
sir	4195
tarke	4196
vene	4197
##juo	4198
viest	4199
##urhe	4200
tiedon	4201
suomalaisen	4202
##vonen	4203
jalkapa	4204
##uston	4205
lapp	4206
lapsia	4207
pri	4208
ölj	4209
puolustusministeri	4210
kierroksella	4211
verrattuna	4212
komp	4213
energ	4214
kesänä	4215
luvulla	4216
31	4217
au	4218
##nn	4219
tuomar	4220
esitys	4221
kaikkia	4222
tosin	4223
##hoit	4224
lainen	4225
isesti	4226
ampuma	4227
kokoomuksen	4228
ajaa	4229
oll	4230
##ytti	4231
päähän	4232
asukka	4233
tiedossa	4234
tyttä	4235
videon	4236
nouse	4237
##isterin	4238
rajan	4239
itselleen	4240
virta	4241
rakenne	4242
proje	4243
##kt	4244
##mite	4245
##gar	4246
##eillä	4247
iski	4248
halunnut	4249
vaikutus	4250
henkilökohta	4251
pariisin	4252
##du	4253
##hoi	4254
##kau	4255
kansalais	4256
##peä	4257
lausunn	4258
##vas	4259
##rian	4260
samassa	4261
##joja	4262
ilmasto	4263
nyr	4264
mikään	4265
varsinkin	4266
##saa	4267
syyttäjä	4268
päätöks	4269
kehitys	4270
vihre	4271
parempi	4272
##jala	4273
##ttoi	4274
##kalla	4275
halla	4276
##istetaan	4277
missään	4278
laitt	4279
vuokra	4280
katu	4281
vettä	4282
##uudet	4283
eduskunnan	4284
##yä	4285
##istaan	4286
##kejä	4287
hänestä	4288
aikaisemmin	4289
kesäkuussa	4290
ly	4291
keino	4292
matkan	4293
##nolla	4294
haavisto	4295
kevään	4296
een	4297
espo	4298
syyskuussa	4299
yliopiston	4300
helposti	4301
oire	4302
sti	4303
japan	4304
mad	4305
pron	4306
helsinki	4307
##isyy	4308
hamas	4309
mic	4310
sanomien	4311
kriti	4312
##fk	4313
joe	4314
real	4315
julkaise	4316
paikkaa	4317
##teri	4318
menet	4319
mennyt	4320
lääke	4321
väkivalta	4322
kuninkaa	4323
apu	4324
tahansa	4325
##ley	4326
liiton	4327
john	4328
asiakas	4329
instagramissa	4330
geor	4331
liikaa	4332
##kkaasti	4333
reil	4334
##ttömä	4335
kirjoitta	4336
osallistui	4337
yks	4338
heistä	4339
edustaja	4340
tuntui	4341
hävi	4342
yritti	4343
onnistui	4344
kotona	4345
##tella	4346
samm	4347
esitutkin	4348
remon	4349
tietoja	4350
miehi	4351
äänes	4352
vuodessa	4353
huomauttaa	4354
ahd	4355
##urva	4356
kestä	4357
haki	4358
kasvan	4359
##bert	4360
##tettä	4361
törmä	4362
täysi	4363
##intoja	4364
pakko	4365
suuren	4366
elämää	4367
kasvoi	4368
tuho	4369
ainoastaan	4370
ikk	4371
##ukan	4372
joutuu	4373
malla	4374
lasku	4375
uno	4376
##ilan	4377
##mättä	4378
kasvu	4379
hetken	4380
seurauksena	4381
##mpaan	4382
charl	4383
##tuo	4384
##yksi	4385
anal	4386
osuus	4387
tytä	4388
kaar	4389
lisään	4390
yllätys	4391
##ström	4392
mahdollisu	4393
tutkinnan	4394
harjoitus	4395
spor	4396
##kis	4397
lait	4398
kuule	4399
##kkiä	4400
löyty	4401
kiinan	4402
jyr	4403
##fa	4404
radio	4405
naiset	4406
viimeinen	4407
vihr	4408
ensimmäisenä	4409
hilja	4410
##vuus	4411
##gn	4412
##dät	4413
##hon	4414
##insa	4415
muisto	4416
sivi	4417
300	4418
osin	4419
##änsä	4420
reis	4421
lopu	4422
hii	4423
konf	4424
koira	4425
jaksossa	4426
##oilija	4427
##fessori	4428
jaka	4429
jokainen	4430
roman	4431
vor	4432
##sää	4433
##ineen	4434
##unsa	4435
koo	4436
äänestys	4437
marraskuussa	4438
varsinais	4439
maaliskuussa	4440
pohtii	4441
##usin	4442
auttaa	4443
laajen	4444
isia	4445
ann	4446
sovi	4447
oikea	4448
versi	4449
kirjan	4450
##utuvat	4451
nousee	4452
##sty	4453
##llyn	4454
päällikkö	4455
kaikkiaan	4456
##estäni	4457
bor	4458
hää	4459
##udesta	4460
tutus	4461
vahvistaa	4462
##ski	4463
tavar	4464
pallo	4465
ajattel	4466
toisessa	4467
##misessa	4468
arvon	4469
kisassa	4470
am	4471
gra	4472
nut	4473
##be	4474
pystyy	4475
sääntö	4476
pyyn	4477
vallan	4478
rakas	4479
##veä	4480
helppo	4481
kaupan	4482
ymmärtää	4483
##musta	4484
##mmalla	4485
##maksi	4486
liban	4487
perusta	4488
2017	4489
toukokuussa	4490
##imä	4491
olemassa	4492
välin	4493
viet	4494
vauri	4495
aste	4496
korona	4497
näyttä	4498
ruotsissa	4499
luonno	4500
sisään	4501
erin	4502
##lm	4503
saaneet	4504
oulussa	4505
kamppa	4506
kilpailussa	4507
##pla	4508
##täjä	4509
##ilen	4510
taan	4511
jättää	4512
puhd	4513
haluan	4514
lokakuussa	4515
##kussa	4516
##tala	4517
sade	4518
näistä	4519
joukossa	4520
katsoi	4521
##llisimman	4522
##ös	4523
##aria	4524
##istossa	4525
tall	4526
kalli	4527
toisin	4528
chr	4529
suru	4530
sito	4531
##hei	4532
sanna	4533
kari	4534
nuoret	4535
oikeudenkäyn	4536
##gu	4537
##ytön	4538
tunnel	4539
##gian	4540
murh	4541
suku	4542
viranomaisten	4543
afp	4544
##daa	4545
##jiä	4546
vaimo	4547
naura	4548
osaval	4549
lopet	4550
mahdollisimman	4551
laji	4552
face	4553
##tilaisuudessa	4554
##riin	4555
keho	4556
##ham	4557
tapaus	4558
kylä	4559
merkittävä	4560
teksti	4561
cather	4562
hon	4563
täh	4564
##ralla	4565
maasto	4566
mari	4567
elämään	4568
kansallis	4569
kehit	4570
##öi	4571
##istusta	4572
uuteen	4573
ranskan	4574
organ	4575
keskustelua	4576
huolto	4577
tampereen	4578
vuotiaana	4579
bbc	4580
risti	4581
##ler	4582
keskustan	4583
liha	4584
nosti	4585
psy	4586
kuvat	4587
toiseen	4588
##neensa	4589
william	4590
##eva	4591
##paikan	4592
aloit	4593
niinistö	4594
##tteeseen	4595
syntynyt	4596
lääkke	4597
hope	4598
saatiin	4599
tiedotus	4600
liikente	4601
##palo	4602
sijaitsee	4603
400	4604
##paikka	4605
päätty	4606
jälki	4607
opetta	4608
täyde	4609
##itti	4610
##auto	4611
##estiin	4612
##toihin	4613
venäjälle	4614
tasavallan	4615
palkinto	4616
##yl	4617
##essään	4618
lopulla	4619
vahvasti	4620
yllättä	4621
elokuussa	4622
tarvitta	4623
tekno	4624
kierroksen	4625
bra	4626
##llas	4627
korj	4628
johd	4629
joudu	4630
hypp	4631
sovell	4632
asioista	4633
syystä	4634
ottanut	4635
teemu	4636
##järvi	4637
historian	4638
34	4639
ollen	4640
##nön	4641
##peri	4642
##oida	4643
##tejä	4644
laine	4645
astetta	4646
vahvista	4647
kovaa	4648
##maton	4649
nähnyt	4650
energia	4651
eva	4652
pus	4653
nopea	4654
tyypi	4655
räjä	4656
lopput	4657
kampanja	4658
##villa	4659
yhtenä	4660
terä	4661
hyödyn	4662
käsite	4663
olli	4664
inves	4665
maata	4666
suunta	4667
maria	4668
oikeasti	4669
aikata	4670
kapteen	4671
hs	4672
##rinen	4673
##bu	4674
##orin	4675
palasi	4676
tarvitaan	4677
fyys	4678
##mit	4679
jari	4680
lupaa	4681
ainakaan	4682
##pala	4683
seinä	4684
paitsi	4685
vaaran	4686
kiinnosta	4687
reag	4688
voittaa	4689
##kainen	4690
##paan	4691
iseen	4692
suomesta	4693
peru	4694
kaksikko	4695
havai	4696
järjestelmä	4697
vaaleissa	4698
slo	4699
sara	4700
paikallis	4701
sprin	4702
herk	4703
##imi	4704
##vist	4705
harki	4706
##land	4707
##tieteen	4708
far	4709
nsä	4710
##eo	4711
##tuvat	4712
hyviä	4713
##uvo	4714
tarkka	4715
talouden	4716
fre	4717
##tter	4718
tappi	4719
näiden	4720
haus	4721
##oro	4722
entisen	4723
yrittää	4724
matkalla	4725
podcast	4726
aluksi	4727
tarjolla	4728
törkeästä	4729
aine	4730
dani	4731
##uva	4732
ralli	4733
##önen	4734
nuoren	4735
eurovi	4736
ajatus	4737
työskenne	4738
##ryhmän	4739
vauhd	4740
hyökkääjä	4741
ina	4742
kuol	4743
##zb	4744
##koa	4745
##tor	4746
päätyi	4747
##kilä	4748
kuukautta	4749
sulje	4750
muistelee	4751
puolet	4752
osoitta	4753
##tteitä	4754
määrän	4755
##mmaksi	4756
huomattavasti	4757
##kula	4758
kori	4759
viita	4760
laite	4761
varmista	4762
puolust	4763
veren	4764
oulula	4765
puoliväli	4766
lauantain	4767
kruun	4768
tytär	4769
36	4770
##ikke	4771
##ilua	4772
rata	4773
##ood	4774
asteen	4775
vaalit	4776
siirtyi	4777
jyvä	4778
cha	4779
spe	4780
##sikko	4781
komen	4782
esille	4783
jossain	4784
edellisen	4785
presidenttiehdo	4786
juontaja	4787
32	4788
##asi	4789
##ännyt	4790
##mmassa	4791
kunnia	4792
##markkin	4793
jänni	4794
dra	4795
##ismi	4796
saari	4797
hevos	4798
nuore	4799
tutkinta	4800
pariskunta	4801
##eg	4802
##boo	4803
##etyn	4804
##uivat	4805
##kela	4806
alkuperä	4807
käynnissä	4808
jutussa	4809
cnn	4810
of	4811
##ci	4812
##sien	4813
##tilla	4814
toy	4815
haas	4816
##ilais	4817
antanut	4818
hieno	4819
mestaruus	4820
pelastuslaitos	4821
uksen	4822
vastu	4823
ukrainaan	4824
fran	4825
##za	4826
joko	4827
käydä	4828
mukaisesti	4829
##nu	4830
mall	4831
##mana	4832
yhtään	4833
mielestäni	4834
kirjassa	4835
toimintaan	4836
välit	4837
juoksi	4838
euroopassa	4839
artikkel	4840
##ikö	4841
osto	4842
hyväksi	4843
heillä	4844
tutkija	4845
tekijä	4846
##das	4847
rauta	4848
julkisuudessa	4849
muutoksia	4850
näkökul	4851
##vyys	4852
##ukkaa	4853
##koti	4854
viittaa	4855
kaikista	4856
viimeksi	4857
etteivät	4858
aiheutti	4859
politiikan	4860
tekn	4861
linnan	4862
wal	4863
##lää	4864
##ji	4865
vall	4866
iseksi	4867
rajoit	4868
inter	4869
roh	4870
kasvaa	4871
purra	4872
sairaalaan	4873
up	4874
##lund	4875
##pitel	4876
##anen	4877
##ukä	4878
sekunn	4879
saun	4880
kisat	4881
rann	4882
uudesta	4883
mestari	4884
heinäkuussa	4885
pahoinpitel	4886
##bridi	4887
neuvosto	4888
lit	4889
##kisen	4890
kome	4891
joutunut	4892
selvää	4893
autoa	4894
sydä	4895
##sk	4896
##ya	4897
##uki	4898
tiellä	4899
erik	4900
kertoivat	4901
pelaajat	4902
etsin	4903
yliopisto	4904
sho	4905
ennuste	4906
roma	4907
##poli	4908
##ystävä	4909
arvio	4910
kiertu	4911
##terve	4912
aamulla	4913
viestintä	4914
jyväsky	4915
##by	4916
poissa	4917
tuote	4918
mieleen	4919
tuskin	4920
faceboo	4921
##empää	4922
kolle	4923
##käri	4924
hauta	4925
tietä	4926
##itetään	4927
löytää	4928
myöntää	4929
paljastaa	4930
vaimonsa	4931
upe	4932
heille	4933
julkaistu	4934
kohdistu	4935
auki	4936
##lon	4937
tuolla	4938
##istettiin	4939
##kasti	4940
rooli	4941
kalta	4942
##kp	4943
hengen	4944
2014	4945
tilanteeseen	4946
omistaja	4947
urallaan	4948
##missi	4949
##htia	4950
mietti	4951
kuvaili	4952
hankin	4953
uudet	4954
sukup	4955
mielenki	4956
##ttömästi	4957
33	4958
##omaan	4959
päättää	4960
sana	4961
noud	4962
mielessä	4963
ilmoitta	4964
vol	4965
yleisurhe	4966
hiljat	4967
uima	4968
rus	4969
usa	4970
##sit	4971
jor	4972
kiusa	4973
##ester	4974
strat	4975
rie	4976
##yttää	4977
kadon	4978
niihin	4979
varus	4980
lev	4981
##innä	4982
hiljattain	4983
fer	4984
##pite	4985
##öri	4986
##bin	4987
##kelu	4988
aih	4989
aje	4990
gr	4991
##emaan	4992
laita	4993
vantaan	4994
henkilöä	4995
puhelim	4996
riste	4997
##ov	4998
##teet	4999
##oitiin	5000
voita	5001
##jojen	5002
korvaa	5003
lapissa	5004
vahva	5005
yrittä	5006
peliä	5007
kansainvälisen	5008
##keskus	5009
kriitt	5010
york	5011
britannian	5012
pelkästään	5013
##oh	5014
##mari	5015
##jk	5016
##ene	5017
##isistä	5018
käytetty	5019
turha	5020
vaikeaa	5021
tutkimuksen	5022
ari	5023
ks	5024
##kky	5025
##pua	5026
voimaan	5027
esittää	5028
hollan	5029
asema	5030
kiinnos	5031
yhteisö	5032
löyde	5033
katsoa	5034
ilmiö	5035
du	5036
omia	5037
##dat	5038
laittaa	5039
valinta	5040
pele	5041
harry	5042
ukrainalle	5043
huhtikuussa	5044
liigassa	5045
nik	5046
tom	5047
pojan	5048
##osassa	5049
väärin	5050
festi	5051
kää	5052
##mmasta	5053
sekun	5054
##hdot	5055
lehdelle	5056
keitti	5057
reuters	5058
##jalta	5059
pake	5060
niissä	5061
viimeistä	5062
liikunta	5063
sivusto	5064
leijonien	5065
linn	5066
##ph	5067
##killä	5068
##vaih	5069
muistaa	5070
ylivoima	5071
hallin	5072
häl	5073
ulkopuol	5074
tarjoa	5075
gazan	5076
##osto	5077
tavoin	5078
##komite	5079
mah	5080
levy	5081
syvä	5082
hizb	5083
##ilija	5084
puuk	5085
onneksi	5086
ratkaise	5087
normaal	5088
sairaus	5089
##vaaleissa	5090
tah	5091
##seet	5092
hizbolla	5093
##elu	5094
2000	5095
nautti	5096
sotila	5097
iltapäivällä	5098
henkilön	5099
kannatus	5100
kall	5101
sotilaa	5102
botta	5103
wil	5104
##ät	5105
maku	5106
tuomittiin	5107
##gg	5108
##iky	5109
##ellaan	5110
196	5111
ulkomaa	5112
järjestetään	5113
pidetään	5114
lausun	5115
muodos	5116
aust	5117
ber	5118
ile	5119
##lik	5120
##py	5121
##imin	5122
syyll	5123
syynä	5124
tyyli	5125
kuninga	5126
tietenkin	5127
otettu	5128
##inin	5129
##mion	5130
naim	5131
suhde	5132
vastus	5133
marko	5134
tanska	5135
elokuvan	5136
merkittävästi	5137
tunnetaan	5138
kritiikki	5139
was	5140
##etti	5141
##par	5142
##poo	5143
##ann	5144
##rilla	5145
eläkke	5146
##emmistö	5147
vakavasti	5148
##varain	5149
lähtenyt	5150
kuningatar	5151
jaa	5152
ryö	5153
ulo	5154
##wi	5155
kot	5156
kohu	5157
ikkun	5158
etä	5159
##rassa	5160
mac	5161
maale	5162
##dian	5163
tärkein	5164
kunnes	5165
rahoit	5166
##dellä	5167
kuolleen	5168
moti	5169
uhrin	5170
vastaava	5171
raska	5172
taistelu	5173
##vut	5174
##usen	5175
##alin	5176
somer	5177
alueilla	5178
huija	5179
sellaisia	5180
nimenomaan	5181
##ilin	5182
##viras	5183
työmarkkin	5184
korostaa	5185
poliisille	5186
harrisin	5187
aikojen	5188
urheilija	5189
golf	5190
ota	5191
sc	5192
##pään	5193
##aalin	5194
##kuva	5195
palestiin	5196
ilmes	5197
merkin	5198
##nista	5199
##ttilä	5200
kamala	5201
##kone	5202
##mmät	5203
hanka	5204
asiaan	5205
selvittää	5206
puoliso	5207
austr	5208
set	5209
##mes	5210
pelissä	5211
tiiv	5212
##hoja	5213
keskuksen	5214
sisältä	5215
voittoa	5216
epäillyn	5217
kristi	5218
lämpötila	5219
joihin	5220
##ikkaan	5221
tauo	5222
perään	5223
elämässä	5224
yhteyttä	5225
euroviisu	5226
utu	5227
ves	5228
##ilo	5229
##valle	5230
muuttaa	5231
##ttelun	5232
saapu	5233
##ttömän	5234
hifk	5235
hankke	5236
taakse	5237
##yneen	5238
petty	5239
professori	5240
vasemmistoliiton	5241
37	5242
##hään	5243
##ano	5244
##urn	5245
tällaista	5246
parhaan	5247
##puolelle	5248
iranin	5249
sanonut	5250
organisaa	5251
##veli	5252
##istys	5253
tähden	5254
##mpana	5255
##joen	5256
##ikassa	5257
heikki	5258
lämm	5259
syyttäjän	5260
tiedotti	5261
rovanperä	5262
lahja	5263
omasta	5264
pei	5265
##isku	5266
inno	5267
heng	5268
muutti	5269
virh	5270
kotima	5271
kaupungissa	5272
eksi	5273
omaan	5274
siten	5275
är	5276
##ror	5277
kokenut	5278
osasto	5279
kyky	5280
##koihin	5281
hanna	5282
##utuminen	5283
nimittäin	5284
alkoholi	5285
olle	5286
##let	5287
tallen	5288
asetta	5289
parhaillaan	5290
toivoo	5291
bal	5292
##jään	5293
##mmaa	5294
esityksen	5295
selvisi	5296
etukä	5297
eroa	5298
katsoo	5299
mosko	5300
##utetta	5301
##tilan	5302
lauk	5303
alkanut	5304
lähinnä	5305
kauan	5306
juoks	5307
kokemus	5308
suurläh	5309
krem	5310
tavoite	5311
##kkinen	5312
##ministeriö	5313
puolelle	5314
illalla	5315
perjantai	5316
häirin	5317
ruotsalais	5318
zelenskyi	5319
der	5320
go	5321
miseksi	5322
##bet	5323
vahin	5324
laitoksen	5325
kiina	5326
lippu	5327
##ynnä	5328
puhua	5329
mäen	5330
prosentti	5331
vapaaehto	5332
##vaalien	5333
75	5334
##dasta	5335
##isiko	5336
##yön	5337
vala	5338
naista	5339
##ittava	5340
tapahtuman	5341
musiik	5342
odotetaan	5343
yksinkerta	5344
maalivahti	5345
mielenkiinto	5346
win	5347
##wan	5348
parasta	5349
kertoa	5350
##maatt	5351
ohje	5352
tekevät	5353
suuria	5354
ehtin	5355
puhutaan	5356
nyrkke	5357
kodin	5358
##taalla	5359
mai	5360
mia	5361
red	5362
vanhan	5363
kokouksessa	5364
salossa	5365
tiedotteen	5366
bän	5367
bel	5368
ret	5369
ise	5370
alus	5371
##vinnyt	5372
##ranga	5373
kulku	5374
ulkopuolella	5375
lainkaan	5376
valtiovarain	5377
korjaa	5378
ohe	5379
##nissa	5380
tapaan	5381
sanotaan	5382
luonto	5383
oppila	5384
vuotiaiden	5385
artisti	5386
38	5387
aki	5388
##messa	5389
##rjä	5390
##bla	5391
##äneet	5392
johti	5393
##miel	5394
##ttelut	5395
kemi	5396
##töä	5397
edu	5398
##joukkue	5399
etukäteen	5400
##zin	5401
tarina	5402
puhui	5403
isänsä	5404
##iaamuna	5405
##imaa	5406
hävisi	5407
tunnista	5408
##llisena	5409
täyden	5410
löysi	5411
pyör	5412
##järven	5413
lais	5414
laito	5415
kärj	5416
inst	5417
hymy	5418
##vinä	5419
jotkut	5420
julkisuuteen	5421
nousu	5422
epäilee	5423
pyytää	5424
soitti	5425
uim	5426
##ltaan	5427
näki	5428
tunnet	5429
ilmoituksen	5430
arj	5431
mään	5432
nukku	5433
##tman	5434
##tissä	5435
##mmissa	5436
##äili	5437
luvassa	5438
veikka	5439
määrää	5440
vaikutti	5441
##ryhmä	5442
dollaria	5443
kannata	5444
aio	5445
paikkoja	5446
milloin	5447
kaarin	5448
syöpä	5449
sunnuntain	5450
onnistunut	5451
voittoon	5452
tenn	5453
pie	5454
##kista	5455
##tian	5456
koe	5457
ilmen	5458
##dalla	5459
##mpiin	5460
seuraavaksi	5461
löytynyt	5462
kokoonpan	5463
esta	5464
ron	5465
yo	5466
##illut	5467
##ustel	5468
taito	5469
##alaisen	5470
kate	5471
henki	5472
syyt	5473
aivo	5474
välierä	5475
2015	5476
perjantain	5477
liittyen	5478
hyökkäyksen	5479
##tyksessä	5480
##politi	5481
autta	5482
yn	5483
##tra	5484
koki	5485
tuon	5486
kulut	5487
laaja	5488
lainsää	5489
##liigan	5490
sveit	5491
##tos	5492
hybridi	5493
##valtaa	5494
yksilö	5495
ensimmäisessä	5496
nähden	5497
pitkäaika	5498
merkki	5499
loukkaantui	5500
47	5501
##anne	5502
viha	5503
isesta	5504
##unnan	5505
pitkin	5506
uudessa	5507
britti	5508
olympiakomite	5509
kuuluvat	5510
minuut	5511
hallinnon	5512
39	5513
omalla	5514
sten	5515
##sisi	5516
##ktio	5517
talli	5518
alen	5519
myönsi	5520
tampereella	5521
##hington	5522
washington	5523
##kuo	5524
viisu	5525
tol	5526
maini	5527
käytetään	5528
##istiin	5529
ensimmäisellä	5530
epäonn	5531
hoid	5532
tulevaisuudessa	5533
finaalissa	5534
##skin	5535
##koon	5536
muutta	5537
ener	5538
kein	5539
##udet	5540
pelican	5541
uksesta	5542
oir	5543
vik	5544
##paino	5545
raiska	5546
saattoi	5547
tapauksen	5548
president	5549
nykyinen	5550
vieraili	5551
poikkeuksellisen	5552
äidin	5553
niskanen	5554
juu	5555
##tkä	5556
joki	5557
tois	5558
kiito	5559
matto	5560
parissa	5561
kulke	5562
##yksellä	5563
väliin	5564
maailma	5565
mestaru	5566
merkittä	5567
itsestään	5568
tarvitsee	5569
päivys	5570
investo	5571
55	5572
##kto	5573
##ario	5574
##kojen	5575
vamm	5576
paina	5577
periaa	5578
##vaara	5579
louna	5580
erään	5581
maaliin	5582
pyh	5583
##ulle	5584
tältä	5585
toivon	5586
heikko	5587
##matka	5588
ruokaa	5589
kisoihin	5590
hämmen	5591
murha	5592
tekni	5593
loukkaantu	5594
##holm	5595
tyytyväinen	5596
lainsäädän	5597
olisin	5598
##eellä	5599
stan	5600
tiedottaa	5601
haavoi	5602
johtoon	5603
edellä	5604
haastattelu	5605
sähköaut	5606
##päällikkö	5607
todellis	5608
vakava	5609
hurri	5610
lauantai	5611
espanjan	5612
operaatio	5613
vään	5614
##esi	5615
##karin	5616
##ituksen	5617
vajaa	5618
talven	5619
etene	5620
valittiin	5621
aur	5622
kka	5623
ser	5624
##eja	5625
##..	5626
##unen	5627
##ulun	5628
seka	5629
kans	5630
tapausta	5631
selv	5632
silmä	5633
aiempaa	5634
ehdokas	5635
harrasta	5636
selviää	5637
minuutin	5638
työntekijä	5639
käytöstä	5640
44	5641
##eta	5642
##hön	5643
järke	5644
rakasta	5645
##valtu	5646
verot	5647
henkilöstö	5648
käsittel	5649
jenni	5650
kolmannen	5651
kappale	5652
taiteili	5653
valvonta	5654
kasvanut	5655
##etään	5656
##nissä	5657
##ukselle	5658
##mälä	5659
##ellään	5660
lämmin	5661
kohteen	5662
llinen	5663
tuloksen	5664
pyysi	5665
vankeus	5666
englannin	5667
ara	5668
omassa	5669
##ersin	5670
lakka	5671
potil	5672
kestää	5673
kilo	5674
kirkko	5675
useat	5676
##utuneet	5677
myrsky	5678
65	5679
nes	5680
seen	5681
##alo	5682
##oilta	5683
kasa	5684
angel	5685
haita	5686
jäädä	5687
##ttelemaan	5688
tulokset	5689
haluavat	5690
niemi	5691
korean	5692
legenda	5693
sus	5694
komissi	5695
ison	5696
sote	5697
pelaajia	5698
pystynyt	5699
trumpia	5700
päätöstä	5701
vaalien	5702
joukkoon	5703
##keskuksen	5704
sekuntia	5705
all	5706
juna	5707
sot	5708
##pia	5709
sauna	5710
max	5711
##ministerin	5712
veron	5713
hämeen	5714
##piiri	5715
keskimää	5716
vaatim	5717
valmistel	5718
verkkosi	5719
daniel	5720
keskimäärin	5721
mut	5722
sh	5723
##tystä	5724
toisia	5725
ham	5726
##joista	5727
keikka	5728
##issään	5729
minusta	5730
viron	5731
paikalta	5732
este	5733
sähkön	5734
pelata	5735
teollisuus	5736
omina	5737
aan	5738
liki	5739
##dissa	5740
##nia	5741
koto	5742
aloi	5743
##ppaa	5744
nykyisin	5745
kymmeniä	5746
ilmatieteen	5747
koiran	5748
krista	5749
olympialais	5750
oppi	5751
##aari	5752
totu	5753
vär	5754
heh	5755
askel	5756
##vellä	5757
vastan	5758
ylös	5759
vuodelta	5760
samoin	5761
##kistä	5762
salli	5763
hyvät	5764
luokan	5765
meta	5766
riikka	5767
hämmä	5768
välittömästi	5769
tikto	5770
rkp	5771
sun	5772
##pito	5773
##eltaan	5774
##kselle	5775
##mäen	5776
kotimaa	5777
polttoa	5778
liikenteen	5779
haluaisi	5780
sveitsi	5781
sijoittui	5782
siviili	5783
##tre	5784
##kohd	5785
matt	5786
maailmassa	5787
toivotta	5788
yhtye	5789
##hteeri	5790
tyttären	5791
klas	5792
män	5793
##tteeksi	5794
käs	5795
##opim	5796
tuotteita	5797
summa	5798
sulke	5799
käräjäoikeudessa	5800
hamasin	5801
##ssia	5802
maat	5803
##misario	5804
arki	5805
puhuu	5806
martin	5807
monia	5808
suomalaista	5809
sope	5810
lentoken	5811
cup	5812
uksi	5813
##enee	5814
##lian	5815
##urssi	5816
##missä	5817
ark	5818
eivätkä	5819
syöttö	5820
yllättäen	5821
##isillä	5822
poikan	5823
luvan	5824
läs	5825
erän	5826
kommentti	5827
uudenmaan	5828
huolissaan	5829
pisteen	5830
hahmo	5831
48	5832
essä	5833
tallin	5834
hyl	5835
töihin	5836
seuraavana	5837
juttua	5838
paikkaan	5839
##huone	5840
kerrosta	5841
tshe	5842
gri	5843
net	5844
vit	5845
##tille	5846
##istin	5847
millä	5848
selän	5849
keskitty	5850
tapahtumia	5851
suurta	5852
pör	5853
tuomion	5854
tarkemmin	5855
pään	5856
##mossa	5857
##ilussa	5858
##urg	5859
pelasta	5860
osoittaa	5861
eläke	5862
elää	5863
elina	5864
tappara	5865
väitti	5866
kehittä	5867
puolisonsa	5868
##koski	5869
ii	5870
jes	5871
omien	5872
testa	5873
##matto	5874
##vänä	5875
kasvo	5876
paljasti	5877
pysäh	5878
mitali	5879
näkem	5880
sijoitus	5881
charles	5882
kapteeni	5883
##keri	5884
##ensä	5885
##aran	5886
##toista	5887
valin	5888
suj	5889
kultaa	5890
epävar	5891
kokee	5892
käyttöä	5893
##istyi	5894
äärimmä	5895
##con	5896
##vala	5897
##aaja	5898
##iksen	5899
jakoi	5900
kaveri	5901
olevat	5902
sanoin	5903
laski	5904
edelly	5905
seksuaali	5906
rovaniemen	5907
sairaalassa	5908
...	5909
berg	5910
glo	5911
ikinä	5912
##oston	5913
kahta	5914
poista	5915
kerää	5916
marja	5917
suomalaisia	5918
yleisön	5919
##tilat	5920
tuomitsi	5921
saattavat	5922
budje	5923
viih	5924
innes	5925
paranta	5926
koski	5927
oikeudessa	5928
lou	5929
peh	5930
kuului	5931
autojen	5932
##ministeriön	5933
laatu	5934
rool	5935
joulukuuta	5936
46	5937
los	5938
##tista	5939
onni	5940
##vid	5941
##vir	5942
matala	5943
anton	5944
kaupa	5945
heleni	5946
tör	5947
##nanen	5948
kolmanneksi	5949
tekoä	5950
materiaali	5951
##lääkäri	5952
otettiin	5953
vaki	5954
maise	5955
halli	5956
##piir	5957
laaj	5958
seuraavan	5959
ohjelmaan	5960
huuto	5961
päih	5962
##vuoro	5963
havainn	5964
suoritus	5965
tavanoma	5966
erinoma	5967
kala	5968
tren	5969
##pari	5970
##fan	5971
##vall	5972
##västi	5973
pääty	5974
valitsi	5975
##ppen	5976
hol	5977
silmin	5978
##meren	5979
lenno	5980
siirre	5981
sosiaalisen	5982
tilillään	5983
naapur	5984
ruus	5985
##vil	5986
viin	5987
tupa	5988
matkaa	5989
tänne	5990
huipp	5991
liittyvät	5992
erässä	5993
televisio	5994
eilen	5995
tapauksesta	5996
##kene	5997
kesäkuun	5998
yhteyden	5999
keväänä	6000
ehtinyt	6001
bis	6002
km	6003
pl	6004
testi	6005
vyö	6006
##kosen	6007
##ova	6008
##ds	6009
##hn	6010
##bor	6011
##ksessa	6012
myöhä	6013
##ttemmin	6014
vuotiaa	6015
valmennus	6016
yhteistyötä	6017
läsnä	6018
hjk	6019
##isar	6020
##uth	6021
sotaa	6022
käräjäoikeuden	6023
saksassa	6024
valitetta	6025
pronssi	6026
sinä	6027
teen	6028
##lun	6029
viro	6030
laitos	6031
potila	6032
isoja	6033
asuu	6034
katka	6035
juoksu	6036
jatkuvasti	6037
lataus	6038
ttiin	6039
##onnut	6040
##teeksi	6041
lahden	6042
rad	6043
henrik	6044
muuttunut	6045
##itettu	6046
pystyi	6047
koulutus	6048
käsittely	6049
turnauksen	6050
normaali	6051
##mun	6052
##sian	6053
##teessa	6054
muihin	6055
ennus	6056
eurolla	6057
valtava	6058
väkivallan	6059
vihreiden	6060
col	6061
##uja	6062
##oimin	6063
##kille	6064
kera	6065
##innin	6066
huomaa	6067
##mpiä	6068
perustus	6069
lähesty	6070
pohjoisma	6071
vierailu	6072
maajoukkueen	6073
turvallisuuden	6074
järjestön	6075
syksynä	6076
koos	6077
kuus	6078
rallin	6079
paluu	6080
##tena	6081
##kilpa	6082
mete	6083
##kunna	6084
esiintyi	6085
ottamaan	6086
kylmä	6087
alkavat	6088
viikonlopun	6089
rantanen	6090
800	6091
cupin	6092
##raali	6093
##isuudesta	6094
jokin	6095
muille	6096
isella	6097
##yydestä	6098
pallon	6099
innos	6100
osui	6101
##joille	6102
huomioon	6103
asunnon	6104
pose	6105
##immillaan	6106
##hyö	6107
##qvist	6108
kiitos	6109
näytö	6110
tuen	6111
hau	6112
hakea	6113
##uksensa	6114
muualla	6115
meren	6116
huolest	6117
pelastuslaitoksen	6118
italian	6119
##oli	6120
##teko	6121
sittemmin	6122
vamma	6123
kim	6124
##ppe	6125
minut	6126
puha	6127
terror	6128
hous	6129
väliaika	6130
##tuivat	6131
kenttä	6132
##vuoden	6133
aleksan	6134
tuomari	6135
demokraattien	6136
rekister	6137
räjähd	6138
meteoro	6139
bon	6140
chi	6141
##hdin	6142
kaner	6143
varma	6144
tulevan	6145
muuttu	6146
kisaa	6147
tarkoituksena	6148
ac	6149
ryt	6150
##mö	6151
##jalainen	6152
jaksa	6153
##etut	6154
##teh	6155
täynnä	6156
pelaajien	6157
toimeen	6158
irti	6159
vanhemmat	6160
aiheuttanut	6161
yhdysvaltalais	6162
ohella	6163
41	6164
##tanut	6165
##tähti	6166
pahi	6167
##tteesta	6168
mestaruuden	6169
##itinsä	6170
micha	6171
enkä	6172
laitta	6173
loista	6174
sunnuntai	6175
tiistai	6176
melkein	6177
ympärillä	6178
korjaus	6179
joens	6180
öljy	6181
##muu	6182
##lloa	6183
toiselle	6184
##ynen	6185
väestö	6186
käyttäjä	6187
asiana	6188
ensimmäiset	6189
lääkärin	6190
kappaletta	6191
tarpeeksi	6192
tapahtuneesta	6193
pulju	6194
mpi	6195
##olo	6196
##joitta	6197
##kata	6198
##tic	6199
enempää	6200
kiva	6201
maala	6202
puolustaja	6203
meneh	6204
##kkänen	6205
kohtuu	6206
yleisra	6207
järven	6208
työmarkkina	6209
dro	6210
##pot	6211
##ttin	6212
toistu	6213
##ilainen	6214
##jöitä	6215
kse	6216
lunta	6217
sit	6218
##aale	6219
vuok	6220
tuoda	6221
esitti	6222
harmi	6223
vang	6224
uudella	6225
käsitel	6226
tason	6227
entisestä	6228
eduskunnassa	6229
vahvisti	6230
pyrkii	6231
##htori	6232
kallio	6233
olympialaisissa	6234
##stu	6235
##irin	6236
##netty	6237
##käy	6238
kuntoon	6239
palvelun	6240
pankki	6241
samana	6242
poikkeus	6243
tuomioistu	6244
merkitystä	6245
näkökulmasta	6246
normaalisti	6247
jutun	6248
##tr	6249
##pres	6250
##aren	6251
suora	6252
##iemen	6253
anteeksi	6254
varrella	6255
##misti	6256
puhelin	6257
meitä	6258
itsekin	6259
epäsel	6260
mäkelä	6261
järjestää	6262
maailmancupin	6263
##hoito	6264
psyko	6265
toivottavasti	6266
##olle	6267
##eitä	6268
##etty	6269
##cks	6270
##välin	6271
isessa	6272
##oping	6273
##ttelua	6274
##rea	6275
##kkain	6276
matkus	6277
määrit	6278
##itettiin	6279
##stro	6280
rahoitus	6281
maksamaan	6282
espoon	6283
lopettaa	6284
oven	6285
##sse	6286
##basti	6287
##sille	6288
##keino	6289
ilve	6290
pelto	6291
koneen	6292
sanomille	6293
urheilun	6294
allekirj	6295
paikoin	6296
suhteessa	6297
piha	6298
varapresiden	6299
##virasto	6300
perustusla	6301
avi	6302
##dman	6303
muistu	6304
varaa	6305
esillä	6306
naisia	6307
##vella	6308
hoitaa	6309
lyhyt	6310
kysely	6311
lehdistö	6312
tuhansia	6313
republikaanien	6314
mahdollisuuksia	6315
voitaisiin	6316
australi	6317
pun	6318
##kkonen	6319
##mitta	6320
##tiossa	6321
##kiel	6322
kaksin	6323
lailla	6324
kiih	6325
##imet	6326
2026	6327
2012	6328
huuhka	6329
alkoivat	6330
työskentele	6331
mökki	6332
ilmeisesti	6333
selittää	6334
runkosar	6335
murhasta	6336
bio	6337
##jalais	6338
##isissä	6339
##istukseen	6340
##muka	6341
lähetti	6342
otsi	6343
kentällä	6344
aka	6345
uksia	6346
##ws	6347
katto	6348
parkki	6349
piikki	6350
##innassa	6351
luov	6352
tapahtumien	6353
##utumista	6354
säil	6355
korkein	6356
hyökkäysso	6357
rangaistus	6358
esin	6359
savo	6360
kiloa	6361
tehneet	6362
mahdollinen	6363
joukkuetta	6364
2013	6365
##neensä	6366
valmiiksi	6367
maailmanmestari	6368
vankeusranga	6369
##nys	6370
##jet	6371
##uneet	6372
##liiken	6373
##hdus	6374
nau	6375
edistä	6376
hallitse	6377
##ikkojen	6378
sär	6379
palvelut	6380
muoto	6381
uudestaan	6382
johtajan	6383
huume	6384
peräkkä	6385
oppil	6386
pelataan	6387
lähetys	6388
##kauppa	6389
assa	6390
ksen	6391
##myr	6392
##alan	6393
sak	6394
##mpään	6395
valtteri	6396
##jansa	6397
##eliin	6398
heidät	6399
pysyy	6400
vaikkapa	6401
murto	6402
kaipaa	6403
kahdesti	6404
guar	6405
42	6406
bru	6407
##ninen	6408
##ller	6409
kohde	6410
##mattom	6411
vic	6412
##rillä	6413
valtonen	6414
julkaisu	6415
kesäkuuta	6416
##oikeisto	6417
##intojen	6418
huuma	6419
eteni	6420
kansainvälinen	6421
markkina	6422
kritisoi	6423
todista	6424
luottamus	6425
za	6426
taj	6427
kunnolla	6428
voimassa	6429
##orit	6430
##nytys	6431
##muut	6432
siirtyy	6433
kale	6434
irtis	6435
tarkast	6436
lindtman	6437
seudun	6438
presidentiksi	6439
49	6440
city	6441
tin	6442
##pyö	6443
##fia	6444
sekin	6445
suoj	6446
vaadi	6447
muuttui	6448
##ytyä	6449
ilmaston	6450
jäivät	6451
tto	6452
##mmän	6453
jättä	6454
tiuk	6455
kaikilla	6456
aikanaan	6457
kilpaile	6458
kommentoin	6459
jääkiekon	6460
opetus	6461
mikael	6462
estää	6463
catherine	6464
evakuo	6465
jani	6466
sha	6467
##tisen	6468
##uuteen	6469
##anna	6470
##uudella	6471
tällö	6472
näissä	6473
jokaisen	6474
ilmoittanut	6475
pariisissa	6476
joukkueessa	6477
mielenterve	6478
suomalaisista	6479
##ppasi	6480
vaikuttavat	6481
1990	6482
pisteet	6483
poliisila	6484
ammu	6485
armeijan	6486
hinnat	6487
kritiikkiä	6488
tällöin	6489
blo	6490
##ther	6491
laiset	6492
pelaamaan	6493
rakentaa	6494
yllättävän	6495
kerrottu	6496
velvo	6497
lapsille	6498
carl	6499
keskustassa	6500
##logia	6501
johanna	6502
43	6503
600	6504
avoin	6505
ili	6506
tš	6507
zuma	6508
##tur	6509
##kattu	6510
##elan	6511
iskun	6512
##uhan	6513
kangas	6514
##ppoa	6515
##oinut	6516
##llisesta	6517
helle	6518
tapasi	6519
venäjää	6520
yhteys	6521
sanottu	6522
tutkii	6523
ajankohta	6524
miljoona	6525
sairaalan	6526
moott	6527
miljardia	6528
ill	6529
kro	6530
##fin	6531
##teiden	6532
tein	6533
näe	6534
##tuneen	6535
2010	6536
hoitoon	6537
julkaisussa	6538
ristiri	6539
poikansa	6540
gi	6541
äly	6542
##gon	6543
##koko	6544
täs	6545
poistu	6546
iltä	6547
kevy	6548
somessa	6549
osassa	6550
vastaus	6551
mukanaan	6552
rikoksista	6553
daily	6554
tiedotteessaan	6555
eduskuntaryhmän	6556
aar	6557
fil	6558
lun	6559
tri	6560
we	6561
##sista	6562
##yistä	6563
##pö	6564
suor	6565
iselle	6566
raju	6567
kesti	6568
korot	6569
edustus	6570
oikeastaan	6571
salminen	6572
kohden	6573
putosi	6574
seurasi	6575
huum	6576
dallas	6577
perässä	6578
sijaitsevan	6579
joukkojen	6580
maahanmuu	6581
sukupol	6582
##itto	6583
##che	6584
##eltu	6585
päätteeksi	6586
##lliseksi	6587
##ikohta	6588
löi	6589
##tansa	6590
onnetto	6591
liittyviä	6592
markku	6593
näkyi	6594
kiekon	6595
colo	6596
leikkaus	6597
paimion	6598
hovioikeus	6599
työntekijöiden	6600
äärimmäisen	6601
##ata	6602
##lti	6603
päättyy	6604
tuor	6605
##lässä	6606
##maatti	6607
versta	6608
syytetty	6609
##chen	6610
##ottava	6611
unel	6612
nuoriso	6613
musiikin	6614
yritysten	6615
viikossa	6616
muistutti	6617
54	6618
niska	6619
##ris	6620
##utetaan	6621
kielle	6622
mahdot	6623
rav	6624
ilves	6625
saat	6626
##ikasta	6627
työt	6628
jonkun	6629
terv	6630
nuoria	6631
##vuodesta	6632
kahdeksa	6633
fiil	6634
lukuisia	6635
lausunnossa	6636
gar	6637
äitinsä	6638
##kunut	6639
jas	6640
sav	6641
teon	6642
tarjoi	6643
käytti	6644
ukrainala	6645
aiheesta	6646
elokuuta	6647
päivässä	6648
150	6649
purka	6650
vaikutuksia	6651
toukokuuta	6652
alkoholin	6653
##kirja	6654
oppositio	6655
##ttömyys	6656
tytön	6657
##isko	6658
kieli	6659
temp	6660
paha	6661
vetää	6662
miettiä	6663
uhr	6664
päästö	6665
##ffi	6666
hienoa	6667
paljastui	6668
rakennuksen	6669
suurempi	6670
marinin	6671
ajoneuvo	6672
michael	6673
mana	6674
misestä	6675
jakaa	6676
kain	6677
##oton	6678
väri	6679
taide	6680
##kyky	6681
töissä	6682
välinen	6683
arvion	6684
vuosittain	6685
oulu	6686
ukset	6687
väittää	6688
hiihtä	6689
kriisi	6690
heinäkuuta	6691
##euvos	6692
muutenkin	6693
jalkapallon	6694
institu	6695
##syy	6696
##sija	6697
kop	6698
muisti	6699
##ksissa	6700
##vian	6701
sattu	6702
paremm	6703
kevät	6704
työelä	6705
##udi	6706
rehe	6707
katri	6708
nousta	6709
pelaajan	6710
toimivat	6711
kaatui	6712
##vero	6713
halutaan	6714
katsotaan	6715
ajaksi	6716
asuin	6717
puuttu	6718
tuomittu	6719
lähtökohta	6720
katastro	6721
reiss	6722
podcastissa	6723
verstappen	6724
bro	6725
##kalta	6726
##eren	6727
##tettävä	6728
##mppa	6729
pääosin	6730
kyseen	6731
##vuutta	6732
laad	6733
palveluiden	6734
kohtalo	6735
onnettomuudessa	6736
##rikos	6737
julkaissut	6738
yrityksestä	6739
ajattelin	6740
##ep	6741
##sas	6742
muissa	6743
tälle	6744
varasto	6745
kulkee	6746
turussa	6747
hallussa	6748
oikeutta	6749
kenti	6750
omakoti	6751
opettaja	6752
lisäänty	6753
sän	6754
##kila	6755
##yksiin	6756
##car	6757
##jari	6758
##ft	6759
kaista	6760
sein	6761
poten	6762
näillä	6763
maailmaa	6764
päiväko	6765
esiintyy	6766
pärj	6767
##liiga	6768
mielestään	6769
jatkoa	6770
fanit	6771
kuski	6772
libanon	6773
bas	6774
misessa	6775
nas	6776
ttu	6777
##muksesta	6778
onhan	6779
##tellaan	6780
voida	6781
susi	6782
tulosta	6783
paikassa	6784
autoja	6785
rikoksesta	6786
järjestelmän	6787
ennakoi	6788
mielipide	6789
olympialaisten	6790
pla	6791
ukseen	6792
##kosta	6793
kiv	6794
mahta	6795
##tinut	6796
koskee	6797
ostaa	6798
muuttuu	6799
##voimat	6800
syyte	6801
tyr	6802
##utumaan	6803
tukhol	6804
pitävät	6805
paljasta	6806
kuolemaan	6807
demokra	6808
keräsi	6809
lohko	6810
naapuri	6811
miehelle	6812
strateg	6813
meteorologi	6814
akku	6815
puus	6816
soit	6817
##vis	6818
kokko	6819
kipu	6820
rahan	6821
viimeiset	6822
lisäsi	6823
paikasta	6824
lintu	6825
pieniä	6826
osallistua	6827
käänne	6828
sate	6829
kanadan	6830
elämänsä	6831
expres	6832
marraskuun	6833
kahdesta	6834
teatteri	6835
proses	6836
prosessi	6837
reilut	6838
aikataul	6839
reagoi	6840
lounais	6841
##ellisen	6842
##pas	6843
koken	6844
##kola	6845
vuotis	6846
##inaan	6847
miin	6848
silta	6849
tekemistä	6850
tunnelma	6851
koulussa	6852
lämpimä	6853
##talon	6854
##jalan	6855
konflik	6856
potenti	6857
tavara	6858
##ulos	6859
lahd	6860
##ynä	6861
tarjon	6862
suih	6863
keskuudessa	6864
houku	6865
2011	6866
##ottanut	6867
säästä	6868
alalla	6869
tarkasti	6870
vakuutus	6871
entisestään	6872
den	6873
veri	6874
##ola	6875
##uni	6876
jauh	6877
laulu	6878
##ppien	6879
harri	6880
otteluun	6881
toimiva	6882
julkisesti	6883
tilaisuudessa	6884
itära	6885
dig	6886
suunnitelma	6887
lokakuuta	6888
##kertainen	6889
sopii	6890
kauni	6891
yhtyeen	6892
varapuh	6893
jaakko	6894
tps	6895
##nän	6896
##ttil	6897
journ	6898
##mmillaan	6899
##teis	6900
sii	6901
##hdi	6902
olimme	6903
paine	6904
tui	6905
haku	6906
väy	6907
kaikissa	6908
##ritään	6909
päivinä	6910
minkään	6911
##ittasi	6912
autolla	6913
##joitus	6914
nähtä	6915
joulun	6916
hull	6917
tällaisia	6918
elinkeino	6919
annettu	6920
spekul	6921
show	6922
otetaan	6923
th	6924
von	6925
##uoto	6926
##tykseen	6927
haittaa	6928
mietin	6929
##joa	6930
puhunut	6931
robert	6932
kuolle	6933
jonne	6934
kärpä	6935
pitkälle	6936
jatkui	6937
herättänyt	6938
syyskuuta	6939
väärä	6940
fore	6941
jäljellä	6942
rohke	6943
ferr	6944
bussi	6945
brän	6946
älä	6947
##kte	6948
sattui	6949
maja	6950
tietty	6951
meg	6952
tulivat	6953
##tuneet	6954
riittävän	6955
hoide	6956
lajin	6957
onnettomuuden	6958
maksoi	6959
kyt	6960
ön	6961
##dit	6962
##tamaan	6963
##eltään	6964
villa	6965
##mmas	6966
##ähti	6967
##tug	6968
luot	6969
hyvältä	6970
vieressä	6971
käytön	6972
portug	6973
rikoksen	6974
todetaan	6975
telegra	6976
kokoomus	6977
mielenosoit	6978
musiikkia	6979
juk	6980
##yden	6981
##arvo	6982
##mmilla	6983
pop	6984
maissa	6985
palki	6986
tuomas	6987
leikki	6988
menestys	6989
reilu	6990
luokka	6991
##oittain	6992
195	6993
laaje	6994
nord	6995
muitakin	6996
##mestari	6997
valiokunnan	6998
auring	6999
hul	7000
viile	7001
laura	7002
kiri	7003
paiko	7004
keksi	7005
käydään	7006
koste	7007
syytetään	7008
ulkon	7009
##panen	7010
erityis	7011
lähettää	7012
todettiin	7013
marraskuuta	7014
mennään	7015
valittu	7016
air	7017
mys	7018
##and	7019
##ttivat	7020
usei	7021
liikkeen	7022
hetk	7023
ajanut	7024
sini	7025
panther	7026
arvioidaan	7027
##ttäneen	7028
kohteeksi	7029
##päivänä	7030
52	7031
aito	7032
##misia	7033
##pr	7034
##aatio	7035
##istoa	7036
##villä	7037
paul	7038
varoit	7039
lopuksi	7040
talossa	7041
merce	7042
vatsa	7043
##tyksestä	7044
äänestää	7045
pariskunnan	7046
parhaat	7047
avun	7048
amb	7049
con	7050
##em	7051
##taso	7052
##kausi	7053
##tällä	7054
aseen	7055
tulipal	7056
julkisen	7057
uusien	7058
rahat	7059
ongelmat	7060
luonne	7061
parhaimmillaan	7062
alueelta	7063
jakso	7064
syyskuun	7065
toukokuun	7066
suunnitteli	7067
rovanieme	7068
pohjanmaan	7069
guardian	7070
##uneen	7071
seikka	7072
laul	7073
työpa	7074
huoman	7075
##voitto	7076
##moja	7077
sijalla	7078
suunnite	7079
synny	7080
torstain	7081
vaihd	7082
elokuvassa	7083
##huollon	7084
selvityksen	7085
ansiosta	7086
puheenjohtajan	7087
selkeästi	7088
työskennellyt	7089
kruunun	7090
##gissa	7091
##aton	7092
valitse	7093
##rjassa	7094
varti	7095
tilin	7096
työssä	7097
matta	7098
matkaan	7099
vastaisena	7100
hidas	7101
toiminnasta	7102
##pani	7103
ukrainaa	7104
puoliväl	7105
viedä	7106
painottaa	7107
pidetty	7108
jakson	7109
liikkeelle	7110
maanantai	7111
bottas	7112
com	7113
fc	7114
nö	7115
neiden	7116
posti	7117
##sb	7118
##set	7119
##melä	7120
##gren	7121
väit	7122
tiu	7123
selkä	7124
kysyn	7125
lisätä	7126
karhu	7127
hanke	7128
pienempi	7129
pyritään	7130
puisto	7131
##ittänyt	7132
##joukkueen	7133
hirvi	7134
todist	7135
vankeuteen	7136
sauli	7137
bil	7138
oik	7139
pinta	7140
##jiin	7141
##gle	7142
##uoli	7143
##unu	7144
taksi	7145
selle	7146
##mpu	7147
millään	7148
selke	7149
syistä	7150
tapahtumista	7151
kyseinen	7152
avasi	7153
##vuori	7154
tarjoaa	7155
uksista	7156
##suojelu	7157
paikkansa	7158
varhain	7159
huumausa	7160
##malle	7161
laisen	7162
kulttuu	7163
luotto	7164
haltu	7165
näyttö	7166
yleisesti	7167
yllättävä	7168
kehitty	7169
rinne	7170
pöydä	7171
sveitsin	7172
oireita	7173
fir	7174
##pes	7175
##tiä	7176
##väs	7177
##nella	7178
piiri	7179
katoa	7180
yksikö	7181
tiedän	7182
euroon	7183
välissä	7184
järjestettiin	7185
avaja	7186
kunnon	7187
edusti	7188
tilalle	7189
liittyi	7190
isännö	7191
gazassa	7192
hotelli	7193
varapuheen	7194
journal	7195
ulkonä	7196
can	7197
##umb	7198
##puh	7199
##siin	7200
##tiop	7201
sebasti	7202
toive	7203
##llisyys	7204
lassi	7205
ihmet	7206
päätöksiä	7207
elokuun	7208
osallistuu	7209
tiistain	7210
tapparan	7211
lehto	7212
poliittinen	7213
andre	7214
sport	7215
grön	7216
pime	7217
tho	7218
##het	7219
##pil	7220
##kaut	7221
tav	7222
teini	7223
oliko	7224
##llisuutta	7225
kuulla	7226
osoit	7227
osoitti	7228
tapahtumat	7229
ilmoittaa	7230
henkilöt	7231
purje	7232
torstai	7233
pisteitä	7234
monipuol	7235
menivät	7236
kuolin	7237
##tet	7238
##immä	7239
##siiv	7240
vihd	7241
kimmo	7242
into	7243
hedel	7244
hevonen	7245
leviä	7246
##keni	7247
syytö	7248
riitä	7249
lapse	7250
sarjaa	7251
henkilöitä	7252
räj	7253
jostain	7254
dollarin	7255
varapresidentti	7256
kyseenala	7257
ek	7258
ruud	7259
tyn	7260
samu	7261
suomelle	7262
niillä	7263
peliin	7264
ketään	7265
kertoja	7266
osakilpa	7267
koskela	7268
##estön	7269
##kunnalle	7270
torni	7271
tekivät	7272
pitkälti	7273
vaihde	7274
ikävä	7275
käyttäyty	7276
##talous	7277
pirkan	7278
avo	7279
eden	7280
tat	7281
##llisiä	7282
##salo	7283
maasta	7284
edeltä	7285
huolehti	7286
henri	7287
linjan	7288
##mmalle	7289
ehdokkaan	7290
asuva	7291
surma	7292
ravintol	7293
pysäkö	7294
nimeä	7295
huhtikuuta	7296
##hallituksen	7297
times	7298
tiedottaja	7299
hovioike	7300
##murha	7301
naimisiin	7302
##hyökkää	7303
bus	7304
joille	7305
son	7306
##mula	7307
##lista	7308
##isivat	7309
kiisti	7310
tulle	7311
##reett	7312
hylä	7313
kaikkein	7314
erot	7315
kaksikon	7316
virtanen	7317
uutinen	7318
helsinkilä	7319
toteutta	7320
nykyisen	7321
suosit	7322
toisensa	7323
kysymyksiä	7324
##piteitä	7325
les	7326
tytö	7327
##mela	7328
##nossa	7329
##vila	7330
##llissa	7331
sillan	7332
myöhään	7333
palat	7334
pelkää	7335
para	7336
menossa	7337
yksikkö	7338
tunti	7339
ohjus	7340
kaava	7341
saaneensa	7342
pitämään	7343
pärmä	7344
tarvetta	7345
uksessa	7346
vanhempien	7347
pysäy	7348
juonta	7349
kokemusta	7350
sisältää	7351
numero	7352
tiedetään	7353
puolivälierä	7354
iku	7355
##ms	7356
##ret	7357
##plo	7358
kuvi	7359
käsin	7360
kuntien	7361
##ikoksesta	7362
käytä	7363
viihde	7364
barkov	7365
karsinta	7366
lonto	7367
osittain	7368
tre	7369
johdon	7370
alkuun	7371
hev	7372
asioiden	7373
liiket	7374
puolustusvoimien	7375
herättää	7376
hirveä	7377
huomasi	7378
tutkimuksessa	7379
vastustaja	7380
olleensa	7381
tapio	7382
parlamentin	7383
verkkosiv	7384
glob	7385
valitettavasti	7386
ajassa	7387
bla	7388
wh	7389
jalan	7390
##one	7391
##teistä	7392
sakko	7393
kiista	7394
##mästä	7395
näyt	7396
##oaan	7397
puolan	7398
##isempi	7399
rive	7400
roko	7401
194	7402
llaan	7403
kärsin	7404
mahdollisuutta	7405
päävalmenta	7406
palkinnon	7407
ruotsalainen	7408
valoku	7409
vornanen	7410
syyllist	7411
fani	7412
hus	7413
veli	7414
##tro	7415
##pitä	7416
##isy	7417
kovan	7418
##mattoman	7419
vire	7420
isista	7421
päällik	7422
pääministerin	7423
##eellinen	7424
arvel	7425
##ttava	7426
vesa	7427
##utumis	7428
ulkopuolelle	7429
##chester	7430
pahasti	7431
tasolle	7432
85	7433
tha	7434
##asia	7435
kaisa	7436
##tellä	7437
valita	7438
anti	7439
kulutus	7440
henk	7441
montre	7442
osoi	7443
kasvi	7444
pientä	7445
suosittu	7446
uskoa	7447
uudist	7448
palautetta	7449
kappaleen	7450
ohjaaja	7451
maailmancup	7452
vauhtia	7453
hurrikaan	7454
51	7455
mv	7456
##kier	7457
sei	7458
vakuu	7459
häneltä	7460
##iha	7461
saavu	7462
väle	7463
varuste	7464
##hojen	7465
miltä	7466
gall	7467
ulkomailla	7468
miehiä	7469
veikkaus	7470
57	7471
doping	7472
ori	7473
##isee	7474
##ismin	7475
suoras	7476
paket	7477
tarve	7478
puolelta	7479
autossa	7480
toimet	7481
katsomaan	7482
muotoi	7483
##ttelevat	7484
todellinen	7485
pyyde	7486
mainos	7487
##pelaaja	7488
finaaliin	7489
poliisit	7490
##paikalla	7491
keittiö	7492
jesse	7493
puolivälissä	7494
##ez	7495
##ikot	7496
johdo	7497
##vainen	7498
##ytynyt	7499
lahti	7500
kanssaan	7501
##tteisiin	7502
##yksissä	7503
##sonin	7504
kenen	7505
muutamia	7506
työnanta	7507
voisivat	7508
viestejä	7509
turnauksessa	7510
florida	7511
itsenäisyys	7512
brasi	7513
havaittu	7514
meghan	7515
58	7516
##ottelu	7517
##sal	7518
##sarjassa	7519
##tias	7520
joon	7521
kakso	7522
mallin	7523
##neitä	7524
saaren	7525
kysyy	7526
autot	7527
tiedustelu	7528
kysyttiin	7529
kohdistun	7530
kuukaudessa	7531
valmenn	7532
diplo	7533
miljardin	7534
kutsui	7535
loimaan	7536
tähdet	7537
toyota	7538
viimeistään	7539
700	7540
gro	7541
peto	7542
##imme	7543
##ööri	7544
##silm	7545
taud	7546
##hdu	7547
##pain	7548
aloittanut	7549
##nettu	7550
palon	7551
ihas	7552
sodassa	7553
luva	7554
autosta	7555
kaasu	7556
kuulunut	7557
vaihtaa	7558
eurooppala	7559
kali	7560
lähteet	7561
rikosilm	7562
presidentinvaalien	7563
helmikuuta	7564
avusta	7565
kääri	7566
##bladet	7567
colora	7568
jukur	7569
west	7570
##ellut	7571
##huol	7572
##pui	7573
##ith	7574
##osissa	7575
viis	7576
##paine	7577
tarken	7578
nappasi	7579
helena	7580
yhteinen	7581
tehot	7582
manchester	7583
herätti	7584
voimakkaasti	7585
turnaus	7586
patrik	7587
renka	7588
jänn	7589
kadulla	7590
parlamentti	7591
diag	7592
##kusta	7593
##yp	7594
##veto	7595
kuvissa	7596
##tyksiä	7597
suz	7598
turvaa	7599
stadion	7600
muutosta	7601
linjaa	7602
##ulais	7603
riittävästi	7604
llisen	7605
alaikä	7606
ottamatta	7607
työntekijät	7608
afton	7609
huomion	7610
kyyd	7611
hyppää	7612
yleisradio	7613
avan	7614
kassa	7615
miselle	7616
tori	7617
paperi	7618
liit	7619
lukio	7620
tilanteissa	7621
tanskan	7622
liittyvä	7623
kahteen	7624
leijonat	7625
##hallitus	7626
päivityksessä	7627
ohjaus	7628
yhdistys	7629
slova	7630
##hyökkääjä	7631
agen	7632
kukka	7633
lar	7634
##eraan	7635
##unda	7636
siivo	7637
##mpö	7638
alkan	7639
heiko	7640
kaudeksi	7641
jälke	7642
osti	7643
kuopi	7644
sari	7645
yleinen	7646
hetke	7647
sääti	7648
lleen	7649
alkua	7650
lähteiden	7651
viettää	7652
venäläiset	7653
havaintoja	7654
maaliskuuta	7655
budjetti	7656
dan	7657
jer	7658
staan	7659
##otan	7660
kouvo	7661
kauko	7662
kuiva	7663
jäte	7664
tarvit	7665
pariky	7666
varoitus	7667
napa	7668
##jänä	7669
syyri	7670
lukuun	7671
joukot	7672
keskustelun	7673
markkanen	7674
neljäs	7675
järvi	7676
kirjailija	7677
täältä	7678
news	7679
haaviston	7680
syntymä	7681
parantaa	7682
raportoi	7683
##valiokunnan	7684
tiedotustilaisuudessa	7685
roolissa	7686
fe	7687
fut	7688
ph	7689
pra	7690
serg	7691
##ip	7692
##eessa	7693
##koulu	7694
savon	7695
suojelu	7696
palkan	7697
tilassa	7698
huole	7699
kokous	7700
hill	7701
unite	7702
tuloksia	7703
menetti	7704
joukkoja	7705
museo	7706
lämpötilat	7707
saarinen	7708
tammikuuta	7709
vienti	7710
kustannus	7711
kunnian	7712
vihdoin	7713
59	7714
##lyn	7715
##ze	7716
##ostaan	7717
##ttäisi	7718
##mmun	7719
##vaihe	7720
suojaa	7721
mail	7722
##nettiin	7723
käyttänyt	7724
##vaalit	7725
yhdellä	7726
vankil	7727
veti	7728
useiden	7729
ulkona	7730
##soona	7731
määri	7732
ukrainalais	7733
tutkijat	7734
##sani	7735
videoita	7736
tarkoitta	7737
keskiviikko	7738
lähetyksessä	7739
uudelle	7740
pesu	7741
##könen	7742
vauva	7743
kuljettajan	7744
kävely	7745
ok	7746
##sh	7747
##pro	7748
##ikop	7749
siiv	7750
pahe	7751
päättänyt	7752
valvo	7753
korh	7754
helikop	7755
perustuu	7756
prot	7757
kirkon	7758
julkaistiin	7759
##iini	7760
suurimman	7761
valtaosa	7762
david	7763
merkkejä	7764
heinäkuun	7765
kahdessa	7766
##ght	7767
todellisuudessa	7768
liiketoimin	7769
##dun	7770
##lisä	7771
##gassa	7772
##istit	7773
vika	7774
sanat	7775
##rov	7776
##diossa	7777
osana	7778
aluetta	7779
uutisia	7780
toimisto	7781
polku	7782
nopeus	7783
edustaa	7784
##perin	7785
satu	7786
onnistun	7787
ainut	7788
suunniteltu	7789
kolmann	7790
viikonloppu	7791
arvosta	7792
asianaja	7793
kg	7794
she	7795
##jas	7796
kove	7797
##istänyt	7798
jolle	7799
##teitä	7800
sadan	7801
##dell	7802
##ttelyn	7803
saamaan	7804
tuonut	7805
##ettaisiin	7806
loun	7807
tiedustel	7808
rivi	7809
yllätyks	7810
satoja	7811
koiv	7812
saapunut	7813
länsima	7814
korjattu	7815
reutersin	7816
naurahtaa	7817
blu	7818
koho	7819
kiur	7820
suori	7821
##rainen	7822
tullaan	7823
kaikesta	7824
minister	7825
reilun	7826
##tteista	7827
##ttejä	7828
presidentt	7829
johtuu	7830
##merellä	7831
unkarin	7832
palata	7833
jatkuvat	7834
raaka	7835
kolmos	7836
äärijärjestö	7837
perussuomalaiset	7838
useampi	7839
päivittäin	7840
sukupuoli	7841
henriksson	7842
kaksois	7843
agg	7844
otto	7845
tro	7846
##tyyn	7847
##muksia	7848
##utuksen	7849
##mpänä	7850
maista	7851
kädessä	7852
rajaa	7853
##otos	7854
senttiä	7855
pito	7856
##tonsa	7857
ruoan	7858
määrin	7859
koulua	7860
##kuntaa	7861
ohjelmaa	7862
tavallista	7863
ehdottomasti	7864
keskiviikon	7865
puutar	7866
nieminen	7867
petri	7868
huomioi	7869
huonosti	7870
juuso	7871
harkimo	7872
kaarinan	7873
##tk	7874
##inut	7875
##utki	7876
##tim	7877
kovasti	7878
##istosta	7879
##kian	7880
sillo	7881
tour	7882
tommi	7883
##pasi	7884
hell	7885
rich	7886
erää	7887
kong	7888
välisenä	7889
käsittele	7890
##giaa	7891
2008	7892
venäläisten	7893
vaikuttanut	7894
urheilijoiden	7895
pääsevät	7896
saapuu	7897
kadun	7898
kumppani	7899
järjestet	7900
mielenosoitta	7901
yleisurheilu	7902
forecan	7903
has	7904
nar	7905
kovia	7906
enemmistö	7907
topi	7908
##mppi	7909
mallia	7910
kerralla	7911
##tuva	7912
##estari	7913
koron	7914
sali	7915
tera	7916
ääniä	7917
hannu	7918
murhan	7919
unelma	7920
rajavar	7921
politiikka	7922
muse	7923
vähentää	7924
päivitetty	7925
tyhjen	7926
selvitys	7927
avoim	7928
tše	7929
evan	7930
kyyn	7931
tys	7932
##tisi	7933
##ksä	7934
##cen	7935
tauti	7936
tosia	7937
sab	7938
mag	7939
ravi	7940
väsy	7941
europ	7942
luopu	7943
kokouksen	7944
##iori	7945
laskee	7946
tapahtumassa	7947
hyödy	7948
mässä	7949
prosenttiin	7950
espoo	7951
markus	7952
jotenkin	7953
etenee	7954
parhaiten	7955
yhtäkkiä	7956
afr	7957
##asema	7958
ketju	7959
facebook	7960
ambulan	7961
56	7962
kän	7963
##ysi	7964
##vyt	7965
##utia	7966
##teita	7967
iskussa	7968
##iaan	7969
työhön	7970
suhd	7971
##udun	7972
harvoin	7973
ilmoitus	7974
heitti	7975
##umach	7976
lokakuun	7977
mikkola	7978
iloinen	7979
schumach	7980
tarvittaessa	7981
toni	7982
uta	7983
vis	7984
##cia	7985
##taar	7986
taisteli	7987
##lee	7988
lasi	7989
lakia	7990
##ettavissa	7991
monim	7992
riih	7993
##näki	7994
toteutu	7995
kenraali	7996
vastaavan	7997
raskaan	7998
##ppaan	7999
millainen	8000
yhdistyksen	8001
harrast	8002
vauhti	8003
taiteilija	8004
silminnäki	8005
irtisano	8006
kenties	8007
etten	8008
gp	8009
##vot	8010
##pelin	8011
##30	8012
##use	8013
isin	8014
rai	8015
koros	8016
mielly	8017
ottelusta	8018
syntyy	8019
vietiin	8020
ajatella	8021
vuodet	8022
paidassa	8023
kuluttua	8024
kaune	8025
yritykset	8026
useamman	8027
##miehen	8028
helenius	8029
sebastian	8030
##ttäminen	8031
tak	8032
##vii	8033
olevien	8034
toipu	8035
lähelle	8036
##kkaita	8037
nokia	8038
kisoja	8039
här	8040
##merkki	8041
esimerkki	8042
hankkeen	8043
##joilla	8044
päätökseen	8045
merkitys	8046
ampui	8047
väkivaltaa	8048
asiantuntijat	8049
vaikutusta	8050
mihinkään	8051
konkreett	8052
maahanmuutto	8053
thl	8054
tappa	8055
##käs	8056
voimme	8057
niille	8058
ineen	8059
tarpe	8060
tuot	8061
syrj	8062
muusikko	8063
äänesti	8064
tukee	8065
pyyt	8066
putoa	8067
panssa	8068
pahoi	8069
leikkaa	8070
kokonaisuudessa	8071
päivystävä	8072
britannia	8073
konkurssi	8074
presidenttiehdokas	8075
pärjää	8076
joonas	8077
ette	8078
kissa	8079
ovet	8080
##cke	8081
##ble	8082
##eld	8083
taju	8084
kaukana	8085
seko	8086
pomm	8087
##ttuaan	8088
tulleet	8089
varhan	8090
kuuli	8091
edestä	8092
katta	8093
##lleensa	8094
alueiden	8095
##isuuksia	8096
##kuntaan	8097
ihmisoikeus	8098
arvioida	8099
tuulet	8100
haluamme	8101
mahdollisuudet	8102
valmistu	8103
yöllä	8104
alijää	8105
tapahtuneen	8106
menesty	8107
oireet	8108
##poliitt	8109
prosenttiyksi	8110
toisiaan	8111
victo	8112
aggressi	8113
eikö	8114
##dr	8115
##dien	8116
##cel	8117
##pele	8118
##iku	8119
jokinen	8120
tavat	8121
vuodeksi	8122
jättänyt	8123
pall	8124
pelit	8125
nolla	8126
##ling	8127
lisätty	8128
jäävät	8129
juhann	8130
kehys	8131
rikosta	8132
häirit	8133
tulevaisuuden	8134
kahdella	8135
julkaisun	8136
demokraatti	8137
1980	8138
testaa	8139
miss	8140
ollenkaan	8141
skan	8142
tte	8143
war	8144
##llessa	8145
##ato	8146
kuussa	8147
olevia	8148
haud	8149
miet	8150
##media	8151
hark	8152
yhdistel	8153
hämälä	8154
kirje	8155
äänistä	8156
kirsi	8157
kansallisen	8158
pani	8159
seurata	8160
##ttämällä	8161
madri	8162
organisaatio	8163
olympiakomitean	8164
kommentoinut	8165
kärpät	8166
avar	8167
kaiv	8168
##kesi	8169
perun	8170
arto	8171
soh	8172
huomen	8173
henkir	8174
vangi	8175
ennalta	8176
näyttävät	8177
kannan	8178
##uksilla	8179
juoma	8180
johtava	8181
joulukuun	8182
historiaa	8183
epäiltynä	8184
maaliskuun	8185
avustus	8186
annetaan	8187
kustannukset	8188
teknologi	8189
erikseen	8190
hankala	8191
kohteena	8192
arkisto	8193
tekoäly	8194
puljujärvi	8195
app	8196
hun	8197
valikoi	8198
ilmaan	8199
aseita	8200
piis	8201
##toim	8202
meno	8203
helppoa	8204
syttyi	8205
rankka	8206
ajalla	8207
kalen	8208
myyjä	8209
järjestely	8210
sijaitseva	8211
nimellä	8212
paavo	8213
analys	8214
aku	8215
bur	8216
kra	8217
nuk	8218
uhan	8219
##ug	8220
make	8221
iske	8222
radan	8223
##ppuu	8224
pelä	8225
pelat	8226
esitteli	8227
##loissa	8228
leik	8229
ylimäärä	8230
syytteet	8231
##yksistä	8232
kaatoi	8233
volo	8234
täyttä	8235
mahdollisuuden	8236
menevät	8237
kanad	8238
tiennyt	8239
pyyh	8240
vanhempi	8241
bay	8242
konferen	8243
expressen	8244
kelta	8245
##nosta	8246
##itio	8247
seis	8248
sataa	8249
maksi	8250
iselta	8251
inti	8252
iho	8253
katson	8254
monella	8255
haave	8256
alueita	8257
vedon	8258
ääntä	8259
vaihtele	8260
täyttää	8261
valtavan	8262
loppua	8263
keskey	8264
muutoksen	8265
ahon	8266
tuoreessa	8267
pudotuspeli	8268
elta	8269
fri	8270
jere	8271
##evat	8272
##nessä	8273
##rot	8274
##prin	8275
##ish	8276
##kalu	8277
##erissä	8278
##jamin	8279
joker	8280
joutun	8281
kataja	8282
kio	8283
kerännyt	8284
osapuol	8285
luv	8286
helsinkiin	8287
kentän	8288
julkista	8289
haastattele	8290
perheensä	8291
erilainen	8292
kuuluva	8293
kilpailuissa	8294
pesä	8295
inflaa	8296
aikoinaan	8297
rakennettu	8298
valtiovarainministeri	8299
hinnan	8300
kela	8301
rup	8302
sys	8303
soin	8304
jazz	8305
##ney	8306
anni	8307
mien	8308
kosken	8309
robin	8310
perusteli	8311
salaa	8312
tunnusta	8313
moder	8314
eurooppa	8315
toisena	8316
ymmärre	8317
##jöiden	8318
loppuk	8319
ravintolan	8320
asunnossa	8321
matkustaja	8322
benjamin	8323
korea	8324
hotellin	8325
kasvua	8326
areenan	8327
versio	8328
kit	8329
##eissa	8330
##cin	8331
##psi	8332
##wn	8333
##innut	8334
##utettiin	8335
##lahd	8336
##uha	8337
##tteluun	8338
puhta	8339
kosk	8340
##hinta	8341
##tonin	8342
eron	8343
kuop	8344
tulipalo	8345
ihmisille	8346
mitenkään	8347
2005	8348
teema	8349
poimi	8350
vaihtoeh	8351
mikro	8352
##usar	8353
latvala	8354
lautakunta	8355
neliö	8356
##photos	8357
auringon	8358
mvphotos	8359
by	8360
che	8361
##detta	8362
##ilma	8363
tayl	8364
##vaik	8365
varoittaa	8366
areena	8367
poliisia	8368
korosti	8369
seurassa	8370
syytteen	8371
mahdollisia	8372
##ytyksen	8373
linna	8374
aseman	8375
yllätti	8376
elisa	8377
mestarien	8378
uksella	8379
ymmärrä	8380
muodosta	8381
huhtikuun	8382
tarpeen	8383
juhlissa	8384
projekti	8385
##kaudella	8386
tutkinnanjohtaja	8387
kiusaa	8388
minuutilla	8389
metalli	8390
onnettomu	8391
pre	8392
##vyyttä	8393
##isyyttä	8394
##uton	8395
##utena	8396
kuiv	8397
##netään	8398
sanan	8399
palkki	8400
##mella	8401
monin	8402
häkkänen	8403
hyvinkin	8404
mällä	8405
pyri	8406
kyseisen	8407
uhre	8408
nykyistä	8409
finna	8410
##tikuva	8411
matkailu	8412
epäily	8413
irlan	8414
lehtikuva	8415
sisar	8416
näkynyt	8417
kelpo	8418
##keskukseen	8419
valtuusto	8420
##hoidon	8421
hizbollah	8422
vastannut	8423
rovaniemellä	8424
jö	8425
nba	8426
rut	8427
rön	8428
##arlamen	8429
lakie	8430
istuu	8431
live	8432
peri	8433
voitt	8434
sotaan	8435
sofia	8436
tilat	8437
summan	8438
netan	8439
turkin	8440
##kkään	8441
##voiman	8442
kommentteja	8443
yrittänyt	8444
kysymykseen	8445
poliittisen	8446
työskenteli	8447
puheessaan	8448
rento	8449
raportin	8450
kotonaan	8451
puheenjohtajana	8452
maanantain	8453
seudulla	8454
löydettiin	8455
kanerva	8456
suorana	8457
europarlamen	8458
draa	8459
eks	8460
lp	8461
risto	8462
##we	8463
##kump	8464
tettiin	8465
valtaa	8466
pelo	8467
##oottori	8468
pizz	8469
kulki	8470
syyrian	8471
kartan	8472
seuraavat	8473
tilaisuus	8474
myönte	8475
virallisesti	8476
löytänyt	8477
varhais	8478
arvonlisä	8479
kremlin	8480
varapuheenjohtaja	8481
.-	8482
oja	8483
sula	8484
äit	8485
##iassa	8486
##kise	8487
##mos	8488
##kolla	8489
kimppu	8490
suorat	8491
suostu	8492
raita	8493
valinn	8494
iloit	8495
hyunda	8496
##rori	8497
##tely	8498
työstä	8499
nega	8500
yhdiste	8501
monien	8502
kisaan	8503
toiminnassa	8504
juhani	8505
kehuu	8506
##kkejä	8507
neuvon	8508
ikäluo	8509
riskiä	8510
tähtien	8511
musk	8512
reser	8513
floridan	8514
armeija	8515
pääkaupunkise	8516
projek	8517
teknologia	8518
tärkeintä	8519
ilveksen	8520
ada	8521
cor	8522
vän	8523
##th	8524
##rk	8525
##ons	8526
laina	8527
laisten	8528
laje	8529
pommi	8530
##manin	8531
aikoihin	8532
perustelee	8533
homma	8534
ylelle	8535
paikat	8536
lentä	8537
juokse	8538
takavar	8539
liikennet	8540
luonte	8541
tyypp	8542
viestiä	8543
irto	8544
mukava	8545
politiikkaa	8546
metsästä	8547
ollessa	8548
lausunto	8549
mänty	8550
eero	8551
gen	8552
um	8553
##ston	8554
##osan	8555
ilkka	8556
##llisessa	8557
läheisyy	8558
tehtävän	8559
##lleni	8560
jäsenet	8561
räik	8562
venäläinen	8563
pääsiä	8564
neuvottelut	8565
vaaleja	8566
helmikuun	8567
hint	8568
peter	8569
vaihtoehtoja	8570
vaaranta	8571
varmistaa	8572
##asiassa	8573
sekunnin	8574
##ohjel	8575
suurlähett	8576
negatiiv	8577
64	8578
kinn	8579
soitta	8580
vista	8581
##vuuden	8582
##fe	8583
##llisiin	8584
##aattori	8585
##tellut	8586
sijoitta	8587
ist	8588
varj	8589
lähteen	8590
##hamin	8591
##töjä	8592
heli	8593
asioihin	8594
perustel	8595
määrät	8596
palveluita	8597
##bergin	8598
##ttämässä	8599
laineen	8600
manner	8601
veljen	8602
joitakin	8603
penn	8604
sivuston	8605
muutokset	8606
jatkossakin	8607
luonnollisesti	8608
hopea	8609
pelicans	8610
esa	8611
##ottelussa	8612
##uli	8613
##dossa	8614
##verk	8615
##ustin	8616
lattia	8617
##oitui	8618
päättä	8619
kell	8620
tiloissa	8621
##koneen	8622
harha	8623
luona	8624
oikeuteen	8625
suomalaisille	8626
poliisilla	8627
##kunsa	8628
käännytys	8629
johtanut	8630
äärioikeisto	8631
tammikuun	8632
malti	8633
veteraan	8634
pöytä	8635
haasteita	8636
sydämen	8637
windo	8638
volody	8639
netanja	8640
pui	8641
sss	8642
tr	8643
##itun	8644
##asin	8645
##malli	8646
##nee	8647
sanot	8648
haka	8649
hakka	8650
vaate	8651
karta	8652
hyvässä	8653
kaatu	8654
vahve	8655
kierrä	8656
poikkea	8657
hoitoa	8658
emil	8659
suuntaa	8660
vaikutukset	8661
saatavilla	8662
idea	8663
olosuhteet	8664
libanonin	8665
koripallo	8666
hizbollahin	8667
kalevan	8668
junn	8669
out	8670
test	8671
kotik	8672
koea	8673
##maksu	8674
##pallon	8675
##tyneet	8676
tarkkaa	8677
edmon	8678
##ting	8679
katse	8680
##estystä	8681
tapahtua	8682
autoon	8683
deb	8684
##kkeja	8685
osallistunut	8686
rauhassa	8687
propa	8688
koivu	8689
viides	8690
kylän	8691
kanava	8692
mistään	8693
pihalla	8694
korvaus	8695
ydinase	8696
brys	8697
maailmanmestar	8698
amerikkalais	8699
nuorena	8700
miettii	8701
noudatta	8702
tyttärensä	8703
##pyörä	8704
suzanne	8705
windows	8706
volodymyr	8707
alais	8708
##ihdon	8709
##95	8710
kape	8711
sia	8712
##kevä	8713
kuver	8714
toisesta	8715
mir	8716
iha	8717
lemm	8718
tiesi	8719
päiviä	8720
tulot	8721
liikkuu	8722
henkilöaut	8723
viranomais	8724
käyttämään	8725
vahingon	8726
treeni	8727
lipun	8728
jorma	8729
mestaruutta	8730
investointi	8731
stanley	8732
tuottaja	8733
oil	8734
##ey	8735
##uel	8736
##himo	8737
##ttynä	8738
##etys	8739
viini	8740
sea	8741
##kella	8742
oliver	8743
isot	8744
##kästi	8745
varka	8746
läp	8747
##utuva	8748
tunnissa	8749
tavallaan	8750
suosio	8751
jotakin	8752
hyvinvointialue	8753
lehdessä	8754
esitutkinta	8755
tauon	8756
kuvernö	8757
61	8758
##umer	8759
##ld	8760
kotio	8761
##istyy	8762
##mian	8763
kuvit	8764
##uttaja	8765
suojel	8766
maksan	8767
ratti	8768
mill	8769
palannut	8770
tiivi	8771
karsi	8772
heitto	8773
toteuttaa	8774
ely	8775
human	8776
edustalla	8777
ottivat	8778
työskentelee	8779
rydman	8780
fors	8781
valkoinen	8782
iskuja	8783
##johtajan	8784
ratkaisua	8785
ammattilais	8786
komentaja	8787
tennis	8788
mielenterveys	8789
74	8790
##isan	8791
##uktuu	8792
##kselta	8793
kup	8794
valkea	8795
väite	8796
tarvin	8797
suju	8798
tapauksia	8799
##vesi	8800
harkin	8801
julki	8802
oikeisto	8803
johtu	8804
joukkueet	8805
toimit	8806
pane	8807
pohjoisessa	8808
joukkueeseen	8809
##liigassa	8810
sivussa	8811
lukemin	8812
##ttäneensä	8813
hyvinvointialueen	8814
sairastu	8815
päätöksestä	8816
##lerc	8817
youtu	8818
toisinaan	8819
propagan	8820
rää	8821
sesta	8822
##teista	8823
##uro	8824
isissa	8825
kerttu	8826
olevaa	8827
tielle	8828
syrjä	8829
oikean	8830
tulkin	8831
järjesti	8832
edellinen	8833
##rastr	8834
ryhmään	8835
yhteiskunnan	8836
urheilijat	8837
hirve	8838
lapsensa	8839
normaalia	8840
torju	8841
työntekijöitä	8842
aktiivisesti	8843
törmäsi	8844
ruusu	8845
räjäh	8846
pärmäkoski	8847
##rastruktuu	8848
##ske	8849
##dot	8850
##pk	8851
##zer	8852
##kaisi	8853
##uosi	8854
taha	8855
##mmille	8856
häneen	8857
poistui	8858
istui	8859
oltava	8860
##relle	8861
kaudesta	8862
tiettävästi	8863
käytettä	8864
terrori	8865
välistä	8866
tarkoitettu	8867
llisesti	8868
avain	8869
tärkeitä	8870
2007	8871
pääsy	8872
todettu	8873
sisko	8874
kahvi	8875
lukija	8876
ketj	8877
nikotiin	8878
vammoja	8879
komission	8880
ien	8881
syty	8882
tis	8883
tos	8884
##yne	8885
##ttee	8886
##miaan	8887
ensisi	8888
hein	8889
ihon	8890
kaudelle	8891
##halli	8892
##töön	8893
##ranta	8894
julkk	8895
lämmi	8896
karjalan	8897
sarjaan	8898
sarjasta	8899
henkilöauto	8900
nelos	8901
mäkinen	8902
kierros	8903
tasan	8904
suuret	8905
miehensä	8906
hirmu	8907
korkealla	8908
medialle	8909
päivityksen	8910
pudotuspel	8911
kuluttaja	8912
jyväskylän	8913
pelejä	8914
puukot	8915
hamil	8916
ensisija	8917
69	8918
emma	8919
luks	8920
mes	8921
rikka	8922
##olin	8923
##puu	8924
##koo	8925
viho	8926
muuttanut	8927
alha	8928
pasi	8929
pajari	8930
varova	8931
arttu	8932
naval	8933
suvi	8934
ylipää	8935
##mistaan	8936
osannut	8937
norjassa	8938
ohjelmasta	8939
sairasta	8940
mikkel	8941
krite	8942
perinteisen	8943
opiskel	8944
##täneet	8945
essaan	8946
teillä	8947
olosuhteissa	8948
asukkaat	8949
bändi	8950
laajasti	8951
akate	8952
mahdotonta	8953
avoimesti	8954
aggressiiv	8955
95	8956
##nat	8957
##geri	8958
##inaa	8959
lavalla	8960
kui	8961
kumm	8962
pomo	8963
radalla	8964
pääasiassa	8965
vale	8966
lipp	8967
esittä	8968
##uille	8969
asunut	8970
päivät	8971
niinistön	8972
vankila	8973
hyötyä	8974
##itoista	8975
välttää	8976
##itiin	8977
kehottaa	8978
finaalin	8979
yhteiskunta	8980
hallitusohjel	8981
rasva	8982
parempaa	8983
kanada	8984
lehtonen	8985
politiikassa	8986
vapautta	8987
joidenkin	8988
myynnissä	8989
loukkaantunut	8990
masen	8991
ampuja	8992
vorn	8993
lee	8994
##llessaan	8995
##tterin	8996
##käsi	8997
##joissa	8998
tiimi	8999
esitetty	9000
katosi	9001
kirjoittanut	9002
eseen	9003
suositu	9004
voitosta	9005
vastaajista	9006
##utuivat	9007
vaikeuksia	9008
kyllähän	9009
tarjota	9010
eroon	9011
selviyty	9012
kaiva	9013
poikkeuksellinen	9014
yhdysvaltalainen	9015
nurmi	9016
catherinen	9017
käsitellään	9018
viitaten	9019
presidenttinä	9020
kimppuun	9021
ban	9022
lim	9023
ya	9024
##ustaan	9025
kaul	9026
##rio	9027
muilla	9028
poikki	9029
isempi	9030
näihin	9031
lienee	9032
voiman	9033
tuotteet	9034
##läinen	9035
piil	9036
##kkoilija	9037
yhteisen	9038
##voimaa	9039
##kkia	9040
silven	9041
vastaanotto	9042
turvapaikan	9043
voiko	9044
sävy	9045
pantti	9046
2009	9047
teemme	9048
##puoli	9049
ruutu	9050
kuolemasta	9051
suunna	9052
listalla	9053
kaunis	9054
valiokunta	9055
ulkoministeriö	9056
toyotan	9057
suurlähetys	9058
##maattisesti	9059
joensuu	9060
menehtyi	9061
huomannut	9062
huomenna	9063
53	9064
goo	9065
##tosen	9066
##emme	9067
##moi	9068
##gia	9069
##kaali	9070
##itään	9071
##täminen	9072
##tettua	9073
toisten	9074
aluksen	9075
vastoin	9076
osaltaan	9077
viimeisin	9078
vaasa	9079
yhdestä	9080
log	9081
##kkönen	9082
talvella	9083
lasken	9084
tutkitaan	9085
jalonen	9086
ilmais	9087
kysymyksiin	9088
edustava	9089
tunteita	9090
konserva	9091
supertähti	9092
reaktio	9093
torjunta	9094
yhdeksä	9095
ulkoministeriön	9096
vetäyty	9097
liikenteessä	9098
lähtökohtaisesti	9099
kruununprin	9100
aftonbladet	9101
silvenno	9102
iki	9103
tti	9104
##ikosta	9105
joutuvat	9106
lavalle	9107
tehta	9108
kerra	9109
rasi	9110
##tela	9111
piilo	9112
sentti	9113
lep	9114
kuullut	9115
korko	9116
yhdistää	9117
autoili	9118
monelle	9119
tero	9120
kirjeen	9121
keskimäärä	9122
järjestetty	9123
##erässä	9124
mitkä	9125
aleksi	9126
tuulen	9127
suklaa	9128
ministeriö	9129
hätäkeskukseen	9130
fiilis	9131
ever	9132
##rut	9133
vappu	9134
istun	9135
valossa	9136
##jouk	9137
tuossa	9138
tuottaa	9139
##minister	9140
työnan	9141
käytiin	9142
##valtio	9143
määr	9144
paikallista	9145
joukkueiden	9146
tukiko	9147
juhan	9148
ehdolla	9149
maalilla	9150
tehtävissä	9151
sateet	9152
apulais	9153
kilpailuun	9154
liikennettä	9155
hyväksyi	9156
##kosken	9157
nuorille	9158
ratkaisun	9159
espoossa	9160
hälytys	9161
maija	9162
kotoisin	9163
montreal	9164
häiritse	9165
tarvinnut	9166
työnantaja	9167
ay	9168
cen	9169
ski	9170
##ueen	9171
##yhd	9172
##not	9173
##voa	9174
##jistä	9175
##bs	9176
##komisario	9177
##mita	9178
##laus	9179
paper	9180
anno	9181
olikin	9182
olisiko	9183
##unnossa	9184
##ordin	9185
tuotteiden	9186
pitt	9187
käymään	9188
roope	9189
häly	9190
##sojen	9191
tyl	9192
pelaajaa	9193
##hiih	9194
pienet	9195
siirtää	9196
ryhmässä	9197
tilanteita	9198
##stys	9199
etelässä	9200
lännen	9201
poikaa	9202
rikoskomisario	9203
lehtinen	9204
pyrkin	9205
kaupunkiin	9206
toimittajan	9207
ellei	9208
unionin	9209
1970	9210
vihreät	9211
kamppailu	9212
honka	9213
hyppy	9214
suljettu	9215
##liikenne	9216
suorastaan	9217
känny	9218
62	9219
##nio	9220
##hal	9221
simon	9222
##keja	9223
isuus	9224
voimaa	9225
ing	9226
väistä	9227
tarkkaan	9228
keuh	9229
kosket	9230
muutto	9231
sairaan	9232
##osentti	9233
vähemmistö	9234
##ttömiä	9235
euroja	9236
tekemässä	9237
trumpi	9238
sellaisen	9239
puolilla	9240
laiva	9241
maahanmuutta	9242
kampanjan	9243
yleisölle	9244
kuluvan	9245
konsertti	9246
vasemmistoliitto	9247
saavutta	9248
aaltola	9249
jalkapall	9250
farmi	9251
77	9252
tran	9253
wor	9254
yr	9255
##ettua	9256
jako	9257
##alvel	9258
##lie	9259
kauteen	9260
kumpi	9261
käyty	9262
liber	9263
##ttelin	9264
##alaisten	9265
varas	9266
tiina	9267
netti	9268
turkula	9269
kuvasi	9270
kara	9271
tapahtumaan	9272
##peutti	9273
aiemminkin	9274
kommentoimaan	9275
hoidon	9276
ttava	9277
suoritta	9278
##alue	9279
puku	9280
näkemys	9281
turvallisuutta	9282
kasvatta	9283
harrastus	9284
christi	9285
huippuko	9286
poseeraa	9287
lahdessa	9288
taylor	9289
99	9290
ellä	9291
kl	9292
kautensa	9293
##kei	9294
laiv	9295
vuodelle	9296
vaatinut	9297
##mmälle	9298
jatke	9299
syyksi	9300
veh	9301
eläkelä	9302
pelaajista	9303
hanki	9304
laat	9305
elon	9306
2003	9307
2006	9308
vieraana	9309
edustajat	9310
myyntiin	9311
yksityisko	9312
kapina	9313
alkoholia	9314
laittoi	9315
tyypillisesti	9316
upea	9317
potilas	9318
richard	9319
cr	9320
rita	9321
##omista	9322
##usia	9323
##ryn	9324
##uluk	9325
mulla	9326
toisista	9327
pojat	9328
teos	9329
ankk	9330
anttila	9331
puolta	9332
pohjalta	9333
##verta	9334
kärppien	9335
murska	9336
hallituksessa	9337
sopimusta	9338
valtavasti	9339
2004	9340
hyökkäsi	9341
##tarv	9342
aptee	9343
elämäni	9344
kilpailua	9345
koskevat	9346
avust	9347
rajusti	9348
resep	9349
kentälle	9350
republikaani	9351
borg	9352
sukupuol	9353
pyöräili	9354
pehme	9355
instituutin	9356
72	9357
bir	9358
eetu	9359
nil	9360
ovi	9361
##dor	9362
##koulun	9363
##teissa	9364
##eetti	9365
maase	9366
parve	9367
harva	9368
kuvattuna	9369
kohun	9370
laskenut	9371
lukien	9372
maailmalla	9373
joukkueensa	9374
##utumisen	9375
asiakir	9376
keskustella	9377
päivällä	9378
juurikaan	9379
lentokone	9380
epäillä	9381
sijaitsevassa	9382
jääneet	9383
formula	9384
mielipit	9385
yksityiskohta	9386
mylly	9387
##bian	9388
millaisia	9389
ranskassa	9390
rakentaminen	9391
kasvatti	9392
leviää	9393
potku	9394
macron	9395
moskovan	9396
ronal	9397
##politiikan	9398
##opimuksen	9399
vakio	9400
potentiaali	9401
liikenneturva	9402
läheisyydessä	9403
fysi	9404
klu	9405
pila	9406
##työ	9407
##eeseen	9408
##ets	9409
##mmia	9410
##tellyt	9411
sekto	9412
laista	9413
kuvien	9414
savu	9415
kunhan	9416
tupp	9417
##eriin	9418
minna	9419
lopetti	9420
karme	9421
yhdysvaltoihin	9422
muovi	9423
huipu	9424
nimissä	9425
puuttuu	9426
herku	9427
kaivo	9428
vakavia	9429
pidettiin	9430
pääsivät	9431
huhu	9432
tehtävään	9433
elintarv	9434
ahven	9435
##hypp	9436
infrastruktuu	9437
ratkaisuja	9438
rajoitta	9439
fox	9440
kutsuttu	9441
kerroin	9442
##henkil	9443
legendaa	9444
säännöllisesti	9445
##mppinen	9446
tutustu	9447
lopputulo	9448
pahoinpitelystä	9449
festivaali	9450
arjen	9451
johdolla	9452
kolmannessa	9453
yllätyksenä	9454
gaa	9455
gre	9456
idän	9457
rikki	9458
##rissa	9459
##gat	9460
##utio	9461
##tioita	9462
##ppiin	9463
##miset	9464
pitkiä	9465
king	9466
karl	9467
##kkien	9468
hyvällä	9469
uutuus	9470
mets	9471
norja	9472
putki	9473
uskotaan	9474
keskusteli	9475
##terin	9476
tuntee	9477
##voittaja	9478
taposta	9479
japanin	9480
someron	9481
lotta	9482
moi	9483
##sten	9484
##chin	9485
##etessä	9486
kod	9487
tahd	9488
sivat	9489
##vies	9490
kemin	9491
osaksi	9492
osake	9493
##kans	9494
meistä	9495
##tteissa	9496
näyttely	9497
toimimaan	9498
urp	9499
##ottavaa	9500
syödä	9501
sähköauto	9502
uudistus	9503
tuhoa	9504
ystävänsä	9505
##laatu	9506
käytös	9507
ravintolassa	9508
väär	9509
saksalais	9510
##iläinen	9511
pysyi	9512
kolmesta	9513
kyselyn	9514
torjui	9515
lappeen	9516
keinoja	9517
käsitellä	9518
freder	9519
nyrkkeily	9520
ristiriita	9521
analysoi	9522
teille	9523
##kkanen	9524
##elmä	9525
##aseen	9526
viit	9527
##ksestä	9528
##velle	9529
päivien	9530
edistää	9531
rock	9532
tietyn	9533
kuvaus	9534
vastata	9535
kaas	9536
hyöty	9537
##tuneita	9538
##dässä	9539
puola	9540
julkaist	9541
juho	9542
miehistö	9543
asevoimien	9544
kehon	9545
finlan	9546
kaleva	9547
##ilemaan	9548
purran	9549
eroja	9550
oppia	9551
250	9552
kielen	9553
juniori	9554
englanti	9555
##vaihto	9556
dy	9557
jien	9558
kw	9559
oika	9560
otteeseen	9561
soittaa	9562
##dosta	9563
##tapa	9564
##iselta	9565
koordin	9566
villi	9567
makuu	9568
rap	9569
##opiste	9570
sovel	9571
lea	9572
viimeisi	9573
kolar	9574
vantaalla	9575
yhteistä	9576
tervet	9577
hyväks	9578
ulkomaan	9579
ylpeä	9580
asemassa	9581
venäjältä	9582
muutakin	9583
riitti	9584
muoti	9585
vaativat	9586
##yry	9587
nimet	9588
profi	9589
ystäviä	9590
##kkaaksi	9591
erilaiset	9592
suunnitelman	9593
kuolema	9594
korvauksia	9595
hakemaan	9596
yleisöä	9597
amerikan	9598
tarpee	9599
vastuuta	9600
olympialaisiin	9601
realist	9602
ajetaan	9603
ärsy	9604
korhonen	9605
ajasta	9606
khl	9607
neensa	9608
sö	9609
##kisi	9610
##mot	9611
##piste	9612
jack	9613
##asu	9614
kovi	9615
seppo	9616
entä	9617
lappi	9618
mattila	9619
iskut	9620
##mann	9621
perni	9622
persoona	9623
puolustaa	9624
kuuma	9625
taivaa	9626
##udo	9627
loput	9628
kannusta	9629
heidi	9630
##uksessaan	9631
laaks	9632
prosentilla	9633
sijalle	9634
ylläpitä	9635
ihmisistä	9636
120	9637
itävalta	9638
isilla	9639
kurssi	9640
erilaista	9641
mahdollistaa	9642
ennätyksen	9643
millaista	9644
vakuuttaa	9645
valmentajan	9646
postin	9647
nousevat	9648
lopputulos	9649
toistuvasti	9650
digita	9651
väylä	9652
hevosen	9653
kokonaisuudessaan	9654
63	9655
aat	9656
swi	9657
vessa	9658
##ttisen	9659
##uno	9660
james	9661
taminen	9662
seiska	9663
##mpin	9664
alkunsa	9665
esitystä	9666
harko	9667
kulma	9668
kolmi	9669
meksi	9670
paikallisen	9671
sanovat	9672
tunnus	9673
taloutta	9674
vaihta	9675
eloka	9676
keng	9677
riippuu	9678
syöksy	9679
vastaavaa	9680
israeliin	9681
tehtäviä	9682
ottaen	9683
valmist	9684
dies	9685
leikkaukset	9686
aamupäivällä	9687
##iläis	9688
pysyä	9689
rakkaus	9690
nauraa	9691
perustuslaki	9692
nauttia	9693
kehysri	9694
rattijuo	9695
huippukoko	9696
baa	9697
rö	9698
##tulo	9699
##uman	9700
##yen	9701
kiistää	9702
##ttuvat	9703
sankari	9704
##rejä	9705
maaperä	9706
##llisin	9707
tart	9708
##oosi	9709
työttömyys	9710
##vali	9711
luokassa	9712
vanhoja	9713
oikeude	9714
##massaan	9715
##muuto	9716
uutisen	9717
helsing	9718
norjalais	9719
eurooppaan	9720
kunnassa	9721
isiä	9722
erikoinen	9723
veny	9724
suunnittelu	9725
juttuja	9726
puhemies	9727
listan	9728
rinnalla	9729
sähköpost	9730
totuus	9731
kerrostalo	9732
vitsa	9733
panssari	9734
76	9735
##vyö	9736
##ityn	9737
##ttäisiin	9738
kommun	9739
joona	9740
joutua	9741
##isivät	9742
suomella	9743
voim	9744
varoitti	9745
turisti	9746
luottaa	9747
tulen	9748
tiety	9749
##itetaan	9750
lukee	9751
kansala	9752
hetkeä	9753
polvi	9754
päivään	9755
##ttomuus	9756
leiri	9757
pitkällä	9758
valtakunna	9759
huumo	9760
roolin	9761
olympiavoittaja	9762
nousivat	9763
valtioneuvos	9764
kehittää	9765
markkinoilla	9766
köyh	9767
näkemään	9768
asiakkaat	9769
diabet	9770
tietenkään	9771
miehellä	9772
reissu	9773
sloven	9774
pyhä	9775
hämmäs	9776
ennusteen	9777
umk	9778
ylipäätään	9779
bjö	9780
id	9781
pinn	9782
##neiden	9783
##ckin	9784
##hkö	9785
##vasto	9786
##kalle	9787
##ose	9788
##väki	9789
maine	9790
matias	9791
##tykset	9792
huoneen	9793
##valvoja	9794
##kkoja	9795
välille	9796
vastaano	9797
ajamaan	9798
##stön	9799
puolia	9800
vietti	9801
tuhat	9802
pormestari	9803
rikollis	9804
asukas	9805
suunnitelmat	9806
työntekijää	9807
hiihtäjä	9808
molempien	9809
vapaan	9810
kolmeen	9811
fak	9812
##täneen	9813
hintaa	9814
##yhtiön	9815
asiakkaita	9816
##kymmentä	9817
##ellus	9818
##malan	9819
kauppaa	9820
kärsinyt	9821
kyydissä	9822
blin	9823
eg	9824
shi	9825
##ün	9826
##isuo	9827
##eleen	9828
##astus	9829
##are	9830
toiset	9831
teitä	9832
iltaan	9833
tuoreen	9834
pituus	9835
syitä	9836
monissa	9837
monessa	9838
##puisto	9839
kaupassa	9840
salonen	9841
tulita	9842
kuulustelu	9843
käsikirj	9844
kenelle	9845
avata	9846
##olina	9847
tilaisuuden	9848
painaa	9849
mainitsee	9850
muodossa	9851
trafi	9852
kokemuksia	9853
asiakkaiden	9854
päivittä	9855
ikäänty	9856
##töntä	9857
eläkkeelle	9858
columb	9859
##käyttö	9860
blom	9861
taudin	9862
67	9863
ahl	9864
mp	9865
mest	9866
##kur	9867
##ressa	9868
##chi	9869
##ttona	9870
##uran	9871
##keissä	9872
kumma	9873
toissa	9874
palan	9875
hylly	9876
tapauksissa	9877
helander	9878
selviä	9879
tunten	9880
syyttää	9881
tervo	9882
virtaa	9883
epäile	9884
henkilökunta	9885
arvioitu	9886
miehistä	9887
useissa	9888
epäiltyä	9889
kysymyksen	9890
aikoja	9891
bakte	9892
kierrokselle	9893
elämästä	9894
tarkastus	9895
suunnittele	9896
massiiv	9897
valmiita	9898
ruotsiin	9899
saataisiin	9900
pudotuspele	9901
opiskelija	9902
susanna	9903
trendi	9904
pyytänyt	9905
henkiriko	9906
christian	9907
##henkilö	9908
66	9909
##ityksen	9910
kaven	9911
kapasi	9912
##joella	9913
pelko	9914
pelistä	9915
##eellisesti	9916
##llisyyttä	9917
##roja	9918
kolmatta	9919
koskinen	9920
symb	9921
##ittain	9922
hier	9923
vaikuta	9924
nuoru	9925
##aalassa	9926
välisen	9927
juhliin	9928
olenna	9929
ohjelm	9930
kehui	9931
löydy	9932
rasist	9933
harjoituksissa	9934
hurja	9935
isäntä	9936
kolmessa	9937
kiinalais	9938
kiinteistön	9939
loimaa	9940
lähdössä	9941
sähköposti	9942
tappion	9943
hankinta	9944
noudat	9945
pakettia	9946
pettymys	9947
selänne	9948
käännytysla	9949
73	9950
ama	9951
fur	9952
leena	9953
plan	9954
##ikaan	9955
##eeni	9956
mauri	9957
islan	9958
##raja	9959
tupla	9960
heis	9961
kertomaan	9962
vasten	9963
tietävät	9964
##valan	9965
turku	9966
riittänyt	9967
muuttua	9968
mielellään	9969
välikohta	9970
määrättiin	9971
kenne	9972
riittävä	9973
ajatuksia	9974
tällaiset	9975
omistaa	9976
vaikuttaja	9977
politiikkaan	9978
keskelle	9979
selväksi	9980
keskenään	9981
valitaan	9982
kohteita	9983
ydinas	9984
tyhjä	9985
##mätön	9986
##ttunen	9987
säästöjä	9988
solmi	9989
jälkimmä	9990
kuolleena	9991
ilmestyi	9992
merkittäviä	9993
myste	9994
isännöi	9995
panttivan	9996
cro	9997
gö	9998
##uka	9999
