[UNK]	0
[CLS]	1
[SEP]	2
[PAD]	3
[MASK]	4
!	5
"	6
#	7
$	8
%	9
&	10
'	11
(	12
)	13
*	14
+	15
,	16
-	17
.	18
/	19
0	20
1	21
2	22
3	23
4	24
5	25
6	26
7	27
8	28
9	29
:	30
;	31
<	32
=	33
>	34
?	35
@	36
[	37
\	38
]	39
_	40
`	41
a	42
b	43
c	44
d	45
e	46
f	47
g	48
h	49
i	50
j	51
k	52
l	53
m	54
n	55
o	56
p	57
q	58
r	59
s	60
t	61
u	62
v	63
w	64
x	65
y	66
z	67
~	68
	69
	70
	71
¡	72
¤	73
§	74
©	75
­	76
®	77
°	78
±	79
¶	80
·	81
×	82
ß	83
à	84
á	85
â	86
ã	87
ä	88
å	89
æ	90
ç	91
è	92
é	93
ê	94
ë	95
ì	96
í	97
î	98
ï	99
ð	100
ñ	101
ò	102
ó	103
ô	104
õ	105
ö	106
ø	107
ú	108
û	109
ü	110
ý	111
þ	112
ÿ	113
ā	114
ă	115
ą	116
ć	117
č	118
đ	119
ē	120
ė	121
ę	122
ě	123
ğ	124
ģ	125
ī	126
ı	127
ķ	128
ľ	129
ł	130
ń	131
ņ	132
ň	133
ō	134
ŏ	135
œ	136
ř	137
ś	138
ş	139
š	140
ū	141
ů	142
ų	143
ź	144
ż	145
ž	146
ǎ	147
ș	148
ț	149
ə	150
˗	151
́	152
̇	153
̈	154
α	155
μ	156
а	157
б	158
в	159
г	160
д	161
е	162
ж	163
з	164
и	165
й	166
к	167
л	168
м	169
н	170
о	171
п	172
р	173
с	174
т	175
у	176
ф	177
х	178
ц	179
ч	180
ш	181
щ	182
ы	183
ь	184
э	185
ю	186
я	187
ỏ	188
ố	189
‍	190
‐	191
‒	192
•	193
‰	194
′	195
⁄	196
⁣	197
€	198
−	199
∞	200
■	201
●	202
★	203
⭐	204
😂	205
🤌	206
##l	207
##t	208
##z	209
##i	210
##v	211
##e	212
##r	213
##k	214
##u	215
##d	216
##p	217
##a	218
##g	219
##o	220
##b	221
##q	222
##h	223
##ä	224
##m	225
##s	226
##n	227
##c	228
##j	229
##ə	230
##w	231
##f	232
##y	233
##ž	234
##ö	235
##о	236
##т	237
##ê	238
##ū	239
##3	240
##7	241
##н	242
##и	243
##ø	244
##ố	245
##4	246
##9	247
##x	248
##š	249
##í	250
##é	251
##6	252
##0	253
##8	254
##5	255
##ы	256
##ü	257
##е	258
##р	259
##2	260
##1	261
##г	262
##л	263
##ã	264
##è	265
##с	266
##у	267
##ì	268
##щ	269
##ỏ	270
##.	271
##å	272
##ú	273
##в	274
##а	275
##č	276
##к	277
##ń	278
##з	279
##ж	280
##б	281
##п	282
##á	283
##ó	284
##ñ	285
##м	286
##ь	287
##я	288
##д	289
##ç	290
##ł	291
##′	292
##й	293
##ч	294
##?	295
##ю	296
##æ	297
##ō	298
##î	299
##ć	300
##ò	301
##ð	302
##-	303
##ï	304
##]	305
##)	306
##,	307
##ă	308
##õ	309
##ô	310
##ц	311
##!	312
##à	313
##ÿ	314
##:	315
##х	316
##★	317
##ë	318
##%	319
##ı	320
##ś	321
##"	322
##ģ	323
##ě	324
##ň	325
##§	326
##ė	327
##­	328
##ț	329
##ğ	330
##ź	331
##ý	332
##ß	333
##œ	334
##>	335
##ř	336
##ā	337
##â	338
##ż	339
##ę	340
##ů	341
##ų	342
##+	343
##̇	344
##ņ	345
##*	346
##∞	347
##ǎ	348
##ą	349
##ŏ	350
##/	351
##ta	352
##en	353
##is	354
##in	355
##an	356
##sa	357
ta	358
##si	359
##tä	360
##ll	361
ll	362
##ti	363
en	364
an	365
is	366
ja	367
on	368
##ut	369
##ka	370
##li	371
in	372
##it	373
##än	374
##el	375
tu	376
##ik	377
va	378
et	379
##se	380
##er	381
##to	382
##aa	383
al	384
jo	385
ko	386
ku	387
uo	388
tä	389
ti	390
ssa	391
##va	392
##ki	393
##te	394
##tu	395
##sä	396
##uo	397
##oi	398
##me	399
ei	400
ka	401
er	402
##us	403
##ko	404
##es	405
##ke	406
aa	407
ol	408
##yt	409
te	410
ar	411
##de	412
si	413
la	414
lla	415
es	416
as	417
##ää	418
se	419
##ja	420
##ma	421
ma	422
sta	423
il	424
##yö	425
##et	426
oli	427
sa	428
##lla	429
että	430
vi	431
##mi	432
ai	433
na	434
##ksi	435
##ra	436
el	437
uu	438
pa	439
hän	440
än	441
##den	442
nn	443
lle	444
##on	445
##ku	446
nä	447
##uu	448
##ty	449
##kse	450
##ri	451
us	452
to	453
at	454
##pa	455
##na	456
ni	457
##la	458
##ät	459
##mm	460
it	461
##lle	462
mi	463
##vat	464
##ks	465
##he	466
##hd	467
ra	468
##vi	469
kun	470
##mp	471
ne	472
##ro	473
ki	474
ia	475
ssä	476
ais	477
##llä	478
jä	479
kä	480
##kaan	481
myö	482
llis	483
lä	484
ha	485
##lo	486
##ul	487
nen	488
aik	489
un	490
##ssa	491
oi	492
llä	493
##kä	494
ukaan	495
##ina	496
ty	497
ole	498
##utta	499
no	500
##ne	501
taa	502
##rj	503
vä	504
##le	505
yh	506
suo	507
##il	508
au	509
ih	510
ii	511
myös	512
pää	513
ot	514
ää	515
le	516
san	517
##mis	518
ke	519
tta	520
##vo	521
pi	522
nyt	523
##ys	524
saa	525
sen	526
li	527
stä	528
po	529
ksi	530
mu	531
ur	532
sy	533
##isi	534
ista	535
aan	536
##tel	537
per	538
##pp	539
issa	540
kin	541
uk	542
##sta	543
##lli	544
toi	545
aj	546
voi	547
##ine	548
##mä	549
pu	550
so	551
aika	552
tti	553
##ha	554
ys	555
mutta	556
ie	557
ten	558
##kk	559
he	560
##vä	561
erto	562
esi	563
ovat	564
lo	565
##tö	566
ul	567
iin	568
asi	569
##oit	570
tun	571
vat	572
or	573
##ot	574
nut	575
tel	576
min	577
val	578
##taa	579
iden	580
kse	581
os	582
oh	583
tie	584
oit	585
kau	586
sano	587
lta	588
maa	589
vuo	590
##ise	591
##ni	592
itä	593
##ike	594
hy	595
lu	596
inen	597
ään	598
ttiin	599
työ	600
osa	601
eh	602
tila	603
ukse	604
tai	605
op	606
toimi	607
vii	608
tää	609
mä	610
jen	611
iik	612
oll	613
##ee	614
ttu	615
##ia	616
tapa	617
##ulu	618
uus	619
eu	620
aut	621
##ten	622
ien	623
nta	624
läh	625
ala	626
suu	627
nsa	628
##jä	629
taj	630
ky	631
tan	632
ro	633
ille	634
kes	635
##ist	636
ter	637
ah	638
pä	639
##kin	640
##inen	641
alu	642
ker	643
vasta	644
ed	645
##jo	646
äs	647
ollut	648
illa	649
jäl	650
viime	651
ita	652
ise	653
mis	654
esti	655
re	656
alla	657
tar	658
uol	659
##st	660
##vät	661
ertoo	662
uon	663
##pi	664
##ve	665
ut	666
ensi	667
enn	668
oike	669
esta	670
ven	671
täm	672
su	673
ri	674
tus	675
taina	676
nne	677
koko	678
niin	679
yksi	680
sto	681
uut	682
joka	683
ilta	684
##men	685
jälke	686
venä	687
men	688
eri	689
iä	690
kan	691
ttä	692
ak	693
ap	694
##hdo	695
tö	696
##rit	697
yhte	698
isi	699
##vu	700
pel	701
##ite	702
kuin	703
anssa	704
tuo	705
##elä	706
ase	707
yl	708
tam	709
taja	710
een	711
ilu	712
##no	713
am	714
muu	715
##do	716
tän	717
halli	718
vaa	719
uonna	720
päi	721
itse	722
##so	723
asia	724
##rä	725
##pä	726
oliis	727
koh	728
##ky	729
var	730
eis	731
##itä	732
taan	733
venäj	734
mme	735
sai	736
isä	737
olisi	738
jos	739
hänen	740
nkin	741
uh	742
tule	743
##tka	744
joh	745
tut	746
uomen	747
vai	748
iit	749
seu	750
äi	751
käyt	752
##ppu	753
ana	754
##mo	755
##llo	756
suome	757
essa	758
teh	759
yli	760
##ska	761
sanoo	762
sti	763
hel	764
ik	765
elä	766
##rja	767
uot	768
huo	769
auto	770
mer	771
sä	772
##ikk	773
##uk	774
sam	775
kuite	776
mies	777
##lu	778
luo	779
rk	780
##mme	781
asti	782
##vin	783
tanut	784
nto	785
täv	786
me	787
vät	788
##kö	789
yö	790
oma	791
ry	792
tapah	793
seura	794
##tää	795
pr	796
##tio	797
ve	798
oulu	799
yhd	800
ir	801
##un	802
ihin	803
##da	804
kuva	805
##kus	806
teri	807
##vel	808
##00	809
syy	810
##emm	811
uude	812
yy	813
tur	814
uoden	815
euro	816
##esti	817
assa	818
ohj	819
##utu	820
mar	821
ainen	822
uksi	823
ui	824
oikeu	825
sekä	826
ident	827
##kaa	828
käy	829
ukku	830
epä	831
van	832
kat	833
tukse	834
kol	835
aikki	836
ju	837
olla	838
ottel	839
perus	840
mää	841
maan	842
pres	843
ihmis	844
de	845
##kem	846
ava	847
lais	848
ukkue	849
vielä	850
yt	851
av	852
alais	853
tr	854
suom	855
##isä	856
tse	857
istä	858
näyt	859
##ino	860
##dot	861
jat	862
lö	863
lin	864
##ikä	865
vuoti	866
par	867
ee	868
yrit	869
eli	870
##pe	871
isto	872
stu	873
ua	874
vir	875
##rjo	876
mahdo	877
uussa	878
uole	879
nte	880
##tti	881
poh	882
ertoi	883
##rje	884
päivä	885
issä	886
vain	887
nsä	888
väli	889
tämä	890
neet	891
##man	892
nki	893
tav	894
ver	895
##di	896
kaa	897
##tei	898
aina	899
ng	900
pe	901
esime	902
ks	903
siitä	904
##yty	905
ent	906
##rai	907
talo	908
den	909
##mu	910
aja	911
vuosi	912
##po	913
pro	914
##mpi	915
asu	916
pal	917
##aaj	918
ukrai	919
suur	920
ät	921
ina	922
nais	923
ykse	924
mie	925
kor	926
emm	927
##iks	928
tutki	929
ede	930
##gi	931
kis	932
mm	933
anna	934
itten	935
muut	936
sitä	937
sel	938
iih	939
sanoi	940
oin	941
##vio	942
jul	943
##ga	944
rkiks	945
use	946
kul	947
ote	948
jää	949
tark	950
ier	951
aikut	952
##lö	953
pit	954
kas	955
puo	956
järje	957
nkilö	958
liik	959
määrä	960
alj	961
##täv	962
mon	963
minis	964
noin	965
pun	966
alle	967
asta	968
äl	969
aali	970
aljon	971
haa	972
ill	973
uun	974
##tee	975
voit	976
aus	977
lait	978
turva	979
eskus	980
##op	981
##or	982
kaksi	983
##ir	984
alta	985
uusi	986
tava	987
my	988
ist	989
##ilm	990
olev	991
aailm	992
uuta	993
är	994
mit	995
ou	996
jossa	997
ennen	998
alvel	999
isäks	1000
ili	1001
ama	1002
ru	1003
hyö	1004
ois	1005
##taan	1006
nti	1007
eivät	1008
vaih	1009
istu	1010
ella	1011
mil	1012
em	1013
kansa	1014
##ika	1015
astu	1016
##ol	1017
##sit	1018
kunna	1019
halu	1020
tuli	1021
aikka	1022
ikä	1023
ulko	1024
prose	1025
da	1026
koska	1027
##ele	1028
pys	1029
hyvin	1030
sillä	1031
edus	1032
äh	1033
utu	1034
paika	1035
##hu	1036
ij	1037
##iko	1038
ran	1039
##nn	1040
##är	1041
las	1042
uis	1043
lleen	1044
py	1045
erk	1046
ettei	1047
ansa	1048
##toi	1049
vali	1050
puhe	1051
aksi	1052
tor	1053
st	1054
ann	1055
tänyt	1056
iko	1057
##ana	1058
muun	1059
lline	1060
uassa	1061
yhdys	1062
usta	1063
kuu	1064
tru	1065
toise	1066
tämän	1067
nuo	1068
ic	1069
trump	1070
nnut	1071
tiin	1072
hi	1073
##essa	1074
##ita	1075
##em	1076
eksi	1077
ell	1078
komm	1079
arvo	1080
tulee	1081
äät	1082
pis	1083
##as	1084
tulo	1085
julk	1086
uolus	1087
##ttu	1088
tyis	1089
pitkä	1090
aihe	1091
arvio	1092
##tom	1093
##du	1094
##ssä	1095
tois	1096
valta	1097
sopi	1098
esit	1099
sal	1100
##vis	1101
elo	1102
oon	1103
opu	1104
aluee	1105
urhe	1106
##pu	1107
illä	1108
ilm	1109
tul	1110
ilpa	1111
väh	1112
istö	1113
##van	1114
##stä	1115
ässä	1116
pien	1117
kesä	1118
##ppi	1119
ltä	1120
haast	1121
pitää	1122
rake	1123
tieto	1124
mitä	1125
ing	1126
jon	1127
olen	1128
alue	1129
keski	1130
lut	1131
lap	1132
##joh	1133
ny	1134
suh	1135
etä	1136
äy	1137
kerto	1138
tode	1139
uotta	1140
##ho	1141
uomi	1142
raa	1143
##inä	1144
all	1145
elaaj	1146
neu	1147
euroa	1148
pois	1149
##ssi	1150
ris	1151
altio	1152
etty	1153
ata	1154
matka	1155
##ur	1156
iso	1157
##hde	1158
unn	1159
##ksa	1160
##kiv	1161
kunta	1162
milj	1163
uutta	1164
teki	1165
paikk	1166
olo	1167
miele	1168
nel	1169
epäil	1170
ryh	1171
nee	1172
jotka	1173
etta	1174
iiko	1175
anne	1176
ilmoi	1177
äiv	1178
rin	1179
sesti	1180
##re	1181
##rin	1182
ajan	1183
sin	1184
kut	1185
piste	1186
koti	1187
pol	1188
eid	1189
amp	1190
tiedo	1191
##ään	1192
iksi	1193
om	1194
ällä	1195
ari	1196
##al	1197
ttav	1198
helsi	1199
000	1200
mmä	1201
ettu	1202
uuden	1203
teli	1204
nno	1205
##kki	1206
##jan	1207
loppu	1208
kyse	1209
estar	1210
etaan	1211
lan	1212
ymp	1213
jonka	1214
##ide	1215
iikko	1216
##su	1217
eikä	1218
vara	1219
kään	1220
neuvo	1221
##deo	1222
annat	1223
kon	1224
oo	1225
tavat	1226
kar	1227
ilma	1228
päät	1229
ena	1230
oja	1231
tuu	1232
valme	1233
ag	1234
nuor	1235
nan	1236
etke	1237
oti	1238
häne	1239
vah	1240
eidän	1241
peli	1242
sija	1243
neljä	1244
ntti	1245
ttel	1246
yle	1247
ussa	1248
alo	1249
aiemm	1250
suunn	1251
empi	1252
ete	1253
minen	1254
##ini	1255
elle	1256
täh	1257
han	1258
##ue	1259
näin	1260
voima	1261
perhe	1262
ese	1263
ulo	1264
tui	1265
lii	1266
hä	1267
emmin	1268
ehdo	1269
anta	1270
ensim	1271
up	1272
tuot	1273
aal	1274
näh	1275
iihen	1276
enne	1277
ohjel	1278
yhde	1279
usko	1280
hyökk	1281
lau	1282
ntaj	1283
lisä	1284
pari	1285
##ran	1286
##bb	1287
ivat	1288
ntä	1289
uomio	1290
saat	1291
iitty	1292
uksia	1293
iel	1294
##lai	1295
##ito	1296
kerro	1297
##kka	1298
enemm	1299
met	1300
kolme	1301
nou	1302
minu	1303
ev	1304
tty	1305
##der	1306
pohjo	1307
uutis	1308
ch	1309
ulj	1310
iesti	1311
imm	1312
##sti	1313
ästi	1314
tulev	1315
##tk	1316
kaan	1317
##hdä	1318
raj	1319
kesku	1320
mus	1321
##kau	1322
aloit	1323
täj	1324
isää	1325
uolue	1326
teen	1327
mik	1328
taso	1329
ttaa	1330
ong	1331
##tiö	1332
eja	1333
tunne	1334
lähet	1335
man	1336
sisä	1337
stö	1338
puhu	1339
id	1340
kirjo	1341
##kai	1342
sarja	1343
säh	1344
jät	1345
##hin	1346
im	1347
etään	1348
uotsi	1349
ali	1350
ajo	1351
aiheu	1352
katso	1353
odot	1354
kolm	1355
juh	1356
hu	1357
almis	1358
hin	1359
oj	1360
do	1361
##ksy	1362
juo	1363
mur	1364
yll	1365
len	1366
suhte	1367
##dia	1368
tee	1369
sähkö	1370
sil	1371
antaa	1372
atta	1373
myy	1374
eks	1375
pungi	1376
io	1377
staan	1378
isiin	1379
##ton	1380
stubb	1381
vo	1382
arj	1383
suomi	1384
##ev	1385
aine	1386
sää	1387
nope	1388
näkö	1389
tällä	1390
aku	1391
##sk	1392
##oli	1393
kirj	1394
aisu	1395
äys	1396
erjan	1397
keh	1398
ajat	1399
##ter	1400
löyty	1401
estä	1402
amis	1403
di	1404
ian	1405
ttö	1406
##ras	1407
itään	1408
hyvä	1409
pysty	1410
media	1411
uro	1412
joutu	1413
mmäis	1414
tunti	1415
##rke	1416
amma	1417
##ck	1418
ken	1419
ly	1420
##aal	1421
lähe	1422
hen	1423
jär	1424
neen	1425
ehti	1426
entoi	1427
kirja	1428
miten	1429
har	1430
onn	1431
alku	1432
perä	1433
aatio	1434
eläm	1435
astus	1436
eseen	1437
her	1438
iis	1439
eillä	1440
tään	1441
kisa	1442
yhtiö	1443
usi	1444
##est	1445
ero	1446
ohta	1447
arha	1448
ov	1449
lää	1450
##ea	1451
kk	1452
vaan	1453
ura	1454
mikä	1455
ani	1456
ori	1457
äis	1458
##sen	1459
asian	1460
huoma	1461
tarvi	1462
lääk	1463
tarjo	1464
mo	1465
##maan	1466
nime	1467
ihan	1468
##kea	1469
kaude	1470
ilij	1471
iet	1472
kö	1473
maali	1474
llo	1475
osall	1476
um	1477
enjoh	1478
sivu	1479
vaal	1480
essä	1481
kal	1482
tunut	1483
iera	1484
alk	1485
##ss	1486
ympär	1487
osi	1488
video	1489
ertaa	1490
äänes	1491
sopim	1492
##paa	1493
nkaan	1494
hoi	1495
lis	1496
tekem	1497
yllät	1498
sra	1499
srael	1500
np	1501
##my	1502
äyt	1503
##lt	1504
kasv	1505
jopa	1506
mään	1507
näky	1508
nimi	1509
lloin	1510
##vit	1511
##nt	1512
erran	1513
telu	1514
ratk	1515
nyky	1516
taisi	1517
uoksi	1518
aisi	1519
ryhmä	1520
uoli	1521
mai	1522
kilo	1523
##ust	1524
iinni	1525
nttia	1526
ärj	1527
moni	1528
osoit	1529
ngin	1530
kello	1531
erkit	1532
käsit	1533
ttöm	1534
ukana	1535
kahde	1536
iir	1537
saada	1538
aikaa	1539
ea	1540
lauan	1541
uroop	1542
una	1543
öy	1544
tehdä	1545
puoli	1546
rau	1547
ongel	1548
tane	1549
enää	1550
ästä	1551
ruo	1552
##kso	1553
oinen	1554
ota	1555
##kko	1556
kehit	1557
kov	1558
miehe	1559
aka	1560
otta	1561
avo	1562
##vää	1563
iltal	1564
uode	1565
riit	1566
tum	1567
sell	1568
sanom	1569
oliit	1570
syn	1571
aati	1572
avu	1573
ystäv	1574
juu	1575
##hl	1576
kohta	1577
oulun	1578
nk	1579
alka	1580
eissa	1581
pitä	1582
##iri	1583
väit	1584
net	1585
ön	1586
oik	1587
tiet	1588
art	1589
##hi	1590
##kia	1591
täll	1592
ntees	1593
uks	1594
etelä	1595
##ar	1596
uin	1597
ant	1598
kiso	1599
ymme	1600
vanh	1601
telee	1602
tom	1603
omis	1604
yty	1605
sijai	1606
lähte	1607
eskiv	1608
ss	1609
kseen	1610
inä	1611
synty	1612
yleis	1613
aamu	1614
aanan	1615
leet	1616
akko	1617
omi	1618
vaara	1619
attel	1620
suora	1621
eik	1622
##tta	1623
anska	1624
uraa	1625
ssaan	1626
uoma	1627
illoi	1628
nii	1629
ho	1630
tis	1631
aam	1632
iha	1633
uljet	1634
nor	1635
uhka	1636
jäi	1637
muist	1638
koke	1639
##kkö	1640
jatku	1641
ojen	1642
ain	1643
isku	1644
tied	1645
iti	1646
ejä	1647
talou	1648
til	1649
tykse	1650
iellä	1651
ika	1652
tuntu	1653
tors	1654
anni	1655
ulk	1656
ac	1657
oim	1658
ehtäv	1659
tely	1660
kär	1661
siir	1662
inn	1663
kir	1664
tasa	1665
mäise	1666
autta	1667
asio	1668
aita	1669
myöh	1670
juuri	1671
##ver	1672
äli	1673
tautu	1674
ensa	1675
eet	1676
iedot	1677
ttee	1678
äällä	1679
kyl	1680
ttäin	1681
itäis	1682
ntaa	1683
##til	1684
iseen	1685
kone	1686
nnan	1687
##iden	1688
ttom	1689
mpi	1690
arjoi	1691
##ram	1692
emaan	1693
jatko	1694
mise	1695
apa	1696
dään	1697
keske	1698
kuten	1699
ysy	1700
aat	1701
aino	1702
nt	1703
vähän	1704
enna	1705
salo	1706
nna	1707
lai	1708
##ske	1709
sk	1710
tässä	1711
erä	1712
amm	1713
stel	1714
vie	1715
yys	1716
tiis	1717
tajan	1718
auden	1719
oikea	1720
paino	1721
tyy	1722
eille	1723
jal	1724
laine	1725
tak	1726
lähes	1727
tuomi	1728
ensä	1729
vero	1730
selv	1731
rauha	1732
yks	1733
kohd	1734
naan	1735
iltä	1736
iitto	1737
lapsi	1738
aav	1739
lämp	1740
uraav	1741
yn	1742
toivo	1743
kys	1744
sty	1745
kysy	1746
oitto	1747
sosi	1748
enä	1749
iivis	1750
unnun	1751
nis	1752
ara	1753
yhtä	1754
inna	1755
amaan	1756
lähti	1757
##ppa	1758
##ös	1759
##os	1760
elvit	1761
alja	1762
uutam	1763
täy	1764
dessa	1765
isuu	1766
leh	1767
kuul	1768
eit	1769
oki	1770
tv	1771
isen	1772
tain	1773
lue	1774
ukset	1775
tys	1776
kamp	1777
saar	1778
ahden	1779
inaal	1780
eg	1781
tosi	1782
uukau	1783
ikos	1784
alkoi	1785
isin	1786
siinä	1787
ehdok	1788
laske	1789
laa	1790
oni	1791
laan	1792
hoit	1793
oiden	1794
koi	1795
omais	1796
rit	1797
tettu	1798
ilman	1799
##kar	1800
##kee	1801
syö	1802
##sin	1803
löy	1804
por	1805
esk	1806
ymm	1807
ysymy	1808
tähti	1809
arhai	1810
tune	1811
eloku	1812
ravi	1813
koske	1814
ärjes	1815
ampu	1816
nnu	1817
emp	1818
hoito	1819
aljas	1820
selvi	1821
ad	1822
ija	1823
eita	1824
änsä	1825
raha	1826
aiko	1827
istor	1828
lento	1829
ber	1830
aikea	1831
ttam	1832
punki	1833
riko	1834
ola	1835
tävät	1836
itiik	1837
eril	1838
kiel	1839
leikk	1840
maksa	1841
kil	1842
änä	1843
nopea	1844
ine	1845
raala	1846
llaan	1847
eki	1848
##ch	1849
taas	1850
lou	1851
laaj	1852
tte	1853
od	1854
takia	1855
sotil	1856
einä	1857
ouk	1858
ime	1859
ton	1860
sota	1861
ulkis	1862
az	1863
nu	1864
aisia	1865
uuttu	1866
inty	1867
apu	1868
seen	1869
asiak	1870
sson	1871
nnä	1872
##hto	1873
teko	1874
tunte	1875
ärä	1876
ston	1877
aukse	1878
terve	1879
voisi	1880
eer	1881
ellis	1882
##ff	1883
puole	1884
saapu	1885
oita	1886
kent	1887
ahvis	1888
äri	1889
ätä	1890
ittaa	1891
lähi	1892
ast	1893
ierro	1894
sarj	1895
teriö	1896
avat	1897
ruoka	1898
aste	1899
oitti	1900
palo	1901
aista	1902
aikai	1903
käsi	1904
ehde	1905
liiga	1906
pallo	1907
vaali	1908
ussi	1909
mieli	1910
nnus	1911
oissa	1912
laj	1913
äätty	1914
oly	1915
pan	1916
yr	1917
uva	1918
yde	1919
ymmär	1920
oimi	1921
iekko	1922
luok	1923
piene	1924
##väl	1925
uinka	1926
##hoi	1927
co	1928
uul	1929
ide	1930
tärke	1931
pysy	1932
rä	1933
kois	1934
ab	1935
taist	1936
hake	1937
joten	1938
rik	1939
ettav	1940
viran	1941
siis	1942
vira	1943
unni	1944
##ert	1945
ieh	1946
vän	1947
oonaa	1948
olymp	1949
biden	1950
hyv	1951
malli	1952
ieltä	1953
anen	1954
oikei	1955
maal	1956
appi	1957
inväl	1958
laki	1959
iini	1960
##yttä	1961
meni	1962
daan	1963
tomuu	1964
isa	1965
##iki	1966
mukse	1967
halua	1968
kuulu	1969
auta	1970
ieman	1971
attu	1972
nnö	1973
ale	1974
iili	1975
sivat	1976
lah	1977
ste	1978
kilom	1979
saksa	1980
##han	1981
##pal	1982
##vai	1983
inst	1984
nnuks	1985
yytä	1986
jäsen	1987
pyö	1988
entis	1989
kilpa	1990
tamis	1991
kuoli	1992
nos	1993
yhä	1994
20	1995
son	1996
etrin	1997
##esta	1998
huono	1999
ehd	2000
aatu	2001
näköi	2002
jakso	2003
äätös	2004
nhl	2005
helpo	2006
ksen	2007
ang	2008
iehen	2009
otti	2010
ellä	2011
työnt	2012
lma	2013
jou	2014
tivat	2015
oista	2016
äysin	2017
eä	2018
edes	2019
koro	2020
ort	2021
havai	2022
leen	2023
kyllä	2024
menet	2025
arki	2026
##ing	2027
attom	2028
uippu	2029
tsee	2030
nnyt	2031
ammat	2032
elämä	2033
ttelu	2034
auton	2035
agram	2036
juhli	2037
ake	2038
tap	2039
isti	2040
onta	2041
oikke	2042
hil	2043
##nä	2044
unta	2045
toden	2046
kävi	2047
heti	2048
kokou	2049
yvin	2050
asema	2051
niitä	2052
iikon	2053
mäine	2054
##ön	2055
inta	2056
kutsu	2057
kevää	2058
eur	2059
ander	2060
vesi	2061
äräjä	2062
pääse	2063
minuu	2064
##ilu	2065
pet	2066
kaiki	2067
ela	2068
vapaa	2069
##kon	2070
eista	2071
alkaa	2072
asten	2073
uute	2074
pid	2075
joe	2076
und	2077
änään	2078
new	2079
joita	2080
oima	2081
häntä	2082
ointi	2083
älle	2084
viide	2085
dä	2086
uvail	2087
tänä	2088
oivat	2089
massa	2090
kko	2091
toime	2092
orpo	2093
pääsi	2094
orva	2095
avoit	2096
etu	2097
akt	2098
ilme	2099
mitta	2100
auri	2101
laito	2102
iina	2103
nsi	2104
nau	2105
tote	2106
sp	2107
vaka	2108
uolis	2109
luku	2110
aki	2111
tkaa	2112
piti	2113
atti	2114
uolem	2115
vakav	2116
yllä	2117
missä	2118
jota	2119
utki	2120
häiri	2121
yky	2122
seks	2123
vil	2124
pala	2125
illi	2126
elin	2127
mmin	2128
uloks	2129
eihin	2130
##elm	2131
hj	2132
iku	2133
##ksu	2134
kohte	2135
tuma	2136
aar	2137
ystä	2138
lään	2139
ikku	2140
pieni	2141
nousi	2142
stelm	2143
dy	2144
sm	2145
anc	2146
ard	2147
elm	2148
je	2149
tulla	2150
venäl	2151
ay	2152
taust	2153
rve	2154
tuksi	2155
päivi	2156
hinta	2157
ami	2158
##dy	2159
uosi	2160
yhden	2161
loukk	2162
uoj	2163
mat	2164
kanna	2165
joulu	2166
nnas	2167
luvu	2168
jalka	2169
oona	2170
appal	2171
rveys	2172
etri	2173
läpi	2174
äästä	2175
ääri	2176
ttuna	2177
##eme	2178
ok	2179
##maa	2180
lähd	2181
euron	2182
tio	2183
aivan	2184
atu	2185
laji	2186
uistu	2187
silm	2188
the	2189
est	2190
ärke	2191
äte	2192
pide	2193
tek	2194
10	2195
astuu	2196
ans	2197
rins	2198
itsem	2199
nlo	2200
lupa	2201
anki	2202
kohda	2203
isuud	2204
annut	2205
tökse	2206
tuki	2207
urk	2208
ruu	2209
kka	2210
uuksi	2211
lop	2212
äiti	2213
nieme	2214
syksy	2215
otu	2216
iu	2217
hänet	2218
usein	2219
kunno	2220
soit	2221
tiete	2222
osta	2223
isu	2224
aton	2225
uha	2226
anssi	2227
ehkä	2228
sky	2229
elkä	2230
alio	2231
aantu	2232
valit	2233
nneet	2234
lapse	2235
pyör	2236
aid	2237
yvinv	2238
naa	2239
ex	2240
änsi	2241
ansi	2242
arr	2243
ned	2244
ääni	2245
iuk	2246
llään	2247
väkiv	2248
aset	2249
lämpö	2250
15	2251
atso	2252
uisto	2253
ottaa	2254
kulut	2255
lind	2256
ntää	2257
auppa	2258
orkea	2259
eistä	2260
telij	2261
allo	2262
itu	2263
##ih	2264
itelm	2265
väksy	2266
test	2267
tseva	2268
oteaa	2269
ansal	2270
onal	2271
oman	2272
tili	2273
pääll	2274
nny	2275
liike	2276
tänee	2277
ttäj	2278
nedus	2279
oy	2280
ttain	2281
tätä	2282
##ess	2283
arh	2284
nni	2285
aani	2286
hävi	2287
ämä	2288
eitä	2289
sod	2290
aivo	2291
täyty	2292
vier	2293
kohti	2294
anke	2295
viit	2296
ini	2297
ako	2298
voim	2299
uunta	2300
pysä	2301
ulos	2302
poi	2303
gia	2304
ohd	2305
uorit	2306
naine	2307
uhri	2308
salon	2309
umma	2310
sten	2311
aisin	2312
yliop	2313
meri	2314
lehde	2315
anj	2316
tsi	2317
työsk	2318
ene	2319
oilla	2320
iirty	2321
poika	2322
##tuu	2323
onnet	2324
aahan	2325
öyd	2326
allan	2327
viisi	2328
autu	2329
utta	2330
vaati	2331
taka	2332
tori	2333
ttaja	2334
##via	2335
oul	2336
elen	2337
ältä	2338
aist	2339
arsin	2340
murha	2341
kump	2342
itti	2343
##mok	2344
atkus	2345
het	2346
uonno	2347
hoita	2348
aari	2349
usiik	2350
sodan	2351
hiih	2352
ieto	2353
ohi	2354
toteu	2355
berg	2356
oe	2357
uurin	2358
onnis	2359
liito	2360
syys	2361
miehi	2362
metsä	2363
inko	2364
ikoks	2365
tehty	2366
otain	2367
oukko	2368
mp	2369
etsi	2370
lopet	2371
osu	2372
iikku	2373
mene	2374
ouko	2375
ijoit	2376
oimit	2377
sd	2378
varm	2379
äivän	2380
aiden	2381
asemm	2382
ijaan	2383
aha	2384
viet	2385
minkä	2386
du	2387
tua	2388
eteen	2389
uolim	2390
sit	2391
kunto	2392
tekij	2393
mukai	2394
mone	2395
uhe	2396
muita	2397
ukka	2398
uosit	2399
eijo	2400
iinno	2401
uoto	2402
julki	2403
erkko	2404
uote	2405
usu	2406
lad	2407
levi	2408
ahti	2409
arhaa	2410
elko	2411
ittel	2412
ilun	2413
##kr	2414
ainoa	2415
heit	2416
jälle	2417
sina	2418
jotta	2419
ude	2420
aito	2421
uksen	2422
teho	2423
itta	2424
jouko	2425
ivät	2426
##nö	2427
eng	2428
antti	2429
uning	2430
kerä	2431
vel	2432
alise	2433
altuu	2434
ras	2435
lähtö	2436
opet	2437
heik	2438
hoid	2439
palki	2440
ihme	2441
nssi	2442
sij	2443
pela	2444
mäki	2445
aistu	2446
eikk	2447
kokem	2448
kylä	2449
idät	2450
eiden	2451
tt	2452
yyde	2453
kärsi	2454
12	2455
tah	2456
tekee	2457
näi	2458
äyty	2459
aju	2460
tet	2461
kesäk	2462
maksu	2463
ennät	2464
rist	2465
tähän	2466
äyttö	2467
ilija	2468
ull	2469
eisö	2470
mikko	2471
arris	2472
ane	2473
rooli	2474
ttuur	2475
kiina	2476
kymme	2477
etriä	2478
ib	2479
paras	2480
emme	2481
ovi	2482
irv	2483
suku	2484
##rki	2485
aikke	2486
ca	2487
loka	2488
eni	2489
onen	2490
myötä	2491
ielen	2492
sc	2493
30	2494
herät	2495
onald	2496
ida	2497
äv	2498
piir	2499
##nu	2500
ae	2501
nato	2502
niide	2503
ähe	2504
akuut	2505
rof	2506
##ott	2507
linja	2508
aisuu	2509
utini	2510
määri	2511
##lam	2512
##ute	2513
edel	2514
alous	2515
naise	2516
maajo	2517
arl	2518
nistu	2519
ankki	2520
appio	2521
ksia	2522
aluaa	2523
usten	2524
##ort	2525
run	2526
ano	2527
tivät	2528
eissä	2529
##sal	2530
##rju	2531
tuore	2532
af	2533
jut	2534
oski	2535
liian	2536
rttu	2537
koulu	2538
oihin	2539
oitus	2540
korj	2541
ologi	2542
imo	2543
urr	2544
norm	2545
tunni	2546
keino	2547
telev	2548
osuu	2549
lyt	2550
ustel	2551
uuluu	2552
tal	2553
aulu	2554
and	2555
oulut	2556
ga	2557
##eno	2558
maini	2559
änne	2560
äälle	2561
uor	2562
rask	2563
olemm	2564
tarpe	2565
olmen	2566
norja	2567
##ser	2568
ntola	2569
tekn	2570
vahv	2571
äm	2572
riski	2573
elta	2574
huu	2575
joide	2576
suosi	2577
demok	2578
harv	2579
suuri	2580
ennus	2581
antam	2582
öl	2583
ialai	2584
ajoit	2585
eva	2586
nko	2587
ajaa	2588
uhd	2589
kuvi	2590
lauk	2591
##rau	2592
pyrki	2593
yyttä	2594
täyt	2595
ord	2596
oukok	2597
kuol	2598
asiaa	2599
kaap	2600
ikään	2601
valo	2602
avau	2603
ek	2604
tuke	2605
henki	2606
päin	2607
tulos	2608
krit	2609
erta	2610
ykkö	2611
tae	2612
set	2613
##int	2614
uhti	2615
##ce	2616
uiden	2617
wa	2618
enno	2619
vaimo	2620
ausu	2621
aiva	2622
adi	2623
käytö	2624
sinai	2625
tetty	2626
##uh	2627
raat	2628
ttava	2629
kerta	2630
laul	2631
kee	2632
ihr	2633
iiga	2634
alex	2635
hti	2636
anut	2637
koto	2638
kasvu	2639
ennak	2640
lehti	2641
##aali	2642
onne	2643
nv	2644
omm	2645
äksi	2646
syysk	2647
merkk	2648
kaupa	2649
empaa	2650
##isk	2651
vaike	2652
elmik	2653
adu	2654
ike	2655
nl	2656
älier	2657
iset	2658
kausi	2659
mere	2660
tästä	2661
lasku	2662
kysee	2663
entee	2664
aisem	2665
ity	2666
tto	2667
udu	2668
ysel	2669
paine	2670
sosia	2671
tia	2672
vede	2673
pekka	2674
hon	2675
ingo	2676
heng	2677
ait	2678
##vaa	2679
ohu	2680
työtä	2681
vanha	2682
ehdot	2683
oppi	2684
onko	2685
löytä	2686
sul	2687
ylä	2688
dio	2689
tuho	2690
mill	2691
ähemm	2692
sia	2693
menne	2694
ink	2695
ulisi	2696
tävä	2697
ikuis	2698
aho	2699
eo	2700
vapa	2701
yk	2702
ilmi	2703
muuta	2704
tävän	2705
aavut	2706
ati	2707
masti	2708
isia	2709
ikko	2710
akse	2711
inti	2712
iitä	2713
peri	2714
otesi	2715
illis	2716
avio	2717
inf	2718
aliok	2719
päiv	2720
tyyp	2721
iki	2722
tähd	2723
hieno	2724
alko	2725
arlam	2726
jolla	2727
teo	2728
yhdis	2729
tusta	2730
tännö	2731
kulu	2732
utk	2733
meno	2734
aza	2735
intei	2736
iikka	2737
nouse	2738
einäk	2739
nd	2740
valla	2741
hevo	2742
juhla	2743
olle	2744
kok	2745
näkem	2746
pohti	2747
##lit	2748
aroit	2749
säil	2750
kai	2751
puh	2752
auk	2753
##ge	2754
asvat	2755
tavan	2756
ark	2757
vis	2758
arras	2759
uni	2760
merki	2761
hilja	2762
josta	2763
mia	2764
lor	2765
avar	2766
kuude	2767
vaiht	2768
ietti	2769
alli	2770
anto	2771
valt	2772
kää	2773
pääty	2774
irta	2775
uutos	2776
yttä	2777
ksu	2778
ilo	2779
runsa	2780
virhe	2781
##kas	2782
loma	2783
one	2784
lukem	2785
iiton	2786
järk	2787
vih	2788
ohdis	2789
ank	2790
##je	2791
yksiä	2792
udot	2793
merik	2794
asa	2795
uuli	2796
valvo	2797
akkau	2798
puol	2799
vähi	2800
rs	2801
sata	2802
mui	2803
aikal	2804
reilu	2805
ampum	2806
nlopp	2807
uoro	2808
mont	2809
rikko	2810
näis	2811
ariis	2812
11	2813
urna	2814
vapau	2815
eor	2816
jy	2817
entu	2818
mita	2819
ikkö	2820
antoi	2821
jatk	2822
altav	2823
ob	2824
tait	2825
istyö	2826
rom	2827
johto	2828
esken	2829
tunnu	2830
orm	2831
adio	2832
ress	2833
onet	2834
anad	2835
huum	2836
##kino	2837
oitu	2838
veto	2839
koira	2840
br	2841
arja	2842
alaut	2843
ado	2844
imme	2845
kkino	2846
lik	2847
yhy	2848
vauh	2849
ssään	2850
aana	2851
kumpp	2852
uud	2853
nous	2854
ovin	2855
bo	2856
end	2857
lokak	2858
sana	2859
törke	2860
esä	2861
valmi	2862
evy	2863
amise	2864
pahoi	2865
torju	2866
ich	2867
läis	2868
koros	2869
of	2870
ener	2871
vähe	2872
uku	2873
ävel	2874
uulu	2875
akana	2876
otiin	2877
aiken	2878
selit	2879
elok	2880
eessa	2881
ail	2882
alas	2883
joku	2884
ekijä	2885
##mai	2886
ksiä	2887
eb	2888
koe	2889
oille	2890
mennä	2891
uper	2892
enti	2893
onser	2894
luki	2895
otsal	2896
opisk	2897
anav	2898
täyde	2899
eal	2900
ket	2901
peru	2902
virka	2903
lämm	2904
tin	2905
eläi	2906
uhtik	2907
rssi	2908
esp	2909
hui	2910
aatim	2911
uokr	2912
ajoi	2913
vaihe	2914
saman	2915
eudu	2916
kohol	2917
rad	2918
vält	2919
aport	2920
airau	2921
paiko	2922
ttamu	2923
valto	2924
ehto	2925
ylen	2926
arvos	2927
iippu	2928
änen	2929
anno	2930
tilan	2931
inne	2932
sio	2933
änty	2934
ylm	2935
yksik	2936
silti	2937
stään	2938
sik	2939
ankeu	2940
tilo	2941
tyä	2942
uosik	2943
okse	2944
ess	2945
sis	2946
myr	2947
opp	2948
iito	2949
pohja	2950
kusta	2951
miksi	2952
iisu	2953
oehto	2954
ps	2955
sala	2956
50	2957
ip	2958
ietoa	2959
ba	2960
ria	2961
aad	2962
oir	2963
eera	2964
edu	2965
paris	2966
ein	2967
rmä	2968
talli	2969
mäe	2970
mistä	2971
sate	2972
amper	2973
npit	2974
eutu	2975
inis	2976
lat	2977
aikan	2978
ate	2979
uuluv	2980
töön	2981
nkert	2982
unti	2983
some	2984
karsi	2985
jätti	2986
lti	2987
palkk	2988
13	2989
dolla	2990
kova	2991
oper	2992
nder	2993
lain	2994
brit	2995
pyy	2996
ssi	2997
ettäv	2998
voito	2999
impi	3000
ouluk	3001
ue	3002
ila	3003
org	3004
tuttu	3005
anti	3006
yttö	3007
haav	3008
tön	3009
yksen	3010
oimak	3011
iv	3012
usjoh	3013
inu	3014
yysi	3015
kanta	3016
ranna	3017
entel	3018
yyd	3019
stus	3020
illan	3021
mari	3022
tiedä	3023
ean	3024
ausi	3025
järve	3026
aatte	3027
stuks	3028
##her	3029
eikka	3030
mät	3031
put	3032
sdp	3033
ukea	3034
vää	3035
ydi	3036
uum	3037
telem	3038
eläk	3039
##kuv	3040
iivi	3041
ius	3042
sattu	3043
liha	3044
esiin	3045
enr	3046
eensä	3047
armi	3048
ub	3049
täisi	3050
ork	3051
avoi	3052
inno	3053
uaali	3054
äivä	3055
kap	3056
ksan	3057
osto	3058
uone	3059
land	3060
umm	3061
armaa	3062
ahde	3063
isk	3064
ehot	3065
elasi	3066
kier	3067
ääjä	3068
ärki	3069
ppi	3070
ust	3071
apsen	3072
ärkeä	3073
25	3074
lav	3075
nap	3076
ig	3077
elke	3078
eikki	3079
yvä	3080
akot	3081
hetki	3082
juttu	3083
uri	3084
uto	3085
into	3086
pakk	3087
putin	3088
rinta	3089
sään	3090
irt	3091
mmi	3092
ert	3093
ataan	3094
hall	3095
aikoi	3096
isuus	3097
väl	3098
ntam	3099
omu	3100
uodo	3101
tuv	3102
jala	3103
isio	3104
tais	3105
nomai	3106
mero	3107
elu	3108
eetti	3109
ont	3110
uoliv	3111
ely	3112
uksel	3113
huone	3114
oimii	3115
kato	3116
äline	3117
14	3118
ji	3119
otto	3120
ttia	3121
ael	3122
ideo	3123
mma	3124
unna	3125
rek	3126
risti	3127
miel	3128
annu	3129
äinen	3130
urma	3131
syyt	3132
tter	3133
kkä	3134
oleva	3135
aalia	3136
pian	3137
äytyy	3138
aatti	3139
kiint	3140
piiri	3141
teja	3142
oitte	3143
ähtee	3144
hank	3145
dia	3146
tussa	3147
nost	3148
oinut	3149
ask	3150
iten	3151
uomar	3152
täe	3153
aare	3154
teet	3155
uima	3156
nteen	3157
ntään	3158
kkai	3159
kuvan	3160
alve	3161
ahta	3162
##ju	3163
don	3164
mel	3165
sent	3166
tsem	3167
iinä	3168
kats	3169
kaat	3170
if	3171
aket	3172
eir	3173
naur	3174
luva	3175
odi	3176
ula	3177
delli	3178
sama	3179
ors	3180
aalin	3181
ammik	3182
tuh	3183
vallo	3184
auan	3185
äivää	3186
öi	3187
pääss	3188
ardi	3189
öm	3190
tämis	3191
ehu	3192
16	3193
siko	3194
ele	3195
amine	3196
iihto	3197
netta	3198
kaise	3199
poj	3200
seur	3201
span	3202
kku	3203
ahaa	3204
äykse	3205
äd	3206
sinki	3207
uomal	3208
tapp	3209
tella	3210
liit	3211
mäk	3212
imman	3213
18	3214
ud	3215
spanj	3216
skus	3217
urj	3218
pohj	3219
ranta	3220
alaa	3221
ottam	3222
ove	3223
alust	3224
uuk	3225
wi	3226
mistu	3227
akas	3228
nkä	3229
lasta	3230
loh	3231
asem	3232
uolle	3233
arkka	3234
usea	3235
ilv	3236
apin	3237
ekst	3238
äässä	3239
poik	3240
kaver	3241
urun	3242
mark	3243
vansa	3244
ahvi	3245
kulta	3246
amer	3247
ättä	3248
päätö	3249
bar	3250
nty	3251
omp	3252
iak	3253
muuto	3254
ow	3255
yvää	3256
ilj	3257
aatii	3258
paa	3259
neli	3260
akso	3261
komis	3262
str	3263
ion	3264
alan	3265
uori	3266
menee	3267
lista	3268
17	3269
klo	3270
alvi	3271
imi	3272
aur	3273
uita	3274
pitk	3275
kkina	3276
iz	3277
gr	3278
erg	3279
ryhm	3280
isan	3281
via	3282
puut	3283
elij	3284
rova	3285
luot	3286
avi	3287
nes	3288
niem	3289
ksiin	3290
antu	3291
ome	3292
otell	3293
immi	3294
port	3295
otku	3296
sat	3297
para	3298
ttäis	3299
mah	3300
oott	3301
esu	3302
nio	3303
väri	3304
##od	3305
uno	3306
lus	3307
nik	3308
arina	3309
atar	3310
ntö	3311
alto	3312
sek	3313
ettua	3314
puhel	3315
katk	3316
ntie	3317
nla	3318
##co	3319
uru	3320
reen	3321
ympia	3322
iö	3323
vamm	3324
ety	3325
lm	3326
isält	3327
40	3328
nlais	3329
mpä	3330
##ba	3331
enit	3332
huol	3333
ye	3334
kalai	3335
kans	3336
##lia	3337
erro	3338
ralli	3339
menes	3340
säänt	3341
desta	3342
ep	3343
äin	3344
ammu	3345
arkki	3346
lie	3347
verra	3348
mättä	3349
uola	3350
iski	3351
suude	3352
arti	3353
lko	3354
enk	3355
rah	3356
sov	3357
vetä	3358
mir	3359
oksi	3360
ren	3361
ekij	3362
ndr	3363
ito	3364
ial	3365
kkää	3366
olmi	3367
matta	3368
leg	3369
fan	3370
lessa	3371
eili	3372
hah	3373
iim	3374
jälk	3375
ron	3376
nnon	3377
raska	3378
ieli	3379
linj	3380
nneen	3381
eena	3382
otil	3383
eilla	3384
ampi	3385
hahmo	3386
kasvo	3387
ppo	3388
uolta	3389
ääne	3390
rea	3391
uttaa	3392
omaa	3393
100	3394
muis	3395
lumi	3396
jääk	3397
oa	3398
##ivi	3399
talia	3400
veit	3401
äsi	3402
nassa	3403
oto	3404
ino	3405
äyn	3406
istol	3407
atsom	3408
mais	3409
mpaa	3410
aimi	3411
ommi	3412
eitti	3413
los	3414
hl	3415
auko	3416
taha	3417
auksi	3418
aksa	3419
oiton	3420
tien	3421
sääst	3422
yse	3423
iele	3424
tim	3425
ääk	3426
oppa	3427
rahoi	3428
ham	3429
lemme	3430
äly	3431
järv	3432
uodos	3433
hdy	3434
itkä	3435
maat	3436
rak	3437
ers	3438
lli	3439
jar	3440
esto	3441
pur	3442
osaa	3443
##ero	3444
äti	3445
jak	3446
kiert	3447
vahva	3448
sut	3449
anm	3450
ismi	3451
aisen	3452
rep	3453
yöpä	3454
vei	3455
nnes	3456
aje	3457
eute	3458
inkaa	3459
ere	3460
aul	3461
yyli	3462
ossa	3463
yv	3464
ritti	3465
ska	3466
evä	3467
ivi	3468
ekijö	3469
##eri	3470
oske	3471
tsev	3472
ätk	3473
ält	3474
ahd	3475
kke	3476
uvi	3477
tär	3478
tavi	3479
ailla	3480
äynni	3481
let	3482
rasi	3483
ansan	3484
ämm	3485
vast	3486
almi	3487
metri	3488
imma	3489
kr	3490
isty	3491
aihto	3492
unnan	3493
hty	3494
nien	3495
läine	3496
räjä	3497
korke	3498
nat	3499
urnau	3500
ippu	3501
äki	3502
nnit	3503
urha	3504
uudet	3505
sesta	3506
enni	3507
äänty	3508
24	3509
uski	3510
sille	3511
entä	3512
ash	3513
sor	3514
kesän	3515
asen	3516
oivo	3517
jan	3518
osin	3519
tuvat	3520
älttä	3521
oka	3522
pp	3523
ski	3524
hyp	3525
epp	3526
jatka	3527
tod	3528
yht	3529
unnis	3530
anga	3531
välit	3532
omuks	3533
evat	3534
ive	3535
leis	3536
ysti	3537
ekon	3538
lina	3539
outu	3540
isko	3541
nö	3542
isy	3543
tyn	3544
##ker	3545
viest	3546
nähdä	3547
kiis	3548
luk	3549
oise	3550
##dä	3551
aiv	3552
orn	3553
tama	3554
ttaj	3555
posti	3556
mc	3557
ös	3558
ater	3559
amas	3560
erää	3561
aise	3562
ins	3563
ääm	3564
kulm	3565
oen	3566
täne	3567
ntäm	3568
suk	3569
ntin	3570
ämme	3571
elev	3572
vuor	3573
tiivi	3574
uolen	3575
pelas	3576
linna	3577
eem	3578
lon	3579
sad	3580
aiset	3581
äärin	3582
ses	3583
mista	3584
ysee	3585
jalai	3586
näke	3587
amme	3588
our	3589
yksin	3590
aaliv	3591
avoim	3592
sh	3593
kome	3594
töä	3595
nka	3596
erot	3597
empa	3598
bri	3599
parin	3600
puk	3601
ttuja	3602
tajat	3603
nuk	3604
aata	3605
nnis	3606
teita	3607
nev	3608
eta	3609
kel	3610
##iv	3611
gu	3612
tue	3613
toon	3614
rhe	3615
eren	3616
riisi	3617
ug	3618
jäse	3619
iho	3620
kea	3621
ntaja	3622
syyte	3623
telua	3624
kait	3625
pani	3626
pano	3627
ennyt	3628
gol	3629
ovel	3630
vuode	3631
isemm	3632
irj	3633
aura	3634
vähä	3635
for	3636
tm	3637
arv	3638
ääd	3639
kaup	3640
yörä	3641
yri	3642
toks	3643
ysty	3644
riv	3645
intä	3646
este	3647
ieti	3648
usp	3649
olet	3650
ohtaj	3651
ositi	3652
rheil	3653
isö	3654
asuk	3655
iske	3656
tyt	3657
##bc	3658
eto	3659
aaja	3660
app	3661
teitä	3662
elt	3663
ack	3664
äkk	3665
une	3666
ope	3667
dän	3668
jais	3669
koo	3670
toa	3671
äärä	3672
osan	3673
emma	3674
öitä	3675
assi	3676
aini	3677
mot	3678
arme	3679
uuri	3680
esity	3681
ntoja	3682
iston	3683
ade	3684
aite	3685
kti	3686
kki	3687
anl	3688
tea	3689
arkas	3690
uka	3691
ento	3692
erra	3693
keli	3694
iikki	3695
go	3696
jaan	3697
air	3698
äid	3699
tteri	3700
anis	3701
nnen	3702
iiv	3703
ite	3704
aiem	3705
ulki	3706
lip	3707
utis	3708
oite	3709
amu	3710
täysi	3711
200	3712
teena	3713
inv	3714
aakk	3715
suoj	3716
amal	3717
oisin	3718
sinne	3719
pö	3720
olm	3721
aud	3722
lymp	3723
ec	3724
oke	3725
atal	3726
ova	3727
##by	3728
posit	3729
sisäl	3730
vänsä	3731
lve	3732
äivit	3733
ytyvä	3734
työn	3735
sijoi	3736
aria	3737
aalit	3738
nkari	3739
ävät	3740
vasti	3741
koit	3742
kur	3743
logi	3744
eräs	3745
syk	3746
kset	3747
kkel	3748
nkään	3749
upe	3750
talon	3751
ääs	3752
pelin	3753
innan	3754
muo	3755
arus	3756
ihmi	3757
iety	3758
hd	3759
ous	3760
omo	3761
uule	3762
aisk	3763
ltiin	3764
##istä	3765
takaa	3766
uhta	3767
tunee	3768
alt	3769
ranga	3770
uvu	3771
äk	3772
uoka	3773
otte	3774
annus	3775
erus	3776
oil	3777
ineen	3778
ärje	3779
ohtaa	3780
selle	3781
aap	3782
aaj	3783
kunni	3784
hak	3785
tilai	3786
musta	3787
be	3788
hte	3789
anee	3790
arjan	3791
itali	3792
äih	3793
veri	3794
käänt	3795
hn	3796
tilaa	3797
ämis	3798
muksi	3799
tumis	3800
ngl	3801
kuuta	3802
sivät	3803
utkij	3804
inun	3805
tra	3806
ypp	3807
arin	3808
opi	3809
istus	3810
kiit	3811
aalta	3812
usa	3813
sian	3814
pako	3815
##mar	3816
rata	3817
ame	3818
th	3819
aava	3820
sain	3821
ister	3822
ern	3823
ather	3824
opea	3825
ape	3826
della	3827
tuom	3828
uissa	3829
mital	3830
mässä	3831
23	3832
22	3833
oska	3834
ump	3835
lapi	3836
elk	3837
elto	3838
älä	3839
500	3840
akaa	3841
olu	3842
eeni	3843
huoli	3844
tall	3845
sella	3846
nnin	3847
roje	3848
allin	3849
insa	3850
ilk	3851
osti	3852
ähän	3853
21	3854
ästy	3855
annin	3856
ante	3857
tety	3858
sea	3859
ksa	3860
ona	3861
pah	3862
ello	3863
olais	3864
iil	3865
jet	3866
malla	3867
vien	3868
kaupp	3869
pil	3870
onni	3871
lei	3872
attav	3873
siksi	3874
ey	3875
rut	3876
angai	3877
ipu	3878
umi	3879
##ca	3880
ind	3881
uop	3882
kaike	3883
olk	3884
ntu	3885
össä	3886
ens	3887
enee	3888
rose	3889
siv	3890
tele	3891
omit	3892
raja	3893
pääst	3894
lime	3895
19	3896
ute	3897
ule	3898
viä	3899
nei	3900
hal	3901
unais	3902
out	3903
ennu	3904
tusk	3905
uheen	3906
vut	3907
uutu	3908
linen	3909
yöh	3910
rastu	3911
kuvaa	3912
olin	3913
ster	3914
yvän	3915
atsa	3916
60	3917
sko	3918
kim	3919
ymy	3920
alv	3921
tyne	3922
tensa	3923
ose	3924
kod	3925
era	3926
ttäv	3927
konf	3928
mpää	3929
kkö	3930
arjo	3931
aula	3932
isat	3933
27	3934
puu	3935
oha	3936
lom	3937
og	3938
ikka	3939
huole	3940
turna	3941
eella	3942
ica	3943
fi	3944
iemm	3945
uttu	3946
irkk	3947
aluei	3948
onto	3949
tem	3950
lehd	3951
ajam	3952
leht	3953
yden	3954
perin	3955
toki	3956
ral	3957
äänt	3958
oimaa	3959
noo	3960
ulke	3961
ähi	3962
äni	3963
pelaa	3964
anon	3965
äntä	3966
keil	3967
odist	3968
rän	3969
ntai	3970
edia	3971
ulje	3972
hol	3973
äp	3974
aris	3975
lisen	3976
aatto	3977
emi	3978
aansa	3979
nuori	3980
nnee	3981
alun	3982
tart	3983
ärv	3984
##yd	3985
kalli	3986
##ru	3987
mato	3988
ilev	3989
niä	3990
ohk	3991
uuten	3992
gran	3993
ukem	3994
int	3995
olt	3996
sv	3997
tuva	3998
nas	3999
enin	4000
tuis	4001
rem	4002
tusti	4003
kokoo	4004
avaa	4005
tellä	4006
auki	4007
sun	4008
ykk	4009
atr	4010
raina	4011
ykset	4012
iaal	4013
yp	4014
denk	4015
täjä	4016
tyttä	4017
vas	4018
ukko	4019
vuoro	4020
rovan	4021
muutt	4022
aper	4023
uunni	4024
ifk	4025
dr	4026
##mb	4027
ette	4028
rat	4029
neide	4030
nneks	4031
lit	4032
kou	4033
ore	4034
misen	4035
allis	4036
eika	4037
senä	4038
saan	4039
rkki	4040
anka	4041
alm	4042
kum	4043
kais	4044
yttäv	4045
töstä	4046
ovaa	4047
dus	4048
usk	4049
vy	4050
istää	4051
avan	4052
##nnu	4053
ttää	4054
öri	4055
eino	4056
uvia	4057
teke	4058
stäj	4059
ohe	4060
varo	4061
alme	4062
ht	4063
lep	4064
äästö	4065
##go	4066
inin	4067
iemi	4068
det	4069
ew	4070
list	4071
teide	4072
uste	4073
ure	4074
lov	4075
teltu	4076
fin	4077
vey	4078
ilä	4079
ulu	4080
oittu	4081
eka	4082
maine	4083
omat	4084
dok	4085
afp	4086
soda	4087
oris	4088
ros	4089
viera	4090
oisi	4091
iika	4092
osk	4093
alua	4094
atau	4095
iska	4096
arve	4097
bbc	4098
nutta	4099
rj	4100
äil	4101
nem	4102
mb	4103
tehd	4104
rikos	4105
araa	4106
urm	4107
yyte	4108
26	4109
eter	4110
aip	4111
hait	4112
iihd	4113
kielt	4114
ilee	4115
änn	4116
uran	4117
isena	4118
isimm	4119
eilij	4120
goi	4121
kuka	4122
turu	4123
otuks	4124
aaks	4125
ies	4126
tulle	4127
pidä	4128
##ps	4129
iss	4130
sunnu	4131
oro	4132
arvit	4133
omaan	4134
luu	4135
mut	4136
kanen	4137
inni	4138
keu	4139
rie	4140
aits	4141
nten	4142
essi	4143
urg	4144
rid	4145
innoi	4146
hs	4147
soi	4148
näy	4149
uollo	4150
auva	4151
isään	4152
ök	4153
##ber	4154
##ent	4155
eron	4156
oste	4157
samaa	4158
inais	4159
hmis	4160
unk	4161
stra	4162
elli	4163
aala	4164
ltaan	4165
ollis	4166
län	4167
koll	4168
ook	4169
okk	4170
uore	4171
ley	4172
ksien	4173
age	4174
yväs	4175
liitt	4176
tas	4177
lass	4178
ato	4179
anie	4180
oksia	4181
veyde	4182
ema	4183
otk	4184
nanta	4185
ikk	4186
suos	4187
uoles	4188
enny	4189
golf	4190
ske	4191
aras	4192
aiss	4193
ausk	4194
riste	4195
nter	4196
tover	4197
pen	4198
jaka	4199
ora	4200
viil	4201
saam	4202
kirk	4203
kkaa	4204
arko	4205
cnn	4206
ge	4207
omia	4208
eon	4209
misi	4210
pite	4211
väär	4212
eti	4213
yte	4214
ulis	4215
ehk	4216
imes	4217
muodo	4218
öt	4219
isoi	4220
atko	4221
atri	4222
ahi	4223
dat	4224
vala	4225
auna	4226
35	4227
untu	4228
väksi	4229
sih	4230
keho	4231
uhr	4232
allon	4233
kentä	4234
viiko	4235
airas	4236
stol	4237
ntiin	4238
rint	4239
tau	4240
nkii	4241
hankk	4242
irja	4243
##ci	4244
estö	4245
ile	4246
ampa	4247
rkist	4248
istis	4249
spe	4250
##rii	4251
ainee	4252
itell	4253
luke	4254
päil	4255
mani	4256
eak	4257
ielä	4258
alus	4259
oos	4260
sissa	4261
hun	4262
issu	4263
teer	4264
siä	4265
nalle	4266
ittu	4267
ost	4268
uttav	4269
istam	4270
uhu	4271
otus	4272
nai	4273
ostaa	4274
ns	4275
anh	4276
kav	4277
ikäi	4278
ansai	4279
allas	4280
sum	4281
ivu	4282
äme	4283
enta	4284
astel	4285
euvo	4286
ttäm	4287
emis	4288
otaa	4289
uoti	4290
mala	4291
nia	4292
28	4293
täys	4294
leik	4295
luist	4296
isiä	4297
diag	4298
gi	4299
lay	4300
sydä	4301
ellyt	4302
ison	4303
red	4304
ada	4305
dyt	4306
krii	4307
lyn	4308
iisi	4309
immä	4310
alik	4311
nh	4312
tuul	4313
tre	4314
hkä	4315
sak	4316
oiva	4317
ngel	4318
ellut	4319
lisi	4320
ökse	4321
seksi	4322
tutu	4323
##and	4324
takin	4325
uov	4326
ttävä	4327
gram	4328
ym	4329
##una	4330
tystä	4331
ntoa	4332
oinni	4333
äkkä	4334
aide	4335
oida	4336
nteis	4337
muute	4338
eil	4339
neita	4340
deksi	4341
averi	4342
huip	4343
raken	4344
##ood	4345
kivi	4346
ttyä	4347
oom	4348
vit	4349
yd	4350
anha	4351
alvo	4352
aas	4353
siin	4354
suju	4355
näki	4356
uotte	4357
palk	4358
öiden	4359
änt	4360
ulta	4361
aara	4362
ähkö	4363
kene	4364
we	4365
kossa	4366
orma	4367
pään	4368
aust	4369
eskit	4370
iks	4371
nähd	4372
itt	4373
kyy	4374
tävää	4375
koivu	4376
imä	4377
ökk	4378
öjä	4379
tuha	4380
tei	4381
nosti	4382
laati	4383
etuk	4384
kuri	4385
atto	4386
pääs	4387
akku	4388
yön	4389
oku	4390
äntö	4391
nlop	4392
esa	4393
rok	4394
vuu	4395
iassa	4396
uho	4397
onsa	4398
kail	4399
hai	4400
miste	4401
kaal	4402
she	4403
enkä	4404
mas	4405
nalai	4406
elj	4407
eltä	4408
lty	4409
ode	4410
koja	4411
auti	4412
apah	4413
29	4414
nmaa	4415
ret	4416
wil	4417
väis	4418
sur	4419
suute	4420
kulku	4421
henk	4422
ntel	4423
nnist	4424
läs	4425
syv	4426
rei	4427
imp	4428
lk	4429
erhe	4430
aalli	4431
käs	4432
uuto	4433
öytä	4434
aih	4435
ohjan	4436
utun	4437
salli	4438
suori	4439
paran	4440
ania	4441
ulma	4442
must	4443
iusa	4444
ämään	4445
isyyd	4446
odo	4447
##mmo	4448
rop	4449
ital	4450
äyte	4451
enäl	4452
sket	4453
hir	4454
jö	4455
itto	4456
reit	4457
nkk	4458
iita	4459
toive	4460
lasi	4461
äär	4462
osak	4463
400	4464
ilja	4465
verk	4466
oneen	4467
ioi	4468
tajaa	4469
ikeus	4470
välis	4471
##fa	4472
ars	4473
änd	4474
kana	4475
oc	4476
uli	4477
eim	4478
etsä	4479
aak	4480
väk	4481
utui	4482
ega	4483
##gan	4484
are	4485
ralla	4486
ttane	4487
##ppo	4488
300	4489
uen	4490
yti	4491
lak	4492
wal	4493
tein	4494
aremm	4495
nnet	4496
altai	4497
juoks	4498
80	4499
ttoi	4500
maja	4501
ohti	4502
tilä	4503
appe	4504
varma	4505
arje	4506
emä	4507
sessa	4508
kus	4509
not	4510
tinen	4511
astau	4512
nite	4513
uso	4514
aike	4515
auha	4516
delle	4517
evi	4518
nmaan	4519
uja	4520
##wa	4521
altaa	4522
pasi	4523
tym	4524
väki	4525
auka	4526
korva	4527
dop	4528
nku	4529
stav	4530
itk	4531
öntä	4532
tont	4533
ttis	4534
askel	4535
dis	4536
vist	4537
##per	4538
isten	4539
ieni	4540
ez	4541
ittav	4542
70	4543
fo	4544
etus	4545
kuo	4546
herä	4547
ulla	4548
uit	4549
inh	4550
aaka	4551
mal	4552
staa	4553
pailu	4554
tanee	4555
selvä	4556
kät	4557
ler	4558
tit	4559
ankk	4560
työt	4561
ulkom	4562
rista	4563
yöt	4564
unen	4565
alkan	4566
isenä	4567
eeri	4568
aitos	4569
olme	4570
ment	4571
untia	4572
fr	4573
istel	4574
mii	4575
yssä	4576
osen	4577
idä	4578
yistä	4579
viro	4580
moott	4581
itys	4582
rmo	4583
kia	4584
llist	4585
uhk	4586
emmat	4587
issi	4588
kop	4589
ult	4590
##uru	4591
liv	4592
ittai	4593
##bi	4594
koil	4595
ias	4596
kej	4597
lia	4598
yst	4599
laaja	4600
eko	4601
oks	4602
telle	4603
tok	4604
rkp	4605
avid	4606
oisia	4607
iris	4608
irka	4609
uihin	4610
ytys	4611
yksis	4612
ousu	4613
kkee	4614
entää	4615
anma	4616
kava	4617
rap	4618
log	4619
ttui	4620
tynyt	4621
oilta	4622
tko	4623
suoja	4624
pos	4625
tavaa	4626
oistu	4627
bu	4628
inte	4629
iigan	4630
viron	4631
lent	4632
matt	4633
bi	4634
kah	4635
adan	4636
caro	4637
mö	4638
koise	4639
alai	4640
tauo	4641
tuut	4642
vassa	4643
##ere	4644
merk	4645
ähti	4646
aks	4647
njoh	4648
tes	4649
vet	4650
##end	4651
tyi	4652
iell	4653
ikki	4654
nettu	4655
ämp	4656
jok	4657
innos	4658
ima	4659
sän	4660
iekk	4661
htaa	4662
oppu	4663
erän	4664
atkuv	4665
konee	4666
uluva	4667
kari	4668
auh	4669
jokai	4670
omero	4671
opeu	4672
ger	4673
lku	4674
##ft	4675
ons	4676
max	4677
paan	4678
itty	4679
okuv	4680
kuvat	4681
lanti	4682
km	4683
kuv	4684
aalis	4685
45	4686
ts	4687
arka	4688
amo	4689
ikan	4690
huolt	4691
ved	4692
läsnä	4693
ekä	4694
yvät	4695
öin	4696
tasi	4697
ankar	4698
tuus	4699
äne	4700
ram	4701
dig	4702
tyyl	4703
nsim	4704
avia	4705
arta	4706
iilo	4707
ace	4708
innu	4709
styks	4710
einen	4711
anu	4712
atvia	4713
lio	4714
tarv	4715
amin	4716
eos	4717
äisi	4718
änet	4719
laski	4720
htiö	4721
pt	4722
eny	4723
##kär	4724
yhtey	4725
joukk	4726
ävy	4727
evät	4728
asva	4729
malt	4730
neis	4731
kiva	4732
tyk	4733
pat	4734
link	4735
laitt	4736
ulkop	4737
omien	4738
siiv	4739
luks	4740
töks	4741
ntia	4742
vissa	4743
hit	4744
##up	4745
syl	4746
istaa	4747
mys	4748
kuit	4749
matk	4750
eljä	4751
unno	4752
löi	4753
uet	4754
yne	4755
##ler	4756
anss	4757
iedo	4758
ataa	4759
kym	4760
hot	4761
iste	4762
utti	4763
konen	4764
kt	4765
mmo	4766
alb	4767
tarin	4768
saane	4769
ehe	4770
rb	4771
alon	4772
arke	4773
usto	4774
rauh	4775
jalk	4776
ostam	4777
eltu	4778
mpere	4779
odote	4780
##uma	4781
inl	4782
kasi	4783
äsk	4784
nsin	4785
tkin	4786
ävä	4787
kaut	4788
aast	4789
nar	4790
lukse	4791
jonk	4792
otim	4793
elpo	4794
nnoi	4795
toipu	4796
teema	4797
köi	4798
tteli	4799
sikko	4800
lp	4801
##bin	4802
lari	4803
ähde	4804
llan	4805
entaa	4806
erin	4807
mun	4808
äsen	4809
hri	4810
uma	4811
soo	4812
alat	4813
lanni	4814
laat	4815
rva	4816
ituks	4817
##za	4818
edo	4819
kons	4820
reena	4821
äily	4822
ikse	4823
nur	4824
uee	4825
aivaa	4826
laps	4827
hää	4828
90	4829
tsa	4830
elv	4831
oika	4832
tammi	4833
ytty	4834
innä	4835
car	4836
mman	4837
llyt	4838
aate	4839
lassa	4840
masta	4841
top	4842
uusk	4843
yör	4844
hum	4845
vaikk	4846
tanen	4847
koho	4848
ytti	4849
idea	4850
evan	4851
line	4852
isän	4853
uska	4854
toisi	4855
atka	4856
itsi	4857
rati	4858
ääki	4859
rill	4860
äivi	4861
yös	4862
yrk	4863
eoll	4864
auli	4865
yöm	4866
ner	4867
oko	4868
tk	4869
onna	4870
tetu	4871
pila	4872
uutee	4873
amb	4874
arab	4875
can	4876
skin	4877
aalie	4878
pla	4879
lly	4880
ltav	4881
31	4882
eija	4883
trend	4884
entin	4885
sestä	4886
nest	4887
yo	4888
yyty	4889
nal	4890
soker	4891
uista	4892
iista	4893
anja	4894
seis	4895
ieno	4896
rii	4897
ammi	4898
ärs	4899
anan	4900
alti	4901
estää	4902
päätt	4903
evää	4904
akuu	4905
äjä	4906
tol	4907
aval	4908
inal	4909
ikea	4910
tl	4911
##rk	4912
uudi	4913
oiv	4914
eisk	4915
merc	4916
eeksi	4917
ijan	4918
netti	4919
dut	4920
uske	4921
ohja	4922
elik	4923
exp	4924
hetk	4925
etää	4926
mpa	4927
äj	4928
##ek	4929
##ins	4930
kaist	4931
hat	4932
olem	4933
rov	4934
lyy	4935
ohdi	4936
32	4937
tik	4938
yä	4939
atin	4940
llise	4941
harj	4942
kerra	4943
akka	4944
utust	4945
evo	4946
mana	4947
aru	4948
sas	4949
ntak	4950
ulev	4951
eut	4952
unu	4953
eam	4954
unai	4955
eskel	4956
akia	4957
##be	4958
onin	4959
##lor	4960
konku	4961
eist	4962
elee	4963
##lem	4964
kang	4965
harri	4966
mmat	4967
kaisa	4968
etti	4969
voin	4970
melk	4971
nun	4972
rinen	4973
vais	4974
esse	4975
ass	4976
stap	4977
ottu	4978
nton	4979
ohje	4980
rss	4981
uda	4982
##hku	4983
mater	4984
ilti	4985
tietä	4986
itää	4987
vank	4988
utune	4989
alit	4990
anth	4991
okkaa	4992
ees	4993
asku	4994
##par	4995
anche	4996
fa	4997
lkee	4998
upo	4999
etro	5000
aske	5001
urist	5002
opo	5003
ttäjä	5004
entt	5005
silta	5006
ivist	5007
kkiä	5008
doi	5009
uko	5010
##sb	5011
mail	5012
aille	5013
emo	5014
jia	5015
von	5016
##män	5017
ande	5018
inp	5019
aavo	5020
pas	5021
ihla	5022
ikon	5023
ups	5024
dosta	5025
ainaa	5026
aasa	5027
voida	5028
anner	5029
ness	5030
uti	5031
keik	5032
urva	5033
skal	5034
34	5035
36	5036
ikai	5037
##jen	5038
alen	5039
ary	5040
rav	5041
ääj	5042
iskun	5043
hjel	5044
jien	5045
ao	5046
enka	5047
anko	5048
ono	5049
etr	5050
kua	5051
##mpu	5052
toni	5053
des	5054
sr	5055
kolla	5056
ily	5057
uss	5058
ott	5059
osia	5060
atie	5061
tymis	5062
kant	5063
siirt	5064
ames	5065
ce	5066
miin	5067
ulm	5068
ntaan	5069
lenk	5070
ekse	5071
##oni	5072
äyks	5073
ovan	5074
iitti	5075
raal	5076
ever	5077
iisa	5078
isar	5079
insä	5080
iljo	5081
vika	5082
ääv	5083
minut	5084
skel	5085
ikeu	5086
glo	5087
vinen	5088
mien	5089
mäl	5090
uiv	5091
uiva	5092
ff	5093
aasu	5094
stan	5095
akan	5096
akti	5097
ikoi	5098
konkr	5099
sitte	5100
täs	5101
emään	5102
rt	5103
uise	5104
ytö	5105
ipe	5106
rc	5107
uuti	5108
uuma	5109
aikko	5110
tymä	5111
iru	5112
otan	5113
pyörä	5114
rot	5115
yyt	5116
tail	5117
eih	5118
käi	5119
gat	5120
aisee	5121
loist	5122
oso	5123
nant	5124
800	5125
äen	5126
ish	5127
uulla	5128
unne	5129
mann	5130
tilla	5131
liev	5132
puhut	5133
satam	5134
hta	5135
res	5136
skon	5137
##fe	5138
joit	5139
teis	5140
iikke	5141
ierai	5142
ntine	5143
empä	5144
glob	5145
hko	5146
ähd	5147
oide	5148
iip	5149
emmi	5150
karhu	5151
yttäm	5152
kouvo	5153
stain	5154
dip	5155
uttua	5156
fc	5157
pot	5158
ajar	5159
risto	5160
ainut	5161
ränd	5162
htu	5163
tro	5164
uki	5165
apaik	5166
lys	5167
millä	5168
tyvät	5169
lleet	5170
yyn	5171
uheli	5172
33	5173
öit	5174
##ry	5175
##kuu	5176
niuk	5177
ance	5178
itus	5179
ullu	5180
del	5181
tävi	5182
elma	5183
noj	5184
kaani	5185
fir	5186
ppu	5187
anot	5188
koir	5189
kimmo	5190
auno	5191
utua	5192
ellu	5193
murh	5194
ottav	5195
entam	5196
orj	5197
sse	5198
harjo	5199
unsa	5200
puna	5201
iem	5202
mini	5203
irto	5204
montr	5205
htä	5206
pist	5207
ppaa	5208
ett	5209
tajia	5210
apaa	5211
emmä	5212
kulk	5213
appu	5214
ivä	5215
lton	5216
tri	5217
öö	5218
nilla	5219
otka	5220
kauk	5221
naura	5222
tiai	5223
taho	5224
kara	5225
arc	5226
uuh	5227
##hea	5228
käis	5229
vär	5230
ehn	5231
saira	5232
molem	5233
ullo	5234
inja	5235
keen	5236
roo	5237
ilais	5238
iro	5239
rö	5240
arm	5241
silla	5242
aup	5243
seni	5244
kyv	5245
lintu	5246
ainaj	5247
rinte	5248
dossa	5249
der	5250
ekko	5251
mv	5252
erve	5253
saami	5254
oru	5255
oito	5256
mällä	5257
roa	5258
austa	5259
him	5260
color	5261
kkös	5262
ynt	5263
ittä	5264
lois	5265
oteut	5266
valio	5267
ido	5268
rl	5269
ör	5270
inki	5271
taji	5272
fton	5273
mite	5274
rvo	5275
##ger	5276
onka	5277
oho	5278
tämät	5279
ellai	5280
ftonb	5281
ben	5282
ya	5283
kot	5284
tij	5285
iia	5286
ruok	5287
smi	5288
elmi	5289
ung	5290
iiden	5291
iek	5292
hee	5293
tani	5294
irr	5295
iov	5296
uos	5297
miä	5298
kiri	5299
yttää	5300
ärkei	5301
aksu	5302
cha	5303
gra	5304
ulli	5305
##nes	5306
usin	5307
aken	5308
tuoll	5309
elit	5310
ikin	5311
##eh	5312
oimis	5313
reuna	5314
akkaa	5315
ähtä	5316
37	5317
akk	5318
oton	5319
ree	5320
uvan	5321
##bo	5322
koon	5323
erm	5324
rast	5325
telun	5326
reh	5327
elim	5328
otia	5329
äistä	5330
38	5331
ef	5332
kit	5333
uok	5334
##uun	5335
unto	5336
syvä	5337
yönt	5338
das	5339
kij	5340
väs	5341
loo	5342
roon	5343
iljoo	5344
##gu	5345
iloi	5346
iai	5347
aiki	5348
auni	5349
ntol	5350
emin	5351
tissa	5352
inuut	5353
ysi	5354
öistä	5355
##gg	5356
anin	5357
huom	5358
turku	5359
600	5360
ivo	5361
kg	5362
uke	5363
jassa	5364
lause	5365
ykyä	5366
iike	5367
nuu	5368
rto	5369
ttei	5370
enki	5371
yrity	5372
selta	5373
wall	5374
sho	5375
tyv	5376
150	5377
ation	5378
emise	5379
ambul	5380
ltu	5381
oder	5382
rvi	5383
onia	5384
aro	5385
kiuru	5386
ehme	5387
istum	5388
enj	5389
antee	5390
esin	5391
uuni	5392
pak	5393
myön	5394
yhty	5395
ttua	5396
hv	5397
itaa	5398
anoi	5399
kala	5400
aio	5401
tou	5402
lev	5403
uihku	5404
otila	5405
immäi	5406
ahdo	5407
ekka	5408
nin	5409
sei	5410
västi	5411
pui	5412
oonas	5413
maid	5414
atila	5415
gp	5416
nkki	5417
##ze	5418
##cu	5419
laus	5420
eelli	5421
agg	5422
ikas	5423
pät	5424
sl	5425
enp	5426
jalla	5427
viho	5428
lokuv	5429
kesk	5430
eits	5431
##ah	5432
kup	5433
arvi	5434
aim	5435
yhmä	5436
kemi	5437
hyök	5438
listi	5439
toria	5440
tynee	5441
änny	5442
jk	5443
nään	5444
läi	5445
oiti	5446
aji	5447
ikö	5448
ksy	5449
maija	5450
treff	5451
mt	5452
ruk	5453
uton	5454
paik	5455
usti	5456
leve	5457
kei	5458
rien	5459
dot	5460
entti	5461
ald	5462
iam	5463
nge	5464
iert	5465
ikais	5466
stee	5467
ilpi	5468
rim	5469
inai	5470
mets	5471
mvp	5472
onk	5473
sip	5474
mall	5475
ääkär	5476
oss	5477
tääl	5478
ärve	5479
alkap	5480
kkala	5481
hdys	5482
granl	5483
rgi	5484
enem	5485
aamis	5486
viin	5487
auhea	5488
yötä	5489
nkiin	5490
utuu	5491
stis	5492
saldo	5493
eppo	5494
iol	5495
rg	5496
rme	5497
uv	5498
##ya	5499
toeh	5500
yökk	5501
koitu	5502
kyt	5503
ysä	5504
iihe	5505
sena	5506
ammas	5507
tteet	5508
kkos	5509
kkuu	5510
östä	5511
eila	5512
sellä	5513
kiek	5514
lepo	5515
yss	5516
robin	5517
istuv	5518
uisku	5519
okai	5520
ser	5521
wood	5522
ötä	5523
jah	5524
##kal	5525
arkk	5526
arvel	5527
uur	5528
ush	5529
kiist	5530
lempi	5531
kissa	5532
täht	5533
ertt	5534
distu	5535
öä	5536
johd	5537
elan	5538
pia	5539
pudo	5540
ntav	5541
roll	5542
kulje	5543
gall	5544
omea	5545
con	5546
gro	5547
ipp	5548
ipä	5549
kkaan	5550
llät	5551
erge	5552
aill	5553
ats	5554
kein	5555
iene	5556
käyte	5557
kont	5558
hom	5559
vistä	5560
unnas	5561
nba	5562
upp	5563
sir	5564
mag	5565
iaan	5566
ehden	5567
tervo	5568
rkku	5569
ntee	5570
pek	5571
älk	5572
onie	5573
41	5574
75	5575
nf	5576
uome	5577
asv	5578
ukan	5579
pum	5580
suz	5581
mea	5582
ttely	5583
avol	5584
ullis	5585
ttori	5586
lkka	5587
uten	5588
ankin	5589
ets	5590
jään	5591
pua	5592
lahja	5593
uojel	5594
äty	5595
##ud	5596
etin	5597
kuk	5598
atk	5599
ttais	5600
istan	5601
apsi	5602
korko	5603
rans	5604
ännyt	5605
39	5606
bil	5607
aimo	5608
oston	5609
tapau	5610
olody	5611
ihe	5612
ulle	5613
arra	5614
arhu	5615
niit	5616
aun	5617
urt	5618
risk	5619
ttyi	5620
ertai	5621
55	5622
ävi	5623
eria	5624
aama	5625
pauk	5626
toh	5627
nil	5628
vaar	5629
outo	5630
vits	5631
iaali	5632
umis	5633
iehe	5634
suunt	5635
turma	5636
##ord	5637
elly	5638
tuuri	5639
häi	5640
ppuun	5641
tso	5642
##ski	5643
uod	5644
aavat	5645
iiva	5646
ick	5647
antt	5648
ävän	5649
sessä	5650
airaa	5651
46	5652
akaan	5653
sss	5654
ulai	5655
kassa	5656
lam	5657
toist	5658
yhmän	5659
oten	5660
ied	5661
rock	5662
inaan	5663
edust	5664
nnat	5665
kierr	5666
unnos	5667
44	5668
nää	5669
talla	5670
anaa	5671
ettom	5672
eris	5673
elp	5674
elmä	5675
italo	5676
ranni	5677
stys	5678
##ld	5679
##br	5680
##mpp	5681
noll	5682
audi	5683
louk	5684
telmä	5685
tusp	5686
korpi	5687
##old	5688
äytä	5689
ämine	5690
opa	5691
sus	5692
vin	5693
aren	5694
tyj	5695
ivan	5696
rää	5697
uan	5698
uist	5699
jote	5700
uulo	5701
ähes	5702
ayne	5703
siak	5704
mcd	5705
eck	5706
ukas	5707
##cia	5708
ones	5709
kuume	5710
grön	5711
show	5712
65	5713
jun	5714
pon	5715
ume	5716
äkä	5717
inan	5718
kam	5719
##lar	5720
piin	5721
maas	5722
ehty	5723
prins	5724
uhal	5725
hdist	5726
hirmu	5727
inut	5728
kio	5729
iedä	5730
vähen	5731
ivoi	5732
firma	5733
ittäm	5734
700	5735
eksa	5736
mpu	5737
##tai	5738
##llu	5739
ism	5740
korja	5741
uom	5742
mass	5743
nnät	5744
lea	5745
iller	5746
teek	5747
esäk	5748
47	5749
nssa	5750
sku	5751
sito	5752
uf	5753
ves	5754
äit	5755
llut	5756
tiö	5757
sui	5758
tusl	5759
istuu	5760
smin	5761
mpia	5762
inoa	5763
outh	5764
42	5765
che	5766
eine	5767
ning	5768
pes	5769
öllä	5770
änte	5771
tyksi	5772
västä	5773
uris	5774
hei	5775
akast	5776
yrki	5777
summa	5778
äneen	5779
akon	5780
nhan	5781
##gle	5782
läp	5783
levä	5784
uhtee	5785
oope	5786
tteen	5787
liput	5788
kist	5789
kuver	5790
##uss	5791
orin	5792
row	5793
reder	5794
rip	5795
lyh	5796
vista	5797
vol	5798
taito	5799
eno	5800
inter	5801
jotk	5802
akkar	5803
irin	5804
ellei	5805
mansa	5806
htaan	5807
jaus	5808
etel	5809
alin	5810
alki	5811
aah	5812
tero	5813
räs	5814
ekti	5815
eän	5816
iaa	5817
iva	5818
iest	5819
tke	5820
ännö	5821
neil	5822
ttim	5823
##unu	5824
ekn	5825
inkku	5826
group	5827
lutta	5828
oot	5829
zuma	5830
äe	5831
äll	5832
tiik	5833
maksi	5834
kevä	5835
liu	5836
muka	5837
eht	5838
sup	5839
uhla	5840
ngo	5841
ilah	5842
eää	5843
eve	5844
hdi	5845
lb	5846
last	5847
ottom	5848
keit	5849
kalta	5850
lipun	5851
enet	5852
olan	5853
soh	5854
ikkaa	5855
ainav	5856
kort	5857
hie	5858
andy	5859
aipu	5860
nav	5861
keä	5862
sens	5863
syyde	5864
traf	5865
fox	5866
eppi	5867
off	5868
##gy	5869
enen	5870
enkaa	5871
kosta	5872
iasta	5873
auvo	5874
ennä	5875
nnos	5876
riemu	5877
täviä	5878
gh	5879
gar	5880
moi	5881
ville	5882
##ney	5883
mein	5884
48	5885
fina	5886
gin	5887
kw	5888
lise	5889
rja	5890
##ak	5891
koord	5892
laina	5893
aso	5894
ilt	5895
istaj	5896
apo	5897
varoi	5898
avon	5899
dler	5900
oine	5901
rti	5902
tten	5903
tuin	5904
aale	5905
raut	5906
ulut	5907
kaav	5908
ngas	5909
rajoi	5910
azer	5911
dyn	5912
arcel	5913
mtv	5914
gen	5915
lmi	5916
sep	5917
sein	5918
neksi	5919
hau	5920
ulva	5921
suj	5922
pea	5923
eessä	5924
51	5925
eaa	5926
pk	5927
sha	5928
lava	5929
nolla	5930
eho	5931
paljo	5932
aneet	5933
hteis	5934
iky	5935
rae	5936
key	5937
demar	5938
berl	5939
mcl	5940
emok	5941
gis	5942
nss	5943
ock	5944
##lan	5945
nah	5946
nnel	5947
poli	5948
ysv	5949
reita	5950
umk	5951
styi	5952
ämpö	5953
iot	5954
yjä	5955
mith	5956
oisa	5957
annee	5958
omin	5959
colu	5960
urgh	5961
ls	5962
tist	5963
udi	5964
tetta	5965
arse	5966
uure	5967
läm	5968
ikro	5969
ouis	5970
estin	5971
udet	5972
43	5973
54	5974
kla	5975
sso	5976
uden	5977
##um	5978
inoi	5979
kave	5980
lack	5981
aili	5982
keus	5983
lix	5984
estäm	5985
äytös	5986
uinti	5987
leima	5988
hk	5989
ippa	5990
ppa	5991
uz	5992
isma	5993
etf	5994
eske	5995
star	5996
pail	5997
edet	5998
kasti	5999
emine	6000
uinni	6001
omist	6002
aski	6003
elvi	6004
tot	6005
poo	6006
ntami	6007
itaan	6008
deb	6009
uunn	6010
mmär	6011
##tr	6012
kase	6013
aavi	6014
aassa	6015
nok	6016
korv	6017
dahl	6018
rank	6019
ustav	6020
idän	6021
skand	6022
jyp	6023
diab	6024
lsi	6025
wor	6026
yi	6027
ony	6028
alis	6029
eriko	6030
tej	6031
esla	6032
telma	6033
ahin	6034
uhan	6035
leisö	6036
isyys	6037
wilma	6038
ergei	6039
##mw	6040
##wood	6041
arma	6042
nille	6043
radi	6044
uts	6045
nnell	6046
vart	6047
teht	6048
omio	6049
ruudu	6050
iväs	6051
his	6052
umen	6053
udo	6054
kui	6055
stam	6056
pir	6057
lun	6058
mek	6059
ouse	6060
iistä	6061
kän	6062
loi	6063
okem	6064
##tan	6065
takki	6066
takai	6067
##kun	6068
näe	6069
oira	6070
lian	6071
luee	6072
##ire	6073
oogle	6074
liss	6075
soni	6076
wift	6077
aaha	6078
asper	6079
elem	6080
paus	6081
ingin	6082
rikka	6083
cap	6084
oppuu	6085
amuli	6086
fu	6087
gel	6088
rön	6089
##ner	6090
semm	6091
ilas	6092
live	6093
liver	6094
loit	6095
orte	6096
pisto	6097
sken	6098
panja	6099
rky	6100
urje	6101
##eni	6102
enla	6103
isät	6104
alkk	6105
sido	6106
mäis	6107
adel	6108
grand	6109
kukis	6110
shi	6111
uaal	6112
ywood	6113
isee	6114
laut	6115
änes	6116
rool	6117
istui	6118
emus	6119
ruuna	6120
enez	6121
bir	6122
kkar	6123
pri	6124
enia	6125
kos	6126
semi	6127
mak	6128
pass	6129
keri	6130
apse	6131
mykse	6132
eat	6133
volvo	6134
fil	6135
ukai	6136
war	6137
##tz	6138
itte	6139
sol	6140
mär	6141
itar	6142
rio	6143
äisen	6144
sista	6145
iesel	6146
touhu	6147
57	6148
aff	6149
eop	6150
hia	6151
itoi	6152
umu	6153
olta	6154
auhu	6155
otis	6156
puri	6157
ttii	6158
päri	6159
töi	6160
kork	6161
alloi	6162
tapon	6163
opim	6164
apeli	6165
pul	6166
##iss	6167
ando	6168
intu	6169
etki	6170
tion	6171
vani	6172
avuu	6173
pung	6174
äättä	6175
olog	6176
äyttä	6177
120	6178
keula	6179
lkä	6180
omen	6181
yksy	6182
##bs	6183
##utz	6184
valli	6185
uora	6186
essu	6187
läk	6188
##ley	6189
iivo	6190
virra	6191
kirsi	6192
tteis	6193
uudes	6194
ittsb	6195
tsis	6196
sohva	6197
jana	6198
##yf	6199
onkin	6200
aitio	6201
nnös	6202
käl	6203
lot	6204
missa	6205
ric	6206
ksel	6207
nnäkö	6208
soitu	6209
sipul	6210
eople	6211
49	6212
52	6213
lt	6214
trau	6215
##sey	6216
kojen	6217
uokk	6218
##var	6219
astaa	6220
uukka	6221
rall	6222
raho	6223
mäll	6224
määr	6225
250	6226
raeli	6227
nahka	6228
cru	6229
hke	6230
lga	6231
puss	6232
kokki	6233
elpa	6234
reutz	6235
akun	6236
lkop	6237
sunto	6238
keude	6239
matth	6240
ekk	6241
hana	6242
imaan	6243
lf	6244
tab	6245
sav	6246
stila	6247
utuv	6248
ield	6249
traum	6250
lvä	6251
mes	6252
ymi	6253
aver	6254
jatte	6255
torni	6256
buff	6257
eise	6258
noi	6259
sö	6260
umpi	6261
tiv	6262
kill	6263
noja	6264
##ppe	6265
ulvi	6266
maast	6267
uust	6268
tartu	6269
unnu	6270
metr	6271
ijat	6272
mpär	6273
trag	6274
okemu	6275
les	6276
eski	6277
see	6278
maj	6279
tora	6280
auber	6281
iitt	6282
koom	6283
htiön	6284
itio	6285
##ua	6286
tahto	6287
ente	6288
eroi	6289
aato	6290
raff	6291
läise	6292
oleh	6293
ters	6294
reg	6295
kaasu	6296
nauti	6297
htia	6298
tappo	6299
jarmo	6300
sängy	6301
58	6302
by	6303
uik	6304
uck	6305
äise	6306
vall	6307
aajo	6308
aska	6309
kem	6310
ukkaa	6311
iikk	6312
ttuu	6313
eura	6314
ttämä	6315
ire	6316
dea	6317
stum	6318
oria	6319
apaus	6320
odel	6321
lussa	6322
eas	6323
idi	6324
oina	6325
ittää	6326
iide	6327
autt	6328
edi	6329
##lub	6330
ntok	6331
oini	6332
liset	6333
juur	6334
how	6335
ainv	6336
steli	6337
ioita	6338
din	6339
anter	6340
tuja	6341
vaunu	6342
ettel	6343
siaa	6344
ajia	6345
oron	6346
orvo	6347
misto	6348
ryan	6349
ytt	6350
pitu	6351
ähet	6352
steri	6353
odis	6354
odan	6355
uttam	6356
nlyf	6357
olley	6358
dlerc	6359
okka	6360
äke	6361
almen	6362
kain	6363
aroi	6364
avall	6365
oint	6366
artt	6367
kiru	6368
iber	6369
lmoi	6370
adam	6371
56	6372
imu	6373
rvio	6374
äve	6375
##rc	6376
sid	6377
llain	6378
usv	6379
lek	6380
stiv	6381
ätty	6382
annel	6383
tissä	6384
nissa	6385
holz	6386
urger	6387
cla	6388
hor	6389
ingi	6390
aasta	6391
unsi	6392
kinen	6393
valti	6394
uono	6395
nnak	6396
nista	6397
ksena	6398
viap	6399
dol	6400
nit	6401
isnes	6402
kall	6403
tellu	6404
rade	6405
ahker	6406
ilua	6407
myks	6408
lisa	6409
ktiiv	6410
akau	6411
eina	6412
hdo	6413
tiä	6414
erja	6415
aavis	6416
iiri	6417
iint	6418
hilj	6419
totea	6420
rban	6421
nm	6422
nso	6423
##ts	6424
stää	6425
euv	6426
roja	6427
yöp	6428
abc	6429
gier	6430
ekin	6431
thl	6432
yin	6433
##put	6434
##sh	6435
kood	6436
eru	6437
niel	6438
miina	6439
other	6440
stäv	6441
musi	6442
utto	6443
rika	6444
tuol	6445
deby	6446
avain	6447
äytti	6448
lahj	6449
rasmu	6450
bama	6451
mpum	6452
smo	6453
swa	6454
isl	6455
eskal	6456
stari	6457
sall	6458
änyt	6459
##har	6460
oskar	6461
voite	6462
imon	6463
ach	6464
ammo	6465
uonee	6466
serem	6467
ave	6468
uta	6469
olv	6470
liia	6471
kyk	6472
hero	6473
oimin	6474
yysk	6475
ilai	6476
sorme	6477
okou	6478
nb	6479
orju	6480
##ui	6481
##án	6482
kue	6483
olis	6484
nasta	6485
aane	6486
ouni	6487
ioo	6488
laiva	6489
laadu	6490
naali	6491
aitta	6492
krp	6493
uteen	6494
riida	6495
rgent	6496
62	6497
aessa	6498
dik	6499
ira	6500
##ers	6501
arsi	6502
mau	6503
änni	6504
riis	6505
eisto	6506
avai	6507
stin	6508
anny	6509
jille	6510
world	6511
85	6512
##we	6513
eth	6514
kumo	6515
erv	6516
erit	6517
##mpo	6518
urn	6519
urske	6520
pull	6521
apä	6522
tuota	6523
yyp	6524
miljo	6525
voja	6526
mos	6527
ymmen	6528
noora	6529
svt	6530
bild	6531
gla	6532
hist	6533
oda	6534
rn	6535
inaa	6536
tioi	6537
kalla	6538
kaks	6539
asin	6540
aija	6541
nic	6542
##lah	6543
neut	6544
taav	6545
lee	6546
ieme	6547
muude	6548
kaam	6549
mmän	6550
ähk	6551
hiero	6552
div	6553
orvoo	6554
bmw	6555
duu	6556
pin	6557
erint	6558
stad	6559
lem	6560
rita	6561
marg	6562
stune	6563
oud	6564
ooni	6565
unnel	6566
sco	6567
ourne	6568
swage	6569
iana	6570
##bia	6571
onki	6572
ettaa	6573
aloi	6574
eimm	6575
uupu	6576
urkki	6577
syi	6578
eek	6579
sirpa	6580
öön	6581
onl	6582
sauma	6583
nico	6584
ksee	6585
maaha	6586
viiva	6587
reiss	6588
säik	6589
apau	6590
anom	6591
intoj	6592
aalea	6593
radec	6594
enh	6595
erbia	6596
aahe	6597
arter	6598
heilu	6599
lokuu	6600
orke	6601
ollo	6602
rod	6603
uutel	6604
apur	6605
uija	6606
iossa	6607
ssy	6608
tisen	6609
tone	6610
nua	6611
hjk	6612
will	6613
ikym	6614
ct	6615
cal	6616
eel	6617
lät	6618
pl	6619
rdi	6620
sine	6621
##ug	6622
##jer	6623
ansk	6624
aalu	6625
lappu	6626
asse	6627
toin	6628
taido	6629
stit	6630
uijo	6631
katja	6632
stua	6633
äris	6634
##hua	6635
hang	6636
wat	6637
htii	6638
ower	6639
59	6640
nus	6641
rise	6642
ukon	6643
tatu	6644
jam	6645
jall	6646
uuro	6647
nnik	6648
nick	6649
hav	6650
haw	6651
kine	6652
autti	6653
ttäi	6654
apan	6655
turv	6656
ärk	6657
ice	6658
ttej	6659
sissä	6660
immil	6661
oam	6662
rman	6663
upa	6664
onu	6665
änak	6666
nenä	6667
suun	6668
ahtu	6669
eder	6670
apor	6671
ousi	6672
akar	6673
supis	6674
tatuo	6675
cup	6676
illo	6677
nrk	6678
rh	6679
inkin	6680
joo	6681
erh	6682
ahv	6683
ähtö	6684
ityks	6685
sanai	6686
eesta	6687
hda	6688
##hy	6689
##ssu	6690
##ün	6691
onno	6692
aalla	6693
ilan	6694
vill	6695
##los	6696
ääty	6697
töt	6698
vermo	6699
natsi	6700
lmia	6701
dan	6702
hme	6703
kkia	6704
män	6705
##at	6706
kaine	6707
erät	6708
law	6709
eslan	6710
oliti	6711
pau	6712
##ona	6713
näö	6714
auas	6715
levo	6716
hell	6717
ride	6718
rygg	6719
linik	6720
ustan	6721
raati	6722
konse	6723
liuku	6724
64	6725
cy	6726
rät	6727
xi	6728
äse	6729
ätti	6730
ilp	6731
nivel	6732
ieppi	6733
kaao	6734
##gar	6735
ikui	6736
matto	6737
lmoit	6738
dikta	6739
aw	6740
imen	6741
rkk	6742
##rö	6743
maz	6744
sau	6745
att	6746
lämä	6747
hyvi	6748
ntal	6749
atama	6750
moj	6751
nnall	6752
elek	6753
okais	6754
onnor	6755
naal	6756
okas	6757
##ly	6758
vans	6759
oukar	6760
oval	6761
summi	6762
nurk	6763
72	6764
cm	6765
cro	6766
eme	6767
sj	6768
ersey	6769
mira	6770
miino	6771
ney	6772
taam	6773
keutu	6774
ntek	6775
data	6776
oolo	6777
eitt	6778
reip	6779
61	6780
äist	6781
##rs	6782
##pin	6783
##ang	6784
anp	6785
alma	6786
alist	6787
joi	6788
kolar	6789
erik	6790
oid	6791
auma	6792
auho	6793
tavoi	6794
mitri	6795
ouver	6796
utuva	6797
imaa	6798
over	6799
kysym	6800
arast	6801
ayah	6802
ittaj	6803
ball	6804
nauru	6805
ämise	6806
rally	6807
messu	6808
wo	6809
wrc	6810
äkär	6811
##dd	6812
any	6813
kasta	6814
ath	6815
niv	6816
itel	6817
urku	6818
utuks	6819
imet	6820
pauks	6821
77	6822
uvat	6823
##zo	6824
##rt	6825
env	6826
alppi	6827
uudu	6828
miro	6829
iive	6830
asioi	6831
rian	6832
ouhi	6833
mcc	6834
sukel	6835
umppa	6836
##mbo	6837
63	6838
bra	6839
ipo	6840
ivaa	6841
mün	6842
ogi	6843
otaan	6844
önt	6845
lok	6846
luj	6847
stui	6848
utus	6849
laatu	6850
nauha	6851
innea	6852
ewis	6853
rown	6854
wit	6855
##von	6856
##rd	6857
iskar	6858
insi	6859
kak	6860
err	6861
sauna	6862
pakka	6863
paju	6864
nellä	6865
ottee	6866
ttila	6867
rey	6868
uonta	6869
eiso	6870
ouva	6871
sormu	6872
ntum	6873
lausu	6874
omena	6875
66	6876
api	6877
nr	6878
non	6879
nkar	6880
vm	6881
ymis	6882
äkiv	6883
turi	6884
too	6885
toja	6886
iipu	6887
luv	6888
dem	6889
karku	6890
kkan	6891
afg	6892
hony	6893
liper	6894
intr	6895
uutok	6896
53	6897
67	6898
ikaan	6899
irjo	6900
kd	6901
lake	6902
askar	6903
nnust	6904
aiku	6905
ysp	6906
opul	6907
ierr	6908
rant	6909
ranci	6910
äyd	6911
steis	6912
tettä	6913
ergia	6914
okak	6915
dit	6916
hto	6917
hdu	6918
oop	6919
rus	6920
rina	6921
äks	6922
##dt	6923
vak	6924
kiin	6925
lim	6926
lias	6927
syve	6928
ntama	6929
ellar	6930
iisp	6931
oikku	6932
vissä	6933
tauti	6934
münch	6935
amen	6936
eisi	6937
iri	6938
vaus	6939
arp	6940
estaa	6941
els	6942
usm	6943
ittäv	6944
neks	6945
lippu	6946
ahva	6947
itsee	6948
ikää	6949
palj	6950
ikal	6951
aleh	6952
ortt	6953
gabr	6954
puun	6955
rbán	6956
azerb	6957
far	6958
kl	6959
##ad	6960
etter	6961
koa	6962
siel	6963
saha	6964
unte	6965
auer	6966
low	6967
telm	6968
rossi	6969
outai	6970
teemo	6971
äiset	6972
ynty	6973
olai	6974
matra	6975
kumpu	6976
eirut	6977
nestä	6978
cruz	6979
club	6980
dire	6981
oun	6982
##hr	6983
erman	6984
teil	6985
asto	6986
stat	6987
kärä	6988
nomi	6989
##mist	6990
rotu	6991
kerho	6992
oopp	6993
mand	6994
eksan	6995
idem	6996
sity	6997
73	6998
900	6999
abb	7000
hina	7001
lki	7002
mold	7003
llu	7004
uota	7005
##tur	7006
##met	7007
sii	7008
niis	7009
kip	7010
kyke	7011
reide	7012
vaam	7013
oukk	7014
erkki	7015
ady	7016
aunio	7017
käräj	7018
ej	7019
kiks	7020
ril	7021
roit	7022
##zh	7023
##eng	7024
etk	7025
aira	7026
nak	7027
pih	7028
vuod	7029
ennes	7030
ttäne	7031
tutk	7032
käytä	7033
netto	7034
yny	7035
ksaa	7036
avin	7037
gor	7038
jän	7039
sb	7040
tps	7041
yg	7042
##hö	7043
##isa	7044
aasi	7045
lalla	7046
elas	7047
oshua	7048
uolon	7049
##dar	7050
elijä	7051
uaan	7052
ampe	7053
liivi	7054
iispa	7055
lissä	7056
ikat	7057
aco	7058
eett	7059
ekt	7060
sistä	7061
syytt	7062
rena	7063
seag	7064
dele	7065
fbi	7066
hr	7067
nbc	7068
kuut	7069
simm	7070
aiti	7071
nati	7072
leu	7073
alal	7074
rol	7075
annet	7076
äisy	7077
lieve	7078
okoo	7079
69	7080
68	7081
lmaa	7082
öll	7083
öksi	7084
##teb	7085
aako	7086
tempu	7087
vies	7088
paja	7089
pale	7090
unr	7091
iima	7092
leo	7093
poist	7094
ury	7095
ysk	7096
uotsa	7097
umin	7098
oimia	7099
exa	7100
itui	7101
ekan	7102
lusta	7103
mcg	7104
ätys	7105
hur	7106
ippo	7107
sjo	7108
tå	7109
uc	7110
##hk	7111
eij	7112
unin	7113
##kky	7114
heff	7115
helmi	7116
desi	7117
mans	7118
enäjä	7119
sormi	7120
benz	7121
dna	7122
jer	7123
oikk	7124
##gr	7125
inyt	7126
olma	7127
tefa	7128
nek	7129
unt	7130
toiv	7131
oster	7132
rosa	7133
roos	7134
varsi	7135
mei	7136
trand	7137
vert	7138
äre	7139
rum	7140
karva	7141
ytyi	7142
ainz	7143
apai	7144
kkei	7145
ippur	7146
lona	7147
big	7148
loom	7149
ajien	7150
82	7151
81	7152
ax	7153
bel	7154
etes	7155
##rah	7156
attil	7157
mille	7158
tykki	7159
aupa	7160
auvon	7161
iipi	7162
rick	7163
##dor	7164
virpi	7165
neuro	7166
alos	7167
130	7168
vaisu	7169
thlet	7170
unrwa	7171
99	7172
cold	7173
evin	7174
gm	7175
mor	7176
sät	7177
taus	7178
kuun	7179
aall	7180
aami	7181
##mmu	7182
iipa	7183
kemis	7184
rig	7185
iran	7186
kass	7187
amaz	7188
rand	7189
pisk	7190
idaan	7191
vastu	7192
stand	7193
tåhl	7194
gn	7195
jr	7196
lpp	7197
ool	7198
utaa	7199
äsit	7200
etra	7201
etoni	7202
tian	7203
olas	7204
nappi	7205
nemm	7206
ääsi	7207
roman	7208
uolt	7209
appa	7210
avis	7211
korve	7212
ähä	7213
omer	7214
nuel	7215
com	7216
180	7217
nkäy	7218
golde	7219
sunno	7220
uitu	7221
aasup	7222
deleg	7223
gl	7224
jus	7225
uca	7226
##gh	7227
enu	7228
antel	7229
jaksi	7230
tiaa	7231
tev	7232
asf	7233
##mpe	7234
otel	7235
lika	7236
urski	7237
iete	7238
uluu	7239
rost	7240
uont	7241
isim	7242
aksik	7243
annes	7244
kkeen	7245
dessä	7246
gelma	7247
74	7248
95	7249
bon	7250
dor	7251
fer	7252
gt	7253
tuna	7254
tuur	7255
mac	7256
atte	7257
yste	7258
ulkko	7259
tusv	7260
akki	7261
vaale	7262
helm	7263
omas	7264
sinni	7265
dom	7266
öns	7267
hoff	7268
comb	7269
hild	7270
aival	7271
ulee	7272
halpa	7273
ld	7274
oaa	7275
##ed	7276
tetä	7277
eskar	7278
sema	7279
ilda	7280
aiho	7281
##pat	7282
mic	7283
raf	7284
rais	7285
oih	7286
mästä	7287
aute	7288
ntar	7289
roop	7290
aht	7291
rice	7292
omar	7293
irvo	7294
elia	7295
myi	7296
oukse	7297
äätö	7298
ariz	7299
riitt	7300
ytyy	7301
adri	7302
sortu	7303
ilkku	7304
geo	7305
aiht	7306
digg	7307
78	7308
cu	7309
hö	7310
mist	7311
omme	7312
öteb	7313
##lä	7314
##mes	7315
arlos	7316
maist	7317
iat	7318
urpi	7319
orto	7320
kyll	7321
suus	7322
äiri	7323
irk	7324
eelle	7325
viru	7326
ttele	7327
idli	7328
umpa	7329
ainan	7330
käry	7331
afd	7332
orner	7333
amuel	7334
walz	7335
buu	7336
ms	7337
who	7338
taku	7339
inkä	7340
##iku	7341
etso	7342
aros	7343
saga	7344
##ong	7345
ustaa	7346
aisti	7347
keva	7348
urri	7349
kinta	7350
ltava	7351
ehit	7352
amara	7353
hintz	7354
vihja	7355
barb	7356
kwh	7357
dl	7358
emen	7359
gps	7360
hes	7361
tiko	7362
äky	7363
öp	7364
öst	7365
##im	7366
alfa	7367
laf	7368
ilku	7369
ihi	7370
ääl	7371
liop	7372
sym	7373
orsa	7374
kestä	7375
kesto	7376
iittä	7377
ikke	7378
marcu	7379
punk	7380
lant	7381
lans	7382
kond	7383
aliv	7384
avos	7385
nker	7386
sijaa	7387
350	7388
sänky	7389
sjk	7390
coldp	7391
gri	7392
ze	7393
##tic	7394
anel	7395
sie	7396
lar	7397
ilkka	7398
sakar	7399
uura	7400
urin	7401
soa	7402
terin	7403
pär	7404
uutti	7405
aps	7406
asee	7407
astio	7408
ampo	7409
agle	7410
hokki	7411
ainu	7412
numme	7413
tiena	7414
eyen	7415
roski	7416
hsl	7417
ippar	7418
86	7419
tho	7420
##uth	7421
kumpi	7422
astee	7423
aude	7424
iehi	7425
orno	7426
maala	7427
rein	7428
ikkar	7429
irppu	7430
avah	7431
ling	7432
verho	7433
ähte	7434
ellin	7435
nyrk	7436
omini	7437
otii	7438
eksu	7439
lykk	7440
heitt	7441
wahl	7442
wild	7443
grönb	7444
ufc	7445
ooper	7446
76	7447
cor	7448
lvi	7449
uite	7450
ylli	7451
##zy	7452
tuk	7453
kose	7454
eivä	7455
eilu	7456
arit	7457
side	7458
maise	7459
matti	7460
mack	7461
##mil	7462
aie	7463
näp	7464
##pas	7465
kien	7466
haja	7467
iian	7468
repe	7469
eisoi	7470
omal	7471
ytkö	7472
enter	7473
ntial	7474
each	7475
akav	7476
ynyt	7477
isaa	7478
anoma	7479
ppila	7480
imia	7481
itol	7482
aukio	7483
71	7484
87	7485
91	7486
pmm	7487
##usa	7488
##ph	7489
##che	7490
onja	7491
kukin	7492
kuor	7493
arte	7494
sapp	7495
vio	7496
usku	7497
hassu	7498
nossa	7499
vässä	7500
uter	7501
stt	7502
tista	7503
jarno	7504
tauks	7505
ngeb	7506
pmmp	7507
akin	7508
bb	7509
ix	7510
ujen	7511
##mul	7512
##ji	7513
llen	7514
tukka	7515
kuus	7516
kula	7517
olue	7518
stal	7519
elg	7520
kiv	7521
nolo	7522
aunu	7523
mua	7524
heito	7525
jeng	7526
rou	7527
ahte	7528
itan	7529
mento	7530
oudo	7531
ikäl	7532
iiski	7533
##ear	7534
comp	7535
taput	7536
duba	7537
esper	7538
kupla	7539
regor	7540
ipi	7541
skä	7542
##hä	7543
##hn	7544
##wi	7545
encia	7546
ilot	7547
sar	7548
sap	7549
tock	7550
itsen	7551
ausa	7552
urs	7553
ortai	7554
open	7555
tant	7556
eriaa	7557
##mor	7558
lini	7559
inas	7560
##gio	7561
dam	7562
dassa	7563
rance	7564
ilpai	7565
tisoi	7566
ntise	7567
talv	7568
kaija	7569
iskel	7570
utos	7571
ymys	7572
aunan	7573
offer	7574
kra	7575
nmu	7576
nero	7577
ox	7578
rmi	7579
tise	7580
tsen	7581
##rm	7582
##its	7583
etor	7584
jois	7585
kupar	7586
semp	7587
nam	7588
eloni	7589
kille	7590
nob	7591
soti	7592
iinaa	7593
suver	7594
rida	7595
tusjo	7596
ntoon	7597
uivu	7598
nnost	7599
keng	7600
hermo	7601
uomat	7602
tahko	7603
ebu	7604
ipsa	7605
muod	7606
ahe	7607
ci	7608
nvä	7609
rho	7610
vu	7611
vise	7612
##ms	7613
##én	7614
taulu	7615
inttu	7616
eivo	7617
kate	7618
staf	7619
aila	7620
pai	7621
hame	7622
ievi	7623
##str	7624
menti	7625
jumbo	7626
vere	7627
ärt	7628
unner	7629
ammer	7630
sulku	7631
onaco	7632
uulos	7633
thomp	7634
nväli	7635
bal	7636
dj	7637
fsb	7638
hät	7639
iän	7640
ympi	7641
##iby	7642
jaa	7643
aaton	7644
ilto	7645
olii	7646
uuse	7647
tola	7648
atina	7649
käv	7650
synt	7651
esim	7652
lovi	7653
lint	7654
ainal	7655
uutal	7656
ooli	7657
die	7658
ssut	7659
intia	7660
140	7661
umpp	7662
riehu	7663
jöi	7664
lerc	7665
rooks	7666
lpo	7667
okin	7668
rki	7669
rdo	7670
sch	7671
tsal	7672
utaan	7673
umaan	7674
ucia	7675
tala	7676
onas	7677
valle	7678
koal	7679
kuj	7680
kahd	7681
lappi	7682
uuna	7683
##vig	7684
aukko	7685
##ppä	7686
telut	7687
ehi	7688
ahoi	7689
aluk	7690
stia	7691
uilla	7692
myar	7693
raam	7694
sink	7695
idut	7696
iisaa	7697
arai	7698
hetke	7699
gaud	7700
uefa	7701
paam	7702
oppar	7703
osep	7704
treet	7705
surma	7706
evil	7707
nurmi	7708
calg	7709
combs	7710
88	7711
liko	7712
oist	7713
osit	7714
rkin	7715
##ér	7716
anse	7717
isney	7718
kukki	7719
erkk	7720
ilvo	7721
atker	7722
itru	7723
iala	7724
ledo	7725
ulha	7726
edro	7727
utist	7728
stoa	7729
linto	7730
outa	7731
kong	7732
alou	7733
idaa	7734
ioski	7735
elat	7736
ittam	7737
ummel	7738
170	7739
ometr	7740
kurpi	7741
foor	7742
rctic	7743
easti	7744
nony	7745
96	7746
bur	7747
dort	7748
mg	7749
öd	7750
ondo	7751
vakuu	7752
eiv	7753
kapa	7754
aivu	7755
ailu	7756
ännä	7757
happo	7758
noa	7759
ääst	7760
kanto	7761
meen	7762
medi	7763
ärist	7764
mitus	7765
ruand	7766
inger	7767
nelm	7768
sinut	7769
ager	7770
agne	7771
usia	7772
##ard	7773
lehm	7774
gam	7775
psg	7776
amed	7777
taudi	7778
road	7779
ament	7780
cbs	7781
eito	7782
lja	7783
win	7784
wlt	7785
isr	7786
istee	7787
kast	7788
esän	7789
uutio	7790
milla	7791
kunin	7792
auman	7793
urb	7794
ulka	7795
ulgar	7796
lup	7797
mart	7798
outil	7799
tulva	7800
lyers	7801
##ffe	7802
räis	7803
undes	7804
110	7805
160	7806
nats	7807
irjoi	7808
luuku	7809
miinu	7810
äisyy	7811
dortm	7812
wltp	7813
89	7814
ck	7815
hka	7816
imai	7817
kina	7818
rmist	7819
uj	7820
øiby	7821
##zi	7822
##ng	7823
##cy	7824
tat	7825
uolla	7826
lakk	7827
pall	7828
nig	7829
nim	7830
##ror	7831
kii	7832
saad	7833
kinna	7834
orni	7835
osoi	7836
euk	7837
rob	7838
rops	7839
rima	7840
##emb	7841
kart	7842
adhd	7843
orvar	7844
eneg	7845
aatam	7846
orod	7847
roth	7848
rvos	7849
79	7850
83	7851
eutta	7852
lmä	7853
tp	7854
tikk	7855
##om	7856
tari	7857
##tun	7858
ergio	7859
aavan	7860
maino	7861
ilos	7862
vihi	7863
elun	7864
##nau	7865
väll	7866
toim	7867
orit	7868
deni	7869
untar	7870
tmz	7871
taudu	7872
nurme	7873
majur	7874
teven	7875
ijo	7876
jev	7877
olli	7878
roi	7879
rno	7880
syt	7881
tami	7882
ence	7883
eten	7884
arva	7885
seits	7886
map	7887
rappu	7888
kihl	7889
iivaa	7890
sot	7891
heinä	7892
oren	7893
lubi	7894
amfe	7895
dek	7896
demo	7897
kore	7898
liima	7899
lauma	7900
iirt	7901
hou	7902
urkku	7903
sitys	7904
vela	7905
naure	7906
ökkää	7907
nilk	7908
sitou	7909
ikrob	7910
ailij	7911
rönl	7912
92	7913
dra	7914
rty	7915
rla	7916
sn	7917
sw	7918
site	7919
##fs	7920
##ård	7921
kummo	7922
täk	7923
tempo	7924
esty	7925
vikaa	7926
elvä	7927
usse	7928
noro	7929
yhti	7930
iipo	7931
osent	7932
luis	7933
enner	7934
amina	7935
äijä	7936
irku	7937
avas	7938
istut	7939
torp	7940
liioi	7941
imit	7942
aamaa	7943
atema	7944
välin	7945
udist	7946
litse	7947
you	7948
akker	7949
nfl	7950
sitov	7951
avint	7952
rpo	7953
skuu	7954
tsin	7955
ww	7956
öys	7957
öyty	7958
##jy	7959
enso	7960
ersu	7961
teppo	7962
sijo	7963
laino	7964
lasit	7965
laur	7966
aster	7967
sean	7968
seita	7969
itin	7970
miha	7971
urhi	7972
syke	7973
osmet	7974
lusi	7975
reppu	7976
stock	7977
vaim	7978
imber	7979
alie	7980
hinku	7981
ojaa	7982
vok	7983
aisio	7984
ynä	7985
aber	7986
tahti	7987
ador	7988
elei	7989
esala	7990
imago	7991
ärski	7992
tš	7993
yu	7994
vase	7995
tiput	7996
laise	7997
otsa	7998
pie	7999
rog	8000
ryn	8001
monte	8002
dal	8003
ict	8004
hiff	8005
oosa	8006
teell	8007
mouth	8008
gib	8009
oksen	8010
sujuu	8011
edio	8012
aen	8013
aop	8014
ikaa	8015
slo	8016
wol	8017
##gen	8018
aamo	8019
seva	8020
ilpp	8021
ittei	8022
saati	8023
kauno	8024
kerma	8025
rell	8026
tarmo	8027
ennet	8028
lasin	8029
rinna	8030
harks	8031
umni	8032
east	8033
okr	8034
ahar	8035
orsb	8036
gola	8037
olum	8038
leivo	8039
noita	8040
cin	8041
cry	8042
emu	8043
eff	8044
fit	8045
jel	8046
kik	8047
uman	8048
teta	8049
stava	8050
sarah	8051
elon	8052
##las	8053
kunt	8054
ukki	8055
pudot	8056
sovel	8057
ohto	8058
alama	8059
nnek	8060
kand	8061
akis	8062
irror	8063
ngelm	8064
kuuro	8065
icc	8066
iosta	8067
iant	8068
önki	8069
apar	8070
laam	8071
naula	8072
okra	8073
iunau	8074
vihki	8075
wille	8076
wimb	8077
brig	8078
gold	8079
tauko	8080
äytän	8081
bird	8082
byr	8083
fe	8084
iq	8085
ml	8086
sist	8087
ux	8088
ymä	8089
äck	8090
öran	8091
##ey	8092
##dr	8093
##hm	8094
##tar	8095
tapaa	8096
tukki	8097
vaiku	8098
aler	8099
kummu	8100
aataa	8101
aapo	8102
lase	8103
ester	8104
niger	8105
kiusa	8106
auke	8107
aupp	8108
ajana	8109
ulf	8110
tunt	8111
opist	8112
stil	8113
ikent	8114
kaato	8115
ellak	8116
emeri	8117
ikoll	8118
äyde	8119
dow	8120
eräi	8121
cole	8122
utkim	8123
oker	8124
diok	8125
rond	8126
intsa	8127
koura	8128
450	8129
84	8130
sikk	8131
##uta	8132
enis	8133
##uto	8134
aasal	8135
olar	8136
teel	8137
nip	8138
keis	8139
liika	8140
hein	8141
lopp	8142
ulun	8143
orb	8144
ohte	8145
rilai	8146
rigo	8147
tuoma	8148
med	8149
ryp	8150
istin	8151
ntil	8152
lask	8153
agner	8154
iota	8155
iopi	8156
oril	8157
aint	8158
kohdi	8159
eitse	8160
ineet	8161
uulan	8162
nsid	8163
aidz	8164
vihel	8165
viher	8166
asara	8167
öid	8168
ntero	8169
oksis	8170
rgia	8171
eys	8172
iton	8173
ipar	8174
örke	8175
##am	8176
onis	8177
kuppi	8178
erby	8179
olva	8180
lako	8181
assit	8182
mali	8183
salam	8184
atp	8185
atter	8186
itma	8187
raus	8188
piho	8189
life	8190
ahka	8191
repi	8192
##und	8193
agr	8194
iand	8195
täyd	8196
ange	8197
kkoon	8198
soitt	8199
oyal	8200
akob	8201
ummas	8202
enior	8203
ummer	8204
ornet	8205
muot	8206
äläis	8207
rett	8208
ioide	8209
mökki	8210
äji	8211
lfy	8212
aq	8213
col	8214
ipal	8215
jelm	8216
lv	8217
okon	8218
##eld	8219
##tor	8220
tiön	8221
ols	8222
oles	8223
aran	8224
sien	8225
sakon	8226
itsa	8227
miisa	8228
rag	8229
rasti	8230
now	8231
urvo	8232
ukk	8233
sos	8234
ehmu	8235
sukar	8236
kane	8237
tör	8238
säl	8239
rink	8240
ainel	8241
ackal	8242
innon	8243
skent	8244
innas	8245
talte	8246
aivas	8247
##geo	8248
bay	8249
igan	8250
ntym	8251
good	8252
bell	8253
leip	8254
ogg	8255
lott	8256
cross	8257
önkij	8258
bc	8259
ban	8260
byd	8261
cas	8262
fl	8263
hkö	8264
här	8265
lil	8266
likk	8267
alf	8268
aron	8269
olia	8270
pace	8271
aisa	8272
##nea	8273
saac	8274
ttien	8275
ossi	8276
iiku	8277
tämää	8278
##unt	8279
elip	8280
amall	8281
hii	8282
lauku	8283
onnu	8284
herb	8285
inner	8286
stelu	8287
ritz	8288
match	8289
aneen	8290
ekp	8291
box	8292
espn	8293
oppo	8294
wick	8295
layo	8296
ydney	8297
eesu	8298
märkä	8299
watch	8300
hawk	8301
nobel	8302
dist	8303
eman	8304
epo	8305
eco	8306
mr	8307
ndy	8308
okki	8309
rü	8310
uil	8311
uisi	8312
ün	8313
##sy	8314
antio	8315
isso	8316
iner	8317
etur	8318
kosi	8319
kori	8320
lakki	8321
ilkki	8322
llek	8323
haro	8324
iida	8325
otter	8326
sop	8327
loyd	8328
rosta	8329
amber	8330
isäll	8331
irhe	8332
eed	8333
ual	8334
##diz	8335
iihf	8336
ärpi	8337
kontu	8338
oost	8339
dos	8340
osien	8341
hok	8342
niska	8343
enge	8344
visa	8345
ueen	8346
ummit	8347
nessä	8348
lievi	8349
kurku	8350
ikkel	8351
geop	8352
okuva	8353
lpine	8354
umari	8355
äjät	8356
loog	8357
mosc	8358
with	8359
dorf	8360
cia	8361
ihd	8362
sé	8363
##ens	8364
tihku	8365
##kim	8366
eide	8367
kalle	8368
arik	8369
sime	8370
sataa	8371
uutaa	8372
rapu	8373
unter	8374
iikar	8375
lempe	8376
pouta	8377
hev	8378
telt	8379
ehjä	8380
ehno	8381
uthi	8382
marco	8383
käyn	8384
part	8385
peu	8386
tuula	8387
hard	8388
tistä	8389
abu	8390
aitl	8391
vihj	8392
ioni	8393
urmer	8394
aalar	8395
söi	8396
rolf	8397
urbul	8398
ensor	8399
orbes	8400
avel	8401
eini	8402
f1	8403
fon	8404
gre	8405
hdot	8406
lyö	8407
mmu	8408
rp	8409
rni	8410
vr	8411
wis	8412
äva	8413
äksy	8414
år	8415
##tš	8416
##cke	8417
tapo	8418
ince	8419
kouk	8420
kaja	8421
erso	8422
erho	8423
olop	8424
arsa	8425
argu	8426
lata	8427
malle	8428
naja	8429
rai	8430
läin	8431
untaa	8432
ihlo	8433
ajel	8434
eutan	8435
kyp	8436
rodu	8437
stie	8438
uim	8439
istos	8440
##die	8441
##iru	8442
ouise	8443
risb	8444
karvo	8445
##hani	8446
mpin	8447
dub	8448
aaduk	8449
nukke	8450
redr	8451
adal	8452
ezir	8453
äneet	8454
grahn	8455
birg	8456
solmu	8457
rdog	8458
maple	8459
97	8460
duo	8461
eq	8462
fing	8463
gon	8464
hort	8465
imar	8466
jp	8467
lke	8468
lmo	8469
vs	8470
vik	8471
ws	8472
##yn	8473
tako	8474
isw	8475
intää	8476
jol	8477
tät	8478
tipa	8479
aarin	8480
airi	8481
athan	8482
mio	8483
race	8484
nell	8485
lämän	8486
hapo	8487
hampu	8488
tyvä	8489
piru	8490
ukkar	8491
esil	8492
lock	8493
ollin	8494
terho	8495
akkai	8496
säk	8497
juna	8498
dag	8499
ranno	8500
pyr	8501
hih	8502
idl	8503
amist	8504
äytte	8505
##hio	8506
style	8507
nuri	8508
stew	8509
ronja	8510
nukut	8511
ankal	8512
uosma	8513
graf	8514
ippil	8515
uikko	8516
clark	8517
mazon	8518
leuka	8519
bond	8520
séb	8521
epi	8522
gy	8523
kran	8524
lkaa	8525
nist	8526
pv	8527
pest	8528
rv	8529
rm	8530
vt	8531
##py	8532
inke	8533
alzh	8534
kokse	8535
kurki	8536
tial	8537
eippa	8538
lamb	8539
vid	8540
nava	8541
##ray	8542
atkaa	8543
itch	8544
mig	8545
rain	8546
kila	8547
iastr	8548
ursu	8549
pukki	8550
##hah	8551
iehu	8552
eugeo	8553
utsa	8554
kanno	8555
eisar	8556
mars	8557
rando	8558
ring	8559
kkv	8560
niilo	8561
amid	8562
allor	8563
utoa	8564
ulais	8565
ukaš	8566
ried	8567
cardi	8568
youtu	8569
tolku	8570
oday	8571
ahtui	8572
abba	8573
ärtha	8574
öysti	8575
npa	8576
äkö	8577
##ds	8578
##él	8579
jako	8580
joll	8581
koj	8582
kool	8583
arri	8584
uupa	8585
näl	8586
##mpt	8587
autio	8588
iii	8589
taiva	8590
opher	8591
uusul	8592
robb	8593
edw	8594
reda	8595
##sol	8596
eliv	8597
allei	8598
lasma	8599
raas	8600
rini	8601
agen	8602
iddy	8603
imin	8604
iola	8605
iano	8606
alker	8607
listä	8608
eiton	8609
adon	8610
absu	8611
ttor	8612
ipsi	8613
ione	8614
reid	8615
möki	8616
yynär	8617
ripul	8618
duuma	8619
ulham	8620
atoi	8621
epal	8622
gb	8623
lana	8624
otoi	8625
spa	8626
wing	8627
zi	8628
isco	8629
inj	8630
##kos	8631
tempt	8632
siper	8633
lach	8634
asvu	8635
navig	8636
elmar	8637
tojen	8638
atel	8639
taava	8640
auaa	8641
ttama	8642
osmo	8643
osley	8644
opel	8645
utte	8646
apnea	8647
uhel	8648
ikis	8649
sär	8650
irus	8651
elija	8652
nteki	8653
kaar	8654
kult	8655
ouri	8656
amat	8657
stm	8658
annik	8659
äysi	8660
lang	8661
laud	8662
doug	8663
ios	8664
raud	8665
norf	8666
ttine	8667
cat	8668
igel	8669
nikki	8670
rene	8671
etoa	8672
yper	8673
caru	8674
heimo	8675
ripus	8676
agnee	8677
ryntä	8678
bas	8679
cli	8680
hmi	8681
ipa	8682
iman	8683
lka	8684
nda	8685
ndia	8686
uer	8687
yna	8688
##bu	8689
tate	8690
llin	8691
tup	8692
uoni	8693
esso	8694
ashar	8695
ilut	8696
ildiz	8697
nea	8698
oili	8699
##lee	8700
otin	8701
urp	8702
ukin	8703
ajor	8704
pujo	8705
lobe	8706
ulho	8707
ohtee	8708
kauni	8709
##nig	8710
edä	8711
akoi	8712
tajak	8713
uhli	8714
deit	8715
lauta	8716
evon	8717
lähei	8718
astis	8719
kkoa	8720
spel	8721
iper	8722
mariu	8723
orsby	8724
lonso	8725
lips	8726
kuru	8727
leipo	8728
ruth	8729
fifa	8730
imal	8731
gard	8732
rmand	8733
ymise	8734
macc	8735
dt	8736
dc	8737
esal	8738
hde	8739
htuu	8740
ijä	8741
js	8742
ljo	8743
nst	8744
npi	8745
ulit	8746
yiv	8747
üri	8748
##ic	8749
##kkä	8750
##ab	8751
isel	8752
alho	8753
joona	8754
kajo	8755
asvo	8756
ilve	8757
ilton	8758
oihu	8759
taak	8760
otsin	8761
lipa	8762
liina	8763
iego	8764
head	8765
osas	8766
ahan	8767
rior	8768
astia	8769
istoi	8770
otet	8771
ärkö	8772
utum	8773
icz	8774
agma	8775
chi	8776
ongo	8777
maiju	8778
ritva	8779
stedt	8780
emmet	8781
baby	8782
napsa	8783
owl	8784
omee	8785
rent	8786
ecr	8787
leipä	8788
ralf	8789
kouri	8790
lisia	8791
retz	8792
imak	8793
anant	8794
asked	8795
rönn	8796
slon	8797
rnold	8798
lkeen	8799
ürich	8800
98	8801
dca	8802
hm	8803
kp	8804
pga	8805
upi	8806
wer	8807
ävää	8808
##ía	8809
anit	8810
onil	8811
vail	8812
tiika	8813
eif	8814
aase	8815
tep	8816
arge	8817
lavi	8818
esten	8819
askin	8820
mav	8821
viina	8822
nappa	8823
tomi	8824
itler	8825
mire	8826
nop	8827
aue	8828
aant	8829
hear	8830
loin	8831
lui	8832
ehke	8833
ntava	8834
ross	8835
utch	8836
apun	8837
uhmo	8838
kuvas	8839
eevi	8840
vaini	8841
##mur	8842
selos	8843
ruce	8844
ruins	8845
dar	8846
ranka	8847
karta	8848
hand	8849
jätt	8850
ianca	8851
hart	8852
nuut	8853
uulin	8854
eneve	8855
ullon	8856
talve	8857
andel	8858
antib	8859
owe	8860
graa	8861
trat	8862
erner	8863
220	8864
misiä	8865
aasut	8866
well	8867
glas	8868
gibso	8869
wsj	8870
dagb	8871
huk	8872
iff	8873
lvar	8874
oor	8875
ytä	8876
zo	8877
##ct	8878
enkin	8879
isv	8880
intaa	8881
etz	8882
late	8883
sato	8884
viikk	8885
vilah	8886
elvo	8887
pam	8888
tova	8889
nippu	8890
ray	8891
kie	8892
auks	8893
leff	8894
urme	8895
ieppa	8896
iinty	8897
ehmo	8898
reikä	8899
suta	8900
rille	8901
kanne	8902
yyl	8903
ukkul	8904
selk	8905
hip	8906
rince	8907
amppa	8908
evge	8909
moot	8910
acq	8911
ammel	8912
nui	8913
astr	8914
räik	8915
abine	8916
alei	8917
lahjo	8918
stell	8919
aarte	8920
armia	8921
thor	8922
umppu	8923
essie	8924
layb	8925
ynee	8926
resp	8927
nils	8928
aalei	8929
hinau	8930
ds	8931
ivit	8932
kro	8933
klu	8934
knig	8935
nc	8936
rtti	8937
ujan	8938
vps	8939
wire	8940
taut	8941
takka	8942
onse	8943
onar	8944
ales	8945
uoll	8946
kaku	8947
olppi	8948
simul	8949
asino	8950
maut	8951
mach	8952
aime	8953
##hev	8954
neul	8955
hab	8956
oime	8957
leja	8958
post	8959
uruh	8960
sova	8961
losta	8962
taika	8963
opin	8964
tank	8965
rokse	8966
isem	8967
surke	8968
erie	8969
amaa	8970
essaa	8971
##ung	8972
uih	8973
traa	8974
eeti	8975
dataa	8976
icj	8977
stön	8978
hinna	8979
ojel	8980
tumin	8981
akkor	8982
cola	8983
absol	8984
alehd	8985
spr	8986
ayer	8987
amil	8988
itul	8989
iba	8990
atii	8991
atim	8992
uudel	8993
bobr	8994
melu	8995
iisau	8996
rankf	8997
mekan	8998
ünche	8999
aga	9000
cl	9001
dha	9002
dee	9003
khani	9004
nde	9005
oden	9006
pee	9007
shu	9008
wint	9009
xin	9010
ydä	9011
äpi	9012
ömä	9013
alhe	9014
alssi	9015
kust	9016
uuvu	9017
##rig	9018
##ric	9019
uns	9020
novo	9021
sanka	9022
lig	9023
lipu	9024
lick	9025
urre	9026
alah	9027
kyä	9028
roki	9029
illeh	9030
reet	9031
rix	9032
ripo	9033
tehtä	9034
rkl	9035
dellä	9036
ajas	9037
olour	9038
sing	9039
häl	9040
mane	9041
digi	9042
herne	9043
usic	9044
öyhö	9045
akat	9046
misee	9047
olau	9048
nsio	9049
##ihk	9050
ämär	9051
ikkoj	9052
112	9053
atsas	9054
roste	9055
yönte	9056
kuski	9057
evans	9058
onnah	9059
ytös	9060
arcia	9061
leaf	9062
ufva	9063
sepel	9064
##uay	9065
acob	9066
drag	9067
dun	9068
god	9069
iväl	9070
rsi	9071
rras	9072
wir	9073
##au	9074
##sar	9075
inka	9076
tullu	9077
vau	9078
aline	9079
tiu	9080
eip	9081
eice	9082
##kei	9083
aavu	9084
aston	9085
##mat	9086
staj	9087
stall	9088
olid	9089
##one	9090
##kur	9091
nich	9092
miet	9093
rajo	9094
llisi	9095
autaa	9096
iivu	9097
saal	9098
lija	9099
ossu	9100
tilas	9101
reunu	9102
utsu	9103
rilla	9104
uhte	9105
try	9106
rub	9107
nuot	9108
mikro	9109
ajouk	9110
hinno	9111
ammad	9112
urah	9113
aniem	9114
mog	9115
oikka	9116
ainer	9117
ody	9118
cost	9119
ango	9120
ällee	9121
kets	9122
jim	9123
kkäys	9124
270	9125
puuro	9126
uluv	9127
tolpp	9128
fab	9129
aasua	9130
stanb	9131
kontr	9132
mages	9133
ucker	9134
gordo	9135
säter	9136
luisu	9137
cinia	9138
eus	9139
eppu	9140
fest	9141
gil	9142
gir	9143
hp	9144
mck	9145
plo	9146
vint	9147
weng	9148
öcke	9149
##ie	9150
##stö	9151
##ny	9152
##war	9153
vaska	9154
alpa	9155
jono	9156
kolo	9157
erva	9158
arne	9159
lago	9160
assin	9161
sev	9162
sey	9163
seli	9164
ilpo	9165
##mir	9166
airo	9167
toppa	9168
atsin	9169
rail	9170
kick	9171
noit	9172
leck	9173
ulvia	9174
alain	9175
roy	9176
aker	9177
uhma	9178
tutt	9179
juni	9180
entf	9181
kaski	9182
ouna	9183
ellen	9184
lank	9185
##bba	9186
evp	9187
kärk	9188
kilva	9189
yrstö	9190
aaruk	9191
dyna	9192
ansio	9193
arlon	9194
bob	9195
baum	9196
omeo	9197
oakim	9198
viroo	9199
eilah	9200
750	9201
550	9202
ygård	9203
adria	9204
kuorm	9205
ausah	9206
hiffr	9207
rigoz	9208
gonz	9209
onark	9210
94	9211
bl	9212
cc	9213
food	9214
klub	9215
mul	9216
ph	9217
på	9218
ther	9219
uš	9220
##zb	9221
##rå	9222
##kit	9223
##gia	9224
##fi	9225
##ør	9226
onro	9227
komp	9228
uoja	9229
kama	9230
##usu	9231
vip	9232
viik	9233
ailah	9234
kius	9235
aiste	9236
tyrm	9237
sanel	9238
liffe	9239
ttiva	9240
loa	9241
orv	9242
oran	9243
orti	9244
oreno	9245
ostu	9246
ohtu	9247
maall	9248
oph	9249
opra	9250
kert	9251
edal	9252
suihk	9253
amsa	9254
ryk	9255
dep	9256
very	9257
ajak	9258
oteta	9259
uutar	9260
ärin	9261
ruck	9262
sttk	9263
kuula	9264
nuore	9265
amppu	9266
immel	9267
ear	9268
laiv	9269
steve	9270
tahra	9271
runs	9272
gare	9273
ikei	9274
amero	9275
own	9276
nesty	9277
errok	9278
reau	9279
otors	9280
ppil	9281
210	9282
rosby	9283
ridge	9284
kuitu	9285
aavol	9286
grönh	9287
sham	9288
uzeni	9289
claud	9290
klubi	9291
aš	9292
akai	9293
fem	9294
hc	9295
hus	9296
riks	9297
sjä	9298
öti	9299
##id	9300
##kan	9301
##fu	9302
##ano	9303
onter	9304
##kat	9305
vaksi	9306
uokka	9307
täl	9308
##med	9309
kapp	9310
ares	9311
arner	9312
siuna	9313
latti	9314
llais	9315
selli	9316
ailee	9317
uskar	9318
iab	9319
augu	9320
iiber	9321
pippa	9322
liä	9323
lien	9324
muna	9325
void	9326
orik	9327
lum	9328
utina	9329
anaka	9330
yhdi	9331
löf	9332
ruby	9333
eller	9334
aalt	9335
imrå	9336
alil	9337
yller	9338
mom	9339
##aru	9340
tiski	9341
nnäk	9342
okero	9343
atuk	9344
uorsa	9345
eval	9346
115	9347
napsi	9348
eleva	9349
liepe	9350
ront	9351
hams	9352
gow	9353
hdis	9354
neid	9355
weck	9356
hirsi	9357
uitsu	9358
aoke	9359
reed	9360
rönni	9361
omeno	9362
hdok	9363
nusta	9364
morg	9365
adrie	9366
lusik	9367
tephe	9368
onroe	9369
93	9370
bol	9371
crai	9372
gang	9373
iutta	9374
lj	9375
mine	9376
nha	9377
ntuu	9378
sulu	9379
uilu	9380
wel	9381
ätö	9382
önn	9383
ül	9384
ür	9385
##zz	9386
##gor	9387
##yne	9388
##ena	9389
taki	9390
inkko	9391
tumi	9392
kad	9393
##etz	9394
sako	9395
saks	9396
sakko	9397
elva	9398
uuda	9399
änk	9400
touk	9401
tossu	9402
attaa	9403
nif	9404
miva	9405
ramm	9406
ravis	9407
nom	9408
auhio	9409
lepp	9410
piro	9411
urik	9412
urst	9413
##ppy	9414
loks	9415
uluk	9416
kses	9417
eude	9418
riin	9419
river	9420
pele	9421
pelk	9422
anar	9423
anah	9424
essay	9425
turbo	9426
mong	9427
haat	9428
ärnä	9429
ärkky	9430
ransa	9431
annis	9432
##dur	9433
agher	9434
upm	9435
alii	9436
oje	9437
herm	9438
urau	9439
umpal	9440
kalan	9441
steet	9442
arron	9443
itun	9444
afa	9445
hond	9446
entia	9447
psw	9448
udis	9449
itos	9450
ream	9451
ukala	9452
luulo	9453
uotia	9454
gior	9455
kupit	9456
ival	9457
uzne	9458
birm	9459
ound	9460
uskur	9461
dubai	9462
djur	9463
font	9464
årde	9465
traag	9466
uudah	9467
05	9468
fia	9469
fter	9470
imis	9471
itee	9472
jis	9473
oust	9474
psi	9475
ppä	9476
rikk	9477
rmu	9478
sva	9479
vino	9480
wemb	9481
ynn	9482
##vy	9483
##ban	9484
onee	9485
tupa	9486
alter	9487
alnes	9488
kob	9489
kom	9490
kumar	9491
##tum	9492
##tus	9493
eimo	9494
erre	9495
aatel	9496
tell	9497
arro	9498
lae	9499
eso	9500
viis	9501
nalla	9502
elet	9503
toppi	9504
noah	9505
aukon	9506
iippo	9507
lepä	9508
sand	9509
keha	9510
lij	9511
ursi	9512
sokki	9513
loj	9514
lossa	9515
ohon	9516
kauma	9517
lubin	9518
kyn	9519
tanko	9520
ahmi	9521
reb	9522
sua	9523
suaal	9524
isii	9525
joht	9526
äide	9527
anas	9528
mervi	9529
omai	9530
ryy	9531
veh	9532
eep	9533
ajau	9534
ärkä	9535
icci	9536
hili	9537
himme	9538
pissa	9539
tulok	9540
ooga	9541
ago	9542
vahn	9543
häik	9544
everi	9545
hof	9546
coro	9547
cock	9548
abot	9549
hje	9550
ancy	9551
iuha	9552
ebab	9553
ubaru	9554
omppi	9555
erson	9556
yvö	9557
brian	9558
altt	9559
beiru	9560
halp	9561
ränti	9562
vyy	9563
layer	9564
aasun	9565
äjän	9566
arena	9567
glad	9568
arant	9569
uonio	9570
jsn	9571
djurg	9572
jista	9573
awa	9574
cit	9575
cra	9576
gear	9577
iist	9578
iga	9579
lppi	9580
myt	9581
nke	9582
nho	9583
orai	9584
oiko	9585
ppar	9586
vust	9587
ög	9588
##th	9589
##og	9590
##jh	9591
tage	9592
ond	9593
onkar	9594
etis	9595
kofe	9596
komul	9597
tii	9598
sig	9599
siva	9600
sive	9601
lama	9602
mad	9603
vivi	9604
viha	9605
viini	9606
elde	9607
änee	9608
nita	9609
rasta	9610
rach	9611
iippa	9612
leiv	9613
urska	9614
urpe	9615
syr	9616
heat	9617
iinus	9618
suuk	9619
kanka	9620
aman	9621
uira	9622
suure	9623
ärhä	9624
ruma	9625
kuuma	9626
ellit	9627
agu	9628
hint	9629
kön	9630
önkkö	9631
innut	9632
odge	9633
amie	9634
arren	9635
anoo	9636
evad	9637
obser	9638
eps	9639
epsi	9640
ammed	9641
appo	9642
umpul	9643
rieha	9644
hitt	9645
lsjh	9646
uikka	9647
maux	9648
rodr	9649
ilpel	9650
itelt	9651
eijon	9652
gaudr	9653
kiksi	9654
wisco	9655
urphy	9656
graaf	9657
oore	9658
leffa	9659
dpa	9660
iž	9661
oas	9662
rka	9663
stei	9664
was	9665
za	9666
##ux	9667
##pö	9668
##ok	9669
##yo	9670
##ene	9671
ense	9672
endo	9673
jau	9674
eimar	9675
aasti	9676
teise	9677
sivä	9678
simpp	9679
lampi	9680
lames	9681
askia	9682
makar	9683
naker	9684
uuha	9685
paito	9686
llei	9687
ustus	9688
atut	9689
nihk	9690
itute	9691
mick	9692
aisp	9693
nosta	9694
##lev	9695
leivi	9696
urmi	9697
uron	9698
asima	9699
orter	9700
oput	9701
reil	9702
utva	9703
vene	9704
suv	9705
suna	9706
rich	9707
irsti	9708
assar	9709
uid	9710
katse	9711
ksin	9712
mona	9713
oisen	9714
ranz	9715
tory	9716
stut	9717
raad	9718
unnit	9719
arib	9720
##uez	9721
impa	9722
akub	9723
lym	9724
ainui	9725
ntis	9726
enäh	9727
empe	9728
astro	9729
räss	9730
naud	9731
palau	9732
urry	9733
huuta	9734
raatt	9735
lains	9736
mmil	9737
eleg	9738
wich	9739
imien	9740
nath	9741
240	9742
etoj	9743
kurss	9744
äkel	9745
leipi	9746
##psy	9747
tauno	9748
wegia	9749
ittis	9750
walt	9751
waldo	9752
kopra	9753
narva	9754
carr	9755
tria	9756
uuhaa	9757
cont	9758
tsom	9759
mazda	9760
oxf	9761
lupia	9762
lasei	9763
craig	9764
eke	9765
gand	9766
iite	9767
que	9768
rte	9769
swe	9770
äes	9771
äkem	9772
€.	9773
##ken	9774
##ller	9775
andi	9776
onte	9777
tull	9778
etto	9779
alé	9780
kompp	9781
uotan	9782
tärä	9783
kaus	9784
arpi	9785
esong	9786
aijer	9787
naru	9788
elce	9789
käpy	9790
nora	9791
ääll	9792
leiki	9793
liin	9794
livel	9795
urpa	9796
urro	9797
kino	9798
kinn	9799
ajev	9800
solu	9801
tunno	9802
ience	9803
tand	9804
itam	9805
rib	9806
anat	9807
oup	9808
ouhe	9809
laste	9810
hill	9811
neulo	9812
karun	9813
evt	9814
manni	9815
attai	9816
divar	9817
kenut	9818
iisto	9819
##hie	9820
aram	9821
rity	9822
adre	9823
inei	9824
abre	9825
aarni	9826
kkail	9827
aidž	9828
duck	9829
cam	9830
talut	9831
way	9832
arkku	9833
ilain	9834
ionel	9835
erek	9836
airb	9837
bella	9838
tempa	9839
hold	9840
ratsu	9841
carlo	9842
rook	9843
touko	9844
dead	9845
kainu	9846
duuni	9847
arvas	9848
www	9849
down	9850
ötila	9851
bö	9852
cd	9853
hul	9854
imist	9855
lsa	9856
lkon	9857
mesta	9858
mön	9859
nja	9860
oras	9861
wrig	9862
öre	9863
##io	9864
##gä	9865
##cc	9866
##yh	9867
##sah	9868
tappi	9869
onan	9870
onaa	9871
koju	9872
##vah	9873
eipas	9874
katu	9875
aado	9876
aral	9877
mati	9878
mara	9879
maje	9880
sada	9881
sampp	9882
nad	9883
nain	9884
uume	9885
past	9886
##lat	9887
itra	9888
rady	9889
hag	9890
auhe	9891
sene	9892
lippi	9893
mukaa	9894
voimi	9895
ttik	9896
ieber	9897
iepin	9898
iemur	9899
asip	9900
orre	9901
oher	9902
kauks	9903
taid	9904
roz	9905
rokin	9906
ahoit	9907
suni	9908
ripa	9909
amy	9910
muuri	9911
ikkia	9912
irla	9913
irve	9914
turb	9915
maana	9916
eemil	9917
ainam	9918
otes	9919
ouch	9920
ruusu	9921
istuk	9922
datan	9923
ijaa	9924
rang	9925
torve	9926
tulko	9927
allu	9928
##bby	9929
hing	9930
lyk	9931
ssan	9932
hoeni	9933
mpie	9934
takku	9935
come	9936
alez	9937
alep	9938
nauho	9939
okm	9940
eniä	9941
onees	9942
back	9943
irtf	9944
orsku	9945
oped	9946
koota	9947
entor	9948
eymar	9949
oroz	9950
geel	9951
impu	9952
hirly	9953
uiten	9954
patru	9955
young	9956
assis	9957
firmo	9958
urtb	9959
ikrof	9960
uzu	9961
fueng	9962
ward	9963
award	9964
rumba	9965
ortod	9966
katem	9967
wwf	9968
vauva	9969
amsay	9970
iitep	9971
cel	9972
cop	9973
ece	9974
hine	9975
hre	9976
lel	9977
lesta	9978
oys	9979
och	9980
skau	9981
öv	9982
ömp	9983
šoi	9984
##zer	9985
##cd	9986
##ye	9987
##ür	9988
##tia	9989
anda	9990
jare	9991
inot	9992
inwar	9993
alc	9994
koist	9995
ssab	9996
karo	9997
erki	9998
##kow	9999
aruna	10000
esko	10001
masa	10002
ilkk	10003
salem	10004
napat	10005
eltta	10006
eluun	10007
paj	10008
neb	10009
iht	10010
leini	10011
liz	10012
liho	10013
pere	10014
heal	10015
orja	10016
orce	10017
miner	10018
opter	10019
ophie	10020
illar	10021
uters	10022
vensk	10023
##soy	10024
uhje	10025
meil	10026
marc	10027
dec	10028
stuu	10029
verko	10030
ainat	10031
pepe	10032
range	10033
nyk	10034
allen	10035
rinne	10036
agan	10037
liive	10038
uplas	10039
musk	10040
ioon	10041
harma	10042
hert	10043
##ssy	10044
tisti	10045
kirby	10046
ammy	10047
ynti	10048
costa	10049
autak	10050
okan	10051
kkas	10052
ahara	10053
125	10054
ibi	10055
scu	10056
andr	10057
ikil	10058
ilat	10059
omppu	10060
ecim	10061
grant	10062
weber	10063
lkoi	10064
rophy	10065
ujah	10066
dopt	10067
ämppä	10068
elvy	10069
tolpa	10070
sirku	10071
leag	10072
liuta	10073
yijy	10074
wars	10075
achuk	10076
ethro	10077
rnest	10078
ilano	10079
ilpis	10080
direc	10081
buua	10082
vasem	10083
dhabi	10084
girl	10085
hpk	10086
rammy	10087
ynnis	10088
šoigu	10089
clo	10090
got	10091
hös	10092
iulu	10093
lh	10094
vdi	10095
wsoy	10096
äx	10097
üller	10098
##ai	10099
##nik	10100
angi	10101
isp	10102
jao	10103
jalle	10104
onc	10105
etol	10106
##tos	10107
als	10108
aluu	10109
uoks	10110
till	10111
kaj	10112
kahi	10113
##ush	10114
arkea	10115
arber	10116
asser	10117
##mas	10118
maku	10119
stak	10120
ilko	10121
napp	10122
nakki	10123
elkka	10124
uusa	10125
toko	10126
midd	10127
migr	10128
auda	10129
iider	10130
piri	10131
sohl	10132
lomi	10133
ulku	10134
asil	10135
orr	10136
ohva	10137
lumo	10138
alau	10139
roë	10140
reu	10141
real	10142
utler	10143
suik	10144
stoi	10145
isil	10146
amk	10147
amor	10148
säry	10149
marca	10150
uida	10151
inamo	10152
ärmän	10153
ough	10154
ilit	10155
rumpu	10156
rande	10157
nuol	10158
ingle	10159
laput	10160
aller	10161
sinet	10162
oose	10163
esee	10164
uppar	10165
mance	10166
iisas	10167
mount	10168
ege	10169
num	10170
uvai	10171
coll	10172
matsi	10173
ämärä	10174
ibel	10175
ibor	10176
talko	10177
inkut	10178
olleg	10179
arkel	10180
175	10181
lievä	10182
maisa	10183
eppä	10184
uguay	10185
ellow	10186
leif	10187
oger	10188
kumma	10189
etiz	10190
malag	10191
ioid	10192
ared	10193
yoon	10194
fay	10195
uivas	10196
audio	10197
rönkä	10198
tabu	10199
astor	10200
uunar	10201
mls	10202
iffel	10203
lipui	10204
eipz	10205
ophia	10206
aguar	10207
abreu	10208
hösf	10209
04	10210
00	10211
bd	10212
bin	10213
bba	10214
cle	10215
ddie	10216
eyttä	10217
gina	10218
ioit	10219
ior	10220
jes	10221
mina	10222
nve	10223
ndo	10224
qr	10225
ré	10226
umme	10227
wc	10228
wan	10229
xc	10230
##zar	10231
##dz	10232
##df	10233
##pr	10234
##üri	10235
tac	10236
##sia	10237
ende	10238
enzo	10239
andu	10240
koppi	10241
ssak	10242
eill	10243
##ket	10244
tech	10245
lag	10246
laser	10247
asp	10248
##mah	10249
ilon	10250
ilar	10251
vili	10252
nag	10253
##lak	10254
rama	10255
hae	10256
oill	10257
typer	10258
suor	10259
ihti	10260
ääse	10261
leb	10262
keir	10263
pihl	10264
saali	10265
saavu	10266
som	10267
sovu	10268
yskow	10269
tenho	10270
hemmo	10271
lous	10272
uussi	10273
uusto	10274
ahna	10275
utš	10276
utton	10277
##päl	10278
seulo	10279
ryer	10280
march	10281
koru	10282
oteu	10283
ouisi	10284
rude	10285
ijö	10286
tort	10287
tore	10288
ikol	10289
hien	10290
##pur	10291
tulta	10292
suht	10293
äyk	10294
neula	10295
ampin	10296
lanic	10297
hanhi	10298
ttyvä	10299
alia	10300
dogg	10301
silt	10302
mou	10303
modi	10304
llois	10305
hoigu	10306
eafs	10307
akara	10308
egger	10309
ijai	10310
olah	10311
oukku	10312
cour	10313
steen	10314
aked	10315
vieru	10316
ttise	10317
ullin	10318
andra	10319
gala	10320
vihko	10321
ailer	10322
ipsu	10323
eduz	10324
iger	10325
uimar	10326
ädän	10327
udel	10328
owen	10329
eresa	10330
ourg	10331
ainio	10332
ainij	10333
kkien	10334
airf	10335
230	10336
ntui	10337
osef	10338
riepo	10339
pence	10340
aakal	10341
auhun	10342
patj	10343
itusj	10344
graff	10345
look	10346
gpt	10347
aldwi	10348
klah	10349
pirun	10350
scob	10351
anye	10352
acobs	10353
höy	10354
öpö	10355
zemp	10356
iidak	10357
einie	10358
lanad	10359
ülken	10360
ürgen	10361
fayed	10362
epar	10363
fis	10364
gal	10365
glam	10366
lkk	10367
odia	10368
pse	10369
rys	10370
rén	10371
uy	10372
ujo	10373
åkan	10374
öh	10375
##lin	10376
##vö	10377
##pt	10378
##bl	10379
##ble	10380
llaa	10381
enver	10382
inist	10383
inkun	10384
kukka	10385
täin	10386
erem	10387
aaku	10388
teph	10389
sim	10390
siaal	10391
llak	10392
esl	10393
esis	10394
esku	10395
marj	10396
ilde	10397
nast	10398
nass	10399
raft	10400
nouto	10401
iid	10402
iipal	10403
ots	10404
saab	10405
lice	10406
puj	10407
puro	10408
soff	10409
orde	10410
minsk	10411
ollaa	10412
tango	10413
terva	10414
ahke	10415
ahmed	10416
edge	10417
rech	10418
reiki	10419
tarl	10420
rive	10421
aser	10422
ntoi	10423
irvel	10424
juri	10425
trea	10426
virk	10427
ainau	10428
##pol	10429
ätt	10430
##gie	10431
iero	10432
pyst	10433
ranco	10434
trum	10435
hic	10436
lapun	10437
even	10438
murza	10439
onner	10440
tv1	10441
ablo	10442
autai	10443
euraa	10444
lääni	10445
gamb	10446
ware	10447
arker	10448
bry	10449
einu	10450
antia	10451
askis	10452
epin	10453
itok	10454
kry	10455
etam	10456
190	10457
260	10458
imppa	10459
hirs	10460
found	10461
vetš	10462
emor	10463
derby	10464
aunaa	10465
garde	10466
yip	10467
yivät	10468
affa	10469
dolf	10470
winb	10471
snet	10472
uxemb	10473
neule	10474
vdij	10475
bs	10476
bea	10477
dri	10478
pér	10479
upu	10480
uch	10481
vg	10482
yb	10483
äitä	10484
ås	10485
##av	10486
##cs	10487
##žja	10488
##ón	10489
taiki	10490
##lly	10491
jax	10492
almar	10493
karja	10494
ervo	10495
eras	10496
olhu	10497
arel	10498
arvia	10499
may	10500
ilppi	10501
sahl	10502
vita	10503
vivia	10504
##rac	10505
eld	10506
uuka	10507
ushi	10508
ustil	10509
toler	10510
nian	10511
nizh	10512
its	10513
mioi	10514
miini	10515
raci	10516
neit	10517
iame	10518
käri	10519
vään	10520
urner	10521
istav	10522
soke	10523
sokko	10524
ietil	10525
lokse	10526
lux	10527
ehma	10528
ient	10529
rover	10530
edm	10531
reis	10532
reivi	10533
anak	10534
iknik	10535
rkka	10536
meko	10537
yösk	10538
irik	10539
demil	10540
entra	10541
emmän	10542
annah	10543
ills	10544
uusio	10545
ouh	10546
ouka	10547
amar	10548
rup	10549
nelo	10550
amppi	10551
voro	10552
sääd	10553
iisil	10554
unak	10555
eger	10556
azon	10557
nujer	10558
cora	10559
rikoi	10560
lmat	10561
elast	10562
ancia	10563
stent	10564
aitou	10565
rash	10566
ttrac	10567
ekh	10568
sanat	10569
bad	10570
isker	10571
mmas	10572
ardif	10573
ompel	10574
liehu	10575
rence	10576
ersh	10577
jano	10578
tamat	10579
ugene	10580
kook	10581
ukais	10582
outsi	10583
urek	10584
surku	10585
surff	10586
bile	10587
nerg	10588
340	10589
htum	10590
uuhta	10591
benf	10592
pong	10593
lead	10594
gency	10595
ikrom	10596
cyru	10597
arpee	10598
griff	10599
kiira	10600
wolff	10601
migri	10602
ynamo	10603
deep	10604
svalt	10605
ižžja	10606
ecep	10607
ibila	10608
htel	10609
hjo	10610
kb	10611
lman	10612
nrj	10613
rw	10614
rro	10615
rvan	10616
slam	10617
äkki	10618
ölli	10619
##tt	10620
##kt	10621
##gea	10622
##hc	10623
##jk	10624
tadi	10625
inkki	10626
etka	10627
etod	10628
alsa	10629
uost	10630
tip	10631
eiva	10632
aril	10633
##deb	10634
simb	10635
sieni	10636
ilis	10637
ilje	10638
sara	10639
aijo	10640
aida	10641
nakin	10642
##pai	10643
niput	10644
itco	10645
rauk	10646
hamar	10647
##lot	10648
oivio	10649
suol	10650
auder	10651
liini	10652
posi	10653
polar	10654
sovit	10655
hepo	10656
love	10657
luja	10658
ehmi	10659
taide	10660
termi	10661
ahma	10662
eddi	10663
allak	10664
varpu	10665
äijy	10666
helma	10667
mep	10668
mekko	10669
mehev	10670
irni	10671
turmi	10672
uivat	10673
jurs	10674
avik	10675
trang	10676
ajah	10677
haaga	10678
illin	10679
ilib	10680
lash	10681
äyhä	10682
arihu	10683
lanet	10684
oosi	10685
karu	10686
elleg	10687
idney	10688
imf	10689
teeti	10690
iani	10691
motor	10692
liste	10693
eader	10694
unaj	10695
ssin	10696
uhkar	10697
acho	10698
kärpä	10699
add	10700
tonni	10701
abal	10702
step	10703
aye	10704
ruuhk	10705
155	10706
oecd	10707
tahna	10708
call	10709
calle	10710
care	10711
gaz	10712
ölkky	10713
ommer	10714
bom	10715
ipru	10716
ilau	10717
melo	10718
ugby	10719
umppi	10720
hts	10721
wei	10722
aakel	10723
arei	10724
wald	10725
disko	10726
fron	10727
ktp	10728
äväkä	10729
idol	10730
örrö	10731
conor	10732
arhub	10733
warze	10734
ountr	10735
orsaa	10736
siep	10737
tukke	10738
ijöi	10739
-,	10740
aer	10741
coli	10742
glö	10743
iy	10744
kne	10745
lme	10746
mk	10747
nsu	10748
rr	10749
rna	10750
uent	10751
wine	10752
älli	10753
öise	10754
öss	10755
€)	10756
€,	10757
##ag	10758
##gl	10759
##bh	10760
##tit	10761
enita	10762
anske	10763
once	10764
vaha	10765
uoan	10766
tiiv	10767
erka	10768
erlev	10769
aadu	10770
aaban	10771
old	10772
teu	10773
tempp	10774
arre	10775
esh	10776
sem	10777
sever	10778
mate	10779
maito	10780
ilva	10781
savi	10782
aima	10783
naku	10784
elman	10785
paho	10786
##kul	10787
itz	10788
milo	10789
radar	10790
iaz	10791
aiska	10792
aisto	10793
oihah	10794
tyl	10795
keki	10796
keuru	10797
pii	10798
pio	10799
liuo	10800
lost	10801
ulkki	10802
##oth	10803
osse	10804
ohmu	10805
ltain	10806
ntan	10807
kyr	10808
kers	10809
reko	10810
repo	10811
sukki	10812
akr	10813
akut	10814
isit	10815
ylan	10816
amel	10817
amul	10818
uhki	10819
anam	10820
irst	10821
uila	10822
tran	10823
pede	10824
illu	10825
aussi	10826
ouge	10827
amad	10828
##hur	10829
ics	10830
nyr	10831
##ury	10832
rind	10833
amps	10834
ompa	10835
konk	10836
agdeb	10837
attar	10838
ttömä	10839
iiska	10840
mok	10841
ihara	10842
ammen	10843
ynni	10844
innai	10845
adju	10846
nuku	10847
astin	10848
astre	10849
copa	10850
cove	10851
cool	10852
rädy	10853
abra	10854
##näs	10855
gaga	10856
lordi	10857
bara	10858
latva	10859
ates	10860
135	10861
diak	10862
artia	10863
rend	10864
outui	10865
goms	10866
lipuk	10867
ovak	10868
riesa	10869
##cid	10870
##cio	10871
vitse	10872
okun	10873
reima	10874
diska	10875
ullat	10876
anuel	10877
askul	10878
aasaa	10879
kupli	10880
460	10881
lammi	10882
650	10883
rowl	10884
lbon	10885
cruis	10886
table	10887
glau	10888
rodri	10889
watf	10890
sbu	10891
gtx	10892
yuki	10893
hihna	10894
satoa	10895
kiekk	10896
colap	10897
050	10898
mönki	10899
uzuki	10900
bdul	10901
atil	10902
kh	10903
nj	10904
né	10905
pc	10906
rest	10907
uff	10908
wort	10909
zet	10910
án	10911
äppi	10912
##vg	10913
##hel	10914
##jl	10915
##wl	10916
##fo	10917
##xo	10918
##és	10919
##ño	10920
##tid	10921
enos	10922
aner	10923
inga	10924
inea	10925
vador	10926
alet	10927
almu	10928
jov	10929
koni	10930
konnu	10931
kouru	10932
uoko	10933
uoska	10934
eiger	10935
ted	10936
arman	10937
arvai	10938
armai	10939
simpu	10940
laka	10941
laku	10942
lapu	10943
lampp	10944
eskon	10945
esley	10946
asel	10947
main	10948
##etš	10949
aivel	10950
näpä	10951
usina	10952
tove	10953
atis	10954
atja	10955
athar	10956
nier	10957
itš	10958
miv	10959
miya	10960
rass	10961
kid	10962
unge	10963
##käl	10964
nout	10965
yhm	10966
led	10967
kepe	10968
urray	10969
lood	10970
oraa	10971
kauhu	10972
luko	10973
ehnä	10974
roza	10975
itai	10976
reini	10977
uth	10978
utter	10979
riä	10980
riide	10981
rico	10982
menta	10983
ylsy	10984
ylvö	10985
eensa	10986
amol	10987
uhut	10988
katte	10989
linko	10990
eeli	10991
eemi	10992
pep	10993
iiht	10994
torm	10995
kuur	10996
arie	10997
ielo	10998
täjän	10999
ides	11000
iori	11001
ammal	11002
ammar	11003
kalt	11004
lissa	11005
äytö	11006
väitt	11007
antz	11008
act	11009
kärp	11010
ennar	11011
inez	11012
##näv	11013
105	11014
urkis	11015
duro	11016
rund	11017
talg	11018
ikein	11019
ttomi	11020
kaivo	11021
epon	11022
liede	11023
ersun	11024
letku	11025
eppe	11026
epper	11027
apper	11028
umpe	11029
svens	11030
ännik	11031
kuole	11032
mökin	11033
cars	11034
tlan	11035
beng	11036
aunii	11037
nilkk	11038
sitom	11039
ooth	11040
##mwf	11041
känni	11042
affe	11043
utam	11044
anyu	11045
nakut	11046
axel	11047
jusel	11048
hesb	11049
lasej	11050
rypto	11051
roduc	11052
cloo	11053
tream	11054
kryp	11055
drift	11056
ouhki	11057
glög	11058
bear	11059
cr	11060
eul	11061
gan	11062
hør	11063
iine	11064
lite	11065
lrt	11066
miks	11067
oan	11068
oksa	11069
rje	11070
sda	11071
tras	11072
usit	11073
vor	11074
viko	11075
ägg	11076
##ão	11077
tale	11078
anmor	11079
inb	11080
inho	11081
inze	11082
koos	11083
eijer	11084
kare	11085
erj	11086
ery	11087
tef	11088
tepa	11089
telli	11090
arppa	11091
arch	11092
arper	11093
siint	11094
sippo	11095
lal	11096
lax	11097
lace	11098
laza	11099
asmir	11100
olik	11101
aivio	11102
pain	11103
pake	11104
pajo	11105
näj	11106
##nap	11107
##lau	11108
hamp	11109
oija	11110
oimu	11111
vällä	11112
##lei	11113
auras	11114
otr	11115
otsh	11116
sanaa	11117
kep	11118
livat	11119
liber	11120
pollo	11121
urja	11122
issaa	11123
uktö	11124
toivu	11125
sokea	11126
iemen	11127
lohe	11128
ulina	11129
osni	11130
oitis	11131
rota	11132
aluma	11133
kero	11134
rew	11135
ries	11136
rippe	11137
eriö	11138
##vud	11139
##päs	11140
eiss	11141
uhl	11142
vaiva	11143
särö	11144
margo	11145
katz	11146
kater	11147
deut	11148
verkk	11149
kisso	11150
iihi	11151
älbe	11152
mitch	11153
ruutu	11154
tormy	11155
hila	11156
rissa	11157
ampur	11158
ario	11159
agna	11160
antan	11161
immo	11162
idnap	11163
dog	11164
molly	11165
lisuk	11166
ikar	11167
kirpp	11168
aitau	11169
kilp	11170
nuja	11171
cob	11172
comm	11173
attia	11174
107	11175
allow	11176
akobs	11177
enger	11178
sca	11179
huuma	11180
ttoa	11181
atik	11182
kairo	11183
rsan	11184
opper	11185
bah	11186
sentt	11187
ions	11188
mirva	11189
read	11190
purs	11191
lone	11192
ecmwf	11193
kurvi	11194
field	11195
oral	11196
280	11197
oivas	11198
yoav	11199
hatc	11200
htaja	11201
330	11202
arom	11203
upper	11204
ullek	11205
iivas	11206
ufvud	11207
lban	11208
aahar	11209
buffe	11210
olves	11211
hawn	11212
pihvi	11213
leuan	11214
öllö	11215
rainb	11216
court	11217
bsw	11218
rwin	11219
néll	11220
02	11221
agar	11222
aetz	11223
bor	11224
cir	11225
cand	11226
ech	11227
fö	11228
grin	11229
gos	11230
hli	11231
kho	11232
less	11233
lger	11234
moit	11235
nsk	11236
qu	11237
qua	11238
rkei	11239
sme	11240
ues	11241
wp	11242
xt	11243
ävis	11244
åbo	11245
ст	11246
##iz	11247
##kw	11248
##ht	11249
##min	11250
##cal	11251
tade	11252
tauru	11253
enm	11254
anhe	11255
ankka	11256
jaksa	11257
onkai	11258
##lik	11259
vaja	11260
eton	11261
etero	11262
alpe	11263
kuisk	11264
##val	11265
##mei	11266
eimah	11267
ersi	11268
erse	11269
aaso	11270
aapu	11271
tees	11272
arpe	11273
arvaa	11274
lair	11275
laho	11276
lakko	11277
olio	11278
savo	11279
vim	11280
elaa	11281
pata	11282
uster	11283
tov	11284
touru	11285
ith	11286
itsu	11287
rava	11288
iacu	11289
hara	11290
happy	11291
iipp	11292
lex	11293
lear	11294
pilot	11295
saap	11296
liti	11297
lipe	11298
pero	11299
kini	11300
sou	11301
ief	11302
iesi	11303
iemas	11304
helli	11305
lupi	11306
taime	11307
opkin	11308
ienne	11309
alui	11310
aluv	11311
reta	11312
sumu	11313
suek	11314
rippi	11315
töl	11316
ylyn	11317
amba	11318
stig	11319
rkko	11320
yöd	11321
irppi	11322
assaa	11323
deg	11324
deo	11325
deba	11326
ytk	11327
linss	11328
##dig	11329
alley	11330
älve	11331
haata	11332
tavar	11333
oux	11334
ruko	11335
ico	11336
salpa	11337
atam	11338
lance	11339
lanco	11340
ookas	11341
agl	11342
upon	11343
mants	11344
lypsy	11345
iisku	11346
arth	11347
kirch	11348
laime	11349
astma	11350
yrön	11351
yrnäv	11352
ancho	11353
elmer	11354
ruuat	11355
taht	11356
cale	11357
aeg	11358
sett	11359
aitt	11360
obje	11361
bobby	11362
huij	11363
bamb	11364
aadut	11365
iguez	11366
onté	11367
145	11368
willa	11369
omppa	11370
lieke	11371
ronni	11372
reat	11373
llio	11374
skaj	11375
sort	11376
lond	11377
ecca	11378
okei	11379
uleba	11380
alves	11381
ogan	11382
ränn	11383
aalas	11384
web	11385
maski	11386
uento	11387
logg	11388
hitu	11389
edof	11390
andez	11391
utik	11392
trot	11393
tric	11394
lisee	11395
askil	11396
kosm	11397
okkar	11398
horm	11399
glen	11400
ortol	11401
tatko	11402
ndiat	11403
hukr	11404
phone	11405
öreb	11406
odiaq	11407
sokeu	11408
worth	11409
.)	11410
09	11411
ader	11412
aero	11413
bush	11414
bkt	11415
epa	11416
fen	11417
get	11418
gas	11419
juk	11420
mol	11421
ovio	11422
pkk	11423
rel	11424
spo	11425
sher	11426
wik	11427
ypo	11428
zu	11429
åke	11430
ång	11431
šo	11432
на	11433
##zu	11434
##if	11435
##eb	11436
##ov	11437
##hma	11438
##wo	11439
##ée	11440
taksi	11441
tampo	11442
ender	11443
enze	11444
anes	11445
isc	11446
onttu	11447
inikk	11448
##itz	11449
tumpi	11450
tukko	11451
alva	11452
altu	11453
koin	11454
kulo	11455
kuop	11456
kalor	11457
aatta	11458
olver	11459
arff	11460
argea	11461
latur	11462
seg	11463
seo	11464
seal	11465
mask	11466
marju	11467
ilet	11468
ilju	11469
sade	11470
vioi	11471
vive	11472
vihar	11473
##mic	11474
aiut	11475
aippa	11476
naz	11477
elka	11478
elkk	11479
pate	11480
##nas	11481
itke	11482
itro	11483
midt	11484
##mpä	11485
aisut	11486
##lop	11487
unde	11488
nohy	11489
augh	11490
ihar	11491
lech	11492
lilla	11493
pop	11494
ursa	11495
urbo	11496
puput	11497
soja	11498
##had	11499
iede	11500
iello	11501
hem	11502
ormu	11503
orge	11504
ohra	11505
hyg	11506
ehen	11507
opis	11508
uuss	11509
kyrö	11510
ahm	11511
ahli	11512
äsy	11513
reve	11514
reiv	11515
suppe	11516
rier	11517
rica	11518
##vun	11519
tuoki	11520
tamaa	11521
##mos	11522
rynn	11523
vell	11524
irona	11525
assat	11526
marq	11527
uill	11528
uivi	11529
yttel	11530
pare	11531
verb	11532
verh	11533
##gaz	11534
rud	11535
ijoi	11536
ranne	11537
uiska	11538
ikor	11539
hio	11540
urhei	11541
##url	11542
sinis	11543
lanc	11544
hane	11545
liie	11546
immer	11547
sääs	11548
lykä	11549
mola	11550
önä	11551
achi	11552
innaa	11553
laivo	11554
laida	11555
nisko	11556
aravo	11557
eith	11558
egse	11559
yrkkö	11560
räpä	11561
abah	11562
jousi	11563
spd	11564
iups	11565
oulin	11566
sitoi	11567
enget	11568
sche	11569
wadd	11570
arkti	11571
ksua	11572
oney	11573
boy	11574
huivi	11575
bab	11576
base	11577
kkun	11578
185	11579
uukku	11580
barde	11581
owino	11582
ergh	11583
erros	11584
lieki	11585
etab	11586
koodi	11587
erraf	11588
aaval	11589
outl	11590
äpy	11591
kumpa	11592
luumu	11593
gebh	11594
weins	11595
iusaa	11596
arey	11597
nnett	11598
anuck	11599
320	11600
tikku	11601
365	11602
ravd	11603
cean	11604
rthur	11605
uvent	11606
conne	11607
work	11608
duuna	11609
erätt	11610
siipi	11611
pihv	11612
hurmo	11613
riday	11614
ujut	11615
sotki	11616
rück	11617
grek	11618
pvl	11619
iselt	11620
kpl	11621
peed	11622
comeb	11623
reuno	11624
nassr	11625
teuro	11626
uthit	11627
otret	11628
itsub	11629
aeghe	11630
cz	11631
cs	11632
cos	11633
dv	11634
evel	11635
ekem	11636
fut	11637
fine	11638
feld	11639
htee	11640
hbo	11641
iul	11642
ivin	11643
lca	11644
mtk	11645
nyö	11646
nana	11647
ndu	11648
okko	11649
obba	11650
pisi	11651
så	11652
uaa	11653
uvo	11654
ála	11655
äik	11656
##uer	11657
##dg	11658
##del	11659
##cho	11660
##ña	11661
tamm	11662
enzi	11663
anmar	11664
isch	11665
tudy	11666
alke	11667
alvin	11668
alzb	11669
algor	11670
koot	11671
kuki	11672
tiva	11673
tiff	11674
eiän	11675
kakka	11676
karju	11677
kammo	11678
erpa	11679
aapi	11680
aaska	11681
aajan	11682
arku	11683
arno	11684
arley	11685
siru	11686
lapas	11687
asch	11688
asco	11689
ilin	11690
ilpe	11691
ilvis	11692
saka	11693
viev	11694
naha	11695
när	11696
näppä	11697
nir	11698
##mmä	11699
mid	11700
mix	11701
iakko	11702
läpä	11703
##lom	11704
##uld	11705
aikur	11706
oikar	11707
väy	11708
otš	11709
kell	11710
pice	11711
urra	11712
pullo	11713
iekka	11714
ulkka	11715
asiv	11716
asik	11717
osch	11718
maar	11719
iiker	11720
euhu	11721
euran	11722
tans	11723
repu	11724
uolan	11725
vents	11726
sub	11727
suri	11728
summ	11729
riff	11730
rimpu	11731
vaat	11732
sämp	11733
rype	11734
turko	11735
vanto	11736
juju	11737
ytin	11738
tron	11739
näytt	11740
parv	11741
ntei	11742
nger	11743
edell	11744
altam	11745
uutav	11746
ärsi	11747
outaa	11748
rusi	11749
hipo	11750
aihee	11751
annek	11752
lanch	11753
kars	11754
agua	11755
evr	11756
täji	11757
dora	11758
lena	11759
umaa	11760
öykkä	11761
uinn	11762
tomaa	11763
home	11764
holo	11765
acra	11766
arat	11767
abdo	11768
lahke	11769
steba	11770
anger	11771
ruua	11772
heter	11773
128	11774
ibom	11775
afar	11776
andes	11777
gahr	11778
adim	11779
aitur	11780
visur	11781
arjas	11782
salah	11783
bale	11784
137	11785
orgh	11786
jie	11787
165	11788
gru	11789
ronor	11790
purt	11791
mci	11792
behm	11793
opio	11794
umput	11795
olkut	11796
ötkö	11797
aasto	11798
reich	11799
ullah	11800
viroa	11801
ultq	11802
bib	11803
tiku	11804
evol	11805
360	11806
örkö	11807
reek	11808
kitu	11809
keila	11810
const	11811
elpy	11812
uulok	11813
ecker	11814
sitoa	11815
offey	11816
480	11817
rjala	11818
kosme	11819
570	11820
hanat	11821
ryant	11822
avez	11823
woke	11824
ucci	11825
eijuu	11826
990	11827
rdoğ	11828
tatj	11829
öytyy	11830
flf	11831
härmä	11832
cliff	11833
uerto	11834
plodi	11835
urmio	11836
ömpel	11837
knech	11838
iinej	11839
trasb	11840
hliz	11841
aerob	11842
bite	11843
bent	11844
cort	11845
clar	11846
cél	11847
djer	11848
ddr	11849
eol	11850
fd	11851
fy	11852
fü	11853
gg	11854
hlo	11855
ippi	11856
jhl	11857
jvg	11858
ló	11859
nca	11860
pm	11861
qui	11862
risi	11863
sf	11864
sri	11865
sve	11866
sver	11867
than	11868
uver	11869
yj	11870
zzy	11871
åt	11872
öf	11873
##ilo	11874
##plä	11875
##ás	11876
tali	11877
tara	11878
##sio	11879
##tim	11880
andar	11881
jaro	11882
onde	11883
iny	11884
intta	11885
tuppa	11886
##aat	11887
aldo	11888
jovi	11889
uoksa	11890
täis	11891
täpö	11892
tig	11893
##mez	11894
eida	11895
eippo	11896
kamar	11897
eres	11898
erne	11899
ertun	11900
aame	11901
oloni	11902
ardo	11903
armor	11904
siit	11905
lamp	11906
laue	11907
lakka	11908
lampu	11909
asis	11910
assu	11911
seik	11912
mado	11913
maca	11914
sao	11915
say	11916
aiha	11917
aido	11918
aipe	11919
aipal	11920
naj	11921
elsi	11922
uumo	11923
usch	11924
tottu	11925
rako	11926
rassa	11927
ramme	11928
##vil	11929
ssää	11930
haya	11931
##lek	11932
kelle	11933
lier	11934
lieme	11935
popin	11936
urho	11937
istai	11938
pura	11939
aikar	11940
ieet	11941
heer	11942
ulssi	11943
orkka	11944
osf	11945
oskia	11946
ohol	11947
ehta	11948
ollu	11949
alamy	11950
kye	11951
roma	11952
ahla	11953
edot	11954
isemp	11955
rej	11956
rex	11957
reck	11958
riana	11959
riita	11960
rient	11961
kannu	11962
varsa	11963
iitos	11964
meet	11965
mehua	11966
def	11967
linnu	11968
parra	11969
uat	11970
ajal	11971
ajaj	11972
##pos	11973
pros	11974
monde	11975
austi	11976
istro	11977
rug	11978
rupe	11979
day	11980
kuulo	11981
icke	11982
ellik	11983
allaa	11984
olov	11985
ampan	11986
lanka	11987
karvi	11988
otima	11989
aliba	11990
hup	11991
huff	11992
hints	11993
murro	11994
dii	11995
kenno	11996
lyp	11997
mora	11998
köyh	11999
kömmä	12000
artut	12001
acia	12002
ynch	12003
eitot	12004
egen	12005
ritc	12006
olap	12007
cori	12008
abel	12009
abri	12010
orval	12011
iinat	12012
jef	12013
ayla	12014
math	12015
oonat	12016
iukaa	12017
oyer	12018
ukkah	12019
cast	12020
afe	12021
gaze	12022
huul	12023
ommel	12024
yttäj	12025
ankit	12026
rshad	12027
bock	12028
esäku	12029
tinno	12030
radc	12031
salak	12032
napit	12033
igg	12034
ontro	12035
odig	12036
omeh	12037
yego	12038
jang	12039
todd	12040
insul	12041
shop	12042
nuken	12043
ugano	12044
teadf	12045
äkke	12046
225	12047
ellov	12048
pilvi	12049
half	12050
rosb	12051
rosvo	12052
oomer	12053
vitu	12054
ujau	12055
auhaa	12056
rams	12057
assel	12058
iipik	12059
tajie	12060
370	12061
ippos	12062
urtis	12063
grönf	12064
ripsi	12065
enett	12066
lauto	12067
auhua	12068
regon	12069
ähety	12070
siivu	12071
krav	12072
winf	12073
mlb	12074
rigož	12075
tupsu	12076
rönnb	12077
rönnh	12078
anity	12079
heart	12080
rossf	12081
nuija	12082
hälv	12083
uhmak	12084
ušev	12085
otshi	12086
gazp	12087
idesz	12088
teflo	12089
fence	12090
šokki	12091
álaga	12092
sämpy	12093
aden	12094
atio	12095
cna	12096
fes	12097
fra	12098
gü	12099
iön	12100
md	12101
mll	12102
mee	12103
mess	12104
ndi	12105
pno	12106
qai	12107
rike	12108
sska	12109
tü	12110
vur	12111
wise	12112
wee	12113
ylo	12114
äsä	12115
##ima	12116
##eo	12117
##sc	12118
##nb	12119
##ns	12120
##con	12121
##jâ	12122
##ро	12123
##ani	12124
ller	12125
anina	12126
inci	12127
tube	12128
##aar	12129
aly	12130
alttu	12131
jost	12132
kovi	12133
koch	12134
erhi	12135
olker	12136
##deh	12137
asso	12138
maita	12139
stab	12140
ild	12141
iltu	12142
ilkko	12143
vivah	12144
aiu	12145
eline	12146
elor	12147
elby	12148
änky	12149
##uul	12150
usr	12151
ustom	12152
tolo	12153
iter	12154
itko	12155
raot	12156
raiv	12157
kitar	12158
ialu	12159
läps	12160
hay	12161
aikk	12162
uner	12163
##nef	12164
aux	12165
kete	12166
lima	12167
lille	12168
urpo	12169
urton	12170
ttiä	12171
iefs	12172
lomp	12173
loppi	12174
loker	12175
order	12176
ossit	12177
maaj	12178
lug	12179
oprah	12180
ienes	12181
roh	12182
romi	12183
roug	12184
ahja	12185
ahne	12186
kermi	12187
edvi	12188
edric	12189
edag	12190
regi	12191
tarra	12192
rime	12193
stoim	12194
kann	12195
töy	12196
amon	12197
äij	12198
helme	12199
säkki	12200
yövä	12201
vetur	12202
##dal	12203
tree	12204
park	12205
ieru	12206
mondo	12207
monza	12208
illon	12209
ärmä	12210
ärpäs	12211
ärnef	12212
oumi	12213
ruis	12214
lasti	12215
uiske	12216
kuuse	12217
pisku	12218
salin	12219
ooney	12220
neea	12221
sinko	12222
ettur	12223
karke	12224
agmar	12225
hani	12226
uplan	12227
##bbi	12228
idf	12229
idge	12230
idjâ	12231
doro	12232
listo	12233
öyvä	12234
önkit	12235
ssuo	12236
hov	12237
homm	12238
acka	12239
kirmu	12240
arav	12241
oniq	12242
bert	12243
oduul	12244
nuh	12245
pand	12246
yrö	12247
yrhö	12248
uvas	12249
aleb	12250
song	12251
ottia	12252
iinas	12253
aymo	12254
102	12255
101	12256
iuas	12257
iukas	12258
arrer	12259
mper	12260
ahama	12261
ladno	12262
caf	12263
andri	12264
ölni	12265
nkoo	12266
adura	12267
ityst	12268
aitis	12269
aitti	12270
arkut	12271
111	12272
entur	12273
ipit	12274
ipon	12275
eanne	12276
ummut	12277
144	12278
alvez	12279
melb	12280
tuhki	12281
izza	12282
avie	12283
nesco	12284
omeon	12285
renda	12286
otox	12287
kraat	12288
guy	12289
uneen	12290
track	12291
umpu	12292
eyes	12293
uleå	12294
ralph	12295
oros	12296
soija	12297
ökkä	12298
eonor	12299
äytet	12300
uente	12301
aakao	12302
rapsu	12303
bub	12304
maxi	12305
amolo	12306
ramer	12307
anuc	12308
nurm	12309
linev	12310
pilar	12311
rtl	12312
ehner	12313
irot	12314
gramm	12315
efner	12316
loosi	12317
ushk	12318
470	12319
ufvan	12320
ttend	12321
rauto	12322
uzb	12323
askie	12324
andor	12325
ulviv	12326
uikku	12327
hormo	12328
720	12329
buumi	12330
kramp	12331
eitos	12332
swan	12333
keiso	12334
rüger	12335
korih	12336
grey	12337
duon	12338
nistr	12339
earma	12340
tupak	12341
wass	12342
ontev	12343
cdc	12344
sadat	12345
oncé	12346
orrel	12347
endez	12348
aerod	12349
iulis	12350
biteb	12351
djerf	12352
vurst	12353
ialue	12354
rough	12355
idjân	12356
07	12357
1x	12358
bet	12359
bing	12360
cri	12361
cza	12362
dino	12363
fro	12364
gård	12365
hden	12366
hop	12367
iw	12368
kv	12369
lro	12370
mce	12371
rton	12372
rsk	12373
rott	12374
sz	12375
tvo	12376
tsu	12377
uppu	12378
xy	12379
ähdä	12380
##zj	12381
##zel	12382
##ij	12383
##vik	12384
##ré	12385
##ub	12386
##gel	12387
##sö	12388
##wb	12389
taur	12390
onder	12391
onea	12392
onya	12393
ines	12394
tukun	12395
alut	12396
alkin	12397
alba	12398
kog	12399
tir	12400
tiot	12401
karj	12402
ersa	12403
erko	12404
erni	12405
aave	12406
olina	12407
esine	12408
asly	12409
setel	12410
maha	12411
ilppu	12412
ilmo	12413
ilmu	12414
ildur	12415
sais	12416
salla	12417
saum	12418
satum	12419
vian	12420
vihe	12421
viine	12422
aihi	12423
aivai	12424
nate	12425
elve	12426
uull	12427
pakki	12428
tost	12429
atku	12430
nika	12431
itso	12432
rab	12433
ravu	12434
rador	12435
kiä	12436
kimpu	12437
kiiru	12438
aisy	12439
aisel	12440
aiski	12441
aisla	12442
hattu	12443
unut	12444
oile	12445
oiju	12446
tyle	12447
type	12448
nouk	12449
nore	12450
ihka	12451
sanan	12452
sanee	12453
pix	12454
saaga	12455
liis	12456
liino	12457
liuh	12458
poor	12459
ksik	12460
##ppö	12461
ukkia	12462
ajist	12463
hea	12464
hey	12465
eside	12466
loju	12467
lobo	12468
lossy	12469
mintu	12470
ohvel	12471
lumme	12472
taju	12473
alum	12474
edar	12475
redi	12476
rihma	12477
akit	12478
apsah	12479
tök	12480
yly	12481
amtid	12482
iitis	12483
anab	12484
iken	12485
ikkee	12486
merz	12487
irnu	12488
marku	12489
uier	12490
uigi	12491
katt	12492
jukar	12493
ollah	12494
trong	12495
kaare	12496
kisoi	12497
user	12498
usero	12499
kassi	12500
montu	12501
astan	12502
myk	12503
myers	12504
ruyne	12505
ellas	12506
puhee	12507
hiia	12508
elod	12509
##ure	12510
rinki	12511
##rea	12512
konve	12513
ood	12514
ooley	12515
ookos	12516
karri	12517
ielu	12518
metso	12519
mikha	12520
imuk	12521
ianl	12522
hardy	12523
hoksa	12524
norsu	12525
acha	12526
aatt	12527
nnam	12528
skis	12529
ymmä	12530
berde	12531
louho	12532
imea	12533
hilux	12534
smit	12535
estr	12536
104	12537
exi	12538
ansik	12539
ietou	12540
ullaa	12541
ibu	12542
campu	12543
idal	12544
eltas	12545
ölin	12546
antos	12547
117	12548
116	12549
ados	12550
uudut	12551
bou	12552
body	12553
endes	12554
enera	12555
latt	12556
antim	12557
ivul	12558
143	12559
udso	12560
gris	12561
ergo	12562
epsu	12563
rahka	12564
rahko	12565
jarl	12566
krik	12567
inski	12568
shor	12569
appel	12570
pör	12571
äihä	12572
thun	12573
iilaa	12574
eyer	12575
icap	12576
ränni	12577
oltin	12578
kouku	12579
ostet	12580
taud	12581
giul	12582
adamu	12583
ymin	12584
290	12585
surmi	12586
reig	12587
imppu	12588
ockas	12589
uenne	12590
uitsi	12591
kätis	12592
onski	12593
fat	12594
fax	12595
380	12596
ivol	12597
magne	12598
390	12599
tohma	12600
vinh	12601
420	12602
aavid	12603
röngä	12604
shifa	12605
filma	12606
crui	12607
lesk	12608
idier	12609
nitsh	12610
rush	12611
aasio	12612
iipai	12613
geog	12614
ommej	12615
grip	12616
ainuv	12617
ahed	12618
kikka	12619
colt	12620
colb	12621
peuro	12622
gym	12623
kpv	12624
wirtz	12625
arnev	12626
baumg	12627
welch	12628
awast	12629
mytro	12630
jauhe	12631
jauho	12632
andic	12633
nummi	12634
minaj	12635
beau	12636
alsam	12637
addik	12638
tyles	12639
nujak	12640
moitu	12641
rynnä	12642
ncap	12643
bul	12644
cn	12645
cho	12646
dro	12647
efe	12648
fed	12649
gj	12650
gent	12651
glor	12652
hmy	12653
iya	12654
jne	12655
kele	12656
kre	12657
mx	12658
mpe	12659
nse	12660
nue	12661
oand	12662
oard	12663
pik	12664
rma	12665
rku	12666
russ	12667
sna	12668
selä	12669
umar	12670
wen	12671
yas	12672
yang	12673
ál	12674
üss	12675
šetš	12676
го	12677
ко	12678
##ez	12679
##ec	12680
##rkö	12681
##blu	12682
##ер	12683
##ли	12684
##ås	12685
tase	12686
llia	12687
anik	12688
anet	12689
anev	12690
anhi	12691
jay	12692
onb	12693
ontu	12694
onba	12695
##lim	12696
inem	12697
inssi	12698
##elo	12699
tulli	12700
vap	12701
etre	12702
alsar	12703
joj	12704
kove	12705
koop	12706
kokka	12707
kokko	12708
##vak	12709
##teå	12710
kay	12711
aaga	12712
aaver	12713
aasin	12714
olhi	12715
arkun	12716
six	12717
siro	12718
later	12719
asha	12720
asvio	12721
secu	12722
mast	12723
magaz	12724
ilaa	12725
sah	12726
saf	12727
sado	12728
nave	12729
elis	12730
elki	12731
elot	12732
uulle	12733
uuilo	12734
äns	12735
ängy	12736
näppi	12737
##rir	12738
atha	12739
atsia	12740
nicu	12741
neva	12742
aiso	12743
haku	12744
hamu	12745
novi	12746
nove	12747
ause	12748
aumaa	12749
iipe	12750
iiras	12751
ottei	12752
keppi	12753
##vor	12754
nytk	12755
mud	12756
mura	12757
urta	12758
ursti	12759
urce	12760
sykk	12761
kinz	12762
sose	12763
soppa	12764
sotur	12765
lokki	12766
tunki	12767
orsi	12768
minna	12769
ohjo	12770
vuok	12771
lunas	12772
ehj	12773
ops	12774
märy	12775
iensi	12776
alam	12777
kyte	12778
kylt	12779
roda	12780
roas	12781
roder	12782
ahl	12783
aher	12784
ahrir	12785
edne	12786
eddy	12787
äster	12788
miset	12789
rez	12790
reeno	12791
vent	12792
suma	12793
stop	12794
kanni	12795
akne	12796
törm	12797
amstr	12798
eisah	12799
isäk	12800
uher	12801
tutka	12802
stiin	12803
vehr	12804
irpa	12805
turve	12806
vant	12807
vana	12808
jumb	12809
deer	12810
demi	12811
trike	12812
eese	12813
eedi	12814
elii	12815
##pei	12816
stuva	12817
vire	12818
verro	12819
kaart	12820
nga	12821
pec	12822
ajav	12823
kors	12824
iihko	12825
iere	12826
monto	12827
ärsä	12828
ärinä	12829
outi	12830
oudu	12831
oisto	12832
dach	12833
elodi	12834
jong	12835
luter	12836
olod	12837
##rez	12838
omel	12839
lane	12840
konna	12841
oog	12842
liigo	12843
antar	12844
evkur	12845
ongor	12846
manti	12847
alid	12848
huh	12849
muru	12850
lenn	12851
dippi	12852
onnel	12853
ovik	12854
urab	12855
iett	12856
köpi	12857
umina	12858
iirus	12859
ead	12860
otat	12861
antsi	12862
hos	12863
hove	12864
hodor	12865
ainuu	12866
ntt	12867
ntto	12868
laid	12869
laidu	12870
ritt	12871
adde	12872
adja	12873
kilve	12874
oukka	12875
nublu	12876
coca	12877
cowb	12878
abe	12879
abo	12880
abina	12881
isak	12882
newt	12883
newy	12884
etup	12885
vilkk	12886
elmaa	12887
aya	12888
amib	12889
uoje	12890
109	12891
aanii	12892
sitta	12893
126	12894
talvi	12895
gai	12896
watk	12897
wamy	12898
miah	12899
allia	12900
entuc	12901
obi	12902
roms	12903
ipun	12904
132	12905
inuhe	12906
uumer	12907
ubut	12908
elua	12909
146	12910
elez	12911
wive	12912
176	12913
ergen	12914
yeong	12915
epsä	12916
liemi	12917
ronny	12918
erei	12919
natri	12920
sorto	12921
eppon	12922
short	12923
etas	12924
erena	12925
etoo	12926
eci	12927
thüri	12928
lapio	12929
ogel	12930
ratc	12931
emaj	12932
gill	12933
mash	12934
reiä	12935
reiti	12936
lasik	12937
ocky	12938
malka	12939
olmes	12940
bukar	12941
mökit	12942
ramma	12943
ärsky	12944
uumaj	12945
trog	12946
dela	12947
örö	12948
uoski	12949
efteå	12950
seid	12951
440	12952
kampa	12953
ismit	12954
heid	12955
ällik	12956
auvol	12957
ulvah	12958
shap	12959
shah	12960
filz	12961
rics	12962
savul	12963
ulvii	12964
byram	12965
uikki	12966
uupum	12967
cromw	12968
dith	12969
uotar	12970
meiju	12971
buum	12972
corve	12973
wolf	12974
nipis	12975
ragon	12976
törhö	12977
iffer	12978
zoff	12979
ncaa	12980
gilb	12981
ašar	12982
önnq	12983
ryyni	12984
ryynä	12985
ranzé	12986
camd	12987
roën	12988
roëni	12989
cleve	12990
tacms	12991
bryan	12992
rrow	12993
sday	12994
vormu	12995
kepti	12996
quare	12997
harav	12998
tölki	12999
äpylä	13000
närp	13001
fdp	13002
tigma	13003
treep	13004
café	13005
thunb	13006
üssel	13007
08	13008
aea	13009
but	13010
dn	13011
dini	13012
día	13013
eku	13014
ekee	13015
ft	13016
hkun	13017
kc	13018
oga	13019
oge	13020
pj	13021
p1	13022
pus	13023
pho	13024
rta	13025
rri	13026
rle	13027
rjo	13028
rran	13029
rtur	13030
ting	13031
tkim	13032
uiko	13033
uppo	13034
uwa	13035
ucid	13036
vp	13037
v8	13038
vito	13039
wwe	13040
yoni	13041
zito	13042
ånes	13043
öide	13044
##ven	13045
##rik	13046
##pil	13047
##jj	13048
##jev	13049
##ен	13050
taiko	13051
##tik	13052
##tif	13053
enko	13054
anz	13055
anhu	13056
anza	13057
anya	13058
isse	13059
inus	13060
inda	13061
tukea	13062
tuiki	13063
etos	13064
##era	13065
alot	13066
alppa	13067
kow	13068
kupi	13069
##vas	13070
##kir	13071
kasa	13072
ermaa	13073
erry	13074
aahu	13075
olje	13076
teit	13077
arol	13078
arev	13079
sima	13080
sivel	13081
sikar	13082
lac	13083
lamme	13084
ladu	13085
eskos	13086
asb	13087
ashin	13088
##mak	13089
maf	13090
magi	13091
ilki	13092
sauru	13093
##mig	13094
nab	13095
naf	13096
nahi	13097
naya	13098
elust	13099
uuru	13100
papa	13101
patti	13102
usine	13103
tolt	13104
nivo	13105
##hei	13106
rame	13107
rada	13108
rakon	13109
neca	13110
kämpä	13111
läty	13112
läisk	13113
had	13114
has	13115
unca	13116
oipil	13117
tyre	13118
nol	13119
taaka	13120
auff	13121
auhoi	13122
iimes	13123
lej	13124
lemi	13125
kepu	13126
lich	13127
mug	13128
pera	13129
pub	13130
pulah	13131
sok	13132
iepa	13133
lope	13134
ulkin	13135
asit	13136
orse	13137
minni	13138
osé	13139
kauti	13140
luc	13141
ehmä	13142
taita	13143
oplop	13144
eung	13145
ienee	13146
alav	13147
suuta	13148
nsai	13149
tankk	13150
rox	13151
rosti	13152
rohl	13153
roud	13154
illem	13155
ahon	13156
rev	13157
resi	13158
redu	13159
reuma	13160
##pid	13161
##vea	13162
riik	13163
riha	13164
eries	13165
akp	13166
apis	13167
ylvi	13168
tamo	13169
muusi	13170
##pär	13171
autoj	13172
mehu	13173
##kön	13174
irs	13175
iren	13176
irra	13177
iron	13178
irre	13179
yykkö	13180
tren	13181
jats	13182
eesa	13183
stun	13184
verme	13185
asuri	13186
korku	13187
##gat	13188
mond	13189
äljä	13190
haag	13191
haas	13192
haart	13193
illaa	13194
mykkä	13195
rubin	13196
lastu	13197
ustam	13198
hivel	13199
ellet	13200
tulvi	13201
ingis	13202
jont	13203
risci	13204
atami	13205
ampsa	13206
oote	13207
agel	13208
agom	13209
aloo	13210
elleb	13211
lisäk	13212
nouta	13213
aliz	13214
alium	13215
huik	13216
hinto	13217
dov	13218
dou	13219
doo	13220
lenno	13221
iod	13222
akuli	13223
dida	13224
kenk	13225
hera	13226
usik	13227
äisky	13228
moz	13229
köy	13230
körö	13231
iirun	13232
eace	13233
öyl	13234
synk	13235
ants	13236
antro	13237
omie	13238
hood	13239
takel	13240
nissä	13241
egor	13242
laani	13243
tunei	13244
emper	13245
adl	13246
adh	13247
addy	13248
louna	13249
azard	13250
nuha	13251
pant	13252
räppi	13253
abdel	13254
alek	13255
laht	13256
elai	13257
nsig	13258
nauta	13259
aygu	13260
atura	13261
estra	13262
anski	13263
156	13264
atsos	13265
akom	13266
tuah	13267
sitel	13268
ittas	13269
ulloi	13270
ibero	13271
ölkki	13272
wade	13273
aith	13274
ollec	13275
ilom	13276
ankel	13277
asar	13278
romss	13279
ebro	13280
siker	13281
iptum	13282
baba	13283
136	13284
napis	13285
napin	13286
147	13287
142	13288
168	13289
owel	13290
177	13291
auré	13292
omes	13293
maht	13294
rahm	13295
rené	13296
rong	13297
timul	13298
hampa	13299
krug	13300
mcm	13301
airbu	13302
ovac	13303
ousku	13304
aaper	13305
hny	13306
yppö	13307
usain	13308
amet	13309
195	13310
ogba	13311
emira	13312
##gog	13313
unkku	13314
okkel	13315
geor	13316
eonid	13317
ött	13318
öttö	13319
aasuk	13320
weis	13321
wede	13322
welle	13323
haiti	13324
erhee	13325
lasie	13326
notke	13327
disa	13328
eze	13329
foot	13330
ullak	13331
auhot	13332
ramza	13333
enya	13334
nars	13335
umara	13336
aomi	13337
aolo	13338
yytt	13339
delon	13340
fire	13341
röl	13342
örkkö	13343
yaho	13344
grad	13345
uven	13346
uurni	13347
415	13348
volt	13349
sohv	13350
garr	13351
shak	13352
armas	13353
kuidu	13354
pirt	13355
lesb	13356
lesbo	13357
nitra	13358
duud	13359
brav	13360
reyno	13361
ounty	13362
abbey	13363
999	13364
iipah	13365
otelo	13366
macd	13367
core	13368
sarka	13369
roadw	13370
ljas	13371
draft	13372
wish	13373
nälk	13374
darts	13375
nuiji	13376
pål	13377
aštš	13378
minea	13379
sign	13380
andal	13381
wanse	13382
vivek	13383
enzie	13384
öfgr	13385
güzel	13386
qaida	13387
rohmu	13388
czaka	13389
exico	13390
ånesk	13391
),	13392
bran	13393
cena	13394
dli	13395
fm	13396
gho	13397
hbl	13398
ider	13399
iver	13400
ipas	13401
jør	13402
lvis	13403
mh	13404
nska	13405
oz	13406
odeo	13407
rine	13408
rsti	13409
sgr	13410
tø	13411
tku	13412
tisi	13413
uq	13414
u2	13415
utel	13416
utö	13417
uju	13418
visi	13419
wia	13420
wert	13421
wang	13422
yki	13423
zal	13424
äkin	13425
äisä	13426
åker	13427
ögle	13428
ühel	13429
šer	13430
ни	13431
##zuh	13432
##ej	13433
##ura	13434
##db	13435
##pen	13436
##pan	13437
##gk	13438
##bk	13439
##mba	13440
##cl	13441
##wn	13442
##fk	13443
##öt	13444
##xi	13445
##ík	13446
##ín	13447
##èle	13448
entio	13449
anuk	13450
ankas	13451
ispa	13452
onst	13453
onda	13454
onco	13455
##uty	13456
inku	13457
alco	13458
alvar	13459
kour	13460
kub	13461
eiti	13462
eige	13463
eipur	13464
erzo	13465
ertif	13466
olut	13467
olse	13468
olph	13469
tesi	13470
temme	13471
tedt	13472
artio	13473
arvis	13474
silak	13475
laz	13476
lade	13477
lapa	13478
laks	13479
lare	13480
lakon	13481
seini	13482
mace	13483
ilf	13484
iles	13485
ilsk	13486
oliv	13487
vide	13488
aiher	13489
nata	13490
##rak	13491
uslai	13492
tosta	13493
toss	13494
atro	13495
attio	13496
niu	13497
nixo	13498
itkar	13499
itzb	13500
mizuh	13501
rait	13502
rack	13503
rappe	13504
kiu	13505
kijä	13506
kirit	13507
läss	13508
läppä	13509
hatun	13510
typpi	13511
olek	13512
olea	13513
nodar	13514
aukun	13515
ihvi	13516
leua	13517
leury	13518
kev	13519
ttal	13520
lillä	13521
limu	13522
muk	13523
urtu	13524
perma	13525
kins	13526
solo	13527
tent	13528
lof	13529
loona	13530
orina	13531
ordo	13532
maag	13533
hym	13534
luin	13535
opran	13536
openi	13537
märä	13538
euli	13539
iente	13540
ienss	13541
alamo	13542
roe	13543
rokki	13544
ahel	13545
edv	13546
äst	13547
itara	13548
reina	13549
reza	13550
taru	13551
tarkk	13552
sure	13553
rift	13554
ribe	13555
uuter	13556
akent	13557
apt	13558
apina	13559
töm	13560
tört	13561
muura	13562
vaivo	13563
meppi	13564
mehr	13565
rynäs	13566
irko	13567
irne	13568
iraal	13569
turki	13570
uidu	13571
jug	13572
deal	13573
avast	13574
avut	13575
lös	13576
linno	13577
virve	13578
##dir	13579
ksist	13580
entc	13581
denti	13582
selon	13583
uset	13584
kulho	13585
ierra	13586
ieruk	13587
alje	13588
auski	13589
äry	13590
ärnu	13591
rupat	13592
ähö	13593
ranki	13594
torvi	13595
ikoni	13596
true	13597
hiom	13598
tulki	13599
inge	13600
ally	13601
riner	13602
kongi	13603
konsu	13604
karne	13605
aguay	13606
elleh	13607
ulok	13608
idley	13609
alib	13610
hub	13611
dob	13612
doc	13613
sääti	13614
äysk	13615
diil	13616
onny	13617
herl	13618
mood	13619
lisko	13620
öyhe	13621
rauma	13622
akava	13623
akaro	13624
nett	13625
artis	13626
uksu	13627
ytyn	13628
hola	13629
aci	13630
acin	13631
achu	13632
ntb	13633
laiho	13634
skan	13635
styl	13636
laak	13637
onio	13638
oitam	13639
astm	13640
coz	13641
cody	13642
steta	13643
steam	13644
orth	13645
tapsa	13646
iinap	13647
nauli	13648
vilku	13649
ayo	13650
ayan	13651
106	13652
ruuti	13653
ostan	13654
exu	13655
122	13656
cape	13657
iday	13658
roft	13659
huuli	13660
ölkk	13661
adid	13662
ommo	13663
kaijo	13664
vihka	13665
asai	13666
118	13667
bohm	13668
enere	13669
oppet	13670
riad	13671
einer	13672
ubje	13673
napsu	13674
ontis	13675
ifa	13676
163	13677
166	13678
eleb	13679
ompik	13680
owal	13681
178	13682
auru	13683
viat	13684
epte	13685
renna	13686
oaj	13687
rakt	13688
aatat	13689
ugos	13690
arvuu	13691
appor	13692
ecil	13693
beka	13694
bemar	13695
behr	13696
beurl	13697
trav	13698
tramp	13699
215	13700
eyde	13701
olkku	13702
litk	13703
265	13704
ännää	13705
orost	13706
tassu	13707
peni	13708
orata	13709
oraya	13710
atkos	13711
ilei	13712
weet	13713
occia	13714
aakut	13715
lakto	13716
walta	13717
malja	13718
ultt	13719
ultse	13720
imara	13721
amoo	13722
nark	13723
narsi	13724
nurkk	13725
okos	13726
your	13727
ammio	13728
yah	13729
gray	13730
nink	13731
sera	13732
cons	13733
bilb	13734
äviä	13735
näär	13736
vinha	13737
junt	13738
jung	13739
ufo	13740
ailio	13741
noir	13742
580	13743
einar	13744
iral	13745
850	13746
neutr	13747
cyan	13748
sauvo	13749
crocu	13750
witt	13751
errer	13752
iril	13753
siive	13754
etkut	13755
nekke	13756
belf	13757
semag	13758
lafk	13759
sieto	13760
##zyk	13761
rouva	13762
rouba	13763
linic	13764
swana	13765
swing	13766
imitr	13767
gibra	13768
dubl	13769
horts	13770
hihh	13771
navak	13772
nälkä	13773
gbt	13774
ipah	13775
aueta	13776
thorg	13777
krob	13778
uihke	13779
önnr	13780
rkady	13781
rangé	13782
uyck	13783
eslaa	13784
rashf	13785
eulan	13786
äggl	13787
gosl	13788
soudu	13789
jukka	13790
füll	13791
hloé	13792
rugge	13793
crime	13794
gjert	13795
rlean	13796
magic	13797
sgré	13798
tøre	13799
erzog	13800
01	13801
asal	13802
awe	13803
buss	13804
both	13805
cran	13806
czyk	13807
flo	13808
iš	13809
ić	13810
iät	13811
ivia	13812
kno	13813
lå	13814
like	13815
lkin	13816
lter	13817
lyttä	13818
oco	13819
qa	13820
td	13821
umo	13822
uño	13823
vå	13824
wul	13825
wins	13826
wiss	13827
x2	13828
yise	13829
yni	13830
ypäl	13831
zak	13832
ämpi	13833
äger	13834
ård	13835
íg	13836
ón	13837
ömi	13838
##voi	13839
##ei	13840
##dž	13841
##hs	13842
##mpa	13843
##wer	13844
##ко	13845
##ël	13846
##inb	13847
tag	13848
tax	13849
take	13850
tass	13851
enz	13852
enty	13853
enpä	13854
enkar	13855
isèle	13856
onut	13857
ondi	13858
ondor	13859
inco	13860
alino	13861
kona	13862
koski	13863
kuis	13864
kulla	13865
kuper	13866
uopol	13867
tiikk	13868
tiusa	13869
erku	13870
erri	13871
erna	13872
erst	13873
ertil	13874
##usk	13875
aavio	13876
oler	13877
olski	13878
olji	13879
armo	13880
area	13881
army	13882
arza	13883
sioi	13884
siev	13885
latu	13886
lapp	13887
laton	13888
llas	13889
esy	13890
escal	13891
asman	13892
ashi	13893
##mad	13894
mao	13895
mase	13896
mage	13897
maire	13898
ilus	13899
ilpu	13900
sali	13901
sammu	13902
##mia	13903
nare	13904
napos	13905
elmen	13906
elda	13907
uuno	13908
uukki	13909
uuras	13910
pado	13911
##ono	13912
atero	13913
niro	13914
##lag	13915
itkaa	13916
itter	13917
mili	13918
rao	13919
rac	13920
raan	13921
rato	13922
rakk	13923
rapid	13924
neo	13925
kihu	13926
iar	13927
iakon	13928
läjä	13929
hao	13930
hakki	13931
habi	13932
unch	13933
nola	13934
##nez	13935
suole	13936
auc	13937
iivai	13938
otko	13939
otero	13940
äämi	13941
leks	13942
left	13943
sant	13944
keel	13945
pihi	13946
licia	13947
stäm	13948
posa	13949
urem	13950
urba	13951
urkun	13952
ukr	13953
ajul	13954
puiko	13955
soro	13956
soutu	13957
ieg	13958
iese	13959
ievo	13960
tens	13961
tenhu	13962
heis	13963
erton	13964
lose	13965
lossi	13966
lobb	13967
lowe	13968
ormo	13969
mint	13970
osman	13971
osmar	13972
kauri	13973
ehtä	13974
alara	13975
rote	13976
ropo	13977
roiss	13978
round	13979
ahter	13980
aluz	13981
revi	13982
remp	13983
rego	13984
refe	13985
remig	13986
tarto	13987
uolu	13988
##pio	13989
##vei	13990
utt	13991
utro	13992
rivo	13993
rigi	13994
rivak	13995
stor	13996
stos	13997
kansi	13998
apet	13999
töre	14000
amos	14001
vaate	14002
stik	14003
merta	14004
säi	14005
säpo	14006
rkti	14007
meka	14008
memor	14009
irma	14010
##dad	14011
uice	14012
ukkur	14013
katra	14014
katve	14015
treme	14016
pard	14017
eea	14018
vers	14019
entr	14020
entso	14021
ättö	14022
korso	14023
korpe	14024
emmel	14025
kista	14026
selän	14027
haaro	14028
uunis	14029
altar	14030
ärp	14031
ouda	14032
emän	14033
ulkon	14034
ranch	14035
pyro	14036
stina	14037
kuud	14038
hick	14039
himb	14040
hips	14041
ells	14042
pisci	14043
oone	14044
nyppi	14045
ringe	14046
##rey	14047
lanna	14048
konv	14049
konti	14050
oora	14051
oodi	14052
karpa	14053
antal	14054
##bbe	14055
sählä	14056
imus	14057
iogo	14058
vob	14059
voort	14060
vowl	14061
säädi	14062
iang	14063
ammak	14064
iiske	14065
overo	14066
urak	14067
mole	14068
kömpe	14069
osif	14070
avuk	14071
tisk	14072
kirst	14073
kirgi	14074
ensas	14075
apat	14076
tyyni	14077
tv2	14078
egem	14079
onig	14080
onif	14081
adine	14082
como	14083
comic	14084
uulon	14085
rässä	14086
aba	14087
abs	14088
205	14089
iinal	14090
aarne	14091
sml	14092
anca	14093
ancel	14094
okp	14095
okit	14096
ruuk	14097
ext	14098
ahak	14099
velho	14100
cab	14101
cava	14102
aekw	14103
gate	14104
game	14105
ways	14106
sulf	14107
eodor	14108
rsf	14109
113	14110
boat	14111
sanah	14112
eby	14113
ipri	14114
ipul	14115
ated	14116
133	14117
ueb	14118
259	14119
igu	14120
jippo	14121
askit	14122
ardio	14123
elec	14124
wien	14125
paat	14126
174	14127
172	14128
auraa	14129
izzo	14130
izzj	14131
ergb	14132
avil	14133
omell	14134
epot	14135
mirn	14136
reak	14137
ennig	14138
sorre	14139
isyy	14140
etan	14141
etano	14142
eltto	14143
motr	14144
armei	14145
ukal	14146
goot	14147
ecke	14148
hteen	14149
sianl	14150
227	14151
umph	14152
skog	14153
275	14154
ontol	14155
temma	14156
intt	14157
kouta	14158
kummi	14159
rosse	14160
isson	14161
ridg	14162
ator	14163
ostr	14164
malac	14165
adat	14166
nhc	14167
akkul	14168
surm	14169
arski	14170
ocha	14171
foto	14172
kuoro	14173
kuohk	14174
fry	14175
issio	14176
bug	14177
innui	14178
sooda	14179
carpe	14180
ambo	14181
nalta	14182
nalja	14183
riima	14184
tlk	14185
aleni	14186
srv	14187
iisai	14188
trop	14189
ssefa	14190
arcía	14191
iros	14192
orups	14193
roagr	14194
örni	14195
yam	14196
375	14197
shopp	14198
onial	14199
hvk	14200
mts	14201
ushb	14202
cona	14203
ickel	14204
iedd	14205
kiosk	14206
sitoo	14207
shaw	14208
430	14209
askio	14210
kuiva	14211
kuivu	14212
intuh	14213
horky	14214
leep	14215
stads	14216
rodg	14217
almas	14218
women	14219
witz	14220
ounci	14221
siira	14222
more	14223
comba	14224
corr	14225
lviv	14226
rouhe	14227
ailak	14228
burk	14229
nigel	14230
sotku	14231
siene	14232
ragm	14233
härsk	14234
oppoo	14235
pvp	14236
vtv	14237
baski	14238
hukka	14239
pamin	14240
nuiva	14241
xinhu	14242
kompl	14243
komso	14244
tiira	14245
oasis	14246
rkad	14247
rtem	14248
rityi	14249
orjah	14250
tacm	14251
aspia	14252
utših	14253
mouri	14254
gambi	14255
vitam	14256
wineh	14257
aadui	14258
nyrkk	14259
hilal	14260
teesk	14261
wikl	14262
enyaq	14263
wiate	14264
cozme	14265
uñoz	14266
íguez	14267
--	14268
aty	14269
bt	14270
bis	14271
baar	14272
cp	14273
cx	14274
cot	14275
cana	14276
cre	14277
dd	14278
dere	14279
eiko	14280
fel	14281
fär	14282
gend	14283
gnes	14284
gly	14285
hku	14286
jüri	14287
kj	14288
kta	14289
khl	14290
lric	14291
må	14292
nür	14293
ovis	14294
oão	14295
pf	14296
pso	14297
pino	14298
pön	14299
rul	14300
rino	14301
sq	14302
sll	14303
skaa	14304
shl	14305
uffe	14306
vl	14307
wr	14308
whe	14309
wba	14310
xl	14311
xa	14312
xh	14313
xia	14314
xec	14315
yf	14316
yvi	14317
yisi	14318
yong	14319
year	14320
zy	14321
zero	14322
zug	14323
§:	14324
ädeh	14325
åsa	14326
ökäl	14327
★★	14328
##rb	14329
##uz	14330
##dö	14331
##gs	14332
##gne	14333
##bd	14334
##ben	14335
##sl	14336
##nel	14337
##fr	14338
##yl	14339
##yr	14340
##yer	14341
##то	14342
##но	14343
##ны	14344
##ин	14345
##xe	14346
##ís	14347
##ла	14348
##да	14349
##tal	14350
##ane	14351
##sak	14352
tad	14353
talu	14354
taff	14355
##llö	14356
enkka	14357
encho	14358
anf	14359
jaon	14360
onsu	14361
onker	14362
##lic	14363
vael	14364
etsa	14365
etut	14366
alp	14367
alsi	14368
alsta	14369
kola	14370
komb	14371
kuvo	14372
kuske	14373
täti	14374
täplä	14375
##tec	14376
eipa	14377
eipi	14378
eippi	14379
kaust	14380
erde	14381
erno	14382
erwa	14383
ermes	14384
aada	14385
olot	14386
oltti	14387
olini	14388
tex	14389
arb	14390
arli	14391
arni	14392
aroni	14393
siff	14394
sipar	14395
lab	14396
lauo	14397
esel	14398
eslo	14399
esha	14400
asca	14401
sew	14402
sex	14403
segg	14404
malo	14405
marjo	14406
maci	14407
staur	14408
ilke	14409
satu	14410
sakea	14411
sach	14412
viv	14413
vida	14414
ailo	14415
aitaa	14416
nala	14417
natur	14418
elut	14419
uuper	14420
pad	14421
pap	14422
pax	14423
paka	14424
##rif	14425
tomu	14426
atch	14427
itka	14428
itker	14429
miri	14430
##hdi	14431
rave	14432
raisk	14433
kiil	14434
kimpp	14435
kämme	14436
haan	14437
hako	14438
oila	14439
tyh	14440
noma	14441
noor	14442
noho	14443
aune	14444
aurai	14445
aukai	14446
iimei	14447
pääm	14448
otini	14449
äävi	14450
lemp	14451
leike	14452
sang	14453
keää	14454
ttako	14455
saag	14456
lies	14457
livah	14458
muro	14459
mular	14460
##mär	14461
pukar	14462
sora	14463
sovi	14464
sood	14465
ieta	14466
hemo	14467
lod	14468
loko	14469
loeb	14470
ulpa	14471
iino	14472
orri	14473
orro	14474
orst	14475
orton	14476
valke	14477
osh	14478
osvo	14479
oitel	14480
##nia	14481
uusan	14482
alar	14483
alak	14484
tanki	14485
roc	14486
rosi	14487
rome	14488
terli	14489
ahra	14490
ahkin	14491
kerke	14492
kervi	14493
edf	14494
illas	14495
revia	14496
tarpo	14497
akro	14498
töke	14499
tökki	14500
##dow	14501
eisau	14502
uhi	14503
seula	14504
anaj	14505
anage	14506
meh	14507
mesi	14508
rypäl	14509
pre	14510
maran	14511
uipe	14512
kolpp	14513
jumpa	14514
trö	14515
lins	14516
pecia	14517
ksp	14518
inar	14519
korp	14520
korsi	14521
emmen	14522
kisko	14523
astat	14524
älkky	14525
ärde	14526
ärrä	14527
ärvel	14528
ouli	14529
amari	14530
amaha	14531
ruman	14532
rumpi	14533
ruci	14534
ntii	14535
emho	14536
rana	14537
rankk	14538
erkel	14539
torne	14540
trull	14541
hima	14542
hift	14543
hield	14544
ombe	14545
konl	14546
tuum	14547
agin	14548
liig	14549
lauda	14550
##bbie	14551
ielto	14552
noud	14553
imel	14554
huket	14555
lend	14556
vos	14557
vox	14558
säät	14559
diet	14560
iane	14561
lyko	14562
herru	14563
animo	14564
äisk	14565
moty	14566
moro	14567
kömpi	14568
kössi	14569
umul	14570
umyn	14571
öylä	14572
ruoho	14573
artha	14574
antri	14575
antha	14576
niid	14577
hoke	14578
ainua	14579
acco	14580
kärki	14581
kirve	14582
yyssö	14583
ynö	14584
laavi	14585
syön	14586
emppu	14587
berlu	14588
kilpi	14589
odka	14590
imeo	14591
azze	14592
nude	14593
nukar	14594
eerum	14595
yrsy	14596
coop	14597
cook	14598
räp	14599
abram	14600
autas	14601
nosto	14602
orts	14603
sper	14604
spray	14605
akir	14606
vilja	14607
smer	14608
ancea	14609
atul	14610
atur	14611
108	14612
ruuva	14613
ruuvi	14614
iuka	14615
154	14616
158	14617
omano	14618
inic	14619
inila	14620
camb	14621
cafe	14622
enic	14623
natol	14624
runko	14625
afo	14626
gale	14627
gabb	14628
evak	14629
uhda	14630
onnej	14631
nly	14632
tiara	14633
aitse	14634
inklu	14635
visul	14636
ankku	14637
oba	14638
romit	14639
boo	14640
boud	14641
endz	14642
oft	14643
ipin	14644
baer	14645
bauer	14646
131	14647
iuski	14648
uben	14649
ubins	14650
kiera	14651
igen	14652
irtt	14653
eleh	14654
183	14655
189	14656
188	14657
owler	14658
owie	14659
179	14660
erger	14661
omeg	14662
mahla	14663
reni	14664
hamma	14665
ätik	14666
erez	14667
246	14668
sorro	14669
ppsa	14670
skies	14671
loni	14672
brics	14673
etaf	14674
kelau	14675
rhea	14676
golb	14677
assie	14678
ukayo	14679
gomez	14680
amud	14681
pöt	14682
ecu	14683
eclan	14684
ovaj	14685
äkää	14686
trak	14687
trab	14688
ameso	14689
235	14690
eyeno	14691
196	14692
ogor	14693
sund	14694
ului	14695
oskis	14696
ännär	14697
hsy	14698
tasur	14699
geir	14700
etit	14701
285	14702
adas	14703
nhk	14704
vitr	14705
vitto	14706
weide	14707
webb	14708
webin	14709
wilke	14710
arek	14711
walk	14712
waltz	14713
dista	14714
kuosi	14715
uitul	14716
biza	14717
mörkö	14718
amoa	14719
rbk	14720
äsken	14721
narut	14722
carte	14723
riipu	14724
iipun	14725
trof	14726
elmah	14727
tride	14728
rooke	14729
armf	14730
onkal	14731
heed	14732
ekkal	14733
eilau	14734
ergey	14735
416	14736
bilt	14737
551	14738
ickf	14739
466	14740
opah	14741
leav	14742
lease	14743
rowd	14744
offee	14745
gener	14746
ssoc	14747
shiba	14748
ekker	14749
560	14750
dolph	14751
nmky	14752
avec	14753
625	14754
irak	14755
arsii	14756
odar	14757
stadt	14758
roduk	14759
calv	14760
ahven	14761
cyri	14762
sauno	14763
sjry	14764
reye	14765
lower	14766
siilo	14767
aasia	14768
viesk	14769
ucy	14770
jerg	14771
appam	14772
950	14773
ldl	14774
höjl	14775
sympa	14776
sieg	14777
larna	14778
apsan	14779
ixin	14780
kateu	14781
ailas	14782
burl	14783
nimma	14784
cinci	14785
ukkel	14786
raid	14787
970	14788
zio	14789
särky	14790
clipp	14791
habit	14792
ervas	14793
ušk	14794
munat	14795
zac	14796
öreg	14797
rozde	14798
numer	14799
040	14800
iorg	14801
ummet	14802
weig	14803
uentz	14804
mainz	14805
oksah	14806
born	14807
circu	14808
rännf	14809
dvent	14810
sång	14811
türk	14812
äsäh	14813
yövär	14814
bubka	14815
smith	14816
álvar	14817
díaz	14818
rtama	14819
ilfv	14820
kiuas	14821
leuat	14822
surev	14823
crant	14824
årdh	14825
habib	14826
wheel	14827
..	14828
aest	14829
bend	14830
cv	14831
cti	14832
cer	14833
cmi	14834
drai	14835
dur	14836
eest	14837
etil	14838
fx	14839
faa	14840
ften	14841
gini	14842
ghar	14843
hut	14844
hlö	14845
igi	14846
iesta	14847
jd	14848
jin	14849
kje	14850
lü	14851
lje	14852
mél	14853
nän	14854
ovo	14855
pw	14856
phev	14857
rå	14858
rú	14859
rlo	14860
rsin	14861
sks	14862
sys	14863
slu	14864
spu	14865
szo	14866
tz	14867
tla	14868
thani	14869
už	14870
util	14871
uci	14872
ubba	14873
vk	14874
vus	14875
vro	14876
wh	14877
wist	14878
xet	14879
xvi	14880
yro	14881
äb	14882
ämi	14883
äkkö	14884
åb	14885
ínez	14886
öyt	14887
ökö	14888
öper	14889
öppö	14890
пр	14891
##let	14892
##ron	14893
##kh	14894
##uv	14895
##ghl	14896
##qui	14897
##nk	14898
##jd	14899
##yde	14900
##žd	14901
##žik	14902
##öti	14903
##šk	14904
##štš	14905
llikk	14906
enl	14907
jasta	14908
ondur	14909
##uts	14910
##itt	14911
tuj	14912
tuch	14913
etino	14914
etch	14915
alsey	14916
koz	14917
kole	14918
kura	14919
kuve	14920
kukko	14921
uope	14922
tihu	14923
kao	14924
kasar	14925
erc	14926
eret	14927
##kol	14928
aab	14929
aappa	14930
aaker	14931
olvo	14932
olest	14933
teyde	14934
arty	14935
arho	14936
arhea	14937
##dez	14938
sipa	14939
simp	14940
laba	14941
ashe	14942
aspar	14943
asmat	14944
sec	14945
made	14946
majo	14947
ilska	14948
ilppa	14949
ilpur	14950
saja	14951
vippi	14952
aij	14953
aiga	14954
namil	14955
nauto	14956
napol	14957
##rad	14958
##rab	14959
elge	14960
elmet	14961
uulat	14962
äng	14963
änkä	14964
näpei	14965
usb	14966
usla	14967
usun	14968
topp	14969
toop	14970
toff	14971
aten	14972
atvo	14973
atsio	14974
nipu	14975
niek	14976
niño	14977
itis	14978
ravo	14979
ragh	14980
kunkk	14981
neel	14982
neal	14983
neito	14984
kika	14985
iall	14986
aissi	14987
aismo	14988
haq	14989
have	14990
haue	14991
halom	14992
unda	14993
oiper	14994
noy	14995
noel	14996
noppi	14997
noby	14998
suod	14999
auku	15000
auck	15001
aukea	15002
iila	15003
iillo	15004
iikas	15005
otine	15006
otni	15007
lepa	15008
pips	15009
saame	15010
lipp	15011
lippa	15012
lift	15013
liza	15014
poju	15015
muni	15016
mutai	15017
urit	15018
urman	15019
ukis	15020
##inea	15021
sori	15022
iee	15023
ietä	15024
iehto	15025
ieppo	15026
ietar	15027
iedad	15028
tensh	15029
hew	15030
heard	15031
##väh	15032
esii	15033
loy	15034
ulp	15035
ulja	15036
ulmu	15037
ultim	15038
tunto	15039
tunku	15040
orne	15041
ortio	15042
valma	15043
ohvi	15044
oitt	15045
kaura	15046
ehni	15047
opc	15048
opsi	15049
opit	15050
roch	15051
roisk	15052
romos	15053
teria	15054
aluvi	15055
kertu	15056
reki	15057
rete	15058
reme	15059
rees	15060
rega	15061
rebe	15062
reger	15063
##pir	15064
utin	15065
utru	15066
susi	15067
suvu	15068
sudz	15069
rimaa	15070
kano	15071
akwa	15072
asek	15073
tamk	15074
amda	15075
amona	15076
eisot	15077
anal	15078
anala	15079
help	15080
ikh	15081
säksi	15082
sästi	15083
särk	15084
meiki	15085
ryna	15086
irty	15087
turpa	15088
marbe	15089
margu	15090
uimo	15091
kolkk	15092
jur	15093
ollar	15094
dei	15095
demen	15096
deak	15097
laisk	15098
eetu	15099
eeppi	15100
eegan	15101
eezy	15102
stuk	15103
vera	15104
ainap	15105
ngro	15106
pesi	15107
jäädy	15108
ieri	15109
iers	15110
ierna	15111
mono	15112
haaru	15113
##oré	15114
ärr	15115
mitt	15116
ouar	15117
ouble	15118
oughl	15119
emina	15120
ähmä	15121
ranto	15122
randy	15123
lasto	15124
torb	15125
nuok	15126
icky	15127
hiha	15128
salaa	15129
ässäh	15130
nyder	15131
nyyh	15132
raaka	15133
atamo	15134
oloss	15135
##red	15136
lange	15137
konto	15138
konni	15139
karp	15140
karki	15141
karkk	15142
tuub	15143
aget	15144
agre	15145
hano	15146
hanki	15147
häpe	15148
häkki	15149
laum	15150
iela	15151
evit	15152
idia	15153
imsa	15154
imtš	15155
huisk	15156
ojuu	15157
ojui	15158
dopa	15159
dodg	15160
iolo	15161
sääk	15162
aisui	15163
dies	15164
ianch	15165
hend	15166
harm	15167
harso	15168
herma	15169
iison	15170
ovit	15171
ural	15172
uraj	15173
moka	15174
moder	15175
moch	15176
ietz	15177
umpar	15178
kalvo	15179
maila	15180
öykky	15181
ruona	15182
otar	15183
avoy	15184
nettä	15185
eikan	15186
niira	15187
hoo	15188
hode	15189
hopp	15190
hotos	15191
norb	15192
tiluk	15193
aatin	15194
arah	15195
tv5	15196
ego	15197
egina	15198
laaki	15199
emppa	15200
adr	15201
louku	15202
odrig	15203
azio	15204
azov	15205
nudd	15206
nuens	15207
ätän	15208
pane	15209
yrkö	15210
cout	15211
cobb	15212
coco	15213
combo	15214
count	15215
able	15216
abha	15217
menij	15218
autan	15219
aleba	15220
lahko	15221
ortz	15222
kkol	15223
naulo	15224
aarla	15225
anci	15226
atus	15227
atuoi	15228
iuku	15229
naamo	15230
157	15231
159	15232
oyj	15233
sdf	15234
cala	15235
enian	15236
runch	15237
gach	15238
ämät	15239
eltan	15240
huudo	15241
ekkul	15242
taekw	15243
aivar	15244
tiaf	15245
tiaan	15246
kaiva	15247
visto	15248
kääj	15249
ilov	15250
vihta	15251
asas	15252
asala	15253
muija	15254
jyr	15255
mitat	15256
liksa	15257
iisum	15258
bat	15259
134	15260
139	15261
138	15262
iuska	15263
uble	15264
eluj	15265
ontsa	15266
asken	15267
ift	15268
162	15269
udder	15270
wiur	15271
gren	15272
nesl	15273
omega	15274
lush	15275
##bak	15276
epto	15277
epun	15278
rahma	15279
aksah	15280
puru	15281
veiv	15282
lett	15283
247	15284
nök	15285
etal	15286
eltz	15287
adez	15288
lipin	15289
amula	15290
belle	15291
äihky	15292
238	15293
232	15294
onaha	15295
onaug	15296
pilve	15297
leiju	15298
194	15299
192	15300
utej	15301
fig	15302
äps	15303
##rud	15304
inth	15305
lits	15306
almer	15307
leps	15308
osteo	15309
pene	15310
pena	15311
orak	15312
etik	15313
ötky	15314
ilek	15315
adac	15316
ymni	15317
äkkär	15318
weiko	15319
teip	15320
esar	15321
ujak	15322
focu	15323
##bio	15324
bull	15325
ämppi	15326
imais	15327
auhuk	15328
tsher	15329
yneet	15330
ehey	15331
narr	15332
carg	15333
ratia	15334
aulii	15335
canm	15336
310	15337
eijar	15338
riido	15339
fabr	15340
cell	15341
trio	15342
room	15343
rvost	15344
reeti	15345
kupin	15346
uvena	15347
uurt	15348
uuron	15349
conf	15350
homs	15351
411	15352
kukit	15353
uulop	15354
473	15355
skunt	15356
hieho	15357
foxx	15358
eppij	15359
ulvav	15360
peace	15361
540	15362
lixb	15363
nokke	15364
mekt	15365
loiv	15366
fuad	15367
kosto	15368
andow	15369
clair	15370
nitš	15371
rods	15372
oolol	15373
770	15374
reyk	15375
660	15376
jäni	15377
jännä	15378
aasik	15379
680	15380
meier	15381
rigor	15382
gnet	15383
buuau	15384
870	15385
911	15386
routa	15387
cio	15388
cic	15389
bald	15390
burgo	15391
ornih	15392
830	15393
ollid	15394
wolfe	15395
bank	15396
härö	15397
hiili	15398
årten	15399
arsas	15400
raiti	15401
raida	15402
eqe	15403
imars	15404
gyir	15405
rmc	15406
tupsa	15407
graav	15408
rayde	15409
astré	15410
krok	15411
agame	15412
eusz	15413
plod	15414
kobra	15415
errey	15416
eepra	15417
lomif	15418
007	15419
deepf	15420
össö	15421
kidm	15422
grind	15423
savol	15424
deodo	15425
ahmer	15426
rejci	15427
shorm	15428
hosp	15429
obile	15430
uwait	15431
dovha	15432
dooha	15433
öylän	15434
yahoo	15435
jørn	15436
lazan	15437
flops	15438
wulff	15439
derek	15440
ktago	15441
vosto	15442
...	15443
draiv	15444
sysm	15445
slumm	15446
vrotr	15447
deakt	15448
03	15449
bm	15450
bj	15451
bän	15452
bds	15453
bhc	15454
ces	15455
cdu	15456
cker	15457
dh	15458
dmi	15459
disk	15460
eesti	15461
ekki	15462
eppa	15463
fal	15464
feng	15465
gna	15466
ghe	15467
gem	15468
gur	15469
hik	15470
hmad	15471
i5	15472
iñ	15473
iää	15474
irje	15475
kli	15476
kvin	15477
kutu	15478
lva	15479
lino	15480
lder	15481
lsb	15482
nro	15483
nch	15484
oser	15485
ozar	15486
pb	15487
pn	15488
ppp	15489
rd	15490
rke	15491
rce	15492
rca	15493
rgan	15494
rnes	15495
sla	15496
sino	15497
skiv	15498
skar	15499
seri	15500
sza	15501
ttk	15502
tnt	15503
thi	15504
uina	15505
uft	15506
ugar	15507
vw	15508
vto	15509
vja	15510
wt	15511
wä	15512
wem	15513
wray	15514
wbd	15515
xx	15516
yan	15517
yit	15518
ydia	15519
ych	15520
zg	15521
zen	15522
zve	15523
ämy	15524
åle	15525
ötö	15526
övel	15527
ölö	15528
ła	15529
не	15530
ск	15531
фин	15532
##ić	15533
##vr	15534
##aki	15535
##bit	15536
##hor	15537
##fc	15538
##ym	15539
##ии	15540
##øy	15541
##xt	15542
##ст	15543
##ско	15544
##isb	15545
tay	15546
##täk	15547
llon	15548
llino	15549
enq	15550
enes	15551
enini	15552
anos	15553
ontta	15554
onrad	15555
inee	15556
indy	15557
turo	15558
tuert	15559
tuput	15560
vaino	15561
alse	15562
alem	15563
jot	15564
joy	15565
kota	15566
kompo	15567
kuona	15568
eig	15569
eipo	15570
kaso	15571
ermis	15572
erud	15573
ermak	15574
##esh	15575
aaf	15576
aade	15577
aakun	15578
olino	15579
olkka	15580
olton	15581
olpan	15582
arn	15583
arpa	15584
armen	15585
ardu	15586
argo	15587
arkur	15588
siem	15589
laes	15590
lami	15591
lavo	15592
lagu	15593
espa	15594
estel	15595
asc	15596
aspe	15597
askal	15598
ascal	15599
sedo	15600
seutu	15601
sedi	15602
##mal	15603
mam	15604
make	15605
marja	15606
maika	15607
maher	15608
maya	15609
matar	15610
mayne	15611
stana	15612
ilka	15613
ilkun	15614
olie	15615
olib	15616
oliko	15617
sab	15618
sake	15619
saro	15620
sadu	15621
safa	15622
viva	15623
aic	15624
aile	15625
aider	15626
naut	15627
nase	15628
nara	15629
naci	15630
else	15631
uullo	15632
uuser	15633
uulah	15634
änaki	15635
näkki	15636
nälä	15637
##ria	15638
atva	15639
niga	15640
nipin	15641
itr	15642
itja	15643
mila	15644
rasa	15645
rassi	15646
rakka	15647
rakko	15648
rawl	15649
##vie	15650
neti	15651
kippa	15652
iamo	15653
aiser	15654
jäs	15655
käper	15656
hast	15657
haide	15658
hakir	15659
hadow	15660
ungi	15661
unhc	15662
typ	15663
tyro	15664
noaa	15665
nogor	15666
audu	15667
auser	15668
auger	15669
lean	15670
leus	15671
levat	15672
ketun	15673
limpi	15674
lient	15675
lippe	15676
mudi	15677
urso	15678
ajon	15679
purj	15680
sopu	15681
soito	15682
sold	15683
yster	15684
iep	15685
iekon	15686
tena	15687
teng	15688
tenni	15689
loti	15690
loto	15691
loki	15692
lokk	15693
loetz	15694
ulppe	15695
ulvik	15696
asic	15697
orco	15698
tela	15699
mino	15700
vald	15701
kauli	15702
maak	15703
hysi	15704
lunt	15705
ääns	15706
osai	15707
taifu	15708
opsu	15709
viive	15710
viida	15711
##eed	15712
eune	15713
tano	15714
roks	15715
terra	15716
alur	15717
edp	15718
edor	15719
itab	15720
resa	15721
revo	15722
redo	15723
rehu	15724
reca	15725
allam	15726
ennel	15727
venni	15728
such	15729
riz	15730
ripp	15731
rimo	15732
riutu	15733
riley	15734
uutin	15735
kanve	15736
aktor	15737
aput	15738
apman	15739
töis	15740
amg	15741
amni	15742
amso	15743
eisa	15744
eisku	15745
äillä	15746
stij	15747
helo	15748
ikhi	15749
ikron	15750
säte	15751
säde	15752
säkä	15753
särm	15754
##lun	15755
rkan	15756
melli	15757
ryppä	15758
irpo	15759
##uns	15760
ture	15761
mare	15762
marb	15763
marce	15764
uiz	15765
uick	15766
dew	15767
deir	15768
defe	15769
avit	15770
avlo	15771
linki	15772
parti	15773
eev	15774
eever	15775
verd	15776
verev	15777
##div	15778
##did	15779
kaali	15780
kaapp	15781
ainas	15782
pello	15783
peda	15784
entre	15785
inatr	15786
mieka	15787
korpa	15788
korni	15789
korsu	15790
self	15791
kulma	15792
allea	15793
myo	15794
ärän	15795
mitra	15796
ouvo	15797
ouza	15798
ilia	15799
ilima	15800
rusa	15801
ruksi	15802
rump	15803
ruiz	15804
daw	15805
daly	15806
darud	15807
randt	15808
##nny	15809
uiski	15810
torpa	15811
hive	15812
hippi	15813
hiho	15814
hihku	15815
ellil	15816
tulka	15817
tulpa	15818
lutsk	15819
raap	15820
allik	15821
risen	15822
atara	15823
##urs	15824
ampun	15825
omina	15826
karpp	15827
karpo	15828
tuuli	15829
tuuma	15830
agh	15831
agina	15832
agnes	15833
empir	15834
hant	15835
esem	15836
liip	15837
upen	15838
upra	15839
upil	15840
lauch	15841
ev9	15842
manta	15843
manto	15844
idel	15845
sähly	15846
imbo	15847
alibr	15848
huck	15849
hins	15850
hindu	15851
doch	15852
lene	15853
iok	15854
voint	15855
arjui	15856
lytä	15857
harti	15858
harmi	15859
alkun	15860
uram	15861
aniz	15862
mock	15863
kalp	15864
osie	15865
maido	15866
iiru	15867
eads	15868
eauty	15869
unaja	15870
öysä	15871
tumne	15872
uinut	15873
uincy	15874
nort	15875
norp	15876
ainia	15877
ulkku	15878
ache	15879
acca	15880
innis	15881
ynk	15882
egg	15883
egel	15884
adul	15885
adžik	15886
ineb	15887
odric	15888
azzar	15889
aziz	15890
nuket	15891
cov	15892
räst	15893
abro	15894
abwe	15895
aled	15896
stems	15897
jouse	15898
eurma	15899
orpor	15900
aarma	15901
ayle	15902
aywe	15903
amim	15904
amira	15905
103	15906
ruuan	15907
ruuki	15908
ruuku	15909
ruuni	15910
iula	15911
naara	15912
ämäkk	15913
autum	15914
dupas	15915
engel	15916
velo	15917
124	15918
129	15919
ullan	15920
cara	15921
enie	15922
andw	15923
andro	15924
gali	15925
gadd	15926
huuru	15927
öljä	15928
ommit	15929
viska	15930
vihil	15931
##jeh	15932
119	15933
brisb	15934
boll	15935
boja	15936
boro	15937
sanam	15938
ebo	15939
kettu	15940
radko	15941
okser	15942
sisko	15943
oppel	15944
ipho	15945
ipsin	15946
badd	15947
bapt	15948
uumel	15949
ubos	15950
ublic	15951
orkku	15952
kapul	15953
255	15954
iges	15955
ertz	15956
erts	15957
välä	15958
141	15959
jive	15960
asker	15961
odie	15962
ömöti	15963
169	15964
elebr	15965
181	15966
udge	15967
udvig	15968
wid	15969
barr	15970
alani	15971
173	15972
izh	15973
izzy	15974
neste	15975
liekk	15976
mirka	15977
renze	15978
ndrés	15979
itor	15980
äynät	15981
ersut	15982
245	15983
sorsa	15984
sorru	15985
mca	15986
long	15987
ammet	15988
kelvo	15989
guye	15990
ugge	15991
assia	15992
adežd	15993
goog	15994
ecel	15995
trade	15996
ameli	15997
elkan	15998
216	15999
elloo	16000
viena	16001
onnie	16002
eyeni	16003
umiv	16004
198	16005
191	16006
neiti	16007
fida	16008
nooa	16009
ränt	16010
arisa	16011
ykky	16012
ypon	16013
litt	16014
kouks	16015
dusta	16016
ewy	16017
ännes	16018
mutsi	16019
sihv	16020
ampai	16021
ental	16022
gios	16023
givar	16024
redd	16025
adar	16026
haima	16027
masso	16028
eljk	16029
reim	16030
impul	16031
lkv	16032
odor	16033
arson	16034
auham	16035
miira	16036
buse	16037
budd	16038
buzz	16039
mölö	16040
image	16041
germa	16042
äisiä	16043
sylv	16044
sylki	16045
albo	16046
album	16047
narik	16048
edov	16049
carv	16050
card	16051
tolva	16052
ikonl	16053
etron	16054
uutik	16055
rothe	16056
gatha	16057
resu	16058
iipus	16059
delf	16060
delhi	16061
ööl	16062
yagi	16063
yamor	16064
gradu	16065
386	16066
385	16067
ivot	16068
rvid	16069
keimo	16070
ossun	16071
ushia	16072
sirkk	16073
etsh	16074
kukke	16075
399	16076
nilsb	16077
lamma	16078
uang	16079
einem	16080
läpsä	16081
ivar	16082
oots	16083
sohvi	16084
garl	16085
peac	16086
shama	16087
shapp	16088
nahko	16089
ikrop	16090
rankl	16091
hisch	16092
andol	16093
intub	16094
seef	16095
mauro	16096
dance	16097
640	16098
awd	16099
saumo	16100
woj	16101
777	16102
brat	16103
witch	16104
737	16105
lkio	16106
ucky	16107
axio	16108
comf	16109
comon	16110
ferd	16111
geom	16112
hör	16113
irkke	16114
öpel	16115
näpy	16116
rouvi	16117
##wig	16118
sapl	16119
edros	16120
outaj	16121
tatli	16122
tšetš	16123
effer	16124
rypti	16125
aquo	16126
itsaa	16127
arsak	16128
robbi	16129
zimb	16130
ynam	16131
hearn	16132
zomb	16133
leffo	16134
hipel	16135
noitu	16136
ljush	16137
arros	16138
vehke	16139
myth	16140
lamau	16141
rkadi	16142
oupé	16143
##gäs	16144
katua	16145
gotl	16146
régo	16147
ilono	16148
rnamo	16149
ández	16150
ingah	16151
cris	16152
cobra	16153
för	16154
souf	16155
ahmut	16156
nyök	16157
äikky	16158
lóssy	16159
quier	16160
sved	16161
from	16162
lroy	16163
ernie	16164
aavem	16165
gymna	16166
u20	16167
iguel	16168
yfeno	16169
tyhji	16170
siegf	16171
cticu	16172
igita	16173
lüft	16174
užny	16175
äbä	16176
opcor	16177
abhas	16178
bänd	16179
bdsm	16180
ozart	16181
unhcr	16182
.,	16183
06	16184
añ	16185
aos	16186
bro	16187
clu	16188
crau	16189
cbc	16190
dm	16191
dys	16192
dtaa	16193
dir	16194
dest	16195
ding	16196
eha	16197
eite	16198
ejan	16199
fk	16200
fg	16201
fum	16202
fear	16203
gw	16204
gue	16205
gras	16206
geri	16207
glan	16208
gts	16209
hjan	16210
hker	16211
iksu	16212
ián	16213
ipat	16214
já	16215
k1	16216
kha	16217
kvan	16218
kvar	16219
lc	16220
lvo	16221
lest	16222
lrik	16223
m5	16224
más	16225
ndie	16226
okia	16227
pé	16228
pél	16229
rjan	16230
rtun	16231
sg	16232
sjoh	16233
shan	16234
tn	16235
tlas	16236
ufa	16237
uwe	16238
uinea	16239
vine	16240
vnk	16241
wy	16242
wta	16243
word	16244
yc	16245
yes	16246
ykön	16247
ybak	16248
zer	16249
zitt	16250
­-	16251
älla	16252
ämil	16253
äppä	16254
él	16255
ér	16256
öw	16257
ökki	16258
öhn	16259
ühl	16260
вы	16261
ве	16262
нд	16263
€:	16264
##ep	16265
##uet	16266
##uni	16267
##des	16268
##ast	16269
##bal	16270
##bar	16271
##hg	16272
##mer	16273
##nd	16274
##cz	16275
##fra	16276
##yu	16277
##15	16278
##ле	16279
##ль	16280
##де	16281
tamp	16282
tapio	16283
##tig	16284
enja	16285
anku	16286
ismo	16287
istei	16288
isser	16289
jag	16290
##lig	16291
inc	16292
inksa	16293
insti	16294
inser	16295
inér	16296
tumme	16297
tumpp	16298
vack	16299
etva	16300
etku	16301
##tob	16302
alte	16303
alst	16304
almo	16305
alsu	16306
almor	16307
jork	16308
komi	16309
kodi	16310
kuse	16311
tihe	16312
tipo	16313
tias	16314
timaa	16315
##mej	16316
eivi	16317
eiver	16318
eigen	16319
kawa	16320
kambo	16321
kaiku	16322
ertio	16323
erder	16324
erbi	16325
##key	16326
aaeo	16327
olppa	16328
arna	16329
arhe	16330
arpo	16331
arita	16332
arton	16333
arnes	16334
artur	16335
sika	16336
silo	16337
sippi	16338
sirke	16339
sich	16340
sifa	16341
siuru	16342
layt	16343
laver	16344
laff	16345
espo	16346
esco	16347
asq	16348
asina	16349
assey	16350
ashio	16351
seer	16352
sees	16353
sekki	16354
mada	16355
stalo	16356
ildo	16357
ilhu	16358
ildia	16359
ildr	16360
saw	16361
satel	16362
sakat	16363
vila	16364
vich	16365
aipa	16366
aippo	16367
aiye	16368
nay	16369
nasa	16370
nari	16371
nack	16372
nagog	16373
elkko	16374
uuva	16375
uukin	16376
uuran	16377
uuram	16378
uulas	16379
pais	16380
pato	16381
parj	16382
pauld	16383
país	16384
hännä	16385
##ond	16386
näver	16387
näppe	16388
näppy	16389
tos	16390
tokse	16391
toor	16392
atino	16393
nie	16394
nippa	16395
itkun	16396
mian	16397
mico	16398
raks	16399
rado	16400
ravel	16401
raita	16402
raper	16403
ragu	16404
rabbi	16405
neto	16406
neck	16407
never	16408
nehm	16409
neov	16410
kiram	16411
iaki	16412
iatr	16413
hale	16414
harja	16415
hapu	16416
hayd	16417
hampo	16418
harif	16419
hadid	16420
unro	16421
tynny	16422
nobin	16423
taal	16424
##lea	16425
suola	16426
auf	16427
aulo	16428
iiti	16429
iipar	16430
pääki	16431
lef	16432
leop	16433
lemar	16434
leuto	16435
kedo	16436
keisa	16437
pic	16438
piel	16439
pich	16440
limp	16441
lipi	16442
limen	16443
liikk	16444
lihoi	16445
limat	16446
muki	16447
muina	16448
muhi	16449
muff	16450
urh	16451
urch	16452
istah	16453
perho	16454
pumpu	16455
sokka	16456
##hai	16457
iever	16458
iech	16459
ieppe	16460
tene	16461
tener	16462
hep	16463
heck	16464
lox	16465
lodz	16466
ulvo	16467
ulppu	16468
ulpe	16469
ulga	16470
ulver	16471
ultia	16472
iinik	16473
asili	16474
ormi	16475
ortun	16476
teloi	16477
mind	16478
minst	16479
minog	16480
oshi	16481
osco	16482
ossey	16483
ohke	16484
ohlin	16485
tiek	16486
kaur	16487
osao	16488
osamb	16489
opm	16490
viivo	16491
iikut	16492
oller	16493
euf	16494
alaz	16495
kyni	16496
romu	16497
roini	16498
terme	16499
terni	16500
ahrai	16501
illai	16502
rede	16503
reund	16504
targe	16505
utja	16506
venue	16507
sue	16508
supi	16509
sual	16510
sukat	16511
menev	16512
kany	16513
akta	16514
akel	16515
isik	16516
ylke	16517
tamh	16518
amry	16519
amér	16520
amlet	16521
eisen	16522
eison	16523
uhmar	16524
tutz	16525
iitu	16526
helte	16527
helmo	16528
säe	16529
säs	16530
säpi	16531
säkei	16532
sälek	16533
samb	16534
rkis	16535
astik	16536
mell	16537
mech	16538
mekon	16539
ryc	16540
prh	16541
irkka	16542
marx	16543
maría	16544
katke	16545
jumin	16546
dev	16547
dear	16548
demir	16549
defi	16550
deux	16551
deif	16552
detec	16553
ytvy	16554
avl	16555
troni	16556
treng	16557
jatš	16558
eeve	16559
eemej	16560
uarez	16561
virsi	16562
kaaki	16563
kaado	16564
ainai	16565
ätis	16566
ätin	16567
korvi	16568
selkä	16569
älvi	16570
illm	16571
mynt	16572
oura	16573
ouvi	16574
ouhea	16575
oulos	16576
oudar	16577
rudy	16578
rummu	16579
oisku	16580
emb	16581
emer	16582
emul	16583
dah	16584
daho	16585
ranç	16586
ranko	16587
uisui	16588
erkes	16589
torf	16590
tortu	16591
kuuri	16592
icro	16593
icco	16594
hid	16595
hipa	16596
hile	16597
oonar	16598
tulpp	16599
allit	16600
riso	16601
risse	16602
olos	16603
sinku	16604
siniv	16605
polku	16606
omino	16607
lani	16608
lanno	16609
ooks	16610
oover	16611
ooker	16612
kark	16613
ojah	16614
agd	16615
agee	16616
agos	16617
agano	16618
agnia	16619
alome	16620
hanb	16621
eser	16622
tuima	16623
hämär	16624
##bbs	16625
ev3	16626
ttyy	16627
chp	16628
ejar	16629
idje	16630
idze	16631
imer	16632
hura	16633
huvi	16634
doja	16635
murik	16636
leni	16637
lenh	16638
silp	16639
iom	16640
iois	16641
dian	16642
iann	16643
iance	16644
lympi	16645
lykki	16646
lyck	16647
harho	16648
kkred	16649
urat	16650
anij	16651
moo	16652
moya	16653
umon	16654
eaur	16655
öykä	16656
öyrä	16657
tumba	16658
synni	16659
nette	16660
önö	16661
arthy	16662
antra	16663
eikko	16664
hori	16665
norr	16666
norra	16667
norrk	16668
ikawa	16669
acu	16670
aca	16671
kärrä	16672
innik	16673
kirr	16674
tasau	16675
ensaa	16676
apal	16677
apaj	16678
skr	16679
ský	16680
okic	16681
laake	16682
koipi	16683
koidu	16684
adoi	16685
addi	16686
adzh	16687
berke	16688
olyb	16689
cou	16690
colo	16691
coast	16692
ideal	16693
räd	16694
räplä	16695
abi	16696
ablu	16697
alesi	16698
203	16699
akedo	16700
peter	16701
palam	16702
dyy	16703
ancur	16704
mats	16705
matte	16706
theo	16707
kkaus	16708
otur	16709
iuhu	16710
iuff	16711
iuhah	16712
ostar	16713
naapi	16714
asett	16715
152	16716
151	16717
oyle	16718
stenl	16719
eney	16720
ould	16721
dump	16722
engb	16723
123	16724
tahr	16725
uller	16726
ovie	16727
scl	16728
303	16729
idad	16730
aesar	16731
runne	16732
aft	16733
seth	16734
wab	16735
waite	16736
eod	16737
kaima	16738
kaila	16739
miap	16740
kääry	16741
oneh	16742
ankan	16743
114	16744
endel	16745
ipk	16746
ipch	16747
bahr	16748
einik	16749
latf	16750
uelli	16751
uber	16752
ubst	16753
148	16754
unnar	16755
urmas	16756
donk	16757
melad	16758
164	16759
161	16760
urjel	16761
wig	16762
wigg	16763
ownt	16764
owood	16765
owens	16766
izo	16767
izia	16768
izio	16769
viati	16770
luott	16771
antur	16772
antun	16773
sats	16774
lmén	16775
408	16776
epän	16777
eper	16778
äinö	16779
liete	16780
reng	16781
rone	16782
rontu	16783
reav	16784
oache	16785
oaqui	16786
purku	16787
repun	16788
skaba	16789
244	16790
ashir	16791
jani	16792
skic	16793
nöjd	16794
mct	16795
ouris	16796
ugent	16797
golff	16798
opec	16799
koov	16800
ainii	16801
ainiv	16802
armeu	16803
gomes	16804
itet	16805
lipuu	16806
pöl	16807
pöllö	16808
ect	16809
ecch	16810
kurkk	16811
äkit	16812
beito	16813
htey	16814
trad	16815
amea	16816
ernes	16817
231	16818
212	16819
211	16820
seat	16821
pilku	16822
indik	16823
induk	16824
193	16825
197	16826
stern	16827
ohar	16828
ogo	16829
fix	16830
fift	16831
emif	16832
grani	16833
granh	16834
intro	16835
svr	16836
rempa	16837
litsh	16838
vych	16839
264	16840
268	16841
kukat	16842
ieska	16843
mutka	16844
riek	16845
urgum	16846
auvak	16847
skept	16848
peng	16849
ostut	16850
gio	16851
gimme	16852
laya	16853
treis	16854
aasus	16855
wey	16856
ökkel	16857
haifa	16858
293	16859
297	16860
295	16861
wilk	16862
impun	16863
odom	16864
skets	16865
oche	16866
occo	16867
notku	16868
evič	16869
ujar	16870
ezina	16871
ezesh	16872
uittu	16873
mentt	16874
rapun	16875
auhut	16876
onsul	16877
458	16878
455	16879
ikant	16880
sylk	16881
nart	16882
narv	16883
umal	16884
umat	16885
tsala	16886
tsamo	16887
tsahk	16888
okoma	16889
onnar	16890
amban	16891
319	16892
316	16893
naly	16894
riimi	16895
altia	16896
emoj	16897
aosi	16898
uivah	16899
rtv	16900
rotk	16901
rotki	16902
trow	16903
trip	16904
rooy	16905
röke	16906
röger	16907
örmi	16908
yama	16909
iekan	16910
371	16911
reez	16912
loori	16913
touch	16914
ossel	16915
uurma	16916
groz	16917
ippis	16918
ipper	16919
homer	16920
sirps	16921
410	16922
nfp	16923
häid	16924
443	16925
445	16926
pont	16927
kamma	16928
rowe	16929
liuda	16930
lbar	16931
hieu	16932
garn	16933
apok	16934
sepän	16935
512	16936
shamp	16937
ikrok	16938
432	16939
nokik	16940
futi	16941
funi	16942
filh	16943
warz	16944
solut	16945
520	16946
ltd	16947
noida	16948
bye	16949
deat	16950
edica	16951
imuri	16952
clas	16953
clara	16954
horne	16955
ioosi	16956
620	16957
glaz	16958
pinna	16959
oudoi	16960
uupui	16961
590	16962
joog	16963
641	16964
ilpil	16965
sjuk	16966
775	16967
##rth	16968
withd	16969
530	16970
rusta	16971
farma	16972
klus	16973
klini	16974
ount	16975
abbri	16976
nakit	16977
iimau	16978
ucca	16979
ucure	16980
820	16981
axima	16982
995	16983
dorna	16984
önsy	16985
780	16986
ortop	16987
griek	16988
grizz	16989
760	16990
corsa	16991
utera	16992
nolot	16993
rouda	16994
sarpa	16995
sarda	16996
ärtin	16997
burke	16998
ujon	16999
cintu	17000
aque	17001
aqua	17002
olste	17003
rags	17004
raghi	17005
hiile	17006
epor	17007
rüdig	17008
cial	17009
äval	17010
arsaa	17011
takoo	17012
hihka	17013
gyll	17014
iehuv	17015
ipai	17016
uerma	17017
oihup	17018
krohn	17019
ncel	17020
clend	17021
urrey	17022
godz	17023
tryff	17024
ounai	17025
amsau	17026
iablo	17027
ülen	17028
sakot	17029
svall	17030
esoma	17031
craw	17032
etiso	17033
uuhai	17034
mönkä	17035
oosep	17036
iore	17037
höylä	17038
rysky	17039
ybar	17040
aidat	17041
liuos	17042
ánche	17043
uokol	17044
eulaa	17045
rewer	17046
vajau	17047
hioa	17048
quid	17049
madou	17050
diili	17051
diiva	17052
moral	17053
hayes	17054
töyke	17055
nuhte	17056
ravur	17057
hiiam	17058
grish	17059
wenn	17060
oogla	17061
butke	17062
vpk	17063
awei	17064
oulié	17065
aestr	17066
nänni	17067
pwhl	17068
rlov	17069
agreb	17070
gheb	17071
kvino	17072
vtov	17073
vjat	17074
ław	17075
orcok	17076
izhz	17077
crauc	17078
dtaag	17079
grass	17080
hkera	17081
kvant	17082
".	17083
3x	17084
4x	17085
a4	17086
a6	17087
adia	17088
aoré	17089
bike	17090
bee	17091
cb	17092
csa	17093
cte	17094
coni	17095
dina	17096
dine	17097
deri	17098
ebby	17099
eña	17100
fla	17101
futu	17102
fas	17103
fram	17104
für	17105
gd	17106
gs	17107
gus	17108
gne	17109
gft	17110
hrö	17111
ié	17112
jc	17113
kn	17114
kí	17115
lg	17116
ln	17117
liks	17118
mutu	17119
mort	17120
mén	17121
nå	17122
nys	17123
nona	17124
oë	17125
ompi	17126
oksu	17127
oca	17128
oci	17129
psa	17130
pte	17131
pks	17132
ptan	17133
pusu	17134
q6	17135
rz	17136
rx	17137
rsa	17138
rito	17139
rust	17140
rvaa	17141
rbc	17142
rvon	17143
sby	17144
szy	17145
são	17146
spir	17147
tw	17148
tine	17149
trii	17150
uw	17151
uč	17152
uce	17153
vessa	17154
visk	17155
vhs	17156
wn	17157
wha	17158
wide	17159
whl	17160
wiki	17161
wess	17162
xp	17163
xper	17164
yx	17165
yra	17166
ydo	17167
ycke	17168
ypär	17169
zh	17170
zon	17171
zor	17172
zum	17173
zeng	17174
zam	17175
ále	17176
ádiz	17177
äg	17178
äpa	17179
äpä	17180
éq	17181
öj	17182
ša	17183
ва	17184
ка	17185
ле	17186
по	17187
##lb	17188
##lon	17189
##eu	17190
##rr	17191
##kl	17192
##kku	17193
##uw	17194
##ddi	17195
##bra	17196
##äck	17197
##mf	17198
##sd	17199
##san	17200
##ste	17201
##cr	17202
##jun	17203
##fl	17204
##fer	17205
##ylo	17206
##yev	17207
##на	17208
##øn	17209
##ля	17210
##ся	17211
##ур	17212
##ún	17213
##же	17214
##ót	17215
taro	17216
tatia	17217
##sij	17218
##tib	17219
anue	17220
jav	17221
jas	17222
jasi	17223
oner	17224
onso	17225
onssi	17226
onver	17227
onci	17228
onley	17229
##lie	17230
##lid	17231
tuko	17232
tuju	17233
tummu	17234
tupat	17235
tukos	17236
vad	17237
vaj	17238
etun	17239
##ses	17240
##tod	17241
alde	17242
alys	17243
alda	17244
alev	17245
alck	17246
alvia	17247
alsh	17248
jom	17249
joki	17250
jore	17251
kote	17252
kojo	17253
kossi	17254
koppa	17255
koje	17256
kobe	17257
kusti	17258
kuilu	17259
uopa	17260
tier	17261
tira	17262
tiine	17263
tifo	17264
##kic	17265
eier	17266
kado	17267
erf	17268
erdo	17269
erkaa	17270
erino	17271
erza	17272
aaki	17273
olde	17274
olvi	17275
olha	17276
olce	17277
oltan	17278
olkun	17279
olgog	17280
tevie	17281
arska	17282
siti	17283
sillo	17284
sient	17285
laksi	17286
lakin	17287
laga	17288
larke	17289
larc	17290
lard	17291
lampe	17292
esc	17293
espe	17294
esca	17295
asmo	17296
seta	17297
seve	17298
magu	17299
stas	17300
ilse	17301
ilty	17302
ilter	17303
##ets	17304
viulu	17305
viper	17306
aiver	17307
aige	17308
aihio	17309
aifu	17310
aipai	17311
aigne	17312
naka	17313
nako	17314
nalli	17315
nappu	17316
nalu	17317
nasu	17318
nagy	17319
nacio	17320
eldi	17321
elga	17322
eldt	17323
uuman	17324
uutil	17325
uuppa	17326
uukas	17327
uuhea	17328
pac	17329
paita	17330
paisa	17331
nnal	17332
nnsb	17333
##ont	17334
nät	17335
näk	17336
näsi	17337
näper	17338
ussu	17339
toffe	17340
tooth	17341
atš	17342
atty	17343
atsu	17344
nib	17345
nix	17346
niti	17347
nivu	17348
nikar	17349
mile	17350
miika	17351
mizu	17352
miura	17353
raini	17354
raksu	17355
rawa	17356
rampp	17357
rauns	17358
kundi	17359
nean	17360
neer	17361
nepo	17362
nepsy	17363
nepr	17364
kipi	17365
kidu	17366
kiito	17367
kiff	17368
kippo	17369
iau	17370
iafra	17371
jäm	17372
jäder	17373
läppi	17374
lätäk	17375
hap	17376
hatu	17377
hakin	17378
hack	17379
hash	17380
hatib	17381
unki	17382
unia	17383
undo	17384
undu	17385
oiha	17386
tyve	17387
tympä	17388
nov	17389
noc	17390
noot	17391
notka	17392
##nej	17393
yhmy	17394
aumi	17395
aumo	17396
aure	17397
iidi	17398
otut	17399
otch	17400
lempp	17401
kepi	17402
keito	17403
##yst	17404
saast	17405
send	17406
liel	17407
liue	17408
lieri	17409
lica	17410
lifs	17411
pod	17412
pox	17413
poch	17414
mukul	17415
urvi	17416
urmo	17417
urder	17418
urya	17419
urtig	17420
sykki	17421
aano	17422
aanar	17423
ukit	17424
ajur	17425
iepi	17426
iebe	17427
ievar	17428
tenf	17429
hesa	17430
heini	17431
hems	17432
##väk	17433
loe	17434
loet	17435
lopo	17436
lohi	17437
ulan	17438
asif	17439
orc	17440
orel	17441
orkki	17442
orelo	17443
ospa	17444
ostel	17445
hyte	17446
osal	17447
osaka	17448
ehr	17449
viima	17450
jenko	17451
ienta	17452
alami	17453
kyf	17454
kypär	17455
roska	17456
roba	17457
rogo	17458
robi	17459
rory	17460
robo	17461
romes	17462
illei	17463
terr	17464
tera	17465
teron	17466
ahlu	17467
ahre	17468
ahnau	17469
alune	17470
edan	17471
eddar	17472
reka	17473
reppa	17474
rebs	17475
retor	17476
allar	17477
tarb	17478
tarh	17479
uonti	17480
##vez	17481
uther	17482
sud	17483
suki	17484
suksi	17485
sukka	17486
sulam	17487
suez	17488
riga	17489
rigg	17490
stori	17491
storm	17492
menu	17493
kank	17494
kanu	17495
kante	17496
akh	17497
apter	17498
töpp	17499
pelt	17500
ylsä	17501
ylpi	17502
ylén	17503
tamma	17504
amino	17505
amur	17506
amses	17507
itser	17508
isäl	17509
##mol	17510
mery	17511
merka	17512
sällä	17513
säike	17514
luome	17515
mex	17516
meini	17517
megle	17518
metod	17519
yök	17520
omain	17521
ryki	17522
rynä	17523
vez	17524
veist	17525
veivi	17526
vejk	17527
veinb	17528
irpe	17529
irho	17530
irger	17531
irpai	17532
yyni	17533
yykö	17534
turk	17535
turvo	17536
marsa	17537
marsu	17538
uig	17539
uili	17540
uimi	17541
uiro	17542
vanu	17543
vanke	17544
kath	17545
katti	17546
kolts	17547
jup	17548
jub	17549
deko	17550
avak	17551
ytis	17552
avet	17553
lingo	17554
parki	17555
eeva	17556
eekr	17557
eeper	17558
uay	17559
virma	17560
virku	17561
nteg	17562
veru	17563
kaas	17564
ngar	17565
ents	17566
deny	17567
ajax	17568
palan	17569
ättäv	17570
inav	17571
inad	17572
korut	17573
kormi	17574
korpr	17575
mmers	17576
mmhg	17577
selai	17578
##gam	17579
usei	17580
otep	17581
otec	17582
pitti	17583
kaske	17584
astal	17585
haahu	17586
uunaa	17587
auss	17588
ärn	17589
äreh	17590
mitja	17591
mitry	17592
mitsh	17593
oulo	17594
oukas	17595
ouhev	17596
ruv	17597
ruse	17598
ruks	17599
rupi	17600
ruger	17601
oiske	17602
ellah	17603
milka	17604
emon	17605
ember	17606
embe	17607
dao	17608
dale	17609
darth	17610
ähin	17611
ranke	17612
ranck	17613
rango	17614
uissi	17615
tord	17616
stro	17617
kuusi	17618
nuoli	17619
nuole	17620
icka	17621
hib	17622
hies	17623
hipi	17624
pisa	17625
##ash	17626
salku	17627
ässäk	17628
nya	17629
raadi	17630
neuv	17631
sinb	17632
siner	17633
ampus	17634
ombi	17635
ombin	17636
ombo	17637
##ald	17638
lansi	17639
lanne	17640
ooko	17641
oopa	17642
karko	17643
kardi	17644
karbo	17645
tuulo	17646
agon	17647
aggie	17648
otie	17649
ellep	17650
ulot	17651
liiva	17652
antah	17653
upit	17654
upun	17655
laumo	17656
ielis	17657
nouti	17658
evx	17659
ev6	17660
evet	17661
evón	17662
chré	17663
mant	17664
stöle	17665
imul	17666
alig	17667
huike	17668
hugk	17669
hinch	17670
ojev	17671
doz	17672
dobe	17673
ioz	17674
akum	17675
dima	17676
dile	17677
dior	17678
ians	17679
ianni	17680
uroa	17681
lyni	17682
lyas	17683
lyps	17684
herra	17685
herpa	17686
herro	17687
iisin	17688
iisor	17689
iisar	17690
orid	17691
äiski	17692
mob	17693
moti	17694
moki	17695
mopi	17696
mour	17697
mouru	17698
moud	17699
moisa	17700
umban	17701
##ssö	17702
eau	17703
eap	17704
eah	17705
eade	17706
eaver	17707
öyre	17708
öynä	17709
rauni	17710
rauco	17711
ruoat	17712
tumma	17713
aatia	17714
nets	17715
öntti	17716
oiku	17717
oikor	17718
uinne	17719
omid	17720
hoto	17721
hock	17722
hodar	17723
ihau	17724
norl	17725
ainà	17726
itia	17727
annib	17728
acar	17729
accu	17730
inny	17731
aitai	17732
ntv	17733
laiti	17734
jalm	17735
takit	17736
taker	17737
ynes	17738
nisu	17739
nisa	17740
niste	17741
innat	17742
##osf	17743
lehmu	17744
eitel	17745
egro	17746
egeh	17747
eggie	17748
laavu	17749
empel	17750
adv	17751
adis	17752
admi	17753
berm	17754
olak	17755
odgk	17756
tona	17757
tonne	17758
nuele	17759
nuppi	17760
yren	17761
yrylo	17762
code	17763
colos	17764
uulaa	17765
räike	17766
räpi	17767
räisä	17768
räppä	17769
abl	17770
abul	17771
abad	17772
abdir	17773
autal	17774
204	17775
209	17776
202	17777
201	17778
elato	17779
oimar	17780
iinav	17781
spv	17782
viljo	17783
illie	17784
ancer	17785
elmut	17786
jevo	17787
jekku	17788
atula	17789
urkel	17790
ruud	17791
iuko	17792
naar	17793
naama	17794
arrel	17795
153	17796
##essl	17797
stenb	17798
enesi	17799
oulev	17800
oehm	17801
sdót	17802
duc	17803
dura	17804
ttt	17805
127	17806
tahro	17807
ibe	17808
ibo	17809
enier	17810
307	17811
aeb	17812
afka	17813
oskio	17814
ännej	17815
uormi	17816
ölky	17817
ekra	17818
water	17819
adiz	17820
adir	17821
honi	17822
hone	17823
honki	17824
inkl	17825
inker	17826
eoty	17827
ikkoa	17828
utkut	17829
ndte	17830
kaivu	17831
unic	17832
lory	17833
asama	17834
obso	17835
likka	17836
likki	17837
boyd	17838
bomb	17839
ofee	17840
ebet	17841
ketta	17842
sisu	17843
sisa	17844
oppe	17845
oppej	17846
psv	17847
504	17848
ipan	17849
ipro	17850
ipst	17851
bak	17852
bala	17853
educ	17854
einel	17855
latz	17856
latv	17857
ivän	17858
urio	17859
utop	17860
ontto	17861
jill	17862
annua	17863
diat	17864
dont	17865
ifta	17866
orsl	17867
167	17868
182	17869
uukan	17870
wieni	17871
wifi	17872
omple	17873
ompeo	17874
owes	17875
171	17876
avic	17877
omed	17878
omef	17879
omehi	17880
urugu	17881
epit	17882
epel	17883
renne	17884
roni	17885
oach	17886
aimio	17887
oppah	17888
jarla	17889
purl	17890
ajei	17891
immar	17892
natse	17893
243	17894
sorm	17895
pper	17896
iskop	17897
mcr	17898
mcn	17899
mcma	17900
shuk	17901
shton	17902
kelt	17903
gua	17904
uget	17905
rivon	17906
koove	17907
assid	17908
entol	17909
gout	17910
amuaa	17911
ecter	17912
echl	17913
kurt	17914
kursk	17915
sykl	17916
muona	17917
omor	17918
altis	17919
beza	17920
äihk	17921
trap	17922
ratak	17923
226	17924
222	17925
umpun	17926
217	17927
218	17928
leimu	17929
eye	17930
uteli	17931
ulema	17932
halj	17933
erako	17934
276	17935
puuta	17936
lomf	17937
fif	17938
fior	17939
holho	17940
##rum	17941
oltz	17942
nasto	17943
litor	17944
kousa	17945
orey	17946
kumit	17947
ewa	17948
266	17949
262	17950
issy	17951
luuti	17952
luuvi	17953
riema	17954
soima	17955
ellii	17956
geen	17957
eoni	17958
etiv	17959
ötte	17960
tauri	17961
sumut	17962
283	17963
286	17964
giga	17965
eilaa	17966
vitš	17967
vitja	17968
teipi	17969
haidt	17970
eljee	17971
autia	17972
299	17973
retr	17974
retty	17975
surd	17976
reib	17977
impo	17978
impur	17979
lkan	17980
käsn	17981
jörs	17982
iitar	17983
ändel	17984
egas	17985
uena	17986
itkut	17987
ezos	17988
ezzi	17989
foo	17990
uitti	17991
lermo	17992
kopla	17993
ystr	17994
bubbe	17995
bio	17996
carol	17997
mökei	17998
aksut	17999
ämpän	18000
ämpär	18001
453	18002
amoc	18003
ramin	18004
hitz	18005
rbe	18006
arkei	18007
munk	18008
carp	18009
carm	18010
topv	18011
ambe	18012
place	18013
riiva	18014
riihi	18015
ärsy	18016
tolki	18017
hatz	18018
325	18019
evoq	18020
##beck	18021
assy	18022
nessy	18023
344	18024
aasuv	18025
resc	18026
resis	18027
trob	18028
delp	18029
trib	18030
värd	18031
roosi	18032
himma	18033
ynth	18034
idor	18035
örppi	18036
yach	18037
graz	18038
ullia	18039
384	18040
kitso	18041
##zep	18042
kuple	18043
keiju	18044
uuraa	18045
465	18046
opas	18047
uani	18048
uulot	18049
leado	18050
heig	18051
heila	18052
ript	18053
ripit	18054
alkil	18055
räsy	18056
liuko	18057
liukk	18058
garb	18059
rjab	18060
haug	18061
hauis	18062
hauer	18063
510	18064
515	18065
shad	18066
gissl	18067
arsea	18068
ikroa	18069
works	18070
worce	18071
utsha	18072
loid	18073
loimu	18074
fua	18075
livem	18076
ortes	18077
shima	18078
wartz	18079
solju	18080
pult	18081
intul	18082
intur	18083
492	18084
lgar	18085
lesko	18086
majoi	18087
589	18088
horna	18089
dikt	18090
leepy	18091
nusk	18092
awch	18093
sauv	18094
sauva	18095
attle	18096
615	18097
athon	18098
nivus	18099
urkur	18100
braz	18101
witk	18102
670	18103
oops	18104
siida	18105
leuke	18106
699	18107
öller	18108
ucha	18109
untsi	18110
meira	18111
rumma	18112
810	18113
745	18114
dorff	18115
combi	18116
cube	18117
hölt	18118
orsas	18119
siema	18120
860	18121
corn	18122
919	18123
bbq	18124
bbott	18125
ixi	18126
ixar	18127
kivut	18128
sarva	18129
schul	18130
nonyy	18131
960	18132
burg	18133
ondol	18134
gamba	18135
robso	18136
arvau	18137
demog	18138
swim	18139
öyst	18140
mihai	18141
rynk	18142
sloo	18143
wolve	18144
uxury	18145
nipun	18146
olshu	18147
törrö	18148
aisaz	18149
okkia	18150
iidat	18151
fonch	18152
rpana	18153
latau	18154
koolc	18155
särmä	18156
bass	18157
clio	18158
ipak	18159
urpel	18160
werk	18161
werkk	18162
hukan	18163
hipoi	18164
thors	18165
wirec	18166
uihko	18167
agauz	18168
clint	18169
ndex	18170
ossum	18171
erval	18172
arneg	18173
femke	18174
ätöks	18175
kobri	18176
eimol	18177
arrot	18178
eepf	18179
crazy	18180
ärhäm	18181
sweet	18182
hulz	18183
auheu	18184
rozen	18185
uzuka	18186
healy	18187
cloud	18188
iulua	18189
alsto	18190
aspel	18191
utša	18192
utšer	18193
ädäna	18194
etkah	18195
mepit	18196
uenth	18197
arrey	18198
pcos	18199
uffi	18200
näpäy	18201
iorio	18202
agnar	18203
bahce	18204
quash	18205
rännk	18206
wikb	18207
seoks	18208
dvv	18209
midn	18210
otši	18211
surij	18212
abdol	18213
fyr	18214
lóp	18215
eidas	18216
aamea	18217
mdma	18218
weeg	18219
beth	18220
froa	18221
elvey	18222
hiial	18223
oodh	18224
bouch	18225
pörrö	18226
pörhö	18227
iyad	18228
snack	18229
abou	18230
wolfg	18231
p17	18232
ramea	18233
revc	18234
dliva	18235
ghost	18236
äisäl	18237
åkerl	18238
know	18239
låf	18240
ernav	18241
iegon	18242
himbu	18243
cream	18244
färs	18245
nürb	18246
ovisa	18247
psos	18248
xecut	18249
alpis	18250
oshop	18251
mehun	18252
пре	18253
ashem	18254
madeu	18255
ieeti	18256
ulpuk	18257
jurmo	18258
bjp	18259
wtc	18260
wäjer	18261
wemba	18262
ardub	18263
hysiq	18264
ynkro	18265
googl	18266
crisp	18267
fgm	18268
madag	18269
muhii	18270
derip	18271
hröd	18272
oëth	18273
ocie	18274
triim	18275
wnba	18276
wessf	18277
ález	18278
öjdi	18279
nnalt	18280
**	18281
-.	18282
a3	18283
a8	18284
aaa	18285
aet	18286
adot	18287
aev	18288
aone	18289
agie	18290
bit	18291
bmi	18292
bha	18293
bist	18294
cut	18295
chu	18296
cev	18297
cea	18298
cott	18299
curl	18300
dz	18301
dk	18302
dg	18303
ddi	18304
ež	18305
evis	18306
efa	18307
ebbie	18308
fuu	18309
ful	18310
film	18311
fly	18312
gq	18313
gó	18314
gta	18315
gde	18316
gle	18317
gha	18318
grja	18319
gtk	18320
gaal	18321
gea	18322
gere	18323
gord	18324
glim	18325
hü	18326
hry	18327
ibb	18328
ige	18329
iessl	18330
jj	18331
jbk	18332
kå	18333
kva	18334
kri	18335
knu	18336
læ	18337
lvin	18338
ldar	18339
lbio	18340
mn	18341
mf	18342
mé	18343
mri	18344
mher	18345
mski	18346
nz	18347
nq	18348
ná	18349
nsta	18350
nine	18351
nint	18352
nce	18353
neri	18354
ndor	18355
oel	18356
oer	18357
oky	18358
okaa	18359
oute	18360
ogaz	18361
obbie	18362
px	18363
pti	18364
pty	18365
pös	18366
qse	18367
rq	18368
r8	18369
r1	18370
rtu	18371
rpin	18372
rfk	18373
sise	18374
sler	18375
spar	18376
swood	18377
sbs	18378
szi	18379
slau	18380
sdiv	18381
té	18382
tva	18383
tle	18384
two	18385
uá	18386
urjo	18387
uga	18388
uito	18389
ueno	18390
ufe	18391
utan	18392
ví	18393
wu	18394
wf	18395
wro	18396
wilm	18397
wea	18398
wbc	18399
xu	18400
xs	18401
xtr	18402
yää	18403
yon	18404
ype	18405
yar	18406
yšk	18407
ybeck	18408
zad	18409
ávez	18410
ão	18411
äikk	18412
äpäl	18413
ötan	18414
ør	18415
øy	18416
бы	18417
ли	18418
ри	18419
то	18420
те	18421
##ip	18422
##vt	18423
##ebe	18424
##ren	18425
##rer	18426
##run	18427
##kri	18428
##dc	18429
##din	18430
##dan	18431
##dle	18432
##agu	18433
##bil	18434
##äs	18435
##äf	18436
##mky	18437
##mán	18438
##så	18439
##jb	18440
##wor	18441
##yi	18442
##yk	18443
##öl	18444
##та	18445
##ни	18446
##øl	18447
##90	18448
##ško	18449
##íð	18450
##ías	18451
##éa	18452
##éni	18453
##ет	18454
##ло	18455
##ère	18456
##уб	18457
##ča	18458
##ár	18459
##ми	18460
##ær	18461
##ěj	18462
taite	18463
tagi	18464
taute	18465
taco	18466
tats	18467
llit	18468
##tie	18469
ené	18470
enga	18471
enas	18472
enco	18473
enca	18474
enée	18475
anb	18476
anch	18477
isla	18478
issin	18479
jaz	18480
jama	18481
onj	18482
onga	18483
onbo	18484
ontun	18485
onkey	18486
##lip	18487
inz	18488
init	18489
inet	18490
tuik	18491
tuppi	18492
vasa	18493
vaun	18494
varju	18495
etle	18496
also	18497
alor	18498
jor	18499
joke	18500
kotka	18501
kuono	18502
uoki	18503
uolo	18504
uopi	18505
uodi	18506
uohah	18507
tima	18508
tippo	18509
tioni	18510
tilei	18511
##tea	18512
##tes	18513
eiät	18514
eiwo	18515
kab	18516
kalo	18517
kamu	18518
katia	18519
erd	18520
erž	18521
ertu	18522
erina	18523
ermo	18524
erga	18525
ervan	18526
erras	18527
erver	18528
ermat	18529
erlik	18530
aapa	18531
olki	18532
olja	18533
olna	18534
olgor	18535
##yth	18536
teist	18537
teini	18538
arq	18539
arf	18540
artu	18541
arde	18542
arle	18543
aree	18544
aruk	18545
ardot	18546
ariko	18547
arppi	18548
arder	18549
arkko	18550
arkon	18551
arod	18552
arbe	18553
arlem	18554
artos	18555
sipi	18556
sial	18557
siver	18558
sitar	18559
silau	18560
laik	18561
laite	18562
lamo	18563
laana	18564
lage	18565
labs	18566
lalom	18567
esma	18568
eson	18569
asm	18570
asma	18571
asmi	18572
asol	18573
asunt	18574
separ	18575
sevil	18576
magg	18577
maure	18578
matal	18579
mahdi	18580
mazep	18581
stac	18582
stara	18583
staff	18584
ilop	18585
ilea	18586
olij	18587
samm	18588
samp	18589
saun	18590
sace	18591
sampo	18592
sard	18593
savea	18594
aia	18595
aier	18596
aipi	18597
aippi	18598
aice	18599
aize	18600
aied	18601
aiji	18602
airea	18603
nasi	18604
name	18605
nake	18606
naika	18607
nask	18608
naiv	18609
napai	18610
##rat	18611
elel	18612
elro	18613
elina	18614
elmu	18615
elton	18616
uuko	18617
uurai	18618
uukon	18619
uullu	18620
uukun	18621
uupin	18622
papi	18623
passi	18624
paini	18625
pack	18626
paper	18627
näsä	18628
##rio	18629
usc	18630
usis	18631
usha	18632
uskin	18633
usky	18634
uston	18635
toli	18636
toro	18637
toppe	18638
tofu	18639
town	18640
atna	18641
##naz	18642
nih	18643
niil	18644
nium	18645
niht	18646
##lap	18647
itf	18648
itkat	18649
miram	18650
mids	18651
raik	18652
raer	18653
rampi	18654
rakki	18655
rasin	18656
raba	18657
rary	18658
rampo	18659
rambo	18660
kunku	18661
neos	18662
neča	18663
##rok	18664
kilah	18665
kivun	18666
iallo	18667
käp	18668
kämpp	18669
läväh	18670
haka	18671
havo	18672
haita	18673
hass	18674
hahl	18675
haba	18676
hammo	18677
hafe	18678
hauto	18679
unik	18680
unet	18681
unil	18682
unhu	18683
unho	18684
unlun	18685
oled	18686
noe	18687
nohd	18688
noem	18689
noch	18690
nobo	18691
noteb	18692
novg	18693
yhlb	18694
suoli	18695
auv	18696
auro	18697
auram	18698
auch	18699
auvig	18700
ihc	18701
ihis	18702
ihon	18703
iimo	18704
iilar	18705
oth	18706
otvo	18707
lepi	18708
leisk	18709
sanas	18710
keko	18711
kevo	18712
kejo	18713
keve	18714
kemar	18715
keps	18716
kepin	18717
keog	18718
kekri	18719
pita	18720
pivo	18721
piot	18722
nyth	18723
saav	18724
liq	18725
livo	18726
liga	18727
limaa	18728
liud	18729
pou	18730
polev	18731
ksii	18732
musa	18733
muja	18734
mummo	18735
murah	18736
muiku	18737
urko	18738
urde	18739
urne	18740
urppu	18741
urhel	18742
urvoi	18743
syb	18744
aanu	18745
pers	18746
toia	18747
ajsa	18748
purje	18749
publ	18750
sola	18751
sock	18752
soft	18753
ieb	18754
iew	18755
iehah	18756
ieuw	18757
tenh	18758
tenc	18759
heg	18760
hef	18761
heli	18762
hees	18763
hemm	18764
heil	18765
hexi	18766
esir	18767
lob	18768
lopa	18769
lola	18770
lover	18771
lober	18772
lodar	18773
ulr	18774
ulpu	18775
ulton	18776
ulvaa	18777
ulkur	18778
orand	18779
orzo	18780
orror	18781
orås	18782
nuts	18783
telje	18784
telak	18785
ming	18786
valm	18787
osq	18788
ossin	18789
osser	18790
oscon	18791
ohl	18792
ohina	18793
maata	18794
itäi	18795
lume	18796
lumpi	18797
luga	18798
luff	18799
ehrä	18800
opan	18801
opse	18802
oplee	18803
opsah	18804
viiri	18805
olly	18806
eulo	18807
ienv	18808
iens	18809
iento	18810
alaj	18811
kytee	18812
kydö	18813
tanis	18814
tanna	18815
romp	18816
roga	18817
roby	18818
rocc	18819
rocid	18820
rodig	18821
kest	18822
ahle	18823
keram	18824
edg	18825
edy	18826
edin	18827
edda	18828
ediv	18829
edwi	18830
ässi	18831
itas	18832
misu	18833
reel	18834
reik	18835
rese	18836
retu	18837
remo	18838
reff	18839
revor	18840
tarve	18841
utka	18842
ensio	18843
estas	18844
veng	18845
venti	18846
sulat	18847
sulak	18848
suvun	18849
sudž	18850
rimp	18851
riest	18852
riuh	18853
rium	18854
rimes	18855
iäkky	18856
kanso	18857
apri	18858
apul	18859
apot	18860
apso	18861
apsu	18862
törö	18863
yloni	18864
amsey	18865
eisu	18866
saip	18867
uhina	18868
vaiv	18869
iiter	18870
äiji	18871
helt	18872
iker	18873
ikkau	18874
mert	18875
merch	18876
samy	18877
samma	18878
##lum	18879
astit	18880
mej	18881
meli	18882
mede	18883
mepe	18884
ryve	18885
prk	18886
vein	18887
irc	18888
irtu	18889
ires	18890
irke	18891
irsta	18892
irnes	18893
##dam	18894
yypp	18895
marsi	18896
marvi	18897
margi	18898
marev	18899
uitit	18900
käyr	18901
kolon	18902
kolhu	18903
juli	18904
judd	18905
jukic	18906
depp	18907
deck	18908
yter	18909
ytky	18910
avka	18911
avko	18912
avist	18913
truk	18914
lögi	18915
liner	18916
eezer	18917
uar	18918
tavå	18919
verg	18920
verdi	18921
verre	18922
verry	18923
kaaos	18924
ngél	18925
entš	18926
asum	18927
palst	18928
ätski	18929
inap	18930
inah	18931
mieta	18932
##gir	18933
mmel	18934
selkk	18935
oinnu	18936
ierik	18937
ierem	18938
ierce	18939
puod	18940
alleu	18941
älke	18942
älvä	18943
älky	18944
illen	18945
uutae	18946
ärti	18947
ärri	18948
oupi	18949
ounea	18950
ouvei	18951
amab	18952
runi	18953
rupo	18954
rube	18955
ruppe	18956
dad	18957
dali	18958
damp	18959
daha	18960
ähvel	18961
ijev	18962
rantz	18963
##ärd	18964
lasz	18965
uiste	18966
torna	18967
sth	18968
stran	18969
annya	18970
icrc	18971
tiini	18972
hif	18973
hier	18974
hiil	18975
hilli	18976
hiuk	18977
hiiri	18978
hihi	18979
hich	18980
hiwa	18981
hifi	18982
ellan	18983
nyl	18984
nyp	18985
nykä	18986
raaf	18987
raast	18988
allet	18989
allur	18990
riss	18991
atah	18992
isogy	18993
rinku	18994
rinno	18995
ringa	18996
sini	18997
sinkk	18998
kuto	18999
polji	19000
ampy	19001
amppe	19002
omch	19003
ommar	19004
lanz	19005
lanku	19006
lanca	19007
ooki	19008
ooppi	19009
ookka	19010
oody	19011
karv	19012
karka	19013
karna	19014
agger	19015
agnel	19016
otic	19017
ussar	19018
aloch	19019
hanna	19020
häki	19021
upv	19022
uput	19023
upre	19024
upsah	19025
uphor	19026
aalb	19027
ennev	19028
evro	19029
choi	19030
musca	19031
tasol	19032
mandu	19033
ids	19034
aliu	19035
alic	19036
alibu	19037
huil	19038
huve	19039
hual	19040
door	19041
dolor	19042
doagu	19043
murt	19044
teemi	19045
iomi	19046
ioske	19047
ioval	19048
vovt	19049
akuni	19050
dict	19051
ianz	19052
ianna	19053
uros	19054
lyte	19055
lyme	19056
lyad	19057
lykkä	19058
hendr	19059
järd	19060
harko	19061
herva	19062
herme	19063
hervo	19064
erome	19065
mod	19066
moa	19067
moh	19068
moko	19069
mori	19070
modo	19071
moštš	19072
umut	19073
umber	19074
nps	19075
eaka	19076
eagle	19077
unaw	19078
otal	19079
kover	19080
önk	19081
öngäs	19082
oikot	19083
eikon	19084
holl	19085
hoot	19086
hoda	19087
hook	19088
hodg	19089
hogat	19090
ihad	19091
acy	19092
acer	19093
acci	19094
[...]
