{
  "version": "1.0",
  "truncation": null,
  "padding": null,
  "added_tokens": [
    {
      "id": 0,
      "content": "[UNK]",
      "single_word": false,
      "lstrip": false,
      "rstrip": false,
      "normalized": false,
      "special": true
    },
    {
      "id": 1,
      "content": "[CLS]",
      "single_word": false,
      "lstrip": false,
      "rstrip": false,
      "normalized": false,
      "special": true
    },
    {
      "id": 2,
      "content": "[SEP]",
      "single_word": false,
      "lstrip": false,
      "rstrip": false,
      "normalized": false,
      "special": true
    },
    {
      "id": 3,
      "content": "[PAD]",
      "single_word": false,
      "lstrip": false,
      "rstrip": false,
      "normalized": false,
      "special": true
    },
    {
      "id": 4,
      "content": "[MASK]",
      "single_word": false,
      "lstrip": false,
      "rstrip": false,
      "normalized": false,
      "special": true
    }
  ],
  "normalizer": {
    "type": "Sequence",
    "normalizers": [
      {
        "type": "NFKC"
      },
      {
        "type": "Lowercase"
      }
    ]
  },
  "pre_tokenizer": {
    "type": "Whitespace"
  },
  "post_processor": null,
  "decoder": {
    "type": "WordPiece",
    "prefix": "##",
    "cleanup": true
  },
  "model": {
    "type": "WordPiece",
    "unk_token": "[UNK]",
    "continuing_subword_prefix": "##",
    "max_input_chars_per_word": 100,
    "vocab": {
      "[UNK]": 0,
      "[CLS]": 1,
      "[SEP]": 2,
      "[PAD]": 3,
      "[MASK]": 4,
      "!": 5,
      "\"": 6,
      "#": 7,
      "$": 8,
      "%": 9,
      "&": 10,
      "'": 11,
      "(": 12,
      ")": 13,
      "*": 14,
      "+": 15,
      ",": 16,
      "-": 17,
      ".": 18,
      "/": 19,
      "0": 20,
      "1": 21,
      "2": 22,
      "3": 23,
      "4": 24,
      "5": 25,
      "6": 26,
      "7": 27,
      "8": 28,
      "9": 29,
      ":": 30,
      ";": 31,
      "<": 32,
      "=": 33,
      ">": 34,
      "?": 35,
      "@": 36,
      "[": 37,
      "\\": 38,
      "]": 39,
      "_": 40,
      "`": 41,
      "a": 42,
      "b": 43,
      "c": 44,
      "d": 45,
      "e": 46,
      "f": 47,
      "g": 48,
      "h": 49,
      "i": 50,
      "j": 51,
      "k": 52,
      "l": 53,
      "m": 54,
      "n": 55,
      "o": 56,
      "p": 57,
      "q": 58,
      "r": 59,
      "s": 60,
      "t": 61,
      "u": 62,
      "v": 63,
      "w": 64,
      "x": 65,
      "y": 66,
      "z": 67,
      "~": 68,
      "": 69,
      "": 70,
      "": 71,
      "¡": 72,
      "¤": 73,
      "§": 74,
      "©": 75,
      "­": 76,
      "®": 77,
      "°": 78,
      "±": 79,
      "¶": 80,
      "·": 81,
      "×": 82,
      "ß": 83,
      "à": 84,
      "á": 85,
      "â": 86,
      "ã": 87,
      "ä": 88,
      "å": 89,
      "æ": 90,
      "ç": 91,
      "è": 92,
      "é": 93,
      "ê": 94,
      "ë": 95,
      "ì": 96,
      "í": 97,
      "î": 98,
      "ï": 99,
      "ð": 100,
      "ñ": 101,
      "ò": 102,
      "ó": 103,
      "ô": 104,
      "õ": 105,
      "ö": 106,
      "ø": 107,
      "ú": 108,
      "û": 109,
      "ü": 110,
      "ý": 111,
      "þ": 112,
      "ÿ": 113,
      "ā": 114,
      "ă": 115,
      "ą": 116,
      "ć": 117,
      "č": 118,
      "đ": 119,
      "ē": 120,
      "ė": 121,
      "ę": 122,
      "ě": 123,
      "ğ": 124,
      "ģ": 125,
      "ī": 126,
      "ı": 127,
      "ķ": 128,
      "ľ": 129,
      "ł": 130,
      "ń": 131,
      "ņ": 132,
      "ň": 133,
      "ō": 134,
      "ŏ": 135,
      "œ": 136,
      "ř": 137,
      "ś": 138,
      "ş": 139,
      "š": 140,
      "ū": 141,
      "ů": 142,
      "ų": 143,
      "ź": 144,
      "ż": 145,
      "ž": 146,
      "ǎ": 147,
      "ș": 148,
      "ț": 149,
      "ə": 150,
      "˗": 151,
      "́": 152,
      "̇": 153,
      "̈": 154,
      "α": 155,
      "μ": 156,
      "а": 157,
      "б": 158,
      "в": 159,
      "г": 160,
      "д": 161,
      "е": 162,
      "ж": 163,
      "з": 164,
      "и": 165,
      "й": 166,
      "к": 167,
      "л": 168,
      "м": 169,
      "н": 170,
      "о": 171,
      "п": 172,
      "р": 173,
      "с": 174,
      "т": 175,
      "у": 176,
      "ф": 177,
      "х": 178,
      "ц": 179,
      "ч": 180,
      "ш": 181,
      "щ": 182,
      "ы": 183,
      "ь": 184,
      "э": 185,
      "ю": 186,
      "я": 187,
      "ỏ": 188,
      "ố": 189,
      "‍": 190,
      "‐": 191,
      "‒": 192,
      "•": 193,
      "‰": 194,
      "′": 195,
      "⁄": 196,
      "⁣": 197,
      "€": 198,
      "−": 199,
      "∞": 200,
      "■": 201,
      "●": 202,
      "★": 203,
      "⭐": 204,
      "😂": 205,
      "🤌": 206,
      "##i": 207,
      "##j": 208,
      "##u": 209,
      "##n": 210,
      "##a": 211,
      "##k": 212,
      "##o": 213,
      "##e": 214,
      "##d": 215,
      "##p": 216,
      "##r": 217,
      "##f": 218,
      "##t": 219,
      "##l": 220,
      "##c": 221,
      "##s": 222,
      "##y": 223,
      "##h": 224,
      "##v": 225,
      "##z": 226,
      "##m": 227,
      "##ä": 228,
      "##5": 229,
      "##é": 230,
      "##9": 231,
      "##2": 232,
      "##x": 233,
      "##g": 234,
      "##b": 235,
      "##3": 236,
      "##ğ": 237,
      "##w": 238,
      "##0": 239,
      "##т": 240,
      "##к": 241,
      "##а": 242,
      "##х": 243,
      "##1": 244,
      "##ö": 245,
      "##q": 246,
      "##4": 247,
      "##8": 248,
      "##í": 249,
      "##в": 250,
      "##я": 251,
      "##щ": 252,
      "##е": 253,
      "##р": 254,
      "##å": 255,
      "##ü": 256,
      "##7": 257,
      "##á": 258,
      "##у": 259,
      "##6": 260,
      "##æ": 261,
      "##д": 262,
      "##с": 263,
      "##о": 264,
      "##н": 265,
      "##č": 266,
      "##š": 267,
      "##*": 268,
      "##ç": 269,
      "##ž": 270,
      "##ě": 271,
      "##è": 272,
      "##и": 273,
      "##ø": 274,
      "##л": 275,
      "##з": 276,
      "##ǎ": 277,
      "##ã": 278,
      "##ú": 279,
      "##м": 280,
      "##ā": 281,
      "##ć": 282,
      "##-": 283,
      "##)": 284,
      "##ï": 285,
      "##ь": 286,
      "##ñ": 287,
      "##ó": 288,
      "##й": 289,
      "##ă": 290,
      "##ń": 291,
      "##б": 292,
      "##ň": 293,
      "##ô": 294,
      "##ł": 295,
      "##∞": 296,
      "##г": 297,
      "##ы": 298,
      "##ț": 299,
      "##ж": 300,
      "##ř": 301,
      "##ð": 302,
      "##ë": 303,
      "##ê": 304,
      "##ą": 305,
      "##′": 306,
      "##ц": 307,
      "##ß": 308,
      "##õ": 309,
      "##ŏ": 310,
      "##à": 311,
      "##ę": 312,
      "##ÿ": 313,
      "##ч": 314,
      "##ō": 315,
      "##\"": 316,
      "##ỏ": 317,
      "##ý": 318,
      "##.": 319,
      "##+": 320,
      "##î": 321,
      "##̇": 322,
      "##­": 323,
      "##п": 324,
      "##ś": 325,
      "##:": 326,
      "##,": 327,
      "##★": 328,
      "##ю": 329,
      "##ò": 330,
      "##ų": 331,
      "##!": 332,
      "##ņ": 333,
      "##ə": 334,
      "##ì": 335,
      "##ģ": 336,
      "##]": 337,
      "##ū": 338,
      "##ố": 339,
      "##ė": 340,
      "##?": 341,
      "##ź": 342,
      "##§": 343,
      "##%": 344,
      "##/": 345,
      "##œ": 346,
      "##ů": 347,
      "##ı": 348,
      "##ż": 349,
      "##>": 350,
      "##â": 351,
      "##ta": 352,
      "##en": 353,
      "##is": 354,
      "##in": 355,
      "##an": 356,
      "##sa": 357,
      "ta": 358,
      "##si": 359,
      "##tä": 360,
      "##ll": 361,
      "ll": 362,
      "##ti": 363,
      "en": 364,
      "an": 365,
      "is": 366,
      "ja": 367,
      "on": 368,
      "##ut": 369,
      "##ka": 370,
      "##li": 371,
      "in": 372,
      "##it": 373,
      "##än": 374,
      "##el": 375,
      "tu": 376,
      "##ik": 377,
      "va": 378,
      "et": 379,
      "##se": 380,
      "##er": 381,
      "##to": 382,
      "##aa": 383,
      "al": 384,
      "jo": 385,
      "ko": 386,
      "ku": 387,
      "uo": 388,
      "tä": 389,
      "ti": 390,
      "ssa": 391,
      "##va": 392,
      "##ki": 393,
      "##te": 394,
      "##tu": 395,
      "##sä": 396,
      "##uo": 397,
      "##oi": 398,
      "##me": 399,
      "ei": 400,
      "ka": 401,
      "er": 402,
      "##us": 403,
      "##ko": 404,
      "##es": 405,
      "##ke": 406,
      "aa": 407,
      "ol": 408,
      "##yt": 409,
      "te": 410,
      "ar": 411,
      "##de": 412,
      "si": 413,
      "la": 414,
      "lla": 415,
      "es": 416,
      "as": 417,
      "##ää": 418,
      "se": 419,
      "##ja": 420,
      "##ma": 421,
      "ma": 422,
      "sta": 423,
      "il": 424,
      "##yö": 425,
      "##et": 426,
      "oli": 427,
      "sa": 428,
      "##lla": 429,
      "että": 430,
      "vi": 431,
      "##mi": 432,
      "ai": 433,
      "na": 434,
      "##ksi": 435,
      "##ra": 436,
      "el": 437,
      "uu": 438,
      "pa": 439,
      "hän": 440,
      "än": 441,
      "##den": 442,
      "nn": 443,
      "lle": 444,
      "##on": 445,
      "##ku": 446,
      "nä": 447,
      "##uu": 448,
      "##ty": 449,
      "##kse": 450,
      "##ri": 451,
      "us": 452,
      "to": 453,
      "at": 454,
      "##pa": 455,
      "##na": 456,
      "ni": 457,
      "##la": 458,
      "##ät": 459,
      "##mm": 460,
      "it": 461,
      "##lle": 462,
      "mi": 463,
      "##vat": 464,
      "##ks": 465,
      "##he": 466,
      "##hd": 467,
      "ra": 468,
      "##vi": 469,
      "kun": 470,
      "##mp": 471,
      "ne": 472,
      "##ro": 473,
      "ki": 474,
      "ia": 475,
      "ssä": 476,
      "ais": 477,
      "##llä": 478,
      "jä": 479,
      "kä": 480,
      "##kaan": 481,
      "myö": 482,
      "llis": 483,
      "lä": 484,
      "ha": 485,
      "##lo": 486,
      "##ul": 487,
      "nen": 488,
      "aik": 489,
      "un": 490,
      "##ssa": 491,
      "oi": 492,
      "llä": 493,
      "##kä": 494,
      "ukaan": 495,
      "##ina": 496,
      "ty": 497,
      "ole": 498,
      "##utta": 499,
      "no": 500,
      "##ne": 501,
      "taa": 502,
      "##rj": 503,
      "vä": 504,
      "##le": 505,
      "yh": 506,
      "suo": 507,
      "##il": 508,
      "au": 509,
      "ih": 510,
      "ii": 511,
      "myös": 512,
      "pää": 513,
      "ot": 514,
      "ää": 515,
      "le": 516,
      "san": 517,
      "##mis": 518,
      "ke": 519,
      "tta": 520,
      "##vo": 521,
      "pi": 522,
      "nyt": 523,
      "##ys": 524,
      "saa": 525,
      "sen": 526,
      "li": 527,
      "stä": 528,
      "po": 529,
      "ksi": 530,
      "mu": 531,
      "ur": 532,
      "sy": 533,
      "##isi": 534,
      "ista": 535,
      "aan": 536,
      "##tel": 537,
      "per": 538,
      "##pp": 539,
      "issa": 540,
      "kin": 541,
      "uk": 542,
      "##sta": 543,
      "##lli": 544,
      "toi": 545,
      "aj": 546,
      "voi": 547,
      "##ine": 548,
      "##mä": 549,
      "pu": 550,
      "so": 551,
      "aika": 552,
      "tti": 553,
      "##ha": 554,
      "ys": 555,
      "mutta": 556,
      "ie": 557,
      "ten": 558,
      "##kk": 559,
      "he": 560,
      "##vä": 561,
      "erto": 562,
      "esi": 563,
      "ovat": 564,
      "lo": 565,
      "##tö": 566,
      "ul": 567,
      "iin": 568,
      "asi": 569,
      "##oit": 570,
      "tun": 571,
      "vat": 572,
      "or": 573,
      "##ot": 574,
      "nut": 575,
      "tel": 576,
      "min": 577,
      "val": 578,
      "##taa": 579,
      "iden": 580,
      "kse": 581,
      "os": 582,
      "oh": 583,
      "tie": 584,
      "oit": 585,
      "kau": 586,
      "sano": 587,
      "lta": 588,
      "maa": 589,
      "vuo": 590,
      "##ise": 591,
      "##ni": 592,
      "itä": 593,
      "##ike": 594,
      "hy": 595,
      "lu": 596,
      "inen": 597,
      "ään": 598,
      "ttiin": 599,
      "työ": 600,
      "osa": 601,
      "eh": 602,
      "tila": 603,
      "ukse": 604,
      "tai": 605,
      "op": 606,
      "toimi": 607,
      "vii": 608,
      "tää": 609,
      "mä": 610,
      "jen": 611,
      "iik": 612,
      "oll": 613,
      "##ee": 614,
      "ttu": 615,
      "##ia": 616,
      "tapa": 617,
      "##ulu": 618,
      "uus": 619,
      "eu": 620,
      "aut": 621,
      "##ten": 622,
      "ien": 623,
      "nta": 624,
      "läh": 625,
      "ala": 626,
      "suu": 627,
      "nsa": 628,
      "##jä": 629,
      "taj": 630,
      "ky": 631,
      "tan": 632,
      "ro": 633,
      "ille": 634,
      "kes": 635,
      "##ist": 636,
      "ter": 637,
      "ah": 638,
      "pä": 639,
      "##kin": 640,
      "##inen": 641,
      "alu": 642,
      "ker": 643,
      "vasta": 644,
      "ed": 645,
      "##jo": 646,
      "äs": 647,
      "ollut": 648,
      "illa": 649,
      "jäl": 650,
      "viime": 651,
      "ita": 652,
      "ise": 653,
      "mis": 654,
      "esti": 655,
      "re": 656,
      "alla": 657,
      "tar": 658,
      "uol": 659,
      "##st": 660,
      "##vät": 661,
      "ertoo": 662,
      "uon": 663,
      "##pi": 664,
      "##ve": 665,
      "ut": 666,
      "ensi": 667,
      "enn": 668,
      "oike": 669,
      "esta": 670,
      "ven": 671,
      "täm": 672,
      "su": 673,
      "ri": 674,
      "tus": 675,
      "taina": 676,
      "nne": 677,
      "koko": 678,
      "niin": 679,
      "yksi": 680,
      "sto": 681,
      "uut": 682,
      "joka": 683,
      "ilta": 684,
      "##men": 685,
      "jälke": 686,
      "venä": 687,
      "men": 688,
      "eri": 689,
      "iä": 690,
      "kan": 691,
      "ttä": 692,
      "ak": 693,
      "ap": 694,
      "##hdo": 695,
      "tö": 696,
      "##rit": 697,
      "yhte": 698,
      "isi": 699,
      "##vu": 700,
      "pel": 701,
      "##ite": 702,
      "kuin": 703,
      "anssa": 704,
      "tuo": 705,
      "##elä": 706,
      "ase": 707,
      "yl": 708,
      "tam": 709,
      "taja": 710,
      "een": 711,
      "ilu": 712,
      "##no": 713,
      "am": 714,
      "muu": 715,
      "##do": 716,
      "tän": 717,
      "halli": 718,
      "vaa": 719,
      "uonna": 720,
      "päi": 721,
      "itse": 722,
      "##so": 723,
      "asia": 724,
      "##rä": 725,
      "##pä": 726,
      "oliis": 727,
      "koh": 728,
      "##ky": 729,
      "var": 730,
      "eis": 731,
      "##itä": 732,
      "taan": 733,
      "venäj": 734,
      "mme": 735,
      "sai": 736,
      "isä": 737,
      "olisi": 738,
      "jos": 739,
      "hänen": 740,
      "nkin": 741,
      "uh": 742,
      "tule": 743,
      "##tka": 744,
      "joh": 745,
      "tut": 746,
      "uomen": 747,
      "vai": 748,
      "iit": 749,
      "seu": 750,
      "äi": 751,
      "käyt": 752,
      "##ppu": 753,
      "ana": 754,
      "##mo": 755,
      "##llo": 756,
      "suome": 757,
      "essa": 758,
      "teh": 759,
      "yli": 760,
      "##ska": 761,
      "sanoo": 762,
      "sti": 763,
      "hel": 764,
      "ik": 765,
      "elä": 766,
      "##rja": 767,
      "uot": 768,
      "huo": 769,
      "auto": 770,
      "mer": 771,
      "sä": 772,
      "##ikk": 773,
      "##uk": 774,
      "sam": 775,
      "kuite": 776,
      "mies": 777,
      "##lu": 778,
      "luo": 779,
      "rk": 780,
      "##mme": 781,
      "asti": 782,
      "##vin": 783,
      "tanut": 784,
      "nto": 785,
      "täv": 786,
      "me": 787,
      "vät": 788,
      "##kö": 789,
      "yö": 790,
      "oma": 791,
      "ry": 792,
      "tapah": 793,
      "seura": 794,
      "##tää": 795,
      "pr": 796,
      "##tio": 797,
      "ve": 798,
      "oulu": 799,
      "yhd": 800,
      "ir": 801,
      "##un": 802,
      "ihin": 803,
      "##da": 804,
      "kuva": 805,
      "##kus": 806,
      "teri": 807,
      "##vel": 808,
      "##00": 809,
      "syy": 810,
      "##emm": 811,
      "uude": 812,
      "yy": 813,
      "tur": 814,
      "uoden": 815,
      "euro": 816,
      "##esti": 817,
      "assa": 818,
      "ohj": 819,
      "##utu": 820,
      "mar": 821,
      "ainen": 822,
      "uksi": 823,
      "ui": 824,
      "oikeu": 825,
      "sekä": 826,
      "ident": 827,
      "##kaa": 828,
      "käy": 829,
      "ukku": 830,
      "epä": 831,
      "van": 832,
      "kat": 833,
      "tukse": 834,
      "kol": 835,
      "aikki": 836,
      "ju": 837,
      "olla": 838,
      "ottel": 839,
      "perus": 840,
      "mää": 841,
      "maan": 842,
      "pres": 843,
      "ihmis": 844,
      "de": 845,
      "##kem": 846,
      "ava": 847,
      "lais": 848,
      "ukkue": 849,
      "vielä": 850,
      "yt": 851,
      "av": 852,
      "alais": 853,
      "tr": 854,
      "suom": 855,
      "##isä": 856,
      "tse": 857,
      "istä": 858,
      "näyt": 859,
      "##ino": 860,
      "##dot": 861,
      "jat": 862,
      "lö": 863,
      "lin": 864,
      "##ikä": 865,
      "vuoti": 866,
      "par": 867,
      "ee": 868,
      "yrit": 869,
      "eli": 870,
      "##pe": 871,
      "isto": 872,
      "stu": 873,
      "ua": 874,
      "vir": 875,
      "##rjo": 876,
      "mahdo": 877,
      "uussa": 878,
      "uole": 879,
      "nte": 880,
      "##tti": 881,
      "poh": 882,
      "ertoi": 883,
      "##rje": 884,
      "päivä": 885,
      "issä": 886,
      "vain": 887,
      "nsä": 888,
      "väli": 889,
      "tämä": 890,
      "neet": 891,
      "##man": 892,
      "nki": 893,
      "tav": 894,
      "ver": 895,
      "##di": 896,
      "kaa": 897,
      "##tei": 898,
      "aina": 899,
      "ng": 900,
      "pe": 901,
      "esime": 902,
      "ks": 903,
      "siitä": 904,
      "##yty": 905,
      "ent": 906,
      "##rai": 907,
      "talo": 908,
      "den": 909,
      "##mu": 910,
      "aja": 911,
      "vuosi": 912,
      "##po": 913,
      "pro": 914,
      "##mpi": 915,
      "asu": 916,
      "pal": 917,
      "##aaj": 918,
      "ukrai": 919,
      "suur": 920,
      "ät": 921,
      "ina": 922,
      "nais": 923,
      "ykse": 924,
      "mie": 925,
      "kor": 926,
      "emm": 927,
      "##iks": 928,
      "tutki": 929,
      "ede": 930,
      "##gi": 931,
      "kis": 932,
      "mm": 933,
      "anna": 934,
      "itten": 935,
      "muut": 936,
      "sitä": 937,
      "sel": 938,
      "iih": 939,
      "sanoi": 940,
      "oin": 941,
      "##vio": 942,
      "jul": 943,
      "##ga": 944,
      "rkiks": 945,
      "use": 946,
      "kul": 947,
      "ote": 948,
      "jää": 949,
      "tark": 950,
      "ier": 951,
      "aikut": 952,
      "##lö": 953,
      "pit": 954,
      "kas": 955,
      "puo": 956,
      "järje": 957,
      "nkilö": 958,
      "liik": 959,
      "määrä": 960,
      "alj": 961,
      "##täv": 962,
      "mon": 963,
      "minis": 964,
      "noin": 965,
      "pun": 966,
      "alle": 967,
      "asta": 968,
      "äl": 969,
      "aali": 970,
      "aljon": 971,
      "haa": 972,
      "ill": 973,
      "uun": 974,
      "##tee": 975,
      "voit": 976,
      "aus": 977,
      "lait": 978,
      "turva": 979,
      "eskus": 980,
      "##op": 981,
      "##or": 982,
      "kaksi": 983,
      "##ir": 984,
      "alta": 985,
      "uusi": 986,
      "tava": 987,
      "my": 988,
      "ist": 989,
      "##ilm": 990,
      "olev": 991,
      "aailm": 992,
      "uuta": 993,
      "är": 994,
      "mit": 995,
      "ou": 996,
      "jossa": 997,
      "ennen": 998,
      "alvel": 999,
      "isäks": 1000,
      "ili": 1001,
      "ama": 1002,
      "ru": 1003,
      "hyö": 1004,
      "ois": 1005,
      "##taan": 1006,
      "nti": 1007,
      "eivät": 1008,
      "vaih": 1009,
      "istu": 1010,
      "ella": 1011,
      "mil": 1012,
      "em": 1013,
      "kansa": 1014,
      "##ika": 1015,
      "astu": 1016,
      "##ol": 1017,
      "##sit": 1018,
      "kunna": 1019,
      "halu": 1020,
      "tuli": 1021,
      "aikka": 1022,
      "ikä": 1023,
      "ulko": 1024,
      "prose": 1025,
      "da": 1026,
      "koska": 1027,
      "##ele": 1028,
      "pys": 1029,
      "hyvin": 1030,
      "sillä": 1031,
      "edus": 1032,
      "äh": 1033,
      "utu": 1034,
      "paika": 1035,
      "##hu": 1036,
      "ij": 1037,
      "##iko": 1038,
      "ran": 1039,
      "##nn": 1040,
      "##är": 1041,
      "las": 1042,
      "uis": 1043,
      "lleen": 1044,
      "py": 1045,
      "erk": 1046,
      "ettei": 1047,
      "ansa": 1048,
      "##toi": 1049,
      "vali": 1050,
      "puhe": 1051,
      "aksi": 1052,
      "tor": 1053,
      "st": 1054,
      "ann": 1055,
      "tänyt": 1056,
      "iko": 1057,
      "##ana": 1058,
      "muun": 1059,
      "lline": 1060,
      "uassa": 1061,
      "yhdys": 1062,
      "usta": 1063,
      "kuu": 1064,
      "tru": 1065,
      "toise": 1066,
      "tämän": 1067,
      "nuo": 1068,
      "ic": 1069,
      "trump": 1070,
      "nnut": 1071,
      "tiin": 1072,
      "hi": 1073,
      "##essa": 1074,
      "##ita": 1075,
      "##em": 1076,
      "eksi": 1077,
      "ell": 1078,
      "komm": 1079,
      "arvo": 1080,
      "tulee": 1081,
      "äät": 1082,
      "pis": 1083,
      "##as": 1084,
      "tulo": 1085,
      "julk": 1086,
      "uolus": 1087,
      "##ttu": 1088,
      "tyis": 1089,
      "pitkä": 1090,
      "aihe": 1091,
      "arvio": 1092,
      "##tom": 1093,
      "##du": 1094,
      "##ssä": 1095,
      "tois": 1096,
      "valta": 1097,
      "sopi": 1098,
      "esit": 1099,
      "sal": 1100,
      "##vis": 1101,
      "elo": 1102,
      "oon": 1103,
      "opu": 1104,
      "aluee": 1105,
      "urhe": 1106,
      "##pu": 1107,
      "illä": 1108,
      "ilm": 1109,
      "tul": 1110,
      "ilpa": 1111,
      "väh": 1112,
      "istö": 1113,
      "##van": 1114,
      "##stä": 1115,
      "ässä": 1116,
      "pien": 1117,
      "kesä": 1118,
      "##ppi": 1119,
      "ltä": 1120,
      "haast": 1121,
      "pitää": 1122,
      "rake": 1123,
      "tieto": 1124,
      "mitä": 1125,
      "ing": 1126,
      "jon": 1127,
      "olen": 1128,
      "alue": 1129,
      "keski": 1130,
      "lut": 1131,
      "lap": 1132,
      "##joh": 1133,
      "ny": 1134,
      "suh": 1135,
      "etä": 1136,
      "äy": 1137,
      "kerto": 1138,
      "tode": 1139,
      "uotta": 1140,
      "##ho": 1141,
      "uomi": 1142,
      "raa": 1143,
      "##inä": 1144,
      "all": 1145,
      "elaaj": 1146,
      "neu": 1147,
      "euroa": 1148,
      "pois": 1149,
      "##ssi": 1150,
      "ris": 1151,
      "altio": 1152,
      "etty": 1153,
      "ata": 1154,
      "matka": 1155,
      "##ur": 1156,
      "iso": 1157,
      "##hde": 1158,
      "unn": 1159,
      "##ksa": 1160,
      "##kiv": 1161,
      "kunta": 1162,
      "milj": 1163,
      "uutta": 1164,
      "teki": 1165,
      "paikk": 1166,
      "olo": 1167,
      "miele": 1168,
      "nel": 1169,
      "epäil": 1170,
      "ryh": 1171,
      "nee": 1172,
      "jotka": 1173,
      "etta": 1174,
      "iiko": 1175,
      "anne": 1176,
      "ilmoi": 1177,
      "äiv": 1178,
      "rin": 1179,
      "sesti": 1180,
      "##re": 1181,
      "##rin": 1182,
      "ajan": 1183,
      "sin": 1184,
      "kut": 1185,
      "piste": 1186,
      "koti": 1187,
      "pol": 1188,
      "eid": 1189,
      "amp": 1190,
      "tiedo": 1191,
      "##ään": 1192,
      "iksi": 1193,
      "om": 1194,
      "ällä": 1195,
      "ari": 1196,
      "##al": 1197,
      "ttav": 1198,
      "helsi": 1199,
      "000": 1200,
      "mmä": 1201,
      "ettu": 1202,
      "uuden": 1203,
      "teli": 1204,
      "nno": 1205,
      "##kki": 1206,
      "##jan": 1207,
      "loppu": 1208,
      "kyse": 1209,
      "estar": 1210,
      "etaan": 1211,
      "lan": 1212,
      "ymp": 1213,
      "jonka": 1214,
      "##ide": 1215,
      "iikko": 1216,
      "##su": 1217,
      "eikä": 1218,
      "vara": 1219,
      "kään": 1220,
      "neuvo": 1221,
      "##deo": 1222,
      "annat": 1223,
      "kon": 1224,
      "oo": 1225,
      "tavat": 1226,
      "kar": 1227,
      "ilma": 1228,
      "päät": 1229,
      "ena": 1230,
      "oja": 1231,
      "tuu": 1232,
      "valme": 1233,
      "ag": 1234,
      "nuor": 1235,
      "nan": 1236,
      "etke": 1237,
      "oti": 1238,
      "häne": 1239,
      "vah": 1240,
      "eidän": 1241,
      "peli": 1242,
      "sija": 1243,
      "neljä": 1244,
      "ntti": 1245,
      "ttel": 1246,
      "yle": 1247,
      "ussa": 1248,
      "alo": 1249,
      "aiemm": 1250,
      "suunn": 1251,
      "empi": 1252,
      "ete": 1253,
      "minen": 1254,
      "##ini": 1255,
      "elle": 1256,
      "täh": 1257,
      "han": 1258,
      "##ue": 1259,
      "näin": 1260,
      "voima": 1261,
      "perhe": 1262,
      "ese": 1263,
      "ulo": 1264,
      "tui": 1265,
      "lii": 1266,
      "hä": 1267,
      "emmin": 1268,
      "ehdo": 1269,
      "anta": 1270,
      "ensim": 1271,
      "up": 1272,
      "tuot": 1273,
      "aal": 1274,
      "näh": 1275,
      "iihen": 1276,
      "enne": 1277,
      "ohjel": 1278,
      "yhde": 1279,
      "usko": 1280,
      "hyökk": 1281,
      "lau": 1282,
      "ntaj": 1283,
      "lisä": 1284,
      "pari": 1285,
      "##ran": 1286,
      "##bb": 1287,
      "ivat": 1288,
      "ntä": 1289,
      "uomio": 1290,
      "saat": 1291,
      "iitty": 1292,
      "uksia": 1293,
      "iel": 1294,
      "##lai": 1295,
      "##ito": 1296,
      "kerro": 1297,
      "##kka": 1298,
      "enemm": 1299,
      "met": 1300,
      "kolme": 1301,
      "nou": 1302,
      "minu": 1303,
      "ev": 1304,
      "tty": 1305,
      "##der": 1306,
      "pohjo": 1307,
      "uutis": 1308,
      "ch": 1309,
      "ulj": 1310,
      "iesti": 1311,
      "imm": 1312,
      "##sti": 1313,
      "ästi": 1314,
      "tulev": 1315,
      "##tk": 1316,
      "kaan": 1317,
      "##hdä": 1318,
      "raj": 1319,
      "kesku": 1320,
      "mus": 1321,
      "##kau": 1322,
      "aloit": 1323,
      "täj": 1324,
      "isää": 1325,
      "uolue": 1326,
      "teen": 1327,
      "mik": 1328,
      "taso": 1329,
      "ttaa": 1330,
      "ong": 1331,
      "##tiö": 1332,
      "eja": 1333,
      "tunne": 1334,
      "lähet": 1335,
      "man": 1336,
      "sisä": 1337,
      "stö": 1338,
      "puhu": 1339,
      "id": 1340,
      "kirjo": 1341,
      "##kai": 1342,
      "sarja": 1343,
      "säh": 1344,
      "jät": 1345,
      "##hin": 1346,
      "im": 1347,
      "etään": 1348,
      "uotsi": 1349,
      "ali": 1350,
      "ajo": 1351,
      "aiheu": 1352,
      "katso": 1353,
      "odot": 1354,
      "kolm": 1355,
      "juh": 1356,
      "hu": 1357,
      "almis": 1358,
      "hin": 1359,
      "oj": 1360,
      "do": 1361,
      "##ksy": 1362,
      "juo": 1363,
      "mur": 1364,
      "yll": 1365,
      "len": 1366,
      "suhte": 1367,
      "##dia": 1368,
      "tee": 1369,
      "sähkö": 1370,
      "sil": 1371,
      "antaa": 1372,
      "atta": 1373,
      "myy": 1374,
      "eks": 1375,
      "pungi": 1376,
      "io": 1377,
      "staan": 1378,
      "isiin": 1379,
      "##ton": 1380,
      "stubb": 1381,
      "vo": 1382,
      "arj": 1383,
      "suomi": 1384,
      "##ev": 1385,
      "aine": 1386,
      "sää": 1387,
      "nope": 1388,
      "näkö": 1389,
      "tällä": 1390,
      "aku": 1391,
      "##sk": 1392,
      "##oli": 1393,
      "kirj": 1394,
      "aisu": 1395,
      "äys": 1396,
      "erjan": 1397,
      "keh": 1398,
      "ajat": 1399,
      "##ter": 1400,
      "löyty": 1401,
      "estä": 1402,
      "amis": 1403,
      "di": 1404,
      "ian": 1405,
      "ttö": 1406,
      "##ras": 1407,
      "itään": 1408,
      "hyvä": 1409,
      "pysty": 1410,
      "media": 1411,
      "uro": 1412,
      "joutu": 1413,
      "mmäis": 1414,
      "tunti": 1415,
      "##rke": 1416,
      "amma": 1417,
      "##ck": 1418,
      "ken": 1419,
      "ly": 1420,
      "##aal": 1421,
      "lähe": 1422,
      "hen": 1423,
      "jär": 1424,
      "neen": 1425,
      "ehti": 1426,
      "entoi": 1427,
      "kirja": 1428,
      "miten": 1429,
      "har": 1430,
      "onn": 1431,
      "alku": 1432,
      "perä": 1433,
      "aatio": 1434,
      "eläm": 1435,
      "astus": 1436,
      "eseen": 1437,
      "her": 1438,
      "iis": 1439,
      "eillä": 1440,
      "tään": 1441,
      "kisa": 1442,
      "yhtiö": 1443,
      "usi": 1444,
      "##est": 1445,
      "ero": 1446,
      "ohta": 1447,
      "arha": 1448,
      "ov": 1449,
      "lää": 1450,
      "##ea": 1451,
      "kk": 1452,
      "vaan": 1453,
      "ura": 1454,
      "mikä": 1455,
      "ani": 1456,
      "ori": 1457,
      "äis": 1458,
      "##sen": 1459,
      "asian": 1460,
      "huoma": 1461,
      "tarvi": 1462,
      "lääk": 1463,
      "tarjo": 1464,
      "mo": 1465,
      "##maan": 1466,
      "nime": 1467,
      "ihan": 1468,
      "##kea": 1469,
      "kaude": 1470,
      "ilij": 1471,
      "iet": 1472,
      "kö": 1473,
      "maali": 1474,
      "llo": 1475,
      "osall": 1476,
      "um": 1477,
      "enjoh": 1478,
      "sivu": 1479,
      "vaal": 1480,
      "essä": 1481,
      "kal": 1482,
      "tunut": 1483,
      "iera": 1484,
      "alk": 1485,
      "##ss": 1486,
      "ympär": 1487,
      "osi": 1488,
      "video": 1489,
      "ertaa": 1490,
      "äänes": 1491,
      "sopim": 1492,
      "##paa": 1493,
      "nkaan": 1494,
      "hoi": 1495,
      "lis": 1496,
      "tekem": 1497,
      "yllät": 1498,
      "sra": 1499,
      "srael": 1500,
      "np": 1501,
      "##my": 1502,
      "äyt": 1503,
      "##lt": 1504,
      "kasv": 1505,
      "jopa": 1506,
      "mään": 1507,
      "näky": 1508,
      "nimi": 1509,
      "lloin": 1510,
      "##nt": 1511,
      "##vit": 1512,
      "erran": 1513,
      "telu": 1514,
      "ratk": 1515,
      "nyky": 1516,
      "taisi": 1517,
      "uoksi": 1518,
      "aisi": 1519,
      "ryhmä": 1520,
      "uoli": 1521,
      "mai": 1522,
      "kilo": 1523,
      "##ust": 1524,
      "iinni": 1525,
      "nttia": 1526,
      "ärj": 1527,
      "moni": 1528,
      "osoit": 1529,
      "ngin": 1530,
      "kello": 1531,
      "erkit": 1532,
      "käsit": 1533,
      "ttöm": 1534,
      "ukana": 1535,
      "kahde": 1536,
      "iir": 1537,
      "saada": 1538,
      "aikaa": 1539,
      "ea": 1540,
      "lauan": 1541,
      "uroop": 1542,
      "una": 1543,
      "öy": 1544,
      "tehdä": 1545,
      "puoli": 1546,
      "rau": 1547,
      "ongel": 1548,
      "tane": 1549,
      "enää": 1550,
      "ästä": 1551,
      "ruo": 1552,
      "##kso": 1553,
      "oinen": 1554,
      "ota": 1555,
      "##kko": 1556,
      "kehit": 1557,
      "kov": 1558,
      "miehe": 1559,
      "aka": 1560,
      "otta": 1561,
      "avo": 1562,
      "##vää": 1563,
      "iltal": 1564,
      "uode": 1565,
      "riit": 1566,
      "tum": 1567,
      "sell": 1568,
      "sanom": 1569,
      "oliit": 1570,
      "syn": 1571,
      "aati": 1572,
      "avu": 1573,
      "ystäv": 1574,
      "juu": 1575,
      "##hl": 1576,
      "kohta": 1577,
      "oulun": 1578,
      "nk": 1579,
      "alka": 1580,
      "eissa": 1581,
      "pitä": 1582,
      "##iri": 1583,
      "väit": 1584,
      "net": 1585,
      "ön": 1586,
      "oik": 1587,
      "tiet": 1588,
      "art": 1589,
      "##hi": 1590,
      "##kia": 1591,
      "täll": 1592,
      "ntees": 1593,
      "uks": 1594,
      "etelä": 1595,
      "##ar": 1596,
      "uin": 1597,
      "ant": 1598,
      "kiso": 1599,
      "ymme": 1600,
      "vanh": 1601,
      "telee": 1602,
      "tom": 1603,
      "omis": 1604,
      "yty": 1605,
      "sijai": 1606,
      "lähte": 1607,
      "eskiv": 1608,
      "ss": 1609,
      "kseen": 1610,
      "inä": 1611,
      "synty": 1612,
      "yleis": 1613,
      "aamu": 1614,
      "aanan": 1615,
      "leet": 1616,
      "akko": 1617,
      "omi": 1618,
      "vaara": 1619,
      "attel": 1620,
      "suora": 1621,
      "eik": 1622,
      "##tta": 1623,
      "anska": 1624,
      "uraa": 1625,
      "ssaan": 1626,
      "uoma": 1627,
      "illoi": 1628,
      "nii": 1629,
      "ho": 1630,
      "tis": 1631,
      "aam": 1632,
      "iha": 1633,
      "uljet": 1634,
      "nor": 1635,
      "uhka": 1636,
      "jäi": 1637,
      "muist": 1638,
      "koke": 1639,
      "##kkö": 1640,
      "jatku": 1641,
      "ojen": 1642,
      "ain": 1643,
      "isku": 1644,
      "tied": 1645,
      "iti": 1646,
      "ejä": 1647,
      "talou": 1648,
      "til": 1649,
      "tykse": 1650,
      "iellä": 1651,
      "ika": 1652,
      "tuntu": 1653,
      "tors": 1654,
      "anni": 1655,
      "ulk": 1656,
      "ac": 1657,
      "oim": 1658,
      "ehtäv": 1659,
      "tely": 1660,
      "kär": 1661,
      "siir": 1662,
      "inn": 1663,
      "kir": 1664,
      "tasa": 1665,
      "mäise": 1666,
      "autta": 1667,
      "asio": 1668,
      "aita": 1669,
      "myöh": 1670,
      "juuri": 1671,
      "##ver": 1672,
      "äli": 1673,
      "tautu": 1674,
      "ensa": 1675,
      "eet": 1676,
      "iedot": 1677,
      "ttee": 1678,
      "äällä": 1679,
      "kyl": 1680,
      "ttäin": 1681,
      "itäis": 1682,
      "ntaa": 1683,
      "##til": 1684,
      "iseen": 1685,
      "kone": 1686,
      "nnan": 1687,
      "##iden": 1688,
      "ttom": 1689,
      "mpi": 1690,
      "arjoi": 1691,
      "##ram": 1692,
      "emaan": 1693,
      "jatko": 1694,
      "mise": 1695,
      "apa": 1696,
      "dään": 1697,
      "keske": 1698,
      "kuten": 1699,
      "ysy": 1700,
      "aat": 1701,
      "aino": 1702,
      "nt": 1703,
      "vähän": 1704,
      "enna": 1705,
      "salo": 1706,
      "nna": 1707,
      "lai": 1708,
      "##ske": 1709,
      "sk": 1710,
      "tässä": 1711,
      "erä": 1712,
      "amm": 1713,
      "stel": 1714,
      "vie": 1715,
      "yys": 1716,
      "tiis": 1717,
      "tajan": 1718,
      "auden": 1719,
      "oikea": 1720,
      "paino": 1721,
      "tyy": 1722,
      "eille": 1723,
      "jal": 1724,
      "laine": 1725,
      "tak": 1726,
      "lähes": 1727,
      "tuomi": 1728,
      "ensä": 1729,
      "vero": 1730,
      "selv": 1731,
      "rauha": 1732,
      "yks": 1733,
      "kohd": 1734,
      "naan": 1735,
      "iltä": 1736,
      "iitto": 1737,
      "lapsi": 1738,
      "aav": 1739,
      "lämp": 1740,
      "uraav": 1741,
      "yn": 1742,
      "toivo": 1743,
      "kys": 1744,
      "sty": 1745,
      "kysy": 1746,
      "oitto": 1747,
      "sosi": 1748,
      "enä": 1749,
      "iivis": 1750,
      "unnun": 1751,
      "nis": 1752,
      "ara": 1753,
      "yhtä": 1754,
      "inna": 1755,
      "amaan": 1756,
      "lähti": 1757,
      "##ppa": 1758,
      "##ös": 1759,
      "##os": 1760,
      "elvit": 1761,
      "alja": 1762,
      "uutam": 1763,
      "täy": 1764,
      "dessa": 1765,
      "isuu": 1766,
      "leh": 1767,
      "kuul": 1768,
      "eit": 1769,
      "oki": 1770,
      "tv": 1771,
      "isen": 1772,
      "tain": 1773,
      "lue": 1774,
      "ukset": 1775,
      "tys": 1776,
      "kamp": 1777,
      "saar": 1778,
      "ahden": 1779,
      "inaal": 1780,
      "eg": 1781,
      "tosi": 1782,
      "uukau": 1783,
      "ikos": 1784,
      "alkoi": 1785,
      "isin": 1786,
      "siinä": 1787,
      "ehdok": 1788,
      "laske": 1789,
      "laa": 1790,
      "oni": 1791,
      "laan": 1792,
      "hoit": 1793,
      "oiden": 1794,
      "koi": 1795,
      "omais": 1796,
      "rit": 1797,
      "tettu": 1798,
      "ilman": 1799,
      "##kar": 1800,
      "##kee": 1801,
      "syö": 1802,
      "##sin": 1803,
      "löy": 1804,
      "por": 1805,
      "esk": 1806,
      "ymm": 1807,
      "ysymy": 1808,
      "tähti": 1809,
      "arhai": 1810,
      "tune": 1811,
      "eloku": 1812,
      "ravi": 1813,
      "koske": 1814,
      "ärjes": 1815,
      "ampu": 1816,
      "nnu": 1817,
      "emp": 1818,
      "hoito": 1819,
      "aljas": 1820,
      "selvi": 1821,
      "ad": 1822,
      "ija": 1823,
      "eita": 1824,
      "änsä": 1825,
      "raha": 1826,
      "aiko": 1827,
      "istor": 1828,
      "lento": 1829,
      "ber": 1830,
      "aikea": 1831,
      "ttam": 1832,
      "punki": 1833,
      "riko": 1834,
      "ola": 1835,
      "tävät": 1836,
      "itiik": 1837,
      "eril": 1838,
      "kiel": 1839,
      "leikk": 1840,
      "maksa": 1841,
      "kil": 1842,
      "änä": 1843,
      "nopea": 1844,
      "ine": 1845,
      "raala": 1846,
      "llaan": 1847,
      "eki": 1848,
      "##ch": 1849,
      "taas": 1850,
      "lou": 1851,
      "laaj": 1852,
      "tte": 1853,
      "od": 1854,
      "takia": 1855,
      "sotil": 1856,
      "einä": 1857,
      "ouk": 1858,
      "ime": 1859,
      "ton": 1860,
      "sota": 1861,
      "ulkis": 1862,
      "az": 1863,
      "nu": 1864,
      "aisia": 1865,
      "uuttu": 1866,
      "inty": 1867,
      "apu": 1868,
      "seen": 1869,
      "asiak": 1870,
      "sson": 1871,
      "nnä": 1872,
      "##hto": 1873,
      "teko": 1874,
      "tunte": 1875,
      "ärä": 1876,
      "ston": 1877,
      "aukse": 1878,
      "terve": 1879,
      "voisi": 1880,
      "eer": 1881,
      "ellis": 1882,
      "##ff": 1883,
      "puole": 1884,
      "saapu": 1885,
      "oita": 1886,
      "kent": 1887,
      "ahvis": 1888,
      "äri": 1889,
      "ätä": 1890,
      "ittaa": 1891,
      "lähi": 1892,
      "ast": 1893,
      "ierro": 1894,
      "sarj": 1895,
      "teriö": 1896,
      "avat": 1897,
      "ruoka": 1898,
      "aste": 1899,
      "oitti": 1900,
      "palo": 1901,
      "aista": 1902,
      "aikai": 1903,
      "käsi": 1904,
      "ehde": 1905,
      "liiga": 1906,
      "pallo": 1907,
      "vaali": 1908,
      "ussi": 1909,
      "mieli": 1910,
      "nnus": 1911,
      "oissa": 1912,
      "laj": 1913,
      "äätty": 1914,
      "oly": 1915,
      "pan": 1916,
      "yr": 1917,
      "uva": 1918,
      "yde": 1919,
      "ymmär": 1920,
      "oimi": 1921,
      "iekko": 1922,
      "luok": 1923,
      "piene": 1924,
      "##väl": 1925,
      "uinka": 1926,
      "##hoi": 1927,
      "co": 1928,
      "uul": 1929,
      "ide": 1930,
      "tärke": 1931,
      "pysy": 1932,
      "rä": 1933,
      "kois": 1934,
      "ab": 1935,
      "taist": 1936,
      "hake": 1937,
      "joten": 1938,
      "rik": 1939,
      "ettav": 1940,
      "viran": 1941,
      "siis": 1942,
      "vira": 1943,
      "unni": 1944,
      "##ert": 1945,
      "ieh": 1946,
      "vän": 1947,
      "oonaa": 1948,
      "olymp": 1949,
      "biden": 1950,
      "hyv": 1951,
      "malli": 1952,
      "ieltä": 1953,
      "anen": 1954,
      "oikei": 1955,
      "maal": 1956,
      "appi": 1957,
      "inväl": 1958,
      "laki": 1959,
      "iini": 1960,
      "##yttä": 1961,
      "meni": 1962,
      "daan": 1963,
      "tomuu": 1964,
      "isa": 1965,
      "##iki": 1966,
      "mukse": 1967,
      "halua": 1968,
      "kuulu": 1969,
      "auta": 1970,
      "ieman": 1971,
      "attu": 1972,
      "nnö": 1973,
      "ale": 1974,
      "iili": 1975,
      "sivat": 1976,
      "lah": 1977,
      "ste": 1978,
      "kilom": 1979,
      "saksa": 1980,
      "##han": 1981,
      "##pal": 1982,
      "##vai": 1983,
      "inst": 1984,
      "nnuks": 1985,
      "yytä": 1986,
      "jäsen": 1987,
      "pyö": 1988,
      "entis": 1989,
      "kilpa": 1990,
      "tamis": 1991,
      "kuoli": 1992,
      "nos": 1993,
      "yhä": 1994,
      "20": 1995,
      "son": 1996,
      "etrin": 1997,
      "##esta": 1998,
      "huono": 1999,
      "ehd": 2000,
      "aatu": 2001,
      "näköi": 2002,
      "jakso": 2003,
      "äätös": 2004,
      "nhl": 2005,
      "helpo": 2006,
      "ksen": 2007,
      "ang": 2008,
      "iehen": 2009,
      "otti": 2010,
      "ellä": 2011,
      "työnt": 2012,
      "lma": 2013,
      "jou": 2014,
      "tivat": 2015,
      "oista": 2016,
      "äysin": 2017,
      "eä": 2018,
      "edes": 2019,
      "koro": 2020,
      "ort": 2021,
      "havai": 2022,
      "leen": 2023,
      "kyllä": 2024,
      "menet": 2025,
      "arki": 2026,
      "##ing": 2027,
      "attom": 2028,
      "uippu": 2029,
      "tsee": 2030,
      "nnyt": 2031,
      "ammat": 2032,
      "elämä": 2033,
      "ttelu": 2034,
      "auton": 2035,
      "agram": 2036,
      "juhli": 2037,
      "ake": 2038,
      "tap": 2039,
      "isti": 2040,
      "onta": 2041,
      "oikke": 2042,
      "hil": 2043,
      "##nä": 2044,
      "unta": 2045,
      "toden": 2046,
      "kävi": 2047,
      "heti": 2048,
      "kokou": 2049,
      "yvin": 2050,
      "asema": 2051,
      "niitä": 2052,
      "iikon": 2053,
      "mäine": 2054,
      "##ön": 2055,
      "inta": 2056,
      "kutsu": 2057,
      "kevää": 2058,
      "eur": 2059,
      "ander": 2060,
      "vesi": 2061,
      "äräjä": 2062,
      "pääse": 2063,
      "minuu": 2064,
      "##ilu": 2065,
      "pet": 2066,
      "kaiki": 2067,
      "ela": 2068,
      "vapaa": 2069,
      "##kon": 2070,
      "eista": 2071,
      "alkaa": 2072,
      "asten": 2073,
      "uute": 2074,
      "pid": 2075,
      "joe": 2076,
      "und": 2077,
      "änään": 2078,
      "new": 2079,
      "joita": 2080,
      "oima": 2081,
      "häntä": 2082,
      "ointi": 2083,
      "älle": 2084,
      "viide": 2085,
      "dä": 2086,
      "uvail": 2087,
      "tänä": 2088,
      "oivat": 2089,
      "massa": 2090,
      "kko": 2091,
      "toime": 2092,
      "orpo": 2093,
      "pääsi": 2094,
      "orva": 2095,
      "avoit": 2096,
      "etu": 2097,
      "akt": 2098,
      "ilme": 2099,
      "mitta": 2100,
      "auri": 2101,
      "laito": 2102,
      "iina": 2103,
      "nsi": 2104,
      "nau": 2105,
      "tote": 2106,
      "sp": 2107,
      "vaka": 2108,
      "uolis": 2109,
      "luku": 2110,
      "aki": 2111,
      "tkaa": 2112,
      "piti": 2113,
      "atti": 2114,
      "uolem": 2115,
      "vakav": 2116,
      "yllä": 2117,
      "missä": 2118,
      "jota": 2119,
      "utki": 2120,
      "häiri": 2121,
      "yky": 2122,
      "seks": 2123,
      "vil": 2124,
      "pala": 2125,
      "illi": 2126,
      "elin": 2127,
      "mmin": 2128,
      "uloks": 2129,
      "eihin": 2130,
      "##elm": 2131,
      "hj": 2132,
      "iku": 2133,
      "##ksu": 2134,
      "kohte": 2135,
      "tuma": 2136,
      "aar": 2137,
      "ystä": 2138,
      "lään": 2139,
      "ikku": 2140,
      "pieni": 2141,
      "nousi": 2142,
      "stelm": 2143,
      "dy": 2144,
      "sm": 2145,
      "anc": 2146,
      "ard": 2147,
      "elm": 2148,
      "je": 2149,
      "tulla": 2150,
      "venäl": 2151,
      "ay": 2152,
      "taust": 2153,
      "rve": 2154,
      "tuksi": 2155,
      "päivi": 2156,
      "hinta": 2157,
      "ami": 2158,
      "##dy": 2159,
      "uosi": 2160,
      "yhden": 2161,
      "loukk": 2162,
      "uoj": 2163,
      "mat": 2164,
      "kanna": 2165,
      "joulu": 2166,
      "nnas": 2167,
      "luvu": 2168,
      "jalka": 2169,
      "oona": 2170,
      "appal": 2171,
      "rveys": 2172,
      "etri": 2173,
      "läpi": 2174,
      "äästä": 2175,
      "ääri": 2176,
      "ttuna": 2177,
      "##eme": 2178,
      "ok": 2179,
      "##maa": 2180,
      "lähd": 2181,
      "euron": 2182,
      "tio": 2183,
      "aivan": 2184,
      "atu": 2185,
      "laji": 2186,
      "uistu": 2187,
      "silm": 2188,
      "the": 2189,
      "est": 2190,
      "ärke": 2191,
      "äte": 2192,
      "pide": 2193,
      "tek": 2194,
      "10": 2195,
      "astuu": 2196,
      "ans": 2197,
      "rins": 2198,
      "itsem": 2199,
      "nlo": 2200,
      "lupa": 2201,
      "anki": 2202,
      "kohda": 2203,
      "isuud": 2204,
      "annut": 2205,
      "tökse": 2206,
      "tuki": 2207,
      "urk": 2208,
      "ruu": 2209,
      "kka": 2210,
      "uuksi": 2211,
      "lop": 2212,
      "äiti": 2213,
      "nieme": 2214,
      "syksy": 2215,
      "otu": 2216,
      "iu": 2217,
      "hänet": 2218,
      "usein": 2219,
      "kunno": 2220,
      "soit": 2221,
      "tiete": 2222,
      "osta": 2223,
      "isu": 2224,
      "aton": 2225,
      "uha": 2226,
      "anssi": 2227,
      "ehkä": 2228,
      "sky": 2229,
      "elkä": 2230,
      "alio": 2231,
      "aantu": 2232,
      "valit": 2233,
      "nneet": 2234,
      "lapse": 2235,
      "pyör": 2236,
      "aid": 2237,
      "yvinv": 2238,
      "naa": 2239,
      "ex": 2240,
      "änsi": 2241,
      "ansi": 2242,
      "arr": 2243,
      "ned": 2244,
      "ääni": 2245,
      "iuk": 2246,
      "llään": 2247,
      "väkiv": 2248,
      "aset": 2249,
      "lämpö": 2250,
      "15": 2251,
      "atso": 2252,
      "uisto": 2253,
      "ottaa": 2254,
      "kulut": 2255,
      "lind": 2256,
      "ntää": 2257,
      "auppa": 2258,
      "orkea": 2259,
      "eistä": 2260,
      "telij": 2261,
      "allo": 2262,
      "itu": 2263,
      "##ih": 2264,
      "itelm": 2265,
      "väksy": 2266,
      "test": 2267,
      "tseva": 2268,
      "oteaa": 2269,
      "ansal": 2270,
      "onal": 2271,
      "oman": 2272,
      "tili": 2273,
      "pääll": 2274,
      "nny": 2275,
      "liike": 2276,
      "tänee": 2277,
      "ttäj": 2278,
      "nedus": 2279,
      "oy": 2280,
      "ttain": 2281,
      "tätä": 2282,
      "##ess": 2283,
      "arh": 2284,
      "nni": 2285,
      "aani": 2286,
      "hävi": 2287,
      "ämä": 2288,
      "eitä": 2289,
      "sod": 2290,
      "aivo": 2291,
      "täyty": 2292,
      "vier": 2293,
      "kohti": 2294,
      "anke": 2295,
      "viit": 2296,
      "ini": 2297,
      "ako": 2298,
      "voim": 2299,
      "uunta": 2300,
      "pysä": 2301,
      "ulos": 2302,
      "poi": 2303,
      "gia": 2304,
      "ohd": 2305,
      "uorit": 2306,
      "naine": 2307,
      "uhri": 2308,
      "salon": 2309,
      "umma": 2310,
      "sten": 2311,
      "aisin": 2312,
      "yliop": 2313,
      "meri": 2314,
      "lehde": 2315,
      "anj": 2316,
      "tsi": 2317,
      "työsk": 2318,
      "ene": 2319,
      "oilla": 2320,
      "iirty": 2321,
      "poika": 2322,
      "##tuu": 2323,
      "onnet": 2324,
      "aahan": 2325,
      "öyd": 2326,
      "allan": 2327,
      "viisi": 2328,
      "autu": 2329,
      "utta": 2330,
      "vaati": 2331,
      "taka": 2332,
      "tori": 2333,
      "ttaja": 2334,
      "##via": 2335,
      "oul": 2336,
      "elen": 2337,
      "ältä": 2338,
      "aist": 2339,
      "arsin": 2340,
      "murha": 2341,
      "kump": 2342,
      "itti": 2343,
      "##mok": 2344,
      "atkus": 2345,
      "het": 2346,
      "uonno": 2347,
      "hoita": 2348,
      "aari": 2349,
      "usiik": 2350,
      "sodan": 2351,
      "hiih": 2352,
      "ieto": 2353,
      "ohi": 2354,
      "toteu": 2355,
      "berg": 2356,
      "oe": 2357,
      "uurin": 2358,
      "onnis": 2359,
      "liito": 2360,
      "syys": 2361,
      "miehi": 2362,
      "metsä": 2363,
      "inko": 2364,
      "ikoks": 2365,
      "tehty": 2366,
      "otain": 2367,
      "oukko": 2368,
      "mp": 2369,
      "etsi": 2370,
      "lopet": 2371,
      "osu": 2372,
      "iikku": 2373,
      "mene": 2374,
      "ouko": 2375,
      "ijoit": 2376,
      "oimit": 2377,
      "sd": 2378,
      "varm": 2379,
      "äivän": 2380,
      "aiden": 2381,
      "asemm": 2382,
      "ijaan": 2383,
      "aha": 2384,
      "viet": 2385,
      "minkä": 2386,
      "du": 2387,
      "tua": 2388,
      "eteen": 2389,
      "uolim": 2390,
      "sit": 2391,
      "kunto": 2392,
      "tekij": 2393,
      "mukai": 2394,
      "mone": 2395,
      "uhe": 2396,
      "muita": 2397,
      "ukka": 2398,
      "uosit": 2399,
      "eijo": 2400,
      "iinno": 2401,
      "uoto": 2402,
      "julki": 2403,
      "erkko": 2404,
      "uote": 2405,
      "usu": 2406,
      "lad": 2407,
      "levi": 2408,
      "ahti": 2409,
      "arhaa": 2410,
      "elko": 2411,
      "ittel": 2412,
      "ilun": 2413,
      "##kr": 2414,
      "ainoa": 2415,
      "heit": 2416,
      "jälle": 2417,
      "sina": 2418,
      "jotta": 2419,
      "ude": 2420,
      "aito": 2421,
      "uksen": 2422,
      "teho": 2423,
      "itta": 2424,
      "jouko": 2425,
      "ivät": 2426,
      "##nö": 2427,
      "eng": 2428,
      "antti": 2429,
      "uning": 2430,
      "kerä": 2431,
      "vel": 2432,
      "alise": 2433,
      "altuu": 2434,
      "ras": 2435,
      "lähtö": 2436,
      "opet": 2437,
      "heik": 2438,
      "hoid": 2439,
      "palki": 2440,
      "ihme": 2441,
      "nssi": 2442,
      "sij": 2443,
      "pela": 2444,
      "mäki": 2445,
      "aistu": 2446,
      "eikk": 2447,
      "kokem": 2448,
      "kylä": 2449,
      "idät": 2450,
      "eiden": 2451,
      "tt": 2452,
      "yyde": 2453,
      "kärsi": 2454,
      "12": 2455,
      "tah": 2456,
      "tekee": 2457,
      "näi": 2458,
      "äyty": 2459,
      "aju": 2460,
      "tet": 2461,
      "kesäk": 2462,
      "maksu": 2463,
      "ennät": 2464,
      "rist": 2465,
      "tähän": 2466,
      "äyttö": 2467,
      "ilija": 2468,
      "ull": 2469,
      "eisö": 2470,
      "mikko": 2471,
      "arris": 2472,
      "ane": 2473,
      "rooli": 2474,
      "ttuur": 2475,
      "kiina": 2476,
      "kymme": 2477,
      "etriä": 2478,
      "ib": 2479,
      "paras": 2480,
      "emme": 2481,
      "ovi": 2482,
      "irv": 2483,
      "suku": 2484,
      "##rki": 2485,
      "aikke": 2486,
      "ca": 2487,
      "loka": 2488,
      "eni": 2489,
      "onen": 2490,
      "myötä": 2491,
      "ielen": 2492,
      "sc": 2493,
      "30": 2494,
      "herät": 2495,
      "onald": 2496,
      "ida": 2497,
      "äv": 2498,
      "piir": 2499,
      "##nu": 2500,
      "ae": 2501,
      "nato": 2502,
      "niide": 2503,
      "ähe": 2504,
      "akuut": 2505,
      "rof": 2506,
      "##ott": 2507,
      "linja": 2508,
      "aisuu": 2509,
      "utini": 2510,
      "määri": 2511,
      "##lam": 2512,
      "##ute": 2513,
      "edel": 2514,
      "alous": 2515,
      "naise": 2516,
      "maajo": 2517,
      "arl": 2518,
      "nistu": 2519,
      "ankki": 2520,
      "appio": 2521,
      "ksia": 2522,
      "aluaa": 2523,
      "usten": 2524,
      "##ort": 2525,
      "run": 2526,
      "ano": 2527,
      "tivät": 2528,
      "eissä": 2529,
      "##sal": 2530,
      "##rju": 2531,
      "tuore": 2532,
      "af": 2533,
      "jut": 2534,
      "oski": 2535,
      "liian": 2536,
      "rttu": 2537,
      "koulu": 2538,
      "oihin": 2539,
      "oitus": 2540,
      "korj": 2541,
      "ologi": 2542,
      "imo": 2543,
      "urr": 2544,
      "norm": 2545,
      "tunni": 2546,
      "keino": 2547,
      "telev": 2548,
      "osuu": 2549,
      "lyt": 2550,
      "ustel": 2551,
      "uuluu": 2552,
      "tal": 2553,
      "aulu": 2554,
      "and": 2555,
      "oulut": 2556,
      "ga": 2557,
      "##eno": 2558,
      "maini": 2559,
      "änne": 2560,
      "äälle": 2561,
      "uor": 2562,
      "rask": 2563,
      "olemm": 2564,
      "tarpe": 2565,
      "olmen": 2566,
      "norja": 2567,
      "##ser": 2568,
      "ntola": 2569,
      "tekn": 2570,
      "vahv": 2571,
      "äm": 2572,
      "riski": 2573,
      "elta": 2574,
      "huu": 2575,
      "joide": 2576,
      "suosi": 2577,
      "demok": 2578,
      "harv": 2579,
      "suuri": 2580,
      "ennus": 2581,
      "antam": 2582,
      "öl": 2583,
      "ialai": 2584,
      "ajoit": 2585,
      "eva": 2586,
      "nko": 2587,
      "ajaa": 2588,
      "uhd": 2589,
      "kuvi": 2590,
      "lauk": 2591,
      "##rau": 2592,
      "pyrki": 2593,
      "yyttä": 2594,
      "täyt": 2595,
      "ord": 2596,
      "oukok": 2597,
      "kuol": 2598,
      "asiaa": 2599,
      "kaap": 2600,
      "ikään": 2601,
      "valo": 2602,
      "avau": 2603,
      "ek": 2604,
      "tuke": 2605,
      "henki": 2606,
      "päin": 2607,
      "tulos": 2608,
      "krit": 2609,
      "erta": 2610,
      "ykkö": 2611,
      "tae": 2612,
      "set": 2613,
      "##int": 2614,
      "uhti": 2615,
      "##ce": 2616,
      "uiden": 2617,
      "wa": 2618,
      "enno": 2619,
      "vaimo": 2620,
      "ausu": 2621,
      "aiva": 2622,
      "adi": 2623,
      "käytö": 2624,
      "sinai": 2625,
      "tetty": 2626,
      "##uh": 2627,
      "raat": 2628,
      "ttava": 2629,
      "kerta": 2630,
      "laul": 2631,
      "kee": 2632,
      "ihr": 2633,
      "iiga": 2634,
      "alex": 2635,
      "hti": 2636,
      "anut": 2637,
      "koto": 2638,
      "kasvu": 2639,
      "ennak": 2640,
      "lehti": 2641,
      "##aali": 2642,
      "onne": 2643,
      "nv": 2644,
      "omm": 2645,
      "äksi": 2646,
      "syysk": 2647,
      "merkk": 2648,
      "kaupa": 2649,
      "empaa": 2650,
      "##isk": 2651,
      "vaike": 2652,
      "elmik": 2653,
      "adu": 2654,
      "ike": 2655,
      "nl": 2656,
      "älier": 2657,
      "iset": 2658,
      "kausi": 2659,
      "mere": 2660,
      "tästä": 2661,
      "lasku": 2662,
      "kysee": 2663,
      "entee": 2664,
      "aisem": 2665,
      "ity": 2666,
      "tto": 2667,
      "udu": 2668,
      "ysel": 2669,
      "paine": 2670,
      "sosia": 2671,
      "tia": 2672,
      "vede": 2673,
      "pekka": 2674,
      "hon": 2675,
      "ingo": 2676,
      "heng": 2677,
      "ait": 2678,
      "##vaa": 2679,
      "ohu": 2680,
      "työtä": 2681,
      "vanha": 2682,
      "ehdot": 2683,
      "oppi": 2684,
      "onko": 2685,
      "löytä": 2686,
      "sul": 2687,
      "ylä": 2688,
      "dio": 2689,
      "tuho": 2690,
      "mill": 2691,
      "ähemm": 2692,
      "sia": 2693,
      "menne": 2694,
      "ink": 2695,
      "ulisi": 2696,
      "tävä": 2697,
      "ikuis": 2698,
      "aho": 2699,
      "eo": 2700,
      "vapa": 2701,
      "yk": 2702,
      "ilmi": 2703,
      "muuta": 2704,
      "tävän": 2705,
      "aavut": 2706,
      "ati": 2707,
      "masti": 2708,
      "isia": 2709,
      "ikko": 2710,
      "akse": 2711,
      "inti": 2712,
      "iitä": 2713,
      "peri": 2714,
      "otesi": 2715,
      "illis": 2716,
      "avio": 2717,
      "inf": 2718,
      "aliok": 2719,
      "päiv": 2720,
      "tyyp": 2721,
      "iki": 2722,
      "tähd": 2723,
      "hieno": 2724,
      "alko": 2725,
      "arlam": 2726,
      "jolla": 2727,
      "teo": 2728,
      "yhdis": 2729,
      "tusta": 2730,
      "tännö": 2731,
      "kulu": 2732,
      "utk": 2733,
      "meno": 2734,
      "aza": 2735,
      "intei": 2736,
      "iikka": 2737,
      "nouse": 2738,
      "einäk": 2739,
      "nd": 2740,
      "valla": 2741,
      "hevo": 2742,
      "juhla": 2743,
      "olle": 2744,
      "kok": 2745,
      "näkem": 2746,
      "pohti": 2747,
      "##lit": 2748,
      "aroit": 2749,
      "säil": 2750,
      "kai": 2751,
      "puh": 2752,
      "auk": 2753,
      "##ge": 2754,
      "asvat": 2755,
      "tavan": 2756,
      "ark": 2757,
      "vis": 2758,
      "arras": 2759,
      "uni": 2760,
      "merki": 2761,
      "hilja": 2762,
      "josta": 2763,
      "mia": 2764,
      "lor": 2765,
      "avar": 2766,
      "kuude": 2767,
      "vaiht": 2768,
      "ietti": 2769,
      "alli": 2770,
      "anto": 2771,
      "valt": 2772,
      "kää": 2773,
      "pääty": 2774,
      "irta": 2775,
      "uutos": 2776,
      "yttä": 2777,
      "ksu": 2778,
      "ilo": 2779,
      "runsa": 2780,
      "virhe": 2781,
      "##kas": 2782,
      "loma": 2783,
      "one": 2784,
      "lukem": 2785,
      "iiton": 2786,
      "järk": 2787,
      "vih": 2788,
      "ohdis": 2789,
      "ank": 2790,
      "##je": 2791,
      "yksiä": 2792,
      "udot": 2793,
      "merik": 2794,
      "asa": 2795,
      "uuli": 2796,
      "valvo": 2797,
      "akkau": 2798,
      "puol": 2799,
      "vähi": 2800,
      "rs": 2801,
      "sata": 2802,
      "mui": 2803,
      "aikal": 2804,
      "reilu": 2805,
      "ampum": 2806,
      "nlopp": 2807,
      "uoro": 2808,
      "mont": 2809,
      "rikko": 2810,
      "näis": 2811,
      "ariis": 2812,
      "11": 2813,
      "urna": 2814,
      "vapau": 2815,
      "eor": 2816,
      "jy": 2817,
      "entu": 2818,
      "mita": 2819,
      "ikkö": 2820,
      "antoi": 2821,
      "jatk": 2822,
      "altav": 2823,
      "ob": 2824,
      "tait": 2825,
      "istyö": 2826,
      "rom": 2827,
      "johto": 2828,
      "esken": 2829,
      "tunnu": 2830,
      "orm": 2831,
      "adio": 2832,
      "ress": 2833,
      "onet": 2834,
      "anad": 2835,
      "huum": 2836,
      "##kino": 2837,
      "oitu": 2838,
      "veto": 2839,
      "koira": 2840,
      "br": 2841,
      "arja": 2842,
      "alaut": 2843,
      "ado": 2844,
      "imme": 2845,
      "kkino": 2846,
      "lik": 2847,
      "yhy": 2848,
      "vauh": 2849,
      "ssään": 2850,
      "aana": 2851,
      "kumpp": 2852,
      "uud": 2853,
      "nous": 2854,
      "ovin": 2855,
      "bo": 2856,
      "end": 2857,
      "lokak": 2858,
      "sana": 2859,
      "törke": 2860,
      "esä": 2861,
      "valmi": 2862,
      "evy": 2863,
      "amise": 2864,
      "pahoi": 2865,
      "torju": 2866,
      "ich": 2867,
      "läis": 2868,
      "koros": 2869,
      "of": 2870,
      "ener": 2871,
      "vähe": 2872,
      "uku": 2873,
      "ävel": 2874,
      "uulu": 2875,
      "akana": 2876,
      "otiin": 2877,
      "aiken": 2878,
      "selit": 2879,
      "elok": 2880,
      "eessa": 2881,
      "ail": 2882,
      "alas": 2883,
      "joku": 2884,
      "ekijä": 2885,
      "##mai": 2886,
      "ksiä": 2887,
      "eb": 2888,
      "koe": 2889,
      "oille": 2890,
      "mennä": 2891,
      "uper": 2892,
      "enti": 2893,
      "onser": 2894,
      "luki": 2895,
      "otsal": 2896,
      "opisk": 2897,
      "anav": 2898,
      "täyde": 2899,
      "eal": 2900,
      "ket": 2901,
      "peru": 2902,
      "virka": 2903,
      "lämm": 2904,
      "tin": 2905,
      "eläi": 2906,
      "uhtik": 2907,
      "rssi": 2908,
      "esp": 2909,
      "hui": 2910,
      "aatim": 2911,
      "uokr": 2912,
      "ajoi": 2913,
      "vaihe": 2914,
      "saman": 2915,
      "eudu": 2916,
      "kohol": 2917,
      "rad": 2918,
      "vält": 2919,
      "aport": 2920,
      "airau": 2921,
      "paiko": 2922,
      "ttamu": 2923,
      "valto": 2924,
      "ehto": 2925,
      "ylen": 2926,
      "arvos": 2927,
      "iippu": 2928,
      "änen": 2929,
      "anno": 2930,
      "tilan": 2931,
      "inne": 2932,
      "sio": 2933,
      "änty": 2934,
      "ylm": 2935,
      "yksik": 2936,
      "silti": 2937,
      "stään": 2938,
      "sik": 2939,
      "ankeu": 2940,
      "tilo": 2941,
      "tyä": 2942,
      "uosik": 2943,
      "okse": 2944,
      "ess": 2945,
      "sis": 2946,
      "myr": 2947,
      "opp": 2948,
      "iito": 2949,
      "pohja": 2950,
      "kusta": 2951,
      "miksi": 2952,
      "iisu": 2953,
      "oehto": 2954,
      "ps": 2955,
      "sala": 2956,
      "50": 2957,
      "ip": 2958,
      "ietoa": 2959,
      "ba": 2960,
      "ria": 2961,
      "aad": 2962,
      "oir": 2963,
      "eera": 2964,
      "edu": 2965,
      "paris": 2966,
      "ein": 2967,
      "rmä": 2968,
      "talli": 2969,
      "mäe": 2970,
      "mistä": 2971,
      "sate": 2972,
      "amper": 2973,
      "npit": 2974,
      "eutu": 2975,
      "inis": 2976,
      "lat": 2977,
      "aikan": 2978,
      "ate": 2979,
      "uuluv": 2980,
      "töön": 2981,
      "nkert": 2982,
      "unti": 2983,
      "some": 2984,
      "karsi": 2985,
      "jätti": 2986,
      "lti": 2987,
      "palkk": 2988,
      "13": 2989,
      "dolla": 2990,
      "kova": 2991,
      "oper": 2992,
      "nder": 2993,
      "lain": 2994,
      "brit": 2995,
      "pyy": 2996,
      "ssi": 2997,
      "ettäv": 2998,
      "voito": 2999,
      "impi": 3000,
      "ouluk": 3001,
      "ue": 3002,
      "ila": 3003,
      "org": 3004,
      "tuttu": 3005,
      "anti": 3006,
      "yttö": 3007,
      "haav": 3008,
      "tön": 3009,
      "yksen": 3010,
      "oimak": 3011,
      "iv": 3012,
      "usjoh": 3013,
      "inu": 3014,
      "yysi": 3015,
      "kanta": 3016,
      "ranna": 3017,
      "entel": 3018,
      "yyd": 3019,
      "stus": 3020,
      "illan": 3021,
      "mari": 3022,
      "tiedä": 3023,
      "ean": 3024,
      "ausi": 3025,
      "järve": 3026,
      "aatte": 3027,
      "stuks": 3028,
      "##her": 3029,
      "eikka": 3030,
      "mät": 3031,
      "put": 3032,
      "sdp": 3033,
      "ukea": 3034,
      "vää": 3035,
      "ydi": 3036,
      "uum": 3037,
      "telem": 3038,
      "eläk": 3039,
      "##kuv": 3040,
      "iivi": 3041,
      "ius": 3042,
      "sattu": 3043,
      "liha": 3044,
      "esiin": 3045,
      "enr": 3046,
      "eensä": 3047,
      "armi": 3048,
      "ub": 3049,
      "täisi": 3050,
      "ork": 3051,
      "avoi": 3052,
      "inno": 3053,
      "uaali": 3054,
      "äivä": 3055,
      "kap": 3056,
      "ksan": 3057,
      "osto": 3058,
      "uone": 3059,
      "land": 3060,
      "umm": 3061,
      "armaa": 3062,
      "ahde": 3063,
      "isk": 3064,
      "ehot": 3065,
      "elasi": 3066,
      "kier": 3067,
      "ääjä": 3068,
      "ärki": 3069,
      "ppi": 3070,
      "ust": 3071,
      "apsen": 3072,
      "ärkeä": 3073,
      "25": 3074,
      "lav": 3075,
      "nap": 3076,
      "ig": 3077,
      "elke": 3078,
      "eikki": 3079,
      "yvä": 3080,
      "akot": 3081,
      "hetki": 3082,
      "juttu": 3083,
      "uri": 3084,
      "uto": 3085,
      "into": 3086,
      "pakk": 3087,
      "putin": 3088,
      "rinta": 3089,
      "sään": 3090,
      "irt": 3091,
      "mmi": 3092,
      "ert": 3093,
      "ataan": 3094,
      "hall": 3095,
      "aikoi": 3096,
      "isuus": 3097,
      "väl": 3098,
      "ntam": 3099,
      "omu": 3100,
      "uodo": 3101,
      "tuv": 3102,
      "jala": 3103,
      "isio": 3104,
      "tais": 3105,
      "nomai": 3106,
      "mero": 3107,
      "elu": 3108,
      "eetti": 3109,
      "ont": 3110,
      "uoliv": 3111,
      "ely": 3112,
      "uksel": 3113,
      "huone": 3114,
      "oimii": 3115,
      "kato": 3116,
      "äline": 3117,
      "14": 3118,
      "ji": 3119,
      "otto": 3120,
      "ttia": 3121,
      "ael": 3122,
      "ideo": 3123,
      "mma": 3124,
      "unna": 3125,
      "rek": 3126,
      "risti": 3127,
      "miel": 3128,
      "annu": 3129,
      "äinen": 3130,
      "urma": 3131,
      "syyt": 3132,
      "tter": 3133,
      "kkä": 3134,
      "oleva": 3135,
      "aalia": 3136,
      "pian": 3137,
      "äytyy": 3138,
      "aatti": 3139,
      "kiint": 3140,
      "piiri": 3141,
      "teja": 3142,
      "oitte": 3143,
      "ähtee": 3144,
      "hank": 3145,
      "dia": 3146,
      "tussa": 3147,
      "nost": 3148,
      "oinut": 3149,
      "ask": 3150,
      "iten": 3151,
      "uomar": 3152,
      "täe": 3153,
      "aare": 3154,
      "teet": 3155,
      "uima": 3156,
      "nteen": 3157,
      "ntään": 3158,
      "kkai": 3159,
      "kuvan": 3160,
      "alve": 3161,
      "ahta": 3162,
      "##ju": 3163,
      "don": 3164,
      "mel": 3165,
      "sent": 3166,
      "tsem": 3167,
      "iinä": 3168,
      "kats": 3169,
      "kaat": 3170,
      "if": 3171,
      "aket": 3172,
      "eir": 3173,
      "naur": 3174,
      "luva": 3175,
      "odi": 3176,
      "ula": 3177,
      "delli": 3178,
      "sama": 3179,
      "ors": 3180,
      "aalin": 3181,
      "ammik": 3182,
      "tuh": 3183,
      "vallo": 3184,
      "auan": 3185,
      "äivää": 3186,
      "öi": 3187,
      "pääss": 3188,
      "ardi": 3189,
      "öm": 3190,
      "tämis": 3191,
      "ehu": 3192,
      "16": 3193,
      "siko": 3194,
      "ele": 3195,
      "amine": 3196,
      "iihto": 3197,
      "netta": 3198,
      "kaise": 3199,
      "poj": 3200,
      "seur": 3201,
      "span": 3202,
      "kku": 3203,
      "ahaa": 3204,
      "äykse": 3205,
      "äd": 3206,
      "sinki": 3207,
      "uomal": 3208,
      "tapp": 3209,
      "tella": 3210,
      "liit": 3211,
      "mäk": 3212,
      "imman": 3213,
      "18": 3214,
      "ud": 3215,
      "spanj": 3216,
      "skus": 3217,
      "urj": 3218,
      "pohj": 3219,
      "ranta": 3220,
      "alaa": 3221,
      "ottam": 3222,
      "ove": 3223,
      "alust": 3224,
      "uuk": 3225,
      "wi": 3226,
      "mistu": 3227,
      "akas": 3228,
      "nkä": 3229,
      "lasta": 3230,
      "loh": 3231,
      "asem": 3232,
      "uolle": 3233,
      "arkka": 3234,
      "usea": 3235,
      "ilv": 3236,
      "apin": 3237,
      "ekst": 3238,
      "äässä": 3239,
      "poik": 3240,
      "kaver": 3241,
      "urun": 3242,
      "mark": 3243,
      "vansa": 3244,
      "ahvi": 3245,
      "kulta": 3246,
      "amer": 3247,
      "ättä": 3248,
      "päätö": 3249,
      "bar": 3250,
      "nty": 3251,
      "omp": 3252,
      "iak": 3253,
      "muuto": 3254,
      "ow": 3255,
      "yvää": 3256,
      "ilj": 3257,
      "aatii": 3258,
      "paa": 3259,
      "neli": 3260,
      "akso": 3261,
      "komis": 3262,
      "str": 3263,
      "ion": 3264,
      "alan": 3265,
      "uori": 3266,
      "menee": 3267,
      "lista": 3268,
      "17": 3269,
      "klo": 3270,
      "alvi": 3271,
      "imi": 3272,
      "aur": 3273,
      "uita": 3274,
      "pitk": 3275,
      "kkina": 3276,
      "iz": 3277,
      "gr": 3278,
      "erg": 3279,
      "ryhm": 3280,
      "isan": 3281,
      "via": 3282,
      "puut": 3283,
      "elij": 3284,
      "rova": 3285,
      "luot": 3286,
      "avi": 3287,
      "nes": 3288,
      "niem": 3289,
      "ksiin": 3290,
      "antu": 3291,
      "ome": 3292,
      "otell": 3293,
      "immi": 3294,
      "port": 3295,
      "otku": 3296,
      "sat": 3297,
      "para": 3298,
      "ttäis": 3299,
      "mah": 3300,
      "oott": 3301,
      "esu": 3302,
      "nio": 3303,
      "väri": 3304,
      "##od": 3305,
      "uno": 3306,
      "lus": 3307,
      "nik": 3308,
      "arina": 3309,
      "atar": 3310,
      "ntö": 3311,
      "alto": 3312,
      "sek": 3313,
      "ettua": 3314,
      "puhel": 3315,
      "katk": 3316,
      "ntie": 3317,
      "nla": 3318,
      "##co": 3319,
      "uru": 3320,
      "reen": 3321,
      "ympia": 3322,
      "iö": 3323,
      "vamm": 3324,
      "ety": 3325,
      "lm": 3326,
      "isält": 3327,
      "40": 3328,
      "nlais": 3329,
      "mpä": 3330,
      "##ba": 3331,
      "enit": 3332,
      "huol": 3333,
      "ye": 3334,
      "kalai": 3335,
      "kans": 3336,
      "##lia": 3337,
      "erro": 3338,
      "ralli": 3339,
      "menes": 3340,
      "säänt": 3341,
      "desta": 3342,
      "ep": 3343,
      "äin": 3344,
      "ammu": 3345,
      "arkki": 3346,
      "lie": 3347,
      "verra": 3348,
      "mättä": 3349,
      "uola": 3350,
      "iski": 3351,
      "suude": 3352,
      "arti": 3353,
      "lko": 3354,
      "enk": 3355,
      "rah": 3356,
      "sov": 3357,
      "vetä": 3358,
      "mir": 3359,
      "oksi": 3360,
      "ren": 3361,
      "ekij": 3362,
      "ndr": 3363,
      "ito": 3364,
      "ial": 3365,
      "kkää": 3366,
      "olmi": 3367,
      "matta": 3368,
      "leg": 3369,
      "fan": 3370,
      "lessa": 3371,
      "eili": 3372,
      "hah": 3373,
      "iim": 3374,
      "jälk": 3375,
      "ron": 3376,
      "nnon": 3377,
      "raska": 3378,
      "ieli": 3379,
      "linj": 3380,
      "nneen": 3381,
      "eena": 3382,
      "otil": 3383,
      "eilla": 3384,
      "ampi": 3385,
      "hahmo": 3386,
      "kasvo": 3387,
      "ppo": 3388,
      "uolta": 3389,
      "ääne": 3390,
      "rea": 3391,
      "uttaa": 3392,
      "omaa": 3393,
      "100": 3394,
      "muis": 3395,
      "lumi": 3396,
      "jääk": 3397,
      "oa": 3398,
      "##ivi": 3399,
      "talia": 3400,
      "veit": 3401,
      "äsi": 3402,
      "nassa": 3403,
      "oto": 3404,
      "ino": 3405,
      "äyn": 3406,
      "istol": 3407,
      "atsom": 3408,
      "mais": 3409,
      "mpaa": 3410,
      "aimi": 3411,
      "ommi": 3412,
      "eitti": 3413,
      "los": 3414,
      "hl": 3415,
      "auko": 3416,
      "taha": 3417,
      "auksi": 3418,
      "aksa": 3419,
      "oiton": 3420,
      "tien": 3421,
      "sääst": 3422,
      "yse": 3423,
      "iele": 3424,
      "tim": 3425,
      "ääk": 3426,
      "oppa": 3427,
      "rahoi": 3428,
      "ham": 3429,
      "lemme": 3430,
      "äly": 3431,
      "järv": 3432,
      "uodos": 3433,
      "hdy": 3434,
      "itkä": 3435,
      "maat": 3436,
      "rak": 3437,
      "ers": 3438,
      "lli": 3439,
      "jar": 3440,
      "esto": 3441,
      "pur": 3442,
      "osaa": 3443,
      "##ero": 3444,
      "äti": 3445,
      "jak": 3446,
      "kiert": 3447,
      "vahva": 3448,
      "sut": 3449,
      "anm": 3450,
      "ismi": 3451,
      "aisen": 3452,
      "rep": 3453,
      "yöpä": 3454,
      "vei": 3455,
      "nnes": 3456,
      "aje": 3457,
      "eute": 3458,
      "inkaa": 3459,
      "ere": 3460,
      "aul": 3461,
      "yyli": 3462,
      "ossa": 3463,
      "yv": 3464,
      "ritti": 3465,
      "ska": 3466,
      "evä": 3467,
      "ivi": 3468,
      "ekijö": 3469,
      "##eri": 3470,
      "oske": 3471,
      "tsev": 3472,
      "ätk": 3473,
      "ält": 3474,
      "ahd": 3475,
      "kke": 3476,
      "uvi": 3477,
      "tär": 3478,
      "tavi": 3479,
      "ailla": 3480,
      "äynni": 3481,
      "let": 3482,
      "rasi": 3483,
      "ansan": 3484,
      "ämm": 3485,
      "vast": 3486,
      "almi": 3487,
      "metri": 3488,
      "imma": 3489,
      "kr": 3490,
      "isty": 3491,
      "aihto": 3492,
      "unnan": 3493,
      "hty": 3494,
      "nien": 3495,
      "läine": 3496,
      "räjä": 3497,
      "korke": 3498,
      "nat": 3499,
      "urnau": 3500,
      "ippu": 3501,
      "äki": 3502,
      "nnit": 3503,
      "urha": 3504,
      "uudet": 3505,
      "sesta": 3506,
      "enni": 3507,
      "äänty": 3508,
      "24": 3509,
      "uski": 3510,
      "sille": 3511,
      "entä": 3512,
      "ash": 3513,
      "sor": 3514,
      "kesän": 3515,
      "asen": 3516,
      "oivo": 3517,
      "jan": 3518,
      "osin": 3519,
      "tuvat": 3520,
      "älttä": 3521,
      "oka": 3522,
      "pp": 3523,
      "ski": 3524,
      "hyp": 3525,
      "epp": 3526,
      "jatka": 3527,
      "tod": 3528,
      "yht": 3529,
      "unnis": 3530,
      "anga": 3531,
      "välit": 3532,
      "omuks": 3533,
      "evat": 3534,
      "ive": 3535,
      "leis": 3536,
      "ysti": 3537,
      "ekon": 3538,
      "lina": 3539,
      "outu": 3540,
      "isko": 3541,
      "nö": 3542,
      "isy": 3543,
      "tyn": 3544,
      "##ker": 3545,
      "viest": 3546,
      "nähdä": 3547,
      "kiis": 3548,
      "luk": 3549,
      "oise": 3550,
      "##dä": 3551,
      "aiv": 3552,
      "orn": 3553,
      "tama": 3554,
      "ttaj": 3555,
      "posti": 3556,
      "mc": 3557,
      "ös": 3558,
      "ater": 3559,
      "amas": 3560,
      "erää": 3561,
      "aise": 3562,
      "ins": 3563,
      "ääm": 3564,
      "kulm": 3565,
      "oen": 3566,
      "täne": 3567,
      "ntäm": 3568,
      "suk": 3569,
      "ntin": 3570,
      "ämme": 3571,
      "elev": 3572,
      "vuor": 3573,
      "tiivi": 3574,
      "uolen": 3575,
      "pelas": 3576,
      "linna": 3577,
      "eem": 3578,
      "lon": 3579,
      "sad": 3580,
      "aiset": 3581,
      "äärin": 3582,
      "ses": 3583,
      "mista": 3584,
      "ysee": 3585,
      "jalai": 3586,
      "näke": 3587,
      "amme": 3588,
      "our": 3589,
      "yksin": 3590,
      "aaliv": 3591,
      "avoim": 3592,
      "sh": 3593,
      "kome": 3594,
      "töä": 3595,
      "nka": 3596,
      "erot": 3597,
      "empa": 3598,
      "bri": 3599,
      "parin": 3600,
      "puk": 3601,
      "ttuja": 3602,
      "tajat": 3603,
      "nuk": 3604,
      "aata": 3605,
      "nnis": 3606,
      "teita": 3607,
      "nev": 3608,
      "eta": 3609,
      "kel": 3610,
      "##iv": 3611,
      "gu": 3612,
      "tue": 3613,
      "toon": 3614,
      "rhe": 3615,
      "eren": 3616,
      "riisi": 3617,
      "ug": 3618,
      "jäse": 3619,
      "iho": 3620,
      "kea": 3621,
      "ntaja": 3622,
      "syyte": 3623,
      "telua": 3624,
      "kait": 3625,
      "pani": 3626,
      "pano": 3627,
      "ennyt": 3628,
      "gol": 3629,
      "ovel": 3630,
      "vuode": 3631,
      "isemm": 3632,
      "irj": 3633,
      "aura": 3634,
      "vähä": 3635,
      "for": 3636,
      "tm": 3637,
      "arv": 3638,
      "ääd": 3639,
      "kaup": 3640,
      "yörä": 3641,
      "yri": 3642,
      "toks": 3643,
      "ysty": 3644,
      "riv": 3645,
      "intä": 3646,
      "este": 3647,
      "ieti": 3648,
      "usp": 3649,
      "olet": 3650,
      "ohtaj": 3651,
      "ositi": 3652,
      "rheil": 3653,
      "isö": 3654,
      "asuk": 3655,
      "iske": 3656,
      "tyt": 3657,
      "##bc": 3658,
      "eto": 3659,
      "aaja": 3660,
      "app": 3661,
      "teitä": 3662,
      "elt": 3663,
      "ack": 3664,
      "äkk": 3665,
      "une": 3666,
      "ope": 3667,
      "dän": 3668,
      "jais": 3669,
      "koo": 3670,
      "toa": 3671,
      "äärä": 3672,
      "osan": 3673,
      "emma": 3674,
      "öitä": 3675,
      "assi": 3676,
      "aini": 3677,
      "mot": 3678,
      "arme": 3679,
      "uuri": 3680,
      "esity": 3681,
      "ntoja": 3682,
      "iston": 3683,
      "ade": 3684,
      "aite": 3685,
      "kti": 3686,
      "kki": 3687,
      "anl": 3688,
      "tea": 3689,
      "arkas": 3690,
      "uka": 3691,
      "ento": 3692,
      "erra": 3693,
      "keli": 3694,
      "iikki": 3695,
      "go": 3696,
      "jaan": 3697,
      "air": 3698,
      "äid": 3699,
      "tteri": 3700,
      "anis": 3701,
      "nnen": 3702,
      "iiv": 3703,
      "ite": 3704,
      "aiem": 3705,
      "ulki": 3706,
      "lip": 3707,
      "utis": 3708,
      "oite": 3709,
      "amu": 3710,
      "täysi": 3711,
      "200": 3712,
      "teena": 3713,
      "inv": 3714,
      "aakk": 3715,
      "suoj": 3716,
      "amal": 3717,
      "oisin": 3718,
      "sinne": 3719,
      "pö": 3720,
      "olm": 3721,
      "aud": 3722,
      "lymp": 3723,
      "ec": 3724,
      "oke": 3725,
      "atal": 3726,
      "ova": 3727,
      "##by": 3728,
      "posit": 3729,
      "sisäl": 3730,
      "vänsä": 3731,
      "lve": 3732,
      "äivit": 3733,
      "ytyvä": 3734,
      "työn": 3735,
      "sijoi": 3736,
      "aria": 3737,
      "aalit": 3738,
      "nkari": 3739,
      "ävät": 3740,
      "vasti": 3741,
      "koit": 3742,
      "kur": 3743,
      "logi": 3744,
      "eräs": 3745,
      "syk": 3746,
      "kset": 3747,
      "kkel": 3748,
      "nkään": 3749,
      "upe": 3750,
      "talon": 3751,
      "ääs": 3752,
      "pelin": 3753,
      "innan": 3754,
      "muo": 3755,
      "arus": 3756,
      "ihmi": 3757,
      "iety": 3758,
      "hd": 3759,
      "ous": 3760,
      "omo": 3761,
      "uule": 3762,
      "aisk": 3763,
      "ltiin": 3764,
      "##istä": 3765,
      "takaa": 3766,
      "uhta": 3767,
      "tunee": 3768,
      "alt": 3769,
      "ranga": 3770,
      "uvu": 3771,
      "äk": 3772,
      "uoka": 3773,
      "otte": 3774,
      "annus": 3775,
      "erus": 3776,
      "oil": 3777,
      "ineen": 3778,
      "ärje": 3779,
      "ohtaa": 3780,
      "selle": 3781,
      "aaj": 3782,
      "aap": 3783,
      "kunni": 3784,
      "hak": 3785,
      "tilai": 3786,
      "musta": 3787,
      "be": 3788,
      "hte": 3789,
      "anee": 3790,
      "arjan": 3791,
      "itali": 3792,
      "äih": 3793,
      "veri": 3794,
      "käänt": 3795,
      "hn": 3796,
      "tilaa": 3797,
      "ämis": 3798,
      "muksi": 3799,
      "tumis": 3800,
      "ngl": 3801,
      "kuuta": 3802,
      "sivät": 3803,
      "utkij": 3804,
      "inun": 3805,
      "tra": 3806,
      "ypp": 3807,
      "arin": 3808,
      "opi": 3809,
      "istus": 3810,
      "kiit": 3811,
      "aalta": 3812,
      "usa": 3813,
      "sian": 3814,
      "pako": 3815,
      "##mar": 3816,
      "rata": 3817,
      "ame": 3818,
      "th": 3819,
      "aava": 3820,
      "sain": 3821,
      "ister": 3822,
      "ern": 3823,
      "ather": 3824,
      "opea": 3825,
      "ape": 3826,
      "della": 3827,
      "tuom": 3828,
      "uissa": 3829,
      "mital": 3830,
      "mässä": 3831,
      "22": 3832,
      "23": 3833,
      "oska": 3834,
      "ump": 3835,
      "lapi": 3836,
      "elk": 3837,
      "elto": 3838,
      "älä": 3839,
      "500": 3840,
      "akaa": 3841,
      "olu": 3842,
      "eeni": 3843,
      "huoli": 3844,
      "tall": 3845,
      "sella": 3846,
      "nnin": 3847,
      "roje": 3848,
      "allin": 3849,
      "insa": 3850,
      "ilk": 3851,
      "osti": 3852,
      "ähän": 3853,
      "21": 3854,
      "ästy": 3855,
      "annin": 3856,
      "ante": 3857,
      "tety": 3858,
      "sea": 3859,
      "ksa": 3860,
      "ona": 3861,
      "pah": 3862,
      "ello": 3863,
      "olais": 3864,
      "iil": 3865,
      "jet": 3866,
      "malla": 3867,
      "vien": 3868,
      "kaupp": 3869,
      "pil": 3870,
      "onni": 3871,
      "lei": 3872,
      "attav": 3873,
      "siksi": 3874,
      "ey": 3875,
      "rut": 3876,
      "angai": 3877,
      "ipu": 3878,
      "umi": 3879,
      "##ca": 3880,
      "ind": 3881,
      "uop": 3882,
      "kaike": 3883,
      "olk": 3884,
      "ntu": 3885,
      "össä": 3886,
      "ens": 3887,
      "enee": 3888,
      "rose": 3889,
      "siv": 3890,
      "tele": 3891,
      "omit": 3892,
      "raja": 3893,
      "pääst": 3894,
      "lime": 3895,
      "19": 3896,
      "ute": 3897,
      "ule": 3898,
      "viä": 3899,
      "nei": 3900,
      "hal": 3901,
      "unais": 3902,
      "out": 3903,
      "ennu": 3904,
      "tusk": 3905,
      "uheen": 3906,
      "vut": 3907,
      "uutu": 3908,
      "linen": 3909,
      "yöh": 3910,
      "rastu": 3911,
      "kuvaa": 3912,
      "olin": 3913,
      "ster": 3914,
      "yvän": 3915,
      "atsa": 3916,
      "60": 3917,
      "sko": 3918,
      "kim": 3919,
      "ymy": 3920,
      "alv": 3921,
      "tyne": 3922,
      "tensa": 3923,
      "ose": 3924,
      "kod": 3925,
      "era": 3926,
      "ttäv": 3927,
      "konf": 3928,
      "mpää": 3929,
      "kkö": 3930,
      "arjo": 3931,
      "aula": 3932,
      "isat": 3933,
      "27": 3934,
      "puu": 3935,
      "oha": 3936,
      "lom": 3937,
      "og": 3938,
      "ikka": 3939,
      "huole": 3940,
      "turna": 3941,
      "eella": 3942,
      "ica": 3943,
      "fi": 3944,
      "iemm": 3945,
      "uttu": 3946,
      "irkk": 3947,
      "aluei": 3948,
      "onto": 3949,
      "tem": 3950,
      "lehd": 3951,
      "ajam": 3952,
      "leht": 3953,
      "yden": 3954,
      "perin": 3955,
      "toki": 3956,
      "ral": 3957,
      "äänt": 3958,
      "oimaa": 3959,
      "noo": 3960,
      "ulke": 3961,
      "ähi": 3962,
      "äni": 3963,
      "pelaa": 3964,
      "anon": 3965,
      "äntä": 3966,
      "keil": 3967,
      "odist": 3968,
      "rän": 3969,
      "ntai": 3970,
      "edia": 3971,
      "ulje": 3972,
      "hol": 3973,
      "äp": 3974,
      "aris": 3975,
      "lisen": 3976,
      "aatto": 3977,
      "emi": 3978,
      "aansa": 3979,
      "nuori": 3980,
      "nnee": 3981,
      "alun": 3982,
      "tart": 3983,
      "ärv": 3984,
      "##yd": 3985,
      "kalli": 3986,
      "##ru": 3987,
      "mato": 3988,
      "ilev": 3989,
      "niä": 3990,
      "ohk": 3991,
      "uuten": 3992,
      "gran": 3993,
      "ukem": 3994,
      "int": 3995,
      "olt": 3996,
      "sv": 3997,
      "tuva": 3998,
      "nas": 3999,
      "enin": 4000,
      "tuis": 4001,
      "rem": 4002,
      "tusti": 4003,
      "kokoo": 4004,
      "avaa": 4005,
      "tellä": 4006,
      "auki": 4007,
      "sun": 4008,
      "ykk": 4009,
      "atr": 4010,
      "raina": 4011,
      "ykset": 4012,
      "iaal": 4013,
      "yp": 4014,
      "denk": 4015,
      "täjä": 4016,
      "tyttä": 4017,
      "vas": 4018,
      "ukko": 4019,
      "vuoro": 4020,
      "rovan": 4021,
      "muutt": 4022,
      "aper": 4023,
      "uunni": 4024,
      "ifk": 4025,
      "dr": 4026,
      "##mb": 4027,
      "ette": 4028,
      "rat": 4029,
      "neide": 4030,
      "nneks": 4031,
      "lit": 4032,
      "kou": 4033,
      "ore": 4034,
      "misen": 4035,
      "allis": 4036,
      "eika": 4037,
      "senä": 4038,
      "saan": 4039,
      "rkki": 4040,
      "anka": 4041,
      "alm": 4042,
      "kum": 4043,
      "kais": 4044,
      "yttäv": 4045,
      "töstä": 4046,
      "ovaa": 4047,
      "dus": 4048,
      "usk": 4049,
      "vy": 4050,
      "istää": 4051,
      "avan": 4052,
      "##nnu": 4053,
      "ttää": 4054,
      "öri": 4055,
      "eino": 4056,
      "uvia": 4057,
      "teke": 4058,
      "stäj": 4059,
      "ohe": 4060,
      "varo": 4061,
      "alme": 4062,
      "ht": 4063,
      "lep": 4064,
      "äästö": 4065,
      "##go": 4066,
      "inin": 4067,
      "iemi": 4068,
      "det": 4069,
      "ew": 4070,
      "list": 4071,
      "teide": 4072,
      "uste": 4073,
      "ure": 4074,
      "lov": 4075,
      "teltu": 4076,
      "fin": 4077,
      "vey": 4078,
      "ilä": 4079,
      "ulu": 4080,
      "oittu": 4081,
      "eka": 4082,
      "maine": 4083,
      "omat": 4084,
      "dok": 4085,
      "afp": 4086,
      "soda": 4087,
      "oris": 4088,
      "ros": 4089,
      "viera": 4090,
      "oisi": 4091,
      "iika": 4092,
      "osk": 4093,
      "alua": 4094,
      "atau": 4095,
      "iska": 4096,
      "arve": 4097,
      "bbc": 4098,
      "nutta": 4099,
      "rj": 4100,
      "äil": 4101,
      "nem": 4102,
      "mb": 4103,
      "tehd": 4104,
      "rikos": 4105,
      "araa": 4106,
      "urm": 4107,
      "yyte": 4108,
      "26": 4109,
      "eter": 4110,
      "aip": 4111,
      "hait": 4112,
      "iihd": 4113,
      "kielt": 4114,
      "ilee": 4115,
      "änn": 4116,
      "uran": 4117,
      "isena": 4118,
      "isimm": 4119,
      "eilij": 4120,
      "goi": 4121,
      "kuka": 4122,
      "turu": 4123,
      "otuks": 4124,
      "aaks": 4125,
      "ies": 4126,
      "tulle": 4127,
      "pidä": 4128,
      "##ps": 4129,
      "iss": 4130,
      "sunnu": 4131,
      "oro": 4132,
      "arvit": 4133,
      "omaan": 4134,
      "luu": 4135,
      "mut": 4136,
      "kanen": 4137,
      "inni": 4138,
      "keu": 4139,
      "rie": 4140,
      "aits": 4141,
      "nten": 4142,
      "essi": 4143,
      "urg": 4144,
      "rid": 4145,
      "innoi": 4146,
      "hs": 4147,
      "soi": 4148,
      "näy": 4149,
      "uollo": 4150,
      "auva": 4151,
      "isään": 4152,
      "ök": 4153,
      "##ber": 4154,
      "##ent": 4155,
      "eron": 4156,
      "oste": 4157,
      "samaa": 4158,
      "inais": 4159,
      "hmis": 4160,
      "unk": 4161,
      "stra": 4162,
      "elli": 4163,
      "aala": 4164,
      "ltaan": 4165,
      "ollis": 4166,
      "län": 4167,
      "koll": 4168,
      "ook": 4169,
      "okk": 4170,
      "uore": 4171,
      "ley": 4172,
      "ksien": 4173,
      "age": 4174,
      "yväs": 4175,
      "liitt": 4176,
      "tas": 4177,
      "lass": 4178,
      "ato": 4179,
      "anie": 4180,
      "oksia": 4181,
      "veyde": 4182,
      "ema": 4183,
      "otk": 4184,
      "nanta": 4185,
      "ikk": 4186,
      "suos": 4187,
      "uoles": 4188,
      "enny": 4189,
      "golf": 4190,
      "ske": 4191,
      "aras": 4192,
      "aiss": 4193,
      "ausk": 4194,
      "riste": 4195,
      "nter": 4196,
      "tover": 4197,
      "pen": 4198,
      "jaka": 4199,
      "ora": 4200,
      "viil": 4201,
      "saam": 4202,
      "kirk": 4203,
      "kkaa": 4204,
      "arko": 4205,
      "cnn": 4206,
      "ge": 4207,
      "omia": 4208,
      "eon": 4209,
      "misi": 4210,
      "pite": 4211,
      "väär": 4212,
      "eti": 4213,
      "yte": 4214,
      "ulis": 4215,
      "ehk": 4216,
      "imes": 4217,
      "muodo": 4218,
      "öt": 4219,
      "isoi": 4220,
      "atko": 4221,
      "atri": 4222,
      "ahi": 4223,
      "dat": 4224,
      "vala": 4225,
      "auna": 4226,
      "35": 4227,
      "untu": 4228,
      "väksi": 4229,
      "sih": 4230,
      "keho": 4231,
      "uhr": 4232,
      "allon": 4233,
      "kentä": 4234,
      "viiko": 4235,
      "airas": 4236,
      "stol": 4237,
      "ntiin": 4238,
      "rint": 4239,
      "tau": 4240,
      "nkii": 4241,
      "hankk": 4242,
      "irja": 4243,
      "##ci": 4244,
      "estö": 4245,
      "ile": 4246,
      "ampa": 4247,
      "rkist": 4248,
      "istis": 4249,
      "spe": 4250,
      "##rii": 4251,
      "ainee": 4252,
      "itell": 4253,
      "luke": 4254,
      "päil": 4255,
      "mani": 4256,
      "eak": 4257,
      "ielä": 4258,
      "alus": 4259,
      "oos": 4260,
      "sissa": 4261,
      "hun": 4262,
      "issu": 4263,
      "teer": 4264,
      "siä": 4265,
      "nalle": 4266,
      "ittu": 4267,
      "ost": 4268,
      "uttav": 4269,
      "istam": 4270,
      "uhu": 4271,
      "otus": 4272,
      "nai": 4273,
      "ostaa": 4274,
      "ns": 4275,
      "anh": 4276,
      "kav": 4277,
      "ikäi": 4278,
      "ansai": 4279,
      "allas": 4280,
      "sum": 4281,
      "ivu": 4282,
      "äme": 4283,
      "enta": 4284,
      "astel": 4285,
      "euvo": 4286,
      "ttäm": 4287,
      "emis": 4288,
      "otaa": 4289,
      "uoti": 4290,
      "mala": 4291,
      "nia": 4292,
      "28": 4293,
      "täys": 4294,
      "leik": 4295,
      "luist": 4296,
      "isiä": 4297,
      "diag": 4298,
      "gi": 4299,
      "lay": 4300,
      "sydä": 4301,
      "ellyt": 4302,
      "ison": 4303,
      "red": 4304,
      "ada": 4305,
      "dyt": 4306,
      "krii": 4307,
      "lyn": 4308,
      "iisi": 4309,
      "immä": 4310,
      "alik": 4311,
      "nh": 4312,
      "tuul": 4313,
      "tre": 4314,
      "hkä": 4315,
      "sak": 4316,
      "oiva": 4317,
      "ngel": 4318,
      "ellut": 4319,
      "lisi": 4320,
      "ökse": 4321,
      "seksi": 4322,
      "tutu": 4323,
      "##and": 4324,
      "takin": 4325,
      "uov": 4326,
      "ttävä": 4327,
      "gram": 4328,
      "ym": 4329,
      "##una": 4330,
      "tystä": 4331,
      "ntoa": 4332,
      "oinni": 4333,
      "äkkä": 4334,
      "aide": 4335,
      "oida": 4336,
      "nteis": 4337,
      "muute": 4338,
      "eil": 4339,
      "neita": 4340,
      "deksi": 4341,
      "averi": 4342,
      "huip": 4343,
      "raken": 4344,
      "##ood": 4345,
      "kivi": 4346,
      "ttyä": 4347,
      "oom": 4348,
      "vit": 4349,
      "yd": 4350,
      "anha": 4351,
      "alvo": 4352,
      "aas": 4353,
      "siin": 4354,
      "suju": 4355,
      "näki": 4356,
      "uotte": 4357,
      "palk": 4358,
      "öiden": 4359,
      "änt": 4360,
      "ulta": 4361,
      "aara": 4362,
      "ähkö": 4363,
      "kene": 4364,
      "we": 4365,
      "kossa": 4366,
      "orma": 4367,
      "pään": 4368,
      "aust": 4369,
      "eskit": 4370,
      "iks": 4371,
      "nähd": 4372,
      "itt": 4373,
      "kyy": 4374,
      "tävää": 4375,
      "koivu": 4376,
      "imä": 4377,
      "ökk": 4378,
      "öjä": 4379,
      "tuha": 4380,
      "tei": 4381,
      "nosti": 4382,
      "laati": 4383,
      "etuk": 4384,
      "kuri": 4385,
      "atto": 4386,
      "pääs": 4387,
      "akku": 4388,
      "yön": 4389,
      "oku": 4390,
      "äntö": 4391,
      "nlop": 4392,
      "esa": 4393,
      "rok": 4394,
      "vuu": 4395,
      "iassa": 4396,
      "uho": 4397,
      "onsa": 4398,
      "kail": 4399,
      "hai": 4400,
      "miste": 4401,
      "kaal": 4402,
      "she": 4403,
      "enkä": 4404,
      "mas": 4405,
      "nalai": 4406,
      "elj": 4407,
      "eltä": 4408,
      "lty": 4409,
      "ode": 4410,
      "koja": 4411,
      "auti": 4412,
      "apah": 4413,
      "29": 4414,
      "nmaa": 4415,
      "ret": 4416,
      "wil": 4417,
      "väis": 4418,
      "sur": 4419,
      "suute": 4420,
      "kulku": 4421,
      "henk": 4422,
      "ntel": 4423,
      "nnist": 4424,
      "läs": 4425,
      "syv": 4426,
      "rei": 4427,
      "imp": 4428,
      "lk": 4429,
      "erhe": 4430,
      "aalli": 4431,
      "käs": 4432,
      "uuto": 4433,
      "öytä": 4434,
      "aih": 4435,
      "ohjan": 4436,
      "utun": 4437,
      "salli": 4438,
      "suori": 4439,
      "paran": 4440,
      "ania": 4441,
      "ulma": 4442,
      "must": 4443,
      "iusa": 4444,
      "ämään": 4445,
      "isyyd": 4446,
      "odo": 4447,
      "##mmo": 4448,
      "rop": 4449,
      "ital": 4450,
      "äyte": 4451,
      "enäl": 4452,
      "sket": 4453,
      "hir": 4454,
      "jö": 4455,
      "itto": 4456,
      "reit": 4457,
      "nkk": 4458,
      "iita": 4459,
      "toive": 4460,
      "lasi": 4461,
      "äär": 4462,
      "osak": 4463,
      "400": 4464,
      "ilja": 4465,
      "verk": 4466,
      "oneen": 4467,
      "ioi": 4468,
      "tajaa": 4469,
      "ikeus": 4470,
      "välis": 4471,
      "##fa": 4472,
      "ars": 4473,
      "änd": 4474,
      "kana": 4475,
      "oc": 4476,
      "uli": 4477,
      "eim": 4478,
      "etsä": 4479,
      "aak": 4480,
      "väk": 4481,
      "utui": 4482,
      "ega": 4483,
      "##gan": 4484,
      "are": 4485,
      "ralla": 4486,
      "ttane": 4487,
      "##ppo": 4488,
      "300": 4489,
      "uen": 4490,
      "yti": 4491,
      "lak": 4492,
      "wal": 4493,
      "tein": 4494,
      "aremm": 4495,
      "nnet": 4496,
      "altai": 4497,
      "juoks": 4498,
      "80": 4499,
      "ttoi": 4500,
      "maja": 4501,
      "ohti": 4502,
      "tilä": 4503,
      "appe": 4504,
      "varma": 4505,
      "arje": 4506,
      "emä": 4507,
      "sessa": 4508,
      "kus": 4509,
      "not": 4510,
      "tinen": 4511,
      "astau": 4512,
      "nite": 4513,
      "uso": 4514,
      "aike": 4515,
      "auha": 4516,
      "delle": 4517,
      "evi": 4518,
      "nmaan": 4519,
      "uja": 4520,
      "##wa": 4521,
      "altaa": 4522,
      "pasi": 4523,
      "tym": 4524,
      "väki": 4525,
      "auka": 4526,
      "korva": 4527,
      "dop": 4528,
      "nku": 4529,
      "stav": 4530,
      "itk": 4531,
      "öntä": 4532,
      "tont": 4533,
      "ttis": 4534,
      "askel": 4535,
      "dis": 4536,
      "vist": 4537,
      "##per": 4538,
      "isten": 4539,
      "ieni": 4540,
      "ez": 4541,
      "ittav": 4542,
      "70": 4543,
      "fo": 4544,
      "etus": 4545,
      "kuo": 4546,
      "herä": 4547,
      "ulla": 4548,
      "uit": 4549,
      "inh": 4550,
      "aaka": 4551,
      "mal": 4552,
      "staa": 4553,
      "pailu": 4554,
      "tanee": 4555,
      "selvä": 4556,
      "kät": 4557,
      "ler": 4558,
      "tit": 4559,
      "ankk": 4560,
      "työt": 4561,
      "ulkom": 4562,
      "rista": 4563,
      "yöt": 4564,
      "unen": 4565,
      "alkan": 4566,
      "isenä": 4567,
      "eeri": 4568,
      "aitos": 4569,
      "olme": 4570,
      "ment": 4571,
      "untia": 4572,
      "fr": 4573,
      "istel": 4574,
      "mii": 4575,
      "yssä": 4576,
      "osen": 4577,
      "idä": 4578,
      "yistä": 4579,
      "viro": 4580,
      "moott": 4581,
      "itys": 4582,
      "rmo": 4583,
      "kia": 4584,
      "llist": 4585,
      "uhk": 4586,
      "emmat": 4587,
      "issi": 4588,
      "kop": 4589,
      "ult": 4590,
      "##uru": 4591,
      "liv": 4592,
      "ittai": 4593,
      "##bi": 4594,
      "koil": 4595,
      "ias": 4596,
      "kej": 4597,
      "lia": 4598,
      "yst": 4599,
      "laaja": 4600,
      "eko": 4601,
      "oks": 4602,
      "telle": 4603,
      "tok": 4604,
      "rkp": 4605,
      "avid": 4606,
      "oisia": 4607,
      "iris": 4608,
      "irka": 4609,
      "uihin": 4610,
      "ytys": 4611,
      "yksis": 4612,
      "ousu": 4613,
      "kkee": 4614,
      "entää": 4615,
      "anma": 4616,
      "kava": 4617,
      "rap": 4618,
      "log": 4619,
      "ttui": 4620,
      "tynyt": 4621,
      "oilta": 4622,
      "tko": 4623,
      "suoja": 4624,
      "pos": 4625,
      "tavaa": 4626,
      "oistu": 4627,
      "bu": 4628,
      "inte": 4629,
      "iigan": 4630,
      "viron": 4631,
      "lent": 4632,
      "matt": 4633,
      "bi": 4634,
      "kah": 4635,
      "adan": 4636,
      "caro": 4637,
      "mö": 4638,
      "koise": 4639,
      "alai": 4640,
      "tauo": 4641,
      "tuut": 4642,
      "vassa": 4643,
      "##ere": 4644,
      "merk": 4645,
      "ähti": 4646,
      "aks": 4647,
      "njoh": 4648,
      "tes": 4649,
      "vet": 4650,
      "##end": 4651,
      "tyi": 4652,
      "iell": 4653,
      "ikki": 4654,
      "nettu": 4655,
      "ämp": 4656,
      "jok": 4657,
      "innos": 4658,
      "ima": 4659,
      "sän": 4660,
      "iekk": 4661,
      "htaa": 4662,
      "oppu": 4663,
      "erän": 4664,
      "atkuv": 4665,
      "konee": 4666,
      "uluva": 4667,
      "kari": 4668,
      "auh": 4669,
      "jokai": 4670,
      "omero": 4671,
      "opeu": 4672,
      "ger": 4673,
      "lku": 4674,
      "##ft": 4675,
      "ons": 4676,
      "max": 4677,
      "paan": 4678,
      "itty": 4679,
      "okuv": 4680,
      "kuvat": 4681,
      "lanti": 4682,
      "km": 4683,
      "kuv": 4684,
      "aalis": 4685,
      "45": 4686,
      "ts": 4687,
      "arka": 4688,
      "amo": 4689,
      "ikan": 4690,
      "huolt": 4691,
      "ved": 4692,
      "läsnä": 4693,
      "ekä": 4694,
      "yvät": 4695,
      "öin": 4696,
      "tasi": 4697,
      "ankar": 4698,
      "tuus": 4699,
      "äne": 4700,
      "ram": 4701,
      "dig": 4702,
      "tyyl": 4703,
      "nsim": 4704,
      "avia": 4705,
      "arta": 4706,
      "iilo": 4707,
      "ace": 4708,
      "innu": 4709,
      "styks": 4710,
      "einen": 4711,
      "anu": 4712,
      "atvia": 4713,
      "lio": 4714,
      "tarv": 4715,
      "amin": 4716,
      "eos": 4717,
      "äisi": 4718,
      "änet": 4719,
      "laski": 4720,
      "htiö": 4721,
      "pt": 4722,
      "eny": 4723,
      "##kär": 4724,
      "yhtey": 4725,
      "joukk": 4726,
      "ävy": 4727,
      "evät": 4728,
      "asva": 4729,
      "malt": 4730,
      "neis": 4731,
      "kiva": 4732,
      "tyk": 4733,
      "pat": 4734,
      "link": 4735,
      "laitt": 4736,
      "ulkop": 4737,
      "omien": 4738,
      "siiv": 4739,
      "luks": 4740,
      "töks": 4741,
      "ntia": 4742,
      "vissa": 4743,
      "hit": 4744,
      "##up": 4745,
      "syl": 4746,
      "istaa": 4747,
      "mys": 4748,
      "kuit": 4749,
      "matk": 4750,
      "eljä": 4751,
      "unno": 4752,
      "löi": 4753,
      "uet": 4754,
      "yne": 4755,
      "##ler": 4756,
      "anss": 4757,
      "iedo": 4758,
      "ataa": 4759,
      "kym": 4760,
      "hot": 4761,
      "iste": 4762,
      "utti": 4763,
      "konen": 4764,
      "kt": 4765,
      "mmo": 4766,
      "alb": 4767,
      "tarin": 4768,
      "saane": 4769,
      "ehe": 4770,
      "rb": 4771,
      "alon": 4772,
      "arke": 4773,
      "usto": 4774,
      "rauh": 4775,
      "jalk": 4776,
      "ostam": 4777,
      "eltu": 4778,
      "mpere": 4779,
      "odote": 4780,
      "##uma": 4781,
      "inl": 4782,
      "kasi": 4783,
      "äsk": 4784,
      "nsin": 4785,
      "tkin": 4786,
      "ävä": 4787,
      "kaut": 4788,
      "aast": 4789,
      "nar": 4790,
      "lukse": 4791,
      "jonk": 4792,
      "otim": 4793,
      "elpo": 4794,
      "nnoi": 4795,
      "toipu": 4796,
      "teema": 4797,
      "köi": 4798,
      "tteli": 4799,
      "sikko": 4800,
      "lp": 4801,
      "##bin": 4802,
      "lari": 4803,
      "ähde": 4804,
      "llan": 4805,
      "entaa": 4806,
      "erin": 4807,
      "mun": 4808,
      "äsen": 4809,
      "hri": 4810,
      "uma": 4811,
      "soo": 4812,
      "alat": 4813,
      "lanni": 4814,
      "laat": 4815,
      "rva": 4816,
      "ituks": 4817,
      "##za": 4818,
      "edo": 4819,
      "kons": 4820,
      "reena": 4821,
      "äily": 4822,
      "ikse": 4823,
      "nur": 4824,
      "uee": 4825,
      "aivaa": 4826,
      "laps": 4827,
      "hää": 4828,
      "90": 4829,
      "tsa": 4830,
      "elv": 4831,
      "oika": 4832,
      "tammi": 4833,
      "ytty": 4834,
      "innä": 4835,
      "car": 4836,
      "mman": 4837,
      "llyt": 4838,
      "aate": 4839,
      "lassa": 4840,
      "masta": 4841,
      "top": 4842,
      "uusk": 4843,
      "yör": 4844,
      "hum": 4845,
      "vaikk": 4846,
      "tanen": 4847,
      "koho": 4848,
      "ytti": 4849,
      "idea": 4850,
      "evan": 4851,
      "line": 4852,
      "isän": 4853,
      "uska": 4854,
      "toisi": 4855,
      "atka": 4856,
      "itsi": 4857,
      "rati": 4858,
      "ääki": 4859,
      "rill": 4860,
      "äivi": 4861,
      "yös": 4862,
      "yrk": 4863,
      "eoll": 4864,
      "auli": 4865,
      "yöm": 4866,
      "ner": 4867,
      "oko": 4868,
      "tk": 4869,
      "onna": 4870,
      "tetu": 4871,
      "pila": 4872,
      "uutee": 4873,
      "amb": 4874,
      "arab": 4875,
      "can": 4876,
      "skin": 4877,
      "aalie": 4878,
      "pla": 4879,
      "lly": 4880,
      "ltav": 4881,
      "31": 4882,
      "eija": 4883,
      "trend": 4884,
      "entin": 4885,
      "sestä": 4886,
      "nest": 4887,
      "yo": 4888,
      "yyty": 4889,
      "nal": 4890,
      "soker": 4891,
      "uista": 4892,
      "iista": 4893,
      "anja": 4894,
      "seis": 4895,
      "ieno": 4896,
      "rii": 4897,
      "ammi": 4898,
      "ärs": 4899,
      "anan": 4900,
      "alti": 4901,
      "estää": 4902,
      "päätt": 4903,
      "evää": 4904,
      "akuu": 4905,
      "äjä": 4906,
      "tol": 4907,
      "aval": 4908,
      "inal": 4909,
      "ikea": 4910,
      "tl": 4911,
      "##rk": 4912,
      "uudi": 4913,
      "oiv": 4914,
      "eisk": 4915,
      "merc": 4916,
      "eeksi": 4917,
      "ijan": 4918,
      "netti": 4919,
      "dut": 4920,
      "uske": 4921,
      "ohja": 4922,
      "elik": 4923,
      "exp": 4924,
      "hetk": 4925,
      "etää": 4926,
      "mpa": 4927,
      "äj": 4928,
      "##ek": 4929,
      "##ins": 4930,
      "kaist": 4931,
      "hat": 4932,
      "olem": 4933,
      "rov": 4934,
      "lyy": 4935,
      "ohdi": 4936,
      "32": 4937,
      "tik": 4938,
      "yä": 4939,
      "atin": 4940,
      "llise": 4941,
      "harj": 4942,
      "kerra": 4943,
      "akka": 4944,
      "utust": 4945,
      "evo": 4946,
      "mana": 4947,
      "aru": 4948,
      "sas": 4949,
      "ntak": 4950,
      "ulev": 4951,
      "eut": 4952,
      "unu": 4953,
      "eam": 4954,
      "unai": 4955,
      "eskel": 4956,
      "akia": 4957,
      "##be": 4958,
      "onin": 4959,
      "##lor": 4960,
      "konku": 4961,
      "eist": 4962,
      "elee": 4963,
      "##lem": 4964,
      "kang": 4965,
      "harri": 4966,
      "mmat": 4967,
      "kaisa": 4968,
      "etti": 4969,
      "voin": 4970,
      "melk": 4971,
      "nun": 4972,
      "rinen": 4973,
      "vais": 4974,
      "esse": 4975,
      "ass": 4976,
      "stap": 4977,
      "ottu": 4978,
      "nton": 4979,
      "ohje": 4980,
      "rss": 4981,
      "uda": 4982,
      "##hku": 4983,
      "mater": 4984,
      "ilti": 4985,
      "tietä": 4986,
      "itää": 4987,
      "vank": 4988,
      "utune": 4989,
      "alit": 4990,
      "anth": 4991,
      "okkaa": 4992,
      "ees": 4993,
      "asku": 4994,
      "##par": 4995,
      "anche": 4996,
      "fa": 4997,
      "lkee": 4998,
      "upo": 4999
    }
  }
}