<unk>	0
<s>	0
</s>	0
n	-3.12386
.	-3.60535
a	-3.74394
▁.	-4.0264
,	-4.10329
▁,	-4.17954
▁ja	-4.20811
▁on	-4.2598
t	-4.33233
en	-4.76224
▁	-4.88038
ssa	-4.93655
i	-4.94266
in	-4.99814
-	-5.05496
ä	-5.07027
sta	-5.12975
▁että	-5.16046
▁ei	-5.31067
▁-	-5.3508
s	-5.42509
▁oli	-5.48652
an	-5.63585
lla	-5.67256
ta	-5.67681
lle	-5.72542
e	-5.82046
:	-5.87538
▁mukaan	-5.87577
▁n	-5.92563
▁a	-5.95478
▁hän	-5.96931
ksi	-5.99778
▁myös	-6.03992
▁ole	-6.05054
u	-6.1102
▁se	-6.11163
nen	-6.113
vat	-6.15864
ssä	-6.17014
▁ovat	-6.17926
▁"	-6.19697
▁mutt	-6.20632
stä	-6.21523
nut	-6.22092
▁jo	-6.24752
▁kun	-6.2774
sti	-6.29351
si	-6.39974
▁voi	-6.42127
o	-6.4263
y	-6.42781
llä	-6.49108
▁ollut	-6.52706
▁Hän	-6.56645
▁in	-6.57367
ko	-6.58504
▁kertoo	-6.58925
▁tai	-6.61187
inen	-6.65509
▁joka	-6.66116
ja	-6.66563
nsa	-6.69116
maan	-6.69794
▁jälkeen	-6.7116
kin	-6.72748
▁sen	-6.7298
▁kuin	-6.73634
▁t	-6.74098
▁:	-6.76663
nyt	-6.77197
▁kanssa	-6.77234
▁an	-6.79198
▁niin	-6.79647
▁(	-6.81257
ista	-6.83785
lta	-6.84856
▁olisi	-6.84911
iden	-6.85589
▁Se	-6.90669
vät	-6.92302
▁vuonna	-6.92506
ten	-6.92534
▁Suomen	-6.92568
▁kin	-6.92606
▁sanoo	-6.93201
to	-6.96793
▁kuitenk	-6.96844
tä	-6.97978
än	-6.98391
▁en	-6.99124
va	-7.04327
la	-7.04539
▁viime	-7.04826
h	-7.05121
mme	-7.05664
tta	-7.05964
▁olla	-7.06472
tu	-7.06585
▁sekä	-7.07204
▁Venäjä	-7.07263
ti	-7.07522
▁nyt	-7.1028
et	-7.10473
sa	-7.10656
minen	-7.11479
ka	-7.12235
us	-7.12456
r	-7.12971
▁vielä	-7.13195
on	-7.14278
kä	-7.14388
▁sta	-7.16112
▁vuoden	-7.16272
▁kertoi	-7.1807
▁vain	-7.2026
▁ta	-7.20299
k	-7.21725
neet	-7.22301
)	-7.22477
▁siitä	-7.23234
den	-7.24375
▁saa	-7.24607
▁sanoi	-7.24688
te	-7.25841
▁lle	-7.25983
▁yli	-7.27064
sen	-7.27691
▁sai	-7.28017
tti	-7.28837
ri	-7.2956
▁sitä	-7.29658
jen	-7.29855
ke	-7.30343
aan	-7.34069
ma	-7.34072
li	-7.34917
ki	-7.35437
pa	-7.35893
▁?	-7.36077
▁noin	-7.36131
▁jossa	-7.3622
▁aikana	-7.38222
d	-7.38729
m	-7.3886
▁paljon	-7.40351
▁eri	-7.42545
issa	-7.43708
l	-7.43867
▁eivät	-7.44195
▁sitten	-7.44735
▁sillä	-7.44908
▁sa	-7.45524
▁ennen	-7.45844
▁A	-7.46162
vi	-7.46862
▁ne	-7.46975
▁hyvin	-7.47156
▁kaikki	-7.48082
ttiin	-7.48104
▁jos	-7.49061
▁ä	-7.49692
▁ettei	-7.49855
▁muun	-7.50265
▁häne	-7.50775
▁S	-7.50813
▁mua	-7.50926
▁koko	-7.51406
▁kaksi	-7.53573
mi	-7.54134
▁esimerkiksi	-7.54903
un	-7.55263
▁yksi	-7.55759
▁tulee	-7.56485
▁lla	-7.57813
▁eli	-7.58637
re	-7.59259
▁tuli	-7.59272
ut	-7.59437
isi	-7.59778
▁000	-7.60275
▁he	-7.60331
▁si	-7.61488
▁mitä	-7.61951
▁pitää	-7.62182
▁jotk	-7.62372
nsä	-7.62978
▁ni	-7.63062
▁osa	-7.63801
ttu	-7.64179
▁euroa	-7.6429
▁olivat	-7.64548
▁itse	-7.64843
▁ssa	-7.64972
▁vuotta	-7.65222
▁jonk	-7.65925
▁mies	-7.66421
▁ista	-7.67486
▁Jos	-7.67486
is	-7.67824
▁vastaan	-7.67958
▁ksi	-7.69262
▁Kun	-7.69774
le	-7.70548
▁aina	-7.70552
p	-7.71039
▁pää	-7.72096
ra	-7.72418
illa	-7.72512
▁maan	-7.73822
▁Poliisi	-7.75668
▁aika	-7.75746
▁kolme	-7.76797
mään	-7.77088
▁hyvä	-7.77432
▁ko	-7.78157
ita	-7.78731
▁Suomessa	-7.79492
▁lisää	-7.80074
▁vaikka	-7.80083
jä	-7.80784
ia	-7.81069
▁tämä	-7.8169
▁koska	-7.81861
▁ille	-7.82045
ksen	-7.82764
ku	-7.83173
ve	-7.83245
istä	-7.84092
▁i	-7.84361
ille	-7.8482
er	-7.85427
▁Ei	-7.85758
ro	-7.85864
ö	-7.86385
kka	-7.86519
▁ajan	-7.87236
▁s	-7.87238
ihin	-7.87375
▁Ja	-7.88017
0	-7.88145
▁tämän	-7.88158
lo	-7.88769
▁siihen	-7.89068
▁poliisi	-7.89257
▁Myös	-7.89319
mo	-7.89609
▁K	-7.8978
▁Tämä	-7.90378
g	-7.91161
▁presidentti	-7.91163
▁En	-7.91859
▁ensi	-7.91998
taan	-7.92474
▁tällä	-7.92734
▁mme	-7.9367
▁Kuva	-7.93879
▁oma	-7.93978
▁Nyt	-7.94344
tiin	-7.9452
▁illa	-7.94549
▁vasta	-7.94846
▁kertaa	-7.95182
▁aiemmin	-7.95202
▁vaan	-7.9539
vä	-7.95843
▁enemmän	-7.96144
▁miten	-7.96331
vuotias	-7.96538
isen	-7.9672
▁T	-7.96803
▁vuosi	-7.9712
▁työ	-7.98163
▁kommentoi	-7.98243
▁Suomi	-7.98795
▁mikä	-7.99731
ty	-8.00175
▁toimi	-8.00184
ltä	-8.00303
▁MM	-8.00941
▁E	-8.01297
▁mitään	-8.01744
▁issa	-8.02746
▁määrä	-8.02779
▁na	-8.02918
▁jää	-8.03329
neen	-8.03518
▁e	-8.03544
▁ihan	-8.03642
▁He	-8.0415
▁tuo	-8.04964
▁Ukrainan	-8.05727
v	-8.05842
▁olevan	-8.06411
▁O	-8.0689
▁/	-8.07425
▁prosenttia	-8.07828
▁kello	-8.08453
▁uusi	-8.08717
ttä	-8.08861
▁Helsingin	-8.09081
▁tehdä	-8.09256
▁me	-8.09265
▁kyse	-8.10029
▁pois	-8.10148
▁enää	-8.10184
de	-8.10764
kki	-8.10939
mista	-8.11144
pi	-8.115
▁aikaa	-8.11545
▁la	-8.11596
▁­	-8.12381
▁I	-8.12635
▁teki	-8.14288
▁tä	-8.14363
5	-8.14465
▁".	-8.14838
lu	-8.15861
▁auto	-8.16119
▁On	-8.17554
▁todella	-8.1915
▁saanut	-8.19228
▁kauden	-8.19301
▁lisäks	-8.19418
▁puolesta	-8.19527
sä	-8.19694
it	-8.20134
▁Jo	-8.20195
▁iso	-8.20304
▁Ruotsi	-8.20543
­	-8.20849
▁Lisä	-8.2143
▁F	-8.21724
mis	-8.22061
▁20	-8.22213
▁vuoksi	-8.22494
pe	-8.23216
▁ku	-8.23247
▁koti	-8.23275
ha	-8.23533
▁asia	-8.23571
essä	-8.23846
▁kautta	-8.23852
▁maa	-8.23886
▁peli	-8.24128
▁pa	-8.2451
▁ollee	-8.24574
kään	-8.25619
isesti	-8.26129
▁tässä	-8.26972
▁pari	-8.2719
▁EU	-8.27243
▁vähän	-8.27344
▁M	-8.27492
man	-8.27926
▁kute	-8.27957
me	-8.28166
▁päivä	-8.28208
mpi	-8.2829
▁C	-8.28642
▁Yle	-8.28826
f	-8.28876
▁!	-8.29114
▁mukana	-8.29462
"	-8.2967
▁tullut	-8.30229
▁juuri	-8.30366
▁Trump	-8.30672
▁vat	-8.30777
▁hetkellä	-8.30788
▁Sen	-8.31014
▁aikaan	-8.31271
se	-8.31434
▁P	-8.31623
▁än	-8.31702
▁tilanne	-8.31808
▁voisi	-8.32447
▁Me	-8.32555
▁puheenjohtaja	-8.33469
▁siinä	-8.3349
pu	-8.33654
tus	-8.33723
▁lähes	-8.33794
▁Nato	-8.34345
▁1	-8.34512
ll	-8.34852
▁jäi	-8.34923
▁k	-8.34924
▁kiinni	-8.35257
▁pitäisi	-8.35319
▁joten	-8.35424
▁neljä	-8.36337
▁ia	-8.36483
▁lta	-8.36542
▁10	-8.36559
▁N	-8.36561
▁arvioi	-8.3695
▁lisä	-8.37277
c	-8.37317
van	-8.37347
po	-8.37353
▁ilman	-8.3745
sto	-8.37729
▁taas	-8.37845
▁kaudella	-8.37916
ho	-8.37932
▁Ilta	-8.38009
▁2023	-8.38052
▁asti	-8.38433
▁Stubb	-8.38501
▁toinen	-8.38513
▁edelleen	-8.38582
▁takia	-8.38943
▁jen	-8.39289
di	-8.39382
▁tavalla	-8.39884
isiin	-8.40248
▁alle	-8.40519
▁Mi	-8.40852
▁La	-8.41003
illä	-8.4112
▁saada	-8.41378
▁Olen	-8.41605
▁alueella	-8.41981
▁Viime	-8.42275
▁Pohjois	-8.42684
▁U	-8.42708
▁ra	-8.42882
z	-8.42996
▁vara	-8.43217
▁moni	-8.43297
▁käy	-8.43598
ään	-8.43885
▁uuden	-8.44478
▁Trumpin	-8.44494
kaan	-8.44551
▁Yhdysvaltain	-8.45439
▁voitti	-8.45661
da	-8.4634
llinen	-8.46485
▁Näin	-8.46514
b	-8.46569
▁palvelu	-8.46784
vansa	-8.46957
▁pysty	-8.47176
▁yhdessä	-8.47226
2	-8.47618
S	-8.47728
▁ma	-8.4782
▁X	-8.47841
▁perjantaina	-8.47952
▁näin	-8.47989
▁puoli	-8.48274
▁2	-8.48484
▁koulu	-8.49068
▁vie	-8.49231
▁miljoonaa	-8.49398
▁miehen	-8.49685
▁ilta	-8.49849
han	-8.49929
▁stä	-8.5014
▁)	-8.50182
▁hallituksen	-8.50226
or	-8.50351
▁alkoi	-8.50493
▁NHL	-8.50512
lainen	-8.50718
▁nsa	-8.5074
▁lauantaina	-8.50767
▁Ko	-8.50805
▁joukkue	-8.51272
ttava	-8.51297
▁tosi	-8.51306
▁u	-8.51493
lä	-8.51576
▁toisen	-8.51625
▁urheilu	-8.51819
seen	-8.51933
▁viikolla	-8.5206
mä	-8.52118
▁mielestä	-8.52311
ön	-8.52374
1	-8.52595
issä	-8.52748
▁Pa	-8.52787
▁sä	-8.52807
▁Ra	-8.52875
kseen	-8.5294
▁kuinka	-8.53167
▁kirjoittaa	-8.53316
▁Oulun	-8.53515
▁meni	-8.53524
▁siis	-8.53588
▁ensimmäisen	-8.53611
▁hieman	-8.53645
▁välillä	-8.53758
▁heti	-8.53818
▁nä	-8.53835
▁niitä	-8.53951
▁kaupungin	-8.54428
▁henkilö	-8.54451
ellä	-8.54541
▁oleva	-8.54676
do	-8.54724
▁arvo	-8.54805
▁joita	-8.54884
▁alkaa	-8.55256
ttäin	-8.55734
▁vi	-8.55757
▁seura	-8.55778
▁heidä	-8.55838
▁tehnyt	-8.55856
▁Si	-8.56208
▁täysin	-8.56353
kko	-8.56497
j	-8.56791
▁tänä	-8.56873
▁tu	-8.56993
A	-8.57006
▁kahden	-8.57281
▁puolustus	-8.57611
▁sama	-8.57663
▁Ne	-8.57761
▁piti	-8.57913
▁päästä	-8.58055
▁ihin	-8.58162
▁häntä	-8.58197
▁kerran	-8.58291
▁Euroopan	-8.58304
▁va	-8.58362
▁myöhemmin	-8.58674
▁kyllä	-8.58713
▁IS	-8.59131
▁jota	-8.59335
▁Li	-8.59366
▁su	-8.59481
▁useita	-8.59602
▁tulla	-8.5969
▁jatkaa	-8.60201
▁yhden	-8.60433
jopa	-8.60471
▁ainak	-8.60768
▁torstaina	-8.60787
▁otti	-8.60861
▁johtaja	-8.60886
massa	-8.60924
▁Mut	-8.60985
▁edes	-8.61006
▁nousi	-8.61074
▁kuoli	-8.61078
tettiin	-8.61322
▁te	-8.61326
su	-8.61392
isia	-8.61669
▁Oli	-8.6169
ttaa	-8.61725
▁et	-8.6189
ge	-8.6193
K	-8.62152
▁Ri	-8.62165
el	-8.62417
▁Mu	-8.62496
▁näyttää	-8.6259
▁euron	-8.63369
6	-8.63424
▁tiistaina	-8.6345
▁aiva	-8.63599
ur	-8.63663
▁maanantaina	-8.63733
▁maailman	-8.64017
▁Vaikka	-8.6406
▁15	-8.64155
▁No	-8.64193
▁keskiviikkona	-8.64204
▁alussa	-8.64287
▁perhe	-8.64414
▁Tä	-8.6459
▁o	-8.64827
ys	-8.64963
▁silloin	-8.65047
▁ottaa	-8.65081
▁jä	-8.65152
▁ase	-8.65209
▁mahdollista	-8.65215
▁voivat	-8.65418
▁media	-8.65819
▁Kaikki	-8.65912
▁sunnuntaina	-8.6599
▁nosta	-8.66131
▁koskaan	-8.66303
▁suomalais	-8.66315
▁Sa	-8.66328
os	-8.66481
▁usein	-8.66617
maa	-8.66676
▁läpi	-8.66709
▁Ar	-8.66913
▁suuri	-8.67024
▁ty	-8.67156
3	-8.67267
▁perusteella	-8.67346
▁oman	-8.67597
▁ihmise	-8.67831
▁Israelin	-8.67907
T	-8.68029
▁hallitus	-8.68104
▁muutama	-8.68157
▁Suomeen	-8.68212
▁toteaa	-8.68332
essa	-8.68374
hin	-8.68426
▁siellä	-8.68541
▁kävi	-8.6874
▁V	-8.68847
tty	-8.68859
▁Vi	-8.68872
4	-8.68919
▁asiasta	-8.6903
▁R	-8.69118
▁tätä	-8.69281
▁30	-8.69362
▁isä	-8.69583
▁yhä	-8.69724
▁isi	-8.69867
▁usko	-8.6998
lais	-8.70014
▁viikon	-8.70075
x	-8.70097
▁syy	-8.70268
▁Asia	-8.7033
▁huono	-8.70384
▁hänet	-8.7049
▁turvallisuus	-8.70599
▁Salon	-8.70691
▁Ta	-8.70863
▁yhtä	-8.70866
ch	-8.70891
▁Yksi	-8.71243
▁B	-8.71299
▁mone	-8.71361
▁Re	-8.71529
▁puhu	-8.71747
▁tapahtui	-8.71931
misen	-8.71931
▁Etelä	-8.72003
▁paikka	-8.72013
▁tiedotteessa	-8.72135
▁käsi	-8.72332
▁kuva	-8.72415
kö	-8.72422
▁tehty	-8.72504
▁2022	-8.72976
▁3	-8.72988
▁vaali	-8.72991
▁ottelun	-8.73259
▁sijaan	-8.73319
ili	-8.73364
▁joukkueen	-8.73394
▁poika	-8.73504
▁viisi	-8.73571
▁joissa	-8.73719
▁Häne	-8.73811
▁ensimmäinen	-8.73851
▁Lue	-8.74157
▁pelaaja	-8.74328
vo	-8.74548
▁auton	-8.74982
ck	-8.75008
▁ihmistä	-8.7504
▁halua	-8.75326
8	-8.75449
▁saattaa	-8.75462
▁vai	-8.75503
▁mukaansa	-8.75507
▁Al	-8.75655
▁vuosina	-8.7567
▁Le	-8.75915
▁kilpailu	-8.75923
al	-8.75968
hi	-8.76007
▁ri	-8.76141
▁50	-8.76169
▁4	-8.7619
▁iin	-8.76236
▁matka	-8.76382
▁The	-8.76645
jo	-8.76649
▁ensimmäise	-8.76691
▁jälleen	-8.76749
▁uutta	-8.76859
▁pitä	-8.76962
▁ala	-8.77043
ng	-8.77223
▁Su	-8.77419
▁luo	-8.77429
▁hi	-8.77429
itä	-8.7748
▁nainen	-8.77502
▁kova	-8.77592
▁muut	-8.77766
▁tänään	-8.77807
ce	-8.78054
▁alue	-8.78275
▁vaikuttaa	-8.78334
▁äiti	-8.78493
▁huippu	-8.78756
▁sähkö	-8.78823
▁joutui	-8.78892
▁mä	-8.7894
▁tekee	-8.79013
▁vaikea	-8.79052
▁lopulta	-8.79211
▁päivän	-8.79241
ar	-8.79263
▁takaisin	-8.79533
▁kesä	-8.7955
▁pitkään	-8.79562
▁raja	-8.79633
▁pääsi	-8.79642
▁päivänä	-8.79709
▁keski	-8.79728
▁joiden	-8.7983
▁jotain	-8.79914
▁antaa	-8.80118
▁pitkä	-8.80284
oi	-8.8052
w	-8.80637
teen	-8.80648
▁video	-8.8073
▁12	-8.80772
▁Ke	-8.81042
▁meidä	-8.8109
▁käyttää	-8.81199
▁mistä	-8.81208
via	-8.81235
kku	-8.81285
▁tähän	-8.81363
▁minen	-8.81384
mmin	-8.81445
▁sää	-8.81468
hti	-8.81598
▁H	-8.81667
▁nopeasti	-8.81681
▁suur	-8.81762
ju	-8.81824
mu	-8.81852
▁kaan	-8.81989
▁uutisoi	-8.82212
7	-8.82512
▁voidaan	-8.83046
ilta	-8.83049
▁huolimatta	-8.83202
tettu	-8.83211
▁samalla	-8.83498
▁Ukraina	-8.83645
▁kirja	-8.83775
▁etu	-8.83878
▁kisa	-8.83879
een	-8.84114
▁voitto	-8.84145
▁Esimerki	-8.84185
▁kymmenen	-8.84243
▁pieni	-8.84267
▁hänelle	-8.84419
lloin	-8.84702
▁myötä	-8.84725
▁pi	-8.84727
▁al	-8.84837
▁toise	-8.84891
▁ihmisiä	-8.85005
▁vero	-8.85047
▁liian	-8.85194
▁yhtiö	-8.85244
▁ha	-8.85499
▁vesi	-8.85524
▁josta	-8.85543
▁p	-8.85606
▁liikenne	-8.85609
▁kuuluu	-8.85748
▁maali	-8.85792
▁Te	-8.85801
▁ottelussa	-8.85863
▁päivää	-8.85931
▁asiaa	-8.86055
▁loppu	-8.86088
▁yhteydessä	-8.86184
▁löytyy	-8.86393
he	-8.86417
9	-8.8648
▁2024	-8.86532
▁ehkä	-8.86547
lan	-8.86583
▁haluaa	-8.86647
▁Mies	-8.87126
▁tapahtuma	-8.87128
Sanomat	-8.8715
▁olen	-8.8735
▁presidentin	-8.87623
▁vaiheessa	-8.87671
▁kerrotaan	-8.87774
▁EM	-8.88068
kas	-8.88296
▁lasten	-8.88533
▁Mo	-8.88586
▁y	-8.88598
▁tule	-8.88742
▁sijaitseva	-8.888
▁oikeus	-8.88924
utta	-8.89145
▁viesti	-8.89373
mistä	-8.89461
▁llä	-8.89532
▁Pe	-8.89551
▁ottelu	-8.89569
isten	-8.89592
▁11	-8.89961
▁yhteens	-8.90132
▁piste	-8.90213
▁alla	-8.9028
▁jolla	-8.9036
▁valtio	-8.9054
ppa	-8.90591
ppi	-8.90636
▁lähti	-8.90772
uksen	-8.90843
▁liiga	-8.90856
▁missä	-8.90861
ji	-8.90865
kke	-8.91158
▁5	-8.91167
▁joista	-8.91195
▁tästä	-8.91235
▁sosiaalise	-8.91348
▁to	-8.9136
ettiin	-8.91388
▁ten	-8.91405
▁tähti	-8.91481
ks	-8.91519
sia	-8.91606
▁de	-8.91768
▁kohti	-8.91942
▁miljoona	-8.9223
▁D	-8.92333
M	-8.92471
▁muuta	-8.92517
mm	-8.9268
▁inen	-8.92785
▁SM	-8.92881
llaan	-8.93023
ps	-8.93069
▁pääministeri	-8.93132
▁vaati	-8.93317
▁tulisi	-8.93383
▁naisten	-8.93608
▁G	-8.93673
ton	-8.93706
▁juhli	-8.9378
▁kulttuuri	-8.93911
▁perus	-8.93928
▁ehti	-8.94055
▁valmentaja	-8.9419
P	-8.94235
▁New	-8.94347
▁ajo	-8.94435
▁L	-8.94554
'	-8.94716
ska	-8.94817
▁pohja	-8.94902
▁puolue	-8.95092
▁kannattaa	-8.95282
lli	-8.95406
▁Ku	-8.95468
▁poliisin	-8.95489
▁totesi	-8.95527
▁18	-8.95668
▁ssä	-8.95671
▁tieto	-8.95795
▁päätös	-8.95925
▁tuki	-8.95934
▁perheen	-8.96138
ing	-8.96167
▁ryhmä	-8.96226
▁kirjoitti	-8.96334
▁Va	-8.96393
▁Antti	-8.96606
▁tilanteessa	-8.96661
▁seuraa	-8.9668
▁kaupunki	-8.96776
▁ilmoitti	-8.97151
/	-8.97268
▁muita	-8.97339
▁kaiki	-8.97402
▁miksi	-8.97432
▁asioita	-8.97486
▁omaa	-8.97497
uksia	-8.9768
▁jättä	-8.9769
▁asu	-8.97763
▁Na	-8.97903
▁Putin	-8.9809
neensa	-8.98133
misesta	-8.98176
▁ise	-8.98232
▁So	-8.98344
▁7	-8.98367
ste	-8.98382
▁haastattelussa	-8.9841
tään	-8.9846
▁40	-8.98468
▁päälle	-8.98499
▁kilometri	-8.98576
▁Tu	-8.98664
▁pu	-8.98907
▁Norja	-8.98923
▁laji	-8.99015
▁ke	-8.99131
▁ulko	-8.99299
mmi	-8.99301
▁ka	-8.99542
▁Ro	-8.99545
▁seuraava	-8.99547
▁julkaisi	-8.99622
▁vaimo	-8.99769
▁un	-8.99802
▁kausi	-9.00005
▁vapaa	-9.0013
▁epä	-9.00221
▁kseen	-9.00285
es	-9.00379
tetaan	-9.00473
O	-9.00593
▁Po	-9.00692
▁Ki	-9.0075
▁toiminta	-9.0077
▁Da	-9.00782
nne	-9.00851
▁puoliso	-9.00893
▁esi	-9.01104
▁nimi	-9.01104
▁tiedä	-9.01424
▁kansanedustaja	-9.01424
▁istä	-9.01545
▁joku	-9.01731
▁valtion	-9.01762
▁verran	-9.01852
▁14	-9.01911
▁joulu	-9.02032
▁osalta	-9.02095
▁ti	-9.02215
▁muiden	-9.02335
L	-9.02391
▁kai	-9.02427
▁paikalla	-9.02572
▁mediassa	-9.02671
ru	-9.02684
▁misen	-9.02902
▁tietojen	-9.02926
▁oikein	-9.03068
▁sota	-9.03093
lleen	-9.03139
▁Instagram	-9.03288
▁alueen	-9.03308
▁silti	-9.03399
ba	-9.03456
ee	-9.03569
.)	-9.03608
▁tien	-9.03617
▁6	-9.03837
▁li	-9.03837
▁isen	-9.03905
vuotiaan	-9.03913
kok	-9.03916
berg	-9.03976
▁muistuttaa	-9.03983
▁lapsi	-9.04058
▁J	-9.04114
▁takana	-9.04272
Suomen	-9.04336
▁varmasti	-9.04348
▁edessä	-9.04522
pä	-9.04541
▁Bo	-9.04626
▁miseen	-9.04686
▁toimii	-9.04708
▁100	-9.04757
lin	-9.04801
▁ongelma	-9.04809
▁r	-9.04821
▁suurin	-9.04889
fi	-9.04995
▁Tällä	-9.05126
▁antoi	-9.05135
▁Tässä	-9.05222
▁muu	-9.05354
▁tarvitse	-9.05384
▁liikku	-9.05385
▁väli	-9.05397
▁olympia	-9.05441
▁erityisest	-9.05462
▁sodan	-9.05511
R	-9.05582
▁käyttö	-9.05585
▁tuolloin	-9.05833
▁paikalle	-9.05905
▁rikos	-9.0611
iltana	-9.06228
▁lapsen	-9.06344
▁tietoa	-9.0651
yn	-9.0653
▁Auto	-9.06579
ssi	-9.06585
▁jätti	-9.06614
▁minkä	-9.06628
▁oikea	-9.06628
▁De	-9.06643
▁ajoi	-9.06664
▁po	-9.06693
▁16	-9.06745
▁pelasi	-9.06745
▁esiin	-9.06763
▁jakso	-9.06796
ella	-9.06972
C	-9.07046
▁Tämän	-9.07069
▁erikois	-9.07081
▁kulu	-9.07127
▁kuvan	-9.07141
▁f	-9.072
kan	-9.0724
▁tarkoitus	-9.07484
▁Orpo	-9.0754
▁tutki	-9.07651
▁osaa	-9.07816
ry	-9.07852
▁Osa	-9.07907
▁taso	-9.07926
▁täällä	-9.08055
▁Ha	-9.08193
▁ilma	-9.08212
▁Ka	-9.08256
▁kesken	-9.08599
▁hinta	-9.08625
▁13	-9.08638
▁paino	-9.08725
▁Donald	-9.0874
eltä	-9.09148
▁malli	-9.09311
▁Vuon	-9.09377
▁Sitte	-9.09631
▁kuollut	-9.09664
▁paikan	-9.09664
▁Pekka	-9.09787
▁iden	-9.10019
▁kohtaa	-9.10022
ttää	-9.10029
rk	-9.10311
▁keskustelu	-9.10507
▁ero	-9.10533
▁tie	-9.10592
▁sarja	-9.10673
▁nyky	-9.10673
▁Turun	-9.10737
▁ohi	-9.10798
▁Ma	-9.10959
▁pian	-9.10966
▁toimittaja	-9.10996
▁todennäköise	-9.11019
▁riski	-9.11046
▁pe	-9.11116
▁tv	-9.11194
ul	-9.11209
▁naisen	-9.11211
talo	-9.11357
uk	-9.11411
▁johon	-9.11439
▁Biden	-9.11538
▁mo	-9.11663
▁Kyllä	-9.11718
▁kuusi	-9.11774
llisesti	-9.11791
▁onko	-9.11916
▁hake	-9.12016
▁maksu	-9.1205
▁jatko	-9.12114
johtaja	-9.12136
▁Ranska	-9.12225
▁yhteis	-9.12288
▁le	-9.12333
▁Ho	-9.12527
▁ro	-9.12546
▁ruoka	-9.12849
▁jalkapallo	-9.12963
go	-9.13109
▁hä	-9.13137
▁kertonut	-9.13148
▁vät	-9.13169
▁päätti	-9.13251
sh	-9.13303
▁asiantuntija	-9.13504
▁g	-9.13593
▁Ole	-9.13726
utu	-9.13828
kk	-9.13865
▁lähellä	-9.1389
mman	-9.14041
nti	-9.14106
mpaa	-9.14177
llis	-9.14203
▁ki	-9.14272
▁suoraan	-9.14298
je	-9.14395
▁Alexander	-9.14418
aho	-9.14447
▁kolmen	-9.145
▁Hi	-9.14689
▁paras	-9.14841
▁olo	-9.14842
▁mennessä	-9.14907
▁Lu	-9.14939
▁löytyi	-9.15063
▁re	-9.15064
▁syytä	-9.15079
▁valmis	-9.15344
▁seuran	-9.15357
▁tulo	-9.15451
▁tiedot	-9.15525
▁ratkaisu	-9.15571
I	-9.15655
▁näyttelijä	-9.15695
▁saman	-9.15798
▁Iltalehde	-9.15827
▁alusta	-9.16082
▁elämän	-9.16143
▁mista	-9.16258
▁Iltalehdelle	-9.16345
▁toi	-9.16447
▁Mikko	-9.16527
H	-9.16603
um	-9.16614
▁ry	-9.16659
▁taka	-9.16667
▁syö	-9.16888
ise	-9.16974
▁lähtee	-9.17046
tys	-9.17066
▁kaiken	-9.17091
▁linja	-9.17096
▁hyvi	-9.17154
▁Siinä	-9.17267
▁pidä	-9.17385
▁toista	-9.17401
▁käytännö	-9.17509
▁yritys	-9.17518
▁asian	-9.17624
▁tiety	-9.17665
▁17	-9.17725
ikka	-9.17871
▁Pi	-9.17895
▁sanoa	-9.17929
ura	-9.18127
▁seitsemän	-9.18149
▁entinen	-9.18158
▁Lo	-9.18195
▁puolella	-9.18218
▁prosenti	-9.18301
▁sy	-9.18351
▁ravintola	-9.18357
▁ulos	-9.18403
▁toimitusjohtaja	-9.18406
▁meillä	-9.18461
▁tekemään	-9.18464
▁tila	-9.18484
▁nuori	-9.18522
jien	-9.18586
vu	-9.18621
▁juttu	-9.1869
▁näkyy	-9.18697
▁ystävä	-9.18736
▁Pää	-9.18749
▁ympäristö	-9.18782
▁voima	-9.19012
▁tietää	-9.19084
▁24	-9.19104
▁kuukauden	-9.19108
▁päävalmentaja	-9.19183
▁metrin	-9.1941
sten	-9.19599
luvu	-9.19703
▁aloitti	-9.19819
▁Israel	-9.19873
▁uudelleen	-9.19899
▁joilla	-9.19905
▁Mitä	-9.19952
▁tärkeä	-9.19969
skus	-9.20207
oja	-9.2024
▁järjestö	-9.2028
▁terveys	-9.20401
▁olemme	-9.2052
▁selvästi	-9.20537
▁tasa	-9.20641
▁Bideni	-9.20648
▁tekijä	-9.20686
▁tunte	-9.20717
▁m	-9.2075
miseen	-9.20804
▁kutsu	-9.20826
▁rahaa	-9.20945
▁menee	-9.21085
▁2020	-9.21093
ilu	-9.21101
▁2021	-9.21141
▁kantaa	-9.21231
▁klo	-9.21308
bi	-9.21316
▁tilannetta	-9.21335
▁pelaa	-9.21387
▁mieltä	-9.21502
▁vä	-9.2155
▁kahdeksan	-9.21586
▁lääkäri	-9.21614
▁vei	-9.21687
▁talo	-9.21712
▁Moni	-9.21837
io	-9.2201
▁elle	-9.22029
▁lasku	-9.22164
▁ykkös	-9.22264
ettu	-9.2232
▁ensimmäistä	-9.22469
▁keskusta	-9.22495
▁tapauksessa	-9.22503
▁sarjan	-9.22625
▁kö	-9.2269
▁Lapin	-9.22705
▁reilu	-9.22768
▁kannalta	-9.2285
▁massa	-9.22851
▁kuvaa	-9.22921
▁tuttu	-9.22995
▁talous	-9.23051
ik	-9.23083
▁ainoa	-9.23232
▁vastaa	-9.23528
▁jatkuu	-9.23553
vien	-9.2357
▁vuodesta	-9.23814
▁tehdään	-9.23974
▁vaatii	-9.24021
▁juhla	-9.24069
▁kuuluva	-9.2408
▁tapa	-9.24124
▁kovin	-9.24135
▁lo	-9.24209
▁Yhdysvaltoj	-9.2426
▁melko	-9.24299
teli	-9.24352
▁hyvää	-9.24357
tte	-9.244
▁Putinin	-9.24509
▁kuvailee	-9.24539
▁uusia	-9.24635
▁käyttöön	-9.24654
▁palo	-9.24677
▁Iso	-9.2473
pp	-9.24762
▁ru	-9.24791
▁jäsen	-9.24889
▁palaa	-9.24895
▁Näi	-9.24907
ga	-9.25028
ver	-9.25038
▁lain	-9.25117
▁osallistu	-9.25178
▁lu	-9.25206
mer	-9.2527
▁erityise	-9.25282
ly	-9.25402
▁Minu	-9.2542
▁päällä	-9.25746
▁emme	-9.2577
▁kampanja	-9.2592
▁Pu	-9.25937
▁hetki	-9.26368
▁Uusi	-9.26479
▁tilanteen	-9.26551
ähtiin	-9.26608
▁ääni	-9.26653
▁misesta	-9.26787
▁nuort	-9.26832
▁tunne	-9.26832
▁vahva	-9.26888
▁osta	-9.26996
ell	-9.27122
auto	-9.27123
aika	-9.27197
tteli	-9.27239
▁töitä	-9.27269
▁tarkoittaa	-9.27272
▁Itä	-9.27352
bo	-9.27413
▁tunni	-9.27421
iset	-9.27519
D	-9.27555
▁Meill	-9.27557
▁lähde	-9.27639
▁sivu	-9.27677
▁työn	-9.27725
ministeri	-9.27771
co	-9.27791
▁etenki	-9.28015
▁kärsi	-9.28064
▁lähtien	-9.2811
▁laitta	-9.28327
▁venäläis	-9.28395
▁sisällä	-9.28403
▁lasta	-9.28514
▁loppuun	-9.28565
▁Yli	-9.28587
▁Ilma	-9.2859
men	-9.28636
▁Petteri	-9.28699
▁Niin	-9.28752
▁19	-9.28848
▁urheilija	-9.28916
▁Helsingissä	-9.28934
▁tärkeää	-9.28992
▁ottelua	-9.29036
▁suhteen	-9.2908
▁Kar	-9.29089
▁aikoina	-9.29095
▁suuntaan	-9.29293
▁liito	-9.29316
▁tulos	-9.29358
mässä	-9.29462
▁täytyy	-9.29499
▁l	-9.29544
▁miestä	-9.29636
▁STT	-9.29648
▁Mar	-9.2969
▁2019	-9.29785
▁paremmin	-9.29837
▁lento	-9.29895
▁muutos	-9.30078
▁niistä	-9.30148
kset	-9.30163
▁Keski	-9.30166
▁varten	-9.30168
▁pistettä	-9.30173
▁vuokra	-9.30307
▁alku	-9.30324
▁25	-9.30381
▁taistelu	-9.30389
E	-9.30501
▁järjestä	-9.30511
▁tanssi	-9.30618
▁loma	-9.3064
▁varsin	-9.30661
tetään	-9.30752
▁Ba	-9.30764
▁jäänyt	-9.30793
▁mennä	-9.30807
▁aikoo	-9.31068
▁pyytä	-9.3107
ter	-9.31178
▁tuntuu	-9.31241
▁saapui	-9.31362
ssyt	-9.31615
▁hoito	-9.31701
▁ympäri	-9.3197
hu	-9.32165
▁To	-9.3217
▁turva	-9.32195
▁voittanut	-9.32207
ot	-9.3221
▁finaali	-9.3222
▁käydä	-9.32236
▁sana	-9.32257
▁Jussi	-9.32267
▁kerta	-9.32279
▁yhteen	-9.32341
▁tee	-9.32371
ttävä	-9.32431
▁Pariisi	-9.32472
du	-9.32515
▁yleensä	-9.3252
▁Anna	-9.32557
▁500	-9.32583
▁9	-9.32584
▁tausta	-9.32592
▁200	-9.32612
▁kuljettaja	-9.32636
▁halusi	-9.32654
▁kar	-9.327
▁johto	-9.32819
▁eniten	-9.32821
▁Iltalehti	-9.3283
▁katso	-9.32912
▁päässä	-9.32963
ff	-9.32981
▁työtä	-9.32989
▁muista	-9.33164
▁nähty	-9.33249
il	-9.33394
▁tilanteesta	-9.33396
▁Ni	-9.33405
ski	-9.33414
▁viikko	-9.33416
▁metsä	-9.33416
▁Sama	-9.33449
▁avulla	-9.33461
V	-9.33472
▁toimintaa	-9.33487
▁tehtävä	-9.33502
▁kertovat	-9.33559
▁Toi	-9.33667
▁sellainen	-9.33739
▁halu	-9.338
▁julkaistu	-9.33838
▁Voi	-9.33926
▁osan	-9.3394
▁elokuva	-9.34061
▁Salo	-9.34148
▁suu	-9.34185
nes	-9.34197
▁suure	-9.34249
▁olleen	-9.3431
▁nämä	-9.34483
▁tapahtunut	-9.34668
▁jatkoi	-9.34701
▁35	-9.34729
▁meri	-9.34895
etaan	-9.34961
▁vastasi	-9.34973
▁Mikä	-9.34978
▁vakava	-9.3516
▁Sitä	-9.35203
▁minä	-9.35223
▁kolmanne	-9.35276
▁Kanada	-9.35329
tava	-9.35399
▁Ju	-9.35404
▁kauppa	-9.35444
▁kään	-9.3548
▁Ru	-9.35493
▁etsi	-9.35508
▁omistaja	-9.35631
▁työntekijä	-9.35647
▁sille	-9.35771
▁neet	-9.35783
▁minulle	-9.35855
▁tukea	-9.35916
30	-9.35959
▁aiheuttaa	-9.35974
▁Työ	-9.36026
▁liitto	-9.36077
▁toistaiseksi	-9.36113
▁toivo	-9.36166
▁sosiaali	-9.36257
▁lopussa	-9.36401
▁epäillään	-9.36415
ol	-9.36421
▁aiheutta	-9.36488
▁vanha	-9.36555
▁liittyvä	-9.36555
▁han	-9.3685
▁raha	-9.3686
▁8	-9.3695
nee	-9.37044
▁taloude	-9.3723
yt	-9.37242
▁päättyi	-9.37253
▁nähdään	-9.37264
▁päivi	-9.37396
niiden	-9.37438
▁keskus	-9.37468
▁suora	-9.37671
▁väri	-9.37673
▁pääsee	-9.37726
don	-9.37877
▁kanta	-9.38011
▁Oy	-9.38045
▁Niinistö	-9.38067
▁tappio	-9.38072
Korea	-9.38082
▁otta	-9.38107
th	-9.38125
▁koske	-9.38141
▁alueelle	-9.38221
▁tilaa	-9.38348
▁teho	-9.38367
▁ihmis	-9.38458
iin	-9.38484
▁60	-9.38524
▁vaihtoehto	-9.38557
▁sotilas	-9.38558
ämä	-9.38602
im	-9.38733
▁nähdä	-9.38873
▁iksi	-9.38994
▁Sami	-9.39017
▁kärki	-9.39025
▁välttämätt	-9.39085
▁tasolla	-9.39186
ari	-9.39226
▁minuuttia	-9.39263
▁mahdollisi	-9.39306
▁apua	-9.39443
▁saatu	-9.39445
▁nautti	-9.39489
▁hankki	-9.39497
▁yllä	-9.39513
▁uskoo	-9.39521
▁rooli	-9.39523
my	-9.39532
▁usea	-9.39555
▁saakka	-9.39641
▁koira	-9.39694
▁var	-9.39714
▁hyvinvointialue	-9.39769
▁Suomea	-9.3995
U	-9.4004
▁Haavisto	-9.40113
▁puolueen	-9.40132
▁ralli	-9.402
▁vastuu	-9.40203
be	-9.40237
▁Co	-9.40277
▁näytti	-9.40298
▁laki	-9.40324
▁yö	-9.40352
▁Tappara	-9.40406
▁kohtaan	-9.40476
pää	-9.40494
▁vähintään	-9.40564
▁Ukrainassa	-9.4062
▁mieli	-9.40666
▁Venäjällä	-9.40706
dy	-9.40754
▁Ala	-9.4077
▁kasvu	-9.40975
▁Timo	-9.4098
▁kulke	-9.40991
▁kaikkea	-9.41039
▁kunnossa	-9.41169
▁Purra	-9.41213
▁valtava	-9.41292
B	-9.41321
▁maassa	-9.41325
▁Yhdysvalloissa	-9.41357
▁sala	-9.41366
▁Harris	-9.41378
▁23	-9.4143
lehti	-9.4151
▁vähemmän	-9.41516
uus	-9.41576
▁hy	-9.41628
▁pelannut	-9.41679
▁Tänä	-9.41762
▁ensin	-9.41795
kisojen	-9.41833
▁kotiin	-9.41847
▁Lauri	-9.41886
ei	-9.41917
▁lähi	-9.42064
per	-9.42126
ily	-9.42154
▁viikonloppuna	-9.42189
▁kukaan	-9.42267
▁johtaa	-9.42318
eri	-9.42328
din	-9.42336
ud	-9.4234
▁Silloin	-9.42353
1-	-9.424
▁ji	-9.42499
▁monta	-9.42502
▁kohdalla	-9.42535
▁tarina	-9.42586
▁).	-9.42592
▁suoja	-9.42634
viä	-9.42661
▁valta	-9.42671
▁van	-9.42672
▁Pari	-9.42687
▁puu	-9.42793
▁hallinto	-9.42815
▁jatka	-9.42877
▁voiton	-9.4288
▁iä	-9.429
▁maalin	-9.42916
▁korkea	-9.42968
▁ihmist	-9.43079
▁yrittäjä	-9.43317
▁sopimus	-9.43337
rin	-9.43437
▁juoksu	-9.43451
▁Suomalais	-9.43478
▁toiminut	-9.43653
▁aamu	-9.43671
▁liittyy	-9.43712
▁samaan	-9.43717
▁järjestelmä	-9.43744
▁herättä	-9.43839
▁puhe	-9.43851
kaa	-9.43863
osa	-9.43952
▁ollaan	-9.44058
▁laitokse	-9.44077
▁maksa	-9.4415
▁iset	-9.44216
▁kesällä	-9.44229
▁odottaa	-9.44248
iä	-9.44264
▁kaikkia	-9.44336
▁saanee	-9.44378
▁eteenpäin	-9.44434
▁keväällä	-9.44451
tila	-9.44489
▁ltä	-9.44612
▁kokonaan	-9.44619
▁operaatio	-9.44698
ir	-9.44858
▁hieno	-9.44904
▁mahdollisuus	-9.44927
▁Ca	-9.4493
malla	-9.44968
▁Kaksi	-9.45039
▁epäilty	-9.45073
▁edustaja	-9.45153
▁pala	-9.4517
▁teko	-9.45208
▁arvio	-9.45286
▁Tuo	-9.45312
▁tekevä	-9.45319
▁pääse	-9.45394
▁lämpötila	-9.45428
▁seksi	-9.45532
hän	-9.45543
▁ura	-9.45554
▁tehtiin	-9.45589
yhtiö	-9.45601
▁Val	-9.45608
▁essa	-9.45611
▁Y	-9.45685
sk	-9.45736
▁tapahtuu	-9.45774
▁so	-9.45854
▁Juha	-9.45887
?	-9.4597
ek	-9.45997
▁Janne	-9.46203
▁uransa	-9.46345
▁mene	-9.46352
▁v	-9.46597
▁parin	-9.46883
▁käräjäoikeude	-9.46929
▁lähtö	-9.4693
▁yritti	-9.46947
▁hiihto	-9.46986
▁myynti	-9.47136
▁ikään	-9.47169
▁ex	-9.47169
▁käytössä	-9.47359
▁tutkimus	-9.47368
▁parempi	-9.47437
▁täyttä	-9.4754
▁Stubbin	-9.47632
▁rakennus	-9.47639
ile	-9.47702
▁tuomio	-9.47767
▁vuoteen	-9.4788
▁siltä	-9.47891
▁käynyt	-9.4793
▁asiat	-9.48019
▁siksi	-9.4808
▁asunto	-9.4817
▁kokonais	-9.48184
▁Be	-9.48262
▁isiin	-9.48278
▁Sie	-9.48291
▁tuntia	-9.48303
▁usei	-9.48326
▁voittaja	-9.48468
▁Kuu	-9.48551
▁vuoro	-9.48616
eli	-9.48685
▁takaa	-9.48724
arvo	-9.48943
▁saadaan	-9.48957
▁Viro	-9.48982
▁viiden	-9.48989
▁Ti	-9.49002
▁toimia	-9.49014
▁virhe	-9.4905
▁sinne	-9.49065
▁asiassa	-9.49084
N	-9.49097
&	-9.49142
ov	-9.49161
▁kansainvälise	-9.49168
▁yönä	-9.49303
▁Vladimir	-9.49315
▁Ennen	-9.49422
▁molemm	-9.49426
ltaan	-9.49455
▁Saksan	-9.49568
▁York	-9.49601
▁metriä	-9.49686
▁Ville	-9.49804
▁kuu	-9.49831
▁alkaen	-9.49835
▁elämä	-9.49911
▁Kyse	-9.50026
▁),	-9.50032
▁saisi	-9.50116
▁sairaala	-9.50159
▁isku	-9.50167
▁kesän	-9.50197
isin	-9.50292
ky	-9.50336
▁sisä	-9.50349
▁ella	-9.50426
▁riittää	-9.50463
▁saavat	-9.50497
▁Syy	-9.50539
ude	-9.50609
▁mestari	-9.50628
ttua	-9.50678
▁pystyy	-9.50759
▁taustalla	-9.50846
▁2016	-9.5088
▁Harry	-9.50889
▁puolen	-9.50913
▁hyväksy	-9.50948
▁hu	-9.51052
▁suomalainen	-9.51056
ministeriö	-9.51077
▁W	-9.51264
▁merkittävä	-9.5127
▁kaveri	-9.51374
▁viimeisen	-9.51394
▁talvi	-9.51431
▁laaja	-9.5167
vas	-9.51746
▁syntyi	-9.51785
neensä	-9.51821
▁tulevat	-9.51898
▁ihminen	-9.51938
▁yksityis	-9.51974
▁kunta	-9.51975
▁pikku	-9.51987
mies	-9.52205
▁nousu	-9.5226
ajo	-9.5228
▁pitkän	-9.52308
▁viikkoa	-9.52466
▁lähteä	-9.52552
▁kysyi	-9.52558
▁issä	-9.52568
▁virka	-9.52588
ää	-9.52637
▁kilometriä	-9.52658
isiä	-9.5287
▁neljän	-9.52961
▁Yhdysvallat	-9.53006
▁sopiva	-9.53135
▁tyyli	-9.53151
▁noussut	-9.53185
▁numero	-9.53228
▁keho	-9.53232
▁illä	-9.53246
viestipalvelu	-9.53262
▁haastattelu	-9.53281
sesti	-9.53308
ic	-9.53349
▁keskukse	-9.53396
▁Italia	-9.53544
▁San	-9.53712
▁koe	-9.53712
tetty	-9.53734
▁minun	-9.53755
▁lapset	-9.53856
ed	-9.53857
▁kerrottiin	-9.53955
ula	-9.54002
▁kiinteistö	-9.54006
▁sopimuksen	-9.5402
▁ongelmia	-9.54035
▁palkka	-9.54036
▁neen	-9.5405
▁MTV	-9.5409
▁entistä	-9.54096
▁Orpon	-9.54189
▁kysymys	-9.54346
▁hahmo	-9.54398
▁Video	-9.54449
▁YK	-9.54468
▁ihmisen	-9.54513
▁uutis	-9.5457
▁ennuste	-9.54645
▁tutkimukse	-9.54648
▁ammatti	-9.5465
▁lähettä	-9.54748
▁tuore	-9.54759
mäki	-9.54763
▁kuulu	-9.54806
▁esiinty	-9.54986
▁Olli	-9.55102
▁toiminnan	-9.55133
▁1.	-9.55187
▁tehnee	-9.55196
▁pelin	-9.55196
▁nee	-9.55239
ila	-9.55282
▁mitali	-9.55334
▁armeija	-9.55361
▁yksin	-9.55377
▁yleisö	-9.55419
▁pysy	-9.5544
▁Kysee	-9.55457
▁onnistui	-9.5546
▁aihe	-9.55464
▁ikä	-9.55608
essaan	-9.5561
▁päin	-9.5563
▁di	-9.55689
tunut	-9.55733
▁tunnettu	-9.55744
▁hyökkäys	-9.55771
▁laske	-9.559
▁Presidentti	-9.5592
kisoissa	-9.55961
▁Hä	-9.55979
▁2022.	-9.56066
▁perät	-9.56082
▁Maa	-9.56155
ola	-9.56224
+	-9.56387
▁ministeri	-9.56405
▁itsensä	-9.56431
▁etelä	-9.56494
▁Kan	-9.56528
▁luku	-9.56554
▁Kau	-9.56704
▁h	-9.56803
▁kiekko	-9.56833
▁vir	-9.56881
udu	-9.56913
son	-9.56969
▁vetä	-9.57032
▁some	-9.57052
▁asunno	-9.57154
▁itseään	-9.57181
▁Mika	-9.57286
▁keino	-9.57371
der	-9.57428
▁musta	-9.57431
▁Fi	-9.575
ttanut	-9.57565
▁päätöksen	-9.5758
▁energia	-9.57687
▁talon	-9.57688
liitto	-9.577
▁maksaa	-9.57822
ger	-9.57881
▁avaa	-9.57906
▁kone	-9.58017
▁Ensi	-9.58083
mat	-9.5813
▁Helsinki	-9.58161
▁palasi	-9.58183
▁Matti	-9.58184
▁Laine	-9.58198
▁huomiota	-9.58323
▁tulossa	-9.58435
▁aloittaa	-9.5852
▁Zelenskyi	-9.58528
▁Jukka	-9.58581
▁runsaasti	-9.58608
▁Oma	-9.58637
▁per	-9.58667
▁uhka	-9.58722
▁mennyt	-9.58743
▁vastaava	-9.58813
▁Britannia	-9.58826
▁2025	-9.58906
▁Leijoni	-9.58906
▁Par	-9.58913
▁Marin	-9.59001
▁kuvia	-9.59011
ttele	-9.59057
▁kansan	-9.59114
▁hyökkääjä	-9.59129
ström	-9.59148
▁ar	-9.59233
▁mahdollisest	-9.59274
▁Eli	-9.59342
ör	-9.59384
ala	-9.59562
▁iski	-9.59599
mus	-9.59635
▁rakennukse	-9.59669
▁varma	-9.59673
luvulla	-9.59797
▁Koko	-9.59803
liiga	-9.59808
▁näkee	-9.59861
▁päähän	-9.59918
▁torju	-9.59925
▁maahan	-9.59938
▁Di	-9.59939
▁muoto	-9.59956
▁ajaa	-9.59999
▁kesänä	-9.6004
▁Harrisi	-9.60135
▁itselleen	-9.60154
▁kierroksella	-9.60199
▁verrattuna	-9.60245
▁heitä	-9.6026
▁mahdollise	-9.60403
liiton	-9.60491
▁koskeva	-9.60493
▁uran	-9.60571
▁liike	-9.60787
▁yhdeksän	-9.60854
▁lai	-9.60921
▁Joe	-9.61014
▁sija	-9.6103
▁kohu	-9.61177
▁Catherine	-9.61212
▁Ga	-9.61239
▁yrityksen	-9.61268
▁eduskunna	-9.6127
▁kierrokse	-9.61409
▁miest	-9.6145
▁liittyvi	-9.61451
▁kii	-9.61453
▁Siitä	-9.61453
▁mihin	-9.61454
▁ilmi	-9.61499
▁Sveitsi	-9.61535
▁suhtautu	-9.6159
▁prosessi	-9.61662
▁maalia	-9.61677
▁huolta	-9.61727
▁Kiina	-9.61739
llään	-9.61799
▁keskellä	-9.6183
▁kaikille	-9.61833
▁maajoukkue	-9.61861
ikko	-9.61876
kunta	-9.61948
▁osallistui	-9.62217
ppo	-9.62267
▁Samall	-9.62305
▁silmä	-9.62311
▁alas	-9.62384
▁harjoitus	-9.62385
sarjan	-9.62465
▁Mone	-9.6248
▁yleis	-9.62526
▁jääkiekko	-9.62576
▁katsoi	-9.62579
▁astee	-9.62615
▁laulaja	-9.62664
ojen	-9.62742
▁tahansa	-9.6278
▁uutistoimisto	-9.62785
▁tta	-9.6283
▁Instagramissa	-9.62895
▁joutuu	-9.62909
matta	-9.6294
▁juna	-9.62946
▁no	-9.62973
▁minua	-9.62979
▁isesti	-9.63081
▁meno	-9.63109
▁iho	-9.63133
▁tuotanto	-9.63168
▁elämää	-9.63195
▁sauna	-9.63203
▁Syyttäjä	-9.63238
▁onnistu	-9.63303
▁eteen	-9.63516
▁huomauttaa	-9.63573
▁tapaa	-9.63722
▁Halla	-9.63748
tähti	-9.63794
▁normaali	-9.63817
▁tietoja	-9.63823
▁Varsinais	-9.63897
▁kse	-9.63934
▁erilaisia	-9.63957
▁suurimma	-9.6408
▁tiedon	-9.64099
▁saare	-9.64113
▁meille	-9.64164
▁ennätys	-9.64221
▁Itse	-9.64227
▁käyttä	-9.6427
ley	-9.64345
▁kansalais	-9.64367
▁sellaista	-9.64398
▁suosikki	-9.64402
telu	-9.64444
▁verkko	-9.64503
▁Kari	-9.64553
▁naapuri	-9.64662
▁maku	-9.64703
▁vuodessa	-9.64736
▁Hy	-9.64768
▁liikaa	-9.64919
▁Irani	-9.64937
▁paikkaa	-9.64948
▁llise	-9.65041
▁minull	-9.65129
set	-9.65227
▁Andersson	-9.65238
kun	-9.65253
▁Rovanperä	-9.65379
teet	-9.65407
▁lainen	-9.65626
▁missään	-9.65641
▁Tar	-9.65652
var	-9.65666
▁helposti	-9.65676
▁öljy	-9.65841
▁sisältä	-9.6598
▁tuho	-9.66
voi	-9.66275
iltä	-9.66284
ker	-9.66349
▁yhteisö	-9.66356
▁Vuoden	-9.66439
é	-9.66486
teiden	-9.66507
id	-9.66565
▁kerro	-9.66596
▁pohtii	-9.66649
▁syntynyt	-9.66686
▁Sanna	-9.66751
▁tuleva	-9.66881
▁saatta	-9.66896
▁helmikuussa	-9.66905
▁erityis	-9.66962
▁prinsessa	-9.67013
▁koulun	-9.67061
▁toisin	-9.67139
▁joukko	-9.67144
▁toiseksi	-9.67171
▁auttaa	-9.67236
▁Saksa	-9.67257
ava	-9.67274
▁nousee	-9.6729
▁katu	-9.67317
▁Nii	-9.67359
▁toimiva	-9.67364
▁vähä	-9.67377
▁In	-9.67379
toista	-9.6738
▁liha	-9.67381
am	-9.67396
▁mis	-9.67422
▁tuntui	-9.67438
▁Seura	-9.67466
▁kuningas	-9.67484
▁talli	-9.67544
▁viettä	-9.6765
▁pyrki	-9.67671
▁vahvistaa	-9.67692
▁väline	-9.67773
▁asuva	-9.67773
ien	-9.67778
▁henki	-9.67829
▁pallo	-9.67856
▁perinteise	-9.67864
laisten	-9.67899
isto	-9.67917
▁lauantai	-9.68031
▁pyöri	-9.68034
▁päällikkö	-9.68054
▁Toivo	-9.68088
▁varmaan	-9.68108
ci	-9.68158
▁sijaitse	-9.68163
▁kuka	-9.68168
▁perussuomalais	-9.68177
▁kriisi	-9.68259
▁oppi	-9.68283
▁is	-9.68296
▁Gaza	-9.68332
▁syksyllä	-9.68339
tel	-9.68362
▁seurauksena	-9.68467
▁ohjelma	-9.68474
▁uhri	-9.68509
▁Tai	-9.68518
▁300	-9.68568
▁El	-9.68641
▁veden	-9.68737
▁säily	-9.68813
▁prinssi	-9.68885
▁Kesä	-9.68964
▁miehet	-9.68968
▁uhkaa	-9.68989
▁Maria	-9.6903
▁häiriö	-9.69041
▁äänestys	-9.69095
▁vettä	-9.69121
▁suomalaiset	-9.69146
▁Oulussa	-9.69191
hdi	-9.69464
▁nais	-9.69473
F	-9.6955
▁malla	-9.69573
▁nykyise	-9.69606
▁valmistu	-9.69656
▁Teemu	-9.69733
▁juo	-9.69784
▁vastustaja	-9.69838
▁nime	-9.69871
▁ketju	-9.69903
▁soi	-9.69921
neiden	-9.70102
▁rikko	-9.70122
▁seuraavan	-9.70142
▁Aiemmi	-9.70154
▁Jä	-9.70226
▁tarjo	-9.70294
ttaja	-9.70297
▁We	-9.70324
kse	-9.70344
ster	-9.70368
▁lehti	-9.7038
▁suhtee	-9.7045
▁lapsia	-9.70476
▁auki	-9.70518
▁Kaarina	-9.7059
▁Jari	-9.70634
▁Hu	-9.70727
▁Kat	-9.70755
ad	-9.70759
▁helppo	-9.70783
▁Wa	-9.70848
▁Ve	-9.70869
▁ymmärtää	-9.70913
▁versio	-9.71009
▁BBC	-9.71009
järjestö	-9.71048
▁21	-9.7105
▁piha	-9.71059
▁kisan	-9.71092
▁jatkossa	-9.71092
▁hetken	-9.71221
▁Tampereen	-9.71224
▁toteutta	-9.71231
▁poikkeuksellise	-9.71324
▁tuote	-9.71337
▁vuosia	-9.71341
▁sisään	-9.71419
▁ajoneuvo	-9.71459
▁ita	-9.71471
▁Du	-9.71478
▁Hel	-9.715
▁haaste	-9.71508
▁nosti	-9.71648
▁Ruotsissa	-9.71664
▁minuuti	-9.71667
▁matkalla	-9.71748
▁AFP	-9.71867
▁Onko	-9.71897
tele	-9.71898
▁aloitta	-9.71913
▁paikallis	-9.71949
▁parhaan	-9.71953
▁historian	-9.7199
▁Katso	-9.72022
▁mielessä	-9.72022
▁kotona	-9.72054
▁lii	-9.72055
▁Länsi	-9.72083
uri	-9.72085
▁perin	-9.72179
llista	-9.72257
▁my	-9.72259
▁istu	-9.72267
▁sarjassa	-9.72287
▁alun	-9.72291
▁lopulla	-9.72303
▁80	-9.72327
▁suosi	-9.72557
▁Kiinan	-9.72564
▁löytä	-9.72624
▁sopi	-9.72645
▁joulukuussa	-9.72698
▁kasvoi	-9.72703
▁jonkin	-9.7272
▁nähnyt	-9.72736
misestä	-9.72824
▁Koti	-9.72854
▁tiedossa	-9.72865
▁pakko	-9.72891
▁näy	-9.72999
▁kilpailun	-9.73133
▁astetta	-9.73206
vänsä	-9.73246
▁koo	-9.73278
▁90	-9.73336
aja	-9.73345
▁kovaa	-9.73363
▁poliittise	-9.73393
▁presidentinvaal	-9.73475
▁päätyi	-9.73485
▁ho	-9.73541
gh	-9.7357
▁saapu	-9.73606
▁aikaisemmin	-9.73619
▁mu	-9.73633
▁Palo	-9.73677
▁kumppani	-9.73821
kari	-9.73964
▁tutkija	-9.73971
▁22	-9.74026
▁Har	-9.74034
▁Tuolloin	-9.74072
▁Ottelu	-9.74083
▁musiikki	-9.74096
▁pohjois	-9.74183
▁poista	-9.74254
ssään	-9.74343
rr	-9.7435
▁vahvasti	-9.7435
▁Do	-9.74385
▁syystä	-9.7444
▁viestintä	-9.74458
▁SDP	-9.74496
▁tammikuussa	-9.74607
▁asioista	-9.74616
hde	-9.74623
▁kevään	-9.74636
▁Hei	-9.74646
▁asema	-9.74652
▁alta	-9.74681
▁selkeä	-9.74756
▁nykyään	-9.74761
eja	-9.74766
▁perjantai	-9.7478
▁oikeuden	-9.74789
▁viranomaiset	-9.74804
▁esitys	-9.74825
▁ainoasta	-9.74879
▁olevi	-9.74902
▁Meri	-9.74942
▁yliopiston	-9.74954
▁Mäki	-9.74968
▁400	-9.75022
▁laise	-9.75022
▁viimeise	-9.75035
▁sata	-9.75038
▁Saa	-9.75054
▁siirtyi	-9.75081
▁kehitys	-9.75293
▁sellaise	-9.75355
▁teksti	-9.7537
▁yllätys	-9.75405
▁estä	-9.75557
▁Reuters	-9.75582
▁Siksi	-9.75584
▁voittaa	-9.75729
▁toiseen	-9.75803
yty	-9.7582
▁isia	-9.75825
▁omia	-9.7583
▁Mal	-9.75856
▁maiden	-9.75899
G	-9.75923
▁nopea	-9.75992
▁yrittää	-9.75994
▁neuvo	-9.76058
▁aikataulu	-9.76062
▁via	-9.761
▁muistelee	-9.76111
▁jutu	-9.76136
▁Hyvä	-9.76149
▁iseen	-9.76152
▁omat	-9.7621
▁valo	-9.76248
tuu	-9.76264
▁onkin	-9.76306
▁34	-9.76335
▁Kor	-9.76353
▁merkki	-9.76356
▁lä	-9.76362
▁valitti	-9.76473
▁käräjäoikeus	-9.76514
▁antanut	-9.76531
▁uuteen	-9.76544
ttelu	-9.76618
▁Var	-9.76641
▁pika	-9.76733
▁kiire	-9.76765
▁aine	-9.76811
▁maata	-9.76826
▁Ste	-9.76869
▁rauhan	-9.76912
▁itä	-9.77001
▁pienen	-9.77008
▁luu	-9.77017
▁mikään	-9.77024
▁määrää	-9.77036
▁ali	-9.7712
▁joutunut	-9.77143
za	-9.77164
▁lähe	-9.77194
š	-9.77195
▁joukossa	-9.77198
hy	-9.77214
gi	-9.77216
▁suostu	-9.77222
▁45	-9.77238
▁kasvatta	-9.77243
▁samaa	-9.77254
▁tyttäre	-9.77297
▁kuukautta	-9.77424
▁36	-9.77475
▁videolla	-9.77557
▁man	-9.77572
ario	-9.77585
▁syyskuussa	-9.77628
▁myy	-9.77649
▁vaihe	-9.77683
▁paluu	-9.77801
▁piene	-9.77847
▁liikunta	-9.77899
llo	-9.779
etty	-9.78
▁vähentä	-9.78099
▁CNN	-9.78112
▁huomattavasti	-9.78188
▁valinta	-9.78294
▁lumi	-9.78298
▁kasva	-9.78306
▁Unkari	-9.78343
▁kehittä	-9.78372
▁keskustelua	-9.78376
om	-9.78382
▁27	-9.78403
▁otettu	-9.78415
▁mukaisesti	-9.78426
val	-9.78436
▁vanh	-9.78448
ensä	-9.7846
▁kylmä	-9.78462
▁raju	-9.78466
▁tuomari	-9.78497
▁elä	-9.78558
▁Tilanne	-9.78578
▁hurja	-9.7865
▁esille	-9.78847
▁Mä	-9.78855
▁Toise	-9.78882
▁moottori	-9.789
▁oikeasti	-9.78953
▁llisi	-9.78956
▁kirjoitta	-9.78963
▁matkan	-9.78974
ukset	-9.79007
▁Suomesta	-9.79075
▁her	-9.79085
▁muutta	-9.79087
▁kysely	-9.79093
▁tarjoa	-9.79155
▁yrittä	-9.79283
▁aiheutti	-9.79296
▁Varha	-9.79305
▁osin	-9.7936
▁tarvitaan	-9.79364
▁muisto	-9.79369
▁sin	-9.7941
jat	-9.79414
▁tuotta	-9.79453
▁eräs	-9.79489
▁yhtiön	-9.79509
tulo	-9.79546
▁kunnia	-9.79587
▁kahde	-9.79633
▁kunto	-9.79645
▁pyörä	-9.79665
▁Per	-9.79667
▁sanottu	-9.7968
▁korona	-9.79739
▁32	-9.7974
▁nimittä	-9.79742
▁hei	-9.79822
▁kuski	-9.79893
ilija	-9.799
▁Mari	-9.799
▁reissu	-9.79933
▁miljardi	-9.79953
▁televisio	-9.79954
▁marraskuussa	-9.79967
▁keskitty	-9.79978
wa	-9.79988
toki	-9.80016
▁lenno	-9.80072
▁avaus	-9.80115
▁kokoomukse	-9.80205
▁iseksi	-9.80221
▁Venäjälle	-9.80267
▁ju	-9.80274
▁Kai	-9.80289
▁kohtalo	-9.80306
▁tällai	-9.80325
pari	-9.80372
▁Heikki	-9.80446
met	-9.80469
ist	-9.80484
▁tullee	-9.80515
▁huole	-9.80656
tie	-9.80667
▁luonnon	-9.80675
▁kritisoi	-9.80676
ner	-9.80692
▁suomalaisen	-9.80712
▁tiimi	-9.80824
▁näitä	-9.80841
▁(2	-9.80894
▁Toyota	-9.80912
▁tehdy	-9.80913
▁tuuli	-9.81036
estä	-9.81201
▁tulevi	-9.81207
▁ohjelmassa	-9.81248
▁Kur	-9.81257
▁asiakas	-9.81287
▁ttä	-9.81312
▁Urheilu	-9.81387
▁republikaani	-9.81387
▁ryhmi	-9.81388
▁Vielä	-9.81395
▁kesäkuussa	-9.81424
▁ulkoministeri	-9.81468
▁puolet	-9.81502
".	-9.8153
▁sairaalaan	-9.81546
▁halli	-9.81562
▁tapaus	-9.81583
▁löytää	-9.81596
▁muuten	-9.81603
▁par	-9.81608
▁henkilöstö	-9.81642
▁kahvi	-9.81646
teltiin	-9.81656
▁julkise	-9.81759
tui	-9.81783
▁Nyky	-9.81809
▁Ukrainaan	-9.81815
eksi	-9.81819
▁b	-9.81851
▁Kalle	-9.81874
▁kasvaa	-9.81923
▁Pro	-9.81944
J	-9.8202
%	-9.82029
▁toukokuussa	-9.82057
▁pitävä	-9.82065
▁paljastaa	-9.82081
▁uksen	-9.82095
▁kuvaili	-9.82098
▁tekemä	-9.82106
▁kisassa	-9.82106
▁kiva	-9.82111
▁Kolme	-9.82154
▁70	-9.82231
▁kansa	-9.82239
▁myöntää	-9.82296
▁2018	-9.82302
▁Rovanieme	-9.82339
▁suuren	-9.82362
▁päättää	-9.82363
▁ilmasto	-9.82372
▁11.	-9.82525
▁rata	-9.82564
▁Aika	-9.82616
kuva	-9.82684
▁toteutu	-9.82789
isku	-9.82859
▁tunnetu	-9.82877
▁yhtään	-9.82957
▁pal	-9.82994
kar	-9.83047
▁Lähi	-9.83066
▁halunn	-9.83068
▁muutoksia	-9.83091
▁olemassa	-9.83141
▁kertoivat	-9.83169
▁näi	-9.8321
▁Hallitus	-9.83258
▁paitsi	-9.83308
▁syvä	-9.83316
mmat	-9.83343
▁of	-9.83344
▁selvä	-9.83462
▁väkivalta	-9.83505
▁selvää	-9.83516
▁haluaisi	-9.83531
▁kuoleman	-9.83548
▁kapteeni	-9.83551
▁videon	-9.83691
eseen	-9.83697
▁har	-9.83735
▁lokakuussa	-9.83736
▁Marko	-9.8374
▁Z	-9.83746
▁nsä	-9.8387
uutta	-9.83894
▁summa	-9.83973
▁peliä	-9.83981
▁kokee	-9.84046
▁tiellä	-9.84083
▁ilmiö	-9.84107
tää	-9.84109
▁käynnissä	-9.84121
▁murha	-9.84154
▁esittää	-9.84196
▁2014	-9.84282
▁Mäkelä	-9.84282
▁tilanteeseen	-9.84284
▁kolmas	-9.84321
tuksen	-9.84367
▁puolelle	-9.84394
▁käsittely	-9.84412
▁tunnelma	-9.84535
▁Halua	-9.84593
▁keikka	-9.84627
▁kohda	-9.84654
▁veto	-9.84717
▁Miten	-9.84748
▁vierailu	-9.8477
▁lupa	-9.84771
▁Sdp	-9.84773
▁it	-9.84816
palvelu	-9.84856
▁Nainen	-9.84864
▁Ukrainalle	-9.84926
▁siirty	-9.85014
▁ajatus	-9.85017
▁perustu	-9.85127
▁Her	-9.8513
▁mun	-9.85137
▁Hanna	-9.85141
ero	-9.85203
▁uudesta	-9.85215
imme	-9.85282
▁näki	-9.85287
▁lämpö	-9.85346
▁järjestetä	-9.85347
▁henkilöä	-9.85367
▁Vantaa	-9.85405
▁aikoj	-9.85427
▁Gu	-9.85491
▁väestö	-9.85493
▁Meidä	-9.85527
▁vaikutus	-9.85553
▁paikallise	-9.8566
▁siirto	-9.85689
▁aurinko	-9.85749
ber	-9.85812
▁tili	-9.85837
▁turha	-9.85964
päällikkö	-9.8597
▁mieleen	-9.85978
▁säästö	-9.85984
▁osuus	-9.86058
▁kunnan	-9.86068
▁12.	-9.86101
▁aluksi	-9.86146
▁ampuma	-9.86238
valta	-9.86247
▁tuomittiin	-9.8626
▁Euroopassa	-9.86322
▁ihme	-9.86386
kea	-9.86387
▁vaaleissa	-9.86405
▁entisen	-9.86428
▁edusta	-9.86446
▁tava	-9.86446
▁Kaleva	-9.8652
▁sano	-9.86613
elli	-9.8667
▁tavoin	-9.86757
▁Joona	-9.86773
▁kuukausi	-9.86786
▁opettaja	-9.8684
▁parhaa	-9.86855
ajan	-9.86858
▁maaliskuussa	-9.86901
▁kan	-9.86917
▁2.	-9.8695
▁lukuisi	-9.86967
▁tavoite	-9.87026
▁iste	-9.87027
▁kaupan	-9.87042
▁jaksossa	-9.87106
▁tarjolla	-9.87161
mällä	-9.87166
alue	-9.87211
▁este	-9.8724
▁merkittävästi	-9.87276
▁tällaise	-9.87277
▁kilpailussa	-9.87299
▁kaa	-9.87312
▁lähtenyt	-9.87331
▁tavoitteena	-9.87337
▁Väli	-9.87422
▁konee	-9.87474
utti	-9.87567
siä	-9.87607
▁kuului	-9.87644
▁törkeäst	-9.87673
▁kuvi	-9.87686
hä	-9.8772
▁elokuussa	-9.87722
▁arki	-9.87723
▁Fa	-9.87733
▁katsoa	-9.8779
▁kala	-9.87798
▁33	-9.87853
▁sydän	-9.87893
▁Jenni	-9.87922
▁löysi	-9.87924
▁sovi	-9.87938
▁puhui	-9.87962
▁testi	-9.88075
aste	-9.8811
▁lakko	-9.88162
▁28	-9.88256
▁johtava	-9.88279
▁lopetta	-9.88318
▁kohde	-9.88324
▁ohjelman	-9.88445
▁tulipalo	-9.88543
▁toma	-9.88563
▁nimenoma	-9.88571
lehden	-9.88704
▁mm	-9.88747
▁tapasi	-9.88789
▁tapaukse	-9.8879
▁alkanut	-9.88795
▁Olisi	-9.88832
pin	-9.88923
▁politiikan	-9.88975
▁julkaisu	-9.88984
▁menettä	-9.89042
▁projekti	-9.89083
▁Bu	-9.89128
▁eroa	-9.89165
▁pur	-9.89206
em	-9.89251
▁tyttö	-9.89259
▁korostaa	-9.89287
▁markkina	-9.89302
▁Daniel	-9.89306
▁laiva	-9.89365
▁selvittää	-9.89387
▁Ihan	-9.89431
▁matkusta	-9.8948
▁vaikeaa	-9.89487
kone	-9.89531
▁Mat	-9.89585
▁käytetty	-9.89676
▁Bi	-9.89725
▁ove	-9.89725
▁ydin	-9.89837
▁hirveä	-9.89872
▁seksuaali	-9.89904
▁ilo	-9.89948
▁Vain	-9.89955
▁ve	-9.89973
▁Pitkä	-9.90018
▁tunti	-9.90024
▁9.	-9.90056
▁HIFK	-9.90077
▁pidetään	-9.90089
▁muistaa	-9.90101
▁yksilö	-9.9011
▁liitty	-9.90166
▁osasto	-9.90229
▁ba	-9.9024
▁naiset	-9.90258
▁Wi	-9.90294
▁Suo	-9.90297
▁viha	-9.90316
▁ranta	-9.90336
▁pol	-9.90349
tietee	-9.90452
▁euro	-9.90453
▁mpi	-9.90469
▁sanonut	-9.90545
▁huume	-9.90553
▁Juttu	-9.90557
▁käytöstä	-9.90568
▁yhteyttä	-9.90597
▁Ehkä	-9.90598
▁siirtä	-9.90622
▁tuke	-9.90752
min	-9.90779
▁huo	-9.90795
▁kehitty	-9.90796
▁tiedotti	-9.90836
▁kamera	-9.9086
▁USA	-9.90869
▁vakavasti	-9.90919
▁legenda	-9.90994
vy	-9.91037
▁Charles	-9.9104
▁kohta	-9.91074
▁julkisuudessa	-9.91101
▁artisti	-9.9119
omi	-9.91211
▁sunnuntai	-9.91218
▁ota	-9.91272
▁muutti	-9.9132
▁Joensuu	-9.91383
▁[	-9.91384
▁lukio	-9.91438
▁pääsy	-9.915
▁pro	-9.91514
tar	-9.91542
▁tietä	-9.91612
▁toivoo	-9.91662
▁urallaan	-9.91669
▁koki	-9.91717
▁maailmaa	-9.91739
ok	-9.91763
▁tuoda	-9.91804
▁2024.	-9.9181
▁selvisi	-9.91812
▁suunnitelma	-9.91813
▁tilasto	-9.91843
▁puolustaja	-9.91886
▁13.	-9.91888
ah	-9.91897
▁katsoo	-9.91939
▁jutussa	-9.9196
▁tulevan	-9.92004
dan	-9.92007
▁myrsky	-9.92011
▁kakkos	-9.92048
▁hal	-9.92076
ard	-9.92086
▁tuoree	-9.9212
▁suurempi	-9.92231
▁c	-9.92313
▁joihin	-9.92337
▁paha	-9.92344
▁paine	-9.92361
▁kuvat	-9.9242
▁viranomaist	-9.92445
▁sinä	-9.92454
▁super	-9.92464
▁aamulla	-9.92467
▁26	-9.92482
▁saavutta	-9.9257
▁heikko	-9.92633
▁odotetaan	-9.92709
▁vauva	-9.92717
Suomessa	-9.92718
▁aivo	-9.92735
▁kuuden	-9.92739
▁Aho	-9.92764
▁lais	-9.92915
▁37	-9.93021
▁Ge	-9.93023
▁pelkästä	-9.93034
▁leiri	-9.93098
▁miseksi	-9.93155
▁City	-9.93158
▁Ali	-9.93202
▁osui	-9.9324
▁maalivahti	-9.93244
stö	-9.93315
▁pelaaji	-9.93408
▁professori	-9.93467
▁lasi	-9.93472
▁ulkopuolella	-9.93511
▁bussi	-9.93513
▁lainkaan	-9.93555
▁eksi	-9.93556
▁muuttaa	-9.93557
▁HS	-9.93561
ca	-9.9359
▁ilme	-9.93604
▁valmistautu	-9.93663
▁mitta	-9.93669
▁reagoi	-9.93753
▁pyysi	-9.93777
▁jäädä	-9.93785
▁teatteri	-9.93859
▁Kirja	-9.93904
▁Red	-9.93973
vara	-9.9404
▁organisaatio	-9.94047
▁perusta	-9.94077
▁uksesta	-9.94083
▁vieras	-9.94098
▁kauan	-9.94183
▁yle	-9.9425
▁musiiki	-9.94316
▁selvi	-9.94325
▁ruokaa	-9.9439
▁Paul	-9.94392
▁Vasta	-9.94447
utui	-9.94493
▁fani	-9.9451
▁kertoa	-9.94547
▁vaa	-9.94559
peli	-9.94562
▁heille	-9.94587
▁johti	-9.94634
▁raa	-9.94662
▁sulke	-9.94672
▁suomalaist	-9.94675
▁heistä	-9.94705
▁kilpa	-9.94719
▁heinäkuussa	-9.94743
▁Kir	-9.94789
tävä	-9.94836
▁alueilla	-9.94849
▁aiempaa	-9.94859
▁mestaruus	-9.94859
▁Toisaal	-9.94861
salo	-9.94861
▁voittoa	-9.94882
▁Koska	-9.94921
▁kas	-9.94937
▁rei	-9.9495
▁epäilee	-9.94956
▁omi	-9.94988
▁varsinkin	-9.95094
▁välisen	-9.95132
▁osuma	-9.95151
▁palkinto	-9.95156
▁ylä	-9.95174
▁Valtio	-9.95185
▁iltapäivällä	-9.95187
▁Cha	-9.95239
▁kol	-9.95243
▁yliopisto	-9.95254
määrä	-9.95255
▁soitti	-9.95256
▁huhtikuussa	-9.95264
▁tapahtumi	-9.95298
▁lahja	-9.95388
▁hävisi	-9.95405
▁38	-9.95459
neksi	-9.95565
ottelu	-9.95571
▁Hamasi	-9.95596
▁tunneta	-9.95676
▁suosio	-9.95718
▁31	-9.95738
▁tutustu	-9.95788
▁kaupungissa	-9.95818
▁keksi	-9.95841
▁Emme	-9.95857
▁asuu	-9.95887
▁ly	-9.95938
▁voittoon	-9.95941
▁hiljattain	-9.95955
▁viittaa	-9.9599
▁löytynyt	-9.96007
▁rajan	-9.96014
▁täysi	-9.9605
▁Man	-9.96108
▁luonto	-9.96156
▁St	-9.96205
▁vanhemma	-9.9623
▁onnistunut	-9.96236
▁iske	-9.96287
▁kieli	-9.96325
▁seuraaja	-9.96341
▁Minull	-9.9635
▁pelissä	-9.96351
▁homma	-9.96358
▁surma	-9.96375
▁Salossa	-9.96465
keskus	-9.96517
▁juontaja	-9.96593
▁Espoo	-9.96618
▁esta	-9.96649
▁osi	-9.96661
▁Uuden	-9.96665
▁sellaisia	-9.96689
▁Sal	-9.96745
▁loukkaantui	-9.96782
▁nähden	-9.96784
▁kannata	-9.96787
osi	-9.96868
▁Kamal	-9.96916
▁kansallis	-9.9695
▁haasta	-9.96955
▁alkoholi	-9.96983
▁perä	-9.97013
las	-9.97023
▁päätöstä	-9.97025
▁kieltä	-9.97092
▁tutu	-9.97116
▁isän	-9.97122
▁liittyen	-9.97138
▁kestävä	-9.97145
▁ikävä	-9.97206
vuotiaana	-9.9729
▁myönsi	-9.97338
▁Tampereella	-9.97353
▁hää	-9.97362
▁kal	-9.97388
▁laski	-9.97401
▁poistu	-9.97553
▁dollaria	-9.97603
▁tähden	-9.9762
▁7.	-9.97703
aatio	-9.97778
▁Oikeus	-9.97789
vuotis	-9.97867
▁Sam	-9.97905
▁kuulla	-9.97917
▁Loimaa	-9.97926
▁Taka	-9.97927
▁du	-9.97936
ppu	-9.97953
▁muodostu	-9.98008
▁pelasta	-9.98009
▁jaksa	-9.98035
▁toimisto	-9.98083
▁tapaan	-9.98129
▁juoma	-9.98138
▁hau	-9.9817
▁vien	-9.98172
▁hyödy	-9.9818
teja	-9.98225
▁Niskanen	-9.98232
▁poliisille	-9.98275
▁il	-9.98293
▁paikkoja	-9.98321
▁Ver	-9.98368
▁lupaa	-9.98377
▁laina	-9.98448
▁pelaajat	-9.98495
▁Pel	-9.98508
▁tuskin	-9.98513
sarjassa	-9.98528
▁pelastus	-9.98569
▁laulu	-9.98713
vel	-9.98723
▁käyttäjä	-9.98801
▁Patri	-9.98817
▁peru	-9.98891
▁kokenut	-9.98932
▁kaasu	-9.98962
▁Joka	-9.98985
▁kor	-9.99004
isessa	-9.99012
▁tyytyväinen	-9.99052
▁Martin	-9.99052
▁peri	-9.99059
▁8.	-9.99116
▁savu	-9.99182
tien	-9.99241
▁etukäteen	-9.9931
▁saattoi	-9.9931
▁julkisuuteen	-9.99315
▁epäily	-9.99326
päivä	-9.99343
▁tiedottaa	-9.99343
▁naista	-9.99348
▁käytetään	-9.99368
▁Kal	-9.99397
.00	-9.99404
▁parhailla	-9.99458
▁millä	-9.99467
ottanut	-9.99531
▁tiistai	-9.99536
▁matkustaja	-9.99546
▁tytär	-9.99575
▁Pan	-9.99587
▁39	-9.99642
▁tapahtunee	-9.99647
▁peruste	-9.99666
▁vaikutti	-9.9968
▁paikalta	-9.99688
▁nut	-9.99704
▁suhde	-9.99772
▁runkosarja	-9.99854
▁toisell	-9.99871
▁yhteistyö	-9.99878
▁pommi	-9.99951
▁ukrainalais	-9.99965
▁varasto	-10.0002
▁kipu	-10.0005
▁Ensimmäi	-10.0006
sson	-10.001
▁Valko	-10.0012
▁Tanska	-10.0015
▁selviää	-10.0018
▁kä	-10.0023
▁viide	-10.0026
▁Ker	-10.0029
▁pide	-10.0035
▁tarvitsee	-10.0036
vis	-10.0039
▁kasvanut	-10.0042
▁Lind	-10.0043
▁kuvassa	-10.0045
▁pojan	-10.0051
▁puhua	-10.0053
▁Tuoma	-10.0055
pel	-10.0056
▁yhdysvaltalais	-10.006
▁tur	-10.0062
▁Lapissa	-10.0063
▁ehdokas	-10.008
▁Vanha	-10.0085
▁syyttä	-10.0085
▁Huo	-10.009
▁kulta	-10.0091
▁pitkin	-10.0091
▁hengen	-10.0095
▁pako	-10.0099
▁väitti	-10.0103
▁kokouksessa	-10.0106
▁lähin	-10.0108
▁vii	-10.011
▁jalka	-10.012
tellut	-10.0125
▁oppositio	-10.0129
▁huomasi	-10.0132
▁kanna	-10.0133
▁huolto	-10.0138
▁suoritta	-10.0139
▁Haa	-10.0144
▁joukkoon	-10.0144
▁14.	-10.0145
sse	-10.0145
▁kannatus	-10.0146
▁Tähä	-10.0148
▁kylä	-10.0149
ilee	-10.0152
▁vihreä	-10.0155
▁sekuntia	-10.0159
▁Barkov	-10.0162
▁pelata	-10.0164
▁Elin	-10.0167
miseksi	-10.017
▁alan	-10.017
▁Kivi	-10.017
▁suru	-10.017
kymmentä	-10.0174
▁Oulu	-10.0176
▁loi	-10.0184
gan	-10.0185
etään	-10.0186
▁TV	-10.0186
▁Trumpia	-10.0193
▁Seuraava	-10.0197
▁kadu	-10.0204
▁Anne	-10.0206
▁perään	-10.0207
▁Au	-10.0209
▁siviili	-10.022
▁Pääministeri	-10.0222
▁museo	-10.0227
▁siten	-10.0231
▁väliin	-10.0231
▁uhrin	-10.0231
▁haluavat	-10.0238
▁kestää	-10.024
▁uudet	-10.0242
tse	-10.0244
▁16.	-10.0246
▁Ed	-10.0248
▁raportoi	-10.0249
▁ryhmän	-10.0251
▁vuodelta	-10.0253
▁Liiga	-10.0253
▁Jani	-10.0253
▁vieraili	-10.0254
▁vaihto	-10.0257
▁väärä	-10.0264
▁ele	-10.0268
▁seinä	-10.0272
▁puisto	-10.0273
▁radio	-10.0278
▁ympärillä	-10.0283
▁katse	-10.0285
▁Erityise	-10.0292
▁Aki	-10.0295
malli	-10.0296
sd	-10.0296
▁kokemus	-10.0299
▁sti	-10.0301
▁hallinnon	-10.031
▁mään	-10.0311
▁44	-10.0314
▁suo	-10.0319
▁Or	-10.032
▁urheilijoi	-10.033
▁Mikael	-10.0341
▁us	-10.0343
▁kilo	-10.0353
by	-10.0357
▁vallan	-10.0359
▁sijoittui	-10.0362
oma	-10.0365
▁koke	-10.0368
▁dollari	-10.0369
eet	-10.0374
lund	-10.0375
▁tietenk	-10.0382
▁mi	-10.0382
▁vene	-10.0385
▁esitti	-10.0387
▁yleise	-10.0391
▁totta	-10.0396
▁edellä	-10.0397
ttö	-10.0403
▁kulku	-10.0406
▁kei	-10.041
▁llinen	-10.0411
tilaisuudessa	-10.0415
▁maaliin	-10.0416
▁15-	-10.0417
aali	-10.0421
▁Sara	-10.0424
kov	-10.0425
▁val	-10.0431
▁käytti	-10.0431
▁pisteen	-10.0432
▁tö	-10.0438
▁Eri	-10.0441
▁0	-10.0455
▁huolissaan	-10.0457
▁upea	-10.0458
▁w	-10.0459
▁välittömästi	-10.0459
▁merkittävi	-10.0464
▁sähköauto	-10.0466
▁parissa	-10.0469
mättä	-10.0475
▁puhuu	-10.048
▁länsi	-10.0486
▁parasta	-10.0486
▁d	-10.0487
käs	-10.0493
▁tutkinta	-10.05
▁aio	-10.0505
▁(1	-10.0506
▁17.	-10.0511
▁Jon	-10.0519
▁vahingo	-10.0523
▁lie	-10.0524
▁lähetti	-10.0525
▁sijoitus	-10.0528
▁laisi	-10.0531
▁omalla	-10.0532
▁materiaali	-10.0536
▁vaara	-10.054
▁vamma	-10.0541
▁ampu	-10.0546
▁liikkee	-10.055
▁jakoi	-10.0551
▁Pelastuslaito	-10.0551
loi	-10.056
▁ovi	-10.056
▁illalla	-10.056
▁pinna	-10.0561
tori	-10.0561
▁yksikö	-10.0566
▁ammattilais	-10.057
▁Vuosi	-10.057
▁nuoret	-10.0571
▁ky	-10.0575
▁15.	-10.058
alan	-10.0582
▁lippu	-10.0582
▁paljasti	-10.0583
▁oi	-10.0585
▁voimaan	-10.0589
▁purka	-10.0594
iksi	-10.0597
tz	-10.0598
▁Sy	-10.06
▁Min	-10.0602
isella	-10.0607
▁kodin	-10.061
▁nolla	-10.0611
▁tuotteita	-10.0611
ida	-10.0611
▁toisi	-10.0617
▁henkilön	-10.0622
▁150	-10.0623
▁erä	-10.0624
▁maanantai	-10.0626
▁sula	-10.0629
▁maasto	-10.063
aine	-10.0635
▁Espanjan	-10.0637
▁puhelin	-10.0641
del	-10.0643
▁ruotsalais	-10.0644
▁määri	-10.0648
tilillään	-10.0656
oitu	-10.0668
▁Australia	-10.0669
▁tuomitsi	-10.0669
▁Robert	-10.0669
vaaleissa	-10.0671
▁sanotaan	-10.0673
▁kuvattu	-10.0674
▁Koskela	-10.0677
▁kisoissa	-10.0677
▁55	-10.0678
▁levy	-10.0684
▁olympialais	-10.069
öin	-10.0691
▁suuria	-10.0691
▁elämässä	-10.0695
▁tauti	-10.0697
▁kivi	-10.0698
▁Air	-10.0699
▁Innes	-10.0701
▁töihin	-10.0703
▁Linnan	-10.0705
ttänyt	-10.0709
▁Silt	-10.0712
olo	-10.0713
▁maailmanmestari	-10.0714
▁jatku	-10.0714
▁kasvi	-10.0716
▁luvan	-10.0716
▁Ben	-10.072
▁tulevaisuudessa	-10.0721
▁elää	-10.0722
▁utu	-10.0722
▁ajat	-10.0725
▁joulukuuta	-10.0729
▁varaa	-10.0729
▁taakse	-10.0735
op	-10.0738
▁kau	-10.0738
▁parlamenti	-10.0739
▁rajoit	-10.0748
▁Koivu	-10.0751
▁neuvosto	-10.0753
▁Valto	-10.0753
▁hyökkäyksen	-10.0758
▁nykyisi	-10.0761
▁silla	-10.0766
▁epäillyn	-10.0768
tynyt	-10.0769
▁näyttä	-10.0776
▁käyttöä	-10.0781
▁hyväksi	-10.0788
▁maailmancupi	-10.0789
▁Kuka	-10.079
▁lista	-10.0791
▁suunnittelu	-10.0793
▁asiakkaa	-10.0793
▁Heidä	-10.0795
▁viestin	-10.08
▁katsoja	-10.0802
▁osoittaa	-10.0803
▁pystyi	-10.0809
yttä	-10.0818
▁6.	-10.082
▁ste	-10.0823
▁viikonlopu	-10.0823
▁luvassa	-10.0823
▁yhteistyötä	-10.0825
▁kohtee	-10.0831
▁Molemm	-10.0833
▁vihre	-10.0833
▁katto	-10.0843
▁Ulko	-10.0847
▁kel	-10.0852
▁viedä	-10.0856
▁laitos	-10.0858
▁erässä	-10.0861
▁ollessa	-10.0871
▁muisti	-10.0872
▁maailmassa	-10.0885
▁keskimäärin	-10.0886
▁pelaajia	-10.0886
▁irti	-10.0886
▁pelo	-10.0894
▁19.	-10.0896
neita	-10.0898
tion	-10.0905
▁huomioi	-10.0907
iihen	-10.0916
▁Yhtiö	-10.0917
▁yllättäen	-10.0917
▁Ari	-10.0917
▁muuttui	-10.0919
▁hybridi	-10.0921
▁piilo	-10.0924
▁2017	-10.0929
kunnan	-10.0929
▁tasavalla	-10.0932
▁Syyria	-10.094
▁keväänä	-10.0944
▁esimerkki	-10.0949
▁veri	-10.0951
▁Muut	-10.0951
▁viimeistä	-10.0954
kerta	-10.0956
▁väärin	-10.0956
▁sote	-10.0958
▁autoa	-10.0959
▁ilmoituksen	-10.0967
▁liikenteen	-10.0974
▁esitykse	-10.0975
▁Päivä	-10.098
▁teknologia	-10.0981
▁Media	-10.0983
▁lauantain	-10.0984
▁henkilöauto	-10.0984
▁muuttunut	-10.0991
▁synty	-10.0995
▁näistä	-10.0996
▁Sch	-10.1001
▁Kii	-10.1002
paikka	-10.1003
▁joukkuetta	-10.1005
llisia	-10.1005
▁Florida	-10.1007
fo	-10.1011
▁HJK	-10.1012
▁Tällai	-10.1013
▁Max	-10.1016
▁salli	-10.1017
▁pysyvä	-10.1018
▁suositu	-10.1019
▁paperi	-10.1023
▁Saksassa	-10.1027
▁osavaltio	-10.1035
▁Koulu	-10.104
▁vaikut	-10.1047
▁Lauantain	-10.105
▁edellisen	-10.105
▁kymmeniä	-10.1051
▁kyky	-10.1051
▁torstai	-10.1053
▁julkis	-10.1053
▁eurolla	-10.1053
ehdokas	-10.106
▁tiedustelu	-10.1063
▁tapahtumia	-10.1064
▁eläke	-10.1068
▁korvaa	-10.1069
▁tarkemmin	-10.1075
▁ikinä	-10.1077
▁tauo	-10.108
▁valmiste	-10.108
▁47	-10.1081
▁pohti	-10.1082
▁kokemukse	-10.1088
ttely	-10.1091
vuo	-10.1093
▁määrän	-10.1097
▁syksynä	-10.1099
sarja	-10.11
▁Harkimo	-10.1107
▁järjestely	-10.1107
▁harjoittelu	-10.1108
▁huomioon	-10.1114
▁Maan	-10.1115
▁hoita	-10.1119
▁een	-10.112
▁välierä	-10.1121
usten	-10.1121
▁yhtenä	-10.1125
▁terve	-10.113
▁ttava	-10.113
▁Rantanen	-10.1131
▁tulokset	-10.1134
mar	-10.1135
▁Usei	-10.1136
▁10.	-10.1136
▁lyö	-10.1138
▁ohell	-10.114
▁Nokia	-10.114
▁oire	-10.1145
▁suomalaise	-10.1148
▁Niko	-10.115
▁haki	-10.1157
▁alkavat	-10.1169
▁Han	-10.1171
▁milloin	-10.1173
▁aiheuttama	-10.1173
▁46	-10.1175
▁48	-10.1177
▁kuri	-10.1184
▁Tor	-10.1185
▁menesty	-10.1186
▁korva	-10.1188
▁tapausta	-10.119
▁elämään	-10.1201
▁esiintyi	-10.1201
▁2015	-10.1205
▁lohko	-10.1212
▁toimintaan	-10.1232
▁suomalaista	-10.1234
▁itsestään	-10.1236
▁muihin	-10.1242
▁vastaisen	-10.1245
▁tyyppi	-10.1248
▁Kallio	-10.125
▁65	-10.1253
▁neuvottelu	-10.1259
▁Päivi	-10.1262
▁asiaan	-10.1267
▁täynnä	-10.1268
▁kuningatar	-10.1269
▁km	-10.1273
▁nukku	-10.1276
▁Nu	-10.1281
▁Krista	-10.129
10	-10.1292
▁kuuma	-10.1301
illaan	-10.1302
▁Hallitukse	-10.1306
▁keräsi	-10.1309
▁valmistelu	-10.1316
▁autojen	-10.1317
▁seurasi	-10.1318
▁jatkuvasti	-10.1319
▁liki	-10.1321
▁asetta	-10.1322
▁21.	-10.1324
▁saati	-10.1325
▁epäilly	-10.1327
yl	-10.1327
vuotiai	-10.1329
▁Mark	-10.1332
teri	-10.1335
kul	-10.1336
▁75	-10.1339
▁uima	-10.1339
▁tuu	-10.134
ltään	-10.1341
▁kato	-10.1343
▁historiaa	-10.1349
taso	-10.1356
▁tunnista	-10.1365
tojen	-10.1365
▁hotelli	-10.1366
▁Myöhemm	-10.1366
▁treeni	-10.1366
▁Mer	-10.1373
lly	-10.1379
▁koulutus	-10.138
▁pyrkii	-10.1381
▁Johann	-10.1382
▁pinta	-10.1393
▁vasemmisto	-10.1395
▁sivusto	-10.1396
▁käyttäyty	-10.1396
▁yleisurheilu	-10.14
▁800	-10.1405
mukse	-10.1417
▁tarpeeksi	-10.142
▁Perjantain	-10.1431
▁vahvisti	-10.1432
▁välise	-10.1438
▁Go	-10.1441
▁onnettomuus	-10.1441
▁jatkuva	-10.1443
▁Mas	-10.1453
▁kaatui	-10.1454
komis	-10.1458
▁omista	-10.146
▁2021.	-10.1464
▁Michael	-10.1466
▁vika	-10.1471
▁muille	-10.1472
▁kuntoon	-10.1478
hen	-10.1478
▁näkökulmasta	-10.1481
▁tuloksen	-10.1482
▁4.	-10.1483
▁20-	-10.1486
▁lausunto	-10.1487
ohjelman	-10.1488
▁Ky	-10.1488
▁viin	-10.1491
▁illan	-10.1501
empi	-10.1502
▁näkyi	-10.1504
▁silmi	-10.151
▁varrella	-10.1511
niemi	-10.1513
hko	-10.1514
▁leikkaus	-10.1515
▁esityksen	-10.1518
▁kesäkuu	-10.1523
▁veny	-10.1525
▁Car	-10.1534
▁paremma	-10.1536
▁hoido	-10.1537
▁kappaletta	-10.1541
▁22.	-10.1544
▁William	-10.1551
▁koski	-10.1553
▁maksamaan	-10.1557
▁taho	-10.156
iri	-10.1562
▁kaipaa	-10.1566
matka	-10.1567
▁katkais	-10.157
▁ulkoministeriö	-10.1571
▁polttoaine	-10.1571
▁eteni	-10.1573
▁kur	-10.1581
▁heiko	-10.1585
▁Muun	-10.1586
urheilu	-10.1587
▁lapsille	-10.1589
▁3.	-10.1596
▁Er	-10.1601
▁Valtter	-10.1601
▁lyhye	-10.1603
▁Ol	-10.1604
▁omien	-10.1609
▁kerrottu	-10.1609
▁5.	-10.161
▁Joki	-10.1612
▁Rai	-10.1619
lääkäri	-10.1621
▁lopu	-10.1621
▁pudotuspeli	-10.1633
▁Kas	-10.1636
▁Venäjää	-10.1636
▁sairaalassa	-10.1637
▁Sarja	-10.1641
▁41	-10.1648
ssu	-10.1649
▁suunna	-10.1652
▁Pal	-10.1656
▁ravi	-10.1656
▁selittää	-10.1658
▁Gi	-10.1664
vaara	-10.1666
▁unelma	-10.1667
täjä	-10.1667
▁korjaus	-10.1674
▁Maailman	-10.1692
▁sotaa	-10.1693
▁tui	-10.1694
▁Tää	-10.1694
▁bändi	-10.17
▁enempää	-10.17
▁menehty	-10.17
▁erän	-10.1702
▁mestaruuden	-10.1702
▁sitoutu	-10.1707
▁merkitystä	-10.1708
▁turvallisuuden	-10.1708
otettiin	-10.1713
▁Lehti	-10.1714
▁lukija	-10.1721
▁peit	-10.1727
▁puhuta	-10.1727
▁niissä	-10.1728
▁kaiva	-10.173
▁Toki	-10.1731
▁valmiiksi	-10.1735
▁Ilves	-10.1735
▁mahtu	-10.1735
▁lehdistö	-10.1738
▁kilpaile	-10.1739
▁olympialaisissa	-10.1741
▁avasi	-10.1744
▁alkoivat	-10.1745
▁kamppailu	-10.1745
▁monen	-10.1746
▁välit	-10.1748
▁Peli	-10.1751
piste	-10.1754
▁iltä	-10.1764
▁Euro	-10.1766
▁Kanerva	-10.1769
▁voitaisiin	-10.1769
▁tapahtuneesta	-10.1771
▁vaihta	-10.1772
merkki	-10.1775
▁Minä	-10.1789
▁isoja	-10.1793
▁Sä	-10.1797
▁yhteys	-10.1803
▁rauha	-10.1804
▁vatsa	-10.1811
▁Ab	-10.1818
▁Sunnuntain	-10.182
▁yhtei	-10.1823
▁eläin	-10.1827
▁äidin	-10.1833
▁uudestaan	-10.1834
▁julki	-10.1834
▁vaihdo	-10.1837
▁Latvia	-10.1837
▁Asiantuntija	-10.184
▁hoitaa	-10.1844
▁por	-10.1847
▁syöpä	-10.1847
▁löi	-10.1851
▁saama	-10.1854
▁vastusta	-10.1855
▁aiheutu	-10.1856
chi	-10.1857
▁hyvinvointi	-10.187
▁Lindtman	-10.1872
▁kunnolla	-10.1872
▁da	-10.1873
▁kesäkuuta	-10.1876
▁Jää	-10.188
▁luki	-10.1889
▁tuolla	-10.189
▁britti	-10.1891
▁laatu	-10.1893
▁siirtyy	-10.1894
▁tunnusta	-10.1901
▁2012	-10.1906
▁äänestykse	-10.1906
▁verta	-10.1907
▁näkö	-10.191
▁järjest	-10.1916
▁myöntä	-10.1918
▁sunnuntain	-10.1921
▁esillä	-10.1923
▁pysyy	-10.1937
▁John	-10.1939
å	-10.1941
▁mahdollisuuksia	-10.1941
▁pidetty	-10.1943
mpää	-10.1947
▁idea	-10.1948
▁tänne	-10.1951
▁18-	-10.1952
▁erilaisi	-10.1953
▁Kela	-10.1954
▁Japani	-10.1961
▁uksia	-10.1963
▁ohje	-10.1967
▁lailla	-10.1969
▁aloi	-10.1969
▁Suurin	-10.1969
▁jäivät	-10.1969
▁istui	-10.1971
▁ohjus	-10.1975
▁ilmoittanut	-10.1983
▁valvo	-10.1985
isesta	-10.1986
▁edustava	-10.1987
▁20.	-10.1995
▁pelataan	-10.1999
▁yhteiskunna	-10.2001
▁millai	-10.2002
▁viisu	-10.2007
▁kiloa	-10.2008
oista	-10.2009
▁2013	-10.2011
▁Leijona	-10.2011
▁tekoäly	-10.2011
▁haastava	-10.2012
▁osto	-10.2016
▁lopettaa	-10.2021
▁Op	-10.2022
▁työskentele	-10.203
▁paljastui	-10.2033
▁ennakko	-10.2033
▁Tur	-10.2038
▁Harri	-10.2038
▁estää	-10.2041
▁vaikuttavat	-10.2043
▁pelaamaan	-10.2044
▁rahoitus	-10.2045
▁hätä	-10.2046
▁kommentti	-10.2046
▁Aja	-10.2048
ttaisiin	-10.205
▁kulma	-10.205
▁astu	-10.2051
▁rivi	-10.2056
▁ohjaaja	-10.2059
▁Katri	-10.2059
▁Turki	-10.2061
▁puhee	-10.2067
▁kappale	-10.2069
▁noudatta	-10.207
▁Tie	-10.2074
ment	-10.2075
▁naisia	-10.2076
shi	-10.2078
▁nousta	-10.2081
otto	-10.2089
▁huone	-10.2091
▁sor	-10.2092
vuotiaa	-10.2094
▁soitta	-10.2096
▁hoitoon	-10.2102
▁toiselle	-10.2105
▁42	-10.2107
▁maine	-10.2108
▁suomalaisia	-10.2108
▁kokoonpano	-10.2108
▁finaalissa	-10.2115
▁18.	-10.2116
▁2026	-10.2116
▁vaike	-10.2116
▁paikasta	-10.2116
▁matkaa	-10.2116
▁vuosittain	-10.2118
▁annettu	-10.2118
▁muodosta	-10.2134
▁alaise	-10.2138
▁lentä	-10.2141
▁kerää	-10.2145
nssi	-10.2145
▁kuljetta	-10.2147
▁29	-10.2148
▁Pariisissa	-10.2149
▁putosi	-10.2152
▁the	-10.2157
▁jouko	-10.2158
▁5-	-10.2159
▁harrasta	-10.2162
▁Vai	-10.2164
▁yltä	-10.2167
uudella	-10.2167
▁joukkojen	-10.2173
ele	-10.2177
▁vieraa	-10.2178
▁kahdeksa	-10.2182
land	-10.2182
▁pien	-10.2184
puu	-10.2184
▁Pia	-10.2184
▁Lopul	-10.2186
▁Aina	-10.2187
▁rakentaa	-10.2187
▁Näyttelijä	-10.2187
▁päätteeksi	-10.2187
▁tiedottaja	-10.2188
oita	-10.2192
▁keskustassa	-10.2204
▁itsekin	-10.2206
▁jatkui	-10.2207
▁isin	-10.2209
▁Ranta	-10.2209
▁49	-10.2211
▁kisaa	-10.2212
▁äänestäji	-10.2218
▁Ilvekse	-10.2223
▁presidentiksi	-10.2223
▁kannatta	-10.2226
▁Helena	-10.2229
zz	-10.2231
▁päättyy	-10.2233
▁laula	-10.2239
▁kolmanneksi	-10.2247
▁hyvän	-10.2249
▁Bar	-10.2252
▁iselle	-10.2254
▁pariskunta	-10.2259
holm	-10.2262
▁tutkii	-10.2269
▁taan	-10.2272
ranta	-10.2272
▁kah	-10.2273
▁Times	-10.2277
▁vajaa	-10.2278
ig	-10.2281
▁kahdesti	-10.2287
▁laiset	-10.229
▁viikossa	-10.2291
▁ajama	-10.2292
▁43	-10.2295
▁mahdollinen	-10.2295
▁poliittisi	-10.2295
▁huhu	-10.2297
▁kentällä	-10.23
▁useampi	-10.2301
▁kehitykse	-10.2301
▁ttiin	-10.2302
▁kuiva	-10.2306
kesk	-10.2309
▁demokraatti	-10.2315
ukka	-10.2315
▁hyödyntä	-10.2324
▁voimassa	-10.2325
Uuden	-10.2325
▁tiedotteessaan	-10.2325
tyksen	-10.2326
▁ydinase	-10.2327
▁toukokuuta	-10.2329
▁elokuuta	-10.2329
▁marraskuu	-10.233
▁tuotanno	-10.2331
▁miin	-10.2333
▁valittu	-10.2334
▁tuhansia	-10.2336
▁600	-10.234
▁Tasa	-10.234
▁vil	-10.2347
▁pesu	-10.2357
▁Enti	-10.2357
▁yön	-10.2359
▁parhai	-10.2361
▁Facebook	-10.2361
▁miettiä	-10.2363
▁pankki	-10.2364
▁normaalisti	-10.2365
▁West	-10.2366
▁parempaa	-10.2367
▁sairastu	-10.2369
▁matala	-10.2369
▁bo	-10.2369
▁muualla	-10.237
keskukse	-10.237
▁rikollis	-10.2371
▁Kataja	-10.2374
▁puhelu	-10.2376
▁parlamentti	-10.2376
tuksi	-10.2377
▁Laura	-10.2378
▁selkä	-10.238
▁Paimion	-10.2383
▁sotila	-10.2385
▁kahdesta	-10.2387
rd	-10.2388
▁tiedotteen	-10.2391
▁valtaa	-10.2393
▁heinäkuuta	-10.2397
▁rakasta	-10.2399
▁lääke	-10.24
▁perässä	-10.2401
▁lyhyt	-10.2404
▁melkein	-10.2404
uuden	-10.2405
▁mökki	-10.2406
▁ajaksi	-10.2406
▁miljardia	-10.2406
▁tuomion	-10.2409
▁haku	-10.2412
▁jälki	-10.2418
▁toimitta	-10.2419
▁valinna	-10.242
▁Espanja	-10.242
▁suojelu	-10.2423
▁kokous	-10.2423
▁pakkas	-10.2425
▁näe	-10.2425
▁sanotu	-10.2425
oli	-10.2427
▁vin	-10.2427
utunut	-10.2429
▁julkaiss	-10.2438
▁mukanaan	-10.2438
▁Virta	-10.2441
▁päivässä	-10.2443
▁Super	-10.2444
▁54	-10.2447
▁Tour	-10.2449
▁venäläise	-10.245
▁yrityksestä	-10.2454
▁pah	-10.2462
▁Georgia	-10.2464
▁vaikutuksia	-10.2468
▁mäki	-10.2471
lee	-10.2472
▁äärimmäise	-10.2474
▁lisäsi	-10.2477
▁Turussa	-10.2477
sso	-10.248
▁paikoin	-10.248
ryhmä	-10.2481
▁herätti	-10.2483
▁voito	-10.249
▁maailma	-10.2492
▁murhasta	-10.2492
▁Kim	-10.2492
▁miehelle	-10.2494
▁misestä	-10.2495
kisa	-10.2497
▁Neljä	-10.25
▁heikentä	-10.2505
▁Aalto	-10.2508
▁ehdokkai	-10.251
▁väittää	-10.2514
ejä	-10.2514
▁enemmistö	-10.2515
▁muistutti	-10.2515
▁sekunni	-10.2516
▁matkailu	-10.2518
▁ottama	-10.2522
▁Sport	-10.2524
▁tapauksesta	-10.2526
▁ukset	-10.2536
▁eduskunnassa	-10.2539
▁esiintyy	-10.2546
▁liittyi	-10.2546
▁toiminnasta	-10.2547
▁joki	-10.2548
▁anteeksi	-10.255
▁valmennus	-10.255
▁Kilpailu	-10.2551
▁misessa	-10.2556
pelastuslaitokse	-10.2556
▁riittävä	-10.2556
▁pääosi	-10.256
▁keittiö	-10.2566
▁uudessa	-10.2569
▁Salminen	-10.257
▁oikeasta	-10.2571
▁kaunii	-10.2571
▁jakaa	-10.2576
▁kiri	-10.2579
▁suku	-10.2583
▁vuo	-10.2586
▁Tapio	-10.2588
▁Vaasa	-10.2589
ija	-10.2599
▁muuttuu	-10.2602
▁voida	-10.2609
▁aktiivi	-10.2609
▁ehdottoma	-10.261
▁Metsä	-10.2617
▁Libanoni	-10.2617
▁ajatukse	-10.2623
▁kävely	-10.2625
▁paikassa	-10.2625
▁Tesla	-10.2625
▁suola	-10.2625
▁oppilai	-10.2626
▁ukseen	-10.2626
▁vapautta	-10.2627
▁töissä	-10.2627
▁196	-10.2628
etti	-10.2632
▁työskennellyt	-10.2633
▁turnaukse	-10.2639
▁kohdistuva	-10.2641
▁maala	-10.2641
▁tason	-10.2644
▁juoksi	-10.2652
▁autoja	-10.2654
▁työntekijöide	-10.2655
▁yleisön	-10.2657
▁johtama	-10.2662
▁uksista	-10.2663
▁unioni	-10.2663
▁suoritus	-10.2663
▁rasva	-10.2665
▁pient	-10.2667
▁teema	-10.2668
▁Mikkola	-10.267
▁halutaan	-10.2671
▁kenti	-10.2672
▁joukkueessa	-10.2673
▁asettu	-10.2678
▁ajanut	-10.2684
▁tuotte	-10.269
▁Washington	-10.2693
▁areena	-10.2693
ime	-10.2695
puheenjohtaja	-10.2696
▁kesti	-10.2696
▁+	-10.2698
▁keskuudessa	-10.2699
▁2011	-10.2699
▁entisestään	-10.2699
▁nuoriso	-10.2702
▁varjo	-10.2703
▁viimeistel	-10.2705
▁Anni	-10.2706
▁ottelusta	-10.2711
▁Kol	-10.2713
▁vierai	-10.2716
joiden	-10.2719
▁pääty	-10.2719
▁kritiikkiä	-10.2723
▁My	-10.2723
▁mukava	-10.2724
str	-10.2724
▁Sha	-10.2724
▁hilja	-10.2727
maton	-10.2729
▁avoin	-10.2734
▁viihty	-10.2735
▁Marja	-10.2736
▁komentaja	-10.2737
▁tarkasti	-10.2737
hun	-10.2748
▁rikoksista	-10.275
▁monia	-10.2751
▁pii	-10.2751
yys	-10.2754
▁tulosta	-10.2757
ttelee	-10.2758
▁joukkoja	-10.276
▁yn	-10.276
▁arvion	-10.2761
▁oikeudessa	-10.2771
▁pisteet	-10.2771
▁lokakuuta	-10.2772
▁tarkka	-10.2774
▁ohja	-10.2775
▁sinu	-10.2781
▁päivinä	-10.2782
▁Fo	-10.2784
▁kanava	-10.2786
▁laittee	-10.2787
▁juokse	-10.2788
▁hovi	-10.2788
▁kive	-10.2789
▁ikkuna	-10.2791
▁muutenkin	-10.2795
▁ttu	-10.2796
ralli	-10.2798
▁kori	-10.2802
▁tuen	-10.2803
▁Lii	-10.2806
▁Ter	-10.2807
▁er	-10.2808
▁koskee	-10.2809
▁sattui	-10.281
▁viiko	-10.281
▁kestä	-10.2812
▁SAK	-10.2813
▁studio	-10.2813
▁syyskuu	-10.2817
▁taksi	-10.2821
tko	-10.2822
▁syksyn	-10.2831
▁der	-10.2831
ase	-10.2832
▁toimivat	-10.2844
▁syyskuuta	-10.285
▁Jess	-10.285
▁maksoi	-10.2851
▁tuomittu	-10.2851
▁TPS	-10.2852
▁Bottas	-10.2852
▁reaktio	-10.2853
▁Nor	-10.2854
▁maini	-10.2854
▁Kul	-10.2855
▁Vuo	-10.2856
▁pallon	-10.2857
▁tarpee	-10.2859
▁eduskuntaryhmän	-10.2865
ler	-10.2865
▁tekemistä	-10.2868
▁kiertä	-10.2877
▁leikki	-10.289
▁perjantain	-10.2892
▁Lau	-10.2893
▁Suomalaise	-10.2894
▁opiskelija	-10.2898
▁oikeutta	-10.2905
▁todetaan	-10.2906
▁haittaa	-10.2907
▁elämänsä	-10.2909
kirja	-10.2918
▁kaksikko	-10.2919
▁rikoksesta	-10.292
▁korti	-10.292
▁suunta	-10.2923
Sanomien	-10.2925
▁meteorologi	-10.2927
▁vieressä	-10.2927
▁hinnat	-10.293
▁varus	-10.2934
▁pitkält	-10.2943
▁Saul	-10.2943
ettava	-10.2946
teita	-10.2949
▁helpo	-10.295
▁tiesi	-10.2957
▁puolivälierä	-10.2957
▁Tapahtuma	-10.2959
▁minut	-10.296
▁somessa	-10.296
▁menestykse	-10.2961
▁kyl	-10.2961
▁ennakoi	-10.2963
▁Nord	-10.2964
pelaaja	-10.2965
▁edellise	-10.2965
▁1,5	-10.2966
▁kuul	-10.2966
ismi	-10.2969
▁syksy	-10.298
▁Riik	-10.2983
▁harjoitukse	-10.2987
▁väkivaltaa	-10.2989
▁erot	-10.2996
les	-10.3
▁raskaa	-10.3
illut	-10.3005
▁marraskuuta	-10.3006
▁riko	-10.3007
▁mur	-10.3012
▁meitä	-10.302
▁käytön	-10.3029
▁otteluun	-10.3029
lma	-10.3031
▁julkisesti	-10.3036
▁nimen	-10.3037
▁arvioidaan	-10.3042
▁huolehti	-10.3047
▁kutsui	-10.3047
res	-10.3049
▁Miss	-10.3049
▁tarkoituksena	-10.3055
▁seudu	-10.3055
asema	-10.3056
▁avo	-10.3068
▁linjaa	-10.307
▁äänestä	-10.3077
▁Kiekko	-10.3082
▁Ohjelma	-10.3082
▁autolla	-10.3085
▁23.	-10.3086
▁Kaa	-10.309
▁pä	-10.309
▁johtoon	-10.3095
▁kansallise	-10.3097
▁tukee	-10.3098
▁äänestää	-10.3102
mal	-10.3105
▁osallistuu	-10.3107
▁erilaist	-10.3109
▁palvelut	-10.3112
▁työmarkkina	-10.3113
▁Il	-10.3116
▁nappasi	-10.3121
▁KalPa	-10.3121
▁lunta	-10.3126
▁naura	-10.3136
▁hai	-10.3137
ü	-10.3145
▁vaalit	-10.3151
▁linna	-10.3152
▁kohteeksi	-10.3152
▁kysy	-10.3153
▁tuottaja	-10.3154
▁suju	-10.3154
▁Foreca	-10.316
▁Berg	-10.316
▁vapa	-10.3162
▁ajankohta	-10.3162
▁todettiin	-10.3164
esti	-10.3167
▁Vähä	-10.3168
▁joulukuu	-10.317
▁sijoittu	-10.3171
▁ville	-10.3172
▁py	-10.3173
▁säästä	-10.3174
▁aikanaan	-10.3174
▁silta	-10.3175
▁vaativa	-10.3175
▁Tomm	-10.3178
▁ansiosta	-10.3178
emme	-10.318
▁tasolle	-10.3184
▁Käy	-10.3185
▁katsoji	-10.3185
▁työnantaja	-10.3188
▁pitkälle	-10.319
▁vasemmistoliito	-10.3194
media	-10.3197
▁poja	-10.3197
▁ol	-10.3197
▁vankeuteen	-10.32
ttämään	-10.3204
▁huoli	-10.3204
▁painottaa	-10.3206
▁FC	-10.3209
▁alus	-10.3209
▁Ex	-10.3209
▁lauko	-10.3211
▁Hau	-10.3219
▁piiri	-10.3221
ie	-10.323
▁Marini	-10.323
▁punaise	-10.323
▁For	-10.3232
▁es	-10.3235
▁kerrostalo	-10.3235
▁Kisa	-10.3239
▁potentiaali	-10.3239
▁järjestelmi	-10.3239
▁varapresidentti	-10.324
▁luvat	-10.324
▁ttavi	-10.3243
▁huomaa	-10.3246
▁elokuu	-10.3249
▁tapahtuman	-10.3249
▁hopea	-10.3251
▁palata	-10.3254
▁lava	-10.3256
ohjelma	-10.3257
▁tavara	-10.3258
▁lisätä	-10.3258
▁tutkinnan	-10.3259
▁kyvy	-10.3263
▁Karjala	-10.3265
▁joutunee	-10.3266
▁mahdollisuude	-10.3269
▁syistä	-10.327
▁lataus	-10.3276
▁Latvala	-10.3279
▁Uhri	-10.3279
▁Tr	-10.3279
▁kuuli	-10.3279
▁yllättävän	-10.3284
▁myyjä	-10.3284
▁käynnisty	-10.3287
▁Ero	-10.3288
▁toukokuu	-10.3289
▁sopii	-10.3289
▁osallistua	-10.3294
kainen	-10.3302
▁amerikkalais	-10.3302
▁paikkansa	-10.3303
▁puolusta	-10.3308
▁ulkomaalais	-10.3308
öi	-10.3314
▁'	-10.3315
vuotia	-10.3316
▁poliittist	-10.3319
▁kalusto	-10.3319
▁järjestety	-10.3319
▁järjestettiin	-10.332
▁kerto	-10.3321
▁Hannu	-10.3324
▁syytetty	-10.3324
▁tavallise	-10.333
▁euroon	-10.3332
▁edusti	-10.3334
▁ilmesty	-10.3334
▁etä	-10.3335
▁nuoria	-10.3341
▁ranna	-10.3341
▁toimet	-10.3341
▁posti	-10.3346
▁syyttäjä	-10.3354
▁johtaji	-10.3359
▁alueelta	-10.3359
▁tuhat	-10.336
▁maat	-10.3361
▁liikkeelle	-10.3361
▁suljettu	-10.3362
▁Puola	-10.3363
▁Hal	-10.3363
▁pure	-10.3364
elokuva	-10.3365
▁maalei	-10.3367
▁Naist	-10.3368
työ	-10.3371
▁karsi	-10.3372
▁jäljellä	-10.3372
▁kil	-10.3375
kausi	-10.3376
voitto	-10.338
hoito	-10.3382
▁kovi	-10.3383
▁Lopu	-10.3388
▁kokemusta	-10.3391
▁musiikkia	-10.3391
voima	-10.3392
▁palestiinalais	-10.3399
▁hallussa	-10.3399
▁matta	-10.3402
▁osoitti	-10.3403
▁mennee	-10.3405
▁sairaus	-10.3405
▁tapahtumista	-10.3406
kahta	-10.3406
▁otetaan	-10.3408
ärä	-10.3408
▁teon	-10.3408
ohjelmassa	-10.3411
▁muka	-10.3412
▁rap	-10.3413
▁ruo	-10.3413
▁News	-10.3415
▁menetti	-10.3415
lti	-10.3416
▁Henri	-10.3418
▁pienempi	-10.3424
▁Los	-10.3426
▁sijalla	-10.343
▁tunnus	-10.3432
▁Ly	-10.3435
▁Ferrari	-10.3439
▁sopeutu	-10.3441
Y	-10.3441
▁hyvältä	-10.3442
▁tavan	-10.3444
▁Kahde	-10.3446
▁puolelta	-10.3447
▁riitä	-10.3447
▁henkilöitä	-10.3449
▁mattoma	-10.3454
▁vanhoj	-10.3456
▁Gazassa	-10.3457
▁askel	-10.3458
▁tilalle	-10.3458
▁lähdö	-10.3458
▁Juuso	-10.3461
▁kulutus	-10.3467
▁laajen	-10.3467
▁Che	-10.3471
▁Dr	-10.3477
▁eilen	-10.3477
▁huomio	-10.3478
▁taulu	-10.348
▁Suomelle	-10.3481
▁harmi	-10.3488
▁ilmoittaa	-10.3492
▁kertoja	-10.3492
▁käynnistä	-10.3493
▁12-	-10.3496
▁laita	-10.3497
▁yhdistykse	-10.3501
▁hakeutu	-10.3503
▁jonkinlai	-10.3504
▁entise	-10.3506
▁Sini	-10.3506
▁pesti	-10.3507
▁As	-10.3509
ttavasti	-10.3512
▁ansio	-10.3513
▁selkeästi	-10.3513
mari	-10.3514
▁Uskon	-10.3516
▁tasapaino	-10.3519
▁varhain	-10.352
▁Mestari	-10.352
▁muovi	-10.3521
▁pieniä	-10.3521
▁Ry	-10.3522
▁vanhan	-10.3522
▁kuluttaja	-10.3522
▁suoritukse	-10.3523
▁Venäläis	-10.3524
▁raaka	-10.3524
▁llisen	-10.3526
▁laisen	-10.353
▁lokakuu	-10.3533
▁Kremli	-10.3535
▁Luo	-10.3536
▁neli	-10.3537
▁esittä	-10.3537
▁rahat	-10.3542
▁nieme	-10.3544
tro	-10.3544
▁Stan	-10.3544
▁päätöksiä	-10.3546
▁vaiva	-10.3546
▁suojaa	-10.3551
▁huhtikuuta	-10.3552
▁poissa	-10.3552
▁Sari	-10.3552
▁välissä	-10.3558
▁keli	-10.3558
perä	-10.3558
▁aiemma	-10.3561
▁Sekä	-10.3562
én	-10.3563
▁17-	-10.3564
▁uni	-10.3566
▁kuulunut	-10.3567
▁oireita	-10.3567
▁tahto	-10.3576
▁nimeltä	-10.3578
▁tukse	-10.3578
laisia	-10.3579
▁karsinta	-10.3585
▁Keskusta	-10.3586
▁vauhti	-10.3591
▁teini	-10.3593
▁Os	-10.3598
▁Valioliiga	-10.3602
▁Kova	-10.3603
▁suunniteltu	-10.3604
▁luottamus	-10.3605
▁Tanskan	-10.3605
▁Joukkue	-10.3607
▁levittä	-10.361
▁tarvetta	-10.361
▁Por	-10.3614
isuus	-10.3616
▁käsittele	-10.3617
▁Olet	-10.3623
▁pitämään	-10.3626
▁tilan	-10.3626
▁Totta	-10.3627
▁syyte	-10.3628
▁Virtanen	-10.3631
▁Nuore	-10.3637
▁arvosta	-10.3638
▁riittävän	-10.3638
▁Am	-10.3641
=	-10.3643
▁sisällö	-10.3643
▁ymmärrä	-10.3643
▁Sanomien	-10.3645
▁rikoksen	-10.3647
▁näky	-10.3649
▁tori	-10.3652
▁tukeva	-10.3654
▁muissa	-10.3655
▁löydet	-10.3657
▁Esi	-10.3659
▁Englannin	-10.366
▁tilat	-10.3661
▁puoluee	-10.3663
▁osti	-10.3666
▁lehdelle	-10.3671
toimi	-10.3671
▁Viesti	-10.3671
▁tunee	-10.3674
▁min	-10.3674
▁uksessa	-10.3681
▁jääkieko	-10.3684
▁Viranomais	-10.3684
▁huumausaine	-10.3684
▁heitto	-10.3685
▁kirjan	-10.3688
▁yhteise	-10.3689
▁Kimmo	-10.3689
▁Pii	-10.369
▁koiri	-10.3691
▁ehdo	-10.3697
▁luovutta	-10.3703
▁neljäs	-10.3704
▁Tosi	-10.3705
▁julkaisema	-10.3705
▁golf	-10.3706
▁Je	-10.3714
gin	-10.3714
▁kiisti	-10.3724
▁kiekon	-10.3725
▁Sähkö	-10.3725
▁Vornanen	-10.3726
▁Pajari	-10.3726
▁mahdollisuutta	-10.3726
▁osittain	-10.3726
▁Miehen	-10.3726
▁asemi	-10.3732
▁alukse	-10.3734
▁Ukrainaa	-10.3736
▁Eurooppa	-10.3744
▁Matka	-10.3746
▁katke	-10.3746
▁ministeriö	-10.3747
tal	-10.3752
tieto	-10.3752
▁luokka	-10.3753
eissa	-10.3755
▁valitta	-10.3759
▁Kyl	-10.3764
vaali	-10.3764
▁Ihmise	-10.3765
▁otte	-10.3765
▁ulkopuolelle	-10.3768
▁varoitus	-10.3771
▁aseen	-10.3772
▁Suur	-10.378
▁näyttely	-10.3784
▁työstä	-10.3787
▁komissio	-10.3788
▁erilaise	-10.3794
▁pahasti	-10.3798
▁jokaisen	-10.3799
▁Huu	-10.3803
kää	-10.3805
anchester	-10.381
▁hylly	-10.381
▁keskustella	-10.3813
▁Perussuomalais	-10.3817
▁rakentamise	-10.3818
▁ollen	-10.3819
her	-10.3819
▁artikkeli	-10.3821
▁tarjota	-10.3823
▁ui	-10.3826
▁Aaltola	-10.3827
▁ilmeise	-10.3828
▁järjestelmää	-10.383
▁kysymyksiä	-10.3837
▁aito	-10.3838
▁kaksiko	-10.3839
▁hyvät	-10.3847
▁mar	-10.3849
▁Perhe	-10.385
valiokunnan	-10.385
qvist	-10.3851
▁David	-10.3851
▁osuude	-10.3854
X	-10.3857
▁muitakin	-10.386
ikki	-10.3862
▁taiteilija	-10.3863
▁palki	-10.3864
▁kiusa	-10.3867
▁läheise	-10.3871
▁nuo	-10.3875
▁konsertti	-10.3876
▁roolissa	-10.3877
che	-10.3879
▁Tiistain	-10.3879
▁luokkaa	-10.388
▁Emil	-10.3881
▁Perus	-10.3881
▁viranomais	-10.3885
▁demokratia	-10.3887
▁mennään	-10.3887
▁co	-10.3888
▁ylös	-10.3893
▁naimisiin	-10.3894
▁valmista	-10.3897
▁menestys	-10.3899
▁palautetta	-10.3901
▁välttä	-10.3903
▁väitte	-10.3904
▁tytön	-10.3905
▁lehden	-10.3906
▁Lapse	-10.3908
▁puolivälissä	-10.3912
▁joulun	-10.3913
▁valita	-10.3915
▁kop	-10.3916
▁kertoma	-10.3918
▁toiste	-10.3922
▁budjetti	-10.3929
▁Markka	-10.3933
▁molempi	-10.3936
▁Äiti	-10.3936
▁solmi	-10.3938
▁Pitää	-10.3939
▁Lei	-10.394
vallan	-10.3942
gg	-10.3945
kanava	-10.3947
▁mie	-10.3949
▁ampui	-10.395
▁sali	-10.3952
▁suomalaisista	-10.3955
▁vauhtia	-10.3957
tso	-10.396
etu	-10.3961
▁katsomaan	-10.3961
▁luokan	-10.3962
mpana	-10.3964
▁Tieto	-10.3971
▁tavoittee	-10.3973
eh	-10.3973
▁hankala	-10.3975
▁lähte	-10.3976
hka	-10.3977
▁Leppä	-10.3979
▁lähesty	-10.3979
▁kysyttiin	-10.3985
▁puku	-10.3987
▁satama	-10.3998
▁kir	-10.4
▁hiihtäjä	-10.4004
▁kunnioit	-10.4008
▁ver	-10.4009
▁tytö	-10.4011
ineen	-10.4013
▁ön	-10.4014
ittain	-10.4016
ointi	-10.402
▁Suomalainen	-10.4021
▁miehistö	-10.4022
▁järjestelmän	-10.4022
▁Vaali	-10.4025
▁kuukaudessa	-10.4025
ev	-10.4027
▁käänty	-10.4031
▁mainos	-10.4032
▁pysähty	-10.4036
▁Käräjäoikeu	-10.4043
▁kaula	-10.4043
Stubb	-10.4044
telee	-10.4045
▁noste	-10.4048
▁tavoitta	-10.4049
ze	-10.4051
▁helmikuuta	-10.4054
▁meren	-10.4059
▁havaittu	-10.4064
▁Usea	-10.4065
▁selvitys	-10.4068
▁Markk	-10.407
▁sääntö	-10.407
▁57	-10.4071
▁oja	-10.4078
▁voimakkaasti	-10.4079
▁Puolustusvoimi	-10.4086
▁selä	-10.4089
▁avoime	-10.4089
▁Las	-10.409
▁Saari	-10.409
▁menossa	-10.4092
▁Ainak	-10.4097
▁suunnittele	-10.4101
ino	-10.4102
▁eduskunta	-10.4103
▁kokoontu	-10.4106
▁ylivoima	-10.4107
▁poikkeus	-10.4107
▁Colorado	-10.4107
▁koripallo	-10.4108
▁verkosto	-10.4109
ast	-10.411
▁ottamatta	-10.412
ologi	-10.4123
est	-10.4124
▁edustaji	-10.4125
▁kysyy	-10.4125
teltu	-10.4128
▁asumis	-10.4131
▁Etenk	-10.4132
▁vetäyty	-10.4132
▁kappalee	-10.4134
llisten	-10.4135
▁paljastu	-10.4137
rs	-10.4137
▁valvonta	-10.4139
▁joudu	-10.4141
▁pyritä	-10.4141
▁yllättävä	-10.4146
▁saapunut	-10.4148
▁Portugali	-10.4151
▁miselle	-10.4151
▁Loppu	-10.4152
▁Kurski	-10.4154
▁mmä	-10.4156
▁Murto	-10.4156
▁samoin	-10.4159
areena	-10.416
▁ajassa	-10.416
▁Ä	-10.416
▁koulussa	-10.4165
▁henkilökohtaise	-10.4167
▁heidät	-10.4167
▁Suuri	-10.4174
▁tällaisi	-10.4176
▁Musta	-10.4177
▁Ham	-10.4178
q	-10.4188
▁antama	-10.419
▁Puu	-10.4191
▁luonnollise	-10.4191
▁pronssi	-10.4192
▁maahanmuutto	-10.4194
▁oikeudenkäynti	-10.4194
▁Puolan	-10.4201
▁pisteitä	-10.4201
▁7-	-10.4203
▁kuvio	-10.4204
▁essä	-10.4204
▁maajoukkuee	-10.4207
▁asemaa	-10.4213
▁kymmene	-10.4214
▁lämpimä	-10.4224
▁törmä	-10.423
▁maaliskuuta	-10.423
▁johtajan	-10.423
▁nimeä	-10.4231
▁6-	-10.4231
▁esittele	-10.4232
▁Helenius	-10.4238
▁valitettava	-10.4238
▁aiheesta	-10.4238
mäen	-10.4239
▁runsaa	-10.4239
▁Ensimmäise	-10.4242
▁Van	-10.4245
▁rakennettu	-10.4246
▁kiinnostu	-10.4246
ikan	-10.4246
▁Aleksand	-10.4247
▁lääkärin	-10.4251
▁rekisteri	-10.4252
▁poliittinen	-10.4252
▁tehot	-10.4252
▁johtuu	-10.4253
▁sodassa	-10.426
▁samana	-10.4267
▁pelaava	-10.4268
▁Musk	-10.427
▁tarve	-10.4276
▁laitte	-10.4277
▁Lai	-10.4279
kola	-10.428
▁kansainvälisi	-10.4281
▁kaudeksi	-10.4282
▁pelko	-10.4282
▁voisivat	-10.4282
▁kene	-10.4283
▁tilanteissa	-10.4284
ow	-10.4285
▁kymmen	-10.4287
▁Mor	-10.429
piiri	-10.4292
▁Petri	-10.4294
▁koiran	-10.4294
▁syyllisty	-10.4297
▁katta	-10.4299
▁veti	-10.4302
▁kohden	-10.4303
▁riittävästi	-10.4304
▁luotto	-10.4306
kisat	-10.4308
▁Tuli	-10.431
▁rakenne	-10.4311
▁pullo	-10.4312
▁taju	-10.4313
▁alkoholin	-10.4316
▁kassa	-10.4316
▁tammikuuta	-10.4316
tter	-10.432
▁työt	-10.432
▁täyden	-10.4321
▁pärjää	-10.4321
▁vaihtaa	-10.4322
▁myöhään	-10.4326
▁itäraja	-10.4326
▁kenttä	-10.4327
▁700	-10.4333
hm	-10.4334
ttoman	-10.4337
▁uude	-10.4337
▁heitti	-10.434
▁peliin	-10.4343
▁pukeutu	-10.4345
▁pilk	-10.4349
▁kunnon	-10.435
▁Niitä	-10.4353
▁asioid	-10.4357
od	-10.4362
▁Za	-10.4367
▁reiti	-10.4367
halli	-10.4368
▁doping	-10.437
▁julkaistiin	-10.437
▁motiivi	-10.437
▁suunnitellu	-10.4371
▁miltä	-10.4371
▁palvelun	-10.4372
▁kahteen	-10.4372
▁Andre	-10.4372
▁kanne	-10.4376
▁ketään	-10.4379
▁asui	-10.4381
▁päättänyt	-10.4382
▁51	-10.4382
▁viestejä	-10.4383
▁kuolleen	-10.4385
▁äidi	-10.4386
▁pääsevä	-10.4388
▁isempi	-10.4392
▁apu	-10.4392
▁Topi	-10.4395
▁tällaist	-10.4395
▁vaate	-10.4397
▁muutosta	-10.4399
▁säätä	-10.4399
lö	-10.4408
▁rin	-10.441
▁Joulu	-10.4414
▁sähköposti	-10.4414
▁Epäilty	-10.4414
▁Olympiakomitea	-10.4414
▁maissa	-10.4419
▁olevaa	-10.4421
▁rinta	-10.4422
▁kadulla	-10.4422
▁eron	-10.4424
voittaja	-10.4426
▁Samaa	-10.4428
▁prosentti	-10.4434
ikä	-10.4437
▁avautu	-10.444
yyttä	-10.4441
▁tekemi	-10.4442
▁vastaus	-10.4443
▁sitte	-10.4446
tellyt	-10.4447
▁Puna	-10.445
▁Kaisa	-10.4452
▁miehiä	-10.4456
▁laite	-10.4456
seura	-10.4459
▁festivaali	-10.4459
▁naurahtaa	-10.4459
▁sovellukse	-10.4459
▁pohdi	-10.446
▁kkaa	-10.4462
▁kevät	-10.4462
alais	-10.4464
▁Anton	-10.4466
▁58	-10.4466
▁tiedo	-10.447
▁parantaa	-10.447
▁uksella	-10.4476
▁lausunno	-10.4477
▁Äl	-10.4481
▁Saarinen	-10.4486
▁lajin	-10.4487
▁kortti	-10.4492
▁Sanomat	-10.4493
▁Sää	-10.45
▁Keskiviikko	-10.4504
▁RKP	-10.4504
▁rasismi	-10.4504
▁Henriksson	-10.4504
▁alkava	-10.4507
▁2000-	-10.4511
▁maasta	-10.4514
]	-10.4515
▁kaava	-10.4516
▁sataa	-10.4516
art	-10.4523
▁jarru	-10.4523
▁merki	-10.4524
▁autoon	-10.4528
▁liigassa	-10.4529
▁el	-10.4532
▁tilassa	-10.4536
mpe	-10.4539
voimien	-10.4544
▁päivittäin	-10.4547
▁pito	-10.4547
▁kiistä	-10.4548
millään	-10.4549
▁Lääkäri	-10.4549
▁parhaimmilla	-10.4549
▁sävy	-10.4551
▁vahvistu	-10.4551
▁senttiä	-10.4551
▁hankkee	-10.4554
▁tiedetään	-10.4556
▁biisi	-10.4559
▁paranta	-10.4559
▁toteutet	-10.4567
▁panosta	-10.4567
▁Nieminen	-10.4567
▁videoita	-10.4572
▁vessa	-10.4574
▁kiinalais	-10.4575
▁pahoinpitely	-10.4584
▁tuntee	-10.4586
▁kaista	-10.4587
▁johtanut	-10.4594
▁vaikuttanut	-10.4594
▁pelastuslaitos	-10.4594
▁Lahden	-10.4594
▁2008	-10.4599
▁Sisä	-10.4602
▁vanhempien	-10.4604
▁järjestäjä	-10.4607
kkeja	-10.4614
▁työssä	-10.4619
▁talossa	-10.4619
ld	-10.462
▁4-	-10.4625
▁opetus	-10.4627
▁ääntä	-10.4632
▁ääne	-10.4633
▁ongelmat	-10.4634
▁avata	-10.4636
▁taide	-10.4638
▁kurssi	-10.4641
▁työelämä	-10.4643
▁kirjailija	-10.4643
▁käyttämä	-10.4643
▁turvaa	-10.4645
▁etene	-10.4647
▁85	-10.4648
▁vanhempi	-10.4649
▁parhaat	-10.465
▁ehdokkaan	-10.4654
hl	-10.4655
▁sankari	-10.4656
▁Pelicans	-10.4658
▁hoitaja	-10.466
▁52	-10.4664
▁heinäkuu	-10.4667
▁merkkejä	-10.4668
▁pussi	-10.467
▁Suvi	-10.4671
▁jäsene	-10.4676
▁Kokko	-10.4677
▁ile	-10.4685
▁lähtökohta	-10.4686
que	-10.4686
▁ehdotukse	-10.4687
▁autosta	-10.4687
▁murska	-10.4687
▁joukot	-10.4688
▁Peter	-10.469
▁havaintoja	-10.4691
▁taistele	-10.4692
▁alalla	-10.4696
▁pyydet	-10.4697
▁kirjasto	-10.4698
▁uutisia	-10.47
▁teen	-10.4704
▁aikaise	-10.4706
▁syntyy	-10.471
▁pan	-10.4711
▁näkemykse	-10.4713
▁etenee	-10.4715
▁kirjassa	-10.4728
▁opi	-10.4728
▁suihku	-10.4731
▁Schumacher	-10.4731
▁Kiuru	-10.4731
▁aiempi	-10.4731
▁työhön	-10.4734
▁Lehde	-10.4735
▁haita	-10.4749
▁merkin	-10.4754
▁prosenttiin	-10.4759
▁laskee	-10.4759
▁maaliskuu	-10.476
kor	-10.476
▁hyöty	-10.476
▁kääntä	-10.4763
▁elta	-10.4763
kilpailu	-10.4767
▁Pirkanmaa	-10.4777
▁vasemma	-10.4777
▁murhan	-10.4778
▁väittely	-10.4778
pl	-10.478
▁Inter	-10.4781
▁maista	-10.4782
▁Vir	-10.4784
▁pahoi	-10.4785
▁hullu	-10.4786
▁Karhu	-10.4786
päivän	-10.4791
▁ään	-10.4793
▁lattia	-10.4794
▁käänne	-10.4795
teko	-10.4796
▁tietty	-10.4797
▁Hizbollahi	-10.4801
▁ohjelmaan	-10.4802
▁kansainväli	-10.4806
▁hö	-10.4808
Pohjanmaa	-10.4809
▁tarttu	-10.4812
▁huolestu	-10.4816
▁fanit	-10.4817
▁pomo	-10.482
▁Sebastian	-10.4824
▁trendi	-10.4824
▁ulkomailla	-10.4824
▁Lähde	-10.4824
▁paikat	-10.4825
▁ratkaiseva	-10.4825
▁akku	-10.4826
▁kuluttua	-10.4827
▁Vil	-10.4829
emi	-10.4836
▁kerralla	-10.484
▁arje	-10.4845
ustilaisuudessa	-10.4845
▁edustaa	-10.4846
▁muutamia	-10.4848
▁Haapa	-10.4853
▁kauppaa	-10.4855
▁paidassa	-10.4859
▁jokaise	-10.4859
▁selvityksen	-10.4861
▁Sand	-10.4863
▁jonne	-10.4864
▁valiokunnan	-10.4864
▁poliitiko	-10.487
▁potilas	-10.4871
▁joille	-10.4872
▁todellinen	-10.4872
▁Tanssi	-10.4873
▁ö	-10.4875
▁tiukka	-10.4876
▁rahoi	-10.4877
▁56	-10.4879
▁politiikkaa	-10.4879
▁sattu	-10.4881
▁hienoa	-10.4884
▁asukkai	-10.4892
oiden	-10.4893
▁vienti	-10.4894
▁tiuka	-10.4895
▁tavoitte	-10.4895
▁ilu	-10.4896
▁nuore	-10.4899
▁seiso	-10.4907
▁jono	-10.4907
fa	-10.4908
▁neste	-10.4909
▁finaaliin	-10.4911
▁kohdistu	-10.4912
▁suomen	-10.4914
▁kevye	-10.4917
▁kolmos	-10.4918
▁potilai	-10.4919
▁Intia	-10.4919
▁llaan	-10.4923
▁tavallista	-10.4924
tely	-10.4924
▁vedo	-10.4925
▁mallin	-10.493
▁tapaamise	-10.4932
▁törmäsi	-10.4935
▁äänesti	-10.4935
▁lähelle	-10.4935
▁lan	-10.4936
▁elävä	-10.4939
▁Bri	-10.494
▁vaikutusta	-10.4941
▁riippu	-10.4947
▁turnaus	-10.495
▁saamaan	-10.4951
▁sijoitta	-10.4953
veri	-10.496
á	-10.4964
▁muoti	-10.4964
▁syödä	-10.4965
▁Liikenne	-10.4965
▁ajatella	-10.4966
▁Talo	-10.4975
▁tyhjä	-10.4975
▁tar	-10.4975
▁toisiaan	-10.4976
▁partio	-10.4983
▁Lehto	-10.4983
▁kissa	-10.4984
▁yllätti	-10.4985
▁Uutis	-10.4986
▁käyty	-10.4993
▁linjan	-10.4993
▁Mc	-10.4993
▁väkivallan	-10.4993
joen	-10.4996
▁kannusta	-10.4997
▁Sor	-10.4999
▁päätökseen	-10.5
▁turvallise	-10.5001
▁positiivise	-10.5003
▁pak	-10.5004
▁osakilpailu	-10.5006
uksesta	-10.5006
▁omakotitalo	-10.5011
▁kollega	-10.5011
▁putki	-10.5011
▁satoja	-10.5011
▁ollenkaan	-10.5014
▁tilaisuudessa	-10.5019
▁...	-10.502
vuutta	-10.5021
▁kansainvälist	-10.5023
▁vuodeksi	-10.5024
▁huonosti	-10.5028
▁näyttävä	-10.5029
▁kat	-10.503
▁edestä	-10.5031
▁jatkuvat	-10.504
mpiä	-10.504
▁Ny	-10.5041
▁paketti	-10.5041
▁näyttele	-10.5048
tteja	-10.5049
▁Jokinen	-10.5049
▁merkitys	-10.5051
▁Uut	-10.5054
▁Stor	-10.5056
▁vihdoin	-10.5058
▁onnettomuuden	-10.5058
▁ruokavalio	-10.5058
▁mässä	-10.5058
▁päätöksestä	-10.5061
▁pelaajan	-10.5062
▁loukkaa	-10.5063
▁Ski	-10.5064
▁mihinkään	-10.5065
▁harjoit	-10.5067
Sanomille	-10.5074
▁etten	-10.5074
▁Posti	-10.5075
▁haa	-10.5075
▁nimellä	-10.5078
▁arvioida	-10.508
▁lako	-10.5081
▁alkua	-10.5081
▁edu	-10.5084
▁sur	-10.5092
▁ajattele	-10.5104
▁kisat	-10.5105
▁Puljujärvi	-10.5106
▁Slovakia	-10.5106
▁tarkoitettu	-10.5106
▁Martti	-10.5111
▁Verstappen	-10.5119
idä	-10.5119
▁ok	-10.5122
▁menettely	-10.5126
▁varsinaise	-10.5127
▁Maanantain	-10.5128
▁viides	-10.5131
▁iloinen	-10.5131
▁Carolina	-10.5132
eva	-10.5137
▁tammikuu	-10.514
esi	-10.5145
moottori	-10.5146
▁Mattila	-10.5148
▁pila	-10.5148
▁erikseen	-10.5149
▁ineen	-10.5152
▁lähetyksessä	-10.5154
▁sairaude	-10.5155
▁aluetta	-10.5157
▁kiristy	-10.5159
▁Todell	-10.5163
▁kovasti	-10.5163
▁Ensimmäisen	-10.5168
tonta	-10.5173
▁voimakas	-10.5178
▁vuodet	-10.5179
hei	-10.5189
▁Lappi	-10.5192
hr	-10.5193
▁isännöi	-10.5198
▁tavat	-10.5201
▁kaatoi	-10.5202
tettävä	-10.5205
▁sadan	-10.5206
▁esitteli	-10.5206
ers	-10.5207
▁kuolle	-10.5207
▁vastaavi	-10.5208
▁ajalla	-10.5209
▁paljasta	-10.5212
▁huima	-10.5215
▁Leo	-10.5216
▁kiinnostava	-10.5217
▁määrin	-10.5218
▁huomion	-10.5218
▁Arvo	-10.5219
▁Mai	-10.5219
▁havainno	-10.522
▁viimeiset	-10.5226
▁olosuhtei	-10.5227
▁alkuun	-10.5229
▁torjunta	-10.523
▁16-	-10.5232
▁Arttu	-10.5233
▁huhtikuu	-10.5238
▁pääministerin	-10.5239
lasku	-10.5241
▁kunti	-10.5244
▁All	-10.5246
▁Sai	-10.5247
▁ulkona	-10.525
▁hevonen	-10.525
▁sukupuoli	-10.525
▁järjestetty	-10.5251
▁näyttävät	-10.5255
▁tiennyt	-10.5256
▁rintama	-10.5259
W	-10.5266
aatti	-10.5267
▁Cupi	-10.527
▁sisko	-10.5274
▁neliö	-10.5274
▁1990-	-10.5275
▁iskun	-10.5275
▁seurata	-10.5276
▁puoliväli	-10.5279
▁olle	-10.528
▁saari	-10.5283
▁ranskalais	-10.5285
▁surulli	-10.5292
▁iselta	-10.5296
läinen	-10.5297
▁Granlund	-10.5299
▁täältä	-10.5299
▁menevät	-10.5303
▁Eero	-10.5306
▁istuva	-10.5306
▁Rinne	-10.5307
▁nap	-10.5308
neuvosto	-10.531
▁pula	-10.5311
▁katsotaan	-10.5311
▁kaatu	-10.5317
▁uskoa	-10.5318
▁Juhani	-10.532
▁kuolema	-10.5322
▁Puolustus	-10.5323
▁äänistä	-10.5326
kauden	-10.5331
▁työryhmä	-10.5332
▁iskuja	-10.5333
▁helmikuu	-10.5336
▁käyttäji	-10.5337
▁Torstain	-10.5339
▁selvittä	-10.5342
▁rajaa	-10.5344
bra	-10.5344
▁vaihtu	-10.5347
▁ison	-10.5347
▁Benjamin	-10.5347
utuu	-10.5348
▁harvinaise	-10.535
▁Muista	-10.536
▁59	-10.5361
▁kyseise	-10.5362
▁perusteli	-10.5363
▁2018.	-10.5366
Venäjä	-10.5367
▁syttyi	-10.5369
▁virasto	-10.537
▁alueita	-10.5375
▁Ensin	-10.5376
▁Toni	-10.538
▁0,	-10.538
▁iltana	-10.5381
▁uudelle	-10.5391
▁lau	-10.5394
▁Puolue	-10.5396
▁hyökkäsi	-10.5396
▁Kärpät	-10.5396
▁vaadi	-10.5397
▁odotettu	-10.5397
▁sanat	-10.5398
▁Muutama	-10.5398
▁Liettua	-10.54
▁kuussa	-10.54
▁kaukana	-10.5401
▁epäiltynä	-10.5405
▁Col	-10.5406
iikka	-10.5406
▁nuoren	-10.5409
▁varuste	-10.5414
▁paikkaan	-10.5417
▁Dallas	-10.5417
▁ihmisille	-10.5419
▁Asu	-10.5421
▁näytö	-10.5423
▁rakas	-10.5423
▁do	-10.543
▁mitenkään	-10.5431
▁nimet	-10.5433
▁rangaistus	-10.5435
▁joutuva	-10.5436
▁tiuk	-10.5439
▁synny	-10.544
reita	-10.5441
▁Ase	-10.5443
▁tarkist	-10.5446
▁kustannus	-10.5446
▁analysoi	-10.5446
▁Käytännö	-10.5446
▁Taylor	-10.5446
▁viivästy	-10.5446
▁ihastu	-10.5446
▁Laulaja	-10.5446
▁korosti	-10.5446
▁päivystävä	-10.5446
▁Rehn	-10.5448
▁demokraattie	-10.5451
▁omistaji	-10.5454
▁selle	-10.5455
),	-10.5459
▁hanke	-10.5461
▁kohteena	-10.5462
▁useamman	-10.5463
▁jälke	-10.5464
▁katko	-10.5464
poli	-10.5466
▁kovia	-10.5467
▁Mel	-10.547
▁9,	-10.5471
▁istuu	-10.5471
nnettiin	-10.5472
▁peruna	-10.5475
▁Helsinkiin	-10.5484
▁keika	-10.5485
▁Häkkänen	-10.5495
▁Käärijä	-10.5495
▁yhdellä	-10.5495
▁SaiPa	-10.5496
▁länsimai	-10.5496
▁Vainio	-10.5498
▁Tii	-10.5499
isu	-10.5499
line	-10.55
▁kannattaji	-10.5504
▁vastannut	-10.5507
▁näkynyt	-10.551
▁mielellä	-10.5515
▁velje	-10.5515
▁kilpailija	-10.5522
▁vaarallise	-10.5522
▁anna	-10.5524
▁ääniä	-10.5525
▁terrori	-10.5526
▁Rovaniemellä	-10.5527
▁minuutilla	-10.5527
▁kiinnittä	-10.5528
▁rohkea	-10.5533
▁kyy	-10.5534
▁sytty	-10.5535
▁raivo	-10.5536
▁Haaviston	-10.5538
▁tilaisuude	-10.5538
▁heittä	-10.5538
▁saira	-10.5539
▁von	-10.5543
▁sekin	-10.5545
▁julkaista	-10.5545
▁kustannukset	-10.5545
▁työskenteli	-10.5545
▁Sofia	-10.5545
▁Elokuva	-10.5545
▁pääasia	-10.5546
▁NBA	-10.5546
▁pelaamise	-10.5548
▁mien	-10.5548
▁mäen	-10.555
▁Vero	-10.5551
▁Kerttu	-10.5554
▁leikkaa	-10.5556
mätön	-10.5559
ryhmän	-10.556
▁mahdollisuudet	-10.5561
▁Hamas	-10.5562
▁napa	-10.5563
lukuun	-10.557
▁omistama	-10.5572
▁Kuopio	-10.5573
▁raporti	-10.5573
▁Rei	-10.5574
▁tuulet	-10.5575
▁Radio	-10.5575
▁suorana	-10.5579
par	-10.5581
▁valitsi	-10.5582
▁varoittaa	-10.5583
saare	-10.5583
raja	-10.5588
▁millaisi	-10.5588
▁loistava	-10.5589
▁jäänee	-10.5589
▁erilainen	-10.5592
▁edustus	-10.5595
▁drooni	-10.5595
▁Jalkapallo	-10.5595
▁Jorma	-10.5595
▁konflikti	-10.5595
▁Tutkimukse	-10.5597
▁Victoria	-10.5597
▁paran	-10.5597
▁kuljettajan	-10.5598
▁Onnettomuus	-10.5599
▁tul	-10.5599
▁kohtei	-10.5602
▁sähkön	-10.5602
▁Aleksi	-10.5604
▁ongelmi	-10.5605
▁Ir	-10.5605
▁Nurmi	-10.5606
▁asuin	-10.5606
▁välittä	-10.5608
▁kerty	-10.5609
▁tunteita	-10.5615
▁Summa	-10.5618
▁AC	-10.562
maiden	-10.5622
uuteen	-10.5624
▁seitsemä	-10.5624
▁taji	-10.5627
▁sanoma	-10.5629
▁Kuninga	-10.5631
▁häly	-10.5641
▁puheenjohtajana	-10.5641
▁Vih	-10.5645
▁Viimeise	-10.5645
▁mahtava	-10.5645
▁tarvittaessa	-10.5646
▁syöttö	-10.5647
▁tapo	-10.5649
▁Leino	-10.5652
▁tyly	-10.5652
▁kotonaan	-10.5653
▁mielen	-10.5656
▁30.	-10.5657
▁valmenta	-10.5661
▁asevoimi	-10.5664
▁kuitta	-10.5664
▁kehuu	-10.5668
▁staan	-10.5672
päivi	-10.5677
▁koulutukse	-10.5677
ajia	-10.5678
▁teollisuude	-10.5681
▁kehu	-10.5681
▁luona	-10.5685
▁torstain	-10.5687
rah	-10.5687
▁seudulla	-10.569
▁kokoomus	-10.5696
▁aikoihin	-10.5696
▁Lehtikuva	-10.5697
▁kaudelle	-10.5697
▁8,	-10.5698
▁annetaan	-10.5698
▁perustelee	-10.5698
▁edellis	-10.5699
▁lähtevä	-10.5699
▁täys	-10.5699
▁harkit	-10.57
▁yhdeksä	-10.5701
▁harha	-10.5702
▁Emma	-10.5704
▁toiminnassa	-10.5704
▁lähteiden	-10.5708
▁jy	-10.571
▁Jotk	-10.5717
▁henkilöt	-10.5725
▁kokouksen	-10.5726
▁järkyttävä	-10.5727
▁vaaran	-10.5728
▁kg	-10.573
▁poikaa	-10.5734
▁olevia	-10.5734
▁valko	-10.5738
▁tarpeen	-10.5741
▁Mie	-10.5743
▁jäte	-10.5744
ukku	-10.5746
▁Lounais	-10.5748
▁Prinsessa	-10.5748
▁alkanee	-10.5748
▁kaupall	-10.5748
▁tuloksia	-10.5749
▁puuttu	-10.575
▁Tervo	-10.575
▁kaunis	-10.575
▁Ilkka	-10.5751
▁Juuri	-10.5752
▁Järvi	-10.5754
▁sade	-10.5755
▁Bre	-10.5756
▁2005	-10.5757
▁tue	-10.5759
▁ajava	-10.5764
mestari	-10.5767
15	-10.5768
▁26.	-10.577
▁kiista	-10.5771
▁tottu	-10.5773
▁syövä	-10.5778
keli	-10.5781
▁Toisen	-10.5782
▁Kr	-10.5783
▁yritykse	-10.5784
▁parhaiten	-10.5787
▁Fe	-10.5788
▁vaihtoehtoja	-10.5788
emp	-10.5797
▁harrastus	-10.5798
▁fiilis	-10.5798
▁hymy	-10.5798
▁lisäänty	-10.5798
▁rahoitukse	-10.5798
▁asioihin	-10.5798
▁Kärppi	-10.5799
▁pilvi	-10.5799
▁korvaus	-10.58
tyi	-10.5803
▁virallise	-10.5803
▁Pol	-10.5804
▁vietti	-10.5805
▁oy	-10.5809
▁haju	-10.581
▁teollisuus	-10.581
▁maalilla	-10.5811
▁työskentelevä	-10.582
▁johdon	-10.5823
▁lähetys	-10.5825
▁jatkossakin	-10.5828
▁kuume	-10.5828
▁päiviä	-10.5829
▁voitosta	-10.5829
▁järvi	-10.5831
▁järven	-10.5832
▁palveluita	-10.5834
▁ampuja	-10.5839
▁Vesi	-10.584
▁turma	-10.5843
▁kanssaan	-10.5845
▁käyttävä	-10.5846
▁Netanjahu	-10.5849
▁Kainuu	-10.5849
▁James	-10.5849
▁kommentteja	-10.585
▁maistu	-10.5853
▁Mail	-10.5853
▁sokeri	-10.5853
▁titteli	-10.5854
kaikkein	-10.5855
▁todettu	-10.5855
▁varautu	-10.5855
▁kuvasi	-10.5855
▁LP	-10.5856
▁äärijärjestö	-10.5856
▁hur	-10.5863
▁suuntaa	-10.5863
▁Epä	-10.5864
▁nykyistä	-10.5867
mmät	-10.5867
▁verkkosivuilla	-10.5867
▁historia	-10.5867
▁lauta	-10.5869
▁valmistaja	-10.5871
▁pelkää	-10.5873
elämä	-10.5879
▁liene	-10.588
▁puna	-10.588
▁todista	-10.588
▁taito	-10.5881
▁avun	-10.5883
▁tulvi	-10.5887
syynä	-10.589
▁verko	-10.5894
simme	-10.5895
▁Pir	-10.5898
▁lakia	-10.59
▁Hyundai	-10.59
▁oikeudenkäynni	-10.59
▁vaikuttaja	-10.5909
▁valtuusto	-10.591
▁johd	-10.5914
▁Ek	-10.5915
▁5,	-10.592
▁Esa	-10.5921
▁puheen	-10.5928
▁Vara	-10.593
we	-10.5931
▁niille	-10.5931
▁Con	-10.5931
▁Ruotsalais	-10.5932
zanne	-10.5934
▁kuulo	-10.5934
▁juonta	-10.5947
▁Rikos	-10.5948
▁pysyi	-10.595
▁yöllä	-10.595
Volodymyr	-10.5952
▁pelejä	-10.5952
▁kuorma	-10.5952
▁suklaa	-10.5952
▁turisti	-10.5953
▁Lumi	-10.5955
▁onnellis	-10.5959
▁odotti	-10.596
▁Voitto	-10.596
▁kruunu	-10.596
▁varmistaa	-10.5962
▁Ilo	-10.5963
▁tor	-10.5969
▁vapaaehtois	-10.5971
▁maton	-10.5976
▁Tiina	-10.5976
kauppa	-10.5977
▁tiistain	-10.5979
aikaan	-10.5981
▁kanslia	-10.5982
▁Bra	-10.5983
▁aseita	-10.5985
▁riita	-10.5987
▁aikuise	-10.5988
▁tulevaisuude	-10.5988
▁ääre	-10.599
▁viini	-10.599
▁selvitti	-10.5991
▁villi	-10.5993
▁2010	-10.5997
▁mällä	-10.5997
▁tte	-10.5997
▁oireet	-10.5998
▁3-	-10.5999
▁viikonloppu	-10.5999
mel	-10.6
▁liittolais	-10.6
▁Windows	-10.6004
▁kimppuun	-10.6004
▁mestaruutta	-10.6004
▁poruka	-10.6004
▁puheenvuoro	-10.6004
▁pariskunnan	-10.6005
▁SalPa	-10.6005
▁miettii	-10.6005
▁Liperi	-10.6006
▁oltava	-10.6006
▁kotois	-10.6006
▁radan	-10.6006
▁lensi	-10.6008
▁aloittee	-10.6008
▁tapahtua	-10.6015
▁työntekijöitä	-10.6017
▁Ylelle	-10.6021
▁Uude	-10.6023
keri	-10.6023
▁ylläpitä	-10.6024
▁Ruu	-10.6034
▁syntynee	-10.6034
▁yhdistys	-10.6035
▁Aamu	-10.6038
▁Lähes	-10.6038
▁tiloissa	-10.6042
▁talven	-10.6042
▁lopuksi	-10.6043
▁muodo	-10.6047
▁tele	-10.6049
▁hallin	-10.605
▁Ber	-10.605
-20	-10.6056
▁kongressi	-10.6057
▁Edmonton	-10.6057
▁diagnoosi	-10.6057
▁loukkaantunut	-10.6057
▁Kansainväli	-10.6057
▁syytteet	-10.6057
▁ehdot	-10.6058
▁Utah	-10.6059
▁markkinointi	-10.6059
▁kentän	-10.606
▁poliittisen	-10.6061
▁rauhassa	-10.6062
▁Oliver	-10.6065
▁Kansa	-10.607
▁luoda	-10.6072
▁paini	-10.6076
com	-10.6077
▁Hil	-10.6078
▁ottanee	-10.6085
▁näkyvä	-10.6087
▁kaukalo	-10.6095
▁tekni	-10.6096
▁harvoin	-10.6097
▁kysymykseen	-10.6101
kisoihin	-10.6104
ds	-10.6107
▁Yhteis	-10.6109
▁ensimmäisi	-10.6109
▁juniori	-10.6109
▁uutinen	-10.6109
▁Ty	-10.6109
▁palannut	-10.6112
▁häviä	-10.6113
▁testa	-10.6114
▁tehokka	-10.6114
▁säännö	-10.6116
▁Liike	-10.6116
▁uudistukse	-10.6124
▁IL	-10.6124
▁Mielestä	-10.6125
▁kuulustelu	-10.6129
▁siivo	-10.613
▁ostaja	-10.613
1:	-10.613
ova	-10.6134
▁sairauksi	-10.6134
▁Real	-10.6138
▁oto	-10.614
bb	-10.6142
vuus	-10.615
▁kovan	-10.6154
▁täyte	-10.6154
▁€	-10.6163
▁päässee	-10.6163
▁helppoa	-10.6165
▁kolari	-10.6168
▁nähnee	-10.6169
▁hommi	-10.6172
vil	-10.6173
▁kymmeni	-10.6174
▁tonti	-10.6177
▁taloudellise	-10.6177
▁Itävalla	-10.6181
▁puolta	-10.6182
▁edustalla	-10.6182
▁Lapsi	-10.6183
▁yritykset	-10.6192
▁25,	-10.6196
▁ur	-10.6199
▁kuolemaan	-10.62
▁voittama	-10.6202
sky	-10.6204
▁29.	-10.6205
▁toipu	-10.6208
▁paita	-10.6209
▁lentokone	-10.6209
▁Pur	-10.6214
▁hinnan	-10.6214
▁Pärmäkoski	-10.6215
▁myymälä	-10.6215
▁kauppoj	-10.6215
▁palkkio	-10.6215
▁Blue	-10.6216
▁nauti	-10.6216
▁pääsihteeri	-10.6218
▁baari	-10.6218
▁oven	-10.6221
▁ajasta	-10.6225
▁tyypi	-10.6228
▁ilmoitus	-10.623
▁Str	-10.6232
▁Paikalla	-10.6232
▁pelattu	-10.6236
▁lopet	-10.6236
▁Kaupungin	-10.6237
neeseen	-10.6238
▁tapauksi	-10.624
▁suosittu	-10.6242
▁samoi	-10.6244
▁Valo	-10.6248
▁kiitos	-10.6249
▁Maali	-10.6252
▁käyttämää	-10.6256
▁Lahti	-10.6256
▁Ant	-10.6261
lf	-10.6263
▁She	-10.6265
▁nimissä	-10.6267
▁Brasilia	-10.6269
▁vammoja	-10.6269
▁helikopteri	-10.6269
▁Paljon	-10.6269
▁Vilppaa	-10.6269
▁lapsensa	-10.6269
▁haastattelema	-10.6269
▁reuna	-10.627
▁suorasta	-10.6271
▁asianajaja	-10.6274
▁2007	-10.6274
▁tettiin	-10.6274
▁kasvo	-10.628
sku	-10.628
▁karhu	-10.6281
▁Marku	-10.6283
▁Satu	-10.6284
▁henkirikokse	-10.6284
▁risti	-10.6286
▁oo	-10.6292
▁taivaa	-10.6294
▁vuosikymmene	-10.6294
▁poistui	-10.6295
▁impi	-10.6297
▁onnettomuudessa	-10.63
uudesta	-10.6302
▁palautu	-10.6307
▁historiallise	-10.6313
▁mau	-10.6314
▁Holm	-10.6322
▁Kansainvälise	-10.6322
▁Hamilton	-10.6323
▁show	-10.6323
▁todellisuude	-10.6323
▁kirkon	-10.6323
▁sisar	-10.6324
▁osoitta	-10.6325
▁levi	-10.6325
▁Haka	-10.6326
▁Nuorte	-10.633
▁tunnissa	-10.6332
▁Lento	-10.6333
▁saatavilla	-10.6334
▁järjesti	-10.6335
▁Ura	-10.6338
umi	-10.6339
ystävänsä	-10.6339
▁riskiä	-10.634
▁strategi	-10.6343
▁loukkaantumis	-10.6345
▁kera	-10.6346
▁120	-10.6346
▁Hizbollah	-10.6349
▁Toimi	-10.6353
▁Q	-10.6357
▁kehit	-10.6359
▁Kokoomukse	-10.636
▁Vuori	-10.6361
▁up	-10.6364
▁äly	-10.6366
▁tielle	-10.6366
▁karu	-10.6367
▁Floridan	-10.6369
▁välistä	-10.637
▁ääri	-10.637
▁197	-10.6373
▁Lar	-10.6375
▁hyväksyi	-10.6376
▁nyrkkeily	-10.6377
▁vaaleja	-10.6377
▁kauhea	-10.6377
▁Lindholm	-10.6377
▁Py	-10.638
▁erää	-10.638
▁äänestäjä	-10.6382
▁Puhe	-10.6383
▁luopu	-10.6384
▁haave	-10.6384
▁Mäkinen	-10.6386
▁juhlissa	-10.6388
▁Kangas	-10.6388
▁mahdotonta	-10.6394
▁podcastissa	-10.6395
▁kirje	-10.6397
▁Alku	-10.6397
▁Risto	-10.6398
▁juusto	-10.6399
▁avoimesti	-10.64
▁suksi	-10.6402
▁Milla	-10.6403
▁Laakso	-10.6405
▁tapauksia	-10.6405
▁kasvua	-10.6405
▁mielestän	-10.6406
▁kutsuttu	-10.6406
virasto	-10.6406
▁päästö	-10.6406
▁Some	-10.6414
▁hui	-10.6416
▁herät	-10.6417
▁tehta	-10.6418
▁Eva	-10.6419
tejä	-10.6421
▁erään	-10.6422
▁todiste	-10.6427
▁opiskelu	-10.6431
▁kenraali	-10.6431
▁minusta	-10.6431
▁ajattelu	-10.6432
▁outo	-10.6433
▁Pai	-10.6433
▁suunnitelmi	-10.6434
▁Häntä	-10.6435
▁tärkeitä	-10.6437
▁korkealla	-10.6438
▁Kristi	-10.6439
▁muutto	-10.6439
▁katastrofi	-10.6439
▁näkymä	-10.6441
▁haasteita	-10.6442
▁innostu	-10.6447
▁maise	-10.6453
käyttö	-10.6455
▁tyypilli	-10.6455
▁sotaan	-10.6457
▁olosuhteissa	-10.6457
▁komea	-10.6458
▁törkeä	-10.646
▁Lehtonen	-10.6461
▁taido	-10.6464
ble	-10.6466
▁möki	-10.6467
▁järve	-10.6469
▁Kei	-10.647
▁Pohjoismai	-10.6472
▁ylittä	-10.6472
▁määrät	-10.6472
▁tode	-10.6473
kasti	-10.6476
varainministeri	-10.6478
▁tuska	-10.648
▁metri	-10.6482
▁elokuvi	-10.6482
▁katsomo	-10.6482
▁Niskase	-10.6483
▁uskalta	-10.6486
▁viitaten	-10.6486
▁iskussa	-10.6486
▁Keskustelu	-10.6486
▁Isä	-10.6487
▁Käsi	-10.6487
▁esitetty	-10.6489
▁joukkueeseen	-10.649
off	-10.6492
▁hoitoa	-10.6492
itte	-10.6493
▁täll	-10.6493
og	-10.6494
▁seen	-10.6497
▁käsitellään	-10.6497
▁mittaise	-10.6498
▁passi	-10.65
▁yhteiskunta	-10.6503
▁sydäme	-10.6503
▁elokuvan	-10.6504
▁korkeimma	-10.6504
▁hyötyä	-10.6506
▁saksalais	-10.6509
▁välttää	-10.6511
▁erosi	-10.6512
▁katosi	-10.6515
▁Olympia	-10.6517
▁arvioitu	-10.6518
▁seurassa	-10.652
▁vaikutukset	-10.6521
▁pela	-10.6526
▁eroon	-10.6526
▁Yö	-10.6528
▁ohjeist	-10.6532
▁ohjelmi	-10.6532
▁Tiktok	-10.6534
▁asunut	-10.6538
▁kehottaa	-10.6539
▁esitutkinta	-10.6541
▁huomannut	-10.6541
▁sil	-10.6541
▁kartano	-10.6543
▁Valkoise	-10.6544
▁mielenkiinto	-10.6546
▁Mak	-10.6549
▁64	-10.6549
▁Jatko	-10.6549
▁korjattu	-10.655
▁Kaiken	-10.6552
▁jengi	-10.6553
▁vaurio	-10.6557
▁vastaanotto	-10.6557
▁ravintoloi	-10.6558
▁kulki	-10.6563
▁yhtye	-10.6563
▁pidemmä	-10.6564
luokan	-10.6565
▁vuorokaude	-10.6566
▁Jyväskylän	-10.6568
▁kisaan	-10.6568
huone	-10.6573
▁Hai	-10.6577
▁lukemin	-10.658
▁villa	-10.6583
▁rahan	-10.6586
▁tennis	-10.6588
▁Prins	-10.6588
▁mat	-10.6589
▁vaatte	-10.6591
▁ammu	-10.6595
▁teknise	-10.6595
▁Englanti	-10.6596
▁Vornase	-10.6596
toisaalta	-10.6596
▁Å	-10.6596
▁puheessaan	-10.6599
▁hankinta	-10.66
eihin	-10.6601
▁kukka	-10.6601
▁kuolemasta	-10.6608
▁viestiä	-10.6608
▁Yhtä	-10.6613
▁tutkitaan	-10.6614
▁pui	-10.6616
▁virallisesti	-10.6617
▁Tim	-10.6617
eitä	-10.6626
▁sp	-10.6628
Karjala	-10.6628
▁Gar	-10.6629
▁asiantuntijoi	-10.6629
▁Tre	-10.6632
▁kallii	-10.6633
▁kysymyksiin	-10.6637
▁lintu	-10.6637
▁rikka	-10.664
▁satu	-10.6641
▁minkäänlai	-10.6642
▁Vali	-10.665
▁kaudesta	-10.6651
▁kuullut	-10.6651
▁Jalonen	-10.6652
▁apulais	-10.6654
▁alkuvuode	-10.6654
▁viimeisi	-10.6656
▁Ad	-10.6657
▁Jazz	-10.6657
▁2000	-10.6658
▁Roop	-10.6661
▁onnistunee	-10.6662
▁Meghan	-10.6663
▁Heidi	-10.6664
▁hiihtä	-10.6665
▁kierros	-10.667
▁hidas	-10.6672
▁ilmoit	-10.6676
▁kasa	-10.6677
▁ystäviä	-10.6678
▁kisoihin	-10.6679
▁isompi	-10.6681
▁rakenta	-10.6685
▁huomattava	-10.6687
▁Julia	-10.6688
▁panki	-10.669
▁autossa	-10.6691
▁yhdistää	-10.6692
▁eseen	-10.6694
▁täyde	-10.6695
maat	-10.6695
▁poltto	-10.6699
▁Joukkuee	-10.67
▁kokenee	-10.6701
▁Kut	-10.6702
▁kielto	-10.6703
▁valla	-10.6704
▁vaikeuksi	-10.6704
▁Tero	-10.6705
▁Ronaldo	-10.6707
▁Serge	-10.6707
▁pö	-10.6708
▁arvonlisävero	-10.6709
▁kauhu	-10.6711
▁vakio	-10.6716
▁sivussa	-10.6718
▁tehtävissä	-10.6718
▁vaikeuksia	-10.6718
rad	-10.672
▁remontti	-10.672
▁Rus	-10.6723
päin	-10.6723
▁kasvatti	-10.6724
▁seuraavi	-10.6725
▁hyppy	-10.6726
▁liikennettä	-10.6727
▁varmista	-10.6729
▁piir	-10.6732
▁syys	-10.6734
▁lukema	-10.6737
▁julkista	-10.674
hinta	-10.6749
▁kilpailuun	-10.6749
▁kolmi	-10.675
▁ykse	-10.6751
▁kiinnosta	-10.6751
▁läsnä	-10.6763
▁huumori	-10.6763
▁Päätös	-10.6763
▁lainsäädäntö	-10.6763
▁Kansanedustaja	-10.6764
▁tupla	-10.6764
▁rauta	-10.6764
▁2,5	-10.6764
▁aikuisi	-10.6764
▁investointi	-10.6764
▁tilanteita	-10.6766
▁Kauppa	-10.6767
talli	-10.6773
▁essaan	-10.6775
▁paina	-10.6776
▁kuluvan	-10.6777
▁edistä	-10.6777
▁sella	-10.6778
▁8-	-10.6779
kohta	-10.6782
▁hauska	-10.6785
▁ohjaus	-10.6785
▁rikki	-10.6787
oik	-10.679
▁turnauksessa	-10.679
▁Tokio	-10.6792
▁parantu	-10.6794
▁War	-10.6795
▁Simon	-10.6799
▁kokonaisuudessa	-10.6801
luu	-10.6802
▁käymään	-10.6803
▁lautakun	-10.6804
▁Lehtinen	-10.6807
▁rinnalla	-10.6808
▁z	-10.6809
▁28.	-10.6809
▁antava	-10.681
▁puhtaa	-10.681
▁tappa	-10.681
▁henkilökunna	-10.6814
▁virta	-10.6815
kuski	-10.6816
▁netti	-10.6816
▁Hollanni	-10.682
▁firma	-10.682
▁koh	-10.6821
▁kielletty	-10.6822
▁puoleen	-10.6822
▁Poika	-10.6822
▁haluan	-10.6824
▁metalli	-10.6825
▁työpaikka	-10.6826
▁Borg	-10.6826
▁metsi	-10.6827
▁Aiva	-10.6831
▁Cor	-10.6836
▁Ron	-10.6837
tor	-10.6838
▁muutokset	-10.6839
▁pääkaupungi	-10.6841
▁tuhoa	-10.6845
▁Espoossa	-10.6854
Britannia	-10.6855
▁muutoksen	-10.6855
▁kommentoida	-10.6856
maajoukkue	-10.6857
Assad	-10.6864
▁53	-10.6867
▁normaalia	-10.6868
ros	-10.6869
immista	-10.6873
▁Kuin	-10.6876
▁ylpeä	-10.6877
▁Huippu	-10.6877
Arabia	-10.6877
▁teokse	-10.6878
▁riitti	-10.6878
▁turvallisuutta	-10.6878
▁sammu	-10.6878
▁Veikkausliiga	-10.6878
▁laajasti	-10.688
▁työvoima	-10.6881
▁voimakkaa	-10.6883
▁putoa	-10.6885
▁lääkke	-10.6887
▁valossa	-10.6887
ottamaan	-10.6891
▁250	-10.6892
▁järk	-10.6893
▁Ainoa	-10.6897
▁kehui	-10.6901
▁mallia	-10.6903
▁vapautu	-10.6904
erännyt	-10.6908
▁tekemässä	-10.691
maksu	-10.6911
▁pihalla	-10.6911
laiset	-10.6914
▁cha	-10.6915
▁viiva	-10.6915
▁Finland	-10.6917
▁kuulem	-10.6917
▁jänni	-10.6918
▁maailmanmestar	-10.6918
▁yleisölle	-10.6921
▁jotakin	-10.6924
▁tuhansi	-10.6927
▁isuus	-10.693
▁hirvi	-10.6933
▁Ehdo	-10.6934
▁Group	-10.6934
▁Tuuli	-10.6934
▁potilaa	-10.6934
▁tehtäviä	-10.6934
▁ihmisoikeus	-10.6934
▁kke	-10.6935
▁lämmit	-10.6938
▁2009	-10.6939
▁2003	-10.6941
▁2006	-10.6941
▁perustuva	-10.6941
▁Erä	-10.6942
▁Juho	-10.6943
▁mahdollisia	-10.6943
▁radalla	-10.6947
▁ajeta	-10.6948
▁markkinoi	-10.6949
▁THL	-10.6951
▁Lie	-10.6952
▁palvelukse	-10.6952
▁Vasemmistoliito	-10.6953
▁medialle	-10.6955
▁Louis	-10.6957
▁mistään	-10.6962
▁hallinno	-10.6971
▁brändi	-10.6973
▁vastaavan	-10.6974
▁ohjaa	-10.6988
▁Br	-10.6989
▁inflaatio	-10.6991
▁kalenteri	-10.6991
▁syöksy	-10.6991
▁Oscar	-10.6992
▁poliisilaitokse	-10.6992
▁poikki	-10.6993
▁Oh	-10.7002
ez	-10.7004
▁tarkoitukse	-10.7006
▁poliitikko	-10.7008
▁annos	-10.701
▁poimi	-10.701
▁lleen	-10.7011
vankeusrangaistu	-10.7012
▁lahde	-10.7012
▁Pariskun	-10.7017
▁Vier	-10.7017
eita	-10.7017
oihin	-10.7023
Pekka	-10.7028
lahti	-10.703
▁Kom	-10.7032
▁195	-10.7032
▁väki	-10.7033
▁kuvaus	-10.7033
▁Pasi	-10.7033
vannut	-10.7034
▁presidenttinä	-10.7036
▁kuvissa	-10.7039
amp	-10.704
▁Raha	-10.7044
▁alijäämä	-10.7049
▁ambulanssi	-10.7049
▁liikenteessä	-10.7049
▁läheisyydessä	-10.7049
▁vaihtoehdo	-10.7049
▁mikro	-10.7049
▁draama	-10.7049
▁Macron	-10.7049
▁kuvernööri	-10.7049
▁epäillä	-10.705
▁Mylly	-10.705
▁Tausta	-10.705
▁leviää	-10.705
▁tilaisuus	-10.7051
▁nuorena	-10.7051
▁lipun	-10.7052
▁SE	-10.7052
▁pohjalta	-10.7053
▁ilmoitukse	-10.7054
▁pelaajista	-10.7056
▁valtavasti	-10.7059
▁piikki	-10.7059
▁12,	-10.706
gren	-10.7062
▁ryhty	-10.7064
▁teos	-10.7066
▁ampumise	-10.7067
▁tavoittele	-10.7068
▁teillä	-10.7069
▁aiemminkin	-10.7069
▁Kaude	-10.707
▁tulot	-10.707
▁kuude	-10.7071
▁pul	-10.7071
▁62	-10.7072
▁kulut	-10.7072
▁juurikaan	-10.7074
▁Afrika	-10.7074
▁9-	-10.7077
▁194	-10.708
▁pakka	-10.7081
▁näyte	-10.7083
▁Esko	-10.7083
▁käsin	-10.7084
▁teille	-10.7084
ump	-10.7085
▁esitystä	-10.7085
asiantuntija	-10.7087
▁uus	-10.7087
▁kielen	-10.7091
▁Sar	-10.7091
▁asunnossa	-10.7099
▁ennätykse	-10.7102
▁kaapeli	-10.7102
▁elämästä	-10.7104
▁viile	-10.7105
▁Koivisto	-10.7107
▁Yhdysvaltoihin	-10.7107
▁laittoi	-10.7107
▁johdolla	-10.7107
▁temppu	-10.7108
▁yllätyksenä	-10.7109
▁säännöllisesti	-10.711
▁laskenut	-10.7112
▁kilpailijoi	-10.7112
▁Heikkilä	-10.7112
▁uha	-10.7113
2-	-10.7114
▁infrastruktuuri	-10.7114
▁vaatimus	-10.7115
▁merkit	-10.7115
▁Bro	-10.7117
▁lopetti	-10.7118
▁tarvinn	-10.7118
öiden	-10.7119
▁imma	-10.7119
▁sopimusta	-10.7125
▁asiakkaita	-10.7128
tomia	-10.7129
▁pahoinpitelystä	-10.7133
▁puolilla	-10.7137
▁Sala	-10.7148
▁paikallista	-10.7152
▁turvallis	-10.7157
▁Ze	-10.716
▁kaupunkiin	-10.7164
▁Kommentti	-10.7166
▁myynnissä	-10.7166
▁tykkää	-10.7166
▁Samuli	-10.7166
▁ratkaisuja	-10.7168
▁poseeraa	-10.7168
▁komp	-10.7169
▁kauteen	-10.7169
▁eurooppalais	-10.7169
kultaa	-10.7169
▁kuljetus	-10.7169
▁seurakunna	-10.717
▁Kello	-10.7172
▁erinomai	-10.7173
▁ryöstö	-10.7174
▁Iran	-10.7176
▁myyntiin	-10.7178
▁asunnosta	-10.7179
▁Apu	-10.7179
▁vankila	-10.7179
kkaasti	-10.718
▁Kakko	-10.7183
▁Minn	-10.7184
▁mittari	-10.7187
▁suuremma	-10.7187
▁vuodelle	-10.7188
▁tumma	-10.7189
mos	-10.719
▁Lasten	-10.7193
▁25-	-10.7194
läis	-10.7196
▁lukien	-10.7197
▁päätty	-10.7201
▁lautakunna	-10.7205
▁Sain	-10.7208
▁Anttila	-10.7211
▁julkaise	-10.7211
▁käsitellä	-10.7213
▁pitkiä	-10.7213
▁valiokunta	-10.7214
▁tumise	-10.7215
▁löyty	-10.7217
▁kirjoittama	-10.7218
▁sisäise	-10.722
▁tärkein	-10.722
▁ruumis	-10.7222
▁budjeti	-10.7225
▁yhdistelmä	-10.7225
▁Frederik	-10.7225
▁tähdet	-10.7225
▁Kemi	-10.7225
▁pormestari	-10.7225
sivusto	-10.7226
▁Helander	-10.7228
▁77	-10.7233
▁politiikassa	-10.7234
▁koskevi	-10.7234
▁hauda	-10.7235
▁Pelto	-10.7235
▁tuotteet	-10.7239
▁tyy	-10.7244
▁sovittu	-10.7245
▁politiikka	-10.7246
▁tulle	-10.7249
▁jolle	-10.725
▁terveydenhuollo	-10.7254
▁Tom	-10.7257
▁keinoja	-10.7265
▁3-1	-10.7266
▁rajusti	-10.7272
ness	-10.7272
▁hovioikeu	-10.7273
▁Moskovan	-10.7273
▁vähemmistö	-10.7274
▁lavalle	-10.7274
▁työntekijöi	-10.728
▁Turku	-10.7282
▁Huuhkaji	-10.7284
▁sukupolve	-10.7284
▁hyvinvoinni	-10.7284
▁kadonnut	-10.7284
▁Pietari	-10.7284
▁suurlähetystö	-10.7284
▁Toveri	-10.7285
▁ruu	-10.7286
▁ehto	-10.7286
▁Tila	-10.7289
▁Toisin	-10.7292
▁Sol	-10.7293
utensa	-10.7294
nnassa	-10.7295
▁vakuut	-10.7295
▁tonni	-10.7295
▁ope	-10.7297
▁osaamista	-10.7302
▁or	-10.7302
▁väl	-10.7306
▁sairas	-10.7306
▁puuttuu	-10.731
▁ryhmään	-10.7311
kkö	-10.7312
▁tulva	-10.7313
▁käytökse	-10.7315
▁putke	-10.7316
▁instituuti	-10.7316
▁suomalaisille	-10.7316
▁käytös	-10.7318
▁kahvila	-10.7327
▁vetoa	-10.7329
▁Tuomio	-10.733
▁autot	-10.7331
▁elokuvassa	-10.7336
▁siirtymä	-10.7343
▁Kaupunki	-10.7343
▁pörssi	-10.7343
▁sektori	-10.7343
▁muusikko	-10.7343
▁mielenterveys	-10.7343
▁kaikesta	-10.7344
▁otteeseen	-10.7344
▁lopputulos	-10.7345
▁yhteyden	-10.7345
▁osu	-10.7345
▁mitkä	-10.7348
▁Turkki	-10.7349
ill	-10.7349
▁edistää	-10.735
▁listalla	-10.7351
▁suori	-10.7352
▁laatiko	-10.7356
▁+1	-10.7358
▁kentälle	-10.736
▁velka	-10.7365
▁hallinta	-10.7366
▁aikoja	-10.7366
▁tarkastus	-10.7367
ling	-10.7369
koski	-10.7372
vero	-10.7375
▁viidenne	-10.7378
▁Someron	-10.7379
▁harmaa	-10.738
▁täytty	-10.738
▁saataisi	-10.7382
▁asukkaat	-10.7382
ney	-10.7388
▁kyseisen	-10.7391
▁vää	-10.7391
▁Sosiaali	-10.7391
▁yhtäkki	-10.7392
▁tekijöi	-10.7393
▁miehensä	-10.7395
▁edustajat	-10.7397
▁puhdista	-10.7398
▁Norjassa	-10.7398
▁vastuuta	-10.7398
▁ratke	-10.7399
kkaita	-10.74
▁kymppi	-10.7402
í	-10.7403
▁ylsi	-10.7403
▁vakuuttaa	-10.7405
▁Itävalta	-10.7406
▁tiede	-10.7408
▁Romania	-10.7409
▁toistuvasti	-10.741
▁2004	-10.741
▁nosto	-10.7412
▁toimimaan	-10.7414
▁koostu	-10.7417
▁ihmisistä	-10.7419
▁päädy	-10.742
▁käytävä	-10.7422
▁hätäkeskukseen	-10.7423
▁kappaleen	-10.7423
▁opetta	-10.7425
▁tulevaa	-10.7426
▁pop	-10.7428
▁mia	-10.7428
▁tra	-10.743
▁tuule	-10.7432
▁näytä	-10.7433
▁kyydissä	-10.7444
▁24.	-10.7445
hopea	-10.7446
▁Jere	-10.7449
oissa	-10.7452
▁tarka	-10.7452
▁Guardian	-10.7453
▁lavalla	-10.7456
▁vastata	-10.7457
▁tutkimuksessa	-10.746
▁Sun	-10.7461
gar	-10.7462
▁Sauvo	-10.7463
▁Kreika	-10.7463
▁Harkova	-10.7464
▁KuPS	-10.7464
miel	-10.7464
▁pätkä	-10.7464
▁kautensa	-10.7465
tellen	-10.7466
isuuden	-10.7466
▁Kulta	-10.7467
▁ryhmässä	-10.7467
uksessa	-10.7467
▁oikeuksi	-10.7468
▁yrityst	-10.7469
▁Israeliin	-10.747
▁taloutta	-10.747
▁Johnson	-10.7472
▁vedet	-10.7472
▁Hinta	-10.7474
▁Venäjältä	-10.7475
▁mainittu	-10.7476
▁vieraana	-10.7481
▁kka	-10.7486
▁aste	-10.7491
▁Sota	-10.7495
▁nuorille	-10.7498
▁Voima	-10.7499
▁Kaikko	-10.7499
▁oppilaa	-10.7501
▁Ihmis	-10.7503
▁sijalle	-10.7506
▁litra	-10.7506
▁Nuori	-10.7506
▁Tällaise	-10.7513
▁ehdolla	-10.7513
kulku	-10.7514
▁sanovat	-10.7514
▁ehdotus	-10.7515
▁Elon	-10.7516
▁nousevat	-10.7517
▁alkunsa	-10.7518
▁25.	-10.7518
iemen	-10.7519
▁laajenta	-10.752
▁voimaa	-10.752
▁uudistu	-10.752
▁laista	-10.7521
▁peruu	-10.7521
▁Jyrki	-10.7524
▁juhannus	-10.7524
▁George	-10.7524
▁yhdestä	-10.7524
▁maraton	-10.7524
▁olosuhteet	-10.7524
▁laituri	-10.7525
▁Seiska	-10.7525
▁haastattel	-10.7525
▁leima	-10.7526
▁syytteen	-10.7526
▁vaikeutta	-10.7527
▁susi	-10.7527
▁Henkilö	-10.7527
▁peräisi	-10.7532
▁eroja	-10.7532
▁kunnassa	-10.7533
▁pisteellä	-10.7538
▁norjalais	-10.7541
▁Otto	-10.7542
▁ratkaista	-10.7542
saari	-10.7545
▁käsitys	-10.7546
▁periaattee	-10.7546
▁perintei	-10.7546
▁täydelli	-10.7548
▁keskustelun	-10.755
▁(19	-10.7551
▁koru	-10.7551
▁keh	-10.7553
▁asemassa	-10.7554
▁opiskelijoi	-10.7554
▁käytiin	-10.7561
▁prosentilla	-10.7567
▁kylän	-10.7568
▁Pri	-10.7571
▁isyyde	-10.7574
ksestä	-10.7576
intään	-10.7577
▁KHL	-10.7585
▁Ottawa	-10.7585
▁Belgia	-10.7585
▁juttuja	-10.7585
▁Kevää	-10.7585
▁toivei	-10.7587
▁kokeilu	-10.7587
▁syytti	-10.7587
▁pyöräily	-10.7587
▁pistä	-10.7588
▁GP	-10.7589
▁kirkko	-10.7589
▁varoitti	-10.7592
▁Lassila	-10.7595
▁näkemään	-10.7595
▁vakavia	-10.7597
▁muilla	-10.7598
▁samanlai	-10.7599
lander	-10.7599
▁Matia	-10.76
▁jumi	-10.7601
▁Chi	-10.7602
95	-10.7603
▁Paras	-10.7604
▁tun	-10.7605
▁keskiarvo	-10.7605
▁saldo	-10.7605
▁tarken	-10.7608
▁ratkaisua	-10.7613
syy	-10.7613
▁lukee	-10.7614
▁suhteellise	-10.7614
▁kirkka	-10.7615
oilla	-10.7618
▁63	-10.762
▁auttama	-10.7623
▁vanhempa	-10.7627
▁Kirsi	-10.7629
▁Lainee	-10.7629
▁keskiviikko	-10.7632
▁helpot	-10.7633
▁harva	-10.7639
▁Palestiina	-10.7646
▁huomenna	-10.7646
▁parisuhtee	-10.7646
▁Hakkarai	-10.7646
▁väylä	-10.7646
▁tuhanne	-10.7647
▁lentopallo	-10.7647
▁yksityiskohta	-10.7647
▁suosittele	-10.7648
▁olympialaisiin	-10.7649
▁rakentaminen	-10.7655
▁ohjelmaa	-10.7658
▁valu	-10.7658
▁toden	-10.766
▁oikeuteen	-10.7661
▁ladat	-10.7669
▁terroristi	-10.767
▁pysyä	-10.7671
▁95	-10.7677
▁äänen	-10.768
▁Keto	-10.7682
Mukana	-10.7684
kkala	-10.7685
▁vankeus	-10.7686
▁odot	-10.7686
▁otteluissa	-10.7688
▁lupasi	-10.7689
▁Kemin	-10.7691
▁syytety	-10.7694
▁käytä	-10.7695
▁vire	-10.7695
▁ellä	-10.7695
▁pöytä	-10.7696
▁rakente	-10.7697
▁venee	-10.7701
▁aktiivisest	-10.7703
▁2-0	-10.7706
▁27.	-10.7707
▁päivystykse	-10.7708
▁luksus	-10.7708
▁kaupassa	-10.7708
▁avain	-10.7708
▁kokemuksia	-10.7709
▁tekniikka	-10.7709
▁mainitsee	-10.7709
▁varoi	-10.7711
▁valtaosa	-10.7712
▁;	-10.7712
▁yksikkö	-10.7713
▁Miest	-10.7714
▁x	-10.7715
▁haj	-10.7715
▁Laki	-10.7715
▁tehdas	-10.7717
▁tarkkaan	-10.7718
kkasi	-10.7718
▁74	-10.7718
▁ruoan	-10.7718
uransa	-10.7719
▁76	-10.7719
▁Paavo	-10.7721
▁Ralli	-10.7722
▁kesto	-10.7723
▁palkat	-10.7723
▁sivat	-10.7723
▁kannattaja	-10.7723
▁muutakin	-10.7727
▁kestänyt	-10.7729
▁manageri	-10.773
▁pakkase	-10.7731
▁kiistää	-10.7733
▁Konsta	-10.7734
▁tieltä	-10.7735
▁soittaa	-10.7737
▁yhdisty	-10.7744
▁Kär	-10.7745
▁99	-10.7752
▁loppua	-10.7753
▁joutua	-10.7754
mpänä	-10.7755
▁mukaise	-10.7755
▁Valta	-10.7756
▁Tukholma	-10.776
▁esine	-10.7761
▁tasku	-10.7766
▁Toivon	-10.7766
▁data	-10.7766
▁Naise	-10.7767
▁puolustaa	-10.7767
▁avustus	-10.777
▁Elokapina	-10.777
▁UMK	-10.777
▁vastaajista	-10.777
▁Christian	-10.777
▁taminen	-10.7771
▁Koke	-10.7771
▁Fox	-10.7773
▁luottaa	-10.7773
▁penki	-10.7774
▁Susanna	-10.7775
▁Yleisö	-10.7776
tiettävästi	-10.7777
▁tein	-10.778
▁kuultu	-10.7785
▁vieti	-10.7786
▁korko	-10.7786
▁live	-10.7787
▁3-2	-10.7788
▁1980-	-10.779
▁saattaisi	-10.7792
▁parane	-10.7793
▁muodossa	-10.7794
▁matkustaji	-10.7796
mmista	-10.7797
▁tunsi	-10.7798
▁tekisi	-10.7799
vihr	-10.7799
▁Edell	-10.78
▁Ram	-10.78
▁pääsarja	-10.7801
▁30-	-10.7803
llisuus	-10.7804
▁tehtävään	-10.7807
▁sito	-10.7813
▁avusta	-10.7815
▁Jaakko	-10.7816
▁]	-10.7817
▁toistu	-10.7817
▁keskiviikon	-10.7818
▁hallituksessa	-10.7823
▁bu	-10.783
▁Alex	-10.7833
▁Tynkky	-10.7833
▁Thaimaa	-10.7833
▁löydy	-10.7833
▁Selänne	-10.7833
▁lämmö	-10.7833
▁Korhonen	-10.7833
▁välille	-10.7833
▁Kiitos	-10.7834
▁Jokela	-10.7836
▁strategia	-10.7837
sessa	-10.7839
▁Usko	-10.784
▁sotilaita	-10.7841
▁66	-10.7843
▁hakemukse	-10.7846
▁luoki	-10.7847
▁yhteisen	-10.7848
▁Savo	-10.7848
▁valkoise	-10.7852
▁kulkeva	-10.7852
▁vastaavaa	-10.7853
▁vakaa	-10.7853
▁Koskinen	-10.7854
▁johtu	-10.7854
▁erikoi	-10.7856
pur	-10.7862
▁teitä	-10.7863
▁vaihde	-10.7864
▁19-	-10.7865
▁ellei	-10.7866
▁tutkintaa	-10.7867
▁tekemise	-10.7868
rangaistukseen	-10.7871
▁vaikutuksen	-10.7874
▁kierrokselle	-10.7875
▁aikuist	-10.788
▁hermo	-10.7881
▁Areena	-10.7887
▁hinna	-10.7892
▁Rooma	-10.7892
▁korkein	-10.7892
▁Itämere	-10.7894
suo	-10.7894
о	-10.7896
▁hiihdo	-10.7896
▁puutarha	-10.7896
▁pettymys	-10.7896
▁verenpaine	-10.7896
lehdelle	-10.7899
▁Pidä	-10.79
▁tavoitti	-10.7902
▁käynni	-10.7902
▁riittänyt	-10.7903
▁työntekijää	-10.7908
▁keskenään	-10.7908
▁Tavoitteen	-10.7909
▁henkeä	-10.7911
▁salolais	-10.7912
ec	-10.7915
▁katsoma	-10.7917
▁toimittajan	-10.7917
▁Kuusi	-10.7918
▁tietävät	-10.792
▁reitti	-10.792
▁pääsiäis	-10.7921
▁laati	-10.7922
▁metsästä	-10.7923
▁marja	-10.7929
▁kodissa	-10.7935
▁tavi	-10.7944
▁minuutti	-10.7946
▁hauta	-10.7948
kylä	-10.7951
päivänä	-10.7953
▁latu	-10.7955
tietojen	-10.7955
▁nauraa	-10.7956
▁päivällä	-10.7956
▁takavarikoi	-10.7959
▁Eduskunna	-10.7959
oistaiseksi	-10.7959
▁selväksi	-10.796
▁aikova	-10.7961
lohko	-10.7961
▁huuta	-10.7962
▁Ranskassa	-10.7962
▁pyri	-10.7962
▁Suomella	-10.7963
▁Ylä	-10.7967
joukkue	-10.7967
▁Harala	-10.7967
▁viralli	-10.7967
▁ratkaisun	-10.7968
▁valitaan	-10.7968
vall	-10.7969
▁Alle	-10.797
▁painaa	-10.7972
▁toiminna	-10.7981
▁kehotti	-10.7984
▁kertomaan	-10.7984
▁sisältö	-10.7985
▁mainits	-10.7993
▁maisema	-10.7994
▁vyö	-10.7996
▁korja	-10.7998
▁tarkkaa	-10.7999
▁hidasta	-10.8002
▁Star	-10.8004
▁esiintymis	-10.8005
valtuusto	-10.8005
cu	-10.8007
▁erikoise	-10.8007
rov	-10.8007
▁Paika	-10.8008
tappio	-10.8008
▁ilmestyi	-10.8009
poikkeuksellinen	-10.8011
▁luke	-10.8014
▁hyppää	-10.8018
▁kieltää	-10.802
▁uudistus	-10.802
▁Simo	-10.8021
▁Slovenia	-10.8023
▁Traficom	-10.8023
▁viittasi	-10.8023
lvi	-10.8024
▁riveissä	-10.8024
▁pääkaupunki	-10.8024
▁törkeän	-10.8024
▁Mah	-10.8025
▁vitsi	-10.8026
▁rahoitusta	-10.8027
▁ansa	-10.8027
▁asiakkaide	-10.8027
▁saavutti	-10.803
▁musti	-10.803
▁vaaraa	-10.8031
▁toimittaji	-10.8033
▁Niemi	-10.8033
▁Hol	-10.8037
▁vapaan	-10.8037
▁laida	-10.8041
▁selviä	-10.8043
▁Alue	-10.8044
▁tehtävää	-10.8045
ostetaan	-10.8048
llisuutta	-10.8048
alueella	-10.8049
▁uutisoitiin	-10.8049
▁Pen	-10.8052
▁rakentee	-10.8054
uhki	-10.8055
▁henge	-10.806
▁antamaa	-10.806
▁keskeisi	-10.8061
▁kirjeen	-10.8062
▁puhetta	-10.8065
▁lähdössä	-10.8069
▁Oikeuden	-10.807
▁palautta	-10.8071
▁seksuaalisest	-10.8074
▁syyt	-10.8075
▁tehtävän	-10.8075
▁kohtaamise	-10.8078
▁juoksija	-10.8084
▁aseman	-10.8085
▁sisältöä	-10.8086
▁edetessä	-10.8087
▁tilaisuuksi	-10.8087
▁miehestä	-10.8087
▁Kolmanne	-10.8087
▁avioero	-10.8087
▁rehtori	-10.8088
▁lähipiiri	-10.8088
▁Vilpas	-10.8088
▁sprintti	-10.8089
▁isuutta	-10.8089
▁ylipäätä	-10.809
▁valmiita	-10.809
▁uuni	-10.8091
▁Wilma	-10.8092
▁vähite	-10.8094
▁kadonnee	-10.8096
▁kolma	-10.8097
▁takaise	-10.8098
▁pelistä	-10.8098
▁sotilaallise	-10.8099
▁27,	-10.8099
▁osaksi	-10.8101
▁varmistu	-10.8103
ica	-10.8104
timme	-10.8107
▁72	-10.8108
▁yrittäji	-10.8109
▁muuttua	-10.8109
▁työpaika	-10.8111
▁Vantaalla	-10.8112
▁vaarassa	-10.8112
▁reilusti	-10.8112
▁energiaa	-10.8118
ilijä	-10.8124
▁omais	-10.8127
▁pakolais	-10.8129
▁rento	-10.8129
▁rauhoit	-10.8132
▁artikkelissa	-10.8133
▁Ism	-10.8134
▁kohen	-10.8134
▁United	-10.8145
▁ajatuksia	-10.8147
▁maailmalla	-10.8148
▁Maija	-10.8149
▁vel	-10.815
▁propaganda	-10.8151
▁kuohu	-10.8151
▁tuoksu	-10.8151
▁syyttäjän	-10.8151
▁päiväkodi	-10.8151
▁poissaolo	-10.8152
▁Toimittaja	-10.8152
▁ker	-10.8152
▁supertähti	-10.8153
▁syötö	-10.8153
▁hyökkäyssoda	-10.8155
▁esitetään	-10.8157
▁sujui	-10.8158
▁ZUMA	-10.8159
▁67	-10.816
▁68	-10.8161
▁ehdi	-10.8161
▁Mike	-10.8161
▁lajei	-10.8161
vuotiaita	-10.8165
▁summaa	-10.8167
▁tulkit	-10.8169
▁miehistä	-10.817
▁Yorkissa	-10.8175
lahde	-10.8177
▁säätiö	-10.8178
ettaisiin	-10.8178
▁Hö	-10.8181
▁kiinnostunut	-10.8181
▁Ch	-10.8181
▁valin	-10.8183
▁mpaa	-10.8184
▁Raja	-10.8187
▁Korja	-10.819
▁Tv	-10.8193
▁päästään	-10.8201
turvallisuuden	-10.8202
▁Fu	-10.8207
▁Tee	-10.8209
▁Hovi	-10.8211
▁neljänne	-10.8213
▁Eduskunta	-10.8215
▁vanki	-10.8215
▁Tsheki	-10.8216
▁havaittiin	-10.8216
▁leikkaukset	-10.8216
▁pimeä	-10.8217
▁vaalea	-10.8217
▁palatsi	-10.8217
▁Camilla	-10.8219
▁kuule	-10.822
▁korjata	-10.8222
▁Pikku	-10.8224
▁kirjaa	-10.8228
▁viestinnä	-10.823
▁pyrkivä	-10.8233
▁määräsi	-10.8233
▁hallitseva	-10.8233
▁havainto	-10.8234
▁ajatteli	-10.8236
▁joukkueet	-10.8238
▁ruumiin	-10.8239
▁keskelle	-10.824
▁elo	-10.8242
▁alkoholia	-10.8249
▁Ajo	-10.8254
▁vauhdi	-10.8261
▁Lotta	-10.8263
▁taloon	-10.8263
▁kohteita	-10.8265
▁laukais	-10.8266
▁Gre	-10.8272
▁hampa	-10.8272
neitä	-10.8272
▁oikeisto	-10.8273
▁Tällaisi	-10.8275
▁tukema	-10.8278
▁yksittäisi	-10.828
▁peräkkäin	-10.8281
▁julista	-10.8282
▁liiketoiminta	-10.8282
▁Halonen	-10.8282
▁Muu	-10.8283
▁viihde	-10.8283
▁kaven	-10.8283
▁keskimääräi	-10.8283
▁ilmapiiri	-10.8283
▁harjoituksissa	-10.8283
▁perheelle	-10.8283
▁ajalta	-10.8284
PA	-10.8284
▁väitteitä	-10.8284
▁Vance	-10.8284
▁Ford	-10.8285
▁muualle	-10.8286
▁huomioida	-10.8288
▁juomi	-10.8289
▁autoilija	-10.8289
▁69	-10.829
▁jöi	-10.8291
▁j	-10.8292
▁pyörittä	-10.8293
▁tuomioistuime	-10.8293
▁saatava	-10.8294
▁konferenssi	-10.8294
▁matto	-10.8294
▁ruuhka	-10.8295
▁yrityksi	-10.8297
▁korvauksia	-10.8297
▁kysymyksen	-10.8298
▁puuko	-10.8299
▁vapaute	-10.8299
ksessa	-10.83
öl	-10.8304
▁Pieni	-10.8305
▁kiittää	-10.8307
▁ennustaa	-10.8309
▁Reutersi	-10.8311
kanut	-10.8313
▁talvella	-10.8314
▁yleisöä	-10.8317
gel	-10.8318
▁markkinoilla	-10.8321
▁Ros	-10.8322
▁2017.	-10.8325
tusti	-10.8336
if	-10.834
▁mielenkiintoi	-10.8341
▁isiä	-10.8342
▁puhuttu	-10.8343
▁suhte	-10.8343
▁kannat	-10.8343
paino	-10.8344
▁Thomas	-10.8347
▁aamupäivällä	-10.8347
▁lainsäädännö	-10.8347
▁psykologi	-10.8348
▁Volvo	-10.8348
▁ansaitse	-10.8349
▁eläime	-10.8349
▁muistetaan	-10.8349
▁Tavio	-10.8349
▁tapahtumaan	-10.835
▁Kysely	-10.8351
▁suunnitelman	-10.8351
▁keula	-10.8353
▁stressi	-10.8354
▁kertoneet	-10.8359
▁syytetä	-10.836
▁omistaa	-10.836
▁Sosiaalise	-10.8361
▁Voit	-10.8361
▁Williams	-10.8362
▁asettaa	-10.8363
▁sisältävä	-10.8363
▁Yhden	-10.8369
▁kuukaude	-10.8371
▁vaunu	-10.8371
▁mittaus	-10.8377
lam	-10.8378
ileva	-10.8378
▁Timesi	-10.8382
toihin	-10.8384
▁tiloja	-10.8384
▁lähettämä	-10.8389
▁lukemat	-10.8389
▁kiristä	-10.839
▁täyteen	-10.8391
▁keskittyä	-10.8393
fer	-10.8394
▁sairasta	-10.8395
▁be	-10.8395
▁for	-10.8397
▁pitkällä	-10.8397
▁Koske	-10.8398
▁loppui	-10.8408
▁siirret	-10.8409
▁Jääkiekko	-10.8409
▁kouluun	-10.8412
▁Vesa	-10.8413
▁Kennedy	-10.8413
▁Tuppurai	-10.8413
▁profiili	-10.8413
▁Heiskanen	-10.8414
▁Smith	-10.8414
▁Koira	-10.8414
▁kerrallaan	-10.8415
▁2-1	-10.8416
▁Ruka	-10.8416
▁puhemies	-10.8417
▁sekoit	-10.8417
▁todellise	-10.8418
▁herkku	-10.8418
▁Kaivo	-10.8418
▁ruoki	-10.8419
▁vaatteita	-10.8419
▁asteeseen	-10.8421
▁myönteis	-10.8422
▁vuore	-10.8424
▁hattu	-10.8424
▁vasten	-10.8425
▁vihja	-10.8426
▁oltu	-10.8429
▁päätä	-10.8431
▁heittää	-10.8433
jel	-10.8433
▁historiassa	-10.8439
▁toimija	-10.844
▁verkkoon	-10.8442
▁Ah	-10.8443
▁Sc	-10.8445
▁tyypillisest	-10.8445
▁vastuussa	-10.8447
▁kanavi	-10.8448
tettava	-10.8451
▁huijaus	-10.8462
▁yhteistyössä	-10.8462
logi	-10.8467
▁ajoittai	-10.8468
▁Neuvostoliito	-10.8469
▁kotiottelu	-10.847
▁uudista	-10.8473
tyksiä	-10.8474
▁valokuva	-10.8477
▁Espanjassa	-10.8478
▁kerrokse	-10.8479
▁Kalifornia	-10.848
▁Varsinkin	-10.848
▁Seinäjoe	-10.848
▁Swift	-10.848
▁kauppia	-10.848
▁Tuntuu	-10.848
▁lähetyksen	-10.8481
▁uksilla	-10.8482
▁tutkijat	-10.8482
▁ehdollise	-10.8482
▁ammati	-10.8485
▁Harju	-10.8485
▁Kaiki	-10.8486
mmaksi	-10.8486
▁sijasta	-10.8488
▁Talvi	-10.8488
▁vertailu	-10.8492
▁tukemise	-10.8492
▁Tiedottee	-10.8493
▁hiuk	-10.85
▁Penna	-10.8501
▁äärioikeisto	-10.8502
▁oppia	-10.8506
jev	-10.8509
▁sattuu	-10.8513
tutkinnanjohtaja	-10.8514
▁leikkauksia	-10.8514
▁kelpo	-10.8515
▁suhdetta	-10.8515
▁millaise	-10.8516
▁Tuore	-10.8517
ham	-10.8517
▁huija	-10.852
▁uhan	-10.8521
▁opas	-10.8522
▁sukulais	-10.8525
▁pelaajaa	-10.853
▁Elämä	-10.853
▁tarjosi	-10.8533
ttuaan	-10.8535
▁tallin	-10.8538
▁arvostel	-10.8542
puisto	-10.8543
▁kävele	-10.8543
▁selit	-10.8544
▁tuttuja	-10.8545
▁Valmentaja	-10.8547
▁spekuloi	-10.8547
▁työskentely	-10.8547
▁Puhakka	-10.8547
▁ahdistu	-10.8547
▁Lahdessa	-10.8547
▁kameroi	-10.8547
▁yleisradioyhtiö	-10.8548
▁Press	-10.8548
▁Tutkimus	-10.8548
▁valmennukse	-10.8548
▁jakelu	-10.855
▁vähenn	-10.8551
▁pelottava	-10.8552
▁kaupat	-10.8554
▁roska	-10.8556
▁Mil	-10.8556
▁ajautu	-10.856
▁Tähti	-10.8561
maali	-10.8564
▁Avi	-10.8565
▁kumppanei	-10.8566
▁miehi	-10.8567
▁ihmettelee	-10.857
▁huoneessa	-10.8572
▁Täll	-10.8575
▁eläkkeelle	-10.8576
▁rauhaa	-10.8579
▁ude	-10.8586
▁Cup	-10.8588
▁ilmoittautu	-10.8593
▁kuljettaji	-10.8601
▁mielipide	-10.8601
▁mille	-10.8603
sija	-10.8604
▁oikean	-10.8605
▁Ruo	-10.8607
stettiin	-10.8609
▁puhutta	-10.861
▁yrityksiä	-10.8612
▁kieltäyty	-10.8613
▁Toronto	-10.8615
▁heräsi	-10.8615
▁mieluu	-10.8615
▁riippumatta	-10.8616
▁uksissa	-10.8617
▁ihmetteli	-10.8617
▁tippu	-10.8618
▁3-0	-10.862
▁tavanomaista	-10.8622
▁puvu	-10.8622
istään	-10.8623
▁onnistuu	-10.8623
▁kohdista	-10.8625
▁oppilas	-10.8631
▁Lähe	-10.8633
▁huolestuttava	-10.8636
▁Pori	-10.864
▁kääntyi	-10.8645
▁vahvista	-10.8646
▁kuolleena	-10.8646
▁vih	-10.8647
▁miljoonalla	-10.865
▁kome	-10.8651
▁Tunne	-10.8657
▁positiivis	-10.8659
▁tti	-10.8659
▁tapahtumassa	-10.8662
tietenkään	-10.8662
▁perhettä	-10.8664
▁Joku	-10.8672
▁kampanjoi	-10.8673
▁Eurooppaan	-10.868
▁kädessä	-10.8682
▁Mercedes	-10.8683
▁Hollywood	-10.8683
▁juure	-10.8683
▁työllisyys	-10.8684
▁ominaisuuksi	-10.8684
▁Kansallis	-10.8684
▁tunut	-10.8686
▁ote	-10.8688
▁juhliin	-10.869
▁syitä	-10.8692
ovi	-10.8692
▁ohitta	-10.8695
▁And	-10.8695
▁ulkomaan	-10.8696
▁kaata	-10.8697
▁edelli	-10.8697
▁renka	-10.8699
▁osavaltiossa	-10.8701
▁Ger	-10.8702
▁kaapi	-10.8705
▁varsinai	-10.8707
▁hävit	-10.8709
▁Tilastokesku	-10.8712
▁82	-10.8713
▁hallitusohjelma	-10.8716
▁osake	-10.8719
▁isille	-10.872
▁omiin	-10.8727
▁Iiv	-10.8729
▁Puoli	-10.8733
▁porukka	-10.8735
▁ruotsalaise	-10.8736
▁eduskuntaryhmä	-10.8736
▁Kotimaa	-10.8737
elmi	-10.8738
▁myydä	-10.8739
▁hitti	-10.8739
▁Ruotsiin	-10.874
▁yty	-10.8741
▁tavoi	-10.8742
kangas	-10.8742
▁menestystä	-10.8742
▁tahti	-10.8742
▁lämmin	-10.8745
▁Onneks	-10.8747
▁käyvät	-10.875
▁Chicago	-10.8751
▁Netflix	-10.8751
▁kansanedustaji	-10.8751
▁perustuslaki	-10.8751
▁järjestettävä	-10.8751
▁kilpailua	-10.8751
▁Mänty	-10.8752
▁maito	-10.8752
▁keskeyty	-10.8753
▁lause	-10.8756
▁nopeammin	-10.8756
▁päättävä	-10.8756
▁Isku	-10.8756
▁MVPhotos	-10.8758
▁talve	-10.8759
▁Hur	-10.876
▁maila	-10.8761
▁säästöjä	-10.8763
▁sakko	-10.8765
▁taposta	-10.8765
▁lataa	-10.8767
▁auringon	-10.8767
▁henkilökunta	-10.8769
▁Sir	-10.8773
▁allekirjoitta	-10.8774
▁tuoma	-10.8774
▁pyyntö	-10.8774
▁Vie	-10.8778
▁kisoja	-10.8786
▁Port	-10.8786
▁sanoja	-10.8788
▁73	-10.879
▁ympärille	-10.8791
▁matsi	-10.8792
▁kokeilla	-10.8793
▁maanantain	-10.8796
▁potku	-10.8798
▁rinna	-10.88
▁Kuvi	-10.8812
▁Miele	-10.8814
▁liput	-10.8817
▁Salonen	-10.8818
▁Don	-10.882
▁Vas	-10.882
▁Liverpool	-10.882
▁grilli	-10.882
▁puhelimen	-10.882
▁1970-	-10.882
▁laukaukse	-10.882
▁Ammatti	-10.882
▁hävin	-10.8821
▁käsissä	-10.8822
▁maksettava	-10.8822
▁toive	-10.8823
▁Elo	-10.8824
▁Tuisku	-10.8824
▁Kati	-10.8826
▁kiihty	-10.8828
▁kultaa	-10.883
▁maja	-10.8831
▁KU	-10.8837
▁Emm	-10.8837
▁Tapaukse	-10.884
▁fyysi	-10.8841
▁luokse	-10.8843
▁näyttö	-10.8845
▁lliset	-10.8846
▁hallitukselle	-10.8847
▁Savolai	-10.8848
▁hyväksyä	-10.886
▁tapahtumiin	-10.8862
▁elinkeino	-10.8863
▁huoneen	-10.8864
Pa	-10.8866
▁asiakkaille	-10.8866
▁kesää	-10.8871
▁tyttöystävä	-10.8879
▁osallistumise	-10.8881
▁Luot	-10.8881
▁Ya	-10.8881
▁hallitusta	-10.8882
▁Jonn	-10.8885
▁metsästys	-10.889
▁johdosta	-10.889
▁ulkonäkö	-10.889
▁nopeude	-10.889
▁hengitys	-10.889
▁Kävi	-10.8891
▁medioi	-10.8891
▁arvelee	-10.8891
.7.	-10.8891
kkiä	-10.8891
▁leipä	-10.8891
▁kiitollinen	-10.8891
▁tietoon	-10.8896
▁konserti	-10.8897
▁haltuunsa	-10.8897
ich	-10.8897
▁vastaise	-10.8897
jer	-10.89
▁valikoima	-10.8905
▁nähtävä	-10.8905
▁ter	-10.8906
▁ca	-10.8908
▁sinua	-10.8909
▁valvonna	-10.8909
▁korkei	-10.8911
▁Nur	-10.8911
dor	-10.892
▁vaikuttava	-10.8926
▁Tomi	-10.8929
tili	-10.8929
▁bio	-10.8931
ttejä	-10.8932
▁Jark	-10.8936
▁osuu	-10.8937
▁Joel	-10.8938
▁ravintolassa	-10.8938
▁näkemys	-10.8941
▁poiki	-10.8942
▁mietti	-10.8944
▁päivityksen	-10.8948
▁järjestämä	-10.8948
▁rikosta	-10.8949
▁lännen	-10.8953
▁Entä	-10.8958
▁Panthers	-10.8959
▁naimisi	-10.8959
▁toimeen	-10.8959
▁People	-10.896
▁1999	-10.896
▁hedelmä	-10.896
▁mysteeri	-10.896
▁pidempään	-10.896
▁rakkaus	-10.896
▁kirjoitus	-10.896
▁oudo	-10.896
▁Niemelä	-10.896
▁toisistaan	-10.896
▁aikei	-10.8961
▁hintaan	-10.8961
▁Yritys	-10.8962
▁lääkkeitä	-10.8962
▁Adam	-10.8963
▁kerätä	-10.8963
▁virtaa	-10.8964
▁ulottu	-10.897
▁31.	-10.897
▁polve	-10.8971
▁näyttäisi	-10.8972
▁muuttu	-10.8974
▁Tapaus	-10.8982
▁Hussi	-10.8983
▁kohtasi	-10.8984
▁kansalaisia	-10.8987
▁ah	-10.8988
▁tulokse	-10.8988
▁tasan	-10.8991
pula	-10.8991
▁mus	-10.8993
▁Robin	-10.8993
▁Keskus	-10.8995
▁kohdistunee	-10.8995
ttäisiin	-10.8996
▁vajaat	-10.8999
▁pakotte	-10.9002
▁10-	-10.9003
▁maihin	-10.9003
▁mattomi	-10.9004
▁ajattelee	-10.9004
▁utunee	-10.9016
▁peittä	-10.9016
▁epäiltyä	-10.9017
▁päivitett	-10.9017
▁käyntiin	-10.9018
▁siisti	-10.902
hyökkääjä	-10.902
!	-10.9022
▁arviointi	-10.9023
▁arva	-10.9024
▁Helsingistä	-10.903
▁Kinnunen	-10.903
▁korkeude	-10.903
а	-10.903
▁Pittsburgh	-10.903
▁Syksy	-10.903
▁Malmö	-10.903
▁moderni	-10.903
▁Piispa	-10.903
▁kuvitella	-10.903
▁Italiassa	-10.903
▁selvinnyt	-10.9031
▁aiheuttanee	-10.9032
▁rytmi	-10.9033
▁mielenosoitukse	-10.9034
▁neuvottelut	-10.9036
▁Sanni	-10.9036
▁Bull	-10.9038
▁Halli	-10.9041
▁kär	-10.9042
▁ongelmista	-10.9044
▁Mac	-10.9046
▁nostettu	-10.9046
▁aikaisin	-10.9052
▁pesä	-10.9054
▁Hall	-10.9055
▁yksityise	-10.9056
▁korjaa	-10.9057
▁tunnu	-10.9058
▁neljänneksi	-10.9059
▁yleisty	-10.906
▁Gri	-10.906
▁tömä	-10.9061
elty	-10.9063
▁hankkeen	-10.9063
▁tapahtunutta	-10.9066
▁liikkeellä	-10.9067
▁näkyvi	-10.9068
▁Riku	-10.9075
▁hyökkää	-10.9075
▁Eet	-10.9079
▁tuloksella	-10.908
▁Heli	-10.9083
▁Lisää	-10.9086
▁palon	-10.9091
▁vastustaji	-10.9097
iltu	-10.9097
▁kumma	-10.9099
▁suunnitelmat	-10.91
▁Artikkeli	-10.9101
▁Barcelona	-10.9101
▁Google	-10.9101
▁Navalnyi	-10.9101
▁diesel	-10.9101
▁touhu	-10.9101
▁onnellinen	-10.9101
▁Sil	-10.9101
▁kuluttaji	-10.9102
▁uskonno	-10.9102
tiiv	-10.9102
▁Payne	-10.9107
▁taistell	-10.9107
▁löydetty	-10.9107
▁kerä	-10.9109
▁Facebookissa	-10.9114
▁lentokonee	-10.9114
▁mmin	-10.9115
▁teli	-10.9118
▁Bur	-10.9118
▁päivät	-10.9124
▁auttava	-10.9125
▁Tutkija	-10.9125
▁päätöksi	-10.9127
▁taudin	-10.9127
▁Sw	-10.9128
▁Ag	-10.9129
▁Aloi	-10.913
▁Fri	-10.9133
▁Carl	-10.9134
▁kertyi	-10.9136
▁Luke	-10.9142
puolue	-10.9147
▁Ava	-10.9147
▁hyökkäystä	-10.9148
▁syyllistyneen	-10.9148
▁llista	-10.9149
▁jatkoon	-10.9152
▁kauko	-10.9153
▁kahdell	-10.9154
▁viranomaisi	-10.9155
▁kankaa	-10.9156
▁häneen	-10.9159
▁rannalla	-10.9162
pronssi	-10.9166
▁Telegram	-10.9166
▁Johanne	-10.9167
▁sekunnissa	-10.9169
▁julkaisun	-10.917
▁mielipite	-10.917
▁myönnet	-10.917
▁tavaraa	-10.9171
▁tutkimuksi	-10.9172
▁Hämeenlinna	-10.9172
▁peräkkäis	-10.9172
▁tehtäviin	-10.9172
▁pienet	-10.9173
▁sisälty	-10.9173
▁Kesäkuu	-10.9173
▁jyrä	-10.9173
▁Ryhmä	-10.9173
▁hyökkäyssota	-10.9173
▁Pallo	-10.9173
▁Samoi	-10.9173
▁luonnehti	-10.9174
▁uksiin	-10.9175
▁huvi	-10.9176
▁Len	-10.9176
▁isyys	-10.9178
▁Tyson	-10.9179
▁ammuttiin	-10.918
▁Tallinna	-10.918
▁kriitt	-10.9181
▁sarjaa	-10.9181
▁palkkaa	-10.9184
▁hauskaa	-10.9189
▁Audi	-10.919
▁miele	-10.9191
▁26,	-10.9191
▁urheilijoita	-10.9191
▁aiheuttava	-10.9192
▁siirtolais	-10.9193
▁nimensä	-10.9195
▁Talous	-10.9196
▁olut	-10.9196
▁henkise	-10.9208
▁väh	-10.9209
▁koulutuksen	-10.9209
▁Sim	-10.9212
▁paloi	-10.9212
▁vastauksi	-10.9213
▁hetkiä	-10.9213
vuotiasta	-10.9213
▁palaute	-10.9214
▁masta	-10.9216
iina	-10.9217
▁rajoi	-10.922
▁hotellin	-10.9224
▁käden	-10.9232
▁Yhdysvaltalais	-10.9234
▁läise	-10.9235
poliittisen	-10.9238
▁paikoilla	-10.9244
▁näkymi	-10.9244
▁analyysi	-10.9244
▁päivystys	-10.9244
field	-10.9244
▁Viertola	-10.9244
▁Ajattelin	-10.9244
▁edennyt	-10.9245
▁Satakunna	-10.9245
▁varoj	-10.9246
▁Pit	-10.9248
▁rikokseen	-10.9248
▁päätoimittaja	-10.9249
▁vaarallinen	-10.9249
▁oululais	-10.925
▁laivasto	-10.9251
▁läheis	-10.9252
▁lihas	-10.9253
zo	-10.926
▁kestänee	-10.926
▁avustaja	-10.9262
vari	-10.9266
▁löytyvät	-10.9266
▁Charlesi	-10.9267
▁tettu	-10.9273
▁vasti	-10.9276
▁leveä	-10.9283
▁Jarm	-10.9284
mir	-10.9285
▁edellyttää	-10.9286
▁kantama	-10.9288
vesi	-10.9289
▁Löy	-10.9292
▁lakkoj	-10.9292
▁mere	-10.9293
▁treena	-10.9297
▁luovut	-10.9303
idi	-10.9305
▁1-2	-10.9305
▁kohun	-10.9305
▁lipu	-10.9313
▁henkilöllisyy	-10.9314
Ei	-10.9316
▁Essayah	-10.9317
▁maalivahdi	-10.9317
▁Kuusamo	-10.9317
▁uutuus	-10.9317
▁väkeä	-10.9317
▁Meksiko	-10.9317
▁81	-10.9318
▁Gold	-10.932
▁Kiova	-10.932
▁kieltäytyi	-10.9321
▁vappu	-10.9322
▁vaaditaan	-10.9323
▁88	-10.9325
▁Tiety	-10.9326
▁Aku	-10.9326
▁Hämäläinen	-10.9327
▁rock	-10.9327
▁poltta	-10.933
▁aiheuttami	-10.9336
▁voittanee	-10.9343
▁ava	-10.9346
▁Soi	-10.9347
▁valmistui	-10.9347
ric	-10.9347
▁politiikkaan	-10.9349
▁sivuun	-10.935
▁pitkäaikai	-10.9351
▁aloite	-10.9352
▁odotuksi	-10.9354
▁polku	-10.9359
▁testaa	-10.936
▁palkinnon	-10.936
▁61	-10.9361
▁iki	-10.9362
▁pelit	-10.9369
ikäise	-10.937
▁alha	-10.9371
▁bi	-10.9372
▁uuksi	-10.9374
▁kuvattiin	-10.9379
▁ääneen	-10.9379
▁aido	-10.9381
▁hoid	-10.9382
▁potkut	-10.9383
▁yhdiste	-10.9384
liike	-10.9385
Matti	-10.9386
▁tuntua	-10.9388
▁juhlista	-10.939
▁peleissä	-10.939
▁asetelma	-10.939
▁käveli	-10.939
▁lopputulokse	-10.939
▁hiekka	-10.939
▁Praha	-10.939
▁ajettu	-10.939
▁tahdo	-10.939
▁läsnäolo	-10.939
▁odotetu	-10.939
▁pariin	-10.9391
▁terveyden	-10.9392
▁pr	-10.9394
▁perinne	-10.9399
▁ohjeita	-10.9399
▁Parha	-10.9399
▁Suominen	-10.9401
▁sauno	-10.9401
▁osallistuja	-10.9403
▁mmaksi	-10.9404
syys	-10.9404
▁useimmi	-10.9407
▁seksuaalise	-10.9407
▁väistä	-10.9408
▁tarkastukse	-10.9408
▁Teo	-10.9413
▁painetta	-10.9415
▁elämäänsä	-10.9415
▁tietoinen	-10.9416
▁Bay	-10.9416
▁vastaaja	-10.9421
▁paksu	-10.9422
▁kuukausien	-10.9427
▁kaltaise	-10.9429
▁keskusteluun	-10.9429
▁mittaa	-10.9429
▁Kukko	-10.943
▁vakuutus	-10.9431
▁Ahti	-10.9432
▁Marc	-10.9435
▁kukki	-10.9436
telemään	-10.9436
▁Isän	-10.9441
▁laskea	-10.9442
▁rajat	-10.9442
▁Angelesi	-10.9443
▁hevose	-10.9443
▁kip	-10.9444
▁valikoi	-10.9448
▁jäällä	-10.945
▁voitolla	-10.945
▁2001	-10.9453
▁rankka	-10.9456
▁rahoja	-10.9458
▁Rauta	-10.946
▁riemu	-10.9463
▁valtiovierailu	-10.9463
▁Youtube	-10.9463
▁terassi	-10.9463
▁sängy	-10.9463
▁sähköpostitse	-10.9464
▁päiväkoti	-10.9465
▁tohtori	-10.9467
▁määriä	-10.9468
▁kyseenala	-10.9468
▁misella	-10.9471
▁Chris	-10.9472
▁seka	-10.9473
▁pidety	-10.9474
▁Shi	-10.9479
▁tarkoita	-10.9479
▁housu	-10.948
▁videolta	-10.948
▁teet	-10.9481
▁lika	-10.9484
▁pudot	-10.9486
▁suunnittelija	-10.9486
▁nousua	-10.9486
▁vahv	-10.9488
llisiä	-10.9492
▁roolia	-10.9496
▁Piene	-10.9501
▁Lap	-10.9502
▁töiden	-10.9506
▁tappion	-10.951
▁tetu	-10.9511
▁Yllä	-10.9512
▁yleistä	-10.9514
▁lukea	-10.9519
▁hintaa	-10.9519
▁näkyvät	-10.9519
▁Wall	-10.9523
suojelu	-10.9526
▁riippuen	-10.9527
▁kulunee	-10.9529
toimittaja	-10.9531
▁tehtävässä	-10.9531
▁Ö	-10.9531
numero	-10.9532
▁matkaan	-10.9533
▁Räsänen	-10.9537
▁Hämeen	-10.9538
▁kaupasta	-10.9538
▁johdossa	-10.9538
▁alkupuolella	-10.9538
▁olympiakomitea	-10.9538
▁operoi	-10.9538
▁kuori	-10.9538
▁Erik	-10.9539
▁tiloihin	-10.9539
▁marssi	-10.954
▁ilmenee	-10.9541
▁osapuoli	-10.9542
▁käteen	-10.9543
▁00	-10.9544
▁jäseniä	-10.9544
suhde	-10.9545
▁vakavi	-10.9545
▁varoitukse	-10.9546
▁liiku	-10.9549
▁keskeinen	-10.9549
▁vakuutti	-10.9552
▁herra	-10.9553
mur	-10.9554
▁kumpik	-10.9555
▁Etu	-10.9557
▁teosta	-10.9559
▁Villa	-10.9561
ttaisi	-10.9562
▁viisa	-10.9565
▁Voisi	-10.9568
▁viestissä	-10.9568
▁Aluks	-10.9576
▁22,	-10.9577
▁murtu	-10.9577
▁ottava	-10.9578
▁je	-10.9583
▁sydämen	-10.959
▁Finnairi	-10.9592
▁yksittäi	-10.9595
▁lähemmä	-10.9595
▁tältä	-10.9596
▁president	-10.9602
▁eks	-10.9603
▁pettä	-10.9603
otti	-10.9606
▁Palm	-10.9612
▁Minnesota	-10.9612
▁albumi	-10.9612
▁intohimo	-10.9612
▁myöten	-10.9612
▁auttoi	-10.9612
▁Veitola	-10.9612
▁raportti	-10.9612
▁kärkeen	-10.9612
▁maaleja	-10.9612
▁2-3	-10.9612
▁keskuksessa	-10.9612
▁sohva	-10.9612
▁kuntosali	-10.9613
▁hälytys	-10.9614
▁Bal	-10.9614
▁puolustuksen	-10.9615
▁ruotsalai	-10.9615
▁säilyttää	-10.9616
▁pohjoisessa	-10.9619
▁liittyvää	-10.9622
▁alkuperäise	-10.9623
▁78	-10.9624
▁Kouvola	-10.9625
▁myyty	-10.9626
▁pienemmä	-10.9628
▁Hus	-10.9629
▁kiinnostaa	-10.9631
▁levisi	-10.9636
kkejä	-10.9639
▁maisemi	-10.9639
▁uraa	-10.964
▁mö	-10.9641
▁rikkoi	-10.9645
▁tupa	-10.9646
▁kehitystä	-10.9646
▁putkeen	-10.9648
▁pir	-10.9648
▁perustaja	-10.9648
▁Pohjanmaa	-10.9648
▁lapse	-10.9652
▁kana	-10.9659
▁kuolemaa	-10.966
▁hyökkäykse	-10.9662
▁Aaltonen	-10.9666
▁jäsentä	-10.9669
▁lakka	-10.9671
vuotiaat	-10.9672
▁Amerika	-10.9674
▁isemma	-10.9675
▁tarkoitt	-10.9677
kappale	-10.9685
Vantaa	-10.9685
▁tuota	-10.9686
▁tävä	-10.9686
е	-10.9687
▁Adlercreutz	-10.9687
▁Ravintola	-10.9687
▁veteraani	-10.9687
▁Bottakse	-10.9688
▁23-	-10.9688
▁konkari	-10.9688
▁pöly	-10.9689
▁virkamies	-10.969
▁Väit	-10.969
▁Olga	-10.9691
▁helpottaa	-10.9692
▁ilmen	-10.9694
▁pitu	-10.9694
▁Puhu	-10.9694
▁iltapäivä	-10.9697
▁Kanna	-10.9697
▁lahjoit	-10.9697
▁hälytykse	-10.9699
▁kyseenalaista	-10.9699
lem	-10.9699
▁kolmante	-10.97
▁sada	-10.9701
▁uhriksi	-10.9702
▁johtui	-10.9702
▁olennai	-10.9703
▁ladu	-10.9704
▁ranka	-10.9705
▁persoona	-10.9706
▁iskut	-10.9708
▁uhrien	-10.9709
▁tuoli	-10.9709
▁ehdokasta	-10.9711
▁liikunna	-10.9711
▁tunnistaa	-10.9711
▁pintaan	-10.972
yli	-10.9722
▁kohd	-10.9726
▁työnsä	-10.9727
▁sateet	-10.9727
▁töistä	-10.9727
▁kävijä	-10.9727
▁Seudu	-10.9728
▁kirjattu	-10.9729
liigassa	-10.973
▁kysyä	-10.9731
▁hevosen	-10.9732
▁kallio	-10.9732
▁Gran	-10.9733
▁maaperä	-10.9736
▁läis	-10.9736
▁väliä	-10.9738
▁immi	-10.9738
▁syntymä	-10.974
▁kylässä	-10.9742
▁Hyvin	-10.9743
▁kykyä	-10.9745
▁vanhoi	-10.9747
ttomasti	-10.9747
▁Pah	-10.9748
▁Lee	-10.9753
▁tauko	-10.9756
▁asiantuntijat	-10.9757
▁ennusteen	-10.976
gra	-10.9761
▁Grön	-10.9763
▁hyppäsi	-10.9763
▁jäätelö	-10.9763
▁TTK	-10.9763
▁Perniö	-10.9763
▁rengas	-10.9763
▁Saudi	-10.9763
▁valmentaji	-10.9763
▁kaikessa	-10.9763
▁kipeä	-10.9764
▁sini	-10.9764
▁Vaara	-10.9765
▁Aasia	-10.9765
▁perusteltu	-10.9765
▁vaatimukse	-10.9766
▁resepti	-10.9766
▁Seuraavan	-10.9766
▁seksiä	-10.9768
▁kunniaksi	-10.9768
▁seurakunta	-10.9771
▁tarkasta	-10.9771
▁lennokki	-10.9773
▁60-	-10.9774
▁hovioikeude	-10.9776
▁edullise	-10.9778
▁sivuilla	-10.9783
▁Soini	-10.9786
▁kulje	-10.9787
▁kilpailuissa	-10.9789
nimise	-10.9795
▁Israelia	-10.9797
▁Kotka	-10.9801
▁päättäji	-10.9803
▁Sk	-10.9806
▁Ivan	-10.981
▁Levi	-10.981
▁asuntoon	-10.9811
▁yliopistossa	-10.9812
▁kotimaan	-10.9814
▁kasvava	-10.9815
▁odottamaan	-10.9815
▁29,	-10.9815
▁Tulos	-10.9818
▁katoa	-10.9821
▁milla	-10.9823
▁kilpaili	-10.9824
▁soti	-10.9824
vah	-10.9828
▁yksityiskohtia	-10.9829
▁lue	-10.9829
▁sisälle	-10.983
▁äänet	-10.9832
▁Pohja	-10.9834
Pohjanmaalla	-10.9834
▁tuva	-10.9836
▁rajalla	-10.9837
н	-10.9839
▁unohtu	-10.9839
▁Palvelu	-10.9839
▁huuto	-10.9839
▁infektio	-10.9839
▁Tiedän	-10.9839
▁uhrei	-10.9839
▁Tähkä	-10.9839
▁palvele	-10.9839
▁häpeä	-10.984
▁klassikko	-10.984
▁Sund	-10.984
▁päihde	-10.984
▁seikkailu	-10.984
▁lyhyen	-10.9841
▁suunnitella	-10.9843
▁ajoissa	-10.9843
▁Saira	-10.9844
▁Mene	-10.9844
▁ruudu	-10.9845
▁karsinna	-10.9846
▁hel	-10.9848
osasto	-10.9849
▁saatavuu	-10.985
▁pidätettiin	-10.9851
▁Jutu	-10.9852
▁Henna	-10.9852
▁Katsomo	-10.9853
▁naiselle	-10.9854
tavaa	-10.9855
▁avu	-10.9855
eltu	-10.9857
stro	-10.9858
▁heito	-10.986
toimisto	-10.9862
▁joukkueelle	-10.9865
prosentti	-10.9868
▁arkisto	-10.987
▁romu	-10.987
puoli	-10.9872
▁veli	-10.9873
▁lapsista	-10.9874
▁13,	-10.9876
▁alueille	-10.9877
ehdokkaan	-10.9878
yksiä	-10.9878
▁hammas	-10.988
▁Turva	-10.988
▁Pelicansi	-10.9885
▁Lou	-10.9885
▁loppuu	-10.9888
▁asukas	-10.9889
odo	-10.9894
▁kummall	-10.9895
▁rahoitta	-10.9897
▁merkittävää	-10.9898
▁Tuomi	-10.9899
▁ennätyksen	-10.9899
▁kannattava	-10.9902
▁juhlat	-10.9902
▁materiaalia	-10.9904
▁uhria	-10.9907
▁lukijoi	-10.9909
▁kattava	-10.9913
▁syntymäpäivä	-10.9914
▁Järjestö	-10.9916
▁Viaplay	-10.9916
▁osapuole	-10.9916
▁Beiruti	-10.9916
▁Ongelma	-10.9916
▁Pohjola	-10.9916
▁tallentui	-10.9917
▁Amaz	-10.9917
▁kokoukseen	-10.9917
▁Golf	-10.9917
▁kotimaise	-10.9917
▁ruotsi	-10.9917
▁Leyen	-10.9918
▁alueet	-10.9918
▁ohjuksia	-10.9918
▁vaihtelu	-10.9918
▁isot	-10.9918
▁tarvittava	-10.9918
▁kirjassaan	-10.992
▁logo	-10.9923
▁Linna	-10.9923
▁virheitä	-10.9924
vuoro	-10.9925
▁kärjessä	-10.9927
▁eläkkee	-10.9928
▁berg	-10.9932
▁Race	-10.9935
▁valmistettu	-10.9937
ellut	-10.9938
▁aiemmi	-10.9943
▁vaihtoi	-10.995
▁tapahtumapaika	-10.9955
▁julkisuude	-10.9956
▁yksittäise	-10.9959
▁Fl	-10.996
▁Hyväri	-10.996
▁Wo	-10.9962
▁lausunnossaan	-10.9963
yyden	-10.9969
▁loput	-10.9974
▁mittaan	-10.9975
▁ettava	-10.9977
tomuus	-10.9982
▁johtajana	-10.9985
▁Uoti	-10.9986
▁Sports	-10.9987
▁Kilju	-10.999
▁päivästä	-10.999
Espoo	-10.9993
▁Richard	-10.9993
▁Moottori	-10.9994
▁Tshekki	-10.9994
▁politiikasta	-10.9994
▁vankeutta	-10.9994
▁työkalu	-10.9994
▁näytelmä	-10.9994
▁hinnoi	-10.9994
▁Vilén	-10.9994
▁Keske	-10.9995
▁pouta	-10.9997
▁palveluja	-10.9997
▁pello	-10.9998
▁katsottu	-10.9998
▁veteen	-10.9999
▁käsittelyyn	-11
▁Räikkö	-11.0002
harju	-11.0003
▁toivottava	-11.0006
▁päättynyt	-11.0011
▁kykene	-11.0013
▁rauhallisesti	-11.0013
▁polvi	-11.0013
isellä	-11.0014
▁tusta	-11.0015
▁OP	-11.0018
▁Eräs	-11.002
▁Yh	-11.0024
▁lehde	-11.0026
▁virheen	-11.0027
▁tyhji	-11.0028
▁makse	-11.0029
▁Lontoossa	-11.0031
▁esittämä	-11.0033
▁paikoista	-11.0037
▁Putinia	-11.0038
▁mini	-11.0038
▁Montreal	-11.0039
▁arvostelu	-11.004
▁asiakkai	-11.0041
▁Kreml	-11.0043
▁Hui	-11.0045
▁joukosta	-11.0046
▁talvena	-11.0046
politiikka	-11.0047
▁pani	-11.0048
▁sääntöjä	-11.005
▁ajattelin	-11.0051
▁ilmaan	-11.0053
▁listaa	-11.0053
▁jälkeise	-11.0053
▁hevos	-11.0056
▁kuudes	-11.006
▁Grand	-11.006
▁perinteisi	-11.0063
▁Koski	-11.0064
meno	-11.0069
liikenne	-11.007
▁mahdollisuuksi	-11.0071
и	-11.0072
▁globaali	-11.0072
▁rakennuksi	-11.0072
▁Kolmas	-11.0072
▁välityksellä	-11.0072
▁tempu	-11.0072
▁Jouko	-11.0073
▁isuudesta	-11.0073
▁surkea	-11.0073
▁voittomaali	-11.0074
▁>	-11.0074
▁arkea	-11.0075
▁pääsisi	-11.0076
▁Bill	-11.0082
▁päältä	-11.0083
▁tehtaan	-11.0084
▁VR	-11.0084
▁hoidossa	-11.0085
▁tärkeintä	-11.0086
▁uskomattoma	-11.0087
▁rek	-11.0087
rajojen	-11.0088
▁osallistuji	-11.0088
pallo	-11.0088
▁Yo	-11.0089
▁Hanne	-11.0091
▁italialais	-11.0092
▁paista	-11.0093
▁ukselle	-11.0093
▁Kanta	-11.0102
▁jakama	-11.0104
▁laskettu	-11.0104
▁ltaan	-11.0107
▁Arvio	-11.0108
▁puistossa	-11.0108
▁tapaamis	-11.0109
▁130	-11.011
▁aamuna	-11.0111
hal	-11.0119
kunto	-11.0119
▁pitki	-11.012
▁vieläkään	-11.012
▁ryhtyi	-11.0124
▁ttomi	-11.0126
▁Mikkeli	-11.0131
▁seikka	-11.0135
▁Pala	-11.0136
▁yleisest	-11.0136
mark	-11.0139
▁varaus	-11.0142
▁epävarma	-11.0142
▁Aino	-11.0144
▁ristiriita	-11.0149
▁hämmästy	-11.015
▁alainen	-11.015
▁lausunnossa	-11.015
▁Ahvenanmaa	-11.0151
▁Niklas	-11.0151
▁Scholz	-11.0151
▁skenaario	-11.0151
▁opiskele	-11.0151
▁kunnosta	-11.0151
▁Norris	-11.0152
▁kuulostaa	-11.0153
▁kerho	-11.0154
▁Mur	-11.0155
▁toimenpiteitä	-11.0156
▁seuroi	-11.0156
▁Lähteet	-11.0159
▁nuorta	-11.016
▁päi	-11.0161
laji	-11.0161
▁etelässä	-11.0161
▁Varma	-11.0162
▁Miami	-11.0162
Kapanen	-11.0166
▁väitteet	-11.0167
▁urakka	-11.0169
ttömän	-11.0171
▁sanojen	-11.0176
oikeus	-11.0177
▁ili	-11.0178
▁kuvasta	-11.0185
▁pukeutunut	-11.0189
▁neuvotteluj	-11.0191
▁Leen	-11.0193
▁mutka	-11.0194
▁Raita	-11.0202
▁paikoissa	-11.0204
▁yhteistyön	-11.0205
▁olympiakulta	-11.0206
▁dokumentti	-11.0207
▁maita	-11.0208
kamp	-11.0209
▁sulje	-11.021
▁pystyisi	-11.021
▁Heino	-11.0213
dal	-11.0223
▁maakunna	-11.0224
▁kasvot	-11.0225
wo	-11.0227
▁hintoj	-11.0229
▁1998	-11.023
▁kommentit	-11.023
▁hetkessä	-11.023
▁tuomitse	-11.023
▁hetkeä	-11.023
▁toimesta	-11.023
▁Pöy	-11.0231
kyky	-11.0231
▁täytyi	-11.0231
▁poikkea	-11.0232
▁Valkea	-11.0233
steri	-11.0234
▁murhe	-11.0234
▁tomi	-11.0236
▁korosta	-11.0236
▁pahimmi	-11.0239
▁Tol	-11.024
▁sateita	-11.0242
▁toivoi	-11.0243
▁Laukka	-11.0243
▁Will	-11.0246
▁kuninkaallise	-11.0249
▁rasisti	-11.025
▁Kysymy	-11.0251
▁Ruoka	-11.0253
▁lähtenee	-11.0253
▁hävittäjä	-11.0254
▁soit	-11.0257
▁oikeude	-11.0258
▁asukkaa	-11.0261
▁Finn	-11.0262
kenenkään	-11.0263
▁tut	-11.0265
▁uinti	-11.0266
▁alkukaude	-11.0267
lim	-11.0268
▁Bru	-11.0268
▁jakautu	-11.0269
slav	-11.0271
▁sopimuksesta	-11.0272
▁sauma	-11.0273
▁cupin	-11.0278
▁perusti	-11.0279
▁varautua	-11.0279
▁asioissa	-11.0282
▁50-	-11.0285
▁puuttua	-11.0285
▁maajoukkueessa	-11.0288
▁nouseva	-11.0292
▁Kone	-11.0293
▁ratkaise	-11.0295
▁vastustaa	-11.03
▁mekko	-11.0301
▁painava	-11.0302
▁vahvistet	-11.0304
▁14-	-11.0307
▁ainut	-11.031
▁Ogier	-11.031
▁diplomaatti	-11.031
▁maailmanlaajui	-11.031
▁Elisabet	-11.031
▁kihla	-11.031
▁täsmä	-11.031
▁pettymyks	-11.031
▁traagi	-11.031
▁vihollis	-11.0311
▁väitetään	-11.0311
▁istunto	-11.0312
▁ABC	-11.0313
▁ohjelmisto	-11.0314
▁saaristo	-11.0314
▁miettimään	-11.0315
▁ajautui	-11.0315
▁asiakirja	-11.0316
▁useammin	-11.0318
▁Asunto	-11.0318
▁yksinkertaise	-11.0319
▁kärsii	-11.0322
▁soitto	-11.0322
▁keskustelussa	-11.0322
aattori	-11.0325
▁kaar	-11.0326
▁tuomiota	-11.033
▁valkoinen	-11.0332
▁vieraile	-11.0333
▁muusta	-11.0334
▁Ana	-11.0335
▁Tapo	-11.0336
▁vahingossa	-11.0339
▁laajalt	-11.0344
▁Jokeri	-11.0344
▁kriittise	-11.0344
▁avaukse	-11.0345
▁päättymise	-11.0349
▁Eikö	-11.0349
▁SSS	-11.0349
▁eläkeläis	-11.0351
▁vauhdilla	-11.0352
▁mättä	-11.0355
back	-11.0357
isuudessa	-11.0362
▁hanki	-11.0362
▁katsojaa	-11.0363
▁Paimio	-11.0364
▁päätyy	-11.0365
lari	-11.0369
▁kokem	-11.0369
▁iltaan	-11.0369
hel	-11.0372
▁aikuis	-11.0372
▁Myy	-11.0372
lov	-11.0374
▁Jokaise	-11.0374
▁lakot	-11.0375
▁asenne	-11.0377
alus	-11.0378
▁keskeise	-11.0382
elokuvan	-11.0382
▁Post	-11.0389
▁aita	-11.0389
▁päättynee	-11.039
▁puuttui	-11.0391
▁HPK	-11.0391
▁1994	-11.0391
▁Alkoholi	-11.0391
▁Lappeenranna	-11.0391
▁Matthew	-11.0391
▁siirro	-11.0391
▁Arsenal	-11.0391
▁hylkäsi	-11.0391
▁työttömyys	-11.0391
▁Orban	-11.0391
▁Sinne	-11.0391
▁renno	-11.0391
▁ennalta	-11.0391
▁Suure	-11.0392
▁huippukokoukse	-11.0392
uksien	-11.0392
▁lentoasema	-11.0393
▁parisuhde	-11.0394
▁sotilasta	-11.0394
▁Sirp	-11.0394
▁mielipiteitä	-11.0394
▁rati	-11.0394
▁kiello	-11.0394
▁mitattu	-11.0396
▁ukkos	-11.0396
▁Täyty	-11.0397
▁Nordmo	-11.0399
▁lupaus	-11.0401
▁hakemus	-11.0401
▁Tuleva	-11.0402
▁vastuulla	-11.0402
▁Markkase	-11.0403
▁Yhdessä	-11.0403
▁keskity	-11.0405
▁ylle	-11.0405
▁niska	-11.0409
▁Tuomari	-11.0414
▁päätökset	-11.0419
ottelussa	-11.042
▁Ruotsalai	-11.0422
▁raiska	-11.0422
▁telee	-11.0427
▁110	-11.0429
▁johtajat	-11.0432
▁kuumi	-11.0432
▁verrat	-11.0441
▁Moskovassa	-11.0442
▁maltill	-11.0442
▁syöpää	-11.0444
▁pehmeä	-11.0446
▁Live	-11.0447
▁yrit	-11.0447
▁4-1	-11.0447
▁kiito	-11.0449
▁ottelut	-11.0449
▁isäntä	-11.0451
▁tarjous	-11.0452
▁etsii	-11.0455
▁Rauha	-11.0456
▁arvioivat	-11.0457
▁päävalmentajana	-11.0457
▁takki	-11.046
▁Pelaaja	-11.0461
▁kate	-11.0461
▁toimitus	-11.0471
▁lohdu	-11.0472
▁löytö	-11.0472
▁lämpimi	-11.0472
▁ykkönen	-11.0472
▁pizza	-11.0472
▁vastoin	-11.0472
▁sijainti	-11.0472
▁maastopalo	-11.0472
▁Baltia	-11.0473
▁Lundell	-11.0474
▁Stubbia	-11.0474
▁loppuottelu	-11.0474
▁kaupungista	-11.0474
▁turvapaikka	-11.0474
▁aallo	-11.0475
▁Andrew	-11.0475
▁köyh	-11.0475
▁Korkea	-11.0475
▁kulutukse	-11.0476
▁Tilantee	-11.0476
▁merkitse	-11.0478
▁houkuttele	-11.0478
▁Michel	-11.0481
▁Nina	-11.0484
▁perustelu	-11.0486
▁pelatu	-11.0487
▁yksinkerta	-11.0488
▁Elä	-11.0488
▁tuminen	-11.049
▁17,	-11.0491
sarjaa	-11.0492
▁kuljetet	-11.0493
▁treenaa	-11.0495
▁uimari	-11.0496
▁170	-11.0497
▁ori	-11.0499
▁Nykyis	-11.05
▁koitu	-11.05
▁ilmastonmuuto	-11.0503
▁valmi	-11.0504
▁saavut	-11.0507
▁kirjoitukse	-11.0509
▁euroja	-11.051
▁Park	-11.051
▁tappo	-11.0514
▁sallittu	-11.0519
▁kokonaisuute	-11.0522
▁kampanjaa	-11.0524
▁Viisi	-11.0527
▁nopeus	-11.0527
▁Hell	-11.0533
▁odotta	-11.0533
▁kiertue	-11.0534
▁pahin	-11.0534
▁Kra	-11.0535
▁muisteli	-11.0535
▁varmuude	-11.0537
▁mietin	-11.0544
▁193	-11.0545
▁Oikea	-11.0548
▁remonti	-11.0549
▁voimin	-11.0552
▁hirmu	-11.0554
▁Argentiina	-11.0554
▁Johaug	-11.0554
▁Republikaani	-11.0554
▁kruuna	-11.0554
▁psykiatri	-11.0554
▁Rakennus	-11.0554
▁hetkeksi	-11.0554
▁itselleni	-11.0554
▁Jakso	-11.0554
▁huuli	-11.0554
▁karmea	-11.0554
▁onnettomuuksi	-11.0555
▁takuu	-11.0555
▁vastaamaan	-11.0555
▁tulevaisuus	-11.0555
▁Musiikki	-11.0556
▁vastauksen	-11.0556
▁positiivinen	-11.0558
▁valmentajana	-11.0558
▁Farmi	-11.0559
▁pisteeseen	-11.0559
terapeutti	-11.0559
▁lempi	-11.0561
▁Eeva	-11.0561
▁nahka	-11.0562
sivuston	-11.0563
lie	-11.0566
▁halva	-11.0566
▁Rita	-11.0567
▁päivitys	-11.0569
▁oikei	-11.057
▁yhteyksi	-11.0573
▁syrjä	-11.0574
▁ilmassa	-11.0577
▁eläinten	-11.0581
▁jättämää	-11.0582
▁Tarjo	-11.0585
▁nukkumaan	-11.0586
▁perinteinen	-11.0589
▁näkyvyy	-11.0592
▁Mad	-11.0594
▁Rydman	-11.0594
▁Tamm	-11.0595
▁Teh	-11.0597
turvallisuudesta	-11.0597
▁puute	-11.0598
virta	-11.06
▁loukkaantumise	-11.0601
▁näkyä	-11.0603
▁mut	-11.0605
heim	-11.0608
▁toivee	-11.0608
▁sopu	-11.061
▁Tornio	-11.0611
▁pudotta	-11.0611
▁avoimi	-11.0618
▁Oilers	-11.0621
▁poro	-11.0622
▁uutisen	-11.0623
▁yritystä	-11.0625
isoi	-11.0625
▁vahti	-11.0627
▁Aurinko	-11.0632
▁Libanonissa	-11.0633
▁rekisteröi	-11.0633
▁Nashville	-11.0637
▁Neuville	-11.0637
▁pöydän	-11.0637
▁2027	-11.0637
▁keskeytti	-11.0637
▁romahti	-11.0637
▁Peskov	-11.0637
▁maksimi	-11.0637
▁ainutlaatui	-11.0637
▁omaisuutta	-11.0637
▁uimahalli	-11.0637
▁Bild	-11.0638
▁ilmoitettu	-11.0638
▁valmiina	-11.0638
▁pidettävä	-11.0639
▁sotilaalli	-11.0639
▁startti	-11.064
▁Enso	-11.0641
▁maksetaan	-11.0641
▁Tänak	-11.0641
uuksia	-11.0642
kaapeli	-11.0644
▁veljensä	-11.0645
▁kertova	-11.0647
▁ajokeli	-11.0647
▁rahasto	-11.0649
▁pitkäaikais	-11.065
▁senttimetriä	-11.0653
▁oikeudell	-11.0655
▁Tuomo	-11.0656
▁Ing	-11.0656
▁viitt	-11.0662
▁enemmänkin	-11.0663
▁Kala	-11.0663
▁listan	-11.0665
▁järjestys	-11.0666
▁ME	-11.0666
▁vieraill	-11.0667
▁ellise	-11.0667
▁puh	-11.0669
▁vaihtele	-11.0671
▁sanoen	-11.0676
▁Euroviisuj	-11.0677
▁kalle	-11.068
▁vali	-11.0682
▁piirissä	-11.0684
▁selittä	-11.0688
▁Viestin	-11.069
▁jollain	-11.0691
▁meina	-11.0692
▁toimitukse	-11.0694
aikaisesti	-11.0695
▁Forss	-11.0696
▁puuttee	-11.0697
▁karva	-11.0698
▁King	-11.07
▁törkeää	-11.0706
▁kuuluvi	-11.0708
▁renkaa	-11.0712
▁80-	-11.0716
▁ksen	-11.0717
▁tety	-11.0718
▁kää	-11.0718
▁Juontaja	-11.072
▁entuudestaan	-11.072
▁rikosepäily	-11.072
▁viihdy	-11.072
▁SVT	-11.072
▁harrastukse	-11.072
▁1,7	-11.072
▁kelpaa	-11.072
yhtye	-11.0721
▁pakettiauto	-11.0722
▁Reijo	-11.0723
▁muuhun	-11.0723
▁puolustukse	-11.0724
pyy	-11.0724
▁käsityksen	-11.0725
▁suhteita	-11.0727
▁loista	-11.0727
▁jille	-11.0728
▁Selvi	-11.0728
▁Team	-11.0729
▁Heikkinen	-11.0729
essään	-11.073
▁oikeudet	-11.073
qui	-11.073
▁sarjaan	-11.0731
▁läheltä	-11.0732
▁iloa	-11.0733
▁kangas	-11.0734
▁laadu	-11.0735
▁Virossa	-11.0736
▁vanhaa	-11.0737
hoitaja	-11.0739
▁iskeä	-11.0743
▁amerikkalaise	-11.0743
▁varoitta	-11.0745
▁runo	-11.0745
▁vaarallisi	-11.0751
▁moneen	-11.0754
▁työmaa	-11.0755
▁Sky	-11.0755
idässä	-11.0758
▁Vuorinen	-11.0761
▁28,	-11.0764
▁miehell	-11.0765
▁Sano	-11.0766
▁kuvauksissa	-11.077
▁yhtyeen	-11.0774
▁imme	-11.0775
▁pyör	-11.0777
▁korkeamma	-11.0778
▁Tule	-11.0778
▁valitukse	-11.0778
▁salo	-11.0779
▁kotitalo	-11.078
▁tunnetta	-11.0781
▁Anderssoni	-11.0781
▁21,	-11.0784
▁osoite	-11.0784
▁israelilais	-11.0785
▁tiettyj	-11.0786
▁kier	-11.0788
▁miehittä	-11.0789
▁liikke	-11.0797
▁tyttöj	-11.0799
▁rokot	-11.08
▁Angel	-11.0803
▁avajais	-11.0804
rosenttiyksikköä	-11.0804
▁BMW	-11.0804
▁Kyllönen	-11.0804
▁Philadelphia	-11.0804
▁Teatteri	-11.0804
▁Volkswagen	-11.0804
▁odotettavissa	-11.0804
▁hylättiin	-11.0804
▁Piikkiö	-11.0804
▁Puhaka	-11.0804
▁ongelmaa	-11.0804
▁Kosonen	-11.0804
▁liikevaihto	-11.0804
▁kotimaassa	-11.0804
▁leikkauksen	-11.0805
▁ISTV	-11.0805
▁Aftonbladeti	-11.0807
▁Halusi	-11.0807
▁pysäyttä	-11.0807
▁Vastaava	-11.0807
Po	-11.0808
paikan	-11.0809
vaihe	-11.081
vaimo	-11.0811
▁tarvitsisi	-11.0814
▁and	-11.0814
bal	-11.0814
▁use	-11.0815
▁moottoritie	-11.0815
▁prikaati	-11.0816
meren	-11.0817
▁Dar	-11.0817
▁vaatteet	-11.0817
▁korkeampi	-11.0817
▁tunnelmi	-11.0817
▁omaisuude	-11.082
▁sävel	-11.0821
▁hiljaise	-11.0821
▁aktiivise	-11.0823
▁kuivu	-11.0824
▁hius	-11.0828
▁isiksi	-11.0832
▁160	-11.0832
▁sto	-11.0837
bri	-11.0838
▁kustannuksia	-11.0841
▁luuli	-11.0844
▁Od	-11.0845
▁Lappiin	-11.0845
▁toimijoi	-11.0845
istö	-11.0846
▁toimittajille	-11.0847
▁alenta	-11.0848
▁takla	-11.085
▁Jasmin	-11.0853
▁Viita	-11.0854
▁menisi	-11.0857
▁pelaavat	-11.0858
▁ilmoittama	-11.0858
▁jatkunut	-11.0858
hallituksen	-11.0859
▁lähettänyt	-11.0859
loma	-11.086
▁runko	-11.0863
▁Hor	-11.0865
▁vaatimukset	-11.0867
▁tilasta	-11.0867
▁rauhoittu	-11.0872
▁välein	-11.0872
▁Britanniassa	-11.0872
▁tuomioistui	-11.0874
▁Tal	-11.0874
▁vangit	-11.0874
▁nimiä	-11.0875
kielto	-11.0878
▁otsiko	-11.0878
▁Lähte	-11.0879
▁90-	-11.0881
▁levä	-11.0882
▁uhkaava	-11.0884
ó	-11.0889
▁Hurrikaani	-11.0889
▁Jungner	-11.0889
▁Kroatia	-11.0889
▁harvinainen	-11.0889
▁riskejä	-11.0889
▁keuhko	-11.0889
▁lämpene	-11.0889
▁Apple	-11.0889
▁henkirikos	-11.0889
▁uupu	-11.0889
▁Luonno	-11.0889
▁terveyte	-11.089
▁eurovaali	-11.089
▁pakeni	-11.089
▁Worl	-11.089
▁Jouni	-11.0891
▁valtakunnan	-11.0891
▁Ori	-11.0891
▁Rauma	-11.0892
▁leiki	-11.0893
▁hallitukse	-11.0893
▁kokonaisuus	-11.0893
▁hankinna	-11.0894
▁Nordea	-11.0894
korkeakoulu	-11.0895
▁huomautti	-11.0896
▁loppupuolella	-11.0897
▁Vermo	-11.09
▁79	-11.09
▁Vihre	-11.0903
▁lumen	-11.0903
▁paineita	-11.0904
▁Perttu	-11.0907
▁kseni	-11.0909
▁aidosti	-11.091
▁tekoa	-11.0911
▁epäselvä	-11.0911
▁sentään	-11.0912
▁metrillä	-11.0912
▁antami	-11.0915
▁itke	-11.0916
▁moka	-11.092
▁kaiv	-11.0921
▁Tiedo	-11.0921
▁varmis	-11.0921
▁tapaukseen	-11.0922
▁(3	-11.0924
▁panna	-11.0924
▁edeltävä	-11.0928
ohja	-11.093
▁tärkei	-11.093
▁tahall	-11.093
▁lähete	-11.0931
▁ennenkin	-11.0932
▁täyttävä	-11.0934
▁pannu	-11.0934
▁ohjata	-11.0939
▁pohj	-11.0939
▁taiteen	-11.0943
▁Tampere	-11.0947
▁valitsema	-11.0949
kanavalla	-11.0949
teihin	-11.0952
▁tyytyväisi	-11.0956
▁voimakkai	-11.0957
▁heilu	-11.0961
▁historialli	-11.0961
▁kapinallis	-11.0962
▁Sanoin	-11.0962
▁parkki	-11.0965
▁uusiksi	-11.0966
▁2020-	-11.0972
▁merkitykse	-11.0972
▁luistelu	-11.0974
▁pudonnut	-11.0974
▁Tammikuu	-11.0974
▁perehty	-11.0974
▁aukea	-11.0975
▁1,8	-11.0975
▁esti	-11.0975
▁kevyt	-11.0975
▁Noora	-11.0975
▁Krimi	-11.0975
▁luultav	-11.0976
▁kuninkaan	-11.0976
▁näyttäyty	-11.0976
▁pärjä	-11.0977
▁vahinkoja	-11.0977
▁Tyttö	-11.0977
▁kolmasosa	-11.0977
▁ateria	-11.0977
▁tienasi	-11.0978
▁rauhallise	-11.0979
ingham	-11.098
▁Diili	-11.0982
▁messu	-11.0982
▁87	-11.0983
▁inhimilli	-11.0983
ford	-11.0983
▁yhdeks	-11.0983
▁ohjaama	-11.0984
▁lentäjä	-11.0984
▁40-	-11.0987
▁lämmintä	-11.0987
▁puuha	-11.0989
▁Pyy	-11.0991
▁Mette	-11.0991
▁bensa	-11.0992
▁Madridi	-11.0994
emmin	-11.0999
▁reita	-11.1002
▁Rod	-11.1002
▁Kimi	-11.1002
▁180	-11.1003
▁kaivo	-11.1003
▁vuoti	-11.1003
▁raiva	-11.1004
▁kohtaukse	-11.1005
▁grammaa	-11.1006
▁vaivaa	-11.101
▁ttävä	-11.1012
▁nenä	-11.1013
voiton	-11.1015
▁rulla	-11.1019
▁korotus	-11.1019
▁Pakka	-11.102
▁selviyty	-11.1021
▁tarttui	-11.1021
▁Kans	-11.1022
▁tuntumassa	-11.1023
▁viimeisin	-11.1023
▁valvontaa	-11.1025
▁mulla	-11.1026
▁rangaist	-11.1028
▁vastaavat	-11.1031
▁Tel	-11.1033
▁kaksois	-11.1035
▁pysäyt	-11.1037
▁riippuva	-11.1045
▁keske	-11.1045
oikeuden	-11.1051
▁hehku	-11.1052
▁tunteja	-11.1059
▁Kansan	-11.106
▁räjähdys	-11.106
▁yöpäivysty	-11.106
▁sabotaasi	-11.106
▁venäläinen	-11.106
▁Kuusela	-11.106
▁ulkopuolelta	-11.106
▁Elokuu	-11.106
▁ikkunoi	-11.106
▁julisti	-11.106
▁totuus	-11.1061
▁turkulai	-11.1061
▁Hieno	-11.1062
▁seuroj	-11.1062
▁taloyhtiö	-11.1066
▁uhkaukse	-11.1067
▁korvi	-11.1069
▁Laaj	-11.1069
▁käytäntö	-11.1069
▁lume	-11.107
▁tyhjää	-11.1071
▁2002	-11.1073
▁vaka	-11.1073
▁Ryan	-11.1074
stetty	-11.1074
▁fyysise	-11.1075
▁varustettu	-11.1076
▁päivittä	-11.1077
▁yllätykse	-11.1078
luvulta	-11.108
▁painosta	-11.1081
▁järkevä	-11.1084
▁Jones	-11.1086
▁Britti	-11.1087
ivaa	-11.1087
▁AP	-11.1089
▁ehdotti	-11.109
▁Kris	-11.1093
▁epäonnistu	-11.1095
▁Niid	-11.1095
▁tekemiseen	-11.1098
▁tapahtuva	-11.1099
▁Siis	-11.11
▁mittava	-11.1105
▁joutu	-11.1105
▁koriste	-11.1107
▁uskonut	-11.1108
▁Ans	-11.1108
▁tiedustel	-11.1111
old	-11.1111
▁kiertueell	-11.1113
▁Missä	-11.1117
▁telu	-11.1118
▁Kel	-11.1119
▁tunniste	-11.1119
▁valmistele	-11.112
tore	-11.112
▁kehittämis	-11.1122
▁Com	-11.1123
▁pyynnö	-11.1127
▁Rann	-11.1128
▁Helmi	-11.1131
▁nouse	-11.1132
▁litraa	-11.1133
▁Anders	-11.1136
rom	-11.1138
▁Reet	-11.1141
▁vastausta	-11.1143
▁valitse	-11.1144
▁toivoa	-11.1145
▁yhdistä	-11.1147
▁Egypti	-11.1147
▁Yhteensä	-11.1147
▁digitaali	-11.1147
▁Vikman	-11.1147
▁tehtävistä	-11.1147
▁kap	-11.1147
▁Rasmus	-11.1147
▁kuunnella	-11.1147
▁bisnes	-11.1147
▁Obama	-11.1147
▁paljoa	-11.1147
▁Finaali	-11.1148
▁oikeudenmukai	-11.1148
▁sairaaloi	-11.1148
▁perintö	-11.1148
▁avioliitto	-11.1148
▁juosta	-11.1148
▁kaksinkertai	-11.1148
▁pysäköinti	-11.1148
▁suorituksi	-11.1148
▁sisäpiiri	-11.1149
▁tehokkaasti	-11.1149
▁fanei	-11.115
▁uskomaton	-11.1151
▁mitattiin	-11.1152
▁aktivisti	-11.1154
▁haukku	-11.1155
finaali	-11.1155
▁Perheen	-11.1156
▁varmisti	-11.1157
▁tarkistaa	-11.1157
▁86	-11.1158
▁tasaise	-11.1158
vyys	-11.116
▁Korpi	-11.1161
täviä	-11.1163
▁menetys	-11.1163
▁tuulen	-11.1166
immillään	-11.1168
▁systeemi	-11.1168
▁minne	-11.1171
▁1-0	-11.1171
▁järvellä	-11.1172
▁Kohta	-11.1173
▁konkurssi	-11.1174
▁Lund	-11.1176
▁Ukko	-11.1176
▁tyyty	-11.1179
▁huollo	-11.118
▁osoit	-11.1181
▁järkyttä	-11.1181
▁Merja	-11.1181
▁viidenneksi	-11.1186
▁markkinoid	-11.1188
umb	-11.119
gaalassa	-11.1191
▁Yrittäjä	-11.1193
▁muuttamaan	-11.1194
▁Roman	-11.1196
▁ohjukse	-11.1203
▁kohtaamis	-11.1205
▁esitutkinnan	-11.1206
▁70-	-11.1207
▁stadioni	-11.1208
aattona	-11.1209
▁Cas	-11.121
gor	-11.1211
▁haava	-11.1215
▁Trumpille	-11.1216
▁sähköautoj	-11.1216
▁Rosa	-11.122
▁suunnitelmia	-11.1222
▁tetaan	-11.1224
▁raskas	-11.1228
▁oikeuksia	-11.1228
▁valmistaji	-11.1228
▁lapselle	-11.1228
▁nousseet	-11.1232
▁Erikois	-11.1233
kri	-11.1233
▁Hradecky	-11.1235
▁pudotuspeleissä	-11.1235
▁pysähdy	-11.1235
▁ymmärsi	-11.1235
▁mielenosoittaji	-11.1235
▁protesti	-11.1235
▁Todennäkö	-11.1235
▁Valitettava	-11.1236
▁huomata	-11.1236
▁Valkeakoske	-11.1236
▁kohtelu	-11.1236
▁herkull	-11.1236
▁avajaisi	-11.1236
▁palomestari	-11.1237
▁naama	-11.1239
▁tosissaan	-11.124
▁Fico	-11.124
▁matkusti	-11.124
▁helpompi	-11.1241
▁Muutos	-11.1244
▁Elämän	-11.1244
▁kierto	-11.1245
ikat	-11.1245
▁misessä	-11.1247
vastuu	-11.1247
yhtyeen	-11.1248
▁tuotu	-11.1249
▁tekijöitä	-11.1252
▁käyttänee	-11.1253
▁päiväsak	-11.1255
▁Saara	-11.1256
▁kasvoja	-11.1256
stein	-11.126
▁vuode	-11.1264
▁käytöksestä	-11.1266
▁140	-11.1266
▁kasvis	-11.1272
▁menevä	-11.1276
▁gaala	-11.1276
▁(5	-11.1276
▁otteluita	-11.1277
▁dokumentissa	-11.1277
▁yhdysvaltalai	-11.128
▁harjoittele	-11.128
▁yritetä	-11.1281
▁alkuperä	-11.1283
▁Suu	-11.1285
Satonen	-11.1292
▁hyökkäyksi	-11.1296
utistoimisto	-11.1297
▁Mary	-11.13
▁ehdottaa	-11.13
▁Miro	-11.1305
▁rinnalle	-11.1305
▁remontoi	-11.1306
ajalla	-11.1306
▁Kaar	-11.1307
▁Pie	-11.132
▁Riihi	-11.132
▁Aftonbladet	-11.132
▁rasit	-11.1321
list	-11.1321
▁Hovioikeu	-11.1322
▁tulehdus	-11.1323
▁reservi	-11.1323
▁Duplantis	-11.1324
▁hurrikaani	-11.1324
▁siirry	-11.1324
▁skandaali	-11.1324
▁tragedia	-11.1324
▁Pennsylvania	-11.1324
▁elimistö	-11.1324
▁Porvoo	-11.1324
▁Lukija	-11.1324
▁räppäri	-11.1324
▁huusi	-11.1324
▁Panthersin	-11.1325
▁tilaisuuteen	-11.1325
▁luonnoll	-11.1325
▁perusteet	-11.1326
▁poliisilaitos	-11.1326
▁ponnist	-11.1326
▁Kontio	-11.1326
▁olekaan	-11.1327
▁Mauri	-11.1327
▁kunnanjohtaja	-11.1328
ahdus	-11.1328
▁verho	-11.1329
▁kädet	-11.1329
▁Jackson	-11.1329
▁eduskuntaan	-11.1331
▁edetä	-11.1331
▁todisteita	-11.1331
▁sotilaat	-11.1331
▁isempaa	-11.1332
tuomio	-11.1334
▁Herman	-11.1334
▁aloitus	-11.1334
▁21-	-11.1335
▁halunnee	-11.1336
▁oikeaan	-11.1336
▁jäähy	-11.1337
▁Ella	-11.1337
▁Silja	-11.134
▁nousema	-11.134
▁odottama	-11.1341
▁Jyväskylässä	-11.1343
▁Kaksik	-11.1343
▁?"	-11.1344
▁tuomin	-11.1345
IA	-11.1347
▁tullessa	-11.1347
▁tus	-11.1348
▁kirjo	-11.1349
isty	-11.135
▁Tornion	-11.1351
teilla	-11.1354
ydy	-11.1355
▁viileä	-11.1357
▁aseiden	-11.136
▁ystävien	-11.1363
▁Suora	-11.1372
▁markkinoille	-11.1374
▁Kip	-11.1377
▁seuraavaa	-11.1381
▁luokassa	-11.1382
oosi	-11.1382
▁karta	-11.1387
▁Nimi	-11.1388
▁tehtyä	-11.1388
juu	-11.1392
▁nne	-11.1392
▁Jenn	-11.1398
▁korot	-11.1399
▁käsiin	-11.1401
▁91	-11.1403
yhteyde	-11.1409
▁omilla	-11.1409
▁puolueet	-11.141
▁loukka	-11.141
▁Ahonen	-11.1412
▁avaruus	-11.1413
▁ymmärrettävä	-11.1413
▁Viktor	-11.1413
▁asevoimat	-11.1413
▁Dmitr	-11.1413
▁onnettomuudesta	-11.1413
▁Juhla	-11.1413
▁niukasti	-11.1413
▁ajatellut	-11.1413
▁valtioneuvosto	-11.1415
▁joukkueesta	-11.1415
▁tiedetä	-11.1416
▁Raahe	-11.1416
▁digi	-11.1416
▁käynti	-11.1417
▁rauhallinen	-11.1418
▁hakema	-11.1419
varainministeriö	-11.1419
▁jäähalli	-11.142
▁häiriöitä	-11.142
▁isimma	-11.1421
▁Mira	-11.1423
▁Elli	-11.1423
▁hienosti	-11.1424
neuvottelut	-11.1424
Seppo	-11.1424
▁Tapani	-11.1425
▁astui	-11.1428
▁sijoitukse	-11.1429
▁vaaranta	-11.1429
▁nnin	-11.1429
iseksi	-11.143
▁mopo	-11.1431
▁liuku	-11.1433
▁käytety	-11.1433
▁maatalou	-11.1435
▁aloitettu	-11.1435
▁tär	-11.1435
▁kuvailla	-11.1437
▁julkaisussa	-11.1438
▁suhteet	-11.1439
▁tarjonta	-11.144
sali	-11.144
▁päällikön	-11.1446
▁Hill	-11.1449
▁(4	-11.1452
▁Peltonen	-11.1453
▁isimpi	-11.1453
▁Teko	-11.1455
▁Julkaisu	-11.1456
▁puole	-11.1456
kuitu	-11.1459
▁ravinto	-11.146
▁peto	-11.1463
▁viety	-11.1463
▁Muita	-11.1467
tarkastaja	-11.1467
▁tavata	-11.1468
▁Toto	-11.1469
▁Bess	-11.147
▁tienaa	-11.1471
▁jaettu	-11.1473
▁näytteli	-11.1474
stui	-11.1475
▁terä	-11.1475
▁ylitti	-11.1475
▁Lain	-11.1475
▁Korte	-11.1479
▁julkisuudesta	-11.1483
▁Alun	-11.1485
▁kylmää	-11.1486
▁mieti	-11.1487
▁ymmärtävä	-11.1489
17	-11.1491
▁Jean	-11.1493
▁vahinko	-11.1493
▁todennäköisi	-11.1496
▁korvata	-11.1499
▁käänteen	-11.15
▁koskettava	-11.15
▁Aat	-11.1502
▁henkilökohtai	-11.1503
▁NRK	-11.1503
▁puheenaihe	-11.1503
▁sosiaaliturva	-11.1503
▁tulitauko	-11.1503
▁terapia	-11.1503
▁liikenteeseen	-11.1503
▁syytöksi	-11.1503
▁Brother	-11.1503
▁arkeen	-11.1503
▁päihte	-11.1503
▁Veera	-11.1504
▁1,2	-11.1504
▁Keränen	-11.1504
▁hehkuttaa	-11.1505
▁aineisto	-11.1506
▁sellaisi	-11.1506
▁rikkomisesta	-11.1508
▁ilmatila	-11.1509
urheilija	-11.1514
▁halutessa	-11.1515
▁jatke	-11.1515
▁mauste	-11.1516
▁päättä	-11.1518
▁kuluessa	-11.1518
▁arvokka	-11.1518
▁myydään	-11.1519
▁jääty	-11.1524
▁yritett	-11.1524
▁kiinnitti	-11.1526
▁ensisijaise	-11.1531
▁vuosikymment	-11.1532
▁tuomarei	-11.1533
▁ehdokkaat	-11.1533
▁sisu	-11.1537
▁Urs	-11.1539
▁tuotteen	-11.1541
▁pomp	-11.1542
▁Temo	-11.1549
▁karkot	-11.1552
yksessä	-11.1553
▁arjessa	-11.1553
seutu	-11.1554
▁vaihtui	-11.1554
uksella	-11.1555
▁Kiinassa	-11.1562
▁Kevi	-11.1568
▁uskottava	-11.1569
▁Kam	-11.1571
▁aviomiehe	-11.1571
▁jäisi	-11.1575
▁vuota	-11.1583
▁suunnitteli	-11.1584
▁vihje	-11.1585
impia	-11.1586
▁22-	-11.1586
▁yritä	-11.1589
▁korkeus	-11.1593
▁kriteeri	-11.1594
ø	-11.1594
▁neuvonantaja	-11.1594
▁Haastattelu	-11.1594
▁teoria	-11.1594
▁rajoja	-11.1594
▁Jordan	-11.1594
▁Zuma	-11.1594
▁avauserä	-11.1594
▁Karlsson	-11.1594
ehdokkuude	-11.1594
▁nopeutta	-11.1595
▁sentteri	-11.1596
▁yhdistetty	-11.1596
▁hallituspuolue	-11.1596
▁helpompaa	-11.1596
▁vammais	-11.1598
▁pidätetty	-11.1599
▁Kauppi	-11.1602
▁tekniika	-11.1602
▁halv	-11.1603
▁Onnettomuude	-11.1604
▁kannattajat	-11.1607
▁innoissaan	-11.1612
▁vaurioitu	-11.1615
▁Vanh	-11.1616
▁kunnallis	-11.1617
▁Tri	-11.1617
▁vahvistanut	-11.162
▁sovellus	-11.162
▁levit	-11.1622
▁monipuolis	-11.1625
SA	-11.1628
▁maailmancupissa	-11.1629
▁Salmise	-11.1643
erveysministeriö	-11.1652
▁ympäristössä	-11.1654
▁tietee	-11.1654
▁hyvänä	-11.1655
▁kiusaamis	-11.1656
▁sormi	-11.1664
▁rajoittam	-11.1672
▁Keh	-11.1672
▁tehosta	-11.1673
▁sieni	-11.1673
▁suunnitelmaa	-11.1674
▁vertaa	-11.1675
▁juliste	-11.1675
▁para	-11.1676
tamalla	-11.1682
cho	-11.1684
ympärivuorokauti	-11.1686
▁Kiinteistö	-11.1686
▁Rääkkylä	-11.1686
▁Sirviö	-11.1686
▁Toukokuu	-11.1686
▁ulkomaille	-11.1686
▁Hurske	-11.1686
▁tarkoittaisi	-11.1686
▁Salmela	-11.1686
▁Yleisurheilu	-11.1686
▁lounas	-11.1686
▁Lindén	-11.1687
▁kirjoitetaan	-11.1688
▁Edellisen	-11.1688
▁palkan	-11.1691
▁Nyman	-11.1691
▁Kenia	-11.1691
▁muuttunee	-11.1692
▁uutena	-11.1692
▁aida	-11.1693
▁Olympiastadioni	-11.1695
▁pituus	-11.1696
▁samoj	-11.1696
aamuna	-11.1696
▁kuuntele	-11.1698
▁arvokas	-11.1699
▁Salla	-11.1699
▁Brysselissä	-11.17
▁sakot	-11.17
▁Tukholmassa	-11.17
▁myytiin	-11.17
▁liity	-11.1701
▁turvallisuuteen	-11.1704
▁perheessä	-11.1704
▁aikansa	-11.1706
▁samanlaise	-11.1706
▁sumu	-11.1706
▁leika	-11.1708
▁ennakkoon	-11.1708
LA	-11.1712
▁poikien	-11.1712
▁Manninen	-11.1712
▁pohjoisma	-11.1713
▁im	-11.1715
jäsenyyden	-11.1719
▁dr	-11.1719
▁syvyy	-11.172
▁Montreali	-11.1724
▁ongelmiin	-11.1724
▁kaikkialla	-11.1727
▁pahaa	-11.1727
▁Kokkola	-11.173
▁Lahtinen	-11.1731
▁jia	-11.1735
▁kuninkaallis	-11.1735
▁ammattilaise	-11.1736
▁Nar	-11.1736
▁tote	-11.1736
▁tuntuvat	-11.1739
▁Natoon	-11.1739
▁piina	-11.1739
▁Tul	-11.174
▁rooliin	-11.1742
2)	-11.1744
▁haluttu	-11.1744
▁kisasta	-11.1745
▁Maj	-11.1745
▁päästy	-11.1746
▁Eurooppaa	-11.175
itsenäisyyspäivä	-11.1754
▁Expresseni	-11.1754
▁opettaji	-11.1756
▁ihmettele	-11.1757
▁kosto	-11.1758
▁hiuksi	-11.1758
▁sopimukseen	-11.1758
▁varre	-11.1761
▁tilaus	-11.1763
▁piiriin	-11.1763
▁Tass	-11.1766
▁sujuva	-11.1766
▁ikäänty	-11.1768
▁Del	-11.1768
▁konsul	-11.1771
▁ratkaisi	-11.1776
▁vitsail	-11.1778
▁Hockey	-11.1778
▁resurssi	-11.1778
▁Onlyfans	-11.1778
▁Savonlinna	-11.1778
▁Syyskuu	-11.1778
▁englanniksi	-11.1778
▁kapasiteetti	-11.1778
▁sukupolvi	-11.1778
▁ulkomailta	-11.1778
▁perustuslai	-11.1778
▁Rkp	-11.1778
▁Tikkanen	-11.1778
▁Nelose	-11.1778
▁puhelimitse	-11.1779
▁virtsa	-11.1779
▁jännittävä	-11.178
▁väkisin	-11.178
▁tutkinnassa	-11.178
▁suunnist	-11.178
▁nuorempi	-11.1783
▁kra	-11.1783
▁suurimmista	-11.1783
▁romaani	-11.1784
▁majoitus	-11.1784
▁opetukse	-11.1786
▁Sieppi	-11.1786
▁syty	-11.1787
▁tilanteet	-11.1787
▁selvittämään	-11.1787
▁keskustelemaan	-11.1788
▁84	-11.1789
▁nnista	-11.179
tapahtuma	-11.1792
▁tuneet	-11.1792
perussuomalaiset	-11.1795
Connor	-11.1797
ther	-11.1798
▁tiloj	-11.1798
▁vala	-11.1799
▁iässä	-11.18
▁tehtävästä	-11.18
▁kohteisiin	-11.18
▁itku	-11.18
▁odotus	-11.1804
▁näköise	-11.1806
▁mainitu	-11.1806
▁syyttei	-11.1808
▁kuvail	-11.1812
▁niemi	-11.1815
▁Putinille	-11.1815
sentti	-11.1816
▁tasaisesti	-11.1817
ilma	-11.1818
▁valoa	-11.1822
▁1-1	-11.1825
aarikko	-11.1827
ähtää	-11.1827
▁ikui	-11.1831
▁julma	-11.1835
▁harrastaja	-11.1838
▁periaatte	-11.1838
▁Arja	-11.1841
▁toimiala	-11.1842
▁pakotta	-11.1842
elma	-11.1843
▁ilmaisi	-11.1848
▁palveluista	-11.1851
ilema	-11.1852
▁Mahdolli	-11.1856
▁evakuoi	-11.1858
▁miehenä	-11.1862
▁haltuun	-11.1862
▁kilpailla	-11.1864
▁Brygg	-11.1872
▁kotikentällä	-11.1872
▁löydä	-11.1872
▁Taiwani	-11.1872
▁meneillään	-11.1872
▁ankkuri	-11.1872
▁Kajaani	-11.1872
▁toimeentulo	-11.1872
▁IFK	-11.1873
▁muokatt	-11.1873
▁ansiotulo	-11.1873
▁Määrä	-11.1873
▁2)	-11.1873
▁selostaja	-11.1875
▁painu	-11.1875
▁tyydy	-11.1875
▁koeajo	-11.1876
▁porno	-11.1876
▁vyöry	-11.1876
▁siirretty	-11.1877
▁symboli	-11.1877
▁ulosajo	-11.1877
▁Kirkko	-11.1878
▁aikavälillä	-11.188
▁liikkuvat	-11.1882
▁komedia	-11.1882
▁Lukas	-11.1883
▁luonne	-11.1884
koulu	-11.1884
▁selitti	-11.1885
▁Rock	-11.1886
▁uskota	-11.1887
▁bile	-11.1887
professori	-11.189
▁ID	-11.1892
▁Nais	-11.1893
▁vanno	-11.1895
▁anti	-11.1898
▁rangaistusta	-11.19
▁Naiset	-11.1901
▁tavoitteet	-11.1901
▁esitutkinna	-11.1903
▁korkeinta	-11.1906
▁luopua	-11.1907
▁keskusteli	-11.1909
▁Kyseise	-11.191
▁Jenna	-11.191
▁sodasta	-11.1911
▁Kuopiossa	-11.1913
▁raportissa	-11.1913
▁surmansa	-11.1915
▁hankke	-11.1916
▁palaut	-11.1919
▁paikkoj	-11.1921
▁varo	-11.1922
▁tuomiosta	-11.1923
▁osallistuvat	-11.1925
▁kymmenes	-11.1932
▁puutu	-11.1934
▁sellaisena	-11.1935
▁tuntuva	-11.1942
▁Liisa	-11.1945
kadu	-11.1951
▁johtuva	-11.1952
▁Pak	-11.1955
▁tuksi	-11.1958
▁Muuten	-11.1963
▁1996	-11.1966
▁Seitsemä	-11.1966
▁kristillis	-11.1966
▁Epäilly	-11.1966
▁hiljen	-11.1966
▁unohd	-11.1966
▁johtanee	-11.1966
▁nälkä	-11.1966
▁vankeustuomio	-11.1966
▁autoilijoi	-11.1966
▁nauru	-11.1966
▁toisiinsa	-11.1967
▁liittouma	-11.1967
▁sekaisin	-11.1967
▁toimenpide	-11.1968
▁arvel	-11.1969
▁epäile	-11.197
▁Haley	-11.1972
▁luvut	-11.1974
▁keskusteluja	-11.1974
▁petty	-11.1976
▁Ojala	-11.198
▁kiertueen	-11.198
ketju	-11.1982
Ä	-11.1983
laulu	-11.1983
▁virus	-11.1985
uduttiin	-11.1986
▁Itämerellä	-11.1989
tyyli	-11.199
▁kertynyt	-11.1991
▁vartija	-11.1991
▁pohtia	-11.1993
▁paikallaan	-11.1996
▁termi	-11.1997
▁paida	-11.1999
Amerikassa	-11.2
Se	-11.2
▁katsonut	-11.2002
▁varm	-11.2002
▁indeksi	-11.2004
▁kehä	-11.2005
▁konservatiivi	-11.2005
▁irtisano	-11.2005
sport	-11.2009
▁voittajaksi	-11.201
▁tarjoukse	-11.2011
▁Em	-11.2014
▁miljooni	-11.2015
▁opisto	-11.2015
mmalla	-11.2015
▁vuosikymmeniä	-11.2019
▁kumppaninsa	-11.2021
▁13-	-11.2023
▁myi	-11.2024
▁kirjoi	-11.2026
▁suurimpi	-11.2027
▁Jens	-11.2028
▁Kymmene	-11.2032
ärkkä	-11.2039
▁irtisanomis	-11.2039
▁käynnistyi	-11.2042
liikenteen	-11.2045
▁velvoitte	-11.2047
▁käsittelyssä	-11.2048
▁ohjelmasta	-11.2049
▁moottoripyörä	-11.2051
▁Hieta	-11.2056
▁Silvennoinen	-11.2061
▁Vancouver	-11.2061
▁identiteetti	-11.2061
▁AHL	-11.2061
▁Rafahi	-11.2061
▁Helmikuu	-11.2061
▁Heinäkuu	-11.2061
▁risteily	-11.2062
▁auttanut	-11.2062
rikosilmoituksen	-11.2062
▁käsky	-11.2062
▁hoidetaan	-11.2062
▁mielui	-11.2063
▁katsottav	-11.2063
▁uudenvuoden	-11.2063
▁hiljaa	-11.2066
▁Rally	-11.2067
▁lapsuuden	-11.2068
▁ihmeelli	-11.2069
▁vaurioita	-11.2069
▁ruokailu	-11.2069
▁linjoilla	-11.207
▁panos	-11.207
kur	-11.207
▁Veli	-11.207
▁05	-11.2071
▁pysäytti	-11.2072
▁ttele	-11.2075
▁nimetty	-11.2076
▁järje	-11.2077
▁Uni	-11.2078
osassa	-11.2078
▁pesi	-11.2079
palkinno	-11.2079
▁mallisto	-11.2081
▁Gra	-11.2082
▁nolo	-11.2082
▁Evans	-11.2083
venäläisten	-11.2083
▁vaarallista	-11.2086
▁suunnattu	-11.2086
▁sopimuksia	-11.2087
▁pyhi	-11.2089
▁vaaleihin	-11.209
▁Tarkka	-11.2091
▁Vahv	-11.2092
▁(8	-11.2094
▁nousuun	-11.2095
▁mehu	-11.2099
▁Bulli	-11.21
yhtymä	-11.2101
▁kuuluisa	-11.2101
▁kavereita	-11.2102
▁Jasmi	-11.2102
▁sorme	-11.2102
laatu	-11.2105
▁aihetta	-11.2109
▁Anu	-11.2109
kanta	-11.2111
▁Temp	-11.2113
▁puhumaan	-11.2114
▁älä	-11.2114
▁automaatti	-11.2115
▁erikoistu	-11.2115
▁kysymyksi	-11.212
▁vieraita	-11.2123
▁antamassa	-11.2125
▁lääkkee	-11.2131
▁lopulli	-11.2133
▁suojel	-11.2136
▁ilijoi	-11.2137
▁ehdolle	-11.2137
▁vankilaan	-11.2138
▁vastus	-11.2144
▁You	-11.2146
▁finaalisarja	-11.2149
▁lieve	-11.215
tiete	-11.2152
▁Vapaa	-11.2152
▁runsas	-11.2155
▁katumaasturi	-11.2157
▁liittovaltio	-11.2157
▁myöhässä	-11.2157
▁sarjoissa	-11.2157
▁WRC	-11.2157
▁Korisliiga	-11.2157
▁sääntely	-11.2158
▁kollego	-11.2158
▁Danny	-11.2158
▁ylöspäin	-11.2158
▁Puolustusvoima	-11.2158
▁ahtaa	-11.2159
▁alaisuudessa	-11.2159
▁vaikutusvalta	-11.2159
▁Lewi	-11.2159
▁Petr	-11.216
▁vaalipiiri	-11.2161
▁taustoi	-11.2161
▁yhteiskuva	-11.2162
mber	-11.2162
▁Murro	-11.2163
▁televisiossa	-11.2164
▁muilta	-11.2164
▁näkevä	-11.2165
▁kateissa	-11.2166
▁vale	-11.2168
▁lentokentällä	-11.2168
▁Cam	-11.2168
▁elossa	-11.2169
▁Saramo	-11.217
▁makaa	-11.2173
▁pääoma	-11.2174
▁pyrkimy	-11.2174
▁pöytään	-11.2177
▁neuvotteluissa	-11.2177
▁lähtöä	-11.2178
▁viimeiseksi	-11.2178
▁punainen	-11.2183
▁Jaakkola	-11.2184
▁raskaana	-11.2184
▁pelannee	-11.2184
▁tiedotus	-11.2185
▁paska	-11.2185
▁veren	-11.2186
▁salaise	-11.2187
▁helte	-11.219
▁Ur	-11.2192
▁Talli	-11.2193
▁rangaistuksen	-11.2195
▁korvaamaan	-11.2196
▁vartalo	-11.2196
▁Tarj	-11.2196
▁tulokseen	-11.2197
lukemi	-11.2199
▁autoista	-11.2199
▁89	-11.2202
▁taitava	-11.2202
▁pane	-11.2203
▁toimineen	-11.2207
tuneita	-11.2208
▁kustannuksi	-11.2212
▁Vesala	-11.2212
▁määrittele	-11.2216
▁tutustui	-11.2217
▁viranomai	-11.2222
▁kuvaaja	-11.2225
▁lasketa	-11.2227
▁salissa	-11.2228
▁vapaaehtoise	-11.2231
▁julkaisemassa	-11.2232
▁terveell	-11.2235
▁11-	-11.2236
▁Rose	-11.224
▁Eläin	-11.2245
puku	-11.2246
▁Luu	-11.2246
▁korkeakoulu	-11.2248
▁velkaa	-11.225
▁24-	-11.2252
▁pelkkä	-11.2252
Huuhkajat	-11.2254
▁Urheilija	-11.2254
▁naureskel	-11.2254
▁tappelu	-11.2254
▁Serbia	-11.2254
▁komissaari	-11.2254
▁soveltu	-11.2254
▁alleviiva	-11.2255
▁Sipilä	-11.2255
▁Blomqvist	-11.2255
▁Tampa	-11.2255
▁olkapää	-11.2255
▁viereen	-11.2255
▁Perez	-11.2256
▁terveydentila	-11.2256
kaali	-11.2256
▁esikois	-11.2256
valiokunta	-11.2257
▁lakkautta	-11.2258
▁jäsenmai	-11.2258
▁Tuukka	-11.2258
▁tahtiin	-11.2259
▁riida	-11.2261
▁opinto	-11.2261
▁kyllästy	-11.2262
▁Terve	-11.2263
▁metro	-11.2263
▁tutkijoi	-11.2264
▁71	-11.2266
▁merkeissä	-11.2267
75-	-11.2267
▁tekemättä	-11.2267
▁räjähtä	-11.2268
▁sairastui	-11.2268
▁peili	-11.2269
▁torni	-11.2271
▁Walesi	-11.2274
hoido	-11.2275
▁tarjoava	-11.2275
car	-11.2276
▁kerra	-11.2277
▁läinen	-11.2277
stetään	-11.2277
▁cm	-11.2278
▁opiskeli	-11.2279
uohon	-11.2281
▁tappiota	-11.2282
▁Jyväskylä	-11.2283
▁pelaajana	-11.2284
▁tarinoita	-11.2285
▁kohdistui	-11.2288
poika	-11.2292
▁Far	-11.2293
▁hallitse	-11.2293
▁Euroviisu	-11.2294
▁sairaalasta	-11.2296
▁Jessi	-11.2297
▁ttaisi	-11.2297
▁Neli	-11.2308
▁pelaajille	-11.2309
▁visa	-11.231
▁muutokse	-11.2314
▁yötä	-11.2318
hallitus	-11.2319
▁Alko	-11.232
▁rintamalla	-11.2326
▁harkitse	-11.2327
▁kuormit	-11.2328
▁perussuomalaisi	-11.2328
ung	-11.233
▁kokea	-11.2333
▁Yhdisty	-11.2334
▁tehtävänä	-11.2341
▁83	-11.2342
▁näyttöä	-11.2344
▁Alma	-11.2347
▁taisteli	-11.2348
▁Olo	-11.235
▁armo	-11.235
▁Im	-11.2351
▁Oppositio	-11.2352
skusrikospoliisi	-11.2353
▁Jersey	-11.2353
▁Tärkein	-11.2353
▁Yleisradio	-11.2353
▁bensiini	-11.2353
▁debytoi	-11.2353
▁silminnäkijä	-11.2353
▁spekulaatio	-11.2353
▁Blinken	-11.2353
▁Marraskuu	-11.2353
▁Mirror	-11.2353
▁perheenjäsen	-11.2353
▁Miehet	-11.2353
▁omistus	-11.2353
▁värvä	-11.2353
▁tunkeutu	-11.2353
▁terrorismi	-11.2353
▁Anthon	-11.2353
▁Hyvinvointialue	-11.2353
▁lounaa	-11.2353
▁formul	-11.2353
▁biologi	-11.2353
▁paneeli	-11.2353
▁rikoksia	-11.2354
▁huoneisto	-11.2354
▁itäise	-11.2355
▁tarvi	-11.2356
▁hoiva	-11.2358
▁kiiva	-11.2359
▁suurempaa	-11.236
▁valtiovarain	-11.236
▁tulta	-11.236
▁hankalaa	-11.2361
▁merkitty	-11.2362
▁polu	-11.2366
▁ehdokkaa	-11.2367
▁ajanee	-11.2367
▁risteyksessä	-11.2368
ytär	-11.2368
▁lunast	-11.2369
▁hengissä	-11.237
▁Maili	-11.2371
ctor	-11.2371
▁lepo	-11.2372
syöpä	-11.2372
▁Mag	-11.2374
▁lopullise	-11.2374
rikoksesta	-11.2375
▁lisääntynyt	-11.2375
▁sanottiin	-11.2375
maailma	-11.2375
▁kärsivä	-11.2375
▁kaupungeissa	-11.2377
▁taitoja	-11.238
▁maksavat	-11.2381
▁lisätty	-11.2383
▁Pyri	-11.2383
▁tiedosta	-11.2385
▁tavall	-11.2392
▁Til	-11.2394
▁Rangers	-11.2399
▁Käräjäoikeude	-11.2401
▁kohdistunut	-11.2402
▁tapet	-11.2402
▁näkemä	-11.2403
▁rakentama	-11.2406
▁radikaali	-11.2406
▁muistuttava	-11.2407
kaupunginjohtaja	-11.2408
▁kkää	-11.2408
▁dramaatt	-11.2411
▁seuraama	-11.2413
▁näytös	-11.2413
▁kotinsa	-11.2415
▁vahvoj	-11.2417
▁kutsuu	-11.2419
▁tty	-11.2419
▁chi	-11.2419
vyyttä	-11.2421
▁hakenut	-11.2421
▁haitta	-11.2422
▁Ikä	-11.2423
▁avio	-11.2424
▁kansalaist	-11.2428
▁viksi	-11.2431
▁Kier	-11.2433
▁vahingoit	-11.2436
▁kyynel	-11.2436
▁Santa	-11.2437
▁Jääkiek	-11.2438
▁paikkaansa	-11.2439
▁Väh	-11.2442
▁ampumis	-11.2442
▁luottamusta	-11.2443
▁geo	-11.2445
▁seutu	-11.2445
▁Eloran	-11.2445
way	-11.2448
▁tyyliin	-11.245
▁muoka	-11.245
▁lääkärei	-11.2452
▁Kulttuuri	-11.2452
▁Tšeki	-11.2452
▁edustajainhuone	-11.2452
▁haavoittuv	-11.2452
▁kontakti	-11.2452
▁McDavid	-11.2452
▁rakkautta	-11.2452
▁suomeksi	-11.2452
▁nuorukai	-11.2452
▁synkkä	-11.2452
▁uudis	-11.2452
▁bakteeri	-11.2452
▁Joulukuu	-11.2452
▁tekstiviesti	-11.2452
▁elinvoima	-11.2452
▁taipui	-11.2453
▁lehdessä	-11.2453
▁Antonio	-11.2454
▁arvoinen	-11.2455
▁pelattava	-11.2455
▁Carter	-11.2459
▁Tori	-11.2461
IS	-11.2461
▁etsivä	-11.2462
▁Raimo	-11.2463
▁otettava	-11.2465
▁kappaleita	-11.2467
▁Janni	-11.2467
▁GT	-11.2469
▁Erika	-11.247
▁Jutt	-11.247
▁osuutta	-11.2471
▁kunnat	-11.2471
▁käyvä	-11.2473
▁kirurgi	-11.2474
▁Neste	-11.2475
▁Gazaan	-11.2475
▁Kerro	-11.2476
▁liittymä	-11.2477
▁seuranta	-11.2479
far	-11.2482
▁mukavaa	-11.2483
▁sähköä	-11.2487
▁kiitti	-11.2489
▁tiivistää	-11.2493
▁vaalipäivä	-11.2496
▁muistel	-11.2496
▁jouduta	-11.2499
▁Urpilai	-11.2499
▁kukin	-11.2504
▁Jokerit	-11.2515
▁vuori	-11.2516
▁kierrosta	-11.2519
▁valmistaa	-11.2519
▁rus	-11.252
▁yksinkertai	-11.2524
▁Vei	-11.2527
▁Juu	-11.2528
▁vastaanott	-11.2532
▁askelee	-11.2532
▁esimerki	-11.2532
▁konkurssiin	-11.2533
tuntunut	-11.2543
▁lajissa	-11.2543
▁linnu	-11.2545
▁leikata	-11.2545
▁edeltä	-11.2546
▁tutuksi	-11.2547
▁Matt	-11.255
▁Stoltenberg	-11.2552
▁divisioona	-11.2552
▁ennakkosuosikki	-11.2552
▁tulevaisuutta	-11.2552
▁Maaliskuu	-11.2552
▁Russell	-11.2552
▁Mäenpää	-11.2552
▁Harald	-11.2552
▁terveydenhuolto	-11.2552
▁suunnille	-11.2552
▁laajemmin	-11.2552
▁fakta	-11.2552
▁silloise	-11.2552
▁Gnistan	-11.2552
▁miljonääri	-11.2552
▁ylioppilas	-11.2552
▁nauha	-11.2552
▁dy	-11.2552
▁Ikonen	-11.2553
▁tarinaa	-11.2553
▁käytettävä	-11.2554
▁nelos	-11.2554
▁Silvia	-11.2554
▁Manner	-11.2554
▁Pyhä	-11.2555
▁tervehti	-11.2556
▁herää	-11.2556
▁sattuma	-11.2556
▁Kaarle	-11.2557
▁vesistö	-11.2557
▁Huono	-11.2557
▁Kaikke	-11.2558
▁Kerava	-11.2559
▁kyselyyn	-11.256
▁hehkutti	-11.256
▁venäläisiä	-11.256
▁väitetty	-11.2562
salmi	-11.2563
▁valintaa	-11.2566
▁uraansa	-11.2571
asunto	-11.2572
▁laitoksi	-11.2574
▁kuop	-11.2575
▁pelaamista	-11.2575
▁Paju	-11.2575
▁kirjoitett	-11.2576
kyvy	-11.2576
▁Expressen	-11.2578
pohja	-11.2579
▁valitsee	-11.2586
▁puheita	-11.2587
ruoka	-11.2588
▁tehokas	-11.2591
kaveri	-11.2591
▁löysivät	-11.2591
▁syömään	-11.2592
wer	-11.2595
sonin	-11.2601
▁missa	-11.2602
▁lakiin	-11.2603
▁Tutki	-11.2603
▁suunnittelema	-11.2606
▁konserni	-11.2608
▁tietokone	-11.2608
▁Hans	-11.2609
▁söi	-11.2609
▁lopettamise	-11.261
▁Henrik	-11.2612
▁puol	-11.2613
▁hiihtäji	-11.2613
▁Tulokse	-11.2613
▁suorite	-11.2615
▁kohdalle	-11.2616
▁ime	-11.2626
▁Bor	-11.2626
▁tarkast	-11.2628
ikoni	-11.2629
▁asukkaita	-11.2635
▁PS	-11.2636
▁vaisu	-11.2637
▁tiloi	-11.2637
▁lähtisi	-11.2638
▁Lontoon	-11.2642
▁erolla	-11.265
▁1997	-11.2653
▁America	-11.2653
▁kauneus	-11.2653
▁paikallinen	-11.2653
▁päinvastoin	-11.2653
▁salamurha	-11.2653
luutnantti	-11.2653
▁heijastu	-11.2653
▁Yhtye	-11.2653
▁Atlanti	-11.2653
▁vaikuttamaan	-11.2653
▁kukisti	-11.2653
▁drone	-11.2653
▁retki	-11.2653
▁ahdista	-11.2653
▁futis	-11.2654
kala	-11.2655
▁tilille	-11.2655
▁muualta	-11.2655
▁Alb	-11.2655
▁näkemyksiä	-11.2655
▁tuoreeltaan	-11.2656
▁vaikuttanee	-11.2657
▁hyväksyttävä	-11.2658
▁lähetetty	-11.2658
▁riittä	-11.2658
▁+2	-11.2658
▁siemen	-11.266
▁Inari	-11.266
▁haeta	-11.2661
▁tarkastella	-11.2662
▁vauhdissa	-11.2663
▁Kahvi	-11.2665
▁jätetty	-11.2666
▁sääntöj	-11.2666
▁tulevaisuudesta	-11.2668
▁tiiviisti	-11.2668
▁käänsi	-11.267
▁luvui	-11.267
▁Boston	-11.2673
▁kuuluisi	-11.2674
900	-11.2674
▁Rakasta	-11.2679
podcastissa	-11.2681
▁käsittelevä	-11.2682
▁kuullee	-11.2682
▁Laji	-11.2682
▁Vilma	-11.2682
▁saato	-11.2683
▁kohtasivat	-11.2684
▁Rantase	-11.2684
▁hintoja	-11.2685
▁virit	-11.2686
▁Kaupa	-11.2688
▁osoittanut	-11.269
▁kritiikki	-11.2691
▁verkossa	-11.2693
▁Jack	-11.2694
▁utumis	-11.2694
▁tulli	-11.2695
▁brittiläi	-11.2696
▁oppimis	-11.2697
▁mittainen	-11.2704
▁rakenneta	-11.2707
▁Elisa	-11.2708
▁kummi	-11.2711
▁gr	-11.2715
▁ruumii	-11.2721
▁Paikallise	-11.2721
▁kokevat	-11.2723
▁oksen	-11.2725
▁poliitikkoj	-11.2726
▁vuorokau	-11.2726
▁verotukse	-11.2729
▁valot	-11.273
▁Ykkös	-11.2732
▁Kyy	-11.2732
työt	-11.2736
▁nope	-11.2737
▁taakseen	-11.2743
▁arvoja	-11.2744
▁ilmoitta	-11.2744
▁kyselyssä	-11.2745
▁rakastu	-11.2746
▁purist	-11.2749
▁useamma	-11.2749
▁isessä	-11.2752
▁edisty	-11.2754
▁Häkkäse	-11.2755
▁Kuljettaja	-11.2755
▁Lämsä	-11.2755
▁Ratkaisu	-11.2755
▁kokaiini	-11.2755
▁mobiili	-11.2755
▁ravitsemus	-11.2755
▁Pyörä	-11.2755
▁Pakarinen	-11.2755
▁käytettävissä	-11.2755
▁Vakio	-11.2755
▁korruptio	-11.2755
▁täytti	-11.2755
▁lähistöllä	-11.2755
▁isyyttä	-11.2756
▁yllättävi	-11.2756
▁NBC	-11.2756
▁leijona	-11.2756
▁aalto	-11.2757
▁huoneeseen	-11.2757
▁luotettava	-11.2757
▁Hakola	-11.2758
▁selvitetään	-11.2758
▁määrästä	-11.2759
▁tontti	-11.2759
▁Vappu	-11.2759
▁Perry	-11.276
▁pihalle	-11.276
▁Kumpik	-11.2761
yökkä	-11.2761
▁Yritykse	-11.2761
▁Hotelli	-11.2762
▁Sveitsissä	-11.2763
▁ammuttu	-11.2764
▁Oslo	-11.2764
▁Uima	-11.2764
▁laitteita	-11.2765
▁hukku	-11.2765
▁pettynyt	-11.2767
▁Luko	-11.2768
▁noi	-11.2771
▁osoittee	-11.2772
▁4)	-11.2772
▁satojen	-11.2774
▁Hollanti	-11.278
▁voimia	-11.2781
▁Mou	-11.2781
▁mpää	-11.2787
▁perustettu	-11.2788
▁lenki	-11.2788
▁Näe	-11.279
▁Green	-11.279
▁isyydestä	-11.279
▁tapahtumasta	-11.2791
▁ruuna	-11.2792
▁Jim	-11.2793
▁mullist	-11.2793
▁oikeassa	-11.2796
▁sanomaan	-11.2796
▁kirkas	-11.2796
▁katkesi	-11.2797
▁paluuta	-11.2798
▁viljely	-11.2799
▁Puusti	-11.28
▁Koh	-11.2801
▁houkut	-11.2801
▁alustava	-11.2806
▁ostos	-11.2806
tauti	-11.2816
▁vanhempia	-11.2817
▁kysymykse	-11.2818
▁pidättä	-11.2821
▁ely	-11.2822
▁kasvavat	-11.2822
▁Perä	-11.2826
▁vääri	-11.2826
ammo	-11.2826
▁palauttaa	-11.2827
▁Aleks	-11.2828
▁Hiihto	-11.2829
▁Tro	-11.2829
▁Pop	-11.2831
▁Kovi	-11.2839
▁taisto	-11.2841
▁paikkakunn	-11.2846
▁uhkasi	-11.2847
▁Ylellä	-11.2852
▁sensaatio	-11.2857
▁Katariina	-11.2858
▁Leverkusen	-11.2858
▁Orbán	-11.2858
▁fiksu	-11.2858
▁haavoittui	-11.2858
▁poliiseja	-11.2858
▁uhreja	-11.2858
▁Terveyden	-11.2858
▁flunssa	-11.2858
▁varhaiskasvatu	-11.2858
▁monimuotoisuu	-11.2858
▁rattijuopumukse	-11.2858
▁Matintalo	-11.2858
▁myynnistä	-11.2858
▁omistukse	-11.2858
▁roikku	-11.2858
▁tykistö	-11.2858
▁Lämpötila	-11.2858
▁talouskasvu	-11.2858
▁Tehtävä	-11.2858
▁tutkimuksissa	-11.2858
▁semmoi	-11.2859
▁Viikonloppu	-11.2859
▁vaatimuksia	-11.2859
▁ideoi	-11.286
▁Mestikse	-11.286
▁itseäni	-11.2861
▁pelto	-11.2862
▁piiki	-11.2862
▁Vol	-11.2862
▁molemmill	-11.2862
▁kuljetukse	-11.2863
▁rajoittaa	-11.2864
▁ylivoimaisesti	-11.2864
▁Kuiva	-11.2864
▁perheeseen	-11.2865
▁valmius	-11.2868
▁Tiktokissa	-11.287
▁Avaus	-11.287
▁Presidentin	-11.2874
▁hitaasti	-11.2875
▁tosiaan	-11.2877
▁upot	-11.2877
▁Ministeriö	-11.2877
▁pystytään	-11.2879
▁4-2	-11.288
▁valituksi	-11.288
▁mediaan	-11.2881
mitali	-11.2883
▁lähtemä	-11.2883
jais	-11.2883
▁porukkaa	-11.2883
▁laskeutu	-11.2885
▁kohtuullise	-11.2888
▁loppukilpailu	-11.289
▁tuotto	-11.2891
▁podcast	-11.2892
▁Vel	-11.2896
▁korotukse	-11.2899
▁häiritse	-11.2904
▁tajusi	-11.2905
▁automaatt	-11.2906
▁miljoonia	-11.2909
▁kaverei	-11.2909
▁92	-11.2912
▁auta	-11.2912
eltiin	-11.2913
▁naisista	-11.2913
Iida	-11.2918
mppu	-11.292
▁Pauli	-11.2921
▁avautui	-11.2922
▁kotiinsa	-11.2922
▁länt	-11.2923
▁esityksestä	-11.2925
▁hyväksynyt	-11.2926
tilillä	-11.293
▁sopimuksi	-11.2934
▁ttamaan	-11.2934
▁erillise	-11.294
osiossa	-11.2941
▁Lauantai	-11.2941
▁henkilökuntaa	-11.2946
▁yhteiskuntaa	-11.2946
▁Wh	-11.2947
▁väsy	-11.2948
rikko	-11.2949
▁henkisest	-11.2953
▁heikenty	-11.2954
▁poikkeava	-11.2959
т	-11.2962
▁Gabriel	-11.2962
▁pykälä	-11.2962
▁ryhdy	-11.2962
▁sisustus	-11.2962
▁käsitelty	-11.2962
▁Ennakko	-11.2962
▁Jalosen	-11.2962
▁Haukio	-11.2962
▁Twitter	-11.2962
▁maisteri	-11.2962
▁istunut	-11.2964
▁puhdas	-11.2964
▁kemia	-11.2965
▁pelkkää	-11.2965
▁Demokraatti	-11.2965
ottelija	-11.2966
▁Ruusuvuor	-11.2966
▁otsikoihin	-11.2967
▁päättäjä	-11.2967
▁ikäise	-11.2968
▁pyyd	-11.2969
▁kasaan	-11.2976
sihteeri	-11.2977
▁esittävä	-11.2977
▁säännöll	-11.2978
▁hiero	-11.2982
▁Ouluun	-11.2984
▁tärkeänä	-11.2984
▁1,9	-11.2986
rauha	-11.2986
▁Asto	-11.2987
pro	-11.2987
▁kehuja	-11.2988
▁Saksaan	-11.2989
▁laatua	-11.299
▁Onni	-11.2996
▁meppi	-11.2996
▁Heinonen	-11.2996
▁poistettu	-11.2998
vuoden	-11.2999
▁lapsuu	-11.3
▁lausu	-11.3
lliseksi	-11.3001
▁Pre	-11.3003
▁heiken	-11.3007
raali	-11.3009
▁!"	-11.3013
▁Tuki	-11.3015
burg	-11.3016
▁res	-11.3016
▁väärää	-11.3017
▁Isis	-11.3018
▁viranomaisille	-11.302
out	-11.3027
▁kysyntää	-11.3028
▁hyväkseen	-11.3029
▁eteläise	-11.303
▁Aura	-11.3032
Marit	-11.3032
▁huipentu	-11.3039
▁Comb	-11.3041
▁yhteyksiä	-11.3042
▁paikoille	-11.3045
väli	-11.3047
▁jouduttu	-11.3048
▁epäonnistui	-11.3049
▁asetukse	-11.3051
▁suink	-11.3055
▁eurooppalaise	-11.3056
▁työllistä	-11.3056
▁pelkä	-11.306
▁Kiri	-11.3064
▁Heliövaara	-11.3067
▁hehtaari	-11.3067
▁iloitsee	-11.3067
▁jäljiltä	-11.3067
▁yhteyteen	-11.3067
▁Buffalo	-11.3067
▁Cruz	-11.3067
▁Energia	-11.3067
▁kolumni	-11.3067
▁näyttämö	-11.3067
▁jälkikäteen	-11.3067
▁vedessä	-11.3067
▁Aikuis	-11.3067
▁tuomitu	-11.3067
▁Archie	-11.3067
▁keskuksi	-11.3067
▁keihäs	-11.3068
▁Linnea	-11.3068
laakso	-11.3068
▁levinnyt	-11.3068
▁kouluissa	-11.3068
▁Liitto	-11.3069
▁osoitteeseen	-11.3069
▁rikokset	-11.307
▁soolo	-11.307
▁koulutusta	-11.307
▁Kasper	-11.307
▁Venla	-11.3071
▁Erkki	-11.3077
▁pis	-11.3077
▁ulkoilu	-11.3078
▁tiski	-11.3081
▁Emilia	-11.3082
▁Roomassa	-11.3082
▁Rad	-11.3084
▁europarlament	-11.3084
▁kiele	-11.3087
▁tappaa	-11.3089
▁rohke	-11.3092
▁valio	-11.3094
pano	-11.3099
▁hyökkäyksiä	-11.31
koira	-11.31
johtoon	-11.3102
▁odottavat	-11.3104
hdys	-11.3104
▁sopimise	-11.3106
▁näköinen	-11.3109
▁osoittavat	-11.3109
▁peliaja	-11.3115
▁työskennell	-11.3117
▁Rask	-11.3119
▁seitsemänne	-11.3121
▁tallen	-11.3122
▁isti	-11.3122
▁pidempi	-11.3122
▁oloissa	-11.3124
▁muistoja	-11.3125
▁Eve	-11.3129
▁konkreetti	-11.3129
▁taloudellisest	-11.3131
▁tarjoama	-11.3134
▁virallisi	-11.3135
▁osasi	-11.3136
▁tuhoutui	-11.314
ieman	-11.3142
▁maailmanennäty	-11.3146
▁Stars	-11.3147
▁pysäyttää	-11.3147
▁ing	-11.315
cher	-11.3152
▁juoss	-11.3153
▁varattu	-11.3156
▁kallis	-11.3159
▁kirjoituksessa	-11.3161
▁kannattajien	-11.3161
▁karja	-11.3162
▁paikoi	-11.3163
▁Oja	-11.3163
▁til	-11.3165
▁eltä	-11.3166
▁juhannuksen	-11.3168
▁kirjoit	-11.3169
▁Sanoma	-11.317
▁asuvi	-11.3171
▁Kah	-11.3172
▁Seppä	-11.3172
tasolla	-11.3173
р	-11.3173
▁salamurhayrity	-11.3173
▁Chelsea	-11.3173
▁prosenttiyksikö	-11.3173
▁pyyhki	-11.3173
▁Imatra	-11.3173
▁Junnila	-11.3173
▁piireissä	-11.3173
▁semifinaali	-11.3174
ellyt	-11.3174
▁hämmentävä	-11.3174
▁teoksi	-11.3174
▁Volley	-11.3174
▁sielu	-11.3174
▁lennä	-11.3175
▁vakuutusyhtiö	-11.3175
▁hyttys	-11.3175
▁hiipu	-11.3175
▁lastensuojelu	-11.3175
▁paraati	-11.3177
▁laatikko	-11.3177
▁ajoneuvoj	-11.3177
▁tango	-11.3178
▁kannatuksen	-11.3178
▁Brand	-11.3178
▁teidä	-11.3178
rey	-11.3179
▁roski	-11.3182
▁pyhä	-11.3182
▁asenta	-11.3183
▁Vuok	-11.3185
▁suunnitelmista	-11.3188
▁alettu	-11.3189
.45	-11.3189
▁käydy	-11.3189
▁merkityksell	-11.3189
▁seurauksia	-11.3193
▁päätöksellä	-11.3194
▁reide	-11.3194
▁vankilassa	-11.3198
▁laitettu	-11.3198
▁Over	-11.3198
▁selitys	-11.32
▁Annik	-11.32
▁ohjeet	-11.32
▁repi	-11.3201
syyttäjä	-11.3202
▁harvinaista	-11.3202
▁tavallisi	-11.3203
▁paikallisia	-11.3203
▁Mistä	-11.3205
▁Syyriassa	-11.3205
▁Tammi	-11.3205
▁elokuvissa	-11.3208
▁Luku	-11.3208
▁pelasti	-11.321
rannan	-11.321
▁Lö	-11.3212
sisko	-11.3214
▁raiskauksesta	-11.3218
▁tilastoj	-11.3218
▁synnyttä	-11.3218
▁huipu	-11.3218
▁toimen	-11.3221
▁tasapeli	-11.3221
▁kanadalais	-11.3221
▁EK	-11.3221
▁kokonaisuude	-11.3222
▁epäili	-11.3223
▁ratkaisuun	-11.3228
▁matkaansa	-11.3231
▁Mir	-11.3232
▁Out	-11.3234
▁ttävi	-11.3238
▁huomaut	-11.3238
▁ajami	-11.3238
▁vahinkoa	-11.3239
▁odota	-11.3242
▁Busi	-11.3247
▁jousta	-11.3252
▁ksesta	-11.3252
▁sido	-11.3255
▁palamaan	-11.3256
▁tekoja	-11.3257
▁unohta	-11.326
▁kansi	-11.326
▁romahta	-11.3261
▁Keskinen	-11.3264
▁lähetyksi	-11.3266
▁palja	-11.3267
▁eja	-11.3272
▁sairastumis	-11.3274
-16	-11.3274
▁mestaruude	-11.3274
▁mita	-11.3274
▁tasoitt	-11.3276
▁10-1	-11.3277
▁Jukurit	-11.3279
▁Tall	-11.328
▁euroviisu	-11.3281
▁Detroit	-11.3281
▁Donetski	-11.3281
▁ajanjakso	-11.3281
▁tulehduks	-11.3281
▁nähtävissä	-11.3281
▁tapahdu	-11.3281
▁vedestä	-11.3281
mori	-11.3281
▁Ympäristö	-11.3281
▁Ennuste	-11.3281
▁Hautala	-11.3281
▁väläyt	-11.3281
jäsenyyttä	-11.3281
▁järkeä	-11.3281
▁panokse	-11.3282
▁ennemmin	-11.3282
▁talousarvio	-11.3282
▁huikea	-11.3283
▁hallinnan	-11.3286
▁Tekn	-11.3286
▁Tony	-11.3286
▁tilastoi	-11.3287
▁keikoi	-11.3288
▁osallise	-11.329
▁aiheut	-11.329
▁netto	-11.3291
sarjasta	-11.3292
▁viikkoja	-11.3293
▁suoritti	-11.3294
▁96	-11.3294
▁suurlähettiläs	-11.3297
lehdessä	-11.3297
▁virkamiehe	-11.3299
▁esiintyvä	-11.3304
▁satee	-11.3304
ward	-11.3304
▁pelätä	-11.3306
▁Messi	-11.3306
▁vaarantamisesta	-11.3308
▁suosituin	-11.3309
edustaja	-11.3309
▁arvokisa	-11.3313
▁Char	-11.3313
▁Pertti	-11.3313
▁Kauko	-11.3314
politiikan	-11.3315
▁tuuri	-11.3315
kuulu	-11.3315
▁edellyttä	-11.3316
▁Keho	-11.3319
▁iseltä	-11.3319
puolueen	-11.3323
▁uusinta	-11.3324
▁Kum	-11.333
▁tumista	-11.333
▁tarkoiteta	-11.3332
▁nappi	-11.3333
summa	-11.3335
▁runsa	-11.3335
well	-11.3336
▁kodista	-11.3338
▁mahdollisena	-11.3338
▁haastaja	-11.3341
▁Ruoho	-11.3342
▁murto	-11.3343
▁määräys	-11.3344
▁onnea	-11.3346
kkel	-11.3347
▁tunteet	-11.3348
▁arvioitiin	-11.3352
▁kilpailijat	-11.3353
▁rake	-11.3361
▁keinoin	-11.3364
▁kohtaus	-11.3364
ander	-11.3364
▁lapsesta	-11.3366
▁murta	-11.3369
▁sarjasta	-11.3371
▁Fra	-11.3371
▁ilmoituksia	-11.3372
▁miellyttävä	-11.3372
▁Tuominen	-11.3372
▁Kumma	-11.3374
▁raskasta	-11.3377
▁Joh	-11.3383
▁tilante	-11.3384
▁ham	-11.3385
▁2-1-	-11.3386
▁investoi	-11.3386
▁Kazakstan	-11.339
▁Lepistö	-11.339
▁rangaistuspotku	-11.339
▁Lokakuu	-11.339
▁jalkaväki	-11.339
▁maahanmuuttaja	-11.339
▁aselepo	-11.339
▁Club	-11.339
▁ahdistel	-11.339
▁luottamuksen	-11.339
▁virheellisesti	-11.339
▁vinkkaa	-11.339
▁Terveys	-11.3391
▁Korona	-11.3391
▁Joshua	-11.3391
▁ajettav	-11.3391
Hjallis	-11.3392
▁hitaa	-11.3394
▁kuvaama	-11.3395
▁paukku	-11.3396
▁aamuyöllä	-11.3396
▁raskaus	-11.3397
▁leipo	-11.3397
▁Vuode	-11.3397
▁nuku	-11.3398
teesta	-11.3399
▁turvata	-11.34
▁Big	-11.34
▁syömis	-11.34
▁taloudelli	-11.3401
▁98	-11.3402
▁reissa	-11.3402
▁käsitteli	-11.3403
▁ehkäise	-11.3403
▁yrittänee	-11.3404
▁Brad	-11.3405
▁teot	-11.3407
▁asentee	-11.3407
▁liikkuva	-11.3407
▁insinööri	-11.3408
▁kestävyys	-11.341
▁Aro	-11.3411
▁toimintansa	-11.3413
▁hoitaji	-11.3413
▁kari	-11.3414
▁Kekko	-11.3414
hahmo	-11.342
▁lemmikki	-11.3421
▁Näyttä	-11.3424
▁tuhoutu	-11.3426
▁kuvista	-11.3426
▁todennut	-11.3427
▁kuluja	-11.3427
▁massiiv	-11.3429
▁komitea	-11.3429
▁turnaukseen	-11.343
▁yde	-11.343
▁tyhj	-11.3431
▁Pul	-11.3431
▁Uudessa	-11.3431
▁pohtimaan	-11.3432
▁elämässään	-11.3437
▁puukott	-11.3439
▁Teho	-11.3446
▁hinnalla	-11.345
viini	-11.3451
▁päätöksessä	-11.3452
jäsenyys	-11.3453
▁törmäykse	-11.3457
▁Vär	-11.3457
▁säännöt	-11.3458
▁Pelko	-11.346
▁vieraille	-11.3464
▁Rata	-11.3464
▁korvaukse	-11.3465
▁raati	-11.3465
▁udu	-11.3465
▁asioi	-11.3466
▁nopein	-11.3466
▁ruutu	-11.347
▁minuut	-11.3473
▁Pelastus	-11.3484
▁julkaisussaan	-11.3484
▁neljää	-11.3486
▁tavanoma	-11.3488
▁kerroin	-11.3489
▁kuollee	-11.349
▁3)	-11.3491
Stubbin	-11.3492
▁torilla	-11.3493
▁negatiiv	-11.3493
▁asenno	-11.3493
▁kokouksi	-11.3494
▁lievä	-11.3494
lev	-11.3494
▁Syö	-11.3496
▁Jylhä	-11.35
▁julkkis	-11.35
▁kansanmurha	-11.35
■	-11.35
▁Heleniukse	-11.35
▁Huhtikuu	-11.35
▁Black	-11.35
▁kenellekään	-11.35
▁kynnys	-11.35
▁hypy	-11.35
▁Näky	-11.35
▁pääsääntö	-11.35
▁proteiini	-11.35
▁keitto	-11.35
▁silmään	-11.35
▁sairausloma	-11.35
▁yhteydenotto	-11.35
▁tosiasia	-11.35
▁Kisko	-11.35
▁luotsa	-11.3501
▁1995	-11.3501
▁tuntematon	-11.3503
▁lähdi	-11.3503
▁Perjantai	-11.3503
▁kieko	-11.3503
▁synnytys	-11.3503
▁Herola	-11.3503
▁Rajavartiolaito	-11.3503
▁väären	-11.3504
▁Oulusta	-11.3504
▁Lindberg	-11.3504
▁matkalle	-11.3504
▁ehdoton	-11.3507
▁sinulle	-11.3509
▁kannusti	-11.3509
▁taloudellisi	-11.351
▁ymmärtänyt	-11.3511
▁ilmaisku	-11.3513
▁suojatie	-11.3513
▁Instagramiin	-11.3514
▁todennäköisyyde	-11.3515
▁maakunta	-11.3515
▁suvu	-11.3516
▁Etsi	-11.3519
▁Guardianin	-11.3519
▁erottaa	-11.3521
▁unohtaa	-11.3522
▁EV	-11.3524
llisuuden	-11.3524
▁pääosa	-11.3527
▁tapoja	-11.3528
▁kysymykset	-11.353
▁Angeles	-11.3532
▁katsomossa	-11.3535
▁1)	-11.3538
▁tarjottu	-11.354
▁tanssija	-11.3543
▁kuukausina	-11.3546
▁salassa	-11.3546
▁vanhin	-11.3547
▁kisoista	-11.3547
▁jäsenmaa	-11.3548
▁tyttöä	-11.3549
▁immat	-11.3551
▁%)	-11.3551
▁Voito	-11.3553
▁Ott	-11.3554
▁ottelunsa	-11.3557
▁Risti	-11.356
▁eräänlai	-11.3561
▁selvillä	-11.3562
▁ikkunasta	-11.3563
▁saavutus	-11.3564
▁pidemmälle	-11.3565
▁talosta	-11.3567
turnaus	-11.357
▁Palmu	-11.3572
▁Muski	-11.3572
▁liukka	-11.3573
▁pysähtyi	-11.3574
▁Suomalaisi	-11.3577
▁mato	-11.3578
iltiin	-11.358
▁saamista	-11.3581
iitti	-11.3582
▁ikävi	-11.3588
ikäinen	-11.3592
▁tuvat	-11.3597
kaupunkiseudulla	-11.3597
▁Form	-11.3597
▁tunto	-11.36
▁sammutta	-11.3601
▁ratkais	-11.3605
▁oppinut	-11.3607
▁riippumattom	-11.361
▁1993	-11.3611
▁FBI	-11.3611
▁Kempelee	-11.3611
▁akatemia	-11.3611
▁journalisti	-11.3611
▁kulissei	-11.3611
▁monimutkai	-11.3611
▁purjehti	-11.3611
▁tulevaisuuteen	-11.3611
▁Kläbo	-11.3611
▁1991	-11.3611
▁mielenosoittaja	-11.3611
▁maahanmuuto	-11.3611
▁valintoja	-11.3611
▁Viihde	-11.3611
▁altistu	-11.3611
▁kirkossa	-11.3611
▁1-3	-11.3611
▁moitti	-11.3611
▁1,6	-11.3611
▁3,5	-11.3611
▁pahimma	-11.3611
▁kapea	-11.3612
▁Oskari	-11.3612
▁hylkää	-11.3613
▁Seppälä	-11.3613
▁ttää	-11.3613
▁korkealle	-11.3614
▁Honka	-11.3615
▁4-3	-11.3615
▁suomalaiselle	-11.3615
▁pyörii	-11.3615
▁hallissa	-11.3616
▁pakkasta	-11.3617
▁Sarkki	-11.3618
▁maksuja	-11.3619
▁jättäyty	-11.3619
kruununprinsessa	-11.362
▁pohjoiseen	-11.362
▁avioliito	-11.362
▁lääkettä	-11.3621
▁suojella	-11.3621
▁Marjo	-11.3623
▁taukoa	-11.3624
▁Varmaan	-11.3626
▁tetty	-11.3629
▁osaamise	-11.363
▁fyysisest	-11.363
▁vaikutuksista	-11.3631
▁aseella	-11.3631
▁menetykse	-11.3633
▁klubi	-11.3633
▁veikka	-11.3634
▁Siekki	-11.3635
▁edelle	-11.3635
▁käytettä	-11.3636
▁tiedoista	-11.3638
▁sopimukse	-11.364
▁hor	-11.364
▁Tunni	-11.3646
▁aisti	-11.3647
▁kiro	-11.3647
▁iskuissa	-11.3651
▁edustama	-11.3651
bil	-11.3651
▁johtuen	-11.3652
▁muutoksi	-11.3652
▁ihanaa	-11.3655
▁kaad	-11.3656
▁ulkopuolise	-11.3662
▁turvin	-11.3662
▁Stu	-11.3666
▁hakija	-11.3668
▁oikeusministeri	-11.3672
▁Kansalais	-11.3674
▁täysillä	-11.3678
▁Koo	-11.3678
▁suositukse	-11.368
▁Pariskunna	-11.368
▁tutka	-11.3681
▁järkytty	-11.3685
▁Evel	-11.3691
▁puolilta	-11.3692
▁Newsi	-11.3692
▁Atte	-11.3692
▁esiintymise	-11.3693
▁Madrid	-11.3697
▁keskustaan	-11.3699
TT	-11.37
▁Puolassa	-11.3701
▁kumm	-11.3703
▁saamasta	-11.3706
▁tappoi	-11.371
▁vaihte	-11.3716
▁selost	-11.3717
▁enimmä	-11.3718
iedustelupalvelu	-11.3719
▁maaottelu	-11.3722
с	-11.3723
▁Akatemia	-11.3723
▁Madeleine	-11.3723
▁ilahdu	-11.3723
▁motivaatio	-11.3723
▁panttivanki	-11.3723
▁rikosilmoitus	-11.3723
▁pikemmin	-11.3723
▁erikoiskokee	-11.3723
▁makuuhuonee	-11.3723
▁pieleen	-11.3723
▁talouteen	-11.3723
▁laukauksi	-11.3723
▁sipuli	-11.3723
▁herkkä	-11.3723
▁apuvalmentaja	-11.3723
▁erityinen	-11.3723
▁velvollisuus	-11.3724
▁Kiel	-11.3724
▁kohteli	-11.3725
▁antaisi	-11.3725
▁annetu	-11.3726
▁ankara	-11.3726
▁vaihteleva	-11.3727
▁turvautu	-11.3728
▁yhteiskunnassa	-11.373
paita	-11.3731
▁vihki	-11.3734
ob	-11.3734
▁Nick	-11.3735
▁tärkeimmä	-11.3735
▁solu	-11.3736
▁pakkaus	-11.3738
▁kiipe	-11.3739
▁maksettu	-11.3739
▁Riski	-11.3742
▁parve	-11.3742
▁homo	-11.3743
▁toimintaansa	-11.3745
▁Herra	-11.3746
▁vapaus	-11.3747
▁kylmi	-11.3747
▁Peltola	-11.3758
▁laittomast	-11.3758
▁jatkavat	-11.3759
turnaukse	-11.376
▁osunut	-11.376
▁tuttava	-11.3761
▁Veri	-11.3762
▁houkutteleva	-11.3765
▁riista	-11.3765
▁kannatti	-11.3766
▁tamma	-11.3768
aituri	-11.3775
blog	-11.3778
▁tunnusti	-11.3779
▁Haapala	-11.3781
▁rintee	-11.3782
▁tyki	-11.3783
▁laito	-11.3786
▁osoittautui	-11.3786
▁tömi	-11.3788
▁Tah	-11.3793
▁yrittävä	-11.3793
Benz	-11.3795
▁Salmi	-11.3795
▁mitata	-11.3796
▁vaalikampanja	-11.3797
▁Sanomille	-11.3798
▁lähdetä	-11.3799
▁aineita	-11.3801
▁vaatisi	-11.3805
▁vastainen	-11.3806
▁Luulen	-11.3806
▁tiivis	-11.3808
▁kannatusta	-11.3808
▁27-	-11.3812
▁perustama	-11.3814
▁tähdi	-11.3816
▁aikui	-11.3816
ilmanmestaruuden	-11.3819
▁rip	-11.3826
▁ryöst	-11.3829
▁alkuperäis	-11.3829
▁verkkosivu	-11.3833
välittäjä	-11.3834
▁Eivät	-11.3834
kuri	-11.3835
▁Avalanche	-11.3837
▁Seagulls	-11.3837
▁kokemuksista	-11.3837
▁puhelimeen	-11.3837
▁räjähdykse	-11.3837
▁räjäyt	-11.3837
▁asiakirjoj	-11.3837
▁Huomio	-11.3837
▁kustanta	-11.3837
▁Bayern	-11.3837
▁sarjoj	-11.3837
▁oste	-11.3837
▁asianomistaja	-11.3838
▁uksien	-11.3838
▁luettelee	-11.3838
▁odotukset	-11.3838
▁jatkoajalla	-11.3838
▁istunno	-11.3838
▁liikkeitä	-11.3839
▁Lappalai	-11.3839
▁vuotiaana	-11.3839
▁Kannattaa	-11.384
▁Stefan	-11.384
▁Täysi	-11.384
▁riisu	-11.3841
▁Sainz	-11.3841
▁päivityksessä	-11.3842
▁listalle	-11.3845
▁siuna	-11.3845
▁parkkipaika	-11.3845
▁puukotukse	-11.3847
▁laukku	-11.3847
▁sinkku	-11.3847
yyteen	-11.3848
▁tempa	-11.3848
▁länne	-11.3849
▁kenkä	-11.3849
▁ylipaino	-11.3849
▁tavoitteita	-11.385
▁oppositiopuolue	-11.385
▁vaikeita	-11.3851
▁GM	-11.3852
▁aloj	-11.3852
▁JYP	-11.3854
▁hankittu	-11.3855
▁pojalle	-11.3855
▁vuosikymmeni	-11.3856
▁yliopistosta	-11.3858
▁elämästään	-11.3861
▁tamise	-11.3861
▁isomma	-11.3863
▁tuesta	-11.3864
▁ulkopolitiika	-11.3865
▁purki	-11.3865
▁kiinnostunei	-11.3865
▁menemään	-11.3866
▁kouluampumise	-11.3866
▁Finlandia	-11.3866
▁liu	-11.3866
▁ranskalai	-11.387
▁toimintoj	-11.387
valtuutettu	-11.3872
Q	-11.3872
liini	-11.3873
▁Williami	-11.3874
▁Tulo	-11.3874
▁puhalta	-11.3874
▁kauppakesku	-11.3875
▁sol	-11.388
▁ymmärtä	-11.388
Le	-11.388
▁valmentama	-11.3883
▁26-	-11.3885
▁metsässä	-11.3886
▁ensimmäist	-11.3889
▁räp	-11.3889
kaasu	-11.389
▁päivityksessään	-11.389
▁kuit	-11.389
▁tukseen	-11.3891
▁todellist	-11.3893
▁portai	-11.3896
▁harja	-11.3898
▁Valtose	-11.3899
▁Moskova	-11.39
▁haasteen	-11.3904
▁Rantala	-11.3909
pala	-11.391
▁oiva	-11.3912
▁mahdoton	-11.3914
IN	-11.3915
▁vetosi	-11.3916
▁yleisin	-11.3918
▁Saarise	-11.392
▁maailmancup	-11.392
▁Love	-11.3921
▁työllist	-11.3923
▁valtavi	-11.3923
▁videolle	-11.3925
▁housut	-11.3925
▁sisäministeri	-11.3927
▁aloittava	-11.3928
▁turvapaikan	-11.3931
▁Hietala	-11.3931
▁luota	-11.3931
▁otetu	-11.3935
ssel	-11.3936
▁Pihla	-11.3939
▁Toiminta	-11.394
▁lupaava	-11.3946
▁kiell	-11.3947
▁kantee	-11.3949
▁noudat	-11.395
▁ajatellaan	-11.3951
▁kytke	-11.3951
▁Myrsky	-11.3952
▁Ståhl	-11.3952
▁havaitsi	-11.3952
▁kritiiki	-11.3952
▁salibandy	-11.3952
▁traktori	-11.3952
▁verisuoni	-11.3952
▁Pohjanpalo	-11.3952
▁helveti	-11.3952
▁itsemurha	-11.3952
ommenttikentässä	-11.3952
▁Kuluttaja	-11.3952
▁ulkonäö	-11.3952
▁1960-	-11.3952
▁totuttu	-11.3952
▁keskiössä	-11.3952
▁ennallaan	-11.3952
▁Ivalo	-11.3952
▁motivoi	-11.3952
▁Pimiä	-11.3952
▁valaistu	-11.3953
▁vetovoima	-11.3953
.11.	-11.3954
▁Sairaala	-11.3956
▁Ymmärrän	-11.3956
▁tukikohda	-11.3957
▁keskustele	-11.3957
laiva	-11.3958
▁Ilme	-11.3959
▁Yksittäis	-11.3959
▁järjestäji	-11.396
▁wc	-11.3961
▁plussa	-11.3961
▁Virpi	-11.3961
▁4-0	-11.3962
▁osoitus	-11.3962
▁sopivi	-11.3963
▁nyrkkeilijä	-11.3963
▁97	-11.3964
▁tuomaristo	-11.3964
kkojen	-11.3964
▁Back	-11.3965
▁keikkoj	-11.3966
▁purku	-11.397
▁Lukko	-11.397
▁natsi	-11.3972
flo	-11.3972
▁kohtuu	-11.3973
▁täydellisesti	-11.3975
▁Metsähallitu	-11.3978
▁kasvatus	-11.398
▁päätetty	-11.398
▁pappi	-11.3985
▁ilmavoimi	-11.3985
▁Qatari	-11.3986
▁kuole	-11.3986
▁espanjalais	-11.3987
▁Onne	-11.3987
▁kasvaneet	-11.3988
Euroopan	-11.3989
▁vallassa	-11.399
▁kauka	-11.3993
▁allekirjoit	-11.3999
▁kunnissa	-11.3999
▁essään	-11.3999
▁Yu	-11.4006
▁vasemmistoliit	-11.4007
▁Tapa	-11.4007
▁todennäkö	-11.4008
▁revi	-11.4009
▁eläimiä	-11.4009
▁Rake	-11.4014
tiellä	-11.4017
▁Sade	-11.4019
▁yöpy	-11.4022
▁seini	-11.4026
▁ikäisi	-11.4027
jettiin	-11.4028
▁kotoa	-11.403
▁viil	-11.4032
▁yhteiskunnallis	-11.4034
▁alapuolel	-11.4036
▁fr	-11.4039
sopimuksen	-11.404
oida	-11.404
▁säilyy	-11.4041
▁monenlaisi	-11.4042
Amerika	-11.4047
▁hengi	-11.4047
ttavissa	-11.4049
▁vointi	-11.4055
▁rekka	-11.4056
▁puoluetta	-11.4057
▁paikkakunnall	-11.4059
▁löytyvä	-11.406
▁kodi	-11.406
▁laukaus	-11.4061
▁tavaksi	-11.4062
▁laadukkaa	-11.4063
▁viittei	-11.4064
▁Armi	-11.4064
▁Phil	-11.4066
EN	-11.4067
rik	-11.4068
▁löydö	-11.4068
▁myöhäis	-11.4068
▁1992	-11.4068
▁Charlotte	-11.4068
▁Mykkänen	-11.4068
▁Päätökse	-11.4068
▁Thierr	-11.4068
▁kuningattare	-11.4068
▁optimi	-11.4068
▁pistepörssi	-11.4068
▁Halikon	-11.4068
▁meininki	-11.4068
▁välikohtaukse	-11.4068
▁kaikkensa	-11.4068
▁Kreikka	-11.4068
▁kiinteä	-11.4068
▁eversti	-11.4068
▁Strand	-11.4068
▁ihastel	-11.4068
▁Brown	-11.4068
▁Artisti	-11.4068
▁Turvallisuus	-11.4068
▁koronapandemia	-11.4068
▁Keisteri	-11.4068
▁räntä	-11.4068
▁varmuutta	-11.4069
▁vihamiel	-11.4069
▁rutiini	-11.4069
▁seremonia	-11.4069
▁työtaistelu	-11.4069
▁tuulivoima	-11.407
▁Haaland	-11.407
▁hoidettu	-11.407
▁lenkki	-11.4072
agle	-11.4072
▁ruusu	-11.4072
▁jatketaan	-11.4073
▁harmittaa	-11.4074
▁negatiivis	-11.4075
▁kiinniotto	-11.4076
▁väite	-11.4078
▁järkyttynyt	-11.408
▁tavaroita	-11.408
▁tekemisissä	-11.4083
▁turvallinen	-11.4085
▁irtoa	-11.4086
▁presidenttipari	-11.4087
▁Väl	-11.4087
▁hyökkäykseen	-11.4087
▁Washingtonissa	-11.4088
▁vetäytyi	-11.4089
▁KRP	-11.409
▁havainn	-11.4091
▁siivous	-11.4092
▁puoluekokoukse	-11.4095
▁ostama	-11.4096
▁kaaha	-11.4097
▁kivääri	-11.4097
▁Keskisarja	-11.4099
▁Maailma	-11.4099
▁suosiota	-11.41
▁puuta	-11.41
▁huipulle	-11.4104
▁selvitä	-11.4106
▁Avo	-11.4106
teollisuude	-11.4107
▁vinkki	-11.4109
▁linjasi	-11.411
▁tuntu	-11.411
▁vammat	-11.411
▁Jokise	-11.4111
▁Nuor	-11.4112
▁valtakunnallise	-11.4113
▁ampumahiih	-11.4114
▁naisille	-11.4117
▁Lassi	-11.4121
▁lomi	-11.4121
▁edistämise	-11.4123
▁väkivallasta	-11.4124
▁ettu	-11.4124
▁miehille	-11.4125
▁Johan	-11.4125
▁asukasta	-11.4126
▁lääkkeet	-11.4128
▁Kap	-11.4129
▁seurataan	-11.413
▁kuudesta	-11.4133
▁Harja	-11.4134
▁Wil	-11.414
▁itsenäis	-11.414
▁Cou	-11.4142
▁luottava	-11.4142
▁kertoime	-11.4143
▁tarinoi	-11.4143
▁voimalla	-11.4144
▁Up	-11.4146
▁parantamise	-11.4146
▁minkälais	-11.4147
▁ellis	-11.4148
▁kohtaaminen	-11.4151
▁asemasta	-11.4153
▁rajalle	-11.4158
▁cup	-11.416
▁korostu	-11.4163
▁testissä	-11.4166
▁valmen	-11.4173
▁häiri	-11.4174
▁sanotust	-11.4175
▁kentä	-11.4175
▁asetti	-11.4177
▁toteutuu	-11.4178
▁Lev	-11.4179
▁kaltaisia	-11.4182
▁sijais	-11.4184
▁Winnipeg	-11.4186
▁hyväntekeväisyy	-11.4186
▁lapsiperhe	-11.4186
▁rakkauden	-11.4186
▁signaali	-11.4186
▁suhtaudu	-11.4186
▁vuodenvaihtee	-11.4186
▁makkara	-11.4186
Emmanuel	-11.4186
▁käännytyslaki	-11.4186
▁hevosvoima	-11.4186
▁Asunno	-11.4186
▁harkinta	-11.4186
▁myynnin	-11.4186
zer	-11.4187
▁huuma	-11.4187
▁alaspäin	-11.4187
▁minul	-11.4187
▁alkulohko	-11.4187
▁kärry	-11.4188
▁kohdiste	-11.4188
▁Hetke	-11.4189
▁ehdokkaita	-11.4189
▁resursseja	-11.4189
▁hallitukseen	-11.4189
▁kauas	-11.419
▁tuomita	-11.419
▁Nation	-11.4191
▁tuntemattoma	-11.4191
▁tavaroi	-11.4192
▁Verkko	-11.4194
▁poseerasi	-11.4194
▁vierailulla	-11.4197
▁kehysriihessä	-11.4199
▁lohi	-11.4201
▁saalis	-11.4202
▁Yhdysvaltalai	-11.4203
▁kierre	-11.4205
▁urheilujohtaja	-11.4206
▁vaikke	-11.4206
▁äänestämään	-11.4207
▁Paino	-11.4207
▁vastaukse	-11.4207
liivi	-11.4209
▁Pika	-11.421
▁hämä	-11.4211
▁korvaukset	-11.4211
▁2010-	-11.4213
▁pyynnöstä	-11.4213
tömiä	-11.4213
johto	-11.4217
podcast	-11.4219
▁keskiviikkoilta	-11.4219
▁Saga	-11.422
▁muuttuvat	-11.4221
▁Kokoomu	-11.4224
▁US	-11.4225
▁pyöräilijä	-11.4226
▁mukainen	-11.4227
▁yhdenvertaisuu	-11.4229
▁Näyt	-11.4234
▁lippuja	-11.4235
▁vaihtelevat	-11.4236
▁rehellise	-11.4237
▁suuntasi	-11.4238
▁televa	-11.4238
▁Carlos	-11.4239
▁stään	-11.424
▁viher	-11.4241
luokk	-11.4244
▁tään	-11.4244
▁otetta	-11.4244
▁turhautu	-11.4247
▁Marius	-11.4251
▁Harva	-11.4251
▁helmi	-11.4254
▁tueksi	-11.4256
▁painotti	-11.4257
▁surmasi	-11.4259
▁upei	-11.4259
▁itsenäise	-11.4262
▁leve	-11.4263
▁vastauksessa	-11.4264
▁suoriutu	-11.4264
▁jonot	-11.4265
▁Suurimma	-11.4269
järvi	-11.4272
▁neuvoo	-11.4272
▁herättävä	-11.4272
▁1-0-	-11.4273
LL	-11.4277
▁Jane	-11.428
▁Ministeri	-11.4282
▁seitsemäs	-11.4284
▁Paimiossa	-11.4292
▁varhais	-11.4292
▁UNRWA	-11.4305
▁Athletic	-11.4305
▁Fintraffic	-11.4305
▁Moldova	-11.4305
▁Naapuri	-11.4305
▁Puljujärve	-11.4305
▁Venezuela	-11.4305
▁alkuvaiheessa	-11.4305
▁työpaikkoj	-11.4305
▁2028	-11.4305
▁agentti	-11.4305
▁avausjakso	-11.4305
▁kontrolli	-11.4305
▁mittakaava	-11.4305
▁pylvä	-11.4305
▁mieheltä	-11.4305
▁päätyttyä	-11.4305
▁vaikuttaisi	-11.4305
[...]
