<unk>	0
<s>	0
</s>	0
.	-3.04265
,	-3.38626
n	-3.54169
a	-4.12976
▁ja	-4.21056
▁on	-4.25822
▁	-4.49258
t	-4.55557
-	-4.69363
▁että	-5.11521
en	-5.18443
in	-5.19115
ssa	-5.19223
sta	-5.23854
▁ei	-5.28002
▁oli	-5.43753
:	-5.48619
ä	-5.55129
ta	-5.58429
lle	-5.60238
an	-5.63792
lla	-5.67483
i	-5.7623
▁mukaan	-5.82388
s	-5.92312
▁-	-5.95082
▁myös	-6.01968
▁ole	-6.06364
ja	-6.09794
kin	-6.12039
▁ovat	-6.12904
▁se	-6.14451
▁hän	-6.15002
▁mutta	-6.16459
ksi	-6.17858
na	-6.21515
▁kun	-6.24618
si	-6.33587
ssä	-6.37037
▁jo	-6.37573
vat	-6.42804
▁voi	-6.44795
▁ollut	-6.47567
ista	-6.49327
stä	-6.50324
▁tai	-6.52363
▁kertoo	-6.53757
sti	-6.55599
ko	-6.57864
▁"	-6.5879
on	-6.59958
▁joka	-6.62671
u	-6.63511
▁Hän	-6.64216
▁jälkeen	-6.65963
lta	-6.66877
▁kuin	-6.69027
llä	-6.69699
sa	-6.71584
e	-6.71752
▁kanssa	-6.72202
tä	-6.72864
▁(	-6.73392
nsa	-6.75241
▁niin	-6.75275
y	-6.76896
▁sen	-6.77372
ni	-6.82245
mme	-6.82567
▁Se	-6.8674
h	-6.86844
▁olisi	-6.87512
nen	-6.8797
▁Suomen	-6.88068
▁sanoo	-6.8809
▁vuonna	-6.88247
"	-6.90033
jen	-6.9006
la	-6.90708
issa	-6.93557
tta	-6.96556
)	-6.97389
o	-6.97852
maan	-6.98105
kä	-6.98381
sen	-6.98785
et	-6.99647
inen	-7.01082
ille	-7.01635
ten	-7.02104
▁sekä	-7.02206
▁viime	-7.02979
▁olla	-7.0434
tu	-7.06215
te	-7.08064
▁vielä	-7.08083
▁hänen	-7.09438
illa	-7.10225
▁nyt	-7.1216
tti	-7.13006
▁vuoden	-7.13111
▁kertoi	-7.13184
▁vain	-7.15546
nut	-7.15939
minen	-7.16018
va	-7.1632
ke	-7.16528
▁siitä	-7.18165
▁kuitenkin	-7.19206
?	-7.19305
▁sanoi	-7.20437
▁yli	-7.2112
än	-7.2243
us	-7.22544
▁saa	-7.22629
ki	-7.22686
ma	-7.23525
▁sitä	-7.24563
ia	-7.27913
un	-7.28264
ka	-7.28426
li	-7.30938
nä	-7.31016
▁noin	-7.31403
neet	-7.31523
ti	-7.32528
▁sai	-7.33819
l	-7.34292
▁paljon	-7.35326
▁aikana	-7.35419
re	-7.35491
to	-7.36851
▁jossa	-7.37339
r	-7.37387
ri	-7.38657
▁eivät	-7.38896
▁sitten	-7.39385
▁ennen	-7.3966
vät	-7.39982
m	-7.40964
iden	-7.41611
­	-7.42024
▁Venäjän	-7.42049
▁sillä	-7.42291
▁jos	-7.43866
▁koko	-7.44691
▁muun	-7.45746
▁hyvin	-7.45845
▁A	-7.45986
is	-7.46038
▁muassa	-7.47091
le	-7.47675
▁kaksi	-7.47748
▁S	-7.48189
ita	-7.49749
▁esimerkiksi	-7.4992
▁tulee	-7.51457
ihin	-7.52119
ku	-7.54273
istä	-7.55248
▁ettei	-7.55429
jä	-7.56394
ne	-7.56609
▁000	-7.56741
▁pitää	-7.5697
▁mitä	-7.5724
k	-7.57589
▁olivat	-7.58995
▁euroa	-7.5946
▁eli	-7.5953
▁yksi	-7.59614
▁vastaan	-7.60873
d	-7.609
▁tuli	-7.61362
▁he	-7.61515
▁vuotta	-7.6185
▁jotk	-7.61974
ttu	-7.62302
▁Kun	-7.63486
▁itse	-7.63799
vi	-7.6444
▁Jos	-7.65147
pa	-7.65575
▁eri	-7.66085
taan	-7.67545
▁kaikki	-7.67795
▁osa	-7.67834
isi	-7.68132
▁jonka	-7.68141
▁lisää	-7.73295
pu	-7.73409
no	-7.73415
neen	-7.7396
pi	-7.7414
▁Suomessa	-7.75383
kka	-7.75768
▁koska	-7.77033
ra	-7.78306
mista	-7.78544
p	-7.78611
mo	-7.78874
ttiin	-7.79174
▁pää	-7.79272
ro	-7.79475
▁aika	-7.80598
sin	-7.806
ltä	-7.80852
▁En	-7.81031
▁tämän	-7.81636
▁kolme	-7.82043
▁ne	-7.82337
isen	-7.82338
▁Ja	-7.83072
▁siihen	-7.83924
▁Myös	-7.84202
lo	-7.84397
▁vaikka	-7.84667
▁tämä	-7.84842
▁Ei	-7.85008
kki	-7.85461
▁työ	-7.85561
de	-7.8598
me	-7.8633
".	-7.86427
▁Tämä	-7.86919
▁aina	-7.871
lainen	-7.87177
▁tällä	-7.87481
▁hyvä	-7.8757
van	-7.87618
man	-7.878
▁ensi	-7.87941
▁Nyt	-7.89283
▁toimi	-7.89445
▁poliisi	-7.8961
▁lisäksi	-7.89807
▁aiemmin	-7.89928
▁O	-7.89961
▁presidentti	-7.90093
▁Poliisi	-7.90822
kseen	-7.90983
▁enemmän	-7.91056
aan	-7.91056
ty	-7.91368
▁miten	-7.91452
se	-7.9146
ttä	-7.92383
▁mies	-7.9245
▁vasta	-7.9249
▁He	-7.92634
ve	-7.92706
▁mikä	-7.9471
▁ajan	-7.95017
lan	-7.95048
▁vaan	-7.95335
misen	-7.95569
iin	-7.96077
▁Suomi	-7.96092
▁MM	-7.964
kaan	-7.96644
▁kertaa	-7.96827
mi	-7.96921
▁mitään	-7.96987
da	-7.97013
nsä	-7.98187
g	-7.98224
vuotias	-7.98261
tin	-7.98388
▁K	-7.99058
▁ihan	-7.99485
lu	-7.99613
maa	-7.99954
▁I	-8.0016
▁Ukrainan	-8.00467
▁la	-8.00531
▁Kuva	-8.00829
▁jopa	-8.00936
sä	-8.00937
ilta	-8.01325
po	-8.01863
▁pois	-8.02184
▁jää	-8.02595
▁pa	-8.02819
▁prosenttia	-8.02936
▁E	-8.03304
▁tehdä	-8.04246
▁Helsingin	-8.04557
▁Ko	-8.05124
▁enää	-8.05416
massa	-8.05567
essa	-8.05623
ö	-8.06107
nyt	-8.06183
den	-8.06505
ho	-8.07567
▁kello	-8.07659
issä	-8.07941
▁kommentoi	-8.09322
▁auto	-8.09528
▁iso	-8.09757
▁ka	-8.09857
▁ku	-8.09929
kö	-8.09981
▁olevan	-8.10249
mään	-8.10349
pe	-8.10405
▁määrä	-8.10601
▁F	-8.11006
han	-8.11268
llinen	-8.12158
▁uusi	-8.12348
er	-8.13662
▁saanut	-8.13769
▁Jo	-8.13978
hi	-8.13985
▁On	-8.14182
jo	-8.15013
uksia	-8.1511
▁Me	-8.15212
v	-8.15318
▁aikaa	-8.15519
miseen	-8.15861
ksen	-8.16308
!	-8.1683
do	-8.17423
▁vuoksi	-8.1748
▁Ka	-8.17486
▁peli	-8.18348
mpi	-8.18642
▁Ta	-8.19
▁teki	-8.19108
▁Venäjä	-8.19165
▁kiinni	-8.1936
▁asia	-8.19475
kan	-8.19528
kään	-8.19616
▁me	-8.19675
▁en	-8.19934
▁Sen	-8.20115
▁koti	-8.21049
▁kuten	-8.21166
T	-8.21525
▁tässä	-8.21992
▁EU	-8.22429
▁Pa	-8.22458
▁vähän	-8.22691
tus	-8.22818
▁Trump	-8.23188
kko	-8.23224
▁C	-8.2333
▁lähes	-8.23512
▁mukana	-8.24496
▁tullut	-8.25213
▁kautta	-8.25527
c	-8.25645
▁tuo	-8.25838
sto	-8.26351
esta	-8.26449
▁juuri	-8.26714
▁todella	-8.26915
di	-8.2696
een	-8.27555
▁maan	-8.27651
ili	-8.27902
▁Lisäksi	-8.28046
ään	-8.2807
▁siinä	-8.28429
▁voisi	-8.28516
▁jäi	-8.28555
▁Hänen	-8.28615
ut	-8.28947
ar	-8.29365
▁Ilta	-8.29392
ttaa	-8.29674
▁ma	-8.29737
▁oma	-8.29807
▁aikaan	-8.30089
▁Mi	-8.3035
▁La	-8.30415
ha	-8.30925
ella	-8.31065
it	-8.31077
▁1	-8.31513
ju	-8.31532
S	-8.31879
▁kauden	-8.32452
staan	-8.32493
5	-8.32783
▁ilman	-8.32833
▁taas	-8.3293
▁hetkellä	-8.33033
mis	-8.33368
▁edelleen	-8.33391
teen	-8.33398
▁Stubb	-8.33787
isia	-8.33827
▁20	-8.33903
▁takia	-8.33919
▁ase	-8.34101
▁kuitenkaan	-8.34164
▁neljä	-8.3417
▁Olen	-8.34486
elle	-8.34676
▁pitäisi	-8.34679
isiin	-8.34759
▁moni	-8.34936
misesta	-8.35143
▁arvioi	-8.35214
▁Re	-8.35372
▁päivä	-8.35372
/	-8.35546
▁toinen	-8.35953
yn	-8.36048
6	-8.36445
illä	-8.36651
▁/	-8.36966
lin	-8.37015
f	-8.37044
▁Pohjois	-8.37243
▁saada	-8.37819
▁10	-8.37859
mä	-8.37895
ön	-8.38261
▁luo	-8.38396
ssi	-8.38401
▁ha	-8.38457
vä	-8.38666
▁Mutta	-8.38776
7	-8.38787
▁19	-8.3892
so	-8.39093
seen	-8.39094
▁Ri	-8.39207
▁käy	-8.39413
▁Viime	-8.39574
▁Trumpin	-8.39595
▁Näin	-8.39997
▁vara	-8.40136
itä	-8.40143
▁ainakin	-8.40215
▁Yhdysvaltain	-8.40508
▁joten	-8.40601
▁puheenjohtaja	-8.40831
▁maa	-8.40929
▁olleet	-8.41235
▁näin	-8.41269
▁2023	-8.41366
▁voitti	-8.41418
A	-8.41426
▁asti	-8.41632
▁Ku	-8.41648
▁ra	-8.41854
▁yhdessä	-8.42424
uksen	-8.42624
▁miljoonaa	-8.43055
▁perjantaina	-8.43446
▁vuosi	-8.43849
▁pe	-8.44187
lais	-8.44403
ys	-8.44519
▁U	-8.4491
▁Ke	-8.45202
pä	-8.45208
kaa	-8.45428
lä	-8.45508
▁alkoi	-8.45566
▁NHL	-8.45853
▁lauantaina	-8.45861
▁Li	-8.45999
▁2	-8.46175
▁koulu	-8.46248
▁pari	-8.46368
▁kuva	-8.46445
vien	-8.46619
▁tilanne	-8.46704
▁hi	-8.47116
▁tavalla	-8.47209
▁kirjoittaa	-8.47616
llis	-8.47826
ton	-8.479
▁alle	-8.48208
9	-8.48294
▁kuinka	-8.48357
▁Ne	-8.4846
▁kaudella	-8.48476
▁heti	-8.48699
▁siis	-8.48705
▁Oulun	-8.48915
▁niitä	-8.48946
▁hallituksen	-8.49032
▁hieman	-8.49134
P	-8.49383
hti	-8.4948
▁välillä	-8.49557
▁Le	-8.4974
▁alkaa	-8.50357
▁kyse	-8.50673
▁tehnyt	-8.50681
sten	-8.50713
▁täysin	-8.50751
▁viikolla	-8.51232
via	-8.51316
▁Ro	-8.51382
▁pu	-8.51794
8	-8.52001
▁heidän	-8.52052
▁kahden	-8.52118
▁tänä	-8.52121
x	-8.52464
▁X	-8.52662
▁ko	-8.53145
▁Si	-8.53193
▁uuden	-8.53219
kku	-8.5326
▁IS	-8.53516
▁häntä	-8.53608
▁myöhemmin	-8.53639
ina	-8.53738
▁jota	-8.53926
▁olen	-8.54177
▁kerran	-8.54271
R	-8.54489
iä	-8.54519
▁useita	-8.54664
▁jatkaa	-8.54678
▁kyllä	-8.54734
ur	-8.54758
▁P	-8.54792
▁päästä	-8.54932
▁Euroopan	-8.55064
▁arvo	-8.55339
▁suuri	-8.55344
▁o	-8.55441
▁puoli	-8.55605
▁te	-8.55709
▁Sa	-8.55929
▁torstaina	-8.55964
▁Asia	-8.55985
▁kuoli	-8.56221
▁yhden	-8.56687
▁kaupungin	-8.56804
▁maailman	-8.57345
▁näyttää	-8.57367
rin	-8.5742
j	-8.57687
▁pi	-8.57716
isesti	-8.57766
▁Ruotsin	-8.57931
▁euron	-8.58292
kas	-8.58413
▁maanantaina	-8.58511
▁tiistaina	-8.58566
▁aivan	-8.58584
▁Vaikka	-8.59114
▁keskiviikkona	-8.59115
malla	-8.59141
▁alussa	-8.59259
▁puolustus	-8.59316
▁henkilö	-8.59745
▁silloin	-8.60066
▁voivat	-8.60188
▁puolestaan	-8.60362
os	-8.60406
▁usein	-8.60516
▁edes	-8.60628
▁Su	-8.60678
▁piti	-8.60734
▁urheilu	-8.60881
▁alueella	-8.60923
johtaja	-8.61025
▁hänet	-8.61067
▁koskaan	-8.61211
▁otti	-8.6122
tiin	-8.61246
sia	-8.61355
▁käsi	-8.61528
hän	-8.61623
▁oman	-8.61662
▁Pe	-8.61826
lli	-8.61901
eksi	-8.61961
▁sunnuntaina	-8.6197
▁miehen	-8.62036
▁T	-8.62049
ppa	-8.62273
▁Pi	-8.62439
estä	-8.62619
tteli	-8.62685
▁perusteella	-8.62701
▁ottaa	-8.62722
▁huono	-8.62724
0	-8.62735
ssaan	-8.6276
nne	-8.62778
▁Mu	-8.62785
ru	-8.62897
essä	-8.62901
al	-8.6295
mu	-8.63163
ng	-8.63198
kon	-8.63242
su	-8.63359
▁Israelin	-8.63409
▁toteaa	-8.63467
▁siellä	-8.63572
iset	-8.63927
▁läpi	-8.6398
▁tätä	-8.64274
z	-8.64278
▁po	-8.64336
▁M	-8.64592
isten	-8.64647
▁re	-8.64648
▁kesä	-8.64905
▁30	-8.64957
▁yhä	-8.64984
▁Yksi	-8.65114
ski	-8.65139
▁asiasta	-8.65237
▁Suomeen	-8.65328
tty	-8.65715
ttava	-8.65773
K	-8.65931
▁Salon	-8.6603
▁toisen	-8.66126
neensa	-8.66138
▁ala	-8.66311
▁15	-8.6652
pää	-8.6662
▁tapahtui	-8.66668
▁Etelä	-8.67067
'	-8.67147
▁palvelu	-8.67267
talo	-8.67341
du	-8.67585
▁tehty	-8.67791
4	-8.67881
▁meni	-8.67902
▁perhe	-8.67954
▁loppu	-8.68024
llaan	-8.68357
▁ensimmäinen	-8.68758
▁tiedotteessa	-8.6876
or	-8.68781
▁yhtä	-8.68819
kuu	-8.68832
▁raja	-8.6889
▁viisi	-8.68893
▁Lue	-8.68914
tö	-8.68988
▁nousi	-8.69002
▁seura	-8.69019
▁3	-8.69048
▁So	-8.69242
▁hallitus	-8.69274
▁saattaa	-8.69443
▁sijaan	-8.695
ce	-8.69621
▁ihmistä	-8.69737
▁muut	-8.69768
▁B	-8.69859
hin	-8.69883
▁muu	-8.70088
ppi	-8.70231
he	-8.70671
at	-8.70834
▁mukaansa	-8.70909
▁Kaikki	-8.70961
I	-8.7103
vo	-8.71191
▁kävi	-8.71202
palvelu	-8.71258
▁vaikea	-8.71304
tettiin	-8.71446
▁viikon	-8.71546
2	-8.71551
▁erittäin	-8.71643
▁joissa	-8.71669
▁mielestä	-8.71884
ste	-8.71901
▁5	-8.71971
▁vai	-8.71992
▁jälleen	-8.7206
▁vie	-8.72097
▁mahdollista	-8.72136
men	-8.72212
▁tänään	-8.72669
▁The	-8.72731
vansa	-8.72752
▁2022	-8.72799
ellä	-8.73224
V	-8.73315
▁vaikuttaa	-8.73501
O	-8.73635
ska	-8.73636
bi	-8.73684
▁tekee	-8.73841
lloin	-8.73886
▁keski	-8.74069
▁12	-8.74164
▁pitkään	-8.74346
▁hu	-8.74484
▁takaisin	-8.74539
▁Na	-8.74543
▁lopulta	-8.74557
▁tähän	-8.74702
tään	-8.74731
▁huippu	-8.74811
▁joukkue	-8.74814
isin	-8.74825
▁Al	-8.74909
▁Ukraina	-8.74935
taa	-8.75155
lleen	-8.75188
▁jotain	-8.75247
▁Ki	-8.75347
▁Pu	-8.75487
▁presidentin	-8.75778
▁turvallisuus	-8.75849
▁ehkä	-8.76084
▁antaa	-8.76197
▁väli	-8.76256
ck	-8.76419
ge	-8.76435
▁ottelun	-8.76586
mistä	-8.76606
▁käyttää	-8.76632
▁tosi	-8.76636
▁lisä	-8.76741
mia	-8.76769
▁myötä	-8.76786
usta	-8.76986
mies	-8.77008
▁vuosina	-8.77089
▁kova	-8.77095
▁nopeasti	-8.7711
▁niiden	-8.77147
vin	-8.77273
▁le	-8.77303
hu	-8.77357
▁suomalais	-8.77389
▁ensimmäisen	-8.77583
00	-8.77656
▁Te	-8.77761
▁Vi	-8.77838
H	-8.77889
▁uutisoi	-8.77971
▁voidaan	-8.78068
▁huolimatta	-8.78206
▁samalla	-8.78267
▁hänelle	-8.78274
▁su	-8.78643
ps	-8.7883
il	-8.78931
el	-8.79164
fi	-8.79209
▁Esimerkiksi	-8.7937
voi	-8.7954
▁Ar	-8.79687
▁tulla	-8.79842
▁R	-8.79902
aika	-8.79939
▁asu	-8.79972
▁G	-8.79975
▁sähkö	-8.79995
ll	-8.80008
▁liian	-8.80063
▁Po	-8.80135
ks	-8.80331
tte	-8.80357
▁kuuluu	-8.80543
▁ero	-8.80548
▁haluaa	-8.80613
▁kilpailu	-8.80655
ttää	-8.80687
▁syy	-8.808
▁pitkä	-8.80939
vaa	-8.8119
tetaan	-8.81288
▁löytyy	-8.81309
1	-8.8132
päivä	-8.81494
auto	-8.8156
▁erityisesti	-8.81564
Sanomat	-8.81649
▁V	-8.81691
▁Ha	-8.81734
▁Va	-8.8175
▁ihmisiä	-8.81854
▁pysty	-8.81856
▁Ni	-8.81891
E	-8.82052
▁kymmenen	-8.82083
▁kisa	-8.82327
C	-8.82453
▁kerrotaan	-8.82604
▁sää	-8.82857
▁pieni	-8.82889
tuksen	-8.82985
▁yhteensä	-8.83165
▁asiaa	-8.83447
din	-8.83451
▁yhteydessä	-8.83546
▁4	-8.83637
▁ki	-8.83664
▁nainen	-8.83698
ry	-8.83712
▁EM	-8.83764
▁sota	-8.83891
tila	-8.84522
▁Tu	-8.84549
▁maali	-8.84742
ga	-8.84742
▁tule	-8.84825
▁joutui	-8.84947
kok	-8.8497
▁va	-8.85058
je	-8.85133
▁auton	-8.85289
▁jolla	-8.85379
▁muuta	-8.85436
▁tästä	-8.85768
ikka	-8.85951
3	-8.86194
▁meidän	-8.86194
▁joita	-8.8622
go	-8.86294
),	-8.86439
▁video	-8.86588
▁Nato	-8.87041
iksi	-8.87149
▁sama	-8.87375
▁matka	-8.87411
llista	-8.87624
▁nimi	-8.87661
tettu	-8.87725
kkaa	-8.8777
▁pääministeri	-8.87874
▁taka	-8.87971
tto	-8.8804
).	-8.88157
▁e	-8.88256
ch	-8.88323
▁alku	-8.88354
▁ihmiset	-8.88414
ministeri	-8.88574
▁vaali	-8.88604
▁tulisi	-8.88613
▁kai	-8.88694
▁SM	-8.88906
M	-8.89023
▁Ho	-8.89059
▁poliisin	-8.89125
▁lu	-8.89137
b	-8.8926
▁tasa	-8.89365
▁vesi	-8.89373
▁esi	-8.89394
▁päälle	-8.8941
▁pääsi	-8.89433
set	-8.89475
ly	-8.89554
min	-8.89667
▁kannattaa	-8.89745
▁11	-8.89829
▁Lu	-8.8987
▁toivo	-8.89887
▁No	-8.89938
B	-8.90196
▁sa	-8.90238
▁totesi	-8.90337
vu	-8.90367
▁New	-8.90419
dy	-8.90571
▁ilma	-8.90642
laisen	-8.9071
▁Oli	-8.90846
nti	-8.90966
▁oikeus	-8.91098
▁oleva	-8.91131
▁Mo	-8.91152
ura	-8.91192
▁ohi	-8.91306
▁13	-8.91327
▁usko	-8.91444
▁kirjoitti	-8.91572
ttävä	-8.91646
▁vero	-8.91685
▁De	-8.91764
nnut	-8.91774
▁50	-8.91863
nee	-8.91865
▁etu	-8.91932
llisesti	-8.92078
▁muita	-8.92093
▁Mies	-8.92158
▁tieto	-8.92214
oja	-8.92282
▁kar	-8.92303
tys	-8.9238
▁pelaaja	-8.92436
jien	-8.92693
▁Antti	-8.92724
▁Lo	-8.92727
▁naisten	-8.92854
▁u	-8.92904
ilu	-8.93254
Suomen	-8.93329
ven	-8.93491
▁minkä	-8.9359
▁Putin	-8.93759
▁johtaja	-8.93831
▁to	-8.9404
ansa	-8.94089
▁ottelu	-8.94155
▁Tämän	-8.94331
▁halua	-8.94552
▁missä	-8.94646
▁julkaisi	-8.94658
▁tapahtuma	-8.94664
utta	-8.94702
▁Bo	-8.94976
▁esiin	-8.95024
▁kohti	-8.9516
▁isä	-8.95258
tee	-8.95532
▁D	-8.95815
▁tu	-8.95905
▁joulu	-8.9594
▁Ra	-8.95957
ter	-8.95974
▁puolue	-8.96018
▁liikenne	-8.96031
ver	-8.96337
▁tiedä	-8.9636
▁li	-8.96364
▁lähti	-8.96367
▁lasten	-8.96392
▁joista	-8.96499
▁viesti	-8.96678
▁verran	-8.96681
iltana	-8.96698
▁ulko	-8.96704
▁p	-8.96759
arvo	-8.96782
▁tila	-8.97015
▁14	-8.97022
▁kesken	-8.97087
▁muiden	-8.97162
▁voitto	-8.9722
▁vaiheessa	-8.97327
▁joku	-8.97392
len	-8.97519
vel	-8.97695
▁terveys	-8.97741
sy	-8.97762
▁puhu	-8.97769
kar	-8.97785
▁joiden	-8.97856
▁silti	-8.98213
▁suurin	-8.98216
mmin	-8.98362
▁Instagram	-8.98419
▁osaa	-8.98451
uksista	-8.98452
ky	-8.98487
▁muistuttaa	-8.98634
▁päivän	-8.98679
▁N	-8.98729
▁valtion	-8.98734
▁uutta	-8.98794
▁si	-8.98842
kke	-8.98889
liitto	-8.99027
▁ri	-8.99072
▁josta	-8.99121
mpaa	-8.99154
N	-8.99287
▁asioita	-8.99325
▁oikein	-8.99348
▁25	-8.9942
kset	-8.99454
▁Ju	-8.99467
ttua	-8.99476
▁takana	-8.99589
rä	-8.99593
▁Tällä	-8.99809
D	-8.99811
▁puu	-8.99836
▁olleen	-8.99868
▁al	-8.99914
▁syö	-8.99954
▁kansanedustaja	-8.99994
ajan	-9.00131
▁miksi	-9.00143
▁lo	-9.00177
tähti	-9.00213
▁ajo	-9.00397
st	-9.00411
▁Ylen	-9.00494
mäki	-9.00544
▁haastattelussa	-9.00715
▁paino	-9.00728
▁Tässä	-9.0073
▁tuolloin	-9.00764
▁perus	-9.00804
yhtiö	-9.00841
▁varmasti	-9.00918
▁24	-9.0103
tuu	-9.01121
▁lapsen	-9.01304
▁hänellä	-9.01351
▁mediassa	-9.01454
▁hä	-9.0146
▁ilmoitti	-9.01578
▁mu	-9.01667
ukset	-9.0173
▁ke	-9.01804
▁pelasi	-9.01851
▁Auto	-9.01963
▁ry	-9.02196
▁Ma	-9.02302
▁kaupunki	-9.02341
ttanut	-9.02388
▁tuki	-9.02871
▁täällä	-9.02993
▁ongelma	-9.03135
U	-9.03426
▁s	-9.03579
nes	-9.036
osa	-9.03664
▁joukkueen	-9.03791
▁tarkoitus	-9.03815
▁Osa	-9.03945
▁Vuon	-9.0396
▁toimii	-9.04026
▁alue	-9.04076
▁vii	-9.04089
▁Donald	-9.04257
▁Orpo	-9.04273
▁kolmen	-9.04287
▁epä	-9.04369
▁päivänä	-9.04372
sarjan	-9.04449
▁ulos	-9.04552
▁kuollut	-9.04606
▁Val	-9.04634
▁hinta	-9.04672
▁tietoa	-9.04693
▁asian	-9.05012
toimi	-9.05037
▁ottelussa	-9.05103
▁valmis	-9.05313
▁pidä	-9.05429
▁18	-9.05529
var	-9.05574
▁Biden	-9.05703
lehti	-9.05753
▁miesten	-9.05776
▁toiminta	-9.05802
oi	-9.05956
▁päätös	-9.05958
▁saman	-9.06249
teli	-9.06272
▁äiti	-9.06353
mässä	-9.06375
▁onko	-9.0641
▁jäsen	-9.06429
▁Turun	-9.06518
w	-9.06551
peli	-9.06576
▁mene	-9.06608
▁sodan	-9.06703
▁selvi	-9.06814
▁pian	-9.06936
▁Kyllä	-9.07132
bo	-9.07259
▁100	-9.07278
▁Hi	-9.07296
▁H	-9.07467
▁kuusi	-9.07599
▁lapsi	-9.07645
tava	-9.07704
tui	-9.07712
▁kertonut	-9.07929
ivat	-9.08069
▁edessä	-9.08247
ensa	-9.08394
▁lähellä	-9.08758
▁ajoi	-9.0881
määrä	-9.08893
▁mieltä	-9.08902
▁tutki	-9.08918
▁alla	-9.09059
ul	-9.0941
▁jätti	-9.09472
elta	-9.09637
▁mennessä	-9.09732
▁juhli	-9.09748
▁Alexander	-9.09871
▁ihmis	-9.09996
▁löytyi	-9.1004
▁9	-9.10148
paikka	-9.10165
▁suoraan	-9.10189
▁turva	-9.10308
▁paras	-9.10405
▁2020	-9.1058
teet	-9.10603
▁olympia	-9.10697
▁vapaa	-9.10768
mmi	-9.1078
▁sijaitseva	-9.10819
▁Iltalehdelle	-9.10845
▁päivää	-9.10855
▁syytä	-9.10995
▁tarvitse	-9.1105
▁poika	-9.11081
▁valmentaja	-9.11251
▁ykkös	-9.1133
▁tietojen	-9.11384
▁tv	-9.11473
▁palo	-9.11492
ir	-9.11557
▁16	-9.11746
▁voinut	-9.12222
▁Iltalehden	-9.12223
▁laji	-9.1227
▁jatko	-9.12339
▁keskustelu	-9.12342
tunut	-9.12423
▁Mikko	-9.12428
▁sanoa	-9.12577
don	-9.12595
▁Siinä	-9.12601
▁antoi	-9.12677
▁teho	-9.1275
▁sarja	-9.12783
llisen	-9.12803
es	-9.12871
▁todennäköisesti	-9.13091
▁entinen	-9.13094
miseksi	-9.13126
▁olevansa	-9.13308
▁Ru	-9.13323
ske	-9.13338
▁tekemään	-9.13342
▁Naton	-9.13463
▁näkyy	-9.13511
30	-9.13524
▁Hu	-9.13544
▁kaiken	-9.13571
laisten	-9.13624
ile	-9.13629
uus	-9.13691
▁tietää	-9.13795
▁sy	-9.14077
▁kuukauden	-9.14115
▁40	-9.14183
▁paikka	-9.14207
eseen	-9.1423
▁toimitusjohtaja	-9.14243
▁perheen	-9.14341
▁meillä	-9.14427
▁Yle	-9.14476
▁Pekka	-9.14547
▁Uusi	-9.14626
▁vuosien	-9.14636
▁17	-9.14654
▁kahdeksan	-9.14673
ot	-9.14691
▁puolesta	-9.1473
▁aloitti	-9.14736
▁kilometrin	-9.14957
▁vanha	-9.1504
▁J	-9.15071
▁valtio	-9.15083
▁kulttuuri	-9.15122
▁ro	-9.15157
▁uudelleen	-9.15247
▁8	-9.15467
▁voima	-9.15511
tulo	-9.15615
▁ruoka	-9.15625
▁Ba	-9.15754
▁osalta	-9.15806
▁seuraa	-9.15873
▁olemme	-9.15973
▁vastaa	-9.15985
tie	-9.16
▁olo	-9.16006
▁päävalmentaja	-9.16076
voima	-9.16232
aali	-9.16249
▁Israel	-9.16365
be	-9.16385
▁k	-9.16414
ba	-9.16494
▁vaati	-9.16501
▁tärkeä	-9.16542
matta	-9.16607
▁naisen	-9.16669
▁päätti	-9.16691
▁kuvan	-9.16739
▁metrin	-9.16797
▁pala	-9.16818
▁seitsemän	-9.16835
ava	-9.16887
▁menee	-9.16998
▁Moni	-9.17014
▁uusia	-9.17028
▁selvästi	-9.17163
▁ensimmäistä	-9.17222
▁Sitten	-9.17226
tää	-9.17261
vän	-9.17387
▁kirja	-9.17459
▁6	-9.17511
▁sisä	-9.17531
▁klo	-9.17536
ää	-9.17541
▁Iso	-9.17672
▁kannalta	-9.17824
▁2021	-9.17837
▁kyseessä	-9.17919
asia	-9.18021
▁tilanteessa	-9.18043
▁ainoa	-9.18123
▁paikalla	-9.18147
ien	-9.18191
▁vaatii	-9.18223
▁toi	-9.18303
▁jatkuu	-9.18417
▁kohtaa	-9.18492
▁linja	-9.1851
▁var	-9.18649
▁suur	-9.1888
▁tehdään	-9.18951
matka	-9.19302
▁muutama	-9.19438
▁kuvailee	-9.19503
vuotiaan	-9.19504
uuden	-9.19524
kirja	-9.1953
▁2024	-9.19569
▁varsin	-9.19621
▁paikalle	-9.19634
▁Voi	-9.1965
tetty	-9.19653
▁Lapin	-9.1972
miin	-9.19741
▁hyvää	-9.19797
essaan	-9.19825
▁käyttöön	-9.19835
▁vei	-9.19939
ca	-9.19958
malli	-9.20024
▁erikois	-9.20032
▁tehtävä	-9.20143
▁27	-9.20155
▁pitänyt	-9.2017
▁Putinin	-9.2023
▁lento	-9.20298
▁Itä	-9.20319
tusta	-9.20347
laiset	-9.20507
▁kovin	-9.20551
▁kampanja	-9.20798
▁tapauksessa	-9.20852
tun	-9.20875
▁sala	-9.20996
▁kokonais	-9.21241
▁kantaa	-9.21244
▁vuodesta	-9.21258
▁Pää	-9.21334
▁de	-9.21385
kkä	-9.21474
ltaan	-9.21532
kun	-9.21565
▁palaa	-9.21591
keskus	-9.21607
▁Niin	-9.21622
▁To	-9.21663
kisoissa	-9.21664
▁Pari	-9.21689
▁talous	-9.21763
▁nähtiin	-9.21808
▁Työ	-9.21901
▁nuori	-9.21986
ajo	-9.22111
viä	-9.22205
▁tarkoittaa	-9.22368
▁lähtien	-9.22402
▁suu	-9.22497
▁Yli	-9.22596
1-	-9.22602
▁päättyi	-9.22641
tien	-9.22686
▁teko	-9.22824
pari	-9.22839
▁päällä	-9.22874
F	-9.22925
▁Meillä	-9.22993
son	-9.23067
▁käyttö	-9.23135
▁etenkin	-9.23199
▁yhteis	-9.23272
hdi	-9.23316
▁vir	-9.23317
▁johon	-9.23343
isti	-9.23421
▁Mar	-9.23438
sesti	-9.23464
▁loppuun	-9.23507
▁ympäristö	-9.2356
▁Keski	-9.23598
▁kaikkien	-9.23636
▁Kar	-9.23653
▁omaa	-9.23678
▁piste	-9.23946
▁tärkeää	-9.23978
▁alusta	-9.2405
mien	-9.24154
um	-9.24168
▁STT	-9.24183
▁Ti	-9.24255
hde	-9.24342
eli	-9.24474
▁paremmin	-9.24611
▁niistä	-9.24784
isku	-9.2483
kuva	-9.24868
▁Co	-9.24966
berg	-9.25056
iltä	-9.25076
päällikkö	-9.25143
isto	-9.25179
▁laske	-9.25255
mman	-9.25299
▁riski	-9.25316
▁Helsingissä	-9.25321
▁vahva	-9.25346
▁varten	-9.25428
L	-9.25453
koi	-9.2546
▁mo	-9.25581
▁suhteen	-9.25612
▁joilla	-9.25661
▁mennä	-9.25673
▁jäänyt	-9.25732
▁Petteri	-9.25749
▁hy	-9.25819
▁ääni	-9.25822
▁aikoo	-9.25893
▁Salo	-9.26131
▁tuntuu	-9.26202
isiä	-9.26353
sivat	-9.26529
▁ympäri	-9.26558
▁Hä	-9.26688
gi	-9.26745
neiden	-9.26746
▁täytyy	-9.26763
kauden	-9.26903
▁nais	-9.26915
▁Tuo	-9.26916
▁ystävä	-9.26968
▁rahaa	-9.27091
pin	-9.27141
toja	-9.27179
▁melko	-9.27248
▁aja	-9.27311
▁yleensä	-9.27342
▁kausi	-9.27372
▁finaali	-9.27477
▁suuntaan	-9.27492
jan	-9.27499
▁ratkaisu	-9.27528
▁Iltalehti	-9.27665
valla	-9.27696
▁eniten	-9.2779
rei	-9.27799
▁voittanut	-9.2784
▁pelaa	-9.27855
▁ammatti	-9.27973
▁yhteen	-9.28043
▁nähty	-9.28074
▁26	-9.28147
▁Be	-9.28217
▁val	-9.28276
▁kertovat	-9.28298
▁lähtee	-9.28392
▁seuraava	-9.28507
▁sellainen	-9.28524
▁tulo	-9.28547
uh	-9.28659
▁Anna	-9.28682
▁näyttelijä	-9.28691
▁suora	-9.28709
▁kii	-9.2872
iseen	-9.28753
▁tilannetta	-9.28772
▁korkea	-9.28795
▁Mitä	-9.28803
udu	-9.2884
▁Jussi	-9.28842
▁kuvaa	-9.28976
ol	-9.28995
▁aiheuttaa	-9.29068
.)	-9.29091
mon	-9.29177
▁Hy	-9.2924
▁nämä	-9.29259
▁avulla	-9.29332
▁viiden	-9.29335
▁ihmisten	-9.29375
uutta	-9.29458
▁tapahtunut	-9.29459
▁tuttu	-9.29717
llään	-9.29817
kat	-9.2982
▁oikea	-9.29866
▁muista	-9.29936
▁mahdollis	-9.30057
viin	-9.30116
▁juhla	-9.30241
liiton	-9.30243
▁mistä	-9.30281
vas	-9.30324
▁rikos	-9.30366
▁jatkoi	-9.30367
▁2019	-9.30418
▁minulle	-9.30453
mat	-9.30506
▁Sitä	-9.30561
▁tuleva	-9.30604
jat	-9.30728
▁vuokra	-9.30787
▁toistaiseksi	-9.30911
▁Par	-9.30912
▁21	-9.31011
▁sana	-9.31015
kunta	-9.31026
▁200	-9.3103
▁nuorten	-9.31035
ing	-9.3108
▁Bidenin	-9.31183
▁nostaa	-9.31214
▁ensin	-9.31275
pelaaja	-9.31334
▁Olemme	-9.31534
▁epäillään	-9.31536
▁vastasi	-9.31605
▁lopussa	-9.31618
uksiin	-9.31621
ime	-9.31778
▁venäläis	-9.31802
▁toista	-9.31876
▁toimittaja	-9.31906
mpia	-9.31941
ude	-9.31961
▁kasva	-9.31983
tyy	-9.31993
alan	-9.31996
▁hieno	-9.32077
ija	-9.32103
luvun	-9.32114
ee	-9.32175
▁vakava	-9.32187
▁sivu	-9.32231
▁pistettä	-9.32251
▁nähdään	-9.32359
seura	-9.32534
▁pääsee	-9.32562
▁uskoo	-9.32618
▁An	-9.32656
ran	-9.32699
▁Yhdysvaltojen	-9.32736
▁elämän	-9.32775
▁Oy	-9.32924
▁lähi	-9.33041
▁no	-9.33216
▁lii	-9.33248
▁yleis	-9.33287
▁juo	-9.33344
▁Harris	-9.33436
hy	-9.33468
▁Y	-9.33479
▁lau	-9.33553
▁välttämättä	-9.33667
▁nähdä	-9.33738
siin	-9.3374
tel	-9.33743
▁minä	-9.33755
▁puolella	-9.3378
iko	-9.33873
ero	-9.33889
▁500	-9.33912
▁vuoro	-9.33921
▁juttu	-9.34046
▁alueen	-9.34068
ssään	-9.34293
▁ikään	-9.34305
▁saakka	-9.34509
▁sotilas	-9.34517
py	-9.34553
▁kohtaan	-9.34604
▁W	-9.3466
▁minuuttia	-9.34671
▁seuran	-9.3477
▁sisällä	-9.34819
▁miljoonan	-9.34865
▁keho	-9.34983
järjestö	-9.3509
▁saatu	-9.35127
▁Ala	-9.35135
▁Da	-9.35166
▁sosiaali	-9.35196
▁Sami	-9.3531
vuotiaana	-9.35528
▁Venäjällä	-9.35626
▁so	-9.35638
misestä	-9.35639
▁hyvinvointialue	-9.3569
▁näytti	-9.35714
▁vähintään	-9.35865
tar	-9.35921
▁loma	-9.35947
uksesta	-9.36043
▁työn	-9.36092
G	-9.36158
▁saivat	-9.36159
▁kunnossa	-9.36176
▁kaikkea	-9.36182
▁kärsi	-9.36292
▁Yhdysvalloissa	-9.36341
▁vähemmän	-9.36341
jia	-9.36497
▁pelannut	-9.36508
▁samaan	-9.36528
istu	-9.36543
▁tappio	-9.36622
ber	-9.36624
▁tie	-9.36647
▁Haavisto	-9.36648
▁jakso	-9.36667
ika	-9.36675
▁pohja	-9.36709
▁Timo	-9.36808
▁7	-9.36922
▁kärki	-9.36966
▁ravintola	-9.3698
tojen	-9.37021
▁sosiaalisessa	-9.37031
ell	-9.37137
▁hei	-9.37293
▁kohdalla	-9.37304
▁Silloin	-9.37341
▁taso	-9.37351
▁Ukrainassa	-9.37377
▁johtaa	-9.37378
▁yksityis	-9.37469
▁Suomea	-9.37521
▁Mikä	-9.37541
▁Lauri	-9.3755
▁valta	-9.37569
▁kukaan	-9.3757
työ	-9.37714
▁perin	-9.37784
uri	-9.37818
▁monta	-9.37845
▁ru	-9.37885
▁ju	-9.38031
▁muutos	-9.38039
▁soi	-9.38046
▁suoja	-9.38053
▁päässä	-9.38115
▁toiminut	-9.38145
ase	-9.38292
▁uhka	-9.38329
mer	-9.38414
▁liittyy	-9.38439
▁Kyseessä	-9.38453
20	-9.38506
▁hetki	-9.38636
ryhmä	-9.38656
sarjassa	-9.38759
▁kuu	-9.38777
▁virka	-9.39004
▁ottelua	-9.39018
ik	-9.39034
ari	-9.39035
▁tanssi	-9.39064
th	-9.39087
▁Poliisin	-9.39129
ttele	-9.39181
▁odottaa	-9.39239
▁eteenpäin	-9.3926
▁laki	-9.39279
aho	-9.3937
▁Samalla	-9.39373
▁yö	-9.39389
tilaisuudessa	-9.39512
eltä	-9.39585
▁lasku	-9.39635
▁tukea	-9.3965
▁kokonaan	-9.39765
▁tarina	-9.39806
▁katso	-9.39819
▁lähtö	-9.3988
hoito	-9.40019
▁Norjan	-9.40049
▁keväällä	-9.40082
▁media	-9.40092
ger	-9.40366
▁kotiin	-9.40382
▁lääkäri	-9.40385
▁tehtiin	-9.40414
▁jalkapallo	-9.40435
▁pääse	-9.40513
tua	-9.40609
▁lähde	-9.40649
▁kanta	-9.40664
▁tapahtuu	-9.40747
tia	-9.41001
▁kesällä	-9.41011
▁L	-9.41019
▁Juha	-9.41047
▁talo	-9.41168
▁maalin	-9.41193
▁maassa	-9.41345
▁ollaan	-9.41427
val	-9.41443
▁valo	-9.415
kausi	-9.41522
▁ihmisen	-9.41523
ala	-9.41562
▁ikä	-9.41573
utti	-9.41591
▁epäilty	-9.41614
tävä	-9.41644
tori	-9.41803
▁asiantuntija	-9.41816
▁Janne	-9.41875
▁vastuu	-9.41904
▁tunne	-9.4193
esi	-9.41941
▁kasvu	-9.41944
kea	-9.42075
▁liike	-9.42152
ji	-9.42162
▁päässyt	-9.42259
▁29	-9.42283
▁lasta	-9.42299
▁28	-9.42385
▁parempi	-9.42435
▁ryhmä	-9.42489
koulu	-9.42563
▁prosentin	-9.42604
▁silmä	-9.42669
▁vaihtoehto	-9.42699
jille	-9.42753
▁suure	-9.42856
▁paikan	-9.42875
▁urheilija	-9.4291
▁Stubbin	-9.42938
ss	-9.42991
taso	-9.43101
▁hallinto	-9.43217
ttänyt	-9.43245
▁yllä	-9.43266
kse	-9.43286
▁tekijä	-9.43339
▁viikonloppuna	-9.43362
eri	-9.43401
ron	-9.43449
▁käynyt	-9.43544
▁halusi	-9.43561
llo	-9.43583
▁pyöri	-9.43708
▁etelä	-9.43785
▁saadaan	-9.43791
▁mahdollisuus	-9.43808
▁raha	-9.43811
puoli	-9.43953
▁Ennen	-9.44084
▁sinne	-9.44179
▁käytännössä	-9.44332
▁töitä	-9.44357
▁Tä	-9.44392
▁Fi	-9.44492
▁miestä	-9.44504
▁Saksan	-9.44518
▁tilanteen	-9.44643
▁Toinen	-9.44654
▁kulu	-9.44673
▁malli	-9.4469
yty	-9.44705
▁apua	-9.44818
per	-9.44868
mällä	-9.4491
▁emme	-9.44929
ise	-9.44942
▁alkaen	-9.45007
▁asunto	-9.45159
▁riittää	-9.45192
my	-9.45197
▁puoliso	-9.45276
▁tunnettu	-9.45291
▁Vladimir	-9.45355
▁f	-9.45383
▁Ga	-9.45444
▁pystyy	-9.45483
puu	-9.45611
▁metriä	-9.45617
▁saavat	-9.45646
▁elokuva	-9.4566
▁pitkän	-9.45666
▁meri	-9.45763
▁yritys	-9.45813
▁tuntia	-9.45842
▁siltä	-9.45853
▁Suomalais	-9.45889
▁vuoteen	-9.45901
▁aamu	-9.45922
ov	-9.45942
▁ky	-9.45992
▁Oulu	-9.4601
▁Harry	-9.46071
▁taustalla	-9.4609
▁laaja	-9.46093
▁Ville	-9.46113
▁näy	-9.46164
vää	-9.46211
▁erityisen	-9.46226
%	-9.46232
ren	-9.46238
co	-9.46239
▁sä	-9.46249
▁rooli	-9.46269
ed	-9.46307
▁kyl	-9.46348
toista	-9.46472
▁olisivat	-9.46477
▁kesän	-9.46573
▁ex	-9.46625
mm	-9.46734
ele	-9.46795
▁ura	-9.46996
▁tutkimus	-9.471
▁tulevat	-9.47105
tio	-9.47181
▁pikku	-9.47225
llisia	-9.47244
▁Orpon	-9.4729
▁lähteä	-9.4739
▁hyväksy	-9.47458
▁per	-9.47494
▁peräti	-9.47517
▁tapa	-9.47589
nnan	-9.47617
▁omistaja	-9.47618
▁Ruotsi	-9.47708
▁neljän	-9.47729
esti	-9.4773
▁kysyi	-9.47746
▁kilometriä	-9.47763
▁oppi	-9.47805
▁myöskään	-9.4782
▁merkittävä	-9.47976
▁noussut	-9.4801
yö	-9.48042
▁rakennus	-9.48145
▁yksin	-9.48316
▁ihme	-9.48355
voitto	-9.48405
neensä	-9.48415
▁saapui	-9.48569
▁60	-9.48581
uksissa	-9.48642
▁Di	-9.48681
▁kerrottiin	-9.48767
maksu	-9.48801
ttavat	-9.48918
▁joskus	-9.49094
▁minun	-9.49114
▁haastattelu	-9.49193
▁In	-9.49202
der	-9.4925
▁Har	-9.4927
▁isku	-9.49356
▁yhtiö	-9.49404
▁takaa	-9.49415
▁YK	-9.49476
▁euro	-9.49503
▁0	-9.49508
▁Yhdysvallat	-9.49638
mma	-9.49701
kor	-9.49758
valta	-9.49825
▁liha	-9.49901
ottelu	-9.49956
oma	-9.49965
J	-9.49995
▁Per	-9.49999
ville	-9.50013
laisia	-9.50069
▁sata	-9.50271
ikko	-9.50274
▁saisi	-9.50286
asti	-9.50287
▁muutaman	-9.50297
▁tunte	-9.50362
▁MTV	-9.50374
olo	-9.50408
▁viikkoa	-9.50475
▁uhri	-9.50541
las	-9.50541
lassa	-9.5059
▁Olli	-9.5075
▁maahan	-9.50827
▁Wi	-9.5092
gan	-9.51073
▁Ver	-9.51089
▁pohjois	-9.51117
▁onnistui	-9.51139
▁asiassa	-9.51157
▁tilanteesta	-9.512
stään	-9.51258
▁taistelu	-9.51276
▁ihminen	-9.51292
toi	-9.51295
▁aloittaa	-9.5131
▁maksaa	-9.51316
▁Jä	-9.51325
▁itsensä	-9.51336
▁suosi	-9.51338
▁koske	-9.51353
sko	-9.51362
vaara	-9.51422
▁yhdeksän	-9.51468
▁kutsu	-9.51495
uuteen	-9.51568
▁kuljettaja	-9.51581
media	-9.51604
▁pienen	-9.51616
▁Presidentti	-9.51663
imme	-9.51687
▁kiinteistö	-9.5179
-20	-9.51917
tapa	-9.51939
▁suomalainen	-9.51951
▁2016	-9.51975
▁tuho	-9.51985
▁Var	-9.52048
▁edustaja	-9.52113
▁itseään	-9.52208
kunnan	-9.52209
vara	-9.52228
ker	-9.52288
▁uutis	-9.52326
▁syntyi	-9.52393
mus	-9.52462
alue	-9.52623
▁Mika	-9.52659
▁entistä	-9.52808
▁toimintaa	-9.52922
vasta	-9.52997
ris	-9.53027
joukkue	-9.531
▁usea	-9.53107
osi	-9.53108
▁Zelenskyi	-9.53352
▁runsaasti	-9.53389
ff	-9.5339
▁kerta	-9.53419
▁yleisö	-9.53516
mmat	-9.53524
▁huomiota	-9.53531
▁sarjan	-9.53534
▁Leijoni	-9.53541
▁Jukka	-9.53629
▁asiat	-9.53647
▁pal	-9.53677
nnin	-9.53694
▁ve	-9.53717
▁2025	-9.53749
▁kysymys	-9.53778
▁tulossa	-9.53825
rk	-9.53967
sarja	-9.53969
▁siksi	-9.53991
▁aihe	-9.54018
stus	-9.54105
▁mennyt	-9.54117
▁Do	-9.54194
▁palasi	-9.54213
▁Ve	-9.54305
kesk	-9.54313
▁käytössä	-9.54323
kit	-9.54336
luvulla	-9.54348
▁hoito	-9.54427
▁julkaistu	-9.5451
tanut	-9.54653
▁näkee	-9.54686
vänsä	-9.54692
omi	-9.54776
▁metsä	-9.54779
kkaan	-9.54787
masta	-9.54797
▁lain	-9.54854
▁Helsinki	-9.54883
▁itselleen	-9.54998
▁olemaan	-9.55048
▁kau	-9.55053
▁halunnut	-9.55084
▁tulos	-9.55251
▁verrattuna	-9.55262
▁Pariisin	-9.55287
tut	-9.55288
▁Fa	-9.55294
▁kesänä	-9.55298
▁Bu	-9.55403
▁parin	-9.55499
▁Matti	-9.55514
ment	-9.55527
▁Ca	-9.5555
▁heitä	-9.55573
▁tuotanto	-9.55633
▁vaimo	-9.55704
▁energia	-9.55709
▁tapaa	-9.55711
▁Kari	-9.5587
▁maksu	-9.55885
▁tuore	-9.55944
▁yönä	-9.56092
▁ilmi	-9.56108
▁talli	-9.56132
kohta	-9.5618
▁mahdollisesti	-9.56242
▁mihin	-9.56263
▁sille	-9.56274
▁koira	-9.56306
▁kohu	-9.56417
▁kaikille	-9.56427
ilee	-9.56445
ston	-9.56465
▁talvi	-9.565
▁nousu	-9.56521
keskuksen	-9.56544
ettiin	-9.56555
▁koo	-9.56556
▁liiga	-9.56595
uka	-9.5671
ttamaan	-9.56778
▁kuulu	-9.56797
za	-9.56805
▁iski	-9.56845
▁päätöksen	-9.56882
▁Siellä	-9.56903
▁Kaksi	-9.56959
▁some	-9.56979
▁vil	-9.57018
ek	-9.57032
▁Siitä	-9.57079
pol	-9.57139
▁Länsi	-9.57348
▁toki	-9.57353
jät	-9.57367
▁Oma	-9.57405
▁keskellä	-9.57407
tetään	-9.57449
▁tien	-9.5747
▁Joe	-9.57537
▁Koko	-9.57545
▁myynti	-9.57548
▁onnistu	-9.57549
▁lapset	-9.57555
▁osallistui	-9.57565
▁toimia	-9.57578
▁tahansa	-9.57612
▁puhe	-9.57616
▁Itse	-9.57616
▁tähti	-9.57726
▁joutuu	-9.57737
▁monet	-9.57808
iri	-9.57853
selle	-9.57939
▁katsoi	-9.57977
▁minua	-9.58
▁Instagramissa	-9.58112
▁tavoite	-9.58126
▁Kyse	-9.58151
▁Halla	-9.58195
päivän	-9.58266
▁huolta	-9.58281
▁johto	-9.58318
▁huomauttaa	-9.58403
▁ehti	-9.58435
▁rikko	-9.58474
▁kansa	-9.58482
▁sano	-9.58526
▁puolueen	-9.5858
▁erilaisia	-9.58588
▁elämä	-9.5861
▁eteen	-9.58679
▁2022.	-9.58719
▁Vuoden	-9.58732
▁22	-9.58747
vista	-9.58754
eissa	-9.58779
▁tunnin	-9.58812
▁musta	-9.58817
ike	-9.58932
▁Varsinais	-9.58956
▁ti	-9.59008
▁sellaista	-9.59014
tynyt	-9.59036
uko	-9.59164
oli	-9.59171
▁toisella	-9.59215
ner	-9.59234
▁23	-9.59273
aja	-9.59399
▁osallistu	-9.594
▁Laine	-9.59404
▁ampuma	-9.59406
▁turha	-9.59493
▁Kiina	-9.59656
▁ty	-9.59757
▁puolen	-9.59792
▁minulla	-9.598
isessa	-9.59804
ossa	-9.59861
▁väri	-9.59901
▁par	-9.59929
▁tyyli	-9.59931
▁yritti	-9.5994
▁meille	-9.59975
▁maksa	-9.59993
▁Marin	-9.60054
▁ar	-9.60057
▁liikaa	-9.60089
paikan	-9.60179
reita	-9.60292
ström	-9.60403
▁hal	-9.60463
ah	-9.60491
▁viestipalvelu	-9.6054
▁yhteistyö	-9.60541
▁palkka	-9.60594
▁vuodessa	-9.6061
tit	-9.6067
laista	-9.60688
▁mieli	-9.60703
▁helposti	-9.60711
▁alas	-9.60716
▁maalia	-9.60722
▁tausta	-9.60741
hoido	-9.60762
etaan	-9.60811
▁&	-9.60813
▁hotelli	-9.60874
▁Kan	-9.60898
ttelee	-9.60904
▁kerro	-9.60905
▁tilaa	-9.60913
ttavaa	-9.60994
▁Rovanperä	-9.61018
▁Saksa	-9.61027
▁Nämä	-9.61042
▁ennätys	-9.61092
▁tuomio	-9.61114
lve	-9.61148
ttelu	-9.61186
▁mä	-9.61189
her	-9.61213
▁pohtii	-9.61215
ministeriö	-9.61246
▁sija	-9.61402
▁mitali	-9.61424
vero	-9.61523
alueella	-9.6155
▁hyökkäys	-9.61636
ojen	-9.61639
sel	-9.61647
▁suku	-9.6173
▁vähä	-9.61737
ria	-9.61916
tra	-9.61942
▁päähän	-9.61957
ministeriön	-9.61986
em	-9.62022
▁nousee	-9.62073
▁nyky	-9.62082
▁avaa	-9.62121
▁tiedo	-9.62217
▁median	-9.62325
▁virhe	-9.62511
▁voittaja	-9.62526
suo	-9.62536
har	-9.62553
▁koe	-9.62617
merkki	-9.62626
▁voiton	-9.62628
▁suomalaisten	-9.62688
▁hiihto	-9.62707
▁työtä	-9.6279
▁varmaan	-9.62802
▁tasolla	-9.62815
hte	-9.62826
▁ajaa	-9.62901
▁kiekko	-9.62918
mäen	-9.62923
▁jalka	-9.62938
▁Sanna	-9.62939
▁uransa	-9.6295
▁toimiva	-9.62998
é	-9.63045
▁uutistoimisto	-9.63087
▁varma	-9.63132
▁seurauksena	-9.63292
▁äänestä	-9.63295
▁Maa	-9.63315
▁arvio	-9.63337
▁vuo	-9.63421
▁sopimus	-9.63423
▁vahvistaa	-9.63434
▁toiseksi	-9.63518
▁Niinistö	-9.63536
▁halu	-9.63555
▁Purra	-9.63556
▁tuntui	-9.63637
▁viha	-9.63682
▁helmikuussa	-9.6371
▁Syy	-9.63748
lehden	-9.6376
dä	-9.63862
▁prinsessa	-9.6392
▁syksyllä	-9.6398
▁parhaan	-9.64015
▁35	-9.64048
kasta	-9.64079
▁yrittäjä	-9.64149
▁syntynyt	-9.64157
▁Oulussa	-9.64161
▁Ensi	-9.64174
▁olemassa	-9.64225
▁vastaava	-9.64281
▁tar	-9.64316
▁Maria	-9.64326
lö	-9.64371
▁vuosia	-9.64412
isuus	-9.64453
▁saaneet	-9.64461
▁missään	-9.64519
▁aikoina	-9.64554
niemi	-9.64611
▁jättää	-9.64618
▁kansalais	-9.64632
▁sopi	-9.64639
ikki	-9.64671
▁lapsia	-9.64719
▁normaali	-9.64991
laa	-9.64994
etu	-9.65044
osta	-9.65158
met	-9.652
stö	-9.65259
perä	-9.65362
ukka	-9.65366
▁jonkin	-9.65366
usten	-9.65388
im	-9.65406
▁juoksu	-9.65408
▁jatkossa	-9.65493
▁Kau	-9.65498
▁jääkiekko	-9.65512
▁nopea	-9.65525
▁tur	-9.65667
▁ymmärtää	-9.65685
▁Andersson	-9.65693
▁kaikkia	-9.65771
▁tiedot	-9.65809
▁BBC	-9.65833
▁Teemu	-9.65835
▁ongelmia	-9.65845
▁viikko	-9.66031
▁prinssi	-9.66045
▁elämää	-9.66098
▁haaste	-9.66147
▁sijaitsee	-9.6626
oita	-9.66298
▁Kiinan	-9.66359
tyksen	-9.66418
▁Kor	-9.66427
▁Eli	-9.66463
▁Meri	-9.66473
▁alueelle	-9.66515
▁AFP	-9.66692
▁Tampereen	-9.66712
mar	-9.66828
▁Reuters	-9.66928
▁Jari	-9.66961
▁ajoneuvo	-9.66971
▁auki	-9.67035
▁Onko	-9.67141
salo	-9.67169
tur	-9.67206
ksesta	-9.67259
▁lopulla	-9.67353
ivo	-9.67354
▁kauppa	-9.67363
▁kotona	-9.67375
▁helppo	-9.67384
▁kansan	-9.67399
▁Hyvä	-9.6741
▁tietysti	-9.67442
▁kovaa	-9.67489
ila	-9.67517
▁nähnyt	-9.6756
▁joulukuussa	-9.67656
▁kuka	-9.6766
utui	-9.67677
ineen	-9.67747
▁tee	-9.67776
ohjelman	-9.678
uvo	-9.67809
▁lä	-9.67874
▁Kai	-9.67949
▁mitta	-9.67991
▁Tilanne	-9.68005
▁Ai	-9.6801
uksessa	-9.68037
kone	-9.6806
ttely	-9.68219
ukseen	-9.6825
▁tiedossa	-9.6826
siä	-9.68267
▁kone	-9.68324
▁julkaisu	-9.6838
linja	-9.68395
▁saatiin	-9.6844
▁Saa	-9.68445
▁sisään	-9.68534
▁ehdot	-9.68537
▁etsi	-9.68547
tuksi	-9.68547
▁alun	-9.68587
▁aikaisemmin	-9.6866
▁suomalaiset	-9.68669
kari	-9.68692
▁Katso	-9.68751
▁York	-9.68875
▁Mä	-9.68878
piste	-9.6888
▁siirtyi	-9.68881
ic	-9.68884
▁Tuolloin	-9.68902
rit	-9.69012
▁asema	-9.69021
▁pelin	-9.69064
▁Aiemmin	-9.69103
▁Ruotsissa	-9.69125
▁Ottelu	-9.69141
▁piha	-9.69171
sh	-9.69202
▁viimeisen	-9.69297
▁Tai	-9.69315
▁vahvasti	-9.69324
▁Nä	-9.69431
▁et	-9.69438
▁veto	-9.6947
▁tarjo	-9.69471
▁ilta	-9.69527
▁SDP	-9.69543
▁ottanut	-9.69583
ras	-9.6961
▁suori	-9.69663
par	-9.69723
illaan	-9.69732
▁nosti	-9.69761
▁naapuri	-9.69805
▁neli	-9.69806
▁tammikuussa	-9.6982
▁toiseen	-9.69826
▁kasvoi	-9.69834
▁kohtalo	-9.69849
ettu	-9.69921
▁kuningas	-9.69941
▁syystä	-9.69961
▁sauna	-9.7001
▁nykyään	-9.70033
op	-9.70035
ole	-9.70047
▁ainoastaan	-9.70257
▁samaa	-9.70287
▁Palo	-9.70327
▁Siksi	-9.70341
▁Gu	-9.70343
ad	-9.7035
▁yrittää	-9.70503
▁maajoukkue	-9.70566
50	-9.70579
asema	-9.70652
▁selkeä	-9.70747
▁Mari	-9.70749
väli	-9.7082
▁muistelee	-9.70908
▁vettä	-9.70935
▁auttaa	-9.71045
▁sydän	-9.71098
▁poikkeuksellise	-9.71122
▁tiedon	-9.71186
▁Ranskan	-9.71302
▁laulaja	-9.71325
▁käräjäoikeus	-9.71339
▁El	-9.71349
puhe	-9.7143
▁2017	-9.71576
gen	-9.71597
▁Her	-9.71599
jaan	-9.71634
▁Tästä	-9.71765
▁ohja	-9.71773
▁antanut	-9.71834
▁Du	-9.71877
pallo	-9.71921
▁uhkaa	-9.71981
▁Mer	-9.7205
▁mikään	-9.72087
▁St	-9.72255
▁muka	-9.72269
pito	-9.72287
inä	-9.72299
▁Venäjälle	-9.72358
▁Pro	-9.72578
▁300	-9.72674
▁ohje	-9.72686
▁keskus	-9.72741
▁väl	-9.72913
aatio	-9.72927
▁kuukautta	-9.72942
▁perjantai	-9.73097
▁We	-9.73146
▁CNN	-9.73167
▁hetken	-9.73185
▁Wa	-9.73199
▁huomattavasti	-9.73225
isesta	-9.7323
▁omat	-9.73254
▁raju	-9.73388
ori	-9.735
lain	-9.7354
▁säily	-9.7354
▁joutunut	-9.73563
▁käydä	-9.73569
eja	-9.73583
▁valtava	-9.73665
▁joukossa	-9.73673
▁mielessä	-9.73697
▁kiire	-9.73756
▁pakko	-9.73781
▁meno	-9.73783
teiden	-9.73834
▁yliopiston	-9.73904
▁Kolme	-9.73924
empi	-9.73933
▁käytetty	-9.74023
uttaa	-9.74055
▁eräs	-9.74061
läinen	-9.74071
▁hurja	-9.74083
ken	-9.74085
▁aiheutti	-9.74105
▁voittaa	-9.74112
▁tarvitaan	-9.74182
oista	-9.74269
▁hankki	-9.74285
▁esille	-9.74314
▁pysy	-9.74318
▁sopiva	-9.74343
▁Ty	-9.74375
Y	-9.74383
fa	-9.74417
▁Seura	-9.74498
▁ilmasto	-9.74526
▁oikeasti	-9.74549
▁etteivät	-9.74646
▁osin	-9.74796
▁syyskuussa	-9.74862
▁Olin	-9.74923
▁kaveri	-9.74971
oitu	-9.74998
▁viittaa	-9.75085
▁vä	-9.75087
tteja	-9.75102
▁juna	-9.75108
uu	-9.75112
itti	-9.75131
▁400	-9.75137
▁ensimmäisenä	-9.75161
▁koulun	-9.75174
telu	-9.75219
▁elä	-9.75236
▁kuvia	-9.75256
▁suosikki	-9.75345
▁suomalaisen	-9.75365
▁pako	-9.75418
▁kritisoi	-9.75501
lke	-9.7558
del	-9.75662
▁myy	-9.75699
▁astetta	-9.75723
▁rii	-9.75724
halli	-9.7574
▁näitä	-9.75741
▁31	-9.75745
▁muuten	-9.75772
sija	-9.75826
▁yliopisto	-9.75868
imman	-9.75934
työn	-9.75935
▁keino	-9.7596
▁löytää	-9.75974
▁tekemä	-9.75976
▁kevään	-9.75995
▁lenno	-9.76009
nnasta	-9.76095
▁Car	-9.76102
▁Heikki	-9.76117
▁tietoja	-9.7625
tukset	-9.76284
asiantuntija	-9.76288
ida	-9.76408
sson	-9.76439
▁paljastaa	-9.76478
▁aivo	-9.76489
pan	-9.765
▁Koti	-9.76512
▁lista	-9.76534
▁kuuluva	-9.76549
▁marraskuussa	-9.76569
misessa	-9.76594
ohjelma	-9.76595
▁valinta	-9.76649
▁lumi	-9.76679
▁Urheilu	-9.76689
▁molemmat	-9.76689
▁kylmä	-9.76733
dan	-9.7674
▁paluu	-9.76745
▁kesäkuussa	-9.76777
▁kuvaili	-9.76783
▁myöntää	-9.76791
utunut	-9.76824
▁kuoleman	-9.76935
▁Vielä	-9.76936
kilpailu	-9.77026
▁kasvaa	-9.77034
▁päättää	-9.77039
lliset	-9.77096
▁yrityksen	-9.77129
om	-9.77152
▁kunnia	-9.77179
▁Taka	-9.77221
▁Kas	-9.77249
erä	-9.77254
▁kertoivat	-9.77291
▁Ukrainaan	-9.77349
▁puolet	-9.77408
▁yllätys	-9.77579
mättä	-9.77608
▁toukokuussa	-9.77649
▁yhtään	-9.77665
▁Sai	-9.77733
ehdokas	-9.77742
kisojen	-9.77746
rö	-9.77783
tor	-9.77885
▁omia	-9.77935
▁Lähi	-9.77936
▁au	-9.77995
vesi	-9.78026
iseksi	-9.7809
▁por	-9.78113
▁viimeinen	-9.78149
gin	-9.78184
wa	-9.78345
▁hyviä	-9.78356
päivänä	-9.78406
▁suuren	-9.7845
▁Han	-9.78492
▁kolmas	-9.78523
lia	-9.78533
▁Sama	-9.7858
▁usei	-9.7862
▁samassa	-9.78627
▁päin	-9.78641
▁paitsi	-9.78644
▁2018	-9.78721
▁terve	-9.7882
▁keh	-9.78835
laji	-9.78855
▁Aika	-9.78869
▁haluaisi	-9.78875
tyi	-9.78906
▁joukko	-9.78946
Suomessa	-9.78972
▁luonnon	-9.78984
yksen	-9.79013
▁määri	-9.79045
▁mur	-9.79091
▁tulevi	-9.79094
▁ainakaan	-9.79106
▁Mäkelä	-9.79107
▁Marko	-9.7921
ranta	-9.79271
▁mestari	-9.79306
▁maata	-9.79309
▁seksi	-9.79358
eh	-9.79371
iste	-9.79405
▁Kanada	-9.79407
▁lokakuussa	-9.79433
ryhmän	-9.79509
▁teksti	-9.79532
asu	-9.79555
utumis	-9.7961
▁mieleen	-9.79613
järven	-9.7962
ud	-9.79621
▁esittää	-9.79636
▁sieltä	-9.79643
yri	-9.79768
▁Vii	-9.79772
▁pika	-9.79772
▁Tie	-9.7987
▁Nainen	-9.7987
joita	-9.79908
▁Ukrainalle	-9.79914
▁laittaa	-9.80036
tieto	-9.80039
▁hänestä	-9.80043
▁tavoin	-9.80092
▁aikataulu	-9.8011
▁ulkoministeri	-9.80161
▁g	-9.80195
▁maku	-9.80245
▁asteen	-9.80274
mpa	-9.8028
▁tarkka	-9.8031
▁asiakas	-9.80311
▁Sdp	-9.80339
▁kiva	-9.80346
raja	-9.80471
▁Hanna	-9.80475
▁Minulla	-9.80495
sella	-9.80509
▁otettu	-9.80542
erin	-9.80555
▁talon	-9.80575
▁paikallise	-9.80577
jää	-9.80624
▁Hei	-9.80635
▁Suo	-9.80644
▁kierroksella	-9.80677
▁veden	-9.80731
▁käynnissä	-9.80836
ito	-9.80838
▁neuvo	-9.80896
▁uran	-9.80955
▁katsoa	-9.81009
▁kieltä	-9.81029
▁of	-9.81032
▁liikunta	-9.81058
▁Gazan	-9.81078
▁järjestetään	-9.81086
▁tuomittiin	-9.81108
fo	-9.81147
▁Suomesta	-9.81227
vuus	-9.81259
▁Miten	-9.81284
▁keskusta	-9.81291
talon	-9.8134
▁päivi	-9.81345
▁Mäki	-9.81347
▁kala	-9.81399
▁Vasta	-9.814
sesta	-9.81431
por	-9.81503
▁Luo	-9.8151
▁Kalle	-9.81549
ttämään	-9.81669
▁keskustelua	-9.8168
▁koi	-9.81717
▁ministeri	-9.81732
▁lauantai	-9.81736
▁Sal	-9.81812
ukku	-9.81812
▁näki	-9.81849
▁tunnetaan	-9.8191
maton	-9.81956
▁entisen	-9.81957
▁ohjelma	-9.8196
aste	-9.82009
järjestelmä	-9.82011
▁suo	-9.82013
▁merkittävästi	-9.82037
▁1.	-9.82056
ster	-9.82068
▁Tur	-9.82095
▁lähtenyt	-9.82121
▁näe	-9.82148
▁maaliskuussa	-9.82206
▁tarjolla	-9.82225
▁raa	-9.82254
▁eduskunnan	-9.82341
▁perussuomalaist	-9.82342
ttyä	-9.82344
▁ho	-9.82379
chi	-9.82392
hl	-9.82453
▁puhui	-9.82454
▁muisto	-9.82457
kel	-9.82486
▁lähte	-9.82543
tilanne	-9.82554
otto	-9.82563
▁avaus	-9.82591
▁illan	-9.82594
tellut	-9.8264
▁mukaisesti	-9.82653
oitus	-9.82667
▁korona	-9.8271
▁San	-9.82763
▁löysi	-9.82786
vuosi	-9.82787
▁videon	-9.8279
▁kei	-9.82938
▁rauhan	-9.82989
▁sairaalaan	-9.83119
vet	-9.8313
▁videolla	-9.83138
utuu	-9.83145
▁musiikki	-9.83307
▁selvää	-9.83311
▁Mat	-9.83319
raa	-9.83321
▁vaikeaa	-9.83327
▁johtava	-9.83364
▁henkilöä	-9.8342
▁hahmo	-9.8345
▁Bar	-9.83538
▁isän	-9.83547
▁muistaa	-9.83547
▁80	-9.83579
▁alkanut	-9.83619
nneet	-9.83626
▁tulipalo	-9.83652
▁ilo	-9.8368
▁elokuussa	-9.83683
ralli	-9.83688
▁Kivi	-9.83693
▁Pitkä	-9.83762
▁asioista	-9.83763
ide	-9.83796
▁Tätä	-9.83798
emme	-9.83859
▁selvittää	-9.83903
▁Kii	-9.83941
puolue	-9.84035
ttaminen	-9.84048
▁Meidän	-9.84141
▁Hallitus	-9.84164
▁m	-9.84258
jista	-9.84274
▁Kur	-9.84275
▁kunta	-9.84306
▁Harrisin	-9.84332
▁korostaa	-9.84376
▁summa	-9.84405
isista	-9.84411
▁Ihan	-9.84587
lista	-9.84588
▁este	-9.84622
▁päätyi	-9.8466
▁ajatus	-9.8475
▁Euroopassa	-9.84776
muu	-9.84891
▁pidetään	-9.84903
▁lämpötila	-9.8491
bu	-9.85144
▁seksuaali	-9.8519
▁selvä	-9.85224
kkää	-9.85227
▁sanonut	-9.85264
miehen	-9.85281
ilija	-9.8529
valmentaja	-9.85324
▁sopimuksen	-9.85345
▁Au	-9.85348
▁Daniel	-9.85521
▁aurinko	-9.8553
▁tavoitteena	-9.85579
▁hää	-9.85605
vy	-9.8562
▁halli	-9.85649
▁kakkos	-9.85669
]	-9.85684
▁tiedotti	-9.85693
▁Bi	-9.85734
▁toivoo	-9.85748
▁Vain	-9.85784
▁Vai	-9.85822
▁työntekijä	-9.8583
▁Iranin	-9.85844
▁muuttaa	-9.85854
teko	-9.86024
▁vierailu	-9.86042
▁öljy	-9.86051
▁kumppani	-9.8615
▁Juttu	-9.86211
▁USA	-9.86219
▁Nu	-9.86224
▁ralli	-9.86312
▁ilme	-9.86373
▁Tar	-9.86397
▁suunnitelma	-9.86426
mmaksi	-9.8643
▁kehitys	-9.86443
▁julkisuudessa	-9.86471
tko	-9.86485
▁kulje	-9.86557
oto	-9.86581
uden	-9.86599
▁katsoo	-9.86619
pohja	-9.8666
▁verkko	-9.86711
▁van	-9.86712
▁Ehkä	-9.86735
▁Florida	-9.86746
vaihdo	-9.86751
▁muutti	-9.86753
henkilö	-9.86856
▁paikallis	-9.86892
▁saavu	-9.86894
▁lie	-9.86909
25	-9.86957
▁vakavasti	-9.86982
▁Niko	-9.86996
▁[	-9.8701
▁2014	-9.87015
▁joko	-9.87085
▁jär	-9.87097
yttä	-9.87099
▁katse	-9.87108
▁HIFK	-9.87265
▁nimenomaan	-9.87265
▁Joensuu	-9.87265
▁suurempi	-9.87336
▁moottori	-9.87356
▁Kir	-9.87371
▁länsi	-9.87406
▁istu	-9.87497
liiga	-9.87516
▁odotetaan	-9.87531
imi	-9.87561
▁hyökkääjä	-9.87572
▁Red	-9.87643
▁tuoda	-9.87729
teltiin	-9.87756
▁nosta	-9.87768
▁Oikeus	-9.87797
amaan	-9.87799
▁koskeva	-9.87814
▁Ranska	-9.87859
▁muodo	-9.87874
tavan	-9.87875
▁toive	-9.87895
tapahtuma	-9.87896
▁luku	-9.87945
▁murha	-9.8797
▁selvisi	-9.88006
W	-9.88016
▁paha	-9.88096
▁iho	-9.88167
▁muutoksia	-9.88198
▁tekevät	-9.88211
llisten	-9.88227
lly	-9.88234
talli	-9.88252
▁Olisi	-9.88284
▁ulkopuolella	-9.88341
▁heikko	-9.88358
▁lainkaan	-9.88385
ltään	-9.88404
▁sunnuntai	-9.88486
▁kertoa	-9.88511
vuotiaiden	-9.88619
reiden	-9.88623
▁jäädä	-9.88651
▁saira	-9.8868
▁tuoree	-9.88687
fe	-9.8869
viesti	-9.88701
▁yhteisö	-9.88726
lääkäri	-9.88748
▁70	-9.88806
käyttö	-9.88836
▁paine	-9.88862
▁asuva	-9.88871
▁pyysi	-9.88877
▁tosin	-9.88984
▁osui	-9.8899
ola	-9.88992
▁vene	-9.88999
▁Tappara	-9.89021
▁b	-9.89029
jakso	-9.89092
▁eroa	-9.89112
lon	-9.89129
▁tuomari	-9.89158
urheilu	-9.89206
▁Seuraava	-9.89216
tavat	-9.89255
maali	-9.89255
▁vaimonsa	-9.89311
ointi	-9.89315
▁ravi	-9.89347
▁aluksi	-9.89414
▁kaikista	-9.89414
wi	-9.89431
▁kauan	-9.89452
▁pakkas	-9.89473
▁kahvi	-9.89494
▁ali	-9.89494
▁ammattilais	-9.89499
▁Ste	-9.89563
▁televisio	-9.89598
▁heistä	-9.89644
▁aamulla	-9.89674
▁koki	-9.89686
▁aiempaa	-9.89687
▁katu	-9.89783
▁Ali	-9.89806
missa	-9.89806
▁johti	-9.89836
▁talouden	-9.89852
▁maasto	-9.89854
▁pyytää	-9.89861
toimittaja	-9.89884
peri	-9.89963
▁kuukausi	-9.89965
▁juontaja	-9.89997
▁luonto	-9.90026
ttaisi	-9.90085
▁presidentinvaal	-9.90097
▁heille	-9.90115
ottelussa	-9.90122
▁Aho	-9.90142
oilla	-9.90215
▁toisessa	-9.90259
simme	-9.90265
tiellä	-9.90269
▁epäilee	-9.90281
teista	-9.90292
▁Go	-9.90311
▁puolelle	-9.90321
▁Pel	-9.90322
▁jaksossa	-9.90368
▁varsinkin	-9.90408
▁Charles	-9.90485
eihin	-9.9051
▁City	-9.90544
▁reagoi	-9.90664
▁henkilöstö	-9.90665
▁32	-9.90673
joen	-9.90707
▁hävisi	-9.90724
▁neuvottelu	-9.90733
▁hiljattain	-9.90779
video	-9.9078
▁sellaisia	-9.90783
▁pallo	-9.90787
▁tuote	-9.90799
▁löytynyt	-9.90799
kaudella	-9.90843
▁dollaria	-9.90875
▁kannata	-9.9088
tettava	-9.90901
▁Salossa	-9.91026
▁Toisaalta	-9.91054
▁liittyen	-9.91054
tro	-9.91082
teita	-9.91083
tystä	-9.91092
▁kunto	-9.91095
▁HS	-9.91102
isu	-9.91129
▁onnistunut	-9.91169
▁vaike	-9.91213
▁tili	-9.91228
▁väestö	-9.91289
ssu	-9.91289
uha	-9.91301
▁Koska	-9.91445
hen	-9.91455
kainen	-9.91464
ohjelmassa	-9.91469
▁ukrainalais	-9.91509
▁säästö	-9.91533
▁puhua	-9.91544
▁huhtikuussa	-9.91675
vuutta	-9.91685
▁lakko	-9.91716
uma	-9.91752
▁Ky	-9.91789
▁keikka	-9.91807
operaatio	-9.91826
▁tehdy	-9.91834
▁nähden	-9.91885
▁luu	-9.91904
▁niihin	-9.91906
▁iltapäivällä	-9.91927
▁tiedotus	-9.91944
▁loukkaantui	-9.92041
▁myönsi	-9.92164
pal	-9.92194
▁heinäkuussa	-9.92218
▁yhteyttä	-9.92241
▁hätä	-9.92398
▁sanottu	-9.92407
▁miljoona	-9.92422
▁kokoomuksen	-9.92443
▁Tampereella	-9.92456
▁sammu	-9.92465
▁kylä	-9.92499
▁Cha	-9.92563
kul	-9.92566
▁näkö	-9.92581
▁määrää	-9.92581
tukseen	-9.92588
▁kuuden	-9.92591
▁Emme	-9.92622
▁ennuste	-9.92666
▁pelkästään	-9.92725
▁lähinnä	-9.92727
▁esitys	-9.92738
▁matkusta	-9.9275
▁Sch	-9.92767
sd	-9.92772
▁muoto	-9.92784
▁aloi	-9.92822
▁kisan	-9.92824
▁Hänellä	-9.92878
▁tunnelma	-9.92885
ongelmi	-9.92899
▁nimittäin	-9.93004
▁yksilö	-9.93074
▁36	-9.93087
▁jatku	-9.93225
▁Molemm	-9.93315
▁Niskanen	-9.93324
▁sovi	-9.93341
io	-9.93347
▁vahvista	-9.93404
▁jaksa	-9.93413
▁edellis	-9.9347
itse	-9.93575
▁parhaillaan	-9.93577
▁tuskin	-9.93585
▁kokenut	-9.93631
sessa	-9.93641
▁yhtiön	-9.93684
▁maiden	-9.93696
alueen	-9.93751
▁my	-9.93776
isella	-9.93792
▁tulevan	-9.93793
▁monen	-9.93818
▁tyytyväinen	-9.93851
▁Koivu	-9.93852
▁uima	-9.93869
▁super	-9.93922
▁lämpö	-9.93938
▁kuuluvat	-9.93941
▁vaaleissa	-9.93968
▁asuu	-9.9398
▁vauva	-9.93987
▁lupa	-9.93991
ttavan	-9.94024
▁valmistautu	-9.9411
▁etukäteen	-9.94135
▁tiedottaa	-9.94202
▁isänsä	-9.94269
itte	-9.94281
▁kal	-9.94299
by	-9.94314
▁45	-9.9432
▁jälki	-9.94371
▁poliisille	-9.94431
▁keksi	-9.94455
kkari	-9.94457
▁kaikkiaan	-9.94523
yyttä	-9.94595
40	-9.94644
istaan	-9.94694
luvu	-9.94698
▁tarvitsee	-9.94699
▁saattoi	-9.9471
issaan	-9.94736
▁Lopulta	-9.9477
▁34	-9.94824
▁Valko	-9.94863
▁ikävä	-9.94868
▁julkisuuteen	-9.94993
▁Kamala	-9.95001
id	-9.95009
▁käytetään	-9.95034
12	-9.95044
▁luki	-9.9508
isena	-9.95101
▁palkinto	-9.95102
paikkaa	-9.95177
▁selviää	-9.95186
▁Venäjää	-9.95198
▁peruste	-9.95205
▁jatka	-9.95223
▁kapteeni	-9.9523
järvi	-9.95274
▁Britannian	-9.95278
lis	-9.95284
ketju	-9.95313
▁hävi	-9.95352
▁Z	-9.95353
▁Martin	-9.95371
▁kasvanut	-9.9543
▁onkin	-9.95448
▁tutkija	-9.95454
▁erityis	-9.95479
▁pitkin	-9.95493
▁Mal	-9.95493
ikä	-9.9556
gon	-9.95563
▁helpo	-9.95565
▁toisin	-9.9557
liike	-9.95578
▁di	-9.95589
vis	-9.95633
▁vaikutti	-9.95634
▁luovu	-9.95641
risti	-9.95695
▁haasta	-9.95753
▁valittiin	-9.95769
▁tyttö	-9.95789
▁Pan	-9.95847
▁tapaan	-9.9585
mattom	-9.95855
▁väitti	-9.95866
▁vaikutus	-9.95893
▁minuutin	-9.95912
▁Pal	-9.95915
kuski	-9.95924
▁lukio	-9.95926
▁ylä	-9.95941
▁jutussa	-9.95973
▁kor	-9.96084
elli	-9.96093
uudesta	-9.96106
▁huomasi	-9.96148
▁tietä	-9.96152
▁siten	-9.96167
tön	-9.9617
▁Tähän	-9.96178
▁verta	-9.96186
ellinen	-9.96247
▁ota	-9.96248
res	-9.96294
▁kohde	-9.96315
▁soitti	-9.96387
▁alkoholi	-9.96415
▁pystynyt	-9.96537
muka	-9.96577
▁opettaja	-9.96598
▁amerikkalais	-9.96725
▁tö	-9.96732
▁tilasto	-9.96734
pit	-9.96816
koko	-9.96824
▁nuor	-9.96835
▁Trumpia	-9.96865
kauppa	-9.9687
hinta	-9.96903
▁pelata	-9.96915
▁sekuntia	-9.96917
tri	-9.9696
▁kestää	-9.97048
▁Catherine	-9.97053
▁Ker	-9.97077
tappio	-9.9711
ttoman	-9.97173
▁haluavat	-9.97186
▁harjoitus	-9.972
▁90	-9.9722
mpaan	-9.97298
▁matkan	-9.97317
▁kanna	-9.97318
mestari	-9.97351
▁sähköauto	-9.97367
legenda	-9.97374
kau	-9.97377
▁korva	-9.97436
uk	-9.97446
▁aio	-9.97493
pl	-9.97494
ntia	-9.97583
▁yhtenä	-9.97587
▁Tänä	-9.97659
▁törkeä	-9.97663
▁hyvän	-9.97728
tausta	-9.97783
▁numero	-9.97788
▁kokee	-9.97789
▁vieras	-9.97794
▁heiko	-9.97802
▁ver	-9.97829
▁aikojen	-9.9783
see	-9.97841
▁sijoittui	-9.97916
▁lausunto	-9.97928
▁kansainvälise	-9.97934
▁15-	-9.97938
nnu	-9.97951
▁Pääministeri	-9.97955
▁Ge	-9.97959
elämä	-9.98005
päivää	-9.98038
▁tiistai	-9.98051
osasto	-9.98081
▁kur	-9.98086
▁harrasta	-9.98092
tilaa	-9.98097
▁silmi	-9.98108
▁Jani	-9.98132
▁Barkov	-9.98208
ehto	-9.98235
▁Norja	-9.98323
▁puhutaan	-9.98333
▁nime	-9.98337
▁ympärillä	-9.98372
▁Sam	-9.98405
▁Lind	-9.98439
▁vieraili	-9.985
▁Jenni	-9.98522
▁kierroksen	-9.9858
tyä	-9.98682
▁tarpee	-9.98684
▁Mai	-9.98687
▁jättä	-9.987
▁tiuk	-9.98711
▁Sara	-9.98712
▁sijoit	-9.9872
▁pol	-9.9875
▁raportoi	-9.98806
gu	-9.98818
▁ruo	-9.98826
15	-9.98836
▁historian	-9.9884
▁kilpa	-9.98841
▁Kirja	-9.98859
▁Kal	-9.98864
veri	-9.98951
▁pro	-9.98962
▁professori	-9.98975
▁tapaus	-9.99009
▁tuuli	-9.99009
▁viestintä	-9.99024
▁Huo	-9.99024
▁Tor	-9.99054
▁matkalla	-9.9908
▁uhrin	-9.99092
▁osuus	-9.99093
▁operaatio	-9.99095
▁yrittä	-9.99138
▁Hamasin	-9.99174
▁puhuu	-9.99192
▁kestävä	-9.99198
ham	-9.99234
▁har	-9.99255
ou	-9.99256
nainen	-9.99262
lasku	-9.99289
▁Anne	-9.99289
▁väliin	-9.99291
mpää	-9.99304
▁pyörä	-9.99329
▁kriisi	-9.99329
teeseen	-9.99343
▁tilanteeseen	-9.99346
▁vuodelta	-9.99392
▁edellä	-9.99394
▁Rai	-9.99399
▁huolissaan	-9.99408
yyden	-9.99409
Korean	-9.99453
▁illalla	-9.99463
▁Mikael	-9.99561
les	-9.99569
▁joukkoon	-9.99579
ttaneet	-9.9959
▁väärä	-9.9961
▁lahja	-9.99649
▁valmistu	-9.99652
▁äänestys	-9.99654
▁Monet	-9.99662
▁Päivä	-9.99693
▁välittömästi	-9.99718
▁Aki	-9.99749
valo	-9.9982
rr	-9.99871
koti	-9.99881
▁toteutta	-9.99886
▁Sha	-9.99976
▁laina	-9.99993
teitä	-9.99999
ilma	-10.0003
hyökkääjä	-10.0008
▁Kesä	-10.001
▁i	-10.0017
▁koro	-10.0018
▁miehet	-10.002
rakennukse	-10.0028
▁pelasta	-10.0029
▁oppositio	-10.0029
▁Liiga	-10.003
▁esitti	-10.0034
lait	-10.0043
luku	-10.0044
▁Tanska	-10.0046
▁voimaan	-10.0047
▁parasta	-10.0056
▁upea	-10.0061
▁Lapissa	-10.0063
▁Viron	-10.0063
▁My	-10.0065
kisa	-10.0077
Uudenmaan	-10.008
oihin	-10.0081
itta	-10.0082
▁viranomaiset	-10.0083
▁tiedustelu	-10.0083
▁ilmiö	-10.0084
▁omasta	-10.0085
▁torju	-10.0089
▁ruotsalais	-10.0095
▁neljänne	-10.0095
▁purka	-10.01
▁Espanjan	-10.0103
▁laski	-10.0104
▁homma	-10.0105
mpiä	-10.0109
▁pystyi	-10.0112
mal	-10.0116
▁Rovaniemen	-10.0121
tyyli	-10.0123
▁20-	-10.0123
▁totta	-10.0125
▁kuului	-10.0129
▁loi	-10.0129
▁parissa	-10.0131
▁suosio	-10.0135
tilillään	-10.0142
▁tunnista	-10.0146
nnalla	-10.0149
▁tuomitsi	-10.0152
▁Robert	-10.0152
▁kappale	-10.0153
am	-10.0158
▁seuraaja	-10.0158
hdin	-10.016
▁perinteise	-10.0162
▁saattavat	-10.0164
auton	-10.017
pala	-10.017
▁oikeuden	-10.0171
koon	-10.0171
▁ydin	-10.0181
▁tietenkin	-10.0182
▁maailmaa	-10.0183
▁paljasti	-10.0187
▁Koskela	-10.0188
▁Eurooppa	-10.0189
piiri	-10.019
▁joulukuuta	-10.0191
▁kumma	-10.0197
▁kolmi	-10.0198
▁kilpailun	-10.0199
tuksessa	-10.0201
▁korvaa	-10.0205
arvio	-10.021
▁pur	-10.0212
▁Innes	-10.0215
kymppi	-10.0215
mb	-10.0217
▁pahoi	-10.0218
▁Käy	-10.022
▁alta	-10.0221
▁epäillyn	-10.0223
ey	-10.0223
▁11.	-10.0231
▁lippu	-10.0234
▁Linnan	-10.0235
vasti	-10.0238
rie	-10.0247
▁muuttui	-10.025
▁kansallis	-10.0251
▁käytöstä	-10.0254
ily	-10.0257
ep	-10.026
▁elää	-10.0265
oo	-10.0265
▁Fo	-10.0266
▁siviili	-10.0272
▁osoittaa	-10.0273
▁13.	-10.0277
▁2015	-10.0277
▁tiety	-10.0278
▁Vantaan	-10.0281
lje	-10.0283
aminen	-10.0287
▁syvä	-10.0287
yys	-10.0289
▁tulevaisuudessa	-10.029
▁Enti	-10.0292
▁hevos	-10.0293
▁keskustan	-10.0293
▁maanantai	-10.0295
voiton	-10.0296
▁luvassa	-10.0306
▁33	-10.031
▁taakse	-10.0313
▁lauantain	-10.0314
▁pelo	-10.0323
ivät	-10.0327
▁artisti	-10.0339
▁tytär	-10.034
▁suuria	-10.0343
▁suru	-10.0344
▁sanotaan	-10.0344
▁Hal	-10.0345
▁Ben	-10.0345
▁osto	-10.0347
valtio	-10.0352
▁siirto	-10.0353
▁Raa	-10.0356
ruoka	-10.0357
▁aiheuttama	-10.0359
▁liitto	-10.0361
vuotiasta	-10.0361
kaise	-10.0362
pen	-10.0362
▁sito	-10.0364
▁huo	-10.0365
▁kulta	-10.0365
▁tällainen	-10.0368
▁näiden	-10.0369
▁maailmanmestari	-10.0369
▁ehtinyt	-10.0373
▁Or	-10.0374
▁matkustaja	-10.0374
▁voittoa	-10.0374
▁tä	-10.0381
▁törkeäst	-10.0381
▁liittyvät	-10.0384
nnista	-10.0384
▁perään	-10.0395
▁yllättäen	-10.0399
▁piene	-10.0407
▁Riikka	-10.0407
llistä	-10.0414
▁17.	-10.0414
▁Vuo	-10.0415
▁suurta	-10.0429
▁Gi	-10.0429
ak	-10.0431
▁keskimäärin	-10.0431
▁salli	-10.0434
▁Usei	-10.0441
▁asiaan	-10.0443
▁jossain	-10.0445
▁tekemi	-10.0452
▁naiset	-10.0452
▁arki	-10.0456
▁Yhtiö	-10.0462
▁torstai	-10.0464
▁muuttunut	-10.0467
ley	-10.0467
ser	-10.047
Korea	-10.047
▁maaliin	-10.0471
▁viisu	-10.0477
▁omalla	-10.0486
▁avo	-10.0488
▁Väli	-10.0489
▁joihin	-10.049
▁keväänä	-10.0491
▁maalivahti	-10.0492
▁Ilmatieteen	-10.0494
▁urallaan	-10.0497
stettu	-10.0497
neita	-10.0506
▁lähetti	-10.0506
▁Ter	-10.0512
dia	-10.0522
▁lyö	-10.0523
▁osta	-10.0524
▁hyvinvointi	-10.0531
▁Ari	-10.0533
▁liigan	-10.0538
▁piilo	-10.0539
emmin	-10.0539
sor	-10.0544
▁Video	-10.0552
▁Am	-10.0555
▁HJK	-10.0558
▁tarkemmin	-10.0558
▁sote	-10.0558
land	-10.0559
▁esiintyi	-10.0559
är	-10.0566
▁pojan	-10.0566
▁hengen	-10.0567
▁omaan	-10.0569
lau	-10.057
▁Maan	-10.0572
▁jakoi	-10.0574
▁kaupungissa	-10.0583
▁merkit	-10.0583
▁Miksi	-10.0587
▁eurolla	-10.0588
▁Neljä	-10.059
▁Isä	-10.059
▁kan	-10.0593
▁ikinä	-10.0594
▁syksynä	-10.0595
▁huomioon	-10.0598
▁Kaa	-10.06
toimisto	-10.0602
kansa	-10.0604
▁jokainen	-10.0612
uro	-10.0616
▁Hänet	-10.0618
tonta	-10.062
▁Harkimo	-10.0622
▁lupaa	-10.0624
aine	-10.0627
▁rajoi	-10.0628
▁savu	-10.063
▁väärin	-10.0635
prosessi	-10.0639
▁laiva	-10.0642
▁haki	-10.0645
▁ohjelmassa	-10.0649
▁mun	-10.065
▁naista	-10.0653
odo	-10.0655
▁synty	-10.0655
iselle	-10.0655
▁Rantanen	-10.0665
▁valvo	-10.0665
▁peliä	-10.0665
▁alkavat	-10.0665
suunnitelma	-10.0671
▁Koulu	-10.0673
che	-10.0676
▁kaupan	-10.0679
▁bussi	-10.0682
käytö	-10.0684
ttävät	-10.0686
▁pohti	-10.0687
▁milloin	-10.0688
valiokunnan	-10.0694
hankkee	-10.0699
▁Hau	-10.0701
▁suomalaista	-10.0702
▁Hallitukse	-10.0713
▁ensimmäisellä	-10.0716
▁Nokia	-10.0721
▁välierä	-10.0722
▁epäily	-10.0731
ikan	-10.0731
▁edusta	-10.0732
▁tuu	-10.0734
▁nuoret	-10.0738
tuneet	-10.0738
▁Uuden	-10.0739
▁Haa	-10.074
▁henki	-10.0741
teihin	-10.0743
▁koho	-10.0744
▁kannatus	-10.0745
▁koulutus	-10.0748
▁ruokaa	-10.0748
▁rauhoit	-10.0751
▁ohella	-10.0751
▁Max	-10.0757
▁aiheuttanut	-10.0757
vistä	-10.0761
tuksesta	-10.0767
▁Kansa	-10.0768
▁hakea	-10.0769
▁mestaruus	-10.0774
▁Saksassa	-10.0775
▁kaiva	-10.0775
▁Kuvassa	-10.0777
▁Euro	-10.0778
▁täynnä	-10.0783
▁käsittely	-10.0784
etta	-10.0787
prosentti	-10.0788
▁pelastus	-10.0794
▁muihin	-10.0798
vaaleissa	-10.0799
oikeus	-10.0801
▁pyrkii	-10.0802
rd	-10.0805
▁tällaise	-10.0811
▁Kallio	-10.0816
illut	-10.0818
▁testi	-10.0818
vuoro	-10.0818
▁keräsi	-10.0819
▁täysi	-10.0827
isessä	-10.0827
aikaan	-10.0829
raha	-10.083
▁jatkuvasti	-10.083
▁reilu	-10.0836
▁taho	-10.0837
pel	-10.084
teltu	-10.0841
▁Päivi	-10.0841
▁edistä	-10.0843
▁Siihen	-10.0849
▁Vuosi	-10.085
ismi	-10.0854
jana	-10.0857
▁otettiin	-10.0859
▁Man	-10.0861
▁lopu	-10.0862
istään	-10.0862
▁(1	-10.0867
▁liki	-10.0878
▁henkilöauto	-10.0883
▁näistä	-10.0883
▁Juuso	-10.0885
ykset	-10.0888
▁tunnetu	-10.0894
▁tuntee	-10.0894
▁kokoonpano	-10.0895
▁ajankohta	-10.0896
▁Lin	-10.0904
ok	-10.0905
▁mahdollisi	-10.0908
neitä	-10.091
▁noudat	-10.0911
▁irti	-10.0912
läis	-10.0913
▁12.	-10.0915
tuomio	-10.0922
▁erässä	-10.0925
luokan	-10.0927
ystä	-10.0929
▁ensimmäisessä	-10.0929
▁Krista	-10.0931
▁sula	-10.0937
▁täyt	-10.0943
ikkaa	-10.0946
▁pommi	-10.0952
▁Air	-10.0958
itsi	-10.0963
▁viestin	-10.0968
▁tarpeeksi	-10.0971
▁muille	-10.0973
▁rajan	-10.0975
▁rakas	-10.0976
niemen	-10.0977
▁Loppu	-10.0981
▁paremma	-10.0982
▁vahvisti	-10.0982
▁näkyi	-10.0983
▁järjestää	-10.0983
manin	-10.0984
▁para	-10.0984
ensä	-10.0985
ähtä	-10.0987
▁hyödy	-10.0991
▁tappa	-10.0992
▁rikollis	-10.0995
uksella	-10.0995
koski	-10.0997
▁14.	-10.0999
▁heillä	-10.1002
▁Metsä	-10.1007
+1	-10.1009
kir	-10.1012
viiko	-10.1016
▁seurasi	-10.1018
▁kaatui	-10.1026
▁pelaajat	-10.1027
▁kamera	-10.1029
▁keittiö	-10.1029
▁maksamaan	-10.103
zz	-10.1032
▁TV	-10.1034
tz	-10.1036
stelu	-10.104
▁Toki	-10.1042
sää	-10.1042
nny	-10.1047
▁Myöhemmin	-10.1048
▁kommentti	-10.1048
maiden	-10.1052
Sanomille	-10.1052
▁Os	-10.1064
▁henkilön	-10.107
▁voittoon	-10.1071
▁kasvi	-10.1074
▁Muun	-10.1077
▁leikkaus	-10.1077
▁rai	-10.1081
▁Michael	-10.1081
▁varrella	-10.1082
▁kaipaa	-10.1082
▁koh	-10.1083
▁eteni	-10.1085
ksia	-10.1085
▁ai	-10.1086
loi	-10.1099
▁kysy	-10.1104
▁muisti	-10.1105
▁varsinaise	-10.1105
▁suostu	-10.1108
▁käyttäjä	-10.1109
▁kerrottu	-10.111
▁selittää	-10.1116
▁kolmannen	-10.1117
hke	-10.1123
holm	-10.1126
▁myrsky	-10.1131
tteri	-10.1132
▁Lau	-10.1132
▁jatkuva	-10.1133
kää	-10.1137
▁Sarja	-10.1142
shi	-10.1148
▁tapasi	-10.115
mö	-10.1152
▁Syyttäjä	-10.1158
yksiä	-10.1159
aikaa	-10.1159
▁osavaltio	-10.1166
kov	-10.1174
▁haave	-10.1175
ite	-10.1176
▁onnettomuus	-10.1176
era	-10.1182
▁kuo	-10.1183
▁uudet	-10.1184
▁kysely	-10.1187
▁lukema	-10.119
▁niissä	-10.1191
▁katsoja	-10.1194
hun	-10.1194
llisuus	-10.12
▁sarjassa	-10.1202
▁William	-10.1203
▁Perjantain	-10.1204
▁etene	-10.1204
▁puolisonsa	-10.1207
▁luonno	-10.1208
▁37	-10.1208
▁tapahtuneesta	-10.1211
2-	-10.1213
▁näkökulmasta	-10.1217
▁tehneet	-10.1217
▁työmarkkina	-10.1219
aatti	-10.1219
▁huolto	-10.1221
▁Lä	-10.1224
▁täyttä	-10.1226
▁ope	-10.1226
▁erilaisi	-10.1229
▁800	-10.1229
▁paikkaa	-10.1232
▁Je	-10.1233
24	-10.1234
▁alkoivat	-10.1235
▁synny	-10.1238
▁yhdysvaltalais	-10.124
▁puolustaja	-10.1241
▁tunti	-10.1243
ttaisiin	-10.1249
▁enempää	-10.1253
liikenne	-10.1254
uteen	-10.1258
ksessä	-10.1258
▁aine	-10.126
▁rata	-10.1262
lund	-10.1263
▁kokemus	-10.1263
▁Lehti	-10.1264
villa	-10.1264
laki	-10.1266
▁lehdistö	-10.1267
▁merkitystä	-10.1268
koja	-10.1269
jö	-10.1272
od	-10.1275
▁mi	-10.128
▁Kanerva	-10.1285
▁lyhye	-10.1285
▁voitaisiin	-10.1286
▁18-	-10.129
▁Maailman	-10.129
▁valmiiksi	-10.1291
lm	-10.1292
▁hoitaa	-10.1292
kien	-10.1294
keli	-10.1295
10	-10.1296
▁Haapa	-10.1298
▁21.	-10.1299
▁Minä	-10.1303
▁kahta	-10.1304
Ka	-10.1305
linna	-10.131
▁yhteistyötä	-10.1313
▁lopettaa	-10.1316
▁radio	-10.1317
▁r	-10.1318
▁Asiantuntija	-10.132
▁osuma	-10.132
▁kunnan	-10.1324
▁pahe	-10.133
▁kiloa	-10.1331
sopimus	-10.1335
liigan	-10.1335
▁tällaista	-10.1336
tekijä	-10.1344
ard	-10.1346
rs	-10.1348
imen	-10.135
▁taju	-10.1351
▁kesäkuuta	-10.1354
▁siirtyy	-10.1355
▁avasi	-10.1357
we	-10.136
▁16.	-10.1371
▁Suurin	-10.1377
▁varaa	-10.1377
▁levi	-10.1378
▁ottamaan	-10.1378
hon	-10.1379
▁edustava	-10.1379
▁vastustaja	-10.1381
▁olevat	-10.1387
▁Valtteri	-10.139
▁menesty	-10.1391
ula	-10.1394
suhte	-10.1395
▁leiri	-10.1395
▁yleisurheilu	-10.1395
▁esillä	-10.1399
ci	-10.14
▁tutkinta	-10.1402
ttäjä	-10.1404
▁pysyy	-10.1406
tis	-10.1406
palo	-10.1409
kerta	-10.1411
▁kipu	-10.1412
▁vetä	-10.1412
▁kuuma	-10.1416
▁nolla	-10.1417
▁vaihe	-10.1419
▁Italian	-10.142
▁Valtonen	-10.1423
▁kunnolla	-10.1425
▁jäivät	-10.1428
▁Espanja	-10.1431
tilanteessa	-10.1433
▁monia	-10.1439
▁km	-10.1441
▁lukija	-10.1446
vamma	-10.1449
▁surma	-10.1451
▁ranta	-10.1452
▁väh	-10.1452
▁paljastui	-10.1459
ppo	-10.1461
▁isoja	-10.1462
▁ilmoittanut	-10.1463
▁Media	-10.1463
▁ele	-10.1467
▁sunnuntain	-10.1468
▁Peli	-10.1469
▁pelataan	-10.1476
▁täyden	-10.1477
▁38	-10.1483
▁John	-10.1485
▁itä	-10.1487
▁pidetty	-10.1493
▁mainos	-10.1496
▁tänne	-10.1496
▁kohta	-10.1497
▁hai	-10.15
▁tot	-10.1501
▁suoritus	-10.1501
▁pisteen	-10.1502
▁vaikkapa	-10.1506
▁väki	-10.1507
▁pö	-10.1511
▁Elina	-10.1512
▁vaikuttavat	-10.1514
tettua	-10.1515
▁pelaamaan	-10.1516
▁kär	-10.1517
▁kaasu	-10.1518
▁itsestään	-10.1521
▁äidin	-10.1528
▁Pariisissa	-10.1529
▁nousta	-10.1533
yhdistyksen	-10.1534
poika	-10.1534
▁kons	-10.154
▁kirjoit	-10.1542
kisat	-10.1544
etti	-10.1548
uransa	-10.1549
▁fani	-10.1555
▁Il	-10.1557
▁olympialaisissa	-10.1564
▁rakentaa	-10.1564
▁haastava	-10.1565
▁omi	-10.1566
▁uuteen	-10.1566
▁Sy	-10.157
▁Tänään	-10.1574
▁Harri	-10.1574
▁versio	-10.1575
län	-10.1576
▁apu	-10.1579
▁Ham	-10.158
▁viranomaisten	-10.1581
▁hyökkäyksen	-10.1582
▁Mil	-10.1582
▁Iran	-10.1583
kulu	-10.1585
▁West	-10.1586
▁tutkii	-10.1596
kulma	-10.1596
▁liittyi	-10.1599
▁sosiaalisen	-10.16
▁lähet	-10.1602
▁toiselle	-10.1602
▁Katri	-10.1604
▁Johanna	-10.1608
▁hake	-10.1608
▁autoa	-10.1616
ttäneet	-10.1618
joille	-10.162
ppe	-10.1621
riko	-10.1622
säännö	-10.1622
ykseen	-10.1624
X	-10.163
maat	-10.1632
▁putosi	-10.1635
▁vuosittain	-10.1635
▁Daily	-10.1635
▁Kela	-10.1637
▁kallii	-10.1638
▁keskustassa	-10.1643
▁lapsille	-10.1643
▁tavoit	-10.1644
▁viimeksi	-10.165
▁toiminnan	-10.1651
▁hybridi	-10.1657
▁osan	-10.1657
▁Er	-10.1661
▁Ranta	-10.1665
▁Näyttelijä	-10.167
▁päätteeksi	-10.167
▁annettu	-10.167
▁miljardia	-10.167
▁korjaus	-10.167
▁Ilves	-10.1671
▁päätöstä	-10.1672
▁löi	-10.1673
▁pääsy	-10.1678
▁omassa	-10.1679
ei	-10.1681
▁etä	-10.1682
▁tuolla	-10.1689
▁39	-10.169
luu	-10.1693
▁toipu	-10.1698
▁kaatu	-10.17
▁pelastuslaitoks	-10.1701
▁armeija	-10.1701
▁teatteri	-10.1703
▁liittyviä	-10.1703
▁päättyy	-10.1706
▁tiedottaja	-10.1706
▁2021.	-10.1709
▁järjestelmä	-10.171
▁estää	-10.1711
▁kolmanneksi	-10.1713
▁väkivalta	-10.1714
ottelun	-10.1716
tuki	-10.1717
▁Times	-10.1722
▁hyväksi	-10.1722
▁omien	-10.1723
keskustelu	-10.1731
▁Virta	-10.1733
utua	-10.1735
yydestä	-10.1737
muoto	-10.174
3.	-10.1741
▁Heidän	-10.1744
▁22.	-10.1744
▁Eri	-10.175
▁erän	-10.1751
▁Vanha	-10.1757
▁Vir	-10.1758
▁Sveitsi	-10.1758
gg	-10.1764
▁Ran	-10.177
sissa	-10.1774
ntaa	-10.1776
▁kahdesti	-10.1777
▁tekoäly	-10.1777
▁toukokuuta	-10.1777
▁kahdesta	-10.1778
▁Helena	-10.1778
olla	-10.1778
▁Matka	-10.178
▁toisi	-10.1782
▁elokuuta	-10.1784
▁jatkui	-10.1785
▁Jää	-10.1785
kymmentä	-10.1787
▁kappaletta	-10.1789
▁Paimion	-10.1793
▁tapahtumia	-10.1793
▁nykyinen	-10.1794
▁Puu	-10.1799
▁oire	-10.1801
▁Noin	-10.1803
▁itsekin	-10.1809
kuljettaja	-10.1809
▁sijoitus	-10.1809
numero	-10.1811
▁mahdollinen	-10.1814
▁paikoin	-10.1814
▁viikossa	-10.1814
empaa	-10.1816
▁kel	-10.1818
▁tuhansia	-10.1831
▁seinä	-10.1832
▁miettiä	-10.1838
paikalla	-10.1842
▁kuvassa	-10.1845
å	-10.185
▁presidentiksi	-10.185
▁kivi	-10.1851
tellyt	-10.1851
▁kymmeniä	-10.1852
▁muualla	-10.1852
▁useampi	-10.1854
kautta	-10.1856
▁harmi	-10.186
▁puna	-10.1863
▁yl	-10.1868
▁normaalisti	-10.1874
▁Facebook	-10.1876
▁herä	-10.1877
▁mukanaan	-10.1878
▁polttoaine	-10.1878
▁katto	-10.1879
▁heinäkuuta	-10.188
▁laati	-10.188
▁suositu	-10.1884
▁eduskunnassa	-10.1886
▁parempaa	-10.1887
▁matala	-10.1889
▁vetää	-10.1893
▁Toivo	-10.1896
▁vajaa	-10.1897
pö	-10.1898
tion	-10.1898
silla	-10.19
ajat	-10.1902
kia	-10.1908
▁tapausta	-10.191
▁maailmancupin	-10.1914
▁estä	-10.1915
yy	-10.1917
teille	-10.1921
▁tiedotteessaan	-10.1922
▁melkein	-10.1923
▁Kataja	-10.1924
isissa	-10.1926
▁vatsa	-10.193
▁peri	-10.1932
▁kuningatar	-10.1937
▁koke	-10.1937
▁elämään	-10.1938
elokuva	-10.1949
▁reaktio	-10.1951
saari	-10.1952
▁lisäsi	-10.1954
▁ydinase	-10.1955
▁nimeä	-10.1956
▁Marinin	-10.1957
▁Turussa	-10.1959
neeseen	-10.196
▁ulkomaalais	-10.196
neista	-10.1961
▁kuvat	-10.1975
teja	-10.1978
▁Ä	-10.198
▁Aalto	-10.1983
toa	-10.1984
▁kestä	-10.1985
▁juoma	-10.1989
▁Kuu	-10.1993
▁määrän	-10.1994
▁Verstappen	-10.1996
▁julkaissut	-10.1996
▁kulkee	-10.1996
▁15.	-10.1997
▁the	-10.1997
▁esiintyy	-10.1999
tason	-10.2001
▁vallan	-10.2004
▁Markku	-10.2006
▁muistutti	-10.2008
▁väittää	-10.201
▁Tour	-10.201
▁lasi	-10.2015
oksen	-10.2015
▁Laura	-10.2017
pyy	-10.2018
▁käyttöä	-10.2025
yli	-10.2029
▁alueilla	-10.2031
▁pil	-10.2031
▁mielestään	-10.2034
▁osu	-10.2036
▁käytti	-10.2039
oppi	-10.2041
▁Suur	-10.2041
▁perässä	-10.2043
▁äitinsä	-10.2044
▁kodin	-10.2044
▁Salminen	-10.2048
vio	-10.2054
▁kahdeksa	-10.2054
tos	-10.2055
▁Sini	-10.2057
eista	-10.2066
7.	-10.2066
lti	-10.2068
▁tiedotteen	-10.2075
▁levittä	-10.2075
▁muuttuu	-10.2077
meno	-10.2077
ohja	-10.2082
vuo	-10.2085
▁marraskuu	-10.2086
▁siir	-10.2089
▁tal	-10.2095
▁herätti	-10.2096
+	-10.2102
▁seuraavan	-10.2103
▁työskennellyt	-10.2107
▁tasavallan	-10.2108
▁2026	-10.2109
sivät	-10.211
▁sairas	-10.2112
▁omista	-10.2112
ler	-10.2113
hko	-10.2116
4.	-10.2117
oit	-10.212
▁lentokone	-10.2121
ie	-10.2131
▁vali	-10.2131
pula	-10.2132
▁sade	-10.2134
▁Ed	-10.2136
käräjäoikeudessa	-10.2141
▁vastusta	-10.2141
kli	-10.2143
▁vastaukse	-10.2144
▁6-	-10.2144
▁Tesla	-10.2145
ima	-10.2146
▁Kilpailu	-10.2147
▁poistu	-10.2155
▁kesti	-10.216
▁häiriö	-10.2161
▁valittu	-10.2163
▁yleise	-10.2168
htaa	-10.2168
▁kol	-10.2172
isivat	-10.2172
ittain	-10.2173
▁kymmen	-10.218
▁poikansa	-10.2181
▁sähkön	-10.2181
▁keskuudessa	-10.2182
▁kerrostalo	-10.2182
▁voida	-10.2182
▁entisestään	-10.2183
▁lattia	-10.2187
▁erä	-10.2189
▁halutaan	-10.2191
suhde	-10.2191
▁vaa	-10.2192
▁taa	-10.2193
yksestä	-10.2195
miä	-10.2201
vuotis	-10.2208
toon	-10.2211
utuva	-10.2212
▁suomalaisia	-10.2214
virta	-10.2214
▁markkina	-10.2214
▁sattui	-10.222
▁johtama	-10.222
▁ehdokas	-10.2221
▁voimassa	-10.2222
▁2012	-10.2223
kieli	-10.2223
▁lukuisia	-10.2225
▁äärimmäise	-10.223
▁Por	-10.2239
▁tuoma	-10.2242
▁vika	-10.2245
▁ajanut	-10.2246
▁eduskuntaryhmän	-10.2252
▁2013	-10.2259
▁kiri	-10.2262
▁ajatukse	-10.2266
stettiin	-10.2268
kielto	-10.2272
▁Kim	-10.2277
▁tah	-10.2283
otte	-10.2286
▁kerää	-10.229
▁Mikkola	-10.229
▁kohden	-10.2291
vaihe	-10.2293
▁lokakuuta	-10.2293
▁muutenkin	-10.2294
▁SAK	-10.2295
▁laula	-10.2296
▁herättänyt	-10.2296
▁välise	-10.2296
miehi	-10.2297
Sanomien	-10.2298
ze	-10.2301
isuutta	-10.2301
▁kaunii	-10.2301
▁vamma	-10.2301
▁syyskuuta	-10.2303
▁Marja	-10.2305
▁perjantain	-10.2305
▁Naisten	-10.2308
käs	-10.231
▁maailma	-10.2316
45	-10.2316
oni	-10.2317
▁toimivat	-10.2318
▁Ly	-10.2319
ikäinen	-10.232
laatu	-10.2324
▁kokouksessa	-10.2325
▁uudestaan	-10.2328
▁riittävä	-10.2329
▁anteeksi	-10.2333
▁unelma	-10.2333
▁Tapio	-10.2333
▁Bottas	-10.2335
▁600	-10.235
▁pitävät	-10.2352
▁opi	-10.2355
▁Ol	-10.2357
▁d	-10.2357
▁150	-10.2365
▁maine	-10.2366
▁Aina	-10.2366
▁maksoi	-10.2371
▁44	-10.2376
▁Kova	-10.2382
▁todetaan	-10.2384
▁sairaala	-10.2384
▁naisia	-10.2393
uhka	-10.2393
▁huume	-10.2398
▁puhunut	-10.2399
▁Washington	-10.24
ido	-10.24
▁News	-10.2401
▁pelaajia	-10.2402
▁osallistua	-10.2405
▁poikkeus	-10.2409
▁vieressä	-10.241
kulttuuri	-10.2414
▁puhelin	-10.2416
vastuu	-10.2417
▁koskee	-10.2418
▁kuluttaja	-10.2418
▁tiimi	-10.2419
▁rakasta	-10.242
cu	-10.2421
▁Pir	-10.2421
liikkeen	-10.2424
▁perä	-10.2425
▁hoita	-10.2426
tasolla	-10.2432
merkin	-10.2432
▁kuiva	-10.2434
▁tarkasti	-10.2439
mpe	-10.2439
▁somessa	-10.2443
kkia	-10.2446
▁Tuomas	-10.2449
▁lähettää	-10.2449
▁syytetään	-10.2452
▁edu	-10.2457
▁vaihto	-10.246
▁Muut	-10.2464
verkko	-10.2465
▁sairaalassa	-10.2466
▁tuomittu	-10.2466
▁huoli	-10.2469
▁ennakoi	-10.248
▁sijaitsevan	-10.2493
timme	-10.2494
▁ostaa	-10.2497
▁minut	-10.2498
politiikkaa	-10.2501
▁julkisesti	-10.2501
▁laulu	-10.2501
▁elämänsä	-10.2502
▁Sta	-10.2503
vaan	-10.2507
▁kritiikkiä	-10.2508
▁raskaa	-10.2509
▁19.	-10.2511
sso	-10.2511
laan	-10.2512
▁arvioidaan	-10.2521
▁9.	-10.2522
teri	-10.2524
▁vapaaehtois	-10.2525
▁selkä	-10.2525
▁Miesten	-10.2526
▁marraskuuta	-10.2528
rvi	-10.2528
testi	-10.2528
▁Ny	-10.2538
▁kuski	-10.254
tilan	-10.2541
▁välinen	-10.2543
▁kuuli	-10.2544
▁mukava	-10.2547
▁laaj	-10.2547
▁iske	-10.255
▁ba	-10.2552
▁vasemmistoliito	-10.2552
▁Ab	-10.2553
▁tulokset	-10.2554
aattori	-10.2554
teisiin	-10.2555
▁piir	-10.2556
▁tulivat	-10.256
▁kuntoon	-10.2563
▁Ohjelma	-10.2564
▁pääosin	-10.2565
▁tapauksesta	-10.2566
kkeen	-10.2566
alalla	-10.2573
siko	-10.2573
▁mar	-10.2577
▁juoksi	-10.2578
▁Tapahtuma	-10.258
nimi	-10.2581
▁tekemistä	-10.2582
▁kutsui	-10.2582
▁tutustu	-10.2585
▁paikalta	-10.2587
▁pela	-10.2588
lähtö	-10.2599
▁valko	-10.2603
▁nappasi	-10.2603
▁suhteessa	-10.2604
▁huolehti	-10.2605
▁kisassa	-10.2605
▁valmistelu	-10.2607
▁viimeistä	-10.2608
työt	-10.2609
▁ennakko	-10.2614
▁Ry	-10.2615
▁tapauksen	-10.2616
▁osallistuu	-10.2616
▁20.	-10.2618
▁tarkoituksena	-10.2619
1:	-10.2621
▁lailla	-10.2623
tehtävä	-10.2627
essään	-10.2628
▁Hil	-10.263
vah	-10.2633
mari	-10.2637
▁viedä	-10.2637
▁toimintaan	-10.2637
▁tutu	-10.2638
tyksessä	-10.2639
▁sisältä	-10.264
▁Sport	-10.2641
yhtiön	-10.2642
▁Foreca	-10.2643
▁äänestää	-10.2646
▁5-	-10.2646
seksi	-10.2646
yksikkö	-10.2649
änsä	-10.2649
▁syksyn	-10.2651
▁reilut	-10.2651
▁Perus	-10.2652
neesta	-10.2654
35	-10.2655
▁Lehto	-10.2657
mas	-10.266
ttinen	-10.266
Pohjanmaan	-10.266
suoja	-10.266
▁meitä	-10.2662
▁Che	-10.2664
▁parlamentti	-10.2666
steli	-10.2666
▁suhde	-10.2667
rata	-10.2678
oikeuden	-10.2678
▁vankeuteen	-10.2682
▁todettiin	-10.2682
▁pitkälle	-10.2683
▁vasemmisto	-10.2685
▁oikeudessa	-10.2686
kiin	-10.2689
▁Silti	-10.2689
▁nuoriso	-10.2694
▁Sähkö	-10.2696
▁käydään	-10.2697
▁julki	-10.2697
sestä	-10.27
▁2.	-10.2704
▁Kär	-10.271
▁Mas	-10.2712
▁pure	-10.2712
iivi	-10.2715
▁tukemi	-10.2724
▁vakuu	-10.2725
▁sopii	-10.2725
▁haittaa	-10.2726
toihin	-10.2729
▁painottaa	-10.2731
miselle	-10.2731
▁tukee	-10.2735
▁organisaatio	-10.2736
▁hovi	-10.2737
▁merkki	-10.274
▁Joki	-10.2745
▁Kisa	-10.2747
▁tiesi	-10.2747
▁ohjelman	-10.2748
teistä	-10.2749
tyksestä	-10.275
liito	-10.2752
18	-10.2752
kseni	-10.2759
▁Gar	-10.276
ilun	-10.2761
▁Ensimmäinen	-10.2761
▁meteorologi	-10.2761
▁Latvala	-10.2761
▁Uhri	-10.2761
▁jonkun	-10.2763
▁Kiekko	-10.2763
▁tunnusta	-10.2767
ive	-10.2767
▁lisätä	-10.2769
▁huomaa	-10.2769
▁idea	-10.277
▁uni	-10.2772
▁ansiosta	-10.2772
▁2010	-10.2773
▁Miss	-10.2774
▁kilpailija	-10.2776
▁hyvät	-10.2777
oh	-10.2785
mpiin	-10.2787
telee	-10.2788
ttomasti	-10.2791
▁koulutukse	-10.2797
tettävä	-10.2799
▁järjestettiin	-10.2801
▁nuoria	-10.2805
▁Sauli	-10.2808
▁ääne	-10.2809
taistelu	-10.2812
▁Ex	-10.2812
▁uskon	-10.2813
▁jakaa	-10.2813
▁edusti	-10.2816
▁tarjoaa	-10.2816
▁laitoksen	-10.2819
lohko	-10.2822
▁17-	-10.2823
▁lehti	-10.2832
▁euroon	-10.2832
▁Kanadan	-10.2833
▁teini	-10.2835
udesta	-10.2836
▁kansainvälisen	-10.2837
▁päivässä	-10.284
▁Ero	-10.2841
▁valtiovarain	-10.2841
▁heidät	-10.2841
▁varapresidentti	-10.2842
urheilija	-10.2845
lupa	-10.2845
▁naura	-10.2845
▁oikeastaan	-10.2848
hallitus	-10.2851
kumppani	-10.2851
idi	-10.2852
▁tuomion	-10.2854
90	-10.2861
▁Uutis	-10.2861
▁politiikan	-10.2863
koira	-10.2864
huone	-10.2866
▁näky	-10.2868
▁Saari	-10.2868
▁vahv	-10.2869
▁Kaarina	-10.2873
▁joutunee	-10.2875
▁jäljellä	-10.2881
▁palestiinalais	-10.2881
▁TPS	-10.2882
▁sotaa	-10.2883
▁lohko	-10.2884
yd	-10.2885
▁Hannu	-10.2891
kyvy	-10.2892
meri	-10.2896
gh	-10.2896
▁vastaisena	-10.2897
▁mielestäni	-10.2898
▁varjo	-10.2899
▁2024.	-10.29
uku	-10.29
▁mestaruuden	-10.2901
ttuja	-10.291
▁yhteiskunta	-10.2911
▁Lei	-10.2915
turva	-10.2927
▁palata	-10.2928
tumaan	-10.293
▁pienempi	-10.293
materiaali	-10.2932
▁jäte	-10.2932
▁Henri	-10.2932
osto	-10.2935
ulo	-10.2936
tamaan	-10.2936
14	-10.294
▁Tanskan	-10.294
▁As	-10.294
kassa	-10.2945
zin	-10.2947
ejä	-10.295
▁arvion	-10.295
metri	-10.2952
▁pelkää	-10.2953
▁taksi	-10.2953
▁työnantaja	-10.2955
▁suunnittelu	-10.2956
▁hopea	-10.2961
kala	-10.2961
▁Ferrari	-10.2962
▁KalPa	-10.2963
puolella	-10.2965
▁hyvältä	-10.2967
teksti	-10.2969
▁pieniä	-10.297
▁töihin	-10.2979
▁ilmoittaa	-10.2985
▁yllättävän	-10.2987
kalla	-10.2988
▁selkeästi	-10.2988
▁riitä	-10.2992
▁41	-10.2995
▁kevät	-10.2997
▁kohteeksi	-10.3003
▁18.	-10.3003
käynti	-10.3004
▁Toyota	-10.3005
▁rahoitus	-10.3006
▁murhasta	-10.3006
▁hakeutu	-10.3007
▁kuulla	-10.301
95	-10.3011
suu	-10.3011
isille	-10.3012
▁tekivät	-10.3013
moottori	-10.3014
hoitaja	-10.3014
▁sisko	-10.3017
▁paperi	-10.3018
▁Gazassa	-10.3018
▁kuulunut	-10.302
▁dollarin	-10.3021
▁julkaisema	-10.3024
▁Sä	-10.3029
▁mökki	-10.3032
ruo	-10.3033
kadulla	-10.3033
▁esiintymis	-10.3043
▁Suomelle	-10.3044
▁ollen	-10.3046
▁parkki	-10.3052
▁Vil	-10.3052
immista	-10.3054
▁millä	-10.3056
▁riittävän	-10.3061
▁varasto	-10.3061
syy	-10.3064
kilpailun	-10.3065
▁hirveä	-10.3066
▁istui	-10.3067
▁Ainakin	-10.3068
▁karsi	-10.3074
▁lyhyt	-10.3077
▁harjoit	-10.3077
▁kuri	-10.3077
mpana	-10.3078
▁menetti	-10.3079
cia	-10.3079
teillä	-10.3082
uran	-10.3082
▁Ukrainaa	-10.3084
sivusto	-10.3084
▁vaikut	-10.3084
ova	-10.3084
kuvia	-10.3085
▁Sveitsin	-10.3087
▁Chi	-10.309
▁suunniteltu	-10.3091
▁huhtikuuta	-10.3092
▁lääke	-10.3092
én	-10.3093
▁Super	-10.3095
ig	-10.3097
▁pitämään	-10.3098
kirjo	-10.31
▁pronssi	-10.3101
▁jokaisen	-10.3101
▁48	-10.3102
▁järjestö	-10.3109
▁kato	-10.3109
oiden	-10.3109
▁Nor	-10.311
▁syytetty	-10.3111
▁Uskon	-10.3113
▁Ad	-10.3113
▁läheise	-10.3117
▁Sillä	-10.3117
stelee	-10.3122
ttaessa	-10.3123
päin	-10.3125
=	-10.3126
▁yrityksestä	-10.3126
▁Valioliiga	-10.3126
▁nykyise	-10.3126
▁henkilökohtaise	-10.3126
▁pyritään	-10.3127
▁Sekä	-10.3128
▁lunta	-10.313
▁ensimmäise	-10.3132
▁sil	-10.3136
▁Hai	-10.3137
▁yön	-10.3138
▁valmista	-10.3139
telleet	-10.3141
iltaan	-10.3144
▁Sari	-10.3144
▁hel	-10.3147
sopimuksen	-10.3147
▁ker	-10.3149
ellu	-10.315
▁toisensa	-10.315
kiä	-10.3155
yyde	-10.3157
▁menivät	-10.3158
▁välit	-10.3161
▁Aamu	-10.3165
▁kulku	-10.3166
▁Viro	-10.3166
▁kirjan	-10.3167
▁ymmärrä	-10.3167
▁syöpä	-10.3167
▁varhain	-10.3167
▁Täällä	-10.3167
▁puolivälierä	-10.3168
▁äly	-10.3169
▁ilmoituksen	-10.3169
▁Kimmo	-10.3174
▁yleisön	-10.3178
milla	-10.3178
kisoihin	-10.318
▁FC	-10.318
▁Virtanen	-10.3181
daan	-10.3182
▁Toi	-10.3182
▁Espoon	-10.3182
▁arvosta	-10.3183
toiminnan	-10.3183
▁prosessi	-10.3186
▁Pol	-10.3192
uutensa	-10.3193
▁hau	-10.3195
▁tavallise	-10.3195
▁entise	-10.3196
▁tyttäre	-10.3197
▁Totta	-10.3197
▁bändi	-10.3197
yksi	-10.3199
▁muissa	-10.3202
▁Musta	-10.3202
5.	-10.3203
-19	-10.3204
ttuaan	-10.3207
▁huumausaine	-10.3208
▁Vornanen	-10.3208
▁Pajari	-10.3209
▁Miehen	-10.3209
miehet	-10.321
▁edellisen	-10.3211
▁Los	-10.3211
▁kiisti	-10.3212
tauti	-10.3213
▁Sisä	-10.3213
▁Italia	-10.3215
▁Ensimmäise	-10.3217
mur	-10.322
▁väkivaltaa	-10.3221
lahti	-10.3221
▁luotto	-10.3222
häiriö	-10.3222
▁odotta	-10.3222
▁valmennus	-10.3222
▁eilen	-10.3227
▁lopetta	-10.323
rake	-10.323
reissu	-10.3231
korkeakoulu	-10.3236
▁projekti	-10.3238
▁varoit	-10.3239
bb	-10.3239
kola	-10.3247
▁Sanomien	-10.3248
▁Joulu	-10.3249
Stubb	-10.3249
▁kesäkuun	-10.325
▁ulkopuolelle	-10.3251
kilpailussa	-10.3252
▁demokraattien	-10.3252
▁ilmeisesti	-10.3253
▁liittyvi	-10.3253
ttavia	-10.3254
▁65	-10.3257
▁es	-10.3261
▁pankki	-10.3272
▁pariskunta	-10.3273
lee	-10.3275
▁lokakuu	-10.3281
väri	-10.3287
▁treeni	-10.3288
pelin	-10.3292
qvist	-10.3292
▁herättää	-10.3294
saaren	-10.3295
▁antama	-10.3296
▁suljettu	-10.3302
▁poissa	-10.3306
▁maalei	-10.3307
▁välissä	-10.331
▁Sää	-10.3314
▁pahasti	-10.3314
sk	-10.332
▁Tapparan	-10.3322
ü	-10.3323
▁keskustella	-10.3323
kunnassa	-10.3323
▁jokin	-10.3324
vii	-10.3326
▁naimisiin	-10.3334
▁osittain	-10.3334
▁ampui	-10.3334
kut	-10.3334
▁suomen	-10.3338
▁Erityisesti	-10.334
ttamista	-10.3346
ttivat	-10.3348
▁joukkuetta	-10.3353
▁vit	-10.3357
toimintaa	-10.3358
▁pallon	-10.336
▁tälle	-10.336
▁Paul	-10.336
6.	-10.3363
▁jy	-10.3363
▁Emil	-10.3365
llisiä	-10.3369
▁Ihmis	-10.3369
immat	-10.3372
▁ylös	-10.3376
▁Olympia	-10.3376
▁puolivälissä	-10.3376
▁Aaltola	-10.3377
▁75	-10.338
areena	-10.3383
▁muitakin	-10.3384
▁Onne	-10.3384
▁vanhemmat	-10.3384
▁tavara	-10.3385
▁julkise	-10.3391
▁Perhe	-10.3391
▁samana	-10.3392
tiedot	-10.3395
▁47	-10.3396
tyksiä	-10.3399
▁katsomaan	-10.34
▁asunnon	-10.34
▁mennään	-10.3401
▁matkaa	-10.3402
▁12-	-10.3405
▁Meghan	-10.3419
▁Äiti	-10.3419
ttivät	-10.3419
▁pitkälti	-10.342
▁teknologia	-10.3422
▁hymy	-10.3423
2.	-10.3426
▁pysähty	-10.3426
kaveri	-10.3432
määri	-10.3437
▁neljäs	-10.3438
▁valita	-10.3441
pakka	-10.3447
▁Viesti	-10.3449
vir	-10.3449
alus	-10.345
kk	-10.3451
▁pinta	-10.3453
▁1,5	-10.3456
▁hoitoon	-10.346
kkaus	-10.346
veto	-10.346
▁aikanaan	-10.3461
▁kiito	-10.3461
▁kuukaudessa	-10.3461
▁tapahtumista	-10.3461
▁solmi	-10.3461
▁David	-10.3461
osaa	-10.3464
ettava	-10.3465
▁kysyttiin	-10.3466
▁osti	-10.3466
eilla	-10.3469
mmista	-10.3471
▁nuo	-10.3473
▁Puola	-10.3475
▁elämässä	-10.348
▁55	-10.348
▁komentaja	-10.3482
▁löyty	-10.3483
8.	-10.3484
pur	-10.3485
musta	-10.3488
virasto	-10.3488
▁Englannin	-10.3488
▁perusta	-10.3489
▁pesu	-10.3494
▁britti	-10.3495
▁kertoma	-10.3498
▁Jesse	-10.3504
▁molempi	-10.3504
que	-10.3504
▁vaihtaa	-10.3506
▁olympialaisten	-10.3508
▁Luu	-10.3509
lasi	-10.3515
▁Haluan	-10.3519
▁pelaajan	-10.352
juhla	-10.3521
▁Puolan	-10.3522
▁hallinnon	-10.3524
järjestelmän	-10.3526
saira	-10.3527
sana	-10.3527
▁kilpailussa	-10.3527
▁maailmassa	-10.3528
▁kisojen	-10.353
ippu	-10.353
▁rauha	-10.3531
▁eläke	-10.3532
▁tarjota	-10.3533
tuista	-10.354
ahtaa	-10.3545
▁kansainvälisi	-10.3547
▁2-0	-10.3547
▁Usea	-10.3548
▁aloittanut	-10.3549
▁republikaanien	-10.3549
▁7.	-10.355
▁Vaali	-10.3552
▁tap	-10.3554
▁valvonta	-10.3554
▁lait	-10.3554
▁esitykse	-10.3554
▁hö	-10.3555
▁syksy	-10.3555
▁voimakkaasti	-10.3559
▁46	-10.3562
▁Tieto	-10.3566
▁havaittu	-10.3567
▁tilalle	-10.3567
▁inno	-10.3568
▁aiheutta	-10.3572
▁samoin	-10.3575
▁olevaa	-10.3575
▁Mor	-10.3575
▁Kemi	-10.3579
▁matkailu	-10.3583
▁nimen	-10.3589
▁suosittu	-10.359
▁demokratia	-10.359
▁Suomalainen	-10.359
▁saapunut	-10.359
▁työntekijöiden	-10.359
▁enemmistö	-10.3591
▁viikonlopun	-10.3592
▁tarvetta	-10.3597
tuksiin	-10.36
▁Musk	-10.36
yhdistys	-10.3602
▁kysyy	-10.3605
▁menossa	-10.3608
▁jul	-10.361
kkala	-10.361
Pa	-10.3613
otti	-10.3614
utuminen	-10.3616
▁parhaa	-10.3618
▁esityksen	-10.3618
vuoden	-10.3624
▁ennätykse	-10.3629
▁helmikuuta	-10.3633
▁raaka	-10.3633
▁Tornio	-10.3634
kalle	-10.3637
▁rinta	-10.3637
▁esimerkki	-10.3638
▁Talo	-10.3641
▁sie	-10.3641
▁alkoholin	-10.3644
if	-10.3644
▁vih	-10.3647
▁Murto	-10.3647
▁10.	-10.3648
▁valtaa	-10.3649
▁seuraavaksi	-10.3651
▁taide	-10.3654
tola	-10.3655
▁Berg	-10.3656
▁ylläpitä	-10.3657
▁Leijonat	-10.3658
▁hankala	-10.3658
▁tasapaino	-10.3661
ravintola	-10.3662
▁Lö	-10.3662
lie	-10.3666
▁avoime	-10.3668
▁Ulko	-10.367
▁käyttämä	-10.3671
▁rasva	-10.3672
▁42	-10.3673
▁pin	-10.3676
▁Käräjäoikeus	-10.3677
▁veri	-10.3679
▁sijalla	-10.3682
▁työelämä	-10.3682
▁yhteise	-10.3683
▁viettää	-10.3685
▁huhu	-10.3688
▁huomioi	-10.3689
▁eläin	-10.369
▁miljardin	-10.3695
ongelma	-10.3696
▁sanotu	-10.3697
▁syyttäjä	-10.3705
▁Niiden	-10.3705
▁Markkanen	-10.372
▁johtuu	-10.372
▁Patrik	-10.372
kkeja	-10.3722
▁joulun	-10.3722
▁Muu	-10.3724
▁Pitää	-10.3727
▁kieli	-10.373
▁Tra	-10.3731
tuminen	-10.3732
▁otetaan	-10.3733
▁tutkimuksen	-10.3734
▁positiivise	-10.3738
rauha	-10.3746
laus	-10.3746
mppu	-10.3746
vaunu	-10.3748
▁laita	-10.3749
▁suomalaisista	-10.3753
▁kisaa	-10.3754
politiikan	-10.3756
▁maaliskuuta	-10.3756
▁historia	-10.3758
▁selit	-10.3761
▁tietty	-10.3761
▁tahto	-10.3761
▁Kul	-10.3763
tyyppi	-10.3764
▁United	-10.3764
▁Joskus	-10.3764
▁parantaa	-10.3765
▁yllättävä	-10.3765
▁kisoissa	-10.3767
▁tuloksen	-10.3769
▁lämpimä	-10.3775
▁riittävästi	-10.3781
▁velje	-10.3781
▁vaiva	-10.3784
▁8.	-10.3785
▁pärjää	-10.3787
hetki	-10.3788
▁sulke	-10.3789
ppu	-10.379
▁hallitukse	-10.3793
▁heng	-10.3794
ajalla	-10.3799
istui	-10.3799
▁pitävä	-10.3801
▁ketju	-10.3803
▁avajais	-10.3808
ruu	-10.381
▁turvallisuuden	-10.3812
▁leikki	-10.3812
▁vaara	-10.3812
▁vaihde	-10.3813
elin	-10.3814
▁Za	-10.3815
▁veny	-10.3816
▁Niitä	-10.3819
▁satoja	-10.3823
▁kertoja	-10.3826
ologi	-10.3826
näytö	-10.3827
▁Mark	-10.3827
▁avata	-10.3829
sista	-10.3836
▁nykyisin	-10.3838
alisti	-10.3839
▁For	-10.3839
ökkä	-10.3841
▁laitta	-10.3842
▁tapaamis	-10.3848
▁vaalien	-10.385
innin	-10.3851
▁Portugali	-10.3852
▁julkaistiin	-10.3852
▁mahdollisuutta	-10.3855
▁Samaa	-10.3858
kyky	-10.3858
▁tammikuuta	-10.386
johto	-10.3861
▁kuolleen	-10.3862
▁hinnat	-10.3863
▁päättänyt	-10.3863
kadun	-10.3865
▁perustuu	-10.3868
▁korja	-10.387
▁Petri	-10.387
▁Huu	-10.3874
▁Joukkue	-10.3876
▁puhelu	-10.3876
▁v	-10.3878
▁pelaava	-10.388
▁paljas	-10.3881
▁armeijan	-10.3881
▁tulosta	-10.3882
▁historiaa	-10.3886
järjestön	-10.3888
▁päivinä	-10.3893
ttäisi	-10.3893
ilua	-10.3893
▁Van	-10.3895
▁vanhan	-10.3896
▁Epäilty	-10.3897
▁Helenius	-10.3897
▁kahteen	-10.3898
▁tulkit	-10.3903
hel	-10.391
kappale	-10.392
▁sopeutu	-10.3921
▁am	-10.3923
▁Varha	-10.3926
kkö	-10.393
lvi	-10.3931
▁artikkeli	-10.3936
▁käynnistä	-10.3937
▁Colorado	-10.3942
▁liikkeelle	-10.3942
▁päivittäin	-10.3942
▁Etenkin	-10.3942
▁naurahtaa	-10.3942
▁sisältää	-10.3943
sky	-10.3943
▁sellaisen	-10.3945
▁aiheesta	-10.3948
▁Tuli	-10.3948
▁miele	-10.3956
▁vaalit	-10.3958
▁ikkuna	-10.3963
lahden	-10.3964
idan	-10.3966
▁asumis	-10.3967
eissä	-10.3977
ikku	-10.3977
▁lopet	-10.3977
ight	-10.3978
▁toiminnasta	-10.398
joiden	-10.3981
▁palautetta	-10.3986
▁maahanmuutto	-10.3986
▁Henriksson	-10.3987
▁kovi	-10.3989
kim	-10.3992
▁Hamas	-10.3993
▁tarkist	-10.3995
▁käräjäoikeuden	-10.3996
▁Aja	-10.3996
▁millään	-10.3997
▁Sar	-10.3999
kaali	-10.3999
▁valitta	-10.4001
joukkueen	-10.4003
kkaat	-10.4007
valtuusto	-10.4009
▁tuonut	-10.401
huolto	-10.401
ör	-10.4013
▁kuvi	-10.4015
mmät	-10.4016
▁alkava	-10.4016
▁mahdollisuuksia	-10.402
▁täyde	-10.4022
▁Kansainväli	-10.4022
paino	-10.403
▁yhteys	-10.4031
▁seuraavana	-10.4031
▁RKP	-10.4031
▁kaikilla	-10.4032
johdo	-10.4032
▁tiedetään	-10.4037
▁voisivat	-10.4038
▁Jasmi	-10.4038
▁vastaus	-10.4039
▁ketään	-10.404
▁Nieminen	-10.404
▁Saarinen	-10.4045
▁parhaat	-10.4051
▁Puhe	-10.4054
▁kuninkaallis	-10.4058
▁hyvi	-10.4061
toimen	-10.4063
▁liittyvä	-10.4066
▁pahoinpitely	-10.407
▁sinä	-10.4075
▁Lääkäri	-10.4077
▁motiivi	-10.4077
▁johtanut	-10.4077
▁pelastuslaitos	-10.4077
▁Arvo	-10.4078
▁ovi	-10.4078
▁lue	-10.4078
von	-10.4082
▁opiskelija	-10.4085
▁luottamus	-10.4086
▁Anton	-10.4086
▁johtoon	-10.409
60	-10.4092
▁rake	-10.4093
▁pääsevät	-10.4094
▁saapuu	-10.4096
uudessa	-10.4097
▁Kokko	-10.4099
▁Sanomat	-10.4099
▁tapahtumien	-10.4102
▁onneksi	-10.4108
liikke	-10.4111
▁välisenä	-10.4112
tavaa	-10.4113
▁pukeutu	-10.4117
toiminta	-10.4117
▁myöhään	-10.4122
▁senttiä	-10.4123
▁kaikissa	-10.4124
▁kaula	-10.4125
▁käyttänyt	-10.4128
▁sairaalan	-10.4136
▁30-	-10.4141
oksi	-10.4145
turvallisuuden	-10.4148
▁veti	-10.4148
uksilla	-10.415
itin	-10.4151
▁suola	-10.4153
kunto	-10.4153
▁tor	-10.4158
▁nautti	-10.4158
▁Esi	-10.4163
ksiin	-10.4167
▁vähentää	-10.4168
▁Lahden	-10.4168
▁vaikuttanut	-10.4169
▁prosenttiin	-10.4169
▁alus	-10.4173
riski	-10.4174
▁ottamatta	-10.4174
▁ruu	-10.4175
tal	-10.4179
▁kulma	-10.4181
▁etenee	-10.4184
▁ajaksi	-10.4186
▁musiikkia	-10.4188
▁musiikin	-10.4188
▁syntyy	-10.419
ympäristö	-10.4194
ity	-10.4196
ovi	-10.42
▁Ruu	-10.4202
▁kie	-10.4203
yle	-10.4204
▁vieraa	-10.4204
ling	-10.4206
▁peru	-10.4206
kevä	-10.4206
▁laskee	-10.4207
ld	-10.421
▁pelaajien	-10.421
poli	-10.4212
kkeet	-10.4212
▁Kiuru	-10.4214
▁Chris	-10.4214
▁liiton	-10.4214
▁aiempi	-10.4215
▁Lou	-10.4216
▁katsoji	-10.4216
▁museo	-10.422
▁aito	-10.4223
▁autta	-10.4225
▁rakennettu	-10.4228
▁kaista	-10.4233
gra	-10.4236
▁suojelu	-10.4239
▁ensimmäiset	-10.4239
▁kuudes	-10.4239
▁reissu	-10.4247
luke	-10.4249
▁tuomi	-10.4249
suus	-10.4257
tuo	-10.4261
▁kävely	-10.4261
▁teon	-10.4261
▁velka	-10.4261
▁kil	-10.4263
▁Ras	-10.4264
▁ammu	-10.4264
▁päätöksiä	-10.4265
kisassa	-10.4269
▁Pai	-10.4271
▁pientä	-10.4272
▁lukuun	-10.4273
▁Pian	-10.4274
tunto	-10.4275
▁julkista	-10.4277
▁Peter	-10.4279
▁mie	-10.4282
▁Tommi	-10.4282
▁hienoa	-10.4282
▁paikassa	-10.4293
emi	-10.4295
▁autojen	-10.4296
▁edustaa	-10.4304
▁Pelicans	-10.4305
▁parhaimmillaan	-10.4306
La	-10.4306
▁ajat	-10.4308
▁erään	-10.4309
▁muutamia	-10.4309
▁kuluttua	-10.431
▁finaalissa	-10.431
▁roolissa	-10.4311
▁syyt	-10.4314
▁vietiin	-10.4317
▁Markus	-10.4317
▁Kaisa	-10.4318
▁Sunnuntaina	-10.4321
▁ulkomailla	-10.4321
▁Cor	-10.4326
▁Lai	-10.433
▁tullaan	-10.4337
▁vapautta	-10.434
▁Kaleva	-10.4343
neuvoston	-10.435
▁heinäkuu	-10.4351
ymmärret	-10.4353
▁doping	-10.4353
▁Tällainen	-10.4353
▁Pelastuslaitos	-10.4353
▁lähelle	-10.4353
▁Tanssi	-10.4353
▁Lähde	-10.4354
▁54	-10.4356
▁Unkarin	-10.4356
▁Vo	-10.4356
historia	-10.4356
▁panosta	-10.4356
ved	-10.4361
järjestelmää	-10.4361
▁Ensin	-10.4361
▁2000-	-10.4363
▁materiaali	-10.4364
▁tunnus	-10.4365
▁ulkona	-10.4367
dis	-10.4368
▁pysyvä	-10.437
liigassa	-10.4372
▁pääty	-10.4374
▁tarttu	-10.4374
▁ratkaiseva	-10.438
mieli	-10.4381
▁vaikutuksia	-10.4389
▁uskoa	-10.439
▁muovi	-10.4392
▁askel	-10.4395
á	-10.4399
▁Sebastian	-10.4399
▁yhteinen	-10.4399
finaali	-10.4401
▁Kauppa	-10.4403
▁Manchester	-10.4409
▁heitti	-10.4414
vissa	-10.4415
▁kiinnostu	-10.4425
laat	-10.4425
tuotanto	-10.4429
▁2011	-10.4429
laitos	-10.4435
oille	-10.4436
▁Pla	-10.4437
▁mielen	-10.4442
▁uudesta	-10.4446
▁koripallo	-10.4447
kselle	-10.4447
▁kevye	-10.4447
maalla	-10.4448
▁syödä	-10.445
Vantaa	-10.4451
tietojen	-10.4452
▁toisiaan	-10.4452
▁jono	-10.4455
▁vaate	-10.4455
▁Kaarinan	-10.4456
eva	-10.4457
▁700	-10.4458
teollisuuden	-10.4459
▁täys	-10.4459
isestä	-10.446
▁törmäsi	-10.4465
▁syistä	-10.4474
sivu	-10.4475
hahmo	-10.4475
▁Liikenne	-10.4475
▁tiukka	-10.4477
▁huomion	-10.4483
vedo	-10.4483
kkoja	-10.4483
▁vauhtia	-10.4484
▁huonosti	-10.4487
etty	-10.4489
▁Gr	-10.449
▁tulleet	-10.449
▁Liike	-10.4493
▁tavallista	-10.4493
▁sukupuoli	-10.4496
▁jättänyt	-10.4499
▁Inter	-10.4502
▁ajatella	-10.4503
▁henkilöitä	-10.4508
▁jonne	-10.4514
keri	-10.4514
▁Suuri	-10.4516
▁kaava	-10.4516
▁etten	-10.4519
▁kiekon	-10.4521
▁Alku	-10.4523
tutkija	-10.4524
suomalais	-10.4525
▁Mie	-10.4528
▁Es	-10.4529
▁mer	-10.453
▁aktiivi	-10.4532
▁jatkuvat	-10.4533
mitta	-10.4534
▁ui	-10.4535
▁Pen	-10.4535
▁julkisen	-10.4537
kokous	-10.4543
tuvat	-10.4544
▁Haaviston	-10.4545
▁ollenkaan	-10.4545
▁Suvi	-10.4546
▁hur	-10.4547
▁mihinkään	-10.4548
▁villi	-10.455
nder	-10.4553
ksessa	-10.4556
▁ääntä	-10.4557
▁maajoukkueen	-10.4557
▁yllätti	-10.4558
etään	-10.4559
mit	-10.4559
▁nykyisen	-10.4559
▁tyhjä	-10.4561
ttäminen	-10.4562
pro	-10.4563
▁potentiaali	-10.4563
ban	-10.4563
▁jäävät	-10.4563
▁golf	-10.4564
▁Asu	-10.457
▁sini	-10.4571
liikenteen	-10.4571
teilla	-10.4575
▁varus	-10.4576
tili	-10.4577
▁syynä	-10.4582
lut	-10.4584
▁Unkari	-10.4585
▁23.	-10.4586
▁paikkansa	-10.4586
▁mahdollisen	-10.4587
▁johtajan	-10.4588
▁Puljujärvi	-10.4588
▁omakotitalo	-10.4588
▁vihdoin	-10.4588
▁kielletty	-10.4589
katu	-10.459
▁Joonas	-10.459
line	-10.459
▁isännöi	-10.4591
▁tarkoitettu	-10.4592
▁pohdi	-10.4594
▁Las	-10.4595
▁viimeiset	-10.4596
▁tuen	-10.4602
isä	-10.4603
▁Jokinen	-10.4604
▁Karhu	-10.4605
seuran	-10.4615
teessa	-10.4617
Pekka	-10.4621
▁kovasti	-10.4621
▁(2	-10.4623
rannan	-10.4623
▁kommentoinut	-10.4625
▁tähden	-10.4626
▁Hizbollah	-10.4627
▁tytön	-10.4631
q	-10.4634
hiihdon	-10.4636
▁rasismi	-10.4636
▁vuodeksi	-10.4636
▁vihreiden	-10.4637
kesä	-10.4639
kanta	-10.4639
asunto	-10.464
▁Toisen	-10.4641
▁lahjoit	-10.4643
▁erikseen	-10.4649
▁osasto	-10.465
▁näyttävä	-10.4652
mpien	-10.4653
lehdelle	-10.4655
ope	-10.4659
▁tapahtuman	-10.4662
kaupunki	-10.4665
▁harjoittelu	-10.4669
▁Syyttäjän	-10.4672
▁kunnon	-10.4673
▁Hur	-10.4675
▁Bro	-10.4676
▁lataus	-10.4676
▁seurata	-10.468
▁Arto	-10.468
▁nope	-10.4681
▁tutkinnan	-10.4681
▁toukokuun	-10.4684
▁kaatoi	-10.4685
▁Paavo	-10.4685
▁sittemmin	-10.4685
▁maaliskuu	-10.4686
▁yhdeksä	-10.4687
▁Mattila	-10.4688
▁murska	-10.4688
▁huima	-10.4692
▁puolusta	-10.4692
▁tiennyt	-10.4693
▁Intia	-10.4695
nnat	-10.4699
yyteen	-10.4699
▁helpot	-10.47
▁kysymyksiä	-10.4701
▁iloinen	-10.4702
▁näyttävät	-10.4705
kissa	-10.471
▁Kangas	-10.471
▁kilo	-10.4711
ksella	-10.4711
▁merkitys	-10.4712
kallio	-10.4714
▁koski	-10.4715
loma	-10.4721
▁arvioida	-10.4723
muutos	-10.4724
▁määrin	-10.4728
▁Muista	-10.4732
▁järjestetty	-10.4733
▁kunnioitta	-10.4735
▁vanhempi	-10.4737
▁tekni	-10.4737
säätiö	-10.4739
oissa	-10.4739
rai	-10.4739
▁esitteli	-10.4741
▁ollessa	-10.4742
Sa	-10.4743
▁Ihmiset	-10.4743
parin	-10.4744
▁Jere	-10.4744
▁akku	-10.4745
▁2008	-10.4746
▁pääasia	-10.4748
ani	-10.475
uksensa	-10.4757
voittaja	-10.4768
▁käyty	-10.4769
▁elävä	-10.477
tuotanno	-10.477
▁kiinnostava	-10.4771
▁Lindtman	-10.4773
korva	-10.4774
▁pudotuspeli	-10.4775
▁vanhempien	-10.4775
ow	-10.4775
▁osassa	-10.4775
▁asetta	-10.4776
▁kaudeksi	-10.4781
▁Madrid	-10.4781
▁kerännyt	-10.4781
▁syttyi	-10.4781
▁vasemma	-10.4781
▁Elä	-10.4782
▁Turku	-10.4784
▁järkyt	-10.4785
▁nu	-10.4786
▁lajin	-10.4786
▁ansio	-10.4791
▁katsotaan	-10.4796
ric	-10.4798
▁hiihtä	-10.4799
▁kenttä	-10.4803
▁uudessa	-10.4803
yhä	-10.4806
vaalien	-10.4809
joista	-10.4811
▁pila	-10.4812
▁Varhan	-10.4813
raati	-10.4814
▁51	-10.4814
uli	-10.4816
▁rahan	-10.4817
▁epäonnistu	-10.4818
▁ajattele	-10.4818
▁(19	-10.4818
▁Pah	-10.4818
▁kaksikko	-10.4821
▁edestä	-10.4824
▁ajassa	-10.4824
▁Bru	-10.4824
veli	-10.4826
▁haku	-10.4829
▁Benjamin	-10.483
▁todellinen	-10.483
▁kahdessa	-10.483
▁Vali	-10.483
▁täältä	-10.483
keä	-10.4832
▁Ahti	-10.4834
▁useiden	-10.4837
▁Rinne	-10.4846
maailma	-10.4847
▁perusteli	-10.4847
▁Joka	-10.4848
▁as	-10.485
▁linjaa	-10.4851
▁43	-10.4856
▁vaihtu	-10.4856
Jo	-10.486
▁nuoren	-10.4862
11	-10.4866
fani	-10.4867
▁ohjus	-10.4868
▁töissä	-10.487
ttia	-10.487
versio	-10.4872
dit	-10.4873
▁bo	-10.4876
tulos	-10.4877
▁Lauantaina	-10.4878
▁Puolue	-10.4879
▁vaadi	-10.4879
▁odotettu	-10.4879
▁Granlund	-10.4879
▁viil	-10.4883
▁täyttää	-10.4888
isyyttä	-10.4889
▁Eero	-10.489
poja	-10.489
▁muo	-10.4895
▁huolestu	-10.4896
tyt	-10.4901
▁epäiltynä	-10.4902
▁olevia	-10.4906
▁Arttu	-10.4906
rak	-10.491
▁Pori	-10.4914
▁huone	-10.4915
▁mitenkään	-10.4916
ers	-10.4916
▁miehelle	-10.4917
▁useamman	-10.492
▁saamaan	-10.492
▁huvi	-10.492
▁alkuun	-10.492
▁pelko	-10.4921
mainen	-10.4923
▁Käytännö	-10.4928
▁hyökkäsi	-10.4928
▁Laulaja	-10.4928
▁kaukana	-10.4928
▁päivystävä	-10.493
▁käänne	-10.493
▁Rehn	-10.4931
▁miltä	-10.4937
▁Loimaan	-10.4938
▁1990-	-10.4938
▁Kaiki	-10.4941
▁häneltä	-10.4943
▁liikenteen	-10.4945
▁ison	-10.4946
ros	-10.495
▁tytö	-10.495
kaista	-10.4951
▁korosti	-10.4952
▁syyskuun	-10.4953
▁vihreä	-10.4956
▁Wal	-10.4957
▁Voit	-10.4958
▁vaikutusta	-10.4959
ttelemaan	-10.4966
utus	-10.4967
▁Bre	-10.4971
yhteisö	-10.4973
▁Helsinkiin	-10.4976
▁Rovaniemellä	-10.4978
sarjaa	-10.4979
▁Tutkimukse	-10.4979
ation	-10.4979
▁varoittaa	-10.498
▁pien	-10.4981
▁näkynyt	-10.4982
▁Muutama	-10.4982
pyör	-10.4984
eita	-10.4988
immillaan	-10.4991
mättömä	-10.4993
poliisi	-10.4994
▁Lumi	-10.4996
▁pii	-10.4996
▁vastannut	-10.4998
ukselle	-10.5
▁haluan	-10.5001
▁hyökkää	-10.5004
▁Toni	-10.5005
▁Leo	-10.5008
▁tasolle	-10.5011
▁Häkkänen	-10.5027
▁löydettiin	-10.5027
▁oikeudenkäynti	-10.5028
▁kolmos	-10.5028
▁potilas	-10.503
▁Vainio	-10.503
▁pelissä	-10.5033
▁Elokuva	-10.5034
▁16-	-10.5036
▁Aleksi	-10.5038
▁menestys	-10.504
lah	-10.5042
bergin	-10.5042
▁perheensä	-10.5044
▁oikeutta	-10.505
▁maasta	-10.5058
vaurio	-10.506
▁kanssaan	-10.5062
▁Mail	-10.5063
lehdessä	-10.5064
hau	-10.5065
▁Ensimmäisen	-10.5067
puolueen	-10.5073
▁vessa	-10.5073
▁Juhani	-10.5076
▁Käärijä	-10.5077
▁Taylor	-10.5077
▁analysoi	-10.5077
▁löytänyt	-10.5077
▁työskenteli	-10.5077
▁yhdellä	-10.5077
▁kahdella	-10.5078
tš	-10.5078
▁piiri	-10.5078
▁Onnettomuus	-10.5081
▁levy	-10.5082
▁yrittänyt	-10.5083
▁jänni	-10.5084
▁Kerttu	-10.5087
illeen	-10.5091
▁49	-10.5096
tkö	-10.5098
▁Koke	-10.5099
▁menevät	-10.511
▁kyky	-10.5115
▁Eikä	-10.5116
▁ääri	-10.5117
rakennus	-10.5118
ttomia	-10.512
▁Mc	-10.5121
▁kotonaan	-10.5121
▁Venäläis	-10.5121
▁anta	-10.5122
▁kovia	-10.5124
▁samoi	-10.5127
▁muistu	-10.5127
▁kruunu	-10.5128
▁NBA	-10.5128
▁Jorma	-10.5128
▁tarvittaessa	-10.5128
rikoksesta	-10.5129
▁saama	-10.5129
▁selvityksen	-10.5131
▁loistava	-10.5132
▁tyly	-10.5132
hetkellä	-10.5133
▁pääministerin	-10.5137
▁käytön	-10.5137
▁oikeude	-10.5139
isyys	-10.5139
piir	-10.5142
▁Ö	-10.5143
▁kehuu	-10.5143
▁Väi	-10.5144
▁tunteita	-10.5145
▁Sor	-10.5145
▁mm	-10.5145
▁anna	-10.5145
▁Valo	-10.5147
▁jutun	-10.5149
kohtei	-10.5149
▁katsomo	-10.5153
▁kuussa	-10.5154
yksellä	-10.5157
▁työskentelevä	-10.516
▁jostain	-10.516
▁kont	-10.5161
▁terrori	-10.5163
▁mö	-10.5165
▁maat	-10.5166
tutkinta	-10.5168
ttäisiin	-10.5169
▁puolelta	-10.517
lautakunta	-10.517
▁vahinko	-10.5171
▁asui	-10.5171
töiden	-10.5172
uutis	-10.5172
tiimi	-10.5173
▁Kuopio	-10.5173
palvelut	-10.5173
▁alkua	-10.5176
▁äänistä	-10.5179
▁napa	-10.518
▁Nykyään	-10.518
▁Victoria	-10.5181
▁perustelee	-10.5181
▁Lehden	-10.5181
että	-10.5188
▁suihku	-10.5191
▁6.	-10.5193
nopeus	-10.5197
▁kirjassa	-10.5201
▁tul	-10.5202
▁Bra	-10.5203
mansa	-10.5204
▁sadan	-10.5205
ohje	-10.5206
▁tapahtuneen	-10.5206
▁Tuomio	-10.5206
▁ottelusta	-10.5208
▁Jalkapallo	-10.5208
sota	-10.5208
▁muutosta	-10.521
laiva	-10.521
▁ohjaaja	-10.5211
▁rivi	-10.5213
▁Th	-10.5214
▁poliittinen	-10.5214
▁ihmisille	-10.5216
▁täyte	-10.5217
▁pani	-10.5221
oik	-10.5221
▁Carolina	-10.5223
17	-10.5228
▁ensimmäisi	-10.5229
▁konflikti	-10.5229
▁Prinsessa	-10.5229
▁alkanee	-10.5231
▁Ilkka	-10.5236
▁Juuri	-10.5237
▁parhaiten	-10.5238
vuotiai	-10.5239
▁ilmastonmuuto	-10.524
▁suorana	-10.5241
▁3.	-10.5242
▁Emma	-10.5244
▁väittely	-10.5249
▁torstain	-10.5252
kais	-10.5252
▁kehu	-10.5256
▁autoja	-10.5257
perhe	-10.526
▁puh	-10.5265
▁todista	-10.5266
▁Mel	-10.5269
▁kokemusta	-10.5269
hui	-10.5269
▁Ya	-10.5275
▁Reutersi	-10.5275
▁kier	-10.5276
▁Rikos	-10.5279
▁koiran	-10.5279
▁sähköposti	-10.528
hdys	-10.528
▁Lounais	-10.528
▁Ruotsalais	-10.528
▁annetaan	-10.528
▁Perussuomalaist	-10.528
▁kokoomus	-10.528
▁Sofia	-10.528
kkaasti	-10.5281
▁+	-10.5282
▁kadonne	-10.5282
▁mahdollisuuden	-10.5284
▁lava	-10.5285
▁kentällä	-10.5285
▁Tervo	-10.5286
+2	-10.5289
▁uusien	-10.529
▁sanat	-10.5295
seutu	-10.5298
ävä	-10.53
▁elokuun	-10.5301
▁uutisia	-10.5301
zi	-10.5301
▁Jotk	-10.5303
▁luona	-10.5304
▁autolla	-10.531
▁kr	-10.531
▁hyöty	-10.5312
▁tauti	-10.5315
▁Williams	-10.5318
▁nap	-10.532
tämä	-10.5323
▁Ylelle	-10.5325
▁paljasta	-10.5326
▁Netanjahu	-10.5331
▁todettu	-10.5331
työtä	-10.5332
▁omistama	-10.5333
ryhmään	-10.5333
▁jatkossakin	-10.5334
kaikkein	-10.5335
▁minkäänlai	-10.5336
▁ilmaan	-10.5336
▁rap	-10.5336
▁tuk	-10.5337
▁poista	-10.5339
▁minuutilla	-10.5339
isilla	-10.5339
▁niillä	-10.534
▁varmistaa	-10.5341
eillä	-10.5342
▁kerralla	-10.5342
▁kiristy	-10.5344
väylä	-10.5345
▁Tuu	-10.5346
▁nykyistä	-10.5349
isee	-10.535
kerr	-10.5351
▁Syyrian	-10.5354
kangas	-10.5357
▁tuotteita	-10.5357
▁Dr	-10.5358
▁suurimman	-10.5361
bor	-10.5367
kaupan	-10.5368
▁lukemi	-10.5368
▁karsinta	-10.537
kis	-10.5371
▁Tampere	-10.5373
töitä	-10.5375
neelle	-10.5376
potku	-10.5379
kultaa	-10.5379
puoliso	-10.538
▁kanslia	-10.5383
▁poliitikko	-10.5385
torni	-10.5386
▁leikkaa	-10.5386
▁Mestarie	-10.539
▁kovan	-10.539
▁Gre	-10.5393
▁Sand	-10.5397
jiä	-10.5398
▁erilainen	-10.5399
▁Australia	-10.5403
väline	-10.5411
▁valitsi	-10.5412
▁siivo	-10.5412
▁syv	-10.5412
llisuutta	-10.5416
kaupasta	-10.5418
▁henkilökunta	-10.5418
▁vahvistu	-10.5419
▁kirkko	-10.542
▁aikuis	-10.542
vahti	-10.5421
▁kori	-10.5425
▁verkkosivuilla	-10.5426
▁Puolustus	-10.5434
▁Hyundai	-10.5435
▁tapahtua	-10.5435
▁mahtava	-10.5435
▁Kremlin	-10.5435
▁odotti	-10.5436
▁James	-10.5437
▁Tre	-10.5438
pomo	-10.5438
▁Laineen	-10.5438
paita	-10.5441
▁parlamentin	-10.5442
▁Hizbollahin	-10.5444
▁posti	-10.5448
▁Tiistaina	-10.5448
metsä	-10.545
▁osallistunut	-10.5456
▁puheenjohtajan	-10.5456
▁€	-10.5458
▁7-	-10.5463
▁viide	-10.5463
▁niille	-10.5463
▁pysyi	-10.5466
paikasta	-10.5466
▁viikonloppu	-10.5468
▁miettii	-10.5471
▁arva	-10.5477
▁Anni	-10.5478
▁käänty	-10.548
▁liittolais	-10.548
▁kana	-10.5482
▁peto	-10.5485
▁tehot	-10.5486
pyyntö	-10.5486
▁Suzanne	-10.5487
▁Volodymyr	-10.5487
▁Stanley	-10.5487
▁kimppuun	-10.5487
▁Kainuu	-10.5487
▁rohkea	-10.5488
▁Puoli	-10.5491
stadion	-10.5492
joki	-10.5492
▁laitos	-10.5501
▁Lappi	-10.5502
▁lehdelle	-10.5504
ttavaksi	-10.5504
▁murhan	-10.5506
kalta	-10.5509
kanava	-10.551
onsa	-10.5513
▁Vesi	-10.5513
-1	-10.5515
▁aku	-10.5515
▁kamppailu	-10.552
▁Ski	-10.5521
des	-10.5521
▁oy	-10.5522
apua	-10.5526
▁kulutus	-10.5527
▁viranomais	-10.5527
▁Tiina	-10.5527
▁kaunis	-10.5527
▁Liperi	-10.5528
▁Vara	-10.553
museo	-10.5534
koske	-10.5534
▁osana	-10.5538
▁väkivallan	-10.5539
▁Windows	-10.5539
▁liikkuu	-10.5539
▁sekunnin	-10.5539
▁Grön	-10.5542
draama	-10.5545
▁Viimeise	-10.5545
▁puheenjohtajana	-10.5546
▁Ylä	-10.5547
luokassa	-10.5547
kkaita	-10.5548
▁loukkaantunut	-10.5548
▁vanhe	-10.5551
pesu	-10.5552
▁Yhteis	-10.5554
▁autosta	-10.5554
cha	-10.5554
▁avoin	-10.5557
▁kannatta	-10.5559
▁Lähes	-10.556
▁sur	-10.5563
▁suojaa	-10.5564
ttamisesta	-10.5565
▁lensi	-10.5568
lähe	-10.5568
evä	-10.5569
hallituksen	-10.557
▁tiistain	-10.5581
taito	-10.5581
▁viestejä	-10.5582
▁maissa	-10.5584
▁reilun	-10.5586
▁lapse	-10.5587
▁rankka	-10.5588
lander	-10.5588
▁Edmonton	-10.5592
▁ihastu	-10.5592
▁Radio	-10.5592
▁Paikalla	-10.5592
▁oltava	-10.5592
▁ruokavalio	-10.5592
▁SaiPa	-10.5593
▁järkyttävä	-10.5593
▁tunnissa	-10.5593
mille	-10.5598
▁työskentelee	-10.5598
▁palannut	-10.5598
▁LP	-10.5598
▁Kaksikko	-10.5599
▁52	-10.5599
▁kanne	-10.5605
▁kadu	-10.5606
▁Minun	-10.561
▁käyttämään	-10.5619
▁osakilpailu	-10.5619
▁vankeus	-10.5621
leik	-10.5621
▁Epä	-10.5622
▁lopuksi	-10.5625
palveluiden	-10.5625
teho	-10.5631
▁co	-10.5632
▁tilan	-10.5635
▁helppoa	-10.5635
▁Turkin	-10.5638
▁loukkaantu	-10.5641
▁Voitto	-10.5644
▁Telegram	-10.5645
▁harvoin	-10.5645
▁Vih	-10.5646
huoneessa	-10.565
▁Kärpät	-10.5658
tarina	-10.566
▁lääkärin	-10.5661
suhteet	-10.5664
▁hyvinkin	-10.5666
▁rauhassa	-10.5667
▁tumma	-10.567
idän	-10.5674
▁voimakkaa	-10.5677
▁2018.	-10.5679
▁venäläisten	-10.5679
▁kuolemaan	-10.568
▁puhtaa	-10.5682
▁sodassa	-10.5682
▁riko	-10.5684
▁hyvässä	-10.5685
▁oireita	-10.5686
▁Elämä	-10.569
▁Floridan	-10.5696
▁Dallas	-10.5696
▁Pärmäkoski	-10.5698
▁kommentteja	-10.5698
▁viivästy	-10.5698
▁näissä	-10.5699
pelissä	-10.5701
gar	-10.5701
▁ehdottomasti	-10.5704
toveri	-10.5705
▁Esa	-10.5705
sar	-10.5706
▁aktiivisesti	-10.5706
▁von	-10.5709
▁Kalevan	-10.571
▁istuva	-10.571
▁työvoima	-10.5714
▁vienti	-10.5718
▁teema	-10.572
▁haju	-10.5721
mark	-10.5723
▁autoon	-10.5726
▁lausu	-10.5727
▁miljardi	-10.5729
▁rikoksista	-10.5732
▁budjetti	-10.5732
isempi	-10.5733
▁Ber	-10.5736
▁Pii	-10.5741
▁luoda	-10.5743
▁näkyvä	-10.5744
▁sekin	-10.5747
▁rahat	-10.5747
käsittely	-10.5747
▁Cup	-10.5748
udella	-10.5749
▁läheisi	-10.575
▁penk	-10.5751
▁Ilveksen	-10.5751
▁Kaupungin	-10.5753
yttää	-10.5755
▁juonta	-10.5758
▁haastattelema	-10.5758
▁Oliver	-10.576
leiri	-10.5767
▁huomio	-10.5768
matonta	-10.5769
paikalle	-10.5772
▁yritysten	-10.5773
terve	-10.5773
▁havaintoja	-10.5774
insa	-10.5779
▁kiinalais	-10.5784
▁biisi	-10.5785
lauta	-10.5786
▁Levi	-10.5787
hor	-10.5789
▁Uni	-10.579
matkalla	-10.5793
▁Henkilö	-10.5797
▁harki	-10.5801
▁kongressi	-10.5805
▁saatavilla	-10.5805
▁Libanonin	-10.5805
▁kulkeva	-10.5806
▁tiede	-10.5806
edus	-10.5807
▁edustalla	-10.5809
▁kehittämis	-10.5809
esitys	-10.581
▁kyseise	-10.5811
▁Lento	-10.5813
▁lähetys	-10.5817
▁valu	-10.5823
▁selvitys	-10.5824
▁onnettomuuden	-10.5825
▁yleisesti	-10.5829
▁tapahtumat	-10.5831
▁kohteena	-10.5831
▁Mäkinen	-10.5832
▁vauhti	-10.5833
sha	-10.5838
suora	-10.5839
gren	-10.5839
▁osoitti	-10.5843
▁IL	-10.5843
▁miehistö	-10.5844
▁perustuva	-10.5845
kkejä	-10.5848
▁Lie	-10.5849
▁järjesti	-10.5851
▁4.	-10.5854
▁finaaliin	-10.5854
vari	-10.5855
▁paikkoja	-10.5856
▁republikaani	-10.5857
▁suuntaa	-10.5858
▁Hamilton	-10.5859
ottelua	-10.586
▁Lindholm	-10.586
▁Lehtikuva	-10.5861
▁pääsihteeri	-10.5863
▁ukkos	-10.5863
▁aseen	-10.5866
▁mahdollisia	-10.5867
▁osoitta	-10.5868
tänyt	-10.5869
▁satama	-10.587
▁häly	-10.5871
eme	-10.5871
▁äärijärjestö	-10.5873
Ma	-10.5874
▁kive	-10.5878
▁toimisto	-10.588
▁pesti	-10.588
▁toteuttaa	-10.588
▁vaurioi	-10.5882
▁vaarallise	-10.5883
tunti	-10.5885
▁vapautu	-10.5889
mun	-10.589
▁kohdistuva	-10.5892
pas	-10.5892
▁All	-10.5896
putki	-10.5899
▁hyväksyi	-10.5899
▁epäilly	-10.59
▁osannut	-10.59
▁yöllä	-10.59
▁selvitti	-10.5901
▁Lapsi	-10.5903
▁kera	-10.5905
▁häviä	-10.5905
▁Vuori	-10.5906
▁aikoinaan	-10.5909
uudet	-10.5909
▁sii	-10.5911
▁meren	-10.5911
näyttelijä	-10.5911
▁korvaus	-10.5912
▁Brasilia	-10.5913
▁fiilis	-10.5914
▁Paljon	-10.5914
▁Käsi	-10.5914
▁jutu	-10.5915
▁minusta	-10.5915
▁Utah	-10.5916
▁Joona	-10.5917
▁raivo	-10.5919
▁lintu	-10.592
▁kehottaa	-10.5923
▁katk	-10.5923
mallin	-10.5926
kuri	-10.5927
ble	-10.5928
▁avoimesti	-10.5931
▁mahdotonta	-10.5932
ttömän	-10.5932
▁lapsensa	-10.5933
sseja	-10.5934
▁taiteilija	-10.5936
▁Ilma	-10.5938
ikon	-10.594
▁sydäme	-10.5946
stetaan	-10.595
▁57	-10.5951
▁välttää	-10.5953
oon	-10.5954
▁Laakso	-10.5957
▁Toimi	-10.5958
▁poliittisen	-10.5959
▁rikoksen	-10.5961
▁Jyväskylän	-10.5962
▁asunut	-10.5962
▁viides	-10.5962
▁kohtaamis	-10.5963
summa	-10.5963
š	-10.5966
vaimo	-10.5968
▁Rangers	-10.5968
▁Tasavallan	-10.5968
▁viitaten	-10.5968
▁niska	-10.5972
▁Satu	-10.5973
pako	-10.5974
▁Keskustelu	-10.5974
▁Kaiken	-10.5976
toimia	-10.5977
▁Julia	-10.598
▁muuttanut	-10.5981
▁käsin	-10.5983
▁Topi	-10.5984
▁päätöksestä	-10.5984
▁tulvi	-10.5985
▁nimissä	-10.5985
eitä	-10.5986
▁pisteet	-10.5987
▁hanke	-10.5988
▁esitetty	-10.599
▁kuvasi	-10.5992
taulu	-10.5994
▁58	-10.5996
▁Minu	-10.5999
tetun	-10.5999
juoksu	-10.6005
▁kome	-10.6006
▁demokraatti	-10.6007
▁virallise	-10.6011
▁poistui	-10.6013
▁Tiktok	-10.6013
ehdot	-10.6014
▁Risto	-10.6015
▁joukkoja	-10.6016
▁Häntä	-10.6018
▁kutsuttu	-10.6021
yleisö	-10.6021
Britannia	-10.6022
▁sataa	-10.6022
▁Mielestäni	-10.6023
▁huomannut	-10.6023
▁Hus	-10.6024
▁SalPa	-10.6024
▁esitutkinta	-10.6025
▁outo	-10.6027
ääri	-10.603
▁käsitellään	-10.6031
▁tärkeitä	-10.6031
▁Ruka	-10.6032
▁tuhat	-10.6039
com	-10.604
▁Lehtonen	-10.604
puku	-10.6041
▁komp	-10.6044
2)	-10.6047
levy	-10.6052
ira	-10.6053
▁Nurmi	-10.6054
▁korkeimma	-10.6056
yritys	-10.6057
▁Ir	-10.6057
viikko	-10.6062
▁menehtyi	-10.6067
▁Uude	-10.6074
tuva	-10.6074
perin	-10.6074
▁politiikkaa	-10.6077
▁kenties	-10.6078
▁päätökseen	-10.6078
▁Prinssi	-10.6078
kenttä	-10.608
70	-10.6081
▁vietti	-10.6085
empää	-10.6087
▁Yö	-10.6089
tellaan	-10.6089
▁rikoksesta	-10.609
▁poliisilaitokse	-10.6095
vapau	-10.6095
▁Kuusi	-10.6096
▁Ur	-10.6097
▁tutkitaan	-10.6101
▁ruoan	-10.6102
pela	-10.6108
▁allekirjoit	-10.611
▁tuska	-10.6111
tsh	-10.6111
▁Fe	-10.6114
▁itsenäis	-10.6115
▁jotenkin	-10.6115
▁ampuja	-10.6119
▁yhdisty	-10.6122
▁jäsenet	-10.6122
mästä	-10.6126
ttuu	-10.6128
hiihtäjä	-10.6134
▁toisaalta	-10.6134
▁syrjä	-10.6134
▁joutuvat	-10.6134
▁monella	-10.6134
▁sokeri	-10.6135
▁syytteet	-10.6135
▁Maali	-10.6136
▁valmiste	-10.6137
hal	-10.6138
▁pul	-10.6138
▁karu	-10.6139
▁Tii	-10.614
▁areena	-10.6141
tsu	-10.6145
ryhmässä	-10.6146
▁2005	-10.6152
▁kuullut	-10.6153
▁Ek	-10.6154
▁kuulo	-10.6155
▁myyjä	-10.6159
▁astu	-10.6164
▁Suomalaiset	-10.6164
jäsen	-10.6164
▁AC	-10.6168
▁perustu	-10.6173
▁Sil	-10.6177
▁Sun	-10.6177
▁porukka	-10.6181
nnoista	-10.6183
▁Toivon	-10.6186
tarha	-10.6187
▁läsnä	-10.6189
▁opetus	-10.6189
▁Ronaldo	-10.619
▁arvonlisävero	-10.619
▁kotoisin	-10.619
▁Jalonen	-10.619
▁kulki	-10.619
▁kauhea	-10.619
▁tarvinnut	-10.6191
▁Valkoise	-10.6196
▁komea	-10.6198
▁joudu	-10.6199
▁sairaus	-10.6203
väki	-10.6203
▁asianajaja	-10.6203
▁synk	-10.6208
▁korkealla	-10.6208
sääntö	-10.6208
▁Heidi	-10.6209
▁viini	-10.6216
▁tuottaa	-10.6218
▁jääkiekon	-10.6221
▁Vähän	-10.6223
▁videoita	-10.6223
▁pyrki	-10.6223
▁yhdistää	-10.6223
▁Pur	-10.6225
▁Espoossa	-10.6226
▁sivussa	-10.6227
puheenjohtaja	-10.6227
puisto	-10.6231
▁hyötyä	-10.6232
▁neuvosto	-10.6235
▁alueelta	-10.6243
▁Kreml	-10.6245
▁Kansanedustaja	-10.6246
▁näillä	-10.6247
hiihto	-10.6247
alueilla	-10.6248
turnaus	-10.6248
▁Å	-10.6249
▁kuolemasta	-10.6251
▁toisesta	-10.6252
▁rintama	-10.6252
mitali	-10.6253
▁Lar	-10.6255
▁Vasemmistoliito	-10.6256
ileva	-10.6258
syyt	-10.6258
▁muoti	-10.6258
▁innostu	-10.626
uksi	-10.6264
▁Lehtinen	-10.6266
mmissa	-10.6267
myy	-10.6268
kuvaa	-10.6269
▁katosi	-10.6272
▁korjattu	-10.6274
▁kustannus	-10.6278
▁siirtää	-10.6278
▁Con	-10.628
▁korko	-10.6283
▁kasvo	-10.6283
▁kirjoittama	-10.6284
alueelle	-10.6291
▁Hol	-10.6292
▁Haka	-10.6294
dra	-10.6302
▁Toivottavasti	-10.6302
▁drooni	-10.6302
▁seurustel	-10.6303
▁Päätös	-10.6304
edustaja	-10.6304
▁kohtuu	-10.6305
hopea	-10.6306
▁parhai	-10.6307
virhe	-10.6308
▁vakio	-10.6308
▁luonnollisesti	-10.6309
kortti	-10.6311
▁56	-10.6312
▁Kukaan	-10.6314
▁Borg	-10.6315
▁Pikku	-10.632
kkojen	-10.632
▁Savo	-10.6322
▁jalkapallon	-10.6327
▁saaneen	-10.633
▁käymään	-10.6331
stetty	-10.6332
▁arvioitu	-10.6335
▁kokenee	-10.6335
▁Some	-10.6341
▁huomattava	-10.6345
eet	-10.6346
mmalla	-10.6348
▁Tim	-10.6349
mpo	-10.6351
▁ryhmän	-10.6352
iselta	-10.6353
▁vastaavan	-10.6356
▁Bri	-10.6356
▁Pri	-10.6358
Arabia	-10.6358
▁mielipide	-10.6358
▁Nuorten	-10.6359
▁py	-10.6359
▁aikoihin	-10.636
puolen	-10.636
▁Ze	-10.636
▁nur	-10.636
mpänä	-10.636
▁Huippu	-10.6361
▁Yleensä	-10.6361
ahon	-10.6361
▁rahoitta	-10.6363
▁Poika	-10.6366
hr	-10.6366
▁valtavan	-10.6367
▁suorastaan	-10.6369
▁Koski	-10.6371
▁talven	-10.6372
▁Lopu	-10.6373
▁virallisesti	-10.6374
▁Ura	-10.6375
ttejä	-10.6379
Mi	-10.6382
isistä	-10.6382
▁varuste	-10.6383
▁Tero	-10.6386
▁toden	-10.6388
▁eroon	-10.6389
▁häneen	-10.639
kilpailuissa	-10.6391
19	-10.6396
▁sal	-10.6398
luokka	-10.6399
▁joukkueessa	-10.6401
burg	-10.6403
▁pelattu	-10.6403
▁luvan	-10.641
▁koulussa	-10.6411
▁konsertti	-10.6412
vaiheessa	-10.6412
pyynnö	-10.6416
▁paikallista	-10.6416
▁opiskelu	-10.6416
▁Group	-10.6416
▁perussuomalaise	-10.6417
▁rinnalla	-10.6419
▁Roope	-10.6419
lliseksi	-10.6419
▁laittoma	-10.642
▁tekemässä	-10.6421
paikkoja	-10.6422
▁Veikkausliiga	-10.6424
▁Lahti	-10.6426
▁Aivan	-10.6427
viiva	-10.6428
▁asuin	-10.643
▁tarpeen	-10.6431
isuuteen	-10.6431
▁hauska	-10.6433
sairaala	-10.6434
▁rikki	-10.6439
▁historiallise	-10.6441
llut	-10.6446
▁vuodet	-10.6447
kosken	-10.6448
▁kehitt	-10.6448
▁hallin	-10.645
▁Holm	-10.6451
kulku	-10.6451
▁vaatinut	-10.6451
▁mietti	-10.6452
▁normaalia	-10.6453
mmän	-10.6459
osan	-10.6459
▁tarkoi	-10.646
▁Tark	-10.6461
▁seuraavi	-10.6462
▁kirjailija	-10.6463
▁kehui	-10.6464
▁laajasti	-10.6464
▁siirtymä	-10.6465
kisan	-10.6468
▁Tau	-10.6468
▁haavoittu	-10.647
▁jotkut	-10.6472
▁ollee	-10.6473
ttämisestä	-10.6475
▁avustus	-10.6475
▁THL	-10.6476
▁aseita	-10.6476
▁istuu	-10.6476
▁taisteli	-10.6478
ratkaisu	-10.6478
▁tyttärensä	-10.6479
▁poikki	-10.6479
▁kommentoimaan	-10.6479
▁Keskiviikkona	-10.6481
▁Jazz	-10.6481
vaihte	-10.6482
▁rangaistus	-10.6482
▁kokous	-10.6483
▁tukeva	-10.6487
loissa	-10.6489
▁syyte	-10.6489
maailman	-10.6491
▁jotakin	-10.6491
▁kirjasto	-10.6491
▁palautta	-10.6497
▁paina	-10.6497
▁elokuvan	-10.6498
▁kuluvan	-10.6503
▁isompi	-10.6503
▁sanoma	-10.6505
2023	-10.6507
neuvosto	-10.6508
ev	-10.6508
tumista	-10.6508
▁valtavasti	-10.6511
ilemaan	-10.6512
▁peruna	-10.6516
▁peliin	-10.6516
matkan	-10.6521
▁Eva	-10.6521
▁tuottaja	-10.6524
▁Catherinen	-10.6525
teatteri	-10.6526
hm	-10.6526
aikana	-10.6527
▁kommentoida	-10.6529
▁iskuja	-10.6531
▁ambulanssi	-10.6532
▁läheisyydessä	-10.6532
▁Kärppien	-10.6532
▁Pariskunta	-10.6532
▁Huuhkaji	-10.6532
▁ylpeä	-10.6532
▁Oscar	-10.6532
▁liiku	-10.6532
▁Macron	-10.6532
▁leviää	-10.6534
▁markkinointi	-10.6538
▁rajaa	-10.654
▁putoa	-10.6544
▁pilvi	-10.6545
▁heitto	-10.6547
▁kysymykseen	-10.6549
▁tarkast	-10.6549
▁nuorena	-10.6549
▁Juho	-10.655
▁varoitus	-10.6552
▁kuvattuna	-10.6555
▁tunnu	-10.6556
▁uraa	-10.6557
▁kiusa	-10.6557
▁ostaja	-10.6558
▁Ainoa	-10.656
▁paidassa	-10.656
▁podcastissa	-10.6562
▁laskenut	-10.6564
▁Tuuli	-10.6565
21	-10.6567
▁juurikaan	-10.6571
▁tori	-10.6572
▁Tokio	-10.6573
▁taloudellise	-10.6576
▁nauti	-10.6576
▁Don	-10.658
▁alkuperä	-10.6582
▁Nord	-10.6583
▁varo	-10.6584
tuksella	-10.6585
▁Ehdo	-10.659
▁yleinen	-10.659
▁millainen	-10.659
▁pidettiin	-10.659
▁laittoi	-10.6591
▁ihmisoikeus	-10.6592
▁iskun	-10.6592
▁Mylly	-10.6594
siirto	-10.6596
työntekijä	-10.6596
▁tennis	-10.6597
sessä	-10.6597
▁Lap	-10.6603
▁saksalais	-10.6603
▁Olet	-10.6604
▁kierros	-10.6607
▁lämmin	-10.6611
ttävää	-10.6613
▁Raha	-10.6614
logi	-10.6615
kee	-10.6615
▁Sano	-10.6617
tellen	-10.6618
kriisi	-10.6624
▁paikkaan	-10.6624
pano	-10.6628
▁kiitos	-10.6629
▁sävy	-10.6631
▁koskevi	-10.6631
▁pääsivät	-10.6633
▁pariskunnan	-10.6633
vil	-10.6634
▁asioiden	-10.6638
▁ylivoima	-10.6638
▁poseeraa	-10.6639
▁näkemykse	-10.6645
▁todiste	-10.6645
▁Kommentti	-10.6648
valtuutettu	-10.6648
▁jolle	-10.665
▁tykkää	-10.665
▁epäillä	-10.6652
▁Britannia	-10.6652
▁yllätyksenä	-10.6653
▁kalusto	-10.6654
ellin	-10.6654
▁neste	-10.6655
▁Kello	-10.6656
▁start	-10.6656
isuuden	-10.6658
▁lopetti	-10.6658
▁Eetu	-10.6658
▁viestiä	-10.6658
▁puisto	-10.666
steri	-10.6662
kuvan	-10.6662
▁tärkein	-10.6662
▁puheen	-10.6663
▁Tausta	-10.6664
tteiden	-10.6665
▁eduskunta	-10.6667
▁joitakin	-10.6668
▁pahoinpitelystä	-10.6668
▁kärsivä	-10.667
▁tyyty	-10.6672
▁Real	-10.6674
mys	-10.6675
sonin	-10.6675
▁Teo	-10.6675
▁Moskovan	-10.6676
▁erikoise	-10.668
vuori	-10.668
▁markkinoi	-10.6681
▁Voima	-10.6681
▁tupla	-10.6681
▁hevonen	-10.6682
▁Lasten	-10.6683
▁der	-10.669
ds	-10.6699
▁Toyotan	-10.6703
▁tarve	-10.6704
▁talossa	-10.6706
;	-10.6707
▁Yhdysvaltoihin	-10.6707
▁alijäämä	-10.6707
▁Samuli	-10.6708
▁asioihin	-10.6708
▁Tällaise	-10.6709
▁aiemminkin	-10.671
▁Helander	-10.6711
▁Gra	-10.6711
▁päivitetty	-10.6712
▁rakennuksen	-10.6713
bri	-10.6715
▁Sota	-10.6718
▁Pasi	-10.6721
▁sisältö	-10.6724
isiksi	-10.6724
▁koneen	-10.6725
▁ilmoitus	-10.6727
▁poikaa	-10.6727
▁valossa	-10.673
kykyä	-10.6732
▁raiska	-10.6733
▁pitkiä	-10.6736
aseman	-10.6741
▁seudulla	-10.6741
▁poliitiko	-10.6742
▁rajusti	-10.6744
sarjasta	-10.6744
▁Wil	-10.6749
▁käynnisty	-10.6751
jiin	-10.6752
▁ääniä	-10.6755
▁Euroviisu	-10.6755
▁aikuisi	-10.6755
▁laatu	-10.6756
vihr	-10.6757
▁käsitellä	-10.6758
▁nimellä	-10.6759
▁Rauta	-10.6759
▁Norjassa	-10.676
▁ehdokkaan	-10.6761
tilasto	-10.6762
▁kumo	-10.6764
▁koskevat	-10.6765
ystävä	-10.6766
▁Pietari	-10.6766
▁kadonnut	-10.6766
▁Frederik	-10.6766
▁Näy	-10.6767
▁hovioikeus	-10.6767
▁johdolla	-10.6767
▁lukien	-10.6767
▁puuttuu	-10.6768
br	-10.6768
▁vire	-10.6769
▁lienee	-10.6769
sali	-10.677
▁lämpötilat	-10.677
▁suuremma	-10.6771
▁puuttee	-10.6773
▁GP	-10.6777
▁Mone	-10.6781
▁riitti	-10.6786
puolustukse	-10.6786
▁poliittise	-10.6791
▁vammoja	-10.6791
▁Raja	-10.6797
valmi	-10.6798
▁onnistunee	-10.6801
keino	-10.6801
▁sovittu	-10.6802
▁Anttila	-10.6803
tiloja	-10.6804
▁huuto	-10.6806
kiekkoilija	-10.6808
▁näytte	-10.681
▁erää	-10.6812
▁kyseisen	-10.6813
▁Niinistön	-10.6816
puri	-10.6817
▁reitti	-10.6818
mbo	-10.6821
lliseen	-10.6822
▁Nuori	-10.6822
jako	-10.6824
▁harras	-10.6825
vie	-10.6826
▁Englanti	-10.6826
▁huumori	-10.6826
▁kaikesta	-10.6826
▁Esko	-10.6827
▁tulevaisuuden	-10.6827
▁mau	-10.6827
▁digi	-10.6829
markkina	-10.6831
▁titteli	-10.6832
julkaisu	-10.6832
▁Ase	-10.6833
▁mitkä	-10.6834
▁välttä	-10.6834
▁soittaa	-10.6836
elma	-10.6837
▁Heikkilä	-10.6839
▁hakemaan	-10.6841
▁joulukuun	-10.6842
▁torjui	-10.6843
▁SE	-10.6844
▁kasa	-10.6846
▁Apu	-10.685
avust	-10.6853
▁toimimaan	-10.6859
▁kaukalo	-10.686
▁pui	-10.686
liha	-10.6861
11.	-10.6863
▁suunta	-10.6869
▁hullu	-10.6872
▁Venäjältä	-10.6875
vaattei	-10.6876
▁työpaikka	-10.6877
▁myyntiin	-10.6879
neistä	-10.6881
▁otteluun	-10.6881
▁netti	-10.6881
hallin	-10.6881
▁laittee	-10.6882
aineita	-10.6884
määrät	-10.6885
▁syöksy	-10.6886
▁mielenterveys	-10.6886
▁leikata	-10.6886
▁Mänty	-10.6886
▁War	-10.6886
▁pormestari	-10.6887
lupaus	-10.6887
moi	-10.6888
▁Toveri	-10.6888
▁vakuuttaa	-10.689
▁lopputulos	-10.689
tilanteen	-10.6891
▁toistuvasti	-10.6891
▁edistää	-10.6897
▁Maanantaina	-10.69
▁hätäkeskukseen	-10.6901
▁romu	-10.6902
▁loppua	-10.6905
▁juniori	-10.6907
laulu	-10.6907
▁kaapeli	-10.6909
▁rakente	-10.6911
harju	-10.6911
▁uskotaan	-10.6914
▁pakolais	-10.6918
zo	-10.6921
▁jääneet	-10.6922
▁uutinen	-10.6922
▁trendi	-10.6924
▁julkaise	-10.6929
kuntien	-10.6931
▁kasvua	-10.6932
vier	-10.6934
▁Kahden	-10.694
▁inflaatio	-10.6946
▁mainittu	-10.6946
▁kyydissä	-10.6946
tämään	-10.6946
▁korkein	-10.6946
▁kerto	-10.6946
▁säännöllisesti	-10.6946
▁Harkova	-10.6946
▁laajenta	-10.6947
▁työntekijät	-10.6948
▁Guardian	-10.6949
▁presidenttinä	-10.6953
ehdokkaan	-10.6953
▁viihty	-10.6954
▁maalilla	-10.6956
▁kielen	-10.6956
▁Otto	-10.6957
▁Sauvo	-10.6958
▁Pohjoismai	-10.6959
▁ohjaa	-10.696
▁yhteisen	-10.696
▁120	-10.6964
taisi	-10.6965
mätön	-10.6966
▁2007	-10.6966
dd	-10.6967
juna	-10.697
vaihto	-10.6973
▁osaltaan	-10.6975
▁turnauksen	-10.6976
▁iki	-10.6976
▁nousevat	-10.6977
yrityksen	-10.6979
3-	-10.698
▁ratkaista	-10.6981
▁59	-10.6983
▁Leh	-10.6989
80	-10.6992
▁plus	-10.6994
▁pohjalta	-10.6995
toimet	-10.6995
▁Carl	-10.6996
▁sotaan	-10.6997
▁kotiottelu	-10.7
huoneen	-10.7003
▁vaativat	-10.7004
▁erosi	-10.7005
▁Koivisto	-10.7007
▁kuvernööri	-10.7007
▁vuodelle	-10.7007
▁mikro	-10.7007
▁Oikea	-10.7007
yhtye	-10.7007
▁julkisi	-10.7008
▁Seiska	-10.7008
▁She	-10.7011
▁Cupin	-10.7013
tuja	-10.7018
▁Simo	-10.702
▁alkunsa	-10.702
▁joukkueensa	-10.7021
▁Sie	-10.7021
merkkejä	-10.7022
▁Simon	-10.7023
▁Jokainen	-10.7025
▁vastata	-10.7025
▁vääri	-10.7025
▁käytiin	-10.7026
▁Fu	-10.7027
▁Hinta	-10.7028
▁Op	-10.7029
naisen	-10.7029
▁pyytä	-10.703
▁henkilöt	-10.7032
▁ruumis	-10.7037
isuudesta	-10.7042
con	-10.7044
vissä	-10.7044
▁syytety	-10.7044
▁kuule	-10.7045
▁up	-10.7046
▁ok	-10.7049
▁järjestäjä	-10.705
▁poimi	-10.7052
▁rauta	-10.7054
▁sanovat	-10.7056
tanssi	-10.7061
▁vanki	-10.7064
▁mestaruutta	-10.7064
▁välistä	-10.7065
▁tiettävästi	-10.7068
systeemi	-10.7068
▁ajetaan	-10.7068
▁kokonaisuudessa	-10.7069
▁seudu	-10.7069
▁lukee	-10.7069
▁sisar	-10.707
▁KHL	-10.7071
▁Romania	-10.7074
▁kiinnosta	-10.7076
▁Someron	-10.7076
mielise	-10.7077
▁edustus	-10.7077
▁valtaosa	-10.7079
▁ristiriita	-10.7081
▁elo	-10.7082
▁erilaista	-10.7082
▁haasteita	-10.7084
▁kirjo	-10.7084
05	-10.7084
▁Pala	-10.7085
tiikka	-10.7085
uutena	-10.7085
▁Seppo	-10.7086
▁85	-10.7088
▁puolustaa	-10.7089
Po	-10.709
▁Lassila	-10.7091
▁puolilla	-10.7091
▁näkemään	-10.7092
▁Rau	-10.7096
▁joutua	-10.7097
oksessa	-10.7102
▁kyy	-10.7103
▁Louis	-10.7104
▁seitsemä	-10.7104
suhteita	-10.7106
▁pysyä	-10.7107
▁Kokoomuksen	-10.7107
▁muilla	-10.7111
▁Kulta	-10.7116
▁Tuore	-10.7119
▁hylly	-10.7122
▁tarkkaan	-10.7123
paikoilla	-10.7128
▁Kuningas	-10.7129
▁suhteellise	-10.7129
▁yhdestä	-10.7129
▁otteeseen	-10.7129
tuneita	-10.7129
▁puheenvuoro	-10.7129
▁kehittää	-10.713
ttäneen	-10.713
▁KuPS	-10.7131
pussi	-10.7131
mie	-10.7131
▁Sau	-10.7134
▁merkittävi	-10.7135
yksistä	-10.7137
▁Japanin	-10.7139
▁vastaanotto	-10.7141
▁kärsinyt	-10.7142
▁kuolema	-10.7142
▁vakavia	-10.7142
▁ylsi	-10.7144
pyörä	-10.7145
▁kiistää	-10.7149
▁Elon	-10.7153
time	-10.7154
▁vaihtoehtoja	-10.7155
▁luottaa	-10.7156
▁Keskus	-10.7157
▁nauttia	-10.716
ttajia	-10.7162
▁Milla	-10.7163
▁George	-10.7165
stein	-10.7166
▁Elo	-10.7166
▁yhteiskunnan	-10.717
▁perinteisen	-10.7172
▁61	-10.7175
hei	-10.7176
▁näytä	-10.7178
vala	-10.7178
▁joukkojen	-10.7185
kerho	-10.7185
▁fanit	-10.7185
▁Jyrki	-10.7191
▁auringon	-10.7191
▁Belgia	-10.7191
▁nousivat	-10.7191
▁Mukana	-10.7191
▁Paras	-10.7192
▁keskiviikon	-10.7192
▁Tuomari	-10.7192
▁asukkaat	-10.7193
▁ystäviä	-10.7193
▁yksityiskohta	-10.7194
▁mainitsee	-10.7197
▁Näitä	-10.7197
▁kestänyt	-10.7197
▁Lontoo	-10.7199
▁1980-	-10.72
▁pisteitä	-10.7201
▁ellei	-10.7202
▁hirvi	-10.7203
Ä	-10.7203
opisto	-10.7203
▁Turkki	-10.7205
valvonta	-10.7208
▁tammikuun	-10.7208
▁kg	-10.7208
▁lehden	-10.721
▁metalli	-10.7213
▁hauta	-10.7214
▁Konsta	-10.7214
ffe	-10.7223
kertainen	-10.7229
▁Hö	-10.7237
pri	-10.7238
ius	-10.724
▁Sain	-10.7245
mir	-10.7248
▁vastaavaa	-10.7252
▁nuorille	-10.7252
tv	-10.7252
▁Palestiina	-10.7253
▁UMK	-10.7253
▁saataisiin	-10.7253
▁investointi	-10.7255
▁nau	-10.7255
▁pyytänyt	-10.7256
▁keskusteli	-10.7256
▁ap	-10.7256
▁Fox	-10.7257
peleissä	-10.7258
▁ilmoitta	-10.7259
▁Hyvin	-10.726
▁vaikeuksia	-10.726
▁Yleisö	-10.7262
▁lupasi	-10.7264
▁Ralli	-10.7264
▁or	-10.7265
▁kysymyksiin	-10.7266
▁syyttää	-10.7266
▁salolais	-10.7267
▁partio	-10.7269
syöpä	-10.7271
▁2006	-10.7276
▁muutakin	-10.7276
▁Georgia	-10.7277
▁Tv	-10.7278
▁näyttely	-10.7281
töm	-10.7282
▁paini	-10.7283
omistaja	-10.7283
▁iskussa	-10.7284
▁tyyppi	-10.7286
10.	-10.7286
▁iltana	-10.7288
▁karhu	-10.7289
▁50-	-10.7293
▁alkoholia	-10.7293
▁harva	-10.7294
▁kuume	-10.7296
raport	-10.7298
▁vaikeutta	-10.7299
▁tuloksia	-10.7299
▁riita	-10.7306
▁seurassa	-10.7306
▁pihalla	-10.7307
mmilla	-10.7308
tuli	-10.731
tähden	-10.7311
▁250	-10.7315
▁ehdolla	-10.7315
▁löydy	-10.7315
▁Korhonen	-10.7315
▁Selänne	-10.7315
▁helmikuun	-10.7315
▁kuultu	-10.7315
▁Christian	-10.7315
▁Eduskunna	-10.7315
▁Elokapina	-10.7315
konserni	-10.7316
▁oven	-10.7318
elo	-10.732
▁aj	-10.732
▁Ranskassa	-10.7321
▁turisti	-10.7321
▁Itävalta	-10.7325
▁2009	-10.7325
▁ratkaisua	-10.7325
▁Lee	-10.7326
▁turvaa	-10.7327
koneen	-10.7328
▁miehiä	-10.7331
▁Jokela	-10.7331
blo	-10.7334
järjestely	-10.7334
kaudesta	-10.7335
▁kilometri	-10.7335
▁käytä	-10.7336
▁Jaakko	-10.7338
▁Halli	-10.7338
▁sisältävä	-10.7339
intään	-10.7339
▁Latvia	-10.734
▁2004	-10.734
▁hoiva	-10.7341
▁vaativa	-10.7342
pankki	-10.7346
tomuus	-10.7347
▁puolta	-10.7348
vyöry	-10.7349
▁suklaa	-10.735
▁ihail	-10.735
kusta	-10.7354
emmä	-10.7357
hävittäjä	-10.7357
▁voitosta	-10.7358
läisen	-10.7361
▁asemaa	-10.7361
▁Laki	-10.7363
valiokunta	-10.7364
▁Heli	-10.7364
▁painaa	-10.7365
▁tunsi	-10.7365
▁järjest	-10.7366
reille	-10.7367
▁ihon	-10.7367
▁oikean	-10.7367
▁Kimi	-10.7369
▁ulkoministeriö	-10.7369
▁pullo	-10.737
▁2000	-10.737
▁kamppail	-10.7375
▁Tila	-10.7375
о	-10.7378
terapia	-10.7378
poikkeuksellinen	-10.7378
▁prosentilla	-10.7378
rangaistukseen	-10.7378
▁kasvatti	-10.7379
HL	-10.7379
▁nauraa	-10.7379
▁riittänyt	-10.738
▁kiista	-10.738
▁ajamaan	-10.7381
indeksi	-10.7384
▁työstä	-10.7385
▁vaaranta	-10.7387
kanut	-10.7387
vaaleihin	-10.7388
▁Susanna	-10.739
▁tavoitti	-10.7391
kauppia	-10.7391
▁Koskinen	-10.7392
▁tällaisia	-10.7393
▁lakia	-10.7393
▁keskenään	-10.7393
▁muuttua	-10.7396
▁saattaisi	-10.7396
▁Johnson	-10.7397
▁huhtikuun	-10.7398
▁hallussa	-10.7401
▁Sosiaali	-10.7402
▁Vesa	-10.7405
vaali	-10.7406
▁susi	-10.7408
kur	-10.741
▁kansallisen	-10.741
juu	-10.7411
tyneet	-10.7415
ttämistä	-10.7419
▁käytös	-10.7419
▁kannatukse	-10.7419
▁Pöy	-10.7425
▁Kirsi	-10.7429
▁Niemi	-10.743
▁muutto	-10.7431
▁sakko	-10.7431
▁1-1	-10.7431
▁Kemin	-10.7433
▁asiakkaita	-10.7434
▁määrättiin	-10.7437
26	-10.7437
▁tiellä	-10.7438
▁päässeet	-10.7441
▁Thaimaa	-10.7441
▁ahdistu	-10.7441
▁puoleen	-10.7442
▁työntekijöitä	-10.7442
▁tunnelmi	-10.7442
▁persoona	-10.7442
▁teknise	-10.7443
▁suomalaisille	-10.7443
▁seksuaalise	-10.7443
▁laukoi	-10.7446
▁osoite	-10.7447
▁valitaan	-10.7447
▁ilmestyi	-10.7451
järvellä	-10.7452
▁tietävät	-10.7455
syys	-10.7456
kysely	-10.7457
▁Torstaina	-10.7459
valvoja	-10.7459
pesä	-10.7461
▁ongelmat	-10.7462
▁herk	-10.7463
▁hauda	-10.7465
ttaneen	-10.7466
▁Saman	-10.7467
nneksi	-10.7467
▁kertomaan	-10.7467
▁päädy	-10.7468
▁ihmisistä	-10.7469
neille	-10.7469
▁talle	-10.747
wo	-10.7474
▁mahdollisuudet	-10.7475
▁vieraana	-10.7476
▁reuna	-10.7477
▁toiminnassa	-10.7478
▁syytti	-10.7479
▁Sosiaalise	-10.7481
▁tapahtunee	-10.7481
▁Kam	-10.7481
▁osuu	-10.7482
▁25-	-10.7483
historian	-10.7487
rah	-10.7488
13	-10.7489
kylässä	-10.7495
▁harha	-10.7496
▁Will	-10.7498
▁lyh	-10.7499
▁Jokaise	-10.7499
▁Alex	-10.7505
▁ryöstö	-10.7505
▁takavarikoi	-10.7505
▁huomenna	-10.7505
▁riveissä	-10.7505
▁Suomella	-10.7505
▁verenpaine	-10.7505
▁viittasi	-10.7505
▁kukka	-10.7508
▁vastaajista	-10.7508
▁esiintynyt	-10.7509
▁laih	-10.7509
▁huuta	-10.751
cin	-10.7511
▁Mikkel	-10.7515
▁työryhmä	-10.7515
▁Star	-10.7517
▁uutisoitiin	-10.7519
ytyy	-10.7519
täessä	-10.752
▁norjalais	-10.7522
imma	-10.7523
▁Israeliin	-10.7523
▁Kuul	-10.7524
solu	-10.7524
▁viimeisteli	-10.7526
▁3-1	-10.7528
▁pääsiäis	-10.7529
▁hanki	-10.7533
▁kieltää	-10.7533
▁Harala	-10.7538
▁Fri	-10.7539
suunta	-10.7543
▁Pidä	-10.755
▁syyllistyneen	-10.7555
▁saavutti	-10.7558
▁elinkeino	-10.756
▁Puolustusvoimie	-10.7561
▁hyppää	-10.7564
▁kehotti	-10.7566
yhdiste	-10.7566
▁Minusta	-10.7568
▁tue	-10.7569
í	-10.7569
▁edetessä	-10.7569
▁Toistaiseksi	-10.7569
▁tietenkään	-10.7569
▁luksus	-10.7569
▁Ottawa	-10.7569
▁Vantaalla	-10.757
▁lähipiiri	-10.7571
▁Finlandi	-10.7572
sch	-10.7572
tilaisuuksi	-10.7572
▁vertailu	-10.7573
elokuvan	-10.7573
▁vaikuta	-10.7578
▁yksinkertais	-10.7578
▁varoitti	-10.7582
▁Näistä	-10.7585
▁keskeyttä	-10.7586
▁Kuka	-10.7586
valmistaja	-10.7587
▁uudis	-10.7588
uudeksi	-10.7588
▁yleisölle	-10.7589
nousu	-10.7589
▁lempi	-10.7591
vall	-10.7594
muksen	-10.7594
▁sujui	-10.7595
▁yhdistä	-10.7595
kla	-10.7595
▁hyvällä	-10.7597
▁aiheuttami	-10.7598
maajoukkue	-10.7598
▁hidasta	-10.7599
und	-10.7599
▁tuule	-10.7601
▁tuhansi	-10.7602
selta	-10.7604
▁venäläiset	-10.7607
lisä	-10.7607
▁ravinto	-10.7608
▁voimme	-10.7609
▁syys	-10.7613
▁seurannut	-10.7615
▁harrastus	-10.7617
▁Wilma	-10.7618
vuotiaita	-10.7619
▁järjestely	-10.7619
16	-10.7621
▁hinnan	-10.7623
ottaja	-10.7623
▁vihje	-10.7625
▁syöttö	-10.7627
▁tähtien	-10.7629
▁Ilman	-10.763
29	-10.7633
▁Sergei	-10.7634
▁ZUMA	-10.7634
▁asevoimien	-10.7634
▁Kolmanne	-10.7634
▁rikoskomisario	-10.7634
▁sisäise	-10.7634
fl	-10.7635
▁Matias	-10.7635
▁Tällaisi	-10.7636
▁Kiitos	-10.7636
▁osaksi	-10.7637
▁kolari	-10.7638
▁keskittyä	-10.7638
▁ajatuksia	-10.7638
▁millaise	-10.7638
▁kiinnostunut	-10.7645
rada	-10.7645
▁vakaa	-10.7645
▁Ruotsiin	-10.7646
▁ystävänsä	-10.765
▁Oh	-10.7652
▁nimet	-10.7652
▁päällikkö	-10.7655
eistä	-10.7655
eks	-10.7658
▁petty	-10.766
▁Yorkissa	-10.7663
turnauksessa	-10.7669
▁Nur	-10.7676
▁autossa	-10.7676
▁polvi	-10.7679
kate	-10.768
teesta	-10.7681
▁riskiä	-10.7681
▁suksi	-10.7682
▁selväksi	-10.7686
yden	-10.7686
▁Leppä	-10.7686
▁seka	-10.7687
teinen	-10.7692
▁maailmalla	-10.7693
hdan	-10.7693
▁antamaan	-10.7695
alojen	-10.7698
▁keuhko	-10.7699
▁millaista	-10.7699
▁monelle	-10.7699
▁kirjoittanut	-10.77
kisoista	-10.7701
▁supertähti	-10.7701
▁havaittiin	-10.7703
kri	-10.7703
▁esitetään	-10.7703
▁Ori	-10.7705
▁katoa	-10.7711
▁tavallaan	-10.7711
▁Kaivo	-10.7714
▁hallitseva	-10.7715
▁Kahde	-10.7718
▁Minna	-10.772
▁Keto	-10.772
▁nyrkkeily	-10.7722
▁kaata	-10.7723
oire	-10.7724
▁avun	-10.7725
▁turvallise	-10.7726
aikainen	-10.7727
▁reilusti	-10.7727
▁päästään	-10.7727
▁diagnoosi	-10.7729
▁Tom	-10.773
tuottee	-10.7732
▁2003	-10.7733
▁Krist	-10.7734
▁jumi	-10.7737
▁Mak	-10.7739
▁rekisteri	-10.7741
▁kollega	-10.7741
päivystykse	-10.7743
tonin	-10.7745
▁Sala	-10.7746
▁tilanteissa	-10.775
ttäviä	-10.7751
▁Hir	-10.7754
▁omistaa	-10.7754
▁Oikeuden	-10.7756
urheilun	-10.7758
tetut	-10.7758
▁julkaistussa	-10.7758
▁ennustaa	-10.7759
▁parane	-10.7759
gaala	-10.7761
▁Finland	-10.7764
▁ehdollise	-10.7764
▁myynnissä	-10.7764
▁Toimittaja	-10.7764
▁peräkkäin	-10.7764
▁keskelle	-10.7764
▁yhtäkkiä	-10.7764
▁Halonen	-10.7764
▁pettymys	-10.7764
▁varmistu	-10.7765
projekti	-10.7765
▁kaupunkiin	-10.7765
▁Tosi	-10.7766
▁Q	-10.7767
▁Vance	-10.7767
misessä	-10.7768
▁luokkaa	-10.7768
▁muualle	-10.7769
▁Charlesin	-10.7769
▁Tei	-10.7769
▁Pyy	-10.777
▁kiittää	-10.7771
▁Nico	-10.7771
▁miehensä	-10.7773
▁Mur	-10.7774
huo	-10.7774
▁silta	-10.7775
▁ohjelmaan	-10.7776
▁Naisen	-10.7776
vaikuttamis	-10.7776
▁jouko	-10.7779
▁jarru	-10.778
▁torjunta	-10.7784
paketti	-10.7785
▁Pieni	-10.7786
▁terveydenhuollo	-10.7786
huollon	-10.7787
▁ilmoittautu	-10.7788
▁fa	-10.7789
▁alukse	-10.7794
kokemukse	-10.7795
▁Lisää	-10.7798
ew	-10.7801
kylä	-10.7801
▁yhteyden	-10.7803
▁huomioida	-10.7805
▁ajava	-10.7808
▁pääsarja	-10.7812
kiele	-10.7814
▁millaisia	-10.7818
vallan	-10.7822
▁ruumiin	-10.7822
▁puku	-10.7822
▁tonni	-10.7824
▁ajalla	-10.7825
▁poikkeuksellis	-10.7827
sellä	-10.783
▁muistetaan	-10.783
▁riemu	-10.783
▁mielellään	-10.7831
▁3-2	-10.7832
▁Kysely	-10.7834
▁heittää	-10.7836
▁Tavio	-10.7836
▁kertoneet	-10.7837
ffi	-10.7838
▁kauhu	-10.7839
▁alkamis	-10.7839
paikat	-10.7846
▁syyttäjän	-10.7847
ttujen	-10.7856
Ko	-10.7856
▁seuraavat	-10.7857
▁esittämä	-10.7858
▁stadioni	-10.7861
Matti	-10.7862
vapaa	-10.7862
▁kuljettajan	-10.7864
▁havainto	-10.7867
▁Alle	-10.7869
ihinsa	-10.7873
▁edustajat	-10.7875
▁määräsi	-10.7877
▁lähetyksessä	-10.7879
▁avain	-10.7886
rajan	-10.7887
▁kappaleen	-10.7888
▁asettaa	-10.7891
kiellon	-10.7893
▁Tuleva	-10.7893
▁kannattaja	-10.7894
▁passi	-10.7894
▁Karjala	-10.7895
▁rehtori	-10.7896
▁vanhoja	-10.7896
▁muttei	-10.7896
▁sauno	-10.7897
▁tehta	-10.7902
▁luottamukse	-10.7903
▁Camilla	-10.7905
▁uudelle	-10.7906
▁Areena	-10.7908
▁marja	-10.7909
▁vasten	-10.7912
die	-10.7915
tymään	-10.7917
pronssi	-10.7918
▁välille	-10.7919
ohjelmaan	-10.7919
ppel	-10.7921
sihteeri	-10.7922
▁kisat	-10.7923
▁Välillä	-10.7923
▁Usko	-10.7924
▁tehtävään	-10.7932
▁vastuuta	-10.7933
▁törmä	-10.7933
▁liito	-10.7937
▁elämästä	-10.7939
▁Yhden	-10.7941
▁poistaa	-10.7943
▁tutkinnanjohtaj	-10.7943
ves	-10.7944
Se	-10.7945
▁Tro	-10.7946
▁hallitusohjelma	-10.7946
▁kerrallaan	-10.7948
▁kävel	-10.7952
▁Ruo	-10.7953
▁suuret	-10.7954
yrityksi	-10.7957
▁saatava	-10.7959
▁korjata	-10.7959
▁kop	-10.7961
▁Heiskanen	-10.7963
▁Kennedy	-10.7963
▁Swift	-10.7963
▁ylipäätään	-10.7963
▁sinua	-10.7963
▁toimija	-10.7963
▁Kurskin	-10.7963
▁harmaa	-10.7963
▁oltu	-10.7963
▁Salonen	-10.7964
▁sattuu	-10.7965
▁peräisin	-10.7966
▁mittaise	-10.7967
▁Mike	-10.7968
sivuston	-10.7969
kaasu	-10.7971
▁Harju	-10.7972
▁Selvi	-10.7972
▁Sol	-10.7972
▁Kyl	-10.7974
▁havai	-10.7975
▁rauhallise	-10.7976
▁Kansainvälisen	-10.7977
kuulu	-10.7979
▁sankari	-10.798
▁valmiita	-10.7983
neenä	-10.7985
▁Hovi	-10.7985
▁poiki	-10.799
▁tukema	-10.799
▁Kaupunki	-10.7992
Li	-10.7997
▁kuvattu	-10.7997
▁vankila	-10.7999
▁väsy	-10.7999
28	-10.7999
▁Emmi	-10.8001
▁Tiedottee	-10.8002
▁Timesin	-10.8002
ttömiä	-10.8004
▁merkittäviä	-10.8005
▁hakee	-10.8006
neuvottelut	-10.8009
varuste	-10.8011
▁el	-10.8018
▁sijalle	-10.8019
▁sovellu	-10.8019
▁Purran	-10.802
▁pop	-10.802
yksikön	-10.8021
▁keli	-10.8022
▁yhteistä	-10.8022
▁Kol	-10.8027
▁lukemin	-10.8029
pah	-10.8029
▁spekuloi	-10.803
▁Valmentaja	-10.803
▁Puhakka	-10.803
▁Varsinkin	-10.803
▁muusikko	-10.803
▁Lahdessa	-10.803
▁sprintti	-10.803
Amerikan	-10.803
▁irrot	-10.8031
▁Tutkimus	-10.8032
▁yleisradioyhtiö	-10.8032
▁Lotta	-10.8033
▁joukot	-10.8033
▁oireet	-10.8035
▁Koira	-10.8035
▁kotoa	-10.8038
keskuksessa	-10.8039
▁kuohu	-10.804
▁ihmettelee	-10.8041
▁rallin	-10.8042
▁liigassa	-10.8048
▁Ford	-10.805
▁perheelle	-10.8051
▁miljoonalla	-10.8052
▁jatkamaan	-10.8052
menettely	-10.8053
▁pitkällä	-10.8053
▁hil	-10.8054
▁Alue	-10.8056
rikos	-10.8057
▁syty	-10.8059
▁vaikutuksen	-10.806
▁ly	-10.8061
▁heikentää	-10.8061
▁parhaaksi	-10.8062
▁vihja	-10.8065
▁vis	-10.8067
maalin	-10.8072
▁vaikuttava	-10.8075
▁Can	-10.8076
▁sääntö	-10.808
tettaisiin	-10.8083
▁opiskeli	-10.8088
▁Ajo	-10.8088
▁lauta	-10.8089
isissä	-10.809
▁Koske	-10.809
kampanja	-10.8093
▁Villa	-10.8093
PA	-10.8094
tyvät	-10.8094
▁Thomas	-10.8097
▁tällöin	-10.8097
▁olympialaisiin	-10.8097
▁Kaikkonen	-10.8097
▁riippumatta	-10.8098
▁myöntänyt	-10.81
▁esittelee	-10.8102
▁käyttäji	-10.8103
▁Boston	-10.8103
▁tuovat	-10.8103
▁ihmetteli	-10.8104
▁Tähti	-10.8106
▁artikkelissa	-10.8106
▁valokuva	-10.811
▁täyteen	-10.8111
tumisen	-10.8112
▁Kotimaa	-10.8112
tilojen	-10.8112
▁ainut	-10.8114
▁mahdollistaa	-10.8114
▁medialle	-10.8115
▁unionin	-10.8115
▁asunnosta	-10.8117
▁välisen	-10.8119
rekisteri	-10.8121
▁puhuttu	-10.8121
puolustaja	-10.8122
▁huolestuttava	-10.8125
aihe	-10.8126
▁kiristä	-10.8126
▁remontti	-10.8128
▁selviä	-10.813
▁Syn	-10.8132
▁Bal	-10.8142
▁ratkaisuja	-10.8143
▁keskiarvo	-10.8143
▁Minulle	-10.8143
▁kohdistunee	-10.8147
▁lavalle	-10.8148
▁pelottava	-10.8148
▁Press	-10.8148
▁pysäyttä	-10.8149
▁uudistu	-10.8151
▁onnistuu	-10.8152
ez	-10.8154
▁kuolleena	-10.8156
▁ulkomaan	-10.8157
ttuna	-10.8158
utensa	-10.8161
▁leima	-10.8161
▁summaa	-10.8161
▁keinoja	-10.8162
▁Mercedes	-10.8165
▁tauko	-10.8167
▁Piene	-10.8168
▁vaikutukset	-10.8168
▁ajoittain	-10.8168
▁keula	-10.8169
▁sotilaallise	-10.8169
▁meistä	-10.8172
▁Odo	-10.8172
▁todellise	-10.8175
ennuste	-10.8177
▁piikki	-10.8177
llisuuden	-10.8179
▁maanantain	-10.8181
▁kuuntele	-10.8183
▁ratkaisun	-10.8185
▁keskustelun	-10.8186
▁työntekijää	-10.8189
rikoksista	-10.819
▁Talvi	-10.8191
▁tarkkaa	-10.8194
kurssi	-10.8194
vankeusrangaistu	-10.8195
▁valiokunnan	-10.8196
▁kolmeen	-10.8197
▁yritykset	-10.8198
▁Martti	-10.8198
▁lähtivät	-10.8205
▁10-	-10.8206
halu	-10.8209
▁Anderssonin	-10.821
kier	-10.8211
▁peittä	-10.8212
▁juusto	-10.8219
kiertue	-10.8222
nnoissa	-10.8222
▁rangaist	-10.8222
päätös	-10.8223
▁77	-10.8225
▁myydä	-10.8227
tutkimus	-10.8229
lento	-10.823
▁Tapaukse	-10.823
а	-10.8234
▁perustuslaki	-10.8234
▁Hollywood	-10.8234
▁Slovenia	-10.8234
▁järjestettävä	-10.8234
▁tavanomaista	-10.8234
▁todellisuudessa	-10.8234
▁annettiin	-10.8235
▁sisältöä	-10.8235
▁puutarha	-10.8235
paine	-10.8236
▁linjan	-10.8237
▁nopeammin	-10.8238
▁pyri	-10.8239
▁uudella	-10.8242
▁juhlissa	-10.8243
▁riippuu	-10.8244
▁hyväksyä	-10.8245
▁kääntyi	-10.8248
▁Aleksand	-10.8248
sarjaan	-10.825
kaus	-10.8251
▁pelaajaa	-10.8252
▁ranskalais	-10.8252
▁terroristi	-10.8254
aineisto	-10.8256
▁muutokset	-10.8256
lämpö	-10.8256
aaleja	-10.8257
tuomari	-10.8259
sp	-10.826
yrittäjä	-10.8261
▁kartano	-10.8262
▁hermo	-10.8262
▁näkymä	-10.8264
▁puhemies	-10.8267
▁via	-10.8268
rangaistuksen	-10.8271
kohu	-10.8275
▁oikeudenkäynni	-10.8276
▁Tunne	-10.8278
▁Stars	-10.8278
dal	-10.8281
▁tekisi	-10.8282
▁Miele	-10.8285
▁tarjosi	-10.8288
▁eron	-10.8288
▁heräsi	-10.829
▁Loimaa	-10.829
gaalassa	-10.8293
▁päättävä	-10.8295
▁ajatteli	-10.83
▁Netflix	-10.8303
▁kansainvälinen	-10.8303
▁talvella	-10.8303
▁Ammatti	-10.8303
▁Tuntuu	-10.8303
vaihtoehdo	-10.8303
▁Isku	-10.8304
▁taposta	-10.8304
pul	-10.8306
▁pääkaupunki	-10.8306
▁runkosarja	-10.8307
▁Tuisku	-10.831
▁tuhoa	-10.8323
▁oppia	-10.8323
▁tapon	-10.8326
▁näkemys	-10.8328
professori	-10.833
maajoukkueen	-10.8333
▁tekevä	-10.8334
▁kesto	-10.8335
98	-10.8336
▁tuttuja	-10.8341
yhtymä	-10.8341
▁näkyvi	-10.8341
75	-10.8345
▁olosuhteissa	-10.8347
▁osavaltiossa	-10.8347
▁min	-10.8348
▁katastrofi	-10.8349
▁todellakaan	-10.8349
▁tippu	-10.8351
tietoja	-10.8359
▁pimeä	-10.8366
▁Lähe	-10.8372
▁arvelee	-10.8372
▁Toronto	-10.8372
▁maksettava	-10.8372
▁3-0	-10.8372
▁tuhanne	-10.8373
luvan	-10.8373
▁ottaen	-10.8373
▁Pelaaja	-10.8373
▁Johannes	-10.8373
▁kertyi	-10.8373
▁Vilpas	-10.8374
▁kolmatta	-10.8374
▁työllisyys	-10.8375
▁Vie	-10.8375
-16	-10.8375
▁Japani	-10.8376
▁menettänyt	-10.8377
▁tyypillisesti	-10.8378
vaalit	-10.8379
▁ilm	-10.838
▁haltuunsa	-10.8382
▁vitsi	-10.8382
▁kokema	-10.8382
▁päivällä	-10.8383
▁rakentamis	-10.8383
▁metsi	-10.8385
▁Kom	-10.8385
lähtökohtaisesti	-10.8386
▁ympärille	-10.8387
▁Vilppaan	-10.8387
▁osallistumise	-10.8391
▁2,5	-10.8394
▁epäiltyä	-10.8394
telty	-10.8398
ilevat	-10.8399
viranomaiset	-10.8401
▁kulunut	-10.8406
▁helikopteri	-10.8406
viikon	-10.841
▁apulais	-10.8412
▁Espanjassa	-10.8415
▁harjoittele	-10.8416
▁mistään	-10.8416
▁62	-10.8416
▁Sir	-10.8417
▁pime	-10.842
lippu	-10.8424
▁palkat	-10.8429
potti	-10.8432
▁anti	-10.8432
kkeiden	-10.8435
▁saapuivat	-10.8435
▁käyvät	-10.8436
1)	-10.8436
Venäjän	-10.8437
▁avu	-10.8439
▁40-	-10.8439
▁People	-10.8442
▁Tavoitteena	-10.8442
▁pidempään	-10.8442
▁propaganda	-10.8442
▁aamupäivällä	-10.8442
▁ulkonäkö	-10.8442
▁nähtävä	-10.8442
▁lääkkee	-10.8442
▁vaalea	-10.8443
▁Kävi	-10.8444
▁Volvo	-10.8445
suunnittelija	-10.8445
▁Älä	-10.8446
iten	-10.8446
▁vaaraa	-10.8447
▁toisistaan	-10.8447
haku	-10.8449
▁Wol	-10.8451
talouden	-10.8451
▁Videolla	-10.8454
▁valtuusto	-10.8455
▁Robin	-10.8458
▁kissa	-10.846
▁äänesti	-10.8461
▁musti	-10.8463
Pohjanmaalla	-10.8463
▁ajattelee	-10.8463
ahdus	-10.8467
Ei	-10.8469
▁näyttäisi	-10.8469
▁kohtasi	-10.8471
▁yleisöä	-10.8471
kamppailu	-10.8471
▁Joel	-10.8472
▁kaksikon	-10.8473
▁eduskuntaryhmä	-10.8478
▁malt	-10.8478
▁turvallisuutta	-10.8479
impia	-10.8484
valinta	-10.8485
▁asunnossa	-10.8486
▁päästö	-10.8487
▁käyttämi	-10.8488
▁vaaleja	-10.8488
tiedustelu	-10.849
tettyä	-10.8493
▁Entä	-10.8495
▁baari	-10.8498
▁elokuvassa	-10.8498
stre	-10.8499
▁yhteistyössä	-10.8502
▁kaup	-10.8504
▁päi	-10.8505
▁kuluttaji	-10.8506
▁Pallo	-10.8506
▁19-	-10.8506
55	-10.8508
▁yksityise	-10.8512
▁Kinnunen	-10.8513
▁Niemelä	-10.8513
▁kansanedustaji	-10.8513
▁naimisissa	-10.8513
▁väitteitä	-10.8513
▁JYP	-10.8513
▁Pirkanmaan	-10.8513
▁Yritys	-10.8513
▁Smith	-10.8513
misella	-10.8513
▁selvinnyt	-10.8513
▁siirtynyt	-10.8514
▁kuvitella	-10.8515
▁kolmesta	-10.8515
▁näihin	-10.8515
▁ilmapiiri	-10.8516
▁lievä	-10.8521
▁tunniste	-10.8521
▁Adam	-10.8522
kseksi	-10.8522
▁Joku	-10.8523
▁hyppy	-10.8523
kello	-10.8526
▁väistä	-10.8527
▁Hussi	-10.8528
▁sairasta	-10.8529
▁kirje	-10.853
▁Tapaus	-10.8533
▁valkoise	-10.8533
▁onnettomuudessa	-10.8535
▁Malmö	-10.8535
▁hallituksessa	-10.8535
▁vastuussa	-10.8536
▁antavat	-10.8537
▁merkin	-10.854
▁muodossa	-10.8541
▁64	-10.8543
hö	-10.8544
gri	-10.8545
▁taito	-10.8545
▁aikaisin	-10.855
▁hillit	-10.8552
▁pienet	-10.8553
▁loppui	-10.8553
wan	-10.8554
▁Nyky	-10.8555
paikalta	-10.8555
▁asemassa	-10.8556
▁tapahtunutta	-10.8558
▁ystäv	-10.8561
mmiksi	-10.8562
▁neljänneksi	-10.8564
▁johda	-10.8565
▁2-1	-10.8566
▁(20	-10.8566
▁Tomi	-10.8567
rooli	-10.8568
▁seuraamaan	-10.857
back	-10.857
kyl	-10.8577
▁ärsy	-10.8582
komitea	-10.8582
tilaisuuden	-10.8582
▁Artikkeli	-10.8584
▁Google	-10.8584
▁Navalnyi	-10.8584
▁Yhdysvaltalais	-10.8584
▁juhannus	-10.8584
▁löydetty	-10.8584
▁1970-	-10.8584
▁lännen	-10.8585
▁liikkumis	-10.8587
▁Kesäkuu	-10.8588
▁syytteen	-10.8588
▁kiitollinen	-10.8589
▁käyttävät	-10.8589
lause	-10.8589
▁Payne	-10.8589
▁Niskasen	-10.8591
▁vanhoi	-10.8593
▁lopputulokse	-10.8593
▁paikasta	-10.8594
▁MVPhotos	-10.8597
politiikka	-10.8598
▁Panthers	-10.8598
▁suostunut	-10.8601
▁sekunnissa	-10.8602
▁oululais	-10.8602
▁Facebookissa	-10.8603
lautakunnan	-10.8603
▁eläkkeelle	-10.8604
▁Eurooppaan	-10.8606
dellyt	-10.8609
▁kansalaisia	-10.8613
▁mallia	-10.8614
▁tarjoa	-10.8614
▁länsimai	-10.8615
▁Tutkija	-10.8617
▁palaute	-10.8619
▁Ruoka	-10.8624
doista	-10.8625
▁Talous	-10.8626
▁kokeilla	-10.8629
▁Hui	-10.8632
teella	-10.8634
▁energiaa	-10.8637
▁ulkoministeriön	-10.8638
▁juokse	-10.8638
▁Eduskunta	-10.8639
▁Maija	-10.8639
ikat	-10.864
varasto	-10.864
▁siirtä	-10.8644
▁Sanni	-10.8646
▁tär	-10.8648
▁lavalla	-10.865
▁jatkoa	-10.8651
▁tyhj	-10.8653
▁aiheuttavat	-10.8654
lava	-10.8654
▁Chicago	-10.8655
▁Liverpool	-10.8655
▁stressi	-10.8655
▁peräkkäis	-10.8655
▁Hämeenlinna	-10.8655
▁hyökkäyssota	-10.8656
▁kotimaise	-10.8656
▁luonnehti	-10.8657
▁lentopallo	-10.8658
▁temppu	-10.8658
▁ammuttiin	-10.8662
kuo	-10.8664
▁roska	-10.8667
▁kauko	-10.8668
vart	-10.8669
▁järjestetyssä	-10.867
▁korjaa	-10.8673
▁nostettu	-10.8674
▁opinto	-10.8674
▁jatkoon	-10.8675
▁tulva	-10.8676
▁KU	-10.8677
▁live	-10.8679
▁toisena	-10.8679
▁huolen	-10.8683
▁kuntien	-10.8683
▁sydämen	-10.8684
suojelu	-10.8685
▁tehtäviä	-10.8686
kylän	-10.8686
▁kokemuksia	-10.8687
opettaja	-10.8687
▁Tyson	-10.8688
▁kampanjoi	-10.8691
▁useimmi	-10.8699
▁puheessaan	-10.87
▁vajaat	-10.8705
kanavan	-10.8707
rasi	-10.8708
▁ministeriö	-10.871
▁ajattelu	-10.8711
▁kah	-10.8714
▁muutoksen	-10.8717
▁toimet	-10.8718
▁kädessä	-10.8718
▁litra	-10.8721
joukko	-10.8722
kustannuksi	-10.8724
▁turnaus	-10.8726
▁Tällöin	-10.8727
▁Barcelona	-10.8727
▁McLaren	-10.8727
▁edennyt	-10.8727
▁kieltäytyi	-10.8727
▁tasku	-10.8727
▁erikoinen	-10.8727
▁monessa	-10.8728
▁asteeseen	-10.8729
▁kiistänyt	-10.8729
pyöräilijä	-10.8729
▁Pyhä	-10.873
▁Kr	-10.8731
▁Leino	-10.8732
▁löytyvät	-10.8733
▁uuni	-10.8734
▁And	-10.8736
▁lukea	-10.8737
▁avioero	-10.8737
▁Riku	-10.8738
▁onnellinen	-10.8738
▁Tallinna	-10.8739
dro	-10.8742
elu	-10.8744
rg	-10.8744
▁hauskaa	-10.8744
▁erilaiset	-10.8747
kunnioit	-10.8749
▁tauon	-10.8749
este	-10.8751
▁nuorta	-10.8752
puiston	-10.8756
▁Luke	-10.8756
▁Suominen	-10.8756
hetke	-10.8757
uksien	-10.8761
▁edellyttää	-10.8763
yhteistyö	-10.8763
tehtaan	-10.8763
▁Viranomaise	-10.8763
▁housu	-10.8764
▁Mah	-10.8766
alusta	-10.8767
vol	-10.8767
rov	-10.8768
▁rajoitta	-10.8768
ohjelmasta	-10.8769
▁Ag	-10.8772
▁myymälä	-10.8772
▁liittyvää	-10.8776
▁jakama	-10.8778
rivi	-10.8786
▁Somero	-10.8795
▁toimeen	-10.8798
▁Essayah	-10.8799
▁Hämäläinen	-10.8799
▁Ryhmä	-10.88
▁Viertola	-10.88
▁Helsingistä	-10.88
▁vappu	-10.8802
▁Jarkko	-10.8802
tyvä	-10.8805
▁vaaditaan	-10.8807
▁Asunto	-10.8807
eille	-10.8807
▁päättymis	-10.8814
▁festivaali	-10.8814
▁Kone	-10.8816
▁lähtevät	-10.8817
▁195	-10.8818
▁rakentaminen	-10.882
tavia	-10.882
siiv	-10.8822
▁hirveästi	-10.8825
kohdat	-10.8827
▁Kesällä	-10.8829
pullo	-10.8829
pisteet	-10.8833
myynti	-10.8837
kohteisiin	-10.884
▁vaarallisi	-10.8845
44	-10.8845
▁paksu	-10.8846
▁23-	-10.8849
▁kuvattiin	-10.885
▁tulleen	-10.8852
▁vuosikymmen	-10.8852
▁leveä	-10.8854
▁ale	-10.8854
▁pelaamise	-10.8855
▁vakavi	-10.886
▁omiin	-10.8865
▁tietoon	-10.8866
kuntaa	-10.8871
▁tup	-10.8871
järjestöjen	-10.8872
▁tutkintaa	-10.8872
▁teollisuus	-10.8872
vuotiaat	-10.8872
▁enimmä	-10.8872
▁johtui	-10.8873
▁Kuusamo	-10.8873
▁perussuomalaisi	-10.8873
▁johdosta	-10.8873
▁läsnäolo	-10.8873
▁käden	-10.8874
▁kiihty	-10.8874
▁cha	-10.8875
neestä	-10.8875
▁Kra	-10.8876
▁vuorokauden	-10.8877
▁päiviä	-10.8877
▁viihde	-10.8879
▁Angelesi	-10.888
▁pudot	-10.8881
▁60-	-10.8881
▁kasvattaa	-10.8885
▁Kent	-10.8886
up	-10.8888
▁laskea	-10.889
kro	-10.8893
▁kestänee	-10.8894
ttavissa	-10.8895
▁luonne	-10.8896
▁pitkäaikais	-10.8897
▁hallitusta	-10.89
▁ääneen	-10.8903
lähtee	-10.891
▁arjen	-10.8911
rahaa	-10.8913
▁Niistä	-10.8914
▁testaa	-10.8916
▁Audi	-10.8918
▁Mac	-10.8919
ktio	-10.8921
kokouksessa	-10.8922
▁kolmannessa	-10.8923
misia	-10.8929
▁urhe	-10.8932
isillä	-10.8933
▁kustannukset	-10.8934
▁Juu	-10.8935
▁valmistui	-10.8937
To	-10.8938
peliä	-10.8938
lääketietee	-10.894
sco	-10.8941
loo	-10.8942
ilijoiden	-10.8944
uuksia	-10.8944
päällikön	-10.8946
@	-10.8946
▁liikkeellä	-10.8946
▁sähköpostitse	-10.8946
▁Ajattelin	-10.8946
▁hävinnyt	-10.8946
▁asenne	-10.8947
▁Ava	-10.8948
sängy	-10.8951
▁taloutta	-10.8953
▁Valkea	-10.8954
▁viimeisellä	-10.8954
▁varmista	-10.8955
▁muodostu	-10.8955
▁valitettavasti	-10.8955
▁pidety	-10.8955
▁Praha	-10.8956
▁pysynyt	-10.8956
▁päätoimittaja	-10.8957
▁pudotta	-10.8958
▁katsomassa	-10.896
▁käsissä	-10.8961
▁kohtaavat	-10.8963
▁Hag	-10.8963
leet	-10.8964
▁alkuvuodesta	-10.8964
▁Etu	-10.8964
tuotteita	-10.8965
▁ehdi	-10.8965
▁Nuoret	-10.8966
▁Spe	-10.8966
ttamalla	-10.8979
▁Yh	-10.8979
▁kulunee	-10.898
▁tuntua	-10.8984
▁lipun	-10.8984
▁verkkoon	-10.8985
▁lainsäädäntö	-10.8987
▁keskiviikko	-10.8987
▁riippuen	-10.8991
▁roolia	-10.8992
▁kiinnostaa	-10.8992
▁lataa	-10.8996
▁tarkoita	-10.8996
kselta	-10.9
▁ottama	-10.9
▁säätä	-10.9003
ehdokkai	-10.9006
off	-10.9007
▁äärioikeisto	-10.9007
▁ruotsalaise	-10.9009
tilanteesta	-10.901
▁saldo	-10.901
▁vastustajan	-10.9013
paikoista	-10.9013
▁tietoinen	-10.9014
yl	-10.9017
▁käsitys	-10.9019
н	-10.902
▁Räsänen	-10.902
▁moderni	-10.902
▁mieluummin	-10.902
▁henkeä	-10.902
▁oudo	-10.9021
▁olympiakomitea	-10.9021
▁poissaolo	-10.9021
▁alkupuolella	-10.9023
▁ilmenee	-10.9024
▁rakkaus	-10.9024
kkeli	-10.9024
▁putki	-10.9027
▁maakunna	-10.9028
▁Iivo	-10.9032
▁toisinaan	-10.9032
▁Kati	-10.9033
vyyttä	-10.9035
▁sali	-10.9035
▁turma	-10.9036
▁esitystä	-10.9036
▁tunnistaa	-10.9039
▁seurue	-10.9043
▁Italiassa	-10.9046
▁Kotka	-10.9046
27	-10.9049
▁Myy	-10.9049
neessa	-10.9053
tarkastaja	-10.9055
▁sivuun	-10.9055
johtaj	-10.9056
▁varapuheen	-10.9059
▁vakuutti	-10.9059
kanavalla	-10.9062
PS	-10.9065
televat	-10.9071
▁juttuja	-10.9075
▁bio	-10.9079
▁metsästä	-10.9081
johtoon	-10.9081
mmäksi	-10.9083
▁Stora	-10.9093
▁myöten	-10.9095
▁mainio	-10.9095
▁intohimo	-10.9095
▁huijaus	-10.9095
▁Veitola	-10.9095
▁hyökkäyssodan	-10.9095
▁operoi	-10.9095
johtajana	-10.9095
▁2-3	-10.9096
▁olympiavoittaja	-10.9096
▁pelejä	-10.9096
▁82	-10.9097
▁Pihla	-10.9097
▁käyntiin	-10.9097
▁alkuperäise	-10.9099
▁Jarmo	-10.9099
▁jyrä	-10.91
▁tietokone	-10.9106
75-	-10.9106
▁pohjoisessa	-10.9108
kiertueen	-10.9108
▁syitä	-10.9108
▁Sieltä	-10.9109
jin	-10.911
▁näkyvät	-10.9112
▁luokse	-10.9112
kunnalle	-10.9113
▁kuvaus	-10.9113
▁runsas	-10.9113
▁vaarassa	-10.9117
▁nostanut	-10.9118
pommi	-10.9122
▁Jääkiekko	-10.9125
▁potkut	-10.9126
▁kansainvälistä	-10.913
▁nosto	-10.9131
huoneeseen	-10.9133
▁alueiden	-10.9134
▁Port	-10.9136
hevos	-10.9136
▁ruuhka	-10.9137
▁puhetta	-10.9141
▁yleistä	-10.9142
ttäneensä	-10.9143
presidentti	-10.9143
lapsi	-10.9146
suuden	-10.9147
▁Seudu	-10.9149
▁lyhyen	-10.9152
▁Viisi	-10.9152
joukkojen	-10.9153
▁potku	-10.9154
▁etsiä	-10.9155
▁verkkosivu	-10.9158
▁hankkia	-10.916
▁toisten	-10.916
▁Eräs	-10.9168
▁Adlercreutz	-10.917
▁Youtube	-10.917
е	-10.917
▁puhelimen	-10.917
▁miehistä	-10.917
▁Sauber	-10.9171
▁Meksiko	-10.9172
▁Lain	-10.9172
otetta	-10.9173
▁uskomattoma	-10.9174
päivityksessään	-10.9175
miset	-10.9178
▁uhriksi	-10.918
oikeuksien	-10.918
▁helpottaa	-10.918
verkosto	-10.9181
▁kysyä	-10.9181
puistossa	-10.9181
▁käsittelee	-10.9182
▁menneet	-10.9182
▁tältä	-10.9183
▁mahdollisesta	-10.9184
47	-10.9192
▁Aaltonen	-10.9195
▁manageri	-10.9196
▁lähettämä	-10.9196
▁käytävä	-10.9197
▁sattum	-10.9198
kaappi	-10.92
▁Jim	-10.9204
▁oikeisto	-10.9205
▁valikoi	-10.9205
▁ryhmi	-10.9206
▁keskeyty	-10.921
paikkojen	-10.9211
▁loput	-10.9213
meren	-10.9213
tyttö	-10.9213
▁Olympiakomitean	-10.9214
jer	-10.9216
vuosina	-10.9218
▁rikkoi	-10.9221
yhtyeen	-10.9224
▁siisti	-10.9224
▁viimeisenä	-10.9227
far	-10.9228
rio	-10.9229
lähde	-10.9232
miestä	-10.9233
▁merkkejä	-10.9233
jär	-10.9235
▁perustaja	-10.9236
murha	-10.9239
▁nimessä	-10.9242
▁korti	-10.9244
opin	-10.9245
▁ryhtyi	-10.9246
и	-10.9246
▁München	-10.9246
▁hyppäsi	-10.9246
▁1999	-10.9246
▁mahtuu	-10.9246
lähetyks	-10.9246
▁Yllä	-10.9246
▁Kuinka	-10.9247
▁Itävallan	-10.9247
▁4-	-10.9247
▁laituri	-10.9248
▁perusteltu	-10.9248
▁levisi	-10.9249
▁Saudi	-10.925
isivät	-10.925
▁kotimaan	-10.9251
▁pienemmä	-10.9251
Ki	-10.9251
▁asiakkaiden	-10.9251
▁Olga	-10.9252
▁Soini	-10.9253
▁maailmancup	-10.9255
autojen	-10.9255
▁Aku	-10.9255
vuoren	-10.9256
car	-10.9257
neuvottelu	-10.9258
▁perhettä	-10.9263
sken	-10.9265
oksia	-10.9266
▁videolta	-10.927
palkinnon	-10.9273
▁Keske	-10.9278
▁merkittävää	-10.9278
▁vienyt	-10.9278
▁maaperä	-10.9278
▁Aloi	-10.9279
▁eroja	-10.9281
▁asiakkai	-10.9284
▁säilyttää	-10.9285
Espoo	-10.9286
myrsky	-10.9287
turnauksen	-10.9287
▁aikoja	-10.9288
▁Israelia	-10.9289
▁seiso	-10.9291
▁johonkin	-10.9291
kärry	-10.9291
▁infrastruktuuri	-10.9293
▁syöttöpiste	-10.9295
▁Sunnuntai	-10.9297
▁kisoihin	-10.9298
▁asuvat	-10.9299
▁Ah	-10.93
▁Bur	-10.9301
▁53	-10.9307
▁maista	-10.9308
▁myyty	-10.9308
▁osapuole	-10.931
▁kriittise	-10.9312
▁kunniaksi	-10.9312
▁roh	-10.9312
IS	-10.9313
▁kannattava	-10.9314
31	-10.9317
▁Bull	-10.9317
▁totea	-10.9318
jään	-10.9318
▁Kuvi	-10.9322
▁kaikessa	-10.9322
▁Heistä	-10.9323
▁ajettu	-10.9323
▁valtiovierailu	-10.9323
▁Korkea	-10.9324
▁asiakkaat	-10.9327
▁Rak	-10.9328
▁hautajais	-10.9329
▁nimeltään	-10.933
▁päiväkoti	-10.933
yksinkertaisesti	-10.933
▁pidätettiin	-10.9333
▁seksiä	-10.9333
▁takaise	-10.9334
pper	-10.9335
▁aikuisten	-10.9336
▁ajattelin	-10.9337
▁pariin	-10.9338
ttomaksi	-10.9339
▁Joni	-10.934
kierroks	-10.9343
▁sisälle	-10.9348
▁Jar	-10.9349
▁kameroi	-10.9349
▁studio	-10.935
kaupungin	-10.9351
▁Henna	-10.9351
▁for	-10.9353
▁osaamista	-10.9354
elämää	-10.9355
▁kunnosta	-10.9356
▁66	-10.9356
palkka	-10.9356
▁Vornasen	-10.9356
▁sijasta	-10.9359
▁67	-10.9359
hallinnon	-10.936
▁kirjattu	-10.9361
merkit	-10.9364
stro	-10.9367
▁Jutu	-10.9369
▁esine	-10.937
nnissa	-10.9373
▁matkaan	-10.9374
president	-10.938
▁mallin	-10.938
▁odottamaan	-10.9383
▁saatetaan	-10.9383
▁hiihtäjä	-10.9384
▁annos	-10.9385
▁kaudesta	-10.9387
▁vapaan	-10.9391
▁Hämeen	-10.9395
▁runsaa	-10.9396
öö	-10.9398
▁Pohjola	-10.9399
▁Viaplay	-10.9399
▁Minnesota	-10.9399
▁tallentui	-10.9399
▁Tähkä	-10.9399
▁odotuksi	-10.9399
▁Wall	-10.9399
▁yksityiskohtia	-10.9399
▁Leyen	-10.94
▁Taiwan	-10.94
▁Uutistoimisto	-10.94
▁TTK	-10.94
▁käteen	-10.9401
▁asiakkaille	-10.9401
▁Joukkueen	-10.9402
▁Turva	-10.9403
▁varautua	-10.9404
▁johdon	-10.9404
▁hedelmä	-10.9404
▁esittänyt	-10.9405
▁vaaran	-10.9408
▁puuttua	-10.9408
iro	-10.9409
▁useaan	-10.9409
▁uhria	-10.941
▁tuota	-10.9414
▁nimensä	-10.9414
▁1-2	-10.9415
▁72	-10.9415
▁mietin	-10.9415
▁kyseenalaista	-10.9418
käyttäytymis	-10.942
▁tehokkaa	-10.9421
▁mittaa	-10.9422
▁kuolemaa	-10.9422
▁moneen	-10.9425
▁Järjestö	-10.9426
▁Katsomo	-10.9426
uksille	-10.9428
▁Finnairin	-10.943
▁siirtolais	-10.943
▁instituutin	-10.9433
▁Viimeksi	-10.9436
▁podcast	-10.9437
▁vastustaji	-10.9438
▁tarvittava	-10.9439
▁tavata	-10.944
▁seurakunta	-10.944
ilmiö	-10.9443
▁rakenne	-10.9445
▁menestystä	-10.9451
22	-10.9452
▁paloi	-10.9453
ijoiden	-10.9457
▁laite	-10.946
▁kauppaa	-10.9465
▁huomaut	-10.9467
▁loppuu	-10.9469
▁hankinta	-10.9472
mestaruuden	-10.9472
▁joitain	-10.9473
▁irtisano	-10.9476
▁Com	-10.9476
▁Moottori	-10.9476
▁vankeutta	-10.9476
▁Ravintola	-10.9476
▁Ongelma	-10.9476
▁touhu	-10.9476
▁Palvelu	-10.9476
▁päättynyt	-10.9477
▁Amaz	-10.9477
▁taulu	-10.9477
▁päihde	-10.9477
▁Jul	-10.9478
▁valmistettu	-10.9479
▁pyrkinyt	-10.9481
▁yhtye	-10.9485
▁lähtemään	-10.9486
▁kannattaisi	-10.9487
▁63	-10.9488
▁Race	-10.9489
laitoksen	-10.949
▁kykene	-10.9492
▁jäseniä	-10.9493
ksemme	-10.9495
▁edustanut	-10.9496
virus	-10.9496
ksestä	-10.9497
dessä	-10.9497
▁Gran	-10.9498
mmistä	-10.9502
radan	-10.9512
ttelemään	-10.9514
▁tilassa	-10.9514
▁lausunnossaan	-10.9516
▁edellyttä	-10.9516
▁vaihtoi	-10.9517
▁Kaikkiaan	-10.9517
▁dokumentti	-10.9517
▁tasoit	-10.9518
▁suju	-10.952
▁Mir	-10.952
▁vapa	-10.952
joukot	-10.9521
▁katsojaa	-10.9527
todennäköis	-10.953
vaatimukse	-10.953
▁uhkaava	-10.9532
ydy	-10.9532
▁isäntä	-10.9532
▁voimakas	-10.9535
▁Bay	-10.9537
▁show	-10.9538
▁hämmästy	-10.9538
ely	-10.9539
▁talvena	-10.954
▁panos	-10.954
▁Neuvostoliiton	-10.954
▁lukuisi	-10.9546
▁Puhu	-10.9547
visa	-10.9551
▁kirkon	-10.9551
▁lähteiden	-10.9552
kr	-10.9553
▁kärsii	-10.9553
▁pr	-10.9553
▁hyvinvoinnin	-10.9554
Amerikassa	-10.9554
▁Tiedän	-10.9555
▁kipeä	-10.9555
▁Kolmas	-10.9555
▁metsästys	-10.9555
▁välityksellä	-10.9555
maista	-10.9555
▁kuntosali	-10.9555
▁traum	-10.9555
▁juure	-10.9555
▁uutuus	-10.9556
rahasto	-10.9556
▁tiukasti	-10.9557
▁tapauksissa	-10.9558
▁lip	-10.9558
▁rah	-10.956
▁täydellinen	-10.956
▁kohdistuu	-10.956
▁sinänsä	-10.9561
▁Linna	-10.9562
▁sanoja	-10.9563
▁korkei	-10.9564
▁Heillä	-10.9565
▁Jouko	-10.9566
▁säästöjä	-10.9569
▁hoitoa	-10.957
mel	-10.9571
▁tärkeintä	-10.9571
jilla	-10.9573
▁edullise	-10.9577
▁tuoksu	-10.9578
▁Lapset	-10.9579
▁sopivat	-10.9579
▁aiemmi	-10.958
▁tulokse	-10.958
▁sanotusti	-10.958
lim	-10.9582
sport	-10.9583
▁kyseinen	-10.9585
▁lähdössä	-10.9586
▁kentälle	-10.9591
▁vastustaa	-10.9595
ec	-10.9597
▁kansalaisten	-10.9598
▁74	-10.9598
vaikuttaja	-10.9599
▁olevasta	-10.96
taiteilija	-10.96
hyökkäys	-10.9601
jev	-10.9601
▁Tulo	-10.9602
▁Australian	-10.9602
kamera	-10.9603
▁Latvian	-10.9603
▁tuossa	-10.9604
▁yksittäise	-10.9605
▁tunnetuksi	-10.9606
▁oikeuteen	-10.9607
▁Bill	-10.961
▁vieläkään	-10.9611
▁Putinia	-10.9611
▁kävivät	-10.9613
▁kysymyksen	-10.9614
▁Kanna	-10.9615
▁vuosikymmenen	-10.9624
mmille	-10.9631
▁Alus	-10.9632
▁kaksois	-10.9633
▁etelässä	-10.9633
▁globaali	-10.9633
▁Scholz	-10.9633
▁Golf	-10.9633
▁Hollannin	-10.9633
▁diesel	-10.9633
▁auttoi	-10.9633
▁hiekka	-10.9634
▁hiljaise	-10.9634
▁puuttui	-10.9634
▁muutoksi	-10.9634
▁kuulostaa	-10.9634
▁leikkauksia	-10.9635
▁Markkase	-10.9635
▁Norris	-10.9636
▁avoimi	-10.9636
▁Lähteet	-10.9638
▁haastatteli	-10.9638
jöitä	-10.9638
▁liittyvän	-10.9639
▁palatsi	-10.964
▁hälytys	-10.964
▁kaltaisi	-10.9642
▁avusta	-10.9643
▁osallistuja	-10.9643
▁jättämään	-10.9646
▁verrat	-10.9648
▁pukeutunut	-10.9648
▁säästä	-10.965
▁aloittee	-10.965
▁runkosarjan	-10.965
▁taloon	-10.9652
▁rauhallisesti	-10.9653
▁kutsutaan	-10.9654
leh	-10.9655
▁Näiden	-10.9655
▁aikaise	-10.9656
▁Miami	-10.9657
▁palkkaa	-10.9657
▁epävarma	-10.9658
▁saari	-10.9659
▁mittaan	-10.9659
isellä	-10.9662
aalto	-10.9663
▁tekeminen	-10.9664
▁sotilaita	-10.9665
▁ote	-10.9665
sähkö	-10.9665
▁etsii	-10.9666
▁seksuaalisest	-10.9668
▁kultaa	-10.9669
▁Kerro	-10.9671
Mari	-10.9674
▁Heino	-10.9674
▁jäsentä	-10.9677
kehä	-10.9677
▁Sports	-10.9678
öljy	-10.968
▁sopimusta	-10.9686
▁perinteisi	-10.9687
▁yhdistelmä	-10.9687
▁kortti	-10.9689
▁loukkaantumise	-10.9691
▁asukas	-10.9693
▁oppilas	-10.9693
▁perusti	-10.9694
▁rauhaa	-10.9695
▁Tulos	-10.9698
▁Paula	-10.9699
▁76	-10.97
▁tiloissa	-10.9701
aamu	-10.9708
▁Aino	-10.9708
▁kuorma	-10.9709
▁Richard	-10.9712
▁pelatu	-10.9712
▁kasvava	-10.9712
▁Ahvenanmaa	-10.9713
▁Niklas	-10.9713
▁Kapanen	-10.9713
▁surkea	-10.9714
▁päättynee	-10.9714
▁Terveys	-10.9714
▁lakot	-10.9716
▁tuomitse	-10.9716
▁joukkueeseen	-10.9719
▁Tilantee	-10.9722
▁top	-10.9727
▁Arvio	-10.9729
▁treena	-10.9729
▁VR	-10.973
▁veren	-10.973
kulut	-10.9731
▁Yhde	-10.9735
▁kesää	-10.9739
▁äkki	-10.9739
Karjalan	-10.9739
▁tapahtumapaika	-10.9741
▁virtaa	-10.9741
▁Kanta	-10.9743
mylly	-10.9749
▁vastaaja	-10.9749
mor	-10.9749
▁metri	-10.975
▁Col	-10.9754
tuho	-10.9754
▁toimittajan	-10.9756
▁alueita	-10.9758
▁Viestin	-10.976
luottamus	-10.9761
näyttely	-10.9763
▁saattanut	-10.9764
▁joutuivat	-10.9769
▁lämmi	-10.977
▁käveli	-10.9772
rum	-10.9776
lapse	-10.978
ther	-10.9781
▁polve	-10.9783
▁Lontoossa	-10.9784
▁katsottu	-10.9786
▁jäällä	-10.979
▁Vaasan	-10.979
▁Jutta	-10.9792
infektio	-10.9793
▁suhtautuu	-10.9793
▁kenenkään	-10.9793
▁Elisabet	-10.9793
▁Ogier	-10.9793
▁muokattu	-10.9793
▁väitetään	-10.9794
▁King	-10.9794
oosi	-10.9796
▁Grand	-10.9796
▁valmennukse	-10.9796
▁miettimään	-10.9797
▁kaudelle	-10.9797
▁useammin	-10.9798
▁rento	-10.9798
▁Itämeren	-10.9799
▁suunnittelee	-10.9802
kipu	-10.9803
▁arviointi	-10.9807
kyvyn	-10.9809
▁pussi	-10.981
▁joudutti	-10.981
▁Pelastuslaitoks	-10.9814
▁Kauden	-10.9814
▁Ros	-10.9815
▁käytettiin	-10.9815
▁pintaan	-10.9815
▁Jopa	-10.9821
▁nii	-10.9826
▁suunnitellut	-10.9826
▁kohdista	-10.9831
▁lausunnossa	-10.9833
▁liiketoiminta	-10.9833
isoi	-10.9833
str	-10.9835
▁Jär	-10.9838
▁Vier	-10.9838
▁linna	-10.9839
▁Yorkin	-10.9839
▁painava	-10.9839
▁tuulet	-10.9847
östä	-10.9849
▁näp	-10.985
▁pitki	-10.9851
veden	-10.9851
Ju	-10.9852
▁syntymä	-10.9857
▁legenda	-10.9857
▁nouseva	-10.9857
ihmis	-10.9857
▁ohjaus	-10.9858
▁luokan	-10.9862
▁arvioivat	-10.9862
▁Tarja	-10.9863
▁Vero	-10.9863
▁Valtion	-10.9863
3:	-10.9864
TV	-10.9864
▁taistele	-10.9869
tieteen	-10.987
käyttöön	-10.987
▁väline	-10.987
▁mielipiteitä	-10.9873
▁hylkäsi	-10.9873
▁kärkeen	-10.9873
▁Orban	-10.9874
79	-10.9874
▁uhrei	-10.9874
▁Tuomi	-10.9877
▁ABC	-10.9877
▁Olo	-10.9877
studiossa	-10.9883
ampumis	-10.9883
▁pörssi	-10.9885
harjoituksi	-10.9886
velje	-10.9889
▁Nordmo	-10.9892
tymistä	-10.9894
udan	-10.9897
haastattelussa	-10.9897
▁Schumacher	-10.9897
▁Laukka	-10.9899
▁viimeisin	-10.9903
▁mato	-10.9903
▁and	-10.9903
vene	-10.9904
▁terveyden	-10.9904
▁tutkimuksessa	-10.9908
▁68	-10.9909
▁Moskovassa	-10.9912
▁pir	-10.9914
töntä	-10.9915
▁Keskustan	-10.9915
kaapeli	-10.9918
▁paketti	-10.992
▁pystyisi	-10.9921
▁kuole	-10.9922
▁oo	-10.9923
vierailu	-10.9924
▁ajautui	-10.9924
palkinto	-10.9925
▁Järjest	-10.9926
valio	-10.9926
▁kuumi	-10.9927
▁muusta	-10.9927
▁sukulais	-10.9927
▁SSS	-10.9931
2022	-10.9931
tejä	-10.9932
▁matkustaa	-10.9934
▁vapaute	-10.9939
oittaja	-10.9941
▁kasvot	-10.9941
▁palkkio	-10.9945
miesten	-10.9946
▁vahingoitta	-10.995
▁rahoitusta	-10.9953
▁Matthew	-10.9955
▁Valtiovarain	-10.9955
▁kommentit	-10.9955
onnettomuuksi	-10.9955
▁1994	-10.9955
▁Alkoholi	-10.9955
▁puolivälieri	-10.9955
▁kuultiin	-10.9955
▁lämpimi	-10.9955
▁Rooman	-10.9955
▁raportin	-10.9955
▁maaleja	-10.9955
▁Tapo	-10.9956
▁maastopalo	-10.9956
paketin	-10.9956
▁laajalti	-10.9956
▁Finn	-10.9958
▁vaarallinen	-10.996
▁lähdetään	-10.9963
▁korvauksia	-10.9963
▁Vaara	-10.9963
▁Andrew	-10.9963
▁Lundell	-10.9963
▁yleisty	-10.9964
Venäjä	-10.9965
kertaise	-10.9966
kierroksella	-10.9966
politiikasta	-10.9968
oida	-10.997
päätöksen	-10.9971
▁konservatiivi	-10.9975
▁osapuoli	-10.9977
empana	-10.9977
▁elämäänsä	-10.9977
▁kentän	-10.9979
▁jaettu	-10.998
▁liikennettä	-10.998
▁järjestön	-10.9983
▁Erik	-10.9984
▁risti	-10.9985
Assadin	-10.9986
▁hintaan	-10.9988
▁seurakunnan	-10.9989
▁päältä	-10.9989
▁soti	-10.999
▁ratkaise	-10.999
▁suin	-10.999
▁lapsista	-10.9991
▁poliittista	-10.9991
▁päivityksen	-10.9993
▁tulot	-10.9996
kunnissa	-10.9996
▁väliä	-10.9998
imp	-10.9999
▁Rauha	-10.9999
form	-11
▁data	-11.0004
ehdokkaaksi	-11.0004
muod	-11.0004
organisaatio	-11.0007
usse	-11.0008
kkuus	-11.0013
▁sisällö	-11.0019
▁Pre	-11.0023
▁Yo	-11.0025
▁Sinne	-11.0025
▁päättäji	-11.0025
▁vastaamaan	-11.0028
▁maailmanmestar	-11.0028
teknologi	-11.003
▁tehtävää	-11.0032
▁kattava	-11.0033
▁69	-11.0035
demokraatit	-11.0036
▁Tshekki	-11.0036
▁Tuppurainen	-11.0036
▁putkeen	-11.0036
▁Libanonissa	-11.0037
▁hetkessä	-11.0037
▁asioi	-11.0037
ttajien	-11.0037
▁sijainti	-11.0037
▁itselleni	-11.0038
qui	-11.0038
▁Lisätty	-11.0038
ennätys	-11.0038
uute	-11.0038
▁hammas	-11.0041
▁Eeva	-11.0043
▁aluetta	-11.0043
▁tuntunut	-11.0043
matto	-11.0044
▁parantu	-11.0046
paikkakunna	-11.0047
lakka	-11.0047
▁nukkumaan	-11.0048
▁Farmi	-11.005
▁muisteli	-11.0052
▁keskustele	-11.0052
▁Palm	-11.0054
▁Yhdessä	-11.0054
▁Pelicansin	-11.0055
▁voittanee	-11.0056
pello	-11.0058
▁Stubbia	-11.0062
▁hyödyntä	-11.0064
▁yliopistossa	-11.0066
▁voittomaali	-11.0068
▁Tal	-11.0071
▁lentoasema	-11.0071
ikolla	-11.0072
▁koru	-11.0072
▁kuivu	-11.0072
▁Helmi	-11.0073
▁oikei	-11.0074
▁täyttävä	-11.0076
▁vaka	-11.0079
▁OP	-11.0081
jel	-11.0082
▁ranka	-11.0083
▁renno	-11.0084
▁maistu	-11.0086
▁tilanteita	-11.0086
▁pätkä	-11.0086
iltiin	-11.0086
▁satu	-11.0087
▁Nais	-11.0087
palvelujen	-11.0089
ttämässä	-11.009
▁iltapäivä	-11.009
lov	-11.0094
▁nenä	-11.0096
pöydän	-11.0097
▁Nuore	-11.0098
▁tilaisuudessa	-11.01
▁järjestety	-11.0102
▁sanoen	-11.0103
▁tarjoava	-11.0103
▁runkosarjassa	-11.0104
juoma	-11.0105
liikenteeseen	-11.0105
iteetti	-11.0106
▁tapauksia	-11.0107
▁korosta	-11.0109
▁päävalmentajana	-11.0111
ohjaaja	-11.0112
tapaus	-11.0112
▁Anti	-11.0115
▁Britanniassa	-11.0116
▁näkyä	-11.0116
aktivisti	-11.0119
▁positiivinen	-11.0119
▁Neuville	-11.0119
▁internet	-11.0119
▁maksetaan	-11.0119
▁Peskov	-11.0119
▁ilmoitettu	-11.0119
▁sateet	-11.012
▁sohva	-11.012
▁karmea	-11.012
▁Jakso	-11.0121
laukaus	-11.0122
▁ajokeli	-11.0123
▁keskeytti	-11.0123
▁parisuhde	-11.0124
▁Sky	-11.0125
esteissä	-11.0125
kuvassa	-11.0126
▁saavuttaa	-11.0127
▁uimahalli	-11.0128
▁poikkea	-11.0128
suur	-11.0129
▁Tänak	-11.013
▁harvinaisen	-11.013
▁senttimetriä	-11.013
ttomat	-11.0132
▁Kro	-11.0133
▁kilpaile	-11.0135
opas	-11.0143
▁vale	-11.0144
▁jollain	-11.0144
▁sallittu	-11.0144
▁Suure	-11.0145
▁puolustuksen	-11.0147
▁lennokki	-11.0147
▁Presidenti	-11.0151
▁laskettu	-11.0153
▁ny	-11.0153
▁be	-11.0153
▁kääntää	-11.0156
radalla	-11.0157
▁ammati	-11.0159
▁epäselvä	-11.0161
▁78	-11.0162
▁suurlähetystö	-11.0164
rek	-11.0166
▁Suora	-11.0166
▁urheilijoiden	-11.0167
laisella	-11.017
iitti	-11.0177
▁keskeisi	-11.0177
haitta	-11.0178
▁kierrokselle	-11.018
puolelle	-11.0181
▁tieltä	-11.0182
▁pisteellä	-11.0183
▁Ole	-11.0184
▁Tol	-11.0186
kivääri	-11.0187
▁uhrien	-11.0187
▁turvapaikka	-11.0188
▁jakautu	-11.0188
▁Blue	-11.019
▁korkeamma	-11.0191
skele	-11.0193
▁mittava	-11.0193
▁kilpaili	-11.0198
▁syntymäpäivä	-11.0202
▁HPK	-11.0202
▁Ruotsalainen	-11.0202
▁entuudestaan	-11.0202
▁Juontaja	-11.0202
▁juhannukse	-11.0202
▁täsmä	-11.0202
▁Johaug	-11.0202
▁SVT	-11.0202
▁romahti	-11.0202
▁iskeä	-11.0202
▁läheltä	-11.0203
▁pidettävä	-11.0203
▁Reijo	-11.0203
tulehdus	-11.0203
▁Rakennus	-11.0203
▁kelpaa	-11.0203
▁hetkeksi	-11.0203
idässä	-11.0203
▁ennalta	-11.0203
▁kuljettaji	-11.0203
▁henkirikos	-11.0203
▁perinteinen	-11.0204
▁autoilija	-11.0205
▁sinun	-11.0207
▁hallitsi	-11.0207
▁muuhun	-11.0207
▁kuvio	-11.0207
▁käsiteltiin	-11.0208
osuus	-11.0209
▁kahvila	-11.0212
▁vihreät	-11.0214
▁Nina	-11.0214
▁Valtio	-11.0215
▁Montreali	-11.0216
▁itseni	-11.0218
▁maila	-11.0219
▁81	-11.0221
▁Vuorinen	-11.0221
▁työhön	-11.0223
▁Aftonbladeti	-11.0224
▁arv	-11.0224
▁eläkeläis	-11.0226
▁liikkuma	-11.0227
▁asiantuntijat	-11.0228
▁poltta	-11.0231
▁Virossa	-11.0234
3)	-11.0235
valmiste	-11.0236
▁(5	-11.0237
▁hallituspuolue	-11.024
▁Tuomo	-11.024
▁jaetaan	-11.0242
▁pelaavat	-11.0243
▁haastaa	-11.0245
▁yllään	-11.0245
▁Heikkinen	-11.0245
kuitu	-11.0246
▁heikentä	-11.0247
miaan	-11.0248
▁kertova	-11.0249
kasvu	-11.025
ilmoitus	-11.025
▁teos	-11.0254
vauhti	-11.026
Z	-11.026
kkaiden	-11.0264
▁Rydman	-11.0264
▁muutkin	-11.0266
luvulta	-11.0267
▁+1	-11.0269
▁avio	-11.0271
▁joukosta	-11.0272
valmentaj	-11.0273
stunut	-11.0273
▁nousua	-11.0276
▁Heti	-11.0277
▁käytännön	-11.0278
▁Paimio	-11.0278
tetyn	-11.0281
▁Syyria	-11.0282
▁Argentiina	-11.0286
▁Hakkarainen	-11.0286
▁Kyllönen	-11.0286
▁Philadelphia	-11.0286
▁espanjalai	-11.0286
▁odotettavissa	-11.0286
▁hylättiin	-11.0286
▁Arsenal	-11.0287
▁korkeude	-11.0287
▁grilli	-11.0287
▁Kosonen	-11.0287
▁hiukan	-11.0287
rosenttiyksikköä	-11.0287
▁esitutkinnan	-11.0287
▁lähettänyt	-11.0287
▁Täytyy	-11.0288
▁ajalta	-11.0288
▁Bild	-11.0288
paneeli	-11.0288
▁tulevaisuus	-11.029
▁hengit	-11.0293
▁joukkueet	-11.0294
▁parantamis	-11.0294
ajossa	-11.0294
▁mitattu	-11.0295
▁Perä	-11.0296
▁kauteen	-11.0298
▁piden	-11.0299
▁Team	-11.0299
▁Vastaava	-11.0301
▁naiselle	-11.0301
▁Tiedo	-11.0301
▁Michel	-11.0302
▁ME	-11.0305
▁Suomalaisen	-11.0306
▁taloudellisesti	-11.0307
▁Pö	-11.0308
▁toissa	-11.0309
▁Stor	-11.0311
▁jatkunut	-11.0311
▁Dar	-11.0312
▁syyksi	-11.0312
turvallisuus	-11.0317
▁miehestä	-11.0318
vuudesta	-11.0319
▁juhlista	-11.0321
▁tappo	-11.0321
▁alenta	-11.0323
▁tarvitsisi	-11.0325
▁Rita	-11.0326
▁olut	-11.0326
▁uusiksi	-11.0328
▁ilmassa	-11.033
▁rikosta	-11.0336
▁johtamis	-11.0342
▁Kohta	-11.0343
▁Post	-11.0343
▁pääsisi	-11.0343
onnettomuudessa	-11.0344
▁luuli	-11.0346
suhteiden	-11.0347
▁muistel	-11.0349
▁73	-11.0358
vik	-11.036
▁kisaan	-11.0362
▁suunnitteli	-11.0367
▁tärkei	-11.0368
▁enemmänkin	-11.0369
▁koste	-11.037
▁päästy	-11.037
eläin	-11.0371
▁Angel	-11.0371
ó	-11.0371
skandaali	-11.0371
▁Hurrikaani	-11.0371
▁Jungner	-11.0371
▁ykkönen	-11.0371
▁Musiikki	-11.0371
▁keskeinen	-11.0371
▁tapahtuva	-11.0371
▁Olympiastadioni	-11.0371
klubi	-11.0371
▁pakeni	-11.0372
▁siirtyä	-11.0372
▁vaatteita	-11.0373
▁Tammikuu	-11.0373
▁johtuva	-11.0373
▁tavoittanut	-11.0373
▁Krimi	-11.0373
▁Nordea	-11.0374
konserti	-11.0374
▁lähetyksen	-11.0374
▁Jouni	-11.0374
▁täytyi	-11.0375
▁vietetään	-11.0378
▁Sirpa	-11.0379
▁Hell	-11.0383
▁loppupuolella	-11.0383
▁rahoituks	-11.0384
▁pojat	-11.0386
▁valmiina	-11.0387
▁suurimma	-11.0388
kokouksen	-11.0389
ijoi	-11.039
▁järjestämis	-11.0391
istunno	-11.0391
▁euroja	-11.0391
-15	-11.0392
▁korkeampi	-11.0395
▁Postin	-11.0398
▁rulla	-11.0403
tutkinto	-11.0404
▁hyvissä	-11.0405
▁tahdo	-11.0406
▁sentään	-11.0411
▁hyödyntää	-11.0411
▁edeltävä	-11.0414
▁kuvissa	-11.0414
▁jälkeise	-11.0415
tavara	-11.0416
23	-11.0417
▁tohtori	-11.0418
▁Sim	-11.0422
▁israelilais	-11.0423
tilillä	-11.0424
cho	-11.0425
äiti	-11.0429
viranomaisten	-11.0431
▁Keskusta	-11.0431
▁kurssi	-11.0433
▁paita	-11.0434
kodissa	-11.0435
selvityks	-11.0435
▁Marc	-11.0439
hanke	-11.0443
▁johtaji	-11.0443
▁uskonut	-11.0443
tilaisuuteen	-11.0444
▁hallitukselle	-11.0446
keitto	-11.0447
▁huud	-11.0448
▁arvostel	-11.0454
kattu	-11.0455
bakteeri	-11.0457
▁Apple	-11.0457
▁Nashville	-11.0457
▁harvinainen	-11.0457
▁ruotsalainen	-11.0457
▁väitteet	-11.0457
▁kärjessä	-11.0457
▁pudonnut	-11.0457
▁Aurinko	-11.0457
▁toivottavasti	-11.0457
▁Tyttö	-11.0457
▁välein	-11.0457
▁hetkeä	-11.0457
▁maksimi	-11.0457
▁väkeä	-11.0458
▁kotimaassa	-11.0458
▁muuttunee	-11.0461
▁tienasi	-11.0461
▁tekemiseen	-11.0463
▁säilyttä	-11.0463
▁Järvinen	-11.0464
▁saaristo	-11.0464
▁huomautti	-11.0465
▁herkku	-11.0465
▁pehmeä	-11.0467
▁keskity	-11.0467
rintama	-11.0468
▁menettää	-11.0468
▁aidosti	-11.0469
▁törkeää	-11.0469
▁>	-11.0471
▁itäraja	-11.0471
▁lämmintä	-11.0475
▁Voisi	-11.0482
▁korvaukse	-11.0482
▁Nope	-11.0485
ammu	-11.0486
▁hetkiä	-11.049
ford	-11.0491
▁painetta	-11.0492
▁kolmasosa	-11.0492
▁aloittava	-11.0493
ingin	-11.0493
▁aste	-11.0494
▁sov	-11.0495
▁sateita	-11.0495
▁vastaavat	-11.0495
▁puhdista	-11.0496
▁suhdetta	-11.0497
▁järkevä	-11.0498
▁kansainvälist	-11.0502
kentän	-11.0507
▁Hiihto	-11.0509
▁pahin	-11.051
▁mahdolliset	-11.0512
ttamisen	-11.0512
tietä	-11.0514
salissa	-11.0515
▁komm	-11.0515
▁avustaja	-11.0517
-22	-11.0518
ajoneuvo	-11.0518
vaikutus	-11.0518
▁hyökkäystä	-11.0519
hotelli	-11.0519
▁lika	-11.0519
kaupassa	-11.0521
tilassa	-11.0521
▁maraton	-11.0522
▁ohjaama	-11.0523
▁treenaa	-11.0525
lev	-11.0531
▁Mitään	-11.0532
▁paista	-11.0533
▁Britti	-11.0541
▁kokeilu	-11.0541
▁BMW	-11.0543
kirurgi	-11.0543
▁Kiljunen	-11.0543
▁Volkswagen	-11.0543
▁World	-11.0543
▁klassikko	-11.0543
▁vahingossa	-11.0543
▁mainitsi	-11.0543
▁Piikkiö	-11.0543
▁Teatteri	-11.0543
▁oltiin	-11.0543
▁häpeä	-11.0543
▁katoamis	-11.0543
yhteyksi	-11.0544
▁ulkopuolelta	-11.0544
▁konferenssi	-11.0544
▁julisti	-11.0545
▁Elokuu	-11.0545
▁tuntumassa	-11.0546
▁pöly	-11.0547
laisille	-11.0547
▁Leena	-11.0547
▁keskeise	-11.0547
▁arkea	-11.0547
kautensa	-11.0547
▁parikymmentä	-11.0548
▁Mene	-11.0548
▁rannalla	-11.0549
ring	-11.0551
illään	-11.0556
▁äänen	-11.0558
▁toivoi	-11.0561
▁luultav	-11.0561
▁tuulen	-11.0563
tutkimuksen	-11.0564
▁skenaario	-11.0564
kakku	-11.0565
▁vastuulla	-11.0567
▁puolueet	-11.0568
▁teen	-11.0569
▁rikosilmoitukse	-11.057
▁Perttu	-11.057
▁kiinnittää	-11.057
▁ehdotti	-11.0572
▁työskentely	-11.0575
▁Tusk	-11.0576
▁perustelu	-11.0577
tukea	-11.0577
▁70-	-11.0578
▁sotila	-11.0579
▁leikkaukset	-11.058
▁2001	-11.058
▁Espoo	-11.0581
▁virkamies	-11.0581
▁latu	-11.0581
kauppaa	-11.0582
▁tyhjää	-11.0582
▁puheet	-11.0585
▁sul	-11.0586
▁puhuvat	-11.0587
▁Cas	-11.0592
asemalla	-11.0593
hallinta	-11.0594
▁Vas	-11.0594
▁näyttö	-11.0594
▁pais	-11.0596
▁seikka	-11.0596
tilaisuus	-11.06
▁tehokkai	-11.0602
▁bi	-11.0602
▁iskut	-11.0602
▁päätä	-11.0602
▁poliittisia	-11.0603
▁uudista	-11.0604
▁virheen	-11.0605
Ukraina	-11.0606
▁Perheen	-11.0607
kkuutta	-11.0607
kisoja	-11.0608
▁litraa	-11.061
▁valiokunta	-11.061
▁näyttäyty	-11.0613
▁liikenteessä	-11.0613
▁tavaraa	-11.0614
▁Anders	-11.0615
vahinko	-11.0615
▁päätyy	-11.0617
▁koriste	-11.0618
tavaksi	-11.0619
▁varustettu	-11.0626
▁tehneen	-11.0626
▁Pakka	-11.0627
lämmö	-11.0627
▁Sanoin	-11.0628
häirintä	-11.0629
▁Yhteensä	-11.063
▁Yrittäjä	-11.063
▁diplomaatti	-11.063
▁varmisti	-11.063
▁Vikman	-11.063
▁keskittyy	-11.063
▁vastoin	-11.063
▁Obama	-11.063
▁Kuusela	-11.063
▁Finaali	-11.063
▁viidenneksi	-11.0631
▁harjoituksissa	-11.0632
tteleva	-11.0633
▁hälytyksen	-11.0633
▁til	-11.0634
▁herra	-11.0635
▁strategia	-11.0636
▁Savolainen	-11.0636
▁maito	-11.0637
kohdassa	-11.0637
▁käsittelyyn	-11.0638
▁ehdottaa	-11.0639
▁kanava	-11.064
▁muuttamaan	-11.0642
▁Diili	-11.0643
▁pakettiauto	-11.0643
▁metrillä	-11.0644
▁mutka	-11.0644
▁Erikois	-11.0649
▁kuninkaallise	-11.0649
▁tuomiota	-11.0649
poliittise	-11.0651
▁päivystys	-11.0655
▁konkurssi	-11.0655
▁joukkueelle	-11.0656
▁Jack	-11.0657
▁mysteeri	-11.0658
▁Mette	-11.066
kierroksen	-11.0662
▁juhliin	-11.0663
▁käytety	-11.0665
▁komission	-11.0665
▁avautu	-11.0666
▁psykologi	-11.0667
▁Erä	-11.0676
laitteiden	-11.0678
▁Lund	-11.0679
▁koulujen	-11.068
▁keskusteluun	-11.0681
▁pelaajista	-11.0683
▁oikeaan	-11.0692
Euroopan	-11.0694
▁voineet	-11.0697
▁hitti	-11.0698
▁nousseet	-11.0698
▁Pelto	-11.07
▁saamme	-11.0701
▁palveluita	-11.0702
65-	-11.0702
llisuudesta	-11.0703
▁tarjoama	-11.0703
▁jengi	-11.0709
▁tarttui	-11.0711
▁hevosen	-11.0711
▁Niska	-11.0715
puhelu	-11.0715
▁Talli	-11.0715
insinööri	-11.0718
marginaali	-11.0718
▁Hradecky	-11.0718
▁ohjelmisto	-11.0718
▁ymmärsi	-11.0718
▁toimittajille	-11.0718
▁yritetään	-11.0718
▁Qatar	-11.0718
▁Ennakko	-11.0718
▁paljoa	-11.0718
▁Ulkopoliittise	-11.0718
▁ranniko	-11.0718
▁kuuluvi	-11.0718
▁kevyt	-11.0718
▁huomata	-11.0718
▁viileä	-11.0719
▁Roman	-11.0719
▁sopu	-11.072
▁Hieno	-11.072
▁totuus	-11.0721
▁palomestari	-11.0721
markkinoiden	-11.0721
▁voitu	-11.0721
▁Katja	-11.0722
▁grammaa	-11.0723
▁tarkistaa	-11.0723
▁Merja	-11.0724
▁Ryan	-11.0726
▁tullessa	-11.0726
▁kuullaan	-11.0727
▁puolitoista	-11.0728
vuoto	-11.0728
▁historiassa	-11.0734
▁hinna	-11.0734
▁taloyhtiö	-11.0734
▁Sund	-11.0735
▁tehokkaasti	-11.0736
65	-11.0737
▁menehty	-11.0741
▁kyseenalais	-11.0742
▁lumen	-11.0742
▁helpompi	-11.0742
▁Jones	-11.0745
▁itsessään	-11.0745
▁laadukkaa	-11.0746
sisko	-11.0747
▁kasvis	-11.0747
▁epävarm	-11.0749
▁puuha	-11.0751
▁lihas	-11.0751
▁Fico	-11.0751
▁Ukko	-11.0755
▁tapana	-11.0756
▁Aasia	-11.0758
▁listalla	-11.076
▁louk	-11.076
luokkaa	-11.0763
äyttö	-11.0765
gel	-11.0767
▁ehdokasta	-11.0769
verkon	-11.077
▁lyk	-11.0771
▁kääntä	-11.0774
▁Rauma	-11.0774
yhtiöiden	-11.0776
+0	-11.0777
▁eduskuntaan	-11.0778
▁vaivaa	-11.0781
▁Bess	-11.0781
IA	-11.0783
kierros	-11.0787
▁Panthersin	-11.0788
▁raskas	-11.0789
finaalissa	-11.0792
sankari	-11.0796
▁neljästä	-11.0799
kerroin	-11.08
▁Live	-11.0801
ehdokkuude	-11.0802
steja	-11.0803
▁hoitaja	-11.0804
▁asuntoon	-11.0806
▁Canadiens	-11.0806
▁Duplantis	-11.0806
▁venäläinen	-11.0806
▁Pennsylvania	-11.0806
▁palkittiin	-11.0806
▁Kroatia	-11.0806
▁Satakunnan	-11.0806
▁maalivahdi	-11.0806
▁rinnalle	-11.0806
▁Porvoo	-11.0806
▁kuunnella	-11.0806
▁Hollanti	-11.0806
▁toimesta	-11.0806
▁Satonen	-11.0806
▁Noora	-11.0806
lääkärei	-11.0806
▁mitattiin	-11.0807
▁liikevaihto	-11.0807
▁Rasmus	-11.0808
▁tyytyväisiä	-11.0808
▁sisäpiiri	-11.0809
▁siirry	-11.081
▁huusi	-11.081
▁saavuttanut	-11.081
▁omaisuutta	-11.0812
tapahtumassa	-11.0813
▁joidenkin	-11.0813
▁kaltaise	-11.0815
▁Mauri	-11.0817
▁Hor	-11.0818
▁juoksija	-11.0819
▁matkusti	-11.082
▁Jyväskylässä	-11.0821
▁Anssi	-11.0822
▁itke	-11.0822
▁Toisin	-11.0823
▁bensa	-11.0824
▁Muutos	-11.0826
▁tosissaan	-11.0827
▁juliste	-11.0829
oidu	-11.0836
▁Saara	-11.0836
▁lasketaan	-11.0837
oppaa	-11.0837
▁mielenosoitukse	-11.0838
▁cup	-11.0838
mättö	-11.0838
▁varmiste	-11.0838
kuvio	-11.084
▁julkaisussa	-11.0842
▁nouse	-11.0843
▁omistaji	-11.0843
▁tekoa	-11.0844
▁erityistä	-11.0844
▁ylle	-11.0847
▁olosuhtei	-11.085
▁22-	-11.085
▁Yhtä	-11.0852
▁ajoissa	-11.0852
▁tein	-11.0853
Lu	-11.0855
▁Herman	-11.0856
▁Kiri	-11.086
▁puute	-11.0862
▁Mary	-11.0863
08	-11.0863
▁melkoinen	-11.0864
▁Georgian	-11.0864
fer	-11.0864
▁poliisilaitos	-11.0866
▁menettely	-11.0869
▁80-	-11.087
▁Aftonbladet	-11.0873
▁vanhemma	-11.0873
suosikki	-11.0873
oikeutta	-11.0873
▁luokka	-11.0874
▁Trumpille	-11.0875
ote	-11.0875
▁Tosin	-11.0875
▁Ykkös	-11.0877
▁väkivaltaise	-11.0878
▁hehku	-11.0879
mahdollisuuksi	-11.088
▁ylittää	-11.088
▁tuotteiden	-11.0881
▁vangit	-11.0882
▁samanlaise	-11.0885
▁äänet	-11.0885
▁hienosti	-11.0889
▁sivusto	-11.0891
SA	-11.0892
▁heilu	-11.0892
▁tehtyä	-11.0893
▁110	-11.0895
▁Egypti	-11.0895
sarjoissa	-11.0895
▁Julkaisu	-11.0895
▁julkisuudesta	-11.0895
▁veteraani	-11.0895
▁Viktor	-11.0895
▁oleskelu	-11.0895
▁asevoimat	-11.0896
▁Ismo	-11.0896
▁Juhla	-11.0896
▁Hovioikeus	-11.0896
▁yritä	-11.0896
▁niukasti	-11.0896
▁Samoin	-11.0896
▁rikosepäily	-11.0896
▁Tule	-11.0896
▁tuotteet	-11.0897
▁Kontio	-11.0897
▁Ella	-11.0898
▁ajatellut	-11.0899
▁tehneensä	-11.0899
▁näyttänyt	-11.0902
▁mini	-11.0903
▁esimerk	-11.0904
▁käyneet	-11.0905
▁haetaan	-11.0906
▁tiedetä	-11.0907
▁minne	-11.0909
▁haluavansa	-11.0909
6)	-11.0911
▁Miro	-11.0915
▁käytäntö	-11.0915
▁kilpailla	-11.0916
slav	-11.0916
▁Tapani	-11.0919
▁sillan	-11.0924
▁Rosa	-11.0924
▁Jean	-11.0926
▁Niissä	-11.0926
▁radalla	-11.0927
▁4-1	-11.0927
▁suurimmat	-11.0928
▁Bry	-11.0933
▁pelkä	-11.0934
▁tienaa	-11.0936
▁myöntä	-11.0937
suutta	-11.0939
▁käsityksen	-11.0942
?"	-11.0948
▁ymmärtävä	-11.0948
▁valtioneuvosto	-11.0949
▁teemme	-11.0949
▁radan	-11.0949
▁lähettämi	-11.095
▁kokemuksen	-11.0951
▁herku	-11.0953
paikoille	-11.0954
▁aloitettu	-11.0954
▁marssi	-11.0957
▁pyrkiä	-11.0958
▁Nimi	-11.0959
▁peruu	-11.096
▁Korte	-11.0961
▁Muita	-11.0962
bal	-11.0962
▁esityksi	-11.0962
pyr	-11.0963
musiikki	-11.0964
kysymys	-11.0964
telemaan	-11.0965
▁Tö	-11.0966
▁budjeti	-11.097
▁vastausta	-11.097
▁ollessaan	-11.0971
▁takla	-11.0974
▁Alun	-11.0975
podcastissa	-11.0977
hai	-11.0979
työhön	-11.098
▁Missä	-11.0982
todellis	-11.0984
▁Ruotsista	-11.0985
▁Käräjäoikeude	-11.0985
▁NRK	-11.0985
▁Puhakan	-11.0985
▁käytöksestä	-11.0985
Libanon	-11.0985
▁mainitu	-11.0985
▁tulitauko	-11.0986
▁rengas	-11.0986
▁Keränen	-11.0986
▁Brother	-11.0986
▁luopua	-11.0987
▁Tri	-11.0987
▁sosiaaliturva	-11.0987
miehiä	-11.0988
▁hehkuttaa	-11.0988
▁2027	-11.0988
▁1998	-11.0988
▁liittyä	-11.0989
▁haluamme	-11.099
▁sujuva	-11.099
▁rauhallinen	-11.0992
▁kirjeen	-11.0992
▁veljensä	-11.0993
▁olekaan	-11.0993
▁joudutaan	-11.0993
▁Kansalais	-11.0994
▁Torstai	-11.0995
▁rikkomisesta	-11.0996
kasv	-11.0997
▁myydään	-11.0997
▁maailmancupissa	-11.0997
impien	-11.0997
▁veteen	-11.0998
▁haukku	-11.0998
▁maajoukkueessa	-11.1001
▁sävel	-11.1001
▁kuluessa	-11.1003
▁vähemmistö	-11.1004
▁tuotu	-11.1005
▁työnsä	-11.1005
teos	-11.1006
jalka	-11.1006
▁kirjaa	-11.1007
istettu	-11.1009
▁tahdi	-11.101
▁Valta	-11.101
osoitte	-11.101
▁ravintolassa	-11.1012
▁Kala	-11.1012
▁Korpi	-11.1012
▁kunnanjohtaja	-11.1014
▁kasvoja	-11.1018
▁menisi	-11.1018
▁analyysi	-11.1021
vaalikampanja	-11.1024
vuotisen	-11.1024
▁Kakko	-11.1024
▁Ahonen	-11.1026
▁keven	-11.1027
▁Silja	-11.1028
▁iloa	-11.1029
▁puhdistu	-11.1029
▁tarvi	-11.1031
▁valitsija	-11.1031
ung	-11.1035
▁sivuilla	-11.1038
▁Helm	-11.1039
▁Toto	-11.104
▁Bulli	-11.104
strategi	-11.1043
74	-11.1044
▁Teko	-11.1046
koodi	-11.1046
▁arvostelu	-11.1054
▁unioni	-11.1056
▁kuormi	-11.1057
▁otteluissa	-11.1059
töihin	-11.1059
peruste	-11.1059
hommi	-11.106
▁Montreal	-11.1061
▁startti	-11.1062
▁itärajan	-11.1063
päästö	-11.1063
▁maisema	-11.1068
▁900	-11.1069
vaikeuksi	-11.1069
▁loppuottelu	-11.1069
▁epäillyt	-11.107
▁(8	-11.1074
ø	-11.1076
▁Räikkönen	-11.1076
▁automaattisesti	-11.1076
▁remontoi	-11.1076
▁sabotaasi	-11.1076
▁Haastattelu	-11.1076
▁pidemmän	-11.1076
▁tempu	-11.1076
▁pudotuspeleissä	-11.1077
▁edisty	-11.1077
▁virallinen	-11.1077
kauppojen	-11.1077
▁Karlsson	-11.1077
▁odotus	-11.1077
▁pysäköinti	-11.1078
▁perheenjäsen	-11.1078
▁mielui	-11.1078
▁Veera	-11.1079
▁tapaukseen	-11.108
▁helpompaa	-11.108
▁yhdistetty	-11.1081
iluun	-11.1081
▁tutustua	-11.1082
▁Kauppi	-11.1084
▁pidätetty	-11.1084
▁AP	-11.1087
▁Kakkos	-11.1088
piireissä	-11.1088
▁Peltonen	-11.1089
▁Jackson	-11.1092
▁Ger	-11.1093
▁kerä	-11.1094
▁yhtyeen	-11.1094
▁saapuva	-11.1096
▁(3	-11.1097
▁auttamaan	-11.1098
▁Siis	-11.11
▁vahvistanut	-11.1102
kirjoitus	-11.1105
▁koskettava	-11.1106
▁juosta	-11.1107
laatikko	-11.1108
▁Jonna	-11.1109
▁Jer	-11.111
▁sairastumis	-11.111
▁Oilers	-11.1111
▁terassi	-11.1116
▁jyrk	-11.112
otteluun	-11.1121
▁supist	-11.1126
▁sulkea	-11.1127
laitteita	-11.1128
▁sad	-11.113
▁Toisessa	-11.113
▁rajalla	-11.1131
juttu	-11.1132
dor	-11.1134
▁Lauantain	-11.1136
▁leipä	-11.1138
▁Edellisen	-11.1146
▁Kiinassa	-11.1148
▁kaikkialla	-11.115
▁Mira	-11.1152
gallup	-11.1152
▁180	-11.1157
▁jäähalli	-11.1158
hakemus	-11.116
▁ponnist	-11.1161
▁tarkastus	-11.1164
▁liikkuvat	-11.1167
▁uskomaton	-11.1168
▁Rääkkylä	-11.1168
▁Brysselissä	-11.1168
▁vauhdilla	-11.1168
▁Tshekin	-11.1168
▁Syyskuu	-11.1168
▁kädet	-11.1168
▁edellinen	-11.1168
▁Jordan	-11.1168
▁Seitsemä	-11.1168
▁hiljaa	-11.1169
▁olosuhteet	-11.1169
▁tarkoittaisi	-11.1169
▁raportti	-11.1169
▁Lindén	-11.1169
▁avioliitto	-11.1169
▁kiertää	-11.117
▁Hurske	-11.117
▁pitkäaikainen	-11.117
▁Nykyisin	-11.117
▁Yleisurheilu	-11.1171
▁huuli	-11.1173
▁viety	-11.1173
▁myytiin	-11.1176
▁todisteita	-11.1177
▁kuvauksissa	-11.1179
▁vaihtui	-11.118
▁lopettamis	-11.1181
▁Karjalainen	-11.1181
▁avautuu	-11.1182
ilijat	-11.1183
sovellus	-11.1184
kaarti	-11.1185
▁Jenna	-11.1187
▁kokouksen	-11.1187
▁helmi	-11.1188
▁olevista	-11.1189
▁tuntuvat	-11.1191
autoja	-11.1192
▁perustaa	-11.1193
▁Kevin	-11.1193
valtaa	-11.1193
▁95	-11.1196
▁liity	-11.1196
▁kodissa	-11.1197
▁mieti	-11.1197
öl	-11.1197
▁ennakkoon	-11.1201
▁ulkomaille	-11.1201
▁kansallise	-11.1202
▁Tul	-11.1206
+3	-11.121
▁Natoon	-11.1212
▁huolet	-11.1213
▁Rub	-11.1213
▁pysyvät	-11.1216
▁Nyman	-11.1219
▁Neli	-11.1219
▁eurovaali	-11.1219
▁vaatimus	-11.122
▁huippukokoukse	-11.1221
▁julkaista	-11.1221
▁työssä	-11.1223
▁seitsemänne	-11.1223
▁tunnetta	-11.1227
▁hyökkäyksi	-11.1229
voittoon	-11.1229
jäsenyyden	-11.1231
▁Hieta	-11.1231
▁vastaavia	-11.1232
▁elämäni	-11.1235
▁toimittaa	-11.1235
▁Liettuan	-11.1236
julkaisussaan	-11.1237
epäily	-11.1241
▁ilmatila	-11.1242
festivaali	-11.1242
vire	-11.1244
terveys	-11.1246
▁Vel	-11.1248
▁vähene	-11.125
▁kalenteri	-11.125
ainetta	-11.1253
▁vertaa	-11.1253
▁investoi	-11.1256
lukemat	-11.1257
posti	-11.1259
▁pohtia	-11.1259
kapasiteetti	-11.1261
▁Epäilly	-11.1261
▁Onlyfans	-11.1261
▁Toukokuu	-11.1261
▁ratkaisi	-11.1261
▁Rkp	-11.1261
▁Sirviö	-11.1261
▁puhelimitse	-11.1261
▁sinulla	-11.1261
▁Tikkanen	-11.1261
▁johtanee	-11.1261
▁monesti	-11.1261
äänestyksen	-11.1261
▁käänteen	-11.1261
▁erottu	-11.1262
jälji	-11.1262
▁Salmela	-11.1262
▁nuorempi	-11.1263
talous	-11.1263
▁Sieppi	-11.1263
▁1-0	-11.1264
▁selvittämään	-11.1265
▁eurooppalaise	-11.1265
▁resepti	-11.1265
▁rakennetaan	-11.1267
▁edetä	-11.1267
▁suurimmista	-11.1267
▁yhteiskunnallis	-11.1268
▁osake	-11.1269
▁keskustelemaan	-11.1272
▁ulkomailta	-11.1272
▁yllätykse	-11.1278
▁Xi	-11.1278
▁Toiseksi	-11.1284
▁toiset	-11.1288
▁kohdistui	-11.1291
LA	-11.1293
▁logo	-11.1298
▁riippu	-11.1301
▁Cam	-11.1301
päiviä	-11.1305
▁hyvänä	-11.1307
▁Shi	-11.1309
sovelluks	-11.131
▁Harrisia	-11.1312
▁läheis	-11.1313
▁Vilja	-11.1314
▁runo	-11.1315
▁pahaa	-11.1315
▁valkoinen	-11.1316
▁korvata	-11.1322
▁Muuten	-11.1327
▁joukkueiden	-11.1327
▁sak	-11.1329
ttavien	-11.1329
▁tuloksella	-11.133
kiekko	-11.1334
▁paikat	-11.1335
▁osallistuvat	-11.1336
▁jakelu	-11.1338
▁Mad	-11.1339
kodista	-11.134
war	-11.1341
▁Hyvinvointialue	-11.1341
▁Ravi	-11.1342
▁Putinille	-11.1343
▁mulla	-11.1343
▁mielipitee	-11.1351
▁88	-11.1354
▁Kiinteistö	-11.1354
▁Mercedekse	-11.1354
▁Tukholmassa	-11.1354
▁Tynkkynen	-11.1354
▁englanniksi	-11.1354
▁löydä	-11.1354
▁hurrikaani	-11.1354
▁yhdeksi	-11.1354
▁Savonlinna	-11.1354
▁avaruus	-11.1354
▁puheenaihe	-11.1354
▁julkisuuden	-11.1355
▁työkalu	-11.1355
cker	-11.1355
▁virtsa	-11.1355
▁innoissaan	-11.1355
▁meneillään	-11.1355
▁olympiakultaa	-11.1356
▁ansiotulo	-11.1356
▁Kajaani	-11.1356
▁kotikentällä	-11.1357
▁pääkaupungissa	-11.1357
▁Korona	-11.1357
▁sairastui	-11.1358
▁aukea	-11.1358
▁Joulukuu	-11.1358
▁suunnitelmat	-11.1358
▁evakuoi	-11.1359
-18	-11.1359
▁aloitus	-11.1362
▁aikavälillä	-11.1363
▁ovet	-11.1363
▁Kuopiossa	-11.1364
▁Ilo	-11.1366
▁lakkautt	-11.1367
▁sort	-11.1368
▁hevose	-11.1371
▁selitti	-11.1373
▁Lahtinen	-11.1374
▁Iida	-11.1375
▁käänny	-11.1375
▁positiivista	-11.1376
▁tarkasta	-11.1376
ttomuutta	-11.1379
▁2002	-11.1384
▁Andre	-11.1386
▁ulosajo	-11.1387
▁surmansa	-11.1388
toiminnanjohtaja	-11.1393
elmi	-11.1398
▁katsonut	-11.1399
▁verkosto	-11.1399
▁Manninen	-11.1402
▁90-	-11.1402
▁Salla	-11.1405
miljonääri	-11.1408
▁1,7	-11.1411
▁kannattajat	-11.1411
seudun	-11.1412
▁jonkinlaise	-11.1414
▁tasaise	-11.1416
▁ennusteen	-11.1417
▁omilla	-11.1418
▁Arja	-11.1418
▁Liisa	-11.1422
miehenä	-11.1422
▁voimin	-11.1424
▁tutkijat	-11.1427
▁Rod	-11.1428
▁esiintyvä	-11.1431
gue	-11.1431
läiset	-11.1433
naapuri	-11.1433
▁muistuttava	-11.1433
▁älä	-11.1434
03	-11.1434
▁haltuun	-11.1436
▁epäile	-11.1441
▁listaa	-11.1444
▁noste	-11.1444
▁moottoritie	-11.1445
▁fyysise	-11.1445
▁Edu	-11.1446
▁tehtävissä	-11.1447
näytte	-11.1449
▁Määrä	-11.1449
▁tunkeutu	-11.1449
▁elimistö	-11.1449
▁arjessa	-11.1449
▁Hyvärinen	-11.1449
▁pituus	-11.1449
▁uskottava	-11.1449
▁vankeustuomio	-11.1449
▁kertynyt	-11.145
rikoksia	-11.145
▁yrityksiä	-11.145
mattomia	-11.1452
▁maailmanennäty	-11.1452
▁Itämerellä	-11.1453
▁kauas	-11.1453
▁Haley	-11.1455
▁nostettiin	-11.1455
hyppääjä	-11.1456
▁Stra	-11.1456
▁henkirikoksen	-11.1457
▁viettänyt	-11.1458
▁mielenosoittaji	-11.146
▁suunnittelema	-11.146
▁väkisin	-11.1461
▁kolmanne	-11.1462
▁huumeiden	-11.1464
▁Tilastokeskukse	-11.1464
▁Ele	-11.1465
▁hoi	-11.1468
teollis	-11.1469
▁jäähy	-11.1469
▁neuvottelut	-11.1473
▁cupin	-11.1474
▁kohtelu	-11.1477
▁peruskoulu	-11.148
▁Kokkola	-11.148
tilanteet	-11.1481
aituri	-11.1484
▁Fors	-11.1485
vieras	-11.149
▁ay	-11.1495
▁säästää	-11.1496
▁kokea	-11.1498
pakki	-11.1498
lyönti	-11.1498
ympärivuorokauti	-11.1501
▁Temp	-11.1502
▁lapselle	-11.1503
▁puolueiden	-11.1503
valiokunnassa	-11.1503
katko	-11.1505
▁kaupat	-11.1506
01	-11.1506
öitä	-11.1508
▁Bidenia	-11.1509
▁reservi	-11.1511
▁II	-11.1512
▁astui	-11.1518
▁Jatko	-11.152
▁Björ	-11.1521
▁poliittisi	-11.1523
▁haluttu	-11.1523
▁Kolmi	-11.1523
▁Slovakian	-11.1524
ilijoita	-11.1526
▁tehtävässä	-11.1527
harjoittelu	-11.1528
vasemmistoliitto	-11.1528
ttämällä	-11.1531
▁puhumaan	-11.1531
▁palveluiden	-11.1532
▁käräjäoikeude	-11.1533
▁rytmi	-11.1535
▁lopullise	-11.1537
▁Jens	-11.1537
▁Kap	-11.1538
▁Vapaa	-11.1539
▁raiva	-11.1542
▁Expressen	-11.1543
▁oikealta	-11.1543
viranomainen	-11.1544
▁Silvennoinen	-11.1544
▁Valitettavasti	-11.1544
▁Rajavartiolaito	-11.1544
▁riskejä	-11.1544
▁suunnattu	-11.1544
▁kristillis	-11.1544
▁unohd	-11.1544
▁sattunut	-11.1544
▁liikkua	-11.1544
▁Kristian	-11.1544
▁vihollis	-11.1544
▁toisiinsa	-11.1545
▁Heinäkuu	-11.1545
▁kirjoitetaan	-11.1546
▁Ojala	-11.1546
▁Helmikuu	-11.1546
▁piina	-11.1546
▁hirmu	-11.1548
pylvä	-11.1549
▁kuljetettiin	-11.155
▁nostetaan	-11.155
evät	-11.1551
ttomien	-11.1552
▁AHL	-11.1553
07	-11.1553
▁Kirkko	-11.1553
▁kouluun	-11.1557
▁Kenia	-11.156
▁jäisi	-11.1561
▁Onnettomuude	-11.1561
aloitte	-11.1564
▁lopettamaan	-11.1566
ping	-11.1567
▁maihin	-11.1567
▁Evans	-11.1569
▁Aluksi	-11.1571
laukaukse	-11.1574
▁miljooni	-11.1575
▁Naiset	-11.1575
▁130	-11.1576
▁asetettu	-11.1579
▁varaus	-11.1581
ehty	-11.1581
loita	-11.1583
▁kosto	-11.1584
▁nimetty	-11.1585
▁Kyseise	-11.1585
▁ladu	-11.1586
▁palkan	-11.1589
rittäin	-11.159
▁materiaalia	-11.1592
▁Elli	-11.1593
▁puutu	-11.1593
▁sotilasta	-11.1597
▁ehtii	-11.1599
▁sisu	-11.1601
▁kannustaa	-11.1604
ruuna	-11.1615
cr	-11.1617
▁kerrokse	-11.1619
Ku	-11.162
▁tarjoil	-11.1622
▁pelistä	-11.1622
▁mittari	-11.1625
vuonna	-11.1626
pöytä	-11.1626
▁tehdas	-11.1627
kehitys	-11.1627
▁jääty	-11.1627
▁heikkene	-11.1628
▁Paikallise	-11.163
▁omissa	-11.1633
▁nimiä	-11.1634
▁brändi	-11.1634
▁Eikö	-11.1637
▁otsikoi	-11.1638
▁räjähdys	-11.164
▁Dmitri	-11.164
▁alaisuudessa	-11.164
▁meidät	-11.164
▁myöhässä	-11.164
seremonia	-11.164
▁siirretty	-11.164
▁pysäytti	-11.164
▁Korisliiga	-11.164
upseeri	-11.164
▁nahka	-11.164
▁kateissa	-11.164
▁hoidetaan	-11.164
▁arkeen	-11.1641
▁ylöspäin	-11.1641
▁talouskasvu	-11.1641
▁kuninkaan	-11.1642
▁Puolustusvoima	-11.1642
nyrkkeilijä	-11.1642
▁Luonno	-11.1642
▁sekaisin	-11.1643
▁tottunut	-11.1643
leikkauksi	-11.1644
▁satunnai	-11.1644
▁Rally	-11.1645
▁vaalipiiri	-11.1645
▁vahingoi	-11.1645
▁televisiossa	-11.1646
▁Lappiin	-11.1649
aluetta	-11.1649
▁ilmaisku	-11.1649
▁vaikutusvalta	-11.165
huoneisto	-11.1653
▁Ikä	-11.1654
▁korvi	-11.1656
▁vapaasti	-11.1656
▁mukaise	-11.1658
▁Tiistai	-11.1659
laisesta	-11.1661
▁Rock	-11.1664
▁käynnistyi	-11.1665
▁muilta	-11.1667
▁myi	-11.1668
▁antoivat	-11.1669
▁jäätelö	-11.167
yksissä	-11.167
▁korvaamaan	-11.1672
▁vuosikymmeniä	-11.1675
▁tehtäviin	-11.1677
▁maksanut	-11.1678
teema	-11.1679
48	-11.168
▁Cla	-11.168
▁Saramo	-11.1681
▁Huuhkajat	-11.1682
▁laivasto	-11.1685
▁ikäluok	-11.169
▁oikealla	-11.169
09	-11.1692
▁Em	-11.1693
TA	-11.1693
▁suunnitellu	-11.17
▁ulottu	-11.17
▁makaa	-11.1701
romaani	-11.1701
▁Wo	-11.1703
▁pystyvät	-11.1705
▁julma	-11.1705
▁iltaa	-11.1706
▁verotus	-11.1707
ttäjien	-11.1712
▁Mö	-11.1714
▁yhteiskuva	-11.1716
▁turvapaikanhak	-11.1716
▁kilpailijoi	-11.1718
▁pitivät	-11.172
hallinto	-11.1721
pörssi	-11.1723
hyppy	-11.1723
▁Hill	-11.1724
▁Seuraavana	-11.1729
▁valmistaja	-11.173
▁kirjoitus	-11.173
▁armo	-11.173
▁kuuluisi	-11.1732
ydestä	-11.1734
silmä	-11.1734
kaudet	-11.1736
▁WRC	-11.1737
▁Urheilija	-11.1737
▁lapsuuden	-11.1737
▁tragedia	-11.1737
▁naureskel	-11.1737
▁pitäneet	-11.1737
▁Blomqvist	-11.1737
▁vaihtelu	-11.1737
▁soveltu	-11.1737
▁Sipilä	-11.1737
▁pahimmillaan	-11.1737
▁katkea	-11.1738
▁lentokentällä	-11.1738
▁johdossa	-11.1738
▁pelannee	-11.1739
▁juhlien	-11.174
▁hius	-11.1742
▁Jääkieko	-11.1743
▁syöpää	-11.1743
yer	-11.1743
▁paikallaan	-11.1744
▁terveydentila	-11.1745
4)	-11.1746
ittemmin	-11.1746
▁sujunut	-11.1747
▁virheitä	-11.1749
▁tekemättä	-11.1752
▁rahoituksen	-11.1753
▁ehdotus	-11.1754
▁kylmää	-11.1754
▁todellakin	-11.1755
▁Lukas	-11.1755
▁Tuukka	-11.1756
uutisen	-11.1756
▁hakenut	-11.1758
04	-11.1758
▁eläinten	-11.1759
▁pelkkä	-11.176
▁toimineen	-11.1761
▁ohjeita	-11.1762
▁kisoja	-11.1765
▁kehitystä	-11.1767
▁pöytä	-11.1769
▁sauma	-11.1769
▁kyllästy	-11.1771
▁sähköautojen	-11.1773
▁Neste	-11.1773
49	-11.1776
▁Del	-11.1777
isyyden	-11.1779
tuuli	-11.1784
▁Vahv	-11.1785
juoksija	-11.1785
▁Viranomais	-11.1785
▁viidestä	-11.1788
▁irtisanomis	-11.1788
▁sakot	-11.1792
varoituksen	-11.1792
luoma	-11.1796
▁hankalaa	-11.1798
▁Jose	-11.1799
hoitoon	-11.18
▁raskaana	-11.18
lahja	-11.1802
▁mukavaa	-11.1803
loppu	-11.1806
34	-11.1807
▁näytös	-11.1811
▁erillise	-11.1812
nauha	-11.1814
▁kaupunginjohtaj	-11.1817
▁Kier	-11.1819
paja	-11.1823
▁Mag	-11.1823
▁katko	-11.1824
39	-11.1825
▁sanottuna	-11.1825
▁harkitse	-11.1826
▁Oppositio	-11.1833
▁politiikassa	-11.1833
▁Blinken	-11.1835
▁debytoi	-11.1835
▁silminnäkijä	-11.1835
▁Jersey	-11.1835
▁Marraskuu	-11.1835
▁Serbia	-11.1835
▁miehellä	-11.1835
▁Mirror	-11.1835
▁halutessaan	-11.1835
▁lähemmäs	-11.1835
skusrikospoliisi	-11.1835
kypärä	-11.1835
▁Yritykse	-11.1835
▁ratkea	-11.1835
musikaali	-11.1835
▁taustoi	-11.1835
▁silloise	-11.1835
▁konkari	-11.1835
▁hintojen	-11.1836
▁lisääntynyt	-11.1836
▁viereen	-11.1836
▁olkapää	-11.1836
▁Paikalle	-11.1836
▁Vihreiden	-11.1836
▁Expresseni	-11.1836
▁Perez	-11.1836
vieraiden	-11.1837
▁Euroviisuj	-11.1838
▁lohdut	-11.1838
▁vaarallista	-11.1838
kohde	-11.1839
▁valitti	-11.1839
sopimukseen	-11.184
▁kohdistunut	-11.1841
▁laajentu	-11.1842
▁asukkaan	-11.1843
▁Terve	-11.1844
▁valmistaa	-11.1845
▁kannusta	-11.1845
▁myönteise	-11.1847
▁tosiasia	-11.1847
▁Uima	-11.1848
▁Br	-11.1849
▁henkisesti	-11.185
▁fyysisesti	-11.185
televät	-11.185
way	-11.1851
pisteen	-11.1854
▁rekisteröi	-11.1855
▁sanottiin	-11.1856
▁pomo	-11.1858
▁kantaman	-11.1859
▁näytteli	-11.1859
ming	-11.186
lähetys	-11.1861
▁poro	-11.1861
▁Gazaan	-11.1862
mmalta	-11.1863
▁suurempaa	-11.1863
▁Pauli	-11.1864
▁Erika	-11.1866
▁kirjattiin	-11.1867
▁tasaisesti	-11.1869
▁viimeiseksi	-11.1871
ylä	-11.1874
▁Valmi	-11.1875
▁yltä	-11.1876
▁mökin	-11.1879
▁Nar	-11.188
▁jännittävä	-11.1883
▁Vanh	-11.1887
▁tuntuva	-11.1888
▁1,8	-11.1889
▁itäise	-11.189
▁komissio	-11.189
kkeihin	-11.1892
▁tilaisuuden	-11.1895
nimellä	-11.1896
llisiin	-11.1899
▁ilmesty	-11.1906
utettu	-11.1907
suku	-11.1907
▁ihmettele	-11.1908
tunte	-11.1911
▁maksavat	-11.1915
hakemuksen	-11.1917
▁panna	-11.192
▁valitse	-11.192
Suomi	-11.1922
▁salamurhayrity	-11.1923
▁kuljetus	-11.1926
mail	-11.1927
▁elossa	-11.1928
wer	-11.193
▁McDavid	-11.1934
▁parvekkee	-11.1934
▁suomeksi	-11.1934
▁Jokerit	-11.1934
▁Yleisradio	-11.1934
▁kohdalle	-11.1934
▁ennakkosuosikki	-11.1934
▁protesti	-11.1935
▁liittovaltio	-11.1935
▁odota	-11.1936
asiantuntijoiden	-11.1936
▁Veli	-11.1936
▁nähneet	-11.1937
▁hidas	-11.1938
▁Aikuis	-11.1938
▁liuku	-11.194
▁itku	-11.194
▁edustajainhuone	-11.1941
▁hengissä	-11.1941
▁tutut	-11.1941
▁Ram	-11.1944
▁painu	-11.1944
parlamentaarikko	-11.1945
▁Summanen	-11.1946
▁Carter	-11.1946
▁korkeinta	-11.1947
▁saapunee	-11.1947
▁alppi	-11.1949
▁istunto	-11.195
suurlähettiläs	-11.195
▁taipui	-11.1951
▁kilpailee	-11.1951
▁Bel	-11.1951
▁ennustetaan	-11.1951
▁Eläin	-11.1952
▁yksittäisiä	-11.1953
▁2030	-11.1953
vaiheeseen	-11.1956
▁Janni	-11.1958
▁tiivistää	-11.1959
▁viettävä	-11.196
joihin	-11.1961
▁toimiala	-11.1963
▁ID	-11.1964
▁Tammi	-11.1967
▁Tarkka	-11.1968
turnaukseen	-11.1969
▁kohtuullise	-11.197
▁Toisella	-11.1971
▁Kyy	-11.1972
▁tutkimuksi	-11.1973
▁runsaat	-11.1973
▁tuntenut	-11.1977
▁tapahtumiin	-11.1979
▁Mahdolli	-11.1979
heitto	-11.1979
mppi	-11.1979
▁taitava	-11.198
moni	-11.198
▁pelattava	-11.1981
▁Juo	-11.1988
kumppa	-11.199
▁Bas	-11.1991
▁minuutti	-11.1991
▁tutuksi	-11.1994
▁uhan	-11.1995
▁86	-11.1997
▁Jaakkola	-11.1999
▁konkurssiin	-11.1999
▁mopo	-11.2001
▁Williamin	-11.2001
▁esittävä	-11.2003
▁tuomitu	-11.2005
▁rangaistusta	-11.2006
▁suunnittele	-11.2009
▁kilpailuun	-11.2011
▁käsittelevä	-11.2013
▁Tee	-11.2015
▁Santa	-11.2016
▁Petr	-11.2017
harrastukse	-11.2018
52	-11.2018
▁pyrkivät	-11.2019
▁sulkeutu	-11.202
▁arkisto	-11.2021
▁lisätty	-11.2022
Q	-11.2023
harjoitus	-11.2023
kemi	-11.2025
kuvissa	-11.2026
rado	-11.2027
▁uskoi	-11.2027
▁Jyväskylä	-11.2028
kokemus	-11.2028
tavissa	-11.2029
▁kirjassaan	-11.203
▁Hockey	-11.2034
т	-11.2034
▁Hurricane	-11.2034
▁Stoltenberg	-11.2034
▁Vancouver	-11.2034
▁merkeissä	-11.2034
▁1996	-11.2034
▁Maaliskuu	-11.2034
▁Harald	-11.2034
▁Yhtye	-11.2034
▁värvä	-11.2034
sopimuksia	-11.2034
▁terrorismi	-11.2035
pykälä	-11.2035
▁Ikonen	-11.2035
▁elinvoima	-11.2035
▁cm	-11.2035
▁maltillise	-11.2036
▁söi	-11.2037
▁asukkaita	-11.2037
▁Danny	-11.2037
▁Vei	-11.2037
▁kapinallis	-11.2038
▁Manner	-11.2038
▁Silvia	-11.2038
▁esiintyä	-11.2039
▁sormi	-11.2039
▁takuu	-11.204
▁nauru	-11.204
▁käytettävä	-11.204
IC	-11.204
▁ottaneet	-11.2041
▁tervehti	-11.2043
autolla	-11.2044
▁kenraali	-11.2046
itsenäisyyspäivä	-11.2046
▁valitsee	-11.2046
▁myrky	-11.2046
kaupoissa	-11.2051
▁käänsi	-11.2054
▁merkitty	-11.2056
▁tutustui	-11.2056
▁hehkutti	-11.2056
▁väitetty	-11.2058
▁löysivät	-11.2059
kato	-11.2059
pinta	-11.206
▁Kemp	-11.206
▁Char	-11.2067
▁kiinnitti	-11.2067
▁kuulustelu	-11.2067
▁vaalipäivä	-11.207
ennettu	-11.2075
▁terä	-11.2076
▁piirissä	-11.2078
▁riippuva	-11.208
Le	-11.2085
▁Tuki	-11.2085
studio	-11.2086
▁tuottama	-11.2086
▁aihetta	-11.2087
laisessa	-11.2087
▁neuvottele	-11.2091
kymmenen	-11.2095
kirjoittaja	-11.2095
▁liput	-11.2099
kentällä	-11.2105
▁Far	-11.2107
▁tielle	-11.2107
▁oikeassa	-11.2108
tuloksen	-11.211
▁Maanantai	-11.211
▁(4	-11.2116
▁julkiste	-11.2116
▁yllättävi	-11.2117
viikonloppu	-11.2125
kalusto	-11.2125
▁arvokas	-11.2125
päällikkönä	-11.2126
korot	-11.2129
▁Top	-11.2131
▁lainsäädännö	-11.2132
▁Ylellä	-11.2132
▁uinti	-11.2133
yhdysvaltalainen	-11.2135
▁Kulttuuri	-11.2135
▁erinomainen	-11.2135
▁kolmantena	-11.2135
▁löytö	-11.2135
▁päinvastoin	-11.2135
▁vähitellen	-11.2135
▁paikallinen	-11.2135
kuningattar	-11.2135
▁Russell	-11.2135
▁Mäenpää	-11.2135
▁Miehet	-11.2135
▁fakta	-11.2135
▁Haluamme	-11.2135
▁kukisti	-11.2135
▁oikeudenmukais	-11.2136
▁heijastu	-11.2136
▁Kahvi	-11.2136
▁lähetetty	-11.2136
▁laajemmin	-11.2136
▁Antonio	-11.2137
▁Zuma	-11.2137
▁tekstiviesti	-11.2137
▁tulevaisuutta	-11.2137
▁muualta	-11.2138
▁autonsa	-11.2138
▁tuoreeltaan	-11.2139
▁nauttii	-11.214
▁tarkastella	-11.214
Hallberg	-11.2141
▁esikois	-11.2143
▁Keväällä	-11.2143
▁aido	-11.2144
row	-11.2144
▁Bottaksen	-11.2144
▁tiiviisti	-11.2147
▁Inari	-11.2147
ministerinä	-11.2148
▁julkaisemassa	-11.2149
palkinno	-11.215
▁Näissä	-11.215
▁osoittanut	-11.215
▁olu	-11.2153
▁Raimo	-11.2153
▁Kaikke	-11.2153
▁päivien	-11.2155
▁Steve	-11.2157
69	-11.2157
▁pomp	-11.2158
▁Anu	-11.2158
▁evä	-11.2159
kunnasta	-11.2162
▁kohtasivat	-11.2162
▁järjestyksen	-11.2162
▁syömään	-11.2163
▁sähköä	-11.2164
varma	-11.2166
▁yrittivät	-11.2166
▁sato	-11.2168
▁Erityise	-11.2172
▁Alma	-11.2174
joella	-11.2179
▁kokevat	-11.218
▁kaupungista	-11.2182
▁Sveitsissä	-11.2184
▁Paju	-11.2184
▁varhaiskasvatu	-11.2184
+4	-11.2185
▁antami	-11.2191
▁herää	-11.2196
▁jätetty	-11.2197
▁kuuluisa	-11.2198
▁valitu	-11.2198
▁perinne	-11.2199
▁pitkästä	-11.22
osio	-11.2202
▁Summa	-11.2203
▁odottama	-11.2205
▁hidastu	-11.2207
▁Yhdist	-11.2209
▁riste	-11.2211
▁tiettyj	-11.2217
▁valitus	-11.2218
▁yritystä	-11.2218
▁tukevat	-11.2219
tielle	-11.222
▁Kaupa	-11.222
kuume	-11.2221
kankaan	-11.2225
▁satei	-11.2226
torjunta	-11.2227
37	-11.2227
juontaja	-11.2227
▁vastaise	-11.2232
-17	-11.2233
toteut	-11.2233
-10	-11.2234
▁halusivat	-11.2237
р	-11.2237
▁Kuljettaja	-11.2237
▁Ratkaisu	-11.2237
▁ehdolle	-11.2237
▁linjoilla	-11.2237
▁rattijuopumukse	-11.2237
▁kokaiini	-11.2237
▁korruptio	-11.2237
▁lähistöllä	-11.2237
▁Lämsä	-11.2237
▁rakkautta	-11.2237
▁taloudellisi	-11.2237
▁Pakarinen	-11.2237
▁Walesin	-11.2237
▁ulkopuolise	-11.2237
hormoni	-11.2237
▁lounas	-11.2238
▁tavannut	-11.2238
▁Vakio	-11.2238
▁vaikuttamaan	-11.2238
▁tyydy	-11.2238
▁avioitu	-11.2239
▁tulevaisuudesta	-11.2239
▁katkesi	-11.2239
▁kirjoitettu	-11.2239
-23	-11.224
▁pelätä	-11.224
▁nimeltä	-11.2242
▁pettynyt	-11.2242
▁näyttämään	-11.2243
▁rikokseen	-11.2244
▁tuohon	-11.2247
▁surullinen	-11.2247
▁Toiminta	-11.2247
▁kuollee	-11.2247
viikolla	-11.2247
▁Minja	-11.2252
▁luottamusta	-11.2252
▁valtakunnan	-11.2254
ettaisiin	-11.2257
▁Kanso	-11.2261
▁synkkä	-11.2262
▁Kumpik	-11.2262
▁täytti	-11.2262
▁hukku	-11.2263
määrää	-11.2264
▁Huono	-11.2265
▁päätynyt	-11.2266
laiselle	-11.227
▁hyväksyttävä	-11.2274
▁Perjantai	-11.2275
▁kasvavat	-11.2277
uudistuksen	-11.2279
▁sairaalasta	-11.2279
▁Johan	-11.2279
kelpois	-11.228
▁pizza	-11.228
▁yh	-11.2281
▁unohta	-11.2282
▁opettaji	-11.2283
kentältä	-11.2288
▁tosiaan	-11.2288
automaatti	-11.2289
▁kutsuu	-11.229
▁Hall	-11.2294
well	-11.2298
▁tukemaan	-11.2299
▁aloittanee	-11.23
▁vanhempia	-11.23
▁teosta	-11.2301
stetään	-11.2301
▁herättävä	-11.2301
▁Tarjo	-11.2303
▁seikkailu	-11.2307
▁tulkin	-11.2308
▁ilmaisi	-11.2312
tunne	-11.2316
▁ruutu	-11.2316
▁palauttaa	-11.2323
▁rahoja	-11.2326
▁Malm	-11.233
▁sektori	-11.2332
kappaleen	-11.2332
ukseksi	-11.2334
▁ammuttu	-11.2335
joukkueessa	-11.2336
▁1,2	-11.2338
▁nöyr	-11.234
uimari	-11.234
▁pyydetään	-11.234
▁radikaali	-11.234
▁suunnilleen	-11.234
▁symboli	-11.234
▁Orbán	-11.234
▁kauneus	-11.234
▁neuvonantaja	-11.234
▁suhteesta	-11.234
▁Matintalo	-11.234
▁teoria	-11.2341
▁Tehtävä	-11.2341
kortin	-11.2341
▁sorme	-11.2341
▁Lämpötila	-11.2342
▁itseäni	-11.2343
▁ylioppilas	-11.2343
▁Hakola	-11.2344
▁selvitetään	-11.2346
▁sanomaan	-11.2347
▁laitetaan	-11.2349
▁vesistö	-11.2349
▁Perry	-11.2349
kohtaa	-11.235
▁Avaus	-11.2351
▁hitaasti	-11.2353
▁Kaarle	-11.2353
penkki	-11.2354
▁hiero	-11.2356
▁aiheuttaneet	-11.2356
▁ruumii	-11.2358
▁hyväksynyt	-11.2359
▁Hotelli	-11.2359
▁pystytään	-11.2359
▁Tiktokissa	-11.2359
▁asiakkaan	-11.236
▁Slovakia	-11.2361
ajasta	-11.2362
▁Kuiva	-11.2363
▁Salmisen	-11.2363
▁ulkomai	-11.2367
▁pannu	-11.2367
▁tehtävänä	-11.2367
cher	-11.2368
Stubbin	-11.2369
▁leiki	-11.2371
▁jatkanut	-11.2371
▁Ministeriö	-11.2372
▁suunnitelmia	-11.2373
eltiin	-11.2373
▁ohjuksia	-11.2377
old	-11.2379
▁Tapahtu	-11.238
▁perustettu	-11.2385
▁puheenjohtaj	-11.2386
▁politiikka	-11.2389
kodin	-11.2391
paperi	-11.2391
malleja	-11.2393
▁nolo	-11.2398
▁kokemuksi	-11.2399
▁Sade	-11.2399
▁nostamaan	-11.2401
▁Luko	-11.2402
palveluita	-11.2403
▁Carlos	-11.2403
▁Elisa	-11.2407
▁avautui	-11.2409
▁moka	-11.241
▁keskiviikkoilta	-11.2411
▁väittä	-11.2413
▁veli	-11.2416
kaivo	-11.2417
uudella	-11.2418
▁haavoittui	-11.2418
▁kierrä	-11.242
perheen	-11.2421
▁Henrik	-11.2423
kirjoja	-11.2424
▁termi	-11.2425
▁valhe	-11.243
▁Laji	-11.2431
▁harvinaise	-11.2436
▁heikenty	-11.2441
▁runko	-11.2442
▁näkemyksiä	-11.2443
▁pelkkää	-11.2444
vuotiaalle	-11.2444
▁dramaattise	-11.2444
▁siirrettiin	-11.2444
▁vaihtelee	-11.2444
myrkky	-11.2444
▁Gabriel	-11.2444
▁Jalosen	-11.2444
▁vieraille	-11.2444
▁tavallinen	-11.2445
▁Lewis	-11.2445
▁ryhdy	-11.2445
▁Haukio	-11.2445
▁varsinainen	-11.2446
▁Valtaosa	-11.2447
▁aiheutunut	-11.2448
▁kohteita	-11.2448
peleihin	-11.2448
▁Yksityis	-11.2449
▁eteläise	-11.245
▁kiitti	-11.245
▁roikku	-11.2451
▁aseiden	-11.2451
▁Vappu	-11.2452
▁kyynel	-11.2453
esiintyjä	-11.2453
▁Pul	-11.2454
osuma	-11.2458
▁tuotteen	-11.246
▁useamma	-11.246
▁esitettiin	-11.2462
pohj	-11.2462
▁Annika	-11.2462
▁Green	-11.2463
▁Suomalaiste	-11.2464
▁satojen	-11.2465
▁laadu	-11.2467
▁sääntöjä	-11.2467
▁alustava	-11.2467
oppa	-11.2469
▁paineita	-11.2469
▁matsi	-11.2472
▁havainnoi	-11.2473
▁väärää	-11.2473
▁hoidon	-11.2475
▁antamassa	-11.2476
kulmi	-11.2477
▁Tori	-11.2482
▁häiritse	-11.2482
▁Lauantai	-11.2483
ttämättä	-11.2483
asento	-11.2485
▁odottavat	-11.2485
osiossa	-11.2487
▁Ouluun	-11.2488
!"	-11.2488
▁tiensä	-11.2489
▁urheilijoita	-11.2491
▁Kauko	-11.2496
▁kierto	-11.2497
▁lääkkeitä	-11.2499
▁palkinnon	-11.2501
▁kartoi	-11.2503
▁tärkeänä	-11.2507
▁vankilaan	-11.2509
▁virasto	-11.251
▁miljoonia	-11.2516
▁parhaita	-11.2517
▁profiili	-11.2519
▁mediaan	-11.2521
▁Bor	-11.2521
koneita	-11.2539
▁kirkas	-11.2539
karsinta	-11.2541
▁Til	-11.2543
energia	-11.2544
artisti	-11.2544
yliopisto	-11.2545
välierä	-11.2545
liivi	-11.2545
rahoitus	-11.2546
sauna	-11.2549
▁poistettu	-11.255
▁Energia	-11.255
▁Heliövaara	-11.255
▁IFK	-11.255
▁Katariina	-11.255
▁Tukholman	-11.255
▁iloitsee	-11.255
▁Leverkusen	-11.255
▁fiksu	-11.255
▁jäljiltä	-11.255
▁Cruz	-11.255
▁Hieman	-11.255
▁Terveyden	-11.255
▁levinnyt	-11.255
▁ensisijaisesti	-11.255
▁Liitto	-11.255
▁pidempi	-11.255
▁sisustus	-11.255
▁kuulemma	-11.2551
▁otsikoihin	-11.2552
▁tavallisi	-11.2552
▁hyväkseen	-11.2552
▁kohdistuvat	-11.2553
maksuja	-11.2554
▁nelos	-11.2555
▁lennä	-11.2555
▁iässä	-11.2557
▁maita	-11.2558
▁kuukausien	-11.2558
▁iskenyt	-11.2559
▁vastaavi	-11.256
▁Erkki	-11.2561
▁Alb	-11.2565
▁Emilia	-11.2569
luodon	-11.2569
▁Tällaist	-11.2569
▁Tel	-11.257
▁meiltä	-11.2571
▁asiakirja	-11.2572
▁yrittävät	-11.2572
ilmoituksen	-11.2574
▁tukija	-11.2575
näyttämö	-11.2575
▁tunteja	-11.2575
▁aamuna	-11.2576
suorituksen	-11.2576
vuotta	-11.2579
▁Syyn	-11.258
▁osoittavat	-11.2582
▁rajoittaa	-11.2582
kaudelle	-11.2582
▁julkinen	-11.2583
▁Toise	-11.2584
▁arvoinen	-11.2585
▁samanlainen	-11.2585
▁psykiatri	-11.2586
▁lähialue	-11.2588
▁valmistunut	-11.2589
46	-11.259
TE	-11.2592
laakso	-11.2596
32	-11.2598
▁Over	-11.2599
▁Liettua	-11.26
▁kehuja	-11.2601
aineet	-11.2602
konetta	-11.2606
tekijöiden	-11.2607
▁tapasivat	-11.2607
rokotte	-11.2609
▁pysäyttää	-11.261
▁hermostu	-11.2612
▁saadakseen	-11.2616
▁140	-11.262
▁kasaan	-11.2624
▁Isis	-11.2624
▁Vilma	-11.2626
vuor	-11.2627
▁tuntu	-11.2628
näyte	-11.263
▁iloise	-11.263
▁aloittami	-11.2631
sodan	-11.2633
olosuhte	-11.2636
▁karva	-11.2641
▁Comb	-11.2641
▁poikkeava	-11.2644
▁Lisä	-11.2645
▁Laita	-11.2648
ryhmien	-11.265
Video	-11.2651
joulu	-11.2653
alueita	-11.2654
pandemia	-11.2655
▁tykistö	-11.2656
▁Heleniukse	-11.2656
▁ankkuri	-11.2656
▁flunssa	-11.2656
▁jälkikäteen	-11.2656
▁Tietysti	-11.2656
▁Junnila	-11.2656
▁keihäs	-11.2656
▁Baltian	-11.2656
▁Roomassa	-11.2656
▁kanadalais	-11.2656
▁Gnistan	-11.2656
▁ateria	-11.2656
▁horju	-11.2656
▁prosenttiyksikö	-11.2656
▁Archie	-11.2656
▁vanhempa	-11.2656
▁lentää	-11.2657
▁semifinaali	-11.2657
▁Linnea	-11.2657
▁vuodenvaihtee	-11.2658
▁liikkuva	-11.2658
▁saarella	-11.2658
▁maisteri	-11.2658
▁lastensuojelu	-11.2658
▁paluuta	-11.2658
▁Maj	-11.266
-12	-11.266
▁kauppakeskus	-11.2661
▁valinnut	-11.2661
▁tahtiin	-11.2661
▁kerätä	-11.2662
▁suunnan	-11.2662
▁samanlaista	-11.2663
▁edellisestä	-11.2663
▁Ruoho	-11.2663
▁Dallasin	-11.2663
▁lämpene	-11.2664
AS	-11.2666
▁henkilökunnan	-11.2667
▁suosittelee	-11.2669
▁lähtisi	-11.267
▁Venäläise	-11.267
▁rock	-11.2671
▁venäläisiä	-11.2671
▁Heinonen	-11.2672
▁Lapsen	-11.2674
▁lastensa	-11.2675
▁nauttimaan	-11.2678
▁epäili	-11.268
▁auttanut	-11.268
▁käydy	-11.2681
▁Vesala	-11.2682
▁aktiivise	-11.2683
▁tuhoutui	-11.2683
yksiin	-11.2684
ür	-11.2685
▁paikallisia	-11.2687
▁tajusi	-11.2688
välittäjä	-11.2689
▁vastine	-11.269
▁Keho	-11.2692
▁laitettu	-11.2692
▁valituksi	-11.2692
▁paikoissa	-11.2694
▁pelasti	-11.2696
velvollisuus	-11.2699
▁PS	-11.27
▁monipuolise	-11.2703
▁ajama	-11.2703
▁näyttöä	-11.2704
sataa	-11.2704
▁4-2	-11.2704
▁tuomioistuime	-11.2709
▁Kymmen	-11.2713
▁lämmittä	-11.2715
ilmoituksia	-11.272
▁Kie	-11.272
heimo	-11.2722
▁luontee	-11.2726
▁Syyriassa	-11.2727
▁Rose	-11.2728
▁lipu	-11.2728
▁ajasta	-11.2728
▁Mou	-11.2729
▁jouduttu	-11.273
▁Brand	-11.2731
▁soitto	-11.2733
▁palamaan	-11.2738
▁herättänee	-11.2741
kalo	-11.2748
▁viiva	-11.2749
▁kilpaileva	-11.275
ikäisiä	-11.2753
▁näkymin	-11.2755
▁romahta	-11.2755
▁tähdet	-11.2756
saaressa	-11.2758
kuljetus	-11.276
▁Teh	-11.276
poliitikko	-11.276
Suomeen	-11.276
▁Tampa	-11.2761
▁America	-11.2764
с	-11.2764
▁Twitter	-11.2764
▁nähtävissä	-11.2764
▁tapahdu	-11.2764
▁1997	-11.2764
▁kolumni	-11.2764
▁sukupolvi	-11.2764
▁henkilökohtaisi	-11.2764
▁Ympäristö	-11.2764
▁harvinaista	-11.2764
▁ehdoi	-11.2764
▁Ennuste	-11.2764
▁huikea	-11.2764
tulehduks	-11.2764
▁Hautala	-11.2764
▁käytettävissä	-11.2765
▁voittajaksi	-11.2765
tuote	-11.2765
▁keskittyvä	-11.2765
varoitus	-11.2766
▁yksikään	-11.2766
▁Tony	-11.2767
▁tehtävästä	-11.2768
▁vaarantamisesta	-11.2768
jätti	-11.2768
▁vaisu	-11.2768
ongelmista	-11.2771
▁välttämään	-11.2772
▁epäonnistui	-11.2773
▁polku	-11.2773
▁hanka	-11.2773
▁ylivoimaisesti	-11.2774
▁aikuisen	-11.2775
▁tekniikka	-11.2775
▁ottavat	-11.2776
▁ajanjakso	-11.2778
▁lisääntynee	-11.2778
▁luvannut	-11.2779
▁työllistä	-11.2779
jäsenyyttä	-11.278
lääkkeiden	-11.2782
▁tällaiset	-11.2783
▁kylmi	-11.2783
johtajien	-11.2784
▁askelee	-11.2785
▁laatua	-11.2785
finaal	-11.2786
▁Uutta	-11.2786
▁räppäri	-11.2787
viljely	-11.2788
kannut	-11.2789
▁Sanoma	-11.279
▁työskentele	-11.2791
ominaisuuksi	-11.2792
▁Rantasen	-11.2793
kolmikko	-11.2796
haastattelu	-11.2796
ottelija	-11.2797
▁kaupassa	-11.2797
suunnitelmista	-11.2799
▁arvioitiin	-11.2799
▁Kysy	-11.2802
▁vartalo	-11.2805
▁tärkeimmä	-11.2808
▁lepo	-11.2809
lääkettä	-11.281
▁julkaistaan	-11.2811
▁Pertti	-11.2812
▁toimitus	-11.2814
▁vanhin	-11.2814
kkeita	-11.2815
▁haja	-11.2816
▁Savi	-11.2816
▁Messi	-11.2821
▁suosituin	-11.2826
kunnat	-11.2828
lume	-11.2829
▁hämmentävä	-11.2833
▁Mati	-11.2835
▁rooliin	-11.2837
▁Tuominen	-11.2839
▁sijoitukse	-11.2844
▁Luku	-11.2846
▁poliittiset	-11.2849
▁Rata	-11.2849
▁edustama	-11.2849
▁keskusteluja	-11.2851
▁alettu	-11.2853
▁pyöräily	-11.2857
▁Keskinen	-11.2857
▁mauste	-11.286
▁kertaakaan	-11.2862
▁toiste	-11.2864
läisten	-11.2865
prosenti	-11.2866
▁Seppä	-11.2869
pelejä	-11.2871
firma	-11.2871
eläke	-11.2872
kruununprinsessa	-11.2872
▁Anthony	-11.2872
▁Bryggare	-11.2872
▁Buffalo	-11.2872
▁Business	-11.2872
▁Lepistö	-11.2872
▁Yhdysvaltoja	-11.2872
▁prikaati	-11.2872
▁risteyksessä	-11.2872
▁taloudellista	-11.2872
▁aamuyöllä	-11.2872
▁lemmikki	-11.2872
▁Atlanti	-11.2872
▁Lokakuu	-11.2872
▁vanhojen	-11.2872
▁sinulle	-11.2872
▁tutkinnassa	-11.2872
▁Kukkonen	-11.2872
kysymykset	-11.2872
▁Journal	-11.2872
kurpitsa	-11.2872
▁päiväsakko	-11.2873
▁rangaistuspotku	-11.2873
▁virheellisesti	-11.2873
▁71	-11.2873
▁haava	-11.2873
henkilökohtainen	-11.2873
▁pahimma	-11.2873
geeni	-11.2873
▁Uudessa	-11.2873
▁vinkkaa	-11.2874
▁firma	-11.2875
▁kustannuksia	-11.2875
▁halunneet	-11.2876
▁sotilaat	-11.2877
▁pelaajille	-11.2878
Marit	-11.2879
▁Tru	-11.2879
tilannetta	-11.2879
▁pisteeseen	-11.2881
makkara	-11.2881
puhelin	-11.2883
Me	-11.2883
▁todennut	-11.2887
▁negatiivis	-11.289
uudelle	-11.2891
demokraattien	-11.2893
▁Julki	-11.2893
maahan	-11.2895
▁vakuutus	-11.2896
▁piiriin	-11.2902
▁pohtimaan	-11.2904
heim	-11.2908
▁Lasse	-11.2908
▁kautensa	-11.2909
varmuus	-11.291
▁seurauksia	-11.2911
▁Englanni	-11.2912
karsinnassa	-11.2913
▁Aston	-11.2916
▁kotinsa	-11.2917
ssel	-11.2919
▁majoitus	-11.292
▁tuomiosta	-11.2922
kolari	-11.2922
▁jokaisella	-11.2925
lehto	-11.2928
jäsenyys	-11.2928
▁Ivan	-11.2931
▁naama	-11.2931
▁kysyntää	-11.2933
ikäisen	-11.2934
▁asetelma	-11.2934
▁unohtaa	-11.2934
▁turvallis	-11.2937
▁repi	-11.2938
▁viimeiseen	-11.294
▁albumi	-11.2942
▁Vär	-11.2943
▁Tasa	-11.2944
▁seitsemäs	-11.2944
▁markkinoille	-11.2947
▁Pittsburgh	-11.2947
▁Kansallis	-11.2948
▁GT	-11.2948
▁Schumacherin	-11.2949
▁You	-11.2951
▁turnauksessa	-11.2952
esityksen	-11.2952
kaver	-11.2953
tunturi	-11.2954
▁tuoli	-11.2954
▁into	-11.2958
▁pitämä	-11.2963
aluksen	-11.297
▁ansaitse	-11.297
▁raskasta	-11.2974
▁Guardianin	-11.2976
▁työmaa	-11.2977
▁Palmu	-11.2979
kannan	-11.2981
persoona	-11.2981
katsomo	-11.2981
▁Saksaan	-11.2981
vaihtoehto	-11.2982
▁Chelsea	-11.2982
▁Jylhä	-11.2982
▁Urpilainen	-11.2982
▁mahdottom	-11.2982
▁toimenpitee	-11.2982
■	-11.2982
▁johtuen	-11.2982
▁pysähdy	-11.2982
▁lentäjä	-11.2982
▁Jokerien	-11.2982
▁hehtaari	-11.2982
▁vetäytyi	-11.2982
▁avannut	-11.2982
▁polttomoottori	-11.2982
▁ennemmin	-11.2982
▁sairausloma	-11.2983
▁NBC	-11.2983
ellään	-11.2983
▁samoja	-11.2984
▁kenellekään	-11.2984
▁väläyt	-11.2984
▁kriteeri	-11.2984
▁lähetettiin	-11.2984
▁ymmärtänyt	-11.2985
▁Joshua	-11.2985
▁Herola	-11.2985
▁toimintansa	-11.2986
▁tuulivoima	-11.2986
seurojen	-11.2987
▁Venla	-11.2987
▁sanojens	-11.2987
▁puhdas	-11.2988
▁350	-11.2994
kannat	-11.2998
mäinen	-11.3005
▁lapsiperhe	-11.301
▁punaisen	-11.3011
▁nuku	-11.3012
▁pitämi	-11.3012
▁Alko	-11.3014
▁yhteiskunna	-11.3014
▁2-1-	-11.3015
▁jäsenmaa	-11.3016
▁Lindberg	-11.3016
▁itsenäise	-11.3017
▁päätökset	-11.3018
▁yötä	-11.3018
▁Instagramiin	-11.3021
▁tarjous	-11.3025
▁EK	-11.3026
▁perheessä	-11.3026
▁toimenpiteitä	-11.3027
▁korkeus	-11.3028
▁keinoin	-11.3028
[...]
