<unk>	0
<s>	0
</s>	0
en	-0
ta	-1
is	-2
in	-3
an	-4
▁k	-5
ll	-6
▁o	-7
tt	-8
sa	-9
si	-10
▁j	-11
va	-12
▁m	-13
▁p	-14
▁t	-15
ka	-16
it	-17
es	-18
el	-19
än	-20
er	-21
ut	-22
uo	-23
▁s	-24
▁h	-25
us	-26
ik	-27
▁v	-28
un	-29
▁e	-30
on	-31
al	-32
as	-33
ti	-34
▁l	-35
▁ja	-36
oi	-37
tä	-38
▁on	-39
il	-40
lla	-41
et	-42
ma	-43
▁a	-44
uk	-45
▁va	-46
li	-47
een	-48
ja	-49
os	-50
▁S	-51
ää	-52
▁n	-53
ra	-54
uu	-55
ttä	-56
▁K	-57
ist	-58
▁ta	-59
lle	-60
ul	-61
ko	-62
ar	-63
ki	-64
▁T	-65
ista	-66
te	-67
sä	-68
den	-69
mm	-70
▁M	-71
isi	-72
▁y	-73
▁ko	-74
aa	-75
tti	-76
▁jo	-77
▁H	-78
inen	-79
to	-80
llä	-81
ri	-82
▁P	-83
yö	-84
vat	-85
▁ka	-86
ksi	-87
vä	-88
▁mu	-89
ys	-90
▁si	-91
▁V	-92
yt	-93
ke	-94
le	-95
ur	-96
ks	-97
▁sa	-98
▁vi	-99
hd	-100
taa	-101
mi	-102
▁että	-103
vi	-104
pa	-105
▁L	-106
ei	-107
kaan	-108
ään	-109
kin	-110
▁ei	-111
uks	-112
ih	-113
▁A	-114
issa	-115
utta	-116
▁E	-117
isen	-118
▁se	-119
mp	-120
ku	-121
▁oli	-122
la	-123
▁J	-124
▁r	-125
äh	-126
ina	-127
uh	-128
assa	-129
essa	-130
jo	-131
▁N	-132
▁ma	-133
ie	-134
op	-135
taan	-136
▁ku	-137
▁ker	-138
▁R	-139
de	-140
yn	-141
im	-142
▁vuo	-143
▁en	-144
or	-145
ee	-146
ir	-147
tu	-148
▁hän	-149
är	-150
▁2	-151
unn	-152
▁O	-153
usta	-154
▁al	-155
ann	-156
ot	-157
itä	-158
uom	-159
▁I	-160
▁te	-161
ty	-162
esta	-163
kä	-164
▁to	-165
mä	-166
istä	-167
ia	-168
▁pää	-169
▁1	-170
ttu	-171
yös	-172
iin	-173
at	-174
ttel	-175
▁la	-176
jan	-177
van	-178
▁ole	-179
▁ra	-180
▁mukaan	-181
man	-182
maan	-183
oit	-184
äl	-185
▁kä	-186
yy	-187
▁tä	-188
ala	-189
asta	-190
▁po	-191
äi	-192
jä	-193
ika	-194
ossa	-195
llis	-196
▁-	-197
oin	-198
vät	-199
pp	-200
▁pa	-201
▁voi	-202
mis	-203
▁ha	-204
sia	-205
uol	-206
▁myös	-207
▁kes	-208
se	-209
ussa	-210
▁san	-211
ne	-212
▁B	-213
esti	-214
▁per	-215
na	-216
ssa	-217
▁kan	-218
re	-219
oa	-220
ten	-221
jen	-222
ol	-223
elä	-224
ien	-225
ui	-226
▁nä	-227
▁kun	-228
▁val	-229
sta	-230
▁ol	-231
▁20	-232
essä	-233
▁ovat	-234
uksen	-235
ike	-236
up	-237
llut	-238
▁Y	-239
tta	-240
▁hy	-241
sin	-242
he	-243
ua	-244
▁mutta	-245
eri	-246
ana	-247
▁toi	-248
▁U	-249
ssä	-250
▁Suom	-251
min	-252
oo	-253
eli	-254
eh	-255
▁li	-256
estä	-257
▁yh	-258
ön	-259
ttiin	-260
▁pal	-261
om	-262
▁as	-263
▁läh	-264
issä	-265
▁mi	-266
toi	-267
itt	-268
ise	-269
▁tar	-270
▁saa	-271
ikka	-272
kka	-273
▁tul	-274
ha	-275
taja	-276
ust	-277
ime	-278
00	-279
osta	-280
▁pel	-281
ro	-282
▁kerto	-283
▁il	-284
▁esi	-285
▁C	-286
lta	-287
stä	-288
▁Hän	-289
vin	-290
ken	-291
tan	-292
iten	-293
mme	-294
iko	-295
men	-296
lo	-297
kk	-298
▁par	-299
iksi	-300
eet	-301
▁ih	-302
ve	-303
▁pit	-304
iden	-305
tö	-306
▁ollut	-307
etta	-308
da	-309
▁Ka	-310
yks	-311
hti	-312
ura	-313
ky	-314
kon	-315
tka	-316
▁jäl	-317
isten	-318
▁tuo	-319
keen	-320
rin	-321
isä	-322
▁tai	-323
▁kuin	-324
▁kuu	-325
▁kertoo	-326
mer	-327
▁F	-328
▁er	-329
▁Sa	-330
isia	-331
itse	-332
▁tu	-333
▁joka	-334
▁ki	-335
▁ar	-336
oh	-337
teen	-338
maa	-339
▁"	-340
vän	-341
ytt	-342
▁(	-343
uut	-344
uus	-345
▁ti	-346
enä	-347
hin	-348
män	-349
tin	-350
▁puol	-351
▁tapa	-352
mmin	-353
▁var	-354
ila	-355
vaa	-356
▁he	-357
▁D	-358
ita	-359
ikä	-360
vo	-361
minen	-362
▁tie	-363
hdo	-364
▁sen	-365
▁Se	-366
mat	-367
vuo	-368
▁jälkeen	-369
▁vas	-370
▁men	-371
di	-372
▁osa	-373
sti	-374
nna	-375
uun	-376
ikki	-377
isin	-378
anta	-379
tty	-380
iset	-381
lleen	-382
isesti	-383
▁viime	-384
mista	-385
▁kanssa	-386
▁G	-387
ud	-388
kö	-389
▁La	-390
ran	-391
▁puh	-392
unut	-393
rit	-394
▁na	-395
jän	-396
▁niin	-397
▁ed	-398
mmä	-399
▁so	-400
kan	-401
▁us	-402
▁maa	-403
▁kir	-404
inn	-405
yh	-406
▁huo	-407
ella	-408
mmen	-409
ton	-410
voi	-411
▁suo	-412
pä	-413
▁työ	-414
▁vä	-415
tään	-416
mään	-417
illa	-418
uud	-419
sen	-420
▁Venä	-421
do	-422
me	-423
kil	-424
ille	-425
▁lop	-426
joit	-427
kko	-428
▁Ta	-429
▁kor	-430
▁olisi	-431
tto	-432
▁ensi	-433
▁Tä	-434
jon	-435
est	-436
ärj	-437
asti	-438
▁Suomen	-439
▁ke	-440
kaa	-441
aan	-442
▁päi	-443
▁sanoo	-444
▁asi	-445
▁vuonna	-446
ili	-447
▁3	-448
isto	-449
val	-450
▁sai	-451
ellä	-452
elle	-453
so	-454
kra	-455
uden	-456
ukku	-457
▁min	-458
massa	-459
▁teh	-460
▁202	-461
▁kol	-462
▁kuiten	-463
▁til	-464
▁is	-465
▁jul	-466
uuta	-467
▁yli	-468
yttä	-469
▁sel	-470
hta	-471
▁ky	-472
ksen	-473
▁eur	-474
▁olla	-475
eita	-476
joi	-477
▁kul	-478
kun	-479
▁suu	-480
▁aik	-481
vel	-482
▁kos	-483
oli	-484
▁kys	-485
▁luo	-486
▁W	-487
▁enn	-488
▁hal	-489
tte	-490
han	-491
isiin	-492
▁sekä	-493
▁En	-494
ali	-495
ikko	-496
rä	-497
ea	-498
kki	-499
jat	-500
uksia	-501
osen	-502
ni	-503
siden	-504
▁aika	-505
oja	-506
residen	-507
▁ni	-508
▁vielä	-509
▁hen	-510
▁kertoi	-511
▁Ma	-512
mpi	-513
▁hall	-514
▁jä	-515
tää	-516
isti	-517
▁poli	-518
una	-519
▁pi	-520
uttaa	-521
▁hänen	-522
pu	-523
▁tapah	-524
▁yhte	-525
▁oike	-526
▁uu	-527
▁ver	-528
▁yksi	-529
gin	-530
inä	-531
▁su	-532
▁koko	-533
iste	-534
uva	-535
▁vuoden	-536
pi	-537
▁kil	-538
▁nyt	-539
▁ul	-540
malla	-541
▁Jo	-542
▁miel	-543
▁Mar	-544
alta	-545
ru	-546
ite	-547
▁Vi	-548
▁seura	-549
▁Ha	-550
itta	-551
tiin	-552
▁tur	-553
misen	-554
uomala	-555
▁vain	-556
uto	-557
päi	-558
änyt	-559
jaa	-560
koi	-561
merk	-562
▁Hel	-563
▁lö	-564
eiden	-565
lan	-566
▁siitä	-567
usi	-568
ed	-569
▁lä	-570
▁hyvin	-571
ulla	-572
▁kuitenkin	-573
▁no	-574
▁4	-575
ynyt	-576
vää	-577
iken	-578
▁väh	-579
nut	-580
▁jat	-581
kas	-582
▁sy	-583
ast	-584
iv	-585
ue	-586
vuoti	-587
ttää	-588
▁mahdo	-589
uv	-590
▁f	-591
▁To	-592
▁Ukra	-593
llinen	-594
▁An	-595
oita	-596
▁van	-597
▁tiet	-598
ihe	-599
▁an	-600
ele	-601
▁le	-602
nä	-603
ystä	-604
▁kuo	-605
▁sitä	-606
▁os	-607
hde	-608
▁ri	-609
▁tut	-610
kunn	-611
merkiksi	-612
mia	-613
▁tunn	-614
▁elä	-615
kään	-616
della	-617
▁5	-618
▁mon	-619
llo	-620
▁oh	-621
htaja	-622
▁har	-623
istu	-624
mo	-625
▁Ra	-626
▁kat	-627
dän	-628
▁hyvä	-629
▁Pa	-630
▁vasta	-631
hdys	-632
▁presiden	-633
tten	-634
▁ensimmä	-635
anne	-636
▁jossa	-637
▁kaikki	-638
▁sanoi	-639
minist	-640
yr	-641
▁kesk	-642
▁ne	-643
ari	-644
▁b	-645
▁aikana	-646
dä	-647
▁myö	-648
▁jon	-649
itus	-650
▁tun	-651
▁jos	-652
▁kann	-653
▁noin	-654
▁aina	-655
▁itse	-656
din	-657
lä	-658
▁Va	-659
▁Ko	-660
uksi	-661
upun	-662
▁pr	-663
▁koh	-664
emm	-665
ttei	-666
ihin	-667
ttia	-668
yty	-669
lloin	-670
▁paljon	-671
nyt	-672
▁kas	-673
ula	-674
ilta	-675
elin	-676
tun	-677
erä	-678
jel	-679
pail	-680
ga	-681
▁mie	-682
▁vaik	-683
▁ennen	-684
isäksi	-685
▁19	-686
▁syy	-687
kilö	-688
tui	-689
▁eivät	-690
tio	-691
▁lo	-692
pan	-693
ver	-694
kis	-695
▁sitten	-696
uste	-697
tanut	-698
via	-699
llista	-700
uksessa	-701
▁kiin	-702
▁Venäjän	-703
uuden	-704
▁re	-705
pal	-706
▁pys	-707
▁suomala	-708
▁ai	-709
▁epä	-710
▁sillä	-711
äärä	-712
▁käy	-713
▁vaa	-714
▁kaksi	-715
utu	-716
▁teke	-717
▁kuul	-718
▁ottel	-719
▁keh	-720
▁väl	-721
esk	-722
▁keski	-723
lli	-724
▁ilm	-725
▁muun	-726
▁järj	-727
otta	-728
johtaja	-729
▁eri	-730
llisen	-731
uutta	-732
ch	-733
▁maan	-734
po	-735
▁ään	-736
▁ettei	-737
ikon	-738
▁muassa	-739
▁lap	-740
isa	-741
▁jää	-742
▁Yhdys	-743
lin	-744
▁mil	-745
▁Ilta	-746
tuu	-747
rump	-748
son	-749
▁me	-750
iseen	-751
mien	-752
▁tuli	-753
▁mer	-754
elta	-755
isiä	-756
▁las	-757
ikke	-758
valta	-759
▁kuva	-760
uot	-761
▁Trump	-762
ministeri	-763
▁esimerkiksi	-764
▁väli	-765
▁vastaan	-766
▁hä	-767
san	-768
ven	-769
yttää	-770
▁pelaa	-771
000	-772
uka	-773
▁Helsin	-774
▁201	-775
era	-776
je	-777
len	-778
mma	-779
erin	-780
kkä	-781
▁liitt	-782
valla	-783
ojen	-784
▁Sal	-785
▁voit	-786
lais	-787
▁He	-788
▁ede	-789
onen	-790
▁hel	-791
▁toimin	-792
▁tote	-793
▁tulee	-794
tteli	-795
unta	-796
▁tule	-797
▁Jos	-798
kuussa	-799
▁nuo	-800
oike	-801
▁aie	-802
▁lis	-803
▁Har	-804
urhe	-805
llisesti	-806
▁prosen	-807
olla	-808
▁henkilö	-809
ustel	-810
▁maail	-811
ukset	-812
▁000	-813
▁ihm	-814
ksa	-815
▁pitää	-816
▁hyö	-817
iti	-818
▁kommen	-819
ian	-820
▁toimi	-821
▁olivat	-822
▁mitä	-823
▁ulko	-824
hden	-825
eksi	-826
▁kunn	-827
▁sija	-828
yksen	-829
vasti	-830
▁Ro	-831
▁On	-832
istö	-833
tar	-834
▁maal	-835
oon	-836
▁euroa	-837
▁luk	-838
ssi	-839
st	-840
▁Ja	-841
▁alu	-842
▁ve	-843
eseen	-844
▁het	-845
▁tehd	-846
inan	-847
ttua	-848
ikan	-849
▁Is	-850
▁In	-851
yttö	-852
▁asia	-853
▁pien	-854
▁vuotta	-855
▁kut	-856
▁Li	-857
▁muu	-858
▁paika	-859
▁julka	-860
▁hei	-861
▁6	-862
▁jotka	-863
its	-864
oma	-865
▁el	-866
▁Nä	-867
▁Kun	-868
uomi	-869
änä	-870
ho	-871
▁kär	-872
▁arvi	-873
tia	-874
emmän	-875
der	-876
▁mies	-877
▁Mi	-878
▁Val	-879
▁nel	-880
ttom	-881
▁Poli	-882
0-	-883
▁Na	-884
▁vah	-885
jien	-886
▁ter	-887
llaan	-888
▁toim	-889
tyi	-890
▁uh	-891
llan	-892
▁yle	-893
eltä	-894
uuri	-895
uro	-896
▁uut	-897
kona	-898
ity	-899
▁ajan	-900
kia	-901
▁jonka	-902
dan	-903
▁eli	-904
uta	-905
enn	-906
▁joh	-907
matta	-908
▁kaupun	-909
▁Ne	-910
uudessa	-911
yyn	-912
ukseen	-913
▁Si	-914
▁eikä	-915
ito	-916
mpia	-917
▁aihe	-918
▁met	-919
▁saan	-920
antaina	-921
▁kansa	-922
▁turva	-923
▁tuk	-924
pe	-925
ker	-926
▁kon	-927
ihen	-928
▁sop	-929
pää	-930
▁käsi	-931
viä	-932
eella	-933
▁joukku	-934
▁yhd	-935
kseen	-936
til	-937
▁hi	-938
inta	-939
▁koul	-940
▁Al	-941
joon	-942
ria	-943
▁vuosi	-944
paa	-945
miseen	-946
bb	-947
▁kau	-948
ale	-949
▁et	-950
hen	-951
".	-952
▁yllä	-953
uksesta	-954
oihin	-955
ansa	-956
yky	-957
sar	-958
▁op	-959
ttävä	-960
isessa	-961
vien	-962
▁vaikka	-963
▁Suomessa	-964
ig	-965
dot	-966
▁Ar	-967
▁lisää	-968
▁tämän	-969
▁aut	-970
ano	-971
ärke	-972
▁seuraa	-973
tion	-974
▁koska	-975
ans	-976
▁siir	-977
iseksi	-978
▁puo	-979
▁raken	-980
▁olevan	-981
ing	-982
kke	-983
var	-984
istel	-985
kea	-986
▁mit	-987
neet	-988
ren	-989
▁laa	-990
▁tor	-991
▁7	-992
▁suunn	-993
▁Venäjä	-994
kel	-995
ustus	-996
▁tö	-997
oiden	-998
▁teki	-999
▁sil	-1000
ttele	-1001
▁Ruot	-1002
▁vaih	-1003
▁Ki	-1004
gel	-1005
ope	-1006
ukka	-1007
▁aja	-1008
kul	-1009
iä	-1010
▁miljoon	-1011
ino	-1012
▁pitä	-1013
▁talo	-1014
misesta	-1015
kuun	-1016
um	-1017
▁syn	-1018
puol	-1019
tel	-1020
▁aiemmin	-1021
▁siihen	-1022
▁miten	-1023
▁Myös	-1024
ber	-1025
▁Le	-1026
▁vir	-1027
oitti	-1028
kir	-1029
uja	-1030
asto	-1031
oilla	-1032
▁Euro	-1033
yys	-1034
▁tilan	-1035
annut	-1036
▁tapahtu	-1037
llään	-1038
▁näh	-1039
▁jota	-1040
mman	-1041
▁päätö	-1042
▁enemmän	-1043
▁8	-1044
▁tutki	-1045
tubb	-1046
uon	-1047
▁kar	-1048
llin	-1049
▁muuta	-1050
ett	-1051
usti	-1052
▁tällä	-1053
janta	-1054
ettu	-1055
alla	-1056
▁tämä	-1057
▁muut	-1058
ituksen	-1059
ym	-1060
llisuus	-1061
oitta	-1062
jassa	-1063
▁in	-1064
▁kirjoit	-1065
▁tarko	-1066
▁Nyt	-1067
masta	-1068
ittaa	-1069
▁presidentti	-1070
utui	-1071
▁maailman	-1072
▁lisäksi	-1073
nan	-1074
▁kesä	-1075
ytö	-1076
alu	-1077
▁Vuo	-1078
▁Tämä	-1079
pel	-1080
tila	-1081
ter	-1082
don	-1083
▁Oul	-1084
iku	-1085
este	-1086
itsi	-1087
hi	-1088
oissa	-1089
▁yrit	-1090
tyy	-1091
▁nous	-1092
yi	-1093
yksi	-1094
▁määrä	-1095
toa	-1096
änn	-1097
▁yl	-1098
▁Kuva	-1099
▁kolm	-1100
▁puheen	-1101
kuu	-1102
ine	-1103
mus	-1104
jana	-1105
kesk	-1106
osti	-1107
▁haasta	-1108
▁kertaa	-1109
▁kannat	-1110
joukku	-1111
▁vaan	-1112
▁lopp	-1113
▁mikä	-1114
ukana	-1115
järj	-1116
ähkö	-1117
kunnan	-1118
▁Tur	-1119
daan	-1120
ota	-1121
▁taka	-1122
▁kohd	-1123
▁Ei	-1124
▁MM	-1125
▁mar	-1126
eensa	-1127
▁mitään	-1128
isille	-1129
▁näy	-1130
ttö	-1131
kellä	-1132
▁tärke	-1133
eensä	-1134
▁kyse	-1135
▁ent	-1136
estaan	-1137
▁len	-1138
sina	-1139
▁tiedo	-1140
▁d	-1141
▁pääs	-1142
ost	-1143
vuotias	-1144
20	-1145
▁mei	-1146
▁ava	-1147
▁Suomi	-1148
▁Ukrainan	-1149
▁vara	-1150
am	-1151
▁Stubb	-1152
2.	-1153
▁lau	-1154
ppi	-1155
▁urhe	-1156
oista	-1157
utti	-1158
▁koti	-1159
kunta	-1160
▁syö	-1161
▁Poliisi	-1162
von	-1163
▁jopa	-1164
tys	-1165
▁Poh	-1166
▁Isra	-1167
▁suosi	-1168
ikin	-1169
▁täh	-1170
mässä	-1171
unnunta	-1172
lainen	-1173
▁kolme	-1174
1.	-1175
▁ihan	-1176
▁kommentoi	-1177
▁osall	-1178
miin	-1179
osa	-1180
▁sää	-1181
▁sisä	-1182
▁usko	-1183
▁päivä	-1184
▁prosenttia	-1185
oku	-1186
▁nyky	-1187
▁kis	-1188
istaa	-1189
voin	-1190
▁Per	-1191
mää	-1192
vit	-1193
▁saira	-1194
▁esiin	-1195
▁vaike	-1196
llen	-1197
▁tehdä	-1198
▁vastaa	-1199
ile	-1200
▁perjanta	-1201
gen	-1202
▁Helsingin	-1203
▁kilpail	-1204
ulta	-1205
gra	-1206
isu	-1207
▁Euroop	-1208
▁Sen	-1209
väl	-1210
▁Iltale	-1211
▁enää	-1212
yd	-1213
▁kaa	-1214
▁kuuka	-1215
▁Nor	-1216
▁sis	-1217
▁joul	-1218
▁vo	-1219
▁ymp	-1220
▁auto	-1221
jois	-1222
iton	-1223
▁juh	-1224
uko	-1225
▁hui	-1226
▁suh	-1227
tien	-1228
▁kerro	-1229
▁yri	-1230
HL	-1231
▁viikon	-1232
haa	-1233
utin	-1234
uri	-1235
▁työn	-1236
palvel	-1237
ksan	-1238
▁sella	-1239
▁use	-1240
▁lähes	-1241
isella	-1242
▁erity	-1243
▁Il	-1244
nn	-1245
ustaja	-1246
▁tal	-1247
älä	-1248
▁mo	-1249
▁kier	-1250
ras	-1251
itel	-1252
▁pala	-1253
toja	-1254
▁lähe	-1255
olo	-1256
opp	-1257
▁muo	-1258
ona	-1259
kkin	-1260
▁ty	-1261
ytyy	-1262
▁uusi	-1263
▁Vir	-1264
kuuta	-1265
jia	-1266
utus	-1267
ani	-1268
▁mukana	-1269
▁liik	-1270
▁terve	-1271
lleet	-1272
gi	-1273
▁9	-1274
▁sähkö	-1275
▁kymmen	-1276
▁saat	-1277
▁koke	-1278
▁ihmis	-1279
▁vide	-1280
mmat	-1281
keä	-1282
▁vaati	-1283
▁oly	-1284
tynyt	-1285
▁15	-1286
▁Ke	-1287
▁tarv	-1288
▁lu	-1289
isesta	-1290
tik	-1291
3.	-1292
▁pois	-1293
por	-1294
▁ven	-1295
▁ehdo	-1296
▁kats	-1297
ju	-1298
ase	-1299
▁alku	-1300
▁todella	-1301
su	-1302
▁kello	-1303
▁saanut	-1304
▁tilante	-1305
▁ho	-1306
▁jal	-1307
▁han	-1308
▁oma	-1309
▁pol	-1310
▁Var	-1311
mar	-1312
▁rii	-1313
yä	-1314
▁Re	-1315
ilu	-1316
toon	-1317
ini	-1318
ttaa	-1319
mistä	-1320
ynn	-1321
▁py	-1322
▁arvioi	-1323
▁pitkä	-1324
tävä	-1325
vänä	-1326
mpaa	-1327
uvo	-1328
▁vuoksi	-1329
kit	-1330
etaan	-1331
▁ik	-1332
ukko	-1333
▁ase	-1334
▁ruo	-1335
alais	-1336
▁aikaa	-1337
▁poliisi	-1338
iselle	-1339
▁poh	-1340
har	-1341
▁200	-1342
▁sunnunta	-1343
yllä	-1344
▁peruste	-1345
istui	-1346
ttäin	-1347
▁mat	-1348
▁ratka	-1349
▁jatka	-1350
voit	-1351
▁huol	-1352
▁juo	-1353
kku	-1354
teki	-1355
▁Viime	-1356
▁halu	-1357
asi	-1358
vassa	-1359
unsa	-1360
▁täys	-1361
▁jäi	-1362
▁yleis	-1363
▁tuh	-1364
▁kuten	-1365
tiiv	-1366
▁kautta	-1367
per	-1368
vansa	-1369
essaan	-1370
iston	-1371
▁kaik	-1372
jet	-1373
▁olen	-1374
äjä	-1375
▁puoli	-1376
ff	-1377
▁tässä	-1378
▁vähän	-1379
mon	-1380
anna	-1381
▁yhteis	-1382
uha	-1383
▁EU	-1384
▁juuri	-1385
tettiin	-1386
▁perus	-1387
▁tiista	-1388
tteen	-1389
▁torsta	-1390
▁suur	-1391
tojen	-1392
▁onn	-1393
ce	-1394
ppa	-1395
▁sar	-1396
jö	-1397
▁aikaan	-1398
viik	-1399
mentaja	-1400
▁Putin	-1401
riä	-1402
▁Min	-1403
▁tarjo	-1404
kos	-1405
▁voisi	-1406
▁alle	-1407
▁Mon	-1408
▁Or	-1409
▁de	-1410
▁valta	-1411
▁liitty	-1412
isena	-1413
ksin	-1414
▁Kar	-1415
▁Hänen	-1416
▁neljä	-1417
▁Te	-1418
▁nim	-1419
▁ken	-1420
▁tuomi	-1421
▁tullut	-1422
▁Z	-1423
onsa	-1424
usten	-1425
▁lähte	-1426
ck	-1427
0.	-1428
▁sä	-1429
kkaa	-1430
tyn	-1431
▁kiinni	-1432
▁Yhdysvalta	-1433
ostaa	-1434
▁vahv	-1435
ttelee	-1436
▁sin	-1437
oittaa	-1438
▁Lisäksi	-1439
kus	-1440
ulle	-1441
ikolla	-1442
▁Kor	-1443
4.	-1444
▁Par	-1445
missa	-1446
▁siinä	-1447
▁Kes	-1448
▁palvel	-1449
▁Pal	-1450
▁edus	-1451
▁alkoi	-1452
▁hyökkä	-1453
▁lin	-1454
raa	-1455
kana	-1456
▁eh	-1457
usa	-1458
▁joten	-1459
iva	-1460
mmär	-1461
antun	-1462
-1	-1463
ris	-1464
ron	-1465
▁Es	-1466
▁muist	-1467
no	-1468
eto	-1469
yyttä	-1470
jät	-1471
▁työs	-1472
▁av	-1473
▁halua	-1474
▁pain	-1475
▁matka	-1476
laa	-1477
▁otta	-1478
▁nope	-1479
uksista	-1480
ikkaa	-1481
▁ä	-1482
jasta	-1483
▁suuri	-1484
▁käyttä	-1485
▁ilman	-1486
▁mur	-1487
tunut	-1488
▁yhteen	-1489
▁sosia	-1490
ry	-1491
össä	-1492
▁ongel	-1493
llon	-1494
▁käyttö	-1495
ilee	-1496
estel	-1497
hemmin	-1498
yl	-1499
uudesta	-1500
▁Pe	-1501
▁kauden	-1502
näkö	-1503
ttelussa	-1504
▁parha	-1505
eilla	-1506
▁Ri	-1507
aika	-1508
ettiin	-1509
uole	-1510
▁selvi	-1511
▁Ol	-1512
▁saada	-1513
tal	-1514
▁Lin	-1515
▁taas	-1516
▁Ale	-1517
▁hetkellä	-1518
▁liiken	-1519
omet	-1520
▁lisä	-1521
pin	-1522
alin	-1523
▁edelleen	-1524
▁pare	-1525
kie	-1526
▁Ni	-1527
▁Pohjois	-1528
eille	-1529
▁huomi	-1530
▁Olen	-1531
▁takia	-1532
▁kuitenkaan	-1533
ppu	-1534
jär	-1535
▁vuod	-1536
▁katso	-1537
▁ro	-1538
ttämä	-1539
▁lää	-1540
id	-1541
▁pitäisi	-1542
kkää	-1543
kkö	-1544
▁/	-1545
▁toinen	-1546
kohta	-1547
visi	-1548
▁Ukraina	-1549
▁löy	-1550
alan	-1551
oim	-1552
▁keskustel	-1553
▁Pel	-1554
ikos	-1555
▁onne	-1556
▁hie	-1557
▁tavalla	-1558
kasta	-1559
lu	-1560
kee	-1561
▁Me	-1562
dennäkö	-1563
▁Ku	-1564
ttelu	-1565
▁pu	-1566
kor	-1567
alainen	-1568
▁jäsen	-1569
sson	-1570
antunti	-1571
▁Mutta	-1572
▁Trumpin	-1573
yhti	-1574
vasta	-1575
ohjel	-1576
isenä	-1577
tua	-1578
▁vie	-1579
kiin	-1580
▁perä	-1581
▁ainakin	-1582
▁Leh	-1583
▁18	-1584
▁Ho	-1585
uttu	-1586
▁Kys	-1587
jaan	-1588
isista	-1589
tetty	-1590
▁voitti	-1591
▁Yhdysvaltain	-1592
▁Näin	-1593
▁ilma	-1594
koh	-1595
utun	-1596
▁medi	-1597
▁un	-1598
▁tasa	-1599
▁olleet	-1600
▁kään	-1601
ela	-1602
estö	-1603
▁asti	-1604
▁sano	-1605
▁tila	-1606
uku	-1607
▁Biden	-1608
iss	-1609
inväl	-1610
ppo	-1611
mies	-1612
utki	-1613
eelle	-1614
kset	-1615
▁valm	-1616
▁merki	-1617
äär	-1618
▁kiinn	-1619
yden	-1620
▁eten	-1621
utunut	-1622
▁yhdessä	-1623
▁ras	-1624
▁tör	-1625
▁Van	-1626
▁vaka	-1627
hoit	-1628
▁uutis	-1629
eillä	-1630
▁perjantaina	-1631
ttänyt	-1632
▁uuden	-1633
▁Kan	-1634
▁näin	-1635
▁Ti	-1636
▁pide	-1637
▁riko	-1638
▁viera	-1639
astus	-1640
▁piste	-1641
ba	-1642
▁kansan	-1643
▁tode	-1644
äri	-1645
▁So	-1646
▁Tuo	-1647
▁Yle	-1648
▁puheenjohtaja	-1649
▁mahdollis	-1650
▁X	-1651
Sano	-1652
jää	-1653
teet	-1654
▁lauantaina	-1655
tyä	-1656
▁Esi	-1657
▁perh	-1658
▁pyö	-1659
▁seur	-1660
isessä	-1661
▁NHL	-1662
▁Mä	-1663
▁Pää	-1664
▁iso	-1665
▁myön	-1666
▁hallitus	-1667
ket	-1668
sky	-1669
▁kilomet	-1670
▁tiedotte	-1671
Suom	-1672
itto	-1673
▁saman	-1674
▁ymmär	-1675
päivä	-1676
itsee	-1677
).	-1678
viikkona	-1679
▁tilanne	-1680
urin	-1681
▁amp	-1682
▁kaupungin	-1683
▁sopim	-1684
iltä	-1685
▁hava	-1686
vaan	-1687
ääri	-1688
▁her	-1689
▁i	-1690
▁IS	-1691
tetaan	-1692
▁perin	-1693
ltä	-1694
▁Insta	-1695
▁kyllä	-1696
▁kirjoittaa	-1697
estin	-1698
▁Et	-1699
▁lämp	-1700
▁johta	-1701
▁yhden	-1702
▁presidentin	-1703
▁edusta	-1704
▁toisen	-1705
▁miljoonaa	-1706
▁kaudella	-1707
▁päästä	-1708
▁Instagra	-1709
▁hallituksen	-1710
uki	-1711
uma	-1712
▁vali	-1713
▁kuinka	-1714
res	-1715
▁heti	-1716
▁kyl	-1717
imo	-1718
▁pah	-1719
iska	-1720
ikuussa	-1721
▁erila	-1722
talo	-1723
▁niitä	-1724
6.	-1725
▁alka	-1726
▁hieman	-1727
ussi	-1728
vänsä	-1729
uke	-1730
▁pan	-1731
▁tän	-1732
▁17	-1733
vuotia	-1734
utuu	-1735
▁täysin	-1736
▁välillä	-1737
▁Ve	-1738
itos	-1739
▁Oulun	-1740
▁alkaa	-1741
▁kahden	-1742
▁Kos	-1743
▁epäi	-1744
llisia	-1745
▁10	-1746
▁väi	-1747
▁siis	-1748
▁yhtä	-1749
▁ryh	-1750
▁Ga	-1751
▁vast	-1752
▁viikolla	-1753
▁jatku	-1754
▁näky	-1755
uuteen	-1756
tettu	-1757
▁ystä	-1758
▁tehnyt	-1759
▁Haa	-1760
▁vai	-1761
▁eriko	-1762
▁heidän	-1763
▁tänä	-1764
▁mielestä	-1765
▁Hy	-1766
nin	-1767
ranoma	-1768
▁häntä	-1769
▁Da	-1770
äjäoike	-1771
yyd	-1772
yön	-1773
▁miehen	-1774
▁nor	-1775
▁palj	-1776
▁its	-1777
uksissa	-1778
uli	-1779
▁vier	-1780
▁myöhemmin	-1781
ge	-1782
▁ala	-1783
▁nuor	-1784
▁maksa	-1785
▁varm	-1786
ukkaan	-1787
viin	-1788
kar	-1789
äni	-1790
▁missä	-1791
▁huu	-1792
▁jatkaa	-1793
luv	-1794
▁useita	-1795
▁pääsi	-1796
ilä	-1797
ttui	-1798
▁piti	-1799
▁kerran	-1800
▁sur	-1801
esty	-1802
uksiin	-1803
▁edes	-1804
▁Euroopan	-1805
kkaan	-1806
▁epäil	-1807
▁todennäkö	-1808
▁lento	-1809
▁sosiaal	-1810
mieh	-1811
▁mielen	-1812
▁torstaina	-1813
▁puu	-1814
▁pyy	-1815
▁vaal	-1816
▁joukkue	-1817
vinto	-1818
astaan	-1819
▁New	-1820
isuus	-1821
johta	-1822
▁meni	-1823
▁nähd	-1824
▁12	-1825
▁julk	-1826
▁El	-1827
hdelle	-1828
▁suun	-1829
uttanut	-1830
kän	-1831
▁Lo	-1832
▁kysym	-1833
▁Ruotsin	-1834
kossa	-1835
▁tavoi	-1836
),	-1837
▁kuole	-1838
▁Mo	-1839
kut	-1840
las	-1841
▁aam	-1842
▁oman	-1843
▁euron	-1844
paan	-1845
puole	-1846
▁näyttää	-1847
▁Ä	-1848
▁arvo	-1849
▁siv	-1850
▁Puol	-1851
▁herä	-1852
▁tava	-1853
par	-1854
ytyi	-1855
hän	-1856
esin	-1857
ill	-1858
estar	-1859
ttuna	-1860
▁tulo	-1861
▁tiistaina	-1862
▁maanantaina	-1863
ttuu	-1864
▁ohjel	-1865
▁poikke	-1866
▁aivan	-1867
illaan	-1868
udessa	-1869
her	-1870
▁huoli	-1871
▁voivat	-1872
▁peli	-1873
▁Itä	-1874
▁Vaikka	-1875
▁keskiviikkona	-1876
▁alussa	-1877
▁Kir	-1878
ryh	-1879
▁voin	-1880
▁sul	-1881
▁muka	-1882
oille	-1883
▁perhe	-1884
▁omista	-1885
▁kuoli	-1886
▁joita	-1887
▁mahdollista	-1888
▁hänet	-1889
▁tiedot	-1890
▁mene	-1891
▁Hä	-1892
▁usein	-1893
▁venälä	-1894
▁puolestaan	-1895
istun	-1896
▁koskaan	-1897
menta	-1898
vissa	-1899
▁Yksi	-1900
▁pro	-1901
▁käytö	-1902
co	-1903
▁lain	-1904
▁otti	-1905
▁tuu	-1906
▁Pi	-1907
▁lei	-1908
sivat	-1909
isissa	-1910
",	-1911
▁kie	-1912
uista	-1913
▁Kaikki	-1914
▁alueella	-1915
▁yksity	-1916
perä	-1917
▁Kat	-1918
▁saap	-1919
▁sunnuntaina	-1920
,5	-1921
▁amma	-1922
lliset	-1923
▁Pari	-1924
▁mieh	-1925
▁viesti	-1926
tee	-1927
▁kävi	-1928
▁maks	-1929
▁odot	-1930
▁nousi	-1931
yssä	-1932
gan	-1933
mpan	-1934
joukkue	-1935
ksia	-1936
▁hoi	-1937
isellä	-1938
vana	-1939
vaksi	-1940
joiden	-1941
▁ottaa	-1942
▁perusteella	-1943
5.	-1944
▁julkis	-1945
▁Asi	-1946
▁Israelin	-1947
▁ir	-1948
miä	-1949
paika	-1950
▁toteaa	-1951
ude	-1952
isestä	-1953
uteen	-1954
▁siellä	-1955
ily	-1956
▁pur	-1957
▁aiko	-1958
▁puolustus	-1959
▁väki	-1960
ältä	-1961
▁tätä	-1962
▁huoma	-1963
1-	-1964
▁toista	-1965
isk	-1966
vaal	-1967
▁asiasta	-1968
ittää	-1969
▁pe	-1970
▁Ensi	-1971
▁Ver	-1972
▁yhä	-1973
▁Salon	-1974
▁por	-1975
llik	-1976
tali	-1977
▁syks	-1978
▁tälla	-1979
▁Suomeen	-1980
dia	-1981
kat	-1982
ensa	-1983
▁silloin	-1984
▁hyväks	-1985
▁Po	-1986
itys	-1987
ps	-1988
kapa	-1989
▁vih	-1990
västi	-1991
ilja	-1992
istori	-1993
ksiä	-1994
▁Niin	-1995
miseksi	-1996
▁rakenn	-1997
hdot	-1998
▁arv	-1999
ttoa	-2000
▁jään	-2001
ulo	-2002
onn	-2003
maal	-2004
änsi	-2005
toin	-2006
mokra	-2007
▁viikko	-2008
▁pä	-2009
▁g	-2010
▁Kol	-2011
hall	-2012
▁uud	-2013
▁vanhe	-2014
▁työsken	-2015
äällä	-2016
▁rauh	-2017
▁ympäri	-2018
illä	-2019
ilun	-2020
▁käyt	-2021
vir	-2022
▁suk	-2023
▁fina	-2024
▁työnteki	-2025
estari	-2026
issaan	-2027
▁mukaansa	-2028
▁kansainväl	-2029
▁asu	-2030
▁ensimmäinen	-2031
äneet	-2032
▁ehkä	-2033
▁tied	-2034
▁kirja	-2035
▁tehty	-2036
nö	-2037
tur	-2038
▁poi	-2039
innan	-2040
teita	-2041
▁tiedotteessa	-2042
▁saattaa	-2043
▁tyy	-2044
▁ilmoit	-2045
▁sijaan	-2046
erg	-2047
kär	-2048
mper	-2049
tiet	-2050
▁Etelä	-2051
istunut	-2052
▁ihmistä	-2053
misestä	-2054
▁Hen	-2055
▁Lue	-2056
▁Tar	-2057
pol	-2058
▁ran	-2059
eeksi	-2060
ira	-2061
▁do	-2062
▁tien	-2063
▁muita	-2064
ihto	-2065
▁pysty	-2066
eihin	-2067
▁Kyse	-2068
▁joissa	-2069
▁Kä	-2070
▁Rovan	-2071
▁eloku	-2072
astaa	-2073
▁kasv	-2074
▁suora	-2075
ukse	-2076
▁jolla	-2077
eraa	-2078
▁enna	-2079
▁Er	-2080
yhtiö	-2081
▁Joh	-2082
▁Läh	-2083
▁mel	-2084
▁pysä	-2085
fi	-2086
▁erittäin	-2087
▁jotta	-2088
▁keske	-2089
igan	-2090
▁Kr	-2091
▁vel	-2092
vas	-2093
▁No	-2094
▁Mies	-2095
▁ilta	-2096
▁jälleen	-2097
ittaja	-2098
▁josta	-2099
▁ap	-2100
iheessa	-2101
kem	-2102
▁odo	-2103
elen	-2104
▁ajo	-2105
jille	-2106
▁tänään	-2107
▁tapahtui	-2108
pah	-2109
onal	-2110
▁menn	-2111
8.	-2112
▁Su	-2113
määrä	-2114
berg	-2115
ehto	-2116
laisen	-2117
▁199	-2118
▁Mer	-2119
▁kokona	-2120
▁olympia	-2121
hing	-2122
▁vaikuttaa	-2123
öl	-2124
tetään	-2125
▁täy	-2126
joitus	-2127
▁tekee	-2128
kilpail	-2129
▁2022	-2130
ydessä	-2131
▁neljän	-2132
pon	-2133
▁pitkään	-2134
kti	-2135
kse	-2136
opim	-2137
▁jotain	-2138
▁lopulta	-2139
▁takaisin	-2140
ata	-2141
ilija	-2142
▁tähän	-2143
▁poliitt	-2144
stö	-2145
ros	-2146
▁korke	-2147
▁lapsi	-2148
▁kahde	-2149
suomala	-2150
hy	-2151
▁kuulu	-2152
▁it	-2153
▁sotil	-2154
▁pidä	-2155
▁tutkin	-2156
▁järjestä	-2157
▁antaa	-2158
yksessä	-2159
▁kaup	-2160
reen	-2161
▁käynn	-2162
▁myy	-2163
▁auton	-2164
0,	-2165
ander	-2166
▁seitse	-2167
▁käyttää	-2168
▁ain	-2169
kerta	-2170
▁vuosina	-2171
▁myötä	-2172
▁yhteist	-2173
▁sijaitse	-2174
▁main	-2175
▁tuleva	-2176
9.	-2177
▁pyr	-2178
▁niiden	-2179
▁syys	-2180
▁kohtaa	-2181
▁ensimmäisen	-2182
▁suorit	-2183
päin	-2184
mu	-2185
uksella	-2186
▁ottelun	-2187
▁järjeste	-2188
iha	-2189
▁The	-2190
▁kai	-2191
▁2023	-2192
▁ur	-2193
▁Ukrain	-2194
▁hänelle	-2195
▁samalla	-2196
▁voidaan	-2197
osin	-2198
▁puolu	-2199
▁lasten	-2200
▁Ter	-2201
järjestel	-2202
-2	-2203
▁huolimatta	-2204
utkin	-2205
liiton	-2206
pit	-2207
▁opp	-2208
▁ajat	-2209
▁lapsen	-2210
ser	-2211
tit	-2212
llyt	-2213
joitti	-2214
▁Vä	-2215
kusta	-2216
▁anta	-2217
▁turvallisuus	-2218
istuu	-2219
▁voima	-2220
▁nopeasti	-2221
▁yö	-2222
anska	-2223
▁loukkaan	-2224
▁hyvinvoin	-2225
ers	-2226
uissa	-2227
▁eteen	-2228
▁maahan	-2229
teessa	-2230
läh	-2231
▁Ed	-2232
▁Hi	-2233
▁käräjäoike	-2234
▁Esimerkiksi	-2235
mät	-2236
▁haluaa	-2237
met	-2238
▁liian	-2239
▁vaihto	-2240
▁voitto	-2241
mmi	-2242
edia	-2243
▁elämän	-2244
▁tulla	-2245
▁päätty	-2246
7.	-2247
▁Ch	-2248
▁pud	-2249
ottaa	-2250
▁For	-2251
▁huon	-2252
▁11	-2253
▁jär	-2254
istää	-2255
yksiä	-2256
▁huh	-2257
▁vapa	-2258
▁joutui	-2259
uraa	-2260
▁läpi	-2261
▁puhu	-2262
▁kesken	-2263
▁löytyy	-2264
jista	-2265
kiä	-2266
ola	-2267
ttila	-2268
▁Tamper	-2269
▁erityisesti	-2270
▁uude	-2271
▁joukko	-2272
▁ihmisiä	-2273
ire	-2274
olta	-2275
otus	-2276
▁laus	-2277
202	-2278
vara	-2279
▁ikä	-2280
mppan	-2281
tteet	-2282
utua	-2283
pelaa	-2284
ville	-2285
▁kerrotaan	-2286
ksua	-2287
▁kohta	-2288
Sanomat	-2289
▁Bri	-2290
▁Lei	-2291
▁luonn	-2292
tor	-2293
▁paik	-2294
▁toiv	-2295
▁Car	-2296
▁hoit	-2297
▁viikonl	-2298
▁Kär	-2299
▁tehtä	-2300
▁yhteensä	-2301
▁raja	-2302
▁puole	-2303
▁kymmenen	-2304
▁25	-2305
▁nainen	-2306
▁jolloin	-2307
valmentaja	-2308
▁äänestä	-2309
▁yhteydessä	-2310
onin	-2311
▁tan	-2312
▁lähti	-2313
▁EM	-2314
▁Oli	-2315
▁kuuluu	-2316
▁13	-2317
▁asiaa	-2318
kön	-2319
▁tosi	-2320
▁San	-2321
▁vapaa	-2322
▁Por	-2323
▁aiheutta	-2324
▁poliisin	-2325
▁valtion	-2326
▁suunnitel	-2327
▁Tor	-2328
vallan	-2329
▁kansaned	-2330
ustaa	-2331
▁viisi	-2332
▁näk	-2333
▁varsin	-2334
oni	-2335
▁Ur	-2336
ttain	-2337
ban	-2338
▁kahd	-2339
ves	-2340
▁osaa	-2341
▁yliop	-2342
▁16	-2343
▁joiden	-2344
ete	-2345
▁Hal	-2346
▁laps	-2347
ttävän	-2348
▁kerton	-2349
▁valmista	-2350
▁tästä	-2351
tuo	-2352
ilan	-2353
ujen	-2354
▁kilpa	-2355
koa	-2356
puh	-2357
eena	-2358
▁Alex	-2359
▁mitta	-2360
▁Israel	-2361
▁vaikutta	-2362
siin	-2363
▁Mikko	-2364
▁Tämän	-2365
▁meidän	-2366
nen	-2367
istus	-2368
ena	-2369
hä	-2370
▁Maa	-2371
▁Nat	-2372
tilan	-2373
tyksen	-2374
kinen	-2375
tanen	-2376
▁terveys	-2377
koul	-2378
▁myyn	-2379
ttäjä	-2380
▁tieto	-2381
▁Hall	-2382
▁tausta	-2383
uni	-2384
ttämään	-2385
öy	-2386
▁lyh	-2387
▁nimi	-2388
vy	-2389
riin	-2390
▁Toi	-2391
pahtu	-2392
vista	-2393
voima	-2394
▁kuljet	-2395
isuudessa	-2396
▁ympär	-2397
▁ihmiset	-2398
llisuuden	-2399
▁koi	-2400
▁sään	-2401
att	-2402
mas	-2403
▁Kon	-2404
▁SM	-2405
muksen	-2406
▁viranoma	-2407
siv	-2408
▁saav	-2409
▁Lind	-2410
kaup	-2411
▁pari	-2412
▁vaikea	-2413
▁valtio	-2414
▁Kiin	-2415
▁jaks	-2416
▁vähen	-2417
▁kannattaa	-2418
tele	-2419
ttien	-2420
▁ruoka	-2421
bo	-2422
▁musi	-2423
kaupun	-2424
▁krit	-2425
▁kierro	-2426
▁marras	-2427
uton	-2428
ksella	-2429
luo	-2430
anen	-2431
▁Ba	-2432
uvos	-2433
▁hien	-2434
itoksen	-2435
▁tulisi	-2436
▁14	-2437
▁näyttä	-2438
▁Sil	-2439
▁mole	-2440
▁help	-2441
▁onko	-2442
▁yksin	-2443
konen	-2444
▁toiminta	-2445
laista	-2446
▁runsa	-2447
▁kirjoitti	-2448
kanen	-2449
▁osallistu	-2450
sy	-2451
usto	-2452
ttyä	-2453
▁taso	-2454
ehdo	-2455
ineen	-2456
ttunut	-2457
▁lämpö	-2458
▁erä	-2459
▁minkä	-2460
yksestä	-2461
▁ura	-2462
▁koske	-2463
imi	-2464
änsä	-2465
▁olympi	-2466
▁naisten	-2467
▁ilmoitti	-2468
rien	-2469
▁prin	-2470
ksesta	-2471
sissa	-2472
▁Antti	-2473
änen	-2474
joita	-2475
tänyt	-2476
aleissa	-2477
▁kal	-2478
▁moni	-2479
▁päivän	-2480
kää	-2481
matto	-2482
▁rikos	-2483
onald	-2484
▁sota	-2485
▁suurin	-2486
ihd	-2487
kymmen	-2488
▁tek	-2489
▁kolmen	-2490
▁30	-2491
▁loka	-2492
istaan	-2493
▁touko	-2494
▁ratkais	-2495
tteita	-2496
▁joista	-2497
▁korkea	-2498
▁päälle	-2499
jar	-2500
Suomen	-2501
▁luki	-2502
▁keskusta	-2503
etin	-2504
▁elo	-2505
▁kaiken	-2506
kissa	-2507
ttivät	-2508
▁kohti	-2509
▁tunte	-2510
dy	-2511
▁ris	-2512
▁tuke	-2513
jalla	-2514
▁totesi	-2515
▁ravinto	-2516
ykset	-2517
▁yhti	-2518
isilla	-2519
▁olleen	-2520
iki	-2521
alle	-2522
vissä	-2523
▁maali	-2524
hte	-2525
tis	-2526
iemi	-2527
annetta	-2528
▁julkaisi	-2529
▁pohti	-2530
uur	-2531
▁kapp	-2532
▁ulos	-2533
▁asun	-2534
▁puolis	-2535
▁uutisoi	-2536
auto	-2537
ttelun	-2538
ynä	-2539
ikku	-2540
▁helm	-2541
▁onnettom	-2542
▁Lu	-2543
▁muiden	-2544
▁tehtävä	-2545
▁vaiheessa	-2546
rö	-2547
▁De	-2548
▁pako	-2549
▁metsä	-2550
iga	-2551
jun	-2552
▁nime	-2553
▁suure	-2554
▁verran	-2555
järjestö	-2556
▁neuvo	-2557
▁päätt	-2558
▁sodan	-2559
▁Bar	-2560
▁oikeus	-2561
vali	-2562
▁Ylen	-2563
▁uutta	-2564
..	-2565
▁tamm	-2566
▁vaikut	-2567
väli	-2568
▁som	-2569
matka	-2570
▁jouk	-2571
▁viestin	-2572
mpp	-2573
sel	-2574
▁Un	-2575
mäki	-2576
▁heinä	-2577
▁viiden	-2578
▁Yhdysval	-2579
▁muistuttaa	-2580
▁Ul	-2581
▁kah	-2582
▁muuto	-2583
mpien	-2584
tetta	-2585
▁vesi	-2586
▁oikein	-2587
antuntija	-2588
und	-2589
lehti	-2590
▁Saksa	-2591
▁Osa	-2592
mästä	-2593
▁elin	-2594
▁joku	-2595
▁maalis	-2596
▁takana	-2597
lly	-2598
▁hir	-2599
ttävät	-2600
ttävästi	-2601
oili	-2602
▁Kesk	-2603
▁Tällä	-2604
▁silti	-2605
puolella	-2606
▁perinte	-2607
▁muod	-2608
kok	-2609
gissä	-2610
▁miksi	-2611
▁asioita	-2612
▁haastattelussa	-2613
▁Fa	-2614
▁sair	-2615
kauden	-2616
▁kärsi	-2617
▁edessä	-2618
▁perheen	-2619
uilla	-2620
uksena	-2621
nes	-2622
▁Tässä	-2623
▁vanke	-2624
isuuden	-2625
iks	-2626
inna	-2627
mana	-2628
tava	-2629
iltana	-2630
kal	-2631
kau	-2632
vio	-2633
estys	-2634
kansa	-2635
sarjan	-2636
▁hänellä	-2637
▁johtaja	-2638
▁mediassa	-2639
▁näkö	-2640
▁varmasti	-2641
▁yksityis	-2642
▁alue	-2643
▁ulkoma	-2644
alaisten	-2645
cup	-2646
▁sopi	-2647
▁liikenne	-2648
▁Kur	-2649
▁ohj	-2650
▁tuolloin	-2651
ikaa	-2652
insa	-2653
paikka	-2654
▁asian	-2655
▁lähtö	-2656
mällä	-2657
▁tietoa	-2658
▁luon	-2659
kot	-2660
uper	-2661
▁paikka	-2662
poli	-2663
5-	-2664
istön	-2665
▁antoi	-2666
ör	-2667
tie	-2668
annin	-2669
▁seitsemän	-2670
▁juhli	-2671
▁täällä	-2672
▁ykkö	-2673
▁kampan	-2674
▁leikka	-2675
▁päätös	-2676
yhte	-2677
▁loppu	-2678
▁mieli	-2679
▁pääministeri	-2680
▁Gaz	-2681
▁Päi	-2682
tissa	-2683
▁pelasi	-2684
▁päivänä	-2685
▁tarvitse	-2686
hon	-2687
maton	-2688
▁haa	-2689
▁ennä	-2690
▁ottelussa	-2691
astusla	-2692
tsa	-2693
▁Nato	-2694
laisia	-2695
residentti	-2696
▁Ky	-2697
pen	-2698
▁50	-2699
mpää	-2700
▁toimitus	-2701
mansa	-2702
iaa	-2703
▁Ole	-2704
▁Sitt	-2705
▁Donald	-2706
olle	-2707
▁Nuo	-2708
▁Vuonna	-2709
▁demokra	-2710
▁tapahtun	-2711
▁Sie	-2712
▁jalkapa	-2713
inin	-2714
▁teko	-2715
vina	-2716
▁yhde	-2717
isuutta	-2718
▁Mika	-2719
llikkö	-2720
▁markkin	-2721
▁miesten	-2722
umer	-2723
▁vase	-2724
vet	-2725
imen	-2726
oitus	-2727
raken	-2728
ttelijä	-2729
▁liikku	-2730
suo	-2731
kkos	-2732
▁etsi	-2733
▁laske	-2734
▁ääri	-2735
go	-2736
kier	-2737
▁kevä	-2738
ykseen	-2739
▁Keski	-2740
▁johon	-2741
huo	-2742
▁Turun	-2743
▁kaikke	-2744
▁inn	-2745
▁Haav	-2746
palvelu	-2747
▁tarkoitus	-2748
ca	-2749
assi	-2750
▁Saar	-2751
▁pist	-2752
▁usea	-2753
politi	-2754
▁kunin	-2755
ji	-2756
jetta	-2757
▁suomalais	-2758
▁kuts	-2759
▁luke	-2760
▁Kyllä	-2761
▁talous	-2762
▁Kul	-2763
hoi	-2764
ehti	-2765
mit	-2766
rik	-2767
▁Oike	-2768
▁pian	-2769
▁sisäl	-2770
▁suunni	-2771
▁joukkueen	-2772
▁vaara	-2773
.)	-2774
tän	-2775
▁kisa	-2776
kien	-2777
▁100	-2778
▁kertonut	-2779
tavat	-2780
can	-2781
▁As	-2782
▁Syy	-2783
intään	-2784
mille	-2785
▁verkko	-2786
▁välttämä	-2787
▁kr	-2788
▁kri	-2789
tteja	-2790
alaisen	-2791
▁Pit	-2792
▁tod	-2793
ister	-2794
▁tuom	-2795
▁avaus	-2796
ttely	-2797
▁hinta	-2798
▁lähellä	-2799
▁mistä	-2800
▁kuollut	-2801
tinen	-2802
essään	-2803
▁Til	-2804
▁Vil	-2805
enkin	-2806
▁Kansa	-2807
▁hyvinvointi	-2808
1,	-2809
▁Kuu	-2810
▁tarp	-2811
oitu	-2812
▁Pur	-2813
jalta	-2814
▁kuvaa	-2815
▁valmi	-2816
▁Voi	-2817
▁Naton	-2818
▁Bo	-2819
▁suoraan	-2820
aste	-2821
▁tiedä	-2822
▁ydin	-2823
▁Pekka	-2824
▁Leijon	-2825
▁Mat	-2826
▁Ran	-2827
▁Ca	-2828
▁tapaa	-2829
dio	-2830
▁toimii	-2831
ysti	-2832
▁Iltalehdelle	-2833
▁tietojen	-2834
ttori	-2835
▁ilmi	-2836
▁voinut	-2837
▁tyh	-2838
▁poika	-2839
▁Alexander	-2840
▁ero	-2841
hdist	-2842
htiin	-2843
lamen	-2844
arin	-2845
▁pysy	-2846
▁etelä	-2847
▁hur	-2848
▁kuusi	-2849
▁sanoa	-2850
▁Tie	-2851
▁hilja	-2852
▁histori	-2853
ull	-2854
ttiä	-2855
▁alla	-2856
eni	-2857
hyö	-2858
udu	-2859
▁tv	-2860
tonen	-2861
▁melko	-2862
misessa	-2863
käri	-2864
tyks	-2865
▁Iltalehden	-2866
bi	-2867
eitä	-2868
▁korja	-2869
neen	-2870
▁olevansa	-2871
TV	-2872
▁Koko	-2873
▁Pett	-2874
▁Siin	-2875
▁syytä	-2876
▁uusia	-2877
▁seksua	-2878
▁sairaala	-2879
▁paras	-2880
▁Instagram	-2881
▁rea	-2882
▁Ander	-2883
▁alkoh	-2884
▁Ensimmä	-2885
▁entinen	-2886
▁todennäköisesti	-2887
▁tekemään	-2888
aat	-2889
olog	-2890
ivo	-2891
▁di	-2892
▁isä	-2893
kenut	-2894
▁Yhdysva	-2895
▁Ker	-2896
▁tee	-2897
▁vanh	-2898
▁Siinä	-2899
▁puhel	-2900
▁olemme	-2901
▁urheil	-2902
▁pelaaja	-2903
ttun	-2904
eidän	-2905
lliseen	-2906
▁vuosien	-2907
▁Her	-2908
▁löyt	-2909
joitta	-2910
alaiset	-2911
▁alusta	-2912
▁nosta	-2913
▁tuttu	-2914
▁vaali	-2915
sit	-2916
▁lah	-2917
▁yön	-2918
▁miljar	-2919
joukkueen	-2920
▁kuukauden	-2921
gissa	-2922
▁aset	-2923
▁minuu	-2924
▁jääkie	-2925
▁lauanta	-2926
▁meillä	-2927
▁oikeuden	-2928
▁kilometrin	-2929
gn	-2930
ess	-2931
▁Co	-2932
ktiiv	-2933
▁ST	-2934
▁Harr	-2935
▁merkit	-2936
▁aloitti	-2937
▁tietää	-2938
lia	-2939
▁kur	-2940
ännössä	-2941
peli	-2942
yrit	-2943
▁Kil	-2944
▁Ven	-2945
teiden	-2946
▁hyökkäys	-2947
▁puolesta	-2948
▁uudelleen	-2949
olin	-2950
▁Sel	-2951
▁uhka	-2952
▁näkyy	-2953
3,	-2954
▁yritys	-2955
▁Tu	-2956
▁Koi	-2957
▁osalta	-2958
koko	-2959
▁yleisö	-2960
▁euro	-2961
hol	-2962
kari	-2963
ät	-2964
▁kei	-2965
▁Orpo	-2966
use	-2967
iemen	-2968
▁Espan	-2969
▁asunn	-2970
▁korva	-2971
▁Lop	-2972
markkin	-2973
▁metrin	-2974
4,	-2975
▁ruu	-2976
▁hallin	-2977
äiri	-2978
▁Tul	-2979
▁vii	-2980
istoim	-2981
▁menee	-2982
llisten	-2983
▁löytyi	-2984
eor	-2985
alis	-2986
▁media	-2987
▁tappi	-2988
▁mennessä	-2989
ytti	-2990
▁Kaksi	-2991
ttor	-2992
▁puolue	-2993
▁ensimmäistä	-2994
▁Sitten	-2995
▁päätti	-2996
▁kuvan	-2997
juo	-2998
mmista	-2999
▁Tal	-3000
▁päiv	-3001
▁huipp	-3002
▁198	-3003
▁oleva	-3004
▁kyseessä	-3005
sien	-3006
▁määr	-3007
▁poikkeukse	-3008
mir	-3009
nassa	-3010
▁ympäristö	-3011
jal	-3012
muut	-3013
▁raa	-3014
yyden	-3015
▁paikalla	-3016
▁tehdään	-3017
▁tilanteessa	-3018
for	-3019
itin	-3020
▁Tim	-3021
▁naisen	-3022
▁vaatii	-3023
▁loppuun	-3024
▁kahdeksan	-3025
uita	-3026
▁mieltä	-3027
▁up	-3028
milla	-3029
▁ihme	-3030
▁kerä	-3031
▁kannalta	-3032
ose	-3033
asen	-3034
▁Yor	-3035
tämään	-3036
▁ensin	-3037
▁nimen	-3038
▁kuvailee	-3039
2,	-3040
estään	-3041
▁Lapin	-3042
▁käyttöön	-3043
eesta	-3044
▁pyrki	-3045
▁Putinin	-3046
▁selvästi	-3047
▁osta	-3048
isteri	-3049
▁kovin	-3050
▁aiku	-3051
▁ruot	-3052
▁lähet	-3053
▁vastusta	-3054
ivi	-3055
▁klo	-3056
eista	-3057
▁hake	-3058
▁normaal	-3059
▁pitänyt	-3060
liitto	-3061
▁maalin	-3062
sessa	-3063
udesta	-3064
▁jatkuu	-3065
▁rah	-3066
llistä	-3067
▁tuotan	-3068
▁ikään	-3069
▁kaikkien	-3070
▁Lap	-3071
▁Sch	-3072
musta	-3073
▁tapauksessa	-3074
sää	-3075
▁opet	-3076
▁äiti	-3077
isemmin	-3078
vuotiaan	-3079
jalle	-3080
tähti	-3081
▁juon	-3082
ikkoja	-3083
▁mestar	-3084
▁päivää	-3085
non	-3086
▁palaa	-3087
▁jonkin	-3088
▁lähtien	-3089
▁vuodesta	-3090
teissa	-3091
▁mihin	-3092
▁nähtiin	-3093
BC	-3094
uksien	-3095
▁perussuomala	-3096
▁naa	-3097
hto	-3098
▁dolla	-3099
▁perust	-3100
▁vet	-3101
▁kova	-3102
▁tarkoittaa	-3103
opea	-3104
isivat	-3105
▁aloit	-3106
▁politi	-3107
▁vil	-3108
tävät	-3109
paikan	-3110
▁kevää	-3111
▁verra	-3112
uti	-3113
aran	-3114
htaa	-3115
▁Mie	-3116
malle	-3117
ttuuri	-3118
▁juttu	-3119
gas	-3120
▁Meillä	-3121
mur	-3122
ettava	-3123
▁tyyty	-3124
▁tärkeä	-3125
▁etenkin	-3126
▁taa	-3127
▁omaa	-3128
▁pääse	-3129
▁kotiin	-3130
▁poliis	-3131
▁1,	-3132
neksi	-3133
gl	-3134
bri	-3135
▁St	-3136
▁sata	-3137
▁u	-3138
ikenne	-3139
▁asiakka	-3140
▁STT	-3141
▁joilla	-3142
▁paikalle	-3143
tajat	-3144
mari	-3145
deksi	-3146
▁harjoit	-3147
▁paremmin	-3148
etun	-3149
mättä	-3150
▁tuore	-3151
inaan	-3152
stään	-3153
▁lähi	-3154
▁niistä	-3155
▁päättyi	-3156
anskan	-3157
▁yhteistyö	-3158
2-	-3159
▁tavoit	-3160
ministeriön	-3161
▁Yhdysvallo	-3162
▁(1	-3163
istan	-3164
uiden	-3165
▁Char	-3166
▁Kana	-3167
▁varten	-3168
▁Helsingissä	-3169
isaa	-3170
▁Will	-3171
voimien	-3172
▁suhteen	-3173
ore	-3174
▁Lä	-3175
veri	-3176
gaist	-3177
▁rapor	-3178
lon	-3179
▁Sar	-3180
▁Yli	-3181
llist	-3182
▁aikoo	-3183
▁paris	-3184
▁suuntaan	-3185
▁mennä	-3186
kunnassa	-3187
▁Työ	-3188
oppuna	-3189
▁Ih	-3190
menn	-3191
vistä	-3192
▁jatko	-3193
ens	-3194
▁ry	-3195
irin	-3196
▁Os	-3197
▁uk	-3198
▁tärkeää	-3199
dyn	-3200
▁isku	-3201
▁täytyy	-3202
ts	-3203
prin	-3204
▁ohi	-3205
▁Sano	-3206
del	-3207
aston	-3208
oimin	-3209
▁2024	-3210
alissa	-3211
laiset	-3212
▁milla	-3213
▁tuntuu	-3214
PS	-3215
▁40	-3216
▁Rä	-3217
▁minuut	-3218
▁vasemm	-3219
▁Petteri	-3220
my	-3221
ero	-3222
osuh	-3223
▁kasva	-3224
▁rahaa	-3225
▁yleensä	-3226
▁Poliisin	-3227
vos	-3228
ähän	-3229
kassa	-3230
▁itsen	-3231
▁kantaa	-3232
▁saapui	-3233
äiriö	-3234
isku	-3235
▁eniten	-3236
▁hyvää	-3237
teeseen	-3238
▁Iltalehti	-3239
▁kertovat	-3240
▁Br	-3241
▁vira	-3242
ksista	-3243
▁Oh	-3244
isyys	-3245
oikeus	-3246
▁paran	-3247
▁urheili	-3248
▁aiheuttaa	-3249
▁sellainen	-3250
eria	-3251
miel	-3252
delle	-3253
6,	-3254
▁Mitä	-3255
sut	-3256
▁päällä	-3257
sarjassa	-3258
hka	-3259
itetty	-3260
▁pieni	-3261
▁avulla	-3262
▁ihmisten	-3263
alia	-3264
▁Jon	-3265
▁pot	-3266
päätö	-3267
▁nämä	-3268
llisi	-3269
valle	-3270
▁voittanut	-3271
istelee	-3272
▁hallit	-3273
▁jatkoi	-3274
▁ui	-3275
▁Juh	-3276
▁run	-3277
▁jäänyt	-3278
▁tapahtunut	-3279
▁laitt	-3280
▁jatkossa	-3281
tön	-3282
▁Mc	-3283
▁Us	-3284
▁Iran	-3285
▁teho	-3286
▁lähde	-3287
▁nuori	-3288
kkiä	-3289
▁mik	-3290
▁nostaa	-3291
ikoi	-3292
▁kappal	-3293
▁Bidenin	-3294
▁minulle	-3295
elma	-3296
tenä	-3297
▁Itali	-3298
▁kusta	-3299
▁pahoin	-3300
▁tuotta	-3301
▁luku	-3302
kur	-3303
▁roo	-3304
yteen	-3305
isteli	-3306
nettom	-3307
▁nuorten	-3308
▁seksuaal	-3309
▁toistaiseksi	-3310
olan	-3311
▁tuki	-3312
▁sijoi	-3313
▁kohtaan	-3314
uoli	-3315
▁Pan	-3316
▁etu	-3317
uttua	-3318
keskus	-3319
gh	-3320
▁Reut	-3321
▁koton	-3322
▁kolmann	-3323
▁lopussa	-3324
▁Sitä	-3325
tteiden	-3326
▁epäillään	-3327
▁Flo	-3328
▁nähty	-3329
▁Olemme	-3330
▁mö	-3331
▁Tee	-3332
▁epäilty	-3333
ingas	-3334
uskin	-3335
▁kanta	-3336
äärin	-3337
kisoissa	-3338
▁päävalmentaja	-3339
lää	-3340
yvä	-3341
▁Aal	-3342
▁Man	-3343
▁tas	-3344
▁nähdään	-3345
mei	-3346
istua	-3347
valio	-3348
▁anne	-3349
tilais	-3350
▁rauha	-3351
▁pääsee	-3352
▁rahoit	-3353
▁puna	-3354
▁luotta	-3355
imm	-3356
▁Kuo	-3357
▁pistettä	-3358
ministeriö	-3359
▁tilannetta	-3360
▁Yhdysvaltojen	-3361
lassa	-3362
▁sama	-3363
hun	-3364
▁24	-3365
▁Uusi	-3366
▁suhta	-3367
▁Britan	-3368
uttamaan	-3369
mil	-3370
▁sala	-3371
päivän	-3372
▁huomatta	-3373
▁miljoonan	-3374
▁Oy	-3375
▁aino	-3376
rän	-3377
▁mä	-3378
▁samaan	-3379
▁välttämättä	-3380
5,	-3381
meen	-3382
kanut	-3383
alassa	-3384
▁länsi	-3385
▁nähdä	-3386
▁Jussi	-3387
▁kausi	-3388
▁valmis	-3389
9,	-3390
▁kiinte	-3391
▁Pet	-3392
dotta	-3393
▁esit	-3394
▁säil	-3395
▁pääss	-3396
▁saakka	-3397
vuotiaana	-3398
▁minuuttia	-3399
▁julkais	-3400
bli	-3401
vaik	-3402
sitiiv	-3403
laisten	-3404
▁tapahtuma	-3405
llia	-3406
▁Maan	-3407
▁pakka	-3408
▁halunn	-3409
jone	-3410
ttuja	-3411
▁puhe	-3412
▁saivat	-3413
liin	-3414
▁Sve	-3415
▁Tälla	-3416
▁sukup	-3417
▁ottelua	-3418
▁om	-3419
▁esiinty	-3420
▁Venäjällä	-3421
ger	-3422
▁jätti	-3423
▁uskoo	-3424
▁liitto	-3425
▁puolella	-3426
▁toimitusjohtaja	-3427
▁alueen	-3428
wa	-3429
▁500	-3430
▁sisällä	-3431
het	-3432
ute	-3433
▁2-	-3434
▁rä	-3435
▁ylä	-3436
▁kokoon	-3437
▁vähintään	-3438
▁Jal	-3439
ttinen	-3440
teli	-3441
▁minä	-3442
johtajan	-3443
▁rakenta	-3444
▁kunnossa	-3445
▁lie	-3446
▁virka	-3447
▁vähemmän	-3448
▁Ukrainassa	-3449
▁Yhdysvalloissa	-3450
▁rik	-3451
▁kaikkea	-3452
mpa	-3453
jala	-3454
▁Nel	-3455
8,	-3456
▁Af	-3457
▁halusi	-3458
▁vahing	-3459
▁kannatta	-3460
pur	-3461
konaan	-3462
ttelua	-3463
▁jouluk	-3464
▁sosiaalisessa	-3465
astu	-3466
utettu	-3467
▁tyttö	-3468
▁kokoom	-3469
▁kukaan	-3470
▁ollaan	-3471
7,	-3472
dc	-3473
tra	-3474
alue	-3475
▁kiel	-3476
▁johtaa	-3477
▁päässä	-3478
luvun	-3479
▁vaku	-3480
▁linja	-3481
▁Suomea	-3482
▁muista	-3483
päällikkö	-3484
estön	-3485
▁toimitta	-3486
mb	-3487
zz	-3488
▁lyhy	-3489
▁päätöksen	-3490
uran	-3491
▁ajoi	-3492
yttänyt	-3493
iso	-3494
atin	-3495
▁kap	-3496
villa	-3497
▁tarvi	-3498
3-	-3499
pposi	-3500
▁tekn	-3501
▁Mikä	-3502
toista	-3503
▁saata	-3504
▁saatu	-3505
▁sarja	-3506
▁liittyy	-3507
▁Kyseessä	-3508
▁pelannut	-3509
▁Andersson	-3510
ladi	-3511
▁vaim	-3512
▁Norjan	-3513
▁maailmanm	-3514
▁Jää	-3515
publi	-3516
▁odottaa	-3517
▁toimittaja	-3518
rilla	-3519
igassa	-3520
30	-3521
ytys	-3522
▁Aie	-3523
iskeli	-3524
istään	-3525
▁ykkös	-3526
▁Samalla	-3527
hu	-3528
oida	-3529
▁Som	-3530
eloku	-3531
▁Urhe	-3532
▁liike	-3533
▁toivo	-3534
▁eteenpäin	-3535
ikö	-3536
▁hu	-3537
▁vei	-3538
yneet	-3539
publikaan	-3540
▁Elä	-3541
sivät	-3542
▁ehdot	-3543
▁Silloin	-3544
keskuksen	-3545
▁laj	-3546
▁maassa	-3547
▁kokonaan	-3548
▁toiminut	-3549
kuo	-3550
kein	-3551
▁Mos	-3552
asin	-3553
kiel	-3554
koja	-3555
▁liikke	-3556
▁taloude	-3557
▁keväällä	-3558
▁Ken	-3559
▁harr	-3560
maalla	-3561
toihin	-3562
▁kesän	-3563
▁itä	-3564
annan	-3565
vittä	-3566
▁tehtiin	-3567
atta	-3568
▁Suo	-3569
hei	-3570
▁moo	-3571
▁hiih	-3572
▁pela	-3573
kkääjä	-3574
▁pitkän	-3575
▁ihmisen	-3576
▁kesällä	-3577
iri	-3578
muka	-3579
strö	-3580
lö	-3581
▁Elo	-3582
uston	-3583
▁ehti	-3584
▁Länsi	-3585
istettu	-3586
▁Stubbin	-3587
▁vastasi	-3588
ksän	-3589
▁matkusta	-3590
▁Pir	-3591
▁vär	-3592
teeksi	-3593
▁kutsu	-3594
▁voitta	-3595
▁seli	-3596
▁es	-3597
hansa	-3598
▁laula	-3599
ss	-3600
▁johto	-3601
kelä	-3602
mitta	-3603
▁Saksan	-3604
▁tapahtuu	-3605
jään	-3606
▁järjestel	-3607
arvo	-3608
voim	-3609
▁teo	-3610
▁Willia	-3611
▁taistel	-3612
pot	-3613
aren	-3614
▁Anna	-3615
▁saadaan	-3616
▁prosentin	-3617
▁Oly	-3618
miehen	-3619
▁huono	-3620
▁tarkas	-3621
ard	-3622
taul	-3623
▁sam	-3624
▁johd	-3625
▁Orpon	-3626
▁näkem	-3627
▁Tuom	-3628
▁Tutki	-3629
▁turvallis	-3630
▁Flori	-3631
▁muutos	-3632
▁päässyt	-3633
▁viikonloppuna	-3634
tola	-3635
järvi	-3636
▁Nyky	-3637
▁ansi	-3638
▁Ennen	-3639
▁Vladi	-3640
▁juhla	-3641
▁sanon	-3642
ere	-3643
län	-3644
usin	-3645
sille	-3646
utuvat	-3647
ilman	-3648
innon	-3649
▁Ulko	-3650
▁olisivat	-3651
▁mahdollisuus	-3652
otto	-3653
▁apua	-3654
▁päin	-3655
ikkaan	-3656
▁ruotsa	-3657
▁Mur	-3658
mattom	-3659
▁sinne	-3660
▁käynyt	-3661
▁saavat	-3662
inti	-3663
▁hin	-3664
▁ohja	-3665
▁tukea	-3666
▁tilanteen	-3667
▁käytännössä	-3668
▁c	-3669
▁näi	-3670
▁suoja	-3671
▁Toinen	-3672
▁kansanedustaja	-3673
▁onkin	-3674
▁Harris	-3675
▁Lat	-3676
tul	-3677
tili	-3678
▁Hur	-3679
ralla	-3680
istossa	-3681
▁tuntia	-3682
rah	-3683
▁Kre	-3684
▁ilo	-3685
tteena	-3686
▁riittää	-3687
aut	-3688
▁emme	-3689
▁sarjan	-3690
▁Jar	-3691
oivat	-3692
▁tuntu	-3693
merikka	-3694
▁alkaen	-3695
▁metriä	-3696
▁tulevat	-3697
▁luva	-3698
▁ainoa	-3699
▁siltä	-3700
▁Seuraa	-3701
uudet	-3702
vallat	-3703
▁miestä	-3704
▁vuoteen	-3705
ikk	-3706
tär	-3707
dian	-3708
▁elämä	-3709
▁takaa	-3710
▁konser	-3711
▁näytti	-3712
▁positiiv	-3713
tella	-3714
issään	-3715
▁järky	-3716
▁vau	-3717
▁hätä	-3718
ttävää	-3719
▁kysel	-3720
istoimisto	-3721
▁erityisen	-3722
▁ex	-3723
▁Sami	-3724
▁kehitt	-3725
vist	-3726
osoit	-3727
elevisi	-3728
▁törkeä	-3729
▁Vladimir	-3730
▁myöskään	-3731
pyö	-3732
dion	-3733
▁Sin	-3734
▁Timo	-3735
uuksia	-3736
uksensa	-3737
▁lähteä	-3738
▁muutaman	-3739
fa	-3740
itti	-3741
▁estä	-3742
▁vuosikymmen	-3743
▁uhkaa	-3744
▁lähten	-3745
istetaan	-3746
▁valmentaja	-3747
genda	-3748
▁lopet	-3749
▁synty	-3750
▁töitä	-3751
▁peräti	-3752
▁parlamen	-3753
▁kilometriä	-3754
joja	-3755
ytön	-3756
▁Uut	-3757
▁pil	-3758
▁teks	-3759
▁Janne	-3760
▁tulos	-3761
▁eduskun	-3762
▁2022.	-3763
▁Zelen	-3764
rain	-3765
▁aktiiv	-3766
▁taustalla	-3767
▁äi	-3768
▁Jen	-3769
▁Kaar	-3770
▁Paika	-3771
▁lauka	-3772
▁treen	-3773
▁Ah	-3774
ppaa	-3775
▁asiat	-3776
htä	-3777
moit	-3778
▁amm	-3779
tällä	-3780
▁puolusta	-3781
▁kerrottiin	-3782
eja	-3783
ölj	-3784
tilla	-3785
▁2021	-3786
kainen	-3787
▁Gu	-3788
▁lenn	-3789
▁piir	-3790
▁minun	-3791
▁pelin	-3792
▁rikko	-3793
▁valko	-3794
▁joskus	-3795
▁kieltä	-3796
▁asiassa	-3797
▁ongelma	-3798
▁tyytyvä	-3799
ssin	-3800
▁Cat	-3801
▁kustann	-3802
▁viikkoa	-3803
▁kaupunki	-3804
▁kohdalla	-3805
▁YK	-3806
ttömä	-3807
alueen	-3808
▁Ville	-3809
▁noussut	-3810
manin	-3811
▁lasta	-3812
▁heiken	-3813
▁Yhdysvallat	-3814
esi	-3815
olf	-3816
▁Ben	-3817
▁Met	-3818
▁nos	-3819
isistä	-3820
ell	-3821
▁yhtiö	-3822
▁selkeä	-3823
▁monta	-3824
▁kasvat	-3825
▁maksaa	-3826
empi	-3827
vell	-3828
▁MTV	-3829
▁put	-3830
ustaan	-3831
ukuussa	-3832
imä	-3833
taso	-3834
killä	-3835
▁vähä	-3836
▁Lauri	-3837
isaalta	-3838
▁paikan	-3839
ukan	-3840
▁jut	-3841
mpaan	-3842
▁reil	-3843
▁pyöri	-3844
▁palkin	-3845
▁selvit	-3846
yne	-3847
▁Di	-3848
▁vuoro	-3849
llisena	-3850
▁koulut	-3851
▁harvina	-3852
isko	-3853
kista	-3854
▁ohjaa	-3855
▁odotta	-3856
▁itsensä	-3857
▁tunnettu	-3858
kr	-3859
zin	-3860
hdin	-3861
▁parin	-3862
▁ihminen	-3863
▁aloittaa	-3864
4-	-3865
▁0	-3866
det	-3867
▁Varsina	-3868
unnossa	-3869
▁työntekijö	-3870
én	-3871
▁lai	-3872
mmaksi	-3873
▁siirty	-3874
▁suomalainen	-3875
gar	-3876
juh	-3877
kkeen	-3878
telee	-3879
▁itseään	-3880
▁olemaan	-3881
▁yhdeksän	-3882
työ	-3883
▁avaa	-3884
▁Kal	-3885
urinko	-3886
kkaasti	-3887
essi	-3888
ilen	-3889
ulan	-3890
kso	-3891
▁kerta	-3892
▁kysyi	-3893
▁entistä	-3894
▁pohjois	-3895
▁Puolustus	-3896
imin	-3897
▁Juha	-3898
▁helpo	-3899
▁tulossa	-3900
▁Zelensky	-3901
▁vetä	-3902
▁valit	-3903
▁pudotus	-3904
▁toimintaa	-3905
onta	-3906
piir	-3907
jäsen	-3908
▁verta	-3909
▁tutkim	-3910
▁maananta	-3911
▁musiikki	-3912
▁Wa	-3913
▁Pen	-3914
▁siksi	-3915
kov	-3916
urva	-3917
▁kesänä	-3918
▁huomiota	-3919
udun	-3920
▁Jukka	-3921
tos	-3922
pide	-3923
▁197	-3924
▁Moni	-3925
▁huom	-3926
maiden	-3927
▁hyvän	-3928
▁kunto	-3929
▁Syyttä	-3930
▁toimia	-3931
▁vastuu	-3932
▁perusta	-3933
▁kokonais	-3934
▁käytössä	-3935
▁runsaasti	-3936
llö	-3937
elan	-3938
kuva	-3939
ttelut	-3940
tyneet	-3941
▁onnistu	-3942
koti	-3943
▁hote	-3944
ttelin	-3945
▁näkee	-3946
istoria	-3947
▁kerr	-3948
▁lupa	-3949
päivänä	-3950
▁hankki	-3951
▁itselleen	-3952
SA	-3953
kilä	-3954
sori	-3955
ongel	-3956
▁olet	-3957
▁super	-3958
▁halunnut	-3959
ento	-3960
pain	-3961
▁Las	-3962
▁luov	-3963
luvulla	-3964
▁urheilu	-3965
▁varsina	-3966
▁Pariisin	-3967
▁verrattuna	-3968
▁tilanteesta	-3969
▁3-	-3970
kkoa	-3971
▁Laa	-3972
▁res	-3973
▁yönä	-3974
▁lähtee	-3975
vun	-3976
fina	-3977
muna	-3978
ukselle	-3979
unnitel	-3980
▁maailmancup	-3981
ly	-3982
pr	-3983
dät	-3984
▁Ste	-3985
▁ilme	-3986
anneet	-3987
▁heitä	-3988
▁kolmas	-3989
▁pelastusla	-3990
▁Presidentti	-3991
tala	-3992
vahti	-3993
▁pienen	-3994
6-	-3995
ilin	-3996
joen	-3997
mäen	-3998
upaa	-3999
▁tiede	-4000
▁huippu	-4001
▁mahdollisesti	-4002
▁Koti	-4003
järven	-4004
▁pyörä	-4005
▁yhdys	-4006
▁kauppa	-4007
▁kaikille	-4008
ilma	-4009
innä	-4010
llyn	-4011
miset	-4012
vinen	-4013
▁Muut	-4014
▁Britanni	-4015
50	-4016
dun	-4017
jiä	-4018
udet	-4019
▁luu	-4020
ointi	-4021
iselta	-4022
▁pelkä	-4023
▁Siellä	-4024
▁nouse	-4025
00-	-4026
mala	-4027
dassa	-4028
valtu	-4029
estäni	-4030
▁kasvan	-4031
▁maalia	-4032
▁syntyi	-4033
▁Asiasta	-4034
pall	-4035
▁inf	-4036
jansa	-4037
▁toki	-4038
▁Siitä	-4039
▁keskellä	-4040
dp	-4041
▁puke	-4042
▁armei	-4043
▁pohjo	-4044
iskanen	-4045
▁kuuden	-4046
▁mennyt	-4047
▁tahansa	-4048
▁erilaisia	-4049
tiä	-4050
▁1.	-4051
kausi	-4052
vonen	-4053
▁Aina	-4054
▁Asia	-4055
▁Väli	-4056
▁Halla	-4057
tapahtu	-4058
▁ennakko	-4059
▁Instagramissa	-4060
vil	-4061
▁It	-4062
kasti	-4063
nasta	-4064
▁minua	-4065
▁Ranska	-4066
mpö	-4067
▁fan	-4068
viikon	-4069
ystävä	-4070
▁monet	-4071
▁Vuoden	-4072
FK	-4073
pro	-4074
▁60	-4075
jänä	-4076
▁musta	-4077
▁sydän	-4078
▁vuokra	-4079
▁huomauttaa	-4080
net	-4081
ressi	-4082
▁kauh	-4083
▁kulttuuri	-4084
tteri	-4085
teista	-4086
▁tunnin	-4087
▁or	-4088
▁iski	-4089
▁sellaista	-4090
▁Ex	-4091
maksi	-4092
▁kaun	-4093
▁itsenä	-4094
▁luonnon	-4095
peä	-4096
sal	-4097
▁Pol	-4098
eellä	-4099
▁raha	-4100
▁Hamas	-4101
▁sille	-4102
▁joutuu	-4103
▁median	-4104
ic	-4105
ös	-4106
▁Hu	-4107
voja	-4108
▁Tik	-4109
▁myr	-4110
▁2023.	-4111
▁meille	-4112
▁And	-4113
▁pes	-4114
maatt	-4115
uivat	-4116
▁Peli	-4117
▁mita	-4118
▁suom	-4119
▁Matti	-4120
▁energ	-4121
▁naura	-4122
▁sijoit	-4123
▁vuosia	-4124
▁minulla	-4125
▁toisella	-4126
iem	-4127
ester	-4128
▁eläin	-4129
▁liikaa	-4130
utuminen	-4131
▁Haavisto	-4132
▁henkilökohta	-4133
▁lisään	-4134
▁kumppan	-4135
▁yksittä	-4136
▁osallistui	-4137
ittä	-4138
maks	-4139
välin	-4140
▁yritti	-4141
▁julkaise	-4142
▁&	-4143
mmo	-4144
▁Yl	-4145
ttöm	-4146
terve	-4147
▁Ilma	-4148
▁ajaa	-4149
▁helposti	-4150
▁vuodessa	-4151
▁Bu	-4152
▁kel	-4153
▁viik	-4154
mmalla	-4155
▁onnistui	-4156
▁televisi	-4157
7-	-4158
alti	-4159
▁Joe	-4160
▁Kas	-4161
sarja	-4162
tista	-4163
▁Geor	-4164
▁Valko	-4165
▁lapsia	-4166
▁kuljetta	-4167
▁puolueen	-4168
▁väkivalta	-4169
FP	-4170
pua	-4171
teria	-4172
yneen	-4173
▁kasvoi	-4174
be	-4175
ska	-4176
etyn	-4177
kula	-4178
innut	-4179
ohjan	-4180
▁hypp	-4181
▁olin	-4182
▁rinta	-4183
▁uskon	-4184
▁vasemmisto	-4185
sto	-4186
▁kysy	-4187
yksellä	-4188
▁pohtii	-4189
rian	-4190
▁Puh	-4191
dellä	-4192
ksiin	-4193
▁Nämä	-4194
liigan	-4195
▁saisi	-4196
DP	-4197
iky	-4198
ukkaa	-4199
voitto	-4200
▁asukka	-4201
▁nousee	-4202
▁uransa	-4203
▁Pat	-4204
▁pih	-4205
▁ved	-4206
rinen	-4207
uihin	-4208
alaista	-4209
▁varmaan	-4210
▁valmenta	-4211
▁vahvistaa	-4212
▁viestipalvelu	-4213
tansa	-4214
unnan	-4215
▁lapset	-4216
▁tanssi	-4217
▁suomalaisten	-4218
pist	-4219
▁Tai	-4220
▁pääkaupun	-4221
taryh	-4222
▁Paimi	-4223
pään	-4224
jaksi	-4225
▁Charl	-4226
▁pikku	-4227
▁virhe	-4228
llisimman	-4229
▁kuoleman	-4230
▁olemassa	-4231
uin	-4232
▁torj	-4233
▁Kiinan	-4234
▁säästö	-4235
▁kaikkia	-4236
▁seurauksena	-4237
ttik	-4238
ukon	-4239
▁kein	-4240
oimaan	-4241
yttävä	-4242
▁runko	-4243
▁Oulussa	-4244
▁toiseksi	-4245
▁näyttelijä	-4246
cha	-4247
uoto	-4248
▁sal	-4249
▁sor	-4250
▁tuho	-4251
▁lista	-4252
▁rakka	-4253
▁voiton	-4254
▁saaneet	-4255
▁helmikuussa	-4256
▁republikaan	-4257
saa	-4258
▁Vor	-4259
uvosto	-4260
▁päähän	-4261
▁aloitta	-4262
▁kulutta	-4263
▁syksyllä	-4264
ukä	-4265
▁Pu	-4266
▁Salo	-4267
▁laul	-4268
mmassa	-4269
▁pystyy	-4270
käyn	-4271
▁Sam	-4272
astui	-4273
▁varha	-4274
▁jättää	-4275
▁kotima	-4276
▁missään	-4277
▁tasolla	-4278
tsi	-4279
mist	-4280
▁istu	-4281
▁turna	-4282
▁puolen	-4283
alueella	-4284
▁Helsinki	-4285
▁perustel	-4286
▁Toki	-4287
ohjelman	-4288
▁kansanedusta	-4289
▁Iso	-4290
▁häl	-4291
piste	-4292
▁illa	-4293
▁isän	-4294
▁koulun	-4295
▁asiantunti	-4296
fes	-4297
mpiin	-4298
▁auki	-4299
▁omat	-4300
▁valmenn	-4301
▁lämpötila	-4302
▁mahdollisimman	-4303
▁pika	-4304
yhdist	-4305
▁monen	-4306
▁aikoina	-4307
ley	-4308
▁Marin	-4309
▁juoks	-4310
▁ukrain	-4311
▁Hallitus	-4312
▁ymmärtää	-4313
▁BBC	-4314
▁Jär	-4315
ännyt	-4316
io	-4317
ilua	-4318
▁Mad	-4319
tille	-4320
▁Kesä	-4321
▁Sanna	-4322
▁kruun	-4323
tapa	-4324
vaih	-4325
▁Ala	-4326
▁Jul	-4327
▁jälj	-4328
koihin	-4329
▁vieras	-4330
▁sotilas	-4331
▁sijaitsee	-4332
▁terveyden	-4333
▁sol	-4334
▁Vide	-4335
▁lehd	-4336
▁saar	-4337
▁sito	-4338
ikuuta	-4339
joista	-4340
▁selvä	-4341
▁huolta	-4342
▁palkka	-4343
▁yllättä	-4344
vaaleissa	-4345
▁Niinistö	-4346
▁Tampereen	-4347
ak	-4348
▁AFP	-4349
▁Onko	-4350
▁häir	-4351
▁ajone	-4352
ip	-4353
skin	-4354
▁Fin	-4355
▁Gran	-4356
▁alas	-4357
eeseen	-4358
isillä	-4359
käyttö	-4360
▁parhaa	-4361
lliseksi	-4362
▁kysymys	-4363
▁alueelle	-4364
sk	-4365
▁4-	-4366
upäi	-4367
mmasta	-4368
▁kävel	-4369
alaisia	-4370
▁lääkär	-4371
▁tiedon	-4372
▁ystävä	-4373
▁lopulla	-4374
▁parempi	-4375
▁ongelmia	-4376
▁yhdysvalta	-4377
tuvat	-4378
rakenn	-4379
▁tilaa	-4380
tteeseen	-4381
▁kuljettaja	-4382
isty	-4383
▁loh	-4384
tiota	-4385
▁tarke	-4386
▁ampuma	-4387
▁joulukuussa	-4388
▁+	-4389
uska	-4390
innassa	-4391
▁harjoi	-4392
▁laajen	-4393
▁nähnyt	-4394
▁sisään	-4395
▁opiskeli	-4396
▁tiedossa	-4397
▁tietysti	-4398
ario	-4399
orin	-4400
ukin	-4401
▁rek	-4402
dalla	-4403
eessa	-4404
▁Kaik	-4405
▁Olin	-4406
elemaan	-4407
henkilö	-4408
llisesta	-4409
▁Mal	-4410
▁Ruo	-4411
talon	-4412
▁Espo	-4413
▁Katso	-4414
▁Ranta	-4415
▁ollen	-4416
▁täysi	-4417
▁karsin	-4418
valmenta	-4419
▁saatiin	-4420
istettiin	-4421
ya	-4422
otti	-4423
▁dia	-4424
ström	-4425
▁alun	-4426
▁jaka	-4427
▁artik	-4428
▁käsite	-4429
▁säännö	-4430
▁puolust	-4431
▁Ruotsissa	-4432
▁suomalaiset	-4433
önen	-4434
omista	-4435
fessori	-4436
▁aikaisemmin	-4437
ler	-4438
▁Be	-4439
teri	-4440
▁Paa	-4441
vaara	-4442
tieteen	-4443
▁Ranskan	-4444
8-	-4445
kua	-4446
kohd	-4447
koon	-4448
▁Kale	-4449
▁hovi	-4450
maansa	-4451
▁Teemu	-4452
▁palasi	-4453
▁Aiemmin	-4454
▁vahvasti	-4455
▁vahvista	-4456
▁viimeisen	-4457
NN	-4458
bin	-4459
▁Lau	-4460
▁työtä	-4461
▁kotona	-4462
▁muutama	-4463
atti	-4464
▁SDP	-4465
lässä	-4466
▁Face	-4467
▁Vali	-4468
▁meri	-4469
▁Siksi	-4470
▁samaa	-4471
▁hiihto	-4472
▁syystä	-4473
▁rakenne	-4474
▁presidenttiehdo	-4475
kes	-4476
vyys	-4477
tonin	-4478
▁sytt	-4479
▁löyty	-4480
▁vauri	-4481
▁ottanut	-4482
▁toiseen	-4483
▁kuukausi	-4484
▁ammattila	-4485
▁tammikuussa	-4486
veä	-4487
▁Epä	-4488
▁pöy	-4489
issut	-4490
jojen	-4491
▁Mann	-4492
▁kana	-4493
mppail	-4494
ttomasti	-4495
▁nykyään	-4496
mö	-4497
▁21	-4498
kela	-4499
ueen	-4500
uvon	-4501
▁haas	-4502
▁rann	-4503
▁kuule	-4504
▁nopea	-4505
poliitt	-4506
vaalien	-4507
▁auttaa	-4508
minister	-4509
▁yrittää	-4510
▁Tuolloin	-4511
▁ainoastaan	-4512
▁Saa	-4513
▁ampu	-4514
▁tyttä	-4515
▁1-	-4516
▁My	-4517
▁Pul	-4518
ellaan	-4519
ksestä	-4520
merkki	-4521
▁vanha	-4522
itetään	-4523
▁hyödyn	-4524
▁William	-4525
▁Venäjälle	-4526
mmät	-4527
vuus	-4528
mpana	-4529
▁vaar	-4530
▁vettä	-4531
▁muistelee	-4532
▁yliopiston	-4533
▁2,	-4534
Kore	-4535
ttil	-4536
yhty	-4537
▁Bor	-4538
▁Sir	-4539
uttava	-4540
▁edellis	-4541
zb	-4542
eva	-4543
ood	-4544
▁Tän	-4545
kilön	-4546
osassa	-4547
▁Laine	-4548
▁riippu	-4549
▁suuren	-4550
oikeuden	-4551
öi	-4552
iaan	-4553
▁ide	-4554
omaan	-4555
▁sivi	-4556
▁Tästä	-4557
▁mikään	-4558
▁työskenne	-4559
▁käräjäoikeus	-4560
boo	-4561
ähti	-4562
▁Tun	-4563
aleja	-4564
▁reag	-4565
▁osaval	-4566
▁tutkimus	-4567
▁Jä	-4568
dcast	-4569
istin	-4570
▁Mole	-4571
▁video	-4572
▁ottelu	-4573
viranoma	-4574
▁syntynyt	-4575
▁Varsinais	-4576
▁Pro	-4577
iikki	-4578
▁elämää	-4579
▁tarvitta	-4580
bor	-4581
▁Eli	-4582
▁Jari	-4583
▁ansa	-4584
▁nosti	-4585
▁päätyi	-4586
pitel	-4587
ähkön	-4588
▁kamer	-4589
▁iltapäivä	-4590
201	-4591
rille	-4592
▁kestä	-4593
▁tunnet	-4594
▁siirtyi	-4595
ttelemaan	-4596
▁kuukautta	-4597
sty	-4598
▁CNN	-4599
▁roh	-4600
▁tap	-4601
desta	-4602
▁sovi	-4603
▁hetken	-4604
▁antanut	-4605
▁ennätys	-4606
▁osoitta	-4607
ottelussa	-4608
▁eduskuntaryh	-4609
▁huomattavasti	-4610
▁Luo	-4611
ologi	-4612
▁Nuor	-4613
operaa	-4614
▁kovaa	-4615
▁rauhan	-4616
▁voittaa	-4617
▁joukossa	-4618
kais	-4619
▁asen	-4620
isissä	-4621
ryhmän	-4622
▁arvos	-4623
▁kaver	-4624
▁käydä	-4625
dettiin	-4626
▁esille	-4627
▁kiinnosta	-4628
▁Q	-4629
pite	-4630
▁Huu	-4631
▁Jor	-4632
▁oll	-4633
▁John	-4634
▁tuhan	-4635
▁huhtik	-4636
▁kunnan	-4637
ustilais	-4638
▁kilpaili	-4639
▁varmista	-4640
▁HS	-4641
imet	-4642
täjä	-4643
▁Han	-4644
▁Auto	-4645
▁Lapp	-4646
▁murh	-4647
▁muuten	-4648
▁sekunn	-4649
▁etteivät	-4650
▁tarvitaan	-4651
▁ensimmäisenä	-4652
töä	-4653
▁bri	-4654
toimin	-4655
▁kuningas	-4656
ai	-4657
▁Olli	-4658
muksia	-4659
▁numer	-4660
▁tunne	-4661
▁tähti	-4662
▁kasvaa	-4663
▁elämään	-4664
▁aiheutti	-4665
▁Ukrainaan	-4666
▁törkeästä	-4667
sil	-4668
▁tra	-4669
▁kuvia	-4670
▁Ruotsi	-4671
▁prinssi	-4672
▁puoliväli	-4673
▁syyskuussa	-4674
▁keskustelua	-4675
9-	-4676
hkä	-4677
▁Je	-4678
▁Toy	-4679
▁Use	-4680
▁2020	-4681
▁osin	-4682
▁vaikutus	-4683
ministerin	-4684
▁kansalais	-4685
▁kertoivat	-4686
▁uutistoimisto	-4687
▁Ny	-4688
peri	-4689
toim	-4690
▁Aika	-4691
▁loma	-4692
vuoden	-4693
yväsky	-4694
▁tuomio	-4695
itettiin	-4696
▁viittaa	-4697
▁oikeasti	-4698
▁Ad	-4699
aliin	-4700
kussa	-4701
▁Dani	-4702
▁kuka	-4703
▁vall	-4704
utetta	-4705
utuneet	-4706
▁päivit	-4707
▁astetta	-4708
▁tietoja	-4709
▁voittaja	-4710
hdi	-4711
▁Tan	-4712
▁oir	-4713
▁raj	-4714
kosta	-4715
kumen	-4716
missi	-4717
▁Mari	-4718
▁näitä	-4719
▁katsoi	-4720
▁videon	-4721
▁paljastaa	-4722
omo	-4723
▁näke	-4724
▁kritis	-4725
▁kunnia	-4726
▁löytää	-4727
nim	-4728
mmän	-4729
▁heh	-4730
▁	-4731
a	-4732
i	-4733
t	-4734
n	-4735
e	-4736
s	-4737
l	-4738
o	-4739
u	-4740
k	-4741
ä	-4742
m	-4743
r	-4744
v	-4745
h	-4746
p	-4747
j	-4748
y	-4749
.	-4750
d	-4751
,	-4752
ö	-4753
S	-4754
-	-4755
K	-4756
T	-4757
M	-4758
0	-4759
P	-4760
H	-4761
g	-4762
V	-4763
2	-4764
L	-4765
1	-4766
A	-4767
E	-4768
J	-4769
N	-4770
b	-4771
R	-4772
:	-4773
O	-4774
I	-4775
c	-4776
f	-4777
"	-4778
B	-4779
U	-4780
3	-4781
5	-4782
Y	-4783
4	-4784
C	-4785
9	-4786
F	-4787
6	-4788
D	-4789
8	-4790
7	-4791
)	-4792
(	-4793
G	-4794
z	-4795
w	-4796
W	-4797
?	-4798
x	-4799
­	-4800
/	-4801
!	-4802
Z	-4803
X	-4804
Ä	-4805
+	-4806
é	-4807
'	-4808
q	-4809
š	-4810
&	-4811
%	-4812
ü	-4813
å	-4814
Q	-4815
]	-4816
[	-4817
Ö	-4818
á	-4819
=	-4820
€	-4821
Å	-4822
ž	-4823
ø	-4824
;	-4825
í	-4826
о	-4827
*	-4828
а	-4829
@	-4830
н	-4831
е	-4832
>	-4833
и	-4834
ó	-4835
Š	-4836
т	-4837
р	-4838
с	-4839
■	-4840
л	-4841
в	-4842
−	-4843
ñ	-4844
к	-4845
ë	-4846
è	-4847
д	-4848
у	-4849
č	-4850
#	-4851
г	-4852
п	-4853
ы	-4854
я	-4855
_	-4856
★	-4857
м	-4858
Ã	-4859
â	-4860
⁄	-4861
¤	-4862
ã	-4863
ú	-4864
à	-4865
ć	-4866
б	-4867
й	-4868
ğ	-4869
ł	-4870
ь	-4871
§	-4872
Á	-4873
з	-4874
ç	-4875
·	-4876
æ	-4877
ч	-4878
É	-4879
ý	-4880
ю	-4881
Ž	-4882
õ	-4883
<	-4884
ï	-4885
×	-4886
Ü	-4887
ô	-4888
ř	-4889
Ø	-4890
ð	-4891
ń	-4892
ж	-4893
х	-4894
Č	-4895
ě	-4896
В	-4897
ц	-4898
	-4899
°	-4900
ê	-4901
С	-4902
Ф	-4903
©	-4904
П	-4905
‒	-4906
Õ	-4907
Ú	-4908
ă	-4909
ė	-4910
ņ	-4911
ш	-4912
щ	-4913
	-4914
Ç	-4915
ß	-4916
ò	-4917
ā	-4918
ē	-4919
ı	-4920
ū	-4921
μ	-4922
А	-4923
Б	-4924
ф	-4925
э	-4926
‐	-4927
•	-4928
⭐	-4929
Æ	-4930
Í	-4931
Þ	-4932
ō	-4933
ț	-4934
α	-4935
К	-4936
Ш	-4937
●	-4938
$	-4939
\	-4940
`	-4941
¶	-4942
À	-4943
Ó	-4944
İ	-4945
ň	-4946
ŏ	-4947
œ	-4948
ş	-4949
ů	-4950
ż	-4951
ə	-4952
˗	-4953
Ж	-4954
И	-4955
Л	-4956
Н	-4957
‰	-4958
′	-4959
⁣	-4960
~	-4961
	-4962
¡	-4963
®	-4964
±	-4965
Â	-4966
Ò	-4967
Û	-4968
ì	-4969
î	-4970
û	-4971
ÿ	-4972
ą	-4973
đ	-4974
ę	-4975
ģ	-4976
ī	-4977
Ķ	-4978
ľ	-4979
Ł	-4980
ś	-4981
ų	-4982
ź	-4983
ǎ	-4984
Ș	-4985
ș	-4986
Д	-4987
З	-4988
О	-4989
Т	-4990
Э	-4991
ỏ	-4992
ố	-4993
‍	-4994
∞	-4995
😂	-4996
