<unk>	0
<s>	0
</s>	0
▁.	-3.58668
▁n	-3.67691
▁k	-3.92743
▁,	-3.97926
i	-4.0962
▁a	-4.12752
e	-4.13282
a	-4.1758
▁t	-4.27417
▁i	-4.37684
▁s	-4.4217
▁v	-4.43736
▁p	-4.4622
t	-4.5255
▁m	-4.59011
▁on	-4.61737
▁ja	-4.62847
s	-4.63405
n	-4.6666
▁-	-4.89452
▁en	-4.92075
u	-4.93015
▁h	-5.1022
▁ssa	-5.12573
▁in	-5.13363
▁l	-5.22758
l	-5.24798
o	-5.25202
▁an	-5.26732
k	-5.31258
▁S	-5.38445
▁K	-5.42024
m	-5.42329
▁e	-5.43234
▁lla	-5.51535
▁ä	-5.52214
▁T	-5.55826
▁P	-5.58541
▁oli	-5.61582
▁sta	-5.62648
▁että	-5.64305
▁ta	-5.65842
▁M	-5.67903
▁V	-5.73092
▁r	-5.76319
▁u	-5.76614
is	-5.76766
▁ei	-5.76898
▁2	-5.7756
▁o	-5.8044
▁L	-5.81248
▁jo	-5.85486
▁ti	-5.88879
▁lle	-5.89506
v	-5.90676
▁H	-5.91026
▁0	-5.936
▁j	-6.01653
▁is	-6.03283
r	-6.04401
▁:	-6.05805
▁1	-6.05872
▁A	-6.07795
▁än	-6.1148
ä	-6.17497
▁ssä	-6.17559
▁llis	-6.1981
▁R	-6.20006
▁nen	-6.25218
▁J	-6.27011
▁et	-6.28033
▁ukaan	-6.29698
▁na	-6.30015
▁y	-6.32063
▁ia	-6.33642
▁llä	-6.33993
▁E	-6.3525
▁taa	-6.42327
▁"	-6.44542
▁N	-6.47042
y	-6.48042
▁ista	-6.54361
▁myös	-6.55503
▁stä	-6.55677
▁issa	-6.55758
▁hän	-6.56341
▁se	-6.56871
▁I	-6.57056
▁kin	-6.57272
▁O	-6.596
▁at	-6.61043
▁ole	-6.63091
▁nyt	-6.63685
▁aa	-6.65571
▁us	-6.67294
▁ten	-6.67681
▁ksi	-6.67771
▁ovat	-6.68281
▁sen	-6.68904
▁tä	-6.69993
▁vat	-6.72125
▁aika	-6.73954
▁nut	-6.75796
▁kun	-6.77416
▁voi	-6.82339
▁si	-6.8616
▁lta	-6.88064
h	-6.88207
▁B	-6.88365
▁inen	-6.88932
▁ttiin	-6.89309
▁ty	-6.89461
▁aan	-6.90448
▁tää	-6.913
▁toimi	-6.91649
▁jen	-6.92561
▁3	-6.93449
▁nä	-6.93788
▁tai	-6.96187
▁tila	-6.96564
▁ukse	-6.97035
▁kse	-6.97262
▁ien	-6.98723
▁9	-6.99868
▁ille	-7.00359
▁nsa	-7.00493
▁as	-7.02317
▁5	-7.02424
▁ma	-7.02694
▁eri	-7.04015
▁illa	-7.04234
▁ollut	-7.04819
▁esti	-7.05698
iime	-7.06287
▁ys	-7.08236
▁iin	-7.08415
▁te	-7.08826
▁ertoo	-7.10071
▁alla	-7.10086
▁4	-7.11343
▁jälk	-7.12068
▁la	-7.13117
▁saa	-7.14054
▁esta	-7.14175
▁oike	-7.14496
▁ää	-7.14802
▁tam	-7.14961
ukse	-7.15028
▁(	-7.15337
▁ttu	-7.15483
▁taina	-7.17634
▁ita	-7.17914
▁joka	-7.18475
▁pää	-7.18722
▁Hän	-7.18797
▁)	-7.19062
▁ais	-7.19503
p	-7.19529
▁F	-7.19759
▁U	-7.20295
▁vast	-7.213
▁osa	-7.22728
▁tus	-7.23108
▁iä	-7.23597
▁taj	-7.23996
▁mutt	-7.24147
uin	-7.24325
▁yhte	-7.24608
si	-7.24826
d	-7.258
▁anssa	-7.26244
▁koko	-7.26541
▁un	-7.2675
▁sa	-7.26811
▁työ	-7.27291
▁D	-7.27706
▁Suom	-7.29093
▁ensi	-7.29929
▁itse	-7.3165
▁niin	-7.31932
▁uonna	-7.32022
utta	-7.32163
▁he	-7.32827
▁taja	-7.33314
▁itä	-7.34522
enäj	-7.35054
▁mme	-7.35329
▁ään	-7.35879
▁ise	-7.3611
ty	-7.36397
▁nne	-7.36448
▁iden	-7.36887
▁olisi	-7.37426
▁taan	-7.3747
▁paik	-7.37967
▁sto	-7.37977
▁nkin	-7.38075
▁ol	-7.38438
▁häne	-7.38647
▁6	-7.38867
▁tu	-7.40011
▁uomen	-7.40523
▁sai	-7.40593
▁tois	-7.40808
▁yksi	-7.41009
▁8	-7.41701
▁ilu	-7.41944
▁asia	-7.42411
▁sti	-7.43042
▁alue	-7.43211
▁lähe	-7.43867
▁halli	-7.43912
▁7	-7.44108
▁essa	-7.44557
▁kesk	-7.44794
▁sanoo	-7.44814
▁kau	-7.46274
▁it	-7.4747
▁Jo	-7.47486
▁peru	-7.47611
▁tapa	-7.48396
▁b	-7.48955
▁yli	-7.48982
▁C	-7.49056
▁asti	-7.49432
▁tanut	-7.50274
▁el	-7.50294
▁maa	-7.51159
▁vät	-7.51359
▁käyt	-7.51514
▁een	-7.51905
▁ihmi	-7.52537
lais	-7.52885
ttel	-7.53526
▁ihin	-7.54061
▁tta	-7.54732
▁joh	-7.55067
it	-7.55247
▁nta	-7.56602
j	-7.56977
▁auto	-7.57189
en	-7.57341
▁uoden	-7.57379
▁ede	-7.58139
▁oma	-7.5814
il	-7.58906
▁sekä	-7.58927
▁ainen	-7.58984
▁luo	-7.5908
▁assa	-7.59374
res	-7.59401
▁seura	-7.59751
▁G	-7.59872
▁aikki	-7.60258
▁olla	-7.6055
▁ident	-7.60938
▁täm	-7.61138
▁epä	-7.61145
f	-7.61768
,	-7.61782
▁Se	-7.61829
▁ko	-7.62163
▁al	-7.62226
▁lais	-7.62243
▁uole	-7.6226
▁uus	-7.62327
▁ukkue	-7.62398
▁vielä	-7.6241
▁maan	-7.62445
▁f	-7.6264
▁nais	-7.62754
▁kosk	-7.63105
▁käy	-7.63243
ssa	-7.63263
▁yl	-7.64246
hdo	-7.64904
▁talo	-7.65094
▁istä	-7.65388
▁oit	-7.65408
▁ana	-7.65679
▁näyt	-7.65872
▁ava	-7.66092
▁aj	-7.66318
uoti	-7.67206
▁suur	-7.67512
▁mies	-7.6756
▁asu	-7.67787
▁yrit	-7.67843
▁aina	-7.67945
▁mis	-7.68376
▁uussa	-7.69467
▁kunn	-7.69635
▁täv	-7.70016
▁ertoi	-7.70643
▁päivä	-7.71404
▁Y	-7.71446
▁issä	-7.71574
▁vain	-7.71711
▁nsä	-7.7195
▁neet	-7.72616
▁ilta	-7.73879
uite	-7.74279
pah	-7.74486
▁siitä	-7.74592
▁vuosi	-7.75233
▁väli	-7.75338
▁?	-7.75682
▁den	-7.76125
▁var	-7.76127
▁olev	-7.76563
▁Ukra	-7.76835
b	-7.77121
▁tutk	-7.7714
▁uude	-7.79013
ten	-7.79022
▁oi	-7.79835
▁muut	-7.80084
kiks	-7.80301
▁anna	-7.80362
▁W	-7.80517
▁itten	-7.80586
▁	-7.80765
op	-7.8079
▁tode	-7.80908
▁alve	-7.81051
▁aiku	-7.81293
▁pel	-7.81393
▁suom	-7.81715
▁sitä	-7.81868
▁liik	-7.82109
▁teh	-7.82329
▁tark	-7.82485
▁sanoi	-7.82522
▁teri	-7.82594
el	-7.8264
▁esi	-7.83068
▁ö	-7.83548
ärje	-7.84416
▁mini	-7.84454
▁asta	-7.84839
▁nkilö	-7.84905
▁määrä	-7.85318
▁puhe	-7.85527
▁ykse	-7.8554
▁alle	-7.85677
▁isto	-7.85909
▁noin	-7.86678
▁jos	-7.8688
▁ette	-7.87422
▁aljon	-7.877
erro	-7.89471
▁lait	-7.89513
▁tava	-7.89515
▁alta	-7.89994
▁eskus	-7.90321
▁nto	-7.90361
▁turva	-7.90367
ilm	-7.9072
▁kaksi	-7.91001
▁uuta	-7.91535
▁syy	-7.91581
▁voit	-7.91735
illä	-7.91943
an	-7.92729
▁vaih	-7.93242
▁jää	-7.93367
▁uusi	-7.93555
säks	-7.93773
▁ennen	-7.93829
▁Hel	-7.93847
▁Yhd	-7.94081
▁eivät	-7.94627
▁ella	-7.95286
ys	-7.95583
▁tel	-7.95691
▁miel	-7.95883
▁aikka	-7.97021
▁pros	-7.97088
emm	-7.97467
▁hyvin	-7.97887
▁ulko	-7.97922
▁tuli	-7.98113
▁edus	-7.98242
▁­	-7.98509
▁sam	-7.98646
▁tav	-7.98746
▁ase	-7.99083
▁ot	-7.99847
▁ku	-7.99926
▁ansa	-8.00492
▁eli	-8.01195
▁lleen	-8.01233
▁valm	-8.01556
▁aksi	-8.01991
▁esit	-8.02032
▁llin	-8.02092
▁oulu	-8.02226
▁tänyt	-8.02415
▁usta	-8.0249
▁kuva	-8.02657
▁sano	-8.03068
▁rake	-8.03388
▁vali	-8.03389
▁muun	-8.03468
▁Ilta	-8.04402
▁iso	-8.04605
▁uass	-8.04877
▁tuo	-8.04971
▁Trump	-8.05692
omm	-8.057
▁iha	-8.05773
▁nnut	-8.05792
▁istu	-8.06172
▁tiin	-8.06223
▁uolu	-8.06481
▁julk	-8.06513
▁käsi	-8.06526
▁esim	-8.06551
▁par	-8.06587
er	-8.06938
▁ina	-8.0724
▁arvo	-8.07623
▁opu	-8.08079
▁le	-8.08132
▁eksi	-8.08266
▁pitkä	-8.08474
ö	-8.08518
▁arvio	-8.08752
▁tulee	-8.09176
▁tunt	-8.09635
▁yllä	-8.09683
▁aus	-8.09703
▁il	-8.10077
▁sopi	-8.10321
▁urhe	-8.10811
▁valta	-8.10812
▁tul	-8.11027
▁illä	-8.11163
▁anne	-8.11301
itä	-8.11309
▁myö	-8.11346
▁aisu	-8.11408
▁ilpa	-8.11567
▁d	-8.11635
▁arha	-8.11971
▁istö	-8.12243
▁kesä	-8.12324
▁kirj	-8.12468
▁Tämä	-8.1248
▁sy	-8.12565
▁ässä	-8.12983
▁tule	-8.13089
▁pitää	-8.13398
▁pois	-8.13423
▁uoli	-8.13479
erto	-8.13509
är	-8.13577
▁ltä	-8.13611
▁pari	-8.13776
joh	-8.13829
▁tieto	-8.13829
▁lut	-8.14181
▁selv	-8.14244
▁milj	-8.14244
▁jotk	-8.14268
▁mon	-8.14518
▁uotta	-8.14944
▁ystä	-8.14975
▁minu	-8.15376
laaj	-8.15492
▁jonk	-8.15843
▁haas	-8.15932
▁altio	-8.16137
▁tö	-8.16217
▁matka	-8.16667
▁etty	-8.16857
iden	-8.17007
▁euroa	-8.17019
in	-8.17256
▁aali	-8.1729
▁kunta	-8.1741
▁use	-8.17698
▁ät	-8.17823
▁jatk	-8.17988
▁tiet	-8.18269
▁iiko	-8.18514
▁mar	-8.18647
▁mieh	-8.1903
▁uutta	-8.19139
▁ilmo	-8.19169
▁mene	-8.19259
▁suun	-8.19419
▁tor	-8.19449
▁ajan	-8.19499
▁yö	-8.19518
▁sesti	-8.19715
▁nee	-8.19721
▁kansa	-8.2026
asta	-8.20287
▁piste	-8.2074
▁koti	-8.2091
▁otte	-8.21244
ri	-8.21409
▁ttav	-8.21514
dän	-8.22092
▁uksi	-8.22122
▁ällä	-8.22474
▁iksi	-8.22512
▁000	-8.22669
▁ent	-8.22695
▁per	-8.23052
erä	-8.23119
▁enne	-8.23121
▁ttä	-8.23204
▁loppu	-8.23509
▁euro	-8.23522
▁ee	-8.23669
▁nuor	-8.24038
g	-8.24043
▁etaan	-8.24134
▁uuden	-8.24413
▁hyök	-8.24659
▁oja	-8.25035
▁neuvo	-8.25228
▁ikä	-8.25251
▁ilma	-8.25254
▁aste	-8.25254
▁iitt	-8.25318
▁sija	-8.2538
▁eikä	-8.25528
▁iikko	-8.2594
▁/	-8.26039
▁tti	-8.26139
▁elle	-8.26438
▁päät	-8.26467
▁av	-8.26896
▁pol	-8.26922
▁nno	-8.27024
▁etke	-8.27078
▁tuot	-8.2741
▁tavat	-8.27444
▁neljä	-8.27464
▁koke	-8.27567
▁vara	-8.27637
▁En	-8.2809
▁minen	-8.2827
▁ari	-8.28274
▁ussa	-8.28507
▁tämä	-8.28551
ko	-8.28714
▁perhe	-8.28757
▁empi	-8.2876
▁uun	-8.28785
▁ehdo	-8.28806
▁emmin	-8.29031
▁voima	-8.29355
▁keh	-8.29525
▁peli	-8.29532
▁odot	-8.29722
▁ntaj	-8.29748
▁ohje	-8.30145
▁elä	-8.30256
▁iihen	-8.30302
▁puhu	-8.30442
▁näh	-8.30478
▁yhde	-8.30914
▁Kun	-8.31068
▁usko	-8.31107
▁yt	-8.31163
▁ori	-8.31254
▁tui	-8.31272
▁hy	-8.31315
▁nti	-8.3136
▁kään	-8.31439
▁kov	-8.3147
▁ivat	-8.31482
▁ohj	-8.32021
▁uomio	-8.32125
▁uuti	-8.32747
▁re	-8.32926
▁er	-8.33094
▁eks	-8.33245
▁Ny	-8.33293
▁tuu	-8.33412
▁isi	-8.33623
▁tämän	-8.33817
▁ääne	-8.33979
▁uksia	-8.34147
▁mä	-8.34233
▁lisä	-8.34375
▁kolme	-8.34846
▁iesti	-8.34921
istu	-8.35036
▁op	-8.35215
▁ästi	-8.3549
▁ry	-8.35829
▁to	-8.36097
▁isää	-8.36125
▁saat	-8.36329
▁ru	-8.36761
▁kaan	-8.36857
iemm	-8.372
▁täj	-8.37217
▁aloi	-8.3727
▁taso	-8.37295
▁ala	-8.37414
▁pung	-8.37521
▁tunne	-8.37795
▁anta	-8.37923
▁eja	-8.37925
.	-8.38204
▁sisä	-8.38263
▁stö	-8.3828
▁kaa	-8.3841
ime	-8.38447
▁uolue	-8.38765
▁uotsi	-8.39169
▁etään	-8.39175
▁tulo	-8.39292
▁raj	-8.39325
st	-8.39506
▁sarja	-8.39571
▁Myö	-8.39607
▁tarv	-8.39627
▁halu	-8.39728
▁ij	-8.39823
▁erja	-8.40031
▁tum	-8.40117
▁aine	-8.40265
▁teke	-8.40504
▁vira	-8.40614
▁ttaa	-8.40803
▁almis	-8.41013
▁ist	-8.41058
▁suht	-8.41077
▁jä	-8.41752
▁muu	-8.42059
ähkö	-8.423
▁yys	-8.42317
▁ajo	-8.42365
▁oin	-8.4268
ar	-8.4301
arjo	-8.43017
▁huom	-8.43111
▁isiin	-8.43168
▁kyse	-8.43246
▁Stubb	-8.43325
▁staan	-8.43432
uan	-8.43582
▁nope	-8.43797
yy	-8.43824
▁myy	-8.43837
▁näkö	-8.43886
▁mite	-8.43935
▁antaa	-8.44091
iedo	-8.44752
▁estä	-8.44997
▁etta	-8.45377
▁puol	-8.45526
▁ettu	-8.45537
▁itään	-8.45666
▁eski	-8.45712
▁koht	-8.45777
▁hyvä	-8.45796
▁media	-8.45827
▁uro	-8.45831
ysty	-8.45864
▁ajat	-8.45876
▁ero	-8.46013
▁elok	-8.46104
▁Kuva	-8.46122
▁amis	-8.46188
▁amma	-8.46398
▁jout	-8.4648
▁c	-8.46741
▁ttam	-8.46768
▁Ch	-8.46791
▁tane	-8.46862
▁tse	-8.4706
▁ehti	-8.47275
▁ymp	-8.47303
▁aja	-8.47388
▁lain	-8.47929
▁entoi	-8.47987
▁Oulu	-8.48018
▁eseen	-8.48182
▁alku	-8.48197
▁astus	-8.48338
▁neen	-8.48387
▁aatio	-8.48477
▁eläm	-8.48489
▁ohta	-8.48584
▁tunti	-8.48622
▁vaal	-8.48669
▁ulje	-8.48747
▁Suomi	-8.48766
ivu	-8.49165
htiö	-8.49242
▁kisa	-8.49479
▁ing	-8.49655
▁eillä	-8.49701
▁kirja	-8.4996
atso	-8.5011
▁isä	-8.50134
iide	-8.50432
▁aiko	-8.50477
▁ut	-8.50592
ällä	-8.50632
▁aana	-8.50914
▁ilij	-8.51082
ku	-8.51154
ääk	-8.51201
telm	-8.51288
▁iivi	-8.51868
▁vaan	-8.51945
▁Salo	-8.52119
ikä	-8.5216
▁val	-8.52263
▁MM	-8.52347
▁ata	-8.52412
▁ri	-8.52759
▁ju	-8.52975
▁tty	-8.53185
▁ura	-8.53575
▁tään	-8.53612
▁essä	-8.53615
▁tunut	-8.53624
▁uosi	-8.53689
▁elk	-8.53793
▁utu	-8.53849
▁arjo	-8.53872
▁iera	-8.54075
aude	-8.54178
▁maali	-8.54217
▁juo	-8.54222
▁asian	-8.54227
▁video	-8.54494
gel	-8.54595
rael	-8.5467
▁iir	-8.54762
▁osal	-8.54887
▁ertaa	-8.55237
▁inna	-8.55549
▁nkaan	-8.55553
▁kasv	-8.55671
▁palk	-8.55753
▁aiva	-8.55754
▁lloi	-8.55947
▁teki	-8.56146
▁g	-8.56257
▁nte	-8.56322
▁ian	-8.56701
▁oimi	-8.56918
▁mään	-8.56972
yky	-8.57006
▁näky	-8.57063
▁nimi	-8.57102
▁erran	-8.5732
▁osoi	-8.57349
▁ratk	-8.57465
▁avu	-8.57539
▁päiv	-8.57616
▁uoksi	-8.57668
▁ahvi	-8.57726
▁kolm	-8.5779
▁sell	-8.57822
▁kö	-8.57857
▁Sano	-8.58006
▁ryhmä	-8.58101
ello	-8.58136
▁erä	-8.58247
▁art	-8.58258
▁pohj	-8.58587
▁tee	-8.58613
▁teen	-8.58729
▁iinni	-8.59011
▁Ei	-8.59097
et	-8.59106
▁ttöm	-8.59146
▁pien	-8.59239
▁taisi	-8.59242
▁aam	-8.59394
▁nttia	-8.59479
▁merk	-8.59658
▁ngin	-8.59698
▁atta	-8.59763
▁erkit	-8.59816
▁kilo	-8.60121
▁saada	-8.60242
▁ukana	-8.60306
▁uute	-8.60439
▁ymme	-8.6045
▁Pohj	-8.60599
▁tie	-8.60672
kä	-8.60674
▁ärje	-8.60712
▁tehdä	-8.60725
▁ästä	-8.61337
▁alka	-8.61471
▁onne	-8.6148
▁oinen	-8.61493
▁osu	-8.6156
mäis	-8.61677
▁riit	-8.61678
ähd	-8.61694
▁uode	-8.61732
▁yht	-8.61884
▁enää	-8.61962
▁puoli	-8.62674
▁pal	-8.62685
▁kor	-8.62692
▁aisi	-8.6273
▁yhd	-8.62744
▁unni	-8.62746
▁luv	-8.63157
öyty	-8.63184
z	-8.63485
▁illo	-8.63648
▁väit	-8.64178
▁kuu	-8.64261
▁vanh	-8.64447
ikko	-8.64587
▁eissa	-8.64695
▁nan	-8.64707
▁alo	-8.64735
▁siin	-8.64786
▁vie	-8.64833
▁kiso	-8.65143
▁ic	-8.65232
▁kohta	-8.65444
alai	-8.65462
▁pitä	-8.65744
tees	-8.6583
▁läht	-8.65857
▁osi	-8.65972
▁mpi	-8.65978
▁leik	-8.6667
▁telee	-8.67199
▁omis	-8.67401
▁yle	-8.67447
▁kseen	-8.67562
▁synty	-8.67567
▁ter	-8.67674
▁mäis	-8.67721
▁de	-8.6773
▁äis	-8.67889
▁otta	-8.68098
▁leet	-8.681
▁uste	-8.68137
▁jop	-8.68434
▁anni	-8.68488
▁akko	-8.6853
▁vaara	-8.68556
▁juur	-8.68566
▁ope	-8.68569
▁aamu	-8.68653
▁anska	-8.68821
▁suora	-8.68898
▁yde	-8.68938
äine	-8.68948
▁up	-8.68997
▁koh	-8.69056
▁sää	-8.6939
▁sä	-8.69518
▁uoma	-8.69613
▁!	-8.70103
▁ulki	-8.70136
▁uhka	-8.70259
ttav	-8.70421
▁kent	-8.70545
▁ojen	-8.70548
▁aikaa	-8.70574
▁asio	-8.70635
▁ssaan	-8.70643
▁ik	-8.71146
▁muis	-8.71173
▁ejä	-8.71377
▁teli	-8.71447
▁olo	-8.71495
▁ntää	-8.71591
▁jatku	-8.71624
▁niem	-8.71677
iheu	-8.7178
▁iellä	-8.7185
▁mus	-8.71922
▁enti	-8.72428
▁ika	-8.72509
tä	-8.72605
▁laaj	-8.72651
▁ehtä	-8.72691
ta	-8.7277
▁tuom	-8.72811
▁Sen	-8.72953
▁uraa	-8.7315
▁jäi	-8.73195
▁siir	-8.73513
▁tely	-8.73533
▁ttee	-8.73714
▁omi	-8.74108
▁tasa	-8.74163
▁unnu	-8.74446
aino	-8.74592
▁työn	-8.74724
ahde	-8.7497
▁inä	-8.74984
autu	-8.75059
▁iedot	-8.75113
▁aita	-8.75151
▁ttom	-8.75183
▁ov	-8.75202
▁ttäin	-8.75362
▁ensa	-8.75483
▁nni	-8.75551
▁liit	-8.75569
▁äällä	-8.75657
▁iseen	-8.75723
▁elvi	-8.75744
▁kone	-8.75902
▁Al	-8.76136
▁yyd	-8.76307
▁es	-8.76411
▁jät	-8.76427
▁nnan	-8.76514
▁elli	-8.76706
▁emaan	-8.76867
▁dään	-8.77082
▁iekk	-8.77423
▁öy	-8.77578
▁kois	-8.77666
▁rin	-8.77685
▁Häne	-8.77792
▁nous	-8.77825
▁kuit	-8.77859
▁vähän	-8.77874
joit	-8.7791
▁EU	-8.77988
▁tässä	-8.78205
▁vä	-8.78471
tty	-8.78686
▁eille	-8.78802
▁ky	-8.78816
▁uori	-8.78821
▁tied	-8.789
▁sin	-8.79208
irjo	-8.79253
on	-8.79315
▁oima	-8.79384
▁ntä	-8.79386
▁imm	-8.79514
▁van	-8.79621
▁ntaa	-8.79639
▁lask	-8.79739
▁anto	-8.79759
▁vall	-8.79785
▁ensä	-8.79836
▁Mar	-8.79876
▁rauha	-8.79919
▁kuul	-8.79932
▁rist	-8.79975
▁oki	-8.80067
▁iltä	-8.80131
uden	-8.80199
▁On	-8.80213
▁kohd	-8.80303
▁mise	-8.80352
▁täne	-8.80419
▁tak	-8.80548
▁ena	-8.80584
▁Kal	-8.80617
▁toivo	-8.80622
▁ön	-8.80922
▁iitto	-8.80989
▁naan	-8.81167
▁ort	-8.81205
▁sosi	-8.81267
▁autta	-8.81403
▁oitto	-8.8147
▁lapsi	-8.81515
▁aal	-8.81661
▁iito	-8.81932
ykse	-8.81935
uks	-8.81958
▁emm	-8.82006
▁telu	-8.82006
▁läh	-8.82076
▁alja	-8.82172
▁amaan	-8.82188
▁dessa	-8.82659
▁tajan	-8.82724
▁kamp	-8.82802
▁kysy	-8.82832
▁apu	-8.82879
▁uuka	-8.83191
▁ur	-8.83317
▁han	-8.83567
▁Näi	-8.8357
▁isku	-8.8381
▁lähti	-8.83896
issä	-8.83903
▁aihe	-8.83986
▁oiva	-8.84394
▁ote	-8.84405
▁tosi	-8.8455
▁nii	-8.8483
▁ikos	-8.85005
▁Val	-8.85141
▁laan	-8.85332
▁Ole	-8.85403
▁ehde	-8.85474
▁alkoi	-8.85614
▁iele	-8.85662
▁tettu	-8.85711
tel	-8.85713
▁ampu	-8.85826
▁Yle	-8.8589
▁ravi	-8.86121
▁uutt	-8.86423
▁olen	-8.86724
ymy	-8.8703
uude	-8.87033
▁isin	-8.8715
▁tähti	-8.87235
▁Ja	-8.87506
▁ilman	-8.87739
▁isti	-8.87885
▁etri	-8.87926
▁lehd	-8.87939
▁ed	-8.88064
aine	-8.88133
▁hoito	-8.88151
▁Z	-8.88164
▁änsä	-8.88318
▁meri	-8.88356
▁rask	-8.88521
▁tune	-8.88553
▁lento	-8.88592
▁tain	-8.88635
▁nnus	-8.88765
▁eita	-8.88854
▁punki	-8.88895
▁raha	-8.8891
▁kaik	-8.88936
▁aikea	-8.89153
tiik	-8.8928
c	-8.89453
▁alu	-8.89465
▁kiel	-8.89516
▁pela	-8.89522
▁ahde	-8.89657
▁äri	-8.89739
▁maksa	-8.89744
▁tävät	-8.89759
▁raala	-8.90089
▁ttel	-8.90208
▁einä	-8.90218
▁ukset	-8.90264
▁takia	-8.90346
▁nnö	-8.90395
▁syö	-8.90627
▁sota	-8.9079
▁enna	-8.91307
kin	-8.91372
▁vero	-8.91441
▁llaan	-8.91454
▁sson	-8.91497
▁maal	-8.91673
▁hyv	-8.91674
▁mai	-8.91681
▁nna	-8.91702
▁sarj	-8.91751
▁saap	-8.91762
naal	-8.91766
▁uor	-8.92034
▁seen	-8.92084
▁uu	-8.92114
▁teko	-8.92276
erve	-8.92365
▁man	-8.92395
▁uot	-8.924
▁sal	-8.92452
ttom	-8.92865
▁una	-8.92883
▁yvä	-8.93146
▁änä	-8.93265
▁kes	-8.93337
▁eg	-8.93353
otil	-8.93354
▁aisia	-8.93377
▁teriö	-8.93432
▁lan	-8.93556
▁tele	-8.93573
▁ruoka	-8.9367
▁ittaa	-8.93751
▁liiga	-8.93813
▁täll	-8.93907
▁ätä	-8.93987
ysy	-8.94085
▁kaup	-8.94165
▁X	-8.94173
▁ymmä	-8.94183
▁tys	-8.942
▁Sam	-8.94306
▁palo	-8.94353
▁töks	-8.94478
▁oissa	-8.9458
▁pallo	-8.94711
▁etu	-8.94712
▁oitti	-8.94818
▁akt	-8.95135
▁ussi	-8.95159
HL	-8.95388
▁väki	-8.95422
inka	-8.95625
▁aista	-8.95688
ää	-8.9573
ide	-8.95743
ärke	-8.95932
▁lma	-8.96005
▁laps	-8.96109
▁häi	-8.96159
▁ast	-8.96171
tuks	-8.96455
▁da	-8.96581
▁hake	-8.96688
▁vaali	-8.96757
▁ston	-8.96942
▁oona	-8.97034
▁tah	-8.97126
▁enä	-8.97154
▁avat	-8.97349
▁ng	-8.974
▁aut	-8.97442
lymp	-8.97459
sk	-8.97509
▁lai	-8.97847
▁ieltä	-8.9787
00	-8.97932
nväl	-8.97939
▁Biden	-8.97979
▁laki	-8.98026
▁tomu	-8.98055
▁meni	-8.98082
▁auta	-8.9824
▁daan	-8.98482
▁oita	-8.98495
▁eä	-8.9856
▁ieman	-8.98748
vel	-8.98788
▁mieli	-8.98892
▁malli	-8.98943
▁oonaa	-8.98986
anna	-8.99021
▁sivat	-8.99251
▁nnä	-8.99256
▁attu	-8.9929
▁huol	-8.99338
▁atku	-8.99396
▁iili	-8.99485
▁kuulu	-8.99555
▁Saksa	-8.99803
▁yty	-8.99914
▁yytä	-9.00219
▁siis	-9.00239
▁nos	-9.00275
ilpa	-9.00318
ew	-9.0032
▁pyör	-9.00373
▁ete	-9.00425
▁näin	-9.00482
▁ker	-9.00598
▁jäsen	-9.00613
▁anen	-9.00762
▁ang	-9.00873
▁IS	-9.0088
▁huono	-9.01135
▁halua	-9.01262
▁jakso	-9.01456
▁aati	-9.01476
▁kul	-9.01503
▁järv	-9.01544
▁äätös	-9.0157
▁aatu	-9.01687
▁unta	-9.01739
▁ttäj	-9.01825
▁kuoli	-9.01879
▁näke	-9.02138
▁iehen	-9.02157
▁help	-9.02209
▁ellä	-9.02306
▁otti	-9.02337
▁tivat	-9.02423
▁äysin	-9.02455
▁kon	-9.02538
▁oista	-9.02563
▁Nii	-9.02667
▁ara	-9.02682
▁taas	-9.02701
▁juhl	-9.02751
▁alli	-9.02871
▁atti	-9.0305
avai	-9.03362
▁yhä	-9.03436
▁koro	-9.0359
▁leen	-9.0361
yllä	-9.03631
uksi	-9.037
▁ake	-9.03815
▁uippu	-9.04008
▁tais	-9.04105
▁agram	-9.04181
▁kier	-9.0434
▁elämä	-9.04356
tta	-9.04395
sime	-9.04397
▁inta	-9.04414
▁und	-9.04476
▁arki	-9.04591
rpo	-9.04755
▁ttelu	-9.04765
ja	-9.04959
▁heti	-9.04972
▁yvin	-9.04976
▁yn	-9.04982
▁onni	-9.05
ut	-9.05014
ikke	-9.05023
▁iikk	-9.05031
▁son	-9.05242
▁niitä	-9.05262
▁arja	-9.05273
▁äit	-9.05346
▁nnyt	-9.05424
▁pid	-9.05431
▁kutsu	-9.05506
or	-9.05609
▁ander	-9.05792
▁vesi	-9.05961
▁asema	-9.06021
▁toim	-9.06038
▁os	-9.06096
▁vapaa	-9.06444
▁oikk	-9.06545
▁kävi	-9.06641
▁tsee	-9.06681
▁appa	-9.06882
evää	-9.06894
▁anki	-9.06981
▁eista	-9.07089
▁änään	-9.07124
▁dä	-9.07209
▁He	-9.07226
▁onta	-9.07262
▁In	-9.07293
▁iikon	-9.0737
▁ointi	-9.07426
▁pääse	-9.07438
▁Tuo	-9.0745
▁joita	-9.07458
▁äräj	-9.07493
▁häntä	-9.07619
▁oll	-9.07637
▁älle	-9.07752
▁herä	-9.07829
▁ard	-9.07847
▁uvai	-9.07862
aati	-9.07875
eski	-9.08023
▁auton	-9.08154
▁vah	-9.08177
ien	-9.08202
▁illi	-9.08228
▁ani	-9.08302
▁orva	-9.08634
akav	-9.08809
▁seks	-9.0884
▁allo	-9.08848
▁massa	-9.08854
▁alkaa	-9.08929
▁urk	-9.08953
änä	-9.09002
▁kuv	-9.09039
▁pääs	-9.09082
▁ilme	-9.09133
▁iini	-9.09203
▁ksen	-9.09433
▁ulok	-9.09485
▁tkaa	-9.09552
▁ev	-9.09703
▁mitt	-9.09796
▁luku	-9.0981
▁Ä	-9.09871
▁piti	-9.09887
▁Yks	-9.09987
▁olm	-9.10085
▁peri	-9.10094
▁ulis	-9.10121
▁ime	-9.10221
▁uoj	-9.10322
▁kai	-9.10325
▁yttä	-9.10348
▁eihin	-9.1068
▁jouk	-9.10731
▁pääsi	-9.10742
▁lään	-9.11067
▁muka	-9.1107
▁mmin	-9.11077
▁utki	-9.11137
▁ente	-9.11185
▁lö	-9.11323
▁venä	-9.11356
▁tio	-9.11377
▁alis	-9.1146
▁elin	-9.11554
▁+	-9.11557
▁lin	-9.11611
aust	-9.11622
▁orke	-9.11671
▁np	-9.11693
▁tun	-9.11775
▁apa	-9.11871
▁aise	-9.11967
▁ami	-9.12008
▁hinta	-9.12082
▁du	-9.1217
unni	-9.12241
▁tulla	-9.12291
▁taka	-9.12495
▁joulu	-9.12623
▁ide	-9.12627
▁ukka	-9.12827
▁ääri	-9.12833
▁rveys	-9.12837
▁iiga	-9.13005
▁pala	-9.13014
▁äästä	-9.13078
▁ttuna	-9.13228
▁luke	-9.13236
▁väl	-9.1325
▁läpi	-9.13326
▁nousi	-9.13439
▁inte	-9.13491
▁tuksi	-9.13508
aikk	-9.13517
▁jalka	-9.13546
▁nnas	-9.13573
▁auri	-9.13579
äil	-9.13815
▁pieni	-9.13902
per	-9.13903
▁lä	-9.13953
▁imma	-9.13975
▁laji	-9.14043
▁tuma	-9.14171
▁io	-9.14278
▁20	-9.14366
▁yhden	-9.14716
ind	-9.14761
ch	-9.14803
▁iuk	-9.14823
▁inno	-9.14942
ävi	-9.14951
▁astuu	-9.14967
▁kko	-9.15106
▁lupa	-9.15168
▁olme	-9.15245
▁tek	-9.1531
▁tuki	-9.15584
▁syksy	-9.16052
▁annut	-9.16057
kku	-9.16151
ur	-9.162
▁ver	-9.16601
▁vir	-9.16774
tu	-9.16799
▁uk	-9.16864
▁aid	-9.17051
▁ar	-9.1706
▁uha	-9.17177
▁ennä	-9.17225
▁pide	-9.17237
▁soit	-9.17443
suud	-9.17527
▁uoll	-9.17584
unto	-9.17597
▁anssi	-9.17602
▁riko	-9.17639
▁löyt	-9.17654
▁ain	-9.17659
▁em	-9.177
▁ton	-9.17766
▁ano	-9.17833
ude	-9.17912
▁ola	-9.17919
▁silm	-9.17956
▁jala	-9.17979
ro	-9.17994
▁sama	-9.18267
▁aton	-9.1829
▁ilo	-9.18292
▁iina	-9.18355
elä	-9.18396
▁mur	-9.18685
▁llään	-9.18783
▁nneet	-9.18814
▁sty	-9.18827
▁äte	-9.18899
oid	-9.18972
▁asva	-9.19118
▁atso	-9.19135
▁auppa	-9.19364
▁aist	-9.19374
▁nny	-9.19397
▁uisto	-9.19474
▁hoit	-9.1949
▁eistä	-9.19584
▁ua	-9.19837
▁kulut	-9.19985
▁hin	-9.20061
edus	-9.2017
▁valt	-9.20172
▁urr	-9.20207
▁tili	-9.20348
▁vei	-9.20349
▁aka	-9.20356
▁änsi	-9.20378
aike	-9.20386
▁tseva	-9.20387
▁väks	-9.20457
▁ttain	-9.20511
▁viis	-9.20519
eng	-9.20532
▁korj	-9.20572
▁tätä	-9.20593
ka	-9.20606
aar	-9.20806
▁viit	-9.20808
▁aar	-9.20841
▁itti	-9.20858
pa	-9.20871
▁kat	-9.21028
▁irv	-9.21041
▁vai	-9.21098
▁aivo	-9.21115
▁uunta	-9.21222
ysä	-9.21263
▁ama	-9.21371
▁otea	-9.21548
ämpö	-9.21621
▁ottaa	-9.21626
▁gia	-9.21655
▁tsi	-9.21711
▁ulos	-9.21757
▁anke	-9.21873
▁voim	-9.21999
ääll	-9.22057
▁oilla	-9.22091
▁uhri	-9.2211
▁avoi	-9.22114
▁määr	-9.22146
▁iih	-9.22224
▁heit	-9.22377
alli	-9.22467
▁aahan	-9.22477
▁uonn	-9.2248
▁elmi	-9.2252
▁umma	-9.22528
▁do	-9.22606
▁eitä	-9.2267
▁aset	-9.22771
▁Mie	-9.22795
▁ohdi	-9.22797
▁anj	-9.2282
▁poika	-9.22943
▁ältä	-9.23117
▁Ete	-9.23154
▁ansi	-9.23214
▁olog	-9.23251
iih	-9.23346
▁aari	-9.23372
lä	-9.23407
▁hänet	-9.2344
▁autu	-9.23506
▁murha	-9.23568
▁yh	-9.23574
▁aisin	-9.23665
▁vier	-9.2368
▁Antt	-9.23776
▁ttaja	-9.23883
▁uok	-9.2394
inno	-9.23951
▁lope	-9.24061
▁arl	-9.24114
▁elen	-9.24186
▁rad	-9.24197
rsin	-9.24226
▁kka	-9.24241
▁Vil	-9.24334
▁sodan	-9.24344
▁'	-9.24387
▁berg	-9.24394
▁eijo	-9.24398
▁Rova	-9.24549
▁ohi	-9.24611
▁aav	-9.24651
▁hank	-9.24744
▁metsä	-9.24748
▁sky	-9.24827
koks	-9.24846
▁oman	-9.2485
▁otain	-9.24907
▁uurin	-9.24932
▁oukko	-9.24939
▁Kor	-9.25028
▁aki	-9.25043
▁tehty	-9.25153
▁ouko	-9.25273
▁äys	-9.25294
▁atu	-9.25364
▁aha	-9.25439
▁ijaan	-9.25551
S	-9.2558
▁varm	-9.25612
▁imo	-9.25623
elij	-9.257
▁aku	-9.25781
▁liia	-9.25889
▁äivän	-9.25941
hr	-9.26008
▁eteen	-9.26119
usta	-9.2631
▁lad	-9.26375
▁ude	-9.26398
▁eikk	-9.26405
▁Yl	-9.26497
▁Min	-9.267
▁liike	-9.26704
▁muita	-9.26779
siik	-9.2679
▁inko	-9.26793
▁etsi	-9.26879
▁yky	-9.26909
▁dy	-9.26995
▁täyt	-9.27015
▁erkko	-9.27023
▁koho	-9.27071
▁äy	-9.27244
▁ahti	-9.27263
▁auk	-9.27386
▁levi	-9.27432
▁nsi	-9.27549
▁tori	-9.27627
▁viet	-9.27676
▁altu	-9.27678
▁and	-9.27854
▁uoto	-9.27908
▁hyö	-9.28059
orm	-9.28312
▁mmä	-9.28325
▁jäll	-9.28334
semm	-9.28522
▁oitt	-9.28591
▁ainoa	-9.28672
▁elko	-9.28686
▁est	-9.28712
▁mink	-9.28788
▁ivät	-9.28926
▁lähtö	-9.2894
oi	-9.29005
▁ajoi	-9.29033
▁arra	-9.29115
▁ly	-9.29131
▁sten	-9.29134
▁heik	-9.29154
A	-9.29238
tell	-9.29245
▁nost	-9.29326
▁ihme	-9.29344
antu	-9.29349
nnö	-9.29412
▁ääni	-9.29495
▁lah	-9.29557
▁nssi	-9.29658
▁mill	-9.29689
▁usei	-9.29834
▁uud	-9.29835
▁kylä	-9.30003
▁yr	-9.30163
▁idät	-9.30268
▁10	-9.30281
▁ste	-9.30298
▁mäki	-9.30311
▁utin	-9.30314
▁tuh	-9.30333
▁allan	-9.30553
▁ras	-9.30563
▁stu	-9.30592
▁maksu	-9.30704
▁tto	-9.30706
▁lik	-9.3075
▁ovi	-9.30759
▁teho	-9.30783
▁tähän	-9.3079
▁eisö	-9.30981
▁sina	-9.31016
▁arris	-9.3105
▁äyttö	-9.31086
▁alus	-9.31246
▁kärs	-9.31366
▁piir	-9.31473
▁yse	-9.31483
▁ell	-9.31611
▁rooli	-9.31692
▁Kiina	-9.3174
▁Var	-9.31753
ymme	-9.31797
▁osk	-9.31942
▁etriä	-9.32063
▁aira	-9.32177
▁ac	-9.32307
▁öl	-9.32582
▁suku	-9.32586
▁aju	-9.32613
▁myötä	-9.32672
▁julki	-9.32679
▁loka	-9.32687
▁onald	-9.32882
▁omm	-9.32903
▁paras	-9.32914
▁asi	-9.32951
▁emme	-9.32963
äyty	-9.32983
▁ord	-9.3313
▁Ru	-9.33278
▁ap	-9.33341
evo	-9.33445
▁lauk	-9.33478
▁raat	-9.335
▁rof	-9.33587
▁ho	-9.33604
aav	-9.33667
▁oo	-9.33696
ekij	-9.33778
▁ilun	-9.3378
▁demo	-9.33847
▁ro	-9.34012
▁The	-9.34039
▁ida	-9.342
▁alous	-9.34211
oj	-9.34271
▁tekee	-9.34294
▁ilija	-9.34317
▁udo	-9.34385
▁oski	-9.34393
▁main	-9.34398
▁eet	-9.344
▁kuol	-9.34591
uist	-9.34621
▁linja	-9.34658
▁appio	-9.34698
arpe	-9.3475
▁Lu	-9.34789
▁oide	-9.3488
▁tivät	-9.3491
▁Nato	-9.34962
▁ruu	-9.34964
▁aistu	-9.34978
▁ankki	-9.35027
▁hilj	-9.35169
täis	-9.3526
▁aluaa	-9.35292
▁vel	-9.35302
▁koulu	-9.35358
▁rttu	-9.35365
▁hel	-9.35385
▁oihin	-9.35458
▁usi	-9.35484
▁äv	-9.35527
▁eissä	-9.35646
▁edel	-9.35728
▁keino	-9.35816
▁vahv	-9.35911
▁irt	-9.36002
▁uuluu	-9.36083
▁lyt	-9.36122
▁ail	-9.36177
▁oitus	-9.36205
auh	-9.36226
▁änne	-9.36299
▁or	-9.36328
ning	-9.36376
aajo	-9.36522
▁eng	-9.3654
▁vähe	-9.36608
▁äälle	-9.36632
▁aulu	-9.36729
ad	-9.36772
▁kats	-9.36787
▁harv	-9.37281
▁ntola	-9.37306
▁Norja	-9.37363
▁väh	-9.37471
▁riski	-9.37588
▁siv	-9.37595
▁tuke	-9.37697
▁kaap	-9.37723
yrki	-9.3796
▁uhd	-9.38048
▁ennus	-9.38106
▁yyttä	-9.38214
▁läis	-9.38225
▁suosi	-9.38265
▁äli	-9.38291
▁EM	-9.38321
▁uksen	-9.38352
▁kas	-9.38366
▁ove	-9.38369
▁tr	-9.38381
▁ammi	-9.384
udu	-9.38405
▁elta	-9.38498
kkö	-9.38504
▁usu	-9.38527
ag	-9.38528
ore	-9.38542
▁Kar	-9.38602
pp	-9.38699
ippu	-9.38787
est	-9.38794
▁erta	-9.3889
ter	-9.39047
▁ikään	-9.39054
▁kar	-9.39057
▁tua	-9.39134
▁ab	-9.39168
lex	-9.39183
tuur	-9.39195
▁päin	-9.39228
▁aani	-9.394
▁henki	-9.39437
▁valo	-9.39535
I	-9.39565
▁aak	-9.39607
▁vaimo	-9.39678
enne	-9.39766
▁w	-9.39912
▁onen	-9.40184
▁enno	-9.40202
▁tetty	-9.40258
▁oulut	-9.40473
▁uhti	-9.40487
▁iet	-9.40526
▁kerta	-9.4067
▁uiden	-9.40679
kel	-9.40823
▁koto	-9.40848
▁laul	-9.40903
▁ova	-9.41048
▁kir	-9.41053
▁joll	-9.41066
▁lehti	-9.41079
▁uist	-9.41191
ser	-9.41313
▁äksi	-9.41382
▁oir	-9.41513
▁suu	-9.41535
▁tulos	-9.41603
▁adu	-9.41736
oteu	-9.41797
▁anut	-9.41943
▁ajaa	-9.42014
▁tästä	-9.42164
▁ntam	-9.42206
▁Til	-9.42232
▁empaa	-9.42295
▁kausi	-9.42478
▁kasvu	-9.42513
atte	-9.42548
▁udu	-9.42602
▁Pekka	-9.4263
▁hti	-9.42692
erra	-9.43004
▁tävä	-9.43006
▁vede	-9.43102
▁työtä	-9.43129
▁lasku	-9.43412
▁Har	-9.43416
▁vän	-9.43433
äll	-9.43441
▁ohu	-9.43496
▁osto	-9.43525
▁hien	-9.43542
▁dio	-9.43569
▁iki	-9.43619
ig	-9.4379
▁ingo	-9.43873
ome	-9.43916
▁tuho	-9.43975
▁runs	-9.44019
▁alko	-9.44046
▁SM	-9.44078
▁para	-9.44125
▁öi	-9.44249
▁ilmi	-9.44345
▁utk	-9.44418
▁iik	-9.44479
▁paine	-9.44548
lopp	-9.44578
▁tut	-9.44648
▁ylä	-9.44703
apau	-9.44842
▁rom	-9.44861
▁masti	-9.44873
▁hj	-9.44943
▁otesi	-9.45042
avut	-9.4516
▁uaal	-9.45188
▁akse	-9.45214
▁kee	-9.45226
▁avio	-9.45251
▁uuli	-9.45263
▁tävän	-9.45447
▁poh	-9.45523
▁uuks	-9.45582
▁elo	-9.45586
▁Halli	-9.45589
ilo	-9.45658
▁ttava	-9.4567
▁meno	-9.45715
▁kulu	-9.45723
▁orm	-9.46007
▁naur	-9.46108
▁ikko	-9.4622
▁inti	-9.46249
▁vanha	-9.46314
▁ehdot	-9.46387
▁illis	-9.46486
▁nko	-9.46505
▁aza	-9.4664
▁rit	-9.46753
▁mere	-9.46853
▁arla	-9.46882
▁tait	-9.46895
eide	-9.46945
▁30	-9.47002
▁Ko	-9.47034
▁isen	-9.47078
han	-9.47172
▁ark	-9.47304
▁otsa	-9.47348
▁äiv	-9.47367
▁huum	-9.47482
▁Eur	-9.47518
yysk	-9.47619
▁tusta	-9.47661
pit	-9.47664
▁ietti	-9.47729
alvo	-9.47748
▁virhe	-9.47787
▁kkin	-9.47797
▁oppi	-9.47882
▁uutos	-9.47959
▁mui	-9.48054
▁järk	-9.48062
hden	-9.48085
▁täys	-9.4819
▁irj	-9.48253
▁iikka	-9.4831
▁opis	-9.48366
▁juhla	-9.48443
x	-9.48478
▁sku	-9.48504
▁kork	-9.48518
▁id	-9.48519
▁je	-9.48605
▁pääty	-9.48641
▁di	-9.48725
▁imme	-9.48765
▁olle	-9.48882
▁arkk	-9.4901
▁kok	-9.49048
▁uto	-9.49183
▁irta	-9.49237
hemm	-9.49243
▁urna	-9.49269
▁Kansa	-9.49318
▁okse	-9.49404
ho	-9.49434
▁ksu	-9.49493
▁uoro	-9.49536
▁löy	-9.4959
▁asiaa	-9.49662
▁iitä	-9.49851
▁ad	-9.49882
▁utta	-9.49914
▁ress	-9.49949
▁adio	-9.49955
▁ado	-9.50006
▁paho	-9.50047
▁yksiä	-9.50053
▁eor	-9.50175
▁Tap	-9.50219
lev	-9.50223
▁esken	-9.50254
▁urj	-9.50292
▁isia	-9.5034
yyp	-9.50406
▁nnis	-9.50429
▁veto	-9.50437
lier	-9.50438
▁pro	-9.50543
▁kää	-9.50555
▁tunnu	-9.50632
▁äät	-9.5064
▁asem	-9.50641
äytö	-9.50712
▁ota	-9.50728
▁ssään	-9.5073
▁inne	-9.5074
▁koira	-9.50753
▁ikkö	-9.50885
▁aho	-9.50956
▁sul	-9.51015
▁pakk	-9.51048
umpp	-9.51292
▁oiv	-9.51331
▁törk	-9.51417
▁of	-9.51472
▁tavan	-9.51523
▁tyy	-9.51575
▁torj	-9.51604
▁mita	-9.51611
▁sia	-9.51691
hkä	-9.51707
▁virk	-9.51727
▁evy	-9.51877
▁otiin	-9.52092
▁omaa	-9.52172
▁ant	-9.52207
▁akas	-9.52216
▁iset	-9.5222
▁aad	-9.52269
▁lor	-9.5228
▁ovin	-9.52349
▁akana	-9.52473
▁aiken	-9.52559
▁uri	-9.52564
▁eessa	-9.52588
▁loma	-9.52647
▁ekijä	-9.52738
▁muuta	-9.52755
▁ob	-9.52766
▁mennä	-9.52794
▁oille	-9.52796
▁end	-9.52818
▁ile	-9.52833
arsi	-9.52846
▁täyd	-9.5291
▁teo	-9.52969
▁ich	-9.53026
▁eal	-9.53058
▁eva	-9.53069
▁uum	-9.53276
stor	-9.53364
▁ert	-9.53379
▁od	-9.53513
yö	-9.53518
eli	-9.53526
▁uper	-9.53595
▁aim	-9.53784
1	-9.53956
▁sana	-9.53973
▁entu	-9.53982
w	-9.53993
▁iiv	-9.54035
▁oitu	-9.54044
▁uku	-9.5411
laut	-9.54118
▁rssi	-9.54128
▁kap	-9.5413
C	-9.54188
▁ehto	-9.54303
▁ele	-9.54306
her	-9.54343
▁ilv	-9.54366
▁anno	-9.54449
▁silti	-9.54633
▁enny	-9.54663
▁luki	-9.54704
▁suoj	-9.54807
▁stään	-9.54886
▁oti	-9.54982
kar	-9.55076
▁ria	-9.55104
▁anti	-9.55281
▁ener	-9.55466
▁Asi	-9.55475
▁otil	-9.5548
▁log	-9.55535
▁alas	-9.55556
▁osta	-9.55605
▁uut	-9.55718
▁reil	-9.55726
▁mpä	-9.55804
▁oehto	-9.55838
▁ämä	-9.55888
▁oy	-9.5592
äänt	-9.55941
mper	-9.55948
▁myr	-9.55985
▁org	-9.56201
▁iisu	-9.56259
E	-9.56262
▁ksiä	-9.56365
▁arka	-9.56369
▁änen	-9.56408
▁miksi	-9.56466
▁ietoa	-9.56642
▁rmä	-9.56644
▁Sal	-9.56722
▁vih	-9.56775
▁50	-9.56786
▁töön	-9.56835
▁ah	-9.56852
▁uni	-9.56854
▁eera	-9.56859
▁yör	-9.56894
▁otto	-9.56944
▁ran	-9.57
▁ork	-9.57008
uluv	-9.57101
▁jätti	-9.57209
▁mistä	-9.57227
kert	-9.57259
▁dolla	-9.5728
P	-9.57311
▁sate	-9.57386
4	-9.57432
▁elu	-9.57452
▁umm	-9.57565
▁ntti	-9.57626
▁eutu	-9.57669
▁imi	-9.57689
▁TV	-9.57773
▁elij	-9.57888
▁ähte	-9.57966
▁tyä	-9.57994
▁Bri	-9.58016
▁sk	-9.58119
▁tte	-9.58199
▁15	-9.58237
▁akka	-9.58243
▁nder	-9.58362
elit	-9.58403
▁tuttu	-9.58428
▁impi	-9.58661
▁ib	-9.58784
kuis	-9.58815
▁suh	-9.58816
▁ppi	-9.59057
liok	-9.59175
amm	-9.59302
▁nap	-9.59305
▁ksia	-9.59373
▁talli	-9.5944
▁kanta	-9.59572
attu	-9.59638
▁sala	-9.59638
▁tiedä	-9.59655
▁ydi	-9.59859
▁rep	-9.59874
▁ius	-9.59933
T	-9.6005
oukk	-9.60067
▁liha	-9.60125
▁äivä	-9.6026
▁stus	-9.60413
▁z	-9.60508
▁esiin	-9.60606
▁dell	-9.607
▁ukea	-9.60743
▁ääk	-9.60835
▁mia	-9.60876
▁täisi	-9.60957
▁är	-9.61125
▁hon	-9.61195
yttö	-9.61272
and	-9.61277
▁Oli	-9.6131
▁näi	-9.61336
sta	-9.61434
D	-9.61438
M	-9.61606
ah	-9.61611
▁ess	-9.61621
▁sov	-9.61689
▁eikka	-9.6173
▁ome	-9.61816
▁ntin	-9.61855
▁elasi	-9.61935
▁naa	-9.61978
▁vaihe	-9.62064
▁ehot	-9.62071
▁armaa	-9.62071
▁Osa	-9.62163
▁ksan	-9.62215
▁ärkeä	-9.62223
▁apsen	-9.62259
▁ehk	-9.6226
▁ärki	-9.62285
▁kkä	-9.62336
▁ub	-9.62362
▁ääjä	-9.62425
▁tok	-9.62556
▁uone	-9.62599
▁tön	-9.6266
R	-9.62666
▁öm	-9.62683
▁sio	-9.62778
▁juttu	-9.62807
▁lau	-9.63059
▁äyt	-9.63243
▁olem	-9.63274
▁Putin	-9.63277
▁akot	-9.63326
▁hetki	-9.63507
rit	-9.63722
▁avo	-9.63726
▁aito	-9.63767
▁annu	-9.63917
▁ean	-9.63953
K	-9.64056
▁yksen	-9.64058
▁ali	-9.6409
ääst	-9.64119
▁uuk	-9.64458
▁ataan	-9.64475
▁uodo	-9.645
▁ito	-9.64524
▁eett	-9.64617
▁isuus	-9.6464
omai	-9.64675
▁ers	-9.64758
tam	-9.64905
▁kiis	-9.64968
▁ex	-9.64981
▁eikki	-9.65094
▁huone	-9.65196
▁mero	-9.65204
▁odi	-9.6524
aist	-9.65277
▁äline	-9.65337
▁tyks	-9.6541
▁äivi	-9.65477
▁ilj	-9.65491
▁edu	-9.65607
mis	-9.6562
▁kaat	-9.65669
▁inu	-9.6569
▁raho	-9.65909
▁ili	-9.66028
▁kato	-9.66045
▁mmi	-9.66057
▁äinen	-9.66108
▁tuv	-9.66159
äjä	-9.66175
▁eb	-9.66296
▁urma	-9.66394
▁ket	-9.66495
▁iim	-9.6651
▁anc	-9.66554
oko	-9.66556
▁armi	-9.66579
▁ideo	-9.66593
▁äytyy	-9.66749
▁pian	-9.66817
▁amin	-9.67013
▁aatti	-9.67051
▁isio	-9.67098
▁rek	-9.67113
▁ausi	-9.67221
▁mo	-9.67248
▁kkai	-9.67332
▁koe	-9.67353
▁teja	-9.67401
▁Ver	-9.67501
▁esä	-9.67513
▁tilan	-9.67548
▁louk	-9.67608
▁uima	-9.67692
▁stel	-9.67693
▁land	-9.67758
▁set	-9.67864
▁loh	-9.67943
▁nteen	-9.67978
▁tussa	-9.67998
▁ors	-9.6814
▁por	-9.68157
▁teet	-9.68189
▁ahta	-9.68192
▁aiem	-9.68607
▁ep	-9.69066
▁metr	-9.69106
▁piiri	-9.69172
▁ulk	-9.69345
▁ikk	-9.69359
ihto	-9.69402
do	-9.69435
▁ust	-9.6945
▁äivää	-9.69645
▁Kau	-9.69899
▁netta	-9.70013
▁ante	-9.70101
▁aino	-9.70176
▁poik	-9.70187
▁oimii	-9.70219
▁aare	-9.70273
9	-9.70275
▁sinki	-9.70312
▁siko	-9.70347
työ	-9.70486
panj	-9.70494
▁syyt	-9.70596
▁ely	-9.70695
▁str	-9.70698
▁ranta	-9.70712
▁ehu	-9.70812
▁kult	-9.70978
▁Ne	-9.71049
▁ssi	-9.71367
▁apin	-9.71385
▁uru	-9.71394
▁pur	-9.71427
▁tella	-9.71461
▁ättä	-9.71696
▁äässä	-9.7175
▁ttia	-9.71809
▁illan	-9.71844
▁vansa	-9.72
äis	-9.72054
aver	-9.72135
▁ig	-9.72237
▁akuu	-9.72322
▁etä	-9.72335
▁lue	-9.72353
▁itta	-9.72407
▁ahaa	-9.72614
▁ip	-9.72638
▁äki	-9.72647
ensä	-9.72744
▁amer	-9.7277
▁ardi	-9.7278
▁kav	-9.72836
▁om	-9.72896
▁urun	-9.72932
▁12	-9.72967
▁akso	-9.72971
▁kuvan	-9.7313
▁yvää	-9.73202
▁ympi	-9.7321
▁mm	-9.73267
▁opp	-9.73363
▁alvi	-9.73372
▁arkka	-9.73387
▁sata	-9.73408
▁aalia	-9.73458
po	-9.73525
▁pitk	-9.73528
▁aalin	-9.73627
▁Mik	-9.73635
▁aikan	-9.73783
▁amme	-9.73922
▁rast	-9.73936
▁ryhm	-9.73949
▁isäl	-9.74093
▁ilk	-9.74226
▁uita	-9.74286
▁ivi	-9.74294
▁seur	-9.74432
▁into	-9.74439
▁lasta	-9.7448
▁puut	-9.74565
▁tis	-9.74631
▁iko	-9.74659
▁kyl	-9.74788
▁rinta	-9.7489
▁jy	-9.7504
roit	-9.75069
▁lista	-9.75122
2	-9.75269
oja	-9.75412
▁ula	-9.75425
▁ksiin	-9.75527
▁Br	-9.75622
▁port	-9.75689
▁aur	-9.75692
▁äm	-9.7576
ite	-9.75775
▁oott	-9.75905
▁otku	-9.76097
▁ikka	-9.76117
▁väri	-9.76121
▁katk	-9.7617
▁isan	-9.7617
▁aatii	-9.76204
▁eh	-9.76305
▁lav	-9.76373
▁asa	-9.7645
▁atar	-9.76457
▁ntö	-9.76477
omis	-9.76509
▁paa	-9.76663
▁alaa	-9.769
▁uola	-9.77003
▁alto	-9.77052
▁ash	-9.77103
▁Auto	-9.77109
▁ag	-9.772
▁emp	-9.77259
▁lko	-9.7734
▁arina	-9.77363
▁antu	-9.77417
▁äd	-9.77428
▁Esp	-9.77445
▁äyks	-9.77459
▁alan	-9.77486
▁oka	-9.77486
▁erk	-9.77736
▁itk	-9.7788
▁um	-9.77945
iivi	-9.78004
▁ammu	-9.78026
▁ampi	-9.78103
▁desta	-9.78139
▁erro	-9.78149
▁ael	-9.78221
sim	-9.78222
▁äsi	-9.7824
3	-9.78246
▁mättä	-9.78247
▁linj	-9.78345
▁kku	-9.78462
▁40	-9.78512
▁ralli	-9.78531
▁ull	-9.78547
port	-9.78557
▁uka	-9.78558
▁esu	-9.78627
▁arv	-9.78667
▁iz	-9.78693
▁isty	-9.78756
▁py	-9.78804
▁vetä	-9.78949
▁list	-9.78998
▁ion	-9.79071
▁ekij	-9.79075
kää	-9.79112
▁auko	-9.79138
▁ndr	-9.79152
▁ay	-9.7942
▁yyt	-9.79501
▁lli	-9.79516
▁ike	-9.7965
▁yyl	-9.79675
▁sko	-9.79677
alta	-9.797
▁matta	-9.79738
▁lessa	-9.79974
▁iski	-9.79989
rus	-9.80047
▁oto	-9.80147
é	-9.80298
▁leg	-9.8036
▁tan	-9.80426
▁eilla	-9.8043
▁lumi	-9.80485
▁risti	-9.80653
▁itu	-9.80692
iint	-9.80749
▁uolta	-9.80794
▁fan	-9.8089
▁ahd	-9.80904
▁ait	-9.80962
▁äin	-9.80974
▁menee	-9.81027
▁uis	-9.81052
▁omp	-9.81098
▁ieli	-9.81224
▁aul	-9.81349
▁Ju	-9.81361
▁nio	-9.81422
▁iö	-9.81426
▁talia	-9.81482
▁vuod	-9.81528
▁assi	-9.81553
▁luk	-9.81557
▁ade	-9.81591
elev	-9.81624
▁ud	-9.81706
▁100	-9.81729
▁aiv	-9.8179
oll	-9.81834
▁elj	-9.81874
▁klo	-9.81879
▁kri	-9.82025
▁inka	-9.82079
▁mont	-9.82102
▁arti	-9.82141
▁Ty	-9.82167
▁Sc	-9.82227
kino	-9.82242
▁ettua	-9.82262
▁eitti	-9.82344
▁kasvo	-9.82463
▁Toi	-9.82477
▁don	-9.82505
▁ial	-9.82518
▁immi	-9.82598
▁mais	-9.82744
▁hdy	-9.82817
▁mpaa	-9.82821
▁tym	-9.82889
▁her	-9.82921
de	-9.82927
▁ismi	-9.83123
▁uttaa	-9.83154
ynni	-9.8325
▁aksa	-9.83261
yde	-9.83292
▁hahmo	-9.83344
▁oiton	-9.83391
▁nau	-9.83493
▁iks	-9.83544
▁ppo	-9.83564
▁uno	-9.83577
▁aip	-9.83587
▁nassa	-9.83614
▁enit	-9.83678
▁ok	-9.8372
▁äly	-9.83795
▁rah	-9.83834
▁ommi	-9.83915
▁uh	-9.83972
▁aud	-9.83983
▁luot	-9.84062
▁ntie	-9.84117
O	-9.84241
▁nnon	-9.8426
▁orn	-9.84311
▁uv	-9.84397
▁ir	-9.84414
▁sut	-9.84494
▁joht	-9.84509
V	-9.84521
▁ul	-9.84535
▁sat	-9.84565
voit	-9.84598
▁salo	-9.84695
äätö	-9.84716
▁Vir	-9.84824
▁yöpä	-9.84845
▁ank	-9.84898
▁No	-9.84947
▁ritt	-9.85008
▁kki	-9.85027
▁arvi	-9.85037
▁aik	-9.85083
▁esto	-9.85121
▁evä	-9.85178
▁jääk	-9.85234
▁nou	-9.85431
▁inis	-9.8544
▁toi	-9.8553
▁eute	-9.85611
▁tsev	-9.85701
)	-9.85803
▁tapp	-9.8586
▁ämm	-9.85943
▁ham	-9.86047
▁ack	-9.86093
▁rä	-9.86187
▁uvi	-9.86283
▁lemm	-9.8629
▁mir	-9.86322
uur	-9.86596
▁erg	-9.86749
▁oppa	-9.86787
▁iak	-9.86834
▁ein	-9.86839
▁oise	-9.86911
▁De	-9.86924
▁jäl	-9.86934
▁Tor	-9.86959
▁our	-9.87132
▁Nor	-9.87134
▁TT	-9.87148
▁vahva	-9.87174
▁uol	-9.8718
▁elev	-9.87274
▁kke	-9.87329
▁ety	-9.87377
yttä	-9.87386
▁iste	-9.87403
▁almi	-9.87457
ang	-9.87459
▁Viro	-9.87555
▁urha	-9.87814
▁ailla	-9.87821
▁ippu	-9.88226
▁sille	-9.88257
▁sesta	-9.8836
▁lämp	-9.88367
▁unnan	-9.88404
neen	-9.88631
▁ältt	-9.88821
▁sek	-9.88885
▁Per	-9.88899
▁hyp	-9.89033
▁ätk	-9.89089
▁ive	-9.89143
▁uski	-9.89153
▁nant	-9.89162
▁aihto	-9.89165
▁enr	-9.89278
▁outu	-9.89354
-	-9.89433
▁sel	-9.89442
▁este	-9.89471
isem	-9.89652
▁riv	-9.89664
▁tuvat	-9.89707
▁ossa	-9.8972
▁ttaj	-9.89736
ppi	-9.89768
▁mah	-9.89914
▁é	-9.89992
▁vies	-9.90012
▁osit	-9.90088
▁ekon	-9.90139
▁eem	-9.90213
▁nähdä	-9.90229
▁ow	-9.90264
▁eir	-9.90274
▁aata	-9.90315
▁utis	-9.90375
▁sad	-9.90437
▁ysti	-9.90476
▁ere	-9.90484
osit	-9.90564
▁enni	-9.90699
▁äkk	-9.90737
L	-9.90812
▁iske	-9.90845
▁posti	-9.91051
▁ellu	-9.91093
▁ija	-9.91185
▁kulm	-9.91193
aise	-9.91212
▁saam	-9.9122
▁evat	-9.91253
▁aap	-9.91308
▁all	-9.91332
▁intä	-9.91486
da	-9.91502
▁alai	-9.91551
▁Mer	-9.91556
▁tod	-9.91582
▁rkk	-9.9159
▁oinu	-9.91609
▁isk	-9.9161
▁vuor	-9.91619
▁roj	-9.91681
▁unna	-9.9172
kuut	-9.91814
▁oke	-9.91859
▁laat	-9.9188
▁amp	-9.91931
▁rea	-9.91954
▁isko	-9.91964
▁entä	-9.92006
▁akaa	-9.92065
▁dia	-9.92113
▁Bar	-9.92172
▁erää	-9.92207
uri	-9.92242
▁rik	-9.92261
▁ela	-9.92261
▁linna	-9.92276
▁met	-9.92353
▁sijo	-9.9244
▁ster	-9.92509
▁äs	-9.92573
▁kans	-9.92752
ow	-9.92818
▁amas	-9.92865
▁ansan	-9.93009
▁ähä	-9.93147
ic	-9.93278
▁anga	-9.93289
▁hall	-9.93405
▁äti	-9.93543
▁aje	-9.93571
mb	-9.93582
B	-9.93614
▁umi	-9.93664
▁sent	-9.93683
▁puk	-9.93685
▁oj	-9.93696
▁ämme	-9.93713
ani	-9.93744
▁utun	-9.93744
mä	-9.93783
▁suk	-9.93824
▁jäse	-9.94009
▁kesän	-9.94009
▁teita	-9.94094
▁töä	-9.94175
▁ater	-9.94179
▁tien	-9.94234
▁Muu	-9.94272
▁Mä	-9.94285
▁empa	-9.94346
▁ong	-9.94427
▁äärin	-9.94428
▁tart	-9.94529
▁odis	-9.94567
▁toon	-9.94667
▁riisi	-9.94748
▁tär	-9.94806
▁maat	-9.9491
▁rang	-9.9493
▁mista	-9.95097
▁pano	-9.95105
▁vähä	-9.95122
▁Maa	-9.95138
▁lina	-9.95139
▁tes	-9.95142
▁lus	-9.9524
▁aiset	-9.95256
▁ös	-9.95259
▁rann	-9.95389
▁jote	-9.95411
▁wa	-9.95525
▁amal	-9.95822
▁oen	-9.95849
▁eena	-9.9588
▁Ala	-9.95887
ton	-9.95899
▁äid	-9.95905
▁läm	-9.95907
▁ieti	-9.96042
▁eren	-9.9605
▁HL	-9.9609
▁kome	-9.96139
▁Pal	-9.96162
▁ug	-9.96247
:	-9.96314
▁ink	-9.96353
▁arve	-9.96483
▁rhei	-9.96532
8	-9.96538
▁toks	-9.96588
co	-9.96693
▁Kat	-9.96824
▁mil	-9.96928
▁lie	-9.96929
▁kum	-9.9695
▁ääm	-9.96952
▁uudet	-9.96977
▁hak	-9.97003
kkau	-9.97009
▁syyte	-9.97083
ce	-9.9713
muks	-9.97236
▁aava	-9.97241
▁suo	-9.97248
▁aaja	-9.97275
▁kais	-9.97277
▁ärj	-9.97329
▁erra	-9.9734
▁nnes	-9.97343
▁lat	-9.97385
▁nev	-9.97418
▁koo	-9.97421
▁Lap	-9.97558
▁tavi	-9.97725
▁arme	-9.97761
▁yri	-9.97888
▁ysty	-9.97942
▁erot	-9.97954
▁äärä	-9.98156
▁teitä	-9.98211
▁syk	-9.98454
▁iho	-9.98458
▁ntoja	-9.98495
▁uul	-9.98518
▁öitä	-9.98564
▁og	-9.98599
▁nuk	-9.98667
▁ymy	-9.98699
▁rs	-9.98764
▁ill	-9.98814
inne	-9.98817
▁uuri	-9.99121
▁yy	-9.99189
▁oon	-9.99193
up	-9.99266
▁välit	-9.99274
▁lly	-9.99301
▁lymp	-9.9932
▁lon	-9.99392
U	-9.99578
ako	-9.99609
▁telua	-9.99773
▁ate	-9.99887
▁tteri	-9.99908
▁pä	-9.99921
▁11	-10.0029
&	-10.0041
▁ykk	-10.0049
▁vaa	-10.0056
▁elp	-10.0062
▁dän	-10.0063
▁rid	-10.0076
▁aini	-10.0079
▁200	-10.0093
▁vänsä	-10.0094
▁Kys	-10.0096
▁oisin	-10.0102
▁uomi	-10.0132
▁lve	-10.0144
▁nkari	-10.0151
▁bo	-10.016
kään	-10.0168
▁uht	-10.0171
▁let	-10.0173
▁via	-10.0182
▁ern	-10.0194
▁äh	-10.0198
▁uolen	-10.0199
▁eto	-10.0217
▁gr	-10.0227
▁ävät	-10.0228
▁anee	-10.0237
▁los	-10.0241
▁uon	-10.0246
▁mist	-10.0247
▁ltiin	-10.0252
▁olu	-10.0269
▁varo	-10.0272
▁ähd	-10.0276
ista	-10.0281
mine	-10.0283
▁iety	-10.0291
▁lom	-10.0293
▁emma	-10.0301
tyvä	-10.0307
▁omo	-10.0312
▁rint	-10.0323
▁ento	-10.0325
▁iikki	-10.0339
▁aaj	-10.0346
▁tall	-10.0346
ed	-10.038
▁uule	-10.0385
▁ore	-10.0388
▁kel	-10.0394
▁ntaja	-10.0399
▁unti	-10.0412
▁keli	-10.042
▁koit	-10.0424
htä	-10.0438
▁isuu	-10.0441
▁opi	-10.0442
▁alv	-10.0451
▁äih	-10.0451
▁YK	-10.0452
olm	-10.0453
▁annus	-10.0465
▁kuuta	-10.0479
▁sivät	-10.0481
▁anka	-10.0482
▁yksin	-10.0491
▁aura	-10.0496
▁kiit	-10.0498
▁ineen	-10.0499
▁mot	-10.0517
▁ypp	-10.0523
▁aisk	-10.0524
▁nty	-10.0526
▁sit	-10.0527
▁kea	-10.0547
▁oos	-10.0559
▁ämis	-10.0559
▁urm	-10.0581
▁itali	-10.0582
▁ehd	-10.0613
▁ars	-10.0618
▁Mark	-10.0624
▁uop	-10.0624
▁uoka	-10.0628
▁nnee	-10.0637
▁oht	-10.064
▁ohja	-10.0644
▁teena	-10.0659
▁ngl	-10.0663
sä	-10.0664
▁ipu	-10.0668
▁uissa	-10.067
▁takaa	-10.0678
▁mässä	-10.068
▁oik	-10.0681
▁pet	-10.0693
▁14	-10.07
▁elto	-10.0711
▁rata	-10.0716
▁Mat	-10.0717
▁euv	-10.0719
▁musta	-10.0731
▁eka	-10.0735
▁Gu	-10.0744
▁vää	-10.0754
▁upe	-10.0766
▁alt	-10.0787
▁osaa	-10.079
▁toa	-10.0795
▁nö	-10.0797
▁pelin	-10.0798
▁elt	-10.0807
6	-10.0814
▁tom	-10.0832
▁Pari	-10.0838
N	-10.0839
▁Er	-10.0842
▁nes	-10.0868
▁della	-10.0869
▁aalit	-10.0875
▁hui	-10.0876
ha	-10.0887
▁13	-10.0895
▁sian	-10.0904
iksi	-10.091
▁osti	-10.0916
▁oska	-10.0923
▁össä	-10.0923
▁arin	-10.0928
▁sij	-10.095
▁tajat	-10.0959
▁tv	-10.096
▁tull	-10.0961
▁ute	-10.0964
▁insa	-10.0967
▁koi	-10.0972
▁irkk	-10.099
▁dr	-10.0999
▁malla	-10.1003
▁aver	-10.1021
▁ese	-10.1022
▁uheen	-10.1023
▁syv	-10.1024
▁pah	-10.1036
▁ennu	-10.104
▁ouk	-10.1044
▁mma	-10.1046
▁rose	-10.1056
▁ital	-10.1061
▁ärke	-10.1074
▁aria	-10.1081
▁selle	-10.1088
▁auna	-10.109
▁aras	-10.1091
▁viä	-10.1097
▁jaan	-10.1099
▁ohtaa	-10.11
▁mel	-10.11
▁atsa	-10.1113
▁uutu	-10.1113
▁alm	-10.1113
▁linen	-10.1116
▁nnin	-10.1117
var	-10.114
kö	-10.1158
▁annin	-10.1162
▁net	-10.1164
▁pö	-10.1164
▁tin	-10.1164
▁tyne	-10.117
▁tensa	-10.1178
▁ou	-10.1181
▁ron	-10.1199
▁äänt	-10.1215
▁Hu	-10.1216
▁huoli	-10.1217
▁rain	-10.1231
▁60	-10.1232
▁ello	-10.1237
▁ment	-10.1248
▁lime	-10.1252
▁istus	-10.1256
▁opea	-10.1258
▁uttu	-10.1278
▁olk	-10.1279
urna	-10.128
▁ärv	-10.1285
▁Nä	-10.1304
▁ttäm	-10.1304
▁isat	-10.1312
▁kkaa	-10.1316
▁jet	-10.1321
▁ttäv	-10.1332
▁keil	-10.1333
▁eella	-10.1336
▁leis	-10.1347
▁iika	-10.1351
od	-10.1353
▁tell	-10.1355
▁nei	-10.1356
▁25	-10.1366
▁enee	-10.1369
▁nmaa	-10.137
▁okk	-10.1373
istä	-10.1376
▁mal	-10.1379
▁oha	-10.1391
▁ohk	-10.1396
▁aske	-10.14
▁kkö	-10.1405
▁omit	-10.141
▁ind	-10.1413
▁ksa	-10.1424
▁edia	-10.1433
▁ähi	-10.1436
▁ier	-10.1437
▁aatto	-10.1445
▁age	-10.1445
▁sella	-10.1458
▁onto	-10.1459
▁atto	-10.1459
▁tama	-10.1463
▁ulo	-10.1489
▁Leh	-10.1496
▁lisen	-10.15
▁aansa	-10.1502
▁äntä	-10.1503
▁ski	-10.1504
▁ora	-10.1508
▁kod	-10.1517
▁raa	-10.1517
▁Fin	-10.1522
teis	-10.1523
▁lov	-10.1529
▁iaal	-10.1537
▁iip	-10.1546
▁äp	-10.1555
▁tar	-10.1558
▁htaa	-10.1568
ilij	-10.1584
▁täjä	-10.1594
▁aula	-10.16
▁iil	-10.1615
▁ulke	-10.1619
▁alun	-10.1684
▁tellä	-10.1685
over	-10.1696
▁ose	-10.1705
▁ook	-10.1713
ämm	-10.1714
▁tuva	-10.1715
▁otaa	-10.1716
▁IFK	-10.1725
▁niä	-10.1748
▁q	-10.175
▁mato	-10.1754
▁Mari	-10.1756
▁unai	-10.1757
▁eika	-10.1757
▁ukko	-10.1758
▁sh	-10.1766
▁vuoro	-10.1773
▁oh	-10.1778
▁uke	-10.1781
▁era	-10.1785
▁oite	-10.1786
▁tusk	-10.1803
▁appi	-10.1806
q	-10.1824
▁oste	-10.1826
▁aih	-10.1828
▁öks	-10.1831
▁iku	-10.1835
▁raja	-10.1853
▁nor	-10.1857
▁Co	-10.1859
▁rut	-10.1866
▁töstä	-10.1869
DP	-10.1871
▁ec	-10.1872
▁irk	-10.1881
alla	-10.1883
▁emi	-10.1885
▁ral	-10.1893
▁avi	-10.1912
▁alme	-10.1937
▁lois	-10.1945
▁pelaa	-10.1951
▁roo	-10.1956
jo	-10.1966
F	-10.1973
▁rj	-10.1982
▁bri	-10.2007
▁Seur	-10.2011
▁äästö	-10.2015
▁rem	-10.2029
▁lasi	-10.2038
▁18	-10.204
kem	-10.2045
▁soda	-10.205
▁Kär	-10.2052
neks	-10.206
▁öri	-10.2073
nad	-10.2073
▁teltu	-10.2074
▁Sai	-10.2075
▁iska	-10.2075
▁ohe	-10.2083
▁ttää	-10.2085
▁eino	-10.2088
▁miin	-10.2095
▁tue	-10.2127
▁16	-10.2128
▁usk	-10.2136
▁auki	-10.214
▁AFP	-10.2142
▁allis	-10.2144
▁iemi	-10.2144
aupp	-10.2152
,5	-10.2155
▁pil	-10.2173
inut	-10.2181
▁istää	-10.2184
▁uvia	-10.2192
▁az	-10.2204
▁yp	-10.2205
▁BBC	-10.2227
▁hait	-10.2231
▁enin	-10.2231
▁eter	-10.2252
▁misen	-10.2254
unnu	-10.2259
▁aris	-10.2292
▁Q	-10.2292
▁veri	-10.2298
▁puu	-10.2302
▁tehd	-10.2304
▁dok	-10.2305
▁tyt	-10.231
▁%	-10.2314
▁oisi	-10.2314
▁ure	-10.2345
▁dus	-10.2355
▁kuka	-10.2358
▁yk	-10.2359
▁ica	-10.2368
▁kuvaa	-10.2373
▁ren	-10.2377
ber	-10.2384
▁auva	-10.2384
▁ima	-10.2385
▁iemm	-10.2387
▁ök	-10.2394
▁eo	-10.2408
▁suju	-10.2416
▁elv	-10.2417
▁atr	-10.2436
▁aits	-10.2441
▁hte	-10.2458
▁inni	-10.246
▁kanen	-10.2467
▁uur	-10.2479
ksi	-10.2482
▁goi	-10.2491
▁ity	-10.2517
▁senä	-10.2521
simm	-10.2529
▁17	-10.2529
▁rikos	-10.2529
▁lass	-10.2535
▁reen	-10.2544
▁ost	-10.2554
▁ch	-10.2562
▁aru	-10.2566
▁astu	-10.2567
▁nem	-10.2602
▁alua	-10.2604
▁vas	-10.2608
▁aide	-10.2612
▁yd	-10.2615
▁äl	-10.2634
▁ema	-10.2644
▁nuori	-10.2645
▁ilä	-10.2659
▁isena	-10.2678
▁luu	-10.2679
▁eer	-10.2684
▁iva	-10.2704
▁ntu	-10.2709
▁alio	-10.2716
▁toiv	-10.2718
▁inin	-10.2732
▁suos	-10.2742
▁arj	-10.275
▁kset	-10.276
▁viil	-10.2766
▁anie	-10.2773
▁ltaan	-10.2774
▁rat	-10.2777
▁uunn	-10.2787
▁ykset	-10.2792
▁araa	-10.2797
▁koll	-10.2805
▁ley	-10.2812
▁tuis	-10.2827
▁mut	-10.2835
▁Kir	-10.2838
▁unne	-10.2844
▁oksia	-10.2844
▁eru	-10.2849
▁kirk	-10.2853
▁rk	-10.2854
▁näy	-10.2869
▁otk	-10.2871
▁otu	-10.2893
▁stra	-10.2906
▁ausk	-10.2911
▁ris	-10.2912
tyks	-10.2924
▁uhe	-10.2925
▁Gran	-10.2929
▁uhu	-10.2933
▁arko	-10.2933
▁rok	-10.2934
▁CNN	-10.2938
▁essi	-10.2949
▁maine	-10.2951
7	-10.2981
▁uli	-10.2994
▁Ed	-10.3
dp	-10.3005
▁lak	-10.302
▁oro	-10.3026
▁ampa	-10.3039
▁ros	-10.3052
▁24	-10.3053
▁samaa	-10.3053
ing	-10.3057
▁län	-10.3061
▁uhr	-10.3063
▁aat	-10.3079
▁olt	-10.3079
▁Tai	-10.3084
▁rkis	-10.3084
▁nkii	-10.3086
▁une	-10.3088
▁aust	-10.3096
▁eeni	-10.312
▁uris	-10.312
▁Par	-10.3131
▁eak	-10.3135
▁ivu	-10.3152
▁atko	-10.3156
▁ntiin	-10.3179
▁iisi	-10.3183
▁eron	-10.3196
▁isään	-10.3198
▁estö	-10.3203
▁ahi	-10.3215
▁enka	-10.323
▁lia	-10.3231
▁pun	-10.3239
▁El	-10.3279
▁Nik	-10.3285
hto	-10.3288
▁nalle	-10.3289
▁vasti	-10.3307
▁eon	-10.3325
▁anm	-10.3325
▁ittu	-10.3327
▁öt	-10.333
▁pite	-10.333
▁imes	-10.3336
▁issu	-10.3343
▁olet	-10.3344
ihd	-10.3355
▁yll	-10.3357
▁kti	-10.3361
▁ott	-10.3378
▁ape	-10.3397
ej	-10.342
▁Hy	-10.3423
▁otus	-10.3424
▁atri	-10.3424
▁allon	-10.345
▁airas	-10.3461
▁dat	-10.3463
▁pos	-10.3477
▁Kai	-10.349
▁syd	-10.3502
▁verk	-10.3503
▁ellyt	-10.3532
ker	-10.3534
▁ulj	-10.3536
▁hun	-10.3537
▁liev	-10.3547
▁kons	-10.3557
▁kol	-10.3559
▁sissa	-10.357
mar	-10.3573
▁ode	-10.3583
hu	-10.3603
▁gram	-10.3608
▁uov	-10.3621
▁väksi	-10.3626
▁Mc	-10.3638
▁avaa	-10.3644
▁isiä	-10.3646
▁uo	-10.3648
▁aala	-10.3652
▁kkee	-10.3652
▁immä	-10.3654
▁ostaa	-10.3677
▁ttävä	-10.368
▁tystä	-10.3686
▁sih	-10.369
▁alik	-10.3696
▁auti	-10.3704
▁huip	-10.3713
▁äme	-10.3713
▁soi	-10.3716
▁eske	-10.3716
▁lit	-10.3719
▁unk	-10.3721
▁osen	-10.3724
▁tote	-10.3725
▁lay	-10.3727
▁yhmä	-10.3729
▁neita	-10.3733
sty	-10.3734
▁tem	-10.3738
▁äkkä	-10.3748
▁oida	-10.3754
▁kivi	-10.3757
▁nter	-10.3761
▁emis	-10.3762
▁suor	-10.3762
▁lisi	-10.3767
▁ngel	-10.3775
▁lyn	-10.3776
▁uran	-10.3777
▁evi	-10.3779
▁nlop	-10.3794
▁mb	-10.3803
▁smi	-10.3807
unno	-10.3826
▁tutu	-10.383
▁kal	-10.3839
▁okka	-10.3849
og	-10.3854
▁dyt	-10.3856
▁ryh	-10.3862
▁ied	-10.3876
▁USA	-10.388
▁uja	-10.3885
▁oom	-10.3886
▁tuul	-10.389
▁ttyä	-10.389
▁Tur	-10.3892
▁anh	-10.3898
▁orj	-10.3906
▁älä	-10.3911
ger	-10.3922
▁ähkö	-10.3934
▁x	-10.3939
▁alvo	-10.3946
ca	-10.3951
▁spe	-10.3959
▁kahd	-10.3973
▁appe	-10.3978
▁öjä	-10.398
▁tävää	-10.4028
▁henk	-10.4036
▁ökk	-10.4039
▁anha	-10.4053
▁äntö	-10.4061
▁ulta	-10.4063
▁moot	-10.4084
▁aval	-10.4101
▁siä	-10.4112
▁uott	-10.4117
▁laa	-10.4139
▁mani	-10.415
▁käs	-10.4151
▁vist	-10.4153
▁ppa	-10.4159
▁Kur	-10.417
uute	-10.4184
▁uoti	-10.4192
▁rap	-10.4216
▁eltä	-10.4225
▁inv	-10.4227
▁kossa	-10.423
akk	-10.4232
▁reit	-10.4234
▁[	-10.4238
▁ruo	-10.424
▁ila	-10.4244
G	-10.4266
▁seksi	-10.4275
▁ska	-10.4275
äki	-10.428
rva	-10.4285
▁aara	-10.4298
▁öytä	-10.4301
▁]	-10.4317
▁orma	-10.4325
▁uuto	-10.4326
▁epp	-10.4334
▁uho	-10.4337
▁okuv	-10.4343
▁yte	-10.4348
▁tilaa	-10.435
▁Col	-10.4352
▁Ede	-10.4358
syyd	-10.436
▁erhe	-10.4364
kko	-10.4368
▁kaal	-10.4386
▁dek	-10.439
▁ankk	-10.4393
▁ato	-10.4397
▁ämää	-10.4397
▁eim	-10.4427
▁iassa	-10.443
▁itto	-10.4438
▁etel	-10.4457
▁änny	-10.4473
▁lep	-10.4477
▁väk	-10.448
▁nkk	-10.4487
▁Pol	-10.4494
ub	-10.4497
illa	-10.45
▁uhk	-10.4518
▁auha	-10.452
▁sket	-10.452
▁äjä	-10.4524
arin	-10.4537
▁ulma	-10.4542
▁rill	-10.4556
ster	-10.4577
iiko	-10.4591
▁oneen	-10.4594
▁Ab	-10.46
▁ikeus	-10.46
▁aroi	-10.4606
nyt	-10.4611
▁uluv	-10.4616
▁vuo	-10.4626
▁amo	-10.4637
▁ulli	-10.4646
▁HS	-10.4647
▁ous	-10.4651
▁akku	-10.4674
▁ih	-10.4674
▁elm	-10.4675
▁ult	-10.4681
▁tein	-10.4689
▁imp	-10.4691
eb	-10.4694
▁rikk	-10.4694
▁iita	-10.4703
▁jö	-10.4707
▁rop	-10.4722
▁konk	-10.4734
etti	-10.4735
▁len	-10.4748
▁must	-10.4758
▁ralla	-10.476
uodo	-10.476
▁iusa	-10.4761
▁saan	-10.4762
▁she	-10.4766
▁äyte	-10.4786
▁ulla	-10.4789
▁ask	-10.4819
▁idä	-10.4831
▁80	-10.4847
▁tinen	-10.485
▁tea	-10.4851
▁ilja	-10.4866
▁uit	-10.4867
▁my	-10.4872
▁tilä	-10.4872
▁noo	-10.4876
▁hetk	-10.4878
täm	-10.4883
▁det	-10.4892
▁lou	-10.4901
▁oinn	-10.4906
▁aasu	-10.4908
▁aike	-10.4911
▁ew	-10.4915
▁öntä	-10.4926
▁are	-10.4943
▁ada	-10.4973
▁korva	-10.4973
▁anis	-10.4986
▁mala	-10.4996
▁äyty	-10.5002
▁änd	-10.5017
▁amu	-10.5032
▁itys	-10.5034
▁atin	-10.504
▁pasi	-10.5044
vid	-10.5048
▁Sy	-10.5057
ky	-10.5061
▁liv	-10.5078
▁iisa	-10.5079
▁ikki	-10.509
▁pailu	-10.509
▁auka	-10.5098
▁äse	-10.5098
▁nia	-10.51
▁innu	-10.5111
▁ttö	-10.5114
▁Saa	-10.5121
▁ako	-10.5122
▁uen	-10.513
▁kät	-10.5133
▁uma	-10.5141
▁yssä	-10.5192
▁rmo	-10.52
▁ge	-10.5201
▁aiss	-10.5203
▁ävä	-10.5206
▁sp	-10.5207
▁isenä	-10.5208
lah	-10.521
▁lio	-10.5227
▁ttis	-10.5241
▁hil	-10.5252
▁arke	-10.5253
▁delle	-10.5254
▁Ky	-10.5254
▁pak	-10.5256
▁yistä	-10.5257
▁tont	-10.5265
ihin	-10.527
▁ntia	-10.5274
▁selvä	-10.5279
▁go	-10.5281
▁kump	-10.5284
skar	-10.529
▁aast	-10.5295
ry	-10.5296
▁co	-10.53
▁kus	-10.5309
aja	-10.5317
▁varma	-10.5317
▁min	-10.532
▁kant	-10.5322
▁atka	-10.5327
sy	-10.5327
ulku	-10.5329
▁Lep	-10.533
▁aup	-10.5353
▁rvi	-10.536
ettu	-10.5361
▁ieto	-10.5363
▁äär	-10.5369
▁siiv	-10.5379
▁aitos	-10.538
▁link	-10.5391
▁70	-10.5393
▁ega	-10.54
▁Wal	-10.5414
▁ez	-10.5415
▁untia	-10.542
▁tap	-10.5426
▁eeri	-10.5435
▁uko	-10.5435
▁oilta	-10.5439
▁lty	-10.5444
pää	-10.5444
▁tynyt	-10.5446
maan	-10.5457
▁ram	-10.5468
▁unen	-10.547
▁uee	-10.5471
▁not	-10.5472
▁ousu	-10.5483
▁entää	-10.5491
▁Ur	-10.55
▁iris	-10.5516
H	-10.5518
▁etus	-10.5524
▁iell	-10.5543
▁emin	-10.5545
▁ltav	-10.5547
▁rak	-10.5549
▁ähti	-10.5586
▁arje	-10.56
eg	-10.5609
▁kuo	-10.561
rab	-10.5612
by	-10.5613
▁mit	-10.5616
▁vassa	-10.5619
▁anma	-10.5622
▁ntoa	-10.5634
▁nähd	-10.5635
▁aaka	-10.5636
▁kulk	-10.5641
▁dop	-10.5643
uru	-10.5644
▁enem	-10.5646
▁Caro	-10.5655
PS	-10.5691
▁ret	-10.5697
▁luks	-10.5721
▁oko	-10.5721
▁af	-10.5724
▁noll	-10.5726
▁omero	-10.5737
▁rva	-10.5738
▁fr	-10.575
▁osak	-10.5761
▁tsa	-10.5761
▁oc	-10.5762
▁täy	-10.5763
▁lint	-10.5764
▁erin	-10.5771
▁oppu	-10.5772
▁misi	-10.5792
▁alkan	-10.5794
ug	-10.5797
▁ey	-10.5804
▁lanti	-10.5805
▁hol	-10.5807
▁Matt	-10.5826
▁aks	-10.5832
Y	-10.5852
▁utui	-10.5854
▁utus	-10.5859
▁kyy	-10.5869
▁usto	-10.587
voim	-10.5882
▁ved	-10.5882
remm	-10.5887
▁yti	-10.5893
▁wi	-10.5905
▁aasa	-10.5917
▁pp	-10.5935
▁issi	-10.5937
▁atvia	-10.595
▁oku	-10.5955
▁eko	-10.596
▁kala	-10.5985
▁rav	-10.5996
▁ies	-10.5998
nak	-10.6006
▁läsnä	-10.6012
▁paan	-10.6015
▁otim	-10.6022
▁einen	-10.6023
▁ihl	-10.6035
▁vala	-10.6037
▁eut	-10.6042
▁tim	-10.6054
▁htiö	-10.6055
isto	-10.6062
uoks	-10.6069
▁inaa	-10.607
▁golf	-10.6075
▁änt	-10.6075
▁anss	-10.6078
▁matk	-10.608
▁tol	-10.6105
▁ör	-10.611
▁lkee	-10.611
▁Vira	-10.6115
▁avia	-10.6115
▁oksi	-10.6128
▁loi	-10.6158
oker	-10.617
ick	-10.6176
uut	-10.618
▁air	-10.6186
▁lent	-10.6188
▁unno	-10.619
▁utti	-10.6192
▁allas	-10.6198
▁iedo	-10.6201
essä	-10.6202
▁apor	-10.6203
▁lti	-10.621
▁ekä	-10.6223
▁kiva	-10.6244
▁eos	-10.6249
▁vissa	-10.6266
▁ehn	-10.6266
▁evät	-10.6276
▁jalk	-10.628
▁Ant	-10.6284
▁rot	-10.6285
▁rauh	-10.6289
▁harj	-10.6301
▁ca	-10.6321
▁yst	-10.6321
▁ärs	-10.6325
▁br	-10.6333
▁ber	-10.6347
▁yöt	-10.6348
▁kann	-10.6359
▁lku	-10.6359
▁mpere	-10.637
▁mmo	-10.6374
▁etr	-10.6386
▁kall	-10.6387
issa	-10.6388
▁kym	-10.6401
▁mer	-10.6402
▁mii	-10.6418
▁ehe	-10.6441
▁päi	-10.6465
▁teema	-10.6466
▁Nic	-10.6471
▁iilo	-10.6475
▁for	-10.6476
▁kari	-10.6481
▁hum	-10.6483
▁yrk	-10.6484
▁rän	-10.6493
▁hai	-10.6493
▁las	-10.6505
▁vika	-10.6507
▁kim	-10.6523
▁ikan	-10.6529
▁eltu	-10.6532
▁Her	-10.6548
▁ume	-10.6549
▁elma	-10.6552
KP	-10.6553
▁Max	-10.656
▁lann	-10.656
okki	-10.6565
▁lm	-10.6565
▁uet	-10.6566
▁entaa	-10.6568
▁nik	-10.6577
▁keu	-10.6578
▁19	-10.6584
▁edo	-10.6586
▁lari	-10.6596
▁ikai	-10.6607
▁Oy	-10.6608
▁äily	-10.6627
▁For	-10.663
▁äsk	-10.6661
nb	-10.6674
▁ähe	-10.6678
▁sorm	-10.6678
▁eell	-10.6682
▁uiv	-10.6689
▁kah	-10.6702
ock	-10.6709
▁iem	-10.6714
ver	-10.6719
▁anch	-10.6748
äär	-10.6753
rend	-10.6759
▁innä	-10.6776
▁auh	-10.6777
▁aate	-10.6779
▁juh	-10.6801
▁ytti	-10.6813
▁35	-10.6816
▁kär	-10.6828
▁Ari	-10.6833
▁akk	-10.6847
▁tuut	-10.6857
▁reena	-10.6858
20	-10.6861
▁nest	-10.6875
▁nten	-10.6889
▁Merc	-10.6896
▁mari	-10.69
▁evo	-10.6907
tane	-10.691
▁konen	-10.6928
▁uull	-10.6935
▁ande	-10.6935
▁90	-10.6949
▁mman	-10.6952
▁Aki	-10.699
▁23	-10.7002
▁rov	-10.7008
▁oika	-10.7011
▁soo	-10.7021
▁kemi	-10.7023
▁ullo	-10.7033
š	-10.7036
▁laski	-10.7038
▁Lat	-10.7043
▁eisk	-10.7051
▁uva	-10.7052
▁ace	-10.7055
▁sestä	-10.7067
▁ule	-10.7067
▁hää	-10.7068
itte	-10.707
▁viin	-10.707
▁itsi	-10.7076
▁yne	-10.708
▁tuus	-10.7083
▁yyty	-10.7085
▁oss	-10.7086
▁toip	-10.7087
▁tko	-10.7103
▁uska	-10.7108
▁äise	-10.7119
ong	-10.712
50	-10.7121
▁yön	-10.7128
▁ivä	-10.713
▁altaa	-10.7136
▁Exp	-10.7142
▁pauk	-10.7146
▁uhel	-10.7148
▁ump	-10.7153
▁alk	-10.7155
▁evan	-10.7157
▁alon	-10.7164
▁eeksi	-10.7178
▁eija	-10.7179
▁evää	-10.7179
▁lassa	-10.7187
asti	-10.7188
olem	-10.7189
▁lise	-10.7199
ec	-10.7209
▁arta	-10.7212
▁ym	-10.7217
▁aalis	-10.7222
▁uuh	-10.7235
▁fi	-10.7237
▁22	-10.7237
▁Ol	-10.7238
▁anth	-10.7238
▁Red	-10.7257
▁pila	-10.7271
▁idea	-10.7276
▁alti	-10.7284
▁stav	-10.7285
ond	-10.7288
▁rim	-10.7291
▁inh	-10.7293
▁kuvat	-10.7293
▁äisi	-10.73
▁käi	-10.7305
▁estää	-10.7308
▁syl	-10.7319
▁etää	-10.7321
AK	-10.7329
▁ame	-10.7332
▁asv	-10.7335
▁uiva	-10.7341
tz	-10.7365
▁yös	-10.7375
▁eam	-10.7376
▁Esi	-10.7377
▁hri	-10.7379
▁Rist	-10.7388
▁oho	-10.7397
▁him	-10.741
▁tuol	-10.7413
▁sikko	-10.7414
▁laj	-10.7424
▁esla	-10.7436
▁ulu	-10.7444
za	-10.7449
▁auli	-10.7449
▁etro	-10.7471
▁rati	-10.7473
▁ulm	-10.7477
▁tteli	-10.748
▁hot	-10.7484
▁ikon	-10.7491
▁etti	-10.7496
6,	-10.7498
▁nnet	-10.751
▁rinen	-10.7543
▁äkä	-10.7546
▁ääki	-10.7551
▁upo	-10.7553
▁nnel	-10.7559
▁ilti	-10.7562
▁vet	-10.7562
▁Kaisa	-10.757
▁pla	-10.7571
ez	-10.7578
▁mpa	-10.7597
▁rss	-10.7601
▁can	-10.7606
▁silta	-10.7611
1,	-10.7611
▁hjel	-10.7622
▁ames	-10.7633
▁erm	-10.7639
▁uso	-10.7641
▁š	-10.7644
▁ekt	-10.7654
▁pist	-10.7664
▁isu	-10.7665
▁mmat	-10.7673
▁vank	-10.7674
▁dosta	-10.768
▁reun	-10.7686
▁tanen	-10.7715
ord	-10.7715
▁llu	-10.7716
▁keik	-10.7726
▁eist	-10.7729
▁hat	-10.7736
▁alat	-10.7743
▁sur	-10.7749
▁aille	-10.7762
▁uusk	-10.7768
▁ataa	-10.7773
▁asku	-10.7785
▁PS	-10.7808
▁21	-10.7811
▁eili	-10.7824
▁tietä	-10.7825
▁mann	-10.7848
▁mail	-10.7851
9,	-10.7866
▁lyy	-10.7867
▁esse	-10.7869
7,	-10.7874
▁eits	-10.7885
▁htu	-10.789
▁aavo	-10.7891
ammi	-10.7898
▁tavaa	-10.7905
▁onna	-10.7906
▁oks	-10.7916
▁elik	-10.7919
▁ahv	-10.7929
ci	-10.7938
▁raal	-10.7962
▁ääj	-10.7963
▁mat	-10.7967
▁lii	-10.7978
▁lenk	-10.7985
▁aivaa	-10.7998
▁mun	-10.7999
▁tyk	-10.8001
▁oil	-10.8005
▁ever	-10.8012
▁rgi	-10.8022
▁yönt	-10.8033
▁oso	-10.8035
▁ness	-10.8037
▁mys	-10.8043
▁ois	-10.8046
▁uda	-10.805
▁emmä	-10.8054
ran	-10.8054
▁Harr	-10.8054
▁inal	-10.8063
J	-10.8064
▁anner	-10.8066
par	-10.8075
▁anja	-10.8081
▁Car	-10.8083
▁jia	-10.8088
▁ung	-10.8089
▁uos	-10.809
▁vinen	-10.8094
▁skal	-10.8102
▁itää	-10.812
▁the	-10.8127
▁kolla	-10.8129
▁akia	-10.8131
▁öide	-10.8133
▁pudo	-10.8133
▁ary	-10.8135
▁iru	-10.8139
▁sc	-10.814
yvä	-10.8147
▁mall	-10.816
▁ef	-10.8164
▁ikeu	-10.8166
▁emään	-10.8169
vist	-10.8171
▁opo	-10.8174
▁hit	-10.8185
iva	-10.821
▁mäl	-10.8214
▁esk	-10.8215
ana	-10.8217
▁iljo	-10.8227
▁insä	-10.824
▁ytö	-10.8249
▁27	-10.8249
▁auvo	-10.8249
▁ff	-10.825
▁aro	-10.8251
▁työt	-10.8252
▁sd	-10.8263
▁mäk	-10.8265
3,	-10.8271
▁isar	-10.8278
▁alen	-10.8282
▁dig	-10.8295
▁ance	-10.8298
▁arm	-10.8301
▁irr	-10.8309
2,	-10.8321
▁nun	-10.8361
▁emo	-10.8371
tila	-10.8375
▁gat	-10.8381
▁800	-10.8404
▁vais	-10.841
▁nnoi	-10.841
▁ilm	-10.8416
▁iek	-10.8441
▁ovan	-10.8443
▁Kouv	-10.8446
▁iskun	-10.8468
pin	-10.8479
▁yyn	-10.8479
▁Por	-10.8481
ard	-10.8491
uno	-10.8497
▁ekk	-10.8519
▁mana	-10.8541
kaan	-10.8542
▁ipe	-10.8554
▁akan	-10.8557
▁niuk	-10.8573
aha	-10.8578
▁FC	-10.8595
▁usin	-10.86
▁Maij	-10.8609
▁mans	-10.8614
▁tilla	-10.8615
▁lipu	-10.862
▁iol	-10.8624
▁ynt	-10.8625
▁iiva	-10.8625
▁void	-10.8631
▁ikoi	-10.8631
▁teis	-10.8636
▁tyvät	-10.8648
▁ler	-10.8659
▁deb	-10.8668
▁uske	-10.8673
▁okai	-10.868
▁Ker	-10.8682
▁Kimm	-10.8685
▁iia	-10.8689
8,	-10.8695
▁ilpi	-10.8697
▁anko	-10.8701
▁murh	-10.8713
▁koir	-10.8725
▁Tie	-10.8728
▁mien	-10.8745
▁tajaa	-10.8756
=	-10.8769
▁oim	-10.8788
▁stap	-10.8789
▁tur	-10.8794
▁ntaan	-10.8799
▁ger	-10.8803
▁ursk	-10.8825
▁iti	-10.8837
▁apau	-10.8847
▁läi	-10.885
iz	-10.8859
▁lmoi	-10.886
▁oope	-10.8861
▁ullu	-10.8865
▁pat	-10.8881
▁stee	-10.8882
▁jun	-10.8892
paik	-10.8902
▁appu	-10.8913
▁uin	-10.8921
▁ääv	-10.8943
▁uihk	-10.8956
▁utuv	-10.8973
▁1.	-10.8973
▁uki	-10.8987
▁ppu	-10.8988
▁noj	-10.899
▁tajia	-10.8992
▁sor	-10.9002
▁Elo	-10.9013
▁inki	-10.9014
▁pot	-10.9016
▁line	-10.9024
▁pir	-10.9025
▁auhe	-10.9053
▁iro	-10.9061
▁ouis	-10.9086
▁dossa	-10.9089
4,	-10.9095
▁omin	-10.9101
▁nutta	-10.9103
ach	-10.9111
▁erve	-10.9143
▁kij	-10.9154
▁uuma	-10.9163
▁nnu	-10.9195
▁yä	-10.92
▁ttei	-10.9207
▁Air	-10.9212
▁Hal	-10.9214
▁otka	-10.9214
▁jut	-10.9236
▁rö	-10.9244
auti	-10.9249
▁oteu	-10.925
▁ruok	-10.9252
▁onka	-10.9252
▁aksu	-10.9256
▁Net	-10.9256
▁Colo	-10.9258
▁ald	-10.9272
▁öit	-10.9277
▁iov	-10.9278
▁Los	-10.9278
▁hal	-10.9282
uver	-10.93
▁entt	-10.9306
▁itus	-10.9308
▁fto	-10.9314
▁lemp	-10.9323
▁red	-10.9328
▁aisee	-10.933
▁öö	-10.9337
▁rvo	-10.9346
▁osia	-10.9348
▁€	-10.9364
▁Ras	-10.9368
▁oun	-10.9369
▁reh	-10.9375
▁agg	-10.9382
▁nilla	-10.9384
▁joit	-10.9397
▁uisk	-10.9402
▁45	-10.9415
▁autt	-10.9419
▁kiek	-10.9423
▁kauk	-10.9431
▁uti	-10.9437
▁inja	-10.9437
▁aski	-10.9452
▁läp	-10.9465
5,	-10.9485
▁ärä	-10.949
▁yttää	-10.9494
▁unu	-10.9498
▁ntav	-10.951
▁unto	-10.9515
▁itte	-10.9525
▁rto	-10.9528
▁oru	-10.953
▁keen	-10.9548
▁Hall	-10.9563
▁nuo	-10.957
▁ish	-10.9575
cia	-10.9579
▁taho	-10.9599
▁ric	-10.9605
▁miä	-10.9607
▁äistä	-10.9607
▁tiik	-10.9613
▁hta	-10.9615
▁tiö	-10.9615
▁umpp	-10.962
å	-10.9626
▁dip	-10.9626
▁uvan	-10.9628
▁aken	-10.963
▁Sama	-10.9659
▁skin	-10.966
▁kuki	-10.9669
▁ce	-10.9675
▁seis	-10.9682
▁öistä	-10.9685
▁Turku	-10.9694
▁älk	-10.9697
▁ivo	-10.9708
▁Kuu	-10.9714
▁tra	-10.9725
▁emmi	-10.9727
aira	-10.9728
▁auni	-10.9731
▁oton	-10.9737
▁rien	-10.9753
▁Mal	-10.978
▁mik	-10.9781
▁upp	-10.9786
▁Sat	-10.9795
▁loku	-10.9804
▁koon	-10.9812
▁äen	-10.9813
▁ation	-10.9814
▁ido	-10.9828
▁eppo	-10.9831
▁ykyä	-10.9835
▁150	-10.9843
▁aama	-10.986
▁San	-10.9872
▁kaut	-10.9873
▁lause	-10.988
▁Karh	-10.9881
▁ehme	-10.9882
▁enki	-10.9884
▁GP	-10.9894
der	-10.9897
▁vits	-10.9908
iff	-10.9913
ild	-10.9921
▁udi	-10.9943
▁rans	-10.9944
▁Sel	-10.9966
▁eih	-10.9967
▁Kiur	-10.9975
▁iike	-10.9977
▁hdis	-10.9986
▁tter	-10.9992
▁västi	-10.9999
▁Terv	-11.0028
▁maid	-11.0032
▁aun	-11.0038
wa	-11.0048
▁pas	-11.005
▁urt	-11.0051
▁akkaa	-11.0056
ksy	-11.0063
▁kuum	-11.0095
▁räs	-11.0122
▁ieh	-11.0132
▁Mel	-11.0134
▁uks	-11.0135
ukki	-11.0146
▁helm	-11.0153
▁ekka	-11.0159
▁pit	-11.0169
▁Sh	-11.0172
▁atila	-11.0183
▁otia	-11.0184
▁eid	-11.0184
▁erge	-11.0211
▁last	-11.0212
▁nään	-11.0215
▁kiri	-11.0227
▁oder	-11.0237
▁mets	-11.0238
▁13.	-11.0238
▁Kim	-11.0241
▁jalla	-11.0243
dan	-11.0249
▁nuu	-11.025
▁das	-11.0262
▁aiki	-11.0267
▁usti	-11.0275
▁tref	-11.0281
▁11.	-11.0286
▁maja	-11.0291
▁uhte	-11.0295
▁JK	-11.0308
▁mällä	-11.0313
▁laus	-11.0313
▁mark	-11.0321
▁telun	-11.0332
▁kiin	-11.0336
▁kill	-11.0336
akki	-11.0341
▁nkki	-11.0343
▁ranc	-11.0347
▁kia	-11.0361
W	-11.0364
▁ush	-11.0364
▁olod	-11.0368
▁sse	-11.0372
▁firm	-11.0377
▁kkala	-11.0381
▁ärve	-11.04
▁kyk	-11.0401
▁ärk	-11.0411
MK	-11.0414
▁oud	-11.0417
▁Gol	-11.0427
▁ingi	-11.0427
▁yökk	-11.0429
▁saldo	-11.043
▁sken	-11.043
▁ruk	-11.0442
▁lys	-11.0447
▁täht	-11.0463
▁oito	-11.0467
▁ick	-11.0481
▁yötä	-11.0488
▁väs	-11.0491
▁Marc	-11.0496
▁rank	-11.0498
▁entti	-11.0505
▁kein	-11.0506
▁26	-11.0513
▁pui	-11.0536
eld	-11.0537
▁utua	-11.0539
eilu	-11.055
▁pät	-11.0552
70	-11.0552
▁tani	-11.0556
tš	-11.0561
▁iert	-11.0574
▁östä	-11.0578
▁äll	-11.0596
ulje	-11.0601
5	-11.0611
ü	-11.0617
▁rme	-11.0619
▁nkiin	-11.0623
▁alin	-11.0623
oeh	-11.0624
▁ntol	-11.064
änd	-11.065
▁Robi	-11.0654
pul	-11.0655
▁tro	-11.0662
▁̈	-11.0671
irmu	-11.0708
armo	-11.071
▁ötä	-11.0712
▁aill	-11.0722
▁NBA	-11.0726
old	-11.073
▁tissa	-11.0734
▁uod	-11.0757
▁aio	-11.0766
iver	-11.0775
▁ipä	-11.0814
▁eksa	-11.0821
▁Suz	-11.0826
olo	-11.0826
▁outo	-11.0826
ater	-11.085
▁arhu	-11.0852
▁uom	-11.0857
▁sito	-11.0872
▁lkka	-11.0876
▁ambu	-11.0877
▁sun	-11.0889
▁sellä	-11.089
▁ttori	-11.0891
▁pum	-11.091
▁apsi	-11.0932
▁12.	-11.0933
▁anan	-11.094
▁avol	-11.095
▁etin	-11.0953
▁hdys	-11.0961
▁Jan	-11.0962
▁ock	-11.0963
▁ild	-11.0992
▁lahja	-11.1002
▁nnos	-11.1007
eula	-11.1008
▁kevä	-11.1018
▁iisp	-11.1026
▁unnas	-11.1035
▁Th	-11.1044
,2	-11.1046
▁dyn	-11.1047
▁Ter	-11.1048
▁ukan	-11.1049
▁Gal	-11.1053
▁uome	-11.1058
▁urp	-11.1061
▁esäk	-11.1064
▁anin	-11.1066
▁Ö	-11.1076
▁neu	-11.1076
▁tyv	-11.1096
▁kyt	-11.1113
▁elly	-11.1116
▁der	-11.1121
pel	-11.1129
▁ppuun	-11.1131
▁elan	-11.1161
▁iehe	-11.1182
▁turma	-11.1194
▁amm	-11.1198
▁eiso	-11.1211
▁tuuri	-11.1214
▁öä	-11.1223
▁aimo	-11.1232
▁rkku	-11.1235
▁mass	-11.1255
▁Mac	-11.1284
▁Pan	-11.1288
ermo	-11.1294
▁gin	-11.1302
▁kam	-11.1305
▁temp	-11.1332
▁piin	-11.1345
▁AC	-11.1348
▁ymi	-11.135
▁elmä	-11.1351
▁risk	-11.1351
▁telmä	-11.1356
▁ävän	-11.1357
aast	-11.1365
▁uulo	-11.1365
▁auma	-11.1368
▁tapo	-11.1371
▁ulle	-11.1371
▁Pek	-11.1382
ojen	-11.1385
▁leve	-11.1386
ontr	-11.1393
▁SSS	-11.1395
▁ihe	-11.1397
▁iaan	-11.1409
▁auhu	-11.1412
▁prin	-11.1423
▁anom	-11.1425
▁onia	-11.1438
▁lok	-11.1439
▁äytä	-11.1448
▁ayne	-11.1457
▁iihe	-11.1468
40	-11.1494
▁von	-11.1499
▁show	-11.1505
▁tist	-11.151
▁IL	-11.1538
▁aavat	-11.1543
VP	-11.1543
▁mek	-11.1556
▁Grön	-11.1557
▁ulvi	-11.156
▁laut	-11.1565
▁iaali	-11.1575
▁32	-11.1576
▁28	-11.1581
▁LP	-11.1589
▁Rit	-11.1597
▁iot	-11.1603
▁levä	-11.1614
▁Will	-11.1654
▁omu	-11.1655
▁SE	-11.1663
▁Å	-11.1667
▁outh	-11.1668
▁esin	-11.1675
ney	-11.1676
▁uont	-11.1698
▁tteet	-11.1699
▁elit	-11.1701
▁outa	-11.1702
▁äytö	-11.1703
▁keit	-11.1713
▁700	-11.172
▁tso	-11.1725
▁Ajo	-11.1726
▁ulai	-11.1731
▁pua	-11.1733
▁rc	-11.1735
▁umis	-11.1742
▁34	-11.1758
▁arma	-11.176
▁alki	-11.1771
▁ach	-11.1774
▁kassa	-11.1779
▁öllä	-11.1785
▁ivoi	-11.182
▁ysä	-11.1831
▁ävi	-11.1833
▁västä	-11.1835
▁ranni	-11.1837
▁glo	-11.1838
▁eura	-11.1845
▁Tero	-11.1848
▁hom	-11.185
ukar	-11.1856
▁korv	-11.1882
▁summa	-11.1885
▁viho	-11.1886
▁akon	-11.1888
▁ukas	-11.1898
▁rajo	-11.1904
▁oda	-11.1906
▁36	-11.1921
60	-11.1926
▁sus	-11.1933
▁irin	-11.1937
▁hdi	-11.1962
▁app	-11.1974
ahka	-11.1978
80	-11.1988
▁liput	-11.2013
▁rää	-11.2015
▁audi	-11.2023
▁eine	-11.2029
▁aato	-11.2047
▁dist	-11.2054
▁toh	-11.2059
▁stys	-11.2063
▁uhla	-11.2064
ttäm	-11.2067
▁talla	-11.208
▁yrki	-11.2095
▁hie	-11.2095
▁Group	-11.2118
▁16.	-11.2124
▁leip	-11.2134
▁niit	-11.2135
▁ekn	-11.2152
▁eck	-11.2174
rag	-11.2185
▁leht	-11.2187
▁erv	-11.2189
▁iest	-11.2194
,3	-11.2196
▁lun	-11.2214
▁Mont	-11.2239
▁arce	-11.224
▁raut	-11.2241
▁hau	-11.2243
oz	-11.225
▁äj	-11.2259
10	-11.2273
▁uokk	-11.2287
▁nnat	-11.2297
▁ulva	-11.2302
▁kist	-11.2333
▁ukku	-11.2342
▁teek	-11.2346
▁ZUMA	-11.2351
▁Traf	-11.2355
▁ning	-11.2356
▁kosta	-11.2384
▁res	-11.2393
▁sein	-11.2397
▁leim	-11.2402
▁andy	-11.2404
▁;	-11.241
▁kara	-11.2411
▁des	-11.2411
▁14.	-11.2418
▁Rint	-11.2421
▁hir	-11.2423
▁che	-11.243
▁alb	-11.244
▁ikro	-11.2442
▁ipp	-11.2457
▁erh	-11.2469
▁kave	-11.2471
▁kana	-11.2478
▁mea	-11.2479
▁ngo	-11.2479
▁neil	-11.2513
▁ville	-11.2523
▁del	-11.2525
í	-11.2529
▁MTV	-11.253
▁keä	-11.2544
▁arp	-11.2548
▁inkku	-11.2552
▁liss	-11.2562
gas	-11.2564
▁ysy	-11.2564
▁mein	-11.2584
▁Fox	-11.259
▁Berl	-11.2591
▁å	-11.2595
▁PK	-11.2598
▁riem	-11.2603
▁vista	-11.2625
▁gh	-11.2632
off	-11.2643
▁ü	-11.2648
▁sohv	-11.265
▁38	-11.2653
▁2.	-11.266
▁nnät	-11.267
▁eessä	-11.2674
▁laiv	-11.2674
▁ones	-11.2692
▁jaus	-11.2699
▁neksi	-11.2701
▁29	-11.2713
▁sum	-11.2719
▁ulut	-11.2722
▁urgh	-11.2722
▁20.	-11.2731
▁7.	-11.2756
▁nok	-11.2789
▁emok	-11.279
▁palj	-11.2795
▁Wilm	-11.2806
▁ämpö	-11.2808
aff	-11.2808
▁eää	-11.2819
▁33	-11.2834
▁yjä	-11.2836
▁uPS	-11.2837
wood	-11.2838
▁15.	-11.2847
,7	-11.2847
▁iepp	-11.2861
▁mith	-11.2861
▁Mag	-11.288
▁ves	-11.2881
▁tke	-11.2895
▁eppi	-11.2896
▁vaar	-11.29
▁urg	-11.2902
ippa	-11.291
,6	-11.2913
▁poo	-11.2925
▁aah	-11.2925
▁oogl	-11.296
▁uinti	-11.2962
▁lix	-11.2964
▁rti	-11.2969
cL	-11.2987
▁ämp	-11.299
▁lack	-11.2998
estä	-11.3007
▁asin	-11.3014
▁tteen	-11.3015
о	-11.3022
▁pail	-11.3033
▁Aho	-11.3042
efa	-11.3049
▁lmi	-11.3051
▁Ex	-11.3056
▁Yö	-11.3069
▁kio	-11.3071
▁gen	-11.3087
onku	-11.3091
▁din	-11.3122
▁aneet	-11.3137
X	-11.3145
▁18.	-11.3156
▁irjo	-11.3157
▁eho	-11.3163
▁apo	-11.3176
▁Marg	-11.3181
▁kont	-11.3193
▁Ben	-11.3204
▁reita	-11.3204
▁lahj	-11.3224
▁telma	-11.3234
▁You	-11.3236
▁37	-11.3246
▁nge	-11.3248
▁lämä	-11.3253
▁uinn	-11.3263
oski	-11.3266
▁nille	-11.3279
▁isyys	-11.3283
▁Alb	-11.3283
▁17.	-11.3284
▁olan	-11.3289
ood	-11.3302
▁Suo	-11.3313
▁alkk	-11.3318
▁oten	-11.3331
▁ergi	-11.3346
▁rja	-11.3351
▁Cap	-11.3355
▁oot	-11.3399
▁lap	-11.3414
▁itaan	-11.3419
▁fin	-11.342
▁lava	-11.3455
▁utaa	-11.3457
▁wift	-11.3474
▁amuli	-11.3478
▁live	-11.3483
▁paus	-11.3484
▁eila	-11.3489
▁ahin	-11.3504
▁Yh	-11.3522
▁Met	-11.3524
▁eaa	-11.3536
▁onal	-11.3539
▁sui	-11.354
▁nurm	-11.3551
▁imu	-11.3552
▁äris	-11.357
▁pass	-11.3577
▁lian	-11.3579
▁5.	-11.3582
▁utto	-11.359
anja	-11.3619
ido	-11.3633
▁oppuu	-11.3634
▁ilai	-11.3646
raum	-11.3652
▁Via	-11.3653
▁apse	-11.3661
▁data	-11.3664
▁emus	-11.3681
▁ouse	-11.3685
▁uck	-11.3687
▁okem	-11.3704
utz	-11.3711
tum	-11.3722
▁JYP	-11.3741
▁Volv	-11.3741
▁rky	-11.3742
▁pul	-11.3755
▁ilas	-11.3763
▁enez	-11.3767
▁elem	-11.3779
sper	-11.3779
▁aassa	-11.3781
▁aren	-11.3781
▁ippa	-11.3782
▁uden	-11.3789
▁itts	-11.3805
▁puss	-11.3817
▁iesel	-11.382
▁semi	-11.3848
▁umu	-11.3857
▁Ars	-11.386
▁rand	-11.3864
ace	-11.387
▁ehm	-11.3876
а	-11.3878
ihk	-11.3881
▁rool	-11.3884
▁apeli	-11.3891
▁10.	-11.3896
▁tej	-11.3909
▁Lav	-11.3918
▁touh	-11.3956
▁äättä	-11.396
▁Cal	-11.3974
▁ansk	-11.3992
ijo	-11.4
▁myks	-11.4002
▁omio	-11.4003
▁*	-11.4016
▁65	-11.4021
,8	-11.4036
▁aaha	-11.4063
▁yny	-11.4068
▁oih	-11.4073
▁eople	-11.4086
▁Adam	-11.4087
äng	-11.4094
▁Gar	-11.4103
▁Ski	-11.4105
▁lim	-11.4119
▁olta	-11.4127
▁9.	-11.4135
▁pull	-11.4142
▁6.	-11.4144
▁etki	-11.4157
▁44	-11.4159
▁enla	-11.419
▁muod	-11.4193
▁uukka	-11.4197
▁änni	-11.4203
▁agne	-11.4206
▁250	-11.422
▁jall	-11.4246
▁viik	-11.4267
näkö	-11.4271
▁aska	-11.4272
▁Eg	-11.4277
▁käl	-11.428
▁ntek	-11.4308
▁uhan	-11.4308
▁äke	-11.4312
▁läk	-11.4328
▁essu	-11.4336
▁Gold	-11.4347
▁8.	-11.4354
▁lga	-11.4355
▁kood	-11.4359
▁sista	-11.436
▁iivo	-11.4362
▁75	-11.4368
▁asse	-11.4373
▁Cor	-11.4375
ünch	-11.4379
▁iber	-11.4383
itio	-11.4396
▁ioo	-11.4406
▁KU	-11.4412
aunu	-11.442
▁Wall	-11.4427
▁lot	-11.4431
eder	-11.445
▁missa	-11.4457
▁4.	-11.4473
▁lip	-11.4485
▁Wil	-11.4487
▁ire	-11.4489
▁eat	-11.449
▁cha	-11.451
▁19.	-11.4521
eck	-11.458
▁Ren	-11.4589
▁@	-11.459
▁sity	-11.4599
▁hke	-11.4616
▁imaan	-11.4633
▁eise	-11.465
н	-11.4664
▁TK	-11.4681
tch	-11.4682
ukka	-11.4684
▁39	-11.4695
▁ieme	-11.47
▁Mah	-11.4731
▁ittää	-11.474
ux	-11.474
▁ioita	-11.4741
▁itio	-11.4748
▁47	-11.4748
▁Win	-11.4756
▁odel	-11.4784
lerc	-11.481
е	-11.4814
▁Wood	-11.4819
▁bam	-11.4819
▁sso	-11.4824
▁Kirs	-11.4848
и	-11.4889
▁21.	-11.4894
▁tuja	-11.4901
▁30.	-11.4907
▁ajia	-11.4931
▁3.	-11.4956
▁auho	-11.4964
▁55	-11.4968
▁aajo	-11.4974
▁urger	-11.4974
erem	-11.4982
▁oul	-11.4997
▁Aut	-11.5009
▁ijat	-11.5011
tra	-11.5018
gent	-11.5019
inni	-11.5026
▁jär	-11.5066
▁div	-11.5076
ttäv	-11.508
▁Oma	-11.5084
▁isnes	-11.5124
▁23.	-11.5125
tiiv	-11.5144
▁Kans	-11.5146
▁talv	-11.5173
▁rba	-11.5193
▁oron	-11.5195
ž	-11.5198
▁>	-11.5198
RC	-11.5202
▁22.	-11.5203
▁liuk	-11.5228
pum	-11.5232
▁lisa	-11.5235
▁vihj	-11.5236
▁riid	-11.5237
▁yyp	-11.5242
▁Maj	-11.5242
▁rio	-11.5248
olz	-11.5256
▁oukk	-11.5259
atti	-11.5262
skal	-11.5263
▁almen	-11.5268
▁Noor	-11.5285
hker	-11.5288
▁umpi	-11.5288
eisö	-11.5296
dor	-11.5315
olar	-11.5318
aasu	-11.5333
▁turv	-11.5343
▁Ess	-11.5348
▁Las	-11.5348
lppi	-11.5349
ó	-11.6015
ø	-11.672
?	-11.69
Z	-11.69
á	-11.7083
%	-11.7184
Ä	-11.728
т	-11.7678
+	-11.7877
р	-11.7881
■	-11.8626
/	-11.8733
л	-12.0177
0	-12.0582
Q	-12.1855
ë	-12.2653
è	-12.466
д	-12.466
у	-12.466
č	-12.5072
с	-12.7432
"	-12.7432
г	-12.7436
ы	-12.8564
я	-12.8564
_	-12.8867
Ã	-12.9502
â	-12.9502
!	-13.0176
¤	-13.0537
ã	-13.1292
ú	-13.1292
à	-13.1692
б	-13.2109
ć	-13.2109
й	-13.2109
ł	-13.2543
ь	-13.2998
§	-13.3474
з	-13.3974
ç	-13.4501
·	-13.5056
æ	-13.5056
ч	-13.5056
в	-13.564
ý	-13.5644
ю	-13.6269
Ö	-13.6932
ï	-14.0162
*	-14.1158
'	-14.1158
×	-14.1162
Ü	-14.1162
ô	-14.1162
ř	-14.1162
ð	-14.2273
ń	-14.2273
х	-14.2273
ж	-14.2273
Č	-14.3523
ě	-14.3523
	-14.4952
ê	-14.4952
°	-14.4952
©	-14.6618
‒	-14.6618
ă	-14.8618
Õ	-14.8618
Ú	-14.8618
ė	-14.8618
́	-14.8618
>	-15.1114
]	-15.1114
€	-15.1114
	-15.1118
Ç	-15.1118
ß	-15.1118
ò	-15.1118
ı	-15.1118
А	-15.1118
‐	-15.1118
ā	-15.1118
ū	-15.1118
Æ	-15.4452
Í	-15.4452
Þ	-15.4452
ō	-15.4452
ț	-15.4452
α	-15.4452
●	-15.4452
Š	-15.9448
­	-15.9448
ŏ	-15.9452
$	-15.9452
\	-15.9452
`	-15.9452
¶	-15.9452
İ	-15.9452
ň	-15.9452
œ	-15.9452
ş	-15.9452
ů	-15.9452
ə	-15.9452
˗	-15.9452
Н	-15.9452
‰	-15.9452
′	-15.9452
⁣	-15.9452
ż	-15.9452
Ж	-15.9452
Л	-16.9413
И	-16.9414
Ó	-16.9415
À	-16.9416
Ш	-16.9417
К	-16.9418
⭐	-16.9419
•	-16.942
э	-16.9421
ф	-16.9422
Б	-16.9423
μ	-16.9424
ē	-16.9425
щ	-16.9426
ш	-16.9427
ņ	-16.9428
П	-16.9429
Ф	-16.943
С	-16.9431
ц	-16.9432
В	-16.9433
Ø	-16.9434
<	-16.9435
õ	-16.9436
Ž	-16.9437
É	-16.9438
Á	-16.9439
ğ	-16.944
⁄	-16.9441
м	-16.9442
★	-16.9443
п	-16.9444
#	-16.9445
к	-16.9446
ñ	-16.9447
−	-16.9448
;	-16.9448
Å	-16.9448
@	-16.9449
̈	-16.945
[	-16.9451
~	-16.9452
	-16.9452
¡	-16.9452
®	-16.9452
±	-16.9452
Â	-16.9452
Ò	-16.9452
Û	-16.9452
ì	-16.9452
î	-16.9452
ÿ	-16.9452
ą	-16.9452
đ	-16.9452
ę	-16.9452
ģ	-16.9452
ī	-16.9452
ľ	-16.9452
Ł	-16.9452
ś	-16.9452
ų	-16.9452
ź	-16.9452
ǎ	-16.9452
Ș	-16.9452
ș	-16.9452
Д	-16.9452
З	-16.9452
Э	-16.9452
ỏ	-16.9452
ố	-16.9452
‍	-16.9452
∞	-16.9452
😂	-16.9452
û	-16.9452
Ķ	-16.9452
(	-16.9452
О	-16.9452
Т	-16.9452
