<unk>	0
<s>	0
</s>	0
n	-3.05667
a	-3.62289
.	-3.69909
▁.	-4.13881
,	-4.188
t	-4.20073
▁,	-4.29363
▁ja	-4.31407
▁on	-4.37042
i	-4.59172
en	-4.79026
ssa	-4.83155
▁	-4.87981
ä	-4.90807
in	-4.91846
sta	-5.05932
-	-5.07436
s	-5.17077
▁että	-5.27465
ta	-5.38916
▁ei	-5.42546
▁-	-5.46558
lla	-5.51681
an	-5.52385
lle	-5.54945
e	-5.57575
▁oli	-5.59794
u	-5.77236
ksi	-5.85556
▁a	-5.8647
ja	-5.86516
si	-5.93346
:	-5.98108
▁mukaan	-5.98984
▁n	-5.99224
o	-6.01936
ssä	-6.09472
▁hän	-6.09943
▁se	-6.10024
vat	-6.10904
▁ole	-6.15084
▁myös	-6.15411
y	-6.16022
sti	-6.17276
▁jo	-6.18029
stä	-6.21023
nen	-6.21353
nut	-6.23738
ko	-6.24917
▁ovat	-6.2936
▁"	-6.31368
▁mutt	-6.32309
h	-6.34697
▁kun	-6.35566
llä	-6.42349
tu	-6.43281
r	-6.44563
va	-6.46145
▁voi	-6.48024
to	-6.48357
maan	-6.49953
l	-6.5052
us	-6.51503
la	-6.52587
inen	-6.53977
ke	-6.5625
ri	-6.58041
nsa	-6.61277
ka	-6.61408
tti	-6.61634
ista	-6.62517
kin	-6.63982
▁ollut	-6.64125
▁in	-6.64296
▁Hän	-6.66609
▁tai	-6.67626
m	-6.68099
te	-6.68471
ti	-6.685
▁kertoo	-6.70352
li	-6.73556
▁t	-6.75553
▁joka	-6.77531
nyt	-6.77714
d	-6.78112
tä	-6.785
ma	-6.78717
tta	-6.78761
lta	-6.78822
on	-6.79346
pa	-6.79612
▁sen	-6.8159
▁an	-6.82026
ki	-6.82084
iden	-6.82142
▁jälkeen	-6.82578
vi	-6.82782
vät	-6.8299
mi	-6.83055
et	-6.84149
▁kuin	-6.85162
k	-6.85201
▁kanssa	-6.86184
▁(	-6.86335
▁:	-6.8802
▁niin	-6.9116
▁A	-6.91834
▁Se	-6.93501
▁ta	-6.94066
sa	-6.95231
ra	-6.95257
än	-6.95693
is	-6.9592
▁olisi	-6.96632
sen	-6.9749
mme	-6.98029
ten	-6.99115
issa	-6.99367
kä	-7.00472
▁Suomen	-7.02307
re	-7.03716
▁vuonna	-7.03922
▁sanoo	-7.04645
▁kin	-7.05341
minen	-7.08073
▁kuitenk	-7.08261
neet	-7.08374
▁en	-7.09356
p	-7.09549
ö	-7.12066
un	-7.14683
▁saa	-7.148
ro	-7.15757
▁Venäjä	-7.15974
▁viime	-7.16055
le	-7.16517
)	-7.17241
jen	-7.17594
▁olla	-7.17913
ttu	-7.18495
▁sekä	-7.18705
vä	-7.20573
▁nyt	-7.21753
ve	-7.22518
▁vielä	-7.22566
ty	-7.23514
▁S	-7.23674
ku	-7.23713
▁sta	-7.23748
ita	-7.23774
▁sa	-7.25658
kka	-7.26672
▁yli	-7.26919
▁vuoden	-7.27625
▁kertoi	-7.28111
mo	-7.2973
isi	-7.3031
▁vain	-7.3089
lo	-7.31732
ut	-7.33322
▁O	-7.33639
▁si	-7.34117
▁ko	-7.3441
▁siitä	-7.34666
▁lle	-7.35851
▁sanoi	-7.36517
kki	-7.37395
den	-7.38613
▁sai	-7.39342
aan	-7.3961
▁sitä	-7.41146
jä	-7.42357
illa	-7.42443
ille	-7.43543
▁aikana	-7.44498
▁?	-7.45212
▁ne	-7.45286
ttiin	-7.46467
▁E	-7.46666
▁noin	-7.47556
▁jossa	-7.48406
taan	-7.48576
▁eri	-7.49316
g	-7.49721
▁pää	-7.50368
isen	-7.50418
▁ä	-7.50686
0	-7.50884
▁ma	-7.50949
▁paljon	-7.5177
▁häne	-7.52278
ihin	-7.52553
▁e	-7.53751
▁ennen	-7.53979
▁tu	-7.54555
de	-7.5503
lu	-7.55333
▁eivät	-7.55704
▁sitten	-7.56171
▁sillä	-7.5641
istä	-7.56765
▁he	-7.57499
pu	-7.57901
nsä	-7.58195
▁hyvin	-7.58653
▁koko	-7.59306
se	-7.59462
▁kaikki	-7.59867
▁osa	-7.60369
▁jos	-7.61194
▁ettei	-7.6126
▁kaksi	-7.61703
▁I	-7.622
▁muun	-7.6234
▁te	-7.62626
ho	-7.62667
▁mua	-7.63128
▁i	-7.63982
▁eli	-7.64367
▁pa	-7.65547
mään	-7.65698
▁la	-7.6574
▁Ra	-7.65895
▁ni	-7.66238
▁yksi	-7.66278
▁esimerkiksi	-7.66323
▁lla	-7.6688
▁hyvä	-7.67415
sto	-7.67687
▁me	-7.6776
▁tulee	-7.67922
▁itse	-7.6814
▁tuli	-7.69012
tiin	-7.69668
pi	-7.69926
mis	-7.70479
▁työ	-7.70566
▁000	-7.71693
mpi	-7.71821
neen	-7.72514
▁Pa	-7.72553
er	-7.72691
▁mitä	-7.73426
ha	-7.73459
pe	-7.7348
v	-7.73679
tus	-7.73688
▁pitää	-7.73689
▁jotk	-7.73972
▁ku	-7.74251
mista	-7.74859
da	-7.75272
▁euroa	-7.75946
▁olivat	-7.76089
▁mies	-7.76198
▁aika	-7.76301
▁s	-7.76385
▁vuotta	-7.76668
ksen	-7.76844
2	-7.77311
▁toimi	-7.77518
kko	-7.77606
ltä	-7.77674
ttä	-7.77701
▁jonk	-7.77858
▁vastaan	-7.77944
me	-7.78013
▁ssa	-7.78559
▁K	-7.78573
man	-7.78653
▁auto	-7.787
▁vasta	-7.78781
▁Ja	-7.78886
▁Kun	-7.7913
ll	-7.79485
▁Jos	-7.79487
▁määrä	-7.79826
ia	-7.79869
▁ista	-7.79916
f	-7.80305
▁aina	-7.80966
▁ksi	-7.81814
it	-7.82336
▁pi	-7.82522
essä	-7.84466
po	-7.84538
▁maan	-7.84908
▁jää	-7.84991
jo	-7.85292
▁Mi	-7.85374
▁Poliisi	-7.86405
▁tuo	-7.86717
mä	-7.87182
▁Ei	-7.87509
▁kolme	-7.87889
lais	-7.88154
van	-7.88229
c	-7.88374
▁Jo	-7.8846
5	-7.88813
▁ka	-7.9064
▁Suomessa	-7.90907
▁vaikka	-7.91535
▁lisää	-7.91567
isesti	-7.92556
▁u	-7.92684
▁tämä	-7.92758
▁koska	-7.9325
▁illa	-7.93584
▁ra	-7.942
▁ille	-7.94234
tty	-7.94245
▁He	-7.94981
▁oma	-7.95096
vo	-7.95141
▁peli	-7.96028
▁ajan	-7.96111
▁koti	-7.96383
di	-7.96889
▁ensi	-7.96908
ur	-7.97845
▁La	-7.98188
▁tämän	-7.98198
▁na	-7.98319
▁En	-7.98671
▁le	-7.98745
▁T	-7.98929
▁presidentti	-7.99578
▁Ta	-7.99589
▁poliisi	-8.00256
▁maa	-8.00358
▁aiemmin	-8.00451
▁siihen	-8.00488
▁Myös	-8.00726
▁F	-8.00784
su	-8.00894
▁ha	-8.01147
ste	-8.01315
▁Tämä	-8.01466
▁tä	-8.01568
▁Si	-8.02106
S	-8.02253
do	-8.02434
▁Ko	-8.02727
▁P	-8.02803
▁enemmän	-8.03159
▁Ro	-8.03391
▁vi	-8.03396
▁Ri	-8.03422
ise	-8.03807
▁Kuva	-8.03883
▁Li	-8.0418
▁tällä	-8.04206
llis	-8.04257
vuotias	-8.04316
▁Sa	-8.04474
▁Suomi	-8.04697
▁vuosi	-8.05315
▁mme	-8.05445
z	-8.05554
▁Nyt	-8.05954
▁C	-8.06639
▁kertaa	-8.06703
nne	-8.0686
▁vaan	-8.07166
▁pe	-8.07693
▁miten	-8.07828
maa	-8.0827
▁Vi	-8.08391
▁pois	-8.09042
▁uusi	-8.09209
▁k	-8.09233
3	-8.0956
▁kommentoi	-8.09637
ili	-8.1023
▁arvo	-8.1061
b	-8.10644
▁ri	-8.10921
▁iso	-8.10982
▁mikä	-8.1121
▁ihan	-8.11541
j	-8.11606
ssi	-8.11641
lainen	-8.11763
▁koulu	-8.11819
▁palvelu	-8.12003
▁Ke	-8.12033
▁U	-8.12121
▁MM	-8.12366
▁päivä	-8.12501
uksia	-8.12678
▁Ku	-8.12867
▁ki	-8.12952
▁mitään	-8.13202
hti	-8.13495
llinen	-8.1389
▁Le	-8.14147
ttaa	-8.14521
ttava	-8.14603
▁luo	-8.14699
▁pu	-8.14733
▁ase	-8.14946
▁Me	-8.15177
▁hi	-8.15352
▁issa	-8.15701
▁su	-8.15874
misen	-8.15997
ppi	-8.16691
or	-8.16715
1	-8.16818
lli	-8.16857
A	-8.17529
▁olevan	-8.17663
▁Ukrainan	-8.17895
ään	-8.17906
ön	-8.18325
kke	-8.18529
seen	-8.1856
▁teki	-8.18589
kku	-8.18698
▁/	-8.18843
▁prosenttia	-8.19277
ng	-8.19656
▁seura	-8.19734
▁kello	-8.19889
mu	-8.2008
tään	-8.20479
▁Helsingin	-8.205
▁tehdä	-8.20665
▁re	-8.20711
▁20	-8.20717
▁1	-8.20842
▁Yle	-8.20857
os	-8.21138
▁kyse	-8.21178
▁enää	-8.2162
ikka	-8.21903
▁o	-8.22259
4	-8.22609
▁Te	-8.22812
▁syy	-8.22854
▁2	-8.23141
ellä	-8.2315
el	-8.23328
hi	-8.23472
▁aikaa	-8.23555
essa	-8.23672
▁­	-8.23771
lan	-8.23933
oi	-8.24225
kään	-8.24264
▁käy	-8.24286
▁".	-8.24537
▁Pi	-8.25081
▁Ruotsi	-8.25107
mm	-8.25158
▁On	-8.25571
ys	-8.25603
▁Su	-8.25642
▁10	-8.25715
▁Tu	-8.25916
▁mi	-8.26007
▁Lisä	-8.26304
al	-8.26462
teen	-8.26518
▁asia	-8.26522
kseen	-8.26744
utu	-8.27158
▁isi	-8.27417
tettiin	-8.27529
ju	-8.27989
issä	-8.28449
▁raja	-8.28454
▁To	-8.28728
▁henkilö	-8.28791
▁4	-8.29401
▁V	-8.29516
▁B	-8.29543
P	-8.29623
▁kiinni	-8.2965
lä	-8.29697
ji	-8.29928
▁pari	-8.30046
▁puolesta	-8.30212
▁lisäks	-8.30319
ilu	-8.30479
▁va	-8.30494
▁todella	-8.3065
"	-8.30699
▁saanut	-8.30773
▁kauden	-8.30795
massa	-8.30925
▁moni	-8.30966
▁M	-8.31143
▁to	-8.31338
▁ero	-8.3138
tys	-8.3157
T	-8.31788
­	-8.323
isiin	-8.32459
▁kirja	-8.32545
▁lisä	-8.32655
sä	-8.32936
▁Mu	-8.33028
K	-8.33069
▁Trump	-8.33413
kaan	-8.33524
tte	-8.33687
▁Ni	-8.33963
▁vuoksi	-8.34024
▁so	-8.34144
▁arvioi	-8.35025
▁kautta	-8.35378
▁puoli	-8.35393
▁y	-8.35482
▁!	-8.35695
he	-8.35762
ck	-8.35941
tettu	-8.35953
via	-8.36197
▁Ne	-8.36411
ge	-8.36544
▁ollee	-8.36891
▁käsi	-8.37304
men	-8.37519
▁usko	-8.3757
ska	-8.37697
8	-8.37752
illä	-8.38011
mmi	-8.38179
▁vara	-8.38293
kas	-8.38385
▁tässä	-8.38486
▁kar	-8.38487
▁EU	-8.38674
ude	-8.38882
ch	-8.38933
▁Lu	-8.39018
▁vie	-8.39173
▁vähän	-8.3922
utta	-8.39281
io	-8.39502
ce	-8.39523
nti	-8.39582
▁G	-8.39852
▁jä	-8.39996
▁Nato	-8.40185
6	-8.40226
▁loppu	-8.40252
mmin	-8.40603
w	-8.40678
▁mukana	-8.40834
uksen	-8.41156
▁kute	-8.41341
▁N	-8.41556
▁tullut	-8.41648
▁juuri	-8.41788
han	-8.42175
▁neljä	-8.42177
▁hetkellä	-8.42199
▁Sen	-8.42218
▁jäi	-8.42428
kö	-8.4263
▁So	-8.4267
▁johtaja	-8.42834
▁Stubb	-8.43059
▁aikaan	-8.43099
▁tilanne	-8.43182
je	-8.43373
▁Pe	-8.43566
vu	-8.43591
▁vat	-8.43782
ppa	-8.43805
▁3	-8.43916
▁tila	-8.43924
▁voisi	-8.4423
▁lta	-8.44282
▁var	-8.4455
▁Al	-8.44818
▁siinä	-8.44918
▁puheenjohtaja	-8.44963
▁väli	-8.45064
ks	-8.45065
▁lähes	-8.45498
▁än	-8.45724
▁kuva	-8.45881
itä	-8.46023
▁joukkue	-8.46061
isia	-8.463
▁ilma	-8.46312
▁Ka	-8.46376
▁Ilta	-8.46505
▁ise	-8.46534
▁sä	-8.4674
▁pitäisi	-8.46759
▁jen	-8.4691
▁Viime	-8.46996
▁joten	-8.47038
▁asti	-8.47264
▁ke	-8.47296
▁0	-8.47392
▁Mo	-8.47438
▁pysty	-8.48066
▁saada	-8.48817
▁taas	-8.49315
▁2023	-8.49331
▁kaudella	-8.49332
▁oleva	-8.49397
rin	-8.49486
ski	-8.49694
▁edelleen	-8.5
ry	-8.50089
▁toinen	-8.50105
▁Ho	-8.50115
▁nä	-8.50224
mpaa	-8.50334
▁takia	-8.50371
▁ty	-8.50431
▁ilta	-8.50548
misesta	-8.50596
ella	-8.50739
▁ia	-8.50757
▁perhe	-8.50877
▁mu	-8.50985
▁Ma	-8.51141
▁Ju	-8.51204
▁tavalla	-8.51326
▁tapahtuma	-8.51488
▁ilman	-8.51494
es	-8.51638
kaa	-8.51872
▁Ar	-8.51886
▁kilpailu	-8.51947
▁mielestä	-8.52348
▁puhu	-8.52432
▁Re	-8.52569
▁mone	-8.52625
▁heidä	-8.52745
▁uuden	-8.52762
▁viesti	-8.53091
▁Ve	-8.53183
▁Olen	-8.53225
isten	-8.53246
▁pelaaja	-8.53329
kan	-8.5335
▁alueella	-8.53418
▁alue	-8.53519
▁f	-8.53912
ar	-8.5392
▁5	-8.54134
▁asu	-8.54199
▁alle	-8.54424
▁miehen	-8.54538
ton	-8.54569
lin	-8.5522
▁Na	-8.55271
▁Pohjois	-8.55346
▁mä	-8.55653
▁al	-8.55819
▁30	-8.55833
▁Trumpin	-8.5608
▁po	-8.56097
L	-8.56106
▁ru	-8.56174
▁Va	-8.56208
▁urheilu	-8.56341
▁siis	-8.56632
▁Yhdysvaltain	-8.56858
▁tehtävä	-8.56919
▁tosi	-8.56937
vansa	-8.57624
▁voitti	-8.57638
▁meni	-8.57752
▁kesä	-8.57975
▁Näin	-8.5807
kse	-8.58126
▁media	-8.58142
▁ala	-8.58159
▁yhdessä	-8.58645
▁stä	-8.58654
rk	-8.58693
▁No	-8.58727
x	-8.58758
hu	-8.58823
▁perjantaina	-8.59015
▁Ha	-8.59031
▁R	-8.59197
▁X	-8.59256
7	-8.59267
M	-8.593
▁Y	-8.59419
▁näin	-8.59478
▁päästä	-8.59532
▁9	-8.59623
▁sähkö	-8.59822
ru	-8.60149
▁Hu	-8.60176
tila	-8.60515
ttää	-8.60963
▁miljoonaa	-8.61331
▁li	-8.61354
▁Hi	-8.61544
▁alkoi	-8.619
▁ti	-8.61924
▁NHL	-8.61931
ilta	-8.6197
▁lauantaina	-8.62255
ol	-8.62338
▁)	-8.62368
▁8	-8.62377
miseen	-8.62433
▁tieto	-8.62704
▁toisen	-8.63042
▁nsa	-8.6333
▁hallituksen	-8.63356
▁viikolla	-8.63525
ba	-8.63949
il	-8.6414
ttävä	-8.64468
▁puolustus	-8.64619
▁Tä	-8.64783
▁epä	-8.64833
een	-8.64849
▁kuinka	-8.64933
▁kirjoittaa	-8.65056
▁hieman	-8.65064
uk	-8.6517
▁ensimmäisen	-8.65276
▁välillä	-8.65313
▁val	-8.65388
▁niitä	-8.65394
▁heti	-8.65415
sia	-8.65478
▁edes	-8.6557
▁vaali	-8.6558
▁L	-8.65591
▁kaupungin	-8.65672
▁Oulun	-8.65721
▁Po	-8.65749
▁vai	-8.65761
oja	-8.65866
▁kuoli	-8.65944
▁suuri	-8.66039
▁ryhmä	-8.66115
ettu	-8.66245
▁kisa	-8.66296
▁nosta	-8.66509
▁sää	-8.66541
▁mo	-8.66659
▁alkaa	-8.66693
▁joita	-8.66781
▁juhli	-8.67073
▁tehnyt	-8.67276
talo	-8.673
▁linja	-8.67538
ttäin	-8.67557
▁kahden	-8.67578
▁IS	-8.67709
9	-8.67869
tteli	-8.68022
▁muut	-8.68067
I	-8.68294
▁tänä	-8.68309
▁yhden	-8.68435
▁Ukraina	-8.68547
▁ottelu	-8.68622
▁täysin	-8.68622
▁lo	-8.68643
tava	-8.68681
▁19	-8.68852
▁hallitus	-8.69165
▁kerran	-8.69402
▁Asia	-8.69434
▁piti	-8.69587
▁keski	-8.69629
▁Euroopan	-8.69721
▁sama	-8.69771
▁häntä	-8.69898
▁sy	-8.7
▁myöhemmin	-8.70093
▁poika	-8.7015
▁kyllä	-8.70232
bi	-8.70341
▁ihin	-8.70418
▁kävi	-8.70467
▁Lo	-8.70623
aika	-8.70635
▁toi	-8.70738
ga	-8.71032
▁useita	-8.71104
lleen	-8.71207
▁Ba	-8.71209
C	-8.71383
▁maailman	-8.71465
▁et	-8.71715
hin	-8.71841
▁torstaina	-8.71901
▁jatkaa	-8.72022
▁keskustelu	-8.72286
▁perus	-8.72288
▁otti	-8.72367
▁nousi	-8.72495
▁Oli	-8.72543
mistä	-8.72581
▁ratkaisu	-8.72749
▁pitä	-8.72782
▁vero	-8.72796
▁J	-8.72823
▁muu	-8.72943
▁jota	-8.72981
▁tulla	-8.73002
▁video	-8.73222
▁kau	-8.7324
▁hu	-8.73302
▁kova	-8.73427
▁isku	-8.73434
▁halua	-8.73471
▁Salon	-8.73505
kset	-8.73539
▁isä	-8.73843
▁15	-8.74045
▁näyttää	-8.74064
▁Co	-8.74215
▁osallistu	-8.74397
▁tiistaina	-8.74566
▁Pu	-8.74736
▁matka	-8.74837
▁ainak	-8.74849
▁maanantaina	-8.74925
▁aiva	-8.75134
iset	-8.75135
▁turva	-8.75159
▁laske	-8.75223
▁tehty	-8.75317
▁Ki	-8.7544
go	-8.755
▁Vaikka	-8.75527
▁keskiviikkona	-8.75626
ell	-8.75635
▁alussa	-8.75726
▁huono	-8.75791
mer	-8.7592
▁lä	-8.76097
▁asiaa	-8.76136
▁18	-8.76233
▁malli	-8.76234
▁11	-8.76282
▁euron	-8.76364
▁esi	-8.76431
▁silloin	-8.76482
▁Da	-8.76488
▁mahdollista	-8.76548
▁sunnuntaina	-8.76938
▁suomalais	-8.76948
▁ottaa	-8.76967
▁voivat	-8.77078
▁De	-8.77095
ik	-8.77127
▁12	-8.77222
▁Ru	-8.77258
uus	-8.77327
▁50	-8.77334
▁Kaikki	-8.7736
hde	-8.77511
▁alku	-8.77617
llaan	-8.77687
jien	-8.77694
▁de	-8.77748
▁ulko	-8.77841
osa	-8.77844
▁koskaan	-8.77861
tetty	-8.77929
▁läpi	-8.78123
▁sarja	-8.78137
▁pitkä	-8.78214
▁tasa	-8.78429
▁usein	-8.78487
▁raha	-8.78573
▁perusteella	-8.78691
sten	-8.78752
▁hä	-8.7879
▁toiminta	-8.78932
▁r	-8.78935
▁yhtä	-8.79091
▁toivo	-8.79111
▁Israelin	-8.79492
ff	-8.79556
teli	-8.79563
▁joulu	-8.79596
llista	-8.796
▁Suomeen	-8.7963
▁toteaa	-8.79762
▁liiga	-8.79789
berg	-8.79869
▁muutama	-8.79902
▁siellä	-8.80022
▁ihmise	-8.80104
▁laji	-8.80116
▁suur	-8.80131
▁sivu	-8.80444
▁nimi	-8.80599
▁asiasta	-8.80617
▁oman	-8.80626
▁teho	-8.80659
▁uhri	-8.80673
▁taso	-8.80729
▁tätä	-8.80805
▁hyväksy	-8.80828
▁pääsi	-8.81006
▁vaara	-8.81013
▁tulo	-8.81016
ps	-8.81019
▁yhä	-8.81153
▁paikka	-8.81259
▁vaikea	-8.81371
▁lu	-8.81535
bo	-8.81776
min	-8.8186
▁turvallisuus	-8.82006
tetaan	-8.82035
▁viikon	-8.82065
▁puu	-8.8221
gi	-8.82371
ky	-8.82375
kk	-8.8241
yn	-8.82597
isto	-8.82782
▁Yksi	-8.829
▁kulu	-8.82924
▁etu	-8.82978
▁valtio	-8.83133
▁tapahtui	-8.83262
▁ottelun	-8.83315
son	-8.83361
▁The	-8.83391
▁hänet	-8.8342
▁Etelä	-8.83422
▁tiedotteessa	-8.83455
▁ju	-8.83569
▁hinta	-8.83599
▁oikea	-8.83801
▁vii	-8.83991
▁ro	-8.84075
tää	-8.84086
▁p	-8.84158
ee	-8.84238
▁paino	-8.84308
▁ongelma	-8.84382
▁jatko	-8.84387
ot	-8.84434
▁2022	-8.84639
▁vesi	-8.84657
▁Häne	-8.84744
▁sijaan	-8.84985
ver	-8.84993
▁joukkueen	-8.85005
pp	-8.85018
dy	-8.8509
▁ensimmäinen	-8.8527
▁viisi	-8.85302
▁Maa	-8.85355
▁puolue	-8.8547
▁joissa	-8.85824
▁äiti	-8.85855
▁pääministeri	-8.8589
▁25	-8.85938
▁Lue	-8.86007
▁Voi	-8.86206
▁tie	-8.86317
▁Be	-8.86444
▁Mut	-8.86463
▁ihmistä	-8.86525
▁tarjo	-8.86572
▁vä	-8.86604
▁Mies	-8.86623
▁huippu	-8.86657
E	-8.86945
▁D	-8.86981
▁saattaa	-8.87052
▁13	-8.87095
R	-8.8714
▁vuosina	-8.87143
▁mukaansa	-8.87227
▁Bo	-8.873
▁Norja	-8.87353
▁Putin	-8.87472
▁kii	-8.87523
▁lai	-8.8758
▁nuori	-8.87602
nee	-8.87774
▁ensimmäise	-8.87801
▁liikku	-8.87838
▁yleisö	-8.87891
▁jälleen	-8.88184
iin	-8.88325
▁uutta	-8.88648
▁voima	-8.88739
▁lähti	-8.88757
O	-8.88803
▁maali	-8.88841
fi	-8.88961
▁nainen	-8.8904
▁iin	-8.89124
▁tänään	-8.89241
▁miljoona	-8.89527
ettiin	-8.89644
▁voitto	-8.89679
▁vaikuttaa	-8.89756
▁erikois	-8.89793
▁ehkä	-8.89835
ppu	-8.89843
du	-8.89873
▁oikeus	-8.90031
▁vastuu	-8.90079
▁joutui	-8.90131
▁14	-8.90238
▁pieni	-8.90315
▁vapaa	-8.90327
▁vaati	-8.90431
▁tekee	-8.90434
▁lopulta	-8.90658
neensa	-8.90703
▁takaisin	-8.9096
▁g	-8.91008
▁pitkään	-8.9101
▁tähän	-8.91137
▁tuki	-8.91292
▁päivänä	-8.91302
▁Kan	-8.91414
▁jotain	-8.91435
▁lasten	-8.91537
▁antaa	-8.91587
▁joiden	-8.91667
lloin	-8.91692
▁liikenne	-8.91725
yty	-8.91777
hdi	-8.91945
▁ulos	-8.91986
▁kaupunki	-8.92135
▁auton	-8.92145
▁sala	-8.92217
▁meidä	-8.92521
▁myötä	-8.92678
▁jolla	-8.92723
▁tähti	-8.92757
▁käyttää	-8.92762
▁nime	-8.92892
▁sisä	-8.92915
telu	-8.93027
▁nopeasti	-8.93112
▁mistä	-8.93198
▁sota	-8.93316
▁asema	-8.93356
▁päivän	-8.93426
▁minen	-8.93512
llisesti	-8.93598
▁uutisoi	-8.93629
ter	-8.9372
sk	-8.9377
▁rikos	-8.93843
▁ajo	-8.94091
▁hake	-8.94107
▁valmentaja	-8.94216
▁jättä	-8.94231
▁voidaan	-8.9448
▁huolimatta	-8.94621
be	-8.94646
ministeri	-8.94768
▁7	-8.94858
▁Je	-8.94982
din	-8.95034
▁samalla	-8.95037
malla	-8.95411
▁tuomio	-8.9543
▁jäsen	-8.95448
▁seuraa	-8.95458
▁Esimerki	-8.95604
▁syö	-8.9562
▁Var	-8.95627
▁Kor	-8.9579
▁terveys	-8.95793
▁lähe	-8.95881
▁pidä	-8.95948
▁toise	-8.96059
▁valta	-8.96062
▁kuu	-8.96126
▁Kau	-8.96196
▁hänelle	-8.96248
▁sano	-8.9634
▁yhtiö	-8.96401
▁ihmisiä	-8.96429
ly	-8.96496
▁kymmenen	-8.96563
▁2024	-8.96788
▁liian	-8.96831
▁Di	-8.96851
H	-8.96891
▁tule	-8.97149
▁kuuluu	-8.97272
▁olympia	-8.97352
▁kai	-8.97461
▁tutki	-8.97494
▁kaan	-8.97501
▁ottelussa	-8.97564
▁yhteydessä	-8.97603
▁löytyy	-8.97882
▁tien	-8.97912
mman	-8.97997
▁40	-8.98025
▁päivää	-8.98085
▁piste	-8.98088
tetään	-8.9844
V	-8.98481
▁presidentin	-8.98494
Sanomat	-8.98602
▁myy	-8.98616
▁Mar	-8.98718
▁palo	-8.98738
▁haluaa	-8.98871
▁saman	-8.98872
▁muuta	-8.98925
▁seuraava	-8.99028
▁vaiheessa	-8.99096
eseen	-8.99113
▁kerrotaan	-8.99212
▁EM	-8.9954
▁Ranska	-8.99648
ing	-8.99715
▁josta	-8.99895
▁kaa	-9.00118
▁ikä	-9.00228
▁kutsu	-9.00237
pä	-9.00316
▁sijaitseva	-9.0034
▁etsi	-9.00498
▁korkea	-9.00503
▁kohtaa	-9.00537
co	-9.00636
▁suoja	-9.007
var	-9.00826
▁päätös	-9.01008
▁24	-9.01022
tuksen	-9.01061
▁yhteens	-9.01083
▁tava	-9.01089
▁H	-9.01178
▁elokuva	-9.0119
▁lapsi	-9.01254
vien	-9.01328
▁tunte	-9.01441
ir	-9.01562
▁vuo	-9.01735
▁hei	-9.01762
▁yllä	-9.01935
um	-9.02063
▁yhteis	-9.02075
▁ehdo	-9.02153
▁6	-9.0218
▁17	-9.02237
▁minkä	-9.02265
N	-9.02327
▁llä	-9.0237
val	-9.02687
▁missä	-9.02697
▁Val	-9.02742
▁riski	-9.0275
▁yö	-9.02753
▁tästä	-9.02786
▁taka	-9.0281
▁sosiaalise	-9.02814
ala	-9.02978
▁toimintaa	-9.02983
▁yksityis	-9.02989
ttele	-9.02991
▁sija	-9.03032
teet	-9.03122
▁paikalla	-9.03171
▁Tuo	-9.03271
▁venäläis	-9.0341
▁joista	-9.03448
ile	-9.03485
▁kohti	-9.03601
tunut	-9.03764
pää	-9.03848
▁Kar	-9.03853
▁ura	-9.03955
ura	-9.04
▁23	-9.04106
▁ruoka	-9.04247
my	-9.04333
▁SM	-9.04356
ker	-9.04581
/	-9.04768
▁vei	-9.04778
otto	-9.04787
▁alla	-9.05033
sesti	-9.0504
▁naisten	-9.05102
▁olen	-9.05207
▁tulisi	-9.05215
▁ry	-9.05221
▁Instagram	-9.05228
▁New	-9.05302
ppo	-9.05315
▁kulttuuri	-9.05328
▁toimittaja	-9.0538
em	-9.05381
per	-9.05489
▁mene	-9.05502
tui	-9.05547
▁ehti	-9.05567
▁Per	-9.05692
▁vastaava	-9.05787
▁inen	-9.06144
▁hieno	-9.06147
sh	-9.06161
'	-9.06168
▁16	-9.06199
▁tee	-9.06328
▁vanha	-9.06362
▁päälle	-9.06468
▁teko	-9.0647
▁pohja	-9.06478
▁ajoi	-9.06522
▁Fi	-9.06623
▁koke	-9.06653
▁ympäristö	-9.0669
▁ten	-9.06729
▁määri	-9.06729
▁kannattaa	-9.0684
▁lääkäri	-9.06912
▁vastaa	-9.06926
don	-9.06959
▁totesi	-9.07006
johtaja	-9.07304
é	-9.07432
▁perheen	-9.07489
▁ääni	-9.07633
▁Par	-9.0764
▁kirjoitti	-9.07738
▁laki	-9.07791
▁poliisin	-9.07911
▁hoito	-9.07934
▁Israel	-9.0795
▁ker	-9.07984
▁Antti	-9.07989
▁etelä	-9.08046
▁tilanteessa	-9.08052
uri	-9.08309
▁kan	-9.08322
ssään	-9.08455
▁ky	-9.08472
▁ilmoitti	-9.08619
ul	-9.08642
▁muita	-9.08853
▁kaiki	-9.08894
eltä	-9.08956
uutta	-9.09005
▁asioita	-9.09043
▁un	-9.09067
▁no	-9.09289
▁ssä	-9.09332
▁valo	-9.09359
▁miksi	-9.09418
▁asian	-9.09472
▁vir	-9.09552
▁metsä	-9.09688
ikko	-9.09715
▁Auto	-9.09738
▁kilometri	-9.09884
ukset	-9.09939
▁haastattelussa	-9.09948
▁Osa	-9.10027
▁asiantuntija	-9.10132
▁sodan	-9.10229
▁jätti	-9.10375
▁olo	-9.10429
▁selvi	-9.1047
▁käyttö	-9.1053
▁katso	-9.10628
▁tunne	-9.10831
▁prosenti	-9.10832
mässä	-9.10962
▁julkaisi	-9.11041
isin	-9.1105
päivä	-9.11063
▁vaimo	-9.11245
▁juttu	-9.11293
eh	-9.11528
▁llise	-9.1156
▁lista	-9.11627
mus	-9.11629
▁omaa	-9.11772
▁kausi	-9.11897
▁kuvaa	-9.11977
▁uutis	-9.12112
im	-9.12155
▁tappio	-9.12231
stö	-9.1237
▁puoliso	-9.12405
vy	-9.12505
▁kseen	-9.12512
auto	-9.12631
▁kansanedustaja	-9.12843
▁tiedä	-9.12844
▁erityisest	-9.12848
▁tunni	-9.12884
kok	-9.12994
▁todennäköise	-9.12999
▁ravintola	-9.13087
▁näy	-9.13151
▁istä	-9.13191
▁rooli	-9.13232
▁verran	-9.13273
nes	-9.13322
▁maksu	-9.13392
sse	-9.13465
▁nyky	-9.13709
▁In	-9.13713
▁kanta	-9.13734
▁tiedot	-9.13833
▁muiden	-9.13895
▁joku	-9.13908
▁osalta	-9.1393
▁sana	-9.1403
▁juo	-9.14138
met	-9.14204
▁suure	-9.14338
▁kään	-9.14351
▁asunno	-9.1439
▁Ca	-9.14396
▁tietojen	-9.14404
▁mediassa	-9.14447
▁seuran	-9.14495
▁oikein	-9.14533
▁valtion	-9.14624
▁suo	-9.14749
luvu	-9.14824
▁silti	-9.14863
.)	-9.14951
▁jalkapallo	-9.15115
mat	-9.15147
▁alueen	-9.15186
▁muistuttaa	-9.15229
der	-9.15256
▁suora	-9.15333
▁Keski	-9.15395
▁valmis	-9.1548
▁reilu	-9.1555
▁ohi	-9.15574
▁misen	-9.15662
▁takana	-9.15755
▁varmasti	-9.15783
Suomen	-9.15786
▁elle	-9.15812
tie	-9.15937
▁edessä	-9.15948
▁kesken	-9.15976
▁her	-9.15983
▁päävalmentaja	-9.15997
▁100	-9.16237
▁W	-9.16257
▁Tämän	-9.16295
vuotiaan	-9.16337
peli	-9.16553
▁antoi	-9.16569
▁alusta	-9.16579
▁Tällä	-9.16608
▁yleis	-9.16689
▁Tässä	-9.16707
▁tarvitse	-9.16728
▁Hel	-9.16755
▁tuttu	-9.16797
▁miseen	-9.16803
▁pelaa	-9.16836
▁kasvu	-9.16888
▁kauppa	-9.17006
▁rauha	-9.17223
▁tuolloin	-9.17262
▁paikalle	-9.17324
▁osta	-9.17331
▁Jä	-9.17501
viä	-9.17641
hy	-9.17714
▁Pää	-9.17764
B	-9.17817
▁suurin	-9.17821
▁ykkös	-9.17885
▁asunto	-9.17886
llo	-9.18116
▁jakso	-9.18163
▁arvio	-9.18195
iltana	-9.18217
▁Mikko	-9.18263
▁pelasi	-9.18291
ää	-9.18327
▁2020	-9.18335
▁nais	-9.18432
▁esiin	-9.18437
▁kuljettaja	-9.18562
▁Orpo	-9.18659
▁talous	-9.18708
voima	-9.18799
tävä	-9.18893
▁tarkoitus	-9.18901
kun	-9.18902
▁ji	-9.19011
ca	-9.19026
▁lapsen	-9.19146
▁tärkeä	-9.19148
ov	-9.19238
▁toimii	-9.19255
▁rikko	-9.19276
▁Salo	-9.19319
▁järjestä	-9.19325
▁juhla	-9.19433
▁täällä	-9.19477
ari	-9.19586
▁hy	-9.19673
▁pala	-9.19739
kunta	-9.19803
tse	-9.19813
▁oppi	-9.19821
▁tietoa	-9.19868
▁kaiken	-9.19939
▁elämän	-9.20024
▁Donald	-9.20158
▁hetki	-9.2029
▁Ti	-9.20488
▁koira	-9.20515
▁kanna	-9.20534
vuo	-9.20599
▁kyl	-9.20649
▁käyttöön	-9.20665
ud	-9.20796
▁koske	-9.20887
▁keskusta	-9.20938
▁Har	-9.21013
▁kuollut	-9.21083
▁Sitte	-9.21158
▁paikan	-9.21203
▁kärsi	-9.21291
▁keskus	-9.21315
▁Pekka	-9.21328
▁osaa	-9.21331
▁Wi	-9.21411
▁talo	-9.21693
▁Ilma	-9.21773
▁paikoi	-9.21784
▁kampanja	-9.21829
▁par	-9.21833
▁kuvan	-9.22029
▁Vuon	-9.22042
op	-9.22042
isiä	-9.22062
▁nuort	-9.22141
jat	-9.22188
▁Turun	-9.22207
D	-9.22212
▁Biden	-9.22243
▁iden	-9.22291
▁järjestelmä	-9.22353
▁lii	-9.22528
ida	-9.2258
ottelu	-9.22635
ttanut	-9.22687
▁isen	-9.22783
▁suu	-9.22804
▁Kai	-9.22811
▁johon	-9.22892
▁halu	-9.2291
▁tv	-9.22958
ek	-9.23016
▁lento	-9.23108
▁yritys	-9.23146
▁naisen	-9.23158
▁Kyllä	-9.23218
▁Kir	-9.2325
▁mieli	-9.23272
▁lähi	-9.23327
tuu	-9.23336
▁tapa	-9.23337
▁kuusi	-9.2343
▁27	-9.23721
▁Tar	-9.23737
ily	-9.23826
▁pian	-9.23869
ber	-9.23991
▁euro	-9.24013
▁Haavisto	-9.24028
▁ympäri	-9.2404
▁kä	-9.24045
▁b	-9.24077
▁nousu	-9.24268
▁toista	-9.24289
▁maksa	-9.2446
▁lasku	-9.24461
▁mieltä	-9.24553
▁kertonut	-9.24637
▁kahdeksan	-9.2478
kea	-9.24976
ed	-9.24994
▁järjestö	-9.25067
ministeriö	-9.25108
▁Yli	-9.25108
▁päätti	-9.25155
▁Ole	-9.25251
eitä	-9.25325
▁uhka	-9.2533
▁lähellä	-9.25442
ltaan	-9.25514
▁peruste	-9.25616
▁työntekijä	-9.25631
▁hyvi	-9.25834
▁Alexander	-9.25837
vel	-9.25923
▁suoraan	-9.25931
▁paras	-9.25956
▁my	-9.25991
▁tuho	-9.26024
ttua	-9.26046
▁mennessä	-9.26327
ettava	-9.26367
ensä	-9.26509
▁syytä	-9.26592
▁21	-9.26625
▁Her	-9.26686
▁Man	-9.26737
▁vät	-9.26865
▁luku	-9.26877
▁Hä	-9.26889
▁tapahtunut	-9.26939
▁Sy	-9.26994
▁mahdollisi	-9.2701
▁näyttelijä	-9.27107
▁epäilty	-9.27151
U	-9.27191
▁kolmen	-9.27244
▁Iltalehde	-9.27316
▁löytyi	-9.27426
▁tanssi	-9.2745
▁lähde	-9.27459
▁elämää	-9.2772
▁ystävä	-9.27811
▁Iltalehdelle	-9.27828
▁omi	-9.27874
▁sata	-9.27922
▁22	-9.27934
▁Z	-9.2797
▁ar	-9.28304
▁is	-9.28315
▁200	-9.2835
▁m	-9.28361
tulo	-9.28369
▁melko	-9.28428
eri	-9.2843
▁aloitta	-9.28431
etaan	-9.28434
30	-9.28481
▁26	-9.28492
ämä	-9.28666
▁kö	-9.28679
▁Siinä	-9.28699
▁ve	-9.28852
▁alkoholi	-9.28928
▁käytännö	-9.28928
liiga	-9.28934
▁työn	-9.28945
udu	-9.29003
▁tiety	-9.29013
+	-9.29049
▁v	-9.29057
ic	-9.29077
vuotia	-9.29177
▁virhe	-9.29188
tori	-9.29243
▁ihmis	-9.29383
▁Uusi	-9.29447
ukka	-9.2954
▁puolella	-9.29567
▁entinen	-9.29584
ajo	-9.2964
▁liittyvä	-9.29709
▁toimitusjohtaja	-9.29823
▁tekemään	-9.29924
▁meillä	-9.29938
▁Pal	-9.30168
▁sopimus	-9.30193
▁näkyy	-9.30208
▁seitsemän	-9.30256
▁liha	-9.30284
▁lähtee	-9.30321
▁esiinty	-9.30388
▁kir	-9.30528
▁kuukauden	-9.30592
▁otta	-9.30602
▁tietää	-9.30618
▁onko	-9.30631
▁pallo	-9.30661
▁istu	-9.30753
▁pysy	-9.30826
▁rakennus	-9.3083
▁mista	-9.30839
dan	-9.30934
▁suunnitelma	-9.31032
▁Mari	-9.31173
▁lähtö	-9.31195
eli	-9.31306
▁aloitti	-9.31308
▁uudelleen	-9.31316
▁60	-9.31362
▁Työ	-9.31414
▁kone	-9.3143
▁viimeise	-9.31466
▁tarkka	-9.31518
▁metrin	-9.31598
▁sanoa	-9.31725
lehti	-9.318
aho	-9.31902
▁joilla	-9.31919
▁ammatti	-9.31939
▁selvästi	-9.32013
skus	-9.32024
▁paikkaa	-9.3204
▁tö	-9.32085
▁olemme	-9.3214
iä	-9.32158
isuus	-9.32165
▁tekijä	-9.32176
llään	-9.32282
▁nuore	-9.32293
▁veto	-9.32312
▁edustaja	-9.32476
▁finaali	-9.32517
rr	-9.32522
▁por	-9.32581
▁Iso	-9.32701
kari	-9.32733
▁2021	-9.32807
▁menee	-9.32814
ola	-9.32822
▁tilannetta	-9.32839
▁klo	-9.32874
▁pohjois	-9.32883
▁piha	-9.32884
ner	-9.33007
▁Bideni	-9.33019
ger	-9.33098
▁neuvo	-9.33111
lly	-9.33179
▁myynti	-9.3329
▁perjantai	-9.33296
▁vuokra	-9.3331
▁tausta	-9.33375
▁Moni	-9.33394
▁Ver	-9.33525
▁herättä	-9.33653
▁saapu	-9.33805
▁ensimmäistä	-9.33901
essaan	-9.33923
▁Itä	-9.33924
voi	-9.33979
▁kantaa	-9.34005
▁johto	-9.34013
▁Kuu	-9.34065
set	-9.34087
▁tapauksessa	-9.34095
▁kuulu	-9.34105
▁Lapin	-9.34196
▁halli	-9.34247
empi	-9.34266
▁kannalta	-9.34369
▁ainoa	-9.34577
ci	-9.34637
▁keskitty	-9.34701
▁ohjelma	-9.34772
▁yhteen	-9.34841
yhtiö	-9.34908
▁jatka	-9.34934
▁rahaa	-9.34955
▁lain	-9.35101
▁jatkuu	-9.35132
▁vuodesta	-9.35144
▁har	-9.3515
▁kse	-9.35189
▁ikään	-9.35259
▁aihe	-9.3528
▁Ensi	-9.35361
▁loma	-9.35402
lma	-9.35423
▁tehdään	-9.35426
▁loppuun	-9.35518
▁Ala	-9.35612
▁Yhdysvaltoj	-9.35679
▁pä	-9.3578
▁kuvailee	-9.35971
määrä	-9.3601
▁puhe	-9.3603
▁vaatii	-9.36041
▁aamu	-9.36131
ör	-9.36136
▁paikallis	-9.36148
▁Sie	-9.36169
ojen	-9.36252
▁Putinin	-9.36275
▁tutkimus	-9.36378
▁Näi	-9.36384
▁vil	-9.3648
▁Mitä	-9.36587
▁kovin	-9.36677
oma	-9.36712
▁piene	-9.36718
▁kuuluva	-9.36942
▁hyvää	-9.3717
▁kaikkia	-9.37227
▁emme	-9.37229
▁julkaisu	-9.37282
▁palaa	-9.37488
▁van	-9.37497
▁Do	-9.37536
▁sarjan	-9.37536
▁liitto	-9.3767
ilija	-9.37702
▁di	-9.3772
▁väri	-9.37896
misestä	-9.37943
▁uusia	-9.38014
▁Minu	-9.38037
▁silmä	-9.38055
ei	-9.38197
ähtiin	-9.38239
▁tilanteen	-9.38244
▁valmistu	-9.38254
▁päällä	-9.3828
isu	-9.3829
▁massa	-9.38301
▁h	-9.38307
▁hyökkäys	-9.38402
▁sunnuntai	-9.38415
▁vuoro	-9.38459
▁Kyse	-9.3846
ime	-9.38471
▁taistelu	-9.38542
▁luke	-9.38595
▁kotiin	-9.38602
▁Tai	-9.38628
▁tarkoittaa	-9.38699
▁töitä	-9.38711
▁suuntaan	-9.38825
▁misesta	-9.38951
▁seksi	-9.38954
▁energia	-9.38956
▁tarina	-9.38995
▁kansalais	-9.39093
▁tyyli	-9.39157
yttä	-9.39231
▁sotilas	-9.39255
▁edusta	-9.39269
▁usea	-9.39367
▁etenki	-9.39448
osi	-9.39478
▁Suomalais	-9.39654
▁tutkimukse	-9.39665
▁lähtien	-9.39676
▁yhteistyö	-9.39679
▁Ty	-9.39748
▁Bu	-9.3995
▁esitykse	-9.40049
▁Petteri	-9.40073
▁päättyi	-9.40079
▁sin	-9.40153
▁vahva	-9.40202
oitu	-9.40203
▁meri	-9.40247
▁Helsingissä	-9.40353
▁urheilija	-9.40367
estä	-9.4044
▁iä	-9.40465
▁onnistu	-9.40488
▁aikoina	-9.40494
▁maalin	-9.40523
▁sisällä	-9.40584
▁kor	-9.40611
matta	-9.40625
▁tärkeää	-9.40638
▁täyttä	-9.40852
▁ohja	-9.40877
▁täytyy	-9.40918
▁pelaaji	-9.41017
▁STT	-9.4106
▁Mer	-9.41107
▁Niin	-9.41144
▁liito	-9.41158
▁2019	-9.41201
▁paremmin	-9.41202
▁paine	-9.41203
▁säily	-9.4121
▁kolmanne	-9.41231
▁kokonais	-9.41231
▁erityise	-9.41307
▁muutos	-9.41416
▁laitta	-9.41449
mies	-9.41453
ula	-9.41511
▁pistettä	-9.41604
ilee	-9.41611
▁musiikki	-9.41628
ssyt	-9.41636
▁niistä	-9.41675
ley	-9.41699
▁lasta	-9.41711
utti	-9.41748
▁ennuste	-9.41777
▁varten	-9.41781
▁varsin	-9.41822
▁hyökkäykse	-9.41914
▁miestä	-9.41928
▁merkittävä	-9.42001
▁tuke	-9.4202
▁Fa	-9.42053
▁lau	-9.4215
▁Italia	-9.422
▁mennä	-9.42221
▁viikko	-9.42233
gh	-9.42305
▁jäänyt	-9.42386
▁Meill	-9.42394
▁Kiina	-9.4247
▁aikoo	-9.42487
▁pyytä	-9.42494
▁ottelua	-9.42563
wa	-9.426
▁tuntuu	-9.42634
tion	-9.42696
▁Viro	-9.42704
▁usei	-9.42736
eksi	-9.42755
▁ääne	-9.42804
▁palkka	-9.42844
▁tulokse	-9.42871
▁tulos	-9.42927
▁il	-9.43031
▁muoto	-9.43044
▁kysely	-9.43109
▁500	-9.4317
▁suhteen	-9.43212
▁voittaja	-9.43323
▁keskukse	-9.4337
▁osan	-9.43379
▁28	-9.43432
▁julkis	-9.43447
▁saapui	-9.43451
▁kylä	-9.43489
mmat	-9.43631
▁käydä	-9.43676
▁voittanut	-9.43688
▁Jussi	-9.43725
▁Pel	-9.43747
F	-9.43768
ajan	-9.43807
▁29	-9.43823
▁Pariisi	-9.43939
▁yleensä	-9.43942
▁Anna	-9.44031
▁suhtee	-9.44116
▁halusi	-9.44128
▁Bi	-9.44149
▁kerta	-9.44244
▁eniten	-9.44245
▁Iltalehti	-9.44252
▁vanh	-9.4429
▁päätöksen	-9.44373
▁muista	-9.44528
▁kärki	-9.44531
▁taloude	-9.4455
tojen	-9.44598
hä	-9.44626
mäki	-9.44631
▁nähty	-9.44668
▁tilanteesta	-9.44816
▁kunnossa	-9.44817
▁avulla	-9.44818
▁kertovat	-9.44847
▁sairaala	-9.44855
ttaja	-9.44939
▁normaali	-9.45046
▁sellainen	-9.45128
▁Ky	-9.45216
▁pako	-9.45252
▁julkaistu	-9.45257
lehden	-9.4529
▁liike	-9.45426
ström	-9.45553
tele	-9.45704
▁Saksa	-9.45727
▁it	-9.45737
▁kierrokse	-9.45739
salo	-9.45763
▁kohde	-9.45825
miseksi	-9.45827
▁ihme	-9.45919
▁Suo	-9.45983
▁päässä	-9.46002
▁nämä	-9.46019
▁35	-9.46104
▁aiheutta	-9.46124
1-	-9.46139
isku	-9.46314
▁minä	-9.46481
▁työtä	-9.46499
▁Sal	-9.46594
▁tuleva	-9.4666
▁olleen	-9.46714
▁Juha	-9.46736
▁Ulko	-9.46747
▁Kanada	-9.46753
▁Hy	-9.46791
▁mur	-9.46811
▁kuvi	-9.46864
▁Wa	-9.47023
▁Sitä	-9.47037
▁keho	-9.47079
▁vastasi	-9.47136
▁omistaja	-9.47169
▁tta	-9.47224
▁vakava	-9.47264
▁maahan	-9.47312
▁minulle	-9.47339
▁kuukausi	-9.47355
▁jatkoi	-9.47438
▁odot	-9.47468
▁Sama	-9.47476
▁toistaiseksi	-9.4753
▁sosiaali	-9.47602
▁neuvottelu	-9.47626
▁pal	-9.47663
▁poistu	-9.47726
▁han	-9.47727
▁perusta	-9.47766
▁aiheuttaa	-9.47784
▁epäillään	-9.47837
teiden	-9.47933
teita	-9.47944
▁avaus	-9.47963
▁ilo	-9.48018
▁Lind	-9.48045
omi	-9.48096
▁lopussa	-9.48188
täjä	-9.4822
▁helppo	-9.48258
▁virka	-9.48276
loi	-9.48277
imme	-9.48327
▁yliopisto	-9.4835
▁lähettä	-9.48351
▁elämä	-9.4837
lö	-9.48396
▁Mikä	-9.48421
palvelu	-9.48446
▁laise	-9.48485
▁peru	-9.48495
▁kerro	-9.48508
▁päivi	-9.48525
▁murha	-9.48664
sarja	-9.48668
▁nähdään	-9.48693
▁tuotta	-9.487
alue	-9.48757
laisten	-9.48805
▁kasva	-9.48818
aali	-9.48947
▁tukea	-9.49084
usten	-9.49084
▁sille	-9.49124
ster	-9.49177
ttelu	-9.49202
▁pääsee	-9.4922
▁neet	-9.49346
▁kohta	-9.49472
▁Niinistö	-9.49484
▁mitta	-9.49531
▁kohu	-9.49622
▁alueelle	-9.49643
▁Kaksi	-9.49717
▁talli	-9.4976
▁Syy	-9.49795
▁jouko	-9.49796
▁vaihtoehto	-9.4982
Korea	-9.49839
arvo	-9.49861
neiden	-9.49871
▁Britannia	-9.49999
▁essa	-9.50025
▁erä	-9.50053
▁Sil	-9.50141
▁siirty	-9.50197
utui	-9.50222
▁Pari	-9.50256
▁nähdä	-9.50281
▁välttämätt	-9.50556
▁Toivo	-9.506
▁haastattelu	-9.50633
▁Oy	-9.50664
▁minuuttia	-9.50766
▁koo	-9.50777
▁poliittise	-9.50795
▁iksi	-9.50822
▁tasolla	-9.50881
▁San	-9.50885
▁tili	-9.50894
valta	-9.50899
▁hyvinvointialue	-9.50921
▁nautti	-9.50932
▁hankki	-9.50965
▁mis	-9.50969
▁muutta	-9.5105
▁kysy	-9.5107
uuden	-9.51167
▁Harris	-9.51189
▁ho	-9.51342
▁Sami	-9.51345
▁Suomea	-9.51353
▁aine	-9.51353
▁uskoo	-9.51413
▁saakka	-9.51495
J	-9.51542
▁ove	-9.51605
▁Sveitsi	-9.51667
asema	-9.51761
▁Koko	-9.51768
▁Tappara	-9.51824
▁näytti	-9.51863
▁saatu	-9.51869
▁ralli	-9.51921
kul	-9.51939
▁vähä	-9.51958
▁vähintään	-9.51982
▁parhaa	-9.52014
▁py	-9.52075
▁pur	-9.52079
▁apua	-9.5213
▁puolusta	-9.52194
▁rei	-9.52254
▁Venäjällä	-9.52272
▁c	-9.52384
▁kulke	-9.52445
▁kaikkea	-9.52459
▁Timo	-9.52523
▁Ukrainassa	-9.52584
▁maailma	-9.526
neensä	-9.52629
▁Purra	-9.5265
▁summa	-9.52691
▁keino	-9.52714
▁korja	-9.52768
▁Yhdysvalloissa	-9.52776
kisoissa	-9.52818
▁suositu	-9.5282
▁vetä	-9.52843
▁vähemmän	-9.52935
joukkue	-9.53068
▁pelannut	-9.53104
tynyt	-9.53119
kisojen	-9.5316
▁tarpee	-9.53292
toimi	-9.53311
▁).	-9.5338
▁Länsi	-9.53416
▁puolueen	-9.53424
▁Lauri	-9.53462
▁Tänä	-9.53543
▁kysymys	-9.53578
▁viikonloppuna	-9.53623
▁tur	-9.53654
▁2018	-9.53737
▁johtaa	-9.53737
▁Silloin	-9.53801
▁tuotanto	-9.53806
▁kukaan	-9.53814
▁mahdollise	-9.53891
▁toimia	-9.53902
▁valtava	-9.53903
▁Eli	-9.53907
▁meno	-9.53932
mukse	-9.53951
▁monta	-9.53956
▁kohtaan	-9.53979
▁Vasta	-9.54064
▁suunta	-9.54088
▁itä	-9.54102
▁ilme	-9.54111
vänsä	-9.54116
▁hallinto	-9.54151
▁kohdalla	-9.54166
▁maassa	-9.54166
▁jatku	-9.54194
▁pyöri	-9.5421
pari	-9.54345
ttely	-9.54355
▁talve	-9.54384
▁Toise	-9.54438
liitto	-9.54447
tel	-9.54452
▁Mat	-9.5455
▁perussuomalais	-9.54722
▁yrittäjä	-9.54764
▁Tur	-9.54811
olo	-9.5483
▁juoksu	-9.5487
▁suosi	-9.5487
▁per	-9.54907
▁Du	-9.54976
▁Andersson	-9.55037
yyttä	-9.55063
tiiv	-9.55132
▁markkinoi	-9.55152
▁liittyy	-9.55215
▁pah	-9.55311
pin	-9.55393
▁toiminut	-9.554
▁laitokse	-9.55498
▁kesällä	-9.55787
▁ensin	-9.55825
▁Kr	-9.55826
▁keväällä	-9.55851
▁eteenpäin	-9.55854
▁hallitukse	-9.5595
▁käyttä	-9.56021
▁viiden	-9.56024
▁kokonaan	-9.56041
▁samaan	-9.56061
▁operaatio	-9.56113
▁ollaan	-9.56147
▁tarjoa	-9.56186
▁tilaa	-9.56203
hän	-9.56245
▁mahdollisuus	-9.56348
▁voiton	-9.56396
▁numero	-9.56417
▁pro	-9.56436
▁pela	-9.56457
tar	-9.56664
▁l	-9.56708
▁sor	-9.5672
▁tekevä	-9.56736
▁lämpötila	-9.56854
G	-9.56913
▁ltä	-9.56951
iri	-9.56986
▁tehtiin	-9.5701
▁tiistai	-9.5701
▁iske	-9.57079
▁kunnia	-9.57109
▁Nu	-9.57115
▁Ter	-9.5714
▁tapahtuu	-9.57174
▁alas	-9.57199
▁odottaa	-9.5734
▁lupa	-9.57352
▁tutkija	-9.57362
?	-9.5742
▁Hal	-9.57477
▁kiinteistö	-9.57508
teri	-9.57572
▁uransa	-9.57674
▁Janne	-9.57753
▁kunta	-9.57793
▁pääse	-9.57805
▁Saa	-9.57846
▁kaveri	-9.5805
▁puuttu	-9.58058
▁ihmist	-9.58104
kor	-9.58156
▁olevi	-9.58157
▁täysi	-9.58163
▁kär	-9.58245
liiton	-9.58255
▁musta	-9.58292
▁pikku	-9.58337
▁Vir	-9.58338
▁käräjäoikeude	-9.58347
▁suunna	-9.58402
▁yritti	-9.58406
▁hiihto	-9.58434
▁Tanska	-9.58522
▁We	-9.58535
vas	-9.58545
▁tekemä	-9.5865
▁ex	-9.58665
▁käytössä	-9.58695
▁raa	-9.58769
▁koh	-9.58801
▁molemm	-9.58813
▁Video	-9.58855
▁parempi	-9.58867
▁Ga	-9.59043
▁Haa	-9.59176
▁iset	-9.59181
▁avaa	-9.59234
▁hal	-9.59238
▁vuoteen	-9.59241
▁järjest	-9.59246
▁Stubbin	-9.59317
▁tarvi	-9.59377
▁soi	-9.59383
▁ministeri	-9.59428
▁Kat	-9.5943
▁henki	-9.59435
▁neljän	-9.59441
▁käynyt	-9.59464
▁Han	-9.59496
▁siltä	-9.59514
▁asiat	-9.59528
▁mm	-9.5955
mpää	-9.59599
om	-9.59609
▁torju	-9.59638
▁tode	-9.59739
▁fani	-9.59746
▁nee	-9.59781
llisia	-9.59808
lti	-9.59813
▁tuntia	-9.59935
▁talvi	-9.59943
th	-9.6016
▁For	-9.60165
▁kohdistu	-9.60293
▁sopi	-9.60324
▁kato	-9.60421
▁yönä	-9.60451
▁Gaza	-9.60461
del	-9.60462
▁90	-9.60498
&	-9.60561
▁Florida	-9.60561
▁levi	-9.60598
aine	-9.60606
▁kehitys	-9.60606
▁saadaan	-9.60616
▁siksi	-9.60635
▁80	-9.60652
kää	-9.60686
▁sinne	-9.60717
▁tapaa	-9.60729
▁Vladimir	-9.60734
▁kansainvälise	-9.60777
▁),	-9.60802
▁Ennen	-9.60877
▁puolen	-9.60902
▁seksuaali	-9.60959
▁El	-9.60981
▁York	-9.60983
▁kasvo	-9.61037
▁asiassa	-9.61046
▁kansa	-9.61071
▁eläin	-9.61124
▁maini	-9.61151
sson	-9.61158
▁alkaen	-9.61256
▁sinu	-9.61262
▁metriä	-9.6129
▁Vai	-9.61353
▁tunnettu	-9.6141
▁hotelli	-9.61427
▁some	-9.61494
▁Yh	-9.61511
ttelee	-9.61565
▁isiin	-9.61567
▁parin	-9.6166
▁Oulu	-9.61717
▁takaa	-9.61889
▁saisi	-9.61891
▁Lau	-9.61896
▁rajoit	-9.61919
▁huole	-9.61989
▁Hyvä	-9.62003
▁selvä	-9.62012
▁mestari	-9.62042
▁lopu	-9.62063
her	-9.6211
▁riittää	-9.62111
▁aikoj	-9.62139
▁näkö	-9.62274
veri	-9.62292
▁2016	-9.62299
▁koe	-9.62318
▁Harry	-9.62331
▁taustalla	-9.62404
▁ylä	-9.62409
▁pystyy	-9.6243
▁Ville	-9.62441
▁suomalainen	-9.62475
▁luu	-9.62558
aatio	-9.6256
▁saavat	-9.62579
▁väline	-9.62585
kuva	-9.62615
▁ennätys	-9.6265
▁Puola	-9.62677
▁Saksan	-9.62737
▁perät	-9.62772
▁toteutu	-9.62799
▁viide	-9.6286
järjestö	-9.6295
od	-9.63006
ttö	-9.63042
▁löytä	-9.63087
taso	-9.63153
▁vaihto	-9.63181
▁kala	-9.63188
▁yrittä	-9.63285
▁ihminen	-9.63358
▁syntyi	-9.63476
▁kuului	-9.63615
kerta	-9.63628
läis	-9.63631
▁kur	-9.6372
▁vieras	-9.63749
▁kerto	-9.63767
etty	-9.63894
matka	-9.63951
▁kiekko	-9.63964
▁tulevat	-9.63974
▁Vantaa	-9.64006
▁kohda	-9.64063
▁kumppani	-9.64083
▁yllättävä	-9.64101
▁Bri	-9.64135
▁iho	-9.64138
ryhmä	-9.64163
▁kilometriä	-9.64262
▁suosikki	-9.64323
▁viikkoa	-9.64335
▁kirjoitta	-9.64355
▁yhdeksän	-9.64378
▁utu	-9.644
▁Yhdysvallat	-9.64425
▁2025	-9.64425
▁lähteä	-9.64429
▁Lai	-9.64455
▁laaja	-9.6449
▁tutkinta	-9.64526
▁ali	-9.64526
▁suju	-9.64538
▁noussut	-9.64604
▁torstai	-9.64628
▁Väli	-9.6497
▁paha	-9.6506
▁minun	-9.65164
▁saanee	-9.65168
▁tavoite	-9.65236
▁kysyi	-9.65253
▁sellaise	-9.65256
▁sopiva	-9.65256
tyksen	-9.65273
▁kulta	-9.65304
▁lumi	-9.65325
▁kerrottiin	-9.65394
▁surma	-9.65397
sarjan	-9.65464
▁tuu	-9.65466
▁MTV	-9.65505
▁suhtautu	-9.65505
▁Ed	-9.6551
▁päällikkö	-9.65512
▁entistä	-9.65521
▁Aho	-9.65554
▁ella	-9.65604
▁pitkän	-9.65624
▁haaste	-9.65642
▁Car	-9.65665
▁kesän	-9.65718
▁hahmo	-9.65876
▁viimeisen	-9.65886
▁YK	-9.65937
▁lapset	-9.66015
▁haasta	-9.66023
▁Mä	-9.66035
▁harjoitus	-9.66084
▁Orpon	-9.66103
▁illä	-9.66103
viestipalvelu	-9.66264
▁kansan	-9.66264
▁lähte	-9.66282
▁aloi	-9.66392
ttänyt	-9.66414
▁kel	-9.66467
niiden	-9.66571
▁+	-9.66593
▁1.	-9.66611
▁Gu	-9.66655
▁toiminnan	-9.66677
▁tehnee	-9.6669
▁issä	-9.667
▁armeija	-9.6678
▁ongelmia	-9.66784
▁Olli	-9.66812
▁ihmisen	-9.66882
▁Hei	-9.66902
▁2022.	-9.66929
▁törkeä	-9.66957
▁Heikki	-9.67008
▁tiedo	-9.67057
▁Koti	-9.67076
▁mitali	-9.67246
▁päin	-9.67316
▁Presidentti	-9.67366
▁Au	-9.67369
ssu	-9.67374
▁yritykse	-9.67392
mättä	-9.67397
▁Kii	-9.67441
▁jokaise	-9.67511
▁Lii	-9.67595
▁itsensä	-9.67901
▁Kas	-9.67918
▁osto	-9.67934
▁huo	-9.6798
▁sijaitse	-9.67994
▁onnistui	-9.68008
ment	-9.68043
▁tuore	-9.68055
▁jääkiekko	-9.68183
▁Espoo	-9.68253
▁turnaukse	-9.68278
ero	-9.68369
▁riippu	-9.68442
▁katse	-9.68537
▁estä	-9.68579
▁terve	-9.68604
š	-9.6863
▁itseään	-9.68662
▁Ny	-9.68674
▁neen	-9.6869
▁liitty	-9.68716
▁Helsinki	-9.68777
▁kylmä	-9.68804
▁hätä	-9.68808
▁muutokse	-9.68827
▁valinta	-9.68846
työ	-9.68971
▁kasvi	-9.68993
▁paluu	-9.69044
▁maanantai	-9.69072
▁Kur	-9.69165
▁ttä	-9.6917
▁Meri	-9.69203
▁Marin	-9.69226
las	-9.69263
hl	-9.69308
▁Mika	-9.69318
▁viettä	-9.69321
▁paina	-9.69354
▁hoita	-9.69387
▁yksin	-9.6939
▁elä	-9.69441
▁70	-9.69442
▁Katso	-9.6953
▁televisio	-9.69568
▁kysymykse	-9.69569
gan	-9.69629
▁äänestä	-9.69638
▁olle	-9.69702
▁Go	-9.69709
▁Matti	-9.6972
▁nykyise	-9.69729
▁Cha	-9.69732
eet	-9.69762
▁ilmi	-9.69803
▁näky	-9.6984
▁palasi	-9.69876
▁pienen	-9.69927
▁Paul	-9.69928
▁Zelenskyi	-9.69946
▁huomiota	-9.70008
▁runsaasti	-9.70039
▁mennyt	-9.70186
▁Jukka	-9.70201
▁joukko	-9.70225
▁Saari	-9.70302
▁turha	-9.70317
▁Leijoni	-9.70325
▁Min	-9.7034
uuteen	-9.70394
rd	-9.70404
▁tuule	-9.7043
▁talon	-9.70515
▁perä	-9.70663
by	-9.70692
▁hyökkääjä	-9.70706
▁tulossa	-9.70743
▁maksaa	-9.70745
▁Laine	-9.70827
▁vamma	-9.70884
▁muisto	-9.70896
▁verkko	-9.70918
▁viha	-9.71007
▁rakennukse	-9.71089
▁sopimuksen	-9.71111
▁iski	-9.71268
▁syksy	-9.71275
▁näkee	-9.71281
▁puhee	-9.71282
▁Kul	-9.71308
▁päähän	-9.71361
luvulla	-9.71414
▁Tr	-9.71491
▁varma	-9.71585
▁kesänä	-9.71598
▁itselleen	-9.71623
▁ajaa	-9.71658
▁verrattuna	-9.71664
▁vaihta	-9.71666
▁toteutta	-9.71678
kunnan	-9.71717
▁Irani	-9.71726
▁tuomari	-9.71727
▁kierroksella	-9.718
▁heitä	-9.71922
▁aloittaa	-9.71922
▁korva	-9.71938
▁ö	-9.72011
▁erityis	-9.72021
▁Jon	-9.72047
▁kuvia	-9.72122
▁yhteisö	-9.72225
▁tapahtumi	-9.72226
▁kieltä	-9.7229
za	-9.72409
mällä	-9.72491
▁huolta	-9.72518
▁w	-9.72544
▁eduskunna	-9.7261
▁Catherine	-9.72631
▁kakkos	-9.72644
oista	-9.72777
▁käsittely	-9.72828
oita	-9.72846
▁riittävä	-9.72855
▁Harrisi	-9.72866
▁pohti	-9.72898
▁loi	-9.72922
gin	-9.72933
▁Mal	-9.72934
▁Siitä	-9.72955
▁mihin	-9.72982
▁odotta	-9.72988
▁prosessi	-9.7302
▁ydin	-9.73083
▁ruu	-9.73087
▁Kari	-9.731
▁ilmasto	-9.73194
▁liittyvi	-9.73288
▁koskeva	-9.7333
▁keskellä	-9.73336
▁omista	-9.73361
▁kaikille	-9.73372
W	-9.73436
yl	-9.73458
▁tapaukse	-9.73629
▁merki	-9.73643
▁piiri	-9.73709
▁Itse	-9.73717
▁31	-9.73735
isessa	-9.73817
▁mahdollisest	-9.73831
▁tunnetu	-9.73839
▁Seura	-9.73862
▁Ste	-9.73882
aamuna	-9.73896
▁Joe	-9.73915
▁vaihe	-9.7394
uksesta	-9.73967
▁kiire	-9.73988
▁pyörä	-9.73991
▁tuuli	-9.7408
▁lenno	-9.74155
▁laulaja	-9.74177
▁tahansa	-9.74199
▁uutistoimisto	-9.74207
▁Pro	-9.7421
▁Vuoden	-9.74261
▁hoido	-9.74279
▁maalia	-9.74365
▁joutuu	-9.74368
▁luonnon	-9.74397
▁Instagramissa	-9.74397
▁minua	-9.74398
▁auki	-9.74432
▁el	-9.74516
▁Syyttäjä	-9.74594
▁teksti	-9.74596
▁Tor	-9.74598
▁sopimukse	-9.7461
▁sauna	-9.74653
▁Oma	-9.74735
▁pol	-9.74735
▁juna	-9.74776
▁Varsinais	-9.74792
▁kome	-9.7482
▁man	-9.74824
▁uima	-9.74827
▁vaike	-9.7487
▁sovi	-9.749
▁Mone	-9.74948
▁alta	-9.74957
▁Kysee	-9.74967
▁kehittä	-9.74976
▁sulke	-9.74993
▁huomauttaa	-9.74997
▁katu	-9.75086
▁Kal	-9.75123
▁eteen	-9.75146
▁vaikut	-9.75204
pallo	-9.75229
▁Halla	-9.75233
tietee	-9.75297
▁katsoi	-9.75349
▁45	-9.75352
▁lie	-9.75371
▁harmi	-9.75413
illaan	-9.7544
▁oi	-9.75517
▁osallistui	-9.75518
▁ba	-9.75534
tähti	-9.7555
▁erilaisia	-9.7558
▁sellaista	-9.75612
▁kadu	-9.75682
▁pika	-9.75719
▁tietoja	-9.75856
▁suurimma	-9.75884
▁meille	-9.75891
▁uran	-9.75924
▁ennakko	-9.75992
▁vuodessa	-9.75992
▁sairastu	-9.75999
▁liikaa	-9.76031
▁pelin	-9.76034
kohta	-9.76039
▁naapuri	-9.76077
▁pö	-9.76093
▁Samall	-9.76121
▁asetta	-9.76137
▁kahde	-9.7624
▁vastusta	-9.76265
▁saare	-9.76352
▁lyö	-9.76367
▁asiakas	-9.76377
▁maajoukkue	-9.76381
▁Eurooppa	-9.76394
▁isesti	-9.76484
▁tyttö	-9.76587
▁maku	-9.76672
▁samoi	-9.76782
▁minull	-9.76788
▁Rovanperä	-9.76798
▁löysi	-9.76798
▁tuntui	-9.7681
kola	-9.76906
▁pide	-9.76909
▁äänestys	-9.77001
▁liikkee	-9.77033
▁Nor	-9.77042
▁ylivoima	-9.77126
▁missään	-9.77128
▁helposti	-9.77163
rah	-9.77175
▁Pitkä	-9.77178
telee	-9.77204
▁öljy	-9.77204
laisia	-9.77229
▁historia	-9.77249
▁vierailu	-9.77252
▁antama	-9.77288
ok	-9.77343
läinen	-9.77364
▁kal	-9.77423
vara	-9.77434
▁sisältä	-9.77508
▁Vuo	-9.77524
▁tilasto	-9.77634
▁löyty	-9.77705
kone	-9.77711
▁tavara	-9.77727
▁johtu	-9.77761
laiset	-9.77897
▁perustu	-9.7792
▁astee	-9.77932
▁kehitty	-9.7795
▁aurinko	-9.78022
▁lyhye	-9.78022
▁ampu	-9.78052
▁syntynyt	-9.78113
▁Eri	-9.78193
▁osu	-9.78195
▁pukeutu	-9.78232
siä	-9.78243
▁Sanna	-9.78251
▁kunto	-9.78312
▁helmikuussa	-9.78358
▁prinsessa	-9.78432
▁apu	-9.78542
▁(2	-9.78594
▁isän	-9.78607
▁pohtii	-9.78664
▁auttaa	-9.78677
▁toiseksi	-9.78678
▁pyrki	-9.78728
▁nousee	-9.78746
▁tiedon	-9.78839
▁Paimio	-9.78845
▁kuningas	-9.78846
▁Hallitus	-9.78873
▁yrityksen	-9.78891
▁Tie	-9.78954
halli	-9.78955
▁perin	-9.78969
▁bo	-9.79078
▁lauantai	-9.79141
▁Markk	-9.79263
▁tuoree	-9.79276
▁kirjo	-9.79291
▁järve	-9.79413
▁lainen	-9.79431
Pohjanmaa	-9.79468
▁vähentä	-9.79476
▁ajoneuvo	-9.79617
▁vauhti	-9.79676
▁kriisi	-9.79679
▁Kol	-9.79714
mar	-9.79783
▁taakse	-9.79784
▁jatkuva	-9.79823
▁syksyllä	-9.79852
▁seurauksena	-9.79888
▁ehdokas	-9.79909
▁toisin	-9.79984
▁varmaan	-9.79996
▁ehdokkaa	-9.80012
▁matkaa	-9.80017
▁300	-9.80076
▁urheilijoi	-9.80094
▁veden	-9.8021
▁miest	-9.80245
▁kuka	-9.80302
%	-9.80303
▁prinssi	-9.80304
▁miehet	-9.80408
toista	-9.8042
▁Kesä	-9.80469
▁häiriö	-9.80564
▁vettä	-9.8059
▁väl	-9.80592
▁olemassa	-9.80659
▁suosio	-9.80693
▁vahvistaa	-9.80695
▁este	-9.80719
▁sydän	-9.80725
▁yle	-9.80751
▁Seuraava	-9.80772
▁moottori	-9.80817
▁pääty	-9.80823
teltiin	-9.80856
▁huomio	-9.8086
▁perinteise	-9.80863
ila	-9.80926
▁Oulussa	-9.81054
▁suomalaiset	-9.81064
vuotis	-9.8108
▁testi	-9.81108
▁käänty	-9.81126
▁toimiva	-9.81126
▁Teemu	-9.81147
▁ly	-9.81148
▁ilmesty	-9.81155
▁suhte	-9.81308
▁ranna	-9.81327
tien	-9.81394
▁ketju	-9.81401
kar	-9.81497
ow	-9.81497
▁vastustaja	-9.81531
▁kolmi	-9.81564
▁2017	-9.81571
▁Aiemmi	-9.81571
mpe	-9.81576
▁tytö	-9.81594
▁voito	-9.81936
▁Ä	-9.81953
▁Kaarina	-9.81999
▁kehu	-9.82008
▁luki	-9.82023
▁laajen	-9.82074
▁opettaja	-9.82128
rad	-9.82135
▁lehti	-9.82151
▁tutustu	-9.82221
▁Er	-9.8224
▁Halua	-9.82251
▁merkki	-9.82258
▁huone	-9.82315
▁BBC	-9.82425
▁versio	-9.82432
▁ilmoit	-9.82436
▁verta	-9.82458
▁jutu	-9.82458
▁menesty	-9.82468
▁vahingo	-9.82518
kainen	-9.82537
▁puisto	-9.82601
▁Ranta	-9.82618
▁hetken	-9.82641
▁lisäänty	-9.82655
▁Rovanieme	-9.82692
▁soitta	-9.82728
▁puna	-9.82739
▁Jari	-9.8278
▁poikkeuksellise	-9.82801
▁asuva	-9.82847
▁ymmärtää	-9.82853
▁Tampereen	-9.82911
▁vel	-9.82932
▁luopu	-9.82934
▁uhkaa	-9.8295
neita	-9.82958
▁jonkin	-9.83035
str	-9.8306
▁saatta	-9.8307
lahde	-9.83074
▁Espanja	-9.83078
▁sisään	-9.8309
▁Por	-9.83205
alan	-9.83247
▁AFP	-9.83286
▁lapsia	-9.83297
▁nosti	-9.83326
▁jatkossa	-9.83335
▁Maria	-9.83373
▁sanottu	-9.8338
▁kotona	-9.8342
▁seuraavan	-9.83436
▁osavaltio	-9.83502
▁hevos	-9.83513
▁Muut	-9.83515
▁matkalla	-9.83612
▁yhteiskunna	-9.83614
▁mielessä	-9.83636
▁materiaali	-9.83673
▁Onko	-9.83704
▁Ruotsissa	-9.83706
▁heiko	-9.8372
▁tuote	-9.83774
▁kunnan	-9.8384
vuotiaa	-9.83888
▁kilpa	-9.83906
iltä	-9.83914
ard	-9.83933
▁alun	-9.83984
▁lopulla	-9.84
▁tunnista	-9.84149
▁nähnyt	-9.84155
▁du	-9.84161
▁joulukuussa	-9.84161
▁menettä	-9.84187
▁leiri	-9.84221
▁kuoleman	-9.84241
▁Sara	-9.84293
▁5-	-9.84302
▁minuuti	-9.84331
▁ryhmi	-9.84376
ukku	-9.84459
▁kasvoi	-9.84469
▁ongelmi	-9.8448
▁malla	-9.84509
▁kyy	-9.84633
▁astetta	-9.84672
▁pakko	-9.84688
esi	-9.84691
▁sarjassa	-9.84716
▁lentä	-9.84807
▁osasto	-9.84828
maton	-9.84843
▁lipu	-9.84843
▁tiedossa	-9.84883
▁vahv	-9.84915
▁kohtalo	-9.84927
▁aikaisemmin	-9.85051
▁vuosia	-9.85078
▁kerty	-9.85152
▁poista	-9.85157
▁kevään	-9.85176
▁kohtei	-9.85208
hko	-9.85342
▁reagoi	-9.85472
▁Tuolloin	-9.85502
▁mahdollisuude	-9.85512
▁Ottelu	-9.85566
▁Huo	-9.85619
▁viestintä	-9.85641
▁ver	-9.85648
▁korona	-9.85703
▁päätyi	-9.85715
▁yrityksi	-9.85756
▁esitys	-9.85791
▁vahvasti	-9.85813
▁paranta	-9.859
▁SDP	-9.85915
▁tammikuussa	-9.86063
▁kannatus	-9.86066
mari	-9.86074
▁huume	-9.86138
▁selkeä	-9.86148
▁Johann	-9.86176
▁nykyään	-9.86197
▁viranomaiset	-9.86206
▁syystä	-9.86263
▁Kiinan	-9.863
95	-9.86304
▁asioista	-9.86314
▁presidentinvaal	-9.86334
▁tyttäre	-9.8636
▁valitti	-9.86369
▁tutu	-9.86369
▁ainoasta	-9.8642
▁Palo	-9.86433
▁jalka	-9.86467
▁Mäki	-9.86484
▁400	-9.86493
.00	-9.86499
▁parhaan	-9.86541
▁Reuters	-9.86612
▁palkinto	-9.86639
▁ravi	-9.8666
▁Sch	-9.86732
▁kisan	-9.86841
▁osin	-9.86862
▁yllätys	-9.86871
▁Ge	-9.8688
▁naura	-9.86921
▁lopetta	-9.87022
▁haki	-9.87025
▁rauhan	-9.87057
▁joudu	-9.87077
▁da	-9.8714
▁Oh	-9.87164
▁kovaa	-9.8722
▁katsoja	-9.87231
▁toiseen	-9.87231
teko	-9.87233
▁kyky	-9.87257
▁ystävi	-9.87264
▁kansallis	-9.87349
▁ote	-9.87362
▁hilja	-9.87412
vuotiaana	-9.87447
▁siirtyi	-9.8746
▁aikataulu	-9.87481
▁muistelee	-9.87493
▁voittaa	-9.87519
▁syöpä	-9.8754
▁nopea	-9.8754
syy	-9.87637
elli	-9.87689
ario	-9.87693
▁maiden	-9.87721
▁yrittää	-9.87737
▁toisi	-9.87807
▁hinna	-9.87813
▁34	-9.87821
kilpailu	-9.87876
▁historian	-9.87903
▁käräjäoikeus	-9.87932
▁antanut	-9.87957
▁väkivalta	-9.87985
▁rahoitus	-9.87992
▁Siksi	-9.88003
▁tar	-9.88121
▁mukava	-9.88123
uksessa	-9.88186
neksi	-9.88197
▁toma	-9.88198
▁pudot	-9.8832
▁tapauksi	-9.88381
▁Bar	-9.88385
▁HS	-9.88471
▁vaa	-9.88535
▁silmi	-9.88561
▁koulun	-9.88579
▁joutunut	-9.88594
▁mikään	-9.88619
▁suostu	-9.88646
▁saira	-9.88764
▁uuteen	-9.88766
vaaleissa	-9.88804
pel	-9.88842
▁kuukautta	-9.88843
▁lähesty	-9.88863
▁tiuk	-9.8888
▁maata	-9.88938
▁36	-9.88939
▁kah	-9.88944
▁oikeuden	-9.88946
▁ruo	-9.88999
chi	-9.89006
▁harrasta	-9.89073
▁syyskuussa	-9.89096
▁aivo	-9.89098
ler	-9.89142
▁rakenta	-9.8916
▁Kemi	-9.89192
▁ukrainalais	-9.89195
▁lupaa	-9.89274
▁tullee	-9.89277
▁väärä	-9.8932
▁joukossa	-9.8933
▁tul	-9.89335
▁selit	-9.8934
▁liikunta	-9.89347
▁kasvatta	-9.89403
▁videolla	-9.89436
puolue	-9.89443
▁CNN	-9.89531
▁reissu	-9.89541
▁iseen	-9.8956
▁Toi	-9.89576
▁huomattavasti	-9.89619
▁yliopiston	-9.89623
▁länsi	-9.89624
aste	-9.89645
▁Ensimmäise	-9.8966
▁samaa	-9.89696
▁omat	-9.89702
utunut	-9.89721
▁Puu	-9.89755
▁Unkari	-9.89764
▁käytetty	-9.89842
▁ajattele	-9.89864
▁mukaisesti	-9.89869
idä	-9.89906
▁tapo	-9.89922
▁raju	-9.89968
▁esittä	-9.89982
▁oppositio	-9.89992
▁Lähi	-9.89993
▁otettu	-9.90004
▁Tilanne	-9.90015
▁rakenne	-9.90034
▁lippu	-9.90043
▁ammattilais	-9.9008
▁maailmancupi	-9.90085
▁sotaa	-9.90146
▁suoritus	-9.90224
▁hurja	-9.90226
lf	-9.90293
▁legenda	-9.90355
▁kovi	-9.90405
suo	-9.90453
▁vauhdi	-9.90456
▁Suomesta	-9.90456
▁saavutta	-9.90489
▁Sam	-9.90512
▁saama	-9.90529
▁pinta	-9.90554
▁kilo	-9.90588
▁oikeasti	-9.90604
▁kilpailun	-9.90616
▁Kansa	-9.9067
▁neljänne	-9.90701
▁aiheutti	-9.90703
▁kymmene	-9.9075
▁tarvitaan	-9.90766
▁heittä	-9.90806
▁esille	-9.90825
▁varmista	-9.90878
▁valmista	-9.90949
▁nukku	-9.91006
▁varus	-9.91033
▁miljardi	-9.91057
▁es	-9.91084
▁hyödy	-9.91086
malli	-9.911
▁32	-9.91106
▁of	-9.91107
▁Varha	-9.91212
▁super	-9.91219
▁omia	-9.9127
▁Ukrainaan	-9.91273
▁Kaa	-9.91276
▁ranta	-9.91352
▁ita	-9.9137
▁kaupan	-9.91408
▁tietä	-9.9142
paikka	-9.91434
▁marraskuussa	-9.91439
▁määrää	-9.9144
piste	-9.91465
ismi	-9.91472
▁kuski	-9.91474
▁viittaa	-9.91516
▁onkin	-9.91529
▁maajoukkuee	-9.91533
▁Mie	-9.91582
▁valko	-9.91587
▁kokoomukse	-9.91624
▁Nyky	-9.91641
▁kiito	-9.91666
ham	-9.91814
▁Ry	-9.91818
▁yhtiön	-9.91825
▁juontaja	-9.92009
▁aktiivi	-9.9209
▁kritisoi	-9.92095
▁eräs	-9.92139
▁iseksi	-9.92173
▁nimittä	-9.92223
▁peri	-9.9229
▁näitä	-9.92301
amp	-9.92305
▁Toyota	-9.92331
▁tehdy	-9.92334
▁tiimi	-9.92357
▁vierai	-9.92471
▁ulkoministeri	-9.92473
▁jänni	-9.92528
▁vuosikymmen	-9.92533
▁väestö	-9.92568
käs	-9.92576
▁perintei	-9.92634
▁puolet	-9.92658
reita	-9.92715
▁tuotte	-9.92734
▁säännö	-9.92794
▁Venäjälle	-9.92802
▁Urheilu	-9.92806
▁republikaani	-9.92806
▁Vielä	-9.92808
▁vajaa	-9.92878
▁kesäkuussa	-9.929
▁pelo	-9.92905
▁kahvi	-9.93018
huone	-9.93039
▁luonto	-9.93088
▁henkilöstö	-9.931
▁tulevi	-9.93107
".	-9.93129
▁tällai	-9.93143
▁mieleen	-9.93146
▁sairaalaan	-9.93178
▁ohjelmassa	-9.93289
▁llisi	-9.93319
▁löytää	-9.93319
oli	-9.93338
▁suomalaisen	-9.9341
▁matkan	-9.93411
▁Valtio	-9.93416
▁Kivi	-9.93419
▁toukokuussa	-9.93524
▁Ker	-9.93544
niemi	-9.93623
▁muuten	-9.93637
oilla	-9.93704
▁Kolme	-9.93707
▁päättää	-9.93732
▁tapaus	-9.9374
▁Taka	-9.9376
▁keskustelua	-9.93763
▁kuvaili	-9.93779
▁mieti	-9.93808
▁maala	-9.93846
▁kieli	-9.93877
▁myöntää	-9.93879
-20	-9.93886
▁riko	-9.9389
▁korvaa	-9.93946
▁hymy	-9.94028
▁seinä	-9.9405
▁Aika	-9.94058
▁paljastaa	-9.94096
▁halunn	-9.94147
▁vahvista	-9.94231
▁Sano	-9.94251
▁valmistautu	-9.94305
▁Kalle	-9.94374
▁Luo	-9.9439
▁kisassa	-9.9442
▁yhtään	-9.94421
▁Am	-9.9449
tteja	-9.94526
▁isia	-9.94533
mal	-9.9458
kirja	-9.94685
▁paitsi	-9.94728
▁käyttäyty	-9.94749
▁ele	-9.94764
▁Sha	-9.94779
▁kisaa	-9.94789
▁keh	-9.9481
▁kertoivat	-9.94829
kanava	-9.94843
hka	-9.9491
▁vapa	-9.94934
land	-9.94952
▁Paika	-9.94969
▁kapteeni	-9.9497
▁sekunni	-9.94974
▁Syyria	-9.94987
ttämään	-9.94996
▁syvä	-9.95043
▁Sai	-9.95054
▁kasvaa	-9.95072
▁muutoksia	-9.95094
▁haluaisi	-9.95096
▁11.	-9.95139
▁Il	-9.95142
keskukse	-9.9515
▁kiva	-9.95172
▁lokakuussa	-9.95203
▁Joki	-9.95215
▁d	-9.95216
ärä	-9.95228
▁kappale	-9.9523
▁selvää	-9.95347
▁Valto	-9.95397
▁päätty	-9.95429
▁säästö	-9.95436
▁matkusta	-9.95467
▁Pelto	-9.95543
▁ilmiö	-9.95552
▁Marko	-9.95557
▁tiellä	-9.95564
hoito	-9.95574
▁käynnissä	-9.95601
▁kolmas	-9.95628
▁2014	-9.95701
▁Mäkelä	-9.95701
▁puolelle	-9.95703
▁eduskuntaryhmä	-9.95708
▁tilanteeseen	-9.9571
▁ohje	-9.95736
▁tue	-9.95807
▁siirtä	-9.95948
▁tunnelma	-9.95972
vaali	-9.96008
▁esittää	-9.96045
▁suomalaise	-9.96134
▁keikka	-9.96158
▁Sdp	-9.96193
▁ymmärtä	-9.96194
▁nsä	-9.96212
▁siirto	-9.96224
▁tytär	-9.96225
vis	-9.9626
▁tehta	-9.96272
▁elämässä	-9.96304
▁Aalto	-9.96417
▁Usko	-9.96447
joiden	-9.96485
▁Nainen	-9.96585
▁(1	-9.9659
▁Miten	-9.96622
▁syyttäjä	-9.96667
▁eduskunta	-9.96679
▁Hanna	-9.96683
▁kunnioit	-9.96692
▁ajatus	-9.96696
▁tavoin	-9.967
▁taju	-9.96763
▁Ukrainalle	-9.96828
▁Lei	-9.9683
seura	-9.96847
▁lämpö	-9.96919
▁Meidä	-9.96964
▁näki	-9.9697
▁Gi	-9.97008
▁Ab	-9.97013
▁uudesta	-9.97147
▁Kaleva	-9.97186
▁levy	-9.97261
▁suuren	-9.9727
▁aio	-9.97283
▁rata	-9.97386
päällikkö	-9.9742
▁huolto	-9.9743
▁Niko	-9.97616
▁vaikutus	-9.97652
▁Sport	-9.97679
▁tuomittiin	-9.9768
▁pommi	-9.97688
▁osuus	-9.97726
▁lakko	-9.97732
▁Euroopassa	-9.97739
uudesta	-9.97755
▁pitävä	-9.97804
nnassa	-9.9784
▁aluksi	-9.97843
▁viiko	-9.97863
▁mielen	-9.97937
▁12.	-9.97972
▁vaaleissa	-9.98004
▁hää	-9.98081
▁entisen	-9.98088
▁kirje	-9.98109
▁Mil	-9.98117
▁Pir	-9.98124
hen	-9.98135
▁parhai	-9.98136
▁kohtee	-9.98178
utuu	-9.98208
▁Joona	-9.98211
▁piir	-9.98282
▁maaliskuussa	-9.98364
▁henkilöä	-9.9839
▁edistä	-9.98398
▁Linnan	-9.98443
▁videon	-9.98475
▁koulutus	-9.98566
▁peliä	-9.98581
▁järjestetä	-9.98595
▁Muu	-9.98622
▁Jyväskylä	-9.98683
▁Japani	-9.98688
▁Jenni	-9.98702
▁jaksossa	-9.98703
▁mun	-9.98706
line	-9.98766
iemen	-9.98787
▁Kirja	-9.98799
▁merkittävästi	-9.98803
▁tavoitteena	-9.98809
▁lähtenyt	-9.98841
▁keksi	-9.98845
▁yksikö	-9.9891
▁lukuisi	-9.98963
▁astu	-9.98965
▁epäily	-9.9898
▁tällaise	-9.98983
▁uha	-9.99018
yys	-9.99068
▁lais	-9.99084
▁kokee	-9.99086
▁elokuussa	-9.99193
▁kier	-9.99202
elmi	-9.99243
▁pysyvä	-9.99264
art	-9.99279
▁tauo	-9.99289
▁Kim	-9.99313
▁mie	-9.99349
▁nap	-9.99362
▁kuude	-9.99389
▁tarjolla	-9.99393
ttaisiin	-9.99402
▁helpo	-9.99422
▁artikkeli	-9.99442
poli	-9.99469
tso	-9.99501
▁33	-9.99508
▁Libanoni	-9.99521
▁arki	-9.99548
▁vaiva	-9.9965
▁keske	-9.9968
▁valita	-9.99681
▁bi	-9.99697
▁johtava	-9.99699
▁William	-9.99721
▁ajat	-9.99755
▁ampuma	-9.99809
sarjassa	-9.99833
▁harjoit	-9.99844
▁kilpailussa	-9.99851
tellut	-9.99857
▁mita	-9.99888
▁rake	-9.99921
▁tulipalo	-9.99953
▁nimenoma	-9.99962
▁uksen	-10.0003
fo	-10.0015
▁via	-10.0018
isty	-10.0019
▁alkanut	-10.0021
▁aikaise	-10.0021
keskus	-10.0021
▁tapasi	-10.0029
▁vallan	-10.0031
▁suunnitelmi	-10.0034
▁täyte	-10.0035
▁Suur	-10.0035
▁Olisi	-10.0036
komis	-10.004
les	-10.0042
▁politiikan	-10.0043
▁projekti	-10.0046
▁purka	-10.0049
tely	-10.0058
▁paikallise	-10.006
▁yhtenä	-10.0072
▁Daniel	-10.0072
▁markkina	-10.0072
▁komp	-10.0073
▁valmiste	-10.0073
▁tärkei	-10.0079
▁korostaa	-10.0081
▁Fe	-10.0082
▁lapse	-10.0086
▁osoitta	-10.0089
▁kol	-10.0092
▁käde	-10.0095
▁Ihan	-10.01
▁Ol	-10.01
▁vaikutukse	-10.0103
▁synny	-10.0106
▁ol	-10.0108
▁selvittää	-10.0112
▁mpi	-10.0113
▁vää	-10.0118
kymmentä	-10.0119
▁perään	-10.0121
▁sammu	-10.0126
▁hirveä	-10.0132
▁tunti	-10.0141
tejä	-10.0143
▁katsoa	-10.0147
▁Charles	-10.0149
▁HIFK	-10.015
▁vaihtu	-10.0151
▁pidetään	-10.0153
▁laatu	-10.0156
▁yksilö	-10.0158
▁korot	-10.0169
▁eksi	-10.0172
▁julkise	-10.0173
tz	-10.0175
ev	-10.0178
▁2.	-10.018
▁naiset	-10.0191
▁Ir	-10.0191
▁puhui	-10.0194
teltu	-10.0197
▁yhteyttä	-10.0202
▁Ehkä	-10.0202
▁ryhty	-10.0202
▁muistaa	-10.0208
▁edu	-10.0223
▁voimaan	-10.0226
]	-10.0228
▁USA	-10.0228
▁kamera	-10.0229
▁tavoitte	-10.023
▁sanonut	-10.0231
▁kerää	-10.0235
▁käytöstä	-10.0235
▁197	-10.0237
▁vakavasti	-10.0238
▁varuste	-10.0247
▁muodo	-10.0252
▁strategi	-10.0254
▁artisti	-10.0254
▁tiedotti	-10.0254
▁konee	-10.0255
▁kulje	-10.0262
▁2024.	-10.0262
kyky	-10.0262
▁laiva	-10.0263
mpana	-10.0263
ttoman	-10.0265
▁Edell	-10.027
▁Red	-10.0275
▁vaikeaa	-10.0275
▁julkisuudessa	-10.0278
▁kiistä	-10.0278
▁Joensuu	-10.028
▁[	-10.028
▁suoritta	-10.0281
▁Juttu	-10.0291
▁varautu	-10.0296
▁oikeude	-10.0299
etään	-10.0299
▁rikollis	-10.0304
▁Moskova	-10.0306
▁urallaan	-10.0311
▁Sää	-10.0318
▁muka	-10.033
▁muutti	-10.0334
sso	-10.0339
▁pääsy	-10.0341
▁lukio	-10.0342
▁tuoda	-10.035
▁myrsky	-10.0351
▁jutussa	-10.0353
▁selkä	-10.0362
lääkäri	-10.0363
▁toivoo	-10.0364
▁halv	-10.0365
▁valvonta	-10.0366
▁katsoo	-10.0366
▁suurempi	-10.0373
▁selvisi	-10.0374
▁puolustaja	-10.0376
▁ohjelman	-10.0384
▁jälki	-10.0386
▁suru	-10.0398
▁kuolleen	-10.0409
▁heikko	-10.0411
▁kiinnosta	-10.0412
▁Oikeus	-10.0412
▁mestaruus	-10.0412
▁aamulla	-10.0413
▁odotetaan	-10.0414
▁vauva	-10.0415
▁kuolemaa	-10.0416
Suomessa	-10.0417
▁vakuut	-10.0418
▁kilpaile	-10.042
▁alus	-10.0425
▁kas	-10.0429
▁tele	-10.0435
▁lämmit	-10.0445
▁37	-10.0448
▁City	-10.0452
▁pelkästä	-10.0454
kausi	-10.0458
▁Aja	-10.0458
▁ota	-10.0459
▁maalivahti	-10.0466
▁professori	-10.0467
▁koki	-10.0468
elokuva	-10.0471
▁tiivis	-10.0478
▁joihin	-10.0481
▁sinä	-10.0484
▁hau	-10.0484
▁pelasta	-10.0487
▁olympialais	-10.0489
▁Päivä	-10.0493
▁näytö	-10.0493
▁ulkopuolella	-10.0494
▁13.	-10.0495
▁bussi	-10.0496
▁lainkaan	-10.0499
aattori	-10.0503
▁kappalee	-10.0505
▁vien	-10.0515
▁leikkaus	-10.052
▁pyysi	-10.052
▁miseksi	-10.0521
▁jäädä	-10.0522
tonta	-10.0529
▁lukema	-10.0531
▁teatteri	-10.0536
▁ukse	-10.0543
▁organisaatio	-10.0547
▁muisti	-10.0548
mitali	-10.0555
▁viranomaist	-10.0559
▁Or	-10.0563
▁vene	-10.0573
▁musiiki	-10.0574
▁osi	-10.0575
▁oire	-10.0583
▁kaasu	-10.0586
päin	-10.0597
▁amerikkalais	-10.0608
▁vankila	-10.061
10	-10.0614
▁heinäkuussa	-10.0621
▁pystyi	-10.0622
▁osui	-10.0626
▁tulevan	-10.0628
▁aiempaa	-10.0628
▁Toisaal	-10.0628
▁alueilla	-10.063
par	-10.0633
▁9.	-10.0637
▁Koska	-10.0648
▁epäilee	-10.0648
elma	-10.0653
▁varsinkin	-10.0654
▁kerralla	-10.0655
▁uksesta	-10.0656
▁raskaa	-10.0658
▁iltapäivällä	-10.0661
▁heistä	-10.0666
▁Br	-10.0667
▁huhtikuussa	-10.0673
▁Elä	-10.0673
▁Vain	-10.0675
▁soitti	-10.0678
▁lahja	-10.0679
▁lohko	-10.068
▁hävisi	-10.0682
▁Euro	-10.0683
▁johti	-10.0689
▁muuttaa	-10.069
▁38	-10.0694
▁miehi	-10.0695
▁heille	-10.0699
lvi	-10.0704
▁lääke	-10.071
▁välisen	-10.0712
▁kauan	-10.0717
▁viimeistä	-10.0719
▁kaupungissa	-10.0723
▁lasi	-10.0729
▁laite	-10.0729
▁kyseise	-10.073
▁sade	-10.0734
▁hiljattain	-10.0737
▁tarkist	-10.0741
▁Hamasi	-10.0742
▁vaka	-10.0742
vuus	-10.0747
▁Anni	-10.0748
▁voittoon	-10.075
▁löytynyt	-10.0753
▁kuuden	-10.0761
▁jäte	-10.0761
▁voittoa	-10.0763
å	-10.0765
▁vanhemma	-10.0765
▁Viesti	-10.0765
▁tyyppi	-10.0768
▁pakka	-10.0768
▁onnistunut	-10.0777
▁maailmaa	-10.0777
▁17.	-10.0782
▁Minull	-10.0784
▁homma	-10.0786
▁Tutki	-10.0798
▁kannata	-10.0799
▁osuma	-10.0802
▁taan	-10.0809
koulu	-10.081
▁Emme	-10.0811
▁paran	-10.0819
▁loukkaantui	-10.082
▁kipu	-10.082
▁Vil	-10.082
▁nähden	-10.0821
▁sellaisia	-10.0821
▁lausunto	-10.0822
▁ruokaa	-10.0824
▁Kamal	-10.0826
▁kertoa	-10.0827
▁Salossa	-10.0849
▁kentä	-10.0853
▁kestävä	-10.0854
▁seuraaja	-10.0856
▁hidas	-10.0871
▁asuu	-10.0871
▁myönsi	-10.0876
▁vahinko	-10.0876
▁Tampereella	-10.0877
▁liittyen	-10.089
▁My	-10.0893
▁laski	-10.09
mäen	-10.0903
ü	-10.0904
▁Hil	-10.0904
▁tähden	-10.0904
▁saavut	-10.0906
▁näyttä	-10.0906
▁ikävä	-10.0906
media	-10.0907
perä	-10.0911
▁Usei	-10.0912
mmaksi	-10.0926
▁tappa	-10.0931
▁ohjus	-10.0932
▁dollaria	-10.0932
▁käynnisty	-10.0932
▁eroa	-10.0933
▁Loimaa	-10.094
▁Mur	-10.0941
▁Uuden	-10.0948
▁Star	-10.0949
▁muodostu	-10.0949
▁toimisto	-10.0954
▁puku	-10.0954
▁7.	-10.0956
▁jaksa	-10.0956
▁millä	-10.0959
▁luottamus	-10.096
▁Niskanen	-10.096
▁Virta	-10.0962
▁Molemm	-10.0966
▁näe	-10.0968
hei	-10.097
▁pelastus	-10.0971
che	-10.0972
▁ammu	-10.0977
▁kiertä	-10.0979
utensa	-10.098
▁Haapa	-10.0982
▁paikkoja	-10.0983
▁suomalaist	-10.0985
▁ikkuna	-10.0988
▁Koivu	-10.0988
▁vaikeuksi	-10.0989
▁tuskin	-10.0992
▁ehdokkai	-10.1002
▁pelissä	-10.1012
▁puhdist	-10.1018
▁peit	-10.1018
▁Patri	-10.1019
▁valvo	-10.102
▁laulu	-10.1022
▁poliisille	-10.1022
▁Ly	-10.1026
▁käyttäjä	-10.1027
▁lähetti	-10.1028
ellyt	-10.1044
▁Washington	-10.1045
▁tyytyväinen	-10.1045
▁Martin	-10.105
▁Perhe	-10.1052
▁rivi	-10.1052
▁Ensimmäi	-10.1057
▁päätöstä	-10.1059
▁Q	-10.1063
▁tapahtunee	-10.1066
▁Gre	-10.1067
▁Air	-10.1069
▁etukäteen	-10.1073
▁saattoi	-10.1073
▁kokenut	-10.1074
▁julkisuuteen	-10.1074
▁haave	-10.1078
▁kuvat	-10.108
▁käytetään	-10.1081
▁tiedottaa	-10.1081
▁pitki	-10.1082
▁savu	-10.1084
▁hyväksi	-10.1087
▁syyttä	-10.1091
▁bu	-10.1093
▁laina	-10.1099
▁paikalta	-10.1101
▁lämpimä	-10.1102
▁News	-10.1108
ast	-10.1109
▁39	-10.1109
▁suhde	-10.112
▁vaikutti	-10.1121
▁matkustaja	-10.1122
▁erää	-10.1125
▁väite	-10.1129
▁lausunno	-10.113
▁Pelicans	-10.113
▁selviää	-10.1134
▁kuulla	-10.1135
▁Ali	-10.1136
▁vaatte	-10.1137
▁hankkee	-10.115
▁Kyl	-10.1157
▁tapaan	-10.116
▁varasto	-10.1161
▁juoma	-10.1163
▁Valko	-10.1167
▁kuninkaallis	-10.1174
▁taide	-10.1181
▁vetäyty	-10.119
▁valmi	-10.1192
▁puhelin	-10.1193
▁Henri	-10.1194
▁kasvanut	-10.1196
▁tarvitsee	-10.1199
▁naista	-10.12
▁Las	-10.1202
▁tuolla	-10.1206
▁Lapissa	-10.1208
▁ydinase	-10.1217
▁yhdysvaltalais	-10.1218
▁parhailla	-10.1221
▁taito	-10.1224
▁im	-10.1225
▁opi	-10.1231
▁politiikkaa	-10.1232
▁15-	-10.1234
illut	-10.1241
▁Tuoma	-10.1243
▁Koulu	-10.1245
▁välierä	-10.1245
▁väitti	-10.1246
▁pelaajat	-10.125
▁John	-10.1251
▁kokouksessa	-10.1252
▁hengen	-10.1254
ttömän	-10.126
▁Käy	-10.1265
▁sekuntia	-10.1274
▁huomasi	-10.1274
▁toisell	-10.1277
▁kiele	-10.128
▁kasa	-10.1281
▁mar	-10.1283
llisuus	-10.1283
▁Tähä	-10.1289
▁joukkoon	-10.1293
▁viisu	-10.1295
▁esta	-10.1302
▁Barkov	-10.1304
▁TV	-10.1314
▁kiertue	-10.1318
▁vihreä	-10.1319
▁or	-10.132
▁Erityise	-10.1334
▁edellis	-10.1336
▁pojan	-10.134
ranta	-10.1341
▁kuvassa	-10.1341
▁Trumpia	-10.1345
kkö	-10.1346
▁hävit	-10.1347
▁Vanha	-10.1349
▁kertoma	-10.1356
▁maine	-10.1359
▁siviili	-10.1362
▁museo	-10.1362
▁pelata	-10.1365
▁Pääministeri	-10.1365
▁julkaisema	-10.1366
tyksiä	-10.1367
▁julki	-10.1369
▁sähköauto	-10.1372
tieto	-10.1374
ze	-10.1378
▁nut	-10.138
▁yhteise	-10.1382
▁14.	-10.1388
▁kestää	-10.1389
▁poja	-10.1391
▁raportoi	-10.1391
▁sisältö	-10.1391
▁Päivi	-10.1391
▁vuodelta	-10.1391
▁rohke	-10.1391
▁kivi	-10.1392
▁Nii	-10.1394
▁haluavat	-10.1397
▁pak	-10.1399
▁katke	-10.14
▁vih	-10.1401
▁Liiga	-10.1403
▁kokemus	-10.1403
▁vieraili	-10.1406
▁16.	-10.1407
we	-10.1418
▁runkosarja	-10.142
▁radio	-10.142
▁Jess	-10.1422
yyden	-10.1422
vaara	-10.1422
▁tietenk	-10.1424
▁Anne	-10.1425
▁Jani	-10.1427
▁siten	-10.1434
▁nope	-10.1438
ejä	-10.1439
▁taho	-10.1441
▁otte	-10.1442
▁uudet	-10.1443
▁ovi	-10.1445
▁selvitykse	-10.1446
▁demokraatti	-10.1448
▁kokoonpano	-10.145
▁myöntä	-10.1465
▁44	-10.1467
▁ympärillä	-10.1474
▁dollari	-10.1479
▁Englanni	-10.1479
sivusto	-10.148
▁Maailman	-10.1481
▁iste	-10.1483
▁Mikael	-10.1485
▁puolustukse	-10.1493
teja	-10.1495
▁käsittele	-10.1498
▁hankala	-10.1509
▁puoluee	-10.151
▁rakasta	-10.1511
▁puol	-10.1516
▁uude	-10.1518
▁Emm	-10.152
▁sijoittui	-10.1526
▁kuljetta	-10.1531
▁pitkin	-10.1533
▁keittiö	-10.1539
▁arvostel	-10.1539
▁edellä	-10.1539
▁kulku	-10.1546
▁esitti	-10.1564
▁koulutukse	-10.1568
▁Elin	-10.1568
▁Käräjäoikeu	-10.1569
▁2015	-10.157
▁laitte	-10.1571
▁21.	-10.1572
▁terä	-10.1574
▁kuolle	-10.1574
lund	-10.1577
▁näi	-10.1578
▁totta	-10.1585
▁hallinnon	-10.1586
▁20-	-10.159
▁välittömästi	-10.1599
▁merkittävi	-10.1599
▁huolissaan	-10.1599
▁Simo	-10.16
▁upea	-10.1601
▁väliin	-10.1602
▁sali	-10.1605
▁lähin	-10.1607
▁istui	-10.161
▁rakas	-10.161
▁maaliin	-10.161
▁Ruu	-10.1612
urheilu	-10.1612
▁hiihtä	-10.1623
▁käytti	-10.163
▁pronssi	-10.1631
▁8.	-10.1634
▁Emil	-10.1634
▁sti	-10.1635
ottanut	-10.1637
▁mään	-10.1639
▁15.	-10.1639
▁puhua	-10.1643
voitto	-10.1644
kov	-10.1649
▁tarttu	-10.165
▁er	-10.1652
▁kodin	-10.1655
▁vaurio	-10.1657
▁pisteen	-10.1659
▁kieko	-10.1659
maali	-10.1663
▁suunnittele	-10.1666
▁parasta	-10.1671
▁varoi	-10.1671
ohjelma	-10.1673
Y	-10.1673
▁merkin	-10.1674
ologi	-10.1686
kauden	-10.1688
▁Mark	-10.1688
▁Sähkö	-10.1689
▁ennakoi	-10.1689
▁todista	-10.1689
▁Media	-10.169
▁vastaus	-10.1691
▁pitkäaikai	-10.1693
▁puhuu	-10.1696
▁sijoitus	-10.1696
▁Pelastuslaito	-10.17
▁palki	-10.1714
▁paljasti	-10.1719
▁lako	-10.1721
▁parissa	-10.1721
▁Aki	-10.1722
▁tyhj	-10.1723
▁neli	-10.1724
▁West	-10.1732
▁jäsene	-10.1733
▁tunnus	-10.1739
▁jakoi	-10.1742
▁llinen	-10.1742
▁Vuosi	-10.1747
▁millai	-10.1748
▁sydäme	-10.175
▁sitoutu	-10.1752
▁Loppu	-10.1756
▁Joka	-10.1757
▁pinna	-10.1759
▁möki	-10.176
▁tuotteita	-10.176
▁omalla	-10.1762
▁britti	-10.1762
▁150	-10.1773
tter	-10.1774
▁valmennus	-10.178
▁täyden	-10.1783
▁tavoittee	-10.1785
▁ajankohta	-10.1785
▁laitos	-10.1789
uudella	-10.1792
▁luvan	-10.1798
▁illalla	-10.18
▁Australia	-10.1811
▁tuomitsi	-10.1811
▁siirret	-10.1811
tilillään	-10.1811
▁Robert	-10.1811
▁sijoitta	-10.1814
▁ruotsalais	-10.1816
▁Kokko	-10.1817
▁tauti	-10.1821
▁Koskela	-10.1824
▁sanotaan	-10.183
▁55	-10.183
▁nolla	-10.1832
▁tilante	-10.1832
▁kisoissa	-10.1833
▁Lappi	-10.184
▁pesu	-10.1841
▁Innes	-10.1846
▁Pol	-10.185
▁kuvattu	-10.1853
▁korkei	-10.1854
▁töihin	-10.1854
▁sula	-10.1858
▁huomaa	-10.1859
▁arje	-10.186
tellyt	-10.1869
▁parlamenti	-10.1872
Amerika	-10.1873
▁vire	-10.1874
▁kaatu	-10.1878
▁joulukuuta	-10.188
▁tulevaisuudessa	-10.1883
▁Mor	-10.1885
▁maailmanmestari	-10.1885
▁Anton	-10.1888
Stubb	-10.1889
elämä	-10.1896
shi	-10.1896
▁ste	-10.1898
▁pysähty	-10.1903
▁elää	-10.1904
iihen	-10.1905
▁maasto	-10.1912
▁muuttui	-10.1912
▁tunneta	-10.1913
▁neuvosto	-10.1913
▁toimitta	-10.1913
▁pahoi	-10.1924
ittain	-10.1929
▁innostu	-10.1934
pelaaja	-10.1936
▁asiakkaa	-10.1937
▁Heidä	-10.1939
▁suunnittelu	-10.1941
puisto	-10.1942
▁nykyisi	-10.1944
▁epäillyn	-10.1945
▁sotila	-10.1957
▁vihre	-10.196
oiden	-10.1962
▁viikonlopu	-10.1965
▁luvassa	-10.1966
▁käyttöä	-10.1967
▁Ant	-10.1968
▁väärin	-10.1968
▁katto	-10.1972
▁Tila	-10.1975
▁Fo	-10.1976
▁avautu	-10.1977
▁nuoret	-10.1978
zz	-10.1981
▁Kil	-10.1986
▁6.	-10.1993
▁viedä	-10.2
▁veri	-10.2005
▁Enti	-10.2008
▁65	-10.2009
llisten	-10.2011
▁mäki	-10.2011
▁tor	-10.2015
▁tiede	-10.2016
▁häiri	-10.2016
▁6-	-10.2016
▁avio	-10.2018
▁synty	-10.202
▁tiedustelu	-10.2024
▁keskimäärin	-10.2027
▁reaktio	-10.2027
▁irti	-10.2028
▁hauska	-10.2031
▁Carl	-10.204
▁erässä	-10.2049
▁Py	-10.2055
▁selvittä	-10.2056
▁Espanjan	-10.2058
▁hybridi	-10.2059
▁yllättäen	-10.2059
▁Yhtiö	-10.2059
isuuden	-10.2062
▁piilo	-10.2063
▁lähetys	-10.2066
▁miin	-10.207
▁pient	-10.207
▁Isä	-10.2073
▁tasavalla	-10.2082
▁vanhempi	-10.2086
▁esimerkki	-10.2092
▁ollessa	-10.2093
▁pankki	-10.2094
▁suuria	-10.2096
▁yhteistyötä	-10.2098
▁muistel	-10.2099
▁keväänä	-10.2101
▁läheis	-10.2103
og	-10.2104
▁Sar	-10.2106
▁virta	-10.2112
▁seiso	-10.2113
▁ilmoituksen	-10.2115
▁paljastu	-10.2117
▁maailmassa	-10.2118
▁liikenteen	-10.2119
▁kommentti	-10.2122
▁teknologia	-10.2123
▁muuttunut	-10.2128
▁henkilöauto	-10.2129
▁Haka	-10.213
▁osoittaa	-10.2134
▁Ad	-10.2136
▁lauantain	-10.2139
▁Musk	-10.2141
▁näistä	-10.2145
▁Tomm	-10.2146
ksestä	-10.215
▁HJK	-10.2153
▁heikentä	-10.2153
▁uudistu	-10.2154
▁paperi	-10.2155
▁nuo	-10.2158
▁Max	-10.2164
▁Erik	-10.2167
ointi	-10.2167
▁tuottee	-10.2167
▁Tällai	-10.2174
raja	-10.2175
holm	-10.2176
cu	-10.2176
▁joukkuetta	-10.2181
▁potku	-10.2186
▁syksynä	-10.2191
▁kymmeniä	-10.2197
▁Lauantain	-10.2201
▁salli	-10.2203
ttavasti	-10.2204
ehdokas	-10.2205
▁kiusa	-10.2205
▁Puhe	-10.221
▁tarkemmin	-10.2217
▁Neljä	-10.2217
▁tyhjä	-10.2217
▁ikinä	-10.2219
▁kokemukse	-10.222
▁vastaisen	-10.222
▁Alue	-10.2221
▁Pri	-10.2222
voimien	-10.2223
▁sote	-10.2227
▁Saksassa	-10.2229
▁edellisen	-10.2229
▁47	-10.223
▁kulma	-10.2234
suojelu	-10.2238
▁eläke	-10.224
▁sp	-10.2243
pl	-10.2244
▁julkaiss	-10.2249
▁Harkimo	-10.2249
▁järjestely	-10.2249
▁harjoittelu	-10.2251
▁suojelu	-10.2252
▁silla	-10.2258
▁eurolla	-10.2258
▁46	-10.2264
▁huomioon	-10.2268
▁Finland	-10.2281
▁erinomai	-10.2282
▁viralli	-10.2283
▁Nokia	-10.2284
▁ohell	-10.2285
▁Rantanen	-10.2285
puoli	-10.2288
ohjelman	-10.23
▁Fu	-10.2303
isuudessa	-10.2313
▁törkeäst	-10.2314
▁milloin	-10.2323
▁196	-10.2324
▁tavallise	-10.2324
▁alkavat	-10.2324
▁48	-10.2329
▁asukkai	-10.2332
▁näkyvä	-10.2333
liikenne	-10.2336
▁pelaava	-10.234
▁tapausta	-10.2348
▁3-	-10.2355
▁rangaistus	-10.2356
immista	-10.2366
öin	-10.2366
▁tapahtumia	-10.2371
▁pelaajia	-10.2373
ltään	-10.2377
puu	-10.2378
▁Kallio	-10.2378
▁itsestään	-10.2378
▁Vier	-10.2391
mmät	-10.2394
▁tori	-10.2395
▁kenttä	-10.2399
▁aiheuttama	-10.24
▁yleise	-10.2404
▁muihin	-10.2407
▁metri	-10.2408
▁täynnä	-10.241
▁kuningatar	-10.2411
ohja	-10.2416
▁haku	-10.2425
▁epäilly	-10.2431
▁Krista	-10.2438
▁Kuopio	-10.2443
▁raporti	-10.2443
▁loukkaantumis	-10.2443
▁keräsi	-10.2443
▁suomalaista	-10.2445
▁väliaika	-10.2453
▁Sä	-10.2456
▁valmistelu	-10.2456
▁rintama	-10.2459
▁kuul	-10.246
▁Str	-10.2461
▁Hallitukse	-10.2463
▁varaa	-10.2465
▁esiintyi	-10.2469
▁kaiva	-10.247
▁75	-10.2471
▁vapaaehtois	-10.2476
▁jatkuvasti	-10.2476
▁Sisä	-10.2478
▁sivusto	-10.2482
▁km	-10.2488
▁päivitykse	-10.2491
▁konser	-10.2493
▁suku	-10.25
▁liki	-10.2501
▁autojen	-10.2502
▁Myöhemm	-10.2508
▁epäonnistu	-10.2508
▁rauhoit	-10.2508
▁poikkeus	-10.2508
▁treeni	-10.2508
▁puuko	-10.2514
▁Somero	-10.2514
▁Super	-10.2517
▁Ham	-10.2531
▁Elo	-10.2534
▁rinna	-10.2536
▁Vuori	-10.2542
▁yleisurheilu	-10.2542
▁Juuso	-10.2543
sd	-10.2543
▁2021.	-10.2543
▁mainos	-10.2549
▁Lopul	-10.2549
▁pysäyttä	-10.2549
▁19.	-10.255
▁800	-10.2552
▁ttava	-10.2557
▁suunnitte	-10.2559
▁turvallis	-10.256
elty	-10.2561
▁ennätykse	-10.2567
▁pyrkii	-10.2569
▁helpot	-10.257
▁vangit	-10.2573
▁onnettomuus	-10.2574
▁vahvisti	-10.2575
▁pöytä	-10.2577
▁Aino	-10.2582
▁Perjantain	-10.2583
▁seurasi	-10.2583
▁itsenäi	-10.2586
▁laati	-10.2598
▁tarpeeksi	-10.26
▁Michael	-10.2607
▁paremma	-10.2608
▁Kristi	-10.2608
▁putke	-10.2609
▁Esi	-10.261
▁huomioi	-10.2616
▁näkökulmasta	-10.2624
▁kuntoon	-10.2628
▁yhtye	-10.2633
▁lyhyt	-10.2641
▁varrella	-10.2641
▁muille	-10.2642
▁gr	-10.2642
▁kesäkuu	-10.2645
▁Fra	-10.2647
▁hyödyntä	-10.265
▁väh	-10.2655
▁Erä	-10.2659
▁suojel	-10.266
▁useamma	-10.2663
▁kaatui	-10.2673
▁poseera	-10.2674
▁siivo	-10.2675
▁avusta	-10.2675
▁ajatella	-10.2677
▁kappaletta	-10.269
▁kuuma	-10.2691
▁veny	-10.2693
▁huoli	-10.2699
▁Mc	-10.2705
▁katkais	-10.2707
▁polttoaine	-10.2708
▁kaipaa	-10.2709
far	-10.271
Sanomille	-10.271
▁maksamaan	-10.2716
▁eteni	-10.2718
▁do	-10.2729
▁ulkoministeriö	-10.2731
▁koski	-10.2734
▁Ari	-10.2735
▁punaise	-10.2735
▁Kär	-10.274
▁teos	-10.2743
▁Valtter	-10.2747
▁laisi	-10.2756
▁jono	-10.2761
▁kerrottu	-10.2761
▁varjo	-10.2765
▁tulokset	-10.2769
▁pudotuspeli	-10.2775
▁todiste	-10.2775
▁selittää	-10.2777
▁lämmin	-10.2786
▁allekirjoit	-10.279
▁välise	-10.2794
▁Mel	-10.2794
▁vakavi	-10.2796
▁vasemmisto	-10.2799
▁laita	-10.28
▁lapsille	-10.2806
▁Sarja	-10.2806
▁2012	-10.2808
▁unelma	-10.281
▁rasva	-10.2815
▁sairaalassa	-10.2823
▁Lahti	-10.2838
ele	-10.2842
▁bändi	-10.2842
▁enempää	-10.2842
▁menehty	-10.2843
ling	-10.2844
▁yhteyden	-10.2844
▁Aamu	-10.2844
▁turvallisuuden	-10.2849
▁merkitystä	-10.2851
kesk	-10.2852
▁mestaruuden	-10.2854
▁sanoma	-10.2856
▁kannattaji	-10.2866
▁äly	-10.2866
▁41	-10.2866
▁näkyi	-10.2867
kauppa	-10.2869
▁kamppailu	-10.2876
▁Lontoo	-10.2876
▁valmiiksi	-10.2877
▁Lehti	-10.2877
▁Ilves	-10.2878
▁omien	-10.2879
▁avasi	-10.2881
▁menestykse	-10.2881
▁niissä	-10.2883
▁mahtu	-10.2884
▁korjaus	-10.2888
▁olympialaisissa	-10.2889
▁aste	-10.289
▁Toki	-10.2892
▁alkoivat	-10.2894
▁kilpailija	-10.29
virasto	-10.2903
▁lukija	-10.2907
▁tuntee	-10.291
▁Kanerva	-10.291
▁een	-10.2911
▁voitaisiin	-10.2911
▁asukkaa	-10.2913
▁lehdistö	-10.2917
▁tapahtuneesta	-10.2919
▁Kuka	-10.2921
▁18-	-10.2923
▁tyy	-10.2924
▁Turku	-10.2926
▁viimeisi	-10.2927
▁Tää	-10.293
▁Karjala	-10.293
▁verko	-10.2935
pyy	-10.2936
▁22.	-10.2942
▁Valta	-10.2944
merkki	-10.2944
▁historiaa	-10.2944
▁tulevaisuude	-10.2944
▁yhteys	-10.2945
▁pakkas	-10.2951
▁Mail	-10.2951
▁ile	-10.2964
▁vika	-10.2966
▁vatsa	-10.2967
▁Sunnuntain	-10.2968
▁velje	-10.2968
▁Asiantuntija	-10.2979
▁vaihdo	-10.2979
▁Latvia	-10.2979
▁uudestaan	-10.2984
▁löi	-10.2987
▁viile	-10.2994
▁kannatta	-10.2997
▁äidin	-10.3
▁sattu	-10.3013
▁Lindtman	-10.3014
▁kunnolla	-10.3014
▁Minä	-10.3023
▁kesäkuuta	-10.303
▁Venäjää	-10.3033
▁Jää	-10.3037
▁väkivallan	-10.3038
▁törmä	-10.304
▁kuri	-10.3045
▁valmenta	-10.3046
▁äänestykse	-10.3048
▁hopea	-10.3057
▁siirtyy	-10.3061
▁kaista	-10.3061
▁seitsemä	-10.3063
▁hyvinvointi	-10.3066
▁iltä	-10.3066
▁erilaisi	-10.3069
gar	-10.3076
▁eläkkee	-10.3083
▁avo	-10.3086
▁Uude	-10.3086
▁pidetty	-10.3089
▁sävy	-10.309
▁esillä	-10.3094
▁mahdollisuuksia	-10.3097
▁idea	-10.3097
▁isoja	-10.3099
▁tunnusta	-10.31
▁tekemi	-10.3102
▁pysyy	-10.3106
▁keika	-10.3107
▁tänne	-10.3115
▁ilmoittanut	-10.3118
▁aiheutu	-10.3118
▁Dallas	-10.312
▁vaikuttavat	-10.3121
▁jäivät	-10.3121
▁Kela	-10.3124
▁tupa	-10.3127
▁liikke	-10.314
▁Muun	-10.3141
▁uudis	-10.3141
tilaisuudessa	-10.3144
▁rokot	-10.3145
▁2013	-10.3153
▁Leijona	-10.3153
▁tekoäly	-10.3153
▁kieltäyty	-10.3155
▁kokoontu	-10.3156
▁pelataan	-10.3158
▁Tapahtuma	-10.3164
▁tunee	-10.3167
▁työskentele	-10.3173
▁tote	-10.3181
▁Suurin	-10.3185
▁tarkastel	-10.3189
▁kei	-10.3199
▁ohjaaja	-10.32
▁pelaamaan	-10.3202
▁hoid	-10.321
▁kanava	-10.3215
ttaisi	-10.3216
▁hoitaa	-10.3219
▁Katri	-10.3223
▁nousta	-10.3224
▁noudatta	-10.3226
▁estää	-10.3227
▁toipu	-10.3227
▁paljastui	-10.3228
▁vaihde	-10.3231
▁naisia	-10.3239
▁hur	-10.3242
▁järk	-10.3246
▁kahdeksa	-10.3249
▁lopettaa	-10.3254
▁Op	-10.3255
▁42	-10.3255
▁suomalaisia	-10.3256
▁haastava	-10.3256
▁the	-10.3258
▁2026	-10.3258
▁käytökse	-10.3258
▁paikasta	-10.3258
▁vuosittain	-10.3261
▁annettu	-10.3262
▁hoitoon	-10.3266
▁lattia	-10.3267
▁sijoit	-10.3267
▁kallii	-10.3268
▁viidenne	-10.327
▁lailla	-10.3274
▁Aina	-10.3275
▁Toimi	-10.3275
▁kiloa	-10.3278
▁toiselle	-10.3281
▁etä	-10.3283
▁Times	-10.3289
▁levittä	-10.3291
hel	-10.3293
▁putosi	-10.3294
▁ajatteli	-10.3296
▁kuluttaja	-10.3297
▁finaalissa	-10.3299
▁joukkojen	-10.3309
▁Pariisissa	-10.3311
▁vieraa	-10.3321
miel	-10.3324
▁Matka	-10.3325
▁vastaukse	-10.3326
▁yltä	-10.3328
▁Näyttelijä	-10.3329
▁päätteeksi	-10.3329
▁otsiko	-10.3329
▁litra	-10.333
▁tiedottaja	-10.3331
▁Harri	-10.3336
▁tiedotteen	-10.3338
▁Metsä	-10.3342
▁muodosta	-10.3347
ajia	-10.3354
▁löydet	-10.3358
▁ehdot	-10.3359
▁valitu	-10.336
▁49	-10.3362
▁laula	-10.3363
keli	-10.3363
▁Ilvekse	-10.3365
▁oikeuksi	-10.3365
▁presidentiksi	-10.3365
▁loukkaa	-10.3366
▁rinta	-10.3368
▁kierros	-10.337
▁Gar	-10.3374
▁Helena	-10.3376
▁itsekin	-10.3382
maksu	-10.3394
▁päättyy	-10.3396
▁Martti	-10.3396
▁keskustassa	-10.3398
▁Tiktok	-10.3401
▁pariskunta	-10.3401
▁kolmanneksi	-10.3402
▁Hau	-10.3403
▁asioi	-10.3404
▁yhteiskunta	-10.3405
▁nouseva	-10.3412
▁asumis	-10.3415
▁edustava	-10.3423
▁Kova	-10.3426
▁äänestäji	-10.343
▁Turki	-10.3433
▁mahdollinen	-10.3437
▁poliittisi	-10.3437
▁evakuoi	-10.3437
▁kahdesti	-10.3439
▁ulkopuol	-10.344
▁viimeistel	-10.3441
▁jy	-10.3441
▁Peli	-10.3441
▁huhu	-10.3447
▁useampi	-10.3448
▁kuiva	-10.3449
▁kehitykse	-10.3451
▁marraskuu	-10.3452
▁43	-10.3453
▁huvi	-10.3455
▁kentällä	-10.3458
▁paljasta	-10.3459
luu	-10.3466
Uuden	-10.347
▁etene	-10.3472
▁vedo	-10.3472
▁tuotanno	-10.3473
▁elokuvi	-10.3473
▁leikkauksi	-10.3473
▁asiakkai	-10.3473
▁valittu	-10.3474
▁2010	-10.3477
bb	-10.3478
kkejä	-10.3479
▁viikossa	-10.3481
▁toukokuuta	-10.3482
▁elokuuta	-10.3482
▁fyysi	-10.3484
▁syyte	-10.3484
▁600	-10.3488
▁luvat	-10.3489
▁tiedotteessaan	-10.3494
▁tuhansia	-10.3497
▁Facebook	-10.3499
▁kiinnostu	-10.3503
▁Huu	-10.3503
▁Naise	-10.3504
▁Sini	-10.3507
▁Georgia	-10.3509
▁irtisano	-10.3509
▁parlamentti	-10.3509
▁parempaa	-10.3509
▁matala	-10.3512
▁uksia	-10.3513
▁muualla	-10.3515
▁lisätä	-10.3519
▁Tii	-10.352
▁Kataja	-10.3522
pula	-10.3525
▁normaalisti	-10.3525
▁puhelu	-10.3526
▁yhtei	-10.3528
▁nimeä	-10.3531
▁menestys	-10.3534
▁toimittaji	-10.3538
▁miettiä	-10.3543
▁Laura	-10.3544
uksien	-10.3545
▁Muist	-10.3545
▁Verstappen	-10.3546
▁melkein	-10.3546
▁ulkomaalais	-10.3546
▁valinna	-10.3547
▁ääre	-10.3547
▁heinäkuuta	-10.3549
▁iselle	-10.355
▁mökki	-10.3551
▁kahdesta	-10.3553
▁ajaksi	-10.3553
▁Tasa	-10.3558
▁ttiin	-10.3566
▁tutkii	-10.3573
▁neliö	-10.3576
▁jatkui	-10.3581
▁eurooppalais	-10.3582
▁työnantaja	-10.3582
▁poiki	-10.3584
▁kumma	-10.3585
▁vaikutuksia	-10.3587
▁Rei	-10.3591
▁korvaus	-10.3592
▁rahoitukse	-10.3592
▁miljardia	-10.3597
▁rakentaa	-10.3598
▁54	-10.3599
▁tunnu	-10.3601
▁tekijöi	-10.3604
▁katsomo	-10.3606
▁ajautu	-10.3609
▁perässä	-10.3617
▁hallussa	-10.3619
▁Turussa	-10.3619
▁yrityksestä	-10.3621
▁mukanaan	-10.3622
▁tarkast	-10.3624
▁äärimmäise	-10.3626
▁herätti	-10.3628
▁Tour	-10.3637
▁miehelle	-10.3641
▁päivässä	-10.3646
▁tär	-10.3647
▁viranomais	-10.3648
▁voimassa	-10.3654
▁oppilai	-10.3654
▁enemmistö	-10.3655
▁työmarkkina	-10.3655
▁väittää	-10.3656
ble	-10.3656
▁viihty	-10.3657
▁pidemmä	-10.3657
▁tasapaino	-10.3657
▁lapsuu	-10.3659
▁Miss	-10.3659
▁muistutti	-10.3666
▁huija	-10.3668
▁matkailu	-10.3668
▁laiset	-10.3671
▁tekemise	-10.3689
▁Kilpailu	-10.3692
▁golf	-10.3692
▁anteeksi	-10.3692
▁toiminnasta	-10.3693
▁cup	-10.3694
▁eduskunnassa	-10.3696
▁murhasta	-10.3699
▁hanke	-10.3699
▁misessa	-10.3702
▁tapauksesta	-10.3704
▁Talo	-10.3707
▁kil	-10.3712
▁misestä	-10.3712
▁lisäsi	-10.3713
▁aito	-10.3713
▁ajama	-10.3714
▁Salminen	-10.3714
pelastuslaitokse	-10.3715
▁pääosi	-10.3716
▁esiintyy	-10.3717
▁kannattaja	-10.3718
▁Tukholma	-10.3729
▁Tapio	-10.373
▁Vaasa	-10.3732
▁muuttuu	-10.3735
▁alaise	-10.3737
▁Dr	-10.3741
▁valitsi	-10.3746
▁uudessa	-10.3749
▁kaunii	-10.375
kisa	-10.375
▁myyjä	-10.3753
▁Yllä	-10.3755
▁ottama	-10.3755
▁tukse	-10.3766
▁kokous	-10.3766
▁kävely	-10.3767
▁paikassa	-10.3767
▁velka	-10.3768
▁Tesla	-10.3768
▁ttu	-10.377
▁vapautta	-10.3771
▁töissä	-10.3775
▁teini	-10.3776
▁Perus	-10.378
▁työntekijöide	-10.3781
▁työskennellyt	-10.3788
ralli	-10.3796
▁ajatukse	-10.3802
▁johtama	-10.3804
▁unioni	-10.3805
▁uksista	-10.3806
▁opetus	-10.3812
▁Halli	-10.382
▁luokka	-10.3821
▁halutaan	-10.3822
▁joukkueessa	-10.3824
▁oikeasta	-10.383
▁juoksi	-10.3832
▁areena	-10.3832
▁liittyi	-10.3834
paikan	-10.3836
▁kenti	-10.3836
puheenjohtaja	-10.3841
▁elo	-10.3841
▁keskuudessa	-10.3841
▁entisestään	-10.3841
▁2011	-10.3841
▁kannusta	-10.3841
▁sisko	-10.3844
▁havainno	-10.3845
▁nuoriso	-10.3849
ohjelmassa	-10.385
▁Mikkola	-10.3851
▁Alku	-10.3854
▁voida	-10.3867
▁Tampere	-10.3867
gren	-10.3868
▁kritiikkiä	-10.3868
▁ukseen	-10.3874
▁komentaja	-10.3879
▁rikoksista	-10.3879
▁ajanut	-10.3881
▁Ase	-10.389
▁Hur	-10.3894
▁avoin	-10.3896
▁käänne	-10.3901
ers	-10.3901
▁yrityst	-10.3903
▁Mai	-10.3905
▁renka	-10.3905
▁mato	-10.3908
▁asettu	-10.3908
▁Stan	-10.3909
▁kaltai	-10.3909
▁suola	-10.3914
▁Myy	-10.3914
▁Tosi	-10.3914
▁valla	-10.3915
▁kesti	-10.3916
▁kaverei	-10.3917
▁Itämere	-10.3917
▁lokakuuta	-10.3925
▁pisteet	-10.3925
▁päivinä	-10.3925
▁joukkoja	-10.3935
▁ohjeist	-10.3936
▁syyskuu	-10.3939
▁muutenkin	-10.3939
▁haita	-10.3942
teihin	-10.3945
▁juokse	-10.3947
▁studio	-10.3954
▁SAK	-10.3955
valtuusto	-10.3955
▁haittaa	-10.3955
▁co	-10.3956
▁Jaakko	-10.3956
▁tarkasti	-10.3959
piiri	-10.3962
▁Marja	-10.3962
▁hovi	-10.3963
▁meren	-10.3966
▁ottelusta	-10.3973
▁teema	-10.3982
▁Vali	-10.3984
toki	-10.3988
▁kive	-10.3989
▁ukset	-10.3991
▁oikeudessa	-10.3992
▁TPS	-10.3993
▁maksoi	-10.3993
▁tuomittu	-10.3993
▁sanotu	-10.3994
▁osuu	-10.3994
▁tuntuma	-10.3994
kangas	-10.3995
▁Bottas	-10.3995
▁Liikenne	-10.3996
▁Ö	-10.3999
▁ehdottoma	-10.4
▁koskee	-10.4002
▁syyskuuta	-10.4004
▁kirkko	-10.4005
▁Pariskun	-10.4006
▁sattui	-10.401
▁tekemistä	-10.4015
▁Elämä	-10.4017
▁oikeutta	-10.4024
▁budjetti	-10.4031
▁huipu	-10.4031
▁käytön	-10.4031
▁leikki	-10.4031
▁toteutet	-10.4042
▁käynni	-10.4043
▁todetaan	-10.4044
▁Mas	-10.4044
▁vastus	-10.4048
▁opiskelija	-10.4049
▁elämänsä	-10.4054
▁mietti	-10.4065
▁autoja	-10.4067
▁meteorologi	-10.4069
▁puolivälierä	-10.4069
▁treena	-10.4069
▁vieressä	-10.4069
▁pariskunna	-10.4069
Sanomien	-10.407
▁tulosta	-10.4084
▁rikoksesta	-10.4087
▁kaksikko	-10.4098
▁ansio	-10.4099
▁Kuusi	-10.4103
q	-10.4104
▁1,5	-10.4108
▁hengi	-10.411
▁koostu	-10.4111
▁tiloj	-10.4113
▁raiska	-10.4113
▁toimivat	-10.4113
▁korti	-10.4114
nnettiin	-10.412
▁kestä	-10.412
▁Saul	-10.4124
▁elämästä	-10.4131
▁somessa	-10.4131
▁tiesi	-10.4131
▁riittä	-10.4132
mur	-10.4135
▁der	-10.4141
▁puh	-10.4143
kirjoitus	-10.4144
▁ilmoitus	-10.4146
▁vahvistu	-10.4147
▁marraskuuta	-10.416
▁tottu	-10.4161
▁mattoma	-10.4163
▁kaar	-10.4165
neuvosto	-10.4166
syys	-10.4166
▁Nord	-10.4167
▁hö	-10.4168
▁kymmen	-10.4176
▁harjoitukse	-10.4178
▁julkisesti	-10.418
▁vaalit	-10.4181
▁rekisteri	-10.4185
▁edustus	-10.4185
▁meitä	-10.4185
▁Chi	-10.4186
▁isyyde	-10.4186
▁hallinno	-10.4188
▁arvioidaan	-10.4189
▁putoa	-10.4191
▁She	-10.4191
▁Lento	-10.4193
▁huolehti	-10.4193
▁joutunee	-10.4194
▁pito	-10.4196
▁otteluun	-10.4199
▁Lehto	-10.42
▁puoliväli	-10.4201
▁tarkoituksena	-10.4203
▁seudu	-10.4215
raali	-10.422
▁johtoon	-10.4221
▁Guardian	-10.4224
▁Ohjelma	-10.4224
▁Kiekko	-10.4224
yksessä	-10.4228
▁myydä	-10.4228
ustilaisuudessa	-10.4241
▁minut	-10.4242
▁väkivaltaa	-10.4242
▁luovut	-10.4243
tettävä	-10.4243
▁pitkält	-10.4246
▁hinnat	-10.4248
▁Panthers	-10.4263
▁nappasi	-10.4263
▁KalPa	-10.4263
▁tehokka	-10.4268
▁lunta	-10.4275
▁Stor	-10.4279
▁joulukuu	-10.4292
▁Vas	-10.43
▁Foreca	-10.4302
▁majoit	-10.4302
que	-10.4303
▁Berg	-10.4307
▁kohteeksi	-10.4308
▁kevät	-10.4309
▁aido	-10.4309
▁Uutis	-10.4313
▁Vähä	-10.4313
▁laittee	-10.4313
▁palautu	-10.4314
▁todettiin	-10.4316
lahti	-10.4327
▁ansiosta	-10.4328
▁Suvi	-10.433
▁äänestää	-10.4338
▁vankeuteen	-10.4341
▁Kangas	-10.4342
▁Venäläis	-10.4342
list	-10.4345
▁Rikos	-10.4345
▁säästä	-10.4347
▁Hieta	-10.4347
▁osallistuu	-10.435
▁palautta	-10.435
▁linna	-10.4356
▁painottaa	-10.4357
▁tuottaja	-10.4359
▁vasemmistoliito	-10.436
▁Lopu	-10.436
▁FC	-10.436
▁Rooma	-10.4361
▁laaj	-10.4361
▁kohdistuva	-10.4366
▁elokuu	-10.437
▁sulje	-10.4372
▁kyvy	-10.4375
vallan	-10.4376
▁Ex	-10.4377
▁potentiaali	-10.4381
▁Laakso	-10.4381
▁kerrostalo	-10.4381
▁Nuore	-10.4382
▁varapresidentti	-10.4382
▁järjestelmi	-10.4382
▁pitkälle	-10.4385
▁pir	-10.4386
▁lintu	-10.4387
▁tutkinnan	-10.4387
▁erilaist	-10.4392
▁katsoji	-10.4395
▁lauko	-10.4398
▁kansallise	-10.4402
emp	-10.4404
▁kutsui	-10.4406
▁toukokuu	-10.4411
▁syistä	-10.4412
▁Kisa	-10.4417
▁Henkilö	-10.4421
▁Latvala	-10.4421
▁Uhri	-10.4421
▁lataus	-10.4422
▁puhtaa	-10.4422
▁ruumii	-10.4425
▁'	-10.4443
▁imma	-10.4445
▁Olet	-10.4445
▁tasolle	-10.4446
▁harvinais	-10.4448
▁paikkansa	-10.4453
▁poliittist	-10.446
▁kalusto	-10.4461
▁järjestety	-10.4461
▁Suomalaise	-10.4461
▁ope	-10.4463
▁järjestettiin	-10.4464
▁luotto	-10.4469
▁Hannu	-10.4471
▁syytetty	-10.4479
▁päästö	-10.4481
talli	-10.4486
▁huolestu	-10.4489
kamp	-10.4489
▁edusti	-10.4493
▁vaatimukse	-10.4493
▁esiintymis	-10.4496
▁Tuore	-10.4498
▁Grön	-10.45
▁johtaji	-10.45
▁euroon	-10.4501
▁alueelta	-10.4501
▁toimet	-10.4503
tunto	-10.4504
▁silta	-10.4507
▁tuhat	-10.451
▁suljettu	-10.451
▁jäljellä	-10.4516
▁17-	-10.452
▁dokument	-10.4521
▁sijoittu	-10.4523
▁sekoit	-10.4525
▁maalei	-10.4525
▁Epä	-10.4526
mätön	-10.4528
▁karsi	-10.453
▁tekni	-10.4533
▁sopii	-10.4533
▁liikkeelle	-10.4538
▁palestiinalais	-10.4541
▁ilmoittaa	-10.4543
▁kuuli	-10.4544
▁vihje	-10.4544
▁yrit	-10.4545
▁tavat	-10.4547
▁suomen	-10.455
▁osoitti	-10.4553
▁tukee	-10.4553
▁Kahde	-10.4553
▁pienempi	-10.4554
▁kiri	-10.4558
▁posti	-10.4564
▁vaativa	-10.4565
▁otetaan	-10.4566
▁sairaus	-10.4566
▁noste	-10.4569
▁kokemusta	-10.457
▁henkilökohtai	-10.4571
▁huomaut	-10.4581
▁Ferrari	-10.4581
▁puolelta	-10.4581
▁Joulu	-10.4581
▁täyde	-10.4585
▁vertailu	-10.4586
hyökkääjä	-10.4586
▁sopeutu	-10.4587
▁Perussuomalais	-10.4588
▁pohdi	-10.459
▁ville	-10.4591
▁rap	-10.4593
▁tapahtumista	-10.4593
▁menetti	-10.4595
▁väki	-10.4595
▁lähdö	-10.4599
▁GP	-10.4601
▁henkilöitä	-10.4601
▁riitä	-10.4606
▁hyvältä	-10.4607
▁Ero	-10.4608
▁entise	-10.4612
▁Silt	-10.4616
▁tahti	-10.462
▁Suomelle	-10.4621
▁autolla	-10.4622
▁taulu	-10.4622
▁kulutus	-10.4624
▁Ski	-10.4626
▁kärje	-10.4628
▁näyttö	-10.4632
▁kuulem	-10.4633
▁pr	-10.4636
▁pelkää	-10.4639
▁kkaa	-10.4641
ymmärr	-10.4643
▁käynnistä	-10.4643
▁vaate	-10.4646
▁Gazassa	-10.4647
▁yhdistykse	-10.4649
▁aloite	-10.465
▁lokakuu	-10.4655
▁eilen	-10.4656
▁selkeästi	-10.466
▁Olympia	-10.4662
▁suoritukse	-10.4662
▁varhain	-10.4663
▁Mestari	-10.4663
▁muovi	-10.4663
▁Yhteis	-10.4664
▁palata	-10.4664
valiokunnan	-10.4668
▁sijalla	-10.467
▁Euroviisu	-10.4673
▁12-	-10.4678
mpänä	-10.4683
▁venäläise	-10.4684
▁kertoja	-10.4684
▁saksalais	-10.4684
▁liiku	-10.4685
▁up	-10.4698
▁päätöksiä	-10.4699
▁velvollis	-10.47
▁aiemma	-10.4703
▁huhtikuuta	-10.4704
▁tahto	-10.4704
▁teon	-10.4705
▁Bull	-10.4705
▁Che	-10.4706
▁mennee	-10.4711
▁Marini	-10.4712
▁vienti	-10.4715
▁oireita	-10.4716
▁sytty	-10.4718
▁raaka	-10.472
▁vanhoj	-10.4725
▁viljel	-10.4726
▁kuulunut	-10.4727
▁pieniä	-10.4729
▁valitta	-10.4732
▁Musta	-10.4734
▁karsinta	-10.4735
▁Keskusta	-10.4736
▁matta	-10.4739
▁Valioliiga	-10.4744
▁Kremli	-10.4744
▁hakeutu	-10.4745
erännyt	-10.4748
▁suunniteltu	-10.475
▁yksikkö	-10.4751
▁rauhallise	-10.4755
▁tarvetta	-10.4755
▁askel	-10.4761
▁Vero	-10.4766
▁poissa	-10.4768
▁pitämään	-10.4771
▁ttavi	-10.4773
lohko	-10.4774
▁Virtanen	-10.478
▁Sekä	-10.4781
▁Sanomien	-10.4784
=	-10.4785
▁kustannus	-10.4785
▁sisällö	-10.4785
▁täytty	-10.4785
▁ymmärrä	-10.4786
▁porukka	-10.4788
▁2-1	-10.4788
▁rikoksen	-10.4793
▁välissä	-10.4793
▁akku	-10.4793
▁lehdelle	-10.4799
▁Joukkue	-10.4806
▁Los	-10.4807
▁Lou	-10.4809
▁pesti	-10.4813
▁Liike	-10.4816
▁huumausaine	-10.4826
▁jääkieko	-10.4826
▁Viranomais	-10.4826
▁heitto	-10.4829
▁Hor	-10.483
▁täys	-10.4835
▁henkilökunta	-10.4836
▁hovioikeu	-10.4837
kkala	-10.4837
▁Kimmo	-10.4838
▁Fri	-10.484
▁Totta	-10.4844
▁koiri	-10.4848
päivänä	-10.485
▁muissa	-10.4853
▁195	-10.4854
▁edellise	-10.4855
▁suosittu	-10.4859
▁tilalle	-10.4864
▁valtuusto	-10.4868
▁Vornanen	-10.4868
▁lentokentä	-10.4868
▁rasismi	-10.4868
▁2-0	-10.4868
▁osittain	-10.4868
▁mahdollisuutta	-10.4868
▁Areena	-10.4869
▁Pajari	-10.4869
▁Miehen	-10.4869
sky	-10.4874
▁alukse	-10.4875
kisat	-10.4876
▁Karhu	-10.4876
isoi	-10.4877
▁nieme	-10.4884
kaali	-10.4885
paino	-10.489
▁tarkoitukse	-10.4892
▁Naist	-10.4893
▁kohtasi	-10.4899
▁kehit	-10.4902
▁luovutta	-10.4906
gg	-10.4907
▁instituuti	-10.4909
▁komissio	-10.491
▁ulkopuolelle	-10.491
▁Bor	-10.491
▁Tiistain	-10.491
▁näyttely	-10.4912
saare	-10.4914
▁osti	-10.4914
▁varoitus	-10.492
hoido	-10.4921
▁neljäs	-10.4927
▁kiisti	-10.4936
▁uni	-10.494
▁julkisuude	-10.4943
▁sääntö	-10.4949
anchester	-10.4952
▁keskustella	-10.4952
▁Wo	-10.4954
▁monipuoli	-10.4955
▁hylly	-10.4955
▁Sari	-10.4955
▁ministeriö	-10.4958
▁yksinkerta	-10.496
▁pahasti	-10.4961
▁194	-10.4968
▁pahoinpitely	-10.4973
vuutta	-10.4976
▁jonkinlai	-10.4983
▁kysymyksiä	-10.4984
▁demokratia	-10.4993
qvist	-10.4993
▁ulottu	-10.4993
▁David	-10.4994
▁uksessa	-10.4997
▁Aaltola	-10.4997
X	-10.5002
▁pyri	-10.5007
▁muitakin	-10.5008
▁Kom	-10.5008
▁taiteilija	-10.5017
▁osuude	-10.5025
▁mennään	-10.5032
▁ylös	-10.5035
▁Montreal	-10.5036
▁tutkimuksi	-10.5036
▁palautetta	-10.5036
▁Näyt	-10.504
▁naimisiin	-10.5041
▁nimeltä	-10.5049
▁väitte	-10.505
burg	-10.5051
▁puolivälissä	-10.506
▁työstä	-10.5062
▁pure	-10.5064
▁viikonloppu	-10.5065
▁molempi	-10.5078
▁Meghan	-10.5078
▁solmi	-10.5078
▁hirvi	-10.5078
▁Äiti	-10.5079
▁tavoitta	-10.5079
rov	-10.5082
▁liittolais	-10.5082
▁vähenn	-10.5084
▁avun	-10.509
▁kaksiko	-10.5091
tomuus	-10.5093
▁Pitää	-10.5093
▁Lapse	-10.5102
▁mittaa	-10.5109
▁julkaise	-10.5114
▁suomalaisista	-10.5115
▁luokkaa	-10.5117
▁Järvi	-10.5121
▁Leppä	-10.5121
▁Ykkös	-10.5121
▁konsertti	-10.5122
▁irto	-10.5122
▁rakentamise	-10.5125
▁luokan	-10.5127
▁katsomaan	-10.513
▁Ch	-10.5135
▁kysyttiin	-10.5136
▁järjestelmää	-10.5139
▁roolissa	-10.5139
▁Ihmise	-10.5142
▁laadu	-10.5147
▁hiihtäjä	-10.5148
▁pila	-10.5148
▁hiuk	-10.5151
▁Suomalainen	-10.5163
▁Tornio	-10.5164
▁miehistö	-10.5165
▁kuukaudessa	-10.5172
▁Vaali	-10.5173
yhtye	-10.5173
▁erilaise	-10.5181
▁torjunta	-10.5183
▁runsaa	-10.519
▁ampui	-10.5197
▁Tim	-10.52
▁havaittu	-10.5206
▁konkurssi	-10.5206
▁helmikuuta	-10.5207
▁avajais	-10.5207
▁Usea	-10.5208
▁satoja	-10.5208
▁keskustele	-10.5214
▁57	-10.522
▁voimakkaasti	-10.5224
▁kori	-10.5224
▁Saira	-10.5226
▁selvitys	-10.5226
▁avoime	-10.523
▁Tieto	-10.523
▁Puolustusvoimi	-10.5234
▁asemi	-10.5238
▁Suuri	-10.5244
▁lava	-10.5246
▁Colorado	-10.5249
▁Aftonbladet	-10.5249
▁koripallo	-10.525
kkaita	-10.5255
▁verkosto	-10.5255
▁työelämä	-10.5256
varainministeri	-10.5258
▁ottamatta	-10.5266
▁tähdi	-10.5267
▁ajatuksi	-10.5271
▁välittä	-10.5273
▁oto	-10.5274
llisuutta	-10.5288
▁ykse	-10.529
▁menossa	-10.5291
▁Portugali	-10.5293
▁miselle	-10.5293
▁Etenk	-10.5295
▁Aleksand	-10.5296
▁Kurski	-10.53
▁selä	-10.5306
areena	-10.5308
▁toiste	-10.5309
▁kaula	-10.5309
▁kysyy	-10.531
▁Mak	-10.5311
▁puhuta	-10.5314
▁Teo	-10.5315
▁korko	-10.5315
▁Murto	-10.5317
▁saapunut	-10.5317
▁ajassa	-10.5318
▁vasti	-10.5323
▁syyllisty	-10.5324
▁ohjelmaan	-10.5325
▁maahanmuutto	-10.5336
▁oikeudenkäynti	-10.5337
lander	-10.5337
▁Tuli	-10.5338
▁Palm	-10.5341
▁pisteitä	-10.5347
▁Ainak	-10.5349
▁lume	-10.5349
▁tällaisi	-10.5353
▁Lar	-10.5364
▁tällaist	-10.5364
▁hanki	-10.5364
▁edustaji	-10.5366
▁hyökkää	-10.5374
neeseen	-10.5375
á	-10.538
▁poliittinen	-10.538
▁Helenius	-10.538
▁norjalais	-10.538
▁valitettava	-10.538
▁sodassa	-10.538
▁sukupuoli	-10.538
▁aiheesta	-10.538
▁7-	-10.5383
▁maaliskuuta	-10.5383
▁jarru	-10.5392
otettiin	-10.5395
▁hevose	-10.5398
▁rakennettu	-10.5401
▁pysäyt	-10.5413
käynti	-10.5417
▁United	-10.5424
▁kaudeksi	-10.5424
▁pelko	-10.5424
▁€	-10.5425
▁tarve	-10.5426
▁positiivis	-10.5427
▁valitse	-10.5427
▁kansainvälisi	-10.5433
▁varsinaise	-10.5433
▁pullo	-10.5436
▁voisivat	-10.5436
▁tilanteissa	-10.5438
▁keli	-10.5446
▁johtuu	-10.5447
▁Petri	-10.5451
▁satee	-10.5467
▁myöhään	-10.5468
▁itäraja	-10.5469
▁tammikuuta	-10.5469
▁Angeles	-10.5471
▁riittävästi	-10.5471
▁prosentti	-10.5476
▁700	-10.548
▁veti	-10.5484
tunno	-10.5485
▁äidi	-10.5487
▁kuule	-10.549
▁lopet	-10.5492
▁kuvio	-10.5493
▁pärjää	-10.5497
▁kunnon	-10.5506
▁Niitä	-10.5509
▁huumori	-10.5512
▁doping	-10.5512
▁julkaistiin	-10.5512
▁viestejä	-10.5512
▁motiivi	-10.5512
▁suunnitellu	-10.5514
▁Topi	-10.5516
▁rankka	-10.5517
▁kahteen	-10.5517
▁luonnollise	-10.5517
▁Andre	-10.5518
▁pääsevä	-10.5521
▁päättänyt	-10.5525
▁haj	-10.5527
▁henkilökohtaise	-10.5528
▁heitti	-10.5529
▁pilk	-10.5533
▁Louis	-10.5534
jel	-10.5537
▁ketään	-10.5541
▁isempi	-10.5551
▁saari	-10.5554
▁sähköposti	-10.5555
▁Epäilty	-10.5556
▁Hiihto	-10.5556
▁Olympiakomitea	-10.5556
▁ylläpitä	-10.5557
▁reitti	-10.5557
▁Jokeri	-10.5557
▁kiinalais	-10.5558
▁51	-10.5563
▁Sanomat	-10.5566
▁kiista	-10.5568
▁reiti	-10.5568
▁villi	-10.5569
▁käyttämä	-10.5571
▁lahjoit	-10.5571
voittaja	-10.5573
▁palkan	-10.5573
▁muutosta	-10.5579
lukemi	-10.5583
▁pyydet	-10.5586
▁hintoj	-10.5587
▁52	-10.5588
▁mmä	-10.5589
▁sairasta	-10.5593
▁sitte	-10.5596
▁Kap	-10.5598
▁festivaali	-10.5601
▁naurahtaa	-10.5601
▁Yhdysvaltalai	-10.5601
▁sovellukse	-10.5601
▁kadulla	-10.5602
▁Kaisa	-10.5606
▁Bre	-10.5618
▁58	-10.5619
▁tulkit	-10.562
▁kuole	-10.5623
▁alkava	-10.5631
▁Uni	-10.5634
▁Kakko	-10.5635
▁Puna	-10.5637
yydestä	-10.5638
▁sil	-10.5638
tomia	-10.5642
▁kortti	-10.5643
▁RKP	-10.5646
▁Henriksson	-10.5646
▁auringo	-10.5646
▁Keskiviikko	-10.5646
▁Nuori	-10.5646
▁myönnet	-10.5646
▁housu	-10.5647
▁Jasmi	-10.5648
▁satama	-10.5649
▁Bro	-10.5651
▁2000-	-10.5651
▁tukeva	-10.5656
▁Saarinen	-10.5658
▁Tuleva	-10.5659
▁miltä	-10.5667
▁oja	-10.5672
▁ratkaise	-10.5675
▁miehiä	-10.5677
▁Arvo	-10.5681
▁Heino	-10.5682
▁Lääkäri	-10.5691
▁kustannuksi	-10.5691
▁poikkea	-10.5691
▁kävele	-10.5691
▁parhaimmilla	-10.5691
▁stress	-10.5692
▁avata	-10.5693
▁tauko	-10.5694
▁tiedetään	-10.5695
▁senttiä	-10.5696
▁esittele	-10.5697
▁mö	-10.5698
▁viranomaisi	-10.5704
▁ääntä	-10.5709
päivi	-10.5709
▁Nieminen	-10.5715
odo	-10.5718
▁maissa	-10.5719
▁Ruoka	-10.5721
▁panosta	-10.5724
▁biisi	-10.573
▁uksella	-10.5731
▁esitutkinna	-10.5736
▁johtanut	-10.5736
▁vaikuttanut	-10.5736
▁pelastuslaitos	-10.5736
▁Lahden	-10.5737
▁videoita	-10.5739
▁sääntöj	-10.5739
▁2008	-10.5744
▁lauta	-10.5745
hinta	-10.5756
pano	-10.5758
▁järjestäjä	-10.576
▁Kaikko	-10.5762
▁syty	-10.5769
▁päivittäin	-10.5769
▁vaikuttav	-10.5772
▁tietty	-10.5776
▁kriitt	-10.5779
▁pesä	-10.5779
▁merkkejä	-10.5782
▁poimi	-10.5783
▁sankari	-10.5783
▁heinäkuu	-10.5789
▁kirjailija	-10.579
▁kurssi	-10.579
▁vanhempien	-10.5791
▁nauti	-10.5792
▁Nurmi	-10.5792
▁tarjota	-10.5793
kielto	-10.5797
▁näkemykse	-10.5798
▁tyyty	-10.5805
▁havaintoja	-10.5806
▁85	-10.5808
▁joutuva	-10.581
yksiä	-10.5815
▁autoon	-10.5816
▁pussi	-10.5818
▁Uut	-10.582
▁talossa	-10.5827
▁varsinai	-10.5827
▁palkinno	-10.5828
▁Bur	-10.5829
▁All	-10.5829
▁lähtökohta	-10.5829
▁toistu	-10.5832
▁Niemi	-10.5833
▁murska	-10.5835
▁Peter	-10.584
▁tavoittele	-10.5841
▁taistele	-10.5842
▁Hai	-10.5848
▁ehdotukse	-10.5853
▁säätä	-10.5855
▁uutisia	-10.5857
korkeakoulu	-10.5859
▁syntyy	-10.586
▁hoitaja	-10.5866
▁Reutersi	-10.5867
▁Schumacher	-10.5873
▁elinkeino	-10.5873
▁suihku	-10.5873
▁Kiuru	-10.5873
▁aiempi	-10.5874
▁kirjasto	-10.5875
▁etenee	-10.5875
▁työhön	-10.5876
▁Chris	-10.5877
▁maaliskuu	-10.5882
▁hyöty	-10.5892
▁Lehde	-10.5893
▁katta	-10.5903
▁välttä	-10.5904
▁prosenttiin	-10.5909
▁Leo	-10.5915
▁esine	-10.5915
kkeja	-10.5915
▁yhteyksi	-10.5919
▁vasemma	-10.5919
▁Pirkanmaa	-10.5919
▁kirjoitukse	-10.5919
▁taisteli	-10.592
▁väittely	-10.5921
▁muutamia	-10.5921
▁vessa	-10.5923
ttäisiin	-10.5924
▁Inter	-10.5932
▁passi	-10.5934
▁hullu	-10.5942
kkaasti	-10.5946
▁alalla	-10.5956
▁hehku	-10.5963
▁Eduskunta	-10.5965
▁Sebastian	-10.5965
▁trendi	-10.5965
▁ulkomailla	-10.5965
▁Lähde	-10.5965
▁paidassa	-10.5966
▁Kiova	-10.5967
▁paikat	-10.597
▁tarken	-10.597
▁kuluttua	-10.5972
▁ratke	-10.5972
▁pomo	-10.5973
▁kanne	-10.5981
▁ohjaus	-10.5986
▁kene	-10.5994
▁Hizbollahi	-10.5995
▁ulkona	-10.5996
ileva	-10.6
▁Sand	-10.6003
▁And	-10.6005
▁valiokunnan	-10.6005
▁poliitiko	-10.6012
▁tuntuva	-10.6013
▁Tanssi	-10.6014
▁potilas	-10.6016
▁kansainvälist	-10.6017
▁todellinen	-10.602
▁Kauppa	-10.6023
▁56	-10.603
▁kansainväli	-10.6032
▁Ihmis	-10.6036
▁asukas	-10.6038
▁julkista	-10.6038
▁Pikku	-10.6041
▁kuolema	-10.6041
heim	-10.6045
▁rahoi	-10.6046
▁etten	-10.6051
▁näkemys	-10.6059
▁Viikon	-10.6059
▁kevye	-10.606
▁kolmos	-10.606
▁Äl	-10.6063
▁laskee	-10.6064
▁tavallista	-10.6066
▁Intia	-10.6067
stetty	-10.6068
▁potilai	-10.6068
▁käytä	-10.6069
▁16-	-10.607
▁kuvaus	-10.6074
▁vedet	-10.6077
▁osoit	-10.6079
▁ratkaiseva	-10.6091
▁törmäsi	-10.6095
▁turnaus	-10.6096
ähtää	-10.6097
▁Kuninga	-10.61
▁Toni	-10.6105
▁päätökseen	-10.6106
▁järkytty	-10.6106
▁vaikutusta	-10.6106
▁ennusta	-10.6106
▁muoti	-10.6107
▁finaaliin	-10.6108
▁syödä	-10.6109
▁laukais	-10.6109
▁neste	-10.6115
▁osakilpailu	-10.6116
▁tiukka	-10.612
▁toisiaan	-10.6122
▁partio	-10.6123
moottori	-10.6124
▁maista	-10.6127
▁äänesti	-10.6128
▁Risto	-10.6133
▁väsy	-10.6136
▁tilaisuudessa	-10.6145
▁mielipite	-10.6148
▁omakotitalo	-10.6153
▁äärioikeisto	-10.6153
▁vuodeksi	-10.6153
▁ollenkaan	-10.6153
▁kollega	-10.6153
▁kielletty	-10.6153
▁vuodet	-10.6154
▁putki	-10.6155
▁Luul	-10.6158
▁asioid	-10.6158
ttomasti	-10.6158
▁automaatt	-10.6165
▁näyttävä	-10.6165
▁yllätti	-10.6172
▁jonne	-10.6175
▁käyty	-10.6191
▁houkuttele	-10.6192
▁merkitys	-10.6194
▁huonosti	-10.6194
▁edestä	-10.6194
▁alkuperäi	-10.6196
▁onnettomuuden	-10.62
▁päätöksestä	-10.62
▁ruokavalio	-10.62
▁vihdoin	-10.62
▁huuto	-10.6201
▁paketti	-10.6201
▁Jokinen	-10.6202
▁tappo	-10.6203
▁valokuva	-10.6204
▁merkitykse	-10.6207
▁mihinkään	-10.6207
▁lähelle	-10.6209
▁ok	-10.6221
▁karsinna	-10.6228
▁Tule	-10.6229
▁tapaamise	-10.623
▁läheise	-10.6232
▁Mag	-10.6233
▁Asu	-10.6239
▁ohjuks	-10.6241
▁elävä	-10.6243
▁valu	-10.6244
▁arvioida	-10.6245
▁Jere	-10.6247
▁Puljujärvi	-10.6248
▁Slovakia	-10.6248
▁tarkoitettu	-10.6248
▁aikui	-10.6248
▁menettely	-10.6251
ness	-10.6254
▁hor	-10.6256
▁elta	-10.6257
▁huima	-10.6259
▁kop	-10.6259
▁tammikuu	-10.6262
▁Uoti	-10.6268
▁Carolina	-10.6272
▁isännöi	-10.6272
▁ineen	-10.6276
▁viitt	-10.628
luokassa	-10.6288
▁positiivise	-10.6292
▁lähetyksessä	-10.6296
▁iloinen	-10.6297
▁Paavo	-10.6297
▁Todell	-10.6301
▁sairaude	-10.6301
▁kallis	-10.6304
▁länt	-10.6305
▁kiristy	-10.6307
▁erikseen	-10.6307
▁työvoima	-10.6315
▁kääntä	-10.6318
▁Mattila	-10.6322
▁ajalla	-10.6327
▁Posti	-10.6333
▁alha	-10.6335
ammo	-10.6335
koski	-10.6336
▁kovasti	-10.6342
▁mässä	-10.6343
▁hyökkäyksi	-10.6344
▁Expressen	-10.6344
▁ratkais	-10.6344
▁kaatoi	-10.6345
▁Torstain	-10.6345
▁aluetta	-10.6345
▁voimakas	-10.6349
aatti	-10.6352
▁stadioni	-10.6353
▁lausu	-10.6353
▁esitteli	-10.6355
▁Tunne	-10.6355
▁huhtikuu	-10.6359
▁olosuhtei	-10.636
▁yksittäi	-10.6363
▁näyttele	-10.6381
▁miele	-10.6386
▁hauta	-10.6388
▁myönteis	-10.6392
▁hevonen	-10.6392
▁Ilo	-10.6393
▁järjestetty	-10.6394
▁menevät	-10.6397
▁oo	-10.6402
▁tiennyt	-10.6409
▁Arttu	-10.6409
ehdokka	-10.6412
▁raskas	-10.6414
▁1990-	-10.6416
▁alkuun	-10.642
▁näyttävät	-10.642
▁länsimai	-10.6423
▁ikui	-10.6423
▁rasit	-10.6424
▁Granlund	-10.6441
▁kruunu	-10.6441
▁kaukalo	-10.6441
▁Madrid	-10.6441
▁kulki	-10.6441
▁täältä	-10.6441
▁rakente	-10.6444
▁kädessä	-10.6446
▁työryhmä	-10.6453
▁houkut	-10.6454
▁59	-10.6455
▁ruoan	-10.6456
▁Puolustus	-10.6457
▁Eero	-10.6457
▁helmikuu	-10.6458
▁katsotaan	-10.6468
▁muistu	-10.6469
▁Juhani	-10.6471
▁ranskalais	-10.648
▁tarkoitt	-10.6482
▁Rinne	-10.6483
▁Benjamin	-10.6489
▁Kouvola	-10.6489
▁oululais	-10.6489
▁äänistä	-10.6489
▁Robin	-10.6491
▁kaapeli	-10.6491
▁keskeyttä	-10.6492
▁iselta	-10.6494
▁maaperä	-10.6496
▁siirtymä	-10.6496
▁War	-10.6496
▁Cupi	-10.6499
Venäjä	-10.6512
▁vastaavi	-10.6521
▁aikuise	-10.6523
lasku	-10.6523
▁iltana	-10.6535
▁Pohjoismai	-10.6535
▁Puolue	-10.6538
▁hyökkäsi	-10.6538
▁Kärpät	-10.6538
▁kaukana	-10.6539
▁Liettua	-10.654
▁ääri	-10.6541
▁vaadi	-10.6542
▁Muutama	-10.6543
▁odotettu	-10.6544
▁perusteli	-10.6547
▁virasto	-10.6549
▁Yrit	-10.6552
▁epäiltynä	-10.6552
▁nimellä	-10.6553
▁käyttäji	-10.6556
▁alueita	-10.6558
▁syttyi	-10.656
▁uudelle	-10.6563
▁uute	-10.6568
▁mitenkään	-10.6574
▁ihmisille	-10.6574
▁yhdiste	-10.6584
▁Taylor	-10.6588
▁analysoi	-10.6588
▁päivystävä	-10.6588
▁Käytännö	-10.6588
▁ihastu	-10.6588
▁kanslia	-10.6588
▁viivästy	-10.6588
▁Laulaja	-10.6588
▁korosti	-10.6588
▁jälke	-10.6589
▁Käsi	-10.6591
▁katko	-10.6592
▁varoittaa	-10.6593
▁Bru	-10.6594
▁Kaiki	-10.6595
▁Rehn	-10.6595
▁Lumi	-10.6604
▁kohteena	-10.6613
▁vaarallise	-10.6617
▁Valo	-10.6624
▁päivittä	-10.6625
torni	-10.6631
▁laskeutu	-10.6632
▁Hamas	-10.6633
▁iskuja	-10.6634
sport	-10.6634
▁rekisteröi	-10.6637
▁Häkkänen	-10.6637
▁Käärijä	-10.6637
▁avustus	-10.6637
▁miljooni	-10.6637
▁yhdellä	-10.6637
▁SaiPa	-10.6637
▁leikkaa	-10.6638
▁Tutkimukse	-10.6639
▁loistava	-10.6642
▁Vainio	-10.6644
▁Helsinkiin	-10.6647
llisiä	-10.6649
▁peruna	-10.665
▁vastannut	-10.6654
hallituksen	-10.6656
▁terrori	-10.6665
▁Gri	-10.6665
▁näkynyt	-10.6667
▁kuvauksi	-10.6672
▁Rovaniemellä	-10.6675
▁minuutilla	-10.6683
▁omistaji	-10.6686
▁raivo	-10.6687
▁keskiviiko	-10.6687
▁kustannukset	-10.6687
▁työskenteli	-10.6687
▁NBA	-10.6687
▁julkaista	-10.6687
▁mikro	-10.6687
▁sopimuksi	-10.6687
▁Sofia	-10.6687
▁Tuomio	-10.6688
▁Elokuva	-10.6688
▁pääasia	-10.6689
▁peruu	-10.669
▁kap	-10.6692
▁impi	-10.6702
▁Kerttu	-10.6703
▁tilaisuude	-10.671
▁istuu	-10.6715
▁ehdi	-10.6719
▁millaisi	-10.6725
▁pyritä	-10.6727
▁pyynnö	-10.6737
▁Jalkapallo	-10.6737
▁Onnettomuus	-10.6737
▁Victoria	-10.6737
▁konflikti	-10.6737
▁drooni	-10.6737
▁hämmästy	-10.6737
▁Jorma	-10.6737
▁kiinnostava	-10.6738
▁Rauha	-10.6738
▁Col	-10.6738
▁von	-10.6742
▁vahvistet	-10.6742
▁suorana	-10.6744
▁Tiedo	-10.675
▁erilainen	-10.6759
▁viini	-10.6767
▁samanlai	-10.6769
▁istuva	-10.6773
▁todennäkö	-10.6777
▁Nur	-10.6777
▁vapaute	-10.6779
▁häly	-10.6781
▁Summa	-10.6782
▁Aleksi	-10.6783
▁tunteita	-10.6785
▁Koke	-10.6786
▁konkreetti	-10.6787
▁pelkkä	-10.6787
▁tarvittaessa	-10.6787
▁mahtava	-10.6787
▁1-0	-10.6788
▁syöttö	-10.679
▁edeltä	-10.6792
▁president	-10.6795
▁sakko	-10.6797
▁kuitta	-10.6797
▁ilmeise	-10.6799
▁tyly	-10.6799
▁Leino	-10.68
▁puheenjohtajana	-10.6804
▁polku	-10.6806
▁AC	-10.6806
▁kotonaan	-10.6809
▁Marc	-10.6815
▁teollisuude	-10.682
▁yhdeksä	-10.682
lause	-10.6826
▁aikoihin	-10.6838
▁kokoomus	-10.6838
▁kaudelle	-10.6838
▁Lehtikuva	-10.6839
▁seudulla	-10.684
▁annetaan	-10.684
▁perustelee	-10.6842
▁Honka	-10.6844
▁harkit	-10.6847
bra	-10.6849
luokan	-10.6858
▁harha	-10.6859
▁toiminnassa	-10.6859
▁kehuu	-10.6861
▁kohtuu	-10.6866
▁lähteiden	-10.6868
▁demokraattie	-10.6869
▁järkyttävä	-10.6871
järven	-10.6881
▁Williams	-10.6884
▁kukka	-10.6884
ikäise	-10.6886
▁pakotte	-10.6887
▁Lounais	-10.6888
▁Jotk	-10.6889
▁kokouksen	-10.689
▁Prinsessa	-10.6891
▁alkanee	-10.6893
▁tuloksia	-10.6894
toihin	-10.6895
▁mielellä	-10.6897
uksella	-10.6897
▁Tervo	-10.6899
▁Juuri	-10.69
▁Ilkka	-10.6903
▁2005	-10.6904
▁kaupall	-10.6904
▁surulli	-10.6909
▁parhaiten	-10.6911
mestari	-10.6913
▁kg	-10.6914
▁Pori	-10.6919
▁kaava	-10.692
▁tarinoi	-10.6927
▁omistama	-10.6929
rikoksesta	-10.6938
▁harrastus	-10.6939
▁pyyntö	-10.6939
▁teollisuus	-10.6939
▁fiilis	-10.694
▁Hyvin	-10.6941
▁asioihin	-10.6942
▁oikeisto	-10.6942
▁maistu	-10.6944
▁Kärppi	-10.6944
▁murtu	-10.6945
▁pilvi	-10.6948
ford	-10.6949
▁kelpo	-10.6951
▁johdon	-10.6952
▁luona	-10.6953
▁Lap	-10.6953
▁työskentelevä	-10.6961
▁pelaamise	-10.6964
▁jatkossakin	-10.6973
▁lääkke	-10.6976
vero	-10.6977
▁vaihtoehtoja	-10.6982
▁kasvava	-10.6984
▁järvi	-10.6988
▁Viimeise	-10.6989
▁rajoi	-10.699
▁Netanjahu	-10.6991
▁epäselvä	-10.6991
▁kommentteja	-10.6991
▁Räikkö	-10.6991
▁Kainuu	-10.6991
▁Vihre	-10.6991
▁äärijärjestö	-10.6991
▁Sir	-10.6992
▁sokeri	-10.6992
▁James	-10.6992
▁ruuhka	-10.6992
▁verrat	-10.6994
▁turvallise	-10.6995
▁Puoli	-10.6995
hallitus	-10.7004
▁titteli	-10.7006
kaikkein	-10.7008
▁ampuja	-10.7009
▁radan	-10.701
▁LP	-10.701
▁nykyistä	-10.7017
▁todettu	-10.702
▁vietti	-10.7022
▁verkkosivuilla	-10.7022
▁Teh	-10.7027
▁päiviä	-10.703
▁haju	-10.7031
lehdessä	-10.7035
▁maalilla	-10.7037
▁asevoimi	-10.7041
▁palveluita	-10.7041
▁Hyundai	-10.7042
▁Telegram	-10.7042
▁oikeudenkäynni	-10.7042
▁vaikuttaja	-10.7043
▁maltill	-10.7045
▁voitosta	-10.7046
▁Some	-10.7047
▁kuume	-10.7049
▁ajava	-10.7052
▁rento	-10.7053
▁lääkkee	-10.7054
▁virallise	-10.7055
▁kaunis	-10.7065
kisoihin	-10.707
▁valmistaja	-10.7072
▁Samaa	-10.7074
zanne	-10.7083
▁juonta	-10.7086
▁toimeen	-10.7093
Volodymyr	-10.7094
▁ilmastonmuuto	-10.7094
▁tapahtua	-10.7094
▁pelejä	-10.7094
▁kuorma	-10.7094
▁Radio	-10.7094
▁suklaa	-10.7095
▁Voitto	-10.7096
▁turisti	-10.7096
▁vaurioitu	-10.7097
▁Pöy	-10.7098
▁oy	-10.7098
▁maailmanmestar	-10.7102
▁Vanh	-10.7102
▁rahoj	-10.7105
▁osoittee	-10.7107
▁pärjä	-10.7112
logi	-10.7115
▁tulvi	-10.7118
▁havainto	-10.7118
▁yöllä	-10.7129
▁niille	-10.713
▁kuulo	-10.7131
▁Tiina	-10.7131
▁Ruotsalais	-10.7132
▁kuvasi	-10.7136
▁Sor	-10.7136
▁oireet	-10.7139
▁kaivo	-10.714
▁odotti	-10.7142
▁kymppi	-10.7144
▁Pur	-10.7144
▁kimppuun	-10.7146
▁Windows	-10.7146
▁mestaruutta	-10.7146
▁mielipide	-10.7146
▁puheenvuoro	-10.7146
▁tiloissa	-10.7146
▁harvoin	-10.7146
▁SalPa	-10.7147
▁poruka	-10.7147
▁varova	-10.7147
▁aloittee	-10.7148
▁Liperi	-10.7149
▁oltava	-10.7151
▁Kansainväli	-10.7152
▁kotois	-10.7155
▁lensi	-10.7167
rauha	-10.7176
▁Levi	-10.7176
▁tumma	-10.7177
▁syövä	-10.7177
▁Vesi	-10.7179
▁tukema	-10.719
▁Edmonton	-10.7198
▁diagnoosi	-10.7199
▁kongressi	-10.7199
▁järkevä	-10.7199
▁syrjä	-10.7199
▁loukkaantunut	-10.7199
▁syytteet	-10.7199
▁syntynee	-10.7199
▁tunnelmi	-10.7199
▁aseita	-10.7199
▁Lähes	-10.7199
millään	-10.72
▁Kukko	-10.72
▁Utah	-10.7203
▁työntekijöitä	-10.7211
▁Oliver	-10.7212
▁markkinointi	-10.7213
▁yhdistys	-10.7213
▁Esa	-10.7219
▁Ylä	-10.722
▁riita	-10.7227
numero	-10.7229
▁miettii	-10.723
▁mällä	-10.7232
▁lopuksi	-10.7232
▁seksuaalisest	-10.7235
▁mainits	-10.7241
▁johd	-10.7242
▁aktiivisest	-10.7242
▁turma	-10.7242
▁paini	-10.7244
▁King	-10.7251
▁juniori	-10.7251
▁Rydman	-10.7251
▁ensimmäisi	-10.7251
▁uutinen	-10.7251
▁kykene	-10.7252
▁palannut	-10.7256
▁häviä	-10.7259
▁luoda	-10.7263
▁Mielestä	-10.7269
▁kuulustelu	-10.7276
▁Ura	-10.7283
▁Mad	-10.7285
▁tyypi	-10.7289
▁täydelli	-10.729
▁IL	-10.7294
▁niska	-10.7296
▁Kaupungin	-10.7304
▁noussee	-10.7304
▁päässee	-10.7308
▁kolari	-10.7309
▁hommi	-10.7314
▁nähnee	-10.7319
▁Itävalla	-10.7322
▁lentokone	-10.7323
ikäinen	-10.7324
▁pakolais	-10.7333
▁uudistukse	-10.7338
▁Paikalla	-10.7339
▁ylittä	-10.7343
▁Lapsi	-10.7349
▁hitaa	-10.7353
▁tonti	-10.7354
▁sairauksi	-10.7355
ney	-10.7357
▁Pärmäkoski	-10.7357
▁myymälä	-10.7357
▁Nuorte	-10.7357
▁palkkio	-10.7358
▁Blue	-10.7358
▁kauppoj	-10.7358
▁käyttävä	-10.7358
▁baari	-10.7362
▁pääsihteeri	-10.7363
▁Ajo	-10.7368
▁taji	-10.7369
▁ikäluok	-10.7374
▁voittama	-10.7378
▁ostaja	-10.7382
▁ajasta	-10.7383
kahta	-10.7386
▁puolta	-10.7395
▁pelattu	-10.7398
▁Real	-10.7398
▁pyör	-10.74
▁edustalla	-10.7403
▁Brasilia	-10.7411
▁helikopteri	-10.7411
▁Oilers	-10.7411
▁vammoja	-10.7411
▁asianajaja	-10.7411
▁Vilppaa	-10.7411
▁Paljon	-10.7411
▁haastattelema	-10.7411
SSS	-10.7414
▁pysyi	-10.7416
▁reuna	-10.7416
ystävänsä	-10.7418
▁onnellis	-10.7418
▁2007	-10.7419
▁liene	-10.742
▁niemi	-10.742
▁aikuisi	-10.7424
▁mielenkiinto	-10.7424
▁Holm	-10.7425
▁Hizbollah	-10.7431
▁karhu	-10.7432
▁selvitti	-10.7434
▁lapsensa	-10.7439
▁henkirikokse	-10.744
▁onnettomuudessa	-10.744
▁taivaa	-10.7451
▁pop	-10.7453
15	-10.7457
▁Hamilton	-10.7464
▁saatavilla	-10.7464
▁show	-10.7465
▁todellisuude	-10.7466
▁sisar	-10.7468
▁kirkon	-10.7468
▁Mac	-10.7469
▁Kilju	-10.7469
▁paita	-10.747
▁podcastissa	-10.7473
▁Korja	-10.7475
▁Cor	-10.7485
▁laida	-10.7489
▁Kokoomukse	-10.7503
▁120	-10.7504
▁arvel	-10.7509
▁Kansainvälise	-10.7512
▁kampanjoi	-10.7519
▁nyrkkeily	-10.7519
▁Rangers	-10.7519
▁vaaleja	-10.7519
▁Mikkeli	-10.7519
▁juusto	-10.7519
▁kauhea	-10.752
▁Lindholm	-10.752
▁Mäkinen	-10.7524
▁käyttämää	-10.7533
▁äänestäjä	-10.7536
▁mahdotonta	-10.7542
▁avoimesti	-10.7545
käyttö	-10.7556
▁tarpei	-10.7563
▁ohjelmi	-10.7569
▁katastrofi	-10.7573
▁opiskelu	-10.7573
▁unohta	-10.7573
▁kenraali	-10.7573
▁minusta	-10.7573
▁Niskase	-10.7573
▁Seppä	-10.7573
▁ajattelu	-10.7576
▁puuttee	-10.7576
▁outo	-10.7576
▁kutsuttu	-10.7577
▁ystävy	-10.7579
▁Wall	-10.7584
▁kehottaa	-10.7584
▁haasteita	-10.7596
▁tärkeitä	-10.7599
▁Lehtonen	-10.7607
podcast	-10.7607
▁historiallise	-10.7608
▁olosuhteissa	-10.7609
▁välei	-10.7611
▁ottanee	-10.7615
▁Prins	-10.7615
▁herät	-10.7617
▁välistä	-10.7621
▁työttömyys	-10.7628
▁uskalta	-10.7628
▁Satu	-10.7628
▁viitaten	-10.7628
▁Keskustelu	-10.7629
▁minkäänlai	-10.7632
▁Julia	-10.7635
▁esitetty	-10.7639
▁joukkueeseen	-10.7639
▁käsitellään	-10.764
▁for	-10.764
▁muutto	-10.7645
▁vieraile	-10.7647
▁Ze	-10.7649
▁vuorokaude	-10.7652
vihr	-10.7653
▁korkeimma	-10.7656
▁nimissä	-10.7659
▁hyötyä	-10.766
▁Ber	-10.7662
▁tuska	-10.7663
▁välttää	-10.7667
▁tuhoutu	-10.7672
▁SE	-10.7675
▁Shi	-10.7675
▁kärsivä	-10.7678
com	-10.7678
▁epävarm	-10.7679
kultaa	-10.768
▁esitutkinta	-10.7682
▁huomannut	-10.7682
▁tiivii	-10.7683
▁kartano	-10.7683
▁ravintoloi	-10.7686
▁rytmi	-10.7686
▁kiinnittä	-10.7686
▁Jatko	-10.7688
▁tyypilli	-10.7695
▁64	-10.7698
▁harvinaise	-10.7699
▁Yrittäj	-10.7703
▁jengi	-10.771
▁katosi	-10.7714
▁huomattava	-10.7717
▁180	-10.7723
▁Valkoise	-10.7729
▁mittaise	-10.7732
▁korjattu	-10.7734
▁Brysseli	-10.7738
▁Englanti	-10.7738
▁Vornase	-10.7738
▁asiantuntijoi	-10.7738
▁Ministeri	-10.7738
toisaalta	-10.7738
▁vyö	-10.7738
▁Å	-10.7738
▁sur	-10.774
▁panki	-10.7741
▁kymmeni	-10.7741
▁puheessaan	-10.7743
▁työllist	-10.7747
▁hankinta	-10.7747
▁asunut	-10.7755
▁tennis	-10.7757
▁kuolemasta	-10.7759
▁arvioitu	-10.776
▁taido	-10.7761
▁virallisesti	-10.7763
▁Joukkuee	-10.7765
▁vahingoit	-10.7769
▁eroon	-10.7769
▁vastaanotto	-10.777
Karjala	-10.7773
▁tutkitaan	-10.7773
▁tarka	-10.7777
▁Maali	-10.7781
▁kysymyksiin	-10.7783
▁vere	-10.779
saari	-10.7792
▁Lähe	-10.7792
▁kunti	-10.7793
▁kuullut	-10.7793
▁Jalonen	-10.7794
▁kaudesta	-10.7794
▁pelkä	-10.7794
▁taloudellise	-10.7797
▁Yö	-10.7798
▁lähtevä	-10.7799
▁alkuvuode	-10.7801
▁Jazz	-10.7801
▁apulais	-10.7804
▁2000	-10.7811
▁avain	-10.7812
▁Heidi	-10.7812
▁kisoihin	-10.7819
▁parkki	-10.7823
johto	-10.783
sihteeri	-10.7832
▁esittämä	-10.7834
▁kilpaill	-10.7841
vankeusrangaistu	-10.7843
▁poliitikko	-10.7843
▁investoi	-10.7846
▁poltto	-10.7849
▁arvonlisävero	-10.7849
▁Ronaldo	-10.7849
▁tehtävissä	-10.7849
▁remontti	-10.7849
▁Serge	-10.7849
▁Roop	-10.7851
▁nopeus	-10.7853
▁isompi	-10.7857
▁yhdistää	-10.7858
▁Raita	-10.7861
▁kauhu	-10.7865
▁vakio	-10.7868
▁teknise	-10.787
▁romu	-10.7874
▁täll	-10.7875
kokoukse	-10.7876
▁liikennettä	-10.7878
▁ampumise	-10.7878
▁opinto	-10.7878
▁kielto	-10.7886
▁voimakkaa	-10.7887
▁hyppy	-10.7892
▁Rus	-10.7898
▁kasvatti	-10.7899
voiton	-10.79
▁läsnä	-10.7905
▁lainsäädäntö	-10.7905
▁Kansanedustaja	-10.7905
▁Päätös	-10.7905
▁italialai	-10.7905
▁tupla	-10.7906
▁2,5	-10.7906
▁investointi	-10.7909
▁kriittise	-10.7909
▁hävin	-10.7909
▁puoleen	-10.791
▁rauta	-10.791
▁Koski	-10.7919
▁tilanteita	-10.792
▁kysyntä	-10.7936
▁kuluvan	-10.7937
▁kilpailuun	-10.7939
▁Lehtinen	-10.7946
▁kokonaisuudessa	-10.7947
▁rikka	-10.7952
jev	-10.7953
▁Anders	-10.7961
▁negatiiv	-10.7962
▁Hollanni	-10.7962
▁firma	-10.7962
▁vaalea	-10.7963
▁Poika	-10.7964
▁käymään	-10.7966
▁työpaikka	-10.7973
▁jäänee	-10.7975
▁metalli	-10.7975
▁kohd	-10.7976
▁metsi	-10.7979
▁Borg	-10.7981
▁Tero	-10.7983
▁oste	-10.7988
▁lukemin	-10.7989
▁näkymä	-10.7991
▁pääkaupungi	-10.7996
lehdelle	-10.7998
Britannia	-10.8
▁lautakun	-10.8001
▁rikki	-10.8003
▁Tokio	-10.8004
▁henkilökunna	-10.8004
▁onnistunee	-10.8005
vaihe	-10.8008
▁Aiva	-10.801
▁rinnalla	-10.801
maajoukkue	-10.8012
▁keskiviikko	-10.8017
▁Veikkausliiga	-10.8019
▁ylpeä	-10.8019
▁Huippu	-10.8019
▁rasisti	-10.802
Arabia	-10.802
▁riitti	-10.8022
▁turvallisuutta	-10.8023
▁teokse	-10.8023
kuski	-10.8023
▁seuraavi	-10.8025
▁Onneks	-10.8029
▁1-1	-10.803
▁laajasti	-10.803
▁kommentoida	-10.8035
▁tuhansi	-10.8037
▁dokumentti	-10.8047
▁persoona	-10.805
ottamaan	-10.8052
alueella	-10.8052
▁hermo	-10.8053
▁suurlähettilä	-10.8055
▁politiikka	-10.8055
▁250	-10.8057
▁53	-10.8066
▁dramaatt	-10.8076
▁Group	-10.8076
▁Richard	-10.8076
▁THL	-10.8076
▁brändi	-10.8076
▁tehtäviä	-10.8076
▁helsinkiläi	-10.8076
▁Ehdo	-10.8076
▁radalla	-10.8076
▁risteykse	-10.8076
▁Tuuli	-10.8077
▁ihmisoikeus	-10.8077
▁potilaa	-10.8077
▁jotakin	-10.8079
▁cha	-10.8083
▁2009	-10.8084
▁2006	-10.8086
fer	-10.8088
▁2003	-10.809
▁hankke	-10.8106
▁antava	-10.811
henkilö	-10.8115
▁mistään	-10.8117
▁ajeta	-10.8118
kuulu	-10.812
▁Vasemmistoliito	-10.8121
tuneita	-10.8124
▁Juho	-10.8125
▁tekemässä	-10.8125
▁Yhtä	-10.8129
▁vapautu	-10.8131
▁inflaatio	-10.8133
▁Oscar	-10.8133
▁kalenteri	-10.8133
▁syöksy	-10.8133
▁poikki	-10.8134
▁miellyttä	-10.8134
▁poliisilaitokse	-10.8135
▁korvaukse	-10.8141
▁61	-10.8149
▁Esko	-10.8152
▁ansait	-10.8152
▁Ek	-10.8152
▁Tammi	-10.8162
▁annos	-10.8162
Pekka	-10.8174
ikat	-10.818
▁käsitykse	-10.818
▁syyttei	-10.8181
▁Raha	-10.8186
▁alijäämä	-10.8191
▁ambulanssi	-10.8191
▁kuvernööri	-10.8191
▁liikenteessä	-10.8191
▁läheisyydessä	-10.8191
▁vaihtoehdo	-10.8191
▁draama	-10.8191
▁presidenttinä	-10.8191
▁Macron	-10.8191
▁piikki	-10.8192
▁Mylly	-10.8193
ikympp	-10.8195
▁parantu	-10.8195
▁Tausta	-10.8196
▁leviää	-10.8196
▁pohjalta	-10.8199
▁epäillä	-10.82
▁tilaisuus	-10.8201
▁valtavasti	-10.821
▁terveell	-10.8211
▁Afrika	-10.8215
▁62	-10.8217
▁alaikäi	-10.8218
▁juurikaan	-10.822
▁Sund	-10.8225
asiantuntija	-10.8232
▁Out	-10.8243
▁terveyden	-10.8246
rofessori	-10.8248
▁Koivisto	-10.8249
▁Yhdysvaltoihin	-10.8249
▁infrastruktuuri	-10.8249
▁laittoi	-10.8249
▁temppu	-10.8249
▁johdolla	-10.8249
▁takla	-10.825
▁velvoitt	-10.8251
▁yllätyksenä	-10.8252
▁teillä	-10.8252
▁säännöllisesti	-10.8252
▁Heikkilä	-10.8258
▁maise	-10.8263
▁vaatimus	-10.8264
▁taloudelli	-10.8266
▁lopetti	-10.8268
▁hallinta	-10.8268
▁Miele	-10.8269
▁pahoinpitelystä	-10.8277
oikeus	-10.8286
▁perustuva	-10.8287
▁hattu	-10.8288
yyteen	-10.829
kirjo	-10.8291
▁ilmoitukse	-10.8299
▁Kommentti	-10.8308
▁myynnissä	-10.8308
▁vuodelle	-10.8308
valtuutettu	-10.8308
▁tykkää	-10.8308
▁Nykyis	-10.8308
▁kierrä	-10.8308
▁Samuli	-10.8308
▁hämmen	-10.831
▁kilpailijoi	-10.8311
▁ryöstö	-10.832
▁Mauri	-10.8321
▁Kello	-10.8324
▁kuljetus	-10.8327
▁puhal	-10.8329
▁ehto	-10.833
▁kauteen	-10.833
eltu	-10.8339
▁tavaroi	-10.8341
▁teille	-10.8344
▁(19	-10.8347
▁käytös	-10.8347
▁käsitellä	-10.8354
▁lautakunna	-10.8356
▁yhtäkki	-10.8357
▁Lasten	-10.8361
▁esitystä	-10.8361
▁Frederik	-10.8366
▁budjeti	-10.8366
▁politiikassa	-10.8366
▁yhdistelmä	-10.8367
▁valiokunta	-10.8367
▁tähdet	-10.8367
▁pormestari	-10.8368
▁päästy	-10.8368
▁häiritse	-10.8369
▁Helander	-10.8371
▁Vuok	-10.8372
▁Rauta	-10.8377
▁77	-10.8379
▁seurakunna	-10.8383
▁mittari	-10.8384
▁työntekijöi	-10.8387
▁hauda	-10.8387
▁terveydenhuollo	-10.8395
▁muutoksi	-10.8396
▁asiakkaita	-10.84
▁Anttila	-10.84
▁sovittu	-10.8403
▁kehittämis	-10.8403
▁Tre	-10.8404
▁suuremma	-10.8404
▁vähemmistö	-10.8405
▁rajusti	-10.8421
▁lavalle	-10.8423
▁Terveys	-10.8426
▁sukupolve	-10.8426
▁suurlähetystö	-10.8426
▁Huuhkaji	-10.8426
▁hyvinvoinni	-10.8426
▁Pietari	-10.8426
▁kadonnut	-10.8426
▁ärsyt	-10.8426
▁heikenty	-10.8426
Assad	-10.8428
▁luonnos	-10.8428
▁vähene	-10.843
▁3-1	-10.8433
▁aikuist	-10.8435
▁Toveri	-10.8435
▁Toisin	-10.845
▁tonni	-10.8451
▁osaamista	-10.8452
▁rangaistukse	-10.8457
▁Talous	-10.8462
▁keinoja	-10.8472
▁suomalaisille	-10.8475
▁Kaupunki	-10.8485
▁ristiriita	-10.8485
▁Urpilai	-10.8485
▁pörssi	-10.8485
▁ahdistu	-10.8485
▁Jukuri	-10.8485
▁sektori	-10.8485
▁muusikko	-10.8485
▁mielenterveys	-10.8485
▁kaikesta	-10.8486
▁Lainee	-10.8487
▁otteeseen	-10.8488
häirintä	-10.8488
▁lopputulos	-10.8488
▁oppilaa	-10.8489
▁viiva	-10.8499
▁kahvila	-10.85
kylä	-10.85
▁Turkki	-10.8508
▁Kaude	-10.851
▁mitkä	-10.8513
▁järje	-10.8513
▁ryhmään	-10.8514
▁miehensä	-10.8514
▁laatiko	-10.852
▁palvelukse	-10.8534
▁puuttuu	-10.8537
▁Sosiaali	-10.8537
▁koskevi	-10.8543
í	-10.8545
▁Julkais	-10.8545
▁hätäkeskukseen	-10.8545
▁toistuvasti	-10.8545
▁Romania	-10.8545
▁kyydissä	-10.8545
▁Julki	-10.8546
▁ylsi	-10.8546
▁Mänty	-10.8546
▁saataisi	-10.8548
▁vakuuttaa	-10.8548
▁+1	-10.8549
▁Itävalta	-10.8549
▁2004	-10.8558
▁kentälle	-10.8569
▁työskennell	-10.8571
▁ihmisistä	-10.8571
▁nosto	-10.8576
▁päädy	-10.8587
▁isäntä	-10.8588
hopea	-10.8593
▁käytävä	-10.8597
▁tarkastus	-10.8601
▁lavalla	-10.8604
▁KuPS	-10.8605
▁päällikö	-10.8605
▁Kreika	-10.8605
▁Sauvo	-10.8606
▁heikkene	-10.8606
▁Harkova	-10.8606
▁pätkä	-10.8606
▁Johnson	-10.8608
▁eläimi	-10.861
ttavissa	-10.8612
▁koriste	-10.8612
▁kautensa	-10.8613
▁näytä	-10.8617
▁taloutta	-10.8618
▁Israeliin	-10.8618
▁pakkase	-10.8619
▁vieraana	-10.8627
▁Hinta	-10.863
vyys	-10.8631
▁pääoma	-10.8634
▁opetta	-10.8639
▁mainittu	-10.8645
▁Savo	-10.8653
▁jyrä	-10.8665
▁penki	-10.8665
▁George	-10.8666
▁Jyrki	-10.8666
▁juhannus	-10.8666
▁olosuhteet	-10.8666
▁yhdestä	-10.8666
▁maraton	-10.8666
▁laituri	-10.8667
▁hoiva	-10.8667
▁syytteen	-10.8667
▁Seiska	-10.8668
tiettävästi	-10.867
▁Otto	-10.8674
▁harmaa	-10.8674
▁vaikeutta	-10.8674
▁salolais	-10.8676
▁leima	-10.8677
kulku	-10.8678
▁podcast	-10.8679
▁väkivalla	-10.8685
▁kunnassa	-10.8686
lukuun	-10.8686
▁pisteellä	-10.8687
▁vaihteleva	-10.869
▁63	-10.8693
▁plus	-10.8694
▁ruumis	-10.8694
▁Tällaise	-10.8697
mel	-10.8699
▁hyppää	-10.8702
▁alkunsa	-10.8719
▁Belgia	-10.8727
▁KHL	-10.8727
▁Ottawa	-10.8727
▁saldo	-10.8727
▁Lassila	-10.8727
▁vanhempa	-10.8728
▁Kevää	-10.8729
▁käytiin	-10.873
▁pyöräily	-10.873
▁keskiarvo	-10.8734
▁käsitys	-10.8734
▁joutua	-10.8734
▁keskusteli	-10.8735
lliseksi	-10.8735
vuoden	-10.8738
▁näkemään	-10.8738
▁syytety	-10.8741
▁kokeilu	-10.8742
▁peräisi	-10.8746
▁lempi	-10.875
▁sanovat	-10.8751
▁varoitti	-10.8754
▁Matia	-10.8758
▁harjoittele	-10.8759
▁periaattee	-10.8762
▁epäile	-10.8762
▁opiskelijoi	-10.8768
▁Tuomari	-10.8769
▁Will	-10.8772
▁polvi	-10.878
▁ehdotus	-10.8782
mmäs	-10.8786
stadion	-10.8788
yhtymä	-10.8788
▁Palestiina	-10.8788
▁manageri	-10.8788
▁huomenna	-10.8788
▁parisuhtee	-10.8788
▁Hakkarai	-10.8788
▁väylä	-10.8788
▁oikeuteen	-10.879
▁tuhanne	-10.879
▁ruotsi	-10.879
▁lentopallo	-10.8791
▁yksityiskohta	-10.8792
▁muilla	-10.8792
▁olympialaisiin	-10.8793
▁hakemukse	-10.8794
▁Voima	-10.8795
▁suhteellise	-10.8798
▁osoittautu	-10.8805
ctor	-10.8806
▁auttama	-10.8809
▁rakentaminen	-10.8811
▁pelät	-10.8814
▁terroristi	-10.8815
▁jumi	-10.8822
▁kirjoittama	-10.8826
▁erikoi	-10.8831
▁tulva	-10.8835
▁yhdisty	-10.884
▁päivystykse	-10.885
▁kokemuksia	-10.885
▁tehdas	-10.885
▁luksus	-10.885
▁hirmu	-10.885
▁merkei	-10.885
▁gramma	-10.885
▁kaupassa	-10.8851
▁mainitsee	-10.8852
▁;	-10.8854
▁ladat	-10.8854
▁hampa	-10.8854
▁tekniikka	-10.8854
harju	-10.8856
▁selviyty	-10.8859
▁valtaosa	-10.8862
▁helte	-10.8864
▁76	-10.8866
▁Mene	-10.8868
▁74	-10.8869
ingham	-10.887
▁Tro	-10.8872
▁kestänyt	-10.8872
▁otteluissa	-10.8878
töntä	-10.8881
▁palkat	-10.8882
▁muutakin	-10.8884
▁lupasi	-10.8886
▁kyynel	-10.8895
▁Konsta	-10.8904
▁tieltä	-10.8905
▁kesto	-10.8906
▁Hö	-10.8907
Mukana	-10.8908
▁1980-	-10.8912
▁Elokapina	-10.8912
▁Susanna	-10.8912
▁UMK	-10.8912
▁Christian	-10.8912
▁vastaajista	-10.8912
▁Yleisö	-10.8912
▁kirjoitett	-10.8913
▁riemu	-10.8913
▁Fox	-10.8916
▁3-2	-10.8921
▁99	-10.8927
▁tasku	-10.8928
▁tietokone	-10.893
▁Ralli	-10.8931
▁leikata	-10.8938
▁kuultu	-10.8944
▁saattaisi	-10.8948
▁tunsi	-10.8952
▁suosittele	-10.8968
▁Jokaise	-10.8969
▁löydy	-10.8975
▁Thaimaa	-10.8975
▁Tynkky	-10.8975
▁Selänne	-10.8975
▁lämmö	-10.8975
▁Korhonen	-10.8975
▁Alex	-10.8975
▁henkeä	-10.8975
▁harva	-10.8977
▁Kiitos	-10.8978
▁maito	-10.898
▁kulkeva	-10.8981
▁Vene	-10.8985
▁minuutti	-10.8989
▁66	-10.899
▁Jokela	-10.899
▁matkustaji	-10.899
▁sotilaita	-10.8992
▁live	-10.8996
▁sävel	-10.8999
▁Koskinen	-10.9002
▁kohtaamise	-10.9003
▁vieraill	-10.9015
▁Paras	-10.9034
▁kirkka	-10.9034
о	-10.9037
▁Tavoitteen	-10.9037
▁hiihdo	-10.9037
▁pettymys	-10.9037
▁puutarha	-10.9037
▁verenpaine	-10.9037
▁tavoitti	-10.9038
▁kadonnee	-10.9038
▁kodissa	-10.9039
▁loukka	-10.9041
stro	-10.9042
▁ratkaista	-10.9042
▁sauno	-10.9044
▁harkitse	-10.9045
▁parane	-10.9045
▁koru	-10.9049
▁Pidä	-10.9049
▁muuttua	-10.9052
▁keskenään	-10.9055
▁pääsarja	-10.9056
▁riittänyt	-10.9057
▁valkoise	-10.9067
▁tietävät	-10.9068
▁Ger	-10.9069
▁toiminna	-10.9071
▁sattuma	-10.9081
▁pääsiäis	-10.9081
▁sisäise	-10.9085
oistaiseksi	-10.9089
kiekkoilija	-10.9089
ketju	-10.9092
▁kip	-10.91
▁takavarikoi	-10.9101
▁Amerikka	-10.9101
▁Eduskunna	-10.9101
▁Suomella	-10.9101
▁teitä	-10.9102
▁varmistu	-10.9103
▁aikova	-10.9105
▁huuta	-10.9107
tietojen	-10.911
▁Marku	-10.9123
▁Harala	-10.9123
▁marja	-10.9131
form	-10.9137
▁henge	-10.9154
▁yhdistä	-10.9155
▁pani	-10.9157
▁kehotti	-10.9158
tellen	-10.9158
tappio	-10.916
▁Slovenia	-10.9164
▁Traficom	-10.9164
▁riveissä	-10.9164
▁seurue	-10.9164
▁korostu	-10.9165
▁laukaus	-10.9165
▁viittasi	-10.9166
▁köyh	-10.9166
▁pääkaupunki	-10.9168
▁vankeus	-10.9172
▁vitsi	-10.9175
▁maisema	-10.9176
▁kävell	-10.9179
▁kummall	-10.9189
▁saavutti	-10.9196
▁jäädyt	-10.9198
▁uutisoitiin	-10.9198
▁lähdössä	-10.92
llisuuden	-10.9205
▁takaise	-10.9208
▁käytettä	-10.9215
▁Maija	-10.9219
ahdus	-10.9221
▁haastattel	-10.9223
▁edetessä	-10.9229
▁sprintti	-10.9229
▁miehestä	-10.9229
▁rehtori	-10.9229
▁tilaisuuksi	-10.9229
▁Kolmanne	-10.9229
▁avioero	-10.923
▁lähipiiri	-10.923
▁lopullise	-10.923
▁Vilpas	-10.9232
▁matto	-10.9233
▁Wilma	-10.9234
▁täydellise	-10.9235
▁puhetta	-10.9235
▁isuutta	-10.9235
▁kokenee	-10.9235
▁ylipäätä	-10.9238
▁uuni	-10.9245
▁vähite	-10.9245
▁valmiita	-10.9246
▁juoksija	-10.9255
▁72	-10.9259
▁bio	-10.9265
▁asiakkaide	-10.9274
▁todennäköisi	-10.9276
▁mukaise	-10.9277
politiikka	-10.9282
poikkeuksellinen	-10.9287
▁työpaika	-10.9289
▁ZUMA	-10.9293
▁hyökkäyssoda	-10.9293
▁massiiv	-10.9293
▁propaganda	-10.9293
▁sprinti	-10.9293
▁kuohu	-10.9293
▁tuoksu	-10.9294
▁päiväkodi	-10.9294
▁poissaolo	-10.9294
▁Toimittaja	-10.9295
▁supertähti	-10.9295
▁Boston	-10.9295
▁klass	-10.9296
▁syötö	-10.9297
▁sotilaallise	-10.9298
▁tunniste	-10.93
▁vanki	-10.9301
▁esitetään	-10.9304
▁67	-10.9306
sopimuksen	-10.9306
▁68	-10.9309
▁keskeisi	-10.9311
▁rahoitta	-10.9311
▁säätiö	-10.9319
▁pohj	-10.9326
▁kiinnostunut	-10.9329
▁Yorkissa	-10.9331
mark	-10.9333
▁lajei	-10.9335
kumppani	-10.9336
▁miehistä	-10.9341
oikeuden	-10.9345
turvallisuuden	-10.9347
*	-10.9358
▁havaittiin	-10.9358
▁Tsheki	-10.9358
▁leikkaukset	-10.9358
▁kahdell	-10.936
▁palatsi	-10.9361
▁viestinnä	-10.9362
▁pimeä	-10.9362
▁Camilla	-10.9364
kisoista	-10.9366
▁jöi	-10.9369
▁69	-10.937
▁yrittäji	-10.9394
▁pyrkivä	-10.9395
▁osoite	-10.9408
▁tavanoma	-10.941
▁Kaksik	-10.9413
▁Pyy	-10.9415
▁kääntee	-10.9418
liike	-10.9423
▁harjoituksissa	-10.9423
▁konferenssi	-10.9423
▁liiketoiminta	-10.9423
▁peräkkäin	-10.9423
aattona	-10.9424
▁Halonen	-10.9424
▁julista	-10.9424
▁Hovioikeu	-10.9424
▁Vance	-10.9425
▁väitteitä	-10.9427
▁ilmapiiri	-10.9427
▁perheelle	-10.9427
▁keskimääräi	-10.9427
▁ajalta	-10.9429
▁kaven	-10.9431
▁muualle	-10.9433
▁korvauksia	-10.9433
▁taloon	-10.9434
▁hallitseva	-10.9434
▁viihde	-10.9436
▁huomioida	-10.9436
▁Selvi	-10.9438
▁kiittää	-10.9439
▁autoilija	-10.9443
▁Kone	-10.9445
▁tuomioistuime	-10.9447
▁Tällaisi	-10.9455
▁Tv	-10.9465
▁Pieni	-10.9468
▁kuukaude	-10.9468
▁yksittäisi	-10.9469
▁rakentee	-10.9477
finaali	-10.948
yhteyde	-10.9485
▁sisältävä	-10.9489
▁lainsäädännö	-10.9489
▁reservi	-10.9489
▁Thomas	-10.9489
▁Volvo	-10.9489
▁aamupäivällä	-10.9489
▁muistetaan	-10.9489
▁psykologi	-10.9489
▁saatava	-10.9492
▁Tavio	-10.9492
▁eläime	-10.9495
▁Kysely	-10.9495
▁ansaitse	-10.9496
▁vaunu	-10.9498
▁Sosiaalise	-10.9498
▁Ism	-10.9498
▁keula	-10.9501
▁kotiottelu	-10.9509
▁Kier	-10.9511
▁kolma	-10.9512
▁kumpik	-10.9516
▁kertoneet	-10.9519
▁Koske	-10.9531
▁puhuttu	-10.9542
▁kiristä	-10.9554
▁profiili	-10.9555
▁Kennedy	-10.9555
▁valtakunnalli	-10.9555
▁Heiskanen	-10.9555
▁Tuppurai	-10.9555
▁kuormit	-10.9555
▁Smith	-10.9555
▁ratsas	-10.9557
▁Koira	-10.9559
▁puhemies	-10.956
gue	-10.9565
▁kanavi	-10.9566
▁tömä	-10.9567
▁asteeseen	-10.9567
▁herkku	-10.9572
▁vaatteita	-10.9573
▁todellise	-10.9574
▁Kaivo	-10.9576
▁kuvail	-10.958
▁vasten	-10.9581
▁tyypillisest	-10.9585
▁Ford	-10.9589
▁verkkoon	-10.9598
▁oltu	-10.9599
syynä	-10.9601
▁Cup	-10.961
uhki	-10.9612
.7.	-10.9613
tuomari	-10.9614
▁vihja	-10.9617
▁Kalifornia	-10.9622
▁Seinäjoe	-10.9622
▁Swift	-10.9622
▁kehysriih	-10.9622
▁Varsinkin	-10.9622
▁Mahdolli	-10.9622
▁Tuntuu	-10.9623
▁syntymäpäivä	-10.9623
▁Tiedottee	-10.9623
▁kauppia	-10.9623
▁uksilla	-10.9626
▁lähetyksen	-10.9627
▁vähenty	-10.9627
▁vuore	-10.9628
▁ruoki	-10.9629
▁ajoittai	-10.9629
▁Neuvostoliito	-10.963
▁Talvi	-10.9631
▁ammati	-10.9631
▁Penna	-10.9634
▁ehdollise	-10.9636
▁Harju	-10.9638
bri	-10.9661
gor	-10.9669
▁suhdetta	-10.9671
▁millaise	-10.9673
▁alkamis	-10.9674
tutkinnanjohtaja	-10.9679
▁päättävä	-10.9683
▁sattuu	-10.9684
▁työskentely	-10.9689
▁Valmentaja	-10.9689
▁kumppanei	-10.9689
▁spekuloi	-10.9689
▁valmennukse	-10.9689
▁Press	-10.9689
▁Puhakka	-10.9689
▁Lahdessa	-10.9689
▁yleisradioyhtiö	-10.9689
▁hammas	-10.969
▁kameroi	-10.969
▁ilmoittautu	-10.9691
▁Tutkimus	-10.9693
▁jakelu	-10.9697
▁pelottava	-10.9698
▁Korkea	-10.97
▁tahall	-10.9705
▁pyörittä	-10.9705
▁mittaus	-10.9709
▁huijaus	-10.971
▁roska	-10.9712
▁Täll	-10.9714
▁esityksi	-10.9718
▁palaute	-10.9719
arvio	-10.9719
▁ihmettelee	-10.972
▁Tähti	-10.972
▁mukais	-10.9722
▁opas	-10.9732
ärkkä	-10.9734
▁kaupat	-10.9734
▁kotoa	-10.9736
▁huoneessa	-10.9736
▁kerrokse	-10.9741
▁kaksois	-10.9757
▁JYP	-10.9757
▁romahta	-10.9757
▁Toronto	-10.9757
▁mieluu	-10.9758
▁heräsi	-10.9758
▁riippumatta	-10.976
▁tähte	-10.9762
▁uksissa	-10.9762
▁ihmetteli	-10.9765
▁3-0	-10.9769
▁Timesi	-10.977
▁kuuntele	-10.9771
▁tavanomaista	-10.9771
▁tippu	-10.9773
▁kohdista	-10.9776
▁Sw	-10.9779
▁huolestuttava	-10.9783
▁dr	-10.9786
▁kerätä	-10.9794
▁puvu	-10.9797
▁oppilas	-10.9797
▁mielenkiintoi	-10.9808
▁hallitusohjelma	-10.9813
▁Mercedes	-10.9825
▁Hollywood	-10.9825
▁Oppositio	-10.9825
▁työllisyys	-10.9825
▁Tilastokesku	-10.9825
▁lakkautta	-10.9825
▁ominaisuuksi	-10.9825
▁kytke	-10.9826
▁juure	-10.9826
▁venee	-10.9832
▁Kansallis	-10.9835
▁tarvikke	-10.9836
▁Jääkiekko	-10.9837
▁kuljettaji	-10.9841
▁panos	-10.9847
▁syitä	-10.9847
iitti	-10.9849
▁ruotsalaise	-10.9852
▁vaihtee	-10.9863
▁82	-10.9869
▁katsoma	-10.9874
▁73	-10.9875
▁läise	-10.9887
▁hallitse	-10.9888
turnaukse	-10.9892
а	-10.9893
▁Chicago	-10.9893
▁MVPhotos	-10.9893
▁Netflix	-10.9893
▁kansanedustaji	-10.9893
▁perustuslaki	-10.9893
▁järjestettävä	-10.9893
sovellus	-10.9894
▁sukulais	-10.9896
▁Isku	-10.9897
▁nopeammin	-10.9901
▁keskeyty	-10.9901
▁arva	-10.9905
▁säästöjä	-10.991
▁kaapi	-10.9911
▁matsi	-10.9915
▁lievä	-10.9919
▁maila	-10.9922
▁Kotimaa	-10.9924
▁lataa	-10.9931
▁perhettä	-10.9933
laitos	-10.9937
▁luonne	-10.9944
poliittisen	-10.9951
urheilija	-10.9956
▁Liverpool	-10.9962
▁käytäntö	-10.9962
▁puhelimen	-10.9962
▁maksettava	-10.9962
▁1970-	-10.9962
▁grilli	-10.9962
▁Ammatti	-10.9962
▁Määttä	-10.9962
▁laukaukse	-10.9963
▁kiihty	-10.9963
▁Tapaukse	-10.9964
▁Tuisku	-10.9975
▁lähettämä	-10.998
tömiä	-10.9981
▁KU	-10.9986
▁kuop	-10.9994
▁ohitta	-10.9995
▁nähtä	-10.9996
varainministeriö	-11.0018
▁ulkonäkö	-11.0032
▁Aurinko	-11.0032
▁kanadalai	-11.0032
▁metsästys	-11.0032
▁johdosta	-11.0032
▁Pelaaja	-11.0032
▁tyttöystävä	-11.0033
▁vitsail	-11.0034
▁Kävi	-11.0034
▁arvelee	-11.0034
▁medioi	-11.0034
▁metro	-11.0035
▁hengitys	-11.0037
▁nopeude	-11.0037
▁haltuunsa	-11.004
▁kiitollinen	-11.004
▁leipä	-11.0042
tietenkään	-11.0042
▁nähtävä	-11.0068
▁valvonna	-11.0077
▁Tulos	-11.0081
▁naimisi	-11.0093
▁valikoima	-11.0094
▁Samoi	-11.01
▁1999	-11.0102
▁Niemelä	-11.0102
▁People	-11.0102
▁mysteeri	-11.0102
▁hedelmä	-11.0102
▁pidempään	-11.0102
▁rakkaus	-11.0102
▁oudo	-11.0102
▁toisistaan	-11.0103
▁Tapaus	-11.0103
▁konserti	-11.0104
▁lääkkeitä	-11.0105
▁luotsa	-11.0105
▁aikei	-11.0106
▁käyntiin	-11.0106
▁Yritys	-11.0108
▁Adam	-11.0111
PA	-11.0113
▁johtamis	-11.0113
ostetaan	-11.0119
▁näyttäisi	-11.012
▁polve	-11.0129
▁Keskus	-11.0131
▁Hussi	-11.0137
▁Joel	-11.0147
▁kansalaisia	-11.0149
▁Iiv	-11.0151
▁odottava	-11.0156
▁Hag	-11.0162
▁Jark	-11.0166
!	-11.0167
▁Helsingistä	-11.0172
▁Kinnunen	-11.0172
▁Pittsburgh	-11.0172
▁mielenosoitukse	-11.0172
▁korkeude	-11.0172
▁huipen	-11.0172
▁Syksy	-11.0172
▁moderni	-11.0172
▁Malmö	-11.0172
▁Piispa	-11.0172
▁kuvitella	-11.0172
▁selvinnyt	-11.0176
▁alkuperäise	-11.018
▁pyrkimy	-11.0184
▁mattomi	-11.0185
▁vastaanott	-11.0194
▁nostettu	-11.0195
ettaisiin	-11.0204
▁arviointi	-11.0208
▁tukemise	-11.0212
▁aikaisin	-11.0213
▁Sanni	-11.0215
▁piirtei	-11.0218
▁Kysy	-11.022
▁kuudenne	-11.0222
rangaistukseen	-11.0222
▁tuttav	-11.0229
▁Artikkeli	-11.0243
▁Barcelona	-11.0243
▁Google	-11.0243
▁Navalnyi	-11.0243
▁diesel	-11.0243
▁Berliini	-11.0243
▁touhu	-11.0243
▁realisti	-11.0243
▁onnellinen	-11.0243
▁kuluttaji	-11.0244
▁uskonno	-11.0246
▁Löy	-11.0246
▁päätöksi	-11.0249
▁irrot	-11.0254
▁löydetty	-11.0258
▁Payne	-11.0259
▁Facebookissa	-11.0263
▁näkyvi	-11.0275
▁taistell	-11.0282
▁vieti	-11.0283
▁auttava	-11.029
▁lentokonee	-11.0296
▁kestävyy	-11.0301
▁leika	-11.0307
▁aiheuttanee	-11.0307
hdys	-11.0308
pronssi	-11.031
▁Demokraa	-11.0314
▁McLaren	-11.0314
▁tehtäviin	-11.0314
▁hyökkäyssota	-11.0314
▁peräkkäis	-11.0314
▁Hämeenlinna	-11.0314
▁Tallinna	-11.0314
▁Kesäkuu	-11.0315
▁sisälty	-11.0315
▁Ryhmä	-11.0315
▁humala	-11.0315
▁Columbu	-11.0316
▁luonnehti	-11.0317
pyöräilijä	-11.0319
▁uksiin	-11.032
▁Tyson	-11.0322
market	-11.0325
▁Pyhä	-11.0327
▁isyys	-11.0328
▁ammuttiin	-11.0329
ward	-11.0333
▁vastustaji	-11.0343
▁nimensä	-11.0356
▁Audi	-11.0361
terapeutti	-11.0386
▁edellyttää	-11.0386
▁päivystys	-11.0386
kansleri	-11.0386
▁analyysi	-11.0386
▁Ajattelin	-11.0387
▁Viertola	-11.0387
▁edennyt	-11.0387
field	-11.0387
▁tuntua	-11.0387
▁Satakunna	-11.0387
▁leveä	-11.0387
▁Sopimu	-11.0391
▁päätoimittaja	-11.0392
telemään	-11.0392
▁epävarmuu	-11.0393
▁rikokseen	-11.0394
▁laivasto	-11.04
▁Ans	-11.0405
▁Savolai	-11.0406
▁aiheuttava	-11.0412
▁vaarallinen	-11.0413
▁kestänee	-11.0414
▁kankaa	-11.0414
▁Alb	-11.0428
▁varoitukse	-11.0429
900	-11.0442
▁peittä	-11.0456
hahmo	-11.0456
hoitaja	-11.0457
▁Essayah	-11.0459
▁maalivahdi	-11.0459
▁Kuusamo	-11.0459
▁uutuus	-11.0459
▁konsul	-11.0459
gaalassa	-11.0459
▁väkeä	-11.046
▁Pihla	-11.046
▁Meksiko	-11.046
▁vanhoi	-11.046
▁henkilöllisyy	-11.046
komitea	-11.0461
▁Gold	-11.0463
▁vaaditaan	-11.0468
rajojen	-11.0468
▁Hämäläinen	-11.0468
▁syyllistyneen	-11.0479
▁luokse	-11.0481
▁vappu	-11.0481
▁rock	-11.0482
▁88	-11.0485
▁lieve	-11.0488
▁Tiety	-11.0488
laiva	-11.0492
▁voittanee	-11.0495
▁ilmaise	-11.0499
▁1-2	-11.0504
▁Jarm	-11.0505
uohon	-11.0511
▁verkkosivu	-11.0518
miehen	-11.0531
▁räjähdys	-11.0532
▁peleissä	-11.0532
▁lopputulokse	-11.0532
▁asetelma	-11.0532
▁käveli	-11.0532
▁hiekka	-11.0532
▁ajettu	-11.0532
▁odotetu	-11.0533
▁läsnäolo	-11.0533
▁Praha	-11.0533
▁tahdo	-11.0533
Matti	-11.0534
▁edelli	-11.0537
▁matkoi	-11.0537
▁valikoi	-11.054
vyö	-11.0549
▁perinne	-11.0549
▁ohjeita	-11.0555
▁useimmi	-11.0558
▁elämäänsä	-11.0563
▁Parha	-11.0564
▁uuksi	-11.0578
▁olut	-11.058
▁antami	-11.0584
▁Piene	-11.0586
▁paksu	-11.0594
▁siirtolais	-11.0596
▁kyseenala	-11.0596
▁poltta	-11.06
▁kohdistunee	-11.0601
lämpö	-11.0604
tuomio	-11.0604
@	-11.0605
▁valtiovierailu	-11.0605
▁Youtube	-11.0605
▁tohtori	-11.0605
▁tarkoita	-11.0605
▁terassi	-11.0605
▁sängy	-11.0605
▁Vegas	-11.0606
▁sähköpostitse	-11.0607
▁2001	-11.0609
▁päiväkoti	-11.061
▁misella	-11.0617
▁luontee	-11.0622
▁tarkastukse	-11.0625
▁utunee	-11.0627
▁Pyri	-11.0633
▁kauppakesku	-11.0633
▁pidety	-11.0634
▁harjoitell	-11.0651
▁linki	-11.0663
▁yleisty	-11.0665
tarkastaja	-11.0676
toimittaja	-11.0676
н	-11.0679
▁Räsänen	-11.0679
▁alkupuolella	-11.0679
▁täyssähkö	-11.0679
▁enimmä	-11.0679
▁tiloihin	-11.0679
▁Hämeen	-11.068
▁johdossa	-11.068
▁Charlesi	-11.068
▁kaupasta	-11.068
▁operoi	-11.068
▁olympiakomitea	-11.0681
▁kuori	-11.0683
▁varhais	-11.0683
▁vakuutus	-11.0683
▁blogi	-11.0686
▁ilmenee	-11.0686
▁varoj	-11.0687
neuv	-11.0688
▁marssi	-11.0688
▁osapuoli	-11.0691
▁mahdollis	-11.0692
▁jäseniä	-11.0693
▁vuosikymmene	-11.0701
▁käteen	-11.0705
▁järjestämä	-11.071
▁ruotsalai	-11.0712
▁81	-11.0713
▁vakuutti	-11.0718
▁aiheuttami	-11.0722
▁keskeinen	-11.0723
suhde	-11.0738
▁Lähte	-11.0743
▁Minnesota	-11.0754
▁München	-11.0754
▁albumi	-11.0754
▁intohimo	-11.0754
▁kaupungill	-11.0754
▁Veitola	-11.0754
▁auttoi	-11.0754
▁raportti	-11.0754
▁myöten	-11.0754
▁Sauber	-11.0754
▁hyökät	-11.0754
▁kuntosali	-11.0754
▁kielte	-11.0754
▁2-3	-11.0754
▁maaleja	-11.0754
▁kärkeen	-11.0755
▁sohva	-11.0757
▁hälytys	-11.0758
▁lenki	-11.0758
▁väisty	-11.0759
▁kaltaise	-11.0759
yökkä	-11.0763
▁säilyttää	-11.0764
▁pohjoisessa	-11.0771
▁odotuksi	-11.0772
▁78	-11.0774
▁pienemmä	-11.0787
▁maisemi	-11.0815
▁raiskaukse	-11.0819
kappale	-11.0827
▁iltapäivä	-11.0828
valiokunta	-11.0829
е	-11.0829
▁Adlercreutz	-11.0829
▁Ravintola	-11.0829
▁veteraani	-11.0829
▁Bottakse	-11.083
▁Wood	-11.083
▁konkari	-11.0831
Vantaa	-11.0832
▁retke	-11.0833
▁virkamies	-11.0833
▁pöly	-11.0834
▁Väit	-11.0837
▁Olga	-11.0838
▁helpottaa	-11.0841
▁kyseenalaista	-11.0844
▁kolmante	-11.0844
tiimi	-11.0847
▁hälytykse	-11.0848
▁Puhu	-11.0849
▁ranka	-11.0853
▁ilmoittama	-11.086
▁töistä	-11.0862
▁olennai	-11.0862
▁kilpaili	-11.0862
▁tiukast	-11.0868
▁ladu	-11.0876
▁lähemmä	-11.0877
▁President	-11.0888
▁liikunna	-11.0889
tävissä	-11.0892
>	-11.0905
и	-11.0905
▁hyppäsi	-11.0905
▁resepti	-11.0905
▁TTK	-11.0905
▁jäätelö	-11.0905
▁Perniö	-11.0905
▁rengas	-11.0905
▁Saudi	-11.0905
▁kaikessa	-11.0906
▁päättäji	-11.0906
▁kipeä	-11.0907
▁osallistumise	-11.0909
▁perusteltu	-11.091
▁Vaara	-11.091
▁Aasia	-11.0911
▁hautajais	-11.0919
▁seurakunta	-11.0923
▁Cam	-11.0923
▁syntymä	-11.0924
▁lennokki	-11.0929
▁arvokisa	-11.0931
▁hovioikeude	-11.0938
▁lakkoj	-11.0945
▁kulunee	-11.0946
▁Soini	-11.0955
▁Kotka	-11.0962
▁infektio	-11.0981
▁unohtu	-11.0981
▁Tiedän	-11.0981
▁Palvelu	-11.0981
▁päihde	-11.0981
▁seikkailu	-11.0981
▁uhrei	-11.0981
▁palvele	-11.0981
▁Grand	-11.0981
▁Tähkä	-11.0982
▁häpeä	-11.0982
▁Kirjoit	-11.0982
▁naiselle	-11.0983
▁klassikko	-11.0983
▁joukkueelle	-11.0985
▁nouse	-11.0991
▁suunnitella	-11.0992
▁tapahtumapaika	-11.0992
▁valmentaji	-11.0995
▁puolust	-11.0996
▁arkisto	-11.0996
▁Henna	-11.0998
▁ruudu	-11.0999
▁saatavuu	-11.0999
▁suorite	-11.1001
▁pidätettiin	-11.1003
▁Katsomo	-11.1009
konserni	-11.1012
▁henkisest	-11.1016
▁kannattava	-11.1034
▁vaihtele	-11.1035
▁aiemmi	-11.1052
päivityksessään	-11.1056
utistoimisto	-11.1057
▁Kreml	-11.1057
▁Viaplay	-11.1058
▁Beiruti	-11.1058
▁Järjestö	-11.1058
▁Ongelma	-11.1058
▁Pohjola	-11.1058
▁osapuole	-11.1058
▁tulehdus	-11.1058
▁tallentui	-11.1058
▁juliste	-11.1059
▁Amaz	-11.1059
▁lausunnossaan	-11.1059
▁kokoukseen	-11.1059
borg	-11.106
▁Golf	-11.106
▁kotimaise	-11.1061
▁vaihtelu	-11.1062
▁Leyen	-11.1062
▁ohjuksia	-11.1069
▁virheitä	-11.1072
▁tarvittava	-11.1075
▁logo	-11.1077
▁havainn	-11.1078
▁valmistettu	-11.1098
▁edullise	-11.1124
▁vastauksi	-11.1135
▁Tshekki	-11.1136
▁politiikasta	-11.1136
▁Moottori	-11.1136
▁vankeutta	-11.1136
▁näytelmä	-11.1136
▁Vilén	-11.1136
▁työkalu	-11.1136
▁hinnoi	-11.1137
Espoo	-11.1138
▁hallitsi	-11.1138
▁Keske	-11.1139
▁Island	-11.1142
▁pouta	-11.1144
▁käsittelyyn	-11.1146
▁veteen	-11.1153
▁pello	-11.116
▁ttomi	-11.1173
▁Linna	-11.1181
▁mahdollisuuksi	-11.1181
▁globaali	-11.1214
▁välityksellä	-11.1214
▁terveydell	-11.1214
▁uskomattoma	-11.1214
▁rakennuksi	-11.1214
▁Kolmas	-11.1214
▁tempu	-11.1215
▁matkoj	-11.1215
▁indeksi	-11.1215
▁lääketietee	-11.1216
▁Jouko	-11.1216
▁tärkeintä	-11.1216
Ä	-11.1216
▁surkea	-11.1216
kierrokse	-11.1217
▁isuudesta	-11.1217
▁jälkeise	-11.1217
▁voittomaali	-11.1218
▁Lidl	-11.1218
▁yksittäise	-11.1219
▁viikkoj	-11.1224
▁arkea	-11.1224
yksellä	-11.1234
▁VR	-11.1238
▁äänestet	-11.1239
▁tervetull	-11.1245
itsenäisyyspäivä	-11.1247
▁Aluks	-11.1255
▁Arvio	-11.1279
▁Scholz	-11.1293
▁Ahvenanmaa	-11.1293
▁Niklas	-11.1293
▁skenaario	-11.1293
▁remonti	-11.1293
▁opiskele	-11.1293
▁kunnosta	-11.1294
▁kuulostaa	-11.1295
▁Norris	-11.1296
▁seuroi	-11.1297
▁mutka	-11.1304
▁Lähteet	-11.1304
▁toimenpiteitä	-11.1305
▁Markkase	-11.1311
▁väitteet	-11.1314
▁Miami	-11.133
▁kerho	-11.1332
▁ottava	-11.1341
▁korosta	-11.1347
▁olympiakulta	-11.1349
▁näkyvyy	-11.1355
▁toimenpitei	-11.1359
▁kattava	-11.1364
▁1998	-11.1372
▁kommentit	-11.1372
▁hetkessä	-11.1372
▁tuomitse	-11.1372
▁hetkeä	-11.1372
▁toimesta	-11.1372
▁South	-11.1373
▁täytyi	-11.1376
▁uinti	-11.1376
▁pettä	-11.1377
▁isemma	-11.138
▁Valkea	-11.1386
▁kiireell	-11.1388
▁murhe	-11.1389
▁Kerro	-11.1399
▁pahimmi	-11.1403
▁eläkkei	-11.1408
kenenkään	-11.1414
▁tapaamis	-11.1415
▁alkukaude	-11.1426
▁sauma	-11.1426
▁päivitett	-11.1428
▁Kysymy	-11.143
▁minuut	-11.1435
▁maakunna	-11.1435
▁Elisabet	-11.1452
▁diplomaatti	-11.1452
▁pettymyks	-11.1452
▁ABC	-11.1452
▁maailmanlaajui	-11.1452
▁traagi	-11.1452
▁Ogier	-11.1452
▁kiihdyt	-11.1452
▁täsmä	-11.1452
▁kihla	-11.1453
▁soitto	-11.1453
▁eläkeläis	-11.1455
▁vihollis	-11.1456
▁jakautu	-11.1457
▁ohjelmisto	-11.1459
▁istunto	-11.1459
▁4-1	-11.1459
▁väitetään	-11.146
▁asiakirja	-11.1461
▁saaristo	-11.1461
▁miettimään	-11.1462
▁useammin	-11.1466
▁Asunto	-11.1467
▁avaukse	-11.1469
▁Ruotsalai	-11.1475
▁ohjaama	-11.1475
▁ME	-11.1476
slav	-11.1506
▁osallistuji	-11.1507
Kapanen	-11.1508
▁yleisest	-11.1514
neuvottelut	-11.1515
▁Hanne	-11.1516
järvi	-11.1521
back	-11.1521
▁Alkoholi	-11.1533
▁Matthew	-11.1533
▁1994	-11.1533
▁HPK	-11.1533
▁Lappeenranna	-11.1533
▁siirro	-11.1533
▁Arsenal	-11.1533
▁Yhdessä	-11.1533
▁hylkäsi	-11.1533
▁Orban	-11.1533
▁ennalta	-11.1534
▁huippukokoukse	-11.1535
▁parisuhde	-11.1535
▁renno	-11.1536
▁Oksa	-11.1537
▁lentoasema	-11.1538
▁mielipiteitä	-11.1541
▁Nordmo	-11.1547
▁loppuottelu	-11.1548
▁Täyty	-11.155
▁Post	-11.1551
▁vaarallisi	-11.1554
▁hakemus	-11.1557
pohja	-11.156
▁tumise	-11.1562
▁mitattu	-11.1564
▁kiello	-11.1565
▁lukijoi	-11.1566
▁oikeut	-11.1568
▁laajalt	-11.1576
▁tarvinn	-11.1587
▁luonnoll	-11.1605
▁israelilais	-11.1614
▁kategoria	-11.1614
▁kaupungista	-11.1614
▁löytö	-11.1614
▁ykkönen	-11.1614
▁ympäröi	-11.1614
▁maastopalo	-11.1614
▁lohdu	-11.1614
▁lämpimi	-11.1614
▁sensaatio	-11.1614
▁pizza	-11.1614
▁täsmen	-11.1614
▁vastoin	-11.1615
▁syöttöpiste	-11.1615
▁Baltia	-11.1615
▁sijainti	-11.1615
▁varmuude	-11.1615
▁Lundell	-11.1616
▁Tilantee	-11.1617
▁Andrew	-11.1618
▁merkitse	-11.1618
▁Ääne	-11.1619
▁turvapaikka	-11.1619
▁aallo	-11.1621
▁Bill	-11.1629
▁Michel	-11.1631
▁Land	-11.1636
▁kulutukse	-11.1659
▁sallittu	-11.1674
demokraatit	-11.1696
▁Argentiina	-11.1696
▁Johaug	-11.1696
▁Musiikki	-11.1696
▁Rakennus	-11.1696
▁Republikaani	-11.1696
▁kruuna	-11.1696
▁onnettomuuksi	-11.1696
▁positiivinen	-11.1696
▁toimenpitee	-11.1696
▁psykiatri	-11.1696
▁hetkeksi	-11.1696
▁internet	-11.1696
▁Farmi	-11.1696
▁kengä	-11.1696
▁itselleni	-11.1696
▁Jakso	-11.1697
▁sotilaalli	-11.1697
▁huuli	-11.1697
▁karmea	-11.1699
▁Eeva	-11.1699
▁takuu	-11.1699
▁tulevaisuus	-11.1701
ruoka	-11.1703
▁digi	-11.1706
▁pisteeseen	-11.1706
▁nahka	-11.1712
virta	-11.1713
▁koitu	-11.1714
▁oikei	-11.1719
▁päivitys	-11.1725
▁valhe	-11.1732
▁Tarjo	-11.1751
▁päättynee	-11.1754
▁pannu	-11.1756
▁kokonaisuute	-11.1759
liikenteen	-11.1767
▁Nashville	-11.1779
▁Neuville	-11.1779
▁ainutlaatui	-11.1779
▁pöydän	-11.1779
▁2027	-11.1779
▁Peskov	-11.1779
▁omaisuutta	-11.1779
▁romahti	-11.1779
▁keskeytti	-11.1779
▁maksetaan	-11.1779
▁korkeus	-11.1779
▁Hollanti	-11.1779
▁jakama	-11.1779
▁maksimi	-11.178
▁Bild	-11.178
▁uimahalli	-11.1781
▁ajokeli	-11.1782
▁valmiina	-11.1785
▁startti	-11.1785
▁Tänak	-11.1785
▁ilmoitettu	-11.1786
▁pidettävä	-11.1786
häiriö	-11.1786
kuitu	-11.1791
▁veljensä	-11.1791
kaapeli	-11.1803
Liisa	-11.1819
▁jättämää	-11.1837
▁Tavall	-11.1839
kuljettaja	-11.1839
nimise	-11.184
▁järjestys	-11.1845
▁toivottava	-11.185
turvallisuudesta	-11.1851
▁Juontaja	-11.1862
▁entuudestaan	-11.1862
▁rikosepäily	-11.1862
▁Kolehmai	-11.1862
▁harrastukse	-11.1862
▁risteily	-11.1862
▁SVT	-11.1862
▁viihdy	-11.1862
▁ellise	-11.1862
▁Ääri	-11.1862
▁ytime	-11.1862
▁1,7	-11.1862
▁Perinte	-11.1863
▁muuhun	-11.1863
▁kelpaa	-11.1863
▁pakettiauto	-11.1864
qui	-11.1867
lähtö	-11.187
▁tarkemp	-11.1871
▁Reijo	-11.1871
▁Team	-11.1879
▁moottoritie	-11.188
▁avoimi	-11.1888
▁keskeise	-11.1898
▁miehell	-11.19
tuntunut	-11.1904
▁uhkaava	-11.1911
▁puheenjohtaj	-11.1912
▁runo	-11.1922
▁Sirp	-11.1924
▁fyysisest	-11.1926
▁Angel	-11.194
rosenttiyksikköä	-11.1946
yrkkeilijä	-11.1946
▁BMW	-11.1946
▁ISTV	-11.1946
▁Kyllönen	-11.1946
▁Philadelphia	-11.1946
▁Volkswagen	-11.1946
▁liikevaihto	-11.1946
▁odotettavissa	-11.1946
▁prikaati	-11.1946
▁Piikkiö	-11.1946
▁finaalei	-11.1946
▁hylättiin	-11.1946
▁Teatteri	-11.1946
▁leikkauksen	-11.1946
▁Puhaka	-11.1946
▁Kosonen	-11.1946
▁kotimaassa	-11.1947
▁rautatie	-11.1949
▁Vastaava	-11.1951
▁Halusi	-11.1957
vaimo	-11.1963
▁Kohta	-11.1965
▁edull	-11.197
▁korkeamma	-11.197
▁alenta	-11.1971
▁äkilli	-11.1977
▁kuivu	-11.1982
sopimus	-11.1989
▁päättymise	-11.1995
▁tuomioistui	-11.2
▁omaisuude	-11.2014
▁runko	-11.2017
ó	-11.2031
▁Hurrikaani	-11.2031
▁Kroatia	-11.2031
▁harvinainen	-11.2031
▁loppupuolella	-11.2031
▁riskejä	-11.2031
▁Jungner	-11.2031
▁tapahtuva	-11.2031
▁keuhko	-11.2031
▁henkirikos	-11.2031
▁lämpene	-11.2031
▁Apple	-11.2031
▁kapinallis	-11.2031
▁tyytyväisi	-11.2031
▁uupu	-11.2032
▁Luonno	-11.2032
▁Worl	-11.2033
▁terveyte	-11.2033
▁pakeni	-11.2034
▁eurovaali	-11.2034
▁Jouni	-11.2036
▁valtakunnan	-11.2036
▁valitukse	-11.2037
▁Nordea	-11.2039
▁kokonaisuus	-11.204
▁79	-11.2047
▁hankinna	-11.2047
▁Rauma	-11.2049
▁Enso	-11.2052
▁leiki	-11.2053
▁hiljaise	-11.2057
▁miehittä	-11.2057
rannan	-11.2061
▁yhdeks	-11.209
▁edeltävä	-11.2109
▁luistelu	-11.2116
▁päihty	-11.2116
▁inhimilli	-11.2116
▁pudonnut	-11.2116
▁Tammikuu	-11.2116
▁Black	-11.2116
▁perehty	-11.2116
▁1,8	-11.2117
▁aukea	-11.2117
▁kynnykse	-11.2117
▁Noora	-11.2118
▁Kymmene	-11.2118
▁kuninkaan	-11.2119
▁kevyt	-11.2119
▁luultav	-11.212
▁näyttäyty	-11.2121
▁kolmasosa	-11.2122
▁Krimi	-11.2122
▁tienasi	-11.2123
▁ateria	-11.2124
▁Tyttö	-11.2124
▁raiva	-11.2125
▁rangaist	-11.2131
▁panna	-11.214
▁87	-11.2141
▁korkeinta	-11.2157
▁pomp	-11.2164
politiikan	-11.2192
▁sabotaasi	-11.2202
▁venäläinen	-11.2202
▁juhannukse	-11.2202
▁yöpäivysty	-11.2202
▁ikkunoi	-11.2202
▁Kuusela	-11.2202
▁ulkopuolelta	-11.2202
▁Elokuu	-11.2202
▁julisti	-11.2203
skele	-11.2203
▁totuus	-11.2203
▁Hieno	-11.2207
▁turkulai	-11.2207
▁seuroj	-11.2208
▁taloyhtiö	-11.2209
pyörä	-11.2213
▁kunnallis	-11.2215
▁voimakkai	-11.2236
▁tiedustel	-11.2239
▁myrky	-11.2239
▁yllätykse	-11.2255
▁tiettyj	-11.2262
▁Oululai	-11.2279
▁noudat	-11.2282
▁etsintä	-11.2286
▁Egypti	-11.2289
▁alkuviiko	-11.2289
▁remontoi	-11.2289
▁suorituksi	-11.2289
▁systeemi	-11.2289
▁tehtävistä	-11.2289
▁Yhteensä	-11.2289
▁digitaali	-11.2289
▁samankaltai	-11.2289
▁Vikman	-11.2289
▁Rasmus	-11.2289
▁kuunnella	-11.229
▁bisnes	-11.229
▁oikeudenmukai	-11.229
▁Obama	-11.229
▁Finaali	-11.229
▁paljoa	-11.229
▁kaksinkertai	-11.229
▁perintö	-11.229
▁fanei	-11.229
▁sairaaloi	-11.229
▁avioliitto	-11.2291
▁pysäköinti	-11.2292
▁sisäpiiri	-11.2292
▁tehokkaasti	-11.2293
▁uskomaton	-11.2299
▁aktivisti	-11.2299
▁muuttunee	-11.2302
immillään	-11.2302
▁jäsenmai	-11.2306
▁haukku	-11.2312
▁0-1	-11.232
▁järkyttä	-11.2323
▁huollo	-11.2333
▁yhdysvaltalai	-11.237
▁Vilj	-11.2374
▁nettisivu	-11.2377
▁Hradecky	-11.2377
▁Todennäkö	-11.2377
▁Valkeakoske	-11.2377
▁mielenosoittaji	-11.2377
▁pudotuspeleissä	-11.2377
▁ymmärsi	-11.2377
▁matkusti	-11.2377
▁pysähdy	-11.2377
marginaali	-11.2377
▁taktiik	-11.2377
▁protesti	-11.2377
▁käytety	-11.2377
▁Valitettava	-11.2378
▁huomata	-11.2379
▁palomestari	-11.2379
▁herkull	-11.2383
▁tosissaan	-11.2383
▁kohtelu	-11.2383
▁kohtaukse	-11.2385
▁Fico	-11.2388
▁Lund	-11.2389
yleisö	-11.239
▁helpompi	-11.2392
vastuu	-11.2396
▁Muutos	-11.2398
▁Laaj	-11.2404
▁Erikois	-11.2411
▁91	-11.2416
▁päiväsak	-11.2422
▁sellaisi	-11.2457
▁Riihi	-11.2461
▁Canadiens	-11.2465
▁Duplantis	-11.2465
▁Penguins	-11.2465
▁Pennsylvania	-11.2465
▁hurrikaani	-11.2465
▁räppäri	-11.2465
▁skandaali	-11.2465
▁tragedia	-11.2465
▁Jackson	-11.2465
▁humanitaar	-11.2465
▁siirry	-11.2465
▁elimistö	-11.2466
▁Porvoo	-11.2466
▁Lukija	-11.2466
▁tilaisuuteen	-11.2467
▁Kontio	-11.2469
▁poliisilaitos	-11.247
▁huusi	-11.247
▁kunnanjohtaja	-11.247
▁ponnist	-11.2474
▁sotilaat	-11.2477
puoliso	-11.248
▁edetä	-11.2487
▁naama	-11.2495
laitokse	-11.2509
▁tatuoi	-11.2525
▁uhkaukse	-11.253
parlamentaarik	-11.2538
▁Lähtö	-11.2555
▁onnettomuudesta	-11.2555
▁niukasti	-11.2555
▁ymmärrettävä	-11.2555
▁Dokument	-11.2555
▁avaruus	-11.2555
▁edisty	-11.2555
▁Viktor	-11.2555
▁Dmitr	-11.2555
▁ajatellut	-11.2555
▁asevoimat	-11.2555
▁Tapani	-11.2555
▁Juhla	-11.2556
▁liuku	-11.2556
▁halunnee	-11.2556
▁valtioneuvosto	-11.2558
▁joukkueesta	-11.2559
▁Urs	-11.2561
▁Raahe	-11.2564
▁häiriöitä	-11.2565
kkäästi	-11.2567
Satonen	-11.2567
▁maatalou	-11.2569
▁kruununprins	-11.257
muoto	-11.2571
▁päätell	-11.2574
▁laadukkaa	-11.259
▁Gall	-11.2606
▁ravinto	-11.2616
▁syvyy	-11.2643
▁puheenaihe	-11.2645
▁liikenteeseen	-11.2645
▁NRK	-11.2645
▁sosiaaliturva	-11.2645
▁tulitauko	-11.2645
▁syytöksi	-11.2645
▁terapia	-11.2645
▁Brother	-11.2645
▁trauma	-11.2645
▁päihte	-11.2645
▁Keränen	-11.2646
▁arkeen	-11.2646
▁tuomarei	-11.2646
▁1,2	-11.2646
▁etäisyy	-11.2647
▁aviomiehe	-11.2647
▁Veera	-11.2648
▁pakene	-11.2648
▁hehkuttaa	-11.2651
▁aineisto	-11.2654
julkaisu	-11.266
▁halutessa	-11.2664
▁valmistaji	-11.2665
▁asento	-11.2665
▁sijoitukse	-11.2671
asunto	-11.2676
▁lähtenee	-11.2678
▁mauste	-11.2687
▁kiell	-11.2733
▁Onnettomuude	-11.2736
ø	-11.2736
▁Karlsson	-11.2736
▁innoissaan	-11.2736
▁kriteeri	-11.2736
▁neuvonantaja	-11.2736
▁Haastattelu	-11.2736
▁teoria	-11.2736
▁Jordan	-11.2736
▁rajoja	-11.2736
▁avauserä	-11.2736
▁Zuma	-11.2736
▁Walesi	-11.2736
▁tekniika	-11.2739
▁sentteri	-11.274
ehdokkuude	-11.2742
▁hallituspuolue	-11.2742
▁yhdistetty	-11.2743
▁helpompaa	-11.2743
▁nopeutta	-11.2743
▁Forss	-11.2744
▁valloit	-11.2752
▁syrji	-11.2769
▁ensisijaise	-11.2771
▁tilapäis	-11.2779
▁yritetä	-11.2792
▁yksinkertaise	-11.2813
▁pysäköi	-11.2825
▁Toukokuu	-11.2827
▁Kiinteistö	-11.2828
▁Rääkkylä	-11.2828
ympärivuorokauti	-11.2828
▁Yleisurheilu	-11.2828
▁Sirviö	-11.2828
▁jälkimmäi	-11.2828
▁Olympiastadioni	-11.2828
▁kirjoitetaan	-11.2828
▁ulkomaille	-11.2828
▁Hurske	-11.2828
▁Ilmoit	-11.2828
▁Lindén	-11.2828
▁tarkoittaisi	-11.2828
kaappaus	-11.2828
▁lounas	-11.2828
▁Salmela	-11.2829
▁Aihe	-11.283
▁nousema	-11.2833
▁Kenia	-11.2842
▁väären	-11.2844
▁karkot	-11.2855
▁selost	-11.2863
▁periaatte	-11.2868
▁samoj	-11.2873
▁ihmettele	-11.2898
▁Salmise	-11.2901
▁Hockey	-11.292
▁Onlyfans	-11.292
▁Savonlinna	-11.292
▁Syyskuu	-11.292
▁englanniksi	-11.292
▁kapasiteetti	-11.292
▁rekrytoi	-11.292
▁resurssi	-11.292
▁sukupolvi	-11.292
▁ulkomailta	-11.292
▁Rkp	-11.292
▁ideolog	-11.292
▁Tikkanen	-11.292
▁puhelimitse	-11.2921
▁Nelose	-11.2921
▁virtsa	-11.2922
▁väkisin	-11.2924
▁suunnist	-11.2924
▁tutkinnassa	-11.2925
▁suurimmista	-11.2925
▁sakot	-11.2926
▁jännittävä	-11.2927
Connor	-11.2929
▁romaani	-11.2932
▁opettaji	-11.2934
tapahtuma	-11.2938
jäsenyyden	-11.2941
▁opetukse	-11.2943
▁käyttänee	-11.2968
blog	-11.2981
▁Bess	-11.2983
▁haltuun	-11.3003
▁Brygg	-11.3014
▁kotikentällä	-11.3014
▁löydä	-11.3014
▁IFK	-11.3014
▁Taiwani	-11.3014
▁meneillään	-11.3014
▁Kajaani	-11.3014
▁ankkuri	-11.3014
▁toimeentulo	-11.3015
▁ansiotulo	-11.3016
▁Määrä	-11.3016
▁vyöry	-11.3017
▁selostaja	-11.3018
▁Korona	-11.3019
▁tyydy	-11.3019
▁koeajo	-11.302
▁muistuttava	-11.3021
▁painu	-11.3023
▁samanlaise	-11.3032
▁paikkoj	-11.3033
▁ilijoi	-11.3041
▁Temp	-11.3042
▁rintee	-11.3051
▁porno	-11.3053
▁vanno	-11.3053
▁ranniko	-11.3054
▁isimma	-11.3063
ikäisiä	-11.3085
▁toimijoi	-11.3085
▁sähköautoj	-11.3092
▁myöhästy	-11.3108
valiokunnassa	-11.3108
▁1996	-11.3108
▁Seitsemä	-11.3108
▁kristillis	-11.3108
▁toimenpide	-11.3108
▁Epäilly	-11.3108
▁treene	-11.3108
▁vankeustuomio	-11.3108
▁hiljen	-11.3108
▁sekaisin	-11.3108
▁johtanee	-11.3108
▁unohd	-11.3108
▁nälkä	-11.3109
▁toisiinsa	-11.3109
▁nauru	-11.3109
▁autoilijoi	-11.311
▁suositella	-11.311
▁liittouma	-11.311
▁Ojala	-11.3112
▁luvut	-11.3118
laulu	-11.313
tyyli	-11.3141
▁Tass	-11.3155
▁kiusaamis	-11.3158
umb	-11.3167
▁Euroviisuj	-11.3178
▁kansalaisuu	-11.3182
hyppääjä	-11.3197
rikosilmoituksen	-11.3203
▁Heinäkuu	-11.3203
▁Helmikuu	-11.3203
▁Silvennoinen	-11.3203
▁Vancouver	-11.3203
▁identiteetti	-11.3203
▁linjoilla	-11.3203
▁Rafahi	-11.3203
▁vaaleihin	-11.3203
▁AHL	-11.3203
▁auttanut	-11.3205
▁hoidetaan	-11.3206
▁käsky	-11.3206
▁uudenvuoden	-11.3206
▁mielui	-11.3209
▁Evans	-11.321
▁viranomai	-11.3216
▁muoka	-11.3217
uutis	-11.3222
materiaali	-11.3223
▁ihmeelli	-11.3224
▁erillise	-11.3225
▁Tarvit	-11.3236
▁kysymyksi	-11.3243
▁kaavail	-11.3248
▁Kokonais	-11.328
▁Vahv	-11.3282
▁Petr	-11.3284
▁opiskeli	-11.3285
▁finaalisarja	-11.3288
▁näkemä	-11.329
▁valitsema	-11.3292
▁Mielenosoit	-11.3299
▁katumaasturi	-11.3299
▁myöhässä	-11.3299
▁sarjoissa	-11.3299
▁Korisliiga	-11.3299
▁WRC	-11.3299
▁räjähtä	-11.3299
▁liittovaltio	-11.3299
▁sääntely	-11.33
▁kollego	-11.33
▁ahtaa	-11.33
▁Danny	-11.33
▁ylöspäin	-11.33
▁Puolustusvoima	-11.3301
▁vaikutusvalta	-11.3302
▁vaalipiiri	-11.3304
▁alaisuudessa	-11.3305
▁yhteiskuva	-11.3306
▁Vapaa	-11.3307
▁Lewi	-11.3308
▁taustoi	-11.3309
▁nöyr	-11.3312
▁tyttöj	-11.3313
▁ominais	-11.3316
▁näkevä	-11.3318
turnaus	-11.332
▁keskinäi	-11.3327
vamma	-11.3344
▁muokatt	-11.3383
▁pelannee	-11.3396
▁alleviiva	-11.3396
▁Blomqvist	-11.3396
▁Kastehelm	-11.3396
▁Urheilija	-11.3396
▁abortti	-11.3396
▁arkkiteht	-11.3396
▁naureskel	-11.3396
▁tappelu	-11.3396
▁komissaari	-11.3396
▁olkapää	-11.3396
Huuhkajat	-11.3396
▁Serbia	-11.3396
▁soveltu	-11.3397
▁Perez	-11.3397
▁Sipilä	-11.3397
▁Tampa	-11.3397
▁viereen	-11.3398
▁terveydentila	-11.34
▁rutiini	-11.3401
▁esikois	-11.3401
▁kyllästy	-11.3412
▁Uima	-11.3414
▁poikkeukse	-11.3421
poika	-11.3427
75-	-11.3451
▁naisill	-11.3479
▁Tärkein	-11.3494
skusrikospoliisi	-11.3494
▁Blinken	-11.3494
▁Jersey	-11.3494
▁Marraskuu	-11.3494
▁Yleisradio	-11.3494
▁bensiini	-11.3494
▁debytoi	-11.3494
▁kaupungeissa	-11.3494
▁radikaali	-11.3494
▁silminnäkijä	-11.3494
▁spekulaatio	-11.3494
▁Mirror	-11.3494
▁perheenjäsen	-11.3494
▁paneeli	-11.3495
▁tunkeutu	-11.3495
▁terrorismi	-11.3495
▁Miehet	-11.3495
▁värvä	-11.3495
▁Hyvinvointialue	-11.3495
▁omistus	-11.3495
▁Aikuis	-11.3495
▁lounaa	-11.3495
▁formul	-11.3495
▁Anthon	-11.3495
▁biologi	-11.3496
▁rikoksia	-11.3498
▁huoneisto	-11.3502
kaupunki	-11.3512
maailma	-11.3516
hyppy	-11.3517
syöpä	-11.3517
▁lunast	-11.3525
▁taloudellisest	-11.3535
▁Jääkiek	-11.3574
▁McDavid	-11.3593
▁Tšeki	-11.3593
▁bakteeri	-11.3593
▁haavoittuv	-11.3593
▁kontakti	-11.3593
▁lääkärei	-11.3593
▁rauhanturva	-11.3593
▁tekstiviesti	-11.3593
▁Kulttuuri	-11.3593
▁tamperelai	-11.3593
▁edustajainhuone	-11.3593
▁rakkautta	-11.3593
▁nuorukai	-11.3593
▁suomeksi	-11.3594
▁synkkä	-11.3594
▁Joulukuu	-11.3594
▁vastaanotoll	-11.3594
musikaali	-11.3595
▁elinvoima	-11.3595
▁taipui	-11.3599
▁Väh	-11.36
▁10-1	-11.3607
▁tarjoukse	-11.3607
▁Janni	-11.362
▁yritett	-11.364
▁näköise	-11.365
▁tuotantokau	-11.3651
▁esimerki	-11.3665
▁katsottav	-11.367
▁askelee	-11.3683
т	-11.3693
▁Maaliskuu	-11.3693
▁Stoltenberg	-11.3693
▁divisioona	-11.3693
▁elektro	-11.3693
▁ennakkosuosikki	-11.3693
▁miljonääri	-11.3693
▁terveydenhuolto	-11.3693
▁ylioppilas	-11.3693
▁tulevaisuutta	-11.3693
▁fakta	-11.3693
▁laajemmin	-11.3693
▁Russell	-11.3693
▁Mäenpää	-11.3693
▁Harald	-11.3694
▁suunnille	-11.3694
▁Gnistan	-11.3694
▁silloise	-11.3694
ytär	-11.3694
▁jumala	-11.3695
▁Tulokse	-11.3695
▁nauha	-11.3695
▁Ikonen	-11.3697
▁uraansa	-11.3698
▁nelos	-11.3703
▁Huono	-11.3705
▁Kerava	-11.3706
▁tilaisuut	-11.3707
stedt	-11.3713
▁geo	-11.3715
▁tapet	-11.3716
harjoit	-11.3718
▁eräänlai	-11.3729
liikkeen	-11.3745
▁söi	-11.3753
salmi	-11.3769
kaupunginjohtaja	-11.3779
▁1997	-11.3794
▁America	-11.3794
▁päinvastoin	-11.3794
▁salamurha	-11.3794
luutnantti	-11.3794
ž	-11.3794
▁paikallinen	-11.3794
▁Atlanti	-11.3794
▁kauneus	-11.3794
▁heijastu	-11.3794
▁vaikuttamaan	-11.3795
▁Yhtye	-11.3795
▁Kahvi	-11.3795
▁kukisti	-11.3795
▁drone	-11.3795
▁ahdista	-11.3797
▁futis	-11.3799
▁Rakasta	-11.3799
▁retki	-11.3799
▁näkemyksiä	-11.3799
▁muualta	-11.3799
▁vaikuttanee	-11.3804
▁vahvoj	-11.381
▁luvui	-11.3817
▁kritiikki	-11.3822
▁linnu	-11.3831
▁Eloran	-11.3841
▁käänny	-11.3848
▁kuullee	-11.3863
▁lopettamise	-11.3874
▁Eerik	-11.3885
р	-11.3896
▁Häkkäse	-11.3896
▁Kuljettaja	-11.3896
▁Lämsä	-11.3896
▁Ratkaisu	-11.3896
▁korruptio	-11.3896
▁ravitsemus	-11.3896
▁NBC	-11.3896
▁kokaiini	-11.3896
▁mobiili	-11.3896
▁Pyörä	-11.3896
▁lähistöllä	-11.3896
▁vallitse	-11.3897
▁Pakarinen	-11.3897
▁käytettävissä	-11.3897
▁Hotelli	-11.3897
▁Vakio	-11.3897
▁täytti	-11.3897
▁yllättävi	-11.3898
▁isyyttä	-11.3903
▁huoneeseen	-11.3904
▁aalto	-11.3905
luokk	-11.3916
▁Kumpik	-11.3922
▁Yritykse	-11.3925
▁Näe	-11.3945
▁kohtuullise	-11.3957
▁upot	-11.3959
ikoni	-11.3961
▁verotukse	-11.3994
▁Katariina	-11.4
▁Leverkusen	-11.4
▁Orbán	-11.4
▁Terveyden	-11.4
▁haavoittui	-11.4
▁poliiseja	-11.4
▁talouskasvu	-11.4
▁uhreja	-11.4
▁fiksu	-11.4
▁rattijuopumukse	-11.4
▁tykistö	-11.4
▁flunssa	-11.4
▁varhaiskasvatu	-11.4
▁monimuotoisuu	-11.4
▁Matintalo	-11.4
▁myynnistä	-11.4
▁omistukse	-11.4
▁roikku	-11.4
hormoni	-11.4
▁Lämpötila	-11.4001
▁vaatimuksia	-11.4001
▁Avaus	-11.4002
▁Tehtävä	-11.4002
▁semmoi	-11.4004
▁ideoi	-11.4004
▁Mestikse	-11.4004
▁itseäni	-11.4005
▁Kuiva	-11.401
▁pelto	-11.4014
▁kuljetukse	-11.403
▁ystävälli	-11.4039
tömästi	-11.4039
▁Lauantai	-11.4052
▁paikkakunn	-11.406
▁brittiläi	-11.406
▁Filip	-11.4064
▁Tapahtu	-11.407
osiossa	-11.4095
▁sanotust	-11.4103
▁psyko	-11.4103
▁Gabriel	-11.4104
▁Ruusuvuor	-11.4104
▁sisustus	-11.4104
▁Twitter	-11.4104
▁nikotiini	-11.4104
▁pykälä	-11.4104
▁ryhdy	-11.4104
▁maisteri	-11.4104
▁käsitelty	-11.4104
▁Ennakko	-11.4104
▁Jalosen	-11.4104
▁Haukio	-11.4104
▁päättäjä	-11.4104
▁kokeilema	-11.4107
▁puhdas	-11.4113
▁kemia	-11.4114
uduttiin	-11.4119
▁Väis	-11.4122
ottelija	-11.4122
terveys	-11.4132
Z	-11.4132
▁Aleks	-11.4143
▁1,9	-11.4145
huollon	-11.416
▁tasoitt	-11.4183
▁vasemmistoliit	-11.4188
▁Buffalo	-11.4209
▁Energia	-11.4209
▁Heliövaara	-11.4209
▁hehtaari	-11.4209
▁iloitsee	-11.4209
▁jäljiltä	-11.4209
▁yhteyteen	-11.4209
▁jälkikäteen	-11.4209
▁Cruz	-11.4209
▁kolumni	-11.4209
▁maailmanennäty	-11.4209
▁näyttämö	-11.4209
▁vedessä	-11.4209
▁Archie	-11.4209
▁keihäs	-11.421
▁keskuksi	-11.421
▁tuomitu	-11.421
laakso	-11.4212
▁Linnea	-11.4212
▁levinnyt	-11.4212
▁seitsemänne	-11.4215
▁Liitto	-11.4217
▁Brand	-11.4224
▁korotukse	-11.4234
Marit	-11.4248
▁Isis	-11.4249
tömyys	-11.4287
▁europarlament	-11.4298
▁pyyhki	-11.4315
▁Chelsea	-11.4315
▁Volley	-11.4315
▁prosenttiyksikö	-11.4315
▁päätöksellä	-11.4315
▁salamurhayrity	-11.4315
▁tarkoiteta	-11.4315
▁Junnila	-11.4315
▁semifinaali	-11.4315
▁piireissä	-11.4315
▁Imatra	-11.4315
▁paraati	-11.4316
▁vakuutusyhtiö	-11.4317
▁Yksityis	-11.4317
▁hämmentävä	-11.4317
▁sielu	-11.4318
▁teoksi	-11.4319
▁hiipu	-11.4319
▁hyttys	-11.432
▁lennä	-11.4321
▁Nicol	-11.4323
▁purist	-11.4325
.45	-11.4338
syyttäjä	-11.4347
▁mullist	-11.4359
▁mestaruude	-11.4385
▁tutkijoi	-11.4391
koodi	-11.4405
▁moottoripyörä	-11.4417
с	-11.4423
▁Detroit	-11.4423
▁Donetski	-11.4423
▁ajanjakso	-11.4423
▁Journal	-11.4423
▁euroviisu	-11.4423
▁tapahdu	-11.4423
▁tulehduks	-11.4423
▁nähtävissä	-11.4423
▁ennemmin	-11.4423
▁paniikki	-11.4423
▁vedestä	-11.4423
▁Ympäristö	-11.4423
▁Hautala	-11.4423
▁Ennuste	-11.4424
▁järkeä	-11.4424
▁hallinnan	-11.4424
▁väläyt	-11.4424
▁panokse	-11.4424
▁talousarvio	-11.4425
▁riippumattom	-11.4426
▁väitetyst	-11.4431
▁poliitikkoj	-11.4434
▁keikoi	-11.4435
▁asetukse	-11.4439
aktiivisuu	-11.4445
▁osallise	-11.4452
▁virkamiehe	-11.4452
edustaja	-11.4455
-16	-11.4465
▁rajoittam	-11.4468
rannikolla	-11.447
▁neuvotteluj	-11.4471
▁juoss	-11.4483
▁kokonaisuude	-11.4496
summa	-11.4515
▁Francis	-11.4532
▁Kazakstan	-11.4532
▁Lokakuu	-11.4532
▁aamuyöllä	-11.4532
▁luottamuksen	-11.4532
▁maahanmuuttaja	-11.4532
▁rangaistuspotku	-11.4532
▁Lepistö	-11.4532
▁Mestaruus	-11.4532
▁virheellisesti	-11.4532
▁jalkaväki	-11.4532
▁aselepo	-11.4532
▁Club	-11.4532
▁raskaus	-11.4532
▁vinkkaa	-11.4532
▁ahdistel	-11.4532
▁Play	-11.4533
▁leipo	-11.4533
▁allerg	-11.4533
▁Joshua	-11.4535
▁ajettav	-11.4538
Hjallis	-11.4544
▁suink	-11.4555
▁Kumma	-11.4556
▁asentee	-11.4577
▁Pelastus	-11.4603
▁sopimise	-11.4613
▁Perjantai	-11.4614
▁lähetyksi	-11.4619
▁historialli	-11.4628
▁molemmill	-11.4632
tiedotustilaisuu	-11.4639
▁pääsääntö	-11.4641
▁Huhtikuu	-11.4641
▁julkkis	-11.4641
▁kansanmurha	-11.4641
▁proteiini	-11.4641
■	-11.4641
▁Jylhä	-11.4641
▁Rajavartiolaito	-11.4641
▁todennäköisyyde	-11.4642
▁kenellekään	-11.4642
▁Heleniukse	-11.4642
▁kannusti	-11.4642
▁jyrkä	-11.4642
▁sairausloma	-11.4642
▁Näky	-11.4642
▁hypy	-11.4642
▁kynnys	-11.4642
▁%)	-11.4642
▁keitto	-11.4642
▁tosiasia	-11.4643
▁mahdott	-11.4643
▁Kisko	-11.4644
Benz	-11.4658
▁pyyd	-11.4681
▁vinkke	-11.4682
sarj	-11.4686
▁asenno	-11.4688
▁törmäykse	-11.4691
▁Vär	-11.4698
kaupunkiseudulla	-11.4699
jäsenyyttä	-11.4703
▁laittomast	-11.4712
▁toimintoj	-11.4728
▁ampumahiih	-11.4729
▁aggressiivis	-11.4742
▁purjehti	-11.4753
▁Kempelee	-11.4753
▁akatemia	-11.4753
▁gallupi	-11.4753
▁journalisti	-11.4753
▁maahanmuuto	-11.4753
▁mielenosoittaja	-11.4753
▁monimutkai	-11.4753
▁tulevaisuuteen	-11.4753
▁vaikutuksista	-11.4753
▁1993	-11.4753
▁FBI	-11.4753
▁kulissei	-11.4753
▁valintoja	-11.4753
▁Kläbo	-11.4753
▁klubi	-11.4753
▁Qatari	-11.4753
mmuskelu	-11.4753
▁1991	-11.4753
▁altistu	-11.4753
▁sisätilo	-11.4753
▁Viihde	-11.4753
▁1-3	-11.4753
▁1,6	-11.4753
▁3,5	-11.4754
▁kirkossa	-11.4754
▁moitti	-11.4755
▁pahimma	-11.4755
▁hylkää	-11.4756
▁kapea	-11.4759
jäsenyys	-11.4768
▁edelle	-11.478
▁avioliito	-11.4781
myrsky	-11.4789
▁menetykse	-11.4815
adiojuontaja	-11.4865
▁Akatemia	-11.4865
▁alapuolel	-11.4865
▁ilahdu	-11.4865
▁makuuhuonee	-11.4865
▁millimetri	-11.4865
▁motivaatio	-11.4865
▁panttivanki	-11.4865
▁rikosilmoitus	-11.4865
▁vaalikampanja	-11.4865
▁Madeleine	-11.4865
▁venäjä	-11.4865
▁erikoiskokee	-11.4865
▁talouteen	-11.4865
▁pikemmin	-11.4865
▁pieleen	-11.4865
▁Opetus	-11.4865
▁apuvalmentaja	-11.4865
▁sipuli	-11.4866
▁erityinen	-11.4866
▁herkkä	-11.4866
▁laukauksi	-11.4866
▁sivisty	-11.4867
▁annetu	-11.4868
▁ankara	-11.487
▁ranskalai	-11.4888
▁keskiviikkoilta	-11.4913
▁tärkeimmä	-11.4916
▁ryöst	-11.4972
▁Avalanche	-11.4979
▁Seagulls	-11.4979
▁kouluampumise	-11.4979
▁puhelimeen	-11.4979
▁räjähdykse	-11.4979
▁Bayern	-11.4979
▁kokemuksista	-11.4979
▁räjäyt	-11.4979
▁maaseudu	-11.4979
▁jatkoajalla	-11.4979
▁luettelee	-11.4979
▁Stefan	-11.4979
▁asiakirjoj	-11.4979
▁kustanta	-11.4979
▁sarjoj	-11.4979
▁Huomio	-11.498
▁annokse	-11.498
▁Sainz	-11.498
▁parkkipaika	-11.4981
kiellon	-11.4982
▁lykkä	-11.4982
▁Täysi	-11.4985
▁kokouksi	-11.4988
▁Lappalai	-11.4988
▁liiall	-11.4995
▁monenlaisi	-11.4998
▁ulkopolitiika	-11.5007
Q	-11.5017
juhla	-11.5019
▁ensimmäist	-11.502
▁puukotukse	-11.5022
▁mahdoton	-11.5044
▁maailmancup	-11.5047
▁kiinnostunei	-11.5049
▁Hav	-11.5059
▁tempa	-11.508
▁Ståhl	-11.5094
▁Myrsky	-11.5094
▁Pohjanpalo	-11.5094
▁Yhdysvalloil	-11.5094
▁havaitsi	-11.5094
▁helveti	-11.5094
▁kritiiki	-11.5094
▁salibandy	-11.5094
▁traktori	-11.5094
▁tukikohda	-11.5094
▁hollantilai	-11.5094
▁verisuoni	-11.5094
▁yksiselittei	-11.5094
ommenttikentässä	-11.5094
▁motivoi	-11.5094
▁itsemurha	-11.5094
▁Kuluttaja	-11.5094
▁ulkonäö	-11.5094
▁1960-	-11.5094
▁ennallaan	-11.5094
▁keskiössä	-11.5094
▁totuttu	-11.5094
▁Ivalo	-11.5095
▁isomma	-11.5096
▁Pimiä	-11.5097
.11.	-11.5097
▁keikkoj	-11.5098
▁räp	-11.5099
▁valaistu	-11.51
▁Yksittäis	-11.5106
▁minul	-11.5125
Euroopan	-11.5134
▁suunnitel	-11.5162
jöitä	-11.5165
▁yrittänee	-11.5183
erveysministeriö	-11.5184
▁Maailma	-11.5206
▁löydö	-11.521
▁myöhäis	-11.521
▁seremonia	-11.521
▁1992	-11.521
▁Charlotte	-11.521
▁Mykkänen	-11.521
▁Päätökse	-11.521
▁Thierr	-11.521
▁Turvallisuus	-11.521
▁koronapandemia	-11.521
▁kuningattare	-11.521
▁pistepörssi	-11.521
▁työtaistelu	-11.521
▁KRP	-11.521
▁meininki	-11.521
▁Keisteri	-11.521
▁optimi	-11.521
▁kaikkensa	-11.521
▁moukari	-11.521
▁varmuutta	-11.521
▁välikohtaukse	-11.521
▁Halikon	-11.521
▁kiinteä	-11.521
▁eversti	-11.521
▁Kreikka	-11.521
▁jatketaan	-11.521
▁Strand	-11.521
▁tekemisissä	-11.521
▁Brown	-11.521
▁ihastel	-11.521
▁Artisti	-11.521
▁paikkakunnall	-11.5211
▁räntä	-11.5211
sopeut	-11.5213
▁rehellise	-11.5213
▁Phil	-11.5216
teollisuude	-11.5253
▁osaamise	-11.5265
▁yöpy	-11.5273
▁Venäläi	-11.5317
▁vuodenvaihtee	-11.5327
▁Winnipeg	-11.5327
▁käännytyslaki	-11.5327
▁hyväntekeväisyy	-11.5327
▁signaali	-11.5327
▁yhdenvertaisuu	-11.5327
▁lapsiperhe	-11.5327
▁suhtaudu	-11.5327
▁rakkauden	-11.5327
▁tuntemattoma	-11.5327
Emmanuel	-11.5328
▁Harjoitu	-11.5328
▁makkara	-11.5328
▁harkinta	-11.5329
▁myynnin	-11.533
▁vaikuttamise	-11.5331
▁kohdiste	-11.5333
▁huuma	-11.5334
▁Asunno	-11.5336
▁tuomita	-11.5347
cross	-11.5347
▁todellist	-11.5358
▁Kokoomu	-11.5367
▁vaihte	-11.5381
välittäjä	-11.5402
▁lahjo	-11.5406
▁Metsähallitu	-11.5407
▁Suurimma	-11.5433
aanpuolustus	-11.5447
▁Athletic	-11.5447
▁Fintraffic	-11.5447
▁Moldova	-11.5447
▁Naapuri	-11.5447
▁Puljujärve	-11.5447
▁UNRWA	-11.5447
▁Venezuela	-11.5447
▁alkuvaiheessa	-11.5447
▁avausjakso	-11.5447
▁kontrolli	-11.5447
▁loppuvuodesta	-11.5447
▁tehtävien	-11.5447
▁työpaikkoj	-11.5447
▁2028	-11.5447
▁mittakaava	-11.5447
▁agentti	-11.5447
▁näyttelijöi	-11.5447
▁mieheltä	-11.5447
▁pylvä	-11.5447
▁Irlanni	-11.5447
▁päätyttyä	-11.5447
▁vaikuttaisi	-11.5447
▁Pekingi	-11.5447
▁hiihti	-11.5447
▁omena	-11.5449
▁hermostu	-11.5449
▁raivostu	-11.5449
▁rakkaan	-11.5452
▁tieteellise	-11.5453
turvapaikanhakij	-11.5453
▁Lahte	-11.5453
▁kantee	-11.5478
▁kkäi	-11.5497
iedustelupalvelu	-11.5528
öyryy	-11.5551
▁Hurricanes	-11.5567
▁Kaakkois	-11.5567
▁Kardashian	-11.5567
▁Mbappe	-11.5567
▁Neuvottelu	-11.5567
▁kurpitsa	-11.5567
▁laiminlyö	-11.5567
▁tapaturma	-11.5567
▁höyry	-11.5567
▁ilotulit	-11.5567
▁huonekalu	-11.5567
▁romantt	-11.5567
▁Sjö	-11.5567
▁uskalla	-11.5567
▁sukelta	-11.5567
▁kauttaaltaan	-11.5568
▁Poliitt	-11.5568
▁raskaude	-11.5568
▁seiväs	-11.5569
▁starti	-11.5572
▁innokka	-11.5585
▁kuutio	-11.5586
▁parlamentaari	-11.561
▁vuude	-11.5689
▁Teknologia	-11.5689
▁Flores	-11.5689
▁mielenosoituksi	-11.5689
▁Hirviniem	-11.5689
▁Tarkoituksen	-11.5689
▁ajankohda	-11.5689
▁koordinoi	-11.5689
▁kypärä	-11.5689
▁loppusuora	-11.5689
▁poliisipartio	-11.5689
▁tähtäime	-11.5689
▁upseeri	-11.5689
▁pistooli	-11.5689
▁sähkökatko	-11.5689
▁Poikkeuks	-11.5689
▁tartunta	-11.5689
▁Uudis	-11.5689
▁työnantaji	-11.5689
▁Power	-11.5689
▁Miettinen	-11.5689
▁herkästi	-11.5689
▁keskiosassa	-11.5689
▁onnittelu	-11.5689
▁paketin	-11.5689
▁islami	-11.569
▁alkuerä	-11.569
▁välttämättöm	-11.569
▁tallenne	-11.569
▁Jumala	-11.5691
▁tehdessä	-11.5692
▁epävaka	-11.5692
poikkeuksellista	-11.5699
▁Natha	-11.5701
▁vahvemm	-11.5709
▁saksalai	-11.5746
▁Nils	-11.5766
Luonto	-11.5768
▁Urh	-11.577
kalvo	-11.5772
▁Arizona	-11.5812
▁Göteborg	-11.5812
▁Mercedeksen	-11.5812
▁konsepti	-11.5812
▁kotialbumi	-11.5812
vitamiini	-11.5812
▁Independent	-11.5812
▁Microsoft	-11.5812
▁festari	-11.5812
▁lakiesitys	-11.5812
▁luonnokse	-11.5812
▁mestaruute	-11.5812
▁investointeja	-11.5812
▁yhteistyöhön	-11.5812
▁Koripallo	-11.5813
▁Molempi	-11.5813
▁lakkaute	-11.5813
▁kaikenlaista	-11.5813
▁Luukko	-11.5813
uosikki	-11.5813
▁mummo	-11.5813
▁nurmi	-11.5814
▁Scott	-11.5814
▁Tuntui	-11.5814
▁syyllisyyt	-11.5815
▁salme	-11.5816
▁Hevos	-11.582
keisari	-11.5822
▁päättänee	-11.5826
▁robot	-11.5827
▁kypsy	-11.5833
historian	-11.5863
▁perintee	-11.5864
▁1990	-11.5874
ehdokkaaksi	-11.5881
oimitusjohtaja	-11.5929
teatteri	-11.593
ilmatorjunta	-11.5937
▁Politico	-11.5937
▁Tšekki	-11.5937
▁ihmisoikeuksi	-11.5937
▁laitaoikeisto	-11.5937
▁treffe	-11.5937
▁vanhemmille	-11.5937
▁matalapaine	-11.5937
▁Jackets	-11.5937
▁Kuolema	-11.5937
▁Walz	-11.5937
▁Seläntee	-11.5937
▁Samuel	-11.5937
▁kaupoissa	-11.5937
▁iloitsi	-11.5938
▁välieriin	-11.5938
▁Kivelä	-11.5938
▁lajeja	-11.5938
▁palauttee	-11.5938
▁pilve	-11.5938
▁valinnoi	-11.5938
▁tuulilasi	-11.5938
▁kuunteli	-11.5938
▁rikoksiin	-11.5939
▁Välimere	-11.5939
▁lyödä	-11.5942
▁pelastet	-11.5949
▁lehte	-11.5951
▁edistämise	-11.5955
▁tervehdy	-11.5966
▁parantamise	-11.5975
▁aloj	-11.5978
▁näkökulma	-11.6
kioski	-11.6002
▁ohjaukse	-11.602
yöväen	-11.6022
▁tietynlai	-11.6036
operaatio	-11.6048
▁ohjastaj	-11.6053
▁vältyt	-11.6059
▁Teuv	-11.6063
▁Aleksanteri	-11.6064
▁Coldplay	-11.6064
▁huutokaupa	-11.6064
▁panssarivaunu	-11.6064
▁ristiriida	-11.6064
▁sadekuuro	-11.6064
▁somevaikuttaj	-11.6064
▁maailmansoda	-11.6064
▁Wilson	-11.6064
▁Moilanen	-11.6064
▁japanilais	-11.6064
▁kroppa	-11.6064
▁Hulkko	-11.6064
▁Vuorela	-11.6064
▁todisti	-11.6064
▁hautausmaa	-11.6064
▁nähdy	-11.6064
Savon	-11.6064
▁Hintz	-11.6065
▁Museo	-11.6065
▁säikäh	-11.6065
▁rouva	-11.6066
▁Presidentinvaal	-11.6068
▁työttömi	-11.6069
▁väistämät	-11.6069
▁Palloliit	-11.607
▁esitellä	-11.6072
▁Tietenk	-11.608
▁laittoma	-11.6081
▁ajoneuvoj	-11.61
▁pahoittel	-11.6187
л	-11.6192
▁aktivoi	-11.6192
▁kynttilä	-11.6192
▁Beckham	-11.6192
▁Capital	-11.6192
▁Medvedev	-11.6192
▁Raporti	-11.6192
▁maahanmuuttaji	-11.6192
▁syytökset	-11.6192
▁faneja	-11.6192
▁rovaniemeläi	-11.6192
karsinnoissa	-11.6192
▁Päijä	-11.6192
▁metsätalous	-11.6192
influenss	-11.6192
▁lisenssi	-11.6192
▁Show	-11.6192
▁Junior	-11.6192
▁hetket	-11.6192
▁Pysty	-11.6192
▁kovempi	-11.6192
▁hävittäji	-11.6193
▁kuolinsyy	-11.6193
▁haittoj	-11.6193
▁aavistu	-11.6193
▁hoiti	-11.6194
▁Kuronen	-11.6194
▁kupla	-11.6194
▁tasoitus	-11.6195
▁Prisma	-11.6195
▁päällys	-11.6197
▁kirjaimell	-11.6201
▁tyhjentä	-11.6203
▁Kemijärve	-11.6206
aituri	-11.6212
▁ilmaiss	-11.6213
▁huijaukse	-11.6242
▁Pöl	-11.6272
▁varaudut	-11.6275
▁Rintee	-11.6284
▁nuoremma	-11.6299
▁nilk	-11.6306
▁Teij	-11.6309
▁kriitik	-11.6322
▁valtuutetu	-11.6322
▁Suunnitelma	-11.6322
▁Ylivieska	-11.6322
▁debyytti	-11.6322
▁kommenteista	-11.6322
▁lakiesitykse	-11.6322
▁leikkaukseen	-11.6322
▁liberaali	-11.6322
▁pöyristy	-11.6322
▁Porsche	-11.6322
▁SJK	-11.6322
▁1985	-11.6322
▁vääntö	-11.6322
petoksesta	-11.6322
▁Pietilä	-11.6322
▁haastoi	-11.6322
▁Kittilä	-11.6322
▁opiskell	-11.6322
galleria	-11.6322
▁legendaarise	-11.6322
▁säilö	-11.6322
▁laajemma	-11.6322
▁Pitäisi	-11.6322
▁muokka	-11.6322
▁Games	-11.6323
▁sulki	-11.6323
▁Ääni	-11.6324
▁kuntoutus	-11.6325
▁sairaalaverk	-11.6325
konttori	-11.6326
▁Saarela	-11.6326
ights	-11.6329
▁varaukse	-11.6337
pääkaupunkiseudu	-11.6364
presidentti	-11.6375
▁yhteisymmärry	-11.6382
perussuomalaiset	-11.6441
Š	-11.6454
ekonomisti	-11.6454
▁Kirvesniemi	-11.6454
▁informaatio	-11.6454
▁tyrmää	-11.6454
▁yökerho	-11.6454
▁Penttilä	-11.6454
▁eläköity	-11.6454
▁Globa	-11.6454
▁vakiintu	-11.6454
▁vangittuna	-11.6454
▁nuoruude	-11.6454
▁puhelimi	-11.6454
▁väittänyt	-11.6454
▁vakoilu	-11.6454
▁väkevä	-11.6454
▁asianmukai	-11.6454
▁Melania	-11.6454
▁Jakob	-11.6454
▁ajatellen	-11.6454
▁totuuden	-11.6454
▁mekanism	-11.6454
▁Vakuut	-11.6454
▁Vanhemma	-11.6454
▁tulkinta	-11.6455
alvontakamera	-11.6458
▁suistu	-11.646
▁Syyttee	-11.6463
▁väärist	-11.6463
Jarno	-11.6465
▁vangitsemis	-11.6471
▁Vakav	-11.6474
▁Stone	-11.6477
▁tietoisuut	-11.6487
▁haeta	-11.6502
demokraattie	-11.6511
legenda	-11.6511
nopeus	-11.6511
▁tilastoj	-11.6574
▁johdatt	-11.6586
▁Diggins	-11.6587
▁Järvenpää	-11.6587
▁Lavrov	-11.6587
▁PMMP	-11.6587
▁UFC	-11.6587
▁avustukse	-11.6587
▁epidemia	-11.6587
▁kamppaile	-11.6587
▁lounais	-11.6587
▁puhelimessa	-11.6587
▁sukupuolt	-11.6587
▁tehopistettä	-11.6587
▁todistus	-11.6587
▁paikkoihin	-11.6587
▁Kappale	-11.6587
▁alkaessa	-11.6587
▁rannikko	-11.6587
▁porkkana	-11.6587
hetkellisesti	-11.6587
▁velvoite	-11.6588
▁tuoreimma	-11.6589
▁poikaystävä	-11.659
▁loukkaantunei	-11.659
▁vierellä	-11.659
▁Albert	-11.6591
▁kärsimys	-11.6598
▁hylk	-11.66
▁mittaukse	-11.6601
▁maastohiih	-11.6605
▁alueellise	-11.6605
kilpi	-11.661
▁elintarvikkei	-11.6612
▁järjestämise	-11.6666
▁kiertee	-11.6686
▁elintarvik	-11.6696
bruttokansantuot	-11.6722
▁rajavartio	-11.6722
▁Classic	-11.6722
▁Yhdysvalloista	-11.6722
▁inspiroi	-11.6722
▁morsian	-11.6722
▁norjalainen	-11.6722
▁noteera	-11.6722
▁satelliitti	-11.6722
▁1988	-11.6722
▁Törmä	-11.6722
▁sairaalahoitoon	-11.6722
▁KOK	-11.6722
▁SHL	-11.6722
▁Sivusto	-11.6722
▁neliveto	-11.6722
▁takavuosi	-11.6722
▁kolminkertai	-11.6722
▁karkuun	-11.6722
▁kaikkeen	-11.6722
▁Syöpä	-11.6723
▁arvostettu	-11.6723
▁Mannola	-11.6723
▁Tennis	-11.6723
▁päätöksenteo	-11.6724
▁opinno	-11.6724
▁Domini	-11.6725
ylimääräistä	-11.6727
▁Virall	-11.6732
▁käteis	-11.6756
▁vakuutukse	-11.6759
persoona	-11.6783
onnettomuudessa	-11.6783
taiteilija	-11.6783
karsinta	-11.6783
▁kuulustel	-11.6796
▁viemää	-11.6798
▁epätoivo	-11.6859
▁Afganistani	-11.6859
▁Hyökkääjä	-11.6859
▁Whatsapp	-11.6859
▁ilmapuolustu	-11.6859
▁liiketoiminna	-11.6859
▁muistisaira	-11.6859
▁operatiiv	-11.6859
▁yläpuolella	-11.6859
▁Johansson	-11.6859
▁havahtu	-11.6859
▁laihdut	-11.6859
▁Lopez	-11.6859
▁suoratoisto	-11.6859
▁mieheksi	-11.6859
▁Libiso	-11.6859
▁hetkeen	-11.6859
▁Rautiai	-11.6859
▁esitety	-11.6859
▁yllättynyt	-11.6859
▁aamupala	-11.6859
▁Ahtisaar	-11.686
▁havaita	-11.686
▁Steph	-11.6861
▁velkaantu	-11.6861
▁muodost	-11.6861
▁väsymys	-11.6862
blom	-11.6862
▁kaluste	-11.6869
kaupoista	-11.6873
▁viimeisimmä	-11.6879
valmentaja	-11.688
lph	-11.6891
ilmiö	-11.6922
ympäristö	-11.6922
▁hallituskaude	-11.6928
alitsijayhdisty	-11.6937
ärjest	-11.6948
▁määräykse	-11.6949
▁hirve	-11.6954
▁aletaa	-11.6958
Huntington	-11.6998
▁diabetes	-11.6998
▁itseluottamus	-11.6998
▁lanseera	-11.6998
▁välttämätöntä	-11.6998
▁1987	-11.6998
▁Alankomai	-11.6998
▁oikeusvaltio	-11.6998
▁sinilevä	-11.6998
▁vuosituhanne	-11.6998
▁kuvateksti	-11.6998
▁jäljet	-11.6998
▁artiste	-11.6998
▁Vapaavuor	-11.6998
▁vedellä	-11.6998
▁Irlanti	-11.6998
▁suolisto	-11.6998
▁Hintsa	-11.6998
▁puutteita	-11.6998
▁Stock	-11.6998
▁Kahdeksa	-11.6999
▁ominaisuude	-11.7004
▁Ystävä	-11.7007
ilmanmestaruuden	-11.7064
▁kuninkaall	-11.7067
▁kovimma	-11.7087
uudistuksia	-11.71
▁englantilai	-11.7101
▁puolustusvoimi	-11.7129
▁sotilaallist	-11.7136
в	-11.7139
Tutkinnanjohtaja	-11.7139
yksenvalvoja	-11.7139
▁Ingebrigtsen	-11.7139
▁Skotlanni	-11.7139
▁Väyry	-11.7139
▁diabetekse	-11.7139
▁edellytyksiä	-11.7139
▁hyökän	-11.7139
▁journalismi	-11.7139
▁kauhistu	-11.7139
▁kompromissi	-11.7139
▁kunnianhimo	-11.7139
▁pöydällä	-11.7139
▁työmarkkinoi	-11.7139
▁kurinpito	-11.7139
▁osapuolt	-11.7139
▁tylsä	-11.7139
▁Amanda	-11.7139
▁kosteus	-11.7139
▁Arcti	-11.7139
▁hypätä	-11.714
▁valokuvi	-11.714
▁rohkais	-11.714
▁lyhyi	-11.7141
▁Philip	-11.7141
▁ehkäisy	-11.7142
▁etenemise	-11.7145
▁englanti	-11.7177
hallinnon	-11.7206
▁kylmem	-11.7215
▁amerikkalai	-11.7242
▁epäselvyy	-11.7282
▁löyly	-11.7282
jatushautomo	-11.7282
▁lämpötiloj	-11.7282
▁tyrmäsi	-11.7282
▁EBU	-11.7282
▁EHT	-11.7282
▁luisteli	-11.7282
▁Hybrid	-11.7282
▁KTP	-11.7282
▁Monaco	-11.7282
▁Rotenberg	-11.7282
▁nauroi	-11.7282
▁lähtökohd	-11.7282
▁riveihin	-11.7282
▁raveissa	-11.7282
todennäköisyys	-11.7283
tuottamuksesta	-11.7289
▁virolais	-11.7292
▁lahjakkuu	-11.7301
▁jännittei	-11.7306
▁leviämis	-11.7387
▁vaellu	-11.7388
▁tyylikkää	-11.7408
▁Calgary	-11.7427
▁Cristian	-11.7427
▁KooKoo	-11.7427
▁Razmyar	-11.7427
▁Silvennoise	-11.7427
▁havaitse	-11.7427
▁lähiaikoina	-11.7427
▁pörssisähkö	-11.7427
▁rikosnimikke	-11.7427
▁1989	-11.7427
▁Silminnäkij	-11.7427
▁Sodankylä	-11.7427
▁katastrofaal	-11.7427
▁leikkauksessa	-11.7427
▁oleskelulu	-11.7427
▁FSB	-11.7427
▁mittelö	-11.7427
▁Tulipalo	-11.7427
▁periaate	-11.7427
▁Mattsson	-11.7427
▁Jesper	-11.7427
▁viemäri	-11.7427
▁kätensä	-11.7427
neljänneksellä	-11.7429
Sullivan	-11.743
▁kaaokse	-11.7433
▁edennee	-11.7448
hiihto	-11.7457
▁Vasemmistoliit	-11.7475
▁selityks	-11.7493
▁haitallisi	-11.7499
Maarit	-11.7513
▁ottamise	-11.7533
▁Bloomberg	-11.7574
▁Renault	-11.7574
▁laboratorio	-11.7574
▁Telegraph	-11.7574
▁kännykkä	-11.7574
▁ministerei	-11.7574
▁onnettomuute	-11.7574
▁pandemia	-11.7574
▁protestoi	-11.7574
▁sinetöi	-11.7574
▁tilinpäätö	-11.7574
▁Jacob	-11.7574
▁AfD	-11.7574
▁menetelmä	-11.7574
▁Diarra	-11.7574
▁lapsenlaps	-11.7574
nsiirto	-11.7574
▁Wiskari	-11.7574
▁peleistä	-11.7574
▁Salkkari	-11.7574
▁mielikuvi	-11.7574
▁riehu	-11.7574
▁poiket	-11.7574
▁Valiokun	-11.7589
äyttö	-11.7606
▁taloudellist	-11.7613
▁koomik	-11.7625
ongelmi	-11.7646
▁Singapore	-11.7723
▁Tottenham	-11.7723
▁Uudellamaalla	-11.7723
▁ikimuisto	-11.7723
▁kandidaat	-11.7723
▁siviilejä	-11.7723
gård	-11.7723
▁1984	-11.7723
▁Tyypill	-11.7723
▁läpimurto	-11.7723
▁ulkoasiain	-11.7723
к	-11.8028
ë	-11.8668
у	-12.0675
è	-12.0675
č	-12.1088
#	-12.2682
г	-12.3451
я	-12.4579
ы	-12.4579
_	-12.4882
★	-12.4882
м	-12.5195
Ã	-12.5517
â	-12.5517
¤	-12.6553
ã	-12.7308
ú	-12.7308
à	-12.7708
й	-12.8124
б	-12.8124
ł	-12.8559
Ö	-12.8937
ь	-12.9014
з	-12.999
ç	-13.0516
·	-13.1072
æ	-13.1072
ч	-13.1072
ý	-13.166
ю	-13.2285
õ	-13.4435
ï	-13.6178
×	-13.7178
Ü	-13.7178
ô	-13.7178
ř	-13.7178
ń	-13.8289
х	-13.8289
ð	-13.8289
;	-13.9463
ц	-13.9539
Č	-13.9539
°	-14.0967
	-14.0967
ê	-14.0967
©	-14.2634
‒	-14.2634
€	-14.4558
щ	-14.4634
ă	-14.4634
Õ	-14.4634
Ú	-14.4634
ė	-14.4634
ш	-14.4634
ū	-14.7134
	-14.7134
ò	-14.7134
ā	-14.7134
‐	-14.7134
•	-14.7134
ē	-14.7134
ı	-14.7134
Б	-14.7134
α	-15.0467
Æ	-15.0467
Í	-15.0467
ō	-15.0467
ț	-15.0467
Ш	-15.0467
●	-15.0467
Å	-15.5392
Ж	-15.5467
И	-15.5467
À	-15.5467
$	-15.5467
\	-15.5467
`	-15.5467
¶	-15.5467
ň	-15.5467
œ	-15.5467
ů	-15.5467
˗	-15.5467
‰	-15.5467
′	-15.5467
⁣	-15.5467
ŏ	-15.5467
ż	-15.5467
Н	-15.5467
[	-16.5397
Л	-16.5432
ə	-16.5433
ş	-16.5434
İ	-16.5435
Ó	-16.5436
К	-16.5437
Þ	-16.5438
⭐	-16.5439
э	-16.544
ф	-16.5441
А	-16.5442
μ	-16.5443
ß	-16.5444
Ç	-16.5445
ņ	-16.5446
П	-16.5447
Ф	-16.5448
С	-16.5449
В	-16.545
ě	-16.5451
ж	-16.5452
Ø	-16.5453
<	-16.5454
Ž	-16.5455
É	-16.5456
̈	-16.5457
Á	-16.5458
§	-16.5459
ğ	-16.546
ć	-16.5461
⁄	-16.5462
п	-16.5463
д	-16.5464
ñ	-16.5465
−	-16.5466
О	-16.5467
З	-16.5467
Э	-16.5467
ī	-16.5467
~	-16.5467
®	-16.5467
±	-16.5467
Â	-16.5467
Ò	-16.5467
Û	-16.5467
ì	-16.5467
î	-16.5467
ÿ	-16.5467
ą	-16.5467
đ	-16.5467
ę	-16.5467
ģ	-16.5467
Ķ	-16.5467
ľ	-16.5467
ś	-16.5467
ų	-16.5467
ź	-16.5467
ǎ	-16.5467
Ș	-16.5467
ș	-16.5467
Т	-16.5467
ỏ	-16.5467
ố	-16.5467
‍	-16.5467
∞	-16.5467
😂	-16.5467
	-16.5467
¡	-16.5467
û	-16.5467
Ł	-16.5467
(	-16.5467
Д	-16.5467
