<unk>	0
<s>	0
</s>	0
n	-3.00016
a	-3.50068
.	-3.79509
t	-4.17458
i	-4.21627
▁.	-4.2822
,	-4.31305
▁,	-4.43533
▁ja	-4.44568
▁on	-4.49958
▁	-4.55679
ä	-4.69962
ssa	-4.74842
en	-4.86855
s	-4.89179
in	-4.90573
sta	-5.05006
ta	-5.09542
-	-5.12483
e	-5.17262
u	-5.31116
o	-5.3889
lla	-5.41322
▁että	-5.41325
ja	-5.45548
lle	-5.47084
r	-5.49645
▁ei	-5.5616
an	-5.57859
▁-	-5.60957
si	-5.64096
h	-5.67645
ksi	-5.69308
▁a	-5.71055
ko	-5.72369
▁oli	-5.73636
l	-5.85209
y	-5.87913
ri	-5.92645
sti	-5.96017
la	-5.96411
to	-5.96628
va	-5.99971
te	-6.06268
vat	-6.06396
ke	-6.10813
:	-6.11671
ssä	-6.12146
▁mukaan	-6.12816
stä	-6.14628
m	-6.14885
▁se	-6.16395
ka	-6.16599
tu	-6.17637
▁n	-6.19836
us	-6.20712
tti	-6.21195
▁ole	-6.22491
▁jo	-6.22572
nut	-6.23263
▁hän	-6.2601
li	-6.28465
▁myös	-6.29255
ma	-6.31574
nen	-6.32071
ki	-6.34837
▁kun	-6.35465
ti	-6.35797
vi	-6.35911
d	-6.41077
mi	-6.41557
k	-6.42789
ista	-6.43227
▁ovat	-6.43325
maan	-6.43523
▁A	-6.44356
on	-6.44535
ra	-6.45373
▁"	-6.4552
tta	-6.4647
▁mutt	-6.47126
llä	-6.47161
is	-6.49292
inen	-6.493
kin	-6.51586
pa	-6.54217
▁voi	-6.55091
le	-6.57844
tä	-6.59239
ku	-6.59738
et	-6.59972
ö	-6.60119
re	-6.66202
▁tai	-6.68629
▁Hän	-6.7009
p	-6.71174
nsa	-6.71746
lta	-6.72811
▁ta	-6.73836
ita	-6.73882
▁in	-6.75246
ro	-6.76936
sa	-6.77872
▁ollut	-6.77969
ttu	-6.78397
vät	-6.78496
▁e	-6.80524
▁ko	-6.80774
▁t	-6.8098
kä	-6.80994
iden	-6.81401
issa	-6.83139
▁kertoo	-6.84256
lo	-6.86308
nyt	-6.86514
un	-6.89106
▁o	-6.90034
ty	-6.90436
ve	-6.91003
▁an	-6.91078
kka	-6.91196
▁joka	-6.91314
▁si	-6.91842
▁sen	-6.92581
▁S	-6.93449
mo	-6.94617
▁ma	-6.9488
▁sa	-6.95
▁Se	-6.95975
sen	-6.96191
▁jälkeen	-6.96432
mme	-6.97519
▁kuin	-6.99151
vä	-6.99502
▁E	-6.99907
▁kanssa	-7.00109
än	-7.00229
jä	-7.00302
▁(	-7.00681
▁O	-7.01333
ten	-7.01665
taan	-7.0197
neet	-7.02234
▁:	-7.02558
▁niin	-7.05057
da	-7.06265
jen	-7.08045
lu	-7.08074
g	-7.08489
▁Sa	-7.10644
ut	-7.10857
▁olisi	-7.10882
pu	-7.11373
▁tu	-7.12538
jo	-7.12715
de	-7.1312
▁saa	-7.13417
minen	-7.14092
▁I	-7.15146
▁ra	-7.16117
▁Suomen	-7.16186
▁pää	-7.16227
er	-7.16373
isen	-7.16443
kki	-7.17279
isi	-7.17683
▁vuonna	-7.17766
sto	-7.17967
▁sanoo	-7.18617
istä	-7.18884
▁viime	-7.18997
▁Venäjä	-7.19737
▁ka	-7.1996
▁te	-7.20704
▁kuitenk	-7.22106
ille	-7.22201
▁kin	-7.22859
0	-7.23049
▁en	-7.2417
se	-7.24575
▁i	-7.24797
ho	-7.26302
▁La	-7.26506
v	-7.27832
ihin	-7.28293
pi	-7.28441
illa	-7.28967
pe	-7.29188
▁pa	-7.29738
▁työ	-7.29764
llis	-7.29885
)	-7.29921
he	-7.31883
▁olla	-7.32341
ttä	-7.32398
▁ne	-7.32569
▁sekä	-7.3267
▁la	-7.34351
▁kertoi	-7.35575
tus	-7.35645
▁yli	-7.35884
▁nyt	-7.36117
mpi	-7.36262
▁vielä	-7.36429
▁toimi	-7.36457
nne	-7.36543
▁ke	-7.37286
▁sta	-7.37357
kko	-7.37581
ttiin	-7.38114
ha	-7.38493
mä	-7.38696
▁va	-7.39418
▁ki	-7.39836
vo	-7.40333
mään	-7.40739
▁he	-7.41218
▁vuoden	-7.41449
ste	-7.41501
▁Ha	-7.41959
▁ku	-7.42363
▁Ma	-7.43859
me	-7.44102
mis	-7.44235
▁Ja	-7.45012
▁Ra	-7.45147
▁vain	-7.45306
▁Ko	-7.45642
▁F	-7.46246
▁Si	-7.46358
lli	-7.46382
ise	-7.46673
▁ha	-7.46752
5	-7.48307
▁osa	-7.48488
▁eri	-7.48515
▁siitä	-7.48575
ltä	-7.49032
▁to	-7.49241
▁Ka	-7.49757
2	-7.50102
▁maa	-7.50376
▁vi	-7.5059
it	-7.51165
lais	-7.51212
neen	-7.51266
den	-7.51412
▁sanoi	-7.51417
▁Jo	-7.5159
ll	-7.51722
z	-7.51724
▁lle	-7.53422
aan	-7.53707
▁u	-7.53718
▁sai	-7.54643
▁mi	-7.55105
▁sitä	-7.55177
▁Ta	-7.55646
▁tuo	-7.56025
do	-7.57417
▁me	-7.57442
nsä	-7.57801
f	-7.57815
lan	-7.5817
▁aikana	-7.58364
▁häne	-7.58665
ssi	-7.59037
▁?	-7.5909
▁yksi	-7.59354
hi	-7.59532
▁pi	-7.59678
▁Mi	-7.59701
▁auto	-7.6019
man	-7.60441
▁tä	-7.60698
c	-7.60814
ji	-7.60852
▁noin	-7.61626
▁koko	-7.61644
▁kaksi	-7.62446
van	-7.62801
▁jossa	-7.62845
b	-7.62952
po	-7.63003
di	-7.63563
su	-7.63664
lä	-7.63875
▁ä	-7.64045
▁ni	-7.64538
ksen	-7.646
hti	-7.64837
▁le	-7.64904
▁K	-7.65175
▁ri	-7.65415
▁paljon	-7.65616
▁hyvä	-7.66011
▁vasta	-7.6649
▁pe	-7.66541
▁kuva	-7.66796
1	-7.66882
▁ennen	-7.67274
▁ise	-7.67352
maa	-7.67437
▁itse	-7.67804
itä	-7.6874
tte	-7.68835
▁Le	-7.68931
utta	-7.69312
▁eivät	-7.69596
▁sitten	-7.69787
el	-7.69923
▁To	-7.69941
▁pu	-7.69947
▁sillä	-7.70409
▁luo	-7.70788
mista	-7.71356
mu	-7.71461
▁Pa	-7.71616
ur	-7.71694
▁eli	-7.72424
▁hyvin	-7.72549
tiin	-7.72637
▁na	-7.72832
▁G	-7.729
nti	-7.731
▁kaikki	-7.73776
mm	-7.73935
llinen	-7.74304
▁peli	-7.74335
▁ettei	-7.75107
▁s	-7.7517
▁C	-7.75272
▁jos	-7.75886
▁5	-7.76244
▁muun	-7.77602
kke	-7.77642
▁B	-7.77823
▁Ke	-7.78158
▁syy	-7.78471
essa	-7.78604
▁mu	-7.78645
teen	-7.78742
▁kolme	-7.78928
▁mua	-7.78939
▁määrä	-7.79011
▁oma	-7.80002
▁esimerkiksi	-7.8016
▁käy	-7.80251
isesti	-7.80319
▁tuli	-7.80676
tään	-7.80721
▁U	-7.80819
8	-7.80944
▁jonk	-7.81031
▁Pi	-7.81047
ks	-7.81147
lainen	-7.8158
▁tulee	-7.81805
▁k	-7.82049
▁esi	-7.8221
kku	-7.82215
▁ase	-7.82422
9	-7.82527
ttaa	-7.82734
je	-7.82828
ng	-7.83217
issä	-7.83278
S	-7.83795
kse	-7.83835
utu	-7.83939
3	-7.8425
▁katso	-7.84457
▁Ku	-7.85003
▁ensi	-7.85415
▁000	-7.85537
▁hi	-7.85547
tty	-7.85787
▁aika	-7.85971
▁Te	-7.85973
▁jää	-7.86429
▁kau	-7.86454
essä	-7.86862
▁P	-7.87008
▁po	-7.87062
▁lla	-7.87237
▁Tu	-7.87254
▁Li	-7.87389
▁mitä	-7.87401
▁pitää	-7.87675
▁jotk	-7.88019
▁Kun	-7.88036
ikka	-7.88439
ttava	-7.88636
▁vastaan	-7.88746
▁poliisi	-7.88843
▁4	-7.88924
▁mies	-7.89271
4	-7.89462
uksia	-7.89552
▁1	-7.89625
▁olivat	-7.9003
▁19	-7.90531
▁vuotta	-7.90532
▁Jos	-7.90561
▁euroa	-7.90571
ön	-7.90615
tys	-7.90696
▁aina	-7.90886
oi	-7.90972
▁su	-7.9168
▁nä	-7.92415
P	-7.92721
▁En	-7.92826
▁T	-7.92851
or	-7.9286
▁Vi	-7.93135
▁lo	-7.93376
ys	-7.93457
ellä	-7.93639
ppi	-7.94325
▁re	-7.94779
w	-7.94876
▁Ri	-7.95097
▁hu	-7.95294
misen	-7.95543
▁Ju	-7.96254
sä	-7.96399
kseen	-7.96742
▁Mu	-7.96867
j	-7.96901
ppa	-7.97039
▁ista	-7.97081
ili	-7.97126
▁koti	-7.9729
▁Me	-7.97418
▁ajan	-7.97722
ju	-7.97781
▁muut	-7.98335
▁Ro	-7.9856
▁illa	-7.98567
▁He	-7.98681
ude	-7.9938
▁väli	-8.00063
▁Poliisi	-8.00249
▁Su	-8.00301
▁6	-8.00517
▁ksi	-8.00563
lin	-8.00826
▁vie	-8.00974
▁päivä	-8.01263
▁vä	-8.01479
▁var	-8.01642
▁vuosi	-8.01706
al	-8.01713
▁y	-8.01768
▁V	-8.01942
▁maali	-8.02418
▁al	-8.02472
▁ssa	-8.02901
▁Pu	-8.03048
ga	-8.03234
▁Ni	-8.03999
▁maan	-8.04
▁iso	-8.04229
▁Ei	-8.04674
▁Suomessa	-8.04785
hu	-8.05127
vu	-8.05395
▁vaikka	-8.05449
▁puhu	-8.05476
▁lisää	-8.05657
7	-8.05711
uksen	-8.0602
▁pala	-8.0606
▁lai	-8.06097
▁M	-8.06327
ska	-8.06376
▁pois	-8.06606
▁Va	-8.06777
os	-8.06793
▁tämä	-8.06824
ilu	-8.069
▁matka	-8.07025
▁koska	-8.07164
massa	-8.07261
▁presidentti	-8.07621
tettiin	-8.07655
▁henkilö	-8.08229
▁pari	-8.08337
▁7	-8.08367
▁Al	-8.08654
6	-8.09527
rin	-8.09639
▁koulu	-8.0975
kään	-8.09868
ella	-8.09892
▁ille	-8.09975
▁Val	-8.10211
▁tila	-8.10518
▁tämän	-8.10783
▁f	-8.11212
kaan	-8.11339
▁2	-8.11386
ck	-8.11467
▁suomalais	-8.11511
▁li	-8.11578
ski	-8.11786
▁palvelu	-8.12739
▁ottelu	-8.12922
▁tar	-8.12944
ään	-8.1333
▁Pe	-8.13472
kaa	-8.13685
▁joukkue	-8.13706
▁20	-8.13909
▁Mar	-8.13957
▁Ar	-8.13976
sk	-8.1401
▁aiemmin	-8.14084
▁siihen	-8.14333
▁Lu	-8.1446
▁miten	-8.14466
▁Myös	-8.14571
gi	-8.14819
▁Tämä	-8.15067
een	-8.15451
ly	-8.16005
▁so	-8.16056
▁seura	-8.16085
nee	-8.16558
llaan	-8.16601
A	-8.16962
▁arvo	-8.16965
▁kuu	-8.17003
▁enemmän	-8.17004
▁kommentoi	-8.17004
mmi	-8.17315
▁jä	-8.17455
men	-8.17831
isiin	-8.18071
▁Kuva	-8.18071
▁tällä	-8.18119
▁kisa	-8.18201
vuotias	-8.18604
hde	-8.18626
▁asu	-8.18637
▁Suomi	-8.18732
T	-8.18761
▁sano	-8.18803
▁kar	-8.19112
▁So	-8.19168
▁)	-8.19454
▁Tä	-8.19499
▁3	-8.19561
▁Nyt	-8.1984
▁kirja	-8.19931
▁kilpailu	-8.20104
▁neljä	-8.20222
▁Y	-8.20278
seen	-8.20291
▁lähe	-8.20301
▁Ruotsi	-8.20306
K	-8.20439
il	-8.20443
▁Ki	-8.20608
▁kertaa	-8.20644
▁mme	-8.20652
illä	-8.20761
▁vaan	-8.21025
▁ollee	-8.21033
▁lu	-8.21141
tteli	-8.21455
▁lisä	-8.21866
▁ero	-8.22122
▁uusi	-8.22725
▁200	-8.23153
▁Mo	-8.23224
mmin	-8.23294
pä	-8.2375
▁Yle	-8.23925
▁8	-8.2401
▁vii	-8.2445
▁mikä	-8.25196
▁ihan	-8.25429
▁Hu	-8.25553
dy	-8.25584
▁Re	-8.25708
tse	-8.25727
tettu	-8.25856
ttää	-8.25858
tuksen	-8.26216
▁MM	-8.2622
"	-8.26256
▁arvioi	-8.26266
▁sarja	-8.2643
▁tarjo	-8.26955
▁mitään	-8.27117
sia	-8.27288
▁N	-8.27882
▁hä	-8.27901
▁Ve	-8.28467
▁ve	-8.28585
▁ver	-8.29053
▁isi	-8.29667
▁olevan	-8.29747
▁Po	-8.29895
ry	-8.3062
▁video	-8.30637
ttävä	-8.30924
jien	-8.31008
du	-8.31022
kan	-8.31091
▁käsi	-8.31124
▁L	-8.31383
▁sy	-8.3157
▁val	-8.31619
kas	-8.31977
▁Ho	-8.32064
▁vara	-8.3213
▁ro	-8.32134
ter	-8.32708
▁/	-8.32807
▁15	-8.33041
▁teki	-8.33096
▁osallistu	-8.33123
▁issa	-8.33224
ba	-8.33364
▁prosenttia	-8.33439
▁ty	-8.33517
▁Ukrainan	-8.33717
▁kello	-8.33808
▁muu	-8.33929
▁moni	-8.34202
▁asia	-8.3424
▁Helsingin	-8.34344
llisesti	-8.3437
▁tehdä	-8.34504
ru	-8.34517
▁Ukraina	-8.34806
▁kyse	-8.34839
isten	-8.34915
L	-8.35104
ge	-8.35112
▁10	-8.35272
▁kiinni	-8.35374
▁enää	-8.35441
C	-8.35798
▁ju	-8.35915
hdi	-8.36003
▁voima	-8.36052
▁epä	-8.36115
▁loppu	-8.36214
▁Ti	-8.36584
▁".	-8.36593
▁usko	-8.36688
▁kulu	-8.36911
▁sä	-8.37168
▁Lo	-8.3739
via	-8.37415
▁­	-8.37875
▁aikaa	-8.38127
▁kaa	-8.3847
▁kor	-8.38929
▁Na	-8.39067
▁sää	-8.3948
▁vaali	-8.39515
▁pitkä	-8.39581
tetty	-8.39606
▁koke	-8.39815
▁raja	-8.39907
▁no	-8.40021
▁Lisä	-8.40183
ton	-8.40247
▁9	-8.40556
▁ilma	-8.40687
uutta	-8.40877
tuu	-8.40888
▁her	-8.40912
▁Ne	-8.4114
iset	-8.41239
▁piste	-8.41389
ell	-8.41435
▁mukana	-8.41456
ikko	-8.41622
▁alue	-8.42092
ch	-8.42138
ce	-8.42279
x	-8.4244
voi	-8.42462
▁kesä	-8.42745
▁12	-8.42758
▁alku	-8.4284
▁pysty	-8.43075
isia	-8.43128
ky	-8.43132
tila	-8.43249
▁On	-8.43367
▁puhe	-8.43568
▁jäi	-8.43626
mer	-8.43665
▁keski	-8.43824
llista	-8.43936
▁Ru	-8.4396
▁puolesta	-8.44058
kö	-8.44173
isto	-8.44277
▁tuke	-8.44307
▁saanut	-8.44748
▁todella	-8.44753
rk	-8.44777
▁kauden	-8.44902
▁kai	-8.4505
▁talo	-8.45203
▁lisäks	-8.45489
▁kautta	-8.45695
­	-8.45862
sten	-8.46061
stö	-8.46069
▁kii	-8.46087
▁toi	-8.46316
han	-8.46337
son	-8.46373
isin	-8.46412
▁vaati	-8.46629
min	-8.46735
M	-8.46879
eseen	-8.46935
tetaan	-8.46954
▁juuri	-8.46971
misesta	-8.47002
▁ti	-8.47077
▁selvi	-8.47196
▁Trump	-8.4725
▁voisi	-8.47319
▁juo	-8.47442
mpaa	-8.47587
▁vuoksi	-8.47922
▁aiheutta	-8.48135
▁ru	-8.4823
▁puheenjohtaja	-8.48668
▁pelaaja	-8.48885
▁voitto	-8.49071
per	-8.49152
ile	-8.4928
▁perhe	-8.4947
▁!	-8.49559
▁pela	-8.49581
▁ho	-8.49849
▁ala	-8.49925
tää	-8.4993
din	-8.50141
▁kova	-8.50262
▁Viime	-8.50604
▁vat	-8.50619
co	-8.5071
llo	-8.50838
▁nime	-8.5088
▁kir	-8.50935
▁mene	-8.51143
▁Oli	-8.51236
io	-8.51261
▁lau	-8.51282
ik	-8.51293
▁isä	-8.51386
▁puoli	-8.51836
miseen	-8.52115
▁otta	-8.52343
▁EU	-8.52547
▁tässä	-8.52569
▁Bo	-8.52601
▁ulko	-8.53055
▁jen	-8.53117
▁vähän	-8.53143
▁Hi	-8.53521
bi	-8.54031
▁Nato	-8.54297
yty	-8.54306
sarja	-8.54521
tui	-8.54702
kset	-8.54837
▁tullut	-8.55494
▁Maa	-8.55499
▁lä	-8.55663
▁mo	-8.56003
▁hetkellä	-8.56018
▁ilta	-8.56037
malla	-8.56061
▁lapsi	-8.5613
▁Kar	-8.56407
▁Co	-8.56431
▁Stubb	-8.56918
▁johtaja	-8.5693
mat	-8.57031
▁aikaan	-8.57032
▁tilanne	-8.57045
▁0	-8.57074
▁toise	-8.57263
▁kasva	-8.57373
ee	-8.57653
▁tieto	-8.57667
▁kute	-8.57726
ol	-8.57917
▁tapahtuma	-8.58048
▁taka	-8.5817
▁alkoi	-8.58482
▁hei	-8.58684
oja	-8.58718
tava	-8.58732
▁viesti	-8.58748
▁siinä	-8.58785
▁mä	-8.58897
▁miehen	-8.58953
mus	-8.59023
▁erä	-8.59049
▁suuri	-8.59142
bo	-8.59194
▁perus	-8.59571
aali	-8.59689
▁lähes	-8.60006
▁18	-8.60027
▁tosi	-8.60072
▁keskustelu	-8.60122
▁alle	-8.60308
▁sama	-8.60404
▁pitäisi	-8.60626
talo	-8.60805
▁Ilta	-8.60825
▁toivo	-8.60858
▁R	-8.60908
ukka	-8.60928
▁joten	-8.61002
▁Har	-8.61084
ff	-8.61092
▁H	-8.61156
▁lta	-8.61392
ilta	-8.61574
▁Sen	-8.61621
ver	-8.61693
▁jäsen	-8.61898
▁2022	-8.62049
ps	-8.6205
▁mone	-8.62062
▁näky	-8.62264
▁laske	-8.62429
▁hallitus	-8.62461
ttaja	-8.62681
▁ohjelma	-8.62731
▁saada	-8.62886
telu	-8.63078
▁2023	-8.63176
▁kaudella	-8.63178
▁asti	-8.63245
▁taas	-8.63261
▁D	-8.6336
▁11	-8.63438
▁än	-8.63576
▁sähkö	-8.63675
▁edelleen	-8.63801
▁p	-8.63871
▁tode	-8.64017
▁tutki	-8.64036
mman	-8.64118
▁takia	-8.64239
▁toinen	-8.64367
osa	-8.64613
▁uude	-8.64733
▁paikka	-8.6492
▁teho	-8.64983
▁uuden	-8.65158
lleen	-8.65163
go	-8.65173
▁euro	-8.65503
▁sisä	-8.65618
▁tavalla	-8.65646
vansa	-8.65658
▁halua	-8.65679
▁ihmise	-8.65682
▁ar	-8.65804
▁oleva	-8.66076
▁mielestä	-8.66165
▁edes	-8.66336
▁yllä	-8.66392
▁taso	-8.66466
▁heidä	-8.66601
▁No	-8.66657
ppu	-8.66815
▁ilman	-8.66893
▁puu	-8.67
teli	-8.67082
▁alueella	-8.67206
▁tiedo	-8.67247
▁kerto	-8.67312
▁ihmis	-8.67581
vel	-8.679
▁Olen	-8.67996
▁ehdo	-8.68224
▁istu	-8.68326
R	-8.6833
▁Ba	-8.68415
▁seuraa	-8.68586
▁vir	-8.68696
▁tulo	-8.68842
▁hy	-8.68892
▁Pohjois	-8.69092
▁ura	-8.69311
▁tunte	-8.69436
▁pitä	-8.69553
▁maksa	-8.69557
▁ryhmä	-8.6956
▁omi	-8.69578
▁Kor	-8.69602
▁vaikea	-8.69609
▁17	-8.69862
▁30	-8.69863
ettu	-8.69866
▁lähi	-8.6996
▁Trumpin	-8.69965
▁hake	-8.70066
pp	-8.70126
▁g	-8.70173
▁piene	-8.70206
▁urheilu	-8.70312
▁kohtaa	-8.70379
▁Yhdysvaltain	-8.70702
don	-8.70708
▁ia	-8.70722
▁tehtävä	-8.70763
▁sijoit	-8.7077
▁pal	-8.70803
E	-8.70822
H	-8.71563
▁siis	-8.71654
▁meni	-8.71769
▁media	-8.71985
▁Näin	-8.72032
▁tie	-8.72076
aika	-8.72147
▁voitti	-8.72167
▁esiinty	-8.72186
▁b	-8.72248
▁maailman	-8.72265
▁yhdessä	-8.72489
I	-8.72635
tävä	-8.72657
▁perjantaina	-8.72871
ing	-8.72874
▁elä	-8.72961
▁X	-8.73141
▁näin	-8.73288
tele	-8.73304
▁de	-8.73625
yn	-8.73674
▁sairaala	-8.73751
▁is	-8.73778
▁kuul	-8.73786
▁13	-8.7384
▁tava	-8.73865
▁puolustus	-8.73866
▁IS	-8.7387
▁päästä	-8.739
uri	-8.73938
▁Voi	-8.73965
▁isku	-8.7401
es	-8.7413
▁siirty	-8.74182
ttele	-8.74284
vy	-8.74492
var	-8.7468
▁näy	-8.74713
▁kuoli	-8.7473
my	-8.74752
ukset	-8.74805
▁sota	-8.7493
▁puolue	-8.75021
▁Per	-8.75104
▁huono	-8.75179
▁miljoonaa	-8.75416
▁vaara	-8.75517
▁lauantaina	-8.75594
▁vero	-8.75722
hin	-8.75773
▁NHL	-8.75775
▁Saksa	-8.75855
▁16	-8.75978
▁Mari	-8.76072
tunut	-8.76093
▁Be	-8.76243
vuo	-8.76296
▁J	-8.76316
▁Pal	-8.76378
▁uhka	-8.76393
▁käyttä	-8.76417
▁tapa	-8.7657
ttua	-8.76708
pää	-8.77027
▁paino	-8.77112
▁kyllä	-8.77203
▁hallituksen	-8.77248
▁lii	-8.77336
▁mitta	-8.7737
▁myy	-8.77373
▁han	-8.77382
▁tiedotteessa	-8.77395
▁kuvi	-8.77397
▁linja	-8.77448
▁viikolla	-8.77467
▁jota	-8.77559
▁turva	-8.77581
▁seuraava	-8.77674
▁yhtiö	-8.77917
▁Da	-8.77943
▁Je	-8.78171
▁oikea	-8.78187
▁kä	-8.7845
▁14	-8.78603
B	-8.78663
▁poika	-8.7886
▁hieman	-8.78909
▁suhtee	-8.78941
uus	-8.79054
▁stä	-8.79213
▁kuinka	-8.79228
▁niitä	-8.79338
▁välillä	-8.7936
▁ensimmäisen	-8.79362
▁kirjoittaa	-8.79369
▁heti	-8.79632
▁kutsu	-8.79643
▁har	-8.7987
▁kaupungin	-8.79877
▁kävi	-8.7997
val	-8.79978
▁nsa	-8.80081
▁Oulun	-8.80104
mmat	-8.80225
mistä	-8.8029
uk	-8.80544
▁alkaa	-8.8059
▁toisen	-8.80669
▁yhtä	-8.80712
▁kan	-8.80723
met	-8.80744
▁2024	-8.80781
▁juhli	-8.80918
▁nosta	-8.80924
▁tehnyt	-8.81122
▁Wi	-8.81164
▁suo	-8.81266
der	-8.81347
▁nimi	-8.81357
▁joita	-8.81412
tetään	-8.81588
ud	-8.81637
berg	-8.81741
▁pelaa	-8.81831
isiä	-8.81979
▁ky	-8.82181
V	-8.82237
▁tänä	-8.82239
▁yhden	-8.82282
voima	-8.82319
▁syö	-8.82365
vien	-8.82481
ttäin	-8.82487
▁täysin	-8.82511
▁et	-8.82602
▁suur	-8.82789
▁päätös	-8.82901
▁kerran	-8.83251
▁pol	-8.83269
▁suure	-8.83517
▁Asia	-8.83561
▁Euroopan	-8.83582
teet	-8.8361
▁Yksi	-8.83674
▁piti	-8.83799
▁Jä	-8.8383
▁myöhemmin	-8.83937
▁halli	-8.83996
▁kahden	-8.84054
▁häntä	-8.84064
▁Orpo	-8.84078
▁Kir	-8.84215
ilija	-8.84293
▁Tur	-8.84315
▁pääsi	-8.84376
▁yö	-8.84472
lly	-8.84623
▁ukse	-8.84743
▁Vuo	-8.849
nes	-8.84969
▁r	-8.85068
▁useita	-8.85096
▁Kai	-8.85118
▁New	-8.85186
▁kään	-8.85209
▁De	-8.85244
▁pieni	-8.85265
▁edusta	-8.85464
▁torstaina	-8.85755
eli	-8.85773
▁valtio	-8.85773
kk	-8.86066
▁jatkaa	-8.86072
▁Kau	-8.8612
▁liikenne	-8.86336
matta	-8.86336
▁nousi	-8.86347
▁25	-8.86457
▁keskus	-8.86671
▁nais	-8.86673
▁ihin	-8.8685
▁ratkaisu	-8.86919
▁läpi	-8.87081
▁halu	-8.87351
▁otti	-8.87499
▁tien	-8.87553
▁tö	-8.87561
▁viikko	-8.87626
▁korva	-8.87654
▁keske	-8.87732
▁vai	-8.87771
▁viide	-8.87845
▁ajo	-8.87987
▁sija	-8.88051
▁ruoka	-8.88156
▁olympia	-8.88183
▁näyttää	-8.88232
▁tiistaina	-8.88421
otto	-8.88608
▁Di	-8.8866
oma	-8.88738
▁par	-8.88758
vuotiaan	-8.88769
▁maanantaina	-8.88779
▁finaali	-8.88835
▁maailma	-8.88993
▁por	-8.89142
▁rauha	-8.89143
▁tehty	-8.89163
▁aiva	-8.89267
▁tuleva	-8.89299
é	-8.89307
▁toisi	-8.89372
▁valta	-8.89412
▁vastaa	-8.8945
neensa	-8.89455
▁Vaikka	-8.89463
▁keskiviikkona	-8.89489
▁Salon	-8.89492
mukse	-8.89527
▁alussa	-8.89558
tyksen	-8.89954
▁koske	-8.90055
fi	-8.90109
▁etu	-8.90136
kunta	-8.90174
▁sivu	-8.90202
▁kuulu	-8.9033
▁silloin	-8.90359
päivä	-8.9043
▁tunne	-8.90438
▁erikois	-8.90444
▁mahdollista	-8.90447
▁asiaa	-8.90679
▁tulla	-8.90741
▁huippu	-8.9079
▁sunnuntaina	-8.90796
▁jatko	-8.90846
▁odot	-8.90946
▁voivat	-8.91198
▁malli	-8.91218
▁Kaikki	-8.91253
▁50	-8.91323
▁suu	-8.91337
ettiin	-8.91414
▁Vir	-8.9146
▁Wa	-8.91519
O	-8.91705
▁koskaan	-8.91728
ottelu	-8.91729
▁Par	-8.91939
▁historia	-8.91954
▁ry	-8.92117
▁py	-8.92227
▁yleis	-8.92286
eh	-8.92322
▁rikos	-8.92358
▁perusteella	-8.92549
▁osu	-8.92566
mässä	-8.9263
▁aloitta	-8.92691
▁raha	-8.92721
▁toiminta	-8.92863
halli	-8.92875
▁tasa	-8.92944
▁usein	-8.9303
▁Suomeen	-8.93437
▁joulu	-8.93442
▁Israelin	-8.93466
▁toteaa	-8.93591
Sanomat	-8.93638
▁euron	-8.93787
▁yritykse	-8.93846
▁ottaa	-8.93911
▁liiga	-8.93983
▁järjestä	-8.93988
▁siellä	-8.9403
▁Tuo	-8.94113
▁muutama	-8.94194
▁yksityis	-8.94217
▁Bu	-8.94243
▁päivi	-8.94279
peli	-8.9437
▁uhri	-8.94523
▁uutisoi	-8.94527
▁asiasta	-8.94542
▁vesi	-8.94588
▁aamu	-8.94642
▁hyväksy	-8.94673
▁kysy	-8.94748
teri	-8.9475
uksesta	-8.9477
▁laji	-8.94818
▁tätä	-8.94969
▁yhä	-8.94991
kea	-8.95044
▁jakso	-8.9505
▁viimeise	-8.95316
aatio	-8.95351
▁Tie	-8.95369
▁käyttö	-8.95423
kuva	-8.95452
▁venäläis	-8.95842
▁turvallisuus	-8.95858
▁mistä	-8.95891
uuden	-8.96155
liiton	-8.9617
ppo	-8.96222
ime	-8.9627
▁hoito	-8.9669
▁kuolema	-8.96712
em	-8.96774
▁luki	-8.96884
▁tapahtui	-8.97107
be	-8.97127
▁viikon	-8.97155
▁pysy	-8.9723
▁Etelä	-8.97268
tori	-8.97283
▁The	-8.97307
▁Salo	-8.97392
ida	-8.97532
▁hinta	-8.97567
'	-8.97585
▁Ca	-8.9762
um	-8.97638
▁kanna	-8.97696
udu	-8.97805
▁ehkä	-8.9783
vuotia	-8.97896
▁tarvitse	-8.97927
▁yhteis	-8.97986
▁huomio	-8.97996
▁äänestä	-8.98017
▁yrittä	-8.98086
▁oikeus	-8.98126
▁ongelma	-8.98227
▁ikä	-8.98306
skus	-8.98336
ttänyt	-8.98373
▁hänet	-8.98464
▁valo	-8.98501
▁kahde	-8.98508
ttanut	-8.98536
▁pidä	-8.98645
▁etsi	-8.98647
▁tuki	-8.98671
▁sijaan	-8.99001
▁voito	-8.99042
sse	-8.99074
▁ensimmäinen	-8.99115
kul	-8.99129
▁joukkueen	-8.9954
▁äiti	-8.99712
▁pääministeri	-8.99756
▁ainak	-8.99762
etaan	-8.99769
miseksi	-8.99776
▁oman	-8.99815
▁nuore	-8.99901
ttelu	-9.00159
▁joissa	-9.00181
▁Z	-9.00393
lö	-9.00489
▁korja	-9.00492
▁ihmistä	-9.00498
viä	-9.0053
▁peri	-9.00566
▁viisi	-9.00572
▁Lue	-9.00587
eltä	-9.0071
▁ääni	-9.00813
▁ker	-9.00916
▁vuosina	-9.01111
▁Kuu	-9.01129
ura	-9.01131
▁muita	-9.01194
▁jättä	-9.01211
▁Sal	-9.01252
▁Norja	-9.01312
▁Putin	-9.01318
▁un	-9.01327
▁ensimmäise	-9.01343
▁ohja	-9.01464
▁nuori	-9.01509
▁saattaa	-9.0154
▁mukaansa	-9.01548
▁ilmoit	-9.01652
▁liikku	-9.01716
lma	-9.01758
▁yleisö	-9.01842
▁jälleen	-9.02045
▁terveys	-9.02114
▁saman	-9.02122
▁lupa	-9.02254
▁mur	-9.02299
▁vaikut	-9.02453
▁sala	-9.02555
▁vuo	-9.02663
▁Fi	-9.02667
▁lähti	-9.02701
▁liitty	-9.02728
ssään	-9.02783
▁metsä	-9.02838
hy	-9.02978
▁suora	-9.03035
▁miljoona	-9.03053
misestä	-9.03056
▁tänään	-9.03095
▁nainen	-9.03105
▁levi	-9.03155
▁tee	-9.03263
▁ihme	-9.03343
set	-9.03356
johtaja	-9.03461
ttely	-9.03533
▁kansa	-9.0358
▁vaikuttaa	-9.03615
▁Tar	-9.03654
▁W	-9.03661
▁pohja	-9.03691
▁ottelun	-9.03695
▁palo	-9.0373
▁korkea	-9.03802
▁vastuu	-9.03851
▁merki	-9.03905
▁muuta	-9.03945
▁uutta	-9.03966
▁joutui	-9.04054
▁Mies	-9.04158
▁tekee	-9.04284
▁liike	-9.043
ber	-9.04322
▁lopulta	-9.04528
▁rooli	-9.04643
▁kärsi	-9.04657
▁lento	-9.04783
▁takaisin	-9.04832
▁iin	-9.04923
▁vapaa	-9.04924
▁tähän	-9.04964
▁pitkään	-9.04971
▁uutis	-9.05148
▁päivänä	-9.05171
▁oppi	-9.05185
▁opi	-9.05436
▁jotain	-9.05441
▁lasten	-9.05479
▁antaa	-9.05515
▁Mä	-9.05534
▁elämä	-9.0572
▁Ole	-9.05747
▁21	-9.05787
▁ulos	-9.05842
▁Mikko	-9.05987
▁Mat	-9.06032
▁suosi	-9.06043
▁Israel	-9.06053
uksessa	-9.06069
▁Hä	-9.06071
▁joiden	-9.06087
▁ope	-9.06147
lloin	-9.06232
▁kaupunki	-9.06233
▁huo	-9.06365
▁meidä	-9.06375
▁Antti	-9.06446
▁myötä	-9.06523
ttelee	-9.06549
lti	-9.06654
▁Kiina	-9.06681
▁tähti	-9.06978
▁nopeasti	-9.07014
▁paras	-9.07081
▁pä	-9.07127
tojen	-9.0713
tulo	-9.07433
▁yhteistyö	-9.07444
ily	-9.07466
isuus	-9.07487
▁käyttää	-9.07503
yttä	-9.07645
▁keskusta	-9.07789
essaan	-9.07791
▁järjest	-9.07904
▁nyky	-9.07915
op	-9.07983
iltana	-9.08013
▁jolla	-9.08029
tie	-9.08039
▁valmentaja	-9.0809
▁Var	-9.08197
▁voidaan	-9.08204
auto	-9.08231
ca	-9.08257
ministeri	-9.08266
▁Ty	-9.084
▁huolimatta	-9.08463
▁usea	-9.08531
▁Er	-9.08588
isu	-9.08727
▁laki	-9.08812
▁ilo	-9.08886
D	-9.08949
oitu	-9.08972
luvu	-9.09076
▁samalla	-9.09189
▁talous	-9.09314
mäki	-9.09315
▁tuomio	-9.09415
▁Esimerki	-9.09448
▁lain	-9.09576
U	-9.09581
▁yritys	-9.09671
ministeriö	-9.09701
▁auton	-9.09728
▁minen	-9.10176
▁di	-9.10187
▁ihmisiä	-9.10281
▁Hel	-9.10402
▁hänelle	-9.10405
▁kerro	-9.1042
▁perheen	-9.10439
mies	-9.10536
▁kymmenen	-9.10636
N	-9.10867
▁22	-9.10868
▁elokuva	-9.10978
▁liian	-9.11029
▁maini	-9.11084
▁miehi	-9.1109
▁päivän	-9.11125
▁asema	-9.11246
▁yliopisto	-9.11355
▁kur	-9.11415
▁tunni	-9.11427
▁yhteydessä	-9.11448
▁Kr	-9.1148
▁kuuluu	-9.11511
▁ohi	-9.11521
kohta	-9.11575
▁Pel	-9.11719
▁löytyy	-9.11757
yyttä	-9.1181
▁järjestelmä	-9.11817
▁40	-9.11992
▁pyrki	-9.12093
▁jouko	-9.12123
▁osaa	-9.12186
▁parhaa	-9.12285
▁lapsen	-9.12306
▁presidentin	-9.12352
▁tule	-9.1242
▁suomalaise	-9.12489
▁terve	-9.12522
utui	-9.12557
▁ottelussa	-9.12634
▁Sy	-9.12649
▁saira	-9.12685
▁joukko	-9.12845
▁Do	-9.12902
▁tapahtumi	-9.12927
▁vaiheessa	-9.12949
▁päivää	-9.13082
▁varoi	-9.13084
▁kerrotaan	-9.13115
▁2021	-9.13207
1-	-9.13312
▁rei	-9.1338
▁lähtö	-9.13393
▁EM	-9.13477
▁Ranska	-9.13498
▁oikeude	-9.13521
▁Yh	-9.1357
▁liitto	-9.13638
▁lähte	-9.13705
▁Mie	-9.13731
▁Pää	-9.13787
▁taloude	-9.13825
▁peruste	-9.13919
ohjelma	-9.14148
▁muista	-9.14158
▁haluaa	-9.14159
▁sijaitseva	-9.14275
▁riski	-9.14317
▁johto	-9.14545
▁helpo	-9.14642
ör	-9.1467
▁suoja	-9.14911
▁24	-9.14915
▁60	-9.14942
▁määri	-9.151
▁peru	-9.15127
▁pako	-9.15338
▁yhteens	-9.15339
▁josta	-9.15653
▁pro	-9.15685
ttö	-9.15703
▁kohta	-9.15974
▁perä	-9.16098
▁minkä	-9.16363
▁kasvo	-9.16574
▁ääne	-9.16647
▁sosiaalise	-9.16659
▁riko	-9.16726
▁asian	-9.16733
nnassa	-9.16775
▁hoita	-9.16802
▁toimintaa	-9.16938
▁paikalla	-9.17015
▁osta	-9.17065
▁tästä	-9.1713
▁missä	-9.17179
▁löytä	-9.17501
kari	-9.17571
▁kohti	-9.17644
llään	-9.17797
▁23	-9.17914
▁keho	-9.18064
▁puolusta	-9.18092
tynyt	-9.18108
ker	-9.18144
▁joista	-9.18161
▁kesken	-9.18243
▁SM	-9.18292
/	-9.18331
liiga	-9.18342
▁virhe	-9.18513
▁saapu	-9.18539
▁epäilty	-9.1858
▁Keski	-9.18824
uudesta	-9.1885
▁kesäkuu	-9.18978
▁Instagram	-9.1905
▁naisten	-9.19056
▁toimittaja	-9.1909
▁Hei	-9.19143
yys	-9.19157
▁pelaaji	-9.19157
▁kulttuuri	-9.19173
▁Ga	-9.19178
▁tta	-9.19203
▁sopimukse	-9.1934
▁My	-9.19393
liitto	-9.19446
▁ajoi	-9.19461
▁tulisi	-9.19536
▁ongelmi	-9.1967
▁synty	-9.19779
▁ehti	-9.19824
▁sodan	-9.19984
▁hieno	-9.20003
▁pääty	-9.20077
▁tuho	-9.20179
▁ympäristö	-9.20488
▁vastaava	-9.20557
▁kyl	-9.20592
▁tapaa	-9.20688
▁totesi	-9.20777
▁tur	-9.20843
▁lääkäri	-9.20864
ettava	-9.20911
▁ruu	-9.20931
toimi	-9.21068
▁sata	-9.21117
▁kaan	-9.21258
▁vanha	-9.214
▁pur	-9.21541
F	-9.21559
▁kirjoitti	-9.21583
▁ruo	-9.2162
▁selvä	-9.21644
▁teko	-9.21669
▁kolmanne	-9.21684
▁tarvi	-9.21684
▁Kan	-9.21707
▁tulokse	-9.21784
▁etelä	-9.21897
▁tilanteessa	-9.21921
▁my	-9.22009
▁kannattaa	-9.22011
▁päälle	-9.22025
▁llä	-9.2203
kää	-9.22109
▁vakuut	-9.22141
▁sotila	-9.22584
eri	-9.22602
▁ilmoitti	-9.22639
määrä	-9.22752
▁muutta	-9.22868
▁kohdistu	-9.22912
ov	-9.23028
wa	-9.23121
ula	-9.23258
▁van	-9.23285
tel	-9.23313
▁asioita	-9.23318
▁Pariisi	-9.23328
▁kaiki	-9.23335
▁Auto	-9.23387
yksiä	-9.23395
▁Suomalais	-9.23433
sson	-9.23437
▁erityisest	-9.23531
▁kilometri	-9.23552
yhtiö	-9.2364
▁murha	-9.23658
▁kansalais	-9.23769
▁haastattelussa	-9.23795
▁marraskuu	-9.23841
▁onnistu	-9.23983
▁asiantuntija	-9.24027
telee	-9.24111
valta	-9.24179
▁haasta	-9.24247
▁pohjois	-9.24258
▁sana	-9.24418
▁miksi	-9.24459
▁Osa	-9.24526
▁johd	-9.24526
▁jätti	-9.24556
▁prosenti	-9.24676
▁normaali	-9.24781
kisoissa	-9.2479
▁ilme	-9.24873
▁lie	-9.24874
▁julkaisi	-9.24886
▁kaiken	-9.24916
▁Lind	-9.25008
▁vaimo	-9.25039
▁elämän	-9.25081
▁ten	-9.25083
▁esittä	-9.25135
▁llise	-9.25138
.)	-9.25217
▁alla	-9.2539
▁juttu	-9.25401
▁toukokuu	-9.25518
▁kö	-9.25692
▁vahvista	-9.25749
▁tärkeä	-9.2582
▁kär	-9.25875
▁Työ	-9.25881
▁tappio	-9.25957
▁Hal	-9.25964
▁Ver	-9.25967
▁parhai	-9.25985
▁ol	-9.2602
▁puoliso	-9.26215
▁olo	-9.26295
sesti	-9.26327
▁valmis	-9.26388
▁päätty	-9.26409
▁lista	-9.26465
▁Ä	-9.2649
▁kansanedustaja	-9.26686
▁tiedä	-9.2669
▁kel	-9.26813
▁poliisin	-9.26823
▁sopi	-9.26857
▁mennä	-9.2689
▁ravintola	-9.26901
▁inen	-9.26917
▁Eli	-9.26984
▁Ker	-9.27041
▁kausi	-9.2714
▁verran	-9.27141
▁bi	-9.27172
▁elämää	-9.27204
ojen	-9.27219
▁maksu	-9.27328
▁ampu	-9.27548
▁tarpee	-9.27675
▁kseen	-9.27759
▁oikein	-9.27762
▁tavoitte	-9.27787
kok	-9.27845
▁elokuu	-9.27869
▁Kyse	-9.27913
▁kanta	-9.27985
▁vei	-9.2804
▁muiden	-9.28043
▁maahan	-9.28141
▁hau	-9.28164
▁tietojen	-9.28175
▁lokakuu	-9.28194
▁muutos	-9.28267
▁asunno	-9.28273
▁Bi	-9.2831
▁osalta	-9.28311
▁matkusta	-9.28412
▁mediassa	-9.28413
▁asunto	-9.28463
täjä	-9.28483
▁Itä	-9.28595
▁silti	-9.28764
▁virka	-9.28857
▁varsin	-9.28905
▁jalkapallo	-9.28962
▁muistuttaa	-9.29095
▁todennäköise	-9.29137
▁Ter	-9.29156
▁juhla	-9.29179
▁joku	-9.29277
usten	-9.29317
ci	-9.29334
llisia	-9.29338
Suomen	-9.29348
▁alueen	-9.29382
▁Py	-9.29413
mpää	-9.29462
▁reilu	-9.29526
▁mieli	-9.29535
▁varmasti	-9.29654
▁valtion	-9.29741
▁takana	-9.29805
▁päävalmentaja	-9.29836
▁edessä	-9.29837
▁alusta	-9.29878
ic	-9.29885
▁laaja	-9.30117
▁100	-9.30133
▁tul	-9.30221
▁Yli	-9.30435
▁antoi	-9.3045
▁omista	-9.30467
▁Tällä	-9.30534
▁arvio	-9.30583
▁kasvu	-9.30725
▁Tässä	-9.30845
mar	-9.30883
▁Tämän	-9.31048
▁pide	-9.31063
▁tuolloin	-9.31124
▁paikalle	-9.31168
isty	-9.31322
▁ystävä	-9.31389
▁jatku	-9.31446
▁Sil	-9.31476
▁avaus	-9.31526
▁tuttu	-9.31612
▁ykkös	-9.3173
▁miseen	-9.31743
▁tunnu	-9.3175
▁misen	-9.31835
▁kauppa	-9.31941
ensä	-9.32011
▁Ilma	-9.32081
▁ssä	-9.32082
▁seuran	-9.32088
ltaan	-9.32112
▁2020	-9.32179
▁kuljettaja	-9.32426
▁kampanja	-9.32519
▁edu	-9.32567
teiden	-9.32641
▁tekemi	-9.32673
▁tarkoitus	-9.32746
▁tarkast	-9.32759
▁pelasi	-9.3281
ster	-9.32815
veri	-9.32824
▁rakenta	-9.32872
▁seitsemän	-9.33194
▁pakka	-9.33276
▁Car	-9.33279
▁täällä	-9.33327
▁rikko	-9.33383
▁kuude	-9.33389
▁tiety	-9.33462
ola	-9.33591
▁elle	-9.33624
▁kokonais	-9.33646
▁vanh	-9.33672
▁istä	-9.33683
▁huone	-9.33719
▁puol	-9.33862
▁Donald	-9.34003
▁hetki	-9.34149
▁edustaja	-9.34241
▁koira	-9.34382
▁Juha	-9.34419
▁suurin	-9.34435
▁käyttöön	-9.34544
▁osoitta	-9.3462
laisten	-9.34633
▁El	-9.3474
▁heinäkuu	-9.34811
▁kuollut	-9.34927
▁esiin	-9.34994
▁Pekka	-9.35153
▁paikan	-9.35159
▁Lii	-9.35316
▁Sitte	-9.35328
▁kohtee	-9.35411
▁tietoa	-9.35561
▁luke	-9.35609
▁tuotta	-9.35618
▁paikoi	-9.35634
▁Kur	-9.35718
▁il	-9.35938
▁nuort	-9.36007
▁sattu	-9.36036
puoli	-9.36076
▁meno	-9.36093
▁mietti	-9.36104
▁Turun	-9.36213
▁kol	-9.36281
▁Ky	-9.36345
▁neuvo	-9.36395
▁Biden	-9.36593
kunnan	-9.36655
▁Vai	-9.3668
oli	-9.36694
lehti	-9.36732
▁johon	-9.36779
vaaleissa	-9.36894
▁maaliskuu	-9.3692
▁For	-9.36968
eitä	-9.37034
▁Kyllä	-9.37107
olo	-9.37111
▁kuvaa	-9.37238
▁vaihtoehto	-9.37276
▁jutu	-9.37306
ard	-9.37328
▁tv	-9.37442
▁olympialais	-9.37558
▁omaa	-9.37625
▁27	-9.37628
▁Mut	-9.37639
▁usei	-9.37667
▁säily	-9.3767
▁naisen	-9.37692
▁ympäri	-9.37816
▁ammatti	-9.37845
▁Haavisto	-9.37872
ham	-9.37903
▁nousu	-9.38117
▁lasku	-9.38135
▁kuusi	-9.38212
▁some	-9.38286
▁mieltä	-9.38337
▁pö	-9.38511
▁mar	-9.3859
empi	-9.38714
▁kertonut	-9.38762
▁Suo	-9.38799
▁kahdeksan	-9.38806
▁pian	-9.38843
laisia	-9.38872
▁Gaza	-9.3896
▁toista	-9.3903
▁lopetta	-9.39195
laiset	-9.39249
alue	-9.39251
isku	-9.39304
▁hal	-9.39432
▁työntekijä	-9.39438
▁lähellä	-9.39585
▁nope	-9.39595
▁järjestö	-9.39634
▁Alexander	-9.39681
▁Il	-9.39886
▁torju	-9.39926
▁suoraan	-9.39966
▁pääse	-9.40007
▁huhtikuu	-9.40047
▁päätti	-9.40134
▁mennessä	-9.40173
▁hyvi	-9.40322
▁Fa	-9.40502
mällä	-9.40558
▁tapahtunut	-9.40783
30	-9.40837
neensä	-9.4088
▁estä	-9.40891
▁syytä	-9.409
▁näyttelijä	-9.40906
▁per	-9.41044
▁Iltalehde	-9.41059
▁Koko	-9.41258
▁tanssi	-9.41322
▁luku	-9.41341
▁lähde	-9.41346
▁iden	-9.41346
▁mahdollisi	-9.41352
▁Syy	-9.41393
▁löytyi	-9.41433
▁vuokra	-9.41525
▁mielen	-9.41544
▁oire	-9.41555
▁ji	-9.41572
▁laise	-9.41674
▁Iltalehdelle	-9.4171
▁Por	-9.41723
▁Vuon	-9.41742
joukkue	-9.41799
▁toimii	-9.41803
▁markkinoi	-9.41897
▁Vil	-9.41961
▁kentä	-9.41967
arvo	-9.42164
▁aloi	-9.42208
▁melko	-9.42277
▁26	-9.42386
▁Helsinki	-9.42396
▁Ensi	-9.42496
▁Her	-9.42558
▁Siinä	-9.42575
▁vil	-9.42579
+	-9.42614
piiri	-9.42671
▁käytännö	-9.42772
▁alkoholi	-9.42772
▁Tai	-9.428
▁keino	-9.42894
▁pyörä	-9.42926
▁liikkee	-9.43036
▁Nu	-9.43077
▁osi	-9.43198
teita	-9.43226
▁aikui	-9.43231
▁julkis	-9.43317
▁Uusi	-9.43318
läinen	-9.43417
▁entinen	-9.43434
▁puolella	-9.43439
▁valtava	-9.435
▁lauantai	-9.43507
▁ba	-9.43554
▁Pri	-9.43596
ärä	-9.43598
gh	-9.43618
▁toimitusjohtaja	-9.43655
▁kulke	-9.43664
▁tärkei	-9.43786
▁tekemään	-9.43806
▁meillä	-9.43849
▁tyyli	-9.43936
▁Kaksi	-9.43954
▁jatkuva	-9.44014
▁pah	-9.44023
▁väkivalta	-9.44035
▁sopimus	-9.44153
▁eduskunna	-9.44163
▁paha	-9.44276
▁liha	-9.44411
▁Kat	-9.44504
ämä	-9.44545
▁Espanja	-9.44545
▁näkyy	-9.44547
▁Kul	-9.44595
▁rakennus	-9.44673
▁rajoit	-9.44683
▁tietää	-9.4476
▁c	-9.4489
▁uudelleen	-9.44976
▁erilaisi	-9.45093
▁aihe	-9.45144
tion	-9.45152
▁aloitti	-9.45268
neita	-9.45278
▁Ranta	-9.45311
▁pallo	-9.45316
▁Mer	-9.45488
▁iä	-9.45494
uuteen	-9.45534
▁metrin	-9.45622
▁tarkka	-9.45711
▁huole	-9.45759
▁lopu	-9.45818
osi	-9.45845
▁liittyvä	-9.45923
▁pyöri	-9.45962
▁kevään	-9.45962
▁selvästi	-9.46033
▁kuukauden	-9.46086
▁tekijä	-9.46115
▁tapaukse	-9.46115
▁olemme	-9.46148
▁joilla	-9.46201
▁tiedot	-9.46201
J	-9.46237
ryhmä	-9.46248
▁tyy	-9.46384
▁suunnitelma	-9.46464
▁Bideni	-9.46602
▁neuvottelu	-9.46625
▁aine	-9.46749
järjestö	-9.46752
▁tekemä	-9.46769
▁tilannetta	-9.46814
▁tulos	-9.46826
▁lähettä	-9.46836
▁Iso	-9.4684
▁klo	-9.47055
▁piha	-9.47062
▁veto	-9.47095
▁vuoro	-9.47107
▁perjantai	-9.47116
▁lähtee	-9.47136
▁selvittä	-9.47155
neiden	-9.47157
▁tausta	-9.47166
▁herättä	-9.47192
▁myynti	-9.47248
▁harjoit	-9.47259
▁puuttu	-9.47395
hka	-9.47516
▁Moni	-9.47551
asema	-9.47641
▁muka	-9.47656
▁ensimmäistä	-9.4766
▁menee	-9.47751
tiiv	-9.47781
ajan	-9.47806
▁Lapin	-9.47833
▁päätöksen	-9.47924
▁70	-9.47955
▁yhteen	-9.48112
▁mm	-9.48241
▁kone	-9.48257
▁kannalta	-9.48296
▁tapauksessa	-9.48306
▁ainoa	-9.48355
▁kantaa	-9.48381
▁näyttä	-9.48446
kerta	-9.48534
▁keskitty	-9.4862
▁jatka	-9.48621
▁tiuk	-9.48631
▁Saari	-9.48737
▁näkö	-9.48831
▁Go	-9.48835
▁vuodesta	-9.48988
▁paikkaa	-9.49084
pallo	-9.49159
▁paikallis	-9.49231
maton	-9.49269
▁tehdään	-9.49287
▁jatkuu	-9.49307
▁ikään	-9.4933
▁menesty	-9.49356
ilee	-9.49414
▁kato	-9.49481
▁rahaa	-9.49496
▁loppuun	-9.49515
▁Yhdysvaltoj	-9.49523
▁kier	-9.49526
▁Tr	-9.49564
syy	-9.49763
▁kuvailee	-9.4984
▁molemm	-9.49998
▁mista	-9.50132
▁riittävä	-9.50152
▁meri	-9.5016
▁kappale	-9.50164
▁Putinin	-9.50177
▁tutkimus	-9.5026
▁vät	-9.5065
▁silmä	-9.50705
▁haaste	-9.50761
▁kaikkia	-9.50832
▁Am	-9.5084
▁muodo	-9.50856
▁Hy	-9.5087
▁valmista	-9.5092
▁Näi	-9.5098
▁tilante	-9.51045
▁York	-9.51155
▁julkaisu	-9.51168
▁Vasta	-9.51179
ström	-9.51286
▁kovin	-9.51323
läis	-9.51342
vänsä	-9.51416
ellyt	-9.51419
▁vierai	-9.51536
ment	-9.51677
▁kirjoitta	-9.5173
▁väitte	-9.51846
paikka	-9.5185
ger	-9.51896
▁emme	-9.51938
▁riippu	-9.51963
▁loma	-9.52073
▁kärki	-9.52154
▁sunnuntai	-9.52235
▁hyökkäys	-9.52246
▁taistelu	-9.52388
▁vaatii	-9.524
▁mihin	-9.52425
▁sanoa	-9.52426
▁tilanteen	-9.52537
▁tarkoittaa	-9.52562
▁töitä	-9.52645
▁tuotanto	-9.52663
▁suuntaan	-9.52663
▁kadu	-9.52666
niemi	-9.52743
▁tyhj	-9.52756
▁energia	-9.528
▁Sama	-9.52816
▁koo	-9.52831
▁tapaus	-9.52845
▁hyvää	-9.5285
ähtiin	-9.5291
▁tarina	-9.52999
▁uusia	-9.53167
▁väri	-9.53275
neuvosto	-9.53278
▁Ala	-9.53313
▁välttämätt	-9.53329
▁etenki	-9.53333
▁valmistu	-9.53349
▁lähtien	-9.53432
kkö	-9.53446
▁Heikki	-9.53476
▁tutkimukse	-9.53535
▁kotiin	-9.53549
▁johtu	-9.53562
▁päällä	-9.5383
▁kilo	-9.53877
▁Petteri	-9.53918
▁Tutki	-9.53964
▁Niin	-9.53964
▁misesta	-9.53985
▁vaikutus	-9.54018
▁väl	-9.54081
▁Elo	-9.54087
▁+	-9.54093
▁mis	-9.54129
▁Helsingissä	-9.54198
ssyt	-9.54255
▁kuolle	-9.54259
▁urheilija	-9.54268
▁suunnitel	-9.54318
▁aikoina	-9.54339
▁Mitä	-9.54388
kilpailu	-9.54432
▁esitykse	-9.54442
▁pak	-9.54526
▁Minu	-9.54617
▁Muu	-9.54645
tietee	-9.54735
▁täytyy	-9.54763
▁tärkeää	-9.54782
▁täyttä	-9.54823
ley	-9.54828
▁Matti	-9.54862
▁seksi	-9.54895
▁STT	-9.54904
▁kunnia	-9.55002
tilaisuudessa	-9.55027
▁2019	-9.55046
▁paremmin	-9.55046
her	-9.55056
joiden	-9.5511
▁vahingo	-9.55188
▁sisällä	-9.55239
by	-9.55457
▁miljardi	-9.55473
▁musiikki	-9.55473
▁päättyi	-9.55509
▁ennuste	-9.55624
▁tili	-9.55629
▁paine	-9.55681
▁vahva	-9.55722
▁pistettä	-9.55727
▁talli	-9.55756
▁hyökkäykse	-9.55758
▁niistä	-9.55763
▁merkittävä	-9.55826
▁tekni	-9.55835
▁varten	-9.55856
▁Oulu	-9.55908
salo	-9.56023
▁hinna	-9.56036
▁Italia	-9.56045
▁kuuluva	-9.56121
▁konser	-9.56148
▁miestä	-9.56228
▁jäänyt	-9.5628
▁selkeä	-9.56332
▁aikoo	-9.56333
▁pyytä	-9.56349
▁dollari	-9.56476
▁tuntuu	-9.56489
▁asioi	-9.56673
▁Laine	-9.56674
▁luu	-9.56733
▁ylä	-9.56741
▁paljasta	-9.5677
▁muoto	-9.56777
▁palkka	-9.56859
▁perussuomalais	-9.56908
▁kysely	-9.57009
▁vahv	-9.57042
▁500	-9.57048
▁voittaja	-9.57144
▁hevos	-9.57185
▁28	-9.57376
▁keskukse	-9.57457
▁paran	-9.57476
▁viiko	-9.575
▁käydä	-9.57574
▁voittanut	-9.57607
▁moottori	-9.57664
▁utu	-9.57674
▁pitki	-9.57688
▁29	-9.57743
▁kylä	-9.57747
▁sotilas	-9.57753
▁Jussi	-9.57757
▁yleensä	-9.57787
▁kannatta	-9.57851
▁turvallis	-9.57936
▁Anna	-9.57985
▁lasta	-9.58093
▁Iltalehti	-9.58095
▁eniten	-9.58098
▁tällai	-9.58187
▁avio	-9.58221
▁saapui	-9.58378
▁halusi	-9.58408
▁nähty	-9.58514
▁Uude	-9.58549
▁tilanteesta	-9.58663
▁kunnossa	-9.58664
▁avulla	-9.58666
▁astee	-9.58741
▁kerta	-9.58782
▁Koti	-9.58828
▁sovi	-9.58956
▁sellainen	-9.5898
▁erityise	-9.58993
▁julkaistu	-9.59101
▁kertovat	-9.59103
▁uima	-9.59107
▁kehittä	-9.59113
▁poja	-9.5921
▁vaike	-9.59251
▁täyde	-9.59344
lehden	-9.59455
huone	-9.59508
▁Viro	-9.59554
▁soi	-9.59583
▁kierrokse	-9.59592
G	-9.59991
▁laitta	-9.60036
▁35	-9.60075
▁nämä	-9.60084
▁kaatu	-9.60099
▁kohde	-9.60102
▁hallinto	-9.6017
▁kansallis	-9.602
▁vakava	-9.60202
▁verkko	-9.60221
▁Lehti	-9.60479
▁kehu	-9.60483
▁puolueen	-9.60514
▁Rovanieme	-9.60591
▁Kanada	-9.60596
▁Ulko	-9.60596
▁lumi	-9.60605
▁minä	-9.60645
▁Meill	-9.60711
▁Reuters	-9.60741
▁vihre	-9.60745
kanava	-9.6078
▁rakenne	-9.61044
▁massa	-9.61091
▁millai	-9.6117
š	-9.61193
▁kuukausi	-9.61211
▁apu	-9.61298
▁minulle	-9.61315
▁omistaja	-9.61332
▁toistaiseksi	-9.61374
▁rakas	-9.61378
▁Katso	-9.61398
▁sosiaali	-9.61445
▁kotona	-9.61535
▁päässä	-9.61638
▁epäillään	-9.61647
utunut	-9.61703
▁helppo	-9.62103
▁perusta	-9.62104
▁piir	-9.62125
▁Luo	-9.62129
▁Sitä	-9.62134
▁vastasi	-9.62145
▁jatkossa	-9.62196
▁pikku	-9.62263
▁lopussa	-9.62361
▁jatkoi	-9.62511
▁nähdään	-9.62543
▁julkise	-9.62837
▁kulje	-9.62872
▁odotta	-9.62945
▁Kii	-9.62989
▁työtä	-9.63017
▁kohu	-9.63047
amp	-9.63101
▁Ste	-9.63319
▁Niinistö	-9.63329
▁perustu	-9.63359
che	-9.63363
▁pääsee	-9.63429
ssu	-9.63456
del	-9.63478
▁alueelle	-9.63491
kisojen	-9.6352
▁Britannia	-9.6392
▁entise	-9.63925
▁tapahtunee	-9.63947
▁vasemmisto	-9.63947
▁minuuttia	-9.6395
▁poistu	-9.64052
▁Aalto	-9.64106
▁Mikä	-9.6411
▁nähdä	-9.6412
▁ravi	-9.64139
Korea	-9.64171
▁käsittely	-9.64303
▁Nor	-9.64347
▁hyvinvointialue	-9.64418
▁Toivo	-9.6442
▁sisältä	-9.64435
▁haastattelu	-9.64474
▁nautti	-9.64735
▁päin	-9.64793
▁Harris	-9.64884
▁lenno	-9.64901
▁hankki	-9.64946
▁vähä	-9.64957
▁Cha	-9.6498
▁poliittise	-9.65079
▁vastusta	-9.6515
utensa	-9.65155
▁Suomea	-9.65199
▁tasolla	-9.65261
▁Väli	-9.65364
kauden	-9.65444
▁Sveitsi	-9.65511
▁Sami	-9.6554
ologi	-9.65555
palvelu	-9.6566
▁Tappara	-9.65669
▁tuore	-9.65692
teltu	-9.65746
▁vähintään	-9.65827
▁saakka	-9.65857
▁kiire	-9.65979
▁näytti	-9.66018
mättä	-9.66025
▁uskoo	-9.66185
▁Venäjällä	-9.66233
▁seksuaali	-9.66285
▁epäilly	-9.66303
▁kaikkea	-9.66307
▁valmi	-9.66348
▁Mäki	-9.66377
▁minuuti	-9.66442
▁työntekijöi	-9.66461
▁Purra	-9.66465
▁Timo	-9.66509
▁ralli	-9.66525
▁Oy	-9.66595
▁ministeri	-9.66613
▁Yhdysvalloissa	-9.6662
tähti	-9.66667
▁saatu	-9.66708
▁summa	-9.66773
▁vähemmän	-9.6678
▁Tällai	-9.66816
▁sille	-9.66843
▁pelannut	-9.66974
▁iksi	-9.67053
zz	-9.67088
▁liito	-9.67122
▁apua	-9.67228
▁Länsi	-9.67262
▁Huo	-9.67295
▁Lauri	-9.67307
piste	-9.67308
▁ansio	-9.67325
kisa	-9.67394
▁kysymys	-9.67427
▁valko	-9.67466
▁viikonloppuna	-9.67477
▁2018	-9.67581
▁johtaa	-9.67583
▁jy	-9.67604
▁musta	-9.6767
▁Silloin	-9.67693
▁Ukrainassa	-9.67733
tien	-9.67776
▁ove	-9.67783
▁kukaan	-9.6782
▁julkisuude	-9.67835
▁monta	-9.67848
▁saatta	-9.67913
elma	-9.67951
▁osoit	-9.67959
▁vää	-9.67975
▁suunta	-9.67988
▁samaan	-9.68001
▁neet	-9.68077
▁esitys	-9.68082
▁välise	-9.68128
▁kohdalla	-9.6822
▁talve	-9.68234
▁Tänä	-9.68498
▁Kesä	-9.68678
▁juoksu	-9.68715
▁yrittäjä	-9.68741
▁ly	-9.68775
▁kyy	-9.68784
▁Andersson	-9.68883
▁vieras	-9.68957
▁Gu	-9.69037
▁Du	-9.69085
▁tulevaisuude	-9.69114
▁täysi	-9.69176
▁laitokse	-9.69214
kkaasti	-9.69248
▁Kim	-9.69314
▁liittyy	-9.6942
▁hallitukse	-9.69496
▁keväällä	-9.69695
▁eteenpäin	-9.69695
▁kesällä	-9.69758
▁operaatio	-9.6986
▁kokonaan	-9.69888
▁Vanh	-9.70138
▁toiminut	-9.70187
▁jälki	-9.70191
▁mahdollisuus	-9.70195
▁teksti	-9.70196
▁talvi	-9.70201
▁numero	-9.7035
vaali	-9.70382
▁Toise	-9.70397
▁suositu	-9.70402
llisuus	-9.70407
▁ollaan	-9.70525
▁ltä	-9.70593
▁tekevä	-9.70699
▁lämpötila	-9.70704
▁Joki	-9.70721
suo	-9.7078
▁tiistai	-9.70817
▁tehtiin	-9.70859
mpe	-9.70928
?	-9.70982
tellut	-9.70988
▁asiakkai	-9.71012
▁(1	-9.71018
▁tapahtuu	-9.71019
▁paljastu	-9.71019
lf	-9.71029
▁raju	-9.71141
▁Pari	-9.71143
▁Paika	-9.71156
▁tyttö	-9.71159
▁jänni	-9.71213
idä	-9.71218
chi	-9.71249
▁kiinteistö	-9.71352
▁iske	-9.71421
▁uransa	-9.71545
▁tutkija	-9.71601
▁nopea	-9.71636
▁Nyky	-9.71709
virasto	-9.71798
▁kirjo	-9.71839
▁kaveri	-9.71992
niiden	-9.72008
▁tuntia	-9.72044
▁Janne	-9.72059
▁käräjäoikeude	-9.72191
▁hiihto	-9.72191
▁edellise	-9.72191
sivusto	-9.72246
▁yritti	-9.72309
kirja	-9.72338
▁odottaa	-9.72341
▁suunna	-9.72349
▁törmä	-9.7236
▁säännö	-9.72361
▁Tanska	-9.72377
▁käde	-9.72388
▁hallinno	-9.72389
▁käytössä	-9.72544
▁Markk	-9.72653
▁Video	-9.72702
▁vetä	-9.72714
▁parempi	-9.7272
▁ex	-9.72784
▁William	-9.72867
▁vapa	-9.72947
▁asiat	-9.73018
▁kahvi	-9.73049
▁vuoteen	-9.73127
▁kokemus	-9.73185
▁Stubbin	-9.7327
▁tuuli	-9.73332
▁ratkais	-9.73338
▁mahdollise	-9.73348
▁avaa	-9.73363
▁laitte	-9.73375
▁suku	-9.73408
▁häiriö	-9.73435
▁sor	-9.73448
▁maailmanmestar	-9.73544
▁käynyt	-9.73589
▁kilpa	-9.73618
aine	-9.73621
▁fani	-9.73644
▁tietä	-9.73658
▁henki	-9.73674
▁Ny	-9.73727
▁We	-9.73751
▁siltä	-9.73847
▁muistu	-9.73849
▁Tor	-9.73888
▁Kansa	-9.73979
▁joulukuu	-9.74061
▁alas	-9.7418
▁super	-9.74195
▁yönä	-9.74347
&	-9.74406
▁Florida	-9.74406
▁kehitys	-9.74406
▁saadaan	-9.74489
▁ele	-9.74551
▁Vladimir	-9.74578
▁viranomai	-9.74598
▁80	-9.74665
▁90	-9.74669
▁Ennen	-9.74954
▁kala	-9.75056
▁alkaen	-9.75107
▁metriä	-9.75239
▁jalka	-9.75264
▁kiinnosta	-9.75271
▁hotelli	-9.75273
▁kansainvälise	-9.75341
▁asiassa	-9.75357
▁sinne	-9.75363
▁lyö	-9.75373
▁tunnettu	-9.75434
▁puolen	-9.75478
▁suru	-9.75624
▁maku	-9.75677
▁itä	-9.7569
▁Suuri	-9.75702
▁Hyvä	-9.75933
▁aikoj	-9.76018
neksi	-9.76028
▁2016	-9.76143
▁sinu	-9.76226
▁Harry	-9.76228
▁riittää	-9.76286
▁suomalainen	-9.76319
▁toteutu	-9.76332
▁laaj	-9.76338
▁taustalla	-9.76379
▁ennätys	-9.76495
▁eläin	-9.76516
▁yhdeksän	-9.7657
▁Puola	-9.76572
▁mestari	-9.76611
%	-9.76671
▁hiihtä	-9.76672
▁pystyy	-9.76714
▁kunnan	-9.7674
▁saavut	-9.76828
▁Bri	-9.76837
▁pelo	-9.76976
▁vaihto	-9.77028
laitos	-9.77045
▁kiito	-9.77072
▁saavat	-9.77074
▁lava	-9.7708
▁ihminen	-9.77205
▁197	-9.77229
▁etene	-9.77238
▁olevi	-9.77332
▁Ry	-9.77442
▁saisi	-9.775
▁Ville	-9.77507
▁tilasto	-9.77535
▁kulta	-9.77545
▁kiekko	-9.77668
▁väite	-9.77713
▁hilja	-9.7774
▁häiri	-9.77757
▁Vantaa	-9.77889
▁yllättävä	-9.77988
▁kumppani	-9.7801
▁ammu	-9.78228
▁vuosikymmen	-9.78233
land	-9.78242
▁suosikki	-9.78251
▁Yhdysvallat	-9.78269
▁2025	-9.78269
▁ajoneuvo	-9.78269
▁isiin	-9.78289
▁torstai	-9.78307
matka	-9.78375
▁juna	-9.78405
▁kilometriä	-9.7841
▁noussut	-9.78448
▁Kär	-9.7846
▁suju	-9.78497
▁tutkinta	-9.78507
elämä	-9.78617
▁Kol	-9.78691
▁iho	-9.78698
▁säästö	-9.78894
▁ennakko	-9.78989
työ	-9.79014
▁surma	-9.79016
▁minun	-9.79054
▁sellaise	-9.79161
▁toiminnan	-9.79183
▁vamma	-9.79218
viestipalvelu	-9.7924
▁lähteä	-9.79293
▁kerrottiin	-9.79297
▁MTV	-9.79349
▁suhtautu	-9.79349
▁entistä	-9.79376
▁hahmo	-9.79534
▁päällikkö	-9.79561
▁tavoite	-9.79564
W	-9.79593
▁kohda	-9.79661
str	-9.7967
å	-9.79712
▁tulevat	-9.79827
▁YK	-9.79847
▁jääkiekko	-9.79964
▁henge	-9.79975
▁lapset	-9.80049
▁ohje	-9.80062
yyden	-9.80111
puolue	-9.8032
taso	-9.8034
uksella	-9.80559
▁armeija	-9.80624
▁harjoitus	-9.80724
▁Aho	-9.80757
▁tehnee	-9.80771
aamuna	-9.80788
▁Pro	-9.81098
▁mitali	-9.81166
▁muisto	-9.81169
▁siirto	-9.81176
▁Olli	-9.81205
isoi	-9.81227
▁Presidentti	-9.81254
▁sopiva	-9.81362
▁tiede	-9.81431
▁kysyi	-9.81565
▁sijaitse	-9.81661
▁syntyi	-9.8167
ttaisiin	-9.81799
▁itsensä	-9.81814
▁pahoi	-9.8183
ttavasti	-9.82012
▁vanhempi	-9.82116
▁Espoo	-9.82164
▁jokaise	-9.82192
▁turnaukse	-9.82311
▁kasvi	-9.82534
▁itseään	-9.8255
▁mahdollisest	-9.82566
mestari	-9.82593
yhtye	-9.82664
▁muutokse	-9.82708
▁Muut	-9.82728
▁demokraatti	-9.82732
▁valinta	-9.82741
▁katse	-9.82744
▁kolmi	-9.82833
▁kuului	-9.82887
▁maanantai	-9.82891
▁paluu	-9.82904
▁alkava	-9.82968
▁osto	-9.83163
▁viha	-9.83188
hoito	-9.83196
▁lääkke	-9.83226
▁kylmä	-9.83254
▁huolta	-9.83307
▁onnistui	-9.83357
▁paina	-9.83357
▁törkeä	-9.83399
▁televisio	-9.83413
▁kysymykse	-9.83414
miel	-9.83607
▁kolmas	-9.83617
▁lakko	-9.83654
▁syyskuu	-9.83681
▁ilmi	-9.83766
▁Zelenskyi	-9.8379
Y	-9.83893
▁runsaasti	-9.83905
ttoman	-9.83954
▁Paul	-9.83993
▁paranta	-9.84028
▁mennyt	-9.84044
▁Leijoni	-9.84169
ksestä	-9.84239
▁nykyise	-9.8429
▁turha	-9.8431
▁Mika	-9.84342
▁tuule	-9.84348
▁illä	-9.84354
▁Jukka	-9.84502
▁hyökkääjä	-9.84698
▁kesänä	-9.84737
▁Joka	-9.84839
▁rakennukse	-9.84932
▁kysymyksi	-9.84935
▁uudistu	-9.84949
▁huomiota	-9.84971
▁hätä	-9.84976
▁väline	-9.85105
▁syksy	-9.85116
▁näkee	-9.85133
▁päähän	-9.85135
▁Meri	-9.85208
suojelu	-9.85222
▁ampuma	-9.85246
▁arki	-9.85289
▁Charles	-9.85316
▁tuomari	-9.85331
▁nouse	-9.85338
▁tulossa	-9.8545
▁itselleen	-9.85499
▁verrattuna	-9.85508
▁toteutta	-9.85509
luvulla	-9.85514
▁vaihta	-9.85515
▁Irani	-9.85605
▁palasi	-9.85616
▁kierroksella	-9.85705
isuuden	-9.85758
▁iski	-9.85872
▁kiinnostu	-9.85894
▁ajaa	-9.86014
▁äidi	-9.86136
▁kieltä	-9.8623
▁vaihe	-9.86242
▁sydän	-9.86282
▁Harrisi	-9.86303
▁yhteisö	-9.86333
▁Oma	-9.86366
rah	-9.86379
▁heitä	-9.86431
▁Catherine	-9.86475
▁kakkos	-9.86537
▁pohti	-9.86539
▁erityis	-9.86679
▁prosessi	-9.86865
▁ydin	-9.87032
▁Siitä	-9.87212
▁ilmasto	-9.87217
▁John	-9.87239
▁kaikille	-9.87276
▁tuu	-9.87299
▁keskellä	-9.87482
▁varma	-9.87637
▁legenda	-9.87648
▁Seura	-9.87709
▁joudu	-9.87756
▁laulaja	-9.8785
▁laiva	-9.87902
▁Itse	-9.87913
▁Pol	-9.87977
▁tahansa	-9.88045
▁joutuu	-9.88054
▁uutistoimisto	-9.88057
▁Tuoma	-9.88082
▁käynni	-9.88084
▁Kemi	-9.88128
▁tunnetu	-9.88187
▁Vuoden	-9.8821
▁luonnon	-9.88244
▁minua	-9.88248
▁Instagramissa	-9.88287
▁auki	-9.88324
▁maajoukkue	-9.8835
▁31	-9.88409
▁(2	-9.8843
▁Syyttäjä	-9.88438
valtuusto	-9.88443
mmaksi	-9.88541
▁sauna	-9.88566
▁Varsinais	-9.88636
▁liittyvi	-9.88645
Sanomien	-9.8869
▁aivo	-9.88726
▁sulje	-9.88836
▁sulke	-9.88842
▁huomauttaa	-9.88845
▁Toimi	-9.88874
▁hoido	-9.88908
▁suhte	-9.89022
▁ehdokkaa	-9.89092
▁este	-9.8916
▁w	-9.89234
▁vaatte	-9.89284
▁luokka	-9.89345
▁suhde	-9.89442
▁45	-9.89454
▁sellaista	-9.89467
holm	-9.89508
▁minull	-9.89514
▁harmi	-9.89816
▁naapuri	-9.89835
▁eteen	-9.89836
▁vuodessa	-9.89837
▁palkinto	-9.8984
▁sairastu	-9.89859
▁huija	-9.89879
▁liikaa	-9.8995
▁pudot	-9.89979
▁meille	-9.90056
▁Mone	-9.90164
▁Nord	-9.90196
▁valvo	-9.90229
▁Eurooppa	-9.90238
▁asiakas	-9.9026
▁tietoja	-9.90443
areena	-9.90499
▁suurimma	-9.906
▁pika	-9.90633
▁luovut	-9.90633
▁Rovanperä	-9.90642
▁löysi	-9.90642
▁puoliväli	-9.90643
▁tuntui	-9.90678
▁komp	-9.90687
▁äänestys	-9.90846
▁lääke	-9.90853
▁ylivoima	-9.91037
▁öljy	-9.91048
▁missään	-9.91063
▁viettä	-9.91096
▁koskeva	-9.91096
▁vierailu	-9.91178
▁samoi	-9.91196
▁Pitkä	-9.91208
▁löyty	-9.91222
▁kehitty	-9.91253
▁valmiste	-9.91311
▁perät	-9.91378
▁helposti	-9.91404
▁saare	-9.91746
▁Wo	-9.91754
▁järk	-9.91763
▁antama	-9.91784
▁tavara	-9.91848
▁aurinko	-9.91866
▁lyhye	-9.91867
▁kome	-9.91884
95	-9.91894
▁selit	-9.92008
▁Sanna	-9.92013
▁pukeutu	-9.92091
▁välttä	-9.92103
▁silmi	-9.92125
▁syntynyt	-9.92148
▁katu	-9.92268
▁prinsessa	-9.92277
▁Euro	-9.92504
▁lämpö	-9.92534
▁yksittäi	-9.92577
▁auttaa	-9.92603
▁mieti	-9.92642
▁helmikuussa	-9.9265
▁Paimio	-9.9269
▁Hallitus	-9.9269
▁kuningas	-9.92691
▁Bar	-9.92714
▁kovi	-9.92851
▁pohtii	-9.93004
▁nousee	-9.93089
▁toiseksi	-9.9317
▁ilmoitukse	-9.93212
liikenteen	-9.93236
▁saanee	-9.93265
▁kuljetta	-9.9327
▁työskentele	-9.93312
▁vähentä	-9.93313
Pohjanmaa	-9.93313
teltiin	-9.93351
▁julki	-9.93363
▁Ed	-9.93507
▁lausunno	-9.9352
▁vauhti	-9.93524
▁kriisi	-9.93533
▁korot	-9.93612
▁Ir	-9.93655
▁syksyllä	-9.9369
isuudessa	-9.93693
▁seurauksena	-9.93735
▁rinna	-9.9389
▁urheilijoi	-9.93938
▁edistä	-9.93944
▁300	-9.93981
▁taakse	-9.94055
▁piiri	-9.94058
▁ehdokas	-9.94078
▁asetta	-9.94097
▁prinssi	-9.94148
▁miehet	-9.94148
vuus	-9.94231
▁veden	-9.94266
▁Aika	-9.9431
▁yle	-9.94312
▁varmaan	-9.9437
▁perinteise	-9.94371
▁Kivi	-9.94371
vuotis	-9.94559
▁lähesty	-9.94565
▁Seuraava	-9.94627
▁vettä	-9.94729
▁kansainväli	-9.94856
▁olemassa	-9.94873
▁henkilökohtai	-9.94886
▁Teemu	-9.94994
▁ketju	-9.94999
-20	-9.9501
▁ilmesty	-9.95018
▁tuoree	-9.95125
▁Oulussa	-9.95212
▁länsi	-9.95249
▁vaihte	-9.95399
pronssi	-9.95401
▁2017	-9.95415
▁Aiemmi	-9.95417
▁tytö	-9.95459
▁ihmist	-9.95465
▁neljänne	-9.95472
▁vastustaja	-9.95572
▁merkki	-9.95636
▁Emm	-9.95685
▁vene	-9.95692
▁laati	-9.95759
▁ruotsalais	-9.95832
▁Kaarina	-9.95842
▁kuka	-9.9586
▁opettaja	-9.95887
▁järve	-9.95934
▁puisto	-9.9607
▁tutustu	-9.96071
▁suosio	-9.96128
poli	-9.96179
▁Halua	-9.96202
▁käänty	-9.96205
▁BBC	-9.96269
▁Tilanne	-9.9627
▁versio	-9.96317
▁ranna	-9.96346
▁terrori	-9.96483
▁hetken	-9.96487
▁laajen	-9.96504
▁bo	-9.96583
▁poikkeuksellise	-9.96716
▁Tampereen	-9.96726
▁lisäänty	-9.96813
▁luopu	-9.96835
▁ymmärtää	-9.96851
▁noste	-9.96853
▁Toki	-9.96913
▁kohtei	-9.96923
▁lehti	-9.9696
▁AFP	-9.9713
▁mielessä	-9.97131
▁sisään	-9.97169
▁puna	-9.9723
▁materiaali	-9.97346
▁osavaltio	-9.97346
▁soitta	-9.97409
▁yhteiskunna	-9.97527
valiokunnan	-9.97564
▁haki	-9.97812
keskukse	-9.97975
▁nähnyt	-9.98002
▁huolto	-9.98003
▁nosti	-9.98013
▁leiri	-9.98063
▁sanottu	-9.98086
▁Hil	-9.98093
▁lopulla	-9.98101
10	-9.98106
▁ryhmi	-9.98225
▁tunnista	-9.98237
▁Kyl	-9.983
immista	-9.98331
▁Onko	-9.98339
▁astetta	-9.98444
rikoksesta	-9.9845
▁heiko	-9.98528
▁alun	-9.98568
ointi	-9.98621
▁joulukuussa	-9.98664
tieto	-9.98767
▁miest	-9.98767
▁aikaisemmin	-9.98899
▁ääri	-9.98906
▁kohtalo	-9.98907
▁Kysee	-9.98942
▁vangit	-9.98943
ittain	-9.98972
▁lipu	-9.99022
▁seudu	-9.99035
▁väkivalla	-9.99095
▁osasto	-9.99213
▁kymmen	-9.99292
▁reagoi	-9.99316
▁Tuolloin	-9.9935
▁mahdollisuude	-9.99439
▁pakko	-9.99478
▁tuhansi	-9.99542
▁Ottelu	-9.99564
▁viestintä	-9.99582
▁korona	-9.99583
▁prosentti	-9.99637
▁lentä	-9.99674
▁vahvasti	-9.99731
▁SDP	-9.99759
▁Samall	-9.99772
▁yrityksi	-9.99809
▁huume	-9.99984
▁viranomaiset	-9.99999
▁kannatus	-10.0004
▁nykyään	-10.0006
▁Johann	-10.0007
▁varuste	-10.0011
▁presidentinvaal	-10.0016
▁vel	-10.0019
▁tyttäre	-10.0021
.00	-10.0023
▁Ihmis	-10.0023
▁Str	-10.0034
▁400	-10.0038
▁tammikuussa	-10.0038
▁ainoasta	-10.0038
▁sähköauto	-10.0047
▁sytty	-10.0052
▁valitti	-10.0065
▁vieraa	-10.0077
▁asioista	-10.0077
▁yllätys	-10.0081
▁naura	-10.0082
▁syystä	-10.0108
▁maailmancupi	-10.011
▁ystävi	-10.0112
urheilu	-10.0118
▁aikataulu	-10.0132
▁muistelee	-10.0134
▁ajatus	-10.0136
▁muisti	-10.0137
▁kyky	-10.0139
▁kerty	-10.014
turvallisuuden	-10.0146
▁ukrainalais	-10.0155
▁synny	-10.0157
▁syöpä	-10.0161
▁Q	-10.0176
▁lapse	-10.0176
▁käräjäoikeus	-10.0178
▁34	-10.0178
▁antanut	-10.0181
▁voittaa	-10.0187
▁rahoitus	-10.019
▁korkei	-10.0192
▁Sch	-10.02
▁Lehto	-10.0201
▁helmikuu	-10.0205
▁HS	-10.0239
keskus	-10.0241
▁Ant	-10.0247
▁tammikuu	-10.0251
▁joutunut	-10.0254
▁suostu	-10.0255
▁investoi	-10.0269
▁kuukautta	-10.0269
▁mikään	-10.0273
▁asuva	-10.0274
▁36	-10.0288
▁positiivis	-10.0292
▁harrasta	-10.0292
▁mukava	-10.0299
kielto	-10.0299
▁Niemi	-10.03
▁tapauksi	-10.0311
▁uuteen	-10.0315
▁lahja	-10.0317
Karjala	-10.0318
▁liikunta	-10.032
▁väärä	-10.0323
▁eläke	-10.0328
▁Talo	-10.0329
▁CNN	-10.0338
▁ajattele	-10.0339
▁reissu	-10.0339
▁huomattavasti	-10.0348
▁syyskuussa	-10.0351
▁Ensimmäise	-10.0355
▁Unkari	-10.0361
▁mukaisesti	-10.0368
▁Palo	-10.0374
aattori	-10.0375
▁käytetty	-10.0382
▁oppositio	-10.0384
▁harvinais	-10.0384
ario	-10.0384
▁Lähi	-10.0384
▁hurja	-10.0385
▁lippu	-10.0396
▁salli	-10.0402
vaara	-10.0403
▁suoritus	-10.0407
▁puhee	-10.0407
kokoukse	-10.0408
mätön	-10.0424
▁otettu	-10.0425
▁Suomesta	-10.043
▁vauhdi	-10.043
▁Kolme	-10.0434
▁tullee	-10.044
▁tapo	-10.0446
▁aiheutti	-10.0453
▁Times	-10.0454
▁nukku	-10.0455
▁Sano	-10.047
▁tarvitaan	-10.0475
▁oikeasti	-10.0476
lahde	-10.0477
▁saavutta	-10.0482
▁kumma	-10.0482
llisten	-10.0488
▁varmista	-10.0489
▁hyödy	-10.0491
▁peit	-10.0497
ü	-10.05
▁pelkä	-10.0507
▁Varha	-10.0509
▁32	-10.0512
▁kaupan	-10.053
▁kuski	-10.0535
▁kokoomukse	-10.0547
▁aktiivi	-10.055
▁viittaa	-10.0552
tely	-10.0555
▁dokument	-10.057
▁juontaja	-10.057
▁britti	-10.0571
elmi	-10.0581
▁kritisoi	-10.0594
▁tiimi	-10.0599
▁ammattilais	-10.06
▁Joukkue	-10.0618
▁Toyota	-10.0618
▁mieleen	-10.0618
▁tehdy	-10.0618
▁ulkoministeri	-10.0621
▁pinta	-10.0629
▁näitä	-10.0637
▁väestö	-10.0641
▁perintei	-10.0651
▁nimittä	-10.0662
▁löydet	-10.0665
▁Urheilu	-10.0665
▁republikaani	-10.0665
▁Vielä	-10.0666
▁valmenta	-10.067
▁puolet	-10.0671
▁tyyty	-10.0676
▁kymmene	-10.0677
▁vajaa	-10.0697
▁kiusa	-10.0701
▁luonto	-10.0703
▁henkilöstö	-10.0704
▁pärjä	-10.0713
lehdelle	-10.0719
▁tulevi	-10.0728
▁maajoukkuee	-10.0734
▁Valtio	-10.0749
mmät	-10.0752
▁kuvaili	-10.0755
▁riittä	-10.0756
▁tiedustel	-10.0758
▁ranta	-10.0759
▁Facebook	-10.0761
▁avoime	-10.0761
▁Suur	-10.0764
mpana	-10.0766
▁houkut	-10.0768
▁mahdollisuuksi	-10.0785
▁päättää	-10.0786
▁myöntää	-10.0787
▁hymy	-10.0791
▁hävit	-10.0805
▁seinä	-10.0805
▁tuotte	-10.0807
form	-10.0809
▁kieli	-10.0813
▁yhtään	-10.0834
▁valmistautu	-10.0834
▁menettä	-10.0835
▁järjestetä	-10.0837
▁paitsi	-10.0858
▁kasvatta	-10.0858
▁käyttäyty	-10.0866
▁velje	-10.0871
▁kapteeni	-10.0881
▁havainto	-10.0881
▁sekunni	-10.0882
▁Syyria	-10.0885
▁Lauantai	-10.0906
▁llisi	-10.0906
▁päivittä	-10.0906
▁haluaisi	-10.0919
▁kohd	-10.092
▁pahoinpitely	-10.093
▁syvä	-10.0933
▁ilmiö	-10.0936
▁2014	-10.0955
▁Mäkelä	-10.0955
▁puolelle	-10.0955
▁eduskuntaryhmä	-10.0955
▁käynnissä	-10.0958
▁tilanteeseen	-10.0958
▁heittä	-10.0963
▁tiellä	-10.0965
sihteeri	-10.0979
▁siirtä	-10.0979
▁tunnelma	-10.0985
▁ymmärtä	-10.0986
▁Pelto	-10.0988
▁Ab	-10.0989
▁tytär	-10.1004
▁Sdp	-10.1004
▁Sha	-10.102
▁syyttäjä	-10.1028
▁Usko	-10.1031
kausi	-10.1038
pyy	-10.1041
▁Hanna	-10.1041
▁of	-10.1041
▁keikka	-10.1042
▁tehta	-10.1044
▁eduskunta	-10.1052
▁kunnioit	-10.1054
▁City	-10.1055
▁suojel	-10.1055
▁tavoin	-10.1058
seura	-10.1064
ranta	-10.1065
▁Lopul	-10.1067
▁Nainen	-10.1071
▁lähdö	-10.1078
▁Meidä	-10.1083
▁hengi	-10.1084
▁Miten	-10.1094
päällikkö	-10.1098
▁Kaleva	-10.1104
▁taju	-10.1114
▁levy	-10.1122
▁Hizbollah	-10.1127
▁rangaistus	-10.1137
▁Euroopassa	-10.1152
▁Sport	-10.1152
▁tuomittiin	-10.1152
▁hö	-10.1157
▁osuus	-10.117
▁hyöty	-10.1178
sso	-10.1178
▁pommi	-10.1195
▁kirje	-10.1198
▁kuukaude	-10.1208
▁Joona	-10.1211
▁aluksi	-10.1214
▁kriitt	-10.1228
järvi	-10.1228
▁huolestu	-10.1229
▁elämässä	-10.1235
▁lopet	-10.1237
iemen	-10.1246
▁Jyväskylä	-10.1253
▁Japani	-10.1254
▁kaltai	-10.1255
▁196	-10.1256
▁Jenni	-10.1256
▁tavoitteena	-10.1258
▁koulutus	-10.127
▁merkittävästi	-10.1273
▁lukuisi	-10.1279
▁yksikö	-10.1281
▁lähtenyt	-10.1281
▁epäily	-10.1289
▁Libanoni	-10.1329
▁Perjantai	-10.1329
▁artikkeli	-10.1329
▁runkosarja	-10.1329
▁ulkopuol	-10.1332
▁tauo	-10.1335
emp	-10.1337
▁Yrit	-10.1339
▁33	-10.1347
voimien	-10.135
▁astu	-10.1354
▁johtava	-10.1355
▁raiska	-10.1356
▁tällaise	-10.1377
▁korostaa	-10.138
▁tulipalo	-10.138
▁miehell	-10.138
▁nuo	-10.1381
▁näyttävä	-10.1382
▁nimenoma	-10.1383
▁vaiva	-10.1402
tso	-10.1404
▁olosuhtei	-10.1405
▁alkanut	-10.1406
▁kulku	-10.1406
▁hoid	-10.1407
▁projekti	-10.1431
▁politiikan	-10.1436
▁täyte	-10.1444
▁viranomaist	-10.1451
▁yhtenä	-10.1457
▁Daniel	-10.1457
▁markkina	-10.1457
▁aikaise	-10.1467
▁valita	-10.147
ohja	-10.1477
▁hirveä	-10.1482
▁mestaruude	-10.1482
▁uha	-10.1484
▁valitu	-10.1493
▁purka	-10.15
▁Ihan	-10.1509
▁sammu	-10.1515
▁pysyvä	-10.152
▁perään	-10.1527
▁HIFK	-10.1534
▁päätöksi	-10.1534
koulu	-10.1536
▁vaihtu	-10.1537
▁väärin	-10.1542
▁pidetään	-10.1544
▁laatu	-10.1549
▁yksilö	-10.1551
kahta	-10.1576
▁yhteyttä	-10.1586
▁Ehkä	-10.1587
▁ryhty	-10.1588
▁paikallise	-10.1591
▁pitävä	-10.1592
tomia	-10.1609
]	-10.1612
▁USA	-10.1612
▁kamera	-10.1615
▁naiset	-10.1619
▁kerää	-10.1625
kyky	-10.1626
▁vakavasti	-10.1632
▁amerikkalais	-10.1638
▁strategi	-10.1638
▁artisti	-10.1639
▁halunn	-10.1641
▁käytöstä	-10.1654
kymmentä	-10.1657
▁Joensuu	-10.1665
▁[	-10.1665
▁suoritta	-10.1667
▁Minull	-10.1668
▁Edell	-10.1679
▁nähtä	-10.1687
q	-10.169
▁Moskova	-10.1691
▁naimisi	-10.1691
▁Sää	-10.1697
▁suunnitelmi	-10.1699
▁vaikutukse	-10.1699
▁urallaan	-10.1705
▁tiedotti	-10.1716
▁myrsky	-10.1717
▁sähköposti	-10.1717
illut	-10.1717
lääkäri	-10.1719
▁valvonta	-10.1732
▁varautu	-10.1736
▁Red	-10.1745
▁Kansainväli	-10.177
▁suurempi	-10.1772
Suomessa	-10.1773
▁kilpaile	-10.1776
▁pääsy	-10.178
▁selkä	-10.1786
▁mestaruus	-10.1797
▁Oikeus	-10.1797
varainministeri	-10.1797
▁odotetaan	-10.1802
▁todennäkö	-10.1806
▁vauva	-10.1808
▁Venäläi	-10.1824
elokuva	-10.1827
▁heikko	-10.1839
▁37	-10.1847
▁maalivahti	-10.185
▁Kreml	-10.185
▁hovioikeu	-10.1851
▁professori	-10.1851
▁rikollis	-10.1857
▁pelkästä	-10.1873
▁tiivis	-10.1876
▁Päivä	-10.1877
kisoihin	-10.1877
▁bussi	-10.1878
▁näytö	-10.1879
▁ulkopuolella	-10.1881
▁lainkaan	-10.1889
▁lämmit	-10.19
▁teatteri	-10.1904
▁leikkaus	-10.1905
▁pyysi	-10.1905
▁jäädä	-10.1908
mitali	-10.1918
▁organisaatio	-10.1931
▁Lähe	-10.1931
▁hankkee	-10.1934
yksessä	-10.1937
▁Juttu	-10.1938
▁musiiki	-10.1958
▁rahoi	-10.1977
ttömän	-10.1982
Ö	-10.1985
▁vankila	-10.1985
▁sairaus	-10.1991
▁kaasu	-10.1996
pano	-10.1999
▁aiempaa	-10.2012
▁Toisaal	-10.2012
▁syyllisty	-10.2014
▁virallise	-10.2016
▁epäilee	-10.2017
▁alueilla	-10.203
▁iltapäivällä	-10.2039
▁kerralla	-10.2041
▁raskaa	-10.2051
▁panos	-10.2052
▁varsinkin	-10.2052
▁hävisi	-10.2067
▁Koska	-10.207
▁soitti	-10.208
▁kaupungissa	-10.2094
▁kritiikki	-10.2094
▁Metsä	-10.2095
▁38	-10.2098
pelaaja	-10.2101
luokan	-10.2114
▁hiljattain	-10.2122
▁sellaisia	-10.2122
▁kestävä	-10.2128
▁löytynyt	-10.2136
▁Anni	-10.2145
▁tarkist	-10.2148
▁vanhemma	-10.215
▁Viesti	-10.2151
oikeus	-10.2156
▁tyyppi	-10.216
▁lukema	-10.2161
▁Käy	-10.2162
▁ennätykse	-10.2177
▁onnistunut	-10.2177
▁loukkaantui	-10.2205
▁lausunto	-10.2205
▁nähden	-10.2206
▁Kamal	-10.2228
media	-10.2248
▁homma	-10.2259
▁kuninkaallis	-10.226
▁myönsi	-10.226
▁vahinko	-10.226
▁rakente	-10.2261
▁Tampereella	-10.2263
▁kyseise	-10.2267
▁hidas	-10.2283
▁tähden	-10.229
kaupunki	-10.2297
▁Usei	-10.2308
▁ikävä	-10.2311
▁ohjus	-10.2316
▁käynnisty	-10.2318
▁laski	-10.2321
▁muodostu	-10.2321
▁politiikkaa	-10.2322
▁Star	-10.2328
▁Loimaa	-10.2335
▁Niskanen	-10.2344
▁luottamus	-10.2344
▁harkit	-10.2346
▁matala	-10.2351
▁Haapa	-10.2352
▁kene	-10.2356
▁yhdisty	-10.2364
▁jaksa	-10.2367
▁Molemm	-10.2369
▁Olympia	-10.2372
▁pelastus	-10.2372
▁ikkuna	-10.2373
▁Koivu	-10.2373
uksien	-10.2376
▁Cup	-10.2376
▁tuskin	-10.2383
▁puhdist	-10.2404
far	-10.2405
▁Patri	-10.2407
elty	-10.2407
▁ehdokkai	-10.2411
▁vaikeuksi	-10.2417
▁laulu	-10.2422
▁halv	-10.2423
▁Washington	-10.2429
▁tyytyväinen	-10.2429
▁alkuperäi	-10.2429
▁käsitellä	-10.2436
▁Ensimmäi	-10.2436
▁käyttäjä	-10.2441
▁Martin	-10.2446
▁etukäteen	-10.2457
▁saattoi	-10.2458
▁julkisuuteen	-10.2459
▁Perhe	-10.2461
▁pankki	-10.2465
▁haave	-10.2468
▁käytetään	-10.2475
▁tiedottaa	-10.2483
▁Euroviisu	-10.2486
▁paikalta	-10.2486
▁lämpimä	-10.2487
▁39	-10.2514
▁Pelicans	-10.2514
▁itsestään	-10.2515
▁selviää	-10.2519
▁lautakun	-10.2526
▁Air	-10.2538
▁Andre	-10.2543
▁vaikutti	-10.2553
neuv	-10.256
podcast	-10.2572
▁yksinkerta	-10.2572
▁askel	-10.2573
▁Lapissa	-10.2573
▁vetäyty	-10.2575
▁varasto	-10.2577
▁osuma	-10.2579
▁Henri	-10.2587
▁puhelin	-10.2599
▁ydinase	-10.2601
▁kiertä	-10.2607
▁Tähä	-10.2608
▁Koulu	-10.263
▁välierä	-10.2631
▁laadu	-10.2632
▁väitti	-10.2633
▁kokouksessa	-10.2647
▁sekuntia	-10.2659
▁huomasi	-10.2659
▁yhdysvaltalais	-10.2659
▁kiele	-10.2673
▁Barkov	-10.2689
▁kiertue	-10.2689
▁yrit	-10.2693
▁kappalee	-10.2695
▁TV	-10.2703
▁toisell	-10.271
▁Trumpia	-10.2714
▁joukkoon	-10.2715
▁Erityise	-10.2717
▁kestää	-10.2721
▁viisu	-10.2721
▁siviili	-10.2746
▁kohtuu	-10.2746
▁museo	-10.2747
▁vaadi	-10.2749
▁Pääministeri	-10.275
▁raportoi	-10.2775
▁sisältö	-10.2775
▁Päivi	-10.2775
▁vuodelta	-10.2775
▁ylös	-10.2775
▁rohke	-10.2777
▁Liiga	-10.2785
▁julkaisema	-10.2786
▁katke	-10.2794
▁ohjuks	-10.2805
▁radio	-10.2806
▁vieraili	-10.2817
▁myöntä	-10.2832
▁kokoonpano	-10.2834
▁Englanni	-10.2864
▁puolustukse	-10.2864
▁ympärillä	-10.2872
▁Mikael	-10.2873
▁44	-10.2876
▁Erik	-10.2878
▁hankala	-10.2894
▁tietenk	-10.2905
▁selvitykse	-10.2916
hoido	-10.2918
▁keittiö	-10.2923
▁yhdistä	-10.2923
▁mielipite	-10.2924
▁edellä	-10.2925
▁velka	-10.2932
▁Joulu	-10.2938
▁tietty	-10.2943
▁Käräjäoikeu	-10.2953
▁2015	-10.2953
▁verkkosivu	-10.2954
▁arvostel	-10.2957
▁terä	-10.2972
▁mielenkiinto	-10.2983
▁huolissaan	-10.2983
▁välittömästi	-10.2983
▁onnettomuus	-10.2983
▁merkittävi	-10.2983
▁upea	-10.2988
voitto	-10.3002
▁West	-10.3008
▁yhteise	-10.3009
▁häly	-10.3011
▁vaurio	-10.304
▁suunnittele	-10.3043
▁valitse	-10.3044
▁Emil	-10.3044
▁jälke	-10.3047
▁käsittele	-10.3049
lund	-10.3055
▁Jess	-10.3061
▁Sähkö	-10.3073
▁Pelastuslaito	-10.3073
▁ennakoi	-10.3073
▁möki	-10.3074
▁todista	-10.3074
▁Media	-10.3076
▁koulutukse	-10.3077
▁pitkäaikai	-10.3081
▁paketti	-10.3082
▁konee	-10.3091
▁paljasti	-10.3104
▁sydäme	-10.3134
▁lentokone	-10.314
▁sitoutu	-10.3141
▁Loppu	-10.3146
▁tuotteita	-10.3151
▁valmennus	-10.3165
▁vyö	-10.3166
ttomasti	-10.3167
▁ajankohta	-10.3176
kauppa	-10.3185
tilillään	-10.3194
▁Australia	-10.3195
▁Koskela	-10.3195
▁siirret	-10.3195
▁tuomitsi	-10.3195
▁Robert	-10.3196
▁hehku	-10.3196
▁luvan	-10.3216
▁tauti	-10.3218
▁uudis	-10.3227
▁Innes	-10.3229
▁hämmen	-10.323
▁Uutis	-10.3234
▁ansait	-10.3244
Stubb	-10.3245
▁töihin	-10.3255
▁parlamenti	-10.3257
Amerika	-10.3258
▁törkeäst	-10.3259
▁pinna	-10.326
saare	-10.3283
▁pysähty	-10.3287
▁Anton	-10.3291
▁huomaa	-10.3302
ymmärr	-10.3317
▁suunnittelu	-10.3318
▁lehdistö	-10.3318
▁innostu	-10.3319
▁muuttui	-10.3319
▁asiakkaa	-10.3323
▁Heidä	-10.3326
▁hyvinvointi	-10.3349
iihen	-10.335
▁viikonlopu	-10.335
▁luvassa	-10.3351
▁syöttö	-10.3354
▁avautu	-10.3363
järven	-10.3368
▁katto	-10.3374
▁epävarm	-10.3382
▁viedä	-10.339
politiikka	-10.3406
▁keskimäärin	-10.3412
▁reaktio	-10.3412
▁irti	-10.3414
▁maine	-10.3415
▁nykyisi	-10.3418
▁hauska	-10.3426
▁Kahde	-10.3432
▁Marini	-10.3439
▁hybridi	-10.3443
▁Sosiaali	-10.3443
▁yllättäen	-10.3444
▁Yhtiö	-10.3444
▁tasavalla	-10.3444
▁piilo	-10.3446
▁tuottee	-10.3467
▁esimerkki	-10.3475
▁pient	-10.3491
▁muistel	-10.3504
▁Ruotsalai	-10.3506
▁teknologia	-10.3506
▁kommentti	-10.3506
▁arje	-10.3509
▁henkilöauto	-10.3517
▁muuttunut	-10.3523
turnaus	-10.3524
▁HJK	-10.3538
▁heikentä	-10.3538
▁kymmeniä	-10.354
▁edeltä	-10.354
▁paperi	-10.3543
▁lähetys	-10.3555
ehdokas	-10.3561
▁läsnä	-10.357
▁potku	-10.3574
▁syksynä	-10.3577
▁Max	-10.3579
▁tarkoitt	-10.3595
▁tarkemmin	-10.3602
▁Neljä	-10.3602
▁ikinä	-10.3605
▁kokemukse	-10.3613
▁Alue	-10.3616
▁yhdiste	-10.3633
▁julkaiss	-10.3633
▁Harkimo	-10.3634
▁järjestely	-10.3634
▁harjoittelu	-10.3638
▁47	-10.3639
▁kulma	-10.3645
▁seiso	-10.3647
▁palkan	-10.365
millään	-10.3663
▁asukkai	-10.3664
▁Finland	-10.3666
▁erinomai	-10.3668
▁46	-10.367
▁Nokia	-10.3671
▁Musk	-10.3683
▁viralli	-10.3686
liikenne	-10.3691
neeseen	-10.3698
▁minuut	-10.3701
▁ohell	-10.3712
▁milloin	-10.3718
▁Puolustus	-10.3726
▁rintama	-10.3731
▁metri	-10.3735
▁suomen	-10.3746
▁Vasemmisto	-10.3762
▁ohjelmi	-10.3763
▁Kallio	-10.3763
▁keskiviikko	-10.378
▁kuningatar	-10.3795
▁täynnä	-10.3795
▁dr	-10.3814
▁raporti	-10.3827
▁loukkaantumis	-10.3827
▁Kuopio	-10.3827
▁Chris	-10.3828
▁Hallitukse	-10.3828
▁keräsi	-10.3829
Uuden	-10.3838
▁kenttä	-10.3844
▁väliaika	-10.3845
▁valmistelu	-10.3847
▁yhdeks	-10.3849
▁vapaaehtois	-10.386
▁lataus	-10.3863
▁Myöhemm	-10.3893
▁epäonnistu	-10.3893
▁poikkeus	-10.3893
▁rauhoit	-10.3893
▁treeni	-10.3893
▁Somero	-10.3893
▁Super	-10.3916
▁yleisurheilu	-10.3928
▁Juuso	-10.3929
▁mainos	-10.393
▁päivitykse	-10.3937
▁800	-10.394
valiokunta	-10.3959
▁vahvisti	-10.396
▁pöytä	-10.3967
▁Aino	-10.3983
▁Michael	-10.3992
▁näkökulmasta	-10.3992
▁pysäyttä	-10.3993
▁paremma	-10.3995
▁Kristi	-10.3995
yökkä	-10.3997
▁putke	-10.3998
▁lyhyt	-10.4025
▁tavanoma	-10.4025
▁varrella	-10.4026
▁leika	-10.4032
▁itsenäi	-10.4033
▁hyödyntä	-10.4037
▁poseera	-10.4058
▁ajatella	-10.4059
▁toimeen	-10.4059
▁avusta	-10.4061
▁siivo	-10.4061
▁polttoaine	-10.4092
▁katkais	-10.4092
▁tavallise	-10.4094
▁vakavi	-10.4095
Sanomille	-10.4095
▁kaipaa	-10.4096
▁useamma	-10.4109
▁eteni	-10.4109
▁ulkoministeriö	-10.4136
▁punaise	-10.4146
▁Valtter	-10.4149
▁varsinaise	-10.4152
▁allekirjoit	-10.4152
▁pudotuspeli	-10.4159
▁työmarkkina	-10.4159
▁todiste	-10.4159
▁selittää	-10.4163
▁oppilai	-10.4164
▁rauta	-10.4174
▁lämmin	-10.4178
▁2012	-10.4193
▁unelma	-10.4196
▁veny	-10.4212
▁rasva	-10.4216
▁merkitystä	-10.4227
▁bändi	-10.4227
▁enempää	-10.4227
▁yhteyden	-10.4229
▁menehty	-10.423
▁Aamu	-10.4234
▁Jääkiek	-10.4254
▁kamppailu	-10.4261
▁Lontoo	-10.4261
▁ranskalai	-10.4261
▁valmiiksi	-10.4262
▁kilpailija	-10.4264
▁Ilves	-10.4265
▁avasi	-10.4272
▁Kanerva	-10.4295
▁voitaisiin	-10.4296
▁seitsemä	-10.4297
▁asukkaa	-10.4301
▁mahtu	-10.4304
▁Tomm	-10.4325
▁yhteys	-10.4329
▁edustus	-10.4329
▁Asiantuntija	-10.4363
▁vaihdo	-10.4364
▁Latvia	-10.4365
▁löi	-10.4383
▁keika	-10.4389
▁Lindtman	-10.4398
▁kunnolla	-10.4399
▁huuto	-10.44
▁kannattaji	-10.4417
▁menestykse	-10.442
▁äänestykse	-10.4433
▁Tapahtuma	-10.4467
▁eläkkee	-10.4469
▁pidetty	-10.448
▁sävy	-10.4481
▁käytettä	-10.4495
▁ilmoittanut	-10.4503
▁hylk	-10.4505
▁Dallas	-10.4506
▁vaikuttavat	-10.4506
▁idea	-10.4516
▁Leijona	-10.4537
▁2013	-10.4537
▁tekoäly	-10.4537
▁klass	-10.454
▁kieltäyty	-10.4541
▁kokoontu	-10.4544
▁aiheutu	-10.4545
▁raivo	-10.4576
▁kahdeksa	-10.4581
▁väsy	-10.4583
▁vastaanott	-10.4588
▁ohjaaja	-10.4593
▁rokot	-10.4601
paikan	-10.4601
▁Ainak	-10.4604
teollisuude	-10.4608
▁nousta	-10.4612
▁vaihde	-10.4622
▁2026	-10.4643
▁käytökse	-10.4643
▁paikasta	-10.4643
▁vuosittain	-10.4647
▁annettu	-10.4648
päivi	-10.4655
▁viimeistel	-10.4662
▁lattia	-10.4664
▁kallii	-10.4668
▁ajatteli	-10.468
▁putosi	-10.468
▁kuluttaja	-10.4693
gren	-10.4694
▁Näyttelijä	-10.4714
▁päätteeksi	-10.4714
▁tekijöi	-10.4714
▁otsiko	-10.4714
▁litra	-10.4717
▁tiedottaja	-10.4726
▁tiedotteen	-10.4727
maksu	-10.4749
▁oikeuksi	-10.475
▁valikoi	-10.475
▁Ilvekse	-10.475
▁presidentiksi	-10.475
hyppy	-10.4751
▁kierros	-10.4761
▁Helena	-10.4763
▁terveyden	-10.4772
▁Perussuomalais	-10.4785
▁Tiktok	-10.4785
▁pariskunta	-10.4785
▁yhteiskunta	-10.4792
▁mahdollinen	-10.4821
▁poliittisi	-10.4821
▁evakuoi	-10.4821
▁kehitykse	-10.4821
▁kerrostalo	-10.4822
▁kuiva	-10.4852
▁elokuvi	-10.4857
▁tuotanno	-10.4857
▁leikkauksi	-10.4858
▁valittu	-10.486
▁toimittaji	-10.4861
▁2010	-10.4862
tomuus	-10.4865
▁Georgia	-10.4894
▁parlamentti	-10.4894
▁irtisano	-10.4894
▁parempaa	-10.4894
Carolina	-10.4895
▁samanlai	-10.4898
▁muualla	-10.4906
▁Kataja	-10.4916
▁fyysi	-10.4923
▁Verstappen	-10.493
▁melkein	-10.493
▁mökki	-10.493
▁ulkomaalais	-10.4932
▁ääre	-10.4933
▁valinna	-10.4935
▁ajaksi	-10.4949
▁eurooppalais	-10.4966
▁äärimmäise	-10.4966
▁työnantaja	-10.4966
miehen	-10.4975
▁poiki	-10.4975
▁vaikutuksia	-10.4983
▁rahoitukse	-10.5003
▁hallussa	-10.5003
▁Turussa	-10.5006
komitea	-10.5007
▁ajautu	-10.5026
lukemi	-10.5035
▁enemmistö	-10.504
▁mahdoton	-10.504
▁tasapaino	-10.504
▁poliitikko	-10.504
▁periaatte	-10.504
▁toiminnasta	-10.504
▁väittää	-10.504
▁pidemmä	-10.5043
▁viihty	-10.5048
pelastuslaitokse	-10.5077
▁Kilpailu	-10.5077
▁anteeksi	-10.5077
▁tuomioistui	-10.5077
▁golf	-10.5077
▁cup	-10.5078
▁misessa	-10.5092
▁lapsuu	-10.5109
▁Tukholma	-10.5114
▁Tapio	-10.5115
▁kokonaisuude	-10.5119
▁Vaasa	-10.512
▁ajatukse	-10.5125
▁kävely	-10.5151
▁paikassa	-10.5151
▁kyseenala	-10.5152
▁Tesla	-10.5159
▁kyvy	-10.516
▁vapautta	-10.5163
▁työskennellyt	-10.5177
▁kaunii	-10.5187
▁unioni	-10.5189
▁johtama	-10.5189
▁uksista	-10.5193
puheenjohtaja	-10.5197
▁keskuudessa	-10.5226
▁2011	-10.5226
▁entisestään	-10.5226
▁kannusta	-10.5226
▁valitsi	-10.5226
▁nuoriso	-10.5237
▁sisko	-10.5237
▁käänne	-10.5237
▁Kysy	-10.5238
▁Tampere	-10.5255
▁komentaja	-10.5263
▁rikoksista	-10.5264
▁näkemä	-10.53
▁kaverei	-10.5301
▁Itämere	-10.5302
ehdokka	-10.5306
▁studio	-10.5339
▁SAK	-10.5339
▁haittaa	-10.534
▁Jaakko	-10.5343
▁Elämä	-10.5344
▁tarkastel	-10.5349
▁jonkinlai	-10.535
▁renka	-10.5355
▁meren	-10.5365
ärjest	-10.5365
▁TPS	-10.5377
▁Liikenne	-10.5377
▁maksoi	-10.5377
▁tuomittu	-10.5377
▁tuntuma	-10.538
▁Bottas	-10.5382
▁Pariskun	-10.5401
▁budjetti	-10.5415
▁toteutet	-10.5416
▁huipu	-10.5417
▁leikki	-10.5417
▁vastus	-10.5439
▁yhtei	-10.5445
kangas	-10.5447
▁ohjeist	-10.5451
▁meteorologi	-10.5453
▁puolivälierä	-10.5454
▁treena	-10.5454
▁Lähte	-10.5454
▁vieressä	-10.5455
▁pariskunna	-10.5455
▁Miss	-10.5459
onnettomuudessa	-10.5492
▁vastaukse	-10.5492
▁1,5	-10.5493
▁velvollis	-10.5493
▁koostu	-10.55
▁tiloj	-10.5508
yydestä	-10.5512
▁arvioidaan	-10.5531
▁vahvistu	-10.5534
▁ryöst	-10.5541
kirjoitus	-10.5565
▁rekisteri	-10.5569
▁mattoma	-10.5577
▁joutunee	-10.5586
▁putoa	-10.5587
▁vankeus	-10.5603
▁Guardian	-10.5608
▁Ohjelma	-10.5608
▁Vähä	-10.5608
▁Kiekko	-10.5609
▁myydä	-10.5618
▁Panthers	-10.5647
▁KalPa	-10.5647
▁nappasi	-10.5647
▁Berg	-10.5649
▁ehdottoma	-10.5649
▁ajama	-10.5649
▁Saul	-10.5658
rauha	-10.5666
▁Foreca	-10.5686
que	-10.5688
▁majoit	-10.5689
▁Stor	-10.5701
▁aido	-10.5707
▁harjoitukse	-10.5716
▁vankeuteen	-10.5726
▁Kangas	-10.5726
▁isyyde	-10.5728
▁Hieta	-10.5733
▁Rikos	-10.5735
▁potentiaali	-10.5765
▁toimenpitei	-10.5765
▁varapresidentti	-10.5765
▁Laakso	-10.5765
mpänä	-10.5766
▁Nuore	-10.5767
▁järjestelmi	-10.5767
▁puhtaa	-10.5769
▁Henkilö	-10.5805
▁Latvala	-10.5805
▁Uhri	-10.5807
▁tutkinnan	-10.5809
▁ruumii	-10.5818
▁poliittist	-10.5845
▁kalusto	-10.5845
▁järjestety	-10.5845
▁Hannu	-10.585
▁järjestettiin	-10.5851
▁Näyt	-10.5852
▁jäljellä	-10.5885
▁johtaji	-10.5885
▁Grön	-10.5885
▁alueelta	-10.5886
▁Muist	-10.5894
▁satee	-10.5897
▁tuhat	-10.591
▁palestiinalais	-10.5925
persoona	-10.5925
▁vihje	-10.5925
▁ilmoittaa	-10.5935
hyökkääjä	-10.5942
▁sekoit	-10.5949
▁huomaut	-10.5965
▁Ferrari	-10.5965
▁sopeutu	-10.5966
▁puolelta	-10.5966
▁maalei	-10.5975
▁linna	-10.598
finaali	-10.5984
▁Suomelle	-10.6006
▁taulu	-10.6008
▁näyttö	-10.6013
▁erilaist	-10.6018
▁tilaisuude	-10.6033
▁suoritukse	-10.6047
▁varhain	-10.6048
▁Mestari	-10.6049
▁Hyvin	-10.6049
▁pyritä	-10.605
▁muovi	-10.6051
▁Yhteis	-10.6054
▁täydelli	-10.6065
▁aiemma	-10.6088
▁karsinta	-10.6088
ikympp	-10.6089
▁tahto	-10.6092
▁yhdistykse	-10.61
▁viljel	-10.6113
▁Valioliiga	-10.6128
torni	-10.6136
tuomio	-10.6148
▁valitta	-10.6167
=	-10.6169
▁kustannus	-10.617
▁sisällö	-10.617
▁täytty	-10.617
▁ymmärrä	-10.6171
▁2-1	-10.6175
arvio	-10.618
▁pitkält	-10.6194
blog	-10.621
▁Viranomais	-10.6211
▁huumausaine	-10.6211
▁jääkieko	-10.6211
▁mielipide	-10.6211
▁vanhoj	-10.6211
▁heitto	-10.6219
▁nieme	-10.6223
▁Vornanen	-10.6252
▁lentokentä	-10.6252
▁rasismi	-10.6252
▁pyydet	-10.6253
▁2-0	-10.6253
▁osittain	-10.6254
▁mahdollisuutta	-10.6254
▁Areena	-10.6255
▁Miehen	-10.6255
▁Pajari	-10.6256
▁mennee	-10.627
▁instituuti	-10.6294
▁komissio	-10.6294
▁ulkopuolelle	-10.6294
▁Tiistain	-10.6295
▁sääntö	-10.6307
anchester	-10.6336
▁keskustella	-10.6339
X	-10.6358
▁demokratia	-10.6378
qvist	-10.6378
▁ulottu	-10.6378
▁David	-10.6378
▁Ääne	-10.6383
▁Lapse	-10.6389
burg	-10.6406
▁Montreal	-10.642
▁pörssi	-10.642
▁tutkimuksi	-10.6421
▁Nurmi	-10.6441
▁julkaise	-10.6447
▁viikonloppu	-10.6447
▁Meghan	-10.6462
▁molempi	-10.6462
▁solmi	-10.6463
▁hirvi	-10.6464
▁Äiti	-10.6465
▁vähenn	-10.6466
▁tavoitta	-10.6467
▁Leppä	-10.6505
▁Järvi	-10.6505
▁Ykkös	-10.6505
▁irto	-10.6509
▁Holm	-10.6517
▁Louis	-10.6531
▁isännöi	-10.6548
▁Suomalainen	-10.6548
▁Tornio	-10.6548
▁ajatuksi	-10.6548
ähtää	-10.6553
erännyt	-10.6556
▁runsaa	-10.6571
▁konkurssi	-10.6591
€	-10.6591
▁havaittu	-10.6591
▁Usea	-10.6595
▁satoja	-10.6596
▁avajais	-10.6597
▁Aftonbladet	-10.6634
▁Colorado	-10.6634
▁koripallo	-10.6634
▁kuole	-10.6636
▁Puolustusvoimi	-10.6639
▁Aleksand	-10.6677
▁Portugali	-10.6677
▁miselle	-10.6679
yyteen	-10.6716
▁pysäyt	-10.6719
▁maahanmuutto	-10.672
▁oikeudenkäynti	-10.672
▁Etenk	-10.6729
▁hyökkää	-10.6755
käynti	-10.6761
á	-10.6764
▁näkemykse	-10.6764
▁poliittinen	-10.6764
▁Helenius	-10.6764
▁norjalais	-10.6764
▁valitettava	-10.6764
▁sodassa	-10.6765
▁aiheesta	-10.6765
▁sukupuoli	-10.6766
▁jarru	-10.6772
lämpö	-10.6792
▁rakentamise	-10.6803
▁United	-10.6808
▁kaudeksi	-10.6809
▁pelko	-10.681
▁tulkit	-10.6837
▁Angeles	-10.6852
▁myöhään	-10.6852
▁itäraja	-10.6852
▁erilaise	-10.6853
▁doping	-10.6896
▁julkaistiin	-10.6896
▁huumori	-10.6896
▁lahjoit	-10.6896
▁viestejä	-10.6896
▁motiivi	-10.6897
▁kahteen	-10.6897
▁Epäilty	-10.6941
▁Hiihto	-10.6941
▁Olympiakomitea	-10.6941
▁ylläpitä	-10.6942
▁Jokeri	-10.6944
▁kiinalais	-10.6946
▁alukse	-10.6948
terveydenhuollo	-10.6957
▁Yhdysvaltalai	-10.6985
▁pysäköi	-10.6985
▁festivaali	-10.6985
▁naurahtaa	-10.6985
▁sovellukse	-10.6985
▁Tuleva	-10.6987
ystävänsä	-10.7018
▁hintoj	-10.7019
▁Henriksson	-10.703
▁auringo	-10.703
▁Keskiviikko	-10.703
▁RKP	-10.703
▁myönnet	-10.703
▁Nuori	-10.7032
▁pilk	-10.7033
▁housu	-10.7036
▁Jasmi	-10.7038
▁rauhallise	-10.7075
▁Lääkäri	-10.7075
▁kustannuksi	-10.7075
▁poikkea	-10.7075
▁Alex	-10.7076
▁kävele	-10.7076
▁parhaimmilla	-10.7076
▁stress	-10.7078
▁Ruoka	-10.7108
▁ääntä	-10.7114
▁esitutkinna	-10.712
▁johtanut	-10.7121
▁vaikuttanut	-10.7121
juoksija	-10.7121
▁pelastuslaitos	-10.7121
▁Lahden	-10.7126
▁sääntöj	-10.7152
▁merkkejä	-10.7166
▁sankari	-10.7169
▁poimi	-10.7171
▁ratkaiseva	-10.7171
▁nauti	-10.7186
▁palkinno	-10.7212
korkeakoulu	-10.7215
▁joutuva	-10.7217
▁toistu	-10.7229
▁taistele	-10.7238
▁Schumacher	-10.7257
▁elinkeino	-10.7257
▁suihku	-10.7257
▁työhön	-10.7258
▁Kiuru	-10.7258
▁aiempi	-10.726
▁ehdotukse	-10.7291
▁yhteyksi	-10.7304
▁Pirkanmaa	-10.7304
▁vasemma	-10.7304
▁kirjoitukse	-10.7304
▁vaikuttav	-10.7305
▁taisteli	-10.7305
▁muutamia	-10.7307
▁hullu	-10.7348
▁Sebastian	-10.735
▁Eduskunta	-10.735
▁trendi	-10.735
▁ulkomailla	-10.735
▁Lähde	-10.735
▁paidassa	-10.735
▁paikat	-10.7351
▁Kiova	-10.7355
▁poliitiko	-10.7396
▁tuntuva	-10.74
▁potilas	-10.7404
▁tapaamise	-10.7424
▁näkemys	-10.7443
▁mahdollis	-10.7444
▁kolmos	-10.7447
▁kevye	-10.7448
▁selost	-10.7448
▁potilai	-10.7474
moottori	-10.7481
▁päätökseen	-10.749
▁järkytty	-10.749
▁ennusta	-10.7491
▁muoti	-10.7494
▁syödä	-10.7496
▁laukais	-10.7506
▁partio	-10.7518
▁vedet	-10.7524
▁tilaisuut	-10.7537
▁kielletty	-10.7537
▁omakotitalo	-10.7537
▁äärioikeisto	-10.7537
▁ollenkaan	-10.7537
▁vuodeksi	-10.7537
▁kollega	-10.7538
▁vuodet	-10.7539
▁automaatt	-10.7544
▁President	-10.7564
▁onnettomuuden	-10.7585
▁päätöksestä	-10.7585
▁ruokavalio	-10.7585
▁vihdoin	-10.7585
▁karsinna	-10.7587
▁merkitykse	-10.7614
pyörä	-10.7624
▁Puljujärvi	-10.7632
▁Slovakia	-10.7632
▁tarkoitettu	-10.7632
▁Uoti	-10.7663
▁Naist	-10.768
▁lähetyksessä	-10.768
▁Todell	-10.77
▁Expressen	-10.7728
▁hyökkäyksi	-10.7728
▁stadioni	-10.7728
▁Torstain	-10.773
▁kymppi	-10.7777
▁myönteis	-10.7777
▁hevonen	-10.7777
▁mielellä	-10.7777
luokassa	-10.7811
▁Granlund	-10.7825
▁kruunu	-10.7825
▁Madrid	-10.7825
▁kaukalo	-10.7825
▁täältä	-10.7827
▁kulki	-10.7828
▁länsimai	-10.7832
säätiö	-10.7845
▁raskas	-10.785
Venäjä	-10.7868
▁Kouvola	-10.7874
▁Benjamin	-10.7874
▁oululais	-10.7874
▁Robin	-10.7876
turnaukse	-10.7918
▁hyökkäsi	-10.7923
▁Puolue	-10.7923
▁Kärpät	-10.7923
▁kaukana	-10.7925
▁Liettua	-10.7926
▁tarinoi	-10.7928
sport	-10.793
▁Muutama	-10.7932
sopimuksen	-10.7945
▁Käytännö	-10.7972
▁Taylor	-10.7972
▁analysoi	-10.7972
▁päivystävä	-10.7972
▁viivästy	-10.7972
▁ihastu	-10.7972
▁kanslia	-10.7972
▁Laulaja	-10.7972
▁korosti	-10.7975
▁Pohjoismai	-10.8
▁rekisteröi	-10.8022
▁Häkkänen	-10.8022
▁Käärijä	-10.8022
▁avustus	-10.8022
▁miljooni	-10.8022
▁yhdellä	-10.8022
▁SaiPa	-10.8022
▁Vainio	-10.8023
▁alaikäi	-10.8025
▁loistava	-10.8027
▁julkaista	-10.8071
▁kustannukset	-10.8071
▁työskenteli	-10.8071
▁kaksois	-10.8071
▁keskiviiko	-10.8071
▁NBA	-10.8071
▁mikro	-10.8072
▁Sofia	-10.8072
▁sopimuksi	-10.8072
▁Tuomio	-10.8073
▁vaarallise	-10.8092
ford	-10.8103
▁Jalkapallo	-10.8121
▁Onnettomuus	-10.8121
▁Victoria	-10.8121
▁hämmästy	-10.8121
▁konflikti	-10.8121
▁drooni	-10.8121
▁pyynnö	-10.8121
▁Jorma	-10.8124
▁Rauha	-10.8124
▁vahvistet	-10.8137
▁yleisest	-10.8139
▁president	-10.8169
▁konkreetti	-10.8172
▁Neuvostoliit	-10.8172
▁pelkkä	-10.8172
▁tarvittaessa	-10.8172
▁mahtava	-10.8172
▁1-0	-10.8173
▁vapaute	-10.8216
▁järkyttävä	-10.8222
▁aikoihin	-10.8222
▁kokoomus	-10.8222
▁kaudelle	-10.8224
▁Lounais	-10.8273
▁alkanee	-10.8287
▁harrastus	-10.8324
▁oikeisto	-10.8324
▁pyyntö	-10.8324
▁teollisuus	-10.8324
▁fiilis	-10.8324
▁pilvi	-10.8327
▁kaupall	-10.8328
▁maistu	-10.8343
▁epäselvä	-10.8375
▁Netanjahu	-10.8375
▁Räikkö	-10.8375
▁kommentteja	-10.8375
▁Kainuu	-10.8376
▁Vihre	-10.8376
▁sokeri	-10.8377
▁James	-10.838
kaikkein	-10.8414
tömiä	-10.8417
lehdessä	-10.8425
▁Telegram	-10.8427
▁oikeudenkäynni	-10.8427
▁Hyundai	-10.8427
▁maltill	-10.8439
Volodymyr	-10.8478
▁ilmastonmuuto	-10.8478
▁salamurha	-10.8478
▁tapahtua	-10.8479
▁pelejä	-10.8479
▁kuorma	-10.8479
▁Radio	-10.848
▁suklaa	-10.848
▁vaurioitu	-10.8485
▁Pöy	-10.8487
▁aktiivisest	-10.8519
▁rahoj	-10.8525
▁puheenvuoro	-10.8531
▁Windows	-10.8531
▁kimppuun	-10.8531
▁mestaruutta	-10.8531
▁tiloissa	-10.8531
▁harvoin	-10.8532
▁SalPa	-10.8532
▁poruka	-10.8533
▁varova	-10.8534
▁aloittee	-10.8536
▁Liperi	-10.8537
▁osoittee	-10.855
▁Edmonton	-10.8583
▁diagnoosi	-10.8583
▁kongressi	-10.8583
▁loukkaantunut	-10.8583
▁järkevä	-10.8583
▁syrjä	-10.8583
▁syytteet	-10.8584
numero	-10.8585
▁tunnelmi	-10.8585
▁seksuaalisest	-10.8588
▁ensimmäisi	-10.8636
▁juniori	-10.8636
▁Rydman	-10.8636
▁uutinen	-10.8636
▁Hämäläi	-10.8637
▁kykene	-10.8638
▁Kaupungin	-10.8688
▁noussee	-10.8689
▁Itävalla	-10.8689
▁päässee	-10.8696
▁tällaist	-10.8707
▁Pärmäkoski	-10.8742
▁myymälä	-10.8742
▁Nuorte	-10.8742
▁palkkio	-10.8742
▁Blue	-10.8744
▁kauppoj	-10.8745
▁nähnee	-10.8752
▁kansainvälist	-10.8754
▁ikäluok	-10.8775
▁asevoimi	-10.8793
▁Brasilia	-10.8795
▁helikopteri	-10.8795
▁Oilers	-10.8795
▁asianajaja	-10.8795
▁vammoja	-10.8795
▁haastattelema	-10.8796
▁Vilppaa	-10.8797
▁pelaamise	-10.8808
▁Hamilton	-10.8849
▁saatavilla	-10.8849
▁Kokoomukse	-10.8849
▁show	-10.8849
▁podcastissa	-10.8849
▁todellisuude	-10.8849
▁henkirikokse	-10.8853
▁kampanjoi	-10.8903
▁nyrkkeily	-10.8903
▁vaaleja	-10.8903
▁Rangers	-10.8903
▁Mikkeli	-10.8904
▁juusto	-10.8904
käyttö	-10.8908
vankeusrangaistu	-10.891
▁sairauksi	-10.8931
▁katastrofi	-10.8957
▁opiskelu	-10.8957
▁unohta	-10.8957
▁kenraali	-10.8957
▁minusta	-10.8958
▁Seppä	-10.8958
▁Niskase	-10.8958
▁puuttee	-10.8965
▁ystävy	-10.8976
Å	-10.9012
▁Keskustelu	-10.9012
▁työttömyys	-10.9012
▁uskalta	-10.9012
▁minkäänlai	-10.9017
▁vuorokaude	-10.9054
▁esitutkinta	-10.9067
▁ravintoloi	-10.9067
▁huomannut	-10.9067
▁tiivii	-10.9068
▁kartano	-10.9068
▁korkeimma	-10.9069
▁kilpaill	-10.9074
▁huomattava	-10.9096
itsenäisyyspäivä	-10.9122
▁Brysseli	-10.9122
▁Vornase	-10.9122
▁Englanti	-10.9122
▁Ministeri	-10.9122
▁asiantuntijoi	-10.9122
toisaalta	-10.9123
kiellon	-10.9129
lukuun	-10.9164
▁Yrittäj	-10.9174
ž	-10.9178
▁alkuvuode	-10.9178
▁Jalonen	-10.9178
▁Ronaldo	-10.9234
▁arvonlisävero	-10.9234
▁pääkaupungi	-10.9234
▁tehtävissä	-10.9234
▁remontti	-10.9234
▁Serge	-10.9234
▁Onneks	-10.9246
▁Kansanedustaja	-10.929
▁lainsäädäntö	-10.929
▁Päätös	-10.929
▁myrky	-10.929
▁Anders	-10.9344
▁negatiiv	-10.9346
▁Hollanni	-10.9346
▁firma	-10.9347
▁jöi	-10.9349
Britannia	-10.9356
▁historiallise	-10.9374
▁Veikkausliiga	-10.9403
▁suurlähettilä	-10.9403
▁ylpeä	-10.9403
▁Huippu	-10.9403
Arabia	-10.9406
▁teokse	-10.942
ø	-10.946
▁dramaatt	-10.946
▁Richard	-10.946
▁brändi	-10.946
▁helsinkiläi	-10.946
▁tehtäviä	-10.946
▁Group	-10.946
▁THL	-10.946
▁risteykse	-10.9462
henkilö	-10.9471
▁henkilökunna	-10.9479
▁Oscar	-10.9518
▁inflaatio	-10.9518
▁kalenteri	-10.9518
▁syöksy	-10.9518
▁kilpailijoi	-10.9518
▁miellyttä	-10.952
▁vaihteleva	-10.9521
▁alijäämä	-10.9575
▁ambulanssi	-10.9575
▁kuvernööri	-10.9575
▁liikenteessä	-10.9575
▁läheisyydessä	-10.9575
▁vaihtoehdo	-10.9575
▁Macron	-10.9575
▁draama	-10.9576
asiantuntija	-10.9588
rofessori	-10.9632
▁Yhdysvaltoihin	-10.9634
▁infrastruktuuri	-10.9634
▁Koivisto	-10.9634
▁laittoi	-10.9634
▁temppu	-10.9634
▁velvoitt	-10.9637
▁käytös	-10.9653
▁ampumise	-10.9659
▁puhal	-10.966
▁Kommentti	-10.9692
▁myynnissä	-10.9692
▁vuodelle	-10.9692
valtuutettu	-10.9693
▁tykkää	-10.9693
▁Samuli	-10.9693
▁käsitykse	-10.9716
;	-10.9751
▁Frederik	-10.9751
▁budjeti	-10.9751
▁politiikassa	-10.9751
▁vähemmistö	-10.9751
▁yhdistelmä	-10.9751
▁Huuhkaji	-10.981
▁sukupolve	-10.981
▁suurlähetystö	-10.981
▁Terveys	-10.981
▁hyvinvoinni	-10.981
▁Pietari	-10.981
▁kadonnut	-10.981
▁ärsyt	-10.981
▁heikenty	-10.9811
▁luonnos	-10.9818
▁ominais	-10.9837
▁seurakunna	-10.9853
▁Kaupunki	-10.987
▁ristiriita	-10.987
▁Urpilai	-10.987
▁ahdistu	-10.987
▁sektori	-10.987
▁muusikko	-10.987
▁lopputulos	-10.9873
oikeuden	-10.9906
í	-10.9929
▁hätäkeskukseen	-10.993
▁opiskelijoi	-10.993
▁Julkais	-10.993
▁toistuvasti	-10.993
▁Romania	-10.993
▁kyydissä	-10.993
▁työskennell	-10.9948
▁KuPS	-10.999
▁Kreika	-10.999
▁päällikö	-10.999
▁heikkene	-10.9991
▁rangaistukse	-11.0028
▁George	-11.005
▁Jyrki	-11.005
▁juhannus	-11.005
▁olosuhteet	-11.005
▁yhdestä	-11.005
tiettävästi	-11.0057
▁korvaukse	-11.0057
▁Belgia	-11.0111
▁KHL	-11.0111
▁Ottawa	-11.0111
▁vanhempa	-11.0113
▁hyppää	-11.0122
yhtymä	-11.0173
▁Palestiina	-11.0173
▁manageri	-11.0173
▁parisuhtee	-11.0173
▁huomenna	-11.0173
▁väylä	-11.0173
▁Hakkarai	-11.0173
▁tuhanne	-11.0176
▁päivystykse	-11.0234
▁kokemuksia	-11.0235
▁gramma	-11.0235
▁luksus	-11.0235
▁tehdas	-11.0235
▁1980-	-11.0297
▁Elokapina	-11.0297
▁UMK	-11.0297
▁Susanna	-11.0297
▁Christian	-11.0297
Z	-11.0318
▁Lämpö	-11.0359
▁Tynkky	-11.0359
▁löydy	-11.0359
▁Thaimaa	-11.0359
▁Korhonen	-11.0359
▁Selänne	-11.0359
▁lämmö	-11.0359
Mukana	-11.0393
tömyys	-11.0396
о	-11.0422
*	-11.0742
а	-11.1278
!	-11.1523
@	-11.199
н	-11.2064
е	-11.2214
>	-11.2289
и	-11.2289
Ä	-11.2573
ó	-11.3415
Š	-11.4684
т	-11.5078
р	-11.5281
с	-11.5807
■	-11.6026
Q	-11.6374
л	-11.7577
в	-11.8523
к	-11.9413
ë	-12.0053
è	-12.206
у	-12.206
č	-12.2472
#	-12.4066
г	-12.4836
я	-12.5964
ы	-12.5964
_	-12.6267
★	-12.6267
м	-12.6579
â	-12.6902
Ã	-12.6902
¤	-12.7937
ã	-12.8692
ú	-12.8692
à	-12.9092
б	-12.9509
й	-12.9509
ł	-12.9943
ь	-13.0398
з	-13.1374
ç	-13.1901
·	-13.2456
æ	-13.2456
ч	-13.2456
ý	-13.3044
ю	-13.3669
õ	-13.582
ï	-13.7562
×	-13.8562
Ü	-13.8562
ô	-13.8562
ř	-13.8562
ń	-13.9673
х	-13.9673
ð	-13.9673
Č	-14.0923
ц	-14.0923
	-14.2352
°	-14.2352
ê	-14.2352
©	-14.4018
‒	-14.4018
Õ	-14.6018
Ú	-14.6018
ш	-14.6018
щ	-14.6018
ă	-14.6018
ė	-14.6018
ē	-14.8518
ū	-14.8518
Б	-14.8518
	-14.8518
ò	-14.8518
ā	-14.8518
ı	-14.8518
‐	-14.8518
•	-14.8518
Ш	-15.1852
α	-15.1852
Æ	-15.1852
Í	-15.1852
ō	-15.1852
●	-15.1852
ț	-15.1852
$	-15.6852
`	-15.6852
¶	-15.6852
ň	-15.6852
ŏ	-15.6852
ż	-15.6852
˗	-15.6852
Ж	-15.6852
Н	-15.6852
‰	-15.6852
′	-15.6852
⁣	-15.6852
œ	-15.6852
ů	-15.6852
И	-15.6852
\	-15.6852
À	-15.6852
[	-16.6755
Л	-16.6817
ə	-16.6818
ş	-16.6819
İ	-16.682
Ó	-16.6821
К	-16.6822
Þ	-16.6823
⭐	-16.6824
э	-16.6825
ф	-16.6826
А	-16.6827
μ	-16.6828
ß	-16.6829
Ç	-16.683
ņ	-16.6831
П	-16.6832
Ф	-16.6833
С	-16.6834
В	-16.6835
ě	-16.6836
ж	-16.6837
Ø	-16.6838
<	-16.6839
Ž	-16.684
É	-16.6841
̈	-16.6842
Á	-16.6843
§	-16.6844
ğ	-16.6845
ć	-16.6846
⁄	-16.6847
п	-16.6848
д	-16.6849
ñ	-16.685
−	-16.6851
Т	-16.6851
Ķ	-16.6852
~	-16.6852
	-16.6852
®	-16.6852
±	-16.6852
Â	-16.6852
Ò	-16.6852
Û	-16.6852
ì	-16.6852
î	-16.6852
û	-16.6852
ÿ	-16.6852
ą	-16.6852
đ	-16.6852
ģ	-16.6852
ī	-16.6852
ľ	-16.6852
ś	-16.6852
ų	-16.6852
ź	-16.6852
ǎ	-16.6852
Ș	-16.6852
ș	-16.6852
Д	-16.6852
О	-16.6852
Э	-16.6852
ỏ	-16.6852
ố	-16.6852
‍	-16.6852
∞	-16.6852
😂	-16.6852
¡	-16.6852
ę	-16.6852
Ł	-16.6852
(	-16.6852
З	-16.6852
