<unk>	0
<s>	0
</s>	0
.	-3.52721
,	-3.86456
▁ו	-3.97446
ים	-4.1496
ה	-4.15783
▁ה	-4.21689
▁	-4.26311
▁של	-4.29799
▁את	-4.30809
ת	-4.31412
▁,	-4.31508
▁.	-4.36346
▁ב	-4.45913
▁ל	-4.52284
ות	-4.67508
▁"	-4.7565
▁על	-4.77533
▁ש	-4.79164
ו	-4.79303
▁לא	-4.79417
י	-5.10431
▁מ	-5.1899
▁זה	-5.25771
▁הוא	-5.33463
▁מה	-5.42229
ם	-5.5201
▁עם	-5.58765
▁או	-5.63867
▁כל	-5.66528
-	-5.73285
▁?	-5.74556
▁(	-5.79519
▁אני	-5.84483
▁היא	-5.88
"	-5.90152
▁יותר	-5.90586
▁-	-5.91667
▁גם	-5.96035
▁יש	-5.97576
▁:	-5.984
'	-6.02935
▁אם	-6.08781
▁כי	-6.09476
▁הם	-6.14973
▁היה	-6.18054
ן	-6.23817
▁אבל	-6.25943
?	-6.27737
▁כ	-6.3019
נו	-6.35
▁–	-6.37799
▁כדי	-6.38291
ב	-6.39061
▁להיות	-6.39098
:	-6.40985
▁רק	-6.41088
▁לי	-6.44676
▁י	-6.45533
▁אחד	-6.45685
▁".	-6.46075
▁יכול	-6.53582
▁כמו	-6.5637
▁ת	-6.5672
ר	-6.57697
▁כך	-6.58874
▁אתה	-6.62161
ל	-6.68335
▁ביותר	-6.7164
▁זו	-6.72178
▁שלך	-6.72953
▁עד	-6.74308
▁אל	-6.77084
▁זאת	-6.79668
▁האם	-6.81882
▁ג	-6.82051
)	-6.83215
תי	-6.84146
▁אותו	-6.86233
▁...	-6.88754
▁לו	-6.88859
▁ידי	-6.89447
▁)	-6.89497
▁נ	-6.89738
▁לה	-6.90921
▁בין	-6.90923
▁אנחנו	-6.91372
▁הזה	-6.91514
▁בכל	-6.91676
▁כמה	-6.93963
▁שלנו	-6.94264
▁היו	-6.96485
▁אין	-6.96576
ח	-6.97258
▁מאוד	-6.97276
▁מי	-6.97553
▁שלי	-6.97678
▁לפני	-7.03395
▁לך	-7.03822
▁אז	-7.03894
▁אנשים	-7.05872
▁לאחר	-7.07654
▁!	-7.0866
▁אך	-7.09212
▁לעשות	-7.09997
▁כש	-7.1049
▁צריך	-7.108
▁דבר	-7.11961
ית	-7.12242
ק	-7.13162
▁'	-7.13314
▁עוד	-7.13492
ס	-7.1418
▁טוב	-7.14703
▁עבור	-7.14904
▁כבר	-7.153
▁שהוא	-7.1565
s	-7.18846
▁הרבה	-7.19796
▁איך	-7.1983
ע	-7.2002
ך	-7.2086
א	-7.20928
▁שלו	-7.21816
▁כאשר	-7.22797
▁לנו	-7.2299
▁ישראל	-7.23241
▁אשר	-7.24455
ף	-7.26623
▁באופן	-7.26648
▁שלהם	-7.2769
▁אלה	-7.28737
ט	-7.29467
▁אמר	-7.29953
▁אנו	-7.30114
▁אחר	-7.30684
▁בו	-7.31411
▁היום	-7.31712
▁אדם	-7.32132
▁רוצה	-7.3221
▁שלא	-7.33036
▁שנים	-7.34667
ד	-7.34738
▁שם	-7.35477
▁אחת	-7.35674
▁אתם	-7.36707
▁א	-7.37967
".	-7.39873
▁זמן	-7.40126
▁כן	-7.40989
▁העולם	-7.41358
▁;	-7.42242
▁שני	-7.44204
▁יום	-7.44778
ג	-7.44936
▁“	-7.45729
▁פי	-7.46629
▁להם	-7.46862
▁הייתה	-7.4689
▁ולא	-7.47656
▁יכולים	-7.48302
▁חלק	-7.48571
▁יהיה	-7.4897
▁שיש	-7.49031
▁",	-7.49137
▁אפשר	-7.4914
▁אותם	-7.49377
▁בית	-7.50007
▁אי	-7.51091
מ	-7.52296
▁המ	-7.52297
▁פעם	-7.53986
▁בשנת	-7.54293
▁כאן	-7.54472
▁שאני	-7.54491
▁מספר	-7.54785
▁אחרים	-7.55053
▁שלכם	-7.55677
▁אחרי	-7.55705
▁ניתן	-7.55795
▁תמיד	-7.56223
▁לכל	-7.57276
▁אף	-7.57597
▁שהם	-7.58504
▁רבים	-7.59794
▁בעולם	-7.60013
▁אותה	-7.60839
משך	-7.61072
▁משהו	-7.62383
▁למה	-7.62958
יה	-7.63314
▁בני	-7.63857
▁שנה	-7.63905
▁אלא	-7.64067
▁).	-7.64943
▁s	-7.65029
▁ואת	-7.66239
ש	-7.67459
אני	-7.67548
יות	-7.68324
▁עדיין	-7.68771
▁אומר	-7.68807
▁ללא	-7.69143
▁דרך	-7.69583
▁שה	-7.69927
▁לכם	-7.71788
▁עכשיו	-7.72141
▁באמת	-7.73022
▁לראות	-7.74155
ני	-7.75817
▁במהלך	-7.75844
ון	-7.75964
▁הראשון	-7.77107
▁פשוט	-7.77288
▁הן	-7.78162
▁אותי	-7.78447
▁מדי	-7.79111
▁אפילו	-7.79473
▁הזמן	-7.79926
▁האדם	-7.80054
▁חיים	-7.80936
▁שאתה	-7.81254
▁בבית	-7.81649
▁הספר	-7.8168
▁יודע	-7.82208
ז	-7.82322
▁בדרך	-7.83092
▁אולי	-7.8337
▁שזה	-7.84409
▁החיים	-7.85024
▁ים	-7.85845
▁באמצעות	-7.86323
פ	-7.86611
▁מן	-7.86864
▁חשוב	-7.86917
▁כלל	-7.88329
▁מקום	-7.88399
▁/	-7.88707
▁הכל	-7.89573
▁צ	-7.91885
▁היתה	-7.9195
▁לב	-7.92465
נים	-7.92618
▁שבו	-7.92716
כ	-7.92999
▁רוצים	-7.93307
▁שוב	-7.94807
▁אינו	-7.94854
▁קשה	-7.95393
▁גדול	-7.95531
▁ול	-7.95893
▁שהיא	-7.96033
▁הכי	-7.96097
▁ד	-7.96382
▁בה	-7.96439
▁רוב	-7.9729
יו	-7.97934
▁במקום	-7.98202
▁דברים	-7.98234
▁נראה	-7.98242
▁נגד	-7.98593
▁צריכים	-7.98768
▁כפי	-7.99433
▁כיצד	-8.00015
▁הראשונה	-8.00847
▁לקבל	-8.00857
▁הייתי	-8.01174
▁שלה	-8.01305
▁מאז	-8.03112
▁בן	-8.03564
▁אלוהים	-8.03696
▁אלו	-8.03774
▁פחות	-8.04519
▁A	-8.04766
▁האלה	-8.05111
▁3	-8.0514
▁S	-8.0532
▁ילדים	-8.05364
▁החברה	-8.05569
▁כמעט	-8.06041
▁10	-8.06185
▁לפי	-8.0664
נה	-8.07015
▁הדבר	-8.08004
▁2	-8.08264
צ	-8.08382
▁ע	-8.08497
▁מידע	-8.08679
▁מת	-8.08927
▁[	-8.09184
▁רב	-8.09449
▁יכולה	-8.09764
▁ק	-8.09933
▁B	-8.1065
▁ממש	-8.10657
▁ס	-8.10949
e	-8.1122
▁עצמו	-8.11829
▁שי	-8.11971
▁חדש	-8.12986
▁C	-8.13368
זה	-8.13963
▁),	-8.14079
▁עבודה	-8.1417
▁בתוך	-8.14488
▁שתי	-8.15103
▁נכון	-8.15107
y	-8.15154
▁המדינה	-8.15572
▁כולל	-8.15864
▁הזו	-8.16126
▁עושה	-8.16352
▁קל	-8.16539
▁מיליון	-8.16722
מה	-8.16855
▁שבה	-8.16991
▁בגלל	-8.17021
▁לכן	-8.17126
▁בלי	-8.17223
כם	-8.17468
ור	-8.17486
▁הברית	-8.17821
▁שום	-8.17945
▁בדיוק	-8.18089
▁ספר	-8.18215
▁ביום	-8.1857
▁בזמן	-8.1874
▁אותך	-8.18903
▁בלתי	-8.19308
▁לגבי	-8.19409
▁מהם	-8.19761
”	-8.19805
▁באות	-8.1985
▁רבות	-8.20451
▁מכל	-8.20527
▁למרות	-8.20852
▁שונים	-8.21089
ין	-8.21274
▁כולם	-8.21282
▁למצוא	-8.21389
▁ם	-8.21495
▁מתוך	-8.21613
▁לדעת	-8.22981
▁די	-8.23488
▁5	-8.23665
▁חושב	-8.23762
▁העיר	-8.23965
▁בעלי	-8.24366
▁תהיה	-8.25189
▁וגם	-8.25243
▁השנה	-8.2539
▁השני	-8.25491
▁במיוחד	-8.26022
▁אחרת	-8.26026
או	-8.26052
▁4	-8.26129
▁יחד	-8.26333
▁להשתמש	-8.26481
t	-8.26502
▁קצת	-8.26665
▁לכך	-8.26694
▁מספיק	-8.26709
▁הזאת	-8.26878
!	-8.26923
▁ואני	-8.27231
▁העבודה	-8.28048
יש	-8.28243
▁והוא	-8.28539
▁יודעים	-8.29158
▁1	-8.29252
ץ	-8.29572
▁נו	-8.29754
▁בא	-8.3
פי	-8.30079
▁ז	-8.30904
▁ח	-8.30917
מי	-8.30926
▁לפחות	-8.31251
▁נמצא	-8.31569
▁כזה	-8.31711
נ	-8.32405
שם	-8.32456
וס	-8.3287
▁בעל	-8.32922
מים	-8.33048
▁דולר	-8.33492
▁מעל	-8.33734
▁מאשר	-8.34302
a	-8.34534
▁ראש	-8.3463
▁תוך	-8.34716
▁וזה	-8.34736
▁בהם	-8.34828
▁מערכת	-8.35281
איזה	-8.35528
▁הדברים	-8.35932
▁לדבר	-8.3598
לא	-8.36034
▁כיום	-8.3609
▁עליו	-8.36765
▁מנת	-8.36794
▁הבית	-8.36794
▁כסף	-8.36862
▁קשר	-8.37171
▁הדרך	-8.37402
▁מדוע	-8.37408
▁שאנחנו	-8.37448
▁ר	-8.37715
מו	-8.37929
▁ימים	-8.38054
▁מישהו	-8.38967
▁בישראל	-8.38974
▁שעות	-8.38993
▁נשים	-8.39276
▁אותנו	-8.39465
▁D	-8.39957
▁להגיע	-8.40034
▁טובה	-8.40047
▁להבין	-8.40591
▁הבא	-8.40596
▁בלבד	-8.40658
▁יו	-8.40684
▁?"	-8.41375
▁שאתם	-8.41969
▁בעוד	-8.42377
▁ברור	-8.42571
▁אינם	-8.4308
▁עושים	-8.43485
▁לקחת	-8.43667
’	-8.44755
▁P	-8.44956
▁אחרות	-8.44972
▁”	-8.45113
▁ואז	-8.45211
▁מכן	-8.4576
▁איש	-8.45767
▁F	-8.45855
▁כמובן	-8.45893
▁בנוסף	-8.46075
▁הגדול	-8.46305
▁חייב	-8.46343
ינה	-8.46556
▁למעשה	-8.46841
▁שימוש	-8.46965
▁הארץ	-8.47197
▁פה	-8.47562
i	-8.48058
▁אינה	-8.48718
▁הללו	-8.48948
▁The	-8.49616
▁סוף	-8.4973
▁תחת	-8.49826
▁האנשים	-8.49833
▁לתת	-8.49869
אל	-8.49873
▁הממשלה	-8.50088
▁ללמוד	-8.50209
▁לעולם	-8.5094
▁לעבוד	-8.51003
בי	-8.51593
▁שנ	-8.51829
o	-8.52567
▁אוהב	-8.52594
▁וב	-8.52659
▁ט	-8.53609
▁מזה	-8.54016
▁הרי	-8.54517
נות	-8.54751
▁נוסף	-8.54995
▁פעמים	-8.55023
▁בעיקר	-8.55318
▁לש	-8.55489
]	-8.55494
2	-8.55616
▁שהיה	-8.55757
▁לעזור	-8.55902
▁of	-8.56044
▁מדובר	-8.56238
▁E	-8.56466
▁מעט	-8.56483
▁מר	-8.56693
▁בצור	-8.56719
▁אולם	-8.56989
▁באתר	-8.57053
▁האחרון	-8.57329
▁קו	-8.57345
▁קודם	-8.57412
1	-8.57442
▁לומר	-8.57477
▁ית	-8.57661
▁פני	-8.57753
▁מצב	-8.5789
▁דקות	-8.58518
A	-8.58553
▁יהיו	-8.58647
▁M	-8.58714
▁בכלל	-8.58967
▁החוק	-8.59567
▁פעולה	-8.59691
▁הילדים	-8.59754
רי	-8.59757
אף	-8.59837
▁20	-8.59864
▁בר	-8.5988
▁רואה	-8.59915
▁השנים	-8.60159
אן	-8.6034
▁6	-8.60346
▁מחדש	-8.60486
▁ומה	-8.60523
▁ליצור	-8.60628
▁גדולה	-8.6084
▁T	-8.60927
▁סוג	-8.61852
יק	-8.61886
בר	-8.62093
▁בשביל	-8.62197
לי	-8.62252
▁צריכה	-8.62256
▁חי	-8.62472
▁מול	-8.62814
▁הגוף	-8.62986
▁כוח	-8.63104
▁12	-8.63273
▁כה	-8.63803
▁המשפט	-8.64045
▁15	-8.64345
▁ארה	-8.64348
/	-8.65029
▁נוספים	-8.65033
▁עשוי	-8.65138
▁קרובות	-8.65151
▁a	-8.65213
al	-8.6529
פת	-8.65483
▁בפני	-8.65528
▁8	-8.65621
▁מחקר	-8.65822
▁בתחום	-8.65848
▁צורך	-8.65922
▁כאלה	-8.66237
▁עשר	-8.66341
▁שאין	-8.66398
▁חודשים	-8.66399
▁כעת	-8.66422
▁חדשים	-8.66497
▁בכך	-8.66584
▁בשל	-8.66659
מר	-8.6682
d	-8.67296
▁בטוח	-8.67328
▁ידע	-8.67573
▁שונות	-8.67581
▁עובד	-8.67674
▁7	-8.67785
er	-8.68175
▁החל	-8.68265
▁ככל	-8.68276
▁מדינות	-8.68309
▁למשל	-8.68344
▁I	-8.68584
▁משום	-8.68642
▁עצמי	-8.68677
כו	-8.68742
c	-8.68889
▁שלושה	-8.68915
▁זהו	-8.68995
▁מפני	-8.69034
כל	-8.69246
יהם	-8.69297
▁ספק	-8.69719
קי	-8.69814
▁ברחבי	-8.69941
▁18	-8.70044
▁קטן	-8.70226
n	-8.70277
▁אור	-8.70793
▁לבית	-8.70874
▁האמת	-8.7097
מן	-8.71171
מת	-8.71214
פעם	-8.71302
הוא	-8.71441
▁מגיע	-8.71461
▁קורה	-8.71482
▁שונה	-8.71489
▁לאורך	-8.71531
▁ללכת	-8.71563
▁חברת	-8.71582
▁ילד	-8.71633
▁שכל	-8.71747
▁הטוב	-8.71794
▁G	-8.71819
3	-8.71835
▁הגיע	-8.72557
פה	-8.72719
לו	-8.72791
ידי	-8.72799
▁שלוש	-8.7288
▁בשנה	-8.72893
▁משחק	-8.72932
0	-8.72935
▁הר	-8.72957
סופו	-8.7301
▁בנושא	-8.73436
▁בקרב	-8.73607
▁לעתים	-8.7406
▁כגון	-8.74166
▁״	-8.74211
▁the	-8.74715
▁לזה	-8.75048
▁מאד	-8.75121
r	-8.75339
▁דו	-8.75424
▁שאלה	-8.75858
▁החדש	-8.76082
▁שב	-8.761
▁מלא	-8.76101
▁."	-8.762
יר	-8.7636
▁לשמור	-8.76579
▁למ	-8.76688
▁מעבר	-8.76694
C	-8.76867
וני	-8.76941
▁ולכן	-8.76967
▁אצל	-8.76971
▁חדשה	-8.77057
גר	-8.77092
▁שינוי	-8.7738
▁כתב	-8.77477
▁ארצות	-8.77569
▁פ	-8.77671
יד	-8.77682
פר	-8.77895
▁יי	-8.77917
▁להשיג	-8.77957
וק	-8.78187
▁לפעמים	-8.78358
▁המצב	-8.78398
l	-8.78736
▁ממנו	-8.78933
פו	-8.78943
%	-8.79146
▁להפוך	-8.79199
▁לקרוא	-8.79282
▁גבוה	-8.79309
▁רגע	-8.79351
אנחנו	-8.79524
▁30	-8.80009
▁באזור	-8.8007
▁במ	-8.80101
▁”.	-8.80246
▁מתחיל	-8.803
▁לשנות	-8.80561
▁פעילות	-8.8064
▁עובדים	-8.80644
▁מתי	-8.8065
ְ	-8.81033
▁הנ	-8.81153
▁מאות	-8.81464
▁המשחק	-8.81523
יל	-8.81608
▁לחלוטין	-8.81631
▁שנות	-8.81708
▁בעבר	-8.81821
▁חברות	-8.81825
▁לבצע	-8.81926
u	-8.82055
▁מקור	-8.82187
▁חסר	-8.82273
▁מצא	-8.82314
נת	-8.82351
▁שאנו	-8.82392
▁לבין	-8.82482
▁בחיים	-8.8251
כמה	-8.82523
▁סביב	-8.82714
▁כנראה	-8.82745
5	-8.82964
▁11	-8.83196
▁לחשוב	-8.83262
▁המחקר	-8.83383
▁בסוף	-8.83525
נג	-8.83527
▁לחיות	-8.83579
▁סיפור	-8.83657
▁שר	-8.83753
▁כאילו	-8.84297
▁תוכנית	-8.84501
▁הילד	-8.84679
▁מאוחר	-8.84698
▁עלול	-8.84719
▁ני	-8.84787
ול	-8.84936
▁הסרט	-8.84946
E	-8.85241
▁רואים	-8.85328
וב	-8.85651
▁הולך	-8.85879
▁חבר	-8.85925
▁במקרה	-8.85927
▁אוכל	-8.85949
▁מצד	-8.86007
g	-8.86042
▁גיל	-8.86065
▁קיבל	-8.86182
אם	-8.86289
6	-8.86405
▁אמור	-8.8652
▁ליד	-8.86569
▁להת	-8.86612
▁השנייה	-8.86695
▁הנה	-8.86718
S	-8.86815
▁טיפול	-8.86943
▁יוצא	-8.87085
▁רע	-8.87112
▁זכויות	-8.8712
▁שנת	-8.87332
▁משנה	-8.87342
▁המשפחה	-8.87589
▁טובים	-8.87594
▁תודה	-8.87708
רו	-8.87713
▁כלפי	-8.87746
▁16	-8.87978
▁L	-8.88125
▁בסדר	-8.88177
▁בעיות	-8.88282
▁מס	-8.88335
▁בתי	-8.88405
וד	-8.88416
▁יהודים	-8.88465
4	-8.88585
מען	-8.88759
in	-8.88763
הן	-8.8878
▁in	-8.8883
▁ומ	-8.89083
▁עלינו	-8.89178
▁אמרה	-8.89192
▁קצר	-8.89261
▁מרגיש	-8.89496
▁והיא	-8.89554
▁אתכם	-8.89658
▁עבר	-8.8966
▁מקבל	-8.89664
ינג	-8.8974
▁האחרונות	-8.8974
▁H	-8.89775
▁להי	-8.89822
b	-8.90124
▁השאלה	-8.90314
▁יורק	-8.90356
P	-8.90468
▁המידע	-8.90533
▁בגיל	-8.90563
▁וכל	-8.90661
▁איפה	-8.907
▁מבין	-8.90791
▁אליו	-8.90889
▁קר	-8.90938
▁ויש	-8.90969
▁במצב	-8.9103
▁מיד	-8.91142
▁רבה	-8.91244
▁משתמשים	-8.9158
▁גבוהה	-8.91584
▁מדינה	-8.91831
▁מאפשר	-8.9202
יט	-8.92148
דה	-8.92341
▁חדשות	-8.92391
▁לבחור	-8.92581
▁כלומר	-8.92586
▁בעיר	-8.92615
▁עצמה	-8.92727
▁שירות	-8.92762
▁רוח	-8.9283
▁היחיד	-8.93251
D	-8.93252
▁נוספת	-8.93336
סי	-8.93525
▁ואם	-8.93781
st	-8.93797
▁R	-8.93834
▁חיי	-8.93847
▁מעולם	-8.93876
▁חוק	-8.94123
▁והם	-8.94139
▁לוקח	-8.94295
▁בי	-8.94321
▁יצא	-8.94435
▁האתר	-8.94622
▁חברים	-8.94645
ייתכן	-8.94775
m	-8.948
▁להתחיל	-8.95031
אי	-8.95039
▁מחוץ	-8.95046
נית	-8.95094
▁דומה	-8.95233
I	-8.95245
▁בעיה	-8.95417
קס	-8.95441
▁עליהם	-8.95442
▁בעת	-8.95576
▁נושא	-8.95687
▁עולם	-8.95749
▁לחזור	-8.95765
זוהי	-8.95865
▁אומרים	-8.95875
▁הפעם	-8.96039
טי	-8.96042
ונים	-8.96131
▁אנשי	-8.96142
▁המקום	-8.96172
▁סי	-8.96321
▁עצמם	-8.96437
רה	-8.96492
נק	-8.96668
▁חייבים	-8.96831
▁אומרת	-8.97123
▁רכב	-8.97134
▁אהבה	-8.97151
▁קרה	-8.97168
▁מקוו	-8.97452
▁נתונים	-8.97568
▁לגרום	-8.9758
▁הבעיה	-8.97599
קה	-8.97628
▁הגדולה	-8.97868
G	-8.97871
▁ועד	-8.97917
▁משמעות	-8.97992
סט	-8.98115
▁להמשיך	-8.98505
▁ככה	-8.98536
▁בהחלט	-8.98585
an	-8.98688
▁בארה	-8.98726
ing	-8.98768
M	-8.98773
▁הסיבה	-8.99076
▁נולד	-8.99351
▁גברים	-8.99378
▁וכן	-8.99483
9	-8.99509
▁להתמודד	-8.99812
R	-9.00018
▁תהליך	-9.00033
▁תי	-9.00343
▁העם	-9.00436
▁היינו	-9.00509
▁לתוך	-9.00519
▁13	-9.00573
p	-9.00575
▁קיים	-9.00636
נט	-9.00771
▁לעומת	-9.00837
▁מהר	-9.00885
בו	-9.00982
▁בשלב	-9.01032
לה	-9.01083
▁בהתאם	-9.01152
▁14	-9.01593
▁לאנשים	-9.01674
▁תוכל	-9.01707
▁הנשיא	-9.0175
▁האינטרנט	-9.01829
▁9	-9.01916
▁גר	-9.02002
▁ברגע	-9.02009
▁יפה	-9.02053
▁תוכלו	-9.02159
▁לגמרי	-9.02273
נן	-9.02362
▁ועוד	-9.02431
▁בידי	-9.02463
▁כדאי	-9.02483
▁e	-9.02575
▁בעקבות	-9.02646
▁בארץ	-9.02646
▁ערך	-9.02744
ָ	-9.03142
▁ראשון	-9.03281
▁הלב	-9.03358
▁השבוע	-9.0338
▁תפקיד	-9.03507
▁כוחות	-9.03649
ויות	-9.03664
▁ניו	-9.03668
▁מציע	-9.03726
▁*	-9.03739
▁משרד	-9.03915
▁היית	-9.03974
▁לספק	-9.04072
▁נחשב	-9.04076
דו	-9.04286
רמה	-9.04326
▁אותן	-9.04387
▁הכול	-9.04507
ישנם	-9.04521
▁היהודים	-9.04526
▁האחרונה	-9.04527
ינו	-9.04606
וש	-9.04657
T	-9.04702
▁המלחמה	-9.05139
▁לבד	-9.05291
טר	-9.05437
B	-9.05495
▁בתור	-9.05501
▁אישי	-9.05615
▁השימוש	-9.05645
ווי	-9.05651
▁יד	-9.05651
▁כדור	-9.06248
▁לצאת	-9.06328
▁קרוב	-9.06341
▁עניין	-9.06356
הופך	-9.06418
▁האי	-9.06432
▁נעשה	-9.06647
▁יהודי	-9.06699
▁לכתוב	-9.0683
▁למנוע	-9.06911
▁להגיד	-9.06944
▁להביא	-9.06944
▁החדשה	-9.06975
▁נמצאים	-9.07129
ערך	-9.07175
▁]	-9.07286
▁שהיו	-9.07372
נס	-9.07398
▁אלף	-9.07446
▁K	-9.07717
▁לשחק	-9.07758
▁שלום	-9.07915
▁מוצא	-9.07965
▁לאכול	-9.08001
▁בריאות	-9.08091
▁בסיס	-9.08106
▁בשנים	-9.08164
▁מתחת	-9.08182
▁מזון	-9.08307
פל	-9.08531
▁תוצאות	-9.08533
▁המאה	-9.08685
▁משתמש	-9.08756
▁משפחה	-9.08929
▁כלי	-9.08985
▁מדבר	-9.09042
▁ארגון	-9.09386
▁שבע	-9.0952
גו	-9.0956
▁c	-9.09616
▁and	-9.09681
▁חמש	-9.09715
L	-9.09725
פים	-9.09729
▁הכוח	-9.09783
▁ידוע	-9.098
8	-9.09865
▁לשם	-9.09969
▁מאחורי	-9.10018
▁עליך	-9.10135
▁הציבור	-9.10196
טו	-9.10196
▁אש	-9.10307
▁שבוע	-9.10364
▁ן	-9.10476
▁!"	-9.10774
▁שיכול	-9.10962
▁17	-9.10993
▁n	-9.11119
▁מלחמת	-9.1118
עו	-9.1122
▁מסוגל	-9.11237
▁היהודי	-9.11318
▁הסיפור	-9.11366
▁נשיא	-9.11497
כה	-9.11519
▁חברה	-9.1154
▁מנסה	-9.11552
▁גישה	-9.11553
7	-9.11819
re	-9.11837
O	-9.11863
יכולת	-9.11977
▁מיליארד	-9.11981
▁אמיתי	-9.12064
le	-9.12092
יי	-9.12149
ar	-9.1217
▁לקנות	-9.12271
▁היטב	-9.12337
▁אמא	-9.12366
▁עסקים	-9.12375
▁נשאר	-9.12476
▁באינטרנט	-9.12581
יס	-9.12583
▁תלוי	-9.12768
חו	-9.12827
en	-9.12861
▁יכולת	-9.12977
▁מדינת	-9.1299
רד	-9.1301
▁עומד	-9.13155
▁חומר	-9.1361
איחוד	-9.13689
or	-9.13689
▁כולנו	-9.13879
▁עשה	-9.13966
▁מכך	-9.14049
▁חושבים	-9.14066
▁הטיפול	-9.14299
▁שמח	-9.14384
אתה	-9.14414
▁אירופה	-9.14452
▁כללי	-9.14508
צר	-9.1453
▁•	-9.14576
▁p	-9.14587
▁שאלות	-9.14636
פס	-9.14776
תקופה	-9.14841
▁הג	-9.14989
▁הבאה	-9.15077
▁יתר	-9.15137
▁במהירות	-9.15138
צורה	-9.15347
▁W	-9.15511
▁למעלה	-9.15526
▁יודעת	-9.15808
אר	-9.15893
▁חוסר	-9.16018
מדינות	-9.16041
▁תמונות	-9.16042
▁בראש	-9.16315
▁דרכים	-9.16343
▁שש	-9.16677
it	-9.16677
▁אישה	-9.16746
▁אתר	-9.16762
▁לעיתים	-9.16825
צי	-9.16934
▁אפשרי	-9.17143
יב	-9.17148
ירה	-9.17217
▁מדיניות	-9.17313
▁להרגיש	-9.17367
▁זכות	-9.17393
▁אכן	-9.17409
▁למי	-9.17609
▁מסוימים	-9.17642
▁רחב	-9.1769
-19	-9.17692
▁אלפי	-9.17739
▁השם	-9.1776
▁הנתונים	-9.17891
▁נשמע	-9.17932
נוגע	-9.18006
▁מכיוון	-9.18013
▁היחידה	-9.18075
▁עולה	-9.18086
▁הזדמנות	-9.18155
▁האו	-9.1829
▁מאמין	-9.18616
▁הראשונים	-9.18643
ינ	-9.1865
▁פנים	-9.18805
שי	-9.18809
▁הבריאות	-9.18839
▁אמריקה	-9.18915
▁גל	-9.18955
▁במיד	-9.19154
▁להיכנס	-9.19226
▁נקרא	-9.19248
▁בעצם	-9.19494
▁דין	-9.19685
▁b	-9.1972
▁המחשב	-9.19829
▁הפך	-9.19864
▁טראמפ	-9.19967
▁ביחד	-9.19982
ניתן	-9.19994
).	-9.20014
▁אר	-9.20055
▁חזק	-9.20397
▁הביתה	-9.20429
▁ההיסטוריה	-9.20555
▁מבלי	-9.2059
▁בזה	-9.20651
▁עשויים	-9.20744
קו	-9.20761
▁אוהבים	-9.20834
▁הקשר	-9.20863
▁לחץ	-9.20924
יפ	-9.21052
▁לספר	-9.21482
el	-9.21511
▁הביטחון	-9.21547
▁מדברים	-9.21568
▁האל	-9.21596
▁לעבור	-9.21612
־	-9.21659
▁סביר	-9.21675
▁ממשלת	-9.21811
▁בשבוע	-9.21838
▁N	-9.21849
▁בואו	-9.21879
▁סיבה	-9.21893
כי	-9.21895
סוף	-9.21952
▁להישאר	-9.2198
▁במדינה	-9.21984
▁מים	-9.2206
▁מרכז	-9.22109
▁איתו	-9.2212
▁תת	-9.22143
▁לראשונה	-9.22158
▁בארצות	-9.22175
▁לבנות	-9.22268
▁סין	-9.22268
▁משמעותי	-9.22311
N	-9.22472
▁ירושלים	-9.22618
▁f	-9.22652
▁ממה	-9.22669
▁40	-9.22676
▁דם	-9.22791
▁המדינות	-9.22795
שום	-9.22837
▁'.	-9.22851
▁מקרה	-9.23026
▁דווקא	-9.23056
מות	-9.23067
גל	-9.23088
▁הישראלי	-9.23165
דר	-9.234
▁אמרתי	-9.23454
כן	-9.23467
▁חברי	-9.23568
▁עליה	-9.23692
ֶ	-9.23709
▁התעופה	-9.23798
▁O	-9.23805
▁—	-9.23805
▁יכולות	-9.23894
▁גורם	-9.23925
▁המו	-9.23928
▁שיהיה	-9.23942
F	-9.24248
יז	-9.24305
▁הבינלאומי	-9.24361
▁24	-9.24425
▁מאמינים	-9.2447
▁50	-9.24583
▁מחיר	-9.24671
▁המחיר	-9.24747
▁לילדים	-9.24761
▁מסוג	-9.24952
▁להגן	-9.25247
▁איראן	-9.25253
וט	-9.25562
▁הרכב	-9.25582
▁אילו	-9.25646
▁קטנה	-9.25762
▁מערכ	-9.25775
▁כמות	-9.25819
▁השתמש	-9.25973
▁סרט	-9.25977
▁שמו	-9.26011
ראה	-9.26025
▁גדולים	-9.26029
▁לקח	-9.26085
▁25	-9.26371
▁לס	-9.26374
▁ך	-9.26387
▁לשמוע	-9.26455
▁אנרגיה	-9.26501
w	-9.26553
▁לשלם	-9.26605
קל	-9.26669
▁ניהול	-9.26719
▁בחודש	-9.26725
▁שווה	-9.26853
▁מוצרים	-9.26855
זו	-9.2696
▁לדוגמה	-9.27172
▁אמת	-9.27228
בל	-9.27263
▁אבא	-9.27318
חשבתי	-9.2732
▁צוות	-9.27334
▁הרב	-9.27364
▁אחוז	-9.27544
▁מספק	-9.27706
▁המטרה	-9.27712
▁לפעול	-9.27844
▁מסוים	-9.27874
▁הכסף	-9.27929
▁לנסות	-9.2804
▁לצד	-9.28061
▁טבעי	-9.2807
▁איכות	-9.28177
די	-9.28179
▁ערב	-9.28182
מאה	-9.28229
זר	-9.2825
▁רי	-9.28301
▁במה	-9.28327
אלי	-9.28355
▁מיוחד	-9.28371
▁ניסיון	-9.28448
▁לישראל	-9.2877
▁מלחמה	-9.28828
▁באירופה	-9.28895
▁מופיע	-9.28949
▁האוויר	-9.28963
▁V	-9.29196
▁לאחרונה	-9.29259
▁הש	-9.29268
ורג	-9.29289
▁הנוכחי	-9.29317
נתן	-9.29465
▁עיר	-9.29514
▁צעד	-9.29626
▁חודש	-9.29838
קט	-9.2994
▁שבועות	-9.29944
▁מו	-9.29953
▁הדין	-9.30018
▁אישית	-9.30061
▁קטנים	-9.30079
▁וכך	-9.30084
מד	-9.30308
▁ימי	-9.30324
▁קבוצה	-9.30355
▁הקשור	-9.30398
▁העובדה	-9.30414
▁נוספות	-9.30439
▁חצי	-9.30592
▁הצליח	-9.30606
▁ארבע	-9.30637
▁תקופה	-9.30666
▁התינוק	-9.31047
▁פרק	-9.31139
▁המוח	-9.31328
▁נא	-9.31401
ייה	-9.31681
▁המערכת	-9.31705
▁קבוע	-9.31803
ִ	-9.31839
▁אמרו	-9.31887
טל	-9.3211
▁גדל	-9.3212
מצ	-9.3215
at	-9.322
▁כלום	-9.32289
V	-9.32344
▁עצמך	-9.32443
ום	-9.32526
לט	-9.32864
▁מוכן	-9.33007
▁מבט	-9.33081
▁ארבעה	-9.3309
כר	-9.33216
סטר	-9.33295
▁שינויים	-9.33418
▁לקוחות	-9.33571
k	-9.33607
▁''	-9.33669
on	-9.33714
▁כיוון	-9.33729
▁עסק	-9.33792
כדי	-9.33946
ic	-9.3397
▁החולים	-9.34012
▁קרא	-9.34091
לס	-9.34232
▁הטובה	-9.34278
צו	-9.34279
▁הא	-9.34302
▁מאי	-9.34384
▁שצריך	-9.34418
▁2015	-9.3442
▁חד	-9.34472
▁לעמוד	-9.34526
ונות	-9.34654
▁אוהבת	-9.34677
▁X	-9.34858
▁אודות	-9.34942
יג	-9.34973
▁מעניין	-9.35025
▁כזו	-9.35028
▁to	-9.35031
▁הבאים	-9.3508
שת	-9.35118
על	-9.35178
▁באו	-9.35197
▁להק	-9.35248
▁סו	-9.35264
▁ראיתי	-9.35356
▁האור	-9.35428
ּ	-9.35551
▁היכ	-9.35719
▁מלאה	-9.35882
▁פתרון	-9.35891
עבור	-9.35931
▁חש	-9.3608
▁השלישי	-9.36195
▁מנהל	-9.36236
▁כתוצא	-9.3626
▁טר	-9.36358
▁הטבע	-9.36503
▁פחד	-9.3664
▁הקבוצה	-9.36755
▁U	-9.36838
▁שגם	-9.36928
▁הלאומי	-9.36952
▁השפעה	-9.37029
אין	-9.3712
▁הגיעו	-9.37219
▁האחרונים	-9.37385
▁צעירים	-9.37391
▁תשומת	-9.37454
▁תמיכה	-9.37467
▁ממנה	-9.37477
▁ורק	-9.37497
▁הופכ	-9.37593
▁סוגי	-9.37598
קים	-9.37685
▁העסק	-9.37691
▁לאור	-9.37703
▁הסכם	-9.37743
▁הס	-9.37759
▁נוט	-9.37884
▁»	-9.37886
▁הלילה	-9.38023
▁מילים	-9.38024
▁o	-9.38077
ur	-9.38225
נד	-9.38226
ed	-9.38297
▁w	-9.38338
H	-9.38598
▁בעתיד	-9.38609
▁מבחינה	-9.38708
▁ביחס	-9.38745
▁התשובה	-9.38777
▁התיכון	-9.38814
▁לשפר	-9.38906
▁בבוקר	-9.38915
▁מעמד	-9.38964
▁m	-9.38989
▁בעזרת	-9.39051
▁בשוק	-9.39146
▁תש	-9.39151
▁לרוב	-9.39215
▁ספרים	-9.39299
▁קשור	-9.39409
▁קול	-9.39582
▁חזרה	-9.39601
▁ing	-9.39639
▁קבוצות	-9.39681
▁המים	-9.3971
מש	-9.3971
▁במרכז	-9.39738
▁הארגון	-9.39744
▁נקודות	-9.39791
▁האירופי	-9.3991
▁בהן	-9.39925
▁נכנס	-9.40102
▁מקבלים	-9.40114
▁שעה	-9.40218
▁הלא	-9.40322
▁פר	-9.40323
▁בקלות	-9.40441
U	-9.40467
▁מכיל	-9.40469
▁המשטרה	-9.40569
כת	-9.40645
▁באמצע	-9.40667
▁התוכנית	-9.407
▁חולים	-9.40781
,000	-9.40831
אותו	-9.40949
▁סט	-9.40984
▁תרופות	-9.41014
▁דוד	-9.41094
▁r	-9.4112
▁תכנית	-9.41132
וּ	-9.41216
▁לגלות	-9.41247
▁רשת	-9.41254
▁הרוח	-9.41299
ייצר	-9.41379
▁המלך	-9.41463
▁שאר	-9.41483
פות	-9.41583
▁לאדם	-9.41718
▁i	-9.4172
▁ראה	-9.41731
▁עמד	-9.41964
▁לקראת	-9.42078
▁מוקדם	-9.42252
▁תמונה	-9.42407
▁מגיעים	-9.42442
▁חופש	-9.42493
וג	-9.42525
יך	-9.42573
▁למקום	-9.42649
▁מפתח	-9.42653
▁חוץ	-9.4266
ילה	-9.42706
▁בחר	-9.42733
▁|	-9.42783
▁פרי	-9.42998
▁חושבת	-9.43112
מל	-9.43172
▁er	-9.4333
▁האיש	-9.43491
▁נס	-9.43568
▁הקהילה	-9.43574
רציתי	-9.43583
▁פרס	-9.43592
▁המון	-9.4361
▁לפתח	-9.43685
▁השמש	-9.43766
▁יה	-9.43777
▁ארוך	-9.43912
▁.”	-9.43917
▁t	-9.43917
▁נותן	-9.4395
▁בתחילת	-9.44246
▁מראש	-9.44285
▁חוקי	-9.44331
▁100	-9.44339
▁ההורים	-9.44349
▁ניתוח	-9.44508
▁שאפשר	-9.44597
▁שאינם	-9.44807
▁ולאחר	-9.44823
▁לבדוק	-9.44852
▁בנו	-9.44856
וף	-9.44962
▁במאי	-9.45192
▁כולו	-9.4526
▁שכן	-9.45269
אס	-9.45383
▁בחדר	-9.45445
▁ואפילו	-9.45473
▁החלק	-9.45503
ווה	-9.45517
▁פול	-9.45531
▁הגבוה	-9.45602
▁שלישי	-9.45612
▁גבר	-9.45617
▁קיימת	-9.45648
▁האזור	-9.45652
▁אסור	-9.45654
רס	-9.45678
▁האמריקאי	-9.45747
▁נשק	-9.45876
▁לבקר	-9.45908
h	-9.46097
▁להבטיח	-9.46126
▁אינטרנט	-9.46138
▁אלי	-9.46148
ונה	-9.46229
▁יקרה	-9.46298
▁שוק	-9.46314
▁19	-9.46333
▁הצבא	-9.46368
צה	-9.46399
▁צעיר	-9.46403
▁זר	-9.4645
▁מגוון	-9.46538
▁הפ	-9.4663
▁בריא	-9.46639
▁רוסיה	-9.46736
▁הנושא	-9.46787
▁ראו	-9.46815
▁תוכניות	-9.46826
▁בינואר	-9.46998
▁ויותר	-9.47076
רג	-9.47137
▁האנושי	-9.4714
▁יוצר	-9.47199
ַ	-9.47338
אילו	-9.47369
חל	-9.47425
▁עזרה	-9.47438
▁מיני	-9.47441
▁מכיר	-9.47686
▁2013	-9.47695
▁משחקים	-9.47709
▁מתאים	-9.4776
נר	-9.4781
▁מסר	-9.47913
▁יחסים	-9.47925
▁’	-9.47966
▁בערך	-9.48047
▁צרפת	-9.48127
שר	-9.48132
ֵ	-9.48175
▁פיתוח	-9.48223
▁שיר	-9.48241
▁בחברה	-9.48404
▁דורש	-9.48461
▁חדר	-9.48501
ניסיון	-9.48593
▁חייו	-9.4868
▁מאיתנו	-9.48755
▁זקוק	-9.48778
▁להעביר	-9.48786
▁לשימוש	-9.48882
תמיד	-9.48903
▁איזו	-9.48926
▁חזר	-9.4897
אז	-9.49155
▁השיר	-9.49157
▁עשו	-9.49194
▁האמיתי	-9.4941
-20	-9.49446
▁נח	-9.49546
▁מוכנים	-9.49653
▁הנכון	-9.49693
▁שאם	-9.49779
▁מין	-9.49779
▁היחסים	-9.49834
▁רחוק	-9.4986
▁d	-9.49882
שו	-9.49917
▁21	-9.4999
▁לשעבר	-9.5
▁המוצר	-9.50056
ירות	-9.50165
▁אחריות	-9.50225
▁מאת	-9.50307
רט	-9.50368
▁בלילה	-9.50402
זי	-9.50453
▁הגדולים	-9.50483
▁קבוצת	-9.50545
▁קור	-9.50572
▁קוד	-9.50621
▁תקשורת	-9.50655
▁נמצאת	-9.50775
▁נדרש	-9.50819
▁העובדים	-9.50829
▁שאנשים	-9.50858
▁ראשית	-9.50863
▁כבוד	-9.50975
▁$	-9.51015
▁כאב	-9.51134
שים	-9.51346
▁מחפשים	-9.51399
ra	-9.51474
▁ברשת	-9.51563
▁מבקש	-9.51589
▁האחרים	-9.51616
▁לנצח	-9.51646
▁הטובים	-9.51666
▁ואין	-9.517
▁גורמים	-9.51702
שה	-9.51951
▁חינוך	-9.51993
▁אבי	-9.52026
▁מק	-9.52055
▁במקר	-9.52066
לבד	-9.52079
▁מסוגלים	-9.5217
▁העתיד	-9.52231
▁ביקורת	-9.52263
▁רמת	-9.52285
▁נאמר	-9.52339
▁טי	-9.52354
▁מקצוע	-9.52355
▁גוף	-9.52465
▁העולמי	-9.52495
▁הפכ	-9.5253
▁הצורך	-9.52544
▁משנת	-9.52573
▁נותנ	-9.52641
▁גרמניה	-9.52754
▁קרב	-9.52772
▁לילה	-9.52788
▁בצד	-9.52859
▁החינוך	-9.52912
▁העליון	-9.52922
▁איננו	-9.53115
▁עו	-9.53133
▁לזכור	-9.5316
תמיכה	-9.53179
▁רצון	-9.53339
▁טבע	-9.53386
▁לאפשר	-9.53425
▁גו	-9.53439
▁ספורט	-9.53474
▁כרגע	-9.53475
הפך	-9.53598
▁לסייע	-9.536
▁אליה	-9.53646
▁ארוח	-9.53673
▁החלטה	-9.5369
▁הצ	-9.53748
▁קפה	-9.53814
▁דה	-9.53874
▁אזור	-9.53921
▁הח	-9.54036
▁מחקרים	-9.54171
▁בזכות	-9.54268
▁יוכל	-9.54381
▁בשנות	-9.54419
מא	-9.54453
▁הפלסטינים	-9.54481
אק	-9.54517
תחום	-9.54553
ri	-9.54553
▁g	-9.54597
▁אתמול	-9.5465
▁המילה	-9.54653
▁ביוני	-9.5466
הוסיף	-9.54672
▁קוראים	-9.54695
▁הבחירות	-9.54776
▁מתייחס	-9.54789
▁חשיבות	-9.54809
▁חופשי	-9.54826
▁ניתנ	-9.54955
▁עבד	-9.54958
▁האדמה	-9.54973
▁עתיד	-9.55008
▁נועד	-9.55067
▁ביקש	-9.55104
▁בשני	-9.55106
▁רופא	-9.55146
▁מוצר	-9.55287
▁החלו	-9.55406
▁מחר	-9.55472
▁לבקש	-9.55522
▁בספטמבר	-9.55607
▁הרעיון	-9.55645
▁בשר	-9.55685
וז	-9.55694
▁המציאות	-9.55728
▁תרבות	-9.55746
▁שומר	-9.55779
▁בדצמבר	-9.55794
▁דיווח	-9.5585
וח	-9.55933
▁שאל	-9.55999
▁צבע	-9.56026
▁יחסי	-9.56031
▁המרכזי	-9.56034
▁שירותי	-9.56085
▁מסוימת	-9.56102
▁מבינים	-9.56103
f	-9.56203
▁להכיר	-9.5623
▁המס	-9.56246
▁לצפות	-9.56296
▁משפט	-9.56301
▁חמישה	-9.56335
▁לשאול	-9.56403
▁לבוא	-9.56413
▁עיצוב	-9.56484
גן	-9.56501
▁זוג	-9.56524
▁יוכלו	-9.5656
▁l	-9.56562
סון	-9.56664
▁אמנם	-9.56689
▁להסביר	-9.56902
es	-9.57215
לפתוח	-9.57219
▁בוקר	-9.57239
סיים	-9.57278
▁ישוע	-9.57354
תוצאה	-9.57415
▁ובכל	-9.57423
▁מומלץ	-9.57445
▁שעבר	-9.57575
▁הק	-9.5767
▁להאמין	-9.577
▁סיבות	-9.57797
▁לחפש	-9.57822
▁האלו	-9.5793
▁מתחילים	-9.57936
▁לאתר	-9.57967
ינים	-9.58035
▁הינו	-9.5808
▁שכבר	-9.58082
משיך	-9.58094
ולי	-9.58147
▁‘	-9.58185
ִי	-9.58185
▁מהוו	-9.58212
▁מרכזי	-9.5822
▁להפסיק	-9.58258
▁מהן	-9.58288
▁בימים	-9.5832
▁זוכר	-9.58384
▁יצר	-9.5839
▁נהג	-9.58471
▁פרטים	-9.58495
▁שיתוף	-9.58687
▁בניו	-9.58869
▁במערכת	-9.58947
▁לוח	-9.58981
▁2018	-9.59049
▁J	-9.59057
▁ישירות	-9.59088
▁אחראי	-9.59112
▁שזו	-9.59126
▁התקשורת	-9.59165
▁חייבת	-9.59198
▁2017	-9.5922
אט	-9.59239
▁חשבון	-9.59295
▁צבא	-9.59469
פנות	-9.59533
▁נכתב	-9.59535
▁נמוך	-9.59554
▁עובר	-9.59752
רח	-9.59756
▁אפשרויות	-9.59855
▁הביא	-9.59873
▁בהמשך	-9.59911
נא	-9.60223
▁צו	-9.60258
▁ואנחנו	-9.60263
▁הזוג	-9.60273
▁האנרגיה	-9.60277
▁בקרוב	-9.60285
▁לטיפול	-9.60303
▁ידעתי	-9.60314
▁ההחלטה	-9.60408
▁שמות	-9.60513
-3	-9.60516
▁בלב	-9.6052
▁מוביל	-9.60563
▁ביולי	-9.6062
▁מאחר	-9.6067
▁מכירים	-9.60781
▁תשובה	-9.60787
▁Re	-9.60895
▁הימים	-9.60909
▁שמ	-9.60972
▁הופיע	-9.60988
▁עמוק	-9.60992
▁אזרחים	-9.61023
▁הולכים	-9.61031
▁אוויר	-9.61077
▁מקומות	-9.61131
▁שנתיים	-9.61153
▁העניין	-9.61186
▁אפריקה	-9.61187
▁עת	-9.61243
▁פעולות	-9.61287
▁גדולות	-9.61294
▁ממני	-9.61327
▁נוכל	-9.61347
יום	-9.61358
▁העבר	-9.61422
לים	-9.61431
▁תנאי	-9.61453
▁באוקטובר	-9.61462
▁לכולם	-9.61466
מובן	-9.61571
?"	-9.61572
▁מציג	-9.61612
▁קיימים	-9.61692
▁מזל	-9.61695
▁בדבר	-9.61718
▁סדר	-9.61778
W	-9.61808
K	-9.61846
▁סיכוי	-9.61908
▁אליהם	-9.61916
▁בס	-9.61963
▁לע	-9.61989
▁ושוב	-9.62038
▁לחו	-9.62105
עת	-9.62183
▁מרגישים	-9.62204
▁משה	-9.62254
▁ביטוח	-9.62397
▁אזרחי	-9.62475
▁מבחינת	-9.62488
▁לשני	-9.62539
▁הפנים	-9.62589
▁למות	-9.62693
▁רעיון	-9.62698
▁לעבודה	-9.627
▁להציל	-9.62754
▁הדם	-9.62871
▁השירות	-9.62923
▁החלטות	-9.62929
▁בחשבון	-9.62943
אב	-9.62963
il	-9.62973
▁חוזר	-9.62982
▁ביטחון	-9.63008
▁עצמנו	-9.63008
▁יות	-9.63075
▁החומר	-9.63113
▁בחו	-9.63178
▁בחיי	-9.63184
▁לבן	-9.63194
▁היהודית	-9.63209
▁נוצר	-9.63216
▁העור	-9.63231
▁מוכר	-9.63299
▁בחזרה	-9.63417
▁שאינ	-9.63521
▁הרופא	-9.63604
▁22	-9.6365
▁התנהגות	-9.63728
▁..."	-9.63767
▁מרא	-9.63847
מרחק	-9.6385
▁משקל	-9.6385
▁ממ	-9.6388
▁תקופת	-9.63974
▁עשרה	-9.63999
am	-9.64173
▁נזק	-9.64232
▁מושג	-9.64333
▁אישור	-9.64369
▁למד	-9.64442
▁בנובמבר	-9.64535
▁להימנע	-9.64584
▁לחיים	-9.64651
▁בעבודה	-9.64665
▁שינה	-9.64697
▁במספר	-9.64892
▁נפש	-9.64904
▁האישה	-9.64953
אות	-9.64959
▁הקו	-9.65028
▁פרו	-9.65095
▁קורא	-9.65187
הניח	-9.652
▁שטח	-9.65208
▁יושב	-9.65268
▁דת	-9.65372
פעילות	-9.65429
▁כלשהו	-9.65493
▁לטפל	-9.65714
וֹ	-9.658
▁עזב	-9.6596
us	-9.65965
▁מח	-9.66013
▁שמע	-9.66044
כך	-9.66075
נצל	-9.66162
▁עבודת	-9.66181
▁התלמידים	-9.66329
▁פרטי	-9.66344
יף	-9.6636
▁המת	-9.66399
▁וכי	-9.66462
▁פתוח	-9.66485
▁החלה	-9.66521
▁השטח	-9.66542
▁לח	-9.66586
▁התמונה	-9.66646
ורי	-9.66671
▁מרי	-9.668
▁שמונה	-9.6683
יין	-9.66861
▁השלום	-9.66886
▁סופר	-9.66915
▁הוסיף	-9.66932
▁פירוש	-9.66986
תקן	-9.67082
מור	-9.67105
▁23	-9.67113
▁הנשים	-9.67133
▁מהיר	-9.67156
▁נבחר	-9.67172
▁[...]	-9.67179
▁מג	-9.67184
▁60	-9.67208
▁עתה	-9.6728
▁הכלכלי	-9.67292
▁איתם	-9.67309
▁יצירת	-9.67313
בין	-9.6737
▁במחקר	-9.67402
▁סטודנטים	-9.67426
▁בסך	-9.67428
▁פו	-9.67429
▁שחור	-9.67435
ורה	-9.67526
▁מחשב	-9.6753
▁במשחק	-9.6762
▁ראשי	-9.67747
▁חיפוש	-9.67748
▁בשעה	-9.67821
▁פועל	-9.67946
מני	-9.67974
▁שנמצא	-9.68002
▁ארוכה	-9.68035
▁צד	-9.68069
ונ	-9.68241
▁ברוב	-9.68267
▁ונ	-9.6838
כולם	-9.68405
▁מל	-9.68422
חזור	-9.68544
▁חשובה	-9.6857
▁בגוף	-9.68571
פור	-9.68654
▁מוות	-9.68657
▁נפתח	-9.68734
▁קי	-9.68847
▁לרכוש	-9.68881
בול	-9.68891
▁פתח	-9.68908
▁אחוזים	-9.68965
▁באוגוסט	-9.68971
▁האפשרות	-9.68999
▁עדיף	-9.69014
▁הראשי	-9.69136
▁ביניהם	-9.69174
▁שליטה	-9.69292
▁אמנות	-9.69294
▁טובות	-9.6932
▁מחזיק	-9.69332
▁למצב	-9.6935
אבל	-9.69386
▁הערב	-9.69413
▁הצדדים	-9.69427
▁יהם	-9.69438
▁סוגים	-9.69487
▁מידי	-9.69493
▁ההבדל	-9.69501
▁סא	-9.69541
▁ליום	-9.69564
מבנה	-9.69582
▁הגנה	-9.69619
▁עליי	-9.69754
▁תואר	-9.69783
▁מיוחדת	-9.69818
▁משמעותית	-9.69906
▁בטח	-9.69909
▁בכיר	-9.69953
שיתוף	-9.70124
השוואה	-9.70126
▁דעת	-9.70181
▁האנושות	-9.70187
▁ארץ	-9.70204
▁לצורך	-9.70207
▁פעיל	-9.70263
▁בחוץ	-9.70286
li	-9.70306
▁לעזוב	-9.70345
אד	-9.70408
▁2008	-9.70433
▁המוות	-9.70473
▁אינן	-9.70476
▁לעצור	-9.70645
▁מור	-9.70679
▁בירושלים	-9.70719
▁התהליך	-9.70728
▁סרטן	-9.70731
▁ביטוי	-9.70751
▁קבלת	-9.70767
▁שא	-9.70814
סמוך	-9.70822
ad	-9.70828
▁נכונה	-9.70871
▁בעיני	-9.70892
ינס	-9.71002
▁במזרח	-9.7103
▁הפעולה	-9.71092
▁להציג	-9.7122
▁הפעילות	-9.71336
▁לנהל	-9.71346
▁בסין	-9.71371
▁לזהות	-9.71391
▁עונה	-9.71418
▁גב	-9.71422
ch	-9.71428
קר	-9.71431
מישהו	-9.71496
▁גרם	-9.71505
▁נמוכה	-9.71532
▁רמות	-9.71554
▁סנט	-9.71558
▁טרי	-9.7166
▁ברית	-9.7166
▁באי	-9.71694
▁מצליח	-9.71696
▁שקט	-9.71718
פורסם	-9.71823
▁הידע	-9.7184
▁אופן	-9.71848
▁מותר	-9.71886
▁on	-9.71906
▁משפיע	-9.72092
▁שמה	-9.72155
▁דור	-9.72173
נח	-9.72199
▁בספר	-9.72222
-10	-9.72251
▁בחלק	-9.72253
▁בריטניה	-9.72323
ייט	-9.72324
▁כבד	-9.7234
▁העיקרי	-9.72345
▁עשויה	-9.72351
תוכנית	-9.72356
▁ברמ	-9.7237
▁הקול	-9.72434
▁צריכ	-9.72438
במסגרת	-9.72551
▁מצרים	-9.72559
▁איבד	-9.72578
▁סתם	-9.72679
▁ירוק	-9.72694
▁יקר	-9.72733
▁בש	-9.72785
▁בהיסטוריה	-9.72805
▁מא	-9.72831
שעות	-9.72832
▁קדימה	-9.72876
▁&	-9.72978
▁חג	-9.73003
▁2010	-9.73073
▁סעי	-9.73278
▁הסבר	-9.7328
ֹ	-9.73281
אנשים	-9.73316
▁2007	-9.73335
▁תו	-9.73362
▁לג	-9.7339
▁ההר	-9.73399
z	-9.73487
▁>	-9.73506
▁אירועים	-9.73517
▁איתי	-9.73543
▁בקר	-9.73614
▁חיילים	-9.73615
▁התחיל	-9.73617
com	-9.73646
▁שלושת	-9.73743
▁שיעור	-9.73792
▁עוזר	-9.73843
פול	-9.73857
▁מבוסס	-9.73957
▁מילה	-9.74051
▁פרסום	-9.74176
חברות	-9.74206
▁לישון	-9.74241
▁אלקטרוני	-9.74248
תחנת	-9.74259
▁יחסית	-9.74295
▁הלקוחות	-9.74303
▁עקב	-9.74306
▁בבקשה	-9.74313
▁להראות	-9.74332
▁כם	-9.74401
▁הישראלית	-9.74406
▁טרור	-9.74495
▁גודל	-9.74566
▁מטרות	-9.74577
-5	-9.74603
▁האירוע	-9.74612
▁מנסים	-9.74638
▁חברתית	-9.7466
קנה	-9.74678
▁הבינלאומית	-9.74836
▁ראוי	-9.74865
▁האב	-9.74921
▁האהבה	-9.74927
▁לקבוע	-9.74927
▁המילים	-9.7493
▁אלינו	-9.74961
▁תשלום	-9.74968
▁הרשמי	-9.75013
▁לציין	-9.75015
▁הדת	-9.75035
00	-9.75083
שלוח	-9.75087
-1	-9.7513
▁ביקור	-9.75187
▁מדהים	-9.75196
▁התוצאות	-9.75229
טה	-9.75254
▁המקורי	-9.75284
ll	-9.75345
▁דרום	-9.75387
▁כנגד	-9.75388
▁בכוח	-9.75505
▁0	-9.75576
▁מוח	-9.75749
▁הסביבה	-9.75782
▁ומי	-9.75801
▁פתאום	-9.75901
בית	-9.75909
▁שלהן	-9.75917
▁השוק	-9.75931
▁טלוויזיה	-9.76044
▁חל	-9.76073
▁קבע	-9.76104
▁החשוב	-9.76126
▁נער	-9.76154
▁35	-9.76279
אה	-9.76288
▁מחפש	-9.76321
▁זקוקים	-9.76522
▁סיפר	-9.76532
▁פא	-9.7657
▁מתח	-9.76582
▁מזכיר	-9.76628
מון	-9.76634
▁הראש	-9.76638
▁שכר	-9.76658
▁שמחה	-9.76669
▁התפתחות	-9.7667
▁בעניין	-9.76679
▁?”	-9.76697
▁לחבר	-9.7672
▁השאר	-9.76767
▁מטרה	-9.7684
▁באפריל	-9.76872
▁ריק	-9.76928
▁הבאות	-9.7694
וצ	-9.76963
▁עליכם	-9.77003
▁וידאו	-9.77023
▁ליהנות	-9.77031
רצ	-9.77055
▁להציע	-9.77066
▁בד	-9.77069
דף	-9.77073
▁מביא	-9.77104
▁נהדר	-9.77111
▁בנות	-9.77136
▁שניהם	-9.77155
▁28	-9.77261
▁שהגיע	-9.77281
▁הלאומית	-9.77362
▁עלי	-9.77388
▁מעשי	-9.7739
▁חזקה	-9.77449
ol	-9.77468
▁צפוי	-9.77592
▁הרגע	-9.77678
פצ	-9.77697
▁אוניברסיטת	-9.77764
כב	-9.77785
▁בפברואר	-9.77813
▁בסרט	-9.77817
▁הצלחה	-9.77911
▁דר	-9.77953
▁הארי	-9.78019
חר	-9.78046
▁חיל	-9.78103
X	-9.78236
▁לבסוף	-9.78238
▁עורך	-9.78387
▁',	-9.78421
▁לפתור	-9.78451
▁שעברה	-9.78457
סר	-9.78467
▁מוזיקה	-9.78614
▁כזאת	-9.78632
נטי	-9.7865
▁הגיעה	-9.78662
▁להוציא	-9.78679
▁נע	-9.78685
בעיות	-9.78716
▁רצה	-9.78735
▁In	-9.78746
▁לעבר	-9.7888
▁המזון	-9.78902
▁נושאים	-9.78932
▁סל	-9.78941
▁התוצאה	-9.79109
▁הרגשת	-9.79128
-18	-9.79182
▁2000	-9.79188
▁יחיד	-9.79251
▁כרטיס	-9.79285
▁המדע	-9.79317
▁עזר	-9.79337
▁הקרב	-9.79346
▁ההגנה	-9.79398
▁בתהליך	-9.79412
▁חייהם	-9.79414
הפכו	-9.7952
▁אלכוהול	-9.7955
▁זמין	-9.79583
▁ביצוע	-9.79586
יון	-9.79609
▁שאי	-9.79634
▁לעצמי	-9.79639
▁מרבית	-9.79642
▁מלמד	-9.7965
▁האש	-9.79659
יני	-9.79683
גור	-9.7972
גורמים	-9.79806
הפוך	-9.79861
▁קטנות	-9.79895
בן	-9.79913
▁השפה	-9.80012
▁ואמר	-9.80077
▁מהי	-9.80103
▁”,	-9.80117
▁מתו	-9.80228
▁הזכות	-9.80255
▁עומדים	-9.80284
▁פרויקט	-9.8035
▁הסיכון	-9.80367
▁עור	-9.80407
▁לחוק	-9.80438
▁התא	-9.80452
▁26	-9.80516
▁שחי	-9.80539
▁במטרה	-9.80609
▁קובע	-9.80627
▁נוח	-9.80695
▁אג	-9.80718
עד	-9.80815
▁החזק	-9.80819
מגוון	-9.80822
▁לטובת	-9.80854
▁כולה	-9.80883
▁בקשר	-9.80897
▁קמ	-9.80924
▁פור	-9.80994
▁לדבריו	-9.81002
▁מסתכל	-9.81062
▁נקודת	-9.81074
רע	-9.81134
▁זכה	-9.81148
is	-9.81333
להשפיע	-9.81387
יח	-9.81387
▁שיפור	-9.81487
▁מסע	-9.81508
▁עץ	-9.81624
▁כשאני	-9.81628
▁העונה	-9.81647
▁כותב	-9.81663
▁אנג	-9.8168
▁אמיתית	-9.81791
▁לידי	-9.81814
▁מושלם	-9.81826
▁בפועל	-9.81834
אנו	-9.81846
▁הלקוח	-9.81879
▁בעד	-9.82025
▁אלימות	-9.82057
▁איתך	-9.82092
▁למדי	-9.82132
▁החברות	-9.82324
▁לעלות	-9.82347
▁הכלב	-9.82446
▁מקרים	-9.82455
▁למכור	-9.82527
יא	-9.82552
▁נחמד	-9.82588
ורד	-9.8259
▁נורא	-9.82671
מיד	-9.82699
סו	-9.82742
ro	-9.82878
▁אס	-9.82936
▁הפרויקט	-9.82937
▁הטכנולוגיה	-9.82959
-15	-9.8297
▁בשטח	-9.82995
▁אגב	-9.82997
מסגרת	-9.83076
▁היסטוריה	-9.83105
▁השר	-9.83115
למה	-9.83126
▁להוביל	-9.83216
▁מייצג	-9.83229
▁טו	-9.83232
▁רעיונות	-9.83239
איכות	-9.83261
פרסם	-9.83291
▁מידה	-9.83297
▁ואיך	-9.83383
יזם	-9.83558
▁המוצרים	-9.83572
▁בניגוד	-9.83576
▁החלל	-9.83599
חשוב	-9.8362
▁הטלפון	-9.83655
▁מותו	-9.8367
▁יא	-9.83696
▁סקר	-9.83697
▁לעצמו	-9.83711
צב	-9.83743
▁תכונות	-9.83759
לם	-9.84077
ter	-9.84081
▁Y	-9.84086
▁מתאר	-9.84104
▁בדרום	-9.84158
▁אמצעי	-9.84166
▁הבנק	-9.84196
id	-9.84223
▁הלימודים	-9.84266
▁רפואי	-9.84325
▁התנועה	-9.84331
▁פעמיים	-9.84332
▁תושבי	-9.84482
▁במחיר	-9.8449
אינני	-9.84504
▁האישי	-9.84585
▁שיער	-9.84617
▁חיות	-9.84629
כים	-9.84671
▁אח	-9.84725
▁תנועה	-9.84839
▁מלון	-9.84848
▁להן	-9.84907
▁הערבי	-9.8497
▁צפון	-9.84986
▁הפלסטינית	-9.85026
▁משפחת	-9.85071
▁מחלות	-9.85209
▁הקודם	-9.8526
פא	-9.85288
▁לנשים	-9.85394
▁הנראה	-9.8542
אופן	-9.85505
▁ייצור	-9.85517
▁הבלתי	-9.8554
▁עצמכם	-9.85603
▁הבחירה	-9.85606
▁במילים	-9.85611
▁התרבות	-9.85633
▁מתרחש	-9.85635
▁תחילת	-9.85653
סוכנות	-9.85659
משיכו	-9.85674
▁בינתיים	-9.85711
▁2016	-9.8582
טור	-9.85821
▁1,	-9.85867
▁המפתח	-9.85893
יעשה	-9.85895
▁27	-9.85994
▁מטר	-9.86002
▁מחבר	-9.86042
יתכן	-9.86181
כס	-9.86252
▁for	-9.86348
▁דובר	-9.86351
▁תלמידים	-9.86406
▁מוזר	-9.86532
▁הצוות	-9.86567
▁אירוע	-9.86576
▁בבתי	-9.86587
▁המפלגה	-9.86652
▁הורים	-9.8675
▁סבל	-9.86774
▁בשימוש	-9.86835
▁ישנה	-9.86849
▁ההזדמנות	-9.86894
▁כשאתה	-9.86918
▁גרוע	-9.86924
רגשות	-9.86927
▁ביד	-9.86943
▁הידוע	-9.86948
▁רגיל	-9.86981
חות	-9.87029
עצם	-9.87079
▁בעלות	-9.87134
הפחית	-9.87191
▁־	-9.87213
▁כשהם	-9.87253
-4	-9.87281
▁אנא	-9.87313
▁הבוקר	-9.87372
▁שלב	-9.87383
▁עוסק	-9.8742
▁המחלה	-9.87422
▁ועכשיו	-9.87428
▁ראשונה	-9.87459
▁מנהיג	-9.87603
▁מסכים	-9.87617
חק	-9.87638
ישראל	-9.87654
▁שמש	-9.87703
▁סימן	-9.87715
▁קורס	-9.87748
▁מזרח	-9.87774
▁מקורות	-9.87799
▁לשתף	-9.87858
▁קיומ	-9.87862
▁הגדולות	-9.87877
▁2009	-9.87901
▁אושר	-9.87928
▁השונים	-9.87989
▁תוכן	-9.88014
▁מטרת	-9.88031
▁90	-9.88097
▁כיף	-9.88126
▁החוצה	-9.88153
▁קרי	-9.88196
▁הבנתי	-9.88203
▁מניח	-9.88261
▁שונא	-9.88409
▁ממך	-9.88416
▁שחקנים	-9.88421
שיטות	-9.88425
▁אמריקאי	-9.88522
מנו	-9.88597
אחת	-9.88614
▁מקצועי	-9.88633
▁שחקן	-9.88667
▁כתוב	-9.88695
▁פתרונות	-9.88714
▁אביו	-9.88731
▁לחלק	-9.88733
▁מכם	-9.88857
▁אנגלית	-9.88871
▁צי	-9.88914
▁מסביב	-9.88951
▁לתקן	-9.89031
▁הקמת	-9.89085
▁כמ	-9.89214
▁החוקרים	-9.89268
▁#	-9.89301
▁מודל	-9.89385
יקה	-9.8941
▁החיפוש	-9.89443
▁נתניהו	-9.89464
▁פלסטינים	-9.89467
▁המערבית	-9.89492
▁מרגישה	-9.89516
▁מזו	-9.89533
▁h	-9.89671
▁מבית	-9.89679
▁45	-9.89757
▁שפה	-9.89773
▁אב	-9.89847
רמת	-9.89898
▁עי	-9.89987
▁למדינה	-9.90012
▁תה	-9.90037
▁Google	-9.90255
▁שקורה	-9.9033
▁סיכון	-9.90346
▁יקבל	-9.9044
et	-9.90468
▁ממשיך	-9.90524
▁עצמית	-9.90528
▁מודע	-9.90556
▁הזדמנויות	-9.90571
▁משמש	-9.90592
▁הקיץ	-9.906
גבר	-9.90657
▁במשרד	-9.90674
▁לד	-9.90745
▁ניסוי	-9.90755
זכות	-9.90875
▁לשמש	-9.90894
▁תחושה	-9.90896
▁ייחודי	-9.90907
מע	-9.90953
פש	-9.91047
▁לפגוע	-9.91131
th	-9.91137
▁ניק	-9.91145
קול	-9.91146
▁עברו	-9.91268
▁דופן	-9.91292
▁בצפון	-9.91307
טון	-9.91387
▁אופי	-9.91388
▁התפקיד	-9.91405
▁2006	-9.91413
▁k	-9.91461
▁יבש	-9.9147
▁2014	-9.91492
▁הוביל	-9.91494
▁בהרבה	-9.91508
▁de	-9.91522
▁+	-9.91557
▁החוץ	-9.91565
▁2019	-9.91576
▁הממוצע	-9.91674
▁הראשונות	-9.91684
דל	-9.91715
▁חשובים	-9.91864
▁התקופה	-9.91904
▁תנו	-9.9198
▁דוח	-9.92008
▁פועלים	-9.92036
מץ	-9.92051
▁מלך	-9.92051
▁חם	-9.92092
▁מורכב	-9.92129
פט	-9.92142
▁היי	-9.92154
▁הדלת	-9.92241
▁לבני	-9.9225
▁מחלק	-9.92273
▁חלב	-9.92293
▁חול	-9.92331
▁להרוג	-9.92376
▁העיניים	-9.92495
▁לאהוב	-9.92534
▁לאחד	-9.92547
▁באנגלית	-9.9262
▁שבת	-9.92669
▁זרים	-9.92708
▁משני	-9.92734
▁כחלק	-9.92771
▁נגמר	-9.92779
▁מדע	-9.92787
▁הלבן	-9.92956
▁שיחק	-9.92971
▁הכנסת	-9.92997
מק	-9.93044
▁צילום	-9.93073
עורר	-9.93083
▁נותר	-9.93178
▁חשש	-9.93203
▁כלבים	-9.9327
סל	-9.93316
▁לשלוט	-9.93344
▁היתר	-9.93415
ציה	-9.9344
▁גז	-9.93444
▁חובה	-9.93481
▁מקרי	-9.93484
▁הכולל	-9.935
▁הצד	-9.93515
▁בתפקיד	-9.93599
▁המשמעות	-9.936
▁בחירה	-9.93606
▁צדק	-9.93637
▁מצביע	-9.93641
▁תקווה	-9.93674
▁מבטיח	-9.93876
▁להחליט	-9.93904
▁!!	-9.94018
ימה	-9.94019
▁חשמל	-9.94031
▁גידול	-9.94102
▁סגור	-9.94119
▁החדשות	-9.94155
ואה	-9.9418
▁הבעיות	-9.94226
▁להצטרף	-9.94263
▁לגיל	-9.94367
▁אמונה	-9.9443
▁שנקרא	-9.94449
▁משתנה	-9.94452
▁בע	-9.94453
▁ינו	-9.94457
▁ישר	-9.94466
▁במקומות	-9.94505
צטרך	-9.94554
ce	-9.9456
▁שקיבל	-9.94604
▁בכתב	-9.94622
▁בטוחה	-9.94687
▁הקטן	-9.94718
קהילות	-9.94736
▁ומתן	-9.94767
▁פוליטית	-9.94768
▁אד	-9.94777
▁המספר	-9.94876
▁אינ	-9.94903
▁הוועדה	-9.94925
▁למרב	-9.9495
נדר	-9.94974
▁נרחב	-9.94994
▁הקהל	-9.95119
בע	-9.9513
▁ברורה	-9.9513
עמ	-9.95207
▁כול	-9.95211
▁ארגונים	-9.9524
▁הצעיר	-9.95241
וא	-9.95255
▁עזה	-9.95341
▁הסדרה	-9.95366
▁מחשבות	-9.9543
▁בגודל	-9.95432
▁השינוי	-9.95462
▁פופולרי	-9.95478
צים	-9.95491
▁מדעי	-9.95499
▁עבודות	-9.95568
▁להילחם	-9.95578
▁הפלסטיני	-9.95585
▁בינלאומיים	-9.95593
▁משפחות	-9.95598
la	-9.95618
▁לדברי	-9.95623
▁דיבר	-9.95679
ta	-9.95772
▁ואולי	-9.95795
▁הבריטי	-9.95805
״	-9.95856
▁להשקיע	-9.9588
▁רצח	-9.95886
מט	-9.9589
▁אדמה	-9.959
▁צורה	-9.95931
▁המרכז	-9.95937
▁עמוד	-9.95957
▁החוב	-9.96031
עלה	-9.9607
▁ההשפעה	-9.96075
חווה	-9.96087
יתרונות	-9.96156
ולד	-9.96161
▁למטה	-9.96164
▁מומחים	-9.96169
▁וחצי	-9.96173
▁y	-9.96255
▁ובין	-9.9626
יץ	-9.96288
▁לימוד	-9.96299
שמר	-9.96324
▁בערב	-9.96325
▁ניכר	-9.96438
▁70	-9.96514
▁רגל	-9.96535
▁שיט	-9.96569
▁מוצרי	-9.96571
גה	-9.96603
כש	-9.96627
עשה	-9.96627
▁מאמר	-9.96636
▁בבריטניה	-9.96656
▁נראית	-9.96667
▁רשמי	-9.96688
▁2012	-9.96766
▁שער	-9.96767
▁השחקנים	-9.96832
▁להחזיר	-9.96859
▁סר	-9.96924
▁האלבום	-9.96945
אינו	-9.96953
▁אבו	-9.96958
מיומנויות	-9.96962
▁בלונדון	-9.96982
▁מפתיע	-9.96983
-2	-9.97068
▁שהו	-9.97108
▁מתחילה	-9.97108
▁חשב	-9.97222
▁ללמד	-9.97272
▁להכין	-9.97321
▁החברים	-9.97339
בטח	-9.97374
▁לשבת	-9.97567
▁עלולים	-9.97575
▁השלב	-9.97645
▁סבור	-9.97698
;	-9.97795
▁וכו	-9.97796
דור	-9.97805
▁בדיקות	-9.97863
▁האוניברסיטה	-9.97868
▁הממשל	-9.97878
The	-9.97899
אוסף	-9.98014
▁הצעד	-9.98078
▁סוריה	-9.98093
▁הרצון	-9.98103
▁במרץ	-9.98142
▁אדום	-9.98149
ie	-9.9826
▁"?	-9.98335
▁נש	-9.98384
▁מודעים	-9.98391
אדם	-9.98417
פנה	-9.98434
▁המקור	-9.98436
▁הצי	-9.98474
▁בנק	-9.98502
▁טכנולוגיה	-9.98524
▁בסביבה	-9.98585
▁פריט	-9.98587
▁נוסעים	-9.986
▁לדעתי	-9.98606
▁בך	-9.9864
▁לומדים	-9.98665
ָה	-9.98712
j	-9.98714
▁כלכלית	-9.98725
טוען	-9.9873
יימס	-9.98744
▁הקרוב	-9.98746
▁מתכוון	-9.98752
▁כלשהי	-9.98816
▁לענות	-9.9888
▁סרטים	-9.98912
▁לאומי	-9.98967
▁ובכן	-9.99061
▁אנטי	-9.99071
עקוב	-9.99085
▁ממשיכים	-9.99109
▁חוויה	-9.99111
אג	-9.99157
▁Me	-9.99165
שחקן	-9.99218
▁שמי	-9.99352
▁תגובה	-9.99419
▁מייצר	-9.99431
▁התנ	-9.99482
▁לחברה	-9.99496
▁פשוטה	-9.99503
▁מגדל	-9.99508
▁2011	-9.99529
▁תינוק	-9.9959
▁בטוחים	-9.99608
▁המאמר	-9.99634
▁^	-9.99659
▁חכם	-9.99755
▁אכפת	-9.99785
▁טעות	-9.9981
▁מיוחדים	-9.99856
▁Windows	-9.99894
▁לקרות	-9.99907
▁חינם	-9.99925
▁ובכך	-9.99927
של	-9.99929
▁שהייתה	-9.99942
יבה	-9.99957
בוא	-9.99962
▁הצלחת	-9.99976
▁29	-9.9998
▁יעיל	-10.0002
▁נמנע	-10.0003
▁מזג	-10.0003
lo	-10.0006
▁לוודא	-10.0007
בק	-10.001
▁שילוב	-10.0022
▁האמריקני	-10.0023
▁עשיתי	-10.0029
לבוש	-10.0032
▁מבצע	-10.0034
▁העתיקה	-10.0037
צטרף	-10.0041
▁לרגע	-10.0044
דות	-10.0045
▁יין	-10.0053
▁באוניברסיטת	-10.0054
ימו	-10.0056
om	-10.0056
–	-10.0057
▁לתמוך	-10.0059
▁עורכי	-10.006
▁מסביר	-10.0061
▁חר	-10.007
▁משותף	-10.0071
חזק	-10.0072
עוד	-10.0075
▁דוגמה	-10.0076
▁הקרקע	-10.0081
▁רגשות	-10.0096
▁מבני	-10.0096
▁WEB	-10.0108
▁פסק	-10.0111
▁אהבתי	-10.0114
▁לדאוג	-10.0117
▁re	-10.0117
▁לקדם	-10.0127
▁שולח	-10.0138
▁טלפון	-10.0145
▁אביב	-10.015
▁שהייתי	-10.0152
▁ארגוני	-10.0158
▁ספרי	-10.016
▁אשתו	-10.0167
▁הקריירה	-10.0168
▁שיווק	-10.0168
▁הודעה	-10.0169
▁פעילויות	-10.017
▁בהתחלה	-10.0181
▁כוס	-10.0183
▁בתקופת	-10.0186
▁צר	-10.0188
▁מחויב	-10.0194
▁הכרחי	-10.0199
▁הקודש	-10.02
רבים	-10.0211
▁הבן	-10.0214
▁עיניים	-10.0223
▁מסוכן	-10.0225
▁לונדון	-10.023
▁גן	-10.0232
▁להסתכל	-10.0234
▁לכאורה	-10.0237
▁למלא	-10.0242
▁תגובות	-10.0256
▁במשקל	-10.0265
▁היסטורי	-10.0267
אפ	-10.0267
▁הדו	-10.0272
▁הטרור	-10.0273
▁יבוא	-10.0278
▁הקר	-10.028
-30	-10.0281
▁האמונה	-10.0289
▁עובדת	-10.0297
▁שדה	-10.0298
▁דמות	-10.0302
um	-10.0305
▁טווח	-10.0306
▁המהפכה	-10.0306
▁נד	-10.0309
▁הנכונה	-10.032
▁נראים	-10.032
ייר	-10.0323
▁להוכיח	-10.0323
שות	-10.0328
▁בשתי	-10.0329
העניק	-10.0333
▁מכאן	-10.0337
▁חוש	-10.0343
▁נור	-10.0346
-12	-10.0352
-16	-10.0355
▁מכתב	-10.0356
▁באחד	-10.0359
▁באשר	-10.036
▁בינלאומי	-10.0364
▁אפל	-10.0365
▁מדויק	-10.0371
▁הציבורי	-10.0372
▁שניים	-10.0374
▁היעד	-10.0377
נקודה	-10.0383
▁בשפה	-10.0383
אבא	-10.0384
▁הפוסט	-10.0385
te	-10.0385
▁להחליף	-10.0386
▁אהבת	-10.0391
▁להתייחס	-10.0392
▁האמריקאית	-10.0405
יית	-10.0407
▁המוזיקה	-10.0412
מלחמת	-10.0412
▁קלה	-10.0418
▁זיכרון	-10.0422
▁להעלות	-10.0424
▁הבנה	-10.0429
▁המודרני	-10.0429
▁קיימות	-10.0437
▁בהכרח	-10.0443
▁המשימה	-10.0443
▁צה	-10.0443
▁נתקל	-10.0443
▁פארק	-10.0445
▁כתובת	-10.0446
▁רחבי	-10.0462
▁משפחתי	-10.0466
▁מעורר	-10.0473
▁אמון	-10.0473
▁להוריד	-10.0474
▁המקרים	-10.0474
▁שומן	-10.0476
▁הציע	-10.0481
▁בחור	-10.0487
▁להודו	-10.0489
▁המטוס	-10.049
▁סיוע	-10.05
▁לאט	-10.0501
▁החי	-10.0503
▁מע	-10.0503
▁העיקרית	-10.0507
לב	-10.0512
▁כלב	-10.0514
▁חיבור	-10.0515
▁שישי	-10.0515
▁חוקרים	-10.0516
▁מציאות	-10.0522
▁שקרה	-10.0523
▁קוריאה	-10.0528
▁רו	-10.0528
▁דף	-10.053
▁תומכ	-10.0533
▁ישראלים	-10.0536
▁הביקור	-10.0536
▁להשתתף	-10.0539
▁מתוק	-10.0542
▁מבוגרים	-10.0545
▁הז	-10.0551
-6	-10.0552
ידע	-10.056
▁בדיקה	-10.0565
▁שומע	-10.0567
▁הגבוהה	-10.057
▁הע	-10.0571
▁קיצוני	-10.0572
▁גבולות	-10.0574
▁ישיר	-10.0575
▁משם	-10.0576
▁לחכות	-10.0576
▁דומים	-10.0576
▁המשתמש	-10.0577
▁בוחרים	-10.0577
▁שיניים	-10.058
▁הוד	-10.058
▁הבר	-10.0582
▁שואל	-10.0593
▁תא	-10.0595
▁עובדות	-10.0596
▁מעשה	-10.0599
▁השינה	-10.0601
un	-10.0615
▁השראה	-10.0616
אנ	-10.063
▁כאמור	-10.063
▁80	-10.0631
▁שקי	-10.0632
▁הנפש	-10.0634
▁משבר	-10.0635
▁נייר	-10.0638
▁נפלא	-10.0639
▁איתנו	-10.064
מס	-10.0642
▁המדיניות	-10.0647
קצב	-10.066
▁מאה	-10.0665
▁Be	-10.0666
▁נוכח	-10.0667
▁שרק	-10.0674
▁האזרחים	-10.0678
מחלות	-10.0683
▁קיבלו	-10.0683
▁To	-10.0684
▁עומדת	-10.0685
▁קשים	-10.0687
▁בשבילי	-10.0691
מערכת	-10.0692
▁במקביל	-10.0693
▁לחקור	-10.0693
סק	-10.0696
▁מחלה	-10.0697
ry	-10.0705
▁שירים	-10.0709
▁כוכב	-10.0714
▁הצבאי	-10.0716
▁הודעות	-10.0716
▁הגב	-10.0717
▁פוליטי	-10.0721
התמקד	-10.0722
▁אבטחה	-10.0723
▁המבוסס	-10.0725
▁פלא	-10.0742
▁ב־	-10.0743
▁טוענ	-10.0743
▁האנושית	-10.0747
פני	-10.0748
▁אוטומטי	-10.075
מתן	-10.0756
▁מיועד	-10.0757
▁2005	-10.0758
▁לשלב	-10.0759
▁רשות	-10.0761
▁מכוניות	-10.0761
▁בצרפת	-10.0762
▁הסביר	-10.0771
▁שמאל	-10.0773
▁גור	-10.0779
▁רקע	-10.0783
▁לארץ	-10.0787
▁היד	-10.0788
▁לשינוי	-10.0791
▁מעולה	-10.0793
▁החזר	-10.0794
▁הכאב	-10.0794
חשוף	-10.0796
▁נקי	-10.0799
▁שירותים	-10.0802
▁חיוני	-10.0803
▁סיפורים	-10.0803
▁al	-10.0804
▁הכפר	-10.0811
▁איטליה	-10.0821
▁שימש	-10.0821
▁אמריקני	-10.0822
▁הגבול	-10.0826
▁נורמלי	-10.083
בור	-10.083
▁בגרמניה	-10.0838
▁בעצמו	-10.0839
▁St	-10.0846
תופעות	-10.0853
▁סקס	-10.0855
▁מגיעה	-10.0856
הייתי	-10.0858
▁המוביל	-10.0859
▁("	-10.086
נז	-10.0861
▁טור	-10.0867
▁דברי	-10.0869
▁בג	-10.087
▁הצליחו	-10.0872
ul	-10.0878
▁הלאה	-10.0886
עידן	-10.0887
ציין	-10.0895
v	-10.0898
▁הטובות	-10.0901
▁פגיש	-10.0909
▁מכונית	-10.0912
▁הכללי	-10.0913
▁המבנה	-10.0918
▁הרשת	-10.0919
▁במקור	-10.0921
▁המאפשר	-10.0922
▁ירד	-10.0922
▁האחר	-10.0924
▁תחושת	-10.0924
▁ענק	-10.0927
▁פרויקטים	-10.0933
▁בסוריה	-10.0938
▁500	-10.0939
אור	-10.0942
▁ברי	-10.0942
▁האוכלוסייה	-10.0961
▁נקבע	-10.0963
▁הפרטי	-10.0964
▁חיה	-10.0972
▁קיר	-10.0982
▁זול	-10.0983
▁המשרד	-10.0984
▁הגיוני	-10.0984
▁תאי	-10.0984
קד	-10.0984
▁ביו	-10.0989
▁להשלים	-10.099
▁לשתות	-10.099
שאת	-10.0992
אמא	-10.0998
▁מעלה	-10.1
▁לבחון	-10.1001
▁פוסט	-10.1003
▁גבוהים	-10.1007
▁מסוימות	-10.1015
▁העיצוב	-10.1015
גרסה	-10.1017
▁רגיש	-10.1019
▁אליך	-10.102
▁מכר	-10.1027
▁רווח	-10.1028
▁הולכת	-10.1039
▁הפתרון	-10.1039
▁המשך	-10.1043
▁הערך	-10.1045
▁סמים	-10.1047
▁ביצע	-10.1048
▁מעניק	-10.1048
שמעתי	-10.1051
▁סיום	-10.1053
▁הסדר	-10.1053
▁לעיר	-10.1056
מראה	-10.1068
▁הכלכלה	-10.1072
▁נוהג	-10.1073
▁מורה	-10.1081
▁רציני	-10.1086
▁השכר	-10.1086
▁משפחתו	-10.1088
ולה	-10.1091
▁אמו	-10.1093
▁כחול	-10.1095
▁בחינם	-10.1096
▁יפן	-10.1096
ארד	-10.1105
▁לאן	-10.1106
▁נהרגו	-10.1108
▁צל	-10.1112
▁סוד	-10.1112
▁הרע	-10.1114
▁עשרים	-10.1118
הרוס	-10.1125
בלתי	-10.1126
▁מועצת	-10.1127
▁מתמקד	-10.113
נוס	-10.1139
▁חוקים	-10.1139
▁הכניסה	-10.115
▁לטווח	-10.1153
▁מד	-10.1155
מלא	-10.116
▁המשחקים	-10.116
▁הקדוש	-10.1165
כוון	-10.1167
▁מרגש	-10.1169
טענה	-10.117
▁כלכלי	-10.1175
▁אורח	-10.1175
▁המסר	-10.1177
▁לפיכך	-10.118
as	-10.1182
▁כדורגל	-10.1183
▁מועיל	-10.1184
▁נסע	-10.1185
▁אחות	-10.1185
מנות	-10.1186
▁החליט	-10.1186
גדל	-10.1191
▁Z	-10.1193
צל	-10.1195
▁שאמר	-10.1197
▁מינית	-10.1202
▁מכירות	-10.1209
▁להחזיק	-10.1213
בטיח	-10.1214
▁כואב	-10.1214
▁הירח	-10.1216
▁קהל	-10.1224
▁השו	-10.1233
▁ירי	-10.1233
▁מיליוני	-10.1236
מנים	-10.1239
דרישות	-10.1246
▁לציבור	-10.1247
▁האחריות	-10.1253
▁ממשלה	-10.1256
▁העת	-10.1257
▁ואל	-10.1273
▁שמיר	-10.1274
▁בל	-10.1279
אלוהים	-10.1279
רק	-10.1291
▁שמת	-10.1294
▁מאמץ	-10.1296
חוסר	-10.1299
▁נפרד	-10.1305
מלחמות	-10.1306
▁נתפס	-10.1315
▁חלקים	-10.1319
▁הסיבות	-10.1325
▁רלוונטי	-10.1329
▁המכונית	-10.1336
▁צפו	-10.1339
▁נוכחות	-10.1341
▁נמל	-10.1346
▁קרן	-10.1348
▁רשימה	-10.1348
הגדיר	-10.1349
סכום	-10.135
▁דולרים	-10.135
▁החוף	-10.135
▁איננה	-10.1351
▁לרדת	-10.1352
הפעיל	-10.1355
ir	-10.1364
▁נדמ	-10.1365
▁משרת	-10.1366
▁הכריז	-10.1369
▁מוגבל	-10.1369
▁1.	-10.1373
▁לילד	-10.1376
כאשר	-10.1381
▁בקיץ	-10.1382
▁להצליח	-10.1388
▁להשאיר	-10.1391
▁הלך	-10.1394
▁מרוב	-10.1398
▁ערבי	-10.1401
▁מגלה	-10.1402
▁ידעו	-10.1403
לק	-10.1404
▁חיובית	-10.1413
▁הגישה	-10.1414
▁אבן	-10.1417
▁תחילה	-10.1418
▁זי	-10.1418
▁לקבלת	-10.1423
▁מספקת	-10.1427
▁החדשים	-10.1429
▁להגדיל	-10.1431
▁השאלות	-10.1433
ne	-10.1435
▁תיק	-10.1438
▁מודעות	-10.144
ינם	-10.1445
▁מכלל	-10.1448
▁הטלוויזיה	-10.145
▁טעם	-10.145
▁אישיות	-10.1451
▁החלטת	-10.1452
▁נכשל	-10.1453
▁רשאי	-10.1454
▁בניית	-10.1457
▁לכאן	-10.1458
▁אמ	-10.1462
▁עונש	-10.1463
▁נובע	-10.1463
▁הקל	-10.1465
▁עמו	-10.1468
▁עצום	-10.1469
▁נעצר	-10.148
▁חיובי	-10.148
▁יעזור	-10.1483
▁בבחירות	-10.1484
▁האדום	-10.1485
▁דמי	-10.1491
▁ביקר	-10.1491
▁רוברט	-10.1491
ונג	-10.1498
▁כאלו	-10.15
▁הרכבת	-10.1502
▁השלישית	-10.1503
▁דק	-10.1504
▁יוני	-10.1506
▁רוק	-10.1507
▁דלק	-10.1507
▁200	-10.1508
▁בקשה	-10.1509
▁איתה	-10.1516
▁הודו	-10.1516
▁הפיזי	-10.1518
▁להשתנות	-10.152
▁המלון	-10.1525
▁מדענים	-10.1527
▁De	-10.153
ia	-10.1537
▁הפחד	-10.1539
נדס	-10.1546
▁הנהג	-10.1548
טא	-10.1551
▁מוזיאון	-10.1553
▁ממוצע	-10.1553
ראש	-10.1561
▁is	-10.1561
איפה	-10.1568
עניינים	-10.1568
Y	-10.157
ערוץ	-10.1575
טים	-10.1576
▁פותח	-10.1594
x	-10.1596
▁חמאס	-10.16
▁התכנית	-10.16
▁ברחוב	-10.1601
▁גבי	-10.1605
▁גופנית	-10.1605
▁יכלו	-10.1607
▁וזו	-10.1613
בד	-10.1616
▁ואנו	-10.162
▁ללקוחות	-10.1621
▁קט	-10.1622
▁בחירות	-10.1623
▁עשיר	-10.1623
▁לוותר	-10.1626
▁סכום	-10.1627
▁האתגר	-10.1628
▁לאבד	-10.1628
▁העולמית	-10.1631
▁התורה	-10.1637
se	-10.1642
▁בודד	-10.1642
▁עצמאי	-10.1645
▁תאריך	-10.1647
▁עוברים	-10.1656
▁הרוחני	-10.1659
▁המין	-10.1661
▁ספרד	-10.1661
בחן	-10.1668
▁חבל	-10.167
▁32	-10.167
▁תלמיד	-10.1679
▁שנייה	-10.1682
▁המר	-10.1683
▁צעדים	-10.1685
קרן	-10.1689
▁המוזיאון	-10.1692
▁לנסוע	-10.1692
▁שיא	-10.1692
▁השלטון	-10.1694
▁חטא	-10.1695
▁האוכל	-10.1697
האם	-10.1699
▁נהיה	-10.1699
▁בינינו	-10.17
▁פרט	-10.1707
▁הפוליטי	-10.1708
▁באה	-10.1713
▁התמונות	-10.1713
▁מנכ	-10.1714
▁ירידה	-10.1714
▁כוכבים	-10.1715
▁אוכלים	-10.1717
ילת	-10.1719
יסטי	-10.1719
ut	-10.172
נשים	-10.1728
▁ההסכם	-10.1731
▁השפעת	-10.1734
▁לקיים	-10.1735
חקר	-10.174
▁תפס	-10.1744
▁השחור	-10.1745
▁אתרים	-10.1746
▁האמנות	-10.1746
▁הבדל	-10.1746
שׁ	-10.175
▁ניסה	-10.1753
תופעה	-10.1754
▁בוא	-10.1759
▁ברצינות	-10.1762
רבות	-10.1772
▁אשראי	-10.1787
▁המועצה	-10.1792
▁ריי	-10.1793
▁הנמצא	-10.1801
▁זמני	-10.1805
▁ריצ	-10.1807
:00	-10.1812
▁החדר	-10.1823
▁יוצאים	-10.1824
כנים	-10.1825
▁שימושי	-10.1825
▁לשנת	-10.1826
עלייה	-10.1831
▁מוסדות	-10.1831
▁אובדן	-10.1831
▁רצו	-10.1834
▁מאבק	-10.1834
▁חלקי	-10.1835
▁הבסיס	-10.1837
▁ילדה	-10.1841
▁מאמינ	-10.1847
▁כוללים	-10.185
גש	-10.185
נתה	-10.186
▁אחי	-10.1862
▁הרגיש	-10.1869
▁תל	-10.187
▁בתגובה	-10.187
▁להצביע	-10.1873
▁מצוין	-10.1873
מהלך	-10.1878
▁ed	-10.1878
▁מחשבה	-10.1881
▁חברתי	-10.1881
▁Co	-10.1882
▁הנוגע	-10.1886
▁ער	-10.1887
▁ציין	-10.1891
▁חולה	-10.1894
▁לתאר	-10.1899
▁חלום	-10.1899
▁צודק	-10.1899
נש	-10.1904
▁התחלתי	-10.1904
▁הכנסייה	-10.1905
▁2020	-10.1906
▁נסיעה	-10.1908
תקופות	-10.1909
▁משחקי	-10.1909
▁יישאר	-10.1914
רקע	-10.1915
▁פל	-10.1917
מין	-10.192
ניק	-10.1921
▁במי	-10.1923
▁בימי	-10.1923
▁חומ	-10.1931
▁מציעה	-10.1935
▁קא	-10.1937
▁המנהל	-10.1939
▁קצרה	-10.1941
▁מהבית	-10.1943
▁הוקמ	-10.1948
▁מצפ	-10.1951
▁כוללת	-10.1954
כתה	-10.1972
אחר	-10.1978
▁צבאי	-10.1983
כנה	-10.1985
▁ילדי	-10.1995
▁רבי	-10.2006
▁מפלגת	-10.2007
▁לאזור	-10.2008
הכניס	-10.2009
▁יגיע	-10.2014
▁גאה	-10.2018
▁בוחר	-10.202
▁נמכר	-10.2021
▁במחשב	-10.2033
▁שפת	-10.2034
▁אק	-10.2034
▁המלא	-10.2035
▁המשיך	-10.2037
▁הד	-10.2042
▁מעוניינים	-10.2044
▁העל	-10.2046
▁You	-10.2047
▁הכביש	-10.2049
▁אוסטרליה	-10.205
ניים	-10.205
▁אהוב	-10.2051
▁קשות	-10.2052
▁וְ	-10.2053
▁מונח	-10.2057
טרי	-10.206
▁איי	-10.2061
▁הלידה	-10.2064
▁המערבי	-10.2066
▁להסיר	-10.2067
▁מסלול	-10.207
▁זכר	-10.2072
▁רשימת	-10.2078
▁הבעלים	-10.2079
רמות	-10.2079
ver	-10.2081
▁בהצלחה	-10.2085
▁להקל	-10.2088
לנד	-10.2095
▁עמדת	-10.2096
ig	-10.2102
▁מסייע	-10.2117
▁4.	-10.2128
▁אינך	-10.2129
▁הרגל	-10.2131
▁סדרת	-10.2139
נסיבות	-10.2143
▁הליכה	-10.2146
אלץ	-10.2146
▁הדור	-10.2147
▁מזמן	-10.2156
▁למשחק	-10.2156
▁למספר	-10.2156
▁מחוז	-10.216
▁דגים	-10.2161
▁מתפתח	-10.2162
▁תנועת	-10.2162
▁לבטל	-10.2168
▁בתים	-10.2177
▁פשע	-10.2179
אסור	-10.218
▁בתחומי	-10.218
▁הביטוי	-10.2194
▁בשבילך	-10.2195
נראה	-10.2195
▁לתפוס	-10.2196
▁שימו	-10.2196
▁השיער	-10.2197
▁לשאלה	-10.2197
ve	-10.2198
אמין	-10.2201
▁בדק	-10.2205
▁סוכר	-10.2205
תומך	-10.2207
▁האפשרי	-10.2208
▁קראו	-10.221
מנה	-10.221
ly	-10.2212
▁לגור	-10.2215
▁השינויים	-10.2216
▁חור	-10.2216
▁המסחר	-10.2218
▁ברק	-10.222
▁שאולי	-10.222
▁מבוגר	-10.2222
▁למישהו	-10.2228
▁תנאים	-10.2231
▁בהקשר	-10.2232
▁יתרונות	-10.2232
▁באפשרות	-10.2233
קרא	-10.2233
▁מוכנה	-10.2234
▁מוצג	-10.2234
▁השער	-10.2235
▁השונות	-10.2237
▁התנגדות	-10.2246
יסט	-10.2248
ערכים	-10.2254
▁טען	-10.2254
▁בגדים	-10.2259
עים	-10.2259
▁=	-10.2262
▁יצור	-10.2266
נצ	-10.2268
▁המורה	-10.2269
▁אצלנו	-10.2269
▁הספרים	-10.2271
▁התגובה	-10.2271
ָּ	-10.2271
▁מעודד	-10.2273
▁הפנימי	-10.2276
▁הרשות	-10.2277
▁רופאים	-10.228
ard	-10.2291
▁שמן	-10.2292
▁הייצור	-10.2295
▁תינוקות	-10.2298
▁הגברים	-10.2303
▁לפגוש	-10.2304
ell	-10.2305
▁במאמר	-10.2307
▁תר	-10.2309
▁תשע	-10.231
▁רצוי	-10.2312
▁בסיסי	-10.2313
▁אה	-10.2314
▁ציוד	-10.232
▁פרופסור	-10.2323
▁יהודית	-10.2324
▁מפקד	-10.2326
▁שניות	-10.2334
▁יורד	-10.2338
▁מכירה	-10.2341
▁לשכוח	-10.2344
▁המוכר	-10.2346
▁הצעת	-10.2346
▁ההצלחה	-10.2353
גרום	-10.2354
סימפטומים	-10.2356
עבוד	-10.2364
▁it	-10.2367
▁מודה	-10.2367
מחצית	-10.2373
▁המעבר	-10.2381
▁שמגיע	-10.2381
▁בוודאי	-10.2381
▁דא	-10.2386
▁מש	-10.2389
בני	-10.2392
ברך	-10.2395
קידום	-10.2397
▁יחס	-10.2397
שאר	-10.2399
▁באים	-10.24
▁מקובל	-10.2401
זיהוי	-10.2403
מילה	-10.2407
▁באוויר	-10.2419
▁העיקריים	-10.2419
▁בטיחות	-10.242
▁היקום	-10.2421
▁השתנה	-10.2422
▁אימון	-10.2428
▁ביל	-10.2432
▁מעוניין	-10.2432
▁השניים	-10.2434
▁עצוב	-10.2435
▁גלי	-10.2436
▁סובלים	-10.2437
▁פרטיות	-10.2441
▁האויב	-10.2443
▁נפטר	-10.2446
מספר	-10.2447
▁לנקו	-10.2447
-11	-10.2453
▁שתהיה	-10.2456
דגם	-10.2457
זמין	-10.2457
▁להתגבר	-10.2458
▁מוחלט	-10.246
▁ואחרי	-10.2461
▁לחדר	-10.2462
▁מאו	-10.2465
▁נהר	-10.2467
▁להרוויח	-10.2468
▁רכש	-10.2471
▁סמכות	-10.2475
▁יעד	-10.2479
▁הפרס	-10.2482
גנ	-10.2491
▁מט	-10.2493
▁התנאים	-10.2502
תרבות	-10.2506
▁מחלת	-10.2506
▁הפר	-10.2508
▁שיחות	-10.2509
▁2003	-10.2512
▁בהיר	-10.2515
קחו	-10.2532
▁יוצרים	-10.2533
▁חירום	-10.2533
▁הרווח	-10.2534
▁הוראות	-10.2535
▁המשבר	-10.2539
▁אסיה	-10.2541
▁מאושר	-10.2547
התנגדות	-10.2549
פן	-10.2556
▁נסו	-10.2558
ונס	-10.2562
▁ניצח	-10.2564
▁נעים	-10.2567
▁להגיש	-10.257
נפ	-10.2571
▁36	-10.2577
נטר	-10.2579
רעיונות	-10.2584
▁הבין	-10.2589
▁לכיוון	-10.2589
20	-10.259
▁סימנים	-10.2594
▁x	-10.2595
מזרח	-10.2604
▁ענה	-10.2606
▁מעורב	-10.2607
▁בדם	-10.2608
-14	-10.2608
רון	-10.2609
▁אברהם	-10.2609
▁הוציא	-10.2609
▁הכנסה	-10.2611
▁מגדיר	-10.262
▁מהירות	-10.2624
עבד	-10.2627
-13	-10.2635
▁האקדמי	-10.2639
▁מספרים	-10.2639
▁בפרט	-10.264
דרוש	-10.2641
▁המטופל	-10.2643
▁חום	-10.2645
▁לבריאות	-10.2647
▁שנית	-10.2648
▁המשתמשים	-10.2648
▁זהב	-10.265
▁היקר	-10.2651
הליך	-10.2653
▁תופס	-10.266
▁בינלאומית	-10.2661
▁יוסף	-10.2663
▁הרוב	-10.2667
▁וזאת	-10.267
▁הולדת	-10.2673
▁מהירה	-10.2679
▁פוגע	-10.2681
▁הערבים	-10.2695
▁טס	-10.2695
תואר	-10.2699
▁בקול	-10.2704
▁שיחה	-10.2704
▁ציבורית	-10.2707
▁):	-10.2711
פרש	-10.2711
▁רעב	-10.2711
▁שאלתי	-10.2711
דברים	-10.2712
▁ועדיין	-10.2719
▁הסופר	-10.2721
פוס	-10.2722
▁חיצוני	-10.2724
▁כראוי	-10.2725
▁שנוצר	-10.2725
▁אמי	-10.2726
▁חלומות	-10.2727
▁שיצא	-10.2731
▁בפנים	-10.2738
▁הצרכים	-10.2738
▁המאבק	-10.2739
▁עקרונות	-10.2739
▁מסך	-10.2739
▁במלחמה	-10.274
▁שמעת	-10.2744
▁יחידות	-10.2746
▁ישנו	-10.2747
גנים	-10.2748
תהליכים	-10.2754
▁להגנ	-10.2754
▁קופ	-10.2756
▁תיאור	-10.2757
▁2002	-10.2758
▁מוציא	-10.2766
▁עסקי	-10.277
ומה	-10.277
▁בחוק	-10.277
▁הפל	-10.2782
▁הרפואי	-10.2786
▁Le	-10.2786
▁מבקשים	-10.2789
▁עמוקה	-10.2794
▁האפשר	-10.2795
▁מחייב	-10.2799
▁הערכה	-10.2799
▁נוחות	-10.2802
▁הקטנה	-10.2802
▁רביעי	-10.2803
▁אובמה	-10.2803
▁צמיחה	-10.2803
▁La	-10.2804
▁ריח	-10.2804
▁!!!	-10.2806
▁בסגנון	-10.2806
▁גיבור	-10.2807
כוחות	-10.2809
▁]]	-10.2809
▁נהרג	-10.2809
משהו	-10.281
▁דל	-10.2813
▁הטבעי	-10.2818
▁פייסבוק	-10.2826
▁גבוהות	-10.2827
▁Q	-10.2828
ארי	-10.2828
▁נתון	-10.2834
▁עובדי	-10.2838
▁קח	-10.284
פרי	-10.284
▁להצלחה	-10.2842
▁שואלים	-10.2842
▁לברוח	-10.2844
▁ראיות	-10.2848
צור	-10.2848
▁קיום	-10.285
▁פיזי	-10.2853
▁האחד	-10.2854
▁טיול	-10.2857
ירת	-10.2862
▁נקודה	-10.2864
▁השת	-10.2867
נהג	-10.2871
▁מעלות	-10.2871
▁לקוח	-10.2874
▁שקל	-10.2876
ודי	-10.2878
בוי	-10.2879
▁לעצמך	-10.2881
▁העומד	-10.2881
▁הישראלים	-10.2882
▁המונח	-10.2883
▁בצ	-10.2889
▁2,	-10.289
▁החברתית	-10.2893
▁מפחיד	-10.2893
▁מאבד	-10.2894
▁ישראלי	-10.2894
▁or	-10.2894
עדיין	-10.2897
▁מכונ	-10.2898
▁מקומיים	-10.2898
▁תעוד	-10.29
▁ספ	-10.2903
▁מייקל	-10.2906
▁התעשייה	-10.292
▁לשיר	-10.2923
▁בקו	-10.2924
כח	-10.2924
▁נוער	-10.2925
▁פס	-10.2928
▁ציבור	-10.293
▁מצחיק	-10.293
▁יעילה	-10.2936
▁תלמידי	-10.2937
▁חשבו	-10.2939
▁עולמי	-10.2943
me	-10.2946
▁מחו	-10.2949
מקומות	-10.2949
▁הסטודנטים	-10.2956
▁ההיסטורי	-10.2958
סגור	-10.2958
▁קונ	-10.2958
▁מסחר	-10.2959
מצאתי	-10.2959
▁השיניים	-10.296
תחיל	-10.2965
▁בפרס	-10.2968
▁המקצועי	-10.2969
▁שרוב	-10.297
▁להתאים	-10.297
▁יח	-10.298
▁אתגר	-10.2987
מתין	-10.2989
▁בתו	-10.2991
שמה	-10.2993
▁ואולם	-10.2993
▁דוגמאות	-10.2994
▁קבר	-10.2998
▁דג	-10.2998
▁לעתיד	-10.3
▁לגדול	-10.3
▁לאחור	-10.3001
▁מוסיקה	-10.3001
▁בתחילה	-10.3002
▁משא	-10.3003
▁הדרכים	-10.301
▁שאחרי	-10.3014
▁עין	-10.3015
▁פירות	-10.3016
מוס	-10.3017
▁האמיתית	-10.3019
▁מקצועית	-10.3021
ion	-10.3025
▁הזר	-10.3029
▁תושבים	-10.3031
פתרון	-10.3033
▁לזמן	-10.3033
▁תוכנה	-10.3033
▁טקסט	-10.3035
▁קצב	-10.3036
▁בדיק	-10.3038
▁להיראות	-10.304
▁לתפקיד	-10.304
צלם	-10.3043
▁מצליחים	-10.3043
▁הצבע	-10.3044
יכולות	-10.3045
▁סיני	-10.3049
מגזין	-10.3058
▁ממוק	-10.3059
▁הקשה	-10.3059
▁העסקי	-10.306
אש	-10.306
▁כספי	-10.3065
▁רשמית	-10.307
איש	-10.3073
▁ציבורי	-10.3074
▁הרחוב	-10.308
▁הכלל	-10.3081
▁שעלי	-10.3087
פעולות	-10.3089
ent	-10.309
▁הכבוד	-10.3094
▁מצוי	-10.3097
▁סופ	-10.3097
ניות	-10.3103
▁לימד	-10.3103
▁הפרטים	-10.3104
-8	-10.3107
▁הדי	-10.3109
▁העברת	-10.3111
אנג	-10.3113
▁לר	-10.3114
▁המערב	-10.3116
▁תעשה	-10.3118
▁Microsoft	-10.312
▁החודש	-10.3123
▁שבועיים	-10.3124
▁המשטר	-10.3126
▁אהיה	-10.3129
▁הפרש	-10.3135
▁שותפים	-10.3135
▁אישר	-10.3135
▁מבקרים	-10.3137
▁פרטיים	-10.314
▁התקדמות	-10.314
▁לדמיין	-10.3143
▁הבסיסי	-10.3143
▁עובדה	-10.3143
▁לשרת	-10.3145
▁סליחה	-10.3145
מיטב	-10.3148
▁2.	-10.3149
▁הרביעי	-10.3149
▁תור	-10.3151
▁מעדיף	-10.3152
▁חומרי	-10.3163
▁בולט	-10.3165
▁הנוכחית	-10.3165
אפשר	-10.3166
▁הולנד	-10.3168
▁פנימי	-10.3172
▁דיון	-10.3175
▁זמנית	-10.3183
▁גרעיני	-10.319
▁ממשיכה	-10.3191
לפעמים	-10.3192
▁רכיב	-10.3194
ייצור	-10.3195
▁השקעה	-10.3199
▁מומחה	-10.3202
▁לרוץ	-10.3203
▁הפא	-10.3205
▁האחים	-10.3206
▁הפסקת	-10.3207
▁החבר	-10.321
io	-10.3224
קבוצת	-10.3225
▁48	-10.3229
▁מגע	-10.3229
▁מחזור	-10.3233
▁תקציב	-10.3233
▁שלח	-10.3233
▁קונים	-10.3233
ארגן	-10.3241
יצו	-10.3246
ספר	-10.3246
מתי	-10.3248
▁יולי	-10.3252
▁כר	-10.3255
▁גבול	-10.3255
▁צורת	-10.3256
▁ישן	-10.3258
▁הצעירים	-10.3266
גובה	-10.327
▁במוח	-10.3271
▁הנשק	-10.3275
פתי	-10.3277
▁בחירת	-10.3277
▁חזקים	-10.3279
▁מוגבלת	-10.3281
▁דעות	-10.3281
▁אדוני	-10.3282
▁הקודמת	-10.3284
▁כתבה	-10.3285
▁2004	-10.3285
▁מחכ	-10.3287
▁נבנה	-10.3293
▁הקרובה	-10.3298
▁מערב	-10.3306
▁לנושא	-10.3309
▁31	-10.3311
ברר	-10.3313
▁ישירה	-10.3324
טיס	-10.3324
▁כשהי	-10.3325
▁המקומית	-10.3327
▁המקדש	-10.3328
▁בריאים	-10.3328
▁דניאל	-10.333
▁תעשיית	-10.3331
▁דרישות	-10.3333
▁להעריך	-10.3336
▁במים	-10.3338
▁ארוכות	-10.3338
קבל	-10.3343
▁הגבר	-10.3346
▁שנרא	-10.3346
to	-10.335
▁פגיעה	-10.3351
▁אלבום	-10.3356
▁נמשך	-10.3356
▁לומד	-10.3363
▁משותפת	-10.3366
▁לפיתוח	-10.3366
▁איום	-10.337
▁נתוני	-10.3372
טוב	-10.3375
▁מטרים	-10.3376
▁נפגע	-10.3379
▁הזהב	-10.338
מסקנה	-10.3381
▁הערים	-10.3387
▁לגוף	-10.3388
קשה	-10.3391
▁בלעדי	-10.3393
▁החוקים	-10.3394
▁פרנק	-10.3399
▁פוטנציאל	-10.3404
ma	-10.3408
▁הזמנים	-10.3408
▁מתקרב	-10.3409
▁הביטוח	-10.341
▁כימי	-10.3415
▁הרגליים	-10.3418
מאז	-10.3422
▁ערכים	-10.3422
▁אהב	-10.3424
▁Pro	-10.3428
מעין	-10.3431
▁בשדה	-10.3432
דן	-10.3439
באנגלית	-10.3441
בסיס	-10.3444
▁לשרוד	-10.3454
▁תכנון	-10.3455
▁הרג	-10.3455
▁מפחד	-10.3459
-17	-10.3459
▁הכיבוש	-10.346
פח	-10.3464
▁האהוב	-10.3469
▁גוגל	-10.3469
▁הלחץ	-10.3469
▁יופי	-10.3477
▁יעקב	-10.3477
כיצד	-10.3477
▁המזל	-10.3482
▁האירועים	-10.3485
▁רגילים	-10.3493
▁להופיע	-10.3494
פתח	-10.3497
שן	-10.35
▁ההת	-10.3503
▁ערים	-10.3504
▁מפעיל	-10.3504
▁חשיבה	-10.3507
ap	-10.3512
וול	-10.3512
שווקים	-10.3512
▁מאמרים	-10.3513
▁התייחס	-10.3513
▁ועדת	-10.3517
▁הנפט	-10.3518
▁בור	-10.3519
▁המח	-10.3523
▁המסע	-10.353
▁גילוי	-10.3533
▁השטן	-10.3533
▁השעה	-10.3533
▁es	-10.3533
▁קהילה	-10.3533
אוס	-10.3534
▁מושב	-10.3535
▁קריאה	-10.3535
▁34	-10.3536
▁הפרק	-10.3536
▁הסתכל	-10.3538
▁הרחב	-10.3542
▁לימודי	-10.3548
▁פיתח	-10.355
▁נחת	-10.3558
פסק	-10.3558
החלטות	-10.3559
ראו	-10.3569
▁הגרמני	-10.3571
▁משקיעים	-10.3573
▁[2]	-10.3575
▁33	-10.3577
ine	-10.358
▁נמסר	-10.3581
▁המולד	-10.3582
▁לשחרר	-10.3584
▁להתקיים	-10.3586
▁חוקר	-10.3587
▁אורך	-10.3592
▁באמריקה	-10.3592
▁האח	-10.3593
▁קווי	-10.3601
ot	-10.3602
מנגנון	-10.3608
▁החשובים	-10.3612
▁לעצמכם	-10.3617
▁שנועד	-10.3618
▁תרגיל	-10.3618
▁לשכנע	-10.3619
▁יכל	-10.3624
יבי	-10.363
▁מסמכים	-10.363
▁מעצב	-10.3633
▁Con	-10.3633
▁המקרה	-10.3634
▁2001	-10.3649
▁נוגע	-10.365
▁הכוכבים	-10.365
▁המזרח	-10.3653
▁בפ	-10.3659
▁רגוע	-10.366
▁הבניין	-10.3661
▁מרק	-10.3662
יקו	-10.3662
הגענו	-10.3662
▁כפר	-10.3663
▁מקל	-10.3665
▁מוצלח	-10.3668
תמורת	-10.3668
▁עבורי	-10.3668
▁גורל	-10.3669
רוט	-10.3669
▁טיסה	-10.367
▁להגיב	-10.367
▁דיוק	-10.3674
▁מעיד	-10.3674
▁מצפים	-10.3679
▁לשנה	-10.3679
▁בדרכים	-10.3684
-50	-10.3685
התחשב	-10.369
▁יעל	-10.3695
▁עבודתו	-10.3696
▁הערה	-10.3701
מעולם	-10.3702
▁בטלוויזיה	-10.3703
▁בשיעור	-10.3703
▁במצרים	-10.3703
▁לדוגמא	-10.3703
מדיניות	-10.3703
▁נשכח	-10.3703
▁הארוך	-10.3705
-25	-10.3706
▁התוכן	-10.3706
▁קנדה	-10.3708
▁יתרון	-10.372
▁ייעוץ	-10.3724
▁Al	-10.3724
▁מיידי	-10.3724
▁הרשויות	-10.3725
-9	-10.3739
▁ation	-10.3741
▁חיינו	-10.3741
קצה	-10.3746
▁לתרום	-10.3747
▁מנהלים	-10.3747
▁המשיח	-10.3748
▁הישן	-10.3749
לין	-10.375
בנה	-10.3752
חיל	-10.3753
▁תגית	-10.3753
בעלי	-10.3754
▁רכוש	-10.3754
▁יצליח	-10.3757
▁הקב	-10.3758
▁זרע	-10.3761
כתב	-10.3764
שמח	-10.3765
רשויות	-10.3765
שור	-10.3767
▁גי	-10.3768
רש	-10.3777
▁רחוב	-10.3781
▁שפות	-10.3781
▁המפ	-10.3785
▁לנ	-10.3787
ראינו	-10.379
-7	-10.3801
▁מניות	-10.3802
▁מתאימה	-10.3802
לעולם	-10.3802
▁שותף	-10.3807
▁המכשיר	-10.3808
▁העתיק	-10.3809
אספקת	-10.3812
▁מרוצה	-10.3814
▁הפוליטית	-10.3824
דג	-10.3824
▁במציאות	-10.3833
ph	-10.3833
▁סחר	-10.3838
▁ליצירת	-10.3841
▁הזיכרון	-10.3847
▁כאחד	-10.3848
▁חופשית	-10.3857
▁לאלוהים	-10.3859
▁השקעות	-10.3865
▁לאחרים	-10.3867
ציית	-10.3868
רצח	-10.3875
▁בסיפור	-10.3876
▁משימה	-10.3876
▁משת	-10.3877
▁למחרת	-10.3877
▁החורף	-10.3878
כיוון	-10.3882
▁אליי	-10.3886
מכר	-10.3891
▁תחרות	-10.3892
▁למידה	-10.3893
▁פיננסי	-10.3894
▁המיוחד	-10.3895
ולוגי	-10.3895
▁דירה	-10.3901
▁צורות	-10.3902
סטי	-10.3903
▁מכוונ	-10.3905
פטר	-10.3907
זם	-10.3909
▁Mo	-10.3914
▁חייל	-10.3917
▁מבינה	-10.392
▁שולט	-10.3922
אלה	-10.3924
▁מנצח	-10.3928
▁קלי	-10.3928
▁המקומי	-10.3928
▁ניצול	-10.3933
עריך	-10.3934
גדר	-10.3934
▁התחרות	-10.3935
▁נוסע	-10.394
▁לשלום	-10.394
▁העשיר	-10.3941
▁רוז	-10.3941
▁טעויות	-10.3941
▁me	-10.3944
▁דלת	-10.3944
▁טכנולוגיות	-10.395
▁הגז	-10.3954
▁סירב	-10.3956
▁המשתתפים	-10.3958
▁עוג	-10.396
▁תשכח	-10.3964
מודעות	-10.3965
▁משלו	-10.3967
▁הקפה	-10.3967
▁להתקדם	-10.397
▁המחבר	-10.3972
▁יך	-10.3973
▁החיילים	-10.3975
▁משמע	-10.3976
מנט	-10.3978
▁פיזית	-10.398
▁שחרור	-10.3989
▁פרופ	-10.3989
▁בטיפול	-10.399
▁והנה	-10.3993
▁שקר	-10.3996
▁מסיבה	-10.3996
▁ארוכים	-10.3999
▁אנושי	-10.4001
▁מחליט	-10.4002
▁העסקים	-10.4003
▁נשי	-10.4003
▁שייך	-10.4004
▁שיותר	-10.4006
▁מסכימים	-10.4007
▁למדתי	-10.4007
▁נשא	-10.4008
▁קוק	-10.4009
▁מכשיר	-10.401
▁זוכרים	-10.4011
▁לבלות	-10.4012
▁קיץ	-10.4017
פגיעה	-10.402
▁המודרנית	-10.402
קע	-10.4021
▁מועד	-10.4022
חשיבות	-10.4024
תקף	-10.4028
▁חוזרת	-10.4029
▁למדו	-10.4032
▁שמחים	-10.4033
▁גזע	-10.4036
▁חמישי	-10.4037
יותר	-10.4038
קומה	-10.4038
▁קריירה	-10.4043
▁מבוססת	-10.4045
▁נמצאו	-10.4045
▁מוס	-10.405
▁דגל	-10.4055
▁שיטת	-10.4056
▁חנויות	-10.4057
▁כניסה	-10.4058
▁מונע	-10.4059
שבע	-10.406
מקום	-10.4064
▁נשלח	-10.4067
▁טהור	-10.4067
▁גשר	-10.407
▁הדיון	-10.4071
▁להרחיב	-10.4071
▁הצעות	-10.4072
▁בוצע	-10.4073
▁עמית	-10.4073
▁צליל	-10.4074
▁יפים	-10.4078
▁ברשות	-10.4084
▁המקומות	-10.4086
▁עשתה	-10.4088
▁הקטנים	-10.4096
▁שיוכל	-10.4096
▁חלל	-10.4096
▁צעירה	-10.4097
▁מוסרי	-10.4098
▁מתנה	-10.4098
▁הודות	-10.4099
▁המבצע	-10.4102
▁למוות	-10.4107
הפכה	-10.4109
▁ממליצים	-10.4111
▁אנגליה	-10.4113
▁ראשוני	-10.4117
▁איכותי	-10.4118
קטור	-10.4121
▁עשית	-10.4126
▁שבא	-10.4129
צרכים	-10.413
תחושה	-10.4136
mp	-10.4136
500	-10.4136
▁יהודה	-10.4136
▁מסוגלת	-10.4139
▁הפסד	-10.4142
▁לביקור	-10.4142
הגביר	-10.4146
▁מבחן	-10.4147
▁חסרי	-10.4154
▁להתפתח	-10.4154
▁מנוע	-10.4155
▁הכללית	-10.4159
▁הספק	-10.4161
▁")	-10.4162
▁אמריקאים	-10.4164
▁בצורת	-10.4165
קלי	-10.4173
ריס	-10.4185
▁הצער	-10.4185
▁התושבים	-10.4186
▁רחבה	-10.4187
נתי	-10.4187
▁השואה	-10.4188
▁אזורי	-10.4189
▁השיטה	-10.419
▁מעורבים	-10.419
▁לראש	-10.4193
▁הסוף	-10.4194
הערכה	-10.4194
▁שמר	-10.4196
נקה	-10.4198
▁הראו	-10.4199
▁300	-10.4202
▁מטעם	-10.4203
▁למשוך	-10.4203
▁פורט	-10.4204
▁בכלא	-10.4205
▁75	-10.4207
▁שהדבר	-10.4209
▁an	-10.421
תום	-10.4211
צילום	-10.4212
▁סובל	-10.4213
▁חוזרים	-10.4215
▁המבט	-10.4215
▁בדומה	-10.4219
▁הגיל	-10.4222
▁סן	-10.4224
▁מכ	-10.4225
▁המראה	-10.423
▁להקשיב	-10.4232
▁נתנ	-10.4235
מיר	-10.4236
▁בטווח	-10.4241
▁המסך	-10.4242
▁טון	-10.4243
▁החוויה	-10.4246
▁במדינת	-10.4246
▁הרוסי	-10.4249
▁משאיר	-10.425
▁אמצע	-10.4251
▁בפייסבוק	-10.4253
▁צבעים	-10.4253
▁קרקע	-10.426
▁באזורים	-10.426
▁התחילו	-10.426
כנות	-10.4261
▁רשתות	-10.4264
לוג	-10.4269
משקאות	-10.4271
na	-10.4271
השפעות	-10.4273
▁[1]	-10.4276
▁בממוצע	-10.4276
גודל	-10.4276
▁למידע	-10.4279
▁מוגדר	-10.4279
▁דרכו	-10.4279
▁טורקיה	-10.428
▁המטבע	-10.428
▁לדרך	-10.428
▁ערבים	-10.4283
▁חמור	-10.4286
▁ויטמי	-10.4287
▁מעצמ	-10.429
▁הוגן	-10.4292
▁מחשבים	-10.4293
▁ביכולת	-10.4298
▁ימין	-10.4299
וסף	-10.43
▁הניתוח	-10.43
▁יציב	-10.4301
▁נג	-10.4302
דמויות	-10.4307
▁הסינית	-10.4307
▁המשמש	-10.4312
▁קרובים	-10.4315
▁לכת	-10.4318
▁חשבונות	-10.4319
▁חוזה	-10.4324
▁הפרי	-10.4325
בתי	-10.4328
▁קבל	-10.433
▁אשה	-10.4332
▁החלום	-10.4333
7%	-10.4335
▁המרכזית	-10.4336
התפתחות	-10.4336
▁זמינים	-10.4348
▁בבני	-10.4368
▁עצר	-10.4368
נל	-10.437
יישום	-10.4372
מערב	-10.4372
▁השמאל	-10.4386
▁עולמית	-10.4388
▁שאלו	-10.4388
▁יג	-10.4396
▁מוכרים	-10.4397
▁המחשבה	-10.44
▁רומא	-10.44
▁אבק	-10.4403
▁38	-10.4404
▁לפ	-10.4406
▁התרופה	-10.4408
▁בריאה	-10.4416
▁החופש	-10.4419
גשת	-10.442
▁כבש	-10.4425
▁מקומי	-10.4428
▁בסביבות	-10.4432
▁שבר	-10.4434
▁טקס	-10.4436
▁הורה	-10.4437
▁הכשר	-10.4442
▁שכתב	-10.4443
מימון	-10.4444
שיהיו	-10.4445
▁נפגש	-10.4448
קובץ	-10.4451
▁כספים	-10.4451
▁זוכרת	-10.4452
▁יצרני	-10.4457
השגת	-10.4457
איך	-10.4458
▁ידו	-10.4459
▁ברזל	-10.4459
▁השולחן	-10.4459
▁הרשימה	-10.4459
▁בהדרגה	-10.4461
▁בהריון	-10.4463
▁החיצוני	-10.4465
מוסדות	-10.4466
em	-10.4466
▁נדיר	-10.4468
▁מטוס	-10.4472
▁הידיים	-10.4474
▁נגיש	-10.4483
▁נעלם	-10.4483
סקי	-10.4483
▁חברתיים	-10.4484
▁השיחה	-10.4485
פעל	-10.4486
חזות	-10.4486
▁המל	-10.4498
תוכניות	-10.4498
▁רוחני	-10.4503
עוצמה	-10.4504
צופה	-10.4504
▁מאתנו	-10.4504
▁שאינה	-10.4504
▁צמח	-10.4505
▁תשובות	-10.4505
▁תוצר	-10.4508
▁טל	-10.4509
שיטה	-10.4514
▁העצמי	-10.4515
▁פועלת	-10.4515
▁מעביר	-10.4516
▁מיקום	-10.4519
▁נר	-10.4519
▁Mar	-10.4523
▁פנימה	-10.4524
▁אלוקים	-10.4524
▁מבקר	-10.4525
▁כפול	-10.4526
▁אט	-10.4526
אנה	-10.4529
▁הרופאים	-10.4536
▁אתרי	-10.4536
▁מרחב	-10.4538
▁משכ	-10.4539
▁יעילות	-10.454
▁האמריקאים	-10.4545
▁הספורט	-10.4548
-80	-10.4548
▁סטר	-10.4549
▁נמשכ	-10.4549
▁תיקון	-10.455
▁התובע	-10.4552
▁לשקול	-10.4555
▁הקורס	-10.4556
▁For	-10.4559
▁פתוחה	-10.457
▁מיותר	-10.4571
▁הבטיח	-10.4571
▁עני	-10.4578
▁הערבית	-10.458
▁במערב	-10.4582
▁תמ	-10.4585
ברי	-10.4591
▁דמוקרטיה	-10.4591
▁פוליטיים	-10.4596
▁Do	-10.4597
▁[+]	-10.4598
▁מתגורר	-10.4598
▁קולנוע	-10.4598
▁נאבק	-10.46
▁פניו	-10.4601
▁זיהום	-10.4605
שוב	-10.4606
▁Lo	-10.4609
▁להלן	-10.4609
▁לשירות	-10.461
▁לעיל	-10.4613
ובל	-10.4614
▁1999	-10.4615
▁מחירי	-10.4616
▁חנות	-10.4617
▁אוגוסט	-10.4618
▁פעילים	-10.463
▁מעגל	-10.4634
▁אחיו	-10.4637
להזמין	-10.4638
▁שולחן	-10.464
▁לחלוק	-10.4641
▁דרמטי	-10.4645
▁החמ	-10.4645
▁ובני	-10.4646
▁המקורית	-10.4647
▁לחיי	-10.4648
▁אזרח	-10.4648
▁סקי	-10.4652
▁ציון	-10.4652
▁הנסיעה	-10.4653
תעשיית	-10.4653
▁מתקבל	-10.4654
▁הזכויות	-10.4655
▁ולמה	-10.4656
▁u	-10.4656
▁להגש	-10.4657
ca	-10.4658
▁האמנ	-10.4659
▁הכלכלית	-10.466
אמר	-10.4668
▁יסוד	-10.4677
▁משק	-10.4681
▁סדרה	-10.4683
▁תרגום	-10.4685
▁לכלול	-10.4691
▁לעצמם	-10.4692
▁יז	-10.4694
▁להבח	-10.4694
צפה	-10.4698
▁צבאית	-10.4699
▁הפק	-10.47
▁תזונה	-10.4701
▁יומיים	-10.4701
▁המכונה	-10.4703
פיץ	-10.4703
▁תקבל	-10.4704
▁הכתב	-10.4711
▁מימון	-10.4712
▁הפוטנציאל	-10.4713
▁ניסו	-10.4716
▁בנייה	-10.4719
▁חדשני	-10.4722
▁לחסוך	-10.4723
▁החלטתי	-10.4724
▁רדיו	-10.4735
▁ברירה	-10.4736
▁השיב	-10.4737
▁לתלמיד	-10.4738
▁הגרמנים	-10.4738
▁בחרו	-10.4738
פשוט	-10.4739
▁בפיתוח	-10.474
im	-10.474
▁הופעת	-10.474
▁No	-10.4741
▁בחלל	-10.4741
▁להתחבר	-10.4741
▁בשקט	-10.4742
▁סטי	-10.4743
▁להתעלם	-10.4745
▁ואחר	-10.4746
▁כשאתם	-10.4746
▁יצירות	-10.4746
▁מטופלים	-10.4748
pe	-10.4749
▁האישיים	-10.4753
▁החשמל	-10.4753
קור	-10.4755
▁הקרובים	-10.4758
▁מצ	-10.4761
▁לבנים	-10.4765
▁סול	-10.4766
▁רכיש	-10.4775
דוק	-10.4779
▁הנרי	-10.478
▁בפרק	-10.4784
▁גילו	-10.4785
גרמו	-10.4786
▁וכמובן	-10.4788
▁המשק	-10.4789
▁ידועה	-10.4789
▁ביפן	-10.4791
▁חריג	-10.4791
▁להתרחש	-10.4791
האדם	-10.4792
▁מאושרים	-10.4793
▁קליפורניה	-10.4795
▁מתים	-10.4795
▁קרח	-10.4797
ate	-10.4801
▁העין	-10.4803
▁השירותים	-10.4812
▁המצרי	-10.4815
▁at	-10.4819
▁שאומר	-10.4821
▁המוקדמ	-10.4823
▁הירוק	-10.4825
מונ	-10.4829
וודאות	-10.483
ושב	-10.4831
▁המבקרים	-10.4833
▁נפל	-10.4834
▁לרשות	-10.4837
נון	-10.4838
הפעלת	-10.4839
▁סוס	-10.4843
▁מעטים	-10.485
▁הצרפתי	-10.4854
▁עריכה	-10.4855
▁שמור	-10.4863
▁הרגיל	-10.4864
▁להשת	-10.4864
למרות	-10.4864
זרק	-10.487
▁הפועל	-10.487
▁בכפר	-10.4872
▁פיטר	-10.4874
▁la	-10.4876
▁הריון	-10.488
▁הצמיחה	-10.4884
▁מחסו	-10.4886
▁העניק	-10.4887
▁השפעות	-10.4888
▁תחבורה	-10.4892
▁טיפש	-10.4895
עור	-10.49
משאבים	-10.4901
▁תוספת	-10.4902
▁לייש	-10.4903
▁ממו	-10.4911
▁בשירות	-10.4914
▁אדיר	-10.4914
▁המספרים	-10.4916
▁הודיע	-10.4922
▁אפשרית	-10.4925
▁בקיצור	-10.4932
רישום	-10.4933
מגבלות	-10.4934
▁עוצר	-10.4934
▁אלפים	-10.4936
מנכ	-10.4943
▁הפיננסי	-10.4943
▁הבורא	-10.4945
▁חרדה	-10.4945
▁הנשמה	-10.4958
▁התרופות	-10.4965
▁המטרות	-10.4968
▁קשורים	-10.4969
▁משאבים	-10.4971
▁אישיים	-10.4972
▁הגעת	-10.4972
▁מדד	-10.4974
▁חיו	-10.498
▁שעומד	-10.498
▁צהוב	-10.4983
▁Sh	-10.4984
▁בגין	-10.4985
▁en	-10.4988
▁גולד	-10.4991
ואי	-10.4991
▁תועלת	-10.4996
▁אלוהי	-10.4996
▁מני	-10.4998
▁בק	-10.5005
▁הפיתוח	-10.5006
▁אנ	-10.5009
▁לחצו	-10.5012
▁הפליטים	-10.5013
מדיה	-10.5014
▁הציג	-10.5015
▁התקציב	-10.5019
▁המורכב	-10.502
▁מסרב	-10.5023
▁הפרטיות	-10.5026
▁הפדרלי	-10.5029
▁בטלפון	-10.503
▁בעלה	-10.5031
▁בחורה	-10.5034
נקודת	-10.5034
סיום	-10.5035
▁קליני	-10.504
▁הודיעה	-10.5043
ביל	-10.5044
הרי	-10.5045
▁דואר	-10.5046
▁עידן	-10.5046
co	-10.5051
va	-10.5052
▁יוון	-10.5053
▁פיס	-10.5053
▁המכירות	-10.5058
תחומים	-10.5062
מהווה	-10.5063
▁לבי	-10.5065
▁למחשב	-10.5069
▁לכ	-10.5071
▁הרש	-10.5071
▁מורכבת	-10.5073
▁היות	-10.5077
▁איל	-10.5077
▁לעצמנו	-10.5078
▁הצהריים	-10.5078
▁סוכרת	-10.5078
▁לסבול	-10.508
▁ברוסיה	-10.5081
באמת	-10.5082
▁חיפש	-10.5083
▁יהוה	-10.5083
▁שעלול	-10.5085
▁לקו	-10.5087
יקום	-10.5096
▁למלחמה	-10.5097
▁הענק	-10.5099
▁קטע	-10.5104
▁הקבוצות	-10.5106
▁הביע	-10.5106
▁בניין	-10.5107
▁אבנים	-10.5108
▁השתתפות	-10.5114
▁ממלא	-10.5115
▁מוסד	-10.5118
▁מתה	-10.5118
▁150	-10.5123
▁מרפא	-10.5124
▁הפעיל	-10.5125
שמע	-10.5126
זור	-10.5126
▁ענ	-10.5127
▁לרופא	-10.5127
▁הפארק	-10.5128
▁ראייה	-10.5128
▁ניצב	-10.513
▁למחקר	-10.5131
▁איזון	-10.5135
▁פסטיבל	-10.5137
▁הסופי	-10.5139
▁יומי	-10.5145
▁פט	-10.5145
▁שנאמר	-10.5147
הרבה	-10.5148
▁ביולוגי	-10.5148
אקדמיה	-10.515
קופ	-10.5151
דבק	-10.5151
▁טיפ	-10.5154
כולנו	-10.5154
▁הַ	-10.5158
▁עליהן	-10.5158
וטה	-10.5159
▁באיזו	-10.5162
▁שיעורי	-10.5166
▁הפרסום	-10.5167
▁המועצות	-10.5167
▁?!	-10.5167
▁בקבוצה	-10.5167
▁הרפובליקה	-10.5169
▁עלויות	-10.517
▁מודרני	-10.5173
▁מתעורר	-10.5174
אולם	-10.5176
▁וושינגטון	-10.5177
▁הביניים	-10.5178
▁המלכה	-10.5178
▁מפורט	-10.518
▁הוצאות	-10.5182
ייד	-10.5184
▁באור	-10.5184
ci	-10.5185
▁הקונגרס	-10.5186
▁Un	-10.5186
▁משימות	-10.5187
ילי	-10.5192
▁הדמוקרטיה	-10.5193
ולל	-10.5194
▁לארה	-10.5195
אוזן	-10.5196
▁ביטול	-10.5199
ֵי	-10.52
▁נשבע	-10.5201
▁מוסלמים	-10.5207
▁מנהיגים	-10.5211
תאים	-10.5216
▁תאר	-10.5218
▁פיל	-10.522
רשימת	-10.522
▁מכשירים	-10.5225
▁בעצמך	-10.5226
▁הגרוע	-10.5227
▁הדעת	-10.5229
▁המפגש	-10.5229
▁פריז	-10.5231
▁בשמ	-10.5232
דאג	-10.5232
סכימו	-10.5233
עסוק	-10.5234
רצונך	-10.5235
▁65	-10.5235
▁חוויות	-10.5237
גיוס	-10.5237
▁הדתי	-10.5238
▁חברתיות	-10.5242
▁לדון	-10.5242
▁התח	-10.5245
▁פסיכולוגי	-10.5246
▁מנהיגות	-10.5248
-21	-10.5248
עשתה	-10.5252
ec	-10.5253
▁סגנון	-10.5254
▁הגר	-10.5255
ייס	-10.5258
ראיון	-10.526
▁קונג	-10.5261
▁הסיני	-10.5264
▁מעורבות	-10.5265
▁שיקול	-10.5266
▁הסרטים	-10.5267
▁לזכויות	-10.5271
▁לשיפור	-10.5272
▁ליהודים	-10.5274
▁פרחים	-10.5275
ארץ	-10.5276
▁בבירור	-10.5276
▁הנביא	-10.5277
▁5.	-10.5278
▁ההריון	-10.528
▁ניצחון	-10.528
▁One	-10.528
▁ודאי	-10.5281
▁תע	-10.5282
▁אחריו	-10.5283
מונים	-10.529
▁המכיל	-10.5292
▁מוצק	-10.5296
-60	-10.5298
▁המוסלמים	-10.5302
▁למעט	-10.5303
▁פגע	-10.5304
▁תצטרך	-10.5305
▁זוכה	-10.5307
▁חוות	-10.5308
▁400	-10.5309
▁ברכב	-10.5309
שמור	-10.531
התבסס	-10.531
▁במשפחה	-10.5312
עשרה	-10.5314
▁חרד	-10.5316
▁ברא	-10.5317
▁צמחים	-10.5319
▁הכוללת	-10.532
▁הקצר	-10.532
▁מטוסים	-10.5322
▁האנגלית	-10.5323
▁בפריז	-10.5324
▁נה	-10.5325
▁הייחודי	-10.5327
▁בסיכון	-10.5327
▁האלוהים	-10.5327
▁מושלמת	-10.5328
▁גנב	-10.5328
▁הבנייה	-10.5329
')	-10.5335
▁הטי	-10.5335
▁המשפטי	-10.5337
▁מעו	-10.5342
עיקרון	-10.5342
▁האיראני	-10.5344
▁בפרויקט	-10.5344
מית	-10.5351
▁לעודד	-10.5352
▁לאומית	-10.5357
▁נשימה	-10.5357
▁חובות	-10.5364
▁טיסות	-10.5368
שבור	-10.5372
our	-10.5374
▁הרוסית	-10.5376
▁לערוך	-10.5377
▁נחוש	-10.5381
▁חכמים	-10.5385
▁סיטי	-10.5386
▁המפורסם	-10.5389
▁תאים	-10.539
▁גילה	-10.5391
▁מייל	-10.54
▁בוב	-10.5401
▁אומץ	-10.5401
▁החר	-10.5402
▁לפרסם	-10.5407
▁תגובת	-10.5407
▁הנזק	-10.5408
ימי	-10.5408
▁חזון	-10.5408
▁טרו	-10.5409
אחד	-10.5411
▁איטי	-10.5413
▁האפשרויות	-10.5423
▁הצטרפו	-10.5426
▁זכור	-10.5427
▁[[	-10.5428
▁הלהקה	-10.5428
▁נלקח	-10.5429
▁נותרו	-10.5429
▁מסתבר	-10.543
תרגל	-10.5432
▁סגן	-10.5436
▁נק	-10.5438
▁כעס	-10.544
▁מתמיד	-10.5444
▁מתקדמים	-10.5446
▁אזורים	-10.5448
▁הכוונה	-10.5449
טיפוח	-10.5449
▁הפרו	-10.5458
▁עבורכם	-10.5461
▁ציור	-10.5464
▁הבריטית	-10.5464
▁היחס	-10.5467
׳	-10.5467
▁השד	-10.5467
ביט	-10.5469
גיע	-10.5475
▁פלסטין	-10.5476
▁המתאים	-10.5478
▁הרפואה	-10.5479
▁האחורי	-10.548
▁הבמה	-10.5482
▁בטבע	-10.5484
▁בשלוש	-10.5485
▁ילדות	-10.5488
▁טיפים	-10.5489
▁כרטיסים	-10.5494
יבש	-10.55
▁שמדובר	-10.5501
▁לבעלי	-10.5504
נאי	-10.5504
נצח	-10.5511
▁נהדרת	-10.5512
-]	-10.5513
▁חן	-10.5513
▁הבחור	-10.5514
חסן	-10.5514
▁מצטער	-10.5515
▁שכח	-10.5518
▁להורג	-10.5522
▁רמה	-10.5522
▁תרופה	-10.5523
▁ההודעה	-10.553
▁מטבע	-10.5532
▁מוחמד	-10.5532
▁הסחר	-10.5532
▁נהנה	-10.5536
▁37	-10.5536
נהנים	-10.5536
▁רא	-10.5538
יאה	-10.5539
▁שופט	-10.5541
▁לשוק	-10.5542
▁Ro	-10.5542
נתונים	-10.5542
▁בקושי	-10.5544
▁עדן	-10.5544
▁שחשוב	-10.5544
▁יס	-10.5545
יזמים	-10.5547
▁ממוקמ	-10.5548
▁מזונות	-10.5557
▁צפויים	-10.5566
▁ריכוז	-10.5568
▁ספרו	-10.5568
4%	-10.5568
▁למשרד	-10.5569
רוח	-10.557
one	-10.5572
ספק	-10.5576
▁נית	-10.5576
▁האג	-10.5576
▁תרבותי	-10.558
▁אופניים	-10.5583
▁רוד	-10.5583
▁סמל	-10.5586
▁Com	-10.5589
אמי	-10.5589
▁חייה	-10.5592
▁נבדק	-10.5593
▁מדברת	-10.5593
-100	-10.5597
▁תראה	-10.5597
סטודנטים	-10.5605
עולה	-10.5605
▁חלו	-10.5607
▁לתכנן	-10.5608
▁39	-10.561
▁אימא	-10.5612
▁פלטפורמ	-10.5613
▁בוגר	-10.5619
▁שכב	-10.5622
▁צפויה	-10.5622
אינטרסים	-10.5624
▁לאלה	-10.5626
שוויון	-10.5627
▁פלסטיני	-10.5631
▁מאחור	-10.5631
▁לניהול	-10.5634
▁שרוצים	-10.5634
▁הצעה	-10.5636
▁הבה	-10.564
▁ייקח	-10.5644
▁האלקטרוני	-10.5645
▁מאסר	-10.5646
▁55	-10.5647
▁סמ	-10.5647
התקדמות	-10.565
▁נפט	-10.5654
▁פעל	-10.5655
טפל	-10.5655
הכנסות	-10.5659
▁פתיחת	-10.566
קדש	-10.5662
חוק	-10.5669
▁יעשו	-10.5673
היבטים	-10.5679
▁במאבק	-10.5686
▁קלוריות	-10.5686
▁~	-10.5686
▁קולות	-10.5687
▁מרוויח	-10.5687
▁אנוש	-10.5689
▁100%	-10.569
▁פסל	-10.5691
▁דני	-10.5691
דרכה	-10.5692
▁נודע	-10.5695
▁המושב	-10.5697
▁לְ	-10.5698
עובדה	-10.5699
ציל	-10.5702
▁בקבוק	-10.5704
תקשורת	-10.5706
ניו	-10.5707
▁פוגש	-10.5708
▁:)	-10.5711
▁האמריקנית	-10.5712
▁לחזק	-10.5713
age	-10.5714
▁בהר	-10.5718
▁למשפחה	-10.572
-70	-10.5723
▁עצומה	-10.5725
▁מתנגד	-10.5725
▁מורים	-10.5726
▁העסקה	-10.5729
▁מונה	-10.5735
▁בעצמי	-10.5738
▁מרתק	-10.574
▁התר	-10.5741
▁האושר	-10.5741
▁הבל	-10.5743
▁מועמד	-10.5747
▁מפעל	-10.5747
רוד	-10.5749
▁נסגר	-10.575
▁חזרת	-10.5751
▁שלטון	-10.5752
▁שנותר	-10.5759
▁הצפוני	-10.5762
▁משלוח	-10.5772
▁למרכז	-10.5772
▁אמיתיים	-10.5776
▁חלבון	-10.5776
▁אויב	-10.5777
▁אוצר	-10.5778
קושי	-10.5779
▁דתיים	-10.5782
זאת	-10.5784
▁שפע	-10.579
▁פעולת	-10.5791
מעדיפים	-10.5791
▁המט	-10.5791
פורט	-10.5793
▁לרשת	-10.5794
▁הפה	-10.5794
▁האוצר	-10.5795
חומרים	-10.5795
▁בעזה	-10.5797
דד	-10.5798
אוניברסיטת	-10.5799
שורה	-10.5801
▁תג	-10.5801
▁מתקדם	-10.5802
ֶר	-10.5803
▁הנסיך	-10.5804
▁דאעש	-10.5808
▁תראו	-10.5814
קראתי	-10.5815
▁ion	-10.5816
ish	-10.5816
▁עמי	-10.5817
▁זכרו	-10.5817
▁תיאר	-10.5817
▁קונה	-10.5817
▁היל	-10.5818
▁לידה	-10.5818
▁מפגש	-10.5818
▁שרה	-10.5824
▁th	-10.5825
▁הרס	-10.5825
▁מדריך	-10.5829
▁שאמרתי	-10.5829
▁תיירים	-10.583
▁יזם	-10.583
▁רכבת	-10.5831
איר	-10.5832
▁עצמאית	-10.5835
▁ממשל	-10.5837
▁ציינ	-10.584
▁מילות	-10.5844
▁בבעלות	-10.5844
▁יצחק	-10.5844
▁נפוץ	-10.5844
▁מדהימה	-10.5844
נשק	-10.5844
▁דאגה	-10.5846
▁חתול	-10.5847
▁עצמאות	-10.5848
▁הכרה	-10.5848
▁פאר	-10.585
עומק	-10.5853
▁יישום	-10.5853
▁סופי	-10.5856
▁שחקני	-10.5858
▁חז	-10.5861
ָא	-10.5864
▁פולין	-10.5868
▁שתוכל	-10.5868
נדה	-10.5869
▁מכונות	-10.587
▁נכ	-10.587
▁2:	-10.5871
▁קריטי	-10.5873
▁co	-10.5876
▁דואג	-10.5878
▁לחם	-10.5881
▁אנה	-10.5882
ייתן	-10.5887
AS	-10.5897
▁הקומוניסטי	-10.5897
▁שרוצה	-10.5897
▁לנהוג	-10.5897
▁המודל	-10.5899
▁אן	-10.59
▁מותג	-10.5902
▁מתקש	-10.5904
▁מתקיימ	-10.5904
▁חירות	-10.5905
▁באנשים	-10.5906
▁השקט	-10.5908
יתי	-10.5909
▁החיות	-10.5911
▁מסחרי	-10.5917
▁חולי	-10.5925
▁מוחלטת	-10.5926
▁הגדל	-10.5927
▁An	-10.5931
▁הלכתי	-10.5931
שיר	-10.5932
▁באר	-10.5932
▁דיאטה	-10.5933
מוצא	-10.5934
▁חלש	-10.5934
▁היופי	-10.5938
▁האינטרס	-10.5941
גורם	-10.5945
▁תחומי	-10.5947
▁הסורי	-10.5947
▁לביצוע	-10.595
▁באיטליה	-10.595
▁חקירה	-10.595
▁אלכסנדר	-10.5951
▁משפטי	-10.5952
כנע	-10.5952
▁שלפני	-10.5952
▁להזכיר	-10.5955
▁ספור	-10.5955
▁מחובר	-10.5956
ללא	-10.5956
▁ההצעה	-10.5957
tion	-10.5958
▁העמים	-10.596
יסה	-10.596
▁אליכם	-10.596
ילד	-10.5962
▁הפופולרי	-10.5962
▁השנתי	-10.5962
▁ידידותי	-10.5963
▁חס	-10.5969
▁נאלצ	-10.5972
ak	-10.5973
▁חוט	-10.5975
▁שמא	-10.5976
▁בתנאים	-10.5977
▁הורג	-10.5981
זין	-10.5982
▁מעסיק	-10.5983
▁באוניברסיטה	-10.5983
▁טבעית	-10.5987
▁עיתונאים	-10.5987
▁הכדור	-10.5988
▁ובעל	-10.5989
▁הנער	-10.5991
ימנע	-10.5992
יועץ	-10.5993
▁האישית	-10.5993
▁חוב	-10.5994
קסם	-10.5995
▁השירים	-10.5999
▁הדרוש	-10.6
▁האחרות	-10.6002
▁המותג	-10.6002
▁במונח	-10.6005
▁עוצמה	-10.6005
▁מתרגל	-10.6006
▁המסלול	-10.6007
▁פיליפ	-10.6008
▁מועדון	-10.6008
▁le	-10.6009
▁הפרלמנט	-10.6013
▁כח	-10.602
ארצות	-10.6023
▁אקדמי	-10.6024
▁My	-10.6026
▁הבנות	-10.6026
▁החמישי	-10.6031
▁אירועי	-10.6033
▁דן	-10.6034
▁מוכיח	-10.6036
מהגרים	-10.6041
▁גמיש	-10.6042
ארה	-10.6042
כמות	-10.6046
▁סבלנות	-10.6046
▁mo	-10.6046
ישור	-10.6052
ES	-10.6057
▁תעופה	-10.6058
-90	-10.6058
▁בהודו	-10.6059
▁נכונות	-10.6059
▁הנקרא	-10.606
▁צעק	-10.606
▁המשא	-10.6063
▁בשיח	-10.6066
▁כרטיסי	-10.6068
▁בכ	-10.6073
▁להביע	-10.6075
▁3.	-10.6077
▁לסרט	-10.6079
כתוב	-10.6079
▁אבד	-10.608
▁נופל	-10.6081
ight	-10.6086
ub	-10.6086
▁משתי	-10.6087
זן	-10.6088
▁פרטית	-10.6089
▁קורבנות	-10.6089
כמו	-10.6093
▁נכנסים	-10.6097
ומות	-10.6099
▁התעורר	-10.6105
▁קני	-10.6106
▁החשבון	-10.6106
▁בול	-10.6108
לעתים	-10.6112
▁מכבד	-10.6113
▁הגל	-10.6116
▁99	-10.6117
טות	-10.6121
▁יער	-10.6121
עמד	-10.6121
▁הבנקים	-10.6125
▁בריטי	-10.6131
▁ממליץ	-10.6132
▁1:	-10.6133
▁פונ	-10.6136
▁אוקטובר	-10.6137
▁כשהיית	-10.6138
▁הדרומי	-10.6143
mi	-10.6143
▁הכר	-10.6146
▁חוקית	-10.6152
ment	-10.6152
▁נזכר	-10.6154
▁השב	-10.6156
▁המאסטר	-10.6163
▁רישיון	-10.6167
▁תגיד	-10.6171
▁הידיע	-10.6176
ho	-10.6181
▁ספינות	-10.6182
▁לעניין	-10.6192
▁השמים	-10.6195
▁צרכי	-10.6195
▁צופים	-10.6196
▁ובמיוחד	-10.6199
▁עמיד	-10.62
רוז	-10.6202
▁טילים	-10.6202
▁מאמצ	-10.6205
▁רמז	-10.6205
▁מגמ	-10.6207
▁קילומטרים	-10.6208
בגדים	-10.621
▁רצונו	-10.6211
סדר	-10.6211
▁גורמת	-10.6213
▁תהיו	-10.622
▁ההשקעה	-10.6222
▁כועס	-10.6222
▁הדיגיטלי	-10.6222
▁החזיק	-10.6222
▁האקלים	-10.6222
no	-10.6222
▁כישורי	-10.6223
▁כניסת	-10.6223
▁בצבע	-10.6223
▁חתיכ	-10.6223
▁המכון	-10.6229
▁מסת	-10.623
▁מחירים	-10.6231
▁עבורנו	-10.6232
▁מתרחשת	-10.6234
▁מאתגר	-10.6238
▁החזיר	-10.6239
סע	-10.624
סגנון	-10.6242
▁בארגון	-10.6243
▁יאפשר	-10.6245
J	-10.6246
▁ממוקד	-10.6249
ֹא	-10.6253
▁המוני	-10.6256
▁תחרותי	-10.6257
▁משתתפים	-10.6257
ורת	-10.626
נכם	-10.626
▁הנייד	-10.6263
▁עיוור	-10.6265
▁תהיי	-10.6268
▁מרחק	-10.627
ואר	-10.6272
▁גונג	-10.6273
▁פרש	-10.6274
בינו	-10.6275
▁המלצות	-10.6275
▁דקה	-10.6276
▁ברשימה	-10.6277
▁Office	-10.6277
▁בקהילה	-10.6277
▁כוונת	-10.6277
▁הניסוי	-10.6278
▁יקרים	-10.6278
▁התיירות	-10.6278
▁מושפע	-10.6278
▁לרכב	-10.6278
▁ספציפי	-10.6279
▁בודק	-10.6281
▁הדירה	-10.6281
▁רוס	-10.6286
est	-10.6288
▁הבעל	-10.6289
▁רעיד	-10.6289
▁בטרם	-10.6289
▁החודשים	-10.629
רוץ	-10.6291
דיונים	-10.6296
▁ההתנהגות	-10.6296
▁כתבתי	-10.6297
▁ניגש	-10.6299
▁מופע	-10.6304
▁במשר	-10.6306
גישה	-10.6309
עצור	-10.6311
ke	-10.6316
עשר	-10.6317
▁מיי	-10.6318
▁מחצית	-10.6319
▁לקבוצה	-10.632
▁דירות	-10.6325
▁הוצאת	-10.6327
▁משלוש	-10.633
▁Bo	-10.633
שיקום	-10.6332
▁הבדיקה	-10.6333
▁בצבא	-10.6333
▁נניח	-10.6333
▁מצוינת	-10.6335
▁לעם	-10.6339
▁תם	-10.634
▁ידועים	-10.634
-40	-10.6341
זירה	-10.6342
▁מוסר	-10.6348
▁מצבים	-10.6351
▁מתנות	-10.6352
▁פת	-10.6352
▁ביר	-10.6354
▁בפי	-10.6362
▁Pa	-10.6365
▁קס	-10.6374
▁לממש	-10.6382
▁דלקת	-10.6382
▁החופשי	-10.6382
יהודים	-10.6383
▁באנגליה	-10.6389
▁המיועד	-10.6389
▁שעובד	-10.639
▁הציבורית	-10.6394
▁סוחר	-10.6401
▁לבוש	-10.6403
▁טא	-10.6403
▁מעצר	-10.6407
▁לחוש	-10.6409
▁לפתע	-10.641
▁היטלר	-10.6413
▁מהנדס	-10.6413
▁העובדות	-10.6414
▁z	-10.6416
▁המג	-10.6419
טרם	-10.642
לר	-10.642
▁משתנים	-10.6424
ואן	-10.6425
שיפור	-10.6426
סמכות	-10.643
▁כתבי	-10.6431
▁שחלק	-10.6434
▁הגורם	-10.6436
nd	-10.644
▁השליטה	-10.6441
▁ישנים	-10.6444
כשיר	-10.6445
▁").	-10.6445
קזינו	-10.6446
▁קרו	-10.6446
▁קישור	-10.6448
▁הלכו	-10.6451
▁קנדי	-10.6453
רם	-10.6453
▁גלוי	-10.646
ישות	-10.6462
▁בינוני	-10.6463
▁לימודים	-10.6472
חוות	-10.6474
▁חובת	-10.6478
▁החברתיות	-10.648
▁בגן	-10.6481
▁דיכאון	-10.6485
לג	-10.6486
▁דמויות	-10.6488
יפו	-10.6492
▁כיסוי	-10.6492
▁התוכנה	-10.6493
▁הופ	-10.6494
שהיא	-10.6496
ac	-10.6498
▁מסיב	-10.65
▁למטרה	-10.6502
▁זוגות	-10.6503
▁בחייו	-10.6507
▁(19	-10.6511
▁תאגיד	-10.6513
▁מסורתי	-10.6518
▁רפואית	-10.6519
▁העיתון	-10.6521
▁מגיל	-10.6522
▁סיר	-10.6522
נדו	-10.6527
יסטים	-10.6529
▁בחי	-10.6529
▁אסון	-10.653
▁Th	-10.6533
▁אידיאלי	-10.6535
▁v	-10.6539
משקל	-10.6546
קן	-10.6548
ide	-10.6554
▁להכ	-10.6555
▁בתמונה	-10.6558
▁הקולנוע	-10.6558
▁מרטין	-10.6558
▁ואומר	-10.6559
▁רוחנית	-10.6559
▁למציאות	-10.6559
▁מייד	-10.6559
▁יגיד	-10.6561
▁הבי	-10.6562
▁הלוואי	-10.6566
דוד	-10.6568
▁הגעתי	-10.6569
▁סיור	-10.6571
▁תפקידו	-10.6573
▁קניות	-10.6575
▁משטר	-10.6577
לקבל	-10.658
▁הסי	-10.6581
עשות	-10.6582
▁ספטמבר	-10.6586
תפיסה	-10.6588
&	-10.659
▁המחלקה	-10.659
▁הוכיח	-10.6591
▁מרוצים	-10.6591
▁42	-10.6595
▁סור	-10.6595
נך	-10.6596
▁כללית	-10.6597
▁מתכננים	-10.6598
▁קישורים	-10.6603
▁למסע	-10.6609
נוכל	-10.661
▁משפטית	-10.6613
▁שגריר	-10.6613
▁אדמות	-10.6614
▁סבא	-10.6615
▁השיווק	-10.6615
▁משולב	-10.6616
▁כוונה	-10.6616
▁אכזרי	-10.6617
▁אחורה	-10.6617
▁מסודר	-10.6617
▁לפרט	-10.6618
▁שבני	-10.6618
▁‬	-10.662
▁מתע	-10.6624
der	-10.6624
▁אנושית	-10.6627
▁הפני	-10.6628
▁49	-10.6629
▁הלימוד	-10.6631
▁עבורך	-10.6634
▁מאמצי	-10.6635
▁שייכ	-10.6636
▁הציור	-10.6637
mo	-10.6637
▁כנס	-10.6641
▁נכסים	-10.6641
▁הסכסוך	-10.6642
▁Ha	-10.6643
תמודדות	-10.6645
▁עשינו	-10.6645
▁שכזה	-10.6646
▁פקיד	-10.6652
▁קנ	-10.6654
▁הצבאית	-10.6657
▁נציג	-10.6664
▁הנהר	-10.6666
▁הנוסעים	-10.6666
▁מטה	-10.6668
▁מנקוד	-10.6669
▁סודות	-10.6669
רעיון	-10.667
▁השלכות	-10.667
מחנה	-10.6672
▁אבוד	-10.6673
▁משלמים	-10.6673
▁סיפק	-10.6673
▁מפל	-10.6674
▁מקצועיים	-10.6674
▁דתי	-10.6674
ַּ	-10.6677
▁זכו	-10.6679
▁אשמח	-10.6681
▁העצמאות	-10.6681
▁הפשוט	-10.6682
▁נישואין	-10.6685
▁מגניב	-10.6688
▁כאל	-10.6689
▁אחים	-10.669
▁נהיגה	-10.6703
▁באש	-10.6707
▁שזכ	-10.6708
תלמידים	-10.671
▁מבנים	-10.6711
▁הצל	-10.6717
▁מתכוונ	-10.6717
▁מסמך	-10.6718
▁סכנה	-10.6718
▁בירה	-10.6719
▁תמשיך	-10.672
▁האימפריה	-10.672
▁המוסרי	-10.6721
▁שהחל	-10.6722
▁גרס	-10.6722
▁הוקם	-10.6724
▁מלאים	-10.6726
סיס	-10.6726
רופ	-10.6727
▁רוצח	-10.6731
▁החתונה	-10.6731
▁שוקולד	-10.6732
ירידה	-10.6732
▁איגוד	-10.6734
דחף	-10.6735
אבי	-10.6736
▁קצרים	-10.6736
▁הבת	-10.6736
▁המכתב	-10.6738
▁מקורי	-10.6739
▁דיבור	-10.6744
▁עצים	-10.6744
ארט	-10.6745
▁מייסד	-10.6749
▁מגורים	-10.675
▁בתנאי	-10.6751
▁בשלום	-10.6753
▁man	-10.6759
▁IP	-10.6761
▁הצלח	-10.6763
▁הנחה	-10.6765
▁משמעותיים	-10.6769
▁החברתי	-10.6769
קווה	-10.6773
▁חשובות	-10.6773
▁ושני	-10.6775
▁לוק	-10.6778
▁הצלב	-10.6779
▁נט	-10.6779
▁בלו	-10.6785
▁חגיג	-10.6786
▁ההתחלה	-10.6789
▁המושג	-10.6789
▁משלב	-10.679
▁בנוח	-10.6791
קבוצות	-10.6791
גון	-10.6792
▁הדואר	-10.6795
▁שמים	-10.6795
6%	-10.6796
▁האלימות	-10.6799
▁מבצעים	-10.6801
▁רפואיים	-10.6802
▁מחיי	-10.6802
▁עירוני	-10.6808
▁חב	-10.6808
▁שוחרר	-10.681
▁מתבצע	-10.6812
▁Man	-10.6813
▁סביבה	-10.6813
▁הוכחה	-10.6819
▁מכוס	-10.682
▁שאלת	-10.6821
רגע	-10.6822
תוספת	-10.6824
▁עיתונאי	-10.6826
▁ישב	-10.6831
הגדרה	-10.6831
▁הדגיש	-10.6832
▁העץ	-10.6833
▁תיאטרון	-10.6833
▁נישא	-10.6837
▁תשאל	-10.6837
מזג	-10.6837
SS	-10.6838
▁רעש	-10.6839
▁הורי	-10.6839
▁התחילה	-10.6845
▁בראשית	-10.6845
▁סיכונים	-10.6846
▁הנישואין	-10.6847
▁הקיסר	-10.6847
▁משטרת	-10.6848
▁באל	-10.6849
▁פוטר	-10.6851
▁החתול	-10.6851
▁מוסיפ	-10.6851
▁בנוי	-10.6852
ber	-10.6852
▁המשותף	-10.6852
▁דיפלומטי	-10.6853
▁עסקיים	-10.6854
▁ויל	-10.6854
▁ניסיתי	-10.6859
▁הול	-10.6859
▁הקיצוני	-10.686
▁חזרו	-10.686
▁דנ	-10.6862
▁עסקה	-10.6863
▁היפה	-10.6864
12	-10.6865
▁חווית	-10.6865
▁חקלאי	-10.6866
▁באירוע	-10.6866
▁תעל	-10.6867
אפי	-10.6869
▁עלתה	-10.6872
▁עונת	-10.6873
▁היעדר	-10.6874
▁המבקש	-10.6878
▁ma	-10.6878
▁לפרו	-10.6878
▁הסכמת	-10.6879
▁היבט	-10.6879
▁רפואה	-10.6881
▁וול	-10.6882
Z	-10.6884
▁שהכל	-10.6888
ud	-10.6888
עבירה	-10.689
למטרות	-10.6894
▁העלו	-10.6894
▁טיפולים	-10.6898
▁במו	-10.6904
▁הביצוע	-10.6906
▁הנוער	-10.6906
▁ארבעת	-10.6908
▁הוצג	-10.6909
▁הבנת	-10.6909
▁היסוד	-10.6912
▁חו	-10.6912
כלל	-10.6914
▁לתקשר	-10.6916
▁סימני	-10.6918
▁טייס	-10.6919
▁do	-10.6921
▁הפועלים	-10.6922
▁נטו	-10.6932
ַי	-10.6933
▁הופעות	-10.6933
▁תמצאו	-10.6936
▁עולים	-10.6941
▁8.	-10.6941
▁ומעלה	-10.6942
▁אסירים	-10.6946
בוס	-10.6948
סא	-10.6949
▁עימ	-10.6957
▁דבריו	-10.6961
▁דורשים	-10.6962
▁בנה	-10.6963
▁הכלים	-10.6963
היפטר	-10.6965
▁משוגע	-10.6965
▁Home	-10.6965
▁כושר	-10.6966
▁מעריכים	-10.6966
▁בנים	-10.6969
▁ישראלית	-10.6971
חדש	-10.6973
ייב	-10.6974
▁מעקב	-10.6977
▁מלונות	-10.6978
▁הנאצים	-10.6978
רא	-10.6979
▁האומה	-10.6981
▁בנ	-10.6983
▁ימות	-10.6986
▁קסם	-10.6989
▁אינטרס	-10.6992
▁בעסק	-10.6993
▁לצמצ	-10.6993
ראיתי	-10.6993
▁לארוח	-10.6997
▁Wi	-10.7004
▁התל	-10.7005
חבר	-10.701
▁ההון	-10.7011
▁מנהלי	-10.7013
▁הילדה	-10.7013
▁מקדש	-10.7024
▁World	-10.7025
▁אינטנסיבי	-10.7025
▁משטח	-10.7025
▁ברזיל	-10.7025
▁הספינה	-10.7026
▁שמאפשר	-10.7026
לוט	-10.7026
▁אפס	-10.7026
▁הקודמים	-10.7027
▁לרצות	-10.7027
סוג	-10.7028
▁להיפגש	-10.7028
▁הצדק	-10.703
▁מנהיגי	-10.7033
▁שעשוי	-10.7033
▁צחק	-10.7033
▁הערות	-10.7034
ארון	-10.7035
▁בתקשורת	-10.7036
אנס	-10.7037
▁נלח	-10.7046
▁ערכי	-10.7056
▁משו	-10.7057
מול	-10.7057
נקו	-10.7063
אצ	-10.7063
▁לנקות	-10.7065
כיל	-10.7066
▁ברחובות	-10.7068
▁היוצר	-10.7069
מטרי	-10.7078
▁לקום	-10.7078
▁מכה	-10.7078
▁הודעת	-10.7081
▁ייחודית	-10.7083
▁הפתוח	-10.7085
▁7.	-10.7086
▁בחברת	-10.7086
▁לעצב	-10.7086
▁במבט	-10.7095
▁המניות	-10.7097
חמאס	-10.7099
סוד	-10.7102
▁מעניינים	-10.7103
▁נטל	-10.7103
פד	-10.7103
▁חוס	-10.7104
▁שרת	-10.7104
▁צרפתי	-10.711
▁בקשת	-10.711
זמן	-10.712
הופעה	-10.7125
▁לשוב	-10.7125
▁יסודי	-10.7126
▁be	-10.7126
▁תפסיק	-10.7126
ni	-10.7135
הנחה	-10.7138
▁טבעיים	-10.7139
▁מובילים	-10.7139
▁התק	-10.7141
▁הדרושים	-10.7144
▁[3]	-10.7145
▁המשיכה	-10.7145
▁התשלום	-10.7146
▁מכון	-10.7147
מניעת	-10.7147
▁שהיתה	-10.7148
▁אביה	-10.7149
▁הבירה	-10.715
עביר	-10.7151
▁שהת	-10.7157
▁קטלני	-10.7157
▁התקנ	-10.7158
▁רות	-10.7165
ייק	-10.7167
▁הסכמה	-10.7169
▁קייט	-10.7169
▁פתוחים	-10.7171
▁We	-10.7174
▁אפי	-10.718
▁גול	-10.7183
▁הקיר	-10.7186
▁טיל	-10.7189
▁ספיר	-10.7189
▁מענה	-10.7189
היקף	-10.719
עון	-10.719
תקפות	-10.7191
▁\	-10.7191
▁te	-10.7194
תגלה	-10.7203
▁אתגרים	-10.7203
ance	-10.7205
▁אירלנד	-10.7206
▁בחינוך	-10.7206
▁משוכנע	-10.7206
▁צוחק	-10.7207
▁הרצפה	-10.7208
▁הטיסה	-10.7209
▁הפער	-10.7216
ּוֹ	-10.7217
▁מתאימים	-10.7218
▁זמנים	-10.7219
▁המתנה	-10.7219
▁אורגני	-10.7228
au	-10.7228
▁סמית	-10.723
נע	-10.723
▁המופע	-10.7231
▁חלקית	-10.7231
▁מזיק	-10.7232
▁חדרים	-10.7232
▁ובכלל	-10.7232
▁אפ	-10.7234
▁החליטו	-10.7235
▁He	-10.7237
סכסוך	-10.7239
▁בחיפוש	-10.7239
▁ונשים	-10.7239
▁במידע	-10.7243
צוות	-10.7244
▁חושש	-10.7245
▁מאמן	-10.7248
פיזיקה	-10.7249
▁שתיים	-10.725
▁ילדיהם	-10.725
▁הון	-10.7251
▁האוקיינוס	-10.7251
▁המכ	-10.7251
▁יפני	-10.7251
▁הלכה	-10.7255
לכו	-10.7258
ti	-10.7259
▁לכו	-10.726
צדק	-10.7263
▁האשראי	-10.7266
▁עסקית	-10.7267
▁השעון	-10.7267
▁השאיר	-10.7268
▁אוכלוסי	-10.7269
▁מצו	-10.727
▁אריק	-10.7271
▁רומנטי	-10.7274
▁המפעל	-10.7275
▁בהיות	-10.7277
▁חווים	-10.7291
▁מנ	-10.7293
ָּ	-10.7294
▁קינג	-10.7294
▁יתחיל	-10.7296
▁נובמבר	-10.7298
▁פליטים	-10.7298
▁מוסיף	-10.7298
פרד	-10.7299
▁נעליים	-10.7301
▁רד	-10.7305
ייחס	-10.7306
▁נדרשים	-10.7306
▁צור	-10.7307
תפקוד	-10.731
▁מעי	-10.7311
▁הבתים	-10.7314
▁us	-10.7315
av	-10.7319
מבנים	-10.7319
▁דרש	-10.732
מם	-10.7324
צדדים	-10.7327
▁מקלט	-10.7328
▁בתמורה	-10.7328
הציב	-10.7329
▁אזהרה	-10.7329
פסיק	-10.733
▁שומעים	-10.733
▁הנושאים	-10.7332
▁מסתובב	-10.7336
איום	-10.7339
עיר	-10.7341
▁השל	-10.7343
▁המנהיג	-10.7351
▁טכנולוגיי	-10.7354
ווין	-10.7358
▁נייד	-10.7358
▁עורר	-10.7358
▁רעים	-10.7359
▁וכ	-10.7361
▁גובה	-10.7361
▁חוצ	-10.7362
▁עמודים	-10.7364
הלך	-10.7368
[	-10.737
▁עצמן	-10.737
▁הקלה	-10.7376
▁שנאה	-10.7381
▁לשלוש	-10.7382
▁פגש	-10.7382
▁New	-10.7383
▁עז	-10.7384
ברג	-10.7384
▁הסתיימה	-10.739
▁דיוויד	-10.739
▁מפריע	-10.739
▁בנפרד	-10.739
חולל	-10.739
עכשיו	-10.739
▁מוכשר	-10.739
▁באחריות	-10.739
▁גשם	-10.7392
נם	-10.7394
▁הסרטן	-10.7395
▁מהותי	-10.7395
▁להר	-10.7398
▁ספרות	-10.7399
בסס	-10.7399
▁הדוק	-10.7402
▁מרצ	-10.7404
הטיל	-10.7404
▁אמה	-10.7405
▁Ra	-10.7406
▁הנדרש	-10.741
▁במערכ	-10.7414
▁קולו	-10.7415
▁תיאורי	-10.7419
▁מודאג	-10.742
כמעט	-10.7425
▁בתא	-10.7428
ex	-10.7428
▁ברוך	-10.7433
▁המערכ	-10.7437
▁ממשלות	-10.744
פוט	-10.7441
▁במשפט	-10.7442
▁מגו	-10.7443
▁להתעורר	-10.7443
▁אצלי	-10.7444
העולם	-10.7445
▁מאסטר	-10.7447
▁גרמני	-10.7449
▁הדמות	-10.7449
▁לכבוד	-10.745
▁בעצמם	-10.7452
▁לעזרה	-10.7452
מתנחלים	-10.7452
▁הכדורגל	-10.7453
▁לסדר	-10.7457
▁מגלים	-10.7458
▁העתידי	-10.7459
▁רון	-10.7461
▁להפיק	-10.7462
▁בסדרה	-10.7465
▁ששת	-10.7468
▁מעת	-10.7468
▁חוף	-10.7469
▁6.	-10.7469
▁פרשת	-10.7469
▁סייע	-10.7472
▁טכניק	-10.7472
▁הוכח	-10.7473
▁גדלה	-10.7476
▁טענות	-10.7477
▁החול	-10.7479
▁אלכס	-10.748
▁האר	-10.748
▁בימינו	-10.7482
▁עיני	-10.7486
▁War	-10.7489
▁בעיית	-10.749
▁מפה	-10.7492
וקר	-10.7493
▁בשילוב	-10.7493
▁תמצא	-10.7494
נתנו	-10.7495
▁השבת	-10.7496
לידה	-10.7497
▁שוויון	-10.75
▁האמיתיים	-10.7503
▁התואר	-10.7507
▁נשארו	-10.7508
קוב	-10.7509
▁גברת	-10.7514
▁אירופאי	-10.7515
▁מתוכ	-10.7516
▁רגילה	-10.7516
▁מוזמנים	-10.7517
▁העשרים	-10.7517
סד	-10.7517
▁מבטא	-10.7517
▁יביא	-10.7518
▁הכחול	-10.752
כונן	-10.752
▁פליט	-10.7523
▁לצערי	-10.7525
פטי	-10.7525
▁כרוני	-10.7527
▁מהחיים	-10.7527
AN	-10.7528
▁נוצרים	-10.753
▁חזיר	-10.7532
▁מיידית	-10.7532
▁התודעה	-10.7533
▁תגיע	-10.7534
▁ch	-10.7536
▁נאמנות	-10.754
כנס	-10.7547
ספי	-10.7547
▁לעסק	-10.755
▁נציגי	-10.7555
▁לוגי	-10.7561
מציא	-10.7563
חמישה	-10.7563
▁דתית	-10.7565
דמה	-10.7566
▁הסיכוי	-10.7566
▁חייך	-10.7567
▁עיראק	-10.7573
▁העד	-10.7575
ינד	-10.7576
▁במוזיאון	-10.7577
▁>>	-10.7577
▁אזרחות	-10.7578
▁פלילי	-10.7578
▁האישיות	-10.7579
▁להתנהג	-10.7579
▁ניצל	-10.758
▁המועדון	-10.7581
▁לגברים	-10.7583
▁המיקום	-10.7584
▁ho	-10.7586
רצף	-10.7586
מאות	-10.7587
▁נישואים	-10.7591
הצהרה	-10.7594
▁לשתי	-10.7597
▁בזמנ	-10.7598
▁לנשיא	-10.7598
▁סטנדרטי	-10.7598
▁מחויבות	-10.7601
▁הזהיר	-10.7601
▁מלווה	-10.7602
▁כיסא	-10.7602
▁השופט	-10.7602
עריכ	-10.7603
▁1967	-10.7604
▁בעבור	-10.7604
▁et	-10.7605
▁תכניות	-10.7605
os	-10.7606
ue	-10.7606
עיירה	-10.761
▁הכתוב	-10.7613
▁התגל	-10.7614
▁המקומיים	-10.7615
▁1)	-10.7616
▁עקבו	-10.7617
▁יב	-10.7618
ורן	-10.7619
▁סיפרה	-10.7621
צטרכו	-10.7623
ריצה	-10.7624
הרשות	-10.7625
סייע	-10.7626
▁בסעי	-10.7627
▁אורחים	-10.763
תכנית	-10.7632
▁בסכנה	-10.7633
▁הסר	-10.7633
▁לקידום	-10.7634
▁ויליאם	-10.7636
▁בענ	-10.7636
▁הכנסות	-10.7637
▁פלי	-10.7638
▁שעשה	-10.7638
▁תנס	-10.7639
▁לבכות	-10.7641
דרש	-10.7642
▁בכיתה	-10.7642
▁הגופ	-10.7644
▁שעליה	-10.7645
▁הוריו	-10.7651
גרם	-10.7653
▁All	-10.7654
▁ריקוד	-10.7655
▁וחלק	-10.7658
תכונות	-10.766
הזמנה	-10.766
ies	-10.7662
▁186	-10.7666
▁היצירה	-10.7666
▁המלאה	-10.7669
▁Go	-10.7669
▁בז	-10.767
יורק	-10.7671
טוס	-10.7671
▁משלם	-10.7673
▁מונו	-10.7674
תקבלו	-10.7674
▁1997	-10.7674
▁הנכס	-10.7677
▁רגלי	-10.7678
▁שלושים	-10.7679
עיתון	-10.7686
▁בגדה	-10.7687
▁תורה	-10.7688
▁העמד	-10.7689
▁1996	-10.7692
התחלתי	-10.7692
גיל	-10.7692
▁שבית	-10.7693
משימות	-10.7693
▁כוכבי	-10.7693
▁ביי	-10.7695
▁שורש	-10.7701
▁מנח	-10.7701
▁כרגיל	-10.7704
▁נכנסת	-10.7706
▁פרנסיסקו	-10.7706
הסתיר	-10.7706
▁פוליטיקה	-10.7707
▁דוגמ	-10.7715
▁תכונ	-10.7716
▁התרחש	-10.7716
▁מארק	-10.7718
▁מתנהג	-10.7719
מאי	-10.772
▁פנימית	-10.7723
▁התקשר	-10.7726
▁חופשיים	-10.7727
אתם	-10.7731
מרוץ	-10.7735
▁אסטרטגיות	-10.7737
ערכות	-10.7741
▁השיג	-10.7741
▁שקשור	-10.7744
▁בעונה	-10.7745
▁44	-10.7746
היו	-10.7749
טבע	-10.7758
▁משמשים	-10.776
▁אליס	-10.7761
▁נפשי	-10.7763
▁האיכות	-10.7764
▁הארגונים	-10.7764
פגע	-10.7764
הרס	-10.7766
ook	-10.7768
▁לעצמה	-10.7768
▁המצלמה	-10.7768
▁ואנשי	-10.7768
▁הבינ	-10.7769
▁הקישור	-10.7769
▁ואכן	-10.777
▁ירח	-10.777
ack	-10.7772
▁הרחק	-10.7773
▁שוטרים	-10.7776
▁אימה	-10.7777
עמוד	-10.7778
תפו	-10.7778
▁דומות	-10.7781
▁גרו	-10.7782
אורח	-10.7784
▁עקבי	-10.7785
▁נז	-10.7785
▁להשיב	-10.7785
▁בְּ	-10.7787
▁'".	-10.7788
sp	-10.7788
▁הקיים	-10.7791
▁סטודנט	-10.7791
▁לכולנו	-10.7791
▁התחלה	-10.7792
רשום	-10.7794
▁דצמבר	-10.7798
▁שמטרת	-10.78
▁התפתח	-10.78
אוכלוסייה	-10.7801
▁שנעשה	-10.7804
לן	-10.7807
▁מתמודד	-10.781
▁הכותרת	-10.7811
▁העובד	-10.7813
▁להרים	-10.7817
▁וכש	-10.7819
▁בעמוד	-10.782
ודר	-10.7821
אוניברסיטאות	-10.7822
הדבר	-10.7822
▁שלישית	-10.7823
תוצאות	-10.7824
רשם	-10.7827
▁רגשית	-10.7827
▁מגיב	-10.783
▁לתא	-10.783
▁השישי	-10.7831
▁חתולים	-10.7832
מפורסמת	-10.7833
▁HIV	-10.7833
RA	-10.7834
▁רצתה	-10.7834
▁שהתרחש	-10.7835
▁בחנות	-10.7835
▁ברגל	-10.7839
▁מוק	-10.7842
▁חקר	-10.7842
יצוא	-10.7842
▁ובעיקר	-10.7843
▁כישלון	-10.7843
▁הגרמנית	-10.7843
קיימים	-10.7847
▁הלכת	-10.785
▁הקיימים	-10.785
▁השמ	-10.7852
▁גאים	-10.7854
▁הטעם	-10.7855
▁ניסיונות	-10.7857
▁מדגיש	-10.7857
▁השפיע	-10.7858
▁כהן	-10.7861
▁מסורת	-10.7865
▁מסדר	-10.7866
▁גמור	-10.7867
▁המקובל	-10.7868
ינט	-10.7868
▁הפסקה	-10.787
▁תלויה	-10.7875
▁שווים	-10.7876
יבר	-10.7877
▁הסופית	-10.7879
▁כמוך	-10.7881
▁החליטה	-10.7881
▁Ad	-10.7882
▁גורמי	-10.7885
▁פנו	-10.7887
▁גרמ	-10.7893
▁הטקסט	-10.7896
▁התמ	-10.7896
}	-10.7898
▁החקירה	-10.7898
נין	-10.7898
▁לטייל	-10.7898
▁הבכיר	-10.7898
▁מקומית	-10.7898
▁מסתורי	-10.7899
▁שנקבע	-10.7899
כוכב	-10.79
▁משלי	-10.79
▁משמר	-10.79
▁שואפ	-10.7901
▁הדר	-10.7901
▁טיימס	-10.7902
▁מסיר	-10.7903
▁אופצי	-10.7904
▁נעשו	-10.7908
▁ההודי	-10.7908
▁כחבר	-10.7913
צליח	-10.7917
▁תרומ	-10.7918
▁לאישה	-10.7918
▁איסור	-10.7918
ריון	-10.7918
▁היקף	-10.7919
▁ציר	-10.7919
▁מכובד	-10.792
▁הראשוני	-10.7924
פשר	-10.7925
▁לעסקים	-10.7931
הכרה	-10.7931
בייחוד	-10.7932
▁ביץ	-10.7934
ופר	-10.7934
▁החזון	-10.7934
▁עוזב	-10.7936
▁1998	-10.7936
▁ידיד	-10.7941
▁תורמ	-10.7941
▁מפי	-10.7942
▁וגדל	-10.7945
▁יע	-10.7947
יטה	-10.7948
▁לנוע	-10.7952
▁החלומות	-10.7956
▁וחבר	-10.7957
צוד	-10.7958
▁קיבלת	-10.7958
▁הגבולות	-10.7959
▁יציבות	-10.7962
▁[4]	-10.7963
▁התערוכה	-10.7963
▁ופיתוח	-10.7963
▁חינוכי	-10.7963
▁מקסיקו	-10.7963
▁הבקשה	-10.7963
סיפוק	-10.7964
זציה	-10.7968
▁Se	-10.7974
▁שגוי	-10.7974
▁הרבים	-10.7975
▁!)	-10.7976
▁הטכנולוגי	-10.7978
▁תשעה	-10.798
▁רוסי	-10.7982
▁רעה	-10.7986
▁אסטרטגיה	-10.7989
▁ארי	-10.7992
▁המתח	-10.7993
▁חמורה	-10.7994
▁הבהיר	-10.7994
▁קשיים	-10.7996
▁שהילד	-10.8005
▁שכחת	-10.8013
▁דעה	-10.8019
▁בכם	-10.802
רום	-10.802
▁לבנון	-10.8023
▁הגידול	-10.8024
אינפלציה	-10.8029
▁דיו	-10.8029
▁נהנית	-10.8033
and	-10.8033
▁תפילה	-10.8033
▁מוט	-10.8034
▁תעשייתי	-10.8036
הבטחה	-10.8036
תראה	-10.8037
▁אוכלוסיית	-10.804
▁העירייה	-10.804
▁קדוש	-10.8043
▁59	-10.8045
▁יריב	-10.8048
מינון	-10.8048
▁תום	-10.805
▁שעון	-10.8052
▁המושלם	-10.8056
▁סימ	-10.806
▁שעושה	-10.8061
▁אמיר	-10.8064
▁1995	-10.8068
▁סבתא	-10.8069
▁פרופיל	-10.8069
▁חוו	-10.8069
חתי	-10.8072
▁פרקים	-10.8074
▁כולן	-10.8075
▁מסעדות	-10.8076
טפס	-10.8076
▁כלכליים	-10.8078
טיבי	-10.8079
▁לחדש	-10.8079
▁מגיש	-10.8082
▁התחל	-10.8084
▁תעש	-10.8087
▁הרגש	-10.8088
▁שיח	-10.8093
▁סק	-10.8093
▁בעברית	-10.8093
▁באפריקה	-10.8095
▁לחודש	-10.8095
▁האבטחה	-10.8095
▁תמיכת	-10.8095
▁זיכרונות	-10.8095
▁באהבה	-10.8096
סמן	-10.8096
▁המוסיקה	-10.8096
▁ינואר	-10.8098
▁התערבו	-10.8099
▁סקוט	-10.8099
▁תגיות	-10.8102
עול	-10.8102
▁מידת	-10.8104
ִים	-10.8105
▁ציפורים	-10.8106
▁פריצ	-10.8107
ure	-10.811
▁ידענו	-10.811
▁יגיעו	-10.8114
▁רוע	-10.8114
▁חביל	-10.8114
▁מעשים	-10.8121
▁הנוצרי	-10.8121
▁הצהיר	-10.8121
▁אחרונה	-10.8122
▁מקו	-10.8122
▁תתחיל	-10.8124
▁נשמת	-10.8124
▁אמנים	-10.8125
וודא	-10.8125
טכניקות	-10.8129
▁בודדים	-10.8131
▁במרחב	-10.8132
▁אמין	-10.8132
▁משלהם	-10.8133
קח	-10.8134
מרכז	-10.8135
יומן	-10.8138
▁פילוסופי	-10.8138
השתתפות	-10.8139
▁מטופל	-10.814
▁מתא	-10.8141
קץ	-10.8141
▁דוגמא	-10.8142
סטיק	-10.8143
30	-10.8147
▁חשמלי	-10.815
עזוב	-10.815
יחזור	-10.8153
▁דרכי	-10.8154
▁סיכ	-10.8156
כנסיות	-10.8156
▁by	-10.8157
▁נסיעות	-10.816
▁המדעי	-10.8162
▁התשובות	-10.8162
▁הלי	-10.8162
▁החיסון	-10.8163
▁האורחים	-10.8165
▁תנועות	-10.8165
▁מפת	-10.8169
▁נשלט	-10.8169
▁ההתפתחות	-10.817
שכר	-10.8172
מונד	-10.8173
nt	-10.8175
▁חמ	-10.8178
חוויות	-10.818
▁חכמה	-10.818
▁מאגר	-10.8181
▁מרכיב	-10.8181
▁אמן	-10.8182
▁לממשלה	-10.8182
▁כריס	-10.8185
כיר	-10.8185
▁יהן	-10.8188
סביר	-10.8188
▁מוסלמי	-10.8188
▁המוסד	-10.8188
▁שראיתי	-10.8189
▁מפר	-10.8189
▁מסכ	-10.8193
▁נוסח	-10.8193
לגעת	-10.8194
▁יכם	-10.8195
▁1990	-10.8195
▁החולה	-10.8195
▁סג	-10.8196
▁חשיפ	-10.8197
ריג	-10.8199
קסון	-10.8199
קום	-10.82
▁צפי	-10.8202
ישמע	-10.8206
בון	-10.8206
▁מוד	-10.821
▁הצרפתית	-10.8214
▁ers	-10.8216
▁דפוס	-10.8216
▁ירו	-10.8216
31	-10.8219
▁הדלק	-10.8219
▁שתוכלו	-10.822
▁דוקטור	-10.8225
חמש	-10.8226
▁הפרט	-10.8227
▁לגיטימי	-10.8229
▁סיבוב	-10.8229
▁שנבנ	-10.8229
▁אפקט	-10.8229
אולי	-10.8231
▁לערב	-10.8232
▁ביצים	-10.8232
▁לואיס	-10.8234
▁טכני	-10.8236
▁בחיל	-10.8238
בוט	-10.8238
▁המורים	-10.8239
סרב	-10.8241
▁בחורף	-10.8244
▁במלוא	-10.8244
סח	-10.8244
ונית	-10.8249
▁יצירה	-10.825
▁האמינו	-10.8251
▁לאשר	-10.8251
מדינה	-10.8252
▁שבט	-10.8255
▁נשמר	-10.8256
▁שהכי	-10.8256
ron	-10.8256
▁דרוש	-10.826
גינה	-10.826
▁שוקל	-10.8262
ang	-10.8265
יתן	-10.8273
טף	-10.8274
▁כביש	-10.8274
ts	-10.8278
▁יחדיו	-10.8279
▁עדכון	-10.8285
▁הנח	-10.8286
הוראות	-10.8293
קאי	-10.8293
▁צהריים	-10.8296
▁העליונה	-10.8297
▁הפשע	-10.8297
▁מחולק	-10.8297
▁הכבד	-10.8297
▁הוראה	-10.8297
▁נוש	-10.8297
▁השמיים	-10.8297
▁בכבוד	-10.8299
▁שהוביל	-10.83
▁נעדר	-10.8301
קונגרס	-10.8303
port	-10.8303
דומה	-10.8305
▁בסמים	-10.8306
▁מעניינת	-10.8306
▁מאיר	-10.8307
▁נחל	-10.8307
▁מטיל	-10.831
▁ההבדלים	-10.8312
ציר	-10.8316
מדריך	-10.8317
▁עמוס	-10.832
שמונה	-10.8321
▁במסע	-10.8326
▁מתמודדים	-10.8327
▁הפגישה	-10.833
▁התיאורי	-10.8331
בריח	-10.8337
ביעות	-10.8337
▁ננס	-10.8339
▁ידידי	-10.8339
▁1994	-10.8339
רווח	-10.8343
▁המקצוע	-10.8345
▁ובו	-10.8348
▁בארבע	-10.835
▁הירי	-10.8352
▁מגנ	-10.8353
▁מטבעות	-10.8354
▁מחכים	-10.8359
▁ly	-10.8361
▁שטר	-10.8362
▁(1)	-10.8365
▁הבולט	-10.8365
▁טכנולוגי	-10.8365
▁תביא	-10.8366
▁לתקוף	-10.8366
▁מוקדמת	-10.8366
עיד	-10.8367
▁הרוגים	-10.8368
▁אֲ	-10.8369
▁מיקרו	-10.8372
▁לעת	-10.8372
▁מכונה	-10.8372
▁הבינו	-10.8374
▁הפסיק	-10.8375
הרכב	-10.8378
החיים	-10.8378
0,000	-10.8378
שש	-10.8379
▁השניה	-10.8379
▁אחרון	-10.8381
הסתדר	-10.8382
▁הגיבור	-10.8384
▁סוסים	-10.8386
▁כשיש	-10.8389
שניהם	-10.839
▁הקרח	-10.8391
ביס	-10.8391
לוק	-10.8394
ian	-10.8396
▁נחש	-10.8399
▁שלילי	-10.8404
▁למערכ	-10.8409
▁טוני	-10.841
▁הכתיבה	-10.8413
וויל	-10.8415
▁נגע	-10.8415
שחזר	-10.8415
מגן	-10.8416
רושם	-10.8417
▁בערים	-10.8423
נאות	-10.8423
חכה	-10.8423
▁הסיוע	-10.8426
▁עוזרים	-10.8428
▁שביצע	-10.8433
חלף	-10.8433
▁בניהול	-10.8433
▁אלמנט	-10.8434
▁לארצות	-10.8437
▁וילדים	-10.8437
▁קיי	-10.8437
▁לעובד	-10.844
היסטוריה	-10.8441
▁אחראים	-10.8441
▁בעמד	-10.8444
▁עצה	-10.8446
▁תוצא	-10.8446
▁שמשהו	-10.8446
חלון	-10.8447
▁איתן	-10.8447
בחון	-10.8448
▁מלח	-10.845
▁קבצים	-10.8451
▁נשמה	-10.8457
▁מושכ	-10.8457
▁המהיר	-10.8458
דרדר	-10.8458
▁הדק	-10.8459
▁בצע	-10.8459
סף	-10.8461
משנה	-10.8462
▁התמקד	-10.8464
קבע	-10.8469
הפצה	-10.8469
▁אבר	-10.847
▁שאיש	-10.8472
▁1993	-10.8472
▁מאכל	-10.8476
▁חלקיק	-10.8479
▁לתוצאות	-10.848
▁מחפשת	-10.8483
▁שנשאר	-10.8486
חנך	-10.8487
▁למדע	-10.8489
תודה	-10.8491
po	-10.8492
▁הלווא	-10.8493
פנסיה	-10.8502
▁לאינטרנט	-10.8502
▁העוסק	-10.8502
▁לכבד	-10.8503
▁תכלית	-10.8508
▁נעש	-10.8509
▁דרכ	-10.8511
▁עמדות	-10.8514
תשע	-10.8516
דע	-10.8517
▁אבות	-10.852
▁עמנו	-10.8527
▁כיבוש	-10.853
▁Ca	-10.853
▁המק	-10.853
▁הורד	-10.8532
ear	-10.8532
▁250	-10.8533
▁מוכרח	-10.8534
▁אפריל	-10.8534
ov	-10.8535
▁חומצ	-10.8535
▁הסקר	-10.8538
סך	-10.8541
▁פלסטינית	-10.8542
קוף	-10.8542
▁סלע	-10.8543
▁הפנימית	-10.8544
▁עבורם	-10.8546
▁מפסיק	-10.8546
▁נערה	-10.8547
▁הסוד	-10.8547
קיבלתי	-10.855
▁Li	-10.8551
▁בדי	-10.8559
▁אדי	-10.8566
חזיר	-10.8567
▁מתנהל	-10.8569
▁1992	-10.8571
▁נמוכים	-10.8571
▁הניהול	-10.8571
▁Car	-10.8572
▁מחזיר	-10.8573
▁המטבח	-10.8576
▁מטריד	-10.8577
לראות	-10.8579
▁המידה	-10.8579
▁טום	-10.858
▁למנהל	-10.8581
שילוב	-10.8581
▁פעילה	-10.8582
בדוק	-10.8583
▁67	-10.8583
פיקוח	-10.8583
ליל	-10.8584
▁בושה	-10.8586
▁התוכניות	-10.8587
▁חיילי	-10.859
▁ציוני	-10.8591
▁נוצרי	-10.8592
▁לארגון	-10.8592
▁הרצח	-10.8596
מלך	-10.8597
▁אשמה	-10.8599
▁זכאי	-10.8601
▁לחל	-10.8602
▁רגש	-10.861
לון	-10.8615
▁דעתו	-10.8617
פשט	-10.8619
▁המרחב	-10.8621
שותף	-10.8622
▁3,	-10.8622
▁המסורת	-10.8624
▁הספיק	-10.8625
▁ברוח	-10.8625
▁ואינ	-10.8625
תאפשר	-10.8626
▁אלן	-10.8626
▁האגד	-10.8629
▁דיגיטלי	-10.863
▁תרומת	-10.8633
▁מורשת	-10.8634
▁מוקד	-10.8636
▁הסע	-10.8639
▁לאזרח	-10.8641
כיום	-10.8641
▁קלינטון	-10.8641
▁התיישב	-10.8642
▁לעשן	-10.8642
▁לקהל	-10.8642
▁המשפחתי	-10.8643
▁משפר	-10.8644
▁מביאים	-10.8646
▁לציד	-10.8651
▁ברח	-10.8653
▁צבעוני	-10.8654
▁2)	-10.8661
▁פער	-10.8662
▁ההוצאות	-10.8663
▁היסטורית	-10.8665
מוצרים	-10.8666
▁כמוני	-10.8673
▁הרים	-10.8674
▁בדרכ	-10.8674
▁חמים	-10.8679
▁היפני	-10.8681
▁1991	-10.8681
▁התיק	-10.8682
▁הסוכר	-10.8683
▁למדינות	-10.8685
מנת	-10.8685
▁ארבעים	-10.8686
כבוש	-10.8687
▁אופטימי	-10.8687
▁לעוד	-10.8688
▁הנמוכ	-10.869
▁עיבוד	-10.8693
▁ענקית	-10.8693
▁מצלמות	-10.8693
▁רבע	-10.8694
▁נדבר	-10.8696
ָר	-10.8697
net	-10.8703
שווה	-10.8704
▁כנ	-10.8704
▁לפרק	-10.8704
10	-10.8707
▁לאחת	-10.8707
לגייס	-10.8707
si	-10.8708
▁המזרחי	-10.8709
ai	-10.8709
ערער	-10.871
▁Love	-10.8711
▁מכס	-10.8711
▁איכשהו	-10.8712
▁לעזאזל	-10.8712
▁להורים	-10.8712
▁בפארק	-10.8712
▁האוטובוס	-10.8712
▁טועה	-10.8712
▁אֶת	-10.8712
▁Star	-10.8715
▁זקן	-10.8715
▁למחוק	-10.8715
▁ברלין	-10.8715
▁הפחת	-10.8715
▁רצינית	-10.8715
זכר	-10.8718
▁שקלים	-10.872
רצי	-10.8722
▁II	-10.8722
הדרך	-10.8724
▁זרה	-10.8724
▁לובש	-10.8724
▁יק	-10.8726
קיום	-10.8729
▁בידיים	-10.8729
▁הלוואה	-10.873
▁כתיבת	-10.8731
▁נטיי	-10.8734
ical	-10.8734
▁המודע	-10.8737
▁בפגיש	-10.8738
עט	-10.8739
▁הפתיחה	-10.8739
▁המנהלים	-10.8742
▁ריב	-10.8743
▁האגודה	-10.8749
▁נרצח	-10.875
▁נדל	-10.8751
▁מרכיבים	-10.8753
רוב	-10.8756
▁נכס	-10.8756
▁הכיר	-10.8759
▁הדרום	-10.8762
▁נכנסו	-10.8765
▁הנפוצ	-10.8766
▁מספרת	-10.8767
דאגה	-10.8768
▁שיני	-10.8771
שמאל	-10.8773
▁העתק	-10.8773
▁הוג	-10.8775
▁המובילים	-10.8775
▁הסיפורים	-10.8777
▁מחברי	-10.8778
▁הוכרז	-10.8779
vi	-10.878
▁במשהו	-10.878
▁International	-10.8783
▁מיקרוסופט	-10.8783
▁נפוצה	-10.8783
▁1948	-10.8783
▁זילנד	-10.8783
▁פושע	-10.8785
▁לטעון	-10.8785
▁כשמדובר	-10.8785
▁ומתי	-10.8787
▁ארוחות	-10.8788
ww	-10.8789
הרמוניה	-10.8789
▁הקבלה	-10.8789
▁במהרה	-10.879
▁10%	-10.8791
▁קצין	-10.8791
▁חרב	-10.8797
ite	-10.8797
CC	-10.8798
▁להפר	-10.8798
לית	-10.8801
▁חפש	-10.8802
▁כתבו	-10.8803
▁המשפחות	-10.8803
▁הנורא	-10.8804
▁אגר	-10.8805
ty	-10.8808
▁עשירים	-10.8808
▁כף	-10.8809
▁נעלמו	-10.8814
▁בדו	-10.8815
דין	-10.8816
שליש	-10.8818
▁העביר	-10.8818
אוניברסיטה	-10.8819
▁הערכת	-10.8819
▁משלה	-10.882
▁ממקור	-10.8821
סור	-10.8823
ברית	-10.8827
עדיף	-10.8831
▁נתיב	-10.8837
▁עוקב	-10.8839
▁הפוך	-10.884
▁התלמיד	-10.884
▁יראה	-10.8841
הנהגה	-10.8842
▁ומדוע	-10.8851
▁הטבעית	-10.8852
IT	-10.8852
▁Human	-10.8854
▁לביטחון	-10.8854
▁אדוארד	-10.8854
▁אוקראינה	-10.8854
▁הציל	-10.8855
▁בשבת	-10.8855
▁נכונים	-10.8856
סיכונים	-10.8857
פתרונות	-10.8858
▁להקמת	-10.8862
▁הפרעות	-10.8864
▁שווי	-10.8864
▁משנ	-10.8867
▁הרגשה	-10.887
ריץ	-10.8873
▁דמוקרטית	-10.8875
▁חסד	-10.8875
▁אופנה	-10.8875
▁הרביעית	-10.8876
▁לחי	-10.8877
ליט	-10.888
▁בצל	-10.8881
▁עדות	-10.8881
▁דורות	-10.8883
▁כותבים	-10.8883
▁המתים	-10.8885
אינן	-10.8885
▁החשיבה	-10.8886
▁פולי	-10.8889
▁לבדו	-10.889
בקר	-10.8893
הסכם	-10.8894
▁ועיד	-10.8898
▁מכניס	-10.8899
▁תחנות	-10.8906
▁גלגל	-10.8908
▁רג	-10.8913
▁שדות	-10.8913
▁תושב	-10.8919
סקו	-10.892
▁עשורים	-10.8923
הגביל	-10.8924
▁אקס	-10.8925
▁הגרעיני	-10.8926
▁הרכישה	-10.8926
▁לחינוך	-10.8926
▁המדויק	-10.8926
מפלגה	-10.8926
▁בעשור	-10.8927
ופק	-10.8927
▁מקביל	-10.8927
▁כור	-10.8927
▁לחסל	-10.8928
▁בבת	-10.8929
דמי	-10.8929
▁המשפיע	-10.8929
▁האמור	-10.893
▁ההבנה	-10.893
▁כאבי	-10.893
▁כלכלה	-10.8931
אובדן	-10.8931
▁אמריקאית	-10.8932
▁חיוך	-10.8938
▁באיראן	-10.8941
▁מפותח	-10.8941
▁דווח	-10.8943
▁אנד	-10.8945
▁800	-10.8945
▁המרחק	-10.8946
▁קלאסי	-10.8948
▁יורו	-10.8949
▁מוטל	-10.895
כלול	-10.8955
ach	-10.8956
▁רגליים	-10.8957
▁יוח	-10.8959
יציבות	-10.896
▁עושר	-10.896
▁עק	-10.8961
▁מיעוט	-10.8963
▁למדיניות	-10.8963
▁טיס	-10.8964
▁אדמת	-10.8966
▁מונט	-10.8969
פקד	-10.8971
▁פוליטיקאים	-10.8973
▁שהיית	-10.8975
▁מאזן	-10.8982
▁נעשית	-10.8983
▁קאר	-10.8985
▁פנה	-10.8991
▁אכל	-10.8992
▁הגשר	-10.8994
▁ro	-10.8994
הבנת	-10.8995
▁העיקר	-10.8996
▁אנונימי	-10.8998
▁הצפון	-10.8999
▁1944	-10.8999
▁Watch	-10.8999
▁נשאל	-10.8999
▁עצות	-10.8999
▁מסגרת	-10.8999
כט	-10.9
MS	-10.9002
▁סודי	-10.9002
הזדמנויות	-10.9004
ey	-10.9005
▁חשוד	-10.9006
▁מופתע	-10.9007
לוס	-10.9008
▁מביט	-10.9009
▁ציפור	-10.9009
פקח	-10.901
▁לנוח	-10.9011
▁תרגול	-10.9011
▁סגר	-10.9014
תוכן	-10.9018
ru	-10.9022
▁עיניו	-10.9024
▁מופעל	-10.9024
▁הבריטים	-10.9029
▁לרפואה	-10.9031
▁כותר	-10.9033
▁יחידה	-10.9033
▁הסיכויים	-10.9035
▁ערבית	-10.9036
▁דיווחו	-10.9038
▁you	-10.9039
ha	-10.904
▁בשעת	-10.904
▁מלכות	-10.9043
▁נים	-10.9046
▁העלא	-10.9046
שלמות	-10.9046
▁פיר	-10.9052
ka	-10.9053
▁שוחח	-10.9056
▁התפשט	-10.9057
תיבת	-10.9065
▁חשד	-10.9066
▁se	-10.9068
▁מעבד	-10.9069
▁הרלוונטי	-10.9071
▁באוסטרליה	-10.9071
▁לקהילה	-10.9071
▁מנוחה	-10.9071
תפעול	-10.9072
▁בשאלה	-10.9073
▁חודשי	-10.9074
ובס	-10.9075
Q	-10.9075
▁בזהירות	-10.9076
▁עתידי	-10.9076
תכנן	-10.9077
▁ביקורות	-10.908
▁נקראת	-10.908
▁דמוקרטי	-10.9081
ודאי	-10.9081
מכון	-10.9082
▁ne	-10.9085
▁הדיבור	-10.9086
מדענים	-10.9088
▁שביל	-10.9091
▁שבוצע	-10.9091
▁מתכוונת	-10.9094
▁ברכה	-10.9094
ציא	-10.9095
▁סדיר	-10.9098
▁הצג	-10.91
▁להשוו	-10.9102
צריכה	-10.9103
▁פרא	-10.9104
▁הפרה	-10.9107
▁לרעה	-10.9111
▁מפיק	-10.9114
▁אגוד	-10.9115
▁בוכה	-10.9119
סמך	-10.9127
▁ראת	-10.913
▁50%	-10.9131
▁ספינ	-10.9132
▁דגש	-10.9133
נף	-10.9135
fi	-10.9136
▁הקמפיין	-10.9138
▁מִ	-10.9138
▁התייחסו	-10.9139
מתח	-10.914
▁ביטחוני	-10.9143
צפייה	-10.9144
▁בקשות	-10.9144
▁מאוחד	-10.9145
▁האירופאי	-10.9145
▁החיובי	-10.9146
▁בשמחה	-10.9148
▁שנכתב	-10.9148
▁התקווה	-10.9148
▁נעל	-10.9149
▁פלסטיק	-10.9149
▁חזקות	-10.9153
▁המטפל	-10.9154
▁התפילה	-10.9155
▁עוצמת	-10.916
▁פח	-10.9164
▁66	-10.9165
אמונה	-10.9166
מעלה	-10.9168
▁החיבור	-10.917
▁ההזמנה	-10.9171
▁גמר	-10.9175
שמן	-10.9175
▁מתמשך	-10.9175
▁חופשה	-10.9176
▁שגר	-10.9178
▁ציד	-10.9178
▁הכספים	-10.9178
▁5%	-10.918
▁שבכל	-10.9183
▁הביולוגי	-10.9183
▁החשש	-10.9183
▁השרירים	-10.9184
▁תבוא	-10.9184
▁כתיבה	-10.9189
op	-10.9191
▁כפ	-10.9205
▁מחזק	-10.9205
▁בצעד	-10.9206
▁ספציפיים	-10.9207
עניין	-10.9212
▁נסיבות	-10.9213
▁לצחוק	-10.9215
▁מבחינתי	-10.9218
é	-10.9219
▁האפיפיור	-10.9219
▁טמפרטור	-10.9219
▁מבולבל	-10.9219
▁דבש	-10.9219
טק	-10.9219
▁(2)	-10.9219
▁השביעי	-10.922
▁המנוע	-10.922
▁שנבחר	-10.922
▁בחודשים	-10.922
▁לעובדים	-10.9221
▁קירות	-10.9224
▁בדירה	-10.9225
▁???	-10.9225
כדאי	-10.9228
▁מסור	-10.9229
▁יישומ	-10.9229
▁ההכרה	-10.923
▁185	-10.9232
▁באג	-10.9233
▁תסתכל	-10.9233
lu	-10.9233
הפעלה	-10.9234
▁מיומנ	-10.9235
ילות	-10.9241
▁במס	-10.9242
▁למוצר	-10.9243
▁האחראי	-10.9246
▁משרדי	-10.9247
▁השגת	-10.9249
אסף	-10.9249
▁המסחרי	-10.925
▁פנוי	-10.9252
טס	-10.9254
צמח	-10.9255
▁שוטר	-10.9255
▁סומ	-10.9256
▁המועמד	-10.9256
טיקה	-10.9256
▁לז	-10.9263
▁ירדן	-10.9264
▁חלון	-10.9265
▁קרל	-10.9266
▁47	-10.9268
ix	-10.9268
קמה	-10.9273
▁להתקי	-10.9275
▁ואח	-10.9276
▁מכירת	-10.9278
▁ביצועים	-10.928
▁וזהו	-10.9282
▁הסובייטי	-10.9283
▁קמפיין	-10.9287
low	-10.929
▁הכירו	-10.929
▁64	-10.9293
קדמו	-10.9294
▁המשותפת	-10.9294
▁יסודות	-10.9294
▁מוטיבציה	-10.9294
▁הקימ	-10.9294
▁מועבר	-10.9294
▁לפלסטינים	-10.9294
▁הוותיק	-10.9294
▁משפיעה	-10.9294
▁האיזון	-10.9294
▁המכירה	-10.9295
תקנות	-10.9295
▁במכשיר	-10.9296
▁ולבסוף	-10.9296
▁חמוד	-10.9296
▁בתוכו	-10.9297
ga	-10.9299
▁מסמל	-10.93
AC	-10.93
▁אשתי	-10.9303
▁טבעת	-10.9304
תקיים	-10.9304
▁85	-10.9305
▁התכנון	-10.9306
▁יצאה	-10.9308
עברו	-10.931
▁להכיל	-10.931
▁מכסה	-10.9314
▁עמ	-10.9317
▁רגשי	-10.9318
▁רפורמ	-10.9318
▁האזרח	-10.9324
אותה	-10.9325
▁מורכבות	-10.9328
▁שממנ	-10.933
▁הדף	-10.9337
▁עמדו	-10.934
▁הגזע	-10.9342
ff	-10.9342
פיק	-10.9344
▁מאנשים	-10.9347
▁צרפתית	-10.9348
כפי	-10.9349
▁המצוי	-10.935
▁קלות	-10.9352
▁פורד	-10.9355
▁ריקה	-10.9356
נייה	-10.936
דחה	-10.9361
▁ראויים	-10.9362
▁להו	-10.9364
▁מועמדים	-10.9369
▁הגרעין	-10.9369
▁הטמפרטור	-10.9369
▁[5]	-10.9369
▁לפחד	-10.9369
▁מותאמ	-10.9369
▁פיקוח	-10.937
▁הרצוי	-10.937
▁שהביא	-10.937
▁נשוי	-10.937
▁נעימה	-10.937
▁להירגע	-10.9371
▁אכיל	-10.9371
מעל	-10.9372
▁בחייהם	-10.9373
▁המעמד	-10.9375
▁השוטרים	-10.9377
▁בעייתי	-10.9378
▁להפסיד	-10.9378
רזי	-10.938
▁לכוח	-10.9382
▁החלט	-10.9382
▁השג	-10.9388
▁העונש	-10.9388
▁600	-10.9389
▁לאותו	-10.9391
▁משקר	-10.9393
▁עישון	-10.9394
▁המד	-10.9397
▁שותפות	-10.9397
מסר	-10.9406
▁תוכנות	-10.9407
▁לאמנות	-10.9408
חולים	-10.9409
▁ההסבר	-10.941
▁גאו	-10.9412
▁פג	-10.9416
ידוד	-10.9419
▁המאמן	-10.942
חליפו	-10.9425
▁רוג	-10.9425
▁התחלנו	-10.9426
▁כוחו	-10.9426
▁עוברת	-10.9426
▁מפחדים	-10.9427
ation	-10.9428
▁יורש	-10.9432
▁בוחנ	-10.9434
מרבית	-10.9436
▁מהעולם	-10.9437
▁דון	-10.9439
▁יוזמ	-10.9441
▁אסיר	-10.9442
▁זכוכית	-10.9445
▁תמונת	-10.9445
▁העשור	-10.9445
▁הסכנה	-10.9447
▁תבני	-10.9447
מעמד	-10.9452
הרוג	-10.9452
▁התחבורה	-10.9453
▁זהירות	-10.9455
▁En	-10.9456
▁לסוג	-10.9457
▁מבוצע	-10.9458
▁הדגל	-10.9458
▁דלתות	-10.9459
▁לנגן	-10.9463
▁קצ	-10.9464
גידול	-10.9464
▁האס	-10.9466
▁כמי	-10.9466
▁בחצי	-10.9469
tic	-10.9473
AL	-10.9473
▁ואי	-10.9474
▁האסטרטגיה	-10.9477
▁קוראת	-10.9477
▁הכללים	-10.9478
▁הגיב	-10.948
▁אנדר	-10.9482
▁הטבעת	-10.9486
▁תנ	-10.9486
▁שיל	-10.9487
▁no	-10.9489
day	-10.949
▁בוטל	-10.9494
▁ויתר	-10.9495
▁ענן	-10.9497
▁השכלה	-10.9497
▁משרות	-10.9497
▁בורח	-10.9499
▁התברר	-10.95
▁חיוביות	-10.9502
▁בתעשייה	-10.9502
▁בסוגי	-10.9504
▁מינים	-10.9507
אלימות	-10.9507
טעות	-10.9508
▁בתל	-10.9508
▁למח	-10.9513
▁תואמ	-10.9515
▁נוצרו	-10.9516
▁מנות	-10.9516
▁לאירוע	-10.9517
▁המפקד	-10.9517
▁חודשיים	-10.952
ענין	-10.9521
▁בוושינגטון	-10.9521
▁מבפנים	-10.9521
▁Life	-10.9521
▁בתחרות	-10.9521
▁ההולנדי	-10.9521
▁הספציפי	-10.9521
▁לעבד	-10.9522
▁רוכש	-10.9522
▁בגבול	-10.9524
▁מרחוק	-10.9524
▁אקטיבי	-10.9527
▁מניע	-10.9528
▁On	-10.9528
▁Br	-10.9529
▁95	-10.953
▁מוסרית	-10.953
▁Is	-10.953
=	-10.9534
▁שלילית	-10.9535
▁אוטומטית	-10.9536
נציג	-10.9539
▁הרשע	-10.9542
▁משוב	-10.9543
▁1945	-10.9543
▁טופס	-10.9545
▁אודי	-10.9547
נוכחות	-10.9548
▁נוף	-10.955
נברג	-10.955
▁פאלון	-10.9551
▁למשתמשים	-10.9552
▁בונה	-10.9554
ראיין	-10.9555
▁השופטים	-10.9559
▁הטענה	-10.9562
▁טענו	-10.9565
▁מהדור	-10.9566
▁43	-10.9567
אחיו	-10.9569
כבות	-10.9569
▁מער	-10.957
ארבעה	-10.9573
de	-10.9573
▁שעשיתי	-10.9573
▁מודרנית	-10.9574
▁!”	-10.9577
▁ללב	-10.9577
▁קלים	-10.9581
▁בנקודה	-10.9581
ence	-10.9583
▁כותרת	-10.9585
▁vi	-10.9586
▁ציפ	-10.9586
▁di	-10.9588
אמצעי	-10.9589
▁שורה	-10.959
טבח	-10.9598
▁האולימפי	-10.9598
▁אטרקצי	-10.9598
▁לשכור	-10.9598
▁בכוונה	-10.9598
▁לזרוק	-10.9598
▁לבעיה	-10.9598
▁מתנדבים	-10.9598
▁מיוצר	-10.9598
▁ביניהן	-10.96
▁הצפוי	-10.9601
▁שופטים	-10.9603
▁הבטן	-10.9607
▁9.	-10.9611
▁בספרד	-10.9612
זיהום	-10.9613
▁ימינו	-10.9613
▁Pre	-10.9614
▁תישאר	-10.9615
▁הסובל	-10.962
מבי	-10.9622
שנתיים	-10.9623
▁סינ	-10.9624
▁הכנס	-10.9625
ליג	-10.9625
▁מהפכה	-10.9627
▁בכנס	-10.9627
8%	-10.9629
▁בטעות	-10.9629
▁מכני	-10.963
▁לטיול	-10.9631
▁3:	-10.9632
מעקב	-10.9634
▁הבדלים	-10.9635
חליף	-10.9635
▁מתקדמת	-10.9636
▁עמל	-10.9637
▁אירופי	-10.9637
▁קוס	-10.9637
▁אכיפ	-10.9638
▁מיוחדות	-10.9638
▁ואלה	-10.9645
▁האפל	-10.9646
▁הצגת	-10.9647
מילוי	-10.9649
סלון	-10.965
צמצום	-10.9652
▁באתי	-10.9653
▁הכרת	-10.9654
▁תערוכ	-10.9658
▁המלכותי	-10.966
▁הגדרת	-10.9661
▁שילמ	-10.9663
▁שעבד	-10.9667
▁מקרוב	-10.9668
▁דייוויד	-10.9675
▁מסובך	-10.9675
▁צנוע	-10.9676
▁גג	-10.9676
▁שכיח	-10.9677
▁רוכב	-10.9677
▁מוצדק	-10.9677
▁לטענת	-10.9677
▁ביסוד	-10.9678
▁זהיר	-10.9679
▁000	-10.9679
▁בילדים	-10.9683
▁קבור	-10.9683
▁IT	-10.9684
▁נאמן	-10.9684
▁וירוס	-10.9684
▁דיסק	-10.9687
▁הממלכה	-10.9687
▁המסמכים	-10.9687
▁רצוע	-10.9687
▁שידור	-10.9687
אתגרים	-10.9687
הפריד	-10.9691
▁שמעו	-10.9691
נמוך	-10.9692
▁עיתון	-10.9692
▁וחי	-10.9694
הולך	-10.9695
▁השמות	-10.9696
▁עבדו	-10.9697
טפח	-10.9698
התפלל	-10.9699
▁גופים	-10.9701
▁חידוש	-10.9703
▁הסתיים	-10.9705
▁הכנ	-10.9706
▁נתת	-10.9709
▁פרוייקט	-10.9712
▁שליח	-10.9713
▁אייר	-10.9716
▁It	-10.9717
לחוץ	-10.9718
▁בעיניים	-10.9719
▁נראו	-10.972
▁הצר	-10.9721
▁אנושיים	-10.9722
▁עיכוב	-10.9724
▁מגביר	-10.9725
דמות	-10.9727
▁תחומים	-10.9728
▁סרטי	-10.9733
▁מקס	-10.9734
תוכנת	-10.9734
▁So	-10.9735
▁משטרה	-10.9735
מנ	-10.9736
▁רץ	-10.9737
פילוסופיה	-10.9737
▁מציא	-10.9743
▁המהירות	-10.9746
▁בריאותי	-10.9746
▁ציבוריים	-10.9749
▁חדרי	-10.9752
ity	-10.9752
▁בעצמכם	-10.9753
▁מלכתחילה	-10.9753
▁זמינות	-10.9753
▁בפולין	-10.9754
▁השלילי	-10.9754
▁סביבתי	-10.9754
▁השליח	-10.9754
▁ילמד	-10.9756
▁בעבודת	-10.9756
▁Po	-10.9757
▁אספ	-10.9758
tal	-10.9758
▁להקדיש	-10.9759
שדה	-10.9759
▁להסכים	-10.9761
▁המוחלט	-10.9763
▁נכלל	-10.9768
▁כשר	-10.9768
▁סוני	-10.9769
▁משותפים	-10.9771
▁1000	-10.9771
▁לוואי	-10.9773
▁CO	-10.9778
▁דמעות	-10.9779
▁דעתך	-10.978
IS	-10.9786
▁פברואר	-10.9788
ֹת	-10.9791
▁com	-10.9791
▁התאבדות	-10.9791
▁המוסלמי	-10.9792
▁מאפיינ	-10.9792
שלושה	-10.9793
▁המאמץ	-10.9796
טיעון	-10.9797
▁תשוקה	-10.9798
פירוש	-10.98
▁הטיול	-10.9801
iv	-10.9802
▁הנאה	-10.9804
▁ter	-10.9805
▁השתלט	-10.9806
▁הגנת	-10.9807
דונלד	-10.9808
▁Can	-10.9809
▁איומים	-10.981
אמנויות	-10.981
▁זאב	-10.9811
▁רוט	-10.9816
▁ליב	-10.9816
▁Mi	-10.982
וטו	-10.9823
▁חופ	-10.9825
▁קלט	-10.9828
▁הפרעה	-10.9828
▁53	-10.983
דפדפן	-10.9832
▁Day	-10.9832
▁לרקוד	-10.9833
-24	-10.9833
▁מאובטח	-10.9833
▁מתגעגע	-10.9833
▁מוזיקלי	-10.9835
אירוח	-10.9835
▁הנמל	-10.9836
▁הלוח	-10.9836
▁אחסון	-10.9837
▁תהליכי	-10.9838
▁נמצאות	-10.9839
▁יוגה	-10.9841
דפס	-10.9843
▁20%	-10.9848
▁מיל	-10.9851
התקרב	-10.9851
▁מוז	-10.9852
▁שנערכ	-10.9853
▁הסוס	-10.9853
▁צייר	-10.9853
הודיע	-10.9866
▁מצוות	-10.9876
▁פונה	-10.9877
▁כוונות	-10.9879
▁ודא	-10.9881
▁תצפי	-10.9885
▁בחול	-10.9885
▁פנ	-10.9886
▁לדבריה	-10.9887
▁ייצוג	-10.9888
תיאטרון	-10.9893
▁עסוק	-10.9894
▁Cha	-10.9895
▁לכלא	-10.99
רצון	-10.9901
▁הנבחר	-10.9904
שינה	-10.9904
▁מקוון	-10.9904
▁הסינים	-10.9906
בהם	-10.9907
▁בברכה	-10.9908
▁ישוב	-10.9908
▁זרוע	-10.9911
▁מטבח	-10.9911
▁סוכנו	-10.9911
▁להבהיר	-10.9912
▁צועק	-10.9912
▁לצייר	-10.9912
▁שמתרחש	-10.9912
▁אוספים	-10.9912
▁מסוכנת	-10.9913
ויס	-10.9913
▁אוטובוס	-10.9913
▁להתכונן	-10.9913
▁שנכנס	-10.9914
▁הקבוע	-10.9914
▁הקוד	-10.9915
▁שלג	-10.992
▁המרכיבים	-10.9921
gen	-10.9923
▁ראויה	-10.9923
▁קניי	-10.9925
▁בכמו	-10.9925
▁מקיפ	-10.9925
▁התרבותי	-10.9926
▁תצליח	-10.9931
▁IN	-10.9931
▁כאבים	-10.9933
נמוכות	-10.9936
▁קבועה	-10.994
▁דיברת	-10.9942
פצצות	-10.9943
אלבום	-10.9943
▁שנולד	-10.9944
▁שליליות	-10.9946
▁כותבת	-10.9947
▁התביעה	-10.9948
▁נוסדה	-10.9948
מלוא	-10.9949
▁sh	-10.9949
ארג	-10.995
▁לסביבה	-10.9952
▁ההשלכות	-10.9954
שוחח	-10.9956
▁במחוז	-10.9956
▁46	-10.9957
▁ha	-10.9957
המציא	-10.9961
▁ברכות	-10.9962
סופר	-10.9963
▁השק	-10.9963
▁לדין	-10.9965
▁בירת	-10.9967
▁שהיינו	-10.9969
▁מצפון	-10.9972
▁בדרכו	-10.9974
▁Na	-10.9977
חץ	-10.9979
▁''.	-10.998
▁למים	-10.9982
▁מנהלת	-10.9984
▁סיגריות	-10.9986
▁גייס	-10.9988
▁מרשים	-10.9989
▁בלוג	-10.9991
▁זמר	-10.9991
▁180	-10.9991
אינסולין	-10.9992
▁with	-10.9992
▁החקלאות	-10.9992
▁המאמצ	-10.9992
▁חתונה	-10.9992
▁לקשר	-10.9992
▁במלון	-10.9994
▁פטנט	-10.9994
▁פרח	-10.9994
▁מיתוס	-10.9994
▁מצליחה	-10.9995
▁לכסות	-10.9995
▁מצווה	-10.9995
▁מובטח	-10.9995
▁היער	-10.9996
▁הריבית	-10.9999
▁לשאלות	-11
שיחות	-11
מועצה	-11.0005
60	-11.0006
▁אבטח	-11.0013
▁בחומר	-11.002
▁בשבילכם	-11.0022
▁מנגנוני	-11.0026
▁אוסטריה	-11.0027
rom	-11.003
▁ותיק	-11.0031
▁לנוכח	-11.0032
▁MBA	-11.0033
▁האסלאם	-11.0034
ולוג	-11.0035
▁המנהיגים	-11.0037
▁המסורתי	-11.0038
▁מפסיד	-11.004
▁Ch	-11.004
שכב	-11.0042
▁1,000	-11.0042
▁לרב	-11.0042
▁Te	-11.0042
▁תורת	-11.0045
▁היצור	-11.0047
▁להיש	-11.0056
▁בעיראק	-11.0057
▁ia	-11.0057
▁חמצן	-11.0061
▁עשור	-11.0064
גיה	-11.007
▁התמודד	-11.0071
▁נערכ	-11.0071
_	-11.0072
▁וניהול	-11.0072
NBA	-11.0072
▁הנפלא	-11.0072
▁הרדיו	-11.0073
▁חילופי	-11.0073
▁רצינו	-11.0073
▁צרו	-11.0074
▁מחנה	-11.0074
▁בלימוד	-11.0074
נתק	-11.0075
▁אמזון	-11.0075
▁לקצ	-11.0076
▁בהקדם	-11.0076
▁72	-11.0077
▁בעשר	-11.0078
▁מטפל	-11.0082
▁תרגיש	-11.0083
▁ירגיש	-11.0083
יבוש	-11.0083
▁69	-11.0086
▁האזרחי	-11.0091
▁מציינ	-11.0091
▁האירופית	-11.0091
▁מחלוקת	-11.0093
▁אקו	-11.0093
הודעות	-11.0094
רמי	-11.0096
▁לסיום	-11.0096
▁תאמינו	-11.0096
עיבוד	-11.0096
סנאט	-11.0097
ive	-11.0098
כף	-11.0098
25	-11.0099
למשל	-11.0102
▁נגר	-11.0103
▁פשוטים	-11.0104
▁בחזית	-11.0105
▁שתל	-11.0108
▁תעשי	-11.0108
▁התחתונה	-11.0108
הכול	-11.0109
▁מכבי	-11.0109
דירוג	-11.0113
▁שעתיים	-11.0114
▁הפריט	-11.0114
סיקה	-11.0115
▁הראשית	-11.0115
▁נמלט	-11.0116
▁נראת	-11.0117
▁גזר	-11.0117
▁פלו	-11.0118
▁קצה	-11.0118
▁מתואר	-11.0118
מפרץ	-11.0119
▁Vi	-11.012
▁מיקומ	-11.0121
איני	-11.0125
▁דינמי	-11.0125
▁מוותר	-11.0128
נדל	-11.0133
▁po	-11.0134
▁׳	-11.0134
▁IC	-11.0134
▁מורכבים	-11.0135
▁משקיע	-11.0136
▁מכינ	-11.0137
זכור	-11.0137
▁מכפי	-11.0137
▁ההשקעות	-11.0138
▁Ne	-11.0139
▁"...	-11.0139
▁הצו	-11.0142
עצים	-11.0143
▁אסטרטגי	-11.0143
▁קנו	-11.0144
▁לחימה	-11.0145
▁מימי	-11.0148
▁קולט	-11.0151
▁הפיל	-11.0152
▁ההוראה	-11.0153
▁בביצוע	-11.0153
▁תענוג	-11.0153
▁המכוניות	-11.0153
▁פוחד	-11.0153
▁שעושים	-11.0154
▁צינור	-11.0154
▁יומיומי	-11.0154
▁שאוכל	-11.0154
▁המתרחש	-11.0156
▁האמון	-11.0157
▁במיטה	-11.0157
▁3)	-11.0158
▁הראייה	-11.0158
אותם	-11.0158
▁לאמת	-11.0159
▁הבטחת	-11.016
▁מתברר	-11.0161
▁קריאת	-11.0161
▁קולג	-11.0163
▁לגב	-11.0166
▁מטוסי	-11.0167
▁אוניברסיטאות	-11.0168
אנט	-11.0169
▁מושל	-11.0171
▁החיה	-11.0171
▁בזמנו	-11.0179
▁);	-11.0183
לרפא	-11.0183
אליפות	-11.0186
▁מדור	-11.0189
טוענים	-11.0189
חוצה	-11.0194
▁לנשיאות	-11.0195
כנראה	-11.0199
di	-11.0201
▁הבשר	-11.0204
TA	-11.0205
▁הקש	-11.0209
וצא	-11.0209
▁שיצר	-11.0214
▁איבר	-11.0215
ind	-11.0216
▁רצית	-11.0218
▁ליעד	-11.0219
▁נאות	-11.022
פרס	-11.0225
דיכאון	-11.0225
יטי	-11.0225
שחק	-11.0225
▁עט	-11.0227
▁ההליך	-11.0227
איי	-11.0227
כית	-11.0228
▁הנפשי	-11.023
▁הפתעה	-11.023
▁מחוברים	-11.0231
ant	-11.0234
▁Tag	-11.0235
▁אליזבת	-11.0235
▁להעמיד	-11.0235
▁ברומא	-11.0236
▁תפקוד	-11.0236
▁בברלין	-11.0236
▁הניצחון	-11.0236
▁חיצוניים	-11.0237
▁מתכת	-11.0237
▁זרימ	-11.0237
▁תרצו	-11.0238
ck	-11.0238
תחרויות	-11.0238
קרנות	-11.024
▁תרבותית	-11.024
תיאום	-11.0241
ase	-11.0242
▁עצב	-11.0242
▁שעשו	-11.0244
▁מקומיות	-11.0245
▁להתקשר	-11.0246
▁אנט	-11.0246
▁US	-11.0247
▁היתרון	-11.0249
זרים	-11.0251
▁פעילי	-11.0252
▁Ho	-11.0253
▁שגרתי	-11.0253
▁קראת	-11.0254
▁הקרובות	-11.0254
▁חולק	-11.0255
▁מנע	-11.0262
▁במדבר	-11.0266
סימן	-11.0266
▁ביקום	-11.0269
▁זרות	-11.0269
שליטה	-11.027
הולדת	-11.027
▁תקרא	-11.0272
תבצע	-11.0273
▁תכנ	-11.0275
▁מארי	-11.0276
▁דוב	-11.0276
תקדם	-11.0277
▁נסיכ	-11.0279
▁בטקס	-11.0287
תחומי	-11.0289
קדים	-11.029
▁השתתפו	-11.029
▁האסטרטגי	-11.0291
▁נקט	-11.0293
▁דירוג	-11.0296
▁ראית	-11.0298
אמרתי	-11.0302
▁לטוס	-11.0302
▁היין	-11.0307
▁לדווח	-11.0307
▁חיוניים	-11.0308
פרסום	-11.0309
▁שנתי	-11.0309
ירצה	-11.031
▁לקט	-11.0313
▁להתנגד	-11.0313
מסעדות	-11.0313
קדמה	-11.0317
▁בהודעה	-11.0318
▁צומח	-11.0318
▁מבחוץ	-11.0318
▁הקטנות	-11.0318
▁בציבור	-11.0318
▁בחצר	-11.0319
▁המניע	-11.0319
▁בתשלום	-11.0319
▁להשתלט	-11.032
יימר	-11.0321
▁ומאפשר	-11.0321
▁להתלונן	-11.0322
מפל	-11.0322
▁תיעוד	-11.0322
▁עסקאות	-11.0323
▁חלונות	-11.0325
▁אקראי	-11.0325
▁הגדרות	-11.0326
▁הצליל	-11.0331
▁נצחי	-11.0332
▁חישוב	-11.0335
▁ערכ	-11.0336
עֲ	-11.0337
ביכול	-11.0338
▁שחרר	-11.0341
▁שאומרים	-11.0342
גישות	-11.0345
▁מוריד	-11.0345
הרגשה	-11.0346
▁והכל	-11.0348
▁הער	-11.0348
יוון	-11.035
▁יזכ	-11.035
▁האיטלקי	-11.035
▁ארמ	-11.0352
▁צבאיים	-11.0353
▁שכלל	-11.0355
▁החג	-11.0355
▁במכונית	-11.036
אגיד	-11.0362
up	-11.0365
▁ליפול	-11.0365
▁חלופ	-11.0365
▁נקב	-11.0365
▁לוחמים	-11.0366
▁עותקים	-11.0366
▁נאס	-11.0367
▁יופיע	-11.0372
היאבק	-11.0372
▁מתקיים	-11.0374
שותפות	-11.0376
▁שייכים	-11.038
▁הצרכנים	-11.0381
שקיע	-11.0383
▁מישה	-11.0385
עיל	-11.0385
נטל	-11.0385
▁חני	-11.0385
▁היהדות	-11.0386
▁בקנדה	-11.0392
ציע	-11.0394
מזל	-11.0394
da	-11.0397
נסיון	-11.0398
▁העצבים	-11.04
▁טכנית	-11.04
▁Next	-11.0401
▁המאפיינ	-11.0401
▁התחתון	-11.0402
▁שרשרת	-11.0403
▁הימין	-11.0403
▁תרצה	-11.0404
▁Mac	-11.0404
▁סעודיה	-11.0404
▁הליגה	-11.0405
▁אינטר	-11.0405
-22	-11.0406
▁לרגל	-11.0407
ֶה	-11.0408
▁שאהב	-11.041
▁המספק	-11.041
מובנים	-11.041
▁משאבי	-11.0411
▁הזכיר	-11.0411
▁הביט	-11.0411
צעד	-11.0412
ביר	-11.0412
▁החנות	-11.0413
▁00	-11.0414
▁un	-11.0414
עדויות	-11.0417
ופנה	-11.0417
▁חורף	-11.0418
iz	-11.0422
▁הטר	-11.0422
▁השקר	-11.0423
▁אוכלוסייה	-11.0424
▁מייק	-11.0426
▁הלמידה	-11.0426
מעשים	-11.0426
▁לניו	-11.0427
ארגון	-11.0429
▁יעילים	-11.0429
לעיתים	-11.0432
▁קורבן	-11.0434
יליון	-11.0436
▁תוקפ	-11.0436
מג	-11.0441
▁הגשת	-11.0443
מנסים	-11.0444
▁אוזני	-11.0447
שישה	-11.0451
2,000	-11.0451
▁הרוע	-11.0458
▁בחמש	-11.0461
יקוד	-11.0461
קרי	-11.0463
▁הכותב	-11.0469
▁התרומ	-11.0472
▁קוט	-11.0473
▁אימונים	-11.0475
▁עבודתם	-11.0478
▁הסיר	-11.0485
▁בסביבת	-11.0485
▁התגורר	-11.0486
▁תצוג	-11.0486
▁1980	-11.0486
▁משכנע	-11.0486
▁מאוהב	-11.0487
▁סייבר	-11.0487
▁לדחות	-11.0488
אולפן	-11.0488
▁כא	-11.0489
▁בגדי	-11.0492
▁המסמך	-11.0492
▁לבש	-11.0493
▁האומות	-11.0494
▁הגדה	-11.0495
▁לסוף	-11.0496
▁ביתי	-11.0499
▁תקף	-11.05
▁סבר	-11.0501
▁והכי	-11.0501
▁תקדים	-11.0503
▁ובה	-11.0504
▁התופעה	-11.0507
he	-11.0509
▁לחתום	-11.0511
▁אחיד	-11.0511
▁לירושלים	-11.0512
מקסימום	-11.0512
שאלת	-11.0513
▁נשארת	-11.0513
▁מציב	-11.0514
תפריט	-11.0516
▁כפולה	-11.0519
▁תצטרכו	-11.052
אטי	-11.052
ייעץ	-11.052
▁פטר	-11.0522
▁מגדיל	-11.0522
▁סקירה	-11.0524
▁מכתבים	-11.0524
▁עשירה	-11.0528
▁יגדל	-11.0529
תקפת	-11.0534
▁שזאת	-11.0535
▁הפסיד	-11.0536
▁רעיל	-11.0536
▁החלב	-11.0537
▁התשוקה	-11.0537
▁פצע	-11.0539
פאר	-11.0547
▁האווירה	-11.0548
▁ולקח	-11.0549
▁מדיני	-11.0551
▁המומחים	-11.0554
▁ברצוע	-11.0554
▁קהילתי	-11.0557
▁העיתונות	-11.056
▁אצבע	-11.056
▁ביני	-11.0562
▁למשפחות	-11.0565
▁המדיני	-11.0565
▁חושפ	-11.0566
▁באדם	-11.0566
▁מנוגד	-11.057
▁מינימום	-11.057
▁שעובר	-11.057
הרפתקה	-11.057
▁שיודע	-11.057
▁מצלמה	-11.0571
רמן	-11.0573
אחרי	-11.0575
▁המגיע	-11.0579
▁החום	-11.0581
Fi	-11.0581
▁סביבת	-11.0583
▁להתערב	-11.0583
▁גיליתי	-11.0584
▁ישפיע	-11.0585
▁תחי	-11.0586
▁68	-11.0586
▁יוביל	-11.0587
▁זוהר	-11.0588
▁52	-11.0589
▁חמישים	-11.059
פצע	-11.0591
▁חבריו	-11.0591
▁שואלת	-11.0593
▁העברית	-11.0593
ther	-11.0595
▁מקיף	-11.0596
▁הקבר	-11.0598
+	-11.0601
▁מבודד	-11.0602
אלכוהול	-11.0602
▁שעברו	-11.0602
▁נגרמ	-11.0604
▁המאוחר	-11.0608
▁הצהרת	-11.0609
▁כדורסל	-11.0609
▁באלוהים	-11.061
לכל	-11.0611
▁ביעילות	-11.0611
▁צמוד	-11.0611
צפו	-11.0611
▁זוכים	-11.0616
▁מקומ	-11.0618
▁מגרש	-11.0618
וכן	-11.0618
קפל	-11.0619
▁פטרי	-11.0621
▁לוס	-11.0624
עבדו	-11.0625
▁בטרור	-11.0626
▁ניסת	-11.0626
▁טלפונים	-11.0627
בנתה	-11.0628
▁העברה	-11.0632
שלווה	-11.0634
▁לבטא	-11.064
מצוקה	-11.0641
▁הדמוקרטית	-11.0641
תחשבו	-11.0642
יטר	-11.0642
▁סב	-11.0642
▁הכנת	-11.0644
חלבונים	-11.0647
RO	-11.0647
▁הרוסים	-11.0653
▁אוטובוסים	-11.0654
▁בתערוכ	-11.0656
▁פתאומי	-11.0656
IN	-11.0656
▁Hotel	-11.0656
▁מסוכנים	-11.0656
▁הישנה	-11.0656
▁נובל	-11.0657
▁לעומק	-11.0661
פטו	-11.0665
▁ומנהל	-11.0665
▁המועמדים	-11.0666
▁האידיאלי	-11.0669
▁ארצי	-11.0671
▁מטרתו	-11.0673
טען	-11.0676
▁מוצ	-11.0683
▁מתנ	-11.0684
▁מקוונ	-11.0687
▁העיירה	-11.0689
▁קים	-11.0689
▁הבנים	-11.0691
▁תפיסת	-11.0696
▁למשפחת	-11.0701
▁נפשית	-11.0701
▁הנע	-11.0702
▁וחסר	-11.0702
▁שעמד	-11.0703
דריך	-11.0703
▁ניידים	-11.0705
חצי	-11.0707
לחם	-11.0709
▁התפיסה	-11.0709
▁נולדו	-11.071
גוש	-11.0713
ֲ	-11.0713
▁רווחי	-11.0714
פעיל	-11.0714
שירותים	-11.0714
טיל	-11.0719
▁בואי	-11.072
▁קפטן	-11.0723
be	-11.0724
▁בשיר	-11.0725
▁לשטו	-11.0726
סתכל	-11.0732
▁כספ	-11.0734
▁למר	-11.0735
▁שטחים	-11.0736
▁המטופלים	-11.0738
▁הפעלה	-11.0739
▁מטפלים	-11.0739
▁תמימ	-11.0739
▁בספרי	-11.0741
▁מדעית	-11.0742
רלי	-11.0742
▁בעיצוב	-11.0742
▁מרוכז	-11.0742
▁לרכיש	-11.0742
▁התרגיל	-11.0742
▁החוזה	-11.0742
▁בתוקף	-11.0743
▁מרהיב	-11.0743
יפוי	-11.0743
▁בבנק	-11.0743
▁פחמן	-11.0744
▁האסלאמית	-11.0745
▁הפחות	-11.0748
כתיבה	-11.0749
▁אכילה	-11.0749
▁נדירות	-11.0752
▁אצבעות	-11.0753
▁תביעות	-11.0754
סיטואציה	-11.0755
פרצה	-11.0757
בורג	-11.0758
▁שורות	-11.0759
חבל	-11.0761
ple	-11.0762
אפילו	-11.0762
תכנס	-11.0763
▁משקפ	-11.0763
▁אירו	-11.0764
▁הרגשי	-11.0769
▁שעשית	-11.0769
ound	-11.0771
▁סרטון	-11.0773
ib	-11.0773
▁דוא	-11.0774
גזר	-11.0783
▁אשם	-11.0785
▁הספרייה	-11.0787
▁סוגר	-11.079
▁לאנשי	-11.079
▁האשה	-11.0792
bo	-11.0794
▁מדווח	-11.0796
▁מרש	-11.0799
▁בדברי	-11.08
▁ציפיות	-11.0803
▁58	-11.0805
תבונן	-11.0806
שכונות	-11.0807
▁רומ	-11.081
▁הקצב	-11.0811
▁לבעל	-11.0812
▁עוזרת	-11.0817
▁ויכוח	-11.082
▁ככלל	-11.082
▁לשינויים	-11.0822
▁לכנס	-11.0824
שופ	-11.0824
▁ri	-11.0825
▁השורה	-11.0828
▁אוטונומי	-11.0829
▁אופנוע	-11.0829
▁הוסיפה	-11.0829
▁למכירה	-11.0829
▁אדומים	-11.0829
▁לסיפור	-11.0829
▁מיכאל	-11.0829
▁אינסופי	-11.0829
▁הסימנים	-11.083
▁להירשם	-11.0831
▁ויאמר	-11.0831
▁להדגיש	-11.0833
שמות	-11.0837
▁At	-11.0837
▁תוהה	-11.084
דרי	-11.0844
▁נפצע	-11.0844
▁הצמח	-11.0845
▁הכרטיס	-11.0846
▁המוצע	-11.0848
▁שובר	-11.0848
▁העיקריות	-11.0853
שטיין	-11.0854
▁נלהב	-11.0854
▁למסור	-11.0857
מדבר	-11.0859
▁סלי	-11.0861
▁שחורים	-11.0863
▁חלופי	-11.0865
סבתא	-11.0865
▁קולי	-11.0866
▁סיפורי	-11.0869
▁המלח	-11.0869
▁הציוד	-11.087
▁שרירים	-11.087
▁דרישה	-11.0871
▁קרובה	-11.0871
▁הקוראים	-11.0872
▁מאושרת	-11.0873
▁חוויית	-11.0874
מנהג	-11.0875
▁עכבר	-11.0876
▁השתל	-11.0877
▁מזיקים	-11.088
▁משחרר	-11.0883
CE	-11.0883
מסור	-11.0884
לול	-11.0886
ass	-11.0893
נטוש	-11.0893
▁השלמת	-11.0894
▁שיעורים	-11.0894
▁המינים	-11.0894
▁אצ	-11.0896
▁נגיע	-11.0897
▁הדוח	-11.0898
▁הונג	-11.0898
▁בקנ	-11.09
▁בחיינו	-11.0906
בדקו	-11.0908
בשר	-11.0911
▁מפלגה	-11.0913
‭	-11.0917
▁אטרקטיבי	-11.0917
▁ההגירה	-11.0917
▁התקר	-11.0917
▁מפשע	-11.0917
▁להאשים	-11.0917
אנד	-11.0917
▁בכסף	-11.0917
▁Nation	-11.0918
▁לבזבז	-11.092
▁2011.	-11.0921
▁מסעדה	-11.0922
רכז	-11.0922
▁חיסון	-11.0925
▁להתחתן	-11.0926
▁מוצלחת	-11.0928
▁אליהן	-11.0932
▁המחוז	-11.0934
gu	-11.0935
▁תקיפה	-11.0936
▁המודיעין	-11.0936
▁מזמינים	-11.0937
▁להמשך	-11.0943
▁יפות	-11.0943
שדות	-11.0945
▁עצומ	-11.0946
▁שימור	-11.0951
▁מונ	-11.0951
lin	-11.0952
פף	-11.0952
fa	-11.0954
▁צופ	-11.0954
תרופות	-11.0955
▁הדרומית	-11.0956
▁מגביל	-11.0956
▁הגלובלי	-11.0959
▁עיסוק	-11.0961
▁מושך	-11.0961
▁הדוד	-11.0961
▁מחק	-11.0962
▁גופני	-11.0962
▁קובי	-11.0962
אספקה	-11.0972
▁שילד	-11.0973
▁הלווי	-11.0974
▁בנקים	-11.0975
▁קיב	-11.0978
▁מבטיחים	-11.0978
▁יצירתיות	-11.0981
▁ארד	-11.0984
▁מוגבלות	-11.0986
▁תכשיטים	-11.0986
▁אימ	-11.0986
▁MA	-11.0986
▁לתושבי	-11.0987
יקרא	-11.0987
▁ליטר	-11.0988
▁נטע	-11.0989
▁הוגש	-11.0992
המצב	-11.0995
▁העצמית	-11.0995
▁דבק	-11.0996
▁אקדח	-11.0998
מדינת	-11.0998
▁פוליטיות	-11.1002
▁כללים	-11.1003
קטיבי	-11.1003
▁הסוג	-11.1004
▁תלונות	-11.1005
▁187	-11.1005
▁Business	-11.1005
▁באנרגיה	-11.1005
▁לשטח	-11.1005
▁הקריאה	-11.1007
▁להשמיד	-11.1007
▁פרעה	-11.1007
דרום	-11.1008
▁הטורקי	-11.1009
▁האופנה	-11.1009
▁האביב	-11.101
▁גירוש	-11.101
לתת	-11.1012
▁האנטי	-11.1013
▁האמן	-11.1015
▁מישראל	-11.1016
▁קודמים	-11.1017
▁החקלאי	-11.102
▁הצביע	-11.1021
ַח	-11.1022
▁האדריכל	-11.1022
▁תשלומים	-11.1023
▁מסו	-11.1026
▁טיפוס	-11.1026
▁גרפי	-11.1026
▁הוועד	-11.1027
סכנות	-11.1028
▁ספרדית	-11.1028
כישורים	-11.1031
כין	-11.1034
ובלה	-11.1037
▁סוציאלי	-11.1038
▁עפ	-11.1039
▁מתבקש	-11.104
▁מרוחק	-11.1042
▁נפגשים	-11.1042
ֹר	-11.1043
▁הגשמ	-11.1043
▁העקרונות	-11.1045
ice	-11.1047
▁הפוליטיים	-11.1049
▁ראיתם	-11.1049
▁שחל	-11.105
▁גלובלי	-11.1051
▁הממשלתי	-11.1057
▁הנשימה	-11.1058
▁לענייני	-11.1059
▁עבדתי	-11.1061
▁העצים	-11.1062
אמינה	-11.1063
▁יציאה	-11.1065
▁3%	-11.1066
▁ראשו	-11.1068
▁pro	-11.107
המלצה	-11.107
▁שתו	-11.1071
▁מדיטציה	-11.1072
▁המדובר	-11.1073
▁הזמר	-11.1075
▁לצוות	-11.1077
חוץ	-11.1078
▁קשורות	-11.1081
▁הוספת	-11.1082
▁בשירותים	-11.1083
רוע	-11.1084
רין	-11.1084
▁במשק	-11.1084
וביץ	-11.1085
▁להיחש	-11.1086
▁אמונת	-11.1087
אנר	-11.1088
▁האמצע	-11.1091
▁מעז	-11.1091
▁דיברנו	-11.1091
▁שמתי	-11.1094
▁אפר	-11.1094
▁המעצר	-11.1094
▁היחידי	-11.1095
▁הזרוע	-11.1095
▁מפורש	-11.1095
חיסול	-11.1095
▁הקטע	-11.1096
▁הנהלת	-11.1096
way	-11.1096
ord	-11.1097
▁דיסני	-11.1097
▁ריפוי	-11.1097
ps	-11.1097
▁הרחוק	-11.1098
▁לשפוט	-11.1098
▁תיאורטי	-11.1098
▁המתאר	-11.1099
▁לבניית	-11.11
▁בממשלה	-11.1105
▁נרגש	-11.1105
▁הכספי	-11.1106
▁לצרו	-11.1111
▁הקשב	-11.1113
▁הגשם	-11.1114
▁עצי	-11.1114
▁האבולוציה	-11.1115
סתיר	-11.1116
▁הסכים	-11.1116
▁צרות	-11.1116
שחרר	-11.1116
▁בסמוך	-11.1117
▁יסייע	-11.1118
▁מספרי	-11.1122
▁1.5	-11.1122
▁רווחים	-11.1122
הכשרה	-11.1127
▁אינטימי	-11.1132
▁אדון	-11.1133
קוס	-11.1135
▁רוקד	-11.1136
▁עמק	-11.1137
▁מפורסם	-11.114
▁העז	-11.1141
▁החמישית	-11.1141
▁הנדרשים	-11.1143
▁פוטנציאליים	-11.1146
קבלת	-11.1146
▁אורן	-11.1147
שימור	-11.1147
▁הנוצרים	-11.1149
ָם	-11.1151
EN	-11.1156
▁לאיבוד	-11.1157
▁Dr	-11.1159
ko	-11.1161
▁מנועי	-11.1162
ייצג	-11.1163
ust	-11.1164
עצום	-11.1165
▁וכעת	-11.1165
▁מועמדות	-11.1166
▁Art	-11.1168
▁אַ	-11.117
▁ישיבה	-11.1171
ft	-11.1173
▁הספרדי	-11.1182
▁התגובות	-11.1183
▁האנגלי	-11.1183
▁[7]	-11.1184
▁הביטחוני	-11.1184
▁הסטנדרט	-11.1184
▁משכנתא	-11.1184
▁אובייקטיבי	-11.1185
אחז	-11.1185
▁במחלוקת	-11.1185
▁הזקן	-11.1185
▁בביקור	-11.1185
▁במטבח	-11.1186
▁בתקווה	-11.1187
▁לחופש	-11.1187
▁המסעדה	-11.1187
▁ניקוי	-11.1188
▁מתחייב	-11.1189
▁מתפקד	-11.1189
▁התקבל	-11.119
▁וּ	-11.119
איזו	-11.1193
▁הזנ	-11.1193
▁And	-11.1194
ER	-11.1195
▁ניהל	-11.1198
▁הקיום	-11.1199
▁נגזר	-11.12
▁גלגלים	-11.1203
סיר	-11.1204
▁תלמד	-11.1204
▁קילומטר	-11.1208
▁תסמונת	-11.121
▁פיגוע	-11.121
מבצר	-11.1211
ock	-11.1212
▁בהווה	-11.1212
▁הלטינית	-11.1213
▁העמוד	-11.1215
צרכנים	-11.1219
▁מבחר	-11.1221
▁As	-11.1222
▁עליית	-11.1222
▁עציר	-11.1223
▁1989	-11.1226
▁מאליו	-11.1228
ארגונים	-11.1232
קניות	-11.1232
▁להט	-11.1232
נץ	-11.1232
go	-11.1232
▁he	-11.1232
מבחן	-11.1234
▁ישראליים	-11.1234
▁גילי	-11.1236
▁נטול	-11.1238
▁השותפים	-11.1238
▁זכי	-11.1238
▁הזמנת	-11.1239
▁חמה	-11.124
כיה	-11.1241
מנסה	-11.1241
▁אגם	-11.1245
נצרות	-11.1245
▁מחבל	-11.1246
▁הטיל	-11.1248
▁גופי	-11.1249
▁אונס	-11.1253
▁הימי	-11.1255
▁מציל	-11.1255
▁HD	-11.1257
sh	-11.1262
כאן	-11.1262
son	-11.1263
▁ity	-11.1267
▁גרה	-11.1267
▁הצבעים	-11.1269
▁בוגרים	-11.1269
▁ממתי	-11.1272
▁קרני	-11.1274
▁הישג	-11.1274
▁בשינוי	-11.1275
▁בתשובה	-11.1275
ספיק	-11.1276
▁שיוצר	-11.1276
שׂ	-11.1276
▁go	-11.1276
▁קפדני	-11.1277
▁Post	-11.1277
▁Web	-11.1277
▁תאונות	-11.1279
▁נשבר	-11.1281
▁Inc	-11.1282
▁המנצח	-11.1285
▁חלה	-11.1286
▁המקומיות	-11.1289
▁5,000	-11.129
חשבתם	-11.1293
▁ביצירת	-11.1294
▁הגן	-11.1295
▁גנטי	-11.1296
חשף	-11.1297
▁לקפוץ	-11.1298
▁התכונ	-11.1299
פרסמה	-11.1299
▁מעמיד	-11.13
▁מתקני	-11.1302
עשייה	-11.1302
נגן	-11.1303
▁con	-11.1304
▁na	-11.1304
ימת	-11.1305
▁נמאס	-11.1306
▁צורכ	-11.1307
▁51	-11.1308
▁האמריקנים	-11.1308
▁עבדה	-11.131
▁כנסת	-11.1312
▁נציגים	-11.1313
מחלקת	-11.1315
▁מנוהל	-11.1315
▁הכוכב	-11.1317
התבצע	-11.1317
SP	-11.1317
▁ואחרים	-11.132
▁ליג	-11.132
LE	-11.132
▁ענקי	-11.132
האמת	-11.1321
▁הרעב	-11.1323
▁120	-11.1325
▁הצעירה	-11.1326
▁הערכות	-11.1327
▁מוגבר	-11.1329
מחסום	-11.133
▁היסודות	-11.133
▁המיני	-11.1333
▁המחנה	-11.1341
כזב	-11.1343
מוז	-11.1344
▁ענייני	-11.1344
189	-11.1347
עץ	-11.1347
מיס	-11.1349
▁החייל	-11.1349
יצרו	-11.1351
▁נשלחו	-11.1353
לאומי	-11.1354
▁בעיניי	-11.1354
▁מסי	-11.1355
-27	-11.1358
שיח	-11.1361
הפצת	-11.1362
▁מעריצ	-11.1363
▁בנט	-11.1364
▁el	-11.1364
חבורה	-11.1367
▁בהתאמה	-11.1367
▁בפוליטיקה	-11.1367
▁לאירופה	-11.1367
▁קעקוע	-11.1367
▁לשלטון	-11.1368
▁בכלכלה	-11.1369
▁מועט	-11.1369
▁להימלט	-11.1369
▁קטר	-11.1371
▁זעיר	-11.1371
▁החירות	-11.1372
-26	-11.1372
▁משפחותיהם	-11.1373
▁להתאמן	-11.1373
▁בבניין	-11.1373
התווכח	-11.1373
לשמור	-11.1374
▁המיטה	-11.1376
▁תוקף	-11.1379
שתמש	-11.1379
▁תערוב	-11.1379
▁קטגוריה	-11.138
▁בטכנולוגיה	-11.138
נהיגה	-11.138
▁כפתור	-11.1383
▁קהילת	-11.1386
▁אומנות	-11.1387
▁מחקרי	-11.1388
▁גרסא	-11.1392
▁טביע	-11.1393
▁החלקים	-11.1395
▁הסו	-11.1396
▁תקל	-11.1397
▁התחייבות	-11.1398
▁תדע	-11.1399
▁נישואי	-11.14
▁לבתי	-11.1401
▁צדדי	-11.1402
▁בכנות	-11.1402
▁מתכננ	-11.1404
▁צמחי	-11.1404
▁צער	-11.1404
אמו	-11.1405
-200	-11.1406
▁דע	-11.1407
▁בתמונות	-11.1409
▁אפקטיבי	-11.1409
▁עדין	-11.1412
בגרות	-11.1416
▁מלאכותי	-11.1418
תקשר	-11.142
רבע	-11.1422
ונסון	-11.1424
▁גניב	-11.1424
▁למבוגרים	-11.1427
▁נותרה	-11.1431
וחלט	-11.1432
▁קשרי	-11.1433
ככל	-11.1433
▁מכול	-11.1438
חומר	-11.144
▁בפח	-11.1443
▁ראיון	-11.1444
▁הצרפתים	-11.1446
▁בלוט	-11.1447
▁Har	-11.1448
תאריך	-11.145
▁הצבעה	-11.1451
▁הכלא	-11.1454
▁טכנולוגית	-11.1454
▁דיברו	-11.1456
▁למענ	-11.1459
▁למאבק	-11.146
▁מסקנות	-11.146
▁בקריירה	-11.146
▁כובע	-11.146
▁קשוח	-11.1461
▁היומיום	-11.1461
▁מעוצב	-11.1461
▁נביא	-11.1461
▁להשתחרר	-11.1461
▁במסעדה	-11.1462
14	-11.1463
אנרגיות	-11.1464
▁הגורל	-11.1464
▁הטכני	-11.1466
▁וויל	-11.1466
▁הסבל	-11.1466
▁ER	-11.1468
כולל	-11.147
▁אחותי	-11.1472
▁בנימין	-11.1472
▁נרד	-11.1474
טווח	-11.1474
▁זנ	-11.1475
▁מיטב	-11.1476
▁לאלו	-11.1479
▁המציא	-11.148
▁נצח	-11.148
▁מיליונים	-11.148
שלום	-11.1481
▁מצרי	-11.1482
▁זמינה	-11.1483
▁דאפא	-11.1483
▁לסין	-11.1484
רוכים	-11.1485
▁צחוק	-11.1487
▁המגדל	-11.1487
▁טיפוסי	-11.1488
▁ממלכת	-11.1489
▁הגברת	-11.1489
▁1986	-11.1492
טעויות	-11.1493
▁הקדומ	-11.1494
▁העירוני	-11.1494
חייב	-11.1496
▁עיקרי	-11.1496
סולם	-11.1497
▁יחי	-11.1497
▁המכס	-11.1497
▁משתדל	-11.1498
▁אסד	-11.1503
נסקי	-11.1506
▁סיימו	-11.1506
▁קבלה	-11.1506
▁המעסיק	-11.1511
▁עמים	-11.1513
▁ואיפה	-11.1514
▁מעשית	-11.1518
▁הדורות	-11.1519
▁התמחות	-11.152
חסות	-11.1528
▁המעשי	-11.1528
▁בנמל	-11.153
▁גוש	-11.1531
▁בחופש	-11.1532
טיסות	-11.1533
▁Dis	-11.1534
▁פגשתי	-11.1535
▁להאי	-11.1538
מבר	-11.1538
ah	-11.1542
לנתח	-11.1544
▁תמות	-11.1547
▁חולקים	-11.1549
חשיפה	-11.155
ביטוי	-11.1551
▁הנבחרים	-11.1551
▁משמשת	-11.1552
▁ההצבעה	-11.1553
ביטקוין	-11.1553
▁מפואר	-11.1553
מקלט	-11.1553
▁ארתור	-11.1553
▁שביקש	-11.1553
▁משימת	-11.1554
▁האיגוד	-11.1554
▁Park	-11.1555
▁השמיני	-11.1555
▁ביטחונ	-11.1555
▁הטייס	-11.1555
פיס	-11.1556
▁אקלים	-11.1556
▁נעלמה	-11.1559
אריך	-11.156
▁בינלאומיות	-11.156
▁סוכן	-11.1561
▁Air	-11.1562
▁ta	-11.1562
▁השפל	-11.1565
▁הפולני	-11.1567
פרנס	-11.157
דוגמה	-11.1571
▁סטיבן	-11.1574
שבעה	-11.1576
יהאד	-11.1578
▁לשפ	-11.1579
▁זיק	-11.1581
מכירות	-11.1584
▁מדהימים	-11.1585
ריבונות	-11.1585
▁מולדת	-11.1586
▁קש	-11.1588
▁מסד	-11.159
▁בטחון	-11.1591
קוד	-11.1594
עיין	-11.1594
▁נעצרו	-11.1594
▁Sp	-11.1595
▁נוחה	-11.1597
▁צא	-11.1597
▁והחל	-11.16
ail	-11.16
ייעוץ	-11.1602
▁צבר	-11.1603
▁נמשכת	-11.1606
▁ערכו	-11.1607
red	-11.1608
▁כתובות	-11.161
ערים	-11.1615
▁הכישורים	-11.1617
▁נפרדים	-11.1617
אזור	-11.1617
▁האגו	-11.1619
▁מציאותי	-11.162
▁שידע	-11.162
▁שרון	-11.1621
▁טורקי	-11.1625
▁ra	-11.1625
יומי	-11.1626
▁mi	-11.1626
ְּ	-11.1626
▁סטיב	-11.1628
▁מבל	-11.1629
▁קליפ	-11.1629
▁im	-11.163
▁האלוהי	-11.163
▁רצפ	-11.163
▁88	-11.1631
▁זז	-11.1631
▁פק	-11.1632
▁בשכונה	-11.1633
יגמר	-11.1634
▁שירת	-11.1636
▁גירושין	-11.1636
▁התרגום	-11.1638
▁האבן	-11.1638
וכיח	-11.1638
▁אידיאולוגי	-11.1641
פורסמו	-11.1641
▁בעונ	-11.1642
ֵר	-11.1643
▁דעתי	-11.1644
▁השורש	-11.1644
▁זיה	-11.1644
משמעות	-11.1645
ציונ	-11.1647
▁הלוחמ	-11.1647
▁מודעת	-11.1647
▁הרוצח	-11.1647
▁פוטין	-11.1648
▁ההכנסה	-11.1648
▁מטורף	-11.1648
▁אויבי	-11.1648
▁התחום	-11.1648
▁ירקות	-11.1648
▁2.5	-11.1648
▁תקין	-11.1648
▁בניסוי	-11.1648
▁מקושר	-11.1648
▁השתנתה	-11.1649
▁מהעבודה	-11.1649
▁סיינטולוגיה	-11.165
ick	-11.165
כהן	-11.1653
▁מתבסס	-11.1653
בלט	-11.1654
▁לנד	-11.1655
▁התרגש	-11.1657
▁החיוני	-11.1657
▁משפחתה	-11.1658
▁700	-11.1659
▁כבל	-11.1661
▁לעין	-11.1661
▁לנשום	-11.1664
אויב	-11.1664
▁נחשף	-11.1668
▁בגד	-11.1672
▁התרחשו	-11.1674
▁רכישה	-11.1675
▁השיעור	-11.168
▁בצדק	-11.1681
▁אלבומ	-11.1684
▁הקורבן	-11.1684
▁הסמל	-11.1686
▁דיאט	-11.1686
▁הפילוסופי	-11.1687
התנחלויות	-11.1687
סיק	-11.1688
BS	-11.1689
▁משיח	-11.1689
▁בחינ	-11.1693
▁אוסר	-11.1693
▁בתחומ	-11.1694
▁מפלגות	-11.1696
▁זריק	-11.1697
רטי	-11.1697
▁ירדו	-11.1701
if	-11.1702
דרישה	-11.1702
עורך	-11.1702
חוכמה	-11.1707
▁עמם	-11.1707
▁שירה	-11.1707
▁מדרום	-11.1708
▁ניר	-11.1709
תחנה	-11.171
▁לתנאי	-11.1712
הפרדה	-11.1719
▁Per	-11.1719
▁מנצ	-11.1719
סטין	-11.172
▁לווי	-11.172
פסיד	-11.1722
▁שרי	-11.1724
איראן	-11.1728
▁ממשלתי	-11.1729
הנאה	-11.1729
▁רש	-11.1729
▁הימורים	-11.1729
▁מהנה	-11.1731
▁המתקפה	-11.1736
▁56	-11.1736
▁העי	-11.1737
▁הגדרה	-11.1738
▁באוטובוס	-11.1743
▁החשוד	-11.1743
▁[6]	-11.1743
▁השיפוט	-11.1743
▁דחוף	-11.1743
▁השידור	-11.1743
שגשוג	-11.1743
▁קולומביה	-11.1744
▁הנובע	-11.1744
▁פסיכו	-11.1744
▁מהפכני	-11.1744
ורשה	-11.1745
▁הפעילויות	-11.1745
▁קיסר	-11.1746
▁פיצוי	-11.1746
▁́	-11.1746
▁הפוליטיקה	-11.1747
▁תאורי	-11.1747
▁החטא	-11.1748
▁תקוע	-11.175
▁הזי	-11.175
▁גאווה	-11.1753
▁מבוססות	-11.1756
▁לכלכל	-11.1756
▁השדה	-11.1757
▁גרמנית	-11.1759
▁כפרי	-11.1761
▁4)	-11.1763
▁הבכורה	-11.1767
▁בכדור	-11.1767
פיין	-11.1768
▁מאר	-11.1768
▁הצביעו	-11.1769
▁התכוונת	-11.1769
▁הבלוג	-11.1771
איננו	-11.1774
▁הופעה	-11.1775
▁הדיווח	-11.1777
▁העמוק	-11.1777
▁הראוי	-11.1779
▁התחלת	-11.1779
▁חזית	-11.178
▁לצרכי	-11.178
▁לשחרור	-11.1781
הורות	-11.1783
▁מובהק	-11.1783
▁ארכיאולוגי	-11.1783
דול	-11.1785
ינוק	-11.1786
הופעות	-11.1795
(	-11.1795
▁הצפונית	-11.1795
מימוש	-11.1795
השראה	-11.1796
הליכה	-11.1797
כלומר	-11.1797
▁ורוד	-11.18
▁מקרב	-11.18
▁איטלקי	-11.1801
▁כלכלת	-11.1802
בנית	-11.1808
▁מפגינים	-11.1809
▁מורי	-11.1814
19	-11.1814
▁באביב	-11.1818
▁שעת	-11.1822
▁בסרטן	-11.1822
▁למשטרה	-11.1823
צוין	-11.1824
ַּ	-11.1829
▁הלחימה	-11.1829
▁לפעולה	-11.183
▁מדלי	-11.183
▁השאיפ	-11.183
▁תקנות	-11.1832
כרי	-11.1835
הספר	-11.1836
▁נקיים	-11.1838
חיבה	-11.1838
▁לתהליך	-11.1839
▁1971	-11.1839
▁המשקיעים	-11.1839
▁להיפך	-11.1839
תחזיות	-11.1839
▁אומלל	-11.1839
▁ירא	-11.184
▁המנוח	-11.184
▁רעל	-11.184
▁לדיון	-11.1842
▁המייסד	-11.1842
▁נוב	-11.1842
▁365	-11.1843
▁תמר	-11.1843
IP	-11.1844
▁המציע	-11.1845
▁חמורות	-11.1847
גלריה	-11.1848
▁צדיק	-11.1848
▁תבחר	-11.185
אורך	-11.1852
▁לבשל	-11.1856
▁לטובה	-11.1856
▁ברג	-11.1858
▁מתקשר	-11.1859
מסיבות	-11.186
▁הגלו	-11.186
▁חפצים	-11.1864
להתבונן	-11.1865
▁Fa	-11.1869
▁בשטחים	-11.187
▁לעיני	-11.187
▁משקה	-11.1873
▁סטטיסטי	-11.1875
▁מעוניינ	-11.1875
קובצי	-11.1878
▁לכדור	-11.1879
▁לבנה	-11.188
▁יאמר	-11.1881
▁1979	-11.1882
▁הכרתי	-11.1883
▁חדשנות	-11.1884
▁הנכסים	-11.1885
▁גס	-11.1886
▁הסרטון	-11.1887
▁התעקש	-11.1888
▁רצונ	-11.1892
▁סינית	-11.1893
▁המחזור	-11.1893
▁נצפ	-11.1894
מזונות	-11.1894
▁ימצא	-11.1896
דיכוי	-11.1896
הרחיק	-11.1897
▁Sc	-11.1899
▁שבח	-11.1899
▁הבוס	-11.1901
▁אפור	-11.1902
פוף	-11.1903
▁מעצבים	-11.1903
▁סובלנות	-11.1904
▁משח	-11.1908
pp	-11.1915
▁התקיים	-11.1917
▁רשימות	-11.1917
אמונות	-11.1922
▁ושאר	-11.1922
ave	-11.1926
▁בער	-11.1927
▁שכול	-11.1927
▁משאל	-11.1928
▁למחנה	-11.1931
וסיפו	-11.1933
▁הטרד	-11.1933
▁.[1]	-11.1936
▁וירטואלי	-11.1936
▁מדוכא	-11.1936
▁למוזיקה	-11.1936
▁להתחרות	-11.1936
▁העובר	-11.1936
▁המעי	-11.1937
▁בפעולה	-11.1937
▁הפלילי	-11.1937
▁וביקש	-11.1937
▁התמוטט	-11.1937
▁פסולת	-11.1938
מבחנים	-11.1939
▁השקיע	-11.1941
מאמץ	-11.1942
▁ה־	-11.1943
-300	-11.1944
70	-11.1945
▁הגירה	-11.1946
▁תפוח	-11.1946
▁השתתף	-11.1947
▁הילדות	-11.1948
▁הרגישו	-11.1948
▁נפגשו	-11.1949
תסכול	-11.195
▁הועבר	-11.1951
▁בילי	-11.1953
▁מתנצל	-11.1954
▁נכנע	-11.1955
tive	-11.1956
▁רחוקות	-11.1957
▁להביט	-11.1958
חמם	-11.1959
▁שמרו	-11.1968
מירוץ	-11.1968
▁ללימודים	-11.197
▁דימוי	-11.1971
▁אלוף	-11.1973
קביעת	-11.1974
מצאו	-11.1975
▁תסמינים	-11.1977
אתר	-11.1977
▁גדלים	-11.1977
▁הכלבים	-11.1979
▁הנוחות	-11.1983
▁יהודיים	-11.1988
דון	-11.1989
פורד	-11.1989
▁רובוט	-11.199
▁נאסר	-11.1991
`	-11.1991
תחושות	-11.1992
מאמינים	-11.1992
▁החלפת	-11.1994
▁תוספי	-11.1994
▁לשירותים	-11.1995
▁חשבנו	-11.1996
▁עזרת	-11.1997
▁הדמוקרטי	-11.1998
▁קבלו	-11.1998
▁לנזק	-11.1999
▁ליחס	-11.2002
▁אזרחית	-11.2003
do	-11.2005
▁גזעני	-11.2005
▁אחיה	-11.2006
▁as	-11.2011
▁נשמות	-11.2012
▁2014,	-11.2012
▁one	-11.2013
SA	-11.2015
▁המדבר	-11.2016
▁החשובה	-11.2018
▁האחת	-11.2021
▁עמה	-11.2025
▁פן	-11.2025
▁4:	-11.2026
▁מחנות	-11.2029
פזר	-11.2029
▁מתחבר	-11.2031
▁בעור	-11.2033
▁לצמוח	-11.2034
▁הברזל	-11.2034
▁לפועל	-11.2034
▁הארוחה	-11.2034
הזדהות	-11.2035
▁שנדרש	-11.2038
▁הומו	-11.2038
▁מחמד	-11.2038
600	-11.2038
▁השיא	-11.2039
שלח	-11.2039
▁הנדסה	-11.2041
▁מוגן	-11.2042
▁(3)	-11.2043
▁הרסני	-11.2043
▁בעין	-11.2045
▁להחל	-11.2046
▁דמו	-11.2046
▁המפה	-11.2047
▁הומור	-11.205
▁היווני	-11.2051
▁בוש	-11.2052
▁במטוס	-11.2056
עמידה	-11.2057
▁רומן	-11.2062
קוט	-11.2062
משרת	-11.2062
חיטה	-11.2064
שאלות	-11.2064
▁נוקט	-11.2066
ניינים	-11.2066
אטה	-11.2067
▁מוטב	-11.2068
▁הכח	-11.2069
▁bo	-11.2069
▁לסרטן	-11.207
▁עבדים	-11.2075
▁תביעה	-11.2076
▁הקדמי	-11.2077
▁מוקפ	-11.2077
▁תחושות	-11.2077
▁מגיבים	-11.2078
אדי	-11.208
▁במוצר	-11.2083
▁במשא	-11.2084
▁נוראי	-11.2085
חפים	-11.2087
▁נלמד	-11.2088
▁הריס	-11.2089
ade	-11.209
▁סגול	-11.209
▁נערכו	-11.209
מועצת	-11.2092
פרקליט	-11.2092
▁עניים	-11.2094
American	-11.2095
זיל	-11.2095
▁לציון	-11.2097
▁בתיק	-11.21
▁מימד	-11.21
מולדת	-11.2101
▁נוגד	-11.2101
▁מתגלה	-11.2105
▁הקדושה	-11.2105
▁מנדל	-11.2106
▁אמרנו	-11.2107
דרגה	-11.2107
▁ששמע	-11.2109
▁הפרת	-11.2109
▁המגמ	-11.211
▁המשפטית	-11.2115
▁זוגי	-11.2117
▁טיפולי	-11.2117
לכוד	-11.2119
▁מקצועיות	-11.2119
▁החני	-11.212
חוקרים	-11.2121
רדוף	-11.2122
▁קצינ	-11.2124
תוך	-11.2124
▁עוגיות	-11.2126
סלק	-11.2126
בחינת	-11.213
▁בחנויות	-11.2131
▁יהדות	-11.2131
דרך	-11.2132
q	-11.2132
וגי	-11.2132
und	-11.2132
▁Street	-11.2133
▁ברצלונה	-11.2133
▁דנמרק	-11.2133
▁תומאס	-11.2133
▁Play	-11.2133
▁ברציפות	-11.2133
▁ציטוט	-11.2133
▁היומיומי	-11.2133
▁ואילך	-11.2133
▁הזמינו	-11.2133
▁שפועל	-11.2133
▁טענת	-11.2133
חלקם	-11.2134
▁נסתר	-11.2134
▁PC	-11.2135
▁צועד	-11.2136
▁בשאר	-11.2136
-29	-11.2138
▁188	-11.2139
▁תקרי	-11.214
80	-11.214
▁טעים	-11.214
ran	-11.2142
▁המזרחית	-11.2144
▁התאמה	-11.2145
סובב	-11.2146
עשיית	-11.2146
▁המעו	-11.2147
▁יהלומים	-11.2149
ek	-11.2151
▁שבור	-11.2152
▁מבלבל	-11.2157
▁מקדמ	-11.2159
▁מזרחי	-11.216
▁אירע	-11.2161
החברה	-11.2161
▁החמור	-11.2162
▁למדינת	-11.2162
▁גרעינית	-11.2162
▁אוט	-11.2166
▁Live	-11.2173
▁השוואה	-11.2175
▁משמעותיות	-11.2175
▁מעמיק	-11.2175
מנם	-11.2176
▁סה	-11.2177
ction	-11.2179
ריאן	-11.2179
▁עותק	-11.2181
רוג	-11.2184
▁תגידו	-11.2184
נחישות	-11.2184
▁הזכר	-11.2187
▁פינה	-11.2191
▁אמהות	-11.2192
▁נבו	-11.2194
▁התנהגו	-11.2197
▁התאריך	-11.2197
xy	-11.22
מלאכה	-11.2202
▁הדירות	-11.2203
▁שלמים	-11.2205
▁אינטראקציה	-11.2206
אביו	-11.2208
▁צדקה	-11.2208
לחגוג	-11.2212
▁הממצאים	-11.2215
▁ניס	-11.2217
▁המפרץ	-11.2223
▁Online	-11.2233
▁אוניברסלי	-11.2233
▁להאכיל	-11.2233
▁האפליקצי	-11.2233
▁האופרה	-11.2233
▁משורר	-11.2233
▁לצבא	-11.2233
▁כנסיית	-11.2234
▁Word	-11.2234
▁המלוכה	-11.2234
▁במסלול	-11.2234
▁בחום	-11.2235
▁במפעל	-11.2236
▁מאחל	-11.2236
▁ההתקפ	-11.2237
▁המופיע	-11.2237
-28	-11.2237
▁Of	-11.2237
▁רווק	-11.224
▁נענ	-11.224
▁מאורגנ	-11.2243
▁הכלי	-11.2246
חשש	-11.2246
vo	-11.2248
קומו	-11.2251
▁מודרניים	-11.2251
▁מונית	-11.2252
▁תחליף	-11.2254
רשומות	-11.2254
▁מדיד	-11.2259
בדידות	-11.2261
▁מוקדש	-11.2262
▁המהירה	-11.2262
▁השיבה	-11.2263
▁הגג	-11.2264
▁ספא	-11.2266
▁בוגד	-11.2266
CT	-11.2271
▁האופי	-11.2272
▁גופות	-11.2273
▁יציבה	-11.2273
יעד	-11.2275
▁במגע	-11.2276
▁פעלו	-11.2278
▁שטחי	-11.2279
תעלם	-11.2282
▁כימיקלים	-11.2283
▁בגילאי	-11.2285
▁מודאגים	-11.2288
ישוע	-11.229
▁גופו	-11.229
מחזה	-11.2292
תכניות	-11.2295
▁אסטרטגית	-11.2296
▁כאדם	-11.2296
▁מרשם	-11.2297
▁מקשיב	-11.2298
כוח	-11.23
▁מומחי	-11.2301
▁תוחל	-11.2302
▁דמיון	-11.2302
▁אייל	-11.2305
▁החלון	-11.2307
▁גרמנים	-11.2308
▁נשארה	-11.231
▁השיח	-11.2312
▁המחר	-11.2318
טוויטר	-11.2319
▁דפים	-11.232
▁כישרון	-11.232
▁צלם	-11.2325
פאלון	-11.2327
▁הכימי	-11.2328
▁מהיום	-11.2331
▁מרחבי	-11.2331
ושע	-11.2333
RI	-11.2333
▁דוקטורט	-11.2333
▁בביטחון	-11.2334
▁האוסטרלי	-11.2334
▁שכזו	-11.2334
▁גיאוגרפי	-11.2335
▁דרכה	-11.2336
▁סער	-11.2337
▁חבילות	-11.2338
▁פסוק	-11.2339
▁האמיר	-11.2339
▁ארצה	-11.234
▁בבטחה	-11.234
▁מינרל	-11.2341
▁חיית	-11.2343
▁סנ	-11.2343
▁רמי	-11.2344
▁ששני	-11.2346
▁בקליפורניה	-11.2347
▁הדדית	-11.2349
▁אופק	-11.235
▁הטרי	-11.2351
פוא	-11.2352
▁1942	-11.2354
▁שמספר	-11.2358
▁חלוקת	-11.236
▁ושימוש	-11.2363
איד	-11.2363
עלתה	-11.2365
גמישות	-11.2366
▁שכמעט	-11.2369
▁עודד	-11.2371
▁נרכש	-11.2371
הפרעת	-11.2372
▁חוקיים	-11.2373
חמישים	-11.2376
▁נדירים	-11.2376
▁הוצאה	-11.2377
▁עלייך	-11.2377
▁מודיע	-11.2379
▁המשפטים	-11.2379
▁78	-11.2382
▁גנים	-11.2383
▁ובטוח	-11.2383
▁המכר	-11.2384
▁לגן	-11.2386
▁קווין	-11.2387
▁1.1	-11.2388
לחץ	-11.2389
act	-11.2391
▁מעשר	-11.2393
▁מחליטים	-11.2393
חגוג	-11.2395
▁נפח	-11.2397
טלפונים	-11.2399
“	-11.2399
יצאתי	-11.24
▁התחנה	-11.24
חורבן	-11.2401
נציה	-11.2402
▁82	-11.2404
▁עיקריים	-11.2405
▁41	-11.2406
▁יהפכו	-11.2406
▁צוואר	-11.2407
▁החברתיים	-11.2407
▁החשמלי	-11.2408
▁התקבלה	-11.2408
▁לעקו	-11.2412
▁נחוץ	-11.2413
למעשה	-11.2413
▁מוש	-11.2416
▁האף	-11.2416
▁בלוס	-11.2418
▁מלאך	-11.2423
▁מארבע	-11.2423
▁2014.	-11.2426
▁התעללות	-11.2426
▁תיירות	-11.2426
▁אורי	-11.2427
IM	-11.2427
▁פוטנציאלי	-11.2433
▁מוסקבה	-11.2436
▁האופניים	-11.2436
▁מיזוג	-11.2436
▁המכללה	-11.2436
▁שנעשו	-11.2437
▁סגירת	-11.2437
▁וגאס	-11.2437
▁באסיה	-11.2437
▁מינימלי	-11.2437
AT	-11.2437
אנגלית	-11.2437
▁מבריק	-11.2437
▁רוצות	-11.2437
▁סטרואידים	-11.2437
טורניר	-11.2438
1%	-11.2438
▁עבירות	-11.2439
▁ממצאי	-11.2439
יניה	-11.244
▁מניעה	-11.2441
▁אללה	-11.2442
▁לאירועים	-11.2442
▁העוני	-11.2443
▁מרכזיים	-11.2443
▁ללקוח	-11.2444
▁שיפוט	-11.2444
▁לכאב	-11.2448
▁Ph	-11.2452
▁ברוכ	-11.2453
▁תשתמש	-11.2453
▁ראשונים	-11.2454
▁עברתי	-11.2456
▁בשיא	-11.2458
▁הפסטיבל	-11.2458
מאוחר	-11.2458
ou	-11.2459
▁דגמ	-11.2459
יצור	-11.246
▁דיני	-11.2462
▁היפים	-11.2462
▁תרבויות	-11.2464
יוזמה	-11.2467
▁per	-11.2468
זבז	-11.2469
עלינו	-11.2469
ev	-11.2469
▁הבינלאומיים	-11.247
▁שעד	-11.2472
קיף	-11.2474
▁ליווי	-11.2474
▁חותמ	-11.2474
▁son	-11.2475
קשיים	-11.2478
▁בריכ	-11.2478
▁חיסכון	-11.2478
▁קילו	-11.2478
▁מרד	-11.2482
▁בשווי	-11.2483
▁קפ	-11.2483
▁תרומות	-11.2483
▁אפשריים	-11.2485
▁54	-11.2485
▁שנא	-11.2485
▁שגיאות	-11.2486
פיצ	-11.2487
▁אורז	-11.2487
SD	-11.2488
▁בישול	-11.2488
פלג	-11.249
▁אָ	-11.2491
▁נסוג	-11.2495
נשטיין	-11.2497
FA	-11.2503
▁משפחתית	-11.2505
תעסוקה	-11.2506
▁פרסים	-11.2508
▁לפרוש	-11.2509
▁היציאה	-11.251
▁נגדו	-11.251
▁הגי	-11.2511
פוליטיקאים	-11.2511
▁ילדכם	-11.2513
▁ba	-11.2513
▁עסקיות	-11.2515
טכנולוגיות	-11.2517
▁המבחן	-11.252
▁נאלצו	-11.2526
ake	-11.2527
▁הריח	-11.2527
הברית	-11.2529
קונ	-11.253
▁הקשים	-11.253
אווי	-11.2533
היום	-11.2533
▁מכשירי	-11.2535
▁בשבועות	-11.2536
▁אימו	-11.2537
▁מתנגדים	-11.2539
▁1943	-11.2539
▁אינטליגנציה	-11.2539
▁וייטנאם	-11.2539
▁רציונלי	-11.2539
▁מתבייש	-11.2539
▁הבלעדי	-11.2539
▁אנטיביוטיקה	-11.2539
▁שיכור	-11.2539
▁הארוכה	-11.254
▁הדולר	-11.254
▁במגזר	-11.2541
▁עומס	-11.2542
▁העלילה	-11.2543
▁מוכנות	-11.2544
נפילה	-11.2544
▁נסבל	-11.2545
▁במדע	-11.2548
▁הורס	-11.2549
▁הסלע	-11.255
▁הראי	-11.2551
גבלת	-11.2552
▁אפוא	-11.2552
▁הנחיות	-11.2553
▁הישיר	-11.2554
צביע	-11.2554
▁היבשת	-11.2554
ath	-11.2555
▁נדיב	-11.2556
▁לשרו	-11.2556
▁מטע	-11.2557
▁טקסס	-11.2557
▁מורש	-11.2559
יעזרו	-11.256
וסיף	-11.2562
▁דגימ	-11.2563
▁da	-11.2563
ביטול	-11.2566
▁מוצע	-11.2567
גוון	-11.257
▁גביע	-11.257
▁שבדרך	-11.2573
▁הרפורמ	-11.2575
▁חיזבאללה	-11.2575
עקרונות	-11.2576
-23	-11.2577
▁האזורי	-11.2577
▁תעסוקה	-11.2577
▁היעילות	-11.2578
▁שתיהן	-11.2579
התקפה	-11.258
▁החצי	-11.258
ge	-11.2584
התמדה	-11.2584
▁החוקר	-11.2585
▁77	-11.2585
▁מלאכותית	-11.2586
קטין	-11.2588
▁חטיפ	-11.2588
▁השחורה	-11.2588
▁השתנו	-11.2589
▁1988	-11.2592
▁שקרא	-11.2593
עריכה	-11.2596
▁סיכום	-11.2597
▁נעלי	-11.2604
▁טנק	-11.2605
מטרות	-11.2605
▁הנוף	-11.2606
הרחבה	-11.2607
עיתונים	-11.2608
עישון	-11.261
▁חברו	-11.261
▁נרצחו	-11.2611
▁שנשא	-11.2612
▁הרכיב	-11.2616
▁התנהלות	-11.2617
▁סופית	-11.2618
▁אליפות	-11.2621
▁קינ	-11.2622
▁בתאונ	-11.2629
▁ברכת	-11.2629
▁נבחרת	-11.2629
התבטא	-11.263
▁רשומ	-11.2632
קוק	-11.2634
▁נפלאה	-11.2635
▁הרוחנית	-11.2635
שפיע	-11.2636
▁לפה	-11.2639
▁שכך	-11.2641
▁מפגשים	-11.2642
▁בדרג	-11.2643
ֻ	-11.2643
הזדקנות	-11.2643
▁Rights	-11.2643
▁המתגורר	-11.2643
▁משעמם	-11.2643
▁אנדרואיד	-11.2643
▁1987	-11.2644
▁ברוק	-11.2644
▁תלת	-11.2644
▁הזמנות	-11.2645
▁לחלום	-11.2645
שמלה	-11.2645
▁מנצל	-11.2646
▁עייף	-11.2646
▁פיצו	-11.2647
▁למקור	-11.2648
דליק	-11.265
▁האותיות	-11.2651
▁האבוד	-11.2652
▁סטארט	-11.2653
▁לתינוק	-11.2655
רץ	-11.2655
שני	-11.2656
▁האסירים	-11.2656
▁כנה	-11.2657
דימום	-11.2658
▁כידוע	-11.2659
שנים	-11.2661
▁ריבית	-11.2661
▁לכדי	-11.2663
▁עתיק	-11.2663
▁המעשה	-11.2663
▁עוקבים	-11.2665
▁הבוגרים	-11.2667
▁פרץ	-11.2672
▁מהרה	-11.2672
ולהבין	-11.2674
▁שנינו	-11.2675
▁משוחרר	-11.2676
▁הוליווד	-11.2677
ריק	-11.2678
▁בראשות	-11.2678
▁כמוהו	-11.2681
▁לעד	-11.2682
▁שחייה	-11.2683
ניווט	-11.2684
▁מאזור	-11.2686
ממשלת	-11.2686
▁האדיר	-11.2687
▁משתתף	-11.2687
עולות	-11.2687
▁2.2	-11.2688
גבור	-11.2688
sis	-11.2689
▁בשליטה	-11.2689
יהודי	-11.269
▁ורוב	-11.269
התנתק	-11.2692
▁לדעתך	-11.2692
▁תרמי	-11.2694
PA	-11.2697
▁נאום	-11.2699
▁לרע	-11.2699
▁עול	-11.2701
▁ment	-11.2702
▁מנוס	-11.2703
▁במעמד	-11.2703
▁התקרב	-11.2703
▁כיכר	-11.2704
▁ליתר	-11.2704
סין	-11.2705
▁נדב	-11.2708
▁חוששים	-11.2708
▁עיריי	-11.2708
▁בדיחה	-11.2709
▁פלט	-11.2709
▁פגיע	-11.2712
גרף	-11.2713
▁מעוד	-11.2713
ניצול	-11.2714
חשיבה	-11.2714
▁הגדר	-11.2714
היבט	-11.2715
▁לילות	-11.2716
▁בילדות	-11.2716
▁הצדקה	-11.2719
▁מובילות	-11.2721
חתימה	-11.2722
בצ	-11.2722
▁אִ	-11.2725
▁ידיעת	-11.2725
▁פרנס	-11.2725
▁מיהו	-11.2727
יטול	-11.2729
▁בבדיק	-11.273
ator	-11.273
▁ממרכז	-11.2732
▁ent	-11.2737
old	-11.2739
▁לשון	-11.274
▁אהבו	-11.2741
▁מתפלל	-11.2742
▁אפריקאי	-11.2749
▁מבוקש	-11.2749
▁בהולנד	-11.2749
▁ביער	-11.2749
▁לתרגם	-11.2749
▁הישנים	-11.2751
▁תלונה	-11.2751
▁שוכב	-11.2752
▁מכולם	-11.2752
▁כדוגמ	-11.2753
▁מולקול	-11.2753
▁הפיצו	-11.2753
▁לשמיר	-11.2754
▁מכריז	-11.2754
▁הבטיחות	-11.2754
▁צעצועים	-11.2756
▁הרחבה	-11.2756
▁עקרון	-11.2756
▁להמליץ	-11.2756
▁סותר	-11.2756
▁נואש	-11.2757
תפיסות	-11.2757
▁מעשיו	-11.2758
▁שיאפשר	-11.2758
▁מקסים	-11.2762
▁לשק	-11.2763
▁מסיימ	-11.2764
לקוחות	-11.2764
▁קטגוריות	-11.2764
▁היצירתי	-11.2764
▁2010,	-11.2765
▁מארח	-11.2766
▁נופש	-11.2768
▁מזעזע	-11.2769
▁רצים	-11.277
▁להכנס	-11.277
▁פוק	-11.2772
▁גופת	-11.2775
טום	-11.2776
ינך	-11.2776
▁האומץ	-11.2777
MA	-11.2779
מבקש	-11.2779
▁tra	-11.2779
שפות	-11.278
▁תכופות	-11.278
▁מתבצעת	-11.2781
▁חובר	-11.2781
גבש	-11.2783
▁lo	-11.2787
▁טופ	-11.2787
ציוד	-11.2789
▁בלוח	-11.2791
▁דרושים	-11.2791
▁פופ	-11.2791
▁הניח	-11.2792
▁מטעמ	-11.2793
▁מרים	-11.2797
▁הדגים	-11.2798
סטטוס	-11.2803
▁סיפרו	-11.2805
גטו	-11.2807
▁הדמיון	-11.281
▁נמנ	-11.2812
מקור	-11.2815
▁תאורה	-11.2815
▁שלמד	-11.2816
▁הסודי	-11.282
▁כלא	-11.282
תועלת	-11.2821
▁אנטישמיות	-11.2823
lan	-11.2826
אוסקר	-11.2827
▁צודקת	-11.2827
▁הקדושים	-11.2828
קציה	-11.2833
▁עימות	-11.2835
▁רגישים	-11.2838
▁הנישואים	-11.2838
עַ	-11.2842
יצירה	-11.2843
פגש	-11.2845
▁מסתיר	-11.2845
▁מאחרים	-11.2847
מעט	-11.2848
▁התיקון	-11.285
▁אגד	-11.2851
▁מהצד	-11.2852
▁קולה	-11.2853
▁מנהר	-11.2854
▁משפטיים	-11.2855
אמנת	-11.2855
▁ארגנטינה	-11.2855
▁בעצמה	-11.2855
▁תסריט	-11.2855
▁נפילת	-11.2855
▁University	-11.2855
▁לפספס	-11.2855
▁לרחוב	-11.2855
▁מהמקרים	-11.2855
▁בכביש	-11.2855
▁ליברמן	-11.2855
▁להרגיע	-11.2855
▁הגנרל	-11.2856
▁בתולדות	-11.2856
▁הבמאי	-11.2856
▁El	-11.2856
▁העזרה	-11.2857
▁בחקיר	-11.2858
▁נבנו	-11.2859
▁ופחות	-11.286
▁במקומ	-11.2861
▁←	-11.2862
דשא	-11.2863
פּ	-11.2863
▁עשן	-11.2864
▁בראון	-11.2865
▁הפלא	-11.2869
מאר	-11.2869
מעורבות	-11.2869
▁המגזר	-11.2869
▁בליגה	-11.287
אמנה	-11.2871
תחתן	-11.2872
הפיכ	-11.2873
▁אלוקי	-11.2875
צצה	-11.2876
▁בחג	-11.2876
צהיר	-11.2877
▁תודעה	-11.2879
▁בספק	-11.2881
▁אשת	-11.2881
▁אנסה	-11.2885
▁בידו	-11.2885
▁מצויד	-11.2886
lf	-11.2887
▁עייפות	-11.2888
▁הישרדות	-11.2888
▁עונות	-11.2889
▁Jo	-11.2891
▁ביקשה	-11.2893
3%	-11.2894
▁התנגד	-11.2895
▁מותה	-11.2897
▁תאפשר	-11.2899
▁ספציפית	-11.2899
▁190	-11.29
סטון	-11.2904
▁טעימ	-11.2905
▁מעורבת	-11.2907
▁חקיקה	-11.2907
▁סגל	-11.2911
להפוך	-11.2912
▁אמונות	-11.2913
נוף	-11.2915
ספרייה	-11.2915
▁המורשת	-11.2919
▁הורדת	-11.292
▁נוסד	-11.292
ier	-11.2923
▁עוני	-11.2927
pa	-11.2928
קנאביס	-11.293
הישרדות	-11.293
SC	-11.2934
▁שרד	-11.2935
▁עברנו	-11.2938
▁המעגל	-11.2938
▁קשת	-11.2939
חבק	-11.294
▁התחתנ	-11.2941
▁מגנטי	-11.2942
▁האשמ	-11.2943
▁עוצמתי	-11.2944
▁האחוז	-11.2948
תמלא	-11.2948
▁מסים	-11.2951
פונים	-11.2951
▁היועץ	-11.2951
▁דיגיטלית	-11.2953
row	-11.2954
התבוננות	-11.2956
▁הקושי	-11.2956
▁76	-11.2956
▁גדר	-11.2957
▁האלים	-11.2958
▁הגלגל	-11.2959
▁שצריכ	-11.296
▁רכישות	-11.2961
▁דיקטטור	-11.2962
▁הפדרציה	-11.2962
▁למצרים	-11.2963
▁מסתתר	-11.2963
לדחוף	-11.2963
▁סבב	-11.2963
▁1970	-11.2963
▁מסויים	-11.2964
▁בכניסה	-11.2964
▁טיולים	-11.2965
▁השכנים	-11.2965
חילוץ	-11.2966
▁לחברים	-11.2966
▁מנטלי	-11.2966
▁מסתיים	-11.2966
▁האות	-11.2967
▁גרועה	-11.2967
הונגרי	-11.2968
▁פצועים	-11.2968
▁לחתוך	-11.2969
להפריע	-11.2969
▁הטקס	-11.297
▁הדתית	-11.2971
▁העצומ	-11.2972
▁מדורג	-11.2974
▁שיחת	-11.2976
▁התחייב	-11.2978
יישר	-11.2978
▁הקורא	-11.2979
▁הבקר	-11.298
תרגם	-11.2982
▁"),	-11.2984
▁התקפה	-11.2985
▁pa	-11.2985
הישגים	-11.2986
▁טעמ	-11.2986
▁האמנתי	-11.2989
▁רז	-11.2994
▁שחשב	-11.2995
▁מדויקת	-11.2998
ננת	-11.2999
▁יפעל	-11.3
▁שתיקה	-11.3001
▁הרפתקאות	-11.3002
להיזכר	-11.3002
▁מאפשרות	-11.3005
ny	-11.301
▁דרמה	-11.301
▁המשיב	-11.301
▁בשלושה	-11.3014
▁ערי	-11.3018
▁רשמיים	-11.3019
▁עצמאיים	-11.3019
▁מניעת	-11.302
סיע	-11.3022
קורא	-11.3026
כבוד	-11.3027
עתיד	-11.3027
▁שותפ	-11.3031
▁מלאי	-11.3031
▁במועד	-11.3031
▁לאותה	-11.3032
▁הציפיות	-11.3036
יראו	-11.3039
בראשית	-11.304
▁נראות	-11.3043
▁הבדיקות	-11.3044
▁פורטוגל	-11.3046
ise	-11.3046
▁האהובים	-11.3046
▁בוגרי	-11.3047
75	-11.3047
▁כריסטי	-11.3047
שגשג	-11.3048
▁מדווחים	-11.3052
▁הטילים	-11.3052
ערוך	-11.3056
▁התמכרו	-11.3056
רגיז	-11.3057
▁חניה	-11.3057
▁הנאצית	-11.306
▁האימון	-11.306
▁אריה	-11.3061
ליצור	-11.3063
▁בצוות	-11.3065
▁למנהיג	-11.3066
הליכים	-11.3067
▁חמלה	-11.3067
▁לעור	-11.3068
▁תשתית	-11.3069
כשל	-11.307
▁בקבוצות	-11.307
▁במפורש	-11.3071
▁השכונה	-11.3071
▁מתמשכת	-11.3071
▁פלורידה	-11.3071
▁המשורר	-11.3071
▁משלך	-11.3071
▁טיעונ	-11.3072
▁העממי	-11.3072
▁הבריאה	-11.3072
▁תאילנד	-11.3072
-2008	-11.3072
▁מוסמך	-11.3074
▁מהמקום	-11.3074
▁שנפגע	-11.3075
▁שחזר	-11.3076
▁השומן	-11.3077
▁תאכל	-11.3077
▁בשמו	-11.3078
▁חוקיות	-11.3079
▁פסיכיאטרי	-11.308
▁היסטוריים	-11.3081
▁גובר	-11.3083
▁מאתר	-11.3086
▁יצירתי	-11.3086
▁צפויות	-11.3087
▁הולדתו	-11.3088
▁62	-11.3088
▁2009.	-11.3089
▁Pri	-11.309
יפגע	-11.3091
▁מדאיג	-11.3092
▁צמא	-11.3092
התרבות	-11.3093
THE	-11.3093
מורד	-11.3094
▁לשקר	-11.3096
זיז	-11.3097
▁ארמון	-11.3099
▁חומצה	-11.31
▁סרטוני	-11.31
▁קורט	-11.3104
▁חילוני	-11.3105
▁לפרויקט	-11.3107
box	-11.3108
▁טול	-11.3108
▁השיטות	-11.3108
▁למשפט	-11.3109
▁לאתגר	-11.3109
▁פריד	-11.311
▁המדעית	-11.3112
רענן	-11.3118
▁חייכם	-11.3119
▁צלח	-11.312
▁אינטלקטואלי	-11.312
▁יעבוד	-11.312
▁ומעולם	-11.312
פלגות	-11.3122
ליכוד	-11.3122
פתור	-11.3126
▁החזית	-11.3128
▁אצלו	-11.3128
▁חיידקים	-11.313
▁גרין	-11.3132
▁הנחת	-11.3133
▁יחול	-11.3133
▁השחרור	-11.3134
▁לגנוב	-11.3135
▁מכוח	-11.3137
חוויה	-11.3139
אלף	-11.3139
▁התוו	-11.314
▁עב	-11.3142
▁ine	-11.3143
▁בתוכנו	-11.3144
▁הקשיב	-11.3145
▁תובע	-11.3146
▁השכל	-11.3147
▁ספציפיות	-11.3149
תסמינים	-11.3151
▁נשואים	-11.3151
תרבויות	-11.3151
▁הרחבת	-11.3152
חידוש	-11.3152
▁רפואיות	-11.3154
חצה	-11.3158
▁חטיב	-11.3158
▁דיור	-11.3158
▁הקיימת	-11.3159
כבש	-11.3164
זדקק	-11.3165
▁הנעל	-11.3167
▁לעדכן	-11.317
▁האד	-11.3172
▁ההישג	-11.3173
ְּ	-11.3176
▁ארכיון	-11.3177
▁בתנועה	-11.3181
▁מפורסמים	-11.3181
▁משעשע	-11.3181
▁המוצג	-11.3181
▁בכוונת	-11.3181
▁ושומרון	-11.3181
▁מתעקש	-11.3181
▁מכוער	-11.3181
▁לנחש	-11.3181
▁בשער	-11.3181
-2015	-11.3182
-2014	-11.3182
נִי	-11.3182
▁משפטים	-11.3182
▁איראני	-11.3182
מתכנן	-11.3182
▁מסתדר	-11.3183
▁הקודמות	-11.3183
התחממו	-11.3184
לווה	-11.3185
▁ההרוגים	-11.3185
▁יישוב	-11.3185
▁City	-11.3185
▁שהמדינה	-11.319
ארלס	-11.319
מקרה	-11.3192
פיתוי	-11.3192
▁תעשייה	-11.3196
▁הגמר	-11.3197
▁לאיראן	-11.3197
עונג	-11.3199
▁משיב	-11.32
tro	-11.32
▁חזותי	-11.3201
▁פטור	-11.3201
▁בבר	-11.3203
▁מיכל	-11.3205
▁התגלו	-11.3205
▁פונקצי	-11.3205
▁נזקק	-11.3206
▁השנאה	-11.3206
▁בסוג	-11.3208
גבעות	-11.3212
▁תזונתי	-11.3214
ההורים	-11.3215
▁נפצעו	-11.3215
▁המוניטין	-11.3216
▁לחצ	-11.3216
▁1973	-11.3218
▁61	-11.3221
▁עוול	-11.3223
השכלה	-11.3223
▁רשום	-11.3224
מדו	-11.3224
זיכרון	-11.3224
▁ac	-11.3225
▁לאומיים	-11.3227
▁סולל	-11.323
קרט	-11.3232
ג׳	-11.3233
▁משאב	-11.3235
US	-11.3238
▁בנוכחות	-11.3239
▁מצי	-11.3239
▁כרוכ	-11.3241
יגוד	-11.3242
▁בדמות	-11.3242
ham	-11.3242
▁1.2	-11.3243
▁רלוונטיים	-11.3244
העיר	-11.3245
נבה	-11.3246
▁ריצה	-11.3251
▁המכשירים	-11.3253
▁30%	-11.3255
▁באנו	-11.3257
▁נרשמ	-11.3261
לשון	-11.3263
▁ממשלתיים	-11.3263
48	-11.3264
ביניהם	-11.3264
חפצים	-11.3266
▁קרינה	-11.3268
סן	-11.327
▁שמקור	-11.327
▁גלקסי	-11.3271
▁בספרו	-11.3275
▁במועדון	-11.3275
בירת	-11.3275
▁רעות	-11.3276
▁לקרב	-11.328
▁המהות	-11.3284
▁דוברי	-11.3285
ern	-11.3289
קונפליקט	-11.329
▁הביקוש	-11.3292
▁נפוצות	-11.3292
▁שמאחורי	-11.3292
▁שבגלל	-11.3292
▁החושים	-11.3293
▁לאנושות	-11.3293
ייאוש	-11.3294
טיף	-11.3294
▁יט	-11.3295
קפיצה	-11.3295
▁לשאר	-11.3295
▁עושות	-11.3295
▁במושב	-11.3296
עימות	-11.3296
▁ויקי	-11.3297
▁בארי	-11.3298
▁ספקי	-11.3299
▁קודמות	-11.3301
▁בדיון	-11.3303
חַ	-11.3304
▁179	-11.3304
▁שכולל	-11.3305
▁חוגגים	-11.3305
org	-11.3305
▁ההצגה	-11.3306
▁התפתחו	-11.3306
▁חמושים	-11.3307
וכח	-11.3308
ְר	-11.3309
▁חביב	-11.3309
▁(5	-11.3311
▁ולד	-11.3315
▁הסכמ	-11.3315
▁שותים	-11.3315
▁ממצא	-11.3316
▁מודיעין	-11.3319
▁זציה	-11.3319
תוכנן	-11.3319
▁הקובץ	-11.3321
וידיאו	-11.3321
▁היריב	-11.3322
▁התקיימ	-11.3322
ers	-11.3324
▁מוניטין	-11.3325
▁קנאביס	-11.3327
▁אדירה	-11.3327
▁אמש	-11.3328
▁הצילום	-11.3331
▁שגיאה	-11.3331
▁קדושה	-11.3334
▁מכריע	-11.3334
נוּ	-11.3334
▁שגיל	-11.3335
▁80%	-11.3338
עדיפויות	-11.3341
▁הוריד	-11.3342
▁הוריה	-11.3343
מפו	-11.3344
ash	-11.3345
▁אנדרו	-11.335
▁HP	-11.3351
חברים	-11.3352
ya	-11.3353
ככה	-11.3354
▁פיננסיים	-11.3356
סקה	-11.3356
לשים	-11.3358
▁שמואל	-11.336
הוצאות	-11.336
▁למשתמש	-11.3361
לוך	-11.3361
▁הפרחים	-11.3362
▁ילדינו	-11.3363
באר	-11.3365
צחוק	-11.3368
▁ist	-11.3368
▁מסכנ	-11.3369
▁פריס	-11.3369
▁לשיא	-11.3371
RE	-11.3374
▁סטון	-11.3374
▁מסחרית	-11.3374
זמינה	-11.3377
מחויבות	-11.3377
▁שינו	-11.3378
לשפר	-11.3378
▁השותפות	-11.3378
פרוטוקול	-11.3379
▁הריכוז	-11.338
▁האווירי	-11.3381
▁לכפו	-11.3382
▁חובב	-11.3382
▁לואי	-11.3383
▁אווירה	-11.3385
▁ליברלי	-11.3386
גומי	-11.3386
תיבות	-11.3387
בּ	-11.3387
▁למדנו	-11.3389
▁גיא	-11.339
▁הנייר	-11.3392
▁דיאלוג	-11.34
שהי	-11.3403
▁במקצוע	-11.3405
▁המאוחדת	-11.3405
▁המינימום	-11.3405
▁הנכונים	-11.3405
▁אלגנטי	-11.3405
▁יוקרתי	-11.3405
▁התפלל	-11.3405
▁תמצית	-11.3405
▁סקוטלנד	-11.3405
▁הופתע	-11.3405
▁בשבילו	-11.3407
▁שלמות	-11.3407
▁אותנטי	-11.3407
▁מתבטא	-11.3407
▁תומס	-11.3407
▁להסתובב	-11.3408
מחלת	-11.3409
▁סידור	-11.341
▁הראשונית	-11.3412
▁מתחדש	-11.3412
תבונה	-11.3413
▁תקציר	-11.3413
▁מצויין	-11.3414
כניס	-11.3415
יבור	-11.3418
▁מלאות	-11.3421
▁נכד	-11.3423
▁צולל	-11.3424
▁להריון	-11.3425
▁os	-11.343
▁התזונה	-11.3434
▁העיתונאים	-11.3436
סיבות	-11.3437
▁המתאימה	-11.344
חיבור	-11.3441
▁2012.	-11.3444
▁מראות	-11.3445
▁איטלקית	-11.3449
▁הדג	-11.345
▁משקי	-11.3451
▁בשבילם	-11.3452
▁ההוצאה	-11.3453
טלפון	-11.3453
▁להכריז	-11.3455
▁ידה	-11.3456
נבא	-11.3457
לפי	-11.3457
▁פיצוץ	-11.3458
PS	-11.3459
▁המינית	-11.346
▁שיתופי	-11.346
▁תומכי	-11.3463
▁הגלובלית	-11.3463
▁אדל	-11.3464
▁בודה	-11.3465
▁ריס	-11.3466
▁Cor	-11.3466
▁דנה	-11.3467
▁פחם	-11.3468
▁מנוי	-11.3472
תהליך	-11.3472
נסון	-11.3473
שתף	-11.3474
▁Up	-11.3476
הורים	-11.3477
▁40%	-11.3477
▁בכנסיי	-11.3481
▁האיים	-11.3483
▁בסיוע	-11.3483
▁מטפח	-11.3487
▁בוער	-11.3488
▁לחברי	-11.3489
ללמוד	-11.3493
ייסון	-11.3493
▁התקפי	-11.3494
▁אולמ	-11.3495
תורם	-11.3499
▁המושל	-11.35
!"	-11.3502
ענישה	-11.3502
▁שאוהבים	-11.3502
תאושש	-11.3505
OL	-11.3505
▁הנערה	-11.3511
▁הדגש	-11.3511
ופץ	-11.3512
▁נוצ	-11.3514
▁אסר	-11.3515
▁מצבו	-11.3518
▁חקלאות	-11.3518
▁תרנגול	-11.3518
▁הנסיכה	-11.3518
▁מומלצ	-11.3518
▁Glob	-11.3518
▁מסובכ	-11.3518
▁הרומן	-11.3519
▁מביע	-11.3519
▁אלברט	-11.3519
▁מילא	-11.352
▁הונגריה	-11.3521
ייני	-11.3523
▁לקיומ	-11.3524
קרון	-11.3527
ert	-11.3529
▁גופה	-11.3529
▁Sha	-11.353
▁כשאנ	-11.3533
▁פירס	-11.3533
▁ton	-11.3537
ילר	-11.3537
ult	-11.3538
▁אפליקצי	-11.3538
▁אורגניז	-11.3541
▁העדפ	-11.3543
▁סגנונו	-11.3547
גופנו	-11.3548
▁סיל	-11.355
▁כרוך	-11.3554
▁וחזר	-11.3555
▁צילמ	-11.3556
לץ	-11.3556
▁בלעדיו	-11.3558
▁שחורה	-11.3559
▁יירא	-11.3562
▁מפות	-11.3564
▁נדע	-11.3564
▁סמכויות	-11.3565
▁עוזבים	-11.3566
▁1984	-11.3566
▁נדירה	-11.3567
▁יגל	-11.3568
▁הפלנטה	-11.357
▁החדרים	-11.357
▁צעירות	-11.357
תמותה	-11.3572
בטחון	-11.3573
בגד	-11.3574
▁גלובלית	-11.3576
זיס	-11.3578
▁ההנהלה	-11.3581
▁יחידים	-11.3581
▁מובא	-11.3581
▁74	-11.3582
תודעה	-11.3585
▁המתוק	-11.3585
עלויות	-11.3589
▁חולשה	-11.3589
▁העות	-11.3589
▁ילך	-11.3589
אקס	-11.3589
▁האשמה	-11.3589
▁הפייסבוק	-11.3593
רמו	-11.3599
▁בחרתי	-11.36
▁גזענות	-11.3603
נאספו	-11.3604
▁57	-11.3606
פתאום	-11.3609
ירויות	-11.361
▁המשלחת	-11.3611
תחושת	-11.3612
▁הכמות	-11.3613
▁מטען	-11.3613
▁פנימיים	-11.3614
ַד	-11.3614
▁בשמים	-11.3616
▁מזהיר	-11.3617
לכנו	-11.3618
▁פורצ	-11.3618
▁עצרו	-11.3619
▁מרץ	-11.3621
ki	-11.3622
▁המשו	-11.3624
▁הפופולריים	-11.3628
הולכים	-11.363
למידה	-11.3632
▁הנשי	-11.3633
isplay	-11.3633
▁1950	-11.3633
▁קומוניסט	-11.3633
▁המחוקק	-11.3633
▁רדיקלי	-11.3633
▁ששימש	-11.3633
▁ומעבר	-11.3633
▁להתרחק	-11.3633
▁בקפידה	-11.3634
▁מסכימה	-11.3634
▁עבאס	-11.3634
▁להורדה	-11.3634
▁הנעליים	-11.3634
▁שאמור	-11.3637
▁להפליא	-11.3638
sk	-11.3638
▁נוירו	-11.364
פגוש	-11.3641
▁השומר	-11.3641
▁אמינות	-11.3641
▁יקיר	-11.3642
▁איפשר	-11.3643
אטר	-11.3645
▁הקברות	-11.3646
▁טייל	-11.3647
▁הכבוש	-11.3649
▁תעזור	-11.3649
▁בבי	-11.3649
▁במכ	-11.3654
▁לבדה	-11.3657
סוכרת	-11.3658
▁רוסית	-11.3658
▁שוכחים	-11.366
וכנת	-11.3662
▁מוזמ	-11.3663
▁טק	-11.3663
ממדי	-11.3664
▁מדרג	-11.3665
▁סם	-11.3666
▁1976	-11.3667
נכון	-11.3668
▁97	-11.3668
▁שתייה	-11.3668
ציפייה	-11.3669
תולדות	-11.367
הקשר	-11.3672
▁רך	-11.3674
▁הסתובב	-11.3675
מחזור	-11.3675
▁החור	-11.3676
▁התומכ	-11.3676
קוטב	-11.3679
▁סובב	-11.3681
▁הרפואית	-11.3683
▁יוזמה	-11.3683
▁הנחות	-11.3684
יטלי	-11.3684
▁87	-11.369
▁דרכון	-11.3691
▁1985	-11.3692
ox	-11.3692
כעס	-11.3692
▁מרחיב	-11.3693
אמינו	-11.3694
▁סנד	-11.3694
▁בקטגורי	-11.3695
▁התזמור	-11.3695
▁תדמית	-11.3696
▁הרבי	-11.3697
▁Su	-11.3698
עזרו	-11.3699
▁הציוני	-11.3699
▁הפרופיל	-11.37
משפחות	-11.3703
▁הקירות	-11.3703
ידוי	-11.3704
▁הקורבנות	-11.3704
▁משתמשי	-11.3704
▁עמוקות	-11.3711
▁IS	-11.3712
▁נכנסה	-11.3712
▁למזון	-11.3712
▁נהרס	-11.3713
DS	-11.3717
יזמות	-11.372
▁שגרם	-11.3721
שבט	-11.3721
▁רשע	-11.3721
▁מהרגע	-11.3722
▁פסיכולוג	-11.3724
▁רציניים	-11.3724
▁אנגלי	-11.3727
אמיתות	-11.3728
▁אפליקציות	-11.3729
▁דפי	-11.3733
▁קיט	-11.3733
הציבור	-11.3734
▁שקרים	-11.3737
▁רם	-11.3738
▁בענייני	-11.3738
▁הדדי	-11.3741
▁תרמו	-11.3741
מאגר	-11.3741
▁המחאה	-11.3742
צמיח	-11.3742
▁בזכויות	-11.3743
▁הרשתות	-11.3744
▁נחשפ	-11.3744
אדון	-11.3746
אמבולנס	-11.3749
▁Power	-11.3749
▁במזומן	-11.3749
▁המכשול	-11.3749
▁הנכונות	-11.3749
▁הקיימות	-11.3749
▁הרפובליקני	-11.3749
▁תרכוב	-11.3749
style	-11.3749
▁המדרגות	-11.3749
▁מופלא	-11.3749
▁ואהבה	-11.3749
▁וליהנות	-11.3749
▁לסלוח	-11.3749
▁המסוגל	-11.3749
▁הישיבה	-11.375
▁הסמוכ	-11.375
הבדיל	-11.375
לחסום	-11.3751
▁מחמיר	-11.3751
▁הקפד	-11.3751
▁לשעה	-11.3751
▁להתרכז	-11.3751
▁‫	-11.3752
▁העסקיים	-11.3752
▁נועז	-11.3753
▁פוסק	-11.3753
▁הטענות	-11.3753
▁מוחזק	-11.3755
▁גולש	-11.3755
▁לעוף	-11.3755
▁המפלגות	-11.3755
▁Your	-11.3756
▁גנרל	-11.3757
▁יומ	-11.376
▁מוזרה	-11.376
▁הנצחי	-11.3762
דפים	-11.3762
▁סון	-11.3763
▁TV	-11.3764
▁ידעתם	-11.3765
▁מ־	-11.3766
▁קיצור	-11.3767
עיון	-11.3767
▁מסרה	-11.3768
▁2016,	-11.3768
ology	-11.3768
▁מוניות	-11.3768
▁Red	-11.3769
▁חיונית	-11.3771
▁ההמונים	-11.3772
▁מכור	-11.3772
▁1949	-11.3774
תגרש	-11.3776
TE	-11.3779
▁הדאפא	-11.3779
▁להבנה	-11.3782
100,000	-11.3787
▁נחקר	-11.3788
▁בסיסית	-11.379
פלסטיני	-11.3791
▁דיג	-11.3792
▁המתכון	-11.3794
▁הכלכליים	-11.3797
▁יושבת	-11.3797
תכנות	-11.3797
▁פשעי	-11.3802
הכנה	-11.3803
▁התרחשה	-11.3804
▁סמי	-11.3804
מעניין	-11.3806
▁בוח	-11.3808
▁הודי	-11.3812
▁הקלאסי	-11.3813
TS	-11.3814
▁מפרט	-11.3818
▁-1	-11.3821
▁מצטערת	-11.3822
▁מתקנ	-11.3822
רכוש	-11.3823
בחינה	-11.3823
נהר	-11.3824
▁אנרגי	-11.3824
▁קה	-11.3825
▁AP	-11.3825
▁ידני	-11.3826
ומנים	-11.3826
▁ian	-11.3826
תמקד	-11.3827
▁ממליצ	-11.3827
▁באירועים	-11.383
▁אלרגי	-11.3836
▁פייר	-11.3836
▁מצוינות	-11.3836
▁מערבי	-11.3836
▁קיימ	-11.3837
▁קנט	-11.3838
▁כשלוש	-11.3839
כוס	-11.3839
▁האזרחית	-11.384
סוחרים	-11.3846
לכי	-11.3847
ניס	-11.3851
אומץ	-11.3853
▁מילר	-11.3853
ous	-11.3855
▁הצרכן	-11.3857
גויים	-11.3858
להתחיל	-11.3859
▁Time	-11.386
▁הבסיסיים	-11.386
▁RE	-11.3861
▁הענ	-11.3864
▁אובייקטים	-11.3866
40	-11.3867
▁תחזית	-11.3867
▁מיס	-11.3867
▁עכשווי	-11.3867
טרמינל	-11.3867
▁מכחיש	-11.3867
▁בברזיל	-11.3867
▁מלמעלה	-11.3868
▁בקצרה	-11.3868
▁איתכם	-11.3869
▁להתייעץ	-11.3869
אייפון	-11.3869
▁שאיבד	-11.3869
▁לטע	-11.387
▁הוזמנ	-11.3871
▁בנפש	-11.3871
▁קונסול	-11.3872
▁בכאב	-11.3873
מינהל	-11.3873
▁עקרוני	-11.3875
פריז	-11.3875
▁כתפי	-11.3876
▁Or	-11.3877
▁חולמים	-11.3877
ness	-11.3878
▁משתפר	-11.3882
▁חשבונ	-11.3882
▁שיקרה	-11.3882
קופסה	-11.3883
▁במסיב	-11.3883
לצבור	-11.3886
▁1939	-11.3888
הפיל	-11.3889
▁רחובות	-11.389
▁המוזר	-11.389
▁דיל	-11.3891
▁הישגים	-11.3892
▁יחל	-11.3892
▁הליכ	-11.3892
▁מנה	-11.3892
▁בונוס	-11.3896
▁העלי	-11.3896
▁הובא	-11.3897
ney	-11.3898
▁מינהל	-11.3899
▁הרגילים	-11.3901
▁התנסו	-11.3902
זיהומים	-11.3902
▁מבתי	-11.3905
▁לזו	-11.3906
▁בשבילנו	-11.3908
▁בהתייחס	-11.3909
▁אחיות	-11.391
▁אריאל	-11.391
▁ברצונ	-11.3913
▁ומערכ	-11.3913
▁פרוס	-11.3913
▁2012,	-11.3913
חישוב	-11.3914
מך	-11.3916
▁חדל	-11.3918
▁1969	-11.3919
▁לארבע	-11.392
▁דיכוי	-11.392
לוות	-11.392
▁שחושב	-11.3923
▁הקשיים	-11.3923
▁אויבים	-11.3928
▁מתוכנן	-11.3929
▁באלימות	-11.3929
▁(3	-11.3931
▁פוקס	-11.3932
▁בלבנון	-11.3935
תזונה	-11.3938
▁חיוביים	-11.3938
▁רחוקה	-11.3939
▁פד	-11.3941
SM	-11.3946
ָב	-11.3946
▁למסקנ	-11.3947
▁לטבע	-11.3947
בורא	-11.3952
▁ברוס	-11.3953
▁גרינ	-11.3953
ND	-11.3954
▁בעיניו	-11.3957
▁מסוק	-11.3958
תמך	-11.396
▁וואו	-11.3962
▁התור	-11.3965
תרגול	-11.3965
▁Vis	-11.3966
עונה	-11.3966
▁בהצהרה	-11.3967
כיבוש	-11.397
▁רומי	-11.397
▁היפו	-11.3971
▁מאוחס	-11.3971
זעם	-11.3971
▁רס	-11.3972
▁התקדמ	-11.3974
בלוג	-11.3975
מכירת	-11.3977
▁ציות	-11.3977
▁הגדיר	-11.3978
▁הנדל	-11.3979
▁בכיכר	-11.3979
השפעת	-11.3983
▁בכול	-11.3984
▁משלח	-11.3986
▁1941	-11.3986
▁במוסקבה	-11.3986
רזולוצי	-11.3986
▁לקריאה	-11.3986
▁בפומבי	-11.3986
▁להאזין	-11.3986
▁Black	-11.3986
▁המגורים	-11.3987
▁הבשורה	-11.3987
▁תיכוני	-11.3987
▁נלך	-11.3987
קרב	-11.3987
▁לתוקף	-11.3987
סאונד	-11.3987
מועדף	-11.3988
▁ערובה	-11.3988
▁טועים	-11.3989
▁Inter	-11.3989
▁הרומא	-11.3989
▁חשפ	-11.3989
▁ומספק	-11.3989
▁מוזכר	-11.399
▁השדרה	-11.399
▁נלחמים	-11.3991
▁מלכת	-11.3991
ba	-11.3992
▁קתולי	-11.3992
▁הראיון	-11.3992
▁לכול	-11.3993
הדפיס	-11.3993
▁הפוטנציאלי	-11.3993
התעלות	-11.3994
▁באמנות	-11.3995
▁נגיד	-11.3996
▁גרועים	-11.3996
גלגול	-11.3997
▁זמנו	-11.3998
ציג	-11.3998
▁ממי	-11.3999
▁קפוא	-11.4
▁ההווה	-11.4002
▁קווים	-11.4003
▁פילוסופיה	-11.4004
ירא	-11.4005
▁הגדיל	-11.4006
▁מופר	-11.4007
▁החכם	-11.4007
▁זעם	-11.4008
▁2011,	-11.4008
כותל	-11.4009
▁האישור	-11.4009
▁נקמה	-11.401
▁יקרות	-11.401
▁המתאימים	-11.4013
עונש	-11.4015
▁ממד	-11.4015
▁הרישום	-11.4017
▁מנותק	-11.4018
אחזור	-11.4019
▁תשל	-11.4023
▁הרעש	-11.4023
▁באיזור	-11.4025
▁חשמלית	-11.4025
▁לילי	-11.4026
▁<	-11.4028
▁הלשון	-11.4028
דמיינו	-11.4029
▁לתשומת	-11.4031
▁נזכרת	-11.4032
▁לשאו	-11.4032
▁Ar	-11.4034
לבנות	-11.4036
▁לבב	-11.4042
▁חשבה	-11.4043
דינמיקה	-11.4044
▁בורא	-11.4044
▁הזרע	-11.4045
▁הנס	-11.4046
▁חפץ	-11.4047
▁יעזרו	-11.4047
▁שגדל	-11.4049
▁והשני	-11.4053
▁עוף	-11.4054
▁ויעיל	-11.4056
▁טונ	-11.4056
כישלון	-11.4057
▁ההפרדה	-11.4058
מקבל	-11.406
▁מושגים	-11.406
מלונות	-11.4062
▁מחוסר	-11.4066
▁שערים	-11.4067
▁נטיל	-11.4067
דעתי	-11.4068
▁צמחוני	-11.4068
▁age	-11.4069
▁רחמים	-11.4073
▁לכפר	-11.4073
עזור	-11.4073
חפש	-11.4075
▁שלווה	-11.4076
▁בגופ	-11.4078
▁אכלו	-11.4082
▁חלפו	-11.4082
per	-11.4085
תמודד	-11.4085
▁Fe	-11.4087
חיזוק	-11.4087
יכון	-11.4088
▁בגב	-11.409
זבל	-11.4091
יהלומים	-11.4091
▁קדומ	-11.4091
▁אדיש	-11.4091
▁הלאומיים	-11.4093
▁לדרג	-11.4096
הגדרות	-11.4097
▁לממשל	-11.4099
▁לדור	-11.41
חיים	-11.4101
▁ליבה	-11.4102
▁מבוא	-11.4105
▁אבני	-11.4106
▁בדרכי	-11.4106
▁1972	-11.4107
▁קוגניטיבי	-11.4107
רגולציה	-11.4107
▁המוצלח	-11.4107
▁חקירת	-11.4107
▁היוקרתי	-11.4107
▁תאונה	-11.4107
▁מאוכזב	-11.4107
▁אישום	-11.4107
▁מאכזב	-11.4107
היצע	-11.4107
▁SEO	-11.4108
▁עדכני	-11.4108
▁אוסלו	-11.4108
▁המושלמת	-11.4108
▁הדעות	-11.4109
▁אימוץ	-11.411
▁App	-11.411
▁מונעת	-11.411
▁משדר	-11.411
▁התאונה	-11.4111
▁מליון	-11.4111
▁מעיל	-11.4111
▁לחשב	-11.4111
סיווג	-11.4111
▁תעבור	-11.4111
▁בחלקים	-11.4111
▁הצלת	-11.4111
▁שנולדו	-11.4111
שוער	-11.4112
קמפוס	-11.4113
יזון	-11.4113
▁פיקוד	-11.4117
▁שהצליח	-11.4117
man	-11.4118
▁מזוהה	-11.4118
▁הסוגים	-11.4119
▁רעבים	-11.4119
▁הדובר	-11.4121
af	-11.4122
אווה	-11.4122
אומנות	-11.4122
חליפה	-11.4124
▁קדם	-11.4124
סדנאות	-11.4127
▁הבטוח	-11.4128
▁UN	-11.4128
הפגנה	-11.413
▁Gu	-11.4132
▁בהסכמ	-11.4133
▁הפנימיים	-11.4137
▁הועל	-11.4138
▁שכתבתי	-11.4138
▁שעשינו	-11.4144
▁כבישים	-11.4147
▁פיצה	-11.415
▁ושאל	-11.4153
חלפה	-11.4153
▁יפתח	-11.4156
▁תאמר	-11.4156
▁שנחשב	-11.4157
▁פלוס	-11.4158
נסיך	-11.4158
▁ויטמינים	-11.416
▁שריד	-11.416
ארמון	-11.4161
▁שינויי	-11.4161
וֹל	-11.4164
נספור	-11.4168
▁לגו	-11.4168
BBC	-11.4169
▁דוחות	-11.4171
▁מיסים	-11.4172
▁ברבר	-11.4172
אופי	-11.4173
▁תיקונים	-11.4174
ליק	-11.418
מהלכ	-11.4181
▁קיימא	-11.4182
דיבור	-11.4182
▁סבו	-11.4185
▁מוגבלים	-11.4186
▁האיראנית	-11.4186
▁ברכבת	-11.4188
▁בכפו	-11.419
נני	-11.419
▁הצופים	-11.419
▁car	-11.4192
▁סטים	-11.4196
▁מסורתיים	-11.4197
▁מושבים	-11.4198
ושלם	-11.4199
אבולוציה	-11.4201
▁לשר	-11.4201
▁הבהר	-11.4206
▁מדרגות	-11.4206
▁להנות	-11.4207
שנאה	-11.4207
▁כלכליות	-11.421
▁מעונ	-11.4211
▁מוזיאונים	-11.4212
▁קרס	-11.4212
וביל	-11.4217
▁נסיג	-11.4218
שפע	-11.4225
▁אינדי	-11.4227
▁מתמטי	-11.4228
▁לכלל	-11.4228
▁אינטראקטיבי	-11.4229
▁John	-11.4229
▁Outlook	-11.4229
▁מההתחלה	-11.4229
צק	-11.4229
▁הפלשתיני	-11.4229
▁הוענק	-11.4229
▁השוואת	-11.4229
▁העצמאי	-11.4229
▁הפסוק	-11.4229
▁מאשימ	-11.4229
▁מעשנים	-11.4229
▁בלגיה	-11.4229
▁1960	-11.423
▁הסוללה	-11.423
▁וטיפול	-11.423
▁היוצא	-11.423
▁הדיאטה	-11.4231
▁Out	-11.4232
▁משפטיות	-11.4233
▁עקר	-11.4235
-400	-11.4235
▁המטען	-11.4236
▁ברונ	-11.4237
▁אמיץ	-11.4238
זירת	-11.4239
חרדה	-11.4239
▁ממהר	-11.4239
▁לשחות	-11.4239
▁קודמת	-11.424
▁תזכור	-11.4243
▁לוחם	-11.4244
מָ	-11.4246
זנב	-11.4246
▁ייכנס	-11.4246
▁רול	-11.4247
סרט	-11.4247
▁בלחץ	-11.4248
▁הכתובת	-11.4248
mm	-11.4249
▁החודשי	-11.425
קדם	-11.4253
▁משיג	-11.4254
▁סניפ	-11.4254
▁מטל	-11.4255
בוד	-11.4259
▁גרי	-11.4261
▁דפוסי	-11.4263
▁הרגילה	-11.4263
▁1983	-11.4264
▁תודעת	-11.4265
▁ההיגיון	-11.4266
▁אציל	-11.4269
▁יישומי	-11.4272
▁נתח	-11.4272
▁מפחית	-11.4272
▁ההיסטורית	-11.4276
▁מתקדמות	-11.4279
▁לסיכום	-11.428
אֵל	-11.4284
▁פרסי	-11.4286
תפלל	-11.4286
▁חמורים	-11.4288
▁25%	-11.4288
▁סכסוכים	-11.4291
▁הסובב	-11.4291
▁לצפייה	-11.4292
ידוע	-11.4294
▁מדעיים	-11.4295
זכויות	-11.4295
עדכן	-11.4299
▁קנס	-11.43
ברכה	-11.43
▁3,000	-11.43
▁המציג	-11.4301
▁der	-11.4302
▁מבשר	-11.4303
▁מיט	-11.4304
שיג	-11.4304
▁רגילות	-11.4307
▁לתיקון	-11.4308
▁הדיווחים	-11.4308
רוסי	-11.4312
▁מכות	-11.4312
▁הרצאות	-11.4314
מנעו	-11.4315
שגרירות	-11.4317
שלם	-11.4319
תחילת	-11.4319
ON	-11.4321
▁קופס	-11.4322
וויט	-11.4323
▁מצבי	-11.4324
ניסינו	-11.4325
▁הגילאים	-11.4326
▁הכרטיסים	-11.4328
▁5:	-11.4328
▁הורמו	-11.4328
צתה	-11.4331
▁Thi	-11.4331
▁סחורות	-11.4332
▁הוריהם	-11.4332
▁מתמטיקה	-11.4332
▁המבוגרים	-11.4336
▁מסעות	-11.4339
▁הגבלות	-11.4339
▁בתכנון	-11.434
▁צבי	-11.4342
טופס	-11.4347
▁מייג	-11.4347
יצירות	-11.4348
חנויות	-11.4349
▁ערכת	-11.4349
▁אגרסיבי	-11.4352
▁במקסיקו	-11.4352
▁הפיגוע	-11.4352
▁החושך	-11.4352
▁עינויים	-11.4352
▁התקיפה	-11.4352
▁הגובר	-11.4352
▁Blue	-11.4353
▁חתמו	-11.4353
הפרעות	-11.4353
▁CBD	-11.4353
▁החירום	-11.4353
מתנה	-11.4353
▁הנתיב	-11.4353
▁למחלה	-11.4354
▁שנשלח	-11.4355
▁המחמד	-11.4355
▁מלפני	-11.4355
▁ויקטוריה	-11.4356
▁להתקבל	-11.4357
התייצב	-11.4357
▁התפטר	-11.4357
ame	-11.4358
הכנת	-11.436
בשל	-11.4361
▁וירג	-11.4361
מרפסת	-11.4361
הזיז	-11.4362
▁המסייע	-11.4363
דווח	-11.4364
מלווים	-11.4364
▁תרש	-11.4365
▁מאחד	-11.4365
קיבוץ	-11.4366
▁בטן	-11.4366
מכונה	-11.4367
▁יחליט	-11.4371
▁בנקאי	-11.4372
▁ענו	-11.4377
▁חיפה	-11.4379
▁ישראליות	-11.438
▁לוחמי	-11.438
▁אנושיות	-11.4383
▁Tre	-11.4384
EM	-11.4385
▁SA	-11.4392
ּוּ	-11.4398
▁היעיל	-11.4399
▁שליליים	-11.4399
▁תפתח	-11.4399
▁1977	-11.4401
▁חשמליים	-11.4403
▁ודם	-11.4405
▁נרשמו	-11.4406
▁החד	-11.4408
▁יפו	-11.441
▁נברא	-11.441
▁משלימ	-11.4413
▁התקנת	-11.4413
▁התיאור	-11.4414
▁מתפללים	-11.4415
▁ויקיפדיה	-11.4415
▁הפרוייקט	-11.4415
▁ant	-11.4416
▁שכתוב	-11.4417
▁מצהיר	-11.4418
PE	-11.4418
▁ידידות	-11.4418
▁השגריר	-11.4421
▁התאהב	-11.4423
▁שירי	-11.4425
▁טאי	-11.4425
רגיש	-11.4428
▁מנתח	-11.4431
▁חונ	-11.4431
החמיר	-11.4432
▁הסול	-11.4434
▁לקוי	-11.4435
▁עמות	-11.4435
▁בסרטים	-11.4436
▁VPN	-11.4437
▁חולצה	-11.4438
▁מיניות	-11.4439
גמול	-11.4439
חיקת	-11.4442
▁לפרש	-11.4444
ערוב	-11.4444
▁לחופשה	-11.4445
▁הבכור	-11.4445
פרץ	-11.4448
▁שחר	-11.4448
▁הפרטיים	-11.4449
הסרת	-11.4452
▁האגם	-11.4453
שהות	-11.4453
▁ST	-11.4455
hen	-11.4458
▁כלול	-11.4463
מאמנים	-11.4464
▁הרובוט	-11.4464
▁עתיר	-11.4465
▁זיהו	-11.4466
▁אשמת	-11.4466
וירוס	-11.4466
▁המשמעותי	-11.4466
פרלמנט	-11.4467
▁בסופ	-11.4467
נסח	-11.447
תווך	-11.447
▁כבדים	-11.4472
▁הטע	-11.4474
▁Good	-11.4477
▁המבוקש	-11.4477
תחמושת	-11.4477
▁[8]	-11.4477
▁לשבוע	-11.4477
▁בבריאות	-11.4477
▁בתחתית	-11.4477
▁זקנים	-11.4477
▁האבטלה	-11.4477
▁מפלצת	-11.4477
▁הנאשם	-11.4477
התעסק	-11.4477
▁שורשי	-11.4477
אתיופיה	-11.4478
▁הליבה	-11.4478
-2010	-11.4478
▁רנ	-11.4479
חשבונות	-11.4479
▁שמיעה	-11.4479
▁התאגיד	-11.448
סלול	-11.448
▁כפופ	-11.448
{\	-11.4481
▁תצא	-11.4481
▁להשתפר	-11.4481
▁הסתם	-11.4482
▁לקוות	-11.4482
▁מענק	-11.4482
▁להיט	-11.4482
▁פשט	-11.4483
▁חצות	-11.4484
▁מיהר	-11.4486
▁הושק	-11.4488
▁יורה	-11.4489
▁עקבות	-11.449
▁ביתר	-11.449
▁עתידיים	-11.4492
בסוף	-11.4493
נוהל	-11.4493
OP	-11.4493
▁ותרבות	-11.4494
▁יבחר	-11.4494
▁ענתה	-11.4494
▁מאס	-11.4495
▁נפטרה	-11.4501
▁לביתו	-11.4502
התגלות	-11.4502
▁מאפייני	-11.4503
▁מואר	-11.4504
▁קורות	-11.4506
ינגטון	-11.4506
▁עניינ	-11.4506
▁המשלוח	-11.4507
▁עליון	-11.451
▁קנאה	-11.4511
▁קנא	-11.4512
▁לגילוי	-11.4513
▁צאצא	-11.4516
▁עיקר	-11.4517
▁בידור	-11.4517
▁מינוי	-11.4519
▁בחוף	-11.4522
▁לחוף	-11.4526
אבנים	-11.4526
מיני	-11.4527
▁שתעש	-11.4528
▁אי־	-11.4529
כאב	-11.4532
▁הכיוון	-11.4534
▁רופ	-11.4534
▁פתוחות	-11.4535
▁שדיבר	-11.4537
▁תובנות	-11.4537
▁רוסים	-11.4537
▁קארי	-11.4537
▁דונ	-11.454
▁לייזר	-11.454
▁הבני	-11.454
▁מקומו	-11.4541
▁נוחים	-11.4541
▁נבוא	-11.4543
▁קרובי	-11.4544
▁תשובת	-11.4545
▁בכור	-11.4548
▁הסכמי	-11.4549
▁ואמרה	-11.455
שאלו	-11.4551
▁לשכב	-11.4552
▁רוחב	-11.4553
▁הירידה	-11.4554
נתוני	-11.4556
▁זיו	-11.4556
▁אלון	-11.4556
▁שבאו	-11.4559
▁במראה	-11.4562
▁לחשבון	-11.4563
▁העדר	-11.4567
▁מחודש	-11.4569
den	-11.4569
▁קנית	-11.457
▁וזכ	-11.457
▁הודיעו	-11.4571
▁משיכ	-11.4572
בעד	-11.4574
▁מותק	-11.4575
דעה	-11.4576
אסונות	-11.4577
▁הולם	-11.4579
▁במדעי	-11.4579
▁סצנ	-11.458
▁טבל	-11.4581
▁יוצאי	-11.4582
▁איור	-11.4583
▁הצמחים	-11.4583
▁להצי	-11.4587
חשאי	-11.459
אפר	-11.4591
▁בדיוני	-11.4595
▁עברית	-11.4595
פקודה	-11.4596
▁SE	-11.4596
▁הרף	-11.4597
להשתמש	-11.4597
▁העמיד	-11.46
▁חלמת	-11.46
▁הארצי	-11.4601
רצוני	-11.4602
▁1947	-11.4604
▁התסריט	-11.4604
▁מסויימים	-11.4604
▁הנפוץ	-11.4604
▁בפעילויות	-11.4604
▁ההיריון	-11.4604
▁סלולרי	-11.4604
▁החינוכי	-11.4604
▁שעוסק	-11.4604
▁איזשה	-11.4604
▁מורחב	-11.4604
▁Skype	-11.4604
▁שיקגו	-11.4604
▁במחלה	-11.4604
▁הצהוב	-11.4604
גיהנום	-11.4604
▁בזרוע	-11.4604
▁בהגנה	-11.4604
▁החיסוני	-11.4604
▁לשולחן	-11.4604
▁שמשתמש	-11.4604
▁אקולוגי	-11.4605
▁פיזיולוגי	-11.4605
▁נתונה	-11.4605
▁הסב	-11.4605
▁היישוב	-11.4605
▁הקלעים	-11.4605
▁לנפש	-11.4606
▁Night	-11.4606
▁לתפקד	-11.4606
▁המורדים	-11.4607
▁עסוקים	-11.4608
ארלי	-11.4608
▁מוגנים	-11.4608
▁המכריע	-11.4608
ren	-11.461
▁רווי	-11.4612
▁הרווחה	-11.4612
sion	-11.4612
▁דוק	-11.4613
▁נצר	-11.4613
אלד	-11.4614
▁360	-11.4614
▁פדרלי	-11.4614
▁משרה	-11.4615
▁בסקר	-11.4616
▁הבודה	-11.4617
כיכר	-11.4622
▁בטוויטר	-11.4622
▁מזינ	-11.4623
▁לחייך	-11.4625
קניון	-11.4625
▁86	-11.4628
▁בטכנולוגי	-11.4629
aw	-11.463
▁המוסר	-11.463
▁שלטונו	-11.4634
▁קרדיט	-11.4635
▁המסים	-11.4636
▁הרגלי	-11.4638
▁הרכוש	-11.4639
▁שנפל	-11.464
פסגה	-11.464
התנהלות	-11.4641
▁1981	-11.4641
לפתח	-11.4642
מייל	-11.4644
▁המקרא	-11.4645
סכים	-11.4646
פרסמו	-11.4647
▁המסכ	-11.4647
▁לבנק	-11.4647
▁עיתונים	-11.4648
ark	-11.465
▁שהחבר	-11.465
יזי	-11.465
▁תשמע	-11.465
▁הגילוי	-11.4651
▁רצופ	-11.4652
▁בכיס	-11.4652
התלהבות	-11.4653
▁השלט	-11.4656
▁לצרפת	-11.4657
הותיר	-11.4657
▁המרד	-11.4658
▁אמנותי	-11.4658
▁הניחו	-11.4661
▁העלויות	-11.4661
thing	-11.4661
▁שליט	-11.4663
▁מרגיע	-11.4664
▁תעמול	-11.4665
▁מגב	-11.4668
▁הונאה	-11.4669
▁לספור	-11.467
▁הוכחות	-11.4671
וֹת	-11.4672
▁הדרכ	-11.4672
▁לרשויות	-11.4673
▁המחוזי	-11.4673
▁יפגע	-11.4676
▁בלבול	-11.4677
▁זכאים	-11.4678
▁ההתנחלויות	-11.4678
מוטט	-11.4678
שונה	-11.4678
רובע	-11.468
bu	-11.4681
▁יצירתית	-11.4685
▁בקיר	-11.4687
ּר	-11.4691
פרק	-11.4691
▁צילומי	-11.4691
▁הרומית	-11.4693
▁ate	-11.4694
▁השחקני	-11.4694
ושלת	-11.4695
▁לבנו	-11.4696
▁במחלק	-11.4696
גדיל	-11.4697
▁אנס	-11.4698
▁ואלו	-11.4698
באתי	-11.4699
נסיעה	-11.47
▁בבעלי	-11.47
▁האיומים	-11.4701
▁הפיננסית	-11.4702
▁(4	-11.4702
בטוח	-11.4702
▁לעכשיו	-11.4702
▁הפקולט	-11.4703
▁וחמש	-11.4703
זכייה	-11.4704
▁לקלו	-11.4706
תפילה	-11.4706
אשר	-11.4706
גופם	-11.4706
▁תקיפ	-11.4707
▁נפרדות	-11.4707
TC	-11.4707
ברור	-11.4708
פצל	-11.471
שגרה	-11.4711
ong	-11.4712
תכנון	-11.4712
▁ממציא	-11.4714
סתיימו	-11.4716
▁משכורת	-11.4717
*	-11.4719
מסגד	-11.4721
▁שכבת	-11.4721
עמותה	-11.4721
▁נופלים	-11.4722
קריאת	-11.4722
תכלית	-11.4723
za	-11.4724
▁שריר	-11.4724
▁שחייב	-11.4726
▁האסלאמי	-11.4727
▁האמצעי	-11.4728
▁הסכימה	-11.4732
▁לינקולן	-11.4732
▁חכמת	-11.4732
▁העדכני	-11.4732
▁מיוצג	-11.4732
▁במשימה	-11.4732
▁ההימור	-11.4732
▁1917	-11.4732
▁היווצרות	-11.4732
▁ההסכמ	-11.4733
▁לשלו	-11.4733
▁התחייבויות	-11.4733
▁הקבצים	-11.4734
▁צמיחת	-11.4734
▁המלאכים	-11.4734
▁בגדול	-11.4735
▁אנטוני	-11.4735
▁טניס	-11.4735
▁שמוביל	-11.4735
▁תירוץ	-11.4735
▁במכלל	-11.4735
▁שווא	-11.4735
סיפון	-11.4736
▁היוונית	-11.4736
▁איזור	-11.4736
▁להתאהב	-11.4738
▁האיסור	-11.4738
▁שקע	-11.4739
▁המייצג	-11.4739
הסתתר	-11.4741
דבורים	-11.4741
▁בוסטון	-11.4742
▁פסנתר	-11.4742
▁AT	-11.4744
▁מילי	-11.4744
תוקפנות	-11.4744
▁50,000	-11.4745
gi	-11.4745
▁חתם	-11.4745
▁למס	-11.4745
▁רווחת	-11.4746
▁השלג	-11.4746
▁לחנות	-11.4747
▁הסמים	-11.4748
▁תבל	-11.4749
▁הנקודות	-11.4752
▁הנדרשת	-11.4753
רפיה	-11.4753
▁חיזוק	-11.4753
▁רחל	-11.4754
▁רוי	-11.4754
סצנה	-11.4758
▁שמצא	-11.4758
▁המלאך	-11.4759
היינו	-11.4759
תבלבל	-11.476
▁צייד	-11.4762
▁לדרום	-11.4763
▁אלקטרו	-11.4763
▁שרידי	-11.4763
▁Bar	-11.4763
▁אמות	-11.4766
▁האצבע	-11.4767
ארכיטקטור	-11.477
▁כשיר	-11.477
▁הניתנ	-11.4772
מדפסת	-11.4773
▁בחרה	-11.4774
▁מיליארדי	-11.4774
▁מרב	-11.4777
מקדם	-11.4778
▁העימות	-11.4778
נגר	-11.4779
עובדים	-11.4779
▁האנטישמיות	-11.4781
▁1982	-11.4781
חנה	-11.4781
▁הרוק	-11.4783
▁דבי	-11.4784
▁לזוז	-11.4786
▁טיפל	-11.4788
ויסקי	-11.4789
▁פולני	-11.479
▁וטכנולוגיה	-11.4791
▁מוגברת	-11.4792
▁הדגמ	-11.4792
▁תשובתי	-11.4793
▁ביממה	-11.4795
קצין	-11.4796
מודע	-11.4796
באים	-11.4799
▁מוריס	-11.4799
▁איבדתי	-11.48
▁המעט	-11.4804
▁שוכח	-11.4804
ug	-11.4805
▁סריק	-11.4807
▁גוד	-11.4807
▁בסבלנות	-11.4807
▁הפגנות	-11.4809
▁יעדי	-11.481
משבר	-11.4812
▁pl	-11.4812
יישב	-11.4814
▁זית	-11.4815
תפוצץ	-11.4815
בידוד	-11.4816
▁כביסה	-11.4817
▁שולל	-11.4819
▁סרב	-11.4824
▁ענפ	-11.4824
▁63	-11.4826
נקודות	-11.4827
▁לסוגי	-11.4829
▁גיי	-11.483
▁בכנסת	-11.4831
ריע	-11.4831
מסמכים	-11.4832
עצמאות	-11.4832
▁המלכותית	-11.4833
מכונות	-11.4835
טכנולוגיה	-11.4835
▁אחוזי	-11.4836
חליט	-11.4838
▁התבסס	-11.484
▁במשטרה	-11.4841
45	-11.4842
▁(6	-11.4842
יתוק	-11.4843
הרגו	-11.4843
ממלכה	-11.4843
▁פתחו	-11.4845
▁תדעו	-11.4848
▁תלות	-11.4849
▁2017)	-11.4849
▁עולמ	-11.4851
פסנתר	-11.4851
‬	-11.4852
תנועת	-11.4856
ניטור	-11.4857
▁שרדו	-11.4859
▁מזד	-11.486
▁Center	-11.4862
▁בעצמנו	-11.4862
▁ההגעה	-11.4862
▁לעיצוב	-11.4862
▁אסלאמי	-11.4862
▁ארוכת	-11.4862
▁שהוצג	-11.4862
▁המארח	-11.4862
▁איינשטיין	-11.4862
▁מעניינות	-11.4862
▁לטעום	-11.4863
▁הדיסק	-11.4863
▁מוטרד	-11.4864
נפח	-11.4865
▁בתואר	-11.4866
▁במכתב	-11.4866
וגרפיה	-11.4867
קיבולת	-11.4867
▁להיווצר	-11.4867
▁מוחשי	-11.4868
▁השמחה	-11.4869
▁השבעים	-11.487
ְךָ	-11.4872
▁ישתנה	-11.4872
▁קובה	-11.4872
▁כריש	-11.4873
▁אחריהם	-11.4873
▁בדואר	-11.4874
▁נופ	-11.4874
▁אסתטי	-11.4876
▁Col	-11.4877
שחקנים	-11.4878
▁למוח	-11.4879
▁79	-11.4883
▁Sch	-11.4884
▁כדבר	-11.4884
אראה	-11.4886
▁מלאכים	-11.4888
▁מעיר	-11.4889
▁יוסי	-11.489
▁עגל	-11.4892
▁למטופל	-11.4893
▁חושך	-11.4893
מלכודת	-11.4894
▁דיק	-11.4896
▁חצו	-11.4896
עניינו	-11.4897
קודם	-11.4897
▁סרג	-11.4897
מכור	-11.49
▁שהממשלה	-11.49
נשיא	-11.49
וקף	-11.4901
▁וכלי	-11.4901
▁דרו	-11.4902
▁הסגל	-11.4902
▁פרה	-11.4903
מחי	-11.4904
תבגר	-11.4904
▁מקדיש	-11.4905
▁אופטימלי	-11.4906
▁דעתם	-11.4908
▁Get	-11.4911
▁להערכת	-11.4913
▁פניי	-11.4913
מבורג	-11.4913
חשד	-11.4914
▁הגיש	-11.4915
▁מהילדים	-11.4917
▁ירה	-11.4921
▁ואמרו	-11.4923
▁מתוח	-11.4924
▁לזכר	-11.4925
▁יצירתיים	-11.4926
▁לגרמניה	-11.4927
▁עתיקים	-11.4928
▁משלושה	-11.493
▁פציעות	-11.493
דלקת	-11.493
▁חוקתי	-11.4933
TR	-11.4933
▁המגרש	-11.4933
▁הפינ	-11.4937
אליו	-11.4939
נקציות	-11.4941
▁המונית	-11.4943
▁שוודיה	-11.4944
▁Ex	-11.4945
▁תפריט	-11.4946
▁ישמש	-11.4946
▁לגובה	-11.495
מועד	-11.4952
▁מאור	-11.4955
▁חסכו	-11.4958
▁נשואה	-11.4958
▁רובין	-11.4959
▁מצעד	-11.496
▁שקורא	-11.496
▁האהובה	-11.496
נינג	-11.4961
▁che	-11.4967
▁מכשול	-11.4967
▁est	-11.4967
▁Pe	-11.4968
▁הבריאותי	-11.4971
▁בפוסט	-11.4973
▁צבאיות	-11.4978
▁תפוחי	-11.498
גנות	-11.498
▁שתרצ	-11.4985
הפגנות	-11.4985
למצוא	-11.4986
▁דתיות	-11.4986
טופי	-11.4988
hy	-11.4988
▁בחנו	-11.4989
ary	-11.499
להקטין	-11.499
סתפק	-11.4993
-2013	-11.4993
▁1964	-11.4993
▁1978	-11.4993
▁Group	-11.4993
▁House	-11.4993
▁להצדיק	-11.4993
▁לאנרגיה	-11.4993
▁הפתעות	-11.4993
▁מוסמכ	-11.4993
▁רומניה	-11.4993
▁אסטרונומי	-11.4993
▁בתקיפ	-11.4993
▁בבעיה	-11.4994
▁נמדד	-11.4994
▁ביקוש	-11.4994
מבט	-11.4994
כגון	-11.4994
▁לחיצה	-11.4995
▁בתיכון	-11.4995
▁post	-11.4995
פאניקה	-11.4996
▁מעכב	-11.4996
שריפה	-11.4996
▁ניקיון	-11.4996
▁החומה	-11.4997
▁משולש	-11.4997
▁סכין	-11.4998
▁אחמד	-11.4998
▁הציונות	-11.4999
כהונה	-11.5
זכיר	-11.5
▁בתיאור	-11.5
▁פרישה	-11.5
▁להפגין	-11.5002
▁הזרם	-11.5003
▁חשופ	-11.5003
צדדי	-11.5004
בריטניה	-11.5006
▁הנחש	-11.5007
▁עפר	-11.5007
ךְ	-11.5009
▁ליבו	-11.5009
▁המפיק	-11.5009
▁מתקפה	-11.5012
▁שפורסמו	-11.5012
▁בפסטיבל	-11.5015
▁כדורי	-11.5015
▁ניגוד	-11.5015
ze	-11.5016
▁מעבדה	-11.5016
מחשב	-11.5017
▁האצ	-11.5017
▁92	-11.5017
▁הרעל	-11.5018
▁בסרטון	-11.5019
▁המדד	-11.5019
▁הרושם	-11.502
▁1958	-11.5023
▁לאומיות	-11.5026
סוציאליזם	-11.5027
התכוון	-11.5027
▁הדורש	-11.5028
▁אלטרנטיבי	-11.503
▁up	-11.503
▁באמצעי	-11.503
▁יפסיק	-11.503
▁נפלה	-11.5031
▁קריס	-11.5031
▁יריד	-11.5032
▁איברים	-11.5033
▁שדבר	-11.5034
פרצוף	-11.5036
▁שבחר	-11.5037
▁הקפיד	-11.5038
מרתון	-11.5043
▁שורד	-11.5044
other	-11.5045
▁we	-11.5047
▁האמא	-11.5052
דכא	-11.5053
▁מבשל	-11.5054
▁סיגריה	-11.5059
▁נכתבו	-11.5064
▁מריח	-11.5066
▁דייג	-11.5066
מחלקה	-11.5068
▁לשכת	-11.5069
▁סמלי	-11.507
מסע	-11.5071
▁החופשית	-11.5071
▁LA	-11.5071
מוד	-11.5073
▁הקצה	-11.5073
גביר	-11.5074
▁החשיפה	-11.5075
הנחיות	-11.5079
סכם	-11.5079
▁בעסקים	-11.5081
▁סטנדרט	-11.5082
▁מכאב	-11.5083
דיחות	-11.5084
▁מאלוהים	-11.5085
▁מוגש	-11.5086
▁פירוק	-11.5087
▁.....	-11.5087
שתתף	-11.5088
▁אלטרנטיב	-11.509
▁האצבעות	-11.5091
▁סיכויי	-11.5091
▁מאט	-11.5091
▁כימיה	-11.5096
מילון	-11.5099
▁הזולת	-11.5101
▁נסי	-11.5103
▁מתנדב	-11.5104
▁המגע	-11.5104
▁מותיר	-11.5104
הצעה	-11.5105
▁מסלולי	-11.5108
▁2.1	-11.5112
אטלנטי	-11.5112
▁היפנית	-11.5114
▁הציפורים	-11.5114
▁קטעי	-11.5114
▁פגו	-11.5116
▁נדון	-11.5116
▁לעונה	-11.5116
תשתיות	-11.5121
תנועות	-11.5121
אימא	-11.5121
קהילת	-11.5125
▁פסג	-11.5126
▁ADHD	-11.5127
▁הבקבוק	-11.5127
▁הדיפלומטי	-11.5127
▁כולסטרול	-11.5127
סיליקון	-11.5127
▁הטבות	-11.5127
▁החיוך	-11.5127
▁הסוהר	-11.5127
▁העולמות	-11.5127
▁פטרו	-11.5128
▁כלשהם	-11.5128
▁ראיית	-11.5128
▁פסיבי	-11.5128
▁לאהבה	-11.513
▁West	-11.5132
▁הצוואר	-11.5132
▁הבטחות	-11.5134
▁גוט	-11.5134
▁מתפשט	-11.5134
▁מאפיי	-11.5135
▁רוחניות	-11.5137
▁סופרמן	-11.5137
פעמים	-11.5138
▁יחזרו	-11.5138
תגלית	-11.5139
נבחרת	-11.5139
▁יורים	-11.514
▁מציד	-11.5141
▁פקודה	-11.5141
▁הפוכ	-11.5142
▁לבטח	-11.5144
ילדיכם	-11.5145
▁אינץ	-11.5146
מבל	-11.5147
▁Ri	-11.5149
▁שראו	-11.515
ראיות	-11.5154
▁הופק	-11.5159
▁ספג	-11.5159
קנדה	-11.5162
▁הפסיכולוגי	-11.5163
▁הלבנה	-11.5164
▁היגיון	-11.5165
▁נבחרים	-11.5165
▁שנמצאו	-11.5167
▁אנטישמי	-11.5167
רומם	-11.5167
▁שגורמ	-11.5168
▁פרסומות	-11.5168
▁הקרה	-11.5171
▁ממילא	-11.5181
▁לשבח	-11.5182
נידון	-11.5182
ׂ	-11.5186
▁מתוחכמ	-11.5187
▁שקיימת	-11.5187
▁אסטרטגיי	-11.5188
▁בתנ	-11.5189
אומן	-11.5189
טסטו	-11.5191
▁הנאום	-11.5191
▁אקדמית	-11.5191
▁אכזבה	-11.5192
הקלטות	-11.5196
הנשיא	-11.5198
דבר	-11.5198
▁ציוו	-11.5201
החלטה	-11.5201
▁גירס	-11.5203
שורת	-11.5204
▁900	-11.5205
▁מתלוננים	-11.5206
הטכנולוגיה	-11.5209
▁החרדי	-11.5218
▁ילדיו	-11.5219
הצגה	-11.522
צורכי	-11.522
▁מוצלחים	-11.5221
▁הארגוני	-11.5222
סיור	-11.5224
נופש	-11.5228
לשכה	-11.5229
▁2018)	-11.523
פלט	-11.5231
צעק	-11.5234
▁הסיסמה	-11.5239
▁הטכנולוגיות	-11.524
▁למזרח	-11.5241
▁נחר	-11.5241
קונים	-11.5243
▁כשנה	-11.5247
▁אוקיי	-11.5248
▁בקמפוס	-11.5252
כאיב	-11.5253
OS	-11.5256
תפילות	-11.5257
אוכלוסיית	-11.5257
עוצמת	-11.5257
▁CD	-11.5259
▁הממוק	-11.526
▁מגורי	-11.526
▁Adobe	-11.5262
▁הקואליציה	-11.5262
▁נפוליאון	-11.5262
פשיעה	-11.5262
▁[9]	-11.5262
▁נפוצים	-11.5262
▁Excel	-11.5262
▁בעיצומ	-11.5262
▁פוליטיקאי	-11.5262
▁לתמונה	-11.5262
▁בשיטת	-11.5262
▁וכדומה	-11.5262
▁משתפים	-11.5263
▁שטוח	-11.5264
▁בספורט	-11.5264
▁בפשטות	-11.5264
גוני	-11.5265
▁שמתחיל	-11.5266
▁נהוג	-11.5266
▁משופר	-11.5266
▁חרקים	-11.5266
▁לנשק	-11.5266
▁הרחם	-11.5267
▁שוויץ	-11.5267
▁העבודות	-11.5267
▁השביל	-11.5268
מהפכה	-11.5269
להגיע	-11.5269
▁רדו	-11.527
▁שוטפ	-11.5272
▁הבחורה	-11.5272
▁מרחיק	-11.5273
▁האופל	-11.5274
▁לעולמ	-11.5276
▁הורמונ	-11.5276
▁האסון	-11.5277
▁אינטל	-11.5277
▁יליד	-11.5278
▁ההורה	-11.5278
מְ	-11.528
▁ספינה	-11.528
▁כנשיא	-11.5281
ris	-11.5281
החסרונות	-11.5282
▁YouTube	-11.5282
▁האסטר	-11.5282
▁הסיור	-11.5285
▁ייעודי	-11.5285
▁עממי	-11.5286
▁מתג	-11.5287
תמוך	-11.5288
להלן	-11.5293
▁פז	-11.5293
▁1961	-11.5296
משפט	-11.5297
▁היומי	-11.53
▁גרא	-11.5302
▁הריק	-11.5303
▁®	-11.5306
סטרון	-11.5307
מדע	-11.5308
מדען	-11.5312
▁בנאום	-11.5312
תממש	-11.5312
הצלת	-11.5312
▁1974	-11.5315
▁פחמימות	-11.5315
▁שגויה	-11.5316
פראג	-11.5316
▁קבוצתי	-11.5317
▁Ju	-11.5317
מועדונים	-11.5318
▁סני	-11.5318
▁אספר	-11.5319
▁גורלו	-11.5319
▁350	-11.5323
▁הנגי	-11.5333
▁פרד	-11.5334
▁פיט	-11.5335
▁מתנת	-11.5337
▁ביוון	-11.5338
▁שפעת	-11.534
▁רובוטים	-11.5343
▁אופטי	-11.5344
▁למדעי	-11.5344
▁חסידי	-11.5346
▁AM	-11.5351
כיסא	-11.5353
קשור	-11.5354
▁ראיונות	-11.5358
RS	-11.5358
מתכונ	-11.5361
▁מקוונת	-11.5362
▁מריחואנה	-11.5364
▁שותפי	-11.5364
ull	-11.5367
▁פסיכולוגית	-11.5367
▁סיימ	-11.5367
▁אווירי	-11.5372
▁מכת	-11.5372
▁משמאל	-11.5372
▁מגזר	-11.5374
▁קוסמי	-11.5375
▁העניים	-11.5377
▁מזכר	-11.5379
▁ירדה	-11.538
▁יריות	-11.5382
ייצב	-11.5383
▁130	-11.5383
▁בפעולות	-11.5385
▁הקור	-11.5389
▁הבחנ	-11.5389
העיד	-11.5391
▁able	-11.5391
▁הרעים	-11.5392
▁Am	-11.5394
סטודיו	-11.5395
מומחיות	-11.5396
התמחות	-11.5396
▁מסחריים	-11.5397
קורים	-11.5397
לגיטימציה	-11.5399
▁Health	-11.5399
▁המפורסמים	-11.5399
▁חגור	-11.5399
▁עגבניות	-11.5399
▁הפצוע	-11.5399
▁להכחיש	-11.5399
▁לבחירות	-11.5399
▁מתרחב	-11.5399
▁לרצוח	-11.5399
▁לשיעור	-11.5399
▁Super	-11.5399
▁פורמלי	-11.5399
▁מתרגש	-11.5399
▁ייצא	-11.5399
▁ולנסות	-11.5399
▁ובראשונה	-11.5399
הצעת	-11.5399
▁מלהיות	-11.54
▁להתלבש	-11.54
▁ברדיו	-11.54
▁עשב	-11.54
▁בציור	-11.54
▁הנכד	-11.5401
▁לרוסיה	-11.5401
שרשרת	-11.5401
▁קטינים	-11.5402
▁ולעזור	-11.5403
▁לנער	-11.5403
▁הומוסקסואלי	-11.5403
קלפים	-11.5403
ניקוי	-11.5404
▁מסופק	-11.5404
המשחק	-11.5404
▁Tru	-11.5405
▁ניצחונו	-11.5406
▁ריאות	-11.5406
▁70%	-11.5406
▁מצייר	-11.5408
▁הימני	-11.5408
air	-11.5409
▁ויצא	-11.541
▁יאן	-11.5411
▁בשפת	-11.5413
▁ללימודי	-11.5413
▁האולטימטיבי	-11.5417
▁תיכון	-11.5417
▁מארגנ	-11.5418
▁הקלאסית	-11.5418
▁גלוב	-11.5418
▁OS	-11.5419
▁המתואר	-11.542
▁my	-11.5424
▁שריפ	-11.5426
הקפיד	-11.5428
▁תערוכות	-11.5429
▁קומות	-11.543
▁פרוטוקול	-11.543
▁Apple	-11.5431
▁1956	-11.5431
אנוס	-11.5433
▁הבחינה	-11.5436
▁הוסר	-11.5437
▁שהוקמ	-11.5438
EL	-11.5439
▁מסבירה	-11.5441
▁יתקי	-11.5443
תחבורה	-11.5443
פסיכ	-11.5444
▁למשא	-11.5446
טוהר	-11.5446
▁סלח	-11.5447
כתיבת	-11.5451
▁גברי	-11.5451
own	-11.5452
▁עדכונים	-11.5452
▁התמקדות	-11.5453
▁נבע	-11.5454
▁צודקים	-11.5456
▁טריטורי	-11.5457
▁לטוב	-11.5459
▁סטאר	-11.5464
▁לתור	-11.5465
▁הארו	-11.5468
ctor	-11.547
▁מנוסה	-11.5471
▁עתיקה	-11.5471
▁96	-11.5472
צומת	-11.5474
ged	-11.5476
▁השפות	-11.5477
▁')	-11.5479
▁לרבים	-11.548
▁האופוזיציה	-11.548
▁זולים	-11.5481
▁משמ	-11.5484
▁רשיו	-11.5484
▁ציפית	-11.5487
▁צילומים	-11.5487
▁שתש	-11.5488
▁בהסכם	-11.549
▁חנה	-11.5492
▁נאמנים	-11.5492
▁תיאוריה	-11.5495
הערות	-11.5496
▁טלפוני	-11.5497
העסיק	-11.5498
▁כיתה	-11.55
▁לחש	-11.55
געש	-11.5502
▁מפעילים	-11.5505
▁הדפס	-11.5507
HA	-11.5508
▁נפגעים	-11.5511
▁הסתיר	-11.5511
▁מכתבי	-11.5512
▁ייסד	-11.5513
▁מפרש	-11.5515
עסקאות	-11.5518
▁פותחת	-11.5519
▁אומות	-11.552
▁העצה	-11.5521
▁פורש	-11.5521
מעניק	-11.5527
צוץ	-11.5531
▁דמיוני	-11.5533
תשלומים	-11.5537
▁[11]	-11.5538
▁בזבוז	-11.5538
▁פקיסטן	-11.5538
אינסטגרם	-11.5538
▁במוזיקה	-11.5538
▁הספ	-11.5538
▁הולכות	-11.5538
▁המתחרים	-11.5538
רישיון	-11.5538
▁להסתגל	-11.5538
▁אומגה	-11.5539
▁שכני	-11.5539
▁כעשר	-11.5539
▁הטכניק	-11.5539
▁שיטתי	-11.554
▁לקיח	-11.554
▁התפרק	-11.554
▁המתפתח	-11.554
▁(7	-11.554
שתדל	-11.554
הסיפור	-11.5541
▁בתוכה	-11.5542
▁אופייני	-11.5542
▁חמוש	-11.5542
▁נפגעו	-11.5543
▁השמונים	-11.5543
▁ID	-11.5543
הבעיה	-11.5544
הילדים	-11.5544
▁ציורי	-11.5544
▁חסיד	-11.5545
▁אחלה	-11.5546
מנזר	-11.5546
▁הצדיק	-11.5547
▁בחלו	-11.5548
שבועיים	-11.5551
מחבלים	-11.5552
▁פניהם	-11.5553
חותם	-11.5554
▁תיקח	-11.5555
השקפה	-11.5557
▁Ga	-11.5559
▁אנגל	-11.5559
▁בממשל	-11.5559
▁טרנס	-11.5559
יאנג	-11.5559
▁צנח	-11.556
כֶם	-11.5561
פוסט	-11.5563
▁יספיק	-11.5564
▁שיקר	-11.5564
▁רפ	-11.5565
▁אבחנ	-11.5565
ונם	-11.5566
▁פורסמ	-11.5567
תקיימו	-11.5569
▁מלג	-11.5575
▁דלי	-11.5575
▁לחתו	-11.5577
מיסוי	-11.5578
▁המהוו	-11.5579
▁במער	-11.5581
▁1968	-11.5583
זניח	-11.5583
▁יספק	-11.5583
▁היסודי	-11.5583
▁זבל	-11.5583
▁דחפ	-11.5586
EP	-11.5586
▁בטורקיה	-11.5587
▁התעלמו	-11.5588
▁iPhone	-11.5591
▁הדימוי	-11.5591
▁תעלומ	-11.5591
▁תקני	-11.5593
▁רשמ	-11.5594
▁ביצועי	-11.5594
ירוף	-11.5594
▁צפה	-11.5594
▁so	-11.5595
▁גלולות	-11.5596
▁פנטזיה	-11.5597
▁כילד	-11.5597
▁החופשה	-11.5598
RM	-11.5599
לוויין	-11.5599
▁כאיש	-11.56
נווט	-11.56
MD	-11.56
▁73	-11.5602
▁נזיר	-11.5603
▁בתיאטרון	-11.5603
▁שנאת	-11.5606
▁הספרדית	-11.5607
▁השנתית	-11.5607
▁פנט	-11.5615
▁DNA	-11.5617
לוב	-11.5621
▁ברבעון	-11.5622
מסורת	-11.5626
▁84	-11.5626
▁פקד	-11.5627
וצץ	-11.563
▁להמר	-11.5631
▁מאלו	-11.5634
ֶּ	-11.5636
▁אימייל	-11.5636
▁נוע	-11.5636
▁האספקה	-11.5637
▁לנמל	-11.5638
▁לתכנית	-11.5639
▁קביע	-11.564
▁שומרי	-11.5641
▁יקרא	-11.5641
▁מתחם	-11.5642
▁קאס	-11.5643
▁שולי	-11.5643
▁בשבי	-11.5646
אובססי	-11.5648
▁פינוי	-11.5648
חסומים	-11.5653
▁גריי	-11.5654
גלישה	-11.5656
▁הסעודית	-11.5657
▁שקוע	-11.5661
▁סייר	-11.5662
▁הזוכה	-11.5662
▁הקדיש	-11.5662
tra	-11.5663
▁לילדי	-11.5663
נימוס	-11.5664
▁סירבו	-11.5665
▁חוגג	-11.5668
▁השוטר	-11.5668
▁השליט	-11.5668
▁שפותח	-11.567
▁נפרדת	-11.5672
▁אכלת	-11.5672
▁מוגדרת	-11.5672
פליטים	-11.5674
▁לוחמ	-11.5674
מלכות	-11.5676
יחד	-11.5677
▁מפעלים	-11.5678
▁המקצועיים	-11.5678
▁בסיבוב	-11.5678
▁המאוחדות	-11.5678
▁תחביב	-11.5678
▁מעורפל	-11.5678
▁תרחיש	-11.5678
▁בכרטיס	-11.5678
▁ברפואה	-11.5678
▁מצלמת	-11.5678
בולגריה	-11.5679
▁הומניטרי	-11.5679
▁תאומים	-11.5679
▁מושחת	-11.5679
▁הנתבע	-11.5679
▁אורכ	-11.5679
▁קוריאני	-11.5679
▁יציאת	-11.5679
▁מאורגן	-11.5679
▁כובש	-11.5679
▁המקוונ	-11.5679
▁נתינ	-11.5679
▁לכסף	-11.568
▁בקטע	-11.568
▁בסתיו	-11.568
▁יהושע	-11.568
▁הכתר	-11.568
▁פטריוט	-11.5681
▁Gold	-11.5681
שבש	-11.5681
▁למכשיר	-11.5682
▁מופרז	-11.5683
▁חיכית	-11.5685
▁גישת	-11.5686
▁פותר	-11.5687
ושיע	-11.5688
הוכחה	-11.5688
▁זולה	-11.5689
▁פשיט	-11.569
▁ty	-11.5692
▁אבותינו	-11.5694
▁האטלנטי	-11.5695
▁Sun	-11.5695
▁מקפיד	-11.5695
▁ויתור	-11.5696
▁אבינו	-11.5696
▁ary	-11.5698
▁בדלת	-11.5699
▁are	-11.5699
▁מטיילים	-11.57
▁תוכ	-11.57
קירור	-11.5701
להניע	-11.5701
▁3.5	-11.5701
▁פנס	-11.5702
▁89	-11.5702
▁ארנב	-11.5704
▁גבינה	-11.5705
▁מכשולים	-11.5707
▁פוליס	-11.5708
▁חושד	-11.5708
▁הנפוצים	-11.571
▁התאמת	-11.5711
ual	-11.5711
▁ערוצים	-11.5712
▁בעדינות	-11.5714
▁1965	-11.5716
▁הציגה	-11.5717
סוכן	-11.5718
קבוצה	-11.5718
▁מבטל	-11.5722
ברכות	-11.5723
▁הותיר	-11.5723
▁מבוקר	-11.5724
▁סקסי	-11.5725
▁um	-11.573
▁עולמות	-11.573
▁בחייך	-11.5732
▁2019)	-11.5732
▁דונם	-11.5733
בחר	-11.5733
שמנת	-11.5734
קלקל	-11.5736
▁יוקרה	-11.5736
הפצצה	-11.5737
▁גיר	-11.5738
▁שוחררו	-11.5739
▁הסוגי	-11.574
פליי	-11.5744
▁Pol	-11.5746
▁גנטית	-11.5746
▁ציבוריות	-11.5747
▁המעורבים	-11.5749
▁-17	-11.575
▁מוטע	-11.575
▁טיב	-11.575
▁ייחודיות	-11.5752
לינק	-11.5757
▁הגאול	-11.5758
▁גיבוי	-11.5765
▁שאמרת	-11.5765
▁תיירותי	-11.5766
▁הפכתי	-11.5767
▁מילולית	-11.5771
qui	-11.5771
▁השיעורים	-11.5773
▁חליל	-11.5776
▁נהנו	-11.5782
בז	-11.5782
▁מרשימה	-11.5783
ux	-11.5784
▁שקראתי	-11.5784
פרע	-11.5784
▁Cre	-11.5784
כִּי	-11.5785
▁שלקח	-11.579
▁להיום	-11.5792
▁מצדיק	-11.5792
▁במדי	-11.5797
ax	-11.5797
▁בשכר	-11.5798
לעבוד	-11.5798
טענו	-11.58
המשפחה	-11.5801
▁מגוונים	-11.5802
▁המרכיב	-11.5803
▁השקי	-11.5809
▁החגים	-11.5809
ריבוי	-11.581
▁אקדמיים	-11.581
▁משקפי	-11.5811
▁קרול	-11.5811
uck	-11.5814
▁צמר	-11.5818
קוז	-11.5819
▁1966	-11.5821
▁Way	-11.5821
גיהינום	-11.5821
▁להירדם	-11.5821
▁וללכת	-11.5821
▁התיירים	-11.5821
▁0.0	-11.5822
Press	-11.5822
▁ויוצר	-11.5822
▁1975	-11.5822
אינדיאנים	-11.5822
▁להתאבד	-11.5822
פילוסוף	-11.5823
▁תקוות	-11.5823
▁עַל	-11.5824
▁החילוני	-11.5824
▁ואשתו	-11.5824
תחזוקה	-11.5824
▁השגרירות	-11.5824
▁הוגנת	-11.5825
▁טיילור	-11.5825
▁דאגות	-11.5825
▁בכתובת	-11.5825
נסיעות	-11.5826
▁רדיפ	-11.5826
שתגע	-11.5827
▁השתפר	-11.5827
▁אפו	-11.5827
▁לדירה	-11.5828
▁הפירות	-11.5828
▁מסין	-11.5829
▁אוטו	-11.583
▁התגבר	-11.5832
▁להתעמ	-11.5833
▁אנכי	-11.5833
גביע	-11.5834
▁8%	-11.5836
▁מצוינים	-11.5836
▁שיבוא	-11.5838
▁מודול	-11.5839
מקומם	-11.5846
משל	-11.5847
וויק	-11.5847
▁זכית	-11.5848
▁המשמר	-11.5848
▁Phen	-11.585
▁גדוד	-11.5851
▁טנ	-11.5851
▁גלידה	-11.5853
מועדון	-11.5853
▁הפין	-11.5854
▁איפור	-11.5858
▁כרית	-11.5862
▁מפסיקים	-11.5863
▁ובריאות	-11.5863
▁במחשבה	-11.5864
▁מתיישב	-11.5865
▁ענית	-11.5865
טקסט	-11.5865
.5%	-11.5867
יפול	-11.5867
▁ינצח	-11.5868
בושה	-11.587
אלקטרוניקה	-11.5871
שף	-11.5871
▁גירוי	-11.5874
▁ליחיד	-11.5875
▁ההלוואה	-11.5875
אצטדיון	-11.5878
▁לגבול	-11.5878
▁בנשים	-11.5878
▁עצבני	-11.5879
▁פרנ	-11.5881
▁התאומ	-11.5882
▁הפלישה	-11.5885
▁רודפ	-11.5885
▁מסורתית	-11.5887
▁מימוש	-11.5889
צפיפו	-11.589
▁Rock	-11.5891
▁הבחי	-11.5895
▁ce	-11.5898
▁מקנ	-11.5898
משרד	-11.59
▁בינו	-11.5903
▁out	-11.5903
▁שהתגל	-11.5903
▁קין	-11.5904
נֵי	-11.5905
▁חולפ	-11.5905
▁יידע	-11.5907
▁סימון	-11.5908
▁Act	-11.591
▁בתקציב	-11.5912
▁טרוריסטים	-11.5914
▁בקבוקי	-11.5915
תנאים	-11.5921
ימצא	-11.5922
▁טרח	-11.5924
▁לוועד	-11.5929
תלונות	-11.5936
▁בבתים	-11.5937
שוט	-11.5937
▁נטש	-11.5938
▁אֵ	-11.5938
▁התקיימו	-11.5939
▁מעובד	-11.5944
▁אצלך	-11.5945
▁הפיסי	-11.595
דני	-11.5954
משחקי	-11.5955
שֶׁ	-11.5957
▁מעוות	-11.5957
▁tic	-11.5961
▁להסתמ	-11.5963
IA	-11.5965
▁1918	-11.5966
▁High	-11.5966
▁Science	-11.5966
▁[10]	-11.5966
▁להינשא	-11.5966
▁פופולארי	-11.5966
▁להתחמק	-11.5966
▁הדרגתי	-11.5966
▁העבירו	-11.5966
FBI	-11.5966
▁הנציב	-11.5966
▁במעבר	-11.5966
▁art	-11.5967
▁הגבעה	-11.5967
▁מוסתר	-11.5967
▁המקביל	-11.5967
▁1940	-11.5967
▁הפונקצי	-11.5967
▁נכבד	-11.5967
SI	-11.5968
התאחדות	-11.5969
השראת	-11.5969
▁טיפה	-11.5969
▁שתדע	-11.5969
▁סטריט	-11.5971
▁התשעים	-11.5971
▁מודפס	-11.5971
טראומה	-11.5971
דיאלוג	-11.5972
▁צלב	-11.5972
המלצות	-11.5972
▁הקליני	-11.5972
להקריב	-11.5972
ממסד	-11.5973
תשתית	-11.5973
▁רטוב	-11.5975
שפיל	-11.5975
▁שבתוכ	-11.5976
▁ידיעות	-11.5976
▁קיוו	-11.5976
▁מתרגלי	-11.5977
▁ישבו	-11.5978
▁לגלו	-11.5978
▁הכיסא	-11.5979
▁בשמיר	-11.598
חופש	-11.598
▁בקידום	-11.5981
▁תותח	-11.5982
▁שאול	-11.5984
▁פלילית	-11.5985
שדרוג	-11.5986
זדוני	-11.5986
▁מופנ	-11.5987
טוק	-11.599
▁לוודאי	-11.5992
יחידה	-11.5993
חטא	-11.5993
▁מתעוררים	-11.5994
▁רקט	-11.5996
▁שכיר	-11.5999
▁5)	-11.6001
▁לחצים	-11.6004
▁תוכנן	-11.6005
▁החוט	-11.6005
▁98	-11.6007
▁קורסי	-11.6007
▁מפיצ	-11.6012
הגוף	-11.6017
▁2%	-11.6017
▁שליטת	-11.6019
▁כ־	-11.602
▁הקא	-11.6021
▁סנקצי	-11.6022
▁התנהל	-11.6027
▁מזכ	-11.6028
היזהר	-11.6031
▁ניג	-11.6032
▁האמבטיה	-11.6035
אמפ	-11.6037
▁היפות	-11.6038
▁משאיות	-11.6039
▁שעזב	-11.604
ופיע	-11.6041
▁שאיפות	-11.6041
ואהבת	-11.6041
▁קריטית	-11.6043
▁She	-11.6046
הומור	-11.6046
הגעתי	-11.6049
▁הרצועה	-11.6049
▁מקשיבים	-11.6049
▁קוסט	-11.605
חתונות	-11.6054
▁מולד	-11.6058
▁סיימת	-11.6058
▁ממושכת	-11.6058
▁תבע	-11.6058
▁מצר	-11.6059
▁למניע	-11.6059
▁פיצויים	-11.6064
▁מכין	-11.6066
יישן	-11.6066
תושבי	-11.6067
▁לימודיו	-11.6069
▁1%	-11.607
▁לצעו	-11.6071
▁החרד	-11.6074
▁בחלקו	-11.6077
▁מסכן	-11.6078
רואים	-11.6079
▁הבור	-11.6085
▁בוועד	-11.6086
▁לחומר	-11.6086
▁מתוכננת	-11.6087
▁נגל	-11.6088
-35	-11.6088
▁טריק	-11.6091
מביך	-11.6094
▁סיוט	-11.6095
כיוונים	-11.6095
24	-11.6095
▁ייעוד	-11.6096
▁מוכ	-11.6097
▁לינד	-11.6098
▁מעכשיו	-11.6099
ערכו	-11.61
▁עדיפות	-11.6102
▁פקח	-11.6103
▁צעצוע	-11.6103
▁מדריכ	-11.6104
זוגיות	-11.6104
▁land	-11.6105
שימוש	-11.6107
׃	-11.6113
▁1959	-11.6113
▁1962	-11.6113
▁אינטליגנטי	-11.6113
▁בטמפרטור	-11.6113
▁המוזיקלי	-11.6113
▁לתנועה	-11.6113
▁מסויימת	-11.6113
▁שמסוגל	-11.6113
▁איסלנד	-11.6113
▁הסחורה	-11.6113
▁השכיח	-11.6113
▁המופלא	-11.6113
▁להיעלם	-11.6113
▁להזיק	-11.6113
▁העוגה	-11.6113
▁לשנוא	-11.6114
▁לצפון	-11.6114
סטודנט	-11.6114
▁מקדימ	-11.6114
▁שראינו	-11.6114
▁שווייץ	-11.6114
▁ירצו	-11.6115
▁הקנדי	-11.6115
▁שהוגש	-11.6116
▁תקר	-11.6116
הסתפק	-11.6116
▁קסום	-11.6117
▁בתוכי	-11.6117
▁Sw	-11.6117
חיבוק	-11.6117
▁השולט	-11.6117
▁קדושת	-11.6117
▁במיקום	-11.6119
▁נוזלים	-11.6119
▁הביטו	-11.6119
ניצחון	-11.612
הזדמנות	-11.612
[[	-11.6122
▁תשתיות	-11.6122
able	-11.6123
▁בשלטון	-11.6123
▁ley	-11.6123
▁העיתונאי	-11.6124
▁ליידי	-11.6125
יכנס	-11.6125
▁ללחץ	-11.6126
▁pre	-11.6127
כינוי	-11.6129
▁מתכ	-11.6129
▁יאללה	-11.613
:30	-11.6131
שגיח	-11.6132
שתייה	-11.6132
▁עופר	-11.6133
▁חגג	-11.6134
מטרופולי	-11.6135
▁ארכי	-11.6137
▁הדפסה	-11.6138
▁מקנא	-11.6138
▁חללי	-11.6138
חלוקה	-11.6141
▁משקפיים	-11.6142
▁וערב	-11.6144
▁15%	-11.6145
▁טיר	-11.6146
▁שליחת	-11.6146
▁תלך	-11.6146
יימי	-11.6147
▁הטלת	-11.6149
▁מסתכ	-11.615
▁DC	-11.6152
▁בילד	-11.6157
▁sta	-11.6161
ET	-11.6162
▁Don	-11.6163
הפסקת	-11.6164
שומר	-11.6167
▁סמינר	-11.6168
▁ציורים	-11.617
▁מתכון	-11.6171
▁מתקפות	-11.6173
▁פורח	-11.6175
▁דמוי	-11.6176
גופכם	-11.6177
▁פולח	-11.6177
אנק	-11.6178
▁האוטו	-11.618
▁ביצי	-11.6181
▁כספית	-11.6181
▁MI	-11.6182
▁לחלל	-11.6183
▁העושר	-11.6183
▁ובלי	-11.6191
תחזית	-11.6192
▁ללימוד	-11.6194
▁סוציאליסטי	-11.6195
התראות	-11.6197
▁תפקידם	-11.6198
▁הצהרות	-11.6199
▁בגידה	-11.62
▁אטומי	-11.6205
▁סטיי	-11.6206
בעבר	-11.621
▁שמקבל	-11.6214
דיאט	-11.6214
▁פלסטי	-11.6216
▁צאצאי	-11.6216
▁בפתח	-11.6217
ניסוח	-11.6218
▁תקנה	-11.622
▁למקס	-11.6222
▁נורמ	-11.6223
▁משוו	-11.6225
▁שאליה	-11.6226
▁המצור	-11.6226
FC	-11.6226
לחדור	-11.6226
▁מתערב	-11.6228
יהדות	-11.623
▁נורו	-11.6231
▁המסורתית	-11.6231
סטטיסטיק	-11.6232
PO	-11.6233
▁הפג	-11.6234
▁סעיפים	-11.6236
▁קולקטיבי	-11.6237
▁מערי	-11.6237
▁הנאצי	-11.6239
▁09	-11.624
אביב	-11.6242
תאימו	-11.6245
מתקני	-11.6245
▁ספורטאים	-11.6246
▁בידיע	-11.6247
▁עתיקות	-11.6248
חמלה	-11.6249
עיירות	-11.6249
▁משווק	-11.625
▁חלשה	-11.625
משותף	-11.6251
▁חדיר	-11.6254
מסדרון	-11.6254
▁פצוע	-11.6255
▁התקפ	-11.6261
-2011	-11.6262
▁[17]	-11.6262
▁ספונטני	-11.6262
▁סינגפור	-11.6263
▁דירקטור	-11.6263
▁לתבוע	-11.6263
אלומיניום	-11.6263
▁Cookie	-11.6263
▁מדוייק	-11.6263
▁הסלולרי	-11.6263
▁פונקציונלי	-11.6263
▁אבטלה	-11.6263
▁במעבדה	-11.6263
▁קואליצי	-11.6263
▁מאידך	-11.6263
▁סוציולוגי	-11.6263
▁המשכת	-11.6263
▁כשהגיע	-11.6263
▁שקרי	-11.6263
▁שסבל	-11.6263
▁שמועות	-11.6263
לספוג	-11.6263
▁טריליון	-11.6264
▁לצערנו	-11.6268
▁גבריאל	-11.6268
▁המדהים	-11.6269
▁שחיתות	-11.627
▁אירי	-11.627
פסיכולוגיה	-11.6271
לפצות	-11.6271
▁עיקריות	-11.6271
▁והגיע	-11.6271
▁מותאם	-11.6271
▁העבדות	-11.6272
הפתעה	-11.6273
סיגריות	-11.6273
▁שיגיע	-11.6273
העברה	-11.6273
▁השתדל	-11.6273
ויליאם	-11.6274
▁המצליח	-11.6275
▁שבחרת	-11.6277
השקעה	-11.6278
▁קרטר	-11.628
▁line	-11.6283
▁אופטימיזצי	-11.629
▁NA	-11.6292
▁ביטל	-11.6292
ארכיון	-11.6293
▁לסחו	-11.6293
שמיע	-11.6294
▁בדור	-11.6295
▁וארגונים	-11.6296
קניין	-11.6296
▁תמכו	-11.6299
אללה	-11.6299
▁הכישלון	-11.63
▁התעניינ	-11.6301
▁הכפרי	-11.6301
▁מהעיר	-11.6301
הפרעה	-11.6302
▁סוכנים	-11.6302
▁התקשרו	-11.6302
ומב	-11.6305
[...]
