{
  "version": "1.0",
  "truncation": null,
  "padding": null,
  "added_tokens": [
    {
      "id": 10000,
      "content": "[UNK]",
      "single_word": false,
      "lstrip": false,
      "rstrip": false,
      "normalized": false,
      "special": true
    }
  ],
  "normalizer": null,
  "pre_tokenizer": {
    "type": "Sequence",
    "pretokenizers": [
      {
        "type": "Split",
        "pattern": {
          "Regex": "\\p{N}{1,3}| ?[^\\s\\p{L}\\p{N}]{2,}[\\r\\n/]*| +(?!\\S)"
        },
        "behavior": "Isolated",
        "invert": false
      }
    ]
  },
  "post_processor": null,
  "decoder": null,
  "model": {
    "type": "BPE",
    "dropout": null,
    "unk_token": null,
    "continuing_subword_prefix": null,
    "end_of_word_suffix": null,
    "fuse_unk": false,
    "byte_fallback": false,
    "ignore_merges": false,
    "vocab": {
      "\n": 0,
      " ": 1,
      "!": 2,
      "\"": 3,
      "#": 4,
      "$": 5,
      "%": 6,
      "&": 7,
      "'": 8,
      "(": 9,
      ")": 10,
      "*": 11,
      "+": 12,
      ",": 13,
      "-": 14,
      ".": 15,
      "/": 16,
      "0": 17,
      "1": 18,
      "2": 19,
      "3": 20,
      "4": 21,
      "5": 22,
      "6": 23,
      "7": 24,
      "8": 25,
      "9": 26,
      ":": 27,
      ";": 28,
      "<": 29,
      "=": 30,
      ">": 31,
      "?": 32,
      "@": 33,
      "A": 34,
      "B": 35,
      "C": 36,
      "D": 37,
      "E": 38,
      "F": 39,
      "G": 40,
      "H": 41,
      "I": 42,
      "J": 43,
      "K": 44,
      "L": 45,
      "M": 46,
      "N": 47,
      "O": 48,
      "P": 49,
      "Q": 50,
      "R": 51,
      "S": 52,
      "T": 53,
      "U": 54,
      "V": 55,
      "W": 56,
      "X": 57,
      "Y": 58,
      "Z": 59,
      "[": 60,
      "\\": 61,
      "]": 62,
      "^": 63,
      "_": 64,
      "`": 65,
      "a": 66,
      "b": 67,
      "c": 68,
      "d": 69,
      "e": 70,
      "f": 71,
      "g": 72,
      "h": 73,
      "i": 74,
      "j": 75,
      "k": 76,
      "l": 77,
      "m": 78,
      "n": 79,
      "o": 80,
      "p": 81,
      "q": 82,
      "r": 83,
      "s": 84,
      "t": 85,
      "u": 86,
      "v": 87,
      "w": 88,
      "x": 89,
      "y": 90,
      "z": 91,
      "{": 92,
      "|": 93,
      "}": 94,
      "~": 95,
      "": 96,
      "": 97,
      "": 98,
      "": 99,
      "": 100,
      "": 101,
      "": 102,
      "": 103,
      "": 104,
      "": 105,
      "": 106,
      "": 107,
      " ": 108,
      "¡": 109,
      "¢": 110,
      "£": 111,
      "¦": 112,
      "§": 113,
      "¨": 114,
      "©": 115,
      "ª": 116,
      "«": 117,
      "¬": 118,
      "­": 119,
      "®": 120,
      "¯": 121,
      "°": 122,
      "±": 123,
      "²": 124,
      "´": 125,
      "¶": 126,
      "·": 127,
      "º": 128,
      "»": 129,
      "¼": 130,
      "½": 131,
      "¿": 132,
      "Á": 133,
      "Ç": 134,
      "È": 135,
      "É": 136,
      "Ë": 137,
      "Î": 138,
      "Ó": 139,
      "Ö": 140,
      "×": 141,
      "Ø": 142,
      "Ú": 143,
      "Û": 144,
      "Ü": 145,
      "ß": 146,
      "à": 147,
      "á": 148,
      "â": 149,
      "ã": 150,
      "ä": 151,
      "å": 152,
      "æ": 153,
      "ç": 154,
      "è": 155,
      "é": 156,
      "ê": 157,
      "ë": 158,
      "í": 159,
      "ï": 160,
      "ð": 161,
      "ñ": 162,
      "ò": 163,
      "ó": 164,
      "ô": 165,
      "õ": 166,
      "ö": 167,
      "÷": 168,
      "ø": 169,
      "ù": 170,
      "ú": 171,
      "û": 172,
      "ü": 173,
      "ý": 174,
      "ÿ": 175,
      "ā": 176,
      "ă": 177,
      "ć": 178,
      "Č": 179,
      "č": 180,
      "Đ": 181,
      "ę": 182,
      "ğ": 183,
      "Ġ": 184,
      "ħ": 185,
      "ī": 186,
      "İ": 187,
      "Ł": 188,
      "ł": 189,
      "ň": 190,
      "ŋ": 191,
      "ō": 192,
      "ő": 193,
      "œ": 194,
      "Ś": 195,
      "ś": 196,
      "ş": 197,
      "Š": 198,
      "š": 199,
      "ţ": 200,
      "ū": 201,
      "Ÿ": 202,
      "Ż": 203,
      "ż": 204,
      "Ž": 205,
      "ž": 206,
      "ư": 207,
      "ș": 208,
      "ț": 209,
      "ɒ": 210,
      "ɓ": 211,
      "ə": 212,
      "ɛ": 213,
      "ɸ": 214,
      "ɾ": 215,
      "ʉ": 216,
      "ʊ": 217,
      "ʌ": 218,
      "ʻ": 219,
      "ʼ": 220,
      "ˈ": 221,
      "ˌ": 222,
      "ː": 223,
      "́": 224,
      "Α": 225,
      "Β": 226,
      "Δ": 227,
      "Ε": 228,
      "Θ": 229,
      "Κ": 230,
      "Σ": 231,
      "Τ": 232,
      "Φ": 233,
      "Χ": 234,
      "Ψ": 235,
      "Ω": 236,
      "ά": 237,
      "έ": 238,
      "ή": 239,
      "ί": 240,
      "α": 241,
      "β": 242,
      "γ": 243,
      "δ": 244,
      "ε": 245,
      "η": 246,
      "θ": 247,
      "ι": 248,
      "κ": 249,
      "λ": 250,
      "μ": 251,
      "ν": 252,
      "ο": 253,
      "π": 254,
      "ρ": 255,
      "ς": 256,
      "σ": 257,
      "τ": 258,
      "υ": 259,
      "φ": 260,
      "χ": 261,
      "ω": 262,
      "ό": 263,
      "ϑ": 264,
      "ϕ": 265,
      "Б": 266,
      "В": 267,
      "Д": 268,
      "К": 269,
      "Н": 270,
      "О": 271,
      "П": 272,
      "Р": 273,
      "С": 274,
      "Т": 275,
      "Ы": 276,
      "Я": 277,
      "а": 278,
      "в": 279,
      "г": 280,
      "д": 281,
      "е": 282,
      "ж": 283,
      "и": 284,
      "й": 285,
      "к": 286,
      "л": 287,
      "н": 288,
      "о": 289,
      "п": 290,
      "р": 291,
      "с": 292,
      "т": 293,
      "у": 294,
      "ф": 295,
      "х": 296,
      "ц": 297,
      "ч": 298,
      "ш": 299,
      "ы": 300,
      "я": 301,
      "і": 302,
      "Ҫ": 303,
      "Ӑ": 304,
      "Ӗ": 305,
      "ӝ": 306,
      "Ӳ": 307,
      "Ե": 308,
      "Խ": 309,
      "Յ": 310,
      "Ս": 311,
      "֖": 312,
      "֥": 313,
      "ְ": 314,
      "ֱ": 315,
      "ֲ": 316,
      "ֳ": 317,
      "ִ": 318,
      "ֵ": 319,
      "ֶ": 320,
      "ַ": 321,
      "ָ": 322,
      "ֹ": 323,
      "ֺ": 324,
      "ֻ": 325,
      "ּ": 326,
      "ֽ": 327,
      "־": 328,
      "ֿ": 329,
      "ׁ": 330,
      "ׂ": 331,
      "׃": 332,
      "ׅ": 333,
      "א": 334,
      "ב": 335,
      "ג": 336,
      "ד": 337,
      "ה": 338,
      "ו": 339,
      "ז": 340,
      "ח": 341,
      "ט": 342,
      "י": 343,
      "ך": 344,
      "כ": 345,
      "ל": 346,
      "ם": 347,
      "מ": 348,
      "ן": 349,
      "נ": 350,
      "ס": 351,
      "ע": 352,
      "ף": 353,
      "פ": 354,
      "ץ": 355,
      "צ": 356,
      "ק": 357,
      "ר": 358,
      "ש": 359,
      "ת": 360,
      "װ": 361,
      "ױ": 362,
      "׳": 363,
      "״": 364,
      "آ": 365,
      "أ": 366,
      "إ": 367,
      "ئ": 368,
      "ا": 369,
      "ب": 370,
      "ة": 371,
      "ت": 372,
      "ث": 373,
      "ج": 374,
      "ح": 375,
      "خ": 376,
      "د": 377,
      "ذ": 378,
      "ر": 379,
      "س": 380,
      "ش": 381,
      "ص": 382,
      "ط": 383,
      "ع": 384,
      "ف": 385,
      "ق": 386,
      "ك": 387,
      "ل": 388,
      "م": 389,
      "ن": 390,
      "ه": 391,
      "و": 392,
      "ى": 393,
      "ي": 394,
      "َ": 395,
      "ُ": 396,
      "ِ": 397,
      "ْ": 398,
      "٠": 399,
      "١": 400,
      "٢": 401,
      "٨": 402,
      "٩": 403,
      "ٰ": 404,
      "ٹ": 405,
      "چ": 406,
      "ھ": 407,
      "ی": 408,
      "ߟ": 409,
      "ߡ": 410,
      "ं": 411,
      "औ": 412,
      "ग": 413,
      "त": 414,
      "द": 415,
      "न": 416,
      "ब": 417,
      "ल": 418,
      "ा": 419,
      "ि": 420,
      "ी": 421,
      "े": 422,
      "्": 423,
      "ં": 424,
      "ગ": 425,
      "બ": 426,
      "લ": 427,
      "ો": 428,
      "༓": 429,
      "ខ": 430,
      "ភ": 431,
      "ម": 432,
      "រ": 433,
      "ស": 434,
      "ា": 435,
      "ែ": 436,
      "្": 437,
      "ṅ": 438,
      "ạ": 439,
      "ả": 440,
      "ἀ": 441,
      "ὥ": 442,
      "ῦ": 443,
      " ": 444,
      " ": 445,
      " ": 446,
      "​": 447,
      "‌": 448,
      "‍": 449,
      "‎": 450,
      "‏": 451,
      "‐": 452,
      "‑": 453,
      "‒": 454,
      "–": 455,
      "—": 456,
      "―": 457,
      "‘": 458,
      "’": 459,
      "‚": 460,
      "“": 461,
      "”": 462,
      "„": 463,
      "†": 464,
      "‡": 465,
      "•": 466,
      "…": 467,
      " ": 468,
      " ": 469,
      "‪": 470,
      "‫": 471,
      "‬": 472,
      "‭": 473,
      "‮": 474,
      " ": 475,
      "‰": 476,
      "′": 477,
      "″": 478,
      "‹": 479,
      "›": 480,
      "⁠": 481,
      "⁡": 482,
      "⁨": 483,
      "⁩": 484,
      "⁻": 485,
      "₪": 486,
      "€": 487,
      "₹": 488,
      "№": 489,
      "℠": 490,
      "™": 491,
      "Ⅰ": 492,
      "Ⅲ": 493,
      "←": 494,
      "↑": 495,
      "→": 496,
      "↓": 497,
      "↩": 498,
      "⇒": 499,
      "∀": 500,
      "∂": 501,
      "∆": 502,
      "∈": 503,
      "−": 504,
      "∗": 505,
      "∘": 506,
      "∙": 507,
      "√": 508,
      "∞": 509,
      "∽": 510,
      "≠": 511,
      "≥": 512,
      "≪": 513,
      "≿": 514,
      "⋅": 515,
      "⋯": 516,
      "Ⓘ": 517,
      "─": 518,
      "■": 519,
      "□": 520,
      "▪": 521,
      "▲": 522,
      "▶": 523,
      "▸": 524,
      "►": 525,
      "▼": 526,
      "▾": 527,
      "◄": 528,
      "●": 529,
      "◻": 530,
      "◼": 531,
      "☀": 532,
      "★": 533,
      "☆": 534,
      "☚": 535,
      "☝": 536,
      "☺": 537,
      "♔": 538,
      "♠": 539,
      "♣": 540,
      "♥": 541,
      "♦": 542,
      "♪": 543,
      "♫": 544,
      "⚡": 545,
      "✌": 546,
      "✔": 547,
      "✯": 548,
      "✰": 549,
      "❁": 550,
      "❓": 551,
      "❤": 552,
      "❷": 553,
      "❻": 554,
      "❼": 555,
      "❽": 556,
      "❾": 557,
      "➝": 558,
      "⟨": 559,
      "⟩": 560,
      "⟵": 561,
      "⦁": 562,
      "⬅": 563,
      "⭐": 564,
      "、": 565,
      "の": 566,
      "ア": 567,
      "ギ": 568,
      "コ": 569,
      "シ": 570,
      "ス": 571,
      "ド": 572,
      "ュ": 573,
      "ル": 574,
      "ー": 575,
      "㪗": 576,
      "三": 577,
      "东": 578,
      "主": 579,
      "九": 580,
      "京": 581,
      "介": 582,
      "以": 583,
      "会": 584,
      "元": 585,
      "列": 586,
      "反": 587,
      "古": 588,
      "名": 589,
      "士": 590,
      "大": 591,
      "学": 592,
      "川": 593,
      "工": 594,
      "幕": 595,
      "广": 596,
      "府": 597,
      "式": 598,
      "徳": 599,
      "慢": 600,
      "拾": 601,
      "日": 602,
      "旦": 603,
      "本": 604,
      "来": 605,
      "株": 606,
      "民": 607,
      "浪": 608,
      "海": 609,
      "点": 610,
      "理": 611,
      "疽": 612,
      "社": 613,
      "穂": 614,
      "空": 615,
      "章": 616,
      "第": 617,
      "简": 618,
      "算": 619,
      "絵": 620,
      "義": 621,
      "聲": 622,
      "航": 623,
      "色": 624,
      "茶": 625,
      "蒙": 626,
      "術": 627,
      "襲": 628,
      "詞": 629,
      "赤": 630,
      "逆": 631,
      "道": 632,
      "都": 633,
      "鈴": 634,
      "院": 635,
      "髓": 636,
      "黑": 637,
      "黒": 638,
      "랙": 639,
      "블": 640,
      "엠": 641,
      "": 642,
      "": 643,
      "": 644,
      "": 645,
      "": 646,
      "": 647,
      "": 648,
      "": 649,
      "": 650,
      "": 651,
      "": 652,
      "": 653,
      "": 654,
      "": 655,
      "": 656,
      "ﬠ": 657,
      "אַ": 658,
      "בּ": 659,
      "הּ": 660,
      "וּ": 661,
      "פּ": 662,
      "תּ": 663,
      "וֹ": 664,
      "﴾": 665,
      "﴿": 666,
      "️": 667,
      "﻿": 668,
      "（": 669,
      "）": 670,
      "，": 671,
      "：": 672,
      "￼": 673,
      "�": 674,
      "🇸": 675,
      "🇾": 676,
      "🌈": 677,
      "🌎": 678,
      "🍻": 679,
      "🎉": 680,
      "🎶": 681,
      "🏽": 682,
      "🐔": 683,
      "👈": 684,
      "👉": 685,
      "👑": 686,
      "💉": 687,
      "💔": 688,
      "💖": 689,
      "💜": 690,
      "💫": 691,
      "📁": 692,
      "📄": 693,
      "🔥": 694,
      "😀": 695,
      "😁": 696,
      "😂": 697,
      "😃": 698,
      "😄": 699,
      "😅": 700,
      "😆": 701,
      "😈": 702,
      "😉": 703,
      "😊": 704,
      "😍": 705,
      "😏": 706,
      "😐": 707,
      "😒": 708,
      "😚": 709,
      "😛": 710,
      "😜": 711,
      "😦": 712,
      "🙁": 713,
      "🙂": 714,
      "🙌": 715,
      "🚖": 716,
      "🚘": 717,
      "🤔": 718,
      "🤨": 719,
      "🦁": 720,
      "🧼": 721,
      " ה": 722,
      "ם ": 723,
      "ה ": 724,
      "ת ": 725,
      ".\n": 726,
      "ים ": 727,
      " ל": 728,
      " א": 729,
      " מ": 730,
      " ב": 731,
      " ש": 732,
      "ות ": 733,
      "ות": 734,
      "ני": 735,
      "ול": 736,
      "ור": 737,
      "ל ": 738,
      "נו": 739,
      "רי": 740,
      ", ": 741,
      "לי": 742,
      "ת ה": 743,
      "רו": 744,
      "בי": 745,
      "די": 746,
      "מי": 747,
      "מו": 748,
      " ע": 749,
      "וא": 750,
      "שי": 751,
      "של": 752,
      "ם ה": 753,
      "יי": 754,
      " כ": 755,
      "בר": 756,
      "אי": 757,
      "וד": 758,
      "ה ה": 759,
      "תי": 760,
      "וב": 761,
      " י": 762,
      "הי": 763,
      "לא": 764,
      "לו": 765,
      "ל ה": 766,
      "ון": 767,
      "ם.\n": 768,
      "או": 769,
      "סי": 770,
      "שר": 771,
      "פי": 772,
      "חי": 773,
      "ה.\n": 774,
      "מש": 775,
      "עי": 776,
      "ות ה": 777,
      "תו": 778,
      "ה ל": 779,
      "גי": 780,
      "טי": 781,
      "חו": 782,
      " ו": 783,
      " לא": 784,
      "ה ב": 785,
      ", א": 786,
      "ה ש": 787,
      "כי": 788,
      " לה": 789,
      "קו": 790,
      "צי": 791,
      "ה מ": 792,
      "שו": 793,
      "רא": 794,
      "פר": 795,
      " הי": 796,
      "ים ל": 797,
      " נ": 798,
      "מר": 799,
      "חד": 800,
      "?\n": 801,
      "בו": 802,
      "ותר": 803,
      " את ה": 804,
      "ים ב": 805,
      "סו": 806,
      "קי": 807,
      "ה א": 808,
      "כול": 809,
      "כל": 810,
      "חר": 811,
      "ן ": 812,
      "מע": 813,
      "קר": 814,
      ", ה": 815,
      "דו": 816,
      "זה ": 817,
      "וי": 818,
      " של": 819,
      "אל": 820,
      " את ": 821,
      "ונ": 822,
      "דר": 823,
      "את": 824,
      "מצ": 825,
      "רב": 826,
      "הו": 827,
      "חל": 828,
      " ת": 829,
      " ג": 830,
      " המ": 831,
      " בי": 832,
      "ים ש": 833,
      "טר": 834,
      "יש": 835,
      " פ": 836,
      "את ": 837,
      "וה": 838,
      "אני": 839,
      "בל": 840,
      "אר": 841,
      "ה ע": 842,
      "ות.\n": 843,
      "נות ": 844,
      "חש": 845,
      " אי": 846,
      "ים מ": 847,
      "זו": 848,
      "ן ה": 849,
      "פו": 850,
      "יו": 851,
      " או": 852,
      "\".\n": 853,
      " ק": 854,
      "הם ": 855,
      "ה של": 856,
      "הת": 857,
      " של ": 858,
      "אנ": 859,
      "על": 860,
      "עול": 861,
      "כו": 862,
      "ם, ": 863,
      "ורי": 864,
      " ר": 865,
      "ות ב": 866,
      "ומ": 867,
      "ת.\n": 868,
      "זי": 869,
      "ים א": 870,
      ", מ": 871,
      "ה, ": 872,
      "ת ל": 873,
      " ח": 874,
      "הוא": 875,
      "טו": 876,
      "דבר": 877,
      "כנ": 878,
      "מא": 879,
      "עצ": 880,
      ", ב": 881,
      "ספ": 882,
      "אם ": 883,
      "זר": 884,
      " אות": 885,
      "שנ": 886,
      "עב": 887,
      "דע": 888,
      "מה ": 889,
      "גד": 890,
      "ך ה": 891,
      "ות ל": 892,
      "ער": 893,
      "צר": 894,
      "עם ": 895,
      " על ": 896,
      "פני": 897,
      "ך ל": 898,
      "זמ": 899,
      ", ש": 900,
      "20": 901,
      "אמ": 902,
      "ספר": 903,
      "ולי": 904,
      "כל ": 905,
      "גו": 906,
      "על ": 907,
      " מש": 908,
      "עו": 909,
      "ם ב": 910,
      "עד": 911,
      "ת ב": 912,
      "ם ל": 913,
      "צרי": 914,
      "גר": 915,
      "ניי": 916,
      "ים של": 917,
      "צו": 918,
      "נה": 919,
      "ברי": 920,
      " \"": 921,
      " הוא": 922,
      " (": 923,
      " של ה": 924,
      "סט": 925,
      "טוב": 926,
      " לי": 927,
      "נה ": 928,
      "ות ש": 929,
      " מי": 930,
      "כן": 931,
      "מה": 932,
      " מו": 933,
      "כך": 934,
      "תח": 935,
      " מא": 936,
      "חנו": 937,
      "ותי": 938,
      "ה י": 939,
      "נים ": 940,
      "ות מ": 941,
      "קש": 942,
      "חבר": 943,
      " ז": 944,
      " שי": 945,
      "\"\n": 946,
      "עש": 947,
      "כר": 948,
      " מה": 949,
      "גל": 950,
      "בע": 951,
      "חיי": 952,
      "אח": 953,
      "ם מ": 954,
      "קט": 955,
      "שים ": 956,
      " במ": 957,
      "את ה": 958,
      "כל ה": 959,
      "ן.\n": 960,
      "שת": 961,
      "סר": 962,
      "חק": 963,
      "ך ": 964,
      ", ל": 965,
      "ות של": 966,
      "19": 967,
      " הת": 968,
      " מת": 969,
      "כא": 970,
      "ן ל": 971,
      "הב": 972,
      "פל": 973,
      "בור": 974,
      "פח": 975,
      "נט": 976,
      "ה הי": 977,
      "מד": 978,
      "מיד": 979,
      " יכול": 980,
      "חדש": 981,
      " שה": 982,
      " כי": 983,
      "ת מ": 984,
      " ד": 985,
      "צור": 986,
      "e ": 987,
      "כמו": 988,
      "פע": 989,
      "רג": 990,
      " רו": 991,
      "ן ב": 992,
      "פור": 993,
      "ידי": 994,
      "צא": 995,
      " יותר": 996,
      "לד": 997,
      "קור": 998,
      "פשר": 999,
      " הא": 1000,
      "קד": 1001,
      "בא": 1002,
      "ת ש": 1003,
      "לח": 1004,
      "מח": 1005,
      " להי": 1006,
      "ום ": 1007,
      "מת": 1008,
      "פש": 1009,
      " על ה": 1010,
      "תה ": 1011,
      " היא": 1012,
      "כב": 1013,
      "..": 1014,
      "גם ": 1015,
      "ותו": 1016,
      "ה של ": 1017,
      "רוב": 1018,
      "!\n": 1019,
      "היא": 1020,
      "שב": 1021,
      "נית": 1022,
      "עלי": 1023,
      "ודע": 1024,
      "00": 1025,
      "רק": 1026,
      "גיע": 1027,
      "סק": 1028,
      "כדי": 1029,
      " אנ": 1030,
      " על": 1031,
      " אחד": 1032,
      " הש": 1033,
      "המ": 1034,
      "נק": 1035,
      "זור": 1036,
      " -": 1037,
      "אב": 1038,
      "יותר": 1039,
      "er": 1040,
      " ס": 1041,
      " עם ": 1042,
      " למ": 1043,
      "אינ": 1044,
      "ן מ": 1045,
      "מים ": 1046,
      "ן ש": 1047,
      "ם\n": 1048,
      "כני": 1049,
      " ול": 1050,
      "ראש": 1051,
      "כת": 1052,
      "חלק": 1053,
      "וח": 1054,
      "וק": 1055,
      "וש": 1056,
      "שיר": 1057,
      "תר": 1058,
      "צד": 1059,
      "עבוד": 1060,
      "מוד": 1061,
      "כש": 1062,
      "חשב": 1063,
      " שנ": 1064,
      " לש": 1065,
      " וה": 1066,
      "אופ": 1067,
      "סף": 1068,
      "in": 1069,
      "צע": 1070,
      "זה": 1071,
      "ות א": 1072,
      "יכול": 1073,
      "חרי": 1074,
      "ות, ": 1075,
      "כם ": 1076,
      "על ה": 1077,
      "גיש": 1078,
      "אנחנו": 1079,
      " כל": 1080,
      "ם, א": 1081,
      "בד": 1082,
      " בא": 1083,
      "ריק": 1084,
      " חו": 1085,
      "נס": 1086,
      "נד": 1087,
      ": ": 1088,
      "201": 1089,
      "ך.\n": 1090,
      "ת של": 1091,
      "גדול": 1092,
      "עוד": 1093,
      "גע": 1094,
      "ואי": 1095,
      "\",": 1096,
      "חשוב": 1097,
      "ם ש": 1098,
      "on": 1099,
      "סטי": 1100,
      "ולו": 1101,
      "רופ": 1102,
      "ם?\n": 1103,
      "תק": 1104,
      "מס": 1105,
      "an": 1106,
      "ובד": 1107,
      "עיר": 1108,
      " –": 1109,
      "כון": 1110,
      "חיל": 1111,
      "מנ": 1112,
      "הר": 1113,
      "דינ": 1114,
      "אלי": 1115,
      ").\n": 1116,
      "טח": 1117,
      " רק": 1118,
      "מור": 1119,
      "ה\n": 1120,
      "ה לא": 1121,
      " לב": 1122,
      "ומי": 1123,
      " יש": 1124,
      "נש": 1125,
      "קרי": 1126,
      " לו": 1127,
      "דיי": 1128,
      "ג'": 1129,
      "ביותר": 1130,
      "תפ": 1131,
      " כדי": 1132,
      "שראל": 1133,
      "ה לה": 1134,
      " מס": 1135,
      "קב": 1136,
      "ראשו": 1137,
      "משל": 1138,
      "דרך": 1139,
      "עיל": 1140,
      " וא": 1141,
      "נוי": 1142,
      "זכ": 1143,
      "פול": 1144,
      "ים ו": 1145,
      "עבר": 1146,
      ":\n": 1147,
      " אל": 1148,
      " נו": 1149,
      "ם הי": 1150,
      "חס": 1151,
      " צ": 1152,
      "בוע": 1153,
      "מוש": 1154,
      "מל": 1155,
      "קל": 1156,
      "פת": 1157,
      "אנו": 1158,
      "מות ": 1159,
      "אד": 1160,
      "ם לא": 1161,
      "ה ו": 1162,
      "ך ב": 1163,
      "ביר": 1164,
      " להת": 1165,
      "הש": 1166,
      "שיו": 1167,
      "שא": 1168,
      "פט": 1169,
      "ה, א": 1170,
      "אז": 1171,
      "ון ה": 1172,
      "נג": 1173,
      " היו": 1174,
      "כלו": 1175,
      " אותו": 1176,
      " בש": 1177,
      "גור": 1178,
      ", ו": 1179,
      ")\n": 1180,
      "כיר": 1181,
      "עצמ": 1182,
      " אמר": 1183,
      "ים את ה": 1184,
      " הו": 1185,
      "זאת": 1186,
      "רכ": 1187,
      " את": 1188,
      "האם ": 1189,
      "נו.\n": 1190,
      "חור": 1191,
      "מקו": 1192,
      "ת א": 1193,
      "עור": 1194,
      "ה נ": 1195,
      "קוד": 1196,
      "...\n": 1197,
      " ט": 1198,
      "חיר": 1199,
      "ביל": 1200,
      "200": 1201,
      "ים לה": 1202,
      "ם, ה": 1203,
      " הפ": 1204,
      "מצא": 1205,
      "כנס": 1206,
      "חוק": 1207,
      "שנת ": 1208,
      "- ": 1209,
      " גם ": 1210,
      ".\"\n": 1211,
      " אני": 1212,
      " לק": 1213,
      "יית": 1214,
      "רצ": 1215,
      " שלו": 1216,
      "מה ש": 1217,
      "דור": 1218,
      "ar": 1219,
      "אל ": 1220,
      "or": 1221,
      "היה ": 1222,
      "חלו": 1223,
      "כונ": 1224,
      " צרי": 1225,
      "s ": 1226,
      " סי": 1227,
      " שני": 1228,
      "פילו": 1229,
      "סוף": 1230,
      "en": 1231,
      "זה.\n": 1232,
      "ה את ה": 1233,
      "זק": 1234,
      "נא": 1235,
      "רוצ": 1236,
      "עות ": 1237,
      "לב": 1238,
      ", לא": 1239,
      "פרי": 1240,
      "ספק": 1241,
      " אחר": 1242,
      "היו": 1243,
      "עבור": 1244,
      " אד": 1245,
      "מונ": 1246,
      " בת": 1247,
      "al": 1248,
      "היות ": 1249,
      "ה\"": 1250,
      "at": 1251,
      "ת, ": 1252,
      "וני": 1253,
      " רוצ": 1254,
      " שלי": 1255,
      "היר": 1256,
      "ביב": 1257,
      "עשות ": 1258,
      "מה ה": 1259,
      "ים של ": 1260,
      "זאת ": 1261,
      "שוט": 1262,
      "חלט": 1263,
      "ה?\n": 1264,
      "מני": 1265,
      ": \"": 1266,
      "טל": 1267,
      "חת ": 1268,
      "צב": 1269,
      "כאשר": 1270,
      " בה": 1271,
      "תוח": 1272,
      "אחרו": 1273,
      "ה כ": 1274,
      " תו": 1275,
      "שני": 1276,
      "רח": 1277,
      "מיו": 1278,
      " הנ": 1279,
      " זה ": 1280,
      "סת": 1281,
      " לע": 1282,
      "ה היא": 1283,
      "משי": 1284,
      "רש": 1285,
      "חוד": 1286,
      "נוע": 1287,
      " הע": 1288,
      "ה יותר": 1289,
      " מע": 1290,
      " יו": 1291,
      "כשיו": 1292,
      "סרט": 1293,
      " כא": 1294,
      "ן, ": 1295,
      "ראשון": 1296,
      "הא": 1297,
      "ה את ": 1298,
      "גש": 1299,
      "בוצ": 1300,
      " עד": 1301,
      " חי": 1302,
      "ם א": 1303,
      "קופ": 1304,
      " היה ": 1305,
      "זה מ": 1306,
      "כל מ": 1307,
      " בו": 1308,
      "לאומי": 1309,
      "טב": 1310,
      "בית ה": 1311,
      "כלי": 1312,
      "ולוגי": 1313,
      "קול": 1314,
      "זמן": 1315,
      "שוי": 1316,
      " טוב": 1317,
      " כל ": 1318,
      "ם המ": 1319,
      "מת ": 1320,
      "ולא": 1321,
      "אתה ": 1322,
      "פתח": 1323,
      "ים לא": 1324,
      " כמו": 1325,
      "לכ": 1326,
      "ות של ": 1327,
      "דוע": 1328,
      "סיב": 1329,
      "זה ה": 1330,
      "ייתי": 1331,
      "הודי": 1332,
      "כוח": 1333,
      "בין": 1334,
      " עלי": 1335,
      "צל": 1336,
      "אפשר": 1337,
      " המו": 1338,
      "הפ": 1339,
      "בל ": 1340,
      "מעט": 1341,
      "גנ": 1342,
      "es": 1343,
      " וב": 1344,
      " מב": 1345,
      " יודע": 1346,
      "קבל": 1347,
      "מהל": 1348,
      " לת": 1349,
      "כבר": 1350,
      "ספי": 1351,
      "תוך": 1352,
      "ם הוא": 1353,
      "קרוב": 1354,
      "ון.\n": 1355,
      " מאוד": 1356,
      "כמ": 1357,
      "משפח": 1358,
      "מיי": 1359,
      " ביותר": 1360,
      "שוב": 1361,
      "10": 1362,
      "ה על ": 1363,
      "חיד": 1364,
      "בינ": 1365,
      " הב": 1366,
      "ה, ה": 1367,
      "רגי": 1368,
      "),": 1369,
      " ני": 1370,
      "צפ": 1371,
      "זה לא": 1372,
      " לנו": 1373,
      "רוח": 1374,
      "נשי": 1375,
      " על ידי": 1376,
      "אבל": 1377,
      "\"ה": 1378,
      "כים ": 1379,
      "ליט": 1380,
      "ic": 1381,
      "ות\n": 1382,
      "מב": 1383,
      "מצב": 1384,
      "ם של": 1385,
      "דיר": 1386,
      " S": 1387,
      "רוע": 1388,
      "מפ": 1389,
      "כח": 1390,
      " שהוא": 1391,
      "ציא": 1392,
      "ו.\n": 1393,
      "ה של ה": 1394,
      "קיי": 1395,
      " אם ": 1396,
      "רוי": 1397,
      "מיוחד": 1398,
      " מח": 1399,
      "לים ": 1400,
      "דול": 1401,
      "בית ": 1402,
      "ות ו": 1403,
      "יא": 1404,
      "ראשונ": 1405,
      "לוי": 1406,
      "אתם ": 1407,
      "סיי": 1408,
      "משת": 1409,
      "הלי": 1410,
      "אלו": 1411,
      "it": 1412,
      " הר": 1413,
      "מדי": 1414,
      "סוי": 1415,
      "כיו": 1416,
      "נת": 1417,
      " בר": 1418,
      "ת י": 1419,
      "שה ": 1420,
      "סוג": 1421,
      "צלי": 1422,
      "זיק": 1423,
      "כים ל": 1424,
      "טע": 1425,
      "אחרי": 1426,
      "שיי": 1427,
      " להיות ": 1428,
      "לה": 1429,
      "זה ב": 1430,
      "שיב": 1431,
      "קרו": 1432,
      " עם ה": 1433,
      " מילי": 1434,
      " עבור": 1435,
      " אומר": 1436,
      "נים ה": 1437,
      "ים י": 1438,
      "הם.\n": 1439,
      "גלי": 1440,
      "טוח": 1441,
      "שתמש": 1442,
      " הה": 1443,
      "ם, מ": 1444,
      "מת ה": 1445,
      "ערכ": 1446,
      "ולד": 1447,
      " לח": 1448,
      " אלי": 1449,
      "לאחר": 1450,
      "ריי": 1451,
      " מדי": 1452,
      "מערכ": 1453,
      "קפ": 1454,
      "תחו": 1455,
      "עובד": 1456,
      "d ": 1457,
      " חיי": 1458,
      "פיע": 1459,
      "נו מ": 1460,
      "מכ": 1461,
      "סדר": 1462,
      "כתב": 1463,
      "משך": 1464,
      "סל": 1465,
      "אתר": 1466,
      "קשור": 1467,
      "עתי": 1468,
      "פולי": 1469,
      "תיי": 1470,
      "אני מ": 1471,
      "סטר": 1472,
      "במ": 1473,
      "תא": 1474,
      "קרב": 1475,
      "תוצא": 1476,
      "נים.\n": 1477,
      "ה יכול": 1478,
      "ציב": 1479,
      "he ": 1480,
      "איש": 1481,
      "st": 1482,
      "כז": 1483,
      " מנ": 1484,
      "קבוצ": 1485,
      "גב": 1486,
      " ב-": 1487,
      "דרו": 1488,
      ", הוא": 1489,
      "ארץ": 1490,
      "ביא": 1491,
      "קוח": 1492,
      "נית ": 1493,
      " אינ": 1494,
      "דיו": 1495,
      "ן א": 1496,
      "18": 1497,
      "טיפול": 1498,
      "אוד": 1499,
      "גבו": 1500,
      "ראות ": 1501,
      "חוץ": 1502,
      "ך לה": 1503,
      "תם ": 1504,
      "ה או": 1505,
      "ה וה": 1506,
      "דל": 1507,
      "נו ל": 1508,
      "עם ה": 1509,
      "תי ל": 1510,
      "ה זו": 1511,
      "ים את ": 1512,
      "נסי": 1513,
      "אמריק": 1514,
      "ואר": 1515,
      "שימוש": 1516,
      "נות": 1517,
      "קשר": 1518,
      "משחק": 1519,
      "סטורי": 1520,
      "תע": 1521,
      "קס": 1522,
      "ך מ": 1523,
      "פס": 1524,
      "זרח": 1525,
      "נושא": 1526,
      " שב": 1527,
      " כבר": 1528,
      "ם, ב": 1529,
      "ou": 1530,
      "בוד": 1531,
      "שאר": 1532,
      " עוד": 1533,
      "רבי": 1534,
      "גבי": 1535,
      "דמ": 1536,
      " C": 1537,
      "מיש": 1538,
      "סיק": 1539,
      "צוע": 1540,
      "שאל": 1541,
      "ניתן ל": 1542,
      "ציר": 1543,
      " עצ": 1544,
      "סביב": 1545,
      "אור": 1546,
      "גוף": 1547,
      "נה ה": 1548,
      "אני לא": 1549,
      " וי": 1550,
      "למ": 1551,
      "ים וה": 1552,
      "אינטר": 1553,
      " הח": 1554,
      " קי": 1555,
      "רבע": 1556,
      "על ידי": 1557,
      "שלי": 1558,
      "סור": 1559,
      " בע": 1560,
      "גבר": 1561,
      "פעיל": 1562,
      "ה ת": 1563,
      " שמ": 1564,
      "עולם ": 1565,
      "שע": 1566,
      " A": 1567,
      "כלל": 1568,
      "ים נ": 1569,
      " בני": 1570,
      " הצ": 1571,
      "שתי": 1572,
      "ילד": 1573,
      " הרב": 1574,
      "כמה ": 1575,
      "גרי": 1576,
      "ק.\n": 1577,
      "ת של ": 1578,
      " שלך": 1579,
      " פר": 1580,
      "פלסטי": 1581,
      "לדי": 1582,
      "ומד": 1583,
      "נות ה": 1584,
      " שלא": 1585,
      "וו": 1586,
      "מרי": 1587,
      "מק": 1588,
      " אחרי": 1589,
      "מידע": 1590,
      " לפני": 1591,
      "נרא": 1592,
      "נו ב": 1593,
      "om": 1594,
      "נוספ": 1595,
      "עכשיו": 1596,
      "ם היו": 1597,
      "ה\"ב": 1598,
      "תוכני": 1599,
      " האי": 1600,
      "בית": 1601,
      "אחר": 1602,
      " של א": 1603,
      " דו": 1604,
      "קח": 1605,
      " מר": 1606,
      " הס": 1607,
      "דיוק": 1608,
      "el": 1609,
      "שראל ": 1610,
      "פעול": 1611,
      "צריך ל": 1612,
      "חול": 1613,
      "ן ו": 1614,
      "ריא": 1615,
      "בעי": 1616,
      "פשוט": 1617,
      "מיתי": 1618,
      "סד": 1619,
      "אמת ": 1620,
      "מים.\n": 1621,
      "ים או": 1622,
      "ציע": 1623,
      "יש ל": 1624,
      "ם, ש": 1625,
      ", או": 1626,
      "לה ": 1627,
      "נגד": 1628,
      "עולם ה": 1629,
      "]\n": 1630,
      "15": 1631,
      "טור": 1632,
      " עו": 1633,
      "מלי": 1634,
      "דברי": 1635,
      " כל ה": 1636,
      "מה.\n": 1637,
      "טרי": 1638,
      "נהג": 1639,
      "תרו": 1640,
      "תב": 1641,
      "נחנו": 1642,
      " בעי": 1643,
      ", אני": 1644,
      "צח": 1645,
      "כה ": 1646,
      "סיט": 1647,
      "טבע": 1648,
      "גוב": 1649,
      "דובר": 1650,
      "הוד": 1651,
      " M": 1652,
      "כם.\n": 1653,
      "מצע": 1654,
      "ביע": 1655,
      "תמיד": 1656,
      "re": 1657,
      "רגע": 1658,
      "פה ": 1659,
      "ן לה": 1660,
      " של מ": 1661,
      " די": 1662,
      "סיפור": 1663,
      "ם י": 1664,
      " שע": 1665,
      "אמר": 1666,
      "ה על ה": 1667,
      "משהו": 1668,
      "גון": 1669,
      "ליי": 1670,
      "סקי": 1671,
      " פי": 1672,
      " יי": 1673,
      "קטי": 1674,
      "לתי": 1675,
      "צ'": 1676,
      "חייב": 1677,
      "טיי": 1678,
      "?\"\n": 1679,
      " T": 1680,
      " זו": 1681,
      "אבל ": 1682,
      "מות ה": 1683,
      "ן נ": 1684,
      " כש": 1685,
      "נוסף": 1686,
      "ים כ": 1687,
      "שראלי": 1688,
      "ורא": 1689,
      "שלו": 1690,
      "גוד": 1691,
      "ion": 1692,
      "בש": 1693,
      " ומ": 1694,
      " גדול": 1695,
      "תחיל": 1696,
      "מצוא": 1697,
      "נה.\n": 1698,
      "פי ש": 1699,
      ",\n": 1700,
      "כדי לה": 1701,
      "עסק": 1702,
      " חושב": 1703,
      " הק": 1704,
      "et": 1705,
      "ת המ": 1706,
      " לא מ": 1707,
      "נים ב": 1708,
      "קיד": 1709,
      " לאחר": 1710,
      "פיי": 1711,
      " באופ": 1712,
      "תים ": 1713,
      "נת ": 1714,
      "שיש": 1715,
      "משפט": 1716,
      ", אבל": 1717,
      "והב": 1718,
      " עי": 1719,
      "זון": 1720,
      "ה שה": 1721,
      "משמע": 1722,
      "000": 1723,
      "דוג": 1724,
      "ro": 1725,
      "טיח": 1726,
      ", אי": 1727,
      " דבר": 1728,
      " אותי": 1729,
      "קע": 1730,
      "ניבר": 1731,
      " '": 1732,
      "ות הברי": 1733,
      "בינלאומי": 1734,
      "ייתה ": 1735,
      " P": 1736,
      "עניי": 1737,
      "צליח": 1738,
      "ברו": 1739,
      "ויר": 1740,
      "פשי": 1741,
      "ing": 1742,
      "כדי ל": 1743,
      "199": 1744,
      "ה הוא": 1745,
      "פתי": 1746,
      "אינטרנט": 1747,
      "אנשים ": 1748,
      "כה ל": 1749,
      "ה לי": 1750,
      "ולר": 1751,
      " האו": 1752,
      "ה ביותר": 1753,
      "דיק": 1754,
      "טיס": 1755,
      "פרו": 1756,
      "קרא": 1757,
      " הם ": 1758,
      "כתוב": 1759,
      "בל ה": 1760,
      " שו": 1761,
      "בני": 1762,
      "בק": 1763,
      " ממ": 1764,
      " הז": 1765,
      "אולי": 1766,
      " הראשון": 1767,
      "ת\n": 1768,
      "עצמו": 1769,
      "ה:": 1770,
      "שרד": 1771,
      "ה המ": 1772,
      "12": 1773,
      "ה בי": 1774,
      "בר ": 1775,
      "נהל": 1776,
      "ות וה": 1777,
      "ות י": 1778,
      "30": 1779,
      "il": 1780,
      " מספר": 1781,
      "טכנ": 1782,
      "תל": 1783,
      "צלח": 1784,
      "סס": 1785,
      "עדיי": 1786,
      "כיצד": 1787,
      "נטי": 1788,
      "פרס": 1789,
      "\"ל": 1790,
      "אחד": 1791,
      "גרו": 1792,
      ", וא": 1793,
      " משהו": 1794,
      "ת ו": 1795,
      " כמה ": 1796,
      "חזר": 1797,
      "תנו": 1798,
      "ציי": 1799,
      "y ": 1800,
      "ה על": 1801,
      "עצמי": 1802,
      "תוך ה": 1803,
      "בי ה": 1804,
      "ה, מ": 1805,
      "ת את ה": 1806,
      "רפ": 1807,
      " קו": 1808,
      "ם, ל": 1809,
      "אות": 1810,
      "ch": 1811,
      "ה (": 1812,
      ", וה": 1813,
      "קום ": 1814,
      "אש": 1815,
      "צג": 1816,
      "פחות ": 1817,
      "of": 1818,
      "מה ב": 1819,
      "רד": 1820,
      "חדר": 1821,
      "ות המ": 1822,
      "כך ש": 1823,
      "גן": 1824,
      "היל": 1825,
      " פו": 1826,
      "גבוה": 1827,
      "אומר": 1828,
      " תמיד": 1829,
      "בוא": 1830,
      "כם ל": 1831,
      "חוז": 1832,
      "ניברסיט": 1833,
      "בה": 1834,
      "צטר": 1835,
      "לא מ": 1836,
      "פיק": 1837,
      "מות": 1838,
      "מים ה": 1839,
      "is": 1840,
      "ים בי": 1841,
      "ים על ": 1842,
      "חות ": 1843,
      "שלב": 1844,
      "זמן ": 1845,
      "ol": 1846,
      "נאי": 1847,
      " פעם ": 1848,
      "גיד": 1849,
      "נוס": 1850,
      "ן לא": 1851,
      " דולר": 1852,
      "ציג": 1853,
      " משת": 1854,
      "ניו": 1855,
      "גיל": 1856,
      " אפשר": 1857,
      "מתי": 1858,
      "שור": 1859,
      "נות.\n": 1860,
      " חבר": 1861,
      "ראי": 1862,
      "שים.\n": 1863,
      " כול": 1864,
      "ם:": 1865,
      "ים אחר": 1866,
      "אוי": 1867,
      "שוק": 1868,
      "ה, ב": 1869,
      " מיליון": 1870,
      "הול": 1871,
      "רוא": 1872,
      " [": 1873,
      "פלי": 1874,
      "מוק": 1875,
      "מטר": 1876,
      "היסטורי": 1877,
      " אנחנו": 1878,
      "קלי": 1879,
      "רים.\n": 1880,
      "אף": 1881,
      "ן י": 1882,
      "תור": 1883,
      "סיס": 1884,
      "ראשי": 1885,
      "רים ה": 1886,
      "ה מו": 1887,
      " פע": 1888,
      " שלנו": 1889,
      "חודש": 1890,
      ", כ": 1891,
      "דרך כל": 1892,
      "ורק": 1893,
      ", היא": 1894,
      "שינוי": 1895,
      " אוהב": 1896,
      "ד.\n": 1897,
      "מה ל": 1898,
      " באו": 1899,
      "אילו": 1900,
      "מים ב": 1901,
      "נה ב": 1902,
      "פוליטי": 1903,
      "אין ": 1904,
      "ים יותר": 1905,
      "איך": 1906,
      "פרטי": 1907,
      "כס": 1908,
      "אמי": 1909,
      " הבי": 1910,
      " חדש": 1911,
      "אתה מ": 1912,
      "ת הי": 1913,
      " אלו": 1914,
      "מצעות ": 1915,
      "מחקר": 1916,
      "חת": 1917,
      "סוגל": 1918,
      "חב": 1919,
      "טא": 1920,
      "שלוש": 1921,
      "ים ביותר": 1922,
      "קיר": 1923,
      " אשר": 1924,
      " שיש": 1925,
      "זהו": 1926,
      "אול": 1927,
      " הד": 1928,
      "ציבור": 1929,
      "עולם.\n": 1930,
      "כיוון": 1931,
      "טכנולוגי": 1932,
      " סו": 1933,
      "מה א": 1934,
      "כות ": 1935,
      "ס.\n": 1936,
      "לי.\n": 1937,
      " B": 1938,
      "לבד": 1939,
      "פעם ": 1940,
      "חסי": 1941,
      "אנש": 1942,
      "50": 1943,
      "זה הי": 1944,
      "צת ": 1945,
      "מרכז": 1946,
      "ביו": 1947,
      "כן ": 1948,
      "קוב": 1949,
      "ה עם ": 1950,
      "נקוד": 1951,
      "ה כי": 1952,
      "מעש": 1953,
      "שים ה": 1954,
      "ביי": 1955,
      "am": 1956,
      "ות?\n": 1957,
      "ם, ו": 1958,
      "יכולים ל": 1959,
      "ה, ש": 1960,
      "למוד": 1961,
      "זה י": 1962,
      "נתי": 1963,
      "פסי": 1964,
      "ני ה": 1965,
      "חרו": 1966,
      "כסף": 1967,
      "כרי": 1968,
      "ם היא": 1969,
      " אר": 1970,
      "נשים ": 1971,
      "ת ת": 1972,
      " מה ש": 1973,
      "הס": 1974,
      "ספור": 1975,
      "מן": 1976,
      " עדיי": 1977,
      "רגש": 1978,
      " רוצה ל": 1979,
      "חינו": 1980,
      "רעי": 1981,
      "נוק": 1982,
      "מיל": 1983,
      "חוש": 1984,
      " תי": 1985,
      " לעשות ": 1986,
      "”\n": 1987,
      "פא": 1988,
      "נה מ": 1989,
      "היג": 1990,
      "17": 1991,
      "נכון": 1992,
      " האד": 1993,
      "ניות ": 1994,
      "חיו": 1995,
      "לקוח": 1996,
      "ון ב": 1997,
      "אלה ": 1998,
      "משתמש": 1999,
      "מישהו": 2000,
      " אמ": 2001,
      "מודד": 2002,
      "כוונ": 2003,
      "נח": 2004,
      " נש": 2005,
      "ערב": 2006,
      "עמד": 2007,
      "ac": 2008,
      "ללו": 2009,
      "ים (": 2010,
      " לא י": 2011,
      "נב": 2012,
      "שם ": 2013,
      "ותיו": 2014,
      "16": 2015,
      "ים אחרי": 2016,
      "חברתי": 2017,
      " כאשר": 2018,
      "נים ל": 2019,
      "ב-": 2020,
      "oo": 2021,
      "שיג": 2022,
      "יום ": 2023,
      "ת את ": 2024,
      "זרחי": 2025,
      " אף": 2026,
      "הג": 2027,
      "נדר": 2028,
      " את המ": 2029,
      "מהלך ה": 2030,
      "כן ה": 2031,
      "כרו": 2032,
      "חזק": 2033,
      "ות, א": 2034,
      "וס": 2035,
      "ני.\n": 2036,
      "ניסי": 2037,
      "צבע": 2038,
      "ם\"": 2039,
      "חוב": 2040,
      "le": 2041,
      "שום ": 2042,
      "נתו": 2043,
      "עם זאת": 2044,
      " D": 2045,
      "רגיש": 2046,
      "בקש": 2047,
      " שאני": 2048,
      "רוסי": 2049,
      " מקו": 2050,
      " מק": 2051,
      "ות, ה": 2052,
      "פטי": 2053,
      "ה, ו": 2054,
      "תקופ": 2055,
      "ים עם ": 2056,
      ", בי": 2057,
      "ניק": 2058,
      "עת ": 2059,
      "עז": 2060,
      "שבי": 2061,
      "11": 2062,
      "אישי": 2063,
      "גרמני": 2064,
      " ג'": 2065,
      " פשוט": 2066,
      "אם ה": 2067,
      "אין": 2068,
      "ה מאוד": 2069,
      "דרך ה": 2070,
      "פות ": 2071,
      "גם ה": 2072,
      "למר": 2073,
      " צריך ל": 2074,
      "ל.\n": 2075,
      "נשיא": 2076,
      "\"מ": 2077,
      "כבי": 2078,
      " לפ": 2079,
      "בוש": 2080,
      "גם ב": 2081,
      " ולא": 2082,
      "כוי": 2083,
      " שהם ": 2084,
      "שיט": 2085,
      "תהלי": 2086,
      "ם של ": 2087,
      "ים של ה": 2088,
      "רחב": 2089,
      "בוקר": 2090,
      "רע": 2091,
      " לך": 2092,
      "t ": 2093,
      "נפ": 2094,
      "כמוב": 2095,
      " חשוב": 2096,
      "וע": 2097,
      "סוד": 2098,
      ", הי": 2099,
      "של ": 2100,
      "הוב": 2101,
      "צאת ": 2102,
      "משטר": 2103,
      " חייב": 2104,
      "ופ": 2105,
      "רופא": 2106,
      "ן\n": 2107,
      "תי ב": 2108,
      "עשר": 2109,
      " איש": 2110,
      "כלכלי": 2111,
      "טלי": 2112,
      "ים ומ": 2113,
      "ות הי": 2114,
      "פרט": 2115,
      "כל אחד": 2116,
      "לווי": 2117,
      "כת ": 2118,
      "הרי": 2119,
      "כדור": 2120,
      "קצי": 2121,
      " עובד": 2122,
      "סמ": 2123,
      "צמ": 2124,
      " עוש": 2125,
      "אנגלי": 2126,
      "דמו": 2127,
      "פיל": 2128,
      "פי ה": 2129,
      "כך ה": 2130,
      "רכב": 2131,
      "אט": 2132,
      "מדינ": 2133,
      "נות ב": 2134,
      " כדי ל": 2135,
      "\"אני": 2136,
      "הור": 2137,
      "סון": 2138,
      "גיל ": 2139,
      "פתרו": 2140,
      " יותר מ": 2141,
      " אתה ": 2142,
      "נות ל": 2143,
      "זה א": 2144,
      "ליל": 2145,
      " אינו": 2146,
      "כולל": 2147,
      "ארה\"ב": 2148,
      " רוא": 2149,
      "'.\n": 2150,
      ", י": 2151,
      "פלג": 2152,
      " נמצא": 2153,
      "ת לה": 2154,
      "צועי": 2155,
      "פה ה": 2156,
      " כך": 2157,
      "ארי": 2158,
      ", אבל ": 2159,
      " אנש": 2160,
      "ים מה": 2161,
      " אנשים ": 2162,
      " רב": 2163,
      "14": 2164,
      "דרי": 2165,
      "ם!\n": 2166,
      "תי.\n": 2167,
      "עיקרי": 2168,
      "זמי": 2169,
      "עדי": 2170,
      "תיק": 2171,
      "מילי": 2172,
      "13": 2173,
      "צעיר": 2174,
      " חלק": 2175,
      "ות או": 2176,
      "לא ה": 2177,
      "סביר": 2178,
      "ה וא": 2179,
      "עיד": 2180,
      "ארצ": 2181,
      " כדי לה": 2182,
      "פשרי": 2183,
      "נה ל": 2184,
      "סיר": 2185,
      " שיר": 2186,
      "חומר": 2187,
      "נוח": 2188,
      "חושב": 2189,
      "קבל ": 2190,
      "ה מה": 2191,
      "זב": 2192,
      "ף.\n": 2193,
      "ה שלי": 2194,
      "זכוי": 2195,
      " משפח": 2196,
      "בין ה": 2197,
      "רויקט": 2198,
      "בנוסף": 2199,
      "ים שו": 2200,
      "מוני": 2201,
      "קרטי": 2202,
      "בריא": 2203,
      "מספר": 2204,
      "פרק": 2205,
      "טון": 2206,
      "דק": 2207,
      " בס": 2208,
      "חקר": 2209,
      "ת?\n": 2210,
      " אדם ": 2211,
      "בלתי": 2212,
      " קט": 2213,
      " לנ": 2214,
      "אירופ": 2215,
      " I": 2216,
      "זיר": 2217,
      "מהלך": 2218,
      "כור": 2219,
      "נים ש": 2220,
      "אוחר": 2221,
      "as": 2222,
      "ן כ": 2223,
      " אז": 2224,
      "קוק": 2225,
      "גז": 2226,
      "גנו": 2227,
      "הם ה": 2228,
      "שמי": 2229,
      " שוב": 2230,
      "מעל": 2231,
      "דים.\n": 2232,
      "ך את ה": 2233,
      "נר": 2234,
      "ת היא": 2235,
      "פים ": 2236,
      " אפילו": 2237,
      "ה להי": 2238,
      "טחון": 2239,
      "יים.\n": 2240,
      "בול": 2241,
      " אנו": 2242,
      "ים אות": 2243,
      "ישראל": 2244,
      "ות של ה": 2245,
      "טמ": 2246,
      "נים מ": 2247,
      "בלו": 2248,
      " יכולים ל": 2249,
      "פעם ה": 2250,
      "ה אי": 2251,
      " אח": 2252,
      ", כי": 2253,
      "בצע": 2254,
      "רוק": 2255,
      "ייר": 2256,
      " מידע": 2257,
      "איר": 2258,
      "בט": 2259,
      " בשנת ": 2260,
      "תים קרוב": 2261,
      "100": 2262,
      "מוצר": 2263,
      "ות אחר": 2264,
      "ות את ה": 2265,
      "גיע ל": 2266,
      "אג": 2267,
      " שלוש": 2268,
      "פיתוח": 2269,
      "פת ": 2270,
      "ות לא": 2271,
      "חברי": 2272,
      "ביט": 2273,
      "תינוק": 2274,
      "הוו": 2275,
      "עונ": 2276,
      " דק": 2277,
      " נרא": 2278,
      " H": 2279,
      "תפקיד": 2280,
      "שתמש ב": 2281,
      " ישראל": 2282,
      "ow": 2283,
      "עורר": 2284,
      "היי": 2285,
      " היית": 2286,
      "עולם לא": 2287,
      "ri": 2288,
      "th": 2289,
      "החלט": 2290,
      "כמעט": 2291,
      " שבו": 2292,
      " R": 2293,
      "צוי": 2294,
      "ת לא": 2295,
      "כחי": 2296,
      " הגדול": 2297,
      "כן, ": 2298,
      "אבל ה": 2299,
      "גבל": 2300,
      "עשוי": 2301,
      "ים על ה": 2302,
      "ה הזו": 2303,
      "טני": 2304,
      "ניח": 2305,
      "ת או": 2306,
      " משמע": 2307,
      " עכשיו": 2308,
      "ה לש": 2309,
      "שיח": 2310,
      "אזור": 2311,
      "מה מ": 2312,
      "פון": 2313,
      " מה ": 2314,
      "ים וא": 2315,
      "סופו": 2316,
      "תמו": 2317,
      "ים על": 2318,
      "גדי": 2319,
      "\"י": 2320,
      "בחיר": 2321,
      " ילד": 2322,
      "גם ל": 2323,
      "סטוד": 2324,
      "198": 2325,
      " דר": 2326,
      "נמצא": 2327,
      "בין ": 2328,
      "מיני": 2329,
      " אור": 2330,
      "הל": 2331,
      "יותר מ": 2332,
      "\"ב": 2333,
      "רוכ": 2334,
      "”.\n": 2335,
      ", לה": 2336,
      " עבוד": 2337,
      " הכי": 2338,
      "ולח": 2339,
      "תוך ": 2340,
      "קוו": 2341,
      "זמן ה": 2342,
      " G": 2343,
      "הד": 2344,
      "סיף": 2345,
      " W": 2346,
      "רכי": 2347,
      "פועל": 2348,
      "עזר": 2349,
      "צוב": 2350,
      " הזה ": 2351,
      "סופי": 2352,
      "עיקר": 2353,
      " פעול": 2354,
      "משו": 2355,
      "ent": 2356,
      "תמ": 2357,
      " .\n": 2358,
      " L": 2359,
      "למד": 2360,
      "מוח": 2361,
      " מאשר": 2362,
      "\"ר": 2363,
      "ה להת": 2364,
      "נוגע": 2365,
      "בים.\n": 2366,
      "אהב": 2367,
      " גר": 2368,
      "שניי": 2369,
      "ולה": 2370,
      " מאמי": 2371,
      "חופש": 2372,
      "טוס": 2373,
      "אמריקאי": 2374,
      " את כל ה": 2375,
      "קצר": 2376,
      "ות לה": 2377,
      "ad": 2378,
      "זוג": 2379,
      "25": 2380,
      "זונ": 2381,
      "דאי": 2382,
      "עזור": 2383,
      "ובל": 2384,
      "ן המ": 2385,
      "אירוע": 2386,
      "עתיד": 2387,
      "היה ל": 2388,
      "ך לא": 2389,
      "רבה ": 2390,
      " של דבר": 2391,
      "גבול": 2392,
      "ן את ה": 2393,
      "נור": 2394,
      " הול": 2395,
      "ציבורי": 2396,
      "שת ": 2397,
      " להם ": 2398,
      "חיים ": 2399,
      " יכול ל": 2400,
      "אותו": 2401,
      "ערי": 2402,
      "דוק": 2403,
      "גני": 2404,
      "חזור": 2405,
      "ניתן לה": 2406,
      "ed": 2407,
      "עיני": 2408,
      " מפ": 2409,
      "מוע": 2410,
      "ש.\n": 2411,
      "כניס": 2412,
      "שרא": 2413,
      "חרר": 2414,
      "דרג": 2415,
      " שנים ": 2416,
      ", אשר": 2417,
      "ay": 2418,
      ", \"": 2419,
      "בתי": 2420,
      "זל": 2421,
      "קף": 2422,
      "194": 2423,
      " קר": 2424,
      " בכל ": 2425,
      "ות כ": 2426,
      " חוד": 2427,
      "טבעי": 2428,
      " F": 2429,
      "ה במ": 2430,
      "ig": 2431,
      " עשוי": 2432,
      " ידע": 2433,
      "פוט": 2434,
      " שאי": 2435,
      "ואז": 2436,
      " גם ל": 2437,
      "…\n": 2438,
      "ורד": 2439,
      "ברור": 2440,
      "ישנ": 2441,
      "נות של": 2442,
      "ה, ל": 2443,
      "197": 2444,
      "פורס": 2445,
      "זדמ": 2446,
      " t": 2447,
      " ל-": 2448,
      "כל כך": 2449,
      " האחרו": 2450,
      "סוק": 2451,
      "ה –": 2452,
      "קהיל": 2453,
      "שיא": 2454,
      "The ": 2455,
      "בשנת ": 2456,
      "ים אל": 2457,
      "מוצע": 2458,
      "בוסס": 2459,
      "40": 2460,
      "צבא": 2461,
      "ות נ": 2462,
      "פוס": 2463,
      "ur": 2464,
      "מאז": 2465,
      " שאל": 2466,
      "ו ב": 2467,
      "עשי": 2468,
      "ץ.\n": 2469,
      "מיכ": 2470,
      "נצי": 2471,
      "ת, ה": 2472,
      "ארד": 2473,
      "...": 2474,
      "קיע": 2475,
      " שת": 2476,
      "כי ה": 2477,
      "אדם ": 2478,
      "ם הם ": 2479,
      "ייחס": 2480,
      " נפ": 2481,
      "הם ב": 2482,
      "חמי": 2483,
      "פרד": 2484,
      "גדר": 2485,
      "יר": 2486,
      "מנו": 2487,
      "אוניברסיט": 2488,
      "כללי": 2489,
      " יותר.\n": 2490,
      " בד": 2491,
      "ה שב": 2492,
      "קונ": 2493,
      "מרכ": 2494,
      "ה וב": 2495,
      "גיעו": 2496,
      "ים שה": 2497,
      "ים שלנו": 2498,
      "מנע": 2499,
      "ation": 2500,
      "גיי": 2501,
      "ווי": 2502,
      "כוני": 2503,
      " ות": 2504,
      "\"א": 2505,
      "ים מו": 2506,
      "לפני": 2507,
      "מול": 2508,
      "ה מת": 2509,
      "גול": 2510,
      " להו": 2511,
      "מאוד": 2512,
      "פעמים ": 2513,
      "כל מה ש": 2514,
      "זה ל": 2515,
      "ים רב": 2516,
      "פוי": 2517,
      "ה אחר": 2518,
      "ag": 2519,
      "פוש": 2520,
      "ך, ": 2521,
      "רצי": 2522,
      "התחל": 2523,
      "חלוטי": 2524,
      "דוי": 2525,
      "iv": 2526,
      "ה הת": 2527,
      ", אלא": 2528,
      "חשבו": 2529,
      "ן של": 2530,
      "בח": 2531,
      "מרו": 2532,
      "ביקור": 2533,
      "עומ": 2534,
      " מערכ": 2535,
      " ספר": 2536,
      "בלי": 2537,
      "196": 2538,
      ";\n": 2539,
      "שחק": 2540,
      "ספרי": 2541,
      "ת הת": 2542,
      "זכור": 2543,
      " E": 2544,
      " הבא": 2545,
      " ללא": 2546,
      " צי": 2547,
      "ה ומ": 2548,
      "ות אל": 2549,
      " שהיא": 2550,
      "ליד": 2551,
      " הממשל": 2552,
      "צדק": 2553,
      "\" (": 2554,
      " מיו": 2555,
      "כלב": 2556,
      "אופן ": 2557,
      "לוויזי": 2558,
      "סופו של דבר": 2559,
      "חלק מה": 2560,
      "חלי": 2561,
      "ואני": 2562,
      "חווי": 2563,
      " המש": 2564,
      "מטי": 2565,
      ", וב": 2566,
      "מרכזי": 2567,
      "חקי": 2568,
      " בטוח": 2569,
      "ות רב": 2570,
      "סא": 2571,
      ".[": 2572,
      "עולמי": 2573,
      "זה ש": 2574,
      "אופן": 2575,
      " גי": 2576,
      "\"ח": 2577,
      "תוד": 2578,
      " עול": 2579,
      "תיב": 2580,
      "טוע": 2581,
      "ות שו": 2582,
      " אישי": 2583,
      "דעת ": 2584,
      "עבד": 2585,
      "ם את ה": 2586,
      "גלל": 2587,
      "ניהול": 2588,
      " קש": 2589,
      "הוא מ": 2590,
      " נוסף": 2591,
      "-ה": 2592,
      "שג": 2593,
      "כמו כ": 2594,
      " בפ": 2595,
      "בוק": 2596,
      "ן הי": 2597,
      " השני": 2598,
      "מוס": 2599,
      "כם ב": 2600,
      "ות על ": 2601,
      "לפי": 2602,
      "משך ": 2603,
      "כל ל": 2604,
      "כבוד": 2605,
      "סייע": 2606,
      "ף ה": 2607,
      "ות את ": 2608,
      "רופי": 2609,
      "אינם ": 2610,
      "ה אות": 2611,
      "ה שלו": 2612,
      "ברח": 2613,
      "בחי": 2614,
      "ir": 2615,
      "זכר": 2616,
      "ן?\n": 2617,
      ", אז": 2618,
      "אנרגי": 2619,
      "תי את ה": 2620,
      "ובלי": 2621,
      "ט.\n": 2622,
      "תשוב": 2623,
      "ות, מ": 2624,
      "גוע": 2625,
      "נת ה": 2626,
      "דם ": 2627,
      "עקב": 2628,
      "ים שלי": 2629,
      "גדל": 2630,
      "חשבון": 2631,
      "פריק": 2632,
      " בין ה": 2633,
      " יכול לה": 2634,
      "דרך כלל": 2635,
      "ter": 2636,
      "רוג": 2637,
      "כיל": 2638,
      " מאז": 2639,
      "ec": 2640,
      "הים ": 2641,
      " אל ": 2642,
      " מנת ל": 2643,
      " לא ה": 2644,
      "כה": 2645,
      "כלכל": 2646,
      "% מה": 2647,
      "זאת ה": 2648,
      "ם:\n": 2649,
      " עשר": 2650,
      " הזה": 2651,
      "עשו": 2652,
      "ריד": 2653,
      "פרסו": 2654,
      " זמ": 2655,
      "',": 2656,
      "תוף": 2657,
      "כולם ": 2658,
      "שבוע": 2659,
      ", ול": 2660,
      "ot": 2661,
      "צמי": 2662,
      "ת וה": 2663,
      " גם ב": 2664,
      ", נ": 2665,
      "כנו": 2666,
      "ן, ה": 2667,
      "קל ": 2668,
      " מכן": 2669,
      "בוי": 2670,
      "דאו": 2671,
      "ה ול": 2672,
      "ם האל": 2673,
      "מים ל": 2674,
      " נגד": 2675,
      "ארצות הברי": 2676,
      "אתה יכול": 2677,
      "ים לי": 2678,
      "ים במ": 2679,
      " כל כך": 2680,
      "מערכת ה": 2681,
      "מות.\n": 2682,
      "מת ל": 2683,
      "אוהב": 2684,
      ": ה": 2685,
      "חשיב": 2686,
      "חוסר": 2687,
      "60": 2688,
      "זאת.\n": 2689,
      "האם ה": 2690,
      "הייתי": 2691,
      " בין ": 2692,
      " על מ": 2693,
      "צבאי": 2694,
      " טי": 2695,
      "דיע": 2696,
      "עביר": 2697,
      "פק": 2698,
      "גוון": 2699,
      "ב.\n": 2700,
      "מקום ": 2701,
      "סטרט": 2702,
      " שונ": 2703,
      "תוכנ": 2704,
      "em": 2705,
      "קדמי": 2706,
      "רוס": 2707,
      "ף ל": 2708,
      " גבו": 2709,
      "כלומר": 2710,
      "פה.\n": 2711,
      "ספיק": 2712,
      " היה מ": 2713,
      " מיי": 2714,
      "טווח": 2715,
      " שינוי": 2716,
      " ...\n": 2717,
      "בטח": 2718,
      " שתי": 2719,
      " אל ה": 2720,
      "תי את ": 2721,
      "טרור": 2722,
      "שנה ה": 2723,
      "שמע": 2724,
      " אהב": 2725,
      "זוהי": 2726,
      "נהר": 2727,
      "לכן": 2728,
      "ום ה": 2729,
      "תו.\n": 2730,
      "ה על ידי": 2731,
      " יהי": 2732,
      "פתוח": 2733,
      "עסקי": 2734,
      "נדי": 2735,
      ", אם ": 2736,
      "ה שלנו": 2737,
      "בית הספר": 2738,
      "תה ה": 2739,
      "ה למ": 2740,
      "ך?\n": 2741,
      "צעד": 2742,
      "קא": 2743,
      "ך ו": 2744,
      "ן של ": 2745,
      " כמעט": 2746,
      "רבה יותר": 2747,
      "ייתכן": 2748,
      " עד ": 2749,
      "זיכרו": 2750,
      "ט ב": 2751,
      " מד": 2752,
      "בוגר": 2753,
      "ות מו": 2754,
      " ו-": 2755,
      "תרב": 2756,
      " בצור": 2757,
      "24": 2758,
      "נית.\n": 2759,
      "ה ב-": 2760,
      "נקרא": 2761,
      "רוצים ל": 2762,
      " ור": 2763,
      " בית ה": 2764,
      "צפון": 2765,
      " משתמש": 2766,
      "ך את ": 2767,
      "תגוב": 2768,
      "us": 2769,
      "קורי": 2770,
      " שבוע": 2771,
      "שימוש ב": 2772,
      " צור": 2773,
      " הזה.\n": 2774,
      "רוץ": 2775,
      "ניש": 2776,
      "id": 2777,
      "מיר": 2778,
      "ה עד": 2779,
      "ן הוא": 2780,
      " לס": 2781,
      " עצמו": 2782,
      " ארבע": 2783,
      "גמרי": 2784,
      "ויי": 2785,
      "un": 2786,
      "קים ": 2787,
      "בחר": 2788,
      "נוכחי": 2789,
      "עים.\n": 2790,
      "um": 2791,
      "פחד": 2792,
      "מעבר": 2793,
      "הם ל": 2794,
      "ות, ב": 2795,
      "ואל": 2796,
      " כי ה": 2797,
      "ג'י": 2798,
      "כ-": 2799,
      "שפע": 2800,
      "ערך": 2801,
      "חילו": 2802,
      "קומי": 2803,
      "זו ה": 2804,
      " חל": 2805,
      " ברי": 2806,
      "ואלי": 2807,
      "רחש": 2808,
      "ים ול": 2809,
      "דים ה": 2810,
      "חופשי": 2811,
      " הארץ": 2812,
      "עיתו": 2813,
      "ורים ה": 2814,
      " לא נ": 2815,
      "ן את ": 2816,
      "כבד": 2817,
      "תי ש": 2818,
      "אל ת": 2819,
      "צילו": 2820,
      "ציפי": 2821,
      " N": 2822,
      "דוש": 2823,
      "אר ": 2824,
      "זמן ש": 2825,
      "אושר": 2826,
      "ה של מ": 2827,
      "ענ": 2828,
      "אוויר": 2829,
      "כיח": 2830,
      "סטודנט": 2831,
      "שלום ": 2832,
      "כנרא": 2833,
      "מץ": 2834,
      "קטיבי": 2835,
      "צריכים ל": 2836,
      "עץ": 2837,
      " יום ": 2838,
      " קשר": 2839,
      "רשמי": 2840,
      "גרום ל": 2841,
      "חיים.\n": 2842,
      "רצות הברי": 2843,
      "מקד": 2844,
      " הדבר": 2845,
      " שמח": 2846,
      "דובר ב": 2847,
      "על פי": 2848,
      "דמוקרטי": 2849,
      "טפל": 2850,
      "סכ": 2851,
      "צוני": 2852,
      " חש": 2853,
      "הה": 2854,
      "טלוויזי": 2855,
      "עמוד": 2856,
      "שמ": 2857,
      "ות עם ": 2858,
      "חוקי": 2859,
      "ut": 2860,
      "ה לו": 2861,
      "רוני": 2862,
      "אשר": 2863,
      "אמצע": 2864,
      "פיר": 2865,
      "and ": 2866,
      "שהו": 2867,
      " בלי": 2868,
      "רווח": 2869,
      "סיכון": 2870,
      ", אך": 2871,
      "ך הוא": 2872,
      " מספיק": 2873,
      "מצאו": 2874,
      " כתב": 2875,
      "ראו": 2876,
      "משות": 2877,
      "פוצ": 2878,
      "התאם ": 2879,
      " במקו": 2880,
      "ת של ה": 2881,
      "פרויקט": 2882,
      "ודא": 2883,
      "חוי": 2884,
      "קידו": 2885,
      "פעי": 2886,
      "יים ה": 2887,
      " קל": 2888,
      " רי": 2889,
      "חצי": 2890,
      "תה מ": 2891,
      "רוב ה": 2892,
      ",\"": 2893,
      "נוש": 2894,
      "מוקד": 2895,
      " המדינ": 2896,
      "כפי ש": 2897,
      "מז": 2898,
      "קצ": 2899,
      "ון ל": 2900,
      "חז": 2901,
      "מדוע": 2902,
      " שלך.\n": 2903,
      "ף ב": 2904,
      "עלול": 2905,
      "אנחנו מ": 2906,
      " ניתן ל": 2907,
      "עומד": 2908,
      "ים וב": 2909,
      "שווי": 2910,
      "כאב": 2911,
      "רשי": 2912,
      "ורכב": 2913,
      " צו": 2914,
      "נה א": 2915,
      " מתחיל": 2916,
      "ה עם ה": 2917,
      " משחק": 2918,
      "ה טוב": 2919,
      "ן ע": 2920,
      "ערבי": 2921,
      " החדש": 2922,
      "ת (": 2923,
      "רוש": 2924,
      "סיסי": 2925,
      "גורי": 2926,
      " מן ה": 2927,
      "קרים ": 2928,
      "ורג": 2929,
      "לוהי": 2930,
      "ת על ": 2931,
      "ארגון": 2932,
      "ה עלי": 2933,
      ", אבל ה": 2934,
      "im": 2935,
      "עליי": 2936,
      "קפי": 2937,
      "ות בי": 2938,
      " איך": 2939,
      "למיד": 2940,
      "ישהו": 2941,
      " “": 2942,
      "אס": 2943,
      ", ת": 2944,
      "ן לי": 2945,
      " כוח": 2946,
      "כל ש": 2947,
      " כיצד": 2948,
      "סטרטגי": 2949,
      " ואי": 2950,
      " מל": 2951,
      "בטיח": 2952,
      "לנד": 2953,
      " באי": 2954,
      "ות (": 2955,
      " קור": 2956,
      "מאמר": 2957,
      "-ידי": 2958,
      "ולט": 2959,
      "לוח": 2960,
      "נים, ": 2961,
      "ורש": 2962,
      "לא נ": 2963,
      "כולנו": 2964,
      "עמ": 2965,
      "טיב": 2966,
      "עשה ": 2967,
      "קבוע": 2968,
      ", יש": 2969,
      "חליט": 2970,
      "כולו": 2971,
      "זיא": 2972,
      "צריך": 2973,
      "ם: ": 2974,
      " לקבל": 2975,
      "ה-": 2976,
      "פכ": 2977,
      " לעזור": 2978,
      "פיס": 2979,
      "כות": 2980,
      "ה היו": 2981,
      "חודי": 2982,
      " אש": 2983,
      "ים –": 2984,
      " אמריק": 2985,
      "חורי": 2986,
      " ממש": 2987,
      "רווי": 2988,
      " אית": 2989,
      "ראמפ": 2990,
      "!\"\n": 2991,
      " החי": 2992,
      "ן (": 2993,
      " ולה": 2994,
      "מה, ": 2995,
      " בריא": 2996,
      "תוכלו": 2997,
      "מות ב": 2998,
      " אולי": 2999,
      "כים ה": 3000,
      "חד עם ": 3001,
      " מז": 3002,
      "עיצוב": 3003,
      "כוש": 3004,
      " אנשי": 3005,
      "e\n": 3006,
      "למה ": 3007,
      " רצ": 3008,
      "כנע": 3009,
      "באי": 3010,
      "לא ת": 3011,
      "קטור": 3012,
      " O": 3013,
      "ן או": 3014,
      "אינו": 3015,
      "מעול": 3016,
      "].\n": 3017,
      " ה-": 3018,
      " היי": 3019,
      "פונ": 3020,
      "ם את ": 3021,
      " מלח": 3022,
      "oc": 3023,
      "בחור": 3024,
      "ה -": 3025,
      "ה להיות ": 3026,
      "המו": 3027,
      " החל": 3028,
      "שווא": 3029,
      "נות מ": 3030,
      "דברים ": 3031,
      " מעט": 3032,
      " /": 3033,
      "ת לי": 3034,
      "195": 3035,
      "קטו": 3036,
      "אנשי": 3037,
      "ra": 3038,
      "אין ל": 3039,
      "כלוסיי": 3040,
      "קורא": 3041,
      "חסר": 3042,
      " היחיד": 3043,
      "עד ": 3044,
      "בניי": 3045,
      "ה!\n": 3046,
      "ת: ": 3047,
      " היום ": 3048,
      "תרופ": 3049,
      "בים ה": 3050,
      "כל מי": 3051,
      "פנימי": 3052,
      "וקא": 3053,
      "אתה לא": 3054,
      "In": 3055,
      "ניות ה": 3056,
      "בעלי": 3057,
      "מערב": 3058,
      "ידע": 3059,
      "ואו": 3060,
      "ספורט": 3061,
      ", כמו": 3062,
      "אנו מ": 3063,
      " יורק": 3064,
      "le ": 3065,
      "סע": 3066,
      "אית": 3067,
      " גור": 3068,
      "משמעותי": 3069,
      "מאה ה": 3070,
      "זמן.\n": 3071,
      "צריכ": 3072,
      "מי ש": 3073,
      "כאן": 3074,
      "אמצעות ": 3075,
      "כע": 3076,
      "ה אני": 3077,
      "אך": 3078,
      "מט": 3079,
      "סקו": 3080,
      "ת בי": 3081,
      " את עצמ": 3082,
      "כות ה": 3083,
      "רושלי": 3084,
      "ויש": 3085,
      "ה שלא": 3086,
      " מדינ": 3087,
      "הנ": 3088,
      "ארג": 3089,
      "כך.\n": 3090,
      "ה שי": 3091,
      "ים להת": 3092,
      "כולל ": 3093,
      "ארק": 3094,
      "צרפתי": 3095,
      " זה מ": 3096,
      "פשרוי": 3097,
      "טיק": 3098,
      ", אנחנו": 3099,
      "פינ": 3100,
      "יש לי": 3101,
      "ות שלנו": 3102,
      " כסף": 3103,
      "תיר": 3104,
      "תה ב": 3105,
      " שנים.\n": 3106,
      "תעשיי": 3107,
      "אפילו": 3108,
      "אתם מ": 3109,
      "לוב": 3110,
      "חוצ": 3111,
      "ה אח": 3112,
      " צריכים ל": 3113,
      "פסיק": 3114,
      " מצ": 3115,
      "מודע": 3116,
      " קוד": 3117,
      "השפע": 3118,
      " באמת ": 3119,
      " יהיה ": 3120,
      "שנות ה": 3121,
      "נים של": 3122,
      " השנ": 3123,
      "הילד": 3124,
      "גיב": 3125,
      "ות ול": 3126,
      "ניים.\n": 3127,
      " ברור": 3128,
      "ים כי": 3129,
      "ות ביותר": 3130,
      "ציל": 3131,
      "טוב ביותר": 3132,
      " שהת": 3133,
      " שימוש": 3134,
      " קבוצ": 3135,
      "נה ש": 3136,
      "מודי": 3137,
      " תח": 3138,
      "גרס": 3139,
      "דוד": 3140,
      " למע": 3141,
      " באמצע": 3142,
      "תלמיד": 3143,
      "לים ה": 3144,
      "קיץ": 3145,
      " הג": 3146,
      "ם נ": 3147,
      " לכם ": 3148,
      "80": 3149,
      " לאור": 3150,
      "שלח": 3151,
      "מעו": 3152,
      "לים.\n": 3153,
      "ם-": 3154,
      " בלתי": 3155,
      "היה מ": 3156,
      " the ": 3157,
      "קת ": 3158,
      " הייתי": 3159,
      "ותח": 3160,
      "ספטמ": 3161,
      "21": 3162,
      "מקור": 3163,
      " מלא": 3164,
      "ורו": 3165,
      "עים ה": 3166,
      " לומר": 3167,
      "ם)": 3168,
      "תאי": 3169,
      "חד.\n": 3170,
      "סוגי": 3171,
      " המדי": 3172,
      " דרך": 3173,
      "נוכח": 3174,
      "ודאי": 3175,
      "תיכון": 3176,
      "סופר": 3177,
      "פלסטיני": 3178,
      "הן": 3179,
      "ם, לא": 3180,
      " נת": 3181,
      "הם מ": 3182,
      "חלק מ": 3183,
      "..\n": 3184,
      " זה.\n": 3185,
      "נו את ה": 3186,
      " אותם ": 3187,
      "ך\n": 3188,
      " ליצור": 3189,
      "ab": 3190,
      "זה, ": 3191,
      " באמ": 3192,
      "כפר": 3193,
      "תכני": 3194,
      "מוכ": 3195,
      "משיך ל": 3196,
      " רא": 3197,
      "ת נ": 3198,
      "ה לפני": 3199,
      "וריד": 3200,
      " זאת ": 3201,
      " משמעותי": 3202,
      "ת-": 3203,
      "תמונ": 3204,
      " מטר": 3205,
      " גם ה": 3206,
      "os": 3207,
      "סורי": 3208,
      "ות על ה": 3209,
      "ים שנ": 3210,
      "טומ": 3211,
      "בית.\n": 3212,
      "אף אחד": 3213,
      " השי": 3214,
      "זה?\n": 3215,
      "פעל": 3216,
      "מלכ": 3217,
      "שתת": 3218,
      " באמצעות ": 3219,
      "שלישי": 3220,
      "ובע": 3221,
      "שוע": 3222,
      "טכני": 3223,
      "כשיר": 3224,
      "ת הש": 3225,
      "והוא": 3226,
      "זמן ל": 3227,
      " עליו": 3228,
      "אירא": 3229,
      "ִי": 3230,
      "רחוב": 3231,
      ", ומ": 3232,
      "סטרו": 3233,
      "לדברי": 3234,
      "שמור": 3235,
      "היה ב": 3236,
      "ה עבור": 3237,
      "לס": 3238,
      "לימוד": 3239,
      "גיר": 3240,
      "קים.\n": 3241,
      "עוש": 3242,
      " לחי": 3243,
      " עומד": 3244,
      "ן כי": 3245,
      "פגש": 3246,
      "ת, מ": 3247,
      " למצוא": 3248,
      "ים להי": 3249,
      "נצח": 3250,
      "קסי": 3251,
      " שם ": 3252,
      "ות, ש": 3253,
      ", המ": 3254,
      "סרי": 3255,
      " לעבוד": 3256,
      "גל ": 3257,
      "תו של ": 3258,
      "שנים ": 3259,
      " הוא ה": 3260,
      " הוא מ": 3261,
      "ת כ": 3262,
      " ארו": 3263,
      "ף את ה": 3264,
      "ה \"": 3265,
      "מים, ": 3266,
      "לא י": 3267,
      " שר": 3268,
      "מוזיק": 3269,
      " ונ": 3270,
      "מעור": 3271,
      "מאס": 3272,
      "פולרי": 3273,
      "70": 3274,
      " בעלי": 3275,
      " אותנו": 3276,
      "ף ": 3277,
      "קצועי": 3278,
      "תנוע": 3279,
      "ות יותר": 3280,
      "כשה": 3281,
      "ה חדש": 3282,
      "ליח": 3283,
      "חינ": 3284,
      "גוסט": 3285,
      "ילדי": 3286,
      "קצת ": 3287,
      "ון מ": 3288,
      "אני חושב": 3289,
      " חול": 3290,
      "מאי": 3291,
      "יום ה": 3292,
      "אמור": 3293,
      "קרייר": 3294,
      " חזר": 3295,
      "שראל.\n": 3296,
      " לאו": 3297,
      "תוק": 3298,
      "מצאת ": 3299,
      "מים מ": 3300,
      "סימ": 3301,
      "ג.\n": 3302,
      " אותו.\n": 3303,
      " לעש": 3304,
      " שא": 3305,
      "דרש": 3306,
      "תי ה": 3307,
      "ים אשר": 3308,
      "22": 3309,
      "גם מ": 3310,
      "ביטחון": 3311,
      "מי ה": 3312,
      "כל לה": 3313,
      " זה ה": 3314,
      ".”\n": 3315,
      "ia": 3316,
      "וט": 3317,
      "ועד": 3318,
      "פת ה": 3319,
      "op": 3320,
      "פצ": 3321,
      " ממשל": 3322,
      "פיזי": 3323,
      "פרש": 3324,
      "זה יכול": 3325,
      " קיי": 3326,
      "כמה מ": 3327,
      "ות ומ": 3328,
      " מהר": 3329,
      "המשי": 3330,
      "לדוג": 3331,
      "מלא": 3332,
      "סב": 3333,
      "תי לה": 3334,
      "תפתח": 3335,
      "הלו": 3336,
      "ים שי": 3337,
      "צרו": 3338,
      " לר": 3339,
      "ות על": 3340,
      " מיליארד": 3341,
      "מצי": 3342,
      "אלבו": 3343,
      " אתם ": 3344,
      "שות": 3345,
      "מועצ": 3346,
      "ן של ה": 3347,
      "מרחק": 3348,
      "קיבל": 3349,
      "נות את ה": 3350,
      "איזה ": 3351,
      " המא": 3352,
      "ותו.\n": 3353,
      "מה ע": 3354,
      "מידי": 3355,
      "מונה ": 3356,
      "ה הא": 3357,
      " מוצר": 3358,
      "שירותי": 3359,
      "סמי": 3360,
      "פקיד": 3361,
      "טופל": 3362,
      "הדבר": 3363,
      "ן בי": 3364,
      " בפני": 3365,
      " הרבה ": 3366,
      "לו.\n": 3367,
      "תוצאה מ": 3368,
      "חפש": 3369,
      " מסו": 3370,
      ", אתה ": 3371,
      "ers": 3372,
      "טלפון": 3373,
      "לש": 3374,
      "ים לב": 3375,
      " נה": 3376,
      " באופן ": 3377,
      "עשיי": 3378,
      " מחדש": 3379,
      "אלה.\n": 3380,
      "אנושי": 3381,
      " מחקר": 3382,
      "מוך": 3383,
      "es ": 3384,
      "חמש": 3385,
      " משו": 3386,
      " בק": 3387,
      "קים ה": 3388,
      " שום ": 3389,
      "מועד": 3390,
      "כלל ": 3391,
      "בעל": 3392,
      "ורים.\n": 3393,
      "ul": 3394,
      " \"ה": 3395,
      "קרה ": 3396,
      "23": 3397,
      " שלה": 3398,
      "ונים ": 3399,
      "מצד": 3400,
      "צל ": 3401,
      "שלם ": 3402,
      "גרפי": 3403,
      "ed ": 3404,
      "ov": 3405,
      "פלו": 3406,
      "ה רב": 3407,
      " לגבי": 3408,
      "שיתוף": 3409,
      "ים מאוד": 3410,
      "רגיל": 3411,
      "ח.\n": 3412,
      "ם;": 3413,
      " מאי": 3414,
      " מהם ": 3415,
      "דיווח": 3416,
      "ניסיון": 3417,
      "ה גדול": 3418,
      " בנ": 3419,
      "מער": 3420,
      "לק": 3421,
      "ת על ה": 3422,
      " בדיוק": 3423,
      "מצעי": 3424,
      " לכ": 3425,
      " אחוז": 3426,
      "פה ב": 3427,
      "ה בר": 3428,
      "מודר": 3429,
      "ובב": 3430,
      " ומת": 3431,
      "פתע": 3432,
      "טוי": 3433,
      " מ-": 3434,
      "ניתוח": 3435,
      "ות היא": 3436,
      "תופע": 3437,
      "טים ה": 3438,
      " פח": 3439,
      "דעת": 3440,
      ", שי": 3441,
      "ממשל": 3442,
      " החבר": 3443,
      " רצי": 3444,
      "תחת ל": 3445,
      "חיים ה": 3446,
      "ראות את ה": 3447,
      "''": 3448,
      "נו לה": 3449,
      "פוסט": 3450,
      " סוף": 3451,
      " אם ה": 3452,
      "מוביל": 3453,
      "ת אות": 3454,
      "נהיג": 3455,
      "ני מ": 3456,
      "עצור": 3457,
      "ות ת": 3458,
      "קרוא": 3459,
      "טים ": 3460,
      "סטרלי": 3461,
      " לדבר": 3462,
      "ם אחד": 3463,
      "צפוי": 3464,
      " מרגיש": 3465,
      " ליי": 3466,
      "ות וב": 3467,
      "יש לנו": 3468,
      "ים מת": 3469,
      " לשמור": 3470,
      "רפואי": 3471,
      "כה.\n": 3472,
      "מינו": 3473,
      "עצב": 3474,
      " הייתה ": 3475,
      "ות הת": 3476,
      " אחת ": 3477,
      "עברו": 3478,
      "סול": 3479,
      " חזק": 3480,
      "ew": 3481,
      "נוצר": 3482,
      "רושל": 3483,
      "ל הי": 3484,
      "שוו": 3485,
      "קיים ": 3486,
      "יודע": 3487,
      "הוא לא": 3488,
      "צריך לה": 3489,
      "קדי": 3490,
      "ת על": 3491,
      "אינט": 3492,
      "נשק": 3493,
      "גנטי": 3494,
      "ap": 3495,
      " לפי": 3496,
      "היום ": 3497,
      " פל": 3498,
      "כוכב": 3499,
      "נה\n": 3500,
      "and": 3501,
      "שיעור": 3502,
      " את הה": 3503,
      "ות, ו": 3504,
      "ות:": 3505,
      "ובדי": 3506,
      "ים שב": 3507,
      "ותיהם ": 3508,
      "פתור": 3509,
      "נסו": 3510,
      " - ": 3511,
      "ה מש": 3512,
      "עית": 3513,
      "ים לש": 3514,
      "דא": 3515,
      " המת": 3516,
      " אלף": 3517,
      "רוצה ל": 3518,
      "ה שלך": 3519,
      "חברת ": 3520,
      "חזיר": 3521,
      "לך": 3522,
      " ארג": 3523,
      "משך ה": 3524,
      ", את": 3525,
      " כאן": 3526,
      " המי": 3527,
      "ברחבי ה": 3528,
      "דתי": 3529,
      " מול": 3530,
      "חיפוש": 3531,
      "צול": 3532,
      " מגיע": 3533,
      " ער": 3534,
      " כו": 3535,
      " אינטר": 3536,
      " בעול": 3537,
      " היתה ": 3538,
      " גו": 3539,
      "בואו": 3540,
      "מחי": 3541,
      "ות שנ": 3542,
      " להש": 3543,
      "ם אחר": 3544,
      "ת מה": 3545,
      "שלט": 3546,
      "אלה ה": 3547,
      "מריק": 3548,
      "ף אחד": 3549,
      "עליו": 3550,
      "כל מקו": 3551,
      "for": 3552,
      "עתים קרוב": 3553,
      "ים -": 3554,
      "מוב": 3555,
      " סיב": 3556,
      " שלי.\n": 3557,
      " אותך": 3558,
      "ה יודע": 3559,
      "193": 3560,
      "תחום ה": 3561,
      "בקר": 3562,
      "ות חדש": 3563,
      " זוכר": 3564,
      "ים מסוי": 3565,
      "מסגר": 3566,
      "כשר": 3567,
      " בלבד": 3568,
      "חזיק": 3569,
      "בר.\n": 3570,
      "זה מה ש": 3571,
      "ת, ב": 3572,
      "ותק": 3573,
      "90": 3574,
      "חוקר": 3575,
      " לקרוא": 3576,
      "נה, ": 3577,
      "ם האחרו": 3578,
      "זו.\n": 3579,
      " בתחו": 3580,
      "סחר": 3581,
      "ם ו": 3582,
      "ות הא": 3583,
      "דרוש": 3584,
      "דרך ": 3585,
      "ת אי": 3586,
      " עם מ": 3587,
      " העיר": 3588,
      "מאפשר": 3589,
      "ראשונה ": 3590,
      "ות וא": 3591,
      "פשט": 3592,
      "למעש": 3593,
      " היה ל": 3594,
      "אבי": 3595,
      "ן, מ": 3596,
      "סגר": 3597,
      "ה יש": 3598,
      "שלוח": 3599,
      " וש": 3600,
      " נות": 3601,
      "גל ה": 3602,
      "ודד": 3603,
      "כל.\n": 3604,
      "תרחש": 3605,
      " ראש": 3606,
      "מלח": 3607,
      "שביל": 3608,
      "ים כמו": 3609,
      " אבל": 3610,
      " בנו": 3611,
      " הילד": 3612,
      "מערבי": 3613,
      "גלו": 3614,
      "חשו": 3615,
      "כנות ": 3616,
      "ראוי": 3617,
      "ות הנ": 3618,
      " קול": 3619,
      "חלוק": 3620,
      "זכיר": 3621,
      " הגיע": 3622,
      "ה כמו": 3623,
      " היה ב": 3624,
      " רע": 3625,
      "פסק": 3626,
      "צפו": 3627,
      "ביצוע": 3628,
      "מעניי": 3629,
      "og": 3630,
      "ים.\n": 3631,
      ", זה ": 3632,
      " ראי": 3633,
      " זמן": 3634,
      "\"לא": 3635,
      "כה ב": 3636,
      "תנאי": 3637,
      "דברים ש": 3638,
      "ים יש": 3639,
      " בהת": 3640,
      "דברים ה": 3641,
      "פג": 3642,
      "היות מ": 3643,
      " נקוד": 3644,
      "תחוש": 3645,
      ") ו": 3646,
      "500": 3647,
      "ות, ל": 3648,
      "אים.\n": 3649,
      " אופ": 3650,
      "סטרי": 3651,
      "רגלי": 3652,
      " St": 3653,
      "חפ": 3654,
      "יהודי": 3655,
      "נכ": 3656,
      " שהו": 3657,
      "אתגר": 3658,
      " מיליון דולר": 3659,
      "com": 3660,
      "ת, א": 3661,
      "חוזר": 3662,
      "קוי": 3663,
      " נתו": 3664,
      " שלהם ": 3665,
      "חויב": 3666,
      "חלקי": 3667,
      " אפשרי": 3668,
      "קשה ל": 3669,
      "גלל ": 3670,
      "חינוך": 3671,
      "אוחר יותר": 3672,
      "חולי": 3673,
      "פלא": 3674,
      "קחת ": 3675,
      "כדאי": 3676,
      ", ולא": 3677,
      "כיב": 3678,
      " רחב": 3679,
      "כרטיס": 3680,
      " עלול": 3681,
      " אב": 3682,
      " מעל": 3683,
      " שמע": 3684,
      "רי ה": 3685,
      "ברא": 3686,
      "אנשים ש": 3687,
      "עומת ": 3688,
      "מת.\n": 3689,
      " בסיס": 3690,
      "עצר": 3691,
      " על פי": 3692,
      "רכז": 3693,
      "קיפ": 3694,
      " אחר.\n": 3695,
      "אפשר ל": 3696,
      "igh": 3697,
      "חתו": 3698,
      "ן מו": 3699,
      "נושי": 3700,
      "ריר": 3701,
      "ם לה": 3702,
      "התאם ל": 3703,
      " שאנחנו": 3704,
      "נים": 3705,
      "ה הראשונ": 3706,
      "ות היו": 3707,
      " מאפשר": 3708,
      "שירות": 3709,
      "ess": 3710,
      "גדיר": 3711,
      "יציר": 3712,
      ", כאשר": 3713,
      " עסק": 3714,
      "ם, או": 3715,
      "ונטי": 3716,
      "כך שה": 3717,
      "דמי": 3718,
      "ת הא": 3719,
      "כן.\n": 3720,
      "קדם ": 3721,
      " The ": 3722,
      "26": 3723,
      "איפ": 3724,
      "ות שלי": 3725,
      "דריש": 3726,
      "ה: ": 3727,
      "זקוק": 3728,
      "שראל ה": 3729,
      " חשב": 3730,
      " טע": 3731,
      "תוכנית ": 3732,
      "av": 3733,
      " מקור": 3734,
      "מיט": 3735,
      "טיול": 3736,
      "ה בה": 3737,
      "ים אלו": 3738,
      " להיות מ": 3739,
      "חוץ ל": 3740,
      "אנטי": 3741,
      "ם, וה": 3742,
      "בריטי": 3743,
      " סרט": 3744,
      "ף את ": 3745,
      " מישהו": 3746,
      "28": 3747,
      "בנק": 3748,
      "ה אותו": 3749,
      " מיד": 3750,
      " מיל": 3751,
      "נדס": 3752,
      "שטח": 3753,
      " אלא": 3754,
      " של ב": 3755,
      " תקופ": 3756,
      " ארה\"ב": 3757,
      "\"אנחנו": 3758,
      "מן ": 3759,
      "מחשב": 3760,
      "בונ": 3761,
      "ונג": 3762,
      " ?\n": 3763,
      "ת, ש": 3764,
      "נו ה": 3765,
      "חים.\n": 3766,
      "לוה": 3767,
      "כנס ל": 3768,
      "יית ": 3769,
      "כים.\n": 3770,
      "קרקע": 3771,
      " פרי": 3772,
      " אין ": 3773,
      " ההת": 3774,
      " שיו": 3775,
      " באותו": 3776,
      "St": 3777,
      "צאו": 3778,
      "ות מה": 3779,
      "גופ": 3780,
      "35": 3781,
      "ייצור": 3782,
      " כמה ש": 3783,
      " שלכ": 3784,
      "חייו": 3785,
      "אבד": 3786,
      "מדינות ": 3787,
      "טק": 3788,
      "27": 3789,
      "סקר": 3790,
      " נית": 3791,
      "ארו": 3792,
      "בנ": 3793,
      "בסוף": 3794,
      "חיק": 3795,
      " נכון": 3796,
      "מכר": 3797,
      " האם ": 3798,
      "ת עם ": 3799,
      " שזה ": 3800,
      "ם הת": 3801,
      "סוכר": 3802,
      "ות נוספ": 3803,
      "מים": 3804,
      "סיכוי": 3805,
      "חוו": 3806,
      "חוף": 3807,
      "ה עוד": 3808,
      "ות שה": 3809,
      "!!\n": 3810,
      "זרי": 3811,
      "שה": 3812,
      "ה הנ": 3813,
      "דון": 3814,
      "אנשים ה": 3815,
      "רצח": 3816,
      "ניו יורק": 3817,
      "בין מ": 3818,
      "זה הוא": 3819,
      "our": 3820,
      "ישראל ": 3821,
      ", כש": 3822,
      "סיוע": 3823,
      "כלפי": 3824,
      " שלכם ": 3825,
      " ליד": 3826,
      " כ-": 3827,
      "פני ה": 3828,
      "פעילות ": 3829,
      "ברגע": 3830,
      "אים ה": 3831,
      "ספציפי": 3832,
      "טובה ביותר": 3833,
      " שלו.\n": 3834,
      "דרך כלל ": 3835,
      "ביל ": 3836,
      " הישראלי": 3837,
      "דני": 3838,
      "סבל": 3839,
      "סבוק": 3840,
      "די.\n": 3841,
      "לונד": 3842,
      "נסה ל": 3843,
      " להתחיל": 3844,
      "ים אחרים.\n": 3845,
      "כדור הארץ": 3846,
      " בן ": 3847,
      " זי": 3848,
      ": מ": 3849,
      " קצת ": 3850,
      "אמנ": 3851,
      "ות אות": 3852,
      "ak": 3853,
      "בדיק": 3854,
      "מה של": 3855,
      "סובל": 3856,
      " שיי": 3857,
      "של ה": 3858,
      "ind": 3859,
      "בין ש": 3860,
      "אוש": 3861,
      "בעוד": 3862,
      " V": 3863,
      " במשך": 3864,
      " פור": 3865,
      "גלל ה": 3866,
      " למנוע": 3867,
      "אורי": 3868,
      "גברי": 3869,
      "פוטנצי": 3870,
      "מעולם לא": 3871,
      "הק": 3872,
      " במיוחד": 3873,
      "איך ל": 3874,
      "ה את": 3875,
      " בינו": 3876,
      " שנה ": 3877,
      "all": 3878,
      "זמן רב": 3879,
      "ה וי": 3880,
      "ברר": 3881,
      "ים אותו": 3882,
      "ודק": 3883,
      "הם לא": 3884,
      "לחץ": 3885,
      "כלא": 3886,
      "קני": 3887,
      " היה ה": 3888,
      " לקחת ": 3889,
      "מחל": 3890,
      " באתר": 3891,
      " פעיל": 3892,
      "מאבק": 3893,
      " מסת": 3894,
      "שרד ה": 3895,
      "זול": 3896,
      "ות הללו": 3897,
      "תו של ה": 3898,
      "מקום ה": 3899,
      " ראשון": 3900,
      "זצי": 3901,
      "עני": 3902,
      " שש": 3903,
      "איחוד": 3904,
      " והת": 3905,
      "ים שלו": 3906,
      "עניק": 3907,
      "לוו": 3908,
      " להתמודד": 3909,
      "ן, ש": 3910,
      "צלו": 3911,
      "רצו": 3912,
      "תה ל": 3913,
      ", עם ": 3914,
      "משפטי": 3915,
      "קלט": 3916,
      "מך": 3917,
      "מציא": 3918,
      "סכי": 3919,
      "ה שהוא": 3920,
      "ה מלא": 3921,
      "\"כ": 3922,
      "סמכ": 3923,
      " אתר": 3924,
      "רוד": 3925,
      "סיפ": 3926,
      " פחות ": 3927,
      " יכולה ל": 3928,
      "נשאר": 3929,
      "קריא": 3930,
      " לקח": 3931,
      "חזי": 3932,
      "ות\"": 3933,
      "שימו": 3934,
      "ונות ": 3935,
      "כל דבר": 3936,
      "מת ב": 3937,
      "נוספי": 3938,
      "עובר": 3939,
      "ות שלו": 3940,
      "גם אם ": 3941,
      " באות": 3942,
      "ת ישראל": 3943,
      "ה:\n": 3944,
      "נצל": 3945,
      "שיפור": 3946,
      "כו ל": 3947,
      "כרח": 3948,
      " רוב": 3949,
      "סעי": 3950,
      "ת ע": 3951,
      "גוש": 3952,
      " בשביל": 3953,
      " וד": 3954,
      "לט": 3955,
      "תי מ": 3956,
      "פתאו": 3957,
      " אתה מ": 3958,
      "סגנו": 3959,
      " השת": 3960,
      "ת הה": 3961,
      "גידול": 3962,
      "שים את ": 3963,
      " סוג": 3964,
      "\"ש": 3965,
      "אלא": 3966,
      "יד": 3967,
      "כוה": 3968,
      "כגון": 3969,
      " הקוד": 3970,
      "ניע": 3971,
      "ליו": 3972,
      "מי.\n": 3973,
      "ים חד": 3974,
      " גם מ": 3975,
      "191": 3976,
      "הם": 3977,
      "ת:": 3978,
      " אמיתי": 3979,
      "חים ה": 3980,
      "טט": 3981,
      "מקר": 3982,
      "מחיר": 3983,
      " בסדר": 3984,
      "מוסד": 3985,
      "כיש": 3986,
      ", הם ": 3987,
      "במקר": 3988,
      "% מ": 3989,
      "o ": 3990,
      "חיב": 3991,
      " יוצא": 3992,
      "קה ה": 3993,
      "שם ה": 3994,
      " בכל ה": 3995,
      "תחיי": 3996,
      "אלוהי": 3997,
      "תואר": 3998,
      "רו ל": 3999,
      " יהודי": 4000,
      "נות את ": 4001,
      "עד ל": 4002,
      " (ב": 4003,
      " לבצע": 4004,
      "שד": 4005,
      "לישי": 4006,
      " בידי": 4007,
      " אירופ": 4008,
      "פוך": 4009,
      "כותר": 4010,
      "תיד": 4011,
      "לול": 4012,
      "קה ": 4013,
      " עונ": 4014,
      " והוא": 4015,
      "נים ו": 4016,
      " of": 4017,
      "כותי": 4018,
      " העלי": 4019,
      "ת \"": 4020,
      " מוד": 4021,
      " שעות ": 4022,
      "מוי": 4023,
      "היה ה": 4024,
      "הם י": 4025,
      "פני ש": 4026,
      "ev": 4027,
      "ייחודי": 4028,
      "ה הזאת ": 4029,
      " המלח": 4030,
      "כנסיי": 4031,
      "ניים ": 4032,
      "ריח": 4033,
      "מית": 4034,
      "בריטני": 4035,
      "זהיר": 4036,
      "רכוש": 4037,
      "תקשור": 4038,
      " אמור": 4039,
      "מון ": 4040,
      "משחקי": 4041,
      "מצוי": 4042,
      " סביב": 4043,
      "if": 4044,
      "צביע": 4045,
      "ספר ה": 4046,
      "ook": 4047,
      "פעם הראשונ": 4048,
      "תכונ": 4049,
      " עניי": 4050,
      "אי ": 4051,
      "\"?\n": 4052,
      "ob": 4053,
      "פואי": 4054,
      "שט": 4055,
      " מחשב": 4056,
      "ה אחת ": 4057,
      "ים שלך": 4058,
      " שנה.\n": 4059,
      "כיוון ש": 4060,
      "ast": 4061,
      "עדר": 4062,
      " עבר": 4063,
      "לוק": 4064,
      "חרד": 4065,
      "פוך ל": 4066,
      "עברי": 4067,
      " כללי": 4068,
      "דויק": 4069,
      "זיאון": 4070,
      "'\n": 4071,
      "ה עוש": 4072,
      "כוון": 4073,
      "ים שלא": 4074,
      "ם, אבל": 4075,
      "חכ": 4076,
      "פך ל": 4077,
      "צהר": 4078,
      " מה ה": 4079,
      " מכיר": 4080,
      "יינו": 4081,
      "דרך ל": 4082,
      "יוצא": 4083,
      "רצון": 4084,
      "ה רק": 4085,
      "ניס": 4086,
      "פופולרי": 4087,
      "קורס": 4088,
      "צמיח": 4089,
      "כתיב": 4090,
      "ריון": 4091,
      " קורא": 4092,
      " האירופי": 4093,
      "od": 4094,
      " בעל": 4095,
      "אוכלוסיי": 4096,
      " ויותר": 4097,
      "דרכ": 4098,
      "ת ומ": 4099,
      " יהיו": 4100,
      "כלול": 4101,
      "ן, ב": 4102,
      " בקרב": 4103,
      "פרע": 4104,
      "סקס": 4105,
      " שנת ": 4106,
      "צ'י": 4107,
      "דג": 4108,
      "סטו": 4109,
      "היגי": 4110,
      "חיל ": 4111,
      "הם, ": 4112,
      " עור": 4113,
      "חיים ב": 4114,
      "ים להיות ": 4115,
      " את הי": 4116,
      "פשע": 4117,
      "טבח": 4118,
      "ן, א": 4119,
      " ביקור": 4120,
      " לא רק": 4121,
      "כיום ": 4122,
      "קום ה": 4123,
      "שומת ל": 4124,
      "סודי": 4125,
      "צריכה ל": 4126,
      "עבודה.\n": 4127,
      "מעלה מ": 4128,
      "נות, ": 4129,
      "פוא": 4130,
      "תאו": 4131,
      "דיד": 4132,
      "חיות ": 4133,
      "נישואי": 4134,
      "e.\n": 4135,
      "ים לו": 4136,
      "ות הוא": 4137,
      "עוצ": 4138,
      " מאד": 4139,
      "צורך": 4140,
      "רעיון": 4141,
      "ומר": 4142,
      "עק": 4143,
      "שמו": 4144,
      "נו את ": 4145,
      " קרוב": 4146,
      "וקח": 4147,
      "קודם ": 4148,
      "נער": 4149,
      "נהל ": 4150,
      " זקוק": 4151,
      " צריכ": 4152,
      "נסיע": 4153,
      " הרבה יותר": 4154,
      "מג": 4155,
      "ואם ": 4156,
      "חלב": 4157,
      "ex": 4158,
      "קבע": 4159,
      "ים אי": 4160,
      " שאת": 4161,
      " חוקי": 4162,
      "ה: \"": 4163,
      " מדבר": 4164,
      "שיער": 4165,
      " ישראל ": 4166,
      "ראה ": 4167,
      "דלק": 4168,
      "תוכנית ה": 4169,
      "רוויח": 4170,
      " ספק": 4171,
      "29": 4172,
      "נים של ": 4173,
      " התיכון": 4174,
      "דעתי": 4175,
      "דוגמא": 4176,
      "a ": 4177,
      "ודו": 4178,
      " לא ת": 4179,
      "ה בשנת ": 4180,
      "ים בה": 4181,
      "מעמד": 4182,
      " שלנו.\n": 4183,
      "אלה ש": 4184,
      "ומו": 4185,
      "ים בר": 4186,
      " נשאר": 4187,
      "192": 4188,
      "צליחו": 4189,
      "ל ב": 4190,
      "ם\"\n": 4191,
      " שאתה ": 4192,
      "זהר": 4193,
      "גורר": 4194,
      "עורב": 4195,
      "תהליך ה": 4196,
      "חקיר": 4197,
      " שיט": 4198,
      "אבק": 4199,
      " תוכני": 4200,
      "חמד": 4201,
      "”,": 4202,
      "לוונטי": 4203,
      "רחבי ה": 4204,
      "ם או": 4205,
      " ימי": 4206,
      " ואני": 4207,
      "גדיל": 4208,
      "מים ש": 4209,
      "תגי": 4210,
      "ים בו": 4211,
      "סוכנ": 4212,
      "דווקא": 4213,
      "נות של ": 4214,
      "חברה ": 4215,
      "אופן מ": 4216,
      "זה היה ": 4217,
      " סט": 4218,
      "ז'": 4219,
      "ן-": 4220,
      "נה של": 4221,
      "משק": 4222,
      "מאמי": 4223,
      "ell": 4224,
      "דאג": 4225,
      "לאי": 4226,
      "שמש": 4227,
      "תלוי": 4228,
      " מצב": 4229,
      "נה?\n": 4230,
      " טוב.\n": 4231,
      "גג": 4232,
      "טראמפ": 4233,
      "פל ": 4234,
      " נולד": 4235,
      "אני א": 4236,
      "פחות מ": 4237,
      " באזור": 4238,
      "מונח": 4239,
      " חודש": 4240,
      "בכל ": 4241,
      "כפי": 4242,
      " בל": 4243,
      "ואת ה": 4244,
      " היה א": 4245,
      "יוצר": 4246,
      "נייר": 4247,
      " אותם.\n": 4248,
      "אמרו": 4249,
      "est": 4250,
      "ץ ל": 4251,
      "ים מש": 4252,
      "ותב": 4253,
      "נו ש": 4254,
      "שישי": 4255,
      "תושבי": 4256,
      "בוס": 4257,
      "סוצי": 4258,
      "ה, וה": 4259,
      " זאת": 4260,
      "ם שבו": 4261,
      "מקומי": 4262,
      "כולוגי": 4263,
      "כם ה": 4264,
      "פטר": 4265,
      "ה שהיא": 4266,
      "נוגע ל": 4267,
      " U": 4268,
      "כשל": 4269,
      "לצ": 4270,
      "מסר": 4271,
      "דיון": 4272,
      " לשחק": 4273,
      "בית המשפט": 4274,
      "סכו": 4275,
      "קדו": 4276,
      "שהי": 4277,
      "קבל ה": 4278,
      "עתיק": 4279,
      "ill": 4280,
      "נוסע": 4281,
      "טומטי": 4282,
      "ץ ": 4283,
      "צעי": 4284,
      "ולם ": 4285,
      "רבים מ": 4286,
      "ולי ": 4287,
      "קורב": 4288,
      "ם, אי": 4289,
      "ג'יי": 4290,
      " מבקש": 4291,
      "45": 4292,
      "סלא": 4293,
      "עת": 4294,
      "רחוק": 4295,
      " כלו": 4296,
      " או ל": 4297,
      "ות להת": 4298,
      "חברה ה": 4299,
      "ות אלו": 4300,
      "עודד": 4301,
      " ארצות הברי": 4302,
      "מוכר": 4303,
      " כדור": 4304,
      "רבות ": 4305,
      " ביום ": 4306,
      " אירא": 4307,
      " של י": 4308,
      "וליטי": 4309,
      "oog": 4310,
      ". ": 4311,
      "ה, לא": 4312,
      "חומרי": 4313,
      " מאוד.\n": 4314,
      "יש לך": 4315,
      " לא יכול": 4316,
      "מערכת ": 4317,
      "צמבר ": 4318,
      "-א": 4319,
      " במהלך ה": 4320,
      " חלו": 4321,
      "תם ל": 4322,
      " בתו": 4323,
      "מושל": 4324,
      "גוני": 4325,
      "עוזר": 4326,
      "עקרו": 4327,
      " במר": 4328,
      "ה הגדול": 4329,
      "הוא ה": 4330,
      "רגשתי": 4331,
      "גא": 4332,
      "לונ": 4333,
      "202": 4334,
      "בד.\n": 4335,
      "כוחות ה": 4336,
      " מדינות ": 4337,
      "פיננסי": 4338,
      "\"ל ": 4339,
      "גמר": 4340,
      "פים ל": 4341,
      "ראיי": 4342,
      "תיים.\n": 4343,
      "אין לי": 4344,
      "תמיכ": 4345,
      "ברט": 4346,
      "סיני": 4347,
      "מפרי": 4348,
      "עלו": 4349,
      "מין ": 4350,
      "מון": 4351,
      " בית ": 4352,
      "מדו": 4353,
      " מג": 4354,
      " ית": 4355,
      "פים.\n": 4356,
      "קווי": 4357,
      "סתיי": 4358,
      "ארבע": 4359,
      "דעי": 4360,
      "ים קט": 4361,
      "ות –": 4362,
      " כיו": 4363,
      " יצא": 4364,
      " או ב": 4365,
      " בעיקר": 4366,
      "חסו": 4367,
      " לקוח": 4368,
      " בחיי": 4369,
      " שבע": 4370,
      "תוו": 4371,
      "ה בו": 4372,
      " או ": 4373,
      " רכב": 4374,
      "למרות ש": 4375,
      "ep": 4376,
      "ביום ": 4377,
      "מעשי": 4378,
      " קיבל": 4379,
      "דיגי": 4380,
      "ה אנחנו": 4381,
      "ומח": 4382,
      " חוזר": 4383,
      "זהב": 4384,
      "תש": 4385,
      "אירו": 4386,
      " יפ": 4387,
      ", מי": 4388,
      " להיות ב": 4389,
      "נדב": 4390,
      "תקשר": 4391,
      "צט": 4392,
      "ור.\n": 4393,
      "מסור": 4394,
      " לחזור": 4395,
      " אליו": 4396,
      " אלוהי": 4397,
      "להי": 4398,
      "סמו": 4399,
      "סכנ": 4400,
      " שעבר": 4401,
      "קומ": 4402,
      "עודי": 4403,
      " In": 4404,
      "טקס": 4405,
      " שחק": 4406,
      " עזר": 4407,
      "קושי": 4408,
      "קראו": 4409,
      "ה עו": 4410,
      "שנה.\n": 4411,
      "מה לא": 4412,
      "ה כבר": 4413,
      "תהליך": 4414,
      "s\n": 4415,
      "ה)": 4416,
      "ים נוספ": 4417,
      "עצמא": 4418,
      "תחת": 4419,
      "ישנם ": 4420,
      "תחר": 4421,
      "ותף": 4422,
      "eb": 4423,
      " לכך": 4424,
      " לחלוטי": 4425,
      " שמו": 4426,
      "ניהו": 4427,
      "הוצא": 4428,
      "קטרוני": 4429,
      "עיר.\n": 4430,
      " צפוי": 4431,
      "מזרח": 4432,
      "רגל": 4433,
      "ניסוי": 4434,
      "ביטוח": 4435,
      "ה הו": 4436,
      " ידוע": 4437,
      "מהר": 4438,
      " לבחור": 4439,
      " הכל": 4440,
      "ה גם ": 4441,
      "ות לי": 4442,
      "ון, ": 4443,
      " להגיע": 4444,
      " פני": 4445,
      "עצם ": 4446,
      "קדש": 4447,
      "רק ב": 4448,
      "art": 4449,
      "רפוא": 4450,
      " מיוחד": 4451,
      "בנו": 4452,
      "ה הם ": 4453,
      "כוס": 4454,
      "עד כ": 4455,
      "מסע": 4456,
      " היום.\n": 4457,
      "נת ל": 4458,
      "רס": 4459,
      "תיאור": 4460,
      "היא מ": 4461,
      " בהחלט": 4462,
      "מדינה ": 4463,
      "חיובי": 4464,
      "ct": 4465,
      "ist": 4466,
      "פך": 4467,
      " איי": 4468,
      "ת הוא": 4469,
      " ילדי": 4470,
      " היהודי": 4471,
      "נהדר": 4472,
      "מוצרי": 4473,
      ", אמר": 4474,
      "ה שנ": 4475,
      " ביוני": 4476,
      " אותה.\n": 4477,
      "במבר ": 4478,
      "קלא": 4479,
      "סיכו": 4480,
      "ויד": 4481,
      "ראות את ": 4482,
      "מעורב": 4483,
      "eg": 4484,
      "ub": 4485,
      "ד\"ר": 4486,
      "ות גדול": 4487,
      " המשי": 4488,
      " קרא": 4489,
      "זיהו": 4490,
      "כל מקר": 4491,
      "טורקי": 4492,
      "איי": 4493,
      "דף": 4494,
      "ה נוספ": 4495,
      "נייד": 4496,
      "פורט": 4497,
      "רקע": 4498,
      "עשות את ": 4499,
      "פוליטיק": 4500,
      "300": 4501,
      "Ch": 4502,
      "ית": 4503,
      "דינה ": 4504,
      " עמד": 4505,
      " את הש": 4506,
      " רוח": 4507,
      "נשמע": 4508,
      "עדיין": 4509,
      "כביש": 4510,
      "כתוצאה מ": 4511,
      "מות מ": 4512,
      "ברלי": 4513,
      "ת –": 4514,
      " כת": 4515,
      "שופט": 4516,
      " שלהם.\n": 4517,
      " את מה ש": 4518,
      "רבה מ": 4519,
      " מור": 4520,
      "רים, ": 4521,
      "קישור": 4522,
      "טובוס": 4523,
      " תוצא": 4524,
      "ה מי": 4525,
      "ה אחרי": 4526,
      " זה ב": 4527,
      "מת העולם ה": 4528,
      " :": 4529,
      "יתר": 4530,
      " למד": 4531,
      "ול.\n": 4532,
      "משבר": 4533,
      "פוח": 4534,
      " חסר": 4535,
      " – ": 4536,
      "ז.\n": 4537,
      "פות ה": 4538,
      "צעו": 4539,
      "ים ונ": 4540,
      "עיון": 4541,
      "מושג": 4542,
      "ה, או": 4543,
      "רביעי": 4544,
      "עם זאת, ": 4545,
      "חג": 4546,
      "קחו": 4547,
      "ות שי": 4548,
      "דינות ": 4549,
      "אני יודע": 4550,
      " קצ": 4551,
      "עוניי": 4552,
      "אחורי": 4553,
      "זכרו": 4554,
      "ity": 4555,
      "oun": 4556,
      " אינטרנט": 4557,
      " בספטמ": 4558,
      "ות:\n": 4559,
      "חובר": 4560,
      " והמ": 4561,
      "גופני": 4562,
      " אחד.\n": 4563,
      "ראשוני": 4564,
      "ם, הוא": 4565,
      "נדרש": 4566,
      "סתי": 4567,
      " לעצמ": 4568,
      " ביני": 4569,
      "צוג": 4570,
      " צריך": 4571,
      "'s ": 4572,
      "נקי": 4573,
      "פגיע": 4574,
      "אוכל": 4575,
      " קצר": 4576,
      "צרפת": 4577,
      "ותי.\n": 4578,
      "רוחני": 4579,
      "מבט": 4580,
      "פתיע": 4581,
      " פעם לא": 4582,
      "?”\n": 4583,
      "נזק": 4584,
      " לך ל": 4585,
      "מיק": 4586,
      "פוץ": 4587,
      "%.\n": 4588,
      "כאילו": 4589,
      " מחל": 4590,
      "היות ב": 4591,
      "דווח": 4592,
      " כולל": 4593,
      "בדו": 4594,
      "חמור": 4595,
      "פחי": 4596,
      "ואב": 4597,
      "שילוב": 4598,
      "צים.\n": 4599,
      "מנהיג": 4600,
      "הליך": 4601,
      "דיבר": 4602,
      "ם הא": 4603,
      "טימי": 4604,
      "הוא נ": 4605,
      " צ'": 4606,
      " הזדמ": 4607,
      "חמישי": 4608,
      "BA": 4609,
      "טורי": 4610,
      "פה ל": 4611,
      "אם אתה ": 4612,
      " במהיר": 4613,
      "שיווק": 4614,
      "קה": 4615,
      "לא רק": 4616,
      "יש לו": 4617,
      "גיע ה": 4618,
      " מעניי": 4619,
      "מאה ה-": 4620,
      "pl": 4621,
      "כשי": 4622,
      "פגיש": 4623,
      "ים רבי": 4624,
      "בינו": 4625,
      "שינג": 4626,
      " לאכול": 4627,
      "ה של המ": 4628,
      "קטרו": 4629,
      "כמו ש": 4630,
      "זאת, ": 4631,
      " סיפור": 4632,
      ", של": 4633,
      ", היו": 4634,
      " מונ": 4635,
      "ורח": 4636,
      "טים.\n": 4637,
      " אינה ": 4638,
      "הבעי": 4639,
      "עבודה ": 4640,
      "קבלו": 4641,
      "השקע": 4642,
      " רוצה לה": 4643,
      "כוב": 4644,
      "מה של ": 4645,
      "ות הש": 4646,
      " אנרגי": 4647,
      "ה יותר.\n": 4648,
      "אמא": 4649,
      "מדע": 4650,
      "ה החדש": 4651,
      " את זה.\n": 4652,
      "עושים ": 4653,
      "מפיי": 4654,
      "אמריקני": 4655,
      "פייסבוק": 4656,
      "פעילוי": 4657,
      " J": 4658,
      "36": 4659,
      "ות טוב": 4660,
      " עש": 4661,
      ", אנו": 4662,
      " יכול להיות ": 4663,
      "תת ": 4664,
      "מוסל": 4665,
      " כפי ש": 4666,
      "משקל": 4667,
      "נבחר": 4668,
      "שום דבר": 4669,
      " טו": 4670,
      "ָּ": 4671,
      "משמש": 4672,
      " לא יודע": 4673,
      " את עצמו": 4674,
      "עוני": 4675,
      " להיות ש": 4676,
      "ם של ה": 4677,
      "מלו": 4678,
      "ס ו": 4679,
      "עשיר": 4680,
      "אי אפשר": 4681,
      "עיתים קרוב": 4682,
      "ציוד": 4683,
      " גבר": 4684,
      "כרגע": 4685,
      " במקר": 4686,
      "תכנ": 4687,
      " משנ": 4688,
      " שוק": 4689,
      "יישו": 4690,
      "הרגיש": 4691,
      "חודשי": 4692,
      "גריר": 4693,
      " לחשוב": 4694,
      " ללמוד": 4695,
      " לגמרי": 4696,
      " אוד": 4697,
      " במי": 4698,
      "פים ה": 4699,
      ", לאחר": 4700,
      " טר": 4701,
      "מנים ": 4702,
      "ערו": 4703,
      "ביני": 4704,
      "הופע": 4705,
      "על מנת ל": 4706,
      "ות האל": 4707,
      "חרור": 4708,
      " אירוע": 4709,
      "צרפ": 4710,
      "אלוה": 4711,
      "גזע": 4712,
      "קטובר ": 4713,
      "דהי": 4714,
      "דמיי": 4715,
      "סכם ": 4716,
      "צמח": 4717,
      " ברו": 4718,
      "ון ו": 4719,
      "מרות ש": 4720,
      " מציע": 4721,
      "כי טוב": 4722,
      "ם, וב": 4723,
      " מוצא": 4724,
      " השבוע": 4725,
      "פילוסופי": 4726,
      ".com": 4727,
      "זם ": 4728,
      "כם מ": 4729,
      "ממש": 4730,
      "פרופ": 4731,
      "רץ": 4732,
      "​​": 4733,
      " כלי": 4734,
      " (\"": 4735,
      "אופן ש": 4736,
      "ard": 4737,
      "ה, הוא": 4738,
      "קצב": 4739,
      "תה.\n": 4740,
      " הלי": 4741,
      "גיל ה": 4742,
      "נות ש": 4743,
      "גדולי": 4744,
      "ת שלי": 4745,
      "הן ": 4746,
      "כך ל": 4747,
      "קשי": 4748,
      "ת ול": 4749,
      "ריס": 4750,
      "ה אם ": 4751,
      " את מ": 4752,
      " מיליארד דולר": 4753,
      "בה ה": 4754,
      "ה שיש": 4755,
      "שלא": 4756,
      "חוזי": 4757,
      " היטב": 4758,
      " אנשים ש": 4759,
      "שומת לב": 4760,
      "בת ": 4761,
      "ן שה": 4762,
      " אבל ": 4763,
      "נו, ": 4764,
      "ה שעבר": 4765,
      " השלישי": 4766,
      "ost": 4767,
      "בילי": 4768,
      "ואת ": 4769,
      "ון\n": 4770,
      " הדי": 4771,
      " מסוגל": 4772,
      "חיים של": 4773,
      "תוספ": 4774,
      "ויט": 4775,
      "נהל ה": 4776,
      "כאן.\n": 4777,
      " חוק": 4778,
      "מקום ל": 4779,
      " ניסי": 4780,
      "נים האחרו": 4781,
      " פועל": 4782,
      " מעבר": 4783,
      "הבדל": 4784,
      " השפע": 4785,
      "ה לאחר": 4786,
      " אתה יכול": 4787,
      " באופן": 4788,
      "אטרו": 4789,
      "ותם ": 4790,
      " להשתמש ב": 4791,
      " את זה ": 4792,
      " רגע": 4793,
      " צעיר": 4794,
      "ort": 4795,
      "זמן קצר": 4796,
      ".\"": 4797,
      "כם": 4798,
      " האינטרנט": 4799,
      "ים מי": 4800,
      " יחיד": 4801,
      "זאת ב": 4802,
      " על ידי ה": 4803,
      "לאחר מ": 4804,
      "גודל": 4805,
      "ros": 4806,
      "בסיס": 4807,
      "חץ": 4808,
      "ים עבור": 4809,
      "ביס": 4810,
      "ציור": 4811,
      " את הת": 4812,
      "ארכי": 4813,
      "שירות ": 4814,
      "פריל ": 4815,
      " ניתן לה": 4816,
      "טעם ": 4817,
      "סגור": 4818,
      " ואת ה": 4819,
      "כה ה": 4820,
      "מן ה": 4821,
      " בכלל": 4822,
      "דו\"ח": 4823,
      "רבים ": 4824,
      " על-ידי": 4825,
      "לקח": 4826,
      "עמוק": 4827,
      "ות כמו": 4828,
      "מו.\n": 4829,
      "ה אל": 4830,
      " פתוח": 4831,
      "ה היה ": 4832,
      "אינם מ": 4833,
      "anc": 4834,
      " אדם.\n": 4835,
      "לכת ל": 4836,
      " מבחי": 4837,
      " האל": 4838,
      " לפחות ": 4839,
      " מדוע": 4840,
      " בעבר": 4841,
      "מוכנ": 4842,
      "משא": 4843,
      " ועד": 4844,
      "מרגיש": 4845,
      "דוח": 4846,
      " אינט": 4847,
      "ark": 4848,
      "סתכל ": 4849,
      "' ": 4850,
      "פים ב": 4851,
      "בי.\n": 4852,
      "תוכן": 4853,
      "גילי": 4854,
      "קוט": 4855,
      "פלט": 4856,
      "ראש הממשל": 4857,
      "ight": 4858,
      "שמח": 4859,
      " הור": 4860,
      "ים על ידי": 4861,
      "איד": 4862,
      " יחד": 4863,
      "לאור": 4864,
      "טיל": 4865,
      ", שה": 4866,
      "ה היחיד": 4867,
      "ant": 4868,
      "למנט": 4869,
      "צטרף": 4870,
      " s": 4871,
      "EB": 4872,
      "וג": 4873,
      "מהו": 4874,
      "ת, ו": 4875,
      " שוו": 4876,
      "משום ": 4877,
      "זה אומר": 4878,
      "חשש": 4879,
      "ם, אלא": 4880,
      "חסים ": 4881,
      "פקד": 4882,
      "צפי": 4883,
      " לוח": 4884,
      "אי.\n": 4885,
      "סים ה": 4886,
      "חיבור": 4887,
      "סוס": 4888,
      " שלה.\n": 4889,
      "עופ": 4890,
      " מאחורי": 4891,
      " העובד": 4892,
      "זדמנות ": 4893,
      "מות של": 4894,
      " בחיר": 4895,
      "נוט": 4896,
      " יציר": 4897,
      "מרחב": 4898,
      "שתתפ": 4899,
      "תארי": 4900,
      ", והוא": 4901,
      "-י": 4902,
      "You": 4903,
      "אבא": 4904,
      "אולוגי": 4905,
      "ה שונ": 4906,
      "סטנדר": 4907,
      "יכולים לה": 4908,
      "מצב ה": 4909,
      "טיפול ב": 4910,
      " אזרח": 4911,
      "מון ה": 4912,
      " עבד": 4913,
      " פתרו": 4914,
      " להישאר": 4915,
      " כלשהו": 4916,
      "ff": 4917,
      "ים בעלי": 4918,
      " או לא": 4919,
      "עוסק": 4920,
      "נהלי": 4921,
      "תוצאות ה": 4922,
      "כזב": 4923,
      "Th": 4924,
      "רה\"ב": 4925,
      " בדיק": 4926,
      "קוע": 4927,
      " אותם ל": 4928,
      " צריכה ל": 4929,
      " באוגוסט": 4930,
      "31": 4931,
      "הוי": 4932,
      "הנה ": 4933,
      "טס": 4934,
      "למשל": 4935,
      "נפש": 4936,
      " יקר": 4937,
      "גם לא": 4938,
      "יותר.\n": 4939,
      "רכזי": 4940,
      "זדמנוי": 4941,
      "קדוש": 4942,
      " הפי": 4943,
      ", הת": 4944,
      " אוכל": 4945,
      "עוץ": 4946,
      "אחת ה": 4947,
      "ה”": 4948,
      "זרו": 4949,
      "נע": 4950,
      " אזור": 4951,
      " איזה ": 4952,
      "יום.\n": 4953,
      "תפס": 4954,
      "בין את ה": 4955,
      " טוע": 4956,
      "נים א": 4957,
      " הכר": 4958,
      " בגלל": 4959,
      " שאתם ": 4960,
      "משכ": 4961,
      "ה שמ": 4962,
      "כימי": 4963,
      " להשתמש": 4964,
      "פר את ה": 4965,
      "נות ו": 4966,
      "התנהג": 4967,
      " מקצוע": 4968,
      " המאה ה": 4969,
      "זד": 4970,
      " שהי": 4971,
      "תית ": 4972,
      "אני אוהב": 4973,
      "ה, אבל": 4974,
      "ברואר ": 4975,
      "במהלך ה": 4976,
      " בח": 4977,
      " בתי": 4978,
      "איזו": 4979,
      "ה אתה ": 4980,
      "ים שלהם ": 4981,
      " הצלח": 4982,
      "ear": 4983,
      "התפתח": 4984,
      " כמוב": 4985,
      "מבחי": 4986,
      "תייחס": 4987,
      "דרום ": 4988,
      "ack": 4989,
      "אוניברסיטת ": 4990,
      "\"ג": 4991,
      "ain": 4992,
      "כם?\n": 4993,
      "ן:": 4994,
      "פנים ": 4995,
      "ניצח": 4996,
      "ריב": 4997,
      " נקרא": 4998,
      "מצר": 4999,
      "כנסו": 5000,
      "קטע": 5001,
      "שתף": 5002,
      "צדד": 5003,
      "חח": 5004,
      "קשו": 5005,
      "ן ול": 5006,
      " גל": 5007,
      "כאור": 5008,
      " כאן.\n": 5009,
      " האדם ": 5010,
      "עמיד": 5011,
      " לרא": 5012,
      " מצא": 5013,
      "מוצא": 5014,
      "ם, כמו": 5015,
      " רש": 5016,
      " שיכול": 5017,
      "אות ": 5018,
      "דואר": 5019,
      "צער": 5020,
      "ר.\n": 5021,
      " בתוך": 5022,
      "ותיי": 5023,
      "ולל": 5024,
      "ל ת": 5025,
      "שינו": 5026,
      "מה\n": 5027,
      "פורני": 5028,
      " נושא": 5029,
      "ם היהודי": 5030,
      "ה, אי": 5031,
      "כלוסי": 5032,
      "סתכל": 5033,
      "ה זו.\n": 5034,
      "אמרתי": 5035,
      " K": 5036,
      "ְּ": 5037,
      "צים ": 5038,
      " מהיר": 5039,
      " בשנ": 5040,
      " במהלך": 5041,
      "ן בו": 5042,
      "דח": 5043,
      "מדובר": 5044,
      " בסוף": 5045,
      "ן ת": 5046,
      " חמש": 5047,
      "ותינו": 5048,
      "חברת ה": 5049,
      " זה": 5050,
      "ך ול": 5051,
      "ת שה": 5052,
      " עובר": 5053,
      "pp": 5054,
      "תושב": 5055,
      "פר את ": 5056,
      "עולם ב": 5057,
      "ang": 5058,
      "משתמשים ב": 5059,
      "is ": 5060,
      "בדוק": 5061,
      "מל ה": 5062,
      "שפ": 5063,
      " בנושא": 5064,
      "דעו": 5065,
      " על כך": 5066,
      "ן לו": 5067,
      "\" ו": 5068,
      "An": 5069,
      "לפעמים ": 5070,
      "קשיב": 5071,
      " הבינלאומי": 5072,
      " הטוב ביותר": 5073,
      "ות וי": 5074,
      "אוז": 5075,
      "תו ה": 5076,
      "ם, אבל ": 5077,
      " אמר.\n": 5078,
      "שנים האחרו": 5079,
      "טרו": 5080,
      "כפ": 5081,
      "צמצ": 5082,
      "ת, ל": 5083,
      " אצל": 5084,
      "חיוני": 5085,
      " זכוי": 5086,
      "ה היהודי": 5087,
      " על מנת ל": 5088,
      "ph": 5089,
      "גזר": 5090,
      " הגי": 5091,
      " לדע": 5092,
      "נוצרי": 5093,
      "אינה ": 5094,
      "ה האחרו": 5095,
      "ון ": 5096,
      "ה מסוי": 5097,
      "שום ש": 5098,
      "ים לפני": 5099,
      "ה עצ": 5100,
      " שלושה ": 5101,
      " ביותר ב": 5102,
      "indow": 5103,
      " הספר": 5104,
      "ת זו": 5105,
      "ים ת": 5106,
      "ות מי": 5107,
      "אידי": 5108,
      "סים.\n": 5109,
      "ה אחד": 5110,
      "אתה ב": 5111,
      " איך ל": 5112,
      "מעוניי": 5113,
      "מות ל": 5114,
      "עט": 5115,
      "קצוע": 5116,
      "וב.\n": 5117,
      "עיל ": 5118,
      "ות הה": 5119,
      "כיבוש": 5120,
      "אני מת": 5121,
      " קרי": 5122,
      "190": 5123,
      " סדר": 5124,
      "אדם ה": 5125,
      " ממנו": 5126,
      "דיגיטלי": 5127,
      "qu": 5128,
      "בת": 5129,
      "גרוע": 5130,
      "מות ש": 5131,
      "ן וה": 5132,
      " לכל ה": 5133,
      " בכל": 5134,
      "שיע": 5135,
      " ישיר": 5136,
      "דרכים ": 5137,
      "יש לה": 5138,
      "זוק": 5139,
      "ה של א": 5140,
      "ם, וא": 5141,
      "חקור": 5142,
      "ת שלו": 5143,
      "ספיר": 5144,
      "דיאט": 5145,
      "טיפ": 5146,
      "קוס": 5147,
      " מתא": 5148,
      "תקציב": 5149,
      "וחי": 5150,
      " למי": 5151,
      " מספק": 5152,
      "ות עבור": 5153,
      "לוקח": 5154,
      "פרטור": 5155,
      "אני רוצה ל": 5156,
      ", מו": 5157,
      "חקלא": 5158,
      " כלפי": 5159,
      "ם, אשר": 5160,
      "שאלה:": 5161,
      "לחי": 5162,
      "מנט": 5163,
      "מכיר": 5164,
      "ן במ": 5165,
      "ם הו": 5166,
      "בוגרי": 5167,
      "ספריי": 5168,
      "תחת ": 5169,
      " האישי": 5170,
      "זכויות ה": 5171,
      "זע": 5172,
      " הית": 5173,
      " את זה": 5174,
      "הוג": 5175,
      " אינו מ": 5176,
      "לאחר מכן": 5177,
      " עושה ": 5178,
      "On": 5179,
      " האמריקאי": 5180,
      "ה קט": 5181,
      "ים וי": 5182,
      "ודר": 5183,
      " יהוד": 5184,
      "טיבי": 5185,
      " זה לא": 5186,
      " ​​": 5187,
      "גוי": 5188,
      " נכנס": 5189,
      " של המ": 5190,
      " סיפר": 5191,
      " בתור": 5192,
      "אינטרס": 5193,
      "נתונים ": 5194,
      "טול": 5195,
      "עיי": 5196,
      " המשפח": 5197,
      "ים עם ה": 5198,
      " משל": 5199,
      "ברג": 5200,
      "ציה ה": 5201,
      "מצרי": 5202,
      " חברי": 5203,
      " מוכנ": 5204,
      " עליי": 5205,
      "לדבריו": 5206,
      "בסס": 5207,
      "בסופו של דבר": 5208,
      "ולכן": 5209,
      "מינ": 5210,
      "ן –": 5211,
      " מי ש": 5212,
      "מסת": 5213,
      "Goog": 5214,
      "חשי": 5215,
      " שות": 5216,
      " כאילו": 5217,
      "ה אשר": 5218,
      "מה?\n": 5219,
      "גייס": 5220,
      "להב": 5221,
      "קת": 5222,
      "רמת ה": 5223,
      "מוסיק": 5224,
      "משפיע": 5225,
      "ות ה-": 5226,
      "ציה ": 5227,
      "מצו": 5228,
      "חשמלי": 5229,
      " חוב": 5230,
      "אם אתם ": 5231,
      " ואת ": 5232,
      "דורש": 5233,
      "פריז": 5234,
      "per": 5235,
      "מנוע": 5236,
      " הקט": 5237,
      " כותב": 5238,
      "קיים ב": 5239,
      " תחיל": 5240,
      "גרש": 5241,
      "חברות ": 5242,
      "יכולה ל": 5243,
      "סיבה ל": 5244,
      "יהוד": 5245,
      "יחסי": 5246,
      "מים של": 5247,
      "מדובר ב": 5248,
      "ן, ל": 5249,
      "סך ה": 5250,
      "ים עלי": 5251,
      " נעש": 5252,
      "מעבד": 5253,
      " המחקר": 5254,
      " אותם ב": 5255,
      "כל הנרא": 5256,
      " לשמוע": 5257,
      " בשם ": 5258,
      "קמ": 5259,
      " ושוב": 5260,
      "זמן מ": 5261,
      " מופיע": 5262,
      " טראמפ": 5263,
      "קולנוע": 5264,
      "כמות ה": 5265,
      "למרות ": 5266,
      "ן מת": 5267,
      "פד": 5268,
      " כר": 5269,
      " המחשב": 5270,
      " איתו": 5271,
      "פוך את ה": 5272,
      "צורה ": 5273,
      " אותי.\n": 5274,
      "בנות ": 5275,
      "גשר": 5276,
      " הרי": 5277,
      " בניי": 5278,
      "איך ה": 5279,
      "תיים ": 5280,
      " יד": 5281,
      "סיע": 5282,
      " בינ": 5283,
      "ספרו": 5284,
      "אם לא": 5285,
      "טובים ביותר": 5286,
      " במדינ": 5287,
      "נשים ב": 5288,
      "אנוש": 5289,
      "טלקי": 5290,
      "עדיין ": 5291,
      "עדיין לא": 5292,
      " פלסטי": 5293,
      "\"אני לא": 5294,
      "גאו": 5295,
      "יפ": 5296,
      " העבוד": 5297,
      "מועמד": 5298,
      " יור": 5299,
      " להגיד": 5300,
      "ראק": 5301,
      " קשור": 5302,
      "עולם": 5303,
      "ות להי": 5304,
      " משמש": 5305,
      "גלובלי": 5306,
      "ם מת": 5307,
      " האמיתי": 5308,
      " לבדוק": 5309,
      "enc": 5310,
      "מהלך ": 5311,
      "משתתפ": 5312,
      "אינטרנט.\n": 5313,
      "סוציאלי": 5314,
      "ג’": 5315,
      "הרב": 5316,
      " הלאומי": 5317,
      " מתי": 5318,
      "נית ה": 5319,
      "מומח": 5320,
      "ה אלי": 5321,
      "ה עדיי": 5322,
      " רפואי": 5323,
      "אבטח": 5324,
      " ציי": 5325,
      "כאשר ה": 5326,
      " אדו": 5327,
      " גא": 5328,
      " מיני": 5329,
      "חתי": 5330,
      "ה כדי": 5331,
      " מזון": 5332,
      "ות -": 5333,
      "ניסו": 5334,
      " כזה ": 5335,
      ", אולי": 5336,
      ", הו": 5337,
      " את א": 5338,
      "כל עוד": 5339,
      " לילד": 5340,
      "פעמי": 5341,
      " צריך לה": 5342,
      "מיים.\n": 5343,
      " d": 5344,
      "400": 5345,
      "75": 5346,
      "the ": 5347,
      "יחד עם ": 5348,
      "ס, ": 5349,
      " לוקח": 5350,
      " ב- ": 5351,
      "ה שת": 5352,
      "כית": 5353,
      "ספרד": 5354,
      "חנוי": 5355,
      " אנגלי": 5356,
      "ת שלנו": 5357,
      "פלסטינים ": 5358,
      "גזי": 5359,
      "‏\n": 5360,
      " לכל ": 5361,
      " מהי": 5362,
      "ביד": 5363,
      " נחשב": 5364,
      " על ש": 5365,
      "אנחנו לא": 5366,
      "פסיכולוגי": 5367,
      "טקסט": 5368,
      "נכונ": 5369,
      "ברכ": 5370,
      "או\"": 5371,
      "תחבור": 5372,
      " צעד": 5373,
      "ראשונה ב": 5374,
      "עצמו.\n": 5375,
      " […": 5376,
      "עדיף": 5377,
      " c": 5378,
      "כעת ": 5379,
      "פגע": 5380,
      " מתוך": 5381,
      " שם.\n": 5382,
      "בו.\n": 5383,
      " זמי": 5384,
      "ות שלך": 5385,
      "ן שום ": 5386,
      " רוצים ל": 5387,
      "ִּ": 5388,
      "ה\"\n": 5389,
      "חת ה": 5390,
      "מים א": 5391,
      "ה כש": 5392,
      " לכם ל": 5393,
      " עם ב": 5394,
      " כנרא": 5395,
      " רחוק": 5396,
      "כנסי": 5397,
      "ות מסוי": 5398,
      "חברה.\n": 5399,
      " מחפש": 5400,
      "גביר": 5401,
      "יהיה ": 5402,
      "ה הש": 5403,
      "פיו": 5404,
      "והר": 5405,
      "תרגו": 5406,
      "150": 5407,
      "ib": 5408,
      "s.\n": 5409,
      " הפר": 5410,
      "ת וב": 5411,
      "ביעי": 5412,
      " ו- ": 5413,
      "ארט": 5414,
      "יוכלו": 5415,
      "ומל": 5416,
      "ך זה ": 5417,
      "ים לאחר": 5418,
      "סלול": 5419,
      "טמפרטור": 5420,
      "ת\"": 5421,
      " החלט": 5422,
      " העולמי": 5423,
      " מקבל": 5424,
      "לווא": 5425,
      " שלכם.\n": 5426,
      "האם יש": 5427,
      " מערי": 5428,
      "ת ישראל ": 5429,
      "כריז": 5430,
      "ect": 5431,
      "כים ב": 5432,
      "כת ל": 5433,
      "נאו": 5434,
      " משי": 5435,
      " בסי": 5436,
      "ות בר": 5437,
      "ת ה-": 5438,
      "פיעו": 5439,
      "התשוב": 5440,
      "דיף": 5441,
      "מונות ": 5442,
      "ה היית": 5443,
      "מעל ": 5444,
      " תגוב": 5445,
      "דבר.\n": 5446,
      "נשים ש": 5447,
      " m": 5448,
      " זר": 5449,
      "ענק": 5450,
      "עובדי": 5451,
      "קבר": 5452,
      "ה ונ": 5453,
      "תיאורי": 5454,
      "כלל ה": 5455,
      " תלוי": 5456,
      " מנת לה": 5457,
      "עזוב": 5458,
      "לדוגמה": 5459,
      "כם, ": 5460,
      "סבר": 5461,
      " האמ": 5462,
      " הבית": 5463,
      "משל ": 5464,
      "ות הגדול": 5465,
      "פרץ": 5466,
      "שתות ": 5467,
      "כאן ": 5468,
      "נאמר": 5469,
      " בתקופ": 5470,
      "תייר": 5471,
      " עושים ": 5472,
      " פעמים ": 5473,
      "ey": 5474,
      "תמי": 5475,
      " בעוד": 5476,
      " את הא": 5477,
      "דו.\n": 5478,
      "אני מקוו": 5479,
      "גן על ": 5480,
      "גוון רחב": 5481,
      "כוהול": 5482,
      "iz": 5483,
      "הער": 5484,
      "נם ": 5485,
      "צונ": 5486,
      "ים יכולים ל": 5487,
      " מצוי": 5488,
      " כמ": 5489,
      "ה הבא": 5490,
      " להשת": 5491,
      "קומוני": 5492,
      "קיבלו": 5493,
      "ולוג": 5494,
      "כך הרב": 5495,
      "אף אחד לא": 5496,
      "Ph": 5497,
      "קנד": 5498,
      "ם לי": 5499,
      "גילוי": 5500,
      " או מ": 5501,
      " אוניברסיט": 5502,
      "על מ": 5503,
      "ן שלו": 5504,
      "יותר מ-": 5505,
      "ם,\n": 5506,
      " שנה": 5507,
      ", וי": 5508,
      "חית": 5509,
      " נשי": 5510,
      "ה אותי": 5511,
      " תר": 5512,
      "ים אלי": 5513,
      "עשות ב": 5514,
      "המטר": 5515,
      " הפעול": 5516,
      "ביטוי": 5517,
      "טכניק": 5518,
      "\"ד": 5519,
      "גונ": 5520,
      "הן.\n": 5521,
      " שד": 5522,
      "מושב": 5523,
      " היסטורי": 5524,
      "הבד": 5525,
      " -\n": 5526,
      "נסות ל": 5527,
      " בתחיל": 5528,
      "אישור": 5529,
      "החבר": 5530,
      "סנ": 5531,
      "תם.\n": 5532,
      " במצב": 5533,
      "ני ": 5534,
      "ה בא": 5535,
      "כיל ": 5536,
      " אוויר": 5537,
      "מדעי": 5538,
      " יותר מדי": 5539,
      "ארץ.\n": 5540,
      "ll": 5541,
      "ם: \"": 5542,
      "שת ה": 5543,
      "ת על ידי": 5544,
      "ים וש": 5545,
      " לכל": 5546,
      "לוט": 5547,
      " מוכר": 5548,
      " כי הוא": 5549,
      "צורך ב": 5550,
      " בו.\n": 5551,
      " מקוו": 5552,
      "AS": 5553,
      "IS": 5554,
      "Sh": 5555,
      "ה;": 5556,
      "מהיר": 5557,
      "תת ל": 5558,
      "ים טוב": 5559,
      " מפני": 5560,
      "יים, ": 5561,
      "פילי": 5562,
      "ים בלבד": 5563,
      "ה את מ": 5564,
      " זה ש": 5565,
      " לעמוד": 5566,
      "/או": 5567,
      "ת'": 5568,
      "תאר": 5569,
      "ים רק": 5570,
      "ות!\n": 5571,
      "ורג'": 5572,
      "דיני": 5573,
      "אלצ": 5574,
      " שליט": 5575,
      "סטודנטי": 5576,
      " בינואר ": 5577,
      "במהלך": 5578,
      "חט": 5579,
      "שוא": 5580,
      " מסוי": 5581,
      " שמת": 5582,
      "לימודי": 5583,
      "חשמל": 5584,
      "עלות ": 5585,
      "מה י": 5586,
      "ותו של ": 5587,
      "אבל אני": 5588,
      "מכשיר": 5589,
      " בראש": 5590,
      " כמה מ": 5591,
      " לאפשר": 5592,
      "מהפכ": 5593,
      "כחול": 5594,
      "שינגטון": 5595,
      "מהי": 5596,
      "מפי": 5597,
      "עת ה": 5598,
      " היה ש": 5599,
      "אתה יודע": 5600,
      "גרעי": 5601,
      "בעקב": 5602,
      " אחד מ": 5603,
      "הליך ה": 5604,
      "ן היא": 5605,
      "ן עם ": 5606,
      "נתק": 5607,
      "סג": 5608,
      "סעד": 5609,
      "ת ביותר": 5610,
      " כדאי": 5611,
      "שוטר": 5612,
      "ה, וא": 5613,
      "שני ה": 5614,
      " עדיין ": 5615,
      " דע": 5616,
      "לר": 5617,
      " לציי": 5618,
      " מודע": 5619,
      "מוזיאון": 5620,
      " תרופ": 5621,
      " ביו": 5622,
      " קבל": 5623,
      "עלת ": 5624,
      "עולם, ": 5625,
      "ת להת": 5626,
      "סרטי": 5627,
      " כי \"": 5628,
      " דברי": 5629,
      "עובדה ש": 5630,
      "ים יותר.\n": 5631,
      "דאוג": 5632,
      " […]\n": 5633,
      " חד": 5634,
      "ea": 5635,
      "וגם ": 5636,
      "למה ה": 5637,
      " ממשי": 5638,
      "בוט": 5639,
      "כלשהי": 5640,
      " מוכן": 5641,
      " בבי": 5642,
      "נובע": 5643,
      " לא היה ": 5644,
      "זוכר": 5645,
      " חצי": 5646,
      " זכ": 5647,
      "גישה ל": 5648,
      "לכת ": 5649,
      "לאחר ש": 5650,
      "\"הוא": 5651,
      "):": 5652,
      "הספר": 5653,
      "ים כדי": 5654,
      "ים גדול": 5655,
      "לאו": 5656,
      "ים שמ": 5657,
      " מושג": 5658,
      " אחד ה": 5659,
      "ה, אני": 5660,
      "ת אחר": 5661,
      " מעמד": 5662,
      " עצמי": 5663,
      " פרס": 5664,
      "קונגרס": 5665,
      "ust": 5666,
      "ה, היא": 5667,
      " לבד": 5668,
      " לראות ": 5669,
      "ות הבא": 5670,
      "רגשי": 5671,
      "ותו של ה": 5672,
      "ואילו": 5673,
      " לו.\n": 5674,
      " לחץ": 5675,
      "דברים.\n": 5676,
      "\"אם ": 5677,
      "ככ": 5678,
      "רו ב": 5679,
      "מומל": 5680,
      " להביא": 5681,
      "מען ה": 5682,
      " תפקיד": 5683,
      "עלינו": 5684,
      "רשות ה": 5685,
      "?\".\n": 5686,
      "מל ": 5687,
      "סיפר": 5688,
      "פירוש": 5689,
      "כולם.\n": 5690,
      " קלי": 5691,
      " להיות ה": 5692,
      "נית, ": 5693,
      "ם, אך": 5694,
      "ם היה ": 5695,
      "חתול": 5696,
      " עדיין": 5697,
      "נמצאים ב": 5698,
      "שיתוף פעול": 5699,
      "ud": 5700,
      "סני": 5701,
      " לאי": 5702,
      "ניצ": 5703,
      "ליג": 5704,
      " על פני": 5705,
      "אמץ": 5706,
      "ine": 5707,
      "תקיי": 5708,
      "זכות ": 5709,
      "לונדון": 5710,
      " העליון": 5711,
      "\"ו": 5712,
      " בשל": 5713,
      " בקל": 5714,
      "בים, ": 5715,
      "תי אותו": 5716,
      " ישנ": 5717,
      " התחל": 5718,
      " בשע": 5719,
      "פעילות ה": 5720,
      " האוויר": 5721,
      "עצמי.\n": 5722,
      " אלוה": 5723,
      "ive ": 5724,
      "עיתונאי": 5725,
      "כותב": 5726,
      "תחייב": 5727,
      "נולד": 5728,
      "ת -": 5729,
      "תו של": 5730,
      " במקום ": 5731,
      "זכות ה": 5732,
      " יוצר": 5733,
      "קיימים ": 5734,
      "תחום ": 5735,
      "מליצ": 5736,
      " w": 5737,
      "32": 5738,
      "ֵי": 5739,
      "ף מ": 5740,
      " בקש": 5741,
      "לוס": 5742,
      "ל הוא": 5743,
      "צורך ל": 5744,
      "זכות ל": 5745,
      " עד כ": 5746,
      "48": 5747,
      "דה ": 5748,
      "ובי": 5749,
      "שליט": 5750,
      ", רק": 5751,
      "רום ": 5752,
      " ע\"י": 5753,
      "שראי": 5754,
      " נא": 5755,
      "ים ב-": 5756,
      " תור": 5757,
      " ביקש": 5758,
      "צוץ": 5759,
      "תקבל": 5760,
      " לבקר": 5761,
      " שלישי": 5762,
      "אלוהים ": 5763,
      "מכור": 5764,
      " Ch": 5765,
      "רעיונ": 5766,
      "בריאות ה": 5767,
      " |": 5768,
      "דלי": 5769,
      "הסרט": 5770,
      "כחו": 5771,
      "נצ": 5772,
      "תם ב": 5773,
      " בעל ": 5774,
      "יית ה": 5775,
      "אוחד": 5776,
      " גדל": 5777,
      " או ה": 5778,
      "כוכבי": 5779,
      "גל.\n": 5780,
      "רגול": 5781,
      "מחצי": 5782,
      "אינדי": 5783,
      "ראשונה": 5784,
      " טיפול": 5785,
      "ER": 5786,
      "חנ": 5787,
      "סנט": 5788,
      "פות.\n": 5789,
      " אך": 5790,
      " כולו": 5791,
      " להשיג": 5792,
      "פוק": 5793,
      "כך, ": 5794,
      " הנשיא": 5795,
      "IC": 5796,
      "פארק": 5797,
      " הנוכחי": 5798,
      " מתח": 5799,
      " בעיר": 5800,
      "בים": 5801,
      "חיש": 5802,
      "ה, וב": 5803,
      "קטגורי": 5804,
      "ont": 5805,
      "ולאחר": 5806,
      "אחרים.\n": 5807,
      "עתיד.\n": 5808,
      "כלל.\n": 5809,
      "אנשים מ": 5810,
      "mer": 5811,
      "בה ": 5812,
      "חני": 5813,
      "כספי": 5814,
      "סתיר": 5815,
      "או ש": 5816,
      "גיא": 5817,
      "ה אנשים ": 5818,
      " את י": 5819,
      " גרוע": 5820,
      "ה שלך.\n": 5821,
      " הנכון": 5822,
      " מנהיג": 5823,
      " בעקב": 5824,
      "צטרך ל": 5825,
      "זדמנות ל": 5826,
      " בדצמבר ": 5827,
      " b": 5828,
      " —": 5829,
      "\"ת": 5830,
      "pr": 5831,
      "ַי": 5832,
      "אים ": 5833,
      " הצי": 5834,
      " הכנס": 5835,
      "ת שי": 5836,
      "מילה ": 5837,
      "חיס": 5838,
      "דוקטור": 5839,
      "ערך ": 5840,
      " מושל": 5841,
      "ולוגיי": 5842,
      "עבר.\n": 5843,
      "שאול": 5844,
      "מיועד": 5845,
      "מודרני": 5846,
      "\"יש": 5847,
      "הכי": 5848,
      "לבוש": 5849,
      "מות, ": 5850,
      "ה וש": 5851,
      " לכתוב": 5852,
      " בדי": 5853,
      "ה לעשות ": 5854,
      "טי.\n": 5855,
      " לאחרו": 5856,
      " שיח": 5857,
      " חופשי": 5858,
      "נסה לה": 5859,
      "חורף": 5860,
      "\"זה ": 5861,
      "כמה ש": 5862,
      "סחרי": 5863,
      " בחר": 5864,
      " שנות ": 5865,
      " כע": 5866,
      "פירו": 5867,
      " תהיה ": 5868,
      " דוג": 5869,
      "יש לכם ": 5870,
      "לילה.\n": 5871,
      " חלק מה": 5872,
      "שנות ה-": 5873,
      "זכו": 5874,
      "למי": 5875,
      "ללא": 5876,
      "קביל": 5877,
      "שון": 5878,
      " העי": 5879,
      "ים וח": 5880,
      "ים נוספי": 5881,
      "אוס": 5882,
      "הוא י": 5883,
      "חייל": 5884,
      " סיי": 5885,
      "ם, אני": 5886,
      " הוסיף": 5887,
      " עוזר": 5888,
      " דיבר": 5889,
      " באופן מ": 5890,
      "חזרה ל": 5891,
      "מצד שני": 5892,
      ") הוא": 5893,
      "פליט": 5894,
      "נוער": 5895,
      " עשי": 5896,
      " להניח": 5897,
      "חד מ": 5898,
      " פרו": 5899,
      "מאלי": 5900,
      "באמצע": 5901,
      " אחד מה": 5902,
      "פריע": 5903,
      " אחת מה": 5904,
      "ּו": 5905,
      "אסור": 5906,
      "הכר": 5907,
      "כת ה": 5908,
      "ים גם ": 5909,
      " שחור": 5910,
      "אין מ": 5911,
      "סיקו": 5912,
      "דוני": 5913,
      "אני רוצ": 5914,
      " הוא לא": 5915,
      " על א": 5916,
      "כתבו": 5917,
      "גורם ל": 5918,
      "גורמים ": 5919,
      "אני מרגיש": 5920,
      " אינם ": 5921,
      "גן על ה": 5922,
      "זוי": 5923,
      "לקט": 5924,
      " הצליח": 5925,
      " לד": 5926,
      " למעש": 5927,
      "חיצוני": 5928,
      "גים ה": 5929,
      " ביטוי": 5930,
      "ה, כי": 5931,
      " התחיל": 5932,
      " מתייחס": 5933,
      " לשאול": 5934,
      "השאל": 5935,
      "ים כאל": 5936,
      "ian": 5937,
      "נכס": 5938,
      "שכר": 5939,
      " הלב": 5940,
      " בכי": 5941,
      "ות: ": 5942,
      "רים": 5943,
      "קונס": 5944,
      "אלל": 5945,
      ", במיוחד": 5946,
      "קורה ב": 5947,
      "עוד.\n": 5948,
      " טיי": 5949,
      " העסק": 5950,
      "דרומי": 5951,
      " בעניי": 5952,
      " דווקא": 5953,
      "חייבים ל": 5954,
      "רכיב": 5955,
      "ייתכן ש": 5956,
      "33": 5957,
      "אק": 5958,
      "האי": 5959,
      " בבוקר": 5960,
      "ביל ה": 5961,
      " עמוק": 5962,
      " להם ל": 5963,
      " נור": 5964,
      "יומי": 5965,
      " ק\"מ": 5966,
      "ה של הת": 5967,
      "צוות ה": 5968,
      "ך ורק": 5969,
      " יותר מאשר": 5970,
      " טכנ": 5971,
      "קבלת ": 5972,
      "קבל את ה": 5973,
      "סוג של ": 5974,
      "טפל ב": 5975,
      "יתרו": 5976,
      "ורר": 5977,
      "מעשה ": 5978,
      "קרה.\n": 5979,
      "דרכו": 5980,
      "ות מת": 5981,
      "...\"\n": 5982,
      "קליפורני": 5983,
      "איחוד האירופי": 5984,
      "בשלב": 5985,
      "נ\"": 5986,
      "סלי": 5987,
      "צחק": 5988,
      "ים \"": 5989,
      " בבית ": 5990,
      "פוגע": 5991,
      "טוב.\n": 5992,
      " מוגבל": 5993,
      "חברות ה": 5994,
      "מסעד": 5995,
      " רק ב": 5996,
      " נוח": 5997,
      "קיימת ": 5998,
      "לדים.\n": 5999,
      "פעם ש": 6000,
      " הגדול ביותר": 6001,
      " פחות מ": 6002,
      "99": 6003,
      "IP": 6004,
      "IT": 6005,
      "Wh": 6006,
      "צות ": 6007,
      " מהת": 6008,
      "מוכן": 6009,
      "בראש": 6010,
      "וידאו": 6011,
      ", למשל": 6012,
      "באות": 6013,
      "פליקצי": 6014,
      " לעשות את ": 6015,
      "חמאס": 6016,
      "טעי": 6017,
      "ימי": 6018,
      "משרד": 6019,
      "קנות ": 6020,
      " לסי": 6021,
      "נו ו": 6022,
      "נו?\n": 6023,
      "די ה": 6024,
      "גיבור": 6025,
      " תשוב": 6026,
      " מוזיק": 6027,
      " לבקש": 6028,
      " אל-": 6029,
      " טבעי": 6030,
      " הייתה ה": 6031,
      "(ב": 6032,
      "ver": 6033,
      "אך ה": 6034,
      "אמיתי": 6035,
      "הצלח": 6036,
      "נעש": 6037,
      "נה של ": 6038,
      "צאי": 6039,
      "צל ה": 6040,
      "ות עם ה": 6041,
      "נועד": 6042,
      "ביאו": 6043,
      "לוהים ": 6044,
      "ה שלי.\n": 6045,
      " רגיל": 6046,
      "ערך ב": 6047,
      "ספר.\n": 6048,
      "הבטיח": 6049,
      "ord": 6050,
      "זרח התיכון": 6051,
      "סכסו": 6052,
      "34": 6053,
      "שתו": 6054,
      " בסופו של דבר": 6055,
      "מופיע": 6056,
      "מרות ": 6057,
      "על אף": 6058,
      "כוז": 6059,
      "עד ה": 6060,
      " ליל": 6061,
      " הנתו": 6062,
      "תחומי": 6063,
      "צריך להיות ": 6064,
      ", אתה יכול": 6065,
      ") ": 6066,
      "to": 6067,
      "החל": 6068,
      "לת ": 6069,
      " מלו": 6070,
      " יעיל": 6071,
      "קראי": 6072,
      ", בעוד": 6073,
      "ה הישראלי": 6074,
      " לעומ": 6075,
      "מיליון": 6076,
      ", היה ": 6077,
      "כד": 6078,
      " שואל": 6079,
      "ות זו": 6080,
      "ולש": 6081,
      "תוכל": 6082,
      "מרות ה": 6083,
      "ה עצמי": 6084,
      " ראוי": 6085,
      "זמני": 6086,
      "ות אד": 6087,
      "היה לי": 6088,
      " זה י": 6089,
      "מוסרי": 6090,
      "ock": 6091,
      "שוואה ל": 6092,
      "Window": 6093,
      "בנה ": 6094,
      "הנות ": 6095,
      "האמ": 6096,
      "הצע": 6097,
      "פכו": 6098,
      "פקוד": 6099,
      "דיפ": 6100,
      "תיאטרו": 6101,
      "סיבי": 6102,
      " ביולי ": 6103,
      "פוני": 6104,
      "מאחורי": 6105,
      "ערכו": 6106,
      "פניי": 6107,
      "נדל": 6108,
      "רצונ": 6109,
      "שלושה ": 6110,
      "אולם ": 6111,
      " שירותי": 6112,
      "ational": 6113,
      "משותפ": 6114,
      "\"המ": 6115,
      "NA": 6116,
      "כם\n": 6117,
      "נרי": 6118,
      "עסוק": 6119,
      " מתו": 6120,
      "ות קט": 6121,
      " כפי": 6122,
      " נשים ": 6123,
      "מרק": 6124,
      "קיו": 6125,
      " בישראל": 6126,
      "סטטי": 6127,
      "בורא": 6128,
      " אלפי": 6129,
      "ת אותו": 6130,
      " אני מ": 6131,
      "בדי": 6132,
      "זדק": 6133,
      "ך ש": 6134,
      "ביקש": 6135,
      "היה א": 6136,
      "חדשים ": 6137,
      "דרכי": 6138,
      "סטון": 6139,
      "נים כי": 6140,
      "חודשים ": 6141,
      " לתת ל": 6142,
      "מייצג": 6143,
      "פסיד": 6144,
      "צאת ל": 6145,
      "מת העולם השניי": 6146,
      "ES": 6147,
      "ץ'": 6148,
      "ות אי": 6149,
      "נומי": 6150,
      " יחסי": 6151,
      "חיל ה": 6152,
      " נעל": 6153,
      "מדרי": 6154,
      "ות אשר": 6155,
      "חוק.\n": 6156,
      " הבחיר": 6157,
      "פיע על ה": 6158,
      "בסיסי": 6159,
      "פקי": 6160,
      "שולח": 6161,
      " הודע": 6162,
      "ת אל": 6163,
      "מיומ": 6164,
      "חוס": 6165,
      " וגם ": 6166,
      "דומה ל": 6167,
      "דרלי": 6168,
      "אתם לא": 6169,
      " ביצוע": 6170,
      "יושב": 6171,
      "ים שלהם.\n": 6172,
      "חדש.\n": 6173,
      " אותו ל": 6174,
      " לקנות ": 6175,
      "רצוי": 6176,
      "חודשים ה": 6177,
      "כזרי": 6178,
      "ial": 6179,
      "גשו": 6180,
      " מקר": 6181,
      ", גם ": 6182,
      "ה המת": 6183,
      "חיות ב": 6184,
      "ים בא": 6185,
      "קיצור": 6186,
      " המקורי": 6187,
      "עצומ": 6188,
      "זמנ": 6189,
      " הוא ": 6190,
      " מוקד": 6191,
      " להיכנס": 6192,
      "רוב המ": 6193,
      "עליונ": 6194,
      "צד ה": 6195,
      "גוף.\n": 6196,
      "הגדר": 6197,
      "אנגלית: ": 6198,
      "דמוי": 6199,
      "שתתף": 6200,
      "במשך": 6201,
      "בתחיל": 6202,
      " לפח": 6203,
      " משר": 6204,
      "ותג": 6205,
      "שלטון": 6206,
      "ים ללא": 6207,
      "קיצוני": 6208,
      " של ש": 6209,
      "הם נ": 6210,
      "ספרדי": 6211,
      "ניים ה": 6212,
      "כן, ה": 6213,
      "איננו": 6214,
      "חשבתי": 6215,
      "ה, אבל ": 6216,
      "icros": 6217,
      "כן הוא": 6218,
      "מצאת ב": 6219,
      "בורי": 6220,
      "רשו": 6221,
      "ה ות": 6222,
      "אין ב": 6223,
      " נכתב": 6224,
      " שלך ב": 6225,
      "ך די": 6226,
      "שירות ה": 6227,
      "משפחתי": 6228,
      ", ואני": 6229,
      " $": 6230,
      "האד": 6231,
      "חגי": 6232,
      "כספ": 6233,
      "פה מ": 6234,
      " משנת ": 6235,
      " בבית ה": 6236,
      "ות גבוה": 6237,
      ", כך": 6238,
      "ה הבינלאומי": 6239,
      " יצר": 6240,
      "הופ": 6241,
      "התנגד": 6242,
      "כל זאת ": 6243,
      " יכולים לה": 6244,
      "כך הרבה ": 6245,
      " and ": 6246,
      ", לי": 6247,
      "Un": 6248,
      "כאל": 6249,
      "לת": 6250,
      "ן אי": 6251,
      "שק": 6252,
      "ת יותר": 6253,
      " מדע": 6254,
      "היב": 6255,
      "הוביל": 6256,
      "אנג": 6257,
      "וריא": 6258,
      "פלשתי": 6259,
      "באותו": 6260,
      "ן שלי": 6261,
      "טלפ": 6262,
      " שומע": 6263,
      " ספ": 6264,
      "מן.\n": 6265,
      "מנוי": 6266,
      "צבי": 6267,
      " הל": 6268,
      " הקרוב": 6269,
      "ים ולא": 6270,
      " לפעול": 6271,
      "תוכ": 6272,
      "ה עשוי": 6273,
      "עוט": 6274,
      " במלח": 6275,
      " ביוני ": 6276,
      "פלטפור": 6277,
      ") ב": 6278,
      "מנות ": 6279,
      " הם ה": 6280,
      " בתוך ה": 6281,
      "ורך": 6282,
      "ל ו": 6283,
      ", וש": 6284,
      "הישאר": 6285,
      "שומר": 6286,
      " תנוע": 6287,
      " רשי": 6288,
      "חייהם ": 6289,
      " להימנע": 6290,
      " הרכב": 6291,
      "טעוי": 6292,
      " בני אד": 6293,
      "נקודת ה": 6294,
      " בינלאומי": 6295,
      "??\n": 6296,
      "ox": 6297,
      "שבע": 6298,
      " אוב": 6299,
      " בארץ": 6300,
      "עיו": 6301,
      "ות המת": 6302,
      "ה מדי": 6303,
      "ות בה": 6304,
      "הוא אמר": 6305,
      "טוב יותר": 6306,
      "עשור": 6307,
      " חומר": 6308,
      "נגלי": 6309,
      "פריט": 6310,
      " לעז": 6311,
      "מקורי": 6312,
      "תמקד": 6313,
      " בנובמבר ": 6314,
      "38": 6315,
      "ן יש": 6316,
      "פותח": 6317,
      "תנא": 6318,
      " החשוב": 6319,
      "ת וא": 6320,
      " לצ": 6321,
      "דיבור": 6322,
      "יישב": 6323,
      "ה לנו": 6324,
      ", אך ה": 6325,
      ", אפילו": 6326,
      "ים למ": 6327,
      " את ת": 6328,
      "דרך.\n": 6329,
      " תק": 6330,
      " בין ש": 6331,
      "מאמץ": 6332,
      " מוצרי": 6333,
      " האנושי": 6334,
      " כלכלי": 6335,
      "אויב": 6336,
      "פלגה ה": 6337,
      "היינו": 6338,
      "ברחבי": 6339,
      "tern": 6340,
      "CD": 6341,
      "ip": 6342,
      "ים מע": 6343,
      "שים": 6344,
      "לומד": 6345,
      "שר.\n": 6346,
      "ה לגבי": 6347,
      "גילו": 6348,
      "קרה ב": 6349,
      "התחיל": 6350,
      " בשבוע": 6351,
      "ith": 6352,
      " נשמע": 6353,
      " מאיתנו": 6354,
      "'י": 6355,
      "Bl": 6356,
      "יהיו": 6357,
      "ן\"": 6358,
      "ולב": 6359,
      " והי": 6360,
      "ה מאז": 6361,
      " שלך ": 6362,
      " גם לא": 6363,
      "דבר על ": 6364,
      "מאסטר": 6365,
      "אם יש": 6366,
      "עצמאי": 6367,
      "כמובן ש": 6368,
      "קטובר": 6369,
      "כל מי ש": 6370,
      "פוטנציאלי": 6371,
      "MA": 6372,
      "תכנו": 6373,
      " הסי": 6374,
      "ים ע": 6375,
      "ים ות": 6376,
      " אביב": 6377,
      "ם הללו": 6378,
      "אימו": 6379,
      "תוקף": 6380,
      ", מה ש": 6381,
      "גרמו": 6382,
      "ות שלהם ": 6383,
      " דורש": 6384,
      "סוגלים ל": 6385,
      "ם\" (": 6386,
      " בית המשפט": 6387,
      "הע": 6388,
      "מת מ": 6389,
      "ספו": 6390,
      "צה ": 6391,
      "ת מו": 6392,
      "תיו": 6393,
      "ונלי": 6394,
      "טוני": 6395,
      "אמת.\n": 6396,
      "ותיק": 6397,
      "לחם ב": 6398,
      " אני לא": 6399,
      " תוכלו": 6400,
      "רפובלי": 6401,
      "צטרכו": 6402,
      " באוקטובר ": 6403,
      "תך": 6404,
      "ים חדש": 6405,
      " מצליח": 6406,
      " מרכז": 6407,
      " בעולם.\n": 6408,
      "דיכא": 6409,
      "שים, ": 6410,
      ", את ה": 6411,
      "פרלמנט": 6412,
      "מצליח": 6413,
      "ה שלו.\n": 6414,
      "כונית ": 6415,
      "מאפיי": 6416,
      "ות להיות ": 6417,
      "עד ש": 6418,
      " לי.\n": 6419,
      " כלל": 6420,
      "ה נגד": 6421,
      "end": 6422,
      "רחבי": 6423,
      "קיינוס": 6424,
      " קילו": 6425,
      "בנוסף, ": 6426,
      " ישראל.\n": 6427,
      "רכיש": 6428,
      "e, ": 6429,
      "חמיש": 6430,
      "פות": 6431,
      "קהל": 6432,
      " הם מ": 6433,
      " העיקרי": 6434,
      " אזרחי": 6435,
      " ישראלי": 6436,
      "היות ה": 6437,
      " להר": 6438,
      "ונס": 6439,
      " תוד": 6440,
      "ה שלהם ": 6441,
      " \"\n": 6442,
      " האדו": 6443,
      "בדק": 6444,
      "לבסוף": 6445,
      " לעתים קרוב": 6446,
      "נשים.\n": 6447,
      "נהרגו": 6448,
      " p": 6449,
      "זג": 6450,
      "יחד": 6451,
      "לכן, ": 6452,
      "רלוונטי": 6453,
      "ה הזאת": 6454,
      "תומכ": 6455,
      "קום.\n": 6456,
      "קיומ": 6457,
      "אני מאמי": 6458,
      "מאשר": 6459,
      "אמנות ": 6460,
      "תחבר": 6461,
      "כדי ש": 6462,
      ": '": 6463,
      " עיר": 6464,
      "icrosof": 6465,
      "ן על ": 6466,
      "רומא": 6467,
      "ון ש": 6468,
      "טיסי": 6469,
      "חו\"ל": 6470,
      "מרכיב": 6471,
      "מעצר": 6472,
      "ספס": 6473,
      " היא ה": 6474,
      "צדדי": 6475,
      " חוש": 6476,
      "נסים ל": 6477,
      "נאצי": 6478,
      " גבוה": 6479,
      "aw": 6480,
      " מסר": 6481,
      "מילים ": 6482,
      "זה נכון": 6483,
      "כנגד": 6484,
      "ערך ה": 6485,
      "כרז": 6486,
      "מסלול": 6487,
      "משיך": 6488,
      " ביותר.\n": 6489,
      " פרטי": 6490,
      "אירופה.\n": 6491,
      "גיעו ל": 6492,
      "אפ": 6493,
      "אזרחי": 6494,
      "ה'": 6495,
      "המת": 6496,
      "זרוע": 6497,
      "סבי": 6498,
      " בארה\"ב": 6499,
      "ביש": 6500,
      "לוג": 6501,
      " פוליטי": 6502,
      "ה עכשיו": 6503,
      "מאחר": 6504,
      "גדה ה": 6505,
      "להק": 6506,
      "ish": 6507,
      ", כפי ש": 6508,
      " מערכת ה": 6509,
      "אמצעות ה": 6510,
      "US": 6511,
      "sh": 6512,
      "uc": 6513,
      "חון": 6514,
      "ן שי": 6515,
      "נחל": 6516,
      "ע.\n": 6517,
      "קהי": 6518,
      "תת": 6519,
      " מהוו": 6520,
      " עסקי": 6521,
      "ה בלתי": 6522,
      "ים שהם ": 6523,
      "פועל ": 6524,
      "ה, ול": 6525,
      "הוא היה ": 6526,
      "זמור": 6527,
      "על פי ה": 6528,
      "עבודה ב": 6529,
      " נוצר": 6530,
      "עצמך": 6531,
      "רשת ": 6532,
      " Th": 6533,
      "תמונות ": 6534,
      "בן ": 6535,
      "חבל": 6536,
      "ה ולא": 6537,
      "ים כבר": 6538,
      "רוז": 6539,
      "רו.\n": 6540,
      "מוקרטי": 6541,
      "ה שוב": 6542,
      " להרגיש": 6543,
      " תחו": 6544,
      "ים שלנו.\n": 6545,
      " במסגר": 6546,
      "e of": 6547,
      " ואמר": 6548,
      "ם הילד": 6549,
      "עצמם ": 6550,
      " יושב": 6551,
      " טוב יותר": 6552,
      "מבצע": 6553,
      "צייר": 6554,
      "תול": 6555,
      "ת מש": 6556,
      " למה ": 6557,
      " מצו": 6558,
      "ביטח": 6559,
      "ובש": 6560,
      "ובטח": 6561,
      "רבותי": 6562,
      " אותה ב": 6563,
      "עשות.\n": 6564,
      ": “": 6565,
      " תוך": 6566,
      " פעמי": 6567,
      "זבז": 6568,
      "Ex": 6569,
      "חמ": 6570,
      " לקבל ": 6571,
      " בחי": 6572,
      "ם הנ": 6573,
      " נאמר": 6574,
      "אל.\n": 6575,
      "ם, ול": 6576,
      "ולוצי": 6577,
      "מקומות ": 6578,
      "פריד": 6579,
      "משחק.\n": 6580,
      " גרמני": 6581,
      "55": 6582,
      "בטא": 6583,
      "ו של ": 6584,
      "ולך ל": 6585,
      "אין לה": 6586,
      ", אתם ": 6587,
      " חשיב": 6588,
      " מתרחש": 6589,
      " רוסי": 6590,
      "בדל": 6591,
      "עצמנו": 6592,
      " גם את ה": 6593,
      " המוצר": 6594,
      " מבלי": 6595,
      "צירת ": 6596,
      "-\"": 6597,
      "600": 6598,
      "Ad": 6599,
      "בטי": 6600,
      "במקום ": 6601,
      "עלוי": 6602,
      "קנא": 6603,
      " לעבור": 6604,
      " אסי": 6605,
      " ביי": 6606,
      " בדרך כלל": 6607,
      "אימפרי": 6608,
      "לא יכול": 6609,
      "ה אמיתי": 6610,
      "ות לפני": 6611,
      " משפט": 6612,
      " במאי ": 6613,
      "ות שלא": 6614,
      " מסביר": 6615,
      " החליט": 6616,
      "שלום.\n": 6617,
      " ארץ": 6618,
      "נפלא": 6619,
      "סעיף ": 6620,
      " בספטמבר ": 6621,
      " דרך ה": 6622,
      "ran": 6623,
      "ָא": 6624,
      "קולי": 6625,
      " מעל ": 6626,
      " שאנו": 6627,
      "נים\n": 6628,
      "משקיע": 6629,
      "ות המו": 6630,
      "ה שאני": 6631,
      "קר.\n": 6632,
      "צרפת ": 6633,
      "כל הי": 6634,
      " חווי": 6635,
      " לבוא": 6636,
      " מבטיח": 6637,
      "נתניהו": 6638,
      " עבור ה": 6639,
      "נוסח": 6640,
      " כולל ": 6641,
      " אחת ה": 6642,
      "ה הזו.\n": 6643,
      "IV": 6644,
      "ל, ": 6645,
      "פגי": 6646,
      "ת מי": 6647,
      " אמנ": 6648,
      "ות האחרו": 6649,
      "ה לך": 6650,
      " המלא": 6651,
      "ה שלנו.\n": 6652,
      "ת לש": 6653,
      "גדל ": 6654,
      "אמת ה": 6655,
      "תחת ה": 6656,
      "גלות ": 6657,
      " השנים האחרו": 6658,
      "פתחו": 6659,
      " אתמול": 6660,
      "בחינה ": 6661,
      "אסלא": 6662,
      "AR": 6663,
      "בגר": 6664,
      "דגיש": 6665,
      "האו": 6666,
      "ן, ו": 6667,
      "פסטי": 6668,
      "תנהג": 6669,
      "ה הייתה ": 6670,
      "ה העיקרי": 6671,
      "חד ה": 6672,
      "סוביי": 6673,
      "ים מדי": 6674,
      "בעבר": 6675,
      "נגנו": 6676,
      " של אלוהי": 6677,
      "דיוק כמו": 6678,
      "מעלה מ-": 6679,
      "וחו": 6680,
      "פורי": 6681,
      "״.\n": 6682,
      "רוך": 6683,
      "תומ": 6684,
      "ראות ב": 6685,
      "סוכן": 6686,
      " קבוע": 6687,
      " מידי": 6688,
      "הממשל": 6689,
      "חלק ה": 6690,
      " לשעבר": 6691,
      "ג'ר": 6692,
      " אותו ב": 6693,
      "רשת ה": 6694,
      " שומר": 6695,
      "אחד ה": 6696,
      " חדש.\n": 6697,
      " סוגי": 6698,
      "ארגון ה": 6699,
      " Y": 6700,
      "\"ס": 6701,
      "rom": 6702,
      "דוא": 6703,
      "מתו": 6704,
      "מתח": 6705,
      " מקום ": 6706,
      "שר ה": 6707,
      "כישל": 6708,
      " קדי": 6709,
      "חיים": 6710,
      "מה הוא": 6711,
      " העתיק": 6712,
      "סיבוב": 6713,
      "מדיני": 6714,
      "עתידי": 6715,
      "אני לא יודע": 6716,
      "תלמידי": 6717,
      " נשק": 6718,
      " בית הספר": 6719,
      "az": 6720,
      "ik": 6721,
      "טריי": 6722,
      "ם על ": 6723,
      ", ונ": 6724,
      "בילו": 6725,
      "ה שו": 6726,
      "זה רק": 6727,
      "טוט": 6728,
      "ולים.\n": 6729,
      " סביר": 6730,
      "אינני": 6731,
      " – ה": 6732,
      " יש ל": 6733,
      "תפקידו": 6734,
      "משיכו": 6735,
      "אתה רוצ": 6736,
      "שלוט": 6737,
      " שימוש ב": 6738,
      "ַּ": 6739,
      "טצי": 6740,
      "רשוי": 6741,
      " מעולם לא": 6742,
      " מורכב": 6743,
      "ניהם ": 6744,
      "לימו": 6745,
      "ה המו": 6746,
      "ציפור": 6747,
      "ותיה": 6748,
      " זה הי": 6749,
      "בורג": 6750,
      "פורטו": 6751,
      "יכול להיות ": 6752,
      " An": 6753,
      " חושב ש": 6754,
      "משמעות ה": 6755,
      " משום ש": 6756,
      "oin": 6757,
      "וצר": 6758,
      "זורי": 6759,
      "חות": 6760,
      "טה ": 6761,
      "נכנס": 6762,
      "סוב": 6763,
      "קמפיי": 6764,
      "ת לו": 6765,
      "מיע": 6766,
      "אירופי": 6767,
      " יומי": 6768,
      "כולל ה": 6769,
      " המקו": 6770,
      "יש ב": 6771,
      "שנה ": 6772,
      " אנשים.\n": 6773,
      "ה כזו": 6774,
      "ראיתי": 6775,
      "עומת זאת": 6776,
      "BC": 6777,
      "חביל": 6778,
      "נדו": 6779,
      " ה'": 6780,
      " הוק": 6781,
      " הזמן": 6782,
      " אמי": 6783,
      "ות-": 6784,
      "עיתים ": 6785,
      " נע": 6786,
      "ונא": 6787,
      "בלבד": 6788,
      "התמודד": 6789,
      ", שבו": 6790,
      "ת ב-": 6791,
      "נה ו": 6792,
      "ות שב": 6793,
      "ות אותו": 6794,
      " כל מה ש": 6795,
      "שאלו": 6796,
      " טל": 6797,
      "סוף סוף": 6798,
      " Sh": 6799,
      " לחפש": 6800,
      "כמובן": 6801,
      "....\n": 6802,
      "37": 6803,
      "IN": 6804,
      "גת ": 6805,
      "פתק": 6806,
      "תזונ": 6807,
      " לטוב": 6808,
      " מבוסס": 6809,
      "רועי": 6810,
      "דיפלו": 6811,
      "שלחו": 6812,
      "ייצר": 6813,
      "חוני": 6814,
      "מערי": 6815,
      "ים מן ה": 6816,
      " מוסד": 6817,
      " התקשור": 6818,
      "היא ת": 6819,
      "גישה ": 6820,
      " יום.\n": 6821,
      " דופ": 6822,
      ".)\n": 6823,
      "Pl": 6824,
      "הרו": 6825,
      "הודע": 6826,
      "נטו": 6827,
      "צק": 6828,
      "ם מה": 6829,
      " אבי": 6830,
      " מאו": 6831,
      " שאתה מ": 6832,
      " כאב": 6833,
      "ה אמר": 6834,
      "ה אתם ": 6835,
      "זה של": 6836,
      "פלל": 6837,
      "עליך ל": 6838,
      "מים ו": 6839,
      "ם, אז": 6840,
      "גנר": 6841,
      "צפות ב": 6842,
      "מליץ": 6843,
      " מקצועי": 6844,
      "עזור ל": 6845,
      ">>": 6846,
      "אזרח": 6847,
      "נת ב": 6848,
      "תפיס": 6849,
      " אמא": 6850,
      " אנו מ": 6851,
      " אבל ה": 6852,
      "ריו": 6853,
      " היכול": 6854,
      " בין": 6855,
      " איך ה": 6856,
      "פוסי": 6857,
      " דור": 6858,
      "ath": 6859,
      " ניו": 6860,
      " אומר.\n": 6861,
      "חליף": 6862,
      " טכנולוגי": 6863,
      "זל ": 6864,
      "לכו": 6865,
      "סבול": 6866,
      "צה\"": 6867,
      "רעב": 6868,
      "תם ה": 6869,
      "תקי": 6870,
      "תשע": 6871,
      " מתוך ": 6872,
      " בב": 6873,
      "תי לא": 6874,
      " היה נ": 6875,
      "קיום ": 6876,
      " תמונ": 6877,
      "על-": 6878,
      "אמת": 6879,
      " השמש": 6880,
      "מלט": 6881,
      "ork": 6882,
      " סיכוי": 6883,
      "כוחות ": 6884,
      " ניס": 6885,
      " זוג": 6886,
      ", ואז": 6887,
      "שוק ה": 6888,
      " הזה?\n": 6889,
      "רושלים.\n": 6890,
      "65": 6891,
      "ber": 6892,
      "דגי": 6893,
      " החלו": 6894,
      " לקר": 6895,
      " מרכזי": 6896,
      " בעולם ": 6897,
      "ולדו": 6898,
      "נוגד": 6899,
      "ביעות ": 6900,
      "בוצע": 6901,
      "ן -": 6902,
      " \"ל": 6903,
      " האב": 6904,
      " לקרא": 6905,
      " יום ה": 6906,
      " משתמשים ב": 6907,
      "ire": 6908,
      "נרגי": 6909,
      "מו ב": 6910,
      "ה הלאומי": 6911,
      "תית.\n": 6912,
      "קוש": 6913,
      " שלב": 6914,
      "אנא": 6915,
      "ים אחד": 6916,
      "צרכ": 6917,
      " שיתוף": 6918,
      "מבח": 6919,
      "קובע": 6920,
      "ass": 6921,
      "כמו כן, ": 6922,
      " ארוך": 6923,
      "II": 6924,
      "ם, בי": 6925,
      "קולו": 6926,
      "ים כא": 6927,
      " בדרך": 6928,
      "ות השו": 6929,
      "ה אפשר": 6930,
      "יום אחד": 6931,
      "טוסי": 6932,
      "ות לגבי": 6933,
      " משחקי": 6934,
      "עופה ": 6935,
      " מוביל": 6936,
      "הבטח": 6937,
      "נטלי": 6938,
      "ת מת": 6939,
      "תקל": 6940,
      "הרש": 6941,
      " בניו": 6942,
      " אנשים ב": 6943,
      " שום דבר": 6944,
      " בלבד.\n": 6945,
      "אופן שבו": 6946,
      "AT": 6947,
      "דוב": 6948,
      "ועוד": 6949,
      "צה.\n": 6950,
      " השו": 6951,
      " שכ": 6952,
      " שולח": 6953,
      "ריט": 6954,
      "איכות ה": 6955,
      "חוקרים ": 6956,
      "ה בש": 6957,
      ", את ": 6958,
      " נבחר": 6959,
      "ה עול": 6960,
      "זיהוי": 6961,
      "מה זה ": 6962,
      "היא לא": 6963,
      "מורכב": 6964,
      " אתכם ": 6965,
      "ייתה ה": 6966,
      "דולר": 6967,
      " הקהיל": 6968,
      "לא משנ": 6969,
      "תקופת ה": 6970,
      "אופן כללי": 6971,
      "\")": 6972,
      "],": 6973,
      "us ": 6974,
      "חנות ": 6975,
      "נחשב": 6976,
      "קניי": 6977,
      "איתנו": 6978,
      "ודעי": 6979,
      "ה הטובה ביותר": 6980,
      " ידי": 6981,
      "חר.\n": 6982,
      "ם, כי": 6983,
      "מדד": 6984,
      "גיעים ל": 6985,
      "ם, אבל ה": 6986,
      "סתובב": 6987,
      "ice ": 6988,
      " כבר לא": 6989,
      " פרסו": 6990,
      "מצוא את ה": 6991,
      " כולם ": 6992,
      " באוניברסיט": 6993,
      " הולך ל": 6994,
      " שאינו": 6995,
      "ומלץ": 6996,
      "-כך": 6997,
      "WEB": 6998,
      "בכל": 6999,
      "נה את ה": 7000,
      "פובלי": 7001,
      " ממני": 7002,
      " שומ": 7003,
      "ות יש": 7004,
      "ריש": 7005,
      "תוכל ל": 7006,
      "זה גם ": 7007,
      "חלל": 7008,
      " איבד": 7009,
      " אותה ל": 7010,
      "מה ו": 7011,
      "ברית ה": 7012,
      "נקבע": 7013,
      ", אין ": 7014,
      "עם זאת, ה": 7015,
      " עכשיו.\n": 7016,
      " בצורה ": 7017,
      "y\n": 7018,
      "נסיב": 7019,
      " הכ": 7020,
      "ות ות": 7021,
      "וריו": 7022,
      "ה הזאת.\n": 7023,
      "חוט": 7024,
      "מרבית ה": 7025,
      " רעי": 7026,
      "ה, י": 7027,
      "אם אתה מ": 7028,
      "כשאני": 7029,
      " בני אדם ": 7030,
      ", אבל לא": 7031,
      "פלילי": 7032,
      "\" ב": 7033,
      "ww": 7034,
      "צה ל": 7035,
      " הזמ": 7036,
      " אפשרוי": 7037,
      " מהו": 7038,
      "ות מש": 7039,
      "מיקו": 7040,
      "מיטב": 7041,
      "שים\n": 7042,
      "ייע": 7043,
      "שום מ": 7044,
      "ן הו": 7045,
      "התא": 7046,
      "שנתי": 7047,
      "כל יו": 7048,
      " לידי": 7049,
      "ן ב-": 7050,
      "זה, ה": 7051,
      "כיוון ה": 7052,
      " פעם.\n": 7053,
      "זה יהיה ": 7054,
      "משא ומת": 7055,
      " באוגוסט ": 7056,
      " &": 7057,
      "\"פ": 7058,
      "ie": 7059,
      "ים ה": 7060,
      "שבו": 7061,
      "ות כי": 7062,
      "רוצי": 7063,
      "ייקט": 7064,
      "איטלי": 7065,
      "חוקרי": 7066,
      " נהר": 7067,
      "ה ארוכ": 7068,
      "אלץ": 7069,
      "עולם ש": 7070,
      "ה, כמו": 7071,
      "אחת ": 7072,
      "עצמכם ": 7073,
      "בין את ": 7074,
      " מבצע": 7075,
      " עצמ": 7076,
      "נראה ש": 7077,
      " אנשים מ": 7078,
      "תרבותי": 7079,
      "קלאסי": 7080,
      " כתוב": 7081,
      "Ar": 7082,
      "DA": 7083,
      "ies": 7084,
      "יחיד": 7085,
      "ס ב": 7086,
      "תקו": 7087,
      " הסרט": 7088,
      " לספר": 7089,
      " לספק": 7090,
      "ורך ה": 7091,
      "רומ": 7092,
      "עיריי": 7093,
      "כול.\n": 7094,
      " אותה ": 7095,
      "ות שלהם.\n": 7096,
      "היא נ": 7097,
      "רק ": 7098,
      " אנטי": 7099,
      "נשים מ": 7100,
      "טריד": 7101,
      "ה מאוד.\n": 7102,
      " ארגון": 7103,
      "!!!\n": 7104,
      "ההת": 7105,
      "פאר": 7106,
      "רחק": 7107,
      " המר": 7108,
      " בהי": 7109,
      " שטח": 7110,
      "ות על ידי": 7111,
      "ותה ": 7112,
      "נו\n": 7113,
      "נוהג": 7114,
      "בידי": 7115,
      "סיגרי": 7116,
      "ה אל ה": 7117,
      "ות לש": 7118,
      "קטורי": 7119,
      " אנג'": 7120,
      "תפקוד": 7121,
      " לקבוע": 7122,
      "טלר": 7123,
      "אלון ": 7124,
      "רפא": 7125,
      "אנשים ב": 7126,
      " צריך להיות ": 7127,
      " אישור": 7128,
      "פרק ": 7129,
      " באמצעות ה": 7130,
      " ‏": 7131,
      "האיש": 7132,
      " בלב": 7133,
      "נית ב": 7134,
      " עצו": 7135,
      "סימני": 7136,
      "קיף": 7137,
      " של אי": 7138,
      "ות ב-": 7139,
      "טווי": 7140,
      "נה, ה": 7141,
      "אפשר לה": 7142,
      "בית ספר": 7143,
      " וידאו": 7144,
      "שמיר": 7145,
      " דקות.\n": 7146,
      " לאומי": 7147,
      ") מ": 7148,
      "Com": 7149,
      "»\n": 7150,
      "לפע": 7151,
      "נקו": 7152,
      "סליח": 7153,
      "פנסי": 7154,
      "צוא": 7155,
      "ק ב": 7156,
      "ה גבוה": 7157,
      "ה השניי": 7158,
      "גיוני": 7159,
      "ה שבוע": 7160,
      "כל אל": 7161,
      "ן וב": 7162,
      "דונ": 7163,
      "הוסיף": 7164,
      " אילו": 7165,
      "חקלאי": 7166,
      "ן בעי": 7167,
      " השטח": 7168,
      " הפך ל": 7169,
      " גם את ": 7170,
      "תוצאות ": 7171,
      "וארד": 7172,
      "ה תקופ": 7173,
      "כיוון שה": 7174,
      " עדיין לא": 7175,
      " לנצח": 7176,
      "ות אחרות.\n": 7177,
      " בפברואר ": 7178,
      " המאה ה-": 7179,
      " ולי": 7180,
      "\"הת": 7181,
      "?!\n": 7182,
      "PS": 7183,
      "הבו": 7184,
      "פה": 7185,
      "תחל": 7186,
      " המרכזי": 7187,
      " מכל ": 7188,
      " בחור": 7189,
      "ות;": 7190,
      "חוות ": 7191,
      " את כל ": 7192,
      " תחת ": 7193,
      "יופי": 7194,
      "נהלים ": 7195,
      " הפסק": 7196,
      "להל": 7197,
      " לפני ": 7198,
      "ברואר": 7199,
      "נכון?\n": 7200,
      " יותר מ-": 7201,
      "רידה ב": 7202,
      "כתוצאה מכך": 7203,
      "-F": 7204,
      "44": 7205,
      "תהיה ": 7206,
      " אוי": 7207,
      " ברגע": 7208,
      " באינטרנט": 7209,
      "ניגוד": 7210,
      "רו את ה": 7211,
      "בית של": 7212,
      " כזה.\n": 7213,
      "ברזי": 7214,
      " ימים ": 7215,
      "עיראק": 7216,
      "אתמול": 7217,
      " ביחס": 7218,
      "ג'ו": 7219,
      "ens": 7220,
      "ם אפריק": 7221,
      " בעזר": 7222,
      "ילדים ": 7223,
      "צמבר": 7224,
      "עיתון": 7225,
      "Pro": 7226,
      "סלו": 7227,
      "פגוש": 7228,
      "צודק": 7229,
      " הקבוצ": 7230,
      " הראשי": 7231,
      "ה זה ": 7232,
      "טיר": 7233,
      " תקשור": 7234,
      " ביחד": 7235,
      "סטיק": 7236,
      "מנטי": 7237,
      "ה נמצא": 7238,
      " הבעי": 7239,
      "ריים.\n": 7240,
      "בעיקר": 7241,
      "ם יודע": 7242,
      "פתרונות ": 7243,
      "\").\n": 7244,
      "39": 7245,
      "לך ל": 7246,
      "סח": 7247,
      "שמר": 7248,
      "ה קש": 7249,
      "ים כדי לה": 7250,
      "ריטני": 7251,
      " עשה ": 7252,
      "איך ": 7253,
      "וד.\n": 7254,
      "ציד": 7255,
      "פרנק": 7256,
      " הינו": 7257,
      "חרב": 7258,
      "ן וא": 7259,
      "רבות.\n": 7260,
      " המקומי": 7261,
      "צוות ": 7262,
      "תחזי": 7263,
      "כל האפשר": 7264,
      "פורש": 7265,
      "קורה ": 7266,
      " למטר": 7267,
      "אנחנו נ": 7268,
      "מנכ": 7269,
      " ואז": 7270,
      " יוכלו": 7271,
      "קשורים ל": 7272,
      " הצבא": 7273,
      " שווי": 7274,
      "ה עלול": 7275,
      " [+": 7276,
      "מל הת": 7277,
      " in": 7278,
      " דיר": 7279,
      "? ": 7280,
      "man": 7281,
      "אל ה": 7282,
      "באו": 7283,
      "טנ": 7284,
      "כזו": 7285,
      "ן על ה": 7286,
      "תה של ": 7287,
      " הבריטי": 7288,
      "ם וה": 7289,
      "רושי": 7290,
      "מים\n": 7291,
      "דופ": 7292,
      " תחוש": 7293,
      "טרד": 7294,
      "פוזי": 7295,
      "ים אותי": 7296,
      "עושה ": 7297,
      " הוא נ": 7298,
      " (ה": 7299,
      " מהמ": 7300,
      " לוודא": 7301,
      " להתייחס": 7302,
      "ה, אלא": 7303,
      " בהכרח": 7304,
      "אתה צריך ל": 7305,
      " מחזיק": 7306,
      " אף אחד": 7307,
      "פורסם ב": 7308,
      "ות שונות ": 7309,
      "פרופסור": 7310,
      "ס ": 7311,
      "עצי": 7312,
      "נוג": 7313,
      "תו ל": 7314,
      "כיא": 7315,
      "הוציא": 7316,
      "ה עובד": 7317,
      "פוך את ": 7318,
      "עולם מ": 7319,
      "ם, ומ": 7320,
      " מאמר": 7321,
      " שיעור": 7322,
      "רגון": 7323,
      "ראש.\n": 7324,
      " כל אחד": 7325,
      " באפריל ": 7326,
      "קב\"": 7327,
      ": \"ה": 7328,
      "צירתי": 7329,
      "תמוך ב": 7330,
      "a\n": 7331,
      "ric": 7332,
      "בכל מקר": 7333,
      "כסו": 7334,
      "מאל": 7335,
      "פגוע": 7336,
      " ארוח": 7337,
      " שור": 7338,
      " שהיה ": 7339,
      "וריי": 7340,
      ", עד": 7341,
      "או ב": 7342,
      "פיקוח": 7343,
      " לאתר": 7344,
      "ראקצי": 7345,
      "בוחר": 7346,
      "קרח": 7347,
      " גבול": 7348,
      "מאד": 7349,
      "שנא": 7350,
      " משטר": 7351,
      " מועד": 7352,
      " זה ל": 7353,
      "חשבון ה": 7354,
      " רק ": 7355,
      "מונע": 7356,
      "189": 7357,
      "ים כגון": 7358,
      "הריון": 7359,
      "קומוניסטי": 7360,
      ") ה": 7361,
      "ment": 7362,
      "ure": 7363,
      "חצ": 7364,
      "כמות ": 7365,
      "עקוב": 7366,
      " אם הוא": 7367,
      " אפריק": 7368,
      " מעורב": 7369,
      " בעולם ה": 7370,
      ", כדי": 7371,
      "רוף": 7372,
      "ובכל ": 7373,
      " לא.\n": 7374,
      "ים שלי.\n": 7375,
      "ond": 7376,
      "אז מ": 7377,
      " אחראי": 7378,
      " מעשי": 7379,
      "משפחה.\n": 7380,
      "מדיניות ה": 7381,
      " הרבה מ": 7382,
      "אותה ": 7383,
      "סבתא": 7384,
      "ים שבהם ": 7385,
      "%)": 7386,
      "OS": 7387,
      "בשר": 7388,
      "זמר": 7389,
      "טה.\n": 7390,
      "יצור": 7391,
      "תה": 7392,
      "תם של": 7393,
      "ים שיש": 7394,
      " מרא": 7395,
      " שוא": 7396,
      "ניה": 7397,
      "תוצר": 7398,
      "כיף": 7399,
      " תכני": 7400,
      " אין ל": 7401,
      "פומ": 7402,
      "אם את": 7403,
      "חיילים ": 7404,
      "ידיד": 7405,
      " השחק": 7406,
      "יותר מדי": 7407,
      "orl": 7408,
      "ערכת ": 7409,
      " לפתוח": 7410,
      "תעשיית ה": 7411,
      " טיס": 7412,
      "בהיר": 7413,
      "מחר": 7414,
      "עמי": 7415,
      "שער": 7416,
      "ת וי": 7417,
      "ת עבור": 7418,
      "דיב": 7419,
      " ויי": 7420,
      "פרנס": 7421,
      "ארגו": 7422,
      "ה עבוד": 7423,
      "עצמה ": 7424,
      "גוונ": 7425,
      "עו ב": 7426,
      "גרם ל": 7427,
      "ים של המ": 7428,
      " דא": 7429,
      " - ה": 7430,
      " כלב": 7431,
      "ong": 7432,
      "גורל": 7433,
      "ם, הם ": 7434,
      " מדינה ": 7435,
      " עצמאי": 7436,
      "סביבה ה": 7437,
      "סורתי": 7438,
      "טייל": 7439,
      "זה היה ה": 7440,
      "כסף.\n": 7441,
      "כריע": 7442,
      "לפיכך": 7443,
      "io": 7444,
      "דבק": 7445,
      "הבי": 7446,
      "ה,\n": 7447,
      "משר": 7448,
      "נה את ": 7449,
      "צלב": 7450,
      " אם לא": 7451,
      " מתחת ל": 7452,
      "ניכר": 7453,
      "ורב": 7454,
      "מוך ב": 7455,
      "אוסטרלי": 7456,
      "סיד": 7457,
      "סיו": 7458,
      "ה שהם ": 7459,
      "כיסא": 7460,
      "ן \"": 7461,
      "ונגרי": 7462,
      "אתרי": 7463,
      " פול": 7464,
      " או לה": 7465,
      "כוניות ": 7466,
      "צרכי": 7467,
      "צריכים ": 7468,
      "יכול להיות ש": 7469,
      "פטומ": 7470,
      " ניתוח": 7471,
      "שיים.\n": 7472,
      "במבר": 7473,
      " Ar": 7474,
      "פונקצי": 7475,
      " גיל": 7476,
      "עוב": 7477,
      " ליו": 7478,
      " ממה ש": 7479,
      "משאב": 7480,
      " המולד": 7481,
      " בישראל ": 7482,
      " פתח": 7483,
      "ארגוני": 7484,
      "גרם ": 7485,
      "ה ישיר": 7486,
      " האנוש": 7487,
      "לחמה ": 7488,
      "מתחיל": 7489,
      "נית\n": 7490,
      "עצמם.\n": 7491,
      " הודיע": 7492,
      "olog": 7493,
      "הסבר": 7494,
      "פורסם ": 7495,
      " ...": 7496,
      " דיווח": 7497,
      "800": 7498,
      "oy": 7499,
      "ץ את ה": 7500,
      "ת בר": 7501,
      "ם הראשון": 7502,
      "הימנע": 7503,
      "תוס": 7504,
      "ציוני": 7505,
      "עבדו": 7506,
      ", שב": 7507,
      " הוא ב": 7508,
      " (S": 7509,
      " זהו": 7510,
      " התנהג": 7511,
      "מידה ": 7512,
      "רגל ": 7513,
      "עבודה ה": 7514,
      "אופיי": 7515,
      "מסחר": 7516,
      " אלקטרוני": 7517,
      "קבלת ה": 7518,
      "זה בדיוק": 7519,
      "קבוצת ": 7520,
      "188": 7521,
      "וועד": 7522,
      "מקצועי": 7523,
      " פופולרי": 7524,
      " אמרו": 7525,
      "מיליוני": 7526,
      " להוסיף": 7527,
      " לעזוב": 7528,
      "gh": 7529,
      "ss": 7530,
      "מרא": 7531,
      "צה": 7532,
      "רדיו": 7533,
      "ים עד": 7534,
      " לעצמו": 7535,
      " לגרום ל": 7536,
      "קיבלתי": 7537,
      "ה אחת": 7538,
      "חלקו": 7539,
      "דברים ב": 7540,
      "ניים, ": 7541,
      "ה ילד": 7542,
      " השע": 7543,
      " הופ": 7544,
      "atch": 7545,
      " חיים ב": 7546,
      "פלסטינית ": 7547,
      " אלוהים ": 7548,
      "שלושת ה": 7549,
      " דקות ": 7550,
      " X": 7551,
      "\"את ": 7552,
      "lin": 7553,
      "פנט": 7554,
      "רְ": 7555,
      " ל- ": 7556,
      " אצל ": 7557,
      " מחוץ ל": 7558,
      "נוף": 7559,
      "תי לו": 7560,
      " ירד": 7561,
      " נדרש": 7562,
      "חלש": 7563,
      "בלב": 7564,
      "עוג": 7565,
      "ות שלנו.\n": 7566,
      "הבא": 7567,
      "באמצעות ": 7568,
      "ת שב": 7569,
      "er\n": 7570,
      "זכות": 7571,
      "כונה.\n": 7572,
      "בשבוע": 7573,
      ", אבל אני": 7574,
      "ציבור.\n": 7575,
      "חזון": 7576,
      "לכת": 7577,
      "נות\n": 7578,
      "שמוע": 7579,
      " לשל": 7580,
      "ניצול": 7581,
      "יים": 7582,
      "או ל": 7583,
      " ועוד": 7584,
      "ים בהם ": 7585,
      "דרמטי": 7586,
      "רבות ה": 7587,
      "בלעדי": 7588,
      " אותך ל": 7589,
      " חופש": 7590,
      "שעה ": 7591,
      "גודל ה": 7592,
      "ישראל.\n": 7593,
      "קפיד": 7594,
      "עמדו": 7595,
      "קדיש": 7596,
      "שיעורי": 7597,
      " , ": 7598,
      "גבע": 7599,
      "הכל ": 7600,
      "הסיב": 7601,
      "חטא": 7602,
      "מתוך": 7603,
      "ס\n": 7604,
      "תס": 7605,
      "ים כדי ל": 7606,
      " בסרט": 7607,
      " בשלב": 7608,
      "בית ב": 7609,
      "תי, ": 7610,
      "ן גם ": 7611,
      " גרעי": 7612,
      "זמן ב": 7613,
      "גוג": 7614,
      "ה, אך": 7615,
      "קודם ל": 7616,
      "ical": 7617,
      "טיים.\n": 7618,
      "ותיו.\n": 7619,
      "נתונים ה": 7620,
      "חושבים ש": 7621,
      " עצמו.\n": 7622,
      " בתחום ה": 7623,
      "שימו לב": 7624,
      "42": 7625,
      "En": 7626,
      "MS": 7627,
      "as ": 7628,
      "ay ": 7629,
      "ru": 7630,
      "גן ה": 7631,
      "דד": 7632,
      "דם.\n": 7633,
      "הכנס": 7634,
      "זיו": 7635,
      "נטר": 7636,
      "תהי": 7637,
      " הרו": 7638,
      " לומד": 7639,
      " בזמן": 7640,
      "דיש": 7641,
      "מון ב": 7642,
      " עשו": 7643,
      "ה הכי": 7644,
      " יציב": 7645,
      "עילוי": 7646,
      "ה לב": 7647,
      " לא מת": 7648,
      " את ש": 7649,
      " ביטחון": 7650,
      "טרקצי": 7651,
      "ארח": 7652,
      "התק": 7653,
      "התקד": 7654,
      "זרע": 7655,
      " הוא ש": 7656,
      "חברה ב": 7657,
      "גלגל": 7658,
      "הרכב": 7659,
      " יוכל": 7660,
      " הצעיר": 7661,
      "ראית ": 7662,
      "ים שונים.\n": 7663,
      "חזרו": 7664,
      "AC": 7665,
      "כשנ": 7666,
      "לע": 7667,
      "פשו": 7668,
      "ה ס": 7669,
      "ים יי": 7670,
      " במו": 7671,
      " שקל": 7672,
      "ליק": 7673,
      "ואנחנו": 7674,
      "סיור": 7675,
      "תווי": 7676,
      "ה מספר": 7677,
      "זה כבר": 7678,
      "ים שלכם ": 7679,
      "תחתו": 7680,
      "נטיי": 7681,
      "e M": 7682,
      "ות, וה": 7683,
      " חוסר": 7684,
      " לבנות ": 7685,
      "נשא": 7686,
      "ם היחיד": 7687,
      "בירור": 7688,
      "סוף ה": 7689,
      " עליו.\n": 7690,
      "ess ": 7691,
      " הבנק": 7692,
      "186": 7693,
      " [-": 7694,
      "זדמנ": 7695,
      "120": 7696,
      "95": 7697,
      "eal": 7698,
      "גלוי": 7699,
      "יצא": 7700,
      "מים של ": 7701,
      " אבא": 7702,
      " בחודש": 7703,
      " בגיל ": 7704,
      "חיצו": 7705,
      "טיפולי": 7706,
      " את זה ב": 7707,
      "ה עומד": 7708,
      " אין": 7709,
      " אוטומטי": 7710,
      "כוו": 7711,
      ", מש": 7712,
      "ה, ומ": 7713,
      "תחנת ה": 7714,
      "ותיר": 7715,
      "פלצ": 7716,
      "עליכם ל": 7717,
      "ספקת ": 7718,
      " בוחר": 7719,
      "כוח ה": 7720,
      "מת הלב": 7721,
      "דבריו": 7722,
      "אותם ": 7723,
      "נתיב": 7724,
      "מסגרת ה": 7725,
      "אנטישמי": 7726,
      "ry": 7727,
      "בדרך כלל": 7728,
      "פרא": 7729,
      "ת מאוד": 7730,
      " בנק": 7731,
      "נוני": 7732,
      "נועי": 7733,
      ", ואי": 7734,
      "עיבוד": 7735,
      "גים.\n": 7736,
      " נותר": 7737,
      "סויי": 7738,
      "אני יכול": 7739,
      "עלל": 7740,
      "פנים.\n": 7741,
      "ים שלך.\n": 7742,
      "מה, ה": 7743,
      "קשה לה": 7744,
      " במספר": 7745,
      "שתיי": 7746,
      "אינה מ": 7747,
      "עבודתו": 7748,
      ": The ": 7749,
      "חוק ה": 7750,
      "שני.\n": 7751,
      " Com": 7752,
      "עניין ה": 7753,
      "מומלץ": 7754,
      " [-]\n": 7755,
      "צחי": 7756,
      " לזה": 7757,
      " לדעת ": 7758,
      " בארצות הברי": 7759,
      "ות, לא": 7760,
      "ולנד": 7761,
      "לי ה": 7762,
      "ואולי": 7763,
      " כה": 7764,
      "ות הטוב": 7765,
      " להכיר": 7766,
      " המס": 7767,
      "חשוד": 7768,
      "עופה ה": 7769,
      " מוחלט": 7770,
      " הופיע": 7771,
      "קודש": 7772,
      " טבע": 7773,
      "עשות את ה": 7774,
      "ערכת ה": 7775,
      "חוץ.\n": 7776,
      "למדו": 7777,
      "רגע.\n": 7778,
      "חייבת ל": 7779,
      " דברים ש": 7780,
      "אין ספק": 7781,
      " שיש לו": 7782,
      "תיקון": 7783,
      "גניב": 7784,
      "חלוטין.\n": 7785,
      "ה לומר": 7786,
      "ים חדשים ": 7787,
      "47": 7788,
      "Microsof": 7789,
      "ail": 7790,
      "וכך": 7791,
      "טל ": 7792,
      "מותר": 7793,
      " מקרי": 7794,
      " בט": 7795,
      "רישי": 7796,
      "ליש": 7797,
      "ביכול": 7798,
      " עמו": 7799,
      " כך ה": 7800,
      "ברצונ": 7801,
      "ות החברתי": 7802,
      "קו.\n": 7803,
      " נב": 7804,
      "מעקב": 7805,
      "וירי": 7806,
      "וילי": 7807,
      " קבע": 7808,
      " להיות א": 7809,
      " לשנות את ה": 7810,
      "מסמ": 7811,
      "שנים ה": 7812,
      "משיכים ל": 7813,
      "בינתיי": 7814,
      "דלת": 7815,
      " נפטר": 7816,
      " המדינה ": 7817,
      "ax": 7818,
      "באמת ": 7819,
      "דה": 7820,
      "ועכשיו": 7821,
      "ל מ": 7822,
      "ם)\n": 7823,
      "מטרי": 7824,
      "נעל": 7825,
      "סרו": 7826,
      " בגי": 7827,
      " במרכז": 7828,
      "רוחת ": 7829,
      "מוגבל": 7830,
      " עזב": 7831,
      "שיק": 7832,
      " כמה א": 7833,
      "ודות ל": 7834,
      "תיע": 7835,
      "עין ": 7836,
      "עיקרו": 7837,
      "שומת הלב": 7838,
      "פרח": 7839,
      "כוללים ": 7840,
      " תל": 7841,
      " ביר": 7842,
      " בין מ": 7843,
      " רשמי": 7844,
      "ות במ": 7845,
      "שנה שעבר": 7846,
      "ים של מ": 7847,
      " של הי": 7848,
      "סטיי": 7849,
      "ה היתה ": 7850,
      "מתרחש": 7851,
      "ונים.\n": 7852,
      "צפיי": 7853,
      " אליי": 7854,
      " ייחודי": 7855,
      "בניגוד": 7856,
      "הסכם ": 7857,
      "למרות ה": 7858,
      " אנושי": 7859,
      "קוריא": 7860,
      "שתתפו": 7861,
      "אני חושב ש": 7862,
      "ם אחר.\n": 7863,
      "קודם כל": 7864,
      "\"אי": 7865,
      "AN": 7866,
      "yn": 7867,
      "נפט": 7868,
      "נחלו": 7869,
      " ליש": 7870,
      " אמצעי": 7871,
      " ערב": 7872,
      "ובכן": 7873,
      " נס": 7874,
      "סופ": 7875,
      "ה אלא": 7876,
      "עולם ל": 7877,
      ", ללא": 7878,
      " האחר": 7879,
      "לחם ": 7880,
      " סובל": 7881,
      "כתבי": 7882,
      "געגע": 7883,
      "סתדר": 7884,
      "נשים ה": 7885,
      "ראשונה.\n": 7886,
      "ביא ל": 7887,
      " אחרים.\n": 7888,
      " לאחר ש": 7889,
      "קראת ": 7890,
      " אשראי": 7891,
      " קטן": 7892,
      " צורך ב": 7893,
      "זיאון ה": 7894,
      " נתונים ": 7895,
      "סובלים מ": 7896,
      "אושש": 7897,
      "פוטנציאל": 7898,
      " הקודש": 7899,
      "בה הצער": 7900,
      "ci": 7901,
      "אמונ": 7902,
      "הם היו": 7903,
      "ככל": 7904,
      "כות ל": 7905,
      "נחש": 7906,
      "תקוו": 7907,
      " השל": 7908,
      " ההיסטורי": 7909,
      " מגל": 7910,
      " בקרוב": 7911,
      " בבית": 7912,
      " במשך ": 7913,
      " עקב": 7914,
      " עם המ": 7915,
      "ציון": 7916,
      "אני ב": 7917,
      "נות וה": 7918,
      " איפ": 7919,
      "מאמצי": 7920,
      " האור": 7921,
      "חרים.\n": 7922,
      "one": 7923,
      "אליו": 7924,
      " מסור": 7925,
      "זכות ב": 7926,
      "מלך": 7927,
      "כונה ": 7928,
      "נועדו": 7929,
      "מבקש": 7930,
      " בני האד": 7931,
      "פרסם ": 7932,
      " ג'יי": 7933,
      " אמריקאי": 7934,
      "זקוקים ל": 7935,
      "אם הוא": 7936,
      "התוצא": 7937,
      "עייר": 7938,
      " מאוחר": 7939,
      "ניות.\n": 7940,
      ", זה לא": 7941,
      "מין ה": 7942,
      "פיפי": 7943,
      "משך ל": 7944,
      " היהוד": 7945,
      "טרם ": 7946,
      "ן הת": 7947,
      "ה שלהם.\n": 7948,
      "עלות ה": 7949,
      " לימוד": 7950,
      "כן ש": 7951,
      "e S": 7952,
      " רופא": 7953,
      "מתקפ": 7954,
      "המלצ": 7955,
      " אלה ש": 7956,
      " צבע": 7957,
      "מייצר": 7958,
      "סיינט": 7959,
      "חינוכי": 7960,
      "לא הייתי": 7961,
      " נהדר": 7962,
      " \".\n": 7963,
      "ON": 7964,
      "ah": 7965,
      "גביל": 7966,
      "לגי": 7967,
      "צדיק": 7968,
      " בשר": 7969,
      "ות, או": 7970,
      "רים\n": 7971,
      "ריכוז": 7972,
      "ליב": 7973,
      "מוזר": 7974,
      "תיח": 7975,
      "לאה.\n": 7976,
      " לא ל": 7977,
      " להק": 7978,
      "דומה ": 7979,
      " של מי": 7980,
      "אני זוכר": 7981,
      " איתי": 7982,
      " איזו": 7983,
      "ם לב": 7984,
      " הוא י": 7985,
      "צעק": 7986,
      " מסכי": 7987,
      "חסרי": 7988,
      " הוועד": 7989,
      " כאן ": 7990,
      "כל מקום ": 7991,
      "תוך כדי": 7992,
      "180": 7993,
      " שעות.\n": 7994,
      "עניין": 7995,
      "עונש": 7996,
      "בראשי": 7997,
      "סיפורי": 7998,
      " כרטיס": 7999,
      "'\".\n": 8000,
      "Al": 8001,
      "s, ": 8002,
      "המשחק": 8003,
      "להיות ": 8004,
      "ן אד": 8005,
      "סרב": 8006,
      "קסו": 8007,
      "רגו": 8008,
      " הקי": 8009,
      " הער": 8010,
      " הכלכלי": 8011,
      "בייש": 8012,
      "מושי": 8013,
      "גישים ": 8014,
      "עולם של": 8015,
      " זה הוא": 8016,
      "קט.\n": 8017,
      " ולהת": 8018,
      " לשמש": 8019,
      "ם שני": 8020,
      "נשטיי": 8021,
      " נועד": 8022,
      " טרי": 8023,
      " העונ": 8024,
      "האם הוא": 8025,
      "אתם יכולים ל": 8026,
      " איננו": 8027,
      "ה בין ה": 8028,
      "ים שונים ": 8029,
      "תמונה ": 8030,
      "ix": 8031,
      "דנ": 8032,
      "דס": 8033,
      "דת ": 8034,
      "ידוע": 8035,
      "סמל": 8036,
      "תפיל": 8037,
      " ללכ": 8038,
      " אול": 8039,
      " מזה": 8040,
      " ממנ": 8041,
      " מדובר": 8042,
      " בכך": 8043,
      "מית ": 8044,
      "לוש": 8045,
      "לומר": 8046,
      "קינג": 8047,
      "ים שהיו": 8048,
      " פסי": 8049,
      " פחד": 8050,
      " פרויקט": 8051,
      "ארצי": 8052,
      " קובע": 8053,
      "ספרים ה": 8054,
      "כרחי": 8055,
      " למקו": 8056,
      " שנים ב": 8057,
      "אדם.\n": 8058,
      "שארו": 8059,
      " ברצי": 8060,
      "נות?\n": 8061,
      "טייס": 8062,
      "עניין ": 8063,
      "כניסה ל": 8064,
      "ם האלה.\n": 8065,
      "מעבר ל": 8066,
      "Google": 8067,
      "-C": 8068,
      "250": 8069,
      "ה חברתי": 8070,
      " לעולם לא": 8071,
      " שפ": 8072,
      "ני משפח": 8073,
      "ה בדיוק": 8074,
      " להגיע ל": 8075,
      "קום ל": 8076,
      "אתה ה": 8077,
      " תש": 8078,
      " תלמיד": 8079,
      "ער.\n": 8080,
      "ותיהם.\n": 8081,
      "ה כמעט": 8082,
      " חיוני": 8083,
      "משתמשי": 8084,
      "שתמשו": 8085,
      " פרק": 8086,
      " כשה": 8087,
      "טכנולוגיי": 8088,
      "ים אחרים ב": 8089,
      " לפגוע": 8090,
      "כמובן, ": 8091,
      "עידן ה": 8092,
      "ה אחרת.\n": 8093,
      "למעשה, ": 8094,
      "ef": 8095,
      "אפשרוי": 8096,
      "גמיש": 8097,
      "ופע": 8098,
      "כות.\n": 8099,
      " הזה ב": 8100,
      "ם כ": 8101,
      "ה ואי": 8102,
      " לחבר": 8103,
      " אפ": 8104,
      "לוואי": 8105,
      "ים בכל ": 8106,
      "קים": 8107,
      "ה אנו": 8108,
      "יש גם ": 8109,
      "עולם\n": 8110,
      "ה, ת": 8111,
      "צרכנ": 8112,
      " משותף": 8113,
      "ריקוד": 8114,
      " צבאי": 8115,
      "אזורי": 8116,
      " לקבוצ": 8117,
      "רוצים ": 8118,
      " כמו ש": 8119,
      "גבוה ביותר": 8120,
      "תערוכ": 8121,
      "משהו ש": 8122,
      "ים אחרים ": 8123,
      "act": 8124,
      "פתרון ה": 8125,
      "בחון": 8126,
      " לקבל את ה": 8127,
      "ה אחת.\n": 8128,
      "נחלוי": 8129,
      "במיוחד": 8130,
      "מזון": 8131,
      "רדו": 8132,
      "רשת": 8133,
      "שחור": 8134,
      "תמור": 8135,
      "תה יכול": 8136,
      "ם (": 8137,
      " לונ": 8138,
      " מכתב": 8139,
      "ל (": 8140,
      "עיניי": 8141,
      "ה ללא": 8142,
      " נמנע": 8143,
      "אתגרי": 8144,
      "זווי": 8145,
      "דינה.\n": 8146,
      "ה, אשר": 8147,
      " תוכנ": 8148,
      " לתת ": 8149,
      "אורח": 8150,
      " עוסק": 8151,
      " Pro": 8152,
      "פתיח": 8153,
      "קובל": 8154,
      "מדינה.\n": 8155,
      " [+]\n": 8156,
      "ED": 8157,
      "הסיפור": 8158,
      "יצר": 8159,
      "כובד": 8160,
      "ככה ": 8161,
      "מת א": 8162,
      "נגר": 8163,
      "קנ": 8164,
      " הזה מ": 8165,
      " לזכור": 8166,
      " אחי": 8167,
      " מוב": 8168,
      " בגלל ": 8169,
      "קרק": 8170,
      " של או": 8171,
      " את עצמי": 8172,
      " המדע": 8173,
      "טראו": 8174,
      "זו לא": 8175,
      "ה שלכם ": 8176,
      "גו.\n": 8177,
      "שתל": 8178,
      " מתאר": 8179,
      "מידת ה": 8180,
      "צורך ה": 8181,
      " האמי": 8182,
      "מתאי": 8183,
      " לשני": 8184,
      " מסע": 8185,
      " נוסע": 8186,
      "מלבד": 8187,
      " אומר ש": 8188,
      "מינימו": 8189,
      " היינו": 8190,
      " כדור הארץ": 8191,
      "זוה": 8192,
      "נלי": 8193,
      "תפוס": 8194,
      " הצע": 8195,
      "ות מאוד": 8196,
      "ותנו": 8197,
      "ייעוץ": 8198,
      " כבוד": 8199,
      "תי ו": 8200,
      "אוטובוס": 8201,
      "עירו": 8202,
      "חופ": 8203,
      "ים באזור": 8204,
      "מעצב": 8205,
      "מעסיק": 8206,
      "אם ת": 8207,
      " משפיע": 8208,
      " מועצ": 8209,
      "ות מדי": 8210,
      " סבל": 8211,
      " למכור": 8212,
      "ג'ון": 8213,
      "מניע": 8214,
      " כל דבר": 8215,
      " הצטר": 8216,
      "תבצע": 8217,
      "קטיק": 8218,
      "צטרף ל": 8219,
      " נמצאים ב": 8220,
      " אחת מ": 8221,
      "משותף": 8222,
      "שתתף ב": 8223,
      " להתמודד עם ": 8224,
      " זאת.\n": 8225,
      "ניצחון": 8226,
      "\"[": 8227,
      "ָּ": 8228,
      "לגבי": 8229,
      "צ’": 8230,
      " המצ": 8231,
      " למו": 8232,
      " לשב": 8233,
      "רי.\n": 8234,
      "מון.\n": 8235,
      "שיותר": 8236,
      "אי ה": 8237,
      " יהיה ל": 8238,
      "פיזיק": 8239,
      " והו": 8240,
      " להפסיק": 8241,
      " נשיא": 8242,
      " שלך ל": 8243,
      "עצרו": 8244,
      " מועמד": 8245,
      "מחזור": 8246,
      " למה ש": 8247,
      "כשהוא": 8248,
      "שתמשו ב": 8249,
      "אני מכיר": 8250,
      "ות אלפי": 8251,
      "זו הסיב": 8252,
      "ברחבי העולם.\n": 8253,
      " במרץ ": 8254,
      "Windows ": 8255,
      "49": 8256,
      "גים ": 8257,
      "המחקר": 8258,
      "וסיף": 8259,
      "טהור": 8260,
      "לטי": 8261,
      "להת": 8262,
      "מסיב": 8263,
      "סחור": 8264,
      "צחוק": 8265,
      "רכש": 8266,
      " ה- ": 8267,
      "ה שר": 8268,
      " מחיר": 8269,
      " בלו": 8270,
      "נים?\n": 8271,
      "נו לא": 8272,
      "לילי": 8273,
      "דין ה": 8274,
      "איל": 8275,
      " יתרו": 8276,
      "או יותר": 8277,
      "גישו": 8278,
      " להעביר": 8279,
      " המלכ": 8280,
      " פולי": 8281,
      "כוחו": 8282,
      " אותך.\n": 8283,
      "גרעיני": 8284,
      " (C": 8285,
      "....": 8286,
      "ג'ורג'": 8287,
      "ה להש": 8288,
      "ייתם ": 8289,
      "בין-": 8290,
      " גדול.\n": 8291,
      "מילים אחר": 8292,
      " להוציא": 8293,
      " מערכת ": 8294,
      " n": 8295,
      "העיר": 8296,
      "זם ה": 8297,
      "יעיל": 8298,
      "ישוע": 8299,
      "ננו": 8300,
      "תן ל": 8301,
      " לצאת ": 8302,
      " מדובר ב": 8303,
      " בעבוד": 8304,
      "בינים ": 8305,
      " עשיר": 8306,
      "אוטו": 8307,
      "סינג": 8308,
      "גידו": 8309,
      "ה מאד": 8310,
      "פרנסי": 8311,
      "ים שהו": 8312,
      "אני רוא": 8313,
      "פניו": 8314,
      "ות של מ": 8315,
      "ons": 8316,
      "מות ו": 8317,
      "לבש": 8318,
      " לעניי": 8319,
      "ה יותר מ": 8320,
      " הבנתי": 8321,
      "ity ": 8322,
      "קשר ל": 8323,
      "קובץ": 8324,
      " שוב.\n": 8325,
      "חליטו": 8326,
      " חלקי": 8327,
      ", אבל הוא": 8328,
      "המשיך ל": 8329,
      "ג'יימס": 8330,
      "!)\n": 8331,
      "באופן ": 8332,
      "ושינגטון": 8333,
      "ן יכול": 8334,
      " האיש": 8335,
      " המשחק": 8336,
      " לנס": 8337,
      " לפתח": 8338,
      " בהם ": 8339,
      "דירוג": 8340,
      "ברהם ": 8341,
      "איך לה": 8342,
      "ה האמריקאי": 8343,
      "היתה ": 8344,
      "ה שום ": 8345,
      "כי די": 8346,
      "ה מא": 8347,
      "פרצו": 8348,
      " גד": 8349,
      " המל": 8350,
      "התקפ": 8351,
      " של \"": 8352,
      "אנשים.\n": 8353,
      ", מת": 8354,
      "מתק": 8355,
      "ן שתי": 8356,
      "ת שלך": 8357,
      " אחרת.\n": 8358,
      "ה תמיד": 8359,
      "ים נגד": 8360,
      "יש לך ": 8361,
      " הכי טוב": 8362,
      "נורמלי": 8363,
      "זה יכול להיות ": 8364,
      " גוף": 8365,
      "בואו נ": 8366,
      "ה”ב": 8367,
      " f": 8368,
      "אן ": 8369,
      "דגש": 8370,
      "חכמ": 8371,
      "נים לה": 8372,
      "פשים ": 8373,
      "ת!\n": 8374,
      " הלכ": 8375,
      "ה יו": 8376,
      " לה ": 8377,
      " לצד": 8378,
      " בחדר": 8379,
      " שהיו": 8380,
      "ות \"": 8381,
      "ות ע": 8382,
      "ות יכול": 8383,
      "ות)": 8384,
      "נוכל": 8385,
      "רית ": 8386,
      "ביולוגי": 8387,
      "חומצ": 8388,
      " נפרד": 8389,
      "חד מה": 8390,
      "כולם מ": 8391,
      " תהי": 8392,
      " פונ": 8393,
      "מה לי": 8394,
      "תחתי": 8395,
      "נים וה": 8396,
      " זה, ": 8397,
      " שיפור": 8398,
      "אחת.\n": 8399,
      " מתכנ": 8400,
      " על מה ש": 8401,
      " שנא": 8402,
      " שנתי": 8403,
      " נוט": 8404,
      "ם היטב": 8405,
      "ת אותי": 8406,
      " חינו": 8407,
      " ניצח": 8408,
      " פעמים ב": 8409,
      " חלב": 8410,
      " בריטני": 8411,
      "משום ש": 8412,
      " חדר": 8413,
      "לדעתי": 8414,
      "ם'": 8415,
      "פים מ": 8416,
      "פער": 8417,
      "ת מידע": 8418,
      "ים יכול": 8419,
      " בסביב": 8420,
      "ות כדי": 8421,
      "שידור": 8422,
      " ויש": 8423,
      " היתה ה": 8424,
      "דרדר": 8425,
      " פיי": 8426,
      "גובר": 8427,
      " משפטי": 8428,
      "עליהם ": 8429,
      "ראש ממשל": 8430,
      " שנות ה": 8431,
      " מסמ": 8432,
      "מקצוע": 8433,
      " חייבת ל": 8434,
      "ther": 8435,
      "חזור ל": 8436,
      "תרבות ה": 8437,
      " לאורך": 8438,
      "85": 8439,
      "פנות ": 8440,
      "צהיר": 8441,
      "קלו": 8442,
      "תון": 8443,
      " הרוח": 8444,
      " מצד": 8445,
      "ות'": 8446,
      " עמוד": 8447,
      "לא יודע": 8448,
      "ציה.\n": 8449,
      " נזק": 8450,
      "דו-": 8451,
      " המציא": 8452,
      "בלבד.\n": 8453,
      "צוואר": 8454,
      " שילוב": 8455,
      "כרטיסי": 8456,
      "כל הזמן": 8457,
      "שתלט": 8458,
      "מחפש": 8459,
      " למשל": 8460,
      "s of": 8461,
      "כבר לא": 8462,
      "חולק": 8463,
      "תחילת ה": 8464,
      "נקודת מ": 8465,
      "ash": 8466,
      "עיתונא": 8467,
      "ָר": 8468,
      "גת ה": 8469,
      "ה)\n": 8470,
      "ווא": 8471,
      "ה מיוחד": 8472,
      "ים מר": 8473,
      " מביא": 8474,
      " בחבר": 8475,
      " ברחבי ה": 8476,
      "ניחו": 8477,
      "ואול": 8478,
      "ם הגדול": 8479,
      " והיא": 8480,
      "פרצ": 8481,
      "סוחר": 8482,
      "גם אני": 8483,
      "כתר": 8484,
      "ות, וב": 8485,
      " הערב": 8486,
      "הפעל": 8487,
      " מבט": 8488,
      " לאחר מכן": 8489,
      "בייקט": 8490,
      " לא ידע": 8491,
      "מספר ה": 8492,
      " שונא": 8493,
      " יורק.\n": 8494,
      " קרב": 8495,
      "הקשר": 8496,
      "לפחות ": 8497,
      "צצ": 8498,
      "תודע": 8499,
      "ת כי": 8500,
      "ת שנ": 8501,
      " לגל": 8502,
      " לראות את ה": 8503,
      " ארי": 8504,
      " בהיסטורי": 8505,
      ", על ": 8506,
      " ענ": 8507,
      " עובדי": 8508,
      "שיני": 8509,
      "ה במיוחד": 8510,
      ", אחרי": 8511,
      "שוף": 8512,
      " את הילד": 8513,
      "כל אד": 8514,
      "זה נ": 8515,
      " שלח": 8516,
      "הופיע": 8517,
      "דעת מ": 8518,
      "ערכי": 8519,
      "נה לא": 8520,
      " מוצלח": 8521,
      "וחצי": 8522,
      "יכולת ל": 8523,
      "ות, כמו": 8524,
      " אלבו": 8525,
      "ייתה מ": 8526,
      "זאת אומר": 8527,
      "קולט": 8528,
      "תוכניות ": 8529,
      " משהו.\n": 8530,
      "עזרו": 8531,
      "כדורגל": 8532,
      "כחיש": 8533,
      "סייע ל": 8534,
      "נישוא": 8535,
      " On": 8536,
      "סימפטומ": 8537,
      "נסוע": 8538,
      " ספורט": 8539,
      "46": 8540,
      "700": 8541,
      "AP": 8542,
      "Qu": 8543,
      "אמו": 8544,
      "גן ": 8545,
      "חמצ": 8546,
      "עקש": 8547,
      "רור": 8548,
      "תפי": 8549,
      " שרי": 8550,
      "דיל": 8551,
      " כזה": 8552,
      "איכות ": 8553,
      "חיסון": 8554,
      "קיצו": 8555,
      " את חיי": 8556,
      " המטר": 8557,
      " ביטוח": 8558,
      " חמור": 8559,
      "פני ": 8560,
      "ים שלה": 8561,
      " התפתח": 8562,
      "בית הלב": 8563,
      " עליהם ": 8564,
      "צ'ר": 8565,
      " קונ": 8566,
      "מוקם ב": 8567,
      " ג'י": 8568,
      "own": 8569,
      "ה האמיתי": 8570,
      "ok": 8571,
      "אחי": 8572,
      "אים ל": 8573,
      "בטוח": 8574,
      "כה מ": 8575,
      " הגוף": 8576,
      " מרו": 8577,
      "ל י": 8578,
      "בישראל": 8579,
      " כן": 8580,
      "לא ב": 8581,
      " וְ": 8582,
      ", אל": 8583,
      " להאמי": 8584,
      "ה עמוק": 8585,
      "זרק": 8586,
      " מוש": 8587,
      "גדול.\n": 8588,
      "כונות ": 8589,
      " היה לי": 8590,
      "es\n": 8591,
      "פלגת ה": 8592,
      "לדוגמה, ": 8593,
      ") ל": 8594,
      "גשים ": 8595,
      "הגע": 8596,
      "ך כ": 8597,
      "תכ": 8598,
      "ים צריכים ל": 8599,
      "ות\"\n": 8600,
      "ריבו": 8601,
      "ריפוי": 8602,
      "ליון": 8603,
      "ביץ": 8604,
      "ואף": 8605,
      " ומי": 8606,
      "שוחח": 8607,
      "ה אמור": 8608,
      " פתאו": 8609,
      "חשד": 8610,
      " קוריא": 8611,
      "ם, י": 8612,
      "ה, \"": 8613,
      ", בעיקר": 8614,
      " מתקד": 8615,
      " דרו": 8616,
      " האם ה": 8617,
      "נשים ל": 8618,
      "מפגש": 8619,
      "נראה לי": 8620,
      ", אני לא": 8621,
      "ליים.\n": 8622,
      "צטרפו": 8623,
      " עדיין מ": 8624,
      " חייבים ל": 8625,
      " נמצא ב": 8626,
      " חודשים ": 8627,
      " מאז ": 8628,
      "שמור על ": 8629,
      " לשמור על ": 8630,
      " ראיתי": 8631,
      "קבל החלט": 8632,
      "צרפת.\n": 8633,
      "א.\n": 8634,
      "כפו": 8635,
      "נגי": 8636,
      "סולי": 8637,
      "סתר": 8638,
      "פות ב": 8639,
      "רמות ": 8640,
      "שכח": 8641,
      "ה כדי לה": 8642,
      " ב ": 8643,
      "רישו": 8644,
      " עדי": 8645,
      "תועל": 8646,
      "תוכל לה": 8647,
      " היש": 8648,
      "קיומו": 8649,
      " חמיש": 8650,
      "טובים.\n": 8651,
      "ות שלך.\n": 8652,
      "e C": 8653,
      " השקע": 8654,
      "כשהם ": 8655,
      "בדקו": 8656,
      "תקבלו": 8657,
      " יש לנו": 8658,
      "דרך שב": 8659,
      "מלוא": 8660,
      " הופך ל": 8661,
      "ה כמה ": 8662,
      " שלך?\n": 8663,
      "גבוהה ביותר": 8664,
      "כל אחד מה": 8665,
      "מועדון": 8666,
      "ויטמין ": 8667,
      "מיומנוי": 8668,
      "טוויטר": 8669,
      " +": 8670,
      ". .\n": 8671,
      "וזה ": 8672,
      "טפח": 8673,
      "כפת ": 8674,
      "מות של ": 8675,
      "סבור": 8676,
      " ההי": 8677,
      " הטבע": 8678,
      "ה סי": 8679,
      " ארצ": 8680,
      " מסוג": 8681,
      "בין ב": 8682,
      "שיכול": 8683,
      " כיום ": 8684,
      "אוגרפי": 8685,
      "תו ב": 8686,
      "טיל ": 8687,
      "כיכר": 8688,
      "שונים ": 8689,
      " נח": 8690,
      " נמוך": 8691,
      "ה את ש": 8692,
      "אלפי": 8693,
      "טרנטי": 8694,
      " או ש": 8695,
      "ה שלה": 8696,
      "כושר": 8697,
      " חג": 8698,
      "טומי": 8699,
      "בעזר": 8700,
      "כאלו": 8701,
      " היא מ": 8702,
      "עלינו ל": 8703,
      " סעי": 8704,
      " למדי": 8705,
      "ם, אנחנו": 8706,
      "קרים.\n": 8707,
      "נאט": 8708,
      " תושבי": 8709,
      " חיים ": 8710,
      "בית החול": 8711,
      "הפכו": 8712,
      "סקיר": 8713,
      " דרך ": 8714,
      "פרסום ": 8715,
      " צורך ל": 8716,
      "קידום ": 8717,
      "כעס": 8718,
      "תכנית ה": 8719,
      " דיו": 8720,
      "בחודש": 8721,
      "גם הוא": 8722,
      "הכל": 8723,
      "כאמור": 8724,
      "לה.\n": 8725,
      "רעש": 8726,
      " המידע": 8727,
      "ה ור": 8728,
      "ה קצר": 8729,
      " בעצ": 8730,
      "דים, ": 8731,
      "ואפילו": 8732,
      "אין שום ": 8733,
      "ה בת ": 8734,
      "ה בכל ": 8735,
      "ים לנו": 8736,
      "קיסר": 8737,
      "ה אל ": 8738,
      ", הרי": 8739,
      " של אד": 8740,
      "אלה מ": 8741,
      "ים ארו": 8742,
      "טופס": 8743,
      "קשה.\n": 8744,
      "ותו ה": 8745,
      "גיעה ל": 8746,
      " אתגר": 8747,
      "מקוו": 8748,
      " צריכים ": 8749,
      "מונה ש": 8750,
      "ה היא ה": 8751,
      "עובדים ב": 8752,
      "קבוצת ה": 8753,
      "דרום אפריק": 8754,
      "ous": 8755,
      "זה היה מ": 8756,
      "אבל הוא": 8757,
      "עשויים ל": 8758,
      " חודשי": 8759,
      "ים רבים ": 8760,
      " אל ת": 8761,
      "ה עליו": 8762,
      "דרך זו": 8763,
      "בשל": 8764,
      "החוק": 8765,
      "טחי": 8766,
      "נותר": 8767,
      "נתח": 8768,
      "תנו ל": 8769,
      " מות": 8770,
      " מה ל": 8771,
      " מאת ": 8772,
      " מתוך ה": 8773,
      " באנגלי": 8774,
      " שאר": 8775,
      "ניקי": 8776,
      "איז": 8777,
      "אישה ": 8778,
      " ישוע": 8779,
      "חירו": 8780,
      " לא היו": 8781,
      " נד": 8782,
      ", הייתי": 8783,
      "חלל ה": 8784,
      " רלוונטי": 8785,
      "כנתא": 8786,
      " לישראל": 8787,
      "ות של המ": 8788,
      " ד\"ר": 8789,
      "פשרו": 8790,
      "דינות ה": 8791,
      " צבא": 8792,
      "ה, אז": 8793,
      " הופע": 8794,
      "רוצים לה": 8795,
      " מדי.\n": 8796,
      "קשור ל": 8797,
      "בודד": 8798,
      "ניתן למצוא": 8799,
      "שלוט ב": 8800,
      "חמישה ": 8801,
      "שנה הבא": 8802,
      "רשימת ה": 8803,
      "תגית: ": 8804,
      "סלאמי": 8805,
      " טרור": 8806,
      "%,": 8807,
      ") -": 8808,
      "-S": 8809,
      "ְר": 8810,
      "השיר": 8811,
      "יב": 8812,
      "ן מא": 8813,
      "סה ": 8814,
      "פנו": 8815,
      "שול": 8816,
      "תקד": 8817,
      "ם על ה": 8818,
      "ה חשוב": 8819,
      "ניצב": 8820,
      ", יו": 8821,
      ", כך ש": 8822,
      "דים": 8823,
      "ייק": 8824,
      " כבד": 8825,
      "תי על ה": 8826,
      " לאד": 8827,
      " להבין": 8828,
      " נער": 8829,
      "ויל": 8830,
      " תא": 8831,
      "ה עשר": 8832,
      " ראו": 8833,
      "ים אמריק": 8834,
      "דבר על ה": 8835,
      "זמן, ": 8836,
      "פורד": 8837,
      " סבור": 8838,
      " חוץ": 8839,
      " יש לי": 8840,
      "וניבר": 8841,
      "שניהם ": 8842,
      "משפחתו": 8843,
      "ick": 8844,
      " שלך\n": 8845,
      " עוצ": 8846,
      "כל אחד מ": 8847,
      "סביר להניח": 8848,
      "הווה ": 8849,
      "מאז ": 8850,
      "יתר על ": 8851,
      "'ה": 8852,
      "AM": 8853,
      "מנו.\n": 8854,
      "ס ה": 8855,
      "סכמ": 8856,
      "צהרי": 8857,
      "קה.\n": 8858,
      " הרשמי": 8859,
      "ה ד": 8860,
      "ותה ה": 8861,
      "מונים ": 8862,
      " כנגד": 8863,
      "אין ה": 8864,
      "ובס": 8865,
      "סין.\n": 8866,
      " גברי": 8867,
      "ומבי": 8868,
      ", מר": 8869,
      ", שהוא": 8870,
      "ים שלו.\n": 8871,
      "כמוי": 8872,
      " יותר ב": 8873,
      "היא ה": 8874,
      " למלא": 8875,
      "משלתי": 8876,
      " אתם מ": 8877,
      "לייצר": 8878,
      "זמין": 8879,
      " הבא.\n": 8880,
      " זמן ל": 8881,
      "אלבום ": 8882,
      "מסגרת ": 8883,
      "פעילות גופני": 8884,
      " h": 8885,
      " גיש": 8886,
      "\"כש": 8887,
      "אגב": 8888,
      "הנות מ": 8889,
      "וז": 8890,
      "טעות ": 8891,
      "לפי ה": 8892,
      "נך": 8893,
      "נת.\n": 8894,
      "פחיד": 8895,
      "תחילו": 8896,
      "ה כדי ל": 8897,
      " אכן": 8898,
      " מציג": 8899,
      "ות בו": 8900,
      "ות נגד": 8901,
      "ות אישי": 8902,
      "מים?\n": 8903,
      "מופע": 8904,
      " ענק": 8905,
      "שירי": 8906,
      "כילים ": 8907,
      " תעשיי": 8908,
      " גוד": 8909,
      "ים מקו": 8910,
      "מה וה": 8911,
      " מאחור": 8912,
      " זול": 8913,
      "נגמר": 8914,
      "ת ישראל.\n": 8915,
      " חושבת ש": 8916,
      " עיני": 8917,
      "ים בין ה": 8918,
      " הייתה מ": 8919,
      "צילום: ": 8920,
      "גוון רחב של ": 8921,
      "AD": 8922,
      "ach": 8923,
      "ech": 8924,
      "yp": 8925,
      "אקדמי": 8926,
      "גונג": 8927,
      "המי": 8928,
      "השל": 8929,
      "כף": 8930,
      "כה\n": 8931,
      "מת ש": 8932,
      "ס (": 8933,
      "סבא": 8934,
      "ה - ": 8935,
      " אסור": 8936,
      " מאוחר יותר": 8937,
      " בזמן ה": 8938,
      "ות ונ": 8939,
      "סיים את ה": 8940,
      " נפתח": 8941,
      "דרשו": 8942,
      "מצאי": 8943,
      " על כל ה": 8944,
      "כל זה ": 8945,
      "עושר": 8946,
      " שיחק": 8947,
      " במטר": 8948,
      "חקרי": 8949,
      " יכול להי": 8950,
      " שהייתי": 8951,
      " הארי": 8952,
      " האהוב": 8953,
      "סקב": 8954,
      "כשול": 8955,
      "עיר ה": 8956,
      "כון.\n": 8957,
      " הפוליטי": 8958,
      "רוצה לה": 8959,
      "אבל לא": 8960,
      "רבים.\n": 8961,
      " הקדוש": 8962,
      " הראשון.\n": 8963,
      "ניסיונ": 8964,
      "כמובן.\n": 8965,
      "ארה\"ב.\n": 8966,
      " חלק מ": 8967,
      "אלבום ה": 8968,
      "דיפלומטי": 8969,
      ",”": 8970,
      "oh": 8971,
      "נים את ה": 8972,
      " לשימוש": 8973,
      " מחוץ": 8974,
      ", על": 8975,
      "אי-": 8976,
      "לא.\n": 8977,
      "ות הו": 8978,
      " להמשי": 8979,
      "ים בש": 8980,
      "קים, ": 8981,
      "ה אף": 8982,
      "רבה.\n": 8983,
      " תאו": 8984,
      " תואר": 8985,
      " תמיכ": 8986,
      "יש להם ": 8987,
      "אני אומר": 8988,
      ", בו": 8989,
      "ות שלה": 8990,
      " ולאחר": 8991,
      "וקב": 8992,
      "דיים.\n": 8993,
      "גורם ": 8994,
      "זאת, ה": 8995,
      "ה את כל ה": 8996,
      "לכן ": 8997,
      "אפשרות ל": 8998,
      "מידע נוסף": 8999,
      "]]": 9000,
      "ֶּ": 9001,
      "הל ": 9002,
      "ה ח": 9003,
      " לחיי": 9004,
      " בפי": 9005,
      " בגלל ה": 9006,
      "בים\n": 9007,
      "אית ": 9008,
      "איפה ה": 9009,
      "עים, ": 9010,
      "טיפוח": 9011,
      " ומו": 9012,
      " לאהוב": 9013,
      ", אפשר": 9014,
      " נסי": 9015,
      "סופט": 9016,
      "ה אפילו": 9017,
      "ים שהת": 9018,
      "נה כי": 9019,
      " במחשב": 9020,
      "פלנט": 9021,
      "קדח": 9022,
      "המחיר": 9023,
      "תרגל": 9024,
      " שנות ה-": 9025,
      "צערי": 9026,
      " כדי לש": 9027,
      "ent ": 9028,
      "רוצח": 9029,
      " אליו.\n": 9030,
      "לאחר ה": 9031,
      " הסביר": 9032,
      " אורח": 9033,
      "סריט": 9034,
      "פתור את ה": 9035,
      " כוכב": 9036,
      "אמנם ": 9037,
      "ים רבים.\n": 9038,
      " ניסיון": 9039,
      " חר": 9040,
      "66": 9041,
      "HD": 9042,
      "אסטרטגי": 9043,
      "הגנ": 9044,
      "הורא": 9045,
      "לֹ": 9046,
      "מה הי": 9047,
      "סן ": 9048,
      "סובב": 9049,
      "ץ את ": 9050,
      "צהוב": 9051,
      "שקע": 9052,
      "ה פ": 9053,
      " בפעם ה": 9054,
      " שמש": 9055,
      " שזו": 9056,
      " שער": 9057,
      " כך.\n": 9058,
      "ה הרבה יותר": 9059,
      "היכול": 9060,
      "היות א": 9061,
      "קונים ": 9062,
      "ים לגבי": 9063,
      "חדרי": 9064,
      "קילו": 9065,
      "זה פשוט": 9066,
      " ביום ה": 9067,
      "את כל ה": 9068,
      "בלבל": 9069,
      "הם של": 9070,
      "זיז": 9071,
      " מוזר": 9072,
      "כך היא": 9073,
      " יותר ויותר": 9074,
      "זה\n": 9075,
      " להתגבר": 9076,
      " שנים, ": 9077,
      "מבנה ה": 9078,
      "קפד": 9079,
      "גודל ": 9080,
      " עיתו": 9081,
      "ood": 9082,
      " יהיה מ": 9083,
      " מדעי": 9084,
      " קודם ": 9085,
      " להתמודד עם ה": 9086,
      " הזדמנות ": 9087,
      "דיכאון": 9088,
      " !\n": 9089,
      "-מ": 9090,
      "pt": 9091,
      "ה, בי": 9092,
      "זבו": 9093,
      "זרוק": 9094,
      " לתוך": 9095,
      " אסטרטגי": 9096,
      " בחו": 9097,
      " בכיר": 9098,
      "נוז": 9099,
      "נוצרו": 9100,
      "דיאלי": 9101,
      "מיקרו": 9102,
      " עתיד": 9103,
      "שימה ": 9104,
      "הישג": 9105,
      "סין": 9106,
      "פיצוי": 9107,
      " לאל": 9108,
      " נקי": 9109,
      " נסיע": 9110,
      "כללו": 9111,
      "אלצו": 9112,
      "מצל": 9113,
      "הוכח": 9114,
      "עלם מ": 9115,
      ", לפי": 9116,
      "פעלו": 9117,
      "קדם את ה": 9118,
      " השני.\n": 9119,
      " ספי": 9120,
      "מודל": 9121,
      "הרחב": 9122,
      " המוח": 9123,
      " שהוא י": 9124,
      " חיים.\n": 9125,
      "187": 9126,
      " בערב": 9127,
      "גברים ": 9128,
      " שלא י": 9129,
      "חולצ": 9130,
      " הביטחון": 9131,
      "ווילי": 9132,
      " Ex": 9133,
      "uman": 9134,
      "נושאים ה": 9135,
      " דיי": 9136,
      "sp": 9137,
      "ְּ": 9138,
      "בדיוק": 9139,
      "דת": 9140,
      "מותי": 9141,
      "נחי": 9142,
      "נה היא": 9143,
      "פכה ל": 9144,
      "שרו": 9145,
      "שמות ": 9146,
      " הכול": 9147,
      "ים בינלאומי": 9148,
      "ים אלה ": 9149,
      " אמונ": 9150,
      " מטע": 9151,
      "ת הזו": 9152,
      "ת הראשונ": 9153,
      "משקל ": 9154,
      "ות החדש": 9155,
      " היומי": 9156,
      "מצביע": 9157,
      "חלקם ": 9158,
      "ת שלא": 9159,
      "דינמי": 9160,
      " היום ה": 9161,
      "ם אות": 9162,
      " ''": 9163,
      "ביום ה": 9164,
      "ביטול": 9165,
      "riv": 9166,
      "צריכים לה": 9167,
      "ספטמבר ": 9168,
      "שוודי": 9169,
      "פתאום ": 9170,
      "ּוֹ": 9171,
      " a": 9172,
      "-M": 9173,
      "51": 9174,
      "ID": 9175,
      "דדי": 9176,
      "הנו": 9177,
      "חצר": 9178,
      "ך ת": 9179,
      "כעבור": 9180,
      "נציג": 9181,
      "ערוץ": 9182,
      "צעצ": 9183,
      "ה .\n": 9184,
      " לתוך ה": 9185,
      " מומח": 9186,
      "וליו": 9187,
      "נודע": 9188,
      "לוגי": 9189,
      "ה במשך": 9190,
      " להם.\n": 9191,
      " להציע": 9192,
      "את מ": 9193,
      " או \"": 9194,
      ", משום ש": 9195,
      " (או": 9196,
      " במחקר": 9197,
      ", לפני": 9198,
      " מתאי": 9199,
      "ום של": 9200,
      "תה לא": 9201,
      "ם, אם ": 9202,
      "ת של המ": 9203,
      "ate": 9204,
      "ה את זה ": 9205,
      "קבלים ": 9206,
      "זה בסדר": 9207,
      " ההגנ": 9208,
      "פרוייקט": 9209,
      "ה בין ": 9210,
      " [[": 9211,
      " תינוק": 9212,
      "נתוני": 9213,
      "בוקר.\n": 9214,
      " שירות": 9215,
      "עשיתי": 9216,
      "ivers": 9217,
      " כלומר": 9218,
      "גיע הזמן ל": 9219,
      "meric": 9220,
      " צר": 9221,
      " צד": 9222,
      "\" –": 9223,
      ". \"\n": 9224,
      "New": 9225,
      "PN": 9226,
      "RE": 9227,
      "בטל": 9228,
      "יחס": 9229,
      "מן ב": 9230,
      "מים את ה": 9231,
      "סעודי": 9232,
      "קאר": 9233,
      "ים גם ל": 9234,
      " אֶ": 9235,
      " באירופ": 9236,
      "ותם של": 9237,
      "ניב": 9238,
      "בוקש": 9239,
      " הוא אומר.\n": 9240,
      " שיהיה ": 9241,
      "one ": 9242,
      "אדם ש": 9243,
      "השחק": 9244,
      "ת אשר": 9245,
      "סרטון": 9246,
      " בוקר": 9247,
      " מיליוני": 9248,
      " בעיני": 9249,
      "עדיין מ": 9250,
      " מאמין ש": 9251,
      "היה לנו": 9252,
      "שראל היא": 9253,
      "\"ט": 9254,
      "\" -": 9255,
      ") היא": 9256,
      "43": 9257,
      "CO": 9258,
      "גנה ": 9259,
      "ו של ה": 9260,
      "ככל הנרא": 9261,
      "מגיע": 9262,
      "נאמ": 9263,
      "סמוך": 9264,
      "עמק": 9265,
      "שאיר": 9266,
      " הקו": 9267,
      "ת ד": 9268,
      " בבחיר": 9269,
      " שיש ל": 9270,
      "ות מר": 9271,
      "ובו": 9272,
      " ימים.\n": 9273,
      "ות האלו": 9274,
      " להסביר": 9275,
      " גופ": 9276,
      "התחשב": 9277,
      "התייחס": 9278,
      "נים י": 9279,
      "עשות ה": 9280,
      " במאי": 9281,
      "מדהי": 9282,
      "erv": 9283,
      " סורי": 9284,
      "תראו": 9285,
      " לשם ": 9286,
      "דרך ב": 9287,
      " בשביל ": 9288,
      " טלוויזי": 9289,
      "טלנד": 9290,
      " חיובי": 9291,
      " עלינו": 9292,
      "נראה כי": 9293,
      " אף פעם לא": 9294,
      "ות הישראלי": 9295,
      "מזרח התיכון": 9296,
      "Google ": 9297,
      "\".[": 9298,
      "-D": 9299,
      "כואב": 9300,
      "תה של": 9301,
      "ת, או": 9302,
      "תם של ": 9303,
      " הציבורי": 9304,
      " הצבאי": 9305,
      " אבטח": 9306,
      " מציא": 9307,
      "ות קש": 9308,
      "ות אינ": 9309,
      "ות וש": 9310,
      "ולך": 9311,
      "ליצור": 9312,
      "מישי": 9313,
      "מיכה ": 9314,
      " לאבד": 9315,
      "ה מחדש": 9316,
      "ה מהיר": 9317,
      " גזע": 9318,
      "ה עם מ": 9319,
      " רצו": 9320,
      " רעיון": 9321,
      "ות בריא": 9322,
      "נה, מ": 9323,
      " (M": 9324,
      " לי את ה": 9325,
      "ות מחקר": 9326,
      "פחות.\n": 9327,
      "מחלוק": 9328,
      "כשהו": 9329,
      "ה, אבל ה": 9330,
      " בשני": 9331,
      "גורמים ל": 9332,
      "עבור ה": 9333,
      "ת, וה": 9334,
      "ה כסף": 9335,
      "סתם ": 9336,
      "כמה א": 9337,
      " ניהול": 9338,
      "קיימות ": 9339,
      " קשה ל": 9340,
      "נושאי": 9341,
      "צטער": 9342,
      "מוסלמי": 9343,
      "App": 9344,
      "Cl": 9345,
      "up": 9346,
      "ארוח": 9347,
      "מה היא": 9348,
      "ממוצע": 9349,
      "פץ": 9350,
      "ת;": 9351,
      "״\n": 9352,
      "“ה": 9353,
      ", כלומר": 9354,
      "מילא": 9355,
      "שלומ": 9356,
      "תוקפ": 9357,
      " ומש": 9358,
      " לאט": 9359,
      "ה בעי": 9360,
      ", אף": 9361,
      "ים בפני": 9362,
      " ביולי": 9363,
      " פגיע": 9364,
      "זיאו": 9365,
      "אחת מ": 9366,
      "פעם.\n": 9367,
      "כדי לש": 9368,
      " הפעיל": 9369,
      "קולד": 9370,
      " אם כן": 9371,
      " סופר": 9372,
      "חינוך ה": 9373,
      "נחמד": 9374,
      "ה להיות מ": 9375,
      "אנרגיה ה": 9376,
      "כל מיני": 9377,
      "מרחק של ": 9378,
      "אירועי": 9379,
      "עיוור": 9380,
      " קילומטר": 9381,
      "סיינטולוגי": 9382,
      " חשבו": 9383,
      "52": 9384,
      "67": 9385,
      "der": 9386,
      "yst": 9387,
      "אכן": 9388,
      "בחרו": 9389,
      "דמע": 9390,
      "הסדר": 9391,
      "ה, הי": 9392,
      "ךָ": 9393,
      "ן מה": 9394,
      "ן אל": 9395,
      "קנה ": 9396,
      "רמות ה": 9397,
      " הגע": 9398,
      "ה כל ": 9399,
      "ת גם ": 9400,
      " בצד": 9401,
      "ות אלה ": 9402,
      "נו כי": 9403,
      "ובא": 9404,
      " להציג": 9405,
      "שונים.\n": 9406,
      " המהיר": 9407,
      "על-ידי": 9408,
      " רגש": 9409,
      "הוא גם ": 9410,
      "ניים": 9411,
      "חיים, ": 9412,
      " דול": 9413,
      " שנמצא": 9414,
      "קריטי": 9415,
      "ראשונים ": 9416,
      "בית החולי": 9417,
      "ich": 9418,
      " מדיני": 9419,
      " אינה מ": 9420,
      "185": 9421,
      "ם, שי": 9422,
      " עיצוב": 9423,
      "חיובית ": 9424,
      "חבריו": 9425,
      "כלכלה ה": 9426,
      " ארבעה ": 9427,
      " המדינה.\n": 9428,
      " לשמור על ה": 9429,
      " מבחינה ": 9430,
      "גשי": 9431,
      "דורי": 9432,
      "חל ": 9433,
      "חברו": 9434,
      "מכונ": 9435,
      "מה את ": 9436,
      "ערוכ": 9437,
      " הבריא": 9438,
      " לדי": 9439,
      " משרד": 9440,
      " מנהל": 9441,
      "ות מיוחד": 9442,
      "ות חברתי": 9443,
      "רובי": 9444,
      "ביצע": 9445,
      "מיס": 9446,
      "ם הול": 9447,
      " יחד עם ": 9448,
      "ה שהת": 9449,
      " נמו": 9450,
      " נורא": 9451,
      "ים בלתי": 9452,
      "קרתי": 9453,
      "אנס": 9454,
      "קטל": 9455,
      " מתמיד": 9456,
      " יותר טוב": 9457,
      "דרך היחיד": 9458,
      " להתמקד": 9459,
      "קופס": 9460,
      "לכן ה": 9461,
      "כמה מה": 9462,
      "סביבה.\n": 9463,
      "טבע.\n": 9464,
      "שביל ": 9465,
      "ות היהודי": 9466,
      "ign": 9467,
      "מועצת ה": 9468,
      "שימושי": 9469,
      " ציבורי": 9470,
      " זיכרו": 9471,
      " סטודנט": 9472,
      "הנשיא": 9473,
      "טער": 9474,
      "כים לה": 9475,
      "מנה ": 9476,
      "ן מש": 9477,
      "עם היהודי": 9478,
      "שם ב": 9479,
      "לים, ": 9480,
      " ערי": 9481,
      "שיחק": 9482,
      "ם המו": 9483,
      "ברך": 9484,
      "היקף": 9485,
      "ון של ": 9486,
      "חידי": 9487,
      "ה ל-": 9488,
      "כי הוא": 9489,
      "ציונ": 9490,
      " גרי": 9491,
      "דבר ש": 9492,
      "כאן ה": 9493,
      "פחות ב": 9494,
      "פורסמ": 9495,
      "כבש": 9496,
      "ים לא י": 9497,
      "מהלך מ": 9498,
      "מבקר": 9499,
      " מחליט": 9500,
      "מדיניות ": 9501,
      "תאור": 9502,
      " החול": 9503,
      "על ידי ה": 9504,
      "גן עד": 9505,
      "פסיכיא": 9506,
      "עם זאת, ב": 9507,
      "שביל ה": 9508,
      " כוונ": 9509,
      "עקבו": 9510,
      "פרנסיסקו": 9511,
      " ‘": 9512,
      "ron": 9513,
      "ֵּ": 9514,
      "בגד": 9515,
      "הורי": 9516,
      "הזמ": 9517,
      "הייתה ": 9518,
      "הצג": 9519,
      "ענות ": 9520,
      "צומ": 9521,
      "צגו": 9522,
      "ה ר": 9523,
      "ה פשוט": 9524,
      " מזרח": 9525,
      "נית ל": 9526,
      "מיח": 9527,
      "מו ל": 9528,
      "הים.\n": 9529,
      "היכן": 9530,
      "מרפא": 9531,
      "ים במיוחד": 9532,
      "כל אדם ": 9533,
      "חררו": 9534,
      "מעניק": 9535,
      "אתם ב": 9536,
      "רבות ב": 9537,
      " ביצע": 9538,
      "אני רק": 9539,
      " אופטי": 9540,
      "ומני": 9541,
      " חתי": 9542,
      "ות שבה": 9543,
      "גלול": 9544,
      " התא": 9545,
      " שנה ב": 9546,
      "ink": 9547,
      " להתא": 9548,
      "סוף.\n": 9549,
      " יודעים ש": 9550,
      "קבל את ": 9551,
      "מייסד": 9552,
      " הרגיש": 9553,
      "מערכות ה": 9554,
      " דברים ": 9555,
      " האוניברסיט": 9556,
      "ציבור ה": 9557,
      "תקופה ה": 9558,
      "כך הוא": 9559,
      "מעלה.\n": 9560,
      "לדוגמא": 9561,
      " בספטמבר": 9562,
      "וניברסיט": 9563,
      " זמן רב": 9564,
      "88": 9565,
      "BD": 9566,
      "גמול": 9567,
      "וול": 9568,
      "תם מ": 9569,
      "תשומת לב": 9570,
      " הצו": 9571,
      "ם ול": 9572,
      " לוק": 9573,
      " מעש": 9574,
      " מנס": 9575,
      "ורס": 9576,
      ", זו": 9577,
      "רוברט": 9578,
      "ם המת": 9579,
      "היבט": 9580,
      "לון ": 9581,
      "גיוס": 9582,
      " לא לה": 9583,
      "קו ה": 9584,
      "ה מן ה": 9585,
      " נדיר": 9586,
      "ים בצור": 9587,
      " הממוצע": 9588,
      "ה עצמ": 9589,
      "מאמצ": 9590,
      "זמנו": 9591,
      "נה:": 9592,
      "ה ידוע": 9593,
      "ות שלו.\n": 9594,
      " האש": 9595,
      " האהב": 9596,
      "ה של י": 9597,
      " סנט": 9598,
      " לשכוח": 9599,
      "אופן ה": 9600,
      "חשוב על ": 9601,
      " בשל ": 9602,
      "ה כאילו": 9603,
      " עד ש": 9604,
      " אם אתה ": 9605,
      " אלינו": 9606,
      "מערכות ": 9607,
      "עובדים ": 9608,
      "ים ביותר.\n": 9609,
      "בנוסף, ה": 9610,
      " ידעתי": 9611,
      "otel": 9612,
      " מייצג": 9613,
      "כל מקום.\n": 9614,
      "ים מסוימים ": 9615,
      " l": 9616,
      "\"אני מ": 9617,
      "Off": 9618,
      "SS": 9619,
      "Sp": 9620,
      "אדו": 9621,
      "בהתחל": 9622,
      "ם, לה": 9623,
      "מאוחר יותר": 9624,
      "נזי": 9625,
      "נמוכ": 9626,
      "תגר": 9627,
      "ת חדש": 9628,
      " אך ורק": 9629,
      " בדרך כלל ": 9630,
      "רוט": 9631,
      " ככ": 9632,
      "אינו מ": 9633,
      "לא א": 9634,
      "אומץ": 9635,
      "ות הם ": 9636,
      " ושל": 9637,
      ", אך ": 9638,
      "שווק": 9639,
      "ראה ה": 9640,
      "חדשים.\n": 9641,
      "ים באופן ": 9642,
      "סוני": 9643,
      "אל-": 9644,
      " המב": 9645,
      ", בלי": 9646,
      "גופו": 9647,
      " השחור": 9648,
      "זהות ": 9649,
      "גורמי": 9650,
      "מקום ש": 9651,
      " בהם.\n": 9652,
      "גנב": 9653,
      " Sp": 9654,
      " הרפואי": 9655,
      "צליל": 9656,
      "ביתה.\n": 9657,
      " פיזי": 9658,
      ", כגון": 9659,
      "כישרו": 9660,
      "סמוך ל": 9661,
      ".\"[": 9662,
      "מוכנים ל": 9663,
      " ~": 9664,
      " ריי": 9665,
      "')": 9666,
      "64": 9667,
      "אפריק": 9668,
      "מה של ה": 9669,
      "ן: \"": 9670,
      "נג'": 9671,
      "שרי": 9672,
      " הכוח": 9673,
      "ה ציבורי": 9674,
      "ים אינם ": 9675,
      " מט": 9676,
      "ות בלתי": 9677,
      "איון": 9678,
      " יח": 9679,
      "אוצר": 9680,
      "אונד": 9681,
      "משך.\n": 9682,
      "ה באמצעות ": 9683,
      "קום ב": 9684,
      "שוני": 9685,
      "מצלמ": 9686,
      "פוטי": 9687,
      " אושר": 9688,
      "דבר אחד": 9689,
      "ספקי": 9690,
      "ם בעלי": 9691,
      "נה וה": 9692,
      " מוקדם ": 9693,
      "תחנת ": 9694,
      ", לש": 9695,
      " על בסיס": 9696,
      "נקצי": 9697,
      " חוו": 9698,
      "מנהיגי": 9699,
      "עבר ל": 9700,
      "גורמים ה": 9701,
      "ה נכונ": 9702,
      " אני א": 9703,
      "ate ": 9704,
      " כאן ב": 9705,
      " עד ל": 9706,
      " חיפוש": 9707,
      "אבל מ": 9708,
      "ים יחד": 9709,
      "תם את ה": 9710,
      " פיתוח": 9711,
      "אותה ה": 9712,
      "אשתו": 9713,
      " נפגע": 9714,
      "מזג": 9715,
      " כסף.\n": 9716,
      "דעתך": 9717,
      "שלטון ה": 9718,
      "עתים קרובות ": 9719,
      "כפת ל": 9720,
      " אנג'לס": 9721,
      "\"ל ה": 9722,
      "ly": 9723,
      "ִּ": 9724,
      "אסי": 9725,
      "וצא": 9726,
      "כפרי": 9727,
      "ם, הי": 9728,
      "מעי": 9729,
      "תף": 9730,
      " הזה הוא": 9731,
      "ים ח": 9732,
      " בעד": 9733,
      " בשוק": 9734,
      "ותם.\n": 9735,
      "נו על ": 9736,
      "ליכ": 9737,
      "לילד": 9738,
      "ליגנ": 9739,
      "ה הראשון": 9740,
      "אוסף": 9741,
      "מש.\n": 9742,
      ", אול": 9743,
      ", אך לא": 9744,
      " נעשה ": 9745,
      "זה כמו": 9746,
      " תמו": 9747,
      " המכיר": 9748,
      "ים שבה": 9749,
      " אי אפשר": 9750,
      ", ב-": 9751,
      "על כן": 9752,
      "עדכן": 9753,
      "גרמ": 9754,
      "כאבי": 9755,
      "מידה רב": 9756,
      " האזור": 9757,
      " למדינ": 9758,
      "חלקת ה": 9759,
      "אנחנו צריכים ל": 9760,
      " לוותר": 9761,
      " מסעד": 9762,
      "משלת ": 9763,
      "חסד": 9764,
      "השג": 9765,
      " הוכח": 9766,
      "ה היא ש": 9767,
      "חודשים.\n": 9768,
      " העניי": 9769,
      " הבניי": 9770,
      "רוח.\n": 9771,
      " ההור": 9772,
      " לחסו": 9773,
      "סיטוא": 9774,
      " דבר.\n": 9775,
      " קונג": 9776,
      "שיג את ה": 9777,
      "ביטחו": 9778,
      "קהילה ה": 9779,
      " להוביל": 9780,
      "ארצות הברית ": 9781,
      " לייצר": 9782,
      "קרקעי": 9783,
      " זמן ": 9784,
      "!\".\n": 9785,
      "(ה": 9786,
      "af": 9787,
      "vi": 9788,
      "ג '": 9789,
      "והיא": 9790,
      "טים ב": 9791,
      "לרוב": 9792,
      "ם, היא": 9793,
      "ן!\n": 9794,
      "ן היו": 9795,
      "נפוצ": 9796,
      "פעל ": 9797,
      "ק ל": 9798,
      "קבי": 9799,
      "תרי": 9800,
      " הקל": 9801,
      " הקשר": 9802,
      " הזוג": 9803,
      "ה וק": 9804,
      "ה כל כך": 9805,
      "ביחד": 9806,
      " ערבי": 9807,
      " כניס": 9808,
      "תי על ": 9809,
      "תי מה": 9810,
      "ות האחר": 9811,
      "ציו": 9812,
      " את הספר": 9813,
      "ן רק": 9814,
      "אלכס": 9815,
      "חלל ": 9816,
      " תקוו": 9817,
      " גם ש": 9818,
      " ביד": 9819,
      "אני מאוד": 9820,
      "הוא הת": 9821,
      "דברים על ": 9822,
      ", שלא": 9823,
      "אמת מ": 9824,
      "כל רחבי ה": 9825,
      "קשב": 9826,
      " זהב": 9827,
      " התק": 9828,
      "כאן ב": 9829,
      "נטון": 9830,
      "נית, ה": 9831,
      "נקב": 9832,
      "חלק גדול": 9833,
      "עצמה.\n": 9834,
      " הוצא": 9835,
      "עורך די": 9836,
      " טור": 9837,
      "רצחו": 9838,
      " בהצלח": 9839,
      " תופע": 9840,
      "הפעם ": 9841,
      " הרביעי": 9842,
      " ההחלט": 9843,
      "ביא את ה": 9844,
      "פסול": 9845,
      " פיר": 9846,
      "גרום ": 9847,
      " כמה י": 9848,
      "חיוך": 9849,
      " המשפטי": 9850,
      "שוויון": 9851,
      " קודם ל": 9852,
      "''\n": 9853,
      " בינואר": 9854,
      "ternational": 9855,
      "\"אז": 9856,
      "BS": 9857,
      "ead": 9858,
      "ool": 9859,
      "גמור": 9860,
      "הכול": 9861,
      "המשטר": 9862,
      "כסי": 9863,
      "נעלי": 9864,
      "עת.\n": 9865,
      "פקח": 9866,
      "תביע": 9867,
      " הפרטי": 9868,
      "ים ור": 9869,
      " לך ": 9870,
      " בבקש": 9871,
      "מומחי": 9872,
      " כוס": 9873,
      "אוכלוסי": 9874,
      "ה בלי": 9875,
      "ציאת ": 9876,
      "קרה ל": 9877,
[...]
