<unk>	0
<s>	0
</s>	0
.	-3.37255
▁	-3.48724
,	-3.58069
▁ה	-3.70891
ה	-3.89222
ים	-4.01947
ת	-4.11373
▁ב	-4.25484
ו	-4.34417
י	-4.47329
▁ל	-4.47731
▁של	-4.47835
▁את	-4.51648
ות	-4.53776
▁מ	-4.68526
▁לא	-4.9498
▁על	-5.00125
▁ו	-5.12673
▁ש	-5.31227
▁"	-5.36443
ם	-5.37487
?	-5.46417
▁זה	-5.47323
"	-5.48962
▁מה	-5.53133
▁הוא	-5.55654
ב	-5.56205
:	-5.643
-	-5.67284
ן	-5.70313
▁או	-5.75674
ר	-5.78619
ל	-5.79455
▁כל	-5.82667
▁עם	-5.83678
נו	-5.83936
▁המ	-5.86851
▁לה	-5.93316
▁(	-5.96429
'	-5.97586
▁וה	-6.05682
ית	-6.06593
▁אני	-6.08306
▁היא	-6.11136
▁יש	-6.11607
▁יותר	-6.13672
▁נ	-6.16941
▁ת	-6.18142
▁גם	-6.18845
תי	-6.2465
".	-6.25793
)	-6.26545
▁כ	-6.27038
▁כי	-6.28074
ג	-6.29853
▁אם	-6.3279
▁שה	-6.33972
ח	-6.36675
מ	-6.42472
ך	-6.42884
▁היה	-6.43082
ס	-6.44511
א	-6.44879
▁הם	-6.45968
ק	-6.48199
▁אבל	-6.48589
ון	-6.4916
▁י	-6.53654
ד	-6.57923
▁לי	-6.60758
▁כדי	-6.61835
▁יכול	-6.63379
▁להיות	-6.63562
▁-	-6.63694
▁–	-6.64115
▁רק	-6.64718
נה	-6.64973
▁א	-6.65407
ש	-6.6592
פי	-6.68433
יה	-6.69386
יות	-6.70935
▁אחד	-6.71002
▁כמו	-6.72242
▁אל	-6.73185
ז	-6.73262
ט	-6.7524
מה	-6.76678
מו	-6.76687
▁ול	-6.76927
▁וב	-6.77895
ני	-6.79986
s	-6.80122
נ	-6.80424
▁כך	-6.81809
מי	-6.82047
▁הת	-6.83151
▁ג	-6.84008
▁ומ	-6.84757
▁זו	-6.86872
▁מת	-6.87865
▁אתה	-6.89305
פ	-6.89639
▁עד	-6.92246
ע	-6.92615
▁אי	-6.92628
ור	-6.92839
▁ביותר	-6.92845
נים	-6.9431
▁מי	-6.94586
▁שלך	-6.95728
!	-6.97598
▁במ	-6.99163
נת	-6.99646
e	-7.01281
▁זאת	-7.02009
יו	-7.03486
▁הש	-7.05601
▁ס	-7.0593
ף	-7.06116
יים	-7.06356
▁היו	-7.0652
▁האם	-7.07573
▁ידי	-7.08122
כ	-7.08305
▁אותו	-7.08383
▁הזה	-7.09559
▁שמ	-7.09694
▁ח	-7.10778
▁בכל	-7.12212
▁אנחנו	-7.13318
▁ד	-7.14329
צ	-7.14617
▁ק	-7.14689
יש	-7.14871
▁ע	-7.15284
▁בין	-7.15455
פו	-7.16127
בר	-7.17614
▁שלנו	-7.18127
בי	-7.18554
▁כמה	-7.18687
או	-7.18845
רי	-7.20106
▁שנ	-7.20266
לו	-7.20318
מים	-7.20793
▁אין	-7.20847
▁מאוד	-7.20882
לי	-7.21174
▁לו	-7.21305
▁שלי	-7.22308
רו	-7.23726
▁בה	-7.23743
▁אז	-7.24319
יד	-7.24585
▁עבור	-7.24666
▁מו	-7.25131
a	-7.25228
נות	-7.25244
▁19	-7.26018
▁לאחר	-7.26123
▁למ	-7.27094
ול	-7.27236
קו	-7.27978
...	-7.28413
▁לפני	-7.28667
▁דבר	-7.29295
▁לך	-7.30119
די	-7.30449
▁שי	-7.30487
ין	-7.30603
▁אנשים	-7.30864
▁הנ	-7.31606
▁לש	-7.32081
▁אך	-7.32406
מת	-7.3246
▁טוב	-7.32853
▁ישראל	-7.33418
כל	-7.33866
▁לעשות	-7.34653
גר	-7.34683
▁צריך	-7.35833
וד	-7.36391
לה	-7.36479
כי	-7.36828
▁עוד	-7.36937
יר	-7.37211
▁לנו	-7.37671
יק	-7.38329
▁כש	-7.38364
▁שהוא	-7.385
o	-7.38768
כם	-7.3982
▁כבר	-7.39914
ץ	-7.40177
וס	-7.4085
▁שב	-7.41641
כו	-7.41981
▁אחר	-7.42257
▁איך	-7.43186
y	-7.43739
).	-7.44273
▁אשר	-7.44781
▁הרבה	-7.44929
אי	-7.45562
▁אמר	-7.45665
מות	-7.45848
▁כאשר	-7.46144
”	-7.46174
צה	-7.46887
▁שני	-7.47719
רה	-7.48084
▁להת	-7.48782
",	-7.49596
▁שלהם	-7.4971
▁אנו	-7.49746
▁לב	-7.50292
יב	-7.50421
על	-7.50922
▁פי	-7.51388
מר	-7.51395
▁באופן	-7.51581
דר	-7.51642
בל	-7.51839
וק	-7.52018
i	-7.52079
▁שלו	-7.52142
;	-7.53392
זה	-7.53871
צו	-7.54049
ינו	-7.54342
▁אלה	-7.55086
▁מס	-7.55268
פר	-7.55313
▁בו	-7.55605
▁רוצה	-7.55781
▁חלק	-7.5627
▁שלא	-7.57161
▁בני	-7.57258
▁היום	-7.57332
טי	-7.57399
▁אדם	-7.57751
t	-7.58579
קי	-7.58755
מש	-7.59217
▁אחת	-7.594
רים	-7.6001
▁שם	-7.60029
▁הס	-7.60249
▁צ	-7.60753
▁שנים	-7.60805
▁אתם	-7.61133
עת	-7.615
וני	-7.61759
▁שיש	-7.61816
▁ולא	-7.62527
עד	-7.62948
צל	-7.63082
p	-7.63678
▁S	-7.63767
▁אחרי	-7.63891
פה	-7.64054
ום	-7.64323
פת	-7.64383
מא	-7.64931
פס	-7.65689
אל	-7.6594
▁זמן	-7.661
רש	-7.66271
בו	-7.66313
וח	-7.66346
ונות	-7.66385
▁העולם	-7.66401
נית	-7.66809
טר	-7.66886
▁מספר	-7.66948
סי	-7.67401
פל	-7.67637
אני	-7.67706
n	-7.6804
לא	-7.68102
יל	-7.6823
תו	-7.68294
כה	-7.69676
▁לכל	-7.69753
C	-7.69946
▁“	-7.70644
▁הח	-7.70662
▁הייתה	-7.70667
S	-7.70789
שת	-7.7089
▁כן	-7.71091
▁להם	-7.7117
גו	-7.71229
▁אותם	-7.71507
▁סי	-7.71925
ער	-7.7197
A	-7.72252
פים	-7.72293
▁יכולים	-7.72384
▁הא	-7.72543
וע	-7.72627
]	-7.72651
▁המו	-7.72855
▁יהיה	-7.72924
g	-7.73082
מן	-7.73291
ראה	-7.73511
▁יום	-7.73893
נס	-7.74071
▁פ	-7.74558
אר	-7.74923
▁מש	-7.74927
כת	-7.75213
▁בא	-7.75564
דה	-7.7593
▁1	-7.76229
▁שאני	-7.76617
▁פעם	-7.77045
טו	-7.77308
▁בשנת	-7.77401
▁ניתן	-7.77595
▁כאן	-7.78608
▁שלכם	-7.78677
כות	-7.78974
▁תמיד	-7.79164
קס	-7.79315
▁אחרים	-7.79781
רת	-7.79962
▁בית	-7.80931
חו	-7.81181
▁A	-7.81432
וב	-7.81433
טע	-7.81544
▁חשוב	-7.81591
▁אף	-7.81721
▁ז	-7.8218
כים	-7.8222
שר	-7.82587
▁שהם	-7.82753
▁אותה	-7.82835
יס	-7.82995
▁רבים	-7.83041
▁'	-7.83381
D	-7.84259
וש	-7.8477
▁2	-7.85329
צר	-7.85519
▁ואת	-7.85557
▁די	-7.85596
▁בעולם	-7.85623
▁משהו	-7.85656
שה	-7.85945
▁אלא	-7.86268
מד	-7.86517
▁ט	-7.86683
קט	-7.87178
כר	-7.87603
חת	-7.87664
▁פשוט	-7.87815
חבר	-7.88346
צי	-7.88588
▁הספר	-7.88657
נט	-7.88772
▁ולה	-7.89227
▁למה	-7.89354
c	-7.89411
▁אפשר	-7.89674
er	-7.89693
▁שנה	-7.89785
b	-7.90043
ונים	-7.90135
דו	-7.9047
."	-7.90848
▁עדיין	-7.90864
▁אומר	-7.91341
u	-7.91356
▁לח	-7.91496
▁ללא	-7.91825
▁הפ	-7.92194
גי	-7.92572
יי	-7.92848
יא	-7.93424
שי	-7.93601
▁3	-7.93691
נק	-7.93858
ווי	-7.94287
קל	-7.94424
M	-7.94427
זו	-7.94571
חי	-7.94633
P	-7.94641
שו	-7.94743
▁בש	-7.94911
▁לכם	-7.95326
סו	-7.95504
של	-7.95543
וט	-7.95684
▁חי	-7.95942
▁עכשיו	-7.95945
in	-7.95965
▁דרך	-7.96144
▁האו	-7.96218
יך	-7.96236
▁לראות	-7.963
▁הג	-7.96655
סט	-7.96777
E	-7.96834
▁הכל	-7.97315
▁באמת	-7.9747
al	-7.97585
יהם	-7.97657
ירה	-7.98219
▁M	-7.98372
חל	-7.98622
נד	-7.98683
תם	-7.9887
מל	-7.98908
▁הראשון	-7.99
ָ	-7.99126
▁B	-7.99308
▁מדי	-7.99366
עו	-7.99533
▁יו	-7.99772
אה	-7.99991
▁הכי	-8.00144
▁במהלך	-8.00361
▁גדול	-8.00572
ונה	-8.00763
▁הע	-8.01403
עה	-8.01574
▁אותי	-8.01757
▁אפילו	-8.01895
w	-8.01977
ויות	-8.02337
חה	-8.02493
00	-8.02636
▁שאתה	-8.03362
כנס	-8.03444
▁P	-8.03622
▁אולי	-8.03626
פות	-8.03631
f	-8.03634
יט	-8.0393
▁הזמן	-8.03976
on	-8.03988
גל	-8.04254
רק	-8.04347
▁מא	-8.04377
▁תו	-8.04592
/	-8.04842
▁בר	-8.04866
▁וי	-8.04879
▁האדם	-8.04934
▁קל	-8.0525
▁C	-8.05284
▁בבית	-8.05329
קבל	-8.05386
פור	-8.0585
▁יודע	-8.05905
ְ	-8.05974
▁שזה	-8.06532
▁מר	-8.0692
▁שא	-8.07066
יג	-8.07465
רח	-8.07474
▁ונ	-8.07616
▁להי	-8.07787
d	-8.07801
),	-8.08113
▁חיים	-8.08232
▁בדרך	-8.08242
re	-8.08331
m	-8.08568
ידי	-8.08831
▁הק	-8.09002
or	-8.09131
▁הו	-8.09187
נא	-8.0982
קול	-8.10001
▁באמצעות	-8.10192
▁החיים	-8.10256
רס	-8.10312
O	-8.10463
עות	-8.10662
T	-8.10924
יע	-8.11035
I	-8.11043
ּ	-8.1113
▁כלל	-8.11653
▁מג	-8.12027
ורה	-8.1252
▁שת	-8.12587
▁אלו	-8.12615
▁ר	-8.1263
▁לקבל	-8.12664
▁בת	-8.12994
▁T	-8.13833
▁מקום	-8.14447
▁שבו	-8.14718
▁D	-8.14794
קה	-8.14844
כן	-8.14855
גן	-8.15165
בת	-8.15225
▁וא	-8.15608
ינה	-8.15883
יום	-8.15921
▁היתה	-8.1608
▁כולל	-8.16126
וף	-8.16262
ַ	-8.16358
אם	-8.17722
▁אינו	-8.17874
▁שוב	-8.17955
▁ספר	-8.1798
▁רוב	-8.18339
כס	-8.18456
בול	-8.18845
טל	-8.18943
קים	-8.18973
ירות	-8.19096
▁שהיא	-8.19299
▁רוצים	-8.19498
▁מאז	-8.19503
▁רב	-8.19585
גע	-8.19647
נח	-8.19934
רג	-8.20088
B	-8.20144
k	-8.20149
ar	-8.20349
קר	-8.20867
▁נראה	-8.20912
▁וש	-8.20941
▁5	-8.21008
▁הצ	-8.21047
אים	-8.21271
כיר	-8.21527
גור	-8.21629
בה	-8.21781
▁צריכים	-8.21807
לים	-8.21893
▁נגד	-8.21957
אות	-8.22371
▁הראשונה	-8.22535
▁F	-8.22601
▁קשה	-8.22988
▁כיצד	-8.23252
▁הזו	-8.23271
▁המת	-8.23341
נג	-8.23377
אפשר	-8.23829
▁דברים	-8.23858
רד	-8.23996
ונ	-8.2405
▁הייתי	-8.24123
ימים	-8.24156
L	-8.24222
▁ני	-8.2462
en	-8.24896
דור	-8.25052
▁במקום	-8.25066
▁H	-8.25123
ורים	-8.25389
▁כפי	-8.25845
1	-8.26398
צא	-8.26661
▁חדש	-8.26884
▁יי	-8.26886
▁האלה	-8.27037
▁G	-8.27198
▁4	-8.27472
?"	-8.27528
▁לדעת	-8.27619
ייה	-8.27716
▁הן	-8.27937
▁מצ	-8.28237
▁ממש	-8.28251
▁במשך	-8.28531
את	-8.28867
an	-8.29623
▁השני	-8.30355
▁פחות	-8.30394
וג	-8.30428
▁כמעט	-8.30459
▁ראש	-8.30678
▁אלוהים	-8.30727
וז	-8.30823
▁בלי	-8.30869
▁בעל	-8.3105
▁לפי	-8.31071
▁החברה	-8.31079
יז	-8.31405
פק	-8.31419
▁עובד	-8.31472
-19	-8.31874
▁מעל	-8.31885
▁בי	-8.3196
▁הדבר	-8.32217
▁דו	-8.32319
לב	-8.32374
▁מח	-8.32516
▁ילדים	-8.32538
r	-8.32594
▁האי	-8.32661
שות	-8.32891
לת	-8.33256
▁שתי	-8.33426
דות	-8.33455
▁שר	-8.33473
רוב	-8.33531
R	-8.33678
כנ	-8.33717
2	-8.34005
▁בשביל	-8.34131
בן	-8.34482
בים	-8.35087
חלק	-8.35285
’	-8.35422
בנה	-8.35463
בטח	-8.35493
▁עצמו	-8.3556
בש	-8.35639
▁יכולה	-8.35781
le	-8.35793
טור	-8.35944
▁קר	-8.35948
▁החל	-8.36057
▁10	-8.36311
▁הד	-8.36416
▁חו	-8.36419
רות	-8.3666
▁לדבר	-8.36876
▁נמצא	-8.36913
ינ	-8.3693
▁מידע	-8.37113
בית	-8.37252
שים	-8.37605
רצו	-8.37776
▁קו	-8.38118
▁לס	-8.38199
▁קי	-8.38505
רגש	-8.3856
▁העיר	-8.38591
▁[	-8.38659
▁עושה	-8.3908
לך	-8.39334
▁כשה	-8.39363
N	-8.39631
זי	-8.39642
▁בתוך	-8.39739
▁הבא	-8.39778
מח	-8.39779
קשר	-8.399
אן	-8.40195
▁אותך	-8.40395
▁מן	-8.40501
▁מיליון	-8.40569
▁הברית	-8.40578
מור	-8.40824
▁עבודה	-8.41108
▁נכון	-8.41113
▁מכל	-8.41143
▁המדינה	-8.41625
▁רע	-8.41627
▁לכן	-8.41676
▁דולר	-8.41717
בני	-8.41816
▁בדיוק	-8.4255
ורי	-8.42567
זר	-8.4257
ראו	-8.42639
▁לגבי	-8.42905
▁נש	-8.4292
▁למצוא	-8.42996
▁רבות	-8.43058
▁הר	-8.43068
▁בגלל	-8.43342
וא	-8.43739
▁שלה	-8.43858
ווה	-8.44215
ing	-8.44256
הם	-8.44393
▁לעבוד	-8.44559
▁למרות	-8.44583
▁פר	-8.4459
ומים	-8.44637
▁מהם	-8.44787
▁כולם	-8.44822
▁שכ	-8.44877
▁שונים	-8.44893
עוד	-8.44966
▁בזמן	-8.45383
▁יחד	-8.45469
-20	-8.45488
F	-8.45533
רגל	-8.45546
מני	-8.45555
▁שום	-8.45564
▁בלתי	-8.45745
סל	-8.45954
▁פו	-8.45962
▁L	-8.46026
מצ	-8.46116
▁הגדול	-8.46228
ביע	-8.46305
▁גו	-8.46307
ניות	-8.46311
בות	-8.46347
▁גר	-8.46371
ילי	-8.46431
▁ביום	-8.46515
[	-8.46696
▁חושב	-8.46699
3	-8.46751
▁מתוך	-8.46793
▁אב	-8.46841
חס	-8.4685
פול	-8.46988
▁בעלי	-8.4709
רא	-8.47144
סטי	-8.47284
▁מטר	-8.47469
▁וגם	-8.47572
▁במיוחד	-8.47683
לט	-8.47827
ֶ	-8.4784
בור	-8.48058
▁וזה	-8.48359
▁להשתמש	-8.48392
▁ואני	-8.48757
▁בטוח	-8.48807
חול	-8.48937
▁הזאת	-8.48981
▁E	-8.48987
אחד	-8.49039
▁לכך	-8.49084
שום	-8.49271
ימה	-8.49302
▁תהיה	-8.49511
▁בן	-8.49654
ינים	-8.49941
▁והוא	-8.50004
חוק	-8.50086
▁W	-8.50157
אמר	-8.50255
▁מתחיל	-8.50684
כש	-8.50704
שא	-8.50716
▁אחרת	-8.50867
▁השנה	-8.50894
▁ברור	-8.50982
יף	-8.51071
▁החדש	-8.51196
דבר	-8.51305
דים	-8.5149
▁מספיק	-8.51507
▁לג	-8.51531
4	-8.51627
נוע	-8.5179
▁בצורה	-8.51917
צות	-8.52029
▁העבודה	-8.5209
▁חיי	-8.52096
עים	-8.5216
מצא	-8.5219
יית	-8.52315
רצ	-8.52355
־	-8.52438
▁קצת	-8.52499
▁ילד	-8.52865
פט	-8.53183
▁מחקר	-8.53186
ro	-8.53221
חוש	-8.53329
▁N	-8.53331
▁יודעים	-8.53416
h	-8.5369
מדע	-8.53693
▁אור	-8.53811
אט	-8.53842
0	-8.53873
▁מל	-8.53922
▁כזה	-8.54142
פע	-8.54402
ביל	-8.5465
▁מרגיש	-8.5467
▁חוק	-8.55033
אס	-8.55099
יני	-8.55121
רע	-8.55223
משך	-8.55468
עשי	-8.55609
כול	-8.5564
▁איש	-8.55647
▁לע	-8.55677
סון	-8.55756
חיל	-8.55832
▁לפחות	-8.56145
▁עליו	-8.56241
▁פני	-8.56253
st	-8.56285
ch	-8.56292
לח	-8.56333
▁חברת	-8.56357
ic	-8.56743
יצ	-8.56804
▁אד	-8.56845
יון	-8.57111
לם	-8.57262
ניים	-8.57316
▁שימוש	-8.57317
▁אצל	-8.57321
▁הרי	-8.57339
▁סוג	-8.57363
חד	-8.57431
▁מאשר	-8.57568
▁בס	-8.58493
at	-8.58537
5	-8.58608
דת	-8.58652
אור	-8.58851
▁הז	-8.5887
▁סו	-8.5887
▁שאנחנו	-8.5893
▁כתב	-8.59136
▁פל	-8.59225
▁בהם	-8.59294
ראי	-8.59312
H	-8.59642
▁כיום	-8.59677
▁מדוע	-8.59732
▁הדברים	-8.59957
▁חל	-8.60422
דל	-8.60744
▁מערכת	-8.60853
▁ידע	-8.60918
▁בק	-8.61015
▁אר	-8.61098
▁צי	-8.611
▁מק	-8.61139
▁עשוי	-8.61175
פעיל	-8.61398
▁תוך	-8.61452
מס	-8.61469
▁מנת	-8.61474
▁אותנו	-8.61481
▁בלבד	-8.61597
▁להגיע	-8.61634
מנו	-8.61772
אלי	-8.61804
ִ	-8.61945
סטר	-8.62013
ולי	-8.62214
▁להבין	-8.62227
לות	-8.62305
טון	-8.62433
▁גבוה	-8.6255
▁לצ	-8.62583
▁עו	-8.62593
▁בד	-8.62634
▁המשפט	-8.62671
▁מלא	-8.62991
▁בישראל	-8.63071
▁שש	-8.63119
G	-8.63154
פח	-8.63297
▁ועל	-8.6331
▁הדרך	-8.63358
▁שעות	-8.63388
▁קשר	-8.63496
ri	-8.63585
ינג	-8.63618
צים	-8.63921
▁שאתם	-8.63929
פני	-8.6397
it	-8.63981
מך	-8.6399
l	-8.64036
▁רו	-8.64038
כמה	-8.64253
▁I	-8.64302
יין	-8.64465
is	-8.64477
▁אינם	-8.6477
▁ואז	-8.64786
▁הגיע	-8.6494
▁שלוש	-8.65276
ed	-8.65301
▁הבית	-8.65406
▁מצב	-8.6563
▁מישהו	-8.65716
▁נע	-8.65789
▁כסף	-8.66076
״	-8.66077
▁הפר	-8.66084
▁וכ	-8.6617
▁צו	-8.66251
נסי	-8.66268
▁טובה	-8.66306
נטי	-8.66485
נן	-8.66675
▁החוק	-8.66822
חשב	-8.66861
▁מכ	-8.66867
▁לקחת	-8.67004
▁לזה	-8.67214
כנה	-8.67327
▁18	-8.67522
▁נשים	-8.67597
עובד	-8.67835
▁גיל	-8.67967
▁עצמי	-8.6837
כתב	-8.6841
▁קיבל	-8.68459
טה	-8.68628
▁אש	-8.6866
מית	-8.68685
▁ימים	-8.68863
▁מיוחד	-8.68945
▁מכן	-8.6895
▁משל	-8.68959
ספק	-8.69248
שוב	-8.69374
▁עושים	-8.69426
es	-8.69451
▁תי	-8.6946
▁אס	-8.69767
שאר	-8.69886
▁בנוסף	-8.70045
▁בעוד	-8.70094
▁מז	-8.7013
נהג	-8.70138
▁עבר	-8.70268
שתי	-8.70272
▁מעט	-8.70279
יפה	-8.70377
▁נו	-8.70517
▁כמובן	-8.70618
ילד	-8.70713
▁אחרות	-8.70882
ארי	-8.70953
▁אינה	-8.70971
▁הללו	-8.70995
▁אמ	-8.71037
עור	-8.71071
סוף	-8.71146
▁הקו	-8.7118
עניין	-8.71196
עשו	-8.71529
▁למעשה	-8.719
ודה	-8.7201
▁ללמוד	-8.72221
▁מקור	-8.72367
סר	-8.7237
▁חייב	-8.72403
▁בשל	-8.72449
▁6	-8.72587
קוד	-8.72721
ממשל	-8.72841
יקה	-8.72946
נר	-8.72953
עמ	-8.7298
et	-8.73106
▁שבה	-8.73243
▁הטוב	-8.73244
▁נת	-8.73376
▁לתת	-8.73519
שם	-8.73648
0%	-8.7369
▁לעולם	-8.73726
ביט	-8.73732
חזק	-8.73918
▁בעיקר	-8.73961
▁קול	-8.7401
▁המס	-8.74021
▁מגיע	-8.74145
▁עומד	-8.74291
טים	-8.74311
נשים	-8.74473
ורג	-8.74476
▁מע	-8.74537
▁הארץ	-8.74571
▁הסרט	-8.74792
▁הממשלה	-8.74839
th	-8.75057
שפע	-8.75174
בא	-8.75239
גה	-8.75283
חוץ	-8.75415
▁בפני	-8.75426
זכר	-8.75439
סור	-8.75519
▁...	-8.75563
חים	-8.75646
▁החי	-8.75796
▁The	-8.75796
שלום	-8.75886
ואר	-8.76081
20	-8.76197
קדם	-8.76253
גדל	-8.76286
דע	-8.76336
▁8	-8.76451
שק	-8.76535
מונה	-8.76609
רגע	-8.76696
אג	-8.76865
▁האנשים	-8.77029
▁נוסף	-8.77154
עזר	-8.77234
כתוב	-8.77272
ולד	-8.77379
▁of	-8.77518
▁7	-8.77579
▁קצר	-8.77629
רכי	-8.77975
▁לעזור	-8.78255
▁סביב	-8.78308
▁פעמים	-8.78343
▁מזה	-8.78352
קד	-8.78439
פתח	-8.78579
▁ומה	-8.78743
▁תחת	-8.78808
פרט	-8.79311
▁חזק	-8.79381
ירים	-8.79465
▁מיד	-8.7953
ראש	-8.79564
▁שמח	-8.79582
למד	-8.79636
▁כה	-8.79672
ֵ	-8.79695
ורד	-8.79702
▁שהיה	-8.79758
▁אוהב	-8.79844
8	-8.7989
v	-8.80095
▁לומר	-8.80099
▁אולם	-8.80125
חור	-8.80186
▁משחק	-8.80194
▁מדובר	-8.80213
▁סוף	-8.8023
▁באתר	-8.80258
▁עשר	-8.80291
▁חש	-8.80292
מקומות	-8.8039
בקש	-8.80609
שיח	-8.80722
▁הישראלי	-8.80813
שאל	-8.80837
חזר	-8.80869
▁סיפור	-8.81135
▁קודם	-8.8133
ra	-8.81439
הוא	-8.81525
יח	-8.81617
▁דקות	-8.81629
▁בכלל	-8.81826
▁יוצא	-8.8202
▁המשחק	-8.82029
▁ממ	-8.82057
▁האחרון	-8.82101
▁אמיתי	-8.82183
בד	-8.82213
ומי	-8.82328
עבר	-8.82347
מקרים	-8.83004
▁אח	-8.83045
▁יהיו	-8.83108
▁כוח	-8.83109
דג	-8.83117
אחר	-8.8318
▁מחדש	-8.83214
▁רואה	-8.8322
-1	-8.83229
▁R	-8.83278
▁עלול	-8.83386
▁ליצור	-8.83391
▁משמעותי	-8.83417
▁מול	-8.83459
▁השנים	-8.83661
פא	-8.83672
ערב	-8.83809
רחב	-8.83868
חז	-8.84006
דק	-8.84052
▁העסק	-8.84171
יפ	-8.84391
▁/	-8.84477
▁רי	-8.85078
▁O	-8.85088
▁פעולה	-8.85122
▁תא	-8.85338
▁הילדים	-8.85491
ערך	-8.85511
▁גדולה	-8.85602
רוח	-8.8567
▁צריכה	-8.8577
וצ	-8.85892
מנים	-8.85999
דוג	-8.86014
וכח	-8.86251
ביקור	-8.8631
טבע	-8.86354
רגיש	-8.86406
גש	-8.86423
▁באזור	-8.86623
▁קרובות	-8.86837
▁נוספים	-8.86845
יץ	-8.86902
▁ככל	-8.86986
▁בע	-8.87176
x	-8.87315
ניה	-8.87318
עסק	-8.87479
▁לבית	-8.87539
▁חול	-8.87563
אנגלית	-8.87861
▁בתחום	-8.87931
פיל	-8.88124
עשה	-8.88143
חצי	-8.88154
▁שמו	-8.88188
שמע	-8.8821
▁לק	-8.88315
▁סרט	-8.88348
סוג	-8.88443
בע	-8.88543
▁רא	-8.88635
▁הגוף	-8.88651
שור	-8.88717
פן	-8.88753
▁נושא	-8.88762
פרס	-8.88762
מטר	-8.88818
פרי	-8.88823
am	-8.88857
▁בכך	-8.89057
צור	-8.89199
▁למשל	-8.8935
חש	-8.89364
שב	-8.89546
דרום	-8.89776
חזור	-8.89914
▁אוכל	-8.89976
שלוש	-8.90017
▁תק	-8.90106
▁שאין	-8.90117
▁שאי	-8.90153
▁שכל	-8.90231
זיק	-8.90294
▁חודשים	-8.90325
▁בג	-8.90339
▁חסר	-8.90361
▁צורך	-8.90385
▁חדשים	-8.90395
▁כאלה	-8.90395
V	-8.90504
גול	-8.90652
צפון	-8.90787
סק	-8.90977
אז	-8.91132
▁הילד	-8.91171
▁הט	-8.91189
▁לנ	-8.91213
עיר	-8.91253
▁טר	-8.91403
ol	-8.9154
עבוד	-8.9157
▁כעת	-8.91574
טיב	-8.91651
▁איזה	-8.91724
▁רחב	-8.91995
▁מדינות	-8.92093
▁ספק	-8.92179
▁מחשב	-8.9218
▁שהו	-8.92183
▁אישי	-8.92393
▁שונות	-8.92424
קרא	-8.92427
יפות	-8.92795
7	-8.92808
▁ברחבי	-8.92833
▁ארה	-8.92833
▁הבינלאומי	-8.9289
עי	-8.92954
▁הבי	-8.9313
▁טו	-8.93226
שתמש	-8.93253
▁טיפול	-8.93264
▁20	-8.9328
▁שנות	-8.933
W	-8.93486
זל	-8.9359
ומה	-8.93632
el	-8.93735
עצב	-8.93815
צת	-8.93857
ליט	-8.94184
גז	-8.94335
▁שלושה	-8.94463
▁באותו	-8.94536
עול	-8.94583
ואה	-8.94594
▁קטן	-8.94716
▁ללכת	-8.94972
▁שאל	-8.95147
▁זר	-8.95159
▁בעבר	-8.95275
קפה	-8.95358
▁כגון	-8.95386
אדם	-8.95491
▁וכל	-8.9554
▁פה	-8.95548
▁קורה	-8.95816
אנחנו	-8.95894
▁בנושא	-8.95977
▁לאורך	-8.95984
▁מפני	-8.96168
נדי	-8.96216
מלי	-8.96425
פנים	-8.96427
דיר	-8.96494
▁משום	-8.96501
▁אחוז	-8.96502
▁לעתים	-8.96606
צב	-8.96631
כבד	-8.9676
עולם	-8.96827
רכב	-8.96831
אש	-8.96851
▁שנת	-8.97044
מועד	-8.97057
▁קרוב	-8.97157
אד	-8.97173
שמי	-8.97342
טרו	-8.97388
ילה	-8.97402
טיס	-8.9744
us	-8.97466
כב	-8.97531
יזם	-8.97565
ימי	-8.97715
▁שונה	-8.97726
מקור	-8.97742
קרב	-8.97941
▁ידוע	-8.98092
▁ועד	-8.98108
▁שירות	-8.98205
▁האמת	-8.98258
שירות	-8.98397
רוק	-8.98398
בין	-8.98423
▁בסדר	-8.98465
▁לשמור	-8.98559
▁בשנה	-8.98834
▁אבי	-8.98905
זמן	-8.99017
רב	-8.99076
▁העיקרי	-8.99136
▁בקרב	-8.99151
▁באות	-8.99256
▁נא	-8.99274
▁הצי	-8.99321
▁להשיג	-8.99327
▁ויש	-8.99348
אמנות	-8.9941
▁ולכן	-8.99516
ספר	-8.99768
גיל	-8.99799
פוס	-8.99826
il	-8.99875
▁V	-8.99975
▁חדשה	-8.99989
▁יהודי	-9.00008
▁נח	-9.00047
קא	-9.00264
▁האל	-9.00267
▁לפעמים	-9.00292
פקיד	-9.00337
▁תש	-9.00344
▁מציע	-9.00449
▁מצא	-9.00457
▁ליד	-9.00463
כניס	-9.00522
▁ערב	-9.00569
▁מאד	-9.00714
הגנה	-9.00726
as	-9.00762
ur	-9.00828
סדר	-9.00934
▁15	-9.00959
טרי	-9.01011
מזרח	-9.01143
רון	-9.01173
ונית	-9.01194
▁the	-9.01401
מוש	-9.01445
▁לקרוא	-9.01447
מציא	-9.01537
▁הלאומי	-9.01802
פש	-9.01813
▁נשאר	-9.01941
▁שינוי	-9.01946
▁להפוך	-9.02038
200	-9.02111
lo	-9.02118
נתי	-9.02127
50	-9.02134
מון	-9.02184
▁לבד	-9.02207
מכר	-9.02243
פסק	-9.02291
▁המח	-9.02305
יצור	-9.02407
קרה	-9.02508
עונה	-9.02657
▁האמריקאי	-9.02762
▁בח	-9.02878
▁יצא	-9.02928
אנשים	-9.02974
▁לשנות	-9.03122
▁תפקיד	-9.0315
סביב	-9.03154
▁פרטי	-9.03204
▁ממנו	-9.03226
עבור	-9.0339
▁בידי	-9.03519
▁לחלוטין	-9.03521
פחד	-9.03527
▁מעבר	-9.03558
X	-9.03612
מכשיר	-9.03687
משרד	-9.03751
חות	-9.03763
▁ארצות	-9.0378
▁שע	-9.0379
▁בגיל	-9.04185
▁המצב	-9.04219
אזרח	-9.0429
▁שעל	-9.04515
▁נס	-9.04546
ודד	-9.0476
▁נכנס	-9.04839
ארץ	-9.04843
▁שמע	-9.04921
▁לבצע	-9.05144
עק	-9.05157
אנו	-9.05205
סביר	-9.05241
אתה	-9.05295
▁כמ	-9.05306
▁שאלה	-9.0552
צדק	-9.05524
כלל	-9.05564
דאג	-9.05574
משטר	-9.05667
בעל	-9.05704
רכיב	-9.05738
▁לבין	-9.05824
שוק	-9.05865
▁היחיד	-9.05876
▁שאנו	-9.05942
עז	-9.05942
▁כנראה	-9.06017
▁לחשוב	-9.06027
▁חבר	-9.06049
כח	-9.06124
ידע	-9.06298
▁חברות	-9.06394
צבע	-9.0641
מלא	-9.06421
▁פוליטי	-9.06453
▁האמ	-9.06479
▁באו	-9.06548
▁משפחת	-9.06563
קרו	-9.06745
U	-9.06762
נוס	-9.06771
ad	-9.06855
אלוהים	-9.06866
לס	-9.0688
עין	-9.06913
עיצוב	-9.07057
▁הלב	-9.07091
▁בחיים	-9.07135
▁לחיות	-9.07171
תרבות	-9.07203
ir	-9.07227
ירו	-9.07254
חיפוש	-9.07354
▁מאפשר	-9.0738
צביע	-9.07394
▁מנהל	-9.07411
▁שעבר	-9.07496
▁הולך	-9.07773
▁ההת	-9.07777
מין	-9.07789
אב	-9.07859
מט	-9.07935
▁פעילות	-9.07949
▁זהו	-9.08098
▁קרא	-9.08111
▁במקרה	-9.08294
▁חשב	-9.08349
טא	-9.08527
▁מודע	-9.08877
▁הנה	-9.08966
ברי	-9.09077
▁מאוחר	-9.09099
”.	-9.09175
▁מצד	-9.09293
עמוד	-9.0932
▁אליו	-9.09436
נז	-9.09703
▁9	-9.09736
סה	-9.09746
▁עובדים	-9.09793
טוב	-9.09896
▁עמד	-9.09904
▁השנייה	-9.0992
▁כאילו	-9.09924
▁זכויות	-9.09974
חק	-9.10056
קיר	-9.10062
▁גל	-9.10115
▁בסוף	-9.10142
פרק	-9.10182
טלפון	-9.10216
ריון	-9.10281
▁רואים	-9.1037
▁מצוי	-9.10637
וֹ	-9.10703
▁העל	-9.10739
רגיל	-9.10784
▁המחקר	-9.10817
ידו	-9.1099
▁מאות	-9.11005
▁אנ	-9.11031
▁מסוגל	-9.11062
▁הדו	-9.1109
▁פועל	-9.11124
▁האחרונות	-9.11126
z	-9.11142
עצמו	-9.11152
▁השת	-9.11289
▁בשם	-9.11391
תוצאה	-9.11521
▁גי	-9.1154
▁והיא	-9.1161
▁12	-9.11707
סיכון	-9.11716
ay	-9.11734
קת	-9.11757
60	-9.11829
גודל	-9.11909
▁רגע	-9.11929
נצח	-9.12001
▁בחיי	-9.12215
▁רכב	-9.12249
מידה	-9.12316
▁מכיר	-9.12382
▁משנה	-9.12417
מע	-9.12479
▁שבוע	-9.12577
ֹ	-9.12584
קשה	-9.12597
▁מחיר	-9.12701
▁המשפחה	-9.12709
▁מאו	-9.12751
▁אמור	-9.1288
טלוויזיה	-9.12883
דרך	-9.12898
ולט	-9.13081
גבר	-9.13168
▁J	-9.1322
▁חומר	-9.13381
עניק	-9.13402
▁טיפ	-9.13431
▁יורק	-9.13511
רצח	-9.13597
▁התח	-9.13707
דמות	-9.1372
משקל	-9.1377
▁מפ	-9.1384
▁תודה	-9.13867
עשר	-9.14003
בוא	-9.14135
שטח	-9.14168
▁בעיות	-9.14202
▁יתר	-9.14464
נגד	-9.14553
דוד	-9.14554
▁כלפי	-9.1465
▁לפ	-9.14694
▁מדבר	-9.14755
ימת	-9.14756
▁אתכם	-9.14892
▁שהת	-9.1492
▁השאלה	-9.14991
▁טבעי	-9.15063
▁נוספת	-9.15216
▁לחבר	-9.15296
▁חוב	-9.15317
▁איפה	-9.15438
דרג	-9.15457
▁בריא	-9.15517
▁כלומר	-9.15542
–	-9.15608
בחר	-9.15696
כור	-9.15797
▁עבד	-9.15869
▁תוכנית	-9.15874
▁והמ	-9.15954
פיע	-9.15989
ציה	-9.16051
▁גבוהה	-9.1609
▁בינלאומי	-9.16141
מם	-9.16202
▁בתי	-9.16361
▁נולד	-9.16374
▁תח	-9.164
▁הרש	-9.16442
▁להתחיל	-9.1646
▁טובים	-9.16483
▁אמרה	-9.16556
▁במצב	-9.16608
▁מבין	-9.16637
נצ	-9.16652
לקוח	-9.16669
▁האמיתי	-9.16694
▁המידע	-9.16777
▁העבר	-9.16866
פיס	-9.16902
תמיד	-9.16929
לוגי	-9.1708
▁מעולם	-9.17101
חנות	-9.17124
▁30	-9.17135
אנג	-9.17187
▁עלינו	-9.17211
▁מספק	-9.17224
כנות	-9.17258
▁רוח	-9.17298
▁זקוק	-9.17305
ce	-9.17344
▁הצליח	-9.17397
▁לבחור	-9.17478
תנועה	-9.17575
אק	-9.17653
▁רבה	-9.17669
▁עצמם	-9.1781
▁מקבל	-9.1785
מפ	-9.17854
Y	-9.17894
אוניברסיטת	-9.17915
▁בעיר	-9.17938
שרת	-9.17997
▁מתו	-9.18013
מערב	-9.18092
▁כדור	-9.1811
תחרות	-9.18117
▁האתר	-9.1815
שותף	-9.18396
דף	-9.18495
▁עצמה	-9.18522
ממוצע	-9.18552
10	-9.18579
▁לחזור	-9.18593
פטר	-9.18675
כפר	-9.18725
רצי	-9.18807
ניח	-9.18988
▁ואם	-9.1909
▁חדשות	-9.19098
קור	-9.19156
פלי	-9.1916
טכנולוגיה	-9.19242
צבא	-9.19279
קרי	-9.19293
עיל	-9.19397
▁ממשלת	-9.19438
מוזיקה	-9.19465
בצע	-9.1952
▁הפעם	-9.19543
▁קונ	-9.19558
דמי	-9.19589
▁לגרום	-9.19612
▁אפשרי	-9.19626
עם	-9.19642
!"	-9.19739
▁קש	-9.19781
▁בריאות	-9.19849
▁בעיה	-9.19868
עמד	-9.19895
▁תת	-9.19956
ישראל	-9.2011
עבד	-9.20119
▁להמשיך	-9.20152
▁הנוכחי	-9.20286
▁סל	-9.20322
▁הרכב	-9.20322
▁חר	-9.20325
▁רצו	-9.20346
▁פרי	-9.20387
לנד	-9.2042
▁עליהם	-9.20488
תקופת	-9.20522
רמה	-9.20686
אהבה	-9.2071
רוס	-9.20767
▁למד	-9.20802
▁יהודים	-9.20817
ריק	-9.20975
▁עיר	-9.21007
מרכז	-9.21007
▁למען	-9.21023
▁In	-9.21035
▁משת	-9.21058
תלמיד	-9.2109
un	-9.2121
וּ	-9.21216
ונג	-9.21282
תינוק	-9.21308
▁אירוע	-9.21346
▁דומה	-9.21368
עביר	-9.2143
▁סמ	-9.21437
▁משתמשים	-9.21442
▁הבעיה	-9.21458
▁בסופו	-9.21508
ציע	-9.21584
גדר	-9.21665
מוס	-9.21706
▁זוכר	-9.21753
▁חברים	-9.21785
ימון	-9.2189
▁חייבים	-9.21907
▁אומרים	-9.21914
▁לתוך	-9.22012
▁המוצר	-9.22084
▁אנשי	-9.22188
▁בעקבות	-9.22239
ימות	-9.22304
▁בארה	-9.2231
▁הגדולה	-9.22411
▁תלוי	-9.22423
id	-9.22509
▁מדינה	-9.22513
li	-9.22544
▁לוקח	-9.22581
ימו	-9.22751
▁הקרוב	-9.22785
רט	-9.2279
▁משרד	-9.22818
▁בהתאם	-9.22886
▁מחוץ	-9.22903
תקן	-9.23005
▁ארבע	-9.23018
נפ	-9.23069
יכה	-9.23099
▁ועוד	-9.231
קהל	-9.23102
▁קשור	-9.23107
▁ככה	-9.23141
▁בהחלט	-9.23252
▁מהר	-9.23317
▁בחר	-9.23412
▁להתמודד	-9.2345
▁וכן	-9.23473
▁המחשב	-9.23499
▁נתונים	-9.23526
▁חוזר	-9.23557
▁דר	-9.23595
שחק	-9.237
▁הגבוה	-9.23794
▁מתי	-9.23828
קנה	-9.23982
יקום	-9.24016
פנה	-9.24027
▁האח	-9.24092
▁השלישי	-9.24107
▁לגמרי	-9.24114
▁K	-9.2413
מנה	-9.24173
גישה	-9.24325
ac	-9.24326
▁לעומת	-9.24335
כך	-9.24365
▁הלא	-9.24419
▁המקום	-9.24422
דעת	-9.24616
▁משמעות	-9.24666
▁הסיפור	-9.24705
כא	-9.24737
▁הסי	-9.24756
▁יעיל	-9.24807
ter	-9.24837
▁הדי	-9.24901
▁האישי	-9.24909
שני	-9.24912
▁חודש	-9.24925
11	-9.24925
▁הכוח	-9.24931
▁תוכלו	-9.24948
עיד	-9.25115
▁לשחק	-9.25116
▁אומרת	-9.25133
זמין	-9.25153
תפתח	-9.25176
דא	-9.25225
▁St	-9.25314
יסט	-9.25337
מצרים	-9.25355
▁עי	-9.25419
▁מד	-9.25425
מתי	-9.25433
ck	-9.25439
כדור	-9.25518
▁עסק	-9.25542
▁פתוח	-9.2593
▁השבוע	-9.25972
▁בעת	-9.26008
▁אהבה	-9.26016
אבד	-9.26053
כאן	-9.26064
אין	-9.26171
▁למי	-9.26259
▁האנושי	-9.2626
מטופל	-9.26281
▁תוכל	-9.26339
בריטניה	-9.26373
▁אותן	-9.26402
טיל	-9.2646
רוץ	-9.26505
▁הסיבה	-9.26575
עץ	-9.26609
טן	-9.26649
▁תהליך	-9.26679
אמן	-9.26842
▁ההו	-9.26927
ציבור	-9.26932
גלו	-9.26953
נם	-9.26985
רוג	-9.27035
▁בכ	-9.27129
▁היינו	-9.2713
▁שיר	-9.2717
התפתחות	-9.27178
סייע	-9.27229
בלתי	-9.27261
▁ייתכן	-9.27298
שבת	-9.27327
▁האינטרנט	-9.27356
מנהל	-9.27447
נצל	-9.27501
▁נהר	-9.27517
יפים	-9.27545
ִי	-9.27556
▁לספק	-9.27654
▁צעד	-9.27659
de	-9.27694
▁סט	-9.27696
▁ראשון	-9.27827
▁בראש	-9.2787
פסיק	-9.27903
▁לאנשים	-9.27971
▁בארץ	-9.28001
רשימה	-9.28005
▁עולם	-9.28047
▁הכר	-9.28094
▁כדאי	-9.28112
סקר	-9.28149
▁האחרונה	-9.28249
כוח	-9.28315
▁מיני	-9.28357
▁למנוע	-9.28385
ענייני	-9.28488
▁פרק	-9.28489
▁צפוי	-9.28497
▁משתמש	-9.28543
יבה	-9.2855
סטודנטים	-9.28561
▁בשלב	-9.28749
אתגר	-9.28848
▁הנשיא	-9.28855
למה	-9.28888
מדינה	-9.28934
ation	-9.29004
▁והם	-9.29025
80	-9.29035
▁גברים	-9.29065
▁האוויר	-9.29121
קני	-9.29142
▁האור	-9.29151
▁עובר	-9.29159
ia	-9.29281
▁הרב	-9.29293
גובה	-9.29319
▁נקרא	-9.29388
▁להביא	-9.29407
ביטחון	-9.29455
▁יפה	-9.2947
▁ער	-9.29494
▁לצאת	-9.29504
▁צעיר	-9.29563
▁קרה	-9.29579
▁מיליארד	-9.29634
▁איכות	-9.29661
עקב	-9.29672
om	-9.29676
▁האר	-9.29711
חופש	-9.29795
▁דעת	-9.29796
▁סדר	-9.29802
יטה	-9.29832
מנט	-9.29849
21	-9.29858
רמות	-9.29953
בחירה	-9.29954
▁בסיס	-9.30022
גלה	-9.30035
▁מאחורי	-9.30114
תעורר	-9.30205
▁השימוש	-9.30269
מסע	-9.3028
מזון	-9.30385
▁מוס	-9.30385
▁פור	-9.30512
דרוש	-9.30526
ut	-9.30621
▁באי	-9.30671
▁שיכול	-9.30766
חשוב	-9.3082
▁*	-9.30838
▁נחשב	-9.30859
מוני	-9.30863
ow	-9.30882
פנו	-9.30917
▁בשבוע	-9.30929
▁החדשה	-9.30936
צד	-9.30938
▁העם	-9.31045
תוצאות	-9.3117
מק	-9.31303
בעיות	-9.31328
פעולות	-9.31329
▁נעשה	-9.31358
la	-9.31423
▁ברגע	-9.31501
▁חוקי	-9.31602
יפו	-9.31769
▁בחודש	-9.31774
קרקע	-9.31777
▁המלחמה	-9.31792
▁היהודי	-9.31923
פרויקט	-9.31943
▁חופשי	-9.31974
קלי	-9.32038
▁קיים	-9.32044
▁הער	-9.32131
▁רפואי	-9.32154
▁העולמי	-9.32175
▁גדל	-9.32185
חייב	-9.322
▁שהיו	-9.32261
▁הכול	-9.32418
▁נעל	-9.32434
▁הציבור	-9.32513
▁מוצר	-9.32531
▁נב	-9.32607
▁האש	-9.32623
▁זוהי	-9.32674
קבע	-9.32699
▁בתו	-9.32753
מישהו	-9.32808
▁כללי	-9.3281
▁להגיד	-9.32866
כנים	-9.32887
דיל	-9.32907
▁אלף	-9.32935
▁בזה	-9.32945
▁נמצאים	-9.32965
סתי	-9.33098
פתי	-9.33126
כנו	-9.33164
▁יחיד	-9.33351
▁מנהיג	-9.33353
▁מנסה	-9.33359
▁בתור	-9.3338
מוק	-9.3338
▁ישנם	-9.33384
▁המאה	-9.33462
סמים	-9.3351
▁צבע	-9.33561
▁הבריאות	-9.33638
ודיע	-9.33681
▁לכתוב	-9.33787
מבקר	-9.33801
▁אזור	-9.33853
שכח	-9.33868
▁היטב	-9.33904
▁ניו	-9.34015
K	-9.34087
דלק	-9.34202
סול	-9.34244
גני	-9.34304
▁פעיל	-9.34304
פרש	-9.34377
▁שמת	-9.34488
▁מבט	-9.34504
▁Re	-9.34558
אמ	-9.34607
▁בספר	-9.34617
משפחות	-9.34628
▁היית	-9.34686
אפ	-9.34768
▁לאכול	-9.34848
סופ	-9.34854
מצו	-9.34896
▁התחיל	-9.34975
▁היהודים	-9.34994
70	-9.35063
מחשב	-9.35103
קח	-9.35142
▁לשם	-9.35189
▁עמוק	-9.35206
▁ערך	-9.35218
רווח	-9.35224
וצג	-9.35257
▁רגיל	-9.35284
14	-9.35315
צפו	-9.3548
מוזיאון	-9.35486
▁יד	-9.35501
▁כוחות	-9.35554
▁כלכלי	-9.35571
ילים	-9.35632
5%	-9.35659
▁שבע	-9.35668
▁נוצר	-9.35738
▁מוכר	-9.35741
▁באינטרנט	-9.35831
▁מתחת	-9.35855
שמח	-9.35998
יכו	-9.36169
ניס	-9.36196
se	-9.3628
▁•	-9.3639
▁11	-9.36426
צעד	-9.36516
▁חזר	-9.36614
▁בשנים	-9.36743
ואי	-9.36744
▁עליך	-9.36765
▁ימי	-9.36766
חוף	-9.36829
▁ארגון	-9.36858
▁מבוסס	-9.3688
▁מכך	-9.3688
הרבה	-9.37093
יחות	-9.37102
0,000	-9.37155
▁דג	-9.37179
▁ומת	-9.37182
יהן	-9.37385
איחוד	-9.37511
מנ	-9.37568
פוטנציאל	-9.37643
▁מוצא	-9.37669
לונדון	-9.37785
▁פול	-9.37799
מאבק	-9.37816
▁לכ	-9.37874
▁מורכב	-9.38028
▁חדר	-9.38174
כנת	-9.38268
נהל	-9.38281
נדה	-9.38285
▁מקצועי	-9.38313
▁מאת	-9.38315
▁הבאה	-9.38324
▁ושל	-9.38349
▁צרפת	-9.38359
שמאל	-9.38513
▁חברה	-9.38566
▁אלפי	-9.38642
ערכה	-9.38717
▁לפעול	-9.38735
ציות	-9.38789
אלימות	-9.38805
▁לקנות	-9.3893
▁מסוימים	-9.38938
▁מצליח	-9.3894
טין	-9.38942
▁יוצר	-9.39038
▁קבוע	-9.39071
טות	-9.39101
מכונית	-9.39149
▁and	-9.39187
▁מנ	-9.39239
▁התא	-9.39287
שימוש	-9.3932
אנ	-9.39363
▁מלחמת	-9.39387
וציא	-9.39438
▁קור	-9.39459
דון	-9.39471
עש	-9.39589
▁אמא	-9.3959
▁חמש	-9.39598
▁כולנו	-9.3964
הפכה	-9.39699
▁לעיתים	-9.39729
▁שאלות	-9.39838
▁בעיני	-9.39928
▁חברי	-9.39952
פשע	-9.39975
▁איזו	-9.40019
▁להרגיש	-9.40085
90	-9.40085
me	-9.40096
-2	-9.40148
ילדים	-9.40156
▁נשיא	-9.40157
▁במהירות	-9.40278
▁עסקים	-9.40297
▁הטבע	-9.40423
▁בחו	-9.4044
▁משפחה	-9.40478
פורסם	-9.40522
פיק	-9.40533
תוכן	-9.40559
▁חיובי	-9.40574
▁כאב	-9.40621
מדיניות	-9.40644
▁הראשונים	-9.40655
▁מזון	-9.40667
▁17	-9.40668
▁אכן	-9.40716
-3	-9.40767
רוש	-9.40796
▁עניין	-9.40825
פרסום	-9.40877
▁הטיפול	-9.40904
▁רשת	-9.40939
▁להק	-9.4098
▁עבודת	-9.40996
שקע	-9.41106
13	-9.41152
מרחק	-9.4118
שיפור	-9.41301
אושר	-9.41381
▁המרכזי	-9.4142
▁יודעת	-9.41423
▁עשה	-9.41426
פשט	-9.41455
▁המוח	-9.41466
נקודת	-9.41477
▁הפרטי	-9.41511
▁עיני	-9.41568
▁יצירת	-9.41588
ווא	-9.41629
רוד	-9.4164
▁היסטורי	-9.41697
▁הפי	-9.41711
זמני	-9.41739
▁האב	-9.41837
▁תוצאות	-9.41865
ארגונים	-9.41887
▁פרו	-9.41897
▁למעלה	-9.41903
לית	-9.4193
אירוע	-9.41939
▁המי	-9.41943
▁חוסר	-9.41951
▁מבקש	-9.41951
▁מבלי	-9.41951
▁דרכים	-9.42167
▁גישה	-9.42266
▁התחל	-9.42303
▁חושבים	-9.42375
▁מדינת	-9.42492
▁היחידה	-9.42494
ילות	-9.42603
▁תרבות	-9.42613
19	-9.42631
▁לימוד	-9.4276
▁הנתונים	-9.42793
שכר	-9.42794
▁עשו	-9.42824
מספר	-9.42954
▁הביתה	-9.42959
▁בעצם	-9.42976
▁החשוב	-9.42987
▁עקב	-9.43027
לין	-9.43123
▁גור	-9.43162
▁מזו	-9.43329
▁16	-9.43415
▁פרס	-9.43668
דוק	-9.43764
▁האלו	-9.43777
▁לעבור	-9.43858
▁האירופי	-9.43868
תמודד	-9.43874
▁מכיוון	-9.43911
חדש	-9.4403
נך	-9.44147
▁עולה	-9.44153
▁אירופה	-9.44174
זאת	-9.44343
קריירה	-9.44609
פגש	-9.44657
פתע	-9.44679
▁להיכנס	-9.44689
▁להישאר	-9.4476
מנהיג	-9.44778
▁לספר	-9.44866
▁הקל	-9.44931
▁לראשונה	-9.44961
בטיח	-9.44991
משמעות	-9.4509
▁מאמין	-9.45096
▁ניהול	-9.4512
▁ביחד	-9.45205
▁לבנות	-9.45222
ולל	-9.45236
▁עשויים	-9.45256
▁משו	-9.45295
כלכלה	-9.4532
ציג	-9.45386
▁ואחר	-9.45391
▁הכלכלי	-9.45396
▁הזדמנות	-9.45438
▁זוג	-9.45493
▁פא	-9.456
▁התעופה	-9.45653
co	-9.45656
▁מקווה	-9.45713
אף	-9.45715
נפש	-9.45727
▁צוות	-9.45793
סרט	-9.45802
▁המקומי	-9.45807
▁רחוק	-9.45902
▁כרטיס	-9.45924
קריא	-9.46083
▁אישה	-9.46141
מונים	-9.46159
אלבום	-9.46162
▁לוח	-9.46178
▁ואי	-9.46198
▁בפעם	-9.46291
צפה	-9.46323
▁שיי	-9.46418
▁במדינה	-9.46433
יכול	-9.46517
לוג	-9.46588
רופ	-9.46627
בחן	-9.46701
▁הפך	-9.46767
▁קוד	-9.46801
▁גורם	-9.46895
לוח	-9.46909
איר	-9.47063
▁אוהבים	-9.47133
סבר	-9.47189
▁שיהיה	-9.47234
▁לקוחות	-9.47259
▁נשמע	-9.47334
סוכר	-9.47339
▁אמרתי	-9.47391
כביש	-9.4742
▁טראמפ	-9.47476
▁המג	-9.47498
▁מדיניות	-9.47534
▁אחי	-9.47622
▁מדברים	-9.47653
סבל	-9.47666
▁מקומי	-9.4784
טכני	-9.47884
רחוב	-9.4791
▁U	-9.4795
▁איתו	-9.47952
ניסוי	-9.48055
▁הנושא	-9.48068
תקיים	-9.48084
כאב	-9.48085
▁לחץ	-9.48107
▁סיבה	-9.48138
ציל	-9.48148
▁להגן	-9.48173
▁מוגבל	-9.4819
▁בואו	-9.48331
▁עתיד	-9.48366
חירות	-9.48376
סקי	-9.48404
משימה	-9.48458
▁עליה	-9.48483
▁מסוג	-9.48507
▁הביטחון	-9.48547
▁חופש	-9.48626
ספי	-9.48665
▁שלום	-9.48722
▁גבר	-9.48733
▁המדינות	-9.4876
▁קטנה	-9.48779
ot	-9.48808
▁בארצות	-9.4889
▁מסר	-9.48905
ריס	-9.48951
כוונת	-9.48953
▁לשלם	-9.4896
▁אמריקה	-9.49005
▁זכות	-9.49015
פארק	-9.4903
▁דווקא	-9.49046
▁הבו	-9.491
לכו	-9.49117
▁13	-9.49127
▁מתח	-9.4915
מיני	-9.49181
אוניברסיטה	-9.49189
ne	-9.49195
טיול	-9.49277
6	-9.49277
זרים	-9.49286
משפחה	-9.49342
אמצע	-9.49431
▁מסוים	-9.49437
▁נדרש	-9.49531
▁תנאי	-9.49622
ותיו	-9.49631
▁לילדים	-9.49633
▁ממה	-9.49669
▁האס	-9.49674
כיוון	-9.49695
▁השם	-9.49717
מסר	-9.49719
שליטה	-9.49726
▁בנוגע	-9.49782
▁רופא	-9.49864
עיקר	-9.4988
ריח	-9.49917
▁לנסות	-9.49988
ta	-9.50001
▁מקרה	-9.50033
▁לדוגמה	-9.5006
ers	-9.50113
גנטי	-9.50156
רוצים	-9.50156
תושב	-9.50185
שׁ	-9.50194
מחיר	-9.50253
▁ויותר	-9.50293
▁תמונות	-9.50333
um	-9.50352
אמת	-9.50367
ent	-9.50432
כבוד	-9.50458
22	-9.50535
▁משא	-9.50555
▁לקח	-9.50577
▁אילו	-9.50586
נש	-9.50598
▁דורש	-9.50665
מלחמה	-9.5073
פרסם	-9.50745
▁האיש	-9.50772
גברים	-9.50808
▁מוצרים	-9.50823
▁יקר	-9.50844
▁יצר	-9.50869
קהילה	-9.50897
▁מהיר	-9.50904
ספ	-9.50918
▁ההיסטוריה	-9.50954
מסחר	-9.50995
▁מאי	-9.51002
סיפור	-9.51003
רדי	-9.51075
▁החברתי	-9.51126
זכה	-9.51174
▁לצד	-9.51207
▁מוביל	-9.51211
פלא	-9.51229
מסלול	-9.51229
▁העתיד	-9.51327
od	-9.51334
צרפת	-9.51501
▁כתוצאה	-9.51513
▁ספ	-9.51712
▁ומו	-9.51777
(	-9.51921
כתיב	-9.51942
▁ירושלים	-9.51943
קוב	-9.52035
os	-9.52044
ציר	-9.5205
משבר	-9.52093
▁לשמוע	-9.52113
▁איראן	-9.52153
צילום	-9.52199
▁רשמי	-9.52235
▁תקופה	-9.52262
ארבע	-9.52272
▁14	-9.52278
הפכו	-9.52448
אבל	-9.52478
מקום	-9.52588
▁הקשור	-9.52628
▁ניסיון	-9.52643
▁השיר	-9.52692
▁וכך	-9.52758
▁ציבורי	-9.52781
▁אמריקאי	-9.52806
▁מאמינים	-9.52811
▁מערכות	-9.52833
▁(19	-9.52863
ארד	-9.52867
▁הדין	-9.52896
▁הצעיר	-9.52912
ie	-9.52923
▁במסגרת	-9.52927
▁מרכז	-9.52939
▁שיעור	-9.52952
▁צבאי	-9.52952
▁המטרה	-9.52996
▁שווה	-9.53019
▁שלישי	-9.53262
▁נור	-9.53363
▁אבא	-9.5343
▁p	-9.53447
אבק	-9.53481
-5	-9.53747
▁כוכב	-9.53748
▁עצמך	-9.53756
▁עוזר	-9.53766
▁הבריטי	-9.53795
מחל	-9.53827
הפוך	-9.5389
▁אפ	-9.53922
▁שאת	-9.54092
רעיונות	-9.54101
סחר	-9.54102
▁המחיר	-9.54121
אוכל	-9.54147
▁שבועות	-9.54195
פורט	-9.54211
▁ית	-9.54271
▁סביר	-9.54286
▁מופיע	-9.54346
te	-9.54505
▁נוספות	-9.54515
ייס	-9.54589
▁לישראל	-9.54617
פרד	-9.54691
▁הבנק	-9.54865
לימוד	-9.54878
▁באמצע	-9.54913
חזיר	-9.5495
▁דין	-9.54966
▁חס	-9.54977
▁גדולים	-9.55096
שבע	-9.55157
▁וג	-9.55242
פקוד	-9.5528
קצב	-9.5535
▁היי	-9.55362
קב	-9.55424
sh	-9.5546
חוויה	-9.55492
▁הפוליטי	-9.55516
תחומי	-9.55544
▁דם	-9.55599
סכים	-9.55647
זכויות	-9.5566
▁בסרט	-9.55742
▁קטנים	-9.55752
ואל	-9.55804
הליך	-9.55834
שווי	-9.55906
▁לאחרונה	-9.56095
▁—	-9.56104
▁Ma	-9.5623
▁הגב	-9.56306
▁החולים	-9.5634
▁לסי	-9.56383
מיר	-9.56437
▁שואל	-9.56467
▁הכסף	-9.56486
זיכרון	-9.56506
סיוע	-9.56549
▁שצריך	-9.56568
מקד	-9.56642
im	-9.56705
▁הקשר	-9.56802
▁הרופא	-9.56802
▁באירופה	-9.56806
9	-9.56837
דומה	-9.56872
▁העובדה	-9.5694
12	-9.56943
שילוב	-9.56949
בתי	-9.57023
▁פנים	-9.5705
▁שבהם	-9.57088
סעיף	-9.5715
▁תנו	-9.57181
▁שאר	-9.57293
▁המערבי	-9.57331
גידול	-9.57373
▁שוק	-9.57402
מפלגה	-9.57457
▁ראיתי	-9.57502
▁המקורי	-9.57537
▁מעשי	-9.5758
▁מוכן	-9.5763
ניק	-9.57691
▁אישית	-9.57692
▁שקר	-9.57724
סגנון	-9.57754
▁ראוי	-9.57774
עצמי	-9.57781
▁אנרגיה	-9.57794
▁היכולת	-9.57798
▁כזו	-9.57801
▁הערב	-9.57827
▁ולש	-9.57849
▁נפש	-9.57966
▁סיפר	-9.58137
בסיס	-9.58138
▁מעורב	-9.58144
▁הבאים	-9.58324
עסוק	-9.5833
▁המערכת	-9.58409
משהו	-9.58605
▁ואף	-9.58646
יצר	-9.58648
פתרון	-9.58673
דמו	-9.58697
▁האחרונים	-9.58737
רוויח	-9.58792
▁אודות	-9.58834
▁האזור	-9.58895
▁שזו	-9.58942
▁הטובה	-9.58969
אמי	-9.58977
▁התינוק	-9.59
איזו	-9.59082
ma	-9.59138
▁ולאחר	-9.59274
▁ארבעה	-9.59297
▁החלק	-9.59317
▁חג	-9.59319
▁השירות	-9.59473
▁האמריקני	-9.59495
▁שגם	-9.59556
▁ואל	-9.59584
▁בבוקר	-9.59661
חשיב	-9.59786
▁דיבר	-9.59857
ver	-9.59874
▁סין	-9.59888
משחק	-9.59892
▁לאור	-9.59921
איש	-9.59982
תקציב	-9.59995
ve	-9.60001
-4	-9.60041
▁האירוע	-9.60095
ul	-9.60104
▁ואמר	-9.60145
למו	-9.60279
▁אפשרות	-9.60314
טיפ	-9.60358
תקווה	-9.60489
▁לשפר	-9.60493
שנה	-9.60495
טט	-9.60614
ביצוע	-9.60709
-18	-9.60749
&	-9.60779
▁טבע	-9.60786
▁נותר	-9.60835
▁פרויקט	-9.60898
נשיא	-9.60931
▁קבוצה	-9.60938
שיווק	-9.61008
▁לעמוד	-9.61053
▁צד	-9.61077
▁ההר	-9.6108
▁בנק	-9.61082
▁חשמל	-9.61123
▁שחור	-9.61209
30	-9.61283
▁בדבר	-9.61323
▁אמרו	-9.61557
▁ורק	-9.61594
זיה	-9.61731
▁ובכל	-9.61734
▁כלום	-9.61737
אשר	-9.61801
צער	-9.61812
שיעור	-9.61819
25	-9.61931
▁כיוון	-9.61932
ab	-9.61947
רבים	-9.62194
פלסטינים	-9.62213
▁הקר	-9.62271
▁במה	-9.62327
חלום	-9.62353
em	-9.62408
שיטות	-9.62421
▁אוהבת	-9.62423
▁שינויים	-9.6248
פייסבוק	-9.62574
ינס	-9.62591
▁מלחמה	-9.62655
▁התיכון	-9.62671
▁הכללי	-9.62753
▁מלאה	-9.62854
קוס	-9.62855
גיד	-9.62905
com	-9.62938
▁המלא	-9.63036
חלוק	-9.63078
התחל	-9.63222
יצירת	-9.63288
▁בהן	-9.63353
▁הופך	-9.63394
ערות	-9.63395
15	-9.63429
▁אג	-9.63472
▁התשובה	-9.63477
▁גב	-9.63491
▁50	-9.63521
פד	-9.63541
▁חיל	-9.63606
קבוצה	-9.6375
יכולת	-9.63804
▁נוח	-9.63917
לידה	-9.63917
▁נהדר	-9.63971
ou	-9.64008
▁לאומי	-9.6408
▁הערבי	-9.64111
▁כותב	-9.6415
ig	-9.6416
$	-9.64233
▁הופכ	-9.6426
▁תמיכה	-9.64274
23	-9.64343
▁ביחס	-9.64391
▁אהב	-9.64415
▁שחי	-9.64458
מוצר	-9.64511
▁הקבוצה	-9.6456
▁תשומת	-9.64571
▁עסקי	-9.64588
טפל	-9.64601
▁הגיעו	-9.64621
מכו	-9.64623
▁ביקש	-9.64632
18	-9.64637
▁2015	-9.6475
▁סוגי	-9.64805
תכונות	-9.64835
שיר	-9.64898
▁ממנה	-9.6492
▁משמש	-9.64937
▁דיווח	-9.64975
פעילויות	-9.64981
▁בעתיד	-9.65031
פוט	-9.65055
▁בקלות	-9.65063
▁לגלות	-9.65077
▁אליה	-9.65116
רמת	-9.65132
נייה	-9.65136
פעם	-9.65147
45	-9.65219
▁חצי	-9.6522
▁לרוב	-9.65223
תחושה	-9.65263
▁מעניין	-9.65324
▁השפעה	-9.65373
▁מבחינה	-9.65424
▁נבחר	-9.65427
קישור	-9.65443
▁אוויר	-9.6546
▁שניתן	-9.65481
40	-9.65485
לול	-9.65491
▁החלו	-9.65525
▁מוקדם	-9.65572
▁הראשי	-9.65584
▁שאפשר	-9.65611
ity	-9.65673
tion	-9.65775
▁והש	-9.65804
נטל	-9.65848
▁פג	-9.65881
▁חזרה	-9.65912
ive	-9.65941
מנת	-9.65958
מידע	-9.65963
▁הגרמני	-9.66039
▁למקום	-9.66039
▁שטח	-9.66057
קטור	-9.66075
▁החליט	-9.66113
▁מאחר	-9.66133
▁לקראת	-9.66139
▁נוט	-9.66208
ניסיון	-9.6623
מתח	-9.66235
▁לקו	-9.66443
▁הארגון	-9.66462
יוצר	-9.66476
▁מקבלים	-9.66556
▁לבדוק	-9.66618
ערכים	-9.66625
חומר	-9.66625
סכום	-9.66726
אוכלוסייה	-9.66776
▁לאדם	-9.66784
טקס	-9.66817
קוט	-9.66848
▁שמש	-9.66883
▁קרי	-9.66939
תוכנית	-9.66973
▁התוכנית	-9.67028
▁חושבת	-9.67082
בנות	-9.67119
בק	-9.67172
שותפים	-9.67195
▁ספורט	-9.67195
▁חד	-9.67323
שחרר	-9.67339
▁בעזרת	-9.67364
▁נותן	-9.6737
▁נקודות	-9.67386
▁המשטרה	-9.67387
▁אמת	-9.67449
וידאו	-9.67465
▁בשוק	-9.67492
▁כולו	-9.67493
▁להבטיח	-9.67656
▁מראש	-9.67703
▁לפתח	-9.67725
שיבה	-9.67756
נל	-9.67826
מפעל	-9.68008
▁40	-9.68065
28	-9.68116
▁ואפילו	-9.6816
תמיכה	-9.68169
▁תושבי	-9.68208
נאי	-9.68209
ראית	-9.68366
▁האחר	-9.68377
▁חלב	-9.68379
▁במרכז	-9.68409
▁מילים	-9.6842
35	-9.68503
▁בחדר	-9.68512
מנע	-9.68521
▁מגיעים	-9.6862
▁שאינם	-9.68708
הפך	-9.68723
▁משפט	-9.68739
▁ספרים	-9.68829
פגיש	-9.68835
▁0	-9.68844
-10	-9.68844
▁בינואר	-9.68865
▁ארוך	-9.68867
גזר	-9.68883
▁הלילה	-9.68912
תכנית	-9.68917
ry	-9.68922
26	-9.69
▁מבחינת	-9.69033
▁מכיל	-9.69098
▁קבוצות	-9.69116
קשיב	-9.69135
בוס	-9.69145
▁ההורים	-9.6918
▁ההבדל	-9.6921
שכ	-9.6924
חתול	-9.69327
הסכם	-9.69348
▁במידה	-9.69507
עיתונאי	-9.69564
▁הסכם	-9.69582
▁השינוי	-9.69618
שט	-9.69641
טייל	-9.69664
קרן	-9.69707
מקביל	-9.69826
מבר	-9.69846
▁עזרה	-9.69897
כריז	-9.699
כמו	-9.69905
▁פתרון	-9.69908
▁מאיתנו	-9.69925
יהודים	-9.69965
שעה	-9.69972
נע	-9.70052
▁תרופות	-9.70084
▁מרכזי	-9.70091
▁הקהילה	-9.701
▁אנושי	-9.70108
▁המלך	-9.70121
מזל	-9.70156
▁סוד	-9.70166
מטי	-9.70218
שלט	-9.70395
▁תמונה	-9.70401
מדינות	-9.70445
אזור	-9.70506
▁שאמר	-9.70533
▁»	-9.70535
▁מגוון	-9.70617
▁ייחודי	-9.70637
▁יח	-9.70677
▁צעירים	-9.70679
▁קבוצת	-9.70695
▁העתיק	-9.70801
▁בתחילת	-9.70807
▁24	-9.70841
bo	-9.70842
27	-9.70887
op	-9.70936
▁המודרני	-9.70992
▁קורא	-9.71015
▁החומר	-9.71096
17	-9.71129
▁אסור	-9.71137
>	-9.71162
▁מתרחש	-9.71172
איטליה	-9.71178
▁לבני	-9.71256
▁הרוח	-9.7126
▁ביצוע	-9.71267
▁שכן	-9.71293
צטרך	-9.71345
▁חת	-9.71362
▁תכנית	-9.71364
▁לבקר	-9.71418
▁להעביר	-9.71462
▁השמש	-9.71553
▁חולים	-9.71604
גדול	-9.71623
▁במאי	-9.71671
▁הנכון	-9.71852
בוצע	-9.71871
▁מוח	-9.71902
▁מעמד	-9.71906
▁יקרה	-9.71906
דרכו	-9.71978
חודש	-9.72093
▁משנת	-9.72119
▁היכן	-9.72201
ייט	-9.72232
Q	-9.72244
j	-9.72244
▁נכתב	-9.72313
▁100	-9.72337
▁מתאים	-9.72469
צרות	-9.72492
משפחת	-9.72545
▁אינטרנט	-9.72586
▁בחברה	-9.72612
משפט	-9.72685
נפגע	-9.72695
איזה	-9.72728
מטוס	-9.72958
▁הכולל	-9.72968
▁בשני	-9.73035
נער	-9.73074
לקח	-9.73097
▁לשעבר	-9.73139
▁המשתמש	-9.73189
to	-9.73268
שול	-9.73334
▁קיימת	-9.73381
סתכל	-9.73382
▁חשבתי	-9.73422
▁אמי	-9.73542
▁2014	-9.73542
שמים	-9.73723
▁ואין	-9.73729
לחץ	-9.73806
סף	-9.73832
▁שאנשים	-9.73887
רוע	-9.7389
▁בלב	-9.739
▁סובל	-9.73944
▁הצבא	-9.7395
▁תוכניות	-9.74038
▁הרע	-9.74039
דרישות	-9.74124
התנגדות	-9.74131
▁לאפשר	-9.74142
טול	-9.74155
נחש	-9.74164
▁מביא	-9.7422
מעט	-9.74226
▁אחראי	-9.7429
צלחת	-9.74346
הקמת	-9.74372
▁25	-9.74421
▁Ch	-9.7448
מבט	-9.74506
רשויות	-9.74626
מדובר	-9.74656
תעשייה	-9.74658
▁העליון	-9.74677
▁הגדולים	-9.7471
▁לשימוש	-9.74712
נשק	-9.74808
▁פיתוח	-9.74826
▁איננו	-9.7483
סוכן	-9.74878
▁תור	-9.74935
▁ופ	-9.74936
ight	-9.75003
פחות	-9.75008
דווח	-9.75031
נוכחות	-9.75147
▁אזרחי	-9.752
▁רוסיה	-9.75248
▁מפתח	-9.75333
▁בערך	-9.75335
▁יחסים	-9.75438
▁משפיע	-9.75469
ירידה	-9.7549
מושל	-9.75515
▁ברשת	-9.75516
מוסדות	-9.75643
▁וכי	-9.75647
▁פיזי	-9.75654
▁חוץ	-9.75657
שיטה	-9.75697
אלכוהול	-9.75751
▁2017	-9.75765
▁שגר	-9.75815
תכנון	-9.75823
▁שנמצא	-9.75827
▁הטובים	-9.76008
▁בחלק	-9.7601
גנים	-9.7607
nd	-9.76117
▁ניתוח	-9.76121
▁נזק	-9.7617
▁מקצוע	-9.76308
▁היחסים	-9.76317
▁שעה	-9.76403
▁תע	-9.76416
▁שאם	-9.76416
▁מסוגלים	-9.76434
ארגון	-9.76467
תמונות	-9.7648
ge	-9.76508
▁בצד	-9.76514
▁יוכל	-9.76573
▁מחפש	-9.76599
▁גורמים	-9.76628
▁חייו	-9.76633
▁מדעי	-9.76637
▁המספר	-9.7665
16	-9.7666
▁גרוע	-9.76662
▁בשר	-9.76762
▁לנצח	-9.768
▁|	-9.7684
▁לסייע	-9.76913
▁טכנולוגי	-9.76915
זכור	-9.76953
מוח	-9.76959
אביב	-9.76962
ho	-9.76962
▁כרגע	-9.77042
▁נמצאת	-9.77116
מאמץ	-9.77156
▁חמור	-9.77267
דירות	-9.77284
▁ענק	-9.77374
יסטים	-9.77374
מכוניות	-9.7739
שולחן	-9.77447
רלוונטי	-9.77455
שלח	-9.77466
▁ביוני	-9.77489
ate	-9.77492
בדיקות	-9.77524
+	-9.77646
▁בספטמבר	-9.77646
▁בלילה	-9.77744
▁שירותי	-9.77763
▁מחפשים	-9.77767
▁פחד	-9.77818
▁2018	-9.77853
מערכת	-9.77882
טיפול	-9.78025
▁הרעיון	-9.78054
▁מוכנים	-9.78167
ha	-9.78214
▁רווח	-9.78239
חבורה	-9.78242
▁עשרות	-9.78247
▁המילה	-9.78306
▁העובדים	-9.78358
▁כבוד	-9.78362
כמות	-9.78374
פתרונות	-9.78417
חורף	-9.7846
▁מחר	-9.78476
נישואי	-9.78498
▁ראשית	-9.78573
דומים	-9.78595
▁האחרים	-9.78729
עמיד	-9.78736
צרכים	-9.78746
עצר	-9.78783
▁עצמאי	-9.78801
▁הצורך	-9.78812
ולוגיה	-9.78853
קבוצות	-9.78912
ard	-9.79035
בהיר	-9.79056
▁מסוימת	-9.79191
▁לשאול	-9.79196
▁האדמה	-9.79197
▁לזכור	-9.79202
▁Co	-9.79217
▁ברמה	-9.79324
Z	-9.79384
▁מאושר	-9.79553
אוטובוס	-9.79587
ענו	-9.79597
▁להכיר	-9.79621
▁בוקר	-9.79674
▁רמת	-9.79693
לווי	-9.79696
▁מושג	-9.79716
99	-9.79767
עידן	-9.79855
▁ואנחנו	-9.7988
▁משחקים	-9.79887
29	-9.79979
▁לשני	-9.80049
▁צמח	-9.80054
▁סיכוי	-9.8009
▁נאמר	-9.80107
▁לבקש	-9.80109
▁בדצמבר	-9.80156
הזדמנויות	-9.80166
▁החינוך	-9.8029
בוק	-9.80291
פקד	-9.80322
קנות	-9.80336
▁מעו	-9.80355
▁בשנות	-9.80465
▁נוסע	-9.8066
▁שכבר	-9.80691
תגובות	-9.80773
תגורר	-9.80811
▁הקב	-9.80831
▁יוכלו	-9.80945
▁וכו	-9.80966
▁הבחירות	-9.80967
▁נועד	-9.80972
▁לחפש	-9.80989
ייחס	-9.81038
▁לצפות	-9.81101
▁לבוא	-9.81145
▁גרמניה	-9.81164
▁הרוסי	-9.81216
▁חמישה	-9.8122
שמות	-9.81234
▁מאמר	-9.81307
▁ועם	-9.81313
▁כספי	-9.8137
חזית	-9.81376
▁אסטרטגי	-9.81476
▁תקשורת	-9.81479
▁חינוך	-9.81511
▁שחקני	-9.81515
כדי	-9.81536
▁מבינים	-9.81576
▁סיבות	-9.81592
אוויר	-9.81635
אכיל	-9.81642
סופר	-9.81667
▁יושב	-9.81693
גלגל	-9.81696
ess	-9.81715
▁טרי	-9.81764
מחקר	-9.81786
▁המציאות	-9.8181
▁וחי	-9.81956
▁נפרד	-9.82052
מפגש	-9.82068
▁נשק	-9.82178
הזדמנות	-9.82257
▁החודש	-9.82303
מופע	-9.82332
תאריך	-9.82426
▁להאמין	-9.82439
▁מתייחס	-9.82472
קורא	-9.82536
מאמצי	-9.82541
יימס	-9.82554
▁2012	-9.82567
▁עור	-9.82719
רכש	-9.82755
▁נמוך	-9.82758
ערכו	-9.82782
▁במערכת	-9.82917
▁גוף	-9.82932
he	-9.82947
סיבי	-9.83007
אמין	-9.83023
all	-9.8314
▁להסביר	-9.8317
▁רציני	-9.83232
▁ביולי	-9.83333
▁בזכות	-9.8337
קידום	-9.83403
▁ישירות	-9.83482
עונש	-9.83529
ענק	-9.83626
▁ספציפי	-9.83628
▁רצון	-9.83636
▁דתי	-9.83701
▁הזוג	-9.83718
▁הולכים	-9.83777
▁לכולם	-9.83786
▁מחבר	-9.83811
▁ושוב	-9.83826
מכירות	-9.83854
עצים	-9.83869
שיתוף	-9.83871
מדינת	-9.83944
▁רציתי	-9.8398
▁ביקורת	-9.84008
מבוגרים	-9.8405
▁לאתר	-9.84057
▁החלטה	-9.84084
▁מבצע	-9.84116
▁2013	-9.84191
פגיעה	-9.84193
▁יומי	-9.8426
▁לטיפול	-9.84368
▁לפתוח	-9.84382
▁הפנימי	-9.84417
▁להפסיק	-9.8448
מוסיקה	-9.84501
▁המון	-9.84538
ine	-9.84546
▁באוקטובר	-9.84626
▁יחסי	-9.84647
▁שומר	-9.8478
▁עשיר	-9.84782
▁עצמנו	-9.84785
בריא	-9.84815
אינטר	-9.84929
ti	-9.84933
▁מטוס	-9.84999
ארגוני	-9.85044
▁אתמול	-9.85084
▁האנרגיה	-9.85099
▁בחשבון	-9.85102
▁אליהם	-9.85129
▁שנתיים	-9.85149
▁איבד	-9.85173
▁חשיבות	-9.85242
מלכה	-9.85268
▁היהודית	-9.85295
▁קיימים	-9.85327
▁קמ	-9.85331
קושי	-9.85354
▁בהמשך	-9.85366
art	-9.85376
▁מומלץ	-9.85404
אנגליה	-9.85617
vi	-9.85648
שנים	-9.85653
▁חייבת	-9.85719
הייתי	-9.85831
ok	-9.85924
וכיח	-9.85966
▁‘	-9.85972
פסיד	-9.86042
▁להציל	-9.86044
▁משפטי	-9.86065
▁כלשהו	-9.86067
▁מסע	-9.86109
▁ידעתי	-9.86172
▁בנובמבר	-9.86234
מנכ	-9.86273
pp	-9.86457
▁2011	-9.86468
▁להימנע	-9.86485
▁חשבון	-9.86505
ציב	-9.86573
מקדש	-9.86635
הולנד	-9.86675
▁הופיע	-9.86807
מודע	-9.86866
בלעדי	-9.86938
▁שיתוף	-9.87029
▁בשטח	-9.87207
▁2010	-9.8731
סיבה	-9.87319
▁הפלסטינים	-9.87325
▁שאינו	-9.87387
רפובליק	-9.87494
▁בתקופה	-9.87494
▁ישוע	-9.87524
▁פרטים	-9.87543
▁למשך	-9.87578
▁קוראים	-9.87629
רוז	-9.87641
▁להוסיף	-9.87706
▁to	-9.87713
▁מכירים	-9.87715
מקצוע	-9.87906
רופא	-9.87921
שער	-9.87963
טס	-9.8799
▁בעבודה	-9.87993
▁ירי	-9.88055
תפלל	-9.88159
▁אפשרויות	-9.88174
▁בקרוב	-9.88222
כיבוש	-9.88271
צמיח	-9.88295
טקסט	-9.88297
משתתפים	-9.88361
פטי	-9.88403
▁ממני	-9.88434
שיטת	-9.88437
▁לטפל	-9.88536
▁הקדוש	-9.88561
48	-9.88625
פצע	-9.88667
▁נוכל	-9.88686
▁רומ	-9.88686
פילוסופי	-9.8877
▁אמנם	-9.88802
רוסיה	-9.88837
ca	-9.88852
▁בחזרה	-9.88858
▁הביא	-9.8891
אוסטרליה	-9.88983
מטבח	-9.88988
עקרונות	-9.88992
ld	-9.89032
▁סופר	-9.89041
▁ירד	-9.89116
▁נדיר	-9.89148
..."	-9.89489
▁במשחק	-9.89576
▁פנימי	-9.89591
▁בכדי	-9.89628
▁התנהגות	-9.89682
▁התקשורת	-9.89701
▁מלבד	-9.89717
חשש	-9.89726
▁חיוני	-9.89758
▁במספר	-9.89761
▁הדם	-9.89896
▁ההחלטה	-9.89898
עיתון	-9.9002
חלומות	-9.90026
קטע	-9.90057
ספורט	-9.90262
מרחב	-9.90397
יטר	-9.90439
▁לעבר	-9.90493
▁ארוכה	-9.90498
▁החלטת	-9.90629
▁קני	-9.90645
▁הכלב	-9.90658
אנדר	-9.90703
מערכות	-9.90741
▁קומ	-9.90742
מעשה	-9.90768
▁בגוף	-9.90823
נדר	-9.90868
ill	-9.90912
▁באוגוסט	-9.90931
▁[...]	-9.90931
▁עתה	-9.90973
מכון	-9.91
▁לרכוש	-9.9106
na	-9.91112
▁רעיון	-9.91249
תקשורת	-9.91372
▁הוסיף	-9.91376
▁ומש	-9.91396
▁התמונה	-9.9141
▁יסוד	-9.91421
▁החלטות	-9.91424
▁בחור	-9.91426
חמאס	-9.91427
▁מהווה	-9.91484
▁לחיים	-9.91499
▁איתם	-9.91593
▁תשובה	-9.91594
אינ	-9.91642
▁התלמידים	-9.9168
▁נורא	-9.91713
מקובל	-9.91722
est	-9.91883
עצם	-9.9191
▁למצב	-9.92038
▁אפריקה	-9.9205
▁הסיני	-9.9213
▁אינן	-9.92181
▁לילה	-9.92192
אנשי	-9.9225
▁אלקטרוני	-9.92251
▁ביניהם	-9.92256
▁מציג	-9.92399
▁הצדדים	-9.92474
▁ביטוח	-9.92484
אוהב	-9.92537
▁בכוח	-9.9256
▁במחקר	-9.92606
▁האפשרות	-9.9262
הצג	-9.92623
▁סנט	-9.92916
ֲ	-9.92918
גיבור	-9.93007
▁נפלא	-9.93045
▁שינה	-9.93071
חסר	-9.93118
▁להציג	-9.93172
▁האישה	-9.93203
▁הצבאי	-9.93239
עיני	-9.9324
איפה	-9.93301
טוס	-9.93342
אנט	-9.93392
חטא	-9.93454
תזונה	-9.93475
רפא	-9.93532
▁לעצור	-9.93569
סטנדרט	-9.93593
▁אזרחים	-9.93613
▁בסך	-9.93622
ak	-9.93678
▁עולמי	-9.93695
▁פירוש	-9.93707
▁לחיי	-9.93766
וריד	-9.93853
שכנע	-9.93905
ec	-9.9399
▁הציבורי	-9.94033
חקירה	-9.94038
▁שומע	-9.94059
קיום	-9.94078
הצעה	-9.94102
▁De	-9.94161
פוליטיקה	-9.94205
היבט	-9.94265
▁המוביל	-9.94293
השתתף	-9.94294
▁אישור	-9.94323
תיקון	-9.94392
סמכות	-9.94398
▁שמונה	-9.94419
▁קבלת	-9.94463
▁אמצעי	-9.94467
▁לצורך	-9.94497
קבר	-9.94502
מסמכים	-9.94507
▁מוזר	-9.94561
▁הגבול	-9.94621
זמנו	-9.94641
סוכנות	-9.94676
▁מוט	-9.94696
#	-9.94718
התקדמות	-9.94775
נדל	-9.94829
▁התהליך	-9.94939
עצמאות	-9.94945
מכונה	-9.94982
בגד	-9.95098
▁לעזוב	-9.95175
סוס	-9.9525
הודעות	-9.95255
▁במזרח	-9.95327
▁היתר	-9.95355
▁נמוכה	-9.95403
▁האנושות	-9.95403
שוחרר	-9.95414
The	-9.9543
ll	-9.95457
▁נכונה	-9.95635
▁מוחלט	-9.95662
יישב	-9.95703
▁לנהל	-9.95781
31	-9.95976
▁בבתי	-9.96065
▁עדיף	-9.96088
ts	-9.96145
▁הצרפתי	-9.96154
▁מכתב	-9.96159
הוצאות	-9.96209
מוסלמים	-9.96215
▁מנסים	-9.96263
▁שלהן	-9.9628
תרגום	-9.96341
זין	-9.96446
מזג	-9.96545
iv	-9.96712
▁תיאור	-9.96714
ph	-9.96733
▁בהיסטוריה	-9.96744
▁אופן	-9.96805
תבסס	-9.96813
▁מחויב	-9.96896
תרופות	-9.96912
▁ביטוי	-9.97028
mo	-9.97054
גדה	-9.97055
▁הפעולה	-9.97109
תשע	-9.97136
one	-9.97235
▁תיק	-9.97276
משתמש	-9.97303
▁בירושלים	-9.97308
▁בשעה	-9.97308
▁נר	-9.97383
▁למדי	-9.97392
ment	-9.97491
רחק	-9.97517
▁להראות	-9.97522
גייס	-9.97532
ניתוח	-9.97591
רומא	-9.97644
תכנן	-9.9765
מגוון	-9.97651
-15	-9.97719
ואיד	-9.97762
▁לציין	-9.97796
▁הפעילות	-9.97821
▁תואר	-9.97843
-8	-9.97865
חינוך	-9.97898
Google	-9.97947
▁פתאום	-9.98182
▁ברחוב	-9.98205
תחנת	-9.98275
▁אלינו	-9.98309
סמל	-9.98402
▁יחסית	-9.98407
▁עני	-9.98416
▁נקי	-9.98433
▁הלקוחות	-9.98479
נשמה	-9.98553
▁בסין	-9.9858
רוט	-9.98651
צהריים	-9.98683
▁ליהנות	-9.98727
ly	-9.98728
ell	-9.98772
▁הרשמי	-9.98793
▁כנגד	-9.98871
▁קדימה	-9.98894
מצב	-9.99072
▁עזב	-9.99095
▁במדינות	-9.99132
אסטרטגי	-9.99213
ect	-9.99329
▁מבטיח	-9.99379
▁2016	-9.99381
אובדן	-9.99447
▁להציע	-9.99531
▁באפריל	-9.99603
▁לייצר	-9.99619
▁לפתור	-9.99619
▁לישון	-9.99643
סוציאל	-9.99702
ערכת	-9.99721
▁נפתח	-9.99834
▁גרם	-9.99835
▁2009	-9.99851
▁הקש	-9.99878
▁ישיר	-9.99884
סין	-9.99989
דול	-10
65	-10.0003
▁לבסוף	-10.0006
שחר	-10.0007
יסטית	-10.0008
▁לקבוע	-10.0008
▁שקיבל	-10.0012
רפו	-10.0012
גילוי	-10.002
▁שהגיע	-10.0023
ארט	-10.0027
כבר	-10.0037
▁מועמד	-10.0051
▁אוטומטי	-10.0056
היסטוריה	-10.0057
ממש	-10.006
עסיק	-10.0062
▁מחזיק	-10.0065
ננים	-10.0067
דבק	-10.0068
סגר	-10.007
▁דובר	-10.0072
זציה	-10.0079
חוסר	-10.008
▁סרטן	-10.0087
▁עליכם	-10.0091
▁שניהם	-10.0107
▁בפברואר	-10.0114
חפש	-10.0122
דמוקרטיה	-10.0125
▁הודו	-10.0132
▁Ro	-10.0134
▁צודק	-10.0136
▁סתם	-10.0138
▁מותר	-10.0142
מעגל	-10.0143
משאבים	-10.0143
J	-10.0144
no	-10.0164
רקע	-10.0171
▁מדהים	-10.0179
oc	-10.0179
ארצות	-10.0182
our	-10.0187
▁לשינוי	-10.0197
׳	-10.0201
▁רצה	-10.0207
מעבר	-10.021
▁קורס	-10.0211
▁בבקשה	-10.0213
▁שבא	-10.0231
▁להוציא	-10.0232
▁חברתית	-10.0238
הלכת	-10.0239
הוראות	-10.0239
גמר	-10.0246
התנהגות	-10.025
כפי	-10.0251
צמח	-10.0257
קדמת	-10.0259
▁ירוק	-10.0263
כולנו	-10.0264
▁שער	-10.0268
▁חייהם	-10.027
▁חיילים	-10.0274
שינוי	-10.0274
חנויות	-10.0274
▁2019	-10.0302
▁לדבריו	-10.0305
וודא	-10.0309
▁במטרה	-10.0311
BA	-10.0315
av	-10.0321
▁רוחני	-10.0325
▁יגיע	-10.0327
▁לעצמי	-10.0332
▁בתהליך	-10.0333
סס	-10.0338
▁השפה	-10.0352
מועצת	-10.0353
אימפרי	-10.0356
השקעות	-10.0357
▁מילה	-10.036
לילה	-10.0362
▁ואינ	-10.0365
ָּ	-10.0374
תופעה	-10.038
▁ברית	-10.0384
95	-10.0385
נוחות	-10.0389
▁ואח	-10.039
▁תשלום	-10.0392
▁להניח	-10.0394
טרף	-10.0395
פולין	-10.0396
עיראק	-10.0399
עוצמה	-10.04
-6	-10.0408
אמנים	-10.0417
רכוש	-10.0421
=	-10.0424
▁ועכשיו	-10.0434
and	-10.0436
▁איתך	-10.0456
▁כזאת	-10.0459
per	-10.0465
▁כשאני	-10.0467
יצירה	-10.0468
▁המילים	-10.0473
▁להוביל	-10.0476
▁לטובת	-10.0481
▁לוודא	-10.0494
מאסטר	-10.0505
טרם	-10.0505
▁כולה	-10.0514
▁בפועל	-10.0526
קיימו	-10.0535
▁הסביבה	-10.0538
▁למכור	-10.0542
▁הפלסטינית	-10.0549
▁מודרני	-10.0551
כאשר	-10.0566
בורג	-10.0579
כסף	-10.0597
תקרב	-10.0599
▁Mo	-10.0605
תוכניות	-10.0605
משקיעים	-10.0609
נטר	-10.0627
אמריקה	-10.0632
הליכים	-10.0634
▁הנראה	-10.0647
▁האהוב	-10.0653
עצמה	-10.0661
▁דוח	-10.0674
▁עצמכם	-10.0677
▁2008	-10.0677
פסטיבל	-10.0677
-7	-10.0684
▁להשפיע	-10.0702
▁ארוחת	-10.0704
▁קטנות	-10.0704
▁הקודם	-10.0707
▁הלימודים	-10.071
▁הבדל	-10.0716
▁2007	-10.0728
מוסר	-10.0731
▁נפגש	-10.0742
אגר	-10.0743
▁הפיזי	-10.0743
פירות	-10.0744
תרגל	-10.0749
▁פופולרי	-10.0754
▁אורח	-10.0759
איטלקי	-10.0762
אצבע	-10.0777
דוקטור	-10.0782
▁ואיך	-10.0786
▁נציג	-10.0796
חשבון	-10.0799
מומחי	-10.0802
ימין	-10.081
תוקף	-10.0814
סיכוי	-10.0817
גשר	-10.082
▁עורך	-10.083
חקר	-10.0851
זרוע	-10.0868
▁מוצלח	-10.087
ניצחון	-10.0879
▁מרבית	-10.0879
▁הזכות	-10.088
▁מחלות	-10.0886
קצה	-10.0892
מלחמת	-10.0901
מוסד	-10.0903
▁לעלות	-10.0911
ודאי	-10.0919
▁מציאות	-10.092
75	-10.0932
▁לפנות	-10.0936
▁לשתף	-10.0939
▁בניגוד	-10.0942
▁הצוות	-10.0955
וושינגטון	-10.0962
▁מיידי	-10.0966
שורש	-10.0976
▁מיליוני	-10.0978
דיבור	-10.0981
ark	-10.0982
▁תחילת	-10.0992
!!	-10.0994
נשא	-10.0996
תוספת	-10.0998
▁מתאר	-10.1004
▁פעמיים	-10.1015
כותרת	-10.1019
▁השונים	-10.1022
עכשיו	-10.1023
▁השחור	-10.1026
-30	-10.1032
גוד	-10.1037
לוט	-10.104
▁הצלחה	-10.1043
▁מוקד	-10.1044
▁הרביעי	-10.1044
▁בהשוואה	-10.1057
▁נתן	-10.1062
▁ילדי	-10.1067
▁מושלם	-10.1071
החיים	-10.1074
איראן	-10.1075
בוחר	-10.1091
שקיע	-10.1096
▁מסתכל	-10.1097
▁הבוקר	-10.1102
▁המחלה	-10.1105
כוון	-10.1107
▁אפל	-10.1107
ant	-10.111
▁ואילו	-10.1112
lu	-10.1121
▁אגב	-10.1122
▁מדויק	-10.1123
▁מלון	-10.1139
▁נעצר	-10.1143
▁נמל	-10.1146
▁שקורה	-10.1153
ספיק	-10.1169
▁מייצג	-10.1172
▁במילים	-10.1173
ושע	-10.118
מדד	-10.118
קיפה	-10.1182
חווה	-10.1196
מעבד	-10.1208
67	-10.1225
io	-10.123
▁for	-10.1231
בעיית	-10.1239
מבצע	-10.124
▁לשלוח	-10.1243
▁קווי	-10.1244
קדמי	-10.1246
▁קובע	-10.1247
▁ממשיך	-10.1253
▁המפתח	-10.1253
קפת	-10.1254
תיאטרון	-10.1257
▁נחמד	-10.127
ist	-10.128
גנב	-10.1288
▁תלמידים	-10.1327
▁בינתיים	-10.1339
▁הראשונות	-10.1339
חמש	-10.1342
▁Be	-10.1348
▁ייצור	-10.1349
טופ	-10.135
▁שיער	-10.1356
▁ראשונה	-10.1361
▁החוקרים	-10.1363
דני	-10.1372
age	-10.1381
▁סא	-10.1385
כרטיס	-10.139
▁Pro	-10.1393
▁תעשיית	-10.1393
תפילה	-10.1399
כוכב	-10.1411
סתובב	-10.1422
ord	-10.144
מץ	-10.1445
▁התקופה	-10.1448
▁לשמש	-10.1451
▁לשלוט	-10.1456
בעיה	-10.1459
▁בוגר	-10.1467
הכרה	-10.1482
▁דופן	-10.1485
מפקד	-10.1488
▁הוביל	-10.1492
צייר	-10.1498
▁Ca	-10.1501
▁סימן	-10.1502
▁הפועל	-10.1508
אומץ	-10.1509
ניצול	-10.1511
▁שונא	-10.1514
▁למרב	-10.1522
ְּ	-10.1528
מעוניינים	-10.1532
דיכאון	-10.1532
32	-10.154
ran	-10.1543
▁גבי	-10.1544
מעמד	-10.1548
▁ואולי	-10.1548
עריכה	-10.1554
▁שנקרא	-10.1559
נכם	-10.1566
▁ומתן	-10.1567
גורל	-10.1568
▁החלל	-10.1569
תומכי	-10.1576
▁כשאתה	-10.158
▁עוסק	-10.1597
סתר	-10.1599
ud	-10.16
קהילות	-10.1602
▁להרוג	-10.1604
אכזב	-10.1616
השתתפות	-10.1619
▁You	-10.1621
▁הרוחני	-10.1625
שעון	-10.1629
▁חומ	-10.1632
בקבוק	-10.1634
▁הלבן	-10.164
44	-10.1641
^	-10.1644
▁לפגוע	-10.1644
▁הרגשתי	-10.1647
▁כחלק	-10.1649
▁בתפקיד	-10.1661
3%	-10.1664
▁אנא	-10.1664
[1]	-10.1672
פרופסור	-10.1673
▁חיצוני	-10.1673
זוג	-10.1684
▁הקטן	-10.1689
מיקום	-10.1693
▁נתניהו	-10.17
הלכה	-10.17
אללה	-10.1705
שוויון	-10.1713
▁הסדרה	-10.1718
36	-10.1721
יינת	-10.1723
שומר	-10.1732
▁כלשהי	-10.1734
di	-10.1737
▁הסופי	-10.174
▁הדלת	-10.174
פסיכולוג	-10.1744
פצצ	-10.175
תקף	-10.1757
דרכה	-10.1766
עשן	-10.1768
IS	-10.1774
33	-10.1781
משימות	-10.1782
-12	-10.1782
מיומנויות	-10.1786
קונגרס	-10.1786
לומד	-10.1788
▁הנדרש	-10.1793
ex	-10.1804
השגת	-10.1808
פשר	-10.182
▁היעד	-10.183
ber	-10.183
▁הקיץ	-10.1831
▁החוב	-10.1831
▁בסיסי	-10.1844
▁שחקן	-10.1846
▁הבנתי	-10.1847
קהילת	-10.1849
▁Ar	-10.185
תברר	-10.1853
נוצרי	-10.1861
רבע	-10.1866
▁הגעת	-10.1869
אוסף	-10.1882
פנט	-10.1891
אווה	-10.1892
טמפרטור	-10.1901
▁מחיי	-10.1919
▁2000	-10.1922
גשם	-10.1923
מיטב	-10.1928
▁להכין	-10.1932
▁המהיר	-10.1936
▁העיניים	-10.1936
▁הבסיסי	-10.1938
▁להחזיר	-10.1957
▁ההיסטורי	-10.196
-9	-10.1968
▁הטבעי	-10.1968
גרום	-10.1984
▁יציב	-10.1991
▁הולדת	-10.1995
אנרגיה	-10.1995
▁An	-10.2
-17	-10.2014
▁נגמר	-10.2016
ru	-10.2031
יחוד	-10.2041
▁מודל	-10.2041
▁ספרד	-10.2042
42	-10.2046
▁אנטי	-10.2048
תודעה	-10.2055
קוק	-10.2057
מדריך	-10.2059
▁שולח	-10.2059
שותפות	-10.2067
▁Com	-10.207
כעס	-10.2072
▁הרפואי	-10.2076
קרוב	-10.2079
▁Un	-10.2087
שבוע	-10.209
▁לאהוב	-10.2095
2%	-10.2097
24	-10.2098
▁גזע	-10.2099
▁להחליט	-10.2106
▁להשקיע	-10.2108
▁עזה	-10.213
▁נרחב	-10.2132
▁שתוכל	-10.2137
▁במרץ	-10.2137
▁שיחק	-10.2152
קציה	-10.2153
*	-10.2162
▁רגשות	-10.2162
▁לקרות	-10.2162
▁ובכך	-10.2167
▁Ex	-10.2173
קומו	-10.2174
▁משתנה	-10.2176
96	-10.2186
סיס	-10.2192
השלכות	-10.2193
▁להצטרף	-10.2195
▁הוועדה	-10.2195
מפלגת	-10.2196
ריכוז	-10.2198
סטיק	-10.22
חוויות	-10.2201
98	-10.2206
▁צורה	-10.2208
▁תחום	-10.2212
34	-10.2222
▁בסביבה	-10.2234
38	-10.2235
▁בתנאי	-10.2244
טכנולוגיות	-10.2244
▁לתמוך	-10.2255
▁שאומר	-10.2256
קדיש	-10.2281
hi	-10.2281
▁להילחם	-10.2285
מומחה	-10.2286
בטוח	-10.2295
▁Th	-10.2298
▁מתכוון	-10.2298
▁למטה	-10.2301
קיימת	-10.2305
יחיד	-10.2312
▁לדאוג	-10.2315
קמפיין	-10.2315
עזור	-10.2315
▁שהייתה	-10.2317
▁ניכר	-10.2318
▁לענות	-10.2331
▁נראית	-10.2355
▁אקדמי	-10.236
▁שימש	-10.2361
אבא	-10.2373
▁אכפת	-10.2375
▁ממשיכים	-10.2375
אדריכל	-10.2376
▁פותח	-10.2376
▁מומחים	-10.2378
▁גרעיני	-10.2378
▁שהייתי	-10.2389
▁התייחס	-10.2398
מבנים	-10.24
▁מסחרי	-10.2402
▁להפחית	-10.2406
▁סגור	-10.2415
▁החברים	-10.2425
▁Sh	-10.2434
הפסד	-10.2434
-16	-10.2438
▁בהתחלה	-10.2441
ub	-10.2442
שמור	-10.2453
▁מבוגר	-10.2455
▁השופט	-10.2468
▁התרחש	-10.2469
▁מוסרי	-10.2471
AS	-10.2476
אופניים	-10.2495
קפיד	-10.2501
▁ובכן	-10.2502
▁השלב	-10.252
עימות	-10.2527
טורקיה	-10.2529
▁Al	-10.2532
▁אשתו	-10.2538
קרט	-10.2541
שתלט	-10.2542
97	-10.2545
▁כריס	-10.2546
▁הנכונה	-10.2559
כמעט	-10.2564
רכז	-10.2572
שקר	-10.2573
לאומי	-10.2583
▁הכנסת	-10.2586
פלטפורמ	-10.259
▁חינם	-10.2632
88	-10.2635
▁הנאצי	-10.2645
▁להעלות	-10.2657
ריאל	-10.2659
▁לומדים	-10.266
מעצר	-10.2676
קליפורניה	-10.2683
סימפטו	-10.2684
אקטיב	-10.2692
▁יעשה	-10.2696
▁מפתיע	-10.2717
85	-10.2718
נביא	-10.2722
שוטרים	-10.2724
▁אהבתי	-10.2724
זיהום	-10.2742
▁La	-10.2746
ממוקם	-10.2749
▁נפטר	-10.2751
tic	-10.2771
man	-10.2779
▁2006	-10.278
היקף	-10.278
אכזר	-10.278
נלי	-10.2781
▁האקדמי	-10.2784
מושג	-10.2794
▁מסורתי	-10.2811
▁סוריה	-10.2814
נוסח	-10.2827
קשיים	-10.2831
▁Con	-10.2834
בדיקת	-10.2839
▁עשיתי	-10.2845
▁טעות	-10.2854
7%	-10.2858
צדיק	-10.286
▁Wi	-10.287
▁סבור	-10.2874
▁קדוש	-10.2875
▁ללקוחות	-10.2877
▁נראים	-10.2881
▁לחקור	-10.2886
מסגרת	-10.2889
מדבר	-10.289
חלון	-10.2893
סבלנות	-10.2893
קבוצת	-10.2894
שוחח	-10.2894
▁מייצר	-10.2901
דיווח	-10.2902
▁נמנע	-10.2912
▁הבינ	-10.2923
▁עבודות	-10.2927
▁איתנו	-10.2931
ייצג	-10.2952
קורבנות	-10.2971
תופעות	-10.2975
דיאטה	-10.2982
▁להוכיח	-10.2982
כונן	-10.2988
מחלוקת	-10.2988
▁טווח	-10.2992
צץ	-10.2995
▁המקצועי	-10.2998
93	-10.3
▁המבוסס	-10.3001
▁להוריד	-10.3012
▁להסתכל	-10.302
▁WEB	-10.3034
▁לכאורה	-10.3034
▁הודעה	-10.3036
פריד	-10.3037
פיגוע	-10.3049
עמק	-10.3054
▁מעולה	-10.3055
הגיע	-10.3062
צחוק	-10.3064
תערוכה	-10.3066
37	-10.3068
פונקצי	-10.3069
▁להתייחס	-10.3076
נישואים	-10.3079
55	-10.3081
איגוד	-10.309
39	-10.3094
פסל	-10.3105
IC	-10.3115
iz	-10.3116
▁לחכות	-10.3117
קובץ	-10.3118
ציוני	-10.312
▁Le	-10.3124
▁אינני	-10.3132
▁תגיד	-10.3134
▁יבוא	-10.3134
חרדה	-10.3141
IP	-10.3144
טיקה	-10.3149
▁נשלח	-10.3155
▁ריצ	-10.3159
כיסא	-10.316
▁Windows	-10.3164
כישלון	-10.317
▁נאלצ	-10.3174
עומק	-10.3182
▁להחליף	-10.3191
und	-10.3195
▁לבחון	-10.3198
▁היתרונות	-10.3204
US	-10.3207
▁האזרחים	-10.3213
IT	-10.3218
▁מחלה	-10.322
▁מסוימות	-10.323
92	-10.3234
עוצמת	-10.3235
תוצר	-10.3253
▁לשלב	-10.3258
▁אדום	-10.3263
▁זיהו	-10.3275
▁השינה	-10.3284
שנאה	-10.3292
▁תגובה	-10.3302
רמז	-10.3303
▁ניצח	-10.3304
8%	-10.3315
▁שיניים	-10.3316
94	-10.3327
סוחר	-10.3328
\	-10.333
▁קוריאה	-10.333
▁הכרחי	-10.3343
▁לשתות	-10.3351
תועלת	-10.3358
▁קיצוני	-10.3365
47	-10.3366
▁ריב	-10.3369
היינו	-10.3372
▁בדיקה	-10.3375
1%	-10.3385
תשובה	-10.339
מייסד	-10.3392
▁גרמני	-10.3394
מלחמות	-10.3405
רוצח	-10.341
ER	-10.3415
▁נקבע	-10.3421
▁עתיק	-10.3424
▁החשמל	-10.3433
▁הולכת	-10.3433
סיבוב	-10.3447
קטר	-10.3449
קדמו	-10.3459
▁לטווח	-10.3465
▁נדמה	-10.3469
אמא	-10.3477
▁פיננסי	-10.3498
▁טוען	-10.3498
▁קיימות	-10.3514
ff	-10.352
יודע	-10.3524
▁העשיר	-10.3524
▁נתקל	-10.3525
פרנס	-10.3536
▁פריט	-10.354
▁בוחרים	-10.354
49	-10.3566
▁בחינם	-10.3566
דיפלומ	-10.3569
חוט	-10.3569
▁המהפכה	-10.3569
▁השד	-10.3571
פקח	-10.3572
▁עורכי	-10.3573
▁כאלו	-10.3598
▁להשאיר	-10.3601
▁כאמור	-10.3601
אסירים	-10.3603
▁מיועד	-10.3605
▁יתכן	-10.3617
▁יכלו	-10.3617
רכישה	-10.3622
ies	-10.3623
▁מניע	-10.3633
▁הדרומי	-10.3636
▁אבטחה	-10.3637
עיתונות	-10.3642
▁הנוגע	-10.3643
▁הצפוני	-10.3645
▁תחושת	-10.3673
tra	-10.3675
▁לפיכך	-10.3678
פוליטי	-10.3679
▁הסיבות	-10.368
4%	-10.3682
▁פרנק	-10.3698
פיליפ	-10.3702
▁דיגיטלי	-10.3704
▁בגרמניה	-10.3704
IN	-10.3717
השכלה	-10.373
▁בבחירות	-10.374
▁בסוריה	-10.374
▁להשלים	-10.3745
▁האדום	-10.3774
▁רשאי	-10.3787
סתבר	-10.3805
▁להשתנות	-10.3809
▁עצום	-10.3809
91	-10.3812
צטרפו	-10.3818
▁שומן	-10.3819
▁ביצע	-10.382
▁לרדת	-10.3827
▁להחזיק	-10.3844
חקלאות	-10.3844
▁נותנים	-10.3859
AT	-10.3864
שכונה	-10.3872
▁האחריות	-10.3873
▁איננה	-10.388
לבנון	-10.3882
▁לוותר	-10.3888
▁מחליט	-10.3892
▁נובע	-10.39
▁הפופולרי	-10.3914
▁גופנית	-10.3914
▁ניסה	-10.3916
▁הירח	-10.392
64	-10.3922
▁תחילה	-10.3923
▁בקיץ	-10.3926
▁יעזור	-10.3936
תאגיד	-10.3946
▁ציור	-10.3956
▁המלון	-10.396
▁השאלות	-10.3965
▁החמישי	-10.3966
ES	-10.3969
▁ממשלה	-10.397
צריך	-10.3978
▁מונע	-10.3981
43	-10.399
76	-10.3994
▁הנמצא	-10.3996
▁לקיים	-10.4002
Pr	-10.4006
AR	-10.4013
▁ציין	-10.4026
תקופות	-10.4029
ang	-10.4029
חליף	-10.4032
כבש	-10.4033
▁הכניסה	-10.4041
מייל	-10.4068
▁מעורר	-10.4069
▁לתאר	-10.4085
▁חיבור	-10.4085
09	-10.4087
Pla	-10.4088
▁טעם	-10.409
אוניברסיטאות	-10.4093
אוקיינוס	-10.4093
01	-10.4097
משלוח	-10.4114
לחימה	-10.4153
פיקוח	-10.4154
▁הפיננסי	-10.4165
שכב	-10.4165
▁המשיך	-10.4167
אירופה	-10.4169
▁נהיה	-10.4169
גרפיה	-10.4172
▁שופט	-10.4179
ספינה	-10.4192
פרופיל	-10.4193
▁ברצינות	-10.4202
▁שכולם	-10.4203
▁הגיוני	-10.4211
ערוץ	-10.4215
05	-10.4219
72	-10.4219
מורשת	-10.4235
▁האפשרי	-10.4236
·	-10.4238
עיירה	-10.4254
▁השנתי	-10.4257
▁מועיל	-10.4273
▁לנסוע	-10.4275
ite	-10.4277
▁ראשוני	-10.4279
ance	-10.4281
▁להודות	-10.4284
▁נתפס	-10.431
▁2005	-10.4313
▁נייר	-10.4324
הגדרה	-10.4331
מתנדב	-10.4331
▁סירב	-10.4344
ארוחה	-10.4345
69	-10.4345
▁להצליח	-10.4348
▁נסיעה	-10.4349
%	-10.435
▁האיראני	-10.435
ׁ	-10.435
▁מחובר	-10.4351
▁Ph	-10.4352
הופעה	-10.4362
מסעדות	-10.4378
אפריקה	-10.4387
▁רוברט	-10.4397
▁בתגובה	-10.4402
▁כואב	-10.4426
▁פליט	-10.4427
▁עיקרי	-10.444
חיוך	-10.4451
▁מתמקד	-10.4452
אנס	-10.4455
▁החיצוני	-10.446
שתפר	-10.4462
▁לשאלה	-10.4475
▁הדמוקרטי	-10.4489
9%	-10.4495
סובב	-10.4496
▁שמגיע	-10.4498
סחור	-10.4498
▁בינינו	-10.4501
▁נוהג	-10.4501
ממלכת	-10.451
פורד	-10.4531
סבתא	-10.4539
עיבוד	-10.4539
הופך	-10.4551
▁יישאר	-10.4553
▁שנוצר	-10.4554
דחו	-10.4555
ׂ	-10.4572
▁הכנסייה	-10.4573
יועץ	-10.4577
▁לתפוס	-10.4581
רגיע	-10.4592
▁להגדיר	-10.4611
▁אדיר	-10.462
▁החופשי	-10.4632
86	-10.4634
▁פוגע	-10.4636
אינטרנט	-10.465
ind	-10.4659
▁הייצור	-10.4664
▁הליכה	-10.4692
▁טען	-10.4701
68	-10.4709
צוואר	-10.4713
חשיפה	-10.4725
AN	-10.4727
06	-10.4744
▁אינך	-10.4754
התאמה	-10.4761
89	-10.4762
▁כראוי	-10.4765
הסכמה	-10.4766
שווקים	-10.4773
▁ביקר	-10.4786
▁להתגבר	-10.4787
51	-10.4794
▁מעוניין	-10.4802
▁לפגוש	-10.4802
▁המועצה	-10.4802
יציאה	-10.4805
▁נכשל	-10.4806
▁שאחרי	-10.4807
▁כדורגל	-10.4815
!!!	-10.4832
▁דמוקרטי	-10.4836
▁רוסי	-10.4845
ציפיות	-10.4853
תכניות	-10.4854
87	-10.4871
מקסיקו	-10.488
כובד	-10.4886
▁ועדיין	-10.4888
“	-10.4892
אחוז	-10.4892
56	-10.4897
▁הנבחר	-10.4906
▁רשימת	-10.4919
מחסור	-10.4936
▁חירום	-10.4959
רישיון	-10.496
▁שתהיה	-10.4962
בחנה	-10.4965
▁2020	-10.4966
▁בוודאי	-10.4972
מכונות	-10.4972
▁מוגדר	-10.4988
מרפא	-10.4996
פלסטין	-10.4999
▁לעקוב	-10.5003
יציבות	-10.5044
▁בטיחות	-10.5047
▁להגיש	-10.5052
▁הבעלים	-10.5057
‬	-10.5076
66	-10.5085
59	-10.5098
כישורים	-10.5113
▁מאמינה	-10.5117
▁השפעת	-10.512
▁הבחור	-10.5122
▁רגשי	-10.5134
▁האופן	-10.5135
▁בגדים	-10.514
▁לעצמך	-10.5156
בזבז	-10.5157
▁עצוב	-10.5158
▁השיער	-10.516
6%	-10.5166
▁להתמקד	-10.5172
▁פסיכולוגי	-10.5175
▁יתרונות	-10.5176
דגש	-10.5176
מאוחר	-10.518
end	-10.518
המלצות	-10.5186
▁לבריאות	-10.5199
▁הקטנה	-10.5201
▁המועמד	-10.5216
▁לשכוח	-10.522
▁נסע	-10.5224
מעשים	-10.5234
[2]	-10.5237
▁באיכות	-10.5254
היעדר	-10.527
▁לחוות	-10.5276
▁שיותר	-10.5293
מולדת	-10.5316
▁העומד	-10.532
77	-10.5328
תפוח	-10.5338
תרומה	-10.535
▁הירי	-10.5355
▁אהוב	-10.5367
▁חושש	-10.5394
▁סטודנט	-10.5404
ענף	-10.5406
תבטא	-10.5425
פרוייקט	-10.5441
▁לדמיין	-10.5441
▁שעשית	-10.5444
▁זכרו	-10.5459
78	-10.5462
שתדל	-10.5473
▁להעריך	-10.5482
▁הראשוני	-10.5483
▁הדרכים	-10.5485
▁אובמה	-10.5488
▁מחוז	-10.549
תעקש	-10.5502
אולוג	-10.5511
73	-10.5514
▁להיראות	-10.5525
▁הקודמת	-10.5525
▁השיניים	-10.5527
5,000	-10.5548
▁בתחילה	-10.5566
▁משותפת	-10.5567
▁התנאים	-10.5569
sion	-10.5583
▁היקר	-10.5612
▁ממשיכה	-10.5618
84	-10.5622
▁קריטי	-10.5626
שוקולד	-10.5633
כבוש	-10.566
58	-10.5666
מנגנון	-10.5692
▁יוסף	-10.5701
▁שנועד	-10.5705
צרכנים	-10.5707
מפרץ	-10.5708
41	-10.571
▁מחלת	-10.5719
למרות	-10.5724
53	-10.5725
}	-10.5734
שתחרר	-10.5734
▁שעדיין	-10.5734
▁ארוכות	-10.5734
ארמון	-10.5738
▁למטרות	-10.5744
▁תלמידי	-10.576
▁לעצמכם	-10.5776
אירלנד	-10.5784
מיעוט	-10.5802
▁2003	-10.5821
▁וכיצד	-10.5821
82	-10.5851
▁מצחיק	-10.5862
מינימום	-10.5865
▁נקודה	-10.5866
71	-10.5896
ster	-10.5897
61	-10.5905
▁ייעוץ	-10.5905
▁לתרום	-10.5905
▁לפיתוח	-10.5906
▁רביעי	-10.5908
▁במובן	-10.5908
▁להגיב	-10.5951
▁המזרחי	-10.5953
עצור	-10.5959
מכשול	-10.596
79	-10.5988
▁Microsoft	-10.5992
ירדן	-10.5996
מכתב	-10.5996
▁מייקל	-10.5996
פאלון	-10.6
lin	-10.6011
▁אהיה	-10.6014
חדשנות	-10.603
ירושלים	-10.6032
▁השחקן	-10.6039
עישון	-10.6048
תסמיני	-10.605
סכמת	-10.605
▁הזמנים	-10.6052
▁בצורת	-10.6054
▁רדיו	-10.6056
ture	-10.6078
▁למחרת	-10.608
{	-10.6437
_	-10.7443
~	-10.775
ֱ	-10.8013
«	-10.8229
`	-10.9141
→	-10.9506
é	-11.1335
‭	-11.3033
<	-11.3483
́	-11.3576
@	-11.3576
	-11.3669
←	-11.445
®	-11.4655
ֻ	-11.476
|	-11.5104
q	-11.5204
‘	-11.5216
‫	-11.5634
»	-11.6163
—	-11.6543
°	-11.6593
׃	-11.8229
₪	-11.966
á	-12.1535
‪	-12.2174
€	-12.2174
↑	-12.2396
′	-12.2396
♥	-12.2856
‐	-12.3588
í	-12.3844
›	-12.3844
ö	-12.4107
£	-12.4377
ó	-12.4377
ü	-12.4655
ا	-12.6173
ل	-12.7579
¶	-12.8363
●	-12.8363
ä	-12.878
↩	-12.9215
­	-12.9669
è	-12.9669
â	-13.0146
◄	-13.0646
▼	-13.1172
م	-13.1727
	-13.2316
„	-13.2316
§	-13.2941
ç	-13.2941
α	-13.2941
ي	-13.2941
ر	-13.3607
à	-13.4322
−	-13.5091
ֿ	-13.5091
►	-13.5091
ο	-13.5091
τ	-13.5924
و	-13.5924
‹	-13.5924
λ	-13.6833
َ	-13.6833
ú	-13.6833
ب	-13.6833
а	-13.7833
️	-13.7833
š	-13.7833
ʉ	-13.7833
κ	-13.7833
θ	-13.8944
ن	-13.8944
ß	-13.8944
ł	-13.8944
о	-13.8944
ž	-13.8944
ֳ	-13.8944
ع	-13.8945
μ	-14.0194
å	-14.0194
ê	-14.0194
ς	-14.0194
￼	-14.0194
⬅	-14.0194
ρ	-14.0194
ι	-14.1623
	-14.1623
ō	-14.1623
и	-14.1623
▪	-14.1623
♪	-14.1623
π	-14.1623
•	-14.2985
ν	-14.329
	-14.329
φ	-14.329
😛	-14.329
±	-14.329
É	-14.329
ی	-14.329
Δ	-14.329
н	-14.329
γ	-14.329
س	-14.529
ه	-14.529
¦	-14.529
ć	-14.529
Р	-14.529
‚	-14.529
	-14.529
‍	-14.529
ή	-14.529
β	-14.529
х	-14.529
ت	-14.529
О	-14.779
¢	-14.779
ë	-14.779
ā	-14.779
ş	-14.779
Θ	-14.779
Ω	-14.779
ά	-14.779
أ	-14.779
ج	-14.779
د	-14.779
ك	-14.779
∈	-14.779
	-14.779
😊	-14.779
æ	-14.779
č	-14.779
σ	-14.779
в	-14.779
ֽ	-14.779
с	-14.779
ε	-14.779
ح	-14.779
ش	-14.779
Î	-15.1123
η	-15.1123
ø	-15.1123
Ü	-15.1123
р	-15.1123
ْ	-15.1123
٠	-15.1123
	-15.1123
ś	-15.1123
֥	-15.1123
ق	-15.1123
ُ	-15.1123
ल	-15.1123
―	-15.1123
⁡	-15.1123
□	-15.1123
★	-15.1123
✔	-15.1123
😂	-15.1123
🤔	-15.1123
	-15.1123
С	-15.1123
Т	-15.1123
і	-15.1123
⚡	-15.1123
Ö	-15.1123
ذ	-15.1123
ة	-15.1123
😍	-15.6123
έ	-15.6123
у	-15.6123
Á	-15.6123
ū	-15.6123
	-15.6123
	-15.6123
ù	-15.6123
ý	-15.6123
Đ	-15.6123
ī	-15.6123
ɒ	-15.6123
ˌ	-15.6123
̈	-15.6123
ί	-15.6123
К	-15.6123
д	-15.6123
е	-15.6123
й	-15.6123
п	-15.6123
ф	-15.6123
ц	-15.6123
ч	-15.6123
я	-15.6123
خ	-15.6123
ط	-15.6123
ा	-15.6123
ា	-15.6123
‰	-15.6123
↓	-15.6123
∘	-15.6123
∙	-15.6123
∽	-15.6123
≠	-15.6123
≥	-15.6123
▶	-15.6123
☆	-15.6123
⟩	-15.6123
⦁	-15.6123
、	-15.6123
の	-15.6123
ル	-15.6123
ー	-15.6123
日	-15.6123
黑	-15.6123
	-15.6123
	-15.6123
📄	-15.6123
🔥	-15.6123
😁	-15.6123
😃	-15.6123
😚	-15.6123
ò	-15.6123
œ	-15.6123
т	-15.6123
ð	-15.6123
õ	-15.6123
ğ	-15.6123
İ	-15.6123
ʻ	-15.6123
Н	-15.6123
	-16.6066
❽	-16.6067
❻	-16.6068
✰	-16.6069
♠	-16.607
☺	-16.6071
☀	-16.6072
إ	-16.6073
װ	-16.6074
֖	-16.6075
В	-16.6076
δ	-16.6077
Ε	-16.6078
ż	-16.6079
ţ	-16.608
ő	-16.6081
ň	-16.6082
ħ	-16.6083
ę	-16.6084
Č	-16.6085
ă	-16.6086
ÿ	-16.6087
û	-16.6088
Ç	-16.6089
¿	-16.609
†	-16.6091
χ	-16.6092
υ	-16.6093
Σ	-16.6094
ɾ	-16.6095
	-16.6096
😀	-16.6097
♫	-16.6098
⋅	-16.6099
⁠	-16.61
Ł	-16.6101
👑	-16.6102
√	-16.6103
‒	-16.6104
ã	-16.6105
🙁	-16.6106
ِ	-16.6107
▲	-16.6108
⁄	-16.6109
ñ	-16.611
	-16.6111
̄	-16.6112
¬	-16.6113
‡	-16.6114
👈	-16.6115
	-16.6116
∗	-16.6117
😉	-16.6118
♦	-16.6119
■	-16.612
©	-16.6121
×	-16.6122
ئ	-16.6123
🌈	-16.6123
🎶	-16.6123
💫	-16.6123
ș	-16.6123
ˈ	-16.6123
Χ	-16.6123
ό	-16.6123
г	-16.6123
Խ	-16.6123
Յ	-16.6123
Ս	-16.6123
آ	-16.6123
九	-16.6123
章	-16.6123
算	-16.6123
Ø	-16.6123
Ú	-16.6123
Ġ	-16.6123
Ś	-16.6123
ص	-16.6123
ṅ	-16.6123
‮	-16.6123
⁨	-16.6123
❓	-16.6123
疽	-16.6123
第	-16.6123
茶	-16.6123
블	-16.6123
엠	-16.6123
髓	-16.6123
📁	-16.6123
¡	-16.6123
È	-16.6123
Ë	-16.6123
Ó	-16.6123
Û	-16.6123
ï	-16.6123
÷	-16.6123
ŋ	-16.6123
Š	-16.6123
Ÿ	-16.6123
Ż	-16.6123
Ž	-16.6123
ư	-16.6123
ț	-16.6123
ɓ	-16.6123
ə	-16.6123
ɛ	-16.6123
ɸ	-16.6123
ʊ	-16.6123
ʌ	-16.6123
ʼ	-16.6123
ː	-16.6123
Β	-16.6123
Κ	-16.6123
Τ	-16.6123
Ψ	-16.6123
ω	-16.6123
Б	-16.6123
П	-16.6123
Я	-16.6123
к	-16.6123
л	-16.6123
ш	-16.6123
ы	-16.6123
Ҫ	-16.6123
Ӑ	-16.6123
Ӗ	-16.6123
ӝ	-16.6123
Ӳ	-16.6123
Ե	-16.6123
ֺ	-16.6123
ׅ	-16.6123
ױ	-16.6123
ث	-16.6123
ف	-16.6123
ى	-16.6123
٢	-16.6123
٨	-16.6123
٩	-16.6123
ٰ	-16.6123
ٹ	-16.6123
چ	-16.6123
ھ	-16.6123
ߟ	-16.6123
औ	-16.6123
त	-16.6123
द	-16.6123
न	-16.6123
ब	-16.6123
ि	-16.6123
ी	-16.6123
े	-16.6123
्	-16.6123
ં	-16.6123
ગ	-16.6123
બ	-16.6123
લ	-16.6123
ો	-16.6123
༓	-16.6123
ខ	-16.6123
ភ	-16.6123
ម	-16.6123
រ	-16.6123
ស	-16.6123
ែ	-16.6123
្	-16.6123
ạ	-16.6123
ả	-16.6123
ὥ	-16.6123
ῦ	-16.6123
⁩	-16.6123
₹	-16.6123
⇒	-16.6123
∀	-16.6123
∂	-16.6123
∆	-16.6123
∞	-16.6123
≪	-16.6123
≿	-16.6123
⋯	-16.6123
─	-16.6123
▸	-16.6123
▾	-16.6123
◻	-16.6123
◼	-16.6123
☝	-16.6123
♔	-16.6123
♣	-16.6123
✌	-16.6123
✯	-16.6123
❁	-16.6123
❤	-16.6123
❷	-16.6123
❼	-16.6123
➝	-16.6123
⟵	-16.6123
⭐	-16.6123
ア	-16.6123
ギ	-16.6123
シ	-16.6123
ス	-16.6123
ド	-16.6123
ュ	-16.6123
㪗	-16.6123
三	-16.6123
东	-16.6123
主	-16.6123
介	-16.6123
以	-16.6123
会	-16.6123
列	-16.6123
反	-16.6123
古	-16.6123
名	-16.6123
士	-16.6123
大	-16.6123
学	-16.6123
川	-16.6123
工	-16.6123
幕	-16.6123
广	-16.6123
府	-16.6123
式	-16.6123
徳	-16.6123
慢	-16.6123
旦	-16.6123
本	-16.6123
来	-16.6123
株	-16.6123
民	-16.6123
浪	-16.6123
海	-16.6123
点	-16.6123
理	-16.6123
社	-16.6123
穂	-16.6123
空	-16.6123
简	-16.6123
絵	-16.6123
義	-16.6123
聲	-16.6123
航	-16.6123
色	-16.6123
蒙	-16.6123
術	-16.6123
襲	-16.6123
詞	-16.6123
赤	-16.6123
逆	-16.6123
道	-16.6123
都	-16.6123
鈴	-16.6123
院	-16.6123
黒	-16.6123
랙	-16.6123
	-16.6123
	-16.6123
	-16.6123
	-16.6123
	-16.6123
	-16.6123
	-16.6123
	-16.6123
	-16.6123
	-16.6123
﴾	-16.6123
﴿	-16.6123
🇸	-16.6123
🇾	-16.6123
🌎	-16.6123
🍻	-16.6123
🎉	-16.6123
🏽	-16.6123
🐔	-16.6123
👉	-16.6123
💉	-16.6123
💔	-16.6123
💖	-16.6123
💜	-16.6123
😄	-16.6123
😅	-16.6123
😆	-16.6123
😈	-16.6123
😏	-16.6123
😐	-16.6123
😒	-16.6123
😜	-16.6123
😦	-16.6123
🙌	-16.6123
🚖	-16.6123
🚘	-16.6123
🤨	-16.6123
🦁	-16.6123
🧼	-16.6123
ô	-16.6123
١	-16.6123
ߡ	-16.6123
☚	-16.6123
❾	-16.6123
⟨	-16.6123
京	-16.6123
元	-16.6123
拾	-16.6123
Д	-16.6123
Ы	-16.6123
ж	-16.6123
ं	-16.6123
ग	-16.6123
ἀ	-16.6123
コ	-16.6123
Α	-16.6123
Φ	-16.6123
🙂	-16.6123
