<unk>	0
<s>	0
</s>	0
.	-3.73964
▁ה	-3.83195
▁	-3.83612
ים	-3.83996
ה	-3.85039
ת	-3.87249
,	-4.0749
▁ו	-4.12776
י	-4.30052
▁ב	-4.3189
ו	-4.37115
▁של	-4.46471
ות	-4.47766
▁את	-4.52537
▁ל	-4.53112
▁,	-4.55823
▁.	-4.61334
▁מ	-4.73942
▁ש	-4.74745
▁לא	-4.94236
▁"	-4.98603
▁על	-4.98906
ם	-5.22619
ב	-5.25821
ע	-5.39177
▁זה	-5.47352
ר	-5.50491
▁מה	-5.50554
ח	-5.51992
▁הוא	-5.56733
ן	-5.6011
▁או	-5.71054
ל	-5.72151
▁ת	-5.80402
▁עם	-5.8197
▁כל	-5.83129
ק	-5.86305
נו	-5.87579
▁המ	-5.91916
▁(	-5.94828
-	-5.95111
א	-5.96101
▁?	-5.96756
▁י	-6.04644
▁אני	-6.07687
▁יש	-6.09036
▁לה	-6.1048
▁היא	-6.11302
"	-6.11381
ית	-6.12612
▁יותר	-6.13637
ש	-6.13717
▁כ	-6.14587
ס	-6.15324
▁-	-6.15372
ד	-6.15387
ג	-6.17418
ט	-6.1754
▁גם	-6.19341
▁נ	-6.20315
▁:	-6.20893
▁כי	-6.24123
'	-6.24139
תי	-6.30462
▁אם	-6.32305
מ	-6.39247
ך	-6.39888
ז	-6.39933
▁היה	-6.41411
▁הם	-6.42249
?	-6.45719
▁ג	-6.46944
כ	-6.4815
▁אבל	-6.49116
▁לי	-6.50588
:	-6.52646
פ	-6.53789
ני	-6.54059
צ	-6.55583
▁–	-6.6088
▁רק	-6.61112
▁כדי	-6.61497
▁א	-6.62426
▁להיות	-6.62532
ון	-6.62747
▁".	-6.65319
▁יכול	-6.68368
מי	-6.68968
▁אחד	-6.69049
▁כמו	-6.70432
פי	-6.70967
נה	-6.73022
כו	-6.74748
ול	-6.75149
)	-6.76483
▁ח	-6.76812
▁אל	-6.77766
▁מת	-6.77832
ור	-6.7884
בר	-6.79256
יה	-6.79878
▁כך	-6.82247
ף	-6.84021
▁זו	-6.84107
▁מי	-6.85914
מה	-6.86638
▁אי	-6.87629
▁עד	-6.88949
▁במ	-6.8933
יות	-6.91332
▁אתה	-6.9155
▁שה	-6.92776
מו	-6.94143
▁ביותר	-6.94678
לי	-6.95517
▁שלך	-6.97202
ין	-6.97392
s	-6.9828
▁ע	-7.00239
יר	-7.00837
מים	-7.02729
▁זאת	-7.02851
רו	-7.03181
וד	-7.03742
▁היו	-7.03895
בי	-7.04379
▁לו	-7.04545
▁האם	-7.05624
▁ד	-7.06122
▁ידי	-7.0613
נ	-7.06296
▁למ	-7.06332
נות	-7.07554
נים	-7.0817
▁אותו	-7.09301
▁)	-7.09932
▁...	-7.10489
▁הזה	-7.1056
▁בכל	-7.10914
יד	-7.11854
▁אנחנו	-7.1455
▁לש	-7.14577
▁בין	-7.15556
▁פ	-7.16252
יק	-7.16349
▁כמה	-7.17628
▁כש	-7.18827
▁שלנו	-7.19129
▁ס	-7.19455
a	-7.19644
e	-7.19748
▁אין	-7.20359
▁מאוד	-7.20414
לו	-7.20708
לה	-7.21992
יל	-7.22487
▁הס	-7.22518
▁עבור	-7.23372
▁אז	-7.23428
דה	-7.23444
▁מו	-7.23761
▁מש	-7.25926
מות	-7.26177
▁לפני	-7.26592
וס	-7.27109
▁דבר	-7.27224
▁לאחר	-7.27561
▁!	-7.27634
כל	-7.28014
וק	-7.28461
▁'	-7.28486
▁לך	-7.28555
▁שלי	-7.28868
פו	-7.29046
▁טוב	-7.29062
▁אנשים	-7.29128
▁ישראל	-7.30383
▁ול	-7.30616
צר	-7.30636
שר	-7.30879
יש	-7.30923
▁פי	-7.30977
גר	-7.31625
יט	-7.32003
▁הש	-7.32059
▁אך	-7.32563
ום	-7.32758
מת	-7.32967
▁לעשות	-7.3304
▁ק	-7.33169
ץ	-7.33321
1	-7.33849
▁צריך	-7.33863
בו	-7.35208
▁19	-7.35565
▁עוד	-7.35724
▁הא	-7.36035
קר	-7.3767
פה	-7.37675
y	-7.37678
וש	-7.3778
▁בו	-7.37909
קי	-7.37959
▁כבר	-7.38728
▁שהוא	-7.38817
▁צ	-7.38823
▁לנו	-7.39197
יו	-7.39414
די	-7.39786
יב	-7.40076
כי	-7.40799
▁אחר	-7.4123
טר	-7.41325
רי	-7.42187
▁S	-7.42383
▁מס	-7.42394
▁אשר	-7.42607
טי	-7.42992
▁הרבה	-7.43025
▁איך	-7.43113
▁הנ	-7.43404
t	-7.43604
כה	-7.45199
▁שמ	-7.45452
▁כאשר	-7.45898
אל	-7.45987
כם	-7.45996
▁להת	-7.46472
נת	-7.47062
▁אנו	-7.47231
▁שני	-7.47755
פר	-7.48139
5	-7.48631
▁בה	-7.49289
▁אמר	-7.49528
מש	-7.49559
▁באופן	-7.49724
צו	-7.49942
▁ר	-7.50233
▁ט	-7.50489
גל	-7.50625
▁שלהם	-7.50676
אי	-7.50841
9	-7.50865
פת	-7.50889
ינו	-7.5101
▁בני	-7.51041
▁שי	-7.51927
בל	-7.52097
▁חלק	-7.52152
ווי	-7.52896
▁לב	-7.52929
▁3	-7.52955
o	-7.53572
▁אלה	-7.53836
▁שנ	-7.53957
▁שלו	-7.55055
פים	-7.55141
▁רוצה	-7.55295
או	-7.55332
▁היום	-7.55501
▁אדם	-7.55633
".	-7.56422
מד	-7.56818
▁הח	-7.57114
וני	-7.57914
%	-7.57983
8	-7.58221
7	-7.58825
▁A	-7.5904
2	-7.59103
ירה	-7.59286
▁אחת	-7.59435
צי	-7.59907
▁שלא	-7.6027
6	-7.60401
▁שנים	-7.6069
▁M	-7.61119
נס	-7.61246
דר	-7.61527
▁די	-7.62285
▁אתם	-7.62765
▁אחרי	-7.63072
▁שם	-7.63102
משך	-7.6312
▁זמן	-7.6318
וב	-7.63787
קו	-7.64197
▁העולם	-7.64513
▁ז	-7.64884
מר	-7.6498
רה	-7.65068
▁שיש	-7.65121
▁בר	-7.65334
פל	-7.65379
▁;	-7.65424
▁הפ	-7.65545
ירות	-7.65557
▁בא	-7.65579
4	-7.65739
▁כן	-7.65828
מן	-7.65957
0	-7.65969
▁מספר	-7.65998
▁הע	-7.66027
▁הג	-7.66074
▁",	-7.66295
▁לכל	-7.6792
אר	-7.68015
▁C	-7.68347
▁“	-7.68808
▁בש	-7.68983
▁יום	-7.68992
▁הייתה	-7.70076
u	-7.70293
▁אפשר	-7.70666
▁ולא	-7.7114
▁P	-7.71257
3	-7.71529
צה	-7.71733
i	-7.71825
▁להם	-7.72016
▁יהיה	-7.72045
▁אותם	-7.7247
יס	-7.73004
▁יכולים	-7.73375
▁s	-7.73448
▁בית	-7.74401
וח	-7.75261
▁קו	-7.75498
חל	-7.75864
גו	-7.76592
▁בשנת	-7.7712
▁פעם	-7.77297
וט	-7.77367
זר	-7.77448
▁כאן	-7.77553
▁שאני	-7.77714
נט	-7.78113
▁4	-7.78658
▁ניתן	-7.79017
▁אחרים	-7.79479
זה	-7.79526
▁שלכם	-7.79629
▁תמיד	-7.79667
▁המו	-7.80012
▁חשוב	-7.80109
▁יו	-7.80425
A	-7.80464
▁B	-7.80496
פות	-7.80565
מא	-7.80718
▁אף	-7.81208
▁הר	-7.81408
טו	-7.8167
דו	-7.81672
כת	-7.81684
▁5	-7.82334
▁שהם	-7.82678
▁בעולם	-7.8306
▁[	-7.83083
אני	-7.83304
יג	-7.83766
▁רבים	-7.83822
▁סי	-7.83845
קה	-7.83903
▁אותה	-7.84181
ונות	-7.84626
שו	-7.84943
אות	-7.85392
▁משהו	-7.85608
▁לח	-7.85995
ונה	-7.86254
▁פשוט	-7.86702
▁האו	-7.86852
▁מר	-7.86996
רג	-7.87151
▁אלא	-7.87496
▁).	-7.8757
▁ואת	-7.87593
▁הספר	-7.87799
▁הק	-7.88049
עת	-7.88068
▁חי	-7.88221
d	-7.88793
שת	-7.89877
חר	-7.89926
▁שנה	-7.90162
דע	-7.90221
▁ספר	-7.9045
חו	-7.90487
וג	-7.90731
▁אומר	-7.90799
al	-7.90871
לים	-7.90893
כים	-7.91571
כב	-7.91774
קט	-7.91777
▁למה	-7.91952
▁עדיין	-7.92075
סי	-7.92188
מל	-7.92469
▁ללא	-7.92539
ונים	-7.92878
▁דרך	-7.93073
שי	-7.93291
עד	-7.93411
קס	-7.94749
נק	-7.94828
C	-7.95136
נית	-7.95172
▁D	-7.95518
▁עכשיו	-7.95586
▁מדי	-7.96004
▁לכם	-7.96176
▁באמת	-7.96206
▁נו	-7.96242
▁הכל	-7.96454
▁הכי	-7.96809
▁לראות	-7.97196
רצ	-7.97303
פס	-7.98423
▁במהלך	-7.98934
▁גדול	-7.99477
▁נש	-7.99924
▁הראשון	-8.00162
ָ	-8.00928
▁שב	-8.00946
ויות	-8.00987
נד	-8.01356
על	-8.01449
▁מא	-8.02301
▁אפילו	-8.02481
▁אותי	-8.02776
מצ	-8.02852
וא	-8.02893
▁הזמן	-8.02942
▁אולי	-8.03082
▁האדם	-8.03475
▁לס	-8.03504
p	-8.036
ar	-8.03841
▁יודע	-8.03949
רח	-8.04374
▁שאתה	-8.04415
ווה	-8.04484
an	-8.04731
g	-8.04836
▁קל	-8.05144
]	-8.05195
▁בבית	-8.05332
בור	-8.05822
S	-8.06108
▁חיים	-8.06126
▁בדרך	-8.06398
▁אלו	-8.06528
עו	-8.06557
▁6	-8.0674
לא	-8.07288
יא	-8.07336
ְ	-8.07391
ונ	-8.07527
▁G	-8.07677
▁מג	-8.07934
▁שזה	-8.08082
יהם	-8.08515
▁ני	-8.08522
▁ומ	-8.09054
זו	-8.09105
▁באמצעות	-8.09457
▁רב	-8.0948
▁כלל	-8.09484
לט	-8.09493
▁החיים	-8.09529
re	-8.09595
ּ	-8.09684
מור	-8.09795
▁להי	-8.09831
ינ	-8.09894
▁רוב	-8.10077
P	-8.10413
▁2	-8.10672
קל	-8.10731
n	-8.1115
▁שבו	-8.11298
שה	-8.11319
▁/	-8.1138
▁מע	-8.11536
▁מקום	-8.11606
▁T	-8.11634
סט	-8.12119
סר	-8.12221
גור	-8.12332
▁קר	-8.12525
▁1	-8.12646
▁פר	-8.12966
▁נמצא	-8.13144
▁לקבל	-8.13269
er	-8.13414
▁ממש	-8.13513
▁מח	-8.13655
של	-8.14141
on	-8.14221
▁בד	-8.14644
פור	-8.14869
בע	-8.14955
▁וב	-8.15211
▁היתה	-8.15359
▁אר	-8.15374
▁לע	-8.15657
רד	-8.15682
▁כולל	-8.15782
▁מאז	-8.16142
וז	-8.16174
▁רוצים	-8.16388
D	-8.16454
▁שוב	-8.16616
▁F	-8.17325
בד	-8.17713
▁נגד	-8.1801
▁דו	-8.18013
צל	-8.18114
זי	-8.18206
ַ	-8.18257
▁האי	-8.18792
▁הן	-8.1889
▁שהיא	-8.19129
k	-8.19204
▁אינו	-8.19363
טל	-8.19553
▁קשה	-8.19928
▁10	-8.19988
▁I	-8.20167
ינה	-8.20327
▁E	-8.20519
▁צי	-8.20626
E	-8.20659
ימה	-8.20789
▁מן	-8.20812
▁חדש	-8.21129
▁במקום	-8.21335
▁הגדול	-8.21478
רס	-8.21548
l	-8.21616
מונ	-8.21623
▁כפי	-8.21649
יז	-8.21696
en	-8.2183
▁צריכים	-8.21937
▁נראה	-8.21956
כר	-8.22162
▁H	-8.22293
▁גר	-8.22908
▁דברים	-8.22956
ראה	-8.22999
▁יי	-8.23122
▁כיצד	-8.23152
▁שתי	-8.23256
b	-8.23589
▁קי	-8.23617
▁הראשונה	-8.23907
I	-8.23973
▁בלי	-8.24695
w	-8.24764
▁עובד	-8.24833
▁הייתי	-8.25046
▁8	-8.25059
▁הזו	-8.25945
▁לדעת	-8.26081
c	-8.26105
in	-8.26585
דור	-8.26815
▁באות	-8.26906
▁ראש	-8.2719
▁אלוהים	-8.27421
יי	-8.27583
נג	-8.2759
▁פחות	-8.27636
▁לפי	-8.27912
00	-8.28033
▁בעל	-8.28234
▁החברה	-8.28456
סטר	-8.28652
▁הצ	-8.29041
▁האלה	-8.29068
▁כמעט	-8.2924
r	-8.29461
▁השני	-8.2949
▁7	-8.29505
▁ילדים	-8.29545
▁רע	-8.29643
or	-8.29654
T	-8.30015
M	-8.30395
▁בשביל	-8.30667
צב	-8.30671
▁רו	-8.30712
▁שר	-8.30993
▁הדבר	-8.31421
יפ	-8.31562
קול	-8.31883
▁החל	-8.31931
כח	-8.32025
ידי	-8.32107
▁מידע	-8.32109
נא	-8.3222
O	-8.32236
▁מעל	-8.32305
חות	-8.3235
▁מכ	-8.32515
יקה	-8.3276
▁העיר	-8.32875
▁W	-8.32974
שם	-8.33076
!	-8.33197
גן	-8.33226
▁גו	-8.33236
פח	-8.33251
▁נס	-8.33924
▁אש	-8.34405
קד	-8.34514
חק	-8.34594
▁לדבר	-8.34731
▁עצמו	-8.34859
חבר	-8.34864
יון	-8.3506
▁תו	-8.35304
ייה	-8.3541
קים	-8.35733
▁),	-8.35994
יני	-8.36079
”	-8.36091
▁יכולה	-8.36453
אן	-8.36556
▁בצור	-8.36716
כנס	-8.37009
שות	-8.37091
▁עבודה	-8.37247
▁שבה	-8.37366
▁המת	-8.37417
▁בס	-8.37503
▁בתוך	-8.37534
▁מכל	-8.3763
סק	-8.38142
▁הבא	-8.38151
▁נכון	-8.38159
וף	-8.38312
▁בן	-8.38776
▁המדינה	-8.38849
▁עושה	-8.39413
▁מיליון	-8.39766
▁בגלל	-8.40095
▁פו	-8.4023
le	-8.40238
▁הברית	-8.40754
▁הטוב	-8.40776
▁לכן	-8.4109
▁בדיוק	-8.41135
▁דולר	-8.41232
▁חייב	-8.41569
שים	-8.41608
▁בזמן	-8.41712
▁נא	-8.41766
▁יחד	-8.42014
▁אותך	-8.42019
ורה	-8.42215
▁בלתי	-8.42298
▁ביום	-8.42301
▁לגבי	-8.42332
▁עשר	-8.42539
B	-8.42669
צור	-8.42699
▁רבות	-8.42779
גש	-8.42829
▁L	-8.43178
▁N	-8.43665
אה	-8.43954
▁למרות	-8.43967
עים	-8.44064
▁שום	-8.44078
▁הז	-8.44286
▁למצוא	-8.44397
▁ילד	-8.44457
נטי	-8.44511
▁מתוך	-8.44607
▁כולם	-8.44842
▁לעבוד	-8.44888
m	-8.45002
▁סו	-8.45053
▁שונים	-8.45294
▁רי	-8.4539
▁בג	-8.45461
▁חושב	-8.4571
לב	-8.45913
▁18	-8.45933
▁”	-8.45977
קבל	-8.4602
בול	-8.46108
▁סט	-8.46281
▁מתחיל	-8.465
▁ברור	-8.46709
אם	-8.4676
▁מהם	-8.46768
▁9	-8.46848
יף	-8.46927
▁בטוח	-8.47008
▁חוק	-8.47183
▁מל	-8.47184
▁R	-8.47241
נש	-8.47301
כן	-8.47558
▁הרי	-8.47565
▁פני	-8.47972
▁החדש	-8.47973
▁אור	-8.48025
▁לר	-8.48282
▁תהיה	-8.48282
▁בעלי	-8.48384
▁וגם	-8.48393
▁מחקר	-8.48814
▁השנה	-8.48841
▁עו	-8.49
▁במיוחד	-8.49061
▁להשתמש	-8.49589
▁קצת	-8.49644
ֶ	-8.49738
▁מספיק	-8.49904
▁לכך	-8.5001
▁צו	-8.50074
▁ואני	-8.50107
▁החי	-8.50385
▁הזאת	-8.50517
סון	-8.5075
,000	-8.50897
נן	-8.50924
▁מצ	-8.50932
▁העבודה	-8.51129
it	-8.51294
דות	-8.51325
טור	-8.51377
▁והוא	-8.51446
פט	-8.51449
בני	-8.51556
▁מרגיש	-8.51601
R	-8.51632
▁סוג	-8.51751
▁אחרת	-8.51805
▁וזה	-8.5192
פש	-8.52368
▁חברת	-8.52425
ניות	-8.52673
▁כתב	-8.52722
▁יודעים	-8.53209
ורי	-8.53501
▁בכ	-8.53503
▁איש	-8.53531
▁שימוש	-8.53636
אפשר	-8.53697
▁תי	-8.5422
וצ	-8.5424
פא	-8.54243
▁לפחות	-8.543
▁עליו	-8.54317
־	-8.54337
▁קשר	-8.54768
▁כזה	-8.54999
▁אב	-8.5514
▁מלא	-8.55403
עוד	-8.55563
is	-8.55569
פצ	-8.56042
ינים	-8.56175
יבה	-8.56188
ילד	-8.56227
טה	-8.56314
▁ידע	-8.56484
▁חיי	-8.56549
▁ממ	-8.56795
שוב	-8.56849
▁מאשר	-8.57465
▁אצל	-8.57565
בק	-8.57745
ביל	-8.57774
▁O	-8.57836
▁תוך	-8.57926
▁מק	-8.5799
L	-8.58192
▁מנת	-8.58294
ic	-8.58329
▁עשוי	-8.58878
פול	-8.58903
▁זר	-8.58936
ולוגי	-8.58977
▁הפר	-8.58989
▁מערכת	-8.59034
at	-8.59278
▁בהם	-8.59299
▁הדברים	-8.5957
▁כיום	-8.59796
▁כסף	-8.59911
נר	-8.59974
▁שא	-8.60025
▁שלוש	-8.6017
▁קול	-8.60253
▁מדוע	-8.60438
▁שאנחנו	-8.60539
▁a	-8.6054
▁המשפט	-8.60605
▁גבוה	-8.60943
▁הדרך	-8.6111
▁הבית	-8.61113
▁גיל	-8.61266
אלי	-8.6141
סל	-8.61459
▁עבר	-8.61477
▁מצב	-8.61483
דל	-8.61525
סור	-8.61731
▁הקו	-8.61856
▁נח	-8.62176
▁בישראל	-8.62184
▁ימים	-8.62436
▁מישהו	-8.62529
▁שעות	-8.62531
▁אמ	-8.62628
▁אותנו	-8.62631
▁החוק	-8.62717
▁אד	-8.62791
מון	-8.62802
איזה	-8.62941
מס	-8.63212
▁להגיע	-8.63225
▁בשל	-8.63625
▁להבין	-8.63803
▁בלבד	-8.63834
st	-8.63956
צים	-8.64046
▁?"	-8.64085
ro	-8.64112
מיד	-8.64201
▁בפני	-8.64446
▁מנ	-8.64638
בית	-8.64891
▁מכיר	-8.6491
▁שאתם	-8.64964
ִ	-8.65324
ch	-8.65539
נח	-8.65701
▁עצמי	-8.65807
▁טובה	-8.65828
ילה	-8.66021
▁נשים	-8.66136
▁מקור	-8.66159
▁מעט	-8.66183
▁ואז	-8.66207
▁20	-8.66219
פעל	-8.66324
▁אינ	-8.66435
▁אינם	-8.66465
▁מיוחד	-8.66483
▁עושים	-8.66585
▁בעוד	-8.66725
▁הגיע	-8.66931
▁לקחת	-8.66958
’	-8.67065
סטי	-8.67242
ינג	-8.67302
אחד	-8.67339
בטח	-8.67362
כיר	-8.67403
▁חול	-8.67804
פרי	-8.68394
עורר	-8.68449
▁15	-8.68508
שור	-8.68884
▁כמובן	-8.68939
▁בנוסף	-8.69049
ורג	-8.69205
▁אחרות	-8.69269
▁אח	-8.69275
כתב	-8.69442
N	-8.69717
ולד	-8.69794
ציה	-8.69832
▁גל	-8.69836
▁למעשה	-8.69891
רט	-8.69959
▁הארץ	-8.70072
ri	-8.70139
▁מכן	-8.7018
ירת	-8.70197
כמה	-8.70587
ra	-8.70744
שיח	-8.70907
מע	-8.71022
אס	-8.71438
▁The	-8.71575
▁מגיע	-8.7168
▁הסרט	-8.71879
▁עומד	-8.71885
▁הללו	-8.72041
כש	-8.72242
f	-8.72297
בנה	-8.72315
יך	-8.72552
▁חזק	-8.72639
רא	-8.72663
▁מזה	-8.72824
ed	-8.73008
▁סביב	-8.73013
▁תחת	-8.73042
▁שמח	-8.7311
▁ללמוד	-8.73189
לק	-8.73211
▁טי	-8.73248
▁הממשלה	-8.73443
▁סיפור	-8.73533
▁האנשים	-8.7362
▁לכ	-8.73745
▁הצי	-8.73784
▁קיבל	-8.73925
▁חל	-8.73996
▁לעולם	-8.7412
▁אבי	-8.74138
▁סוף	-8.74239
ורד	-8.74283
▁משחק	-8.74288
▁אינה	-8.74298
▁אוהב	-8.74344
▁לתת	-8.74776
es	-8.75132
▁הכר	-8.75191
רש	-8.75403
כס	-8.75694
יית	-8.75913
▁קצר	-8.75977
▁t	-8.76017
▁12	-8.76188
▁עי	-8.76202
▁of	-8.76206
▁בעיקר	-8.76581
▁ית	-8.76606
/	-8.76796
▁כוח	-8.77166
עשה	-8.77448
▁התק	-8.77667
h	-8.77714
▁נוסף	-8.77997
▁פעמים	-8.77997
סד	-8.78006
▁תא	-8.78147
משיך	-8.78184
▁אנ	-8.78278
▁סרט	-8.78367
דג	-8.78638
▁מול	-8.78661
▁טר	-8.78734
גה	-8.78793
▁m	-8.7883
▁לעזור	-8.79134
▁מדובר	-8.79252
▁לג	-8.79287
פתח	-8.79327
▁משמעותי	-8.79556
▁למד	-8.79605
▁שהיה	-8.7963
il	-8.79742
▁b	-8.7982
▁V	-8.79851
▁רא	-8.79912
▁באתר	-8.80069
▁הישראלי	-8.80144
▁אס	-8.80184
▁אמיתי	-8.80316
▁המשחק	-8.80382
▁האחרון	-8.80454
▁אולם	-8.80485
).	-8.80522
מנ	-8.80522
▁קודם	-8.80567
▁יוצא	-8.80659
▁לומר	-8.80711
גיע	-8.8132
זכר	-8.81378
▁מיד	-8.81495
ֵ	-8.81593
▁מחשב	-8.81603
עמ	-8.81624
-19	-8.8167
▁יהיו	-8.81708
▁דקות	-8.81739
▁ם	-8.81767
▁עלול	-8.81827
▁העסק	-8.81921
טא	-8.82312
▁30	-8.82345
▁פל	-8.82473
▁נושא	-8.825
▁פעולה	-8.82751
ראו	-8.82768
ing	-8.82786
▁בנ	-8.82818
▁רואה	-8.83068
שאר	-8.8311
th	-8.83168
▁לנ	-8.83321
אף	-8.83374
מני	-8.83435
▁נע	-8.83616
▁הילדים	-8.83663
-2	-8.83716
ילי	-8.83727
▁ליצור	-8.83738
▁השנים	-8.83863
▁מחדש	-8.83876
יץ	-8.83918
מנו	-8.83988
▁בכלל	-8.84061
סוף	-8.84167
ימו	-8.8419
גדל	-8.8425
▁חסר	-8.8462
▁תש	-8.84627
▁c	-8.84777
▁האל	-8.84785
חזק	-8.84861
▁ספק	-8.8494
▁חש	-8.85007
חוק	-8.85033
▁באזור	-8.85033
אג	-8.85328
▁הפל	-8.85356
▁צריכה	-8.85372
▁טו	-8.85545
▁אישי	-8.85734
נהג	-8.85753
▁התא	-8.85766
▁גדולה	-8.85804
▁הגוף	-8.86021
▁הרש	-8.86045
▁כה	-8.86195
▁ככל	-8.86198
קוד	-8.86377
▁ומה	-8.86387
▁אוכל	-8.86435
גנ	-8.86667
▁השת	-8.86994
▁הילד	-8.87023
▁טיפול	-8.87042
▁פה	-8.87166
אמר	-8.87204
▁רחב	-8.8728
et	-8.87303
▁אלי	-8.87408
רגע	-8.87806
▁נוספים	-8.88052
▁p	-8.88122
טון	-8.88168
▁הדו	-8.88293
▁ליד	-8.88506
▁קרובות	-8.88741
▁צורך	-8.88981
▁כאלה	-8.89074
▁בתחום	-8.89085
▁לבית	-8.89369
▁מקוו	-8.8944
▁d	-8.89567
▁ארה	-8.89614
▁הדי	-8.89665
▁קרוב	-8.89739
▁המס	-8.89799
נוגע	-8.89828
▁שאין	-8.89972
▁חודשים	-8.89979
סדר	-8.90026
נוס	-8.90064
מנות	-8.90073
▁כעת	-8.90096
▁בכך	-8.9018
אור	-8.90385
▁למשל	-8.90572
-20	-8.9067
▁כר	-8.90861
פעיל	-8.91172
▁חדשים	-8.91198
▁סמ	-8.91516
▁בעבר	-8.92025
▁הבינלאומי	-8.92037
פגש	-8.9211
▁שכל	-8.92138
▁מדינות	-8.92303
ניים	-8.92413
חזור	-8.92432
פעם	-8.92555
▁."	-8.92573
▁שירות	-8.9278
▁שינוי	-8.92801
▁מפני	-8.92803
▁שונות	-8.92821
▁משום	-8.92924
▁ברחבי	-8.93004
יקום	-8.93137
F	-8.93189
▁מאו	-8.93246
▁יהודי	-8.93526
▁קטן	-8.93579
▁אפ	-8.93582
מין	-8.93633
el	-8.9366
▁אחוז	-8.93709
סופו	-8.93758
▁השל	-8.93857
▁פוליטי	-8.94002
יסט	-8.94061
▁שש	-8.94126
▁שלושה	-8.94175
▁האמת	-8.9433
▁שנות	-8.94373
▁ידוע	-8.94392
▁לאורך	-8.94557
בצע	-8.94593
▁חבר	-8.94606
▁פרי	-8.94634
▁ללכת	-8.94635
am	-8.9465
ולי	-8.95051
▁11	-8.95432
▁מטר	-8.95693
▁קורה	-8.95861
יכולת	-8.95925
▁פור	-8.96001
ונית	-8.96253
▁בשנה	-8.96378
▁n	-8.96427
▁בנושא	-8.96442
▁קונ	-8.96519
▁the	-8.96566
▁i	-8.96595
▁שונה	-8.96805
▁שאל	-8.96822
▁בקרב	-8.96835
▁לעתים	-8.96879
▁כגון	-8.97118
▁תפקיד	-8.97316
ושב	-8.97566
▁נשאר	-8.97568
▁״	-8.97596
יום	-8.97848
▁הנה	-8.97948
▁נכנס	-8.981
ol	-8.98188
▁בסדר	-8.9819
אחר	-8.98291
as	-8.98303
▁פרטי	-8.98356
▁פול	-8.98422
עבד	-8.98559
תקופה	-8.98656
▁עיר	-8.98873
▁ער	-8.99054
הוא	-8.99246
▁מנהל	-8.99446
▁לזה	-8.99483
▁לשמור	-8.99517
▁לבד	-8.99525
▁מאד	-8.99581
▁חוב	-8.99587
▁התח	-8.99662
▁משת	-8.99737
ערך	-8.99967
▁מציע	-9.00019
לנד	-9.00098
▁מעבר	-9.0011
▁ולכן	-9.00135
עלה	-9.00161
▁העיקרי	-9.00179
▁מוס	-9.00348
בין	-9.00444
▁שאלה	-9.00444
▁0	-9.00522
עול	-9.00608
▁בגיל	-9.00756
▁בחו	-9.00944
▁להשיג	-9.00963
▁ארצות	-9.00974
▁הלאומי	-9.01139
טיס	-9.0116
▁הטבע	-9.0127
▁מיני	-9.01309
▁המצב	-9.01514
▁לפעמים	-9.01546
▁עמד	-9.01653
▁מצד	-9.01661
ואי	-9.01679
G	-9.01707
▁לד	-9.01715
אק	-9.01741
H	-9.01813
▁חדשה	-9.01898
אנחנו	-9.02022
מט	-9.02045
▁בידי	-9.02046
▁בתי	-9.02058
▁ועד	-9.02082
▁רכב	-9.02128
▁לקרוא	-9.02279
דבר	-9.02282
▁J	-9.02292
▁להפוך	-9.02369
אז	-9.0275
▁מצא	-9.02782
קרא	-9.02787
▁מיל	-9.02811
▁האמריקאי	-9.02987
יין	-9.03069
▁”.	-9.03385
▁K	-9.03479
▁ממנו	-9.03479
us	-9.03567
▁in	-9.03572
תרחש	-9.03579
מערב	-9.03655
▁דר	-9.0366
ter	-9.0377
▁יצא	-9.04021
▁משו	-9.04043
מנים	-9.0405
מק	-9.04081
▁מחיר	-9.0409
▁לשנות	-9.04142
▁קש	-9.04205
▁היחיד	-9.04279
ברי	-9.04539
▁חברות	-9.04607
▁מט	-9.04612
▁לחלוטין	-9.04692
▁רגע	-9.04699
▁בעיר	-9.04727
▁פס	-9.04848
▁השו	-9.05173
ודי	-9.05279
▁שנת	-9.0537
רגיש	-9.05401
תוצאה	-9.05444
▁ניס	-9.0545
▁פעילות	-9.05485
▁17	-9.05554
ad	-9.05702
▁סל	-9.05706
▁חומר	-9.05706
תחיל	-9.05736
▁שאינ	-9.05745
▁כנראה	-9.05749
▁יד	-9.05808
פני	-9.06071
▁לבצע	-9.06078
מנה	-9.06151
אט	-9.0617
▁זכויות	-9.06311
רכיב	-9.06359
▁שאנו	-9.06364
▁שמו	-9.06443
▁עובדים	-9.06516
▁רצו	-9.06618
▁לחשוב	-9.06622
▁לבין	-9.06658
▁המחקר	-9.06671
▁הלב	-9.06805
פורט	-9.06833
▁לחיות	-9.06849
וצא	-9.06874
▁בחיים	-9.06961
טבע	-9.07106
רוע	-9.07112
x	-9.07313
▁כאילו	-9.07378
▁אג	-9.07394
▁בסוף	-9.07415
▁מאפשר	-9.07547
▁מאות	-9.0767
▁זהו	-9.07742
ur	-9.07771
v	-9.07848
▁תוכנית	-9.07888
▁שהו	-9.07988
רוץ	-9.08033
▁מאוחר	-9.08115
▁בריא	-9.08172
▁קנ	-9.08192
▁רואים	-9.08305
▁הולך	-9.08796
▁l	-9.09076
▁עבד	-9.09097
▁במקרה	-9.09144
רמה	-9.09153
▁שעבר	-9.09273
▁16	-9.09273
▁מסוגל	-9.09383
ואה	-9.09584
▁העבר	-9.0974
▁המח	-9.09899
▁השנייה	-9.09963
ראש	-9.09968
▁פועל	-9.09981
▁בינלאומי	-9.10086
▁מור	-9.10204
▁קט	-9.10258
▁תר	-9.10271
▁מצוי	-9.10345
▁אמור	-9.10392
▁המשפחה	-9.10469
▁רוח	-9.10645
▁באו	-9.10689
▁משנה	-9.10736
▁נולד	-9.10814
▁תודה	-9.10814
ce	-9.10854
z	-9.10871
▁האב	-9.10894
גיל	-9.10929
ביט	-9.11493
ספק	-9.11536
▁13	-9.11615
וֹ	-9.11717
▁להק	-9.11848
▁מדבר	-9.11869
▁אליו	-9.1189
▁לחבר	-9.11947
טלפון	-9.12115
שמע	-9.12145
▁טבעי	-9.12368
▁יהודים	-9.12406
▁בעיות	-9.12499
מקור	-9.12543
ואר	-9.1257
▁והיא	-9.12712
פרס	-9.12787
רון	-9.12826
▁האחרונות	-9.12826
▁מקבל	-9.12833
▁משרד	-9.12955
▁יורק	-9.13211
▁השאלה	-9.133
▁אירוע	-9.13416
מען	-9.13519
▁המידע	-9.13536
צליח	-9.13539
צפו	-9.13599
▁הער	-9.13685
▁מתי	-9.13697
▁כלפי	-9.13746
▁ממשלת	-9.14226
▁הרכב	-9.14257
▁במצב	-9.14364
▁ההת	-9.1444
▁וכל	-9.14481
▁מבין	-9.14679
כנה	-9.14718
דד	-9.14739
▁שיר	-9.14792
▁ארבע	-9.14814
נצח	-9.1485
▁עלינו	-9.14902
▁איפה	-9.14935
סוג	-9.15057
▁טובים	-9.15224
▁משתמשים	-9.15304
ייצר	-9.15386
▁זקוק	-9.15388
▁כלומר	-9.15503
חופש	-9.15582
▁לבחור	-9.1559
▁אמרה	-9.15641
▁מדינה	-9.15651
אנו	-9.15707
אתה	-9.15747
▁עצמה	-9.15789
▁אתכם	-9.1581
▁משמעות	-9.15865
▁כול	-9.15952
▁מודע	-9.15991
▁יתר	-9.16048
רוח	-9.16092
כנים	-9.16217
un	-9.1625
שום	-9.16294
▁קרא	-9.16318
▁נוספת	-9.164
▁חדשות	-9.16401
▁מספק	-9.1641
lo	-9.16436
▁צל	-9.16451
▁גבוהה	-9.16539
ir	-9.16547
▁המכ	-9.16593
▁אפשרי	-9.16769
כלל	-9.16788
▁בל	-9.16802
▁רבה	-9.16858
רצח	-9.17086
▁מעולם	-9.17334
▁14	-9.17357
▁לוקח	-9.17361
▁*	-9.17448
▁האמיתי	-9.1753
ion	-9.17532
▁האתר	-9.17599
ייתכן	-9.17615
▁זי	-9.17685
צוות	-9.17779
ולל	-9.17797
▁בריאות	-9.17842
▁הצליח	-9.17934
כנע	-9.17964
▁ימי	-9.17973
▁והם	-9.1809
▁קור	-9.18167
▁להתחיל	-9.18216
▁ואם	-9.18356
▁חר	-9.18361
▁פרק	-9.18461
▁יפה	-9.18476
▁הסיפור	-9.18483
▁תלוי	-9.18528
ציר	-9.1853
▁בעיה	-9.18543
▁דעת	-9.18674
יזם	-9.18764
▁עולם	-9.18789
▁מחוץ	-9.18876
▁חברים	-9.18884
ריון	-9.18899
▁המחשב	-9.18981
▁הכוח	-9.18987
▁השמ	-9.19052
▁r	-9.19055
V	-9.19126
▁אנשי	-9.19136
▁המוצר	-9.19184
▁e	-9.19189
▁חלו	-9.19245
▁זוכר	-9.19263
רבות	-9.1932
▁מאת	-9.19344
▁מנהיג	-9.19348
▁צעד	-9.19348
▁סדר	-9.19495
▁עצמם	-9.19498
▁המקום	-9.19643
▁לחזור	-9.19664
▁עליהם	-9.19711
▁בעקבות	-9.1972
פעילות	-9.19732
▁דומה	-9.19766
▁בתו	-9.19843
▁צבע	-9.19972
▁הפעם	-9.20089
▁יחסי	-9.20105
גבר	-9.20198
▁נתונים	-9.20393
▁הלא	-9.20435
מדינות	-9.20438
▁הבעיה	-9.20563
▁בחר	-9.20564
▁לגרום	-9.20626
▁ערב	-9.20758
▁בארה	-9.20762
▁כדור	-9.20766
▁ויש	-9.20836
▁U	-9.20894
▁המל	-9.20944
▁החלו	-9.20949
▁חוזר	-9.2099
אלוהים	-9.21101
▁בהחלט	-9.21162
▁אומרים	-9.21164
▁קשור	-9.21274
▁אהבה	-9.21326
▁25	-9.21426
▁g	-9.21458
▁נעל	-9.21503
▁אזור	-9.21508
שותף	-9.21538
▁40	-9.21601
▁הנוכחי	-9.21624
▁פתוח	-9.21634
▁הכול	-9.21705
▁השלישי	-9.21733
▁להמשיך	-9.21784
▁חשב	-9.21975
▁חייבים	-9.22007
▁משתמש	-9.22054
▁תלמיד	-9.22092
▁בעת	-9.22151
▁הסיבה	-9.22222
▁בראש	-9.22311
כנות	-9.22327
▁חוקי	-9.22347
▁היסטורי	-9.2245
ארי	-9.2262
▁ככה	-9.22642
ֹ	-9.22706
▁עובר	-9.22728
▁f	-9.22799
לוג	-9.22863
אין	-9.2288
▁האישי	-9.22886
▁להתמודד	-9.22887
▁נוצר	-9.22906
▁ניו	-9.22945
▁אומרת	-9.23
▁נג	-9.2301
▁תהליך	-9.23128
▁בחיי	-9.23174
▁הקרוב	-9.23191
▁מהר	-9.2322
▁לתוך	-9.23465
▁גברים	-9.23482
▁פעיל	-9.23559
זוהי	-9.23783
▁קרי	-9.23835
חוץ	-9.23838
▁היינו	-9.23852
▁לעומת	-9.23903
▁In	-9.23905
מלא	-9.23917
▁o	-9.23921
▁איכות	-9.2398
▁הגדולה	-9.24023
▁לקו	-9.24094
נתי	-9.24108
▁בהתאם	-9.24122
אש	-9.24247
▁וכן	-9.24414
כיל	-9.2444
אד	-9.24472
▁תוכל	-9.24487
טרי	-9.24676
ישנם	-9.24705
עבוד	-9.24754
▁צפוי	-9.24766
▁לאנשים	-9.2488
▁100	-9.24885
▁האינטרנט	-9.2489
▁הגבוה	-9.24913
▁גדל	-9.24931
דמות	-9.25158
▁צעיר	-9.25161
▁בשלב	-9.25208
כניס	-9.25216
▁יחיד	-9.25221
ייצור	-9.25278
▁לגמרי	-9.25336
▁כדאי	-9.25337
▁בארץ	-9.25451
▁תוכלו	-9.25614
▁קרה	-9.25692
▁האוויר	-9.25696
תקן	-9.25731
▁ספ	-9.25833
▁הנשיא	-9.25847
עביר	-9.25888
▁מיליארד	-9.25893
▁נקרא	-9.26045
דף	-9.26072
פרק	-9.26079
▁w	-9.26084
▁חופשי	-9.26087
נפ	-9.26284
▁במיד	-9.26335
▁העם	-9.26452
▁האנושי	-9.26456
▁ברי	-9.26465
▁שבע	-9.26493
▁השבוע	-9.26504
יסטי	-9.26555
▁כוחות	-9.26597
▁ראשון	-9.266
ִי	-9.2666
▁לשחק	-9.26723
▁ברגע	-9.26737
▁כללי	-9.26788
▁עליה	-9.26883
la	-9.26897
▁שוק	-9.26919
▁שמע	-9.26945
רופ	-9.26957
▁נחשב	-9.27021
▁מוצר	-9.27026
יצו	-9.2704
▁מבט	-9.27126
▁נר	-9.27217
לס	-9.27247
▁פרס	-9.2727
▁עסק	-9.27364
▁ערך	-9.2747
▁עיני	-9.27514
▁מקצועי	-9.27613
▁האחרונה	-9.27618
▁אותן	-9.27722
קטיבי	-9.27788
פקד	-9.27835
▁כלכלי	-9.27843
עון	-9.27889
פנה	-9.27944
▁St	-9.28029
▁לספק	-9.28069
▁למי	-9.28157
▁הרב	-9.28162
▁ועוד	-9.2817
nd	-9.28213
ut	-9.28268
עבור	-9.28282
▁פא	-9.28291
▁היהודים	-9.28424
אדם	-9.28425
ll	-9.28491
▁Re	-9.28609
סייע	-9.28749
▁בסיס	-9.28776
▁צרפת	-9.28917
▁הציבור	-9.28933
me	-9.29006
▁השימוש	-9.29096
▁חזר	-9.2917
▁רגיל	-9.2918
עיד	-9.29257
▁בתור	-9.29281
▁לצאת	-9.29308
▁קיים	-9.29344
▁המלחמה	-9.29513
▁מוכר	-9.29687
ונג	-9.29734
גישה	-9.29823
▁למנוע	-9.29908
▁להגיד	-9.30009
אבד	-9.30015
▁להביא	-9.30016
▁מאי	-9.30036
▁חוש	-9.30063
▁בזה	-9.30069
יפו	-9.30136
▁האח	-9.30295
▁עניין	-9.30388
▁לכתוב	-9.30405
ציע	-9.30509
▁תל	-9.30554
עיר	-9.30593
ation	-9.30614
ייס	-9.30726
▁נעשה	-9.30803
▁היית	-9.30917
הופך	-9.30929
גדר	-9.30946
▁גבר	-9.30979
▁אלף	-9.31016
קור	-9.31036
▁לאכול	-9.31104
▁מתח	-9.31117
▁אלפי	-9.31198
▁מאחורי	-9.31208
▁אתר	-9.31278
▁שהיו	-9.31314
דרום	-9.31375
▁חדר	-9.31515
▁50	-9.31611
▁בשנים	-9.31629
▁תרבות	-9.31672
▁בספר	-9.31673
▁מוצא	-9.31731
▁לוח	-9.31748
וּ	-9.31861
▁משפחה	-9.31893
▁תוצאות	-9.31969
▁איזו	-9.31972
▁הפרטי	-9.31983
דרוש	-9.32117
▁מתחת	-9.32243
▁בחודש	-9.3226
ia	-9.32261
▁עמוק	-9.32276
▁הבריאות	-9.32366
למה	-9.32428
▁רפואי	-9.32606
▁מזו	-9.3262
▁בשבוע	-9.32642
ובל	-9.32768
▁לימוד	-9.32783
▁החדשה	-9.3281
▁יוצר	-9.32843
▁דוגמ	-9.32897
▁מבוסס	-9.32964
▁גור	-9.33056
▁העולמי	-9.33089
▁חודש	-9.33177
ec	-9.3321
▁נד	-9.33237
▁המאה	-9.3327
▁יצירת	-9.33342
▁ארגון	-9.33436
▁רשת	-9.33477
▁מזון	-9.33492
▁עקב	-9.33503
▁עבודת	-9.33509
▁!"	-9.33515
▁היהודי	-9.33515
▁חס	-9.33583
▁מורכב	-9.33623
▁and	-9.33629
▁שבוע	-9.33635
▁נמצאים	-9.33755
▁חמש	-9.33819
▁עליך	-9.33891
▁אחי	-9.33925
▁משפחת	-9.33968
▁להר	-9.34011
נצ	-9.34191
מתי	-9.34199
פסיק	-9.34294
▁חברי	-9.34299
▁שיכול	-9.34434
בקר	-9.34445
▁מנסה	-9.34531
▁מלחמת	-9.34546
▁קוד	-9.34588
▁הקל	-9.34592
▁1.	-9.3473
▁יעיל	-9.34785
ימת	-9.34801
מקומות	-9.34814
▁מצליח	-9.35
איר	-9.35092
▁לקנות	-9.35308
טכנולוגיה	-9.3532
▁היטב	-9.35483
▁]	-9.35544
▁מסר	-9.35579
▁באינטרנט	-9.35642
▁חמ	-9.35662
▁נשיא	-9.35785
▁בעיני	-9.35791
▁התחיל	-9.35824
אנ	-9.35857
▁חברה	-9.35933
▁אמא	-9.3599
תמיד	-9.36064
עשר	-9.36067
▁נוח	-9.36207
עריכ	-9.36288
איחוד	-9.36359
קשה	-9.3641
בוא	-9.36464
▁גישה	-9.36616
▁לפעול	-9.36732
▁מבקש	-9.36751
רע	-9.3677
▁מערכ	-9.36775
אמי	-9.36815
▁חיובי	-9.36815
▁עסקים	-9.36826
עשיית	-9.36973
▁רופא	-9.37086
▁מדינת	-9.37094
בעיות	-9.37098
▁כתוב	-9.37123
בחר	-9.37138
▁יצר	-9.37141
זכות	-9.3722
נראה	-9.37229
▁הטיפול	-9.3728
פוס	-9.37287
▁כרטיס	-9.37407
▁זוג	-9.37426
▁אירופה	-9.37513
▁•	-9.37637
▁קבוע	-9.37639
▁כולנו	-9.37868
אנשים	-9.37881
▁לשם	-9.37979
▁מכך	-9.38012
▁כאב	-9.38033
▁במהירות	-9.38198
מרחק	-9.38203
▁שאלות	-9.38377
▁למעלה	-9.3853
▁חושבים	-9.38665
se	-9.38687
▁האור	-9.38704
U	-9.38779
ac	-9.38841
נז	-9.3901
▁תמונות	-9.39049
קע	-9.39071
▁''	-9.39072
הייתי	-9.3919
▁הקר	-9.39419
▁שלום	-9.39429
יאה	-9.39535
▁חוסר	-9.39562
פתי	-9.39584
▁לעיתים	-9.39692
20	-9.39727
▁24	-9.39849
▁מעורב	-9.39957
סיק	-9.4021
רגשות	-9.4029
▁אק	-9.40413
נצל	-9.40446
נאי	-9.40501
▁הנתונים	-9.40585
▁להרגיש	-9.4066
▁אכן	-9.40671
▁הבאה	-9.40703
▁מסוימים	-9.40703
▁עשה	-9.40707
מרכז	-9.40894
▁עולה	-9.40897
▁הכלכלי	-9.40979
ניתן	-9.40997
▁המוח	-9.41001
▁דרכים	-9.41038
▁הזדמנות	-9.41093
מזון	-9.41121
▁התר	-9.41171
▁חייל	-9.41278
▁נשמע	-9.41315
-4	-9.4134
▁מכיוון	-9.4155
אלימות	-9.4156
▁זכות	-9.41594
▁המרכזי	-9.41616
לין	-9.41777
▁הראשונים	-9.41787
תוכן	-9.41819
▁יודעת	-9.41839
▁מדיניות	-9.41855
▁מוביל	-9.41859
▁מאמין	-9.41897
▁מבלי	-9.41968
▁אמריקה	-9.42062
▁היחידה	-9.42088
▁כוכב	-9.42166
▁אישה	-9.42177
▁להיכנס	-9.4237
▁החשוב	-9.42412
פורסם	-9.42442
▁עשו	-9.42452
▁חז	-9.42485
▁מעשי	-9.4254
▁ניהול	-9.4256
עמד	-9.42604
▁לספר	-9.42643
▁תנאי	-9.42647
▁בעצם	-9.42647
שפע	-9.42725
▁הסי	-9.42754
ve	-9.42764
▁שיעור	-9.42795
▁טראמפ	-9.42934
▁ביחד	-9.42936
▁פנים	-9.43042
▁לקוחות	-9.43105
בעלי	-9.43208
▁'.	-9.43244
▁יקר	-9.43276
▁נפש	-9.43634
▁האש	-9.43652
עיל	-9.43754
▁עתיד	-9.43802
▁הפוליטי	-9.4387
קדש	-9.43905
מציא	-9.43979
om	-9.44117
פסק	-9.44121
▁רחוק	-9.44132
▁לחו	-9.44154
עור	-9.44206
▁חופש	-9.44359
▁אמריקאי	-9.44407
▁הקשר	-9.44423
▁הפך	-9.4443
▁חיל	-9.44441
▁ההיסטוריה	-9.44488
▁הביטחון	-9.44539
▁האירופי	-9.44683
כדי	-9.4473
▁בחי	-9.44811
▁המקומי	-9.44812
▁הנושא	-9.44814
▁הביתה	-9.44862
▁קלי	-9.44914
▁להישאר	-9.45011
▁טיפ	-9.45053
▁סיבה	-9.45074
▁בואו	-9.45091
▁er	-9.45108
▁אוהבים	-9.4513
▁לעבור	-9.45152
פרויקט	-9.45153
▁לראשונה	-9.45217
▁דין	-9.45285
▁במדינה	-9.45374
שיפור	-9.45409
▁לחץ	-9.45421
▁מקומי	-9.45459
▁פרו	-9.45491
▁מוגבל	-9.45492
▁בארצות	-9.45544
עקב	-9.45599
▁ירושלים	-9.45624
▁לבנות	-9.4564
▁תור	-9.45651
שתמש	-9.45678
חצי	-9.45698
▁מדברים	-9.45702
▁יח	-9.45745
פשט	-9.45924
▁דווקא	-9.46035
▁איתו	-9.46043
▁האלו	-9.46044
צביע	-9.46064
▁דורש	-9.46065
▁טבע	-9.46079
מישהו	-9.46121
פיק	-9.46133
▁עשויים	-9.46165
▁מקרה	-9.46204
▁מרכז	-9.46288
אנג	-9.46455
▁החלק	-9.46587
▁2.	-9.46598
▁נער	-9.4662
שמח	-9.46637
▁צוות	-9.46649
נדס	-9.46652
▁טרי	-9.46666
▁סביר	-9.46725
▁טכנולוגי	-9.46813
▁השיר	-9.46818
▁ענ	-9.46856
▁התעופה	-9.46859
▁—	-9.46869
קטור	-9.4699
▁אמרתי	-9.47006
▁שיהיה	-9.47039
▁שלישי	-9.47104
▁המדינות	-9.47112
▁גורם	-9.47131
פטר	-9.4714
▁לילדים	-9.47194
דון	-9.47332
יבש	-9.47499
▁לקח	-9.47581
שכר	-9.47629
▁משא	-9.47643
שחקן	-9.47646
▁מאמינים	-9.47668
▁סין	-9.47691
▁הטי	-9.47764
▁דל	-9.47797
▁המחיר	-9.47841
▁לצד	-9.47897
▁חד	-9.47923
מכר	-9.47994
▁נדרש	-9.48152
▁טור	-9.48159
▁ממה	-9.48213
דאג	-9.48266
▁צר	-9.48319
הרוג	-9.48335
רווח	-9.48379
▁השם	-9.48456
▁שאי	-9.48686
id	-9.48827
▁הדת	-9.48837
חייב	-9.48837
▁להגן	-9.48925
סיר	-9.48951
▁קטנה	-9.49001
▁התנ	-9.49088
▁הצעיר	-9.49139
▁איראן	-9.49143
▁מסוג	-9.49186
נקודה	-9.49197
ארגונים	-9.49228
▁ציבורי	-9.49241
תמודד	-9.49302
▁העתיד	-9.49347
▁אנרגיה	-9.49375
▁לשמוע	-9.49521
▁לאומי	-9.49554
▁פרויקט	-9.49587
▁מסכ	-9.49587
שלוח	-9.49657
עכשיו	-9.4967
▁חג	-9.49729
▁נכ	-9.49808
ent	-9.49815
ריס	-9.49879
צעד	-9.49899
▁אילו	-9.4991
שמאל	-9.49951
▁הרופא	-9.49957
מדיניות	-9.49971
מחלות	-9.50006
▁החברתי	-9.50111
▁רשמי	-9.50126
▁לדוגמה	-9.50346
▁עוזר	-9.50361
מם	-9.5047
▁לשלם	-9.5048
W	-9.5051
▁דם	-9.50592
▁המטרה	-9.50709
▁דרכ	-9.50806
▁מסוים	-9.5088
▁מוצרים	-9.50917
▁הכסף	-9.50949
רבים	-9.50999
▁השירות	-9.51059
אוניברסיטה	-9.51088
מיני	-9.51124
▁לנסות	-9.51178
▁שטח	-9.51185
▁דיבר	-9.51232
▁השתמש	-9.51247
הפכה	-9.51601
▁אבא	-9.5161
▁הערב	-9.51622
דמי	-9.51629
▁שואל	-9.51657
▁מוח	-9.51782
▁סובל	-9.51799
ver	-9.51857
▁באירופה	-9.51956
▁לישראל	-9.52045
li	-9.52098
▁ניסיון	-9.52179
▁הבריטי	-9.52275
▁יכולות	-9.52323
▁האיש	-9.52506
▁המר	-9.52508
▁to	-9.52545
▁לאחרונה	-9.52636
▁מופיע	-9.52656
▁שווה	-9.5275
▁ראוי	-9.52777
▁רומ	-9.52811
▁גדולים	-9.52815
כך	-9.5284
▁מצפ	-9.52844
▁בסרט	-9.52847
▁התינוק	-9.53126
▁האזור	-9.5314
חקר	-9.53223
▁שבועות	-9.53248
▁קטנים	-9.5327
▁היי	-9.53395
▁נוספות	-9.53422
▁כספ	-9.53452
▁סיפר	-9.53475
▁וכך	-9.53511
▁הדין	-9.5352
▁הקשור	-9.53558
פרד	-9.53605
שמר	-9.53614
▁מלחמה	-9.53632
▁המדע	-9.53652
▁העובדה	-9.53759
▁h	-9.5376
▁ארוח	-9.5386
ne	-9.53906
סיוע	-9.53907
▁האירוע	-9.53915
▁הבנק	-9.5392
▁העד	-9.54042
צילום	-9.54147
te	-9.54169
▁חשמל	-9.54259
חשוב	-9.54361
▁X	-9.54472
▁כותב	-9.54562
מיר	-9.54588
▁שחור	-9.5462
▁זמני	-9.54631
נתן	-9.54726
טעות	-9.54862
▁קבוצה	-9.54927
מועד	-9.55044
▁אהב	-9.55069
▁עצמך	-9.55503
-3	-9.55545
▁ההר	-9.5555
▁דיווח	-9.5566
▁המערכת	-9.55661
▁נוט	-9.55729
פרסם	-9.55757
▁בקו	-9.55758
מאה	-9.55842
▁תקופה	-9.55847
בטיח	-9.55876
▁בחור	-9.5593
▁סוד	-9.55943
שׁ	-9.56018
▁באי	-9.5603
▁אישית	-9.56033
um	-9.56041
▁מוכן	-9.56054
▁צבאי	-9.56109
פגע	-9.56143
▁האחר	-9.56149
▁אוויר	-9.56243
▁האזרח	-9.56263
▁האמנ	-9.56364
▁היכ	-9.56475
▁אמת	-9.56587
▁מאר	-9.56612
דרך	-9.5662
▁באמצע	-9.56622
▁ובכל	-9.56977
▁עסקי	-9.56986
▁חצי	-9.56989
▁נותר	-9.5703
▁רגל	-9.57149
ho	-9.57281
מוס	-9.5731
תואר	-9.57429
▁המערבי	-9.57464
▁2015	-9.57479
▁שצריך	-9.57481
מחשב	-9.57524
▁ממנה	-9.57718
▁שינויים	-9.57769
▁ניק	-9.57883
חזיר	-9.57893
▁כלום	-9.57933
▁המקורי	-9.57997
חשבתי	-9.58038
▁החולים	-9.58055
▁שאר	-9.5811
▁לעמוד	-9.58163
▁קפ	-9.5827
▁ארבעה	-9.5831
ive	-9.58317
▁כיוון	-9.58369
▁מעניין	-9.58393
זיכרון	-9.58407
הפוך	-9.58504
▁כזו	-9.58514
קצב	-9.58543
פוט	-9.58619
▁בדבר	-9.5879
▁סג	-9.58911
▁אודות	-9.58948
שילוב	-9.59005
▁ראיתי	-9.59033
גידול	-9.59034
▁אמרו	-9.59042
▁אחראי	-9.59171
נל	-9.59204
▁נבחר	-9.59291
▁האמריקני	-9.59495
שלח	-9.59506
▁אוהבת	-9.59512
▁תושבי	-9.59535
רציתי	-9.59571
מפלגה	-9.5961
סגנון	-9.59678
▁חלב	-9.59701
כאב	-9.59706
▁פחד	-9.59709
מספר	-9.59765
▁סב	-9.59811
▁בבוקר	-9.59818
ie	-9.59961
▁השפעה	-9.60022
▁ורק	-9.60084
▁שגם	-9.60108
מזרח	-9.6016
▁סוגי	-9.60164
עסוק	-9.60187
▁פתרון	-9.60302
▁תשומת	-9.60442
▁האחרונים	-9.60481
▁משמש	-9.60557
▁כמ	-9.60639
▁Ch	-9.60666
דומה	-9.60692
▁ריק	-9.60814
▁משפט	-9.60838
ציא	-9.60846
▁»	-9.60965
▁הלילה	-9.61119
▁הבאים	-9.61147
▁תמיכה	-9.61189
▁הטובה	-9.61193
▁מבחינת	-9.61247
נייה	-9.6125
ta	-9.61262
ry	-9.61288
תחום	-9.61341
▁לרוב	-9.61382
▁הופכ	-9.61433
▁קבוצת	-9.61441
▁הקבוצה	-9.61466
▁המלא	-9.61504
▁בעתיד	-9.61523
נתה	-9.61555
▁השינוי	-9.61561
ul	-9.616
כיוון	-9.61653
▁בנק	-9.61656
▁התשובה	-9.61715
▁ביחס	-9.61717
תקציב	-9.61739
▁מבחינה	-9.61812
▁בעזרת	-9.61873
▁התיכון	-9.61889
▁אליה	-9.61904
▁לאור	-9.61989
▁הגיעו	-9.62008
▁בלב	-9.6203
זאת	-9.62096
▁צעירים	-9.62105
ניק	-9.62138
▁נק	-9.6214
▁ביקש	-9.62254
▁ממוק	-9.6226
▁פיזי	-9.62263
▁ביו	-9.62329
▁2014	-9.62354
▁ביצוע	-9.62369
▁מלאה	-9.6237
▁קמ	-9.62386
▁נהדר	-9.62406
▁לשפר	-9.62415
▁בדרכ	-9.62423
טבח	-9.62498
▁הערבי	-9.62541
▁החליט	-9.62683
▁נקודות	-9.62684
▁הסכם	-9.62718
▁בשוק	-9.62749
ge	-9.62896
▁להשת	-9.62908
▁ירד	-9.62948
▁הכללי	-9.63128
▁אמי	-9.63427
▁שולח	-9.6356
▁בקלות	-9.63565
פנות	-9.63629
יתרונות	-9.6373
▁המשטרה	-9.63864
חדש	-9.63891
▁מעמד	-9.63992
▁קבוצות	-9.64013
▁אנושי	-9.64101
▁ייחודי	-9.64143
▁תינוק	-9.64159
▁הארגון	-9.64171
▁מקבלים	-9.64211
▁במרכז	-9.64252
▁לגלות	-9.64265
▁חזרה	-9.64305
▁התוכנית	-9.64308
עניינים	-9.64333
▁קורא	-9.64343
▁בחלק	-9.64415
ילת	-9.6442
▁שעה	-9.64443
▁המלך	-9.64448
▁בהן	-9.64457
co	-9.64464
פייסבוק	-9.64472
טען	-9.64559
▁אסטרטגי	-9.64637
▁ההבדל	-9.64639
ma	-9.64748
▁הצבא	-9.64916
▁רווח	-9.65059
▁לקראת	-9.65176
▁ספורט	-9.65187
▁תרופות	-9.65211
▁מרכזי	-9.65223
שיטות	-9.6524
▁שחי	-9.65268
▁60	-9.65346
▁תיאור	-9.65372
▁ing	-9.65453
▁ואמר	-9.65492
▁תמונה	-9.65504
▁צמח	-9.65505
▁הגרמני	-9.65513
הפכו	-9.65521
▁מוקדם	-9.65536
▁מילים	-9.65651
▁מכיל	-9.65655
קאי	-9.6568
com	-9.65707
▁מעו	-9.65803
▁תכנית	-9.65829
▁לאדם	-9.65843
▁|	-9.65869
▁למקום	-9.65899
ig	-9.65923
▁כתוצא	-9.65942
▁שומר	-9.66057
▁הרוח	-9.66175
הניח	-9.662
צדק	-9.66212
טפל	-9.6624
▁.”	-9.66291
▁הגבר	-9.66304
שלם	-9.66318
▁הראשי	-9.66567
▁החומר	-9.66586
▁הקהילה	-9.6664
▁צד	-9.66675
תחושה	-9.66713
▁בוחר	-9.66815
כולם	-9.66863
טוס	-9.66879
▁ארוך	-9.66985
▁ההורים	-9.66992
זכויות	-9.67033
▁בתחילת	-9.67193
▁נותן	-9.67263
▁ניתוח	-9.67495
▁הורי	-9.67548
▁מפתח	-9.67585
-200	-9.67594
▁התחל	-9.67629
ity	-9.67689
▁לבדוק	-9.6769
▁עליי	-9.67723
▁השמש	-9.67821
▁בקר	-9.67885
▁מגיעים	-9.67898
כתוב	-9.679
▁מקצוע	-9.67948
▁מאמר	-9.67969
▁לבני	-9.67994
▁מאחר	-9.68107
▁מאושר	-9.6814
▁2017	-9.6816
▁ואפילו	-9.6816
▁ולאחר	-9.68237
▁חולים	-9.68323
▁קיימת	-9.68377
▁בקש	-9.68387
▁שאינם	-9.68483
▁2018	-9.68503
▁במה	-9.68536
▁בחדר	-9.68546
▁מראש	-9.68566
▁הרע	-9.68712
▁חושבת	-9.6875
K	-9.68757
▁לפתח	-9.68764
▁אזרחי	-9.68777
מסגרת	-9.68799
▁חוץ	-9.68802
▁דתי	-9.68884
▁עני	-9.68938
▁אסור	-9.68947
שפיע	-9.69073
סכום	-9.69131
▁אינטרנט	-9.69191
▁מחפש	-9.69209
ציג	-9.69211
▁נזק	-9.6924
▁הקש	-9.69244
▁נכתב	-9.69273
אמצעי	-9.69287
▁להבטיח	-9.69299
מלחמה	-9.69332
חשיב	-9.6934
שן	-9.69387
▁שותפ	-9.69452
▁רוסיה	-9.69497
▁המשתמש	-9.69533
▁ויותר	-9.69536
▁במאי	-9.69619
▁הקב	-9.69625
▁ביקור	-9.69669
תקדם	-9.69728
▁משפיע	-9.69736
▁ירי	-9.69863
▁ערכ	-9.69883
אוכלוסייה	-9.69908
▁סופ	-9.69956
▁כולו	-9.70002
אילו	-9.70019
▁שאפשר	-9.70038
▁מגוון	-9.70058
▁בינואר	-9.70064
▁מתאים	-9.70179
▁שכן	-9.70301
שחרר	-9.70426
▁העלי	-9.70434
▁מוט	-9.70448
סביר	-9.70466
הליך	-9.7048
▁נוסע	-9.70686
▁תוכניות	-9.70727
▁2013	-9.70756
▁הלימוד	-9.70756
▁סיכוי	-9.70768
נסיעה	-9.70772
▁לבקר	-9.7086
▁21	-9.70898
▁סינ	-9.70907
ניסיון	-9.70923
▁יקרה	-9.71016
מנט	-9.71063
▁עצמאי	-9.71107
▁שאמר	-9.71129
▁מביא	-9.71276
▁פיתוח	-9.71296
תחומי	-9.71357
▁העתיק	-9.71393
ינט	-9.71459
▁עזרה	-9.7148
▁מושג	-9.71484
▁בחברה	-9.71574
גזר	-9.71611
▁בצד	-9.71618
▁סופר	-9.717
▁דוד	-9.71764
קנה	-9.718
טיבי	-9.71814
▁מאיתנו	-9.71827
▁עזר	-9.71835
סמוך	-9.71963
▁יחסים	-9.72012
▁מדעי	-9.72019
ופיע	-9.72077
▁שער	-9.72097
פתרון	-9.72136
▁מתרחש	-9.72145
▁בערך	-9.72189
▁טקס	-9.72189
▁מחר	-9.72199
▁להעביר	-9.72206
▁לשימוש	-9.72265
▁מבצע	-9.72283
שיטה	-9.72397
▁יושב	-9.72409
▁עשית	-9.72423
500	-9.72479
▁במקר	-9.725
▁הנכון	-9.7253
▁גרוע	-9.72532
דוק	-9.72625
▁המודרני	-9.72708
בסיס	-9.72767
▁מוכנים	-9.72846
[	-9.72893
איכות	-9.72917
▁נשק	-9.72935
▁משחקים	-9.72948
▁מכונ	-9.72953
▁הכולל	-9.72954
▁לשעבר	-9.73068
▁היחסים	-9.73109
▁’	-9.73166
צטרך	-9.73243
▁אבו	-9.73267
תרגל	-9.73298
השוואה	-9.73492
▁מסע	-9.7354
▁ראשית	-9.73602
▁בלילה	-9.73671
▁2012	-9.73792
▁כבוד	-9.73828
ופק	-9.73836
נטר	-9.73859
ate	-9.73895
▁בשני	-9.74072
▁$	-9.74139
Q	-9.74143
j	-9.74143
▁חמור	-9.74181
▁מחבר	-9.74185
▁נהרג	-9.74187
▁דמי	-9.74201
▁נפרד	-9.74234
▁המספר	-9.74252
סמך	-9.74335
▁שאנשים	-9.74492
▁להסת	-9.7453
▁העובדים	-9.74581
▁ענק	-9.74627
▁תקשורת	-9.74678
משהו	-9.74824
▁התנהגות	-9.74872
▁חייו	-9.74916
▁מסיב	-9.74957
▁ברשת	-9.74969
▁עשיר	-9.7501
▁35	-9.75051
▁חינוך	-9.75059
▁רמת	-9.75101
ערכו	-9.75123
▁טרור	-9.7525
▁גורמים	-9.75258
הוסיף	-9.75346
▁ואין	-9.75455
▁מחפשים	-9.75517
תמיכה	-9.75523
▁הצורך	-9.75619
▁משנת	-9.758
▁פרופ	-9.75866
▁שאם	-9.75909
▁נאמר	-9.7591
▁החינוך	-9.75975
ot	-9.75987
▁לאפשר	-9.76006
▁שירותי	-9.76041
דרישות	-9.76042
מבנה	-9.76105
▁העליון	-9.76122
▁שנמצא	-9.76161
▁החלטה	-9.76271
הפך	-9.76279
▁לנצח	-9.76324
▁גוף	-9.7636
▁ביקורת	-9.76461
▁סול	-9.76523
התמקד	-9.76528
▁האחרים	-9.76535
▁איננו	-9.76541
▁2011	-9.76714
▁רצון	-9.76728
▁2010	-9.76729
▁סנט	-9.7674
סוכן	-9.76759
▁יומי	-9.76814
סיום	-9.76864
▁כרגע	-9.76874
▁ראה	-9.76974
רשויות	-9.77025
▁לזכור	-9.77053
▁מסוגלים	-9.77102
▁אמנות	-9.77181
זכור	-9.77194
קופ	-9.77198
אוניברסיטת	-9.77243
▁הפלסטינים	-9.77274
ight	-9.77274
▁חשיבות	-9.77303
▁בטח	-9.77335
ספר	-9.77359
▁אתמול	-9.77371
▁אנג	-9.77375
מוסדות	-9.77417
▁יוכל	-9.77495
▁מטוס	-9.77576
▁צבא	-9.77754
▁רגש	-9.77776
▁הבחירות	-9.77837
▁רציני	-9.77847
▁המילה	-9.77867
▁מתייחס	-9.77938
▁ביוני	-9.78027
▁האדמה	-9.78032
▁לסייע	-9.78112
שיר	-9.78119
▁סימ	-9.78154
▁בשנות	-9.78226
▁הרעיון	-9.78244
▁בוקר	-9.78284
▁דא	-9.78299
▁לבקש	-9.78314
▁נועד	-9.78353
▁בזכות	-9.78478
גשת	-9.78578
▁בספטמבר	-9.78592
▁גרמניה	-9.78608
▁המציאות	-9.78633
▁גבי	-9.7866
▁ניתנ	-9.78664
תכנית	-9.78745
▁בדצמבר	-9.78782
גובה	-9.78834
▁קוראים	-9.7886
▁נותנ	-9.78872
▁כבד	-9.78873
▁קני	-9.78888
העניק	-9.78917
ירידה	-9.78927
▁שעלי	-9.78964
▁מחויב	-9.78981
ינס	-9.79059
▁העור	-9.79079
▁מסוימת	-9.79164
מומחים	-9.7917
▁מבינים	-9.79192
נשיא	-9.79312
▁Y	-9.79313
▁לשאול	-9.7936
מאמץ	-9.79372
▁שזו	-9.79385
▁לצפות	-9.79407
תכנון	-9.79465
▁עיצוב	-9.79547
▁חמישה	-9.79633
▁מכשיר	-9.79703
▁משפטי	-9.79705
▁אמנם	-9.79739
▁התרבות	-9.79828
▁קפה	-9.79878
▁המון	-9.79884
▁להכיר	-9.79906
▁הרוסי	-9.80069
▁יוכלו	-9.80082
לפתוח	-9.80168
קבוצה	-9.80197
▁להסביר	-9.802
▁לילה	-9.80215
▁איבד	-9.80258
▁קרב	-9.80266
▁מרי	-9.80344
▁ישוע	-9.80396
▁מומלץ	-9.80506
▁סיבות	-9.80571
▁23	-9.80588
ציין	-9.80602
טוב	-9.80742
▁הזוג	-9.80752
▁נור	-9.80784
▁חומ	-9.80847
▁לחפש	-9.80851
▁להאמין	-9.80901
▁לבוא	-9.80921
חבורה	-9.8093
▁סא	-9.80984
הסכם	-9.81069
▁שכבר	-9.81139
עדיין	-9.81153
אפ	-9.81207
Z	-9.81282
▁חיוני	-9.8133
▁‘	-9.81333
▁דור	-9.81339
צרכים	-9.81344
ישראל	-9.8139
ine	-9.81533
▁יסוד	-9.81566
▁פרטים	-9.81568
▁Ho	-9.81587
▁להפסיק	-9.81679
▁מזל	-9.81722
▁הפרס	-9.81731
שקיע	-9.81871
▁בימים	-9.81897
▁פתח	-9.81903
עידן	-9.81913
▁22	-9.8201
▁לאתר	-9.82056
הזדמנויות	-9.82064
לחץ	-9.82163
▁נמוך	-9.82266
נשק	-9.82365
▁שיתוף	-9.82448
תגובות	-9.82664
▁במערכת	-9.82667
ha	-9.82672
?"	-9.82674
▁ראו	-9.82688
▁הצבע	-9.82718
▁החלטת	-9.82759
▁ואנחנו	-9.82778
פרש	-9.8283
▁v	-9.82835
▁נדיר	-9.82872
דוד	-9.82893
▁אפשרויות	-9.82949
▁כשהי	-9.8295
מחצית	-9.82993
▁התל	-9.83031
▁בשטח	-9.83057
▁עמוד	-9.83143
▁בהמשך	-9.83224
▁האנרגיה	-9.83249
▁ההחלטה	-9.83249
▁לטיפול	-9.83251
מועדון	-9.83259
▁מכתב	-9.83268
▁התקשורת	-9.83281
▁בקרוב	-9.83324
▁הביא	-9.83443
אחת	-9.83474
▁ידעתי	-9.83809
▁ביולי	-9.83845
▁הולכים	-9.83866
▁תשובה	-9.83875
▁חשבון	-9.83882
▁ספציפי	-9.83925
▁החודש	-9.83943
יימס	-9.84113
-15	-9.84117
▁אפריקה	-9.84247
▁שנתיים	-9.84276
▁ישירות	-9.8431
עמוד	-9.84356
▁הימים	-9.84363
▁נוכל	-9.84409
▁De	-9.84446
▁באוקטובר	-9.84447
▁נורא	-9.84487
os	-9.84496
▁קא	-9.84649
לבד	-9.84654
▁הפנימי	-9.84657
▁הקדוש	-9.84659
-10	-9.84704
▁הארי	-9.84739
▁לכולם	-9.84741
ci	-9.84749
▁סעי	-9.84776
ומב	-9.84819
▁לשני	-9.8482
▁לנקו	-9.8492
▁פעולות	-9.85049
▁אזרחים	-9.85162
ard	-9.85264
▁הגב	-9.85277
▁הודיע	-9.85304
im	-9.85314
קידום	-9.85314
▁רעיון	-9.8538
מובן	-9.85404
▁קיימים	-9.85434
▁ביטוח	-9.85469
▁הכלב	-9.85517
זציה	-9.85606
▁אליהם	-9.8565
▁תיק	-9.85677
▁מציג	-9.85724
▁העניין	-9.85835
מראה	-9.85845
מזג	-9.85856
▁להציל	-9.85911
התנגדות	-9.85977
▁הצד	-9.86007
▁ביטחון	-9.86069
▁עצמנו	-9.86069
▁החלטות	-9.86115
▁הדם	-9.86137
▁..."	-9.86166
גרמניה	-9.86172
פגיעה	-9.86208
▁השק	-9.86232
▁הופיע	-9.86257
▁ברוב	-9.86273
▁הפנים	-9.86295
▁פנימי	-9.864
אבל	-9.86475
▁בחזרה	-9.86479
▁דמוקרטי	-9.86593
▁הסכמ	-9.86597
▁החול	-9.8667
▁משקל	-9.86707
▁עור	-9.86812
ישור	-9.86824
▁בחשבון	-9.86875
▁תקופת	-9.86902
-1	-9.86917
אבי	-9.87046
פסיד	-9.87214
▁מקומות	-9.87221
▁נהג	-9.87344
▁בנובמבר	-9.87509
▁המקצוע	-9.87509
▁שומע	-9.87554
▁היהודית	-9.87564
▁לחיים	-9.87636
▁להימנע	-9.87666
▁ממני	-9.87688
▁בעבודה	-9.8777
רשימת	-9.87776
כזב	-9.88026
בחון	-9.88069
▁במשחק	-9.88138
▁אישור	-9.88173
▁לבן	-9.88197
to	-9.88203
▁השוק	-9.88239
▁בכוח	-9.88298
▁מכר	-9.88334
▁מטרת	-9.88336
▁התלמידים	-9.88342
נדר	-9.88437
עריך	-9.88476
▁ברמ	-9.88573
▁כלשהו	-9.88576
▁עזב	-9.88619
גנים	-9.88662
▁סוכר	-9.88877
▁הסיני	-9.88954
▁2016	-9.8897
▁נפלא	-9.88991
קבוצות	-9.89144
▁במספר	-9.89211
sh	-9.8928
;	-9.89353
▁האישה	-9.89383
▁סטודנטים	-9.89392
▁2009	-9.89428
טיקה	-9.89521
▁מזרח	-9.89566
▁השטח	-9.89615
▁פירוש	-9.8963
▁התמונה	-9.8965
▁הנשים	-9.89677
▁היתר	-9.89715
▁עתה	-9.89745
▁לטפל	-9.89749
▁השלום	-9.89806
▁מוזר	-9.89933
▁Co	-9.89958
▁דובר	-9.90034
עצים	-9.901
▁הודו	-9.90108
▁משטר	-9.90221
▁[...]	-9.9024
▁שמונה	-9.90255
▁הציבורי	-9.90404
▁מבטיח	-9.90427
▁איתם	-9.90511
▁הוסיף	-9.90615
▁במחקר	-9.90615
▁חיפוש	-9.90671
▁דלק	-9.90704
▁דוח	-9.9071
איפה	-9.9074
הערכה	-9.90757
▁מקל	-9.90768
he	-9.90839
▁בסך	-9.90896
עקרונות	-9.90899
▁בשעה	-9.90972
▁70	-9.90988
▁שינה	-9.90998
נטל	-9.9104
▁ארוכה	-9.91102
▁הצרפתי	-9.91117
est	-9.91226
▁לעבר	-9.91274
op	-9.91345
שבע	-9.91416
▁האפשרות	-9.91628
מחנה	-9.91647
▁בגוף	-9.91653
▁הצבאי	-9.91656
▁הגבול	-9.91674
▁מטרות	-9.91768
▁הממשל	-9.91791
ly	-9.91848
▁תעש	-9.919
▁Mo	-9.91901
▁הלווא	-9.91946
▁באוגוסט	-9.91959
▁ביניהם	-9.91962
▁הצדדים	-9.91971
▁עדיף	-9.91993
עיתון	-9.92047
▁נקי	-9.92282
שעות	-9.92287
ארגון	-9.92293
em	-9.92297
ארד	-9.9233
▁80	-9.92338
▁סקר	-9.92375
▁נפתח	-9.92383
פלג	-9.92398
▁מחזיק	-9.92399
שיתוף	-9.9247
אולם	-9.92512
שחרור	-9.92521
לבוש	-9.92549
▁בבתי	-9.92629
▁קבלת	-9.92659
▁לרכוש	-9.92683
and	-9.92703
▁התמ	-9.92817
▁לחיי	-9.92823
▁למצב	-9.92901
▁שלילי	-9.92904
▁ארץ	-9.93009
▁לעזוב	-9.9305
▁האנושות	-9.9305
▁משפחות	-9.93174
▁עולמי	-9.93257
▁לצורך	-9.93276
▁ברחוב	-9.93277
▁You	-9.93279
▁רוחני	-9.93309
ציל	-9.93353
10	-9.9339
▁לעצור	-9.9342
▁בשמ	-9.93456
▁ביטוי	-9.93494
רבע	-9.93495
▁2008	-9.93522
▁התהליך	-9.93545
אתגרים	-9.93689
▁בירושלים	-9.93707
▁שליטה	-9.93715
ti	-9.93761
תוכנית	-9.93769
קושי	-9.93874
שאלו	-9.93903
▁מוחלט	-9.93983
▁נכונה	-9.94002
▁הגנה	-9.94028
▁הפעולה	-9.94152
▁לנהל	-9.94266
▁36	-9.9427
▁מוקד	-9.94295
▁צריכ	-9.94342
חמאס	-9.9435
▁המוביל	-9.94367
▁פוטנציאל	-9.94371
▁מודרני	-9.94382
▁בימי	-9.944
▁אינן	-9.94437
▁for	-9.94442
▁להציג	-9.9448
▁נמוכה	-9.94596
▁סרטן	-9.94649
▁רמות	-9.94712
▁בסין	-9.94719
▁מועמד	-9.94739
ביעות	-9.94756
ֲ	-9.94816
סמכות	-9.9496
▁de	-9.9498
▁חור	-9.95015
▁בריטניה	-9.95039
▁לזהות	-9.9507
mo	-9.95111
▁במזרח	-9.9516
▁גאו	-9.95211
▁צודק	-9.95273
עניין	-9.95296
▁צדק	-9.95382
▁אופן	-9.95414
התפתחות	-9.95442
תזונה	-9.95452
▁עונה	-9.95527
▁ירוק	-9.95573
▁מצרים	-9.95573
▁קורס	-9.95607
▁אוטומטי	-9.95712
חלוקת	-9.95727
היבט	-9.95777
▁אורח	-9.95794
▁28	-9.95824
▁סתם	-9.95896
▁קדימה	-9.95942
▁בחוץ	-9.95943
▁מותר	-9.9598
▁נציג	-9.95991
▁הרגשת	-9.96041
▁תואר	-9.96136
ke	-9.9614
▁המשמעות	-9.96171
▁בהיסטוריה	-9.96181
מדינת	-9.96222
▁&	-9.96342
מסמכים	-9.96413
-18	-9.96425
▁2007	-9.96425
▁דנ	-9.96469
משיכו	-9.96501
▁גרם	-9.96524
▁ליום	-9.96545
קרן	-9.96562
▁אלקטרוני	-9.96573
-5	-9.96656
סוכנות	-9.96802
▁>	-9.96835
עצמאות	-9.96844
▁נעש	-9.96961
▁גודל	-9.96983
▁פרסום	-9.96993
תחנת	-9.97027
▁2019	-9.97071
▁הנפש	-9.97144
▁26	-9.97178
▁טכני	-9.972
▁הלקוחות	-9.9724
▁ילדי	-9.97302
▁בבקשה	-9.97314
▁לישון	-9.97336
▁להראות	-9.97417
שוחרר	-9.9743
▁התגל	-9.97437
▁בודד	-9.97447
תיקון	-9.9745
חומר	-9.9749
התקדמות	-9.97511
▁מנסים	-9.97519
▁מבוגר	-9.97537
▁חברתית	-9.97696
▁אנדר	-9.97713
יישב	-9.97877
▁לקבוע	-9.97988
▁תשלום	-9.97991
▁האהבה	-9.97992
▁הסבר	-9.98064
עצם	-9.98135
▁המילים	-9.98141
תרגום	-9.98299
▁נפגש	-9.98349
▁כנגד	-9.98452
▁לגיל	-9.98487
ub	-9.98519
נך	-9.98535
▁מדהים	-9.98538
נוכחות	-9.98542
תחומים	-9.9855
▁לציין	-9.98634
▁פתאום	-9.9868
▁הסביבה	-9.98682
טענה	-9.98813
▁סבל	-9.98819
▁טלוויזיה	-9.98912
▁הרשמי	-9.98971
דרש	-9.98971
גורמים	-9.99025
▁קווי	-9.99081
▁קבע	-9.9921
תערב	-9.99215
▁התוצאות	-9.99336
▁מזכיר	-9.99384
▁מציאות	-9.99447
מדענים	-9.99474
▁?”	-9.99543
הוצאות	-9.99575
▁לשינוי	-9.99626
▁45	-9.99697
▁לממש	-9.99802
▁באפריל	-9.99847
▁אלינו	-9.99897
▁עליכם	-9.99964
▁וידאו	-10.001
▁תומכ	-10.001
▁ליהנות	-10.0018
▁הרחב	-10.0019
▁הצלחה	-10.0032
▁עמו	-10.0036
▁איתי	-10.0042
▁יגיע	-10.0048
השפעות	-10.0049
X	-10.0053
▁להציע	-10.006
▁שהגיע	-10.007
דיאט	-10.0071
פקיד	-10.0074
▁בפברואר	-10.0079
▁מוצלח	-10.0079
▁בעניין	-10.008
▁שניהם	-10.0087
▁#	-10.0088
יעילות	-10.0093
מערכת	-10.0103
▁מידי	-10.011
ap	-10.0113
▁התפתחות	-10.0114
▁לחוק	-10.0114
▁לבסוף	-10.0122
▁עורך	-10.0123
▁לפתור	-10.0128
na	-10.0138
▁קיר	-10.0142
▁המנהל	-10.0146
▁מוזיקה	-10.015
אובדן	-10.0153
ערכים	-10.0153
ment	-10.0155
▁נמל	-10.0173
▁להוציא	-10.0174
▁מדויק	-10.0175
▁כזאת	-10.0182
▁זמין	-10.019
ציונ	-10.0194
רוסי	-10.0206
▁נוכח	-10.0217
▁ישיר	-10.0224
▁בתהליך	-10.0226
▁2000	-10.0235
▁דרום	-10.0235
עשתה	-10.0239
▁מרבית	-10.0241
▁ההגנה	-10.0246
▁תשע	-10.0252
▁חייהם	-10.0256
▁27	-10.0258
▁מחלק	-10.0266
▁פופולרי	-10.027
▁לעצמי	-10.027
▁אוניברסיטת	-10.0274
▁La	-10.0277
▁רצה	-10.0279
▁Lo	-10.0281
מגוון	-10.0282
▁אלכוהול	-10.0283
משאבים	-10.0296
▁מלמד	-10.03
כשיר	-10.0312
▁הקרב	-10.0314
▁הבדל	-10.0316
▁קטנות	-10.0319
▁ערבי	-10.0321
one	-10.0321
▁פרש	-10.033
שגריר	-10.0331
▁החברות	-10.0334
▁הוכח	-10.0334
▁נקודת	-10.0345
▁הסיכון	-10.0347
-30	-10.035
▁לדבריו	-10.0361
▁לטובת	-10.037
מכון	-10.037
▁במטרה	-10.037
▁תחרות	-10.0371
Y	-10.0371
מץ	-10.0373
כמות	-10.0386
אמין	-10.0388
׳	-10.0391
▁מסתכל	-10.0393
ייחס	-10.0396
▁השפה	-10.0398
▁קובע	-10.0403
▁רכיש	-10.0418
״	-10.0421
נסיבות	-10.0424
▁כשאני	-10.0438
▁האהוב	-10.0443
▁מיליוני	-10.046
השקעות	-10.0465
▁הלקוח	-10.0472
חנויות	-10.0472
דפס	-10.0473
▁מושלם	-10.0477
למידה	-10.0478
▁מתאר	-10.048
▁בקשר	-10.0484
▁זכה	-10.0488
▁בפועל	-10.049
מודעות	-10.0494
▁מסביר	-10.0497
▁העונה	-10.0497
▁המסחר	-10.0503
רשם	-10.051
מבוגרים	-10.0514
▁הדמוקרטי	-10.0515
bo	-10.0523
▁איתך	-10.0524
▁+	-10.0528
מועצת	-10.054
▁למכור	-10.054
▁ואיך	-10.0545
▁לעלות	-10.0553
▁90	-10.0553
קצה	-10.0555
▁Pro	-10.0558
תופעה	-10.0564
▁עץ	-10.0565
דמויות	-10.0572
שליטה	-10.0574
התחלתי	-10.0584
▁נחמד	-10.0588
עוצמה	-10.0592
קורא	-10.0593
▁מקרים	-10.0595
במסגרת	-10.0596
יישום	-10.0607
=	-10.0614
▁להוביל	-10.0615
▁לוודא	-10.0635
▁תכונות	-10.0636
▁שיער	-10.0636
ָּ	-10.0638
משפחת	-10.0656
▁בערב	-10.0662
▁(19	-10.0663
▁לעצמו	-10.0664
▁בניגוד	-10.0664
הצג	-10.0667
▁מייצג	-10.0676
יצירה	-10.0678
▁רעיונות	-10.0681
▁הפלסטינית	-10.0689
▁נעצר	-10.069
רכוש	-10.0692
our	-10.0693
▁Be	-10.0711
▁מיידי	-10.0712
▁פעמיים	-10.0714
▁ואינ	-10.0724
אופן	-10.0735
▁אגב	-10.0737
▁התנועה	-10.0739
▁במחיר	-10.074
▁הבלתי	-10.0745
כתיבה	-10.0751
הפחית	-10.0764
▁יציב	-10.078
▁רוס	-10.078
▁לנשים	-10.0785
▁תנועה	-10.079
▁צפון	-10.0793
▁הקודם	-10.0795
pp	-10.08
יטול	-10.08
▁גזע	-10.0814
▁תרומ	-10.0817
איש	-10.0818
▁החלל	-10.0821
תרופות	-10.0841
מכירות	-10.0846
▁מלון	-10.0851
▁תחילת	-10.0854
▁נהר	-10.0863
▁דק	-10.0865
▁עצמכם	-10.0866
▁הבחירה	-10.0866
▁בינתיים	-10.0867
▁בוגר	-10.0867
▁Sh	-10.087
▁Un	-10.0873
▁במילים	-10.0874
▁משפחתי	-10.0874
יהודים	-10.0905
בסס	-10.091
פשוט	-10.0913
ראיון	-10.092
▁ספינ	-10.0928
▁אזרח	-10.0931
▁בסיסי	-10.0946
נדל	-10.0947
▁ההזדמנות	-10.0969
▁רלוונטי	-10.0969
▁הרביעי	-10.0969
▁הידוע	-10.097
▁מותו	-10.0987
▁כשאתה	-10.099
▁המפתח	-10.0993
▁שונא	-10.101
עשייה	-10.1011
▁הבוקר	-10.1024
▁בשירות	-10.1027
מימון	-10.1027
ca	-10.1028
▁נפגע	-10.103
io	-10.1039
הגדיר	-10.104
▁כשהם	-10.1043
▁לחלק	-10.1043
דבק	-10.1049
▁בשימוש	-10.1051
▁Com	-10.1051
▁לשתף	-10.1053
▁Ex	-10.1055
▁עוסק	-10.1062
▁ראשונה	-10.1073
▁החוצה	-10.1076
▁המחלה	-10.1078
תקפות	-10.109
מעגל	-10.1097
▁השחור	-10.1103
▁קיומ	-10.1104
▁הבנתי	-10.1105
ודאי	-10.1113
▁סימן	-10.1122
▁סקס	-10.1125
▁פתרונות	-10.1126
▁אנגלית	-10.1126
▁שחקנים	-10.1127
▁ספרד	-10.1135
▁הורים	-10.1144
▁מניח	-10.1145
▁חרד	-10.1149
▁מעוניינ	-10.1153
▁חיצוני	-10.1153
▁החוקרים	-10.1156
▁Ar	-10.1164
▁הגעת	-10.117
▁הכפר	-10.1172
▁למרב	-10.1175
ניצחון	-10.1178
▁אנא	-10.118
בגד	-10.118
▁מסביב	-10.1181
יתכן	-10.1181
אוסף	-10.1182
דול	-10.1186
▁הרוחני	-10.1191
תוספת	-10.1191
▁השונים	-10.1192
▁הרוב	-10.1206
▁הפועל	-10.1207
▁ממך	-10.1212
▁טוענ	-10.1212
יפוי	-10.1218
כולנו	-10.1227
▁נתניהו	-10.1232
▁המטופל	-10.1232
▁החיפוש	-10.1232
no	-10.1247
▁אמצע	-10.1254
▁שקיבל	-10.126
▁קדוש	-10.126
▁Th	-10.1261
▁הטרור	-10.1262
אבא	-10.1267
▁פלסטינים	-10.128
▁Ro	-10.1283
גרסה	-10.1287
▁מודל	-10.1288
שלושה	-10.1289
▁התייחס	-10.129
ph	-10.1304
▁הרגיל	-10.1305
▁הקמת	-10.1305
▁Le	-10.1308
▁ריב	-10.1316
חוסר	-10.1317
pe	-10.1318
▁ארגוני	-10.1323
▁מוסרי	-10.1334
▁במשרד	-10.1341
ook	-10.1342
▁Google	-10.1342
▁סיכון	-10.1344
▁ניסוי	-10.1344
▁שקורה	-10.1345
▁למדינה	-10.1359
▁מפחד	-10.1367
▁הקיץ	-10.1384
av	-10.1385
▁מרק	-10.1385
▁אפל	-10.1396
▁היעד	-10.14
▁קישור	-10.1414
תקשורת	-10.1416
▁לפגוע	-10.1419
▁דופן	-10.142
▁בצפון	-10.142
▁הוביל	-10.1444
▁באנגלית	-10.1446
תיאטרון	-10.1446
▁מחכ	-10.1447
▁2006	-10.1451
▁התפקיד	-10.1452
▁סקי	-10.1454
▁בהרבה	-10.1468
▁הממוצע	-10.1473
▁הראשונות	-10.1474
▁מקרי	-10.1483
▁יקבל	-10.1486
▁החדר	-10.1497
▁גלי	-10.15
▁לשמש	-10.1507
▁Con	-10.1511
▁בלעדי	-10.1533
▁הדלת	-10.1549
▁מלך	-10.1552
תפילה	-10.1553
▁An	-10.1555
▁העיניים	-10.1557
▁בצרפת	-10.1557
ark	-10.1557
תוכניות	-10.156
▁הכנסת	-10.1564
▁כלבים	-10.1564
▁נכס	-10.1564
וכנת	-10.157
▁לאהוב	-10.1577
חשבון	-10.1584
▁כחלק	-10.1584
▁נגמר	-10.1596
▁צורה	-10.1601
▁שבא	-10.1621
▁ומתן	-10.1627
12	-10.1638
▁מטופל	-10.1639
▁לשלוט	-10.1639
▁הלבן	-10.1642
▁שיחק	-10.1642
רקע	-10.1645
▁To	-10.1647
▁תקווה	-10.1667
▁בתפקיד	-10.1669
▁המשק	-10.1678
per	-10.1684
▁בחירה	-10.1685
▁להחליט	-10.1694
der	-10.17
▁ריצ	-10.1703
גישות	-10.1704
▁פותח	-10.1706
▁!!	-10.1707
▁אמונה	-10.1716
דיכאון	-10.1721
בחן	-10.1731
▁סגור	-10.1732
▁המהיר	-10.1735
ניצול	-10.1738
וודא	-10.1741
▁להצטרף	-10.1745
▁הוועדה	-10.1749
▁עיתונאי	-10.1749
▁הצלחת	-10.175
▁גבולות	-10.175
▁הסופי	-10.1753
▁פשע	-10.176
▁שנקרא	-10.1768
קהילות	-10.1779
ell	-10.1785
▁הקטן	-10.1786
age	-10.1791
▁משתנה	-10.1795
▁נרחב	-10.1807
משימות	-10.1807
▁מאמצ	-10.181
▁ואולי	-10.181
צוץ	-10.1812
▁ההיסטורי	-10.1818
▁הקהל	-10.1821
▁גרמני	-10.1831
^	-10.1834
▁אנטי	-10.1839
vi	-10.1842
▁החוב	-10.1843
▁מצביע	-10.185
מזל	-10.1858
▁להילחם	-10.1862
עקוב	-10.1864
▁אקדמי	-10.1864
להשפיע	-10.1867
▁עבודות	-10.1868
po	-10.1885
▁ההשפעה	-10.189
השתתפות	-10.1902
שוויון	-10.1905
▁חשש	-10.1913
▁הולדת	-10.1916
▁החברים	-10.1925
▁להשקיע	-10.1926
▁השופט	-10.1926
▁הבסיסי	-10.1928
משפחות	-10.1934
מבחן	-10.194
▁אדמה	-10.1942
ex	-10.1946
▁בבריטניה	-10.1947
▁השחקנים	-10.1947
▁מסלול	-10.1953
▁היסוד	-10.1954
▁הנדרש	-10.1959
▁מוסלמי	-10.1963
אוס	-10.1968
▁ניכר	-10.1974
מיומנויות	-10.1976
קונגרס	-10.1976
▁למטה	-10.1981
▁נראית	-10.1987
▁בלונדון	-10.2004
▁בדיקות	-10.2005
▁מפתיע	-10.2006
▁אסיר	-10.201
▁הכדור	-10.2011
▁סבור	-10.2013
ack	-10.2014
▁להחזיר	-10.2022
The	-10.2023
יבוש	-10.2026
פרלמנט	-10.2034
▁להכין	-10.2036
▁ללמד	-10.2038
רוט	-10.2039
▁הרגל	-10.2042
השגת	-10.2044
▁מרוב	-10.2055
סטון	-10.2061
-12	-10.2062
▁גרעיני	-10.2063
▁Wi	-10.2069
▁עצב	-10.2083
ak	-10.2084
▁לשבת	-10.2085
אומץ	-10.2089
▁ניצח	-10.2093
▁מתקש	-10.2093
▁סוריה	-10.2094
▁סוס	-10.2105
▁טיול	-10.2115
ְּ	-10.2116
▁לעובד	-10.2121
▁במרץ	-10.2122
▁נאלצ	-10.213
▁נפטר	-10.2137
▁בסביבה	-10.2149
▁פוסט	-10.2156
▁אדום	-10.2156
▁העובד	-10.2159
▁חתול	-10.2162
זיהום	-10.2167
▁פלא	-10.2167
30	-10.2175
▁הרפואי	-10.2178
▁ממשיכים	-10.2178
▁מתכוון	-10.2179
▁כלשהי	-10.2182
▁חוויה	-10.2182
▁תגיד	-10.2186
▁הלכת	-10.2189
▁לחתו	-10.2196
שמעתי	-10.2203
טוען	-10.2208
▁נורמלי	-10.2209
▁שעשו	-10.2212
איראן	-10.2218
▁העלו	-10.2228
▁ובכן	-10.223
▁שהייתה	-10.2238
מדריך	-10.2244
תודעה	-10.2248
תקף	-10.2248
תיבת	-10.2253
עימות	-10.2257
ud	-10.2259
כעס	-10.2261
▁לענות	-10.2262
▁אכפת	-10.2266
ייעוץ	-10.2267
▁נמנע	-10.2267
▁פלסטיני	-10.2271
▁המסע	-10.2282
–	-10.2287
הכנסות	-10.2287
▁תגובה	-10.229
▁Windows	-10.2295
סכסוך	-10.2295
▁חינם	-10.2296
ant	-10.2298
▁ובכך	-10.2304
▁לקרות	-10.2318
▁מעצב	-10.232
▁לתמוך	-10.2325
▁שתוכל	-10.2326
▁כפול	-10.2329
צטרף	-10.2332
▁הקרקע	-10.2333
▁29	-10.2343
▁רוק	-10.2351
▁הופ	-10.236
טעויות	-10.2366
▁המאמר	-10.237
▁מחיי	-10.2372
אינטרסים	-10.2385
▁לקדם	-10.2388
תפקוד	-10.239
ריכוז	-10.2396
▁אהבתי	-10.2397
▁המסורת	-10.241
▁WEB	-10.2414
▁לדאוג	-10.2414
גדיל	-10.2415
▁תכנ	-10.2417
צמח	-10.2425
▁פריט	-10.2428
31	-10.2436
הלכה	-10.2441
▁נשלח	-10.246
▁מנוע	-10.2463
ran	-10.2467
גרום	-10.2471
▁בהתחלה	-10.2474
▁בתקופת	-10.2474
▁הקריירה	-10.2475
▁בענ	-10.2475
▁הודעה	-10.2475
▁שיווק	-10.2477
▁הכרחי	-10.248
▁פעילויות	-10.2484
▁עורכי	-10.2492
▁האקדמי	-10.2505
קמפיין	-10.2505
▁במשקל	-10.2505
▁הקודש	-10.2507
▁מסורתי	-10.2507
מיטב	-10.253
▁ללקוחות	-10.2535
▁לכאורה	-10.2535
▁לונדון	-10.2535
-16	-10.2544
▁להסתכל	-10.2546
קחו	-10.2559
▁יופי	-10.256
▁שאומר	-10.2566
▁תמצא	-10.2573
מעולם	-10.2582
▁טווח	-10.2586
מלחמת	-10.2596
▁העצמי	-10.2596
מקום	-10.2597
▁Al	-10.26
▁האנגלי	-10.26
▁מכאן	-10.2613
▁המהפכה	-10.2623
▁להוכיח	-10.2626
▁הנכונה	-10.2626
▁נראים	-10.2629
▁הנאצי	-10.2637
if	-10.2641
▁יבוא	-10.2643
▁הפיזי	-10.2645
▁ציור	-10.2646
פוא	-10.2657
ימצא	-10.2659
▁המוסלמי	-10.266
▁הפוסט	-10.2668
ארצות	-10.267
▁בתא	-10.2679
▁הבינ	-10.2682
ארג	-10.2683
▁פארק	-10.2692
▁להתייחס	-10.2695
יעשה	-10.2699
▁להחליף	-10.2707
▁המוזיקה	-10.2718
▁קיימות	-10.2719
▁להעלות	-10.2721
▁שופט	-10.2725
▁באשר	-10.2726
מבנים	-10.2726
סתיר	-10.273
פעולות	-10.2731
ראיתי	-10.2749
▁בהכרח	-10.2749
▁המשימה	-10.275
▁פליט	-10.2751
▁נתקל	-10.2754
▁בשפה	-10.2776
אינני	-10.2779
▁להוריד	-10.2781
ber	-10.2784
קשיים	-10.2785
רכז	-10.279
▁המקרים	-10.279
חווה	-10.2793
▁שומן	-10.2796
▁מניע	-10.2804
▁פרנק	-10.2812
▁קוריאה	-10.2814
▁חיבור	-10.2818
▁המטוס	-10.2832
▁הביקור	-10.2843
▁המכשיר	-10.2848
▁שיניים	-10.2856
▁להשתתף	-10.2863
▁נלח	-10.2872
▁קיצוני	-10.2875
▁לחכות	-10.2878
קיימים	-10.2882
▁אמון	-10.2893
▁פיננסי	-10.2905
▁השינה	-10.2906
▁איתנו	-10.2908
▁יחס	-10.292
הכרה	-10.2923
מלכות	-10.2926
▁כאמור	-10.2936
תקבלו	-10.2953
▁דומים	-10.2956
▁אבטחה	-10.2969
▁רחוב	-10.2969
פשר	-10.2981
▁מאמינ	-10.2987
▁במקביל	-10.2999
▁לחקור	-10.3012
▁המבוסס	-10.3031
tic	-10.3032
היקף	-10.3044
▁200	-10.3059
▁מיועד	-10.3065
▁מרחב	-10.3066
▁2005	-10.3068
▁No	-10.3073
▁העשיר	-10.3077
▁מכוניות	-10.3085
▁מעולה	-10.309
▁רשות	-10.3092
שבועיים	-10.3095
▁פסיכולוגי	-10.3095
▁לעסק	-10.3095
▁מחלה	-10.3102
הצעות	-10.3102
החיים	-10.3108
הנחה	-10.3114
מהלך	-10.3115
▁לשלב	-10.3126
▁בעצמו	-10.3127
▁איטליה	-10.3127
קורבנות	-10.3131
▁אמריקני	-10.3134
-17	-10.3137
חשוף	-10.3144
▁להודו	-10.3149
תופעות	-10.3159
▁עתיק	-10.3163
סיכונים	-10.3165
▁בער	-10.3169
▁תחושת	-10.3191
נישואים	-10.3191
▁ממליצ	-10.3192
▁החזר	-10.3195
▁מתכוונ	-10.3196
תוצאות	-10.3223
▁החשמל	-10.3224
פקח	-10.3225
▁בסוריה	-10.3225
▁מחובר	-10.3226
עזור	-10.3232
שוחח	-10.3245
מדינה	-10.3246
▁מכונית	-10.3249
▁מונע	-10.3255
▁המנהיג	-10.3257
▁המשרד	-10.3259
▁נקבע	-10.3264
ימנע	-10.3284
▁שימש	-10.3287
צטרכו	-10.3289
▁הגיוני	-10.3293
▁להשלים	-10.3294
קובץ	-10.3306
▁השד	-10.3309
▁מסוימות	-10.3321
▁העיצוב	-10.3321
▁הכלכלה	-10.3323
▁הולכת	-10.3325
ru	-10.3328
צהיר	-10.3329
▁כחול	-10.3329
▁מעניק	-10.333
ord	-10.3335
מדבר	-10.3339
ספיק	-10.3349
▁ביצע	-10.3355
▁נוהג	-10.336
כישלון	-10.3361
▁עצומ	-10.3363
▁לשתות	-10.3363
IS	-10.3371
▁בחינם	-10.3387
▁יפן	-10.3398
סבלנות	-10.3414
מעמד	-10.3417
▁מתמקד	-10.342
▁לטווח	-10.3421
▁אליך	-10.3428
עוצמת	-10.3435
שנאה	-10.345
עומק	-10.3457
התחשב	-10.3459
▁לפיכך	-10.3459
▁הכניסה	-10.3467
▁דיגיטלי	-10.3486
▁כדורגל	-10.3504
▁מועיל	-10.351
▁שיטת	-10.3511
▁בקנ	-10.3517
\	-10.352
▁להחזיק	-10.352
▁כואב	-10.3521
▁ממשלה	-10.3529
אריך	-10.3533
תועלת	-10.354
▁סירב	-10.3541
▁לציבור	-10.3554
▁זכרו	-10.356
▁קהל	-10.3568
▁הירח	-10.3575
▁האחריות	-10.358
▁הסיבות	-10.3591
מלחמות	-10.3593
ׁ	-10.3606
כאשר	-10.3608
▁הדרומי	-10.362
▁הסיכוי	-10.3621
▁המכונית	-10.3626
▁נתפס	-10.3626
▁הפוטנציאל	-10.3654
▁רשימה	-10.3655
▁הלך	-10.3658
q	-10.3665
רמז	-10.3667
העולם	-10.3671
▁לרדת	-10.3679
▁להשאיר	-10.3688
▁בקיץ	-10.3692
▁הצפוני	-10.3695
▁השאלות	-10.3697
▁נייר	-10.3701
▁החוף	-10.3704
סיס	-10.3708
▁משרת	-10.371
▁איננה	-10.3712
▁המיוחד	-10.3722
▁בעיית	-10.3727
▁לכאן	-10.3736
▁עונש	-10.3738
▁תחילה	-10.374
▁החמישי	-10.3743
▁שייכ	-10.3747
▁להגדיל	-10.375
▁הטלוויזיה	-10.3756
▁הפופולרי	-10.3756
▁קילומטר	-10.3756
▁טעם	-10.3761
▁רשאי	-10.3762
▁כאלו	-10.3763
▁מרגש	-10.3763
▁נכשל	-10.3767
▁עמית	-10.3773
US	-10.3773
▁יעזור	-10.3784
מסקנה	-10.3785
▁בבחירות	-10.379
▁האדום	-10.3792
תפיסה	-10.3792
▁מגלה	-10.3806
▁רוברט	-10.3809
▁נובע	-10.3809
▁מוגדר	-10.3815
▁הפחד	-10.3831
עיתונות	-10.3837
▁להשתנות	-10.3844
▁באיזו	-10.3845
▁לתאר	-10.3846
▁גורל	-10.3848
▁מוזיאון	-10.3859
▁לתלמיד	-10.3859
▁ממוצע	-10.3859
▁גופנית	-10.3859
▁שוטר	-10.3878
▁המלון	-10.388
▁פגיש	-10.3892
▁מתנגד	-10.3895
מסור	-10.3898
▁ביקר	-10.3905
הזמנה	-10.3906
חשבונות	-10.3917
שטיין	-10.3919
▁ציפור	-10.3922
▁תאריך	-10.393
▁התורה	-10.3932
השכלה	-10.3936
▁בחירות	-10.3938
▁השיב	-10.3941
▁75	-10.3942
▁לוותר	-10.3944
הבנת	-10.3953
▁לסרט	-10.3958
▁המוזיאון	-10.3998
▁לנסוע	-10.3998
ייצג	-10.3999
▁קאר	-10.4
▁בינינו	-10.4002
▁השלטון	-10.4005
▁התמונות	-10.4006
▁השפעת	-10.4011
▁נהיה	-10.4029
▁חטא	-10.4031
▁הפיננסי	-10.4033
רישום	-10.4036
זיהוי	-10.4038
iz	-10.4062
▁לפרו	-10.4067
▁מתכננ	-10.4069
▁ברצינות	-10.4069
▁לקיים	-10.4086
ראינו	-10.409
▁ראשוני	-10.4098
נהיגה	-10.4101
▁הנמצא	-10.4104
▁החיצוני	-10.4105
iv	-10.4115
▁שריר	-10.4141
חסן	-10.4165
▁מאבק	-10.4166
▁מורש	-10.4167
▁מצטער	-10.4175
▁למשחק	-10.4176
▁האיראני	-10.4176
▁הכשר	-10.4177
▁בתגובה	-10.418
קראתי	-10.4181
תאהב	-10.4183
▁השער	-10.4183
▁בעונ	-10.4197
▁אדיר	-10.4197
יועץ	-10.42
▁בזמנ	-10.4202
אנט	-10.4202
▁ברכב	-10.4207
▁הכנסייה	-10.4211
▁2020	-10.4216
▁התחייב	-10.4224
▁יישאר	-10.4227
▁קרקע	-10.4231
תקופות	-10.424
שחזר	-10.4242
▁הטכנולוגי	-10.4247
▁דעות	-10.426
▁מזיק	-10.4269
חזרו	-10.427
אוניברסיטאות	-10.4282
▁מפלגת	-10.4287
AS	-10.4292
▁אוסטרליה	-10.4319
אוקיינוס	-10.4319
IT	-10.4326
▁משתתפ	-10.4331
שאת	-10.4337
▁האפשרי	-10.435
פיקוח	-10.4356
▁דגים	-10.4357
▁הכביש	-10.4357
▁רכש	-10.436
▁אהוב	-10.4362
▁בהצלחה	-10.4391
▁נתנ	-10.4398
▁בגדים	-10.4402
▁הנער	-10.4402
▁מונח	-10.4423
▁הביטוי	-10.4428
▁התקשר	-10.4428
▁הפיל	-10.4428
▁תנועת	-10.4429
▁עיקרי	-10.443
▁מזמן	-10.443
מטרי	-10.4439
הופעות	-10.4449
-11	-10.4456
מזונות	-10.4459
▁מחוז	-10.4468
▁שאולי	-10.4478
שתתף	-10.4478
▁השיער	-10.4501
▁בהקשר	-10.4502
התבסס	-10.4502
▁לשאלה	-10.4505
ock	-10.4505
▁לתפוס	-10.4508
תומך	-10.451
▁הוקמ	-10.4516
יכולות	-10.4536
▁מוצג	-10.454
▁נדמ	-10.4541
▁באפשרות	-10.4549
-60	-10.4558
הופעה	-10.456
תקנות	-10.4568
▁מוכנה	-10.4569
-80	-10.4572
▁הבחור	-10.4576
▁מעודד	-10.4581
▁התגובה	-10.4584
עיירה	-10.4585
הגדרה	-10.4605
ies	-10.4629
מסעדות	-10.4642
סימפטומים	-10.4649
▁ההצלחה	-10.4649
▁לשכוח	-10.4651
מבקש	-10.4651
▁בוודאי	-10.4664
▁הצעת	-10.4666
לחימה	-10.4676
סובב	-10.4678
▁המעבר	-10.4693
▁המוכר	-10.4695
▁מקובל	-10.4696
▁כותר	-10.4696
-14	-10.4698
▁שמגיע	-10.4717
טכנולוגיות	-10.4722
▁מעוניין	-10.4725
▁עצוב	-10.4726
▁באוויר	-10.4728
▁בטיחות	-10.4732
לפעמים	-10.4737
עיבוד	-10.474
סבתא	-10.4762
ׂ	-10.4762
▁להרוויח	-10.4762
▁שתהיה	-10.4764
▁הסופר	-10.4765
▁התנאים	-10.4765
חשיפה	-10.4784
▁להתגבר	-10.4785
חלון	-10.4789
פרופיל	-10.4798
בטוח	-10.4799
▁2003	-10.4806
▁המשבר	-10.4807
כמעט	-10.4814
רעיונות	-10.4817
▁רדיו	-10.4834
▁חירום	-10.484
-13	-10.4843
▁טיפש	-10.4866
-25	-10.487
▁סימנים	-10.4875
▁הכנ	-10.4875
▁הכנסה	-10.4877
▁להגיש	-10.4878
▁One	-10.4881
הרגשה	-10.4892
▁אספ	-10.4901
▁הנוצרי	-10.4906
▁האסטרטגי	-10.4915
▁בקבוק	-10.4915
▁אברהם	-10.4915
▁מגדיר	-10.4917
שמיע	-10.4921
▁הוציא	-10.4926
ide	-10.4928
מגרש	-10.4932
▁בפרט	-10.4933
▁מודאג	-10.4938
▁הנכס	-10.495
▁לבריאות	-10.4953
▁יוסף	-10.4954
▁שיצא	-10.4958
▁המועמד	-10.4967
▁ניסיונ	-10.4975
▁חלומות	-10.4982
שווקים	-10.4985
ance	-10.4997
▁מקומ	-10.4997
▁אובייקט	-10.501
▁במקומ	-10.5017
▁השנתי	-10.5022
▁תופס	-10.5024
▁המאבק	-10.5032
▁כראוי	-10.5032
הרוס	-10.5036
▁2002	-10.5037
▁שנוצר	-10.504
▁הנבחר	-10.505
ER	-10.5053
▁תהליכי	-10.5071
חליף	-10.5072
▁מוציא	-10.5092
▁קריטי	-10.5099
IN	-10.5107
▁רביעי	-10.5109
▁חמישי	-10.5111
▁!!!	-10.5112
▁הקטנה	-10.5112
▁באירוע	-10.5112
▁גיבור	-10.5113
▁צמיחה	-10.5113
▁אובמה	-10.5115
▁]]	-10.5119
דמוקרטיה	-10.5124
▁פרסומ	-10.5133
▁נתון	-10.5136
▁For	-10.5137
▁להצלחה	-10.5148
▁משקפ	-10.5152
▁לברוח	-10.5175
▁לעצמך	-10.5187
▁מפחיד	-10.5188
▁העומד	-10.519
▁מייקל	-10.5191
▁התעשייה	-10.5194
דוגמה	-10.5203
איומים	-10.5218
ust	-10.5226
▁מצחיק	-10.5227
▁המונח	-10.5229
▁נוער	-10.523
ציפיות	-10.5266
‬	-10.5266
קדמו	-10.5268
▁הדרכים	-10.5268
▁השיניים	-10.5269
▁לזמן	-10.5269
▁לעתיד	-10.527
▁להתאים	-10.528
▁לגדול	-10.5309
▁תוכנה	-10.5318
▁בתחילה	-10.5319
▁מוסיקה	-10.532
▁לאחור	-10.5323
כישורים	-10.5344
▁להיראות	-10.5347
▁הכבוד	-10.5349
▁לתפקיד	-10.535
מגזין	-10.5353
▁המשטר	-10.5378
▁הרחוב	-10.5389
ff	-10.5403
▁Microsoft	-10.5427
▁סליחה	-10.5427
▁לדמיין	-10.5427
▁הטקס	-10.5438
▁אהיה	-10.5444
▁מנקוד	-10.5454
קבוצת	-10.5457
▁ממשיכה	-10.5468
▁השקעה	-10.547
חשף	-10.5483
תכניות	-10.5485
▁הולנד	-10.5486
▁הכספי	-10.5506
▁הפסקת	-10.5506
▁הירי	-10.5508
▁מומחה	-10.5508
▁שעשית	-10.5508
מולדת	-10.5547
▁בעסק	-10.557
דירוג	-10.5571
▁התפתח	-10.5581
▁המזרחי	-10.5583
▁הקודמת	-10.5591
▁לנושא	-10.5592
▁2004	-10.5596
ES	-10.56
מצאתי	-10.5614
▁הראשוני	-10.5621
▁נתוני	-10.563
▁אוטובוס	-10.5631
▁ארוכות	-10.5631
▁ללימוד	-10.5631
פרוייקט	-10.5631
תוכנן	-10.5631
▁דניאל	-10.5631
▁ביטחונ	-10.5631
תאושש	-10.5645
מתקפה	-10.5649
▁לפיתוח	-10.5673
▁משותפת	-10.5675
▁הרגליים	-10.5676
▁מופע	-10.5685
▁לגוף	-10.569
עיקרון	-10.5696
הצהרה	-10.5699
הערכת	-10.5706
כיצד	-10.5707
▁הביטוח	-10.5714
▁הכיבוש	-10.5715
▁עוזב	-10.5715
▁מתקרב	-10.5717
▁בשלוש	-10.5718
▁הזמנים	-10.5726
▁סקוט	-10.5758
▁לשרוד	-10.5759
-50	-10.5763
▁שאחרי	-10.5764
▁גילוי	-10.5769
▁חשיבה	-10.5778
▁פטרי	-10.5791
היעדר	-10.5796
▁משקיעים	-10.5801
החלטות	-10.5805
▁גמיש	-10.581
ארבעה	-10.5825
למטרות	-10.5825
▁ליצירת	-10.5841
▁קהילה	-10.5841
▁השטן	-10.5841
פורסמו	-10.5844
צדדי	-10.5851
▁קריאה	-10.5861
▁השעה	-10.5866
▁[2]	-10.5881
▁הכוכבים	-10.5881
▁באמריקה	-10.5881
מנגנון	-10.5882
▁נמסר	-10.5883
▁המקרה	-10.5898
▁שורש	-10.5906
מפרץ	-10.5908
▁טיסה	-10.5908
}	-10.5924
▁לעצמכם	-10.5924
פוליטיקאים	-10.5925
▁עוקב	-10.5926
▁שנועד	-10.5929
▁תרגיל	-10.5931
▁2001	-10.5932
▁פיתח	-10.5934
▁בריטי	-10.5953
▁רגוע	-10.5967
▁להגיב	-10.5967
▁הבניין	-10.5968
שימוש	-10.5975
להזמין	-10.5977
שתתפו	-10.5998
מיעוט	-10.6003
▁בטלוויזיה	-10.6009
▁לדוגמא	-10.6009
▁סטנדרט	-10.6009
▁בשיעור	-10.6009
▁הארוך	-10.6009
▁אצבע	-10.601
▁חקלאי	-10.6011
▁במצרים	-10.6015
▁הומו	-10.6048
▁לתרום	-10.6052
הגענו	-10.6056
▁הישן	-10.6082
▁[1]	-10.6095
▁מתאימה	-10.6096
▁מרוצה	-10.6098
▁מכוונ	-10.6108
-100	-10.6129
▁למחרת	-10.6141
הגביר	-10.6143
▁במציאות	-10.6144
▁כביש	-10.6149
▁החורף	-10.6182
▁בסיפור	-10.6183
▁לשלום	-10.6185
היסטוריה	-10.6189
לעולם	-10.6197
פאלון	-10.6199
שתדל	-10.6206
הטיל	-10.6216
▁התחרות	-10.623
▁לאירוע	-10.6231
▁מבינה	-10.6235
התקפה	-10.6242
▁שגוי	-10.6244
עישון	-10.6249
▁שולט	-10.625
▁שיותר	-10.6253
▁בטיפול	-10.627
▁ארוכים	-10.627
▁קהילת	-10.627
אספקת	-10.6277
צמיח	-10.6285
▁סיימ	-10.6286
▁תשכח	-10.6286
▁פלילי	-10.629
מגבלות	-10.6291
▁מסכימים	-10.6314
▁מעצמ	-10.6323
▁להרחיב	-10.6358
▁אנגליה	-10.6358
יכון	-10.6372
▁כניסה	-10.6376
▁בוצע	-10.6377
התפלל	-10.6378
▁משלוש	-10.6383
יציבות	-10.6383
▁טהור	-10.6387
▁תאונ	-10.6398
▁יהודה	-10.6403
▁הקטנים	-10.6405
▁שיוכל	-10.6406
תנועות	-10.641
הפעלה	-10.6425
▁לביקור	-10.6448
▁ויטמי	-10.6468
▁עולמ	-10.6473
מתקני	-10.6483
▁למשוך	-10.6492
▁בטווח	-10.6493
▁מטעם	-10.6493
▁התושבים	-10.6493
▁הצער	-10.6494
▁מודיע	-10.6495
▁להקשיב	-10.6537
▁זכאי	-10.6538
פילוסופיה	-10.6543
Fi	-10.6557
תרגול	-10.6564
צפייה	-10.6577
▁בממוצע	-10.6582
▁New	-10.6582
תכלית	-10.6583
▁הניתוח	-10.6584
▁המשמש	-10.6586
משקאות	-10.6591
{	-10.6627
▁אופטימי	-10.6627
▁זמינים	-10.6628
נסיעות	-10.6631
▁חוזה	-10.6635
▁עותק	-10.6648
דרישה	-10.6659
חידוש	-10.6659
▁יוזמ	-10.666
▁התרופה	-10.6674
port	-10.6674
תבונן	-10.6683
מאוחר	-10.6696
קצין	-10.6709
▁בסביבות	-10.6719
▁קלאסי	-10.6722
הונגרי	-10.6729
אימונים	-10.6731
הפרעות	-10.6737
עכבר	-10.6738
▁הגופ	-10.6743
תושבי	-10.6762
▁השולחן	-10.6765
▁בהדרגה	-10.6765
▁ברזל	-10.6766
▁יישומ	-10.6769
טכניקות	-10.6792
טלפונים	-10.6811
▁פונקצי	-10.6814
▁תשובות	-10.6815
▁לפרט	-10.6831
שיהיו	-10.6853
▁התובע	-10.6859
ox	-10.6866
▁דחי	-10.6868
▁להלן	-10.687
▁היפני	-10.6872
▁פסיכו	-10.688
מעשים	-10.69
▁[+]	-10.6904
▁אוגוסט	-10.6905
▁מתגורר	-10.6905
▁קולנוע	-10.6905
אוזן	-10.6943
פסיכ	-10.6944
▁הטכני	-10.6949
▁פלטפורמ	-10.6951
▁דרמטי	-10.6952
התקרב	-10.6969
-70	-10.6982
▁לחסוך	-10.6998
▁לעצמם	-10.6998
▁הנפוצ	-10.7001
עיסוק	-10.7007
אוכלוסיית	-10.7015
קמפוס	-10.7026
▁הישג	-10.7028
▁לחלוק	-10.704
▁סוציאלי	-10.7044
▁בפיתוח	-10.7046
▁כשאתם	-10.7046
▁להתעלם	-10.7046
▁עיוור	-10.7048
▁הופעת	-10.7054
▁בחלל	-10.706
קיבלתי	-10.7081
▁קליפורניה	-10.7093
▁וכמובן	-10.7094
▁המבקרים	-10.7096
▁ביפן	-10.71
▁הירוק	-10.7102
▁המוקדמ	-10.7105
▁מדרג	-10.7109
▁מאחור	-10.7131
▁מאפיינ	-10.7144
הרבה	-10.7186
▁מדווח	-10.719
▁הצמיחה	-10.7195
▁הנזק	-10.7195
▁המטרות	-10.7198
▁הבורא	-10.7199
▁בקיצור	-10.7239
▁המלכותי	-10.7257
▁הפיתוח	-10.7287
▁שעומד	-10.7287
▁מתנדב	-10.7288
▁המורכב	-10.7288
עדכון	-10.7289
▁צהוב	-10.7292
ממלכה	-10.7302
▁ממצא	-10.7309
▁התנגד	-10.731
וירוס	-10.7311
▁הפדרלי	-10.7335
▁מלאכותי	-10.7335
▁לעצמנו	-10.7384
▁הצהריים	-10.7384
בראשית	-10.7384
▁שעלול	-10.7386
ייעץ	-10.7387
פנסיה	-10.739
▁ברוסיה	-10.739
תחושות	-10.7396
▁פסטיבל	-10.7433
געגע	-10.7433
▁הפארק	-10.7434
▁ברזיל	-10.7435
▁לרופא	-10.7436
▁רשומ	-10.7441
▁פונ	-10.7445
לשון	-10.7472
▁וושינגטון	-10.7483
▁הגלובלי	-10.7483
▁תערוכ	-10.7483
▁הביניים	-10.7489
▁לובש	-10.7491
▁בעצמך	-10.7533
▁ברצונ	-10.7538
▁למעט	-10.7538
▁בממשל	-10.7539
▁שחלק	-10.7542
▁תוקפ	-10.7543
▁במשפחה	-10.7583
▁בבירור	-10.7583
▁גלובלי	-10.7583
▁הנביא	-10.7584
▁בפריז	-10.7585
▁מוצק	-10.7593
ture	-10.7599
▁גנב	-10.7612
*	-10.7619
סכימו	-10.763
קריאת	-10.7632
▁השישי	-10.7632
_	-10.7633
▁הייחודי	-10.7633
▁מושלמת	-10.7633
▁שעובד	-10.7633
גיוס	-10.7635
▁לעודד	-10.7636
▁בסיכון	-10.7636
▁הבנייה	-10.764
own	-10.764
▁היחס	-10.7673
▁תגובת	-10.7684
▁האפשרויות	-10.7684
▁חכמים	-10.7684
מתכונ	-10.77
▁פלסטין	-10.7734
▁מתקדמים	-10.7734
J	-10.7879
~	-10.794
&	-10.8819
`	-10.9331
é	-11.1525
+	-11.283
ֱ	-11.2876
‭	-11.3223
<	-11.3673
@	-11.3766
́	-11.3766
(	-11.4025
“	-11.4628
←	-11.464
®	-11.4845
ֻ	-11.4949
>	-11.538
‫	-11.5824
°	-11.6783
׃	-11.8419
‘	-11.9805
×	-12.1521
á	-12.1725
‪	-12.2363
€	-12.2363
$	-12.2368
′	-12.2586
‐	-12.3777
í	-12.4034
ö	-12.4297
ó	-12.4567
ü	-12.4845
ا	-12.6363
ل	-12.7769
■	-12.8153
¶	-12.8553
●	-12.8553
ä	-12.897
↩	-12.9405
è	-12.9859
â	-13.0335
|	-13.0618
◄	-13.0835
▼	-13.1362
#	-13.17
م	-13.1917
	-13.2506
„	-13.2506
ي	-13.3131
§	-13.3131
α	-13.3131
»	-13.358
ر	-13.3797
	-13.4512
à	-13.4512
ֿ	-13.5281
−	-13.5281
►	-13.5281
ο	-13.5281
‹	-13.6114
τ	-13.6114
و	-13.6114
ú	-13.7023
ب	-13.7023
λ	-13.7023
َ	-13.7023
š	-13.8023
ʉ	-13.8023
а	-13.8023
️	-13.8023
κ	-13.8023
θ	-13.9134
ֳ	-13.9134
ž	-13.9134
¬	-13.9134
ł	-13.9134
̄	-13.9134
ß	-13.9134
ن	-13.9134
о	-13.9134
ع	-13.9134
μ	-14.0384
	-14.0384
å	-14.0384
ê	-14.0384
ñ	-14.0384
ς	-14.0384
ρ	-14.0384
ō	-14.1813
▪	-14.1813
♪	-14.1813
ι	-14.1813
π	-14.1813
и	-14.1813
	-14.348
Δ	-14.348
😛	-14.348
φ	-14.348
ی	-14.348
ν	-14.348
н	-14.348
γ	-14.348
س	-14.5479
ت	-14.5479
‍	-14.5479
¦	-14.548
ć	-14.548
ή	-14.548
β	-14.548
‒	-14.548
‚	-14.548
	-14.548
Р	-14.548
х	-14.548
ه	-14.548
—	-14.7763
ك	-14.7979
ā	-14.7979
σ	-14.7979
О	-14.7979
ş	-14.798
¢	-14.798
æ	-14.798
ë	-14.798
č	-14.798
Θ	-14.798
Ω	-14.798
ε	-14.798
в	-14.798
ֽ	-14.798
د	-14.798
ش	-14.798
∈	-14.798
	-14.798
😊	-14.798
أ	-14.798
ج	-14.798
ح	-14.798
ά	-14.798
с	-14.798
ُ	-15.1313
ْ	-15.1313
Ö	-15.1313
ø	-15.1313
	-15.1313
	-15.1313
	-15.1313
ś	-15.1313
χ	-15.1313
Т	-15.1313
р	-15.1313
і	-15.1313
֥	-15.1313
ة	-15.1313
ذ	-15.1313
٠	-15.1313
―	-15.1313
⁡	-15.1313
□	-15.1313
⚡	-15.1313
✔	-15.1313
😂	-15.1313
🤔	-15.1313
Ü	-15.1313
С	-15.1313
ق	-15.1313
η	-15.1313
ल	-15.1313
ル	-15.6313
ʻ	-15.6313
の	-15.6313
ī	-15.6313
е	-15.6313
п	-15.6313
ط	-15.6313
	-15.6313
	-15.6313
¿	-15.6313
Á	-15.6313
ð	-15.6313
ò	-15.6313
õ	-15.6313
ù	-15.6313
û	-15.6313
ý	-15.6313
Đ	-15.6313
ę	-15.6313
ğ	-15.6313
İ	-15.6313
œ	-15.6313
ū	-15.6313
ż	-15.6313
ɒ	-15.6313
̈	-15.6313
έ	-15.6313
ί	-15.6313
Н	-15.6313
й	-15.6313
у	-15.6313
ф	-15.6313
я	-15.6313
ा	-15.6313
ា	-15.6313
‰	-15.6313
↓	-15.6313
∘	-15.6313
∙	-15.6313
∽	-15.6313
≠	-15.6313
≥	-15.6313
▶	-15.6313
☆	-15.6313
☺	-15.6313
♠	-15.6313
❻	-15.6313
❽	-15.6313
⟩	-15.6313
⦁	-15.6313
、	-15.6313
ー	-15.6313
日	-15.6313
黑	-15.6313
	-15.6313
	-15.6313
📄	-15.6313
🔥	-15.6313
😁	-15.6313
😃	-15.6313
😚	-15.6313
ˌ	-15.6313
К	-15.6313
خ	-15.6313
д	-15.6313
ц	-15.6313
ч	-15.6313
😍	-15.6313
т	-15.6313
•	-16.6112
	-16.6257
✰	-16.6258
☀	-16.6259
إ	-16.626
װ	-16.6261
֖	-16.6262
В	-16.6263
δ	-16.6264
Ε	-16.6265
ţ	-16.6266
ő	-16.6267
ň	-16.6268
ħ	-16.6269
Č	-16.627
ă	-16.6271
ÿ	-16.6272
Ç	-16.6273
★	-16.6274
†	-16.6275
υ	-16.6276
Σ	-16.6277
ɾ	-16.6278
Î	-16.6279
😀	-16.628
♫	-16.6281
⋅	-16.6282
⁠	-16.6283
Ł	-16.6284
👑	-16.6285
√	-16.6286
ã	-16.6287
🙁	-16.6288
ِ	-16.6289
É	-16.629
±	-16.6291
▲	-16.6292
⁄	-16.6293
￼	-16.6294
⬅	-16.6295
‡	-16.6296
👈	-16.6297
∗	-16.6298
ç	-16.6299
😉	-16.63
­	-16.6301
♦	-16.6302
©	-16.6303
£	-16.6304
›	-16.6305
♥	-16.6306
↑	-16.6307
₪	-16.6308
🙂	-16.6309
	-16.631
→	-16.6311
«	-16.6312
反	-16.6313
逆	-16.6313
Β	-16.6313
‮	-16.6313
第	-16.6313
¡	-16.6313
È	-16.6313
Ë	-16.6313
Ó	-16.6313
Ø	-16.6313
Ú	-16.6313
Û	-16.6313
ï	-16.6313
ô	-16.6313
÷	-16.6313
Ġ	-16.6313
ŋ	-16.6313
Ś	-16.6313
Ÿ	-16.6313
Ž	-16.6313
ư	-16.6313
ț	-16.6313
ɓ	-16.6313
ə	-16.6313
ɸ	-16.6313
ʊ	-16.6313
ʼ	-16.6313
ː	-16.6313
Κ	-16.6313
Τ	-16.6313
Ψ	-16.6313
ω	-16.6313
ό	-16.6313
Б	-16.6313
Д	-16.6313
П	-16.6313
Ы	-16.6313
Я	-16.6313
г	-16.6313
ж	-16.6313
к	-16.6313
л	-16.6313
ш	-16.6313
ы	-16.6313
Ҫ	-16.6313
Ӑ	-16.6313
Ӗ	-16.6313
ӝ	-16.6313
Ӳ	-16.6313
Ե	-16.6313
Խ	-16.6313
ֺ	-16.6313
ׅ	-16.6313
ױ	-16.6313
آ	-16.6313
ئ	-16.6313
ث	-16.6313
ص	-16.6313
ف	-16.6313
ى	-16.6313
٢	-16.6313
٩	-16.6313
ٰ	-16.6313
ٹ	-16.6313
چ	-16.6313
ھ	-16.6313
ߟ	-16.6313
ߡ	-16.6313
औ	-16.6313
त	-16.6313
ी	-16.6313
ં	-16.6313
બ	-16.6313
લ	-16.6313
ો	-16.6313
༓	-16.6313
ខ	-16.6313
ភ	-16.6313
ម	-16.6313
រ	-16.6313
ស	-16.6313
ែ	-16.6313
្	-16.6313
ṅ	-16.6313
ạ	-16.6313
ả	-16.6313
ἀ	-16.6313
ὥ	-16.6313
ῦ	-16.6313
⁨	-16.6313
⁩	-16.6313
₹	-16.6313
⇒	-16.6313
∀	-16.6313
∂	-16.6313
∆	-16.6313
∞	-16.6313
≪	-16.6313
≿	-16.6313
⋯	-16.6313
─	-16.6313
▸	-16.6313
▾	-16.6313
◻	-16.6313
◼	-16.6313
☚	-16.6313
☝	-16.6313
♔	-16.6313
♣	-16.6313
✌	-16.6313
✯	-16.6313
❁	-16.6313
❓	-16.6313
❤	-16.6313
❷	-16.6313
❼	-16.6313
❾	-16.6313
➝	-16.6313
⟨	-16.6313
⟵	-16.6313
⭐	-16.6313
ア	-16.6313
ギ	-16.6313
コ	-16.6313
シ	-16.6313
ス	-16.6313
ド	-16.6313
ュ	-16.6313
㪗	-16.6313
三	-16.6313
东	-16.6313
主	-16.6313
京	-16.6313
介	-16.6313
会	-16.6313
元	-16.6313
列	-16.6313
名	-16.6313
士	-16.6313
大	-16.6313
学	-16.6313
川	-16.6313
工	-16.6313
幕	-16.6313
广	-16.6313
府	-16.6313
式	-16.6313
徳	-16.6313
慢	-16.6313
拾	-16.6313
旦	-16.6313
本	-16.6313
株	-16.6313
民	-16.6313
浪	-16.6313
海	-16.6313
点	-16.6313
理	-16.6313
疽	-16.6313
社	-16.6313
穂	-16.6313
空	-16.6313
简	-16.6313
算	-16.6313
絵	-16.6313
義	-16.6313
聲	-16.6313
航	-16.6313
色	-16.6313
茶	-16.6313
術	-16.6313
詞	-16.6313
赤	-16.6313
道	-16.6313
都	-16.6313
鈴	-16.6313
院	-16.6313
髓	-16.6313
黒	-16.6313
랙	-16.6313
블	-16.6313
	-16.6313
	-16.6313
	-16.6313
	-16.6313
	-16.6313
	-16.6313
	-16.6313
	-16.6313
	-16.6313
	-16.6313
﴾	-16.6313
🇸	-16.6313
🇾	-16.6313
🌈	-16.6313
🌎	-16.6313
🍻	-16.6313
🎉	-16.6313
🏽	-16.6313
🐔	-16.6313
👉	-16.6313
💉	-16.6313
💔	-16.6313
💖	-16.6313
💜	-16.6313
📁	-16.6313
😄	-16.6313
😅	-16.6313
😆	-16.6313
😈	-16.6313
😏	-16.6313
😐	-16.6313
😒	-16.6313
😜	-16.6313
😦	-16.6313
🙌	-16.6313
🚖	-16.6313
🚘	-16.6313
🤨	-16.6313
🦁	-16.6313
🧼	-16.6313
Š	-16.6313
Ż	-16.6313
١	-16.6313
以	-16.6313
엠	-16.6313
ș	-16.6313
ɛ	-16.6313
ʌ	-16.6313
ˈ	-16.6313
Χ	-16.6313
Յ	-16.6313
Ս	-16.6313
٨	-16.6313
ं	-16.6313
ग	-16.6313
द	-16.6313
न	-16.6313
ब	-16.6313
ि	-16.6313
े	-16.6313
्	-16.6313
ગ	-16.6313
九	-16.6313
章	-16.6313
﴿	-16.6313
·	-16.6313
Α	-16.6313
Φ	-16.6313
古	-16.6313
来	-16.6313
蒙	-16.6313
襲	-16.6313
🎶	-16.6313
💫	-16.6313
