{
  "version": "1.0",
  "truncation": null,
  "padding": null,
  "added_tokens": [
    {
      "id": 0,
      "content": "[UNK]",
      "single_word": false,
      "lstrip": false,
      "rstrip": false,
      "normalized": false,
      "special": true
    },
    {
      "id": 1,
      "content": "[CLS]",
      "single_word": false,
      "lstrip": false,
      "rstrip": false,
      "normalized": false,
      "special": true
    },
    {
      "id": 2,
      "content": "[SEP]",
      "single_word": false,
      "lstrip": false,
      "rstrip": false,
      "normalized": false,
      "special": true
    },
    {
      "id": 3,
      "content": "[PAD]",
      "single_word": false,
      "lstrip": false,
      "rstrip": false,
      "normalized": false,
      "special": true
    },
    {
      "id": 4,
      "content": "[MASK]",
      "single_word": false,
      "lstrip": false,
      "rstrip": false,
      "normalized": false,
      "special": true
    }
  ],
  "normalizer": {
    "type": "Sequence",
    "normalizers": [
      {
        "type": "NFKC"
      },
      {
        "type": "Lowercase"
      }
    ]
  },
  "pre_tokenizer": {
    "type": "Whitespace"
  },
  "post_processor": null,
  "decoder": {
    "type": "WordPiece",
    "prefix": "##",
    "cleanup": true
  },
  "model": {
    "type": "WordPiece",
    "unk_token": "[UNK]",
    "continuing_subword_prefix": "##",
    "max_input_chars_per_word": 100,
    "vocab": {
      "[UNK]": 0,
      "[CLS]": 1,
      "[SEP]": 2,
      "[PAD]": 3,
      "[MASK]": 4,
      "!": 5,
      "\"": 6,
      "#": 7,
      "$": 8,
      "%": 9,
      "&": 10,
      "'": 11,
      "(": 12,
      ")": 13,
      "*": 14,
      "+": 15,
      ",": 16,
      "-": 17,
      ".": 18,
      "/": 19,
      "0": 20,
      "1": 21,
      "2": 22,
      "3": 23,
      "4": 24,
      "5": 25,
      "6": 26,
      "7": 27,
      "8": 28,
      "9": 29,
      ":": 30,
      ";": 31,
      "<": 32,
      "=": 33,
      ">": 34,
      "?": 35,
      "@": 36,
      "[": 37,
      "\\": 38,
      "]": 39,
      "^": 40,
      "_": 41,
      "`": 42,
      "a": 43,
      "b": 44,
      "c": 45,
      "d": 46,
      "e": 47,
      "f": 48,
      "g": 49,
      "h": 50,
      "i": 51,
      "j": 52,
      "k": 53,
      "l": 54,
      "m": 55,
      "n": 56,
      "o": 57,
      "p": 58,
      "q": 59,
      "r": 60,
      "s": 61,
      "t": 62,
      "u": 63,
      "v": 64,
      "w": 65,
      "x": 66,
      "y": 67,
      "z": 68,
      "{": 69,
      "|": 70,
      "}": 71,
      "~": 72,
      "": 73,
      "": 74,
      "": 75,
      "": 76,
      "": 77,
      "": 78,
      "": 79,
      "": 80,
      "": 81,
      "": 82,
      "": 83,
      "¡": 84,
      "¢": 85,
      "£": 86,
      "¦": 87,
      "§": 88,
      "©": 89,
      "«": 90,
      "¬": 91,
      "­": 92,
      "®": 93,
      "°": 94,
      "±": 95,
      "¶": 96,
      "·": 97,
      "»": 98,
      "¿": 99,
      "×": 100,
      "ß": 101,
      "à": 102,
      "á": 103,
      "â": 104,
      "ã": 105,
      "ä": 106,
      "å": 107,
      "æ": 108,
      "ç": 109,
      "è": 110,
      "é": 111,
      "ê": 112,
      "ë": 113,
      "í": 114,
      "î": 115,
      "ï": 116,
      "ð": 117,
      "ñ": 118,
      "ò": 119,
      "ó": 120,
      "ô": 121,
      "õ": 122,
      "ö": 123,
      "÷": 124,
      "ø": 125,
      "ù": 126,
      "ú": 127,
      "û": 128,
      "ü": 129,
      "ý": 130,
      "ÿ": 131,
      "ā": 132,
      "ă": 133,
      "ć": 134,
      "č": 135,
      "đ": 136,
      "ę": 137,
      "ğ": 138,
      "ġ": 139,
      "ħ": 140,
      "ī": 141,
      "ł": 142,
      "ň": 143,
      "ŋ": 144,
      "ō": 145,
      "ő": 146,
      "œ": 147,
      "ś": 148,
      "ş": 149,
      "š": 150,
      "ţ": 151,
      "ū": 152,
      "ż": 153,
      "ž": 154,
      "ư": 155,
      "ș": 156,
      "ț": 157,
      "ɒ": 158,
      "ɓ": 159,
      "ə": 160,
      "ɛ": 161,
      "ɸ": 162,
      "ɾ": 163,
      "ʉ": 164,
      "ʊ": 165,
      "ʌ": 166,
      "ʻ": 167,
      "ʼ": 168,
      "ˈ": 169,
      "ˌ": 170,
      "ː": 171,
      "́": 172,
      "̄": 173,
      "̇": 174,
      "̈": 175,
      "ά": 176,
      "έ": 177,
      "ή": 178,
      "ί": 179,
      "α": 180,
      "β": 181,
      "γ": 182,
      "δ": 183,
      "ε": 184,
      "η": 185,
      "θ": 186,
      "ι": 187,
      "κ": 188,
      "λ": 189,
      "μ": 190,
      "ν": 191,
      "ο": 192,
      "π": 193,
      "ρ": 194,
      "ς": 195,
      "σ": 196,
      "τ": 197,
      "υ": 198,
      "φ": 199,
      "χ": 200,
      "ψ": 201,
      "ω": 202,
      "ό": 203,
      "а": 204,
      "б": 205,
      "в": 206,
      "г": 207,
      "д": 208,
      "е": 209,
      "ж": 210,
      "и": 211,
      "й": 212,
      "к": 213,
      "л": 214,
      "н": 215,
      "о": 216,
      "п": 217,
      "р": 218,
      "с": 219,
      "т": 220,
      "у": 221,
      "ф": 222,
      "х": 223,
      "ц": 224,
      "ч": 225,
      "ш": 226,
      "ы": 227,
      "я": 228,
      "і": 229,
      "ҫ": 230,
      "ӑ": 231,
      "ӗ": 232,
      "ӝ": 233,
      "ӳ": 234,
      "ե": 235,
      "խ": 236,
      "յ": 237,
      "ս": 238,
      "֖": 239,
      "֥": 240,
      "ְ": 241,
      "ֱ": 242,
      "ֲ": 243,
      "ֳ": 244,
      "ִ": 245,
      "ֵ": 246,
      "ֶ": 247,
      "ַ": 248,
      "ָ": 249,
      "ֹ": 250,
      "ֺ": 251,
      "ֻ": 252,
      "ּ": 253,
      "ֽ": 254,
      "־": 255,
      "ֿ": 256,
      "ׁ": 257,
      "ׂ": 258,
      "׃": 259,
      "ׅ": 260,
      "א": 261,
      "ב": 262,
      "ג": 263,
      "ד": 264,
      "ה": 265,
      "ו": 266,
      "ז": 267,
      "ח": 268,
      "ט": 269,
      "י": 270,
      "ך": 271,
      "כ": 272,
      "ל": 273,
      "ם": 274,
      "מ": 275,
      "ן": 276,
      "נ": 277,
      "ס": 278,
      "ע": 279,
      "ף": 280,
      "פ": 281,
      "ץ": 282,
      "צ": 283,
      "ק": 284,
      "ר": 285,
      "ש": 286,
      "ת": 287,
      "װ": 288,
      "ױ": 289,
      "׳": 290,
      "״": 291,
      "آ": 292,
      "أ": 293,
      "إ": 294,
      "ئ": 295,
      "ا": 296,
      "ب": 297,
      "ة": 298,
      "ت": 299,
      "ث": 300,
      "ج": 301,
      "ح": 302,
      "خ": 303,
      "د": 304,
      "ذ": 305,
      "ر": 306,
      "س": 307,
      "ش": 308,
      "ص": 309,
      "ط": 310,
      "ع": 311,
      "ف": 312,
      "ق": 313,
      "ك": 314,
      "ل": 315,
      "م": 316,
      "ن": 317,
      "ه": 318,
      "و": 319,
      "ى": 320,
      "ي": 321,
      "َ": 322,
      "ُ": 323,
      "ِ": 324,
      "ْ": 325,
      "٠": 326,
      "١": 327,
      "٢": 328,
      "٨": 329,
      "٩": 330,
      "ٰ": 331,
      "ٹ": 332,
      "چ": 333,
      "ھ": 334,
      "ی": 335,
      "ߟ": 336,
      "ߡ": 337,
      "ं": 338,
      "औ": 339,
      "ग": 340,
      "त": 341,
      "द": 342,
      "न": 343,
      "ब": 344,
      "ल": 345,
      "ा": 346,
      "ि": 347,
      "ी": 348,
      "े": 349,
      "्": 350,
      "ં": 351,
      "ગ": 352,
      "બ": 353,
      "લ": 354,
      "ો": 355,
      "༓": 356,
      "ខ": 357,
      "ភ": 358,
      "ម": 359,
      "រ": 360,
      "ស": 361,
      "ា": 362,
      "ែ": 363,
      "្": 364,
      "ṅ": 365,
      "ạ": 366,
      "ả": 367,
      "ἀ": 368,
      "ὥ": 369,
      "ῦ": 370,
      "​": 371,
      "‌": 372,
      "‍": 373,
      "‎": 374,
      "‏": 375,
      "‐": 376,
      "‒": 377,
      "–": 378,
      "—": 379,
      "―": 380,
      "‘": 381,
      "’": 382,
      "‚": 383,
      "“": 384,
      "”": 385,
      "„": 386,
      "†": 387,
      "‡": 388,
      "•": 389,
      "‪": 390,
      "‫": 391,
      "‬": 392,
      "‭": 393,
      "‮": 394,
      "‰": 395,
      "′": 396,
      "‹": 397,
      "›": 398,
      "⁄": 399,
      "⁠": 400,
      "⁡": 401,
      "⁨": 402,
      "⁩": 403,
      "₪": 404,
      "€": 405,
      "₹": 406,
      "←": 407,
      "↑": 408,
      "→": 409,
      "↓": 410,
      "↩": 411,
      "⇒": 412,
      "∀": 413,
      "∂": 414,
      "∆": 415,
      "∈": 416,
      "−": 417,
      "∗": 418,
      "∘": 419,
      "∙": 420,
      "√": 421,
      "∞": 422,
      "∽": 423,
      "≠": 424,
      "≥": 425,
      "≪": 426,
      "≿": 427,
      "⋅": 428,
      "⋯": 429,
      "─": 430,
      "■": 431,
      "□": 432,
      "▪": 433,
      "▲": 434,
      "▶": 435,
      "▸": 436,
      "►": 437,
      "▼": 438,
      "▾": 439,
      "◄": 440,
      "●": 441,
      "◻": 442,
      "◼": 443,
      "☀": 444,
      "★": 445,
      "☆": 446,
      "☚": 447,
      "☝": 448,
      "☺": 449,
      "♔": 450,
      "♠": 451,
      "♣": 452,
      "♥": 453,
      "♦": 454,
      "♪": 455,
      "♫": 456,
      "⚡": 457,
      "✌": 458,
      "✔": 459,
      "✯": 460,
      "✰": 461,
      "❁": 462,
      "❓": 463,
      "❤": 464,
      "❷": 465,
      "❻": 466,
      "❼": 467,
      "❽": 468,
      "❾": 469,
      "➝": 470,
      "⟨": 471,
      "⟩": 472,
      "⟵": 473,
      "⦁": 474,
      "⬅": 475,
      "⭐": 476,
      "、": 477,
      "の": 478,
      "ア": 479,
      "ギ": 480,
      "コ": 481,
      "シ": 482,
      "ス": 483,
      "ド": 484,
      "ュ": 485,
      "ル": 486,
      "ー": 487,
      "㪗": 488,
      "三": 489,
      "东": 490,
      "主": 491,
      "九": 492,
      "京": 493,
      "介": 494,
      "以": 495,
      "会": 496,
      "元": 497,
      "列": 498,
      "反": 499,
      "古": 500,
      "名": 501,
      "士": 502,
      "大": 503,
      "学": 504,
      "川": 505,
      "工": 506,
      "幕": 507,
      "广": 508,
      "府": 509,
      "式": 510,
      "徳": 511,
      "慢": 512,
      "拾": 513,
      "日": 514,
      "旦": 515,
      "本": 516,
      "来": 517,
      "株": 518,
      "民": 519,
      "浪": 520,
      "海": 521,
      "点": 522,
      "理": 523,
      "疽": 524,
      "社": 525,
      "穂": 526,
      "空": 527,
      "章": 528,
      "第": 529,
      "简": 530,
      "算": 531,
      "絵": 532,
      "義": 533,
      "聲": 534,
      "航": 535,
      "色": 536,
      "茶": 537,
      "蒙": 538,
      "術": 539,
      "襲": 540,
      "詞": 541,
      "赤": 542,
      "逆": 543,
      "道": 544,
      "都": 545,
      "鈴": 546,
      "院": 547,
      "髓": 548,
      "黑": 549,
      "黒": 550,
      "랙": 551,
      "블": 552,
      "엠": 553,
      "": 554,
      "": 555,
      "": 556,
      "": 557,
      "": 558,
      "": 559,
      "": 560,
      "": 561,
      "": 562,
      "": 563,
      "": 564,
      "": 565,
      "": 566,
      "": 567,
      "": 568,
      "﴾": 569,
      "﴿": 570,
      "️": 571,
      "﻿": 572,
      "￼": 573,
      "�": 574,
      "🇸": 575,
      "🇾": 576,
      "🌈": 577,
      "🌎": 578,
      "🍻": 579,
      "🎉": 580,
      "🎶": 581,
      "🏽": 582,
      "🐔": 583,
      "👈": 584,
      "👉": 585,
      "👑": 586,
      "💉": 587,
      "💔": 588,
      "💖": 589,
      "💜": 590,
      "💫": 591,
      "📁": 592,
      "📄": 593,
      "🔥": 594,
      "😀": 595,
      "😁": 596,
      "😂": 597,
      "😃": 598,
      "😄": 599,
      "😅": 600,
      "😆": 601,
      "😈": 602,
      "😉": 603,
      "😊": 604,
      "😍": 605,
      "😏": 606,
      "😐": 607,
      "😒": 608,
      "😚": 609,
      "😛": 610,
      "😜": 611,
      "😦": 612,
      "🙁": 613,
      "🙂": 614,
      "🙌": 615,
      "🚖": 616,
      "🚘": 617,
      "🤔": 618,
      "🤨": 619,
      "🦁": 620,
      "🧼": 621,
      "##,": 622,
      "##o": 623,
      "##k": 624,
      "##e": 625,
      "##r": 626,
      "##s": 627,
      "##c": 628,
      "##y": 629,
      "##l": 630,
      "##a": 631,
      "##i": 632,
      "##י": 633,
      "##ן": 634,
      "##d": 635,
      "##n": 636,
      "##t": 637,
      "##h": 638,
      "##p": 639,
      "##b": 640,
      "##ג": 641,
      "##כ": 642,
      "##מ": 643,
      "##ש": 644,
      "##ו": 645,
      "##ל": 646,
      "##ב": 647,
      "##ה": 648,
      "##נ": 649,
      "##ר": 650,
      "##ט": 651,
      "##g": 652,
      "##ד": 653,
      "##u": 654,
      "##v": 655,
      "##ת": 656,
      "##f": 657,
      "##ס": 658,
      "##m": 659,
      "##ק": 660,
      "##ע": 661,
      "##פ": 662,
      "##ם": 663,
      "##2": 664,
      "##9": 665,
      "##x": 666,
      "##ê": 667,
      "##*": 668,
      "##ח": 669,
      "##7": 670,
      "##א": 671,
      "##ך": 672,
      "##צ": 673,
      "##.": 674,
      "##\"": 675,
      "##4": 676,
      "##w": 677,
      "##ז": 678,
      "##z": 679,
      "##5": 680,
      "##0": 681,
      "##3": 682,
      "##1": 683,
      "##j": 684,
      "##8": 685,
      "##ַ": 686,
      "##ü": 687,
      "##-": 688,
      "##式": 689,
      "##会": 690,
      "##社": 691,
      "##日": 692,
      "##ץ": 693,
      "##‏": 694,
      "##ل": 695,
      "##س": 696,
      "##ا": 697,
      "##م": 698,
      "##の": 699,
      "##ף": 700,
      "##q": 701,
      "##茶": 702,
      "##=": 703,
      "##ρ": 704,
      "##ά": 705,
      "##φ": 706,
      "##ω": 707,
      "##6": 708,
      "##`": 709,
      "##ó": 710,
      "##'": 711,
      "##ּ": 712,
      "##و": 713,
      "##°": 714,
      "##都": 715,
      "##(": 716,
      "##!": 717,
      "##ع": 718,
      "##ب": 719,
      "##ك": 720,
      "##%": 721,
      "##)": 722,
      "##/": 723,
      "##ò": 724,
      "##>": 725,
      "##ä": 726,
      "##ε": 727,
      "##γ": 728,
      "##α": 729,
      "##ִ": 730,
      "##聲": 731,
      "##ئ": 732,
      "##ي": 733,
      "##á": 734,
      "##è": 735,
      "##ö": 736,
      "##í": 737,
      "##π": 738,
      "##τ": 739,
      "##ο": 740,
      "##θ": 741,
      "##ς": 742,
      "##é": 743,
      "##🤨": 744,
      "##å": 745,
      "##ְ": 746,
      "##:": 747,
      "##ś": 748,
      "##;": 749,
      "##\\": 750,
      "##ë": 751,
      "##ʌ": 752,
      "##ŋ": 753,
      "##�": 754,
      "##ֶ": 755,
      "##”": 756,
      "##►": 757,
      "##ر": 758,
      "##ت": 759,
      "##ط": 760,
      "##ن": 761,
      "##а": 762,
      "##г": 763,
      "##и": 764,
      "##л": 765,
      "##?": 766,
      "##ֹ": 767,
      "##^": 768,
      "##ã": 769,
      "##ç": 770,
      "##ʉ": 771,
      "##έ": 772,
      "##ֵ": 773,
      "##]": 774,
      "##æ": 775,
      "##λ": 776,
      "##η": 777,
      "##ν": 778,
      "##ι": 779,
      "##_": 780,
      "##ָ": 781,
      "##ł": 782,
      "##ж": 783,
      "##н": 784,
      "##й": 785,
      "##о": 786,
      "##с": 787,
      "##х": 788,
      "##ñ": 789,
      "##ه": 790,
      "##р": 791,
      "##ф": 792,
      "##ả": 793,
      "##ح": 794,
      "##ذ": 795,
      "##ʼ": 796,
      "##$": 797,
      "##š": 798,
      "##♥": 799,
      "##е": 800,
      "##블": 801,
      "##랙": 802,
      "##ِ": 803,
      "##σ": 804,
      "##ạ": 805,
      "##}": 806,
      "##υ": 807,
      "##»": 808,
      "##色": 809,
      "##列": 810,
      "##‎": 811,
      "##​": 812,
      "##’": 813,
      "##چ": 814,
      "##★": 815,
      "##¢": 816,
      "##章": 817,
      "##算": 818,
      "##術": 819,
      "##东": 820,
      "##ž": 821,
      "##ō": 822,
      "##ی": 823,
      "##工": 824,
      "##学": 825,
      "##院": 826,
      "##ル": 827,
      "##ー": 828,
      "##😂": 829,
      "##ц": 830,
      "##״": 831,
      "##ش": 832,
      "##ô": 833,
      "##à": 834,
      "##㪗": 835,
      "##ż": 836,
      "##+": 837,
      "##ş": 838,
      "##ы": 839,
      "##յ": 840,
      "##խ": 841,
      "##ե": 842,
      "##β": 843,
      "##д": 844,
      "##п": 845,
      "##ή": 846,
      "##ß": 847,
      "##‬": 848,
      "##£": 849,
      "##ø": 850,
      "##ɾ": 851,
      "##–": 852,
      "##у": 853,
      "##к": 854,
      "##я": 855,
      "##ш": 856,
      "##‘": 857,
      "###": 858,
      "##古": 859,
      "##襲": 860,
      "##来": 861,
      "##絵": 862,
      "##元": 863,
      "##‡": 864,
      "##&": 865,
      "##ư": 866,
      "##خ": 867,
      "##κ": 868,
      "##â": 869,
      "##т": 870,
      "##‌": 871,
      "##{": 872,
      "##ة": 873,
      "##ú": 874,
      "##◄": 875,
      "##<": 876,
      "##ň": 877,
      "##ħ": 878,
      "##ल": 879,
      "##~": 880,
      "##ھ": 881,
      "##ٹ": 882,
      "##ʊ": 883,
      "##›": 884,
      "##′": 885,
      "##“": 886,
      "##|": 887,
      "##ū": 888,
      "##ɒ": 889,
      "##б": 890,
      "##ā": 891,
      "##œ": 892,
      "##ί": 893,
      "##ć": 894,
      "##—": 895,
      "##د": 896,
      "##ق": 897,
      "##ド": 898,
      "##ギ": 899,
      "##ア": 900,
      "##٢": 901,
      "##٠": 902,
      "##ɛ": 903,
      "##航": 904,
      "##空": 905,
      "##ţ": 906,
      "##名": 907,
      "##أ": 908,
      "##ׁ": 909,
      "##û": 910,
      "##َ": 911,
      "##ï": 912,
      "##介": 913,
      "##[": 914,
      "##̇": 915,
      "##↩": 916,
      "##в": 917,
      "##і": 918,
      "##ч": 919,
      "##€": 920,
      "##ص": 921,
      "##લ": 922,
      "##õ": 923,
      "##ῦ": 924,
      "##װ": 925,
      "##🐔": 926,
      "##民": 927,
      "##主": 928,
      "##義": 929,
      "##府": 930,
      "##🚖": 931,
      "##§": 932,
      "##ュ": 933,
      "##ֿ": 934,
      "##😚": 935,
      "##ث": 936,
      "##ý": 937,
      "##→": 938,
      "##🇾": 939,
      "##ות": 940,
      "##ים": 941,
      "ים": 942,
      "של": 943,
      "ות": 944,
      "את": 945,
      "##ור": 946,
      "##ני": 947,
      "##ול": 948,
      "הי": 949,
      "לא": 950,
      "##נו": 951,
      "על": 952,
      "##וד": 953,
      "##בר": 954,
      "##וא": 955,
      "לה": 956,
      "##ית": 957,
      "##יר": 958,
      "##וב": 959,
      "##ון": 960,
      "המ": 961,
      "##יל": 962,
      "##רי": 963,
      "##די": 964,
      "##ונ": 965,
      "או": 966,
      "אי": 967,
      "##שר": 968,
      "##ום": 969,
      "הא": 970,
      "אח": 971,
      "זה": 972,
      "בי": 973,
      "##מי": 974,
      "כל": 975,
      "מה": 976,
      "##יה": 977,
      "##נה": 978,
      "##לי": 979,
      "הוא": 980,
      "##וח": 981,
      "מש": 982,
      "##וש": 983,
      "##ופ": 984,
      "##כל": 985,
      "##מה": 986,
      "##יב": 987,
      "##ותר": 988,
      "לי": 989,
      "##וי": 990,
      "בא": 991,
      "שי": 992,
      "##תי": 993,
      "מי": 994,
      "מא": 995,
      "יש": 996,
      "ול": 997,
      "##וק": 998,
      "אל": 999,
      "הש": 1000,
      "##וע": 1001,
      "אנ": 1002,
      "עם": 1003,
      "##וצ": 1004,
      "##מר": 1005,
      "##בל": 1006,
      "הת": 1007,
      "אות": 1008,
      "הר": 1009,
      "כי": 1010,
      "שה": 1011,
      "הח": 1012,
      "##שי": 1013,
      "##קר": 1014,
      "שא": 1015,
      "##בי": 1016,
      "בע": 1017,
      "אני": 1018,
      "##יות": 1019,
      "מס": 1020,
      "וה": 1021,
      "רא": 1022,
      "##סי": 1023,
      "חי": 1024,
      "##פר": 1025,
      "למ": 1026,
      "##שה": 1027,
      "##מו": 1028,
      "לו": 1029,
      "יותר": 1030,
      "רי": 1031,
      "מת": 1032,
      "היא": 1033,
      "תי": 1034,
      "##זה": 1035,
      "ור": 1036,
      "##גי": 1037,
      "לע": 1038,
      "מע": 1039,
      "##מש": 1040,
      "הפ": 1041,
      "##דר": 1042,
      "בר": 1043,
      "גם": 1044,
      "אחר": 1045,
      "אר": 1046,
      "מח": 1047,
      "נו": 1048,
      "ני": 1049,
      "##שים": 1050,
      "הב": 1051,
      "##טי": 1052,
      "יכ": 1053,
      "##את": 1054,
      "הם": 1055,
      "##ומ": 1056,
      "##פי": 1057,
      "##נים": 1058,
      "##ין": 1059,
      "היה": 1060,
      "אם": 1061,
      "##טר": 1062,
      "##ולם": 1063,
      "##לה": 1064,
      "הע": 1065,
      "וב": 1066,
      "סי": 1067,
      "מו": 1068,
      "לב": 1069,
      "עב": 1070,
      "בש": 1071,
      "שמ": 1072,
      "יה": 1073,
      "במ": 1074,
      "יי": 1075,
      "##דע": 1076,
      "מצ": 1077,
      "יכול": 1078,
      "די": 1079,
      "כא": 1080,
      "הצ": 1081,
      "עצ": 1082,
      "##רא": 1083,
      "##חר": 1084,
      "לפ": 1085,
      "מק": 1086,
      "##רכ": 1087,
      "אבל": 1088,
      "הג": 1089,
      "הק": 1090,
      "וא": 1091,
      "פר": 1092,
      "אמ": 1093,
      "רק": 1094,
      "הכ": 1095,
      "##נות": 1096,
      "ומ": 1097,
      "##בה": 1098,
      "הס": 1099,
      "לח": 1100,
      "יל": 1101,
      "לש": 1102,
      "דבר": 1103,
      "##אל": 1104,
      "חש": 1105,
      "##וג": 1106,
      "לכ": 1107,
      "בה": 1108,
      "אתה": 1109,
      "אחד": 1110,
      "##דה": 1111,
      "כדי": 1112,
      "מל": 1113,
      "חל": 1114,
      "תק": 1115,
      "ראש": 1116,
      "יר": 1117,
      "##דם": 1118,
      "להיות": 1119,
      "##וס": 1120,
      "פע": 1121,
      "הנ": 1122,
      "אפ": 1123,
      "##שות": 1124,
      "כול": 1125,
      "מכ": 1126,
      "##זר": 1127,
      "##אי": 1128,
      "צרי": 1129,
      "##מן": 1130,
      "כך": 1131,
      "##נת": 1132,
      "בת": 1133,
      "טוב": 1134,
      "וכ": 1135,
      "טי": 1136,
      "##מת": 1137,
      "רב": 1138,
      "זו": 1139,
      "##חנו": 1140,
      "חבר": 1141,
      "##דים": 1142,
      "##וך": 1143,
      "##חי": 1144,
      "##עה": 1145,
      "אנחנו": 1146,
      "שלי": 1147,
      "ישר": 1148,
      "לק": 1149,
      "מדי": 1150,
      "פי": 1151,
      "מב": 1152,
      "בל": 1153,
      "כמו": 1154,
      "אנשים": 1155,
      "ישראל": 1156,
      "הל": 1157,
      "לל": 1158,
      "תח": 1159,
      "מר": 1160,
      "##וה": 1161,
      "דר": 1162,
      "##ונה": 1163,
      "הז": 1164,
      "שלה": 1165,
      "##מים": 1166,
      "##בע": 1167,
      "##דול": 1168,
      "##גל": 1169,
      "עד": 1170,
      "ידי": 1171,
      "##נס": 1172,
      "##וט": 1173,
      "וס": 1174,
      "ית": 1175,
      "##וכ": 1176,
      "##קי": 1177,
      "וע": 1178,
      "רוצ": 1179,
      "וצ": 1180,
      "שלך": 1181,
      "##ורה": 1182,
      "ביותר": 1183,
      "כש": 1184,
      "קי": 1185,
      "זאת": 1186,
      "אמר": 1187,
      "##יא": 1188,
      "אז": 1189,
      "##וף": 1190,
      "בכל": 1191,
      "קר": 1192,
      "שני": 1193,
      "וג": 1194,
      "היית": 1195,
      "יו": 1196,
      "##כם": 1197,
      "הה": 1198,
      "ונ": 1199,
      "וי": 1200,
      "רצ": 1201,
      "האם": 1202,
      "ער": 1203,
      "יצ": 1204,
      "##קה": 1205,
      "רג": 1206,
      "חד": 1207,
      "זמן": 1208,
      "כמה": 1209,
      "##צע": 1210,
      "מפ": 1211,
      "##נט": 1212,
      "##חק": 1213,
      "יס": 1214,
      "שב": 1215,
      "אותו": 1216,
      "ממ": 1217,
      "##ודה": 1218,
      "##ילו": 1219,
      "##תה": 1220,
      "חו": 1221,
      "##כה": 1222,
      "בין": 1223,
      "ספר": 1224,
      "##עות": 1225,
      "הו": 1226,
      "##ורי": 1227,
      "ופ": 1228,
      "מד": 1229,
      "##יו": 1230,
      "אין": 1231,
      "עבור": 1232,
      "שפ": 1233,
      "יח": 1234,
      "הד": 1235,
      "גי": 1236,
      "##ילה": 1237,
      "קצ": 1238,
      "עוד": 1239,
      "שלנו": 1240,
      "היו": 1241,
      "##אר": 1242,
      "##לו": 1243,
      "הזה": 1244,
      "##אה": 1245,
      "גר": 1246,
      "##חה": 1247,
      "רוב": 1248,
      "תה": 1249,
      "שת": 1250,
      "בב": 1251,
      "##ולי": 1252,
      "קט": 1253,
      "##חות": 1254,
      "מאוד": 1255,
      "אנו": 1256,
      "##וני": 1257,
      "בח": 1258,
      "לס": 1259,
      "בני": 1260,
      "##מיד": 1261,
      "צריך": 1262,
      "##אים": 1263,
      "##גיע": 1264,
      "##מוד": 1265,
      "שנ": 1266,
      "עש": 1267,
      "כבר": 1268,
      "לך": 1269,
      "עי": 1270,
      "גדול": 1271,
      "כמ": 1272,
      "לפני": 1273,
      "##אות": 1274,
      "לת": 1275,
      "לאחר": 1276,
      "זכ": 1277,
      "הט": 1278,
      "וש": 1279,
      "פת": 1280,
      "יט": 1281,
      "##זי": 1282,
      "תר": 1283,
      "איך": 1284,
      "אך": 1285,
      "יק": 1286,
      "אשר": 1287,
      "יד": 1288,
      "##ירות": 1289,
      "הרבה": 1290,
      "##ונים": 1291,
      "שלו": 1292,
      "לעשות": 1293,
      "##ירה": 1294,
      "לצ": 1295,
      "נית": 1296,
      "נכ": 1297,
      "בו": 1298,
      "##בד": 1299,
      "צי": 1300,
      "ממש": 1301,
      "חלק": 1302,
      "דברים": 1303,
      "עולם": 1304,
      "טר": 1305,
      "##סף": 1306,
      "שהוא": 1307,
      "רח": 1308,
      "##כן": 1309,
      "ספ": 1310,
      "כאשר": 1311,
      "יפ": 1312,
      "אתם": 1313,
      "שם": 1314,
      "ינ": 1315,
      "וק": 1316,
      "אלה": 1317,
      "עלי": 1318,
      "עדי": 1319,
      "רכ": 1320,
      "לנו": 1321,
      "רע": 1322,
      "אדם": 1323,
      "##פת": 1324,
      "יב": 1325,
      "פש": 1326,
      "##גר": 1327,
      "##יע": 1328,
      "##ומי": 1329,
      "ראשונ": 1330,
      "##טה": 1331,
      "בט": 1332,
      "אחת": 1333,
      "עצמ": 1334,
      "אס": 1335,
      "רוצה": 1336,
      "##זור": 1337,
      "בס": 1338,
      "יום": 1339,
      "שלהם": 1340,
      "שר": 1341,
      "היום": 1342,
      "אחרים": 1343,
      "עבודה": 1344,
      "נש": 1345,
      "##ופן": 1346,
      "באופן": 1347,
      "##מד": 1348,
      "חשב": 1349,
      "כת": 1350,
      "מז": 1351,
      "נג": 1352,
      "##ראה": 1353,
      "##עת": 1354,
      "ילדים": 1355,
      "נה": 1356,
      "הוד": 1357,
      "ורי": 1358,
      "##צי": 1359,
      "שו": 1360,
      "שלא": 1361,
      "ולא": 1362,
      "אב": 1363,
      "##נית": 1364,
      "##דרך": 1365,
      "שנים": 1366,
      "האי": 1367,
      "##ופה": 1368,
      "עס": 1369,
      "שנה": 1370,
      "משפ": 1371,
      "##ונות": 1372,
      "##יים": 1373,
      "מספר": 1374,
      "רו": 1375,
      "אפשר": 1376,
      "תו": 1377,
      "אינ": 1378,
      "##חת": 1379,
      "כן": 1380,
      "איר": 1381,
      "ין": 1382,
      "דו": 1383,
      "##יתי": 1384,
      "##הו": 1385,
      "##גע": 1386,
      "לנ": 1387,
      "גב": 1388,
      "חוש": 1389,
      "כאן": 1390,
      "er": 1391,
      "תמיד": 1392,
      "##קום": 1393,
      "תש": 1394,
      "##רים": 1395,
      "##ושה": 1396,
      "הייתה": 1397,
      "##מנ": 1398,
      "אומר": 1399,
      "מט": 1400,
      "בג": 1401,
      "##שת": 1402,
      "בית": 1403,
      "##ובה": 1404,
      "השת": 1405,
      "עני": 1406,
      "##בין": 1407,
      "ודע": 1408,
      "כולים": 1409,
      "##ינ": 1410,
      "##הב": 1411,
      "מדינה": 1412,
      "##שור": 1413,
      "בכ": 1414,
      "אותם": 1415,
      "בק": 1416,
      "בנו": 1417,
      "##ורך": 1418,
      "##לות": 1419,
      "##סט": 1420,
      "אחרי": 1421,
      "תפ": 1422,
      "עכ": 1423,
      "##יבה": 1424,
      "במה": 1425,
      "##on": 1426,
      "קוד": 1427,
      "##..": 1428,
      "##גיש": 1429,
      "נפ": 1430,
      "פעם": 1431,
      "##ולה": 1432,
      "ימ": 1433,
      "רבים": 1434,
      "להם": 1435,
      "נים": 1436,
      "##לך": 1437,
      "תכ": 1438,
      "##לת": 1439,
      "in": 1440,
      "th": 1441,
      "יהיה": 1442,
      "משהו": 1443,
      "ריק": 1444,
      "עיל": 1445,
      "לכל": 1446,
      "שימ": 1447,
      "סב": 1448,
      "##רט": 1449,
      "תע": 1450,
      "החל": 1451,
      "סוג": 1452,
      "##פור": 1453,
      "ניתן": 1454,
      "##מצ": 1455,
      "ראשון": 1456,
      "כוח": 1457,
      "##דת": 1458,
      "אף": 1459,
      "הכל": 1460,
      "למה": 1461,
      "לג": 1462,
      "אותה": 1463,
      "טיפ": 1464,
      "פור": 1465,
      "מג": 1466,
      "להת": 1467,
      "##שיו": 1468,
      "עכשיו": 1469,
      "פשוט": 1470,
      "סכ": 1471,
      "שאני": 1472,
      "##ברה": 1473,
      "אולי": 1474,
      "##דו": 1475,
      "חוק": 1476,
      "בשנת": 1477,
      "עדיין": 1478,
      "שלכם": 1479,
      "חשוב": 1480,
      "צפ": 1481,
      "סט": 1482,
      "יוד": 1483,
      "##נוי": 1484,
      "##וון": 1485,
      "כנ": 1486,
      "קור": 1487,
      "מטר": 1488,
      "מן": 1489,
      "שהם": 1490,
      "הן": 1491,
      "להי": 1492,
      "קב": 1493,
      "##ודי": 1494,
      "אפילו": 1495,
      "שכ": 1496,
      "חז": 1497,
      "##רכת": 1498,
      "כר": 1499,
      "ברי": 1500,
      "דרך": 1501,
      "אלי": 1502,
      "##דש": 1503,
      "נק": 1504,
      "מלח": 1505,
      "תל": 1506,
      "##קד": 1507,
      "בעולם": 1508,
      "##או": 1509,
      "קה": 1510,
      "ללא": 1511,
      "שיש": 1512,
      "נות": 1513,
      "לרא": 1514,
      "למע": 1515,
      "לד": 1516,
      "אלא": 1517,
      "בחי": 1518,
      "שימוש": 1519,
      "יע": 1520,
      "חושב": 1521,
      "##ar": 1522,
      "##וחד": 1523,
      "באמ": 1524,
      "מיוחד": 1525,
      "...": 1526,
      "טע": 1527,
      "שוב": 1528,
      "באמצע": 1529,
      "צר": 1530,
      "בנ": 1531,
      "##קרים": 1532,
      "באמת": 1533,
      "חייב": 1534,
      "התח": 1535,
      "תמ": 1536,
      "##קט": 1537,
      "לוה": 1538,
      "##an": 1539,
      "וד": 1540,
      "צע": 1541,
      "לראות": 1542,
      "מערכת": 1543,
      "ויות": 1544,
      "וח": 1545,
      "ואת": 1546,
      "לוהים": 1547,
      "תנ": 1548,
      "לכם": 1549,
      "האדם": 1550,
      "##יהם": 1551,
      "##צד": 1552,
      "##or": 1553,
      "##ואה": 1554,
      "בז": 1555,
      "קל": 1556,
      "##ורים": 1557,
      "הייתי": 1558,
      "##ובר": 1559,
      "##מין": 1560,
      "##es": 1561,
      "##תר": 1562,
      "רפ": 1563,
      "קשה": 1564,
      "החיים": 1565,
      "כם": 1566,
      "the": 1567,
      "חיים": 1568,
      "במהלך": 1569,
      "יני": 1570,
      "מנ": 1571,
      "##גון": 1572,
      "משת": 1573,
      "עק": 1574,
      "שום": 1575,
      "רוצים": 1576,
      "##בים": 1577,
      "פרס": 1578,
      "##al": 1579,
      "##כות": 1580,
      "זר": 1581,
      "בדרך": 1582,
      "פני": 1583,
      "##דות": 1584,
      "##in": 1585,
      "נשים": 1586,
      "הול": 1587,
      "המש": 1588,
      "##er": 1589,
      "מרכ": 1590,
      "נמצ": 1591,
      "צריכ": 1592,
      "בשב": 1593,
      "סמ": 1594,
      "##מות": 1595,
      "##משך": 1596,
      "בבית": 1597,
      "ילי": 1598,
      "אותי": 1599,
      "שאתה": 1600,
      "אוהב": 1601,
      "שינוי": 1602,
      "יודע": 1603,
      "##שהו": 1604,
      "קו": 1605,
      "בדי": 1606,
      "טיפול": 1607,
      "##גיה": 1608,
      "נראה": 1609,
      "עוב": 1610,
      "גבר": 1611,
      "עבר": 1612,
      "אלו": 1613,
      "מקום": 1614,
      "שמעות": 1615,
      "ולי": 1616,
      "סיפור": 1617,
      "דינות": 1618,
      "חדש": 1619,
      "פעמים": 1620,
      "רבות": 1621,
      "לאומי": 1622,
      "יז": 1623,
      "##שב": 1624,
      "ערכ": 1625,
      "נע": 1626,
      "היתה": 1627,
      "קבל": 1628,
      "מנה": 1629,
      "עסק": 1630,
      "נס": 1631,
      "שתי": 1632,
      "##קרה": 1633,
      "##דל": 1634,
      "פרי": 1635,
      "אה": 1636,
      "##צור": 1637,
      "עניין": 1638,
      "ציה": 1639,
      "שזה": 1640,
      "עשר": 1641,
      "חופ": 1642,
      "##ויות": 1643,
      "הופ": 1644,
      "לפי": 1645,
      "מוצ": 1646,
      "עול": 1647,
      "##ליח": 1648,
      "אחרונ": 1649,
      "אינו": 1650,
      "יא": 1651,
      "עיר": 1652,
      "הבית": 1653,
      "סיכ": 1654,
      "##טו": 1655,
      "חק": 1656,
      "##יג": 1657,
      "##טים": 1658,
      "איש": 1659,
      "הרי": 1660,
      "כיצד": 1661,
      "מתח": 1662,
      "נטר": 1663,
      "מידע": 1664,
      "גבוה": 1665,
      "בסי": 1666,
      "פח": 1667,
      "תא": 1668,
      "##פה": 1669,
      "שבו": 1670,
      "קבוצ": 1671,
      "##בות": 1672,
      "ברית": 1673,
      "פל": 1674,
      "פחות": 1675,
      "יהודי": 1676,
      "##זו": 1677,
      "סרט": 1678,
      "נגד": 1679,
      "##מני": 1680,
      "האו": 1681,
      "לקבל": 1682,
      "כד": 1683,
      "טל": 1684,
      "##עט": 1685,
      "כמעט": 1686,
      "תג": 1687,
      "כולם": 1688,
      "שהיא": 1689,
      "טבע": 1690,
      "##בוד": 1691,
      "למצ": 1692,
      "##ימ": 1693,
      "בן": 1694,
      "##תם": 1695,
      "עילות": 1696,
      "בצ": 1697,
      "קשור": 1698,
      "##נוע": 1699,
      "##יבור": 1700,
      "במקום": 1701,
      "##ואר": 1702,
      "כולל": 1703,
      "הכי": 1704,
      "##קיד": 1705,
      "מים": 1706,
      "יתר": 1707,
      "יכולה": 1708,
      "קרא": 1709,
      "מאז": 1710,
      "ארץ": 1711,
      "הדבר": 1712,
      "דור": 1713,
      "גור": 1714,
      "ארצ": 1715,
      "בפ": 1716,
      "מלא": 1717,
      "רעי": 1718,
      "השתמש": 1719,
      "הגדול": 1720,
      "אצ": 1721,
      "##פשר": 1722,
      "מוש": 1723,
      "בעלי": 1724,
      "שירות": 1725,
      "במשך": 1726,
      "ינו": 1727,
      "החברה": 1728,
      "נטרנט": 1729,
      "נח": 1730,
      "שלוש": 1731,
      "עצמו": 1732,
      "כפי": 1733,
      "באות": 1734,
      "ביט": 1735,
      "פשר": 1736,
      "תוכ": 1737,
      "קשר": 1738,
      "עצמי": 1739,
      "ידע": 1740,
      "עתי": 1741,
      "##וז": 1742,
      "שע": 1743,
      "וו": 1744,
      "כתב": 1745,
      "נר": 1746,
      "הבי": 1747,
      "תם": 1748,
      "שונים": 1749,
      "נוש": 1750,
      "##פתח": 1751,
      "##מפ": 1752,
      "##ואי": 1753,
      "מישהו": 1754,
      "##טינ": 1755,
      "גיל": 1756,
      "נת": 1757,
      "##ליך": 1758,
      "אופ": 1759,
      "דרכ": 1760,
      "גדולה": 1761,
      "האלה": 1762,
      "אית": 1763,
      "צד": 1764,
      "##קש": 1765,
      "##ילים": 1766,
      "בלתי": 1767,
      "הגיע": 1768,
      "כלל": 1769,
      "יכולת": 1770,
      "חס": 1771,
      "היר": 1772,
      "##יבות": 1773,
      "דק": 1774,
      "חזר": 1775,
      "עושה": 1776,
      "משי": 1777,
      "בשביל": 1778,
      "st": 1779,
      "##ou": 1780,
      "##יח": 1781,
      "תפקיד": 1782,
      "למר": 1783,
      "##כו": 1784,
      "##חור": 1785,
      "ודעים": 1786,
      "אור": 1787,
      "##ובן": 1788,
      "פה": 1789,
      "##רב": 1790,
      "ולר": 1791,
      "##חים": 1792,
      "##מינ": 1793,
      "ריאות": 1794,
      "פסי": 1795,
      "##ודש": 1796,
      "מוע": 1797,
      "נא": 1798,
      "##כר": 1799,
      "##en": 1800,
      "בגל": 1801,
      "לסטינ": 1802,
      "המי": 1803,
      "הודים": 1804,
      "ימים": 1805,
      "למרות": 1806,
      "שחק": 1807,
      "יליון": 1808,
      "מכל": 1809,
      "##שיא": 1810,
      "מהם": 1811,
      "נכון": 1812,
      "גל": 1813,
      "ארצות": 1814,
      "תהיה": 1815,
      "דוג": 1816,
      "##פיק": 1817,
      "בתוך": 1818,
      "סוף": 1819,
      "רוח": 1820,
      "##טת": 1821,
      "בגלל": 1822,
      "ממשלה": 1823,
      "##חו": 1824,
      "באו": 1825,
      "עמ": 1826,
      "ילד": 1827,
      "תוכל": 1828,
      "##ורת": 1829,
      "רסי": 1830,
      "##ינו": 1831,
      "##ביר": 1832,
      "בעי": 1833,
      "בשל": 1834,
      "לכן": 1835,
      "רט": 1836,
      "ראה": 1837,
      "##כנו": 1838,
      "הנה": 1839,
      "מגיע": 1840,
      "##מבר": 1841,
      "##at": 1842,
      "en": 1843,
      "##ביע": 1844,
      "שק": 1845,
      "לדע": 1846,
      "##ורר": 1847,
      "לדעת": 1848,
      "בקר": 1849,
      "##נם": 1850,
      "שעות": 1851,
      "סדר": 1852,
      "מלחמה": 1853,
      "קול": 1854,
      "##וצר": 1855,
      "ספק": 1856,
      "וספ": 1857,
      "on": 1858,
      "באר": 1859,
      "יחד": 1860,
      "10": 1861,
      "וכנית": 1862,
      "למצוא": 1863,
      "בדיוק": 1864,
      "חברות": 1865,
      "לדבר": 1866,
      "בלי": 1867,
      "המו": 1868,
      "בינ": 1869,
      "מוס": 1870,
      "ביום": 1871,
      "ערך": 1872,
      "העיר": 1873,
      "בזמן": 1874,
      "אד": 1875,
      "##om": 1876,
      "אותך": 1877,
      "מתוך": 1878,
      "לגבי": 1879,
      "לוגי": 1880,
      "פעולה": 1881,
      "אירוע": 1882,
      "ריקאי": 1883,
      "נמצא": 1884,
      "קומ": 1885,
      "משר": 1886,
      "כזה": 1887,
      "אחרת": 1888,
      "שט": 1889,
      "כיוון": 1890,
      "ועל": 1891,
      "##וץ": 1892,
      "קצוע": 1893,
      "ומר": 1894,
      "הזו": 1895,
      "חזק": 1896,
      "##פק": 1897,
      "לשמ": 1898,
      "משרד": 1899,
      "##גש": 1900,
      "להפ": 1901,
      "נצ": 1902,
      "אוני": 1903,
      "##st": 1904,
      "re": 1905,
      "ובדים": 1906,
      "תהליך": 1907,
      "##כב": 1908,
      "##ווה": 1909,
      "##וחר": 1910,
      "נוס": 1911,
      "וגם": 1912,
      "הזד": 1913,
      "אוניב": 1914,
      "השני": 1915,
      "מות": 1916,
      "וט": 1917,
      "שבה": 1918,
      "##יבי": 1919,
      "ואני": 1920,
      "רש": 1921,
      "##סה": 1922,
      "##עו": 1923,
      "קצת": 1924,
      "תוך": 1925,
      "הצל": 1926,
      "סוכ": 1927,
      "השנה": 1928,
      "כסף": 1929,
      "לכך": 1930,
      "קיב": 1931,
      "יין": 1932,
      "מעט": 1933,
      "חר": 1934,
      "דא": 1935,
      "מדובר": 1936,
      "##צב": 1937,
      "סור": 1938,
      "תונים": 1939,
      "מספיק": 1940,
      "חברתי": 1941,
      "הזאת": 1942,
      "פתר": 1943,
      "כני": 1944,
      "רד": 1945,
      "מדוע": 1946,
      "##ודת": 1947,
      "לפחות": 1948,
      "##עם": 1949,
      "ארגון": 1950,
      "חמ": 1951,
      "בחר": 1952,
      "עשו": 1953,
      "טובה": 1954,
      "שיע": 1955,
      "והוא": 1956,
      "וסי": 1957,
      "יור": 1958,
      "כיום": 1959,
      "סופ": 1960,
      "וזה": 1961,
      "##ילי": 1962,
      "הדרך": 1963,
      "וצרים": 1964,
      "וריה": 1965,
      "עליו": 1966,
      "למש": 1967,
      "ברח": 1968,
      "##לא": 1969,
      "קודם": 1970,
      "בצורה": 1971,
      "an": 1972,
      "וצאות": 1973,
      "אולם": 1974,
      "זהו": 1975,
      "##ווח": 1976,
      "עית": 1977,
      "כלו": 1978,
      "בד": 1979,
      "##re": 1980,
      "נוח": 1981,
      "##ליט": 1982,
      "ציא": 1983,
      "תנו": 1984,
      "חת": 1985,
      "בהם": 1986,
      "מאו": 1987,
      "רוס": 1988,
      "##כת": 1989,
      "תקופה": 1990,
      "אוכל": 1991,
      "האמ": 1992,
      "יג": 1993,
      "סו": 1994,
      "בטוח": 1995,
      "צו": 1996,
      "##שוב": 1997,
      "מול": 1998,
      "סג": 1999,
      "אחרות": 2000,
      "of": 2001,
      "קצר": 2002,
      "רכב": 2003,
      "בעיות": 2004,
      "ארה": 2005,
      "קבוצה": 2006,
      "הפר": 2007,
      "בוא": 2008,
      "איזה": 2009,
      "ירוש": 2010,
      "לקר": 2011,
      "עזר": 2012,
      "לפת": 2013,
      "נגל": 2014,
      "ון": 2015,
      "המח": 2016,
      "כמובן": 2017,
      "רגע": 2018,
      "ידוע": 2019,
      "עוש": 2020,
      "##ion": 2021,
      "מוק": 2022,
      "נוכ": 2023,
      "משתמש": 2024,
      "##וקר": 2025,
      "יניים": 2026,
      "al": 2027,
      "מאשר": 2028,
      "צב": 2029,
      "##חון": 2030,
      "להבין": 2031,
      "סביב": 2032,
      "סטר": 2033,
      "##נק": 2034,
      "לוק": 2035,
      "בול": 2036,
      "להגיע": 2037,
      "אש": 2038,
      "אק": 2039,
      "מנת": 2040,
      "עושים": 2041,
      "##שא": 2042,
      "אג": 2043,
      "שלושה": 2044,
      "##טרה": 2045,
      "##רח": 2046,
      "לעולם": 2047,
      "##שיך": 2048,
      "הזדמנ": 2049,
      "##סו": 2050,
      "אמיתי": 2051,
      "##פיע": 2052,
      "נדר": 2053,
      "ניה": 2054,
      "##ro": 2055,
      "בעיקר": 2056,
      "ההי": 2057,
      "סוגל": 2058,
      "אינם": 2059,
      "עלה": 2060,
      "מדיני": 2061,
      "נד": 2062,
      "תוצ": 2063,
      "בלבד": 2064,
      "ברור": 2065,
      "תלמיד": 2066,
      "וף": 2067,
      "##ומת": 2068,
      "תוצאה": 2069,
      "מרי": 2070,
      "טובים": 2071,
      "בוע": 2072,
      "כו": 2073,
      "מוד": 2074,
      "מונ": 2075,
      "רוי": 2076,
      "תחיל": 2077,
      "וני": 2078,
      "##ודות": 2079,
      "מעל": 2080,
      "וקר": 2081,
      "כה": 2082,
      "אותנו": 2083,
      "מור": 2084,
      "זכוי": 2085,
      "מדע": 2086,
      "לט": 2087,
      "בעוד": 2088,
      "ומרים": 2089,
      "##ra": 2090,
      "לתת": 2091,
      "##גד": 2092,
      "למעשה": 2093,
      "קיים": 2094,
      "נט": 2095,
      "רשי": 2096,
      "##מוך": 2097,
      "ירופה": 2098,
      "בכך": 2099,
      "חברת": 2100,
      "##פש": 2101,
      "לזה": 2102,
      "שג": 2103,
      "##קרי": 2104,
      "בנוסף": 2105,
      "וליטי": 2106,
      "יחי": 2107,
      "שאתם": 2108,
      "זכר": 2109,
      "מעבר": 2110,
      "ואז": 2111,
      "אצל": 2112,
      "רשת": 2113,
      "שאלה": 2114,
      "תמוד": 2115,
      "תמודד": 2116,
      "השא": 2117,
      "##זרח": 2118,
      "##il": 2119,
      "##וביל": 2120,
      "אינה": 2121,
      "נב": 2122,
      "קטן": 2123,
      "יהיו": 2124,
      "וז": 2125,
      "ובר": 2126,
      "כנס": 2127,
      "חסר": 2128,
      "עומ": 2129,
      "חברים": 2130,
      "פחד": 2131,
      "לר": 2132,
      "קורה": 2133,
      "ne": 2134,
      "ללמוד": 2135,
      "עומד": 2136,
      "מתחיל": 2137,
      "ווי": 2138,
      "מכן": 2139,
      "יית": 2140,
      "תינו": 2141,
      "ומה": 2142,
      "באי": 2143,
      "חול": 2144,
      "ציבור": 2145,
      "רחב": 2146,
      "התחיל": 2147,
      "קרה": 2148,
      "יקר": 2149,
      "לז": 2150,
      "##ol": 2151,
      "לקחת": 2152,
      "בכלל": 2153,
      "##ic": 2154,
      "##תיים": 2155,
      "##שרי": 2156,
      "אחרון": 2157,
      "יהם": 2158,
      "ייר": 2159,
      "פית": 2160,
      "##ביא": 2161,
      "הרג": 2162,
      "זי": 2163,
      "שונות": 2164,
      "מרגיש": 2165,
      "מחקר": 2166,
      "פרק": 2167,
      "למי": 2168,
      "##ריך": 2169,
      "חמי": 2170,
      "תינוק": 2171,
      "שיר": 2172,
      "גד": 2173,
      "יחס": 2174,
      "וצר": 2175,
      "גברים": 2176,
      "לעת": 2177,
      "פק": 2178,
      "מחיר": 2179,
      "מקור": 2180,
      "ועד": 2181,
      "משפט": 2182,
      "חירות": 2183,
      "ודר": 2184,
      "יטחון": 2185,
      "הללו": 2186,
      "מילים": 2187,
      "לימוד": 2188,
      "פא": 2189,
      "אהב": 2190,
      "מתי": 2191,
      "בוצ": 2192,
      "תייח": 2193,
      "תייחס": 2194,
      "עשה": 2195,
      "ירות": 2196,
      "לעזור": 2197,
      "סיבות": 2198,
      "טכנו": 2199,
      "לוגיה": 2200,
      "מקומי": 2201,
      "צריכה": 2202,
      "בתח": 2203,
      "עשי": 2204,
      "גופ": 2205,
      "צמ": 2206,
      "מנס": 2207,
      "נסי": 2208,
      "בעל": 2209,
      "כלי": 2210,
      "נוסף": 2211,
      "מיי": 2212,
      "חינו": 2213,
      "לבד": 2214,
      "נרגיה": 2215,
      "ינג": 2216,
      "פוס": 2217,
      "תמי": 2218,
      "החדש": 2219,
      "ציאות": 2220,
      "איכות": 2221,
      "נז": 2222,
      "##לק": 2223,
      "רואה": 2224,
      "##זיק": 2225,
      "טבעי": 2226,
      "ing": 2227,
      "##טיח": 2228,
      "חדשות": 2229,
      "משפחה": 2230,
      "קורא": 2231,
      "לומר": 2232,
      "שנייה": 2233,
      "שתמש": 2234,
      "קוח": 2235,
      "##סק": 2236,
      "היל": 2237,
      "לעבוד": 2238,
      "חודש": 2239,
      "זק": 2240,
      "מצב": 2241,
      "##לם": 2242,
      "ליצור": 2243,
      "##ch": 2244,
      "תב": 2245,
      "כלכ": 2246,
      "משק": 2247,
      "פורס": 2248,
      "סק": 2249,
      "יסי": 2250,
      "רויקט": 2251,
      "דקות": 2252,
      "ירי": 2253,
      "##el": 2254,
      "חינוך": 2255,
      "כעת": 2256,
      "קומות": 2257,
      "הבא": 2258,
      "עובד": 2259,
      "קרי": 2260,
      "עשוי": 2261,
      "עמד": 2262,
      "##ri": 2263,
      "עיקרי": 2264,
      "##צר": 2265,
      "הסי": 2266,
      "מזון": 2267,
      "##נון": 2268,
      "קשורת": 2269,
      "חצי": 2270,
      "פשרות": 2271,
      "אפשרי": 2272,
      "כתוב": 2273,
      "פיתוח": 2274,
      "דומה": 2275,
      "מרכזי": 2276,
      "להצ": 2277,
      "מסע": 2278,
      "ליל": 2279,
      "ולה": 2280,
      "רבה": 2281,
      "שאל": 2282,
      "כוחות": 2283,
      "אוו": 2284,
      "סל": 2285,
      "הירות": 2286,
      "חברה": 2287,
      "מני": 2288,
      "קיבל": 2289,
      "סת": 2290,
      "משחק": 2291,
      "הכול": 2292,
      "תחת": 2293,
      "עסקים": 2294,
      "השנים": 2295,
      "יף": 2296,
      "מוות": 2297,
      "לוח": 2298,
      "##רבי": 2299,
      "לעתים": 2300,
      "הלא": 2301,
      "שלום": 2302,
      "to": 2303,
      "דמ": 2304,
      "תמונה": 2305,
      "למשל": 2306,
      "נצי": 2307,
      "ניהול": 2308,
      "טלפ": 2309,
      "חוס": 2310,
      "יון": 2311,
      "אמור": 2312,
      "החוק": 2313,
      "מחדש": 2314,
      "נשאר": 2315,
      "ספור": 2316,
      "אהבה": 2317,
      "הגוף": 2318,
      "חשבון": 2319,
      "מקרים": 2320,
      "שונה": 2321,
      "איפה": 2322,
      "חופש": 2323,
      "נקר": 2324,
      "אנשי": 2325,
      "עצמם": 2326,
      "רגיל": 2327,
      "תשובה": 2328,
      "כלכלי": 2329,
      "##חל": 2330,
      "אחוז": 2331,
      "כאלה": 2332,
      "תיק": 2333,
      "אן": 2334,
      "התפתח": 2335,
      "עתיד": 2336,
      "ערב": 2337,
      "האמת": 2338,
      "גבוהה": 2339,
      "בתי": 2340,
      "לבית": 2341,
      "##רחש": 2342,
      "ירה": 2343,
      "ירושל": 2344,
      "ימי": 2345,
      "##נהג": 2346,
      "טרי": 2347,
      "שאלות": 2348,
      "הבינ": 2349,
      "מופ": 2350,
      "צורך": 2351,
      "ארבע": 2352,
      "אוויר": 2353,
      "it": 2354,
      "ספרים": 2355,
      "##ועל": 2356,
      "צוות": 2357,
      "היט": 2358,
      "מכיר": 2359,
      "ונד": 2360,
      "מדבר": 2361,
      "גישה": 2362,
      "שש": 2363,
      "יכר": 2364,
      "מצאים": 2365,
      "אמנות": 2366,
      "פוט": 2367,
      "דע": 2368,
      "התנ": 2369,
      "##טות": 2370,
      "חדשים": 2371,
      "גדל": 2372,
      "##ותפ": 2373,
      "חיפ": 2374,
      "רווח": 2375,
      "לנד": 2376,
      "פט": 2377,
      "שול": 2378,
      "מין": 2379,
      "##קע": 2380,
      "המשיך": 2381,
      "שמח": 2382,
      "עולמי": 2383,
      "ch": 2384,
      "מצא": 2385,
      "קד": 2386,
      "##מל": 2387,
      "שלב": 2388,
      "מעולם": 2389,
      "קס": 2390,
      "שפה": 2391,
      "בתחום": 2392,
      "הורים": 2393,
      "למד": 2394,
      "וספים": 2395,
      "מחשב": 2396,
      "ככל": 2397,
      "מנהיג": 2398,
      "וזי": 2399,
      "##קור": 2400,
      "דרכים": 2401,
      "דוד": 2402,
      "הפך": 2403,
      "באותו": 2404,
      "##בק": 2405,
      "##תב": 2406,
      "ליש": 2407,
      "ליד": 2408,
      "ללכת": 2409,
      "אזור": 2410,
      "היש": 2411,
      "בהת": 2412,
      "##ay": 2413,
      "כולנו": 2414,
      "האל": 2415,
      "שאין": 2416,
      "חומר": 2417,
      "יוכל": 2418,
      "שרת": 2419,
      "תרבות": 2420,
      "ודשים": 2421,
      "לשמור": 2422,
      "##הם": 2423,
      "ביח": 2424,
      "יפה": 2425,
      "שומ": 2426,
      "##נהל": 2427,
      "רגש": 2428,
      "רס": 2429,
      "כגון": 2430,
      "משום": 2431,
      "##וצא": 2432,
      "רות": 2433,
      "##is": 2434,
      "##ופו": 2435,
      "at": 2436,
      "נכנס": 2437,
      "כאב": 2438,
      "ערכות": 2439,
      "עולה": 2440,
      "##לום": 2441,
      "יבורי": 2442,
      "נקרא": 2443,
      "חופשי": 2444,
      "##למ": 2445,
      "ביצ": 2446,
      "יסיון": 2447,
      "בנים": 2448,
      "טק": 2449,
      "##ובל": 2450,
      "אינט": 2451,
      "דרג": 2452,
      "מסו": 2453,
      "נשיא": 2454,
      "לחץ": 2455,
      "צפון": 2456,
      "קצועי": 2457,
      "מדינת": 2458,
      "תחילה": 2459,
      "כדור": 2460,
      "ורג": 2461,
      "באתר": 2462,
      "ברחבי": 2463,
      "הבע": 2464,
      "שכל": 2465,
      "פג": 2466,
      "להפוך": 2467,
      "מאוחר": 2468,
      "אילו": 2469,
      "דג": 2470,
      "אט": 2471,
      "##אש": 2472,
      "אמא": 2473,
      "קונ": 2474,
      "אליו": 2475,
      "פתי": 2476,
      "לאורך": 2477,
      "ארוכ": 2478,
      "טוד": 2479,
      "##כמ": 2480,
      "##ירו": 2481,
      "##ופא": 2482,
      "חוץ": 2483,
      "הצלחה": 2484,
      "##פל": 2485,
      "ממנו": 2486,
      "מבוס": 2487,
      "כנראה": 2488,
      "רומ": 2489,
      "##it": 2490,
      "שעה": 2491,
      "##as": 2492,
      "מונות": 2493,
      "ואי": 2494,
      "יצא": 2495,
      "טרא": 2496,
      "##בוע": 2497,
      "קנ": 2498,
      "##תפ": 2499,
      "בקרב": 2500,
      "מית": 2501,
      "בשנה": 2502,
      "אמרה": 2503,
      "עקב": 2504,
      "קש": 2505,
      "אחורי": 2506,
      "שחר": 2507,
      "##כי": 2508,
      "שלישי": 2509,
      "טלו": 2510,
      "צבע": 2511,
      "##יי": 2512,
      "וֹ": 2513,
      "##כון": 2514,
      "פתרון": 2515,
      "##am": 2516,
      "הטוב": 2517,
      "גז": 2518,
      "בעיה": 2519,
      "רעיון": 2520,
      "דמי": 2521,
      "נדרש": 2522,
      "רוא": 2523,
      "חדשה": 2524,
      "יחסי": 2525,
      "עובדה": 2526,
      "מפל": 2527,
      "20": 2528,
      "שנת": 2529,
      "שהו": 2530,
      "ורות": 2531,
      "רפואי": 2532,
      "הולך": 2533,
      "לקרוא": 2534,
      "וקרטי": 2535,
      "טודנט": 2536,
      "להשי": 2537,
      "להשיג": 2538,
      "היסט": 2539,
      "הגנה": 2540,
      "החלטה": 2541,
      "בור": 2542,
      "רוץ": 2543,
      "te": 2544,
      "חדר": 2545,
      "תודה": 2546,
      "חמש": 2547,
      "יציר": 2548,
      "ביצוע": 2549,
      "חרי": 2550,
      "מבוסס": 2551,
      "ינה": 2552,
      "צטר": 2553,
      "דומ": 2554,
      "נול": 2555,
      "לקח": 2556,
      "תחילת": 2557,
      "עונה": 2558,
      "מפת": 2559,
      "תמיכה": 2560,
      "מורה": 2561,
      "מסוי": 2562,
      "עבד": 2563,
      "תחר": 2564,
      "אירופ": 2565,
      "חריות": 2566,
      "לשנות": 2567,
      "התא": 2568,
      "ניס": 2569,
      "פות": 2570,
      "כמות": 2571,
      "חוסר": 2572,
      "טיבי": 2573,
      "מזה": 2574,
      "מפני": 2575,
      "ודי": 2576,
      "פיר": 2577,
      "יצוני": 2578,
      "עלינו": 2579,
      "בסוף": 2580,
      "הילד": 2581,
      "היינו": 2582,
      "כולות": 2583,
      "נור": 2584,
      "בעבר": 2585,
      "יורק": 2586,
      "ולכן": 2587,
      "עבודת": 2588,
      "המשחק": 2589,
      "ווד": 2590,
      "אומ": 2591,
      "במקרה": 2592,
      "צדק": 2593,
      "הים": 2594,
      "##le": 2595,
      "המס": 2596,
      "לבצע": 2597,
      "##טון": 2598,
      "הפי": 2599,
      "לכת": 2600,
      "מדה": 2601,
      "מהר": 2602,
      "משא": 2603,
      "עיצ": 2604,
      "פולי": 2605,
      "##ce": 2606,
      "ביע": 2607,
      "נושא": 2608,
      "ולט": 2609,
      "לחל": 2610,
      "בעת": 2611,
      "יץ": 2612,
      "עצמך": 2613,
      "הסכם": 2614,
      "קוב": 2615,
      "לחשוב": 2616,
      "שית": 2617,
      "מאמינ": 2618,
      "מלחמת": 2619,
      "סע": 2620,
      "דוגמה": 2621,
      "לחיות": 2622,
      "בנושא": 2623,
      "##oo": 2624,
      "רואים": 2625,
      "תואר": 2626,
      "התנהג": 2627,
      "חוקי": 2628,
      "ואם": 2629,
      "תכנית": 2630,
      "הצב": 2631,
      "לגר": 2632,
      "תרופ": 2633,
      "ממשלת": 2634,
      "בסופו": 2635,
      "המצב": 2636,
      "ורמים": 2637,
      "כבוד": 2638,
      "##אן": 2639,
      "השפ": 2640,
      "עניינ": 2641,
      "חיי": 2642,
      "קוחות": 2643,
      "אישה": 2644,
      "ליפ": 2645,
      "זמ": 2646,
      "שטח": 2647,
      "ִי": 2648,
      "עז": 2649,
      "ורד": 2650,
      "נולד": 2651,
      "שרה": 2652,
      "צפוי": 2653,
      "ווה": 2654,
      "##et": 2655,
      "עצמה": 2656,
      "##קיע": 2657,
      "שחור": 2658,
      "##ובי": 2659,
      "שווי": 2660,
      "רמ": 2661,
      "##ow": 2662,
      "גוד": 2663,
      "דעת": 2664,
      "זכות": 2665,
      "נתיים": 2666,
      "הסרט": 2667,
      "ההיסט": 2668,
      "ותר": 2669,
      "לחלוט": 2670,
      "מצד": 2671,
      "ויז": 2672,
      "פתוח": 2673,
      "דאג": 2674,
      "מפלג": 2675,
      "##לח": 2676,
      "פנים": 2677,
      "רמני": 2678,
      "שנות": 2679,
      "גורם": 2680,
      "כות": 2681,
      "לבין": 2682,
      "בחיים": 2683,
      "ראוי": 2684,
      "##כיר": 2685,
      "הרגיש": 2686,
      "טרור": 2687,
      "מרכז": 2688,
      "תוכלו": 2689,
      "סיבה": 2690,
      "כלומר": 2691,
      "מאפשר": 2692,
      "החז": 2693,
      "ניו": 2694,
      "צעד": 2695,
      "מריקה": 2696,
      "בפני": 2697,
      "בריא": 2698,
      "דין": 2699,
      "פרש": 2700,
      "וכן": 2701,
      "sh": 2702,
      "כשה": 2703,
      "עקבות": 2704,
      "##מע": 2705,
      "ארוח": 2706,
      "תקופ": 2707,
      "אבא": 2708,
      "אבי": 2709,
      "וּ": 2710,
      "מסר": 2711,
      "קרב": 2712,
      "כאילו": 2713,
      "זקוק": 2714,
      "##ve": 2715,
      "מהפ": 2716,
      "התק": 2717,
      "בוצות": 2718,
      "נעשה": 2719,
      "מסוימ": 2720,
      "רצון": 2721,
      "שאנו": 2722,
      "השאלה": 2723,
      "הלי": 2724,
      "רצה": 2725,
      "30": 2726,
      "ma": 2727,
      "##לים": 2728,
      "צרכ": 2729,
      "עליהם": 2730,
      "אמצע": 2731,
      "עו": 2732,
      "הפעם": 2733,
      "חברי": 2734,
      "בסיס": 2735,
      "תת": 2736,
      "##חן": 2737,
      "הצליח": 2738,
      "##קדמ": 2739,
      "המקום": 2740,
      "##וציא": 2741,
      "בשם": 2742,
      "רמניה": 2743,
      "משפחת": 2744,
      "עיצוב": 2745,
      "שוק": 2746,
      "מאד": 2747,
      "חיפוש": 2748,
      "חור": 2749,
      "מקרה": 2750,
      "אמרתי": 2751,
      "אכ": 2752,
      "מוח": 2753,
      "טוע": 2754,
      "המידע": 2755,
      "איראן": 2756,
      "מציע": 2757,
      "מקבל": 2758,
      "מנהל": 2759,
      "דוגמ": 2760,
      "בוקר": 2761,
      "הולכ": 2762,
      "נוע": 2763,
      "המת": 2764,
      "ביקור": 2765,
      "ספורט": 2766,
      "אתכם": 2767,
      "יבי": 2768,
      "השפעה": 2769,
      "גן": 2770,
      "באזור": 2771,
      "מטרה": 2772,
      "לוקח": 2773,
      "כללי": 2774,
      "נגלית": 2775,
      "אהוב": 2776,
      "מדעי": 2777,
      "אמן": 2778,
      "מבין": 2779,
      "##זרת": 2780,
      "להג": 2781,
      "כדאי": 2782,
      "מאמר": 2783,
      "ערים": 2784,
      "ודעות": 2785,
      "##תף": 2786,
      "and": 2787,
      "קלי": 2788,
      "תז": 2789,
      "ציל": 2790,
      "אותן": 2791,
      "טלפון": 2792,
      "עץ": 2793,
      "ארג": 2794,
      "מוכר": 2795,
      "זיה": 2796,
      "הבעיה": 2797,
      "ככה": 2798,
      "והיא": 2799,
      "נשק": 2800,
      "דיק": 2801,
      "גנ": 2802,
      "לחזור": 2803,
      "אנושי": 2804,
      "מיד": 2805,
      "גודל": 2806,
      "ייתכן": 2807,
      "de": 2808,
      "לגרום": 2809,
      "com": 2810,
      "לון": 2811,
      "עלול": 2812,
      "##סיף": 2813,
      "הוסיף": 2814,
      "עיד": 2815,
      "le": 2816,
      "ומי": 2817,
      "##הי": 2818,
      "מבקש": 2819,
      "אומרת": 2820,
      "קהילה": 2821,
      "פנימי": 2822,
      "עמוק": 2823,
      "ודרני": 2824,
      "חומ": 2825,
      "##יני": 2826,
      "##חוד": 2827,
      "סיכון": 2828,
      "יחידה": 2829,
      "ויש": 2830,
      "רוסיה": 2831,
      "והם": 2832,
      "עור": 2833,
      "והמ": 2834,
      "שחקים": 2835,
      "נוספת": 2836,
      "מאות": 2837,
      "בגיל": 2838,
      "##גיעה": 2839,
      "##אם": 2840,
      "שכח": 2841,
      "כלפי": 2842,
      "אנג": 2843,
      "זוהי": 2844,
      "ויזיה": 2845,
      "אתר": 2846,
      "הקשר": 2847,
      "עמוד": 2848,
      "##us": 2849,
      "##ריכ": 2850,
      "שאר": 2851,
      "שיעור": 2852,
      "מחוץ": 2853,
      "העם": 2854,
      "רצח": 2855,
      "##גרת": 2856,
      "##ארד": 2857,
      "רכי": 2858,
      "למען": 2859,
      "בעצ": 2860,
      "ראו": 2861,
      "צרפת": 2862,
      "משקל": 2863,
      "רמת": 2864,
      "לבחור": 2865,
      "דם": 2866,
      "מיני": 2867,
      "תלוי": 2868,
      "15": 2869,
      "רחוק": 2870,
      "מגוון": 2871,
      "היחי": 2872,
      "שפחה": 2873,
      "היחיד": 2874,
      "ליארד": 2875,
      "מפתח": 2876,
      "אכן": 2877,
      "מסגרת": 2878,
      "הגב": 2879,
      "הקר": 2880,
      "ולו": 2881,
      "משך": 2882,
      "הסת": 2883,
      "משטרה": 2884,
      "עירים": 2885,
      "הנשיא": 2886,
      "מהמ": 2887,
      "מראה": 2888,
      "##טנ": 2889,
      "מפע": 2890,
      "##כור": 2891,
      "ירד": 2892,
      "תוכני": 2893,
      "נוכחי": 2894,
      "עונ": 2895,
      "ורק": 2896,
      "באותה": 2897,
      "##כול": 2898,
      "תגובה": 2899,
      "בהתאם": 2900,
      "וכל": 2901,
      "שבת": 2902,
      "סין": 2903,
      "רגל": 2904,
      "##ופל": 2905,
      "שיתוף": 2906,
      "מבט": 2907,
      "ערה": 2908,
      "קטנה": 2909,
      "במי": 2910,
      "כבד": 2911,
      "##שיר": 2912,
      "עלות": 2913,
      "מכשיר": 2914,
      "זוג": 2915,
      "אמרו": 2916,
      "אלב": 2917,
      "ייט": 2918,
      "ניתוח": 2919,
      "ממה": 2920,
      "ראיתי": 2921,
      "המחקר": 2922,
      "טווח": 2923,
      "נהר": 2924,
      "ארב": 2925,
      "תנועה": 2926,
      "עין": 2927,
      "הסיבה": 2928,
      "זוכר": 2929,
      "פטר": 2930,
      "ולים": 2931,
      "שוי": 2932,
      "שבוע": 2933,
      "בארה": 2934,
      "גש": 2935,
      "##ותף": 2936,
      "להש": 2937,
      "ויד": 2938,
      "בהן": 2939,
      "דוק": 2940,
      "רסיטת": 2941,
      "שמות": 2942,
      "קהיל": 2943,
      "זרחים": 2944,
      "סוכנ": 2945,
      "הנו": 2946,
      "תקי": 2947,
      "עצב": 2948,
      "חלוק": 2949,
      "סביבה": 2950,
      "ברגע": 2951,
      "לספק": 2952,
      "##ליק": 2953,
      "שינה": 2954,
      "##וצע": 2955,
      "ממוצע": 2956,
      "בסדר": 2957,
      "וות": 2958,
      "כז": 2959,
      "בעיר": 2960,
      "לבן": 2961,
      "ic": 2962,
      "תחרות": 2963,
      "12": 2964,
      "טרט": 2965,
      "אלף": 2966,
      "ביל": 2967,
      "כונות": 2968,
      "וזיקה": 2969,
      "גרם": 2970,
      "ציר": 2971,
      "החד": 2972,
      "ניצ": 2973,
      "פרופ": 2974,
      "ריב": 2975,
      "תיא": 2976,
      "מחלה": 2977,
      "##חב": 2978,
      "קהל": 2979,
      "טרטגי": 2980,
      "##ופי": 2981,
      "למעלה": 2982,
      "בואו": 2983,
      "מנסה": 2984,
      "לעומת": 2985,
      "מטרות": 2986,
      "הלו": 2987,
      "גוף": 2988,
      "חיובי": 2989,
      "מוביל": 2990,
      "רוד": 2991,
      "שאת": 2992,
      "קבוע": 2993,
      "ועוד": 2994,
      "פרטים": 2995,
      "מטוס": 2996,
      "ro": 2997,
      "חמד": 2998,
      "האתר": 2999,
      "שיו": 3000,
      "מוג": 3001,
      "קיי": 3002,
      "תעופה": 3003,
      "ייצור": 3004,
      "לתוך": 3005,
      "הקרוב": 3006,
      "גיד": 3007,
      "לנס": 3008,
      "לצאת": 3009,
      "אזר": 3010,
      "מצרים": 3011,
      "חפ": 3012,
      "צוי": 3013,
      "פס": 3014,
      "שמי": 3015,
      "שמו": 3016,
      "משמש": 3017,
      "תקן": 3018,
      "המאה": 3019,
      "למנוע": 3020,
      "שבע": 3021,
      "להביא": 3022,
      "ישנם": 3023,
      "פועל": 3024,
      "קיץ": 3025,
      "צרפ": 3026,
      "ארבעה": 3027,
      "דיווח": 3028,
      "הקו": 3029,
      "רצונ": 3030,
      "דנ": 3031,
      "רוע": 3032,
      "קטנים": 3033,
      "לגמ": 3034,
      "בריטנ": 3035,
      "לילה": 3036,
      "ריח": 3037,
      "עזרה": 3038,
      "פתח": 3039,
      "##ct": 3040,
      "קודות": 3041,
      "סביר": 3042,
      "##מלי": 3043,
      "ולל": 3044,
      "שפט": 3045,
      "עיתים": 3046,
      "לגמרי": 3047,
      "or": 3048,
      "##טיס": 3049,
      "צרפתי": 3050,
      "ושר": 3051,
      "טור": 3052,
      "כס": 3053,
      "שאינ": 3054,
      "שכנ": 3055,
      "זמין": 3056,
      "מוקד": 3057,
      "אזרחי": 3058,
      "מעמד": 3059,
      "גא": 3060,
      "מלון": 3061,
      "##סיק": 3062,
      "מצליח": 3063,
      "סופר": 3064,
      "לשם": 3065,
      "סיכוי": 3066,
      "ובל": 3067,
      "נן": 3068,
      "בארץ": 3069,
      "חוצ": 3070,
      "פיל": 3071,
      "##ut": 3072,
      "עשיר": 3073,
      "שמש": 3074,
      "מכר": 3075,
      "לחם": 3076,
      "תקופת": 3077,
      "ed": 3078,
      "כור": 3079,
      "שמר": 3080,
      "דתי": 3081,
      "לול": 3082,
      "תס": 3083,
      "##בור": 3084,
      "אישית": 3085,
      "ונה": 3086,
      "שופ": 3087,
      "סרטן": 3088,
      "ארגונ": 3089,
      "דח": 3090,
      "בועות": 3091,
      "ירא": 3092,
      "עליה": 3093,
      "שווה": 3094,
      "רוחני": 3095,
      "אסור": 3096,
      "##חלט": 3097,
      "החדשה": 3098,
      "דפ": 3099,
      "עליך": 3100,
      "איתנו": 3101,
      "שקט": 3102,
      "פוליט": 3103,
      "for": 3104,
      "תקשר": 3105,
      "ונג": 3106,
      "##ot": 3107,
      "מאבק": 3108,
      "הופך": 3109,
      "גלה": 3110,
      "לם": 3111,
      "נמו": 3112,
      "אישי": 3113,
      "הסביר": 3114,
      "וסף": 3115,
      "רגשות": 3116,
      "קבלת": 3117,
      "mi": 3118,
      "טומ": 3119,
      "##קוח": 3120,
      "יהן": 3121,
      "כרטיס": 3122,
      "בשר": 3123,
      "בהחלט": 3124,
      "שנית": 3125,
      "שניים": 3126,
      "עולות": 3127,
      "שליטה": 3128,
      "יצירת": 3129,
      "גו": 3130,
      "הרכב": 3131,
      "מספק": 3132,
      "דורש": 3133,
      "להגי": 3134,
      "חייו": 3135,
      "##וגר": 3136,
      "בהי": 3137,
      "מכיל": 3138,
      "הלב": 3139,
      "מורכב": 3140,
      "להגיד": 3141,
      "הדי": 3142,
      "חוב": 3143,
      "ריצ": 3144,
      "ונן": 3145,
      "פאר": 3146,
      "דרוש": 3147,
      "החליט": 3148,
      "ar": 3149,
      "דה": 3150,
      "שח": 3151,
      "בשנים": 3152,
      "עדיף": 3153,
      "קבוצת": 3154,
      "השם": 3155,
      "ירת": 3156,
      "משפטי": 3157,
      "היכ": 3158,
      "מאה": 3159,
      "ייס": 3160,
      "סר": 3161,
      "איזו": 3162,
      "אלפי": 3163,
      "מתו": 3164,
      "יתה": 3165,
      "וגר": 3166,
      "כותב": 3167,
      "לאכול": 3168,
      "מטופל": 3169,
      "ראשית": 3170,
      "דלת": 3171,
      "יחודי": 3172,
      "לסי": 3173,
      "צליח": 3174,
      "ניח": 3175,
      "מקורי": 3176,
      "מעור": 3177,
      "##גישה": 3178,
      "תעורר": 3179,
      "פיק": 3180,
      "יודעת": 3181,
      "סייע": 3182,
      "בטח": 3183,
      "שיבות": 3184,
      "דרום": 3185,
      "ישום": 3186,
      "אופן": 3187,
      "##ck": 3188,
      "ביא": 3189,
      "דיבר": 3190,
      "רותים": 3191,
      "כלכל": 3192,
      "ארוך": 3193,
      "ופול": 3194,
      "ריקני": 3195,
      "מופיע": 3196,
      "ביקש": 3197,
      "תקנ": 3198,
      "קרקע": 3199,
      "סדרה": 3200,
      "ביטוי": 3201,
      "בשלב": 3202,
      "וקרים": 3203,
      "סון": 3204,
      "רשות": 3205,
      "זמינ": 3206,
      "מתאים": 3207,
      "טובות": 3208,
      "יוצא": 3209,
      "כבי": 3210,
      "ירותי": 3211,
      "הגיעו": 3212,
      "מזל": 3213,
      "לכתוב": 3214,
      "התנגד": 3215,
      "ציות": 3216,
      "שדה": 3217,
      "העביר": 3218,
      "מבנה": 3219,
      "se": 3220,
      "מומ": 3221,
      "יימים": 3222,
      "אמונה": 3223,
      "##אימ": 3224,
      "הישאר": 3225,
      "בוד": 3226,
      "ירוק": 3227,
      "מושג": 3228,
      "תוש": 3229,
      "מתן": 3230,
      "ריה": 3231,
      "##la": 3232,
      "תנאים": 3233,
      "בסיסי": 3234,
      "רווי": 3235,
      "הבאה": 3236,
      "מלאה": 3237,
      "שפחות": 3238,
      "בחינה": 3239,
      "חולים": 3240,
      "בעצם": 3241,
      "שמאל": 3242,
      "ייך": 3243,
      "מתרחש": 3244,
      "סמכ": 3245,
      "זיהו": 3246,
      "tion": 3247,
      "יילים": 3248,
      "ספי": 3249,
      "לקנות": 3250,
      "וצג": 3251,
      "יסוד": 3252,
      "##וו": 3253,
      "המע": 3254,
      "מסת": 3255,
      "בחירה": 3256,
      "היטב": 3257,
      "חט": 3258,
      "מתחת": 3259,
      "ידת": 3260,
      "50": 3261,
      "li": 3262,
      "ום": 3263,
      "ריד": 3264,
      "ארי": 3265,
      "בטיח": 3266,
      "##ושי": 3267,
      "התחלה": 3268,
      "עשיית": 3269,
      "היות": 3270,
      "עלמ": 3271,
      "הטבע": 3272,
      "איחוד": 3273,
      "מעשי": 3274,
      "סיק": 3275,
      "מרחק": 3276,
      "נשמע": 3277,
      "המים": 3278,
      "לבנות": 3279,
      "חוו": 3280,
      "פורט": 3281,
      "ביטוח": 3282,
      "ווע": 3283,
      "חיה": 3284,
      "תן": 3285,
      "טראמפ": 3286,
      "זב": 3287,
      "נוצר": 3288,
      "שמע": 3289,
      "בנה": 3290,
      "לימות": 3291,
      "נהג": 3292,
      "קיימת": 3293,
      "הוכ": 3294,
      "הני": 3295,
      "תנאי": 3296,
      "ברז": 3297,
      "לשחק": 3298,
      "מבצע": 3299,
      "דיר": 3300,
      "ענ": 3301,
      "דיון": 3302,
      "קפה": 3303,
      "במצב": 3304,
      "חקנים": 3305,
      "האד": 3306,
      "בחודש": 3307,
      "שויים": 3308,
      "אקד": 3309,
      "אקדמי": 3310,
      "עצמנו": 3311,
      "זיא": 3312,
      "אנטי": 3313,
      "תשלום": 3314,
      "##מנע": 3315,
      "זיאון": 3316,
      "לעבור": 3317,
      "נאמר": 3318,
      "בראש": 3319,
      "גרוע": 3320,
      "ליי": 3321,
      "מאמין": 3322,
      "מועמד": 3323,
      "רשימה": 3324,
      "נציאל": 3325,
      "כוונ": 3326,
      "שיפור": 3327,
      "גול": 3328,
      "פתע": 3329,
      "מעורב": 3330,
      "גיט": 3331,
      "חזרה": 3332,
      "עוצ": 3333,
      "נכונה": 3334,
      "שאי": 3335,
      "בידי": 3336,
      "אפר": 3337,
      "ומן": 3338,
      "נצל": 3339,
      "שהיו": 3340,
      "מקווה": 3341,
      "הביתה": 3342,
      "מערבי": 3343,
      "אמת": 3344,
      "תוכן": 3345,
      "ונדון": 3346,
      "קטר": 3347,
      "##וקא": 3348,
      "השבוע": 3349,
      "במס": 3350,
      "דווקא": 3351,
      "להגן": 3352,
      "we": 3353,
      "כח": 3354,
      "חג": 3355,
      "אחראי": 3356,
      "אבד": 3357,
      "כוני": 3358,
      "לין": 3359,
      "היכנס": 3360,
      "כונית": 3361,
      "עורר": 3362,
      "לוט": 3363,
      "ation": 3364,
      "עשרה": 3365,
      "בפעם": 3366,
      "נחשב": 3367,
      "פים": 3368,
      "סוריה": 3369,
      "לנסות": 3370,
      "ושבים": 3371,
      "פוסט": 3372,
      "קף": 3373,
      "עצמכם": 3374,
      "שמה": 3375,
      "שלם": 3376,
      "סיפר": 3377,
      "ילא": 3378,
      "פשרוי": 3379,
      "נבחר": 3380,
      "ביחד": 3381,
      "שיה": 3382,
      "##חרי": 3383,
      "פרסום": 3384,
      "יקורת": 3385,
      "דוגמא": 3386,
      "ינואר": 3387,
      "שלח": 3388,
      "רדה": 3389,
      "כוכ": 3390,
      "ובב": 3391,
      "פורסם": 3392,
      "יטר": 3393,
      "סוגי": 3394,
      "בזה": 3395,
      "לוג": 3396,
      "di": 3397,
      "יוצר": 3398,
      "קדם": 3399,
      "משפיע": 3400,
      "גרס": 3401,
      "וין": 3402,
      "כזו": 3403,
      "המטרה": 3404,
      "מאמ": 3405,
      "שומר": 3406,
      "חקרים": 3407,
      "הרוג": 3408,
      "סכים": 3409,
      "נקודת": 3410,
      "el": 3411,
      "עסקי": 3412,
      "תשומת": 3413,
      "רכיש": 3414,
      "להס": 3415,
      "נזק": 3416,
      "שלוח": 3417,
      "הפסיק": 3418,
      "תכנ": 3419,
      "גמר": 3420,
      "שיל": 3421,
      "חרונה": 3422,
      "su": 3423,
      "הרש": 3424,
      "הכנס": 3425,
      "בתור": 3426,
      "פורמ": 3427,
      "חזור": 3428,
      "מך": 3429,
      "השר": 3430,
      "יתי": 3431,
      "פריקה": 3432,
      "##ביב": 3433,
      "יקום": 3434,
      "בחינת": 3435,
      "is": 3436,
      "un": 3437,
      "בעלות": 3438,
      "שחקן": 3439,
      "ינוי": 3440,
      "נאה": 3441,
      "תני": 3442,
      "הופכ": 3443,
      "טן": 3444,
      "כפר": 3445,
      "מיר": 3446,
      "קיר": 3447,
      "ריירה": 3448,
      "קלים": 3449,
      "פטמבר": 3450,
      "נקי": 3451,
      "יזם": 3452,
      "רל": 3453,
      "לשלם": 3454,
      "ופולר": 3455,
      "מהו": 3456,
      "יינ": 3457,
      "צבא": 3458,
      "לאו": 3459,
      "יימ": 3460,
      "הגדר": 3461,
      "פרטי": 3462,
      "בריטי": 3463,
      "עברו": 3464,
      "ענק": 3465,
      "פו": 3466,
      "זהיר": 3467,
      "גזע": 3468,
      "ניק": 3469,
      "אדמ": 3470,
      "מוכן": 3471,
      "מוגבל": 3472,
      "עוצמ": 3473,
      "רוך": 3474,
      "##קנ": 3475,
      "כלכלה": 3476,
      "הסכמ": 3477,
      "שיער": 3478,
      "הלאומ": 3479,
      "משבר": 3480,
      "לבו": 3481,
      "בשבוע": 3482,
      "דצ": 3483,
      "עלם": 3484,
      "חשבתי": 3485,
      "נקודה": 3486,
      "שיהיה": 3487,
      "נפר": 3488,
      "נתן": 3489,
      "זכה": 3490,
      "פרו": 3491,
      "רז": 3492,
      "##ad": 3493,
      "מטרת": 3494,
      "נצח": 3495,
      "מונח": 3496,
      "נפרד": 3497,
      "דון": 3498,
      "ורה": 3499,
      "קורות": 3500,
      "שויות": 3501,
      "מחלות": 3502,
      "סמים": 3503,
      "זהב": 3504,
      "הדין": 3505,
      "חם": 3506,
      "רוק": 3507,
      "כלא": 3508,
      "הריון": 3509,
      "אלבום": 3510,
      "דצמבר": 3511,
      "11": 3512,
      "שגר": 3513,
      "יפים": 3514,
      "פול": 3515,
      "יהו": 3516,
      "לפע": 3517,
      "מבלי": 3518,
      "לגל": 3519,
      "רמות": 3520,
      "היכן": 3521,
      "קטובר": 3522,
      "מסוים": 3523,
      "לידה": 3524,
      "לשפר": 3525,
      "צמח": 3526,
      "ניות": 3527,
      "תקיים": 3528,
      "מוקדם": 3529,
      "לפעול": 3530,
      "la": 3531,
      "שכר": 3532,
      "משימה": 3533,
      "רון": 3534,
      "שכן": 3535,
      "כלום": 3536,
      "ישנ": 3537,
      "לשמוע": 3538,
      "סבל": 3539,
      "ואף": 3540,
      "הכסף": 3541,
      "##וסט": 3542,
      "קורס": 3543,
      "אוהבת": 3544,
      "כביש": 3545,
      "טה": 3546,
      "ואל": 3547,
      "פרסם": 3548,
      "פרט": 3549,
      "טיל": 3550,
      "וצאת": 3551,
      "טעם": 3552,
      "נותן": 3553,
      "צעיר": 3554,
      "ניסוי": 3555,
      "טיול": 3556,
      "מתאימ": 3557,
      "צבאי": 3558,
      "בנות": 3559,
      "תומ": 3560,
      "היי": 3561,
      "ריע": 3562,
      "מכתב": 3563,
      "יטל": 3564,
      "בנוגע": 3565,
      "ותה": 3566,
      "מהיר": 3567,
      "יניהם": 3568,
      "מניע": 3569,
      "פארק": 3570,
      "קטרונ": 3571,
      "##תיד": 3572,
      "גרמני": 3573,
      "רעיונ": 3574,
      "שופט": 3575,
      "הוביל": 3576,
      "זורים": 3577,
      "רצו": 3578,
      "איננו": 3579,
      "איתו": 3580,
      "שׁ": 3581,
      "##ir": 3582,
      "##סטי": 3583,
      "ערות": 3584,
      "רסיטה": 3585,
      "מסעד": 3586,
      "ידה": 3587,
      "שוא": 3588,
      "סרטים": 3589,
      "קמפ": 3590,
      "החשוב": 3591,
      "18": 3592,
      "יוח": 3593,
      "חיק": 3594,
      "במאי": 3595,
      "קרן": 3596,
      "שתתפ": 3597,
      "פשט": 3598,
      "me": 3599,
      "הוציא": 3600,
      "סא": 3601,
      "צמי": 3602,
      "פעל": 3603,
      "תפי": 3604,
      "משכ": 3605,
      "מסל": 3606,
      "ריפ": 3607,
      "בירה": 3608,
      "דל": 3609,
      "טון": 3610,
      "כירות": 3611,
      "מילה": 3612,
      "נותר": 3613,
      "קבלים": 3614,
      "מסלול": 3615,
      "נוב": 3616,
      "פצי": 3617,
      "מחש": 3618,
      "חלטות": 3619,
      "יעד": 3620,
      "הימנע": 3621,
      "ורש": 3622,
      "חנות": 3623,
      "קלה": 3624,
      "וכך": 3625,
      "וספות": 3626,
      "ספינ": 3627,
      "##צג": 3628,
      "הרפ": 3629,
      "טנ": 3630,
      "you": 3631,
      "ובמבר": 3632,
      "חמישה": 3633,
      "ng": 3634,
      "רדי": 3635,
      "שותפ": 3636,
      "לוס": 3637,
      "סיוע": 3638,
      "הקשור": 3639,
      "אתגר": 3640,
      "שמים": 3641,
      "יסב": 3642,
      "נפש": 3643,
      "נמצאת": 3644,
      "לרוב": 3645,
      "דירה": 3646,
      "חיות": 3647,
      "מסוג": 3648,
      "זמנים": 3649,
      "ובי": 3650,
      "נהדר": 3651,
      "אינן": 3652,
      "ph": 3653,
      "בער": 3654,
      "נוכל": 3655,
      "שמחה": 3656,
      "אים": 3657,
      "הבאים": 3658,
      "es": 3659,
      "גלי": 3660,
      "##id": 3661,
      "ימון": 3662,
      "סטרלי": 3663,
      "רביע": 3664,
      "מצאו": 3665,
      "ופס": 3666,
      "רחוב": 3667,
      "אדום": 3668,
      "צילום": 3669,
      "רביעי": 3670,
      "סד": 3671,
      "וקמ": 3672,
      "בטל": 3673,
      "##ent": 3674,
      "לשים": 3675,
      "עוס": 3676,
      "שלטון": 3677,
      "גזר": 3678,
      "הינו": 3679,
      "און": 3680,
      "סנ": 3681,
      "קנה": 3682,
      "יציב": 3683,
      "הטובה": 3684,
      "וים": 3685,
      "המון": 3686,
      "לפתח": 3687,
      "גדיר": 3688,
      "יונ": 3689,
      "לונות": 3690,
      "מטה": 3691,
      "רופא": 3692,
      "בעתיד": 3693,
      "מחו": 3694,
      "ופים": 3695,
      "לצד": 3696,
      "הודעה": 3697,
      "מודל": 3698,
      "40": 3699,
      "המוח": 3700,
      "ישוע": 3701,
      "אמי": 3702,
      "אויב": 3703,
      "העסק": 3704,
      "חקלא": 3705,
      "יקרה": 3706,
      "ריס": 3707,
      "הצבע": 3708,
      "וריד": 3709,
      "וחר": 3710,
      "חלום": 3711,
      "כניסה": 3712,
      "סטי": 3713,
      "חינם": 3714,
      "הבנה": 3715,
      "ההת": 3716,
      "הופיע": 3717,
      "פותח": 3718,
      "איי": 3719,
      "הפכו": 3720,
      "וננ": 3721,
      "חשבות": 3722,
      "האמין": 3723,
      "נכס": 3724,
      "יחסים": 3725,
      "מיתית": 3726,
      "רן": 3727,
      "רגיש": 3728,
      "תום": 3729,
      "האוכל": 3730,
      "לעמוד": 3731,
      "דבריו": 3732,
      "ערבים": 3733,
      "עודד": 3734,
      "##ess": 3735,
      "דוח": 3736,
      "##עים": 3737,
      "שיח": 3738,
      "הרא": 3739,
      "קצב": 3740,
      "סעי": 3741,
      "כלים": 3742,
      "משיך": 3743,
      "ex": 3744,
      "אישור": 3745,
      "חמור": 3746,
      "מביא": 3747,
      "ישן": 3748,
      "מועצ": 3749,
      "שבהם": 3750,
      "חוויה": 3751,
      "עקר": 3752,
      "קוט": 3753,
      "מימ": 3754,
      "מערב": 3755,
      "הטכנו": 3756,
      "עצמאי": 3757,
      "יוכלו": 3758,
      "אודות": 3759,
      "מאושר": 3760,
      "החלו": 3761,
      "קק": 3762,
      "##um": 3763,
      "לגלות": 3764,
      "התי": 3765,
      "ניתנ": 3766,
      "עשייה": 3767,
      "יכרון": 3768,
      "ta": 3769,
      "פעיל": 3770,
      "פציפי": 3771,
      "חוף": 3772,
      "הזמנ": 3773,
      "be": 3774,
      "והת": 3775,
      "מחפש": 3776,
      "שילוב": 3777,
      "מחשבה": 3778,
      "אול": 3779,
      "גידול": 3780,
      "עליי": 3781,
      "וויר": 3782,
      "גוע": 3783,
      "וגע": 3784,
      "בולות": 3785,
      "סתכל": 3786,
      "סעיף": 3787,
      "##טח": 3788,
      "תקבל": 3789,
      "ושל": 3790,
      "החלק": 3791,
      "פורסמ": 3792,
      "גמ": 3793,
      "סטיב": 3794,
      "מפלגה": 3795,
      "לאי": 3796,
      "שיחה": 3797,
      "בעזרת": 3798,
      "רציתי": 3799,
      "ממנה": 3800,
      "צדדים": 3801,
      "זמני": 3802,
      "כוס": 3803,
      "##נסי": 3804,
      "פיזי": 3805,
      "חוקים": 3806,
      "מלאכ": 3807,
      "סגנון": 3808,
      "גדיל": 3809,
      "יקה": 3810,
      "רבי": 3811,
      "רמו": 3812,
      "סיום": 3813,
      "עצר": 3814,
      "אמצעי": 3815,
      "נמוך": 3816,
      "ייג": 3817,
      "חושבת": 3818,
      "שגם": 3819,
      "צה": 3820,
      "בטא": 3821,
      "עסוק": 3822,
      "בך": 3823,
      "סקר": 3824,
      "ליז": 3825,
      "ולדת": 3826,
      "תחום": 3827,
      "יצר": 3828,
      "מוצר": 3829,
      "לבדוק": 3830,
      "25": 3831,
      "רץ": 3832,
      "המלך": 3833,
      "##ויק": 3834,
      "תיכון": 3835,
      "ניג": 3836,
      "ידיים": 3837,
      "מדויק": 3838,
      "בבוקר": 3839,
      "יתרונ": 3840,
      "רעה": 3841,
      "ראיי": 3842,
      "ייכ": 3843,
      "חייבת": 3844,
      "רוויח": 3845,
      "אושר": 3846,
      "לבס": 3847,
      "חשובה": 3848,
      "עליון": 3849,
      "במידה": 3850,
      "גורי": 3851,
      "תיר": 3852,
      "משותפ": 3853,
      "יסטי": 3854,
      "מועד": 3855,
      "חמא": 3856,
      "co": 3857,
      "יבה": 3858,
      "בנק": 3859,
      "חייהם": 3860,
      "למים": 3861,
      "הנד": 3862,
      "וטל": 3863,
      "חיוני": 3864,
      "רכבת": 3865,
      "הנדס": 3866,
      "תחי": 3867,
      "תקווה": 3868,
      "טענ": 3869,
      "ספקת": 3870,
      "na": 3871,
      "##בח": 3872,
      "##ציב": 3873,
      "שיטות": 3874,
      "הרוח": 3875,
      "לווי": 3876,
      "תקציב": 3877,
      "הודיע": 3878,
      "טעות": 3879,
      "מהי": 3880,
      "השמש": 3881,
      "##ועד": 3882,
      "התע": 3883,
      "לעז": 3884,
      "מטבע": 3885,
      "דמות": 3886,
      "עזה": 3887,
      "קבע": 3888,
      "שרא": 3889,
      "סיים": 3890,
      "מקב": 3891,
      "הקוד": 3892,
      "קרנ": 3893,
      "תרג": 3894,
      "ידור": 3895,
      "עשרות": 3896,
      "sp": 3897,
      "האיש": 3898,
      "ולד": 3899,
      "שמונה": 3900,
      "וצאים": 3901,
      "pro": 3902,
      "אשת": 3903,
      "רנ": 3904,
      "##lo": 3905,
      "חשמל": 3906,
      "שוואה": 3907,
      "רוז": 3908,
      "אכל": 3909,
      "שד": 3910,
      "בניו": 3911,
      "שיווק": 3912,
      "nt": 3913,
      "ענה": 3914,
      "שלילי": 3915,
      "לאדם": 3916,
      "המכ": 3917,
      "מצלמ": 3918,
      "מבוגר": 3919,
      "עימ": 3920,
      "אומית": 3921,
      "##פו": 3922,
      "טיקה": 3923,
      "אבו": 3924,
      "קופ": 3925,
      "המר": 3926,
      "מפגש": 3927,
      "גרמ": 3928,
      "עדיפ": 3929,
      "סגור": 3930,
      "חצ": 3931,
      "צא": 3932,
      "כיש": 3933,
      "בוק": 3934,
      "דמה": 3935,
      "סוי": 3936,
      "עובר": 3937,
      "##ht": 3938,
      "בקלות": 3939,
      "צוד": 3940,
      "רימ": 3941,
      "וכיח": 3942,
      "ועצ": 3943,
      "תפס": 3944,
      "הור": 3945,
      "טט": 3946,
      "מציג": 3947,
      "חות": 3948,
      "##se": 3949,
      "וכנים": 3950,
      "הלילה": 3951,
      "ושאים": 3952,
      "טיב": 3953,
      "כשא": 3954,
      "תער": 3955,
      "כננ": 3956,
      "יסבוק": 3957,
      "רך": 3958,
      "איבד": 3959,
      "עתה": 3960,
      "לאור": 3961,
      "בשוק": 3962,
      "כולו": 3963,
      "יסט": 3964,
      "לספר": 3965,
      "טען": 3966,
      "נושות": 3967,
      "פסיכו": 3968,
      "עוסק": 3969,
      "הערבי": 3970,
      "בדיקה": 3971,
      "לקראת": 3972,
      "רטי": 3973,
      "ראות": 3974,
      "ממשי": 3975,
      "עילוי": 3976,
      "שיטה": 3977,
      "אמנ": 3978,
      "חשש": 3979,
      "נמל": 3980,
      "רלו": 3981,
      "##ur": 3982,
      "למקום": 3983,
      "יוני": 3984,
      "יננסי": 3985,
      "אפריל": 3986,
      "יטה": 3987,
      "שלושת": 3988,
      "הצבא": 3989,
      "mo": 3990,
      "משו": 3991,
      "ועם": 3992,
      "נפלא": 3993,
      "שער": 3994,
      "אופנ": 3995,
      "איתם": 3996,
      "פסיק": 3997,
      "התמ": 3998,
      "פירוש": 3999,
      "השפיע": 4000,
      "ורו": 4001,
      "בניין": 4002,
      "אבק": 4003,
      "רבותי": 4004,
      "שניתן": 4005,
      "בדר": 4006,
      "ביב": 4007,
      "מהן": 4008,
      "##תיק": 4009,
      "חייה": 4010,
      "העתיק": 4011,
      "הכוח": 4012,
      "קישור": 4013,
      "יפש": 4014,
      "סוגים": 4015,
      "יירות": 4016,
      "הרב": 4017,
      "ראשי": 4018,
      "מחר": 4019,
      "הגר": 4020,
      "סכימ": 4021,
      "רוט": 4022,
      "וקם": 4023,
      "נותנ": 4024,
      "וגרפי": 4025,
      "במר": 4026,
      "חלי": 4027,
      "עדר": 4028,
      "קא": 4029,
      "האס": 4030,
      "מסחר": 4031,
      "וכו": 4032,
      "גנטי": 4033,
      "רום": 4034,
      "ורים": 4035,
      "מרא": 4036,
      "לשע": 4037,
      "תחושה": 4038,
      "שראלי": 4039,
      "זון": 4040,
      "קוי": 4041,
      "##כז": 4042,
      "בערך": 4043,
      "במרכז": 4044,
      "טפל": 4045,
      "##ia": 4046,
      "ראים": 4047,
      "ציין": 4048,
      "כרגע": 4049,
      "ערכים": 4050,
      "קולו": 4051,
      "ity": 4052,
      "13": 4053,
      "טקס": 4054,
      "הניח": 4055,
      "נכתב": 4056,
      "הסתכל": 4057,
      "שאינם": 4058,
      "זול": 4059,
      "יות": 4060,
      "תאי": 4061,
      "יומי": 4062,
      "חוזר": 4063,
      "חתול": 4064,
      "הנושא": 4065,
      "גוש": 4066,
      "מהווה": 4067,
      "חליף": 4068,
      "14": 4069,
      "השק": 4070,
      "מעלה": 4071,
      "כלוסי": 4072,
      "יחיד": 4073,
      "ra": 4074,
      "וזר": 4075,
      "ימין": 4076,
      "חלקים": 4077,
      "שחרר": 4078,
      "הראשי": 4079,
      "שהי": 4080,
      "ההבד": 4081,
      "מותו": 4082,
      "קשיב": 4083,
      "ההבדל": 4084,
      "em": 4085,
      "רוג": 4086,
      "תורה": 4087,
      "ותק": 4088,
      "ואין": 4089,
      "ירח": 4090,
      "סכום": 4091,
      "חפשים": 4092,
      "כפ": 4093,
      "##ונא": 4094,
      "ארד": 4095,
      "בתים": 4096,
      "רפא": 4097,
      "וסייה": 4098,
      "מפעל": 4099,
      "כימי": 4100,
      "ברואר": 4101,
      "נוגע": 4102,
      "חבל": 4103,
      "שאם": 4104,
      "ניי": 4105,
      "חלת": 4106,
      "מלי": 4107,
      "וידאו": 4108,
      "רדת": 4109,
      "לאפשר": 4110,
      "יתונא": 4111,
      "ארוחת": 4112,
      "זן": 4113,
      "יך": 4114,
      "בחוץ": 4115,
      "לבסוף": 4116,
      "##וסי": 4117,
      "משותף": 4118,
      "לנצ": 4119,
      "רפואה": 4120,
      "סתם": 4121,
      "למנט": 4122,
      "עשרים": 4123,
      "ועלים": 4124,
      "וול": 4125,
      "צורה": 4126,
      "הנח": 4127,
      "שניהם": 4128,
      "תרגל": 4129,
      "החזיר": 4130,
      "הליכ": 4131,
      "עקרונ": 4132,
      "חום": 4133,
      "ינס": 4134,
      "אתרים": 4135,
      "##ריז": 4136,
      "השיר": 4137,
      "שאפשר": 4138,
      "לנצח": 4139,
      "טכ": 4140,
      "קדי": 4141,
      "הפע": 4142,
      "חלקי": 4143,
      "עברי": 4144,
      "דף": 4145,
      "המילה": 4146,
      "תקדם": 4147,
      "פיצ": 4148,
      "מרב": 4149,
      "חורה": 4150,
      "טו": 4151,
      "סוק": 4152,
      "##im": 4153,
      "ותיו": 4154,
      "נסיעה": 4155,
      "תושבי": 4156,
      "wor": 4157,
      "חב": 4158,
      "עת": 4159,
      "מכוני": 4160,
      "בלע": 4161,
      "et": 4162,
      "po": 4163,
      "לף": 4164,
      "סמך": 4165,
      "לשעבר": 4166,
      "קיד": 4167,
      "יבת": 4168,
      "נדיר": 4169,
      "יכל": 4170,
      "סם": 4171,
      "ארכ": 4172,
      "ספרי": 4173,
      "כוכב": 4174,
      "מקביל": 4175,
      "so": 4176,
      "טייל": 4177,
      "תחומי": 4178,
      "לסייע": 4179,
      "סמוך": 4180,
      "ראית": 4181,
      "העבר": 4182,
      "לבקר": 4183,
      "הנכון": 4184,
      "וקה": 4185,
      "בחדר": 4186,
      "המשך": 4187,
      "יטליה": 4188,
      "ad": 4189,
      "השי": 4190,
      "ועלת": 4191,
      "הודו": 4192,
      "קליפ": 4193,
      "אזרח": 4194,
      "סן": 4195,
      "האור": 4196,
      "ואלי": 4197,
      "יפן": 4198,
      "ent": 4199,
      "##ומנ": 4200,
      "רקע": 4201,
      "גיע": 4202,
      "מושלם": 4203,
      "בפי": 4204,
      "כלבים": 4205,
      "סקס": 4206,
      "פתיע": 4207,
      "בים": 4208,
      "משנת": 4209,
      "##טרף": 4210,
      "הצטרף": 4211,
      "וסעים": 4212,
      "יבש": 4213,
      "ולאחר": 4214,
      "ווים": 4215,
      "צמיחה": 4216,
      "אתמ": 4217,
      "העני": 4218,
      "בחור": 4219,
      "עיני": 4220,
      "משאב": 4221,
      "כשהוא": 4222,
      "זרים": 4223,
      "ישוב": 4224,
      "והן": 4225,
      "בהמשך": 4226,
      "בלילה": 4227,
      "חשבונ": 4228,
      "צטרך": 4229,
      "חיל": 4230,
      "##חתי": 4231,
      "להכיר": 4232,
      "ורפ": 4233,
      "הערכ": 4234,
      "וספת": 4235,
      "שפחתי": 4236,
      "בזכות": 4237,
      "כיב": 4238,
      "קשות": 4239,
      "ותו": 4240,
      "המוצר": 4241,
      "ביס": 4242,
      "יסק": 4243,
      "אתמול": 4244,
      "##ft": 4245,
      "המצ": 4246,
      "לווה": 4247,
      "זוכ": 4248,
      "ילדה": 4249,
      "חוות": 4250,
      "בחברה": 4251,
      "בחיי": 4252,
      "lo": 4253,
      "שורה": 4254,
      "הרופא": 4255,
      "תיים": 4256,
      "מצט": 4257,
      "בקרים": 4258,
      "דעו": 4259,
      "סוד": 4260,
      "סחר": 4261,
      "תנוע": 4262,
      "כוללת": 4263,
      "דווח": 4264,
      "נפגע": 4265,
      "ימות": 4266,
      "חתונה": 4267,
      "##לץ": 4268,
      "ברמה": 4269,
      "אמנם": 4270,
      "תרומ": 4271,
      "פלא": 4272,
      "האדמה": 4273,
      "מרחב": 4274,
      "אורג": 4275,
      "סטרו": 4276,
      "חמישי": 4277,
      "דלק": 4278,
      "וגל": 4279,
      "חיבור": 4280,
      "##אול": 4281,
      "מוזר": 4282,
      "לשאול": 4283,
      "וגרים": 4284,
      "ויט": 4285,
      "תחייב": 4286,
      "16": 4287,
      "מנוע": 4288,
      "מרכיב": 4289,
      "סמל": 4290,
      "כנסת": 4291,
      "רמה": 4292,
      "##li": 4293,
      "מידה": 4294,
      "ובכ": 4295,
      "הצורך": 4296,
      "וריא": 4297,
      "מראש": 4298,
      "מחצ": 4299,
      "ושש": 4300,
      "ודה": 4301,
      "חליט": 4302,
      "משה": 4303,
      "אליהם": 4304,
      "מסך": 4305,
      "לחפש": 4306,
      "מכירה": 4307,
      "וכחות": 4308,
      "מזכיר": 4309,
      "סוכן": 4310,
      "השאיר": 4311,
      "בצד": 4312,
      "תצ": 4313,
      "בינים": 4314,
      "הפוך": 4315,
      "ברר": 4316,
      "הקונ": 4317,
      "וסדות": 4318,
      "וקס": 4319,
      "לזכור": 4320,
      "התמקד": 4321,
      "goo": 4322,
      "בודות": 4323,
      "נוי": 4324,
      "רציני": 4325,
      "נסה": 4326,
      "זהות": 4327,
      "החלה": 4328,
      "גישות": 4329,
      "דורגל": 4330,
      "דרכו": 4331,
      "פתיח": 4332,
      "בהיר": 4333,
      "פתרונ": 4334,
      "ירידה": 4335,
      "no": 4336,
      "ווק": 4337,
      "פגש": 4338,
      "תות": 4339,
      "המא": 4340,
      "לומ": 4341,
      "מחזיק": 4342,
      "ידעתי": 4343,
      "one": 4344,
      "תפיס": 4345,
      "עלו": 4346,
      "ורכי": 4347,
      "הסבר": 4348,
      "ושם": 4349,
      "פתא": 4350,
      "ידו": 4351,
      "שולחן": 4352,
      "מהפכה": 4353,
      "wh": 4354,
      "וותר": 4355,
      "חוד": 4356,
      "עורך": 4357,
      "רישות": 4358,
      "הצו": 4359,
      "בקרוב": 4360,
      "לדברי": 4361,
      "העניק": 4362,
      "בוב": 4363,
      "יופי": 4364,
      "##פות": 4365,
      "מיומנ": 4366,
      "זכור": 4367,
      "מוסרי": 4368,
      "מרבית": 4369,
      "ָה": 4370,
      "בשנות": 4371,
      "חלל": 4372,
      "קטנות": 4373,
      "כוה": 4374,
      "חלב": 4375,
      "לצי": 4376,
      "תכו": 4377,
      "תכנון": 4378,
      "הכללי": 4379,
      "כרז": 4380,
      "פחית": 4381,
      "המחיר": 4382,
      "קובע": 4383,
      "כוהול": 4384,
      "אורה": 4385,
      "ושי": 4386,
      "עוני": 4387,
      "כלה": 4388,
      "ישאר": 4389,
      "ולש": 4390,
      "דיש": 4391,
      "שוטר": 4392,
      "רטיות": 4393,
      "מונים": 4394,
      "סח": 4395,
      "ובדות": 4396,
      "לבוא": 4397,
      "הצביע": 4398,
      "רעב": 4399,
      "מנסים": 4400,
      "ניצחו": 4401,
      "ביוני": 4402,
      "אליה": 4403,
      "ניש": 4404,
      "יקוד": 4405,
      "עוזר": 4406,
      "נמוכה": 4407,
      "##נד": 4408,
      "התרחש": 4409,
      "לבוש": 4410,
      "דיקות": 4411,
      "24": 4412,
      "לן": 4413,
      "התקדמ": 4414,
      "סורתי": 4415,
      "כוונה": 4416,
      "הסיני": 4417,
      "מאמץ": 4418,
      "סנט": 4419,
      "תאים": 4420,
      "הרגע": 4421,
      "שירים": 4422,
      "כתובת": 4423,
      "חורף": 4424,
      "יוחדת": 4425,
      "ניגוד": 4426,
      "סול": 4427,
      "צל": 4428,
      "בקש": 4429,
      "ולין": 4430,
      "גורל": 4431,
      "ולוגי": 4432,
      "רדיו": 4433,
      "הבל": 4434,
      "עזור": 4435,
      "תפתח": 4436,
      "הפכה": 4437,
      "הבנק": 4438,
      "ומחים": 4439,
      "יצב": 4440,
      "לצפות": 4441,
      "סוימת": 4442,
      "רלוונ": 4443,
      "שהן": 4444,
      "דרש": 4445,
      "הדור": 4446,
      "לפתוח": 4447,
      "ייב": 4448,
      "תדר": 4449,
      "וינ": 4450,
      "ופאים": 4451,
      "נפוצ": 4452,
      "עלים": 4453,
      "השוק": 4454,
      "גיי": 4455,
      "תנהל": 4456,
      "מעבד": 4457,
      "יתן": 4458,
      "וחרים": 4459,
      "ce": 4460,
      "man": 4461,
      "גוב": 4462,
      "עון": 4463,
      "תקר": 4464,
      "##pp": 4465,
      "ריש": 4466,
      "רבנ": 4467,
      "בחנ": 4468,
      "הודות": 4469,
      "לוי": 4470,
      "נפתח": 4471,
      "רינ": 4472,
      "תומכ": 4473,
      "תקרב": 4474,
      "במש": 4475,
      "ינט": 4476,
      "מהות": 4477,
      "ובכל": 4478,
      "יתות": 4479,
      "פתאום": 4480,
      "המפ": 4481,
      "מומלץ": 4482,
      "וויות": 4483,
      "יים": 4484,
      "ביי": 4485,
      "מינ": 4486,
      "ישב": 4487,
      "מחוז": 4488,
      "מוצא": 4489,
      "win": 4490,
      "דריכ": 4491,
      "פסק": 4492,
      "צורת": 4493,
      "בימים": 4494,
      "בבק": 4495,
      "הנהג": 4496,
      "להציל": 4497,
      "עידן": 4498,
      "ולת": 4499,
      "##זרה": 4500,
      "בחזרה": 4501,
      "סכנה": 4502,
      "מנע": 4503,
      "לטפל": 4504,
      "נייד": 4505,
      "חכ": 4506,
      "לוצ": 4507,
      "מסקנ": 4508,
      "טובוס": 4509,
      "ונק": 4510,
      "הגיעה": 4511,
      "מותר": 4512,
      "רדו": 4513,
      "שקר": 4514,
      "ולם": 4515,
      "מחנה": 4516,
      "יהנות": 4517,
      "תגורר": 4518,
      "אכיל": 4519,
      "עונש": 4520,
      "גיא": 4521,
      "יוש": 4522,
      "עגל": 4523,
      "אלצ": 4524,
      "עשיתי": 4525,
      "גלגל": 4526,
      "וור": 4527,
      "מלה": 4528,
      "הרצ": 4529,
      "לעצ": 4530,
      "במזרח": 4531,
      "דרמ": 4532,
      "ציור": 4533,
      "נהלים": 4534,
      "דעתי": 4535,
      "גובות": 4536,
      "con": 4537,
      "יאו": 4538,
      "אום": 4539,
      "קיום": 4540,
      "עברה": 4541,
      "כלב": 4542,
      "ורט": 4543,
      "ובש": 4544,
      "לכולם": 4545,
      "מגדל": 4546,
      "נורא": 4547,
      "תקיימ": 4548,
      "טורקי": 4549,
      "תערוכ": 4550,
      "תכוונ": 4551,
      "הידע": 4552,
      "שהמ": 4553,
      "הקמת": 4554,
      "וכבים": 4555,
      "מזג": 4556,
      "מוצלח": 4557,
      "מחויב": 4558,
      "ייה": 4559,
      "ליב": 4560,
      "שואה": 4561,
      "סימן": 4562,
      "עלייה": 4563,
      "צעדים": 4564,
      "פלט": 4565,
      "בודד": 4566,
      "לוא": 4567,
      "צוע": 4568,
      "##ציה": 4569,
      "ותיה": 4570,
      "ולנוע": 4571,
      "ספים": 4572,
      "צרות": 4573,
      "רשתות": 4574,
      "ועדון": 4575,
      "אשתו": 4576,
      "הרה": 4577,
      "הפנים": 4578,
      "עשית": 4579,
      "קודש": 4580,
      "##art": 4581,
      "הקודמ": 4582,
      "גג": 4583,
      "הדם": 4584,
      "ביולי": 4585,
      "העלות": 4586,
      "מרץ": 4587,
      "נקים": 4588,
      "ואתה": 4589,
      "מדהים": 4590,
      "לופ": 4591,
      "ישיות": 4592,
      "וריו": 4593,
      "למשך": 4594,
      "בלה": 4595,
      "ניב": 4596,
      "פצ": 4597,
      "השאר": 4598,
      "ריסט": 4599,
      "מחלק": 4600,
      "ילות": 4601,
      "כשל": 4602,
      "עזב": 4603,
      "am": 4604,
      "ולנ": 4605,
      "הכר": 4606,
      "עדכ": 4607,
      "קיומ": 4608,
      "תאריך": 4609,
      "עשויה": 4610,
      "מובן": 4611,
      "להק": 4612,
      "מיועד": 4613,
      "רשם": 4614,
      "שומע": 4615,
      "חולה": 4616,
      "קדש": 4617,
      "מאחר": 4618,
      "דיפ": 4619,
      "דברי": 4620,
      "ושוב": 4621,
      "והר": 4622,
      "ייצר": 4623,
      "וכח": 4624,
      "הרגו": 4625,
      "אביו": 4626,
      "חובה": 4627,
      "סודות": 4628,
      "רם": 4629,
      "תיבה": 4630,
      "האלו": 4631,
      "הרס": 4632,
      "החי": 4633,
      "כתבה": 4634,
      "קנא": 4635,
      "לנהל": 4636,
      "מסחרי": 4637,
      "חיש": 4638,
      "הזוג": 4639,
      "הוכח": 4640,
      "web": 4641,
      "השקעה": 4642,
      "דים": 4643,
      "ונס": 4644,
      "חכמ": 4645,
      "צור": 4646,
      "שיא": 4647,
      "מיקום": 4648,
      "תפל": 4649,
      "צירתי": 4650,
      "קידום": 4651,
      "רה": 4652,
      "מלבד": 4653,
      "הדמ": 4654,
      "האישה": 4655,
      "האינט": 4656,
      "נושית": 4657,
      "אקו": 4658,
      "הצבאי": 4659,
      "בוה": 4660,
      "גדה": 4661,
      "רוכ": 4662,
      "לאה": 4663,
      "מתאר": 4664,
      "מחכ": 4665,
      "טובת": 4666,
      "הולנד": 4667,
      "וסיקה": 4668,
      "כחול": 4669,
      "יימס": 4670,
      "תגר": 4671,
      "##ge": 4672,
      "##ירים": 4673,
      "שאינו": 4674,
      "לבקש": 4675,
      "הקד": 4676,
      "לחיים": 4677,
      "הדו": 4678,
      "גביר": 4679,
      "תנד": 4680,
      "קדימה": 4681,
      "דגיש": 4682,
      "פגיעה": 4683,
      "##ודא": 4684,
      "האג": 4685,
      "שהת": 4686,
      "חשבו": 4687,
      "צער": 4688,
      "מוצרי": 4689,
      "תאונ": 4690,
      "ענו": 4691,
      "ייק": 4692,
      "דידות": 4693,
      "פשע": 4694,
      "פסיד": 4695,
      "זכרו": 4696,
      "הקדוש": 4697,
      "dow": 4698,
      "מיקר": 4699,
      "אמון": 4700,
      "פעמי": 4701,
      "בנייה": 4702,
      "זל": 4703,
      "מירה": 4704,
      "ברצ": 4705,
      "מקו": 4706,
      "מכון": 4707,
      "טיסה": 4708,
      "ביחס": 4709,
      "מיקרו": 4710,
      "ca": 4711,
      "גוסט": 4712,
      "טוח": 4713,
      "סומ": 4714,
      "היב": 4715,
      "שיטת": 4716,
      "מלך": 4717,
      "מלכה": 4718,
      "בניית": 4719,
      "יקח": 4720,
      "טרם": 4721,
      "עליכם": 4722,
      "אבט": 4723,
      "דירות": 4724,
      "להצי": 4725,
      "מתקדמ": 4726,
      "ספרד": 4727,
      "מטרים": 4728,
      "רעיני": 4729,
      "נגליה": 4730,
      "זיק": 4731,
      "להציג": 4732,
      "חכם": 4733,
      "לות": 4734,
      "עריכ": 4735,
      "שן": 4736,
      "מאת": 4737,
      "חשיבה": 4738,
      "וסט": 4739,
      "בחון": 4740,
      "רכש": 4741,
      "אינדי": 4742,
      "בקשה": 4743,
      "הכרה": 4744,
      "עריך": 4745,
      "להר": 4746,
      "תחל": 4747,
      "קיפ": 4748,
      "יבוד": 4749,
      "אסיר": 4750,
      "בכדי": 4751,
      "גיטלי": 4752,
      "us": 4753,
      "ופר": 4754,
      "הבדל": 4755,
      "ופק": 4756,
      "יאן": 4757,
      "יאורי": 4758,
      "תוכנה": 4759,
      "משיכה": 4760,
      "טקסט": 4761,
      "צטרפ": 4762,
      "חקר": 4763,
      "קח": 4764,
      "כזב": 4765,
      "הערכה": 4766,
      "גשר": 4767,
      "##un": 4768,
      "שיק": 4769,
      "הראות": 4770,
      "בעה": 4771,
      "לעצור": 4772,
      "ילדות": 4773,
      "שפות": 4774,
      "עיתונ": 4775,
      "טומטי": 4776,
      "אבטחה": 4777,
      "טש": 4778,
      "מם": 4779,
      "כלשהו": 4780,
      "התו": 4781,
      "ריטים": 4782,
      "ציוד": 4783,
      "בלעדי": 4784,
      "בּ": 4785,
      "קמ": 4786,
      "איון": 4787,
      "ייש": 4788,
      "לקו": 4789,
      "נגטון": 4790,
      "גופני": 4791,
      "במספר": 4792,
      "שוח": 4793,
      "ובליק": 4794,
      "ייפ": 4795,
      "מצבים": 4796,
      "ופעות": 4797,
      "אבן": 4798,
      "כנסי": 4799,
      "קריאה": 4800,
      "צודק": 4801,
      "תפלל": 4802,
      "בוהים": 4803,
      "לרכ": 4804,
      "מסביר": 4805,
      "וגד": 4806,
      "מיידי": 4807,
      "זנ": 4808,
      "קושי": 4809,
      "לאן": 4810,
      "אימפ": 4811,
      "ריג": 4812,
      "וואי": 4813,
      "לולה": 4814,
      "נדי": 4815,
      "סקי": 4816,
      "שלמת": 4817,
      "השקע": 4818,
      "ורמלי": 4819,
      "מעשה": 4820,
      "חזית": 4821,
      "יעשה": 4822,
      "אורח": 4823,
      "בדק": 4824,
      "דוקט": 4825,
      "רנק": 4826,
      "סכסו": 4827,
      "מנכ": 4828,
      "חטא": 4829,
      "he": 4830,
      "הצע": 4831,
      "מבטיח": 4832,
      "ממני": 4833,
      "בסך": 4834,
      "אהבת": 4835,
      "כיבוש": 4836,
      "pl": 4837,
      "טא": 4838,
      "יבר": 4839,
      "פליק": 4840,
      "שזו": 4841,
      "משח": 4842,
      "השקיע": 4843,
      "וקפ": 4844,
      "וקף": 4845,
      "עניק": 4846,
      "יתרון": 4847,
      "נוחות": 4848,
      "נוער": 4849,
      "60": 4850,
      "as": 4851,
      "sc": 4852,
      "אחים": 4853,
      "בחרו": 4854,
      "טנדר": 4855,
      "כשאני": 4856,
      "השלום": 4857,
      "למדת": 4858,
      "בשעה": 4859,
      "בלב": 4860,
      "קטע": 4861,
      "בדן": 4862,
      "תבצע": 4863,
      "דואר": 4864,
      "מום": 4865,
      "שישי": 4866,
      "ברג": 4867,
      "מחה": 4868,
      "תרופה": 4869,
      "אסטר": 4870,
      "אפשרת": 4871,
      "מטבח": 4872,
      "רומא": 4873,
      "ותיהם": 4874,
      "אתי": 4875,
      "ביצע": 4876,
      "כלול": 4877,
      "שישה": 4878,
      "הרים": 4879,
      "והפ": 4880,
      "יקול": 4881,
      "רשימת": 4882,
      "חוצה": 4883,
      "חודשי": 4884,
      "ייל": 4885,
      "פד": 4886,
      "צוג": 4887,
      "ישואי": 4888,
      "הקים": 4889,
      "ואב": 4890,
      "בתוכ": 4891,
      "אסר": 4892,
      "נסייה": 4893,
      "דמוי": 4894,
      "תנדב": 4895,
      "פגישה": 4896,
      "ישור": 4897,
      "ובילה": 4898,
      "בלנות": 4899,
      "יעיל": 4900,
      "סדרת": 4901,
      "כספי": 4902,
      "שואל": 4903,
      "יושב": 4904,
      "צום": 4905,
      "יבור": 4906,
      "פשוטה": 4907,
      "כנע": 4908,
      "עיתון": 4909,
      "פגנ": 4910,
      "לרכוש": 4911,
      "קום": 4912,
      "שלהן": 4913,
      "שפעת": 4914,
      "גרש": 4915,
      "יעוד": 4916,
      "וניינ": 4917,
      "לזהות": 4918,
      "לישית": 4919,
      "קחו": 4920,
      "מחבר": 4921,
      "הצד": 4922,
      "ופן": 4923,
      "בטחת": 4924,
      "נפט": 4925,
      "נקבע": 4926,
      "מושב": 4927,
      "קשרים": 4928,
      "שחרור": 4929,
      "וודאי": 4930,
      "זהה": 4931,
      "ביו": 4932,
      "ישומ": 4933,
      "רבן": 4934,
      "בגוף": 4935,
      "ודעת": 4936,
      "לילי": 4937,
      "ברוב": 4938,
      "תחנ": 4939,
      "וער": 4940,
      "ממשל": 4941,
      "פריז": 4942,
      "סופי": 4943,
      "חבורה": 4944,
      "בבקשה": 4945,
      "##לט": 4946,
      "שלים": 4947,
      "כיף": 4948,
      "וכי": 4949,
      "פייה": 4950,
      "שפע": 4951,
      "קלט": 4952,
      "לעזוב": 4953,
      "מחצית": 4954,
      "זינ": 4955,
      "ורר": 4956,
      "מפקד": 4957,
      "פרסמ": 4958,
      "רומנ": 4959,
      "הצוות": 4960,
      "דריך": 4961,
      "בשני": 4962,
      "לצורך": 4963,
      "##all": 4964,
      "קראו": 4965,
      "ברחוב": 4966,
      "רגשתי": 4967,
      "חמאס": 4968,
      "צאתי": 4969,
      "תור": 4970,
      "חייל": 4971,
      "אשראי": 4972,
      "קבלו": 4973,
      "גובה": 4974,
      "מתנה": 4975,
      "ייד": 4976,
      "לייצר": 4977,
      "גיב": 4978,
      "פוץ": 4979,
      "שוחר": 4980,
      "שמור": 4981,
      "במח": 4982,
      "ימור": 4983,
      "כניק": 4984,
      "וברת": 4985,
      "תיקון": 4986,
      "כזאת": 4987,
      "הצעה": 4988,
      "הלקוח": 4989,
      "ושך": 4990,
      "בסין": 4991,
      "מותג": 4992,
      "ip": 4993,
      "יאל": 4994,
      "נויות": 4995,
      "תמוך": 4996,
      "להשת": 4997,
      "ליג": 4998,
      "בעד": 4999
    }
  }
}