{
  "version": "1.0",
  "truncation": null,
  "padding": null,
  "added_tokens": [
    {
      "id": 0,
      "content": "[UNK]",
      "single_word": false,
      "lstrip": false,
      "rstrip": false,
      "normalized": false,
      "special": true
    },
    {
      "id": 1,
      "content": "[CLS]",
      "single_word": false,
      "lstrip": false,
      "rstrip": false,
      "normalized": false,
      "special": true
    },
    {
      "id": 2,
      "content": "[SEP]",
      "single_word": false,
      "lstrip": false,
      "rstrip": false,
      "normalized": false,
      "special": true
    },
    {
      "id": 3,
      "content": "[PAD]",
      "single_word": false,
      "lstrip": false,
      "rstrip": false,
      "normalized": false,
      "special": true
    },
    {
      "id": 4,
      "content": "[MASK]",
      "single_word": false,
      "lstrip": false,
      "rstrip": false,
      "normalized": false,
      "special": true
    }
  ],
  "normalizer": {
    "type": "Sequence",
    "normalizers": [
      {
        "type": "NFKC"
      },
      {
        "type": "Lowercase"
      }
    ]
  },
  "pre_tokenizer": {
    "type": "Whitespace"
  },
  "post_processor": null,
  "decoder": {
    "type": "WordPiece",
    "prefix": "##",
    "cleanup": true
  },
  "model": {
    "type": "WordPiece",
    "unk_token": "[UNK]",
    "continuing_subword_prefix": "##",
    "max_input_chars_per_word": 100,
    "vocab": {
      "[UNK]": 0,
      "[CLS]": 1,
      "[SEP]": 2,
      "[PAD]": 3,
      "[MASK]": 4,
      "!": 5,
      "\"": 6,
      "#": 7,
      "$": 8,
      "%": 9,
      "&": 10,
      "'": 11,
      "(": 12,
      ")": 13,
      "*": 14,
      "+": 15,
      ",": 16,
      "-": 17,
      ".": 18,
      "/": 19,
      "0": 20,
      "1": 21,
      "2": 22,
      "3": 23,
      "4": 24,
      "5": 25,
      "6": 26,
      "7": 27,
      "8": 28,
      "9": 29,
      ":": 30,
      ";": 31,
      "<": 32,
      "=": 33,
      ">": 34,
      "?": 35,
      "@": 36,
      "[": 37,
      "\\": 38,
      "]": 39,
      "^": 40,
      "_": 41,
      "`": 42,
      "a": 43,
      "b": 44,
      "c": 45,
      "d": 46,
      "e": 47,
      "f": 48,
      "g": 49,
      "h": 50,
      "i": 51,
      "j": 52,
      "k": 53,
      "l": 54,
      "m": 55,
      "n": 56,
      "o": 57,
      "p": 58,
      "q": 59,
      "r": 60,
      "s": 61,
      "t": 62,
      "u": 63,
      "v": 64,
      "w": 65,
      "x": 66,
      "y": 67,
      "z": 68,
      "{": 69,
      "|": 70,
      "}": 71,
      "~": 72,
      "": 73,
      "": 74,
      "": 75,
      "": 76,
      "": 77,
      "": 78,
      "": 79,
      "": 80,
      "": 81,
      "": 82,
      "": 83,
      "¡": 84,
      "¢": 85,
      "£": 86,
      "¦": 87,
      "§": 88,
      "©": 89,
      "«": 90,
      "¬": 91,
      "­": 92,
      "®": 93,
      "°": 94,
      "±": 95,
      "¶": 96,
      "·": 97,
      "»": 98,
      "¿": 99,
      "×": 100,
      "ß": 101,
      "à": 102,
      "á": 103,
      "â": 104,
      "ã": 105,
      "ä": 106,
      "å": 107,
      "æ": 108,
      "ç": 109,
      "è": 110,
      "é": 111,
      "ê": 112,
      "ë": 113,
      "í": 114,
      "î": 115,
      "ï": 116,
      "ð": 117,
      "ñ": 118,
      "ò": 119,
      "ó": 120,
      "ô": 121,
      "õ": 122,
      "ö": 123,
      "÷": 124,
      "ø": 125,
      "ù": 126,
      "ú": 127,
      "û": 128,
      "ü": 129,
      "ý": 130,
      "ÿ": 131,
      "ā": 132,
      "ă": 133,
      "ć": 134,
      "č": 135,
      "đ": 136,
      "ę": 137,
      "ğ": 138,
      "ġ": 139,
      "ħ": 140,
      "ī": 141,
      "ł": 142,
      "ň": 143,
      "ŋ": 144,
      "ō": 145,
      "ő": 146,
      "œ": 147,
      "ś": 148,
      "ş": 149,
      "š": 150,
      "ţ": 151,
      "ū": 152,
      "ż": 153,
      "ž": 154,
      "ư": 155,
      "ș": 156,
      "ț": 157,
      "ɒ": 158,
      "ɓ": 159,
      "ə": 160,
      "ɛ": 161,
      "ɸ": 162,
      "ɾ": 163,
      "ʉ": 164,
      "ʊ": 165,
      "ʌ": 166,
      "ʻ": 167,
      "ʼ": 168,
      "ˈ": 169,
      "ˌ": 170,
      "ː": 171,
      "́": 172,
      "̄": 173,
      "̇": 174,
      "̈": 175,
      "ά": 176,
      "έ": 177,
      "ή": 178,
      "ί": 179,
      "α": 180,
      "β": 181,
      "γ": 182,
      "δ": 183,
      "ε": 184,
      "η": 185,
      "θ": 186,
      "ι": 187,
      "κ": 188,
      "λ": 189,
      "μ": 190,
      "ν": 191,
      "ο": 192,
      "π": 193,
      "ρ": 194,
      "ς": 195,
      "σ": 196,
      "τ": 197,
      "υ": 198,
      "φ": 199,
      "χ": 200,
      "ψ": 201,
      "ω": 202,
      "ό": 203,
      "а": 204,
      "б": 205,
      "в": 206,
      "г": 207,
      "д": 208,
      "е": 209,
      "ж": 210,
      "и": 211,
      "й": 212,
      "к": 213,
      "л": 214,
      "н": 215,
      "о": 216,
      "п": 217,
      "р": 218,
      "с": 219,
      "т": 220,
      "у": 221,
      "ф": 222,
      "х": 223,
      "ц": 224,
      "ч": 225,
      "ш": 226,
      "ы": 227,
      "я": 228,
      "і": 229,
      "ҫ": 230,
      "ӑ": 231,
      "ӗ": 232,
      "ӝ": 233,
      "ӳ": 234,
      "ե": 235,
      "խ": 236,
      "յ": 237,
      "ս": 238,
      "֖": 239,
      "֥": 240,
      "ְ": 241,
      "ֱ": 242,
      "ֲ": 243,
      "ֳ": 244,
      "ִ": 245,
      "ֵ": 246,
      "ֶ": 247,
      "ַ": 248,
      "ָ": 249,
      "ֹ": 250,
      "ֺ": 251,
      "ֻ": 252,
      "ּ": 253,
      "ֽ": 254,
      "־": 255,
      "ֿ": 256,
      "ׁ": 257,
      "ׂ": 258,
      "׃": 259,
      "ׅ": 260,
      "א": 261,
      "ב": 262,
      "ג": 263,
      "ד": 264,
      "ה": 265,
      "ו": 266,
      "ז": 267,
      "ח": 268,
      "ט": 269,
      "י": 270,
      "ך": 271,
      "כ": 272,
      "ל": 273,
      "ם": 274,
      "מ": 275,
      "ן": 276,
      "נ": 277,
      "ס": 278,
      "ע": 279,
      "ף": 280,
      "פ": 281,
      "ץ": 282,
      "צ": 283,
      "ק": 284,
      "ר": 285,
      "ש": 286,
      "ת": 287,
      "װ": 288,
      "ױ": 289,
      "׳": 290,
      "״": 291,
      "آ": 292,
      "أ": 293,
      "إ": 294,
      "ئ": 295,
      "ا": 296,
      "ب": 297,
      "ة": 298,
      "ت": 299,
      "ث": 300,
      "ج": 301,
      "ح": 302,
      "خ": 303,
      "د": 304,
      "ذ": 305,
      "ر": 306,
      "س": 307,
      "ش": 308,
      "ص": 309,
      "ط": 310,
      "ع": 311,
      "ف": 312,
      "ق": 313,
      "ك": 314,
      "ل": 315,
      "م": 316,
      "ن": 317,
      "ه": 318,
      "و": 319,
      "ى": 320,
      "ي": 321,
      "َ": 322,
      "ُ": 323,
      "ِ": 324,
      "ْ": 325,
      "٠": 326,
      "١": 327,
      "٢": 328,
      "٨": 329,
      "٩": 330,
      "ٰ": 331,
      "ٹ": 332,
      "چ": 333,
      "ھ": 334,
      "ی": 335,
      "ߟ": 336,
      "ߡ": 337,
      "ं": 338,
      "औ": 339,
      "ग": 340,
      "त": 341,
      "द": 342,
      "न": 343,
      "ब": 344,
      "ल": 345,
      "ा": 346,
      "ि": 347,
      "ी": 348,
      "े": 349,
      "्": 350,
      "ં": 351,
      "ગ": 352,
      "બ": 353,
      "લ": 354,
      "ો": 355,
      "༓": 356,
      "ខ": 357,
      "ភ": 358,
      "ម": 359,
      "រ": 360,
      "ស": 361,
      "ា": 362,
      "ែ": 363,
      "្": 364,
      "ṅ": 365,
      "ạ": 366,
      "ả": 367,
      "ἀ": 368,
      "ὥ": 369,
      "ῦ": 370,
      "​": 371,
      "‌": 372,
      "‍": 373,
      "‎": 374,
      "‏": 375,
      "‐": 376,
      "‒": 377,
      "–": 378,
      "—": 379,
      "―": 380,
      "‘": 381,
      "’": 382,
      "‚": 383,
      "“": 384,
      "”": 385,
      "„": 386,
      "†": 387,
      "‡": 388,
      "•": 389,
      "‪": 390,
      "‫": 391,
      "‬": 392,
      "‭": 393,
      "‮": 394,
      "‰": 395,
      "′": 396,
      "‹": 397,
      "›": 398,
      "⁄": 399,
      "⁠": 400,
      "⁡": 401,
      "⁨": 402,
      "⁩": 403,
      "₪": 404,
      "€": 405,
      "₹": 406,
      "←": 407,
      "↑": 408,
      "→": 409,
      "↓": 410,
      "↩": 411,
      "⇒": 412,
      "∀": 413,
      "∂": 414,
      "∆": 415,
      "∈": 416,
      "−": 417,
      "∗": 418,
      "∘": 419,
      "∙": 420,
      "√": 421,
      "∞": 422,
      "∽": 423,
      "≠": 424,
      "≥": 425,
      "≪": 426,
      "≿": 427,
      "⋅": 428,
      "⋯": 429,
      "─": 430,
      "■": 431,
      "□": 432,
      "▪": 433,
      "▲": 434,
      "▶": 435,
      "▸": 436,
      "►": 437,
      "▼": 438,
      "▾": 439,
      "◄": 440,
      "●": 441,
      "◻": 442,
      "◼": 443,
      "☀": 444,
      "★": 445,
      "☆": 446,
      "☚": 447,
      "☝": 448,
      "☺": 449,
      "♔": 450,
      "♠": 451,
      "♣": 452,
      "♥": 453,
      "♦": 454,
      "♪": 455,
      "♫": 456,
      "⚡": 457,
      "✌": 458,
      "✔": 459,
      "✯": 460,
      "✰": 461,
      "❁": 462,
      "❓": 463,
      "❤": 464,
      "❷": 465,
      "❻": 466,
      "❼": 467,
      "❽": 468,
      "❾": 469,
      "➝": 470,
      "⟨": 471,
      "⟩": 472,
      "⟵": 473,
      "⦁": 474,
      "⬅": 475,
      "⭐": 476,
      "、": 477,
      "の": 478,
      "ア": 479,
      "ギ": 480,
      "コ": 481,
      "シ": 482,
      "ス": 483,
      "ド": 484,
      "ュ": 485,
      "ル": 486,
      "ー": 487,
      "㪗": 488,
      "三": 489,
      "东": 490,
      "主": 491,
      "九": 492,
      "京": 493,
      "介": 494,
      "以": 495,
      "会": 496,
      "元": 497,
      "列": 498,
      "反": 499,
      "古": 500,
      "名": 501,
      "士": 502,
      "大": 503,
      "学": 504,
      "川": 505,
      "工": 506,
      "幕": 507,
      "广": 508,
      "府": 509,
      "式": 510,
      "徳": 511,
      "慢": 512,
      "拾": 513,
      "日": 514,
      "旦": 515,
      "本": 516,
      "来": 517,
      "株": 518,
      "民": 519,
      "浪": 520,
      "海": 521,
      "点": 522,
      "理": 523,
      "疽": 524,
      "社": 525,
      "穂": 526,
      "空": 527,
      "章": 528,
      "第": 529,
      "简": 530,
      "算": 531,
      "絵": 532,
      "義": 533,
      "聲": 534,
      "航": 535,
      "色": 536,
      "茶": 537,
      "蒙": 538,
      "術": 539,
      "襲": 540,
      "詞": 541,
      "赤": 542,
      "逆": 543,
      "道": 544,
      "都": 545,
      "鈴": 546,
      "院": 547,
      "髓": 548,
      "黑": 549,
      "黒": 550,
      "랙": 551,
      "블": 552,
      "엠": 553,
      "": 554,
      "": 555,
      "": 556,
      "": 557,
      "": 558,
      "": 559,
      "": 560,
      "": 561,
      "": 562,
      "": 563,
      "": 564,
      "": 565,
      "": 566,
      "": 567,
      "": 568,
      "﴾": 569,
      "﴿": 570,
      "️": 571,
      "﻿": 572,
      "￼": 573,
      "�": 574,
      "🇸": 575,
      "🇾": 576,
      "🌈": 577,
      "🌎": 578,
      "🍻": 579,
      "🎉": 580,
      "🎶": 581,
      "🏽": 582,
      "🐔": 583,
      "👈": 584,
      "👉": 585,
      "👑": 586,
      "💉": 587,
      "💔": 588,
      "💖": 589,
      "💜": 590,
      "💫": 591,
      "📁": 592,
      "📄": 593,
      "🔥": 594,
      "😀": 595,
      "😁": 596,
      "😂": 597,
      "😃": 598,
      "😄": 599,
      "😅": 600,
      "😆": 601,
      "😈": 602,
      "😉": 603,
      "😊": 604,
      "😍": 605,
      "😏": 606,
      "😐": 607,
      "😒": 608,
      "😚": 609,
      "😛": 610,
      "😜": 611,
      "😦": 612,
      "🙁": 613,
      "🙂": 614,
      "🙌": 615,
      "🚖": 616,
      "🚘": 617,
      "🤔": 618,
      "🤨": 619,
      "🦁": 620,
      "🧼": 621,
      "##l": 622,
      "##a": 623,
      "##t": 624,
      "##c": 625,
      "##o": 626,
      "##s": 627,
      "##r": 628,
      "##i": 629,
      "##w": 630,
      "##e": 631,
      "##5": 632,
      "##4": 633,
      "##v": 634,
      "##n": 635,
      "##י": 636,
      "##מ": 637,
      "##נ": 638,
      "##צ": 639,
      "##ח": 640,
      "##ו": 641,
      "##x": 642,
      "##m": 643,
      "##b": 644,
      "##א": 645,
      "##p": 646,
      "##ד": 647,
      "##3": 648,
      "##8": 649,
      "##k": 650,
      "##ש": 651,
      "##ב": 652,
      "##פ": 653,
      "##ע": 654,
      "##2": 655,
      "##d": 656,
      "##h": 657,
      "##ג": 658,
      "##ן": 659,
      "##u": 660,
      "##ת": 661,
      "##.": 662,
      "##ר": 663,
      "##ך": 664,
      "##ז": 665,
      "##ה": 666,
      "##ט": 667,
      "##y": 668,
      "##ά": 669,
      "##ρ": 670,
      "##τ": 671,
      "##ι": 672,
      "##z": 673,
      "##7": 674,
      "##ק": 675,
      "##1": 676,
      "##0": 677,
      "##ס": 678,
      "##6": 679,
      "##f": 680,
      "##g": 681,
      "##9": 682,
      "##ף": 683,
      "##כ": 684,
      "##ל": 685,
      "##q": 686,
      "##ü": 687,
      "##ם": 688,
      "##ץ": 689,
      "##ε": 690,
      "##γ": 691,
      "##α": 692,
      "##–": 693,
      "##ֵ": 694,
      "##ث": 695,
      "##ر": 696,
      "##ب": 697,
      "##”": 698,
      "##ο": 699,
      "##í": 700,
      "##j": 701,
      "##‡": 702,
      "##á": 703,
      "##ִ": 704,
      "##ֶ": 705,
      "##̇": 706,
      "##?": 707,
      "##ö": 708,
      "##ñ": 709,
      "##‏": 710,
      "##ō": 711,
      "##è": 712,
      "##:": 713,
      "##\"": 714,
      "##ł": 715,
      "##'": 716,
      "##ַ": 717,
      "##é": 718,
      "##ʊ": 719,
      "##>": 720,
      "##β": 721,
      "##ή": 722,
      "##ς": 723,
      "##ä": 724,
      "##,": 725,
      "##-": 726,
      "##]": 727,
      "##ś": 728,
      "##ְ": 729,
      "##ل": 730,
      "##خ": 731,
      "##ي": 732,
      "##َ": 733,
      "##ا": 734,
      "##ֹ": 735,
      "##)": 736,
      "##!": 737,
      "##ž": 738,
      "##都": 739,
      "##ָ": 740,
      "##ó": 741,
      "##*": 742,
      "##٢": 743,
      "##٠": 744,
      "##›": 745,
      "##;": 746,
      "##à": 747,
      "##‎": 748,
      "##â": 749,
      "##å": 750,
      "##ć": 751,
      "##民": 752,
      "##主": 753,
      "##義": 754,
      "##ּ": 755,
      "##€": 756,
      "##ã": 757,
      "##古": 758,
      "##襲": 759,
      "##来": 760,
      "##絵": 761,
      "##ç": 762,
      "##章": 763,
      "##算": 764,
      "##術": 765,
      "##블": 766,
      "##랙": 767,
      "##و": 768,
      "##»": 769,
      "##}": 770,
      "##ú": 771,
      "##о": 772,
      "##/": 773,
      "##ж": 774,
      "##н": 775,
      "##и": 776,
      "##й": 777,
      "##ë": 778,
      "##^": 779,
      "##_": 780,
      "##в": 781,
      "##і": 782,
      "##ч": 783,
      "##ν": 784,
      "##�": 785,
      "##§": 786,
      "##ā": 787,
      "##+": 788,
      "##​": 789,
      "##š": 790,
      "##р": 791,
      "##ы": 792,
      "##т": 793,
      "##û": 794,
      "##=": 795,
      "##“": 796,
      "##π": 797,
      "##{": 798,
      "##~": 799,
      "##چ": 800,
      "##ه": 801,
      "##色": 802,
      "##列": 803,
      "##ê": 804,
      "##ʌ": 805,
      "##ŋ": 806,
      "##ن": 807,
      "##أ": 808,
      "##م": 809,
      "##ة": 810,
      "##ح": 811,
      "##ذ": 812,
      "##ả": 813,
      "##ی": 814,
      "##の": 815,
      "##ル": 816,
      "##ー": 817,
      "##<": 818,
      "##ك": 819,
      "##а": 820,
      "##[": 821,
      "##日": 822,
      "##🚖": 823,
      "##ق": 824,
      "##′": 825,
      "##ň": 826,
      "##س": 827,
      "##έ": 828,
      "##(": 829,
      "##æ": 830,
      "##㪗": 831,
      "##я": 832,
      "##с": 833,
      "##ω": 834,
      "##ع": 835,
      "##ş": 836,
      "##υ": 837,
      "##σ": 838,
      "###": 839,
      "##$": 840,
      "##ֿ": 841,
      "##ί": 842,
      "##д": 843,
      "##п": 844,
      "##х": 845,
      "##ɾ": 846,
      "##ت": 847,
      "##¢": 848,
      "##ý": 849,
      "##״": 850,
      "##🇾": 851,
      "##介": 852,
      "##œ": 853,
      "##ص": 854,
      "##£": 855,
      "##ɒ": 856,
      "##`": 857,
      "##茶": 858,
      "##‬": 859,
      "##ɛ": 860,
      "##κ": 861,
      "##→": 862,
      "##λ": 863,
      "##ल": 864,
      "##‌": 865,
      "##к": 866,
      "##工": 867,
      "##学": 868,
      "##院": 869,
      "##航": 870,
      "##空": 871,
      "##ø": 872,
      "##◄": 873,
      "##↩": 874,
      "##ׁ": 875,
      "##ô": 876,
      "##🤨": 877,
      "##װ": 878,
      "##ῦ": 879,
      "##★": 880,
      "##%": 881,
      "##φ": 882,
      "##ò": 883,
      "##б": 884,
      "##ш": 885,
      "##η": 886,
      "##ţ": 887,
      "##ʉ": 888,
      "##у": 889,
      "##θ": 890,
      "##ß": 891,
      "##—": 892,
      "##ф": 893,
      "##ド": 894,
      "##ギ": 895,
      "##ア": 896,
      "##ï": 897,
      "##ش": 898,
      "##õ": 899,
      "##聲": 900,
      "##’": 901,
      "##ِ": 902,
      "##ھ": 903,
      "##ٹ": 904,
      "##😂": 905,
      "##ئ": 906,
      "##е": 907,
      "##&": 908,
      "##ц": 909,
      "##د": 910,
      "##г": 911,
      "##л": 912,
      "##ʼ": 913,
      "##府": 914,
      "##ż": 915,
      "##元": 916,
      "##յ": 917,
      "##խ": 918,
      "##ե": 919,
      "##ư": 920,
      "##\\": 921,
      "##‘": 922,
      "##ū": 923,
      "##😚": 924,
      "##►": 925,
      "##ạ": 926,
      "##ħ": 927,
      "##式": 928,
      "##会": 929,
      "##社": 930,
      "##名": 931,
      "##东": 932,
      "##ュ": 933,
      "##🐔": 934,
      "##ط": 935,
      "##♥": 936,
      "##|": 937,
      "##લ": 938,
      "##°": 939,
      "##ות": 940,
      "##ים": 941,
      "ים": 942,
      "של": 943,
      "ות": 944,
      "את": 945,
      "##ור": 946,
      "##ני": 947,
      "##ול": 948,
      "הי": 949,
      "לא": 950,
      "##נו": 951,
      "על": 952,
      "##וד": 953,
      "##בר": 954,
      "##וא": 955,
      "לה": 956,
      "##ית": 957,
      "##יר": 958,
      "##וב": 959,
      "##ון": 960,
      "המ": 961,
      "##יל": 962,
      "##רי": 963,
      "##די": 964,
      "##ונ": 965,
      "או": 966,
      "אי": 967,
      "##שר": 968,
      "##ום": 969,
      "הא": 970,
      "אח": 971,
      "זה": 972,
      "בי": 973,
      "##מי": 974,
      "כל": 975,
      "מה": 976,
      "##יה": 977,
      "##נה": 978,
      "##לי": 979,
      "הוא": 980,
      "##וח": 981,
      "מש": 982,
      "##וש": 983,
      "##ופ": 984,
      "##כל": 985,
      "##מה": 986,
      "##יב": 987,
      "##ותר": 988,
      "לי": 989,
      "##וי": 990,
      "בא": 991,
      "שי": 992,
      "##תי": 993,
      "מי": 994,
      "מא": 995,
      "יש": 996,
      "ול": 997,
      "##וק": 998,
      "אל": 999,
      "הש": 1000,
      "##וע": 1001,
      "אנ": 1002,
      "עם": 1003,
      "##וצ": 1004,
      "##מר": 1005,
      "##בל": 1006,
      "הת": 1007,
      "אות": 1008,
      "הר": 1009,
      "כי": 1010,
      "שה": 1011,
      "הח": 1012,
      "##שי": 1013,
      "##קר": 1014,
      "שא": 1015,
      "##בי": 1016,
      "בע": 1017,
      "אני": 1018,
      "##יות": 1019,
      "מס": 1020,
      "וה": 1021,
      "רא": 1022,
      "##סי": 1023,
      "חי": 1024,
      "##פר": 1025,
      "למ": 1026,
      "##שה": 1027,
      "##מו": 1028,
      "לו": 1029,
      "יותר": 1030,
      "רי": 1031,
      "מת": 1032,
      "היא": 1033,
      "תי": 1034,
      "##זה": 1035,
      "ור": 1036,
      "##גי": 1037,
      "לע": 1038,
      "מע": 1039,
      "##מש": 1040,
      "הפ": 1041,
      "##דר": 1042,
      "בר": 1043,
      "גם": 1044,
      "אחר": 1045,
      "אר": 1046,
      "מח": 1047,
      "נו": 1048,
      "ני": 1049,
      "##שים": 1050,
      "הב": 1051,
      "##טי": 1052,
      "יכ": 1053,
      "##את": 1054,
      "הם": 1055,
      "##ומ": 1056,
      "##פי": 1057,
      "##נים": 1058,
      "##ין": 1059,
      "היה": 1060,
      "אם": 1061,
      "##טר": 1062,
      "##ולם": 1063,
      "##לה": 1064,
      "הע": 1065,
      "וב": 1066,
      "סי": 1067,
      "מו": 1068,
      "לב": 1069,
      "עב": 1070,
      "בש": 1071,
      "שמ": 1072,
      "יה": 1073,
      "במ": 1074,
      "יי": 1075,
      "##דע": 1076,
      "מצ": 1077,
      "יכול": 1078,
      "די": 1079,
      "כא": 1080,
      "הצ": 1081,
      "עצ": 1082,
      "##רא": 1083,
      "##חר": 1084,
      "לפ": 1085,
      "מק": 1086,
      "##רכ": 1087,
      "אבל": 1088,
      "הג": 1089,
      "הק": 1090,
      "וא": 1091,
      "פר": 1092,
      "אמ": 1093,
      "רק": 1094,
      "הכ": 1095,
      "##נות": 1096,
      "ומ": 1097,
      "##בה": 1098,
      "הס": 1099,
      "לח": 1100,
      "יל": 1101,
      "לש": 1102,
      "דבר": 1103,
      "##אל": 1104,
      "חש": 1105,
      "##וג": 1106,
      "לכ": 1107,
      "בה": 1108,
      "אתה": 1109,
      "אחד": 1110,
      "##דה": 1111,
      "כדי": 1112,
      "מל": 1113,
      "חל": 1114,
      "תק": 1115,
      "ראש": 1116,
      "יר": 1117,
      "##דם": 1118,
      "להיות": 1119,
      "##וס": 1120,
      "פע": 1121,
      "הנ": 1122,
      "אפ": 1123,
      "##שות": 1124,
      "כול": 1125,
      "מכ": 1126,
      "##זר": 1127,
      "##אי": 1128,
      "צרי": 1129,
      "##מן": 1130,
      "כך": 1131,
      "##נת": 1132,
      "בת": 1133,
      "טוב": 1134,
      "וכ": 1135,
      "טי": 1136,
      "##מת": 1137,
      "רב": 1138,
      "זו": 1139,
      "##חנו": 1140,
      "חבר": 1141,
      "##דים": 1142,
      "##וך": 1143,
      "##חי": 1144,
      "##עה": 1145,
      "אנחנו": 1146,
      "שלי": 1147,
      "ישר": 1148,
      "לק": 1149,
      "מדי": 1150,
      "פי": 1151,
      "מב": 1152,
      "בל": 1153,
      "כמו": 1154,
      "אנשים": 1155,
      "ישראל": 1156,
      "הל": 1157,
      "לל": 1158,
      "תח": 1159,
      "מר": 1160,
      "##וה": 1161,
      "דר": 1162,
      "##ונה": 1163,
      "הז": 1164,
      "שלה": 1165,
      "##מים": 1166,
      "##בע": 1167,
      "##דול": 1168,
      "##גל": 1169,
      "עד": 1170,
      "ידי": 1171,
      "##נס": 1172,
      "##וט": 1173,
      "וס": 1174,
      "ית": 1175,
      "##וכ": 1176,
      "##קי": 1177,
      "וע": 1178,
      "רוצ": 1179,
      "וצ": 1180,
      "שלך": 1181,
      "##ורה": 1182,
      "ביותר": 1183,
      "כש": 1184,
      "קי": 1185,
      "זאת": 1186,
      "אמר": 1187,
      "##יא": 1188,
      "אז": 1189,
      "##וף": 1190,
      "בכל": 1191,
      "קר": 1192,
      "שני": 1193,
      "וג": 1194,
      "היית": 1195,
      "יו": 1196,
      "##כם": 1197,
      "הה": 1198,
      "ונ": 1199,
      "וי": 1200,
      "רצ": 1201,
      "האם": 1202,
      "ער": 1203,
      "יצ": 1204,
      "##קה": 1205,
      "רג": 1206,
      "חד": 1207,
      "זמן": 1208,
      "כמה": 1209,
      "##צע": 1210,
      "מפ": 1211,
      "##נט": 1212,
      "##חק": 1213,
      "יס": 1214,
      "שב": 1215,
      "אותו": 1216,
      "ממ": 1217,
      "##ודה": 1218,
      "##ילו": 1219,
      "##תה": 1220,
      "חו": 1221,
      "##כה": 1222,
      "בין": 1223,
      "ספר": 1224,
      "##עות": 1225,
      "הו": 1226,
      "##ורי": 1227,
      "ופ": 1228,
      "מד": 1229,
      "##יו": 1230,
      "אין": 1231,
      "עבור": 1232,
      "שפ": 1233,
      "יח": 1234,
      "הד": 1235,
      "גי": 1236,
      "##ילה": 1237,
      "קצ": 1238,
      "עוד": 1239,
      "שלנו": 1240,
      "היו": 1241,
      "##אר": 1242,
      "##לו": 1243,
      "הזה": 1244,
      "##אה": 1245,
      "גר": 1246,
      "##חה": 1247,
      "רוב": 1248,
      "תה": 1249,
      "שת": 1250,
      "בב": 1251,
      "##ולי": 1252,
      "קט": 1253,
      "##חות": 1254,
      "מאוד": 1255,
      "אנו": 1256,
      "##וני": 1257,
      "בח": 1258,
      "לס": 1259,
      "בני": 1260,
      "##מיד": 1261,
      "צריך": 1262,
      "##אים": 1263,
      "##גיע": 1264,
      "##מוד": 1265,
      "שנ": 1266,
      "עש": 1267,
      "כבר": 1268,
      "לך": 1269,
      "עי": 1270,
      "גדול": 1271,
      "כמ": 1272,
      "לפני": 1273,
      "##אות": 1274,
      "לת": 1275,
      "לאחר": 1276,
      "זכ": 1277,
      "הט": 1278,
      "וש": 1279,
      "פת": 1280,
      "יט": 1281,
      "##זי": 1282,
      "תר": 1283,
      "איך": 1284,
      "אך": 1285,
      "יק": 1286,
      "אשר": 1287,
      "יד": 1288,
      "##ירות": 1289,
      "הרבה": 1290,
      "##ונים": 1291,
      "שלו": 1292,
      "לעשות": 1293,
      "##ירה": 1294,
      "לצ": 1295,
      "נית": 1296,
      "נכ": 1297,
      "בו": 1298,
      "##בד": 1299,
      "צי": 1300,
      "ממש": 1301,
      "חלק": 1302,
      "דברים": 1303,
      "עולם": 1304,
      "טר": 1305,
      "##סף": 1306,
      "שהוא": 1307,
      "רח": 1308,
      "##כן": 1309,
      "ספ": 1310,
      "כאשר": 1311,
      "יפ": 1312,
      "אתם": 1313,
      "שם": 1314,
      "ינ": 1315,
      "וק": 1316,
      "אלה": 1317,
      "עלי": 1318,
      "עדי": 1319,
      "רכ": 1320,
      "לנו": 1321,
      "רע": 1322,
      "אדם": 1323,
      "##פת": 1324,
      "יב": 1325,
      "פש": 1326,
      "##גר": 1327,
      "##יע": 1328,
      "##ומי": 1329,
      "ראשונ": 1330,
      "##טה": 1331,
      "בט": 1332,
      "אחת": 1333,
      "עצמ": 1334,
      "אס": 1335,
      "רוצה": 1336,
      "##זור": 1337,
      "בס": 1338,
      "יום": 1339,
      "שלהם": 1340,
      "שר": 1341,
      "היום": 1342,
      "אחרים": 1343,
      "עבודה": 1344,
      "נש": 1345,
      "##ופן": 1346,
      "באופן": 1347,
      "##מד": 1348,
      "חשב": 1349,
      "כת": 1350,
      "מז": 1351,
      "נג": 1352,
      "##ראה": 1353,
      "##עת": 1354,
      "ילדים": 1355,
      "נה": 1356,
      "הוד": 1357,
      "ורי": 1358,
      "##צי": 1359,
      "שו": 1360,
      "שלא": 1361,
      "ולא": 1362,
      "אב": 1363,
      "##נית": 1364,
      "##דרך": 1365,
      "שנים": 1366,
      "האי": 1367,
      "##ופה": 1368,
      "עס": 1369,
      "שנה": 1370,
      "משפ": 1371,
      "##ונות": 1372,
      "##יים": 1373,
      "מספר": 1374,
      "רו": 1375,
      "אפשר": 1376,
      "תו": 1377,
      "אינ": 1378,
      "##חת": 1379,
      "כן": 1380,
      "איר": 1381,
      "ין": 1382,
      "דו": 1383,
      "##יתי": 1384,
      "##הו": 1385,
      "##גע": 1386,
      "לנ": 1387,
      "גב": 1388,
      "חוש": 1389,
      "כאן": 1390,
      "er": 1391,
      "תמיד": 1392,
      "##קום": 1393,
      "תש": 1394,
      "##רים": 1395,
      "##ושה": 1396,
      "הייתה": 1397,
      "##מנ": 1398,
      "אומר": 1399,
      "מט": 1400,
      "בג": 1401,
      "##שת": 1402,
      "בית": 1403,
      "##ובה": 1404,
      "השת": 1405,
      "עני": 1406,
      "##בין": 1407,
      "ודע": 1408,
      "כולים": 1409,
      "##ינ": 1410,
      "##הב": 1411,
      "מדינה": 1412,
      "##שור": 1413,
      "בכ": 1414,
      "אותם": 1415,
      "בק": 1416,
      "בנו": 1417,
      "##ורך": 1418,
      "##לות": 1419,
      "##סט": 1420,
      "אחרי": 1421,
      "תפ": 1422,
      "עכ": 1423,
      "##יבה": 1424,
      "במה": 1425,
      "##on": 1426,
      "קוד": 1427,
      "##..": 1428,
      "##גיש": 1429,
      "נפ": 1430,
      "פעם": 1431,
      "##ולה": 1432,
      "ימ": 1433,
      "רבים": 1434,
      "להם": 1435,
      "נים": 1436,
      "##לך": 1437,
      "תכ": 1438,
      "##לת": 1439,
      "in": 1440,
      "th": 1441,
      "יהיה": 1442,
      "משהו": 1443,
      "ריק": 1444,
      "עיל": 1445,
      "לכל": 1446,
      "שימ": 1447,
      "סב": 1448,
      "##רט": 1449,
      "תע": 1450,
      "החל": 1451,
      "סוג": 1452,
      "##פור": 1453,
      "ניתן": 1454,
      "##מצ": 1455,
      "ראשון": 1456,
      "כוח": 1457,
      "##דת": 1458,
      "אף": 1459,
      "הכל": 1460,
      "למה": 1461,
      "לג": 1462,
      "אותה": 1463,
      "טיפ": 1464,
      "פור": 1465,
      "מג": 1466,
      "להת": 1467,
      "##שיו": 1468,
      "עכשיו": 1469,
      "פשוט": 1470,
      "סכ": 1471,
      "שאני": 1472,
      "##ברה": 1473,
      "אולי": 1474,
      "##דו": 1475,
      "חוק": 1476,
      "בשנת": 1477,
      "עדיין": 1478,
      "שלכם": 1479,
      "חשוב": 1480,
      "צפ": 1481,
      "סט": 1482,
      "יוד": 1483,
      "##נוי": 1484,
      "##וון": 1485,
      "כנ": 1486,
      "קור": 1487,
      "מטר": 1488,
      "מן": 1489,
      "שהם": 1490,
      "הן": 1491,
      "להי": 1492,
      "קב": 1493,
      "##ודי": 1494,
      "אפילו": 1495,
      "שכ": 1496,
      "חז": 1497,
      "##רכת": 1498,
      "כר": 1499,
      "ברי": 1500,
      "דרך": 1501,
      "אלי": 1502,
      "##דש": 1503,
      "נק": 1504,
      "מלח": 1505,
      "תל": 1506,
      "##קד": 1507,
      "בעולם": 1508,
      "##או": 1509,
      "קה": 1510,
      "ללא": 1511,
      "שיש": 1512,
      "נות": 1513,
      "לרא": 1514,
      "למע": 1515,
      "לד": 1516,
      "אלא": 1517,
      "בחי": 1518,
      "שימוש": 1519,
      "יע": 1520,
      "חושב": 1521,
      "##ar": 1522,
      "##וחד": 1523,
      "באמ": 1524,
      "מיוחד": 1525,
      "...": 1526,
      "טע": 1527,
      "שוב": 1528,
      "באמצע": 1529,
      "צר": 1530,
      "בנ": 1531,
      "##קרים": 1532,
      "באמת": 1533,
      "חייב": 1534,
      "התח": 1535,
      "תמ": 1536,
      "##קט": 1537,
      "לוה": 1538,
      "##an": 1539,
      "וד": 1540,
      "צע": 1541,
      "לראות": 1542,
      "מערכת": 1543,
      "ויות": 1544,
      "וח": 1545,
      "ואת": 1546,
      "לוהים": 1547,
      "תנ": 1548,
      "לכם": 1549,
      "האדם": 1550,
      "##יהם": 1551,
      "##צד": 1552,
      "##or": 1553,
      "##ואה": 1554,
      "בז": 1555,
      "קל": 1556,
      "##ורים": 1557,
      "הייתי": 1558,
      "##ובר": 1559,
      "##מין": 1560,
      "##es": 1561,
      "##תר": 1562,
      "רפ": 1563,
      "קשה": 1564,
      "החיים": 1565,
      "כם": 1566,
      "the": 1567,
      "חיים": 1568,
      "במהלך": 1569,
      "יני": 1570,
      "מנ": 1571,
      "##גון": 1572,
      "משת": 1573,
      "עק": 1574,
      "שום": 1575,
      "רוצים": 1576,
      "##בים": 1577,
      "פרס": 1578,
      "##al": 1579,
      "##כות": 1580,
      "זר": 1581,
      "בדרך": 1582,
      "פני": 1583,
      "##דות": 1584,
      "##in": 1585,
      "נשים": 1586,
      "הול": 1587,
      "המש": 1588,
      "##er": 1589,
      "מרכ": 1590,
      "נמצ": 1591,
      "צריכ": 1592,
      "בשב": 1593,
      "סמ": 1594,
      "##מות": 1595,
      "##משך": 1596,
      "בבית": 1597,
      "ילי": 1598,
      "אותי": 1599,
      "שאתה": 1600,
      "אוהב": 1601,
      "שינוי": 1602,
      "יודע": 1603,
      "##שהו": 1604,
      "קו": 1605,
      "בדי": 1606,
      "טיפול": 1607,
      "##גיה": 1608,
      "נראה": 1609,
      "עוב": 1610,
      "גבר": 1611,
      "עבר": 1612,
      "אלו": 1613,
      "מקום": 1614,
      "שמעות": 1615,
      "ולי": 1616,
      "סיפור": 1617,
      "דינות": 1618,
      "חדש": 1619,
      "פעמים": 1620,
      "רבות": 1621,
      "לאומי": 1622,
      "יז": 1623,
      "##שב": 1624,
      "ערכ": 1625,
      "נע": 1626,
      "היתה": 1627,
      "קבל": 1628,
      "מנה": 1629,
      "עסק": 1630,
      "נס": 1631,
      "שתי": 1632,
      "##קרה": 1633,
      "##דל": 1634,
      "פרי": 1635,
      "אה": 1636,
      "##צור": 1637,
      "עניין": 1638,
      "ציה": 1639,
      "שזה": 1640,
      "עשר": 1641,
      "חופ": 1642,
      "##ויות": 1643,
      "הופ": 1644,
      "לפי": 1645,
      "מוצ": 1646,
      "עול": 1647,
      "##ליח": 1648,
      "אחרונ": 1649,
      "אינו": 1650,
      "יא": 1651,
      "עיר": 1652,
      "הבית": 1653,
      "סיכ": 1654,
      "##טו": 1655,
      "חק": 1656,
      "##יג": 1657,
      "##טים": 1658,
      "איש": 1659,
      "הרי": 1660,
      "כיצד": 1661,
      "מתח": 1662,
      "נטר": 1663,
      "מידע": 1664,
      "גבוה": 1665,
      "בסי": 1666,
      "פח": 1667,
      "תא": 1668,
      "##פה": 1669,
      "שבו": 1670,
      "קבוצ": 1671,
      "##בות": 1672,
      "ברית": 1673,
      "פל": 1674,
      "פחות": 1675,
      "יהודי": 1676,
      "##זו": 1677,
      "סרט": 1678,
      "נגד": 1679,
      "##מני": 1680,
      "האו": 1681,
      "לקבל": 1682,
      "כד": 1683,
      "טל": 1684,
      "##עט": 1685,
      "כמעט": 1686,
      "תג": 1687,
      "כולם": 1688,
      "שהיא": 1689,
      "טבע": 1690,
      "##בוד": 1691,
      "למצ": 1692,
      "##ימ": 1693,
      "בן": 1694,
      "##תם": 1695,
      "עילות": 1696,
      "בצ": 1697,
      "קשור": 1698,
      "##נוע": 1699,
      "##יבור": 1700,
      "במקום": 1701,
      "##ואר": 1702,
      "כולל": 1703,
      "הכי": 1704,
      "##קיד": 1705,
      "מים": 1706,
      "יתר": 1707,
      "יכולה": 1708,
      "קרא": 1709,
      "מאז": 1710,
      "ארץ": 1711,
      "הדבר": 1712,
      "דור": 1713,
      "גור": 1714,
      "ארצ": 1715,
      "בפ": 1716,
      "מלא": 1717,
      "רעי": 1718,
      "השתמש": 1719,
      "הגדול": 1720,
      "אצ": 1721,
      "##פשר": 1722,
      "מוש": 1723,
      "בעלי": 1724,
      "שירות": 1725,
      "במשך": 1726,
      "ינו": 1727,
      "החברה": 1728,
      "נטרנט": 1729,
      "נח": 1730,
      "שלוש": 1731,
      "עצמו": 1732,
      "כפי": 1733,
      "באות": 1734,
      "ביט": 1735,
      "פשר": 1736,
      "תוכ": 1737,
      "קשר": 1738,
      "עצמי": 1739,
      "ידע": 1740,
      "עתי": 1741,
      "##וז": 1742,
      "שע": 1743,
      "וו": 1744,
      "כתב": 1745,
      "נר": 1746,
      "הבי": 1747,
      "תם": 1748,
      "שונים": 1749,
      "נוש": 1750,
      "##פתח": 1751,
      "##מפ": 1752,
      "##ואי": 1753,
      "מישהו": 1754,
      "##טינ": 1755,
      "גיל": 1756,
      "נת": 1757,
      "##ליך": 1758,
      "אופ": 1759,
      "דרכ": 1760,
      "גדולה": 1761,
      "האלה": 1762,
      "אית": 1763,
      "צד": 1764,
      "##קש": 1765,
      "##ילים": 1766,
      "בלתי": 1767,
      "הגיע": 1768,
      "כלל": 1769,
      "יכולת": 1770,
      "חס": 1771,
      "היר": 1772,
      "##יבות": 1773,
      "דק": 1774,
      "חזר": 1775,
      "עושה": 1776,
      "משי": 1777,
      "בשביל": 1778,
      "st": 1779,
      "##ou": 1780,
      "##יח": 1781,
      "תפקיד": 1782,
      "למר": 1783,
      "##כו": 1784,
      "##חור": 1785,
      "ודעים": 1786,
      "אור": 1787,
      "##ובן": 1788,
      "פה": 1789,
      "##רב": 1790,
      "ולר": 1791,
      "##חים": 1792,
      "##מינ": 1793,
      "ריאות": 1794,
      "פסי": 1795,
      "##ודש": 1796,
      "מוע": 1797,
      "נא": 1798,
      "##כר": 1799,
      "##en": 1800,
      "בגל": 1801,
      "לסטינ": 1802,
      "המי": 1803,
      "הודים": 1804,
      "ימים": 1805,
      "למרות": 1806,
      "שחק": 1807,
      "יליון": 1808,
      "מכל": 1809,
      "##שיא": 1810,
      "מהם": 1811,
      "נכון": 1812,
      "גל": 1813,
      "ארצות": 1814,
      "תהיה": 1815,
      "דוג": 1816,
      "##פיק": 1817,
      "בתוך": 1818,
      "סוף": 1819,
      "רוח": 1820,
      "##טת": 1821,
      "בגלל": 1822,
      "ממשלה": 1823,
      "##חו": 1824,
      "באו": 1825,
      "עמ": 1826,
      "ילד": 1827,
      "תוכל": 1828,
      "##ורת": 1829,
      "רסי": 1830,
      "##ינו": 1831,
      "##ביר": 1832,
      "בעי": 1833,
      "בשל": 1834,
      "לכן": 1835,
      "רט": 1836,
      "ראה": 1837,
      "##כנו": 1838,
      "הנה": 1839,
      "מגיע": 1840,
      "##מבר": 1841,
      "##at": 1842,
      "en": 1843,
      "##ביע": 1844,
      "שק": 1845,
      "לדע": 1846,
      "##ורר": 1847,
      "לדעת": 1848,
      "בקר": 1849,
      "##נם": 1850,
      "שעות": 1851,
      "סדר": 1852,
      "מלחמה": 1853,
      "קול": 1854,
      "##וצר": 1855,
      "ספק": 1856,
      "וספ": 1857,
      "on": 1858,
      "באר": 1859,
      "יחד": 1860,
      "10": 1861,
      "וכנית": 1862,
      "למצוא": 1863,
      "בדיוק": 1864,
      "חברות": 1865,
      "לדבר": 1866,
      "בלי": 1867,
      "המו": 1868,
      "בינ": 1869,
      "מוס": 1870,
      "ביום": 1871,
      "ערך": 1872,
      "העיר": 1873,
      "בזמן": 1874,
      "אד": 1875,
      "##om": 1876,
      "אותך": 1877,
      "מתוך": 1878,
      "לגבי": 1879,
      "לוגי": 1880,
      "פעולה": 1881,
      "אירוע": 1882,
      "ריקאי": 1883,
      "נמצא": 1884,
      "קומ": 1885,
      "משר": 1886,
      "כזה": 1887,
      "אחרת": 1888,
      "שט": 1889,
      "כיוון": 1890,
      "ועל": 1891,
      "##וץ": 1892,
      "קצוע": 1893,
      "ומר": 1894,
      "הזו": 1895,
      "חזק": 1896,
      "##פק": 1897,
      "לשמ": 1898,
      "משרד": 1899,
      "##גש": 1900,
      "להפ": 1901,
      "נצ": 1902,
      "אוני": 1903,
      "##st": 1904,
      "re": 1905,
      "ובדים": 1906,
      "תהליך": 1907,
      "##ווה": 1908,
      "##כב": 1909,
      "##וחר": 1910,
      "נוס": 1911,
      "וגם": 1912,
      "הזד": 1913,
      "אוניב": 1914,
      "השני": 1915,
      "מות": 1916,
      "וט": 1917,
      "שבה": 1918,
      "##יבי": 1919,
      "ואני": 1920,
      "רש": 1921,
      "##עו": 1922,
      "##סה": 1923,
      "קצת": 1924,
      "תוך": 1925,
      "הצל": 1926,
      "סוכ": 1927,
      "השנה": 1928,
      "כסף": 1929,
      "לכך": 1930,
      "קיב": 1931,
      "יין": 1932,
      "מעט": 1933,
      "חר": 1934,
      "דא": 1935,
      "מדובר": 1936,
      "##צב": 1937,
      "סור": 1938,
      "תונים": 1939,
      "מספיק": 1940,
      "חברתי": 1941,
      "הזאת": 1942,
      "פתר": 1943,
      "כני": 1944,
      "רד": 1945,
      "מדוע": 1946,
      "##ודת": 1947,
      "לפחות": 1948,
      "##עם": 1949,
      "ארגון": 1950,
      "חמ": 1951,
      "בחר": 1952,
      "עשו": 1953,
      "טובה": 1954,
      "שיע": 1955,
      "והוא": 1956,
      "וסי": 1957,
      "יור": 1958,
      "כיום": 1959,
      "סופ": 1960,
      "וזה": 1961,
      "##ילי": 1962,
      "הדרך": 1963,
      "וצרים": 1964,
      "וריה": 1965,
      "עליו": 1966,
      "למש": 1967,
      "ברח": 1968,
      "##לא": 1969,
      "קודם": 1970,
      "בצורה": 1971,
      "an": 1972,
      "וצאות": 1973,
      "אולם": 1974,
      "זהו": 1975,
      "##ווח": 1976,
      "עית": 1977,
      "כלו": 1978,
      "בד": 1979,
      "##re": 1980,
      "נוח": 1981,
      "##ליט": 1982,
      "ציא": 1983,
      "תנו": 1984,
      "חת": 1985,
      "בהם": 1986,
      "מאו": 1987,
      "רוס": 1988,
      "##כת": 1989,
      "תקופה": 1990,
      "אוכל": 1991,
      "האמ": 1992,
      "יג": 1993,
      "סו": 1994,
      "בטוח": 1995,
      "צו": 1996,
      "##שוב": 1997,
      "מול": 1998,
      "סג": 1999,
      "אחרות": 2000,
      "of": 2001,
      "קצר": 2002,
      "רכב": 2003,
      "בעיות": 2004,
      "ארה": 2005,
      "קבוצה": 2006,
      "הפר": 2007,
      "בוא": 2008,
      "איזה": 2009,
      "ירוש": 2010,
      "לקר": 2011,
      "עזר": 2012,
      "לפת": 2013,
      "נגל": 2014,
      "ון": 2015,
      "המח": 2016,
      "כמובן": 2017,
      "רגע": 2018,
      "ידוע": 2019,
      "עוש": 2020,
      "##ion": 2021,
      "מוק": 2022,
      "נוכ": 2023,
      "משתמש": 2024,
      "##וקר": 2025,
      "יניים": 2026,
      "al": 2027,
      "מאשר": 2028,
      "צב": 2029,
      "##חון": 2030,
      "להבין": 2031,
      "סביב": 2032,
      "סטר": 2033,
      "##נק": 2034,
      "לוק": 2035,
      "בול": 2036,
      "להגיע": 2037,
      "אש": 2038,
      "אק": 2039,
      "מנת": 2040,
      "עושים": 2041,
      "##שא": 2042,
      "אג": 2043,
      "שלושה": 2044,
      "##טרה": 2045,
      "##רח": 2046,
      "לעולם": 2047,
      "##שיך": 2048,
      "הזדמנ": 2049,
      "##סו": 2050,
      "אמיתי": 2051,
      "##פיע": 2052,
      "נדר": 2053,
      "ניה": 2054,
      "##ro": 2055,
      "בעיקר": 2056,
      "ההי": 2057,
      "סוגל": 2058,
      "אינם": 2059,
      "עלה": 2060,
      "מדיני": 2061,
      "נד": 2062,
      "תוצ": 2063,
      "בלבד": 2064,
      "ברור": 2065,
      "תלמיד": 2066,
      "וף": 2067,
      "##ומת": 2068,
      "תוצאה": 2069,
      "מרי": 2070,
      "טובים": 2071,
      "בוע": 2072,
      "כו": 2073,
      "מוד": 2074,
      "מונ": 2075,
      "רוי": 2076,
      "תחיל": 2077,
      "וני": 2078,
      "##ודות": 2079,
      "מעל": 2080,
      "וקר": 2081,
      "כה": 2082,
      "אותנו": 2083,
      "מור": 2084,
      "זכוי": 2085,
      "מדע": 2086,
      "לט": 2087,
      "בעוד": 2088,
      "ומרים": 2089,
      "##ra": 2090,
      "לתת": 2091,
      "##גד": 2092,
      "למעשה": 2093,
      "קיים": 2094,
      "נט": 2095,
      "רשי": 2096,
      "##מוך": 2097,
      "ירופה": 2098,
      "בכך": 2099,
      "חברת": 2100,
      "##פש": 2101,
      "לזה": 2102,
      "שג": 2103,
      "##קרי": 2104,
      "בנוסף": 2105,
      "וליטי": 2106,
      "יחי": 2107,
      "שאתם": 2108,
      "זכר": 2109,
      "מעבר": 2110,
      "ואז": 2111,
      "אצל": 2112,
      "רשת": 2113,
      "שאלה": 2114,
      "תמוד": 2115,
      "תמודד": 2116,
      "השא": 2117,
      "##זרח": 2118,
      "##il": 2119,
      "##וביל": 2120,
      "אינה": 2121,
      "נב": 2122,
      "קטן": 2123,
      "יהיו": 2124,
      "וז": 2125,
      "ובר": 2126,
      "כנס": 2127,
      "חסר": 2128,
      "עומ": 2129,
      "חברים": 2130,
      "פחד": 2131,
      "לר": 2132,
      "קורה": 2133,
      "ne": 2134,
      "ללמוד": 2135,
      "עומד": 2136,
      "מתחיל": 2137,
      "ווי": 2138,
      "מכן": 2139,
      "יית": 2140,
      "תינו": 2141,
      "ומה": 2142,
      "באי": 2143,
      "חול": 2144,
      "ציבור": 2145,
      "רחב": 2146,
      "התחיל": 2147,
      "קרה": 2148,
      "יקר": 2149,
      "לז": 2150,
      "##ol": 2151,
      "לקחת": 2152,
      "בכלל": 2153,
      "##ic": 2154,
      "##תיים": 2155,
      "##שרי": 2156,
      "אחרון": 2157,
      "יהם": 2158,
      "ייר": 2159,
      "פית": 2160,
      "##ביא": 2161,
      "הרג": 2162,
      "זי": 2163,
      "שונות": 2164,
      "מרגיש": 2165,
      "מחקר": 2166,
      "פרק": 2167,
      "למי": 2168,
      "##ריך": 2169,
      "חמי": 2170,
      "תינוק": 2171,
      "שיר": 2172,
      "גד": 2173,
      "יחס": 2174,
      "וצר": 2175,
      "גברים": 2176,
      "לעת": 2177,
      "פק": 2178,
      "מחיר": 2179,
      "מקור": 2180,
      "ועד": 2181,
      "משפט": 2182,
      "חירות": 2183,
      "ודר": 2184,
      "יטחון": 2185,
      "הללו": 2186,
      "מילים": 2187,
      "לימוד": 2188,
      "פא": 2189,
      "אהב": 2190,
      "מתי": 2191,
      "בוצ": 2192,
      "תייח": 2193,
      "תייחס": 2194,
      "עשה": 2195,
      "ירות": 2196,
      "לעזור": 2197,
      "סיבות": 2198,
      "טכנו": 2199,
      "לוגיה": 2200,
      "מקומי": 2201,
      "צריכה": 2202,
      "בתח": 2203,
      "עשי": 2204,
      "גופ": 2205,
      "צמ": 2206,
      "מנס": 2207,
      "נסי": 2208,
      "בעל": 2209,
      "כלי": 2210,
      "נוסף": 2211,
      "מיי": 2212,
      "חינו": 2213,
      "לבד": 2214,
      "נרגיה": 2215,
      "ינג": 2216,
      "פוס": 2217,
      "תמי": 2218,
      "החדש": 2219,
      "ציאות": 2220,
      "איכות": 2221,
      "נז": 2222,
      "##לק": 2223,
      "רואה": 2224,
      "##זיק": 2225,
      "טבעי": 2226,
      "ing": 2227,
      "##טיח": 2228,
      "חדשות": 2229,
      "משפחה": 2230,
      "קורא": 2231,
      "לומר": 2232,
      "שנייה": 2233,
      "שתמש": 2234,
      "קוח": 2235,
      "##סק": 2236,
      "היל": 2237,
      "לעבוד": 2238,
      "חודש": 2239,
      "זק": 2240,
      "מצב": 2241,
      "##לם": 2242,
      "ליצור": 2243,
      "##ch": 2244,
      "תב": 2245,
      "כלכ": 2246,
      "משק": 2247,
      "פורס": 2248,
      "סק": 2249,
      "יסי": 2250,
      "רויקט": 2251,
      "דקות": 2252,
      "ירי": 2253,
      "##el": 2254,
      "חינוך": 2255,
      "כעת": 2256,
      "קומות": 2257,
      "הבא": 2258,
      "עובד": 2259,
      "קרי": 2260,
      "עשוי": 2261,
      "עמד": 2262,
      "##ri": 2263,
      "עיקרי": 2264,
      "##צר": 2265,
      "הסי": 2266,
      "מזון": 2267,
      "##נון": 2268,
      "קשורת": 2269,
      "חצי": 2270,
      "פשרות": 2271,
      "אפשרי": 2272,
      "כתוב": 2273,
      "פיתוח": 2274,
      "דומה": 2275,
      "מרכזי": 2276,
      "להצ": 2277,
      "מסע": 2278,
      "ליל": 2279,
      "ולה": 2280,
      "רבה": 2281,
      "שאל": 2282,
      "כוחות": 2283,
      "אוו": 2284,
      "סל": 2285,
      "הירות": 2286,
      "חברה": 2287,
      "מני": 2288,
      "קיבל": 2289,
      "סת": 2290,
      "משחק": 2291,
      "הכול": 2292,
      "תחת": 2293,
      "עסקים": 2294,
      "השנים": 2295,
      "יף": 2296,
      "מוות": 2297,
      "לוח": 2298,
      "##רבי": 2299,
      "לעתים": 2300,
      "הלא": 2301,
      "שלום": 2302,
      "to": 2303,
      "דמ": 2304,
      "תמונה": 2305,
      "למשל": 2306,
      "נצי": 2307,
      "ניהול": 2308,
      "טלפ": 2309,
      "חוס": 2310,
      "יון": 2311,
      "אמור": 2312,
      "החוק": 2313,
      "מחדש": 2314,
      "נשאר": 2315,
      "ספור": 2316,
      "אהבה": 2317,
      "הגוף": 2318,
      "חשבון": 2319,
      "מקרים": 2320,
      "שונה": 2321,
      "איפה": 2322,
      "חופש": 2323,
      "נקר": 2324,
      "אנשי": 2325,
      "עצמם": 2326,
      "רגיל": 2327,
      "תשובה": 2328,
      "כלכלי": 2329,
      "##חל": 2330,
      "אחוז": 2331,
      "כאלה": 2332,
      "תיק": 2333,
      "אן": 2334,
      "התפתח": 2335,
      "עתיד": 2336,
      "ערב": 2337,
      "האמת": 2338,
      "גבוהה": 2339,
      "בתי": 2340,
      "לבית": 2341,
      "##רחש": 2342,
      "ירה": 2343,
      "ירושל": 2344,
      "ימי": 2345,
      "##נהג": 2346,
      "טרי": 2347,
      "שאלות": 2348,
      "הבינ": 2349,
      "מופ": 2350,
      "צורך": 2351,
      "ארבע": 2352,
      "אוויר": 2353,
      "it": 2354,
      "ספרים": 2355,
      "##ועל": 2356,
      "צוות": 2357,
      "היט": 2358,
      "מכיר": 2359,
      "ונד": 2360,
      "מדבר": 2361,
      "גישה": 2362,
      "שש": 2363,
      "יכר": 2364,
      "מצאים": 2365,
      "אמנות": 2366,
      "פוט": 2367,
      "דע": 2368,
      "התנ": 2369,
      "##טות": 2370,
      "חדשים": 2371,
      "גדל": 2372,
      "##ותפ": 2373,
      "חיפ": 2374,
      "רווח": 2375,
      "לנד": 2376,
      "פט": 2377,
      "שול": 2378,
      "מין": 2379,
      "##קע": 2380,
      "המשיך": 2381,
      "שמח": 2382,
      "עולמי": 2383,
      "ch": 2384,
      "מצא": 2385,
      "קד": 2386,
      "##מל": 2387,
      "שלב": 2388,
      "מעולם": 2389,
      "קס": 2390,
      "שפה": 2391,
      "בתחום": 2392,
      "הורים": 2393,
      "למד": 2394,
      "וספים": 2395,
      "מחשב": 2396,
      "ככל": 2397,
      "מנהיג": 2398,
      "וזי": 2399,
      "##קור": 2400,
      "דרכים": 2401,
      "דוד": 2402,
      "הפך": 2403,
      "באותו": 2404,
      "##בק": 2405,
      "##תב": 2406,
      "ליד": 2407,
      "ליש": 2408,
      "ללכת": 2409,
      "אזור": 2410,
      "היש": 2411,
      "בהת": 2412,
      "##ay": 2413,
      "כולנו": 2414,
      "האל": 2415,
      "שאין": 2416,
      "חומר": 2417,
      "יוכל": 2418,
      "שרת": 2419,
      "תרבות": 2420,
      "ודשים": 2421,
      "לשמור": 2422,
      "##הם": 2423,
      "ביח": 2424,
      "יפה": 2425,
      "שומ": 2426,
      "##נהל": 2427,
      "רגש": 2428,
      "רס": 2429,
      "כגון": 2430,
      "משום": 2431,
      "##וצא": 2432,
      "רות": 2433,
      "##is": 2434,
      "##ופו": 2435,
      "at": 2436,
      "נכנס": 2437,
      "כאב": 2438,
      "ערכות": 2439,
      "עולה": 2440,
      "##לום": 2441,
      "יבורי": 2442,
      "נקרא": 2443,
      "חופשי": 2444,
      "##למ": 2445,
      "ביצ": 2446,
      "יסיון": 2447,
      "בנים": 2448,
      "טק": 2449,
      "##ובל": 2450,
      "אינט": 2451,
      "דרג": 2452,
      "מסו": 2453,
      "נשיא": 2454,
      "לחץ": 2455,
      "צפון": 2456,
      "קצועי": 2457,
      "מדינת": 2458,
      "תחילה": 2459,
      "כדור": 2460,
      "ורג": 2461,
      "באתר": 2462,
      "ברחבי": 2463,
      "הבע": 2464,
      "שכל": 2465,
      "פג": 2466,
      "להפוך": 2467,
      "מאוחר": 2468,
      "אילו": 2469,
      "דג": 2470,
      "אט": 2471,
      "##אש": 2472,
      "אמא": 2473,
      "קונ": 2474,
      "אליו": 2475,
      "פתי": 2476,
      "לאורך": 2477,
      "ארוכ": 2478,
      "טוד": 2479,
      "##כמ": 2480,
      "##ירו": 2481,
      "##ופא": 2482,
      "חוץ": 2483,
      "הצלחה": 2484,
      "##פל": 2485,
      "ממנו": 2486,
      "מבוס": 2487,
      "כנראה": 2488,
      "רומ": 2489,
      "##it": 2490,
      "שעה": 2491,
      "##as": 2492,
      "מונות": 2493,
      "ואי": 2494,
      "יצא": 2495,
      "טרא": 2496,
      "##בוע": 2497,
      "קנ": 2498,
      "##תפ": 2499,
      "בקרב": 2500,
      "מית": 2501,
      "בשנה": 2502,
      "אמרה": 2503,
      "עקב": 2504,
      "קש": 2505,
      "אחורי": 2506,
      "שחר": 2507,
      "##כי": 2508,
      "שלישי": 2509,
      "טלו": 2510,
      "צבע": 2511,
      "##יי": 2512,
      "וֹ": 2513,
      "##כון": 2514,
      "פתרון": 2515,
      "##am": 2516,
      "הטוב": 2517,
      "גז": 2518,
      "בעיה": 2519,
      "רעיון": 2520,
      "דמי": 2521,
      "נדרש": 2522,
      "רוא": 2523,
      "חדשה": 2524,
      "יחסי": 2525,
      "עובדה": 2526,
      "מפל": 2527,
      "20": 2528,
      "שנת": 2529,
      "שהו": 2530,
      "ורות": 2531,
      "רפואי": 2532,
      "הולך": 2533,
      "לקרוא": 2534,
      "וקרטי": 2535,
      "טודנט": 2536,
      "להשי": 2537,
      "להשיג": 2538,
      "היסט": 2539,
      "הגנה": 2540,
      "החלטה": 2541,
      "בור": 2542,
      "רוץ": 2543,
      "te": 2544,
      "חדר": 2545,
      "תודה": 2546,
      "חמש": 2547,
      "יציר": 2548,
      "ביצוע": 2549,
      "חרי": 2550,
      "מבוסס": 2551,
      "ינה": 2552,
      "צטר": 2553,
      "דומ": 2554,
      "נול": 2555,
      "לקח": 2556,
      "תחילת": 2557,
      "עונה": 2558,
      "מפת": 2559,
      "תמיכה": 2560,
      "מורה": 2561,
      "מסוי": 2562,
      "עבד": 2563,
      "תחר": 2564,
      "אירופ": 2565,
      "חריות": 2566,
      "לשנות": 2567,
      "התא": 2568,
      "ניס": 2569,
      "פות": 2570,
      "כמות": 2571,
      "חוסר": 2572,
      "טיבי": 2573,
      "מזה": 2574,
      "מפני": 2575,
      "ודי": 2576,
      "פיר": 2577,
      "יצוני": 2578,
      "עלינו": 2579,
      "בסוף": 2580,
      "הילד": 2581,
      "היינו": 2582,
      "כולות": 2583,
      "נור": 2584,
      "בעבר": 2585,
      "יורק": 2586,
      "ולכן": 2587,
      "עבודת": 2588,
      "המשחק": 2589,
      "ווד": 2590,
      "אומ": 2591,
      "במקרה": 2592,
      "צדק": 2593,
      "הים": 2594,
      "##le": 2595,
      "המס": 2596,
      "לבצע": 2597,
      "##טון": 2598,
      "הפי": 2599,
      "לכת": 2600,
      "מדה": 2601,
      "מהר": 2602,
      "משא": 2603,
      "עיצ": 2604,
      "פולי": 2605,
      "##ce": 2606,
      "ביע": 2607,
      "נושא": 2608,
      "ולט": 2609,
      "לחל": 2610,
      "בעת": 2611,
      "יץ": 2612,
      "עצמך": 2613,
      "הסכם": 2614,
      "קוב": 2615,
      "לחשוב": 2616,
      "שית": 2617,
      "מאמינ": 2618,
      "מלחמת": 2619,
      "סע": 2620,
      "דוגמה": 2621,
      "לחיות": 2622,
      "בנושא": 2623,
      "##oo": 2624,
      "רואים": 2625,
      "תואר": 2626,
      "התנהג": 2627,
      "חוקי": 2628,
      "ואם": 2629,
      "תכנית": 2630,
      "הצב": 2631,
      "לגר": 2632,
      "תרופ": 2633,
      "ממשלת": 2634,
      "בסופו": 2635,
      "המצב": 2636,
      "ורמים": 2637,
      "כבוד": 2638,
      "##אן": 2639,
      "השפ": 2640,
      "עניינ": 2641,
      "חיי": 2642,
      "קוחות": 2643,
      "אישה": 2644,
      "ליפ": 2645,
      "זמ": 2646,
      "שטח": 2647,
      "ִי": 2648,
      "עז": 2649,
      "ורד": 2650,
      "נולד": 2651,
      "שרה": 2652,
      "צפוי": 2653,
      "ווה": 2654,
      "##et": 2655,
      "עצמה": 2656,
      "##קיע": 2657,
      "שחור": 2658,
      "##ובי": 2659,
      "שווי": 2660,
      "רמ": 2661,
      "##ow": 2662,
      "גוד": 2663,
      "דעת": 2664,
      "זכות": 2665,
      "נתיים": 2666,
      "הסרט": 2667,
      "ההיסט": 2668,
      "ותר": 2669,
      "לחלוט": 2670,
      "מצד": 2671,
      "ויז": 2672,
      "פתוח": 2673,
      "דאג": 2674,
      "מפלג": 2675,
      "##לח": 2676,
      "פנים": 2677,
      "רמני": 2678,
      "שנות": 2679,
      "גורם": 2680,
      "כות": 2681,
      "לבין": 2682,
      "בחיים": 2683,
      "ראוי": 2684,
      "##כיר": 2685,
      "הרגיש": 2686,
      "טרור": 2687,
      "מרכז": 2688,
      "תוכלו": 2689,
      "סיבה": 2690,
      "כלומר": 2691,
      "מאפשר": 2692,
      "החז": 2693,
      "ניו": 2694,
      "צעד": 2695,
      "מריקה": 2696,
      "בפני": 2697,
      "בריא": 2698,
      "דין": 2699,
      "פרש": 2700,
      "וכן": 2701,
      "sh": 2702,
      "כשה": 2703,
      "עקבות": 2704,
      "##מע": 2705,
      "ארוח": 2706,
      "תקופ": 2707,
      "אבא": 2708,
      "אבי": 2709,
      "וּ": 2710,
      "מסר": 2711,
      "קרב": 2712,
      "כאילו": 2713,
      "זקוק": 2714,
      "##ve": 2715,
      "מהפ": 2716,
      "התק": 2717,
      "בוצות": 2718,
      "נעשה": 2719,
      "מסוימ": 2720,
      "רצון": 2721,
      "שאנו": 2722,
      "השאלה": 2723,
      "הלי": 2724,
      "רצה": 2725,
      "30": 2726,
      "ma": 2727,
      "##לים": 2728,
      "צרכ": 2729,
      "עליהם": 2730,
      "אמצע": 2731,
      "עו": 2732,
      "הפעם": 2733,
      "חברי": 2734,
      "בסיס": 2735,
      "תת": 2736,
      "##חן": 2737,
      "הצליח": 2738,
      "##קדמ": 2739,
      "המקום": 2740,
      "##וציא": 2741,
      "בשם": 2742,
      "רמניה": 2743,
      "משפחת": 2744,
      "עיצוב": 2745,
      "שוק": 2746,
      "מאד": 2747,
      "חיפוש": 2748,
      "חור": 2749,
      "מקרה": 2750,
      "אמרתי": 2751,
      "אכ": 2752,
      "מוח": 2753,
      "טוע": 2754,
      "המידע": 2755,
      "איראן": 2756,
      "מציע": 2757,
      "מקבל": 2758,
      "מנהל": 2759,
      "דוגמ": 2760,
      "בוקר": 2761,
      "הולכ": 2762,
      "נוע": 2763,
      "המת": 2764,
      "ביקור": 2765,
      "ספורט": 2766,
      "אתכם": 2767,
      "יבי": 2768,
      "השפעה": 2769,
      "גן": 2770,
      "באזור": 2771,
      "מטרה": 2772,
      "לוקח": 2773,
      "כללי": 2774,
      "נגלית": 2775,
      "אהוב": 2776,
      "מדעי": 2777,
      "אמן": 2778,
      "מבין": 2779,
      "##זרת": 2780,
      "להג": 2781,
      "כדאי": 2782,
      "מאמר": 2783,
      "ערים": 2784,
      "ודעות": 2785,
      "##תף": 2786,
      "and": 2787,
      "קלי": 2788,
      "תז": 2789,
      "ציל": 2790,
      "אותן": 2791,
      "טלפון": 2792,
      "עץ": 2793,
      "ארג": 2794,
      "מוכר": 2795,
      "זיה": 2796,
      "הבעיה": 2797,
      "ככה": 2798,
      "והיא": 2799,
      "נשק": 2800,
      "דיק": 2801,
      "גנ": 2802,
      "לחזור": 2803,
      "אנושי": 2804,
      "מיד": 2805,
      "גודל": 2806,
      "ייתכן": 2807,
      "de": 2808,
      "לגרום": 2809,
      "com": 2810,
      "לון": 2811,
      "עלול": 2812,
      "##סיף": 2813,
      "הוסיף": 2814,
      "עיד": 2815,
      "le": 2816,
      "ומי": 2817,
      "##הי": 2818,
      "מבקש": 2819,
      "אומרת": 2820,
      "קהילה": 2821,
      "פנימי": 2822,
      "עמוק": 2823,
      "ודרני": 2824,
      "חומ": 2825,
      "##יני": 2826,
      "##חוד": 2827,
      "סיכון": 2828,
      "יחידה": 2829,
      "ויש": 2830,
      "רוסיה": 2831,
      "והם": 2832,
      "עור": 2833,
      "והמ": 2834,
      "שחקים": 2835,
      "נוספת": 2836,
      "מאות": 2837,
      "בגיל": 2838,
      "##גיעה": 2839,
      "##אם": 2840,
      "שכח": 2841,
      "כלפי": 2842,
      "אנג": 2843,
      "זוהי": 2844,
      "ויזיה": 2845,
      "אתר": 2846,
      "הקשר": 2847,
      "עמוד": 2848,
      "##us": 2849,
      "##ריכ": 2850,
      "שאר": 2851,
      "שיעור": 2852,
      "מחוץ": 2853,
      "העם": 2854,
      "רצח": 2855,
      "##גרת": 2856,
      "##ארד": 2857,
      "רכי": 2858,
      "למען": 2859,
      "בעצ": 2860,
      "ראו": 2861,
      "צרפת": 2862,
      "משקל": 2863,
      "רמת": 2864,
      "לבחור": 2865,
      "דם": 2866,
      "מיני": 2867,
      "תלוי": 2868,
      "15": 2869,
      "רחוק": 2870,
      "מגוון": 2871,
      "היחי": 2872,
      "שפחה": 2873,
      "היחיד": 2874,
      "ליארד": 2875,
      "מפתח": 2876,
      "אכן": 2877,
      "מסגרת": 2878,
      "הגב": 2879,
      "הקר": 2880,
      "ולו": 2881,
      "משך": 2882,
      "הסת": 2883,
      "משטרה": 2884,
      "עירים": 2885,
      "הנשיא": 2886,
      "מהמ": 2887,
      "מראה": 2888,
      "##טנ": 2889,
      "מפע": 2890,
      "##כור": 2891,
      "ירד": 2892,
      "תוכני": 2893,
      "נוכחי": 2894,
      "עונ": 2895,
      "ורק": 2896,
      "באותה": 2897,
      "##כול": 2898,
      "תגובה": 2899,
      "בהתאם": 2900,
      "וכל": 2901,
      "שבת": 2902,
      "סין": 2903,
      "רגל": 2904,
      "##ופל": 2905,
      "שיתוף": 2906,
      "מבט": 2907,
      "ערה": 2908,
      "קטנה": 2909,
      "במי": 2910,
      "כבד": 2911,
      "##שיר": 2912,
      "עלות": 2913,
      "מכשיר": 2914,
      "זוג": 2915,
      "אמרו": 2916,
      "אלב": 2917,
      "ייט": 2918,
      "ניתוח": 2919,
      "ממה": 2920,
      "ראיתי": 2921,
      "המחקר": 2922,
      "טווח": 2923,
      "נהר": 2924,
      "ארב": 2925,
      "תנועה": 2926,
      "עין": 2927,
      "הסיבה": 2928,
      "זוכר": 2929,
      "פטר": 2930,
      "ולים": 2931,
      "שוי": 2932,
      "שבוע": 2933,
      "בארה": 2934,
      "גש": 2935,
      "##ותף": 2936,
      "להש": 2937,
      "ויד": 2938,
      "בהן": 2939,
      "דוק": 2940,
      "רסיטת": 2941,
      "שמות": 2942,
      "קהיל": 2943,
      "זרחים": 2944,
      "סוכנ": 2945,
      "הנו": 2946,
      "תקי": 2947,
      "עצב": 2948,
      "חלוק": 2949,
      "סביבה": 2950,
      "ברגע": 2951,
      "לספק": 2952,
      "##ליק": 2953,
      "שינה": 2954,
      "##וצע": 2955,
      "ממוצע": 2956,
      "בסדר": 2957,
      "וות": 2958,
      "כז": 2959,
      "בעיר": 2960,
      "לבן": 2961,
      "ic": 2962,
      "תחרות": 2963,
      "12": 2964,
      "טרט": 2965,
      "אלף": 2966,
      "ביל": 2967,
      "כונות": 2968,
      "וזיקה": 2969,
      "גרם": 2970,
      "ציר": 2971,
      "החד": 2972,
      "ניצ": 2973,
      "פרופ": 2974,
      "ריב": 2975,
      "תיא": 2976,
      "מחלה": 2977,
      "##חב": 2978,
      "קהל": 2979,
      "טרטגי": 2980,
      "##ופי": 2981,
      "למעלה": 2982,
      "בואו": 2983,
      "מנסה": 2984,
      "לעומת": 2985,
      "מטרות": 2986,
      "הלו": 2987,
      "גוף": 2988,
      "חיובי": 2989,
      "מוביל": 2990,
      "רוד": 2991,
      "שאת": 2992,
      "קבוע": 2993,
      "ועוד": 2994,
      "פרטים": 2995,
      "מטוס": 2996,
      "ro": 2997,
      "חמד": 2998,
      "האתר": 2999,
      "שיו": 3000,
      "מוג": 3001,
      "קיי": 3002,
      "תעופה": 3003,
      "ייצור": 3004,
      "לתוך": 3005,
      "הקרוב": 3006,
      "גיד": 3007,
      "לנס": 3008,
      "לצאת": 3009,
      "אזר": 3010,
      "מצרים": 3011,
      "חפ": 3012,
      "צוי": 3013,
      "פס": 3014,
      "שמי": 3015,
      "שמו": 3016,
      "משמש": 3017,
      "תקן": 3018,
      "המאה": 3019,
      "למנוע": 3020,
      "שבע": 3021,
      "להביא": 3022,
      "ישנם": 3023,
      "פועל": 3024,
      "קיץ": 3025,
      "צרפ": 3026,
      "ארבעה": 3027,
      "דיווח": 3028,
      "הקו": 3029,
      "רצונ": 3030,
      "דנ": 3031,
      "רוע": 3032,
      "קטנים": 3033,
      "לגמ": 3034,
      "בריטנ": 3035,
      "לילה": 3036,
      "ריח": 3037,
      "עזרה": 3038,
      "פתח": 3039,
      "##ct": 3040,
      "קודות": 3041,
      "סביר": 3042,
      "##מלי": 3043,
      "ולל": 3044,
      "שפט": 3045,
      "עיתים": 3046,
      "לגמרי": 3047,
      "or": 3048,
      "##טיס": 3049,
      "צרפתי": 3050,
      "ושר": 3051,
      "טור": 3052,
      "כס": 3053,
      "שאינ": 3054,
      "שכנ": 3055,
      "זמין": 3056,
      "מוקד": 3057,
      "אזרחי": 3058,
      "מעמד": 3059,
      "גא": 3060,
      "מלון": 3061,
      "##סיק": 3062,
      "מצליח": 3063,
      "סופר": 3064,
      "לשם": 3065,
      "סיכוי": 3066,
      "ובל": 3067,
      "נן": 3068,
      "בארץ": 3069,
      "חוצ": 3070,
      "פיל": 3071,
      "##ut": 3072,
      "עשיר": 3073,
      "שמש": 3074,
      "מכר": 3075,
      "לחם": 3076,
      "תקופת": 3077,
      "ed": 3078,
      "כור": 3079,
      "שמר": 3080,
      "דתי": 3081,
      "לול": 3082,
      "תס": 3083,
      "##בור": 3084,
      "אישית": 3085,
      "ונה": 3086,
      "שופ": 3087,
      "סרטן": 3088,
      "ארגונ": 3089,
      "דח": 3090,
      "בועות": 3091,
      "ירא": 3092,
      "עליה": 3093,
      "שווה": 3094,
      "רוחני": 3095,
      "אסור": 3096,
      "##חלט": 3097,
      "החדשה": 3098,
      "דפ": 3099,
      "עליך": 3100,
      "איתנו": 3101,
      "שקט": 3102,
      "פוליט": 3103,
      "for": 3104,
      "תקשר": 3105,
      "ונג": 3106,
      "##ot": 3107,
      "מאבק": 3108,
      "הופך": 3109,
      "גלה": 3110,
      "לם": 3111,
      "נמו": 3112,
      "אישי": 3113,
      "הסביר": 3114,
      "וסף": 3115,
      "רגשות": 3116,
      "קבלת": 3117,
      "mi": 3118,
      "טומ": 3119,
      "##קוח": 3120,
      "יהן": 3121,
      "כרטיס": 3122,
      "בשר": 3123,
      "בהחלט": 3124,
      "שנית": 3125,
      "שניים": 3126,
      "עולות": 3127,
      "שליטה": 3128,
      "יצירת": 3129,
      "גו": 3130,
      "הרכב": 3131,
      "מספק": 3132,
      "דורש": 3133,
      "להגי": 3134,
      "חייו": 3135,
      "##וגר": 3136,
      "בהי": 3137,
      "מכיל": 3138,
      "הלב": 3139,
      "מורכב": 3140,
      "להגיד": 3141,
      "הדי": 3142,
      "חוב": 3143,
      "ריצ": 3144,
      "ונן": 3145,
      "פאר": 3146,
      "דרוש": 3147,
      "החליט": 3148,
      "ar": 3149,
      "דה": 3150,
      "שח": 3151,
      "בשנים": 3152,
      "עדיף": 3153,
      "קבוצת": 3154,
      "השם": 3155,
      "ירת": 3156,
      "משפטי": 3157,
      "היכ": 3158,
      "מאה": 3159,
      "ייס": 3160,
      "סר": 3161,
      "איזו": 3162,
      "אלפי": 3163,
      "מתו": 3164,
      "יתה": 3165,
      "וגר": 3166,
      "כותב": 3167,
      "לאכול": 3168,
      "מטופל": 3169,
      "ראשית": 3170,
      "דלת": 3171,
      "יחודי": 3172,
      "לסי": 3173,
      "צליח": 3174,
      "ניח": 3175,
      "מקורי": 3176,
      "מעור": 3177,
      "##גישה": 3178,
      "תעורר": 3179,
      "פיק": 3180,
      "יודעת": 3181,
      "סייע": 3182,
      "בטח": 3183,
      "שיבות": 3184,
      "דרום": 3185,
      "ישום": 3186,
      "אופן": 3187,
      "##ck": 3188,
      "ביא": 3189,
      "דיבר": 3190,
      "רותים": 3191,
      "כלכל": 3192,
      "ארוך": 3193,
      "ופול": 3194,
      "ריקני": 3195,
      "מופיע": 3196,
      "ביקש": 3197,
      "תקנ": 3198,
      "קרקע": 3199,
      "סדרה": 3200,
      "ביטוי": 3201,
      "בשלב": 3202,
      "וקרים": 3203,
      "סון": 3204,
      "רשות": 3205,
      "זמינ": 3206,
      "מתאים": 3207,
      "טובות": 3208,
      "יוצא": 3209,
      "כבי": 3210,
      "ירותי": 3211,
      "הגיעו": 3212,
      "מזל": 3213,
      "לכתוב": 3214,
      "התנגד": 3215,
      "ציות": 3216,
      "שדה": 3217,
      "העביר": 3218,
      "מבנה": 3219,
      "se": 3220,
      "מומ": 3221,
      "יימים": 3222,
      "אמונה": 3223,
      "##אימ": 3224,
      "הישאר": 3225,
      "בוד": 3226,
      "ירוק": 3227,
      "מושג": 3228,
      "תוש": 3229,
      "מתן": 3230,
      "ריה": 3231,
      "##la": 3232,
      "תנאים": 3233,
      "בסיסי": 3234,
      "רווי": 3235,
      "הבאה": 3236,
      "מלאה": 3237,
      "שפחות": 3238,
      "בחינה": 3239,
      "חולים": 3240,
      "בעצם": 3241,
      "שמאל": 3242,
      "ייך": 3243,
      "מתרחש": 3244,
      "סמכ": 3245,
      "זיהו": 3246,
      "tion": 3247,
      "יילים": 3248,
      "ספי": 3249,
      "לקנות": 3250,
      "וצג": 3251,
      "יסוד": 3252,
      "##וו": 3253,
      "המע": 3254,
      "מסת": 3255,
      "בחירה": 3256,
      "היטב": 3257,
      "חט": 3258,
      "מתחת": 3259,
      "ידת": 3260,
      "50": 3261,
      "li": 3262,
      "ום": 3263,
      "ריד": 3264,
      "ארי": 3265,
      "בטיח": 3266,
      "##ושי": 3267,
      "התחלה": 3268,
      "עשיית": 3269,
      "היות": 3270,
      "עלמ": 3271,
      "הטבע": 3272,
      "איחוד": 3273,
      "מעשי": 3274,
      "סיק": 3275,
      "מרחק": 3276,
      "נשמע": 3277,
      "המים": 3278,
      "לבנות": 3279,
      "חוו": 3280,
      "פורט": 3281,
      "ביטוח": 3282,
      "ווע": 3283,
      "חיה": 3284,
      "תן": 3285,
      "טראמפ": 3286,
      "זב": 3287,
      "נוצר": 3288,
      "שמע": 3289,
      "בנה": 3290,
      "לימות": 3291,
      "נהג": 3292,
      "קיימת": 3293,
      "הוכ": 3294,
      "הני": 3295,
      "תנאי": 3296,
      "ברז": 3297,
      "לשחק": 3298,
      "מבצע": 3299,
      "דיר": 3300,
      "ענ": 3301,
      "דיון": 3302,
      "קפה": 3303,
      "במצב": 3304,
      "חקנים": 3305,
      "האד": 3306,
      "בחודש": 3307,
      "שויים": 3308,
      "אקד": 3309,
      "אקדמי": 3310,
      "עצמנו": 3311,
      "זיא": 3312,
      "אנטי": 3313,
      "תשלום": 3314,
      "##מנע": 3315,
      "זיאון": 3316,
      "לעבור": 3317,
      "נאמר": 3318,
      "בראש": 3319,
      "גרוע": 3320,
      "ליי": 3321,
      "מאמין": 3322,
      "מועמד": 3323,
      "רשימה": 3324,
      "נציאל": 3325,
      "כוונ": 3326,
      "שיפור": 3327,
      "גול": 3328,
      "פתע": 3329,
      "מעורב": 3330,
      "גיט": 3331,
      "חזרה": 3332,
      "עוצ": 3333,
      "נכונה": 3334,
      "שאי": 3335,
      "בידי": 3336,
      "אפר": 3337,
      "ומן": 3338,
      "נצל": 3339,
      "שהיו": 3340,
      "מקווה": 3341,
      "הביתה": 3342,
      "מערבי": 3343,
      "אמת": 3344,
      "תוכן": 3345,
      "ונדון": 3346,
      "קטר": 3347,
      "##וקא": 3348,
      "השבוע": 3349,
      "במס": 3350,
      "דווקא": 3351,
      "להגן": 3352,
      "we": 3353,
      "כח": 3354,
      "חג": 3355,
      "אחראי": 3356,
      "אבד": 3357,
      "כוני": 3358,
      "לין": 3359,
      "היכנס": 3360,
      "כונית": 3361,
      "עורר": 3362,
      "לוט": 3363,
      "ation": 3364,
      "עשרה": 3365,
      "בפעם": 3366,
      "נחשב": 3367,
      "פים": 3368,
      "סוריה": 3369,
      "לנסות": 3370,
      "ושבים": 3371,
      "פוסט": 3372,
      "קף": 3373,
      "עצמכם": 3374,
      "שמה": 3375,
      "שלם": 3376,
      "סיפר": 3377,
      "ילא": 3378,
      "פשרוי": 3379,
      "נבחר": 3380,
      "ביחד": 3381,
      "שיה": 3382,
      "##חרי": 3383,
      "פרסום": 3384,
      "יקורת": 3385,
      "דוגמא": 3386,
      "ינואר": 3387,
      "שלח": 3388,
      "רדה": 3389,
      "כוכ": 3390,
      "ובב": 3391,
      "פורסם": 3392,
      "יטר": 3393,
      "סוגי": 3394,
      "בזה": 3395,
      "לוג": 3396,
      "di": 3397,
      "יוצר": 3398,
      "קדם": 3399,
      "משפיע": 3400,
      "גרס": 3401,
      "וין": 3402,
      "כזו": 3403,
      "המטרה": 3404,
      "מאמ": 3405,
      "שומר": 3406,
      "חקרים": 3407,
      "הרוג": 3408,
      "סכים": 3409,
      "נקודת": 3410,
      "el": 3411,
      "עסקי": 3412,
      "תשומת": 3413,
      "רכיש": 3414,
      "להס": 3415,
      "נזק": 3416,
      "שלוח": 3417,
      "הפסיק": 3418,
      "תכנ": 3419,
      "גמר": 3420,
      "שיל": 3421,
      "חרונה": 3422,
      "su": 3423,
      "הרש": 3424,
      "הכנס": 3425,
      "בתור": 3426,
      "פורמ": 3427,
      "חזור": 3428,
      "מך": 3429,
      "השר": 3430,
      "יתי": 3431,
      "פריקה": 3432,
      "##ביב": 3433,
      "יקום": 3434,
      "בחינת": 3435,
      "is": 3436,
      "un": 3437,
      "בעלות": 3438,
      "שחקן": 3439,
      "ינוי": 3440,
      "נאה": 3441,
      "תני": 3442,
      "הופכ": 3443,
      "טן": 3444,
      "כפר": 3445,
      "מיר": 3446,
      "קיר": 3447,
      "ריירה": 3448,
      "קלים": 3449,
      "פטמבר": 3450,
      "נקי": 3451,
      "יזם": 3452,
      "רל": 3453,
      "לשלם": 3454,
      "ופולר": 3455,
      "מהו": 3456,
      "יינ": 3457,
      "צבא": 3458,
      "לאו": 3459,
      "יימ": 3460,
      "הגדר": 3461,
      "פרטי": 3462,
      "בריטי": 3463,
      "עברו": 3464,
      "ענק": 3465,
      "פו": 3466,
      "זהיר": 3467,
      "גזע": 3468,
      "ניק": 3469,
      "אדמ": 3470,
      "מוכן": 3471,
      "מוגבל": 3472,
      "עוצמ": 3473,
      "רוך": 3474,
      "##קנ": 3475,
      "כלכלה": 3476,
      "הסכמ": 3477,
      "שיער": 3478,
      "הלאומ": 3479,
      "משבר": 3480,
      "לבו": 3481,
      "בשבוע": 3482,
      "דצ": 3483,
      "עלם": 3484,
      "חשבתי": 3485,
      "נקודה": 3486,
      "שיהיה": 3487,
      "נפר": 3488,
      "נתן": 3489,
      "זכה": 3490,
      "פרו": 3491,
      "רז": 3492,
      "##ad": 3493,
      "מטרת": 3494,
      "נצח": 3495,
      "מונח": 3496,
      "נפרד": 3497,
      "דון": 3498,
      "ורה": 3499,
      "קורות": 3500,
      "שויות": 3501,
      "מחלות": 3502,
      "סמים": 3503,
      "זהב": 3504,
      "הדין": 3505,
      "חם": 3506,
      "רוק": 3507,
      "כלא": 3508,
      "הריון": 3509,
      "אלבום": 3510,
      "דצמבר": 3511,
      "11": 3512,
      "שגר": 3513,
      "יפים": 3514,
      "פול": 3515,
      "יהו": 3516,
      "לפע": 3517,
      "מבלי": 3518,
      "לגל": 3519,
      "רמות": 3520,
      "היכן": 3521,
      "קטובר": 3522,
      "מסוים": 3523,
      "לידה": 3524,
      "לשפר": 3525,
      "צמח": 3526,
      "ניות": 3527,
      "תקיים": 3528,
      "מוקדם": 3529,
      "לפעול": 3530,
      "la": 3531,
      "שכר": 3532,
      "משימה": 3533,
      "רון": 3534,
      "שכן": 3535,
      "כלום": 3536,
      "ישנ": 3537,
      "לשמוע": 3538,
      "סבל": 3539,
      "ואף": 3540,
      "הכסף": 3541,
      "##וסט": 3542,
      "קורס": 3543,
      "אוהבת": 3544,
      "כביש": 3545,
      "טה": 3546,
      "ואל": 3547,
      "פרסם": 3548,
      "פרט": 3549,
      "טיל": 3550,
      "וצאת": 3551,
      "טעם": 3552,
      "נותן": 3553,
      "צעיר": 3554,
      "ניסוי": 3555,
      "טיול": 3556,
      "מתאימ": 3557,
      "צבאי": 3558,
      "בנות": 3559,
      "תומ": 3560,
      "היי": 3561,
      "ריע": 3562,
      "מכתב": 3563,
      "יטל": 3564,
      "בנוגע": 3565,
      "ותה": 3566,
      "מהיר": 3567,
      "יניהם": 3568,
      "מניע": 3569,
      "פארק": 3570,
      "קטרונ": 3571,
      "##תיד": 3572,
      "גרמני": 3573,
      "רעיונ": 3574,
      "שופט": 3575,
      "הוביל": 3576,
      "זורים": 3577,
      "רצו": 3578,
      "איננו": 3579,
      "איתו": 3580,
      "שׁ": 3581,
      "##ir": 3582,
      "##סטי": 3583,
      "ערות": 3584,
      "רסיטה": 3585,
      "מסעד": 3586,
      "ידה": 3587,
      "שוא": 3588,
      "סרטים": 3589,
      "קמפ": 3590,
      "החשוב": 3591,
      "18": 3592,
      "יוח": 3593,
      "חיק": 3594,
      "במאי": 3595,
      "קרן": 3596,
      "שתתפ": 3597,
      "פשט": 3598,
      "me": 3599,
      "הוציא": 3600,
      "סא": 3601,
      "צמי": 3602,
      "פעל": 3603,
      "תפי": 3604,
      "משכ": 3605,
      "מסל": 3606,
      "ריפ": 3607,
      "בירה": 3608,
      "דל": 3609,
      "טון": 3610,
      "כירות": 3611,
      "מילה": 3612,
      "נותר": 3613,
      "קבלים": 3614,
      "מסלול": 3615,
      "נוב": 3616,
      "פצי": 3617,
      "מחש": 3618,
      "חלטות": 3619,
      "יעד": 3620,
      "הימנע": 3621,
      "ורש": 3622,
      "חנות": 3623,
      "קלה": 3624,
      "וכך": 3625,
      "וספות": 3626,
      "ספינ": 3627,
      "##צג": 3628,
      "הרפ": 3629,
      "טנ": 3630,
      "you": 3631,
      "ובמבר": 3632,
      "חמישה": 3633,
      "ng": 3634,
      "רדי": 3635,
      "שותפ": 3636,
      "לוס": 3637,
      "סיוע": 3638,
      "הקשור": 3639,
      "אתגר": 3640,
      "שמים": 3641,
      "יסב": 3642,
      "נפש": 3643,
      "נמצאת": 3644,
      "לרוב": 3645,
      "דירה": 3646,
      "חיות": 3647,
      "מסוג": 3648,
      "זמנים": 3649,
      "ובי": 3650,
      "נהדר": 3651,
      "אינן": 3652,
      "ph": 3653,
      "בער": 3654,
      "נוכל": 3655,
      "שמחה": 3656,
      "אים": 3657,
      "הבאים": 3658,
      "es": 3659,
      "גלי": 3660,
      "##id": 3661,
      "ימון": 3662,
      "סטרלי": 3663,
      "רביע": 3664,
      "מצאו": 3665,
      "ופס": 3666,
      "רחוב": 3667,
      "אדום": 3668,
      "צילום": 3669,
      "רביעי": 3670,
      "סד": 3671,
      "וקמ": 3672,
      "בטל": 3673,
      "##ent": 3674,
      "לשים": 3675,
      "עוס": 3676,
      "שלטון": 3677,
      "גזר": 3678,
      "הינו": 3679,
      "און": 3680,
      "סנ": 3681,
      "קנה": 3682,
      "יציב": 3683,
      "הטובה": 3684,
      "וים": 3685,
      "המון": 3686,
      "לפתח": 3687,
      "גדיר": 3688,
      "יונ": 3689,
      "לונות": 3690,
      "מטה": 3691,
      "רופא": 3692,
      "בעתיד": 3693,
      "מחו": 3694,
      "ופים": 3695,
      "לצד": 3696,
      "הודעה": 3697,
      "מודל": 3698,
      "40": 3699,
      "המוח": 3700,
      "ישוע": 3701,
      "אמי": 3702,
      "אויב": 3703,
      "העסק": 3704,
      "חקלא": 3705,
      "יקרה": 3706,
      "ריס": 3707,
      "הצבע": 3708,
      "וריד": 3709,
      "וחר": 3710,
      "חלום": 3711,
      "כניסה": 3712,
      "סטי": 3713,
      "חינם": 3714,
      "הבנה": 3715,
      "ההת": 3716,
      "הופיע": 3717,
      "פותח": 3718,
      "איי": 3719,
      "הפכו": 3720,
      "וננ": 3721,
      "חשבות": 3722,
      "האמין": 3723,
      "נכס": 3724,
      "יחסים": 3725,
      "מיתית": 3726,
      "רן": 3727,
      "רגיש": 3728,
      "תום": 3729,
      "האוכל": 3730,
      "לעמוד": 3731,
      "דבריו": 3732,
      "ערבים": 3733,
      "עודד": 3734,
      "##ess": 3735,
      "דוח": 3736,
      "##עים": 3737,
      "שיח": 3738,
      "הרא": 3739,
      "קצב": 3740,
      "סעי": 3741,
      "כלים": 3742,
      "משיך": 3743,
      "ex": 3744,
      "אישור": 3745,
      "חמור": 3746,
      "מביא": 3747,
      "ישן": 3748,
      "מועצ": 3749,
      "שבהם": 3750,
      "חוויה": 3751,
      "עקר": 3752,
      "קוט": 3753,
      "מימ": 3754,
      "מערב": 3755,
      "הטכנו": 3756,
      "עצמאי": 3757,
      "יוכלו": 3758,
      "אודות": 3759,
      "מאושר": 3760,
      "החלו": 3761,
      "קק": 3762,
      "##um": 3763,
      "לגלות": 3764,
      "התי": 3765,
      "ניתנ": 3766,
      "עשייה": 3767,
      "יכרון": 3768,
      "ta": 3769,
      "פעיל": 3770,
      "פציפי": 3771,
      "חוף": 3772,
      "הזמנ": 3773,
      "be": 3774,
      "והת": 3775,
      "מחפש": 3776,
      "שילוב": 3777,
      "מחשבה": 3778,
      "אול": 3779,
      "גידול": 3780,
      "עליי": 3781,
      "וויר": 3782,
      "גוע": 3783,
      "וגע": 3784,
      "בולות": 3785,
      "סתכל": 3786,
      "סעיף": 3787,
      "##טח": 3788,
      "תקבל": 3789,
      "ושל": 3790,
      "החלק": 3791,
      "פורסמ": 3792,
      "גמ": 3793,
      "סטיב": 3794,
      "מפלגה": 3795,
      "לאי": 3796,
      "שיחה": 3797,
      "בעזרת": 3798,
      "רציתי": 3799,
      "ממנה": 3800,
      "צדדים": 3801,
      "זמני": 3802,
      "כוס": 3803,
      "##נסי": 3804,
      "פיזי": 3805,
      "חוקים": 3806,
      "מלאכ": 3807,
      "סגנון": 3808,
      "גדיל": 3809,
      "יקה": 3810,
      "רבי": 3811,
      "רמו": 3812,
      "סיום": 3813,
      "עצר": 3814,
      "אמצעי": 3815,
      "נמוך": 3816,
      "ייג": 3817,
      "חושבת": 3818,
      "שגם": 3819,
      "צה": 3820,
      "בטא": 3821,
      "עסוק": 3822,
      "בך": 3823,
      "סקר": 3824,
      "ליז": 3825,
      "ולדת": 3826,
      "תחום": 3827,
      "יצר": 3828,
      "מוצר": 3829,
      "לבדוק": 3830,
      "25": 3831,
      "רץ": 3832,
      "המלך": 3833,
      "##ויק": 3834,
      "תיכון": 3835,
      "ניג": 3836,
      "ידיים": 3837,
      "מדויק": 3838,
      "בבוקר": 3839,
      "יתרונ": 3840,
      "רעה": 3841,
      "ראיי": 3842,
      "ייכ": 3843,
      "חייבת": 3844,
      "רוויח": 3845,
      "אושר": 3846,
      "לבס": 3847,
      "חשובה": 3848,
      "עליון": 3849,
      "במידה": 3850,
      "גורי": 3851,
      "תיר": 3852,
      "משותפ": 3853,
      "יסטי": 3854,
      "מועד": 3855,
      "חמא": 3856,
      "co": 3857,
      "יבה": 3858,
      "בנק": 3859,
      "חייהם": 3860,
      "למים": 3861,
      "הנד": 3862,
      "וטל": 3863,
      "חיוני": 3864,
      "רכבת": 3865,
      "הנדס": 3866,
      "תחי": 3867,
      "תקווה": 3868,
      "טענ": 3869,
      "ספקת": 3870,
      "na": 3871,
      "##ציב": 3872,
      "##בח": 3873,
      "שיטות": 3874,
      "הרוח": 3875,
      "לווי": 3876,
      "תקציב": 3877,
      "הודיע": 3878,
      "טעות": 3879,
      "מהי": 3880,
      "השמש": 3881,
      "##ועד": 3882,
      "התע": 3883,
      "לעז": 3884,
      "מטבע": 3885,
      "דמות": 3886,
      "עזה": 3887,
      "קבע": 3888,
      "שרא": 3889,
      "סיים": 3890,
      "מקב": 3891,
      "הקוד": 3892,
      "קרנ": 3893,
      "תרג": 3894,
      "ידור": 3895,
      "עשרות": 3896,
      "sp": 3897,
      "האיש": 3898,
      "ולד": 3899,
      "שמונה": 3900,
      "וצאים": 3901,
      "pro": 3902,
      "אשת": 3903,
      "רנ": 3904,
      "##lo": 3905,
      "חשמל": 3906,
      "שוואה": 3907,
      "רוז": 3908,
      "אכל": 3909,
      "שד": 3910,
      "בניו": 3911,
      "שיווק": 3912,
      "nt": 3913,
      "ענה": 3914,
      "שלילי": 3915,
      "לאדם": 3916,
      "המכ": 3917,
      "מצלמ": 3918,
      "מבוגר": 3919,
      "עימ": 3920,
      "אומית": 3921,
      "##פו": 3922,
      "טיקה": 3923,
      "אבו": 3924,
      "קופ": 3925,
      "המר": 3926,
      "מפגש": 3927,
      "גרמ": 3928,
      "עדיפ": 3929,
      "סגור": 3930,
      "חצ": 3931,
      "צא": 3932,
      "כיש": 3933,
      "בוק": 3934,
      "דמה": 3935,
      "סוי": 3936,
      "עובר": 3937,
      "##ht": 3938,
      "בקלות": 3939,
      "צוד": 3940,
      "רימ": 3941,
      "וכיח": 3942,
      "ועצ": 3943,
      "תפס": 3944,
      "הור": 3945,
      "טט": 3946,
      "מציג": 3947,
      "חות": 3948,
      "##se": 3949,
      "וכנים": 3950,
      "הלילה": 3951,
      "ושאים": 3952,
      "טיב": 3953,
      "כשא": 3954,
      "תער": 3955,
      "כננ": 3956,
      "יסבוק": 3957,
      "רך": 3958,
      "איבד": 3959,
      "עתה": 3960,
      "לאור": 3961,
      "בשוק": 3962,
      "כולו": 3963,
      "יסט": 3964,
      "לספר": 3965,
      "טען": 3966,
      "נושות": 3967,
      "פסיכו": 3968,
      "עוסק": 3969,
      "הערבי": 3970,
      "בדיקה": 3971,
      "לקראת": 3972,
      "רטי": 3973,
      "ראות": 3974,
      "ממשי": 3975,
      "עילוי": 3976,
      "שיטה": 3977,
      "אמנ": 3978,
      "חשש": 3979,
      "נמל": 3980,
      "רלו": 3981,
      "##ur": 3982,
      "למקום": 3983,
      "יוני": 3984,
      "יננסי": 3985,
      "אפריל": 3986,
      "יטה": 3987,
      "שלושת": 3988,
      "הצבא": 3989,
      "mo": 3990,
      "משו": 3991,
      "ועם": 3992,
      "נפלא": 3993,
      "שער": 3994,
      "אופנ": 3995,
      "איתם": 3996,
      "פסיק": 3997,
      "התמ": 3998,
      "פירוש": 3999,
      "השפיע": 4000,
      "ורו": 4001,
      "בניין": 4002,
      "אבק": 4003,
      "רבותי": 4004,
      "שניתן": 4005,
      "בדר": 4006,
      "ביב": 4007,
      "מהן": 4008,
      "##תיק": 4009,
      "חייה": 4010,
      "העתיק": 4011,
      "הכוח": 4012,
      "קישור": 4013,
      "יפש": 4014,
      "סוגים": 4015,
      "יירות": 4016,
      "הרב": 4017,
      "ראשי": 4018,
      "מחר": 4019,
      "הגר": 4020,
      "סכימ": 4021,
      "רוט": 4022,
      "וקם": 4023,
      "נותנ": 4024,
      "וגרפי": 4025,
      "במר": 4026,
      "חלי": 4027,
      "עדר": 4028,
      "קא": 4029,
      "האס": 4030,
      "מסחר": 4031,
      "וכו": 4032,
      "גנטי": 4033,
      "רום": 4034,
      "ורים": 4035,
      "מרא": 4036,
      "לשע": 4037,
      "תחושה": 4038,
      "שראלי": 4039,
      "זון": 4040,
      "קוי": 4041,
      "##כז": 4042,
      "בערך": 4043,
      "במרכז": 4044,
      "טפל": 4045,
      "##ia": 4046,
      "ראים": 4047,
      "ציין": 4048,
      "כרגע": 4049,
      "ערכים": 4050,
      "קולו": 4051,
      "ity": 4052,
      "13": 4053,
      "טקס": 4054,
      "הניח": 4055,
      "נכתב": 4056,
      "הסתכל": 4057,
      "שאינם": 4058,
      "זול": 4059,
      "יות": 4060,
      "תאי": 4061,
      "יומי": 4062,
      "חוזר": 4063,
      "חתול": 4064,
      "הנושא": 4065,
      "גוש": 4066,
      "מהווה": 4067,
      "חליף": 4068,
      "14": 4069,
      "השק": 4070,
      "מעלה": 4071,
      "כלוסי": 4072,
      "יחיד": 4073,
      "ra": 4074,
      "וזר": 4075,
      "ימין": 4076,
      "חלקים": 4077,
      "שחרר": 4078,
      "הראשי": 4079,
      "שהי": 4080,
      "ההבד": 4081,
      "מותו": 4082,
      "קשיב": 4083,
      "ההבדל": 4084,
      "em": 4085,
      "רוג": 4086,
      "תורה": 4087,
      "ותק": 4088,
      "ואין": 4089,
      "ירח": 4090,
      "סכום": 4091,
      "חפשים": 4092,
      "כפ": 4093,
      "##ונא": 4094,
      "ארד": 4095,
      "בתים": 4096,
      "רפא": 4097,
      "וסייה": 4098,
      "מפעל": 4099,
      "כימי": 4100,
      "ברואר": 4101,
      "נוגע": 4102,
      "חבל": 4103,
      "שאם": 4104,
      "ניי": 4105,
      "חלת": 4106,
      "מלי": 4107,
      "וידאו": 4108,
      "רדת": 4109,
      "לאפשר": 4110,
      "יתונא": 4111,
      "ארוחת": 4112,
      "זן": 4113,
      "יך": 4114,
      "בחוץ": 4115,
      "לבסוף": 4116,
      "##וסי": 4117,
      "משותף": 4118,
      "לנצ": 4119,
      "רפואה": 4120,
      "סתם": 4121,
      "למנט": 4122,
      "עשרים": 4123,
      "ועלים": 4124,
      "וול": 4125,
      "צורה": 4126,
      "הנח": 4127,
      "שניהם": 4128,
      "תרגל": 4129,
      "החזיר": 4130,
      "הליכ": 4131,
      "עקרונ": 4132,
      "חום": 4133,
      "ינס": 4134,
      "אתרים": 4135,
      "##ריז": 4136,
      "השיר": 4137,
      "שאפשר": 4138,
      "לנצח": 4139,
      "טכ": 4140,
      "קדי": 4141,
      "הפע": 4142,
      "חלקי": 4143,
      "עברי": 4144,
      "דף": 4145,
      "המילה": 4146,
      "תקדם": 4147,
      "פיצ": 4148,
      "מרב": 4149,
      "חורה": 4150,
      "טו": 4151,
      "סוק": 4152,
      "##im": 4153,
      "ותיו": 4154,
      "נסיעה": 4155,
      "תושבי": 4156,
      "wor": 4157,
      "חב": 4158,
      "עת": 4159,
      "מכוני": 4160,
      "בלע": 4161,
      "et": 4162,
      "po": 4163,
      "לף": 4164,
      "סמך": 4165,
      "לשעבר": 4166,
      "קיד": 4167,
      "יבת": 4168,
      "נדיר": 4169,
      "יכל": 4170,
      "סם": 4171,
      "ארכ": 4172,
      "ספרי": 4173,
      "כוכב": 4174,
      "מקביל": 4175,
      "so": 4176,
      "טייל": 4177,
      "תחומי": 4178,
      "לסייע": 4179,
      "סמוך": 4180,
      "ראית": 4181,
      "העבר": 4182,
      "לבקר": 4183,
      "הנכון": 4184,
      "וקה": 4185,
      "בחדר": 4186,
      "המשך": 4187,
      "יטליה": 4188,
      "ad": 4189,
      "השי": 4190,
      "ועלת": 4191,
      "הודו": 4192,
      "קליפ": 4193,
      "אזרח": 4194,
      "סן": 4195,
      "האור": 4196,
      "ואלי": 4197,
      "יפן": 4198,
      "ent": 4199,
      "##ומנ": 4200,
      "רקע": 4201,
      "גיע": 4202,
      "מושלם": 4203,
      "בפי": 4204,
      "כלבים": 4205,
      "סקס": 4206,
      "פתיע": 4207,
      "בים": 4208,
      "משנת": 4209,
      "##טרף": 4210,
      "הצטרף": 4211,
      "וסעים": 4212,
      "יבש": 4213,
      "ולאחר": 4214,
      "ווים": 4215,
      "צמיחה": 4216,
      "אתמ": 4217,
      "העני": 4218,
      "בחור": 4219,
      "עיני": 4220,
      "משאב": 4221,
      "כשהוא": 4222,
      "זרים": 4223,
      "ישוב": 4224,
      "והן": 4225,
      "בהמשך": 4226,
      "בלילה": 4227,
      "חשבונ": 4228,
      "צטרך": 4229,
      "חיל": 4230,
      "##חתי": 4231,
      "להכיר": 4232,
      "ורפ": 4233,
      "הערכ": 4234,
      "וספת": 4235,
      "שפחתי": 4236,
      "בזכות": 4237,
      "כיב": 4238,
      "קשות": 4239,
      "ותו": 4240,
      "המוצר": 4241,
      "ביס": 4242,
      "יסק": 4243,
      "אתמול": 4244,
      "##ft": 4245,
      "המצ": 4246,
      "לווה": 4247,
      "זוכ": 4248,
      "ילדה": 4249,
      "חוות": 4250,
      "בחברה": 4251,
      "בחיי": 4252,
      "lo": 4253,
      "שורה": 4254,
      "הרופא": 4255,
      "תיים": 4256,
      "מצט": 4257,
      "בקרים": 4258,
      "דעו": 4259,
      "סוד": 4260,
      "סחר": 4261,
      "תנוע": 4262,
      "כוללת": 4263,
      "דווח": 4264,
      "נפגע": 4265,
      "ימות": 4266,
      "חתונה": 4267,
      "##לץ": 4268,
      "ברמה": 4269,
      "אמנם": 4270,
      "תרומ": 4271,
      "פלא": 4272,
      "האדמה": 4273,
      "מרחב": 4274,
      "אורג": 4275,
      "סטרו": 4276,
      "חמישי": 4277,
      "דלק": 4278,
      "וגל": 4279,
      "חיבור": 4280,
      "##אול": 4281,
      "מוזר": 4282,
      "לשאול": 4283,
      "וגרים": 4284,
      "ויט": 4285,
      "תחייב": 4286,
      "16": 4287,
      "מנוע": 4288,
      "מרכיב": 4289,
      "סמל": 4290,
      "כנסת": 4291,
      "רמה": 4292,
      "##li": 4293,
      "מידה": 4294,
      "ובכ": 4295,
      "הצורך": 4296,
      "וריא": 4297,
      "מראש": 4298,
      "מחצ": 4299,
      "ושש": 4300,
      "ודה": 4301,
      "חליט": 4302,
      "משה": 4303,
      "אליהם": 4304,
      "מסך": 4305,
      "לחפש": 4306,
      "מכירה": 4307,
      "וכחות": 4308,
      "מזכיר": 4309,
      "סוכן": 4310,
      "השאיר": 4311,
      "בצד": 4312,
      "תצ": 4313,
      "בינים": 4314,
      "הפוך": 4315,
      "ברר": 4316,
      "הקונ": 4317,
      "וסדות": 4318,
      "וקס": 4319,
      "לזכור": 4320,
      "התמקד": 4321,
      "goo": 4322,
      "בודות": 4323,
      "נוי": 4324,
      "רציני": 4325,
      "נסה": 4326,
      "זהות": 4327,
      "החלה": 4328,
      "גישות": 4329,
      "דורגל": 4330,
      "דרכו": 4331,
      "פתיח": 4332,
      "בהיר": 4333,
      "פתרונ": 4334,
      "ירידה": 4335,
      "no": 4336,
      "ווק": 4337,
      "פגש": 4338,
      "תות": 4339,
      "המא": 4340,
      "לומ": 4341,
      "מחזיק": 4342,
      "ידעתי": 4343,
      "one": 4344,
      "תפיס": 4345,
      "עלו": 4346,
      "ורכי": 4347,
      "הסבר": 4348,
      "ושם": 4349,
      "פתא": 4350,
      "ידו": 4351,
      "שולחן": 4352,
      "מהפכה": 4353,
      "wh": 4354,
      "וותר": 4355,
      "חוד": 4356,
      "עורך": 4357,
      "רישות": 4358,
      "הצו": 4359,
      "בקרוב": 4360,
      "לדברי": 4361,
      "העניק": 4362,
      "בוב": 4363,
      "יופי": 4364,
      "##פות": 4365,
      "מיומנ": 4366,
      "זכור": 4367,
      "מוסרי": 4368,
      "מרבית": 4369,
      "ָה": 4370,
      "בשנות": 4371,
      "חלל": 4372,
      "קטנות": 4373,
      "כוה": 4374,
      "חלב": 4375,
      "לצי": 4376,
      "תכו": 4377,
      "תכנון": 4378,
      "הכללי": 4379,
      "כרז": 4380,
      "פחית": 4381,
      "המחיר": 4382,
      "קובע": 4383,
      "כוהול": 4384,
      "אורה": 4385,
      "ושי": 4386,
      "עוני": 4387,
      "כלה": 4388,
      "ישאר": 4389,
      "ולש": 4390,
      "דיש": 4391,
      "שוטר": 4392,
      "רטיות": 4393,
      "מונים": 4394,
      "סח": 4395,
      "ובדות": 4396,
      "לבוא": 4397,
      "הצביע": 4398,
      "רעב": 4399,
      "מנסים": 4400,
      "ניצחו": 4401,
      "ביוני": 4402,
      "אליה": 4403,
      "ניש": 4404,
      "יקוד": 4405,
      "עוזר": 4406,
      "נמוכה": 4407,
      "##נד": 4408,
      "התרחש": 4409,
      "לבוש": 4410,
      "דיקות": 4411,
      "24": 4412,
      "לן": 4413,
      "התקדמ": 4414,
      "סורתי": 4415,
      "כוונה": 4416,
      "הסיני": 4417,
      "מאמץ": 4418,
      "סנט": 4419,
      "תאים": 4420,
      "הרגע": 4421,
      "שירים": 4422,
      "כתובת": 4423,
      "חורף": 4424,
      "יוחדת": 4425,
      "ניגוד": 4426,
      "סול": 4427,
      "צל": 4428,
      "בקש": 4429,
      "ולין": 4430,
      "גורל": 4431,
      "ולוגי": 4432,
      "רדיו": 4433,
      "הבל": 4434,
      "עזור": 4435,
      "תפתח": 4436,
      "הפכה": 4437,
      "הבנק": 4438,
      "ומחים": 4439,
      "יצב": 4440,
      "לצפות": 4441,
      "סוימת": 4442,
      "רלוונ": 4443,
      "שהן": 4444,
      "דרש": 4445,
      "הדור": 4446,
      "לפתוח": 4447,
      "ייב": 4448,
      "תדר": 4449,
      "וינ": 4450,
      "ופאים": 4451,
      "נפוצ": 4452,
      "עלים": 4453,
      "השוק": 4454,
      "גיי": 4455,
      "תנהל": 4456,
      "מעבד": 4457,
      "יתן": 4458,
      "וחרים": 4459,
      "ce": 4460,
      "man": 4461,
      "גוב": 4462,
      "עון": 4463,
      "תקר": 4464,
      "##pp": 4465,
      "ריש": 4466,
      "רבנ": 4467,
      "בחנ": 4468,
      "הודות": 4469,
      "לוי": 4470,
      "נפתח": 4471,
      "רינ": 4472,
      "תומכ": 4473,
      "תקרב": 4474,
      "במש": 4475,
      "ינט": 4476,
      "מהות": 4477,
      "ובכל": 4478,
      "יתות": 4479,
      "פתאום": 4480,
      "המפ": 4481,
      "מומלץ": 4482,
      "וויות": 4483,
      "יים": 4484,
      "ביי": 4485,
      "מינ": 4486,
      "ישב": 4487,
      "מחוז": 4488,
      "מוצא": 4489,
      "win": 4490,
      "דריכ": 4491,
      "פסק": 4492,
      "צורת": 4493,
      "בימים": 4494,
      "בבק": 4495,
      "הנהג": 4496,
      "להציל": 4497,
      "עידן": 4498,
      "ולת": 4499,
      "##זרה": 4500,
      "בחזרה": 4501,
      "סכנה": 4502,
      "מנע": 4503,
      "לטפל": 4504,
      "נייד": 4505,
      "חכ": 4506,
      "לוצ": 4507,
      "מסקנ": 4508,
      "טובוס": 4509,
      "ונק": 4510,
      "הגיעה": 4511,
      "מותר": 4512,
      "רדו": 4513,
      "שקר": 4514,
      "ולם": 4515,
      "מחנה": 4516,
      "יהנות": 4517,
      "תגורר": 4518,
      "אכיל": 4519,
      "עונש": 4520,
      "גיא": 4521,
      "יוש": 4522,
      "עגל": 4523,
      "אלצ": 4524,
      "עשיתי": 4525,
      "גלגל": 4526,
      "וור": 4527,
      "מלה": 4528,
      "הרצ": 4529,
      "לעצ": 4530,
      "במזרח": 4531,
      "דרמ": 4532,
      "ציור": 4533,
      "נהלים": 4534,
      "דעתי": 4535,
      "גובות": 4536,
      "con": 4537,
      "יאו": 4538,
      "אום": 4539,
      "קיום": 4540,
      "עברה": 4541,
      "כלב": 4542,
      "ורט": 4543,
      "ובש": 4544,
      "לכולם": 4545,
      "מגדל": 4546,
      "נורא": 4547,
      "תקיימ": 4548,
      "טורקי": 4549,
      "תערוכ": 4550,
      "תכוונ": 4551,
      "הידע": 4552,
      "שהמ": 4553,
      "הקמת": 4554,
      "וכבים": 4555,
      "מזג": 4556,
      "מוצלח": 4557,
      "מחויב": 4558,
      "ייה": 4559,
      "ליב": 4560,
      "שואה": 4561,
      "סימן": 4562,
      "עלייה": 4563,
      "צעדים": 4564,
      "פלט": 4565,
      "בודד": 4566,
      "לוא": 4567,
      "צוע": 4568,
      "##ציה": 4569,
      "ותיה": 4570,
      "ולנוע": 4571,
      "ספים": 4572,
      "צרות": 4573,
      "רשתות": 4574,
      "ועדון": 4575,
      "אשתו": 4576,
      "הרה": 4577,
      "הפנים": 4578,
      "עשית": 4579,
      "קודש": 4580,
      "##art": 4581,
      "הקודמ": 4582,
      "גג": 4583,
      "הדם": 4584,
      "ביולי": 4585,
      "העלות": 4586,
      "מרץ": 4587,
      "נקים": 4588,
      "ואתה": 4589,
      "מדהים": 4590,
      "לופ": 4591,
      "ישיות": 4592,
      "וריו": 4593,
      "למשך": 4594,
      "בלה": 4595,
      "ניב": 4596,
      "פצ": 4597,
      "השאר": 4598,
      "ריסט": 4599,
      "מחלק": 4600,
      "ילות": 4601,
      "כשל": 4602,
      "עזב": 4603,
      "am": 4604,
      "ולנ": 4605,
      "הכר": 4606,
      "עדכ": 4607,
      "קיומ": 4608,
      "תאריך": 4609,
      "עשויה": 4610,
      "מובן": 4611,
      "להק": 4612,
      "מיועד": 4613,
      "רשם": 4614,
      "שומע": 4615,
      "חולה": 4616,
      "קדש": 4617,
      "מאחר": 4618,
      "דיפ": 4619,
      "דברי": 4620,
      "ושוב": 4621,
      "והר": 4622,
      "ייצר": 4623,
      "וכח": 4624,
      "הרגו": 4625,
      "אביו": 4626,
      "חובה": 4627,
      "סודות": 4628,
      "רם": 4629,
      "תיבה": 4630,
      "האלו": 4631,
      "הרס": 4632,
      "החי": 4633,
      "כתבה": 4634,
      "קנא": 4635,
      "לנהל": 4636,
      "מסחרי": 4637,
      "חיש": 4638,
      "הזוג": 4639,
      "הוכח": 4640,
      "web": 4641,
      "השקעה": 4642,
      "דים": 4643,
      "ונס": 4644,
      "חכמ": 4645,
      "צור": 4646,
      "שיא": 4647,
      "מיקום": 4648,
      "תפל": 4649,
      "צירתי": 4650,
      "קידום": 4651,
      "רה": 4652,
      "מלבד": 4653,
      "הדמ": 4654,
      "האישה": 4655,
      "האינט": 4656,
      "נושית": 4657,
      "אקו": 4658,
      "הצבאי": 4659,
      "בוה": 4660,
      "גדה": 4661,
      "רוכ": 4662,
      "לאה": 4663,
      "מתאר": 4664,
      "מחכ": 4665,
      "טובת": 4666,
      "הולנד": 4667,
      "וסיקה": 4668,
      "כחול": 4669,
      "יימס": 4670,
      "תגר": 4671,
      "##ge": 4672,
      "##ירים": 4673,
      "שאינו": 4674,
      "לבקש": 4675,
      "הקד": 4676,
      "לחיים": 4677,
      "הדו": 4678,
      "גביר": 4679,
      "תנד": 4680,
      "קדימה": 4681,
      "דגיש": 4682,
      "פגיעה": 4683,
      "##ודא": 4684,
      "האג": 4685,
      "שהת": 4686,
      "חשבו": 4687,
      "צער": 4688,
      "מוצרי": 4689,
      "תאונ": 4690,
      "ענו": 4691,
      "ייק": 4692,
      "דידות": 4693,
      "פשע": 4694,
      "פסיד": 4695,
      "זכרו": 4696,
      "הקדוש": 4697,
      "dow": 4698,
      "מיקר": 4699,
      "אמון": 4700,
      "פעמי": 4701,
      "בנייה": 4702,
      "זל": 4703,
      "מירה": 4704,
      "ברצ": 4705,
      "מקו": 4706,
      "מכון": 4707,
      "טיסה": 4708,
      "ביחס": 4709,
      "מיקרו": 4710,
      "ca": 4711,
      "גוסט": 4712,
      "טוח": 4713,
      "סומ": 4714,
      "היב": 4715,
      "שיטת": 4716,
      "מלך": 4717,
      "מלכה": 4718,
      "בניית": 4719,
      "יקח": 4720,
      "טרם": 4721,
      "עליכם": 4722,
      "אבט": 4723,
      "דירות": 4724,
      "להצי": 4725,
      "מתקדמ": 4726,
      "ספרד": 4727,
      "מטרים": 4728,
      "רעיני": 4729,
      "נגליה": 4730,
      "זיק": 4731,
      "להציג": 4732,
      "חכם": 4733,
      "לות": 4734,
      "עריכ": 4735,
      "שן": 4736,
      "מאת": 4737,
      "חשיבה": 4738,
      "וסט": 4739,
      "בחון": 4740,
      "רכש": 4741,
      "אינדי": 4742,
      "בקשה": 4743,
      "הכרה": 4744,
      "עריך": 4745,
      "להר": 4746,
      "תחל": 4747,
      "קיפ": 4748,
      "יבוד": 4749,
      "אסיר": 4750,
      "בכדי": 4751,
      "גיטלי": 4752,
      "us": 4753,
      "ופר": 4754,
      "הבדל": 4755,
      "ופק": 4756,
      "יאן": 4757,
      "יאורי": 4758,
      "תוכנה": 4759,
      "משיכה": 4760,
      "טקסט": 4761,
      "צטרפ": 4762,
      "חקר": 4763,
      "קח": 4764,
      "כזב": 4765,
      "הערכה": 4766,
      "גשר": 4767,
      "##un": 4768,
      "שיק": 4769,
      "הראות": 4770,
      "בעה": 4771,
      "לעצור": 4772,
      "ילדות": 4773,
      "שפות": 4774,
      "עיתונ": 4775,
      "טומטי": 4776,
      "אבטחה": 4777,
      "טש": 4778,
      "מם": 4779,
      "כלשהו": 4780,
      "התו": 4781,
      "ריטים": 4782,
      "ציוד": 4783,
      "בלעדי": 4784,
      "בּ": 4785,
      "קמ": 4786,
      "איון": 4787,
      "ייש": 4788,
      "לקו": 4789,
      "נגטון": 4790,
      "גופני": 4791,
      "במספר": 4792,
      "שוח": 4793,
      "ובליק": 4794,
      "ייפ": 4795,
      "מצבים": 4796,
      "ופעות": 4797,
      "אבן": 4798,
      "כנסי": 4799,
      "קריאה": 4800,
      "צודק": 4801,
      "תפלל": 4802,
      "בוהים": 4803,
      "לרכ": 4804,
      "מסביר": 4805,
      "וגד": 4806,
      "מיידי": 4807,
      "זנ": 4808,
      "קושי": 4809,
      "לאן": 4810,
      "אימפ": 4811,
      "ריג": 4812,
      "וואי": 4813,
      "לולה": 4814,
      "נדי": 4815,
      "סקי": 4816,
      "שלמת": 4817,
      "השקע": 4818,
      "ורמלי": 4819,
      "מעשה": 4820,
      "חזית": 4821,
      "יעשה": 4822,
      "אורח": 4823,
      "בדק": 4824,
      "דוקט": 4825,
      "רנק": 4826,
      "סכסו": 4827,
      "מנכ": 4828,
      "חטא": 4829,
      "he": 4830,
      "הצע": 4831,
      "מבטיח": 4832,
      "ממני": 4833,
      "בסך": 4834,
      "אהבת": 4835,
      "כיבוש": 4836,
      "pl": 4837,
      "טא": 4838,
      "יבר": 4839,
      "פליק": 4840,
      "שזו": 4841,
      "משח": 4842,
      "השקיע": 4843,
      "וקפ": 4844,
      "וקף": 4845,
      "עניק": 4846,
      "יתרון": 4847,
      "נוחות": 4848,
      "נוער": 4849,
      "60": 4850,
      "as": 4851,
      "sc": 4852,
      "אחים": 4853,
      "בחרו": 4854,
      "טנדר": 4855,
      "כשאני": 4856,
      "השלום": 4857,
      "למדת": 4858,
      "בשעה": 4859,
      "בלב": 4860,
      "קטע": 4861,
      "בדן": 4862,
      "תבצע": 4863,
      "דואר": 4864,
      "מום": 4865,
      "שישי": 4866,
      "ברג": 4867,
      "מחה": 4868,
      "תרופה": 4869,
      "אסטר": 4870,
      "אפשרת": 4871,
      "מטבח": 4872,
      "רומא": 4873,
      "ותיהם": 4874,
      "אתי": 4875,
      "ביצע": 4876,
      "כלול": 4877,
      "שישה": 4878,
      "הרים": 4879,
      "והפ": 4880,
      "יקול": 4881,
      "רשימת": 4882,
      "חוצה": 4883,
      "חודשי": 4884,
      "ייל": 4885,
      "פד": 4886,
      "צוג": 4887,
      "ישואי": 4888,
      "הקים": 4889,
      "ואב": 4890,
      "בתוכ": 4891,
      "אסר": 4892,
      "נסייה": 4893,
      "דמוי": 4894,
      "תנדב": 4895,
      "פגישה": 4896,
      "ישור": 4897,
      "ובילה": 4898,
      "בלנות": 4899,
      "יעיל": 4900,
      "סדרת": 4901,
      "כספי": 4902,
      "שואל": 4903,
      "יושב": 4904,
      "צום": 4905,
      "יבור": 4906,
      "פשוטה": 4907,
      "כנע": 4908,
      "עיתון": 4909,
      "פגנ": 4910,
      "לרכוש": 4911,
      "קום": 4912,
      "שלהן": 4913,
      "שפעת": 4914,
      "גרש": 4915,
      "יעוד": 4916,
      "וניינ": 4917,
      "לזהות": 4918,
      "לישית": 4919,
      "קחו": 4920,
      "מחבר": 4921,
      "הצד": 4922,
      "ופן": 4923,
      "בטחת": 4924,
      "נפט": 4925,
      "נקבע": 4926,
      "מושב": 4927,
      "קשרים": 4928,
      "שחרור": 4929,
      "וודאי": 4930,
      "זהה": 4931,
      "ביו": 4932,
      "ישומ": 4933,
      "רבן": 4934,
      "בגוף": 4935,
      "ודעת": 4936,
      "לילי": 4937,
      "ברוב": 4938,
      "תחנ": 4939,
      "וער": 4940,
      "ממשל": 4941,
      "פריז": 4942,
      "סופי": 4943,
      "חבורה": 4944,
      "בבקשה": 4945,
      "##לט": 4946,
      "שלים": 4947,
      "כיף": 4948,
      "וכי": 4949,
      "פייה": 4950,
      "שפע": 4951,
      "קלט": 4952,
      "לעזוב": 4953,
      "מחצית": 4954,
      "זינ": 4955,
      "ורר": 4956,
      "מפקד": 4957,
      "פרסמ": 4958,
      "רומנ": 4959,
      "הצוות": 4960,
      "דריך": 4961,
      "בשני": 4962,
      "לצורך": 4963,
      "##all": 4964,
      "קראו": 4965,
      "ברחוב": 4966,
      "רגשתי": 4967,
      "חמאס": 4968,
      "צאתי": 4969,
      "תור": 4970,
      "חייל": 4971,
      "אשראי": 4972,
      "קבלו": 4973,
      "גובה": 4974,
      "מתנה": 4975,
      "ייד": 4976,
      "לייצר": 4977,
      "גיב": 4978,
      "פוץ": 4979,
      "שוחר": 4980,
      "שמור": 4981,
      "במח": 4982,
      "ימור": 4983,
      "כניק": 4984,
      "וברת": 4985,
      "תיקון": 4986,
      "כזאת": 4987,
      "הצעה": 4988,
      "הלקוח": 4989,
      "ושך": 4990,
      "בסין": 4991,
      "מותג": 4992,
      "ip": 4993,
      "יאל": 4994,
      "נויות": 4995,
      "תמוך": 4996,
      "להשת": 4997,
      "ליג": 4998,
      "בעד": 4999,
      "תקל": 5000,
      "ינך": 5001,
      "תשע": 5002,
      "בגדים": 5003,
      "צפה": 5004,
      "מוקדמ": 5005,
      "וועדה": 5006,
      "אורגנ": 5007,
      "כפת": 5008,
      "בינה": 5009,
      "לקוח": 5010,
      "קצה": 5011,
      "תגבר": 5012,
      "להציע": 5013,
      "בהיסט": 5014,
      "ברו": 5015,
      "עמדה": 5016,
      "חלוקת": 5017,
      "גייס": 5018,
      "איתי": 5019,
      "לאתר": 5020,
      "משטר": 5021,
      "דינ": 5022,
      "ומץ": 5023,
      "וסק": 5024,
      "כנגד": 5025,
      "##and": 5026,
      "וטו": 5027,
      "נדל": 5028,
      "אנדר": 5029,
      "ברשת": 5030,
      "דיאל": 5031,
      "מקובל": 5032,
      "נשמה": 5033,
      "צפונ": 5034,
      "הצלח": 5035,
      "תזונה": 5036,
      "כון": 5037,
      "עילה": 5038,
      "איס": 5039,
      "שיחות": 5040,
      "לכו": 5041,
      "סיכו": 5042,
      "רשמי": 5043,
      "ואיד": 5044,
      "שכנע": 5045,
      "טנדרט": 5046,
      "ri": 5047,
      "אשה": 5048,
      "נחה": 5049,
      "כולה": 5050,
      "תחנת": 5051,
      "חקירה": 5052,
      "לץ": 5053,
      "לומות": 5054,
      "התקפ": 5055,
      "וזרים": 5056,
      "איום": 5057,
      "אינס": 5058,
      "ליטים": 5059,
      "אללה": 5060,
      "יישב": 5061,
      "ומנ": 5062,
      "רחבה": 5063,
      "השתתף": 5064,
      "ודעה": 5065,
      "קראי": 5066,
      "שקפ": 5067,
      "יחסית": 5068,
      "לולים": 5069,
      "גליים": 5070,
      "בץ": 5071,
      "גנים": 5072,
      "פגע": 5073,
      "צירה": 5074,
      "##ירי": 5075,
      "האה": 5076,
      "ישנה": 5077,
      "הבאות": 5078,
      "שנתי": 5079,
      "int": 5080,
      "מוסלמ": 5081,
      "סמכים": 5082,
      "טיחות": 5083,
      "שליח": 5084,
      "חדות": 5085,
      "ציינ": 5086,
      "תנחל": 5087,
      "לפתור": 5088,
      "פגוע": 5089,
      "האהבה": 5090,
      "מפר": 5091,
      "##gl": 5092,
      "לאט": 5093,
      "ולן": 5094,
      "מחזור": 5095,
      "רגן": 5096,
      "ופעה": 5097,
      "עשתה": 5098,
      "חולק": 5099,
      "צמאות": 5100,
      "מייצג": 5101,
      "17": 5102,
      "הורה": 5103,
      "ומדת": 5104,
      "חווה": 5105,
      "רשמ": 5106,
      "החזק": 5107,
      "תגרים": 5108,
      "סגר": 5109,
      "בעלת": 5110,
      "הכין": 5111,
      "נעצר": 5112,
      "לישון": 5113,
      "טוענ": 5114,
      "לציין": 5115,
      "תחלתי": 5116,
      "שוחרר": 5117,
      "נטי": 5118,
      "צומ": 5119,
      "ירום": 5120,
      "מבחן": 5121,
      "תכוון": 5122,
      "עילים": 5123,
      "אלינו": 5124,
      "למידה": 5125,
      "מדהימ": 5126,
      "חומים": 5127,
      "ממשיכ": 5128,
      "do": 5129,
      "sa": 5130,
      "סיה": 5131,
      "פנה": 5132,
      "ישיים": 5133,
      "הערב": 5134,
      "יימות": 5135,
      "חלקם": 5136,
      "השתתפ": 5137,
      "תמקד": 5138,
      "הרגיל": 5139,
      "דענים": 5140,
      "הרשמי": 5141,
      "טכני": 5142,
      "יוט": 5143,
      "ליסטי": 5144,
      "חידות": 5145,
      "רקו": 5146,
      "לשתף": 5147,
      "לקבוע": 5148,
      "חזיר": 5149,
      "סמכות": 5150,
      "יגה": 5151,
      "בטוחה": 5152,
      "איים": 5153,
      "הראש": 5154,
      "מסביב": 5155,
      "למכור": 5156,
      "שמן": 5157,
      "וגדר": 5158,
      "יסר": 5159,
      "רחבי": 5160,
      "השתנ": 5161,
      "גברת": 5162,
      "יזון": 5163,
      "גלובל": 5164,
      "תניהו": 5165,
      "תרגום": 5166,
      "וץ": 5167,
      "מורים": 5168,
      "סתיים": 5169,
      "צצ": 5170,
      "##סס": 5171,
      "ורחים": 5172,
      "אמונ": 5173,
      "אפקט": 5174,
      "ינק": 5175,
      "תערב": 5176,
      "החלט": 5177,
      "דגים": 5178,
      "קילו": 5179,
      "שיבה": 5180,
      "מידי": 5181,
      "הסדר": 5182,
      "ינוס": 5183,
      "תבסס": 5184,
      "מניות": 5185,
      "בוס": 5186,
      "הודה": 5187,
      "וכר": 5188,
      "פיד": 5189,
      "הלך": 5190,
      "דרומ": 5191,
      "תקיפ": 5192,
      "שגריר": 5193,
      "מימון": 5194,
      "ועצת": 5195,
      "מגע": 5196,
      "אתרי": 5197,
      "תחבר": 5198,
      "ההש": 5199,
      "רכיב": 5200,
      "cro": 5201,
      "וחק": 5202,
      "ליך": 5203,
      "פרנס": 5204,
      "אזורי": 5205,
      "וגן": 5206,
      "קנדה": 5207,
      "תכנן": 5208,
      "קשים": 5209,
      "ולק": 5210,
      "עביר": 5211,
      "הכריז": 5212,
      "רצוי": 5213,
      "משתנה": 5214,
      "שעברה": 5215,
      "גילוי": 5216,
      "אהבתי": 5217,
      "לוחמ": 5218,
      "צוינ": 5219,
      "יראק": 5220,
      "יוס": 5221,
      "##ul": 5222,
      "שיחק": 5223,
      "מינית": 5224,
      "והה": 5225,
      "ספרות": 5226,
      "שומן": 5227,
      "נובע": 5228,
      "בדרום": 5229,
      "googl": 5230,
      "fi": 5231,
      "ge": 5232,
      "חשמלי": 5233,
      "מכם": 5234,
      "וסמ": 5235,
      "בפועל": 5236,
      "אצבע": 5237,
      "100": 5238,
      "משחקי": 5239,
      "יצול": 5240,
      "ממשיך": 5241,
      "הריים": 5242,
      "מונע": 5243,
      "ni": 5244,
      "חא": 5245,
      "##ba": 5246,
      "גיעה": 5247,
      "ינני": 5248,
      "מזו": 5249,
      "שובות": 5250,
      "קצרה": 5251,
      "וברים": 5252,
      "הגבוה": 5253,
      "ופה": 5254,
      "רחיב": 5255,
      "פסיכ": 5256,
      "במשחק": 5257,
      "oo": 5258,
      "פילה": 5259,
      "המק": 5260,
      "והא": 5261,
      "ba": 5262,
      "רני": 5263,
      "להן": 5264,
      "אופי": 5265,
      "מאי": 5266,
      "ולפ": 5267,
      "מכונה": 5268,
      "רגשי": 5269,
      "אבר": 5270,
      "דרי": 5271,
      "הון": 5272,
      "צמצ": 5273,
      "להב": 5274,
      "פרה": 5275,
      "וגיות": 5276,
      "נשלח": 5277,
      "פופ": 5278,
      "הרוסי": 5279,
      "חיד": 5280,
      "נייה": 5281,
      "הזכות": 5282,
      "גרי": 5283,
      "יסד": 5284,
      "זכו": 5285,
      "שוויו": 5286,
      "ia": 5287,
      "שלכ": 5288,
      "ארט": 5289,
      "העור": 5290,
      "בחלק": 5291,
      "חזקה": 5292,
      "הלווא": 5293,
      "גיבור": 5294,
      "דת": 5295,
      "שאלו": 5296,
      "מחסו": 5297,
      "נומ": 5298,
      "גינ": 5299,
      "אשמ": 5300,
      "דגל": 5301,
      "טים": 5302,
      "ימד": 5303,
      "עשים": 5304,
      "פוצ": 5305,
      "##הר": 5306,
      "מינים": 5307,
      "עצים": 5308,
      "בלו": 5309,
      "נפגש": 5310,
      "מודע": 5311,
      "ובלים": 5312,
      "ללה": 5313,
      "רר": 5314,
      "שימש": 5315,
      "סימפ": 5316,
      "הצהר": 5317,
      "בועי": 5318,
      "ודיע": 5319,
      "צליחו": 5320,
      "כפול": 5321,
      "ללקוח": 5322,
      "יוון": 5323,
      "בבתי": 5324,
      "עתידי": 5325,
      "ווית": 5326,
      "מורת": 5327,
      "עמו": 5328,
      "המדע": 5329,
      "ולג": 5330,
      "הוו": 5331,
      "בנתי": 5332,
      "יזמ": 5333,
      "דן": 5334,
      "נוצ": 5335,
      "רנס": 5336,
      "איפ": 5337,
      "ניסי": 5338,
      "רקט": 5339,
      "תקפה": 5340,
      "ונצ": 5341,
      "יצה": 5342,
      "כניס": 5343,
      "סתר": 5344,
      "שים": 5345,
      "תית": 5346,
      "נפל": 5347,
      "בעיני": 5348,
      "התאמ": 5349,
      "mar": 5350,
      "אטה": 5351,
      "לאסי": 5352,
      "ורס": 5353,
      "פרד": 5354,
      "ממלי": 5355,
      "בוצע": 5356,
      "הפעיל": 5357,
      "da": 5358,
      "פנות": 5359,
      "רסה": 5360,
      "שלט": 5361,
      "יטול": 5362,
      "השראה": 5363,
      "גבל": 5364,
      "סוס": 5365,
      "עמים": 5366,
      "ליונ": 5367,
      "ורא": 5368,
      "עשור": 5369,
      "יתך": 5370,
      "גבול": 5371,
      "רחק": 5372,
      "הרשות": 5373,
      "ורנ": 5374,
      "טלק": 5375,
      "קדוש": 5376,
      "דמיו": 5377,
      "חזיק": 5378,
      "צאו": 5379,
      "ידיד": 5380,
      "פניו": 5381,
      "מוסד": 5382,
      "טין": 5383,
      "הוצא": 5384,
      "יפי": 5385,
      "סרב": 5386,
      "משקיע": 5387,
      "סינ": 5388,
      "ומדים": 5389,
      "בתא": 5390,
      "זרח": 5391,
      "וזמ": 5392,
      "בורג": 5393,
      "הארי": 5394,
      "שריר": 5395,
      "סכו": 5396,
      "ברא": 5397,
      "מבית": 5398,
      "שתנה": 5399,
      "טרון": 5400,
      "במחקר": 5401,
      "הות": 5402,
      "ברוח": 5403,
      "יתח": 5404,
      "זכיר": 5405,
      "נסו": 5406,
      "וויל": 5407,
      "יירים": 5408,
      "טוחים": 5409,
      "bo": 5410,
      "שוף": 5411,
      "האב": 5412,
      "מתכ": 5413,
      "ארק": 5414,
      "יסות": 5415,
      "שכונ": 5416,
      "הבלתי": 5417,
      "בות": 5418,
      "ערי": 5419,
      "למדי": 5420,
      "רקים": 5421,
      "ומצ": 5422,
      "ללים": 5423,
      "תחילו": 5424,
      "רכוש": 5425,
      "טענה": 5426,
      "וך": 5427,
      "ראנ": 5428,
      "הציע": 5429,
      "הכלב": 5430,
      "משיכו": 5431,
      "בצע": 5432,
      "וזרת": 5433,
      "לתה": 5434,
      "אוס": 5435,
      "##יבל": 5436,
      "ובע": 5437,
      "מרים": 5438,
      "שקיבל": 5439,
      "ותרת": 5440,
      "ig": 5441,
      "נרי": 5442,
      "לקט": 5443,
      "וסים": 5444,
      "יצור": 5445,
      "fa": 5446,
      "לאמי": 5447,
      "מעתי": 5448,
      "ובה": 5449,
      "ההר": 5450,
      "ימנים": 5451,
      "ביטחו": 5452,
      "נציג": 5453,
      "וטר": 5454,
      "יסוי": 5455,
      "קריא": 5456,
      "דמיי": 5457,
      "לעצמו": 5458,
      "ונים": 5459,
      "לפים": 5460,
      "הכרח": 5461,
      "דובר": 5462,
      "סתיר": 5463,
      "בוש": 5464,
      "לעבר": 5465,
      "תנגד": 5466,
      "##est": 5467,
      "דומים": 5468,
      "מפעיל": 5469,
      "דבק": 5470,
      "לויות": 5471,
      "עמיד": 5472,
      "תוס": 5473,
      "המל": 5474,
      "מתוק": 5475,
      "תיימ": 5476,
      "חוזה": 5477,
      "זונ": 5478,
      "נייר": 5479,
      "##...": 5480,
      "הבר": 5481,
      "ינים": 5482,
      "רגוני": 5483,
      "נער": 5484,
      "דני": 5485,
      "##ed": 5486,
      "ליק": 5487,
      "ליוני": 5488,
      "לבנו": 5489,
      "ואמר": 5490,
      "אפל": 5491,
      "רגנ": 5492,
      "לדא": 5493,
      "התקבל": 5494,
      "להו": 5495,
      "ביה": 5496,
      "שיט": 5497,
      "הרע": 5498,
      "נינו": 5499,
      "ומונ": 5500,
      "##ill": 5501,
      "שינו": 5502,
      "ברים": 5503,
      "יינו": 5504,
      "פיו": 5505,
      "יסטים": 5506,
      "ציפור": 5507,
      "חושת": 5508,
      "תאבד": 5509,
      "גבלות": 5510,
      "חלש": 5511,
      "עירו": 5512,
      "למצב": 5513,
      "ver": 5514,
      "ישות": 5515,
      "הרחב": 5516,
      "מסורת": 5517,
      "למות": 5518,
      "מתמ": 5519,
      "ובדת": 5520,
      "לכס": 5521,
      "צרו": 5522,
      "נוכח": 5523,
      "לוצי": 5524,
      "עירה": 5525,
      "קם": 5526,
      "שימה": 5527,
      "חובר": 5528,
      "יבוא": 5529,
      "סוכר": 5530,
      "כוב": 5531,
      "עג": 5532,
      "פלה": 5533,
      "פירות": 5534,
      "רגישה": 5535,
      "שור": 5536,
      "היד": 5537,
      "וגה": 5538,
      "האישי": 5539,
      "דרגה": 5540,
      "hi": 5541,
      "הליך": 5542,
      "רורה": 5543,
      "בינו": 5544,
      "שיפ": 5545,
      "קרות": 5546,
      "יטב": 5547,
      "טרק": 5548,
      "צאה": 5549,
      "שותף": 5550,
      "כינ": 5551,
      "מוט": 5552,
      "מכך": 5553,
      "ושע": 5554,
      "צות": 5555,
      "האש": 5556,
      "ירו": 5557,
      "סטרי": 5558,
      "רמי": 5559,
      "להח": 5560,
      "לידי": 5561,
      "אנא": 5562,
      "עצם": 5563,
      "ירק": 5564,
      "וגש": 5565,
      "מדד": 5566,
      "פריט": 5567,
      "צרכים": 5568,
      "יטי": 5569,
      "שלמה": 5570,
      "וסל": 5571,
      "tr": 5572,
      "וטי": 5573,
      "הממש": 5574,
      "הנס": 5575,
      "מרק": 5576,
      "עולמ": 5577,
      "הממשל": 5578,
      "יול": 5579,
      "כנה": 5580,
      "לנט": 5581,
      "תון": 5582,
      "באה": 5583,
      "לוודא": 5584,
      "שימות": 5585,
      "כרחי": 5586,
      "מיע": 5587,
      "והל": 5588,
      "יכם": 5589,
      "דיכ": 5590,
      "##ome": 5591,
      "מפרט": 5592,
      "פצע": 5593,
      "צוב": 5594,
      "הפרטי": 5595,
      "הגיש": 5596,
      "רת": 5597,
      "ופנה": 5598,
      "גיש": 5599,
      "בסרט": 5600,
      "החלטת": 5601,
      "וגי": 5602,
      "סוציא": 5603,
      "קפ": 5604,
      "זהר": 5605,
      "שאיר": 5606,
      "מכס": 5607,
      "ידות": 5608,
      "נהיג": 5609,
      "##ard": 5610,
      "זרחי": 5611,
      "לבל": 5612,
      "רוש": 5613,
      "ראיות": 5614,
      "יווני": 5615,
      "וקים": 5616,
      "ev": 5617,
      "ובין": 5618,
      "זע": 5619,
      "עוט": 5620,
      "תיב": 5621,
      "התג": 5622,
      "חין": 5623,
      "שליט": 5624,
      "בכיר": 5625,
      "רטון": 5626,
      "ie": 5627,
      "ment": 5628,
      "שוד": 5629,
      "לבש": 5630,
      "יינים": 5631,
      "קינ": 5632,
      "ונא": 5633,
      "שתמשו": 5634,
      "עמדת": 5635,
      "וקי": 5636,
      "ערכת": 5637,
      "קוק": 5638,
      "רכה": 5639,
      "וציא": 5640,
      "נון": 5641,
      "ותינו": 5642,
      "המרכ": 5643,
      "ובנ": 5644,
      "הירה": 5645,
      "שגת": 5646,
      "חומרי": 5647,
      "המרכז": 5648,
      "גשת": 5649,
      "דעות": 5650,
      "##ue": 5651,
      "מלט": 5652,
      "יטו": 5653,
      "המספר": 5654,
      "נועד": 5655,
      "נישוא": 5656,
      "זם": 5657,
      "פלו": 5658,
      "ליצ": 5659,
      "הגיב": 5660,
      "עדות": 5661,
      "ועדת": 5662,
      "וצרת": 5663,
      "ועיל": 5664,
      "שתות": 5665,
      "צפו": 5666,
      "הכולל": 5667,
      "dows": 5668,
      "קונים": 5669,
      "באים": 5670,
      "והג": 5671,
      "מתק": 5672,
      "ורת": 5673,
      "הסיר": 5674,
      "ילים": 5675,
      "הווה": 5676,
      "הופע": 5677,
      "חזרו": 5678,
      "פקוד": 5679,
      "חילו": 5680,
      "מוני": 5681,
      "מלמד": 5682,
      "פעול": 5683,
      "שפת": 5684,
      "ציפי": 5685,
      "בטים": 5686,
      "[...": 5687,
      "אורך": 5688,
      "סלו": 5689,
      "##ma": 5690,
      "להכ": 5691,
      "וגו": 5692,
      "תיאור": 5693,
      "יולוג": 5694,
      "וטה": 5695,
      "##ניס": 5696,
      "ניסה": 5697,
      "הכניס": 5698,
      "יתכן": 5699,
      "וקש": 5700,
      "עמדו": 5701,
      "[...]": 5702,
      "גני": 5703,
      "כב": 5704,
      "סובל": 5705,
      "פנ": 5706,
      "נייני": 5707,
      "בשטח": 5708,
      "ייעו": 5709,
      "ואן": 5710,
      "ספרדי": 5711,
      "19": 5712,
      "שיב": 5713,
      "יסא": 5714,
      "בחו": 5715,
      "נשא": 5716,
      "אשם": 5717,
      "טחים": 5718,
      "אוטו": 5719,
      "דיי": 5720,
      "יסון": 5721,
      "אונ": 5722,
      "הדר": 5723,
      "רף": 5724,
      "ופיה": 5725,
      "רמונ": 5726,
      "my": 5727,
      "ביר": 5728,
      "בספר": 5729,
      "עתיק": 5730,
      "לילד": 5731,
      "21": 5732,
      "גדר": 5733,
      "גנת": 5734,
      "סה": 5735,
      "קבר": 5736,
      "אוקי": 5737,
      "ניע": 5738,
      "הדת": 5739,
      "ציע": 5740,
      "רסיט": 5741,
      "מוחלט": 5742,
      "פקד": 5743,
      "ביד": 5744,
      "העס": 5745,
      "ציעה": 5746,
      "##fi": 5747,
      "ירב": 5748,
      "סקת": 5749,
      "העסקי": 5750,
      "אורי": 5751,
      "תביע": 5752,
      "ישיר": 5753,
      "##ing": 5754,
      "כתבו": 5755,
      "בדבר": 5756,
      "וטים": 5757,
      "כוז": 5758,
      "המנ": 5759,
      "מיש": 5760,
      "נין": 5761,
      "תרח": 5762,
      "עברת": 5763,
      "ac": 5764,
      "ha": 5765,
      "הוב": 5766,
      "וואר": 5767,
      "כונה": 5768,
      "הפא": 5769,
      "הלכ": 5770,
      "ערכו": 5771,
      "וסיפ": 5772,
      "דפס": 5773,
      "יאת": 5774,
      "ענות": 5775,
      "מינו": 5776,
      "שון": 5777,
      "##ke": 5778,
      "ולות": 5779,
      "בשתי": 5780,
      "יתם": 5781,
      "רגול": 5782,
      "בדים": 5783,
      "מצביע": 5784,
      "קרים": 5785,
      "יפנ": 5786,
      "יגוד": 5787,
      "רשה": 5788,
      "אומנ": 5789,
      "ריאל": 5790,
      "כרת": 5791,
      "רשימ": 5792,
      "ook": 5793,
      "nce": 5794,
      "ויל": 5795,
      "מאמצ": 5796,
      "התכ": 5797,
      "סיני": 5798,
      "הצג": 5799,
      "ומק": 5800,
      "כתבי": 5801,
      "קווי": 5802,
      "תרחש": 5803,
      "נמי": 5804,
      "והנ": 5805,
      "מקרי": 5806,
      "פריי": 5807,
      "הפיזי": 5808,
      "go": 5809,
      "וונ": 5810,
      "ידר": 5811,
      "לרי": 5812,
      "מונה": 5813,
      "עודי": 5814,
      "out": 5815,
      "חוט": 5816,
      "אומה": 5817,
      "שיג": 5818,
      "נעים": 5819,
      "מופע": 5820,
      "רסים": 5821,
      "פילוס": 5822,
      "דוני": 5823,
      "זור": 5824,
      "ריכה": 5825,
      "ורשת": 5826,
      "וביל": 5827,
      "קיימ": 5828,
      "כיל": 5829,
      "כנים": 5830,
      "לאל": 5831,
      "שיים": 5832,
      "מלכת": 5833,
      "##ort": 5834,
      "sm": 5835,
      "בגר": 5836,
      "טפ": 5837,
      "משני": 5838,
      "בלות": 5839,
      "טרו": 5840,
      "יפוי": 5841,
      "קודמ": 5842,
      "ימושי": 5843,
      "נמוכ": 5844,
      "בייק": 5845,
      "הצעיר": 5846,
      "בורה": 5847,
      "דונ": 5848,
      "המז": 5849,
      "דרו": 5850,
      "רצי": 5851,
      "אפשרו": 5852,
      "פריד": 5853,
      "cl": 5854,
      "אלוה": 5855,
      "למדו": 5856,
      "מתג": 5857,
      "מתה": 5858,
      "להתח": 5859,
      "וויי": 5860,
      "70": 5861,
      "מפי": 5862,
      "פץ": 5863,
      "נינ": 5864,
      "הקל": 5865,
      "ואר": 5866,
      "בתו": 5867,
      "הביט": 5868,
      "בוי": 5869,
      "במו": 5870,
      "דס": 5871,
      "וזו": 5872,
      "קין": 5873,
      "ריטי": 5874,
      "מצוי": 5875,
      "מקדש": 5876,
      "פינ": 5877,
      "נהנ": 5878,
      "יקרו": 5879,
      "כוונת": 5880,
      "pa": 5881,
      "גורים": 5882,
      "שצ": 5883,
      "השיב": 5884,
      "והש": 5885,
      "וראות": 5886,
      "דיס": 5887,
      "חלקה": 5888,
      "רכו": 5889,
      "נתח": 5890,
      "מכלל": 5891,
      "הגבול": 5892,
      "ניסיו": 5893,
      "אמו": 5894,
      "ורני": 5895,
      "ספס": 5896,
      "הוג": 5897,
      "הרגש": 5898,
      "שאלת": 5899,
      "ורם": 5900,
      "חלו": 5901,
      "מבו": 5902,
      "ערבי": 5903,
      "וקב": 5904,
      "ליזם": 5905,
      "80": 5906,
      "vi": 5907,
      "לבי": 5908,
      "סוע": 5909,
      "צעת": 5910,
      "אנר": 5911,
      "ראק": 5912,
      "הציג": 5913,
      "ילר": 5914,
      "מרו": 5915,
      "ספרו": 5916,
      "עובדי": 5917,
      "וויד": 5918,
      "35": 5919,
      "יגיע": 5920,
      "תפר": 5921,
      "##ub": 5922,
      "לבנ": 5923,
      "וממ": 5924,
      "איננ": 5925,
      "bi": 5926,
      "טורי": 5927,
      "##va": 5928,
      "והי": 5929,
      "והב": 5930,
      "מבני": 5931,
      "וצב": 5932,
      "מוי": 5933,
      "נל": 5934,
      "שמיים": 5935,
      "דלה": 5936,
      "קות": 5937,
      "שף": 5938,
      "שאף": 5939,
      "לומד": 5940,
      "תימ": 5941,
      "קרו": 5942,
      "יקת": 5943,
      "לכלית": 5944,
      "נתוני": 5945,
      "לוב": 5946,
      "מהלך": 5947,
      "ובמ": 5948,
      "ומס": 5949,
      "רצינ": 5950,
      "החלל": 5951,
      "אכז": 5952,
      "וכרת": 5953,
      "צט": 5954,
      "עלת": 5955,
      "התר": 5956,
      "הרוס": 5957,
      "שתו": 5958,
      "pe": 5959,
      "ריא": 5960,
      "ריז": 5961,
      "ורן": 5962,
      "ומים": 5963,
      "יפול": 5964,
      "טעו": 5965,
      "חקיר": 5966,
      "אלוהי": 5967,
      "אמין": 5968,
      "יירה": 5969,
      "לורי": 5970,
      "עט": 5971,
      "ציב": 5972,
      "ולצ": 5973,
      "ברק": 5974,
      "דרל": 5975,
      "ועדה": 5976,
      "יחה": 5977,
      "שעל": 5978,
      "שולח": 5979,
      "נוצרי": 5980,
      "בודה": 5981,
      "זות": 5982,
      "תים": 5983,
      "פיט": 5984,
      "תאר": 5985,
      "התש": 5986,
      "ראי": 5987,
      "הצי": 5988,
      "תמח": 5989,
      "ותרו": 5990,
      "ive": 5991,
      "דרים": 5992,
      "רובה": 5993,
      "ציפ": 5994,
      "שכב": 5995,
      "רתי": 5996,
      "האנ": 5997,
      "מדיה": 5998,
      "ונט": 5999,
      "המלא": 6000,
      "שימו": 6001,
      "ראינ": 6002,
      "העת": 6003,
      "וקו": 6004,
      "קיבלו": 6005,
      "דיב": 6006,
      "ורמ": 6007,
      "כתיב": 6008,
      "חדשנ": 6009,
      "new": 6010,
      "22": 6011,
      "ועבר": 6012,
      "חשבים": 6013,
      "אנה": 6014,
      "בירו": 6015,
      "שירה": 6016,
      "וקל": 6017,
      "שרות": 6018,
      "נמצאו": 6019,
      "אמינו": 6020,
      "ודת": 6021,
      "יומ": 6022,
      "שיי": 6023,
      "חרר": 6024,
      "ght": 6025,
      "אדו": 6026,
      "דיה": 6027,
      "טמ": 6028,
      "סום": 6029,
      "רופ": 6030,
      "להע": 6031,
      "נוסע": 6032,
      "שס": 6033,
      "לימ": 6034,
      "תחשב": 6035,
      "בריו": 6036,
      "הביא": 6037,
      "כנסו": 6038,
      "תך": 6039,
      "##ld": 6040,
      "לאים": 6041,
      "ילמ": 6042,
      "וסד": 6043,
      "wi": 6044,
      "עה": 6045,
      "אמנים": 6046,
      "ופל": 6047,
      "lin": 6048,
      "דוי": 6049,
      "כנות": 6050,
      "כבות": 6051,
      "לים": 6052,
      "לית": 6053,
      "צג": 6054,
      "אחי": 6055,
      "ורף": 6056,
      "הבן": 6057,
      "שניה": 6058,
      "יסית": 6059,
      "רחים": 6060,
      "רוסי": 6061,
      "סטון": 6062,
      "טלפו": 6063,
      "ישיו": 6064,
      "son": 6065,
      "חולי": 6066,
      "הקה": 6067,
      "שחקני": 6068,
      "להסת": 6069,
      "הורי": 6070,
      "ליה": 6071,
      "סים": 6072,
      "פוק": 6073,
      "חיסו": 6074,
      "ומות": 6075,
      "יקל": 6076,
      "##ell": 6077,
      "חן": 6078,
      "##de": 6079,
      "ורמת": 6080,
      "ההפ": 6081,
      "שרק": 6082,
      "התחל": 6083,
      "הישג": 6084,
      "אמינ": 6085,
      "בורים": 6086,
      "בוחר": 6087,
      "גילה": 6088,
      "אחיו": 6089,
      "ורב": 6090,
      "סיימ": 6091,
      "לחוק": 6092,
      "לשתי": 6093,
      "משתנ": 6094,
      "חרת": 6095,
      "soft": 6096,
      "ly": 6097,
      "יכלו": 6098,
      "גוי": 6099,
      "מאפ": 6100,
      "ישנו": 6101,
      "לקת": 6102,
      "אביב": 6103,
      "##oun": 6104,
      "בחרת": 6105,
      "ight": 6106,
      "הבין": 6107,
      "ליחה": 6108,
      "חימ": 6109,
      "ריט": 6110,
      "יסת": 6111,
      "ימא": 6112,
      "ur": 6113,
      "יזר": 6114,
      "כשר": 6115,
      "ספיק": 6116,
      "והק": 6117,
      "רכז": 6118,
      "וזנ": 6119,
      "net": 6120,
      "קליט": 6121,
      "לינ": 6122,
      "ילת": 6123,
      "במק": 6124,
      "מכונ": 6125,
      "יווי": 6126,
      "יקס": 6127,
      "שרו": 6128,
      "אחריו": 6129,
      "סטט": 6130,
      "ריבו": 6131,
      "עוניי": 6132,
      "גלו": 6133,
      "לופי": 6134,
      "שבר": 6135,
      "תבר": 6136,
      "קרת": 6137,
      "פקו": 6138,
      "דוש": 6139,
      "פחת": 6140,
      "קלות": 6141,
      "כאל": 6142,
      "נהי": 6143,
      "90": 6144,
      "המוני": 6145,
      "ישו": 6146,
      "והח": 6147,
      "גע": 6148,
      "הקב": 6149,
      "לכה": 6150,
      "יעו": 6151,
      "זציה": 6152,
      "ליני": 6153,
      "ולרי": 6154,
      "מוזיק": 6155,
      "ירס": 6156,
      "ציד": 6157,
      "##our": 6158,
      "דות": 6159,
      "מנט": 6160,
      "רעות": 6161,
      "תגל": 6162,
      "##ליכ": 6163,
      "מייל": 6164,
      "ריון": 6165,
      "לשכ": 6166,
      "תהליכ": 6167,
      "ודק": 6168,
      "nd": 6169,
      "כוון": 6170,
      "##na": 6171,
      "מיק": 6172,
      "שליש": 6173,
      "ידיו": 6174,
      "יער": 6175,
      "דריש": 6176,
      "מהא": 6177,
      "וכנה": 6178,
      "וביי": 6179,
      "bl": 6180,
      "רול": 6181,
      "##ga": 6182,
      "אנט": 6183,
      "מקס": 6184,
      "טינ": 6185,
      "בחן": 6186,
      "להד": 6187,
      "מלכ": 6188,
      "ודאי": 6189,
      "יאנ": 6190,
      "ציאה": 6191,
      "23": 6192,
      "ab": 6193,
      "קע": 6194,
      "ותי": 6195,
      "הקול": 6196,
      "יפות": 6197,
      "חשבת": 6198,
      "דחו": 6199,
      "עמי": 6200,
      "המזרח": 6201,
      "מסכ": 6202,
      "הפסק": 6203,
      "יניו": 6204,
      "קבלה": 6205,
      "קת": 6206,
      "שוט": 6207,
      "ותית": 6208,
      "משע": 6209,
      "ולב": 6210,
      "ורח": 6211,
      "הבנת": 6212,
      "ובו": 6213,
      "לחת": 6214,
      "הנפש": 6215,
      "למידי": 6216,
      "נהרג": 6217,
      "וסלמי": 6218,
      "רשים": 6219,
      "מהנ": 6220,
      "לומט": 6221,
      "דקה": 6222,
      "מזרח": 6223,
      "סך": 6224,
      "תגי": 6225,
      "היוו": 6226,
      "יעורי": 6227,
      "ישא": 6228,
      "קיק": 6229,
      "נוחה": 6230,
      "סיקו": 6231,
      "צועים": 6232,
      "28": 6233,
      "day": 6234,
      "יאר": 6235,
      "פון": 6236,
      "אחור": 6237,
      "חיצ": 6238,
      "שנמצ": 6239,
      "ושכ": 6240,
      "יבוי": 6241,
      "ודא": 6242,
      "זיכר": 6243,
      "שנמצא": 6244,
      "נדו": 6245,
      "היצ": 6246,
      "אימו": 6247,
      "יסה": 6248,
      "פורו": 6249,
      "סביבת": 6250,
      "מחירי": 6251,
      "זיכרו": 6252,
      "כנת": 6253,
      "מהת": 6254,
      "##סיס": 6255,
      "הבסיס": 6256,
      "שמת": 6257,
      "וכב": 6258,
      "מהפכ": 6259,
      "ייתי": 6260,
      "ברות": 6261,
      "גרות": 6262,
      "עיית": 6263,
      "מגז": 6264,
      "all": 6265,
      "pr": 6266,
      "ry": 6267,
      "פדר": 6268,
      "האחר": 6269,
      "התאים": 6270,
      "ורכב": 6271,
      "מקוו": 6272,
      "ואלים": 6273,
      "חווי": 6274,
      "ערבית": 6275,
      "ion": 6276,
      "דעה": 6277,
      "אוט": 6278,
      "ורכ": 6279,
      "ינם": 6280,
      "מנהלי": 6281,
      "וטב": 6282,
      "צגת": 6283,
      "par": 6284,
      "רטו": 6285,
      "##fe": 6286,
      "ניסו": 6287,
      "טיס": 6288,
      "ימוד": 6289,
      "מנו": 6290,
      "נטו": 6291,
      "סוך": 6292,
      "ותם": 6293,
      "התב": 6294,
      "כין": 6295,
      "החבר": 6296,
      "מצפ": 6297,
      "פניה": 6298,
      "וכנות": 6299,
      "עקו": 6300,
      "36": 6301,
      "ser": 6302,
      "ננ": 6303,
      "מתע": 6304,
      "עבדו": 6305,
      "דיוק": 6306,
      "ילדי": 6307,
      "גרו": 6308,
      "צרכי": 6309,
      "רתו": 6310,
      "ימודי": 6311,
      "ss": 6312,
      "גיר": 6313,
      "זמנ": 6314,
      "ציו": 6315,
      "יוונ": 6316,
      "מוצע": 6317,
      "מוסר": 6318,
      "הפרס": 6319,
      "כנסה": 6320,
      "יקי": 6321,
      "נם": 6322,
      "##th": 6323,
      "בימי": 6324,
      "בעו": 6325,
      "נחש": 6326,
      "חובות": 6327,
      "27": 6328,
      "app": 6329,
      "gr": 6330,
      "וונים": 6331,
      "כירו": 6332,
      "ליט": 6333,
      "מאס": 6334,
      "ובד": 6335,
      "ינטר": 6336,
      "אבות": 6337,
      "נורמ": 6338,
      "המערב": 6339,
      "מבי": 6340,
      "צים": 6341,
      "רונות": 6342,
      "דרכי": 6343,
      "end": 6344,
      "45": 6345,
      "פיה": 6346,
      "ולדו": 6347,
      "פלסטי": 6348,
      "גלים": 6349,
      "ניצח": 6350,
      "יכוי": 6351,
      "עבוד": 6352,
      "לשיר": 6353,
      "ועדו": 6354,
      "הווי": 6355,
      "פלסט": 6356,
      "שורות": 6357,
      "המט": 6358,
      "ללו": 6359,
      "גרום": 6360,
      "שנא": 6361,
      "אספ": 6362,
      "חוקר": 6363,
      "כנן": 6364,
      "##int": 6365,
      "המשטר": 6366,
      "שקל": 6367,
      "אנגלי": 6368,
      "op": 6369,
      "up": 6370,
      "חירים": 6371,
      "יעות": 6372,
      "לונ": 6373,
      "נתה": 6374,
      "רגי": 6375,
      "רמן": 6376,
      "##ust": 6377,
      "הממ": 6378,
      "המנהל": 6379,
      "אמץ": 6380,
      "ופית": 6381,
      "כניות": 6382,
      "וסיף": 6383,
      "זמנו": 6384,
      "ble": 6385,
      "si": 6386,
      "גילו": 6387,
      "דלי": 6388,
      "תופ": 6389,
      "מקסי": 6390,
      "האפ": 6391,
      "שהב": 6392,
      "ריי": 6393,
      "קולות": 6394,
      "res": 6395,
      "רויות": 6396,
      "ליא": 6397,
      "ומם": 6398,
      "מלים": 6399,
      "אגר": 6400,
      "יולי": 6401,
      "קנו": 6402,
      "ולח": 6403,
      "לומים": 6404,
      "ברתי": 6405,
      "סיפ": 6406,
      "ילומ": 6407,
      "לכתי": 6408,
      "גרה": 6409,
      "צנ": 6410,
      "השו": 6411,
      "##ate": 6412,
      "בבר": 6413,
      "המקור": 6414,
      "כיפ": 6415,
      "רין": 6416,
      "ריכ": 6417,
      "תינ": 6418,
      "תיקה": 6419,
      "שמית": 6420,
      "פרצ": 6421,
      "קטור": 6422,
      "יקאי": 6423,
      "נטל": 6424,
      "by": 6425,
      "גנון": 6426,
      "פנית": 6427,
      "קסי": 6428,
      "לבים": 6429,
      "לחו": 6430,
      "קיצ": 6431,
      "qu": 6432,
      "טונ": 6433,
      "ריות": 6434,
      "האפשר": 6435,
      "מסור": 6436,
      "ורמו": 6437,
      "יסים": 6438,
      "נפשי": 6439,
      "עמדות": 6440,
      "התיי": 6441,
      "dis": 6442,
      "ועה": 6443,
      "חמים": 6444,
      "יונות": 6445,
      "צעות": 6446,
      "קמה": 6447,
      "כלת": 6448,
      "פרת": 6449,
      "הסט": 6450,
      "יבית": 6451,
      "תפיל": 6452,
      "tim": 6453,
      "גאה": 6454,
      "כמים": 6455,
      "כלית": 6456,
      "ובני": 6457,
      "הצט": 6458,
      "ילך": 6459,
      "יחת": 6460,
      "גלות": 6461,
      "ווא": 6462,
      "לטה": 6463,
      "אנס": 6464,
      "החו": 6465,
      "רגלי": 6466,
      "ופות": 6467,
      "ern": 6468,
      "הפרו": 6469,
      "דיעה": 6470,
      "יבו": 6471,
      "sta": 6472,
      "נהיגי": 6473,
      "col": 6474,
      "טוס": 6475,
      "מנות": 6476,
      "ריקה": 6477,
      "ייצג": 6478,
      "הכד": 6479,
      "רבו": 6480,
      "תגוב": 6481,
      "נתק": 6482,
      "uni": 6483,
      "בדות": 6484,
      "טול": 6485,
      "נופ": 6486,
      "ייקט": 6487,
      "פיים": 6488,
      "מבקר": 6489,
      "תחוש": 6490,
      "נהל": 6491,
      "ודדים": 6492,
      "ינטרס": 6493,
      "כית": 6494,
      "שקיע": 6495,
      "הקט": 6496,
      "שבח": 6497,
      "לדות": 6498,
      "נאצ": 6499,
      "26": 6500,
      "טימי": 6501,
      "הומו": 6502,
      "ציונ": 6503,
      "תכונ": 6504,
      "מומחי": 6505,
      "הכדור": 6506,
      "דדי": 6507,
      "יאה": 6508,
      "שפר": 6509,
      "האט": 6510,
      "ישון": 6511,
      "למת": 6512,
      "מתב": 6513,
      "מלכות": 6514,
      "בסביב": 6515,
      "id": 6516,
      "pre": 6517,
      "בוגר": 6518,
      "דוא": 6519,
      "ברלי": 6520,
      "מחז": 6521,
      "פעת": 6522,
      "יקאים": 6523,
      "הולי": 6524,
      "##pa": 6525,
      "והע": 6526,
      "טלנ": 6527,
      "air": 6528,
      "war": 6529,
      "בון": 6530,
      "לשה": 6531,
      "סף": 6532,
      "שעת": 6533,
      "##os": 6534,
      "##ec": 6535,
      "##vi": 6536,
      "האח": 6537,
      "שמעת": 6538,
      "כרה": 6539,
      "comm": 6540,
      "ומיים": 6541,
      "הורא": 6542,
      "צביע": 6543,
      "התל": 6544,
      "וכה": 6545,
      "בטחה": 6546,
      "רטיים": 6547,
      "##yp": 6548,
      "האמנ": 6549,
      "רבע": 6550,
      "שפעות": 6551,
      "קטיבי": 6552,
      "בקשת": 6553,
      "וחס": 6554,
      "נאצי": 6555,
      "חרד": 6556,
      "זבו": 6557,
      "ii": 6558,
      "דיל": 6559,
      "וחי": 6560,
      "סיבי": 6561,
      "פך": 6562,
      "רור": 6563,
      "היג": 6564,
      "משלו": 6565,
      "מיס": 6566,
      "##ועי": 6567,
      "סימ": 6568,
      "פרות": 6569,
      "ירועי": 6570,
      "יטור": 6571,
      "חמיש": 6572,
      "##ith": 6573,
      "המלצ": 6574,
      "mon": 6575,
      "יונים": 6576,
      "פקיד": 6577,
      "קוש": 6578,
      "ביעות": 6579,
      "חיו": 6580,
      "ייח": 6581,
      "אמרת": 6582,
      "בסס": 6583,
      "להתב": 6584,
      "play": 6585,
      "sy": 6586,
      "##ta": 6587,
      "מחים": 6588,
      "הצרכ": 6589,
      "ההג": 6590,
      "עכב": 6591,
      "ערכה": 6592,
      "תמיכ": 6593,
      "כירים": 6594,
      "צחי": 6595,
      "תנות": 6596,
      "ממך": 6597,
      "גידו": 6598,
      "הגרמנ": 6599,
      "im": 6600,
      "ונית": 6601,
      "המג": 6602,
      "חלטת": 6603,
      "תמכ": 6604,
      "ure": 6605,
      "wat": 6606,
      "אמה": 6607,
      "בפר": 6608,
      "גוג": 6609,
      "ודו": 6610,
      "כותר": 6611,
      "עים": 6612,
      "קנים": 6613,
      "החזר": 6614,
      "gra": 6615,
      "בדה": 6616,
      "חדים": 6617,
      "כונים": 6618,
      "פנימ": 6619,
      "טריו": 6620,
      "ואמ": 6621,
      "גרע": 6622,
      "tor": 6623,
      "גבי": 6624,
      "טס": 6625,
      "קדים": 6626,
      "##si": 6627,
      "שלטו": 6628,
      "ותיי": 6629,
      "החזיק": 6630,
      "תיכ": 6631,
      "בשת": 6632,
      "פתור": 6633,
      "שגים": 6634,
      "וודא": 6635,
      ").": 6636,
      "tra": 6637,
      "בילה": 6638,
      "נחת": 6639,
      "ברנ": 6640,
      "ויס": 6641,
      "מויות": 6642,
      "ניהם": 6643,
      "ורצ": 6644,
      "פינה": 6645,
      "מרצ": 6646,
      "אליי": 6647,
      "ערכי": 6648,
      "\".": 6649,
      "זד": 6650,
      "טופ": 6651,
      "רלי": 6652,
      "מעות": 6653,
      "יליא": 6654,
      "וצרו": 6655,
      "sk": 6656,
      "כרי": 6657,
      "##ובד": 6658,
      "ליטו": 6659,
      "ילוי": 6660,
      "וגוסט": 6661,
      "הליכי": 6662,
      "',": 6663,
      "est": 6664,
      "fr": 6665,
      "tic": 6666,
      "ממי": 6667,
      "רוני": 6668,
      "רומי": 6669,
      "תוק": 6670,
      "ניית": 6671,
      "עצה": 6672,
      "עצור": 6673,
      "חברו": 6674,
      "קלינ": 6675,
      "way": 6676,
      "גת": 6677,
      "קבי": 6678,
      "צינ": 6679,
      "עסקה": 6680,
      "הדרכ": 6681,
      "car": 6682,
      "פוח": 6683,
      "קאות": 6684,
      "אלים": 6685,
      "ואחרי": 6686,
      "ומבי": 6687,
      "חלפ": 6688,
      "גיעו": 6689,
      "רטיסי": 6690,
      "ושה": 6691,
      "זים": 6692,
      "זין": 6693,
      "חלה": 6694,
      "טות": 6695,
      "קן": 6696,
      "ותיות": 6697,
      "משמע": 6698,
      "ציי": 6699,
      "עורב": 6700,
      "il": 6701,
      "jo": 6702,
      "כים": 6703,
      "תונה": 6704,
      "שימת": 6705,
      "ברכ": 6706,
      "עצות": 6707,
      "מרה": 6708,
      "ted": 6709,
      "אדי": 6710,
      "צפי": 6711,
      "קירה": 6712,
      "איז": 6713,
      "ניפ": 6714,
      "ניים": 6715,
      "בקו": 6716,
      "יזציה": 6717,
      "מושל": 6718,
      "חתו": 6719,
      "רגישו": 6720,
      "סודי": 6721,
      "פקט": 6722,
      "##gi": 6723,
      "לאף": 6724,
      "מתל": 6725,
      "וראה": 6726,
      "ראשו": 6727,
      "שנח": 6728,
      "המסע": 6729,
      "מעוד": 6730,
      "ובא": 6731,
      "ומת": 6732,
      "תקני": 6733,
      "יחו": 6734,
      "נטלי": 6735,
      "צבעו": 6736,
      "[+": 6737,
      "בצי": 6738,
      "גיה": 6739,
      "עשות": 6740,
      "לאת": 6741,
      "אחות": 6742,
      "מצרי": 6743,
      "בכי": 6744,
      "כרות": 6745,
      "יאטר": 6746,
      "המיני": 6747,
      "צבו": 6748,
      "אגו": 6749,
      "מריקנ": 6750,
      "היבט": 6751,
      "[+]": 6752,
      "cr": 6753,
      "הונ": 6754,
      "שינ": 6755,
      "סיד": 6756,
      "ללות": 6757,
      "חסו": 6758,
      "cha": 6759,
      "מאמצי": 6760,
      "gen": 6761,
      "pal": 6762,
      "לאס": 6763,
      "רידה": 6764,
      "לחבר": 6765,
      "חשו": 6766,
      "בלא": 6767,
      "ספו": 6768,
      "##ree": 6769,
      "רווחי": 6770,
      "שתתפו": 6771,
      "תנהג": 6772,
      "הראו": 6773,
      "מתר": 6774,
      "ורשים": 6775,
      "לכות": 6776,
      "כשמ": 6777,
      "תשוב": 6778,
      "יאמ": 6779,
      "29": 6780,
      "ey": 6781,
      "בויות": 6782,
      "מתים": 6783,
      "ברה": 6784,
      "הגבר": 6785,
      "מלאי": 6786,
      "תלונ": 6787,
      "פוא": 6788,
      "כיח": 6789,
      "מחק": 6790,
      "ופו": 6791,
      "סכנ": 6792,
      "פלג": 6793,
      "gy": 6794,
      "pri": 6795,
      "סורי": 6796,
      "פגיע": 6797,
      "##co": 6798,
      "דיני": 6799,
      "כאבי": 6800,
      "##ore": 6801,
      "דקים": 6802,
      "art": 6803,
      "טוו": 6804,
      "נטה": 6805,
      "ושפ": 6806,
      "world": 6807,
      "iv": 6808,
      "ja": 6809,
      "טחון": 6810,
      "תמו": 6811,
      "שאו": 6812,
      "הבת": 6813,
      "ואה": 6814,
      "וסר": 6815,
      "כשנ": 6816,
      "כוחו": 6817,
      "בדוק": 6818,
      "500": 6819,
      "לוסופ": 6820,
      "חצו": 6821,
      "je": 6822,
      "ויר": 6823,
      "צופ": 6824,
      "##דיא": 6825,
      "אידיא": 6826,
      "האופ": 6827,
      "מתנ": 6828,
      "מוז": 6829,
      "שביל": 6830,
      "יחות": 6831,
      "אספק": 6832,
      "per": 6833,
      "נדה": 6834,
      "שורים": 6835,
      "שטו": 6836,
      "ורע": 6837,
      "ארנ": 6838,
      "ייחוד": 6839,
      "יצים": 6840,
      "הבו": 6841,
      "ובס": 6842,
      "פרים": 6843,
      "נגנ": 6844,
      "מלחמ": 6845,
      "fl": 6846,
      "mus": 6847,
      "פוג": 6848,
      "ליס": 6849,
      "שמעו": 6850,
      "ההו": 6851,
      "נסות": 6852,
      "הפרע": 6853,
      "שירי": 6854,
      "mac": 6855,
      "tal": 6856,
      "בטי": 6857,
      "דשות": 6858,
      "כיר": 6859,
      "נזי": 6860,
      "קני": 6861,
      "ליון": 6862,
      "ייז": 6863,
      "תעשי": 6864,
      "לגור": 6865,
      "לראש": 6866,
      "תאמ": 6867,
      "שעים": 6868,
      "##ood": 6869,
      "לדה": 6870,
      "פקה": 6871,
      "ואו": 6872,
      "ידיע": 6873,
      "ימוש": 6874,
      "צעו": 6875,
      "דקו": 6876,
      "offi": 6877,
      "גים": 6878,
      "יגר": 6879,
      "תול": 6880,
      "המד": 6881,
      "כיס": 6882,
      "ואחר": 6883,
      "אליס": 6884,
      "##ass": 6885,
      "גרעי": 6886,
      "גשים": 6887,
      "מיה": 6888,
      "ולמ": 6889,
      "דיו": 6890,
      "שקו": 6891,
      "מולד": 6892,
      "נטיי": 6893,
      "gi": 6894,
      "הלה": 6895,
      "מנים": 6896,
      "סות": 6897,
      "סני": 6898,
      "רדות": 6899,
      "תולי": 6900,
      "המתי": 6901,
      "שהח": 6902,
      "תיו": 6903,
      "פיפ": 6904,
      "קראת": 6905,
      "נבנ": 6906,
      "ינטו": 6907,
      "[-": 6908,
      "du": 6909,
      "ness": 6910,
      "כמי": 6911,
      "לוש": 6912,
      "עדים": 6913,
      "אתן": 6914,
      "השג": 6915,
      "לממש": 6916,
      "יכון": 6917,
      "לפו": 6918,
      "לחנ": 6919,
      "רכות": 6920,
      "יליונ": 6921,
      "[-]": 6922,
      "עות": 6923,
      "פונים": 6924,
      "שחי": 6925,
      "באש": 6926,
      "שהפ": 6927,
      "וחב": 6928,
      "סרטו": 6929,
      "ודיו": 6930,
      "מתקפ": 6931,
      "not": 6932,
      "ועת": 6933,
      "##יאו": 6934,
      "וחד": 6935,
      "טבעו": 6936,
      "post": 6937,
      "המציא": 6938,
      "הטי": 6939,
      "מון": 6940,
      "פונ": 6941,
      "להז": 6942,
      "לחמ": 6943,
      "ערת": 6944,
      "יטרי": 6945,
      "ינד": 6946,
      "גורמ": 6947,
      "זיקה": 6948,
      "תצט": 6949,
      "vers": 6950,
      "des": 6951,
      "home": 6952,
      "ופיע": 6953,
      "ליות": 6954,
      "ולוג": 6955,
      "והט": 6956,
      "תיח": 6957,
      "אפו": 6958,
      "חדרי": 6959,
      "##one": 6960,
      "רשו": 6961,
      "יראו": 6962,
      "תושב": 6963,
      "אנרגי": 6964,
      "ציוני": 6965,
      "חתם": 6966,
      "טוא": 6967,
      "ממו": 6968,
      "##ברס": 6969,
      "ולע": 6970,
      "אנד": 6971,
      "בעים": 6972,
      "הפיל": 6973,
      "ניברס": 6974,
      "כשיר": 6975,
      "ופש": 6976,
      "אנוש": 6977,
      "ימום": 6978,
      "מייד": 6979,
      "ti": 6980,
      "איל": 6981,
      "נאי": 6982,
      "נתר": 6983,
      "##di": 6984,
      "מאחור": 6985,
      "הרת": 6986,
      "ארכי": 6987,
      "מבטי": 6988,
      "תחז": 6989,
      "עזרת": 6990,
      "אלבו": 6991,
      "can": 6992,
      "pi": 6993,
      "טומי": 6994,
      "יוב": 6995,
      "סיל": 6996,
      "שות": 6997,
      "ליכ": 6998,
      "הבטיח": 6999,
      "פיס": 7000,
      "פיין": 7001,
      "שרד": 7002,
      "זרו": 7003,
      "שטחי": 7004,
      "love": 7005,
      "with": 7006,
      "הומ": 7007,
      "וירו": 7008,
      "כנו": 7009,
      "ריל": 7010,
      "##ci": 7011,
      "##ps": 7012,
      "ביק": 7013,
      "ריו": 7014,
      "ברט": 7015,
      "לוקי": 7016,
      "סקו": 7017,
      "גשו": 7018,
      "exp": 7019,
      "'.": 7020,
      "cb": 7021,
      "hot": 7022,
      "ian": 7023,
      "##mi": 7024,
      "##da": 7025,
      "המב": 7026,
      "ליכם": 7027,
      "הדג": 7028,
      "גרפי": 7029,
      "ספיר": 7030,
      "##ath": 7031,
      "עיניי": 7032,
      "32": 7033,
      "פן": 7034,
      "לחי": 7035,
      "גורמי": 7036,
      "אטי": 7037,
      "כע": 7038,
      "סס": 7039,
      "רית": 7040,
      "סימני": 7041,
      "במפ": 7042,
      "הציב": 7043,
      "בלים": 7044,
      "המשק": 7045,
      "gn": 7046,
      "מיל": 7047,
      "שהק": 7048,
      "יתנו": 7049,
      "ציגי": 7050,
      "יפו": 7051,
      "הודי": 7052,
      "ers": 7053,
      "תאם": 7054,
      "##ild": 7055,
      "יסטית": 7056,
      "וונת": 7057,
      "ימן": 7058,
      "קולי": 7059,
      "באת": 7060,
      "ישורי": 7061,
      "מסד": 7062,
      "ניא": 7063,
      "סימו": 7064,
      "בחיר": 7065,
      "לתק": 7066,
      "לצות": 7067,
      "נגלי": 7068,
      "זרת": 7069,
      "הוכיח": 7070,
      "כוכבי": 7071,
      "חה": 7072,
      "צאות": 7073,
      "רונ": 7074,
      "##טרו": 7075,
      "מוכ": 7076,
      "לבדו": 7077,
      "בהר": 7078,
      "life": 7079,
      "בילו": 7080,
      "סכם": 7081,
      "##פע": 7082,
      "היפ": 7083,
      "מונו": 7084,
      "תקפ": 7085,
      "act": 7086,
      "bu": 7087,
      "ci": 7088,
      "ופי": 7089,
      "חנה": 7090,
      "ריכת": 7091,
      "הכנ": 7092,
      "פשית": 7093,
      "שווא": 7094,
      "200": 7095,
      "התיא": 7096,
      "ההשפע": 7097,
      "ol": 7098,
      "זוק": 7099,
      "התפ": 7100,
      "והצ": 7101,
      "יימת": 7102,
      "ושלמ": 7103,
      "נסיב": 7104,
      "sw": 7105,
      "יוצ": 7106,
      "נתי": 7107,
      "שפיע": 7108,
      "מדת": 7109,
      "וקול": 7110,
      "רעו": 7111,
      "סטו": 7112,
      "חנ": 7113,
      "צלי": 7114,
      "##ca": 7115,
      "נוג": 7116,
      "ממד": 7117,
      "זרה": 7118,
      "ולהי": 7119,
      "צלחת": 7120,
      "31": 7121,
      "חפש": 7122,
      "ביעה": 7123,
      "מלו": 7124,
      "טענו": 7125,
      "צויי": 7126,
      ">>": 7127,
      "ho": 7128,
      "her": 7129,
      "בוכ": 7130,
      "משם": 7131,
      "והכ": 7132,
      "ואפ": 7133,
      "רוצי": 7134,
      "קטו": 7135,
      "boo": 7136,
      "eb": 7137,
      "gu": 7138,
      "hum": 7139,
      "בחנו": 7140,
      "דש": 7141,
      "לדת": 7142,
      "סיר": 7143,
      "באל": 7144,
      "ראת": 7145,
      "מתא": 7146,
      "יכנס": 7147,
      "מוך": 7148,
      "ומח": 7149,
      "יפיו": 7150,
      "תוספ": 7151,
      "bus": 7152,
      "הגי": 7153,
      "טאו": 7154,
      "נפי": 7155,
      "פנו": 7156,
      "קים": 7157,
      "שרי": 7158,
      "##gh": 7159,
      "איב": 7160,
      "האז": 7161,
      "ולס": 7162,
      "המתו": 7163,
      "אולוג": 7164,
      "יעת": 7165,
      "רים": 7166,
      "דיד": 7167,
      "קרון": 7168,
      "יצל": 7169,
      "סרת": 7170,
      "ies": 7171,
      "os": 7172,
      "ps": 7173,
      "sch": 7174,
      "דום": 7175,
      "חתה": 7176,
      "מדים": 7177,
      "##qu": 7178,
      "לאות": 7179,
      "ורטי": 7180,
      "ורטו": 7181,
      "וכמה": 7182,
      "יקט": 7183,
      "ence": 7184,
      "ולהת": 7185,
      "ap": 7186,
      "ww": 7187,
      "בדם": 7188,
      "ילה": 7189,
      "נסט": 7190,
      "ותח": 7191,
      "האק": 7192,
      "ישים": 7193,
      "לעי": 7194,
      "הגז": 7195,
      "רצות": 7196,
      "שבא": 7197,
      "יקים": 7198,
      "טרנט": 7199,
      "בגד": 7200,
      "אופטי": 7201,
      "וברי": 7202,
      "##ide": 7203,
      ":)": 7204,
      "cy": 7205,
      "קאר": 7206,
      "להיו": 7207,
      "מיצ": 7208,
      "פיג": 7209,
      "בבו": 7210,
      "רפיה": 7211,
      "מונת": 7212,
      "work": 7213,
      "serv": 7214,
      "דמת": 7215,
      "פליט": 7216,
      "שדר": 7217,
      "תנה": 7218,
      "הגעת": 7219,
      "פיינ": 7220,
      "ינר": 7221,
      "סגן": 7222,
      "וניות": 7223,
      "קונג": 7224,
      "ga": 7225,
      "ric": 7226,
      "הרמ": 7227,
      "וראי": 7228,
      "דיא": 7229,
      "טימ": 7230,
      "חדת": 7231,
      "וקד": 7232,
      "להתא": 7233,
      "רפו": 7234,
      "גמה": 7235,
      "דב": 7236,
      "דול": 7237,
      "ימו": 7238,
      "##ti": 7239,
      "##פרי": 7240,
      "הבטח": 7241,
      "וכש": 7242,
      "תלב": 7243,
      "חסות": 7244,
      "פסת": 7245,
      "סרטי": 7246,
      "לולי": 7247,
      "שז": 7248,
      "תיות": 7249,
      "##ff": 7250,
      "ותפ": 7251,
      "ולכ": 7252,
      "העובד": 7253,
      "סיס": 7254,
      "טינית": 7255,
      "יפור": 7256,
      "לנוע": 7257,
      "סטנ": 7258,
      "שקע": 7259,
      "עקבו": 7260,
      "48": 7261,
      "ka": 7262,
      "סיג": 7263,
      "פעילי": 7264,
      "יטנ": 7265,
      "בחינ": 7266,
      "##ite": 7267,
      "משאבי": 7268,
      "תזונ": 7269,
      "הפעל": 7270,
      "ec": 7271,
      "min": 7272,
      "וחות": 7273,
      "חיס": 7274,
      "הגל": 7275,
      "טיח": 7276,
      "קיו": 7277,
      "קיע": 7278,
      "סבור": 7279,
      "ביעי": 7280,
      "sec": 7281,
      "amer": 7282,
      "75": 7283,
      "met": 7284,
      "ny": 7285,
      "אוד": 7286,
      "גנו": 7287,
      "ינות": 7288,
      "כסי": 7289,
      "לטר": 7290,
      "לטת": 7291,
      "תרי": 7292,
      "הילה": 7293,
      "ישה": 7294,
      "והס": 7295,
      "ורל": 7296,
      "מעלי": 7297,
      "מרת": 7298,
      "ודיה": 7299,
      "דמו": 7300,
      "דלים": 7301,
      "רדים": 7302,
      "רכם": 7303,
      "ליטה": 7304,
      "ראן": 7305,
      "ארמ": 7306,
      "קרית": 7307,
      "טרס": 7308,
      "רכת": 7309,
      "אסלא": 7310,
      "ימונ": 7311,
      "מקומו": 7312,
      "der": 7313,
      "ial": 7314,
      "דד": 7315,
      "משל": 7316,
      "שמיר": 7317,
      "יהנו": 7318,
      "שפו": 7319,
      "watch": 7320,
      "גדות": 7321,
      "זני": 7322,
      "שהש": 7323,
      "הקפ": 7324,
      "וחנ": 7325,
      "aw": 7326,
      "fe": 7327,
      "אפי": 7328,
      "ונו": 7329,
      "טבח": 7330,
      "יורי": 7331,
      "יילי": 7332,
      "ננו": 7333,
      "אתו": 7334,
      "מהב": 7335,
      "שהע": 7336,
      "מחנ": 7337,
      "תקו": 7338,
      "מטוסי": 7339,
      "צדדי": 7340,
      "פקת": 7341,
      "סרו": 7342,
      "wa": 7343,
      "זוי": 7344,
      "שבי": 7345,
      "ומדי": 7346,
      "לחצ": 7347,
      "ילו": 7348,
      "יקו": 7349,
      "בגן": 7350,
      "red": 7351,
      "וזיאו": 7352,
      "ינת": 7353,
      "עתם": 7354,
      "תף": 7355,
      "ישת": 7356,
      "ניין": 7357,
      "הבה": 7358,
      "בניה": 7359,
      "ספקי": 7360,
      "שרים": 7361,
      "מטרי": 7362,
      "תוכנ": 7363,
      "cont": 7364,
      "hiv": 7365,
      "gre": 7366,
      "ll": 7367,
      "טוי": 7368,
      "לואי": 7369,
      "מיתי": 7370,
      "פגיש": 7371,
      "רנט": 7372,
      "##ea": 7373,
      "##xt": 7374,
      "ישל": 7375,
      "לבני": 7376,
      "הגנ": 7377,
      "ויקט": 7378,
      "##old": 7379,
      "sci": 7380,
      "קודה": 7381,
      "ותמ": 7382,
      "שהנ": 7383,
      "מצבי": 7384,
      "תפו": 7385,
      "נקו": 7386,
      "מייק": 7387,
      "קדמי": 7388,
      "human": 7389,
      "ir": 7390,
      "חמה": 7391,
      "##ep": 7392,
      "##bo": 7393,
      "האר": 7394,
      "לער": 7395,
      "שמוע": 7396,
      "כאי": 7397,
      "רצינו": 7398,
      "בגדי": 7399,
      "קדמו": 7400,
      "##ash": 7401,
      "time": 7402,
      "גיות": 7403,
      "געת": 7404,
      "הנית": 7405,
      "טיות": 7406,
      "קשרי": 7407,
      "לעם": 7408,
      "ובת": 7409,
      "ואש": 7410,
      "שתתף": 7411,
      "ושמ": 7412,
      "ושב": 7413,
      "וקט": 7414,
      "להתע": 7415,
      "בצר": 7416,
      "הפרט": 7417,
      "word": 7418,
      "ea": 7419,
      "fin": 7420,
      "va": 7421,
      "קוס": 7422,
      "תד": 7423,
      "##te": 7424,
      "ליים": 7425,
      "השיג": 7426,
      "גשתי": 7427,
      "if": 7428,
      "tw": 7429,
      "##me": 7430,
      "אוי": 7431,
      "השמ": 7432,
      "בתה": 7433,
      "שתפ": 7434,
      "מנם": 7435,
      "לרצ": 7436,
      "300": 7437,
      "mark": 7438,
      "##ound": 7439,
      "cent": 7440,
      "##bc": 7441,
      "בענ": 7442,
      "הגיר": 7443,
      "בלונ": 7444,
      "יפל": 7445,
      "אלימ": 7446,
      "טעי": 7447,
      "תמונ": 7448,
      "הטיפ": 7449,
      "ke": 7450,
      "זיר": 7451,
      "סמה": 7452,
      "קדו": 7453,
      "מספרי": 7454,
      "כרח": 7455,
      "וויה": 7456,
      "הסיכו": 7457,
      "עזוב": 7458,
      "עורכ": 7459,
      "ct": 7460,
      "ul": 7461,
      "דפי": 7462,
      "טח": 7463,
      "נאות": 7464,
      "צת": 7465,
      "##pn": 7466,
      "לאח": 7467,
      "שהס": 7468,
      "העמ": 7469,
      "יהי": 7470,
      "בלנ": 7471,
      "יטא": 7472,
      "מגן": 7473,
      "rch": 7474,
      "בקה": 7475,
      "כריז": 7476,
      "לור": 7477,
      "צוא": 7478,
      "##cc": 7479,
      "ביש": 7480,
      "מתוכ": 7481,
      "בלת": 7482,
      "וגנ": 7483,
      "נקב": 7484,
      "um": 7485,
      "הוק": 7486,
      "סמי": 7487,
      "קאי": 7488,
      "רפי": 7489,
      "בידו": 7490,
      "נימי": 7491,
      "שמא": 7492,
      "יבוש": 7493,
      "תפק": 7494,
      "נקצי": 7495,
      "##ank": 7496,
      "med": 7497,
      "33": 7498,
      "br": 7499,
      "bal": 7500,
      "ov": 7501,
      "תוח": 7502,
      "המלו": 7503,
      "מחקרי": 7504,
      "במז": 7505,
      "מקצ": 7506,
      "נושאי": 7507,
      "##ick": 7508,
      "book": 7509,
      "ber": 7510,
      "bro": 7511,
      "pol": 7512,
      "כשהו": 7513,
      "כינו": 7514,
      "סיון": 7515,
      "מוסיק": 7516,
      "מצו": 7517,
      "הגן": 7518,
      "חויב": 7519,
      "חוזי": 7520,
      "מגו": 7521,
      "חתונ": 7522,
      "מיתו": 7523,
      "ויה": 7524,
      "תיהם": 7525,
      "להנ": 7526,
      "אומי": 7527,
      "הפג": 7528,
      "מלצ": 7529,
      "הלת": 7530,
      "דרה": 7531,
      "וצות": 7532,
      "זרות": 7533,
      "בפנ": 7534,
      "וניה": 7535,
      "קדמ": 7536,
      "רוכים": 7537,
      "פופול": 7538,
      "are": 7539,
      "ut": 7540,
      "טאר": 7541,
      "נשי": 7542,
      "לאנ": 7543,
      "איג": 7544,
      "באור": 7545,
      "הפה": 7546,
      "נימ": 7547,
      "הספ": 7548,
      "יגו": 7549,
      "nge": 7550,
      "ass": 7551,
      "hotel": 7552,
      "fil": 7553,
      "land": 7554,
      "כף": 7555,
      "פלי": 7556,
      "ואנ": 7557,
      "בעצמ": 7558,
      "acc": 7559,
      "www": 7560,
      "aut": 7561,
      "אמרי": 7562,
      "בהק": 7563,
      "star": 7564,
      "נאס": 7565,
      "ותפים": 7566,
      "dy": 7567,
      "אֶ": 7568,
      "קלו": 7569,
      "##ss": 7570,
      "##mo": 7571,
      "והו": 7572,
      "לוני": 7573,
      "מעש": 7574,
      "העי": 7575,
      "ובן": 7576,
      "פרח": 7577,
      "פיעו": 7578,
      "כשירי": 7579,
      "גברי": 7580,
      "sun": 7581,
      "דיאט": 7582,
      "dr": 7583,
      "mba": 7584,
      "ינית": 7585,
      "קפי": 7586,
      "ותים": 7587,
      "אחרא": 7588,
      "ניקה": 7589,
      "העל": 7590,
      "יימי": 7591,
      "דיג": 7592,
      "הציל": 7593,
      "מקל": 7594,
      "הסו": 7595,
      "מדו": 7596,
      "שתנו": 7597,
      "ציג": 7598,
      "יריד": 7599,
      "צטרף": 7600,
      "don": 7601,
      "פוי": 7602,
      "ריר": 7603,
      "אימה": 7604,
      "חיילי": 7605,
      "הפצ": 7606,
      "ואח": 7607,
      "וגיה": 7608,
      "אדמה": 7609,
      "סגנו": 7610,
      "כריס": 7611,
      "bla": 7612,
      "קוו": 7613,
      "דורג": 7614,
      "מועדו": 7615,
      "וטנ": 7616,
      "לרע": 7617,
      "חותי": 7618,
      "65": 7619,
      "דלו": 7620,
      "באס": 7621,
      "התה": 7622,
      "מכור": 7623,
      "רצית": 7624,
      "להתג": 7625,
      "##are": 7626,
      "what": 7627,
      "ever": 7628,
      "pla": 7629,
      "בבי": 7630,
      "הוי": 7631,
      "פיות": 7632,
      "קשת": 7633,
      "הכיר": 7634,
      "יקון": 7635,
      "ודד": 7636,
      "ican": 7637,
      "צמיח": 7638,
      "ht": 7639,
      "sou": 7640,
      "בוג": 7641,
      "מנית": 7642,
      "רירי": 7643,
      "##pi": 7644,
      "שלפ": 7645,
      "היח": 7646,
      "המונ": 7647,
      "נוט": 7648,
      "מציא": 7649,
      "ירג": 7650,
      "ההנ": 7651,
      "יטת": 7652,
      "רחו": 7653,
      "רוו": 7654,
      "הרשמ": 7655,
      "ice": 7656,
      "גאו": 7657,
      "למו": 7658,
      "ומפ": 7659,
      "וספי": 7660,
      "קרובי": 7661,
      "יסל": 7662,
      "נחל": 7663,
      "150": 7664,
      "point": 7665,
      "34": 7666,
      "ib": 7667,
      "נוד": 7668,
      "לאב": 7669,
      "אוש": 7670,
      "ליבר": 7671,
      "אלן": 7672,
      "ההס": 7673,
      "##ame": 7674,
      "comp": 7675,
      "spa": 7676,
      "vpn": 7677,
      "ושות": 7678,
      "חזי": 7679,
      "ככ": 7680,
      "סלא": 7681,
      "##wn": 7682,
      "הירי": 7683,
      "ליו": 7684,
      "מינה": 7685,
      "הרבי": 7686,
      "לקטרו": 7687,
      "יוו": 7688,
      "גרים": 7689,
      "לטות": 7690,
      "העיקר": 7691,
      "hou": 7692,
      "pay": 7693,
      "מילו": 7694,
      "##ry": 7695,
      "המחו": 7696,
      "מהק": 7697,
      "משלה": 7698,
      "אלק": 7699,
      "הרו": 7700,
      "your": 7701,
      "bri": 7702,
      "cal": 7703,
      "ot": 7704,
      "ya": 7705,
      "בוט": 7706,
      "גירו": 7707,
      "יפר": 7708,
      "לשי": 7709,
      "מהש": 7710,
      "לכים": 7711,
      "וסס": 7712,
      "בבת": 7713,
      "יקלי": 7714,
      "עצמית": 7715,
      "ימני": 7716,
      "מטרו": 7717,
      "shi": 7718,
      "ard": 7719,
      "כנסיי": 7720,
      "tran": 7721,
      "ייחס": 7722,
      "מתרג": 7723,
      "55": 7724,
      "bil": 7725,
      "port": 7726,
      "ננים": 7727,
      "משכו": 7728,
      "אנגל": 7729,
      "לחיי": 7730,
      "ילנ": 7731,
      "קיש": 7732,
      "הטע": 7733,
      "##ant": 7734,
      "מנצ": 7735,
      "הולדת": 7736,
      "בדף": 7737,
      "לטון": 7738,
      "##itt": 7739,
      "ess": 7740,
      "סוצ": 7741,
      "קץ": 7742,
      "הית": 7743,
      "התמו": 7744,
      "והד": 7745,
      "לכי": 7746,
      "inc": 7747,
      "פורנ": 7748,
      "נעל": 7749,
      "37": 7750,
      "get": 7751,
      "nic": 7752,
      "nba": 7753,
      "part": 7754,
      "דגש": 7755,
      "הקצ": 7756,
      "ההכ": 7757,
      "ai": 7758,
      "glo": 7759,
      "har": 7760,
      "ora": 7761,
      "ple": 7762,
      "rol": 7763,
      "יזה": 7764,
      "שוכ": 7765,
      "##משי": 7766,
      "מרג": 7767,
      "שתמשי": 7768,
      "rep": 7769,
      "נדון": 7770,
      "next": 7771,
      "הבעל": 7772,
      "cre": 7773,
      "free": 7774,
      "סבר": 7775,
      "קנית": 7776,
      "תכם": 7777,
      "##ph": 7778,
      "משלת": 7779,
      "ליסט": 7780,
      "ומב": 7781,
      "בטו": 7782,
      "יניות": 7783,
      "ינוק": 7784,
      "גה": 7785,
      "תאימ": 7786,
      "לוות": 7787,
      "לחש": 7788,
      "ללית": 7789,
      "רכיבי": 7790,
      "יריי": 7791,
      "sea": 7792,
      "park": 7793,
      "bit": 7794,
      "kn": 7795,
      "טפו": 7796,
      "לני": 7797,
      "קטי": 7798,
      "משנה": 7799,
      "ריאה": 7800,
      "ורדי": 7801,
      "מעונ": 7802,
      "ארו": 7803,
      "הער": 7804,
      "מכו": 7805,
      "קרוב": 7806,
      "בוו": 7807,
      "ine": 7808,
      "stu": 7809,
      "##ata": 7810,
      "##att": 7811,
      "כספ": 7812,
      "arch": 7813,
      "busi": 7814,
      "bur": 7815,
      "חית": 7816,
      "טופל": 7817,
      "סטינ": 7818,
      "ביכול": 7819,
      "שהה": 7820,
      "שהכ": 7821,
      "למק": 7822,
      "ורשי": 7823,
      "ומל": 7824,
      "ומני": 7825,
      "כרו": 7826,
      "לדוג": 7827,
      "יזו": 7828,
      "חקו": 7829,
      "סנד": 7830,
      "לעצמ": 7831,
      "השווא": 7832,
      "38": 7833,
      "eu": 7834,
      "mal": 7835,
      "לטו": 7836,
      "נמ": 7837,
      "ריהם": 7838,
      "לאר": 7839,
      "לבט": 7840,
      "וסו": 7841,
      "קרט": 7842,
      "גרת": 7843,
      "בוודא": 7844,
      "טרה": 7845,
      "יליו": 7846,
      "בדיו": 7847,
      "ליפו": 7848,
      "sha": 7849,
      "live": 7850,
      "ko": 7851,
      "##ha": 7852,
      "##hn": 7853,
      "מהע": 7854,
      "למנ": 7855,
      "העץ": 7856,
      "הקומ": 7857,
      "שבמ": 7858,
      "טרנ": 7859,
      "צרה": 7860,
      "##ory": 7861,
      "שעי": 7862,
      "itu": 7863,
      "ושבת": 7864,
      "42": 7865,
      "cri": 7866,
      "lon": 7867,
      "olo": 7868,
      "tri": 7869,
      "vo": 7870,
      "דוב": 7871,
      "דורי": 7872,
      "לטי": 7873,
      "##bi": 7874,
      "שלמו": 7875,
      "מהג": 7876,
      "יהל": 7877,
      "מצאי": 7878,
      "הסל": 7879,
      "הספר": 7880,
      "ושג": 7881,
      "יקור": 7882,
      "נגדו": 7883,
      "מטע": 7884,
      "צרת": 7885,
      "##ine": 7886,
      "טריי": 7887,
      "chi": 7888,
      "בצעי": 7889,
      "sol": 7890,
      "לום": 7891,
      "פרא": 7892,
      "לוו": 7893,
      "מתפ": 7894,
      "ומית": 7895,
      "מכה": 7896,
      "וצל": 7897,
      "קרטי": 7898,
      "רובי": 7899,
      "sup": 7900,
      "au": 7901,
      "cd": 7902,
      "dri": 7903,
      "dna": 7904,
      "ki": 7905,
      "nc": 7906,
      "אסי": 7907,
      "גזי": 7908,
      "סבי": 7909,
      "אימ": 7910,
      "מהח": 7911,
      "ניז": 7912,
      "מקומ": 7913,
      "הסמ": 7914,
      "פייני": 7915,
      "ופת": 7916,
      "נגו": 7917,
      "אינטר": 7918,
      "להצט": 7919,
      "tech": 7920,
      "nta": 7921,
      "ריכים": 7922,
      "##ype": 7923,
      "from": 7924,
      "del": 7925,
      "יוג": 7926,
      "ששת": 7927,
      "יידי": 7928,
      "ונאים": 7929,
      "שתף": 7930,
      "יאט": 7931,
      "##oup": 7932,
      "טיביו": 7933,
      "##ount": 7934,
      "cia": 7935,
      "ner": 7936,
      "tes": 7937,
      "tub": 7938,
      "בדל": 7939,
      "טוק": 7940,
      "לבר": 7941,
      "נגר": 7942,
      "עורי": 7943,
      "פוז": 7944,
      "שלג": 7945,
      "אותנ": 7946,
      "שאפ": 7947,
      "בעות": 7948,
      "הוועד": 7949,
      "inst": 7950,
      "##ous": 7951,
      "##לחמ": 7952,
      "לוגית": 7953,
      "ינויי": 7954,
      "קניו": 7955,
      "av": 7956,
      "cor": 7957,
      "hol": 7958,
      "ms": 7959,
      "ומש": 7960,
      "חים": 7961,
      "לגי": 7962,
      "נלי": 7963,
      "ישהו": 7964,
      "חיוב": 7965,
      "הפנ": 7966,
      "סיקה": 7967,
      "סיפו": 7968,
      "שמנ": 7969,
      "יוז": 7970,
      "לתא": 7971,
      "סבא": 7972,
      "יגות": 7973,
      "בוגרי": 7974,
      "בילי": 7975,
      "גון": 7976,
      "נוא": 7977,
      "פאל": 7978,
      "##op": 7979,
      "איות": 7980,
      "לעד": 7981,
      "הנכ": 7982,
      "וגים": 7983,
      "התחלת": 7984,
      "סופו": 7985,
      "תבונ": 7986,
      "בדרכ": 7987,
      "וטין": 7988,
      "press": 7989,
      "house": 7990,
      "bra": 7991,
      "ect": 7992,
      "hd": 7993,
      "py": 7994,
      "pow": 7995,
      "ru": 7996,
      "vis": 7997,
      "אריך": 7998,
      "גדי": 7999,
      "סיב": 8000,
      "מאנ": 8001,
      "ישיב": 8002,
      "שהר": 8003,
      "החומ": 8004,
      "חיז": 8005,
      "תיקי": 8006,
      "מחיי": 8007,
      "ניכ": 8008,
      "העלו": 8009,
      "עדן": 8010,
      "ופלים": 8011,
      "ימיים": 8012,
      "bea": 8013,
      "אֶת": 8014,
      "חץ": 8015,
      "אוק": 8016,
      "ריים": 8017,
      "העול": 8018,
      "ייו": 8019,
      "יימו": 8020,
      "גרמנ": 8021,
      "יבות": 8022,
      "אסט": 8023,
      "וחלט": 8024,
      "קומו": 8025,
      "400": 8026,
      "bar": 8027,
      "אדר": 8028,
      "זמו": 8029,
      "מנוי": 8030,
      "קתי": 8031,
      "שלמ": 8032,
      "היינ": 8033,
      "ומרי": 8034,
      "שתק": 8035,
      "ert": 8036,
      "זרם": 8037,
      "ste": 8038,
      "מקורו": 8039,
      "iph": 8040,
      "הברית": 8041,
      "line": 8042,
      "ress": 8043,
      "ומו": 8044,
      "סקה": 8045,
      "נוף": 8046,
      "יכה": 8047,
      "מצאת": 8048,
      "פיי": 8049,
      "פיכ": 8050,
      "הרגלי": 8051,
      "צמחי": 8052,
      "##ase": 8053,
      "ica": 8054,
      "נהגו": 8055,
      "ell": 8056,
      "גטו": 8057,
      "יגי": 8058,
      "לנה": 8059,
      "סעו": 8060,
      "ותנ": 8061,
      "לאומ": 8062,
      "איד": 8063,
      "מהד": 8064,
      "מאל": 8065,
      "ורסי": 8066,
      "ובק": 8067,
      "ובנו": 8068,
      "פתו": 8069,
      "יקני": 8070,
      "ידא": 8071,
      "שובו": 8072,
      "tube": 8073,
      "..": 8074,
      "גוון": 8075,
      "ימה": 8076,
      "ימנע": 8077,
      "מעי": 8078,
      "מעת": 8079,
      "הפס": 8080,
      "טינים": 8081,
      "דרות": 8082,
      "רגשת": 8083,
      "חדו": 8084,
      "ופצ": 8085,
      "יעל": 8086,
      "יאון": 8087,
      "הירו": 8088,
      "reet": 8089,
      "דעים": 8090,
      "סוצי": 8091,
      "ima": 8092,
      "sim": 8093,
      "חרא": 8094,
      "טום": 8095,
      "מבל": 8096,
      "##za": 8097,
      "מהכ": 8098,
      "חלות": 8099,
      "תקש": 8100,
      "וכנ": 8101,
      "שתת": 8102,
      "בקרו": 8103,
      "קסם": 8104,
      "המלכ": 8105,
      "שותפי": 8106,
      "39": 8107,
      "52": 8108,
      "cra": 8109,
      "שורת": 8110,
      "##pe": 8111,
      "ראלי": 8112,
      "ורנו": 8113,
      "הבק": 8114,
      "sty": 8115,
      "צמא": 8116,
      "tag": 8117,
      "nti": 8118,
      "news": 8119,
      "blo": 8120,
      "בדו": 8121,
      "##fa": 8122,
      "תקף": 8123,
      "וצע": 8124,
      "חוז": 8125,
      "הדף": 8126,
      "פתחו": 8127,
      "ידן": 8128,
      "להתק": 8129,
      "real": 8130,
      "good": 8131,
      "תופע": 8132,
      "fra": 8133,
      "om": 8134,
      "ונות": 8135,
      "מורי": 8136,
      "עיה": 8137,
      "ותני": 8138,
      "סיונ": 8139,
      "במד": 8140,
      "מצי": 8141,
      "חשיב": 8142,
      "תקפו": 8143,
      "רבת": 8144,
      "מרות": 8145,
      "וצאה": 8146,
      "טרונ": 8147,
      "ond": 8148,
      "onli": 8149,
      "rev": 8150,
      "וויזי": 8151,
      "form": 8152,
      "back": 8153,
      "tics": 8154,
      "cer": 8155,
      "fo": 8156,
      "lu": 8157,
      "nes": 8158,
      "בם": 8159,
      "דיהם": 8160,
      "הנות": 8161,
      "זונה": 8162,
      "טלי": 8163,
      "ללי": 8164,
      "נני": 8165,
      "קנות": 8166,
      "##ly": 8167,
      "##cd": 8168,
      "##בו": 8169,
      "ישי": 8170,
      "ריכו": 8171,
      "ארת": 8172,
      "יכת": 8173,
      "חשבה": 8174,
      "מכות": 8175,
      "כשם": 8176,
      "ניקו": 8177,
      "syst": 8178,
      "black": 8179,
      "חוזים": 8180,
      "!!": 8181,
      "ag": 8182,
      "bor": 8183,
      "ei": 8184,
      "ele": 8185,
      "more": 8186,
      "אוב": 8187,
      "טיר": 8188,
      "שוע": 8189,
      "יתנ": 8190,
      "ינל": 8191,
      "בסו": 8192,
      "וטרי": 8193,
      "גיבו": 8194,
      "blue": 8195,
      "85": 8196,
      "אטו": 8197,
      "ודם": 8198,
      "טוני": 8199,
      "פוך": 8200,
      "רסו": 8201,
      "##ne": 8202,
      "##mp": 8203,
      "##pt": 8204,
      "לאמ": 8205,
      "החוקר": 8206,
      "ארים": 8207,
      "עצבי": 8208,
      "טובי": 8209,
      "יבים": 8210,
      "this": 8211,
      "תעמ": 8212,
      "שכך": 8213,
      "##ala": 8214,
      "נדס": 8215,
      "44": 8216,
      "זא": 8217,
      "חני": 8218,
      "יעה": 8219,
      "כחו": 8220,
      "##ak": 8221,
      "מהס": 8222,
      "הכות": 8223,
      "ירונ": 8224,
      "מפה": 8225,
      "עיון": 8226,
      "טרלי": 8227,
      "stra": 8228,
      "אגם": 8229,
      "95": 8230,
      "bet": 8231,
      "ger": 8232,
      "sis": 8233,
      "בונ": 8234,
      "צירו": 8235,
      "רואי": 8236,
      "##ua": 8237,
      "##ze": 8238,
      "לאש": 8239,
      "המפל": 8240,
      "ביצי": 8241,
      "מאר": 8242,
      "והים": 8243,
      "לומי": 8244,
      "הקרי": 8245,
      "בתר": 8246,
      "ויק": 8247,
      "יטות": 8248,
      "טרל": 8249,
      "che": 8250,
      "seo": 8251,
      "soc": 8252,
      "נויים": 8253,
      "במשק": 8254,
      "coll": 8255,
      "john": 8256,
      "המפלג": 8257,
      "99": 8258,
      "bre": 8259,
      "fda": 8260,
      "ve": 8261,
      "גס": 8262,
      "כרים": 8263,
      "סלי": 8264,
      "רמים": 8265,
      "##ka": 8266,
      "ביעו": 8267,
      "ליטי": 8268,
      "ידיא": 8269,
      "תרופו": 8270,
      "that": 8271,
      "שעד": 8272,
      "פיתו": 8273,
      "tv": 8274,
      "אע": 8275,
      "חילה": 8276,
      "צח": 8277,
      "רתה": 8278,
      "רזי": 8279,
      "##ml": 8280,
      "סיו": 8281,
      "עצת": 8282,
      "ההמ": 8283,
      "##ark": 8284,
      "הרגשת": 8285,
      "64": 8286,
      "dom": 8287,
      "ham": 8288,
      "ow": 8289,
      "ton": 8290,
      "זיל": 8291,
      "##sa": 8292,
      "להתי": 8293,
      "הפו": 8294,
      "אמפ": 8295,
      "וגבל": 8296,
      "ונגר": 8297,
      "שתל": 8298,
      "ימפ": 8299,
      "ודות": 8300,
      "פניי": 8301,
      "כהן": 8302,
      "ical": 8303,
      "השרא": 8304,
      "pho": 8305,
      "outl": 8306,
      "apple": 8307,
      "style": 8308,
      "00": 8309,
      "data": 8310,
      "mp": 8311,
      "pc": 8312,
      "val": 8313,
      "מוא": 8314,
      "שתה": 8315,
      "##ds": 8316,
      "והבים": 8317,
      "כולתי": 8318,
      "וכני": 8319,
      "ונפ": 8320,
      "ציאל": 8321,
      "רעש": 8322,
      "נשמ": 8323,
      "read": 8324,
      "נדב": 8325,
      "דגם": 8326,
      "פצו": 8327,
      "heal": 8328,
      "כבת": 8329,
      "prev": 8330,
      "auto": 8331,
      "hp": 8332,
      "שנו": 8333,
      "כלש": 8334,
      "השח": 8335,
      "ברחו": 8336,
      "ונר": 8337,
      "עיקר": 8338,
      "יפת": 8339,
      "וקא": 8340,
      "אסל": 8341,
      "יעי": 8342,
      "##oud": 8343,
      "וניו": 8344,
      "קונס": 8345,
      "ודיות": 8346,
      "ענן": 8347,
      "who": 8348,
      "dra": 8349,
      "ונת": 8350,
      "טג": 8351,
      "סונ": 8352,
      "##df": 8353,
      "ולמו": 8354,
      "שאים": 8355,
      "תיע": 8356,
      "הבד": 8357,
      "במצ": 8358,
      "עצי": 8359,
      "כולת": 8360,
      "יתק": 8361,
      "סבו": 8362,
      "זקן": 8363,
      "ord": 8364,
      "group": 8365,
      "cn": 8366,
      "nat": 8367,
      "בכם": 8368,
      "גשה": 8369,
      "געו": 8370,
      "דמים": 8371,
      "ייבי": 8372,
      "עוז": 8373,
      "##dd": 8374,
      "איו": 8375,
      "אחו": 8376,
      "שאול": 8377,
      "בשו": 8378,
      "עינ": 8379,
      "להתנ": 8380,
      "קורב": 8381,
      "להיש": 8382,
      "וחצ": 8383,
      "שתיי": 8384,
      "לטוב": 8385,
      "עיצו": 8386,
      "גשם": 8387,
      "ort": 8388,
      "cbd": 8389,
      "')": 8390,
      "cle": 8391,
      "eg": 8392,
      "mc": 8393,
      "pt": 8394,
      "ral": 8395,
      "ue": 8396,
      "ye": 8397,
      "חשי": 8398,
      "מוב": 8399,
      "עופ": 8400,
      "רורי": 8401,
      "אוה": 8402,
      "חידה": 8403,
      "הבנ": 8404,
      "חלומ": 8405,
      "בתק": 8406,
      "וכים": 8407,
      "טיו": 8408,
      "סכמ": 8409,
      "שכול": 8410,
      "ודנ": 8411,
      "ret": 8412,
      "rec": 8413,
      "האדמ": 8414,
      "down": 8415,
      "אחוזי": 8416,
      "cam": 8417,
      "gh": 8418,
      "less": 8419,
      "mic": 8420,
      "sam": 8421,
      "wal": 8422,
      "west": 8423,
      "גמי": 8424,
      "תוב": 8425,
      "שלת": 8426,
      "המשת": 8427,
      "מיו": 8428,
      "ולחן": 8429,
      "לוסי": 8430,
      "ריך": 8431,
      "יכוני": 8432,
      "כשאת": 8433,
      "אזי": 8434,
      "קרח": 8435,
      "ויים": 8436,
      "וריות": 8437,
      "ימצ": 8438,
      "טומט": 8439,
      "dia": 8440,
      "וקיי": 8441,
      "bio": 8442,
      "יוצאי": 8443,
      "43": 8444,
      "49": 8445,
      "bbc": 8446,
      "let": 8447,
      "xy": 8448,
      "ימת": 8449,
      "ממת": 8450,
      "פכ": 8451,
      "##מעו": 8452,
      "המזו": 8453,
      "משמעו": 8454,
      "בתל": 8455,
      "יצע": 8456,
      "עיף": 8457,
      "לגן": 8458,
      "וחל": 8459,
      "##ere": 8460,
      "נסע": 8461,
      "איתנ": 8462,
      "ado": 8463,
      "note": 8464,
      "--": 8465,
      "46": 8466,
      "53": 8467,
      "67": 8468,
      "will": 8469,
      "אווי": 8470,
      "מפט": 8471,
      "ושלם": 8472,
      "יקות": 8473,
      "וקח": 8474,
      "רכים": 8475,
      "תלמ": 8476,
      "יניה": 8477,
      "נחמ": 8478,
      "צבעי": 8479,
      "rock": 8480,
      "בודו": 8481,
      "ענף": 8482,
      "exc": 8483,
      "ייבים": 8484,
      "fire": 8485,
      "העולמ": 8486,
      "ben": 8487,
      "mb": 8488,
      "הוצ": 8489,
      "וית": 8490,
      "זית": 8491,
      "טב": 8492,
      "קירו": 8493,
      "רופי": 8494,
      "להט": 8495,
      "יכו": 8496,
      "ויו": 8497,
      "גלית": 8498,
      "share": 8499,
      "ומיי": 8500,
      "sur": 8501,
      "sum": 8502,
      "הנכונ": 8503,
      "47": 8504,
      "af": 8505,
      "age": 8506,
      "gl": 8507,
      "gold": 8508,
      "ren": 8509,
      "rid": 8510,
      "ען": 8511,
      "פסו": 8512,
      "תדע": 8513,
      "##ms": 8514,
      "##hd": 8515,
      "באיר": 8516,
      "הפל": 8517,
      "הנק": 8518,
      "קידו": 8519,
      "וקת": 8520,
      "lea": 8521,
      "מסתו": 8522,
      "ext": 8523,
      "mana": 8524,
      "high": 8525,
      "במקומ": 8526,
      "ject": 8527,
      "fun": 8528,
      "rome": 8529,
      "sal": 8530,
      "vil": 8531,
      "גשות": 8532,
      "לשר": 8533,
      "שוני": 8534,
      "תכן": 8535,
      "##ni": 8536,
      "ביני": 8537,
      "ריאו": 8538,
      "ניט": 8539,
      "טיש": 8540,
      "מבק": 8541,
      "בסן": 8542,
      "וריי": 8543,
      "מטופ": 8544,
      "רפוא": 8545,
      "מתיי": 8546,
      "קדימ": 8547,
      "##ull": 8548,
      "box": 8549,
      "41": 8550,
      "dre": 8551,
      "hy": 8552,
      "just": 8553,
      "men": 8554,
      "tel": 8555,
      "גנה": 8556,
      "פקי": 8557,
      "##po": 8558,
      "##hi": 8559,
      "בעונ": 8560,
      "ורך": 8561,
      "מענ": 8562,
      "שמד": 8563,
      "ונל": 8564,
      "וניס": 8565,
      "fac": 8566,
      "cloud": 8567,
      "כעס": 8568,
      "drive": 8569,
      "51": 8570,
      "gam": 8571,
      "han": 8572,
      "sen": 8573,
      "דופ": 8574,
      "דאו": 8575,
      "ננה": 8576,
      "עוק": 8577,
      "##vd": 8578,
      "שלנ": 8579,
      "אוסט": 8580,
      "אלפ": 8581,
      "השע": 8582,
      "הרגל": 8583,
      "הכו": 8584,
      "הזכ": 8585,
      "יסו": 8586,
      "זכי": 8587,
      "השתל": 8588,
      "הצלחת": 8589,
      "skype": 8590,
      "72": 8591,
      "bel": 8592,
      "best": 8593,
      "ious": 8594,
      "ub": 8595,
      "אשי": 8596,
      "גות": 8597,
      "פאים": 8598,
      "פטו": 8599,
      "צית": 8600,
      "שסי": 8601,
      "מערי": 8602,
      "פרע": 8603,
      "לחמו": 8604,
      "כולי": 8605,
      "מרבי": 8606,
      "יונית": 8607,
      "ויזי": 8608,
      "גישים": 8609,
      "מניה": 8610,
      "heart": 8611,
      "600": 8612,
      "fli": 8613,
      "iz": 8614,
      "ium": 8615,
      "les": 8616,
      "san": 8617,
      "גונ": 8618,
      "גנט": 8619,
      "צלם": 8620,
      "מסי": 8621,
      "הפכ": 8622,
      "ייצ": 8623,
      "מזכ": 8624,
      "יזיה": 8625,
      "ציאו": 8626,
      "וקרט": 8627,
      "250": 8628,
      "ינסו": 8629,
      "עתו": 8630,
      "גישו": 8631,
      "space": 8632,
      "קישו": 8633,
      "call": 8634,
      "fri": 8635,
      "ob": 8636,
      "pra": 8637,
      "que": 8638,
      "ter": 8639,
      "מילי": 8640,
      "צילו": 8641,
      "תוד": 8642,
      "##dy": 8643,
      "הילו": 8644,
      "ורבי": 8645,
      "פרץ": 8646,
      "הנא": 8647,
      "הלל": 8648,
      "הלים": 8649,
      "וצא": 8650,
      "ונח": 8651,
      "רצף": 8652,
      "יצי": 8653,
      "טרות": 8654,
      "לנק": 8655,
      "ביתה": 8656,
      "state": 8657,
      "עמק": 8658,
      "##olo": 8659,
      "##ott": 8660,
      "סטיק": 8661,
      "iew": 8662,
      "דבש": 8663,
      "לדוגמ": 8664,
      "68": 8665,
      "io": 8666,
      "ju": 8667,
      "mas": 8668,
      "sel": 8669,
      "wood": 8670,
      "גום": 8671,
      "לזו": 8672,
      "פוש": 8673,
      "רטים": 8674,
      "המה": 8675,
      "הענ": 8676,
      "ילית": 8677,
      "עדו": 8678,
      "רגון": 8679,
      "לספ": 8680,
      "ינן": 8681,
      "להתר": 8682,
      "anal": 8683,
      "יירו": 8684,
      "##iss": 8685,
      "##oth": 8686,
      "phy": 8687,
      "adhd": 8688,
      "fer": 8689,
      "how": 8690,
      "ios": 8691,
      "tu": 8692,
      "wom": 8693,
      "נטים": 8694,
      "סרי": 8695,
      "סירי": 8696,
      "קית": 8697,
      "קיל": 8698,
      "מהצ": 8699,
      "הרוו": 8700,
      "ובים": 8701,
      "אפיל": 8702,
      "בתנ": 8703,
      "וסטר": 8704,
      "לצו": 8705,
      "רונו": 8706,
      "תכוו": 8707,
      "ידעת": 8708,
      "בארצ": 8709,
      "קדמת": 8710,
      "mast": 8711,
      "und": 8712,
      "##ourn": 8713,
      "iii": 8714,
      "desi": 8715,
      "know": 8716,
      "excel": 8717,
      "),": 8718,
      "mat": 8719,
      "nor": 8720,
      "nort": 8721,
      "our": 8722,
      "pet": 8723,
      "ris": 8724,
      "וואה": 8725,
      "ויבי": 8726,
      "חבור": 8727,
      "לדי": 8728,
      "עַ": 8729,
      "לאפ": 8730,
      "ישית": 8731,
      "הפרי": 8732,
      "ברל": 8733,
      "ומד": 8734,
      "הנג": 8735,
      "ויצ": 8736,
      "רובו": 8737,
      "הטב": 8738,
      "צעים": 8739,
      "זיכ": 8740,
      "120": 8741,
      "וונטי": 8742,
      "link": 8743,
      "secur": 8744,
      "56": 8745,
      "59": 8746,
      "journ": 8747,
      "king": 8748,
      "oin": 8749,
      "חכו": 8750,
      "כתי": 8751,
      "סגל": 8752,
      "ששי": 8753,
      "המלחמ": 8754,
      "באף": 8755,
      "שמצ": 8756,
      "שמל": 8757,
      "פרדי": 8758,
      "אפס": 8759,
      "ועי": 8760,
      "ופך": 8761,
      "יטית": 8762,
      "ידית": 8763,
      "ודמ": 8764,
      "ימיו": 8765,
      "ובלת": 8766,
      "iso": 8767,
      "asso": 8768,
      "euro": 8769,
      "בתקופ": 8770,
      "54": 8771,
      "58": 8772,
      "61": 8773,
      "tm": 8774,
      "tre": 8775,
      "חשה": 8776,
      "כיה": 8777,
      "עזו": 8778,
      "שגי": 8779,
      "משקי": 8780,
      "וללת": 8781,
      "אלל": 8782,
      "החמי": 8783,
      "למס": 8784,
      "העלי": 8785,
      "הכח": 8786,
      "##חינ": 8787,
      "מבחינ": 8788,
      "לצר": 8789,
      "מגוו": 8790,
      "בריט": 8791,
      "גלוב": 8792,
      "נבו": 8793,
      "טכנ": 8794,
      "##ult": 8795,
      "365": 8796,
      "בטיחו": 8797,
      "rg": 8798,
      "בנת": 8799,
      "טנה": 8800,
      "טאי": 8801,
      "מץ": 8802,
      "נדע": 8803,
      "קופה": 8804,
      "קאו": 8805,
      "שפי": 8806,
      "##ew": 8807,
      "אוחר": 8808,
      "כלבי": 8809,
      "התגל": 8810,
      "כיו": 8811,
      "בעמ": 8812,
      "והות": 8813,
      "ראל": 8814,
      "יינת": 8815,
      "אבים": 8816,
      "נפח": 8817,
      "לגו": 8818,
      "צעדי": 8819,
      "וחו": 8820,
      "מודים": 8821,
      "child": 8822,
      "roid": 8823,
      "רוכה": 8824,
      "cast": 8825,
      "ult": 8826,
      "000": 8827,
      "\",": 8828,
      "66": 8829,
      "den": 8830,
      "found": 8831,
      "fbi": 8832,
      "gala": 8833,
      "tch": 8834,
      "ual": 8835,
      "זרי": 8836,
      "נלך": 8837,
      "האף": 8838,
      "מיט": 8839,
      "ישמ": 8840,
      "חיינ": 8841,
      "ברמ": 8842,
      "ברוא": 8843,
      "לפל": 8844,
      "ומא": 8845,
      "הסביב": 8846,
      "לחה": 8847,
      "וכות": 8848,
      "הדפ": 8849,
      "ושנ": 8850,
      "האינ": 8851,
      "אינד": 8852,
      "אירו": 8853,
      "##ind": 8854,
      "נעו": 8855,
      "rect": 8856,
      "סלמ": 8857,
      "roy": 8858,
      "road": 8859,
      "like": 8860,
      "##irl": 8861,
      "peo": 8862,
      "grand": 8863,
      "אוהבי": 8864,
      "dream": 8865,
      "count": 8866,
      "hill": 8867,
      "rt": 8868,
      "ts": 8869,
      "בקי": 8870,
      "כג": 8871,
      "לדר": 8872,
      "עדה": 8873,
      "תיה": 8874,
      "##iz": 8875,
      "הינ": 8876,
      "ביים": 8877,
      "השב": 8878,
      "שאב": 8879,
      "ובות": 8880,
      "במכ": 8881,
      "ומכ": 8882,
      "ומטי": 8883,
      "ונש": 8884,
      "תרת": 8885,
      "ספט": 8886,
      "פלס": 8887,
      "דורו": 8888,
      "נוספ": 8889,
      "##eld": 8890,
      "she": 8891,
      "נועה": 8892,
      "המתנ": 8893,
      "צירת": 8894,
      "דחף": 8895,
      "isra": 8896,
      "white": 8897,
      "plus": 8898,
      "שיבו": 8899,
      "graph": 8900,
      "elect": 8901,
      "הוצאו": 8902,
      "ds": 8903,
      "oec": 8904,
      "pub": 8905,
      "ty": 8906,
      "וון": 8907,
      "נבי": 8908,
      "ותך": 8909,
      "החמ": 8910,
      "ניינ": 8911,
      "ובח": 8912,
      "סימנ": 8913,
      "מקד": 8914,
      "ומכי": 8915,
      "פער": 8916,
      "הנך": 8917,
      "רגיה": 8918,
      "פורים": 8919,
      "פלים": 8920,
      "חסד": 8921,
      "קרייר": 8922,
      "leg": 8923,
      "sub": 8924,
      "big": 8925,
      "מבינ": 8926,
      "times": 8927,
      "gram": 8928,
      "music": 8929,
      "media": 8930,
      "אמריק": 8931,
      "dvd": 8932,
      "gb": 8933,
      "jam": 8934,
      "דחה": 8935,
      "טטי": 8936,
      "צאת": 8937,
      "קיות": 8938,
      "מיכ": 8939,
      "מער": 8940,
      "העד": 8941,
      "סיי": 8942,
      "סיט": 8943,
      "כשו": 8944,
      "בחז": 8945,
      "ינתי": 8946,
      "לדף": 8947,
      "פרסו": 8948,
      "נחו": 8949,
      "הביטו": 8950,
      "ang": 8951,
      "##ish": 8952,
      "lear": 8953,
      "שארו": 8954,
      "תפתחו": 8955,
      "oecd": 8956,
      "gro": 8957,
      "old": 8958,
      "sn": 8959,
      "vol": 8960,
      "זת": 8961,
      "זיות": 8962,
      "יוכ": 8963,
      "נאים": 8964,
      "רמל": 8965,
      "מהה": 8966,
      "ולך": 8967,
      "ראמ": 8968,
      "ועמ": 8969,
      "קרל": 8970,
      "עיק": 8971,
      "לתו": 8972,
      "אגב": 8973,
      "וויז": 8974,
      "max": 8975,
      "dev": 8976,
      "פסל": 8977,
      "lib": 8978,
      "digi": 8979,
      "usb": 8980,
      "boy": 8981,
      "great": 8982,
      "bitc": 8983,
      "aa": 8984,
      "ep": 8985,
      "fam": 8986,
      "pic": 8987,
      "לֹ": 8988,
      "רנו": 8989,
      "##ek": 8990,
      "##מכי": 8991,
      "##ko": 8992,
      "שלמי": 8993,
      "הימי": 8994,
      "מסמכי": 8995,
      "תייר": 8996,
      "נוני": 8997,
      "דיין": 8998,
      "הקטנ": 8999,
      "וכמ": 9000,
      "ללכ": 9001,
      "יתון": 9002,
      "יצו": 9003,
      "רובים": 9004,
      "לתר": 9005,
      "פשו": 9006,
      "era": 9007,
      "inn": 9008,
      "thing": 9009,
      "חוקרי": 9010,
      "וחז": 9011,
      "##ork": 9012,
      "##ink": 9013,
      "שעם": 9014,
      "כתבת": 9015,
      "story": 9016,
      "ant": 9017,
      "נדרט": 9018,
      "##cha": 9019,
      "תיקו": 9020,
      "rob": 9021,
      "ary": 9022,
      "לֹא": 9023,
      "ball": 9024,
      "ff": 9025,
      "ool": 9026,
      "יזי": 9027,
      "כירה": 9028,
      "פטי": 9029,
      "צבי": 9030,
      "המוש": 9031,
      "השד": 9032,
      "החול": 9033,
      "ריית": 9034,
      "פרקי": 9035,
      "טיני": 9036,
      "בסמ": 9037,
      "אבטח": 9038,
      "##ono": 9039,
      "להתפ": 9040,
      "זרע": 9041,
      "קווה": 9042,
      "עמם": 9043,
      "יגים": 9044,
      "הסינ": 9045,
      "קשו": 9046,
      "compa": 9047,
      "הנוס": 9048,
      "law": 9049,
      "צהר": 9050,
      "emp": 9051,
      "כבן": 9052,
      "god": 9053,
      "800": 9054,
      "every": 9055,
      "ibm": 9056,
      "gar": 9057,
      "girl": 9058,
      "hel": 9059,
      "iet": 9060,
      "ns": 9061,
      "now": 9062,
      "pdf": 9063,
      "rom": 9064,
      "sl": 9065,
      "sq": 9066,
      "ward": 9067,
      "york": 9068,
      "בורי": 9069,
      "זג": 9070,
      "מבר": 9071,
      "עמה": 9072,
      "ליצי": 9073,
      "שהג": 9074,
      "החיי": 9075,
      "בשיר": 9076,
      "ייני": 9077,
      "לחלו": 9078,
      "בליל": 9079,
      "גיעים": 9080,
      "לסו": 9081,
      "ציני": 9082,
      "תשת": 9083,
      "הכלכל": 9084,
      "משתתפ": 9085,
      "off": 9086,
      "cho": 9087,
      "בורו": 9088,
      "dead": 9089,
      "ory": 9090,
      "edi": 9091,
      "אולו": 9092,
      "ware": 9093,
      "ives": 9094,
      "כעל": 9095,
      "##qua": 9096,
      "##qui": 9097,
      "award": 9098,
      "html": 9099,
      "פייס": 9100,
      "מבקשי": 9101,
      "gon": 9102,
      "lla": 9103,
      "pp": 9104,
      "דדים": 9105,
      "חתי": 9106,
      "יאים": 9107,
      "עוג": 9108,
      "קפת": 9109,
      "קחת": 9110,
      "##ki": 9111,
      "##fl": 9112,
      "שיכה": 9113,
      "ולמי": 9114,
      "חשף": 9115,
      "הנצ": 9116,
      "הנע": 9117,
      "יתו": 9118,
      "יתית": 9119,
      "ופנ": 9120,
      "ופע": 9121,
      "חזו": 9122,
      "ארצו": 9123,
      "מניו": 9124,
      "פגו": 9125,
      "org": 9126,
      "טורק": 9127,
      "##utt": 9128,
      "מסתכ": 9129,
      "last": 9130,
      "jew": 9131,
      "':": 9132,
      "62": 9133,
      "bm": 9134,
      "fu": 9135,
      "fed": 9136,
      "mu": 9137,
      "rd": 9138,
      "rad": 9139,
      "גוס": 9140,
      "הוע": 9141,
      "ננת": 9142,
      "קורי": 9143,
      "קומי": 9144,
      "##io": 9145,
      "ימית": 9146,
      "sto": 9147,
      "reg": 9148,
      "ney": 9149,
      "show": 9150,
      "where": 9151,
      "אודו": 9152,
      "year": 9153,
      "cc": 9154,
      "cs": 9155,
      "far": 9156,
      "mil": 9157,
      "nu": 9158,
      "set": 9159,
      "אמש": 9160,
      "דכ": 9161,
      "הימנ": 9162,
      "אוצ": 9163,
      "מיכה": 9164,
      "דימ": 9165,
      "מקי": 9166,
      "הגו": 9167,
      "פרנ": 9168,
      "טיק": 9169,
      "לגה": 9170,
      "##ord": 9171,
      "וליו": 9172,
      "קנד": 9173,
      "isla": 9174,
      "plan": 9175,
      "geo": 9176,
      "אוטומ": 9177,
      "clo": 9178,
      "eum": 9179,
      "hor": 9180,
      "ira": 9181,
      "ori": 9182,
      "ron": 9183,
      "sil": 9184,
      "some": 9185,
      "ze": 9186,
      "אובד": 9187,
      "יוק": 9188,
      "נעה": 9189,
      "קמת": 9190,
      "לימו": 9191,
      "דינו": 9192,
      "לפה": 9193,
      "הגג": 9194,
      "אמצ": 9195,
      "תקד": 9196,
      "שבט": 9197,
      "לצמ": 9198,
      "ינא": 9199,
      "אסד": 9200,
      "אליות": 9201,
      "פריה": 9202,
      "סעד": 9203,
      "רישו": 9204,
      "para": 9205,
      "sky": 9206,
      "3d": 9207,
      "57": 9208,
      "82": 9209,
      "ain": 9210,
      "cat": 9211,
      "gps": 9212,
      "זיו": 9213,
      "חדה": 9214,
      "כויות": 9215,
      "ענת": 9216,
      "תלך": 9217,
      "##ure": 9218,
      "##כנ": 9219,
      "האיר": 9220,
      "מיץ": 9221,
      "השטח": 9222,
      "חשד": 9223,
      "וגות": 9224,
      "מפג": 9225,
      "שבתי": 9226,
      "קטנ": 9227,
      "עשן": 9228,
      "הטכנ": 9229,
      "בטן": 9230,
      "סטא": 9231,
      "ודית": 9232,
      "נסים": 9233,
      "led": 9234,
      "tain": 9235,
      "קאית": 9236,
      "class": 9237,
      "ures": 9238,
      "abc": 9239,
      "open": 9240,
      "mind": 9241,
      "69": 9242,
      "bad": 9243,
      "dc": 9244,
      "gic": 9245,
      "hyp": 9246,
      "ide": 9247,
      "mer": 9248,
      "sion": 9249,
      "פוב": 9250,
      "צאי": 9251,
      "רנית": 9252,
      "שונ": 9253,
      "שטר": 9254,
      "##fo": 9255,
      "האזור": 9256,
      "ביות": 9257,
      "החג": 9258,
      "תיאו": 9259,
      "הקש": 9260,
      "ההז": 9261,
      "יסטו": 9262,
      "אסו": 9263,
      "שוו": 9264,
      "קודת": 9265,
      "ina": 9266,
      "וחש": 9267,
      "בצו": 9268,
      "rea": 9269,
      "nev": 9270,
      "רסמ": 9271,
      "רמז": 9272,
      "mag": 9273,
      "דפו": 9274,
      "פיקו": 9275,
      "lab": 9276,
      "##umb": 9277,
      "מקבלי": 9278,
      "##ged": 9279,
      "##unt": 9280,
      "field": 9281,
      "view": 9282,
      "חיצו": 9283,
      "learn": 9284,
      "63": 9285,
      "az": 9286,
      "bn": 9287,
      "dan": 9288,
      "fir": 9289,
      "gged": 9290,
      "ram": 9291,
      "rus": 9292,
      "uv": 9293,
      "uk": 9294,
      "xbo": 9295,
      "לפר": 9296,
      "לדו": 9297,
      "צלח": 9298,
      "קחי": 9299,
      "המנה": 9300,
      "ירים": 9301,
      "מרוצ": 9302,
      "ינדי": 9303,
      "בכו": 9304,
      "לוהי": 9305,
      "יאור": 9306,
      "וסיי": 9307,
      "##oll": 9308,
      "יריו": 9309,
      "ems": 9310,
      "מתכנ": 9311,
      "xbox": 9312,
      "bir": 9313,
      "bank": 9314,
      "dark": 9315,
      "hal": 9316,
      "lic": 9317,
      "mart": 9318,
      "nolo": 9319,
      "tou": 9320,
      "test": 9321,
      "דשה": 9322,
      "טיה": 9323,
      "סאו": 9324,
      "##vo": 9325,
      "ותא": 9326,
      "אלך": 9327,
      "למוד": 9328,
      "ורית": 9329,
      "לעמ": 9330,
      "יכי": 9331,
      "סיע": 9332,
      "בשבי": 9333,
      "הסב": 9334,
      "לשו": 9335,
      "ירופ": 9336,
      "ההב": 9337,
      "ערו": 9338,
      "לתל": 9339,
      "גבו": 9340,
      "משיכ": 9341,
      "eng": 9342,
      "נוספו": 9343,
      "town": 9344,
      "רסם": 9345,
      "dex": 9346,
      "חפץ": 9347,
      "sui": 9348,
      "יסבו": 9349,
      "emb": 9350,
      "head": 9351,
      "face": 9352,
      "pres": 9353,
      "resp": 9354,
      "resea": 9355,
      "מקצוע": 9356,
      "ההזד": 9357,
      "87": 9358,
      "ast": 9359,
      "bon": 9360,
      "batt": 9361,
      "fic": 9362,
      "litt": 9363,
      "mm": 9364,
      "pass": 9365,
      "tom": 9366,
      "חירו": 9367,
      "טילי": 9368,
      "פשי": 9369,
      "צול": 9370,
      "תנת": 9371,
      "תלו": 9372,
      "##dp": 9373,
      "היגי": 9374,
      "באז": 9375,
      "אלמ": 9376,
      "ורקי": 9377,
      "העונ": 9378,
      "מרח": 9379,
      "הזכו": 9380,
      "הטל": 9381,
      "תרם": 9382,
      "בסופ": 9383,
      "תפש": 9384,
      "באיז": 9385,
      "char": 9386,
      "אינטל": 9387,
      "וועד": 9388,
      "pha": 9389,
      "ema": 9390,
      "eth": 9391,
      "תצא": 9392,
      "יומנו": 9393,
      "song": 9394,
      "360": 9395,
      "east": 9396,
      "key": 9397,
      "היחסי": 9398,
      "פקידי": 9399,
      "**": 9400,
      "ef": 9401,
      "fall": 9402,
      "may": 9403,
      "od": 9404,
      "pat": 9405,
      "rce": 9406,
      "sor": 9407,
      "wall": 9408,
      "xx": 9409,
      "אהו": 9410,
      "הזר": 9411,
      "יבל": 9412,
      "לרב": 9413,
      "שלל": 9414,
      "שהד": 9415,
      "דינה": 9416,
      "ואיל": 9417,
      "הסר": 9418,
      "ללב": 9419,
      "יתים": 9420,
      "רובות": 9421,
      "שנכ": 9422,
      "וחרי": 9423,
      "וחדים": 9424,
      "ורגני": 9425,
      "המער": 9426,
      "spe": 9427,
      "##und": 9428,
      "bab": 9429,
      "dav": 9430,
      "700": 9431,
      "אנרג": 9432,
      "77": 9433,
      "76": 9434,
      "hua": 9435,
      "non": 9436,
      "pm": 9437,
      "site": 9438,
      "ten": 9439,
      "בנט": 9440,
      "זעם": 9441,
      "כירי": 9442,
      "הישר": 9443,
      "ליוו": 9444,
      "מאלי": 9445,
      "מעז": 9446,
      "שמב": 9447,
      "מצע": 9448,
      "לפס": 9449,
      "ההצ": 9450,
      "שבנ": 9451,
      "שבות": 9452,
      "יטים": 9453,
      "יקב": 9454,
      "chri": 9455,
      "tect": 9456,
      "התקופ": 9457,
      "ices": 9458,
      "fort": 9459,
      "חצית": 9460,
      "when": 9461,
      "sco": 9462,
      "הבריא": 9463,
      "syn": 9464,
      "ways": 9465,
      "here": 9466,
      "הארו": 9467,
      "corp": 9468,
      "73": 9469,
      "81": 9470,
      "bds": 9471,
      "game": 9472,
      "kill": 9473,
      "ox": 9474,
      "rs": 9475,
      "rh": 9476,
      "tt": 9477,
      "ula": 9478,
      "אקדמ": 9479,
      "דאי": 9480,
      "מטי": 9481,
      "עוף": 9482,
      "אתג": 9483,
      "ומט": 9484,
      "לשאו": 9485,
      "ועב": 9486,
      "קיס": 9487,
      "ממנ": 9488,
      "לסט": 9489,
      "וזים": 9490,
      "התעל": 9491,
      "תרגו": 9492,
      "moon": 9493,
      "ama": 9494,
      "רופאי": 9495,
      "swi": 9496,
      "roll": 9497,
      "קרטיה": 9498,
      "fox": 9499,
      "זאב": 9500,
      "first": 9501,
      "78": 9502,
      "ft": 9503,
      "fre": 9504,
      "lt": 9505,
      "mt": 9506,
      "mor": 9507,
      "tit": 9508,
      "yo": 9509,
      "חונ": 9510,
      "מודי": 9511,
      "צמת": 9512,
      "קסט": 9513,
      "תבים": 9514,
      "אוג": 9515,
      "ביכ": 9516,
      "ולנו": 9517,
      "ולטי": 9518,
      "הרף": 9519,
      "לומו": 9520,
      "סיסי": 9521,
      "עדת": 9522,
      "וצי": 9523,
      "בחג": 9524,
      "ציפו": 9525,
      "תמך": 9526,
      "there": 9527,
      "מנג": 9528,
      "המשמע": 9529,
      "יאני": 9530,
      "מדברי": 9531,
      "shop": 9532,
      "ומיות": 9533,
      "180": 9534,
      "phi": 9535,
      "body": 9536,
      "smart": 9537,
      "poli": 9538,
      "place": 9539,
      "lond": 9540,
      "שתתפי": 9541,
      "עַל": 9542,
      "88": 9543,
      "ah": 9544,
      "cas": 9545,
      "gm": 9546,
      "gue": 9547,
      "hen": 9548,
      "ld": 9549,
      "lg": 9550,
      "mr": 9551,
      "rc": 9552,
      "tour": 9553,
      "בפה": 9554,
      "גדים": 9555,
      "ודים": 9556,
      "חמת": 9557,
      "ידול": 9558,
      "פורי": 9559,
      "קוני": 9560,
      "##fc": 9561,
      "##ja": 9562,
      "אתך": 9563,
      "##ניה": 9564,
      "המינ": 9565,
      "האנו": 9566,
      "התנוע": 9567,
      "הגות": 9568,
      "וכרי": 9569,
      "ויח": 9570,
      "רגילי": 9571,
      "קטנו": 9572,
      "שרוי": 9573,
      "תכנו": 9574,
      "שכי": 9575,
      "##ero": 9576,
      "עירי": 9577,
      "בצל": 9578,
      "stand": 9579,
      "sms": 9580,
      "blood": 9581,
      "imp": 9582,
      "java": 9583,
      "walk": 9584,
      "אתגרי": 9585,
      "96": 9586,
      "bot": 9587,
      "cour": 9588,
      "ege": 9589,
      "gs": 9590,
      "gard": 9591,
      "זז": 9592,
      "חבי": 9593,
      "יאות": 9594,
      "תונ": 9595,
      "לאחרי": 9596,
      "המנו": 9597,
      "מתכו": 9598,
      "הקי": 9599,
      "הקנ": 9600,
      "ואות": 9601,
      "אמנו": 9602,
      "הכס": 9603,
      "מפו": 9604,
      "עיים": 9605,
      "ושבי": 9606,
      "נגע": 9607,
      "שובי": 9608,
      "ודדו": 9609,
      "כהה": 9610,
      "top": 9611,
      "הרשו": 9612,
      "אוסטר": 9613,
      "have": 9614,
      "happ": 9615,
      "שחיי": 9616,
      "north": 9617,
      "ban": 9618,
      "bay": 9619,
      "cu": 9620,
      "card": 9621,
      "gin": 9622,
      "hbo": 9623,
      "len": 9624,
      "tur": 9625,
      "vir": 9626,
      "wild": 9627,
      "דנה": 9628,
      "הראי": 9629,
      "שאנ": 9630,
      "ההל": 9631,
      "לסמ": 9632,
      "טרף": 9633,
      "inv": 9634,
      "thc": 9635,
      "שובים": 9636,
      "וחבר": 9637,
      "פחם": 9638,
      "המיי": 9639,
      "מדעני": 9640,
      "chu": 9641,
      "גנב": 9642,
      "capi": 9643,
      "riv": 9644,
      "dog": 9645,
      "hist": 9646,
      "cry": 9647,
      "explo": 9648,
      "sung": 9649,
      "creat": 9650,
      "long": 9651,
      "voi": 9652,
      "האנוש": 9653,
      "86": 9654,
      "98": 9655,
      "ak": 9656,
      "bas": 9657,
      "food": 9658,
      "oth": 9659,
      "pen": 9660,
      "rr": 9661,
      "sing": 9662,
      "tte": 9663,
      "use": 9664,
      "בוני": 9665,
      "דנו": 9666,
      "זקה": 9667,
      "חרב": 9668,
      "ימנ": 9669,
      "ליר": 9670,
      "נאו": 9671,
      "ררי": 9672,
      "##zz": 9673,
      "מיות": 9674,
      "והמו": 9675,
      "הגור": 9676,
      "לכול": 9677,
      "תחים": 9678,
      "ידיי": 9679,
      "וענ": 9680,
      "ועמד": 9681,
      "קרונ": 9682,
      "ושא": 9683,
      "טרפ": 9684,
      "thou": 9685,
      "ריקנ": 9686,
      "מגנ": 9687,
      "סטית": 9688,
      "קורת": 9689,
      "קוראי": 9690,
      "קוריא": 9691,
      "לדמ": 9692,
      "ודל": 9693,
      "רטור": 9694,
      "##sta": 9695,
      "any": 9696,
      "alt": 9697,
      "בתחומ": 9698,
      "too": 9699,
      "האלבו": 9700,
      "ley": 9701,
      "phen": 9702,
      "sport": 9703,
      "ררו": 9704,
      "page": 9705,
      "חלומו": 9706,
      "prise": 9707,
      "green": 9708,
      "south": 9709,
      "sql": 9710,
      "74": 9711,
      "71": 9712,
      "91": 9713,
      "ae": 9714,
      "bat": 9715,
      "eas": 9716,
      "iq": 9717,
      "ky": 9718,
      "oc": 9719,
      "ray": 9720,
      "ria": 9721,
      "sd": 9722,
      "want": 9723,
      "אסף": 9724,
      "פאי": 9725,
      "פילי": 9726,
      "##קא": 9727,
      "אוז": 9728,
      "התור": 9729,
      "חשק": 9730,
      "שנע": 9731,
      "תרו": 9732,
      "מגור": 9733,
      "אגף": 9734,
      "מריקא": 9735,
      "ורגנ": 9736,
      "##oot": 9737,
      "mad": 9738,
      "room": 9739,
      "aca": 9740,
      "פלגה": 9741,
      "יוצרי": 9742,
      "over": 9743,
      "film": 9744,
      "david": 9745,
      "84": 9746,
      "92": 9747,
      "avi": 9748,
      "base": 9749,
      "cp": 9750,
      "db": 9751,
      "hall": 9752,
      "las": 9753,
      "mg": 9754,
      "ous": 9755,
      "rer": 9756,
      "tro": 9757,
      "כמת": 9758,
      "צבר": 9759,
      "ריבי": 9760,
      "רופו": 9761,
      "##hs": 9762,
      "##uc": 9763,
      "##-)": 9764,
      "החר": 9765,
      "רייה": 9766,
      "הגש": 9767,
      "בתמ": 9768,
      "יצוב": 9769,
      "תהא": 9770,
      "חושה": 9771,
      "מגב": 9772,
      "ali": 9773,
      "sho": 9774,
      "icle": 9775,
      "דהים": 9776,
      "die": 9777,
      "ipad": 9778,
      "350": 9779,
      "שוטה": 9780,
      "build": 9781,
      "berg": 9782,
      "לטיפ": 9783,
      "block": 9784,
      "flix": 9785,
      "bnb": 9786,
      "93": 9787,
      "aft": 9788,
      "dro": 9789,
      "flo": 9790,
      "hard": 9791,
      "jan": 9792,
      "lan": 9793,
      "mit": 9794,
      "nia": 9795,
      "pan": 9796,
      "sla": 9797,
      "tar": 9798,
      "van": 9799,
      "דיות": 9800,
      "חזה": 9801,
      "מזר": 9802,
      "סוב": 9803,
      "רונה": 9804,
      "##be": 9805,
      "##gg": 9806,
      "שיפו": 9807,
      "התחת": 9808,
      "שהיי": 9809,
      "בעני": 9810,
      "הקמ": 9811,
      "הקור": 9812,
      "הנשי": 9813,
      "מבקרי": 9814,
      "ופט": 9815,
      "יטני": 9816,
      "רכזי": 9817,
      "וחדת": 9818,
      "סמכו": 9819,
      "לילדי": 9820,
      "מחשבי": 9821,
      "adv": 9822,
      "כבש": 9823,
      "wire": 9824,
      "rich": 9825,
      "econo": 9826,
      "games": 9827,
      "לפרו": 9828,
      "but": 9829,
      "band": 9830,
      "dou": 9831,
      "ear": 9832,
      "full": 9833,
      "ges": 9834,
      "hu": 9835,
      "hand": 9836,
      "jer": 9837,
      "oli": 9838,
      "pu": 9839,
      "rro": 9840,
      "run": 9841,
      "tis": 9842,
      "well": 9843,
      "yn": 9844,
      "אדע": 9845,
      "נאל": 9846,
      "##rc": 9847,
      "ותן": 9848,
      "ותכ": 9849,
      "למח": 9850,
      "למל": 9851,
      "ורגל": 9852,
      "ברס": 9853,
      "יהוד": 9854,
      "הצמ": 9855,
      "ללק": 9856,
      "דרת": 9857,
      "הזן": 9858,
      "קרם": 9859,
      "רגו": 9860,
      "קצו": 9861,
      "יקש": 9862,
      "ספת": 9863,
      "##ond": 9864,
      "נפץ": 9865,
      "תעש": 9866,
      "start": 9867,
      "store": 9868,
      "only": 9869,
      "ana": 9870,
      "סוו": 9871,
      "סלע": 9872,
      "death": 9873,
      "רועים": 9874,
      "שחש": 9875,
      "memo": 9876,
      "excha": 9877,
      "spec": 9878,
      "צלב": 9879,
      "ssion": 9880,
      "החומר": 9881,
      "pala": 9882,
      "two": 9883,
      "solu": 9884,
      "aven": 9885,
      "jewi": 9886,
      "baby": 9887,
      "ava": 9888,
      "bell": 9889,
      "bour": 9890,
      "dam": 9891,
      "gdp": 9892,
      "low": 9893,
      "lus": 9894,
      "lcd": 9895,
      "mill": 9896,
      "yes": 9897,
      "גדו": 9898,
      "הטרו": 9899,
      "זורי": 9900,
      "חצר": 9901,
      "טנו": 9902,
      "כדו": 9903,
      "לתי": 9904,
      "סית": 9905,
      "צונ": 9906,
      "קשב": 9907,
      "קעו": 9908,
      "שורי": 9909,
      "##cy": 9910,
      "##פט": 9911,
      "היס": 9912,
      "ליף": 9913,
      "לייה": 9914,
      "במלחמ": 9915,
      "לשל": 9916,
      "אפק": 9917,
      "וכרים": 9918,
      "דרנ": 9919,
      "קטיב": 9920,
      "רחל": 9921,
      "יבט": 9922,
      "כנר": 9923,
      "ther": 9924,
      "המשפט": 9925,
      "יודעי": 9926,
      "נתניה": 9927,
      "stop": 9928,
      "פקים": 9929,
      "הסיפו": 9930,
      "ששם": 9931,
      "force": 9932,
      "dio": 9933,
      "medi": 9934,
      "phd": 9935,
      "צהרי": 9936,
      "המכונ": 9937,
      "fair": 9938,
      "wifi": 9939,
      "lyn": 9940,
      "quest": 9941,
      "ebay": 9942,
      "trip": 9943,
      "!!!": 9944,
      "summ": 9945,
      "??": 9946,
      "aga": 9947,
      "dent": 9948,
      "ee": 9949,
      "eff": 9950,
      "iot": 9951,
      "ling": 9952,
      "mount": 9953,
      "ole": 9954,
      "rou": 9955,
      "vs": 9956,
      "wri": 9957,
      "בירי": 9958,
      "זבל": 9959,
      "טני": 9960,
      "כבל": 9961,
      "קעה": 9962,
      "קסו": 9963,
      "##ach": 9964,
      "##ho": 9965,
      "שיני": 9966,
      "מעוני": 9967,
      "שמג": 9968,
      "יהא": 9969,
      "ייע": 9970,
      "הכפ": 9971,
      "הכשר": 9972,
      "לחג": 9973,
      "בהצ": 9974,
      "ויי": 9975,
      "יצג": 9976,
      "יאול": 9977,
      "rem": 9978,
      "מודר": 9979,
      "att": 9980,
      "team": 9981,
      "יביות": 9982,
      "dep": 9983,
      "ics": 9984,
      "see": 9985,
      "eli": 9986,
      "##ump": 9987,
      "spi": 9988,
      "130": 9989,
      "url": 9990,
      "דולים": 9991,
      "meta": 9992,
      "dera": 9993,
      "אלקטר": 9994,
      "cnn": 9995,
      "fami": 9996,
      "never": 9997,
      "%.": 9998,
      "cm": 9999
    }
  }
}