<unk>	0
<s>	0
</s>	0
▁ה	-0
▁א	-1
▁ל	-2
▁מ	-3
▁י	-4
▁ו	-5
▁ש	-6
▁ב	-7
▁.	-8
▁ע	-9
▁ת	-10
ות	-11
▁כ	-12
▁,	-13
ים	-14
▁ר	-15
▁נ	-16
▁ים	-17
▁ח	-18
▁של	-19
▁פ	-20
▁ק	-21
▁ות	-22
▁ס	-23
▁את	-24
ור	-25
ני	-26
▁"	-27
▁ז	-28
▁ג	-29
▁ד	-30
ול	-31
▁הי	-32
▁לא	-33
▁צ	-34
▁ט	-35
נו	-36
▁על	-37
וד	-38
בר	-39
וא	-40
▁לה	-41
ית	-42
יר	-43
וב	-44
ון	-45
▁המ	-46
יל	-47
רי	-48
די	-49
ונ	-50
▁-	-51
▁או	-52
▁אי	-53
שר	-54
ום	-55
▁הא	-56
▁אח	-57
▁1	-58
▁בי	-59
▁זה	-60
מי	-61
לי	-62
▁מה	-63
▁0	-64
נה	-65
▁כל	-66
▁?	-67
יה	-68
▁הוא	-69
וח	-70
▁מש	-71
וש	-72
ופ	-73
כל	-74
מה	-75
יב	-76
ותר	-77
▁לי	-78
וי	-79
▁בא	-80
▁שי	-81
תי	-82
▁מי	-83
▁:	-84
▁מא	-85
▁2	-86
▁ול	-87
וק	-88
▁יש	-89
▁הש	-90
וע	-91
▁אנ	-92
וצ	-93
▁עם	-94
▁אל	-95
מר	-96
בל	-97
▁הת	-98
▁אות	-99
▁הר	-100
▁שה	-101
▁הח	-102
▁כי	-103
▁(	-104
שי	-105
קר	-106
▁שא	-107
בי	-108
▁'	-109
▁בע	-110
▁אני	-111
יות	-112
▁מס	-113
▁וה	-114
▁)	-115
▁רא	-116
סי	-117
▁ן	-118
▁חי	-119
פר	-120
▁למ	-121
שה	-122
זה	-123
מו	-124
▁לו	-125
▁ם	-126
▁יותר	-127
▁רי	-128
▁מת	-129
▁היא	-130
▁תי	-131
▁ור	-132
גי	-133
▁לע	-134
▁מע	-135
מש	-136
▁הפ	-137
דר	-138
▁בר	-139
▁אחר	-140
▁אר	-141
▁גם	-142
▁מח	-143
▁נו	-144
▁ני	-145
שים	-146
▁הב	-147
את	-148
טי	-149
▁9	-150
▁יכ	-151
ומ	-152
פי	-153
▁הם	-154
ין	-155
נים	-156
▁היה	-157
טר	-158
ולם	-159
לה	-160
▁הע	-161
▁וב	-162
▁אם	-163
▁סי	-164
▁מו	-165
▁לב	-166
▁עב	-167
▁בש	-168
▁שמ	-169
▁יה	-170
▁במ	-171
▁יי	-172
דע	-173
▁מצ	-174
▁יכול	-175
▁די	-176
▁כא	-177
▁הצ	-178
▁עצ	-179
רא	-180
חר	-181
▁לפ	-182
▁מק	-183
רכ	-184
▁אבל	-185
▁הג	-186
אל	-187
▁הק	-188
▁פר	-189
▁אמ	-190
▁הכ	-191
▁רק	-192
▁3	-193
נות	-194
▁ומ	-195
בה	-196
▁הס	-197
▁לח	-198
▁יל	-199
▁לש	-200
▁דבר	-201
▁וא	-202
▁5	-203
▁חש	-204
וג	-205
▁לכ	-206
▁בה	-207
▁–	-208
▁אתה	-209
▁אחד	-210
דה	-211
▁כדי	-212
▁מל	-213
▁חל	-214
▁תק	-215
▁ראש	-216
▁יר	-217
דם	-218
▁להיות	-219
וס	-220
▁פע	-221
▁הנ	-222
▁אפ	-223
שות	-224
▁כול	-225
▁מכ	-226
זר	-227
▁4	-228
אי	-229
▁e	-230
▁צרי	-231
מן	-232
נת	-233
▁כך	-234
▁בת	-235
▁טוב	-236
▁וכ	-237
▁טי	-238
מת	-239
▁רב	-240
חנו	-241
▁חבר	-242
דים	-243
וה	-244
וך	-245
חי	-246
עה	-247
▁אנחנו	-248
▁שלי	-249
▁ישר	-250
וכ	-251
▁8	-252
▁לק	-253
▁מדי	-254
▁!	-255
▁פי	-256
▁מב	-257
▁בל	-258
▁כמו	-259
▁אנשים	-260
▁ישראל	-261
▁הל	-262
▁לל	-263
▁תח	-264
▁מר	-265
▁דר	-266
ונה	-267
▁הז	-268
▁שלה	-269
▁6	-270
▁7	-271
מים	-272
בע	-273
דול	-274
▁s	-275
נס	-276
▁ידי	-277
▁רג	-278
▁עד	-279
▁וג	-280
וט	-281
▁וס	-282
▁ית	-283
קי	-284
▁וע	-285
▁רוצ	-286
▁i	-287
▁וצ	-288
▁שלך	-289
ורה	-290
▁ביותר	-291
▁כש	-292
▁קי	-293
▁זאת	-294
▁אמר	-295
יא	-296
וף	-297
▁בכל	-298
▁קר	-299
▁שני	-300
▁היית	-301
▁אז	-302
כם	-303
▁הה	-304
▁יו	-305
▁ונ	-306
▁וי	-307
▁רצ	-308
▁האם	-309
▁ער	-310
קה	-311
▁יצ	-312
▁חד	-313
▁זמן	-314
▁זו	-315
▁כמה	-316
צע	-317
▁מפ	-318
נט	-319
חק	-320
▁יס	-321
▁שב	-322
▁אותו	-323
▁ממ	-324
ודה	-325
ילו	-326
תה	-327
▁חו	-328
כה	-329
▁בין	-330
▁ספר	-331
עות	-332
▁הו	-333
ורי	-334
▁ופ	-335
▁S	-336
▁ך	-337
▁מד	-338
יו	-339
▁אין	-340
▁עבור	-341
▁שפ	-342
▁יח	-343
▁הד	-344
▁גי	-345
ילה	-346
גל	-347
▁קצ	-348
▁עוד	-349
▁שלנו	-350
▁היו	-351
לו	-352
אר	-353
▁הזה	-354
אה	-355
▁גר	-356
חה	-357
▁רוב	-358
▁תה	-359
▁שת	-360
▁בב	-361
ולי	-362
חות	-363
▁קט	-364
▁מאוד	-365
▁אנו	-366
וני	-367
▁t	-368
▁A	-369
▁בח	-370
▁לס	-371
▁בני	-372
מיד	-373
▁צריך	-374
אים	-375
גיע	-376
מוד	-377
▁שנ	-378
▁עש	-379
▁כבר	-380
▁C	-381
▁עי	-382
▁לך	-383
▁גדול	-384
▁כמ	-385
▁לפני	-386
אות	-387
▁לת	-388
▁לאחר	-389
▁זכ	-390
▁הט	-391
▁פת	-392
▁וש	-393
▁יט	-394
זי	-395
▁תר	-396
▁איך	-397
▁יק	-398
▁אשר	-399
ירות	-400
▁הרבה	-401
▁יד	-402
ונים	-403
▁שלו	-404
▁לעשות	-405
ירה	-406
▁אך	-407
▁לצ	-408
▁נית	-409
▁נכ	-410
בד	-411
▁בו	-412
▁”	-413
▁[	-414
▁צי	-415
▁ממש	-416
▁T	-417
▁o	-418
▁חלק	-419
▁דברים	-420
▁עולם	-421
▁a	-422
▁טר	-423
סף	-424
▁שהוא	-425
כן	-426
▁רח	-427
▁נג	-428
▁ספ	-429
▁M	-430
▁כאשר	-431
▁יפ	-432
▁אתם	-433
▁ינ	-434
▁וק	-435
▁אלה	-436
▁עלי	-437
▁עדי	-438
▁רכ	-439
▁לנו	-440
▁שם	-441
▁רע	-442
▁אדם	-443
פת	-444
▁יב	-445
▁פש	-446
יע	-447
ומי	-448
▁ראשונ	-449
טה	-450
▁בט	-451
▁אחת	-452
▁עצמ	-453
▁אס	-454
גר	-455
▁P	-456
▁רוצה	-457
זור	-458
▁בס	-459
▁יום	-460
▁שלהם	-461
▁שר	-462
▁היום	-463
▁n	-464
▁אחרים	-465
▁עבודה	-466
▁נש	-467
מד	-468
ופן	-469
▁באופן	-470
▁חשב	-471
▁כת	-472
▁מז	-473
ראה	-474
עת	-475
▁ילדים	-476
▁נה	-477
▁הוד	-478
▁ורי	-479
צי	-480
▁שו	-481
▁ולא	-482
▁שלא	-483
נית	-484
דרך	-485
▁אב	-486
▁שנים	-487
▁האי	-488
ופה	-489
▁עס	-490
▁שנה	-491
▁]	-492
▁משפ	-493
ונות	-494
יים	-495
▁מספר	-496
▁רו	-497
▁אפשר	-498
▁תו	-499
▁אינ	-500
חת	-501
▁B	-502
▁איר	-503
הו	-504
▁דו	-505
▁ין	-506
יתי	-507
▁כן	-508
גע	-509
▁אלי	-510
▁לנ	-511
▁חוש	-512
▁גב	-513
▁כאן	-514
▁;	-515
▁תמיד	-516
קום	-517
▁תש	-518
רים	-519
ושה	-520
▁הייתה	-521
מנ	-522
▁אומר	-523
▁מט	-524
▁בג	-525
שת	-526
ובה	-527
▁בית	-528
▁השת	-529
..	-530
▁עני	-531
בין	-532
▁ודע	-533
▁כולים	-534
ינ	-535
הב	-536
▁מדינה	-537
שור	-538
▁er	-539
▁r	-540
▁בכ	-541
▁אותם	-542
▁I	-543
▁בק	-544
▁בנו	-545
ורך	-546
לות	-547
סט	-548
▁אחרי	-549
▁תפ	-550
▁עכ	-551
יבה	-552
▁“	-553
▁במה	-554
▁קוד	-555
גיש	-556
▁נפ	-557
▁פעם	-558
ולה	-559
▁ימ	-560
▁רבים	-561
לך	-562
▁להם	-563
▁נים	-564
▁תכ	-565
לת	-566
on	-567
▁יהיה	-568
▁משהו	-569
▁ריק	-570
▁D	-571
▁עיל	-572
▁לכל	-573
▁שימ	-574
▁סב	-575
רט	-576
▁/	-577
▁תע	-578
▁החל	-579
▁c	-580
▁סוג	-581
פור	-582
▁ניתן	-583
מצ	-584
▁ראשון	-585
▁כוח	-586
דת	-587
▁הכל	-588
▁למה	-589
▁לג	-590
▁אותה	-591
▁טיפ	-592
▁פור	-593
או	-594
▁מג	-595
▁להת	-596
שיו	-597
▁עכשיו	-598
▁פשוט	-599
▁סכ	-600
▁שאני	-601
ברה	-602
▁אולי	-603
דו	-604
▁חוק	-605
▁בשנת	-606
▁עדיין	-607
▁שלכם	-608
▁חשוב	-609
▁אף	-610
▁צפ	-611
▁סט	-612
he	-613
▁יוד	-614
נוי	-615
וון	-616
▁W	-617
▁כנ	-618
▁קור	-619
▁מטר	-620
▁מן	-621
▁שהם	-622
▁להי	-623
▁קב	-624
ודי	-625
▁ף	-626
▁הן	-627
▁אפילו	-628
▁שכ	-629
▁חז	-630
רכת	-631
▁כר	-632
▁ברי	-633
▁דרך	-634
דש	-635
▁נק	-636
▁מלח	-637
קד	-638
▁תל	-639
▁בעולם	-640
▁קה	-641
▁ללא	-642
▁שיש	-643
▁H	-644
▁נות	-645
▁לרא	-646
▁G	-647
▁למע	-648
▁לד	-649
▁אלא	-650
▁בחי	-651
▁שימוש	-652
▁יע	-653
▁חושב	-654
וחד	-655
▁באמ	-656
▁מיוחד	-657
▁טע	-658
▁L	-659
▁שוב	-660
▁באמצע	-661
▁בנ	-662
▁צר	-663
לא	-664
קרים	-665
▁ָ	-666
▁באמת	-667
▁E	-668
▁חייב	-669
▁התח	-670
קט	-671
▁תמ	-672
▁לוה	-673
▁וד	-674
▁צע	-675
▁לראות	-676
ar	-677
▁מערכת	-678
▁ויות	-679
▁וח	-680
▁ואת	-681
▁לוהים	-682
▁F	-683
▁תנ	-684
▁לכם	-685
▁...	-686
▁האדם	-687
▁R	-688
צד	-689
ואה	-690
▁בז	-691
▁ְ	-692
ורים	-693
▁הייתי	-694
ובר	-695
an	-696
מין	-697
תר	-698
▁רפ	-699
▁קשה	-700
▁קל	-701
▁החיים	-702
▁כם	-703
or	-704
▁חיים	-705
▁במהלך	-706
▁מנ	-707
▁יני	-708
▁ץ	-709
גון	-710
▁משת	-711
▁עק	-712
▁שום	-713
▁רוצים	-714
בים	-715
▁פרס	-716
כות	-717
▁זר	-718
▁בדרך	-719
▁פני	-720
דות	-721
▁d	-722
▁נשים	-723
▁הול	-724
▁המש	-725
es	-726
▁מרכ	-727
▁נמצ	-728
▁צריכ	-729
▁בשב	-730
▁N	-731
▁סמ	-732
מות	-733
משך	-734
al	-735
▁בבית	-736
▁ילי	-737
▁אותי	-738
▁שאתה	-739
▁אוהב	-740
▁שינוי	-741
▁יודע	-742
שהו	-743
זו	-744
▁בדי	-745
▁קו	-746
▁טיפול	-747
גיה	-748
▁נראה	-749
▁עוב	-750
▁גבר	-751
▁אלו	-752
▁עבר	-753
▁מקום	-754
▁שמעות	-755
in	-756
▁ולי	-757
▁סיפור	-758
▁דינות	-759
▁חדש	-760
▁m	-761
▁רבות	-762
▁פעמים	-763
▁לאומי	-764
שב	-765
▁ערכ	-766
▁נע	-767
▁היתה	-768
▁קבל	-769
▁מנה	-770
▁עסק	-771
▁נס	-772
▁שתי	-773
דל	-774
קרה	-775
▁פרי	-776
▁ּ	-777
▁in	-778
▁אה	-779
▁b	-780
צור	-781
▁עניין	-782
▁ציה	-783
▁שזה	-784
▁עשר	-785
ויות	-786
▁חופ	-787
▁הופ	-788
▁לפי	-789
▁מוצ	-790
▁%	-791
ליח	-792
▁עול	-793
▁אחרונ	-794
▁יז	-795
▁אינו	-796
er	-797
▁יא	-798
▁עיר	-799
▁הבית	-800
▁סיכ	-801
טו	-802
▁חק	-803
יג	-804
טים	-805
▁איש	-806
יהם	-807
▁הרי	-808
▁כיצד	-809
▁מתח	-810
▁נטר	-811
▁מידע	-812
▁גבוה	-813
▁בסי	-814
▁פח	-815
פה	-816
▁תא	-817
▁שבו	-818
▁קבוצ	-819
בות	-820
▁O	-821
▁ברית	-822
▁פחות	-823
▁יהודי	-824
▁l	-825
▁סרט	-826
▁נגד	-827
מני	-828
▁האו	-829
▁לקבל	-830
▁כד	-831
עט	-832
▁כמעט	-833
▁תג	-834
▁טל	-835
▁כולם	-836
▁שהיא	-837
בוד	-838
▁טבע	-839
▁למצ	-840
תם	-841
ימ	-842
▁g	-843
▁עילות	-844
▁בצ	-845
▁קשור	-846
נוע	-847
יבור	-848
▁במקום	-849
ואר	-850
▁בן	-851
▁כולל	-852
קיד	-853
▁הכי	-854
▁מים	-855
▁יתר	-856
▁יכולה	-857
▁קרא	-858
▁מאז	-859
▁ארץ	-860
▁הדבר	-861
▁דור	-862
▁ארצ	-863
▁גור	-864
▁ַ	-865
▁בפ	-866
▁מלא	-867
▁רעי	-868
▁השתמש	-869
▁p	-870
▁הגדול	-871
▁אצ	-872
פשר	-873
▁מוש	-874
▁בעלי	-875
▁שירות	-876
▁במשך	-877
▁ינו	-878
▁החברה	-879
▁נטרנט	-880
▁נח	-881
▁עצמו	-882
▁שלוש	-883
▁כפי	-884
▁באות	-885
▁ִ	-886
▁ביט	-887
▁פשר	-888
▁תוכ	-889
▁קשר	-890
▁עצמי	-891
▁ידע	-892
▁עתי	-893
וז	-894
▁שע	-895
▁וו	-896
▁כתב	-897
▁נר	-898
▁הבי	-899
▁שונים	-900
▁תם	-901
▁נוש	-902
פתח	-903
מפ	-904
ואי	-905
▁מישהו	-906
טינ	-907
▁גיל	-908
▁נת	-909
ליך	-910
▁אופ	-911
▁דרכ	-912
▁גדולה	-913
▁האלה	-914
▁אית	-915
▁צד	-916
קש	-917
ילים	-918
▁בלתי	-919
▁כלל	-920
▁הגיע	-921
▁יכולת	-922
יבות	-923
▁היר	-924
▁חס	-925
▁דק	-926
▁חזר	-927
▁עושה	-928
▁משי	-929
▁בשביל	-930
יח	-931
▁תפקיד	-932
▁למר	-933
כו	-934
חור	-935
▁ודעים	-936
▁אור	-937
ובן	-938
רב	-939
▁ולר	-940
חים	-941
מינ	-942
▁ריאות	-943
ou	-944
▁פה	-945
▁פסי	-946
ודש	-947
▁מוע	-948
▁בגל	-949
▁לסטינ	-950
▁המי	-951
▁הודים	-952
▁נא	-953
▁ימים	-954
▁למרות	-955
▁שחק	-956
▁יליון	-957
▁מכל	-958
שיא	-959
▁מהם	-960
▁נכון	-961
▁ארצות	-962
▁תהיה	-963
▁גל	-964
▁דוג	-965
פיק	-966
▁בתוך	-967
▁סוף	-968
▁רוח	-969
טת	-970
▁בגלל	-971
▁ממשלה	-972
חו	-973
▁באו	-974
▁עמ	-975
▁ילד	-976
▁תוכל	-977
ורת	-978
▁רסי	-979
ביר	-980
ינו	-981
▁בעי	-982
▁בשל	-983
▁לכן	-984
▁רט	-985
▁ראה	-986
כנו	-987
▁הנה	-988
▁מגיע	-989
מבר	-990
ביע	-991
▁שק	-992
דעת	-993
ורר	-994
▁לדעת	-995
▁בקר	-996
הם	-997
נם	-998
▁שעות	-999
▁סדר	-1000
▁פל	-1001
▁מלחמה	-1002
▁קול	-1003
וצר	-1004
▁ספק	-1005
▁וספ	-1006
▁באר	-1007
▁יחד	-1008
▁וכנית	-1009
▁למצוא	-1010
▁בדיוק	-1011
▁לדבר	-1012
▁חברות	-1013
▁בינ	-1014
▁בלי	-1015
▁המו	-1016
▁מוס	-1017
▁ערך	-1018
▁ביום	-1019
▁העיר	-1020
▁בזמן	-1021
▁אותך	-1022
▁אד	-1023
▁מתוך	-1024
▁לגבי	-1025
▁לוגי	-1026
▁פעולה	-1027
עם	-1028
▁אירוע	-1029
▁נמצא	-1030
▁ריקאי	-1031
▁קומ	-1032
▁משר	-1033
▁כזה	-1034
▁אחרת	-1035
▁f	-1036
▁10	-1037
▁שט	-1038
▁כיוון	-1039
▁ועל	-1040
וץ	-1041
▁קצוע	-1042
▁ומר	-1043
▁הזו	-1044
en	-1045
▁חזק	-1046
גש	-1047
פק	-1048
▁לשמ	-1049
▁משרד	-1050
▁להפ	-1051
▁נצ	-1052
▁אוני	-1053
▁ובדים	-1054
▁תהליך	-1055
כב	-1056
ווה	-1057
וחר	-1058
om	-1059
▁נוס	-1060
▁וגם	-1061
▁הזד	-1062
▁אוניב	-1063
▁השני	-1064
▁מות	-1065
▁וט	-1066
at	-1067
▁שבה	-1068
יבי	-1069
▁ואני	-1070
סה	-1071
עו	-1072
▁רש	-1073
▁’	-1074
▁קצת	-1075
▁תוך	-1076
▁הצל	-1077
▁סוכ	-1078
▁השנה	-1079
▁כסף	-1080
▁לכך	-1081
▁קיב	-1082
▁יין	-1083
▁מעט	-1084
▁חר	-1085
▁דא	-1086
▁מדובר	-1087
צב	-1088
▁סור	-1089
▁מספיק	-1090
▁תונים	-1091
▁חברתי	-1092
▁פתר	-1093
▁הזאת	-1094
▁כני	-1095
▁מדוע	-1096
ודת	-1097
▁רד	-1098
▁לפחות	-1099
▁ארגון	-1100
▁חמ	-1101
▁בחר	-1102
▁עשו	-1103
▁טובה	-1104
▁שיע	-1105
▁והוא	-1106
▁The	-1107
▁וסי	-1108
▁יור	-1109
▁כיום	-1110
▁סופ	-1111
ילי	-1112
▁וזה	-1113
▁הדרך	-1114
▁וצרים	-1115
▁וריה	-1116
▁עליו	-1117
st	-1118
▁למש	-1119
▁ברח	-1120
▁קודם	-1121
▁בצורה	-1122
▁u	-1123
▁וצאות	-1124
▁אולם	-1125
▁זהו	-1126
ווח	-1127
▁כלו	-1128
▁עית	-1129
▁בד	-1130
▁נוח	-1131
ליט	-1132
▁ציא	-1133
▁תנו	-1134
re	-1135
▁חת	-1136
▁בהם	-1137
▁מאו	-1138
כת	-1139
▁רוס	-1140
▁תקופה	-1141
▁האמ	-1142
▁אוכל	-1143
▁יג	-1144
▁סו	-1145
▁בטוח	-1146
שוב	-1147
▁מול	-1148
▁צו	-1149
▁סג	-1150
▁אחרות	-1151
▁קצר	-1152
▁רכב	-1153
▁ארה	-1154
▁בעיות	-1155
▁קבוצה	-1156
▁הפר	-1157
▁בוא	-1158
▁איזה	-1159
▁ירוש	-1160
▁לפת	-1161
▁לקר	-1162
▁עזר	-1163
▁המח	-1164
▁כמובן	-1165
▁רגע	-1166
▁ידוע	-1167
▁עוש	-1168
▁מוק	-1169
ion	-1170
▁נוכ	-1171
▁משתמש	-1172
וקר	-1173
▁יניים	-1174
▁מאשר	-1175
▁צב	-1176
▁ון	-1177
חון	-1178
▁להבין	-1179
▁סביב	-1180
נק	-1181
▁סטר	-1182
▁לוק	-1183
▁־	-1184
אם	-1185
nd	-1186
▁בול	-1187
▁להגיע	-1188
▁אש	-1189
▁אק	-1190
▁מנת	-1191
▁ֶ	-1192
▁עושים	-1193
שא	-1194
▁אג	-1195
▁שלושה	-1196
טרה	-1197
רח	-1198
▁לעולם	-1199
שיך	-1200
▁הזדמנ	-1201
סו	-1202
▁אמיתי	-1203
פיע	-1204
▁נדר	-1205
▁ניה	-1206
▁בעיקר	-1207
▁ההי	-1208
▁סוגל	-1209
▁אינם	-1210
▁עלה	-1211
▁מדיני	-1212
▁נד	-1213
▁תוצ	-1214
▁בלבד	-1215
▁ברור	-1216
▁תלמיד	-1217
▁וף	-1218
ומת	-1219
▁תוצאה	-1220
▁מרי	-1221
▁טובים	-1222
▁בוע	-1223
▁כו	-1224
▁מוד	-1225
▁מונ	-1226
▁רוי	-1227
▁תחיל	-1228
ודות	-1229
▁וני	-1230
▁מעל	-1231
▁וקר	-1232
▁אותנו	-1233
▁כה	-1234
▁מור	-1235
▁זכוי	-1236
▁מדע	-1237
▁לט	-1238
▁בעוד	-1239
▁ומרים	-1240
ro	-1241
▁לתת	-1242
גד	-1243
▁למעשה	-1244
▁קיים	-1245
▁נט	-1246
▁V	-1247
▁U	-1248
מוך	-1249
▁רשי	-1250
▁ירופה	-1251
▁בכך	-1252
רו	-1253
▁חברת	-1254
פש	-1255
▁לזה	-1256
קרי	-1257
▁שג	-1258
▁בנוסף	-1259
▁וליטי	-1260
▁יחי	-1261
▁שאתם	-1262
▁אצל	-1263
▁ואז	-1264
▁מעבר	-1265
▁רשת	-1266
▁שאלה	-1267
מודד	-1268
▁תמודד	-1269
זרח	-1270
▁השא	-1271
וביל	-1272
▁אינה	-1273
▁נב	-1274
▁קטן	-1275
▁יהיו	-1276
▁וז	-1277
▁ובר	-1278
▁כנס	-1279
▁חסר	-1280
▁עומ	-1281
▁פחד	-1282
▁חברים	-1283
▁קורה	-1284
▁עומד	-1285
▁ללמוד	-1286
▁מתחיל	-1287
▁ווי	-1288
▁מכן	-1289
▁לר	-1290
▁יית	-1291
▁תינו	-1292
▁באי	-1293
▁ומה	-1294
▁חול	-1295
▁רחב	-1296
▁ציבור	-1297
▁התחיל	-1298
▁קרה	-1299
il	-1300
▁יקר	-1301
▁בכלל	-1302
▁לקחת	-1303
ra	-1304
▁לז	-1305
תיים	-1306
שרי	-1307
▁אחרון	-1308
▁יהם	-1309
ביא	-1310
▁ייר	-1311
▁פית	-1312
▁הרג	-1313
▁זי	-1314
▁שונות	-1315
▁מרגיש	-1316
▁פרק	-1317
▁מחקר	-1318
ריך	-1319
▁למי	-1320
▁חמי	-1321
▁תינוק	-1322
▁שיר	-1323
▁גד	-1324
▁יחס	-1325
▁גברים	-1326
▁לעת	-1327
▁פק	-1328
▁en	-1329
▁ועד	-1330
▁מחיר	-1331
▁מקור	-1332
▁משפט	-1333
▁חירות	-1334
▁״	-1335
▁ודר	-1336
▁w	-1337
▁יטחון	-1338
▁הללו	-1339
▁לימוד	-1340
▁מילים	-1341
▁אהב	-1342
▁מתי	-1343
▁פא	-1344
▁בוצ	-1345
▁תייח	-1346
▁תייחס	-1347
▁עשה	-1348
▁זוכ	-1349
▁ירות	-1350
▁לעזור	-1351
▁סיבות	-1352
▁טכנו	-1353
▁לוגיה	-1354
▁מקומי	-1355
▁צריכה	-1356
▁בתח	-1357
▁עשי	-1358
▁גופ	-1359
▁צמ	-1360
ol	-1361
▁בעל	-1362
▁מנס	-1363
▁נסי	-1364
▁כלי	-1365
▁נוסף	-1366
▁מיי	-1367
▁חינו	-1368
▁לבד	-1369
▁נרגיה	-1370
▁ינג	-1371
▁פוס	-1372
▁תמי	-1373
▁החדש	-1374
▁ציאות	-1375
▁of	-1376
▁איכות	-1377
▁נז	-1378
לק	-1379
ic	-1380
זיק	-1381
▁טבעי	-1382
▁רואה	-1383
טיח	-1384
▁קורא	-1385
▁חדשות	-1386
▁משפחה	-1387
▁לומר	-1388
▁שנייה	-1389
▁שתמש	-1390
סק	-1391
▁היל	-1392
▁קוח	-1393
▁לעבוד	-1394
▁חודש	-1395
▁זק	-1396
▁מצב	-1397
לם	-1398
יש	-1399
▁ליצור	-1400
▁תב	-1401
▁כלכ	-1402
▁משק	-1403
▁פורס	-1404
et	-1405
▁סק	-1406
▁יסי	-1407
▁רויקט	-1408
▁דקות	-1409
▁ירי	-1410
▁חינוך	-1411
▁ing	-1412
▁כעת	-1413
▁קומות	-1414
צר	-1415
▁הבא	-1416
▁עובד	-1417
▁קרי	-1418
▁עשוי	-1419
▁עמד	-1420
▁עיקרי	-1421
▁הסי	-1422
▁מזון	-1423
נון	-1424
▁קשורת	-1425
▁חצי	-1426
▁פשרות	-1427
el	-1428
▁אפשרי	-1429
▁כתוב	-1430
▁פיתוח	-1431
▁on	-1432
▁דומה	-1433
▁מרכזי	-1434
▁להצ	-1435
▁מסע	-1436
▁ליל	-1437
▁ולה	-1438
▁רבה	-1439
▁שאל	-1440
▁כוחות	-1441
▁אוו	-1442
▁הירות	-1443
▁סל	-1444
▁חברה	-1445
▁מני	-1446
▁קיבל	-1447
▁סת	-1448
▁תחת	-1449
▁הכול	-1450
▁משחק	-1451
▁עסקים	-1452
▁השנים	-1453
▁יף	-1454
▁מוות	-1455
▁לוח	-1456
רבי	-1457
▁לעתים	-1458
▁הלא	-1459
▁שלום	-1460
▁דמ	-1461
▁למשל	-1462
▁תמונה	-1463
▁נצי	-1464
▁ניהול	-1465
▁טלפ	-1466
▁חוס	-1467
כי	-1468
▁יון	-1469
▁אמור	-1470
▁החוק	-1471
▁מחדש	-1472
▁נשאר	-1473
▁אהבה	-1474
▁ספור	-1475
▁הגוף	-1476
▁חשבון	-1477
ch	-1478
▁מקרים	-1479
▁איפה	-1480
▁חופש	-1481
▁שונה	-1482
▁נקר	-1483
▁אנשי	-1484
▁עצמם	-1485
▁רגיל	-1486
▁כלכלי	-1487
▁תשובה	-1488
חל	-1489
▁אחוז	-1490
▁כאלה	-1491
▁ֵ	-1492
▁תיק	-1493
▁התפתח	-1494
▁עתיד	-1495
▁אן	-1496
▁ערב	-1497
▁האמת	-1498
▁גבוהה	-1499
רחש	-1500
▁בתי	-1501
▁לבית	-1502
▁ירה	-1503
▁ירושל	-1504
נהג	-1505
▁ימי	-1506
▁טרי	-1507
▁הבינ	-1508
▁שאלות	-1509
▁מופ	-1510
▁ארבע	-1511
▁צורך	-1512
▁אוויר	-1513
▁ספרים	-1514
ועל	-1515
▁צוות	-1516
▁היט	-1517
▁ונד	-1518
▁מדבר	-1519
▁מכיר	-1520
▁גישה	-1521
▁מצאים	-1522
▁יכר	-1523
▁וצר	-1524
▁שש	-1525
▁אמנות	-1526
ri	-1527
והי	-1528
▁פוט	-1529
▁התנ	-1530
▁דע	-1531
▁נגל	-1532
טות	-1533
▁חדשים	-1534
ותפ	-1535
▁גדל	-1536
▁חיפ	-1537
▁לנד	-1538
▁רווח	-1539
▁פט	-1540
▁שול	-1541
▁מין	-1542
קע	-1543
▁שמח	-1544
▁המשיך	-1545
▁עולמי	-1546
▁מצא	-1547
▁קד	-1548
מל	-1549
▁שלב	-1550
▁מעולם	-1551
▁קס	-1552
▁שפה	-1553
▁בתחום	-1554
▁למד	-1555
▁הורים	-1556
▁וספים	-1557
▁מחשב	-1558
▁ככל	-1559
▁מנהיג	-1560
קור	-1561
▁וזי	-1562
▁דרכים	-1563
▁דוד	-1564
▁הפך	-1565
▁באותו	-1566
בק	-1567
תב	-1568
▁ליד	-1569
▁ליש	-1570
▁אזור	-1571
▁ללכת	-1572
▁בהת	-1573
▁היש	-1574
▁כולנו	-1575
▁האל	-1576
▁שאין	-1577
▁חומר	-1578
▁שרת	-1579
▁יוכל	-1580
▁ודשים	-1581
▁תרבות	-1582
▁לשמור	-1583
על	-1584
▁ביח	-1585
▁יפה	-1586
▁שומ	-1587
נהל	-1588
▁רגש	-1589
▁J	-1590
וצא	-1591
▁רס	-1592
▁כגון	-1593
▁משום	-1594
ופו	-1595
▁רות	-1596
▁נכנס	-1597
▁כאב	-1598
▁ערכות	-1599
לום	-1600
▁נקרא	-1601
▁עולה	-1602
▁יבורי	-1603
▁חופשי	-1604
למ	-1605
▁ביצ	-1606
▁יסיון	-1607
▁בנים	-1608
ובל	-1609
▁טק	-1610
▁אינט	-1611
▁דרג	-1612
▁מסו	-1613
▁נשיא	-1614
▁לחץ	-1615
ay	-1616
▁צפון	-1617
▁קצועי	-1618
▁כדור	-1619
▁מדינת	-1620
▁תחילה	-1621
▁ורג	-1622
▁באתר	-1623
▁ברחבי	-1624
▁שכל	-1625
▁פג	-1626
▁להפוך	-1627
▁מאוחר	-1628
אש	-1629
▁אילו	-1630
▁אמא	-1631
▁דג	-1632
▁קונ	-1633
▁אט	-1634
▁K	-1635
▁אליו	-1636
▁the	-1637
▁פתי	-1638
▁לאורך	-1639
▁ארוכ	-1640
▁טוד	-1641
כמ	-1642
ופא	-1643
ירו	-1644
▁חוץ	-1645
▁הצלחה	-1646
פל	-1647
▁ממנו	-1648
▁מבוס	-1649
▁y	-1650
▁כנראה	-1651
▁רומ	-1652
▁שעה	-1653
▁מונות	-1654
▁ואי	-1655
▁יצא	-1656
▁טרא	-1657
בוע	-1658
▁קנ	-1659
תפ	-1660
▁בקרב	-1661
▁מוכ	-1662
▁מית	-1663
▁אמרה	-1664
▁בשנה	-1665
▁עקב	-1666
▁קש	-1667
▁אחורי	-1668
▁שחר	-1669
▁שלישי	-1670
▁טלו	-1671
יי	-1672
▁צבע	-1673
כון	-1674
▁וֹ	-1675
▁פתרון	-1676
▁הטוב	-1677
▁גז	-1678
▁בעיה	-1679
▁רעיון	-1680
▁דמי	-1681
▁נדרש	-1682
▁רוא	-1683
▁חדשה	-1684
▁יחסי	-1685
▁עובדה	-1686
▁מפל	-1687
▁שהו	-1688
▁שנת	-1689
▁הולך	-1690
▁ורות	-1691
▁וקרטי	-1692
▁טודנט	-1693
▁לקרוא	-1694
▁רפואי	-1695
שיג	-1696
▁להשיג	-1697
▁היסט	-1698
▁הגנה	-1699
▁החלטה	-1700
▁בור	-1701
▁רוץ	-1702
▁חדר	-1703
▁תודה	-1704
▁חמש	-1705
▁יציר	-1706
▁ביצוע	-1707
▁חרי	-1708
▁מבוסס	-1709
▁ינה	-1710
▁צטר	-1711
▁דומ	-1712
▁לקח	-1713
▁נול	-1714
▁תחילת	-1715
▁מפת	-1716
▁עונה	-1717
▁תמיכה	-1718
▁מורה	-1719
▁עבד	-1720
▁מסוי	-1721
▁תחר	-1722
▁אירופ	-1723
▁חריות	-1724
▁לשנות	-1725
▁התא	-1726
▁ניס	-1727
▁פות	-1728
▁חוסר	-1729
▁כמות	-1730
▁טיבי	-1731
▁מזה	-1732
▁מפני	-1733
▁ודי	-1734
▁פיר	-1735
▁בסוף	-1736
▁הילד	-1737
▁יצוני	-1738
▁עלינו	-1739
▁היינו	-1740
▁כולות	-1741
▁al	-1742
▁נור	-1743
▁בעבר	-1744
▁יורק	-1745
▁ולכן	-1746
▁המשחק	-1747
▁עבודת	-1748
oo	-1749
▁ווד	-1750
▁St	-1751
▁אומ	-1752
▁צדק	-1753
▁במקרה	-1754
▁הים	-1755
▁המס	-1756
▁לבצע	-1757
טון	-1758
▁הפי	-1759
▁לכת	-1760
▁מדה	-1761
▁מהר	-1762
▁משא	-1763
▁עיצ	-1764
▁זכר	-1765
▁פולי	-1766
▁ביע	-1767
ow	-1768
▁נושא	-1769
▁In	-1770
▁ולט	-1771
▁לחל	-1772
▁בעת	-1773
▁יץ	-1774
▁עצמך	-1775
▁הסכם	-1776
▁קוב	-1777
▁לחשוב	-1778
▁20	-1779
▁שית	-1780
▁מאמינ	-1781
▁מלחמת	-1782
is	-1783
▁סע	-1784
▁דוגמה	-1785
▁בנושא	-1786
▁לחיות	-1787
▁רואים	-1788
▁תואר	-1789
▁חוקי	-1790
▁התנהג	-1791
▁ואם	-1792
▁תכנית	-1793
▁הצב	-1794
▁לגר	-1795
▁תרופ	-1796
▁בסופו	-1797
▁ממשלת	-1798
אן	-1799
▁המצב	-1800
▁ורמים	-1801
▁כבוד	-1802
▁השפ	-1803
▁עניינ	-1804
▁חיי	-1805
▁קוחות	-1806
▁ליפ	-1807
▁אישה	-1808
ed	-1809
▁זמ	-1810
▁שטח	-1811
▁הבע	-1812
▁ִי	-1813
▁ורד	-1814
▁נולד	-1815
▁עז	-1816
▁שרה	-1817
▁צפוי	-1818
קיע	-1819
▁ווה	-1820
▁עצמה	-1821
▁שחור	-1822
ובי	-1823
▁שווי	-1824
▁רמ	-1825
▁גוד	-1826
▁דעת	-1827
▁זכות	-1828
▁הסרט	-1829
▁ההיסט	-1830
▁נתיים	-1831
▁לחלוט	-1832
▁דאג	-1833
▁ויז	-1834
▁מצד	-1835
▁מפלג	-1836
▁פתוח	-1837
לח	-1838
▁גורם	-1839
▁פנים	-1840
▁רמני	-1841
▁שנות	-1842
▁כות	-1843
▁לבין	-1844
▁בחיים	-1845
▁ראוי	-1846
כיר	-1847
▁הרגיש	-1848
▁טרור	-1849
▁מרכז	-1850
▁תוכלו	-1851
▁סיבה	-1852
▁כלומר	-1853
am	-1854
▁החז	-1855
▁ניו	-1856
▁מאפשר	-1857
▁צעד	-1858
▁מריקה	-1859
▁בפני	-1860
it	-1861
▁בריא	-1862
▁דין	-1863
▁פרש	-1864
▁וכן	-1865
▁כשה	-1866
ve	-1867
▁עקבות	-1868
מע	-1869
▁אבא	-1870
▁ארוח	-1871
▁תקופ	-1872
▁וּ	-1873
▁אבי	-1874
▁מסר	-1875
▁קרב	-1876
▁כאילו	-1877
▁זקוק	-1878
▁התק	-1879
▁מהפ	-1880
▁בוצות	-1881
▁נעשה	-1882
▁מסוימ	-1883
▁רצון	-1884
▁שאנו	-1885
▁השאלה	-1886
▁הלי	-1887
▁רצה	-1888
ליה	-1889
▁*	-1890
▁צרכ	-1891
▁עליהם	-1892
▁אמצע	-1893
▁עו	-1894
▁הפעם	-1895
▁חברי	-1896
▁בסיס	-1897
חן	-1898
קדמ	-1899
▁הצליח	-1900
▁תת	-1901
וציא	-1902
▁בשם	-1903
▁המקום	-1904
▁רמניה	-1905
▁משפחת	-1906
▁עיצוב	-1907
▁שוק	-1908
▁מאד	-1909
▁חיפוש	-1910
▁חור	-1911
▁מקרה	-1912
▁אמרתי	-1913
▁אכ	-1914
▁מוח	-1915
▁st	-1916
▁טוע	-1917
▁המידע	-1918
▁איראן	-1919
▁h	-1920
▁מציע	-1921
▁מקבל	-1922
▁דוגמ	-1923
▁מנהל	-1924
▁בוקר	-1925
▁הולכ	-1926
le	-1927
▁המת	-1928
▁נוע	-1929
▁ביקור	-1930
▁ספורט	-1931
▁אתכם	-1932
▁יבי	-1933
▁השפעה	-1934
▁באזור	-1935
▁מטרה	-1936
▁לוקח	-1937
▁כללי	-1938
▁נגלית	-1939
▁אהוב	-1940
▁מדעי	-1941
▁אמן	-1942
זרת	-1943
▁גן	-1944
▁מבין	-1945
▁להג	-1946
▁כדאי	-1947
▁מאמר	-1948
▁ערים	-1949
▁ודעות	-1950
תף	-1951
▁תז	-1952
▁קלי	-1953
▁ציל	-1954
▁אותן	-1955
▁טלפון	-1956
ce	-1957
▁ארג	-1958
▁מוכר	-1959
▁זיה	-1960
▁30	-1961
▁הבעיה	-1962
▁ככה	-1963
▁נשק	-1964
▁והיא	-1965
▁at	-1966
▁דיק	-1967
▁גנ	-1968
▁אנושי	-1969
▁לחזור	-1970
▁מיד	-1971
▁גודל	-1972
as	-1973
▁עץ	-1974
▁ייתכן	-1975
▁לגרום	-1976
סיף	-1977
▁לון	-1978
▁עיד	-1979
▁עלול	-1980
▁הוסיף	-1981
▁ומי	-1982
▁מבקש	-1983
▁עמוק	-1984
▁אומרת	-1985
▁ודרני	-1986
▁פנימי	-1987
▁קהילה	-1988
חוד	-1989
יני	-1990
▁חומ	-1991
▁יחידה	-1992
▁סיכון	-1993
▁ויש	-1994
▁רוסיה	-1995
▁והם	-1996
▁והמ	-1997
▁עור	-1998
▁נוספת	-1999
▁שחקים	-2000
▁בגיל	-2001
▁מאות	-2002
גיעה	-2003
▁שכח	-2004
▁אנג	-2005
▁זוהי	-2006
▁כלפי	-2007
▁ויזיה	-2008
▁אתר	-2009
▁הקשר	-2010
ריכ	-2011
▁עמוד	-2012
▁שיעור	-2013
▁העם	-2014
▁מחוץ	-2015
▁Y	-2016
גרת	-2017
▁רצח	-2018
ארד	-2019
▁למען	-2020
▁בעצ	-2021
▁ראו	-2022
▁משקל	-2023
▁צרפת	-2024
▁רמת	-2025
▁לבחור	-2026
▁מיני	-2027
▁תלוי	-2028
▁רחוק	-2029
▁מגוון	-2030
חיד	-2031
▁שפחה	-2032
▁היחיד	-2033
▁מפתח	-2034
▁ליארד	-2035
▁אכן	-2036
▁דם	-2037
▁הגב	-2038
▁מסגרת	-2039
▁הקר	-2040
▁ולו	-2041
▁הסת	-2042
▁משך	-2043
▁משטרה	-2044
▁עירים	-2045
▁ואל	-2046
▁הנשיא	-2047
▁מהמ	-2048
▁מראה	-2049
טנ	-2050
כור	-2051
▁ירד	-2052
▁תוכני	-2053
▁נוכחי	-2054
▁עונ	-2055
▁ורק	-2056
▁באותה	-2057
כול	-2058
▁it	-2059
▁בהתאם	-2060
▁תגובה	-2061
▁וכל	-2062
▁שבת	-2063
ופל	-2064
▁סין	-2065
▁רגל	-2066
▁שיתוף	-2067
▁מבט	-2068
▁ערה	-2069
▁קטנה	-2070
שיר	-2071
▁במי	-2072
▁כבד	-2073
▁עלות	-2074
▁מכשיר	-2075
▁זוג	-2076
▁אמרו	-2077
▁אלב	-2078
▁ייט	-2079
▁ניתוח	-2080
▁ממה	-2081
▁המחקר	-2082
▁ראיתי	-2083
▁נהר	-2084
▁טווח	-2085
▁ארב	-2086
▁תנועה	-2087
▁עין	-2088
▁זוכר	-2089
▁הסיבה	-2090
▁פטר	-2091
▁ולים	-2092
▁שוי	-2093
▁בארה	-2094
▁שבוע	-2095
ותף	-2096
▁ויד	-2097
▁להש	-2098
▁בהן	-2099
▁דוק	-2100
▁15	-2101
▁גש	-2102
▁רסיטת	-2103
▁סוכנ	-2104
▁קהיל	-2105
▁שמות	-2106
▁זרחים	-2107
▁הנו	-2108
▁תקי	-2109
▁עצב	-2110
▁חלוק	-2111
▁סביבה	-2112
▁ברגע	-2113
▁לספק	-2114
ליק	-2115
▁שינה	-2116
וצע	-2117
▁ממוצע	-2118
▁בסדר	-2119
▁כז	-2120
▁וות	-2121
▁לבן	-2122
▁בעיר	-2123
▁תחרות	-2124
▁טרט	-2125
▁אלף	-2126
▁ביל	-2127
▁כונות	-2128
▁וזיקה	-2129
▁גרם	-2130
▁החד	-2131
▁ניצ	-2132
▁ציר	-2133
▁פרופ	-2134
▁ריב	-2135
▁תיא	-2136
▁מחלה	-2137
▁שאר	-2138
חב	-2139
▁קהל	-2140
▁טרטגי	-2141
ופי	-2142
▁בואו	-2143
▁מנסה	-2144
▁למעלה	-2145
▁לעומת	-2146
▁מטרות	-2147
▁הלו	-2148
▁גוף	-2149
▁חיובי	-2150
▁רוד	-2151
▁שאת	-2152
▁מוביל	-2153
▁קבוע	-2154
▁ועוד	-2155
▁מטוס	-2156
▁פרטים	-2157
us	-2158
▁חמד	-2159
▁מוג	-2160
▁קיי	-2161
▁שיו	-2162
▁האתר	-2163
▁תעופה	-2164
▁לתוך	-2165
▁הקרוב	-2166
▁ייצור	-2167
▁re	-2168
▁גיד	-2169
▁לנס	-2170
▁לצאת	-2171
▁אזר	-2172
▁מצרים	-2173
▁חפ	-2174
▁צוי	-2175
▁פס	-2176
▁שמו	-2177
▁שמי	-2178
▁תקן	-2179
▁משמש	-2180
▁המאה	-2181
▁למנוע	-2182
▁שבע	-2183
▁ישנם	-2184
▁להביא	-2185
▁צרפ	-2186
▁קיץ	-2187
▁פועל	-2188
▁ארבעה	-2189
▁הקו	-2190
▁רצונ	-2191
▁דיווח	-2192
▁דנ	-2193
▁לגמ	-2194
▁רוע	-2195
▁בריטנ	-2196
▁קטנים	-2197
▁12	-2198
▁ריח	-2199
▁לילה	-2200
▁עזרה	-2201
▁פתח	-2202
רת	-2203
▁קודות	-2204
▁סביר	-2205
מלי	-2206
▁ולל	-2207
▁שפט	-2208
▁לגמרי	-2209
▁עיתים	-2210
טיס	-2211
▁צרפתי	-2212
▁כס	-2213
▁ושר	-2214
▁טור	-2215
▁שכנ	-2216
▁שאינ	-2217
▁זמין	-2218
▁מוקד	-2219
▁אזרחי	-2220
▁מעמד	-2221
▁גא	-2222
▁מלון	-2223
סיק	-2224
▁סופר	-2225
▁מצליח	-2226
▁לשם	-2227
▁סיכוי	-2228
▁נן	-2229
▁ובל	-2230
▁בארץ	-2231
▁חוצ	-2232
▁פיל	-2233
▁עשיר	-2234
▁מכר	-2235
▁שמש	-2236
▁לחם	-2237
▁תקופת	-2238
▁כור	-2239
▁שמר	-2240
▁דתי	-2241
בור	-2242
▁תס	-2243
▁לול	-2244
▁אישית	-2245
▁ונה	-2246
▁שופ	-2247
▁סרטן	-2248
▁ארגונ	-2249
▁דח	-2250
▁בועות	-2251
▁ירא	-2252
▁עליה	-2253
▁שווה	-2254
▁v	-2255
▁רוחני	-2256
חלט	-2257
▁אסור	-2258
▁החדשה	-2259
▁דפ	-2260
▁עליך	-2261
▁איתנו	-2262
▁שקט	-2263
▁פוליט	-2264
▁ונג	-2265
▁תקשר	-2266
▁הופך	-2267
▁מאבק	-2268
▁לם	-2269
▁גלה	-2270
▁נמו	-2271
▁וסף	-2272
▁אישי	-2273
▁קבלת	-2274
▁הסביר	-2275
▁רגשות	-2276
קוח	-2277
▁טומ	-2278
▁יהן	-2279
▁כרטיס	-2280
▁בשר	-2281
▁בהחלט	-2282
▁שנית	-2283
▁שניים	-2284
▁עולות	-2285
▁יצירת	-2286
▁שליטה	-2287
▁גו	-2288
▁דורש	-2289
▁הרכב	-2290
▁מספק	-2291
גיד	-2292
וגר	-2293
▁בהי	-2294
▁הלב	-2295
▁חייו	-2296
▁מכיל	-2297
▁להגיד	-2298
▁מורכב	-2299
▁הדי	-2300
▁ונן	-2301
▁חוב	-2302
▁ריצ	-2303
▁פאר	-2304
▁דרוש	-2305
▁דה	-2306
▁החליט	-2307
▁שח	-2308
▁עדיף	-2309
▁בשנים	-2310
▁קבוצת	-2311
▁השם	-2312
▁ירת	-2313
▁משפטי	-2314
▁היכ	-2315
▁ייס	-2316
▁מאה	-2317
▁דל	-2318
▁וגר	-2319
▁יתה	-2320
▁מתו	-2321
▁איזו	-2322
▁אלפי	-2323
▁כותב	-2324
▁לאכול	-2325
▁מטופל	-2326
▁ראשית	-2327
▁דלת	-2328
▁יחודי	-2329
ut	-2330
▁לסי	-2331
▁ניח	-2332
▁צליח	-2333
▁מקורי	-2334
▁מעור	-2335
גישה	-2336
▁תעורר	-2337
▁פיק	-2338
▁יודעת	-2339
▁בטח	-2340
▁סייע	-2341
▁דרום	-2342
▁שיבות	-2343
▁אופן	-2344
▁ישום	-2345
▁and	-2346
▁ביא	-2347
▁דיבר	-2348
▁רותים	-2349
▁ארוך	-2350
▁ופול	-2351
▁כלכל	-2352
▁מופיע	-2353
▁ריקני	-2354
▁תקנ	-2355
▁ביקש	-2356
▁קרקע	-2357
▁סדרה	-2358
▁ביטוי	-2359
▁בשלב	-2360
▁סון	-2361
▁רשות	-2362
▁וקרים	-2363
▁זמינ	-2364
▁טובות	-2365
▁מתאים	-2366
▁כבי	-2367
▁יוצא	-2368
▁ירותי	-2369
▁הגיעו	-2370
▁מזל	-2371
▁לכתוב	-2372
▁התנגד	-2373
ac	-2374
▁שדה	-2375
▁מבנה	-2376
▁ציות	-2377
▁העביר	-2378
אימ	-2379
▁מומ	-2380
▁אמונה	-2381
▁הישאר	-2382
▁יימים	-2383
▁בוד	-2384
▁ירוק	-2385
▁מושג	-2386
▁מתן	-2387
▁תוש	-2388
▁to	-2389
▁ריה	-2390
▁בסיסי	-2391
▁תנאים	-2392
▁רווי	-2393
▁בעצם	-2394
▁הבאה	-2395
▁מלאה	-2396
▁בחינה	-2397
▁חולים	-2398
▁שפחות	-2399
▁ייך	-2400
▁שמאל	-2401
▁סמכ	-2402
▁זיהו	-2403
▁מתרחש	-2404
▁וצג	-2405
▁ספי	-2406
▁יסוד	-2407
▁יילים	-2408
▁לקנות	-2409
וו	-2410
▁המע	-2411
▁מסת	-2412
▁tion	-2413
▁היטב	-2414
▁בחירה	-2415
▁חט	-2416
▁ידת	-2417
▁מתחת	-2418
▁ום	-2419
▁ריד	-2420
ושי	-2421
▁ארי	-2422
▁בטיח	-2423
▁התחלה	-2424
▁עשיית	-2425
▁עלמ	-2426
▁הטבע	-2427
▁היות	-2428
▁סיק	-2429
▁מעשי	-2430
▁מרחק	-2431
▁נשמע	-2432
▁איחוד	-2433
▁חוו	-2434
▁המים	-2435
▁פורט	-2436
▁ביטוח	-2437
▁לבנות	-2438
▁ווע	-2439
▁חיה	-2440
▁טראמפ	-2441
▁זב	-2442
▁נוצר	-2443
▁שמע	-2444
▁בנה	-2445
▁נהג	-2446
▁לימות	-2447
▁קיימת	-2448
▁הוכ	-2449
עיל	-2450
▁הני	-2451
▁תנאי	-2452
▁ברז	-2453
▁לשחק	-2454
▁מבצע	-2455
▁ענ	-2456
▁דיר	-2457
▁דיון	-2458
▁•	-2459
▁קפה	-2460
▁במצב	-2461
▁חקנים	-2462
▁האד	-2463
▁בחודש	-2464
▁שויים	-2465
קדמי	-2466
▁אקדמי	-2467
ot	-2468
▁k	-2469
▁עצמנו	-2470
מנע	-2471
יאון	-2472
▁אנטי	-2473
▁זיאון	-2474
▁תשלום	-2475
▁נאמר	-2476
▁לעבור	-2477
▁בראש	-2478
▁גרוע	-2479
▁ליי	-2480
▁מאמין	-2481
▁מועמד	-2482
▁נציאל	-2483
▁רשימה	-2484
▁כוונ	-2485
▁שיפור	-2486
▁גול	-2487
▁פתע	-2488
▁מעורב	-2489
▁גיט	-2490
▁חזרה	-2491
▁50	-2492
▁עוצ	-2493
▁נכונה	-2494
▁שאי	-2495
▁בידי	-2496
▁אפר	-2497
▁ומן	-2498
▁נצל	-2499
▁שהיו	-2500
▁הביתה	-2501
▁מקווה	-2502
▁אמת	-2503
▁תוכן	-2504
▁ונדון	-2505
▁מערבי	-2506
וקא	-2507
▁במס	-2508
▁קטר	-2509
▁להגן	-2510
▁דווקא	-2511
▁השבוע	-2512
▁כח	-2513
▁אחראי	-2514
ונית	-2515
▁אבד	-2516
▁לין	-2517
▁היכנס	-2518
▁כונית	-2519
▁לוט	-2520
▁עורר	-2521
▁ation	-2522
▁בפעם	-2523
▁נחשב	-2524
▁עשרה	-2525
▁תן	-2526
▁פים	-2527
▁לנסות	-2528
▁סוריה	-2529
▁פוסט	-2530
▁ושבים	-2531
▁קף	-2532
▁עצמכם	-2533
▁ילא	-2534
▁שלם	-2535
▁שמה	-2536
▁סיפר	-2537
▁ביחד	-2538
▁נבחר	-2539
▁פשרוי	-2540
חרי	-2541
▁שיה	-2542
▁פרסום	-2543
ec	-2544
▁חג	-2545
▁דוגמא	-2546
▁יקורת	-2547
▁ינואר	-2548
▁שלח	-2549
▁רדה	-2550
▁ובב	-2551
▁כוכ	-2552
▁פורסם	-2553
▁יטר	-2554
▁סוגי	-2555
▁בזה	-2556
▁לוג	-2557
▁קדם	-2558
▁יוצר	-2559
▁משפיע	-2560
▁גרס	-2561
▁נהל	-2562
▁וין	-2563
▁כזו	-2564
▁מאמ	-2565
▁שומר	-2566
▁המטרה	-2567
▁הרוג	-2568
▁סכים	-2569
▁חקרים	-2570
▁נקודת	-2571
▁עסקי	-2572
▁רכיש	-2573
▁תשומת	-2574
ad	-2575
▁להס	-2576
▁נזק	-2577
▁תכנ	-2578
▁שלוח	-2579
▁הפסיק	-2580
▁גמר	-2581
▁שיל	-2582
▁חרונה	-2583
▁הרש	-2584
▁בתור	-2585
▁הכנס	-2586
▁פורמ	-2587
▁מך	-2588
▁חזור	-2589
▁השר	-2590
▁יתי	-2591
▁פריקה	-2592
ביב	-2593
▁יקום	-2594
▁בחינת	-2595
▁שחקן	-2596
▁בעלות	-2597
▁ינוי	-2598
▁נאה	-2599
▁תני	-2600
▁הופכ	-2601
▁טן	-2602
▁כפר	-2603
▁מיר	-2604
▁קיר	-2605
▁קלים	-2606
▁פטמבר	-2607
▁ריירה	-2608
▁יזם	-2609
▁נקי	-2610
id	-2611
▁רל	-2612
▁לשלם	-2613
▁ופולר	-2614
▁יינ	-2615
▁מהו	-2616
▁צבא	-2617
▁יימ	-2618
▁לאו	-2619
▁הגדר	-2620
▁פרטי	-2621
▁ic	-2622
▁עברו	-2623
▁בריטי	-2624
▁or	-2625
▁פו	-2626
▁גזע	-2627
▁ענק	-2628
▁זהיר	-2629
▁אדמ	-2630
▁ניק	-2631
▁מוכן	-2632
▁עוצמ	-2633
▁מוגבל	-2634
▁רוך	-2635
קנ	-2636
▁כלכלה	-2637
▁הסכמ	-2638
▁שיער	-2639
▁הלאומ	-2640
▁לבו	-2641
▁משבר	-2642
▁בשבוע	-2643
▁—	-2644
▁דצ	-2645
▁עלם	-2646
▁חשבתי	-2647
▁נקודה	-2648
▁שיהיה	-2649
▁נפר	-2650
▁נתן	-2651
▁ֹ	-2652
▁זכה	-2653
▁פרו	-2654
▁רז	-2655
▁נצח	-2656
▁מונח	-2657
▁מטרת	-2658
▁נפרד	-2659
▁דון	-2660
▁ורה	-2661
▁קורות	-2662
▁מחלות	-2663
▁שויות	-2664
▁זהב	-2665
▁הדין	-2666
▁סמים	-2667
▁כלא	-2668
▁רוק	-2669
▁אלבום	-2670
▁דצמבר	-2671
▁הריון	-2672
▁שגר	-2673
▁יפים	-2674
▁חם	-2675
▁יהו	-2676
▁לפע	-2677
▁פול	-2678
▁מבלי	-2679
▁לגל	-2680
▁היכן	-2681
▁רמות	-2682
▁מסוים	-2683
▁קטובר	-2684
▁צמח	-2685
▁לידה	-2686
▁לשפר	-2687
▁ניות	-2688
▁לפעול	-2689
▁מוקדם	-2690
▁תקיים	-2691
▁שכר	-2692
▁משימה	-2693
▁ישנ	-2694
▁רון	-2695
▁שכן	-2696
▁כלום	-2697
▁לשמוע	-2698
וסט	-2699
▁ואף	-2700
▁סבל	-2701
▁הכסף	-2702
▁כביש	-2703
▁קורס	-2704
▁אוהבת	-2705
▁טה	-2706
▁פרסם	-2707
▁פרט	-2708
▁טיל	-2709
▁טעם	-2710
▁וצאת	-2711
▁נותן	-2712
▁צעיר	-2713
▁ניסוי	-2714
▁טיול	-2715
▁צבאי	-2716
▁מתאימ	-2717
▁היי	-2718
▁ריע	-2719
▁תומ	-2720
▁בנות	-2721
▁מכתב	-2722
▁בנוגע	-2723
▁ותה	-2724
▁מהיר	-2725
▁מניע	-2726
▁פארק	-2727
▁יניהם	-2728
▁קטרונ	-2729
תיד	-2730
▁שופט	-2731
▁גרמני	-2732
▁רעיונ	-2733
▁רצו	-2734
▁איתו	-2735
▁איננו	-2736
▁הוביל	-2737
▁זורים	-2738
סטי	-2739
▁שׁ	-2740
▁מסעד	-2741
▁ערות	-2742
▁רסיטה	-2743
▁ידה	-2744
▁שוא	-2745
▁סרטים	-2746
▁קמפ	-2747
▁החשוב	-2748
▁חיק	-2749
▁יוח	-2750
▁פשט	-2751
▁קרן	-2752
▁במאי	-2753
▁שתתפ	-2754
▁11	-2755
▁ed	-2756
▁סא	-2757
▁פעל	-2758
▁צמי	-2759
▁הוציא	-2760
▁מסל	-2761
▁משכ	-2762
▁ריפ	-2763
▁תפי	-2764
▁טון	-2765
▁בירה	-2766
▁מילה	-2767
▁נותר	-2768
▁כירות	-2769
▁מסלול	-2770
▁קבלים	-2771
▁מחש	-2772
▁נוב	-2773
▁פצי	-2774
▁חלטות	-2775
ir	-2776
um	-2777
▁יעד	-2778
▁ורש	-2779
▁הימנע	-2780
▁וכך	-2781
▁קלה	-2782
▁חנות	-2783
▁ספינ	-2784
▁וספות	-2785
צג	-2786
▁הרפ	-2787
▁טנ	-2788
▁ובמבר	-2789
▁חמישה	-2790
▁>	-2791
▁לוס	-2792
▁רדי	-2793
▁סיוע	-2794
▁שותפ	-2795
▁הקשור	-2796
▁יסב	-2797
▁נפש	-2798
▁אתגר	-2799
▁לרוב	-2800
▁שמים	-2801
▁נמצאת	-2802
▁דירה	-2803
▁חיות	-2804
▁מסוג	-2805
▁זמנים	-2806
▁ובי	-2807
▁אינן	-2808
▁נהדר	-2809
▁בער	-2810
▁נוכל	-2811
▁שמחה	-2812
▁אים	-2813
▁הבאים	-2814
▁גלי	-2815
▁ימון	-2816
▁סטרלי	-2817
ביעי	-2818
▁ופס	-2819
▁אדום	-2820
▁מצאו	-2821
▁רחוב	-2822
▁צילום	-2823
▁רביעי	-2824
▁סד	-2825
▁בטל	-2826
▁וקמ	-2827
▁Ch	-2828
▁עוס	-2829
▁לשים	-2830
▁שלטון	-2831
▁גזר	-2832
▁הינו	-2833
▁סנ	-2834
▁און	-2835
▁קנה	-2836
▁יציב	-2837
▁הטובה	-2838
▁וים	-2839
▁גדיר	-2840
▁המון	-2841
▁לפתח	-2842
▁יונ	-2843
▁מטה	-2844
▁לונות	-2845
▁לצד	-2846
▁מחו	-2847
▁ופים	-2848
▁מודל	-2849
▁רופא	-2850
▁בעתיד	-2851
▁הודעה	-2852
▁18	-2853
▁המוח	-2854
▁ישוע	-2855
ent	-2856
▁אמי	-2857
▁אויב	-2858
▁העסק	-2859
▁חקלא	-2860
▁ריס	-2861
▁יקרה	-2862
▁הצבע	-2863
▁וריד	-2864
▁X	-2865
▁וחר	-2866
▁חלום	-2867
▁כניסה	-2868
▁ההת	-2869
▁סטי	-2870
▁הבנה	-2871
▁חינם	-2872
▁פותח	-2873
▁הופיע	-2874
▁איי	-2875
▁וננ	-2876
▁הפכו	-2877
▁חשבות	-2878
▁נכס	-2879
▁האמין	-2880
▁יחסים	-2881
▁מיתית	-2882
▁תום	-2883
▁רגיש	-2884
▁האוכל	-2885
▁רן	-2886
▁עודד	-2887
▁דבריו	-2888
▁לעמוד	-2889
▁ערבים	-2890
עים	-2891
▁דוח	-2892
▁הרא	-2893
▁סעי	-2894
▁קצב	-2895
▁שיח	-2896
▁כלים	-2897
▁משיך	-2898
▁חמור	-2899
▁אישור	-2900
▁ושל	-2901
▁ישן	-2902
▁מביא	-2903
▁מועצ	-2904
▁שבהם	-2905
▁חוויה	-2906
▁מימ	-2907
▁עקר	-2908
▁קוט	-2909
▁מערב	-2910
▁הטכנו	-2911
▁יוכלו	-2912
▁עצמאי	-2913
ur	-2914
▁אודות	-2915
▁מאושר	-2916
▁החלו	-2917
ia	-2918
▁קק	-2919
▁לגלות	-2920
▁התי	-2921
▁ניתנ	-2922
▁יכרון	-2923
▁עשייה	-2924
la	-2925
▁פעיל	-2926
▁פציפי	-2927
▁40	-2928
▁חוף	-2929
▁הזמנ	-2930
▁והת	-2931
▁מחפש	-2932
▁מחשבה	-2933
▁שילוב	-2934
▁אול	-2935
▁וויר	-2936
▁עליי	-2937
▁גידול	-2938
▁גוע	-2939
▁וגע	-2940
▁סעיף	-2941
▁סתכל	-2942
▁בולות	-2943
טח	-2944
▁החלק	-2945
▁תקבל	-2946
▁פורסמ	-2947
ess	-2948
▁גמ	-2949
▁סטיב	-2950
▁מפלגה	-2951
▁ng	-2952
▁לאי	-2953
▁ממנה	-2954
▁שיחה	-2955
▁בעזרת	-2956
▁צדדים	-2957
▁רציתי	-2958
נסי	-2959
▁כוס	-2960
▁גדיל	-2961
▁זמני	-2962
▁מלאכ	-2963
▁פיזי	-2964
▁חוקים	-2965
▁סגנון	-2966
▁יקה	-2967
▁עצר	-2968
▁רבי	-2969
▁רמו	-2970
▁סיום	-2971
▁אמצעי	-2972
▁ייג	-2973
▁שגם	-2974
▁נמוך	-2975
▁חושבת	-2976
▁צה	-2977
▁בטא	-2978
▁עסוק	-2979
▁בך	-2980
▁יצר	-2981
▁ליז	-2982
▁סקר	-2983
▁ולדת	-2984
▁מוצר	-2985
▁תחום	-2986
▁לבדוק	-2987
ויק	-2988
▁ניג	-2989
▁המלך	-2990
▁בבוקר	-2991
▁ידיים	-2992
▁יתרונ	-2993
▁מדויק	-2994
▁תיכון	-2995
▁רץ	-2996
▁ייכ	-2997
▁רעה	-2998
▁ראיי	-2999
▁חייבת	-3000
▁רוויח	-3001
▁לבס	-3002
▁אושר	-3003
▁במידה	-3004
▁חשובה	-3005
▁עליון	-3006
▁חמא	-3007
▁תיר	-3008
▁גורי	-3009
▁יסטי	-3010
▁מועד	-3011
▁משותפ	-3012
▁»	-3013
▁בנק	-3014
▁יבה	-3015
▁הנד	-3016
▁וטל	-3017
▁למים	-3018
▁חייהם	-3019
▁הנדס	-3020
▁רכבת	-3021
▁חיוני	-3022
▁טענ	-3023
▁תחי	-3024
▁ספקת	-3025
▁תקווה	-3026
בח	-3027
ציב	-3028
▁הרוח	-3029
▁לווי	-3030
▁הודיע	-3031
▁שיטות	-3032
▁תקציב	-3033
ועד	-3034
▁לעז	-3035
▁מהי	-3036
▁השמש	-3037
▁טעות	-3038
▁מטבע	-3039
▁מקב	-3040
▁עזה	-3041
▁קבע	-3042
▁קרנ	-3043
▁שרא	-3044
▁תרג	-3045
▁דמות	-3046
▁הקוד	-3047
▁ידור	-3048
▁סיים	-3049
▁עשרות	-3050
▁ne	-3051
▁האיש	-3052
▁ולד	-3053
▁וצאים	-3054
▁שמונה	-3055
▁רנ	-3056
▁אשת	-3057
▁רוז	-3058
▁חשמל	-3059
▁שוואה	-3060
▁אכל	-3061
▁בניו	-3062
▁שיווק	-3063
▁שד	-3064
▁המכ	-3065
▁עימ	-3066
▁ענה	-3067
▁לאדם	-3068
▁מצלמ	-3069
▁אומית	-3070
▁מבוגר	-3071
▁שלילי	-3072
פו	-3073
▁אבו	-3074
▁טיקה	-3075
▁|	-3076
▁Re	-3077
▁גרמ	-3078
▁המר	-3079
▁קופ	-3080
▁מפגש	-3081
▁סגור	-3082
▁עדיפ	-3083
▁חצ	-3084
▁כיש	-3085
▁בוק	-3086
▁דמה	-3087
▁סוי	-3088
▁עובר	-3089
▁בקלות	-3090
▁ועצ	-3091
▁צוד	-3092
▁רימ	-3093
▁תפס	-3094
▁וכיח	-3095
▁טט	-3096
▁הור	-3097
▁מציג	-3098
li	-3099
▁צא	-3100
▁חות	-3101
▁הלילה	-3102
▁וכנים	-3103
▁ושאים	-3104
▁טיב	-3105
▁כננ	-3106
▁כשא	-3107
▁יסבוק	-3108
▁רך	-3109
▁איבד	-3110
▁טען	-3111
▁יסט	-3112
▁עתה	-3113
▁בשוק	-3114
▁כולו	-3115
▁לאור	-3116
▁לספר	-3117
▁עוסק	-3118
▁נושות	-3119
▁פסיכו	-3120
▁בדיקה	-3121
▁הערבי	-3122
▁לקראת	-3123
▁רטי	-3124
▁ממשי	-3125
▁ראות	-3126
▁עילוי	-3127
▁אמנ	-3128
▁חשש	-3129
▁שיטה	-3130
lo	-3131
▁נמל	-3132
▁רלו	-3133
▁יוני	-3134
▁אפריל	-3135
▁יננסי	-3136
▁למקום	-3137
▁יטה	-3138
▁הצבא	-3139
▁שלושת	-3140
▁ועם	-3141
▁משו	-3142
▁שער	-3143
▁אופנ	-3144
▁איתם	-3145
▁נפלא	-3146
▁פסיק	-3147
▁te	-3148
▁התמ	-3149
▁פירוש	-3150
...	-3151
▁אבק	-3152
▁ורו	-3153
▁בניין	-3154
▁השפיע	-3155
▁רבותי	-3156
▁שניתן	-3157
תיק	-3158
▁בדר	-3159
▁ביב	-3160
▁יפש	-3161
▁מהן	-3162
▁תער	-3163
▁הכוח	-3164
▁חייה	-3165
▁העתיק	-3166
▁סוגים	-3167
▁קישור	-3168
▁הגר	-3169
▁הרב	-3170
▁מחר	-3171
▁סכימ	-3172
▁ראשי	-3173
▁יירות	-3174
▁וקם	-3175
▁רוט	-3176
▁נותנ	-3177
▁וגרפי	-3178
▁קא	-3179
▁במר	-3180
▁האס	-3181
▁וכו	-3182
▁חלי	-3183
▁עדר	-3184
▁גנטי	-3185
▁מסחר	-3186
ht	-3187
▁רום	-3188
▁ורים	-3189
▁25	-3190
▁לשע	-3191
▁מרא	-3192
▁שראלי	-3193
▁תחושה	-3194
כז	-3195
▁זון	-3196
▁קוי	-3197
▁בערך	-3198
▁במרכז	-3199
▁for	-3200
▁טפל	-3201
▁כרגע	-3202
▁ציין	-3203
▁קולו	-3204
▁ראים	-3205
▁ערכים	-3206
▁טקס	-3207
▁הניח	-3208
▁נכתב	-3209
▁הסתכל	-3210
▁שאינם	-3211
▁זול	-3212
▁יות	-3213
▁תאי	-3214
▁חוזר	-3215
▁חתול	-3216
▁יומי	-3217
▁הנושא	-3218
▁גוש	-3219
▁חליף	-3220
▁מהווה	-3221
▁השק	-3222
▁יחיד	-3223
▁מעלה	-3224
▁כלוסי	-3225
▁וזר	-3226
▁ימין	-3227
▁שחרר	-3228
▁הראשי	-3229
▁חלקים	-3230
בדל	-3231
▁ity	-3232
▁שהי	-3233
▁מותו	-3234
▁קשיב	-3235
▁ההבדל	-3236
▁ותק	-3237
▁ירח	-3238
▁רוג	-3239
▁ואין	-3240
▁סכום	-3241
▁תורה	-3242
▁חפשים	-3243
ונא	-3244
▁כפ	-3245
▁ארד	-3246
▁רפא	-3247
▁בתים	-3248
▁מפעל	-3249
▁וסייה	-3250
▁el	-3251
▁כימי	-3252
▁נוגע	-3253
▁ברואר	-3254
▁חבל	-3255
▁חלת	-3256
▁ניי	-3257
▁שאם	-3258
▁מלי	-3259
▁וידאו	-3260
▁רדת	-3261
▁ארוחת	-3262
▁יתונא	-3263
▁לאפשר	-3264
▁בחוץ	-3265
▁לבסוף	-3266
וסי	-3267
▁לנצ	-3268
▁משותף	-3269
▁רפואה	-3270
▁זן	-3271
▁סתם	-3272
▁למנט	-3273
▁ועלים	-3274
▁עשרים	-3275
▁יך	-3276
▁הנח	-3277
▁וול	-3278
▁הליכ	-3279
▁צורה	-3280
▁תרגל	-3281
▁החזיר	-3282
▁עקרונ	-3283
▁שניהם	-3284
ריז	-3285
▁התע	-3286
▁חום	-3287
▁ינס	-3288
▁השיר	-3289
▁לנצח	-3290
▁אתרים	-3291
▁שאפשר	-3292
▁nt	-3293
▁טכ	-3294
▁com	-3295
▁קדי	-3296
▁חלקי	-3297
▁עברי	-3298
▁מרב	-3299
▁פיצ	-3300
▁תקדם	-3301
▁המילה	-3302
▁סוק	-3303
▁ותיו	-3304
▁חורה	-3305
▁נסיעה	-3306
▁תושבי	-3307
se	-3308
▁חב	-3309
▁טו	-3310
▁בלע	-3311
▁מכוני	-3312
▁13	-3313
▁לף	-3314
▁סמך	-3315
▁לשעבר	-3316
▁יבת	-3317
▁קיד	-3318
▁נדיר	-3319
▁ארכ	-3320
▁יכל	-3321
▁כוכב	-3322
▁ספרי	-3323
▁מקביל	-3324
▁טייל	-3325
▁לסייע	-3326
▁תחומי	-3327
▁העבר	-3328
▁לבקר	-3329
▁סמוך	-3330
▁ראית	-3331
▁הנכון	-3332
▁$	-3333
▁סם	-3334
▁וקה	-3335
▁בחדר	-3336
▁המשך	-3337
▁יטליה	-3338
▁עת	-3339
▁השי	-3340
▁הודו	-3341
▁ועלת	-3342
▁קליפ	-3343
▁יפן	-3344
▁אזרח	-3345
▁האור	-3346
▁ואלי	-3347
ומנ	-3348
▁גיע	-3349
▁רקע	-3350
▁מושלם	-3351
▁סן	-3352
▁בפי	-3353
▁סקס	-3354
▁פתיע	-3355
▁כלבים	-3356
טרף	-3357
▁בים	-3358
▁יבש	-3359
▁ווים	-3360
▁משנת	-3361
▁הצטרף	-3362
▁ולאחר	-3363
▁וסעים	-3364
▁צמיחה	-3365
▁אתמ	-3366
▁בחור	-3367
▁העני	-3368
▁משאב	-3369
▁עיני	-3370
▁כשהוא	-3371
im	-3372
▁והן	-3373
▁זרים	-3374
▁ישוב	-3375
▁צטרך	-3376
▁בהמשך	-3377
▁בלילה	-3378
▁חשבונ	-3379
חתי	-3380
▁ורפ	-3381
▁חיל	-3382
▁הערכ	-3383
▁וספת	-3384
▁בזכות	-3385
▁להכיר	-3386
▁שפחתי	-3387
▁‘	-3388
▁14	-3389
▁כיב	-3390
▁קשות	-3391
▁ביס	-3392
▁ותו	-3393
▁יסק	-3394
▁אתמול	-3395
▁המוצר	-3396
▁המצ	-3397
▁לווה	-3398
▁בחיי	-3399
▁חוות	-3400
▁ילדה	-3401
▁בחברה	-3402
▁מצט	-3403
▁שורה	-3404
▁תיים	-3405
▁הרופא	-3406
▁le	-3407
▁דעו	-3408
▁סוד	-3409
▁סחר	-3410
▁דווח	-3411
▁ימות	-3412
▁נפגע	-3413
▁תנוע	-3414
▁בקרים	-3415
▁חתונה	-3416
▁כוללת	-3417
לץ	-3418
▁פלא	-3419
▁אמנם	-3420
▁ברמה	-3421
▁תרומ	-3422
▁האדמה	-3423
▁אורג	-3424
▁מרחב	-3425
▁סטרו	-3426
▁חמישי	-3427
אול	-3428
▁דף	-3429
▁דלק	-3430
▁וגל	-3431
▁ויט	-3432
▁מוזר	-3433
▁וגרים	-3434
▁חיבור	-3435
▁לשאול	-3436
▁תחייב	-3437
▁סמל	-3438
▁כנסת	-3439
▁מנוע	-3440
▁מרכיב	-3441
▁ובכ	-3442
▁רמה	-3443
▁וריא	-3444
▁מידה	-3445
▁מראש	-3446
▁הצורך	-3447
▁ושש	-3448
▁מחצ	-3449
▁ודה	-3450
▁מסך	-3451
▁משה	-3452
▁חליט	-3453
▁לחפש	-3454
▁סוכן	-3455
▁אליהם	-3456
▁השאיר	-3457
▁וכחות	-3458
▁מזכיר	-3459
▁מכירה	-3460
▁תצ	-3461
▁בצד	-3462
▁ברר	-3463
▁וקס	-3464
▁הפוך	-3465
▁הקונ	-3466
▁בינים	-3467
▁התמקד	-3468
▁וסדות	-3469
▁לזכור	-3470
▁נוי	-3471
▁נסה	-3472
▁בודות	-3473
▁רציני	-3474
▁דרכו	-3475
▁החלה	-3476
▁זהות	-3477
▁פתיח	-3478
▁גישות	-3479
▁דורגל	-3480
▁בהיר	-3481
▁ירידה	-3482
▁פתרונ	-3483
▁המא	-3484
▁ווק	-3485
▁לומ	-3486
▁פגש	-3487
▁תות	-3488
▁תפיס	-3489
▁ידעתי	-3490
▁מחזיק	-3491
▁ושם	-3492
▁ידו	-3493
▁עלו	-3494
▁פתא	-3495
▁הסבר	-3496
▁ורכי	-3497
▁מהפכה	-3498
▁שולחן	-3499
▁Ne	-3500
▁הצו	-3501
▁חוד	-3502
▁וותר	-3503
▁עורך	-3504
▁בקרוב	-3505
▁העניק	-3506
▁לדברי	-3507
▁רישות	-3508
פות	-3509
▁בוב	-3510
▁זכור	-3511
▁יופי	-3512
▁מוסרי	-3513
▁מיומנ	-3514
▁מרבית	-3515
▁ָה	-3516
▁חלל	-3517
▁בשנות	-3518
▁קטנות	-3519
והול	-3520
▁חלב	-3521
▁כרז	-3522
▁לצי	-3523
▁תכו	-3524
▁פחית	-3525
▁קובע	-3526
▁הכללי	-3527
▁המחיר	-3528
▁כוהול	-3529
▁תכנון	-3530
▁דיש	-3531
▁ולש	-3532
▁ושי	-3533
▁כלה	-3534
▁אורה	-3535
▁ישאר	-3536
▁עוני	-3537
▁שוטר	-3538
▁רטיות	-3539
▁&	-3540
▁סח	-3541
▁רעב	-3542
▁לבוא	-3543
▁הצביע	-3544
▁ובדות	-3545
▁מונים	-3546
▁מנסים	-3547
▁ניצחו	-3548
▁Mi	-3549
▁ניש	-3550
▁אליה	-3551
▁יקוד	-3552
▁עוזר	-3553
▁ביוני	-3554
▁נמוכה	-3555
נד	-3556
▁לבוש	-3557
▁דיקות	-3558
▁התרחש	-3559
▁לן	-3560
▁מאמץ	-3561
▁הסיני	-3562
▁התקדמ	-3563
▁כוונה	-3564
▁סורתי	-3565
▁סנט	-3566
▁הרגע	-3567
▁חורף	-3568
▁תאים	-3569
▁יוחדת	-3570
▁כתובת	-3571
▁ניגוד	-3572
▁שירים	-3573
▁בקש	-3574
▁סול	-3575
▁גורל	-3576
▁ולין	-3577
▁רדיו	-3578
▁ולוגי	-3579
▁הבל	-3580
▁יצב	-3581
▁הבנק	-3582
▁הפכה	-3583
▁עזור	-3584
▁תפתח	-3585
▁ומחים	-3586
▁לצפות	-3587
▁סוימת	-3588
▁רלוונ	-3589
▁דרש	-3590
▁שהן	-3591
▁הדור	-3592
▁לפתוח	-3593
ct	-3594
▁וינ	-3595
▁ייב	-3596
▁תדר	-3597
▁נפוצ	-3598
▁ופאים	-3599
▁צל	-3600
▁גיי	-3601
▁השוק	-3602
▁עלים	-3603
▁יתן	-3604
▁מעבד	-3605
▁תנהל	-3606
▁וחרים	-3607
▁16	-3608
▁בחנ	-3609
▁גוב	-3610
▁עון	-3611
▁רבנ	-3612
▁ריש	-3613
▁תקר	-3614
▁הודות	-3615
▁לוי	-3616
▁רינ	-3617
▁נפתח	-3618
▁תומכ	-3619
▁תקרב	-3620
ea	-3621
▁במש	-3622
▁ינט	-3623
▁ובכל	-3624
▁יתות	-3625
▁מהות	-3626
▁פתאום	-3627
▁th	-3628
▁סר	-3629
▁המפ	-3630
▁מומלץ	-3631
▁ביי	-3632
▁יים	-3633
▁ישב	-3634
▁מינ	-3635
▁מוצא	-3636
▁מחוז	-3637
▁וויות	-3638
▁חכ	-3639
▁בבק	-3640
▁פסק	-3641
▁דריכ	-3642
▁הנהג	-3643
▁עידן	-3644
▁צורת	-3645
▁בימים	-3646
▁להציל	-3647
זרה	-3648
▁ולת	-3649
▁מנע	-3650
▁לטפל	-3651
▁נייד	-3652
▁סכנה	-3653
▁בחזרה	-3654
▁ונק	-3655
▁לוצ	-3656
▁מסקנ	-3657
▁טובוס	-3658
▁ולם	-3659
▁רדו	-3660
▁שקר	-3661
▁אכיל	-3662
▁מותר	-3663
▁מחנה	-3664
▁עונש	-3665
▁הגיעה	-3666
▁יהנות	-3667
▁תגורר	-3668
un	-3669
▁אלצ	-3670
▁גיא	-3671
▁יוש	-3672
▁עגל	-3673
▁גלגל	-3674
▁עשיתי	-3675
ft	-3676
▁Goo	-3677
▁דרמ	-3678
▁הרצ	-3679
▁וור	-3680
▁לעצ	-3681
▁מלה	-3682
▁דעתי	-3683
▁ציור	-3684
▁במזרח	-3685
▁גובות	-3686
▁נהלים	-3687
▁On	-3688
▁אום	-3689
▁יאו	-3690
▁קיום	-3691
▁ובש	-3692
▁ורט	-3693
▁כלב	-3694
▁מגדל	-3695
▁נורא	-3696
▁עברה	-3697
▁טורקי	-3698
▁לכולם	-3699
▁תכוונ	-3700
▁תערוכ	-3701
▁תקיימ	-3702
▁מזג	-3703
▁שהמ	-3704
▁הידע	-3705
▁הקמת	-3706
▁וכבים	-3707
▁מוצלח	-3708
▁מחויב	-3709
▁ייה	-3710
▁ליב	-3711
▁פלט	-3712
▁בודד	-3713
▁סימן	-3714
▁שואה	-3715
▁עלייה	-3716
▁צעדים	-3717
ציה	-3718
▁24	-3719
▁לוא	-3720
▁צוע	-3721
▁אשתו	-3722
▁ותיה	-3723
▁ספים	-3724
▁צרות	-3725
▁ולנוע	-3726
▁ועדון	-3727
▁רשתות	-3728
▁הרה	-3729
▁עשית	-3730
▁קודש	-3731
▁הפנים	-3732
▁הקודמ	-3733
▁הדם	-3734
▁מרץ	-3735
▁ואתה	-3736
▁נקים	-3737
▁ביולי	-3738
▁העלות	-3739
▁מדהים	-3740
▁גג	-3741
▁לופ	-3742
▁וריו	-3743
▁למשך	-3744
▁ישיות	-3745
▁פצ	-3746
▁בלה	-3747
▁כשל	-3748
▁ניב	-3749
▁עזב	-3750
▁השאר	-3751
▁ילות	-3752
▁מחלק	-3753
▁ריסט	-3754
▁הכר	-3755
▁ולנ	-3756
▁עדכ	-3757
▁קיומ	-3758
▁עשויה	-3759
▁תאריך	-3760
▁de	-3761
▁להק	-3762
▁רשם	-3763
▁מובן	-3764
▁שומע	-3765
▁מיועד	-3766
▁דיפ	-3767
▁קדש	-3768
▁דברי	-3769
▁ושוב	-3770
▁חולה	-3771
▁מאחר	-3772
▁והר	-3773
▁וכח	-3774
▁אביו	-3775
▁הרגו	-3776
▁ייצר	-3777
▁רם	-3778
▁החי	-3779
▁הרס	-3780
▁קנא	-3781
▁האלו	-3782
▁חובה	-3783
▁כתבה	-3784
▁תיבה	-3785
▁סודות	-3786
▁חיש	-3787
▁הוכח	-3788
▁הזוג	-3789
▁לנהל	-3790
▁השקעה	-3791
▁מסחרי	-3792
▁You	-3793
▁דים	-3794
▁ונס	-3795
▁חכמ	-3796
▁צור	-3797
▁שיא	-3798
▁תפל	-3799
▁מיקום	-3800
▁צירתי	-3801
▁קידום	-3802
▁x	-3803
▁רה	-3804
▁אקו	-3805
▁הדמ	-3806
▁מלבד	-3807
▁האינט	-3808
▁האישה	-3809
▁הצבאי	-3810
▁נושית	-3811
▁בוה	-3812
▁גדה	-3813
▁לאה	-3814
▁מחכ	-3815
▁רוכ	-3816
▁טובת	-3817
▁יימס	-3818
▁כחול	-3819
▁מתאר	-3820
▁הולנד	-3821
▁וסיקה	-3822
ירים	-3823
▁הדו	-3824
▁הקד	-3825
▁תגר	-3826
▁תנד	-3827
▁גביר	-3828
▁לבקש	-3829
▁לחיים	-3830
▁קדימה	-3831
▁שאינו	-3832
ודא	-3833
▁האג	-3834
▁צער	-3835
▁שהת	-3836
▁דגיש	-3837
▁חשבו	-3838
▁תאונ	-3839
▁מוצרי	-3840
▁פגיעה	-3841
▁ייק	-3842
▁ענו	-3843
▁פשע	-3844
▁זכרו	-3845
▁פסיד	-3846
▁דידות	-3847
▁הקדוש	-3848
▁אמון	-3849
▁מיקר	-3850
▁פעמי	-3851
▁בנייה	-3852
▁זל	-3853
▁ברצ	-3854
▁מקו	-3855
▁ביחס	-3856
▁טיסה	-3857
▁מירה	-3858
▁מכון	-3859
▁מיקרו	-3860
▁היב	-3861
▁טוח	-3862
▁טרם	-3863
▁יקח	-3864
▁מלך	-3865
▁סומ	-3866
▁גוסט	-3867
▁מלכה	-3868
▁שיטת	-3869
▁בניית	-3870
▁אבט	-3871
▁עליכם	-3872
ציג	-3873
▁זיק	-3874
▁ספרד	-3875
▁דירות	-3876
▁להציג	-3877
▁מטרים	-3878
▁מתקדמ	-3879
▁נגליה	-3880
▁רעיני	-3881
▁Al	-3882
▁וסט	-3883
▁חכם	-3884
▁לות	-3885
▁מאת	-3886
▁רכש	-3887
▁בחון	-3888
▁בקשה	-3889
▁הכרה	-3890
▁עריכ	-3891
▁אינדי	-3892
▁חשיבה	-3893
pp	-3894
art	-3895
▁להר	-3896
▁קיפ	-3897
▁תחל	-3898
▁אסיר	-3899
▁בכדי	-3900
▁יבוד	-3901
▁עריך	-3902
▁גיטלי	-3903
▁es	-3904
▁ro	-3905
▁ופק	-3906
▁ופר	-3907
▁יאן	-3908
▁הבדל	-3909
▁טקסט	-3910
▁צטרפ	-3911
▁יאורי	-3912
▁משיכה	-3913
▁תוכנה	-3914
▁שן	-3915
▁חקר	-3916
▁כזב	-3917
▁הערכה	-3918
▁בעה	-3919
▁גשר	-3920
▁שיק	-3921
▁שפות	-3922
▁אבטחה	-3923
▁הראות	-3924
▁טומטי	-3925
▁ילדות	-3926
▁לעצור	-3927
▁עיתונ	-3928
▁טש	-3929
▁התו	-3930
▁ציוד	-3931
▁בלעדי	-3932
▁כלשהו	-3933
▁ריטים	-3934
▁בּ	-3935
▁מם	-3936
▁קמ	-3937
▁ייש	-3938
▁לקו	-3939
▁איון	-3940
▁במספר	-3941
▁גופני	-3942
▁נגטון	-3943
▁אבן	-3944
▁ייפ	-3945
▁שוח	-3946
▁כנסי	-3947
▁צודק	-3948
▁תפלל	-3949
▁בוהים	-3950
▁ובליק	-3951
▁ופעות	-3952
▁מצבים	-3953
▁קריאה	-3954
▁+	-3955
▁וגד	-3956
▁לרכ	-3957
▁מיידי	-3958
▁מסביר	-3959
▁זנ	-3960
▁לאן	-3961
▁ריג	-3962
▁אימפ	-3963
▁קושי	-3964
▁בדק	-3965
▁נדי	-3966
▁סקי	-3967
▁אורח	-3968
▁דוקט	-3969
▁השקע	-3970
▁וואי	-3971
▁חזית	-3972
▁יעשה	-3973
▁לולה	-3974
▁מעשה	-3975
▁שלמת	-3976
▁ורמלי	-3977
▁La	-3978
▁חטא	-3979
▁מנכ	-3980
▁רנק	-3981
▁סכסו	-3982
▁בסך	-3983
▁הצע	-3984
▁אהבת	-3985
▁ממני	-3986
▁כיבוש	-3987
▁מבטיח	-3988
▁טא	-3989
▁וקף	-3990
▁וקפ	-3991
▁יבר	-3992
▁משח	-3993
▁שזו	-3994
▁נוער	-3995
▁עניק	-3996
▁פליק	-3997
▁השקיע	-3998
▁יתרון	-3999
▁נוחות	-4000
▁אחים	-4001
▁בחרו	-4002
▁טנדר	-4003
▁כשאני	-4004
▁בדן	-4005
▁בלב	-4006
▁קטע	-4007
▁בשעה	-4008
▁למדת	-4009
▁תבצע	-4010
▁השלום	-4011
▁ברג	-4012
▁מום	-4013
▁מחה	-4014
▁אסטר	-4015
▁דואר	-4016
▁מטבח	-4017
▁רומא	-4018
▁שישי	-4019
▁אפשרת	-4020
▁תרופה	-4021
▁אתי	-4022
▁והפ	-4023
▁ביצע	-4024
▁הרים	-4025
▁חוצה	-4026
▁יקול	-4027
▁כלול	-4028
▁שישה	-4029
▁ותיהם	-4030
▁חודשי	-4031
▁רשימת	-4032
▁פד	-4033
▁אסר	-4034
▁ואב	-4035
▁ייל	-4036
▁צוג	-4037
▁בתוכ	-4038
▁דמוי	-4039
▁הקים	-4040
▁תנדב	-4041
▁ישואי	-4042
▁נסייה	-4043
ck	-4044
▁et	-4045
▁יושב	-4046
▁יעיל	-4047
▁ישור	-4048
▁כספי	-4049
▁סדרת	-4050
▁שואל	-4051
▁בלנות	-4052
▁ובילה	-4053
▁פגישה	-4054
▁כנע	-4055
▁פגנ	-4056
▁צום	-4057
▁יבור	-4058
▁לרכוש	-4059
▁עיתון	-4060
▁פשוטה	-4061
▁גרש	-4062
▁קום	-4063
▁יעוד	-4064
▁שלהן	-4065
▁שפעת	-4066
▁וניינ	-4067
▁לזהות	-4068
▁לישית	-4069
▁הצד	-4070
▁ופן	-4071
▁נפט	-4072
▁קחו	-4073
▁בטחת	-4074
▁מושב	-4075
▁מחבר	-4076
▁נקבע	-4077
▁וודאי	-4078
▁קשרים	-4079
▁שחרור	-4080
▁ביו	-4081
▁זהה	-4082
▁רבן	-4083
▁בגוף	-4084
▁ודעת	-4085
▁ישומ	-4086
▁וער	-4087
▁תחנ	-4088
▁ברוב	-4089
▁לילי	-4090
▁ממשל	-4091
▁סופי	-4092
▁פריז	-4093
▁בבקשה	-4094
▁חבורה	-4095
לט	-4096
▁1.	-4097
▁וכי	-4098
▁כיף	-4099
▁קלט	-4100
▁שפע	-4101
▁פייה	-4102
▁שלים	-4103
▁לעזוב	-4104
▁מחצית	-4105
▁קח	-4106
▁ורר	-4107
▁זינ	-4108
▁מפקד	-4109
▁פרסמ	-4110
▁רומנ	-4111
▁הצוות	-4112
▁בשני	-4113
▁דריך	-4114
▁חמאס	-4115
▁צאתי	-4116
▁קראו	-4117
▁ברחוב	-4118
▁לצורך	-4119
▁רגשתי	-4120
▁תור	-4121
▁חייל	-4122
▁קבלו	-4123
▁אשראי	-4124
ok	-4125
▁ce	-4126
▁sh	-4127
▁ייד	-4128
▁גובה	-4129
▁מתנה	-4130
▁לייצר	-4131
▁ent	-4132
▁במח	-4133
▁גיב	-4134
▁פוץ	-4135
▁וברת	-4136
▁ימור	-4137
▁כזאת	-4138
▁כניק	-4139
▁שוחר	-4140
▁שמור	-4141
▁תיקון	-4142
▁ושך	-4143
▁בסין	-4144
▁הצעה	-4145
▁מותג	-4146
▁הלקוח	-4147
▁בעד	-4148
▁יאל	-4149
▁ינך	-4150
▁ליג	-4151
▁צפה	-4152
▁תקל	-4153
▁תשע	-4154
▁להשת	-4155
▁תמוך	-4156
▁אורגנ	-4157
▁בגדים	-4158
▁וועדה	-4159
▁מוקדמ	-4160
▁נויות	-4161
▁כפת	-4162
▁קצה	-4163
▁בינה	-4164
▁לקוח	-4165
▁תגבר	-4166
▁בהיסט	-4167
▁להציע	-4168
▁ֲ	-4169
▁ברו	-4170
▁גייס	-4171
▁עמדה	-4172
▁חלוקת	-4173
▁דינ	-4174
▁ומץ	-4175
▁וסק	-4176
▁איתי	-4177
▁כנגד	-4178
▁לאתר	-4179
▁משטר	-4180
▁60	-4181
▁ch	-4182
▁na	-4183
▁וטו	-4184
▁נדל	-4185
▁אנדר	-4186
▁ברשת	-4187
▁דיאל	-4188
▁הצלח	-4189
▁נשמה	-4190
▁צפונ	-4191
▁מקובל	-4192
▁תזונה	-4193
and	-4194
▁איס	-4195
▁כון	-4196
▁לכו	-4197
▁ואיד	-4198
▁סיכו	-4199
▁עילה	-4200
▁רשמי	-4201
▁שכנע	-4202
▁טנדרט	-4203
▁שיחות	-4204
▁Sh	-4205
▁אשה	-4206
▁נחה	-4207
▁כולה	-4208
▁תחנת	-4209
▁חקירה	-4210
all	-4211
▁לץ	-4212
▁התקפ	-4213
▁וזרים	-4214
▁לומות	-4215
▁2.	-4216
▁ומנ	-4217
▁שקפ	-4218
▁איום	-4219
▁אינס	-4220
▁אללה	-4221
▁ודעה	-4222
▁יישב	-4223
▁קראי	-4224
▁רחבה	-4225
▁גליים	-4226
▁השתתף	-4227
▁יחסית	-4228
▁לולים	-4229
▁ליטים	-4230
ירי	-4231
▁בץ	-4232
▁האה	-4233
▁פגע	-4234
▁גנים	-4235
▁ישנה	-4236
▁צירה	-4237
▁שנתי	-4238
▁הבאות	-4239
▁מוסלמ	-4240
▁סמכים	-4241
▁Li	-4242
▁חדות	-4243
▁פגוע	-4244
▁ציינ	-4245
▁שליח	-4246
▁תנחל	-4247
▁האהבה	-4248
▁טיחות	-4249
▁לפתור	-4250
▁ולן	-4251
▁לאט	-4252
▁מפר	-4253
▁רגן	-4254
▁ופעה	-4255
▁חולק	-4256
▁עשתה	-4257
▁מחזור	-4258
▁מייצג	-4259
▁צמאות	-4260
▁רשמ	-4261
▁הורה	-4262
▁החזק	-4263
▁ומדת	-4264
▁חווה	-4265
▁תגרים	-4266
▁סגר	-4267
▁בעלת	-4268
▁הכין	-4269
▁טוענ	-4270
▁נעצר	-4271
▁לישון	-4272
▁לציין	-4273
▁שוחרר	-4274
▁תחלתי	-4275
▁Win	-4276
▁נטי	-4277
▁צומ	-4278
▁ירום	-4279
▁מבחן	-4280
▁אלינו	-4281
▁חומים	-4282
▁למידה	-4283
▁מדהימ	-4284
▁ממשיכ	-4285
▁עילים	-4286
▁תכוון	-4287
▁סיה	-4288
▁פנה	-4289
▁הערב	-4290
▁חלקם	-4291
▁טכני	-4292
▁תמקד	-4293
▁דענים	-4294
▁הרגיל	-4295
▁הרשמי	-4296
▁השתתפ	-4297
▁יימות	-4298
▁ישיים	-4299
gl	-4300
▁יגה	-4301
▁יוט	-4302
▁רקו	-4303
▁חזיר	-4304
▁לשתף	-4305
▁בטוחה	-4306
▁חידות	-4307
▁ליסטי	-4308
▁לקבוע	-4309
▁סמכות	-4310
▁יסר	-4311
▁שמן	-4312
▁איים	-4313
▁גברת	-4314
▁הראש	-4315
▁השתנ	-4316
▁וגדר	-4317
▁יזון	-4318
▁רחבי	-4319
▁גלובל	-4320
▁למכור	-4321
▁מסביב	-4322
▁תניהו	-4323
▁תרגום	-4324
סס	-4325
▁וץ	-4326
▁צצ	-4327
▁ינק	-4328
▁אמונ	-4329
▁אפקט	-4330
▁דגים	-4331
▁החלט	-4332
▁תערב	-4333
▁ורחים	-4334
▁מורים	-4335
▁סתיים	-4336
▁הסדר	-4337
▁ינוס	-4338
▁מידי	-4339
▁קילו	-4340
▁שיבה	-4341
▁תבסס	-4342
▁מניות	-4343
▁בוס	-4344
▁הלך	-4345
▁פיד	-4346
▁דרומ	-4347
▁הודה	-4348
▁ועצת	-4349
▁תקיפ	-4350
▁מימון	-4351
▁שגריר	-4352
▁#	-4353
▁ההש	-4354
▁מגע	-4355
▁אתרי	-4356
▁רכיב	-4357
▁תחבר	-4358
▁וגן	-4359
▁וחק	-4360
▁ליך	-4361
▁פרנס	-4362
▁קנדה	-4363
▁תכנן	-4364
▁אזורי	-4365
▁ולק	-4366
▁יראק	-4367
▁לוחמ	-4368
▁עביר	-4369
▁צוינ	-4370
▁קשים	-4371
▁רצוי	-4372
▁אהבתי	-4373
▁גילוי	-4374
▁הכריז	-4375
▁משתנה	-4376
▁שעברה	-4377
▁dow	-4378
▁והה	-4379
▁יוס	-4380
▁נובע	-4381
▁שומן	-4382
▁שיחק	-4383
▁Googl	-4384
▁בדרום	-4385
▁מינית	-4386
▁ספרות	-4387
▁100	-4388
▁Pro	-4389
▁וסמ	-4390
▁מכם	-4391
▁אצבע	-4392
▁בפועל	-4393
▁חשמלי	-4394
▁משחקי	-4395
▁יצול	-4396
▁מונע	-4397
▁הריים	-4398
▁ממשיך	-4399
הר	-4400
▁חא	-4401
▁מזו	-4402
▁גיעה	-4403
▁ינני	-4404
▁קצרה	-4405
▁הגבוה	-4406
▁וברים	-4407
▁שובות	-4408
▁ופה	-4409
▁פסיכ	-4410
▁רחיב	-4411
▁במשחק	-4412
▁המק	-4413
▁והא	-4414
▁פילה	-4415
ul	-4416
▁ולפ	-4417
▁להן	-4418
▁מאי	-4419
▁רני	-4420
▁אופי	-4421
▁רגשי	-4422
▁מכונה	-4423
▁An	-4424
▁אבר	-4425
▁דרי	-4426
▁הון	-4427
▁להב	-4428
▁פרה	-4429
▁צמצ	-4430
▁נשלח	-4431
▁וגיות	-4432
▁Ma	-4433
▁חיד	-4434
▁פופ	-4435
▁נייה	-4436
▁הזכות	-4437
▁הרוסי	-4438
▁גרי	-4439
▁זכו	-4440
▁יסד	-4441
▁שוויו	-4442
▁ארט	-4443
▁שלכ	-4444
▁בחלק	-4445
▁העור	-4446
▁חזקה	-4447
▁הלווא	-4448
▁17	-4449
▁אשמ	-4450
▁גינ	-4451
▁נומ	-4452
▁מחסו	-4453
▁שאלו	-4454
▁גיבור	-4455
▁בלו	-4456
▁דגל	-4457
▁טים	-4458
▁ימד	-4459
▁פוצ	-4460
▁מודע	-4461
▁נפגש	-4462
▁עצים	-4463
▁עשים	-4464
▁ובלים	-4465
▁מינים	-4466
▁Com	-4467
▁ופל	-4468
▁ללה	-4469
▁בועי	-4470
▁הצהר	-4471
▁ודיע	-4472
▁כפול	-4473
▁סימפ	-4474
▁שימש	-4475
▁צליחו	-4476
▁דת	-4477
▁בבתי	-4478
▁ווית	-4479
▁יוון	-4480
▁ללקוח	-4481
▁עתידי	-4482
▁הוו	-4483
▁ולג	-4484
▁יזמ	-4485
▁עמו	-4486
▁בנתי	-4487
▁המדע	-4488
▁מורת	-4489
▁דן	-4490
▁איפ	-4491
▁ונצ	-4492
▁יצה	-4493
▁נוצ	-4494
▁רנס	-4495
▁רקט	-4496
▁כניס	-4497
▁ניסי	-4498
▁תקפה	-4499
▁De	-4500
▁נפל	-4501
▁סתר	-4502
▁שים	-4503
▁תית	-4504
▁התאמ	-4505
▁בעיני	-4506
▁אטה	-4507
▁ורס	-4508
▁פרד	-4509
▁בוצע	-4510
▁לאסי	-4511
▁ממלי	-4512
▁הפעיל	-4513
▁Mo	-4514
▁רסה	-4515
▁שלט	-4516
▁יטול	-4517
▁פנות	-4518
▁השראה	-4519
ge	-4520
▁גבל	-4521
▁ורא	-4522
▁סוס	-4523
▁ליונ	-4524
▁עמים	-4525
▁עשור	-4526
▁יתך	-4527
▁גבול	-4528
▁ורנ	-4529
▁טלק	-4530
▁רחק	-4531
▁דמיו	-4532
▁קדוש	-4533
▁הרשות	-4534
▁צאו	-4535
▁חזיק	-4536
▁ידיד	-4537
▁מוסד	-4538
▁פניו	-4539
▁טין	-4540
▁בתא	-4541
▁וזמ	-4542
▁זרח	-4543
▁יפי	-4544
▁סינ	-4545
▁סרב	-4546
▁בורג	-4547
▁הוצא	-4548
▁ומדים	-4549
▁משקיע	-4550
ort	-4551
▁Ex	-4552
▁הארי	-4553
▁סכו	-4554
▁שריר	-4555
▁Th	-4556
▁ברא	-4557
▁טרון	-4558
▁מבית	-4559
▁שתנה	-4560
▁במחקר	-4561
▁הות	-4562
▁יתח	-4563
▁נסו	-4564
▁ברוח	-4565
▁וויל	-4566
▁זכיר	-4567
▁טוחים	-4568
▁יירים	-4569
▁ארק	-4570
▁האב	-4571
▁מתכ	-4572
▁שוף	-4573
▁יסות	-4574
▁שכונ	-4575
▁הבלתי	-4576
▁בות	-4577
▁ומצ	-4578
▁ותר	-4579
▁ערי	-4580
▁טענה	-4581
▁ללים	-4582
▁למדי	-4583
▁רכוש	-4584
▁רקים	-4585
▁תחילו	-4586
▁וך	-4587
▁ראנ	-4588
▁הכלב	-4589
▁הציע	-4590
▁משיכו	-4591
יבל	-4592
▁אוס	-4593
▁בצע	-4594
▁ובע	-4595
▁לתה	-4596
▁וזרת	-4597
▁ותרת	-4598
▁מרים	-4599
▁שקיבל	-4600
▁לקט	-4601
▁נרי	-4602
▁וסים	-4603
▁יצור	-4604
▁ההר	-4605
▁ובה	-4606
▁לאמי	-4607
▁מעתי	-4608
▁נציג	-4609
▁ביטחו	-4610
▁ימנים	-4611
▁וטר	-4612
▁דמיי	-4613
▁יסוי	-4614
▁קריא	-4615
▁לעצמו	-4616
▁דובר	-4617
▁הכרח	-4618
▁ונים	-4619
▁לפים	-4620
▁סתיר	-4621
▁בוש	-4622
▁לעבר	-4623
▁תנגד	-4624
▁דומים	-4625
▁מפעיל	-4626
▁דבק	-4627
▁המל	-4628
▁תוס	-4629
▁חוזה	-4630
▁מתוק	-4631
▁עמיד	-4632
▁תיימ	-4633
▁לויות	-4634
▁זונ	-4635
▁נייר	-4636
▁Ar	-4637
▁Con	-4638
▁הבר	-4639
▁נער	-4640
▁ינים	-4641
▁רגוני	-4642
▁אפל	-4643
▁דני	-4644
▁לדא	-4645
▁ליק	-4646
▁רגנ	-4647
▁ואמר	-4648
▁לבנו	-4649
▁התקבל	-4650
▁ליוני	-4651
▁ביה	-4652
▁הרע	-4653
▁להו	-4654
▁שיט	-4655
▁ומונ	-4656
▁נינו	-4657
ub	-4658
▁פיו	-4659
▁ברים	-4660
▁חושת	-4661
▁יינו	-4662
▁שינו	-4663
▁תאבד	-4664
▁גבלות	-4665
▁יסטים	-4666
▁ציפור	-4667
▁חלש	-4668
▁למצב	-4669
▁עירו	-4670
▁ar	-4671
▁לכס	-4672
▁מתמ	-4673
▁צרו	-4674
▁הרחב	-4675
▁ובדת	-4676
▁ישות	-4677
▁לוצי	-4678
▁למות	-4679
▁נוכח	-4680
▁מסורת	-4681
▁קם	-4682
▁חובר	-4683
▁יבוא	-4684
▁סוכר	-4685
▁עירה	-4686
▁שימה	-4687
▁עג	-4688
▁היד	-4689
▁וגה	-4690
▁כוב	-4691
▁פלה	-4692
▁שור	-4693
▁דרגה	-4694
▁האישי	-4695
▁פירות	-4696
▁רגישה	-4697
▁טרק	-4698
▁יטב	-4699
▁שיפ	-4700
▁בינו	-4701
▁הליך	-4702
▁קרות	-4703
▁רורה	-4704
▁ושע	-4705
▁כינ	-4706
▁מוט	-4707
▁מכך	-4708
▁צאה	-4709
▁שותף	-4710
▁ia	-4711
▁האש	-4712
▁ירו	-4713
▁צות	-4714
▁סטרי	-4715
ni	-4716
▁אנא	-4717
▁וגש	-4718
▁ירק	-4719
▁להח	-4720
▁מדד	-4721
▁עצם	-4722
▁רמי	-4723
▁לידי	-4724
▁פריט	-4725
▁צרכים	-4726
ill	-4727
▁WE	-4728
▁וסל	-4729
▁יטי	-4730
▁שלמה	-4731
▁=	-4732
משל	-4733
▁הנס	-4734
▁וטי	-4735
▁מרק	-4736
▁עולמ	-4737
▁הממשל	-4738
ma	-4739
▁׳	-4740
▁Int	-4741
▁באה	-4742
▁יול	-4743
▁כנה	-4744
▁לנט	-4745
▁תון	-4746
▁כרחי	-4747
▁לוודא	-4748
▁שימות	-4749
▁דיכ	-4750
▁והל	-4751
▁יכם	-4752
▁מיע	-4753
▁מפרט	-4754
▁Z	-4755
▁Ro	-4756
▁פצע	-4757
▁צוב	-4758
▁הפרטי	-4759
ig	-4760
▁רת	-4761
▁Wor	-4762
▁גיש	-4763
▁בסרט	-4764
▁הגיש	-4765
▁ופנה	-4766
▁החלטת	-4767
ark	-4768
▁ra	-4769
▁קפ	-4770
▁וגי	-4771
▁זהר	-4772
▁מכס	-4773
▁זרחי	-4774
▁ידות	-4775
▁נהיג	-4776
▁שאיר	-4777
▁סוציא	-4778
est	-4779
▁לבל	-4780
▁רוש	-4781
▁וקים	-4782
▁יווני	-4783
▁ראיות	-4784
ome	-4785
▁זע	-4786
▁התג	-4787
▁חין	-4788
▁עוט	-4789
▁תיב	-4790
▁בכיר	-4791
▁ובין	-4792
▁רטון	-4793
▁שליט	-4794
ff	-4795
ard	-4796
▁ונא	-4797
▁לבש	-4798
▁קינ	-4799
▁שוד	-4800
▁עמדת	-4801
▁יינים	-4802
▁שתמשו	-4803
▁וקי	-4804
▁קוק	-4805
▁רכה	-4806
▁וציא	-4807
▁ערכת	-4808
רכז	-4809
▁ובנ	-4810
▁נון	-4811
▁שגת	-4812
▁הירה	-4813
▁המרכז	-4814
▁ותינו	-4815
▁חומרי	-4816
▁גשת	-4817
▁יטו	-4818
▁מלט	-4819
▁דעות	-4820
▁נועד	-4821
▁המספר	-4822
▁נישוא	-4823
▁זם	-4824
▁ליצ	-4825
▁פלו	-4826
▁הגיב	-4827
▁ועדת	-4828
▁וצרת	-4829
▁עדות	-4830
▁צפו	-4831
▁ועיל	-4832
▁שתות	-4833
▁הכולל	-4834
▁והג	-4835
▁ורת	-4836
▁מתק	-4837
▁באים	-4838
▁הווה	-4839
▁הופע	-4840
▁הסיר	-4841
▁חזרו	-4842
▁ילים	-4843
▁פקוד	-4844
▁קונים	-4845
io	-4846
▁שפת	-4847
▁dows	-4848
▁בטים	-4849
▁חילו	-4850
▁מוני	-4851
▁מלמד	-4852
▁פעול	-4853
▁ציפי	-4854
▁וגו	-4855
▁להכ	-4856
▁סלו	-4857
▁[...	-4858
▁ment	-4859
▁אורך	-4860
▁יולוג	-4861
▁תיאור	-4862
ניס	-4863
▁וטה	-4864
▁וקש	-4865
▁יתכן	-4866
▁ניסה	-4867
▁עמדו	-4868
▁[...]	-4869
▁הכניס	-4870
▁כב	-4871
▁פנ	-4872
▁רר	-4873
▁גני	-4874
▁ואן	-4875
▁בשטח	-4876
▁ייעו	-4877
▁סובל	-4878
▁נייני	-4879
▁ספרדי	-4880
▁אשם	-4881
▁בחו	-4882
▁יסא	-4883
▁נשא	-4884
▁שיב	-4885
▁דיי	-4886
▁אוטו	-4887
▁טחים	-4888
▁יסון	-4889
▁רף	-4890
▁cro	-4891
▁אונ	-4892
▁הדר	-4893
▁ופיה	-4894
▁רמונ	-4895
▁ביר	-4896
▁בספר	-4897
▁לילד	-4898
▁עתיק	-4899
qu	-4900
▁סה	-4901
▁גדר	-4902
▁גנת	-4903
▁הדת	-4904
▁ניע	-4905
▁ציע	-4906
▁קבר	-4907
▁אוקי	-4908
▁רסיט	-4909
▁מוחלט	-4910
▁ביד	-4911
▁העס	-4912
▁זיכ	-4913
▁פקד	-4914
▁ציעה	-4915
BA	-4916
▁^	-4917
ing	-4918
▁Sp	-4919
▁ירב	-4920
▁סקת	-4921
▁העסקי	-4922
▁אורי	-4923
▁בדבר	-4924
▁ישיר	-4925
▁כתבו	-4926
▁תביע	-4927
▁המנ	-4928
▁כוז	-4929
▁מיש	-4930
▁נין	-4931
▁תרח	-4932
▁וטים	-4933
▁עברת	-4934
▁Q	-4935
▁Ad	-4936
▁דפס	-4937
▁הוב	-4938
▁הלכ	-4939
▁הפא	-4940
▁וואר	-4941
▁וסיפ	-4942
▁כונה	-4943
▁ערכו	-4944
▁יאת	-4945
▁מינו	-4946
▁ענות	-4947
▁WEB	-4948
▁יתם	-4949
▁שון	-4950
▁בשתי	-4951
▁ולות	-4952
▁רגול	-4953
▁יפנ	-4954
▁בדים	-4955
▁יגוד	-4956
▁קרים	-4957
▁מצביע	-4958
▁ook	-4959
▁כרת	-4960
▁רשה	-4961
▁אומנ	-4962
▁ריאל	-4963
▁רשימ	-4964
▁הצג	-4965
▁התכ	-4966
▁ויל	-4967
▁ומק	-4968
▁כתבי	-4969
▁מאמצ	-4970
▁סיני	-4971
▁קווי	-4972
▁תרחש	-4973
▁והנ	-4974
▁נמי	-4975
▁מקרי	-4976
▁פריי	-4977
▁הפיזי	-4978
▁j	-4979
▁וונ	-4980
▁ידר	-4981
▁לרי	-4982
▁מונה	-4983
▁עודי	-4984
▁ta	-4985
▁חוט	-4986
▁שיג	-4987
▁אומה	-4988
▁מופע	-4989
▁נעים	-4990
▁רסים	-4991
▁פילוס	-4992
▁so	-4993
▁זור	-4994
▁דוני	-4995
▁וביל	-4996
▁ורשת	-4997
▁קיימ	-4998
▁ריכה	-4999
▁Lo	-5000
▁כיל	-5001
▁לאל	-5002
▁כנים	-5003
▁מלכת	-5004
▁שיים	-5005
▁טפ	-5006
▁בגר	-5007
▁טרו	-5008
▁בייק	-5009
▁בלות	-5010
▁יפוי	-5011
▁משני	-5012
▁נמוכ	-5013
▁קודמ	-5014
▁הצעיר	-5015
▁ימושי	-5016
▁דונ	-5017
▁דרו	-5018
▁המז	-5019
▁רצי	-5020
▁בורה	-5021
▁פריד	-5022
▁אפשרו	-5023
▁מתג	-5024
▁מתה	-5025
▁וויי	-5026
▁להתח	-5027
▁למדו	-5028
▁פץ	-5029
▁בתו	-5030
▁הקל	-5031
▁ואר	-5032
▁מפי	-5033
▁נינ	-5034
▁הביט	-5035
▁ie	-5036
▁דס	-5037
▁בוי	-5038
▁במו	-5039
▁וזו	-5040
▁נהנ	-5041
▁פינ	-5042
▁קין	-5043
▁יקרו	-5044
▁מצוי	-5045
▁מקדש	-5046
▁ריטי	-5047
▁כוונת	-5048
▁19	-5049
▁שצ	-5050
▁דיס	-5051
▁והש	-5052
▁נתח	-5053
▁רכו	-5054
▁השיב	-5055
▁חלקה	-5056
▁מכלל	-5057
▁גורים	-5058
▁הגבול	-5059
▁וראות	-5060
▁ניסיו	-5061
▁אמו	-5062
▁ספס	-5063
▁ורני	-5064
▁21	-5065
▁הוג	-5066
▁וקב	-5067
▁ורם	-5068
▁חלו	-5069
▁מבו	-5070
▁הרגש	-5071
▁ליזם	-5072
▁ערבי	-5073
▁שאלת	-5074
▁אנר	-5075
▁ילר	-5076
▁לבי	-5077
▁מרו	-5078
▁סוע	-5079
▁צעת	-5080
▁ראק	-5081
▁הציג	-5082
▁וויד	-5083
▁ספרו	-5084
▁עובדי	-5085
▁ig	-5086
▁וממ	-5087
▁לבנ	-5088
▁תפר	-5089
▁איננ	-5090
▁יגיע	-5091
▁an	-5092
▁והב	-5093
▁והי	-5094
▁וצב	-5095
▁טורי	-5096
▁מבני	-5097
our	-5098
▁נל	-5099
▁מוי	-5100
▁שמיים	-5101
▁דלה	-5102
▁יקת	-5103
▁קות	-5104
▁קרו	-5105
▁שאף	-5106
▁תימ	-5107
▁לומד	-5108
▁לכלית	-5109
▁נתוני	-5110
▁em	-5111
▁שף	-5112
▁אכז	-5113
▁ובמ	-5114
▁ומס	-5115
▁לוב	-5116
▁החלל	-5117
▁וכרת	-5118
▁מהלך	-5119
▁רצינ	-5120
▁35	-5121
▁צט	-5122
▁התר	-5123
▁עלת	-5124
▁שתו	-5125
▁הרוס	-5126
▁ורן	-5127
▁טעו	-5128
▁ריא	-5129
▁ריז	-5130
▁ומים	-5131
▁חקיר	-5132
▁יפול	-5133
▁אלוהי	-5134
▁ברק	-5135
▁דרל	-5136
▁ולצ	-5137
▁יחה	-5138
▁ציב	-5139
▁שעל	-5140
▁אמין	-5141
▁ועדה	-5142
▁יירה	-5143
▁לורי	-5144
▁שולח	-5145
▁נוצרי	-5146
▁עט	-5147
▁זות	-5148
▁פיט	-5149
▁תים	-5150
▁בודה	-5151
▁הצי	-5152
▁התש	-5153
▁ראי	-5154
▁תאר	-5155
▁תמח	-5156
▁ותרו	-5157
▁ציפ	-5158
▁שכב	-5159
▁דרים	-5160
▁רובה	-5161
ack	-5162
▁האנ	-5163
▁ונט	-5164
▁רתי	-5165
▁מדיה	-5166
ld	-5167
▁Co	-5168
▁Me	-5169
▁העת	-5170
▁וקו	-5171
▁המלא	-5172
▁ראינ	-5173
▁שימו	-5174
▁קיבלו	-5175
▁דיב	-5176
▁ורמ	-5177
▁חדשנ	-5178
▁כתיב	-5179
ap	-5180
va	-5181
▁ועבר	-5182
▁חשבים	-5183
▁70	-5184
▁אנה	-5185
▁וקל	-5186
▁בירו	-5187
▁שירה	-5188
▁שרות	-5189
▁אמינו	-5190
▁נמצאו	-5191
▁Po	-5192
▁ודת	-5193
▁חרר	-5194
▁יומ	-5195
▁שיי	-5196
▁80	-5197
▁Wh	-5198
▁טמ	-5199
▁אדו	-5200
▁דיה	-5201
▁להע	-5202
▁סום	-5203
▁רופ	-5204
▁נוסע	-5205
▁שס	-5206
▁ght	-5207
▁לימ	-5208
▁בריו	-5209
▁הביא	-5210
▁כנסו	-5211
▁תחשב	-5212
▁is	-5213
▁תך	-5214
▁וסד	-5215
▁ילמ	-5216
▁לאים	-5217
▁עה	-5218
▁ive	-5219
▁אמנים	-5220
▁צג	-5221
▁אחי	-5222
▁דוי	-5223
▁הבן	-5224
▁ורף	-5225
▁לים	-5226
▁לית	-5227
▁טלפו	-5228
▁יסית	-5229
▁כבות	-5230
▁כנות	-5231
▁סטון	-5232
▁רוסי	-5233
▁רחים	-5234
▁שניה	-5235
▁nce	-5236
▁ישיו	-5237
▁הקה	-5238
▁חולי	-5239
▁להסת	-5240
▁שחקני	-5241
▁no	-5242
▁יקל	-5243
▁ליה	-5244
▁סים	-5245
▁פוק	-5246
▁הורי	-5247
▁ומות	-5248
▁חיסו	-5249
ke	-5250
▁חן	-5251
▁ההפ	-5252
▁שרק	-5253
▁הישג	-5254
▁התחל	-5255
▁ורמת	-5256
▁ורב	-5257
▁חרת	-5258
▁אחיו	-5259
▁אמינ	-5260
▁בוחר	-5261
▁גילה	-5262
▁לחוק	-5263
▁לשתי	-5264
▁משתנ	-5265
▁סיימ	-5266
▁בורים	-5267
th	-5268
▁יכלו	-5269
▁גוי	-5270
▁לקת	-5271
▁מאפ	-5272
▁אביב	-5273
▁בחרת	-5274
▁ישנו	-5275
▁\	-5276
▁חימ	-5277
▁ימא	-5278
▁יסת	-5279
▁ריט	-5280
▁הבין	-5281
▁ליחה	-5282
ers	-5283
▁Sc	-5284
▁To	-5285
▁והק	-5286
▁וזנ	-5287
▁יזר	-5288
▁כשר	-5289
▁רכז	-5290
▁ספיק	-5291
▁22	-5292
▁ni	-5293
▁ילת	-5294
▁לינ	-5295
▁קליט	-5296
▁במק	-5297
▁יקס	-5298
▁סטט	-5299
▁שרו	-5300
▁יווי	-5301
▁מכונ	-5302
▁ריבו	-5303
▁אחריו	-5304
▁עוניי	-5305
▁גלו	-5306
▁פקו	-5307
▁קרת	-5308
▁שבר	-5309
▁תבר	-5310
▁לופי	-5311
▁דוש	-5312
▁כאל	-5313
▁נהי	-5314
▁פחת	-5315
▁קלות	-5316
▁והח	-5317
▁ישו	-5318
▁המוני	-5319
▁Ph	-5320
▁גע	-5321
▁הקב	-5322
▁יעו	-5323
▁לכה	-5324
▁ירס	-5325
▁ציד	-5326
▁ולרי	-5327
▁זציה	-5328
▁ליני	-5329
▁מוזיק	-5330
ליכ	-5331
▁דות	-5332
▁ודק	-5333
▁לשכ	-5334
▁מנט	-5335
▁תגל	-5336
▁מייל	-5337
▁ריון	-5338
▁רעות	-5339
▁תהליכ	-5340
▁Bl	-5341
▁יער	-5342
▁מיק	-5343
▁דריש	-5344
▁ידיו	-5345
▁כוון	-5346
▁שליש	-5347
▁מהא	-5348
▁ight	-5349
▁וביי	-5350
▁וכנה	-5351
▁Le	-5352
▁אנט	-5353
▁בחן	-5354
▁טינ	-5355
▁מקס	-5356
▁רול	-5357
▁יאנ	-5358
▁להד	-5359
▁מלכ	-5360
▁ודאי	-5361
▁ציאה	-5362
▁קע	-5363
▁ותי	-5364
▁הקול	-5365
▁חשבת	-5366
▁יפות	-5367
▁Ta	-5368
▁דחו	-5369
▁מסכ	-5370
▁עמי	-5371
▁הפסק	-5372
▁יניו	-5373
▁קבלה	-5374
▁המזרח	-5375
ell	-5376
▁Pl	-5377
▁קת	-5378
▁One	-5379
▁ובו	-5380
▁ולב	-5381
▁ורח	-5382
▁לחת	-5383
▁משע	-5384
▁שוט	-5385
▁הבנת	-5386
▁הנפש	-5387
▁ותית	-5388
▁נהרג	-5389
▁וסלמי	-5390
▁למידי	-5391
▁מהנ	-5392
▁לומט	-5393
▁רשים	-5394
▁דקה	-5395
▁תגי	-5396
▁היוו	-5397
▁מזרח	-5398
▁יעורי	-5399
▁He	-5400
▁סך	-5401
▁ישא	-5402
▁קיק	-5403
▁נוחה	-5404
▁סיקו	-5405
▁צועים	-5406
מצא	-5407
▁ודא	-5408
▁ושכ	-5409
▁חיצ	-5410
▁יאר	-5411
▁פון	-5412
▁אחור	-5413
▁יבוי	-5414
▁שנמצא	-5415
▁היצ	-5416
▁יסה	-5417
▁נדו	-5418
▁אימו	-5419
▁פורו	-5420
▁זיכרו	-5421
▁מחירי	-5422
▁סביבת	-5423
▁·	-5424
סיס	-5425
▁וכב	-5426
▁כנת	-5427
▁מהת	-5428
▁שמת	-5429
▁מהפכ	-5430
▁הבסיס	-5431
▁23	-5432
▁ge	-5433
▁מגז	-5434
▁ברות	-5435
▁גרות	-5436
▁ייתי	-5437
▁עיית	-5438
▁Di	-5439
▁ri	-5440
▁פדר	-5441
▁האחר	-5442
▁ורכב	-5443
▁חווי	-5444
▁מקוו	-5445
▁התאים	-5446
▁ואלים	-5447
▁ערבית	-5448
▁90	-5449
▁אוט	-5450
▁דעה	-5451
▁וטב	-5452
▁ורכ	-5453
▁ינם	-5454
▁צגת	-5455
▁מנהלי	-5456
▁טיס	-5457
▁רטו	-5458
▁ניסו	-5459
▁ma	-5460
▁התב	-5461
▁ותם	-5462
▁כין	-5463
▁מנו	-5464
▁מצפ	-5465
▁נטו	-5466
▁סוך	-5467
▁החבר	-5468
▁ימוד	-5469
▁פניה	-5470
▁nd	-5471
▁עקו	-5472
▁וכנות	-5473
▁ננ	-5474
▁גרו	-5475
▁מתע	-5476
▁רתו	-5477
▁דיוק	-5478
▁ילדי	-5479
▁עבדו	-5480
▁צרכי	-5481
▁ימודי	-5482
▁גיר	-5483
▁זמנ	-5484
▁ציו	-5485
▁הפרס	-5486
▁יוונ	-5487
▁כנסה	-5488
▁מוסר	-5489
▁מוצע	-5490
ue	-5491
▁ׂ	-5492
▁36	-5493
▁En	-5494
▁נם	-5495
▁בעו	-5496
▁יקי	-5497
▁נחש	-5498
▁בימי	-5499
▁חובות	-5500
int	-5501
▁ובד	-5502
▁ליט	-5503
▁מאס	-5504
▁אבות	-5505
▁ינטר	-5506
▁כירו	-5507
▁נורמ	-5508
▁המערב	-5509
▁וונים	-5510
▁מבי	-5511
▁צים	-5512
▁דרכי	-5513
▁רונות	-5514
▁28	-5515
▁פיה	-5516
▁גלים	-5517
▁ולדו	-5518
▁ניצח	-5519
▁פלסטי	-5520
▁ׁ	-5521
▁We	-5522
▁soft	-5523
▁הווי	-5524
▁ועדו	-5525
▁יכוי	-5526
▁לשיר	-5527
▁עבוד	-5528
▁פלסט	-5529
▁שורות	-5530
▁ph	-5531
▁אספ	-5532
▁המט	-5533
▁כנן	-5534
▁ללו	-5535
▁שנא	-5536
▁שקל	-5537
▁גרום	-5538
▁חוקר	-5539
▁אנגלי	-5540
▁המשטר	-5541
▁(1	-5542
▁3.	-5543
▁הממ	-5544
▁לונ	-5545
▁נתה	-5546
▁רגי	-5547
▁רמן	-5548
▁יעות	-5549
▁חירים	-5550
▁Man	-5551
▁אמץ	-5552
▁וסיף	-5553
▁ופית	-5554
▁זמנו	-5555
▁המנהל	-5556
▁כניות	-5557
ss	-5558
▁z	-5559
▁דלי	-5560
▁תופ	-5561
▁גילו	-5562
▁מקסי	-5563
ry	-5564
▁האפ	-5565
▁ריי	-5566
▁שהב	-5567
▁קולות	-5568
ust	-5569
▁ומם	-5570
▁ליא	-5571
▁מלים	-5572
▁רויות	-5573
▁45	-5574
▁אגר	-5575
▁גרה	-5576
▁ולח	-5577
▁סיפ	-5578
▁קנו	-5579
▁ברתי	-5580
▁יולי	-5581
▁ילומ	-5582
▁לכתי	-5583
▁לומים	-5584
▁Am	-5585
▁צנ	-5586
▁השו	-5587
▁בבר	-5588
▁כיפ	-5589
▁נטל	-5590
▁פרצ	-5591
▁ריכ	-5592
▁רין	-5593
▁תינ	-5594
▁יקאי	-5595
▁קטור	-5596
▁שמית	-5597
▁תיקה	-5598
▁המקור	-5599
▁Cl	-5600
▁לחו	-5601
▁קיצ	-5602
▁קסי	-5603
▁גנון	-5604
▁לבים	-5605
▁פנית	-5606
ine	-5607
▁Fi	-5608
▁Is	-5609
▁ry	-5610
▁טונ	-5611
▁התיי	-5612
▁ורמו	-5613
▁יסים	-5614
▁מסור	-5615
▁נפשי	-5616
▁ריות	-5617
▁האפשר	-5618
▁עמדות	-5619
-3	-5620
▁הסט	-5621
▁ועה	-5622
▁כלת	-5623
▁פרת	-5624
▁קמה	-5625
▁חמים	-5626
▁יבית	-5627
▁צעות	-5628
▁תפיל	-5629
▁יונות	-5630
▁גאה	-5631
▁הצט	-5632
▁יחת	-5633
▁ילך	-5634
▁ובני	-5635
▁כלית	-5636
▁כמים	-5637
▁Be	-5638
▁אנס	-5639
▁החו	-5640
▁ווא	-5641
▁לטה	-5642
▁גלות	-5643
▁הפרו	-5644
▁ופות	-5645
▁רגלי	-5646
-5	-5647
▁יבו	-5648
▁דיעה	-5649
▁נהיגי	-5650
▁הכד	-5651
▁טוס	-5652
▁נתק	-5653
▁רבו	-5654
▁ייצג	-5655
▁מנות	-5656
▁ריקה	-5657
▁תגוב	-5658
fe	-5659
▁טול	-5660
▁נופ	-5661
▁רכי	-5662
▁בדות	-5663
▁ייקט	-5664
▁מבקר	-5665
▁פיים	-5666
▁תחוש	-5667
▁ודדים	-5668
▁ינטרס	-5669
▁27	-5670
▁הקט	-5671
▁כית	-5672
▁נאצ	-5673
▁שבח	-5674
▁לדות	-5675
▁שקיע	-5676
are	-5677
▁הומו	-5678
▁טימי	-5679
▁ציונ	-5680
▁תכונ	-5681
▁הכדור	-5682
▁מומחי	-5683
ast	-5684
▁דדי	-5685
▁האט	-5686
▁יאה	-5687
▁למת	-5688
▁מתב	-5689
▁שפר	-5690
▁ישון	-5691
▁בסביב	-5692
▁מלכות	-5693
▁he	-5694
▁דוא	-5695
▁מחז	-5696
▁פעת	-5697
▁בוגר	-5698
▁ברלי	-5699
▁יקאים	-5700
▁one	-5701
▁והע	-5702
▁טלנ	-5703
▁הולי	-5704
ate	-5705
▁בון	-5706
▁האח	-5707
▁כרה	-5708
▁לשה	-5709
▁שעת	-5710
▁הורא	-5711
▁שמעת	-5712
▁ומיים	-5713
▁‬	-5714
▁סף	-5715
▁New	-5716
▁ern	-5717
▁התל	-5718
▁וכה	-5719
▁בטחה	-5720
▁צביע	-5721
▁רטיים	-5722
▁וחס	-5723
▁זבו	-5724
▁חרד	-5725
▁רבע	-5726
▁בקשת	-5727
▁האמנ	-5728
▁נאצי	-5729
▁קטיבי	-5730
▁שפעות	-5731
ga	-5732
ועי	-5733
▁Wi	-5734
▁פך	-5735
▁דיל	-5736
▁היג	-5737
▁וחי	-5738
▁מיס	-5739
▁סימ	-5740
▁רור	-5741
▁המלצ	-5742
▁חמיש	-5743
▁יטור	-5744
▁משלו	-5745
▁סיבי	-5746
▁פרות	-5747
▁ירועי	-5748
ith	-5749
▁(2	-5750
▁ly	-5751
▁בסס	-5752
▁חיו	-5753
▁ייח	-5754
▁קוש	-5755
▁אמרת	-5756
▁להתב	-5757
▁פקיד	-5758
▁ביעות	-5759
▁יונים	-5760
ver	-5761
▁ההג	-5762
▁עכב	-5763
▁הצרכ	-5764
▁מחים	-5765
▁ערכה	-5766
▁תמיכ	-5767
▁ממך	-5768
▁צחי	-5769
▁גידו	-5770
▁תנות	-5771
▁הגרמנ	-5772
▁כירים	-5773
▁המג	-5774
▁תמכ	-5775
▁ונית	-5776
▁חלטת	-5777
▁אמה	-5778
▁בפר	-5779
▁גוג	-5780
▁ודו	-5781
▁עים	-5782
▁החזר	-5783
▁כותר	-5784
▁קנים	-5785
▁Sa	-5786
▁be	-5787
▁בדה	-5788
▁חדים	-5789
▁טריו	-5790
▁פנימ	-5791
▁כונים	-5792
▁App	-5793
▁גרע	-5794
▁ואמ	-5795
▁26	-5796
▁בשת	-5797
▁גבי	-5798
▁תיכ	-5799
▁וודא	-5800
▁ותיי	-5801
▁פתור	-5802
▁קדים	-5803
▁שגים	-5804
▁שלטו	-5805
▁החזיק	-5806
▁ברנ	-5807
▁ויס	-5808
▁נחת	-5809
▁בילה	-5810
▁טס	-5811
▁ורצ	-5812
▁מרצ	-5813
▁אליי	-5814
▁ניהם	-5815
▁ערכי	-5816
▁פינה	-5817
▁מויות	-5818
▁זד	-5819
▁טופ	-5820
▁רלי	-5821
▁וצרו	-5822
▁יליא	-5823
▁מעות	-5824
ובד	-5825
▁כרי	-5826
▁ילוי	-5827
▁ליטו	-5828
▁הליכי	-5829
▁וגוסט	-5830
ect	-5831
▁ממי	-5832
▁עצה	-5833
▁תוק	-5834
▁חברו	-5835
▁ניית	-5836
▁עצור	-5837
▁קלינ	-5838
▁רומי	-5839
▁רוני	-5840
ore	-5841
▁Su	-5842
▁גת	-5843
▁man	-5844
▁ure	-5845
▁צינ	-5846
▁קבי	-5847
▁הדרכ	-5848
▁עסקה	-5849
▁Tr	-5850
▁ex	-5851
▁ion	-5852
▁חלפ	-5853
▁פוח	-5854
▁אלים	-5855
▁גיעו	-5856
▁ומבי	-5857
▁קאות	-5858
▁ואחרי	-5859
▁רטיסי	-5860
▁ושה	-5861
▁זים	-5862
▁זין	-5863
▁חלה	-5864
▁טות	-5865
▁ציי	-5866
▁משמע	-5867
▁עורב	-5868
▁ותיות	-5869
▁{	-5870
▁ברכ	-5871
▁כים	-5872
▁מרה	-5873
▁עצות	-5874
▁שימת	-5875
▁תונה	-5876
אז	-5877
oll	-5878
▁אדי	-5879
▁איז	-5880
▁בקו	-5881
▁חתו	-5882
▁ניפ	-5883
▁צפי	-5884
▁מושל	-5885
▁ניים	-5886
▁קירה	-5887
▁יזציה	-5888
▁רגישו	-5889
▁Uni	-5890
▁לאף	-5891
▁מתל	-5892
▁פקט	-5893
▁שנח	-5894
▁המסע	-5895
▁וראה	-5896
▁סודי	-5897
▁ראשו	-5898
▁Te	-5899
▁קן	-5900
▁ble	-5901
▁ובא	-5902
▁ומת	-5903
▁יחו	-5904
▁מעוד	-5905
▁נטלי	-5906
▁צבעו	-5907
▁תקני	-5908
+]	-5909
vi	-5910
▁[+]	-5911
▁אגו	-5912
▁בכי	-5913
▁בצי	-5914
▁גיה	-5915
▁לאת	-5916
▁צבו	-5917
▁אחות	-5918
▁היבט	-5919
▁יאטר	-5920
▁כרות	-5921
▁מצרי	-5922
▁עשות	-5923
▁המיני	-5924
▁מריקנ	-5925
▁הונ	-5926
▁חסו	-5927
▁סיד	-5928
▁שינ	-5929
▁ללות	-5930
▁מאמצי	-5931
▁li	-5932
▁us	-5933
▁Mar	-5934
▁בלא	-5935
▁חשו	-5936
▁לאס	-5937
▁ספו	-5938
▁לחבר	-5939
▁רידה	-5940
▁רווחי	-5941
▁שתתפו	-5942
▁IP	-5943
▁יאמ	-5944
▁כשמ	-5945
▁מתר	-5946
▁הראו	-5947
▁לכות	-5948
▁תנהג	-5949
▁תשוב	-5950
▁ורשים	-5951
▁II	-5952
▁Off	-5953
▁ברה	-5954
▁הגבר	-5955
▁מלאי	-5956
▁מתים	-5957
▁תלונ	-5958
▁בויות	-5959
BC	-5960
▁ופו	-5961
▁כיח	-5962
▁מחק	-5963
▁סכנ	-5964
▁פוא	-5965
▁פלג	-5966
od	-5967
one	-5968
ree	-5969
▁US	-5970
▁דיני	-5971
▁דקים	-5972
▁כאבי	-5973
▁סורי	-5974
▁פגיע	-5975
os	-5976
▁ושפ	-5977
▁טוו	-5978
▁נטה	-5979
ood	-5980
▁IC	-5981
▁500	-5982
▁For	-5983
▁הבת	-5984
▁ואה	-5985
▁וסר	-5986
▁חצו	-5987
▁כשנ	-5988
▁שאו	-5989
▁תמו	-5990
▁בדוק	-5991
▁טחון	-5992
▁כוחו	-5993
▁לוסופ	-5994
דיא	-5995
▁All	-5996
▁son	-5997
▁ויר	-5998
▁מוז	-5999
▁מתנ	-6000
▁צופ	-6001
▁אספק	-6002
▁האופ	-6003
▁יחות	-6004
▁שביל	-6005
▁אידיא	-6006
NA	-6007
▁ארנ	-6008
▁ורע	-6009
▁נדה	-6010
▁שטו	-6011
▁יצים	-6012
▁ייחוד	-6013
▁שורים	-6014
▁-1	-6015
▁My	-6016
▁Air	-6017
▁tic	-6018
▁הבו	-6019
▁ובס	-6020
▁נגנ	-6021
▁מלחמ	-6022
▁פרים	-6023
).	-6024
▁ההו	-6025
▁ליס	-6026
▁פוג	-6027
▁הפרע	-6028
▁נסות	-6029
▁שירי	-6030
▁שמעו	-6031
▁end	-6032
▁tor	-6033
▁בטי	-6034
▁ייז	-6035
▁כיר	-6036
▁נזי	-6037
▁קני	-6038
▁תאמ	-6039
▁דשות	-6040
▁לגור	-6041
▁ליון	-6042
▁לראש	-6043
▁שעים	-6044
▁תעשי	-6045
▁דקו	-6046
▁ואו	-6047
▁לדה	-6048
▁פקה	-6049
▁צעו	-6050
▁ידיע	-6051
▁ימוש	-6052
▁גים	-6053
▁המד	-6054
▁יגר	-6055
▁כיס	-6056
▁תול	-6057
▁אליס	-6058
▁גרעי	-6059
▁ואחר	-6060
▁דיו	-6061
▁ולמ	-6062
▁מיה	-6063
▁שקו	-6064
▁גשים	-6065
▁מולד	-6066
▁נטיי	-6067
-4	-6068
▁Se	-6069
▁הלה	-6070
▁נבנ	-6071
▁סות	-6072
▁סני	-6073
▁פיפ	-6074
▁שהח	-6075
▁תיו	-6076
▁המתי	-6077
▁ינטו	-6078
▁מנים	-6079
▁קראת	-6080
▁רדות	-6081
▁תולי	-6082
-]	-6083
cc	-6084
▁29	-6085
▁[-]	-6086
▁אתן	-6087
▁השג	-6088
▁כמי	-6089
▁לוש	-6090
▁לחנ	-6091
▁לפו	-6092
▁יכון	-6093
▁לממש	-6094
▁עדים	-6095
▁רכות	-6096
▁יליונ	-6097
ass	-6098
▁באש	-6099
▁וחב	-6100
▁עות	-6101
▁שהפ	-6102
▁שחי	-6103
▁ודיו	-6104
▁מתקפ	-6105
▁סרטו	-6106
▁פונים	-6107
יאו	-6108
▁So	-6109
▁וחד	-6110
▁ועת	-6111
▁טבעו	-6112
▁המציא	-6113
ox	-6114
▁mi	-6115
▁הטי	-6116
▁ינד	-6117
▁להז	-6118
▁לחמ	-6119
▁מון	-6120
▁ערת	-6121
▁פונ	-6122
▁תצט	-6123
▁גורמ	-6124
▁זיקה	-6125
▁יטרי	-6126
▁".	-6127
▁Gr	-6128
▁by	-6129
▁אפו	-6130
▁והט	-6131
▁רשו	-6132
▁תיח	-6133
▁ולוג	-6134
▁ופיע	-6135
▁חדרי	-6136
▁יראו	-6137
▁ליות	-6138
▁תושב	-6139
▁אנרגי	-6140
▁ציוני	-6141
ברס	-6142
▁אנד	-6143
▁ולע	-6144
▁ופש	-6145
▁חתם	-6146
▁טוא	-6147
▁ממו	-6148
▁אנוש	-6149
▁בעים	-6150
▁הפיל	-6151
▁ימום	-6152
▁כשיר	-6153
▁מייד	-6154
▁ניברס	-6155
▁Da	-6156
▁Wat	-6157
▁איל	-6158
▁הרת	-6159
▁נאי	-6160
▁נתר	-6161
▁תחז	-6162
▁אלבו	-6163
▁ארכי	-6164
▁מבטי	-6165
▁עזרת	-6166
▁מאחור	-6167
▁4.	-6168
▁זרו	-6169
▁יוב	-6170
▁ליכ	-6171
▁סיל	-6172
▁פיס	-6173
▁שות	-6174
▁שרד	-6175
▁טומי	-6176
▁פיין	-6177
▁שטחי	-6178
▁הבטיח	-6179
yp	-6180
▁~	-6181
▁ֱ	-6182
▁gy	-6183
▁se	-6184
▁ur	-6185
▁ביק	-6186
▁ברט	-6187
▁גשו	-6188
▁הומ	-6189
▁כנו	-6190
▁סקו	-6191
▁ריו	-6192
▁ריל	-6193
▁vers	-6194
▁וירו	-6195
▁לוקי	-6196
-1	-6197
▁Sk	-6198
▁הדג	-6199
▁המב	-6200
▁ness	-6201
▁גרפי	-6202
▁ליכם	-6203
▁ספיר	-6204
▁עיניי	-6205
AS	-6206
גם	-6207
▁Do	-6208
▁No	-6209
▁לחי	-6210
▁Offi	-6211
▁גורמי	-6212
IV	-6213
ath	-6214
▁סס	-6215
▁פן	-6216
▁Ser	-6217
▁אטי	-6218
▁במפ	-6219
▁רית	-6220
▁בלים	-6221
▁המשק	-6222
▁הציב	-6223
▁סימני	-6224
ild	-6225
▁IS	-6226
▁יפו	-6227
▁מיל	-6228
▁שהק	-6229
▁תאם	-6230
▁הודי	-6231
▁וונת	-6232
▁יתנו	-6233
▁ציגי	-6234
▁יסטית	-6235
▁Ha	-6236
▁sp	-6237
▁est	-6238
▁באת	-6239
▁זרת	-6240
▁ימן	-6241
▁לתק	-6242
▁מסד	-6243
▁ניא	-6244
▁בחיר	-6245
▁לצות	-6246
▁נגלי	-6247
▁סימו	-6248
▁קולי	-6249
▁הוכיח	-6250
▁ישורי	-6251
▁כוכבי	-6252
▁«	-6253
טרו	-6254
▁SE	-6255
▁בהר	-6256
▁רונ	-6257
▁לבדו	-6258
▁צאות	-6259
co	-6260
פע	-6261
▁Vi	-6262
▁co	-6263
▁חה	-6264
▁היפ	-6265
▁סכם	-6266
▁תקפ	-6267
▁בילו	-6268
▁מונו	-6269
▁lo	-6270
▁200	-6271
▁הכנ	-6272
▁ופי	-6273
▁חנה	-6274
▁התיא	-6275
▁פשית	-6276
▁ריכת	-6277
▁שווא	-6278
▁ההשפע	-6279
▁ian	-6280
▁התפ	-6281
▁והצ	-6282
▁זוק	-6283
▁ושלמ	-6284
▁יימת	-6285
▁נסיב	-6286
ind	-6287
▁יוצ	-6288
▁מדת	-6289
▁נתי	-6290
▁סטו	-6291
▁רעו	-6292
▁וקול	-6293
▁שפיע	-6294
ide	-6295
▁do	-6296
▁חנ	-6297
▁Pre	-6298
▁זרה	-6299
▁ממד	-6300
▁נוג	-6301
▁צלי	-6302
▁Comm	-6303
▁ולהי	-6304
▁צלחת	-6305
▁32	-6306
▁CB	-6307
▁IT	-6308
▁חפש	-6309
▁מלו	-6310
▁ביעה	-6311
▁טענו	-6312
▁צויי	-6313
▁>>	-6314
▁בוכ	-6315
▁ואפ	-6316
▁והכ	-6317
▁משם	-6318
▁קטו	-6319
▁רוצי	-6320
-6	-6321
▁דש	-6322
▁ted	-6323
▁באל	-6324
▁ומח	-6325
▁לדת	-6326
▁מוך	-6327
▁מתא	-6328
▁סיר	-6329
▁ראת	-6330
▁בחנו	-6331
▁יכנס	-6332
▁יפיו	-6333
▁תוספ	-6334
ick	-6335
▁di	-6336
▁Out	-6337
▁ers	-6338
▁איב	-6339
▁האז	-6340
▁הגי	-6341
▁ולס	-6342
▁טאו	-6343
▁נפי	-6344
▁פנו	-6345
▁קים	-6346
▁שרי	-6347
▁המתו	-6348
▁אולוג	-6349
-2	-6350
AT	-6351
ta	-6352
▁CO	-6353
▁דיד	-6354
▁יעת	-6355
▁יצל	-6356
▁סרת	-6357
▁רים	-6358
▁קרון	-6359
▁דום	-6360
▁חתה	-6361
▁יקט	-6362
▁וכמה	-6363
▁ולהת	-6364
▁ורטו	-6365
▁ורטי	-6366
▁לאות	-6367
▁מדים	-6368
CD	-6369
▁}	-6370
▁Jo	-6371
▁בגד	-6372
▁בדם	-6373
▁האק	-6374
▁הגז	-6375
▁ותח	-6376
▁ילה	-6377
▁לעי	-6378
▁נסט	-6379
▁שבא	-6380
▁וברי	-6381
▁טרנט	-6382
▁יקים	-6383
▁ישים	-6384
▁רצות	-6385
▁אופטי	-6386
ep	-6387
▁_	-6388
ala	-6389
▁iP	-6390
▁Res	-6391
▁pro	-6392
▁בבו	-6393
▁מיצ	-6394
▁פיג	-6395
▁קאר	-6396
▁להיו	-6397
▁מונת	-6398
▁רפיה	-6399
▁da	-6400
▁דמת	-6401
▁ינר	-6402
▁סגן	-6403
▁שדר	-6404
▁תנה	-6405
▁ence	-6406
▁הגעת	-6407
▁פיינ	-6408
▁פליט	-6409
▁קונג	-6410
▁World	-6411
▁וניות	-6412
▁un	-6413
▁And	-6414
▁דיא	-6415
▁הרמ	-6416
▁וקד	-6417
▁חדת	-6418
▁טימ	-6419
▁רפו	-6420
▁Home	-6421
▁וראי	-6422
▁להתא	-6423
פרי	-6424
▁גמה	-6425
▁דול	-6426
▁וכש	-6427
▁ימו	-6428
▁פסת	-6429
▁תלב	-6430
▁הבטח	-6431
▁חסות	-6432
▁סרטי	-6433
▁31	-6434
▁TH	-6435
▁דב	-6436
▁שז	-6437
▁ולכ	-6438
▁ותפ	-6439
▁סטנ	-6440
▁סיס	-6441
▁שקע	-6442
▁יפור	-6443
▁לולי	-6444
▁לנוע	-6445
▁עקבו	-6446
▁תיות	-6447
▁העובד	-6448
▁טינית	-6449
de	-6450
▁la	-6451
▁יטנ	-6452
▁סיג	-6453
▁בחינ	-6454
▁הפעל	-6455
▁תזונ	-6456
▁משאבי	-6457
▁פעילי	-6458
AR	-6459
ost	-6460
▁5.	-6461
▁הגל	-6462
▁חיס	-6463
▁טיח	-6464
▁קיו	-6465
▁קיע	-6466
▁ביעי	-6467
▁וחות	-6468
▁סבור	-6469
ime	-6470
▁nc	-6471
▁ies	-6472
▁אוד	-6473
▁גנו	-6474
▁והס	-6475
▁ורל	-6476
▁ישה	-6477
▁כסי	-6478
▁לטר	-6479
▁לטת	-6480
▁מרת	-6481
▁תרי	-6482
▁הילה	-6483
▁ודיה	-6484
▁ינות	-6485
▁מעלי	-6486
',	-6487
▁ey	-6488
▁ארמ	-6489
▁דמו	-6490
▁טרס	-6491
▁ראן	-6492
▁רכם	-6493
▁רכת	-6494
▁אסלא	-6495
▁דלים	-6496
▁ימונ	-6497
▁ליטה	-6498
▁קרית	-6499
▁רדים	-6500
▁מקומו	-6501
▁→	-6502
▁48	-6503
▁:)	-6504
▁דד	-6505
▁משל	-6506
▁שפו	-6507
▁יהנו	-6508
▁שמיר	-6509
old	-6510
▁pl	-6511
▁gra	-6512
▁הקפ	-6513
▁וחנ	-6514
▁זני	-6515
▁שהש	-6516
▁גדות	-6517
▁Med	-6518
▁ial	-6519
▁אפי	-6520
▁אתו	-6521
▁ונו	-6522
▁טבח	-6523
▁מהב	-6524
▁מחנ	-6525
▁ננו	-6526
▁סרו	-6527
▁פקת	-6528
▁שהע	-6529
▁תקו	-6530
▁יורי	-6531
▁יילי	-6532
▁צדדי	-6533
▁מטוסי	-6534
ook	-6535
▁75	-6536
▁Sy	-6537
▁ss	-6538
▁בגן	-6539
▁זוי	-6540
▁ילו	-6541
▁יקו	-6542
▁לחצ	-6543
▁שבי	-6544
▁ומדי	-6545
▁וזיאו	-6546
ti	-6547
▁תף	-6548
▁Hot	-6549
▁wor	-6550
▁הבה	-6551
▁ינת	-6552
▁ישת	-6553
▁עתם	-6554
▁Amer	-6555
▁בניה	-6556
▁מטרי	-6557
▁ניין	-6558
▁ספקי	-6559
▁שרים	-6560
▁תוכנ	-6561
▁`	-6562
ite	-6563
▁gn	-6564
▁HIV	-6565
▁Hum	-6566
▁הגנ	-6567
▁טוי	-6568
▁ישל	-6569
▁רנט	-6570
▁ויקט	-6571
▁לבני	-6572
▁לואי	-6573
▁מיתי	-6574
▁פגיש	-6575
עד	-6576
▁Un	-6577
▁ותמ	-6578
▁נקו	-6579
▁שהנ	-6580
▁תפו	-6581
▁מייק	-6582
▁מצבי	-6583
▁קדמי	-6584
▁קודה	-6585
▁net	-6586
▁חמה	-6587
▁כאי	-6588
▁לער	-6589
▁Love	-6590
▁בגדי	-6591
▁קדמו	-6592
▁שמוע	-6593
▁רצינו	-6594
IS	-6595
PS	-6596
ak	-6597
mo	-6598
mp	-6599
▁Pr	-6600
▁War	-6601
▁בצר	-6602
▁געת	-6603
▁ואש	-6604
▁ובת	-6605
▁וקט	-6606
▁ושב	-6607
▁ושמ	-6608
▁לעם	-6609
▁גיות	-6610
▁הנית	-6611
▁הפרט	-6612
▁טיות	-6613
▁להתע	-6614
▁קשרי	-6615
▁שתתף	-6616
xt	-6617
▁תד	-6618
▁קוס	-6619
▁גשתי	-6620
▁השיג	-6621
▁ליים	-6622
▁ER	-6623
▁qu	-6624
▁300	-6625
▁out	-6626
▁אוי	-6627
▁בתה	-6628
▁השמ	-6629
▁לרצ	-6630
▁מנם	-6631
▁שתפ	-6632
ES	-6633
ound	-6634
▁בענ	-6635
▁טעי	-6636
▁יפל	-6637
▁אלימ	-6638
▁בלונ	-6639
▁הגיר	-6640
▁הטיפ	-6641
▁תמונ	-6642
PN	-6643
ly	-6644
▁זיר	-6645
▁כרח	-6646
▁סמה	-6647
▁קדו	-6648
▁וויה	-6649
▁עורכ	-6650
▁עזוב	-6651
▁הסיכו	-6652
▁מספרי	-6653
▁טח	-6654
▁צת	-6655
▁Tra	-6656
▁בלנ	-6657
▁דפי	-6658
▁העמ	-6659
▁יהי	-6660
▁יטא	-6661
▁לאח	-6662
▁מגן	-6663
▁שהס	-6664
▁נאות	-6665
רק	-6666
oun	-6667
▁IN	-6668
▁Mac	-6669
▁ביש	-6670
▁בלת	-6671
▁בקה	-6672
▁וגנ	-6673
▁לור	-6674
▁נקב	-6675
▁צוא	-6676
▁כריז	-6677
▁מתוכ	-6678
ED	-6679
ank	-6680
▁(3	-6681
▁way	-6682
▁הוק	-6683
▁סמי	-6684
▁קאי	-6685
▁רפי	-6686
▁שמא	-6687
▁תפק	-6688
▁בידו	-6689
▁יבוש	-6690
▁נימי	-6691
▁נקצי	-6692
DA	-6693
ace	-6694
ash	-6695
▁ca	-6696
▁במז	-6697
▁מקצ	-6698
▁תוח	-6699
▁המלו	-6700
▁מחקרי	-6701
▁נושאי	-6702
אף	-6703
▁It	-6704
▁Qu	-6705
▁הגן	-6706
▁מגו	-6707
▁מצו	-6708
▁חוזי	-6709
▁חויב	-6710
▁חתונ	-6711
▁כינו	-6712
▁כשהו	-6713
▁מיתו	-6714
▁סיון	-6715
▁מוסיק	-6716
▁Op	-6717
▁Exp	-6718
▁Sch	-6719
▁you	-6720
▁בפנ	-6721
▁דרה	-6722
▁הלת	-6723
▁הפג	-6724
▁ויה	-6725
▁להנ	-6726
▁מלצ	-6727
▁קדמ	-6728
▁אומי	-6729
▁וניה	-6730
▁וצות	-6731
▁זרות	-6732
▁תיהם	-6733
▁פופול	-6734
▁רוכים	-6735
▁MA	-6736
▁איג	-6737
▁הספ	-6738
▁הפה	-6739
▁טאר	-6740
▁יגו	-6741
▁לאנ	-6742
▁נימ	-6743
▁נשי	-6744
▁באור	-6745
▁Human	-6746
ww	-6747
▁nge	-6748
▁ואנ	-6749
▁פלי	-6750
▁בעצמ	-6751
▁Ed	-6752
▁me	-6753
▁rch	-6754
▁בהק	-6755
▁נאס	-6756
▁אמרי	-6757
▁Watch	-6758
▁ותפים	-6759
ER	-6760
me	-6761
▁33	-6762
▁אֶ	-6763
▁www	-6764
▁העי	-6765
▁ובן	-6766
▁והו	-6767
▁יטל	-6768
▁מעש	-6769
▁פרח	-6770
▁קלו	-6771
▁גברי	-6772
▁דיאט	-6773
▁לוני	-6774
▁פיעו	-6775
▁כשירי	-6776
▁כף	-6777
▁Can	-6778
▁tal	-6779
▁דיג	-6780
▁הסו	-6781
▁העל	-6782
▁מדו	-6783
▁מקל	-6784
▁ציג	-6785
▁קפי	-6786
▁Life	-6787
▁אחרא	-6788
▁הציל	-6789
▁ותים	-6790
▁יימי	-6791
▁ינית	-6792
▁יריד	-6793
▁ניקה	-6794
▁צטרף	-6795
▁שתנו	-6796
-8	-6797
ca	-6798
ink	-6799
▁Mus	-6800
▁Not	-6801
▁הפצ	-6802
▁ואח	-6803
▁פוי	-6804
▁ריר	-6805
▁אדמה	-6806
▁אימה	-6807
▁וגיה	-6808
▁כריס	-6809
▁סגנו	-6810
▁חיילי	-6811
olo	-6812
▁Go	-6813
▁וטנ	-6814
▁לרע	-6815
▁קוו	-6816
▁דורג	-6817
▁חותי	-6818
▁מועדו	-6819
ip	-6820
▁באס	-6821
▁דלו	-6822
▁התה	-6823
▁להתג	-6824
▁מכור	-6825
▁רצית	-6826
▁AS	-6827
▁MBA	-6828
▁בבי	-6829
▁הוי	-6830
▁ודד	-6831
▁קשת	-6832
▁הכיר	-6833
▁יקון	-6834
▁פיות	-6835
▁צמיח	-6836
OS	-6837
ara	-6838
own	-6839
▁Bus	-6840
▁Day	-6841
▁בוג	-6842
▁ההנ	-6843
▁היח	-6844
▁יטת	-6845
▁ירג	-6846
▁נוט	-6847
▁רוו	-6848
▁רחו	-6849
▁שלפ	-6850
▁המונ	-6851
▁הרשמ	-6852
▁מנית	-6853
▁מציא	-6854
▁רירי	-6855
▁65	-6856
▁Bo	-6857
▁ol	-6858
reat	-6859
▁150	-6860
▁Ass	-6861
▁Sec	-6862
▁גאו	-6863
▁ומפ	-6864
▁יסל	-6865
▁למו	-6866
▁נחל	-6867
▁Cent	-6868
▁Comp	-6869
▁וספי	-6870
▁קרובי	-6871
ew	-6872
▁iv	-6873
▁ככ	-6874
▁אוש	-6875
▁אלן	-6876
▁ההס	-6877
▁לאב	-6878
▁נוד	-6879
▁ליבר	-6880
'.	-6881
rom	-6882
▁VPN	-6883
▁day	-6884
▁חזי	-6885
▁יוו	-6886
▁ליו	-6887
▁סלא	-6888
▁גרים	-6889
▁הירי	-6890
▁הרבי	-6891
▁ושות	-6892
▁לטות	-6893
▁מינה	-6894
▁העיקר	-6895
▁לקטרו	-6896
-7	-6897
IT	-6898
eo	-6899
op	-6900
▁fi	-6901
▁Pal	-6902
▁Pri	-6903
▁Sci	-6904
▁dis	-6905
▁אלק	-6906
▁הרו	-6907
▁מהק	-6908
▁Play	-6909
▁ican	-6910
▁המחו	-6911
▁מילו	-6912
▁משלה	-6913
-9	-6914
ab	-6915
ame	-6916
hen	-6917
▁-2	-6918
▁AC	-6919
▁AD	-6920
▁Sw	-6921
▁mo	-6922
▁בבת	-6923
▁בוט	-6924
▁וסס	-6925
▁יפר	-6926
▁לשי	-6927
▁מהש	-6928
▁גירו	-6929
▁ייחס	-6930
▁ימני	-6931
▁יקלי	-6932
▁לכים	-6933
▁מטרו	-6934
▁מתרג	-6935
▁Hotel	-6936
▁כנסיי	-6937
▁עצמית	-6938
mi	-6939
▁2:	-6940
▁id	-6941
▁il	-6942
▁my	-6943
▁בדף	-6944
▁הטע	-6945
▁ילנ	-6946
▁מנצ	-6947
▁קיש	-6948
▁אנגל	-6949
▁לחיי	-6950
▁לטון	-6951
▁משכו	-6952
▁ננים	-6953
▁הולדת	-6954
ant	-6955
▁34	-6956
▁sta	-6957
▁הית	-6958
▁והד	-6959
▁לכי	-6960
▁נעל	-6961
▁סוצ	-6962
▁with	-6963
▁התמו	-6964
▁פורנ	-6965
MS	-6966
ON	-6967
gi	-6968
▁(1)	-6969
▁NBA	-6970
▁Per	-6971
▁דגש	-6972
▁ההכ	-6973
▁הקצ	-6974
▁Serv	-6975
IN	-6976
ru	-6977
itt	-6978
משי	-6979
▁55	-6980
▁At	-6981
▁יזה	-6982
▁מרג	-6983
▁שוכ	-6984
▁הבעל	-6985
▁נדון	-6986
▁שתמשי	-6987
▁גה	-6988
▁ard	-6989
▁בטו	-6990
▁ומב	-6991
▁סבר	-6992
▁תכם	-6993
▁ינוק	-6994
▁ליסט	-6995
▁משלת	-6996
▁קנית	-6997
▁יניות	-6998
ond	-6999
▁קץ	-7000
▁Car	-7001
▁לחש	-7002
▁יריי	-7003
▁לוות	-7004
▁ללית	-7005
▁תאימ	-7006
▁רכיבי	-7007
iz	-7008
▁37	-7009
▁Bu	-7010
▁Net	-7011
▁Web	-7012
▁ארו	-7013
▁בוו	-7014
▁הער	-7015
▁טפו	-7016
▁כספ	-7017
▁לני	-7018
▁מכו	-7019
▁קטי	-7020
▁Next	-7021
▁Word	-7022
▁ורדי	-7023
▁מעונ	-7024
▁משנה	-7025
▁קרוב	-7026
▁ריאה	-7027
si	-7028
te	-7029
ong	-7030
▁Gu	-7031
▁Act	-7032
▁bil	-7033
▁ומל	-7034
▁חית	-7035
▁חקו	-7036
▁יזו	-7037
▁כרו	-7038
▁למק	-7039
▁סנד	-7040
▁שהה	-7041
▁שהכ	-7042
▁ומני	-7043
▁ורשי	-7044
▁טופל	-7045
▁לדוג	-7046
▁לעצמ	-7047
▁סטינ	-7048
▁ביכול	-7049
▁השווא	-7050
hn	-7051
att	-7052
▁ES	-7053
▁du	-7054
▁נמ	-7055
▁גרת	-7056
▁וסו	-7057
▁טרה	-7058
▁לאר	-7059
▁לבט	-7060
▁לטו	-7061
▁קרט	-7062
▁בדיו	-7063
▁יליו	-7064
▁ליפו	-7065
▁ריהם	-7066
▁בוודא	-7067
ory	-7068
▁AM	-7069
▁10%	-7070
▁Inc	-7071
▁העץ	-7072
▁טרנ	-7073
▁למנ	-7074
▁מהע	-7075
▁צרה	-7076
▁שבמ	-7077
▁שעי	-7078
▁הקומ	-7079
▁ושבת	-7080
▁1:	-7081
▁7.	-7082
▁Ab	-7083
▁ha	-7084
▁כע	-7085
▁Mon	-7086
▁nic	-7087
▁דוב	-7088
▁הסל	-7089
▁ושג	-7090
▁יהל	-7091
▁לטי	-7092
▁מהג	-7093
▁מטע	-7094
▁צרת	-7095
▁Cont	-7096
▁בצעי	-7097
▁דורי	-7098
▁הספר	-7099
▁טריי	-7100
▁יקור	-7101
▁מצאי	-7102
▁נגדו	-7103
▁שלמו	-7104
▁38	-7105
▁Bro	-7106
▁וצל	-7107
▁לוו	-7108
▁לום	-7109
▁מכה	-7110
▁מתפ	-7111
▁פרא	-7112
▁ומית	-7113
▁קרטי	-7114
▁רובי	-7115
RI	-7116
iv	-7117
▁SS	-7118
▁as	-7119
▁Dis	-7120
▁olo	-7121
▁אימ	-7122
▁אסי	-7123
▁גזי	-7124
▁הסמ	-7125
▁ופת	-7126
▁מהח	-7127
▁נגו	-7128
▁ניז	-7129
▁סבי	-7130
▁What	-7131
▁להצט	-7132
▁מקומ	-7133
▁אינטר	-7134
▁פייני	-7135
▁ריכים	-7136
ata	-7137
▁42	-7138
▁Pa	-7139
▁Ra	-7140
▁um	-7141
ount	-7142
ouse	-7143
▁nta	-7144
▁יאט	-7145
▁יוג	-7146
▁ששת	-7147
▁שתף	-7148
▁Busi	-7149
▁יידי	-7150
▁ונאים	-7151
▁טיביו	-7152
AN	-7153
▁‭	-7154
ype	-7155
לחמ	-7156
▁6.	-7157
▁DNA	-7158
▁Sta	-7159
▁בדל	-7160
▁טוק	-7161
▁לבר	-7162
▁נגר	-7163
▁פוז	-7164
▁שאפ	-7165
▁שלג	-7166
▁Arch	-7167
▁אותנ	-7168
▁בעות	-7169
▁עורי	-7170
▁קניו	-7171
▁הוועד	-7172
▁ינויי	-7173
▁לוגית	-7174
ear	-7175
ous	-7176
▁sa	-7177
▁Bri	-7178
▁הפנ	-7179
▁ומש	-7180
▁חים	-7181
▁יוז	-7182
▁לגי	-7183
▁לתא	-7184
▁נלי	-7185
▁סבא	-7186
▁שמנ	-7187
▁Post	-7188
▁חיוב	-7189
▁יגות	-7190
▁ישהו	-7191
▁סיפו	-7192
▁סיקה	-7193
▁בוגרי	-7194
oup	-7195
ube	-7196
▁8.	-7197
▁HD	-7198
▁ess	-7199
▁גון	-7200
▁הנכ	-7201
▁וכר	-7202
▁לעד	-7203
▁נוא	-7204
▁פאל	-7205
▁Inst	-7206
▁איות	-7207
▁בדרכ	-7208
▁בילי	-7209
▁וגים	-7210
▁וטין	-7211
▁סופו	-7212
▁תבונ	-7213
▁התחלת	-7214
▁Fa	-7215
▁Glo	-7216
▁Pay	-7217
▁con	-7218
▁gen	-7219
▁ine	-7220
▁אֶת	-7221
▁גדי	-7222
▁חיז	-7223
▁מאנ	-7224
▁ניכ	-7225
▁סיב	-7226
▁עדן	-7227
▁שהר	-7228
▁land	-7229
▁אריך	-7230
▁החומ	-7231
▁העלו	-7232
▁ישיב	-7233
▁מחיי	-7234
▁תיקי	-7235
▁ופלים	-7236
▁ימיים	-7237
▁@	-7238
▁́	-7239
▁CD	-7240
▁PC	-7241
▁sm	-7242
▁su	-7243
▁up	-7244
▁400	-7245
▁אוק	-7246
▁אסט	-7247
▁ייו	-7248
▁Star	-7249
▁גרמנ	-7250
▁העול	-7251
▁וחלט	-7252
▁יבות	-7253
▁יימו	-7254
▁קומו	-7255
▁ריים	-7256
PA	-7257
▁	-7258
▁AN	-7259
▁חץ	-7260
▁אדר	-7261
▁זמו	-7262
▁זרם	-7263
▁קתי	-7264
▁שלמ	-7265
▁שתק	-7266
▁Book	-7267
▁Park	-7268
▁היינ	-7269
▁ומרי	-7270
▁מנוי	-7271
▁הברית	-7272
▁מקורו	-7273
בו	-7274
▁HT	-7275
▁Or	-7276
▁ST	-7277
▁Sm	-7278
▁Up	-7279
▁go	-7280
▁ny	-7281
▁ומו	-7282
▁יכה	-7283
▁נוף	-7284
▁סקה	-7285
▁פיי	-7286
▁פיכ	-7287
▁מצאת	-7288
▁נהגו	-7289
▁צמחי	-7290
▁הרגלי	-7291
AC	-7292
▁Na	-7293
▁eb	-7294
▁(2)	-7295
▁איד	-7296
▁גטו	-7297
▁ובק	-7298
▁ותנ	-7299
▁יגי	-7300
▁ידא	-7301
▁לנה	-7302
▁מאל	-7303
▁מהד	-7304
▁סעו	-7305
▁פתו	-7306
▁ress	-7307
▁ובנו	-7308
▁ורסי	-7309
▁יקני	-7310
▁לאומ	-7311
▁שובו	-7312
▁Point	-7313
RE	-7314
▁ert	-7315
▁ric	-7316
▁הפס	-7317
▁ופצ	-7318
▁חדו	-7319
▁ימה	-7320
▁יעל	-7321
▁מעי	-7322
▁מעת	-7323
▁reet	-7324
▁גוון	-7325
▁דעים	-7326
▁דרות	-7327
▁הירו	-7328
▁יאון	-7329
▁ימנע	-7330
▁סוצי	-7331
▁רגשת	-7332
▁טינים	-7333
RA	-7334
▁we	-7335
▁Sou	-7336
▁וכנ	-7337
▁חרא	-7338
▁טום	-7339
▁מבל	-7340
▁מהכ	-7341
▁קסם	-7342
▁שתת	-7343
▁תקש	-7344
▁play	-7345
▁בקרו	-7346
▁המלכ	-7347
▁חלות	-7348
▁שותפי	-7349
של	-7350
▁AT	-7351
▁Fl	-7352
▁Of	-7353
▁Tw	-7354
▁ba	-7355
▁Her	-7356
▁האר	-7357
▁הבק	-7358
▁צמא	-7359
▁ורנו	-7360
▁ראלי	-7361
▁שורת	-7362
na	-7363
▁IB	-7364
▁UN	-7365
▁cy	-7366
▁ev	-7367
▁50%	-7368
▁Sea	-7369
▁ice	-7370
▁בדו	-7371
▁הדף	-7372
▁וצע	-7373
▁חוז	-7374
▁ידן	-7375
▁תקף	-7376
▁להתק	-7377
▁פתחו	-7378
▁תופע	-7379
ett	-7380
▁במד	-7381
▁מצי	-7382
▁עיה	-7383
▁רבת	-7384
▁Mark	-7385
▁Onli	-7386
▁ונות	-7387
▁וצאה	-7388
▁ותני	-7389
▁חשיב	-7390
▁טרונ	-7391
▁מורי	-7392
▁מרות	-7393
▁סיונ	-7394
▁תקפו	-7395
▁וויזי	-7396
ci	-7397
▁←	-7398
▁🙂	-7399
▁Ca	-7400
▁ID	-7401
▁ul	-7402
▁ut	-7403
▁בם	-7404
▁Art	-7405
▁Gen	-7406
▁iPh	-7407
▁nti	-7408
▁ver	-7409
▁ארת	-7410
▁טלי	-7411
▁יכת	-7412
▁ישי	-7413
▁כשם	-7414
▁ללי	-7415
▁נני	-7416
▁tics	-7417
▁דיהם	-7418
▁הנות	-7419
▁זונה	-7420
▁חשבה	-7421
▁מכות	-7422
▁ניקו	-7423
▁קנות	-7424
▁ריכו	-7425
▁חוזים	-7426
AP	-7427
US	-7428
uro	-7429
▁52	-7430
▁Aw	-7431
▁Dri	-7432
▁Red	-7433
▁אוב	-7434
▁בסו	-7435
▁טיר	-7436
▁ינל	-7437
▁יתנ	-7438
▁שוע	-7439
▁גיבו	-7440
▁וטרי	-7441
IC	-7442
ha	-7443
orn	-7444
uto	-7445
▁!!	-7446
▁39	-7447
▁EC	-7448
▁Ent	-7449
▁ond	-7450
▁אטו	-7451
▁ודם	-7452
▁לאמ	-7453
▁נדס	-7454
▁פוך	-7455
▁רסו	-7456
▁שכך	-7457
▁תעמ	-7458
▁Part	-7459
▁ארים	-7460
▁טובי	-7461
▁טוני	-7462
▁יבים	-7463
▁עצבי	-7464
▁החוקר	-7465
AM	-7466
שם	-7467
▁ֻ	-7468
ase	-7469
yle	-7470
▁1)	-7471
▁Si	-7472
▁זא	-7473
▁Acc	-7474
▁Don	-7475
▁אגם	-7476
▁חני	-7477
▁יעה	-7478
▁כחו	-7479
▁מהס	-7480
▁מפה	-7481
▁port	-7482
▁הכות	-7483
▁טרלי	-7484
▁ירונ	-7485
▁עיון	-7486
AL	-7487
rip	-7488
פלג	-7489
▁85	-7490
▁bo	-7491
▁dy	-7492
▁if	-7493
▁Har	-7494
▁בונ	-7495
▁בתר	-7496
▁ויק	-7497
▁טרל	-7498
▁לאש	-7499
▁מאר	-7500
▁Live	-7501
▁ביצי	-7502
▁במשק	-7503
▁הקרי	-7504
▁והים	-7505
▁יטות	-7506
▁לומי	-7507
▁צירו	-7508
▁רואי	-7509
▁המפלג	-7510
▁נויים	-7511
ph	-7512
ua	-7513
za	-7514
▁®	-7515
alk	-7516
ord	-7517
▁95	-7518
▁Des	-7519
▁FDA	-7520
▁Stu	-7521
▁ple	-7522
▁סלי	-7523
▁שעד	-7524
▁ביעו	-7525
▁ידיא	-7526
▁כרים	-7527
▁ליטי	-7528
▁פיתו	-7529
▁רמים	-7530
▁תרופו	-7531
▁<	-7532
▁99	-7533
▁Ke	-7534
▁gi	-7535
▁ki	-7536
▁אע	-7537
▁גס	-7538
▁צח	-7539
▁nes	-7540
▁ההמ	-7541
▁סיו	-7542
▁עצת	-7543
▁רזי	-7544
▁רתה	-7545
▁חילה	-7546
▁הרגשת	-7547
amp	-7548
igh	-7549
▁Ja	-7550
▁MS	-7551
▁bl	-7552
▁ka	-7553
▁ti	-7554
▁Pow	-7555
▁cha	-7556
▁ell	-7557
▁אמפ	-7558
▁הפו	-7559
▁זיל	-7560
▁ימפ	-7561
▁כהן	-7562
▁שתל	-7563
▁John	-7564
▁Tran	-7565
▁Tube	-7566
▁השרא	-7567
▁וגבל	-7568
▁ודות	-7569
▁ונגר	-7570
▁להתי	-7571
▁פניי	-7572
▁00	-7573
▁HP	-7574
▁Pi	-7575
▁TO	-7576
▁des	-7577
▁tes	-7578
▁דגם	-7579
▁ונפ	-7580
▁כבת	-7581
▁מוא	-7582
▁נדב	-7583
▁נשמ	-7584
▁פצו	-7585
▁רעש	-7586
▁שתה	-7587
▁וכני	-7588
▁ציאל	-7589
▁והבים	-7590
▁כולתי	-7591
DF	-7592
IP	-7593
ne	-7594
oli	-7595
oud	-7596
▁2)	-7597
▁ow	-7598
▁Bea	-7599
▁Cha	-7600
▁Met	-7601
▁Pla	-7602
▁אסל	-7603
▁השח	-7604
▁ונר	-7605
▁וקא	-7606
▁יעי	-7607
▁יפת	-7608
▁כלש	-7609
▁ענן	-7610
▁שנו	-7611
▁Time	-7612
▁work	-7613
▁ברחו	-7614
▁וניו	-7615
▁עיקר	-7616
▁קונס	-7617
▁ודיות	-7618
RC	-7619
▁As	-7620
▁EM	-7621
▁טג	-7622
▁SEO	-7623
▁der	-7624
▁ica	-7625
▁sis	-7626
▁במצ	-7627
▁הבד	-7628
▁ונת	-7629
▁זקן	-7630
▁יתק	-7631
▁סבו	-7632
▁סונ	-7633
▁עצי	-7634
▁תיע	-7635
▁Outl	-7636
▁ולמו	-7637
▁כולת	-7638
▁שאים	-7639
▁Apple	-7640
▁‫	-7641
row	-7642
▁Ni	-7643
▁Fil	-7644
▁אחו	-7645
▁איו	-7646
▁בכם	-7647
▁בשו	-7648
▁געו	-7649
▁גשה	-7650
▁גשם	-7651
▁וחצ	-7652
▁עוז	-7653
▁עינ	-7654
▁דמים	-7655
▁ייבי	-7656
▁להיש	-7657
▁להתנ	-7658
▁לטוב	-7659
▁עיצו	-7660
▁קורב	-7661
▁שאול	-7662
▁שתיי	-7663
DS	-7664
▁64	-7665
▁AP	-7666
▁BM	-7667
▁Lu	-7668
▁20%	-7669
▁CBD	-7670
▁THE	-7671
▁bal	-7672
▁אוה	-7673
▁בתק	-7674
▁הבנ	-7675
▁ודנ	-7676
▁חשי	-7677
▁טיו	-7678
▁מוב	-7679
▁סכמ	-7680
▁עופ	-7681
▁האדמ	-7682
▁וכים	-7683
▁חידה	-7684
▁חלומ	-7685
▁רורי	-7686
▁שכול	-7687
▁אחוזי	-7688
▁ov	-7689
▁פכ	-7690
▁She	-7691
▁ton	-7692
▁אזי	-7693
▁גמי	-7694
▁ימצ	-7695
▁מיו	-7696
▁קרח	-7697
▁ריך	-7698
▁שלת	-7699
▁תוב	-7700
▁Free	-7701
▁Your	-7702
▁המשת	-7703
▁ויים	-7704
▁ולחן	-7705
▁וקיי	-7706
▁טומט	-7707
▁כשאת	-7708
▁לוסי	-7709
▁וריות	-7710
▁יוצאי	-7711
▁יכוני	-7712
מעו	-7713
▁OS	-7714
▁pe	-7715
▁tr	-7716
▁Ado	-7717
▁Bit	-7718
▁itu	-7719
▁בתל	-7720
▁וחל	-7721
▁ימת	-7722
▁יצע	-7723
▁לגן	-7724
▁ממת	-7725
▁נסע	-7726
▁עיף	-7727
▁Prev	-7728
▁Tech	-7729
▁ical	-7730
▁איתנ	-7731
▁המזו	-7732
▁style	-7733
▁משמעו	-7734
▁..	-7735
▁2,	-7736
▁43	-7737
▁44	-7738
▁Fac	-7739
▁ora	-7740
▁וקח	-7741
▁מפט	-7742
▁נחמ	-7743
▁ענף	-7744
▁תלמ	-7745
▁אווי	-7746
▁בודו	-7747
▁ושלם	-7748
▁יניה	-7749
▁יקות	-7750
▁צבעי	-7751
▁רכים	-7752
▁Black	-7753
▁העולמ	-7754
▁ייבים	-7755
BI	-7756
HD	-7757
ud	-7758
▁--	-7759
▁CS	-7760
▁pr	-7761
▁טב	-7762
▁BBC	-7763
▁Sup	-7764
▁Vis	-7765
▁הוצ	-7766
▁ויו	-7767
▁וית	-7768
▁זית	-7769
▁יכו	-7770
▁להט	-7771
▁גלית	-7772
▁ומיי	-7773
▁קירו	-7774
▁רופי	-7775
▁הנכונ	-7776
olu	-7777
▁Wa	-7778
▁ען	-7779
▁Cap	-7780
▁ect	-7781
▁הנק	-7782
▁הפל	-7783
▁וקת	-7784
▁פסו	-7785
▁תדע	-7786
▁ject	-7787
▁באיר	-7788
▁מסתו	-7789
▁קידו	-7790
▁במקומ	-7791
ET	-7792
ML	-7793
ott	-7794
▁46	-7795
▁53	-7796
▁CN	-7797
▁Es	-7798
▁ad	-7799
▁xy	-7800
▁ya	-7801
ream	-7802
▁Ele	-7803
▁Exc	-7804
▁mic	-7805
▁בסן	-7806
▁טיש	-7807
▁לשר	-7808
▁מבק	-7809
▁ניט	-7810
▁תכן	-7811
▁Coll	-7812
▁ביני	-7813
▁גשות	-7814
▁וריי	-7815
▁מטופ	-7816
▁מתיי	-7817
▁קדימ	-7818
▁ריאו	-7819
▁רפוא	-7820
▁שוני	-7821
ono	-7822
▁49	-7823
▁67	-7824
▁Dr	-7825
▁Ev	-7826
▁ue	-7827
▁(3)	-7828
▁Tag	-7829
▁cia	-7830
▁ort	-7831
▁גנה	-7832
▁ונל	-7833
▁ורך	-7834
▁כעס	-7835
▁מענ	-7836
▁פקי	-7837
▁שמד	-7838
▁Blue	-7839
▁Good	-7840
▁Heal	-7841
▁form	-7842
▁post	-7843
▁בעונ	-7844
▁וניס	-7845
ull	-7846
▁41	-7847
▁47	-7848
▁AI	-7849
▁LL	-7850
▁TV	-7851
▁op	-7852
▁py	-7853
ames	-7854
▁ral	-7855
▁אלפ	-7856
▁דאו	-7857
▁דופ	-7858
▁הזכ	-7859
▁הכו	-7860
▁השע	-7861
▁זכי	-7862
▁יסו	-7863
▁ננה	-7864
▁עוק	-7865
▁שלנ	-7866
▁אוסט	-7867
▁הרגל	-7868
▁השתל	-7869
▁הצלחת	-7870
▁1,	-7871
▁5%	-7872
▁51	-7873
▁600	-7874
▁pri	-7875
▁אשי	-7876
▁גות	-7877
▁פטו	-7878
▁פרע	-7879
▁צית	-7880
▁שסי	-7881
▁ious	-7882
▁ויזי	-7883
▁כולי	-7884
▁לחמו	-7885
▁מניה	-7886
▁מערי	-7887
▁מרבי	-7888
▁פאים	-7889
▁Skype	-7890
▁גישים	-7891
▁יונית	-7892
era	-7893
▁AL	-7894
▁OE	-7895
▁ct	-7896
▁ot	-7897
▁250	-7898
▁Rep	-7899
▁Rev	-7900
▁res	-7901
▁גונ	-7902
▁גנט	-7903
▁הפכ	-7904
▁ייצ	-7905
▁מזכ	-7906
▁מסי	-7907
▁עתו	-7908
▁צלם	-7909
▁Ever	-7910
▁Note	-7911
▁from	-7912
▁גישו	-7913
▁וקרט	-7914
▁יזיה	-7915
▁ינסו	-7916
▁ציאו	-7917
▁קישו	-7918
▁Group	-7919
MA	-7920
OL	-7921
VD	-7922
fi	-7923
▁AR	-7924
▁iew	-7925
▁דבש	-7926
▁הלל	-7927
▁הנא	-7928
▁ונח	-7929
▁וצא	-7930
▁יצי	-7931
▁לנק	-7932
▁עמק	-7933
▁פרץ	-7934
▁רצף	-7935
▁תוד	-7936
▁West	-7937
▁ביתה	-7938
▁הילו	-7939
▁הלים	-7940
▁ורבי	-7941
▁טרות	-7942
▁מילי	-7943
▁סטיק	-7944
▁צילו	-7945
▁לדוגמ	-7946
▁Fe	-7947
▁ab	-7948
▁po	-7949
▁ru	-7950
▁Sun	-7951
▁art	-7952
▁ner	-7953
▁red	-7954
▁tra	-7955
▁גום	-7956
▁המה	-7957
▁הענ	-7958
▁ינן	-7959
▁לזו	-7960
▁לספ	-7961
▁עדו	-7962
▁פוש	-7963
▁ראל	-7964
▁ADHD	-7965
▁Anal	-7966
▁Mana	-7967
▁Rock	-7968
▁Syst	-7969
▁יירו	-7970
▁ילית	-7971
▁להתר	-7972
▁רגון	-7973
▁רטים	-7974
▁House	-7975
now	-7976
▁3:	-7977
▁CI	-7978
▁Du	-7979
▁bi	-7980
▁im	-7981
▁ir	-7982
▁iz	-7983
ourn	-7984
▁ium	-7985
▁ser	-7986
▁בתנ	-7987
▁לצו	-7988
▁מהצ	-7989
▁סרי	-7990
▁קיל	-7991
▁קית	-7992
▁אפיל	-7993
▁בארצ	-7994
▁הרוו	-7995
▁ובים	-7996
▁וסטר	-7997
▁ידעת	-7998
▁נטים	-7999
▁סירי	-8000
▁קדמת	-8001
▁רונו	-8002
▁תכוו	-8003
▁Cloud	-8004
▁Drive	-8005
▁Excel	-8006
EN	-8007
ung	-8008
▁(4	-8009
▁(5	-8010
▁68	-8011
▁72	-8012
▁Ba	-8013
▁ei	-8014
▁gg	-8015
▁ll	-8016
▁עַ	-8017
▁120	-8018
▁ber	-8019
▁ברל	-8020
▁הטב	-8021
▁הנג	-8022
▁ויצ	-8023
▁ומד	-8024
▁לאפ	-8025
▁לדי	-8026
▁Data	-8027
▁line	-8028
▁הפרי	-8029
▁וואה	-8030
▁ויבי	-8031
▁חבור	-8032
▁ישית	-8033
▁צעים	-8034
▁רובו	-8035
▁וונטי	-8036
BS	-8037
▁°	-8038
ult	-8039
▁IV	-8040
▁ON	-8041
▁PS	-8042
▁vi	-8043
▁40%	-8044
▁Sam	-8045
▁Tim	-8046
▁Way	-8047
▁אפס	-8048
▁באף	-8049
▁ודמ	-8050
▁ועי	-8051
▁ופך	-8052
▁חכו	-8053
▁כתי	-8054
▁סגל	-8055
▁שמל	-8056
▁שמצ	-8057
▁ששי	-8058
▁Gold	-8059
▁Nort	-8060
▁ובלת	-8061
▁ידית	-8062
▁יטית	-8063
▁ימיו	-8064
▁פרדי	-8065
▁בתקופ	-8066
▁המלחמ	-8067
ali	-8068
arn	-8069
eld	-8070
חינ	-8071
▁-3	-8072
▁58	-8073
▁59	-8074
▁am	-8075
▁365	-8076
▁Bra	-8077
▁Soc	-8078
▁che	-8079
▁oin	-8080
▁אלל	-8081
▁הכח	-8082
▁חשה	-8083
▁טכנ	-8084
▁כיה	-8085
▁למס	-8086
▁לצר	-8087
▁נבו	-8088
▁עזו	-8089
▁שגי	-8090
▁Work	-8091
▁less	-8092
▁בריט	-8093
▁גלוב	-8094
▁החמי	-8095
▁העלי	-8096
▁וללת	-8097
▁מגוו	-8098
▁משקי	-8099
▁בטיחו	-8100
▁מבחינ	-8101
▁56	-8102
▁61	-8103
▁Ap	-8104
▁DS	-8105
▁ko	-8106
▁sc	-8107
▁מץ	-8108
▁000	-8109
▁are	-8110
▁בנת	-8111
▁בעמ	-8112
▁וחו	-8113
▁טאי	-8114
▁טנה	-8115
▁כיו	-8116
▁לגו	-8117
▁נדע	-8118
▁נפח	-8119
▁קאו	-8120
▁שפי	-8121
▁אבים	-8122
▁אוחר	-8123
▁התגל	-8124
▁והות	-8125
▁יינת	-8126
▁כלבי	-8127
▁צעדי	-8128
▁קופה	-8129
▁רוכה	-8130
▁Press	-8131
▁מודים	-8132
ka	-8133
end	-8134
igi	-8135
▁0.	-8136
▁TM	-8137
▁ip	-8138
▁Cor	-8139
▁FBI	-8140
▁Rec	-8141
▁Sha	-8142
▁ord	-8143
▁ברמ	-8144
▁האף	-8145
▁הדפ	-8146
▁ומא	-8147
▁ושנ	-8148
▁זרי	-8149
▁ישמ	-8150
▁לחה	-8151
▁לפל	-8152
▁מיט	-8153
▁נלך	-8154
▁נעו	-8155
▁סלמ	-8156
▁High	-8157
▁King	-8158
▁roid	-8159
▁אינד	-8160
▁אירו	-8161
▁ברוא	-8162
▁האינ	-8163
▁וכות	-8164
▁חיינ	-8165
▁Journ	-8166
▁אוהבי	-8167
▁הסביב	-8168
EA	-8169
TS	-8170
▁9.	-8171
▁Hi	-8172
▁om	-8173
▁ps	-8174
▁San	-8175
▁bur	-8176
▁les	-8177
▁met	-8178
▁ret	-8179
▁במכ	-8180
▁בקי	-8181
▁דחף	-8182
▁הינ	-8183
▁השב	-8184
▁ומכ	-8185
▁ונש	-8186
▁לדר	-8187
▁ספט	-8188
▁עדה	-8189
▁פלס	-8190
▁שאב	-8191
▁תיה	-8192
▁תרת	-8193
▁Asso	-8194
▁Fire	-8195
▁ביים	-8196
▁דורו	-8197
▁המתנ	-8198
▁ובות	-8199
▁ומטי	-8200
▁נוספ	-8201
▁נועה	-8202
▁צירת	-8203
▁שיבו	-8204
▁הוצאו	-8205
ll	-8206
iss	-8207
und	-8208
▁54	-8209
▁66	-8210
▁SP	-8211
▁כג	-8212
▁Bar	-8213
▁Fra	-8214
▁Sim	-8215
▁החמ	-8216
▁הנך	-8217
▁ובח	-8218
▁וון	-8219
▁ותך	-8220
▁חסד	-8221
▁מקד	-8222
▁נבי	-8223
▁פער	-8224
▁rect	-8225
▁ומכי	-8226
▁מבינ	-8227
▁ניינ	-8228
▁סימנ	-8229
▁פלים	-8230
▁רגיה	-8231
▁אמריק	-8232
▁פורים	-8233
▁קרייר	-8234
hi	-8235
▁CH	-8236
▁30%	-8237
▁DVD	-8238
▁Gra	-8239
▁III	-8240
▁Mad	-8241
▁dom	-8242
▁בחז	-8243
▁דחה	-8244
▁העד	-8245
▁טטי	-8246
▁כשו	-8247
▁לדף	-8248
▁מיכ	-8249
▁מער	-8250
▁נחו	-8251
▁סיט	-8252
▁סיי	-8253
▁צאת	-8254
▁Euro	-8255
▁Gala	-8256
▁Isra	-8257
▁OECD	-8258
▁ינתי	-8259
▁פרסו	-8260
▁קיות	-8261
▁שארו	-8262
▁הביטו	-8263
▁תפתחו	-8264
OC	-8265
ib	-8266
ze	-8267
▁׃	-8268
irl	-8269
▁CT	-8270
▁os	-8271
▁va	-8272
▁זת	-8273
▁1.1	-8274
▁ISO	-8275
▁Ver	-8276
▁ual	-8277
▁אגב	-8278
▁ולך	-8279
▁ועמ	-8280
▁יוכ	-8281
▁לתו	-8282
▁מהה	-8283
▁עיק	-8284
▁פסל	-8285
▁קרל	-8286
▁ראמ	-8287
▁רמל	-8288
▁Auto	-8289
▁וויז	-8290
▁זיות	-8291
▁נאים	-8292
▁Heart	-8293
▁Secur	-8294
▁Share	-8295
ֹא	-8296
אך	-8297
מכי	-8298
▁Av	-8299
▁oo	-8300
▁1.5	-8301
▁Lea	-8302
▁ary	-8303
▁per	-8304
▁rid	-8305
▁וחז	-8306
▁וכמ	-8307
▁יצו	-8308
▁לֹא	-8309
▁ללכ	-8310
▁לתר	-8311
▁פשו	-8312
▁רנו	-8313
▁שעם	-8314
▁דיין	-8315
▁הימי	-8316
▁הקטנ	-8317
▁יתון	-8318
▁כתבת	-8319
▁נדרט	-8320
▁נוני	-8321
▁שלמי	-8322
▁תייר	-8323
▁תיקו	-8324
▁חוקרי	-8325
▁מסמכי	-8326
▁רובים	-8327
ork	-8328
ure	-8329
▁Cy	-8330
▁EN	-8331
▁Em	-8332
▁PR	-8333
▁si	-8334
▁1.2	-8335
▁800	-8336
▁Fin	-8337
▁Get	-8338
▁IBM	-8339
▁Ind	-8340
▁Nat	-8341
▁USB	-8342
▁ham	-8343
▁בסמ	-8344
▁השד	-8345
▁זרע	-8346
▁יזי	-8347
▁כבן	-8348
▁עמם	-8349
▁פטי	-8350
▁צבי	-8351
▁צהר	-8352
▁קשו	-8353
▁אבטח	-8354
▁החול	-8355
▁המוש	-8356
▁הנוס	-8357
▁הסינ	-8358
▁טיני	-8359
▁יגים	-8360
▁כירה	-8361
▁להתפ	-8362
▁פרקי	-8363
▁קווה	-8364
▁ריית	-8365
▁Grand	-8366
▁Music	-8367
CC	-8368
em	-8369
gh	-8370
wn	-8371
eli	-8372
ish	-8373
▁CR	-8374
▁Fr	-8375
▁NS	-8376
▁ho	-8377
here	-8378
▁2.2	-8379
▁90%	-8380
▁Are	-8381
▁Bio	-8382
▁Chi	-8383
▁Inn	-8384
▁Wom	-8385
▁iOS	-8386
▁ool	-8387
▁ren	-8388
▁tch	-8389
▁כעל	-8390
▁לסו	-8391
▁מבר	-8392
▁עמה	-8393
▁שהג	-8394
▁תשת	-8395
▁With	-8396
▁rome	-8397
▁אולו	-8398
▁בורו	-8399
▁בורי	-8400
▁בליל	-8401
▁בשיר	-8402
▁החיי	-8403
▁ייני	-8404
▁לחלו	-8405
▁ליצי	-8406
▁פייס	-8407
▁ציני	-8408
▁Award	-8409
▁State	-8410
▁גיעים	-8411
▁הכלכל	-8412
▁מבקשי	-8413
▁משתתפ	-8414
IM	-8415
go	-8416
qua	-8417
▁',	-8418
▁'.	-8419
▁4:	-8420
▁Br	-8421
▁MP	-8422
▁sy	-8423
▁זג	-8424
▁Ber	-8425
▁Dra	-8426
▁Gre	-8427
▁הנע	-8428
▁הנצ	-8429
▁ופנ	-8430
▁ופע	-8431
▁חזו	-8432
▁חשף	-8433
▁חתי	-8434
▁יתו	-8435
▁עוג	-8436
▁פגו	-8437
▁קחת	-8438
▁קפת	-8439
▁This	-8440
▁York	-8441
▁gram	-8442
▁ives	-8443
▁ארצו	-8444
▁דדים	-8445
▁ולמי	-8446
▁טורק	-8447
▁יאים	-8448
▁יתית	-8449
▁מניו	-8450
▁מסתכ	-8451
▁שיכה	-8452
EG	-8453
RL	-8454
ale	-8455
uth	-8456
utt	-8457
▁62	-8458
▁דכ	-8459
▁25%	-8460
▁80%	-8461
▁Blo	-8462
▁How	-8463
▁PDF	-8464
▁lin	-8465
▁ory	-8466
▁גוס	-8467
▁הוע	-8468
▁ננת	-8469
▁Digi	-8470
▁אודו	-8471
▁ימית	-8472
▁קומי	-8473
▁קורי	-8474
▁Times	-8475
ek	-8476
ys	-8477
▁₪	-8478
umb	-8479
▁).	-8480
▁Ka	-8481
▁Mc	-8482
▁Vo	-8483
▁fl	-8484
▁Rob	-8485
▁Sur	-8486
▁cal	-8487
▁int	-8488
▁אוצ	-8489
▁אמש	-8490
▁דימ	-8491
▁הגו	-8492
▁טיק	-8493
▁לגה	-8494
▁מקי	-8495
▁פרנ	-8496
▁קנד	-8497
▁Desi	-8498
▁Isla	-8499
▁Real	-8500
▁הימנ	-8501
▁וליו	-8502
▁מיכה	-8503
▁White	-8504
▁אוטומ	-8505
act	-8506
cha	-8507
qui	-8508
▁DC	-8509
▁El	-8510
▁GB	-8511
▁2.5	-8512
▁Big	-8513
▁Roy	-8514
▁cer	-8515
▁cle	-8516
▁iet	-8517
▁אמצ	-8518
▁אסד	-8519
▁הגג	-8520
▁יוק	-8521
▁ינא	-8522
▁לפה	-8523
▁לצמ	-8524
▁נעה	-8525
▁סעד	-8526
▁קמת	-8527
▁שבט	-8528
▁תקד	-8529
▁News	-8530
▁comm	-8531
▁אובד	-8532
▁דינו	-8533
▁לימו	-8534
▁פריה	-8535
▁רישו	-8536
▁Dream	-8537
▁Elect	-8538
▁אליות	-8539
':	-8540
10	-8541
DP	-8542
FC	-8543
TA	-8544
WS	-8545
כנ	-8546
ami	-8547
ang	-8548
ict	-8549
▁IL	-8550
▁pa	-8551
▁Age	-8552
▁Bre	-8553
▁GPS	-8554
▁Par	-8555
▁cra	-8556
▁lla	-8557
▁new	-8558
▁org	-8559
▁rol	-8560
▁בטן	-8561
▁זיו	-8562
▁חדה	-8563
▁חשד	-8564
▁מיץ	-8565
▁מפג	-8566
▁סטא	-8567
▁ענת	-8568
▁עשן	-8569
▁קטנ	-8570
▁תלך	-8571
▁Best	-8572
▁Bitc	-8573
▁Call	-8574
▁Hill	-8575
▁Just	-8576
▁That	-8577
▁ures	-8578
▁ward	-8579
▁ware	-8580
▁האיר	-8581
▁הטכנ	-8582
▁השטח	-8583
▁וגות	-8584
▁ודית	-8585
▁נסים	-8586
▁קאית	-8587
▁שבתי	-8588
▁Found	-8589
▁Space	-8590
▁graph	-8591
▁כויות	-8592
fa	-8593
▁82	-8594
▁Ag	-8595
▁SH	-8596
▁Dev	-8597
▁God	-8598
▁Ste	-8599
▁Tel	-8600
▁Val	-8601
▁all	-8602
▁eum	-8603
▁gic	-8604
▁mus	-8605
▁ney	-8606
▁אסו	-8607
▁בצו	-8608
▁דפו	-8609
▁ההז	-8610
▁החג	-8611
▁הקש	-8612
▁וחש	-8613
▁פוב	-8614
▁צאי	-8615
▁רמז	-8616
▁רסמ	-8617
▁שוו	-8618
▁שונ	-8619
▁שטר	-8620
▁Back	-8621
▁Link	-8622
▁ever	-8623
▁sion	-8624
▁tain	-8625
▁ביות	-8626
▁חיצו	-8627
▁יסטו	-8628
▁פיקו	-8629
▁קודת	-8630
▁רנית	-8631
▁תיאו	-8632
▁Child	-8633
▁Media	-8634
▁האזור	-8635
▁מקבלי	-8636
7%	-8637
BO	-8638
IF	-8639
▁DA	-8640
▁IM	-8641
▁UV	-8642
▁Xb	-8643
▁bu	-8644
▁15%	-8645
▁ABC	-8646
▁Pho	-8647
▁dio	-8648
▁gon	-8649
▁ima	-8650
▁בכו	-8651
▁לדו	-8652
▁לפר	-8653
▁צלח	-8654
▁קחי	-8655
▁Dead	-8656
▁Open	-8657
▁Plus	-8658
▁Stra	-8659
▁gged	-8660
▁time	-8661
▁המנה	-8662
▁וסיי	-8663
▁יאור	-8664
▁ינדי	-8665
▁יריו	-8666
▁ירים	-8667
▁לוהי	-8668
▁מרוצ	-8669
▁מתכנ	-8670
▁Every	-8671
EC	-8672
oma	-8673
▁63	-8674
▁69	-8675
▁CC	-8676
▁OL	-8677
▁Us	-8678
▁60%	-8679
▁End	-8680
▁Lib	-8681
▁Peo	-8682
▁Pra	-8683
▁Who	-8684
▁not	-8685
▁אלך	-8686
▁גבו	-8687
▁דשה	-8688
▁ההב	-8689
▁הסב	-8690
▁ותא	-8691
▁חפץ	-8692
▁טיה	-8693
▁יכי	-8694
▁לעמ	-8695
▁לשו	-8696
▁לתל	-8697
▁סאו	-8698
▁סיע	-8699
▁ערו	-8700
▁רסם	-8701
▁Xbox	-8702
▁nolo	-8703
▁בשבי	-8704
▁ההזד	-8705
▁ורית	-8706
▁יסבו	-8707
▁ירופ	-8708
▁למוד	-8709
▁משיכ	-8710
▁Great	-8711
▁מקצוע	-8712
▁נוספו	-8713
▁Ac	-8714
▁Ec	-8715
▁Ly	-8716
▁Ri	-8717
▁ec	-8718
▁pt	-8719
▁360	-8720
▁Ben	-8721
▁Jew	-8722
▁אלמ	-8723
▁באז	-8724
▁הטל	-8725
▁מרח	-8726
▁פשי	-8727
▁צול	-8728
▁תלו	-8729
▁תנת	-8730
▁תפש	-8731
▁תצא	-8732
▁תרם	-8733
▁באיז	-8734
▁בסופ	-8735
▁הזכו	-8736
▁היגי	-8737
▁העונ	-8738
▁וועד	-8739
▁ורקי	-8740
▁חירו	-8741
▁טילי	-8742
▁Compa	-8743
▁Thing	-8744
▁אינטל	-8745
▁היחסי	-8746
▁יומנו	-8747
▁פקידי	-8748
EP	-8749
OR	-8750
TP	-8751
ho	-8752
unt	-8753
▁",	-8754
▁**	-8755
▁Ga	-8756
▁NY	-8757
▁OR	-8758
▁ff	-8759
▁rd	-8760
▁18,	-8761
▁700	-8762
▁Cro	-8763
▁Pub	-8764
▁Sky	-8765
▁Sui	-8766
▁אהו	-8767
▁הזר	-8768
▁הסר	-8769
▁יבל	-8770
▁ללב	-8771
▁לרב	-8772
▁שהד	-8773
▁שלל	-8774
▁שנכ	-8775
▁Will	-8776
▁אנרג	-8777
▁דינה	-8778
▁המער	-8779
▁ואיל	-8780
▁וחרי	-8781
▁יתים	-8782
▁Count	-8783
▁וחדים	-8784
▁ורגני	-8785
▁רובות	-8786
MP	-8787
ki	-8788
כך	-8789
idd	-8790
ird	-8791
ody	-8792
oot	-8793
▁3%	-8794
▁BL	-8795
▁PP	-8796
▁RS	-8797
▁ci	-8798
▁ga	-8799
▁10,	-8800
▁Cry	-8801
▁Geo	-8802
▁era	-8803
▁ina	-8804
▁mon	-8805
▁בנט	-8806
▁ההצ	-8807
▁זעם	-8808
▁יקב	-8809
▁לפס	-8810
▁מעז	-8811
▁מצע	-8812
▁שבנ	-8813
▁שמב	-8814
▁HTML	-8815
▁Mast	-8816
▁View	-8817
▁הארו	-8818
▁הישר	-8819
▁חצית	-8820
▁יטים	-8821
▁כירי	-8822
▁ליוו	-8823
▁מאלי	-8824
▁שבות	-8825
▁Story	-8826
▁הבריא	-8827
▁התקופ	-8828
EF	-8829
EL	-8830
OM	-8831
cy	-8832
imi	-8833
vid	-8834
▁3)	-8835
▁IF	-8836
▁IG	-8837
▁MB	-8838
▁Ob	-8839
▁io	-8840
▁Ang	-8841
▁BDS	-8842
▁ger	-8843
▁mal	-8844
▁rce	-8845
▁אתג	-8846
▁דאי	-8847
▁ומט	-8848
▁ועב	-8849
▁זאב	-8850
▁לסט	-8851
▁מטי	-8852
▁ממנ	-8853
▁עוף	-8854
▁קיס	-8855
▁Down	-8856
▁Girl	-8857
▁Last	-8858
▁More	-8859
▁comp	-8860
▁אקדמ	-8861
▁התעל	-8862
▁וזים	-8863
▁לשאו	-8864
▁תרגו	-8865
▁Resea	-8866
▁קרטיה	-8867
▁רופאי	-8868
pi	-8869
ock	-8870
▁3,	-8871
▁5,	-8872
▁73	-8873
▁76	-8874
▁78	-8875
▁gr	-8876
irst	-8877
▁180	-8878
▁Law	-8879
▁del	-8880
▁dex	-8881
▁fli	-8882
▁sor	-8883
▁ula	-8884
▁אוג	-8885
▁בחג	-8886
▁ביכ	-8887
▁הרף	-8888
▁וצי	-8889
▁חונ	-8890
▁מנג	-8891
▁עַל	-8892
▁עדת	-8893
▁צמת	-8894
▁קסט	-8895
▁תמך	-8896
▁East	-8897
▁Litt	-8898
▁ולטי	-8899
▁ולנו	-8900
▁יאני	-8901
▁לומו	-8902
▁מודי	-8903
▁סיסי	-8904
▁ציפו	-8905
▁תבים	-8906
▁Class	-8907
▁המשמע	-8908
▁ומיות	-8909
▁מדברי	-8910
▁שתתפי	-8911
-)	-8912
▁×	-8913
oth	-8914
ניה	-8915
▁10.	-8916
▁2.1	-8917
▁Fri	-8918
▁Rad	-8919
▁Sal	-8920
▁Sil	-8921
▁ain	-8922
▁exp	-8923
▁fil	-8924
▁אתך	-8925
▁בפה	-8926
▁בצל	-8927
▁ויח	-8928
▁חמת	-8929
▁שכי	-8930
▁Chri	-8931
▁Road	-8932
▁ices	-8933
▁mark	-8934
▁tect	-8935
▁גדים	-8936
▁האנו	-8937
▁הגות	-8938
▁המינ	-8939
▁ודים	-8940
▁וכרי	-8941
▁ידול	-8942
▁עירי	-8943
▁פורי	-8944
▁קוני	-8945
▁קטנו	-8946
▁שרוי	-8947
▁תכנו	-8948
▁אתגרי	-8949
▁התנוע	-8950
▁רגילי	-8951
AD	-8952
CP	-8953
to	-8954
uc	-8955
ero	-8956
ola	-8957
▁EU	-8958
▁LG	-8959
▁TR	-8960
▁[1	-8961
▁זז	-8962
▁18.	-8963
▁2-3	-8964
▁Bab	-8965
▁ION	-8966
▁Leg	-8967
▁Pet	-8968
▁lic	-8969
▁min	-8970
▁phy	-8971
▁הכס	-8972
▁הקי	-8973
▁הקנ	-8974
▁חבי	-8975
▁כהה	-8976
▁מפו	-8977
▁נגע	-8978
▁תונ	-8979
▁Lond	-8980
▁ways	-8981
▁אמנו	-8982
▁המנו	-8983
▁הרשו	-8984
▁ואות	-8985
▁ודדו	-8986
▁ושבי	-8987
▁יאות	-8988
▁מתכו	-8989
▁עיים	-8990
▁שובי	-8991
▁שחיי	-8992
▁אוסטר	-8993
▁לאחרי	-8994
HS	-8995
OT	-8996
gg	-8997
ye	-8998
▁‪	-8999
ole	-9000
oly	-9001
umm	-9002
▁88	-9003
▁MI	-9004
▁SQ	-9005
▁ai	-9006
▁gu	-9007
▁ty	-9008
▁Bur	-9009
▁Cre	-9010
▁Edi	-9011
▁HBO	-9012
▁THC	-9013
▁Ter	-9014
▁ege	-9015
▁gue	-9016
▁our	-9017
▁que	-9018
▁גנב	-9019
▁דנה	-9020
▁ההל	-9021
▁טרף	-9022
▁לסמ	-9023
▁פחם	-9024
▁שאנ	-9025
▁Batt	-9026
▁Dark	-9027
▁Read	-9028
▁Song	-9029
▁Tour	-9030
▁more	-9031
▁המיי	-9032
▁הראי	-9033
▁וחבר	-9034
▁North	-9035
▁field	-9036
▁האנוש	-9037
▁מדעני	-9038
▁שובים	-9039
OP	-9040
OW	-9041
▁€	-9042
▁↑	-9043
ari	-9044
▁98	-9045
▁AF	-9046
▁By	-9047
▁PM	-9048
▁cl	-9049
▁ea	-9050
▁ke	-9051
▁wa	-9052
atch	-9053
▁70%	-9054
▁Cri	-9055
▁Ext	-9056
▁Fed	-9057
▁Imp	-9058
▁May	-9059
▁Reg	-9060
▁Sen	-9061
▁Son	-9062
▁Swi	-9063
▁[1]	-9064
▁can	-9065
▁ems	-9066
▁ley	-9067
▁ron	-9068
▁win	-9069
▁דנו	-9070
▁ודל	-9071
▁וענ	-9072
▁ושא	-9073
▁זקה	-9074
▁חרב	-9075
▁טרפ	-9076
▁ימנ	-9077
▁לדמ	-9078
▁ליר	-9079
▁מגנ	-9080
▁נאו	-9081
▁ררו	-9082
▁ררי	-9083
▁Corp	-9084
▁sung	-9085
▁wood	-9086
▁בוני	-9087
▁הגור	-9088
▁והמו	-9089
▁ועמד	-9090
▁ידיי	-9091
▁לכול	-9092
▁מיות	-9093
▁סטית	-9094
▁קורת	-9095
▁קרונ	-9096
▁רטור	-9097
▁ריקנ	-9098
▁תחים	-9099
▁בתחומ	-9100
▁האלבו	-9101
▁חלומו	-9102
▁קוראי	-9103
▁קוריא	-9104
קא	-9105
arl	-9106
ich	-9107
ise	-9108
ush	-9109
▁-4	-9110
▁96	-9111
▁CP	-9112
▁12,	-9113
▁Dan	-9114
▁Gar	-9115
▁SQL	-9116
▁Shi	-9117
▁fer	-9118
▁rep	-9119
▁tte	-9120
▁אגף	-9121
▁אוז	-9122
▁אסף	-9123
▁חשק	-9124
▁פאי	-9125
▁שנע	-9126
▁תרו	-9127
▁Plan	-9128
▁serv	-9129
▁התור	-9130
▁ורגנ	-9131
▁מגור	-9132
▁פילי	-9133
▁פלגה	-9134
▁prise	-9135
▁יוצרי	-9136
▁מריקא	-9137
12	-9138
sa	-9139
amb	-9140
▁74	-9141
▁84	-9142
▁86	-9143
▁87	-9144
▁Az	-9145
▁Gi	-9146
▁NF	-9147
▁SM	-9148
▁au	-9149
▁350	-9150
▁Cra	-9151
▁fic	-9152
▁pre	-9153
▁בתמ	-9154
▁הגש	-9155
▁החר	-9156
▁כמת	-9157
▁מגב	-9158
▁צבר	-9159
▁תהא	-9160
▁Fall	-9161
▁Java	-9162
▁Moon	-9163
▁Show	-9164
▁Year	-9165
▁icle	-9166
▁דהים	-9167
▁חושה	-9168
▁יצוב	-9169
▁לטיפ	-9170
▁רופו	-9171
▁ריבי	-9172
▁רייה	-9173
▁שוטה	-9174
▁David	-9175
▁South	-9176
TC	-9177
▁1%	-9178
▁71	-9179
▁93	-9180
▁DI	-9181
▁Ho	-9182
▁IR	-9183
▁NC	-9184
▁SC	-9185
▁Ve	-9186
▁hy	-9187
▁pi	-9188
▁rg	-9189
▁ve	-9190
ouch	-9191
▁2.3	-9192
▁Ama	-9193
▁Che	-9194
▁Del	-9195
▁Far	-9196
▁Lab	-9197
▁SMS	-9198
▁cri	-9199
▁ema	-9200
▁ous	-9201
▁vil	-9202
▁הקמ	-9203
▁ופט	-9204
▁חזה	-9205
▁כבש	-9206
▁מזר	-9207
▁סוב	-9208
▁Pass	-9209
▁read	-9210
▁בעני	-9211
▁דיות	-9212
▁הנשי	-9213
▁הקור	-9214
▁התחת	-9215
▁וחדת	-9216
▁יטני	-9217
▁לפרו	-9218
▁סמכו	-9219
▁רונה	-9220
▁רכזי	-9221
▁שהיי	-9222
▁שיפו	-9223
▁Explo	-9224
▁לילדי	-9225
▁מבקרי	-9226
▁מחשבי	-9227
ja	-9228
nb	-9229
pt	-9230
▁♥	-9231
ora	-9232
sta	-9233
▁4)	-9234
▁92	-9235
▁BI	-9236
▁Bi	-9237
▁CF	-9238
▁DH	-9239
▁ED	-9240
▁EP	-9241
▁GM	-9242
▁IQ	-9243
▁VI	-9244
▁Bay	-9245
▁Box	-9246
▁Eng	-9247
▁Hel	-9248
▁Key	-9249
▁Max	-9250
▁Mil	-9251
▁car	-9252
▁ria	-9253
▁אדע	-9254
▁ברס	-9255
▁דרת	-9256
▁הזן	-9257
▁הצמ	-9258
▁ותכ	-9259
▁ותן	-9260
▁יקש	-9261
▁ללק	-9262
▁למח	-9263
▁למל	-9264
▁נאל	-9265
▁נפץ	-9266
▁סוו	-9267
▁סלע	-9268
▁ספת	-9269
▁צלב	-9270
▁קצו	-9271
▁קרם	-9272
▁רגו	-9273
▁שחש	-9274
▁תעש	-9275
▁Jewi	-9276
▁Mind	-9277
▁Para	-9278
▁back	-9279
▁ורגל	-9280
▁יהוד	-9281
▁Creat	-9282
▁Smart	-9283
▁ssion	-9284
▁החומר	-9285
▁רועים	-9286
UT	-9287
ba	-9288
פט	-9289
irt	-9290
▁81	-9291
▁RE	-9292
▁Ub	-9293
▁Ul	-9294
▁eg	-9295
▁fa	-9296
▁iT	-9297
▁od	-9298
▁wh	-9299
▁!!!	-9300
▁15.	-9301
▁Dia	-9302
▁GDP	-9303
▁Jan	-9304
▁LCD	-9305
▁Men	-9306
▁mas	-9307
▁rer	-9308
▁tis	-9309
▁אפק	-9310
▁גדו	-9311
▁דרנ	-9312
▁היס	-9313
▁חצר	-9314
▁טנו	-9315
▁יבט	-9316
▁כדו	-9317
▁כנר	-9318
▁ליף	-9319
▁לשל	-9320
▁לתי	-9321
▁סית	-9322
▁צונ	-9323
▁קעו	-9324
▁קשב	-9325
▁רחל	-9326
▁ששם	-9327
▁Capi	-9328
▁Game	-9329
▁Gard	-9330
▁Happ	-9331
▁Resp	-9332
▁iPad	-9333
▁real	-9334
▁stra	-9335
▁הטרו	-9336
▁זורי	-9337
▁לייה	-9338
▁פקים	-9339
▁צהרי	-9340
▁קטיב	-9341
▁שורי	-9342
▁Store	-9343
▁במלחמ	-9344
▁המכונ	-9345
▁המשפט	-9346
▁הסיפו	-9347
▁וכרים	-9348
▁יודעי	-9349
▁נתניה	-9350
')	-9351
OD	-9352
TV	-9353
vo	-9354
▁77	-9355
▁91	-9356
▁??	-9357
▁AA	-9358
▁BP	-9359
▁CM	-9360
▁Ir	-9361
▁Je	-9362
▁Ju	-9363
▁LA	-9364
▁NE	-9365
▁PL	-9366
▁SA	-9367
▁hi	-9368
▁130	-9369
▁Bad	-9370
▁CNN	-9371
▁Hor	-9372
▁Mag	-9373
▁Nor	-9374
▁Now	-9375
▁Old	-9376
▁Riv	-9377
▁Tri	-9378
▁bnb	-9379
▁emb	-9380
▁בהצ	-9381
▁הכפ	-9382
▁ויי	-9383
▁זבל	-9384
▁טני	-9385
▁יהא	-9386
▁ייע	-9387
▁יצג	-9388
▁כבל	-9389
▁לחג	-9390
▁קסו	-9391
▁קעה	-9392
▁שמג	-9393
▁Aven	-9394
▁Fort	-9395
▁Like	-9396
▁Long	-9397
▁Some	-9398
▁your	-9399
▁בירי	-9400
▁הכשר	-9401
▁יאול	-9402
▁מודר	-9403
▁שיני	-9404
▁Blood	-9405
▁Econo	-9406
▁אלקטר	-9407
▁דולים	-9408
▁יביות	-9409
▁מעוני	-9410
".	-9411
TE	-9412
be	-9413
▁‐	-9414
▁›	-9415
asi	-9416
net	-9417
▁Cr	-9418
▁GP	-9419
▁Io	-9420
▁OP	-9421
▁Pe	-9422
▁TS	-9423
▁WH	-9424
▁vo	-9425
▁טד	-9426
arth	-9427
▁(4)	-9428
▁Emp	-9429
▁box	-9430
▁ges	-9431
▁gin	-9432
▁mac	-9433
▁pla	-9434
▁rge	-9435
▁ste	-9436
▁דמנ	-9437
▁העז	-9438
▁חנו	-9439
▁סדי	-9440
▁צעי	-9441
▁צעק	-9442
▁רחי	-9443
▁שגו	-9444
▁שמם	-9445
▁Kill	-9446
▁Pala	-9447
▁Poli	-9448
▁Sing	-9449
▁Soft	-9450
▁When	-9451
▁Wild	-9452
▁body	-9453
▁gory	-9454
▁ביבה	-9455
▁ובוס	-9456
▁חרים	-9457
▁טחונ	-9458
▁קרוא	-9459
▁שונו	-9460
▁Green	-9461
▁Never	-9462
LS	-9463
UM	-9464
ps	-9465
ama	-9466
▁#1	-9467
▁(6	-9468
▁79	-9469
▁Er	-9470
▁Fu	-9471
▁GA	-9472
▁GS	-9473
▁OF	-9474
▁PH	-9475
▁ac	-9476
▁ב־	-9477
▁12.	-9478
▁BMW	-9479
▁Bet	-9480
▁Let	-9481
▁Ora	-9482
▁PhD	-9483
▁TED	-9484
▁Vil	-9485
▁act	-9486
▁bet	-9487
▁den	-9488
▁dge	-9489
▁ide	-9490
▁pho	-9491
▁und	-9492
▁דגי	-9493
▁הנר	-9494
▁זמי	-9495
▁זמר	-9496
▁יופ	-9497
▁ימס	-9498
▁ליח	-9499
▁מאט	-9500
▁נצא	-9501
▁צלו	-9502
▁קיה	-9503
▁קנס	-9504
▁שאז	-9505
▁שכת	-9506
▁Fami	-9507
▁From	-9508
▁Hist	-9509
▁cont	-9510
▁גורר	-9511
▁דיים	-9512
▁דירו	-9513
▁הכלל	-9514
▁הערי	-9515
▁השפה	-9516
▁השפע	-9517
▁ואים	-9518
▁וראו	-9519
▁טיים	-9520
▁יירי	-9521
▁Excha	-9522
▁First	-9523
▁Games	-9524
▁Medic	-9525
▁Mount	-9526
▁מציאו	-9527
▁פעילו	-9528
4]	-9529
ny	-9530
sy	-9531
ug	-9532
zz	-9533
הן	-9534
תן	-9535
▁£	-9536
ach	-9537
inc	-9538
ump	-9539
▁2%	-9540
▁6,	-9541
▁7,	-9542
▁AG	-9543
▁BS	-9544
▁ET	-9545
▁FA	-9546
▁Gh	-9547
▁Gl	-9548
▁MD	-9549
▁NG	-9550
▁SD	-9551
▁UC	-9552
▁jo	-9553
▁(5)	-9554
▁Col	-9555
▁IRA	-9556
▁MRI	-9557
▁Pat	-9558
▁Tom	-9559
▁URL	-9560
▁blo	-9561
▁lli	-9562
▁ncy	-9563
▁nia	-9564
▁sco	-9565
▁sub	-9566
▁אקח	-9567
▁בשש	-9568
▁הוש	-9569
▁הלם	-9570
▁ווח	-9571
▁ותב	-9572
▁חוי	-9573
▁חצה	-9574
▁יהנ	-9575
▁ללת	-9576
▁מגי	-9577
▁מעו	-9578
▁מעצ	-9579
▁Know	-9580
▁Lake	-9581
▁Mart	-9582
▁Over	-9583
▁Wall	-9584
▁duct	-9585
▁flix	-9586
▁ford	-9587
▁this	-9588
▁בבני	-9589
▁געים	-9590
▁וגוס	-9591
▁ורבו	-9592
▁להיכ	-9593
▁להרג	-9594
▁למנו	-9595
▁ערוכ	-9596
▁צפות	-9597
▁קציה	-9598
▁רועי	-9599
▁שמונ	-9600
▁שפעו	-9601
▁Death	-9602
▁Saint	-9603
▁ntial	-9604
▁הציבו	-9605
▁התוצא	-9606
▁תקשור	-9607
VI	-9608
da	-9609
we	-9610
uaw	-9611
▁-6	-9612
▁-7	-9613
▁57	-9614
▁5:	-9615
▁BA	-9616
▁HC	-9617
▁Mu	-9618
▁SI	-9619
▁Sl	-9620
▁Tu	-9621
▁[2	-9622
▁mb	-9623
▁pp	-9624
▁75%	-9625
▁Dou	-9626
▁Hal	-9627
▁LED	-9628
▁OCD	-9629
▁Sel	-9630
▁Tre	-9631
▁Ult	-9632
▁[4]	-9633
▁ext	-9634
▁pos	-9635
▁too	-9636
▁באנ	-9637
▁בום	-9638
▁גלם	-9639
▁דקי	-9640
▁טרת	-9641
▁לאד	-9642
▁לאם	-9643
▁לבת	-9644
▁מיז	-9645
▁ססת	-9646
▁רזה	-9647
▁רמנ	-9648
▁שמך	-9649
▁ששה	-9650
▁תוע	-9651
▁Baby	-9652
▁Dera	-9653
▁Phen	-9654
▁Test	-9655
▁cast	-9656
▁dent	-9657
▁life	-9658
▁ling	-9659
▁nger	-9660
▁ther	-9661
▁town	-9662
▁אמני	-9663
▁האומ	-9664
▁ידים	-9665
▁יחים	-9666
▁כרונ	-9667
▁מודד	-9668
▁שיות	-9669
▁press	-9670
▁world	-9671
),	-9672
fo	-9673
tt	-9674
▁é	-9675
gle	-9676
ont	-9677
▁(9	-9678
▁-5	-9679
▁4,	-9680
▁CL	-9681
▁Hy	-9682
▁NT	-9683
▁PV	-9684
▁gl	-9685
▁ns	-9686
▁rr	-9687
▁גט	-9688
▁11,	-9689
▁Bal	-9690
▁Boy	-9691
▁CBS	-9692
▁Fre	-9693
▁Jer	-9694
▁MIT	-9695
▁Rel	-9696
▁Run	-9697
▁Why	-9698
▁ant	-9699
▁app	-9700
▁bra	-9701
▁dia	-9702
▁ult	-9703
▁בגב	-9704
▁בעם	-9705
▁ברב	-9706
▁ההם	-9707
▁החם	-9708
▁העו	-9709
▁הצר	-9710
▁ובט	-9711
▁וגב	-9712
▁יקנ	-9713
▁לענ	-9714
▁מכת	-9715
▁מלב	-9716
▁מפס	-9717
▁מרד	-9718
▁נוק	-9719
▁נפו	-9720
▁סתו	-9721
▁קשי	-9722
▁רסל	-9723
▁שבן	-9724
▁שמץ	-9725
▁Amaz	-9726
▁Bank	-9727
▁Cast	-9728
▁Club	-9729
▁Film	-9730
▁Memo	-9731
▁free	-9732
▁sort	-9733
▁tran	-9734
▁אימי	-9735
▁היתר	-9736
▁המיו	-9737
▁הפינ	-9738
▁השוו	-9739
▁ותנו	-9740
▁להיע	-9741
▁להסב	-9742
▁מאפי	-9743
▁ננסי	-9744
▁נשימ	-9745
▁קבות	-9746
▁ריכי	-9747
▁שקעו	-9748
▁Angel	-9749
▁Insta	-9750
▁Stand	-9751
▁יתיים	-9752
ko	-9753
pa	-9754
בן	-9755
▁©	-9756
ade	-9757
que	-9758
▁),	-9759
▁6:	-9760
▁Nu	-9761
▁TE	-9762
▁rc	-9763
▁wi	-9764
▁ze	-9765
▁נך	-9766
▁1.3	-9767
▁16.	-9768
▁2.0	-9769
▁3.5	-9770
▁:-)	-9771
▁Eth	-9772
▁Ima	-9773
▁Inv	-9774
▁Ori	-9775
▁Too	-9776
▁col	-9777
▁ior	-9778
▁off	-9779
▁ola	-9780
▁pha	-9781
▁shi	-9782
▁אוף	-9783
▁בעז	-9784
▁וחת	-9785
▁חגי	-9786
▁להל	-9787
▁מען	-9788
▁מעץ	-9789
▁נתת	-9790
▁סבב	-9791
▁פיז	-9792
▁שטף	-9793
▁שתן	-9794
▁Adva	-9795
▁Anti	-9796
▁Aust	-9797
▁Card	-9798
▁Cate	-9799
▁Insi	-9800
▁Medi	-9801
▁down	-9802
▁face	-9803
▁hine	-9804
▁love	-9805
▁onse	-9806
▁shop	-9807
▁that	-9808
▁thou	-9809
▁בריה	-9810
▁הבור	-9811
▁וותי	-9812
▁ועים	-9813
▁לחמת	-9814
▁לטים	-9815
▁שקור	-9816
▁Place	-9817
▁ville	-9818
▁מסוגל	-9819
▁תעשיי	-9820
Fi	-9821
VP	-9822
zi	-9823
Bay	-9824
▁Ci	-9825
▁GO	-9826
▁NA	-9827
▁Va	-9828
▁eo	-9829
▁fe	-9830
▁14,	-9831
▁3.2	-9832
▁Aca	-9833
▁Aga	-9834
▁Avi	-9835
▁CIA	-9836
▁Chu	-9837
▁Cru	-9838
▁Fun	-9839
▁IoT	-9840
▁Pen	-9841
▁Voi	-9842
▁cap	-9843
▁iTu	-9844
▁ida	-9845
▁lle	-9846
▁use	-9847
▁web	-9848
▁באם	-9849
▁בתם	-9850
▁גמו	-9851
▁דעי	-9852
▁ונע	-9853
▁חסן	-9854
▁עסו	-9855
▁פסח	-9856
▁צמד	-9857
▁קרק	-9858
▁שדו	-9859
▁תלת	-9860
▁Ball	-9861
▁Diam	-9862
▁Fair	-9863
▁GDPR	-9864
▁Huaw	-9865
▁Line	-9866
▁Oper	-9867
▁Squa	-9868
▁berg	-9869
▁roll	-9870
▁rrow	-9871
▁ural	-9872
▁בעינ	-9873
▁המשו	-9874
▁המתא	-9875
▁הסתכ	-9876
▁ומלץ	-9877
▁וצאי	-9878
▁ותפו	-9879
▁יננו	-9880
▁להשק	-9881
▁עיתי	-9882
▁רבנו	-9883
▁רטיס	-9884
▁שאות	-9885
▁Beach	-9886
▁Flash	-9887
▁James	-9888
▁Theat	-9889
▁There	-9890
▁Women	-9891
▁gical	-9892
▁where	-9893
▁האירו	-9894
▁העתיד	-9895
20	-9896
td	-9897
ars	-9898
ilt	-9899
uss	-9900
▁8%	-9901
▁JP	-9902
▁MC	-9903
▁OT	-9904
▁UK	-9905
▁[3	-9906
▁כץ	-9907
▁עף	-9908
itch	-9909
▁3-4	-9910
▁30,	-9911
▁Bel	-9912
▁Clo	-9913
▁ING	-9914
▁Jon	-9915
▁Lin	-9916
▁Tur	-9917
▁Und	-9918
▁chi	-9919
▁cho	-9920
▁emp	-9921
▁fin	-9922
▁nci	-9923
▁sum	-9924
▁tri	-9925
▁בדב	-9926
▁הכה	-9927
▁העצ	-9928
▁הפק	-9929
▁חתך	-9930
▁נפת	-9931
▁עצו	-9932
▁עשת	-9933
▁פגם	-9934
▁קלא	-9935
▁שקי	-9936
▁Camp	-9937
▁Deep	-9938
▁Gall	-9939
▁Hall	-9940
▁Limi	-9941
▁Resi	-9942
▁Spec	-9943
▁Team	-9944
▁Want	-9945
▁eBay	-9946
▁ival	-9947
▁ntal	-9948
▁החופ	-9949
▁וגלי	-9950
▁חורי	-9951
▁טרים	-9952
▁צחון	-9953
▁Build	-9954
▁Frank	-9955
▁Learn	-9956
▁Twitt	-9957
▁house	-9958
▁היהוד	-9959
cu	-9960
mb	-9961
out	-9962
▁(7	-9963
▁+1	-9964
▁-8	-9965
▁//	-9966
▁89	-9967
▁DN	-9968
▁FO	-9969
▁MM	-9970
▁Ya	-9971
▁ef	-9972
▁ii	-9973
▁tt	-9974
▁חף	-9975
ould	-9976
ourt	-9977
▁1.4	-9978
▁11.	-9979
▁110	-9980
▁99%	-9981
▁Arm	-9982
▁Cat	-9983
▁Cyb	-9984
▁Dec	-9985
▁LLC	-9986
▁Lou	-9987
▁NAS	-9988
▁Pea	-9989
▁Sol	-9990
▁Sub	-9991
▁[2]	-9992
▁[3]	-9993
▁acc	-9994
▁bit	-9995
▁lus	-9996
▁ura	-9997
▁בגז	-9998
▁הגה	-9999
▁היק	-10000
▁הרך	-10001
▁טבק	-10002
▁לפח	-10003
▁מדף	-10004
▁מטפ	-10005
▁ננס	-10006
▁ספא	-10007
▁פעי	-10008
▁Dist	-10009
▁Full	-10010
▁Hand	-10011
▁Mill	-10012
▁Summ	-10013
▁Talk	-10014
▁Vall	-10015
▁book	-10016
▁dies	-10017
▁news	-10018
▁stic	-10019
▁ular	-10020
▁word	-10021
▁העצמ	-10022
▁הקרב	-10023
▁ילוס	-10024
▁יעור	-10025
▁פירו	-10026
▁קופת	-10027
▁Again	-10028
▁Azure	-10029
▁Beaut	-10030
▁Disco	-10031
▁המטופ	-10032
▁להחלי	-10033
▁לונדו	-10034
▁קיבלת	-10035
UN	-10036
asy	-10037
iao	-10038
olf	-10039
▁8,	-10040
▁BC	-10041
▁CA	-10042
▁CE	-10043
▁Pu	-10044
▁RT	-10045
▁Ur	-10046
▁WW	-10047
▁mp	-10048
▁ub	-10049
▁-20	-10050
▁API	-10051
▁Ali	-10052
▁Ana	-10053
▁Att	-10054
▁CDC	-10055
▁Cho	-10056
▁Han	-10057
▁Ltd	-10058
▁Min	-10059
▁Pan	-10060
▁Pap	-10061
▁Que	-10062
▁RAM	-10063
▁Two	-10064
▁Vol	-10065
▁bel	-10066
▁bus	-10067
▁don	-10068
▁get	-10069
▁sec	-10070
▁uni	-10071
▁val	-10072
▁אטר	-10073
▁ברת	-10074
▁הוס	-10075
▁וזכ	-10076
▁זרק	-10077
▁חלף	-10078
▁יבד	-10079
▁לאז	-10080
▁לשנ	-10081
▁מאף	-10082
▁נגן	-10083
▁סמו	-10084
▁עמך	-10085
▁פכת	-10086
▁פתק	-10087
▁שנר	-10088
▁תאו	-10089
▁תעל	-10090
▁Exec	-10091
▁Food	-10092
▁Hard	-10093
▁Land	-10094
▁Page	-10095
▁Rich	-10096
▁Step	-10097
▁Trav	-10098
▁Walk	-10099
▁Wars	-10100
▁WiFi	-10101
▁ball	-10102
▁fess	-10103
▁tory	-10104
▁will	-10105
▁וונו	-10106
▁ומנו	-10107
▁לברי	-10108
▁מסכי	-10109
▁נסיו	-10110
▁סלול	-10111
▁ענים	-10112
▁פוני	-10113
▁פילו	-10114
▁פקטי	-10115
▁Charl	-10116
▁Earth	-10117
▁Happy	-10118
▁Quest	-10119
▁Start	-10120
▁Trade	-10121
▁Woman	-10122
▁tooth	-10123
▁בתוכנ	-10124
▁גדולי	-10125
▁הימים	-10126
LL	-10127
nc	-10128
zo	-10129
▁q	-10130
eno	-10131
ese	-10132
גיט	-10133
▁')	-10134
▁5)	-10135
▁9,	-10136
▁EX	-10137
▁Ko	-10138
▁LD	-10139
▁NO	-10140
▁RA	-10141
▁RO	-10142
▁SL	-10143
▁VR	-10144
▁XX	-10145
▁ae	-10146
▁br	-10147
▁gh	-10148
▁ja	-10149
▁ky	-10150
▁sf	-10151
▁tu	-10152
▁טת	-10153
▁-10	-10154
▁13,	-10155
▁17,	-10156
▁2.4	-10157
▁AWS	-10158
▁Adv	-10159
▁Ani	-10160
▁Eli	-10161
▁Flo	-10162
▁Fro	-10163
▁Hyp	-10164
▁MAN	-10165
▁Psy	-10166
▁SSL	-10167
▁USA	-10168
▁duc	-10169
▁ena	-10170
▁ens	-10171
▁ero	-10172
▁fra	-10173
▁gia	-10174
▁hyp	-10175
▁ics	-10176
▁non	-10177
▁nte	-10178
▁oli	-10179
▁rib	-10180
▁sha	-10181
▁tec	-10182
▁ury	-10183
▁אֶל	-10184
▁ידך	-10185
▁יכא	-10186
▁מגר	-10187
▁ממס	-10188
▁נבע	-10189
▁נחנ	-10190
▁עפר	-10191
▁שיכ	-10192
▁תרב	-10193
▁Advi	-10194
▁Band	-10195
▁Cali	-10196
▁Fest	-10197
▁Have	-10198
▁Head	-10199
▁Mary	-10200
▁Meta	-10201
▁Paul	-10202
▁Port	-10203
▁Temp	-10204
▁Wood	-10205
▁cess	-10206
▁here	-10207
▁ific	-10208
▁unic	-10209
▁גוני	-10210
▁הולד	-10211
▁ועית	-10212
▁ופטי	-10213
▁חרות	-10214
▁כרון	-10215
▁להתמ	-10216
▁ליום	-10217
▁עולי	-10218
▁עילי	-10219
▁פואה	-10220
▁פתאו	-10221
▁פתרו	-10222
▁ציתי	-10223
▁Ghost	-10224
▁Scrip	-10225
▁Where	-10226
▁board	-10227
▁דיגיט	-10228
▁ההורי	-10229
▁ליכים	-10230
5]	-10231
SE	-10232
di	-10233
no	-10234
ya	-10235
eav	-10236
ota	-10237
rop	-10238
▁83	-10239
▁EA	-10240
▁Ge	-10241
▁NP	-10242
▁OM	-10243
▁RC	-10244
▁mm	-10245
▁ou	-10246
▁sw	-10247
mail	-10248
ulti	-10249
▁-30	-10250
▁1-2	-10251
▁125	-10252
▁3.1	-10253
▁>>>	-10254
▁Aff	-10255
▁Aft	-10256
▁Alb	-10257
▁Ava	-10258
▁Bey	-10259
▁Cal	-10260
▁Dog	-10261
▁EPA	-10262
▁Fer	-10263
▁HPV	-10264
▁Hub	-10265
▁NBC	-10266
▁Sex	-10267
▁Top	-10268
▁Wal	-10269
▁[5]	-10270
▁air	-10271
▁ban	-10272
▁but	-10273
▁fri	-10274
▁ire	-10275
▁mat	-10276
▁phi	-10277
▁sel	-10278
▁בזו	-10279
▁ביג	-10280
▁בימ	-10281
▁בנם	-10282
▁גוו	-10283
▁גלג	-10284
▁גלת	-10285
▁דדו	-10286
▁הנמ	-10287
▁הנפ	-10288
▁הנת	-10289
▁זקי	-10290
▁מחמ	-10291
▁ממצ	-10292
▁ממק	-10293
▁מסה	-10294
▁ניל	-10295
▁צחק	-10296
▁רשע	-10297
▁שחל	-10298
▁שטי	-10299
▁Days	-10300
▁Fina	-10301
▁Jack	-10302
▁Mass	-10303
▁Trip	-10304
▁Visi	-10305
▁burg	-10306
▁dust	-10307
▁ense	-10308
▁mics	-10309
▁nect	-10310
▁ners	-10311
▁part	-10312
▁tech	-10313
▁tock	-10314
▁דולר	-10315
▁ובלי	-10316
▁יביו	-10317
▁ייתה	-10318
▁יעים	-10319
▁יתרו	-10320
▁לגמר	-10321
▁לינו	-10322
▁נטית	-10323
▁סטיי	-10324
▁סלמי	-10325
▁צרים	-10326
▁קביל	-10327
▁רותי	-10328
▁Sound	-10329
▁האסטר	-10330
▁תנהגו	-10331
LP	-10332
RS	-10333
up	-10334
ִם	-10335
▁■	-10336
ida	-10337
▁#2	-10338
▁#3	-10339
▁AB	-10340
▁DD	-10341
▁GR	-10342
▁LS	-10343
▁Mr	-10344
▁RG	-10345
▁TN	-10346
▁UP	-10347
▁tz	-10348
▁yo	-10349
oney	-10350
▁21,	-10351
▁35%	-10352
▁85%	-10353
▁95%	-10354
▁Alt	-10355
▁Cir	-10356
▁Die	-10357
▁ECT	-10358
▁Eff	-10359
▁HTC	-10360
▁Liv	-10361
▁Ple	-10362
▁Ret	-10363
▁SAP	-10364
▁Ten	-10365
▁eri	-10366
▁med	-10367
▁rew	-10368
▁ris	-10369
▁sla	-10370
▁sup	-10371
▁בכף	-10372
▁במט	-10373
▁הזי	-10374
▁ופכ	-10375
▁טתי	-10376
▁כימ	-10377
▁כסא	-10378
▁לנש	-10379
▁לפנ	-10380
▁לשפ	-10381
▁נטש	-10382
▁עבה	-10383
▁פאו	-10384
▁רגה	-10385
▁Cult	-10386
▁Esse	-10387
▁Feel	-10388
▁Gear	-10389
▁ICRC	-10390
▁Make	-10391
▁Mars	-10392
▁Midd	-10393
▁Movi	-10394
▁Side	-10395
▁Tell	-10396
▁Wire	-10397
▁Xiao	-10398
▁bour	-10399
▁like	-10400
▁load	-10401
▁rial	-10402
▁sfer	-10403
▁ship	-10404
▁very	-10405
▁ynet	-10406
▁וכבי	-10407
▁ונדו	-10408
▁ועדי	-10409
▁וקטו	-10410
▁יומנ	-10411
▁יחוד	-10412
▁יכונ	-10413
▁נויו	-10414
▁פיצו	-10415
▁ריקו	-10416
▁Priva	-10417
▁Publi	-10418
▁Sport	-10419
▁Touch	-10420
▁point	-10421
▁גונים	-10422
▁וימים	-10423
▁ותיים	-10424
▁נוסעי	-10425
La	-10426
דף	-10427
▁¶	-10428
▁●	-10429
oul	-10430
rit	-10431
חקנ	-10432
ליש	-10433
▁$.	-10434
▁Af	-10435
▁FI	-10436
▁GT	-10437
▁ME	-10438
▁Py	-10439
▁fr	-10440
▁nk	-10441
▁ob	-10442
▁ox	-10443
▁tw	-10444
ideo	-10445
▁-15	-10446
▁140	-10447
▁23%	-10448
▁AND	-10449
▁Any	-10450
▁Ast	-10451
▁Aud	-10452
▁Cli	-10453
▁Fli	-10454
▁NFL	-10455
▁Pol	-10456
▁Sev	-10457
▁Sin	-10458
▁Spa	-10459
▁Tit	-10460
▁USD	-10461
▁WHO	-10462
▁clo	-10463
▁lor	-10464
▁nto	-10465
▁pal	-10466
▁ses	-10467
▁sto	-10468
▁tar	-10469
▁uri	-10470
▁אתנ	-10471
▁דנט	-10472
▁הימ	-10473
▁הלן	-10474
▁הנש	-10475
▁וצו	-10476
▁חדל	-10477
▁חלם	-10478
▁כתם	-10479
▁כתר	-10480
▁לבה	-10481
▁משנ	-10482
▁נכו	-10483
▁קמו	-10484
▁קפו	-10485
▁תוף	-10486
▁Bell	-10487
▁Bill	-10488
▁Cell	-10489
▁Dail	-10490
▁OLED	-10491
▁Russ	-10492
▁Zero	-10493
▁born	-10494
▁nced	-10495
▁rict	-10496
▁ries	-10497
▁wort	-10498
▁התאי	-10499
▁ונאי	-10500
▁ושים	-10501
▁חובו	-10502
▁חשבי	-10503
▁ליצו	-10504
▁מאמי	-10505
▁שהיה	-10506
▁Brand	-10507
▁Devel	-10508
▁Engli	-10509
▁Guard	-10510
▁Movie	-10511
▁Video	-10512
▁Villa	-10513
▁learn	-10514
▁במהיר	-10515
▁השחקנ	-10516
▁השליש	-10517
▁מוקרט	-10518
FA	-10519
mm	-10520
wa	-10521
zy	-10522
ִי	-10523
▁♦	-10524
ane	-10525
ask	-10526
ays	-10527
▁1/	-10528
▁7%	-10529
▁FM	-10530
▁FX	-10531
▁IU	-10532
▁LE	-10533
▁LI	-10534
▁RF	-10535
▁SO	-10536
▁Sn	-10537
▁WI	-10538
▁XP	-10539
▁ah	-10540
▁ak	-10541
▁fo	-10542
▁kn	-10543
▁rs	-10544
▁פז	-10545
▁צף	-10546
▁“.	-10547
ounc	-10548
▁19.	-10549
▁20,	-10550
▁4-5	-10551
▁4.5	-10552
▁450	-10553
▁65%	-10554
▁8.1	-10555
▁ACT	-10556
▁CRM	-10557
▁Cle	-10558
▁Def	-10559
▁ERP	-10560
▁Fut	-10561
▁Hon	-10562
▁Hop	-10563
▁Kra	-10564
▁MTV	-10565
▁Mak	-10566
▁Mer	-10567
▁bio	-10568
▁bre	-10569
▁fox	-10570
▁iam	-10571
▁ino	-10572
▁lia	-10573
▁old	-10574
▁olu	-10575
▁qui	-10576
▁rec	-10577
▁stu	-10578
▁was	-10579
▁אבנ	-10580
▁ברך	-10581
▁בתפ	-10582
▁גמא	-10583
▁גנץ	-10584
▁הבט	-10585
▁הנם	-10586
▁השן	-10587
▁ושת	-10588
▁כתף	-10589
▁לבם	-10590
▁לצה	-10591
▁מחס	-10592
▁משט	-10593
▁סאם	-10594
▁שבץ	-10595
▁Demo	-10596
▁Ener	-10597
▁Gate	-10598
▁Made	-10599
▁Mari	-10600
▁Pack	-10601
▁Silv	-10602
▁Simp	-10603
▁Solu	-10604
▁Spot	-10605
▁Stop	-10606
▁Stor	-10607
▁Vent	-10608
▁Visa	-10609
▁auto	-10610
▁date	-10611
▁dern	-10612
▁site	-10613
▁syst	-10614
▁ties	-10615
▁במדי	-10616
▁הובי	-10617
▁המחש	-10618
▁וצרי	-10619
▁וררי	-10620
▁מרתי	-10621
▁משול	-10622
▁נתונ	-10623
▁עיתו	-10624
▁עקרו	-10625
▁פשרת	-10626
▁רטיו	-10627
▁שבים	-10628
▁תכני	-10629
▁Force	-10630
▁Think	-10631
):	-10632
קח	-10633
▁′	-10634
aci	-10635
iga	-10636
ney	-10637
oke	-10638
ori	-10639
oro	-10640
unc	-10641
▁7:	-10642
▁94	-10643
▁AV	-10644
▁DB	-10645
▁DO	-10646
▁DR	-10647
▁Dy	-10648
▁GL	-10649
▁HR	-10650
▁HS	-10651
▁IE	-10652
▁MO	-10653
▁OC	-10654
▁SU	-10655
▁Ti	-10656
▁VK	-10657
▁ji	-10658
▁ts	-10659
▁101	-10660
▁16,	-10661
▁24,	-10662
▁3.3	-10663
▁40.	-10664
▁Ano	-10665
▁Dep	-10666
▁Fle	-10667
▁Hat	-10668
▁Ken	-10669
▁NSA	-10670
▁Phy	-10671
▁RSS	-10672
▁Ref	-10673
▁Ris	-10674
▁Sig	-10675
▁VIP	-10676
▁Van	-10677
▁Zen	-10678
▁cli	-10679
▁ful	-10680
▁gni	-10681
▁let	-10682
▁men	-10683
▁nda	-10684
▁nel	-10685
▁nov	-10686
▁sci	-10687
▁she	-10688
▁sse	-10689
▁אנח	-10690
▁בלט	-10691
▁דיע	-10692
▁ויכ	-10693
▁חרף	-10694
▁לקה	-10695
▁מחד	-10696
▁נוו	-10697
▁נכה	-10698
▁סאן	-10699
▁סלח	-10700
▁סלט	-10701
▁רעל	-10702
▁תכל	-10703
▁Acro	-10704
▁Assa	-10705
▁Beat	-10706
▁Chat	-10707
▁Crow	-10708
▁Four	-10709
▁Hold	-10710
▁endo	-10711
▁gies	-10712
▁head	-10713
▁iful	-10714
▁mast	-10715
▁בניג	-10716
▁הניס	-10717
▁הפני	-10718
▁וצים	-10719
▁זקים	-10720
▁חפשי	-10721
▁יזצי	-10722
▁יטלי	-10723
▁לשלו	-10724
▁סטרט	-10725
▁סיבו	-10726
▁פשרו	-10727
▁Block	-10728
▁Break	-10729
▁Brown	-10730
▁Magic	-10731
▁Radio	-10732
▁chain	-10733
▁ridge	-10734
▁הודית	-10735
▁הקבוצ	-10736
▁מודרנ	-10737
▁נולוג	-10738
▁קיצונ	-10739
▁שהיית	-10740
AG	-10741
DR	-10742
dy	-10743
ui	-10744
▁­	-10745
ART	-10746
eck	-10747
ere	-10748
ics	-10749
omb	-10750
uni	-10751
▁#4	-10752
▁97	-10753
▁Fo	-10754
▁MG	-10755
▁NI	-10756
▁RP	-10757
▁sk	-10758
▁xx	-10759
oman	-10760
▁-14	-10761
▁13%	-10762
▁13.	-10763
▁15,	-10764
▁19,	-10765
▁900	-10766
▁BMI	-10767
▁Heb	-10768
▁Hen	-10769
▁Kni	-10770
▁Las	-10771
▁Len	-10772
▁Mal	-10773
▁NET	-10774
▁Oak	-10775
▁Oth	-10776
▁Our	-10777
▁Veg	-10778
▁Ven	-10779
▁ald	-10780
▁bar	-10781
▁bat	-10782
▁dor	-10783
▁eli	-10784
▁emi	-10785
▁erm	-10786
▁eth	-10787
▁gro	-10788
▁han	-10789
▁ius	-10790
▁kte	-10791
▁nch	-10792
▁oth	-10793
▁rio	-10794
▁tag	-10795
▁tan	-10796
▁tel	-10797
▁tit	-10798
▁uit	-10799
▁אגן	-10800
▁איט	-10801
▁גלן	-10802
▁חתן	-10803
▁טנק	-10804
▁משש	-10805
▁סקנ	-10806
▁פסט	-10807
▁צמר	-10808
▁קפץ	-10809
▁תרא	-10810
▁תתן	-10811
▁Care	-10812
▁Core	-10813
▁Lync	-10814
▁Only	-10815
▁Pale	-10816
▁Rain	-10817
▁Sand	-10818
▁Shen	-10819
▁Soul	-10820
▁Wond	-10821
▁forn	-10822
▁pyri	-10823
▁room	-10824
▁well	-10825
▁בעתי	-10826
▁וויו	-10827
▁וילי	-10828
▁וספו	-10829
▁זדמנ	-10830
▁חרור	-10831
▁יברס	-10832
▁מדינ	-10833
▁מפרי	-10834
▁נהלי	-10835
▁סטוד	-10836
▁קחים	-10837
▁רבית	-10838
▁רייר	-10839
▁שיכי	-10840
▁Broth	-10841
▁Commi	-10842
▁Counc	-10843
▁Guide	-10844
▁Queen	-10845
▁Sense	-10846
!)	-10847
CE	-10848
DC	-10849
FF	-10850
ID	-10851
LM	-10852
PD	-10853
TH	-10854
ֶה	-10855
ati	-10856
eet	-10857
ica	-10858
▁(:	-10859
▁BB	-10860
▁BR	-10861
▁DM	-10862
▁DP	-10863
▁EB	-10864
▁Ep	-10865
▁FL	-10866
▁Id	-10867
▁UM	-10868
▁UT	-10869
▁nn	-10870
▁שך	-10871
▁(!)	-10872
▁1.7	-10873
▁115	-10874
▁160	-10875
▁18%	-10876
▁28%	-10877
▁30.	-10878
▁4.2	-10879
▁50.	-10880
▁55%	-10881
▁7.5	-10882
▁AFP	-10883
▁Ann	-10884
▁CSS	-10885
▁Civ	-10886
▁Cur	-10887
▁Den	-10888
▁Der	-10889
▁EUR	-10890
▁Eye	-10891
▁Got	-10892
▁Hol	-10893
▁Kid	-10894
▁LDL	-10895
▁Leo	-10896
▁Non	-10897
▁Oce	-10898
▁PHP	-10899
▁RNA	-10900
▁Spi	-10901
▁Syn	-10902
▁bol	-10903
▁bon	-10904
▁bot	-10905
▁cry	-10906
▁ere	-10907
▁ett	-10908
▁her	-10909
▁hot	-10910
▁ien	-10911
▁kia	-10912
▁ler	-10913
▁mar	-10914
▁ngo	-10915
▁niz	-10916
▁phe	-10917
▁rea	-10918
▁rop	-10919
▁rou	-10920
▁rum	-10921
▁sch	-10922
▁set	-10923
▁sur	-10924
▁thy	-10925
▁urn	-10926
▁בבד	-10927
▁בדת	-10928
▁הגס	-10929
▁חיר	-10930
▁יגן	-10931
▁לבך	-10932
▁לעץ	-10933
▁מדם	-10934
▁מחט	-10935
▁מטו	-10936
▁נטע	-10937
▁סמן	-10938
▁פחו	-10939
▁פטמ	-10940
▁קלע	-10941
▁קלף	-10942
▁קמח	-10943
▁שלף	-10944
▁תגן	-10945
▁Auth	-10946
▁Conv	-10947
▁Cort	-10948
▁EMBA	-10949
▁Fund	-10950
▁Here	-10951
▁Hero	-10952
▁Keep	-10953
▁Name	-10954
▁Need	-10955
▁Numb	-10956
▁Pict	-10957
▁Room	-10958
▁True	-10959
▁Week	-10960
▁base	-10961
▁come	-10962
▁home	-10963
▁pres	-10964
▁road	-10965
▁ruct	-10966
▁וגית	-10967
▁ודעו	-10968
▁ופני	-10969
▁חומי	-10970
▁חינה	-10971
▁לסטי	-10972
▁מובי	-10973
▁נואר	-10974
▁קטני	-10975
▁תארי	-10976
▁תנים	-10977
▁Cross	-10978
▁Smith	-10979
▁Stone	-10980
▁Years	-10981
▁craft	-10982
▁ncial	-10983
▁במקרי	-10984
▁המחשב	-10985
▁ניסטי	-10986
CH	-10987
HR	-10988
Hz	-10989
UL	-10990
ix	-10991
sp	-10992
ws	-10993
acc	-10994
ita	-10995
ssi	-10996
▁"-	-10997
▁#5	-10998
▁(8	-10999
▁8:	-11000
▁9%	-11001
▁;)	-11002
▁Il	-11003
▁Yo	-11004
▁Ze	-11005
▁ld	-11006
▁pH	-11007
▁rt	-11008
▁(25	-11009
▁10:	-11010
▁17%	-11011
▁20.	-11012
▁40,	-11013
▁5.1	-11014
▁50,	-11015
▁60.	-11016
▁Ads	-11017
▁Ara	-11018
▁Bas	-11019
▁Dut	-11020
▁Fly	-11021
▁GTA	-11022
▁IBS	-11023
▁Ill	-11024
▁LLM	-11025
▁MVP	-11026
▁Mel	-11027
▁NGC	-11028
▁Phi	-11029
▁Pon	-11030
▁Rap	-11031
▁Ray	-11032
▁Set	-11033
▁Tal	-11034
▁ben	-11035
▁dra	-11036
▁mer	-11037
▁mod	-11038
▁nec	-11039
▁rev	-11040
▁rre	-11041
▁sen	-11042
▁tin	-11043
▁tro	-11044
▁une	-11045
▁zza	-11046
▁איכ	-11047
▁אלת	-11048
▁בהו	-11049
▁גבה	-11050
▁גיו	-11051
▁הדק	-11052
▁הסף	-11053
▁ויב	-11054
▁וימ	-11055
▁ופא	-11056
▁טיי	-11057
▁טסה	-11058
▁ידם	-11059
▁ימל	-11060
▁לזכ	-11061
▁לחן	-11062
▁לטפ	-11063
▁לקי	-11064
▁מתת	-11065
▁נונ	-11066
▁ניר	-11067
▁נקט	-11068
▁סתי	-11069
▁פחה	-11070
▁צדי	-11071
▁קרע	-11072
▁תהה	-11073
▁תיי	-11074
▁Circ	-11075
▁Code	-11076
▁Doct	-11077
▁Easy	-11078
▁Gett	-11079
▁Hilt	-11080
▁Linu	-11081
▁List	-11082
▁Lone	-11083
▁Mess	-11084
▁Path	-11085
▁Publ	-11086
▁Site	-11087
▁Sony	-11088
▁Spri	-11089
▁Waze	-11090
▁bank	-11091
▁crip	-11092
▁just	-11093
▁nics	-11094
▁ssin	-11095
▁הסופ	-11096
▁הקרו	-11097
▁השמי	-11098
▁התקש	-11099
▁ודדי	-11100
▁ונטי	-11101
▁טוחה	-11102
▁טליה	-11103
▁לוטי	-11104
▁לעמו	-11105
▁סטנד	-11106
▁פולר	-11107
▁Archi	-11108
▁Court	-11109
▁Final	-11110
▁Jones	-11111
▁Paris	-11112
▁Resou	-11113
▁Train	-11114
▁known	-11115
▁space	-11116
▁אמיני	-11117
▁ייסבו	-11118
▁ליטיק	-11119
▁מידים	-11120
▁ציאלי	-11121
",	-11122
15	-11123
2,	-11124
30	-11125
CO	-11126
EM	-11127
FT	-11128
II	-11129
OA	-11130
gu	-11131
uo	-11132
טל	-11133
▁▼	-11134
unk	-11135
ועצ	-11136
יתו	-11137
▁-9	-11138
▁4%	-11139
▁7)	-11140
▁9:	-11141
▁CV	-11142
▁EG	-11143
▁Ea	-11144
▁HG	-11145
▁IA	-11146
▁PA	-11147
▁PD	-11148
▁TL	-11149
▁TP	-11150
▁ck	-11151
▁mg	-11152
▁ms	-11153
▁חח	-11154
▁104	-11155
▁16%	-11156
▁25,	-11157
▁5.5	-11158
▁ACC	-11159
▁AMD	-11160
▁Ant	-11161
▁Bru	-11162
▁Cas	-11163
▁Cer	-11164
▁Dur	-11165
▁Ear	-11166
▁Ham	-11167
▁LTE	-11168
▁Lod	-11169
▁Low	-11170
▁Maj	-11171
▁Mat	-11172
▁Mur	-11173
▁ONE	-11174
▁Pur	-11175
▁See	-11176
▁Six	-11177
▁Tay	-11178
▁Tho	-11179
▁USS	-11180
▁VKo	-11181
▁ail	-11182
▁cre	-11183
▁dec	-11184
▁ean	-11185
▁enQ	-11186
▁gan	-11187
▁hyd	-11188
▁ico	-11189
▁ini	-11190
▁ira	-11191
▁nga	-11192
▁ona	-11193
▁oni	-11194
▁sit	-11195
▁vis	-11196
▁בכה	-11197
▁גרג	-11198
▁דאז	-11199
▁הבס	-11200
▁העט	-11201
▁הפש	-11202
▁חרם	-11203
▁חרס	-11204
▁ילח	-11205
▁מבן	-11206
▁מדר	-11207
▁ממל	-11208
▁נמנ	-11209
▁ספג	-11210
▁פחי	-11211
▁צנח	-11212
▁תבע	-11213
▁Base	-11214
▁Docu	-11215
▁Driv	-11216
▁Engi	-11217
▁Face	-11218
▁Find	-11219
▁Five	-11220
▁Hack	-11221
▁Marv	-11222
▁Miss	-11223
▁NYSE	-11224
▁Nint	-11225
▁Qual	-11226
▁Roma	-11227
▁Rome	-11228
▁Safe	-11229
▁Skin	-11230
▁Town	-11231
▁Tree	-11232
▁Well	-11233
▁Wind	-11234
▁ency	-11235
▁have	-11236
▁inue	-11237
▁mine	-11238
▁only	-11239
▁rces	-11240
▁sney	-11241
▁some	-11242
▁star	-11243
▁אפרי	-11244
▁התער	-11245
▁וחני	-11246
▁ילום	-11247
▁לקים	-11248
▁מוחל	-11249
▁ניסט	-11250
▁ערבו	-11251
▁פינו	-11252
▁צועי	-11253
▁שיתי	-11254
▁תניה	-11255
▁Brain	-11256
▁Harry	-11257
▁Horiz	-11258
▁Leave	-11259
▁sport	-11260
▁המועצ	-11261
▁העיתו	-11262
▁יגיטל	-11263
▁ירופי	-11264
▁סיכול	-11265
▁קומית	-11266
▁קיימו	-11267
7]	-11268
IA	-11269
dd	-11270
sh	-11271
ֵת	-11272
רג	-11273
▁↩	-11274
▁😉	-11275
UST	-11276
uck	-11277
une	-11278
▁1-	-11279
▁BE	-11280
▁BO	-11281
▁Hu	-11282
▁JD	-11283
▁JS	-11284
▁LP	-11285
▁SN	-11286
▁SW	-11287
▁VS	-11288
▁XC	-11289
▁ap	-11290
▁za	-11291
▁***	-11292
▁-70	-11293
▁111	-11294
▁12%	-11295
▁17.	-11296
▁35,	-11297
▁4.3	-11298
▁70.	-11299
▁90.	-11300
▁Blu	-11301
▁Bor	-11302
▁CBT	-11303
▁Ger	-11304
▁Hav	-11305
▁His	-11306
▁ICT	-11307
▁MAX	-11308
▁Mod	-11309
▁Ord	-11310
▁Pha	-11311
▁RGB	-11312
▁SDF	-11313
▁SIM	-11314
▁Sho	-11315
▁Spe	-11316
▁Tow	-11317
▁UPS	-11318
▁WWE	-11319
▁Wan	-11320
▁Yun	-11321
▁[7]	-11322
▁age	-11323
▁bow	-11324
▁bro	-11325
▁dam	-11326
▁dos	-11327
▁ify	-11328
▁ige	-11329
▁ker	-11330
▁lon	-11331
▁nth	-11332
▁ori	-11333
▁pra	-11334
▁ray	-11335
▁sou	-11336
▁ssa	-11337
▁tim	-11338
▁yes	-11339
▁אמם	-11340
▁ארז	-11341
▁בבן	-11342
▁בלש	-11343
▁בעב	-11344
▁ברש	-11345
▁גסה	-11346
▁גרר	-11347
▁דית	-11348
▁דשא	-11349
▁המן	-11350
▁הצפ	-11351
▁ודש	-11352
▁חאן	-11353
▁טסו	-11354
▁יחל	-11355
▁מגה	-11356
▁מחל	-11357
▁נוך	-11358
▁סדו	-11359
▁ספה	-11360
▁קרס	-11361
▁רכס	-11362
▁רנה	-11363
▁שבב	-11364
▁שקד	-11365
▁תפת	-11366
▁Blog	-11367
▁Cana	-11368
▁Dell	-11369
▁Drop	-11370
▁Edit	-11371
▁Form	-11372
▁Hunt	-11373
▁Jose	-11374
▁Kind	-11375
▁Mail	-11376
▁Moni	-11377
▁Orga	-11378
▁Phil	-11379
▁Plea	-11380
▁Pres	-11381
▁Regi	-11382
▁Rose	-11383
▁Sign	-11384
▁Supp	-11385
▁Take	-11386
▁Tool	-11387
▁Vict	-11388
▁Wish	-11389
▁Zone	-11390
▁fied	-11391
▁iPod	-11392
▁nces	-11393
▁ream	-11394
▁tive	-11395
▁tone	-11396
▁walk	-11397
▁zine	-11398
▁אלית	-11399
▁בעול	-11400
▁בעית	-11401
▁גילי	-11402
▁דולה	-11403
▁וונט	-11404
▁וצאו	-11405
▁יאלי	-11406
▁ינוא	-11407
▁כאיל	-11408
▁לדים	-11409
▁מכוו	-11410
▁ממלכ	-11411
▁עילו	-11412
▁פוטנ	-11413
▁תחרו	-11414
▁Broad	-11415
▁Pract	-11416
▁Tales	-11417
▁ision	-11418
▁oogle	-11419
▁אפריק	-11420
▁האנרג	-11421
▁המזון	-11422
▁הספרי	-11423
▁יטיים	-11424
▁להורי	-11425
▁קדמות	-11426
▁רגליי	-11427
▁תחבור	-11428
1.	-11429
50	-11430
IL	-11431
VA	-11432
pe	-11433
ón	-11434
▁„	-11435
EST	-11436
ili	-11437
ize	-11438
uta	-11439
▁$,	-11440
▁6%	-11441
▁AK	-11442
▁Ah	-11443
▁BT	-11444
▁DE	-11445
▁DJ	-11446
▁EV	-11447
▁Et	-11448
▁FC	-11449
▁FH	-11450
▁FS	-11451
▁Gy	-11452
▁Ig	-11453
▁OK	-11454
▁Ox	-11455
▁Rh	-11456
▁Zo	-11457
▁eh	-11458
▁ua	-11459
▁uk	-11460
▁צץ	-11461
usta	-11462
▁(30	-11463
▁---	-11464
▁-16	-11465
▁105	-11466
▁119	-11467
▁45%	-11468
▁57%	-11469
▁???	-11470
▁Ada	-11471
▁Bat	-11472
▁DNS	-11473
▁Dom	-11474
▁Gro	-11475
▁Hos	-11476
▁IAS	-11477
▁ICO	-11478
▁Kay	-11479
▁Lee	-11480
▁Mid	-11481
▁NLP	-11482
▁Own	-11483
▁Reb	-11484
▁Rem	-11485
▁Rid	-11486
▁Tab	-11487
▁Tax	-11488
▁Tea	-11489
▁Vel	-11490
▁Whe	-11491
▁Yan	-11492
▁dep	-11493
▁eld	-11494
▁erc	-11495
▁gre	-11496
▁hum	-11497
▁iga	-11498
▁llo	-11499
▁low	-11500
▁mid	-11501
▁sim	-11502
▁smo	-11503
▁ter	-11504
▁אגי	-11505
▁אצי	-11506
▁געש	-11507
▁דחק	-11508
▁דשו	-11509
▁ומע	-11510
▁וסע	-11511
▁טרח	-11512
▁כבו	-11513
▁כום	-11514
▁לקנ	-11515
▁לרד	-11516
▁מכנ	-11517
▁פלש	-11518
▁צוק	-11519
▁צלמ	-11520
▁תגו	-11521
▁תהי	-11522
▁Bird	-11523
▁Chan	-11524
▁Educ	-11525
▁Flex	-11526
▁Flow	-11527
▁Gene	-11528
▁Grow	-11529
▁Halo	-11530
▁Lock	-11531
▁Mega	-11532
▁Mont	-11533
▁Myst	-11534
▁Pira	-11535
▁Prem	-11536
▁Roll	-11537
▁Snow	-11538
▁Surv	-11539
▁Virt	-11540
▁best	-11541
▁bury	-11542
▁dios	-11543
▁fish	-11544
▁foll	-11545
▁fore	-11546
▁iple	-11547
▁para	-11548
▁pean	-11549
▁ribu	-11550
▁self	-11551
▁solu	-11552
▁הארץ	-11553
▁התפר	-11554
▁ולאח	-11555
▁ולנד	-11556
▁ומרת	-11557
▁ופאי	-11558
▁ורחי	-11559
▁ימינ	-11560
▁כניו	-11561
▁לתקו	-11562
▁מותי	-11563
▁קובל	-11564
▁רגונ	-11565
▁רסום	-11566
▁Audio	-11567
▁Catal	-11568
▁Event	-11569
▁Gmail	-11570
▁Hyper	-11571
▁India	-11572
▁Ocean	-11573
▁Princ	-11574
▁Shutt	-11575
▁Steam	-11576
▁Stock	-11577
▁Three	-11578
▁Vista	-11579
▁block	-11580
▁cribe	-11581
▁spect	-11582
▁stall	-11583
▁there	-11584
▁tical	-11585
▁גילים	-11586
▁וראים	-11587
▁מתכוו	-11588
FS	-11589
OK	-11590
UE	-11591
UR	-11592
ie	-11593
ji	-11594
נא	-11595
קו	-11596
״י	-11597
▁	-11598
▁á	-11599
▁∗	-11600
▁◄	-11601
EFL	-11602
ESS	-11603
IST	-11604
ani	-11605
asp	-11606
ery	-11607
oop	-11608
orp	-11609
▁?!	-11610
▁AW	-11611
▁DL	-11612
▁Ey	-11613
▁Kn	-11614
▁LO	-11615
▁ML	-11616
▁NJ	-11617
▁Os	-11618
▁PE	-11619
▁PI	-11620
▁TT	-11621
▁TW	-11622
▁Ut	-11623
▁VA	-11624
▁ht	-11625
▁km	-11626
▁vs	-11627
▁ye	-11628
▁(7)	-11629
▁-25	-11630
▁-50	-11631
▁103	-11632
▁2.6	-11633
▁24.	-11634
▁3-5	-11635
▁3.7	-11636
▁5.3	-11637
▁Ala	-11638
▁Apo	-11639
▁Aug	-11640
▁Bla	-11641
▁Bob	-11642
▁Bon	-11643
▁Boo	-11644
▁Buy	-11645
▁Cel	-11646
▁ESS	-11647
▁Eld	-11648
▁Fox	-11649
▁Gay	-11650
▁Gri	-11651
▁HCG	-11652
▁Hit	-11653
▁Hur	-11654
▁ICA	-11655
▁MIN	-11656
▁MMR	-11657
▁NAT	-11658
▁PAL	-11659
▁PRO	-11660
▁Ros	-11661
▁SPA	-11662
▁Sat	-11663
▁Via	-11664
▁Wil	-11665
▁Yah	-11666
▁bad	-11667
▁cat	-11668
▁eff	-11669
▁ein	-11670
▁ela	-11671
▁erv	-11672
▁hen	-11673
▁ong	-11674
▁rus	-11675
▁som	-11676
▁tta	-11677
▁uli	-11678
▁wat	-11679
▁באח	-11680
▁באך	-11681
▁בבל	-11682
▁בנך	-11683
▁בעץ	-11684
▁הפן	-11685
▁השף	-11686
▁התת	-11687
▁זֶה	-11688
▁חטף	-11689
▁חמו	-11690
▁טמי	-11691
▁כעם	-11692
▁למא	-11693
▁לסב	-11694
▁לקב	-11695
▁לשש	-11696
▁מאן	-11697
▁מקש	-11698
▁נחי	-11699
▁ע״י	-11700
▁פכו	-11701
▁רחש	-11702
▁רטט	-11703
▁שיד	-11704
▁שלד	-11705
▁שנק	-11706
▁תלה	-11707
▁תמה	-11708
▁Away	-11709
▁Clin	-11710
▁Colo	-11711
▁Cost	-11712
▁Cryp	-11713
▁Defi	-11714
▁Door	-11715
▁Edge	-11716
▁Evil	-11717
▁File	-11718
▁GAAP	-11719
▁Host	-11720
▁Lett	-11721
▁Lind	-11722
▁Maps	-11723
▁Meet	-11724
▁Self	-11725
▁Tele	-11726
▁fact	-11727
▁fect	-11728
▁find	-11729
▁gian	-11730
▁ging	-11731
▁good	-11732
▁mann	-11733
▁ngua	-11734
▁nion	-11735
▁page	-11736
▁rror	-11737
▁show	-11738
▁sure	-11739
▁test	-11740
▁type	-11741
▁what	-11742
▁אכול	-11743
▁בוהה	-11744
▁בישר	-11745
▁המטו	-11746
▁המפו	-11747
▁לוונ	-11748
▁למצו	-11749
▁מוזי	-11750
▁מכיו	-11751
▁סטים	-11752
▁רופה	-11753
▁שיכו	-11754
▁שקעה	-11755
▁תאום	-11756
▁Champ	-11757
▁Coast	-11758
▁Creed	-11759
▁Jerus	-11760
▁Lodge	-11761
▁Norwe	-11762
▁Prime	-11763
▁Shock	-11764
▁count	-11765
▁force	-11766
▁בילים	-11767
▁בלונד	-11768
▁החופש	-11769
▁הצדדי	-11770
▁התמונ	-11771
▁רגישי	-11772
6]	-11773
8]	-11774
DE	-11775
GA	-11776
HA	-11777
In	-11778
MI	-11779
PO	-11780
aS	-11781
lp	-11782
wk	-11783
▁§	-11784
▁è	-11785
ACE	-11786
AND	-11787
OCK	-11788
esh	-11789
fee	-11790
han	-11791
ile	-11792
imm	-11793
ote	-11794
uri	-11795
▁?"	-11796
▁AU	-11797
▁Ic	-11798
▁MT	-11799
▁OD	-11800
▁Oh	-11801
▁PO	-11802
▁RI	-11803
▁SV	-11804
▁SY	-11805
▁TI	-11806
▁WS	-11807
▁Wy	-11808
▁XK	-11809
▁dg	-11810
▁ib	-11811
▁mu	-11812
irth	-11813
leep	-11814
otal	-11815
▁').	-11816
▁(10	-11817
▁(12	-11818
▁(20	-11819
▁-18	-11820
▁1.8	-11821
▁112	-11822
▁122	-11823
▁14%	-11824
▁19%	-11825
▁22%	-11826
▁22,	-11827
▁220	-11828
▁27%	-11829
▁27,	-11830
▁3.0	-11831
▁320	-11832
▁4.1	-11833
▁5.2	-11834
▁51%	-11835
▁Bak	-11836
▁Bed	-11837
▁COM	-11838
▁Cam	-11839
▁Cla	-11840
▁DAY	-11841
▁Duo	-11842
▁Epi	-11843
▁Esp	-11844
▁IVF	-11845
▁JCP	-11846
▁Lov	-11847
▁Nan	-11848
▁Oct	-11849
▁PCI	-11850
▁PTS	-11851
▁Pia	-11852
▁Pix	-11853
▁SPF	-11854
▁SSD	-11855
▁Say	-11856
▁Zoo	-11857
▁[8]	-11858
▁cod	-11859
▁cur	-11860
▁dog	-11861
▁eat	-11862
▁edi	-11863
▁fit	-11864
▁hol	-11865
▁ier	-11866
▁imi	-11867
▁kin	-11868
▁lan	-11869
▁led	-11870
▁mos	-11871
▁now	-11872
▁ony	-11873
▁pic	-11874
▁rim	-11875
▁rin	-11876
▁rma	-11877
▁rri	-11878
▁sea	-11879
▁see	-11880
▁sic	-11881
▁vir	-11882
▁xic	-11883
▁אִם	-11884
▁אצא	-11885
▁ארך	-11886
▁בלק	-11887
▁גוך	-11888
▁גית	-11889
▁גרף	-11890
▁דשנ	-11891
▁דתם	-11892
▁הגם	-11893
▁הסם	-11894
▁הפד	-11895
▁וגז	-11896
▁חוג	-11897
▁חכה	-11898
▁חסם	-11899
▁יכנ	-11900
▁כרך	-11901
▁לדם	-11902
▁מזי	-11903
▁מחב	-11904
▁נספ	-11905
▁נרד	-11906
▁עמל	-11907
▁ערן	-11908
▁עשב	-11909
▁שדי	-11910
▁שיך	-11911
▁תנא	-11912
▁תתפ	-11913
▁Aero	-11914
▁Arou	-11915
▁Atla	-11916
▁Camb	-11917
▁Casi	-11918
▁Cool	-11919
▁Dyna	-11920
▁Fact	-11921
▁Fish	-11922
▁HTTP	-11923
▁Harv	-11924
▁Heav	-11925
▁Hell	-11926
▁Holl	-11927
▁Hope	-11928
▁Indi	-11929
▁Kiss	-11930
▁Lord	-11931
▁Lost	-11932
▁Maga	-11933
▁Move	-11934
▁Noth	-11935
▁Palm	-11936
▁Plat	-11937
▁Rail	-11938
▁Rela	-11939
▁Size	-11940
▁Vers	-11941
▁Wash	-11942
▁Wiki	-11943
▁call	-11944
▁cent	-11945
▁desi	-11946
▁flow	-11947
▁fort	-11948
▁hash	-11949
▁know	-11950
▁link	-11951
▁mali	-11952
▁none	-11953
▁ount	-11954
▁path	-11955
▁sura	-11956
▁אופט	-11957
▁ההתנ	-11958
▁היכו	-11959
▁וזיק	-11960
▁וטומ	-11961
▁וכנו	-11962
▁ושית	-11963
▁חקים	-11964
▁יבלו	-11965
▁יטוי	-11966
▁ימיי	-11967
▁כבים	-11968
▁מוכה	-11969
▁מכים	-11970
▁קוקי	-11971
▁קריט	-11972
▁רמלי	-11973
▁שובה	-11974
▁Agree	-11975
▁Apart	-11976
▁Check	-11977
▁Civil	-11978
▁Click	-11979
▁Corta	-11980
▁Crazy	-11981
▁Evolu	-11982
▁Frame	-11983
▁Indep	-11984
▁Multi	-11985
▁Plaza	-11986
▁Roman	-11987
▁Shell	-11988
▁Sweet	-11989
▁TOEFL	-11990
▁Total	-11991
▁Trend	-11992
▁worth	-11993
▁החודש	-11994
'?	-11995
9]	-11996
HT	-11997
KK	-11998
My	-11999
NP	-12000
PF	-12001
PG	-12002
bi	-12003
eb	-12004
wi	-12005
’,	-12006
’.	-12007
▁	-12008
ISS	-12009
ans	-12010
arp	-12011
eak	-12012
▁(-	-12013
▁-"	-12014
▁2-	-12015
▁3/	-12016
▁AE	-12017
▁AJ	-12018
▁EE	-12019
▁EL	-12020
▁If	-12021
▁Ru	-12022
▁WA	-12023
▁WC	-12024
▁__	-12025
▁cs	-12026
▁ep	-12027
▁ft	-12028
▁oi	-12029
▁pm	-12030
▁זצ	-12031
▁-11	-12032
▁-21	-12033
▁-40	-12034
▁-60	-12035
▁108	-12036
▁109	-12037
▁114	-12038
▁127	-12039
▁14.	-12040
▁170	-12041
▁21%	-12042
▁21.	-12043
▁29%	-12044
▁301	-12045
▁6.5	-12046
▁60,	-12047
▁650	-12048
▁71%	-12049
▁AOL	-12050
▁ART	-12051
▁AST	-12052
▁Ble	-12053
▁Bot	-12054
▁Bow	-12055
▁CPU	-12056
▁Cab	-12057
▁Cit	-12058
▁Cov	-12059
▁DSM	-12060
▁Did	-12061
▁Dol	-12062
▁FAT	-12063
▁FIF	-12064
▁HER	-12065
▁Hom	-12066
▁ICC	-12067
▁Ice	-12068
▁Jam	-12069
▁LSD	-12070
▁Lev	-12071
▁Los	-12072
▁MAC	-12073
▁MON	-12074
▁Mov	-12075
▁Nak	-12076
▁Nut	-12077
▁OUT	-12078
▁PIN	-12079
▁Ped	-12080
▁Pod	-12081
▁Ren	-12082
▁Tro	-12083
▁UFC	-12084
▁Var	-12085
▁[6]	-12086
▁bas	-12087
▁cin	-12088
▁dem	-12089
▁ele	-12090
▁ene	-12091
▁fal	-12092
▁fre	-12093
▁gne	-12094
▁gus	-12095
▁ich	-12096
▁inu	-12097
▁iro	-12098
▁ita	-12099
▁lea	-12100
▁ode	-12101
▁pur	-12102
▁ras	-12103
▁tia	-12104
▁top	-12105
▁tre	-12106
▁uro	-12107
▁van	-12108
▁באב	-12109
▁בוח	-12110
▁בוץ	-12111
▁בזק	-12112
▁בסד	-12113
▁בעט	-12114
▁בפח	-12115
▁גאי	-12116
▁גרפ	-12117
▁גשי	-12118
▁הכת	-12119
▁הרץ	-12120
▁וחה	-12121
▁ימש	-12122
▁ירש	-12123
▁כפל	-12124
▁מרס	-12125
▁נשב	-12126
▁נשל	-12127
▁נשר	-12128
▁נתו	-12129
▁סרן	-12130
▁עַם	-12131
▁פקח	-12132
▁רקס	-12133
▁ררת	-12134
▁שכם	-12135
▁תזה	-12136
▁״לא	-12137
▁....	-12138
▁Admi	-12139
▁Apps	-12140
▁Bear	-12141
▁Beli	-12142
▁Bord	-12143
▁Born	-12144
▁Boys	-12145
▁Carl	-12146
▁Chap	-12147
▁Chro	-12148
▁Dest	-12149
▁Emer	-12150
▁Help	-12151
▁Holo	-12152
▁Holy	-12153
▁Hour	-12154
▁Lead	-12155
▁Lite	-12156
▁Main	-12157
▁Matt	-12158
▁NEWS	-12159
▁Nord	-12160
▁Pott	-12161
▁Save	-12162
▁Scal	-12163
▁Snap	-12164
▁Synd	-12165
▁Theo	-12166
▁Trek	-12167
▁Turn	-12168
▁Type	-12169
▁Wait	-12170
▁Were	-12171
▁Wide	-12172
▁Wolf	-12173
▁bell	-12174
▁bird	-12175
▁blet	-12176
▁blue	-12177
▁data	-12178
▁etch	-12179
▁ines	-12180
▁info	-12181
▁keep	-12182
▁live	-12183
▁mart	-12184
▁meth	-12185
▁mono	-12186
▁offi	-12187
▁poly	-12188
▁posi	-12189
▁rick	-12190
▁rike	-12191
▁wall	-12192
▁ween	-12193
▁writ	-12194
▁אלקט	-12195
▁והבת	-12196
▁וכחו	-12197
▁ומטר	-12198
▁וננו	-12199
▁וסיה	-12200
▁ייבת	-12201
▁להיר	-12202
▁מויו	-12203
▁נויי	-12204
▁סדות	-12205
▁סיעה	-12206
▁עושי	-12207
▁עיונ	-12208
▁קבלי	-12209
▁Brook	-12210
▁Chart	-12211
▁Clark	-12212
▁Early	-12213
▁Harri	-12214
▁Hospi	-12215
▁Monst	-12216
▁Neuro	-12217
▁Polar	-12218
▁Quick	-12219
▁Small	-12220
▁Still	-12221
▁Third	-12222
▁Trust	-12223
▁bound	-12224
▁child	-12225
▁dence	-12226
▁front	-12227
▁stand	-12228
▁הולכי	-12229
▁יפורי	-12230
▁תונאי	-12231
13	-12232
3,	-12233
4.	-12234
GE	-12235
GS	-12236
HL	-12237
MD	-12238
YP	-12239
hu	-12240
ik	-12241
lu	-12242
ִן	-12243
▁−	-12244
ACK	-12245
anc	-12246
arm	-12247
igg	-12248
rug	-12249
usa	-12250
▁2?	-12251
▁6)	-12252
▁::	-12253
▁<<	-12254
▁CZ	-12255
▁Eb	-12256
▁GE	-12257
▁GN	-12258
▁HE	-12259
▁HI	-12260
▁HU	-12261
▁KP	-12262
▁MR	-12263
▁MX	-12264
▁SF	-12265
▁TB	-12266
▁Ty	-12267
▁UR	-12268
▁av	-12269
▁ay	-12270
▁gs	-12271
▁je	-12272
▁kg	-12273
reek	-12274
▁(27	-12275
▁-17	-12276
▁-19	-12277
▁0.5	-12278
▁1.6	-12279
▁11:	-12280
▁131	-12281
▁132	-12282
▁2).	-12283
▁24%	-12284
▁242	-12285
▁26%	-12286
▁32.	-12287
▁33%	-12288
▁34%	-12289
▁35.	-12290
▁52%	-12291
▁6-8	-12292
▁6.1	-12293
▁750	-12294
▁97%	-12295
▁ANS	-12296
▁Add	-12297
▁Amb	-12298
▁Asp	-12299
▁Ath	-12300
▁CER	-12301
▁Dam	-12302
▁Dar	-12303
▁Det	-12304
▁Dub	-12305
▁EST	-12306
▁Emb	-12307
▁Equ	-12308
▁Era	-12309
▁FAA	-12310
▁Fla	-12311
▁GRE	-12312
▁Gun	-12313
▁HDL	-12314
▁HGH	-12315
▁Imm	-12316
▁Jud	-12317
▁Kle	-12318
▁LAS	-12319
▁Lis	-12320
▁Loc	-12321
▁Lun	-12322
▁Mas	-12323
▁NHS	-12324
▁Nov	-12325
▁Opp	-12326
▁Pok	-12327
▁Rub	-12328
▁SIT	-12329
▁Sab	-12330
▁Sla	-12331
▁Tak	-12332
▁Twi	-12333
▁Use	-12334
▁Wii	-12335
▁Yes	-12336
▁[9]	-12337
▁___	-12338
▁ali	-12339
▁ara	-12340
▁bor	-12341
▁cit	-12342
▁ear	-12343
▁elf	-12344
▁eno	-12345
▁eve	-12346
▁fac	-12347
▁gna	-12348
▁got	-12349
▁hal	-12350
▁ism	-12351
▁len	-12352
▁mor	-12353
▁ned	-12354
▁ome	-12355
▁ott	-12356
▁ped	-12357
▁ran	-12358
▁rov	-12359
▁sal	-12360
▁soc	-12361
▁sus	-12362
▁tam	-12363
▁tas	-12364
▁ten	-12365
▁tur	-12366
▁אֵת	-12367
▁אחז	-12368
▁בגו	-12369
▁בוז	-12370
▁במת	-12371
▁בסל	-12372
▁געי	-12373
▁דמם	-12374
▁דפק	-12375
▁דתו	-12376
▁הקן	-12377
▁וכת	-12378
▁זוב	-12379
▁זיי	-12380
▁חוה	-12381
▁טדי	-12382
▁יאי	-12383
▁יעז	-12384
▁כאו	-12385
▁כוו	-12386
▁לִי	-12387
▁לוֹ	-12388
▁למן	-12389
▁לסן	-12390
▁מִן	-12391
▁מעמ	-12392
▁נאם	-12393
▁נמס	-12394
▁נשף	-12395
▁סגו	-12396
▁סוח	-12397
▁סטן	-12398
▁עכו	-12399
▁פגז	-12400
▁פנס	-12401
▁קצף	-12402
▁ראס	-12403
▁רדף	-12404
▁רעד	-12405
▁שכה	-12406
▁שלש	-12407
▁תוו	-12408
▁תחש	-12409
▁תכף	-12410
▁תמר	-12411
▁תרד	-12412
▁Anne	-12413
▁Aqua	-12414
▁Area	-12415
▁Arti	-12416
▁Bett	-12417
▁Bour	-12418
▁Brex	-12419
▁Bull	-12420
▁Came	-12421
▁Cart	-12422
▁Chip	-12423
▁Choi	-12424
▁Corn	-12425
▁Coup	-12426
▁Dani	-12427
▁Divi	-12428
▁EMEA	-12429
▁Esta	-12430
▁FIFA	-12431
▁Give	-12432
▁Infi	-12433
▁Into	-12434
▁Jean	-12435
▁Mean	-12436
▁Monk	-12437
▁PTSD	-12438
▁Paci	-12439
▁Past	-12440
▁Poly	-12441
▁Rank	-12442
▁Risk	-12443
▁Shop	-12444
▁Sist	-12445
▁Spid	-12446
▁Spir	-12447
▁Stay	-12448
▁Tick	-12449
▁bles	-12450
▁cell	-12451
▁ders	-12452
▁dium	-12453
▁hard	-12454
▁pool	-12455
▁reen	-12456
▁resp	-12457
▁stin	-12458
▁swer	-12459
▁take	-12460
▁want	-12461
▁wave	-12462
▁אטרו	-12463
▁אלוה	-12464
▁בוסס	-12465
▁בותי	-12466
▁ביונ	-12467
▁דולי	-12468
▁המשי	-12469
▁התחר	-12470
▁ובעי	-12471
▁וזיא	-12472
▁יועד	-12473
▁לונד	-12474
▁מנטי	-12475
▁מערכ	-12476
▁משות	-12477
▁ניגו	-12478
▁עומת	-12479
▁רושל	-12480
▁שואי	-12481
▁שפעה	-12482
▁תקדמ	-12483
▁Crowd	-12484
▁Eagle	-12485
▁Forum	-12486
▁Garci	-12487
▁Hello	-12488
▁Horse	-12489
▁Metal	-12490
▁Nutri	-12491
▁Scott	-12492
▁Sleep	-12493
▁Testo	-12494
▁Trail	-12495
▁Vegas	-12496
▁berry	-12497
▁gress	-12498
▁hotel	-12499
▁human	-12500
▁place	-12501
▁shutt	-12502
▁state	-12503
▁story	-12504
▁track	-12505
▁watch	-12506
▁אליים	-12507
▁ווחים	-12508
▁וטנצי	-12509
▁תקדמו	-12510
40	-12511
60	-12512
KA	-12513
KE	-12514
MC	-12515
RP	-12516
VE	-12517
WP	-12518
We	-12519
XX	-12520
jo	-12521
ml	-12522
oS	-12523
ָם	-12524
ףף	-12525
״ר	-12526
▁ֿ	-12527
▁‹	-12528
ALL	-12529
ARC	-12530
ARE	-12531
EAD	-12532
ape	-12533
vis	-12534
דינ	-12535
▁(0	-12536
▁->	-12537
▁."	-12538
▁0,	-12539
▁2"	-12540
▁3"	-12541
▁==	-12542
▁AQ	-12543
▁BV	-12544
▁BY	-12545
▁Cu	-12546
▁EY	-12547
▁Eg	-12548
▁FD	-12549
▁FF	-12550
▁GC	-12551
▁JA	-12552
▁JF	-12553
▁KB	-12554
▁Ku	-12555
▁Om	-12556
▁RY	-12557
▁TA	-12558
▁VM	-12559
▁ao	-12560
▁dr	-12561
▁ix	-12562
▁oa	-12563
▁oc	-12564
▁אַ	-12565
▁אא	-12566
▁טז	-12567
▁פם	-12568
▁פפ	-12569
ness	-12570
ouri	-12571
▁(9)	-12572
▁-12	-12573
▁1/2	-12574
▁106	-12575
▁11%	-12576
▁135	-12577
▁136	-12578
▁2.7	-12579
▁2.8	-12580
▁240	-12581
▁25.	-12582
▁270	-12583
▁3.4	-12584
▁32%	-12585
▁330	-12586
▁37%	-12587
▁401	-12588
▁41%	-12589
▁44%	-12590
▁46%	-12591
▁47%	-12592
▁58%	-12593
▁61%	-12594
▁64%	-12595
▁77%	-12596
▁88%	-12597
▁ALL	-12598
▁Ave	-12599
▁BRC	-12600
▁Bib	-12601
▁Bli	-12602
▁But	-12603
▁CAD	-12604
▁Cav	-12605
▁Cin	-12606
▁Dys	-12607
▁Git	-12608
▁Has	-12609
▁IAT	-12610
▁IGF	-12611
▁IRS	-12612
▁Jac	-12613
▁Jet	-12614
▁Joe	-12615
▁KLM	-12616
▁LIN	-12617
▁Lie	-12618
▁Luc	-12619
▁Lux	-12620
▁MAT	-12621
▁Map	-12622
▁NTD	-12623
▁Nap	-12624
▁Oly	-12625
▁PET	-12626
▁POP	-12627
▁PPC	-12628
▁PVC	-12629
▁Pad	-12630
▁Pil	-12631
▁SPD	-12632
▁Tor	-12633
▁Vie	-12634
▁WIN	-12635
▁XML	-12636
▁aft	-12637
▁any	-12638
▁ass	-12639
▁bea	-12640
▁bei	-12641
▁bes	-12642
▁bic	-12643
▁bin	-12644
▁boy	-12645
▁buy	-12646
▁cel	-12647
▁cio	-12648
▁deo	-12649
▁dri	-12650
▁dro	-12651
▁ech	-12652
▁fig	-12653
▁flo	-12654
▁ill	-12655
▁inv	-12656
▁lay	-12657
▁lio	-12658
▁lip	-12659
▁mak	-12660
▁mun	-12661
▁nev	-12662
▁nie	-12663
▁nis	-12664
▁oid	-12665
▁ost	-12666
▁pay	-12667
▁pec	-12668
▁peo	-12669
▁pia	-12670
▁pol	-12671
▁pow	-12672
▁ram	-12673
▁rat	-12674
▁rel	-12675
▁rra	-12676
▁rry	-12677
▁sma	-12678
▁tea	-12679
▁tiz	-12680
▁tum	-12681
▁vol	-12682
▁בתת	-12683
▁גבם	-12684
▁דרק	-12685
▁החן	-12686
▁הטו	-12687
▁הקץ	-12688
▁יכן	-12689
▁כאש	-12690
▁כסו	-12691
▁לסף	-12692
▁לתנ	-12693
▁מגד	-12694
▁מסן	-12695
▁נכח	-12696
▁נתנ	-12697
▁סדק	-12698
▁עטו	-12699
▁פין	-12700
▁פנג	-12701
▁צדו	-12702
▁צלף	-12703
▁תהל	-12704
▁תשב	-12705
▁Affa	-12706
▁Anth	-12707
▁Arth	-12708
▁Assi	-12709
▁Atta	-12710
▁Aver	-12711
▁Bath	-12712
▁Brok	-12713
▁COMP	-12714
▁Comb	-12715
▁Come	-12716
▁Crui	-12717
▁Cust	-12718
▁Date	-12719
▁Dawn	-12720
▁Duck	-12721
▁ESPN	-12722
▁Emba	-12723
▁Fail	-12724
▁Farm	-12725
▁Fast	-12726
▁Fath	-12727
▁Fore	-12728
▁Gone	-12729
▁Gran	-12730
▁Half	-12731
▁Holi	-12732
▁IGHT	-12733
▁Less	-12734
▁Lion	-12735
▁Moth	-12736
▁Redi	-12737
▁Reli	-12738
▁Rema	-12739
▁Rest	-12740
▁SSRI	-12741
▁Sant	-12742
▁Warr	-12743
▁band	-12744
▁beth	-12745
▁card	-12746
▁cert	-12747
▁feat	-12748
▁fire	-12749
▁food	-12750
▁hall	-12751
▁high	-12752
▁hood	-12753
▁host	-12754
▁hypo	-12755
▁mail	-12756
▁make	-12757
▁mond	-12758
▁pass	-12759
▁pert	-12760
▁plan	-12761
▁ract	-12762
▁rich	-12763
▁tube	-12764
▁vert	-12765
▁when	-12766
▁year	-12767
▁ביבו	-12768
▁ביטו	-12769
▁דהימ	-12770
▁הדרו	-12771
▁הופי	-12772
▁הזמן	-12773
▁הסימ	-12774
▁וגיי	-12775
▁וגרי	-12776
▁ווני	-12777
▁וקות	-12778
▁חרון	-12779
▁יובי	-12780
▁יחסו	-12781
▁ילוב	-12782
▁כיוו	-12783
▁מורש	-12784
▁מעני	-12785
▁מפור	-12786
▁סטור	-12787
▁צבים	-12788
▁קיצו	-12789
▁קציב	-12790
▁שהופ	-12791
▁תחומ	-12792
▁תעופ	-12793
▁תרבו	-12794
▁Briti	-12795
▁Disea	-12796
▁Holly	-12797
▁JCPOA	-12798
▁Louis	-12799
▁March	-12800
▁Premi	-12801
▁Shift	-12802
▁Speed	-12803
▁Swift	-12804
▁Track	-12805
▁Veriz	-12806
▁Witch	-12807
▁build	-12808
▁ensis	-12809
▁heart	-12810
▁hydro	-12811
▁multi	-12812
▁ההחלט	-12813
▁המדינ	-12814
▁העולם	-12815
▁הפנימ	-12816
▁ושלים	-12817
▁כיבים	-12818
1,	-12819
3.	-12820
BL	-12821
EE	-12822
No	-12823
SP	-12824
hr	-12825
rl	-12826
so	-12827
yd	-12828
ֵם	-12829
קל	-12830
ال	-12831
▁í	-12832
▁م	-12833
▁👈	-12834
ARK	-12835
OST	-12836
eto	-12837
gin	-12838
olk	-12839
osh	-12840
ulu	-12841
▁3?	-12842
▁Au	-12843
▁BD	-12844
▁BG	-12845
▁DT	-12846
▁EQ	-12847
▁FE	-12848
▁GI	-12849
▁Ib	-12850
▁Im	-12851
▁Ky	-12852
▁NV	-12853
▁NZ	-12854
▁Ot	-12855
▁PU	-12856
▁RX	-12857
▁SR	-12858
▁UA	-12859
▁WD	-12860
▁XD	-12861
▁Za	-12862
▁aw	-12863
▁cr	-12864
▁ee	-12865
▁ew	-12866
▁lu	-12867
▁tv	-12868
▁»»	-12869
▁–"	-12870
isco	-12871
▁(15	-12872
▁(19	-12873
▁(6)	-12874
▁-13	-12875
▁-80	-12876
▁-90	-12877
▁102	-12878
▁118	-12879
▁126	-12880
▁141	-12881
▁2-4	-12882
▁23,	-12883
▁230	-12884
▁26,	-12885
▁28,	-12886
▁34,	-12887
▁39%	-12888
▁4-6	-12889
▁43%	-12890
▁430	-12891
▁45.	-12892
▁48%	-12893
▁6).	-12894
▁66%	-12895
▁68%	-12896
▁7).	-12897
▁7.1	-12898
▁8.5	-12899
▁86%	-12900
▁98%	-12901
▁AAA	-12902
▁AMP	-12903
▁ATP	-12904
▁Bou	-12905
▁CIP	-12906
▁CPS	-12907
▁CSI	-12908
▁Cop	-12909
▁DHA	-12910
▁Doc	-12911
▁Dun	-12912
▁EMS	-12913
▁END	-12914
▁ERS	-12915
▁FOR	-12916
▁Fit	-12917
▁Fur	-12918
▁Guy	-12919
▁HMD	-12920
▁Hou	-12921
▁IAC	-12922
▁ICS	-12923
▁IMF	-12924
▁INE	-12925
▁Jap	-12926
▁Jim	-12927
▁Lim	-12928
▁Lit	-12929
▁Mot	-12930
▁Nav	-12931
▁Oli	-12932
▁Ome	-12933
▁Pop	-12934
▁Ron	-12935
▁Row	-12936
▁Rum	-12937
▁Spy	-12938
▁Swa	-12939
▁TES	-12940
▁TNT	-12941
▁Tex	-12942
▁Thi	-12943
▁Tok	-12944
▁Tru	-12945
▁UBS	-12946
▁Vib	-12947
▁Wel	-12948
▁XVI	-12949
▁adv	-12950
▁aid	-12951
▁ast	-12952
▁bia	-12953
▁bis	-12954
▁bli	-12955
▁dic	-12956
▁die	-12957
▁dol	-12958
▁edu	-12959
▁elm	-12960
▁eng	-12961
▁eye	-12962
▁fut	-12963
▁ged	-12964
▁iva	-12965
▁ken	-12966
▁mel	-12967
▁mes	-12968
▁mia	-12969
▁mou	-12970
▁nca	-12971
▁nni	-12972
▁nor	-12973
▁nza	-12974
▁ore	-12975
▁osi	-12976
▁pub	-12977
▁rac	-12978
▁rem	-12979
▁row	-12980
▁sia	-12981
▁sio	-12982
▁sol	-12983
▁ssy	-12984
▁tio	-12985
▁tom	-12986
▁tus	-12987
▁two	-12988
▁ubl	-12989
▁who	-12990
▁xxx	-12991
▁אדל	-12992
▁אדן	-12993
▁אזל	-12994
▁איה	-12995
▁אמב	-12996
▁אנש	-12997
▁ביץ	-12998
▁בכח	-12999
▁גבס	-13000
▁דבי	-13001
▁דוע	-13002
▁דקל	-13003
▁ד״ר	-13004
▁האן	-13005
▁הוט	-13006
▁הכף	-13007
▁הלח	-13008
▁השט	-13009
▁השש	-13010
▁וגמ	-13011
▁ודן	-13012
▁ווש	-13013
▁ועכ	-13014
▁ושו	-13015
▁זנב	-13016
▁זרז	-13017
▁חיץ	-13018
▁חרש	-13019
▁כונ	-13020
▁לכף	-13021
▁לסר	-13022
▁לקץ	-13023
▁מאב	-13024
▁מגש	-13025
▁מצר	-13026
▁נאש	-13027
▁נמר	-13028
▁סכר	-13029
▁עִם	-13030
▁עבי	-13031
▁פגי	-13032
▁פרך	-13033
▁פרל	-13034
▁צוו	-13035
▁צצו	-13036
▁קון	-13037
▁קנת	-13038
▁רקד	-13039
▁ששר	-13040
▁תבת	-13041
▁תהו	-13042
▁תמצ	-13043
▁תנג	-13044
▁תשא	-13045
▁"...	-13046
▁ASUS	-13047
▁BRCA	-13048
▁Beau	-13049
▁Bing	-13050
▁Body	-13051
▁Bone	-13052
▁Bott	-13053
▁Burn	-13054
▁COPD	-13055
▁Crit	-13056
▁DDoS	-13057
▁Dome	-13058
▁Doom	-13059
▁Fell	-13060
▁Foll	-13061
▁Grou	-13062
▁HDMI	-13063
▁Harm	-13064
▁Hono	-13065
▁Inno	-13066
▁Isle	-13067
▁JPEG	-13068
▁Jane	-13069
▁Kell	-13070
▁Left	-13071
▁Logi	-13072
▁Mand	-13073
▁Mate	-13074
▁Math	-13075
▁Meth	-13076
▁Mile	-13077
▁Most	-13078
▁Octo	-13079
▁Opti	-13080
▁Pill	-13081
▁Pref	-13082
▁Ring	-13083
▁Rise	-13084
▁Safa	-13085
▁Sold	-13086
▁Tail	-13087
▁Thou	-13088
▁Tomo	-13089
▁Trou	-13090
▁Walt	-13091
▁Wave	-13092
▁cocc	-13093
▁coll	-13094
▁cryp	-13095
▁enti	-13096
▁etta	-13097
▁fare	-13098
▁fast	-13099
▁file	-13100
▁girl	-13101
▁hand	-13102
▁heal	-13103
▁html	-13104
▁idad	-13105
▁last	-13106
▁list	-13107
▁main	-13108
▁meta	-13109
▁mind	-13110
▁mous	-13111
▁must	-13112
▁poli	-13113
▁quer	-13114
▁rain	-13115
▁rics	-13116
▁side	-13117
▁sque	-13118
▁ston	-13119
▁supp	-13120
▁tein	-13121
▁tell	-13122
▁tric	-13123
▁unch	-13124
▁vern	-13125
▁weav	-13126
▁zole	-13127
▁בעבו	-13128
▁בשנו	-13129
▁הפגי	-13130
▁חלתי	-13131
▁כונו	-13132
▁לונו	-13133
▁לוסו	-13134
▁לעתי	-13135
▁לקנו	-13136
▁סגרת	-13137
▁ספות	-13138
▁קניי	-13139
▁שיטו	-13140
▁שילו	-13141
▁תערו	-13142
▁Beast	-13143
▁Bench	-13144
▁Clean	-13145
▁Coach	-13146
▁Compl	-13147
▁Devil	-13148
▁Graph	-13149
▁Klein	-13150
▁Massa	-13151
▁Plain	-13152
▁Plant	-13153
▁Prize	-13154
▁Sheer	-13155
▁Shore	-13156
▁Theft	-13157
▁Thund	-13158
▁Titan	-13159
▁Treat	-13160
▁email	-13161
▁first	-13162
▁found	-13163
▁media	-13164
▁money	-13165
▁nsion	-13166
▁presc	-13167
▁quest	-13168
▁stine	-13169
▁thing	-13170
▁התרופ	-13171
▁לוגיי	-13172
▁לוויז	-13173
▁מיליא	-13174
▁קציות	-13175
'"	-13176
2.	-13177
Do	-13178
EW	-13179
HH	-13180
LA	-13181
LC	-13182
OU	-13183
RG	-13184
VO	-13185
YS	-13186
ju	-13187
ms	-13188
yn	-13189
גו	-13190
חג	-13191
▁َ	-13192
▁‡	-13193
IFE	-13194
ISA	-13195
eah	-13196
eca	-13197
gal	-13198
gic	-13199
ido	-13200
ina	-13201
omp	-13202
ris	-13203
ulf	-13204
▁"2	-13205
▁()	-13206
▁*-	-13207
▁-.	-13208
▁02	-13209
▁2/	-13210
▁7?	-13211
▁BN	-13212
▁CG	-13213
▁CU	-13214
▁Ct	-13215
▁IX	-13216
▁Iv	-13217
▁LY	-13218
▁Mp	-13219
▁Ol	-13220
▁QR	-13221
▁RD	-13222
▁RV	-13223
▁Rd	-13224
▁SB	-13225
▁SG	-13226
▁TC	-13227
▁TG	-13228
▁Ts	-13229
▁WT	-13230
▁cc	-13231
▁cu	-13232
▁dB	-13233
▁fy	-13234
▁ku	-13235
▁rh	-13236
▁sb	-13237
▁ui	-13238
▁′′	-13239
ours	-13240
▁(-:	-13241
▁(24	-13242
▁107	-13243
▁117	-13244
▁145	-13245
▁15:	-13246
▁175	-13247
▁19:	-13248
▁28.	-13249
▁29,	-13250
▁356	-13251
▁36%	-13252
▁36,	-13253
▁37,	-13254
▁4.0	-13255
▁4.6	-13256
▁42%	-13257
▁460	-13258
▁480	-13259
▁5-6	-13260
▁54%	-13261
▁550	-13262
▁63%	-13263
▁7.2	-13264
▁80.	-13265
▁87%	-13266
▁92%	-13267
▁93%	-13268
▁ABS	-13269
▁ARM	-13270
▁ASD	-13271
▁ASS	-13272
▁Arb	-13273
▁Ash	-13274
▁BTC	-13275
▁CAR	-13276
▁CES	-13277
▁CHA	-13278
▁CZK	-13279
▁Cow	-13280
▁Cut	-13281
▁DIY	-13282
▁DRM	-13283
▁EEG	-13284
▁ENT	-13285
▁Eat	-13286
▁Eco	-13287
▁FCC	-13288
▁FOX	-13289
▁FTP	-13290
▁Fab	-13291
▁Fam	-13292
▁Fat	-13293
▁GER	-13294
▁GPU	-13295
▁Gam	-13296
▁HOT	-13297
▁ICE	-13298
▁IDE	-13299
▁INS	-13300
▁INT	-13301
▁ISH	-13302
▁JFK	-13303
▁Jav	-13304
▁Jen	-13305
▁Jes	-13306
▁Joy	-13307
▁Jul	-13308
▁LEG	-13309
▁Lay	-13310
▁Leu	-13311
▁Lex	-13312
▁Lot	-13313
▁MSC	-13314
▁MUS	-13315
▁NFC	-13316
▁NGO	-13317
▁Nac	-13318
▁Nam	-13319
▁OMG	-13320
▁PBS	-13321
▁PEP	-13322
▁PER	-13323
▁PMI	-13324
▁PRE	-13325
▁Pic	-13326
▁Pin	-13327
▁Piv	-13328
▁Qua	-13329
▁REM	-13330
▁Rey	-13331
▁SES	-13332
▁SOL	-13333
▁Sli	-13334
▁Slo	-13335
▁Sus	-13336
▁UVB	-13337
▁Upp	-13338
▁VER	-13339
▁Vac	-13340
▁WAT	-13341
▁WOR	-13342
▁WPA	-13343
▁Wed	-13344
▁Wei	-13345
▁Wix	-13346
▁Wiz	-13347
▁YPO	-13348
▁add	-13349
▁alo	-13350
▁alt	-13351
▁ari	-13352
▁cas	-13353
▁cco	-13354
▁cta	-13355
▁eal	-13356
▁eau	-13357
▁eur	-13358
▁evi	-13359
▁exa	-13360
▁fam	-13361
▁fed	-13362
▁fly	-13363
▁gno	-13364
▁gov	-13365
▁hip	-13366
▁iol	-13367
▁ivi	-13368
▁kov	-13369
▁las	-13370
▁log	-13371
▁mis	-13372
▁nat	-13373
▁nja	-13374
▁nna	-13375
▁occ	-13376
▁pat	-13377
▁pse	-13378
▁rgi	-13379
▁sin	-13380
▁spi	-13381
▁sun	-13382
▁tol	-13383
▁tos	-13384
▁var	-13385
▁zzo	-13386
▁אבץ	-13387
▁אוֹ	-13388
▁אקט	-13389
▁אקס	-13390
▁ארל	-13391
▁אשב	-13392
▁באג	-13393
▁בהמ	-13394
▁בשד	-13395
▁גתה	-13396
▁דהי	-13397
▁דזה	-13398
▁הגד	-13399
▁החץ	-13400
▁הכן	-13401
▁וחג	-13402
▁ורץ	-13403
▁זאק	-13404
▁זוו	-13405
▁חבו	-13406
▁חגג	-13407
▁חחח	-13408
▁טגו	-13409
▁טית	-13410
▁טפט	-13411
▁יטמ	-13412
▁כיי	-13413
▁כפו	-13414
▁כרם	-13415
▁לוד	-13416
▁לכד	-13417
▁לעג	-13418
▁לרו	-13419
▁לתח	-13420
▁מכף	-13421
▁מסב	-13422
▁מצג	-13423
▁מרן	-13424
▁נרא	-13425
▁עַד	-13426
▁עפו	-13427
▁עקף	-13428
▁פאב	-13429
▁צאן	-13430
▁קוף	-13431
▁קלר	-13432
▁קמע	-13433
▁רגב	-13434
▁שפל	-13435
▁שרץ	-13436
▁ששב	-13437
▁תבל	-13438
▁תנח	-13439
▁Adam	-13440
▁Appl	-13441
▁BIOS	-13442
▁Berg	-13443
▁Beta	-13444
▁Butt	-13445
▁CNBC	-13446
▁Cari	-13447
▁Case	-13448
▁Cath	-13449
▁Cred	-13450
▁Dirt	-13451
▁Disc	-13452
▁Emil	-13453
▁Empi	-13454
▁Epic	-13455
▁Equi	-13456
▁Esca	-13457
▁Even	-13458
▁Fear	-13459
▁Feed	-13460
▁Foot	-13461
▁Gaga	-13462
▁Hair	-13463
▁Heri	-13464
▁IPPF	-13465
▁Illu	-13466
▁Info	-13467
▁Inva	-13468
▁Jazz	-13469
▁Jeff	-13470
▁LIFE	-13471
▁Luck	-13472
▁Mask	-13473
▁Mult	-13474
▁Murd	-13475
▁Musk	-13476
▁NASA	-13477
▁PrEP	-13478
▁Reco	-13479
▁Risi	-13480
▁Scan	-13481
▁Seed	-13482
▁Sett	-13483
▁Solo	-13484
▁Term	-13485
▁Thro	-13486
▁Trad	-13487
▁Volu	-13488
▁bact	-13489
▁blem	-13490
▁care	-13491
▁cola	-13492
▁coli	-13493
▁cust	-13494
▁dise	-13495
▁engi	-13496
▁even	-13497
▁ffer	-13498
▁film	-13499
▁gers	-13500
▁hang	-13501
▁heim	-13502
▁hill	-13503
▁hore	-13504
▁inum	-13505
▁irus	-13506
▁kill	-13507
▁lica	-13508
▁made	-13509
▁mour	-13510
▁need	-13511
▁ntic	-13512
▁peer	-13513
▁phen	-13514
▁rgin	-13515
▁roma	-13516
▁says	-13517
▁stan	-13518
▁stop	-13519
▁trip	-13520
▁wich	-13521
▁בכוח	-13522
▁הודע	-13523
▁היחס	-13524
▁וללי	-13525
▁וניב	-13526
▁יראן	-13527
▁לווד	-13528
▁מאור	-13529
▁מיקו	-13530
▁מנסי	-13531
▁נחנו	-13532
▁נטרס	-13533
▁סיות	-13534
▁ספצי	-13535
▁עתים	-13536
▁קפות	-13537
▁רוחו	-13538
▁רפתי	-13539
▁תרים	-13540
▁Birth	-13541
▁Bloom	-13542
▁Board	-13543
▁Bruce	-13544
▁Cisco	-13545
▁Clima	-13546
▁Comes	-13547
▁Const	-13548
▁Danci	-13549
▁Field	-13550
▁Files	-13551
▁Floor	-13552
▁Forei	-13553
▁Henry	-13554
▁Match	-13555
▁Presi	-13556
▁Round	-13557
▁Stars	-13558
▁Storm	-13559
▁Teach	-13560
▁Truth	-13561
▁black	-13562
▁break	-13563
▁check	-13564
▁compa	-13565
▁cript	-13566
▁elect	-13567
▁fford	-13568
▁forma	-13569
▁great	-13570
▁mouth	-13571
▁nical	-13572
▁priva	-13573
▁ribed	-13574
▁round	-13575
▁share	-13576
▁start	-13577
▁touch	-13578
▁התקשו	-13579
▁להתיי	-13580
.:	-13581
4,	-13582
?)	-13583
AA	-13584
El	-13585
FE	-13586
FO	-13587
HO	-13588
IE	-13589
On	-13590
RO	-13591
UI	-13592
fs	-13593
fu	-13594
גן	-13595
םם	-13596
עץ	-13597
▁¬	-13598
▁à	-13599
▁â	-13600
▁̄	-13601
▁λ	-13602
▁ֳ	-13603
▁►	-13604
ACS	-13605
ICE	-13606
IME	-13607
IVE	-13608
amm	-13609
ana	-13610
ary	-13611
rec	-13612
rou	-13613
tra	-13614
ttp	-13615
ulk	-13616
urt	-13617
use	-13618
▁+4	-13619
▁0%	-13620
▁09	-13621
▁1"	-13622
▁BU	-13623
▁CK	-13624
▁DV	-13625
▁EF	-13626
▁FU	-13627
▁GW	-13628
▁HN	-13629
▁IZ	-13630
▁JU	-13631
▁Kh	-13632
▁LB	-13633
▁MU	-13634
▁MW	-13635
▁Ms	-13636
▁NX	-13637
▁OV	-13638
▁PG	-13639
▁RB	-13640
▁TD	-13641
▁UX	-13642
▁WP	-13643
▁Wr	-13644
▁XL	-13645
▁XN	-13646
▁Yu	-13647
▁bb	-13648
▁cm	-13649
▁iH	-13650
▁ju	-13651
▁lb	-13652
▁oy	-13653
▁sn	-13654
▁xa	-13655
▁yi	-13656
▁zu	-13657
▁zz	-13658
▁ה־	-13659
▁ה׳	-13660
▁מ־	-13661
▁ال	-13662
▁₪,	-13663
▁₪.	-13664
essi	-13665
oose	-13666
ough	-13667
▁(14	-13668
▁(26	-13669
▁-24	-13670
▁0.8	-13671
▁113	-13672
▁129	-13673
▁134	-13674
▁137	-13675
▁176	-13676
▁18:	-13677
▁190	-13678
▁23.	-13679
▁26.	-13680
▁280	-13681
▁3.8	-13682
▁31.	-13683
▁325	-13684
▁36.	-13685
▁370	-13686
▁4).	-13687
▁4.4	-13688
▁45,	-13689
▁49%	-13690
▁5%.	-13691
▁5).	-13692
▁5-7	-13693
▁5.4	-13694
▁6.2	-13695
▁7-8	-13696
▁70,	-13697
▁74%	-13698
▁815	-13699
▁82%	-13700
▁84%	-13701
▁850	-13702
▁9).	-13703
▁ABA	-13704
▁ALS	-13705
▁ARC	-13706
▁ASP	-13707
▁ATM	-13708
▁Alp	-13709
▁Apa	-13710
▁Aqu	-13711
▁Ark	-13712
▁BUS	-13713
▁CHR	-13714
▁CLA	-13715
▁Dot	-13716
▁Dro	-13717
▁Est	-13718
▁Eva	-13719
▁FPS	-13720
▁FTC	-13721
▁Fig	-13722
▁Fon	-13723
▁GHz	-13724
▁GMP	-13725
▁Gem	-13726
▁Giv	-13727
▁Gle	-13728
▁HOM	-13729
▁Hyb	-13730
▁IDC	-13731
▁IES	-13732
▁IMA	-13733
▁IMC	-13734
▁IPS	-13735
▁Jay	-13736
▁Kim	-13737
▁Led	-13738
▁Lum	-13739
▁MAS	-13740
▁MLS	-13741
▁MUM	-13742
▁Mix	-13743
▁Nex	-13744
▁Noi	-13745
▁ORI	-13746
▁Opt	-13747
▁Oxy	-13748
▁PAS	-13749
▁Pas	-13750
▁Pew	-13751
▁Pie	-13752
▁RES	-13753
▁ROI	-13754
▁Ram	-13755
▁Rio	-13756
▁Rog	-13757
▁SAR	-13758
▁SEL	-13759
▁STS	-13760
▁Sco	-13761
▁Sei	-13762
▁TCP	-13763
▁Tes	-13764
▁Tib	-13765
▁Tun	-13766
▁USC	-13767
▁UTF	-13768
▁Unt	-13769
▁Vet	-13770
▁Was	-13771
▁YAG	-13772
▁YES	-13773
▁ala	-13774
▁ava	-13775
▁bri	-13776
▁cau	-13777
▁ces	-13778
▁chu	-13779
▁dal	-13780
▁dei	-13781
▁dev	-13782
▁dit	-13783
▁dot	-13784
▁enn	-13785
▁eut	-13786
▁eva	-13787
▁gie	-13788
▁gly	-13789
▁hav	-13790
▁how	-13791
▁ila	-13792
▁iod	-13793
▁job	-13794
▁lim	-13795
▁lly	-13796
▁lyn	-13797
▁mbo	-13798
▁mil	-13799
▁miz	-13800
▁ndo	-13801
▁oil	-13802
▁ono	-13803
▁pet	-13804
▁psy	-13805
▁rdo	-13806
▁rie	-13807
▁rix	-13808
▁rro	-13809
▁sac	-13810
▁sig	-13811
▁spa	-13812
▁toc	-13813
▁tto	-13814
▁wan	-13815
▁אלכ	-13816
▁ארס	-13817
▁בכר	-13818
▁בכת	-13819
▁בפס	-13820
▁גמל	-13821
▁דשן	-13822
▁הדס	-13823
▁זבת	-13824
▁זזה	-13825
▁זחל	-13826
▁חנן	-13827
▁חנת	-13828
▁חצץ	-13829
▁חרג	-13830
▁טבו	-13831
▁טעה	-13832
▁יעץ	-13833
▁לגב	-13834
▁לממ	-13835
▁לעל	-13836
▁מצה	-13837
▁נוה	-13838
▁נעץ	-13839
▁נעצ	-13840
▁נשם	-13841
▁עפה	-13842
▁פאט	-13843
▁פטל	-13844
▁פקס	-13845
▁צרח	-13846
▁קאן	-13847
▁קאפ	-13848
▁קהי	-13849
▁קיז	-13850
▁ראפ	-13851
▁רחם	-13852
▁שאן	-13853
▁שחז	-13854
▁שחם	-13855
▁שטן	-13856
▁שין	-13857
▁שפם	-13858
▁שרף	-13859
▁ששו	-13860
▁Affi	-13861
▁Afri	-13862
▁Alca	-13863
▁Amst	-13864
▁Arms	-13865
▁Army	-13866
▁Bang	-13867
▁Berl	-13868
▁Bern	-13869
▁Buff	-13870
▁CTRL	-13871
▁Coin	-13872
▁Comi	-13873
▁Crea	-13874
▁Croc	-13875
▁Ctrl	-13876
▁Dear	-13877
▁Deli	-13878
▁Does	-13879
▁Duke	-13880
▁Eyes	-13881
▁FORE	-13882
▁Filt	-13883
▁Fone	-13884
▁Fuji	-13885
▁Gamb	-13886
▁Gulf	-13887
▁Hamp	-13888
▁IFRS	-13889
▁ISIS	-13890
▁Juan	-13891
▁Kent	-13892
▁Lane	-13893
▁Lava	-13894
▁Lega	-13895
▁Marc	-13896
▁Memb	-13897
▁Mili	-13898
▁Morn	-13899
▁Nano	-13900
▁Pant	-13901
▁Papa	-13902
▁Phar	-13903
▁Prep	-13904
▁Pure	-13905
▁Rasp	-13906
▁Remo	-13907
▁Same	-13908
▁Scri	-13909
▁Sent	-13910
▁Stan	-13911
▁Text	-13912
▁Them	-13913
▁Thri	-13914
▁Util	-13915
▁Whis	-13916
▁Whit	-13917
▁Writ	-13918
▁Wynd	-13919
▁auth	-13920
▁bled	-13921
▁chlo	-13922
▁colo	-13923
▁door	-13924
▁ease	-13925
▁ecur	-13926
▁ffee	-13927
▁full	-13928
▁func	-13929
▁gain	-13930
▁game	-13931
▁lear	-13932
▁lies	-13933
▁mass	-13934
▁most	-13935
▁muno	-13936
▁ncet	-13937
▁pack	-13938
▁park	-13939
▁phos	-13940
▁reat	-13941
▁reco	-13942
▁redi	-13943
▁reme	-13944
▁rian	-13945
▁rida	-13946
▁rtal	-13947
▁said	-13948
▁shib	-13949
▁shot	-13950
▁spec	-13951
▁tail	-13952
▁than	-13953
▁vera	-13954
▁visi	-13955
▁west	-13956
▁wind	-13957
▁zion	-13958
▁בולו	-13959
▁המצו	-13960
▁וידא	-13961
▁וכלו	-13962
▁טנות	-13963
▁יקטי	-13964
▁ישוא	-13965
▁כחות	-13966
▁ליחי	-13967
▁לנקו	-13968
▁לפעו	-13969
▁מסגר	-13970
▁סודו	-13971
▁סקים	-13972
▁עניי	-13973
▁ריקא	-13974
▁תקשו	-13975
▁Berry	-13976
▁Breat	-13977
▁Cambo	-13978
▁Certi	-13979
▁Close	-13980
▁Conta	-13981
▁Front	-13982
▁Glass	-13983
▁Inqui	-13984
▁Maker	-13985
▁Manch	-13986
▁Model	-13987
▁Regen	-13988
▁Santa	-13989
▁Sharp	-13990
▁Terra	-13991
▁Thank	-13992
▁Thera	-13993
▁Trump	-13994
▁Volvo	-13995
▁dream	-13996
▁false	-13997
▁fault	-13998
▁flict	-13999
▁group	-14000
▁hyper	-14001
▁think	-14002
▁tness	-14003
▁בינתי	-14004
▁המוות	-14005
▁פליטי	-14006
11	-14007
16	-14008
EX	-14009
HC	-14010
IX	-14011
KS	-14012
LE	-14013
RN	-14014
ah	-14015
bA	-14016
wl	-14017
לס	-14018
מס	-14019
פן	-14020
קב	-14021
▁	-14022
▁ü	-14023
▁α	-14024
▁κ	-14025
▁μ	-14026
▁⬅	-14027
▁￼	-14028
ARP	-14029
ASE	-14030
ATE	-14031
ENT	-14032
ONE	-14033
TPS	-14034
alm	-14035
cal	-14036
che	-14037
ena	-14038
ges	-14039
idi	-14040
iny	-14041
ist	-14042
itu	-14043
nip	-14044
oku	-14045
ric	-14046
ura	-14047
usi	-14048
wan	-14049
▁08	-14050
▁1?	-14051
▁5"	-14052
▁:(	-14053
▁Ak	-14054
▁CX	-14055
▁DF	-14056
▁EI	-14057
▁Ei	-14058
▁FT	-14059
▁HH	-14060
▁IW	-14061
▁Ji	-14062
▁KO	-14063
▁Kr	-14064
▁LC	-14065
▁LM	-14066
▁LT	-14067
▁MK	-14068
▁NM	-14069
▁Ny	-14070
▁OH	-14071
▁OX	-14072
▁Oc	-14073
▁PF	-14074
▁PN	-14075
▁Pt	-14076
▁RR	-14077
▁Ry	-14078
▁UL	-14079
▁Uk	-14080
▁VC	-14081
▁WB	-14082
▁Wo	-14083
▁XS	-14084
▁Yi	-14085
▁Zu	-14086
▁ek	-14087
▁ik	-14088
▁kb	-14089
▁sr	-14090
▁ud	-14091
▁yn	-14092
▁yu	-14093
▁án	-14094
▁כט	-14095
▁“,	-14096
bean	-14097
utel	-14098
▁(11	-14099
▁(16	-14100
▁(17	-14101
▁(18	-14102
▁(28	-14103
▁(?)	-14104
▁-22	-14105
▁-27	-14106
▁0.1	-14107
▁1".	-14108
▁1).	-14109
▁1.0	-14110
▁10?	-14111
▁121	-14112
▁123	-14113
▁13:	-14114
▁165	-14115
▁166	-14116
▁16:	-14117
▁185	-14118
▁195	-14119
▁2/3	-14120
▁246	-14121
▁257	-14122
▁27.	-14123
▁3).	-14124
▁307	-14125
▁31%	-14126
▁310	-14127
▁38%	-14128
▁42.	-14129
▁425	-14130
▁51,	-14131
▁53%	-14132
▁59%	-14133
▁67%	-14134
▁7.3	-14135
▁78%	-14136
▁780	-14137
▁83%	-14138
▁9.5	-14139
▁91%	-14140
▁96%	-14141
▁:).	-14142
▁AAS	-14143
▁AMC	-14144
▁ANG	-14145
▁ANY	-14146
▁ARE	-14147
▁AUT	-14148
▁Adu	-14149
▁Afr	-14150
▁Aid	-14151
▁Ain	-14152
▁Aix	-14153
▁Amo	-14154
▁Amp	-14155
▁Ato	-14156
▁Bos	-14157
▁CBC	-14158
▁CFC	-14159
▁CNT	-14160
▁CON	-14161
▁COP	-14162
▁Cub	-14163
▁DEL	-14164
▁DIA	-14165
▁DRA	-14166
▁DSL	-14167
▁Deb	-14168
▁Dem	-14169
▁ESA	-14170
▁ESP	-14171
▁Egg	-14172
▁Ell	-14173
▁Emo	-14174
▁Ern	-14175
▁Fal	-14176
▁Fru	-14177
▁GNU	-14178
▁GSM	-14179
▁Gil	-14180
▁Hay	-14181
▁HbA	-14182
▁IEL	-14183
▁IFA	-14184
▁IHH	-14185
▁IVE	-14186
▁Ini	-14187
▁Jun	-14188
▁Kev	-14189
▁Kin	-14190
▁Kon	-14191
▁LAB	-14192
▁LIT	-14193
▁Les	-14194
▁Lew	-14195
▁Lil	-14196
▁MAD	-14197
▁MAG	-14198
▁MAP	-14199
▁MMS	-14200
▁MSc	-14201
▁Mob	-14202
▁Mor	-14203
▁Mrs	-14204
▁NCR	-14205
▁NVI	-14206
▁OCR	-14207
▁ORT	-14208
▁OTA	-14209
▁Ody	-14210
▁Oil	-14211
▁Ost	-14212
▁POL	-14213
▁Pak	-14214
▁Pul	-14215
▁Pun	-14216
▁Put	-14217
▁RIT	-14218
▁ROM	-14219
▁Raw	-14220
▁Rei	-14221
▁Rhe	-14222
▁SAT	-14223
▁SDK	-14224
▁SIP	-14225
▁SMA	-14226
▁STD	-14227
▁STM	-14228
▁SUM	-14229
▁Sav	-14230
▁Sca	-14231
▁Seb	-14232
▁Sir	-14233
▁Sna	-14234
▁Syr	-14235
▁TFT	-14236
▁TOP	-14237
▁TRI	-14238
▁Ted	-14239
▁Tog	-14240
▁UCD	-14241
▁UNC	-14242
▁URE	-14243
▁VBA	-14244
▁Vat	-14245
▁WAR	-14246
▁WEI	-14247
▁Wri	-14248
▁XXX	-14249
▁ago	-14250
▁ang	-14251
▁att	-14252
▁bab	-14253
▁bey	-14254
▁bla	-14255
▁bye	-14256
▁cos	-14257
▁det	-14258
▁did	-14259
▁eas	-14260
▁een	-14261
▁eme	-14262
▁emo	-14263
▁ery	-14264
▁ese	-14265
▁eta	-14266
▁ete	-14267
▁eti	-14268
▁fla	-14269
▁fle	-14270
▁flu	-14271
▁geo	-14272
▁gli	-14273
▁glo	-14274
▁gor	-14275
▁has	-14276
▁his	-14277
▁ick	-14278
▁ido	-14279
▁ieu	-14280
▁irs	-14281
▁ise	-14282
▁isi	-14283
▁ize	-14284
▁law	-14285
▁lda	-14286
▁lib	-14287
▁lis	-14288
▁map	-14289
▁mol	-14290
▁mot	-14291
▁nik	-14292
▁nol	-14293
▁nos	-14294
▁nse	-14295
▁nuc	-14296
▁nus	-14297
▁ole	-14298
▁par	-14299
▁pea	-14300
▁pio	-14301
▁pop	-14302
▁pot	-14303
▁rca	-14304
▁rei	-14305
▁ril	-14306
▁rob	-14307
▁roy	-14308
▁sed	-14309
▁smi	-14310
▁til	-14311
▁tox	-14312
▁tru	-14313
▁ugh	-14314
▁ulo	-14315
▁unt	-14316
▁vul	-14317
▁wri	-14318
▁אוח	-14319
▁אמך	-14320
▁אשף	-14321
▁בהפ	-14322
▁בזן	-14323
▁בלם	-14324
▁בסט	-14325
▁בפן	-14326
▁ברן	-14327
▁גאן	-14328
▁ואך	-14329
▁וסת	-14330
▁זום	-14331
▁כדת	-14332
▁כוש	-14333
▁כנף	-14334
▁כרט	-14335
▁לאכ	-14336
▁לגג	-14337
▁לקס	-14338
▁לשב	-14339
▁מאש	-14340
▁מזן	-14341
▁מעד	-14342
▁מעם	-14343
▁משב	-14344
▁נכד	-14345
▁נמכ	-14346
▁נסב	-14347
▁נרג	-14348
▁סלק	-14349
▁סער	-14350
▁ספל	-14351
▁עמן	-14352
▁ערש	-14353
▁עתק	-14354
▁פוע	-14355
▁צחו	-14356
▁צצה	-14357
▁קאל	-14358
▁קאש	-14359
▁קיט	-14360
▁רזא	-14361
▁ריף	-14362
▁שממ	-14363
▁שנש	-14364
▁שעו	-14365
▁שפך	-14366
▁שקם	-14367
▁תחמ	-14368
▁תיל	-14369
▁תקע	-14370
▁תתי	-14371
▁AACS	-14372
▁Asus	-14373
▁Augu	-14374
▁Aviv	-14375
▁Bahn	-14376
▁Bast	-14377
▁Bost	-14378
▁Boul	-14379
▁Cand	-14380
▁Cars	-14381
▁Cash	-14382
▁Chlo	-14383
▁Cind	-14384
▁Coop	-14385
▁Cres	-14386
▁Dave	-14387
▁Disa	-14388
▁Drug	-14389
▁Eliz	-14390
▁Exhi	-14391
▁Fash	-14392
▁Fift	-14393
▁Fine	-14394
▁Fred	-14395
▁Funk	-14396
▁GABA	-14397
▁Gast	-14398
▁Gram	-14399
▁Hawk	-14400
▁Heat	-14401
▁Hons	-14402
▁Inta	-14403
▁Invi	-14404
▁Jord	-14405
▁LIVE	-14406
▁Lean	-14407
▁Mais	-14408
▁Mala	-14409
▁Mall	-14410
▁Mend	-14411
▁Mode	-14412
▁NASD	-14413
▁Ohio	-14414
▁Omeg	-14415
▁Omni	-14416
▁Once	-14417
▁PLUS	-14418
▁Pare	-14419
▁Pink	-14420
▁Poke	-14421
▁Pony	-14422
▁Rein	-14423
▁Rimi	-14424
▁SaaS	-14425
▁Satu	-14426
▁Sava	-14427
▁Schi	-14428
▁Semi	-14429
▁Send	-14430
▁Sept	-14431
▁Siri	-14432
▁Slow	-14433
▁Swed	-14434
▁TIME	-14435
▁Tank	-14436
▁Turi	-14437
▁Twin	-14438
▁Unli	-14439
▁Very	-14440
▁Vita	-14441
▁WIRE	-14442
▁Wake	-14443
▁Wear	-14444
▁Wine	-14445
▁Xtra	-14446
▁Yell	-14447
▁bala	-14448
▁beta	-14449
▁bitc	-14450
▁burn	-14451
▁cart	-14452
▁case	-14453
▁chat	-14454
▁cial	-14455
▁cope	-14456
▁dale	-14457
▁days	-14458
▁dell	-14459
▁dian	-14460
▁egra	-14461
▁envi	-14462
▁fair	-14463
▁fall	-14464
▁fica	-14465
▁gion	-14466
▁glas	-14467
▁hist	-14468
▁icas	-14469
▁ides	-14470
▁ires	-14471
▁left	-14472
▁mako	-14473
▁mill	-14474
▁mont	-14475
▁mpic	-14476
▁ndal	-14477
▁nell	-14478
▁nese	-14479
▁nica	-14480
▁pare	-14481
▁phek	-14482
▁raft	-14483
▁rday	-14484
▁rees	-14485
▁rgia	-14486
▁ride	-14487
▁rise	-14488
▁rock	-14489
▁ssey	-14490
▁sson	-14491
▁stat	-14492
▁succ	-14493
▁talk	-14494
▁team	-14495
▁tors	-14496
▁traz	-14497
▁ured	-14498
▁urre	-14499
▁user	-14500
▁wart	-14501
▁wick	-14502
▁wiki	-14503
▁wing	-14504
▁wire	-14505
▁wolf	-14506
▁zone	-14507
▁אוקט	-14508
▁בינת	-14509
▁בעקב	-14510
▁הריו	-14511
▁וזרי	-14512
▁וסרי	-14513
▁ועני	-14514
▁וצלח	-14515
▁חילת	-14516
▁חירי	-14517
▁טניה	-14518
▁יישו	-14519
▁כלוס	-14520
▁לותי	-14521
▁לנות	-14522
▁מחוי	-14523
▁מפתי	-14524
▁משאי	-14525
▁נולו	-14526
▁ריטנ	-14527
▁רכבו	-14528
▁שכבר	-14529
▁Chain	-14530
▁Chamb	-14531
▁Chapt	-14532
▁Chick	-14533
▁Clear	-14534
▁Cours	-14535
▁Craft	-14536
▁Creek	-14537
▁Delta	-14538
▁Eutel	-14539
▁Fresh	-14540
▁HTTPS	-14541
▁Honor	-14542
▁Jerry	-14543
▁Kenne	-14544
▁Marri	-14545
▁Messa	-14546
▁Money	-14547
▁Prese	-14548
▁SHARE	-14549
▁Shine	-14550
▁Solid	-14551
▁Speak	-14552
▁Stati	-14553
▁Stora	-14554
▁Susta	-14555
▁Telec	-14556
▁Terri	-14557
▁Throu	-14558
▁Title	-14559
▁WATCH	-14560
▁bbean	-14561
▁brain	-14562
▁burgh	-14563
▁chaft	-14564
▁class	-14565
▁court	-14566
▁cross	-14567
▁every	-14568
▁famil	-14569
▁gious	-14570
▁gramm	-14571
▁lines	-14572
▁maker	-14573
▁rough	-14574
▁secur	-14575
▁small	-14576
▁titis	-14577
▁virus	-14578
▁white	-14579
▁would	-14580
▁הארגו	-14581
▁הקהיל	-14582
▁וגלים	-14583
▁ודיים	-14584
▁ינטרנ	-14585
''	-14586
-0	-14587
25	-14588
5,	-14589
75	-14590
BE	-14591
BG	-14592
DI	-14593
If	-14594
OY	-14595
Sa	-14596
Ta	-14597
VM	-14598
ai	-14599
ev	-14600
ls	-14601
po	-14602
tz	-14603
zu	-14604
בא	-14605
לב	-14606
▁ß	-14607
▁š	-14608
▁θ	-14609
▁▪	-14610
▁▲	-14611
▁♪	-14612
ANG	-14613
IFF	-14614
IFI	-14615
OSE	-14616
ULT	-14617
USE	-14618
adt	-14619
erb	-14620
esa	-14621
eth	-14622
imp	-14623
ipe	-14624
irk	-14625
lay	-14626
udd	-14627
▁!"	-14628
▁""	-14629
▁"5	-14630
▁#6	-14631
▁''	-14632
▁+8	-14633
▁07	-14634
▁0–	-14635
▁1+	-14636
▁1⁄	-14637
▁3>	-14638
▁4?	-14639
▁8)	-14640
▁9)	-14641
▁AZ	-14642
▁DX	-14643
▁DY	-14644
▁EW	-14645
▁EZ	-14646
▁FN	-14647
▁Hz	-14648
▁IO	-14649
▁Ip	-14650
▁JC	-14651
▁KA	-14652
▁KC	-14653
▁KE	-14654
▁KT	-14655
▁Ki	-14656
▁Mb	-14657
▁NH	-14658
▁NW	-14659
▁OG	-14660
▁PT	-14661
▁Qi	-14662
▁RK	-14663
▁RM	-14664
▁TY	-14665
▁WO	-14666
▁ag	-14667
▁fu	-14668
▁lt	-14669
▁nb	-14670
▁nm	-14671
▁nç	-14672
▁oh	-14673
▁sd	-14674
▁wp	-14675
▁ée	-14676
▁הך	-14677
▁ק״	-14678
▁רַ	-14679
▁(0)	-14680
▁(21	-14681
▁(22	-14682
▁(8)	-14683
▁0.4	-14684
▁124	-14685
▁128	-14686
▁14)	-14687
▁152	-14688
▁154	-14689
▁156	-14690
▁157	-14691
▁159	-14692
▁16)	-14693
▁164	-14694
▁171	-14695
▁173	-14696
▁186	-14697
▁194	-14698
▁2.9	-14699
▁219	-14700
▁22.	-14701
▁225	-14702
▁264	-14703
▁33.	-14704
▁38,	-14705
▁380	-14706
▁4.8	-14707
▁404	-14708
▁590	-14709
▁62%	-14710
▁65,	-14711
▁65.	-14712
▁66.	-14713
▁7.6	-14714
▁75.	-14715
▁8.2	-14716
▁8.4	-14717
▁80,	-14718
▁94%	-14719
▁999	-14720
▁ACE	-14721
▁ADD	-14722
▁AGE	-14723
▁AIR	-14724
▁ANA	-14725
▁APT	-14726
▁ARI	-14727
▁ASA	-14728
▁ASC	-14729
▁AVI	-14730
▁Abb	-14731
▁Abo	-14732
▁Aer	-14733
▁Aka	-14734
▁Alo	-14735
▁BER	-14736
▁Bei	-14737
▁CAM	-14738
▁CAP	-14739
▁CFO	-14740
▁CIO	-14741
▁CIS	-14742
▁CMY	-14743
▁CPA	-14744
▁CSR	-14745
▁CVS	-14746
▁CYP	-14747
▁Coh	-14748
▁DEF	-14749
▁DES	-14750
▁DHL	-14751
▁DMC	-14752
▁Dad	-14753
▁Dal	-14754
▁Deg	-14755
▁Din	-14756
▁Dre	-14757
▁ECO	-14758
▁ELS	-14759
▁EMA	-14760
▁ENS	-14761
▁Eri	-14762
▁FAB	-14763
▁FIS	-14764
▁Fib	-14765
▁Foc	-14766
▁GMT	-14767
▁Gib	-14768
▁Gur	-14769
▁HCV	-14770
▁HUA	-14771
▁Had	-14772
▁Hei	-14773
▁Hey	-14774
▁IBA	-14775
▁IFF	-14776
▁IGN	-14777
▁IMD	-14778
▁IOP	-14779
▁IPO	-14780
▁ISE	-14781
▁IST	-14782
▁IgG	-14783
▁Isa	-14784
▁KDE	-14785
▁KPM	-14786
▁Kor	-14787
▁LAT	-14788
▁LLP	-14789
▁Lat	-14790
▁Lei	-14791
▁Llo	-14792
▁MIS	-14793
▁MSI	-14794
▁MSN	-14795
▁Mah	-14796
▁Mei	-14797
▁MiG	-14798
▁Mia	-14799
▁Mos	-14800
▁NER	-14801
▁NIH	-14802
▁NYU	-14803
▁Nur	-14804
▁Oba	-14805
▁Orb	-14806
▁PEG	-14807
▁PES	-14808
▁PMS	-14809
▁PSA	-14810
▁Pel	-14811
▁Pep	-14812
▁Pey	-14813
▁Pos	-14814
▁Qui	-14815
▁RAN	-14816
▁RIC	-14817
▁RIP	-14818
▁Rab	-14819
▁Rac	-14820
▁Rib	-14821
▁Rou	-14822
▁SAC	-14823
▁Sep	-14824
▁SoC	-14825
▁Squ	-14826
▁Sum	-14827
▁TAR	-14828
▁TLE	-14829
▁TOY	-14830
▁Tat	-14831
▁Thy	-14832
▁Tig	-14833
▁UCL	-14834
▁Ubi	-14835
▁Unc	-14836
▁VAS	-14837
▁VHS	-14838
▁Vic	-14839
▁Wis	-14840
▁Wol	-14841
▁ZTE	-14842
▁ace	-14843
▁ana	-14844
▁aut	-14845
▁dae	-14846
▁dox	-14847
▁dys	-14848
▁ebr	-14849
▁eca	-14850
▁edd	-14851
▁edy	-14852
▁eer	-14853
▁ega	-14854
▁eus	-14855
▁ews	-14856
▁far	-14857
▁fen	-14858
▁ffi	-14859
▁fib	-14860
▁fun	-14861
▁god	-14862
▁hab	-14863
▁hov	-14864
▁hua	-14865
▁iah	-14866
▁ias	-14867
▁idi	-14868
▁iex	-14869
▁iii	-14870
▁imo	-14871
▁inc	-14872
▁iny	-14873
▁ish	-14874
▁iti	-14875
▁jam	-14876
▁kay	-14877
▁kol	-14878
▁los	-14879
▁loy	-14880
▁may	-14881
▁ngi	-14882
▁nio	-14883
▁nut	-14884
▁pan	-14885
▁pap	-14886
▁pas	-14887
▁pem	-14888
▁php	-14889
▁ppe	-14890
▁pst	-14891
▁pul	-14892
▁rap	-14893
▁rco	-14894
▁ree	-14895
▁rom	-14896
▁ros	-14897
▁say	-14898
▁sca	-14899
▁sli	-14900
▁ssi	-14901
▁tTa	-14902
▁tho	-14903
▁tiv	-14904
▁try	-14905
▁tth	-14906
▁uch	-14907
▁uel	-14908
▁ust	-14909
▁von	-14910
▁vor	-14911
▁war	-14912
▁whi	-14913
▁אסא	-14914
▁אסם	-14915
▁אסע	-14916
▁באן	-14917
▁בגי	-14918
▁במב	-14919
▁בסם	-14920
▁בקנ	-14921
▁ברם	-14922
▁גפן	-14923
▁דגה	-14924
▁דיף	-14925
▁דלג	-14926
▁הין	-14927
▁וחמ	-14928
▁ועץ	-14929
▁זזו	-14930
▁זעק	-14931
▁חבש	-14932
▁חכי	-14933
▁חמץ	-14934
▁חמק	-14935
▁חנק	-14936
▁טחו	-14937
▁טחי	-14938
▁יבא	-14939
▁יחף	-14940
▁יננ	-14941
▁יעש	-14942
▁כבה	-14943
▁כחג	-14944
▁כעד	-14945
▁כפה	-14946
▁כשי	-14947
▁לסך	-14948
▁לסל	-14949
▁לעו	-14950
▁לקל	-14951
▁מטב	-14952
▁נבט	-14953
▁נצר	-14954
▁נשך	-14955
▁סיף	-14956
▁עָם	-14957
▁עמר	-14958
▁פאק	-14959
▁פוד	-14960
▁פלח	-14961
▁צוה	-14962
▁צלל	-14963
▁קנט	-14964
▁רקי	-14965
▁שבם	-14966
▁שגב	-14967
▁שחג	-14968
▁שטס	-14969
▁תבי	-14970
▁תחב	-14971
▁תחו	-14972
▁תכה	-14973
▁תעז	-14974
▁תרצ	-14975
▁״מה	-14976
▁ANSI	-14977
▁Alan	-14978
▁Anto	-14979
▁Arge	-14980
▁Audi	-14981
▁Awak	-14982
▁BOOK	-14983
▁Bass	-14984
▁Been	-14985
▁Beth	-14986
▁Bind	-14987
▁Bond	-14988
▁Boot	-14989
▁Bota	-14990
▁Both	-14991
▁Bowl	-14992
▁Brad	-14993
▁Bros	-14994
▁Buck	-14995
▁Cafe	-14996
▁Cale	-14997
▁Cant	-14998
▁Cany	-14999
▁Casa	-15000
▁Cock	-15001
▁Cold	-15002
▁Colu	-15003
▁Conc	-15004
▁Desk	-15005
▁Deut	-15006
▁Dial	-15007
▁Diet	-15008
▁Docs	-15009
▁EMDR	-15010
▁ESET	-15011
▁Envi	-15012
▁Eric	-15013
▁Expa	-15014
▁Flag	-15015
▁Flat	-15016
▁Flip	-15017
▁Fold	-15018
▁Fusi	-15019
▁GMAT	-15020
▁Geno	-15021
▁Gent	-15022
▁Guer	-15023
▁Hamm	-15024
▁Hang	-15025
▁Harl	-15026
▁Harp	-15027
▁Hash	-15028
▁Hate	-15029
▁Hawa	-15030
▁IEEE	-15031
▁Jews	-15032
▁Kala	-15033
▁LASI	-15034
▁LEGO	-15035
▁Leav	-15036
▁Lies	-15037
▁LuSa	-15038
▁MOOC	-15039
▁Mann	-15040
▁Mara	-15041
▁Mila	-15042
▁Mira	-15043
▁Mome	-15044
▁Mona	-15045
▁Mood	-15046
▁Must	-15047
▁Muta	-15048
▁NIST	-15049
▁Naka	-15050
▁Near	-15051
▁Nick	-15052
▁Parc	-15053
▁Pear	-15054
▁Peer	-15055
▁Ping	-15056
▁Pivo	-15057
▁Poet	-15058
▁Pray	-15059
▁Quad	-15060
▁Radi	-15061
▁Rent	-15062
▁Reti	-15063
▁Rosa	-15064
▁Ruth	-15065
▁SITE	-15066
▁Sala	-15067
▁Sean	-15068
▁Shap	-15069
▁Shot	-15070
▁Shou	-15071
▁Sims	-15072
▁Snip	-15073
▁Stev	-15074
▁Succ	-15075
▁Tale	-15076
▁Teen	-15077
▁Thin	-15078
▁Till	-15079
▁Toys	-15080
▁Unic	-15081
▁Vehi	-15082
▁Viol	-15083
▁VoIP	-15084
▁Voya	-15085
▁WIFI	-15086
▁Wher	-15087
▁Whol	-15088
▁XCOM	-15089
▁Ynet	-15090
▁bile	-15091
▁blog	-15092
▁cape	-15093
▁chan	-15094
▁chol	-15095
▁chro	-15096
▁cook	-15097
▁cour	-15098
▁dash	-15099
▁easy	-15100
▁erra	-15101
▁erre	-15102
▁erry	-15103
▁eval	-15104
▁feed	-15105
▁feld	-15106
▁ffic	-15107
▁fina	-15108
▁fluo	-15109
▁four	-15110
▁gang	-15111
▁gett	-15112
▁help	-15113
▁kind	-15114
▁lead	-15115
▁lift	-15116
▁liga	-15117
▁mana	-15118
▁many	-15119
▁mare	-15120
▁math	-15121
▁memo	-15122
▁ndom	-15123
▁ngel	-15124
▁ngle	-15125
▁nies	-15126
▁nite	-15127
▁note	-15128
▁pret	-15129
▁rche	-15130
▁reas	-15131
▁rgan	-15132
▁rria	-15133
▁safe	-15134
▁shou	-15135
▁sics	-15136
▁sing	-15137
▁sode	-15138
▁song	-15139
▁sory	-15140
▁sper	-15141
▁stru	-15142
▁summ	-15143
▁temp	-15144
▁tick	-15145
▁tool	-15146
▁wide	-15147
▁wild	-15148
▁wise	-15149
▁בנוב	-15150
▁בעזר	-15151
▁גריר	-15152
▁דידו	-15153
▁הגבי	-15154
▁המאפ	-15155
▁המתק	-15156
▁הצפו	-15157
▁ושאי	-15158
▁יארד	-15159
▁יווח	-15160
▁יקרי	-15161
▁מוכנ	-15162
▁משתמ	-15163
▁פשים	-15164
▁צינו	-15165
▁קולנ	-15166
▁קעות	-15167
▁ראיו	-15168
▁תוצא	-15169
▁AACSB	-15170
▁Aquar	-15171
▁Asset	-15172
▁Barri	-15173
▁Basic	-15174
▁Begin	-15175
▁Being	-15176
▁Blade	-15177
▁Catch	-15178
▁Cinna	-15179
▁Cream	-15180
▁Crime	-15181
▁Direc	-15182
▁Filed	-15183
▁Fried	-15184
▁Going	-15185
▁Grace	-15186
▁Guild	-15187
▁Holla	-15188
▁Honey	-15189
▁Hound	-15190
▁Hyatt	-15191
▁Japan	-15192
▁Joint	-15193
▁Juris	-15194
▁Lough	-15195
▁Messe	-15196
▁Monta	-15197
▁Nexus	-15198
▁Paint	-15199
▁Prima	-15200
▁Quart	-15201
▁React	-15202
▁Requi	-15203
▁Scorp	-15204
▁Shari	-15205
▁Sheet	-15206
▁Short	-15207
▁Spect	-15208
▁Steel	-15209
▁Style	-15210
▁Swiss	-15211
▁Sword	-15212
▁Tears	-15213
▁Their	-15214
▁Truva	-15215
▁Versi	-15216
▁Visit	-15217
▁Wheel	-15218
▁Would	-15219
▁Wrest	-15220
▁bring	-15221
▁chara	-15222
▁chart	-15223
▁codec	-15224
▁gmail	-15225
▁going	-15226
▁prove	-15227
▁quote	-15228
▁reast	-15229
▁sense	-15230
▁serva	-15231
▁shall	-15232
▁shoot	-15233
▁smart	-15234
▁stick	-15235
▁stock	-15236
▁times	-15237
▁title	-15238
▁train	-15239
▁twitt	-15240
▁בונות	-15241
▁וטומט	-15242
▁חשיבו	-15243
▁להימנ	-15244
▁מיליו	-15245
▁סטורי	-15246
▁רופות	-15247
';	-15248
.,	-15249
14	-15250
AY	-15251
FR	-15252
JC	-15253
KU	-15254
LT	-15255
PC	-15256
RM	-15257
SC	-15258
WA	-15259
av	-15260
aw	-15261
ef	-15262
eh	-15263
je	-15264
oa	-15265
oc	-15266
uk	-15267
בת	-15268
יד	-15269
״כ	-15270
▁	-15271
▁±	-15272
▁Δ	-15273
▁ر	-15274
▁ل	-15275
▁️	-15276
▁😛	-15277
▁🙁	-15278
ACH	-15279
AMA	-15280
ASH	-15281
AST	-15282
ING	-15283
ISE	-15284
TSE	-15285
UND	-15286
add	-15287
elt	-15288
gan	-15289
gar	-15290
hes	-15291
ila	-15292
ips	-15293
irn	-15294
min	-15295
omi	-15296
ony	-15297
oof	-15298
oov	-15299
ves	-15300
▁"3	-15301
▁"9	-15302
▁'2	-15303
▁($	-15304
▁*.	-15305
▁+.	-15306
▁+3	-15307
▁-,	-15308
▁06	-15309
▁7"	-15310
▁8-	-15311
▁:]	-15312
▁<3	-15313
▁=]	-15314
▁AH	-15315
▁AX	-15316
▁Ax	-15317
▁BF	-15318
▁DG	-15319
▁Gb	-15320
▁HA	-15321
▁IK	-15322
▁KS	-15323
▁Kl	-15324
▁LR	-15325
▁LU	-15326
▁MY	-15327
▁NU	-15328
▁OA	-15329
▁Ov	-15330
▁Ré	-15331
▁SK	-15332
▁UB	-15333
▁UD	-15334
▁UU	-15335
▁VH	-15336
▁VO	-15337
▁Vs	-15338
▁WM	-15339
▁Xa	-15340
▁Ye	-15341
▁aa	-15342
▁aq	-15343
▁dd	-15344
▁ds	-15345
▁lr	-15346
▁oe	-15347
▁ok	-15348
▁xe	-15349
▁zi	-15350
▁▲*	-15351
weet	-15352
▁(29	-15353
▁+44	-15354
▁-29	-15355
▁1.9	-15356
▁10)	-15357
▁11)	-15358
▁116	-15359
▁12)	-15360
▁133	-15361
▁138	-15362
▁139	-15363
▁142	-15364
▁144	-15365
▁147	-15366
▁148	-15367
▁14:	-15368
▁151	-15369
▁153	-15370
▁161	-15371
▁162	-15372
▁168	-15373
▁172	-15374
▁174	-15375
▁178	-15376
▁181	-15377
▁187	-15378
▁199	-15379
▁1⁄2	-15380
▁2".	-15381
▁2),	-15382
▁201	-15383
▁205	-15384
▁208	-15385
▁210	-15386
▁211	-15387
▁215	-15388
▁218	-15389
▁222	-15390
▁228	-15391
▁29.	-15392
▁291	-15393
▁3%.	-15394
▁3.6	-15395
▁308	-15396
▁35:	-15397
▁37.	-15398
▁43,	-15399
▁44,	-15400
▁458	-15401
▁46.	-15402
▁47,	-15403
▁5.0	-15404
▁5.8	-15405
▁53.	-15406
▁580	-15407
▁59,	-15408
▁59.	-15409
▁6-4	-15410
▁6.0	-15411
▁6.4	-15412
▁6.8	-15413
▁605	-15414
▁620	-15415
▁660	-15416
▁7-9	-15417
▁7.4	-15418
▁720	-15419
▁737	-15420
▁79%	-15421
▁9.1	-15422
▁9.2	-15423
▁90,	-15424
▁95,	-15425
▁AAT	-15426
▁ACA	-15427
▁ADA	-15428
▁AIC	-15429
▁ALT	-15430
▁AMI	-15431
▁ANC	-15432
▁ARS	-15433
▁AVG	-15434
▁Ald	-15435
▁Amy	-15436
▁Ask	-15437
▁BAL	-15438
▁BAT	-15439
▁BBA	-15440
▁BLO	-15441
▁BPD	-15442
▁Bee	-15443
▁Bix	-15444
▁CAN	-15445
▁CDP	-15446
▁CFR	-15447
▁CIC	-15448
▁CID	-15449
▁CIT	-15450
▁CMS	-15451
▁CMV	-15452
▁CNC	-15453
▁COO	-15454
▁CST	-15455
▁CTA	-15456
▁Cup	-15457
▁DBA	-15458
▁DEN	-15459
▁DMA	-15460
▁Dat	-15461
▁Dic	-15462
▁Dim	-15463
▁Dup	-15464
▁EBS	-15465
▁EEA	-15466
▁EFF	-15467
▁ERC	-15468
▁ETN	-15469
▁ETS	-15470
▁Ech	-15471
▁Egy	-15472
▁Ein	-15473
▁Enc	-15474
▁Enj	-15475
▁Epo	-15476
▁Eps	-15477
▁Feb	-15478
▁Foo	-15479
▁GAM	-15480
▁GIS	-15481
▁GLO	-15482
▁GPA	-15483
▁GPL	-15484
▁Gal	-15485
▁Gap	-15486
▁Glu	-15487
▁Gmb	-15488
▁Gov	-15489
▁HAN	-15490
▁HDR	-15491
▁HRW	-15492
▁Hab	-15493
▁Him	-15494
▁Hyd	-15495
▁IND	-15496
▁ISA	-15497
▁ISS	-15498
▁ITY	-15499
▁JEW	-15500
▁JPG	-15501
▁Jak	-15502
▁Jui	-15503
▁Jur	-15504
▁Kai	-15505
▁Kat	-15506
▁Kha	-15507
▁Kre	-15508
▁LAN	-15509
▁Lan	-15510
▁Lau	-15511
▁Lem	-15512
▁Lic	-15513
▁MEC	-15514
▁MED	-15515
▁MOT	-15516
▁NES	-15517
▁NHL	-15518
▁NOW	-15519
▁NPS	-15520
▁NSO	-15521
▁Neg	-15522
▁Neu	-15523
▁OMA	-15524
▁Occ	-15525
▁PAY	-15526
▁PCR	-15527
▁POC	-15528
▁Pac	-15529
▁Pav	-15530
▁Pem	-15531
▁RBS	-15532
▁RPG	-15533
▁RTS	-15534
▁Ran	-15535
▁Ras	-15536
▁Rav	-15537
▁Rho	-15538
▁Rip	-15539
▁Rit	-15540
▁Roi	-15541
▁SCO	-15542
▁SMB	-15543
▁SUP	-15544
▁SYZ	-15545
▁Sap	-15546
▁Sau	-15547
▁Scu	-15548
▁Sey	-15549
▁Sto	-15550
▁TEU	-15551
▁TRE	-15552
▁Tam	-15553
▁Tan	-15554
▁Tek	-15555
▁Toy	-15556
▁Tus	-15557
▁UND	-15558
▁UTC	-15559
▁UVA	-15560
▁Unp	-15561
▁VEN	-15562
▁Vir	-15563
▁WAN	-15564
▁WOW	-15565
▁Wro	-15566
▁XXL	-15567
▁Zei	-15568
▁Zel	-15569
▁aca	-15570
▁aka	-15571
▁ani	-15572
▁ark	-15573
▁ath	-15574
▁ati	-15575
▁cam	-15576
▁cil	-15577
▁cip	-15578
▁civ	-15579
▁cut	-15580
▁cyb	-15581
▁dni	-15582
▁eed	-15583
▁enc	-15584
▁eni	-15585
▁eos	-15586
▁esa	-15587
▁exe	-15588
▁ffe	-15589
▁gar	-15590
▁gio	-15591
▁gri	-15592
▁har	-15593
▁hil	-15594
▁hom	-15595
▁hou	-15596
▁iac	-15597
▁idu	-15598
▁ins	-15599
▁ios	-15600
▁iph	-15601
▁iye	-15602
▁iza	-15603
▁jer	-15604
▁kon	-15605
▁kow	-15606
▁lab	-15607
▁lie	-15608
▁lot	-15609
▁lum	-15610
▁max	-15611
▁mur	-15612
▁nco	-15613
▁nct	-15614
▁ndy	-15615
▁nea	-15616
▁nka	-15617
▁odi	-15618
▁oly	-15619
▁omm	-15620
▁omy	-15621
▁orn	-15622
▁pen	-15623
▁poi	-15624
▁rad	-15625
▁rck	-15626
▁rda	-15627
▁reh	-15628
▁rig	-15629
▁riv	-15630
▁rod	-15631
▁roi	-15632
▁ruc	-15633
▁run	-15634
▁scu	-15635
▁sex	-15636
▁sil	-15637
▁tat	-15638
▁ues	-15639
▁usa	-15640
▁uta	-15641
▁vin	-15642
▁voi	-15643
▁wer	-15644
▁wro	-15645
▁zoo	-15646
▁אפה	-15647
▁ארם	-15648
▁בדג	-15649
▁בפז	-15650
▁בקע	-15651
▁ברע	-15652
▁גאס	-15653
▁גלר	-15654
▁גנן	-15655
▁דוו	-15656
▁דוס	-15657
▁דנן	-15658
▁דקת	-15659
▁הרד	-15660
▁ווב	-15661
▁וסן	-15662
▁זהי	-15663
▁חסך	-15664
▁חרו	-15665
▁טפח	-15666
▁יבמ	-15667
▁יגע	-15668
▁יעב	-15669
▁ירך	-15670
▁כאמ	-15671
▁כרע	-15672
▁כשש	-15673
▁לגז	-15674
▁להמ	-15675
▁לרש	-15676
▁לשת	-15677
▁מִי	-15678
▁מבצ	-15679
▁מגל	-15680
▁מזמ	-15681
▁מחי	-15682
▁מעב	-15683
▁מרש	-15684
▁נבל	-15685
▁נקם	-15686
▁סלל	-15687
▁סרה	-15688
▁סרק	-15689
▁סשה	-15690
▁ףףף	-15691
▁פאה	-15692
▁פאן	-15693
▁פיך	-15694
▁פקק	-15695
▁צדה	-15696
▁קוץ	-15697
▁קמא	-15698
▁קרש	-15699
▁רבא	-15700
▁רבב	-15701
▁רטג	-15702
▁רסן	-15703
▁שפן	-15704
▁שרר	-15705
▁תקח	-15706
▁תשל	-15707
▁״זה	-15708
▁״יש	-15709
▁״כל	-15710
▁(...	-15711
▁Addi	-15712
▁Afee	-15713
▁Alfa	-15714
▁Alma	-15715
▁Anna	-15716
▁Arri	-15717
▁Basi	-15718
▁Belo	-15719
▁Bomb	-15720
▁Brea	-15721
▁Bund	-15722
▁Bush	-15723
▁CERN	-15724
▁CRIS	-15725
▁Capa	-15726
▁Cara	-15727
▁Cola	-15728
▁Cott	-15729
▁Cure	-15730
▁Curr	-15731
▁Dama	-15732
▁Darw	-15733
▁Delu	-15734
▁Deus	-15735
▁Diff	-15736
▁Doll	-15737
▁Dust	-15738
▁Elep	-15739
▁Else	-15740
▁Exit	-15741
▁Fame	-15742
▁Fing	-15743
▁Flor	-15744
▁Folk	-15745
▁Frei	-15746
▁Fuck	-15747
▁Fuel	-15748
▁Gang	-15749
▁Garm	-15750
▁Gaza	-15751
▁Geek	-15752
▁Gera	-15753
▁Gift	-15754
▁Glee	-15755
▁Golf	-15756
▁Grad	-15757
▁Gree	-15758
▁HERO	-15759
▁HSBC	-15760
▁Haut	-15761
▁Heli	-15762
▁Herb	-15763
▁Hond	-15764
▁ICAO	-15765
▁ISTH	-15766
▁Immu	-15767
▁Insp	-15768
▁JAMA	-15769
▁Jona	-15770
▁Juli	-15771
▁Junc	-15772
▁Kais	-15773
▁Kara	-15774
▁Kick	-15775
▁Knew	-15776
▁Kong	-15777
▁Lafa	-15778
▁Leap	-15779
▁Leno	-15780
▁Lens	-15781
▁Mama	-15782
▁Meek	-15783
▁Ment	-15784
▁Meri	-15785
▁Monu	-15786
▁Mozi	-15787
▁NAND	-15788
▁NCAA	-15789
▁NESS	-15790
▁NYPD	-15791
▁None	-15792
▁OVER	-15793
▁Oppo	-15794
▁Orch	-15795
▁PACE	-15796
▁Pain	-15797
▁Pari	-15798
▁Patt	-15799
▁Peak	-15800
▁Pent	-15801
▁Pers	-15802
▁Pint	-15803
▁Prea	-15804
▁Puer	-15805
▁Puni	-15806
▁Rach	-15807
▁Rate	-15808
▁Refl	-15809
▁Refu	-15810
▁Remi	-15811
▁Ripp	-15812
▁Ross	-15813
▁SMTP	-15814
▁STOP	-15815
▁Sate	-15816
▁Seas	-15817
▁Sher	-15818
▁Siem	-15819
▁Simi	-15820
▁Socc	-15821
▁Stim	-15822
▁Sure	-15823
▁Surf	-15824
▁Sway	-15825
▁Symp	-15826
▁TSMC	-15827
▁Task	-15828
▁Thom	-15829
▁Tiny	-15830
▁Turb	-15831
▁Turk	-15832
▁Unca	-15833
▁VIII	-15834
▁Veri	-15835
▁Viva	-15836
▁Wing	-15837
▁Wint	-15838
▁baby	-15839
▁bach	-15840
▁bath	-15841
▁bies	-15842
▁bike	-15843
▁bing	-15844
▁boro	-15845
▁buck	-15846
▁capi	-15847
▁cept	-15848
▁cles	-15849
▁corn	-15850
▁cort	-15851
▁crim	-15852
▁cult	-15853
▁dema	-15854
▁dock	-15855
▁each	-15856
▁ella	-15857
▁enge	-15858
▁enne	-15859
▁enou	-15860
▁equi	-15861
▁erve	-15862
▁filt	-15863
▁fine	-15864
▁fold	-15865
▁foot	-15866
▁fund	-15867
▁gall	-15868
▁gott	-15869
▁hack	-15870
▁hell	-15871
▁hemo	-15872
▁http	-15873
▁ital	-15874
▁kera	-15875
▁leng	-15876
▁lion	-15877
▁lock	-15878
▁lona	-15879
▁long	-15880
▁mari	-15881
▁mosp	-15882
▁much	-15883
▁muta	-15884
▁ncia	-15885
▁nold	-15886
▁numb	-15887
▁orga	-15888
▁ough	-15889
▁peri	-15890
▁pics	-15891
▁plat	-15892
▁prev	-15893
▁rcha	-15894
▁regi	-15895
▁ript	-15896
▁rith	-15897
▁roke	-15898
▁rove	-15899
▁rule	-15900
▁rupt	-15901
▁sali	-15902
▁same	-15903
▁sett	-15904
▁sild	-15905
▁spea	-15906
▁ssal	-15907
▁synd	-15908
▁teau	-15909
▁toon	-15910
▁tore	-15911
▁tori	-15912
▁true	-15913
▁tura	-15914
▁uary	-15915
▁vide	-15916
▁wash	-15917
▁weal	-15918
▁ביטח	-15919
▁ביקו	-15920
▁בלנו	-15921
▁בקשי	-15922
▁גישי	-15923
▁האוכ	-15924
▁ובדי	-15925
▁וחרר	-15926
▁ורמי	-15927
▁ורמל	-15928
▁טיפו	-15929
▁יסיי	-15930
▁ישרא	-15931
▁כיבו	-15932
▁ליכי	-15933
▁לכתו	-15934
▁מוכי	-15935
▁מישי	-15936
▁נכונ	-15937
▁נסיע	-15938
▁שייה	-15939
▁תמור	-15940
▁Avail	-15941
▁Barce	-15942
▁Based	-15943
▁Bitch	-15944
▁Blogg	-15945
▁Built	-15946
▁Chair	-15947
▁Chall	-15948
▁Chels	-15949
▁Chuck	-15950
▁Citiz	-15951
▁Comic	-15952
▁Cresc	-15953
▁Cryst	-15954
▁Ferra	-15955
▁Frost	-15956
▁Fruit	-15957
▁Grave	-15958
▁Guest	-15959
▁Happi	-15960
▁Haunt	-15961
▁Janua	-15962
▁Javas	-15963
▁Jesus	-15964
▁Knows	-15965
▁Lloyd	-15966
▁Mauri	-15967
▁Medit	-15968
▁Motel	-15969
▁Neigh	-15970
▁Palma	-15971
▁Ponte	-15972
▁Preda	-15973
▁Print	-15974
▁Pulse	-15975
▁Query	-15976
▁Relea	-15977
▁Sanct	-15978
▁Scout	-15979
▁Sessi	-15980
▁Shake	-15981
▁Shall	-15982
▁Shoot	-15983
▁Stack	-15984
▁Stick	-15985
▁Tesla	-15986
▁Texas	-15987
▁Touri	-15988
▁Tweet	-15989
▁Vegan	-15990
▁cloud	-15991
▁could	-15992
▁drive	-15993
▁earth	-15994
▁expat	-15995
▁hydra	-15996
▁iHerb	-15997
▁inese	-15998
▁ities	-15999
▁magic	-16000
▁model	-16001
▁phone	-16002
▁plast	-16003
▁posit	-16004
▁possi	-16005
▁print	-16006
▁publi	-16007
▁rease	-16008
▁stery	-16009
▁still	-16010
▁thera	-16011
▁tream	-16012
▁trics	-16013
▁weath	-16014
▁woman	-16015
▁דולות	-16016
▁טרוני	-16017
▁סטיני	-16018
▁סטרטג	-16019
▁עובדו	-16020
17	-16021
19	-16022
21	-16023
26	-16024
7,	-16025
72	-16026
8,	-16027
8.	-16028
BF	-16029
CL	-16030
CN	-16031
EI	-16032
FX	-16033
GU	-16034
It	-16035
JP	-16036
KI	-16037
NX	-16038
RB	-16039
ST	-16040
To	-16041
].	-16042
ex	-16043
ez	-16044
hl	-16045
iy	-16046
jn	-16047
lv	-16048
nn	-16049
rd	-16050
wd	-16051
ía	-16052
ów	-16053
ος	-16054
ָל	-16055
הה	-16056
צל	-16057
תא	-16058
–2	-16059
’)	-16060
↩]	-16061
▁¦	-16062
▁É	-16063
▁ñ	-16064
▁ö	-16065
▁φ	-16066
▁ي	-16067
▁ِ	-16068
▁‍	-16069
▁‒	-16070
▁‚	-16071
▁√	-16072
▁	-16073
▁👑	-16074
ALE	-16075
ASA	-16076
ASC	-16077
ATA	-16078
EAR	-16079
IMP	-16080
INE	-16081
OLD	-16082
Pan	-16083
RAD	-16084
RIC	-16085
UIS	-16086
aco	-16087
cep	-16088
eau	-16089
eph	-16090
ffi	-16091
gue	-16092
ini	-16093
ins	-16094
irm	-16095
iti	-16096
izz	-16097
lan	-16098
ona	-16099
oto	-16100
quo	-16101
rap	-16102
ril	-16103
rum	-16104
uds	-16105
uti	-16106
▁!)	-16107
▁!.	-16108
▁"4	-16109
▁"6	-16110
▁$1	-16111
▁("	-16112
▁(*	-16113
▁(=	-16114
▁+,	-16115
▁04	-16116
▁05	-16117
▁0:	-16118
▁2–	-16119
▁3-	-16120
▁3–	-16121
▁4+	-16122
▁5?	-16123
▁8"	-16124
▁=)	-16125
▁AY	-16126
▁BH	-16127
▁CY	-16128
▁Ce	-16129
▁FG	-16130
▁FP	-16131
▁GU	-16132
▁Gn	-16133
▁HK	-16134
▁KH	-16135
▁LN	-16136
▁MF	-16137
▁NN	-16138
▁Nd	-16139
▁Od	-16140
▁Oz	-16141
▁QA	-16142
▁QS	-16143
▁RJ	-16144
▁RQ	-16145
▁TU	-16146
▁UH	-16147
▁UI	-16148
▁XF	-16149
▁XM	-16150
▁XV	-16151
▁YH	-16152
▁YO	-16153
▁af	-16154
▁ax	-16155
▁bt	-16156
▁cd	-16157
▁dL	-16158
▁eu	-16159
▁ez	-16160
▁hu	-16161
▁iC	-16162
▁iD	-16163
▁kt	-16164
▁mc	-16165
▁mn	-16166
▁nu	-16167
▁nx	-16168
▁pg	-16169
▁ré	-16170
▁sl	-16171
▁sq	-16172
▁sz	-16173
▁yl	-16174
▁ys	-16175
▁ße	-16176
▁ía	-16177
▁א׳	-16178
▁גּ	-16179
▁ג׳	-16180
▁כ־	-16181
▁ל־	-16182
▁נץ	-16183
▁פב	-16184
▁צם	-16185
▁—"	-16186
etra	-16187
mark	-16188
orth	-16189
▁"13	-16190
▁'),	-16191
▁(13	-16192
▁(31	-16193
▁(60	-16194
▁(90	-16195
▁-26	-16196
▁-32	-16197
▁0.2	-16198
▁0.3	-16199
▁1",	-16200
▁1),	-16201
▁1-3	-16202
▁143	-16203
▁149	-16204
▁155	-16205
▁158	-16206
▁167	-16207
▁169	-16208
▁182	-16209
▁189	-16210
▁191	-16211
▁196	-16212
▁1:4	-16213
▁206	-16214
▁213	-16215
▁216	-16216
▁21:	-16217
▁235	-16218
▁237	-16219
▁241	-16220
▁255	-16221
▁256	-16222
▁260	-16223
▁261	-16224
▁272	-16225
▁281	-16226
▁285	-16227
▁3-6	-16228
▁3/4	-16229
▁302	-16230
▁304	-16231
▁306	-16232
▁31,	-16233
▁33,	-16234
▁335	-16235
▁338	-16236
▁345	-16237
▁349	-16238
▁375	-16239
▁38.	-16240
▁43.	-16241
▁48,	-16242
▁52.	-16243
▁520	-16244
▁60?	-16245
▁613	-16246
▁630	-16247
▁67,	-16248
▁67.	-16249
▁68,	-16250
▁68.	-16251
▁69,	-16252
▁69.	-16253
▁72%	-16254
▁73%	-16255
▁747	-16256
▁77,	-16257
▁77.	-16258
▁81%	-16259
▁81,	-16260
▁85.	-16261
▁89%	-16262
▁9%.	-16263
▁911	-16264
▁950	-16265
▁;-)	-16266
▁ACL	-16267
▁ACU	-16268
▁AIG	-16269
▁AMA	-16270
▁ANN	-16271
▁APA	-16272
▁ATH	-16273
▁AUS	-16274
▁Ago	-16275
▁Apt	-16276
▁Arg	-16277
▁Ari	-16278
▁BAM	-16279
▁BCA	-16280
▁BHS	-16281
▁BIS	-16282
▁BLE	-16283
▁BLI	-16284
▁BNA	-16285
▁BUR	-16286
▁Ban	-16287
▁Bud	-16288
▁Bun	-16289
▁CAT	-16290
▁CBG	-16291
▁CDM	-16292
▁CDU	-16293
▁CEE	-16294
▁CFA	-16295
▁CHF	-16296
▁CHI	-16297
▁CKD	-16298
▁CMO	-16299
▁COL	-16300
▁CRP	-16301
▁Cau	-16302
▁Châ	-16303
▁CoQ	-16304
▁Cou	-16305
▁Cyp	-16306
▁DAF	-16307
▁DBT	-16308
▁DEA	-16309
▁DHI	-16310
▁DHT	-16311
▁DIS	-16312
▁DMT	-16313
▁DOE	-16314
▁DON	-16315
▁DOS	-16316
▁DOW	-16317
▁DPR	-16318
▁Ded	-16319
▁Dei	-16320
▁Dob	-16321
▁Dor	-16322
▁Dow	-16323
▁EAP	-16324
▁ECB	-16325
▁EDA	-16326
▁ELL	-16327
▁EMC	-16328
▁ENA	-16329
▁ETF	-16330
▁EXP	-16331
▁Eau	-16332
▁Ela	-16333
▁Ena	-16334
▁Eni	-16335
▁Exi	-16336
▁Exo	-16337
▁FED	-16338
▁FIC	-16339
▁FRA	-16340
▁Fah	-16341
▁Fan	-16342
▁Fen	-16343
▁Fix	-16344
▁Ful	-16345
▁GAL	-16346
▁GEM	-16347
▁GET	-16348
▁Gab	-16349
▁Gee	-16350
▁Gel	-16351
▁Gla	-16352
▁Gli	-16353
▁Gym	-16354
▁HMA	-16355
▁HOW	-16356
▁Hai	-16357
▁Haz	-16358
▁Hil	-16359
▁Hob	-16360
▁Hog	-16361
▁Hoo	-16362
▁Hsp	-16363
▁Hus	-16364
▁IEC	-16365
▁IEN	-16366
▁IFT	-16367
▁IHS	-16368
▁ILL	-16369
▁ILS	-16370
▁IMS	-16371
▁INA	-16372
▁IOM	-16373
▁IOS	-16374
▁IOT	-16375
▁IPL	-16376
▁ISM	-16377
▁JCC	-16378
▁JSP	-16379
▁Job	-16380
▁KFC	-16381
▁KHz	-16382
▁KPI	-16383
▁Kar	-16384
▁Ker	-16385
▁Kla	-16386
▁Kri	-16387
▁LPC	-16388
▁Log	-16389
▁MCC	-16390
▁MDI	-16391
▁MHz	-16392
▁MMA	-16393
▁MMP	-16394
▁MSD	-16395
▁MTS	-16396
▁Mai	-16397
▁Meh	-16398
▁Mis	-16399
▁Mys	-16400
▁NAF	-16401
▁NDC	-16402
▁NDS	-16403
▁NOA	-16404
▁NOR	-16405
▁NPV	-16406
▁Nau	-16407
▁Nia	-16408
▁Nig	-16409
▁Nim	-16410
▁Nod	-16411
▁OEM	-16412
▁OFF	-16413
▁OME	-16414
▁OPC	-16415
▁Odd	-16416
▁Ore	-16417
▁Orp	-16418
▁PAC	-16419
▁PAR	-16420
▁PCB	-16421
▁PGA	-16422
▁PKK	-16423
▁POW	-16424
▁RAD	-16425
▁RAL	-16426
▁RDS	-16427
▁REG	-16428
▁ROT	-16429
▁RSD	-16430
▁Raz	-16431
▁Rea	-16432
▁Ric	-16433
▁Rol	-16434
▁Rul	-16435
▁Rus	-16436
▁SAS	-16437
▁SBU	-16438
▁SCH	-16439
▁SEC	-16440
▁SEM	-16441
▁SEN	-16442
▁SLE	-16443
▁SPI	-16444
▁STE	-16445
▁STI	-16446
▁STR	-16447
▁SUV	-16448
▁Scl	-16449
▁Seg	-16450
▁Sit	-16451
▁Ski	-16452
▁Sty	-16453
▁Syd	-16454
▁TER	-16455
▁TLS	-16456
▁TLV	-16457
▁Tai	-16458
▁Tec	-16459
▁Try	-16460
▁Twe	-16461
▁UDP	-16462
▁UMX	-16463
▁UNA	-16464
▁VAN	-16465
▁VEG	-16466
▁VII	-16467
▁VIN	-16468
▁VIU	-16469
▁VMs	-16470
▁Vam	-16471
▁Vid	-16472
▁Vit	-16473
▁WIX	-16474
▁WRC	-16475
▁WTO	-16476
▁Wer	-16477
▁YPG	-16478
▁ZIP	-16479
▁Zip	-16480
▁[↩]	-16481
▁ach	-16482
▁alb	-16483
▁alm	-16484
▁ann	-16485
▁arm	-16486
▁aus	-16487
▁bed	-16488
▁boo	-16489
▁bou	-16490
▁ced	-16491
▁cep	-16492
▁cet	-16493
▁cou	-16494
▁cru	-16495
▁cto	-16496
▁cul	-16497
▁cum	-16498
▁dad	-16499
▁dar	-16500
▁das	-16501
▁dat	-16502
▁ded	-16503
▁deg	-16504
▁div	-16505
▁eco	-16506
▁eda	-16507
▁ees	-16508
▁els	-16509
▁emy	-16510
▁epi	-16511
▁ept	-16512
▁etz	-16513
▁fan	-16514
▁fol	-16515
▁gam	-16516
▁gee	-16517
▁gol	-16518
▁goo	-16519
▁gui	-16520
▁hat	-16521
▁hib	-16522
▁hof	-16523
▁hoo	-16524
▁hub	-16525
▁ici	-16526
▁iev	-16527
▁ife	-16528
▁ifi	-16529
▁ile	-16530
▁ist	-16531
▁ite	-16532
▁ith	-16533
▁jet	-16534
▁kan	-16535
▁kri	-16536
▁lam	-16537
▁lar	-16538
▁lat	-16539
▁lev	-16540
▁lex	-16541
▁liz	-16542
▁lve	-16543
▁mai	-16544
▁nai	-16545
▁nde	-16546
▁ndi	-16547
▁nen	-16548
▁neu	-16549
▁nne	-16550
▁noa	-16551
▁num	-16552
▁nya	-16553
▁ock	-16554
▁ogi	-16555
▁olv	-16556
▁orp	-16557
▁osa	-16558
▁oun	-16559
▁own	-16560
▁pam	-16561
▁pil	-16562
▁plo	-16563
▁por	-16564
▁ppm	-16565
▁ppy	-16566
▁rci	-16567
▁rcy	-16568
▁ref	-16569
▁reg	-16570
▁rex	-16571
▁rey	-16572
▁rez	-16573
▁rit	-16574
▁rna	-16575
▁roa	-16576
▁rox	-16577
▁rta	-16578
▁rto	-16579
▁sar	-16580
▁sei	-16581
▁sho	-16582
▁shu	-16583
▁sky	-16584
▁sms	-16585
▁sra	-16586
▁sso	-16587
▁sti	-16588
▁sul	-16589
▁tek	-16590
▁tha	-16591
▁toi	-16592
▁tot	-16593
▁tsu	-16594
▁tti	-16595
▁tut	-16596
▁twe	-16597
▁uba	-16598
▁urb	-16599
▁urs	-16600
▁usi	-16601
▁vap	-16602
▁via	-16603
▁vos	-16604
▁wal	-16605
▁wed	-16606
▁whe	-16607
▁ylp	-16608
▁zee	-16609
▁ère	-16610
▁אמל	-16611
▁אשל	-16612
▁באד	-16613
▁בנץ	-16614
▁בקט	-16615
▁גזל	-16616
▁גרט	-16617
▁דאף	-16618
▁דקר	-16619
▁הבז	-16620
▁הדב	-16621
▁הכש	-16622
▁הנן	-16623
▁הרם	-16624
▁השה	-16625
▁וגג	-16626
▁ודג	-16627
▁ווס	-16628
▁זאו	-16629
▁זוֹ	-16630
▁חבק	-16631
▁חזן	-16632
▁חפה	-16633
▁חרק	-16634
▁טלה	-16635
▁יען	-16636
▁ירע	-16637
▁כיד	-16638
▁כקו	-16639
▁לבא	-16640
▁לוּ	-16641
▁לוז	-16642
▁לזן	-16643
▁לטע	-16644
▁לעס	-16645
▁לתג	-16646
▁םםם	-16647
▁מאך	-16648
▁מזח	-16649
▁מכח	-16650
▁מפע	-16651
▁מקף	-16652
▁מקץ	-16653
▁נדד	-16654
▁נזף	-16655
▁נקה	-16656
▁סגנ	-16657
▁סחו	-16658
▁סחף	-16659
▁סכי	-16660
▁ספד	-16661
▁עוץ	-16662
▁ערר	-16663
▁פאפ	-16664
▁פיש	-16665
▁פעמ	-16666
▁צלע	-16667
▁קלן	-16668
▁קלת	-16669
▁קפא	-16670
▁רפה	-16671
▁שגן	-16672
▁שדם	-16673
▁שזז	-16674
▁שחט	-16675
▁שכו	-16676
▁שפג	-16677
▁תוא	-16678
▁תטה	-16679
▁..."	-16680
▁AMER	-16681
▁Adel	-16682
▁Advo	-16683
▁Agil	-16684
▁Almo	-16685
▁Alta	-16686
▁ApoE	-16687
▁Arra	-16688
▁Asia	-16689
▁Baku	-16690
▁Bald	-16691
▁Barc	-16692
▁Beck	-16693
▁Beha	-16694
▁Bend	-16695
▁Berk	-16696
▁Beyo	-16697
▁Blow	-16698
▁Borg	-16699
▁Bose	-16700
▁Buen	-16701
▁CERT	-16702
▁COOL	-16703
▁Cain	-16704
▁Cape	-16705
▁Caps	-16706
▁Carn	-16707
▁Cass	-16708
▁Chia	-16709
▁Chow	-16710
▁Cond	-16711
▁Cran	-16712
▁Crew	-16713
▁Cutt	-16714
▁DARP	-16715
▁DELE	-16716
▁DHEA	-16717
▁DUST	-16718
▁Damn	-16719
▁Dean	-16720
▁Deca	-16721
▁Deci	-16722
▁Deta	-16723
▁Dick	-16724
▁Dime	-16725
▁Dish	-16726
▁Disk	-16727
▁Dock	-16728
▁Doma	-16729
▁Drum	-16730
▁Echo	-16731
▁Eden	-16732
▁Effi	-16733
▁Eind	-16734
▁Elli	-16735
▁Ency	-16736
▁Espa	-16737
▁Evan	-16738
▁FTSE	-16739
▁Fake	-16740
▁Falc	-16741
▁Feat	-16742
▁Femi	-16743
▁Flix	-16744
▁Fost	-16745
▁GOLD	-16746
▁GOOD	-16747
▁Gale	-16748
▁Garc	-16749
▁Glen	-16750
▁Goes	-16751
▁Gray	-16752
▁Hare	-16753
▁Hart	-16754
▁Hend	-16755
▁Hers	-16756
▁Hidd	-16757
▁Homo	-16758
▁Hugh	-16759
▁Hund	-16760
▁Hung	-16761
▁IARC	-16762
▁ICAL	-16763
▁ICAN	-16764
▁IONS	-16765
▁IPCC	-16766
▁ITED	-16767
▁Infa	-16768
▁JAVA	-16769
▁Jard	-16770
▁Join	-16771
▁July	-16772
▁Jump	-16773
▁Kans	-16774
▁Keto	-16775
▁Lisa	-16776
▁Loon	-16777
▁Lung	-16778
▁MIND	-16779
▁MINI	-16780
▁Mage	-16781
▁Magi	-16782
▁Male	-16783
▁Mali	-16784
▁Mani	-16785
▁Many	-16786
▁Marl	-16787
▁Mase	-16788
▁Mata	-16789
▁Meat	-16790
▁Melo	-16791
▁Minu	-16792
▁Mist	-16793
▁Moov	-16794
▁NCIS	-16795
▁Neur	-16796
▁Neva	-16797
▁Nike	-16798
▁Norm	-16799
▁Oath	-16800
▁Ocul	-16801
▁PARK	-16802
▁PPTP	-16803
▁PREP	-16804
▁PROC	-16805
▁Pace	-16806
▁Parl	-16807
▁Pars	-16808
▁Pate	-16809
▁Peri	-16810
▁Perl	-16811
▁Phan	-16812
▁Pick	-16813
▁Pock	-16814
▁Poké	-16815
▁Pont	-16816
▁Pool	-16817
▁Priv	-16818
▁Pump	-16819
▁Purd	-16820
▁Purp	-16821
▁REST	-16822
▁Race	-16823
▁Raci	-16824
▁Raid	-16825
▁Reno	-16826
▁Rica	-16827
▁Roth	-16828
▁Ryan	-16829
▁SOAP	-16830
▁Sach	-16831
▁Sall	-16832
▁Salt	-16833
▁Sara	-16834
▁Says	-16835
▁Scha	-16836
▁Sega	-16837
▁Serp	-16838
▁Shep	-16839
▁Shin	-16840
▁Ship	-16841
▁Sidd	-16842
▁Such	-16843
▁Surg	-16844
▁Taxi	-16845
▁Terr	-16846
▁Than	-16847
▁Tren	-16848
▁Trib	-16849
▁Trin	-16850
▁Vacc	-16851
▁Vani	-16852
▁Velo	-16853
▁Vere	-16854
▁Vias	-16855
▁Ward	-16856
▁Ware	-16857
▁Wedd	-16858
▁Wick	-16859
▁XNXX	-16860
▁YEAR	-16861
▁Yale	-16862
▁Yamm	-16863
▁Yeah	-16864
▁Yoga	-16865
▁Zimm	-16866
▁Zomb	-16867
▁Zoom	-16868
▁arch	-16869
▁bard	-16870
▁batt	-16871
▁beat	-16872
▁beca	-16873
▁bett	-16874
▁bial	-16875
▁bill	-16876
▁bine	-16877
▁boat	-16878
▁bolo	-16879
▁bone	-16880
▁bora	-16881
▁brow	-16882
▁bull	-16883
▁busi	-16884
▁cPan	-16885
▁camp	-16886
▁cars	-16887
▁cash	-16888
▁char	-16889
▁chen	-16890
▁cide	-16891
▁cion	-16892
▁code	-16893
▁comb	-16894
▁conv	-16895
▁corp	-16896
▁cost	-16897
▁cott	-16898
▁coup	-16899
▁crea	-16900
▁deci	-16901
▁deed	-16902
▁defi	-16903
▁derg	-16904
▁dget	-16905
▁digi	-16906
▁disp	-16907
▁does	-16908
▁ebay	-16909
▁eese	-16910
▁egal	-16911
▁ensi	-16912
▁esta	-16913
▁euro	-16914
▁eves	-16915
▁evil	-16916
▁fert	-16917
▁fini	-16918
▁flex	-16919
▁flux	-16920
▁gard	-16921
▁gast	-16922
▁gate	-16923
▁gene	-16924
▁gger	-16925
▁ggio	-16926
▁ghan	-16927
▁gine	-16928
▁gold	-16929
▁guan	-16930
▁hant	-16931
▁happ	-16932
▁harm	-16933
▁heme	-16934
▁hide	-16935
▁hold	-16936
▁horn	-16937
▁hunt	-16938
▁iews	-16939
▁igan	-16940
▁inch	-16941
▁jack	-16942
▁lain	-16943
▁lett	-16944
▁lian	-16945
▁lick	-16946
▁llis	-16947
▁loem	-16948
▁lord	-16949
▁loye	-16950
▁mala	-16951
▁manu	-16952
▁mega	-16953
▁memb	-16954
▁mers	-16955
▁mess	-16956
▁mide	-16957
▁mini	-16958
▁minu	-16959
▁mist	-16960
▁mmad	-16961
▁moon	-16962
▁morn	-16963
▁moth	-16964
▁nche	-16965
▁near	-16966
▁nett	-16967
▁neur	-16968
▁nico	-16969
▁nida	-16970
▁nsas	-16971
▁ntha	-16972
▁ntia	-16973
▁offs	-16974
▁olar	-16975
▁olas	-16976
▁ound	-16977
▁pace	-16978
▁past	-16979
▁pipe	-16980
▁pire	-16981
▁plus	-16982
▁pond	-16983
▁pote	-16984
▁prec	-16985
▁psis	-16986
▁punk	-16987
▁quad	-16988
▁rait	-16989
▁rank	-16990
▁rese	-16991
▁ring	-16992
▁rium	-16993
▁ruto	-16994
▁scan	-16995
▁situ	-16996
▁sman	-16997
▁snow	-16998
▁somn	-16999
▁squa	-17000
▁ssip	-17001
▁sult	-17002
▁surv	-17003
▁teen	-17004
▁thee	-17005
▁thel	-17006
▁them	-17007
▁thro	-17008
▁thru	-17009
▁tica	-17010
▁tide	-17011
▁tist	-17012
▁tost	-17013
▁tree	-17014
▁trom	-17015
▁urus	-17016
▁verr	-17017
▁vori	-17018
▁ארגו	-17019
▁בונו	-17020
▁גיטל	-17021
▁דומי	-17022
▁הבים	-17023
▁השקי	-17024
▁וסיק	-17025
▁חידו	-17026
▁חינת	-17027
▁טובו	-17028
▁יימה	-17029
▁לחמה	-17030
▁מישה	-17031
▁מעול	-17032
▁סורת	-17033
▁רגום	-17034
▁ררים	-17035
▁שבונ	-17036
▁שיית	-17037
▁תייש	-17038
▁(...)	-17039
▁Agric	-17040
▁Appli	-17041
▁BLACK	-17042
▁BUSIN	-17043
▁Blind	-17044
▁Blizz	-17045
▁Boost	-17046
▁Brick	-17047
▁Carry	-17048
▁Chase	-17049
▁Clock	-17050
▁Clust	-17051
▁Crook	-17052
▁Cruel	-17053
▁Escal	-17054
▁Faith	-17055
▁Freak	-17056
▁Giant	-17057
▁Greek	-17058
▁Heath	-17059
▁Henri	-17060
▁Housi	-17061
▁Houst	-17062
▁Indiv	-17063
▁Janss	-17064
▁Jenni	-17065
▁Kitch	-17066
▁Malva	-17067
▁Manda	-17068
▁Marga	-17069
▁Mouse	-17070
▁PRESS	-17071
▁Piece	-17072
▁Prair	-17073
▁Quant	-17074
▁Reach	-17075
▁Regul	-17076
▁Ridge	-17077
▁Ritch	-17078
▁Scrum	-17079
▁Shape	-17080
▁Shipp	-17081
▁Shopp	-17082
▁Shure	-17083
▁Slide	-17084
▁Smash	-17085
▁Smoke	-17086
▁Snake	-17087
▁Spani	-17088
▁Staff	-17089
▁Stein	-17090
▁Steve	-17091
▁Sunny	-17092
▁Theme	-17093
▁ThinQ	-17094
▁Those	-17095
▁Treas	-17096
▁Truck	-17097
▁Tunes	-17098
▁Twent	-17099
▁WORKS	-17100
▁based	-17101
▁beach	-17102
▁beaut	-17103
▁blood	-17104
▁brand	-17105
▁bread	-17106
▁clock	-17107
▁creat	-17108
▁death	-17109
▁games	-17110
▁grand	-17111
▁guard	-17112
▁idual	-17113
▁ledge	-17114
▁phecy	-17115
▁plant	-17116
▁prese	-17117
▁requi	-17118
▁stars	-17119
▁stics	-17120
▁sweet	-17121
▁timiz	-17122
▁trans	-17123
▁ttack	-17124
▁vulga	-17125
▁מאפיי	-17126
▁ראלים	-17127
-'	-17128
-,	-17129
/2	-17130
18	-17131
24	-17132
32	-17133
48	-17134
5.	-17135
6,	-17136
6.	-17137
66	-17138
7.	-17139
80	-17140
91	-17141
95	-17142
Al	-17143
An	-17144
BT	-17145
CG	-17146
EK	-17147
GF	-17148
GP	-17149
He	-17150
Ho	-17151
IG	-17152
IR	-17153
KO	-17154
Le	-17155
OO	-17156
PE	-17157
PI	-17158
RX	-17159
Re	-17160
SI	-17161
St	-17162
TL	-17163
UC	-17164
UP	-17165
WG	-17166
ZZ	-17167
cd	-17168
fl	-17169
fp	-17170
ii	-17171
jö	-17172
kh	-17173
kv	-17174
my	-17175
nu	-17176
of	-17177
vd	-17178
án	-17179
ár	-17180
ão	-17181
är	-17182
ät	-17183
ès	-17184
öm	-17185
ʉʉ	-17186
ָא	-17187
אב	-17188
אט	-17189
טא	-17190
צא	-17191
קן	-17192
קץ	-17193
שן	-17194
תל	-17195
״ח	-17196
ار	-17197
ان	-17198
′′	-17199
▁ç	-17200
▁č	-17201
▁Ł	-17202
▁Θ	-17203
▁γ	-17204
▁π	-17205
▁ֽ	-17206
▁ب	-17207
▁ج	-17208
▁⁠	-17209
▁∈	-17210
▁⋅	-17211
▁♫	-17212
▁	-17213
▁😀	-17214
▁😊	-17215
ACC	-17216
ELL	-17217
ICA	-17218
IFT	-17219
IND	-17220
Mac	-17221
RLD	-17222
UNT	-17223
aba	-17224
ada	-17225
asm	-17226
eam	-17227
ecc	-17228
eso	-17229
fia	-17230
irc	-17231
kem	-17232
neu	-17233
ope	-17234
orm	-17235
osp	-17236
ppo	-17237
ray	-17238
rea	-17239
[...]
