[UNK]	0
[CLS]	1
[SEP]	2
[PAD]	3
[MASK]	4
!	5
"	6
#	7
$	8
%	9
&	10
'	11
(	12
)	13
*	14
+	15
,	16
-	17
.	18
/	19
0	20
1	21
2	22
3	23
4	24
5	25
6	26
7	27
8	28
9	29
:	30
;	31
<	32
=	33
>	34
?	35
@	36
[	37
\	38
]	39
^	40
_	41
`	42
a	43
b	44
c	45
d	46
e	47
f	48
g	49
h	50
i	51
j	52
k	53
l	54
m	55
n	56
o	57
p	58
q	59
r	60
s	61
t	62
u	63
v	64
w	65
x	66
y	67
z	68
{	69
|	70
}	71
~	72
	73
	74
	75
	76
	77
	78
	79
	80
	81
	82
	83
¡	84
¢	85
£	86
¦	87
§	88
©	89
«	90
¬	91
­	92
®	93
°	94
±	95
¶	96
·	97
»	98
¿	99
×	100
ß	101
à	102
á	103
â	104
ã	105
ä	106
å	107
æ	108
ç	109
è	110
é	111
ê	112
ë	113
í	114
î	115
ï	116
ð	117
ñ	118
ò	119
ó	120
ô	121
õ	122
ö	123
÷	124
ø	125
ù	126
ú	127
û	128
ü	129
ý	130
ÿ	131
ā	132
ă	133
ć	134
č	135
đ	136
ę	137
ğ	138
ġ	139
ħ	140
ī	141
ł	142
ň	143
ŋ	144
ō	145
ő	146
œ	147
ś	148
ş	149
š	150
ţ	151
ū	152
ż	153
ž	154
ư	155
ș	156
ț	157
ɒ	158
ɓ	159
ə	160
ɛ	161
ɸ	162
ɾ	163
ʉ	164
ʊ	165
ʌ	166
ʻ	167
ʼ	168
ˈ	169
ˌ	170
ː	171
́	172
̄	173
̇	174
̈	175
ά	176
έ	177
ή	178
ί	179
α	180
β	181
γ	182
δ	183
ε	184
η	185
θ	186
ι	187
κ	188
λ	189
μ	190
ν	191
ο	192
π	193
ρ	194
ς	195
σ	196
τ	197
υ	198
φ	199
χ	200
ψ	201
ω	202
ό	203
а	204
б	205
в	206
г	207
д	208
е	209
ж	210
и	211
й	212
к	213
л	214
н	215
о	216
п	217
р	218
с	219
т	220
у	221
ф	222
х	223
ц	224
ч	225
ш	226
ы	227
я	228
і	229
ҫ	230
ӑ	231
ӗ	232
ӝ	233
ӳ	234
ե	235
խ	236
յ	237
ս	238
֖	239
֥	240
ְ	241
ֱ	242
ֲ	243
ֳ	244
ִ	245
ֵ	246
ֶ	247
ַ	248
ָ	249
ֹ	250
ֺ	251
ֻ	252
ּ	253
ֽ	254
־	255
ֿ	256
ׁ	257
ׂ	258
׃	259
ׅ	260
א	261
ב	262
ג	263
ד	264
ה	265
ו	266
ז	267
ח	268
ט	269
י	270
ך	271
כ	272
ל	273
ם	274
מ	275
ן	276
נ	277
ס	278
ע	279
ף	280
פ	281
ץ	282
צ	283
ק	284
ר	285
ש	286
ת	287
װ	288
ױ	289
׳	290
״	291
آ	292
أ	293
إ	294
ئ	295
ا	296
ب	297
ة	298
ت	299
ث	300
ج	301
ح	302
خ	303
د	304
ذ	305
ر	306
س	307
ش	308
ص	309
ط	310
ع	311
ف	312
ق	313
ك	314
ل	315
م	316
ن	317
ه	318
و	319
ى	320
ي	321
َ	322
ُ	323
ِ	324
ْ	325
٠	326
١	327
٢	328
٨	329
٩	330
ٰ	331
ٹ	332
چ	333
ھ	334
ی	335
ߟ	336
ߡ	337
ं	338
औ	339
ग	340
त	341
द	342
न	343
ब	344
ल	345
ा	346
ि	347
ी	348
े	349
्	350
ં	351
ગ	352
બ	353
લ	354
ો	355
༓	356
ខ	357
ភ	358
ម	359
រ	360
ស	361
ា	362
ែ	363
្	364
ṅ	365
ạ	366
ả	367
ἀ	368
ὥ	369
ῦ	370
​	371
‌	372
‍	373
‎	374
‏	375
‐	376
‒	377
–	378
—	379
―	380
‘	381
’	382
‚	383
“	384
”	385
„	386
†	387
‡	388
•	389
‪	390
‫	391
‬	392
‭	393
‮	394
‰	395
′	396
‹	397
›	398
⁄	399
⁠	400
⁡	401
⁨	402
⁩	403
₪	404
€	405
₹	406
←	407
↑	408
→	409
↓	410
↩	411
⇒	412
∀	413
∂	414
∆	415
∈	416
−	417
∗	418
∘	419
∙	420
√	421
∞	422
∽	423
≠	424
≥	425
≪	426
≿	427
⋅	428
⋯	429
─	430
■	431
□	432
▪	433
▲	434
▶	435
▸	436
►	437
▼	438
▾	439
◄	440
●	441
◻	442
◼	443
☀	444
★	445
☆	446
☚	447
☝	448
☺	449
♔	450
♠	451
♣	452
♥	453
♦	454
♪	455
♫	456
⚡	457
✌	458
✔	459
✯	460
✰	461
❁	462
❓	463
❤	464
❷	465
❻	466
❼	467
❽	468
❾	469
➝	470
⟨	471
⟩	472
⟵	473
⦁	474
⬅	475
⭐	476
、	477
の	478
ア	479
ギ	480
コ	481
シ	482
ス	483
ド	484
ュ	485
ル	486
ー	487
㪗	488
三	489
东	490
主	491
九	492
京	493
介	494
以	495
会	496
元	497
列	498
反	499
古	500
名	501
士	502
大	503
学	504
川	505
工	506
幕	507
广	508
府	509
式	510
徳	511
慢	512
拾	513
日	514
旦	515
本	516
来	517
株	518
民	519
浪	520
海	521
点	522
理	523
疽	524
社	525
穂	526
空	527
章	528
第	529
简	530
算	531
絵	532
義	533
聲	534
航	535
色	536
茶	537
蒙	538
術	539
襲	540
詞	541
赤	542
逆	543
道	544
都	545
鈴	546
院	547
髓	548
黑	549
黒	550
랙	551
블	552
엠	553
	554
	555
	556
	557
	558
	559
	560
	561
	562
	563
	564
	565
	566
	567
	568
﴾	569
﴿	570
️	571
﻿	572
￼	573
�	574
🇸	575
🇾	576
🌈	577
🌎	578
🍻	579
🎉	580
🎶	581
🏽	582
🐔	583
👈	584
👉	585
👑	586
💉	587
💔	588
💖	589
💜	590
💫	591
📁	592
📄	593
🔥	594
😀	595
😁	596
😂	597
😃	598
😄	599
😅	600
😆	601
😈	602
😉	603
😊	604
😍	605
😏	606
😐	607
😒	608
😚	609
😛	610
😜	611
😦	612
🙁	613
🙂	614
🙌	615
🚖	616
🚘	617
🤔	618
🤨	619
🦁	620
🧼	621
##i	622
##t	623
##r	624
##o	625
##l	626
##ל	627
##י	628
##ה	629
##d	630
##u	631
##w	632
##n	633
##e	634
##b	635
##מ	636
##ו	637
##a	638
##s	639
##כ	640
##ח	641
##ם	642
##h	643
##ג	644
##f	645
##0	646
##5	647
##ס	648
##y	649
##p	650
##צ	651
##c	652
##k	653
##v	654
##.	655
##"	656
##ַ	657
##ן	658
##ר	659
##ב	660
##ד	661
##в	662
##н	663
##і	664
##ч	665
##z	666
##ע	667
##m	668
##j	669
##‎	670
##ז	671
##1	672
##6	673
##9	674
##)	675
##ת	676
##ल	677
##ש	678
##g	679
##נ	680
##ק	681
##ی	682
##ا	683
##ل	684
##q	685
##א	686
##ך	687
##‌	688
##ú	689
##ּ	690
##פ	691
##x	692
##:	693
##ָ	694
##►	695
##ó	696
##ף	697
##3	698
##ט	699
##خ	700
##ب	701
##ر	702
##é	703
##ö	704
##а	705
##р	706
##ф	707
##~	708
##*	709
##4	710
###	711
##ü	712
##ن	713
##æ	714
##7	715
##2	716
##ץ	717
##-	718
##8	719
##ä	720
##东	721
##,	722
##ش	723
##د	724
##(	725
##“	726
##ִ	727
##ֶ	728
##ï	729
##/	730
##í	731
##?	732
##>	733
##ه	734
##£	735
##с	736
##к	737
##я	738
##á	739
##α	740
##ά	741
##ρ	742
##τ	743
##ι	744
##ø	745
##ë	746
##🤨	747
##!	748
##‏	749
##;	750
##û	751
##σ	752
##أ	753
##م	754
##ְ	755
##🇾	756
##]	757
##ׁ	758
##ي	759
##å	760
##+	761
##ç	762
##ã	763
##ֹ	764
##›	765
##β	766
##ή	767
##ς	768
##ֵ	769
##ś	770
##🐔	771
##ص	772
##ع	773
##–	774
##ʉ	775
##س	776
##و	777
##^	778
##о	779
##ß	780
##̇	781
##ω	782
##‬	783
##ê	784
##ー	785
##ド	786
##ギ	787
##ア	788
##ł	789
##​	790
##=	791
##ت	792
##λ	793
##η	794
##ν	795
##%	796
##ž	797
##х	798
##府	799
##”	800
##٢	801
##٠	802
##б	803
##{	804
##′	805
##�	806
##ֿ	807
##έ	808
##π	809
##の	810
##ル	811
##ć	812
##_	813
##}	814
##ş	815
##ň	816
##ж	817
##и	818
##й	819
##'	820
##چ	821
##ة	822
##ɒ	823
##ك	824
##★	825
##ţ	826
##φ	827
##œ	828
##ط	829
##ā	830
##—	831
##ο	832
##υ	833
##ئ	834
##°	835
##ɛ	836
##ý	837
##ō	838
##»	839
##ы	840
##т	841
##у	842
##κ	843
##д	844
##п	845
##е	846
##ạ	847
##↩	848
##㪗	849
##名	850
##ح	851
##ô	852
##š	853
##â	854
##ū	855
##ư	856
##લ	857
##&	858
##¢	859
##ʌ	860
##ŋ	861
##è	862
##🚖	863
##😚	864
##$	865
##ث	866
##θ	867
##ί	868
##‘	869
##ò	870
##😂	871
##日	872
##ذ	873
##à	874
##ε	875
##ʼ	876
##’	877
##블	878
##랙	879
##ц	880
##״	881
##õ	882
##ñ	883
##ħ	884
##װ	885
##◄	886
##\	887
##<	888
##յ	889
##խ	890
##ե	891
##介	892
##ھ	893
##ٹ	894
##ق	895
##г	896
##л	897
##茶	898
##ш	899
##ả	900
##ِ	901
##`	902
##→	903
##民	904
##主	905
##義	906
##‡	907
##章	908
##算	909
##術	910
##都	911
##式	912
##会	913
##社	914
##♥	915
##聲	916
##§	917
##€	918
##|	919
##ュ	920
##色	921
##列	922
##ɾ	923
##[	924
##ż	925
##元	926
##َ	927
##γ	928
##ῦ	929
##ʊ	930
##工	931
##学	932
##院	933
##古	934
##襲	935
##来	936
##絵	937
##航	938
##空	939
##ות	940
##ים	941
ים	942
של	943
ות	944
את	945
##ור	946
##ני	947
##ול	948
הי	949
לא	950
##נו	951
על	952
##וד	953
##בר	954
##וא	955
לה	956
##ית	957
##יר	958
##וב	959
##ון	960
המ	961
##יל	962
##רי	963
##די	964
##ונ	965
או	966
אי	967
##שר	968
##ום	969
הא	970
אח	971
זה	972
בי	973
##מי	974
כל	975
מה	976
##יה	977
##נה	978
##לי	979
הוא	980
##וח	981
מש	982
##וש	983
##ופ	984
##כל	985
##מה	986
##יב	987
##ותר	988
לי	989
##וי	990
בא	991
שי	992
##תי	993
מי	994
מא	995
יש	996
ול	997
##וק	998
אל	999
הש	1000
##וע	1001
אנ	1002
עם	1003
##וצ	1004
##מר	1005
##בל	1006
הת	1007
אות	1008
הר	1009
כי	1010
שה	1011
הח	1012
##שי	1013
##קר	1014
שא	1015
##בי	1016
בע	1017
אני	1018
##יות	1019
מס	1020
וה	1021
רא	1022
##סי	1023
חי	1024
##פר	1025
למ	1026
##שה	1027
##מו	1028
לו	1029
יותר	1030
רי	1031
מת	1032
היא	1033
תי	1034
##זה	1035
ור	1036
##גי	1037
לע	1038
מע	1039
##מש	1040
הפ	1041
##דר	1042
בר	1043
גם	1044
אחר	1045
אר	1046
מח	1047
נו	1048
ני	1049
##שים	1050
הב	1051
##טי	1052
יכ	1053
##את	1054
הם	1055
##ומ	1056
##פי	1057
##נים	1058
##ין	1059
היה	1060
אם	1061
##טר	1062
##ולם	1063
##לה	1064
הע	1065
וב	1066
סי	1067
מו	1068
לב	1069
עב	1070
בש	1071
שמ	1072
יה	1073
במ	1074
יי	1075
##דע	1076
מצ	1077
יכול	1078
די	1079
כא	1080
הצ	1081
עצ	1082
##רא	1083
##חר	1084
לפ	1085
מק	1086
##רכ	1087
אבל	1088
הג	1089
הק	1090
וא	1091
פר	1092
אמ	1093
רק	1094
הכ	1095
##נות	1096
ומ	1097
##בה	1098
הס	1099
לח	1100
יל	1101
לש	1102
דבר	1103
##אל	1104
חש	1105
##וג	1106
לכ	1107
בה	1108
אתה	1109
אחד	1110
##דה	1111
כדי	1112
מל	1113
חל	1114
תק	1115
ראש	1116
יר	1117
##דם	1118
להיות	1119
##וס	1120
פע	1121
הנ	1122
אפ	1123
##שות	1124
כול	1125
מכ	1126
##זר	1127
##אי	1128
צרי	1129
##מן	1130
כך	1131
##נת	1132
בת	1133
טוב	1134
וכ	1135
טי	1136
##מת	1137
רב	1138
זו	1139
##חנו	1140
חבר	1141
##דים	1142
##וך	1143
##חי	1144
##עה	1145
אנחנו	1146
שלי	1147
ישר	1148
לק	1149
מדי	1150
פי	1151
מב	1152
בל	1153
כמו	1154
אנשים	1155
ישראל	1156
הל	1157
לל	1158
תח	1159
מר	1160
##וה	1161
דר	1162
##ונה	1163
הז	1164
שלה	1165
##מים	1166
##בע	1167
##דול	1168
##גל	1169
עד	1170
ידי	1171
##נס	1172
##וט	1173
וס	1174
ית	1175
##וכ	1176
##קי	1177
וע	1178
רוצ	1179
וצ	1180
שלך	1181
##ורה	1182
ביותר	1183
כש	1184
קי	1185
זאת	1186
אמר	1187
##יא	1188
אז	1189
##וף	1190
בכל	1191
קר	1192
שני	1193
וג	1194
היית	1195
יו	1196
##כם	1197
הה	1198
ונ	1199
וי	1200
רצ	1201
האם	1202
ער	1203
יצ	1204
##קה	1205
רג	1206
חד	1207
זמן	1208
כמה	1209
##צע	1210
מפ	1211
##נט	1212
##חק	1213
יס	1214
שב	1215
אותו	1216
ממ	1217
##ודה	1218
##ילו	1219
##תה	1220
חו	1221
##כה	1222
בין	1223
ספר	1224
##עות	1225
הו	1226
##ורי	1227
ופ	1228
מד	1229
##יו	1230
אין	1231
עבור	1232
שפ	1233
יח	1234
הד	1235
גי	1236
##ילה	1237
קצ	1238
עוד	1239
שלנו	1240
היו	1241
##אר	1242
##לו	1243
הזה	1244
##אה	1245
גר	1246
##חה	1247
רוב	1248
תה	1249
שת	1250
בב	1251
##ולי	1252
קט	1253
##חות	1254
מאוד	1255
אנו	1256
##וני	1257
בח	1258
לס	1259
בני	1260
##מיד	1261
צריך	1262
##אים	1263
##גיע	1264
##מוד	1265
שנ	1266
עש	1267
כבר	1268
לך	1269
עי	1270
גדול	1271
כמ	1272
לפני	1273
##אות	1274
לת	1275
לאחר	1276
זכ	1277
הט	1278
וש	1279
פת	1280
יט	1281
##זי	1282
תר	1283
איך	1284
אך	1285
יק	1286
אשר	1287
יד	1288
##ירות	1289
הרבה	1290
##ונים	1291
שלו	1292
לעשות	1293
##ירה	1294
לצ	1295
נית	1296
נכ	1297
בו	1298
##בד	1299
צי	1300
ממש	1301
חלק	1302
דברים	1303
עולם	1304
טר	1305
##סף	1306
שהוא	1307
רח	1308
##כן	1309
ספ	1310
כאשר	1311
יפ	1312
אתם	1313
שם	1314
ינ	1315
וק	1316
אלה	1317
עלי	1318
עדי	1319
רכ	1320
לנו	1321
רע	1322
אדם	1323
##פת	1324
יב	1325
פש	1326
##גר	1327
##יע	1328
##ומי	1329
ראשונ	1330
##טה	1331
בט	1332
אחת	1333
עצמ	1334
אס	1335
רוצה	1336
##זור	1337
בס	1338
יום	1339
שלהם	1340
שר	1341
היום	1342
אחרים	1343
עבודה	1344
נש	1345
##ופן	1346
באופן	1347
##מד	1348
חשב	1349
כת	1350
מז	1351
נג	1352
##ראה	1353
##עת	1354
ילדים	1355
נה	1356
הוד	1357
ורי	1358
##צי	1359
שו	1360
שלא	1361
ולא	1362
אב	1363
##נית	1364
##דרך	1365
שנים	1366
האי	1367
##ופה	1368
עס	1369
שנה	1370
משפ	1371
##ונות	1372
##יים	1373
מספר	1374
רו	1375
אפשר	1376
תו	1377
אינ	1378
##חת	1379
כן	1380
איר	1381
ין	1382
דו	1383
##יתי	1384
##הו	1385
##גע	1386
לנ	1387
גב	1388
חוש	1389
כאן	1390
er	1391
תמיד	1392
##קום	1393
תש	1394
##רים	1395
##ושה	1396
הייתה	1397
##מנ	1398
אומר	1399
מט	1400
בג	1401
##שת	1402
בית	1403
##ובה	1404
השת	1405
עני	1406
##בין	1407
ודע	1408
כולים	1409
##ינ	1410
##הב	1411
מדינה	1412
##שור	1413
בכ	1414
אותם	1415
בק	1416
בנו	1417
##ורך	1418
##לות	1419
##סט	1420
אחרי	1421
תפ	1422
עכ	1423
##יבה	1424
במה	1425
##on	1426
קוד	1427
##..	1428
##גיש	1429
נפ	1430
פעם	1431
##ולה	1432
ימ	1433
רבים	1434
להם	1435
נים	1436
##לך	1437
תכ	1438
##לת	1439
in	1440
th	1441
יהיה	1442
משהו	1443
ריק	1444
עיל	1445
לכל	1446
שימ	1447
סב	1448
##רט	1449
תע	1450
החל	1451
סוג	1452
##פור	1453
ניתן	1454
##מצ	1455
ראשון	1456
כוח	1457
##דת	1458
אף	1459
הכל	1460
למה	1461
לג	1462
אותה	1463
טיפ	1464
פור	1465
מג	1466
להת	1467
##שיו	1468
עכשיו	1469
פשוט	1470
סכ	1471
שאני	1472
##ברה	1473
אולי	1474
##דו	1475
חוק	1476
בשנת	1477
עדיין	1478
שלכם	1479
חשוב	1480
צפ	1481
סט	1482
יוד	1483
##נוי	1484
##וון	1485
כנ	1486
קור	1487
מטר	1488
מן	1489
שהם	1490
הן	1491
להי	1492
קב	1493
##ודי	1494
אפילו	1495
שכ	1496
חז	1497
##רכת	1498
כר	1499
ברי	1500
דרך	1501
אלי	1502
##דש	1503
נק	1504
מלח	1505
תל	1506
##קד	1507
בעולם	1508
##או	1509
קה	1510
ללא	1511
שיש	1512
נות	1513
לרא	1514
למע	1515
לד	1516
אלא	1517
בחי	1518
שימוש	1519
יע	1520
חושב	1521
##ar	1522
##וחד	1523
באמ	1524
מיוחד	1525
...	1526
טע	1527
שוב	1528
באמצע	1529
צר	1530
בנ	1531
##קרים	1532
באמת	1533
חייב	1534
התח	1535
תמ	1536
##קט	1537
לוה	1538
##an	1539
וד	1540
צע	1541
לראות	1542
מערכת	1543
ויות	1544
וח	1545
ואת	1546
לוהים	1547
תנ	1548
לכם	1549
האדם	1550
##יהם	1551
##צד	1552
##or	1553
##ואה	1554
בז	1555
קל	1556
##ורים	1557
הייתי	1558
##ובר	1559
##מין	1560
##es	1561
##תר	1562
רפ	1563
קשה	1564
החיים	1565
כם	1566
the	1567
חיים	1568
במהלך	1569
יני	1570
מנ	1571
##גון	1572
משת	1573
עק	1574
שום	1575
רוצים	1576
##בים	1577
פרס	1578
##al	1579
##כות	1580
זר	1581
בדרך	1582
פני	1583
##דות	1584
##in	1585
נשים	1586
הול	1587
המש	1588
##er	1589
מרכ	1590
נמצ	1591
צריכ	1592
בשב	1593
סמ	1594
##מות	1595
##משך	1596
בבית	1597
ילי	1598
אותי	1599
שאתה	1600
אוהב	1601
שינוי	1602
יודע	1603
##שהו	1604
קו	1605
בדי	1606
טיפול	1607
##גיה	1608
נראה	1609
עוב	1610
גבר	1611
עבר	1612
אלו	1613
מקום	1614
שמעות	1615
ולי	1616
סיפור	1617
דינות	1618
חדש	1619
פעמים	1620
רבות	1621
לאומי	1622
יז	1623
##שב	1624
ערכ	1625
נע	1626
היתה	1627
קבל	1628
מנה	1629
עסק	1630
נס	1631
שתי	1632
##קרה	1633
##דל	1634
פרי	1635
אה	1636
##צור	1637
עניין	1638
ציה	1639
שזה	1640
עשר	1641
חופ	1642
##ויות	1643
הופ	1644
לפי	1645
מוצ	1646
עול	1647
##ליח	1648
אחרונ	1649
אינו	1650
יא	1651
עיר	1652
הבית	1653
סיכ	1654
##טו	1655
חק	1656
##יג	1657
##טים	1658
איש	1659
הרי	1660
כיצד	1661
מתח	1662
נטר	1663
מידע	1664
גבוה	1665
בסי	1666
פח	1667
תא	1668
##פה	1669
שבו	1670
קבוצ	1671
##בות	1672
ברית	1673
פל	1674
פחות	1675
יהודי	1676
##זו	1677
סרט	1678
נגד	1679
##מני	1680
האו	1681
לקבל	1682
כד	1683
טל	1684
##עט	1685
כמעט	1686
תג	1687
כולם	1688
שהיא	1689
טבע	1690
##בוד	1691
למצ	1692
##ימ	1693
בן	1694
##תם	1695
עילות	1696
בצ	1697
קשור	1698
##נוע	1699
##יבור	1700
במקום	1701
##ואר	1702
כולל	1703
הכי	1704
##קיד	1705
מים	1706
יתר	1707
יכולה	1708
קרא	1709
מאז	1710
ארץ	1711
הדבר	1712
דור	1713
גור	1714
ארצ	1715
בפ	1716
מלא	1717
רעי	1718
השתמש	1719
הגדול	1720
אצ	1721
##פשר	1722
מוש	1723
בעלי	1724
שירות	1725
במשך	1726
ינו	1727
החברה	1728
נטרנט	1729
נח	1730
שלוש	1731
עצמו	1732
כפי	1733
באות	1734
ביט	1735
פשר	1736
תוכ	1737
קשר	1738
עצמי	1739
ידע	1740
עתי	1741
##וז	1742
שע	1743
וו	1744
כתב	1745
נר	1746
הבי	1747
תם	1748
שונים	1749
נוש	1750
##פתח	1751
##מפ	1752
##ואי	1753
מישהו	1754
##טינ	1755
גיל	1756
נת	1757
##ליך	1758
אופ	1759
דרכ	1760
גדולה	1761
האלה	1762
אית	1763
צד	1764
##קש	1765
##ילים	1766
בלתי	1767
הגיע	1768
כלל	1769
יכולת	1770
חס	1771
היר	1772
##יבות	1773
דק	1774
חזר	1775
עושה	1776
משי	1777
בשביל	1778
st	1779
##ou	1780
##יח	1781
תפקיד	1782
למר	1783
##כו	1784
##חור	1785
ודעים	1786
אור	1787
##ובן	1788
פה	1789
##רב	1790
ולר	1791
##חים	1792
##מינ	1793
ריאות	1794
פסי	1795
##ודש	1796
מוע	1797
נא	1798
##כר	1799
##en	1800
בגל	1801
לסטינ	1802
המי	1803
הודים	1804
ימים	1805
למרות	1806
שחק	1807
יליון	1808
מכל	1809
##שיא	1810
מהם	1811
נכון	1812
גל	1813
ארצות	1814
תהיה	1815
דוג	1816
##פיק	1817
בתוך	1818
סוף	1819
רוח	1820
##טת	1821
בגלל	1822
ממשלה	1823
##חו	1824
באו	1825
עמ	1826
ילד	1827
תוכל	1828
##ורת	1829
רסי	1830
##ינו	1831
##ביר	1832
בעי	1833
בשל	1834
לכן	1835
רט	1836
ראה	1837
##כנו	1838
הנה	1839
מגיע	1840
##מבר	1841
##at	1842
en	1843
##ביע	1844
שק	1845
לדע	1846
##ורר	1847
לדעת	1848
בקר	1849
##נם	1850
שעות	1851
סדר	1852
מלחמה	1853
קול	1854
##וצר	1855
ספק	1856
וספ	1857
on	1858
באר	1859
יחד	1860
10	1861
וכנית	1862
למצוא	1863
בדיוק	1864
חברות	1865
לדבר	1866
בלי	1867
המו	1868
בינ	1869
מוס	1870
ביום	1871
ערך	1872
העיר	1873
בזמן	1874
אד	1875
##om	1876
אותך	1877
מתוך	1878
לגבי	1879
לוגי	1880
פעולה	1881
אירוע	1882
ריקאי	1883
נמצא	1884
קומ	1885
משר	1886
כזה	1887
אחרת	1888
שט	1889
כיוון	1890
ועל	1891
##וץ	1892
קצוע	1893
ומר	1894
הזו	1895
חזק	1896
##פק	1897
לשמ	1898
משרד	1899
##גש	1900
להפ	1901
נצ	1902
אוני	1903
##st	1904
re	1905
ובדים	1906
תהליך	1907
##ווה	1908
##כב	1909
##וחר	1910
נוס	1911
וגם	1912
הזד	1913
אוניב	1914
השני	1915
מות	1916
וט	1917
שבה	1918
##יבי	1919
ואני	1920
רש	1921
##סה	1922
##עו	1923
קצת	1924
תוך	1925
הצל	1926
סוכ	1927
השנה	1928
כסף	1929
לכך	1930
קיב	1931
יין	1932
מעט	1933
חר	1934
דא	1935
מדובר	1936
##צב	1937
סור	1938
תונים	1939
מספיק	1940
חברתי	1941
הזאת	1942
פתר	1943
כני	1944
רד	1945
מדוע	1946
##ודת	1947
לפחות	1948
##עם	1949
ארגון	1950
חמ	1951
בחר	1952
עשו	1953
טובה	1954
שיע	1955
והוא	1956
וסי	1957
יור	1958
כיום	1959
סופ	1960
וזה	1961
##ילי	1962
הדרך	1963
וצרים	1964
וריה	1965
עליו	1966
למש	1967
ברח	1968
##לא	1969
קודם	1970
בצורה	1971
an	1972
וצאות	1973
אולם	1974
זהו	1975
##ווח	1976
עית	1977
כלו	1978
בד	1979
##re	1980
נוח	1981
##ליט	1982
ציא	1983
תנו	1984
חת	1985
בהם	1986
מאו	1987
רוס	1988
##כת	1989
תקופה	1990
אוכל	1991
האמ	1992
יג	1993
סו	1994
בטוח	1995
צו	1996
##שוב	1997
מול	1998
סג	1999
אחרות	2000
of	2001
קצר	2002
רכב	2003
בעיות	2004
ארה	2005
קבוצה	2006
הפר	2007
בוא	2008
איזה	2009
ירוש	2010
לקר	2011
עזר	2012
לפת	2013
נגל	2014
ון	2015
המח	2016
כמובן	2017
רגע	2018
ידוע	2019
עוש	2020
##ion	2021
מוק	2022
נוכ	2023
משתמש	2024
##וקר	2025
יניים	2026
al	2027
מאשר	2028
צב	2029
##חון	2030
להבין	2031
סביב	2032
סטר	2033
##נק	2034
לוק	2035
בול	2036
להגיע	2037
אש	2038
אק	2039
מנת	2040
עושים	2041
##שא	2042
אג	2043
שלושה	2044
##טרה	2045
##רח	2046
לעולם	2047
##שיך	2048
הזדמנ	2049
##סו	2050
אמיתי	2051
##פיע	2052
נדר	2053
ניה	2054
##ro	2055
בעיקר	2056
ההי	2057
סוגל	2058
אינם	2059
עלה	2060
מדיני	2061
נד	2062
תוצ	2063
בלבד	2064
ברור	2065
תלמיד	2066
וף	2067
##ומת	2068
תוצאה	2069
מרי	2070
טובים	2071
בוע	2072
כו	2073
מוד	2074
מונ	2075
רוי	2076
תחיל	2077
וני	2078
##ודות	2079
מעל	2080
וקר	2081
כה	2082
אותנו	2083
מור	2084
זכוי	2085
מדע	2086
לט	2087
בעוד	2088
ומרים	2089
##ra	2090
לתת	2091
##גד	2092
למעשה	2093
קיים	2094
נט	2095
רשי	2096
##מוך	2097
ירופה	2098
בכך	2099
חברת	2100
##פש	2101
לזה	2102
שג	2103
##קרי	2104
בנוסף	2105
וליטי	2106
יחי	2107
שאתם	2108
זכר	2109
מעבר	2110
ואז	2111
אצל	2112
רשת	2113
שאלה	2114
תמוד	2115
תמודד	2116
השא	2117
##זרח	2118
##il	2119
##וביל	2120
אינה	2121
נב	2122
קטן	2123
יהיו	2124
וז	2125
ובר	2126
כנס	2127
חסר	2128
עומ	2129
חברים	2130
פחד	2131
לר	2132
קורה	2133
ne	2134
ללמוד	2135
עומד	2136
מתחיל	2137
ווי	2138
מכן	2139
יית	2140
תינו	2141
ומה	2142
באי	2143
חול	2144
ציבור	2145
רחב	2146
התחיל	2147
קרה	2148
יקר	2149
לז	2150
##ol	2151
לקחת	2152
בכלל	2153
##ic	2154
##תיים	2155
##שרי	2156
אחרון	2157
יהם	2158
ייר	2159
פית	2160
##ביא	2161
הרג	2162
זי	2163
שונות	2164
מרגיש	2165
מחקר	2166
פרק	2167
למי	2168
##ריך	2169
חמי	2170
תינוק	2171
שיר	2172
גד	2173
יחס	2174
וצר	2175
גברים	2176
לעת	2177
פק	2178
מחיר	2179
מקור	2180
ועד	2181
משפט	2182
חירות	2183
ודר	2184
יטחון	2185
הללו	2186
מילים	2187
לימוד	2188
פא	2189
אהב	2190
מתי	2191
בוצ	2192
תייח	2193
תייחס	2194
עשה	2195
ירות	2196
לעזור	2197
סיבות	2198
טכנו	2199
לוגיה	2200
מקומי	2201
צריכה	2202
בתח	2203
עשי	2204
גופ	2205
צמ	2206
מנס	2207
נסי	2208
בעל	2209
כלי	2210
נוסף	2211
מיי	2212
חינו	2213
לבד	2214
נרגיה	2215
ינג	2216
פוס	2217
תמי	2218
החדש	2219
ציאות	2220
איכות	2221
נז	2222
##לק	2223
רואה	2224
##זיק	2225
טבעי	2226
ing	2227
##טיח	2228
חדשות	2229
משפחה	2230
קורא	2231
לומר	2232
שנייה	2233
שתמש	2234
קוח	2235
##סק	2236
היל	2237
לעבוד	2238
חודש	2239
זק	2240
מצב	2241
##לם	2242
ליצור	2243
##ch	2244
תב	2245
כלכ	2246
משק	2247
פורס	2248
סק	2249
יסי	2250
רויקט	2251
דקות	2252
ירי	2253
##el	2254
חינוך	2255
כעת	2256
קומות	2257
הבא	2258
עובד	2259
קרי	2260
עשוי	2261
עמד	2262
##ri	2263
עיקרי	2264
##צר	2265
הסי	2266
מזון	2267
##נון	2268
קשורת	2269
חצי	2270
פשרות	2271
אפשרי	2272
כתוב	2273
פיתוח	2274
דומה	2275
מרכזי	2276
להצ	2277
מסע	2278
ליל	2279
ולה	2280
רבה	2281
שאל	2282
כוחות	2283
אוו	2284
סל	2285
הירות	2286
חברה	2287
מני	2288
קיבל	2289
סת	2290
משחק	2291
הכול	2292
תחת	2293
עסקים	2294
השנים	2295
יף	2296
מוות	2297
לוח	2298
##רבי	2299
לעתים	2300
הלא	2301
שלום	2302
to	2303
דמ	2304
תמונה	2305
למשל	2306
נצי	2307
ניהול	2308
טלפ	2309
חוס	2310
יון	2311
אמור	2312
החוק	2313
מחדש	2314
נשאר	2315
ספור	2316
אהבה	2317
הגוף	2318
חשבון	2319
מקרים	2320
שונה	2321
איפה	2322
חופש	2323
נקר	2324
אנשי	2325
עצמם	2326
רגיל	2327
תשובה	2328
כלכלי	2329
##חל	2330
אחוז	2331
כאלה	2332
תיק	2333
אן	2334
התפתח	2335
עתיד	2336
ערב	2337
האמת	2338
גבוהה	2339
בתי	2340
לבית	2341
##רחש	2342
ירה	2343
ירושל	2344
ימי	2345
##נהג	2346
טרי	2347
שאלות	2348
הבינ	2349
מופ	2350
צורך	2351
ארבע	2352
אוויר	2353
it	2354
ספרים	2355
##ועל	2356
צוות	2357
היט	2358
מכיר	2359
ונד	2360
מדבר	2361
גישה	2362
שש	2363
יכר	2364
מצאים	2365
אמנות	2366
פוט	2367
דע	2368
התנ	2369
##טות	2370
חדשים	2371
גדל	2372
##ותפ	2373
חיפ	2374
רווח	2375
לנד	2376
פט	2377
שול	2378
מין	2379
##קע	2380
המשיך	2381
שמח	2382
עולמי	2383
ch	2384
מצא	2385
קד	2386
##מל	2387
שלב	2388
מעולם	2389
קס	2390
שפה	2391
בתחום	2392
הורים	2393
למד	2394
וספים	2395
מחשב	2396
ככל	2397
מנהיג	2398
וזי	2399
##קור	2400
דרכים	2401
דוד	2402
הפך	2403
באותו	2404
##בק	2405
##תב	2406
ליד	2407
ליש	2408
ללכת	2409
אזור	2410
היש	2411
בהת	2412
##ay	2413
כולנו	2414
האל	2415
שאין	2416
חומר	2417
יוכל	2418
שרת	2419
תרבות	2420
ודשים	2421
לשמור	2422
##הם	2423
ביח	2424
יפה	2425
שומ	2426
##נהל	2427
רגש	2428
רס	2429
כגון	2430
משום	2431
##וצא	2432
רות	2433
##is	2434
##ופו	2435
at	2436
נכנס	2437
כאב	2438
ערכות	2439
עולה	2440
##לום	2441
יבורי	2442
נקרא	2443
חופשי	2444
##למ	2445
ביצ	2446
יסיון	2447
בנים	2448
טק	2449
##ובל	2450
אינט	2451
דרג	2452
מסו	2453
נשיא	2454
לחץ	2455
צפון	2456
קצועי	2457
מדינת	2458
תחילה	2459
כדור	2460
ורג	2461
באתר	2462
ברחבי	2463
הבע	2464
שכל	2465
פג	2466
להפוך	2467
מאוחר	2468
אילו	2469
דג	2470
אט	2471
##אש	2472
אמא	2473
קונ	2474
אליו	2475
פתי	2476
לאורך	2477
ארוכ	2478
טוד	2479
##כמ	2480
##ירו	2481
##ופא	2482
חוץ	2483
הצלחה	2484
##פל	2485
ממנו	2486
מבוס	2487
כנראה	2488
רומ	2489
##it	2490
שעה	2491
##as	2492
מונות	2493
ואי	2494
יצא	2495
טרא	2496
##בוע	2497
קנ	2498
##תפ	2499
בקרב	2500
מית	2501
בשנה	2502
אמרה	2503
עקב	2504
קש	2505
אחורי	2506
שחר	2507
##כי	2508
שלישי	2509
טלו	2510
צבע	2511
##יי	2512
וֹ	2513
##כון	2514
פתרון	2515
##am	2516
הטוב	2517
גז	2518
בעיה	2519
רעיון	2520
דמי	2521
נדרש	2522
רוא	2523
חדשה	2524
יחסי	2525
עובדה	2526
מפל	2527
20	2528
שנת	2529
שהו	2530
ורות	2531
רפואי	2532
הולך	2533
לקרוא	2534
וקרטי	2535
טודנט	2536
להשי	2537
להשיג	2538
היסט	2539
הגנה	2540
החלטה	2541
בור	2542
רוץ	2543
te	2544
חדר	2545
תודה	2546
חמש	2547
יציר	2548
ביצוע	2549
חרי	2550
מבוסס	2551
ינה	2552
צטר	2553
דומ	2554
נול	2555
לקח	2556
תחילת	2557
עונה	2558
מפת	2559
תמיכה	2560
מורה	2561
מסוי	2562
עבד	2563
תחר	2564
אירופ	2565
חריות	2566
לשנות	2567
התא	2568
ניס	2569
פות	2570
כמות	2571
חוסר	2572
טיבי	2573
מזה	2574
מפני	2575
ודי	2576
פיר	2577
יצוני	2578
עלינו	2579
בסוף	2580
הילד	2581
היינו	2582
כולות	2583
נור	2584
בעבר	2585
יורק	2586
ולכן	2587
עבודת	2588
המשחק	2589
ווד	2590
אומ	2591
במקרה	2592
צדק	2593
הים	2594
##le	2595
המס	2596
לבצע	2597
##טון	2598
הפי	2599
לכת	2600
מדה	2601
מהר	2602
משא	2603
עיצ	2604
פולי	2605
##ce	2606
ביע	2607
נושא	2608
ולט	2609
לחל	2610
בעת	2611
יץ	2612
עצמך	2613
הסכם	2614
קוב	2615
לחשוב	2616
שית	2617
מאמינ	2618
מלחמת	2619
סע	2620
דוגמה	2621
לחיות	2622
בנושא	2623
##oo	2624
רואים	2625
תואר	2626
התנהג	2627
חוקי	2628
ואם	2629
תכנית	2630
הצב	2631
לגר	2632
תרופ	2633
ממשלת	2634
בסופו	2635
המצב	2636
ורמים	2637
כבוד	2638
##אן	2639
השפ	2640
עניינ	2641
חיי	2642
קוחות	2643
אישה	2644
ליפ	2645
זמ	2646
שטח	2647
ִי	2648
עז	2649
ורד	2650
נולד	2651
שרה	2652
צפוי	2653
ווה	2654
##et	2655
עצמה	2656
##קיע	2657
שחור	2658
##ובי	2659
שווי	2660
רמ	2661
##ow	2662
גוד	2663
דעת	2664
זכות	2665
נתיים	2666
הסרט	2667
ההיסט	2668
ותר	2669
לחלוט	2670
מצד	2671
ויז	2672
פתוח	2673
דאג	2674
מפלג	2675
##לח	2676
פנים	2677
רמני	2678
שנות	2679
גורם	2680
כות	2681
לבין	2682
בחיים	2683
ראוי	2684
##כיר	2685
הרגיש	2686
טרור	2687
מרכז	2688
תוכלו	2689
סיבה	2690
כלומר	2691
מאפשר	2692
החז	2693
ניו	2694
צעד	2695
מריקה	2696
בפני	2697
בריא	2698
דין	2699
פרש	2700
וכן	2701
sh	2702
כשה	2703
עקבות	2704
##מע	2705
ארוח	2706
תקופ	2707
אבא	2708
אבי	2709
וּ	2710
מסר	2711
קרב	2712
כאילו	2713
זקוק	2714
##ve	2715
מהפ	2716
התק	2717
בוצות	2718
נעשה	2719
מסוימ	2720
רצון	2721
שאנו	2722
השאלה	2723
הלי	2724
רצה	2725
30	2726
ma	2727
##לים	2728
צרכ	2729
עליהם	2730
אמצע	2731
עו	2732
הפעם	2733
חברי	2734
בסיס	2735
תת	2736
##חן	2737
הצליח	2738
##קדמ	2739
המקום	2740
##וציא	2741
בשם	2742
רמניה	2743
משפחת	2744
עיצוב	2745
שוק	2746
מאד	2747
חיפוש	2748
חור	2749
מקרה	2750
אמרתי	2751
אכ	2752
מוח	2753
טוע	2754
המידע	2755
איראן	2756
מציע	2757
מקבל	2758
מנהל	2759
דוגמ	2760
בוקר	2761
הולכ	2762
נוע	2763
המת	2764
ביקור	2765
ספורט	2766
אתכם	2767
יבי	2768
השפעה	2769
גן	2770
באזור	2771
מטרה	2772
לוקח	2773
כללי	2774
נגלית	2775
אהוב	2776
מדעי	2777
אמן	2778
מבין	2779
##זרת	2780
להג	2781
כדאי	2782
מאמר	2783
ערים	2784
ודעות	2785
##תף	2786
and	2787
קלי	2788
תז	2789
ציל	2790
אותן	2791
טלפון	2792
עץ	2793
ארג	2794
מוכר	2795
זיה	2796
הבעיה	2797
ככה	2798
והיא	2799
נשק	2800
דיק	2801
גנ	2802
לחזור	2803
אנושי	2804
מיד	2805
גודל	2806
ייתכן	2807
de	2808
לגרום	2809
com	2810
לון	2811
עלול	2812
##סיף	2813
הוסיף	2814
עיד	2815
le	2816
ומי	2817
##הי	2818
מבקש	2819
אומרת	2820
קהילה	2821
פנימי	2822
עמוק	2823
ודרני	2824
חומ	2825
##יני	2826
##חוד	2827
סיכון	2828
יחידה	2829
ויש	2830
רוסיה	2831
והם	2832
עור	2833
והמ	2834
שחקים	2835
נוספת	2836
מאות	2837
בגיל	2838
##גיעה	2839
##אם	2840
שכח	2841
כלפי	2842
אנג	2843
זוהי	2844
ויזיה	2845
אתר	2846
הקשר	2847
עמוד	2848
##us	2849
##ריכ	2850
שאר	2851
שיעור	2852
מחוץ	2853
העם	2854
רצח	2855
##גרת	2856
##ארד	2857
רכי	2858
למען	2859
בעצ	2860
ראו	2861
צרפת	2862
משקל	2863
רמת	2864
לבחור	2865
דם	2866
מיני	2867
תלוי	2868
15	2869
רחוק	2870
מגוון	2871
היחי	2872
שפחה	2873
היחיד	2874
ליארד	2875
מפתח	2876
אכן	2877
מסגרת	2878
הגב	2879
הקר	2880
ולו	2881
משך	2882
הסת	2883
משטרה	2884
עירים	2885
הנשיא	2886
מהמ	2887
מראה	2888
##טנ	2889
מפע	2890
##כור	2891
ירד	2892
תוכני	2893
נוכחי	2894
עונ	2895
ורק	2896
באותה	2897
##כול	2898
תגובה	2899
בהתאם	2900
וכל	2901
שבת	2902
סין	2903
רגל	2904
##ופל	2905
שיתוף	2906
מבט	2907
ערה	2908
קטנה	2909
במי	2910
כבד	2911
##שיר	2912
עלות	2913
מכשיר	2914
זוג	2915
אמרו	2916
אלב	2917
ייט	2918
ניתוח	2919
ממה	2920
ראיתי	2921
המחקר	2922
טווח	2923
נהר	2924
ארב	2925
תנועה	2926
עין	2927
הסיבה	2928
זוכר	2929
פטר	2930
ולים	2931
שוי	2932
שבוע	2933
בארה	2934
גש	2935
##ותף	2936
להש	2937
ויד	2938
בהן	2939
דוק	2940
רסיטת	2941
שמות	2942
קהיל	2943
זרחים	2944
סוכנ	2945
הנו	2946
תקי	2947
עצב	2948
חלוק	2949
סביבה	2950
ברגע	2951
לספק	2952
##ליק	2953
שינה	2954
##וצע	2955
ממוצע	2956
בסדר	2957
וות	2958
כז	2959
בעיר	2960
לבן	2961
ic	2962
תחרות	2963
12	2964
טרט	2965
אלף	2966
ביל	2967
כונות	2968
וזיקה	2969
גרם	2970
ציר	2971
החד	2972
ניצ	2973
פרופ	2974
ריב	2975
תיא	2976
מחלה	2977
##חב	2978
קהל	2979
טרטגי	2980
##ופי	2981
למעלה	2982
בואו	2983
מנסה	2984
לעומת	2985
מטרות	2986
הלו	2987
גוף	2988
חיובי	2989
מוביל	2990
רוד	2991
שאת	2992
קבוע	2993
ועוד	2994
פרטים	2995
מטוס	2996
ro	2997
חמד	2998
האתר	2999
שיו	3000
מוג	3001
קיי	3002
תעופה	3003
ייצור	3004
לתוך	3005
הקרוב	3006
גיד	3007
לנס	3008
לצאת	3009
אזר	3010
מצרים	3011
חפ	3012
צוי	3013
פס	3014
שמי	3015
שמו	3016
משמש	3017
תקן	3018
המאה	3019
למנוע	3020
שבע	3021
להביא	3022
ישנם	3023
פועל	3024
קיץ	3025
צרפ	3026
ארבעה	3027
דיווח	3028
הקו	3029
רצונ	3030
דנ	3031
רוע	3032
קטנים	3033
לגמ	3034
בריטנ	3035
לילה	3036
ריח	3037
עזרה	3038
פתח	3039
##ct	3040
קודות	3041
סביר	3042
##מלי	3043
ולל	3044
שפט	3045
עיתים	3046
לגמרי	3047
or	3048
##טיס	3049
צרפתי	3050
ושר	3051
טור	3052
כס	3053
שאינ	3054
שכנ	3055
זמין	3056
מוקד	3057
אזרחי	3058
מעמד	3059
גא	3060
מלון	3061
##סיק	3062
מצליח	3063
סופר	3064
לשם	3065
סיכוי	3066
ובל	3067
נן	3068
בארץ	3069
חוצ	3070
פיל	3071
##ut	3072
עשיר	3073
שמש	3074
מכר	3075
לחם	3076
תקופת	3077
ed	3078
כור	3079
שמר	3080
דתי	3081
לול	3082
תס	3083
##בור	3084
אישית	3085
ונה	3086
שופ	3087
סרטן	3088
ארגונ	3089
דח	3090
בועות	3091
ירא	3092
עליה	3093
שווה	3094
רוחני	3095
אסור	3096
##חלט	3097
החדשה	3098
דפ	3099
עליך	3100
איתנו	3101
שקט	3102
פוליט	3103
for	3104
תקשר	3105
ונג	3106
##ot	3107
מאבק	3108
הופך	3109
גלה	3110
לם	3111
נמו	3112
אישי	3113
הסביר	3114
וסף	3115
רגשות	3116
קבלת	3117
mi	3118
טומ	3119
##קוח	3120
יהן	3121
כרטיס	3122
בשר	3123
בהחלט	3124
שנית	3125
שניים	3126
עולות	3127
שליטה	3128
יצירת	3129
גו	3130
הרכב	3131
מספק	3132
דורש	3133
להגי	3134
חייו	3135
##וגר	3136
בהי	3137
מכיל	3138
הלב	3139
מורכב	3140
להגיד	3141
הדי	3142
חוב	3143
ריצ	3144
ונן	3145
פאר	3146
דרוש	3147
החליט	3148
ar	3149
דה	3150
שח	3151
בשנים	3152
עדיף	3153
קבוצת	3154
השם	3155
ירת	3156
משפטי	3157
היכ	3158
מאה	3159
ייס	3160
סר	3161
איזו	3162
אלפי	3163
מתו	3164
יתה	3165
וגר	3166
כותב	3167
לאכול	3168
מטופל	3169
ראשית	3170
דלת	3171
יחודי	3172
לסי	3173
צליח	3174
ניח	3175
מקורי	3176
מעור	3177
##גישה	3178
תעורר	3179
פיק	3180
יודעת	3181
סייע	3182
בטח	3183
שיבות	3184
דרום	3185
ישום	3186
אופן	3187
##ck	3188
ביא	3189
דיבר	3190
רותים	3191
כלכל	3192
ארוך	3193
ופול	3194
ריקני	3195
מופיע	3196
ביקש	3197
תקנ	3198
קרקע	3199
סדרה	3200
ביטוי	3201
בשלב	3202
וקרים	3203
סון	3204
רשות	3205
זמינ	3206
מתאים	3207
טובות	3208
יוצא	3209
כבי	3210
ירותי	3211
הגיעו	3212
מזל	3213
לכתוב	3214
התנגד	3215
ציות	3216
שדה	3217
העביר	3218
מבנה	3219
se	3220
מומ	3221
יימים	3222
אמונה	3223
##אימ	3224
הישאר	3225
בוד	3226
ירוק	3227
מושג	3228
תוש	3229
מתן	3230
ריה	3231
##la	3232
תנאים	3233
בסיסי	3234
רווי	3235
הבאה	3236
מלאה	3237
שפחות	3238
בחינה	3239
חולים	3240
בעצם	3241
שמאל	3242
ייך	3243
מתרחש	3244
סמכ	3245
זיהו	3246
tion	3247
יילים	3248
ספי	3249
לקנות	3250
וצג	3251
יסוד	3252
##וו	3253
המע	3254
מסת	3255
בחירה	3256
היטב	3257
חט	3258
מתחת	3259
ידת	3260
50	3261
li	3262
ום	3263
ריד	3264
ארי	3265
בטיח	3266
##ושי	3267
התחלה	3268
עשיית	3269
היות	3270
עלמ	3271
הטבע	3272
איחוד	3273
מעשי	3274
סיק	3275
מרחק	3276
נשמע	3277
המים	3278
לבנות	3279
חוו	3280
פורט	3281
ביטוח	3282
ווע	3283
חיה	3284
תן	3285
טראמפ	3286
זב	3287
נוצר	3288
שמע	3289
בנה	3290
לימות	3291
נהג	3292
קיימת	3293
הוכ	3294
הני	3295
תנאי	3296
ברז	3297
לשחק	3298
מבצע	3299
דיר	3300
ענ	3301
דיון	3302
קפה	3303
במצב	3304
חקנים	3305
האד	3306
בחודש	3307
שויים	3308
אקד	3309
אקדמי	3310
עצמנו	3311
זיא	3312
אנטי	3313
תשלום	3314
##מנע	3315
זיאון	3316
לעבור	3317
נאמר	3318
בראש	3319
גרוע	3320
ליי	3321
מאמין	3322
מועמד	3323
רשימה	3324
נציאל	3325
כוונ	3326
שיפור	3327
גול	3328
פתע	3329
מעורב	3330
גיט	3331
חזרה	3332
עוצ	3333
נכונה	3334
שאי	3335
בידי	3336
אפר	3337
ומן	3338
נצל	3339
שהיו	3340
מקווה	3341
הביתה	3342
מערבי	3343
אמת	3344
תוכן	3345
ונדון	3346
קטר	3347
##וקא	3348
השבוע	3349
במס	3350
דווקא	3351
להגן	3352
we	3353
כח	3354
חג	3355
אחראי	3356
אבד	3357
כוני	3358
לין	3359
היכנס	3360
כונית	3361
עורר	3362
לוט	3363
ation	3364
עשרה	3365
בפעם	3366
נחשב	3367
פים	3368
סוריה	3369
לנסות	3370
ושבים	3371
פוסט	3372
קף	3373
עצמכם	3374
שמה	3375
שלם	3376
סיפר	3377
ילא	3378
פשרוי	3379
נבחר	3380
ביחד	3381
שיה	3382
##חרי	3383
פרסום	3384
יקורת	3385
דוגמא	3386
ינואר	3387
שלח	3388
רדה	3389
כוכ	3390
ובב	3391
פורסם	3392
יטר	3393
סוגי	3394
בזה	3395
לוג	3396
di	3397
יוצר	3398
קדם	3399
משפיע	3400
גרס	3401
וין	3402
כזו	3403
המטרה	3404
מאמ	3405
שומר	3406
חקרים	3407
הרוג	3408
סכים	3409
נקודת	3410
el	3411
עסקי	3412
תשומת	3413
רכיש	3414
להס	3415
נזק	3416
שלוח	3417
הפסיק	3418
תכנ	3419
גמר	3420
שיל	3421
חרונה	3422
su	3423
הרש	3424
הכנס	3425
בתור	3426
פורמ	3427
חזור	3428
מך	3429
השר	3430
יתי	3431
פריקה	3432
##ביב	3433
יקום	3434
בחינת	3435
is	3436
un	3437
בעלות	3438
שחקן	3439
ינוי	3440
נאה	3441
תני	3442
הופכ	3443
טן	3444
כפר	3445
מיר	3446
קיר	3447
ריירה	3448
קלים	3449
פטמבר	3450
נקי	3451
יזם	3452
רל	3453
לשלם	3454
ופולר	3455
מהו	3456
יינ	3457
צבא	3458
לאו	3459
יימ	3460
הגדר	3461
פרטי	3462
בריטי	3463
עברו	3464
ענק	3465
פו	3466
זהיר	3467
גזע	3468
ניק	3469
אדמ	3470
מוכן	3471
מוגבל	3472
עוצמ	3473
רוך	3474
##קנ	3475
כלכלה	3476
הסכמ	3477
שיער	3478
הלאומ	3479
משבר	3480
לבו	3481
בשבוע	3482
דצ	3483
עלם	3484
חשבתי	3485
נקודה	3486
שיהיה	3487
נפר	3488
נתן	3489
זכה	3490
פרו	3491
רז	3492
##ad	3493
מטרת	3494
נצח	3495
מונח	3496
נפרד	3497
דון	3498
ורה	3499
קורות	3500
שויות	3501
מחלות	3502
סמים	3503
זהב	3504
הדין	3505
חם	3506
רוק	3507
כלא	3508
הריון	3509
אלבום	3510
דצמבר	3511
11	3512
שגר	3513
יפים	3514
פול	3515
יהו	3516
לפע	3517
מבלי	3518
לגל	3519
רמות	3520
היכן	3521
קטובר	3522
מסוים	3523
לידה	3524
לשפר	3525
צמח	3526
ניות	3527
תקיים	3528
מוקדם	3529
לפעול	3530
la	3531
שכר	3532
משימה	3533
רון	3534
שכן	3535
כלום	3536
ישנ	3537
לשמוע	3538
סבל	3539
ואף	3540
הכסף	3541
##וסט	3542
קורס	3543
אוהבת	3544
כביש	3545
טה	3546
ואל	3547
פרסם	3548
פרט	3549
טיל	3550
וצאת	3551
טעם	3552
נותן	3553
צעיר	3554
ניסוי	3555
טיול	3556
מתאימ	3557
צבאי	3558
בנות	3559
תומ	3560
היי	3561
ריע	3562
מכתב	3563
יטל	3564
בנוגע	3565
ותה	3566
מהיר	3567
יניהם	3568
מניע	3569
פארק	3570
קטרונ	3571
##תיד	3572
גרמני	3573
רעיונ	3574
שופט	3575
הוביל	3576
זורים	3577
רצו	3578
איננו	3579
איתו	3580
שׁ	3581
##ir	3582
##סטי	3583
ערות	3584
רסיטה	3585
מסעד	3586
ידה	3587
שוא	3588
סרטים	3589
קמפ	3590
החשוב	3591
18	3592
יוח	3593
חיק	3594
במאי	3595
קרן	3596
שתתפ	3597
פשט	3598
me	3599
הוציא	3600
סא	3601
צמי	3602
פעל	3603
תפי	3604
משכ	3605
מסל	3606
ריפ	3607
בירה	3608
דל	3609
טון	3610
כירות	3611
מילה	3612
נותר	3613
קבלים	3614
מסלול	3615
נוב	3616
פצי	3617
מחש	3618
חלטות	3619
יעד	3620
הימנע	3621
ורש	3622
חנות	3623
קלה	3624
וכך	3625
וספות	3626
ספינ	3627
##צג	3628
הרפ	3629
טנ	3630
you	3631
ובמבר	3632
חמישה	3633
ng	3634
רדי	3635
שותפ	3636
לוס	3637
סיוע	3638
הקשור	3639
אתגר	3640
שמים	3641
יסב	3642
נפש	3643
נמצאת	3644
לרוב	3645
דירה	3646
חיות	3647
מסוג	3648
זמנים	3649
ובי	3650
נהדר	3651
אינן	3652
ph	3653
בער	3654
נוכל	3655
שמחה	3656
אים	3657
הבאים	3658
es	3659
גלי	3660
##id	3661
ימון	3662
סטרלי	3663
רביע	3664
מצאו	3665
ופס	3666
רחוב	3667
אדום	3668
צילום	3669
רביעי	3670
סד	3671
וקמ	3672
בטל	3673
##ent	3674
לשים	3675
עוס	3676
שלטון	3677
גזר	3678
הינו	3679
און	3680
סנ	3681
קנה	3682
יציב	3683
הטובה	3684
וים	3685
המון	3686
לפתח	3687
גדיר	3688
יונ	3689
לונות	3690
מטה	3691
רופא	3692
בעתיד	3693
מחו	3694
ופים	3695
לצד	3696
הודעה	3697
מודל	3698
40	3699
המוח	3700
ישוע	3701
אמי	3702
אויב	3703
העסק	3704
חקלא	3705
יקרה	3706
ריס	3707
הצבע	3708
וריד	3709
וחר	3710
חלום	3711
כניסה	3712
סטי	3713
חינם	3714
הבנה	3715
ההת	3716
הופיע	3717
פותח	3718
איי	3719
הפכו	3720
וננ	3721
חשבות	3722
האמין	3723
נכס	3724
יחסים	3725
מיתית	3726
רן	3727
רגיש	3728
תום	3729
האוכל	3730
לעמוד	3731
דבריו	3732
ערבים	3733
עודד	3734
##ess	3735
דוח	3736
##עים	3737
שיח	3738
הרא	3739
קצב	3740
סעי	3741
כלים	3742
משיך	3743
ex	3744
אישור	3745
חמור	3746
מביא	3747
ישן	3748
מועצ	3749
שבהם	3750
חוויה	3751
עקר	3752
קוט	3753
מימ	3754
מערב	3755
הטכנו	3756
עצמאי	3757
יוכלו	3758
אודות	3759
מאושר	3760
החלו	3761
קק	3762
##um	3763
לגלות	3764
התי	3765
ניתנ	3766
עשייה	3767
יכרון	3768
ta	3769
פעיל	3770
פציפי	3771
חוף	3772
הזמנ	3773
be	3774
והת	3775
מחפש	3776
שילוב	3777
מחשבה	3778
אול	3779
גידול	3780
עליי	3781
וויר	3782
גוע	3783
וגע	3784
בולות	3785
סתכל	3786
סעיף	3787
##טח	3788
תקבל	3789
ושל	3790
החלק	3791
פורסמ	3792
גמ	3793
סטיב	3794
מפלגה	3795
לאי	3796
שיחה	3797
בעזרת	3798
רציתי	3799
ממנה	3800
צדדים	3801
זמני	3802
כוס	3803
##נסי	3804
פיזי	3805
חוקים	3806
מלאכ	3807
סגנון	3808
גדיל	3809
יקה	3810
רבי	3811
רמו	3812
סיום	3813
עצר	3814
אמצעי	3815
נמוך	3816
ייג	3817
חושבת	3818
שגם	3819
צה	3820
בטא	3821
עסוק	3822
בך	3823
סקר	3824
ליז	3825
ולדת	3826
תחום	3827
יצר	3828
מוצר	3829
לבדוק	3830
25	3831
רץ	3832
המלך	3833
##ויק	3834
תיכון	3835
ניג	3836
ידיים	3837
מדויק	3838
בבוקר	3839
יתרונ	3840
רעה	3841
ראיי	3842
ייכ	3843
חייבת	3844
רוויח	3845
אושר	3846
לבס	3847
חשובה	3848
עליון	3849
במידה	3850
גורי	3851
תיר	3852
משותפ	3853
יסטי	3854
מועד	3855
חמא	3856
co	3857
יבה	3858
בנק	3859
חייהם	3860
למים	3861
הנד	3862
וטל	3863
חיוני	3864
רכבת	3865
הנדס	3866
תחי	3867
תקווה	3868
טענ	3869
ספקת	3870
na	3871
##ציב	3872
##בח	3873
שיטות	3874
הרוח	3875
לווי	3876
תקציב	3877
הודיע	3878
טעות	3879
מהי	3880
השמש	3881
##ועד	3882
התע	3883
לעז	3884
מטבע	3885
דמות	3886
עזה	3887
קבע	3888
שרא	3889
סיים	3890
מקב	3891
הקוד	3892
קרנ	3893
תרג	3894
ידור	3895
עשרות	3896
sp	3897
האיש	3898
ולד	3899
שמונה	3900
וצאים	3901
pro	3902
אשת	3903
רנ	3904
##lo	3905
חשמל	3906
שוואה	3907
רוז	3908
אכל	3909
שד	3910
בניו	3911
שיווק	3912
nt	3913
ענה	3914
שלילי	3915
לאדם	3916
המכ	3917
מצלמ	3918
מבוגר	3919
עימ	3920
אומית	3921
##פו	3922
טיקה	3923
אבו	3924
קופ	3925
המר	3926
מפגש	3927
גרמ	3928
עדיפ	3929
סגור	3930
חצ	3931
צא	3932
כיש	3933
בוק	3934
דמה	3935
סוי	3936
עובר	3937
##ht	3938
בקלות	3939
צוד	3940
רימ	3941
וכיח	3942
ועצ	3943
תפס	3944
הור	3945
טט	3946
מציג	3947
חות	3948
##se	3949
וכנים	3950
הלילה	3951
ושאים	3952
טיב	3953
כשא	3954
תער	3955
כננ	3956
יסבוק	3957
רך	3958
איבד	3959
עתה	3960
לאור	3961
בשוק	3962
כולו	3963
יסט	3964
לספר	3965
טען	3966
נושות	3967
פסיכו	3968
עוסק	3969
הערבי	3970
בדיקה	3971
לקראת	3972
רטי	3973
ראות	3974
ממשי	3975
עילוי	3976
שיטה	3977
אמנ	3978
חשש	3979
נמל	3980
רלו	3981
##ur	3982
למקום	3983
יוני	3984
יננסי	3985
אפריל	3986
יטה	3987
שלושת	3988
הצבא	3989
mo	3990
משו	3991
ועם	3992
נפלא	3993
שער	3994
אופנ	3995
איתם	3996
פסיק	3997
התמ	3998
פירוש	3999
השפיע	4000
ורו	4001
בניין	4002
אבק	4003
רבותי	4004
שניתן	4005
בדר	4006
ביב	4007
מהן	4008
##תיק	4009
חייה	4010
העתיק	4011
הכוח	4012
קישור	4013
יפש	4014
סוגים	4015
יירות	4016
הרב	4017
ראשי	4018
מחר	4019
הגר	4020
סכימ	4021
רוט	4022
וקם	4023
נותנ	4024
וגרפי	4025
במר	4026
חלי	4027
עדר	4028
קא	4029
האס	4030
מסחר	4031
וכו	4032
גנטי	4033
רום	4034
ורים	4035
מרא	4036
לשע	4037
תחושה	4038
שראלי	4039
זון	4040
קוי	4041
##כז	4042
בערך	4043
במרכז	4044
טפל	4045
##ia	4046
ראים	4047
ציין	4048
כרגע	4049
ערכים	4050
קולו	4051
ity	4052
13	4053
טקס	4054
הניח	4055
נכתב	4056
הסתכל	4057
שאינם	4058
זול	4059
יות	4060
תאי	4061
יומי	4062
חוזר	4063
חתול	4064
הנושא	4065
גוש	4066
מהווה	4067
חליף	4068
14	4069
השק	4070
מעלה	4071
כלוסי	4072
יחיד	4073
ra	4074
וזר	4075
ימין	4076
חלקים	4077
שחרר	4078
הראשי	4079
שהי	4080
ההבד	4081
מותו	4082
קשיב	4083
ההבדל	4084
em	4085
רוג	4086
תורה	4087
ותק	4088
ואין	4089
ירח	4090
סכום	4091
חפשים	4092
כפ	4093
##ונא	4094
ארד	4095
בתים	4096
רפא	4097
וסייה	4098
מפעל	4099
כימי	4100
ברואר	4101
נוגע	4102
חבל	4103
שאם	4104
ניי	4105
חלת	4106
מלי	4107
וידאו	4108
רדת	4109
לאפשר	4110
יתונא	4111
ארוחת	4112
זן	4113
יך	4114
בחוץ	4115
לבסוף	4116
##וסי	4117
משותף	4118
לנצ	4119
רפואה	4120
סתם	4121
למנט	4122
עשרים	4123
ועלים	4124
וול	4125
צורה	4126
הנח	4127
שניהם	4128
תרגל	4129
החזיר	4130
הליכ	4131
עקרונ	4132
חום	4133
ינס	4134
אתרים	4135
##ריז	4136
השיר	4137
שאפשר	4138
לנצח	4139
טכ	4140
קדי	4141
הפע	4142
חלקי	4143
עברי	4144
דף	4145
המילה	4146
תקדם	4147
פיצ	4148
מרב	4149
חורה	4150
טו	4151
סוק	4152
##im	4153
ותיו	4154
נסיעה	4155
תושבי	4156
wor	4157
חב	4158
עת	4159
מכוני	4160
בלע	4161
et	4162
po	4163
לף	4164
סמך	4165
לשעבר	4166
קיד	4167
יבת	4168
נדיר	4169
יכל	4170
סם	4171
ארכ	4172
ספרי	4173
כוכב	4174
מקביל	4175
so	4176
טייל	4177
תחומי	4178
לסייע	4179
סמוך	4180
ראית	4181
העבר	4182
לבקר	4183
הנכון	4184
וקה	4185
בחדר	4186
המשך	4187
יטליה	4188
ad	4189
השי	4190
ועלת	4191
הודו	4192
קליפ	4193
אזרח	4194
סן	4195
האור	4196
ואלי	4197
יפן	4198
ent	4199
##ומנ	4200
רקע	4201
גיע	4202
מושלם	4203
בפי	4204
כלבים	4205
סקס	4206
פתיע	4207
בים	4208
משנת	4209
##טרף	4210
הצטרף	4211
וסעים	4212
יבש	4213
ולאחר	4214
ווים	4215
צמיחה	4216
אתמ	4217
העני	4218
בחור	4219
עיני	4220
משאב	4221
כשהוא	4222
זרים	4223
ישוב	4224
והן	4225
בהמשך	4226
בלילה	4227
חשבונ	4228
צטרך	4229
חיל	4230
##חתי	4231
להכיר	4232
ורפ	4233
הערכ	4234
וספת	4235
שפחתי	4236
בזכות	4237
כיב	4238
קשות	4239
ותו	4240
המוצר	4241
ביס	4242
יסק	4243
אתמול	4244
##ft	4245
המצ	4246
לווה	4247
זוכ	4248
ילדה	4249
חוות	4250
בחברה	4251
בחיי	4252
lo	4253
שורה	4254
הרופא	4255
תיים	4256
מצט	4257
בקרים	4258
דעו	4259
סוד	4260
סחר	4261
תנוע	4262
כוללת	4263
דווח	4264
נפגע	4265
ימות	4266
חתונה	4267
##לץ	4268
ברמה	4269
אמנם	4270
תרומ	4271
פלא	4272
האדמה	4273
מרחב	4274
אורג	4275
סטרו	4276
חמישי	4277
דלק	4278
וגל	4279
חיבור	4280
##אול	4281
מוזר	4282
לשאול	4283
וגרים	4284
ויט	4285
תחייב	4286
16	4287
מנוע	4288
מרכיב	4289
סמל	4290
כנסת	4291
רמה	4292
##li	4293
מידה	4294
ובכ	4295
הצורך	4296
וריא	4297
מראש	4298
מחצ	4299
ושש	4300
ודה	4301
חליט	4302
משה	4303
אליהם	4304
מסך	4305
לחפש	4306
מכירה	4307
וכחות	4308
מזכיר	4309
סוכן	4310
השאיר	4311
בצד	4312
תצ	4313
בינים	4314
הפוך	4315
ברר	4316
הקונ	4317
וסדות	4318
וקס	4319
לזכור	4320
התמקד	4321
goo	4322
בודות	4323
נוי	4324
רציני	4325
נסה	4326
זהות	4327
החלה	4328
גישות	4329
דורגל	4330
דרכו	4331
פתיח	4332
בהיר	4333
פתרונ	4334
ירידה	4335
no	4336
ווק	4337
פגש	4338
תות	4339
המא	4340
לומ	4341
מחזיק	4342
ידעתי	4343
one	4344
תפיס	4345
עלו	4346
ורכי	4347
הסבר	4348
ושם	4349
פתא	4350
ידו	4351
שולחן	4352
מהפכה	4353
wh	4354
וותר	4355
חוד	4356
עורך	4357
רישות	4358
הצו	4359
בקרוב	4360
לדברי	4361
העניק	4362
בוב	4363
יופי	4364
##פות	4365
מיומנ	4366
זכור	4367
מוסרי	4368
מרבית	4369
ָה	4370
בשנות	4371
חלל	4372
קטנות	4373
כוה	4374
חלב	4375
לצי	4376
תכו	4377
תכנון	4378
הכללי	4379
כרז	4380
פחית	4381
המחיר	4382
קובע	4383
כוהול	4384
אורה	4385
ושי	4386
עוני	4387
כלה	4388
ישאר	4389
ולש	4390
דיש	4391
שוטר	4392
רטיות	4393
מונים	4394
סח	4395
ובדות	4396
לבוא	4397
הצביע	4398
רעב	4399
מנסים	4400
ניצחו	4401
ביוני	4402
אליה	4403
ניש	4404
יקוד	4405
עוזר	4406
נמוכה	4407
##נד	4408
התרחש	4409
לבוש	4410
דיקות	4411
24	4412
לן	4413
התקדמ	4414
סורתי	4415
כוונה	4416
הסיני	4417
מאמץ	4418
סנט	4419
תאים	4420
הרגע	4421
שירים	4422
כתובת	4423
חורף	4424
יוחדת	4425
ניגוד	4426
סול	4427
צל	4428
בקש	4429
ולין	4430
גורל	4431
ולוגי	4432
רדיו	4433
הבל	4434
עזור	4435
תפתח	4436
הפכה	4437
הבנק	4438
ומחים	4439
יצב	4440
לצפות	4441
סוימת	4442
רלוונ	4443
שהן	4444
דרש	4445
הדור	4446
לפתוח	4447
ייב	4448
תדר	4449
וינ	4450
ופאים	4451
נפוצ	4452
עלים	4453
השוק	4454
גיי	4455
תנהל	4456
מעבד	4457
יתן	4458
וחרים	4459
ce	4460
man	4461
גוב	4462
עון	4463
תקר	4464
##pp	4465
ריש	4466
רבנ	4467
בחנ	4468
הודות	4469
לוי	4470
נפתח	4471
רינ	4472
תומכ	4473
תקרב	4474
במש	4475
ינט	4476
מהות	4477
ובכל	4478
יתות	4479
פתאום	4480
המפ	4481
מומלץ	4482
וויות	4483
יים	4484
ביי	4485
מינ	4486
ישב	4487
מחוז	4488
מוצא	4489
win	4490
דריכ	4491
פסק	4492
צורת	4493
בימים	4494
בבק	4495
הנהג	4496
להציל	4497
עידן	4498
ולת	4499
##זרה	4500
בחזרה	4501
סכנה	4502
מנע	4503
לטפל	4504
נייד	4505
חכ	4506
לוצ	4507
מסקנ	4508
טובוס	4509
ונק	4510
הגיעה	4511
מותר	4512
רדו	4513
שקר	4514
ולם	4515
מחנה	4516
יהנות	4517
תגורר	4518
אכיל	4519
עונש	4520
גיא	4521
יוש	4522
עגל	4523
אלצ	4524
עשיתי	4525
גלגל	4526
וור	4527
מלה	4528
הרצ	4529
לעצ	4530
במזרח	4531
דרמ	4532
ציור	4533
נהלים	4534
דעתי	4535
גובות	4536
con	4537
יאו	4538
אום	4539
קיום	4540
עברה	4541
כלב	4542
ורט	4543
ובש	4544
לכולם	4545
מגדל	4546
נורא	4547
תקיימ	4548
טורקי	4549
תערוכ	4550
תכוונ	4551
הידע	4552
שהמ	4553
הקמת	4554
וכבים	4555
מזג	4556
מוצלח	4557
מחויב	4558
ייה	4559
ליב	4560
שואה	4561
סימן	4562
עלייה	4563
צעדים	4564
פלט	4565
בודד	4566
לוא	4567
צוע	4568
##ציה	4569
ותיה	4570
ולנוע	4571
ספים	4572
צרות	4573
רשתות	4574
ועדון	4575
אשתו	4576
הרה	4577
הפנים	4578
עשית	4579
קודש	4580
##art	4581
הקודמ	4582
גג	4583
הדם	4584
ביולי	4585
העלות	4586
מרץ	4587
נקים	4588
ואתה	4589
מדהים	4590
לופ	4591
ישיות	4592
וריו	4593
למשך	4594
בלה	4595
ניב	4596
פצ	4597
השאר	4598
ריסט	4599
מחלק	4600
ילות	4601
כשל	4602
עזב	4603
am	4604
ולנ	4605
הכר	4606
עדכ	4607
קיומ	4608
תאריך	4609
עשויה	4610
מובן	4611
להק	4612
מיועד	4613
רשם	4614
שומע	4615
חולה	4616
קדש	4617
מאחר	4618
דיפ	4619
דברי	4620
ושוב	4621
והר	4622
ייצר	4623
וכח	4624
הרגו	4625
אביו	4626
חובה	4627
סודות	4628
רם	4629
תיבה	4630
האלו	4631
הרס	4632
החי	4633
כתבה	4634
קנא	4635
לנהל	4636
מסחרי	4637
חיש	4638
הזוג	4639
הוכח	4640
web	4641
השקעה	4642
דים	4643
ונס	4644
חכמ	4645
צור	4646
שיא	4647
מיקום	4648
תפל	4649
צירתי	4650
קידום	4651
רה	4652
מלבד	4653
הדמ	4654
האישה	4655
האינט	4656
נושית	4657
אקו	4658
הצבאי	4659
בוה	4660
גדה	4661
רוכ	4662
לאה	4663
מתאר	4664
מחכ	4665
טובת	4666
הולנד	4667
וסיקה	4668
כחול	4669
יימס	4670
תגר	4671
##ge	4672
##ירים	4673
שאינו	4674
לבקש	4675
הקד	4676
לחיים	4677
הדו	4678
גביר	4679
תנד	4680
קדימה	4681
דגיש	4682
פגיעה	4683
##ודא	4684
האג	4685
שהת	4686
חשבו	4687
צער	4688
מוצרי	4689
תאונ	4690
ענו	4691
ייק	4692
דידות	4693
פשע	4694
פסיד	4695
זכרו	4696
הקדוש	4697
dow	4698
מיקר	4699
אמון	4700
פעמי	4701
בנייה	4702
זל	4703
מירה	4704
ברצ	4705
מקו	4706
מכון	4707
טיסה	4708
ביחס	4709
מיקרו	4710
ca	4711
גוסט	4712
טוח	4713
סומ	4714
היב	4715
שיטת	4716
מלך	4717
מלכה	4718
בניית	4719
יקח	4720
טרם	4721
עליכם	4722
אבט	4723
דירות	4724
להצי	4725
מתקדמ	4726
ספרד	4727
מטרים	4728
רעיני	4729
נגליה	4730
זיק	4731
להציג	4732
חכם	4733
לות	4734
עריכ	4735
שן	4736
מאת	4737
חשיבה	4738
וסט	4739
בחון	4740
רכש	4741
אינדי	4742
בקשה	4743
הכרה	4744
עריך	4745
להר	4746
תחל	4747
קיפ	4748
יבוד	4749
אסיר	4750
בכדי	4751
גיטלי	4752
us	4753
ופר	4754
הבדל	4755
ופק	4756
יאן	4757
יאורי	4758
תוכנה	4759
משיכה	4760
טקסט	4761
צטרפ	4762
חקר	4763
קח	4764
כזב	4765
הערכה	4766
גשר	4767
##un	4768
שיק	4769
הראות	4770
בעה	4771
לעצור	4772
ילדות	4773
שפות	4774
עיתונ	4775
טומטי	4776
אבטחה	4777
טש	4778
מם	4779
כלשהו	4780
התו	4781
ריטים	4782
ציוד	4783
בלעדי	4784
בּ	4785
קמ	4786
איון	4787
ייש	4788
לקו	4789
נגטון	4790
גופני	4791
במספר	4792
שוח	4793
ובליק	4794
ייפ	4795
מצבים	4796
ופעות	4797
אבן	4798
כנסי	4799
קריאה	4800
צודק	4801
תפלל	4802
בוהים	4803
לרכ	4804
מסביר	4805
וגד	4806
מיידי	4807
זנ	4808
קושי	4809
לאן	4810
אימפ	4811
ריג	4812
וואי	4813
לולה	4814
נדי	4815
סקי	4816
שלמת	4817
השקע	4818
ורמלי	4819
מעשה	4820
חזית	4821
יעשה	4822
אורח	4823
בדק	4824
דוקט	4825
רנק	4826
סכסו	4827
מנכ	4828
חטא	4829
he	4830
הצע	4831
מבטיח	4832
ממני	4833
בסך	4834
אהבת	4835
כיבוש	4836
pl	4837
טא	4838
יבר	4839
פליק	4840
שזו	4841
משח	4842
השקיע	4843
וקפ	4844
וקף	4845
עניק	4846
יתרון	4847
נוחות	4848
נוער	4849
60	4850
as	4851
sc	4852
אחים	4853
בחרו	4854
טנדר	4855
כשאני	4856
השלום	4857
למדת	4858
בשעה	4859
בלב	4860
קטע	4861
בדן	4862
תבצע	4863
דואר	4864
מום	4865
שישי	4866
ברג	4867
מחה	4868
תרופה	4869
אסטר	4870
אפשרת	4871
מטבח	4872
רומא	4873
ותיהם	4874
אתי	4875
ביצע	4876
כלול	4877
שישה	4878
הרים	4879
והפ	4880
יקול	4881
רשימת	4882
חוצה	4883
חודשי	4884
ייל	4885
פד	4886
צוג	4887
ישואי	4888
הקים	4889
ואב	4890
בתוכ	4891
אסר	4892
נסייה	4893
דמוי	4894
תנדב	4895
פגישה	4896
ישור	4897
ובילה	4898
בלנות	4899
יעיל	4900
סדרת	4901
כספי	4902
שואל	4903
יושב	4904
צום	4905
יבור	4906
פשוטה	4907
כנע	4908
עיתון	4909
פגנ	4910
לרכוש	4911
קום	4912
שלהן	4913
שפעת	4914
גרש	4915
יעוד	4916
וניינ	4917
לזהות	4918
לישית	4919
קחו	4920
מחבר	4921
הצד	4922
ופן	4923
בטחת	4924
נפט	4925
נקבע	4926
מושב	4927
קשרים	4928
שחרור	4929
וודאי	4930
זהה	4931
ביו	4932
ישומ	4933
רבן	4934
בגוף	4935
ודעת	4936
לילי	4937
ברוב	4938
תחנ	4939
וער	4940
ממשל	4941
פריז	4942
סופי	4943
חבורה	4944
בבקשה	4945
##לט	4946
שלים	4947
כיף	4948
וכי	4949
פייה	4950
שפע	4951
קלט	4952
לעזוב	4953
מחצית	4954
זינ	4955
ורר	4956
מפקד	4957
פרסמ	4958
רומנ	4959
הצוות	4960
דריך	4961
בשני	4962
לצורך	4963
##all	4964
קראו	4965
ברחוב	4966
רגשתי	4967
חמאס	4968
צאתי	4969
תור	4970
חייל	4971
אשראי	4972
קבלו	4973
גובה	4974
מתנה	4975
ייד	4976
לייצר	4977
גיב	4978
פוץ	4979
שוחר	4980
שמור	4981
במח	4982
ימור	4983
כניק	4984
וברת	4985
תיקון	4986
כזאת	4987
הצעה	4988
הלקוח	4989
ושך	4990
בסין	4991
מותג	4992
ip	4993
יאל	4994
נויות	4995
תמוך	4996
להשת	4997
ליג	4998
בעד	4999
תקל	5000
ינך	5001
תשע	5002
בגדים	5003
צפה	5004
מוקדמ	5005
וועדה	5006
אורגנ	5007
כפת	5008
בינה	5009
לקוח	5010
קצה	5011
תגבר	5012
להציע	5013
בהיסט	5014
ברו	5015
עמדה	5016
חלוקת	5017
גייס	5018
איתי	5019
לאתר	5020
משטר	5021
דינ	5022
ומץ	5023
וסק	5024
כנגד	5025
##and	5026
וטו	5027
נדל	5028
אנדר	5029
ברשת	5030
דיאל	5031
מקובל	5032
נשמה	5033
צפונ	5034
הצלח	5035
תזונה	5036
כון	5037
עילה	5038
איס	5039
שיחות	5040
לכו	5041
סיכו	5042
רשמי	5043
ואיד	5044
שכנע	5045
טנדרט	5046
ri	5047
אשה	5048
נחה	5049
כולה	5050
תחנת	5051
חקירה	5052
לץ	5053
לומות	5054
התקפ	5055
וזרים	5056
איום	5057
אינס	5058
ליטים	5059
אללה	5060
יישב	5061
ומנ	5062
רחבה	5063
השתתף	5064
ודעה	5065
קראי	5066
שקפ	5067
יחסית	5068
לולים	5069
גליים	5070
בץ	5071
גנים	5072
פגע	5073
צירה	5074
##ירי	5075
האה	5076
ישנה	5077
הבאות	5078
שנתי	5079
int	5080
מוסלמ	5081
סמכים	5082
טיחות	5083
שליח	5084
חדות	5085
ציינ	5086
תנחל	5087
לפתור	5088
פגוע	5089
האהבה	5090
מפר	5091
##gl	5092
לאט	5093
ולן	5094
מחזור	5095
רגן	5096
ופעה	5097
עשתה	5098
חולק	5099
צמאות	5100
מייצג	5101
17	5102
הורה	5103
ומדת	5104
חווה	5105
רשמ	5106
החזק	5107
תגרים	5108
סגר	5109
בעלת	5110
הכין	5111
נעצר	5112
לישון	5113
טוענ	5114
לציין	5115
תחלתי	5116
שוחרר	5117
נטי	5118
צומ	5119
ירום	5120
מבחן	5121
תכוון	5122
עילים	5123
אלינו	5124
למידה	5125
מדהימ	5126
חומים	5127
ממשיכ	5128
do	5129
sa	5130
סיה	5131
פנה	5132
ישיים	5133
הערב	5134
יימות	5135
חלקם	5136
השתתפ	5137
תמקד	5138
הרגיל	5139
דענים	5140
הרשמי	5141
טכני	5142
יוט	5143
ליסטי	5144
חידות	5145
רקו	5146
לשתף	5147
לקבוע	5148
חזיר	5149
סמכות	5150
יגה	5151
בטוחה	5152
איים	5153
הראש	5154
מסביב	5155
למכור	5156
שמן	5157
וגדר	5158
יסר	5159
רחבי	5160
השתנ	5161
גברת	5162
יזון	5163
גלובל	5164
תניהו	5165
תרגום	5166
וץ	5167
מורים	5168
סתיים	5169
צצ	5170
##סס	5171
ורחים	5172
אמונ	5173
אפקט	5174
ינק	5175
תערב	5176
החלט	5177
דגים	5178
קילו	5179
שיבה	5180
מידי	5181
הסדר	5182
ינוס	5183
תבסס	5184
מניות	5185
בוס	5186
הודה	5187
וכר	5188
פיד	5189
הלך	5190
דרומ	5191
תקיפ	5192
שגריר	5193
מימון	5194
ועצת	5195
מגע	5196
אתרי	5197
תחבר	5198
ההש	5199
רכיב	5200
cro	5201
וחק	5202
ליך	5203
פרנס	5204
אזורי	5205
וגן	5206
קנדה	5207
תכנן	5208
קשים	5209
ולק	5210
עביר	5211
הכריז	5212
רצוי	5213
משתנה	5214
שעברה	5215
גילוי	5216
אהבתי	5217
לוחמ	5218
צוינ	5219
יראק	5220
יוס	5221
##ul	5222
שיחק	5223
מינית	5224
והה	5225
ספרות	5226
שומן	5227
נובע	5228
בדרום	5229
googl	5230
fi	5231
ge	5232
חשמלי	5233
מכם	5234
וסמ	5235
בפועל	5236
אצבע	5237
100	5238
משחקי	5239
יצול	5240
ממשיך	5241
הריים	5242
מונע	5243
ni	5244
חא	5245
##ba	5246
גיעה	5247
ינני	5248
מזו	5249
שובות	5250
קצרה	5251
וברים	5252
הגבוה	5253
ופה	5254
רחיב	5255
פסיכ	5256
במשחק	5257
oo	5258
פילה	5259
המק	5260
והא	5261
ba	5262
רני	5263
להן	5264
אופי	5265
מאי	5266
ולפ	5267
מכונה	5268
רגשי	5269
אבר	5270
דרי	5271
הון	5272
צמצ	5273
להב	5274
פרה	5275
וגיות	5276
נשלח	5277
פופ	5278
הרוסי	5279
חיד	5280
נייה	5281
הזכות	5282
גרי	5283
יסד	5284
זכו	5285
שוויו	5286
ia	5287
שלכ	5288
ארט	5289
העור	5290
בחלק	5291
חזקה	5292
הלווא	5293
גיבור	5294
דת	5295
שאלו	5296
מחסו	5297
נומ	5298
גינ	5299
אשמ	5300
דגל	5301
טים	5302
ימד	5303
עשים	5304
פוצ	5305
##הר	5306
מינים	5307
עצים	5308
בלו	5309
נפגש	5310
מודע	5311
ובלים	5312
ללה	5313
רר	5314
שימש	5315
סימפ	5316
הצהר	5317
בועי	5318
ודיע	5319
צליחו	5320
כפול	5321
ללקוח	5322
יוון	5323
בבתי	5324
עתידי	5325
ווית	5326
מורת	5327
עמו	5328
המדע	5329
ולג	5330
הוו	5331
בנתי	5332
יזמ	5333
דן	5334
נוצ	5335
רנס	5336
איפ	5337
ניסי	5338
רקט	5339
תקפה	5340
ונצ	5341
יצה	5342
כניס	5343
סתר	5344
שים	5345
תית	5346
נפל	5347
בעיני	5348
התאמ	5349
mar	5350
אטה	5351
לאסי	5352
ורס	5353
פרד	5354
ממלי	5355
בוצע	5356
הפעיל	5357
da	5358
פנות	5359
רסה	5360
שלט	5361
יטול	5362
השראה	5363
גבל	5364
סוס	5365
עמים	5366
ליונ	5367
ורא	5368
עשור	5369
יתך	5370
גבול	5371
רחק	5372
הרשות	5373
ורנ	5374
טלק	5375
קדוש	5376
דמיו	5377
חזיק	5378
צאו	5379
ידיד	5380
פניו	5381
מוסד	5382
טין	5383
הוצא	5384
יפי	5385
סרב	5386
משקיע	5387
סינ	5388
ומדים	5389
בתא	5390
זרח	5391
וזמ	5392
בורג	5393
הארי	5394
שריר	5395
סכו	5396
ברא	5397
מבית	5398
שתנה	5399
טרון	5400
במחקר	5401
הות	5402
ברוח	5403
יתח	5404
זכיר	5405
נסו	5406
וויל	5407
יירים	5408
טוחים	5409
bo	5410
שוף	5411
האב	5412
מתכ	5413
ארק	5414
יסות	5415
שכונ	5416
הבלתי	5417
בות	5418
ערי	5419
למדי	5420
רקים	5421
ומצ	5422
ללים	5423
תחילו	5424
רכוש	5425
טענה	5426
וך	5427
ראנ	5428
הציע	5429
הכלב	5430
משיכו	5431
בצע	5432
וזרת	5433
לתה	5434
אוס	5435
##יבל	5436
ובע	5437
מרים	5438
שקיבל	5439
ותרת	5440
ig	5441
נרי	5442
לקט	5443
וסים	5444
יצור	5445
fa	5446
לאמי	5447
מעתי	5448
ובה	5449
ההר	5450
ימנים	5451
ביטחו	5452
נציג	5453
וטר	5454
יסוי	5455
קריא	5456
דמיי	5457
לעצמו	5458
ונים	5459
לפים	5460
הכרח	5461
דובר	5462
סתיר	5463
בוש	5464
לעבר	5465
תנגד	5466
##est	5467
דומים	5468
מפעיל	5469
דבק	5470
לויות	5471
עמיד	5472
תוס	5473
המל	5474
מתוק	5475
תיימ	5476
חוזה	5477
זונ	5478
נייר	5479
##...	5480
הבר	5481
ינים	5482
רגוני	5483
נער	5484
דני	5485
##ed	5486
ליק	5487
ליוני	5488
לבנו	5489
ואמר	5490
אפל	5491
רגנ	5492
לדא	5493
התקבל	5494
להו	5495
ביה	5496
שיט	5497
הרע	5498
נינו	5499
ומונ	5500
##ill	5501
שינו	5502
ברים	5503
יינו	5504
פיו	5505
יסטים	5506
ציפור	5507
חושת	5508
תאבד	5509
גבלות	5510
חלש	5511
עירו	5512
למצב	5513
ver	5514
ישות	5515
הרחב	5516
מסורת	5517
למות	5518
מתמ	5519
ובדת	5520
לכס	5521
צרו	5522
נוכח	5523
לוצי	5524
עירה	5525
קם	5526
שימה	5527
חובר	5528
יבוא	5529
סוכר	5530
כוב	5531
עג	5532
פלה	5533
פירות	5534
רגישה	5535
שור	5536
היד	5537
וגה	5538
האישי	5539
דרגה	5540
hi	5541
הליך	5542
רורה	5543
בינו	5544
שיפ	5545
קרות	5546
יטב	5547
טרק	5548
צאה	5549
שותף	5550
כינ	5551
מוט	5552
מכך	5553
ושע	5554
צות	5555
האש	5556
ירו	5557
סטרי	5558
רמי	5559
להח	5560
לידי	5561
אנא	5562
עצם	5563
ירק	5564
וגש	5565
מדד	5566
פריט	5567
צרכים	5568
יטי	5569
שלמה	5570
וסל	5571
tr	5572
וטי	5573
הממש	5574
הנס	5575
מרק	5576
עולמ	5577
הממשל	5578
יול	5579
כנה	5580
לנט	5581
תון	5582
באה	5583
לוודא	5584
שימות	5585
כרחי	5586
מיע	5587
והל	5588
יכם	5589
דיכ	5590
##ome	5591
מפרט	5592
פצע	5593
צוב	5594
הפרטי	5595
הגיש	5596
רת	5597
ופנה	5598
גיש	5599
בסרט	5600
החלטת	5601
וגי	5602
סוציא	5603
קפ	5604
זהר	5605
שאיר	5606
מכס	5607
ידות	5608
נהיג	5609
##ard	5610
זרחי	5611
לבל	5612
רוש	5613
ראיות	5614
יווני	5615
וקים	5616
ev	5617
ובין	5618
זע	5619
עוט	5620
תיב	5621
התג	5622
חין	5623
שליט	5624
בכיר	5625
רטון	5626
ie	5627
ment	5628
שוד	5629
לבש	5630
יינים	5631
קינ	5632
ונא	5633
שתמשו	5634
עמדת	5635
וקי	5636
ערכת	5637
קוק	5638
רכה	5639
וציא	5640
נון	5641
ותינו	5642
המרכ	5643
ובנ	5644
הירה	5645
שגת	5646
חומרי	5647
המרכז	5648
גשת	5649
דעות	5650
##ue	5651
מלט	5652
יטו	5653
המספר	5654
נועד	5655
נישוא	5656
זם	5657
פלו	5658
ליצ	5659
הגיב	5660
עדות	5661
ועדת	5662
וצרת	5663
ועיל	5664
שתות	5665
צפו	5666
הכולל	5667
dows	5668
קונים	5669
באים	5670
והג	5671
מתק	5672
ורת	5673
הסיר	5674
ילים	5675
הווה	5676
הופע	5677
חזרו	5678
פקוד	5679
חילו	5680
מוני	5681
מלמד	5682
פעול	5683
שפת	5684
ציפי	5685
בטים	5686
[...	5687
אורך	5688
סלו	5689
##ma	5690
להכ	5691
וגו	5692
תיאור	5693
יולוג	5694
וטה	5695
##ניס	5696
ניסה	5697
הכניס	5698
יתכן	5699
וקש	5700
עמדו	5701
[...]	5702
גני	5703
כב	5704
סובל	5705
פנ	5706
נייני	5707
בשטח	5708
ייעו	5709
ואן	5710
ספרדי	5711
19	5712
שיב	5713
יסא	5714
בחו	5715
נשא	5716
אשם	5717
טחים	5718
אוטו	5719
דיי	5720
יסון	5721
אונ	5722
הדר	5723
רף	5724
ופיה	5725
רמונ	5726
my	5727
ביר	5728
בספר	5729
עתיק	5730
לילד	5731
21	5732
גדר	5733
גנת	5734
סה	5735
קבר	5736
אוקי	5737
ניע	5738
הדת	5739
ציע	5740
רסיט	5741
מוחלט	5742
פקד	5743
ביד	5744
העס	5745
ציעה	5746
##fi	5747
ירב	5748
סקת	5749
העסקי	5750
אורי	5751
תביע	5752
ישיר	5753
##ing	5754
כתבו	5755
בדבר	5756
וטים	5757
כוז	5758
המנ	5759
מיש	5760
נין	5761
תרח	5762
עברת	5763
ac	5764
ha	5765
הוב	5766
וואר	5767
כונה	5768
הפא	5769
הלכ	5770
ערכו	5771
וסיפ	5772
דפס	5773
יאת	5774
ענות	5775
מינו	5776
שון	5777
##ke	5778
ולות	5779
בשתי	5780
יתם	5781
רגול	5782
בדים	5783
מצביע	5784
קרים	5785
יפנ	5786
יגוד	5787
רשה	5788
אומנ	5789
ריאל	5790
כרת	5791
רשימ	5792
ook	5793
nce	5794
ויל	5795
מאמצ	5796
התכ	5797
סיני	5798
הצג	5799
ומק	5800
כתבי	5801
קווי	5802
תרחש	5803
נמי	5804
והנ	5805
מקרי	5806
פריי	5807
הפיזי	5808
go	5809
וונ	5810
ידר	5811
לרי	5812
מונה	5813
עודי	5814
out	5815
חוט	5816
אומה	5817
שיג	5818
נעים	5819
מופע	5820
רסים	5821
פילוס	5822
דוני	5823
זור	5824
ריכה	5825
ורשת	5826
וביל	5827
קיימ	5828
כיל	5829
כנים	5830
לאל	5831
שיים	5832
מלכת	5833
##ort	5834
sm	5835
בגר	5836
טפ	5837
משני	5838
בלות	5839
טרו	5840
יפוי	5841
קודמ	5842
ימושי	5843
נמוכ	5844
בייק	5845
הצעיר	5846
בורה	5847
דונ	5848
המז	5849
דרו	5850
רצי	5851
אפשרו	5852
פריד	5853
cl	5854
אלוה	5855
למדו	5856
מתה	5857
מתג	5858
להתח	5859
וויי	5860
70	5861
מפי	5862
פץ	5863
נינ	5864
הקל	5865
ואר	5866
בתו	5867
הביט	5868
בוי	5869
במו	5870
דס	5871
וזו	5872
קין	5873
ריטי	5874
מצוי	5875
מקדש	5876
פינ	5877
נהנ	5878
יקרו	5879
כוונת	5880
pa	5881
גורים	5882
שצ	5883
השיב	5884
והש	5885
וראות	5886
דיס	5887
חלקה	5888
רכו	5889
נתח	5890
מכלל	5891
הגבול	5892
ניסיו	5893
אמו	5894
ורני	5895
ספס	5896
הוג	5897
הרגש	5898
שאלת	5899
ורם	5900
חלו	5901
מבו	5902
ערבי	5903
וקב	5904
ליזם	5905
80	5906
vi	5907
לבי	5908
סוע	5909
צעת	5910
אנר	5911
ראק	5912
הציג	5913
ילר	5914
מרו	5915
ספרו	5916
עובדי	5917
וויד	5918
35	5919
יגיע	5920
תפר	5921
##ub	5922
לבנ	5923
וממ	5924
איננ	5925
bi	5926
טורי	5927
##va	5928
והי	5929
והב	5930
מבני	5931
וצב	5932
מוי	5933
נל	5934
שמיים	5935
דלה	5936
קות	5937
שף	5938
שאף	5939
לומד	5940
תימ	5941
קרו	5942
יקת	5943
לכלית	5944
נתוני	5945
לוב	5946
מהלך	5947
ובמ	5948
ומס	5949
רצינ	5950
החלל	5951
אכז	5952
וכרת	5953
צט	5954
עלת	5955
התר	5956
הרוס	5957
שתו	5958
pe	5959
ריז	5960
ריא	5961
ורן	5962
ומים	5963
יפול	5964
טעו	5965
חקיר	5966
אלוהי	5967
אמין	5968
יירה	5969
לורי	5970
עט	5971
ציב	5972
ולצ	5973
ברק	5974
דרל	5975
ועדה	5976
יחה	5977
שעל	5978
שולח	5979
נוצרי	5980
בודה	5981
זות	5982
תים	5983
פיט	5984
תאר	5985
התש	5986
ראי	5987
הצי	5988
תמח	5989
ותרו	5990
ive	5991
דרים	5992
רובה	5993
ציפ	5994
שכב	5995
רתי	5996
האנ	5997
מדיה	5998
ונט	5999
המלא	6000
שימו	6001
ראינ	6002
העת	6003
וקו	6004
קיבלו	6005
דיב	6006
ורמ	6007
כתיב	6008
חדשנ	6009
new	6010
22	6011
ועבר	6012
חשבים	6013
אנה	6014
בירו	6015
שירה	6016
וקל	6017
שרות	6018
נמצאו	6019
אמינו	6020
ודת	6021
יומ	6022
שיי	6023
חרר	6024
ght	6025
אדו	6026
דיה	6027
טמ	6028
סום	6029
רופ	6030
להע	6031
נוסע	6032
שס	6033
לימ	6034
תחשב	6035
בריו	6036
הביא	6037
כנסו	6038
תך	6039
##ld	6040
לאים	6041
ילמ	6042
וסד	6043
wi	6044
עה	6045
אמנים	6046
ופל	6047
lin	6048
דוי	6049
כנות	6050
כבות	6051
לים	6052
לית	6053
צג	6054
אחי	6055
ורף	6056
הבן	6057
שניה	6058
יסית	6059
רחים	6060
רוסי	6061
סטון	6062
טלפו	6063
ישיו	6064
son	6065
חולי	6066
הקה	6067
שחקני	6068
להסת	6069
הורי	6070
ליה	6071
סים	6072
פוק	6073
חיסו	6074
ומות	6075
יקל	6076
##ell	6077
חן	6078
##de	6079
ורמת	6080
ההפ	6081
שרק	6082
התחל	6083
הישג	6084
אמינ	6085
בורים	6086
בוחר	6087
גילה	6088
אחיו	6089
ורב	6090
סיימ	6091
לחוק	6092
לשתי	6093
משתנ	6094
חרת	6095
soft	6096
ly	6097
יכלו	6098
גוי	6099
מאפ	6100
ישנו	6101
לקת	6102
אביב	6103
##oun	6104
בחרת	6105
ight	6106
הבין	6107
ליחה	6108
חימ	6109
ריט	6110
יסת	6111
ימא	6112
ur	6113
יזר	6114
כשר	6115
ספיק	6116
והק	6117
רכז	6118
וזנ	6119
net	6120
קליט	6121
לינ	6122
ילת	6123
במק	6124
מכונ	6125
יווי	6126
יקס	6127
שרו	6128
אחריו	6129
סטט	6130
ריבו	6131
עוניי	6132
גלו	6133
לופי	6134
שבר	6135
תבר	6136
קרת	6137
פקו	6138
דוש	6139
פחת	6140
קלות	6141
כאל	6142
נהי	6143
90	6144
המוני	6145
ישו	6146
והח	6147
גע	6148
הקב	6149
לכה	6150
יעו	6151
זציה	6152
ליני	6153
ולרי	6154
מוזיק	6155
ירס	6156
ציד	6157
##our	6158
דות	6159
מנט	6160
רעות	6161
תגל	6162
##ליכ	6163
מייל	6164
ריון	6165
לשכ	6166
תהליכ	6167
ודק	6168
nd	6169
כוון	6170
##na	6171
מיק	6172
שליש	6173
ידיו	6174
יער	6175
דריש	6176
מהא	6177
וכנה	6178
וביי	6179
bl	6180
רול	6181
##ga	6182
אנט	6183
מקס	6184
טינ	6185
בחן	6186
להד	6187
מלכ	6188
ודאי	6189
יאנ	6190
ציאה	6191
23	6192
ab	6193
קע	6194
ותי	6195
הקול	6196
יפות	6197
חשבת	6198
דחו	6199
עמי	6200
המזרח	6201
מסכ	6202
הפסק	6203
יניו	6204
קבלה	6205
קת	6206
שוט	6207
ותית	6208
משע	6209
ולב	6210
ורח	6211
הבנת	6212
ובו	6213
לחת	6214
הנפש	6215
למידי	6216
נהרג	6217
וסלמי	6218
רשים	6219
מהנ	6220
לומט	6221
דקה	6222
מזרח	6223
סך	6224
תגי	6225
היוו	6226
יעורי	6227
ישא	6228
קיק	6229
נוחה	6230
סיקו	6231
צועים	6232
28	6233
day	6234
יאר	6235
פון	6236
אחור	6237
חיצ	6238
שנמצ	6239
ושכ	6240
יבוי	6241
ודא	6242
זיכר	6243
שנמצא	6244
נדו	6245
היצ	6246
אימו	6247
יסה	6248
פורו	6249
סביבת	6250
מחירי	6251
זיכרו	6252
כנת	6253
מהת	6254
##סיס	6255
הבסיס	6256
שמת	6257
וכב	6258
מהפכ	6259
ייתי	6260
ברות	6261
גרות	6262
עיית	6263
מגז	6264
all	6265
pr	6266
ry	6267
פדר	6268
האחר	6269
התאים	6270
ורכב	6271
מקוו	6272
ואלים	6273
חווי	6274
ערבית	6275
ion	6276
דעה	6277
אוט	6278
ורכ	6279
ינם	6280
מנהלי	6281
וטב	6282
צגת	6283
par	6284
רטו	6285
##fe	6286
ניסו	6287
טיס	6288
ימוד	6289
מנו	6290
נטו	6291
סוך	6292
ותם	6293
התב	6294
כין	6295
החבר	6296
מצפ	6297
פניה	6298
וכנות	6299
עקו	6300
36	6301
ser	6302
ננ	6303
מתע	6304
עבדו	6305
דיוק	6306
ילדי	6307
גרו	6308
צרכי	6309
רתו	6310
ימודי	6311
ss	6312
גיר	6313
זמנ	6314
ציו	6315
יוונ	6316
מוצע	6317
מוסר	6318
הפרס	6319
כנסה	6320
יקי	6321
נם	6322
##th	6323
בימי	6324
בעו	6325
נחש	6326
חובות	6327
27	6328
app	6329
gr	6330
וונים	6331
כירו	6332
ליט	6333
מאס	6334
ובד	6335
ינטר	6336
אבות	6337
נורמ	6338
המערב	6339
מבי	6340
צים	6341
רונות	6342
דרכי	6343
end	6344
45	6345
פיה	6346
ולדו	6347
פלסטי	6348
גלים	6349
ניצח	6350
יכוי	6351
עבוד	6352
לשיר	6353
ועדו	6354
הווי	6355
פלסט	6356
שורות	6357
המט	6358
ללו	6359
גרום	6360
שנא	6361
אספ	6362
חוקר	6363
כנן	6364
##int	6365
המשטר	6366
שקל	6367
אנגלי	6368
op	6369
up	6370
חירים	6371
יעות	6372
לונ	6373
נתה	6374
רגי	6375
רמן	6376
##ust	6377
הממ	6378
המנהל	6379
אמץ	6380
ופית	6381
כניות	6382
וסיף	6383
זמנו	6384
ble	6385
si	6386
גילו	6387
דלי	6388
תופ	6389
מקסי	6390
האפ	6391
שהב	6392
ריי	6393
קולות	6394
res	6395
רויות	6396
ליא	6397
ומם	6398
מלים	6399
אגר	6400
יולי	6401
קנו	6402
ולח	6403
לומים	6404
ברתי	6405
סיפ	6406
ילומ	6407
לכתי	6408
גרה	6409
צנ	6410
השו	6411
##ate	6412
בבר	6413
המקור	6414
כיפ	6415
ריכ	6416
רין	6417
תינ	6418
תיקה	6419
שמית	6420
פרצ	6421
קטור	6422
יקאי	6423
נטל	6424
by	6425
גנון	6426
פנית	6427
קסי	6428
לבים	6429
לחו	6430
קיצ	6431
qu	6432
טונ	6433
ריות	6434
האפשר	6435
מסור	6436
ורמו	6437
יסים	6438
נפשי	6439
עמדות	6440
התיי	6441
dis	6442
ועה	6443
חמים	6444
יונות	6445
צעות	6446
קמה	6447
כלת	6448
פרת	6449
הסט	6450
יבית	6451
תפיל	6452
tim	6453
גאה	6454
כמים	6455
כלית	6456
ובני	6457
הצט	6458
ילך	6459
יחת	6460
גלות	6461
ווא	6462
לטה	6463
אנס	6464
החו	6465
רגלי	6466
ופות	6467
ern	6468
הפרו	6469
דיעה	6470
יבו	6471
sta	6472
נהיגי	6473
col	6474
טוס	6475
מנות	6476
ריקה	6477
ייצג	6478
הכד	6479
רבו	6480
תגוב	6481
נתק	6482
uni	6483
בדות	6484
טול	6485
נופ	6486
ייקט	6487
פיים	6488
מבקר	6489
תחוש	6490
נהל	6491
ודדים	6492
ינטרס	6493
כית	6494
שקיע	6495
הקט	6496
שבח	6497
לדות	6498
נאצ	6499
26	6500
טימי	6501
הומו	6502
ציונ	6503
תכונ	6504
מומחי	6505
הכדור	6506
דדי	6507
יאה	6508
שפר	6509
האט	6510
ישון	6511
למת	6512
מתב	6513
מלכות	6514
בסביב	6515
id	6516
pre	6517
בוגר	6518
דוא	6519
ברלי	6520
מחז	6521
פעת	6522
יקאים	6523
הולי	6524
##pa	6525
והע	6526
טלנ	6527
air	6528
war	6529
בון	6530
לשה	6531
סף	6532
שעת	6533
##os	6534
##ec	6535
##vi	6536
האח	6537
שמעת	6538
כרה	6539
comm	6540
ומיים	6541
הורא	6542
צביע	6543
התל	6544
וכה	6545
בטחה	6546
רטיים	6547
##yp	6548
האמנ	6549
רבע	6550
שפעות	6551
קטיבי	6552
בקשת	6553
וחס	6554
נאצי	6555
חרד	6556
זבו	6557
ii	6558
דיל	6559
וחי	6560
סיבי	6561
פך	6562
רור	6563
היג	6564
משלו	6565
מיס	6566
##ועי	6567
סימ	6568
פרות	6569
ירועי	6570
יטור	6571
חמיש	6572
##ith	6573
המלצ	6574
mon	6575
יונים	6576
פקיד	6577
קוש	6578
ביעות	6579
חיו	6580
ייח	6581
אמרת	6582
בסס	6583
להתב	6584
play	6585
sy	6586
##ta	6587
מחים	6588
הצרכ	6589
ההג	6590
עכב	6591
ערכה	6592
תמיכ	6593
כירים	6594
צחי	6595
תנות	6596
ממך	6597
גידו	6598
הגרמנ	6599
im	6600
ונית	6601
המג	6602
חלטת	6603
תמכ	6604
ure	6605
wat	6606
אמה	6607
בפר	6608
גוג	6609
ודו	6610
כותר	6611
עים	6612
קנים	6613
החזר	6614
gra	6615
בדה	6616
חדים	6617
כונים	6618
פנימ	6619
טריו	6620
ואמ	6621
גרע	6622
tor	6623
גבי	6624
טס	6625
קדים	6626
##si	6627
שלטו	6628
ותיי	6629
החזיק	6630
תיכ	6631
בשת	6632
פתור	6633
שגים	6634
וודא	6635
).	6636
tra	6637
בילה	6638
נחת	6639
ברנ	6640
ויס	6641
מויות	6642
ניהם	6643
ורצ	6644
פינה	6645
מרצ	6646
אליי	6647
ערכי	6648
".	6649
זד	6650
טופ	6651
רלי	6652
מעות	6653
יליא	6654
וצרו	6655
sk	6656
כרי	6657
##ובד	6658
ליטו	6659
ילוי	6660
וגוסט	6661
הליכי	6662
',	6663
est	6664
fr	6665
tic	6666
ממי	6667
רוני	6668
רומי	6669
תוק	6670
ניית	6671
עצה	6672
עצור	6673
חברו	6674
קלינ	6675
way	6676
גת	6677
קבי	6678
צינ	6679
עסקה	6680
הדרכ	6681
car	6682
פוח	6683
קאות	6684
אלים	6685
ואחרי	6686
ומבי	6687
חלפ	6688
גיעו	6689
רטיסי	6690
ושה	6691
זים	6692
זין	6693
חלה	6694
טות	6695
קן	6696
ותיות	6697
משמע	6698
ציי	6699
עורב	6700
il	6701
jo	6702
כים	6703
תונה	6704
שימת	6705
ברכ	6706
עצות	6707
מרה	6708
ted	6709
אדי	6710
צפי	6711
קירה	6712
איז	6713
ניפ	6714
ניים	6715
בקו	6716
יזציה	6717
מושל	6718
חתו	6719
רגישו	6720
סודי	6721
פקט	6722
##gi	6723
לאף	6724
מתל	6725
וראה	6726
ראשו	6727
שנח	6728
המסע	6729
מעוד	6730
ובא	6731
ומת	6732
תקני	6733
יחו	6734
נטלי	6735
צבעו	6736
[+	6737
בצי	6738
גיה	6739
עשות	6740
לאת	6741
אחות	6742
מצרי	6743
בכי	6744
כרות	6745
יאטר	6746
המיני	6747
צבו	6748
אגו	6749
מריקנ	6750
היבט	6751
[+]	6752
cr	6753
הונ	6754
שינ	6755
סיד	6756
ללות	6757
חסו	6758
cha	6759
מאמצי	6760
gen	6761
pal	6762
לאס	6763
רידה	6764
לחבר	6765
חשו	6766
בלא	6767
ספו	6768
##ree	6769
רווחי	6770
שתתפו	6771
תנהג	6772
הראו	6773
מתר	6774
ורשים	6775
לכות	6776
כשמ	6777
תשוב	6778
יאמ	6779
29	6780
ey	6781
בויות	6782
מתים	6783
ברה	6784
הגבר	6785
מלאי	6786
תלונ	6787
פוא	6788
כיח	6789
מחק	6790
ופו	6791
סכנ	6792
פלג	6793
gy	6794
pri	6795
סורי	6796
פגיע	6797
##co	6798
דיני	6799
כאבי	6800
##ore	6801
דקים	6802
art	6803
טוו	6804
נטה	6805
ושפ	6806
world	6807
iv	6808
ja	6809
טחון	6810
תמו	6811
שאו	6812
הבת	6813
ואה	6814
וסר	6815
כשנ	6816
כוחו	6817
בדוק	6818
500	6819
לוסופ	6820
חצו	6821
je	6822
ויר	6823
צופ	6824
##דיא	6825
אידיא	6826
האופ	6827
מתנ	6828
מוז	6829
שביל	6830
יחות	6831
אספק	6832
per	6833
נדה	6834
שורים	6835
שטו	6836
ורע	6837
ארנ	6838
ייחוד	6839
יצים	6840
הבו	6841
ובס	6842
פרים	6843
נגנ	6844
מלחמ	6845
fl	6846
mus	6847
פוג	6848
ליס	6849
שמעו	6850
ההו	6851
נסות	6852
הפרע	6853
שירי	6854
mac	6855
tal	6856
בטי	6857
דשות	6858
כיר	6859
נזי	6860
קני	6861
ליון	6862
ייז	6863
תעשי	6864
לגור	6865
לראש	6866
תאמ	6867
שעים	6868
##ood	6869
לדה	6870
פקה	6871
ואו	6872
ידיע	6873
ימוש	6874
צעו	6875
דקו	6876
offi	6877
גים	6878
יגר	6879
תול	6880
המד	6881
כיס	6882
ואחר	6883
אליס	6884
##ass	6885
גרעי	6886
גשים	6887
מיה	6888
ולמ	6889
דיו	6890
שקו	6891
מולד	6892
נטיי	6893
gi	6894
הלה	6895
מנים	6896
סות	6897
סני	6898
רדות	6899
תולי	6900
המתי	6901
שהח	6902
תיו	6903
פיפ	6904
קראת	6905
נבנ	6906
ינטו	6907
[-	6908
du	6909
ness	6910
כמי	6911
לוש	6912
עדים	6913
אתן	6914
השג	6915
לממש	6916
יכון	6917
לפו	6918
לחנ	6919
רכות	6920
יליונ	6921
[-]	6922
עות	6923
פונים	6924
שחי	6925
באש	6926
שהפ	6927
וחב	6928
סרטו	6929
ודיו	6930
מתקפ	6931
not	6932
ועת	6933
##יאו	6934
וחד	6935
טבעו	6936
post	6937
המציא	6938
הטי	6939
מון	6940
פונ	6941
להז	6942
לחמ	6943
ערת	6944
יטרי	6945
ינד	6946
גורמ	6947
זיקה	6948
תצט	6949
vers	6950
des	6951
home	6952
ופיע	6953
ליות	6954
ולוג	6955
והט	6956
תיח	6957
אפו	6958
חדרי	6959
##one	6960
רשו	6961
יראו	6962
תושב	6963
אנרגי	6964
ציוני	6965
חתם	6966
טוא	6967
ממו	6968
##ברס	6969
ולע	6970
אנד	6971
בעים	6972
הפיל	6973
ניברס	6974
כשיר	6975
ופש	6976
אנוש	6977
ימום	6978
מייד	6979
ti	6980
איל	6981
נאי	6982
נתר	6983
##di	6984
מאחור	6985
הרת	6986
ארכי	6987
מבטי	6988
תחז	6989
עזרת	6990
אלבו	6991
can	6992
pi	6993
טומי	6994
יוב	6995
סיל	6996
שות	6997
ליכ	6998
הבטיח	6999
פיס	7000
פיין	7001
שרד	7002
זרו	7003
שטחי	7004
love	7005
with	7006
הומ	7007
וירו	7008
כנו	7009
ריל	7010
##ps	7011
##ci	7012
ביק	7013
ריו	7014
ברט	7015
לוקי	7016
סקו	7017
גשו	7018
exp	7019
'.	7020
cb	7021
hot	7022
ian	7023
##da	7024
##mi	7025
המב	7026
ליכם	7027
הדג	7028
גרפי	7029
ספיר	7030
##ath	7031
עיניי	7032
32	7033
פן	7034
לחי	7035
גורמי	7036
אטי	7037
כע	7038
סס	7039
רית	7040
סימני	7041
במפ	7042
הציב	7043
בלים	7044
המשק	7045
gn	7046
מיל	7047
שהק	7048
יתנו	7049
ציגי	7050
יפו	7051
הודי	7052
ers	7053
תאם	7054
##ild	7055
יסטית	7056
וונת	7057
ימן	7058
קולי	7059
באת	7060
ישורי	7061
מסד	7062
ניא	7063
סימו	7064
בחיר	7065
לתק	7066
לצות	7067
נגלי	7068
זרת	7069
הוכיח	7070
כוכבי	7071
חה	7072
צאות	7073
רונ	7074
##טרו	7075
מוכ	7076
לבדו	7077
בהר	7078
life	7079
בילו	7080
סכם	7081
##פע	7082
היפ	7083
מונו	7084
תקפ	7085
act	7086
bu	7087
ci	7088
ופי	7089
חנה	7090
ריכת	7091
הכנ	7092
פשית	7093
שווא	7094
200	7095
התיא	7096
ההשפע	7097
ol	7098
זוק	7099
התפ	7100
והצ	7101
יימת	7102
ושלמ	7103
נסיב	7104
sw	7105
יוצ	7106
נתי	7107
שפיע	7108
מדת	7109
וקול	7110
רעו	7111
סטו	7112
חנ	7113
צלי	7114
##ca	7115
נוג	7116
ממד	7117
זרה	7118
ולהי	7119
צלחת	7120
31	7121
חפש	7122
ביעה	7123
מלו	7124
טענו	7125
צויי	7126
>>	7127
ho	7128
her	7129
בוכ	7130
משם	7131
והכ	7132
ואפ	7133
רוצי	7134
קטו	7135
boo	7136
eb	7137
gu	7138
hum	7139
בחנו	7140
דש	7141
לדת	7142
סיר	7143
באל	7144
ראת	7145
מתא	7146
יכנס	7147
מוך	7148
ומח	7149
יפיו	7150
תוספ	7151
bus	7152
הגי	7153
טאו	7154
נפי	7155
פנו	7156
קים	7157
שרי	7158
##gh	7159
איב	7160
האז	7161
ולס	7162
המתו	7163
אולוג	7164
יעת	7165
רים	7166
דיד	7167
קרון	7168
יצל	7169
סרת	7170
ies	7171
os	7172
ps	7173
sch	7174
דום	7175
חתה	7176
מדים	7177
##qu	7178
לאות	7179
ורטי	7180
ורטו	7181
וכמה	7182
יקט	7183
ence	7184
ולהת	7185
ap	7186
ww	7187
בדם	7188
ילה	7189
נסט	7190
ותח	7191
האק	7192
ישים	7193
לעי	7194
הגז	7195
רצות	7196
שבא	7197
יקים	7198
טרנט	7199
בגד	7200
אופטי	7201
וברי	7202
##ide	7203
:)	7204
cy	7205
קאר	7206
להיו	7207
מיצ	7208
פיג	7209
בבו	7210
רפיה	7211
מונת	7212
work	7213
serv	7214
דמת	7215
פליט	7216
שדר	7217
תנה	7218
הגעת	7219
פיינ	7220
ינר	7221
סגן	7222
וניות	7223
קונג	7224
ga	7225
ric	7226
הרמ	7227
וראי	7228
דיא	7229
טימ	7230
חדת	7231
וקד	7232
להתא	7233
רפו	7234
גמה	7235
דב	7236
דול	7237
ימו	7238
##ti	7239
##פרי	7240
הבטח	7241
וכש	7242
תלב	7243
חסות	7244
פסת	7245
סרטי	7246
לולי	7247
שז	7248
תיות	7249
##ff	7250
ותפ	7251
ולכ	7252
העובד	7253
סיס	7254
טינית	7255
יפור	7256
לנוע	7257
סטנ	7258
שקע	7259
עקבו	7260
48	7261
ka	7262
סיג	7263
פעילי	7264
יטנ	7265
בחינ	7266
##ite	7267
משאבי	7268
תזונ	7269
הפעל	7270
ec	7271
min	7272
וחות	7273
חיס	7274
הגל	7275
טיח	7276
קיו	7277
קיע	7278
סבור	7279
ביעי	7280
sec	7281
amer	7282
75	7283
met	7284
ny	7285
אוד	7286
גנו	7287
ינות	7288
כסי	7289
לטר	7290
לטת	7291
תרי	7292
הילה	7293
ישה	7294
והס	7295
ורל	7296
מעלי	7297
מרת	7298
ודיה	7299
דמו	7300
דלים	7301
רדים	7302
רכם	7303
ליטה	7304
ראן	7305
ארמ	7306
קרית	7307
טרס	7308
רכת	7309
אסלא	7310
ימונ	7311
מקומו	7312
der	7313
ial	7314
דד	7315
משל	7316
שמיר	7317
יהנו	7318
שפו	7319
watch	7320
גדות	7321
זני	7322
שהש	7323
הקפ	7324
וחנ	7325
aw	7326
fe	7327
אפי	7328
ונו	7329
טבח	7330
יורי	7331
יילי	7332
ננו	7333
אתו	7334
מהב	7335
שהע	7336
מחנ	7337
תקו	7338
מטוסי	7339
צדדי	7340
פקת	7341
סרו	7342
wa	7343
זוי	7344
שבי	7345
ומדי	7346
לחצ	7347
ילו	7348
יקו	7349
בגן	7350
red	7351
וזיאו	7352
ינת	7353
עתם	7354
תף	7355
ישת	7356
ניין	7357
הבה	7358
בניה	7359
ספקי	7360
שרים	7361
מטרי	7362
תוכנ	7363
cont	7364
hiv	7365
gre	7366
ll	7367
טוי	7368
לואי	7369
מיתי	7370
פגיש	7371
רנט	7372
##ea	7373
##xt	7374
ישל	7375
לבני	7376
הגנ	7377
ויקט	7378
##old	7379
sci	7380
קודה	7381
ותמ	7382
שהנ	7383
מצבי	7384
תפו	7385
נקו	7386
מייק	7387
קדמי	7388
human	7389
ir	7390
חמה	7391
##ep	7392
##bo	7393
האר	7394
לער	7395
שמוע	7396
כאי	7397
רצינו	7398
בגדי	7399
קדמו	7400
##ash	7401
time	7402
גיות	7403
געת	7404
הנית	7405
טיות	7406
קשרי	7407
לעם	7408
ובת	7409
ואש	7410
שתתף	7411
ושמ	7412
ושב	7413
וקט	7414
להתע	7415
בצר	7416
הפרט	7417
word	7418
ea	7419
fin	7420
va	7421
קוס	7422
תד	7423
##te	7424
ליים	7425
השיג	7426
גשתי	7427
if	7428
tw	7429
##me	7430
אוי	7431
השמ	7432
בתה	7433
שתפ	7434
מנם	7435
לרצ	7436
300	7437
mark	7438
##ound	7439
cent	7440
##bc	7441
בענ	7442
הגיר	7443
בלונ	7444
יפל	7445
אלימ	7446
טעי	7447
תמונ	7448
הטיפ	7449
ke	7450
זיר	7451
סמה	7452
קדו	7453
מספרי	7454
כרח	7455
וויה	7456
הסיכו	7457
עזוב	7458
עורכ	7459
ct	7460
ul	7461
דפי	7462
טח	7463
נאות	7464
צת	7465
##pn	7466
לאח	7467
שהס	7468
העמ	7469
יהי	7470
בלנ	7471
יטא	7472
מגן	7473
rch	7474
בקה	7475
כריז	7476
לור	7477
צוא	7478
##cc	7479
ביש	7480
מתוכ	7481
בלת	7482
וגנ	7483
נקב	7484
um	7485
הוק	7486
סמי	7487
קאי	7488
רפי	7489
בידו	7490
נימי	7491
שמא	7492
יבוש	7493
תפק	7494
נקצי	7495
##ank	7496
med	7497
33	7498
br	7499
bal	7500
ov	7501
תוח	7502
המלו	7503
מחקרי	7504
במז	7505
מקצ	7506
נושאי	7507
##ick	7508
book	7509
ber	7510
bro	7511
pol	7512
כשהו	7513
כינו	7514
סיון	7515
מוסיק	7516
מצו	7517
הגן	7518
חויב	7519
חוזי	7520
מגו	7521
חתונ	7522
מיתו	7523
ויה	7524
תיהם	7525
להנ	7526
אומי	7527
הפג	7528
מלצ	7529
הלת	7530
דרה	7531
וצות	7532
זרות	7533
בפנ	7534
וניה	7535
קדמ	7536
רוכים	7537
פופול	7538
are	7539
ut	7540
טאר	7541
נשי	7542
לאנ	7543
איג	7544
באור	7545
הפה	7546
נימ	7547
הספ	7548
יגו	7549
nge	7550
ass	7551
hotel	7552
fil	7553
land	7554
כף	7555
פלי	7556
ואנ	7557
בעצמ	7558
acc	7559
www	7560
aut	7561
אמרי	7562
בהק	7563
star	7564
נאס	7565
ותפים	7566
dy	7567
אֶ	7568
קלו	7569
##ss	7570
##mo	7571
והו	7572
לוני	7573
מעש	7574
העי	7575
ובן	7576
פרח	7577
פיעו	7578
כשירי	7579
גברי	7580
sun	7581
דיאט	7582
dr	7583
mba	7584
ינית	7585
קפי	7586
ותים	7587
אחרא	7588
ניקה	7589
העל	7590
יימי	7591
דיג	7592
הציל	7593
מקל	7594
הסו	7595
מדו	7596
שתנו	7597
ציג	7598
יריד	7599
צטרף	7600
don	7601
פוי	7602
ריר	7603
אימה	7604
חיילי	7605
הפצ	7606
ואח	7607
וגיה	7608
אדמה	7609
סגנו	7610
כריס	7611
bla	7612
קוו	7613
דורג	7614
מועדו	7615
וטנ	7616
לרע	7617
חותי	7618
65	7619
דלו	7620
באס	7621
התה	7622
מכור	7623
רצית	7624
להתג	7625
##are	7626
what	7627
ever	7628
pla	7629
בבי	7630
הוי	7631
פיות	7632
קשת	7633
הכיר	7634
יקון	7635
ודד	7636
ican	7637
צמיח	7638
ht	7639
sou	7640
בוג	7641
מנית	7642
רירי	7643
##pi	7644
שלפ	7645
היח	7646
המונ	7647
נוט	7648
מציא	7649
ירג	7650
ההנ	7651
יטת	7652
רחו	7653
רוו	7654
הרשמ	7655
ice	7656
גאו	7657
למו	7658
ומפ	7659
וספי	7660
קרובי	7661
יסל	7662
נחל	7663
150	7664
point	7665
34	7666
ib	7667
נוד	7668
לאב	7669
אוש	7670
ליבר	7671
אלן	7672
ההס	7673
##ame	7674
comp	7675
spa	7676
vpn	7677
ושות	7678
חזי	7679
ככ	7680
סלא	7681
##wn	7682
הירי	7683
ליו	7684
מינה	7685
הרבי	7686
לקטרו	7687
יוו	7688
גרים	7689
לטות	7690
העיקר	7691
hou	7692
pay	7693
מילו	7694
##ry	7695
המחו	7696
מהק	7697
משלה	7698
אלק	7699
הרו	7700
your	7701
bri	7702
cal	7703
ot	7704
ya	7705
בוט	7706
גירו	7707
יפר	7708
לשי	7709
מהש	7710
לכים	7711
וסס	7712
בבת	7713
יקלי	7714
עצמית	7715
ימני	7716
מטרו	7717
shi	7718
ard	7719
כנסיי	7720
tran	7721
ייחס	7722
מתרג	7723
55	7724
bil	7725
port	7726
ננים	7727
משכו	7728
אנגל	7729
לחיי	7730
ילנ	7731
קיש	7732
הטע	7733
##ant	7734
מנצ	7735
הולדת	7736
בדף	7737
לטון	7738
##itt	7739
ess	7740
סוצ	7741
קץ	7742
הית	7743
התמו	7744
והד	7745
לכי	7746
inc	7747
פורנ	7748
נעל	7749
37	7750
get	7751
nic	7752
nba	7753
part	7754
דגש	7755
הקצ	7756
ההכ	7757
ai	7758
glo	7759
har	7760
ora	7761
ple	7762
rol	7763
יזה	7764
שוכ	7765
##משי	7766
מרג	7767
שתמשי	7768
rep	7769
נדון	7770
next	7771
הבעל	7772
cre	7773
free	7774
סבר	7775
קנית	7776
תכם	7777
##ph	7778
משלת	7779
ליסט	7780
ומב	7781
בטו	7782
יניות	7783
ינוק	7784
גה	7785
תאימ	7786
לוות	7787
לחש	7788
ללית	7789
רכיבי	7790
יריי	7791
sea	7792
park	7793
bit	7794
kn	7795
טפו	7796
לני	7797
קטי	7798
משנה	7799
ריאה	7800
ורדי	7801
מעונ	7802
ארו	7803
הער	7804
מכו	7805
קרוב	7806
בוו	7807
ine	7808
stu	7809
##att	7810
##ata	7811
כספ	7812
arch	7813
busi	7814
bur	7815
חית	7816
טופל	7817
סטינ	7818
ביכול	7819
שהה	7820
שהכ	7821
למק	7822
ורשי	7823
ומל	7824
ומני	7825
כרו	7826
לדוג	7827
יזו	7828
חקו	7829
סנד	7830
לעצמ	7831
השווא	7832
38	7833
eu	7834
mal	7835
לטו	7836
נמ	7837
ריהם	7838
לאר	7839
לבט	7840
וסו	7841
קרט	7842
גרת	7843
בוודא	7844
טרה	7845
יליו	7846
בדיו	7847
ליפו	7848
sha	7849
live	7850
ko	7851
##hn	7852
##ha	7853
מהע	7854
למנ	7855
העץ	7856
הקומ	7857
שבמ	7858
טרנ	7859
צרה	7860
##ory	7861
שעי	7862
itu	7863
ושבת	7864
42	7865
cri	7866
lon	7867
olo	7868
tri	7869
vo	7870
דוב	7871
דורי	7872
לטי	7873
##bi	7874
שלמו	7875
מהג	7876
יהל	7877
מצאי	7878
הסל	7879
הספר	7880
ושג	7881
יקור	7882
נגדו	7883
מטע	7884
צרת	7885
##ine	7886
טריי	7887
chi	7888
בצעי	7889
sol	7890
לום	7891
פרא	7892
לוו	7893
מתפ	7894
ומית	7895
מכה	7896
וצל	7897
קרטי	7898
רובי	7899
sup	7900
au	7901
cd	7902
dri	7903
dna	7904
ki	7905
nc	7906
אסי	7907
גזי	7908
סבי	7909
אימ	7910
מהח	7911
ניז	7912
מקומ	7913
הסמ	7914
פייני	7915
ופת	7916
נגו	7917
אינטר	7918
להצט	7919
tech	7920
nta	7921
ריכים	7922
##ype	7923
from	7924
del	7925
יוג	7926
ששת	7927
יידי	7928
ונאים	7929
שתף	7930
יאט	7931
##oup	7932
טיביו	7933
##ount	7934
cia	7935
ner	7936
tes	7937
tub	7938
בדל	7939
טוק	7940
לבר	7941
נגר	7942
עורי	7943
פוז	7944
שלג	7945
אותנ	7946
שאפ	7947
בעות	7948
הוועד	7949
inst	7950
##ous	7951
##לחמ	7952
לוגית	7953
ינויי	7954
קניו	7955
av	7956
cor	7957
hol	7958
ms	7959
ומש	7960
חים	7961
לגי	7962
נלי	7963
ישהו	7964
חיוב	7965
הפנ	7966
סיקה	7967
סיפו	7968
שמנ	7969
יוז	7970
לתא	7971
סבא	7972
יגות	7973
בוגרי	7974
בילי	7975
גון	7976
נוא	7977
פאל	7978
##op	7979
איות	7980
לעד	7981
הנכ	7982
וגים	7983
התחלת	7984
סופו	7985
תבונ	7986
בדרכ	7987
וטין	7988
press	7989
house	7990
bra	7991
ect	7992
hd	7993
py	7994
pow	7995
ru	7996
vis	7997
אריך	7998
גדי	7999
סיב	8000
מאנ	8001
ישיב	8002
שהר	8003
החומ	8004
חיז	8005
תיקי	8006
מחיי	8007
ניכ	8008
העלו	8009
עדן	8010
ופלים	8011
ימיים	8012
bea	8013
אֶת	8014
חץ	8015
אוק	8016
ריים	8017
העול	8018
ייו	8019
יימו	8020
גרמנ	8021
יבות	8022
אסט	8023
וחלט	8024
קומו	8025
400	8026
bar	8027
אדר	8028
זמו	8029
מנוי	8030
קתי	8031
שלמ	8032
היינ	8033
ומרי	8034
שתק	8035
ert	8036
זרם	8037
ste	8038
מקורו	8039
iph	8040
הברית	8041
line	8042
ress	8043
ומו	8044
סקה	8045
נוף	8046
יכה	8047
מצאת	8048
פיי	8049
פיכ	8050
הרגלי	8051
צמחי	8052
##ase	8053
ica	8054
נהגו	8055
ell	8056
גטו	8057
יגי	8058
לנה	8059
סעו	8060
ותנ	8061
לאומ	8062
איד	8063
מהד	8064
מאל	8065
ורסי	8066
ובק	8067
ובנו	8068
פתו	8069
יקני	8070
ידא	8071
שובו	8072
tube	8073
..	8074
גוון	8075
ימה	8076
ימנע	8077
מעי	8078
מעת	8079
הפס	8080
טינים	8081
דרות	8082
רגשת	8083
חדו	8084
ופצ	8085
יעל	8086
יאון	8087
הירו	8088
reet	8089
דעים	8090
סוצי	8091
ima	8092
sim	8093
חרא	8094
טום	8095
מבל	8096
##za	8097
מהכ	8098
חלות	8099
תקש	8100
וכנ	8101
שתת	8102
בקרו	8103
קסם	8104
המלכ	8105
שותפי	8106
39	8107
52	8108
cra	8109
שורת	8110
##pe	8111
ראלי	8112
ורנו	8113
הבק	8114
sty	8115
צמא	8116
tag	8117
nti	8118
news	8119
blo	8120
בדו	8121
##fa	8122
תקף	8123
וצע	8124
חוז	8125
הדף	8126
פתחו	8127
ידן	8128
להתק	8129
real	8130
good	8131
תופע	8132
fra	8133
om	8134
ונות	8135
מורי	8136
עיה	8137
ותני	8138
סיונ	8139
במד	8140
מצי	8141
חשיב	8142
תקפו	8143
רבת	8144
מרות	8145
וצאה	8146
טרונ	8147
ond	8148
onli	8149
rev	8150
וויזי	8151
form	8152
back	8153
tics	8154
cer	8155
fo	8156
lu	8157
nes	8158
בם	8159
דיהם	8160
הנות	8161
זונה	8162
טלי	8163
ללי	8164
נני	8165
קנות	8166
##ly	8167
##cd	8168
##בו	8169
ישי	8170
ריכו	8171
ארת	8172
יכת	8173
חשבה	8174
מכות	8175
כשם	8176
ניקו	8177
syst	8178
black	8179
חוזים	8180
!!	8181
ag	8182
bor	8183
ei	8184
ele	8185
more	8186
אוב	8187
טיר	8188
שוע	8189
יתנ	8190
ינל	8191
בסו	8192
וטרי	8193
גיבו	8194
blue	8195
85	8196
אטו	8197
ודם	8198
טוני	8199
פוך	8200
רסו	8201
##ne	8202
##pt	8203
##mp	8204
לאמ	8205
החוקר	8206
ארים	8207
עצבי	8208
טובי	8209
יבים	8210
this	8211
תעמ	8212
שכך	8213
##ala	8214
נדס	8215
44	8216
זא	8217
חני	8218
יעה	8219
כחו	8220
##ak	8221
מהס	8222
הכות	8223
ירונ	8224
מפה	8225
עיון	8226
טרלי	8227
stra	8228
אגם	8229
95	8230
bet	8231
ger	8232
sis	8233
בונ	8234
צירו	8235
רואי	8236
##ua	8237
##ze	8238
לאש	8239
המפל	8240
ביצי	8241
מאר	8242
והים	8243
לומי	8244
הקרי	8245
בתר	8246
ויק	8247
יטות	8248
טרל	8249
che	8250
seo	8251
soc	8252
נויים	8253
במשק	8254
coll	8255
john	8256
המפלג	8257
99	8258
bre	8259
fda	8260
ve	8261
גס	8262
כרים	8263
סלי	8264
רמים	8265
##ka	8266
ביעו	8267
ליטי	8268
ידיא	8269
תרופו	8270
that	8271
שעד	8272
פיתו	8273
tv	8274
אע	8275
חילה	8276
צח	8277
רתה	8278
רזי	8279
##ml	8280
סיו	8281
עצת	8282
ההמ	8283
##ark	8284
הרגשת	8285
64	8286
dom	8287
ham	8288
ow	8289
ton	8290
זיל	8291
##sa	8292
להתי	8293
הפו	8294
אמפ	8295
וגבל	8296
ונגר	8297
שתל	8298
ימפ	8299
ודות	8300
פניי	8301
כהן	8302
ical	8303
השרא	8304
pho	8305
outl	8306
apple	8307
style	8308
00	8309
data	8310
mp	8311
pc	8312
val	8313
מוא	8314
שתה	8315
##ds	8316
והבים	8317
כולתי	8318
וכני	8319
ונפ	8320
ציאל	8321
רעש	8322
נשמ	8323
read	8324
נדב	8325
דגם	8326
פצו	8327
heal	8328
כבת	8329
prev	8330
auto	8331
hp	8332
שנו	8333
כלש	8334
השח	8335
ברחו	8336
ונר	8337
עיקר	8338
יפת	8339
וקא	8340
אסל	8341
יעי	8342
##oud	8343
וניו	8344
קונס	8345
ודיות	8346
ענן	8347
who	8348
dra	8349
ונת	8350
טג	8351
סונ	8352
##df	8353
ולמו	8354
שאים	8355
תיע	8356
הבד	8357
במצ	8358
עצי	8359
כולת	8360
יתק	8361
סבו	8362
זקן	8363
ord	8364
group	8365
cn	8366
nat	8367
בכם	8368
גשה	8369
געו	8370
דמים	8371
ייבי	8372
עוז	8373
##dd	8374
איו	8375
אחו	8376
שאול	8377
בשו	8378
עינ	8379
להתנ	8380
קורב	8381
להיש	8382
וחצ	8383
שתיי	8384
לטוב	8385
עיצו	8386
גשם	8387
ort	8388
cbd	8389
')	8390
cle	8391
eg	8392
mc	8393
pt	8394
ral	8395
ue	8396
ye	8397
חשי	8398
מוב	8399
עופ	8400
רורי	8401
אוה	8402
חידה	8403
הבנ	8404
חלומ	8405
בתק	8406
וכים	8407
טיו	8408
סכמ	8409
שכול	8410
ודנ	8411
ret	8412
rec	8413
האדמ	8414
down	8415
אחוזי	8416
cam	8417
gh	8418
less	8419
mic	8420
sam	8421
wal	8422
west	8423
גמי	8424
תוב	8425
שלת	8426
המשת	8427
מיו	8428
ולחן	8429
לוסי	8430
ריך	8431
יכוני	8432
כשאת	8433
אזי	8434
קרח	8435
ויים	8436
וריות	8437
ימצ	8438
טומט	8439
dia	8440
וקיי	8441
bio	8442
יוצאי	8443
49	8444
43	8445
bbc	8446
let	8447
xy	8448
ימת	8449
ממת	8450
פכ	8451
##מעו	8452
המזו	8453
משמעו	8454
בתל	8455
יצע	8456
עיף	8457
לגן	8458
וחל	8459
##ere	8460
נסע	8461
איתנ	8462
ado	8463
note	8464
--	8465
46	8466
53	8467
67	8468
will	8469
אווי	8470
מפט	8471
ושלם	8472
יקות	8473
וקח	8474
רכים	8475
תלמ	8476
יניה	8477
נחמ	8478
צבעי	8479
rock	8480
בודו	8481
ענף	8482
exc	8483
ייבים	8484
fire	8485
העולמ	8486
ben	8487
mb	8488
הוצ	8489
וית	8490
זית	8491
טב	8492
קירו	8493
רופי	8494
להט	8495
יכו	8496
ויו	8497
גלית	8498
share	8499
ומיי	8500
sur	8501
sum	8502
הנכונ	8503
47	8504
af	8505
age	8506
gl	8507
gold	8508
ren	8509
rid	8510
ען	8511
פסו	8512
תדע	8513
##hd	8514
##ms	8515
באיר	8516
הפל	8517
הנק	8518
קידו	8519
וקת	8520
lea	8521
מסתו	8522
ext	8523
mana	8524
high	8525
במקומ	8526
ject	8527
fun	8528
rome	8529
sal	8530
vil	8531
גשות	8532
לשר	8533
שוני	8534
תכן	8535
##ni	8536
ביני	8537
ריאו	8538
ניט	8539
טיש	8540
מבק	8541
בסן	8542
וריי	8543
מטופ	8544
רפוא	8545
מתיי	8546
קדימ	8547
##ull	8548
box	8549
41	8550
dre	8551
hy	8552
just	8553
men	8554
tel	8555
גנה	8556
פקי	8557
##hi	8558
##po	8559
בעונ	8560
ורך	8561
מענ	8562
שמד	8563
ונל	8564
וניס	8565
fac	8566
cloud	8567
כעס	8568
drive	8569
51	8570
gam	8571
han	8572
sen	8573
דופ	8574
דאו	8575
ננה	8576
עוק	8577
##vd	8578
שלנ	8579
אוסט	8580
אלפ	8581
השע	8582
הרגל	8583
הכו	8584
הזכ	8585
יסו	8586
זכי	8587
השתל	8588
הצלחת	8589
skype	8590
72	8591
bel	8592
best	8593
ious	8594
ub	8595
אשי	8596
גות	8597
פאים	8598
פטו	8599
צית	8600
שסי	8601
מערי	8602
פרע	8603
לחמו	8604
כולי	8605
מרבי	8606
יונית	8607
ויזי	8608
גישים	8609
מניה	8610
heart	8611
600	8612
fli	8613
iz	8614
ium	8615
les	8616
san	8617
גונ	8618
גנט	8619
צלם	8620
מסי	8621
הפכ	8622
ייצ	8623
מזכ	8624
יזיה	8625
ציאו	8626
וקרט	8627
250	8628
ינסו	8629
עתו	8630
גישו	8631
space	8632
קישו	8633
call	8634
fri	8635
ob	8636
pra	8637
que	8638
ter	8639
מילי	8640
צילו	8641
תוד	8642
##dy	8643
הילו	8644
ורבי	8645
פרץ	8646
הנא	8647
הלל	8648
הלים	8649
וצא	8650
ונח	8651
רצף	8652
יצי	8653
טרות	8654
לנק	8655
ביתה	8656
state	8657
עמק	8658
##olo	8659
##ott	8660
סטיק	8661
iew	8662
דבש	8663
לדוגמ	8664
68	8665
io	8666
ju	8667
mas	8668
sel	8669
wood	8670
גום	8671
לזו	8672
פוש	8673
רטים	8674
המה	8675
הענ	8676
ילית	8677
עדו	8678
רגון	8679
לספ	8680
ינן	8681
להתר	8682
anal	8683
יירו	8684
##iss	8685
##oth	8686
phy	8687
adhd	8688
fer	8689
how	8690
ios	8691
tu	8692
wom	8693
נטים	8694
סרי	8695
סירי	8696
קית	8697
קיל	8698
מהצ	8699
הרוו	8700
ובים	8701
אפיל	8702
בתנ	8703
וסטר	8704
לצו	8705
רונו	8706
תכוו	8707
ידעת	8708
בארצ	8709
קדמת	8710
mast	8711
und	8712
##ourn	8713
iii	8714
desi	8715
know	8716
excel	8717
),	8718
mat	8719
nor	8720
nort	8721
our	8722
pet	8723
ris	8724
וואה	8725
ויבי	8726
חבור	8727
לדי	8728
עַ	8729
לאפ	8730
ישית	8731
הפרי	8732
ברל	8733
ומד	8734
הנג	8735
ויצ	8736
רובו	8737
הטב	8738
צעים	8739
זיכ	8740
120	8741
וונטי	8742
link	8743
secur	8744
56	8745
59	8746
journ	8747
king	8748
oin	8749
חכו	8750
כתי	8751
סגל	8752
ששי	8753
המלחמ	8754
באף	8755
שמל	8756
שמצ	8757
פרדי	8758
אפס	8759
ועי	8760
ופך	8761
יטית	8762
ידית	8763
ודמ	8764
ימיו	8765
ובלת	8766
iso	8767
asso	8768
euro	8769
בתקופ	8770
54	8771
58	8772
61	8773
tm	8774
tre	8775
חשה	8776
כיה	8777
עזו	8778
שגי	8779
משקי	8780
וללת	8781
אלל	8782
החמי	8783
למס	8784
העלי	8785
הכח	8786
##חינ	8787
מבחינ	8788
לצר	8789
מגוו	8790
בריט	8791
גלוב	8792
נבו	8793
טכנ	8794
##ult	8795
365	8796
בטיחו	8797
rg	8798
בנת	8799
טנה	8800
טאי	8801
מץ	8802
נדע	8803
קופה	8804
קאו	8805
שפי	8806
##ew	8807
אוחר	8808
כלבי	8809
התגל	8810
כיו	8811
בעמ	8812
והות	8813
ראל	8814
יינת	8815
אבים	8816
נפח	8817
לגו	8818
צעדי	8819
וחו	8820
מודים	8821
child	8822
roid	8823
רוכה	8824
cast	8825
ult	8826
000	8827
",	8828
66	8829
den	8830
found	8831
fbi	8832
gala	8833
tch	8834
ual	8835
זרי	8836
נלך	8837
האף	8838
מיט	8839
ישמ	8840
חיינ	8841
ברמ	8842
ברוא	8843
לפל	8844
ומא	8845
הסביב	8846
לחה	8847
וכות	8848
הדפ	8849
ושנ	8850
האינ	8851
אינד	8852
אירו	8853
##ind	8854
נעו	8855
rect	8856
סלמ	8857
roy	8858
road	8859
like	8860
##irl	8861
peo	8862
grand	8863
אוהבי	8864
dream	8865
count	8866
hill	8867
rt	8868
ts	8869
בקי	8870
כג	8871
לדר	8872
עדה	8873
תיה	8874
##iz	8875
הינ	8876
ביים	8877
השב	8878
שאב	8879
ובות	8880
במכ	8881
ומכ	8882
ומטי	8883
ונש	8884
תרת	8885
ספט	8886
פלס	8887
דורו	8888
נוספ	8889
##eld	8890
she	8891
נועה	8892
המתנ	8893
צירת	8894
דחף	8895
isra	8896
white	8897
plus	8898
שיבו	8899
graph	8900
elect	8901
הוצאו	8902
ds	8903
oec	8904
pub	8905
ty	8906
וון	8907
נבי	8908
ותך	8909
החמ	8910
ניינ	8911
ובח	8912
סימנ	8913
מקד	8914
ומכי	8915
פער	8916
הנך	8917
רגיה	8918
פורים	8919
פלים	8920
חסד	8921
קרייר	8922
leg	8923
sub	8924
big	8925
מבינ	8926
times	8927
gram	8928
music	8929
media	8930
אמריק	8931
dvd	8932
gb	8933
jam	8934
דחה	8935
טטי	8936
צאת	8937
קיות	8938
מיכ	8939
מער	8940
העד	8941
סיי	8942
סיט	8943
כשו	8944
בחז	8945
ינתי	8946
לדף	8947
פרסו	8948
נחו	8949
הביטו	8950
ang	8951
##ish	8952
lear	8953
שארו	8954
תפתחו	8955
oecd	8956
gro	8957
old	8958
sn	8959
vol	8960
זת	8961
זיות	8962
יוכ	8963
נאים	8964
רמל	8965
מהה	8966
ולך	8967
ראמ	8968
ועמ	8969
קרל	8970
עיק	8971
לתו	8972
אגב	8973
וויז	8974
max	8975
dev	8976
פסל	8977
lib	8978
digi	8979
usb	8980
boy	8981
great	8982
bitc	8983
aa	8984
ep	8985
fam	8986
pic	8987
לֹ	8988
רנו	8989
##ek	8990
##מכי	8991
##ko	8992
שלמי	8993
הימי	8994
מסמכי	8995
תייר	8996
נוני	8997
דיין	8998
הקטנ	8999
וכמ	9000
ללכ	9001
יתון	9002
יצו	9003
רובים	9004
לתר	9005
פשו	9006
era	9007
inn	9008
thing	9009
חוקרי	9010
וחז	9011
##ork	9012
##ink	9013
שעם	9014
כתבת	9015
story	9016
ant	9017
נדרט	9018
##cha	9019
תיקו	9020
rob	9021
ary	9022
לֹא	9023
ball	9024
ff	9025
ool	9026
יזי	9027
כירה	9028
פטי	9029
צבי	9030
המוש	9031
השד	9032
החול	9033
ריית	9034
פרקי	9035
טיני	9036
בסמ	9037
אבטח	9038
##ono	9039
להתפ	9040
זרע	9041
קווה	9042
עמם	9043
יגים	9044
הסינ	9045
קשו	9046
compa	9047
הנוס	9048
law	9049
צהר	9050
emp	9051
כבן	9052
god	9053
800	9054
every	9055
ibm	9056
gar	9057
girl	9058
hel	9059
iet	9060
ns	9061
now	9062
pdf	9063
rom	9064
sl	9065
sq	9066
ward	9067
york	9068
בורי	9069
זג	9070
מבר	9071
עמה	9072
ליצי	9073
שהג	9074
החיי	9075
בשיר	9076
ייני	9077
לחלו	9078
בליל	9079
גיעים	9080
לסו	9081
ציני	9082
תשת	9083
הכלכל	9084
משתתפ	9085
off	9086
cho	9087
בורו	9088
dead	9089
ory	9090
edi	9091
אולו	9092
ware	9093
ives	9094
כעל	9095
##qui	9096
##qua	9097
award	9098
html	9099
פייס	9100
מבקשי	9101
gon	9102
lla	9103
pp	9104
דדים	9105
חתי	9106
יאים	9107
עוג	9108
קפת	9109
קחת	9110
##fl	9111
##ki	9112
שיכה	9113
ולמי	9114
חשף	9115
הנצ	9116
הנע	9117
יתו	9118
יתית	9119
ופע	9120
ופנ	9121
חזו	9122
ארצו	9123
מניו	9124
פגו	9125
org	9126
טורק	9127
##utt	9128
מסתכ	9129
last	9130
jew	9131
':	9132
62	9133
bm	9134
fu	9135
fed	9136
mu	9137
rd	9138
rad	9139
גוס	9140
הוע	9141
ננת	9142
קורי	9143
קומי	9144
##io	9145
ימית	9146
sto	9147
reg	9148
ney	9149
show	9150
where	9151
אודו	9152
year	9153
cs	9154
cc	9155
far	9156
mil	9157
nu	9158
set	9159
אמש	9160
דכ	9161
הימנ	9162
אוצ	9163
מיכה	9164
דימ	9165
מקי	9166
הגו	9167
פרנ	9168
טיק	9169
לגה	9170
##ord	9171
וליו	9172
קנד	9173
isla	9174
plan	9175
geo	9176
אוטומ	9177
clo	9178
eum	9179
hor	9180
ira	9181
ori	9182
ron	9183
sil	9184
some	9185
ze	9186
אובד	9187
יוק	9188
נעה	9189
קמת	9190
לימו	9191
דינו	9192
לפה	9193
הגג	9194
אמצ	9195
תקד	9196
שבט	9197
לצמ	9198
ינא	9199
אסד	9200
אליות	9201
פריה	9202
סעד	9203
רישו	9204
para	9205
sky	9206
3d	9207
57	9208
82	9209
ain	9210
cat	9211
gps	9212
זיו	9213
חדה	9214
כויות	9215
ענת	9216
תלך	9217
##ure	9218
##כנ	9219
האיר	9220
מיץ	9221
השטח	9222
חשד	9223
וגות	9224
מפג	9225
שבתי	9226
קטנ	9227
עשן	9228
הטכנ	9229
בטן	9230
סטא	9231
ודית	9232
נסים	9233
led	9234
tain	9235
קאית	9236
class	9237
ures	9238
abc	9239
open	9240
mind	9241
69	9242
bad	9243
dc	9244
gic	9245
hyp	9246
ide	9247
mer	9248
sion	9249
פוב	9250
צאי	9251
רנית	9252
שונ	9253
שטר	9254
##fo	9255
האזור	9256
ביות	9257
החג	9258
תיאו	9259
הקש	9260
ההז	9261
יסטו	9262
אסו	9263
שוו	9264
קודת	9265
ina	9266
וחש	9267
בצו	9268
rea	9269
nev	9270
רסמ	9271
רמז	9272
mag	9273
דפו	9274
פיקו	9275
lab	9276
##umb	9277
מקבלי	9278
##ged	9279
##unt	9280
field	9281
view	9282
חיצו	9283
learn	9284
63	9285
az	9286
bn	9287
dan	9288
fir	9289
gged	9290
ram	9291
rus	9292
uk	9293
uv	9294
xbo	9295
לפר	9296
לדו	9297
צלח	9298
קחי	9299
המנה	9300
ירים	9301
מרוצ	9302
ינדי	9303
בכו	9304
לוהי	9305
יאור	9306
וסיי	9307
##oll	9308
יריו	9309
ems	9310
מתכנ	9311
xbox	9312
bir	9313
bank	9314
dark	9315
hal	9316
lic	9317
mart	9318
nolo	9319
tou	9320
test	9321
דשה	9322
טיה	9323
סאו	9324
##vo	9325
ותא	9326
אלך	9327
למוד	9328
ורית	9329
לעמ	9330
יכי	9331
סיע	9332
בשבי	9333
הסב	9334
לשו	9335
ירופ	9336
ההב	9337
ערו	9338
לתל	9339
גבו	9340
משיכ	9341
eng	9342
נוספו	9343
town	9344
רסם	9345
dex	9346
חפץ	9347
sui	9348
יסבו	9349
emb	9350
head	9351
face	9352
pres	9353
resp	9354
resea	9355
מקצוע	9356
ההזד	9357
87	9358
ast	9359
bon	9360
batt	9361
fic	9362
litt	9363
mm	9364
pass	9365
tom	9366
חירו	9367
טילי	9368
פשי	9369
צול	9370
תנת	9371
תלו	9372
##dp	9373
היגי	9374
באז	9375
אלמ	9376
ורקי	9377
העונ	9378
מרח	9379
הזכו	9380
הטל	9381
תרם	9382
בסופ	9383
תפש	9384
באיז	9385
char	9386
אינטל	9387
וועד	9388
pha	9389
ema	9390
eth	9391
תצא	9392
יומנו	9393
song	9394
360	9395
east	9396
key	9397
היחסי	9398
פקידי	9399
**	9400
ef	9401
fall	9402
may	9403
od	9404
pat	9405
rce	9406
sor	9407
wall	9408
xx	9409
אהו	9410
הזר	9411
יבל	9412
לרב	9413
שלל	9414
שהד	9415
דינה	9416
ואיל	9417
הסר	9418
ללב	9419
יתים	9420
רובות	9421
שנכ	9422
וחרי	9423
וחדים	9424
ורגני	9425
המער	9426
spe	9427
##und	9428
bab	9429
dav	9430
700	9431
אנרג	9432
76	9433
77	9434
hua	9435
non	9436
pm	9437
site	9438
ten	9439
בנט	9440
זעם	9441
כירי	9442
הישר	9443
ליוו	9444
מאלי	9445
מעז	9446
שמב	9447
מצע	9448
לפס	9449
ההצ	9450
שבנ	9451
שבות	9452
יטים	9453
יקב	9454
chri	9455
tect	9456
התקופ	9457
ices	9458
fort	9459
חצית	9460
when	9461
sco	9462
הבריא	9463
syn	9464
ways	9465
here	9466
הארו	9467
corp	9468
73	9469
81	9470
bds	9471
game	9472
kill	9473
ox	9474
rs	9475
rh	9476
tt	9477
ula	9478
אקדמ	9479
דאי	9480
מטי	9481
עוף	9482
אתג	9483
ומט	9484
לשאו	9485
ועב	9486
קיס	9487
ממנ	9488
לסט	9489
וזים	9490
התעל	9491
תרגו	9492
moon	9493
ama	9494
רופאי	9495
swi	9496
roll	9497
קרטיה	9498
fox	9499
זאב	9500
first	9501
78	9502
ft	9503
fre	9504
lt	9505
mt	9506
mor	9507
tit	9508
yo	9509
חונ	9510
מודי	9511
צמת	9512
קסט	9513
תבים	9514
אוג	9515
ביכ	9516
ולנו	9517
ולטי	9518
הרף	9519
לומו	9520
סיסי	9521
עדת	9522
וצי	9523
בחג	9524
ציפו	9525
תמך	9526
there	9527
מנג	9528
המשמע	9529
יאני	9530
מדברי	9531
shop	9532
ומיות	9533
180	9534
phi	9535
body	9536
smart	9537
poli	9538
place	9539
lond	9540
שתתפי	9541
עַל	9542
88	9543
ah	9544
cas	9545
gm	9546
gue	9547
hen	9548
ld	9549
lg	9550
mr	9551
rc	9552
tour	9553
בפה	9554
גדים	9555
ודים	9556
חמת	9557
ידול	9558
פורי	9559
קוני	9560
##fc	9561
##ja	9562
אתך	9563
##ניה	9564
המינ	9565
האנו	9566
התנוע	9567
הגות	9568
וכרי	9569
ויח	9570
רגילי	9571
קטנו	9572
שרוי	9573
תכנו	9574
שכי	9575
##ero	9576
עירי	9577
בצל	9578
stand	9579
sms	9580
blood	9581
imp	9582
java	9583
walk	9584
אתגרי	9585
96	9586
bot	9587
cour	9588
ege	9589
gs	9590
gard	9591
זז	9592
חבי	9593
יאות	9594
תונ	9595
לאחרי	9596
המנו	9597
מתכו	9598
הקי	9599
הקנ	9600
ואות	9601
אמנו	9602
הכס	9603
מפו	9604
עיים	9605
ושבי	9606
נגע	9607
שובי	9608
ודדו	9609
כהה	9610
top	9611
הרשו	9612
אוסטר	9613
have	9614
happ	9615
שחיי	9616
north	9617
ban	9618
bay	9619
cu	9620
card	9621
gin	9622
hbo	9623
len	9624
tur	9625
vir	9626
wild	9627
דנה	9628
הראי	9629
שאנ	9630
ההל	9631
לסמ	9632
טרף	9633
inv	9634
thc	9635
שובים	9636
וחבר	9637
פחם	9638
המיי	9639
מדעני	9640
chu	9641
גנב	9642
capi	9643
riv	9644
dog	9645
hist	9646
cry	9647
explo	9648
sung	9649
creat	9650
long	9651
voi	9652
האנוש	9653
86	9654
98	9655
ak	9656
bas	9657
food	9658
oth	9659
pen	9660
rr	9661
sing	9662
tte	9663
use	9664
בוני	9665
דנו	9666
זקה	9667
חרב	9668
ימנ	9669
ליר	9670
נאו	9671
ררי	9672
##zz	9673
מיות	9674
והמו	9675
הגור	9676
לכול	9677
תחים	9678
ידיי	9679
וענ	9680
ועמד	9681
קרונ	9682
ושא	9683
טרפ	9684
thou	9685
ריקנ	9686
מגנ	9687
סטית	9688
קורת	9689
קוראי	9690
קוריא	9691
לדמ	9692
ודל	9693
רטור	9694
##sta	9695
any	9696
alt	9697
בתחומ	9698
too	9699
האלבו	9700
ley	9701
phen	9702
sport	9703
ררו	9704
page	9705
חלומו	9706
prise	9707
green	9708
south	9709
sql	9710
71	9711
74	9712
91	9713
ae	9714
bat	9715
eas	9716
iq	9717
ky	9718
oc	9719
ray	9720
ria	9721
sd	9722
want	9723
אסף	9724
פאי	9725
פילי	9726
##קא	9727
אוז	9728
התור	9729
חשק	9730
שנע	9731
תרו	9732
מגור	9733
אגף	9734
מריקא	9735
ורגנ	9736
##oot	9737
mad	9738
room	9739
aca	9740
פלגה	9741
יוצרי	9742
over	9743
film	9744
david	9745
84	9746
92	9747
avi	9748
base	9749
cp	9750
db	9751
hall	9752
las	9753
mg	9754
ous	9755
rer	9756
tro	9757
כמת	9758
צבר	9759
ריבי	9760
רופו	9761
##uc	9762
##hs	9763
##-)	9764
החר	9765
רייה	9766
הגש	9767
בתמ	9768
יצוב	9769
תהא	9770
חושה	9771
מגב	9772
ali	9773
sho	9774
icle	9775
דהים	9776
die	9777
ipad	9778
350	9779
שוטה	9780
build	9781
berg	9782
לטיפ	9783
block	9784
flix	9785
bnb	9786
93	9787
aft	9788
dro	9789
flo	9790
hard	9791
jan	9792
lan	9793
mit	9794
nia	9795
pan	9796
sla	9797
tar	9798
van	9799
דיות	9800
חזה	9801
מזר	9802
סוב	9803
רונה	9804
##be	9805
##gg	9806
שיפו	9807
התחת	9808
שהיי	9809
בעני	9810
הקמ	9811
הקור	9812
הנשי	9813
מבקרי	9814
ופט	9815
יטני	9816
רכזי	9817
וחדת	9818
סמכו	9819
לילדי	9820
מחשבי	9821
adv	9822
כבש	9823
wire	9824
rich	9825
econo	9826
games	9827
לפרו	9828
but	9829
band	9830
dou	9831
ear	9832
full	9833
ges	9834
hu	9835
hand	9836
jer	9837
oli	9838
pu	9839
rro	9840
run	9841
tis	9842
well	9843
yn	9844
אדע	9845
נאל	9846
##rc	9847
ותכ	9848
ותן	9849
למל	9850
למח	9851
ורגל	9852
ברס	9853
יהוד	9854
הצמ	9855
ללק	9856
דרת	9857
הזן	9858
קרם	9859
רגו	9860
קצו	9861
יקש	9862
ספת	9863
##ond	9864
נפץ	9865
תעש	9866
start	9867
store	9868
only	9869
ana	9870
סוו	9871
סלע	9872
death	9873
רועים	9874
שחש	9875
memo	9876
excha	9877
spec	9878
צלב	9879
ssion	9880
החומר	9881
pala	9882
two	9883
solu	9884
aven	9885
jewi	9886
baby	9887
ava	9888
bell	9889
bour	9890
dam	9891
gdp	9892
low	9893
lus	9894
lcd	9895
mill	9896
yes	9897
גדו	9898
הטרו	9899
זורי	9900
חצר	9901
טנו	9902
כדו	9903
לתי	9904
סית	9905
צונ	9906
קשב	9907
קעו	9908
שורי	9909
##cy	9910
##פט	9911
היס	9912
ליף	9913
לייה	9914
במלחמ	9915
לשל	9916
אפק	9917
וכרים	9918
דרנ	9919
קטיב	9920
רחל	9921
יבט	9922
כנר	9923
ther	9924
המשפט	9925
יודעי	9926
נתניה	9927
stop	9928
פקים	9929
הסיפו	9930
ששם	9931
force	9932
dio	9933
medi	9934
phd	9935
צהרי	9936
המכונ	9937
fair	9938
wifi	9939
lyn	9940
quest	9941
ebay	9942
trip	9943
!!!	9944
summ	9945
??	9946
aga	9947
dent	9948
ee	9949
eff	9950
iot	9951
ling	9952
mount	9953
ole	9954
rou	9955
vs	9956
wri	9957
בירי	9958
זבל	9959
טני	9960
כבל	9961
קעה	9962
קסו	9963
##ach	9964
##ho	9965
שיני	9966
מעוני	9967
שמג	9968
יהא	9969
ייע	9970
הכפ	9971
הכשר	9972
לחג	9973
בהצ	9974
ויי	9975
יצג	9976
יאול	9977
rem	9978
מודר	9979
att	9980
team	9981
יביות	9982
dep	9983
ics	9984
see	9985
eli	9986
##ump	9987
spi	9988
130	9989
url	9990
דולים	9991
meta	9992
dera	9993
אלקטר	9994
cnn	9995
fami	9996
never	9997
%.	9998
cm	9999
cell	10000
dust	10001
date	10002
gory	10003
hon	10004
rge	10005
side	10006
tan	10007
דמנ	10008
חנו	10009
חרים	10010
טד	10011
סדי	10012
רחי	10013
##sp	10014
ביבה	10015
העז	10016
ובוס	10017
שמם	10018
קרוא	10019
שונו	10020
צעי	10021
צעק	10022
שגו	10023
temp	10024
make	10025
ford	10026
lake	10027
adva	10028
why	10029
##arth	10030
saint	10031
board	10032
talk	10033
twitt	10034
טחונ	10035
beach	10036
ville	10037
bmw	10038
79	10039
97	10040
bt	10041
cit	10042
dge	10043
eo	10044
gall	10045
hc	10046
jon	10047
ken	10048
lli	10049
mri	10050
ola	10051
pv	10052
sf	10053
say	10054
squa	10055
tell	10056
דגי	10057
דירו	10058
זמי	10059
זמר	10060
יופ	10061
צלו	10062
קיה	10063
קנס	10064
ליח	10065
מאט	10066
השפה	10067
שאז	10068
וראו	10069
הערי	10070
מציאו	10071
דיים	10072
ואים	10073
פעילו	10074
הנר	10075
טיים	10076
ימס	10077
הכלל	10078
שכת	10079
גורר	10080
ena	10081
נצא	10082
יירי	10083
##amp	10084
השפע	10085
mak	10086
made	10087
bey	10088
pos	10089
scri	10090
club	10091
days	10092
cru	10093
psy	10094
medic	10095
ncy	10096
self	10097
ara	10098
cur	10099
dor	10100
fut	10101
gan	10102
got	10103
mel	10104
mass	10105
ocd	10106
path	10107
rum	10108
ses	10109
sin	10110
sort	10111
tn	10112
was	10113
za	10114
געים	10115
הוש	10116
ווח	10117
חוי	10118
מגי	10119
##ny	10120
##av	10121
##10	10122
##gle	10123
ותב	10124
התוצא	10125
למנו	10126
מעו	10127
מעצ	10128
בשש	10129
שמונ	10130
יהנ	10131
תקשור	10132
הלם	10133
ללת	10134
וגוס	10135
ערוכ	10136
שפעו	10137
קציה	10138
בבני	10139
ind	10140
צפות	10141
להיכ	10142
stor	10143
אקח	10144
deep	10145
ico	10146
רועי	10147
fore	10148
arm	10149
sex	10150
diam	10151
unic	10152
nger	10153
חצה	10154
nov	10155
להרג	10156
ורבו	10157
oper	10158
ida	10159
ill	10160
priva	10161
duct	10162
הציבו	10163
cyb	10164
visi	10165
ntial	10166
women	10167
touch	10168
amaz	10169
bol	10170
bow	10171
dn	10172
earth	10173
fish	10174
gp	10175
gma	10176
ior	10177
ji	10178
jun	10179
ker	10180
uc	10181
wan	10182
zi	10183
בום	10184
דקי	10185
ידים	10186
רזה	10187
רמנ	10188
ששה	10189
תוע	10190
##ap	10191
##zi	10192
לאם	10193
לאד	10194
האומ	10195
באנ	10196
שיות	10197
מיז	10198
לבת	10199
שמך	10200
אמני	10201
יחים	10202
טרת	10203
insi	10204
כרונ	10205
theat	10206
גלם	10207
ens	10208
מודד	10209
nel	10210
##ush	10211
dist	10212
ngo	10213
code	10214
doc	10215
very	10216
ססת	10217
find	10218
keep	10219
beaut	10220
born	10221
woman	10222
huaw	10223
bs	10224
bou	10225
cli	10226
cate	10227
lou	10228
lle	10229
rim	10230
tin	10231
ura	10232
vall	10233
גט	10234
יתיים	10235
נוק	10236
ננסי	10237
קשי	10238
##tp	10239
##ws	10240
##sh	10241
ותנו	10242
היתר	10243
להיע	10244
המיו	10245
אימי	10246
מאפי	10247
השוו	10248
החם	10249
בעם	10250
ריכי	10251
לענ	10252
הפינ	10253
ברב	10254
העו	10255
ובט	10256
שמץ	10257
הצר	10258
מלב	10259
מכת	10260
מרד	10261
וגב	10262
ההם	10263
מפס	10264
שבן	10265
יקנ	10266
בגב	10267
##ont	10268
נפו	10269
קבות	10270
##inc	10271
שקעו	10272
onse	10273
ani	10274
anti	10275
##ict	10276
סתו	10277
רסל	10278
come	10279
להסב	10280
mod	10281
rain	10282
usa	10283
fact	10284
pack	10285
sig	10286
care	10287
flash	10288
cbs	10289
api	10290
fina	10291
נשימ	10292
insta	10293
james	10294
angel	10295
ltd	10296
:-)	10297
aust	10298
cir	10299
dd	10300
eur	10301
hub	10302
hine	10303
nci	10304
pur	10305
var	10306
וחת	10307
חגי	10308
לטים	10309
נך	10310
##em	10311
להל	10312
אוף	10313
בעז	10314
מען	10315
מעץ	10316
הבור	10317
לחמת	10318
פיז	10319
ועים	10320
שתן	10321
think	10322
סבב	10323
בריה	10324
נתת	10325
step	10326
שקור	10327
שטף	10328
alb	10329
וותי	10330
list	10331
limi	10332
dies	10333
eld	10334
מסוגל	10335
take	10336
emba	10337
cap	10338
qui	10339
eye	10340
jack	10341
flow	10342
תעשיי	10343
ship	10344
break	10345
ynet	10346
cou	10347
cult	10348
fro	10349
fle	10350
fest	10351
hil	10352
lor	10353
mul	10354
ou	10355
rit	10356
ras	10357
sit	10358
type	10359
ven	10360
xia	10361
גמו	10362
עיתי	10363
צמד	10364
רטיס	10365
שדו	10366
תלת	10367
##cp	10368
##12	10369
ותפו	10370
האירו	10371
באם	10372
שאות	10373
בעינ	10374
העתיד	10375
ומלץ	10376
בתם	10377
רבנו	10378
וצאי	10379
קרק	10380
ונע	10381
יננו	10382
עסו	10383
המשו	10384
חסן	10385
ald	10386
need	10387
דעי	10388
המתא	10389
def	10390
הסתכ	10391
להשק	10392
פסח	10393
mid	10394
pop	10395
rib	10396
ural	10397
resi	10398
trav	10399
ific	10400
publi	10401
gical	10402
gdpr	10403
bill	10404
four	10405
hat	10406
nas	10407
ome	10408
vide	10409
חורי	10410
כץ	10411
נפת	10412
עף	10413
צחון	10414
שקי	10415
##bs	10416
החופ	10417
הפק	10418
היהוד	10419
העצ	10420
עצו	10421
הכה	10422
וגלי	10423
עשת	10424
טרים	10425
eri	10426
ino	10427
קלא	10428
##ale	10429
ann	10430
בדב	10431
חתך	10432
neu	10433
chat	10434
פגם	10435
tec	10436
mail	10437
##uth	10438
sev	10439
nte	10440
ntal	10441
rio	10442
mari	10443
paul	10444
disco	10445
frank	10446
chain	10447
ival	10448
ular	10449
auth	10450
gho	10451
bird	10452
rrow	10453
//	10454
89	10455
bp	10456
cel	10457
fm	10458
fal	10459
fess	10460
gia	10461
ped	10462
sound	10463
tas	10464
tta	10465
wol	10466
חף	10467
טבק	10468
ננס	10469
פירו	10470
##lp	10471
##wa	10472
##zo	10473
היק	10474
הרך	10475
לפח	10476
הגה	10477
ילוס	10478
פעי	10479
מדף	10480
ספא	10481
ero	10482
מטפ	10483
בגז	10484
יעור	10485
##ara	10486
stic	10487
קיבלת	10488
tooth	10489
shutt	10490
הקרב	10491
110	10492
cop	10493
קופת	10494
emi	10495
ett	10496
add	10497
advi	10498
log	10499
load	10500
mary	10501
להחלי	10502
ury	10503
המטופ	10504
לונדו	10505
wars	10506
fly	10507
duc	10508
buy	10509
civ	10510
guard	10511
feel	10512
llc	10513
brand	10514
burg	10515
camp	10516
azure	10517
happy	10518
again	10519
העצמ	10520
bb	10521
ck	10522
fat	10523
gate	10524
ih	10525
ku	10526
nk	10527
sse	10528
sna	10529
tz	10530
ua	10531
אטר	10532
הוס	10533
יבד	10534
סמו	10535
ענים	10536
פילו	10537
פוני	10538
פכת	10539
תאו	10540
##sd	10541
הימים	10542
לאז	10543
מאף	10544
מסכי	10545
ברת	10546
ומנו	10547
לשנ	10548
חלף	10549
שנר	10550
גדולי	10551
פתק	10552
נגן	10553
ini	10554
thy	10555
תעל	10556
##ars	10557
זרק	10558
וונו	10559
עמך	10560
ense	10561
engi	10562
וזכ	10563
פקטי	10564
נסיו	10565
סלול	10566
chan	10567
leo	10568
midd	10569
liv	10570
supp	10571
php	10572
esse	10573
exec	10574
wind	10575
בתוכנ	10576
ries	10577
sap	10578
cross	10579
pea	10580
tory	10581
trade	10582
host	10583
hero	10584
aws	10585
soul	10586
cali	10587
cdc	10588
לברי	10589
craft	10590
fund	10591
sense	10592
roma	10593
magic	10594
charl	10595
court	10596
multi	10597
ghost	10598
5g	10599
cin	10600
cla	10601
cess	10602
eat	10603
epa	10604
fit	10605
ful	10606
foll	10607
gri	10608
hr	10609
his	10610
hold	10611
ml	10612
md	10613
nch	10614
nbc	10615
pia	10616
ran	10617
sat	10618
som	10619
sus	10620
vr	10621
zen	10622
zone	10623
zero	10624
גוני	10625
טת	10626
מגר	10627
נבע	10628
עפר	10629
עולי	10630
פואה	10631
ציתי	10632
ליום	10633
שיכ	10634
##גיט	10635
יכא	10636
דיגיט	10637
ועית	10638
ההורי	10639
ממס	10640
ופטי	10641
פתאו	10642
תרב	10643
ידך	10644
info	10645
עילי	10646
להתמ	10647
כרון	10648
הולד	10649
נחנ	10650
חרות	10651
פתרו	10652
week	10653
esp	10654
beat	10655
movi	10656
ipo	10657
rial	10658
dos	10659
safe	10660
dail	10661
true	10662
ssl	10663
ליכים	10664
poly	10665
אֶל	10666
brain	10667
simp	10668
ridge	10669
engli	10670
scrip	10671
83	10672
bli	10673
cort	10674
dol	10675
dell	10676
gt	10677
ire	10678
iam	10679
kh	10680
kra	10681
kind	10682
lis	10683
nn	10684
nsa	10685
numb	10686
pon	10687
pot	10688
uri	10689
גלת	10690
דדו	10691
זקי	10692
ניל	10693
צחק	10694
צרים	10695
שטי	10696
שחל	10697
##ug	10698
##eet	10699
##vp	10700
בימ	10701
ביג	10702
לינו	10703
מסה	10704
מחמ	10705
ובלי	10706
הנמ	10707
הנת	10708
הנפ	10709
ממצ	10710
ממק	10711
erm	10712
tho	10713
לגמר	10714
קביל	10715
יעים	10716
בנם	10717
בזו	10718
יתרו	10719
גלג	10720
רשע	10721
ala	10722
נטית	10723
nect	10724
ייתה	10725
סלמי	10726
tock	10727
רותי	10728
יביו	10729
dec	10730
demo	10731
125	10732
גוו	10733
lia	10734
סטיי	10735
spot	10736
האסטר	10737
lock	10738
heb	10739
mars	10740
hav	10741
nda	10742
train	10743
cryp	10744
תנהגו	10745
>>>	10746
דולר	10747
file	10748
gett	10749
ners	10750
visa	10751
veg	10752
hpv	10753
mics	10754
silv	10755
easy	10756
writ	10757
$.	10758
ay	10759
coo	10760
core	10761
dar	10762
fla	10763
hom	10764
ien	10765
nfl	10766
pas	10767
rna	10768
tree	10769
xp	10770
zo	10771
גונים	10772
טתי	10773
יומנ	10774
פאו	10775
##ok	10776
##fs	10777
##ku	10778
##zy	10779
##mb	10780
##ִם	10781
ותיים	10782
כימ	10783
יכונ	10784
עבה	10785
במט	10786
לפנ	10787
לשפ	10788
וכבי	10789
הזי	10790
ועדי	10791
ונדו	10792
וימים	10793
רגה	10794
ופכ	10795
יחוד	10796
וקטו	10797
לנש	10798
בכף	10799
ריקו	10800
נטש	10801
tool	10802
shen	10803
main	10804
icrc	10805
כסא	10806
nto	10807
פיצו	10808
נויו	10809
conv	10810
usd	10811
asp	10812
gear	10813
hack	10814
pap	10815
נוסעי	10816
prep	10817
final	10818
htc	10819
blog	10820
villa	10821
stock	10822
hyper	10823
sfer	10824
xiao	10825
movie	10826
):	10827
b2	10828
coun	10829
dm	10830
det	10831
dut	10832
eh	10833
fx	10834
ias	10835
kl	10836
kid	10837
lun	10838
mis	10839
mot	10840
mess	10841
mur	10842
mun	10843
np	10844
nj	10845
oce	10846
tam	10847
vent	10848
דנט	10849
ושים	10850
פז	10851
קמו	10852
קפו	10853
תוף	10854
##ey	10855
##ya	10856
אתנ	10857
הימ	10858
##ליש	10859
משנ	10860
מאמי	10861
השחק	10862
השליש	10863
התאי	10864
שהיה	10865
תיי	10866
לבה	10867
חשבי	10868
חלם	10869
הנש	10870
הלן	10871
וצו	10872
ונאי	10873
חדל	10874
נכו	10875
כתם	10876
כתר	10877
erc	10878
במהיר	10879
stone	10880
ener	10881
rew	10882
regi	10883
מוקרט	10884
##itch	10885
map	10886
ros	10887
חובו	10888
140	10889
door	10890
fast	10891
ליצו	10892
nced	10893
vip	10894
endo	10895
six	10896
colo	10897
mont	10898
track	10899
crm	10900
flu	10901
olu	10902
guide	10903
rict	10904
meth	10905
broth	10906
audi	10907
check	10908
hyd	10909
devel	10910
russ	10911
mtv	10912
oled	10913
video	10914
השחקנ	10915
94	10916
bc	10917
cart	10918
dh	10919
dic	10920
ein	10921
hos	10922
kb	10923
kin	10924
kay	10925
lay	10926
llo	10927
must	10928
miss	10929
sr	10930
sand	10931
wy	10932
yi	10933
הובי	10934
סאם	10935
צף	10936
“.	10937
##ast	10938
##gu	10939
##ִי	10940
משט	10941
משול	10942
השן	10943
וררי	10944
ברך	10945
מחס	10946
הבט	10947
לבם	10948
במדי	10949
הנם	10950
בתפ	10951
מרתי	10952
וצרי	10953
שבץ	10954
שבים	10955
ושת	10956
לצה	10957
כתף	10958
אבנ	10959
erp	10960
תכני	10961
פשרת	10962
נתונ	10963
##end	10964
ency	10965
ano	10966
עיתו	10967
המחש	10968
ath	10969
גנץ	10970
orga	10971
##ida	10972
עקרו	10973
גמא	10974
cool	10975
רטיו	10976
mann	10977
tru	10978
acro	10979
smith	10980
wiki	10981
450	10982
ties	10983
gni	10984
dern	10985
wave	10986
http	10987
driv	10988
leave	10989
pict	10990
years	10991
spect	10992
gmail	10993
circ	10994
4k	10995
aid	10996
css	10997
dl	10998
dg	10999
dot	11000
ela	11001
eco	11002
hunt	11003
ix	11004
ler	11005
lone	11006
mou	11007
nut	11008
oh	11009
ok	11010
own	11011
oak	11012
rp	11013
row	11014
rss	11015
sic	11016
vko	11017
wash	11018
wond	11019
נכה	11020
סאן	11021
תכל	11022
##ru	11023
##we	11024
##kk	11025
##go	11026
##20	11027
אנח	11028
הפני	11029
מחד	11030
נוו	11031
דיע	11032
לשלו	11033
לקה	11034
בלט	11035
וצים	11036
ויכ	11037
בניג	11038
יטלי	11039
רעל	11040
הודית	11041
ere	11042
יזצי	11043
פשרו	11044
oni	11045
101	11046
ref	11047
חרף	11048
סטרט	11049
זקים	11050
סלח	11051
סלט	11052
נולוג	11053
dem	11054
lead	11055
חפשי	11056
edit	11057
forn	11058
הניס	11059
wei	11060
unt	11061
mega	11062
cov	11063
spri	11064
שהיית	11065
ads	11066
amp	11067
uss	11068
plat	11069
doct	11070
smo	11071
small	11072
sony	11073
הקבוצ	11074
ups	11075
קיצונ	11076
qual	11077
front	11078
gies	11079
iful	11080
ctr	11081
brown	11082
assa	11083
סיבו	11084
##ney	11085
pract	11086
radio	11087
xxx	11088
מודרנ	11089
sign	11090
flex	11091
?"	11092
ari	11093
bmi	11094
ces	11095
cust	11096
dj	11097
dur	11098
ech	11099
hash	11100
ist	11101
ius	11102
jd	11103
kia	11104
kte	11105
lit	11106
mes	11107
nan	11108
nam	11109
none	11110
pin	11111
pil	11112
sma	11113
tay	11114
uit	11115
vel	11116
zoo	11117
וילי	11118
טנק	11119
פסט	11120
צמר	11121
קחים	11122
תרא	11123
##nd	11124
##que	11125
איט	11126
משש	11127
שיכי	11128
בעתי	11129
רייר	11130
רבית	11131
מדינ	11132
מפרי	11133
נהלי	11134
סטוד	11135
stat	11136
גלן	11137
וספו	11138
ona	11139
rel	11140
חרור	11141
חתן	11142
אגן	11143
nec	11144
וויו	11145
סקנ	11146
tot	11147
tow	11148
shar	11149
תתן	11150
defi	11151
rose	11152
mia	11153
sure	11154
une	11155
phil	11156
co2	11157
cost	11158
rap	11159
יברס	11160
five	11161
niz	11162
קפץ	11163
evil	11164
linu	11165
urn	11166
900	11167
commi	11168
זדמנ	11169
skin	11170
esta	11171
gene	11172
pale	11173
waze	11174
berry	11175
plea	11176
kni	11177
pyri	11178
ruct	11179
surv	11180
queen	11181
known	11182
snow	11183
help	11184
virt	11185
lync	11186
jones	11187
wolf	11188
counc	11189
(:	11190
(!	11191
ao	11192
ace	11193
cf	11194
case	11195
ew	11196
gay	11197
hit	11198
has	11199
hell	11200
jp	11201
km	11202
lat	11203
name	11204
ost	11205
oct	11206
por	11207
pun	11208
rat	11209
rest	11210
sle	11211
tol	11212
via	11213
vict	11214
wide	11215
xi	11216
yu	11217
yan	11218
בדת	11219
חיר	11220
מדם	11221
מובי	11222
נואר	11223
סמן	11224
שך	11225
תנים	11226
##wd	11227
##ye	11228
##ֶה	11229
שלף	11230
חינה	11231
לעץ	11232
מחט	11233
לבך	11234
במקרי	11235
הגס	11236
וגית	11237
חומי	11238
ופני	11239
בבד	11240
קטני	11241
לסטי	11242
מטו	11243
ודעו	11244
indi	11245
קלע	11246
קלף	11247
פחו	11248
תארי	11249
תגן	11250
enq	11251
redi	11252
יגן	11253
המחשב	11254
נטע	11255
toy	11256
פטמ	11257
chro	11258
chart	11259
ניסטי	11260
maj	11261
lee	11262
left	11263
roi	11264
rop	11265
lie	11266
did	11267
ish	11268
115	11269
meet	11270
pool	11271
ada	11272
160	11273
קמח	11274
fig	11275
even	11276
tick	11277
bru	11278
broad	11279
burn	11280
lett	11281
afp	11282
rise	11283
ldl	11284
ncial	11285
(!)	11286
"-	11287
;)	11288
ail	11289
aff	11290
bis	11291
coup	11292
e3	11293
epi	11294
ging	11295
gta	11296
hs	11297
hur	11298
ige	11299
jc	11300
jim	11301
kon	11302
lte	11303
lord	11304
moo	11305
mut	11306
mvp	11307
nh	11308
nm	11309
pad	11310
rf	11311
rre	11312
round	11313
sb	11314
sv	11315
yun	11316
zza	11317
גבה	11318
גיו	11319
ויב	11320
טסה	11321
ידם	11322
ניר	11323
נונ	11324
סתי	11325
פחה	11326
צדי	11327
##cs	11328
איכ	11329
מידים	11330
אלת	11331
השמי	11332
התקש	11333
לוטי	11334
מתת	11335
לעמו	11336
הסף	11337
הסופ	11338
לחן	11339
בהו	11340
טיי	11341
לקי	11342
קרע	11343
ונטי	11344
וימ	11345
ופא	11346
הדק	11347
תהה	11348
ימל	11349
ines	11350
סטנד	11351
נקט	11352
ודדי	11353
טליה	11354
stan	11355
still	11356
##omb	11357
reb	11358
ציאלי	11359
לטפ	11360
לזכ	11361
##ise	11362
maps	11363
lev	11364
הקרו	11365
ict	11366
edge	11367
ייסבו	11368
פולר	11369
##ird	11370
ngc	11371
אמיני	11372
tab	11373
tax	11374
tail	11375
most	11376
los	11377
טוחה	11378
save	11379
marv	11380
fab	11381
blu	11382
princ	11383
paris	11384
ssa	11385
ssin	11386
resou	11387
quer	11388
pix	11389
sweet	11390
llm	11391
irs	11392
ibs	11393
ott	11394
nics	11395
harry	11396
archi	11397
bury	11398
mali	11399
steam	11400
cert	11401
ליטיק	11402
mp3	11403
tele	11404
publ	11405
grow	11406
synd	11407
turn	11408
drop	11409
hilt	11410
bin	11411
bull	11412
cut	11413
dest	11414
ean	11415
eut	11416
equi	11417
fol	11418
ich	11419
kiss	11420
lion	11421
nint	11422
oa	11423
sney	11424
ui	11425
were	11426
wish	11427
xc	11428
zu	11429
בכה	11430
חח	11431
מדר	11432
נמנ	11433
פחי	11434
שיתי	11435
תבע	11436
##ui	11437
##טל	11438
##יתו	11439
המוע	11440
הפש	11441
ניסט	11442
הבס	11443
העט	11444
העיתו	11445
ילח	11446
ילום	11447
ירופי	11448
אפרי	11449
לקים	11450
פינו	11451
מבן	11452
ממל	11453
גרג	11454
ספג	11455
inue	11456
thro	11457
וחני	11458
סיכול	11459
sti	11460
104	11461
קומית	11462
ream	11463
reco	11464
חרם	11465
חרס	11466
דאז	11467
ערבו	11468
tea	11469
מוחל	11470
קיימו	11471
educ	11472
ark	11473
תניה	11474
nga	11475
bei	11476
bed	11477
bear	11478
coast	11479
התער	11480
nth	11481
mos	11482
lod	11483
whi	11484
צועי	11485
amd	11486
##ung	11487
heav	11488
asus	11489
bob	11490
iga	11491
tric	11492
trust	11493
eva	11494
pean	11495
peer	11496
צנח	11497
prem	11498
moni	11499
money	11500
imi	11501
palm	11502
noth	11503
cana	11504
cip	11505
oly	11506
hope	11507
guy	11508
mine	11509
nyse	11510
dys	11511
shift	11512
corn	11513
יגיטל	11514
beth	11515
rgb	11516
horiz	11517
rces	11518
hcg	11519
docu	11520
ipod	11521
ctrl	11522
המועצ	11523
a1	11524
aq	11525
bes	11526
bath	11527
b12	11528
cz	11529
cis	11530
dt	11531
kr	11532
math	11533
matt	11534
moth	11535
nca	11536
nlp	11537
opp	11538
rank	11539
sid	11540
sli	11541
sdf	11542
tone	11543
ud	11544
uli	11545
vor	11546
wel	11547
zine	11548
אֵ	11549
גסה	11550
דית	11551
דולה	11552
דשא	11553
ודש	11554
חאן	11555
טסו	11556
לדים	11557
סדו	11558
עילו	11559
רנה	11560
שקד	11561
תפת	11562
##tt	11563
##ll	11564
##ee	11565
##רג	11566
להורי	11567
המן	11568
אלית	11569
בעב	11570
בעול	11571
בעית	11572
ברש	11573
ארז	11574
מחל	11575
נוך	11576
כאיל	11577
הצפ	11578
אמם	11579
הספרי	11580
מכוו	11581
בלש	11582
תחבור	11583
וצאו	11584
קרס	11585
שבב	11586
יחל	11587
גרר	11588
בבן	11589
ספה	11590
רכס	11591
ins	11592
thi	11593
three	11594
מגה	11595
יאלי	11596
ינוא	11597
גילי	11598
stall	11599
ong	11600
rela	11601
alo	11602
toe	11603
פוטנ	11604
קדמות	11605
תחרו	11606
shell	11607
lex	11608
dios	11609
ism	11610
ision	11611
111	11612
spea	11613
move	11614
rail	11615
worth	11616
lov	11617
lost	11618
fied	11619
oogle	11620
יטיים	11621
evol	11622
myst	11623
וונט	11624
המזון	11625
clin	11626
pep	11627
האנרג	11628
רגליי	11629
jose	11630
tales	11631
tive	11632
pira	11633
cbt	11634
cio	11635
apo	11636
wwe	11637
feed	11638
wait	11639
ify	11640
yah	11641
harm	11642
nces	11643
bett	11644
beta	11645
hang	11646
boys	11647
hello	11648
halo	11649
***	11650
early	11651
jerus	11652
neuro	11653
total	11654
אפריק	11655
ממלכ	11656
$,	11657
."	11658
ax	11659
a2	11660
bh	11661
b6	11662
bing	11663
bone	11664
came	11665
dun	11666
eve	11667
fd	11668
fh	11669
fur	11670
foot	11671
git	11672
gun	11673
hour	11674
ier	11675
iro	11676
jet	11677
kg	11678
lb	11679
lam	11680
lot	11681
lum	11682
nv	11683
oi	11684
ore	11685
oil	11686
occ	11687
ount	11688
rub	11689
sg	11690
tb	11691
tat	11692
tus	11693
u2	11694
wo	11695
wer	11696
xa	11697
אגי	11698
אצי	11699
דחק	11700
ימינ	11701
כום	11702
צץ	11703
צוק	11704
צלמ	11705
קובל	11706
##wi	11707
##no	11708
ולנד	11709
התפר	11710
ורחי	11711
וראים	11712
ומע	11713
מכנ	11714
לקנ	11715
וסע	11716
רגונ	11717
ופאי	11718
תהי	11719
טרח	11720
ולאח	11721
theo	11722
פלש	11723
תגו	11724
גילים	11725
stay	11726
ene	11727
ony	11728
105	11729
ומרת	11730
rei	11731
מותי	11732
כניו	11733
לרד	11734
##ole	11735
chlo	11736
רסום	11737
tex	11738
maga	11739
lies	11740
dir	11741
unc	11742
119	11743
mean	11744
mov	11745
rac	11746
emo	11747
emer	11748
posi	11749
sca	11750
scan	11751
scal	11752
iple	11753
sac	11754
fifa	11755
trend	11756
event	11757
כבו	11758
gov	11759
past	11760
vista	11761
bib	11762
lind	11763
געש	11764
ssi	11765
gran	11766
mono	11767
trail	11768
tical	11769
prime	11770
gian	11771
give	11772
לתקו	11773
דשו	11774
rick	11775
feat	11776
הארץ	11777
brook	11778
dyna	11779
harv	11780
cribe	11781
msc	11782
frame	11783
---	11784
beli	11785
catal	11786
dani	11787
half	11788
מתכוו	11789
shock	11790
???	11791
maker	11792
india	11793
dns	11794
ribu	11795
ocean	11796
audio	11797
'?	11798
(-	11799
-.	11800
?!	11801
aka	11802
aqua	11803
aero	11804
bia	11805
cv	11806
cta	11807
dp	11808
dal	11809
dub	11810
equ	11811
gal	11812
gol	11813
gus	11814
kle	11815
lp	11816
mx	11817
mum	11818
nion	11819
ode	11820
rin	11821
rri	11822
rma	11823
ring	11824
sar	11825
same	11826
tl	11827
tun	11828
uro	11829
vin	11830
vit	11831
vet	11832
ws	11833
wp	11834
wil	11835
xic	11836
ב1	11837
ב4	11838
בבל	11839
בילים	11840
זֶה	11841
חמו	11842
טמי	11843
כעם	11844
נחי	11845
פכו	11846
רופה	11847
תמה	11848
תלה	11849
‏>	11850
’.	11851
##hr	11852
##ón	11853
##30	11854
שלד	11855
המטו	11856
המפו	11857
בישר	11858
באח	11859
באך	11860
שיד	11861
שיכו	11862
מאן	11863
השף	11864
התת	11865
בעץ	11866
למא	11867
לוונ	11868
הפן	11869
מוזי	11870
מקש	11871
לשש	11872
מכיו	11873
לקב	11874
לסב	11875
שנק	11876
רחש	11877
erv	11878
inde	11879
than	11880
סטים	11881
בנך	11882
תאום	11883
למצו	11884
##ould	11885
רטט	11886
שקעה	11887
103	11888
rema	11889
ned	11890
ita	11891
champ	11892
shou	11893
shot	11894
אכול	11895
leu	11896
forum	11897
חטף	11898
sura	11899
succ	11900
ise	11901
##ade	11902
ngua	11903
spir	11904
התמונ	11905
##ima	11906
loc	11907
amb	11908
בוהה	11909
cav	11910
plant	11911
הצדדי	11912
trou	11913
pace	11914
wix	11915
pare	11916
ssd	11917
רגישי	11918
sist	11919
size	11920
quick	11921
cola	11922
gaap	11923
away	11924
fect	11925
vac	11926
בלונד	11927
stars	11928
creed	11929
chip	11930
holy	11931
lux	11932
norwe	11933
risk	11934
trek	11935
sett	11936
mmr	11937
speed	11938
casi	11939
rror	11940
החופש	11941
civil	11942
lodge	11943
toefl	11944
evolu	11945
-"	11946
a4	11947
apa	11948
bic	11949
bound	11950
bott	11951
butt	11952
dome	11953
dha	11954
fell	11955
ffe	11956
fath	11957
gg	11958
gla	11959
gone	11960
iu	11961
ipp	11962
kan	11963
ket	11964
loo	11965
mate	11966
mult	11967
nis	11968
pg	11969
pul	11970
pci	11971
tp	11972
tum	11973
ubi	11974
witch	11975
would	11976
xk	11977
אִם	11978
גית	11979
גוך	11980
דתם	11981
וזיק	11982
חוג	11983
חכה	11984
כבים	11985
לדם	11986
מזי	11987
שדי	11988
שובה	11989
תתפ	11990
’,	11991
##so	11992
##ji	11993
היכו	11994
שיך	11995
החודש	11996
הפד	11997
ארך	11998
מחב	11999
יכנ	12000
מוכה	12001
הגם	12002
הסם	12003
מכים	12004
וכנו	12005
בלק	12006
וגז	12007
ערן	12008
גרף	12009
עשב	12010
ושית	12011
יטוי	12012
inu	12013
third	12014
כרך	12015
....	12016
תנא	12017
thera	12018
נספ	12019
חקים	12020
אצא	12021
נרד	12022
אופט	12023
חסם	12024
עמל	12025
eno	12026
envi	12027
rey	12028
וטומ	12029
קריט	12030
ימיי	12031
atla	12032
רמלי	12033
122	12034
arou	12035
elf	12036
112	12037
ההתנ	12038
tai	12039
spid	12040
etch	12041
pok	12042
cau	12043
ash	12044
assi	12045
ips	12046
rip	12047
into	12048
sab	12049
crowd	12050
ged	12051
gem	12052
vert	12053
hip	12054
קוקי	12055
haw	12056
click	12057
220	12058
wii	12059
opt	12060
qua	12061
disc	12062
premi	12063
monk	12064
monst	12065
imm	12066
ivf	12067
320	12068
דשנ	12069
apart	12070
metal	12071
eau	12072
twi	12073
brok	12074
polar	12075
filt	12076
plaza	12077
holi	12078
crazy	12079
ago	12080
agree	12081
bord	12082
').	12083
epic	12084
roman	12085
choi	12086
יבלו	12087
title	12088
cpu	12089
says	12090
model	12091
corta	12092
sleep	12093
indep	12094
'"	12095
-‏	12096
::	12097
__	12098
aj	12099
a3	12100
aol	12101
bul	12102
fen	12103
fus	12104
gor	12105
hood	12106
iol	12107
ila	12108
iva	12109
lr	12110
lite	12111
lsd	12112
nz	12113
pd	12114
pes	12115
pse	12116
pott	12117
qi	12118
tc	12119
tia	12120
ufc	12121
wr	12122
xd	12123
zion	12124
בוח	12125
גשי	12126
גאי	12127
וחה	12128
זצ	12129
ימש	12130
כפל	12131
נשר	12132
סדות	12133
שכם	12134
תזה	12135
′′	12136
##15	12137
להיר	12138
באב	12139
אלקט	12140
הרץ	12141
בעט	12142
סיעה	12143
רקס	12144
הכת	12145
ומטר	12146
ירש	12147
וכחו	12148
מרס	12149
וסיה	12150
וננו	12151
גרפ	12152
עיונ	12153
בוץ	12154
יפורי	12155
בסד	12156
נשל	12157
נשב	12158
tha	12159
קבלי	12160
##arl	12161
בזק	12162
##esh	12163
them	12164
הולכי	12165
בפח	12166
נתו	12167
ston	12168
stin	12169
109	12170
108	12171
ree	12172
reli	12173
עושי	12174
nei	12175
nex	12176
##ich	12177
פקח	12178
cham	12179
301	12180
dei	12181
deo	12182
##usa	12183
icc	12184
127	12185
edu	12186
סרן	12187
sei	12188
lip	12189
lim	12190
ween	12191
divi	12192
isa	12193
114	12194
memb	12195
esa	12196
esca	12197
beg	12198
coach	12199
nac	12200
spf	12201
raw	12202
pod	12203
admi	12204
נויי	12205
noi	12206
whe	12207
ייבת	12208
wing	12209
heim	12210
rike	12211
170	12212
does	12213
fib	12214
ררת	12215
march	12216
truth	12217
going	12218
clark	12219
והבת	12220
מויו	12221
bles	12222
apps	12223
blet	12224
warr	12225
mond	12226
cari	12227
carl	12228
job	12229
arti	12230
duo	12231
gne	12232
swer	12233
gain	12234
eagle	12235
fine	12236
650	12237
harri	12238
crea	12239
aver	12240
holo	12241
luc	12242
walt	12243
bench	12244
match	12245
nord	12246
עַם	12247
dence	12248
dsm	12249
garci	12250
farm	12251
horse	12252
birth	12253
email	12254
morn	12255
תונאי	12256
storm	12257
b2b	12258
hydro	12259
hospi	12260
jcpo	12261
%,	12262
''	12263
<<	12264
ave	12265
aus	12266
bv	12267
bid	12268
cad	12269
cash	12270
din	12271
ek	12272
eal	12273
fy	12274
fold	12275
gc	12276
gil	12277
gul	12278
gna	12279
gree	12280
hay	12281
hoo	12282
hid	12283
hgh	12284
hono	12285
js	12286
jf	12287
ls	12288
lil	12289
mom	12290
mol	12291
mam	12292
nhs	12293
oy	12294
og	12295
rra	12296
sir	12297
sia	12298
sold	12299
sant	12300
tg	12301
wick	12302
אטרו	12303
ב2	12304
דולי	12305
דפק	12306
זוב	12307
חוה	12308
טדי	12309
יאי	12310
יועד	12311
לִי	12312
מִ	12313
סוח	12314
עומת	12315
פנס	12316
שכה	12317
שואי	12318
תמר	12319
##tra	12320
##wp	12321
##bl	12322
##han	12323
##gs	12324
שלש	12325
המשי	12326
אחז	12327
ביונ	12328
משות	12329
התחר	12330
ראס	12331
למן	12332
לוֹ	12333
מעמ	12334
מערכ	12335
במת	12336
כאו	12337
הקן	12338
וכת	12339
תחש	12340
שפעה	12341
קצף	12342
לסן	12343
תרד	12344
בוז	12345
רעד	12346
בסל	12347
נשף	12348
תוו	12349
ery	12350
בגו	12351
עכו	12352
תכף	12353
infi	12354
סטן	12355
אליים	12356
יעז	12357
##ese	12358
theft	12359
מנטי	12360
stick	12361
נאם	12362
reen	12363
remo	12364
רדף	12365
anne	12366
סגו	12367
alp	12368
כוו	12369
וזיא	12370
זיי	12371
tok	12372
דמם	12373
atp	12374
פגז	12375
text	12376
teach	12377
shall	12378
shoot	12379
mai	12380
mau	12381
deb	12382
dea	12383
comb	12384
rov	12385
mix	12386
arb	12387
sed	12388
sep	12389
lio	12390
dium	12391
els	12392
elm	12393
sul	12394
esc	12395
ניגו	12396
cos	12397
nav	12398
ntd	12399
131	12400
132	12401
emea	12402
eta	12403
242	12404
many	12405
scott	12406
said	12407
בוסס	12408
nie	12409
bai	12410
bact	12411
iac	12412
דתו	12413
marc	12414
בותי	12415
ובעי	12416
faa	12417
vera	12418
רושל	12419
clima	12420
paci	12421
vie	12422
pem	12423
געי	12424
grou	12425
gress	12426
לונד	12427
sip	12428
trad	12429
cars	12430
jean	12431
duck	12432
tiz	12433
pie	12434
buck	12435
swa	12436
gast	12437
750	12438
ders	12439
ifa	12440
area	12441
files	12442
וטנצי	12443
plain	12444
mala	12445
נמס	12446
crit	12447
deli	12448
hdl	12449
brex	12450
ptsd	12451
risi	12452
volu	12453
mili	12454
תקדמ	12455
תקדמו	12456
testo	12457
presi	12458
prese	12459
presc	12460
oxy	12461
swift	12462
crui	12463
gang	12464
massa	12465
ווחים	12466
vegas	12467
nutri	12468
affa	12469
muta	12470
אֵת	12471
___	12472
מִן	12473
->	12474
==	12475
bf	12476
bun	12477
cyp	12478
csi	12479
cps	12480
cott	12481
dat	12482
dad	12483
dash	12484
dale	12485
ez	12486
eus	12487
fs	12488
fc	12489
fon	12490
fan	12491
fone	12492
fare	12493
gle	12494
gli	12495
hm	12496
him	12497
iw	12498
iat	12499
jen	12500
jay	12501
kt	12502
kor	12503
kol	12504
kam	12505
kim	12506
lm	12507
mk	12508
nx	12509
num	12510
oid	12511
osi	12512
pn	12513
pill	12514
pant	12515
pink	12516
rx	12517
rca	12518
ride	12519
rry	12520
sent	12521
til	12522
ux	12523
upp	12524
vy	12525
vas	12526
wc	12527
wro	12528
xml	12529
אַ	12530
אא	12531
ווני	12532
טז	12533
יובי	12534
כסו	12535
עטו	12536
פם	12537
פפ	12538
פין	12539
צדו	12540
צבים	12541
##to	12542
##rs	12543
##lu	12544
##dr	12545
##pm	12546
##mm	12547
##).	12548
##ָם	12549
##ףף	12550
המדי	12551
ביטו	12552
כיוו	12553
שהופ	12554
החן	12555
מסן	12556
מעני	12557
יכן	12558
העולם	12559
כאש	12560
הקץ	12561
ילוב	12562
בתת	12563
תחומ	12564
דרק	12565
הזמן	12566
וגרי	12567
ההחלט	12568
מפור	12569
יחסו	12570
קציב	12571
תהל	12572
לסף	12573
לתנ	12574
הטו	12575
ושלים	12576
תרבו	12577
נכח	12578
וקות	12579
גבם	12580
תשב	12581
inum	12582
תעופ	12583
מגד	12584
סטור	12585
##ora	12586
הופי	12587
נתנ	12588
stine	12589
eni	12590
once	12591
106	12592
requi	12593
חרון	12594
anth	12595
מורש	12596
near	12597
הסימ	12598
chr	12599
atm	12600
atta	12601
tek	12602
teen	12603
sher	12604
shore	12605
shine	12606
deg	12607
lega	12608
arth	12609
דהימ	12610
sem	12611
semi	12612
weav	12613
susta	12614
espn	12615
סדק	12616
401	12617
coin	12618
spd	12619
spy	12620
ביבו	12621
135	12622
136	12623
ract	12624
##imp	12625
adam	12626
enti	12627
כיבים	12628
loy	12629
whis	12630
240	12631
צלף	12632
const	12633
conta	12634
ami	12635
cape	12636
scu	12637
doom	12638
dock	12639
sav	12640
##ulu	12641
fift	12642
dae	12643
dawn	12644
igf	12645
fail	12646
fault	12647
vern	12648
veriz	12649
וגיי	12650
פנג	12651
הדרו	12652
hair	12653
pac	12654
pew	12655
pec	12656
wiz	12657
print	12658
ssri	12659
270	12660
sio	12661
קיצו	12662
quad	12663
dise	12664
disa	12665
disea	12666
coli	12667
pref	12668
imf	12669
joy	12670
peri	12671
pert	12672
giv	12673
pio	12674
gno	12675
buff	12676
heri	12677
apt	12678
rics	12679
fear	12680
twin	12681
330	12682
bala	12683
drug	12684
compl	12685
briti	12686
solo	12687
holly	12688
beau	12689
bloom	12690
clear	12691
clean	12692
cambo	12693
func	12694
jud	12695
treat	12696
devil	12697
aaa	12698
ppc	12699
mile	12700
nuc	12701
hypo	12702
pvc	12703
ensis	12704
louis	12705
omeg	12706
false	12707
snap	12708
mls	12709
pony	12710
flag	12711
klm	12712
messa	12713
murd	12714
הפנימ	12715
sharp	12716
octo	12717
jcpoa	12718
המדינ	12719
"...	12720
02	12721
4g	12722
ach	12723
ais	12724
bd	12725
both	12726
cx	12727
cet	12728
cow	12729
cand	12730
df	12731
dv	12732
dx	12733
d3	12734
fet	12735
fash	12736
fcc	12737
gw	12738
gly	12739
hh	12740
h2	12741
hin	12742
hus	12743
had	12744
ik	12745
iel	12746
iri	12747
jes	12748
jpe	12749
kell	12750
kos	12751
lda	12752
mour	12753
mous	12754
nr	12755
nf	12756
nol	12757
nse	12758
nna	12759
nza	12760
nni	12761
oe	12762
ody	12763
pf	12764
pel	12765
put	12766
ré	12767
roo	12768
rgi	12769
s3	12770
slo	12771
sni	12772
wow	12773
xn	12774
xvi	12775
yea	12776
ypo	12777
zole	12778
»»	12779
אדל	12780
דוע	12781
דבי	12782
הוט	12783
ווש	12784
כונ	12785
נמר	12786
סגרת	12787
עבי	12788
עִם	12789
פגי	12790
קון	12791
קנת	12792
ששר	12793
שילו	12794
תמצ	12795
–"	12796
##jo	12797
איה	12798
האן	12799
ביץ	12800
שיטו	12801
מאב	12802
השש	12803
השט	12804
אנש	12805
בעבו	12806
חיץ	12807
לונו	12808
לוסו	12809
לעתי	12810
הפגי	12811
בשנו	12812
מצר	12813
פרל	12814
פרך	12815
אמב	12816
רקד	12817
הכף	12818
לכף	12819
חלתי	12820
לקץ	12821
לקנו	12822
הלח	12823
ועכ	12824
אזל	12825
וגמ	12826
קציות	12827
תהו	12828
לסר	12829
ושו	12830
ספות	12831
גבס	12832
תשא	12833
בכח	12834
thr	12835
thund	12836
מגש	12837
סכר	12838
##anc	12839
ודן	12840
תנג	12841
זרז	12842
דקל	12843
נאש	12844
102	12845
אדן	12846
##oma	12847
לוגיי	12848
reas	12849
חרש	12850
צוו	12851
כונו	12852
##ile	12853
##ica	12854
תבת	12855
tos	12856
tein	12857
mah	12858
comes	12859
lean	12860
126	12861
rog	12862
orp	12863
eda	12864
ars	12865
seed	12866
diy	12867
dire	12868
isi	12869
isis	12870
isle	12871
unch	12872
118	12873
lau	12874
mei	12875
phar	12876
phos	12877
exa	12878
cock	12879
cocc	12880
nai	12881
לוויז	12882
spl	12883
תערו	12884
mob	12885
mode	12886
141	12887
emil	12888
wort	12889
etta	12890
logi	12891
noa	12892
ced	12893
זנב	12894
hei	12895
asd	12896
asa	12897
ask	12898
rie	12899
safa	12900
צצו	12901
gee	12902
bach	12903
bahn	12904
mara	12905
try	12906
evi	12907
hai	12908
hab	12909
vii	12910
vib	12911
התרופ	12912
230	12913
abb	12914
abs	12915
ssy	12916
opti	12917
quot	12918
cold	12919
idad	12920
joe	12921
chapt	12922
prize	12923
jav	12924
jazz	12925
קניי	12926
מיליא	12927
hop	12928
psa	12929
gaga	12930
mini	12931
wake	12932
irus	12933
brca	12934
cred	12935
kov	12936
crip	12937
hdmi	12938
beast	12939
certi	12940
luck	12941
430	12942
afr	12943
glas	12944
hyb	12945
ubl	12946
ubs	12947
term	12948
mask	12949
tsu	12950
sheer	12951
inno	12952
nsion	12953
sque	12954
fuji	12955
clock	12956
reach	12957
tomo	12958
tto	12959
ftp	12960
fred	12961
titan	12962
based	12963
jane	12964
lane	12965
tnt	12966
ddos	12967
copd	12968
fluo	12969
folk	12970
cisco	12971
klein	12972
wheel	12973
jfk	12974
hmd	12975
jpeg	12976
()	12977
*-	12978
-,	12979
09	12980
aba	12981
b1	12982
bba	12983
bass	12984
bind	12985
c2	12986
cub	12987
cree	12988
cco	12989
cath	12990
dit	12991
eer	12992
ead	12993
ease	12994
fp	12995
f1	12996
gel	12997
hore	12998
ivi	12999
ize	13000
jul	13001
kri	13002
kla	13003
kent	13004
kick	13005
m1	13006
nvi	13007
nfc	13008
nja	13009
ota	13010
p2	13011
ping	13012
pmi	13013
patt	13014
pure	13015
pbs	13016
qr	13017
rb	13018
rv	13019
ril	13020
rut	13021
rate	13022
s4	13023
s8	13024
sad	13025
sess	13026
squ	13027
tle	13028
vic	13029
vul	13030
vos	13031
wd	13032
wart	13033
wpa	13034
wich	13035
xl	13036
yam	13037
zzo	13038
אקט	13039
אשב	13040
גתה	13041
דזה	13042
דהי	13043
טית	13044
כפו	13045
לוד	13046
נרא	13047
נחנו	13048
סיות	13049
עפו	13050
צאן	13051
קוף	13052
קמע	13053
קפות	13054
ששב	13055
תבל	13056
##lc	13057
##wl	13058
##גו	13059
##ju	13060
##gm	13061
אוֹ	13062
באג	13063
מאור	13064
וללי	13065
כיי	13066
החץ	13067
מסב	13068
לווד	13069
ורץ	13070
לעג	13071
ארל	13072
בשד	13073
מצג	13074
הגד	13075
הכן	13076
לכד	13077
בהמ	13078
מכף	13079
זוו	13080
מרן	13081
רגב	13082
שפל	13083
לתח	13084
יטמ	13085
תרים	13086
ספצי	13087
שרץ	13088
הודע	13089
אבץ	13090
בכוח	13091
inva	13092
invi	13093
thor	13094
thri	13095
thank	13096
כרם	13097
וחג	13098
תנח	13099
קלר	13100
רפתי	13101
מנסי	13102
עקף	13103
נטרס	13104
רוחו	13105
enc	13106
107	13107
rex	13108
als	13109
alca	13110
אקס	13111
וניב	13112
לרו	13113
nea	13114
neur	13115
פאב	13116
ati	13117
##lea	13118
dear	13119
deci	13120
rod	13121
orb	13122
יראן	13123
forma	13124
mig	13125
mist	13126
arms	13127
wear	13128
חגג	13129
dig	13130
dial	13131
diff	13132
117	13133
lava	13134
tap	13135
tak	13136
been	13137
spo	13138
span	13139
prove	13140
ntic	13141
145	13142
rai	13143
eme	13144
empi	13145
חבו	13146
עתים	13147
eti	13148
mani	13149
usc	13150
scor	13151
ipl	13152
rix	13153
ripp	13154
175	13155
dox	13156
bag	13157
bos	13158
bost	13159
versi	13160
evan	13161
eval	13162
mys	13163
sme	13164
טפט	13165
356	13166
bios	13167
מיקו	13168
appl	13169
blem	13170
bye	13171
ido	13172
idc	13173
ides	13174
grad	13175
jeff	13176
musk	13177
gio	13178
gie	13179
gib	13180
duke	13181
desk	13182
tio	13183
hov	13184
gap	13185
480	13186
kai	13187
minu	13188
each	13189
vacc	13190
twe	13191
kev	13192
bern	13193
bros	13194
drm	13195
plast	13196
היחס	13197
shib	13198
550	13199
nical	13200
crim	13201
crime	13202
cript	13203
cd4	13204
visit	13205
omg	13206
cern	13207
זאק	13208
gers	13209
hamm	13210
להתיי	13211
טגו	13212
cnbc	13213
460	13214
glass	13215
leav	13216
##hio	13217
gamb	13218
pray	13219
terri	13220
juan	13221
עַד	13222
rgin	13223
lego	13224
volvo	13225
ffer	13226
fford	13227
slow	13228
fuck	13229
rdo	13230
close	13231
danci	13232
uvb	13233
lica	13234
bond	13235
henry	13236
bota	13237
bang	13238
virus	13239
aviv	13240
floor	13241
eeg	13242
rough	13243
forei	13244
illu	13245
bowl	13246
gpu	13247
zip	13248
rimi	13249
tiny	13250
ribed	13251
nasd	13252
nasa	13253
cook	13254
mouth	13255
nano	13256
stati	13257
bruce	13258
התקשו	13259
חחח	13260
czk	13261
speak	13262
dirt	13263
(-:	13264
ippf	13265
hawk	13266
gulf	13267
!"	13268
.:	13269
07	13270
aic	13271
aqu	13272
bam	13273
cen	13274
cic	13275
cid	13276
cure	13277
cfc	13278
das	13279
doll	13280
eca	13281
eph	13282
epo	13283
fis	13284
fps	13285
feld	13286
gis	13287
gas	13288
gmp	13289
gott	13290
hate	13291
hone	13292
hide	13293
hund	13294
jord	13295
ks	13296
mw	13297
mn	13298
mbo	13299
nus	13300
oba	13301
oma	13302
pit	13303
pus	13304
ppe	13305
qa	13306
rm	13307
rda	13308
sell	13309
till	13310
tide	13311
tank	13312
tcp	13313
ust	13314
vu	13315
vat	13316
vid	13317
wb	13318
wis	13319
xv	13320
zz	13321
ב3	13322
גמל	13323
זזה	13324
זחל	13325
חנת	13326
טנות	13327
טעה	13328
טבו	13329
כחות	13330
עפה	13331
קאן	13332
ال	13333
₪.	13334
₪,	13335
##rp	13336
##np	13337
##םם	13338
##50	13339
##yd	13340
##mc	13341
##60	13342
ליחי	13343
שין	13344
ישוא	13345
אלכ	13346
שאן	13347
מסגר	13348
ראפ	13349
לממ	13350
לעל	13351
ארס	13352
נוה	13353
מצה	13354
לפעו	13355
קיז	13356
שפם	13357
הדס	13358
יקטי	13359
רחם	13360
שרף	13361
נשם	13362
eric	13363
עניי	13364
בכר	13365
בכת	13366
inqui	13367
ריקא	13368
לגב	13369
קהי	13370
יעץ	13371
צרח	13372
##ery	13373
נעצ	13374
נעץ	13375
בפס	13376
str	13377
sts	13378
##out	13379
enn	13380
ono	13381
המוות	13382
בינתי	13383
##omp	13384
שטן	13385
rein	13386
reat	13387
remi	13388
reme	13389
חרג	13390
ans	13391
ansi	13392
alm	13393
בולו	13394
##ilt	13395
neo	13396
פקס	13397
פאט	13398
##che	13399
סקים	13400
toc	13401
tog	13402
tox	13403
iti	13404
ששו	13405
פטל	13406
chase	13407
tears	13408
shu	13409
shin	13410
short	13411
mav	13412
mako	13413
comi	13414
וכלו	13415
וידא	13416
ick	13417
icas	13418
129	13419
rot	13420
roc	13421
ross	13422
rosa	13423
edd	13424
edy	13425
miz	13426
arri	13427
שחם	13428
שחז	13429
seb	13430
sey	13431
sept	13432
lift	13433
liga	13434
זבת	13435
wed	13436
weath	13437
div	13438
113	13439
##irt	13440
ese	13441
expa	13442
exhi	13443
bee	13444
beck	13445
coh	13446
cope	13447
חצץ	13448
קאפ	13449
134	13450
137	13451
rab	13452
rav	13453
##imm	13454
poet	13455
המצו	13456
סודו	13457
nos	13458
whit	13459
manu	13460
manch	13461
wine	13462
amo	13463
amy	13464
amst	13465
cab	13466
cafe	13467
capa	13468
caps	13469
capt	13470
heat	13471
scr	13472
rian	13473
176	13474
saas	13475
sava	13476
croc	13477
nik	13478
bak	13479
bast	13480
dave	13481
boat	13482
trump	13483
iex	13484
190	13485
ncet	13486
smi	13487
papa	13488
ndo	13489
blow	13490
abo	13491
280	13492
bled	13493
siri	13494
colu	13495
syr	13496
imc	13497
ured	13498
grace	13499
ski	13500
fresh	13501
carn	13502
cara	13503
chair	13504
eyes	13505
jac	13506
flict	13507
giant	13508
tib	13509
tig	13510
325	13511
swiss	13512
חנן	13513
gui	13514
דשן	13515
bush	13516
gaba	13517
ecur	13518
lly	13519
ifrs	13520
berl	13521
utf	13522
util	13523
fili	13524
פליטי	13525
370	13526
aix	13527
harp	13528
solid	13529
ncr	13530
delta	13531
rup	13532
barri	13533
תקשו	13534
omni	13535
foc	13536
nese	13537
borg	13538
850	13539
breat	13540
bread	13541
vehi	13542
hamp	13543
ghz	13544
bend	13545
surf	13546
afri	13547
affi	13548
rida	13549
sale	13550
telec	13551
santa	13552
fried	13553
terra	13554
לנקו	13555
iod	13556
juri	13557
turi	13558
rtal	13559
sheet	13560
jama	13561
much	13562
regen	13563
815	13564
rho	13565
rhe	13566
ftc	13567
casa	13568
cours	13569
chuck	13570
basic	13571
ocr	13572
jerry	13573
btc	13574
jona	13575
posit	13576
curr	13577
tness	13578
army	13579
junc	13580
boul	13581
could	13582
rasp	13583
task	13584
muno	13585
wynd	13586
shari	13587
ffee	13588
chamb	13589
snip	13590
yeah	13591
(?	13592
08	13593
2x	13594
3g	13595
:(	13596
aer	13597
aas	13598
bg	13599
bust	13600
bbe	13601
cil	13602
cul	13603
cata	13604
cind	13605
dw	13606
dum	13607
eq	13608
een	13609
ega	13610
fel	13611
fas	13612
fill	13613
ffi	13614
fing	13615
fos	13616
gf	13617
g7	13618
gion	13619
gent	13620
hri	13621
hart	13622
hba	13623
hound	13624
iar	13625
iba	13626
ifi	13627
iff	13628
kw	13629
kat	13630
kas	13631
kha	13632
m4	13633
m2	13634
mall	13635
mome	13636
mood	13637
mms	13638
nw	13639
noo	13640
nur	13641
nim	13642
nite	13643
nick	13644
oz	13645
ova	13646
odd	13647
ound	13648
ohio	13649
pst	13650
pne	13651
qm	13652
q10	13653
rent	13654
rci	13655
ruth	13656
sz	13657
sas	13658
sala	13659
t4	13660
tut	13661
tft	13662
tth	13663
tti	13664
uu	13665
uf	13666
uar	13667
ues	13668
uch	13669
uel	13670
ulo	13671
ugh	13672
ucd	13673
vt	13674
vh	13675
von	13676
vba	13677
vill	13678
wu	13679
wise	13680
xo	13681
xe	13682
xs	13683
xtra	13684
yh	13685
yar	13686
yell	13687
zan	13688
án	13689
גאן	13690
זום	13691
חירי	13692
טניה	13693
כט	13694
כוש	13695
כרט	13696
כדת	13697
לנות	13698
סלק	13699
עמן	13700
פוע	13701
צחו	13702
קאל	13703
קאש	13704
תיל	13705
תתי	13706
“,	13707
##tps	13708
##do	13709
##up	13710
##sc	13711
##pan	13712
##cl	13713
##ves	13714
##gar	13715
##קב	13716
##xx	13717
לאכ	13718
אוח	13719
אוקט	13720
בינת	13721
כלוס	13722
משב	13723
משאי	13724
מאש	13725
בעקב	13726
ריף	13727
ריטנ	13728
מעם	13729
מעד	13730
ברן	13731
מחוי	13732
שממ	13733
ואך	13734
אמך	13735
לשב	13736
בהפ	13737
תקע	13738
לקס	13739
בלם	13740
תחמ	13741
וסת	13742
וסרי	13743
ועני	13744
וצלח	13745
קיט	13746
ערש	13747
מפתי	13748
שפך	13749
שנש	13750
נכד	13751
ספל	13752
בסט	13753
מזן	13754
לגג	13755
כנף	13756
שכבר	13757
##ari	13758
בזן	13759
נסב	13760
הריו	13761
בפן	13762
שעו	13763
נרג	13764
std	13765
stim	13766
שקם	13767
reh	13768
rees	13769
relea	13770
ane	13771
ange	13772
רכבו	13773
אשף	13774
וזרי	13775
toon	13776
ite	13777
chol	13778
chel	13779
chall	13780
chick	13781
ato	13782
ata	13783
נולו	13784
ודיים	13785
סער	13786
307	13787
mais	13788
ded	13789
deus	13790
dema	13791
lew	13792
lem	13793
121	13794
123	13795
rox	13796
orch	13797
mira	13798
arc	13799
wee	13800
dian	13801
diet	13802
else	13803
eliz	13804
suv	13805
iss	13806
unli	13807
רזא	13808
185	13809
phan	13810
phek	13811
eset	13812
exi	13813
exe	13814
exit	13815
bean	13816
beam	13817
being	13818
beca	13819
257	13820
nap	13821
sper	13822
raj	13823
raft	13824
עתק	13825
ete	13826
pock	13827
poke	13828
adu	13829
חילת	13830
וגלים	13831
165	13832
166	13833
246	13834
cei	13835
wint	13836
conc	13837
ame	13838
amc	13839
לותי	13840
user	13841
יישו	13842
inta	13843
doe	13844
צצה	13845
nih	13846
nist	13847
nike	13848
marri	13849
ign	13850
fake	13851
veri	13852
hib	13853
ieu	13854
195	13855
haz	13856
hawa	13857
paint	13858
viva	13859
bike	13860
peg	13861
lines	13862
הקהיל	13863
urb	13864
urs	13865
urre	13866
ndal	13867
bly	13868
blind	13869
prom	13870
pari	13871
parc	13872
serp	13873
sson	13874
ינטרנ	13875
siem	13876
dish	13877
disp	13878
prea	13879
prec	13880
mona	13881
month	13882
monta	13883
syl	13884
imo	13885
grav	13886
grave	13887
tori	13888
tors	13889
traz	13890
fru	13891
cran	13892
cres	13893
chaft	13894
jah	13895
japan	13896
flor	13897
flat	13898
gious	13899
cant	13900
cany	13901
pip	13902
cbc	13903
gnu	13904
cial	13905
swed	13906
310	13907
ebr	13908
schi	13909
:).	13910
gaza	13911
ires	13912
הארגו	13913
blade	13914
https	13915
cale	13916
yag	13917
nica	13918
cream	13919
kno	13920
burgh	13921
נמכ	13922
shap	13923
425	13924
augu	13925
hole	13926
holla	13927
stev	13928
stein	13929
steel	13930
brea	13931
mpic	13932
cnt	13933
ego	13934
egg	13935
egra	13936
surg	13937
funk	13938
sali	13939
mena	13940
send	13941
flip	13942
jui	13943
juli	13944
fert	13945
knows	13946
rgia	13947
dsl	13948
gramm	13949
aacs	13950
famil	13951
ppm	13952
jews	13953
fuel	13954
rday	13955
regul	13956
mila	13957
meri	13958
react	13959
fica	13960
chara	13961
effi	13962
780	13963
frei	13964
titis	13965
mrs	13966
gsm	13967
happi	13968
cup	13969
leng	13970
voip	13971
sdk	13972
hons	13973
honor	13974
kenne	13975
possi	13976
melo	13977
stora	13978
kera	13979
nell	13980
ihh	13981
ssey	13982
satu	13983
coop	13984
homo	13985
zoom	13986
eutel	13987
vita	13988
begin	13989
hidd	13990
throu	13991
creek	13992
p2p	13993
aquar	13994
(?)	13995
bbean	13996
""	13997
"?	13998
';	13999
06	14000
04	14001
].	14002
a5	14003
a9	14004
afe	14005
agi	14006
bj	14007
bard	14008
bna	14009
bund	14010
cch	14011
cus	14012
cum	14013
cpa	14014
cass	14015
cms	14016
cutt	14017
cfo	14018
dart	14019
dall	14020
dba	14021
dni	14022
e1	14023
eos	14024
eps	14025
ews	14026
fn	14027
fame	14028
gur	14029
hn	14030
hk	14031
hz	14032
hare	14033
hung	14034
i3	14035
ied	14036
iop	14037
jur	14038
jia	14039
jos	14040
jump	14041
kc	14042
kv	14043
kel	14044
kow	14045
kde	14046
kala	14047
kara	14048
kpm	14049
lc	14050
lar	14051
lom	14052
mma	14053
mpa	14054
msi	14055
mcc	14056
mund	14057
nb	14058
nç	14059
nom	14060
nct	14061
nand	14062
nyp	14063
nco	14064
pent	14065
pint	14066
ppt	14067
pms	14068
pump	14069
rj	14070
rand	14071
rust	14072
rco	14073
rath	14074
sce	14075
sory	14076
sara	14077
tumb	14078
uw	14079
vc	14080
vm	14081
v8	14082
vhs	14083
woo	14084
ys	14085
zel	14086
zte	14087
ée	14088
בגי	14089
בונות	14090
גפ	14091
הך	14092
זזו	14093
חנק	14094
חכי	14095
טחי	14096
טחו	14097
יארד	14098
כשי	14099
כבה	14100
כפה	14101
עמר	14102
עָם	14103
פוד	14104
פשים	14105
צוה	14106
קנט	14107
קעות	14108
רַ	14109
תבי	14110
תכה	14111
##ric	14112
##ls	14113
##ud	14114
##ei	14115
##sy	14116
##he	14117
##yl	14118
##ver	14119
##קו	14120
##ֵם	14121
הין	14122
באן	14123
בעזר	14124
ראיו	14125
לעו	14126
ברם	14127
סיף	14128
במב	14129
דיף	14130
דידו	14131
הצפו	14132
הגבי	14133
רקי	14134
לקל	14135
תחו	14136
תחב	14137
ועץ	14138
יווח	14139
שבם	14140
יחף	14141
גריר	14142
לסל	14143
לסך	14144
ושאי	14145
תרצ	14146
יקרי	14147
צינו	14148
יננ	14149
יבא	14150
אסם	14151
אסע	14152
אסא	14153
בסם	14154
נשך	14155
erre	14156
erra	14157
erry	14158
מטב	14159
בקנ	14160
בנוב	14161
inf	14162
iny	14163
thal	14164
thin	14165
thumb	14166
תעז	14167
סטורי	14168
להימנ	14169
יעש	14170
..."	14171
וחמ	14172
their	14173
theme	14174
משתמ	14175
##ers	14176
פלח	14177
stri	14178
stell	14179
##oul	14180
קולנ	14181
שטס	14182
נצר	14183
reu	14184
rez	14185
reti	14186
refl	14187
חמק	14188
חמץ	14189
alan	14190
alfa	14191
תוצא	14192
שגב	14193
נבט	14194
neb	14195
neg	14196
פאק	14197
chal	14198
chic	14199
chia	14200
chill	14201
דגה	14202
##ett	14203
shan	14204
sham	14205
magi	14206
המתק	14207
dean	14208
deut	14209
lei	14210
lect	14211
156	14212
159	14213
154	14214
157	14215
152	14216
124	14217
128	14218
fork	14219
arge	14220
שחג	14221
sean	14222
seas	14223
weal	14224
כחג	14225
suc	14226
una	14227
##adt	14228
186	14229
meek	14230
דלג	14231
ngi	14232
ngel	14233
ngle	14234
esco	14235
##ido	14236
404	14237
exo	14238
nau	14239
nak	14240
naka	14241
raz	14242
rach	14243
race	14244
raid	14245
rapp	14246
emdr	14247
חבש	14248
etn	14249
poi	14250
sos	14251
sop	14252
sov	14253
sode	14254
socc	14255
164	14256
nox	14257
המאפ	14258
wher	14259
whol	14260
צלל	14261
cem	14262
cept	14263
condi	14264
caf	14265
hey	14266
hem	14267
hemo	14268
aso	14269
asc	14270
rig	14271
riot	14272
171	14273
173	14274
sau	14275
fix	14276
geek	14277
nies	14278
oop	14279
iah	14280
mare	14281
bose	14282
igg	14283
tren	14284
tril	14285
evo	14286
זעק	14287
ieee	14288
194	14289
219	14290
acu	14291
haut	14292
cloth	14293
pai	14294
pain	14295
viol	14296
pey	14297
peak	14298
225	14299
רופות	14300
nett	14301
ndom	14302
parl	14303
serva	14304
sso	14305
gren	14306
quart	14307
quant	14308
stack	14309
264	14310
idi	14311
pret	14312
monu	14313
symp	14314
imd	14315
carry	14316
join	14317
joint	14318
##gio	14319
geno	14320
palma	14321
prima	14322
tale	14323
giz	14324
giga	14325
dup	14326
pivo	14327
expo	14328
כעד	14329
מיליו	14330
מוכנ	14331
sword	14332
hog	14333
herb	14334
boot	14335
boost	14336
gua	14337
guer	14338
guild	14339
osa	14340
apr	14341
rica	14342
nyu	14343
awak	14344
feb	14345
llp	14346
tweet	14347
cto	14348
rche	14349
bring	14350
polo	14351
asset	14352
filed	14353
dress	14354
drum	14355
calc	14356
bile	14357
harl	14358
bitch	14359
380	14360
lona	14361
voya	14362
delu	14363
dele	14364
tesla	14365
msn	14366
brad	14367
rua	14368
ruc	14369
rupt	14370
barce	14371
simi	14372
sims	14373
blogg	14374
fram	14375
omm	14376
חשיבו	14377
cere	14378
agil	14379
elec	14380
gera	14381
999	14382
draw	14383
cnc	14384
glu	14385
leap	14386
hyatt	14387
tura	14388
590	14389
treas	14390
rgan	14391
rto	14392
legal	14393
sno	14394
pics	14395
anto	14396
ffic	14397
offs	14398
radi	14399
csr	14400
horn	14401
catch	14402
reast	14403
rush	14404
touri	14405
freak	14406
gmt	14407
gmat	14408
lens	14409
lasi	14410
trop	14411
shopp	14412
puer	14413
damn	14414
lusa	14415
cmy	14416
hcv	14417
bolt	14418
ucl	14419
codec	14420
docs	14421
lough	14422
purp	14423
frost	14424
situ	14425
falc	14426
snake	14427
cinna	14428
lisa	14429
dmc	14430
messe	14431
muni	14432
flux	14433
hydra	14434
dhl	14435
truva	14436
sics	14437
refu	14438
echo	14439
cfr	14440
puni	14441
toys	14442
mooc	14443
xcom	14444
oppo	14445
cvs	14446
rria	14447
keto	14448
וטומט	14449
fusi	14450
wrest	14451
nexus	14452
molec	14453
mama	14454
sult	14455
escal	14456
piece	14457
glee	14458
jesus	14459
direc	14460
quote	14461
javas	14462
scorp	14463
honey	14464
juris	14465
aacsb	14466
גפן	14467
%)	14468
%?	14469
($	14470
(...	14471
*.	14472
+.	14473
.,	14474
1g	14475
2d	14476
2g	14477
4s	14478
4x	14479
5x	14480
6s	14481
:]	14482
=]	14483
a7	14484
aat	14485
ack	14486
aja	14487
bent	14488
bart	14489
bolo	14490
bump	14491
bomb	14492
c1	14493
c3	14494
cst	14495
cfa	14496
dz	14497
d2	14498
dul	14499
dma	14500
dda	14501
dick	14502
dpi	14503
dhi	14504
dump	14505
ej	14506
eed	14507
eea	14508
ept	14509
equa	14510
foo	14511
gd	14512
g5	14513
gart	14514
gpa	14515
gale	14516
hg	14517
hic	14518
i7	14519
iom	14520
ift	14521
iza	14522
iye	14523
jell	14524
jsp	14525
kar	14526
kal	14527
kre	14528
kil	14529
kun	14530
kub	14531
kitch	14532
ln	14533
lh	14534
loud	14535
lott	14536
mh	14537
mf	14538
mv	14539
mj	14540
mé	14541
mata	14542
nen	14543
nit	14544
nest	14545
nde	14546
nps	14547
nold	14548
nka	14549
nida	14550
oon	14551
odi	14552
pw	14553
p5	14554
pis	14555
plo	14556
pate	14557
pick	14558
pine	14559
pond	14560
push	14561
rk	14562
r2	14563
rct	14564
rck	14565
rul	14566
rue	14567
rith	14568
rds	14569
s9	14570
sall	14571
sate	14572
sild	14573
squi	14574
tx	14575
tid	14576
ting	14577
uh	14578
uer	14579
uma	14580
uva	14581
uta	14582
vn	14583
ves	14584
vec	14585
vms	14586
wes	14587
witt	14588
wto	14589
yl	14590
yy	14591
yp	14592
yin	14593
yale	14594
zer	14595
zomb	14596
דוס	14597
ווב	14598
יגע	14599
ל4	14600
מ2	14601
מגל	14602
מִי	14603
נץ	14604
נבל	14605
סשה	14606
עֵ	14607
ףףף	14608
פאה	14609
צדה	14610
▲*	14611
##ik	14612
##ig	14613
##tv	14614
##eo	14615
##yn	14616
##pc	14617
##vm	14618
##ges	14619
להמ	14620
האוכ	14621
זהי	14622
ליכי	14623
שייה	14624
מישי	14625
הרד	14626
ורמי	14627
ורמל	14628
מעב	14629
ברע	14630
ארם	14631
מחי	14632
ובדי	14633
מוכי	14634
כאמ	14635
לשת	14636
תקח	14637
ירך	14638
אפה	14639
רבב	14640
רבא	14641
ישרא	14642
פיך	14643
מבצ	14644
בלנו	14645
מרש	14646
וסן	14647
כשש	14648
קרש	14649
שפן	14650
גישי	14651
נכונ	14652
טרוני	14653
יבמ	14654
שרר	14655
מזמ	14656
דוו	14657
eras	14658
erve	14659
תשל	14660
בקע	14661
בקשי	14662
inch	14663
insp	14664
thom	14665
thru	14666
לגז	14667
טיפו	14668
כרע	14669
נקם	14670
יעב	14671
תמור	14672
##ori	14673
thee	14674
##erb	14675
קוץ	14676
עובדו	14677
בפז	14678
ביטח	14679
חסך	14680
דקת	14681
stery	14682
גלר	14683
רטג	14684
enj	14685
enou	14686
enge	14687
ensi	14688
enco	14689
enha	14690
enne	14691
ont	14692
rega	14693
rease	14694
חרו	14695
anc	14696
anna	14697
בדג	14698
alma	14699
לרש	14700
פקק	14701
פאן	14702
נסיע	14703
יסיי	14704
סלל	14705
ito	14706
ital	14707
chen	14708
chil	14709
chow	14710
chea	14711
רסן	14712
205	14713
201	14714
208	14715
teu	14716
לכתו	14717
shit	14718
shep	14719
308	14720
maid	14721
mage	14722
גנן	14723
dee	14724
deed	14725
comic	14726
comed	14727
leh	14728
151	14729
153	14730
ici	14731
roa	14732
rove	14733
roke	14734
roth	14735
דנן	14736
orn	14737
גאס	14738
eden	14739
fors	14740
##ota	14741
mir	14742
aru	14743
arca	14744
סרה	14745
סרק	14746
sek	14747
seg	14748
seal	14749
sequ	14750
liz	14751
lian	14752
wedd	14753
dim	14754
dime	14755
ella	14756
isc	14757
unp	14758
unca	14759
116	14760
lav	14761
lafa	14762
##irn	14763
181	14764
187	14765
meat	14766
phill	14767
phone	14768
eso	14769
espa	14770
וחרר	14771
סטיני	14772
taint	14773
behi	14774
copp	14775
spin	14776
spam	14777
spla	14778
spark	14779
##urt	14780
mosp	14781
mozi	14782
139	14783
133	14784
138	14785
144	14786
147	14787
142	14788
148	14789
rae	14790
rack	14791
raci	14792
emc	14793
eman	14794
etz	14795
poe	14796
popp	14797
adm	14798
addi	14799
advo	14800
כיבו	14801
loon	14802
lose	14803
loss	14804
161	14805
162	14806
168	14807
cep	14808
ceph	14809
mand	14810
manda	14811
cond	14812
cong	14813
cai	14814
usi	14815
קמא	14816
hed	14817
hep	14818
heme	14819
plu	14820
plc	14821
ples	14822
plas	14823
plug	14824
605	14825
scar	14826
scout	14827
ipi	14828
ript	14829
174	14830
172	14831
178	14832
saw	14833
gei	14834
nio	14835
bau	14836
daf	14837
boss	14838
igan	14839
faith	14840
trom	14841
trick	14842
199	14843
210	14844
215	14845
211	14846
218	14847
acs	14848
hag	14849
haunt	14850
goal	14851
smb	14852
smtp	14853
טפח	14854
cles	14855
clust	14856
pav	14857
bix	14858
bies	14859
bien	14860
pearl	14861
222	14862
228	14863
wife	14864
wizz	14865
neth	14866
ndy	14867
blank	14868
pru	14869
ions	14870
ssal	14871
apply	14872
gru	14873
458	14874
ope	14875
ops	14876
bleed	14877
staff	14878
idu	14879
pred	14880
preda	14881
warn	14882
syd	14883
syz	14884
imu	14885
ims	14886
gray	14887
tore	14888
tica	14889
crp	14890
crush	14891
291	14892
gym	14893
prim	14894
ivan	14895
flick	14896
gift	14897
dual	14898
tiff	14899
pipe	14900
ביקו	14901
expat	14902
cb1	14903
buen	14904
buzz	14905
built	14906
ciu	14907
olar	14908
olas	14909
sway	14910
hob	14911
hock	14912
ebs	14913
guan	14914
guest	14915
דולות	14916
kais	14917
femi	14918
wav	14919
iron	14920
fini	14921
vap	14922
twent	14923
rcha	14924
umb	14925
medit	14926
bron	14927
bren	14928
brick	14929
brows	14930
pola	14931
utc	14932
sunny	14933
calm	14934
oto	14935
shire	14936
shipp	14937
nice	14938
knew	14939
shake	14940
shape	14941
cris	14942
vod	14943
voc	14944
aug	14945
kie	14946
ncis	14947
ncia	14948
avg	14949
cord	14950
brake	14951
hdr	14952
rule	14953
beac	14954
steve	14955
icao	14956
frac	14957
omy	14958
cera	14959
fost	14960
boro	14961
bora	14962
elep	14963
strai	14964
brew	14965
doma	14966
pcr	14967
dram	14968
egr	14969
egy	14970
egal	14971
camb	14972
bene	14973
reno	14974
salt	14975
teles	14976
gami	14977
720	14978
belo	14979
belg	14980
sanct	14981
fern	14982
ferra	14983
norm	14984
580	14985
tream	14986
660	14987
tchi	14988
rts	14989
tsmc	14990
gara	14991
garm	14992
heli	14993
nso	14994
620	14995
fuzz	14996
stopp	14997
zei	14998
zee	14999
ledge	15000
tough	15001
odo	15002
xxi	15003
xxl	15004
737	15005
mts	15006
gmb	15007
henri	15008
leno	15009
turb	15010
turk	15011
cryst	15012
basi	15013
ocul	15014
cpan	15015
janua	15016
huds	15017
avail	15018
dama	15019
cmv	15020
citiz	15021
cruz	15022
mela	15023
gpl	15024
ough	15025
bpd	15026
iherb	15027
hrw	15028
soma	15029
khz	15030
ponte	15031
pote	15032
pota	15033
vegan	15034
darw	15035
lung	15036
motel	15037
ocea	15038
lloyd	15039
truck	15040
rpg	15041
סטרטג	15042
smoke	15043
isth	15044
velo	15045
jpg	15046
punk	15047
hsbc	15048
jimm	15049
kong	15050
nhl	15051
sbu	15052
inese	15053
query	15054
teau	15055
trics	15056
ncaa	15057
slip	15058
texas	15059
equal	15060
golf	15061
gger	15062
kans	15063
look	15064
pulse	15065
immu	15066
bulk	15067
neigh	15068
mauri	15069
nrg	15070
viii	15071
sessi	15072
vulga	15073
evalu	15074
ities	15075
uary	15076
chels	15077
fruit	15078
cresc	15079
afee	15080
nypd	15081
cheap	15082
!.	15083
!)	15084
")	15085
("	15086
(*	15087
(=	15088
+,	15089
-)	15090
05	15091
01	15092
03	15093
2k	15094
3ds	15095
4th	15096
;-)	15097
=)	15098
[↩	15099
aal	15100
ase	15101
aim	15102
bk	15103
bum	15104
bree	15105
bca	15106
bine	15107
bmp	15108
bung	15109
cw	15110
cg	15111
cion	15112
cay	15113
cide	15114
cti	15115
cmo	15116
dst	15117
dht	15118
done	15119
dala	15120
e2	15121
eon	15122
ees	15123
eol	15124
eit	15125
eck	15126
eim	15127
eba	15128
eind	15129
eese	15130
gé	15131
gust	15132
gine	15133
goth	15134
ggio	15135
hul	15136
hma	15137
hant	15138
hsp	15139
hulu	15140
ile	15141
ilo	15142
ife	15143
ihs	15144
jl	15145
jas	15146
jard	15147
jcc	15148
kf	15149
kit	15150
kpi	15151
kfc	15152
lá	15153
lol	15154
lve	15155
late	15156
lick	15157
lant	15158
má	15159
mort	15160
mdi	15161
mps	15162
mda	15163
mick	15164
mph	15165
mase	15166
mmp	15167
nou	15168
nash	15169
ncc	15170
nha	15171
nne	15172
ois	15173
ock	15174
oun	15175
ogi	15176
oath	15177
pam	15178
pga	15179
psi	15180
pound	15181
ppi	15182
pont	15183
pkk	15184
qt	15185
qs	15186
qq	15187
rl	15188
rn	15189
rq	15190
rö	15191
rí	15192
rde	15193
rth	15194
rta	15195
rte	15196
rhi	15197
rbs	15198
s6	15199
sü	15200
s7	15201
sra	15202
sri	15203
sut	15204
sint	15205
sick	15206
sine	15207
sars	15208
t1	15209
tate	15210
typ	15211
told	15212
tous	15213
ule	15214
uck	15215
uba	15216
umi	15217
ufo	15218
udp	15219
vl	15220
vri	15221
vam	15222
vim	15223
wt	15224
won	15225
wen	15226
went	15227
wma	15228
wrc	15229
xr	15230
xf	15231
xm	15232
xim	15233
yet	15234
yest	15235
ylp	15236
zh	15237
zon	15238
zimm	15239
ße	15240
ère	15241
ía	15242
ב9	15243
ב8	15244
ב30	15245
גּ	15246
דקר	15247
דומי	15248
ה5	15249
ו2	15250
ווס	15251
זאו	15252
חפה	15253
חבק	15254
טלה	15255
כקו	15256
ל2	15257
םםם	15258
מ1	15259
נקה	15260
סחו	15261
סורת	15262
עוץ	15263
פב	15264
צם	15265
קלת	15266
ררים	15267
שדם	15268
תוא	15269
תטה	15270
—"	15271
’)	15272
##ib	15273
##tl	15274
##tz	15275
##rd	15276
##rf	15277
##rk	15278
##rm	15279
##הה	15280
##dc	15281
##ev	15282
##bf	15283
##hl	15284
##fr	15285
##ffi	15286
##kt	15287
##zu	15288
##jn	15289
##gr	15290
##xi	15291
##ָל	15292
##ów	15293
##40	15294
##ος	15295
באד	15296
שיית	15297
מישה	15298
מאך	15299
השה	15300
השקי	15301
הרם	15302
כיד	15303
ראלים	15304
חינת	15305
חידו	15306
לוז	15307
לוּ	15308
לעס	15309
מעול	15310
הבז	15311
הבים	15312
לבא	15313
יימה	15314
מקף	15315
מקץ	15316
אמל	15317
הכש	15318
לחמה	15319
ירע	15320
פעמ	15321
הנן	15322
מכח	15323
טובו	15324
זוֹ	15325
פיש	15326
וגג	15327
ערר	15328
רגום	15329
שבונ	15330
שפג	15331
הדב	15332
גרט	15333
לתג	15334
בונו	15335
ספד	15336
מזח	15337
בקט	15338
ink	15339
infa	15340
סכי	15341
שכו	15342
חזן	15343
יען	15344
בנץ	15345
ודג	15346
קלן	15347
רפה	15348
thel	15349
then	15350
stm	15351
stam	15352
stru	15353
חרק	15354
דאף	15355
וסיק	15356
anx	15357
anch	15358
##rem	15359
סגנ	15360
alta	15361
almo	15362
אשל	15363
נדד	15364
לטע	15365
##rap	15366
שגן	15367
nez	15368
neum	15369
neva	15370
לזן	15371
פאפ	15372
נזף	15373
##elt	15374
toi	15375
tost	15376
its	15377
ith	15378
itra	15379
itas	15380
ited	15381
chf	15382
châ	15383
##isr	15384
ats	15385
##asi	15386
גזל	15387
206	15388
##cep	15389
shark	15390
shure	15391
306	15392
304	15393
302	15394
mab	15395
maf	15396
maz	15397
mach	15398
ארגו	15399
deal	15400
deck	15401
deco	15402
deca	15403
155	15404
158	15405
roz	15406
robo	15407
ede	15408
mide	15409
midi	15410
arg	15411
arra	15412
שחט	15413
sega	15414
seque	15415
lid	15416
lima	15417
lime	15418
גיטל	15419
dip	15420
elt	15421
elk	15422
elli	15423
such	15424
sugar	15425
isn	15426
isp	15427
uno	15428
ung	15429
unit	15430
##ada	15431
lax	15432
lain	15433
lazy	15434
##irk	15435
189	15436
182	15437
mec	15438
mem	15439
phec	15440
tau	15441
beet	15442
beha	15443
255	15444
256	15445
cod	15446
coq	15447
cox	15448
naft	15449
spr	15450
spor	15451
spli	15452
prop	15453
prov	15454
ntia	15455
ntha	15456
moi	15457
mock	15458
moda	15459
149	15460
143	15461
rak	15462
rait	15463
rafa	15464
rapt	15465
emy	15466
emg	15467
eto	15468
ets	15469
etf	15470
ethi	15471
poc	15472
poco	15473
soap	15474
adel	15475
lop	15476
loch	15477
loid	15478
loem	15479
loye	15480
169	15481
167	15482
nose	15483
סחף	15484
241	15485
צלע	15486
cee	15487
cac	15488
cain	15489
heed	15490
hema	15491
hepa	15492
heath	15493
asia	15494
scl	15495
ipe	15496
ipcc	15497
rium	15498
dob	15499
saa	15500
sach	15501
saga	15502
crown	15503
crook	15504
nig	15505
baba	15506
baku	15507
marl	15508
marx	15509
marga	15510
dax	15511
dais	15512
boom	15513
faq	15514
fax	15515
verr	15516
vero	15517
verge	15518
hipp	15519
trin	15520
קפא	15521
eves	15522
iec	15523
iev	15524
191	15525
196	15526
216	15527
213	15528
haar	15529
gos	15530
goes	15531
sman	15532
smil	15533
smash	15534
clu	15535
clen	15536
pak	15537
paid	15538
viu	15539
vik	15540
vias	15541
bial	15542
pear	15543
pect	15544
peach	15545
lini	15546
sono	15547
urus	15548
ndi	15549
nds	15550
ndc	15551
bliss	15552
blush	15553
235	15554
237	15555
285	15556
281	15557
pren	15558
ryan	15559
pars	15560
272	15561
appli	15562
opi	15563
oph	15564
opc	15565
rese	15566
quin	15567
quet	15568
disk	15569
timiz	15570
cole	15571
260	15572
261	15573
warm	15574
monet	15575
ime	15576
watt	15577
trap	15578
carp	15579
carci	15580
ils	15581
priv	15582
arte	15583
iver	15584
jab	15585
jave	15586
jaco	15587
jeep	15588
perl	15589
flue	15590
flame	15591
gist	15592
desc	15593
desmo	15594
tiv	15595
tian	15596
tist	15597
pier	15598
pire	15599
piec	15600
cbp	15601
cbg	15602
buch	15603
civi	15604
olv	15605
swe	15606
hoa	15607
hof	15608
hopp	15609
hoff	15610
busin	15611
ps3	15612
ps4	15613
psis	15614
scha	15615
works	15616
gau	15617
gab	15618
שזז	15619
ecb	15620
ecc	15621
nya	15622
derg	15623
feath	15624
wai	15625
grey	15626
llis	15627
vai	15628
umx	15629
335	15630
338	15631
bric	15632
bali	15633
bald	15634
ovo	15635
berk	15636
broke	15637
poll	15638
pole	15639
dong	15640
blake	15641
345	15642
349	15643
houst	15644
housi	15645
ots	15646
trans	15647
essa	15648
375	15649
nico	15650
aig	15651
hark	15652
crew	15653
burst	15654
eure	15655
male	15656
malva	15657
kool	15658
trib	15659
triv	15660
tripp	15661
void	15662
sole	15663
cdu	15664
cdp	15665
cdm	15666
dela	15667
holm	15668
msd	15669
msm	15670
rug	15671
barr	15672
barc	15673
bark	15674
steal	15675
520	15676
crack	15677
fog	15678
fool	15679
lud	15680
agric	15681
950	15682
vee	15683
pcb	15684
'),	15685
egel	15686
ghan	15687
benz	15688
afd	15689
glen	15690
glow	15691
glia	15692
mend	15693
gamma	15694
hans	15695
prair	15696
quez	15697
terr	15698
tera	15699
ters	15700
terre	15701
iews	15702
phys	15703
mati	15704
pett	15705
613	15706
dens	15707
rtc	15708
jamin	15709
grote	15710
garc	15711
nsas	15712
slot	15713
slide	15714
ppy	15715
muj	15716
milk	15717
badge	15718
idea	15719
mers	15720
merry	15721
630	15722
mmad	15723
passa	15724
keys	15725
tend	15726
chris	15727
sync	15728
rsd	15729
ftse	15730
frequ	15731
mori	15732
yoga	15733
hend	15734
rcy	15735
747	15736
911	15737
dbt	15738
janss	15739
tari	15740
taro	15741
vani	15742
hugh	15743
lynx	15744
rout	15745
hong	15746
tang	15747
pvp	15748
beyo	15749
cruel	15750
jian	15751
bout	15752
מאפיי	15753
purd	15754
ritch	15755
ttack	15756
stics	15757
logo	15758
bbb	15759
bbq	15760
ckd	15761
peace	15762
nche	15763
somn	15764
blizz	15765
those	15766
darp	15767
dmt	15768
deta	15769
lunch	15770
missi	15771
npv	15772
תייש	15773
dhea	15774
hosp	15775
dget	15776
mouse	15777
porn	15778
xii	15779
indiv	15780
hurt	15781
moov	15782
taxi	15783
sidd	15784
vori	15785
apoe	15786
bhu	15787
ssip	15788
dpr	15789
lpc	15790
tls	15791
tlv	15792
tunes	15793
wpml	15794
glad	15795
poké	15796
fuse	15797
greek	15798
lily	15799
jenni	15800
judas	15801
xnxx	15802
july	15803
ruto	15804
sadd	15805
vice	15806
yamm	15807
spani	15808
bosch	15809
scrum	15810
rhein	15811
iarc	15812
ified	15813
pneu	15814
hawai	15815
knock	15816
nça	15817
pptp	15818
thinq	15819
(...)	15820
4x4	15821
mhz	15822
ypg	15823
idual	15824
[↩]	15825
phecy	15826
").	15827
$)	15828
'-	15829
(+	15830
(%	15831
(-)	15832
++	15833
-'	15834
.'	15835
1c	15836
1st	15837
3s	15838
5k	15839
:‏	15840
?)	15841
aar	15842
aan	15843
aes	15844
aec	15845
ahn	15846
aha	15847
aza	15848
aqui	15849
b7	15850
bpa	15851
bite	15852
bcc	15853
bph	15854
bount	15855
bpo	15856
boll	15857
cun	15858
cma	15859
cmi	15860
cpi	15861
cml	15862
cvd	15863
cumb	15864
dk	15865
dci	15866
dame	15867
dict	15868
eor	15869
eis	15870
eja	15871
euth	15872
fw	15873
f5	15874
fv	15875
fj	15876
fg	15877
fü	15878
f8	15879
fia	15880
fue	15881
fec	15882
fide	15883
fond	15884
fsh	15885
f12	15886
fade	15887
g6	15888
g3	15889
g4	15890
g8	15891
gat	15892
gill	15893
gath	15894
g20	15895
gimp	15896
h1	15897
het	15898
hia	15899
hna	15900
hms	15901
hnd	15902
i5	15903
iis	15904
igl	15905
ike	15906
iuc	15907
i10	15908
jb	15909
jh	15910
jm	15911
jar	15912
jin	15913
jre	15914
jow	15915
jus	15916
jta	15917
jgu	15918
ké	15919
kes	15920
kou	15921
kom	15922
ked	15923
kth	15924
kate	15925
kitt	15926
kine	15927
kho	15928
komb	15929
kung	15930
kusa	15931
lf	15932
lta	15933
lass	15934
lph	15935
lmp	15936
loll	15937
lvm	15938
m9	15939
m8	15940
mct	15941
mla	15942
mell	15943
mint	15944
mold	15945
mbi	15946
mfa	15947
mpt	15948
mds	15949
nal	15950
nst	15951
nil	15952
nsi	15953
nss	15954
oro	15955
oas	15956
ove	15957
oum	15958
obi	15959
oem	15960
pq	15961
pir	15962
pli	15963
pard	15964
pue	15965
pell	15966
pte	15967
pitt	15968
pfa	15969
pull	15970
pomp	15971
qc	15972
q3	15973
ror	15974
rill	15975
rbc	15976
rmo	15977
ratt	15978
rha	15979
rcd	15980
rka	15981
rsa	15982
rms	15983
s5	15984
sj	15985
s2	15986
sfi	15987
sour	15988
sds	15989
s10	15990
td	15991
t5	15992
t3	15993
té	15994
tla	15995
tall	15996
tul	15997
tome	15998
tma	15999
txt	16000
tine	16001
tolo	16002
uda	16003
uti	16004
vd	16005
vf	16006
v1	16007
v6	16008
vg	16009
vort	16010
vps	16011
vcc	16012
vida	16013
wn	16014
w1	16015
wet	16016
xt	16017
xb	16018
xin	16019
xen	16020
xil	16021
xis	16022
xet	16023
yd	16024
yv	16025
yri	16026
yos	16027
zr	16028
zf	16029
zy	16030
zar	16031
zol	16032
zha	16033
zio	16034
||	16035
}}	16036
́ק	16037
μl	16038
во	16039
אקר	16040
אדה	16041
ב5	16042
ב6	16043
ב7	16044
בכן	16045
ב20	16046
גרא	16047
דשים	16048
דלא	16049
ה3	16050
הטר	16051
הוף	16052
הֵם	16053
ו1	16054
ו8	16055
ו10	16056
חדי	16057
טף	16058
כדם	16059
כנון	16060
כָל	16061
נָ	16062
סטה	16063
פפר	16064
פופו	16065
צמה	16066
צפת	16067
רפת	16068
רתם	16069
שץ	16070
שזר	16071
שטה	16072
שדת	16073
שצד	16074
שחו	16075
תט	16076
תונא	16077
׳,	16078
‘.	16079
‘)	16080
►►	16081
◄◄	16082
##ie	16083
##ip	16084
##tec	16085
##rn	16086
##oy	16087
##ln	16088
##uk	16089
##ura	16090
##wan	16091
##nn	16092
##eh	16093
##ez	16094
##fu	16095
##cu	16096
##cz	16097
##kv	16098
##kes	16099
##11	16100
##gen	16101
##ار	16102
##ان	16103
##ès	16104
הידי	16105
ביכו	16106
כלם	16107
משים	16108
באק	16109
שיעו	16110
שיכול	16111
ישע	16112
התן	16113
הרגי	16114
שאך	16115
ראב	16116
ראד	16117
שמס	16118
יהב	16119
במנ	16120
פרז	16121
ילן	16122
חלץ	16123
בתג	16124
מבת	16125
וסם	16126
וסך	16127
יתד	16128
יונו	16129
ערף	16130
יצוע	16131
חדד	16132
הדן	16133
שתנ	16134
שתא	16135
לסם	16136
שנב	16137
ושן	16138
נגף	16139
err	16140
erl	16141
erro	16142
erta	16143
מטח	16144
בגג	16145
בקרי	16146
inr	16147
inh	16148
inp	16149
inna	16150
inhi	16151
thk	16152
thre	16153
thra	16154
thur	16155
thug	16156
these	16157
thirt	16158
מגג	16159
שכף	16160
כרב	16161
לדג	16162
...?	16163
.....	16164
צרך	16165
בנד	16166
##ana	16167
ודף	16168
נעם	16169
נסח	16170
אהה	16171
בצק	16172
נרו	16173
נתב	16174
stol	16175
stea	16176
stadt	16177
ende	16178
enga	16179
enci	16180
ensa	16181
onl	16182
ons	16183
onta	16184
onsi	16185
בליק	16186
rean	16187
rech	16188
reus	16189
reut	16190
וטף	16191
חרוני	16192
anz	16193
ance	16194
anci	16195
anni	16196
בדך	16197
##red	16198
alc	16199
alch	16200
alco	16201
אגד	16202
נבן	16203
nees	16204
neue	16205
פאם	16206
פאס	16207
צמאי	16208
זקו	16209
יסיו	16210
סלב	16211
itf	16212
chin	16213
קסל	16214
atr	16215
דגן	16216
אטם	16217
##iti	16218
204	16219
202	16220
tee	16221
tep	16222
teat	16223
tekk	16224
tetra	16225
רמט	16226
shrm	16227
309	16228
andy	16229
דיקו	16230
deu	16231
combo	16232
leb	16233
leid	16234
leva	16235
legi	16236
##use	16237
icq	16238
icon	16239
icar	16240
rost	16241
roch	16242
roku	16243
roche	16244
דנטי	16245
orm	16246
oral	16247
orth	16248
edin	16249
forge	16250
mim	16251
mike	16252
migu	16253
arr	16254
arp	16255
arka	16256
seen	16257
seek	16258
504	16259
lips	16260
lipo	16261
weiss	16262
dif	16263
dista	16264
suit	16265
suck	16266
isr	16267
isl	16268
isu	16269
unk	16270
unes	16271
unin	16272
unsi	16273
lace	16274
צעירי	16275
183	16276
mea	16277
meh	16278
mep	16279
סאב	16280
דלף	16281
phet	16282
esi	16283
esh	16284
esch	16285
403	16286
tact	16287
bec	16288
bev	16289
beer	16290
begi	16291
coal	16292
coch	16293
cosi	16294
naz	16295
naut	16296
spp	16297
spen	16298
proc	16299
prost	16300
ntra	16301
ntis	16302
##urm	16303
mose	16304
moore	16305
moha	16306
rag	16307
raph	16308
##imb	16309
worry	16310
ette	16311
poor	16312
pods	16313
sopa	16314
sofa	16315
adi	16316
ade	16317
nod	16318
nok	16319
nost	16320
nova	16321
whar	16322
while	16323
245	16324
244	16325
248	16326
mans	16327
ams	16328
amm	16329
cao	16330
cach	16331
cave	16332
cairn	16333
usf	16334
usp	16335
hea	16336
hev	16337
heil	16338
heit	16339
plot	16340
asi	16341
asm	16342
asap	16343
scus	16344
ipa	16345
ipv	16346
ipli	16347
rik	16348
riz	16349
rift	16350
riha	16351
ribe	16352
179	16353
177	16354
doi	16355
dod	16356
dop	16357
dove	16358
dose	16359
sah	16360
sapi	16361
croi	16362
crop	16363
fiat	16364
nize	16365
nique	16366
bap	16367
baj	16368
bacc	16369
baha	16370
iaas	16371
dau	16372
daa	16373
dap	16374
daem	16375
bod	16376
boe	16377
igna	16378
fah	16379
fav	16380
verse	16381
verti	16382
hiit	16383
tryp	16384
193	16385
192	16386
acr	16387
aco	16388
acl	16389
acer	16390
acqui	16391
acwp	16392
hain	16393
haiti	16394
##kem	16395
smu	16396
smp	16397
smile	16398
clan	16399
clow	16400
clare	16401
pair	16402
שצריך	16403
vio	16404
354	16405
357	16406
bie	16407
bist	16408
biel	16409
bias	16410
pepp	16411
226	16412
229	16413
wien	16414
lint	16415
ndt	16416
blm	16417
blum	16418
blvd	16419
231	16420
233	16421
238	16422
abu	16423
abra	16424
prk	16425
prat	16426
pratt	16427
364	16428
sert	16429
sera	16430
sses	16431
276	16432
273	16433
278	16434
grf	16435
grc	16436
grum	16437
enda	16438
sib	16439
siou	16440
sihan	16441
resu	16442
resa	16443
resc	16444
quo	16445
ques	16446
timi	16447
timb	16448
coln	16449
idp	16450
ider	16451
prett	16452
mone	16453
syra	16454
imt	16455
immo	16456
grade	16457
גרעינ	16458
trac	16459
trash	16460
sko	16461
skill	16462
este	16463
fren	16464
franc	16465
carv	16466
carri	16467
cron	16468
crat	16469
crest	16470
crusa	16471
chap	16472
chaos	16473
genic	16474
pali	16475
290	16476
295	16477
293	16478
eyal	16479
eyed	16480
prio	16481
ivc	16482
japa	16483
pero	16484
mush	16485
musc	16486
tala	16487
gif	16488
gig	16489
giro	16490
duce	16491
tipp	16492
tips	16493
cann	16494
pist	16495
piet	16496
328	16497
כעץ	16498
bud	16499
buri	16500
ופיי	16501
swan	16502
swim	16503
swap	16504
חנך	16505
315	16506
herc	16507
guin	16508
guess	16509
guido	16510
humm	16511
osp	16512
ossi	16513
cya	16514
gav	16515
gaz	16516
gag	16517
ecf	16518
ecol	16519
ecma	16520
mina	16521
metho	16522
nye	16523
nyc	16524
awes	16525
aware	16526
fem	16527
feet	16528
feyn	16529
waf	16530
wak	16531
wack	16532
irr	16533
vau	16534
vaz	16535
vax	16536
vape	16537
ifol	16538
kee	16539
ctm	16540
medal	16541
333	16542
bry	16543
brill	16544
balb	16545
bere	16546
pols	16547
assu	16548
auti	16549
starr	16550
drink	16551
htp	16552
icef	16553
343	16554
ibu	16555
brit	16556
brien	16557
bride	16558
cala	16559
calv	16560
calce	16561
porta	16562
parti	16563
plex	16564
burp	16565
burk	16566
malk	16567
kok	16568
crist	16569
tria	16570
trial	16571
voy	16572
vog	16573
soli	16574
sola	16575
aud	16576
augm	16577
ncer	16578
ncess	16579
avon	16580
avia	16581
cori	16582
hola	16583
hdd	16584
hdtv	16585
pylo	16586
rual	16587
visio	16588
bari	16589
barn	16590
bara	16591
barry	16592
imac	16593
395	16594
cramp	16595
crawl	16596
frast	16597
fract	16598
omb	16599
revo	16600
lui	16601
luis	16602
luft	16603
lugg	16604
lucy	16605
agg	16606
bors	16607
borne	16608
elem	16609
elean	16610
440	16611
445	16612
gerd	16613
domi	16614
007	16615
hpc	16616
drac	16617
drake	16618
nato	16619
cleve	16620
pto	16621
mical	16622
samp	16623
wald	16624
461	16625
467	16626
530	16627
535	16628
mbs	16629
471	16630
478	16631
afc	16632
gluc	16633
leaf	16634
funny	16635
romeo	16636
salz	16637
vile	16638
menu	16639
hann	16640
hana	16641
sensi	16642
belt	16643
ubli	16644
lesc	16645
ייצו	16646
masc	16647
selec	16648
tual	16649
tuck	16650
mato	16651
trees	16652
rgo	16653
deno	16654
dsc	16655
tyl	16656
gbp	16657
angry	16658
gross	16659
snj	16660
vola	16661
volca	16662
aap	16663
pica	16664
picc	16665
emplo	16666
gonna	16667
bmx	16668
regu	16669
csu	16670
csp	16671
nuo	16672
nukem	16673
seth	16674
clos	16675
820	16676
gico	16677
mera	16678
merri	16679
reap	16680
magn	16681
dana	16682
astm	16683
bong	16684
bones	16685
fico	16686
fice	16687
mmf	16688
tomb	16689
toma	16690
chari	16691
efm	16692
mayo	16693
odt	16694
patch	16695
speec	16696
babes	16697
770	16698
777	16699
pmt	16700
teno	16701
tena	16702
tence	16703
synch	16704
730	16705
810	16706
rhy	16707
gmc	16708
mrc	16709
gsat	16710
culi	16711
cuba	16712
860	16713
980	16714
akp	16715
penn	16716
ttee	16717
easa	16718
acai	16719
cpc	16720
dbs	16721
mgm	16722
flox	16723
pana	16724
slave	16725
hui	16726
pupp	16727
runn	16728
tism	16729
bourg	16730
fairy	16731
write	16732
honda	16733
hcp	16734
dora	16735
sesg	16736
sins	16737
june	16738
jung	16739
bsc	16740
bould	16741
clip	16742
sigm	16743
ncies	16744
cout	16745
couch	16746
ouk	16747
ritu	16748
rita	16749
midt	16750
///	16751
cele	16752
tasc	16753
etto	16754
logic	16755
civic	16756
fatf	16757
ihr	16758
chang	16759
clau	16760
mlm	16761
susp	16762
espec	16763
kram	16764
lise	16765
writt	16766
zoa	16767
b2c	16768
fxcc	16769
messi	16770
npc	16771
njoy	16772
carte	16773
dice	16774
dica	16775
hoss	16776
musta	16777
srs	16778
yip	16779
dlc	16780
dges	16781
dger	16782
elast	16783
platz	16784
xxxx	16785
dji	16786
jdk	16787
mesa	16788
jpm	16789
octa	16790
xix	16791
affo	16792
hurr	16793
nmc	16794
rrec	16795
otto	16796
throw	16797
whist	16798
kron	16799
krank	16800
uliz	16801
אֵם	16802
guns	16803
hours	16804
lotus	16805
nvid	16806
xavi	16807
moves	16808
equis	16809
rriam	16810
tunn	16811
tune	16812
wilh	16813
‏>‏	16814
leuco	16815
kett	16816
pseu	16817
zione	16818
waltz	16819
bidd	16820
navy	16821
ifact	16822
cpsc	16823
euska	16824
fonta	16825
jenny	16826
kami	16827
vasi	16828
אַל	16829
whisp	16830
dfj	16831
slov	16832
sloan	16833
xvii	16834
splay	16835
cube	16836
squad	16837
thorn	16838
encia	16839
gibb	16840
nurse	16841
qmark	16842
vts	16843
xsl	16844
sylv	16845
flipk	16846
julie	16847
bjp	16848
cchr	16849
vmw	16850
cemet	16851
april	16852
pisa	16853
sequo	16854
admin	16855
hague	16856
ounta	16857
mafia	16858
nafta	16859
veeam	16860
iucn	16861
נָא	16862
תטא	16863
!”	16864
":	16865
"+	16866
(#	16867
))	16868
)?	16869
);	16870
*)	16871
2a	16872
3c	16873
3m	16874
3rd	16875
4d	16876
5d	16877
8k	16878
=>	16879
>‏	16880
?”	16881
[*	16882
[=	16883
^^	16884
ael	16885
ait	16886
aul	16887
afi	16888
agh	16889
bq	16890
bx	16891
bub	16892
bild	16893
bff	16894
bash	16895
bare	16896
bata	16897
bbi	16898
bni	16899
bono	16900
bhs	16901
bho	16902
bwi	16903
cj	16904
c6	16905
cé	16906
c4	16907
cot	16908
cint	16909
cpe	16910
cua	16911
ciss	16912
cki	16913
cush	16914
cinc	16915
cwp	16916
cgm	16917
dé	16918
dí	16919
doo	16920
dus	16921
dla	16922
dess	16923
dass	16924
ddi	16925
dmi	16926
dss	16927
dare	16928
dml	16929
dms	16930
dpo	16931
ddy	16932
dfs	16933
ece	16934
epp	16935
eec	16936
eep	16937
eze	16938
eka	16939
echa	16940
ehs	16941
fb	16942
f3	16943
fé	16944
f2	16945
fou	16946
fot	16947
fid	16948
fum	16949
fant	16950
fms	16951
gv	16952
gj	16953
gow	16954
gut	16955
gad	16956
gir	16957
gand	16958
ggl	16959
gest	16960
gome	16961
gyp	16962
gide	16963
gti	16964
gite	16965
gmo	16966
gpo	16967
hl	16968
hv	16969
hes	16970
hre	16971
hir	16972
hue	16973
hing	16974
hass	16975
hca	16976
hick	16977
hitt	16978
hatt	16979
hype	16980
hpe	16981
hsa	16982
hind	16983
hoot	16984
hitch	16985
hade	16986
iy	16987
ili	16988
iest	16989
ibc	16990
ika	16991
iya	16992
ión	16993
jr	16994
jal	16995
jel	16996
joo	16997
jess	16998
jest	16999
jed	17000
jec	17001
jade	17002
jisr	17003
kd	17004
kp	17005
kj	17006
k1	17007
k9	17008
k2	17009
kis	17010
koo	17011
kus	17012
kut	17013
kad	17014
kour	17015
kone	17016
kite	17017
kcd	17018
kono	17019
kamp	17020
kwa	17021
kru	17022
kkk	17023
karl	17024
kurt	17025
ków	17026
kirk	17027
lz	17028
l1	17029
l3	17030
lal	17031
lut	17032
lust	17033
lpa	17034
lith	17035
lore	17036
lca	17037
lark	17038
lms	17039
lish	17040
lomb	17041
mö	17042
m7	17043
mra	17044
mna	17045
mco	17046
mci	17047
mash	17048
mmo	17049
mua	17050
mdf	17051
mni	17052
mull	17053
mord	17054
m15	17055
nl	17056
né	17057
ná	17058
nʉ	17059
nar	17060
nin	17061
nck	17062
nir	17063
noun	17064
nxt	17065
npt	17066
nms	17067
null	17068
nish	17069
nko	17070
ncha	17071
noot	17072
nrc	17073
nho	17074
nzo	17075
nise	17076
oar	17077
oot	17078
oir	17079
ose	17080
oul	17081
ovi	17082
oti	17083
ote	17084
oko	17085
ocha	17086
pb	17087
px	17088
p3	17089
pé	17090
pom	17091
pid	17092
ppp	17093
pall	17094
pand	17095
pde	17096
ppo	17097
pirl	17098
pbl	17099
q4	17100
qli	17101
rá	17102
rar	17103
rve	17104
rfi	17105
rash	17106
rne	17107
rull	17108
rko	17109
rink	17110
root	17111
sé	17112
sí	17113
sow	17114
ske	17115
sva	17116
sgi	17117
sbc	17118
sitt	17119
sza	17120
sze	17121
sink	17122
sbs	17123
sida	17124
tf	17125
tj	17126
tü	17127
tir	17128
tess	17129
tart	17130
tue	17131
tort	17132
tna	17133
tint	17134
tatt	17135
tdd	17136
tms	17137
tada	17138
uo	17139
uz	17140
uj	17141
uq	17142
uat	17143
uas	17144
uct	17145
uia	17146
ued	17147
uec	17148
uea	17149
ume	17150
uki	17151
vp	17152
vk	17153
vé	17154
vad	17155
vess	17156
ved	17157
vue	17158
vell	17159
vood	17160
vry	17161
vine	17162
volo	17163
vinc	17164
vlc	17165
wf	17166
wm	17167
wx	17168
w3	17169
wre	17170
wra	17171
wid	17172
wand	17173
wass	17174
wps	17175
wbc	17176
wcc	17177
wimp	17178
wirt	17179
x5	17180
x2	17181
xrp	17182
yr	17183
yc	17184
yer	17185
yel	17186
yla	17187
yad	17188
ylu	17189
yota	17190
zor	17191
zdf	17192
zara	17193
zulu	17194
ève	17195
éra	17196
ön	17197
üb	17198
či	17199
אָ	17200
אבה	17201
בַ	17202
בשי	17203
בla	17204
ב12	17205
גָ	17206
גטי	17207
גטר	17208
גדת	17209
דאל	17210
ה2	17211
הום	17212
ו5	17213
ו6	17214
חון	17215
חפר	17216
טבל	17217
טמן	17218
טקט	17219
טאן	17220
יוחד	17221
ל5	17222
לזר	17223
ל20	17224
מֵ	17225
ממר	17226
מ15	17227
סֶ	17228
סבה	17229
סאל	17230
עקה	17231
עטה	17232
פטה	17233
צמו	17234
צגי	17235
צאר	17236
קג	17237
קקי	17238
קפל	17239
קאם	17240
רָ	17241
שָם	17242
שֵם	17243
׳:	17244
​​	17245
‎‡	17246
‏:	17247
“...	17248
€.	17249
##iv	17250
##ts	17251
##rh	17252
##oe	17253
##oa	17254
##of	17255
##les	17256
##db	17257
##uy	17258
##uz	17259
##uli	17260
##wo	17261
##wk	17262
##nu	17263
##eit	17264
##bg	17265
##blo	17266
##au	17267
##ab	17268
##ah	17269
##az	17270
##acp	17271
##sb	17272
##hc	17273
##hg	17274
##fp	17275
##ys	17276
##car	17277
##ks	17278
##kh	17279
##ַה	17280
##my	17281
##66	17282
##gn	17283
##gf	17284
##gal	17285
##ךך	17286
##öm	17287
##öll	17288
##är	17289
##ár	17290
##ås	17291
##ão	17292
##ֹל	17293
##ła	17294
##ži	17295
##ου	17296
אתא	17297
לאק	17298
עלולי	17299
המור	17300
המוד	17301
האת	17302
שיף	17303
מיח	17304
מאק	17305
אלות	17306
התם	17307
הרן	17308
שהגיע	17309
שאה	17310
שאמ	17311
שאח	17312
מסצ	17313
ראם	17314
חינ	17315
למב	17316
למט	17317
מתם	17318
לעק	17319
ברד	17320
ארע	17321
לבע	17322
בשן	17323
מצח	17324
לפן	17325
לפון	17326
ואט	17327
ואינ	17328
אמט	17329
לחק	17330
לשנו	17331
חשת	17332
חשך	17333
בהא	17334
בתך	17335
וכף	17336
תחלת	17337
מרע	17338
דרס	17339
ועו	17340
כשף	17341
הההה	17342
ערד	17343
מפח	17344
מפז	17345
מפנ	17346
שבך	17347
מדן	17348
שתר	17349
לסת	17350
שנמ	17351
ידאו	17352
לצג	17353
בוֹ	17354
ספח	17355
יפג	17356
וקדם	17357
רעם	17358
עצמכ	17359
שרן	17360
נשו	17361
נגש	17362
גבך	17363
erd	17364
eru	17365
erg	17366
erge	17367
erva	17368
ergo	17369
מטא	17370
קודו	17371
ימח	17372
inel	17373
inse	17374
inia	17375
thic	17376
thous	17377
מגף	17378
סטף	17379
נקש	17380
##arm	17381
......	17382
צרם	17383
וחם	17384
וחן	17385
בזז	17386
thean	17387
##alt	17388
##ert	17389
סמכי	17390
נסק	17391
אהל	17392
נטרנ	17393
תאט	17394
טלר	17395
בפא	17396
צדד	17397
stl	17398
stn	17399
stx	17400
stmi	17401
stant	17402
stoma	17403
##eno	17404
בעיי	17405
enst	17406
enna	17407
enca	17408
enza	17409
encha	17410
onu	17411
rear	17412
rews	17413
דאם	17414
דאן	17415
דאש	17416
anas	17417
סגד	17418
alu	17419
aly	17420
alri	17421
alva	17422
alga	17423
alci	17424
algo	17425
צבת	17426
אשו	17427
אשך	17428
נדף	17429
nep	17430
nek	17431
nem	17432
neon	17433
neil	17434
neut	17435
neko	17436
נסיי	17437
זקף	17438
סתת	17439
toes	17440
itt	17441
itv	17442
ité	17443
ites	17444
פטן	17445
chd	17446
chla	17447
chad	17448
chand	17449
chate	17450
chise	17451
chimp	17452
chasi	17453
קדס	17454
ate	17455
atar	17456
##itz	17457
##amm	17458
209	17459
203	17460
207	17461
tet	17462
tem	17463
teg	17464
teal	17465
teas	17466
teard	17467
tema	17468
אומרי	17469
סעים	17470
##oof	17471
##ook	17472
##eth	17473
shy	17474
shel	17475
shank	17476
shamp	17477
shbg	17478
305	17479
303	17480
maa	17481
mavi	17482
madi	17483
maha	17484
madd	17485
יביי	17486
dew	17487
deh	17488
deer	17489
deen	17490
decep	17491
comet	17492
lec	17493
lez	17494
lein	17495
leash	17496
שויו	17497
icus	17498
icum	17499
icur	17500
icard	17501
icos	17502
12v	17503
roe	17504
roh	17505
rok	17506
rota	17507
rott	17508
oru	17509
orc	17510
orat	17511
orta	17512
edo	17513
edia	17514
forec	17515
forte	17516
mi5	17517
mik	17518
miri	17519
mimi	17520
miui	17521
arre	17522
arma	17523
armi	17524
דהן	17525
שחף	17526
sef	17527
sect	17528
sext	17529
semp	17530
lii	17531
lik	17532
lig	17533
lide	17534
liek	17535
weg	17536
wein	17537
weiz	17538
weird	17539
חגו	17540
diwan	17541
elo	17542
elv	17543
sua	17544
suf	17545
suz	17546
suff	17547
sudd	17548
sudb	17549
isol	17550
unu	17551
unw	17552
unb	17553
unti	17554
רלף	17555
lai	17556
lao	17557
laz	17558
laza	17559
טהר	17560
184	17561
188	17562
meo	17563
meal	17564
mein	17565
mect	17566
mead	17567
mefi	17568
mede	17569
meme	17570
mecha	17571
mexi	17572
ngz	17573
ngli	17574
nged	17575
ngio	17576
phe	17577
esr	17578
esv	17579
esol	17580
essi	17581
exce	17582
exet	17583
exci	17584
tav	17585
tast	17586
bez	17587
bever	17588
253	17589
coa	17590
coy	17591
cove	17592
coord	17593
cogn	17594
תחיי	17595
napa	17596
navi	17597
nazi	17598
naacp	17599
nafp	17600
התעש	17601
sph	17602
spg	17603
spel	17604
spott	17605
spora	17606
prof	17607
prose	17608
רנן	17609
שדן	17610
שדד	17611
ntes	17612
##ury	17613
moc	17614
moor	17615
mool	17616
moss	17617
mofo	17618
קאס	17619
14k	17620
rast	17621
emes	17622
emin	17623
etl	17624
etc	17625
etit	17626
etti	17627
pob	17628
pog	17629
pois	17630
pose	17631
soa	17632
soon	17633
soas	17634
soph	17635
adt	17636
adr	17637
adl	17638
adc	17639
adnp	17640
ento	17641
ente	17642
ental	17643
loi	17644
loe	17645
lox	17646
loan	17647
loom	17648
loca	17649
logg	17650
163	17651
noc	17652
noel	17653
nove	17654
node	17655
novo	17656
whoo	17657
249	17658
243	17659
ceu	17660
cey	17661
winn	17662
conse	17663
consi	17664
aml	17665
amar	17666
amen	17667
amos	17668
cag	17669
caba	17670
cabo	17671
capo	17672
ush	17673
##une	17674
##unc	17675
##unk	17676
זנח	17677
heu	17678
hec	17679
heet	17680
heck	17681
hears	17682
asy	17683
asci	17684
scd	17685
scn	17686
scc	17687
scow	17688
score	17689
scoot	17690
scrap	17691
ipc	17692
ipes	17693
ipay	17694
rira	17695
rius	17696
intl	17697
dov	17698
dool	17699
sae	17700
sag	17701
sail	17702
saur	17703
savi	17704
crow	17705
croft	17706
fiori	17707
gev	17708
gees	17709
gears	17710
nii	17711
nif	17712
nix	17713
nial	17714
ood	17715
oose	17716
bae	17717
baa	17718
bah	17719
bac	17720
bain	17721
baid	17722
baft	17723
baci	17724
dah	17725
dac	17726
daz	17727
dach	17728
daad	17729
bok	17730
boon	17731
bove	17732
igt	17733
igo	17734
igor	17735
##ede	17736
vere	17737
verlo	17738
hire	17739
trp	17740
tron	17741
evp	17742
evide	17743
iea	17744
iep	17745
ieve	17746
פנל	17747
217	17748
acm	17749
acca	17750
hae	17751
haa	17752
habi	17753
התכנ	17754
goon	17755
goat	17756
outh	17757
smic	17758
smus	17759
cls	17760
clm	17761
cloo	17762
clint	17763
clone	17764
clash	17765
701	17766
pau	17767
pah	17768
pag	17769
pax	17770
paol	17771
paas	17772
paki	17773
pages	17774
pablo	17775
שצף	17776
שצץ	17777
801	17778
806	17779
viv	17780
vior	17781
vier	17782
vien	17783
viri	17784
viet	17785
vive	17786
bip	17787
biz	17788
נלאו	17789
peu	17790
peed	17791
pega	17792
pemb	17793
עטף	17794
221	17795
224	17796
טמא	17797
שסר	17798
שסך	17799
wie	17800
wives	17801
lina	17802
sona	17803
sons	17804
lyc	17805
lyft	17806
urt	17807
urd	17808
uru	17809
904	17810
902	17811
ndar	17812
bler	17813
bless	17814
blanc	17815
236	17816
232	17817
abn	17818
abm	17819
abel	17820
289	17821
287	17822
282	17823
prc	17824
pré	17825
prin	17826
pric	17827
ryo	17828
rya	17829
paro	17830
363	17831
sero	17832
sss	17833
ssan	17834
ssay	17835
ssim	17836
275	17837
grb	17838
grp	17839
grü	17840
455	17841
451	17842
456	17843
upr	17844
blea	17845
צנע	17846
quat	17847
quel	17848
quid	17849
quent	17850
quell	17851
quare	17852
quiz	17853
quora	17854
disn	17855
tima	17856
stain	17857
stair	17858
stake	17859
colc	17860
colon	17861
269	17862
268	17863
idw	17864
idan	17865
predi	17866
warp	17867
wark	17868
iif	17869
plays	17870
sys	17871
sym	17872
##tap	17873
grah	17874
grain	17875
graft	17876
torm	17877
trai	17878
trau	17879
traw	17880
tras	17881
traat	17882
ska	17883
fry	17884
fres	17885
carr	17886
ilus	17887
illo	17888
jok	17889
joel	17890
crt	17891
crps	17892
chai	17893
gency	17894
palmi	17895
gyro	17896
pris	17897
ivy	17898
ivor	17899
jax	17900
jail	17901
jafa	17902
jako	17903
jagg	17904
jeo	17905
pers	17906
persi	17907
flam	17908
flare	17909
flesh	17910
flora	17911
macd	17912
maca	17913
macc	17914
ולמית	17915
gira	17916
giard	17917
giuse	17918
dura	17919
duch	17920
duri	17921
versa	17922
desp	17923
desm	17924
tial	17925
tire	17926
tius	17927
tiph	17928
tives	17929
piv	17930
pigs	17931
expan	17932
'."	17933
cbr	17934
cb2	17935
cbre	17936
hott	17937
321	17938
326	17939
329	17940
gnet	17941
gned	17942
buka	17943
budd	17944
cife	17945
ciamp	17946
ción	17947
olb	17948
oló	17949
swf	17950
swamp	17951
swarm	17952
חנא	17953
319	17954
313	17955
317	17956
hod	17957
hoe	17958
hok	17959
hern	17960
herz	17961
gues	17962
gula	17963
guill	17964
guara	17965
humor	17966
oso	17967
osb	17968
oss	17969
osm	17970
osha	17971
oscar	17972
psp	17973
ps2	17974
wwd	17975
wwf	17976
servo	17977
gaul	17978
rical	17979
kaba	17980
kaust	17981
kazi	17982
ecr	17983
ecw	17984
ecm	17985
awa	17986
fei	17987
fema	17988
feast	17989
fever	17990
wap	17991
wax	17992
llus	17993
ird	17994
irf	17995
eapm	17996
fink	17997
vais	17998
ifc	17999
twth	18000
twick	18001
keith	18002
ctic	18003
ulc	18004
334	18005
bral	18006
brat	18007
balt	18008
balm	18009
ovar	18010
ovis	18011
broom	18012
polic	18013
uto	18014
לאנש	18015
filth	18016
starl	18017
dyn	18018
dry	18019
346	18020
344	18021
ibt	18022
spain	18023
bris	18024
brig	18025
calo	18026
otw	18027
otta	18028
yao	18029
yak	18030
לשינו	18031
373	18032
geta	18033
aip	18034
harb	18035
hara	18036
rolo	18037
role	18038
rola	18039
creen	18040
לחשו	18041
knot	18042
stuck	18043
387	18044
eula	18045
eugen	18046
shai	18047
shack	18048
koh	18049
crims	18050
trim	18051
tribe	18052
voa	18053
aux	18054
cdo	18055
cdn	18056
cds	18057
kira	18058
kiwi	18059
ncd	18060
ncs	18061
delo	18062
delay	18063
avn	18064
avid	18065
coro	18066
corv	18067
holl	18068
msa	18069
brab	18070
brasi	18071
bravo	18072
ecta	18073
pyra	18074
powd	18075
rud	18076
vise	18077
viss	18078
vish	18079
beag	18080
baro	18081
bars	18082
stem	18083
steer	18084
steen	18085
resso	18086
ellis	18087
imab	18088
simb	18089
390	18090
391	18091
398	18092
523	18093
crad	18094
cray	18095
craps	18096
crash	18097
ntip	18098
frag	18099
cerva	18100
lup	18101
luce	18102
luca	18103
luka	18104
nesa	18105
agu	18106
agn	18107
ages	18108
agri	18109
boru	18110
boris	18111
borås	18112
eip	18113
eiff	18114
449	18115
chef	18116
chev	18117
cheat	18118
veo	18119
vega	18120
אעז	18121
640	18122
hamil	18123
mpg	18124
mp4	18125
value	18126
drama	18127
cns	18128
');	18129
egf	18130
egan	18131
eggs	18132
mcl	18133
mcu	18134
pty	18135
uef	18136
camel	18137
ghi	18138
ghs	18139
ghoul	18140
sama	18141
diag	18142
490	18143
435	18144
xyz	18145
670	18146
benzo	18147
mbt	18148
mble	18149
surp	18150
470	18151
gls	18152
renz	18153
least	18154
fungi	18155
salo	18156
salu	18157
salm	18158
salva	18159
vili	18160
412	18161
dread	18162
meno	18163
510	18164
511	18165
gamer	18166
ube	18167
izu	18168
izon	18169
sani	18170
sana	18171
obes	18172
prai	18173
prad	18174
680	18175
juul	18176
judi	18177
seld	18178
phylo	18179
ferry	18180
tuz	18181
tux	18182
tues	18183
ture	18184
matth	18185
560	18186
599	18187
586	18188
587	18189
582	18190
611	18191
trev	18192
rget	18193
deni	18194
denis	18195
rtd	18196
rtb	18197
tsush	18198
shem	18199
dsor	18200
pubg	18201
grove	18202
snl	18203
snoo	18204
vole	18205
volta	18206
aau	18207
aac	18208
pico	18209
pical	18210
inns	18211
garn	18212
garri	18213
garni	18214
helm	18215
helen	18216
sls	18217
slid	18218
squs	18219
ppl	18220
ppv	18221
pped	18222
jewel	18223
bmr	18224
bmd	18225
fula	18226
mupp	18227
stoke	18228
regal	18229
csd	18230
csc	18231
cs6	18232
ccr	18233
ccar	18234
plann	18235
clov	18236
hora	18237
horri	18238
570	18239
575	18240
572	18241
825	18242
822	18243
cats	18244
gica	18245
638	18246
aztec	18247
dans	18248
uvc	18249
birm	18250
tout	18251
testa	18252
871	18253
asta	18254
astra	18255
bonus	18256
mmy	18257
efs	18258
mayn	18259
odb	18260
odc	18261
spee	18262
davis	18263
760	18264
776	18265
pmd	18266
fortu	18267
bdsm	18268
rsh	18269
freu	18270
moro	18271
morse	18272
tita	18273
ahm	18274
casca	18275
rcit	18276
964	18277
gsc	18278
cula	18279
gina	18280
lend	18281
virgi	18282
bask	18283
rral	18284
singh	18285
alto	18286
714	18287
743	18288
ique	18289
raya	18290
rays	18291
cpm	18292
dbm	18293
mgs	18294
ouse	18295
trov	18296
troll	18297
shoes	18298
diem	18299
floz	18300
floyd	18301
jania	18302
tara	18303
butch	18304
earl	18305
hudd	18306
huffi	18307
jeri	18308
puff	18309
puzz	18310
damp	18311
therm	18312
olec	18313
roul	18314
spiri	18315
cmt	18316
cmu	18317
honk	18318
790	18319
btec	18320
cita	18321
eob	18322
olaf	18323
pvh	18324
arab	18325
curb	18326
curse	18327
dorf	18328
meli	18329
melt	18330
zapp	18331
boli	18332
boly	18333
dness	18334
gmac	18335
junk	18336
kers	18337
zigg	18338
nels	18339
loui	18340
tina	18341
ddr	18342
purga	18343
vara	18344
couv	18345
coura	18346
couri	18347
froz	18348
fleet	18349
veni	18350
vend	18351
nasc	18352
omega	18353
tecn	18354
nteed	18355
celt	18356
fmf	18357
falk	18358
kuz	18359
grid	18360
hrt	18361
hisp	18362
gtx	18363
khan	18364
lisp	18365
nnes	18366
nnica	18367
vegf	18368
ays	18369
homm	18370
homes	18371
ienc	18372
ience	18373
mainz	18374
detec	18375
dutch	18376
fxp	18377
lune	18378
luna	18379
moti	18380
mune	18381
nje	18382
roses	18383
dhc	18384
kbu	18385
srt	18386
srg	18387
coolp	18388
aids	18389
dota	18390
rpm	18391
unto	18392
?".	18393
iusz	18394
nana	18395
names	18396
pines	18397
pilg	18398
velv	18399
zoox	18400
aoc	18401
cfd	18402
ewo	18403
jpl	18404
resta	18405
lieu	18406
coupe	18407
hsc	18408
hsv	18409
jimd	18410
jima	18411
moose	18412
nhk	18413
nheit	18414
rfp	18415
sber	18416
svr	18417
table	18418
bluff	18419
bina	18420
equip	18421
zuid	18422
stie	18423
stix	18424
moses	18425
cipli	18426
guys	18427
dts	18428
dtc	18429
udhr	18430
voro	18431
josef	18432
hangz	18433
dunc	18434
fdtl	18435
fhc	18436
fury	18437
lamb	18438
lama	18439
lumi	18440
nvc	18441
tusc	18442
wers	18443
werk	18444
sacri	18445
equus	18446
gali	18447
rris	18448
sarc	18449
tlc	18450
ב11	18451
ב13	18452
ffei	18453
iuj	18454
loop	18455
loose	18456
pulm	18457
inued	18458
twist	18459
feng	18460
tcm	18461
thai	18462
avery	18463
''.	18464
gilm	18465
jsf	18466
json	18467
lili	18468
moms	18469
momp	18470
oyst	18471
rray	18472
tgv	18473
deau	18474
baie	18475
baix	18476
===	18477
bunk	18478
bunny	18479
daddy	18480
kola	18481
kolin	18482
nxp	18483
pnas	18484
אַף	18485
אאא	18486
shera	18487
whisk	18488
juden	18489
aissa	18490
cows	18491
dvr	18492
feth	18493
hhv	18494
h2o	18495
husba	18496
kosh	18497
wowch	18498
תנגדו	18499
mahal	18500
phosp	18501
split	18502
rieg	18503
hopes	18504
fpg	18505
m16	18506
squat	18507
tled	18508
yama	18509
iplay	18510
fisa	18511
gasp	18512
mwc	18513
pussy	18514
struc	18515
above	18516
felt	18517
fossi	18518
kasp	18519
nursi	18520
pneum	18521
zanu	18522
weeb	18523
issu	18524
amex	18525
juif	18526
cuse	18527
eosi	18528
gurga	18529
josh	18530
nomi	18531
רַק	18532
strip	18533
chalk	18534
sucra	18535
café	18536
paix	18537
drums	18538
dulce	18539
kuni	18540
lhc	18541
pwc	18542
pwg	18543
tidy	18544
pavil	18545
bronx	18546
(*)	18547
vimeo	18548
wtf	18549
zona	18550
hippo	18551
nçais	18552
(%)	18553
.''	18554
ikea	18555
oasis	18556
vfx	18557
xili	18558
threa	18559
rapha	18560
wharf	18561
fahui	18562
clown	18563
luigi	18564
snjak	18565
xslt	18566
ggles	18567
jessi	18568
nʉʉ	18569
qlik	18570
wreck	18571
גָד	18572
ascii	18573
"/	18574
"!	18575
"¢	18576
"..	18577
#.	18578
#:	18579
$).	18580
%‎	18581
'...	18582
(~	18583
(;	18584
('	18585
(→	18586
*,	18587
+/	18588
,‏	18589
-:	18590
-”	18591
.*	18592
.-	18593
.?	18594
012	18595
020	18596
1s	18597
1m	18598
1mb	18599
2b	18600
2c	18601
2ב	18602
2z	18603
2m	18604
2ds	18605
2nd	18606
3e	18607
3a	18608
3pe	18609
4a	18610
5s	18611
6t	18612
6th	18613
7ה	18614
8a	18615
9i	18616
:/	18617
><	18618
?.	18619
?..	18620
[[	18621
\(	18622
]]	18623
a8	18624
aor	18625
aro	18626
aam	18627
aet	18628
aur	18629
aub	18630
aps	18631
aep	18632
ault	18633
acha	18634
aki	18635
aunt	18636
aque	18637
bw	18638
b5	18639
b9	18640
b3	18641
bom	18642
bft	18643
boun	18644
bth	18645
bate	18646
bsi	18647
bore	18648
bdi	18649
bme	18650
bick	18651
bss	18652
bpi	18653
bha	18654
boud	18655
biss	18656
bumb	18657
bsp	18658
bfs	18659
bku	18660
bár	18661
c7	18662
cá	18663
cve	18664
cct	18665
cse	18666
cim	18667
cft	18668
cba	18669
cest	18670
cill	18671
cfi	18672
cing	18673
cfe	18674
cgi	18675
cci	18676
citt	18677
csa	18678
cull	18679
carth	18680
cfs	18681
cima	18682
c60	18683
d5	18684
dlo	18685
dill	18686
dard	18687
due	18688
dour	18689
dvi	18690
dsi	18691
dood	18692
dti	18693
dory	18694
ddd	18695
dhs	18696
dlp	18697
dkk	18698
dtap	18699
e5	18700
eil	18701
eart	18702
egi	18703
efa	18704
ewa	18705
ejo	18706
fz	18707
fä	18708
fow	18709
fad	18710
fent	18711
fim	18712
fft	18713
fba	18714
fint	18715
fate	18716
fass	18717
fci	18718
fca	18719
fff	18720
fbo	18721
fitt	18722
fatt	18723
fount	18724
fsa	18725
font	18726
fend	18727
fcs	18728
fón	18729
fido	18730
gz	18731
g1	18732
g2	18733
gż	18734
gum	18735
gde	18736
gour	18737
gass	18738
gcc	18739
gss	18740
gare	18741
gcd	18742
gml	18743
gord	18744
gcp	18745
gomp	18746
goul	18747
hw	18748
hf	18749
hj	18750
hq	18751
h3	18752
h4	18753
hra	18754
hut	18755
hla	18756
hess	18757
hlo	18758
hest	18759
hort	18760
hpa	18761
hdi	18762
hci	18763
hda	18764
hfa	18765
hult	18766
hrc	18767
hond	18768
hush	18769
hls	18770
ij	18771
i2	18772
i8	18773
iš	18774
ient	18775
iur	18776
iia	18777
iul	18778
iua	18779
iolo	18780
iki	18781
ista	18782
iws	18783
iwi	18784
iole	18785
jn	18786
jy	18787
jz	18788
jg	18789
j3	18790
jö	18791
jou	18792
jol	18793
jot	18794
jill	18795
jcd	18796
jka	18797
joll	18798
jara	18799
jvp	18800
jku	18801
jbl	18802
jrp	18803
jvm	18804
kk	18805
kö	18806
kü	18807
ká	18808
kro	18809
kot	18810
kur	18811
kart	18812
kba	18813
kath	18814
kild	18815
kare	18816
kame	18817
kant	18818
kull	18819
kord	18820
ksh	18821
koma	18822
l5	18823
lö	18824
l4	18825
lü	18826
l2	18827
lä	18828
lro	18829
lra	18830
lad	18831
lpp	18832
lge	18833
lill	18834
lma	18835
lub	18836
lva	18837
lth	18838
lco	18839
lci	18840
lash	18841
latt	18842
loup	18843
lfa	18844
lsa	18845
ldp	18846
lund	18847
lump	18848
lamp	18849
lars	18850
lón	18851
mq	18852
m3	18853
mion	18854
mch	18855
mce	18856
mlo	18857
mest	18858
mue	18859
mva	18860
mga	18861
mith	18862
mmi	18863
mca	18864
mss	18865
mory	18866
mott	18867
mutt	18868
mumb	18869
mfc	18870
mhs	18871
mno	18872
mès	18873
n9	18874
nra	18875
nay	18876
nid	18877
nft	18878
nue	18879
ning	18880
nate	18881
nine	18882
nase	18883
nze	18884
nvd	18885
niss	18886
nki	18887
nfo	18888
nzi	18889
nbs	18890
nara	18891
nfs	18892
nbl	18893
nrem	18894
oj	18895
o1	18896
o2	18897
oś	18898
oes	18899
oam	18900
ooo	18901
oga	18902
oda	18903
omi	18904
omo	18905
oha	18906
oka	18907
oki	18908
pk	18909
p1	18910
p7	18911
pá	18912
pion	18913
pct	18914
pum	18915
pour	18916
pth	18917
pps	18918
pca	18919
pti	18920
pold	18921
pmp	18922
pdd	18923
pki	18924
punt	18925
p10	18926
puth	18927
p20	18928
p30	18929
pimp	18930
poma	18931
qp	18932
qat	18933
qol	18934
qas	18935
qdc	18936
r5	18937
rion	18938
rint	18939
rpa	18940
rsi	18941
rdi	18942
rti	18943
rite	18944
ritt	18945
rph	18946
rine	18947
rous	18948
rza	18949
rja	18950
rmb	18951
rque	18952
rnp	18953
s0	18954
sö	18955
sard	18956
sde	18957
sda	18958
sbo	18959
sash	18960
sata	18961
sind	18962
sfo	18963
sdp	18964
sła	18965
tk	18966
tú	18967
tó	18968
t2	18969
tà	18970
tpp	18971
tge	18972
tand	18973
tco	18974
tpi	18975
tbi	18976
tsa	18977
tpo	18978
tki	18979
tund	18980
tamp	18981
tush	18982
tbs	18983
tney	18984
tadt	18985
uy	18986
u1	18987
ug	18988
uan	18989
uin	18990
uir	18991
uill	18992
uco	18993
uff	18994
ubc	18995
ufa	18996
uka	18997
uwp	18998
ueno	18999
vw	19000
vb	19001
vö	19002
vre	19003
vro	19004
vce	19005
voo	19006
vot	19007
vla	19008
vli	19009
vest	19010
vard	19011
vma	19012
vga	19013
vore	19014
vult	19015
vich	19016
vbl	19017
wl	19018
wk	19019
wj	19020
wg	19021
wic	19022
wad	19023
wba	19024
wca	19025
wound	19026
wmo	19027
wdd	19028
wiss	19029
wade	19030
wett	19031
xj	19032
x1	19033
x9	19034
x4	19035
x7	19036
xero	19037
yb	19038
yz	19039
yj	19040
y8	19041
yon	19042
yat	19043
yre	19044
yid	19045
yed	19046
yush	19047
yto	19048
zs	19049
zc	19050
z1	19051
z4	19052
z7	19053
z2	19054
zal	19055
zra	19056
zil	19057
zis	19058
zet	19059
zim	19060
zart	19061
zul	19062
zep	19063
zfa	19064
zumb	19065
zinc	19066
zwe	19067
zhan	19068
|:	19069
~~	19070
ár	19071
áz	19072
ène	19073
èque	19074
éri	19075
ío	19076
ín	19077
ño	19078
öp	19079
ût	19080
ęc	19081
īdi	19082
łu	19083
łaz	19084
ʻi	19085
ης	19086
κή	19087
ρά	19088
אץ	19089
אקי	19090
אכה	19091
בt	19092
בu	19093
בופ	19094
בסף	19095
בִי	19096
ב50	19097
גַ	19098
גף	19099
גדם	19100
גאר	19101
גמד	19102
גחל	19103
גחן	19104
דאת	19105
דנס	19106
דאר	19107
דֶה	19108
הi	19109
הַ	19110
ה1	19111
ה4	19112
ה7	19113
הדה	19114
ה20	19115
ה15	19116
ה50	19117
ו4	19118
ו30	19119
ו50	19120
זך	19121
זבה	19122
חך	19123
חכר	19124
טדר	19125
טוף	19126
טטה	19127
טסט	19128
יַ	19129
ךנ	19130
כ5	19131
כּ	19132
כחה	19133
כעט	19134
כסה	19135
כ20	19136
כ30	19137
כ15	19138
כ40	19139
ל1	19140
ל3	19141
לֵ	19142
ל10	19143
לֶה	19144
ל50	19145
מָ	19146
מ10	19147
מ20	19148
מ30	19149
מַה	19150
נף	19151
נבר	19152
נחר	19153
סנו	19154
סאי	19155
סלת	19156
ססה	19157
עֶ	19158
עֹל	19159
פבר	19160
פדי	19161
פקר	19162
פשה	19163
פדה	19164
פמן	19165
פפה	19166
פזו	19167
פסה	19168
צלה	19169
צוך	19170
רמר	19171
רמש	19172
שוש	19173
שוך	19174
שוה	19175
שטרה	19176
جم	19177
را	19178
ري	19179
عل	19180
مار	19181
‎-	19182
‏,	19183
‏(	19184
–‏	19185
—“	19186
—’	19187
’:	19188
’?	19189
“”	19190
”.	19191
‰.	19192
₪)	19193
€).	19194
��	19195
##ii	19196
##tr	19197
##tm	19198
##tq	19199
##tte	19200
##rl	19201
##rli	19202
##od	19203
##ov	19204
##lr	19205
##lf	19206
##uo	19207
##ula	19208
##wu	19209
##nf	19210
##nk	19211
##ef	19212
##ex	19213
##bu	19214
##bn	19215
##bp	19216
##bm	19217
##ao	19218
##ac	19219
##sl	19220
##sz	19221
##hu	19222
##hh	19223
##hk	19224
##had	19225
##hec	19226
##fy	19227
##fg	19228
##fsa	19229
##fny	19230
##pf	19231
##kar	19232
##vu	19233
##на	19234
##mu	19235
##mg	19236
##je	19237
##js	19238
##jk	19239
##gan	19240
##gri	19241
##ال	19242
##ام	19243
##qx	19244
##פשי	19245
##رب	19246
##ück	19247
##äft	19248
##ֶר	19249
##án	19250
##τι	19251
##ën	19252
##σι	19253
##ço	19254
##عب	19255
##πτ	19256
##ōs	19257
##то	19258
##θος	19259
##ña	19260
ותל	19261
ותת	19262
אתל	19263
אתת	19264
##ניי	19265
המלח	19266
אוכ	19267
איחו	19268
אחכ	19269
מהל	19270
באפ	19271
שיצ	19272
מאם	19273
ישק	19274
אלם	19275
אלט	19276
השל	19277
השװ	19278
השונ	19279
אנך	19280
התאו	19281
הרכ	19282
הרח	19283
שאמר	19284
מסק	19285
מסט	19286
ראמפ	19287
למך	19288
למפ	19289
למטר	19290
ריץ	19291
תיש	19292
לעט	19293
הפח	19294
ברץ	19295
מחץ	19296
מחצי	19297
מחפשי	19298
הבניי	19299
ובם	19300
לבב	19301
בשק	19302
בשלו	19303
שמט	19304
מצל	19305
כאם	19306
כאז	19307
הצף	19308
עצל	19309
לפגו	19310
מקח	19311
מקם	19312
הגע	19313
הגת	19314
הגט	19315
הקם	19316
ואס	19317
פרם	19318
פרן	19319
פרר	19320
פריל	19321
אממ	19322
אמס	19323
אמד	19324
רקח	19325
רקם	19326
הסך	19327
ילדו	19328
לשן	19329
לשני	19330
חשמ	19331
לכח	19332
לכר	19333
בהה	19334
מלל	19335
מלמ	19336
מלץ	19337
מלכו	19338
חלד	19339
חלוט	19340
הנשים	19341
אפך	19342
זוז	19343
לקן	19344
פיע	19345
מבד	19346
בלד	19347
תחלה	19348
הזז	19349
ועט	19350
ועלי	19351
קיא	19352
אזף	19353
ההה	19354
ההן	19355
ויך	19356
רצת	19357
יצחו	19358
חדק	19359
שבש	19360
הוּ	19361
הוץ	19362
ופלי	19363
שפטי	19364
הדל	19365
הדד	19366
הדא	19367
גרב	19368
שתם	19369
בבא	19370
לךְ	19371
עיי	19372
הטף	19373
יטח	19374
רחץ	19375
רעך	19376
פשש	19377
אסן	19378
שרב	19379
שרש	19380
נגה	19381
erz	19382
erx	19383
erla	19384
מטף	19385
בגת	19386
בקן	19387
נפה	19388
thb	19389
ths	19390
thm	19391
thick	19392
סבג	19393
סבן	19394
תעד	19395
לגד	19396
לגת	19397
כנם	19398
הןא	19399
נקל	19400
נקוד	19401
תלם	19402
תלד	19403
תלש	19404
קהה	19405
לדן	19406
יעף	19407
...)	19408
...,	19409
...”	19410
צרף	19411
תמול	19412
##ans	19413
תנע	19414
##oro	19415
##orn	19416
##orm	19417
בזל	19418
בזמ	19419
קלל	19420
קלח	19421
קלם	19422
קלג	19423
##esd	19424
רפש	19425
רפוב	19426
רפובל	19427
thec	19428
##ini	19429
##era	19430
אהד	19431
עשרו	19432
כדף	19433
בצג	19434
אצו	19435
נחם	19436
נרל	19437
נושי	19438
חסה	19439
דקס	19440
sth	19441
stal	19442
ster	19443
stro	19444
stad	19445
stum	19446
stirl	19447
stutt	19448
stunt	19449
stamp	19450
sturm	19451
נאד	19452
##eng	19453
שחקנ	19454
enu	19455
enk	19456
enz	19457
enes	19458
engl	19459
enzi	19460
enya	19461
שקף	19462
onr	19463
onn	19464
onco	19465
onne	19466
10k	19467
##omm	19468
שטק	19469
נצב	19470
reon	19471
reel	19472
rece	19473
reed	19474
refi	19475
reth	19476
reci	19477
reath	19478
reep	19479
reha	19480
reak	19481
reese	19482
reju	19483
וטס	19484
דאס	19485
חמס	19486
anu	19487
anh	19488
anta	19489
ante	19490
##rew	19491
ofc	19492
ale	19493
alg	19494
alli	19495
almi	19496
אשן	19497
אשא	19498
אגה	19499
אגס	19500
נדן	19501
כהר	19502
##rai	19503
שגה	19504
לרק	19505
nee	19506
neal	19507
nein	19508
neol	19509
neck	19510
neid	19511
neft	19512
nema	19513
neke	19514
nevi	19515
neath	19516
nego	19517
גופנ	19518
ינגטו	19519
תבא	19520
##rio	19521
סלד	19522
tob	19523
tov	19524
toil	19525
topp	19526
todd	19527
topo	19528
toho	19529
toast	19530
דמך	19531
itb	19532
itz	19533
itan	19534
itch	19535
itis	19536
ששט	19537
דעך	19538
ches	19539
chit	19540
chum	19541
chim	19542
chest	19543
chos	19544
chop	19545
chmp	19546
רגשו	19547
##isi	19548
atf	19549
atv	19550
atat	19551
atari	19552
דגו	19553
##ity	19554
##asp	19555
tei	19556
teo	19557
teh	19558
tef	19559
tez	19560
temi	19561
teca	19562
teeth	19563
##cea	19564
shh	19565
shoo	19566
shill	19567
shpt	19568
shunt	19569
shale	19570
shui	19571
shirt	19572
shelt	19573
shtm	19574
##vee	19575
הלימ	19576
maw	19577
mahi	19578
תזת	19579
גנח	19580
גנז	19581
dej	19582
deas	19583
dege	19584
deva	19585
devi	19586
dext	19587
deka	19588
depo	19589
como	19590
coma	19591
combi	19592
lep	19593
leon	19594
lees	19595
leen	19596
leat	19597
leis	19598
leak	19599
ledd	19600
שבועו	19601
icd	19602
icn	19603
icj	19604
icg	19605
icri	19606
icult	19607
iccp	19608
icarl	19609
icles	19610
12ה	19611
rois	19612
roit	19613
roam	19614
roga	19615
roca	19616
roach	19617
חפף	19618
פסע	19619
ors	19620
orf	19621
ork	19622
orz	19623
oril	19624
orla	19625
orbi	19626
orly	19627
כסם	19628
edic	19629
edua	19630
eddy	19631
edhec	19632
תסב	19633
fori	19634
foro	19635
fora	19636
forc	19637
forg	19638
forst	19639
forth	19640
forta	19641
forti	19642
forme	19643
forsa	19644
mie	19645
mif	19646
miki	19647
miya	19648
arn	19649
arv	19650
aren	19651
arro	19652
arna	19653
arpa	19654
arvo	19655
argu	19656
argo	19657
סרג	19658
סרף	19659
sees	19660
seat	19661
sefa	19662
501	19663
506	19664
507	19665
502	19666
liu	19667
liat	19668
liam	19669
lipp	19670
limb	19671
lijn	19672
זבן	19673
ענד	19674
wep	19675
weir	19676
weart	19677
חגה	19678
diu	19679
dih	19680
dix	19681
diar	19682
dive	19683
dius	19684
dige	19685
didi	19686
dida	19687
didd	19688
elu	19689
elp	19690
elin	19691
eler	19692
elio	19693
elys	19694
sue	19695
sug	19696
sust	19697
sugg	19698
sull	19699
isf	19700
isil	19701
unl	19702
uns	19703
unam	19704
unia	19705
unci	19706
דצמ	19707
לפעמ	19708
laur	19709
lavi	19710
טהא	19711
mex	19712
meas	19713
meck	19714
meps	19715
meda	19716
mems	19717
yout	19718
ngy	19719
nges	19720
ngin	19721
ngen	19722
nguy	19723
phin	19724
pher	19725
phra	19726
phic	19727
phri	19728
phis	19729
phim	19730
phub	19731
phase	19732
phere	19733
esd	19734
esw	19735
esis	19736
escp	19737
405	19738
407	19739
408	19740
ההתק	19741
exil	19742
exch	19743
exca	19744
excep	19745
##ume	19746
tae	19747
tah	19748
tac	19749
taal	19750
taic	19751
tach	19752
tacc	19753
tape	19754
taka	19755
tahi	19756
beo	19757
beu	19758
beh	19759
bef	19760
bees	19761
bein	19762
beir	19763
251	19764
259	19765
254	19766
252	19767
cob	19768
coc	19769
coat	19770
cose	19771
coff	19772
nab	19773
nah	19774
nast	19775
nail	19776
nach	19777
nava	19778
naga	19779
napo	19780
spx	19781
spon	19782
spra	19783
spil	19784
spit	19785
spur	19786
spell	19787
spite	19788
sphi	19789
spho	19790
spoof	19791
prod	19792
prosp	19793
proof	19794
רנד	19795
ntf	19796
nty	19797
ntp	19798
ntv	19799
ntin	19800
ntas	19801
ntur	19802
nted	19803
ntec	19804
ntsc	19805
צאט	19806
moh	19807
moz	19808
moj	19809
mog	19810
moga	19811
modi	19812
mobi	19813
moise	19814
mojo	19815
קאט	19816
146	19817
14א	19818
rao	19819
rah	19820
raf	19821
rax	19822
rake	19823
ravi	19824
raza	19825
emt	19826
emf	19827
emul	19828
emem	19829
טכס	19830
worst	19831
ethio	19832
soi	19833
sof	19834
sok	19835
sock	19836
adf	19837
adp	19838
aden	19839
adult	19840
enta	19841
entes	19842
lok	19843
loco	19844
goob	19845
goog	19846
goose	19847
nob	19848
nog	19849
noct	19850
noid	19851
novi	19852
wham	19853
whale	19854
247	19855
ceo	19856
ceed	19857
cecc	19858
cems	19859
cefr	19860
cebu	19861
mane	19862
mang	19863
manny	19864
wink	19865
conf	19866
conci	19867
consc	19868
amr	19869
amu	19870
amg	19871
amé	19872
amon	19873
ames	19874
amol	19875
amit	19876
amba	19877
amour	19878
cake	19879
cacc	19880
cabi	19881
cagr	19882
usg	19883
##uni	19884
שיקו	19885
hex	19886
hear	19887
heel	19888
heare	19889
heure	19890
heari	19891
pll	19892
pln	19893
ply	19894
plx	19895
plate	19896
platt	19897
602	19898
asu	19899
asw	19900
asce	19901
aspa	19902
asha	19903
scon	19904
scom	19905
scre	19906
scot	19907
sclo	19908
scour	19909
scatt	19910
scale	19911
scru	19912
scamm	19913
ipar	19914
ipal	19915
ipla	19916
rii	19917
riat	19918
rist	19919
rive	19920
riad	19921
riva	19922
riga	19923
ribo	19924
rious	19925
ripe	19926
rifl	19927
rigg	19928
rigo	19929
rijn	19930
doh	19931
doz	19932
sax	19933
saut	19934
sack	19935
sagi	19936
saco	19937
sacc	19938
saha	19939
crock	19940
crows	19941
crowe	19942
##uld	19943
fist	19944
fiba	19945
fiest	19946
gea	19947
gey	19948
geil	19949
gech	19950
geass	19951
gemi	19952
nib	19953
nip	19954
niv	19955
nium	19956
nift	19957
nied	19958
niya	19959
oos	19960
baz	19961
bait	19962
bair	19963
baga	19964
baco	19965
baja	19966
iao	19967
iau	19968
iae	19969
iag	19970
iaq	19971
iacc	19972
דתן	19973
marg	19974
marly	19975
ורסמ	19976
dao	19977
dawk	19978
bock	19979
bosh	19980
boku	19981
boab	19982
igp	19983
igura	19984
fai	19985
fao	19986
favo	19987
faisr	19988
fafsa	19989
verb	19990
verla	19991
verde	19992
verga	19993
vermi	19994
verei	19995
עגן	19996
hio	19997
hik	19998
hiri	19999
