<unk>	0
<s>	0
</s>	0
▁ה	-0
▁א	-1
▁ל	-2
▁מ	-3
▁י	-4
▁ו	-5
▁ש	-6
▁ב	-7
▁.	-8
▁ע	-9
▁ת	-10
ות	-11
▁כ	-12
▁,	-13
ים	-14
▁ר	-15
▁נ	-16
▁ים	-17
▁ח	-18
▁של	-19
▁פ	-20
▁ק	-21
▁ות	-22
▁ס	-23
▁את	-24
ור	-25
ני	-26
▁"	-27
▁ז	-28
▁ג	-29
▁ד	-30
ול	-31
▁הי	-32
▁לא	-33
▁צ	-34
▁ט	-35
נו	-36
▁על	-37
וד	-38
בר	-39
וא	-40
▁לה	-41
ית	-42
יר	-43
וב	-44
ון	-45
▁המ	-46
יל	-47
רי	-48
די	-49
ונ	-50
▁-	-51
▁או	-52
▁אי	-53
שר	-54
ום	-55
▁הא	-56
▁אח	-57
▁1	-58
▁בי	-59
▁זה	-60
מי	-61
לי	-62
▁מה	-63
▁0	-64
נה	-65
▁כל	-66
▁?	-67
יה	-68
▁הוא	-69
וח	-70
▁מש	-71
וש	-72
ופ	-73
כל	-74
מה	-75
יב	-76
ותר	-77
▁לי	-78
וי	-79
▁בא	-80
▁שי	-81
תי	-82
▁מי	-83
▁:	-84
▁מא	-85
▁2	-86
▁ול	-87
וק	-88
▁יש	-89
▁הש	-90
וע	-91
▁אנ	-92
וצ	-93
▁עם	-94
▁אל	-95
מר	-96
בל	-97
▁הת	-98
▁אות	-99
▁הר	-100
▁שה	-101
▁הח	-102
▁כי	-103
▁(	-104
שי	-105
קר	-106
▁שא	-107
בי	-108
▁'	-109
▁בע	-110
▁אני	-111
יות	-112
▁מס	-113
▁וה	-114
▁)	-115
▁רא	-116
סי	-117
▁ן	-118
▁חי	-119
פר	-120
▁למ	-121
שה	-122
זה	-123
מו	-124
▁לו	-125
▁ם	-126
▁יותר	-127
▁רי	-128
▁מת	-129
▁היא	-130
▁תי	-131
▁ור	-132
גי	-133
▁לע	-134
▁מע	-135
מש	-136
▁הפ	-137
דר	-138
▁בר	-139
▁אחר	-140
▁אר	-141
▁גם	-142
▁מח	-143
▁נו	-144
▁ני	-145
שים	-146
▁הב	-147
את	-148
טי	-149
▁9	-150
▁יכ	-151
ומ	-152
פי	-153
▁הם	-154
ין	-155
נים	-156
▁היה	-157
טר	-158
ולם	-159
לה	-160
▁הע	-161
▁וב	-162
▁אם	-163
▁סי	-164
▁מו	-165
▁לב	-166
▁עב	-167
▁בש	-168
▁שמ	-169
▁יה	-170
▁במ	-171
▁יי	-172
דע	-173
▁מצ	-174
▁יכול	-175
▁די	-176
▁כא	-177
▁הצ	-178
▁עצ	-179
רא	-180
חר	-181
▁לפ	-182
▁מק	-183
רכ	-184
▁אבל	-185
▁הג	-186
אל	-187
▁הק	-188
▁פר	-189
▁אמ	-190
▁הכ	-191
▁רק	-192
▁3	-193
נות	-194
▁ומ	-195
בה	-196
▁הס	-197
▁לח	-198
▁יל	-199
▁לש	-200
▁דבר	-201
▁וא	-202
▁5	-203
▁חש	-204
וג	-205
▁לכ	-206
▁בה	-207
▁–	-208
▁אתה	-209
▁אחד	-210
דה	-211
▁כדי	-212
▁מל	-213
▁חל	-214
▁תק	-215
▁ראש	-216
▁יר	-217
דם	-218
▁להיות	-219
וס	-220
▁פע	-221
▁הנ	-222
▁אפ	-223
שות	-224
▁כול	-225
▁מכ	-226
זר	-227
▁4	-228
אי	-229
▁e	-230
▁צרי	-231
מן	-232
נת	-233
▁כך	-234
▁בת	-235
▁טוב	-236
▁וכ	-237
▁טי	-238
מת	-239
▁רב	-240
חנו	-241
▁חבר	-242
דים	-243
וה	-244
וך	-245
חי	-246
עה	-247
▁אנחנו	-248
▁שלי	-249
▁ישר	-250
וכ	-251
▁8	-252
▁לק	-253
▁מדי	-254
▁!	-255
▁פי	-256
▁מב	-257
▁בל	-258
▁כמו	-259
▁אנשים	-260
▁ישראל	-261
▁הל	-262
▁לל	-263
▁תח	-264
▁מר	-265
▁דר	-266
ונה	-267
▁הז	-268
▁שלה	-269
▁6	-270
▁7	-271
מים	-272
בע	-273
דול	-274
▁s	-275
נס	-276
▁ידי	-277
▁רג	-278
▁עד	-279
▁וג	-280
וט	-281
▁וס	-282
▁ית	-283
קי	-284
▁וע	-285
▁רוצ	-286
▁i	-287
▁וצ	-288
▁שלך	-289
ורה	-290
▁ביותר	-291
▁כש	-292
▁קי	-293
▁זאת	-294
▁אמר	-295
יא	-296
וף	-297
▁בכל	-298
▁קר	-299
▁שני	-300
▁היית	-301
▁אז	-302
כם	-303
▁הה	-304
▁יו	-305
▁ונ	-306
▁וי	-307
▁רצ	-308
▁האם	-309
▁ער	-310
קה	-311
▁יצ	-312
▁חד	-313
▁זמן	-314
▁זו	-315
▁כמה	-316
צע	-317
▁מפ	-318
נט	-319
חק	-320
▁יס	-321
▁שב	-322
▁אותו	-323
▁ממ	-324
ודה	-325
ילו	-326
תה	-327
▁חו	-328
כה	-329
▁בין	-330
▁ספר	-331
עות	-332
▁הו	-333
ורי	-334
▁ופ	-335
▁S	-336
▁ך	-337
▁מד	-338
יו	-339
▁אין	-340
▁עבור	-341
▁שפ	-342
▁יח	-343
▁הד	-344
▁גי	-345
ילה	-346
גל	-347
▁קצ	-348
▁עוד	-349
▁שלנו	-350
▁היו	-351
לו	-352
אר	-353
▁הזה	-354
אה	-355
▁גר	-356
חה	-357
▁רוב	-358
▁תה	-359
▁שת	-360
▁בב	-361
ולי	-362
חות	-363
▁קט	-364
▁מאוד	-365
▁אנו	-366
וני	-367
▁t	-368
▁A	-369
▁בח	-370
▁לס	-371
▁בני	-372
מיד	-373
▁צריך	-374
אים	-375
גיע	-376
מוד	-377
▁שנ	-378
▁עש	-379
▁כבר	-380
▁C	-381
▁עי	-382
▁לך	-383
▁גדול	-384
▁כמ	-385
▁לפני	-386
אות	-387
▁לת	-388
▁לאחר	-389
▁זכ	-390
▁הט	-391
▁פת	-392
▁וש	-393
▁יט	-394
זי	-395
▁תר	-396
▁איך	-397
▁יק	-398
▁אשר	-399
ירות	-400
▁הרבה	-401
▁יד	-402
ונים	-403
▁שלו	-404
▁לעשות	-405
ירה	-406
▁אך	-407
▁לצ	-408
▁נית	-409
▁נכ	-410
בד	-411
▁בו	-412
▁”	-413
▁[	-414
▁צי	-415
▁ממש	-416
▁T	-417
▁o	-418
▁חלק	-419
▁דברים	-420
▁עולם	-421
▁a	-422
▁טר	-423
סף	-424
▁שהוא	-425
כן	-426
▁רח	-427
▁נג	-428
▁ספ	-429
▁M	-430
▁כאשר	-431
▁יפ	-432
▁אתם	-433
▁ינ	-434
▁וק	-435
▁אלה	-436
▁עלי	-437
▁עדי	-438
▁רכ	-439
▁לנו	-440
▁שם	-441
▁רע	-442
▁אדם	-443
פת	-444
▁יב	-445
▁פש	-446
יע	-447
ומי	-448
▁ראשונ	-449
טה	-450
▁בט	-451
▁אחת	-452
▁עצמ	-453
▁אס	-454
גר	-455
▁P	-456
▁רוצה	-457
זור	-458
▁בס	-459
▁יום	-460
▁שלהם	-461
▁שר	-462
▁היום	-463
▁n	-464
▁אחרים	-465
▁עבודה	-466
▁נש	-467
מד	-468
ופן	-469
▁באופן	-470
▁חשב	-471
▁כת	-472
▁מז	-473
ראה	-474
עת	-475
▁ילדים	-476
▁נה	-477
▁הוד	-478
▁ורי	-479
צי	-480
▁שו	-481
▁ולא	-482
▁שלא	-483
נית	-484
דרך	-485
▁אב	-486
▁שנים	-487
▁האי	-488
ופה	-489
▁עס	-490
▁שנה	-491
▁]	-492
▁משפ	-493
ונות	-494
יים	-495
▁מספר	-496
▁רו	-497
▁אפשר	-498
▁תו	-499
▁אינ	-500
חת	-501
▁B	-502
▁איר	-503
הו	-504
▁דו	-505
▁ין	-506
יתי	-507
▁כן	-508
גע	-509
▁אלי	-510
▁לנ	-511
▁חוש	-512
▁גב	-513
▁כאן	-514
▁;	-515
▁תמיד	-516
קום	-517
▁תש	-518
רים	-519
ושה	-520
▁הייתה	-521
מנ	-522
▁אומר	-523
▁מט	-524
▁בג	-525
שת	-526
ובה	-527
▁בית	-528
▁השת	-529
..	-530
▁עני	-531
בין	-532
▁ודע	-533
▁כולים	-534
ינ	-535
הב	-536
▁מדינה	-537
שור	-538
▁er	-539
▁r	-540
▁בכ	-541
▁אותם	-542
▁I	-543
▁בק	-544
▁בנו	-545
ורך	-546
לות	-547
סט	-548
▁אחרי	-549
▁תפ	-550
▁עכ	-551
יבה	-552
▁“	-553
▁במה	-554
▁קוד	-555
גיש	-556
▁נפ	-557
▁פעם	-558
ולה	-559
▁ימ	-560
▁רבים	-561
לך	-562
▁להם	-563
▁נים	-564
▁תכ	-565
לת	-566
on	-567
▁יהיה	-568
▁משהו	-569
▁ריק	-570
▁D	-571
▁עיל	-572
▁לכל	-573
▁שימ	-574
▁סב	-575
רט	-576
▁/	-577
▁תע	-578
▁החל	-579
▁c	-580
▁סוג	-581
פור	-582
▁ניתן	-583
מצ	-584
▁ראשון	-585
▁כוח	-586
דת	-587
▁הכל	-588
▁למה	-589
▁לג	-590
▁אותה	-591
▁טיפ	-592
▁פור	-593
או	-594
▁מג	-595
▁להת	-596
שיו	-597
▁עכשיו	-598
▁פשוט	-599
▁סכ	-600
▁שאני	-601
ברה	-602
▁אולי	-603
דו	-604
▁חוק	-605
▁בשנת	-606
▁עדיין	-607
▁שלכם	-608
▁חשוב	-609
▁אף	-610
▁צפ	-611
▁סט	-612
he	-613
▁יוד	-614
נוי	-615
וון	-616
▁W	-617
▁כנ	-618
▁קור	-619
▁מטר	-620
▁מן	-621
▁שהם	-622
▁להי	-623
▁קב	-624
ודי	-625
▁ף	-626
▁הן	-627
▁אפילו	-628
▁שכ	-629
▁חז	-630
רכת	-631
▁כר	-632
▁ברי	-633
▁דרך	-634
דש	-635
▁נק	-636
▁מלח	-637
קד	-638
▁תל	-639
▁בעולם	-640
▁קה	-641
▁ללא	-642
▁שיש	-643
▁H	-644
▁נות	-645
▁לרא	-646
▁G	-647
▁למע	-648
▁לד	-649
▁אלא	-650
▁בחי	-651
▁שימוש	-652
▁יע	-653
▁חושב	-654
וחד	-655
▁באמ	-656
▁מיוחד	-657
▁טע	-658
▁L	-659
▁שוב	-660
▁באמצע	-661
▁בנ	-662
▁צר	-663
לא	-664
קרים	-665
▁ָ	-666
▁באמת	-667
▁E	-668
▁חייב	-669
▁התח	-670
קט	-671
▁תמ	-672
▁לוה	-673
▁וד	-674
▁צע	-675
▁לראות	-676
ar	-677
▁מערכת	-678
▁ויות	-679
▁וח	-680
▁ואת	-681
▁לוהים	-682
▁F	-683
▁תנ	-684
▁לכם	-685
▁...	-686
▁האדם	-687
▁R	-688
צד	-689
ואה	-690
▁בז	-691
▁ְ	-692
ורים	-693
▁הייתי	-694
ובר	-695
an	-696
מין	-697
תר	-698
▁רפ	-699
▁קשה	-700
▁קל	-701
▁החיים	-702
▁כם	-703
or	-704
▁חיים	-705
▁במהלך	-706
▁מנ	-707
▁יני	-708
▁ץ	-709
גון	-710
▁משת	-711
▁עק	-712
▁שום	-713
▁רוצים	-714
בים	-715
▁פרס	-716
כות	-717
▁זר	-718
▁בדרך	-719
▁פני	-720
דות	-721
▁d	-722
▁נשים	-723
▁הול	-724
▁המש	-725
es	-726
▁מרכ	-727
▁נמצ	-728
▁צריכ	-729
▁בשב	-730
▁N	-731
▁סמ	-732
מות	-733
משך	-734
al	-735
▁בבית	-736
▁ילי	-737
▁אותי	-738
▁שאתה	-739
▁אוהב	-740
▁שינוי	-741
▁יודע	-742
שהו	-743
זו	-744
▁בדי	-745
▁קו	-746
▁טיפול	-747
גיה	-748
▁נראה	-749
▁עוב	-750
▁גבר	-751
▁אלו	-752
▁עבר	-753
▁מקום	-754
▁שמעות	-755
in	-756
▁ולי	-757
▁סיפור	-758
▁דינות	-759
▁חדש	-760
▁m	-761
▁רבות	-762
▁פעמים	-763
▁לאומי	-764
שב	-765
▁ערכ	-766
▁נע	-767
▁היתה	-768
▁קבל	-769
▁מנה	-770
▁עסק	-771
▁נס	-772
▁שתי	-773
דל	-774
קרה	-775
▁פרי	-776
▁ּ	-777
▁in	-778
▁אה	-779
▁b	-780
צור	-781
▁עניין	-782
▁ציה	-783
▁שזה	-784
▁עשר	-785
ויות	-786
▁חופ	-787
▁הופ	-788
▁לפי	-789
▁מוצ	-790
▁%	-791
ליח	-792
▁עול	-793
▁אחרונ	-794
▁יז	-795
▁אינו	-796
er	-797
▁יא	-798
▁עיר	-799
▁הבית	-800
▁סיכ	-801
טו	-802
▁חק	-803
יג	-804
טים	-805
▁איש	-806
יהם	-807
▁הרי	-808
▁כיצד	-809
▁מתח	-810
▁נטר	-811
▁מידע	-812
▁גבוה	-813
▁בסי	-814
▁פח	-815
פה	-816
▁תא	-817
▁שבו	-818
▁קבוצ	-819
בות	-820
▁O	-821
▁ברית	-822
▁פחות	-823
▁יהודי	-824
▁l	-825
▁סרט	-826
▁נגד	-827
מני	-828
▁האו	-829
▁לקבל	-830
▁כד	-831
עט	-832
▁כמעט	-833
▁תג	-834
▁טל	-835
▁כולם	-836
▁שהיא	-837
בוד	-838
▁טבע	-839
▁למצ	-840
תם	-841
ימ	-842
▁g	-843
▁עילות	-844
▁בצ	-845
▁קשור	-846
נוע	-847
יבור	-848
▁במקום	-849
ואר	-850
▁בן	-851
▁כולל	-852
קיד	-853
▁הכי	-854
▁מים	-855
▁יתר	-856
▁יכולה	-857
▁קרא	-858
▁מאז	-859
▁ארץ	-860
▁הדבר	-861
▁דור	-862
▁ארצ	-863
▁גור	-864
▁ַ	-865
▁בפ	-866
▁מלא	-867
▁רעי	-868
▁השתמש	-869
▁p	-870
▁הגדול	-871
▁אצ	-872
פשר	-873
▁מוש	-874
▁בעלי	-875
▁שירות	-876
▁במשך	-877
▁ינו	-878
▁החברה	-879
▁נטרנט	-880
▁נח	-881
▁עצמו	-882
▁שלוש	-883
▁כפי	-884
▁באות	-885
▁ִ	-886
▁ביט	-887
▁פשר	-888
▁תוכ	-889
▁קשר	-890
▁עצמי	-891
▁ידע	-892
▁עתי	-893
וז	-894
▁שע	-895
▁וו	-896
▁כתב	-897
▁נר	-898
▁הבי	-899
▁שונים	-900
▁תם	-901
▁נוש	-902
פתח	-903
מפ	-904
ואי	-905
▁מישהו	-906
טינ	-907
▁גיל	-908
▁נת	-909
ליך	-910
▁אופ	-911
▁דרכ	-912
▁גדולה	-913
▁האלה	-914
▁אית	-915
▁צד	-916
קש	-917
ילים	-918
▁בלתי	-919
▁כלל	-920
▁הגיע	-921
▁יכולת	-922
יבות	-923
▁היר	-924
▁חס	-925
▁דק	-926
▁חזר	-927
▁עושה	-928
▁משי	-929
▁בשביל	-930
יח	-931
▁תפקיד	-932
▁למר	-933
כו	-934
חור	-935
▁ודעים	-936
▁אור	-937
ובן	-938
רב	-939
▁ולר	-940
חים	-941
מינ	-942
▁ריאות	-943
ou	-944
▁פה	-945
▁פסי	-946
ודש	-947
▁מוע	-948
▁בגל	-949
▁לסטינ	-950
▁המי	-951
▁הודים	-952
▁נא	-953
▁ימים	-954
▁למרות	-955
▁שחק	-956
▁יליון	-957
▁מכל	-958
שיא	-959
▁מהם	-960
▁נכון	-961
▁ארצות	-962
▁תהיה	-963
▁גל	-964
▁דוג	-965
פיק	-966
▁בתוך	-967
▁סוף	-968
▁רוח	-969
טת	-970
▁בגלל	-971
▁ממשלה	-972
חו	-973
▁באו	-974
▁עמ	-975
▁ילד	-976
▁תוכל	-977
ורת	-978
▁רסי	-979
ביר	-980
ינו	-981
▁בעי	-982
▁בשל	-983
▁לכן	-984
▁רט	-985
▁ראה	-986
כנו	-987
▁הנה	-988
▁מגיע	-989
מבר	-990
ביע	-991
▁שק	-992
דעת	-993
ורר	-994
▁לדעת	-995
▁בקר	-996
הם	-997
נם	-998
▁שעות	-999
▁סדר	-1000
▁פל	-1001
▁מלחמה	-1002
▁קול	-1003
וצר	-1004
▁ספק	-1005
▁וספ	-1006
▁באר	-1007
▁יחד	-1008
▁וכנית	-1009
▁למצוא	-1010
▁בדיוק	-1011
▁לדבר	-1012
▁חברות	-1013
▁בינ	-1014
▁בלי	-1015
▁המו	-1016
▁מוס	-1017
▁ערך	-1018
▁ביום	-1019
▁העיר	-1020
▁בזמן	-1021
▁אותך	-1022
▁אד	-1023
▁מתוך	-1024
▁לגבי	-1025
▁לוגי	-1026
▁פעולה	-1027
עם	-1028
▁אירוע	-1029
▁נמצא	-1030
▁ריקאי	-1031
▁קומ	-1032
▁משר	-1033
▁כזה	-1034
▁אחרת	-1035
▁f	-1036
▁10	-1037
▁שט	-1038
▁כיוון	-1039
▁ועל	-1040
וץ	-1041
▁קצוע	-1042
▁ומר	-1043
▁הזו	-1044
en	-1045
▁חזק	-1046
גש	-1047
פק	-1048
▁לשמ	-1049
▁משרד	-1050
▁להפ	-1051
▁נצ	-1052
▁אוני	-1053
▁ובדים	-1054
▁תהליך	-1055
כב	-1056
ווה	-1057
וחר	-1058
om	-1059
▁נוס	-1060
▁וגם	-1061
▁הזד	-1062
▁אוניב	-1063
▁השני	-1064
▁מות	-1065
▁וט	-1066
at	-1067
▁שבה	-1068
יבי	-1069
▁ואני	-1070
סה	-1071
עו	-1072
▁רש	-1073
▁’	-1074
▁קצת	-1075
▁תוך	-1076
▁הצל	-1077
▁סוכ	-1078
▁השנה	-1079
▁כסף	-1080
▁לכך	-1081
▁קיב	-1082
▁יין	-1083
▁מעט	-1084
▁חר	-1085
▁דא	-1086
▁מדובר	-1087
צב	-1088
▁סור	-1089
▁מספיק	-1090
▁תונים	-1091
▁חברתי	-1092
▁פתר	-1093
▁הזאת	-1094
▁כני	-1095
▁מדוע	-1096
ודת	-1097
▁רד	-1098
▁לפחות	-1099
▁ארגון	-1100
▁חמ	-1101
▁בחר	-1102
▁עשו	-1103
▁טובה	-1104
▁שיע	-1105
▁והוא	-1106
▁The	-1107
▁וסי	-1108
▁יור	-1109
▁כיום	-1110
▁סופ	-1111
ילי	-1112
▁וזה	-1113
▁הדרך	-1114
▁וצרים	-1115
▁וריה	-1116
▁עליו	-1117
st	-1118
▁למש	-1119
▁ברח	-1120
▁קודם	-1121
▁בצורה	-1122
▁u	-1123
▁וצאות	-1124
▁אולם	-1125
▁זהו	-1126
ווח	-1127
▁כלו	-1128
▁עית	-1129
▁בד	-1130
▁נוח	-1131
ליט	-1132
▁ציא	-1133
▁תנו	-1134
re	-1135
▁חת	-1136
▁בהם	-1137
▁מאו	-1138
כת	-1139
▁רוס	-1140
▁תקופה	-1141
▁האמ	-1142
▁אוכל	-1143
▁יג	-1144
▁סו	-1145
▁בטוח	-1146
שוב	-1147
▁מול	-1148
▁צו	-1149
▁סג	-1150
▁אחרות	-1151
▁קצר	-1152
▁רכב	-1153
▁ארה	-1154
▁בעיות	-1155
▁קבוצה	-1156
▁הפר	-1157
▁בוא	-1158
▁איזה	-1159
▁ירוש	-1160
▁לפת	-1161
▁לקר	-1162
▁עזר	-1163
▁המח	-1164
▁כמובן	-1165
▁רגע	-1166
▁ידוע	-1167
▁עוש	-1168
▁מוק	-1169
ion	-1170
▁נוכ	-1171
▁משתמש	-1172
וקר	-1173
▁יניים	-1174
▁מאשר	-1175
▁צב	-1176
▁ון	-1177
חון	-1178
▁להבין	-1179
▁סביב	-1180
נק	-1181
▁סטר	-1182
▁לוק	-1183
▁־	-1184
אם	-1185
nd	-1186
▁בול	-1187
▁להגיע	-1188
▁אש	-1189
▁אק	-1190
▁מנת	-1191
▁ֶ	-1192
▁עושים	-1193
שא	-1194
▁אג	-1195
▁שלושה	-1196
טרה	-1197
רח	-1198
▁לעולם	-1199
שיך	-1200
▁הזדמנ	-1201
סו	-1202
▁אמיתי	-1203
פיע	-1204
▁נדר	-1205
▁ניה	-1206
▁בעיקר	-1207
▁ההי	-1208
▁סוגל	-1209
▁אינם	-1210
▁עלה	-1211
▁מדיני	-1212
▁נד	-1213
▁תוצ	-1214
▁בלבד	-1215
▁ברור	-1216
▁תלמיד	-1217
▁וף	-1218
ומת	-1219
▁תוצאה	-1220
▁מרי	-1221
▁טובים	-1222
▁בוע	-1223
▁כו	-1224
▁מוד	-1225
▁מונ	-1226
▁רוי	-1227
▁תחיל	-1228
ודות	-1229
▁וני	-1230
▁מעל	-1231
▁וקר	-1232
▁אותנו	-1233
▁כה	-1234
▁מור	-1235
▁זכוי	-1236
▁מדע	-1237
▁לט	-1238
▁בעוד	-1239
▁ומרים	-1240
ro	-1241
▁לתת	-1242
גד	-1243
▁למעשה	-1244
▁קיים	-1245
▁נט	-1246
▁V	-1247
▁U	-1248
מוך	-1249
▁רשי	-1250
▁ירופה	-1251
▁בכך	-1252
רו	-1253
▁חברת	-1254
פש	-1255
▁לזה	-1256
קרי	-1257
▁שג	-1258
▁בנוסף	-1259
▁וליטי	-1260
▁יחי	-1261
▁שאתם	-1262
▁אצל	-1263
▁ואז	-1264
▁מעבר	-1265
▁רשת	-1266
▁שאלה	-1267
מודד	-1268
▁תמודד	-1269
זרח	-1270
▁השא	-1271
וביל	-1272
▁אינה	-1273
▁נב	-1274
▁קטן	-1275
▁יהיו	-1276
▁וז	-1277
▁ובר	-1278
▁כנס	-1279
▁חסר	-1280
▁עומ	-1281
▁פחד	-1282
▁חברים	-1283
▁קורה	-1284
▁עומד	-1285
▁ללמוד	-1286
▁מתחיל	-1287
▁ווי	-1288
▁מכן	-1289
▁לר	-1290
▁יית	-1291
▁תינו	-1292
▁באי	-1293
▁ומה	-1294
▁חול	-1295
▁רחב	-1296
▁ציבור	-1297
▁התחיל	-1298
▁קרה	-1299
il	-1300
▁יקר	-1301
▁בכלל	-1302
▁לקחת	-1303
ra	-1304
▁לז	-1305
תיים	-1306
שרי	-1307
▁אחרון	-1308
▁יהם	-1309
ביא	-1310
▁ייר	-1311
▁פית	-1312
▁הרג	-1313
▁זי	-1314
▁שונות	-1315
▁מרגיש	-1316
▁פרק	-1317
▁מחקר	-1318
ריך	-1319
▁למי	-1320
▁חמי	-1321
▁תינוק	-1322
▁שיר	-1323
▁גד	-1324
▁יחס	-1325
▁גברים	-1326
▁לעת	-1327
▁פק	-1328
▁en	-1329
▁ועד	-1330
▁מחיר	-1331
▁מקור	-1332
▁משפט	-1333
▁חירות	-1334
▁״	-1335
▁ודר	-1336
▁w	-1337
▁יטחון	-1338
▁הללו	-1339
▁לימוד	-1340
▁מילים	-1341
▁אהב	-1342
▁מתי	-1343
▁פא	-1344
▁בוצ	-1345
▁תייח	-1346
▁תייחס	-1347
▁עשה	-1348
▁זוכ	-1349
▁ירות	-1350
▁לעזור	-1351
▁סיבות	-1352
▁טכנו	-1353
▁לוגיה	-1354
▁מקומי	-1355
▁צריכה	-1356
▁בתח	-1357
▁עשי	-1358
▁גופ	-1359
▁צמ	-1360
ol	-1361
▁בעל	-1362
▁מנס	-1363
▁נסי	-1364
▁כלי	-1365
▁נוסף	-1366
▁מיי	-1367
▁חינו	-1368
▁לבד	-1369
▁נרגיה	-1370
▁ינג	-1371
▁פוס	-1372
▁תמי	-1373
▁החדש	-1374
▁ציאות	-1375
▁of	-1376
▁איכות	-1377
▁נז	-1378
לק	-1379
ic	-1380
זיק	-1381
▁טבעי	-1382
▁רואה	-1383
טיח	-1384
▁קורא	-1385
▁חדשות	-1386
▁משפחה	-1387
▁לומר	-1388
▁שנייה	-1389
▁שתמש	-1390
סק	-1391
▁היל	-1392
▁קוח	-1393
▁לעבוד	-1394
▁חודש	-1395
▁זק	-1396
▁מצב	-1397
לם	-1398
יש	-1399
▁ליצור	-1400
▁תב	-1401
▁כלכ	-1402
▁משק	-1403
▁פורס	-1404
et	-1405
▁סק	-1406
▁יסי	-1407
▁רויקט	-1408
▁דקות	-1409
▁ירי	-1410
▁חינוך	-1411
▁ing	-1412
▁כעת	-1413
▁קומות	-1414
צר	-1415
▁הבא	-1416
▁עובד	-1417
▁קרי	-1418
▁עשוי	-1419
▁עמד	-1420
▁עיקרי	-1421
▁הסי	-1422
▁מזון	-1423
נון	-1424
▁קשורת	-1425
▁חצי	-1426
▁פשרות	-1427
el	-1428
▁אפשרי	-1429
▁כתוב	-1430
▁פיתוח	-1431
▁on	-1432
▁דומה	-1433
▁מרכזי	-1434
▁להצ	-1435
▁מסע	-1436
▁ליל	-1437
▁ולה	-1438
▁רבה	-1439
▁שאל	-1440
▁כוחות	-1441
▁אוו	-1442
▁הירות	-1443
▁סל	-1444
▁חברה	-1445
▁מני	-1446
▁קיבל	-1447
▁סת	-1448
▁תחת	-1449
▁הכול	-1450
▁משחק	-1451
▁עסקים	-1452
▁השנים	-1453
▁יף	-1454
▁מוות	-1455
▁לוח	-1456
רבי	-1457
▁לעתים	-1458
▁הלא	-1459
▁שלום	-1460
▁דמ	-1461
▁למשל	-1462
▁תמונה	-1463
▁נצי	-1464
▁ניהול	-1465
▁טלפ	-1466
▁חוס	-1467
כי	-1468
▁יון	-1469
▁אמור	-1470
▁החוק	-1471
▁מחדש	-1472
▁נשאר	-1473
▁אהבה	-1474
▁ספור	-1475
▁הגוף	-1476
▁חשבון	-1477
ch	-1478
▁מקרים	-1479
▁איפה	-1480
▁חופש	-1481
▁שונה	-1482
▁נקר	-1483
▁אנשי	-1484
▁עצמם	-1485
▁רגיל	-1486
▁כלכלי	-1487
▁תשובה	-1488
חל	-1489
▁אחוז	-1490
▁כאלה	-1491
▁ֵ	-1492
▁תיק	-1493
▁התפתח	-1494
▁עתיד	-1495
▁אן	-1496
▁ערב	-1497
▁האמת	-1498
▁גבוהה	-1499
רחש	-1500
▁בתי	-1501
▁לבית	-1502
▁ירה	-1503
▁ירושל	-1504
נהג	-1505
▁ימי	-1506
▁טרי	-1507
▁הבינ	-1508
▁שאלות	-1509
▁מופ	-1510
▁ארבע	-1511
▁צורך	-1512
▁אוויר	-1513
▁ספרים	-1514
ועל	-1515
▁צוות	-1516
▁היט	-1517
▁ונד	-1518
▁מדבר	-1519
▁מכיר	-1520
▁גישה	-1521
▁מצאים	-1522
▁יכר	-1523
▁וצר	-1524
▁שש	-1525
▁אמנות	-1526
ri	-1527
והי	-1528
▁פוט	-1529
▁התנ	-1530
▁דע	-1531
▁נגל	-1532
טות	-1533
▁חדשים	-1534
ותפ	-1535
▁גדל	-1536
▁חיפ	-1537
▁לנד	-1538
▁רווח	-1539
▁פט	-1540
▁שול	-1541
▁מין	-1542
קע	-1543
▁שמח	-1544
▁המשיך	-1545
▁עולמי	-1546
▁מצא	-1547
▁קד	-1548
מל	-1549
▁שלב	-1550
▁מעולם	-1551
▁קס	-1552
▁שפה	-1553
▁בתחום	-1554
▁למד	-1555
▁הורים	-1556
▁וספים	-1557
▁מחשב	-1558
▁ככל	-1559
▁מנהיג	-1560
קור	-1561
▁וזי	-1562
▁דרכים	-1563
▁דוד	-1564
▁הפך	-1565
▁באותו	-1566
בק	-1567
תב	-1568
▁ליד	-1569
▁ליש	-1570
▁אזור	-1571
▁ללכת	-1572
▁בהת	-1573
▁היש	-1574
▁כולנו	-1575
▁האל	-1576
▁שאין	-1577
▁חומר	-1578
▁שרת	-1579
▁יוכל	-1580
▁ודשים	-1581
▁תרבות	-1582
▁לשמור	-1583
על	-1584
▁ביח	-1585
▁יפה	-1586
▁שומ	-1587
נהל	-1588
▁רגש	-1589
▁J	-1590
וצא	-1591
▁רס	-1592
▁כגון	-1593
▁משום	-1594
ופו	-1595
▁רות	-1596
▁נכנס	-1597
▁כאב	-1598
▁ערכות	-1599
לום	-1600
▁נקרא	-1601
▁עולה	-1602
▁יבורי	-1603
▁חופשי	-1604
למ	-1605
▁ביצ	-1606
▁יסיון	-1607
▁בנים	-1608
ובל	-1609
▁טק	-1610
▁אינט	-1611
▁דרג	-1612
▁מסו	-1613
▁נשיא	-1614
▁לחץ	-1615
ay	-1616
▁צפון	-1617
▁קצועי	-1618
▁כדור	-1619
▁מדינת	-1620
▁תחילה	-1621
▁ורג	-1622
▁באתר	-1623
▁ברחבי	-1624
▁שכל	-1625
▁פג	-1626
▁להפוך	-1627
▁מאוחר	-1628
אש	-1629
▁אילו	-1630
▁אמא	-1631
▁דג	-1632
▁קונ	-1633
▁אט	-1634
▁K	-1635
▁אליו	-1636
▁the	-1637
▁פתי	-1638
▁לאורך	-1639
▁ארוכ	-1640
▁טוד	-1641
כמ	-1642
ופא	-1643
ירו	-1644
▁חוץ	-1645
▁הצלחה	-1646
פל	-1647
▁ממנו	-1648
▁מבוס	-1649
▁y	-1650
▁כנראה	-1651
▁רומ	-1652
▁שעה	-1653
▁מונות	-1654
▁ואי	-1655
▁יצא	-1656
▁טרא	-1657
בוע	-1658
▁קנ	-1659
תפ	-1660
▁בקרב	-1661
▁מוכ	-1662
▁מית	-1663
▁אמרה	-1664
▁בשנה	-1665
▁עקב	-1666
▁קש	-1667
▁אחורי	-1668
▁שחר	-1669
▁שלישי	-1670
▁טלו	-1671
יי	-1672
▁צבע	-1673
כון	-1674
▁וֹ	-1675
▁פתרון	-1676
▁הטוב	-1677
▁גז	-1678
▁בעיה	-1679
▁רעיון	-1680
▁דמי	-1681
▁נדרש	-1682
▁רוא	-1683
▁חדשה	-1684
▁יחסי	-1685
▁עובדה	-1686
▁מפל	-1687
▁שהו	-1688
▁שנת	-1689
▁הולך	-1690
▁ורות	-1691
▁וקרטי	-1692
▁טודנט	-1693
▁לקרוא	-1694
▁רפואי	-1695
שיג	-1696
▁להשיג	-1697
▁היסט	-1698
▁הגנה	-1699
▁החלטה	-1700
▁בור	-1701
▁רוץ	-1702
▁חדר	-1703
▁תודה	-1704
▁חמש	-1705
▁יציר	-1706
▁ביצוע	-1707
▁חרי	-1708
▁מבוסס	-1709
▁ינה	-1710
▁צטר	-1711
▁דומ	-1712
▁לקח	-1713
▁נול	-1714
▁תחילת	-1715
▁מפת	-1716
▁עונה	-1717
▁תמיכה	-1718
▁מורה	-1719
▁עבד	-1720
▁מסוי	-1721
▁תחר	-1722
▁אירופ	-1723
▁חריות	-1724
▁לשנות	-1725
▁התא	-1726
▁ניס	-1727
▁פות	-1728
▁חוסר	-1729
▁כמות	-1730
▁טיבי	-1731
▁מזה	-1732
▁מפני	-1733
▁ודי	-1734
▁פיר	-1735
▁בסוף	-1736
▁הילד	-1737
▁יצוני	-1738
▁עלינו	-1739
▁היינו	-1740
▁כולות	-1741
▁al	-1742
▁נור	-1743
▁בעבר	-1744
▁יורק	-1745
▁ולכן	-1746
▁המשחק	-1747
▁עבודת	-1748
oo	-1749
▁ווד	-1750
▁St	-1751
▁אומ	-1752
▁צדק	-1753
▁במקרה	-1754
▁הים	-1755
▁המס	-1756
▁לבצע	-1757
טון	-1758
▁הפי	-1759
▁לכת	-1760
▁מדה	-1761
▁מהר	-1762
▁משא	-1763
▁עיצ	-1764
▁זכר	-1765
▁פולי	-1766
▁ביע	-1767
ow	-1768
▁נושא	-1769
▁In	-1770
▁ולט	-1771
▁לחל	-1772
▁בעת	-1773
▁יץ	-1774
▁עצמך	-1775
▁הסכם	-1776
▁קוב	-1777
▁לחשוב	-1778
▁20	-1779
▁שית	-1780
▁מאמינ	-1781
▁מלחמת	-1782
is	-1783
▁סע	-1784
▁דוגמה	-1785
▁בנושא	-1786
▁לחיות	-1787
▁רואים	-1788
▁תואר	-1789
▁חוקי	-1790
▁התנהג	-1791
▁ואם	-1792
▁תכנית	-1793
▁הצב	-1794
▁לגר	-1795
▁תרופ	-1796
▁בסופו	-1797
▁ממשלת	-1798
אן	-1799
▁המצב	-1800
▁ורמים	-1801
▁כבוד	-1802
▁השפ	-1803
▁עניינ	-1804
▁חיי	-1805
▁קוחות	-1806
▁ליפ	-1807
▁אישה	-1808
ed	-1809
▁זמ	-1810
▁שטח	-1811
▁הבע	-1812
▁ִי	-1813
▁ורד	-1814
▁נולד	-1815
▁עז	-1816
▁שרה	-1817
▁צפוי	-1818
קיע	-1819
▁ווה	-1820
▁עצמה	-1821
▁שחור	-1822
ובי	-1823
▁שווי	-1824
▁רמ	-1825
▁גוד	-1826
▁דעת	-1827
▁זכות	-1828
▁הסרט	-1829
▁ההיסט	-1830
▁נתיים	-1831
▁לחלוט	-1832
▁דאג	-1833
▁ויז	-1834
▁מצד	-1835
▁מפלג	-1836
▁פתוח	-1837
לח	-1838
▁גורם	-1839
▁פנים	-1840
▁רמני	-1841
▁שנות	-1842
▁כות	-1843
▁לבין	-1844
▁בחיים	-1845
▁ראוי	-1846
כיר	-1847
▁הרגיש	-1848
▁טרור	-1849
▁מרכז	-1850
▁תוכלו	-1851
▁סיבה	-1852
▁כלומר	-1853
am	-1854
▁החז	-1855
▁ניו	-1856
▁מאפשר	-1857
▁צעד	-1858
▁מריקה	-1859
▁בפני	-1860
it	-1861
▁בריא	-1862
▁דין	-1863
▁פרש	-1864
▁וכן	-1865
▁כשה	-1866
ve	-1867
▁עקבות	-1868
מע	-1869
▁אבא	-1870
▁ארוח	-1871
▁תקופ	-1872
▁וּ	-1873
▁אבי	-1874
▁מסר	-1875
▁קרב	-1876
▁כאילו	-1877
▁זקוק	-1878
▁התק	-1879
▁מהפ	-1880
▁בוצות	-1881
▁נעשה	-1882
▁מסוימ	-1883
▁רצון	-1884
▁שאנו	-1885
▁השאלה	-1886
▁הלי	-1887
▁רצה	-1888
ליה	-1889
▁*	-1890
▁צרכ	-1891
▁עליהם	-1892
▁אמצע	-1893
▁עו	-1894
▁הפעם	-1895
▁חברי	-1896
▁בסיס	-1897
חן	-1898
קדמ	-1899
▁הצליח	-1900
▁תת	-1901
וציא	-1902
▁בשם	-1903
▁המקום	-1904
▁רמניה	-1905
▁משפחת	-1906
▁עיצוב	-1907
▁שוק	-1908
▁מאד	-1909
▁חיפוש	-1910
▁חור	-1911
▁מקרה	-1912
▁אמרתי	-1913
▁אכ	-1914
▁מוח	-1915
▁st	-1916
▁טוע	-1917
▁המידע	-1918
▁איראן	-1919
▁h	-1920
▁מציע	-1921
▁מקבל	-1922
▁דוגמ	-1923
▁מנהל	-1924
▁בוקר	-1925
▁הולכ	-1926
le	-1927
▁המת	-1928
▁נוע	-1929
▁ביקור	-1930
▁ספורט	-1931
▁אתכם	-1932
▁יבי	-1933
▁השפעה	-1934
▁באזור	-1935
▁מטרה	-1936
▁לוקח	-1937
▁כללי	-1938
▁נגלית	-1939
▁אהוב	-1940
▁מדעי	-1941
▁אמן	-1942
זרת	-1943
▁גן	-1944
▁מבין	-1945
▁להג	-1946
▁כדאי	-1947
▁מאמר	-1948
▁ערים	-1949
▁ודעות	-1950
תף	-1951
▁תז	-1952
▁קלי	-1953
▁ציל	-1954
▁אותן	-1955
▁טלפון	-1956
ce	-1957
▁ארג	-1958
▁מוכר	-1959
▁זיה	-1960
▁30	-1961
▁הבעיה	-1962
▁ככה	-1963
▁נשק	-1964
▁והיא	-1965
▁at	-1966
▁דיק	-1967
▁גנ	-1968
▁אנושי	-1969
▁לחזור	-1970
▁מיד	-1971
▁גודל	-1972
as	-1973
▁עץ	-1974
▁ייתכן	-1975
▁לגרום	-1976
סיף	-1977
▁לון	-1978
▁עיד	-1979
▁עלול	-1980
▁הוסיף	-1981
▁ומי	-1982
▁מבקש	-1983
▁עמוק	-1984
▁אומרת	-1985
▁ודרני	-1986
▁פנימי	-1987
▁קהילה	-1988
חוד	-1989
יני	-1990
▁חומ	-1991
▁יחידה	-1992
▁סיכון	-1993
▁ויש	-1994
▁רוסיה	-1995
▁והם	-1996
▁והמ	-1997
▁עור	-1998
▁נוספת	-1999
▁שחקים	-2000
▁בגיל	-2001
▁מאות	-2002
גיעה	-2003
▁שכח	-2004
▁אנג	-2005
▁זוהי	-2006
▁כלפי	-2007
▁ויזיה	-2008
▁אתר	-2009
▁הקשר	-2010
ריכ	-2011
▁עמוד	-2012
▁שיעור	-2013
▁העם	-2014
▁מחוץ	-2015
▁Y	-2016
גרת	-2017
▁רצח	-2018
ארד	-2019
▁למען	-2020
▁בעצ	-2021
▁ראו	-2022
▁משקל	-2023
▁צרפת	-2024
▁רמת	-2025
▁לבחור	-2026
▁מיני	-2027
▁תלוי	-2028
▁רחוק	-2029
▁מגוון	-2030
חיד	-2031
▁שפחה	-2032
▁היחיד	-2033
▁מפתח	-2034
▁ליארד	-2035
▁אכן	-2036
▁דם	-2037
▁הגב	-2038
▁מסגרת	-2039
▁הקר	-2040
▁ולו	-2041
▁הסת	-2042
▁משך	-2043
▁משטרה	-2044
▁עירים	-2045
▁ואל	-2046
▁הנשיא	-2047
▁מהמ	-2048
▁מראה	-2049
טנ	-2050
כור	-2051
▁ירד	-2052
▁תוכני	-2053
▁נוכחי	-2054
▁עונ	-2055
▁ורק	-2056
▁באותה	-2057
כול	-2058
▁it	-2059
▁בהתאם	-2060
▁תגובה	-2061
▁וכל	-2062
▁שבת	-2063
ופל	-2064
▁סין	-2065
▁רגל	-2066
▁שיתוף	-2067
▁מבט	-2068
▁ערה	-2069
▁קטנה	-2070
שיר	-2071
▁במי	-2072
▁כבד	-2073
▁עלות	-2074
▁מכשיר	-2075
▁זוג	-2076
▁אמרו	-2077
▁אלב	-2078
▁ייט	-2079
▁ניתוח	-2080
▁ממה	-2081
▁המחקר	-2082
▁ראיתי	-2083
▁נהר	-2084
▁טווח	-2085
▁ארב	-2086
▁תנועה	-2087
▁עין	-2088
▁זוכר	-2089
▁הסיבה	-2090
▁פטר	-2091
▁ולים	-2092
▁שוי	-2093
▁בארה	-2094
▁שבוע	-2095
ותף	-2096
▁ויד	-2097
▁להש	-2098
▁בהן	-2099
▁דוק	-2100
▁15	-2101
▁גש	-2102
▁רסיטת	-2103
▁סוכנ	-2104
▁קהיל	-2105
▁שמות	-2106
▁זרחים	-2107
▁הנו	-2108
▁תקי	-2109
▁עצב	-2110
▁חלוק	-2111
▁סביבה	-2112
▁ברגע	-2113
▁לספק	-2114
ליק	-2115
▁שינה	-2116
וצע	-2117
▁ממוצע	-2118
▁בסדר	-2119
▁כז	-2120
▁וות	-2121
▁לבן	-2122
▁בעיר	-2123
▁תחרות	-2124
▁טרט	-2125
▁אלף	-2126
▁ביל	-2127
▁כונות	-2128
▁וזיקה	-2129
▁גרם	-2130
▁החד	-2131
▁ניצ	-2132
▁ציר	-2133
▁פרופ	-2134
▁ריב	-2135
▁תיא	-2136
▁מחלה	-2137
▁שאר	-2138
חב	-2139
▁קהל	-2140
▁טרטגי	-2141
ופי	-2142
▁בואו	-2143
▁מנסה	-2144
▁למעלה	-2145
▁לעומת	-2146
▁מטרות	-2147
▁הלו	-2148
▁גוף	-2149
▁חיובי	-2150
▁רוד	-2151
▁שאת	-2152
▁מוביל	-2153
▁קבוע	-2154
▁ועוד	-2155
▁מטוס	-2156
▁פרטים	-2157
us	-2158
▁חמד	-2159
▁מוג	-2160
▁קיי	-2161
▁שיו	-2162
▁האתר	-2163
▁תעופה	-2164
▁לתוך	-2165
▁הקרוב	-2166
▁ייצור	-2167
▁re	-2168
▁גיד	-2169
▁לנס	-2170
▁לצאת	-2171
▁אזר	-2172
▁מצרים	-2173
▁חפ	-2174
▁צוי	-2175
▁פס	-2176
▁שמו	-2177
▁שמי	-2178
▁תקן	-2179
▁משמש	-2180
▁המאה	-2181
▁למנוע	-2182
▁שבע	-2183
▁ישנם	-2184
▁להביא	-2185
▁צרפ	-2186
▁קיץ	-2187
▁פועל	-2188
▁ארבעה	-2189
▁הקו	-2190
▁רצונ	-2191
▁דיווח	-2192
▁דנ	-2193
▁לגמ	-2194
▁רוע	-2195
▁בריטנ	-2196
▁קטנים	-2197
▁12	-2198
▁ריח	-2199
▁לילה	-2200
▁עזרה	-2201
▁פתח	-2202
רת	-2203
▁קודות	-2204
▁סביר	-2205
מלי	-2206
▁ולל	-2207
▁שפט	-2208
▁לגמרי	-2209
▁עיתים	-2210
טיס	-2211
▁צרפתי	-2212
▁כס	-2213
▁ושר	-2214
▁טור	-2215
▁שכנ	-2216
▁שאינ	-2217
▁זמין	-2218
▁מוקד	-2219
▁אזרחי	-2220
▁מעמד	-2221
▁גא	-2222
▁מלון	-2223
סיק	-2224
▁סופר	-2225
▁מצליח	-2226
▁לשם	-2227
▁סיכוי	-2228
▁נן	-2229
▁ובל	-2230
▁בארץ	-2231
▁חוצ	-2232
▁פיל	-2233
▁עשיר	-2234
▁מכר	-2235
▁שמש	-2236
▁לחם	-2237
▁תקופת	-2238
▁כור	-2239
▁שמר	-2240
▁דתי	-2241
בור	-2242
▁תס	-2243
▁לול	-2244
▁אישית	-2245
▁ונה	-2246
▁שופ	-2247
▁סרטן	-2248
▁ארגונ	-2249
▁דח	-2250
▁בועות	-2251
▁ירא	-2252
▁עליה	-2253
▁שווה	-2254
▁v	-2255
▁רוחני	-2256
חלט	-2257
▁אסור	-2258
▁החדשה	-2259
▁דפ	-2260
▁עליך	-2261
▁איתנו	-2262
▁שקט	-2263
▁פוליט	-2264
▁ונג	-2265
▁תקשר	-2266
▁הופך	-2267
▁מאבק	-2268
▁לם	-2269
▁גלה	-2270
▁נמו	-2271
▁וסף	-2272
▁אישי	-2273
▁קבלת	-2274
▁הסביר	-2275
▁רגשות	-2276
קוח	-2277
▁טומ	-2278
▁יהן	-2279
▁כרטיס	-2280
▁בשר	-2281
▁בהחלט	-2282
▁שנית	-2283
▁שניים	-2284
▁עולות	-2285
▁יצירת	-2286
▁שליטה	-2287
▁גו	-2288
▁דורש	-2289
▁הרכב	-2290
▁מספק	-2291
גיד	-2292
וגר	-2293
▁בהי	-2294
▁הלב	-2295
▁חייו	-2296
▁מכיל	-2297
▁להגיד	-2298
▁מורכב	-2299
▁הדי	-2300
▁ונן	-2301
▁חוב	-2302
▁ריצ	-2303
▁פאר	-2304
▁דרוש	-2305
▁דה	-2306
▁החליט	-2307
▁שח	-2308
▁עדיף	-2309
▁בשנים	-2310
▁קבוצת	-2311
▁השם	-2312
▁ירת	-2313
▁משפטי	-2314
▁היכ	-2315
▁ייס	-2316
▁מאה	-2317
▁דל	-2318
▁וגר	-2319
▁יתה	-2320
▁מתו	-2321
▁איזו	-2322
▁אלפי	-2323
▁כותב	-2324
▁לאכול	-2325
▁מטופל	-2326
▁ראשית	-2327
▁דלת	-2328
▁יחודי	-2329
ut	-2330
▁לסי	-2331
▁ניח	-2332
▁צליח	-2333
▁מקורי	-2334
▁מעור	-2335
גישה	-2336
▁תעורר	-2337
▁פיק	-2338
▁יודעת	-2339
▁בטח	-2340
▁סייע	-2341
▁דרום	-2342
▁שיבות	-2343
▁אופן	-2344
▁ישום	-2345
▁and	-2346
▁ביא	-2347
▁דיבר	-2348
▁רותים	-2349
▁ארוך	-2350
▁ופול	-2351
▁כלכל	-2352
▁מופיע	-2353
▁ריקני	-2354
▁תקנ	-2355
▁ביקש	-2356
▁קרקע	-2357
▁סדרה	-2358
▁ביטוי	-2359
▁בשלב	-2360
▁סון	-2361
▁רשות	-2362
▁וקרים	-2363
▁זמינ	-2364
▁טובות	-2365
▁מתאים	-2366
▁כבי	-2367
▁יוצא	-2368
▁ירותי	-2369
▁הגיעו	-2370
▁מזל	-2371
▁לכתוב	-2372
▁התנגד	-2373
ac	-2374
▁שדה	-2375
▁מבנה	-2376
▁ציות	-2377
▁העביר	-2378
אימ	-2379
▁מומ	-2380
▁אמונה	-2381
▁הישאר	-2382
▁יימים	-2383
▁בוד	-2384
▁ירוק	-2385
▁מושג	-2386
▁מתן	-2387
▁תוש	-2388
▁to	-2389
▁ריה	-2390
▁בסיסי	-2391
▁תנאים	-2392
▁רווי	-2393
▁בעצם	-2394
▁הבאה	-2395
▁מלאה	-2396
▁בחינה	-2397
▁חולים	-2398
▁שפחות	-2399
▁ייך	-2400
▁שמאל	-2401
▁סמכ	-2402
▁זיהו	-2403
▁מתרחש	-2404
▁וצג	-2405
▁ספי	-2406
▁יסוד	-2407
▁יילים	-2408
▁לקנות	-2409
וו	-2410
▁המע	-2411
▁מסת	-2412
▁tion	-2413
▁היטב	-2414
▁בחירה	-2415
▁חט	-2416
▁ידת	-2417
▁מתחת	-2418
▁ום	-2419
▁ריד	-2420
ושי	-2421
▁ארי	-2422
▁בטיח	-2423
▁התחלה	-2424
▁עשיית	-2425
▁עלמ	-2426
▁הטבע	-2427
▁היות	-2428
▁סיק	-2429
▁מעשי	-2430
▁מרחק	-2431
▁נשמע	-2432
▁איחוד	-2433
▁חוו	-2434
▁המים	-2435
▁פורט	-2436
▁ביטוח	-2437
▁לבנות	-2438
▁ווע	-2439
▁חיה	-2440
▁טראמפ	-2441
▁זב	-2442
▁נוצר	-2443
▁שמע	-2444
▁בנה	-2445
▁נהג	-2446
▁לימות	-2447
▁קיימת	-2448
▁הוכ	-2449
עיל	-2450
▁הני	-2451
▁תנאי	-2452
▁ברז	-2453
▁לשחק	-2454
▁מבצע	-2455
▁ענ	-2456
▁דיר	-2457
▁דיון	-2458
▁•	-2459
▁קפה	-2460
▁במצב	-2461
▁חקנים	-2462
▁האד	-2463
▁בחודש	-2464
▁שויים	-2465
קדמי	-2466
▁אקדמי	-2467
ot	-2468
▁k	-2469
▁עצמנו	-2470
מנע	-2471
יאון	-2472
▁אנטי	-2473
▁זיאון	-2474
▁תשלום	-2475
▁נאמר	-2476
▁לעבור	-2477
▁בראש	-2478
▁גרוע	-2479
▁ליי	-2480
▁מאמין	-2481
▁מועמד	-2482
▁נציאל	-2483
▁רשימה	-2484
▁כוונ	-2485
▁שיפור	-2486
▁גול	-2487
▁פתע	-2488
▁מעורב	-2489
▁גיט	-2490
▁חזרה	-2491
▁50	-2492
▁עוצ	-2493
▁נכונה	-2494
▁שאי	-2495
▁בידי	-2496
▁אפר	-2497
▁ומן	-2498
▁נצל	-2499
▁שהיו	-2500
▁הביתה	-2501
▁מקווה	-2502
▁אמת	-2503
▁תוכן	-2504
▁ונדון	-2505
▁מערבי	-2506
וקא	-2507
▁במס	-2508
▁קטר	-2509
▁להגן	-2510
▁דווקא	-2511
▁השבוע	-2512
▁כח	-2513
▁אחראי	-2514
ונית	-2515
▁אבד	-2516
▁לין	-2517
▁היכנס	-2518
▁כונית	-2519
▁לוט	-2520
▁עורר	-2521
▁ation	-2522
▁בפעם	-2523
▁נחשב	-2524
▁עשרה	-2525
▁תן	-2526
▁פים	-2527
▁לנסות	-2528
▁סוריה	-2529
▁פוסט	-2530
▁ושבים	-2531
▁קף	-2532
▁עצמכם	-2533
▁ילא	-2534
▁שלם	-2535
▁שמה	-2536
▁סיפר	-2537
▁ביחד	-2538
▁נבחר	-2539
▁פשרוי	-2540
חרי	-2541
▁שיה	-2542
▁פרסום	-2543
ec	-2544
▁חג	-2545
▁דוגמא	-2546
▁יקורת	-2547
▁ינואר	-2548
▁שלח	-2549
▁רדה	-2550
▁ובב	-2551
▁כוכ	-2552
▁פורסם	-2553
▁יטר	-2554
▁סוגי	-2555
▁בזה	-2556
▁לוג	-2557
▁קדם	-2558
▁יוצר	-2559
▁משפיע	-2560
▁גרס	-2561
▁נהל	-2562
▁וין	-2563
▁כזו	-2564
▁מאמ	-2565
▁שומר	-2566
▁המטרה	-2567
▁הרוג	-2568
▁סכים	-2569
▁חקרים	-2570
▁נקודת	-2571
▁עסקי	-2572
▁רכיש	-2573
▁תשומת	-2574
ad	-2575
▁להס	-2576
▁נזק	-2577
▁תכנ	-2578
▁שלוח	-2579
▁הפסיק	-2580
▁גמר	-2581
▁שיל	-2582
▁חרונה	-2583
▁הרש	-2584
▁בתור	-2585
▁הכנס	-2586
▁פורמ	-2587
▁מך	-2588
▁חזור	-2589
▁השר	-2590
▁יתי	-2591
▁פריקה	-2592
ביב	-2593
▁יקום	-2594
▁בחינת	-2595
▁שחקן	-2596
▁בעלות	-2597
▁ינוי	-2598
▁נאה	-2599
▁תני	-2600
▁הופכ	-2601
▁טן	-2602
▁כפר	-2603
▁מיר	-2604
▁קיר	-2605
▁קלים	-2606
▁פטמבר	-2607
▁ריירה	-2608
▁יזם	-2609
▁נקי	-2610
id	-2611
▁רל	-2612
▁לשלם	-2613
▁ופולר	-2614
▁יינ	-2615
▁מהו	-2616
▁צבא	-2617
▁יימ	-2618
▁לאו	-2619
▁הגדר	-2620
▁פרטי	-2621
▁ic	-2622
▁עברו	-2623
▁בריטי	-2624
▁or	-2625
▁פו	-2626
▁גזע	-2627
▁ענק	-2628
▁זהיר	-2629
▁אדמ	-2630
▁ניק	-2631
▁מוכן	-2632
▁עוצמ	-2633
▁מוגבל	-2634
▁רוך	-2635
קנ	-2636
▁כלכלה	-2637
▁הסכמ	-2638
▁שיער	-2639
▁הלאומ	-2640
▁לבו	-2641
▁משבר	-2642
▁בשבוע	-2643
▁—	-2644
▁דצ	-2645
▁עלם	-2646
▁חשבתי	-2647
▁נקודה	-2648
▁שיהיה	-2649
▁נפר	-2650
▁נתן	-2651
▁ֹ	-2652
▁זכה	-2653
▁פרו	-2654
▁רז	-2655
▁נצח	-2656
▁מונח	-2657
▁מטרת	-2658
▁נפרד	-2659
▁דון	-2660
▁ורה	-2661
▁קורות	-2662
▁מחלות	-2663
▁שויות	-2664
▁זהב	-2665
▁הדין	-2666
▁סמים	-2667
▁כלא	-2668
▁רוק	-2669
▁אלבום	-2670
▁דצמבר	-2671
▁הריון	-2672
▁שגר	-2673
▁יפים	-2674
▁חם	-2675
▁יהו	-2676
▁לפע	-2677
▁פול	-2678
▁מבלי	-2679
▁לגל	-2680
▁היכן	-2681
▁רמות	-2682
▁מסוים	-2683
▁קטובר	-2684
▁צמח	-2685
▁לידה	-2686
▁לשפר	-2687
▁ניות	-2688
▁לפעול	-2689
▁מוקדם	-2690
▁תקיים	-2691
▁שכר	-2692
▁משימה	-2693
▁ישנ	-2694
▁רון	-2695
▁שכן	-2696
▁כלום	-2697
▁לשמוע	-2698
וסט	-2699
▁ואף	-2700
▁סבל	-2701
▁הכסף	-2702
▁כביש	-2703
▁קורס	-2704
▁אוהבת	-2705
▁טה	-2706
▁פרסם	-2707
▁פרט	-2708
▁טיל	-2709
▁טעם	-2710
▁וצאת	-2711
▁נותן	-2712
▁צעיר	-2713
▁ניסוי	-2714
▁טיול	-2715
▁צבאי	-2716
▁מתאימ	-2717
▁היי	-2718
▁ריע	-2719
▁תומ	-2720
▁בנות	-2721
▁מכתב	-2722
▁בנוגע	-2723
▁ותה	-2724
▁מהיר	-2725
▁מניע	-2726
▁פארק	-2727
▁יניהם	-2728
▁קטרונ	-2729
תיד	-2730
▁שופט	-2731
▁גרמני	-2732
▁רעיונ	-2733
▁רצו	-2734
▁איתו	-2735
▁איננו	-2736
▁הוביל	-2737
▁זורים	-2738
סטי	-2739
▁שׁ	-2740
▁מסעד	-2741
▁ערות	-2742
▁רסיטה	-2743
▁ידה	-2744
▁שוא	-2745
▁סרטים	-2746
▁קמפ	-2747
▁החשוב	-2748
▁חיק	-2749
▁יוח	-2750
▁פשט	-2751
▁קרן	-2752
▁במאי	-2753
▁שתתפ	-2754
▁11	-2755
▁ed	-2756
▁סא	-2757
▁פעל	-2758
▁צמי	-2759
▁הוציא	-2760
▁מסל	-2761
▁משכ	-2762
▁ריפ	-2763
▁תפי	-2764
▁טון	-2765
▁בירה	-2766
▁מילה	-2767
▁נותר	-2768
▁כירות	-2769
▁מסלול	-2770
▁קבלים	-2771
▁מחש	-2772
▁נוב	-2773
▁פצי	-2774
▁חלטות	-2775
ir	-2776
um	-2777
▁יעד	-2778
▁ורש	-2779
▁הימנע	-2780
▁וכך	-2781
▁קלה	-2782
▁חנות	-2783
▁ספינ	-2784
▁וספות	-2785
צג	-2786
▁הרפ	-2787
▁טנ	-2788
▁ובמבר	-2789
▁חמישה	-2790
▁>	-2791
▁לוס	-2792
▁רדי	-2793
▁סיוע	-2794
▁שותפ	-2795
▁הקשור	-2796
▁יסב	-2797
▁נפש	-2798
▁אתגר	-2799
▁לרוב	-2800
▁שמים	-2801
▁נמצאת	-2802
▁דירה	-2803
▁חיות	-2804
▁מסוג	-2805
▁זמנים	-2806
▁ובי	-2807
▁אינן	-2808
▁נהדר	-2809
▁בער	-2810
▁נוכל	-2811
▁שמחה	-2812
▁אים	-2813
▁הבאים	-2814
▁גלי	-2815
▁ימון	-2816
▁סטרלי	-2817
ביעי	-2818
▁ופס	-2819
▁אדום	-2820
▁מצאו	-2821
▁רחוב	-2822
▁צילום	-2823
▁רביעי	-2824
▁סד	-2825
▁בטל	-2826
▁וקמ	-2827
▁Ch	-2828
▁עוס	-2829
▁לשים	-2830
▁שלטון	-2831
▁גזר	-2832
▁הינו	-2833
▁סנ	-2834
▁און	-2835
▁קנה	-2836
▁יציב	-2837
▁הטובה	-2838
▁וים	-2839
▁גדיר	-2840
▁המון	-2841
▁לפתח	-2842
▁יונ	-2843
▁מטה	-2844
▁לונות	-2845
▁לצד	-2846
▁מחו	-2847
▁ופים	-2848
▁מודל	-2849
▁רופא	-2850
▁בעתיד	-2851
▁הודעה	-2852
▁18	-2853
▁המוח	-2854
▁ישוע	-2855
ent	-2856
▁אמי	-2857
▁אויב	-2858
▁העסק	-2859
▁חקלא	-2860
▁ריס	-2861
▁יקרה	-2862
▁הצבע	-2863
▁וריד	-2864
▁X	-2865
▁וחר	-2866
▁חלום	-2867
▁כניסה	-2868
▁ההת	-2869
▁סטי	-2870
▁הבנה	-2871
▁חינם	-2872
▁פותח	-2873
▁הופיע	-2874
▁איי	-2875
▁וננ	-2876
▁הפכו	-2877
▁חשבות	-2878
▁נכס	-2879
▁האמין	-2880
▁יחסים	-2881
▁מיתית	-2882
▁תום	-2883
▁רגיש	-2884
▁האוכל	-2885
▁רן	-2886
▁עודד	-2887
▁דבריו	-2888
▁לעמוד	-2889
▁ערבים	-2890
עים	-2891
▁דוח	-2892
▁הרא	-2893
▁סעי	-2894
▁קצב	-2895
▁שיח	-2896
▁כלים	-2897
▁משיך	-2898
▁חמור	-2899
▁אישור	-2900
▁ושל	-2901
▁ישן	-2902
▁מביא	-2903
▁מועצ	-2904
▁שבהם	-2905
▁חוויה	-2906
▁מימ	-2907
▁עקר	-2908
▁קוט	-2909
▁מערב	-2910
▁הטכנו	-2911
▁יוכלו	-2912
▁עצמאי	-2913
ur	-2914
▁אודות	-2915
▁מאושר	-2916
▁החלו	-2917
ia	-2918
▁קק	-2919
▁לגלות	-2920
▁התי	-2921
▁ניתנ	-2922
▁יכרון	-2923
▁עשייה	-2924
la	-2925
▁פעיל	-2926
▁פציפי	-2927
▁40	-2928
▁חוף	-2929
▁הזמנ	-2930
▁והת	-2931
▁מחפש	-2932
▁מחשבה	-2933
▁שילוב	-2934
▁אול	-2935
▁וויר	-2936
▁עליי	-2937
▁גידול	-2938
▁גוע	-2939
▁וגע	-2940
▁סעיף	-2941
▁סתכל	-2942
▁בולות	-2943
טח	-2944
▁החלק	-2945
▁תקבל	-2946
▁פורסמ	-2947
ess	-2948
▁גמ	-2949
▁סטיב	-2950
▁מפלגה	-2951
▁ng	-2952
▁לאי	-2953
▁ממנה	-2954
▁שיחה	-2955
▁בעזרת	-2956
▁צדדים	-2957
▁רציתי	-2958
נסי	-2959
▁כוס	-2960
▁גדיל	-2961
▁זמני	-2962
▁מלאכ	-2963
▁פיזי	-2964
▁חוקים	-2965
▁סגנון	-2966
▁יקה	-2967
▁עצר	-2968
▁רבי	-2969
▁רמו	-2970
▁סיום	-2971
▁אמצעי	-2972
▁ייג	-2973
▁שגם	-2974
▁נמוך	-2975
▁חושבת	-2976
▁צה	-2977
▁בטא	-2978
▁עסוק	-2979
▁בך	-2980
▁יצר	-2981
▁ליז	-2982
▁סקר	-2983
▁ולדת	-2984
▁מוצר	-2985
▁תחום	-2986
▁לבדוק	-2987
ויק	-2988
▁ניג	-2989
▁המלך	-2990
▁בבוקר	-2991
▁ידיים	-2992
▁יתרונ	-2993
▁מדויק	-2994
▁תיכון	-2995
▁רץ	-2996
▁ייכ	-2997
▁רעה	-2998
▁ראיי	-2999
▁חייבת	-3000
▁רוויח	-3001
▁לבס	-3002
▁אושר	-3003
▁במידה	-3004
▁חשובה	-3005
▁עליון	-3006
▁חמא	-3007
▁תיר	-3008
▁גורי	-3009
▁יסטי	-3010
▁מועד	-3011
▁משותפ	-3012
▁»	-3013
▁בנק	-3014
▁יבה	-3015
▁הנד	-3016
▁וטל	-3017
▁למים	-3018
▁חייהם	-3019
▁הנדס	-3020
▁רכבת	-3021
▁חיוני	-3022
▁טענ	-3023
▁תחי	-3024
▁ספקת	-3025
▁תקווה	-3026
בח	-3027
ציב	-3028
▁הרוח	-3029
▁לווי	-3030
▁הודיע	-3031
▁שיטות	-3032
▁תקציב	-3033
ועד	-3034
▁לעז	-3035
▁מהי	-3036
▁השמש	-3037
▁טעות	-3038
▁מטבע	-3039
▁מקב	-3040
▁עזה	-3041
▁קבע	-3042
▁קרנ	-3043
▁שרא	-3044
▁תרג	-3045
▁דמות	-3046
▁הקוד	-3047
▁ידור	-3048
▁סיים	-3049
▁עשרות	-3050
▁ne	-3051
▁האיש	-3052
▁ולד	-3053
▁וצאים	-3054
▁שמונה	-3055
▁רנ	-3056
▁אשת	-3057
▁רוז	-3058
▁חשמל	-3059
▁שוואה	-3060
▁אכל	-3061
▁בניו	-3062
▁שיווק	-3063
▁שד	-3064
▁המכ	-3065
▁עימ	-3066
▁ענה	-3067
▁לאדם	-3068
▁מצלמ	-3069
▁אומית	-3070
▁מבוגר	-3071
▁שלילי	-3072
פו	-3073
▁אבו	-3074
▁טיקה	-3075
▁|	-3076
▁Re	-3077
▁גרמ	-3078
▁המר	-3079
▁קופ	-3080
▁מפגש	-3081
▁סגור	-3082
▁עדיפ	-3083
▁חצ	-3084
▁כיש	-3085
▁בוק	-3086
▁דמה	-3087
▁סוי	-3088
▁עובר	-3089
▁בקלות	-3090
▁ועצ	-3091
▁צוד	-3092
▁רימ	-3093
▁תפס	-3094
▁וכיח	-3095
▁טט	-3096
▁הור	-3097
▁מציג	-3098
li	-3099
▁צא	-3100
▁חות	-3101
▁הלילה	-3102
▁וכנים	-3103
▁ושאים	-3104
▁טיב	-3105
▁כננ	-3106
▁כשא	-3107
▁יסבוק	-3108
▁רך	-3109
▁איבד	-3110
▁טען	-3111
▁יסט	-3112
▁עתה	-3113
▁בשוק	-3114
▁כולו	-3115
▁לאור	-3116
▁לספר	-3117
▁עוסק	-3118
▁נושות	-3119
▁פסיכו	-3120
▁בדיקה	-3121
▁הערבי	-3122
▁לקראת	-3123
▁רטי	-3124
▁ממשי	-3125
▁ראות	-3126
▁עילוי	-3127
▁אמנ	-3128
▁חשש	-3129
▁שיטה	-3130
lo	-3131
▁נמל	-3132
▁רלו	-3133
▁יוני	-3134
▁אפריל	-3135
▁יננסי	-3136
▁למקום	-3137
▁יטה	-3138
▁הצבא	-3139
▁שלושת	-3140
▁ועם	-3141
▁משו	-3142
▁שער	-3143
▁אופנ	-3144
▁איתם	-3145
▁נפלא	-3146
▁פסיק	-3147
▁te	-3148
▁התמ	-3149
▁פירוש	-3150
...	-3151
▁אבק	-3152
▁ורו	-3153
▁בניין	-3154
▁השפיע	-3155
▁רבותי	-3156
▁שניתן	-3157
תיק	-3158
▁בדר	-3159
▁ביב	-3160
▁יפש	-3161
▁מהן	-3162
▁תער	-3163
▁הכוח	-3164
▁חייה	-3165
▁העתיק	-3166
▁סוגים	-3167
▁קישור	-3168
▁הגר	-3169
▁הרב	-3170
▁מחר	-3171
▁סכימ	-3172
▁ראשי	-3173
▁יירות	-3174
▁וקם	-3175
▁רוט	-3176
▁נותנ	-3177
▁וגרפי	-3178
▁קא	-3179
▁במר	-3180
▁האס	-3181
▁וכו	-3182
▁חלי	-3183
▁עדר	-3184
▁גנטי	-3185
▁מסחר	-3186
ht	-3187
▁רום	-3188
▁ורים	-3189
▁25	-3190
▁לשע	-3191
▁מרא	-3192
▁שראלי	-3193
▁תחושה	-3194
כז	-3195
▁זון	-3196
▁קוי	-3197
▁בערך	-3198
▁במרכז	-3199
▁for	-3200
▁טפל	-3201
▁כרגע	-3202
▁ציין	-3203
▁קולו	-3204
▁ראים	-3205
▁ערכים	-3206
▁טקס	-3207
▁הניח	-3208
▁נכתב	-3209
▁הסתכל	-3210
▁שאינם	-3211
▁זול	-3212
▁יות	-3213
▁תאי	-3214
▁חוזר	-3215
▁חתול	-3216
▁יומי	-3217
▁הנושא	-3218
▁גוש	-3219
▁חליף	-3220
▁מהווה	-3221
▁השק	-3222
▁יחיד	-3223
▁מעלה	-3224
▁כלוסי	-3225
▁וזר	-3226
▁ימין	-3227
▁שחרר	-3228
▁הראשי	-3229
▁חלקים	-3230
בדל	-3231
▁ity	-3232
▁שהי	-3233
▁מותו	-3234
▁קשיב	-3235
▁ההבדל	-3236
▁ותק	-3237
▁ירח	-3238
▁רוג	-3239
▁ואין	-3240
▁סכום	-3241
▁תורה	-3242
▁חפשים	-3243
ונא	-3244
▁כפ	-3245
▁ארד	-3246
▁רפא	-3247
▁בתים	-3248
▁מפעל	-3249
▁וסייה	-3250
▁el	-3251
▁כימי	-3252
▁נוגע	-3253
▁ברואר	-3254
▁חבל	-3255
▁חלת	-3256
▁ניי	-3257
▁שאם	-3258
▁מלי	-3259
▁וידאו	-3260
▁רדת	-3261
▁ארוחת	-3262
▁יתונא	-3263
▁לאפשר	-3264
▁בחוץ	-3265
▁לבסוף	-3266
וסי	-3267
▁לנצ	-3268
▁משותף	-3269
▁רפואה	-3270
▁זן	-3271
▁סתם	-3272
▁למנט	-3273
▁ועלים	-3274
▁עשרים	-3275
▁יך	-3276
▁הנח	-3277
▁וול	-3278
▁הליכ	-3279
▁צורה	-3280
▁תרגל	-3281
▁החזיר	-3282
▁עקרונ	-3283
▁שניהם	-3284
ריז	-3285
▁התע	-3286
▁חום	-3287
▁ינס	-3288
▁השיר	-3289
▁לנצח	-3290
▁אתרים	-3291
▁שאפשר	-3292
▁nt	-3293
▁טכ	-3294
▁com	-3295
▁קדי	-3296
▁חלקי	-3297
▁עברי	-3298
▁מרב	-3299
▁פיצ	-3300
▁תקדם	-3301
▁המילה	-3302
▁סוק	-3303
▁ותיו	-3304
▁חורה	-3305
▁נסיעה	-3306
▁תושבי	-3307
se	-3308
▁חב	-3309
▁טו	-3310
▁בלע	-3311
▁מכוני	-3312
▁13	-3313
▁לף	-3314
▁סמך	-3315
▁לשעבר	-3316
▁יבת	-3317
▁קיד	-3318
▁נדיר	-3319
▁ארכ	-3320
▁יכל	-3321
▁כוכב	-3322
▁ספרי	-3323
▁מקביל	-3324
▁טייל	-3325
▁לסייע	-3326
▁תחומי	-3327
▁העבר	-3328
▁לבקר	-3329
▁סמוך	-3330
▁ראית	-3331
▁הנכון	-3332
▁$	-3333
▁סם	-3334
▁וקה	-3335
▁בחדר	-3336
▁המשך	-3337
▁יטליה	-3338
▁עת	-3339
▁השי	-3340
▁הודו	-3341
▁ועלת	-3342
▁קליפ	-3343
▁יפן	-3344
▁אזרח	-3345
▁האור	-3346
▁ואלי	-3347
ומנ	-3348
▁גיע	-3349
▁רקע	-3350
▁מושלם	-3351
▁סן	-3352
▁בפי	-3353
▁סקס	-3354
▁פתיע	-3355
▁כלבים	-3356
טרף	-3357
▁בים	-3358
▁יבש	-3359
▁ווים	-3360
▁משנת	-3361
▁הצטרף	-3362
▁ולאחר	-3363
▁וסעים	-3364
▁צמיחה	-3365
▁אתמ	-3366
▁בחור	-3367
▁העני	-3368
▁משאב	-3369
▁עיני	-3370
▁כשהוא	-3371
im	-3372
▁והן	-3373
▁זרים	-3374
▁ישוב	-3375
▁צטרך	-3376
▁בהמשך	-3377
▁בלילה	-3378
▁חשבונ	-3379
חתי	-3380
▁ורפ	-3381
▁חיל	-3382
▁הערכ	-3383
▁וספת	-3384
▁בזכות	-3385
▁להכיר	-3386
▁שפחתי	-3387
▁‘	-3388
▁14	-3389
▁כיב	-3390
▁קשות	-3391
▁ביס	-3392
▁ותו	-3393
▁יסק	-3394
▁אתמול	-3395
▁המוצר	-3396
▁המצ	-3397
▁לווה	-3398
▁בחיי	-3399
▁חוות	-3400
▁ילדה	-3401
▁בחברה	-3402
▁מצט	-3403
▁שורה	-3404
▁תיים	-3405
▁הרופא	-3406
▁le	-3407
▁דעו	-3408
▁סוד	-3409
▁סחר	-3410
▁דווח	-3411
▁ימות	-3412
▁נפגע	-3413
▁תנוע	-3414
▁בקרים	-3415
▁חתונה	-3416
▁כוללת	-3417
לץ	-3418
▁פלא	-3419
▁אמנם	-3420
▁ברמה	-3421
▁תרומ	-3422
▁האדמה	-3423
▁אורג	-3424
▁מרחב	-3425
▁סטרו	-3426
▁חמישי	-3427
אול	-3428
▁דף	-3429
▁דלק	-3430
▁וגל	-3431
▁ויט	-3432
▁מוזר	-3433
▁וגרים	-3434
▁חיבור	-3435
▁לשאול	-3436
▁תחייב	-3437
▁סמל	-3438
▁כנסת	-3439
▁מנוע	-3440
▁מרכיב	-3441
▁ובכ	-3442
▁רמה	-3443
▁וריא	-3444
▁מידה	-3445
▁מראש	-3446
▁הצורך	-3447
▁ושש	-3448
▁מחצ	-3449
▁ודה	-3450
▁מסך	-3451
▁משה	-3452
▁חליט	-3453
▁לחפש	-3454
▁סוכן	-3455
▁אליהם	-3456
▁השאיר	-3457
▁וכחות	-3458
▁מזכיר	-3459
▁מכירה	-3460
▁תצ	-3461
▁בצד	-3462
▁ברר	-3463
▁וקס	-3464
▁הפוך	-3465
▁הקונ	-3466
▁בינים	-3467
▁התמקד	-3468
▁וסדות	-3469
▁לזכור	-3470
▁נוי	-3471
▁נסה	-3472
▁בודות	-3473
▁רציני	-3474
▁דרכו	-3475
▁החלה	-3476
▁זהות	-3477
▁פתיח	-3478
▁גישות	-3479
▁דורגל	-3480
▁בהיר	-3481
▁ירידה	-3482
▁פתרונ	-3483
▁המא	-3484
▁ווק	-3485
▁לומ	-3486
▁פגש	-3487
▁תות	-3488
▁תפיס	-3489
▁ידעתי	-3490
▁מחזיק	-3491
▁ושם	-3492
▁ידו	-3493
▁עלו	-3494
▁פתא	-3495
▁הסבר	-3496
▁ורכי	-3497
▁מהפכה	-3498
▁שולחן	-3499
▁Ne	-3500
▁הצו	-3501
▁חוד	-3502
▁וותר	-3503
▁עורך	-3504
▁בקרוב	-3505
▁העניק	-3506
▁לדברי	-3507
▁רישות	-3508
פות	-3509
▁בוב	-3510
▁זכור	-3511
▁יופי	-3512
▁מוסרי	-3513
▁מיומנ	-3514
▁מרבית	-3515
▁ָה	-3516
▁חלל	-3517
▁בשנות	-3518
▁קטנות	-3519
והול	-3520
▁חלב	-3521
▁כרז	-3522
▁לצי	-3523
▁תכו	-3524
▁פחית	-3525
▁קובע	-3526
▁הכללי	-3527
▁המחיר	-3528
▁כוהול	-3529
▁תכנון	-3530
▁דיש	-3531
▁ולש	-3532
▁ושי	-3533
▁כלה	-3534
▁אורה	-3535
▁ישאר	-3536
▁עוני	-3537
▁שוטר	-3538
▁רטיות	-3539
▁&	-3540
▁סח	-3541
▁רעב	-3542
▁לבוא	-3543
▁הצביע	-3544
▁ובדות	-3545
▁מונים	-3546
▁מנסים	-3547
▁ניצחו	-3548
▁Mi	-3549
▁ניש	-3550
▁אליה	-3551
▁יקוד	-3552
▁עוזר	-3553
▁ביוני	-3554
▁נמוכה	-3555
נד	-3556
▁לבוש	-3557
▁דיקות	-3558
▁התרחש	-3559
▁לן	-3560
▁מאמץ	-3561
▁הסיני	-3562
▁התקדמ	-3563
▁כוונה	-3564
▁סורתי	-3565
▁סנט	-3566
▁הרגע	-3567
▁חורף	-3568
▁תאים	-3569
▁יוחדת	-3570
▁כתובת	-3571
▁ניגוד	-3572
▁שירים	-3573
▁בקש	-3574
▁סול	-3575
▁גורל	-3576
▁ולין	-3577
▁רדיו	-3578
▁ולוגי	-3579
▁הבל	-3580
▁יצב	-3581
▁הבנק	-3582
▁הפכה	-3583
▁עזור	-3584
▁תפתח	-3585
▁ומחים	-3586
▁לצפות	-3587
▁סוימת	-3588
▁רלוונ	-3589
▁דרש	-3590
▁שהן	-3591
▁הדור	-3592
▁לפתוח	-3593
ct	-3594
▁וינ	-3595
▁ייב	-3596
▁תדר	-3597
▁נפוצ	-3598
▁ופאים	-3599
▁צל	-3600
▁גיי	-3601
▁השוק	-3602
▁עלים	-3603
▁יתן	-3604
▁מעבד	-3605
▁תנהל	-3606
▁וחרים	-3607
▁16	-3608
▁בחנ	-3609
▁גוב	-3610
▁עון	-3611
▁רבנ	-3612
▁ריש	-3613
▁תקר	-3614
▁הודות	-3615
▁לוי	-3616
▁רינ	-3617
▁נפתח	-3618
▁תומכ	-3619
▁תקרב	-3620
ea	-3621
▁במש	-3622
▁ינט	-3623
▁ובכל	-3624
▁יתות	-3625
▁מהות	-3626
▁פתאום	-3627
▁th	-3628
▁סר	-3629
▁המפ	-3630
▁מומלץ	-3631
▁ביי	-3632
▁יים	-3633
▁ישב	-3634
▁מינ	-3635
▁מוצא	-3636
▁מחוז	-3637
▁וויות	-3638
▁חכ	-3639
▁בבק	-3640
▁פסק	-3641
▁דריכ	-3642
▁הנהג	-3643
▁עידן	-3644
▁צורת	-3645
▁בימים	-3646
▁להציל	-3647
זרה	-3648
▁ולת	-3649
▁מנע	-3650
▁לטפל	-3651
▁נייד	-3652
▁סכנה	-3653
▁בחזרה	-3654
▁ונק	-3655
▁לוצ	-3656
▁מסקנ	-3657
▁טובוס	-3658
▁ולם	-3659
▁רדו	-3660
▁שקר	-3661
▁אכיל	-3662
▁מותר	-3663
▁מחנה	-3664
▁עונש	-3665
▁הגיעה	-3666
▁יהנות	-3667
▁תגורר	-3668
un	-3669
▁אלצ	-3670
▁גיא	-3671
▁יוש	-3672
▁עגל	-3673
▁גלגל	-3674
▁עשיתי	-3675
ft	-3676
▁Goo	-3677
▁דרמ	-3678
▁הרצ	-3679
▁וור	-3680
▁לעצ	-3681
▁מלה	-3682
▁דעתי	-3683
▁ציור	-3684
▁במזרח	-3685
▁גובות	-3686
▁נהלים	-3687
▁On	-3688
▁אום	-3689
▁יאו	-3690
▁קיום	-3691
▁ובש	-3692
▁ורט	-3693
▁כלב	-3694
▁מגדל	-3695
▁נורא	-3696
▁עברה	-3697
▁טורקי	-3698
▁לכולם	-3699
▁תכוונ	-3700
▁תערוכ	-3701
▁תקיימ	-3702
▁מזג	-3703
▁שהמ	-3704
▁הידע	-3705
▁הקמת	-3706
▁וכבים	-3707
▁מוצלח	-3708
▁מחויב	-3709
▁ייה	-3710
▁ליב	-3711
▁פלט	-3712
▁בודד	-3713
▁סימן	-3714
▁שואה	-3715
▁עלייה	-3716
▁צעדים	-3717
ציה	-3718
▁24	-3719
▁לוא	-3720
▁צוע	-3721
▁אשתו	-3722
▁ותיה	-3723
▁ספים	-3724
▁צרות	-3725
▁ולנוע	-3726
▁ועדון	-3727
▁רשתות	-3728
▁הרה	-3729
▁עשית	-3730
▁קודש	-3731
▁הפנים	-3732
▁הקודמ	-3733
▁הדם	-3734
▁מרץ	-3735
▁ואתה	-3736
▁נקים	-3737
▁ביולי	-3738
▁העלות	-3739
▁מדהים	-3740
▁גג	-3741
▁לופ	-3742
▁וריו	-3743
▁למשך	-3744
▁ישיות	-3745
▁פצ	-3746
▁בלה	-3747
▁כשל	-3748
▁ניב	-3749
▁עזב	-3750
▁השאר	-3751
▁ילות	-3752
▁מחלק	-3753
▁ריסט	-3754
▁הכר	-3755
▁ולנ	-3756
▁עדכ	-3757
▁קיומ	-3758
▁עשויה	-3759
▁תאריך	-3760
▁de	-3761
▁להק	-3762
▁רשם	-3763
▁מובן	-3764
▁שומע	-3765
▁מיועד	-3766
▁דיפ	-3767
▁קדש	-3768
▁דברי	-3769
▁ושוב	-3770
▁חולה	-3771
▁מאחר	-3772
▁והר	-3773
▁וכח	-3774
▁אביו	-3775
▁הרגו	-3776
▁ייצר	-3777
▁רם	-3778
▁החי	-3779
▁הרס	-3780
▁קנא	-3781
▁האלו	-3782
▁חובה	-3783
▁כתבה	-3784
▁תיבה	-3785
▁סודות	-3786
▁חיש	-3787
▁הוכח	-3788
▁הזוג	-3789
▁לנהל	-3790
▁השקעה	-3791
▁מסחרי	-3792
▁You	-3793
▁דים	-3794
▁ונס	-3795
▁חכמ	-3796
▁צור	-3797
▁שיא	-3798
▁תפל	-3799
▁מיקום	-3800
▁צירתי	-3801
▁קידום	-3802
▁x	-3803
▁רה	-3804
▁אקו	-3805
▁הדמ	-3806
▁מלבד	-3807
▁האינט	-3808
▁האישה	-3809
▁הצבאי	-3810
▁נושית	-3811
▁בוה	-3812
▁גדה	-3813
▁לאה	-3814
▁מחכ	-3815
▁רוכ	-3816
▁טובת	-3817
▁יימס	-3818
▁כחול	-3819
▁מתאר	-3820
▁הולנד	-3821
▁וסיקה	-3822
ירים	-3823
▁הדו	-3824
▁הקד	-3825
▁תגר	-3826
▁תנד	-3827
▁גביר	-3828
▁לבקש	-3829
▁לחיים	-3830
▁קדימה	-3831
▁שאינו	-3832
ודא	-3833
▁האג	-3834
▁צער	-3835
▁שהת	-3836
▁דגיש	-3837
▁חשבו	-3838
▁תאונ	-3839
▁מוצרי	-3840
▁פגיעה	-3841
▁ייק	-3842
▁ענו	-3843
▁פשע	-3844
▁זכרו	-3845
▁פסיד	-3846
▁דידות	-3847
▁הקדוש	-3848
▁אמון	-3849
▁מיקר	-3850
▁פעמי	-3851
▁בנייה	-3852
▁זל	-3853
▁ברצ	-3854
▁מקו	-3855
▁ביחס	-3856
▁טיסה	-3857
▁מירה	-3858
▁מכון	-3859
▁מיקרו	-3860
▁היב	-3861
▁טוח	-3862
▁טרם	-3863
▁יקח	-3864
▁מלך	-3865
▁סומ	-3866
▁גוסט	-3867
▁מלכה	-3868
▁שיטת	-3869
▁בניית	-3870
▁אבט	-3871
▁עליכם	-3872
ציג	-3873
▁זיק	-3874
▁ספרד	-3875
▁דירות	-3876
▁להציג	-3877
▁מטרים	-3878
▁מתקדמ	-3879
▁נגליה	-3880
▁רעיני	-3881
▁Al	-3882
▁וסט	-3883
▁חכם	-3884
▁לות	-3885
▁מאת	-3886
▁רכש	-3887
▁בחון	-3888
▁בקשה	-3889
▁הכרה	-3890
▁עריכ	-3891
▁אינדי	-3892
▁חשיבה	-3893
pp	-3894
art	-3895
▁להר	-3896
▁קיפ	-3897
▁תחל	-3898
▁אסיר	-3899
▁בכדי	-3900
▁יבוד	-3901
▁עריך	-3902
▁גיטלי	-3903
▁es	-3904
▁ro	-3905
▁ופק	-3906
▁ופר	-3907
▁יאן	-3908
▁הבדל	-3909
▁טקסט	-3910
▁צטרפ	-3911
▁יאורי	-3912
▁משיכה	-3913
▁תוכנה	-3914
▁שן	-3915
▁חקר	-3916
▁כזב	-3917
▁הערכה	-3918
▁בעה	-3919
▁גשר	-3920
▁שיק	-3921
▁שפות	-3922
▁אבטחה	-3923
▁הראות	-3924
▁טומטי	-3925
▁ילדות	-3926
▁לעצור	-3927
▁עיתונ	-3928
▁טש	-3929
▁התו	-3930
▁ציוד	-3931
▁בלעדי	-3932
▁כלשהו	-3933
▁ריטים	-3934
▁בּ	-3935
▁מם	-3936
▁קמ	-3937
▁ייש	-3938
▁לקו	-3939
▁איון	-3940
▁במספר	-3941
▁גופני	-3942
▁נגטון	-3943
▁אבן	-3944
▁ייפ	-3945
▁שוח	-3946
▁כנסי	-3947
▁צודק	-3948
▁תפלל	-3949
▁בוהים	-3950
▁ובליק	-3951
▁ופעות	-3952
▁מצבים	-3953
▁קריאה	-3954
▁+	-3955
▁וגד	-3956
▁לרכ	-3957
▁מיידי	-3958
▁מסביר	-3959
▁זנ	-3960
▁לאן	-3961
▁ריג	-3962
▁אימפ	-3963
▁קושי	-3964
▁בדק	-3965
▁נדי	-3966
▁סקי	-3967
▁אורח	-3968
▁דוקט	-3969
▁השקע	-3970
▁וואי	-3971
▁חזית	-3972
▁יעשה	-3973
▁לולה	-3974
▁מעשה	-3975
▁שלמת	-3976
▁ורמלי	-3977
▁La	-3978
▁חטא	-3979
▁מנכ	-3980
▁רנק	-3981
▁סכסו	-3982
▁בסך	-3983
▁הצע	-3984
▁אהבת	-3985
▁ממני	-3986
▁כיבוש	-3987
▁מבטיח	-3988
▁טא	-3989
▁וקף	-3990
▁וקפ	-3991
▁יבר	-3992
▁משח	-3993
▁שזו	-3994
▁נוער	-3995
▁עניק	-3996
▁פליק	-3997
▁השקיע	-3998
▁יתרון	-3999
▁נוחות	-4000
▁אחים	-4001
▁בחרו	-4002
▁טנדר	-4003
▁כשאני	-4004
▁בדן	-4005
▁בלב	-4006
▁קטע	-4007
▁בשעה	-4008
▁למדת	-4009
▁תבצע	-4010
▁השלום	-4011
▁ברג	-4012
▁מום	-4013
▁מחה	-4014
▁אסטר	-4015
▁דואר	-4016
▁מטבח	-4017
▁רומא	-4018
▁שישי	-4019
▁אפשרת	-4020
▁תרופה	-4021
▁אתי	-4022
▁והפ	-4023
▁ביצע	-4024
▁הרים	-4025
▁חוצה	-4026
▁יקול	-4027
▁כלול	-4028
▁שישה	-4029
▁ותיהם	-4030
▁חודשי	-4031
▁רשימת	-4032
▁פד	-4033
▁אסר	-4034
▁ואב	-4035
▁ייל	-4036
▁צוג	-4037
▁בתוכ	-4038
▁דמוי	-4039
▁הקים	-4040
▁תנדב	-4041
▁ישואי	-4042
▁נסייה	-4043
ck	-4044
▁et	-4045
▁יושב	-4046
▁יעיל	-4047
▁ישור	-4048
▁כספי	-4049
▁סדרת	-4050
▁שואל	-4051
▁בלנות	-4052
▁ובילה	-4053
▁פגישה	-4054
▁כנע	-4055
▁פגנ	-4056
▁צום	-4057
▁יבור	-4058
▁לרכוש	-4059
▁עיתון	-4060
▁פשוטה	-4061
▁גרש	-4062
▁קום	-4063
▁יעוד	-4064
▁שלהן	-4065
▁שפעת	-4066
▁וניינ	-4067
▁לזהות	-4068
▁לישית	-4069
▁הצד	-4070
▁ופן	-4071
▁נפט	-4072
▁קחו	-4073
▁בטחת	-4074
▁מושב	-4075
▁מחבר	-4076
▁נקבע	-4077
▁וודאי	-4078
▁קשרים	-4079
▁שחרור	-4080
▁ביו	-4081
▁זהה	-4082
▁רבן	-4083
▁בגוף	-4084
▁ודעת	-4085
▁ישומ	-4086
▁וער	-4087
▁תחנ	-4088
▁ברוב	-4089
▁לילי	-4090
▁ממשל	-4091
▁סופי	-4092
▁פריז	-4093
▁בבקשה	-4094
▁חבורה	-4095
לט	-4096
▁1.	-4097
▁וכי	-4098
▁כיף	-4099
▁קלט	-4100
▁שפע	-4101
▁פייה	-4102
▁שלים	-4103
▁לעזוב	-4104
▁מחצית	-4105
▁קח	-4106
▁ורר	-4107
▁זינ	-4108
▁מפקד	-4109
▁פרסמ	-4110
▁רומנ	-4111
▁הצוות	-4112
▁בשני	-4113
▁דריך	-4114
▁חמאס	-4115
▁צאתי	-4116
▁קראו	-4117
▁ברחוב	-4118
▁לצורך	-4119
▁רגשתי	-4120
▁תור	-4121
▁חייל	-4122
▁קבלו	-4123
▁אשראי	-4124
ok	-4125
▁ce	-4126
▁sh	-4127
▁ייד	-4128
▁גובה	-4129
▁מתנה	-4130
▁לייצר	-4131
▁ent	-4132
▁במח	-4133
▁גיב	-4134
▁פוץ	-4135
▁וברת	-4136
▁ימור	-4137
▁כזאת	-4138
▁כניק	-4139
▁שוחר	-4140
▁שמור	-4141
▁תיקון	-4142
▁ושך	-4143
▁בסין	-4144
▁הצעה	-4145
▁מותג	-4146
▁הלקוח	-4147
▁בעד	-4148
▁יאל	-4149
▁ינך	-4150
▁ליג	-4151
▁צפה	-4152
▁תקל	-4153
▁תשע	-4154
▁להשת	-4155
▁תמוך	-4156
▁אורגנ	-4157
▁בגדים	-4158
▁וועדה	-4159
▁מוקדמ	-4160
▁נויות	-4161
▁כפת	-4162
▁קצה	-4163
▁בינה	-4164
▁לקוח	-4165
▁תגבר	-4166
▁בהיסט	-4167
▁להציע	-4168
▁ֲ	-4169
▁ברו	-4170
▁גייס	-4171
▁עמדה	-4172
▁חלוקת	-4173
▁דינ	-4174
▁ומץ	-4175
▁וסק	-4176
▁איתי	-4177
▁כנגד	-4178
▁לאתר	-4179
▁משטר	-4180
▁60	-4181
▁ch	-4182
▁na	-4183
▁וטו	-4184
▁נדל	-4185
▁אנדר	-4186
▁ברשת	-4187
▁דיאל	-4188
▁הצלח	-4189
▁נשמה	-4190
▁צפונ	-4191
▁מקובל	-4192
▁תזונה	-4193
and	-4194
▁איס	-4195
▁כון	-4196
▁לכו	-4197
▁ואיד	-4198
▁סיכו	-4199
▁עילה	-4200
▁רשמי	-4201
▁שכנע	-4202
▁טנדרט	-4203
▁שיחות	-4204
▁Sh	-4205
▁אשה	-4206
▁נחה	-4207
▁כולה	-4208
▁תחנת	-4209
▁חקירה	-4210
all	-4211
▁לץ	-4212
▁התקפ	-4213
▁וזרים	-4214
▁לומות	-4215
▁2.	-4216
▁ומנ	-4217
▁שקפ	-4218
▁איום	-4219
▁אינס	-4220
▁אללה	-4221
▁ודעה	-4222
▁יישב	-4223
▁קראי	-4224
▁רחבה	-4225
▁גליים	-4226
▁השתתף	-4227
▁יחסית	-4228
▁לולים	-4229
▁ליטים	-4230
ירי	-4231
▁בץ	-4232
▁האה	-4233
▁פגע	-4234
▁גנים	-4235
▁ישנה	-4236
▁צירה	-4237
▁שנתי	-4238
▁הבאות	-4239
▁מוסלמ	-4240
▁סמכים	-4241
▁Li	-4242
▁חדות	-4243
▁פגוע	-4244
▁ציינ	-4245
▁שליח	-4246
▁תנחל	-4247
▁האהבה	-4248
▁טיחות	-4249
▁לפתור	-4250
▁ולן	-4251
▁לאט	-4252
▁מפר	-4253
▁רגן	-4254
▁ופעה	-4255
▁חולק	-4256
▁עשתה	-4257
▁מחזור	-4258
▁מייצג	-4259
▁צמאות	-4260
▁רשמ	-4261
▁הורה	-4262
▁החזק	-4263
▁ומדת	-4264
▁חווה	-4265
▁תגרים	-4266
▁סגר	-4267
▁בעלת	-4268
▁הכין	-4269
▁טוענ	-4270
▁נעצר	-4271
▁לישון	-4272
▁לציין	-4273
▁שוחרר	-4274
▁תחלתי	-4275
▁Win	-4276
▁נטי	-4277
▁צומ	-4278
▁ירום	-4279
▁מבחן	-4280
▁אלינו	-4281
▁חומים	-4282
▁למידה	-4283
▁מדהימ	-4284
▁ממשיכ	-4285
▁עילים	-4286
▁תכוון	-4287
▁סיה	-4288
▁פנה	-4289
▁הערב	-4290
▁חלקם	-4291
▁טכני	-4292
▁תמקד	-4293
▁דענים	-4294
▁הרגיל	-4295
▁הרשמי	-4296
▁השתתפ	-4297
▁יימות	-4298
▁ישיים	-4299
gl	-4300
▁יגה	-4301
▁יוט	-4302
▁רקו	-4303
▁חזיר	-4304
▁לשתף	-4305
▁בטוחה	-4306
▁חידות	-4307
▁ליסטי	-4308
▁לקבוע	-4309
▁סמכות	-4310
▁יסר	-4311
▁שמן	-4312
▁איים	-4313
▁גברת	-4314
▁הראש	-4315
▁השתנ	-4316
▁וגדר	-4317
▁יזון	-4318
▁רחבי	-4319
▁גלובל	-4320
▁למכור	-4321
▁מסביב	-4322
▁תניהו	-4323
▁תרגום	-4324
סס	-4325
▁וץ	-4326
▁צצ	-4327
▁ינק	-4328
▁אמונ	-4329
▁אפקט	-4330
▁דגים	-4331
▁החלט	-4332
▁תערב	-4333
▁ורחים	-4334
▁מורים	-4335
▁סתיים	-4336
▁הסדר	-4337
▁ינוס	-4338
▁מידי	-4339
▁קילו	-4340
▁שיבה	-4341
▁תבסס	-4342
▁מניות	-4343
▁בוס	-4344
▁הלך	-4345
▁פיד	-4346
▁דרומ	-4347
▁הודה	-4348
▁ועצת	-4349
▁תקיפ	-4350
▁מימון	-4351
▁שגריר	-4352
▁#	-4353
▁ההש	-4354
▁מגע	-4355
▁אתרי	-4356
▁רכיב	-4357
▁תחבר	-4358
▁וגן	-4359
▁וחק	-4360
▁ליך	-4361
▁פרנס	-4362
▁קנדה	-4363
▁תכנן	-4364
▁אזורי	-4365
▁ולק	-4366
▁יראק	-4367
▁לוחמ	-4368
▁עביר	-4369
▁צוינ	-4370
▁קשים	-4371
▁רצוי	-4372
▁אהבתי	-4373
▁גילוי	-4374
▁הכריז	-4375
▁משתנה	-4376
▁שעברה	-4377
▁dow	-4378
▁והה	-4379
▁יוס	-4380
▁נובע	-4381
▁שומן	-4382
▁שיחק	-4383
▁Googl	-4384
▁בדרום	-4385
▁מינית	-4386
▁ספרות	-4387
▁100	-4388
▁Pro	-4389
▁וסמ	-4390
▁מכם	-4391
▁אצבע	-4392
▁בפועל	-4393
▁חשמלי	-4394
▁משחקי	-4395
▁יצול	-4396
▁מונע	-4397
▁הריים	-4398
▁ממשיך	-4399
הר	-4400
▁חא	-4401
▁מזו	-4402
▁גיעה	-4403
▁ינני	-4404
▁קצרה	-4405
▁הגבוה	-4406
▁וברים	-4407
▁שובות	-4408
▁ופה	-4409
▁פסיכ	-4410
▁רחיב	-4411
▁במשחק	-4412
▁המק	-4413
▁והא	-4414
▁פילה	-4415
ul	-4416
▁ולפ	-4417
▁להן	-4418
▁מאי	-4419
▁רני	-4420
▁אופי	-4421
▁רגשי	-4422
▁מכונה	-4423
▁An	-4424
▁אבר	-4425
▁דרי	-4426
▁הון	-4427
▁להב	-4428
▁פרה	-4429
▁צמצ	-4430
▁נשלח	-4431
▁וגיות	-4432
▁Ma	-4433
▁חיד	-4434
▁פופ	-4435
▁נייה	-4436
▁הזכות	-4437
▁הרוסי	-4438
▁גרי	-4439
▁זכו	-4440
▁יסד	-4441
▁שוויו	-4442
▁ארט	-4443
▁שלכ	-4444
▁בחלק	-4445
▁העור	-4446
▁חזקה	-4447
▁הלווא	-4448
▁17	-4449
▁אשמ	-4450
▁גינ	-4451
▁נומ	-4452
▁מחסו	-4453
▁שאלו	-4454
▁גיבור	-4455
▁בלו	-4456
▁דגל	-4457
▁טים	-4458
▁ימד	-4459
▁פוצ	-4460
▁מודע	-4461
▁נפגש	-4462
▁עצים	-4463
▁עשים	-4464
▁ובלים	-4465
▁מינים	-4466
▁Com	-4467
▁ופל	-4468
▁ללה	-4469
▁בועי	-4470
▁הצהר	-4471
▁ודיע	-4472
▁כפול	-4473
▁סימפ	-4474
▁שימש	-4475
▁צליחו	-4476
▁דת	-4477
▁בבתי	-4478
▁ווית	-4479
▁יוון	-4480
▁ללקוח	-4481
▁עתידי	-4482
▁הוו	-4483
▁ולג	-4484
▁יזמ	-4485
▁עמו	-4486
▁בנתי	-4487
▁המדע	-4488
▁מורת	-4489
▁דן	-4490
▁איפ	-4491
▁ונצ	-4492
▁יצה	-4493
▁נוצ	-4494
▁רנס	-4495
▁רקט	-4496
▁כניס	-4497
▁ניסי	-4498
▁תקפה	-4499
▁De	-4500
▁נפל	-4501
▁סתר	-4502
▁שים	-4503
▁תית	-4504
▁התאמ	-4505
▁בעיני	-4506
▁אטה	-4507
▁ורס	-4508
▁פרד	-4509
▁בוצע	-4510
▁לאסי	-4511
▁ממלי	-4512
▁הפעיל	-4513
▁Mo	-4514
▁רסה	-4515
▁שלט	-4516
▁יטול	-4517
▁פנות	-4518
▁השראה	-4519
ge	-4520
▁גבל	-4521
▁ורא	-4522
▁סוס	-4523
▁ליונ	-4524
▁עמים	-4525
▁עשור	-4526
▁יתך	-4527
▁גבול	-4528
▁ורנ	-4529
▁טלק	-4530
▁רחק	-4531
▁דמיו	-4532
▁קדוש	-4533
▁הרשות	-4534
▁צאו	-4535
▁חזיק	-4536
▁ידיד	-4537
▁מוסד	-4538
▁פניו	-4539
▁טין	-4540
▁בתא	-4541
▁וזמ	-4542
▁זרח	-4543
▁יפי	-4544
▁סינ	-4545
▁סרב	-4546
▁בורג	-4547
▁הוצא	-4548
▁ומדים	-4549
▁משקיע	-4550
ort	-4551
▁Ex	-4552
▁הארי	-4553
▁סכו	-4554
▁שריר	-4555
▁Th	-4556
▁ברא	-4557
▁טרון	-4558
▁מבית	-4559
▁שתנה	-4560
▁במחקר	-4561
▁הות	-4562
▁יתח	-4563
▁נסו	-4564
▁ברוח	-4565
▁וויל	-4566
▁זכיר	-4567
▁טוחים	-4568
▁יירים	-4569
▁ארק	-4570
▁האב	-4571
▁מתכ	-4572
▁שוף	-4573
▁יסות	-4574
▁שכונ	-4575
▁הבלתי	-4576
▁בות	-4577
▁ומצ	-4578
▁ותר	-4579
▁ערי	-4580
▁טענה	-4581
▁ללים	-4582
▁למדי	-4583
▁רכוש	-4584
▁רקים	-4585
▁תחילו	-4586
▁וך	-4587
▁ראנ	-4588
▁הכלב	-4589
▁הציע	-4590
▁משיכו	-4591
יבל	-4592
▁אוס	-4593
▁בצע	-4594
▁ובע	-4595
▁לתה	-4596
▁וזרת	-4597
▁ותרת	-4598
▁מרים	-4599
▁שקיבל	-4600
▁לקט	-4601
▁נרי	-4602
▁וסים	-4603
▁יצור	-4604
▁ההר	-4605
▁ובה	-4606
▁לאמי	-4607
▁מעתי	-4608
▁נציג	-4609
▁ביטחו	-4610
▁ימנים	-4611
▁וטר	-4612
▁דמיי	-4613
▁יסוי	-4614
▁קריא	-4615
▁לעצמו	-4616
▁דובר	-4617
▁הכרח	-4618
▁ונים	-4619
▁לפים	-4620
▁סתיר	-4621
▁בוש	-4622
▁לעבר	-4623
▁תנגד	-4624
▁דומים	-4625
▁מפעיל	-4626
▁דבק	-4627
▁המל	-4628
▁תוס	-4629
▁חוזה	-4630
▁מתוק	-4631
▁עמיד	-4632
▁תיימ	-4633
▁לויות	-4634
▁זונ	-4635
▁נייר	-4636
▁Ar	-4637
▁Con	-4638
▁הבר	-4639
▁נער	-4640
▁ינים	-4641
▁רגוני	-4642
▁אפל	-4643
▁דני	-4644
▁לדא	-4645
▁ליק	-4646
▁רגנ	-4647
▁ואמר	-4648
▁לבנו	-4649
▁התקבל	-4650
▁ליוני	-4651
▁ביה	-4652
▁הרע	-4653
▁להו	-4654
▁שיט	-4655
▁ומונ	-4656
▁נינו	-4657
ub	-4658
▁פיו	-4659
▁ברים	-4660
▁חושת	-4661
▁יינו	-4662
▁שינו	-4663
▁תאבד	-4664
▁גבלות	-4665
▁יסטים	-4666
▁ציפור	-4667
▁חלש	-4668
▁למצב	-4669
▁עירו	-4670
▁ar	-4671
▁לכס	-4672
▁מתמ	-4673
▁צרו	-4674
▁הרחב	-4675
▁ובדת	-4676
▁ישות	-4677
▁לוצי	-4678
▁למות	-4679
▁נוכח	-4680
▁מסורת	-4681
▁קם	-4682
▁חובר	-4683
▁יבוא	-4684
▁סוכר	-4685
▁עירה	-4686
▁שימה	-4687
▁עג	-4688
▁היד	-4689
▁וגה	-4690
▁כוב	-4691
▁פלה	-4692
▁שור	-4693
▁דרגה	-4694
▁האישי	-4695
▁פירות	-4696
▁רגישה	-4697
▁טרק	-4698
▁יטב	-4699
▁שיפ	-4700
▁בינו	-4701
▁הליך	-4702
▁קרות	-4703
▁רורה	-4704
▁ושע	-4705
▁כינ	-4706
▁מוט	-4707
▁מכך	-4708
▁צאה	-4709
▁שותף	-4710
▁ia	-4711
▁האש	-4712
▁ירו	-4713
▁צות	-4714
▁סטרי	-4715
ni	-4716
▁אנא	-4717
▁וגש	-4718
▁ירק	-4719
▁להח	-4720
▁מדד	-4721
▁עצם	-4722
▁רמי	-4723
▁לידי	-4724
▁פריט	-4725
▁צרכים	-4726
ill	-4727
▁WE	-4728
▁וסל	-4729
▁יטי	-4730
▁שלמה	-4731
▁=	-4732
משל	-4733
▁הנס	-4734
▁וטי	-4735
▁מרק	-4736
▁עולמ	-4737
▁הממשל	-4738
ma	-4739
▁׳	-4740
▁Int	-4741
▁באה	-4742
▁יול	-4743
▁כנה	-4744
▁לנט	-4745
▁תון	-4746
▁כרחי	-4747
▁לוודא	-4748
▁שימות	-4749
▁דיכ	-4750
▁והל	-4751
▁יכם	-4752
▁מיע	-4753
▁מפרט	-4754
▁Z	-4755
▁Ro	-4756
▁פצע	-4757
▁צוב	-4758
▁הפרטי	-4759
ig	-4760
▁רת	-4761
▁Wor	-4762
▁גיש	-4763
▁בסרט	-4764
▁הגיש	-4765
▁ופנה	-4766
▁החלטת	-4767
ark	-4768
▁ra	-4769
▁קפ	-4770
▁וגי	-4771
▁זהר	-4772
▁מכס	-4773
▁זרחי	-4774
▁ידות	-4775
▁נהיג	-4776
▁שאיר	-4777
▁סוציא	-4778
est	-4779
▁לבל	-4780
▁רוש	-4781
▁וקים	-4782
▁יווני	-4783
▁ראיות	-4784
ome	-4785
▁זע	-4786
▁התג	-4787
▁חין	-4788
▁עוט	-4789
▁תיב	-4790
▁בכיר	-4791
▁ובין	-4792
▁רטון	-4793
▁שליט	-4794
ff	-4795
ard	-4796
▁ונא	-4797
▁לבש	-4798
▁קינ	-4799
▁שוד	-4800
▁עמדת	-4801
▁יינים	-4802
▁שתמשו	-4803
▁וקי	-4804
▁קוק	-4805
▁רכה	-4806
▁וציא	-4807
▁ערכת	-4808
רכז	-4809
▁ובנ	-4810
▁נון	-4811
▁שגת	-4812
▁הירה	-4813
▁המרכז	-4814
▁ותינו	-4815
▁חומרי	-4816
▁גשת	-4817
▁יטו	-4818
▁מלט	-4819
▁דעות	-4820
▁נועד	-4821
▁המספר	-4822
▁נישוא	-4823
▁זם	-4824
▁ליצ	-4825
▁פלו	-4826
▁הגיב	-4827
▁ועדת	-4828
▁וצרת	-4829
▁עדות	-4830
▁צפו	-4831
▁ועיל	-4832
▁שתות	-4833
▁הכולל	-4834
▁והג	-4835
▁ורת	-4836
▁מתק	-4837
▁באים	-4838
▁הווה	-4839
▁הופע	-4840
▁הסיר	-4841
▁חזרו	-4842
▁ילים	-4843
▁פקוד	-4844
▁קונים	-4845
io	-4846
▁שפת	-4847
▁dows	-4848
▁בטים	-4849
▁חילו	-4850
▁מוני	-4851
▁מלמד	-4852
▁פעול	-4853
▁ציפי	-4854
▁וגו	-4855
▁להכ	-4856
▁סלו	-4857
▁[...	-4858
▁ment	-4859
▁אורך	-4860
▁יולוג	-4861
▁תיאור	-4862
ניס	-4863
▁וטה	-4864
▁וקש	-4865
▁יתכן	-4866
▁ניסה	-4867
▁עמדו	-4868
▁[...]	-4869
▁הכניס	-4870
▁כב	-4871
▁פנ	-4872
▁רר	-4873
▁גני	-4874
▁ואן	-4875
▁בשטח	-4876
▁ייעו	-4877
▁סובל	-4878
▁נייני	-4879
▁ספרדי	-4880
▁אשם	-4881
▁בחו	-4882
▁יסא	-4883
▁נשא	-4884
▁שיב	-4885
▁דיי	-4886
▁אוטו	-4887
▁טחים	-4888
▁יסון	-4889
▁רף	-4890
▁cro	-4891
▁אונ	-4892
▁הדר	-4893
▁ופיה	-4894
▁רמונ	-4895
▁ביר	-4896
▁בספר	-4897
▁לילד	-4898
▁עתיק	-4899
qu	-4900
▁סה	-4901
▁גדר	-4902
▁גנת	-4903
▁הדת	-4904
▁ניע	-4905
▁ציע	-4906
▁קבר	-4907
▁אוקי	-4908
▁רסיט	-4909
▁מוחלט	-4910
▁ביד	-4911
▁העס	-4912
▁זיכ	-4913
▁פקד	-4914
▁ציעה	-4915
BA	-4916
▁^	-4917
ing	-4918
▁Sp	-4919
▁ירב	-4920
▁סקת	-4921
▁העסקי	-4922
▁אורי	-4923
▁בדבר	-4924
▁ישיר	-4925
▁כתבו	-4926
▁תביע	-4927
▁המנ	-4928
▁כוז	-4929
▁מיש	-4930
▁נין	-4931
▁תרח	-4932
▁וטים	-4933
▁עברת	-4934
▁Q	-4935
▁Ad	-4936
▁דפס	-4937
▁הוב	-4938
▁הלכ	-4939
▁הפא	-4940
▁וואר	-4941
▁וסיפ	-4942
▁כונה	-4943
▁ערכו	-4944
▁יאת	-4945
▁מינו	-4946
▁ענות	-4947
▁WEB	-4948
▁יתם	-4949
▁שון	-4950
▁בשתי	-4951
▁ולות	-4952
▁רגול	-4953
▁יפנ	-4954
▁בדים	-4955
▁יגוד	-4956
▁קרים	-4957
▁מצביע	-4958
▁ook	-4959
▁כרת	-4960
▁רשה	-4961
▁אומנ	-4962
▁ריאל	-4963
▁רשימ	-4964
▁הצג	-4965
▁התכ	-4966
▁ויל	-4967
▁ומק	-4968
▁כתבי	-4969
▁מאמצ	-4970
▁סיני	-4971
▁קווי	-4972
▁תרחש	-4973
▁והנ	-4974
▁נמי	-4975
▁מקרי	-4976
▁פריי	-4977
▁הפיזי	-4978
▁j	-4979
▁וונ	-4980
▁ידר	-4981
▁לרי	-4982
▁מונה	-4983
▁עודי	-4984
▁ta	-4985
▁חוט	-4986
▁שיג	-4987
▁אומה	-4988
▁מופע	-4989
▁נעים	-4990
▁רסים	-4991
▁פילוס	-4992
▁so	-4993
▁זור	-4994
▁דוני	-4995
▁וביל	-4996
▁ורשת	-4997
▁קיימ	-4998
▁ריכה	-4999
▁Lo	-5000
▁כיל	-5001
▁לאל	-5002
▁כנים	-5003
▁מלכת	-5004
▁שיים	-5005
▁טפ	-5006
▁בגר	-5007
▁טרו	-5008
▁בייק	-5009
▁בלות	-5010
▁יפוי	-5011
▁משני	-5012
▁נמוכ	-5013
▁קודמ	-5014
▁הצעיר	-5015
▁ימושי	-5016
▁דונ	-5017
▁דרו	-5018
▁המז	-5019
▁רצי	-5020
▁בורה	-5021
▁פריד	-5022
▁אפשרו	-5023
▁מתג	-5024
▁מתה	-5025
▁וויי	-5026
▁להתח	-5027
▁למדו	-5028
▁פץ	-5029
▁בתו	-5030
▁הקל	-5031
▁ואר	-5032
▁מפי	-5033
▁נינ	-5034
▁הביט	-5035
▁ie	-5036
▁דס	-5037
▁בוי	-5038
▁במו	-5039
▁וזו	-5040
▁נהנ	-5041
▁פינ	-5042
▁קין	-5043
▁יקרו	-5044
▁מצוי	-5045
▁מקדש	-5046
▁ריטי	-5047
▁כוונת	-5048
▁19	-5049
▁שצ	-5050
▁דיס	-5051
▁והש	-5052
▁נתח	-5053
▁רכו	-5054
▁השיב	-5055
▁חלקה	-5056
▁מכלל	-5057
▁גורים	-5058
▁הגבול	-5059
▁וראות	-5060
▁ניסיו	-5061
▁אמו	-5062
▁ספס	-5063
▁ורני	-5064
▁21	-5065
▁הוג	-5066
▁וקב	-5067
▁ורם	-5068
▁חלו	-5069
▁מבו	-5070
▁הרגש	-5071
▁ליזם	-5072
▁ערבי	-5073
▁שאלת	-5074
▁אנר	-5075
▁ילר	-5076
▁לבי	-5077
▁מרו	-5078
▁סוע	-5079
▁צעת	-5080
▁ראק	-5081
▁הציג	-5082
▁וויד	-5083
▁ספרו	-5084
▁עובדי	-5085
▁ig	-5086
▁וממ	-5087
▁לבנ	-5088
▁תפר	-5089
▁איננ	-5090
▁יגיע	-5091
▁an	-5092
▁והב	-5093
▁והי	-5094
▁וצב	-5095
▁טורי	-5096
▁מבני	-5097
our	-5098
▁נל	-5099
▁מוי	-5100
▁שמיים	-5101
▁דלה	-5102
▁יקת	-5103
▁קות	-5104
▁קרו	-5105
▁שאף	-5106
▁תימ	-5107
▁לומד	-5108
▁לכלית	-5109
▁נתוני	-5110
▁em	-5111
▁שף	-5112
▁אכז	-5113
▁ובמ	-5114
▁ומס	-5115
▁לוב	-5116
▁החלל	-5117
▁וכרת	-5118
▁מהלך	-5119
▁רצינ	-5120
▁35	-5121
▁צט	-5122
▁התר	-5123
▁עלת	-5124
▁שתו	-5125
▁הרוס	-5126
▁ורן	-5127
▁טעו	-5128
▁ריא	-5129
▁ריז	-5130
▁ומים	-5131
▁חקיר	-5132
▁יפול	-5133
▁אלוהי	-5134
▁ברק	-5135
▁דרל	-5136
▁ולצ	-5137
▁יחה	-5138
▁ציב	-5139
▁שעל	-5140
▁אמין	-5141
▁ועדה	-5142
▁יירה	-5143
▁לורי	-5144
▁שולח	-5145
▁נוצרי	-5146
▁עט	-5147
▁זות	-5148
▁פיט	-5149
▁תים	-5150
▁בודה	-5151
▁הצי	-5152
▁התש	-5153
▁ראי	-5154
▁תאר	-5155
▁תמח	-5156
▁ותרו	-5157
▁ציפ	-5158
▁שכב	-5159
▁דרים	-5160
▁רובה	-5161
ack	-5162
▁האנ	-5163
▁ונט	-5164
▁רתי	-5165
▁מדיה	-5166
ld	-5167
▁Co	-5168
▁Me	-5169
▁העת	-5170
▁וקו	-5171
▁המלא	-5172
▁ראינ	-5173
▁שימו	-5174
▁קיבלו	-5175
▁דיב	-5176
▁ורמ	-5177
▁חדשנ	-5178
▁כתיב	-5179
ap	-5180
va	-5181
▁ועבר	-5182
▁חשבים	-5183
▁70	-5184
▁אנה	-5185
▁וקל	-5186
▁בירו	-5187
▁שירה	-5188
▁שרות	-5189
▁אמינו	-5190
▁נמצאו	-5191
▁Po	-5192
▁ודת	-5193
▁חרר	-5194
▁יומ	-5195
▁שיי	-5196
▁80	-5197
▁Wh	-5198
▁טמ	-5199
▁אדו	-5200
▁דיה	-5201
▁להע	-5202
▁סום	-5203
▁רופ	-5204
▁נוסע	-5205
▁שס	-5206
▁ght	-5207
▁לימ	-5208
▁בריו	-5209
▁הביא	-5210
▁כנסו	-5211
▁תחשב	-5212
▁is	-5213
▁תך	-5214
▁וסד	-5215
▁ילמ	-5216
▁לאים	-5217
▁עה	-5218
▁ive	-5219
▁אמנים	-5220
▁צג	-5221
▁אחי	-5222
▁דוי	-5223
▁הבן	-5224
▁ורף	-5225
▁לים	-5226
▁לית	-5227
▁טלפו	-5228
▁יסית	-5229
▁כבות	-5230
▁כנות	-5231
▁סטון	-5232
▁רוסי	-5233
▁רחים	-5234
▁שניה	-5235
▁nce	-5236
▁ישיו	-5237
▁הקה	-5238
▁חולי	-5239
▁להסת	-5240
▁שחקני	-5241
▁no	-5242
▁יקל	-5243
▁ליה	-5244
▁סים	-5245
▁פוק	-5246
▁הורי	-5247
▁ומות	-5248
▁חיסו	-5249
ke	-5250
▁חן	-5251
▁ההפ	-5252
▁שרק	-5253
▁הישג	-5254
▁התחל	-5255
▁ורמת	-5256
▁ורב	-5257
▁חרת	-5258
▁אחיו	-5259
▁אמינ	-5260
▁בוחר	-5261
▁גילה	-5262
▁לחוק	-5263
▁לשתי	-5264
▁משתנ	-5265
▁סיימ	-5266
▁בורים	-5267
th	-5268
▁יכלו	-5269
▁גוי	-5270
▁לקת	-5271
▁מאפ	-5272
▁אביב	-5273
▁בחרת	-5274
▁ישנו	-5275
▁\	-5276
▁חימ	-5277
▁ימא	-5278
▁יסת	-5279
▁ריט	-5280
▁הבין	-5281
▁ליחה	-5282
ers	-5283
▁Sc	-5284
▁To	-5285
▁והק	-5286
▁וזנ	-5287
▁יזר	-5288
▁כשר	-5289
▁רכז	-5290
▁ספיק	-5291
▁22	-5292
▁ni	-5293
▁ילת	-5294
▁לינ	-5295
▁קליט	-5296
▁במק	-5297
▁יקס	-5298
▁סטט	-5299
▁שרו	-5300
▁יווי	-5301
▁מכונ	-5302
▁ריבו	-5303
▁אחריו	-5304
▁עוניי	-5305
▁גלו	-5306
▁פקו	-5307
▁קרת	-5308
▁שבר	-5309
▁תבר	-5310
▁לופי	-5311
▁דוש	-5312
▁כאל	-5313
▁נהי	-5314
▁פחת	-5315
▁קלות	-5316
▁והח	-5317
▁ישו	-5318
▁המוני	-5319
▁Ph	-5320
▁גע	-5321
▁הקב	-5322
▁יעו	-5323
▁לכה	-5324
▁ירס	-5325
▁ציד	-5326
▁ולרי	-5327
▁זציה	-5328
▁ליני	-5329
▁מוזיק	-5330
ליכ	-5331
▁דות	-5332
▁ודק	-5333
▁לשכ	-5334
▁מנט	-5335
▁תגל	-5336
▁מייל	-5337
▁ריון	-5338
▁רעות	-5339
▁תהליכ	-5340
▁Bl	-5341
▁יער	-5342
▁מיק	-5343
▁דריש	-5344
▁ידיו	-5345
▁כוון	-5346
▁שליש	-5347
▁מהא	-5348
▁ight	-5349
▁וביי	-5350
▁וכנה	-5351
▁Le	-5352
▁אנט	-5353
▁בחן	-5354
▁טינ	-5355
▁מקס	-5356
▁רול	-5357
▁יאנ	-5358
▁להד	-5359
▁מלכ	-5360
▁ודאי	-5361
▁ציאה	-5362
▁קע	-5363
▁ותי	-5364
▁הקול	-5365
▁חשבת	-5366
▁יפות	-5367
▁Ta	-5368
▁דחו	-5369
▁מסכ	-5370
▁עמי	-5371
▁הפסק	-5372
▁יניו	-5373
▁קבלה	-5374
▁המזרח	-5375
ell	-5376
▁Pl	-5377
▁קת	-5378
▁One	-5379
▁ובו	-5380
▁ולב	-5381
▁ורח	-5382
▁לחת	-5383
▁משע	-5384
▁שוט	-5385
▁הבנת	-5386
▁הנפש	-5387
▁ותית	-5388
▁נהרג	-5389
▁וסלמי	-5390
▁למידי	-5391
▁מהנ	-5392
▁לומט	-5393
▁רשים	-5394
▁דקה	-5395
▁תגי	-5396
▁היוו	-5397
▁מזרח	-5398
▁יעורי	-5399
▁He	-5400
▁סך	-5401
▁ישא	-5402
▁קיק	-5403
▁נוחה	-5404
▁סיקו	-5405
▁צועים	-5406
מצא	-5407
▁ודא	-5408
▁ושכ	-5409
▁חיצ	-5410
▁יאר	-5411
▁פון	-5412
▁אחור	-5413
▁יבוי	-5414
▁שנמצא	-5415
▁היצ	-5416
▁יסה	-5417
▁נדו	-5418
▁אימו	-5419
▁פורו	-5420
▁זיכרו	-5421
▁מחירי	-5422
▁סביבת	-5423
▁·	-5424
סיס	-5425
▁וכב	-5426
▁כנת	-5427
▁מהת	-5428
▁שמת	-5429
▁מהפכ	-5430
▁הבסיס	-5431
▁23	-5432
▁ge	-5433
▁מגז	-5434
▁ברות	-5435
▁גרות	-5436
▁ייתי	-5437
▁עיית	-5438
▁Di	-5439
▁ri	-5440
▁פדר	-5441
▁האחר	-5442
▁ורכב	-5443
▁חווי	-5444
▁מקוו	-5445
▁התאים	-5446
▁ואלים	-5447
▁ערבית	-5448
▁90	-5449
▁אוט	-5450
▁דעה	-5451
▁וטב	-5452
▁ורכ	-5453
▁ינם	-5454
▁צגת	-5455
▁מנהלי	-5456
▁טיס	-5457
▁רטו	-5458
▁ניסו	-5459
▁ma	-5460
▁התב	-5461
▁ותם	-5462
▁כין	-5463
▁מנו	-5464
▁מצפ	-5465
▁נטו	-5466
▁סוך	-5467
▁החבר	-5468
▁ימוד	-5469
▁פניה	-5470
▁nd	-5471
▁עקו	-5472
▁וכנות	-5473
▁ננ	-5474
▁גרו	-5475
▁מתע	-5476
▁רתו	-5477
▁דיוק	-5478
▁ילדי	-5479
▁עבדו	-5480
▁צרכי	-5481
▁ימודי	-5482
▁גיר	-5483
▁זמנ	-5484
▁ציו	-5485
▁הפרס	-5486
▁יוונ	-5487
▁כנסה	-5488
▁מוסר	-5489
▁מוצע	-5490
ue	-5491
▁ׂ	-5492
▁36	-5493
▁En	-5494
▁נם	-5495
▁בעו	-5496
▁יקי	-5497
▁נחש	-5498
▁בימי	-5499
▁חובות	-5500
int	-5501
▁ובד	-5502
▁ליט	-5503
▁מאס	-5504
▁אבות	-5505
▁ינטר	-5506
▁כירו	-5507
▁נורמ	-5508
▁המערב	-5509
▁וונים	-5510
▁מבי	-5511
▁צים	-5512
▁דרכי	-5513
▁רונות	-5514
▁28	-5515
▁פיה	-5516
▁גלים	-5517
▁ולדו	-5518
▁ניצח	-5519
▁פלסטי	-5520
▁ׁ	-5521
▁We	-5522
▁soft	-5523
▁הווי	-5524
▁ועדו	-5525
▁יכוי	-5526
▁לשיר	-5527
▁עבוד	-5528
▁פלסט	-5529
▁שורות	-5530
▁ph	-5531
▁אספ	-5532
▁המט	-5533
▁כנן	-5534
▁ללו	-5535
▁שנא	-5536
▁שקל	-5537
▁גרום	-5538
▁חוקר	-5539
▁אנגלי	-5540
▁המשטר	-5541
▁(1	-5542
▁3.	-5543
▁הממ	-5544
▁לונ	-5545
▁נתה	-5546
▁רגי	-5547
▁רמן	-5548
▁יעות	-5549
▁חירים	-5550
▁Man	-5551
▁אמץ	-5552
▁וסיף	-5553
▁ופית	-5554
▁זמנו	-5555
▁המנהל	-5556
▁כניות	-5557
ss	-5558
▁z	-5559
▁דלי	-5560
▁תופ	-5561
▁גילו	-5562
▁מקסי	-5563
ry	-5564
▁האפ	-5565
▁ריי	-5566
▁שהב	-5567
▁קולות	-5568
ust	-5569
▁ומם	-5570
▁ליא	-5571
▁מלים	-5572
▁רויות	-5573
▁45	-5574
▁אגר	-5575
▁גרה	-5576
▁ולח	-5577
▁סיפ	-5578
▁קנו	-5579
▁ברתי	-5580
▁יולי	-5581
▁ילומ	-5582
▁לכתי	-5583
▁לומים	-5584
▁Am	-5585
▁צנ	-5586
▁השו	-5587
▁בבר	-5588
▁כיפ	-5589
▁נטל	-5590
▁פרצ	-5591
▁ריכ	-5592
▁רין	-5593
▁תינ	-5594
▁יקאי	-5595
▁קטור	-5596
▁שמית	-5597
▁תיקה	-5598
▁המקור	-5599
▁Cl	-5600
▁לחו	-5601
▁קיצ	-5602
▁קסי	-5603
▁גנון	-5604
▁לבים	-5605
▁פנית	-5606
ine	-5607
▁Fi	-5608
▁Is	-5609
▁ry	-5610
▁טונ	-5611
▁התיי	-5612
▁ורמו	-5613
▁יסים	-5614
▁מסור	-5615
▁נפשי	-5616
▁ריות	-5617
▁האפשר	-5618
▁עמדות	-5619
-3	-5620
▁הסט	-5621
▁ועה	-5622
▁כלת	-5623
▁פרת	-5624
▁קמה	-5625
▁חמים	-5626
▁יבית	-5627
▁צעות	-5628
▁תפיל	-5629
▁יונות	-5630
▁גאה	-5631
▁הצט	-5632
▁יחת	-5633
▁ילך	-5634
▁ובני	-5635
▁כלית	-5636
▁כמים	-5637
▁Be	-5638
▁אנס	-5639
▁החו	-5640
▁ווא	-5641
▁לטה	-5642
▁גלות	-5643
▁הפרו	-5644
▁ופות	-5645
▁רגלי	-5646
-5	-5647
▁יבו	-5648
▁דיעה	-5649
▁נהיגי	-5650
▁הכד	-5651
▁טוס	-5652
▁נתק	-5653
▁רבו	-5654
▁ייצג	-5655
▁מנות	-5656
▁ריקה	-5657
▁תגוב	-5658
fe	-5659
▁טול	-5660
▁נופ	-5661
▁רכי	-5662
▁בדות	-5663
▁ייקט	-5664
▁מבקר	-5665
▁פיים	-5666
▁תחוש	-5667
▁ודדים	-5668
▁ינטרס	-5669
▁27	-5670
▁הקט	-5671
▁כית	-5672
▁נאצ	-5673
▁שבח	-5674
▁לדות	-5675
▁שקיע	-5676
are	-5677
▁הומו	-5678
▁טימי	-5679
▁ציונ	-5680
▁תכונ	-5681
▁הכדור	-5682
▁מומחי	-5683
ast	-5684
▁דדי	-5685
▁האט	-5686
▁יאה	-5687
▁למת	-5688
▁מתב	-5689
▁שפר	-5690
▁ישון	-5691
▁בסביב	-5692
▁מלכות	-5693
▁he	-5694
▁דוא	-5695
▁מחז	-5696
▁פעת	-5697
▁בוגר	-5698
▁ברלי	-5699
▁יקאים	-5700
▁one	-5701
▁והע	-5702
▁טלנ	-5703
▁הולי	-5704
ate	-5705
▁בון	-5706
▁האח	-5707
▁כרה	-5708
▁לשה	-5709
▁שעת	-5710
▁הורא	-5711
▁שמעת	-5712
▁ומיים	-5713
▁‬	-5714
▁סף	-5715
▁New	-5716
▁ern	-5717
▁התל	-5718
▁וכה	-5719
▁בטחה	-5720
▁צביע	-5721
▁רטיים	-5722
▁וחס	-5723
▁זבו	-5724
▁חרד	-5725
▁רבע	-5726
▁בקשת	-5727
▁האמנ	-5728
▁נאצי	-5729
▁קטיבי	-5730
▁שפעות	-5731
ga	-5732
ועי	-5733
▁Wi	-5734
▁פך	-5735
▁דיל	-5736
▁היג	-5737
▁וחי	-5738
▁מיס	-5739
▁סימ	-5740
▁רור	-5741
▁המלצ	-5742
▁חמיש	-5743
▁יטור	-5744
▁משלו	-5745
▁סיבי	-5746
▁פרות	-5747
▁ירועי	-5748
ith	-5749
▁(2	-5750
▁ly	-5751
▁בסס	-5752
▁חיו	-5753
▁ייח	-5754
▁קוש	-5755
▁אמרת	-5756
▁להתב	-5757
▁פקיד	-5758
▁ביעות	-5759
▁יונים	-5760
ver	-5761
▁ההג	-5762
▁עכב	-5763
▁הצרכ	-5764
▁מחים	-5765
▁ערכה	-5766
▁תמיכ	-5767
▁ממך	-5768
▁צחי	-5769
▁גידו	-5770
▁תנות	-5771
▁הגרמנ	-5772
▁כירים	-5773
▁המג	-5774
▁תמכ	-5775
▁ונית	-5776
▁חלטת	-5777
▁אמה	-5778
▁בפר	-5779
▁גוג	-5780
▁ודו	-5781
▁עים	-5782
▁החזר	-5783
▁כותר	-5784
▁קנים	-5785
▁Sa	-5786
▁be	-5787
▁בדה	-5788
▁חדים	-5789
▁טריו	-5790
▁פנימ	-5791
▁כונים	-5792
▁App	-5793
▁גרע	-5794
▁ואמ	-5795
▁26	-5796
▁בשת	-5797
▁גבי	-5798
▁תיכ	-5799
▁וודא	-5800
▁ותיי	-5801
▁פתור	-5802
▁קדים	-5803
▁שגים	-5804
▁שלטו	-5805
▁החזיק	-5806
▁ברנ	-5807
▁ויס	-5808
▁נחת	-5809
▁בילה	-5810
▁טס	-5811
▁ורצ	-5812
▁מרצ	-5813
▁אליי	-5814
▁ניהם	-5815
▁ערכי	-5816
▁פינה	-5817
▁מויות	-5818
▁זד	-5819
▁טופ	-5820
▁רלי	-5821
▁וצרו	-5822
▁יליא	-5823
▁מעות	-5824
ובד	-5825
▁כרי	-5826
▁ילוי	-5827
▁ליטו	-5828
▁הליכי	-5829
▁וגוסט	-5830
ect	-5831
▁ממי	-5832
▁עצה	-5833
▁תוק	-5834
▁חברו	-5835
▁ניית	-5836
▁עצור	-5837
▁קלינ	-5838
▁רומי	-5839
▁רוני	-5840
ore	-5841
▁Su	-5842
▁גת	-5843
▁man	-5844
▁ure	-5845
▁צינ	-5846
▁קבי	-5847
▁הדרכ	-5848
▁עסקה	-5849
▁Tr	-5850
▁ex	-5851
▁ion	-5852
▁חלפ	-5853
▁פוח	-5854
▁אלים	-5855
▁גיעו	-5856
▁ומבי	-5857
▁קאות	-5858
▁ואחרי	-5859
▁רטיסי	-5860
▁ושה	-5861
▁זים	-5862
▁זין	-5863
▁חלה	-5864
▁טות	-5865
▁ציי	-5866
▁משמע	-5867
▁עורב	-5868
▁ותיות	-5869
▁{	-5870
▁ברכ	-5871
▁כים	-5872
▁מרה	-5873
▁עצות	-5874
▁שימת	-5875
▁תונה	-5876
אז	-5877
oll	-5878
▁אדי	-5879
▁איז	-5880
▁בקו	-5881
▁חתו	-5882
▁ניפ	-5883
▁צפי	-5884
▁מושל	-5885
▁ניים	-5886
▁קירה	-5887
▁יזציה	-5888
▁רגישו	-5889
▁Uni	-5890
▁לאף	-5891
▁מתל	-5892
▁פקט	-5893
▁שנח	-5894
▁המסע	-5895
▁וראה	-5896
▁סודי	-5897
▁ראשו	-5898
▁Te	-5899
▁קן	-5900
▁ble	-5901
▁ובא	-5902
▁ומת	-5903
▁יחו	-5904
▁מעוד	-5905
▁נטלי	-5906
▁צבעו	-5907
▁תקני	-5908
+]	-5909
vi	-5910
▁[+]	-5911
▁אגו	-5912
▁בכי	-5913
▁בצי	-5914
▁גיה	-5915
▁לאת	-5916
▁צבו	-5917
▁אחות	-5918
▁היבט	-5919
▁יאטר	-5920
▁כרות	-5921
▁מצרי	-5922
▁עשות	-5923
▁המיני	-5924
▁מריקנ	-5925
▁הונ	-5926
▁חסו	-5927
▁סיד	-5928
▁שינ	-5929
▁ללות	-5930
▁מאמצי	-5931
▁li	-5932
▁us	-5933
▁Mar	-5934
▁בלא	-5935
▁חשו	-5936
▁לאס	-5937
▁ספו	-5938
▁לחבר	-5939
▁רידה	-5940
▁רווחי	-5941
▁שתתפו	-5942
▁IP	-5943
▁יאמ	-5944
▁כשמ	-5945
▁מתר	-5946
▁הראו	-5947
▁לכות	-5948
▁תנהג	-5949
▁תשוב	-5950
▁ורשים	-5951
▁II	-5952
▁Off	-5953
▁ברה	-5954
▁הגבר	-5955
▁מלאי	-5956
▁מתים	-5957
▁תלונ	-5958
▁בויות	-5959
BC	-5960
▁ופו	-5961
▁כיח	-5962
▁מחק	-5963
▁סכנ	-5964
▁פוא	-5965
▁פלג	-5966
od	-5967
one	-5968
ree	-5969
▁US	-5970
▁דיני	-5971
▁דקים	-5972
▁כאבי	-5973
▁סורי	-5974
▁פגיע	-5975
os	-5976
▁ושפ	-5977
▁טוו	-5978
▁נטה	-5979
ood	-5980
▁IC	-5981
▁500	-5982
▁For	-5983
▁הבת	-5984
▁ואה	-5985
▁וסר	-5986
▁חצו	-5987
▁כשנ	-5988
▁שאו	-5989
▁תמו	-5990
▁בדוק	-5991
▁טחון	-5992
▁כוחו	-5993
▁לוסופ	-5994
דיא	-5995
▁All	-5996
▁son	-5997
▁ויר	-5998
▁מוז	-5999
▁מתנ	-6000
▁צופ	-6001
▁אספק	-6002
▁האופ	-6003
▁יחות	-6004
▁שביל	-6005
▁אידיא	-6006
NA	-6007
▁ארנ	-6008
▁ורע	-6009
▁נדה	-6010
▁שטו	-6011
▁יצים	-6012
▁ייחוד	-6013
▁שורים	-6014
▁-1	-6015
▁My	-6016
▁Air	-6017
▁tic	-6018
▁הבו	-6019
▁ובס	-6020
▁נגנ	-6021
▁מלחמ	-6022
▁פרים	-6023
).	-6024
▁ההו	-6025
▁ליס	-6026
▁פוג	-6027
▁הפרע	-6028
▁נסות	-6029
▁שירי	-6030
▁שמעו	-6031
▁end	-6032
▁tor	-6033
▁בטי	-6034
▁ייז	-6035
▁כיר	-6036
▁נזי	-6037
▁קני	-6038
▁תאמ	-6039
▁דשות	-6040
▁לגור	-6041
▁ליון	-6042
▁לראש	-6043
▁שעים	-6044
▁תעשי	-6045
▁דקו	-6046
▁ואו	-6047
▁לדה	-6048
▁פקה	-6049
▁צעו	-6050
▁ידיע	-6051
▁ימוש	-6052
▁גים	-6053
▁המד	-6054
▁יגר	-6055
▁כיס	-6056
▁תול	-6057
▁אליס	-6058
▁גרעי	-6059
▁ואחר	-6060
▁דיו	-6061
▁ולמ	-6062
▁מיה	-6063
▁שקו	-6064
▁גשים	-6065
▁מולד	-6066
▁נטיי	-6067
-4	-6068
▁Se	-6069
▁הלה	-6070
▁נבנ	-6071
▁סות	-6072
▁סני	-6073
▁פיפ	-6074
▁שהח	-6075
▁תיו	-6076
▁המתי	-6077
▁ינטו	-6078
▁מנים	-6079
▁קראת	-6080
▁רדות	-6081
▁תולי	-6082
-]	-6083
cc	-6084
▁29	-6085
▁[-]	-6086
▁אתן	-6087
▁השג	-6088
▁כמי	-6089
▁לוש	-6090
▁לחנ	-6091
▁לפו	-6092
▁יכון	-6093
▁לממש	-6094
▁עדים	-6095
▁רכות	-6096
▁יליונ	-6097
ass	-6098
▁באש	-6099
▁וחב	-6100
▁עות	-6101
▁שהפ	-6102
▁שחי	-6103
▁ודיו	-6104
▁מתקפ	-6105
▁סרטו	-6106
▁פונים	-6107
יאו	-6108
▁So	-6109
▁וחד	-6110
▁ועת	-6111
▁טבעו	-6112
▁המציא	-6113
ox	-6114
▁mi	-6115
▁הטי	-6116
▁ינד	-6117
▁להז	-6118
▁לחמ	-6119
▁מון	-6120
▁ערת	-6121
▁פונ	-6122
▁תצט	-6123
▁גורמ	-6124
▁זיקה	-6125
▁יטרי	-6126
▁".	-6127
▁Gr	-6128
▁by	-6129
▁אפו	-6130
▁והט	-6131
▁רשו	-6132
▁תיח	-6133
▁ולוג	-6134
▁ופיע	-6135
▁חדרי	-6136
▁יראו	-6137
▁ליות	-6138
▁תושב	-6139
▁אנרגי	-6140
▁ציוני	-6141
ברס	-6142
▁אנד	-6143
▁ולע	-6144
▁ופש	-6145
▁חתם	-6146
▁טוא	-6147
▁ממו	-6148
▁אנוש	-6149
▁בעים	-6150
▁הפיל	-6151
▁ימום	-6152
▁כשיר	-6153
▁מייד	-6154
▁ניברס	-6155
▁Da	-6156
▁Wat	-6157
▁איל	-6158
▁הרת	-6159
▁נאי	-6160
▁נתר	-6161
▁תחז	-6162
▁אלבו	-6163
▁ארכי	-6164
▁מבטי	-6165
▁עזרת	-6166
▁מאחור	-6167
▁4.	-6168
▁זרו	-6169
▁יוב	-6170
▁ליכ	-6171
▁סיל	-6172
▁פיס	-6173
▁שות	-6174
▁שרד	-6175
▁טומי	-6176
▁פיין	-6177
▁שטחי	-6178
▁הבטיח	-6179
yp	-6180
▁~	-6181
▁ֱ	-6182
▁gy	-6183
▁se	-6184
▁ur	-6185
▁ביק	-6186
▁ברט	-6187
▁גשו	-6188
▁הומ	-6189
▁כנו	-6190
▁סקו	-6191
▁ריו	-6192
▁ריל	-6193
▁vers	-6194
▁וירו	-6195
▁לוקי	-6196
-1	-6197
▁Sk	-6198
▁הדג	-6199
▁המב	-6200
▁ness	-6201
▁גרפי	-6202
▁ליכם	-6203
▁ספיר	-6204
▁עיניי	-6205
AS	-6206
גם	-6207
▁Do	-6208
▁No	-6209
▁לחי	-6210
▁Offi	-6211
▁גורמי	-6212
IV	-6213
ath	-6214
▁סס	-6215
▁פן	-6216
▁Ser	-6217
▁אטי	-6218
▁במפ	-6219
▁רית	-6220
▁בלים	-6221
▁המשק	-6222
▁הציב	-6223
▁סימני	-6224
ild	-6225
▁IS	-6226
▁יפו	-6227
▁מיל	-6228
▁שהק	-6229
▁תאם	-6230
▁הודי	-6231
▁וונת	-6232
▁יתנו	-6233
▁ציגי	-6234
▁יסטית	-6235
▁Ha	-6236
▁sp	-6237
▁est	-6238
▁באת	-6239
▁זרת	-6240
▁ימן	-6241
▁לתק	-6242
▁מסד	-6243
▁ניא	-6244
▁בחיר	-6245
▁לצות	-6246
▁נגלי	-6247
▁סימו	-6248
▁קולי	-6249
▁הוכיח	-6250
▁ישורי	-6251
▁כוכבי	-6252
▁«	-6253
טרו	-6254
▁SE	-6255
▁בהר	-6256
▁רונ	-6257
▁לבדו	-6258
▁צאות	-6259
co	-6260
פע	-6261
▁Vi	-6262
▁co	-6263
▁חה	-6264
▁היפ	-6265
▁סכם	-6266
▁תקפ	-6267
▁בילו	-6268
▁מונו	-6269
▁lo	-6270
▁200	-6271
▁הכנ	-6272
▁ופי	-6273
▁חנה	-6274
▁התיא	-6275
▁פשית	-6276
▁ריכת	-6277
▁שווא	-6278
▁ההשפע	-6279
▁ian	-6280
▁התפ	-6281
▁והצ	-6282
▁זוק	-6283
▁ושלמ	-6284
▁יימת	-6285
▁נסיב	-6286
ind	-6287
▁יוצ	-6288
▁מדת	-6289
▁נתי	-6290
▁סטו	-6291
▁רעו	-6292
▁וקול	-6293
▁שפיע	-6294
ide	-6295
▁do	-6296
▁חנ	-6297
▁Pre	-6298
▁זרה	-6299
▁ממד	-6300
▁נוג	-6301
▁צלי	-6302
▁Comm	-6303
▁ולהי	-6304
▁צלחת	-6305
▁32	-6306
▁CB	-6307
▁IT	-6308
▁חפש	-6309
▁מלו	-6310
▁ביעה	-6311
▁טענו	-6312
▁צויי	-6313
▁>>	-6314
▁בוכ	-6315
▁ואפ	-6316
▁והכ	-6317
▁משם	-6318
▁קטו	-6319
▁רוצי	-6320
-6	-6321
▁דש	-6322
▁ted	-6323
▁באל	-6324
▁ומח	-6325
▁לדת	-6326
▁מוך	-6327
▁מתא	-6328
▁סיר	-6329
▁ראת	-6330
▁בחנו	-6331
▁יכנס	-6332
▁יפיו	-6333
▁תוספ	-6334
ick	-6335
▁di	-6336
▁Out	-6337
▁ers	-6338
▁איב	-6339
▁האז	-6340
▁הגי	-6341
▁ולס	-6342
▁טאו	-6343
▁נפי	-6344
▁פנו	-6345
▁קים	-6346
▁שרי	-6347
▁המתו	-6348
▁אולוג	-6349
-2	-6350
AT	-6351
ta	-6352
▁CO	-6353
▁דיד	-6354
▁יעת	-6355
▁יצל	-6356
▁סרת	-6357
▁רים	-6358
▁קרון	-6359
▁דום	-6360
▁חתה	-6361
▁יקט	-6362
▁וכמה	-6363
▁ולהת	-6364
▁ורטו	-6365
▁ורטי	-6366
▁לאות	-6367
▁מדים	-6368
CD	-6369
▁}	-6370
▁Jo	-6371
▁בגד	-6372
▁בדם	-6373
▁האק	-6374
▁הגז	-6375
▁ותח	-6376
▁ילה	-6377
▁לעי	-6378
▁נסט	-6379
▁שבא	-6380
▁וברי	-6381
▁טרנט	-6382
▁יקים	-6383
▁ישים	-6384
▁רצות	-6385
▁אופטי	-6386
ep	-6387
▁_	-6388
ala	-6389
▁iP	-6390
▁Res	-6391
▁pro	-6392
▁בבו	-6393
▁מיצ	-6394
▁פיג	-6395
▁קאר	-6396
▁להיו	-6397
▁מונת	-6398
▁רפיה	-6399
▁da	-6400
▁דמת	-6401
▁ינר	-6402
▁סגן	-6403
▁שדר	-6404
▁תנה	-6405
▁ence	-6406
▁הגעת	-6407
▁פיינ	-6408
▁פליט	-6409
▁קונג	-6410
▁World	-6411
▁וניות	-6412
▁un	-6413
▁And	-6414
▁דיא	-6415
▁הרמ	-6416
▁וקד	-6417
▁חדת	-6418
▁טימ	-6419
▁רפו	-6420
▁Home	-6421
▁וראי	-6422
▁להתא	-6423
פרי	-6424
▁גמה	-6425
▁דול	-6426
▁וכש	-6427
▁ימו	-6428
▁פסת	-6429
▁תלב	-6430
▁הבטח	-6431
▁חסות	-6432
▁סרטי	-6433
▁31	-6434
▁TH	-6435
▁דב	-6436
▁שז	-6437
▁ולכ	-6438
▁ותפ	-6439
▁סטנ	-6440
▁סיס	-6441
▁שקע	-6442
▁יפור	-6443
▁לולי	-6444
▁לנוע	-6445
▁עקבו	-6446
▁תיות	-6447
▁העובד	-6448
▁טינית	-6449
de	-6450
▁la	-6451
▁יטנ	-6452
▁סיג	-6453
▁בחינ	-6454
▁הפעל	-6455
▁תזונ	-6456
▁משאבי	-6457
▁פעילי	-6458
AR	-6459
ost	-6460
▁5.	-6461
▁הגל	-6462
▁חיס	-6463
▁טיח	-6464
▁קיו	-6465
▁קיע	-6466
▁ביעי	-6467
▁וחות	-6468
▁סבור	-6469
ime	-6470
▁nc	-6471
▁ies	-6472
▁אוד	-6473
▁גנו	-6474
▁והס	-6475
▁ורל	-6476
▁ישה	-6477
▁כסי	-6478
▁לטר	-6479
▁לטת	-6480
▁מרת	-6481
▁תרי	-6482
▁הילה	-6483
▁ודיה	-6484
▁ינות	-6485
▁מעלי	-6486
',	-6487
▁ey	-6488
▁ארמ	-6489
▁דמו	-6490
▁טרס	-6491
▁ראן	-6492
▁רכם	-6493
▁רכת	-6494
▁אסלא	-6495
▁דלים	-6496
▁ימונ	-6497
▁ליטה	-6498
▁קרית	-6499
▁רדים	-6500
▁מקומו	-6501
▁→	-6502
▁48	-6503
▁:)	-6504
▁דד	-6505
▁משל	-6506
▁שפו	-6507
▁יהנו	-6508
▁שמיר	-6509
old	-6510
▁pl	-6511
▁gra	-6512
▁הקפ	-6513
▁וחנ	-6514
▁זני	-6515
▁שהש	-6516
▁גדות	-6517
▁Med	-6518
▁ial	-6519
▁אפי	-6520
▁אתו	-6521
▁ונו	-6522
▁טבח	-6523
▁מהב	-6524
▁מחנ	-6525
▁ננו	-6526
▁סרו	-6527
▁פקת	-6528
▁שהע	-6529
▁תקו	-6530
▁יורי	-6531
▁יילי	-6532
▁צדדי	-6533
▁מטוסי	-6534
ook	-6535
▁75	-6536
▁Sy	-6537
▁ss	-6538
▁בגן	-6539
▁זוי	-6540
▁ילו	-6541
▁יקו	-6542
▁לחצ	-6543
▁שבי	-6544
▁ומדי	-6545
▁וזיאו	-6546
ti	-6547
▁תף	-6548
▁Hot	-6549
▁wor	-6550
▁הבה	-6551
▁ינת	-6552
▁ישת	-6553
▁עתם	-6554
▁Amer	-6555
▁בניה	-6556
▁מטרי	-6557
▁ניין	-6558
▁ספקי	-6559
▁שרים	-6560
▁תוכנ	-6561
▁`	-6562
ite	-6563
▁gn	-6564
▁HIV	-6565
▁Hum	-6566
▁הגנ	-6567
▁טוי	-6568
▁ישל	-6569
▁רנט	-6570
▁ויקט	-6571
▁לבני	-6572
▁לואי	-6573
▁מיתי	-6574
▁פגיש	-6575
עד	-6576
▁Un	-6577
▁ותמ	-6578
▁נקו	-6579
▁שהנ	-6580
▁תפו	-6581
▁מייק	-6582
▁מצבי	-6583
▁קדמי	-6584
▁קודה	-6585
▁net	-6586
▁חמה	-6587
▁כאי	-6588
▁לער	-6589
▁Love	-6590
▁בגדי	-6591
▁קדמו	-6592
▁שמוע	-6593
▁רצינו	-6594
IS	-6595
PS	-6596
ak	-6597
mo	-6598
mp	-6599
▁Pr	-6600
▁War	-6601
▁בצר	-6602
▁געת	-6603
▁ואש	-6604
▁ובת	-6605
▁וקט	-6606
▁ושב	-6607
▁ושמ	-6608
▁לעם	-6609
▁גיות	-6610
▁הנית	-6611
▁הפרט	-6612
▁טיות	-6613
▁להתע	-6614
▁קשרי	-6615
▁שתתף	-6616
xt	-6617
▁תד	-6618
▁קוס	-6619
▁גשתי	-6620
▁השיג	-6621
▁ליים	-6622
▁ER	-6623
▁qu	-6624
▁300	-6625
▁out	-6626
▁אוי	-6627
▁בתה	-6628
▁השמ	-6629
▁לרצ	-6630
▁מנם	-6631
▁שתפ	-6632
ES	-6633
ound	-6634
▁בענ	-6635
▁טעי	-6636
▁יפל	-6637
▁אלימ	-6638
▁בלונ	-6639
▁הגיר	-6640
▁הטיפ	-6641
▁תמונ	-6642
PN	-6643
ly	-6644
▁זיר	-6645
▁כרח	-6646
▁סמה	-6647
▁קדו	-6648
▁וויה	-6649
▁עורכ	-6650
▁עזוב	-6651
▁הסיכו	-6652
▁מספרי	-6653
▁טח	-6654
▁צת	-6655
▁Tra	-6656
▁בלנ	-6657
▁דפי	-6658
▁העמ	-6659
▁יהי	-6660
▁יטא	-6661
▁לאח	-6662
▁מגן	-6663
▁שהס	-6664
▁נאות	-6665
רק	-6666
oun	-6667
▁IN	-6668
▁Mac	-6669
▁ביש	-6670
▁בלת	-6671
▁בקה	-6672
▁וגנ	-6673
▁לור	-6674
▁נקב	-6675
▁צוא	-6676
▁כריז	-6677
▁מתוכ	-6678
ED	-6679
ank	-6680
▁(3	-6681
▁way	-6682
▁הוק	-6683
▁סמי	-6684
▁קאי	-6685
▁רפי	-6686
▁שמא	-6687
▁תפק	-6688
▁בידו	-6689
▁יבוש	-6690
▁נימי	-6691
▁נקצי	-6692
DA	-6693
ace	-6694
ash	-6695
▁ca	-6696
▁במז	-6697
▁מקצ	-6698
▁תוח	-6699
▁המלו	-6700
▁מחקרי	-6701
▁נושאי	-6702
אף	-6703
▁It	-6704
▁Qu	-6705
▁הגן	-6706
▁מגו	-6707
▁מצו	-6708
▁חוזי	-6709
▁חויב	-6710
▁חתונ	-6711
▁כינו	-6712
▁כשהו	-6713
▁מיתו	-6714
▁סיון	-6715
▁מוסיק	-6716
▁Op	-6717
▁Exp	-6718
▁Sch	-6719
▁you	-6720
▁בפנ	-6721
▁דרה	-6722
▁הלת	-6723
▁הפג	-6724
▁ויה	-6725
▁להנ	-6726
▁מלצ	-6727
▁קדמ	-6728
▁אומי	-6729
▁וניה	-6730
▁וצות	-6731
▁זרות	-6732
▁תיהם	-6733
▁פופול	-6734
▁רוכים	-6735
▁MA	-6736
▁איג	-6737
▁הספ	-6738
▁הפה	-6739
▁טאר	-6740
▁יגו	-6741
▁לאנ	-6742
▁נימ	-6743
▁נשי	-6744
▁באור	-6745
▁Human	-6746
ww	-6747
▁nge	-6748
▁ואנ	-6749
▁פלי	-6750
▁בעצמ	-6751
▁Ed	-6752
▁me	-6753
▁rch	-6754
▁בהק	-6755
▁נאס	-6756
▁אמרי	-6757
▁Watch	-6758
▁ותפים	-6759
ER	-6760
me	-6761
▁33	-6762
▁אֶ	-6763
▁www	-6764
▁העי	-6765
▁ובן	-6766
▁והו	-6767
▁יטל	-6768
▁מעש	-6769
▁פרח	-6770
▁קלו	-6771
▁גברי	-6772
▁דיאט	-6773
▁לוני	-6774
▁פיעו	-6775
▁כשירי	-6776
▁כף	-6777
▁Can	-6778
▁tal	-6779
▁דיג	-6780
▁הסו	-6781
▁העל	-6782
▁מדו	-6783
▁מקל	-6784
▁ציג	-6785
▁קפי	-6786
▁Life	-6787
▁אחרא	-6788
▁הציל	-6789
▁ותים	-6790
▁יימי	-6791
▁ינית	-6792
▁יריד	-6793
▁ניקה	-6794
▁צטרף	-6795
▁שתנו	-6796
-8	-6797
ca	-6798
ink	-6799
▁Mus	-6800
▁Not	-6801
▁הפצ	-6802
▁ואח	-6803
▁פוי	-6804
▁ריר	-6805
▁אדמה	-6806
▁אימה	-6807
▁וגיה	-6808
▁כריס	-6809
▁סגנו	-6810
▁חיילי	-6811
olo	-6812
▁Go	-6813
▁וטנ	-6814
▁לרע	-6815
▁קוו	-6816
▁דורג	-6817
▁חותי	-6818
▁מועדו	-6819
ip	-6820
▁באס	-6821
▁דלו	-6822
▁התה	-6823
▁להתג	-6824
▁מכור	-6825
▁רצית	-6826
▁AS	-6827
▁MBA	-6828
▁בבי	-6829
▁הוי	-6830
▁ודד	-6831
▁קשת	-6832
▁הכיר	-6833
▁יקון	-6834
▁פיות	-6835
▁צמיח	-6836
OS	-6837
ara	-6838
own	-6839
▁Bus	-6840
▁Day	-6841
▁בוג	-6842
▁ההנ	-6843
▁היח	-6844
▁יטת	-6845
▁ירג	-6846
▁נוט	-6847
▁רוו	-6848
▁רחו	-6849
▁שלפ	-6850
▁המונ	-6851
▁הרשמ	-6852
▁מנית	-6853
▁מציא	-6854
▁רירי	-6855
▁65	-6856
▁Bo	-6857
▁ol	-6858
reat	-6859
▁150	-6860
▁Ass	-6861
▁Sec	-6862
▁גאו	-6863
▁ומפ	-6864
▁יסל	-6865
▁למו	-6866
▁נחל	-6867
▁Cent	-6868
▁Comp	-6869
▁וספי	-6870
▁קרובי	-6871
ew	-6872
▁iv	-6873
▁ככ	-6874
▁אוש	-6875
▁אלן	-6876
▁ההס	-6877
▁לאב	-6878
▁נוד	-6879
▁ליבר	-6880
'.	-6881
rom	-6882
▁VPN	-6883
▁day	-6884
▁חזי	-6885
▁יוו	-6886
▁ליו	-6887
▁סלא	-6888
▁גרים	-6889
▁הירי	-6890
▁הרבי	-6891
▁ושות	-6892
▁לטות	-6893
▁מינה	-6894
▁העיקר	-6895
▁לקטרו	-6896
-7	-6897
IT	-6898
eo	-6899
op	-6900
▁fi	-6901
▁Pal	-6902
▁Pri	-6903
▁Sci	-6904
▁dis	-6905
▁אלק	-6906
▁הרו	-6907
▁מהק	-6908
▁Play	-6909
▁ican	-6910
▁המחו	-6911
▁מילו	-6912
▁משלה	-6913
-9	-6914
ab	-6915
ame	-6916
hen	-6917
▁-2	-6918
▁AC	-6919
▁AD	-6920
▁Sw	-6921
▁mo	-6922
▁בבת	-6923
▁בוט	-6924
▁וסס	-6925
▁יפר	-6926
▁לשי	-6927
▁מהש	-6928
▁גירו	-6929
▁ייחס	-6930
▁ימני	-6931
▁יקלי	-6932
▁לכים	-6933
▁מטרו	-6934
▁מתרג	-6935
▁Hotel	-6936
▁כנסיי	-6937
▁עצמית	-6938
mi	-6939
▁2:	-6940
▁id	-6941
▁il	-6942
▁my	-6943
▁בדף	-6944
▁הטע	-6945
▁ילנ	-6946
▁מנצ	-6947
▁קיש	-6948
▁אנגל	-6949
▁לחיי	-6950
▁לטון	-6951
▁משכו	-6952
▁ננים	-6953
▁הולדת	-6954
ant	-6955
▁34	-6956
▁sta	-6957
▁הית	-6958
▁והד	-6959
▁לכי	-6960
▁נעל	-6961
▁סוצ	-6962
▁with	-6963
▁התמו	-6964
▁פורנ	-6965
MS	-6966
ON	-6967
gi	-6968
▁(1)	-6969
▁NBA	-6970
▁Per	-6971
▁דגש	-6972
▁ההכ	-6973
▁הקצ	-6974
▁Serv	-6975
IN	-6976
ru	-6977
itt	-6978
משי	-6979
▁55	-6980
▁At	-6981
▁יזה	-6982
▁מרג	-6983
▁שוכ	-6984
▁הבעל	-6985
▁נדון	-6986
▁שתמשי	-6987
▁גה	-6988
▁ard	-6989
▁בטו	-6990
▁ומב	-6991
▁סבר	-6992
▁תכם	-6993
▁ינוק	-6994
▁ליסט	-6995
▁משלת	-6996
▁קנית	-6997
▁יניות	-6998
ond	-6999
▁קץ	-7000
▁Car	-7001
▁לחש	-7002
▁יריי	-7003
▁לוות	-7004
▁ללית	-7005
▁תאימ	-7006
▁רכיבי	-7007
iz	-7008
▁37	-7009
▁Bu	-7010
▁Net	-7011
▁Web	-7012
▁ארו	-7013
▁בוו	-7014
▁הער	-7015
▁טפו	-7016
▁כספ	-7017
▁לני	-7018
▁מכו	-7019
▁קטי	-7020
▁Next	-7021
▁Word	-7022
▁ורדי	-7023
▁מעונ	-7024
▁משנה	-7025
▁קרוב	-7026
▁ריאה	-7027
si	-7028
te	-7029
ong	-7030
▁Gu	-7031
▁Act	-7032
▁bil	-7033
▁ומל	-7034
▁חית	-7035
▁חקו	-7036
▁יזו	-7037
▁כרו	-7038
▁למק	-7039
▁סנד	-7040
▁שהה	-7041
▁שהכ	-7042
▁ומני	-7043
▁ורשי	-7044
▁טופל	-7045
▁לדוג	-7046
▁לעצמ	-7047
▁סטינ	-7048
▁ביכול	-7049
▁השווא	-7050
hn	-7051
att	-7052
▁ES	-7053
▁du	-7054
▁נמ	-7055
▁גרת	-7056
▁וסו	-7057
▁טרה	-7058
▁לאר	-7059
▁לבט	-7060
▁לטו	-7061
▁קרט	-7062
▁בדיו	-7063
▁יליו	-7064
▁ליפו	-7065
▁ריהם	-7066
▁בוודא	-7067
ory	-7068
▁AM	-7069
▁10%	-7070
▁Inc	-7071
▁העץ	-7072
▁טרנ	-7073
▁למנ	-7074
▁מהע	-7075
▁צרה	-7076
▁שבמ	-7077
▁שעי	-7078
▁הקומ	-7079
▁ושבת	-7080
▁1:	-7081
▁7.	-7082
▁Ab	-7083
▁ha	-7084
▁כע	-7085
▁Mon	-7086
▁nic	-7087
▁דוב	-7088
▁הסל	-7089
▁ושג	-7090
▁יהל	-7091
▁לטי	-7092
▁מהג	-7093
▁מטע	-7094
▁צרת	-7095
▁Cont	-7096
▁בצעי	-7097
▁דורי	-7098
▁הספר	-7099
▁טריי	-7100
▁יקור	-7101
▁מצאי	-7102
▁נגדו	-7103
▁שלמו	-7104
▁38	-7105
▁Bro	-7106
▁וצל	-7107
▁לוו	-7108
▁לום	-7109
▁מכה	-7110
▁מתפ	-7111
▁פרא	-7112
▁ומית	-7113
▁קרטי	-7114
▁רובי	-7115
RI	-7116
iv	-7117
▁SS	-7118
▁as	-7119
▁Dis	-7120
▁olo	-7121
▁אימ	-7122
▁אסי	-7123
▁גזי	-7124
▁הסמ	-7125
▁ופת	-7126
▁מהח	-7127
▁נגו	-7128
▁ניז	-7129
▁סבי	-7130
▁What	-7131
▁להצט	-7132
▁מקומ	-7133
▁אינטר	-7134
▁פייני	-7135
▁ריכים	-7136
ata	-7137
▁42	-7138
▁Pa	-7139
▁Ra	-7140
▁um	-7141
ount	-7142
ouse	-7143
▁nta	-7144
▁יאט	-7145
▁יוג	-7146
▁ששת	-7147
▁שתף	-7148
▁Busi	-7149
▁יידי	-7150
▁ונאים	-7151
▁טיביו	-7152
AN	-7153
▁‭	-7154
ype	-7155
לחמ	-7156
▁6.	-7157
▁DNA	-7158
▁Sta	-7159
▁בדל	-7160
▁טוק	-7161
▁לבר	-7162
▁נגר	-7163
▁פוז	-7164
▁שאפ	-7165
▁שלג	-7166
▁Arch	-7167
▁אותנ	-7168
▁בעות	-7169
▁עורי	-7170
▁קניו	-7171
▁הוועד	-7172
▁ינויי	-7173
▁לוגית	-7174
ear	-7175
ous	-7176
▁sa	-7177
▁Bri	-7178
▁הפנ	-7179
▁ומש	-7180
▁חים	-7181
▁יוז	-7182
▁לגי	-7183
▁לתא	-7184
▁נלי	-7185
▁סבא	-7186
▁שמנ	-7187
▁Post	-7188
▁חיוב	-7189
▁יגות	-7190
▁ישהו	-7191
▁סיפו	-7192
▁סיקה	-7193
▁בוגרי	-7194
oup	-7195
ube	-7196
▁8.	-7197
▁HD	-7198
▁ess	-7199
▁גון	-7200
▁הנכ	-7201
▁וכר	-7202
▁לעד	-7203
▁נוא	-7204
▁פאל	-7205
▁Inst	-7206
▁איות	-7207
▁בדרכ	-7208
▁בילי	-7209
▁וגים	-7210
▁וטין	-7211
▁סופו	-7212
▁תבונ	-7213
▁התחלת	-7214
▁Fa	-7215
▁Glo	-7216
▁Pay	-7217
▁con	-7218
▁gen	-7219
▁ine	-7220
▁אֶת	-7221
▁גדי	-7222
▁חיז	-7223
▁מאנ	-7224
▁ניכ	-7225
▁סיב	-7226
▁עדן	-7227
▁שהר	-7228
▁land	-7229
▁אריך	-7230
▁החומ	-7231
▁העלו	-7232
▁ישיב	-7233
▁מחיי	-7234
▁תיקי	-7235
▁ופלים	-7236
▁ימיים	-7237
▁@	-7238
▁́	-7239
▁CD	-7240
▁PC	-7241
▁sm	-7242
▁su	-7243
▁up	-7244
▁400	-7245
▁אוק	-7246
▁אסט	-7247
▁ייו	-7248
▁Star	-7249
▁גרמנ	-7250
▁העול	-7251
▁וחלט	-7252
▁יבות	-7253
▁יימו	-7254
▁קומו	-7255
▁ריים	-7256
PA	-7257
▁	-7258
▁AN	-7259
▁חץ	-7260
▁אדר	-7261
▁זמו	-7262
▁זרם	-7263
▁קתי	-7264
▁שלמ	-7265
▁שתק	-7266
▁Book	-7267
▁Park	-7268
▁היינ	-7269
▁ומרי	-7270
▁מנוי	-7271
▁הברית	-7272
▁מקורו	-7273
בו	-7274
▁HT	-7275
▁Or	-7276
▁ST	-7277
▁Sm	-7278
▁Up	-7279
▁go	-7280
▁ny	-7281
▁ומו	-7282
▁יכה	-7283
▁נוף	-7284
▁סקה	-7285
▁פיי	-7286
▁פיכ	-7287
▁מצאת	-7288
▁נהגו	-7289
▁צמחי	-7290
▁הרגלי	-7291
AC	-7292
▁Na	-7293
▁eb	-7294
▁(2)	-7295
▁איד	-7296
▁גטו	-7297
▁ובק	-7298
▁ותנ	-7299
▁יגי	-7300
▁ידא	-7301
▁לנה	-7302
▁מאל	-7303
▁מהד	-7304
▁סעו	-7305
▁פתו	-7306
▁ress	-7307
▁ובנו	-7308
▁ורסי	-7309
▁יקני	-7310
▁לאומ	-7311
▁שובו	-7312
▁Point	-7313
RE	-7314
▁ert	-7315
▁ric	-7316
▁הפס	-7317
▁ופצ	-7318
▁חדו	-7319
▁ימה	-7320
▁יעל	-7321
▁מעי	-7322
▁מעת	-7323
▁reet	-7324
▁גוון	-7325
▁דעים	-7326
▁דרות	-7327
▁הירו	-7328
▁יאון	-7329
▁ימנע	-7330
▁סוצי	-7331
▁רגשת	-7332
▁טינים	-7333
RA	-7334
▁we	-7335
▁Sou	-7336
▁וכנ	-7337
▁חרא	-7338
▁טום	-7339
▁מבל	-7340
▁מהכ	-7341
▁קסם	-7342
▁שתת	-7343
▁תקש	-7344
▁play	-7345
▁בקרו	-7346
▁המלכ	-7347
▁חלות	-7348
▁שותפי	-7349
של	-7350
▁AT	-7351
▁Fl	-7352
▁Of	-7353
▁Tw	-7354
▁ba	-7355
▁Her	-7356
▁האר	-7357
▁הבק	-7358
▁צמא	-7359
▁ורנו	-7360
▁ראלי	-7361
▁שורת	-7362
na	-7363
▁IB	-7364
▁UN	-7365
▁cy	-7366
▁ev	-7367
▁50%	-7368
▁Sea	-7369
▁ice	-7370
▁בדו	-7371
▁הדף	-7372
▁וצע	-7373
▁חוז	-7374
▁ידן	-7375
▁תקף	-7376
▁להתק	-7377
▁פתחו	-7378
▁תופע	-7379
ett	-7380
▁במד	-7381
▁מצי	-7382
▁עיה	-7383
▁רבת	-7384
▁Mark	-7385
▁Onli	-7386
▁ונות	-7387
▁וצאה	-7388
▁ותני	-7389
▁חשיב	-7390
▁טרונ	-7391
▁מורי	-7392
▁מרות	-7393
▁סיונ	-7394
▁תקפו	-7395
▁וויזי	-7396
ci	-7397
▁←	-7398
▁🙂	-7399
▁Ca	-7400
▁ID	-7401
▁ul	-7402
▁ut	-7403
▁בם	-7404
▁Art	-7405
▁Gen	-7406
▁iPh	-7407
▁nti	-7408
▁ver	-7409
▁ארת	-7410
▁טלי	-7411
▁יכת	-7412
▁ישי	-7413
▁כשם	-7414
▁ללי	-7415
▁נני	-7416
▁tics	-7417
▁דיהם	-7418
▁הנות	-7419
▁זונה	-7420
▁חשבה	-7421
▁מכות	-7422
▁ניקו	-7423
▁קנות	-7424
▁ריכו	-7425
▁חוזים	-7426
AP	-7427
US	-7428
uro	-7429
▁52	-7430
▁Aw	-7431
▁Dri	-7432
▁Red	-7433
▁אוב	-7434
▁בסו	-7435
▁טיר	-7436
▁ינל	-7437
▁יתנ	-7438
▁שוע	-7439
▁גיבו	-7440
▁וטרי	-7441
IC	-7442
ha	-7443
orn	-7444
uto	-7445
▁!!	-7446
▁39	-7447
▁EC	-7448
▁Ent	-7449
▁ond	-7450
▁אטו	-7451
▁ודם	-7452
▁לאמ	-7453
▁נדס	-7454
▁פוך	-7455
▁רסו	-7456
▁שכך	-7457
▁תעמ	-7458
▁Part	-7459
▁ארים	-7460
▁טובי	-7461
▁טוני	-7462
▁יבים	-7463
▁עצבי	-7464
▁החוקר	-7465
AM	-7466
שם	-7467
▁ֻ	-7468
ase	-7469
yle	-7470
▁1)	-7471
▁Si	-7472
▁זא	-7473
▁Acc	-7474
▁Don	-7475
▁אגם	-7476
▁חני	-7477
▁יעה	-7478
▁כחו	-7479
▁מהס	-7480
▁מפה	-7481
▁port	-7482
▁הכות	-7483
▁טרלי	-7484
▁ירונ	-7485
▁עיון	-7486
AL	-7487
rip	-7488
פלג	-7489
▁85	-7490
▁bo	-7491
▁dy	-7492
▁if	-7493
▁Har	-7494
▁בונ	-7495
▁בתר	-7496
▁ויק	-7497
▁טרל	-7498
▁לאש	-7499
▁מאר	-7500
▁Live	-7501
▁ביצי	-7502
▁במשק	-7503
▁הקרי	-7504
▁והים	-7505
▁יטות	-7506
▁לומי	-7507
▁צירו	-7508
▁רואי	-7509
▁המפלג	-7510
▁נויים	-7511
ph	-7512
ua	-7513
za	-7514
▁®	-7515
alk	-7516
ord	-7517
▁95	-7518
▁Des	-7519
▁FDA	-7520
▁Stu	-7521
▁ple	-7522
▁סלי	-7523
▁שעד	-7524
▁ביעו	-7525
▁ידיא	-7526
▁כרים	-7527
▁ליטי	-7528
▁פיתו	-7529
▁רמים	-7530
▁תרופו	-7531
▁<	-7532
▁99	-7533
▁Ke	-7534
▁gi	-7535
▁ki	-7536
▁אע	-7537
▁גס	-7538
▁צח	-7539
▁nes	-7540
▁ההמ	-7541
▁סיו	-7542
▁עצת	-7543
▁רזי	-7544
▁רתה	-7545
▁חילה	-7546
▁הרגשת	-7547
amp	-7548
igh	-7549
▁Ja	-7550
▁MS	-7551
▁bl	-7552
▁ka	-7553
▁ti	-7554
▁Pow	-7555
▁cha	-7556
▁ell	-7557
▁אמפ	-7558
▁הפו	-7559
▁זיל	-7560
▁ימפ	-7561
▁כהן	-7562
▁שתל	-7563
▁John	-7564
▁Tran	-7565
▁Tube	-7566
▁השרא	-7567
▁וגבל	-7568
▁ודות	-7569
▁ונגר	-7570
▁להתי	-7571
▁פניי	-7572
▁00	-7573
▁HP	-7574
▁Pi	-7575
▁TO	-7576
▁des	-7577
▁tes	-7578
▁דגם	-7579
▁ונפ	-7580
▁כבת	-7581
▁מוא	-7582
▁נדב	-7583
▁נשמ	-7584
▁פצו	-7585
▁רעש	-7586
▁שתה	-7587
▁וכני	-7588
▁ציאל	-7589
▁והבים	-7590
▁כולתי	-7591
DF	-7592
IP	-7593
ne	-7594
oli	-7595
oud	-7596
▁2)	-7597
▁ow	-7598
▁Bea	-7599
▁Cha	-7600
▁Met	-7601
▁Pla	-7602
▁אסל	-7603
▁השח	-7604
▁ונר	-7605
▁וקא	-7606
▁יעי	-7607
▁יפת	-7608
▁כלש	-7609
▁ענן	-7610
▁שנו	-7611
▁Time	-7612
▁work	-7613
▁ברחו	-7614
▁וניו	-7615
▁עיקר	-7616
▁קונס	-7617
▁ודיות	-7618
RC	-7619
▁As	-7620
▁EM	-7621
▁טג	-7622
▁SEO	-7623
▁der	-7624
▁ica	-7625
▁sis	-7626
▁במצ	-7627
▁הבד	-7628
▁ונת	-7629
▁זקן	-7630
▁יתק	-7631
▁סבו	-7632
▁סונ	-7633
▁עצי	-7634
▁תיע	-7635
▁Outl	-7636
▁ולמו	-7637
▁כולת	-7638
▁שאים	-7639
▁Apple	-7640
▁‫	-7641
row	-7642
▁Ni	-7643
▁Fil	-7644
▁אחו	-7645
▁איו	-7646
▁בכם	-7647
▁בשו	-7648
▁געו	-7649
▁גשה	-7650
▁גשם	-7651
▁וחצ	-7652
▁עוז	-7653
▁עינ	-7654
▁דמים	-7655
▁ייבי	-7656
▁להיש	-7657
▁להתנ	-7658
▁לטוב	-7659
▁עיצו	-7660
▁קורב	-7661
▁שאול	-7662
▁שתיי	-7663
DS	-7664
▁64	-7665
▁AP	-7666
▁BM	-7667
▁Lu	-7668
▁20%	-7669
▁CBD	-7670
▁THE	-7671
▁bal	-7672
▁אוה	-7673
▁בתק	-7674
▁הבנ	-7675
▁ודנ	-7676
▁חשי	-7677
▁טיו	-7678
▁מוב	-7679
▁סכמ	-7680
▁עופ	-7681
▁האדמ	-7682
▁וכים	-7683
▁חידה	-7684
▁חלומ	-7685
▁רורי	-7686
▁שכול	-7687
▁אחוזי	-7688
▁ov	-7689
▁פכ	-7690
▁She	-7691
▁ton	-7692
▁אזי	-7693
▁גמי	-7694
▁ימצ	-7695
▁מיו	-7696
▁קרח	-7697
▁ריך	-7698
▁שלת	-7699
▁תוב	-7700
▁Free	-7701
▁Your	-7702
▁המשת	-7703
▁ויים	-7704
▁ולחן	-7705
▁וקיי	-7706
▁טומט	-7707
▁כשאת	-7708
▁לוסי	-7709
▁וריות	-7710
▁יוצאי	-7711
▁יכוני	-7712
מעו	-7713
▁OS	-7714
▁pe	-7715
▁tr	-7716
▁Ado	-7717
▁Bit	-7718
▁itu	-7719
▁בתל	-7720
▁וחל	-7721
▁ימת	-7722
▁יצע	-7723
▁לגן	-7724
▁ממת	-7725
▁נסע	-7726
▁עיף	-7727
▁Prev	-7728
▁Tech	-7729
▁ical	-7730
▁איתנ	-7731
▁המזו	-7732
▁style	-7733
▁משמעו	-7734
▁..	-7735
▁2,	-7736
▁43	-7737
▁44	-7738
▁Fac	-7739
▁ora	-7740
▁וקח	-7741
▁מפט	-7742
▁נחמ	-7743
▁ענף	-7744
▁תלמ	-7745
▁אווי	-7746
▁בודו	-7747
▁ושלם	-7748
▁יניה	-7749
▁יקות	-7750
▁צבעי	-7751
▁רכים	-7752
▁Black	-7753
▁העולמ	-7754
▁ייבים	-7755
BI	-7756
HD	-7757
ud	-7758
▁--	-7759
▁CS	-7760
▁pr	-7761
▁טב	-7762
▁BBC	-7763
▁Sup	-7764
▁Vis	-7765
▁הוצ	-7766
▁ויו	-7767
▁וית	-7768
▁זית	-7769
▁יכו	-7770
▁להט	-7771
▁גלית	-7772
▁ומיי	-7773
▁קירו	-7774
▁רופי	-7775
▁הנכונ	-7776
olu	-7777
▁Wa	-7778
▁ען	-7779
▁Cap	-7780
▁ect	-7781
▁הנק	-7782
▁הפל	-7783
▁וקת	-7784
▁פסו	-7785
▁תדע	-7786
▁ject	-7787
▁באיר	-7788
▁מסתו	-7789
▁קידו	-7790
▁במקומ	-7791
ET	-7792
ML	-7793
ott	-7794
▁46	-7795
▁53	-7796
▁CN	-7797
▁Es	-7798
▁ad	-7799
▁xy	-7800
▁ya	-7801
ream	-7802
▁Ele	-7803
▁Exc	-7804
▁mic	-7805
▁בסן	-7806
▁טיש	-7807
▁לשר	-7808
▁מבק	-7809
▁ניט	-7810
▁תכן	-7811
▁Coll	-7812
▁ביני	-7813
▁גשות	-7814
▁וריי	-7815
▁מטופ	-7816
▁מתיי	-7817
▁קדימ	-7818
▁ריאו	-7819
▁רפוא	-7820
▁שוני	-7821
ono	-7822
▁49	-7823
▁67	-7824
▁Dr	-7825
▁Ev	-7826
▁ue	-7827
▁(3)	-7828
▁Tag	-7829
▁cia	-7830
▁ort	-7831
▁גנה	-7832
▁ונל	-7833
▁ורך	-7834
▁כעס	-7835
▁מענ	-7836
▁פקי	-7837
▁שמד	-7838
▁Blue	-7839
▁Good	-7840
▁Heal	-7841
▁form	-7842
▁post	-7843
▁בעונ	-7844
▁וניס	-7845
ull	-7846
▁41	-7847
▁47	-7848
▁AI	-7849
▁LL	-7850
▁TV	-7851
▁op	-7852
▁py	-7853
ames	-7854
▁ral	-7855
▁אלפ	-7856
▁דאו	-7857
▁דופ	-7858
▁הזכ	-7859
▁הכו	-7860
▁השע	-7861
▁זכי	-7862
▁יסו	-7863
▁ננה	-7864
▁עוק	-7865
▁שלנ	-7866
▁אוסט	-7867
▁הרגל	-7868
▁השתל	-7869
▁הצלחת	-7870
▁1,	-7871
▁5%	-7872
▁51	-7873
▁600	-7874
▁pri	-7875
▁אשי	-7876
▁גות	-7877
▁פטו	-7878
▁פרע	-7879
▁צית	-7880
▁שסי	-7881
▁ious	-7882
▁ויזי	-7883
▁כולי	-7884
▁לחמו	-7885
▁מניה	-7886
▁מערי	-7887
▁מרבי	-7888
▁פאים	-7889
▁Skype	-7890
▁גישים	-7891
▁יונית	-7892
era	-7893
▁AL	-7894
▁OE	-7895
▁ct	-7896
▁ot	-7897
▁250	-7898
▁Rep	-7899
▁Rev	-7900
▁res	-7901
▁גונ	-7902
▁גנט	-7903
▁הפכ	-7904
▁ייצ	-7905
▁מזכ	-7906
▁מסי	-7907
▁עתו	-7908
▁צלם	-7909
▁Ever	-7910
▁Note	-7911
▁from	-7912
▁גישו	-7913
▁וקרט	-7914
▁יזיה	-7915
▁ינסו	-7916
▁ציאו	-7917
▁קישו	-7918
▁Group	-7919
MA	-7920
OL	-7921
VD	-7922
fi	-7923
▁AR	-7924
▁iew	-7925
▁דבש	-7926
▁הלל	-7927
▁הנא	-7928
▁ונח	-7929
▁וצא	-7930
▁יצי	-7931
▁לנק	-7932
▁עמק	-7933
▁פרץ	-7934
▁רצף	-7935
▁תוד	-7936
▁West	-7937
▁ביתה	-7938
▁הילו	-7939
▁הלים	-7940
▁ורבי	-7941
▁טרות	-7942
▁מילי	-7943
▁סטיק	-7944
▁צילו	-7945
▁לדוגמ	-7946
▁Fe	-7947
▁ab	-7948
▁po	-7949
▁ru	-7950
▁Sun	-7951
▁art	-7952
▁ner	-7953
▁red	-7954
▁tra	-7955
▁גום	-7956
▁המה	-7957
▁הענ	-7958
▁ינן	-7959
▁לזו	-7960
▁לספ	-7961
▁עדו	-7962
▁פוש	-7963
▁ראל	-7964
▁ADHD	-7965
▁Anal	-7966
▁Mana	-7967
▁Rock	-7968
▁Syst	-7969
▁יירו	-7970
▁ילית	-7971
▁להתר	-7972
▁רגון	-7973
▁רטים	-7974
▁House	-7975
now	-7976
▁3:	-7977
▁CI	-7978
▁Du	-7979
▁bi	-7980
▁im	-7981
▁ir	-7982
▁iz	-7983
ourn	-7984
▁ium	-7985
▁ser	-7986
▁בתנ	-7987
▁לצו	-7988
▁מהצ	-7989
▁סרי	-7990
▁קיל	-7991
▁קית	-7992
▁אפיל	-7993
▁בארצ	-7994
▁הרוו	-7995
▁ובים	-7996
▁וסטר	-7997
▁ידעת	-7998
▁נטים	-7999
▁סירי	-8000
▁קדמת	-8001
▁רונו	-8002
▁תכוו	-8003
▁Cloud	-8004
▁Drive	-8005
▁Excel	-8006
EN	-8007
ung	-8008
▁(4	-8009
▁(5	-8010
▁68	-8011
▁72	-8012
▁Ba	-8013
▁ei	-8014
▁gg	-8015
▁ll	-8016
▁עַ	-8017
▁120	-8018
▁ber	-8019
▁ברל	-8020
▁הטב	-8021
▁הנג	-8022
▁ויצ	-8023
▁ומד	-8024
▁לאפ	-8025
▁לדי	-8026
▁Data	-8027
▁line	-8028
▁הפרי	-8029
▁וואה	-8030
▁ויבי	-8031
▁חבור	-8032
▁ישית	-8033
▁צעים	-8034
▁רובו	-8035
▁וונטי	-8036
BS	-8037
▁°	-8038
ult	-8039
▁IV	-8040
▁ON	-8041
▁PS	-8042
▁vi	-8043
▁40%	-8044
▁Sam	-8045
▁Tim	-8046
▁Way	-8047
▁אפס	-8048
▁באף	-8049
▁ודמ	-8050
▁ועי	-8051
▁ופך	-8052
▁חכו	-8053
▁כתי	-8054
▁סגל	-8055
▁שמל	-8056
▁שמצ	-8057
▁ששי	-8058
▁Gold	-8059
▁Nort	-8060
▁ובלת	-8061
▁ידית	-8062
▁יטית	-8063
▁ימיו	-8064
▁פרדי	-8065
▁בתקופ	-8066
▁המלחמ	-8067
ali	-8068
arn	-8069
eld	-8070
חינ	-8071
▁-3	-8072
▁58	-8073
▁59	-8074
▁am	-8075
▁365	-8076
▁Bra	-8077
▁Soc	-8078
▁che	-8079
▁oin	-8080
▁אלל	-8081
▁הכח	-8082
▁חשה	-8083
▁טכנ	-8084
▁כיה	-8085
▁למס	-8086
▁לצר	-8087
▁נבו	-8088
▁עזו	-8089
▁שגי	-8090
▁Work	-8091
▁less	-8092
▁בריט	-8093
▁גלוב	-8094
▁החמי	-8095
▁העלי	-8096
▁וללת	-8097
▁מגוו	-8098
▁משקי	-8099
▁בטיחו	-8100
▁מבחינ	-8101
▁56	-8102
▁61	-8103
▁Ap	-8104
▁DS	-8105
▁ko	-8106
▁sc	-8107
▁מץ	-8108
▁000	-8109
▁are	-8110
▁בנת	-8111
▁בעמ	-8112
▁וחו	-8113
▁טאי	-8114
▁טנה	-8115
▁כיו	-8116
▁לגו	-8117
▁נדע	-8118
▁נפח	-8119
▁קאו	-8120
▁שפי	-8121
▁אבים	-8122
▁אוחר	-8123
▁התגל	-8124
▁והות	-8125
▁יינת	-8126
▁כלבי	-8127
▁צעדי	-8128
▁קופה	-8129
▁רוכה	-8130
▁Press	-8131
▁מודים	-8132
ka	-8133
end	-8134
igi	-8135
▁0.	-8136
▁TM	-8137
▁ip	-8138
▁Cor	-8139
▁FBI	-8140
▁Rec	-8141
▁Sha	-8142
▁ord	-8143
▁ברמ	-8144
▁האף	-8145
▁הדפ	-8146
▁ומא	-8147
▁ושנ	-8148
▁זרי	-8149
▁ישמ	-8150
▁לחה	-8151
▁לפל	-8152
▁מיט	-8153
▁נלך	-8154
▁נעו	-8155
▁סלמ	-8156
▁High	-8157
▁King	-8158
▁roid	-8159
▁אינד	-8160
▁אירו	-8161
▁ברוא	-8162
▁האינ	-8163
▁וכות	-8164
▁חיינ	-8165
▁Journ	-8166
▁אוהבי	-8167
▁הסביב	-8168
EA	-8169
TS	-8170
▁9.	-8171
▁Hi	-8172
▁om	-8173
▁ps	-8174
▁San	-8175
▁bur	-8176
▁les	-8177
▁met	-8178
▁ret	-8179
▁במכ	-8180
▁בקי	-8181
▁דחף	-8182
▁הינ	-8183
▁השב	-8184
▁ומכ	-8185
▁ונש	-8186
▁לדר	-8187
▁ספט	-8188
▁עדה	-8189
▁פלס	-8190
▁שאב	-8191
▁תיה	-8192
▁תרת	-8193
▁Asso	-8194
▁Fire	-8195
▁ביים	-8196
▁דורו	-8197
▁המתנ	-8198
▁ובות	-8199
▁ומטי	-8200
▁נוספ	-8201
▁נועה	-8202
▁צירת	-8203
▁שיבו	-8204
▁הוצאו	-8205
ll	-8206
iss	-8207
und	-8208
▁54	-8209
▁66	-8210
▁SP	-8211
▁כג	-8212
▁Bar	-8213
▁Fra	-8214
▁Sim	-8215
▁החמ	-8216
▁הנך	-8217
▁ובח	-8218
▁וון	-8219
▁ותך	-8220
▁חסד	-8221
▁מקד	-8222
▁נבי	-8223
▁פער	-8224
▁rect	-8225
▁ומכי	-8226
▁מבינ	-8227
▁ניינ	-8228
▁סימנ	-8229
▁פלים	-8230
▁רגיה	-8231
▁אמריק	-8232
▁פורים	-8233
▁קרייר	-8234
hi	-8235
▁CH	-8236
▁30%	-8237
▁DVD	-8238
▁Gra	-8239
▁III	-8240
▁Mad	-8241
▁dom	-8242
▁בחז	-8243
▁דחה	-8244
▁העד	-8245
▁טטי	-8246
▁כשו	-8247
▁לדף	-8248
▁מיכ	-8249
▁מער	-8250
▁נחו	-8251
▁סיט	-8252
▁סיי	-8253
▁צאת	-8254
▁Euro	-8255
▁Gala	-8256
▁Isra	-8257
▁OECD	-8258
▁ינתי	-8259
▁פרסו	-8260
▁קיות	-8261
▁שארו	-8262
▁הביטו	-8263
▁תפתחו	-8264
OC	-8265
ib	-8266
ze	-8267
▁׃	-8268
irl	-8269
▁CT	-8270
▁os	-8271
▁va	-8272
▁זת	-8273
▁1.1	-8274
▁ISO	-8275
▁Ver	-8276
▁ual	-8277
▁אגב	-8278
▁ולך	-8279
▁ועמ	-8280
▁יוכ	-8281
▁לתו	-8282
▁מהה	-8283
▁עיק	-8284
▁פסל	-8285
▁קרל	-8286
▁ראמ	-8287
▁רמל	-8288
▁Auto	-8289
▁וויז	-8290
▁זיות	-8291
▁נאים	-8292
▁Heart	-8293
▁Secur	-8294
▁Share	-8295
ֹא	-8296
אך	-8297
מכי	-8298
▁Av	-8299
▁oo	-8300
▁1.5	-8301
▁Lea	-8302
▁ary	-8303
▁per	-8304
▁rid	-8305
▁וחז	-8306
▁וכמ	-8307
▁יצו	-8308
▁לֹא	-8309
▁ללכ	-8310
▁לתר	-8311
▁פשו	-8312
▁רנו	-8313
▁שעם	-8314
▁דיין	-8315
▁הימי	-8316
▁הקטנ	-8317
▁יתון	-8318
▁כתבת	-8319
▁נדרט	-8320
▁נוני	-8321
▁שלמי	-8322
▁תייר	-8323
▁תיקו	-8324
▁חוקרי	-8325
▁מסמכי	-8326
▁רובים	-8327
ork	-8328
ure	-8329
▁Cy	-8330
▁EN	-8331
▁Em	-8332
▁PR	-8333
▁si	-8334
▁1.2	-8335
▁800	-8336
▁Fin	-8337
▁Get	-8338
▁IBM	-8339
▁Ind	-8340
▁Nat	-8341
▁USB	-8342
▁ham	-8343
▁בסמ	-8344
▁השד	-8345
▁זרע	-8346
▁יזי	-8347
▁כבן	-8348
▁עמם	-8349
▁פטי	-8350
▁צבי	-8351
▁צהר	-8352
▁קשו	-8353
▁אבטח	-8354
▁החול	-8355
▁המוש	-8356
▁הנוס	-8357
▁הסינ	-8358
▁טיני	-8359
▁יגים	-8360
▁כירה	-8361
▁להתפ	-8362
▁פרקי	-8363
▁קווה	-8364
▁ריית	-8365
▁Grand	-8366
▁Music	-8367
CC	-8368
em	-8369
gh	-8370
wn	-8371
eli	-8372
ish	-8373
▁CR	-8374
▁Fr	-8375
▁NS	-8376
▁ho	-8377
here	-8378
▁2.2	-8379
▁90%	-8380
▁Are	-8381
▁Bio	-8382
▁Chi	-8383
▁Inn	-8384
▁Wom	-8385
▁iOS	-8386
▁ool	-8387
▁ren	-8388
▁tch	-8389
▁כעל	-8390
▁לסו	-8391
▁מבר	-8392
▁עמה	-8393
▁שהג	-8394
▁תשת	-8395
▁With	-8396
▁rome	-8397
▁אולו	-8398
▁בורו	-8399
▁בורי	-8400
▁בליל	-8401
▁בשיר	-8402
▁החיי	-8403
▁ייני	-8404
▁לחלו	-8405
▁ליצי	-8406
▁פייס	-8407
▁ציני	-8408
▁Award	-8409
▁State	-8410
▁גיעים	-8411
▁הכלכל	-8412
▁מבקשי	-8413
▁משתתפ	-8414
IM	-8415
go	-8416
qua	-8417
▁',	-8418
▁'.	-8419
▁4:	-8420
▁Br	-8421
▁MP	-8422
▁sy	-8423
▁זג	-8424
▁Ber	-8425
▁Dra	-8426
▁Gre	-8427
▁הנע	-8428
▁הנצ	-8429
▁ופנ	-8430
▁ופע	-8431
▁חזו	-8432
▁חשף	-8433
▁חתי	-8434
▁יתו	-8435
▁עוג	-8436
▁פגו	-8437
▁קחת	-8438
▁קפת	-8439
▁This	-8440
▁York	-8441
▁gram	-8442
▁ives	-8443
▁ארצו	-8444
▁דדים	-8445
▁ולמי	-8446
▁טורק	-8447
▁יאים	-8448
▁יתית	-8449
▁מניו	-8450
▁מסתכ	-8451
▁שיכה	-8452
EG	-8453
RL	-8454
ale	-8455
uth	-8456
utt	-8457
▁62	-8458
▁דכ	-8459
▁25%	-8460
▁80%	-8461
▁Blo	-8462
▁How	-8463
▁PDF	-8464
▁lin	-8465
▁ory	-8466
▁גוס	-8467
▁הוע	-8468
▁ננת	-8469
▁Digi	-8470
▁אודו	-8471
▁ימית	-8472
▁קומי	-8473
▁קורי	-8474
▁Times	-8475
ek	-8476
ys	-8477
▁₪	-8478
umb	-8479
▁).	-8480
▁Ka	-8481
▁Mc	-8482
▁Vo	-8483
▁fl	-8484
▁Rob	-8485
▁Sur	-8486
▁cal	-8487
▁int	-8488
▁אוצ	-8489
▁אמש	-8490
▁דימ	-8491
▁הגו	-8492
▁טיק	-8493
▁לגה	-8494
▁מקי	-8495
▁פרנ	-8496
▁קנד	-8497
▁Desi	-8498
▁Isla	-8499
▁Real	-8500
▁הימנ	-8501
▁וליו	-8502
▁מיכה	-8503
▁White	-8504
▁אוטומ	-8505
act	-8506
cha	-8507
qui	-8508
▁DC	-8509
▁El	-8510
▁GB	-8511
▁2.5	-8512
▁Big	-8513
▁Roy	-8514
▁cer	-8515
▁cle	-8516
▁iet	-8517
▁אמצ	-8518
▁אסד	-8519
▁הגג	-8520
▁יוק	-8521
▁ינא	-8522
▁לפה	-8523
▁לצמ	-8524
▁נעה	-8525
▁סעד	-8526
▁קמת	-8527
▁שבט	-8528
▁תקד	-8529
▁News	-8530
▁comm	-8531
▁אובד	-8532
▁דינו	-8533
▁לימו	-8534
▁פריה	-8535
▁רישו	-8536
▁Dream	-8537
▁Elect	-8538
▁אליות	-8539
':	-8540
10	-8541
DP	-8542
FC	-8543
TA	-8544
WS	-8545
כנ	-8546
ami	-8547
ang	-8548
ict	-8549
▁IL	-8550
▁pa	-8551
▁Age	-8552
▁Bre	-8553
▁GPS	-8554
▁Par	-8555
▁cra	-8556
▁lla	-8557
▁new	-8558
▁org	-8559
▁rol	-8560
▁בטן	-8561
▁זיו	-8562
▁חדה	-8563
▁חשד	-8564
▁מיץ	-8565
▁מפג	-8566
▁סטא	-8567
▁ענת	-8568
▁עשן	-8569
▁קטנ	-8570
▁תלך	-8571
▁Best	-8572
▁Bitc	-8573
▁Call	-8574
▁Hill	-8575
▁Just	-8576
▁That	-8577
▁ures	-8578
▁ward	-8579
▁ware	-8580
▁האיר	-8581
▁הטכנ	-8582
▁השטח	-8583
▁וגות	-8584
▁ודית	-8585
▁נסים	-8586
▁קאית	-8587
▁שבתי	-8588
▁Found	-8589
▁Space	-8590
▁graph	-8591
▁כויות	-8592
fa	-8593
▁82	-8594
▁Ag	-8595
▁SH	-8596
▁Dev	-8597
▁God	-8598
▁Ste	-8599
▁Tel	-8600
▁Val	-8601
▁all	-8602
▁eum	-8603
▁gic	-8604
▁mus	-8605
▁ney	-8606
▁אסו	-8607
▁בצו	-8608
▁דפו	-8609
▁ההז	-8610
▁החג	-8611
▁הקש	-8612
▁וחש	-8613
▁פוב	-8614
▁צאי	-8615
▁רמז	-8616
▁רסמ	-8617
▁שוו	-8618
▁שונ	-8619
▁שטר	-8620
▁Back	-8621
▁Link	-8622
▁ever	-8623
▁sion	-8624
▁tain	-8625
▁ביות	-8626
▁חיצו	-8627
▁יסטו	-8628
▁פיקו	-8629
▁קודת	-8630
▁רנית	-8631
▁תיאו	-8632
▁Child	-8633
▁Media	-8634
▁האזור	-8635
▁מקבלי	-8636
7%	-8637
BO	-8638
IF	-8639
▁DA	-8640
▁IM	-8641
▁UV	-8642
▁Xb	-8643
▁bu	-8644
▁15%	-8645
▁ABC	-8646
▁Pho	-8647
▁dio	-8648
▁gon	-8649
▁ima	-8650
▁בכו	-8651
▁לדו	-8652
▁לפר	-8653
▁צלח	-8654
▁קחי	-8655
▁Dead	-8656
▁Open	-8657
▁Plus	-8658
▁Stra	-8659
▁gged	-8660
▁time	-8661
▁המנה	-8662
▁וסיי	-8663
▁יאור	-8664
▁ינדי	-8665
▁יריו	-8666
▁ירים	-8667
▁לוהי	-8668
▁מרוצ	-8669
▁מתכנ	-8670
▁Every	-8671
EC	-8672
oma	-8673
▁63	-8674
▁69	-8675
▁CC	-8676
▁OL	-8677
▁Us	-8678
▁60%	-8679
▁End	-8680
▁Lib	-8681
▁Peo	-8682
▁Pra	-8683
▁Who	-8684
▁not	-8685
▁אלך	-8686
▁גבו	-8687
▁דשה	-8688
▁ההב	-8689
▁הסב	-8690
▁ותא	-8691
▁חפץ	-8692
▁טיה	-8693
▁יכי	-8694
▁לעמ	-8695
▁לשו	-8696
▁לתל	-8697
▁סאו	-8698
▁סיע	-8699
▁ערו	-8700
▁רסם	-8701
▁Xbox	-8702
▁nolo	-8703
▁בשבי	-8704
▁ההזד	-8705
▁ורית	-8706
▁יסבו	-8707
▁ירופ	-8708
▁למוד	-8709
▁משיכ	-8710
▁Great	-8711
▁מקצוע	-8712
▁נוספו	-8713
▁Ac	-8714
▁Ec	-8715
▁Ly	-8716
▁Ri	-8717
▁ec	-8718
▁pt	-8719
▁360	-8720
▁Ben	-8721
▁Jew	-8722
▁אלמ	-8723
▁באז	-8724
▁הטל	-8725
▁מרח	-8726
▁פשי	-8727
▁צול	-8728
▁תלו	-8729
▁תנת	-8730
▁תפש	-8731
▁תצא	-8732
▁תרם	-8733
▁באיז	-8734
▁בסופ	-8735
▁הזכו	-8736
▁היגי	-8737
▁העונ	-8738
▁וועד	-8739
▁ורקי	-8740
▁חירו	-8741
▁טילי	-8742
▁Compa	-8743
▁Thing	-8744
▁אינטל	-8745
▁היחסי	-8746
▁יומנו	-8747
▁פקידי	-8748
EP	-8749
OR	-8750
TP	-8751
ho	-8752
unt	-8753
▁",	-8754
▁**	-8755
▁Ga	-8756
▁NY	-8757
▁OR	-8758
▁ff	-8759
▁rd	-8760
▁18,	-8761
▁700	-8762
▁Cro	-8763
▁Pub	-8764
▁Sky	-8765
▁Sui	-8766
▁אהו	-8767
▁הזר	-8768
▁הסר	-8769
▁יבל	-8770
▁ללב	-8771
▁לרב	-8772
▁שהד	-8773
▁שלל	-8774
▁שנכ	-8775
▁Will	-8776
▁אנרג	-8777
▁דינה	-8778
▁המער	-8779
▁ואיל	-8780
▁וחרי	-8781
▁יתים	-8782
▁Count	-8783
▁וחדים	-8784
▁ורגני	-8785
▁רובות	-8786
MP	-8787
ki	-8788
כך	-8789
idd	-8790
ird	-8791
ody	-8792
oot	-8793
▁3%	-8794
▁BL	-8795
▁PP	-8796
▁RS	-8797
▁ci	-8798
▁ga	-8799
▁10,	-8800
▁Cry	-8801
▁Geo	-8802
▁era	-8803
▁ina	-8804
▁mon	-8805
▁בנט	-8806
▁ההצ	-8807
▁זעם	-8808
▁יקב	-8809
▁לפס	-8810
▁מעז	-8811
▁מצע	-8812
▁שבנ	-8813
▁שמב	-8814
▁HTML	-8815
▁Mast	-8816
▁View	-8817
▁הארו	-8818
▁הישר	-8819
▁חצית	-8820
▁יטים	-8821
▁כירי	-8822
▁ליוו	-8823
▁מאלי	-8824
▁שבות	-8825
▁Story	-8826
▁הבריא	-8827
▁התקופ	-8828
EF	-8829
EL	-8830
OM	-8831
cy	-8832
imi	-8833
vid	-8834
▁3)	-8835
▁IF	-8836
▁IG	-8837
▁MB	-8838
▁Ob	-8839
▁io	-8840
▁Ang	-8841
▁BDS	-8842
▁ger	-8843
▁mal	-8844
▁rce	-8845
▁אתג	-8846
▁דאי	-8847
▁ומט	-8848
▁ועב	-8849
▁זאב	-8850
▁לסט	-8851
▁מטי	-8852
▁ממנ	-8853
▁עוף	-8854
▁קיס	-8855
▁Down	-8856
▁Girl	-8857
▁Last	-8858
▁More	-8859
▁comp	-8860
▁אקדמ	-8861
▁התעל	-8862
▁וזים	-8863
▁לשאו	-8864
▁תרגו	-8865
▁Resea	-8866
▁קרטיה	-8867
▁רופאי	-8868
pi	-8869
ock	-8870
▁3,	-8871
▁5,	-8872
▁73	-8873
▁76	-8874
▁78	-8875
▁gr	-8876
irst	-8877
▁180	-8878
▁Law	-8879
▁del	-8880
▁dex	-8881
▁fli	-8882
▁sor	-8883
▁ula	-8884
▁אוג	-8885
▁בחג	-8886
▁ביכ	-8887
▁הרף	-8888
▁וצי	-8889
▁חונ	-8890
▁מנג	-8891
▁עַל	-8892
▁עדת	-8893
▁צמת	-8894
▁קסט	-8895
▁תמך	-8896
▁East	-8897
▁Litt	-8898
▁ולטי	-8899
▁ולנו	-8900
▁יאני	-8901
▁לומו	-8902
▁מודי	-8903
▁סיסי	-8904
▁ציפו	-8905
▁תבים	-8906
▁Class	-8907
▁המשמע	-8908
▁ומיות	-8909
▁מדברי	-8910
▁שתתפי	-8911
-)	-8912
▁×	-8913
oth	-8914
ניה	-8915
▁10.	-8916
▁2.1	-8917
▁Fri	-8918
▁Rad	-8919
▁Sal	-8920
▁Sil	-8921
▁ain	-8922
▁exp	-8923
▁fil	-8924
▁אתך	-8925
▁בפה	-8926
▁בצל	-8927
▁ויח	-8928
▁חמת	-8929
▁שכי	-8930
▁Chri	-8931
▁Road	-8932
▁ices	-8933
▁mark	-8934
▁tect	-8935
▁גדים	-8936
▁האנו	-8937
▁הגות	-8938
▁המינ	-8939
▁ודים	-8940
▁וכרי	-8941
▁ידול	-8942
▁עירי	-8943
▁פורי	-8944
▁קוני	-8945
▁קטנו	-8946
▁שרוי	-8947
▁תכנו	-8948
▁אתגרי	-8949
▁התנוע	-8950
▁רגילי	-8951
AD	-8952
CP	-8953
to	-8954
uc	-8955
ero	-8956
ola	-8957
▁EU	-8958
▁LG	-8959
▁TR	-8960
▁[1	-8961
▁זז	-8962
▁18.	-8963
▁2-3	-8964
▁Bab	-8965
▁ION	-8966
▁Leg	-8967
▁Pet	-8968
▁lic	-8969
▁min	-8970
▁phy	-8971
▁הכס	-8972
▁הקי	-8973
▁הקנ	-8974
▁חבי	-8975
▁כהה	-8976
▁מפו	-8977
▁נגע	-8978
▁תונ	-8979
▁Lond	-8980
▁ways	-8981
▁אמנו	-8982
▁המנו	-8983
▁הרשו	-8984
▁ואות	-8985
▁ודדו	-8986
▁ושבי	-8987
▁יאות	-8988
▁מתכו	-8989
▁עיים	-8990
▁שובי	-8991
▁שחיי	-8992
▁אוסטר	-8993
▁לאחרי	-8994
HS	-8995
OT	-8996
gg	-8997
ye	-8998
▁‪	-8999
ole	-9000
oly	-9001
umm	-9002
▁88	-9003
▁MI	-9004
▁SQ	-9005
▁ai	-9006
▁gu	-9007
▁ty	-9008
▁Bur	-9009
▁Cre	-9010
▁Edi	-9011
▁HBO	-9012
▁THC	-9013
▁Ter	-9014
▁ege	-9015
▁gue	-9016
▁our	-9017
▁que	-9018
▁גנב	-9019
▁דנה	-9020
▁ההל	-9021
▁טרף	-9022
▁לסמ	-9023
▁פחם	-9024
▁שאנ	-9025
▁Batt	-9026
▁Dark	-9027
▁Read	-9028
▁Song	-9029
▁Tour	-9030
▁more	-9031
▁המיי	-9032
▁הראי	-9033
▁וחבר	-9034
▁North	-9035
▁field	-9036
▁האנוש	-9037
▁מדעני	-9038
▁שובים	-9039
OP	-9040
OW	-9041
▁€	-9042
▁↑	-9043
ari	-9044
▁98	-9045
▁AF	-9046
▁By	-9047
▁PM	-9048
▁cl	-9049
▁ea	-9050
▁ke	-9051
▁wa	-9052
atch	-9053
▁70%	-9054
▁Cri	-9055
▁Ext	-9056
▁Fed	-9057
▁Imp	-9058
▁May	-9059
▁Reg	-9060
▁Sen	-9061
▁Son	-9062
▁Swi	-9063
▁[1]	-9064
▁can	-9065
▁ems	-9066
▁ley	-9067
▁ron	-9068
▁win	-9069
▁דנו	-9070
▁ודל	-9071
▁וענ	-9072
▁ושא	-9073
▁זקה	-9074
▁חרב	-9075
▁טרפ	-9076
▁ימנ	-9077
▁לדמ	-9078
▁ליר	-9079
▁מגנ	-9080
▁נאו	-9081
▁ררו	-9082
▁ררי	-9083
▁Corp	-9084
▁sung	-9085
▁wood	-9086
▁בוני	-9087
▁הגור	-9088
▁והמו	-9089
▁ועמד	-9090
▁ידיי	-9091
▁לכול	-9092
▁מיות	-9093
▁סטית	-9094
▁קורת	-9095
▁קרונ	-9096
▁רטור	-9097
▁ריקנ	-9098
▁תחים	-9099
▁בתחומ	-9100
▁האלבו	-9101
▁חלומו	-9102
▁קוראי	-9103
▁קוריא	-9104
קא	-9105
arl	-9106
ich	-9107
ise	-9108
ush	-9109
▁-4	-9110
▁96	-9111
▁CP	-9112
▁12,	-9113
▁Dan	-9114
▁Gar	-9115
▁SQL	-9116
▁Shi	-9117
▁fer	-9118
▁rep	-9119
▁tte	-9120
▁אגף	-9121
▁אוז	-9122
▁אסף	-9123
▁חשק	-9124
▁פאי	-9125
▁שנע	-9126
▁תרו	-9127
▁Plan	-9128
▁serv	-9129
▁התור	-9130
▁ורגנ	-9131
▁מגור	-9132
▁פילי	-9133
▁פלגה	-9134
▁prise	-9135
▁יוצרי	-9136
▁מריקא	-9137
12	-9138
sa	-9139
amb	-9140
▁74	-9141
▁84	-9142
▁86	-9143
▁87	-9144
▁Az	-9145
▁Gi	-9146
▁NF	-9147
▁SM	-9148
▁au	-9149
▁350	-9150
▁Cra	-9151
▁fic	-9152
▁pre	-9153
▁בתמ	-9154
▁הגש	-9155
▁החר	-9156
▁כמת	-9157
▁מגב	-9158
▁צבר	-9159
▁תהא	-9160
▁Fall	-9161
▁Java	-9162
▁Moon	-9163
▁Show	-9164
▁Year	-9165
▁icle	-9166
▁דהים	-9167
▁חושה	-9168
▁יצוב	-9169
▁לטיפ	-9170
▁רופו	-9171
▁ריבי	-9172
▁רייה	-9173
▁שוטה	-9174
▁David	-9175
▁South	-9176
TC	-9177
▁1%	-9178
▁71	-9179
▁93	-9180
▁DI	-9181
▁Ho	-9182
▁IR	-9183
▁NC	-9184
▁SC	-9185
▁Ve	-9186
▁hy	-9187
▁pi	-9188
▁rg	-9189
▁ve	-9190
ouch	-9191
▁2.3	-9192
▁Ama	-9193
▁Che	-9194
▁Del	-9195
▁Far	-9196
▁Lab	-9197
▁SMS	-9198
▁cri	-9199
▁ema	-9200
▁ous	-9201
▁vil	-9202
▁הקמ	-9203
▁ופט	-9204
▁חזה	-9205
▁כבש	-9206
▁מזר	-9207
▁סוב	-9208
▁Pass	-9209
▁read	-9210
▁בעני	-9211
▁דיות	-9212
▁הנשי	-9213
▁הקור	-9214
▁התחת	-9215
▁וחדת	-9216
▁יטני	-9217
▁לפרו	-9218
▁סמכו	-9219
▁רונה	-9220
▁רכזי	-9221
▁שהיי	-9222
▁שיפו	-9223
▁Explo	-9224
▁לילדי	-9225
▁מבקרי	-9226
▁מחשבי	-9227
ja	-9228
nb	-9229
pt	-9230
▁♥	-9231
ora	-9232
sta	-9233
▁4)	-9234
▁92	-9235
▁BI	-9236
▁Bi	-9237
▁CF	-9238
▁DH	-9239
▁ED	-9240
▁EP	-9241
▁GM	-9242
▁IQ	-9243
▁VI	-9244
▁Bay	-9245
▁Box	-9246
▁Eng	-9247
▁Hel	-9248
▁Key	-9249
▁Max	-9250
▁Mil	-9251
▁car	-9252
▁ria	-9253
▁אדע	-9254
▁ברס	-9255
▁דרת	-9256
▁הזן	-9257
▁הצמ	-9258
▁ותכ	-9259
▁ותן	-9260
▁יקש	-9261
▁ללק	-9262
▁למח	-9263
▁למל	-9264
▁נאל	-9265
▁נפץ	-9266
▁סוו	-9267
▁סלע	-9268
▁ספת	-9269
▁צלב	-9270
▁קצו	-9271
▁קרם	-9272
▁רגו	-9273
▁שחש	-9274
▁תעש	-9275
▁Jewi	-9276
▁Mind	-9277
▁Para	-9278
▁back	-9279
▁ורגל	-9280
▁יהוד	-9281
▁Creat	-9282
▁Smart	-9283
▁ssion	-9284
▁החומר	-9285
▁רועים	-9286
UT	-9287
ba	-9288
פט	-9289
irt	-9290
▁81	-9291
▁RE	-9292
▁Ub	-9293
▁Ul	-9294
▁eg	-9295
▁fa	-9296
▁iT	-9297
▁od	-9298
▁wh	-9299
▁!!!	-9300
▁15.	-9301
▁Dia	-9302
▁GDP	-9303
▁Jan	-9304
▁LCD	-9305
▁Men	-9306
▁mas	-9307
▁rer	-9308
▁tis	-9309
▁אפק	-9310
▁גדו	-9311
▁דרנ	-9312
▁היס	-9313
▁חצר	-9314
▁טנו	-9315
▁יבט	-9316
▁כדו	-9317
▁כנר	-9318
▁ליף	-9319
▁	-9320
י	-9321
ו	-9322
ה	-9323
ל	-9324
ת	-9325
א	-9326
ר	-9327
מ	-9328
ב	-9329
ש	-9330
ם	-9331
נ	-9332
ע	-9333
ד	-9334
כ	-9335
ח	-9336
ק	-9337
פ	-9338
.	-9339
ס	-9340
ג	-9341
,	-9342
ט	-9343
צ	-9344
ן	-9345
ז	-9346
ך	-9347
"	-9348
-	-9349
e	-9350
0	-9351
1	-9352
ף	-9353
?	-9354
a	-9355
o	-9356
i	-9357
2	-9358
:	-9359
n	-9360
r	-9361
t	-9362
'	-9363
)	-9364
(	-9365
s	-9366
l	-9367
ץ	-9368
9	-9369
5	-9370
3	-9371
4	-9372
c	-9373
h	-9374
d	-9375
u	-9376
–	-9377
8	-9378
6	-9379
7	-9380
S	-9381
!	-9382
m	-9383
A	-9384
C	-9385
g	-9386
y	-9387
T	-9388
P	-9389
p	-9390
M	-9391
I	-9392
B	-9393
D	-9394
E	-9395
”	-9396
]	-9397
[	-9398
f	-9399
b	-9400
R	-9401
L	-9402
k	-9403
%	-9404
;	-9405
N	-9406
v	-9407
O	-9408
H	-9409
w	-9410
G	-9411
ּ	-9412
F	-9413
“	-9414
W	-9415
/	-9416
ָ	-9417
ְ	-9418
V	-9419
ַ	-9420
ִ	-9421
U	-9422
’	-9423
x	-9424
ֹ	-9425
ֶ	-9426
־	-9427
K	-9428
״	-9429
J	-9430
ֵ	-9431
Y	-9432
z	-9433
*	-9434
X	-9435
ׁ	-9436
>	-9437
•	-9438
+	-9439
—	-9440
»	-9441
|	-9442
&	-9443
$	-9444
‘	-9445
Q	-9446
j	-9447
Z	-9448
ֲ	-9449
#	-9450
q	-9451
׳	-9452
=	-9453
^	-9454
\	-9455
·	-9456
ׂ	-9457
‬	-9458
}	-9459
{	-9460
_	-9461
~	-9462
ֱ	-9463
«	-9464
`	-9465
→	-9466
é	-9467
‭	-9468
<	-9469
@	-9470
́	-9471
	-9472
←	-9473
🙂	-9474
®	-9475
ֻ	-9476
‫	-9477
°	-9478
׃	-9479
₪	-9480
×	-9481
á	-9482
‪	-9483
€	-9484
′	-9485
↑	-9486
♥	-9487
‐	-9488
í	-9489
›	-9490
ö	-9491
£	-9492
ó	-9493
ü	-9494
©	-9495
ا	-9496
ل	-9497
■	-9498
¶	-9499
●	-9500
ä	-9501
♦	-9502
↩	-9503
­	-9504
è	-9505
â	-9506
◄	-9507
▼	-9508
م	-9509
😉	-9510
	-9511
„	-9512
§	-9513
ç	-9514
α	-9515
ي	-9516
∗	-9517
ر	-9518
	-9519
à	-9520
ο	-9521
ֿ	-9522
−	-9523
►	-9524
τ	-9525
و	-9526
‹	-9527
ú	-9528
λ	-9529
ب	-9530
َ	-9531
👈	-9532
š	-9533
ʉ	-9534
κ	-9535
а	-9536
‡	-9537
️	-9538
¬	-9539
ß	-9540
ł	-9541
ž	-9542
̄	-9543
θ	-9544
о	-9545
ֳ	-9546
ع	-9547
ن	-9548
	-9549
å	-9550
ê	-9551
ñ	-9552
μ	-9553
ρ	-9554
ς	-9555
⬅	-9556
￼	-9557
ō	-9558
ι	-9559
π	-9560
и	-9561
⁄	-9562
▪	-9563
▲	-9564
♪	-9565
	-9566
±	-9567
É	-9568
Δ	-9569
γ	-9570
ν	-9571
φ	-9572
н	-9573
ِ	-9574
ی	-9575
😛	-9576
🙁	-9577
¦	-9578
ã	-9579
ć	-9580
ή	-9581
β	-9582
Р	-9583
х	-9584
ت	-9585
س	-9586
ه	-9587
‍	-9588
‒	-9589
‚	-9590
√	-9591
	-9592
👑	-9593
¢	-9594
æ	-9595
ë	-9596
ā	-9597
č	-9598
Ł	-9599
ş	-9600
Θ	-9601
Ω	-9602
ά	-9603
ε	-9604
σ	-9605
О	-9606
в	-9607
с	-9608
ֽ	-9609
أ	-9610
ج	-9611
ح	-9612
د	-9613
ش	-9614
ك	-9615
⁠	-9616
∈	-9617
⋅	-9618
♫	-9619
	-9620
😀	-9621
😊	-9622
	-9623
	-9624
	-9625
Î	-9626
Ö	-9627
Ü	-9628
ø	-9629
ś	-9630
ɾ	-9631
Σ	-9632
η	-9633
υ	-9634
χ	-9635
С	-9636
Т	-9637
р	-9638
і	-9639
֥	-9640
ة	-9641
ذ	-9642
ق	-9643
ُ	-9644
ْ	-9645
٠	-9646
ल	-9647
―	-9648
†	-9649
⁡	-9650
□	-9651
★	-9652
⚡	-9653
✔	-9654
😂	-9655
🤔	-9656
	-9657
	-9658
¿	-9659
Á	-9660
Ç	-9661
ð	-9662
ò	-9663
õ	-9664
ù	-9665
û	-9666
ý	-9667
ÿ	-9668
ă	-9669
Č	-9670
Đ	-9671
ę	-9672
ğ	-9673
ħ	-9674
ī	-9675
İ	-9676
ň	-9677
ő	-9678
œ	-9679
ţ	-9680
ū	-9681
ż	-9682
ɒ	-9683
ʻ	-9684
ˌ	-9685
̈	-9686
Ε	-9687
έ	-9688
ί	-9689
δ	-9690
В	-9691
К	-9692
Н	-9693
д	-9694
е	-9695
й	-9696
п	-9697
т	-9698
у	-9699
ф	-9700
ц	-9701
ч	-9702
я	-9703
֖	-9704
װ	-9705
إ	-9706
خ	-9707
ط	-9708
ा	-9709
ា	-9710
‰	-9711
↓	-9712
∘	-9713
∙	-9714
∽	-9715
≠	-9716
≥	-9717
▶	-9718
☀	-9719
☆	-9720
☺	-9721
♠	-9722
✰	-9723
❻	-9724
❽	-9725
⟩	-9726
⦁	-9727
、	-9728
の	-9729
ル	-9730
ー	-9731
日	-9732
黑	-9733
	-9734
	-9735
	-9736
📄	-9737
🔥	-9738
😁	-9739
😃	-9740
😍	-9741
😚	-9742
¡	-9743
È	-9744
Ë	-9745
Ó	-9746
Ø	-9747
Ú	-9748
Û	-9749
ï	-9750
ô	-9751
÷	-9752
Ġ	-9753
ŋ	-9754
Ś	-9755
Š	-9756
Ÿ	-9757
Ż	-9758
Ž	-9759
ư	-9760
ș	-9761
ț	-9762
ɓ	-9763
ə	-9764
ɛ	-9765
ɸ	-9766
ʊ	-9767
ʌ	-9768
ʼ	-9769
ˈ	-9770
ː	-9771
Α	-9772
Β	-9773
Κ	-9774
Τ	-9775
Φ	-9776
Χ	-9777
Ψ	-9778
ω	-9779
ό	-9780
Б	-9781
Д	-9782
П	-9783
Ы	-9784
Я	-9785
г	-9786
ж	-9787
к	-9788
л	-9789
ш	-9790
ы	-9791
Ҫ	-9792
Ӑ	-9793
Ӗ	-9794
ӝ	-9795
Ӳ	-9796
Ե	-9797
Խ	-9798
Յ	-9799
Ս	-9800
ֺ	-9801
ׅ	-9802
ױ	-9803
آ	-9804
ئ	-9805
ث	-9806
ص	-9807
ف	-9808
ى	-9809
١	-9810
٢	-9811
٨	-9812
٩	-9813
ٰ	-9814
ٹ	-9815
چ	-9816
ھ	-9817
ߟ	-9818
ߡ	-9819
ं	-9820
औ	-9821
ग	-9822
त	-9823
द	-9824
न	-9825
ब	-9826
ि	-9827
ी	-9828
े	-9829
्	-9830
ં	-9831
ગ	-9832
બ	-9833
લ	-9834
ો	-9835
༓	-9836
ខ	-9837
ភ	-9838
ម	-9839
រ	-9840
ស	-9841
ែ	-9842
្	-9843
ṅ	-9844
ạ	-9845
ả	-9846
ἀ	-9847
ὥ	-9848
ῦ	-9849
‮	-9850
⁨	-9851
⁩	-9852
₹	-9853
⇒	-9854
∀	-9855
∂	-9856
∆	-9857
∞	-9858
≪	-9859
≿	-9860
⋯	-9861
─	-9862
▸	-9863
▾	-9864
◻	-9865
◼	-9866
☚	-9867
☝	-9868
♔	-9869
♣	-9870
✌	-9871
✯	-9872
❁	-9873
❓	-9874
❤	-9875
❷	-9876
❼	-9877
❾	-9878
➝	-9879
⟨	-9880
⟵	-9881
⭐	-9882
ア	-9883
ギ	-9884
コ	-9885
シ	-9886
ス	-9887
ド	-9888
ュ	-9889
㪗	-9890
三	-9891
东	-9892
主	-9893
九	-9894
京	-9895
介	-9896
以	-9897
会	-9898
元	-9899
列	-9900
反	-9901
古	-9902
名	-9903
士	-9904
大	-9905
学	-9906
川	-9907
工	-9908
幕	-9909
广	-9910
府	-9911
式	-9912
徳	-9913
慢	-9914
拾	-9915
旦	-9916
本	-9917
来	-9918
株	-9919
民	-9920
浪	-9921
海	-9922
点	-9923
理	-9924
疽	-9925
社	-9926
穂	-9927
空	-9928
章	-9929
第	-9930
简	-9931
算	-9932
絵	-9933
義	-9934
聲	-9935
航	-9936
色	-9937
茶	-9938
蒙	-9939
術	-9940
襲	-9941
詞	-9942
赤	-9943
逆	-9944
道	-9945
都	-9946
鈴	-9947
院	-9948
髓	-9949
黒	-9950
랙	-9951
블	-9952
엠	-9953
	-9954
	-9955
	-9956
	-9957
	-9958
	-9959
	-9960
	-9961
	-9962
	-9963
﴾	-9964
﴿	-9965
🇸	-9966
🇾	-9967
🌈	-9968
🌎	-9969
🍻	-9970
🎉	-9971
🎶	-9972
🏽	-9973
🐔	-9974
👉	-9975
💉	-9976
💔	-9977
💖	-9978
💜	-9979
💫	-9980
📁	-9981
😄	-9982
😅	-9983
😆	-9984
😈	-9985
😏	-9986
😐	-9987
😒	-9988
😜	-9989
😦	-9990
🙌	-9991
🚖	-9992
🚘	-9993
🤨	-9994
🦁	-9995
🧼	-9996
