<unk>	0
<s>	0
</s>	0
▁ה	-0
▁א	-1
▁ל	-2
▁מ	-3
▁י	-4
▁ו	-5
▁ש	-6
▁ב	-7
▁.	-8
▁ע	-9
▁ת	-10
ות	-11
▁כ	-12
▁,	-13
ים	-14
▁ר	-15
▁נ	-16
▁ים	-17
▁ח	-18
▁של	-19
▁פ	-20
▁ק	-21
▁ות	-22
▁ס	-23
▁את	-24
ור	-25
ני	-26
▁"	-27
▁ז	-28
▁ג	-29
▁ד	-30
ול	-31
▁הי	-32
▁לא	-33
▁צ	-34
▁ט	-35
נו	-36
▁על	-37
וד	-38
בר	-39
וא	-40
▁לה	-41
ית	-42
יר	-43
וב	-44
ון	-45
▁המ	-46
יל	-47
רי	-48
די	-49
ונ	-50
▁-	-51
▁או	-52
▁אי	-53
שר	-54
ום	-55
▁הא	-56
▁אח	-57
▁1	-58
▁בי	-59
▁זה	-60
מי	-61
לי	-62
▁מה	-63
▁0	-64
נה	-65
▁כל	-66
▁?	-67
יה	-68
▁הוא	-69
וח	-70
▁מש	-71
וש	-72
ופ	-73
כל	-74
מה	-75
יב	-76
ותר	-77
▁לי	-78
וי	-79
▁בא	-80
▁שי	-81
תי	-82
▁מי	-83
▁:	-84
▁מא	-85
▁2	-86
▁ול	-87
וק	-88
▁יש	-89
▁הש	-90
וע	-91
▁אנ	-92
וצ	-93
▁עם	-94
▁אל	-95
מר	-96
בל	-97
▁הת	-98
▁אות	-99
▁הר	-100
▁שה	-101
▁הח	-102
▁כי	-103
▁(	-104
שי	-105
קר	-106
▁שא	-107
בי	-108
▁'	-109
▁בע	-110
▁אני	-111
יות	-112
▁מס	-113
▁וה	-114
▁)	-115
▁רא	-116
סי	-117
▁ן	-118
▁חי	-119
פר	-120
▁למ	-121
שה	-122
זה	-123
מו	-124
▁לו	-125
▁ם	-126
▁יותר	-127
▁רי	-128
▁מת	-129
▁היא	-130
▁תי	-131
▁ור	-132
גי	-133
▁לע	-134
▁מע	-135
מש	-136
▁הפ	-137
דר	-138
▁בר	-139
▁אחר	-140
▁אר	-141
▁גם	-142
▁מח	-143
▁נו	-144
▁ני	-145
שים	-146
▁הב	-147
את	-148
טי	-149
▁9	-150
▁יכ	-151
ומ	-152
פי	-153
▁הם	-154
ין	-155
נים	-156
▁היה	-157
טר	-158
ולם	-159
לה	-160
▁הע	-161
▁וב	-162
▁אם	-163
▁סי	-164
▁מו	-165
▁לב	-166
▁עב	-167
▁בש	-168
▁שמ	-169
▁יה	-170
▁במ	-171
▁יי	-172
דע	-173
▁מצ	-174
▁יכול	-175
▁די	-176
▁כא	-177
▁הצ	-178
▁עצ	-179
רא	-180
חר	-181
▁לפ	-182
▁מק	-183
רכ	-184
▁אבל	-185
▁הג	-186
אל	-187
▁הק	-188
▁פר	-189
▁אמ	-190
▁הכ	-191
▁רק	-192
▁3	-193
נות	-194
▁ומ	-195
בה	-196
▁הס	-197
▁לח	-198
▁יל	-199
▁לש	-200
▁דבר	-201
▁וא	-202
▁5	-203
▁חש	-204
וג	-205
▁לכ	-206
▁בה	-207
▁–	-208
▁אתה	-209
▁אחד	-210
דה	-211
▁כדי	-212
▁מל	-213
▁חל	-214
▁תק	-215
▁ראש	-216
▁יר	-217
דם	-218
▁להיות	-219
וס	-220
▁פע	-221
▁הנ	-222
▁אפ	-223
שות	-224
▁כול	-225
▁מכ	-226
זר	-227
▁4	-228
אי	-229
▁e	-230
▁צרי	-231
מן	-232
נת	-233
▁כך	-234
▁בת	-235
▁טוב	-236
▁וכ	-237
▁טי	-238
מת	-239
▁רב	-240
חנו	-241
▁חבר	-242
דים	-243
וה	-244
וך	-245
חי	-246
עה	-247
▁אנחנו	-248
▁שלי	-249
▁ישר	-250
וכ	-251
▁8	-252
▁לק	-253
▁מדי	-254
▁!	-255
▁פי	-256
▁מב	-257
▁בל	-258
▁כמו	-259
▁אנשים	-260
▁ישראל	-261
▁הל	-262
▁לל	-263
▁תח	-264
▁מר	-265
▁דר	-266
ונה	-267
▁הז	-268
▁שלה	-269
▁6	-270
▁7	-271
מים	-272
בע	-273
דול	-274
▁s	-275
נס	-276
▁ידי	-277
▁רג	-278
▁עד	-279
▁וג	-280
וט	-281
▁וס	-282
▁ית	-283
קי	-284
▁וע	-285
▁רוצ	-286
▁i	-287
▁וצ	-288
▁שלך	-289
ורה	-290
▁ביותר	-291
▁כש	-292
▁קי	-293
▁זאת	-294
▁אמר	-295
יא	-296
וף	-297
▁בכל	-298
▁קר	-299
▁שני	-300
▁היית	-301
▁אז	-302
כם	-303
▁הה	-304
▁יו	-305
▁ונ	-306
▁וי	-307
▁רצ	-308
▁האם	-309
▁ער	-310
קה	-311
▁יצ	-312
▁חד	-313
▁זמן	-314
▁זו	-315
▁כמה	-316
צע	-317
▁מפ	-318
נט	-319
חק	-320
▁יס	-321
▁שב	-322
▁אותו	-323
▁ממ	-324
ודה	-325
ילו	-326
תה	-327
▁חו	-328
כה	-329
▁בין	-330
▁ספר	-331
עות	-332
▁הו	-333
ורי	-334
▁ופ	-335
▁S	-336
▁ך	-337
▁מד	-338
יו	-339
▁אין	-340
▁עבור	-341
▁שפ	-342
▁יח	-343
▁הד	-344
▁גי	-345
ילה	-346
גל	-347
▁קצ	-348
▁עוד	-349
▁שלנו	-350
▁היו	-351
לו	-352
אר	-353
▁הזה	-354
אה	-355
▁גר	-356
חה	-357
▁רוב	-358
▁תה	-359
▁שת	-360
▁בב	-361
ולי	-362
חות	-363
▁קט	-364
▁מאוד	-365
▁אנו	-366
וני	-367
▁t	-368
▁A	-369
▁בח	-370
▁לס	-371
▁בני	-372
מיד	-373
▁צריך	-374
אים	-375
גיע	-376
מוד	-377
▁שנ	-378
▁עש	-379
▁כבר	-380
▁C	-381
▁עי	-382
▁לך	-383
▁גדול	-384
▁כמ	-385
▁לפני	-386
אות	-387
▁לת	-388
▁לאחר	-389
▁זכ	-390
▁הט	-391
▁פת	-392
▁וש	-393
▁יט	-394
זי	-395
▁תר	-396
▁איך	-397
▁יק	-398
▁אשר	-399
ירות	-400
▁הרבה	-401
▁יד	-402
ונים	-403
▁שלו	-404
▁לעשות	-405
ירה	-406
▁אך	-407
▁לצ	-408
▁נית	-409
▁נכ	-410
בד	-411
▁בו	-412
▁”	-413
▁[	-414
▁צי	-415
▁ממש	-416
▁T	-417
▁o	-418
▁חלק	-419
▁דברים	-420
▁עולם	-421
▁a	-422
▁טר	-423
סף	-424
▁שהוא	-425
כן	-426
▁רח	-427
▁נג	-428
▁ספ	-429
▁M	-430
▁כאשר	-431
▁יפ	-432
▁אתם	-433
▁ינ	-434
▁וק	-435
▁אלה	-436
▁עלי	-437
▁עדי	-438
▁רכ	-439
▁לנו	-440
▁שם	-441
▁רע	-442
▁אדם	-443
פת	-444
▁יב	-445
▁פש	-446
יע	-447
ומי	-448
▁ראשונ	-449
טה	-450
▁בט	-451
▁אחת	-452
▁עצמ	-453
▁אס	-454
גר	-455
▁P	-456
▁רוצה	-457
זור	-458
▁בס	-459
▁יום	-460
▁שלהם	-461
▁שר	-462
▁היום	-463
▁n	-464
▁אחרים	-465
▁עבודה	-466
▁נש	-467
מד	-468
ופן	-469
▁באופן	-470
▁חשב	-471
▁כת	-472
▁מז	-473
ראה	-474
עת	-475
▁ילדים	-476
▁נה	-477
▁הוד	-478
▁ורי	-479
צי	-480
▁שו	-481
▁ולא	-482
▁שלא	-483
נית	-484
דרך	-485
▁אב	-486
▁שנים	-487
▁האי	-488
ופה	-489
▁עס	-490
▁שנה	-491
▁]	-492
▁משפ	-493
ונות	-494
יים	-495
▁מספר	-496
▁רו	-497
▁אפשר	-498
▁תו	-499
▁אינ	-500
חת	-501
▁B	-502
▁איר	-503
הו	-504
▁דו	-505
▁ין	-506
יתי	-507
▁כן	-508
גע	-509
▁אלי	-510
▁לנ	-511
▁חוש	-512
▁גב	-513
▁כאן	-514
▁;	-515
▁תמיד	-516
קום	-517
▁תש	-518
רים	-519
ושה	-520
▁הייתה	-521
מנ	-522
▁אומר	-523
▁מט	-524
▁בג	-525
שת	-526
ובה	-527
▁בית	-528
▁השת	-529
..	-530
▁עני	-531
בין	-532
▁ודע	-533
▁כולים	-534
ינ	-535
הב	-536
▁מדינה	-537
שור	-538
▁er	-539
▁r	-540
▁בכ	-541
▁אותם	-542
▁I	-543
▁בק	-544
▁בנו	-545
ורך	-546
לות	-547
סט	-548
▁אחרי	-549
▁תפ	-550
▁עכ	-551
יבה	-552
▁“	-553
▁במה	-554
▁קוד	-555
גיש	-556
▁נפ	-557
▁פעם	-558
ולה	-559
▁ימ	-560
▁רבים	-561
לך	-562
▁להם	-563
▁נים	-564
▁תכ	-565
לת	-566
on	-567
▁יהיה	-568
▁משהו	-569
▁ריק	-570
▁D	-571
▁עיל	-572
▁לכל	-573
▁שימ	-574
▁סב	-575
רט	-576
▁/	-577
▁תע	-578
▁החל	-579
▁c	-580
▁סוג	-581
פור	-582
▁ניתן	-583
מצ	-584
▁ראשון	-585
▁כוח	-586
דת	-587
▁הכל	-588
▁למה	-589
▁לג	-590
▁אותה	-591
▁טיפ	-592
▁פור	-593
או	-594
▁מג	-595
▁להת	-596
שיו	-597
▁עכשיו	-598
▁פשוט	-599
▁סכ	-600
▁שאני	-601
ברה	-602
▁אולי	-603
דו	-604
▁חוק	-605
▁בשנת	-606
▁עדיין	-607
▁שלכם	-608
▁חשוב	-609
▁אף	-610
▁צפ	-611
▁סט	-612
he	-613
▁יוד	-614
נוי	-615
וון	-616
▁W	-617
▁כנ	-618
▁קור	-619
▁מטר	-620
▁מן	-621
▁שהם	-622
▁להי	-623
▁קב	-624
ודי	-625
▁ף	-626
▁הן	-627
▁אפילו	-628
▁שכ	-629
▁חז	-630
רכת	-631
▁כר	-632
▁ברי	-633
▁דרך	-634
דש	-635
▁נק	-636
▁מלח	-637
קד	-638
▁תל	-639
▁בעולם	-640
▁קה	-641
▁ללא	-642
▁שיש	-643
▁H	-644
▁נות	-645
▁לרא	-646
▁G	-647
▁למע	-648
▁לד	-649
▁אלא	-650
▁בחי	-651
▁שימוש	-652
▁יע	-653
▁חושב	-654
וחד	-655
▁באמ	-656
▁מיוחד	-657
▁טע	-658
▁L	-659
▁שוב	-660
▁באמצע	-661
▁בנ	-662
▁צר	-663
לא	-664
קרים	-665
▁ָ	-666
▁באמת	-667
▁E	-668
▁חייב	-669
▁התח	-670
קט	-671
▁תמ	-672
▁לוה	-673
▁וד	-674
▁צע	-675
▁לראות	-676
ar	-677
▁מערכת	-678
▁ויות	-679
▁וח	-680
▁ואת	-681
▁לוהים	-682
▁F	-683
▁תנ	-684
▁לכם	-685
▁...	-686
▁האדם	-687
▁R	-688
צד	-689
ואה	-690
▁בז	-691
▁ְ	-692
ורים	-693
▁הייתי	-694
ובר	-695
an	-696
מין	-697
תר	-698
▁רפ	-699
▁קשה	-700
▁קל	-701
▁החיים	-702
▁כם	-703
or	-704
▁חיים	-705
▁במהלך	-706
▁מנ	-707
▁יני	-708
▁ץ	-709
גון	-710
▁משת	-711
▁עק	-712
▁שום	-713
▁רוצים	-714
בים	-715
▁פרס	-716
כות	-717
▁זר	-718
▁בדרך	-719
▁פני	-720
דות	-721
▁d	-722
▁נשים	-723
▁הול	-724
▁המש	-725
es	-726
▁מרכ	-727
▁נמצ	-728
▁צריכ	-729
▁בשב	-730
▁N	-731
▁סמ	-732
מות	-733
משך	-734
al	-735
▁בבית	-736
▁ילי	-737
▁אותי	-738
▁שאתה	-739
▁אוהב	-740
▁שינוי	-741
▁יודע	-742
שהו	-743
זו	-744
▁בדי	-745
▁קו	-746
▁טיפול	-747
גיה	-748
▁נראה	-749
▁עוב	-750
▁גבר	-751
▁אלו	-752
▁עבר	-753
▁מקום	-754
▁שמעות	-755
in	-756
▁ולי	-757
▁סיפור	-758
▁דינות	-759
▁חדש	-760
▁m	-761
▁רבות	-762
▁פעמים	-763
▁לאומי	-764
שב	-765
▁ערכ	-766
▁נע	-767
▁היתה	-768
▁קבל	-769
▁מנה	-770
▁עסק	-771
▁נס	-772
▁שתי	-773
דל	-774
קרה	-775
▁פרי	-776
▁ּ	-777
▁in	-778
▁אה	-779
▁b	-780
צור	-781
▁עניין	-782
▁ציה	-783
▁שזה	-784
▁עשר	-785
ויות	-786
▁חופ	-787
▁הופ	-788
▁לפי	-789
▁מוצ	-790
▁%	-791
ליח	-792
▁עול	-793
▁אחרונ	-794
▁יז	-795
▁אינו	-796
er	-797
▁יא	-798
▁עיר	-799
▁הבית	-800
▁סיכ	-801
טו	-802
▁חק	-803
יג	-804
טים	-805
▁איש	-806
יהם	-807
▁הרי	-808
▁כיצד	-809
▁מתח	-810
▁נטר	-811
▁מידע	-812
▁גבוה	-813
▁בסי	-814
▁פח	-815
פה	-816
▁תא	-817
▁שבו	-818
▁קבוצ	-819
בות	-820
▁O	-821
▁ברית	-822
▁פחות	-823
▁יהודי	-824
▁l	-825
▁סרט	-826
▁נגד	-827
מני	-828
▁האו	-829
▁לקבל	-830
▁כד	-831
עט	-832
▁כמעט	-833
▁תג	-834
▁טל	-835
▁כולם	-836
▁שהיא	-837
בוד	-838
▁טבע	-839
▁למצ	-840
תם	-841
ימ	-842
▁g	-843
▁עילות	-844
▁בצ	-845
▁קשור	-846
נוע	-847
יבור	-848
▁במקום	-849
ואר	-850
▁בן	-851
▁כולל	-852
קיד	-853
▁הכי	-854
▁מים	-855
▁יתר	-856
▁יכולה	-857
▁קרא	-858
▁מאז	-859
▁ארץ	-860
▁הדבר	-861
▁דור	-862
▁ארצ	-863
▁גור	-864
▁ַ	-865
▁בפ	-866
▁מלא	-867
▁רעי	-868
▁השתמש	-869
▁p	-870
▁הגדול	-871
▁אצ	-872
פשר	-873
▁מוש	-874
▁בעלי	-875
▁שירות	-876
▁במשך	-877
▁ינו	-878
▁החברה	-879
▁נטרנט	-880
▁נח	-881
▁עצמו	-882
▁שלוש	-883
▁כפי	-884
▁באות	-885
▁ִ	-886
▁ביט	-887
▁פשר	-888
▁תוכ	-889
▁קשר	-890
▁עצמי	-891
▁ידע	-892
▁עתי	-893
וז	-894
▁שע	-895
▁וו	-896
▁כתב	-897
▁נר	-898
▁הבי	-899
▁שונים	-900
▁תם	-901
▁נוש	-902
פתח	-903
מפ	-904
ואי	-905
▁מישהו	-906
טינ	-907
▁גיל	-908
▁נת	-909
ליך	-910
▁אופ	-911
▁דרכ	-912
▁גדולה	-913
▁האלה	-914
▁אית	-915
▁צד	-916
קש	-917
ילים	-918
▁בלתי	-919
▁כלל	-920
▁הגיע	-921
▁יכולת	-922
יבות	-923
▁היר	-924
▁חס	-925
▁דק	-926
▁חזר	-927
▁עושה	-928
▁משי	-929
▁בשביל	-930
יח	-931
▁תפקיד	-932
▁למר	-933
כו	-934
חור	-935
▁ודעים	-936
▁אור	-937
ובן	-938
רב	-939
▁ולר	-940
חים	-941
מינ	-942
▁ריאות	-943
ou	-944
▁פה	-945
▁פסי	-946
ודש	-947
▁מוע	-948
▁בגל	-949
▁לסטינ	-950
▁המי	-951
▁הודים	-952
▁נא	-953
▁ימים	-954
▁למרות	-955
▁שחק	-956
▁יליון	-957
▁מכל	-958
שיא	-959
▁מהם	-960
▁נכון	-961
▁ארצות	-962
▁תהיה	-963
▁גל	-964
▁דוג	-965
פיק	-966
▁בתוך	-967
▁סוף	-968
▁רוח	-969
טת	-970
▁בגלל	-971
▁ממשלה	-972
חו	-973
▁באו	-974
▁עמ	-975
▁ילד	-976
▁תוכל	-977
ורת	-978
▁רסי	-979
ביר	-980
ינו	-981
▁בעי	-982
▁בשל	-983
▁לכן	-984
▁רט	-985
▁ראה	-986
כנו	-987
▁הנה	-988
▁מגיע	-989
מבר	-990
ביע	-991
▁שק	-992
דעת	-993
ורר	-994
▁לדעת	-995
▁בקר	-996
הם	-997
נם	-998
▁שעות	-999
▁סדר	-1000
▁פל	-1001
▁מלחמה	-1002
▁קול	-1003
וצר	-1004
▁ספק	-1005
▁וספ	-1006
▁באר	-1007
▁יחד	-1008
▁וכנית	-1009
▁למצוא	-1010
▁בדיוק	-1011
▁לדבר	-1012
▁חברות	-1013
▁בינ	-1014
▁בלי	-1015
▁המו	-1016
▁מוס	-1017
▁ערך	-1018
▁ביום	-1019
▁העיר	-1020
▁בזמן	-1021
▁אותך	-1022
▁אד	-1023
▁מתוך	-1024
▁לגבי	-1025
▁לוגי	-1026
▁פעולה	-1027
עם	-1028
▁אירוע	-1029
▁נמצא	-1030
▁ריקאי	-1031
▁קומ	-1032
▁משר	-1033
▁כזה	-1034
▁אחרת	-1035
▁f	-1036
▁10	-1037
▁שט	-1038
▁כיוון	-1039
▁ועל	-1040
וץ	-1041
▁קצוע	-1042
▁ומר	-1043
▁הזו	-1044
en	-1045
▁חזק	-1046
גש	-1047
פק	-1048
▁לשמ	-1049
▁משרד	-1050
▁להפ	-1051
▁נצ	-1052
▁אוני	-1053
▁ובדים	-1054
▁תהליך	-1055
כב	-1056
ווה	-1057
וחר	-1058
om	-1059
▁נוס	-1060
▁וגם	-1061
▁הזד	-1062
▁אוניב	-1063
▁השני	-1064
▁מות	-1065
▁וט	-1066
at	-1067
▁שבה	-1068
יבי	-1069
▁ואני	-1070
סה	-1071
עו	-1072
▁רש	-1073
▁’	-1074
▁קצת	-1075
▁תוך	-1076
▁הצל	-1077
▁סוכ	-1078
▁השנה	-1079
▁כסף	-1080
▁לכך	-1081
▁קיב	-1082
▁יין	-1083
▁מעט	-1084
▁חר	-1085
▁דא	-1086
▁מדובר	-1087
צב	-1088
▁סור	-1089
▁מספיק	-1090
▁תונים	-1091
▁חברתי	-1092
▁פתר	-1093
▁הזאת	-1094
▁כני	-1095
▁מדוע	-1096
ודת	-1097
▁רד	-1098
▁לפחות	-1099
▁ארגון	-1100
▁חמ	-1101
▁בחר	-1102
▁עשו	-1103
▁טובה	-1104
▁שיע	-1105
▁והוא	-1106
▁The	-1107
▁וסי	-1108
▁יור	-1109
▁כיום	-1110
▁סופ	-1111
ילי	-1112
▁וזה	-1113
▁הדרך	-1114
▁וצרים	-1115
▁וריה	-1116
▁עליו	-1117
st	-1118
▁למש	-1119
▁ברח	-1120
▁קודם	-1121
▁בצורה	-1122
▁u	-1123
▁וצאות	-1124
▁אולם	-1125
▁זהו	-1126
ווח	-1127
▁כלו	-1128
▁עית	-1129
▁בד	-1130
▁נוח	-1131
ליט	-1132
▁ציא	-1133
▁תנו	-1134
re	-1135
▁חת	-1136
▁בהם	-1137
▁מאו	-1138
כת	-1139
▁רוס	-1140
▁תקופה	-1141
▁האמ	-1142
▁אוכל	-1143
▁יג	-1144
▁סו	-1145
▁בטוח	-1146
שוב	-1147
▁מול	-1148
▁צו	-1149
▁סג	-1150
▁אחרות	-1151
▁קצר	-1152
▁רכב	-1153
▁ארה	-1154
▁בעיות	-1155
▁קבוצה	-1156
▁הפר	-1157
▁בוא	-1158
▁איזה	-1159
▁ירוש	-1160
▁לפת	-1161
▁לקר	-1162
▁עזר	-1163
▁המח	-1164
▁כמובן	-1165
▁רגע	-1166
▁ידוע	-1167
▁עוש	-1168
▁מוק	-1169
ion	-1170
▁נוכ	-1171
▁משתמש	-1172
וקר	-1173
▁יניים	-1174
▁מאשר	-1175
▁צב	-1176
▁ון	-1177
חון	-1178
▁להבין	-1179
▁סביב	-1180
נק	-1181
▁סטר	-1182
▁לוק	-1183
▁־	-1184
אם	-1185
nd	-1186
▁בול	-1187
▁להגיע	-1188
▁אש	-1189
▁אק	-1190
▁מנת	-1191
▁ֶ	-1192
▁עושים	-1193
שא	-1194
▁אג	-1195
▁שלושה	-1196
טרה	-1197
רח	-1198
▁לעולם	-1199
שיך	-1200
▁הזדמנ	-1201
סו	-1202
▁אמיתי	-1203
פיע	-1204
▁נדר	-1205
▁ניה	-1206
▁בעיקר	-1207
▁ההי	-1208
▁סוגל	-1209
▁אינם	-1210
▁עלה	-1211
▁מדיני	-1212
▁נד	-1213
▁תוצ	-1214
▁בלבד	-1215
▁ברור	-1216
▁תלמיד	-1217
▁וף	-1218
ומת	-1219
▁תוצאה	-1220
▁מרי	-1221
▁טובים	-1222
▁בוע	-1223
▁כו	-1224
▁מוד	-1225
▁מונ	-1226
▁רוי	-1227
▁תחיל	-1228
ודות	-1229
▁וני	-1230
▁מעל	-1231
▁וקר	-1232
▁אותנו	-1233
▁כה	-1234
▁מור	-1235
▁זכוי	-1236
▁מדע	-1237
▁לט	-1238
▁בעוד	-1239
▁ומרים	-1240
ro	-1241
▁לתת	-1242
גד	-1243
▁למעשה	-1244
▁קיים	-1245
▁נט	-1246
▁V	-1247
▁U	-1248
מוך	-1249
▁רשי	-1250
▁ירופה	-1251
▁בכך	-1252
רו	-1253
▁חברת	-1254
פש	-1255
▁לזה	-1256
קרי	-1257
▁שג	-1258
▁בנוסף	-1259
▁וליטי	-1260
▁יחי	-1261
▁שאתם	-1262
▁אצל	-1263
▁ואז	-1264
▁מעבר	-1265
▁רשת	-1266
▁שאלה	-1267
מודד	-1268
▁תמודד	-1269
זרח	-1270
▁השא	-1271
וביל	-1272
▁אינה	-1273
▁נב	-1274
▁קטן	-1275
▁יהיו	-1276
▁וז	-1277
▁ובר	-1278
▁כנס	-1279
▁חסר	-1280
▁עומ	-1281
▁פחד	-1282
▁חברים	-1283
▁קורה	-1284
▁עומד	-1285
▁ללמוד	-1286
▁מתחיל	-1287
▁ווי	-1288
▁מכן	-1289
▁לר	-1290
▁יית	-1291
▁תינו	-1292
▁באי	-1293
▁ומה	-1294
▁חול	-1295
▁רחב	-1296
▁ציבור	-1297
▁התחיל	-1298
▁קרה	-1299
il	-1300
▁יקר	-1301
▁בכלל	-1302
▁לקחת	-1303
ra	-1304
▁לז	-1305
תיים	-1306
שרי	-1307
▁אחרון	-1308
▁יהם	-1309
ביא	-1310
▁ייר	-1311
▁פית	-1312
▁הרג	-1313
▁זי	-1314
▁שונות	-1315
▁מרגיש	-1316
▁פרק	-1317
▁מחקר	-1318
ריך	-1319
▁למי	-1320
▁חמי	-1321
▁תינוק	-1322
▁שיר	-1323
▁גד	-1324
▁יחס	-1325
▁גברים	-1326
▁לעת	-1327
▁פק	-1328
▁en	-1329
▁ועד	-1330
▁מחיר	-1331
▁מקור	-1332
▁משפט	-1333
▁חירות	-1334
▁״	-1335
▁ודר	-1336
▁w	-1337
▁יטחון	-1338
▁הללו	-1339
▁לימוד	-1340
▁מילים	-1341
▁אהב	-1342
▁מתי	-1343
▁פא	-1344
▁בוצ	-1345
▁תייח	-1346
▁תייחס	-1347
▁עשה	-1348
▁זוכ	-1349
▁ירות	-1350
▁לעזור	-1351
▁סיבות	-1352
▁טכנו	-1353
▁לוגיה	-1354
▁מקומי	-1355
▁צריכה	-1356
▁בתח	-1357
▁עשי	-1358
▁גופ	-1359
▁צמ	-1360
ol	-1361
▁בעל	-1362
▁מנס	-1363
▁נסי	-1364
▁כלי	-1365
▁נוסף	-1366
▁מיי	-1367
▁חינו	-1368
▁לבד	-1369
▁נרגיה	-1370
▁ינג	-1371
▁פוס	-1372
▁תמי	-1373
▁החדש	-1374
▁ציאות	-1375
▁of	-1376
▁איכות	-1377
▁נז	-1378
לק	-1379
ic	-1380
זיק	-1381
▁טבעי	-1382
▁רואה	-1383
טיח	-1384
▁קורא	-1385
▁חדשות	-1386
▁משפחה	-1387
▁לומר	-1388
▁שנייה	-1389
▁שתמש	-1390
סק	-1391
▁היל	-1392
▁קוח	-1393
▁לעבוד	-1394
▁חודש	-1395
▁זק	-1396
▁מצב	-1397
לם	-1398
יש	-1399
▁ליצור	-1400
▁תב	-1401
▁כלכ	-1402
▁משק	-1403
▁פורס	-1404
et	-1405
▁סק	-1406
▁יסי	-1407
▁רויקט	-1408
▁דקות	-1409
▁ירי	-1410
▁חינוך	-1411
▁ing	-1412
▁כעת	-1413
▁קומות	-1414
צר	-1415
▁הבא	-1416
▁עובד	-1417
▁קרי	-1418
▁עשוי	-1419
▁עמד	-1420
▁עיקרי	-1421
▁הסי	-1422
▁מזון	-1423
נון	-1424
▁קשורת	-1425
▁חצי	-1426
▁פשרות	-1427
el	-1428
▁אפשרי	-1429
▁כתוב	-1430
▁פיתוח	-1431
▁on	-1432
▁דומה	-1433
▁מרכזי	-1434
▁להצ	-1435
▁מסע	-1436
▁ליל	-1437
▁ולה	-1438
▁רבה	-1439
▁שאל	-1440
▁כוחות	-1441
▁אוו	-1442
▁הירות	-1443
▁סל	-1444
▁חברה	-1445
▁מני	-1446
▁קיבל	-1447
▁סת	-1448
▁תחת	-1449
▁הכול	-1450
▁משחק	-1451
▁עסקים	-1452
▁השנים	-1453
▁יף	-1454
▁מוות	-1455
▁לוח	-1456
רבי	-1457
▁לעתים	-1458
▁הלא	-1459
▁שלום	-1460
▁דמ	-1461
▁למשל	-1462
▁תמונה	-1463
▁נצי	-1464
▁ניהול	-1465
▁טלפ	-1466
▁חוס	-1467
כי	-1468
▁יון	-1469
▁אמור	-1470
▁החוק	-1471
▁מחדש	-1472
▁נשאר	-1473
▁אהבה	-1474
▁ספור	-1475
▁הגוף	-1476
▁חשבון	-1477
ch	-1478
▁מקרים	-1479
▁איפה	-1480
▁חופש	-1481
▁שונה	-1482
▁נקר	-1483
▁אנשי	-1484
▁עצמם	-1485
▁רגיל	-1486
▁כלכלי	-1487
▁תשובה	-1488
חל	-1489
▁אחוז	-1490
▁כאלה	-1491
▁ֵ	-1492
▁תיק	-1493
▁התפתח	-1494
▁עתיד	-1495
▁אן	-1496
▁ערב	-1497
▁האמת	-1498
▁גבוהה	-1499
רחש	-1500
▁בתי	-1501
▁לבית	-1502
▁ירה	-1503
▁ירושל	-1504
נהג	-1505
▁ימי	-1506
▁טרי	-1507
▁הבינ	-1508
▁שאלות	-1509
▁מופ	-1510
▁ארבע	-1511
▁צורך	-1512
▁אוויר	-1513
▁ספרים	-1514
ועל	-1515
▁צוות	-1516
▁היט	-1517
▁ונד	-1518
▁מדבר	-1519
▁מכיר	-1520
▁גישה	-1521
▁מצאים	-1522
▁יכר	-1523
▁וצר	-1524
▁שש	-1525
▁אמנות	-1526
ri	-1527
והי	-1528
▁פוט	-1529
▁התנ	-1530
▁דע	-1531
▁נגל	-1532
טות	-1533
▁חדשים	-1534
ותפ	-1535
▁גדל	-1536
▁חיפ	-1537
▁לנד	-1538
▁רווח	-1539
▁פט	-1540
▁שול	-1541
▁מין	-1542
קע	-1543
▁שמח	-1544
▁המשיך	-1545
▁עולמי	-1546
▁מצא	-1547
▁קד	-1548
מל	-1549
▁שלב	-1550
▁מעולם	-1551
▁קס	-1552
▁שפה	-1553
▁בתחום	-1554
▁למד	-1555
▁הורים	-1556
▁וספים	-1557
▁מחשב	-1558
▁ככל	-1559
▁מנהיג	-1560
קור	-1561
▁וזי	-1562
▁דרכים	-1563
▁דוד	-1564
▁הפך	-1565
▁באותו	-1566
בק	-1567
תב	-1568
▁ליד	-1569
▁ליש	-1570
▁אזור	-1571
▁ללכת	-1572
▁בהת	-1573
▁היש	-1574
▁כולנו	-1575
▁האל	-1576
▁שאין	-1577
▁חומר	-1578
▁שרת	-1579
▁יוכל	-1580
▁ודשים	-1581
▁תרבות	-1582
▁לשמור	-1583
על	-1584
▁ביח	-1585
▁יפה	-1586
▁שומ	-1587
נהל	-1588
▁רגש	-1589
▁J	-1590
וצא	-1591
▁רס	-1592
▁כגון	-1593
▁משום	-1594
ופו	-1595
▁רות	-1596
▁נכנס	-1597
▁כאב	-1598
▁ערכות	-1599
לום	-1600
▁נקרא	-1601
▁עולה	-1602
▁יבורי	-1603
▁חופשי	-1604
למ	-1605
▁ביצ	-1606
▁יסיון	-1607
▁בנים	-1608
ובל	-1609
▁טק	-1610
▁אינט	-1611
▁דרג	-1612
▁מסו	-1613
▁נשיא	-1614
▁לחץ	-1615
ay	-1616
▁צפון	-1617
▁קצועי	-1618
▁כדור	-1619
▁מדינת	-1620
▁תחילה	-1621
▁ורג	-1622
▁באתר	-1623
▁ברחבי	-1624
▁שכל	-1625
▁פג	-1626
▁להפוך	-1627
▁מאוחר	-1628
אש	-1629
▁אילו	-1630
▁אמא	-1631
▁דג	-1632
▁קונ	-1633
▁אט	-1634
▁K	-1635
▁אליו	-1636
▁the	-1637
▁פתי	-1638
▁לאורך	-1639
▁ארוכ	-1640
▁טוד	-1641
כמ	-1642
ופא	-1643
ירו	-1644
▁חוץ	-1645
▁הצלחה	-1646
פל	-1647
▁ממנו	-1648
▁מבוס	-1649
▁y	-1650
▁כנראה	-1651
▁רומ	-1652
▁שעה	-1653
▁מונות	-1654
▁ואי	-1655
▁יצא	-1656
▁טרא	-1657
בוע	-1658
▁קנ	-1659
תפ	-1660
▁בקרב	-1661
▁מוכ	-1662
▁מית	-1663
▁אמרה	-1664
▁בשנה	-1665
▁עקב	-1666
▁קש	-1667
▁אחורי	-1668
▁שחר	-1669
▁שלישי	-1670
▁טלו	-1671
יי	-1672
▁צבע	-1673
כון	-1674
▁וֹ	-1675
▁פתרון	-1676
▁הטוב	-1677
▁גז	-1678
▁בעיה	-1679
▁רעיון	-1680
▁דמי	-1681
▁נדרש	-1682
▁רוא	-1683
▁חדשה	-1684
▁יחסי	-1685
▁עובדה	-1686
▁מפל	-1687
▁שהו	-1688
▁שנת	-1689
▁הולך	-1690
▁ורות	-1691
▁וקרטי	-1692
▁טודנט	-1693
▁לקרוא	-1694
▁רפואי	-1695
שיג	-1696
▁להשיג	-1697
▁היסט	-1698
▁הגנה	-1699
▁החלטה	-1700
▁בור	-1701
▁רוץ	-1702
▁חדר	-1703
▁תודה	-1704
▁חמש	-1705
▁יציר	-1706
▁ביצוע	-1707
▁חרי	-1708
▁מבוסס	-1709
▁ינה	-1710
▁צטר	-1711
▁דומ	-1712
▁לקח	-1713
▁נול	-1714
▁תחילת	-1715
▁מפת	-1716
▁עונה	-1717
▁תמיכה	-1718
▁מורה	-1719
▁עבד	-1720
▁מסוי	-1721
▁תחר	-1722
▁אירופ	-1723
▁חריות	-1724
▁לשנות	-1725
▁התא	-1726
▁ניס	-1727
▁פות	-1728
▁חוסר	-1729
▁כמות	-1730
▁טיבי	-1731
▁מזה	-1732
▁מפני	-1733
▁ודי	-1734
▁פיר	-1735
▁בסוף	-1736
▁הילד	-1737
▁יצוני	-1738
▁עלינו	-1739
▁היינו	-1740
▁כולות	-1741
▁al	-1742
▁נור	-1743
▁בעבר	-1744
▁יורק	-1745
▁ולכן	-1746
▁המשחק	-1747
▁עבודת	-1748
oo	-1749
▁ווד	-1750
▁St	-1751
▁אומ	-1752
▁צדק	-1753
▁במקרה	-1754
▁הים	-1755
▁המס	-1756
▁לבצע	-1757
טון	-1758
▁הפי	-1759
▁לכת	-1760
▁מדה	-1761
▁מהר	-1762
▁משא	-1763
▁עיצ	-1764
▁זכר	-1765
▁פולי	-1766
▁ביע	-1767
ow	-1768
▁נושא	-1769
▁In	-1770
▁ולט	-1771
▁לחל	-1772
▁בעת	-1773
▁יץ	-1774
▁עצמך	-1775
▁הסכם	-1776
▁קוב	-1777
▁לחשוב	-1778
▁20	-1779
▁שית	-1780
▁מאמינ	-1781
▁מלחמת	-1782
is	-1783
▁סע	-1784
▁דוגמה	-1785
▁בנושא	-1786
▁לחיות	-1787
▁רואים	-1788
▁תואר	-1789
▁חוקי	-1790
▁התנהג	-1791
▁ואם	-1792
▁תכנית	-1793
▁הצב	-1794
▁לגר	-1795
▁תרופ	-1796
▁בסופו	-1797
▁ממשלת	-1798
אן	-1799
▁המצב	-1800
▁ורמים	-1801
▁כבוד	-1802
▁השפ	-1803
▁עניינ	-1804
▁חיי	-1805
▁קוחות	-1806
▁ליפ	-1807
▁אישה	-1808
ed	-1809
▁זמ	-1810
▁שטח	-1811
▁הבע	-1812
▁ִי	-1813
▁ורד	-1814
▁נולד	-1815
▁עז	-1816
▁שרה	-1817
▁צפוי	-1818
קיע	-1819
▁ווה	-1820
▁עצמה	-1821
▁שחור	-1822
ובי	-1823
▁שווי	-1824
▁רמ	-1825
▁גוד	-1826
▁דעת	-1827
▁זכות	-1828
▁הסרט	-1829
▁ההיסט	-1830
▁נתיים	-1831
▁לחלוט	-1832
▁דאג	-1833
▁ויז	-1834
▁מצד	-1835
▁מפלג	-1836
▁פתוח	-1837
לח	-1838
▁גורם	-1839
▁פנים	-1840
▁רמני	-1841
▁שנות	-1842
▁כות	-1843
▁לבין	-1844
▁בחיים	-1845
▁ראוי	-1846
כיר	-1847
▁הרגיש	-1848
▁טרור	-1849
▁מרכז	-1850
▁תוכלו	-1851
▁סיבה	-1852
▁כלומר	-1853
am	-1854
▁החז	-1855
▁ניו	-1856
▁מאפשר	-1857
▁צעד	-1858
▁מריקה	-1859
▁בפני	-1860
it	-1861
▁בריא	-1862
▁דין	-1863
▁פרש	-1864
▁וכן	-1865
▁כשה	-1866
ve	-1867
▁עקבות	-1868
מע	-1869
▁אבא	-1870
▁ארוח	-1871
▁תקופ	-1872
▁וּ	-1873
▁אבי	-1874
▁מסר	-1875
▁קרב	-1876
▁כאילו	-1877
▁זקוק	-1878
▁התק	-1879
▁מהפ	-1880
▁בוצות	-1881
▁נעשה	-1882
▁מסוימ	-1883
▁רצון	-1884
▁שאנו	-1885
▁השאלה	-1886
▁הלי	-1887
▁רצה	-1888
ליה	-1889
▁*	-1890
▁צרכ	-1891
▁עליהם	-1892
▁אמצע	-1893
▁עו	-1894
▁הפעם	-1895
▁חברי	-1896
▁בסיס	-1897
חן	-1898
קדמ	-1899
▁הצליח	-1900
▁תת	-1901
וציא	-1902
▁בשם	-1903
▁המקום	-1904
▁רמניה	-1905
▁משפחת	-1906
▁עיצוב	-1907
▁שוק	-1908
▁מאד	-1909
▁חיפוש	-1910
▁חור	-1911
▁מקרה	-1912
▁אמרתי	-1913
▁אכ	-1914
▁מוח	-1915
▁st	-1916
▁טוע	-1917
▁המידע	-1918
▁איראן	-1919
▁h	-1920
▁מציע	-1921
▁מקבל	-1922
▁דוגמ	-1923
▁מנהל	-1924
▁בוקר	-1925
▁הולכ	-1926
le	-1927
▁המת	-1928
▁נוע	-1929
▁ביקור	-1930
▁ספורט	-1931
▁אתכם	-1932
▁יבי	-1933
▁השפעה	-1934
▁באזור	-1935
▁מטרה	-1936
▁לוקח	-1937
▁כללי	-1938
▁נגלית	-1939
▁אהוב	-1940
▁מדעי	-1941
▁אמן	-1942
זרת	-1943
▁גן	-1944
▁מבין	-1945
▁להג	-1946
▁כדאי	-1947
▁מאמר	-1948
▁ערים	-1949
▁ודעות	-1950
תף	-1951
▁תז	-1952
▁קלי	-1953
▁ציל	-1954
▁אותן	-1955
▁טלפון	-1956
ce	-1957
▁ארג	-1958
▁מוכר	-1959
▁זיה	-1960
▁30	-1961
▁הבעיה	-1962
▁ככה	-1963
▁נשק	-1964
▁והיא	-1965
▁at	-1966
▁דיק	-1967
▁גנ	-1968
▁אנושי	-1969
▁לחזור	-1970
▁מיד	-1971
▁גודל	-1972
as	-1973
▁עץ	-1974
▁ייתכן	-1975
▁לגרום	-1976
סיף	-1977
▁לון	-1978
▁עיד	-1979
▁עלול	-1980
▁הוסיף	-1981
▁ומי	-1982
▁מבקש	-1983
▁עמוק	-1984
▁אומרת	-1985
▁ודרני	-1986
▁פנימי	-1987
▁קהילה	-1988
חוד	-1989
יני	-1990
▁חומ	-1991
▁יחידה	-1992
▁סיכון	-1993
▁ויש	-1994
▁רוסיה	-1995
▁והם	-1996
▁והמ	-1997
▁עור	-1998
▁נוספת	-1999
▁שחקים	-2000
▁בגיל	-2001
▁מאות	-2002
גיעה	-2003
▁שכח	-2004
▁אנג	-2005
▁זוהי	-2006
▁כלפי	-2007
▁ויזיה	-2008
▁אתר	-2009
▁הקשר	-2010
ריכ	-2011
▁עמוד	-2012
▁שיעור	-2013
▁העם	-2014
▁מחוץ	-2015
▁Y	-2016
גרת	-2017
▁רצח	-2018
ארד	-2019
▁למען	-2020
▁בעצ	-2021
▁ראו	-2022
▁משקל	-2023
▁צרפת	-2024
▁רמת	-2025
▁לבחור	-2026
▁מיני	-2027
▁תלוי	-2028
▁רחוק	-2029
▁מגוון	-2030
חיד	-2031
▁שפחה	-2032
▁היחיד	-2033
▁מפתח	-2034
▁ליארד	-2035
▁אכן	-2036
▁דם	-2037
▁הגב	-2038
▁מסגרת	-2039
▁הקר	-2040
▁ולו	-2041
▁הסת	-2042
▁משך	-2043
▁משטרה	-2044
▁עירים	-2045
▁ואל	-2046
▁הנשיא	-2047
▁מהמ	-2048
▁מראה	-2049
טנ	-2050
כור	-2051
▁ירד	-2052
▁תוכני	-2053
▁נוכחי	-2054
▁עונ	-2055
▁ורק	-2056
▁באותה	-2057
כול	-2058
▁it	-2059
▁בהתאם	-2060
▁תגובה	-2061
▁וכל	-2062
▁שבת	-2063
ופל	-2064
▁סין	-2065
▁רגל	-2066
▁שיתוף	-2067
▁מבט	-2068
▁ערה	-2069
▁קטנה	-2070
שיר	-2071
▁במי	-2072
▁כבד	-2073
▁עלות	-2074
▁מכשיר	-2075
▁זוג	-2076
▁אמרו	-2077
▁אלב	-2078
▁ייט	-2079
▁ניתוח	-2080
▁ממה	-2081
▁המחקר	-2082
▁ראיתי	-2083
▁נהר	-2084
▁טווח	-2085
▁ארב	-2086
▁תנועה	-2087
▁עין	-2088
▁זוכר	-2089
▁הסיבה	-2090
▁פטר	-2091
▁ולים	-2092
▁שוי	-2093
▁בארה	-2094
▁שבוע	-2095
ותף	-2096
▁ויד	-2097
▁להש	-2098
▁בהן	-2099
▁דוק	-2100
▁15	-2101
▁גש	-2102
▁רסיטת	-2103
▁סוכנ	-2104
▁קהיל	-2105
▁שמות	-2106
▁זרחים	-2107
▁הנו	-2108
▁תקי	-2109
▁עצב	-2110
▁חלוק	-2111
▁סביבה	-2112
▁ברגע	-2113
▁לספק	-2114
ליק	-2115
▁שינה	-2116
וצע	-2117
▁ממוצע	-2118
▁בסדר	-2119
▁כז	-2120
▁וות	-2121
▁לבן	-2122
▁בעיר	-2123
▁תחרות	-2124
▁טרט	-2125
▁אלף	-2126
▁ביל	-2127
▁כונות	-2128
▁וזיקה	-2129
▁גרם	-2130
▁החד	-2131
▁ניצ	-2132
▁ציר	-2133
▁פרופ	-2134
▁ריב	-2135
▁תיא	-2136
▁מחלה	-2137
▁שאר	-2138
חב	-2139
▁קהל	-2140
▁טרטגי	-2141
ופי	-2142
▁בואו	-2143
▁מנסה	-2144
▁למעלה	-2145
▁לעומת	-2146
▁מטרות	-2147
▁הלו	-2148
▁גוף	-2149
▁חיובי	-2150
▁רוד	-2151
▁שאת	-2152
▁מוביל	-2153
▁קבוע	-2154
▁ועוד	-2155
▁מטוס	-2156
▁פרטים	-2157
us	-2158
▁חמד	-2159
▁מוג	-2160
▁קיי	-2161
▁שיו	-2162
▁האתר	-2163
▁תעופה	-2164
▁לתוך	-2165
▁הקרוב	-2166
▁ייצור	-2167
▁re	-2168
▁גיד	-2169
▁לנס	-2170
▁לצאת	-2171
▁אזר	-2172
▁מצרים	-2173
▁חפ	-2174
▁צוי	-2175
▁פס	-2176
▁שמו	-2177
▁שמי	-2178
▁תקן	-2179
▁משמש	-2180
▁המאה	-2181
▁למנוע	-2182
▁שבע	-2183
▁ישנם	-2184
▁להביא	-2185
▁צרפ	-2186
▁קיץ	-2187
▁פועל	-2188
▁ארבעה	-2189
▁הקו	-2190
▁רצונ	-2191
▁דיווח	-2192
▁דנ	-2193
▁לגמ	-2194
▁רוע	-2195
▁בריטנ	-2196
▁קטנים	-2197
▁12	-2198
▁ריח	-2199
▁לילה	-2200
▁עזרה	-2201
▁פתח	-2202
רת	-2203
▁קודות	-2204
▁סביר	-2205
מלי	-2206
▁ולל	-2207
▁שפט	-2208
▁לגמרי	-2209
▁עיתים	-2210
טיס	-2211
▁צרפתי	-2212
▁כס	-2213
▁ושר	-2214
▁טור	-2215
▁שכנ	-2216
▁שאינ	-2217
▁זמין	-2218
▁מוקד	-2219
▁אזרחי	-2220
▁מעמד	-2221
▁גא	-2222
▁מלון	-2223
סיק	-2224
▁סופר	-2225
▁מצליח	-2226
▁לשם	-2227
▁סיכוי	-2228
▁נן	-2229
▁ובל	-2230
▁בארץ	-2231
▁חוצ	-2232
▁פיל	-2233
▁עשיר	-2234
▁מכר	-2235
▁שמש	-2236
▁לחם	-2237
▁תקופת	-2238
▁כור	-2239
▁שמר	-2240
▁דתי	-2241
בור	-2242
▁תס	-2243
▁לול	-2244
▁אישית	-2245
▁ונה	-2246
▁שופ	-2247
▁סרטן	-2248
▁ארגונ	-2249
▁דח	-2250
▁בועות	-2251
▁ירא	-2252
▁עליה	-2253
▁שווה	-2254
▁v	-2255
▁רוחני	-2256
חלט	-2257
▁אסור	-2258
▁החדשה	-2259
▁דפ	-2260
▁עליך	-2261
▁איתנו	-2262
▁שקט	-2263
▁פוליט	-2264
▁ונג	-2265
▁תקשר	-2266
▁הופך	-2267
▁מאבק	-2268
▁לם	-2269
▁גלה	-2270
▁נמו	-2271
▁וסף	-2272
▁אישי	-2273
▁קבלת	-2274
▁הסביר	-2275
▁רגשות	-2276
קוח	-2277
▁טומ	-2278
▁יהן	-2279
▁כרטיס	-2280
▁בשר	-2281
▁בהחלט	-2282
▁שנית	-2283
▁שניים	-2284
▁עולות	-2285
▁יצירת	-2286
▁שליטה	-2287
▁גו	-2288
▁דורש	-2289
▁הרכב	-2290
▁מספק	-2291
גיד	-2292
וגר	-2293
▁בהי	-2294
▁הלב	-2295
▁חייו	-2296
▁מכיל	-2297
▁להגיד	-2298
▁מורכב	-2299
▁הדי	-2300
▁ונן	-2301
▁חוב	-2302
▁ריצ	-2303
▁פאר	-2304
▁דרוש	-2305
▁דה	-2306
▁החליט	-2307
▁שח	-2308
▁עדיף	-2309
▁בשנים	-2310
▁קבוצת	-2311
▁השם	-2312
▁ירת	-2313
▁משפטי	-2314
▁היכ	-2315
▁ייס	-2316
▁מאה	-2317
▁דל	-2318
▁וגר	-2319
▁יתה	-2320
▁מתו	-2321
▁איזו	-2322
▁אלפי	-2323
▁כותב	-2324
▁לאכול	-2325
▁מטופל	-2326
▁ראשית	-2327
▁דלת	-2328
▁יחודי	-2329
ut	-2330
▁לסי	-2331
▁ניח	-2332
▁צליח	-2333
▁מקורי	-2334
▁מעור	-2335
גישה	-2336
▁תעורר	-2337
▁פיק	-2338
▁יודעת	-2339
▁בטח	-2340
▁סייע	-2341
▁דרום	-2342
▁שיבות	-2343
▁אופן	-2344
▁ישום	-2345
▁and	-2346
▁ביא	-2347
▁דיבר	-2348
▁רותים	-2349
▁ארוך	-2350
▁ופול	-2351
▁כלכל	-2352
▁מופיע	-2353
▁ריקני	-2354
▁תקנ	-2355
▁ביקש	-2356
▁קרקע	-2357
▁סדרה	-2358
▁ביטוי	-2359
▁בשלב	-2360
▁סון	-2361
▁רשות	-2362
▁וקרים	-2363
▁זמינ	-2364
▁טובות	-2365
▁מתאים	-2366
▁כבי	-2367
▁יוצא	-2368
▁ירותי	-2369
▁הגיעו	-2370
▁מזל	-2371
▁לכתוב	-2372
▁התנגד	-2373
ac	-2374
▁שדה	-2375
▁מבנה	-2376
▁ציות	-2377
▁העביר	-2378
אימ	-2379
▁מומ	-2380
▁אמונה	-2381
▁הישאר	-2382
▁יימים	-2383
▁בוד	-2384
▁ירוק	-2385
▁מושג	-2386
▁מתן	-2387
▁תוש	-2388
▁to	-2389
▁ריה	-2390
▁בסיסי	-2391
▁תנאים	-2392
▁רווי	-2393
▁בעצם	-2394
▁הבאה	-2395
▁מלאה	-2396
▁בחינה	-2397
▁חולים	-2398
▁שפחות	-2399
▁ייך	-2400
▁שמאל	-2401
▁סמכ	-2402
▁זיהו	-2403
▁מתרחש	-2404
▁וצג	-2405
▁ספי	-2406
▁יסוד	-2407
▁יילים	-2408
▁לקנות	-2409
וו	-2410
▁המע	-2411
▁מסת	-2412
▁tion	-2413
▁היטב	-2414
▁בחירה	-2415
▁חט	-2416
▁ידת	-2417
▁מתחת	-2418
▁ום	-2419
▁ריד	-2420
ושי	-2421
▁ארי	-2422
▁בטיח	-2423
▁התחלה	-2424
▁עשיית	-2425
▁עלמ	-2426
▁הטבע	-2427
▁היות	-2428
▁סיק	-2429
▁מעשי	-2430
▁מרחק	-2431
▁נשמע	-2432
▁איחוד	-2433
▁חוו	-2434
▁המים	-2435
▁פורט	-2436
▁ביטוח	-2437
▁לבנות	-2438
▁ווע	-2439
▁חיה	-2440
▁טראמפ	-2441
▁זב	-2442
▁נוצר	-2443
▁שמע	-2444
▁בנה	-2445
▁נהג	-2446
▁לימות	-2447
▁קיימת	-2448
▁הוכ	-2449
עיל	-2450
▁הני	-2451
▁תנאי	-2452
▁ברז	-2453
▁לשחק	-2454
▁מבצע	-2455
▁ענ	-2456
▁דיר	-2457
▁דיון	-2458
▁•	-2459
▁קפה	-2460
▁במצב	-2461
▁חקנים	-2462
▁האד	-2463
▁בחודש	-2464
▁שויים	-2465
קדמי	-2466
▁אקדמי	-2467
ot	-2468
▁k	-2469
▁עצמנו	-2470
מנע	-2471
יאון	-2472
▁אנטי	-2473
▁זיאון	-2474
▁תשלום	-2475
▁נאמר	-2476
▁לעבור	-2477
▁בראש	-2478
▁גרוע	-2479
▁ליי	-2480
▁מאמין	-2481
▁מועמד	-2482
▁נציאל	-2483
▁רשימה	-2484
▁כוונ	-2485
▁שיפור	-2486
▁גול	-2487
▁פתע	-2488
▁מעורב	-2489
▁גיט	-2490
▁חזרה	-2491
▁50	-2492
▁עוצ	-2493
▁נכונה	-2494
▁שאי	-2495
▁בידי	-2496
▁אפר	-2497
▁ומן	-2498
▁נצל	-2499
▁שהיו	-2500
▁הביתה	-2501
▁מקווה	-2502
▁אמת	-2503
▁תוכן	-2504
▁ונדון	-2505
▁מערבי	-2506
וקא	-2507
▁במס	-2508
▁קטר	-2509
▁להגן	-2510
▁דווקא	-2511
▁השבוע	-2512
▁כח	-2513
▁אחראי	-2514
ונית	-2515
▁אבד	-2516
▁לין	-2517
▁היכנס	-2518
▁כונית	-2519
▁לוט	-2520
▁עורר	-2521
▁ation	-2522
▁בפעם	-2523
▁נחשב	-2524
▁עשרה	-2525
▁תן	-2526
▁פים	-2527
▁לנסות	-2528
▁סוריה	-2529
▁פוסט	-2530
▁ושבים	-2531
▁קף	-2532
▁עצמכם	-2533
▁ילא	-2534
▁שלם	-2535
▁שמה	-2536
▁סיפר	-2537
▁ביחד	-2538
▁נבחר	-2539
▁פשרוי	-2540
חרי	-2541
▁שיה	-2542
▁פרסום	-2543
ec	-2544
▁חג	-2545
▁דוגמא	-2546
▁יקורת	-2547
▁ינואר	-2548
▁שלח	-2549
▁רדה	-2550
▁ובב	-2551
▁כוכ	-2552
▁פורסם	-2553
▁יטר	-2554
▁סוגי	-2555
▁בזה	-2556
▁לוג	-2557
▁קדם	-2558
▁יוצר	-2559
▁משפיע	-2560
▁גרס	-2561
▁נהל	-2562
▁וין	-2563
▁כזו	-2564
▁מאמ	-2565
▁שומר	-2566
▁המטרה	-2567
▁הרוג	-2568
▁סכים	-2569
▁חקרים	-2570
▁נקודת	-2571
▁עסקי	-2572
▁רכיש	-2573
▁תשומת	-2574
ad	-2575
▁להס	-2576
▁נזק	-2577
▁תכנ	-2578
▁שלוח	-2579
▁הפסיק	-2580
▁גמר	-2581
▁שיל	-2582
▁חרונה	-2583
▁הרש	-2584
▁בתור	-2585
▁הכנס	-2586
▁פורמ	-2587
▁מך	-2588
▁חזור	-2589
▁השר	-2590
▁יתי	-2591
▁פריקה	-2592
ביב	-2593
▁יקום	-2594
▁בחינת	-2595
▁שחקן	-2596
▁בעלות	-2597
▁ינוי	-2598
▁נאה	-2599
▁תני	-2600
▁הופכ	-2601
▁טן	-2602
▁כפר	-2603
▁מיר	-2604
▁קיר	-2605
▁קלים	-2606
▁פטמבר	-2607
▁ריירה	-2608
▁יזם	-2609
▁נקי	-2610
id	-2611
▁רל	-2612
▁לשלם	-2613
▁ופולר	-2614
▁יינ	-2615
▁מהו	-2616
▁צבא	-2617
▁יימ	-2618
▁לאו	-2619
▁הגדר	-2620
▁פרטי	-2621
▁ic	-2622
▁עברו	-2623
▁בריטי	-2624
▁or	-2625
▁פו	-2626
▁גזע	-2627
▁ענק	-2628
▁זהיר	-2629
▁אדמ	-2630
▁ניק	-2631
▁מוכן	-2632
▁עוצמ	-2633
▁מוגבל	-2634
▁רוך	-2635
קנ	-2636
▁כלכלה	-2637
▁הסכמ	-2638
▁שיער	-2639
▁הלאומ	-2640
▁לבו	-2641
▁משבר	-2642
▁בשבוע	-2643
▁—	-2644
▁דצ	-2645
▁עלם	-2646
▁חשבתי	-2647
▁נקודה	-2648
▁שיהיה	-2649
▁נפר	-2650
▁נתן	-2651
▁ֹ	-2652
▁זכה	-2653
▁פרו	-2654
▁רז	-2655
▁נצח	-2656
▁מונח	-2657
▁מטרת	-2658
▁נפרד	-2659
▁דון	-2660
▁ורה	-2661
▁קורות	-2662
▁מחלות	-2663
▁שויות	-2664
▁זהב	-2665
▁הדין	-2666
▁סמים	-2667
▁כלא	-2668
▁רוק	-2669
▁אלבום	-2670
▁דצמבר	-2671
▁הריון	-2672
▁שגר	-2673
▁יפים	-2674
▁חם	-2675
▁יהו	-2676
▁לפע	-2677
▁פול	-2678
▁מבלי	-2679
▁לגל	-2680
▁היכן	-2681
▁רמות	-2682
▁מסוים	-2683
▁קטובר	-2684
▁צמח	-2685
▁לידה	-2686
▁לשפר	-2687
▁ניות	-2688
▁לפעול	-2689
▁מוקדם	-2690
▁תקיים	-2691
▁שכר	-2692
▁משימה	-2693
▁ישנ	-2694
▁רון	-2695
▁שכן	-2696
▁כלום	-2697
▁לשמוע	-2698
וסט	-2699
▁ואף	-2700
▁סבל	-2701
▁הכסף	-2702
▁כביש	-2703
▁קורס	-2704
▁אוהבת	-2705
▁טה	-2706
▁פרסם	-2707
▁פרט	-2708
▁טיל	-2709
▁טעם	-2710
▁וצאת	-2711
▁נותן	-2712
▁צעיר	-2713
▁ניסוי	-2714
▁טיול	-2715
▁צבאי	-2716
▁מתאימ	-2717
▁היי	-2718
▁ריע	-2719
▁תומ	-2720
▁בנות	-2721
▁מכתב	-2722
▁בנוגע	-2723
▁ותה	-2724
▁מהיר	-2725
▁מניע	-2726
▁פארק	-2727
▁יניהם	-2728
▁קטרונ	-2729
תיד	-2730
▁שופט	-2731
▁גרמני	-2732
▁רעיונ	-2733
▁רצו	-2734
▁איתו	-2735
▁איננו	-2736
▁הוביל	-2737
▁זורים	-2738
סטי	-2739
▁שׁ	-2740
▁מסעד	-2741
▁ערות	-2742
▁רסיטה	-2743
▁ידה	-2744
▁שוא	-2745
▁סרטים	-2746
▁קמפ	-2747
▁החשוב	-2748
▁חיק	-2749
▁יוח	-2750
▁פשט	-2751
▁קרן	-2752
▁במאי	-2753
▁שתתפ	-2754
▁11	-2755
▁ed	-2756
▁סא	-2757
▁פעל	-2758
▁צמי	-2759
▁הוציא	-2760
▁מסל	-2761
▁משכ	-2762
▁ריפ	-2763
▁תפי	-2764
▁טון	-2765
▁בירה	-2766
▁מילה	-2767
▁נותר	-2768
▁כירות	-2769
▁מסלול	-2770
▁קבלים	-2771
▁מחש	-2772
▁נוב	-2773
▁פצי	-2774
▁חלטות	-2775
ir	-2776
um	-2777
▁יעד	-2778
▁ורש	-2779
▁הימנע	-2780
▁וכך	-2781
▁קלה	-2782
▁חנות	-2783
▁ספינ	-2784
▁וספות	-2785
צג	-2786
▁הרפ	-2787
▁טנ	-2788
▁ובמבר	-2789
▁חמישה	-2790
▁>	-2791
▁לוס	-2792
▁רדי	-2793
▁סיוע	-2794
▁שותפ	-2795
▁הקשור	-2796
▁יסב	-2797
▁נפש	-2798
▁אתגר	-2799
▁לרוב	-2800
▁שמים	-2801
▁נמצאת	-2802
▁דירה	-2803
▁חיות	-2804
▁מסוג	-2805
▁זמנים	-2806
▁ובי	-2807
▁אינן	-2808
▁נהדר	-2809
▁בער	-2810
▁נוכל	-2811
▁שמחה	-2812
▁אים	-2813
▁הבאים	-2814
▁גלי	-2815
▁ימון	-2816
▁סטרלי	-2817
ביעי	-2818
▁ופס	-2819
▁אדום	-2820
▁מצאו	-2821
▁רחוב	-2822
▁צילום	-2823
▁רביעי	-2824
▁סד	-2825
▁בטל	-2826
▁וקמ	-2827
▁Ch	-2828
▁עוס	-2829
▁לשים	-2830
▁שלטון	-2831
▁גזר	-2832
▁הינו	-2833
▁סנ	-2834
▁און	-2835
▁קנה	-2836
▁יציב	-2837
▁הטובה	-2838
▁וים	-2839
▁גדיר	-2840
▁המון	-2841
▁לפתח	-2842
▁יונ	-2843
▁מטה	-2844
▁לונות	-2845
▁לצד	-2846
▁מחו	-2847
▁ופים	-2848
▁מודל	-2849
▁רופא	-2850
▁בעתיד	-2851
▁הודעה	-2852
▁18	-2853
▁המוח	-2854
▁ישוע	-2855
ent	-2856
▁אמי	-2857
▁אויב	-2858
▁העסק	-2859
▁חקלא	-2860
▁ריס	-2861
▁יקרה	-2862
▁הצבע	-2863
▁וריד	-2864
▁X	-2865
▁וחר	-2866
▁חלום	-2867
▁כניסה	-2868
▁ההת	-2869
▁סטי	-2870
▁הבנה	-2871
▁חינם	-2872
▁פותח	-2873
▁הופיע	-2874
▁איי	-2875
▁וננ	-2876
▁הפכו	-2877
▁חשבות	-2878
▁נכס	-2879
▁האמין	-2880
▁יחסים	-2881
▁מיתית	-2882
▁תום	-2883
▁רגיש	-2884
▁האוכל	-2885
▁רן	-2886
▁עודד	-2887
▁דבריו	-2888
▁לעמוד	-2889
▁ערבים	-2890
עים	-2891
▁דוח	-2892
▁הרא	-2893
▁סעי	-2894
▁קצב	-2895
▁שיח	-2896
▁כלים	-2897
▁משיך	-2898
▁חמור	-2899
▁אישור	-2900
▁ושל	-2901
▁ישן	-2902
▁מביא	-2903
▁מועצ	-2904
▁שבהם	-2905
▁חוויה	-2906
▁מימ	-2907
▁עקר	-2908
▁קוט	-2909
▁מערב	-2910
▁הטכנו	-2911
▁יוכלו	-2912
▁עצמאי	-2913
ur	-2914
▁אודות	-2915
▁מאושר	-2916
▁החלו	-2917
ia	-2918
▁קק	-2919
▁לגלות	-2920
▁התי	-2921
▁ניתנ	-2922
▁יכרון	-2923
▁עשייה	-2924
la	-2925
▁פעיל	-2926
▁פציפי	-2927
▁40	-2928
▁חוף	-2929
▁הזמנ	-2930
▁והת	-2931
▁מחפש	-2932
▁מחשבה	-2933
▁שילוב	-2934
▁אול	-2935
▁וויר	-2936
▁עליי	-2937
▁גידול	-2938
▁גוע	-2939
▁וגע	-2940
▁סעיף	-2941
▁סתכל	-2942
▁בולות	-2943
טח	-2944
▁החלק	-2945
▁תקבל	-2946
▁פורסמ	-2947
ess	-2948
▁גמ	-2949
▁סטיב	-2950
▁מפלגה	-2951
▁ng	-2952
▁לאי	-2953
▁ממנה	-2954
▁שיחה	-2955
▁בעזרת	-2956
▁צדדים	-2957
▁רציתי	-2958
נסי	-2959
▁כוס	-2960
▁גדיל	-2961
▁זמני	-2962
▁מלאכ	-2963
▁פיזי	-2964
▁חוקים	-2965
▁סגנון	-2966
▁יקה	-2967
▁עצר	-2968
▁רבי	-2969
▁רמו	-2970
▁סיום	-2971
▁אמצעי	-2972
▁ייג	-2973
▁שגם	-2974
▁נמוך	-2975
▁חושבת	-2976
▁צה	-2977
▁בטא	-2978
▁עסוק	-2979
▁בך	-2980
▁יצר	-2981
▁ליז	-2982
▁סקר	-2983
▁ולדת	-2984
▁מוצר	-2985
▁תחום	-2986
▁לבדוק	-2987
ויק	-2988
▁ניג	-2989
▁המלך	-2990
▁בבוקר	-2991
▁ידיים	-2992
▁יתרונ	-2993
▁מדויק	-2994
▁תיכון	-2995
▁רץ	-2996
▁ייכ	-2997
▁רעה	-2998
▁ראיי	-2999
▁חייבת	-3000
▁רוויח	-3001
▁לבס	-3002
▁אושר	-3003
▁במידה	-3004
▁חשובה	-3005
▁עליון	-3006
▁חמא	-3007
▁תיר	-3008
▁גורי	-3009
▁יסטי	-3010
▁מועד	-3011
▁משותפ	-3012
▁»	-3013
▁בנק	-3014
▁יבה	-3015
▁הנד	-3016
▁וטל	-3017
▁למים	-3018
▁חייהם	-3019
▁הנדס	-3020
▁רכבת	-3021
▁חיוני	-3022
▁טענ	-3023
▁תחי	-3024
▁ספקת	-3025
▁תקווה	-3026
בח	-3027
ציב	-3028
▁הרוח	-3029
▁לווי	-3030
▁הודיע	-3031
▁שיטות	-3032
▁תקציב	-3033
ועד	-3034
▁לעז	-3035
▁מהי	-3036
▁השמש	-3037
▁טעות	-3038
▁מטבע	-3039
▁מקב	-3040
▁עזה	-3041
▁קבע	-3042
▁קרנ	-3043
▁שרא	-3044
▁תרג	-3045
▁דמות	-3046
▁הקוד	-3047
▁ידור	-3048
▁סיים	-3049
▁עשרות	-3050
▁ne	-3051
▁האיש	-3052
▁ולד	-3053
▁וצאים	-3054
▁שמונה	-3055
▁רנ	-3056
▁אשת	-3057
▁רוז	-3058
▁חשמל	-3059
▁שוואה	-3060
▁אכל	-3061
▁בניו	-3062
▁שיווק	-3063
▁שד	-3064
▁המכ	-3065
▁עימ	-3066
▁ענה	-3067
▁לאדם	-3068
▁מצלמ	-3069
▁אומית	-3070
▁מבוגר	-3071
▁שלילי	-3072
פו	-3073
▁אבו	-3074
▁טיקה	-3075
▁|	-3076
▁Re	-3077
▁גרמ	-3078
▁המר	-3079
▁קופ	-3080
▁מפגש	-3081
▁סגור	-3082
▁עדיפ	-3083
▁חצ	-3084
▁כיש	-3085
▁בוק	-3086
▁דמה	-3087
▁סוי	-3088
▁עובר	-3089
▁בקלות	-3090
▁ועצ	-3091
▁צוד	-3092
▁רימ	-3093
▁תפס	-3094
▁וכיח	-3095
▁טט	-3096
▁הור	-3097
▁מציג	-3098
li	-3099
▁צא	-3100
▁חות	-3101
▁הלילה	-3102
▁וכנים	-3103
▁ושאים	-3104
▁טיב	-3105
▁כננ	-3106
▁כשא	-3107
▁יסבוק	-3108
▁רך	-3109
▁איבד	-3110
▁טען	-3111
▁יסט	-3112
▁עתה	-3113
▁בשוק	-3114
▁כולו	-3115
▁לאור	-3116
▁לספר	-3117
▁עוסק	-3118
▁נושות	-3119
▁פסיכו	-3120
▁בדיקה	-3121
▁הערבי	-3122
▁לקראת	-3123
▁רטי	-3124
▁ממשי	-3125
▁ראות	-3126
▁עילוי	-3127
▁אמנ	-3128
▁חשש	-3129
▁שיטה	-3130
lo	-3131
▁נמל	-3132
▁רלו	-3133
▁יוני	-3134
▁אפריל	-3135
▁יננסי	-3136
▁למקום	-3137
▁יטה	-3138
▁הצבא	-3139
▁שלושת	-3140
▁ועם	-3141
▁משו	-3142
▁שער	-3143
▁אופנ	-3144
▁איתם	-3145
▁נפלא	-3146
▁פסיק	-3147
▁te	-3148
▁התמ	-3149
▁פירוש	-3150
...	-3151
▁אבק	-3152
▁ורו	-3153
▁בניין	-3154
▁השפיע	-3155
▁רבותי	-3156
▁שניתן	-3157
תיק	-3158
▁בדר	-3159
▁ביב	-3160
▁יפש	-3161
▁מהן	-3162
▁תער	-3163
▁הכוח	-3164
▁חייה	-3165
▁העתיק	-3166
▁סוגים	-3167
▁קישור	-3168
▁הגר	-3169
▁הרב	-3170
▁מחר	-3171
▁סכימ	-3172
▁ראשי	-3173
▁יירות	-3174
▁וקם	-3175
▁רוט	-3176
▁נותנ	-3177
▁וגרפי	-3178
▁קא	-3179
▁במר	-3180
▁האס	-3181
▁וכו	-3182
▁חלי	-3183
▁עדר	-3184
▁גנטי	-3185
▁מסחר	-3186
ht	-3187
▁רום	-3188
▁ורים	-3189
▁25	-3190
▁לשע	-3191
▁מרא	-3192
▁שראלי	-3193
▁תחושה	-3194
כז	-3195
▁זון	-3196
▁קוי	-3197
▁בערך	-3198
▁במרכז	-3199
▁for	-3200
▁טפל	-3201
▁כרגע	-3202
▁ציין	-3203
▁קולו	-3204
▁ראים	-3205
▁ערכים	-3206
▁טקס	-3207
▁הניח	-3208
▁נכתב	-3209
▁הסתכל	-3210
▁שאינם	-3211
▁זול	-3212
▁יות	-3213
▁תאי	-3214
▁חוזר	-3215
▁חתול	-3216
▁יומי	-3217
▁הנושא	-3218
▁גוש	-3219
▁חליף	-3220
▁מהווה	-3221
▁השק	-3222
▁יחיד	-3223
▁מעלה	-3224
▁כלוסי	-3225
▁וזר	-3226
▁ימין	-3227
▁שחרר	-3228
▁הראשי	-3229
▁חלקים	-3230
בדל	-3231
▁ity	-3232
▁שהי	-3233
▁מותו	-3234
▁קשיב	-3235
▁ההבדל	-3236
▁ותק	-3237
▁ירח	-3238
▁רוג	-3239
▁ואין	-3240
▁סכום	-3241
▁תורה	-3242
▁חפשים	-3243
ונא	-3244
▁כפ	-3245
▁ארד	-3246
▁רפא	-3247
▁בתים	-3248
▁מפעל	-3249
▁וסייה	-3250
▁el	-3251
▁כימי	-3252
▁נוגע	-3253
▁ברואר	-3254
▁חבל	-3255
▁חלת	-3256
▁ניי	-3257
▁שאם	-3258
▁מלי	-3259
▁וידאו	-3260
▁רדת	-3261
▁ארוחת	-3262
▁יתונא	-3263
▁לאפשר	-3264
▁בחוץ	-3265
▁לבסוף	-3266
וסי	-3267
▁לנצ	-3268
▁משותף	-3269
▁רפואה	-3270
▁זן	-3271
▁סתם	-3272
▁למנט	-3273
▁ועלים	-3274
▁עשרים	-3275
▁יך	-3276
▁הנח	-3277
▁וול	-3278
▁הליכ	-3279
▁צורה	-3280
▁תרגל	-3281
▁החזיר	-3282
▁עקרונ	-3283
▁שניהם	-3284
ריז	-3285
▁התע	-3286
▁חום	-3287
▁ינס	-3288
▁השיר	-3289
▁לנצח	-3290
▁אתרים	-3291
▁שאפשר	-3292
▁nt	-3293
▁טכ	-3294
▁com	-3295
▁קדי	-3296
▁חלקי	-3297
▁עברי	-3298
▁מרב	-3299
▁פיצ	-3300
▁תקדם	-3301
▁המילה	-3302
▁סוק	-3303
▁ותיו	-3304
▁חורה	-3305
▁נסיעה	-3306
▁תושבי	-3307
se	-3308
▁חב	-3309
▁טו	-3310
▁בלע	-3311
▁מכוני	-3312
▁13	-3313
▁לף	-3314
▁סמך	-3315
▁לשעבר	-3316
▁יבת	-3317
▁קיד	-3318
▁נדיר	-3319
▁ארכ	-3320
▁יכל	-3321
▁כוכב	-3322
▁ספרי	-3323
▁מקביל	-3324
▁טייל	-3325
▁לסייע	-3326
▁תחומי	-3327
▁העבר	-3328
▁לבקר	-3329
▁סמוך	-3330
▁ראית	-3331
▁הנכון	-3332
▁$	-3333
▁סם	-3334
▁וקה	-3335
▁בחדר	-3336
▁המשך	-3337
▁יטליה	-3338
▁עת	-3339
▁השי	-3340
▁הודו	-3341
▁ועלת	-3342
▁קליפ	-3343
▁יפן	-3344
▁אזרח	-3345
▁האור	-3346
▁ואלי	-3347
ומנ	-3348
▁גיע	-3349
▁רקע	-3350
▁מושלם	-3351
▁סן	-3352
▁בפי	-3353
▁סקס	-3354
▁פתיע	-3355
▁כלבים	-3356
טרף	-3357
▁בים	-3358
▁יבש	-3359
▁ווים	-3360
▁משנת	-3361
▁הצטרף	-3362
▁ולאחר	-3363
▁וסעים	-3364
▁צמיחה	-3365
▁אתמ	-3366
▁בחור	-3367
▁העני	-3368
▁משאב	-3369
▁עיני	-3370
▁כשהוא	-3371
im	-3372
▁והן	-3373
▁זרים	-3374
▁ישוב	-3375
▁צטרך	-3376
▁בהמשך	-3377
▁בלילה	-3378
▁חשבונ	-3379
חתי	-3380
▁ורפ	-3381
▁חיל	-3382
▁הערכ	-3383
▁וספת	-3384
▁בזכות	-3385
▁להכיר	-3386
▁שפחתי	-3387
▁‘	-3388
▁14	-3389
▁כיב	-3390
▁קשות	-3391
▁ביס	-3392
▁ותו	-3393
▁יסק	-3394
▁אתמול	-3395
▁המוצר	-3396
▁המצ	-3397
▁לווה	-3398
▁בחיי	-3399
▁חוות	-3400
▁ילדה	-3401
▁בחברה	-3402
▁מצט	-3403
▁שורה	-3404
▁תיים	-3405
▁הרופא	-3406
▁le	-3407
▁דעו	-3408
▁סוד	-3409
▁סחר	-3410
▁דווח	-3411
▁ימות	-3412
▁נפגע	-3413
▁תנוע	-3414
▁בקרים	-3415
▁חתונה	-3416
▁כוללת	-3417
לץ	-3418
▁פלא	-3419
▁אמנם	-3420
▁ברמה	-3421
▁תרומ	-3422
▁האדמה	-3423
▁אורג	-3424
▁מרחב	-3425
▁סטרו	-3426
▁חמישי	-3427
אול	-3428
▁דף	-3429
▁דלק	-3430
▁וגל	-3431
▁ויט	-3432
▁מוזר	-3433
▁וגרים	-3434
▁חיבור	-3435
▁לשאול	-3436
▁תחייב	-3437
▁סמל	-3438
▁כנסת	-3439
▁מנוע	-3440
▁מרכיב	-3441
▁ובכ	-3442
▁רמה	-3443
▁וריא	-3444
▁מידה	-3445
▁מראש	-3446
▁הצורך	-3447
▁ושש	-3448
▁מחצ	-3449
▁ודה	-3450
▁מסך	-3451
▁משה	-3452
▁חליט	-3453
▁לחפש	-3454
▁סוכן	-3455
▁אליהם	-3456
▁השאיר	-3457
▁וכחות	-3458
▁מזכיר	-3459
▁מכירה	-3460
▁תצ	-3461
▁בצד	-3462
▁ברר	-3463
▁וקס	-3464
▁הפוך	-3465
▁הקונ	-3466
▁בינים	-3467
▁התמקד	-3468
▁וסדות	-3469
▁לזכור	-3470
▁נוי	-3471
▁נסה	-3472
▁בודות	-3473
▁רציני	-3474
▁דרכו	-3475
▁החלה	-3476
▁זהות	-3477
▁פתיח	-3478
▁גישות	-3479
▁דורגל	-3480
▁בהיר	-3481
▁ירידה	-3482
▁פתרונ	-3483
▁המא	-3484
▁ווק	-3485
▁לומ	-3486
▁פגש	-3487
▁תות	-3488
▁תפיס	-3489
▁ידעתי	-3490
▁מחזיק	-3491
▁ושם	-3492
▁ידו	-3493
▁עלו	-3494
▁פתא	-3495
▁הסבר	-3496
▁ורכי	-3497
▁מהפכה	-3498
▁שולחן	-3499
▁Ne	-3500
▁הצו	-3501
▁חוד	-3502
▁וותר	-3503
▁עורך	-3504
▁בקרוב	-3505
▁העניק	-3506
▁לדברי	-3507
▁רישות	-3508
פות	-3509
▁בוב	-3510
▁זכור	-3511
▁יופי	-3512
▁מוסרי	-3513
▁מיומנ	-3514
▁מרבית	-3515
▁ָה	-3516
▁חלל	-3517
▁בשנות	-3518
▁קטנות	-3519
והול	-3520
▁חלב	-3521
▁כרז	-3522
▁לצי	-3523
▁תכו	-3524
▁פחית	-3525
▁קובע	-3526
▁הכללי	-3527
▁המחיר	-3528
▁כוהול	-3529
▁תכנון	-3530
▁דיש	-3531
▁ולש	-3532
▁ושי	-3533
▁כלה	-3534
▁אורה	-3535
▁ישאר	-3536
▁עוני	-3537
▁שוטר	-3538
▁רטיות	-3539
▁&	-3540
▁סח	-3541
▁רעב	-3542
▁לבוא	-3543
▁הצביע	-3544
▁ובדות	-3545
▁מונים	-3546
▁מנסים	-3547
▁ניצחו	-3548
▁Mi	-3549
▁ניש	-3550
▁אליה	-3551
▁יקוד	-3552
▁עוזר	-3553
▁ביוני	-3554
▁נמוכה	-3555
נד	-3556
▁לבוש	-3557
▁דיקות	-3558
▁התרחש	-3559
▁לן	-3560
▁מאמץ	-3561
▁הסיני	-3562
▁התקדמ	-3563
▁כוונה	-3564
▁סורתי	-3565
▁סנט	-3566
▁הרגע	-3567
▁חורף	-3568
▁תאים	-3569
▁יוחדת	-3570
▁כתובת	-3571
▁ניגוד	-3572
▁שירים	-3573
▁בקש	-3574
▁סול	-3575
▁גורל	-3576
▁ולין	-3577
▁רדיו	-3578
▁ולוגי	-3579
▁הבל	-3580
▁יצב	-3581
▁הבנק	-3582
▁הפכה	-3583
▁עזור	-3584
▁תפתח	-3585
▁ומחים	-3586
▁לצפות	-3587
▁סוימת	-3588
▁רלוונ	-3589
▁דרש	-3590
▁שהן	-3591
▁הדור	-3592
▁לפתוח	-3593
ct	-3594
▁וינ	-3595
▁ייב	-3596
▁תדר	-3597
▁נפוצ	-3598
▁ופאים	-3599
▁צל	-3600
▁גיי	-3601
▁השוק	-3602
▁עלים	-3603
▁יתן	-3604
▁מעבד	-3605
▁תנהל	-3606
▁וחרים	-3607
▁16	-3608
▁בחנ	-3609
▁גוב	-3610
▁עון	-3611
▁רבנ	-3612
▁ריש	-3613
▁תקר	-3614
▁הודות	-3615
▁לוי	-3616
▁רינ	-3617
▁נפתח	-3618
▁תומכ	-3619
▁תקרב	-3620
ea	-3621
▁במש	-3622
▁ינט	-3623
▁ובכל	-3624
▁יתות	-3625
▁מהות	-3626
▁פתאום	-3627
▁th	-3628
▁סר	-3629
▁המפ	-3630
▁מומלץ	-3631
▁ביי	-3632
▁יים	-3633
▁ישב	-3634
▁מינ	-3635
▁מוצא	-3636
▁מחוז	-3637
▁וויות	-3638
▁חכ	-3639
▁בבק	-3640
▁פסק	-3641
▁דריכ	-3642
▁הנהג	-3643
▁עידן	-3644
▁צורת	-3645
▁בימים	-3646
▁להציל	-3647
זרה	-3648
▁ולת	-3649
▁מנע	-3650
▁לטפל	-3651
▁נייד	-3652
▁סכנה	-3653
▁בחזרה	-3654
▁ונק	-3655
▁לוצ	-3656
▁מסקנ	-3657
▁טובוס	-3658
▁ולם	-3659
▁רדו	-3660
▁שקר	-3661
▁אכיל	-3662
▁מותר	-3663
▁מחנה	-3664
▁עונש	-3665
▁הגיעה	-3666
▁יהנות	-3667
▁תגורר	-3668
un	-3669
▁אלצ	-3670
▁גיא	-3671
▁יוש	-3672
▁עגל	-3673
▁גלגל	-3674
▁עשיתי	-3675
ft	-3676
▁Goo	-3677
▁דרמ	-3678
▁הרצ	-3679
▁וור	-3680
▁לעצ	-3681
▁מלה	-3682
▁דעתי	-3683
▁ציור	-3684
▁במזרח	-3685
▁גובות	-3686
▁נהלים	-3687
▁On	-3688
▁אום	-3689
▁יאו	-3690
▁קיום	-3691
▁ובש	-3692
▁ורט	-3693
▁כלב	-3694
▁מגדל	-3695
▁נורא	-3696
▁עברה	-3697
▁טורקי	-3698
▁לכולם	-3699
▁תכוונ	-3700
▁תערוכ	-3701
▁תקיימ	-3702
▁מזג	-3703
▁שהמ	-3704
▁הידע	-3705
▁הקמת	-3706
▁וכבים	-3707
▁מוצלח	-3708
▁מחויב	-3709
▁ייה	-3710
▁ליב	-3711
▁פלט	-3712
▁בודד	-3713
▁סימן	-3714
▁שואה	-3715
▁עלייה	-3716
▁צעדים	-3717
ציה	-3718
▁24	-3719
▁לוא	-3720
▁צוע	-3721
▁אשתו	-3722
▁ותיה	-3723
▁ספים	-3724
▁צרות	-3725
▁ולנוע	-3726
▁ועדון	-3727
▁רשתות	-3728
▁הרה	-3729
▁עשית	-3730
▁קודש	-3731
▁הפנים	-3732
▁הקודמ	-3733
▁הדם	-3734
▁מרץ	-3735
▁ואתה	-3736
▁נקים	-3737
▁ביולי	-3738
▁העלות	-3739
▁מדהים	-3740
▁גג	-3741
▁לופ	-3742
▁וריו	-3743
▁למשך	-3744
▁ישיות	-3745
▁פצ	-3746
▁בלה	-3747
▁כשל	-3748
▁ניב	-3749
▁עזב	-3750
▁השאר	-3751
▁ילות	-3752
▁מחלק	-3753
▁ריסט	-3754
▁הכר	-3755
▁ולנ	-3756
▁עדכ	-3757
▁קיומ	-3758
▁עשויה	-3759
▁תאריך	-3760
▁de	-3761
▁להק	-3762
▁רשם	-3763
▁מובן	-3764
▁שומע	-3765
▁מיועד	-3766
▁דיפ	-3767
▁קדש	-3768
▁דברי	-3769
▁ושוב	-3770
▁חולה	-3771
▁מאחר	-3772
▁והר	-3773
▁וכח	-3774
▁אביו	-3775
▁הרגו	-3776
▁ייצר	-3777
▁רם	-3778
▁החי	-3779
▁הרס	-3780
▁קנא	-3781
▁האלו	-3782
▁חובה	-3783
▁כתבה	-3784
▁תיבה	-3785
▁סודות	-3786
▁חיש	-3787
▁הוכח	-3788
▁הזוג	-3789
▁לנהל	-3790
▁השקעה	-3791
▁מסחרי	-3792
▁You	-3793
▁דים	-3794
▁ונס	-3795
▁חכמ	-3796
▁צור	-3797
▁שיא	-3798
▁תפל	-3799
▁מיקום	-3800
▁צירתי	-3801
▁קידום	-3802
▁x	-3803
▁רה	-3804
▁אקו	-3805
▁הדמ	-3806
▁מלבד	-3807
▁האינט	-3808
▁האישה	-3809
▁הצבאי	-3810
▁נושית	-3811
▁בוה	-3812
▁גדה	-3813
▁לאה	-3814
▁מחכ	-3815
▁רוכ	-3816
▁טובת	-3817
▁יימס	-3818
▁כחול	-3819
▁מתאר	-3820
▁הולנד	-3821
▁וסיקה	-3822
ירים	-3823
▁הדו	-3824
▁הקד	-3825
▁תגר	-3826
▁תנד	-3827
▁גביר	-3828
▁לבקש	-3829
▁לחיים	-3830
▁קדימה	-3831
▁שאינו	-3832
ודא	-3833
▁האג	-3834
▁צער	-3835
▁שהת	-3836
▁דגיש	-3837
▁חשבו	-3838
▁תאונ	-3839
▁מוצרי	-3840
▁פגיעה	-3841
▁ייק	-3842
▁ענו	-3843
▁פשע	-3844
▁זכרו	-3845
▁פסיד	-3846
▁דידות	-3847
▁הקדוש	-3848
▁אמון	-3849
▁מיקר	-3850
▁פעמי	-3851
▁בנייה	-3852
▁זל	-3853
▁ברצ	-3854
▁מקו	-3855
▁ביחס	-3856
▁טיסה	-3857
▁מירה	-3858
▁מכון	-3859
▁מיקרו	-3860
▁היב	-3861
▁טוח	-3862
▁טרם	-3863
▁יקח	-3864
▁מלך	-3865
▁סומ	-3866
▁גוסט	-3867
▁מלכה	-3868
▁שיטת	-3869
▁בניית	-3870
▁אבט	-3871
▁עליכם	-3872
ציג	-3873
▁זיק	-3874
▁ספרד	-3875
▁דירות	-3876
▁להציג	-3877
▁מטרים	-3878
▁מתקדמ	-3879
▁נגליה	-3880
▁רעיני	-3881
▁Al	-3882
▁וסט	-3883
▁חכם	-3884
▁לות	-3885
▁מאת	-3886
▁רכש	-3887
▁בחון	-3888
▁בקשה	-3889
▁הכרה	-3890
▁עריכ	-3891
▁אינדי	-3892
▁חשיבה	-3893
pp	-3894
art	-3895
▁להר	-3896
▁קיפ	-3897
▁תחל	-3898
▁אסיר	-3899
▁בכדי	-3900
▁יבוד	-3901
▁עריך	-3902
▁גיטלי	-3903
▁es	-3904
▁ro	-3905
▁ופק	-3906
▁ופר	-3907
▁יאן	-3908
▁הבדל	-3909
▁טקסט	-3910
▁צטרפ	-3911
▁יאורי	-3912
▁משיכה	-3913
▁תוכנה	-3914
▁שן	-3915
▁חקר	-3916
▁כזב	-3917
▁הערכה	-3918
▁בעה	-3919
▁גשר	-3920
▁שיק	-3921
▁שפות	-3922
▁אבטחה	-3923
▁הראות	-3924
▁טומטי	-3925
▁ילדות	-3926
▁לעצור	-3927
▁עיתונ	-3928
▁טש	-3929
▁התו	-3930
▁ציוד	-3931
▁בלעדי	-3932
▁כלשהו	-3933
▁ריטים	-3934
▁בּ	-3935
▁מם	-3936
▁קמ	-3937
▁ייש	-3938
▁לקו	-3939
▁איון	-3940
▁במספר	-3941
▁גופני	-3942
▁נגטון	-3943
▁אבן	-3944
▁ייפ	-3945
▁שוח	-3946
▁כנסי	-3947
▁צודק	-3948
▁תפלל	-3949
▁בוהים	-3950
▁ובליק	-3951
▁ופעות	-3952
▁מצבים	-3953
▁קריאה	-3954
▁+	-3955
▁וגד	-3956
▁לרכ	-3957
▁מיידי	-3958
▁מסביר	-3959
▁זנ	-3960
▁לאן	-3961
▁ריג	-3962
▁אימפ	-3963
▁קושי	-3964
▁בדק	-3965
▁נדי	-3966
▁סקי	-3967
▁אורח	-3968
▁דוקט	-3969
▁השקע	-3970
▁וואי	-3971
▁חזית	-3972
▁יעשה	-3973
▁לולה	-3974
▁מעשה	-3975
▁שלמת	-3976
▁ורמלי	-3977
▁La	-3978
▁חטא	-3979
▁מנכ	-3980
▁רנק	-3981
▁סכסו	-3982
▁בסך	-3983
▁הצע	-3984
▁אהבת	-3985
▁ממני	-3986
▁כיבוש	-3987
▁מבטיח	-3988
▁טא	-3989
▁וקף	-3990
▁וקפ	-3991
▁יבר	-3992
▁משח	-3993
▁שזו	-3994
▁נוער	-3995
▁עניק	-3996
▁פליק	-3997
▁השקיע	-3998
▁יתרון	-3999
▁נוחות	-4000
▁אחים	-4001
▁בחרו	-4002
▁טנדר	-4003
▁כשאני	-4004
▁בדן	-4005
▁בלב	-4006
▁קטע	-4007
▁בשעה	-4008
▁למדת	-4009
▁תבצע	-4010
▁השלום	-4011
▁ברג	-4012
▁מום	-4013
▁מחה	-4014
▁אסטר	-4015
▁דואר	-4016
▁מטבח	-4017
▁רומא	-4018
▁שישי	-4019
▁אפשרת	-4020
▁תרופה	-4021
▁אתי	-4022
▁והפ	-4023
▁ביצע	-4024
▁הרים	-4025
▁חוצה	-4026
▁יקול	-4027
▁כלול	-4028
▁שישה	-4029
▁ותיהם	-4030
▁חודשי	-4031
▁רשימת	-4032
▁פד	-4033
▁אסר	-4034
▁ואב	-4035
▁ייל	-4036
▁צוג	-4037
▁בתוכ	-4038
▁דמוי	-4039
▁הקים	-4040
▁תנדב	-4041
▁ישואי	-4042
▁נסייה	-4043
ck	-4044
▁et	-4045
▁יושב	-4046
▁יעיל	-4047
▁ישור	-4048
▁כספי	-4049
▁סדרת	-4050
▁שואל	-4051
▁בלנות	-4052
▁ובילה	-4053
▁פגישה	-4054
▁כנע	-4055
▁פגנ	-4056
▁צום	-4057
▁יבור	-4058
▁לרכוש	-4059
▁עיתון	-4060
▁פשוטה	-4061
▁גרש	-4062
▁קום	-4063
▁יעוד	-4064
▁שלהן	-4065
▁שפעת	-4066
▁וניינ	-4067
▁לזהות	-4068
▁לישית	-4069
▁הצד	-4070
▁ופן	-4071
▁נפט	-4072
▁קחו	-4073
▁בטחת	-4074
▁מושב	-4075
▁מחבר	-4076
▁נקבע	-4077
▁וודאי	-4078
▁קשרים	-4079
▁שחרור	-4080
▁ביו	-4081
▁זהה	-4082
▁רבן	-4083
▁בגוף	-4084
▁ודעת	-4085
▁ישומ	-4086
▁וער	-4087
▁תחנ	-4088
▁ברוב	-4089
▁לילי	-4090
▁ממשל	-4091
▁סופי	-4092
▁פריז	-4093
▁בבקשה	-4094
▁חבורה	-4095
לט	-4096
▁1.	-4097
▁וכי	-4098
▁כיף	-4099
▁קלט	-4100
▁שפע	-4101
▁פייה	-4102
▁שלים	-4103
▁לעזוב	-4104
▁מחצית	-4105
▁קח	-4106
▁ורר	-4107
▁זינ	-4108
▁מפקד	-4109
▁פרסמ	-4110
▁רומנ	-4111
▁הצוות	-4112
▁בשני	-4113
▁דריך	-4114
▁חמאס	-4115
▁צאתי	-4116
▁קראו	-4117
▁ברחוב	-4118
▁לצורך	-4119
▁רגשתי	-4120
▁תור	-4121
▁חייל	-4122
▁קבלו	-4123
▁אשראי	-4124
ok	-4125
▁ce	-4126
▁sh	-4127
▁ייד	-4128
▁גובה	-4129
▁מתנה	-4130
▁לייצר	-4131
▁ent	-4132
▁במח	-4133
▁גיב	-4134
▁פוץ	-4135
▁וברת	-4136
▁ימור	-4137
▁כזאת	-4138
▁כניק	-4139
▁שוחר	-4140
▁שמור	-4141
▁תיקון	-4142
▁ושך	-4143
▁בסין	-4144
▁הצעה	-4145
▁מותג	-4146
▁הלקוח	-4147
▁בעד	-4148
▁יאל	-4149
▁ינך	-4150
▁ליג	-4151
▁צפה	-4152
▁תקל	-4153
▁תשע	-4154
▁להשת	-4155
▁תמוך	-4156
▁אורגנ	-4157
▁בגדים	-4158
▁וועדה	-4159
▁מוקדמ	-4160
▁נויות	-4161
▁כפת	-4162
▁קצה	-4163
▁בינה	-4164
▁לקוח	-4165
▁תגבר	-4166
▁בהיסט	-4167
▁להציע	-4168
▁ֲ	-4169
▁ברו	-4170
▁גייס	-4171
▁עמדה	-4172
▁חלוקת	-4173
▁דינ	-4174
▁ומץ	-4175
▁וסק	-4176
▁איתי	-4177
▁כנגד	-4178
▁לאתר	-4179
▁משטר	-4180
▁60	-4181
▁ch	-4182
▁na	-4183
▁וטו	-4184
▁נדל	-4185
▁אנדר	-4186
▁ברשת	-4187
▁דיאל	-4188
▁הצלח	-4189
▁נשמה	-4190
▁צפונ	-4191
▁מקובל	-4192
▁תזונה	-4193
and	-4194
▁איס	-4195
▁כון	-4196
▁לכו	-4197
▁ואיד	-4198
▁סיכו	-4199
▁עילה	-4200
▁רשמי	-4201
▁שכנע	-4202
▁טנדרט	-4203
▁שיחות	-4204
▁Sh	-4205
▁אשה	-4206
▁נחה	-4207
▁כולה	-4208
▁תחנת	-4209
▁חקירה	-4210
all	-4211
▁לץ	-4212
▁התקפ	-4213
▁וזרים	-4214
▁לומות	-4215
▁2.	-4216
▁ומנ	-4217
▁שקפ	-4218
▁איום	-4219
▁אינס	-4220
▁אללה	-4221
▁ודעה	-4222
▁יישב	-4223
▁קראי	-4224
▁רחבה	-4225
▁גליים	-4226
▁השתתף	-4227
▁יחסית	-4228
▁לולים	-4229
▁ליטים	-4230
ירי	-4231
▁בץ	-4232
▁האה	-4233
▁פגע	-4234
▁גנים	-4235
▁ישנה	-4236
▁צירה	-4237
▁שנתי	-4238
▁הבאות	-4239
▁מוסלמ	-4240
▁סמכים	-4241
▁Li	-4242
▁חדות	-4243
▁פגוע	-4244
▁ציינ	-4245
▁שליח	-4246
▁תנחל	-4247
▁האהבה	-4248
▁טיחות	-4249
▁לפתור	-4250
▁ולן	-4251
▁לאט	-4252
▁מפר	-4253
▁רגן	-4254
▁ופעה	-4255
▁חולק	-4256
▁עשתה	-4257
▁מחזור	-4258
▁מייצג	-4259
▁צמאות	-4260
▁רשמ	-4261
▁הורה	-4262
▁החזק	-4263
▁ומדת	-4264
▁חווה	-4265
▁תגרים	-4266
▁סגר	-4267
▁בעלת	-4268
▁הכין	-4269
▁טוענ	-4270
▁נעצר	-4271
▁לישון	-4272
▁לציין	-4273
▁שוחרר	-4274
▁תחלתי	-4275
▁Win	-4276
▁נטי	-4277
▁צומ	-4278
▁ירום	-4279
▁מבחן	-4280
▁אלינו	-4281
▁חומים	-4282
▁למידה	-4283
▁מדהימ	-4284
▁ממשיכ	-4285
▁עילים	-4286
▁תכוון	-4287
▁סיה	-4288
▁פנה	-4289
▁הערב	-4290
▁חלקם	-4291
▁טכני	-4292
▁תמקד	-4293
▁דענים	-4294
▁הרגיל	-4295
▁הרשמי	-4296
▁השתתפ	-4297
▁יימות	-4298
▁ישיים	-4299
gl	-4300
▁יגה	-4301
▁יוט	-4302
▁רקו	-4303
▁חזיר	-4304
▁לשתף	-4305
▁בטוחה	-4306
▁חידות	-4307
▁ליסטי	-4308
▁לקבוע	-4309
▁סמכות	-4310
▁יסר	-4311
▁שמן	-4312
▁איים	-4313
▁גברת	-4314
▁הראש	-4315
▁השתנ	-4316
▁וגדר	-4317
▁יזון	-4318
▁רחבי	-4319
▁	-4320
י	-4321
ו	-4322
ה	-4323
ל	-4324
ת	-4325
א	-4326
ר	-4327
מ	-4328
ב	-4329
ש	-4330
ם	-4331
נ	-4332
ע	-4333
ד	-4334
כ	-4335
ח	-4336
ק	-4337
פ	-4338
.	-4339
ס	-4340
ג	-4341
,	-4342
ט	-4343
צ	-4344
ן	-4345
ז	-4346
ך	-4347
"	-4348
-	-4349
e	-4350
0	-4351
1	-4352
ף	-4353
?	-4354
a	-4355
o	-4356
i	-4357
2	-4358
:	-4359
n	-4360
r	-4361
t	-4362
'	-4363
)	-4364
(	-4365
s	-4366
l	-4367
ץ	-4368
9	-4369
5	-4370
3	-4371
4	-4372
c	-4373
h	-4374
d	-4375
u	-4376
–	-4377
8	-4378
6	-4379
7	-4380
S	-4381
!	-4382
m	-4383
A	-4384
C	-4385
g	-4386
y	-4387
T	-4388
P	-4389
p	-4390
M	-4391
I	-4392
B	-4393
D	-4394
E	-4395
”	-4396
]	-4397
[	-4398
f	-4399
b	-4400
R	-4401
L	-4402
k	-4403
%	-4404
;	-4405
N	-4406
v	-4407
O	-4408
H	-4409
w	-4410
G	-4411
ּ	-4412
F	-4413
“	-4414
W	-4415
/	-4416
ָ	-4417
ְ	-4418
V	-4419
ַ	-4420
ִ	-4421
U	-4422
’	-4423
x	-4424
ֹ	-4425
ֶ	-4426
־	-4427
K	-4428
״	-4429
J	-4430
ֵ	-4431
Y	-4432
z	-4433
*	-4434
X	-4435
ׁ	-4436
>	-4437
•	-4438
+	-4439
—	-4440
»	-4441
|	-4442
&	-4443
$	-4444
‘	-4445
Q	-4446
j	-4447
Z	-4448
ֲ	-4449
#	-4450
q	-4451
׳	-4452
=	-4453
^	-4454
\	-4455
·	-4456
ׂ	-4457
‬	-4458
}	-4459
{	-4460
_	-4461
~	-4462
ֱ	-4463
«	-4464
`	-4465
→	-4466
é	-4467
‭	-4468
<	-4469
@	-4470
́	-4471
	-4472
←	-4473
🙂	-4474
®	-4475
ֻ	-4476
‫	-4477
°	-4478
׃	-4479
₪	-4480
×	-4481
á	-4482
‪	-4483
€	-4484
′	-4485
↑	-4486
♥	-4487
‐	-4488
í	-4489
›	-4490
ö	-4491
£	-4492
ó	-4493
ü	-4494
©	-4495
ا	-4496
ل	-4497
■	-4498
¶	-4499
●	-4500
ä	-4501
♦	-4502
↩	-4503
­	-4504
è	-4505
â	-4506
◄	-4507
▼	-4508
م	-4509
😉	-4510
	-4511
„	-4512
§	-4513
ç	-4514
α	-4515
ي	-4516
∗	-4517
ر	-4518
	-4519
à	-4520
ο	-4521
ֿ	-4522
−	-4523
►	-4524
τ	-4525
و	-4526
‹	-4527
ú	-4528
λ	-4529
ب	-4530
َ	-4531
👈	-4532
š	-4533
ʉ	-4534
κ	-4535
а	-4536
‡	-4537
️	-4538
¬	-4539
ß	-4540
ł	-4541
ž	-4542
̄	-4543
θ	-4544
о	-4545
ֳ	-4546
ع	-4547
ن	-4548
	-4549
å	-4550
ê	-4551
ñ	-4552
μ	-4553
ρ	-4554
ς	-4555
⬅	-4556
￼	-4557
ō	-4558
ι	-4559
π	-4560
и	-4561
⁄	-4562
▪	-4563
▲	-4564
♪	-4565
	-4566
±	-4567
É	-4568
Δ	-4569
γ	-4570
ν	-4571
φ	-4572
н	-4573
ِ	-4574
ی	-4575
😛	-4576
🙁	-4577
¦	-4578
ã	-4579
ć	-4580
ή	-4581
β	-4582
Р	-4583
х	-4584
ت	-4585
س	-4586
ه	-4587
‍	-4588
‒	-4589
‚	-4590
√	-4591
	-4592
👑	-4593
¢	-4594
æ	-4595
ë	-4596
ā	-4597
č	-4598
Ł	-4599
ş	-4600
Θ	-4601
Ω	-4602
ά	-4603
ε	-4604
σ	-4605
О	-4606
в	-4607
с	-4608
ֽ	-4609
أ	-4610
ج	-4611
ح	-4612
د	-4613
ش	-4614
ك	-4615
⁠	-4616
∈	-4617
⋅	-4618
♫	-4619
	-4620
😀	-4621
😊	-4622
	-4623
	-4624
	-4625
Î	-4626
Ö	-4627
Ü	-4628
ø	-4629
ś	-4630
ɾ	-4631
Σ	-4632
η	-4633
υ	-4634
χ	-4635
С	-4636
Т	-4637
р	-4638
і	-4639
֥	-4640
ة	-4641
ذ	-4642
ق	-4643
ُ	-4644
ْ	-4645
٠	-4646
ल	-4647
―	-4648
†	-4649
⁡	-4650
□	-4651
★	-4652
⚡	-4653
✔	-4654
😂	-4655
🤔	-4656
	-4657
	-4658
¿	-4659
Á	-4660
Ç	-4661
ð	-4662
ò	-4663
õ	-4664
ù	-4665
û	-4666
ý	-4667
ÿ	-4668
ă	-4669
Č	-4670
Đ	-4671
ę	-4672
ğ	-4673
ħ	-4674
ī	-4675
İ	-4676
ň	-4677
ő	-4678
œ	-4679
ţ	-4680
ū	-4681
ż	-4682
ɒ	-4683
ʻ	-4684
ˌ	-4685
̈	-4686
Ε	-4687
έ	-4688
ί	-4689
δ	-4690
В	-4691
К	-4692
Н	-4693
д	-4694
е	-4695
й	-4696
п	-4697
т	-4698
у	-4699
ф	-4700
ц	-4701
ч	-4702
я	-4703
֖	-4704
װ	-4705
إ	-4706
خ	-4707
ط	-4708
ा	-4709
ា	-4710
‰	-4711
↓	-4712
∘	-4713
∙	-4714
∽	-4715
≠	-4716
≥	-4717
▶	-4718
☀	-4719
☆	-4720
☺	-4721
♠	-4722
✰	-4723
❻	-4724
❽	-4725
⟩	-4726
⦁	-4727
、	-4728
の	-4729
ル	-4730
ー	-4731
日	-4732
黑	-4733
	-4734
	-4735
	-4736
📄	-4737
🔥	-4738
😁	-4739
😃	-4740
😍	-4741
😚	-4742
¡	-4743
È	-4744
Ë	-4745
Ó	-4746
Ø	-4747
Ú	-4748
Û	-4749
ï	-4750
ô	-4751
÷	-4752
Ġ	-4753
ŋ	-4754
Ś	-4755
Š	-4756
Ÿ	-4757
Ż	-4758
Ž	-4759
ư	-4760
ș	-4761
ț	-4762
ɓ	-4763
ə	-4764
ɛ	-4765
ɸ	-4766
ʊ	-4767
ʌ	-4768
ʼ	-4769
ˈ	-4770
ː	-4771
Α	-4772
Β	-4773
Κ	-4774
Τ	-4775
Φ	-4776
Χ	-4777
Ψ	-4778
ω	-4779
ό	-4780
Б	-4781
Д	-4782
П	-4783
Ы	-4784
Я	-4785
г	-4786
ж	-4787
к	-4788
л	-4789
ш	-4790
ы	-4791
Ҫ	-4792
Ӑ	-4793
Ӗ	-4794
ӝ	-4795
Ӳ	-4796
Ե	-4797
Խ	-4798
Յ	-4799
Ս	-4800
ֺ	-4801
ׅ	-4802
ױ	-4803
آ	-4804
ئ	-4805
ث	-4806
ص	-4807
ف	-4808
ى	-4809
١	-4810
٢	-4811
٨	-4812
٩	-4813
ٰ	-4814
ٹ	-4815
چ	-4816
ھ	-4817
ߟ	-4818
ߡ	-4819
ं	-4820
औ	-4821
ग	-4822
त	-4823
द	-4824
न	-4825
ब	-4826
ि	-4827
ी	-4828
े	-4829
्	-4830
ં	-4831
ગ	-4832
બ	-4833
લ	-4834
ો	-4835
༓	-4836
ខ	-4837
ភ	-4838
ម	-4839
រ	-4840
ស	-4841
ែ	-4842
្	-4843
ṅ	-4844
ạ	-4845
ả	-4846
ἀ	-4847
ὥ	-4848
ῦ	-4849
‮	-4850
⁨	-4851
⁩	-4852
₹	-4853
⇒	-4854
∀	-4855
∂	-4856
∆	-4857
∞	-4858
≪	-4859
≿	-4860
⋯	-4861
─	-4862
▸	-4863
▾	-4864
◻	-4865
◼	-4866
☚	-4867
☝	-4868
♔	-4869
♣	-4870
✌	-4871
✯	-4872
❁	-4873
❓	-4874
❤	-4875
❷	-4876
❼	-4877
❾	-4878
➝	-4879
⟨	-4880
⟵	-4881
⭐	-4882
ア	-4883
ギ	-4884
コ	-4885
シ	-4886
ス	-4887
ド	-4888
ュ	-4889
㪗	-4890
三	-4891
东	-4892
主	-4893
九	-4894
京	-4895
介	-4896
以	-4897
会	-4898
元	-4899
列	-4900
反	-4901
古	-4902
名	-4903
士	-4904
大	-4905
学	-4906
川	-4907
工	-4908
幕	-4909
广	-4910
府	-4911
式	-4912
徳	-4913
慢	-4914
拾	-4915
旦	-4916
本	-4917
来	-4918
株	-4919
民	-4920
浪	-4921
海	-4922
点	-4923
理	-4924
疽	-4925
社	-4926
穂	-4927
空	-4928
章	-4929
第	-4930
简	-4931
算	-4932
絵	-4933
義	-4934
聲	-4935
航	-4936
色	-4937
茶	-4938
蒙	-4939
術	-4940
襲	-4941
詞	-4942
赤	-4943
逆	-4944
道	-4945
都	-4946
鈴	-4947
院	-4948
髓	-4949
黒	-4950
랙	-4951
블	-4952
엠	-4953
	-4954
	-4955
	-4956
	-4957
	-4958
	-4959
	-4960
	-4961
	-4962
	-4963
﴾	-4964
﴿	-4965
🇸	-4966
🇾	-4967
🌈	-4968
🌎	-4969
🍻	-4970
🎉	-4971
🎶	-4972
🏽	-4973
🐔	-4974
👉	-4975
💉	-4976
💔	-4977
💖	-4978
💜	-4979
💫	-4980
📁	-4981
😄	-4982
😅	-4983
😆	-4984
😈	-4985
😏	-4986
😐	-4987
😒	-4988
😜	-4989
😦	-4990
🙌	-4991
🚖	-4992
🚘	-4993
🤨	-4994
🦁	-4995
🧼	-4996
