<unk>	0
<s>	0
</s>	0
▁ה	-0
▁ל	-1
▁א	-2
▁מ	-3
▁ב	-4
ים	-5
▁ש	-6
ות	-7
▁ע	-8
▁ו	-9
▁כ	-10
▁י	-11
ני	-12
▁של	-13
ור	-14
ול	-15
▁את	-16
נו	-17
▁.	-18
ית	-19
▁,	-20
רו	-21
▁ח	-22
▁המ	-23
▁ת	-24
▁לה	-25
וד	-26
▁הי	-27
רי	-28
▁לא	-29
▁נ	-30
▁"	-31
▁ז	-32
די	-33
▁פ	-34
▁על	-35
בר	-36
▁ק	-37
▁הא	-38
יל	-39
נה	-40
וא	-41
▁ג	-42
וב	-43
ון	-44
יר	-45
▁ר	-46
▁ס	-47
יה	-48
יות	-49
ין	-50
שר	-51
ומ	-52
תי	-53
ום	-54
לי	-55
▁ד	-56
מו	-57
שי	-58
▁מה	-59
נים	-60
מה	-61
כל	-62
▁זה	-63
▁צ	-64
ופ	-65
▁אח	-66
▁אי	-67
מי	-68
שה	-69
▁בא	-70
נות	-71
▁הח	-72
בי	-73
▁או	-74
▁הוא	-75
▁הת	-76
▁הש	-77
▁כל	-78
▁הע	-79
טי	-80
וק	-81
וח	-82
רא	-83
▁במ	-84
סי	-85
בל	-86
▁מא	-87
רים	-88
שים	-89
▁למ	-90
לה	-91
▁מש	-92
▁בע	-93
▁שה	-94
▁ט	-95
וע	-96
יי	-97
▁עם	-98
▁לע	-99
▁הפ	-100
וג	-101
כול	-102
לא	-103
▁?	-104
ספ	-105
▁שא	-106
▁מת	-107
▁1	-108
זה	-109
רה	-110
▁(	-111
לו	-112
גי	-113
יים	-114
וצ	-115
▁כי	-116
בה	-117
▁אות	-118
▁יש	-119
▁בי	-120
ותר	-121
▁בש	-122
▁הק	-123
▁-	-124
▁מע	-125
▁אני	-126
▁רו	-127
▁שי	-128
נת	-129
▁הר	-130
▁מי	-131
את	-132
▁הב	-133
▁לי	-134
צי	-135
▁היא	-136
נית	-137
▁לפ	-138
שו	-139
▁יותר	-140
▁הה	-141
▁2	-142
וש	-143
▁אנ	-144
▁לש	-145
דים	-146
רכ	-147
▁גם	-148
▁:	-149
וס	-150
וכ	-151
▁יכול	-152
▁מח	-153
וי	-154
מת	-155
מש	-156
בים	-157
▁היה	-158
▁בה	-159
מים	-160
דר	-161
▁לב	-162
▁לח	-163
ולם	-164
יק	-165
▁מק	-166
▁אם	-167
▁מס	-168
▁הג	-169
▁נו	-170
▁אמ	-171
עות	-172
▁בת	-173
עה	-174
דה	-175
אל	-176
▁הם	-177
טר	-178
▁הכ	-179
בות	-180
שות	-181
כם	-182
בור	-183
▁בח	-184
▁הס	-185
▁אל	-186
מן	-187
▁לק	-188
כו	-189
רת	-190
שת	-191
▁הצ	-192
אי	-193
▁אבל	-194
רח	-195
פי	-196
▁הנ	-197
▁כא	-198
יו	-199
▁)	-200
רג	-201
▁".	-202
00	-203
▁הד	-204
▁הז	-205
בו	-206
אה	-207
לק	-208
חר	-209
עת	-210
נס	-211
וו	-212
▁רק	-213
▁–	-214
דם	-215
▁כדי	-216
עים	-217
אים	-218
▁להיות	-219
קה	-220
לים	-221
מות	-222
פה	-223
▁וא	-224
אות	-225
מצ	-226
חת	-227
כה	-228
חה	-229
▁אפ	-230
▁וה	-231
▁מב	-232
▁אחד	-233
▁אתה	-234
חנו	-235
חות	-236
ירות	-237
▁מכ	-238
ונ	-239
▁מצ	-240
▁פע	-241
ורה	-242
רות	-243
חק	-244
▁עצ	-245
בוד	-246
יא	-247
וף	-248
▁כמו	-249
יד	-250
פת	-251
ברים	-252
▁לת	-253
▁ני	-254
צה	-255
▁צרי	-256
▁יה	-257
▁סי	-258
נט	-259
רט	-260
▁כך	-261
בת	-262
▁להת	-263
יותר	-264
וז	-265
..	-266
בע	-267
וך	-268
ילה	-269
ספר	-270
ולי	-271
▁שלה	-272
יתה	-273
וני	-274
שוב	-275
שראל	-276
▁זו	-277
▁בק	-278
פר	-279
דול	-280
▁מד	-281
כת	-282
כן	-283
▁די	-284
▁שלי	-285
▁עד	-286
ורים	-287
ירה	-288
▁אז	-289
▁הרא	-290
▁טוב	-291
▁בס	-292
▁בכל	-293
▁ביותר	-294
לב	-295
▁שלך	-296
כים	-297
▁שמ	-298
יתי	-299
▁האי	-300
▁הט	-301
▁לו	-302
▁לג	-303
▁המש	-304
▁לד	-305
לת	-306
רב	-307
ונים	-308
▁בר	-309
ילו	-310
לות	-311
▁'	-312
שא	-313
▁זאת	-314
▁ידי	-315
▁...	-316
סט	-317
▁האם	-318
כות	-319
▁ממ	-320
נג	-321
▁!	-322
טה	-323
▁19	-324
▁הזה	-325
קים	-326
▁חי	-327
▁אותו	-328
▁מפ	-329
▁3	-330
▁בפ	-331
ומר	-332
▁בג	-333
▁שלו	-334
דות	-335
דע	-336
שהו	-337
▁20	-338
▁בין	-339
er	-340
▁אנחנו	-341
לח	-342
▁שלנו	-343
▁בב	-344
▁רא	-345
▁מדי	-346
▁S	-347
▁כמה	-348
קי	-349
מוד	-350
וט	-351
▁אין	-352
ניה	-353
▁מאוד	-354
▁שנ	-355
▁פי	-356
▁חד	-357
▁עבור	-358
in	-359
פור	-360
▁היו	-361
▁בכ	-362
עי	-363
זור	-364
ראה	-365
▁לך	-366
ופן	-367
דת	-368
חי	-369
ניות	-370
גיע	-371
▁לפני	-372
רון	-373
▁אנשים	-374
▁A	-375
▁לנו	-376
▁שע	-377
רך	-378
▁ול	-379
דו	-380
▁C	-381
ינו	-382
סף	-383
▁אך	-384
▁לאחר	-385
▁בו	-386
▁לעשות	-387
פות	-388
▁כש	-389
לט	-390
▁האח	-391
ברה	-392
▁צריך	-393
רק	-394
on	-395
▁שב	-396
▁עוד	-397
▁אנו	-398
תה	-399
ולה	-400
טים	-401
▁ישראל	-402
ילים	-403
צים	-404
▁בני	-405
▁עו	-406
ניים	-407
▁דבר	-408
▁יח	-409
▁מג	-410
▁שהוא	-411
an	-412
▁לכ	-413
▁כבר	-414
מיד	-415
מע	-416
▁יוד	-417
▁במק	-418
▁הכל	-419
▁מז	-420
כון	-421
▁הרבה	-422
▁אשר	-423
קר	-424
ירים	-425
▁איך	-426
▁201	-427
▁אמר	-428
לך	-429
▁אינ	-430
▁הבי	-431
".	-432
שב	-433
▁",	-434
▁לצ	-435
חים	-436
סים	-437
▁T	-438
▁כאשר	-439
▁M	-440
נק	-441
ורי	-442
פים	-443
▁4	-444
או	-445
▁[	-446
בודה	-447
▁נית	-448
יש	-449
▁חיי	-450
דרך	-451
▁בצ	-452
סק	-453
▁המק	-454
מר	-455
▁אלה	-456
▁בט	-457
▁באופן	-458
▁פר	-459
כי	-460
▁בנו	-461
▁שלהם	-462
▁הסי	-463
▁שלא	-464
▁אלו	-465
▁גדול	-466
▁5	-467
▁יל	-468
▁אתם	-469
▁חלק	-470
ונה	-471
▁שם	-472
▁P	-473
יע	-474
▁טי	-475
▁היום	-476
▁במה	-477
▁השי	-478
▁אדם	-479
▁רוצה	-480
▁ולא	-481
▁וב	-482
ורת	-483
יצ	-484
▁שנים	-485
▁s	-486
קות	-487
פשר	-488
-1	-489
▁נע	-490
▁תק	-491
▁אחר	-492
חו	-493
▁אחת	-494
שית	-495
▁ות	-496
שון	-497
▁בד	-498
ילי	-499
▁מר	-500
▁אחרי	-501
פק	-502
סה	-503
ילות	-504
נד	-505
ומי	-506
▁שני	-507
▁כול	-508
וכל	-509
ווה	-510
אר	-511
נשים	-512
▁זמן	-513
ריק	-514
▁מט	-515
▁נת	-516
▁כן	-517
▁יצ	-518
▁ים	-519
ברת	-520
רצ	-521
▁העולם	-522
ורך	-523
▁הל	-524
▁B	-525
▁;	-526
▁בל	-527
▁תה	-528
▁למע	-529
ar	-530
שיו	-531
פו	-532
▁לכל	-533
▁הרו	-534
מית	-535
מד	-536
▁יכולים	-537
▁יום	-538
or	-539
▁המח	-540
▁אפשר	-541
סת	-542
▁לרא	-543
▁עדי	-544
▁“	-545
▁להי	-546
▁t	-547
▁להם	-548
▁בית	-549
ולים	-550
▁ית	-551
▁הייתה	-552
פט	-553
וות	-554
ולוג	-555
▁קט	-556
יהם	-557
גע	-558
חיל	-559
en	-560
בד	-561
בא	-562
▁במש	-563
▁חוש	-564
al	-565
▁יהיה	-566
▁אותם	-567
מוש	-568
סטי	-569
▁I	-570
של	-571
צוע	-572
צע	-573
▁כת	-574
▁בדי	-575
כנ	-576
▁בז	-577
הים	-578
▁ממש	-579
▁המע	-580
▁מוצ	-581
at	-582
▁אחרים	-583
צב	-584
כשיו	-585
▁חז	-586
ורות	-587
▁פעם	-588
גר	-589
▁שאני	-590
▁יע	-591
פל	-592
▁משת	-593
▁כאן	-594
▁אלי	-595
▁בשנת	-596
ברי	-597
צר	-598
▁במי	-599
▁נה	-600
▁שלכם	-601
▁D	-602
רכת	-603
▁רי	-604
▁ניתן	-605
בוצ	-606
▁נש	-607
ומים	-608
מא	-609
גה	-610
▁ברי	-611
▁חשוב	-612
▁תמיד	-613
▁הראשו	-614
▁אף	-615
▁הנו	-616
טח	-617
▁וע	-618
▁שיש	-619
▁שהם	-620
וחות	-621
▁200	-622
▁).	-623
▁מספר	-624
גל	-625
▁למה	-626
▁רבים	-627
▁תח	-628
צל	-629
רץ	-630
▁באי	-631
▁להפ	-632
רכז	-633
▁קי	-634
ודה	-635
גים	-636
he	-637
▁בעולם	-638
▁התק	-639
▁אותה	-640
▁נפ	-641
▁לס	-642
▁שנה	-643
בוע	-644
תיים	-645
רוב	-646
▁ואת	-647
ופה	-648
▁6	-649
▁משהו	-650
▁צי	-651
▁נג	-652
▁האמ	-653
▁עוב	-654
▁W	-655
▁פשו	-656
▁אלא	-657
▁מספ	-658
רום	-659
צת	-660
▁נמצ	-661
דש	-662
ומה	-663
es	-664
▁נק	-665
▁באמצ	-666
דינה	-667
וריה	-668
▁המת	-669
זו	-670
▁לל	-671
נם	-672
▁H	-673
▁פת	-674
וץ	-675
פול	-676
▁הגדול	-677
ובה	-678
חד	-679
▁ללא	-680
▁שק	-681
▁עדיין	-682
▁L	-683
ניין	-684
▁הצי	-685
ונות	-686
▁דרך	-687
מין	-688
▁גר	-689
▁שת	-690
▁i	-691
אני	-692
וסי	-693
רונות	-694
תם	-695
גם	-696
יח	-697
▁הן	-698
לל	-699
▁לכם	-700
נחנו	-701
אן	-702
▁G	-703
▁ומ	-704
▁עכשיו	-705
▁שכ	-706
▁באמת	-707
לם	-708
▁אומר	-709
ער	-710
▁R	-711
ירת	-712
פש	-713
▁לראות	-714
תר	-715
מעות	-716
ודי	-717
▁E	-718
▁התי	-719
עם	-720
▁7	-721
גיש	-722
▁ספ	-723
בוה	-724
▁תע	-725
▁במהלך	-726
ובר	-727
-2	-728
▁”	-729
▁הכי	-730
▁להשת	-731
ציה	-732
▁הראשון	-733
ומות	-734
צד	-735
ביר	-736
▁F	-737
וחד	-738
▁אוה	-739
▁אולי	-740
▁אפילו	-741
▁האדם	-742
▁נח	-743
▁הזמן	-744
▁עשו	-745
▁חיים	-746
▁המס	-747
▁אותי	-748
▁פשוט	-749
▁אה	-750
▁נוספ	-751
קד	-752
▁שאתה	-753
קת	-754
▁משפ	-755
לית	-756
▁8	-757
כנס	-758
▁הדי	-759
▁הול	-760
▁מוכ	-761
▁בדרך	-762
▁הספר	-763
▁עצמ	-764
מונה	-765
▁מן	-766
▁בבית	-767
▁שזה	-768
▁חוק	-769
רד	-770
▁השני	-771
ודות	-772
▁היל	-773
▁החיים	-774
▁לט	-775
ic	-776
ודים	-777
▁באמצעות	-778
▁רצ	-779
▁חש	-780
מור	-781
▁מצי	-782
▁צע	-783
▁/	-784
▁תוכ	-785
▁אומ	-786
▁יודע	-787
▁מקום	-788
ברית	-789
▁סט	-790
▁o	-791
▁להב	-792
ולות	-793
▁לקבל	-794
▁N	-795
▁שח	-796
le	-797
דור	-798
ווי	-799
▁לנ	-800
▁הופ	-801
▁רח	-802
קט	-803
ביל	-804
רוש	-805
▁אס	-806
▁היתה	-807
▁מוד	-808
בק	-809
▁כלל	-810
▁מלא	-811
מעט	-812
▁שבו	-813
▁התח	-814
▁רג	-815
▁רוצים	-816
▁יד	-817
ברות	-818
צמ	-819
▁אינו	-820
▁דברים	-821
▁שוב	-822
▁כמ	-823
▁המא	-824
▁לר	-825
▁קשה	-826
re	-827
גות	-828
▁מאז	-829
וה	-830
▁הרי	-831
▁השת	-832
▁שהיא	-833
פון	-834
טרה	-835
▁בן	-836
▁נא	-837
▁אד	-838
it	-839
▁קור	-840
▁עי	-841
▁סוג	-842
▁התע	-843
אם	-844
▁נראה	-845
ופי	-846
▁במקום	-847
▁ארו	-848
צור	-849
ריות	-850
▁צריכים	-851
אלי	-852
▁באות	-853
▁וכ	-854
▁בלי	-855
ליך	-856
▁10	-857
▁כיצד	-858
▁תש	-859
▁עלי	-860
נטר	-861
מל	-862
רכים	-863
ro	-864
▁9	-865
▁פרו	-866
▁החל	-867
▁הייתי	-868
▁בסי	-869
▁הראשונה	-870
▁במשך	-871
▁ההת	-872
▁מיי	-873
▁בהת	-874
▁לפי	-875
גש	-876
בח	-877
▁מנה	-878
ואה	-879
▁אור	-880
▁מוש	-881
▁גי	-882
▁O	-883
▁יכולה	-884
▁ם	-885
▁גור	-886
לסטי	-887
▁כפי	-888
▁חדש	-889
שיך	-890
רצות	-891
▁אלוהים	-892
▁משמעות	-893
▁אירו	-894
000	-895
▁להע	-896
כר	-897
נוי	-898
▁האלה	-899
▁פחות	-900
▁לז	-901
▁ילדים	-902
▁איש	-903
▁נגד	-904
▁רע	-905
וון	-906
ובן	-907
מוק	-908
▁גבוה	-909
▁החברה	-910
נן	-911
▁רוב	-912
▁יוצ	-913
ריך	-914
▁כמעט	-915
ווח	-916
יליון	-917
בט	-918
▁מכל	-919
▁),	-920
קו	-921
▁חוד	-922
▁וי	-923
▁שתי	-924
טת	-925
▁מסוג	-926
נלא	-927
▁אית	-928
▁בתח	-929
מפ	-930
▁מל	-931
▁מידע	-932
▁בלב	-933
▁להג	-934
כב	-935
▁מוע	-936
▁a	-937
▁רב	-938
פא	-939
▁c	-940
▁קוד	-941
יקר	-942
גת	-943
▁למצ	-944
▁חל	-945
▁ספר	-946
צח	-947
▁שבה	-948
וקר	-949
▁פני	-950
קל	-951
נוע	-952
זרח	-953
זר	-954
▁לפע	-955
טל	-956
▁הדבר	-957
שאר	-958
ביב	-959
▁דול	-960
▁מתח	-961
ou	-962
▁וח	-963
▁מהם	-964
▁קרו	-965
דל	-966
נון	-967
st	-968
ומית	-969
▁עבודה	-970
עו	-971
▁תא	-972
▁הגי	-973
▁בתוך	-974
▁הלא	-975
▁נכון	-976
▁עצמו	-977
▁המדינה	-978
כנולוג	-979
לחמה	-980
▁הזו	-981
▁18	-982
▁עושה	-983
▁מיל	-984
ומת	-985
יקה	-986
▁מיליון	-987
▁המי	-988
▁לכן	-989
חור	-990
▁שום	-991
▁מוס	-992
▁רבות	-993
שם	-994
▁הברית	-995
▁תי	-996
▁בגלל	-997
וקים	-998
סו	-999
▁קל	-1000
▁בדיוק	-1001
▁ביום	-1002
▁עשר	-1003
▁בזמן	-1004
▁לדעת	-1005
▁ביק	-1006
▁אותך	-1007
▁הפר	-1008
וסט	-1009
▁הור	-1010
▁בלתי	-1011
▁הטוב	-1012
▁משחק	-1013
ריים	-1014
▁להש	-1015
▁m	-1016
ברו	-1017
פע	-1018
▁לגבי	-1019
▁למרות	-1020
▁שונים	-1021
וצאות	-1022
▁כולם	-1023
▁חס	-1024
שימה	-1025
▁למצוא	-1026
▁הממש	-1027
▁יי	-1028
▁מתוך	-1029
תיד	-1030
צות	-1031
מון	-1032
▁ידע	-1033
סם	-1034
▁מוז	-1035
om	-1036
▁אחרת	-1037
ברסי	-1038
ריקה	-1039
▁העיר	-1040
▁להח	-1041
ing	-1042
מנות	-1043
▁כשה	-1044
רגע	-1045
▁בעלי	-1046
ביא	-1047
מנים	-1048
▁כולל	-1049
ואר	-1050
▁מתי	-1051
▁ואני	-1052
רכי	-1053
שיא	-1054
רבות	-1055
▁קיי	-1056
▁הני	-1057
▁שאי	-1058
▁תהיה	-1059
▁וגם	-1060
▁וזה	-1061
טו	-1062
▁השנה	-1063
קס	-1064
▁קבוצ	-1065
עד	-1066
בול	-1067
▁במיוחד	-1068
el	-1069
▁ברח	-1070
רגון	-1071
▁יחד	-1072
▁מור	-1073
▁לכך	-1074
▁להשתמש	-1075
▁קצת	-1076
קום	-1077
▁יודעים	-1078
▁למי	-1079
▁בטוח	-1080
▁הזאת	-1081
▁לפת	-1082
טות	-1083
וצאה	-1084
▁הלי	-1085
וחר	-1086
▁והוא	-1087
▁להצ	-1088
▁כה	-1089
ואי	-1090
▁לשי	-1091
▁בנ	-1092
נטרנט	-1093
▁d	-1094
▁העבודה	-1095
▁הספ	-1096
ריה	-1097
פתח	-1098
▁מתק	-1099
▁בצורה	-1100
▁תפ	-1101
▁חושב	-1102
▁להכ	-1103
▁p	-1104
כויות	-1105
▁הנה	-1106
גור	-1107
ion	-1108
נטי	-1109
,000	-1110
▁עליו	-1111
▁הפע	-1112
▁חברת	-1113
▁קר	-1114
▁מנת	-1115
▁מספיק	-1116
▁במע	-1117
▁שירות	-1118
▁ולה	-1119
רטים	-1120
▁בשביל	-1121
▁לפחות	-1122
▁הגיע	-1123
▁כזה	-1124
▁פור	-1125
▁במו	-1126
רונה	-1127
▁אר	-1128
▁למש	-1129
ליים	-1130
▁יק	-1131
שיים	-1132
▁הברי	-1133
בית	-1134
למי	-1135
et	-1136
▁במח	-1137
▁הבע	-1138
סטוריה	-1139
▁הדברים	-1140
▁החי	-1141
טית	-1142
▁בהם	-1143
▁קרי	-1144
▁מאשר	-1145
▁ההי	-1146
▁מערכת	-1147
▁פרי	-1148
▁תוך	-1149
▁עומ	-1150
▁טובה	-1151
▁אוכל	-1152
▁שבוע	-1153
▁האמריק	-1154
▁החוק	-1155
▁דולר	-1156
▁חופ	-1157
גו	-1158
וכלו	-1159
▁כיום	-1160
חקר	-1161
סטר	-1162
ניי	-1163
▁מוג	-1164
פקיד	-1165
כור	-1166
מיים	-1167
▁ליי	-1168
▁הטי	-1169
▁תכ	-1170
▁כסף	-1171
▁שאנחנו	-1172
לוט	-1173
דינות	-1174
משים	-1175
▁הדרך	-1176
כונה	-1177
▁מדוע	-1178
זי	-1179
▁הוד	-1180
▁ימים	-1181
is	-1182
▁קשר	-1183
▁מנ	-1184
▁תג	-1185
▁מישהו	-1186
▁l	-1187
▁שעות	-1188
▁נשים	-1189
▁בישראל	-1190
▁החד	-1191
▁אותנו	-1192
וליטי	-1193
▁בשי	-1194
▁האירו	-1195
▁להגיע	-1196
משיך	-1197
▁הבית	-1198
הי	-1199
ולד	-1200
▁בלבד	-1201
oo	-1202
▁לסי	-1203
▁להבין	-1204
▁n	-1205
ליח	-1206
▁קול	-1207
מוך	-1208
▁לזה	-1209
▁נות	-1210
▁ברא	-1211
▁אופ	-1212
▁כנ	-1213
ורק	-1214
▁שאתם	-1215
▁אחרות	-1216
זרה	-1217
▁קיבל	-1218
▁b	-1219
שרד	-1220
▁ראש	-1221
▁נמצא	-1222
אלה	-1223
▁המשפ	-1224
טחון	-1225
▁עמ	-1226
).	-1227
נויות	-1228
▁היח	-1229
▁אינם	-1230
זק	-1231
▁שלוש	-1232
מנ	-1233
סות	-1234
▁מות	-1235
▁בעוד	-1236
▁הרג	-1237
▁עושים	-1238
▁ואז	-1239
סון	-1240
▁בתי	-1241
קש	-1242
▁מסוי	-1243
וקה	-1244
▁מקבל	-1245
▁15	-1246
▁המט	-1247
תים	-1248
▁מגי	-1249
ed	-1250
▁מסת	-1251
ודש	-1252
▁פה	-1253
▁מכן	-1254
▁מרו	-1255
תו	-1256
▁כמובן	-1257
▁199	-1258
▁בנוסף	-1259
נסה	-1260
רפת	-1261
▁העוב	-1262
רכות	-1263
▁?"	-1264
מינים	-1265
ובות	-1266
▁תת	-1267
▁ברו	-1268
▁למעשה	-1269
▁הארץ	-1270
▁זהו	-1271
▁לאי	-1272
▁אש	-1273
▁מזה	-1274
il	-1275
▁לדבר	-1276
ושר	-1277
גיד	-1278
▁במס	-1279
▁ומה	-1280
▁טבע	-1281
רגיה	-1282
▁U	-1283
▁אינה	-1284
▁מבי	-1285
▁מול	-1286
▁הבא	-1287
▁לתת	-1288
▁הללו	-1289
▁סוף	-1290
▁לקחת	-1291
עור	-1292
▁דו	-1293
-19	-1294
משך	-1295
▁האנשים	-1296
▁שימוש	-1297
סיה	-1298
▁הממשלה	-1299
▁V	-1300
▁עק	-1301
▁ללמוד	-1302
ra	-1303
▁12	-1304
▁לעולם	-1305
▁The	-1306
▁לעבוד	-1307
▁בשל	-1308
▁תחת	-1309
▁רש	-1310
▁אב	-1311
▁הלב	-1312
▁מעל	-1313
מבר	-1314
▁הכול	-1315
שובה	-1316
▁מופ	-1317
▁התא	-1318
מס	-1319
▁שהיה	-1320
▁מומ	-1321
▁מוק	-1322
▁of	-1323
מונות	-1324
נסי	-1325
▁אזרח	-1326
סקים	-1327
▁מקצוע	-1328
▁."	-1329
▁גיל	-1330
▁להר	-1331
▁בעי	-1332
▁להס	-1333
ניהם	-1334
▁מכו	-1335
▁כוח	-1336
רבית	-1337
צו	-1338
▁טר	-1339
▁חבר	-1340
▁נוסף	-1341
▁פעמים	-1342
זון	-1343
▁המוצ	-1344
▁חייב	-1345
▁בעיקר	-1346
and	-1347
ופו	-1348
ספק	-1349
▁וש	-1350
זם	-1351
▁לעזור	-1352
▁חשב	-1353
גון	-1354
נתי	-1355
▁אפש	-1356
▁f	-1357
▁שש	-1358
רטי	-1359
▁פל	-1360
▁המכ	-1361
▁ואי	-1362
יוון	-1363
יתוח	-1364
▁אצל	-1365
▁אולם	-1366
ch	-1367
▁האנו	-1368
ומיים	-1369
▁בעצ	-1370
▁קודם	-1371
▁המשפט	-1372
▁זק	-1373
▁לומר	-1374
▁המשחק	-1375
▁האחרון	-1376
▁המה	-1377
▁מים	-1378
▁ברור	-1379
▁מדובר	-1380
▁סרט	-1381
▁גדולה	-1382
▁דקות	-1383
▁הילדים	-1384
שיג	-1385
▁שר	-1386
▁יהיו	-1387
ליט	-1388
סית	-1389
סיון	-1390
ורג	-1391
▁מוב	-1392
▁המב	-1393
זיה	-1394
▁לבד	-1395
▁השנים	-1396
▁פעולה	-1397
▁מעט	-1398
וסר	-1399
▁רואה	-1400
דרה	-1401
ודית	-1402
שור	-1403
▁ליצור	-1404
סיק	-1405
רופה	-1406
▁למח	-1407
▁שנות	-1408
▁גל	-1409
▁רפ	-1410
▁מרכז	-1411
▁ארה	-1412
▁צריכה	-1413
רמ	-1414
▁שומ	-1415
▁כד	-1416
▁מחדש	-1417
רושלים	-1418
▁שכל	-1419
▁הציבור	-1420
דיה	-1421
רכה	-1422
▁בכלל	-1423
▁פרס	-1424
▁הגוף	-1425
▁רוח	-1426
נהל	-1427
▁אג	-1428
▁הפלסטי	-1429
▁לצי	-1430
▁השלי	-1431
חל	-1432
▁חדשים	-1433
ol	-1434
▁אוהב	-1435
▁הסרט	-1436
▁ככל	-1437
קרים	-1438
▁ביט	-1439
▁מבחי	-1440
▁קרובות	-1441
▁זוכ	-1442
▁מוח	-1443
רוא	-1444
▁נוספים	-1445
וניברסי	-1446
ילדים	-1447
▁בתחום	-1448
▁קו	-1449
▁נור	-1450
▁חודשים	-1451
ri	-1452
זיק	-1453
צרים	-1454
▁תנו	-1455
ופים	-1456
▁צורך	-1457
▁שאין	-1458
▁כאלה	-1459
▁בכך	-1460
▁כעת	-1461
כס	-1462
▁הו	-1463
▁למו	-1464
▁למשל	-1465
ביע	-1466
▁הפי	-1467
▁מטר	-1468
▁שונות	-1469
כלה	-1470
▁איזה	-1471
▁שלושה	-1472
נטים	-1473
עתי	-1474
▁מדינות	-1475
כתב	-1476
▁שנת	-1477
פס	-1478
▁השפ	-1479
▁לבית	-1480
▁בפני	-1481
▁נס	-1482
ent	-1483
טיח	-1484
▁in	-1485
▁כח	-1486
ובת	-1487
קור	-1488
▁משום	-1489
טב	-1490
▁בעל	-1491
▁מחקר	-1492
▁30	-1493
▁הבינלא	-1494
▁לאח	-1495
▁קלי	-1496
נויים	-1497
גישה	-1498
am	-1499
דק	-1500
ריט	-1501
▁האד	-1502
ay	-1503
▁באתר	-1504
▁ברחבי	-1505
▁השל	-1506
▁איר	-1507
▁קטן	-1508
שונה	-1509
▁המל	-1510
▁החדש	-1511
ונג	-1512
הול	-1513
▁הקט	-1514
▁מלח	-1515
▁הבח	-1516
▁מצב	-1517
שרה	-1518
וגמה	-1519
▁קורה	-1520
▁תלו	-1521
▁מעור	-1522
▁באותו	-1523
מיכה	-1524
▁שונה	-1525
▁11	-1526
▁ידוע	-1527
▁לאורך	-1528
▁אחוז	-1529
▁ללכת	-1530
דמנות	-1531
כח	-1532
וסיף	-1533
▁J	-1534
סוף	-1535
גרת	-1536
▁מסי	-1537
ייס	-1538
▁התוכ	-1539
טיים	-1540
▁מפני	-1541
מח	-1542
שיר	-1543
▁עסק	-1544
▁כדור	-1545
▁בשנה	-1546
▁האמת	-1547
חרות	-1548
▁לוק	-1549
▁המוע	-1550
▁המוד	-1551
▁לעתים	-1552
▁ילד	-1553
▁עובד	-1554
▁״	-1555
▁עבוד	-1556
עיון	-1557
-20	-1558
▁כגון	-1559
▁חדשה	-1560
ביבה	-1561
נר	-1562
▁תיא	-1563
ow	-1564
▁ספק	-1565
סל	-1566
▁נכנס	-1567
as	-1568
רויות	-1569
▁שאלה	-1570
ac	-1571
▁שהת	-1572
▁עצמי	-1573
▁נב	-1574
▁קרא	-1575
חלט	-1576
▁בתק	-1577
▁מאות	-1578
ופת	-1579
▁”.	-1580
▁the	-1581
ווים	-1582
▁העי	-1583
▁לשמור	-1584
ידע	-1585
▁לכת	-1586
למידים	-1587
מק	-1588
▁ולכן	-1589
▁דור	-1590
▁מני	-1591
לווי	-1592
נסות	-1593
▁ארצות	-1594
ודת	-1595
▁יית	-1596
▁תרו	-1597
רוע	-1598
▁להשיג	-1599
▁לפעמים	-1600
▁מקור	-1601
▁In	-1602
ועל	-1603
▁להפוך	-1604
▁עובדים	-1605
דיו	-1606
us	-1607
זל	-1608
בוצה	-1609
▁ההש	-1610
▁טובים	-1611
▁לקרוא	-1612
▁K	-1613
▁]	-1614
▁ממנו	-1615
אב	-1616
מרי	-1617
▁e	-1618
אתה	-1619
בלת	-1620
▁נד	-1621
▁פעילות	-1622
▁החלט	-1623
▁0	-1624
▁w	-1625
▁דא	-1626
▁שינוי	-1627
כך	-1628
קטי	-1629
▁חברות	-1630
▁סיפור	-1631
▁לשנות	-1632
▁לתק	-1633
טור	-1634
ליה	-1635
▁מעבר	-1636
▁להא	-1637
▁(1	-1638
▁הקה	-1639
כונות	-1640
ve	-1641
וויר	-1642
▁באזור	-1643
לוטין	-1644
▁לחלוטין	-1645
▁אמריק	-1646
▁אמרה	-1647
▁לבצע	-1648
▁כתב	-1649
▁לבין	-1650
▁יב	-1651
▁שות	-1652
▁בגיל	-1653
▁בחיים	-1654
▁המרכז	-1655
▁זכויות	-1656
ואו	-1657
רכו	-1658
▁17	-1659
▁כנראה	-1660
▁בסוף	-1661
▁בעבר	-1662
חילת	-1663
▁חוז	-1664
▁לחשוב	-1665
נא	-1666
▁מאפשר	-1667
קרא	-1668
כנולוגיה	-1669
▁מגיע	-1670
▁שאנו	-1671
▁לחיות	-1672
▁מנו	-1673
▁בשם	-1674
▁עשוי	-1675
▁לעצ	-1676
▁שצ	-1677
▁המצב	-1678
▁תוכנית	-1679
דיר	-1680
בוק	-1681
כולם	-1682
▁כאילו	-1683
▁מאד	-1684
▁בחי	-1685
סר	-1686
▁במקרה	-1687
▁פא	-1688
▁בעיר	-1689
▁רואים	-1690
ילת	-1691
▁סג	-1692
▁שיה	-1693
יכ	-1694
▁הולך	-1695
▁בספ	-1696
שראלי	-1697
מודד	-1698
▁אבי	-1699
▁חול	-1700
▁St	-1701
רבי	-1702
▁16	-1703
▁שמו	-1704
▁להתק	-1705
▁שהי	-1706
פתחות	-1707
רפ	-1708
חידה	-1709
וסים	-1710
וציא	-1711
▁מחש	-1712
ציאות	-1713
▁טיפול	-1714
▁השנייה	-1715
20	-1716
ציות	-1717
▁g	-1718
▁13	-1719
▁מסו	-1720
▁אתכם	-1721
▁משנה	-1722
▁בינלא	-1723
כולת	-1724
▁פול	-1725
ation	-1726
וביל	-1727
שורת	-1728
יקט	-1729
▁ויש	-1730
▁המשפחה	-1731
נאי	-1732
▁תודה	-1733
▁יא	-1734
▁להצי	-1735
יצוב	-1736
▁רבה	-1737
▁בעיות	-1738
פן	-1739
ig	-1740
▁שול	-1741
▁יהודים	-1742
▁עלינו	-1743
דרת	-1744
נצי	-1745
▁תצ	-1746
▁הצל	-1747
▁יו	-1748
▁בעק	-1749
▁שחק	-1750
וחים	-1751
▁אוב	-1752
▁האל	-1753
▁כשא	-1754
▁נרא	-1755
▁הילד	-1756
▁ן	-1757
זרת	-1758
▁קה	-1759
▁בידי	-1760
ot	-1761
ut	-1762
פוש	-1763
▁מונ	-1764
טון	-1765
תף	-1766
▁רכ	-1767
רוץ	-1768
▁והיא	-1769
▁וכל	-1770
▁להסת	-1771
▁האחרונות	-1772
-3	-1773
ופר	-1774
▁חשי	-1775
▁גבוהה	-1776
▁ארב	-1777
▁סוכ	-1778
▁אליו	-1779
▁בקרב	-1780
מודים	-1781
▁איפה	-1782
▁השאלה	-1783
▁משתמשים	-1784
▁חת	-1785
▁טע	-1786
▁הקוד	-1787
▁חדשות	-1788
הליך	-1789
▁מאח	-1790
▁המידע	-1791
▁אומרים	-1792
▁המשת	-1793
▁מבין	-1794
▁מיוח	-1795
▁לטי	-1796
▁מצד	-1797
▁נסי	-1798
▁עוז	-1799
▁מדינה	-1800
שרת	-1801
▁אינט	-1802
▁ואם	-1803
לוויזיה	-1804
מיות	-1805
מצא	-1806
יצור	-1807
יתים	-1808
▁הרח	-1809
▁אומרת	-1810
▁כלומר	-1811
יב	-1812
▁יורק	-1813
▁סביב	-1814
▁חברים	-1815
▁יס	-1816
▁194	-1817
▁Y	-1818
▁עצמה	-1819
▁להק	-1820
▁כלפי	-1821
▁בעת	-1822
▁הקי	-1823
▁עור	-1824
דון	-1825
לול	-1826
▁והם	-1827
▁חומ	-1828
▁הטבע	-1829
▁נוספת	-1830
▁אכ	-1831
▁לבי	-1832
▁בריאות	-1833
ad	-1834
נאים	-1835
▁מהר	-1836
▁מעולם	-1837
▁יפה	-1838
▁מהמ	-1839
▁כלי	-1840
ur	-1841
▁שפ	-1842
▁*	-1843
על	-1844
לפון	-1845
▁עליהם	-1846
▁14	-1847
▁מאת	-1848
▁הפעם	-1849
▁המחקר	-1850
▁חייבים	-1851
בלו	-1852
▁באותה	-1853
▁טרא	-1854
▁מרא	-1855
▁שיי	-1856
אית	-1857
▁נוס	-1858
▁ונ	-1859
▁מדע	-1860
▁שוא	-1861
▁עליה	-1862
▁להתחיל	-1863
▁הנת	-1864
▁דומה	-1865
▁מחוץ	-1866
חן	-1867
▁ארג	-1868
שורים	-1869
לוהים	-1870
▁לבחור	-1871
▁לחזור	-1872
▁הגדולה	-1873
▁בעיה	-1874
ניק	-1875
▁הוכ	-1876
▁קרה	-1877
▁המג	-1878
▁מיד	-1879
▁עולם	-1880
▁המקום	-1881
▁ציבור	-1882
סור	-1883
▁שוק	-1884
▁העיק	-1885
▁מנהי	-1886
▁בנושא	-1887
▁מאוחר	-1888
▁מרגיש	-1889
▁שית	-1890
▁עצמם	-1891
רבה	-1892
▁לעצמ	-1893
▁בעקבות	-1894
▁אהבה	-1895
▁זכ	-1896
▁הבל	-1897
▁משי	-1898
רוג	-1899
▁למען	-1900
▁הצע	-1901
▁לגרום	-1902
▁נתונים	-1903
זב	-1904
פיע	-1905
▁198	-1906
▁בארה	-1907
▁בסופו	-1908
▁הבעיה	-1909
▁25	-1910
▁לשחק	-1911
un	-1912
כיר	-1913
▁הצד	-1914
▁וכן	-1915
▁הרפ	-1916
וצה	-1917
▁ככה	-1918
▁רצי	-1919
▁גברים	-1920
▁להמשיך	-1921
▁h	-1922
▁שנית	-1923
▁משפחת	-1924
▁הסיבה	-1925
▁הסכ	-1926
▁התג	-1927
▁טוע	-1928
▁סוב	-1929
▁50	-1930
▁תר	-1931
▁בסדר	-1932
▁העלי	-1933
▁איכות	-1934
▁חמי	-1935
▁קיים	-1936
▁בתוכ	-1937
▁תהליך	-1938
▁פסי	-1939
▁העול	-1940
רוק	-1941
מוקרט	-1942
ומו	-1943
▁העם	-1944
ודנטים	-1945
זאת	-1946
▁לתוך	-1947
▁'.	-1948
טרי	-1949
▁בזה	-1950
▁פלסטי	-1951
▁לאנשים	-1952
▁מו	-1953
▁אנשי	-1954
▁לדברי	-1955
בלה	-1956
▁מרח	-1957
▁בהתאם	-1958
פוי	-1959
▁אינטר	-1960
▁הית	-1961
▁תוכלו	-1962
▁ערך	-1963
▁הלק	-1964
▁הרוח	-1965
הוב	-1966
▁כוחות	-1967
▁העצ	-1968
▁ועוד	-1969
▁השבוע	-1970
דן	-1971
▁האינטרנט	-1972
נגלית	-1973
פורים	-1974
▁לעומת	-1975
▁רגע	-1976
גרים	-1977
▁אתר	-1978
▁כדאי	-1979
▁לגמרי	-1980
נגד	-1981
▁בארץ	-1982
▁מיליא	-1983
▁המצ	-1984
▁פוליטי	-1985
▁היינו	-1986
▁ייתכן	-1987
נתה	-1988
▁משא	-1989
▁ראשון	-1990
▁סיי	-1991
▁חברי	-1992
בלות	-1993
▁קצר	-1994
▁מתחיל	-1995
▁1.	-1996
כלי	-1997
▁שלום	-1998
▁נמצאים	-1999
▁היהודים	-2000
▁ההג	-2001
ופות	-2002
▁הפת	-2003
ידי	-2004
▁אותן	-2005
יינו	-2006
נח	-2007
▁האחרונה	-2008
מנע	-2009
גוד	-2010
נהגות	-2011
▁החדשה	-2012
ct	-2013
שלום	-2014
▁היית	-2015
▁בהחלט	-2016
▁המלחמה	-2017
חוד	-2018
▁אוט	-2019
מול	-2020
▁197	-2021
קול	-2022
▁בסיס	-2023
▁כמות	-2024
פרי	-2025
יאון	-2026
שאים	-2027
▁היש	-2028
▁העסק	-2029
ופול	-2030
שרים	-2031
▁המוז	-2032
▁בשבוע	-2033
▁עניין	-2034
▁לצאת	-2035
▁נעשה	-2036
▁צבא	-2037
▁הפרו	-2038
▁לספק	-2039
▁[1	-2040
▁אלף	-2041
אנחנו	-2042
בורה	-2043
שבון	-2044
id	-2045
בן	-2046
מך	-2047
ריז	-2048
▁דעת	-2049
▁לשם	-2050
▁ישנם	-2051
▁להביא	-2052
▁להגיד	-2053
▁להתמודד	-2054
שע	-2055
וצר	-2056
וקא	-2057
▁תז	-2058
▁100	-2059
ובי	-2060
▁המאה	-2061
▁הסת	-2062
um	-2063
מץ	-2064
פוס	-2065
מלי	-2066
מנו	-2067
▁שמע	-2068
▁בשנים	-2069
יחס	-2070
▁בפר	-2071
▁לאכול	-2072
▁תומ	-2073
ושבים	-2074
▁אוני	-2075
▁מזון	-2076
▁תוצאות	-2077
▁היחיד	-2078
▁תרבות	-2079
זית	-2080
ינוך	-2081
▁שיכול	-2082
סקה	-2083
▁נקרא	-2084
כוי	-2085
▁למנוע	-2086
▁משפחה	-2087
רחש	-2088
▁ממשלת	-2089
▁ממה	-2090
▁האתר	-2091
▁מתחת	-2092
▁r	-2093
▁40	-2094
▁ארגון	-2095
מיה	-2096
וגרים	-2097
▁השימוש	-2098
▁הבריאות	-2099
▁and	-2100
▁עליך	-2101
זע	-2102
▁חברה	-2103
▁חיו	-2104
חתי	-2105
▁אישי	-2106
▁זוהי	-2107
▁תוכל	-2108
▁נט	-2109
▁זוג	-2110
▁מבוס	-2111
▁ברגע	-2112
▁196	-2113
▁חושבים	-2114
שוא	-2115
▁יכולות	-2116
▁רשת	-2117
▁גרמ	-2118
▁מלחמת	-2119
גוע	-2120
רבים	-2121
▁בינו	-2122
▁מתכו	-2123
כני	-2124
▁יודעת	-2125
▁משתמש	-2126
ודל	-2127
▁הרצ	-2128
▁מאי	-2129
▁שיע	-2130
▁עסקים	-2131
▁er	-2132
ינים	-2133
▁השק	-2134
▁חק	-2135
▁גישה	-2136
למים	-2137
▁מנסה	-2138
טג	-2139
▁-1	-2140
▁חמש	-2141
▁לכתוב	-2142
▁אמא	-2143
▁עבר	-2144
▁עמו	-2145
▁קרוב	-2146
▁ועד	-2147
▁שנו	-2148
▁הבאה	-2149
▁הנשיא	-2150
▁תפקיד	-2151
▁אצ	-2152
▁שרי	-2153
▁תופ	-2154
▁במצב	-2155
▁לקנות	-2156
▁היטב	-2157
מוע	-2158
קשה	-2159
▁למד	-2160
▁באינטרנט	-2161
▁עש	-2162
▁מצא	-2163
▁הצבא	-2164
▁הסיפור	-2165
▁מדה	-2166
פשרות	-2167
▁לוח	-2168
ir	-2169
ימה	-2170
מתי	-2171
ציב	-2172
▁בטי	-2173
▁נכ	-2174
▁עשה	-2175
רוס	-2176
שום	-2177
מוצע	-2178
▁כולנו	-2179
▁שאלות	-2180
▁אישה	-2181
▁מדינת	-2182
וחה	-2183
נדר	-2184
▁מכך	-2185
▁היד	-2186
▁השם	-2187
▁משרד	-2188
נוק	-2189
כלית	-2190
צלחה	-2191
▁מהי	-2192
▁עיר	-2193
▁משות	-2194
▁ך	-2195
ter	-2196
▁''	-2197
▁2.	-2198
▁שט	-2199
▁המוח	-2200
▁כרטי	-2201
▁שהיו	-2202
▁אירופה	-2203
▁•	-2204
▁קונ	-2205
▁קבוע	-2206
ver	-2207
▁ליד	-2208
▁נשא	-2209
▁בשלב	-2210
▁גב	-2211
ויות	-2212
שיות	-2213
רונים	-2214
טא	-2215
▁הגר	-2216
▁במהירות	-2217
לתי	-2218
פיים	-2219
▁למעלה	-2220
כנית	-2221
יונות	-2222
▁חוסר	-2223
▁חוו	-2224
▁בלו	-2225
▁דרכים	-2226
▁היחידה	-2227
▁תמונות	-2228
מנה	-2229
נסים	-2230
▁ביי	-2231
50	-2232
רוני	-2233
וטנצי	-2234
▁זכות	-2235
אום	-2236
▁להז	-2237
▁24	-2238
▁מיני	-2239
▁לעיתים	-2240
▁שמי	-2241
▁הישראל	-2242
▁מדיניות	-2243
רש	-2244
ליק	-2245
▁פרט	-2246
▁הביתה	-2247
▁ירי	-2248
ורף	-2249
▁משפט	-2250
▁אכן	-2251
▁הרש	-2252
▁להרגיש	-2253
▁וכי	-2254
נרגיה	-2255
▁בתור	-2256
▁עולה	-2257
▁צוות	-2258
▁הנתונים	-2259
▁תס	-2260
▁כות	-2261
▁קוב	-2262
▁ספור	-2263
▁מסוימים	-2264
▁פרק	-2265
▁פנים	-2266
▁אוהבים	-2267
▁מכיוון	-2268
▁בפעם	-2269
▁נחש	-2270
▁עשויים	-2271
▁הזדמנות	-2272
▁צפו	-2273
זים	-2274
▁האור	-2275
▁המוש	-2276
▁מאמין	-2277
נדי	-2278
חם	-2279
▁ייח	-2280
▁הראשונים	-2281
▁דין	-2282
▁הפך	-2283
▁ימי	-2284
▁בעצם	-2285
▁המדע	-2286
▁אמריקה	-2287
סוי	-2288
רוך	-2289
▁כוכ	-2290
▁מחפ	-2291
▁נדר	-2292
▁אמית	-2293
ag	-2294
ראות	-2295
▁להיכנס	-2296
▁כב	-2297
▁שג	-2298
ריון	-2299
▁מדברים	-2300
▁ראי	-2301
▁ההיסטוריה	-2302
בתי	-2303
▁ניצ	-2304
▁ביחד	-2305
▁טראמפ	-2306
▁הגבוה	-2307
▁לקוחות	-2308
▁פס	-2309
▁החש	-2310
▁המשי	-2311
▁תיק	-2312
▁גדולים	-2313
ce	-2314
ותו	-2315
▁לחץ	-2316
▁הקור	-2317
ולוגיה	-2318
ורט	-2319
ורית	-2320
▁לעבור	-2321
▁מקווה	-2322
ומיות	-2323
לוק	-2324
▁ראו	-2325
▁צד	-2326
▁מסוגל	-2327
▁המדינות	-2328
▁דם	-2329
גישים	-2330
שויות	-2331
▁בואו	-2332
קב	-2333
▁שיל	-2334
▁החלק	-2335
▁הביטחון	-2336
▁ליה	-2337
▁המוס	-2338
▁במא	-2339
▁סין	-2340
▁נושא	-2341
▁סיבה	-2342
▁במדינה	-2343
▁המד	-2344
▁לבנות	-2345
▁בארצות	-2346
▁להישאר	-2347
▁מיליארד	-2348
מדו	-2349
▁קצ	-2350
▁חיל	-2351
▁ניו	-2352
▁סק	-2353
▁לראשונה	-2354
חלה	-2355
▁!"	-2356
▁כע	-2357
▁התפ	-2358
▁ניהול	-2359
ess	-2360
▁אמרתי	-2361
▁עול	-2362
▁ירושלים	-2363
גן	-2364
▁סכ	-2365
▁מקרה	-2366
▁דווקא	-2367
▁האוכל	-2368
וספ	-2369
▁צל	-2370
▁שנע	-2371
▁גורם	-2372
דית	-2373
▁ההז	-2374
▁הוק	-2375
▁מרי	-2376
▁מאמינים	-2377
▁—	-2378
▁בנק	-2379
▁יצא	-2380
▁התעופה	-2381
עיף	-2382
▁שיהיה	-2383
▁הטיפול	-2384
רחק	-2385
▁לילדים	-2386
נדה	-2387
ניסה	-2388
▁אלפי	-2389
▁בחיי	-2390
שתי	-2391
▁נמו	-2392
פילו	-2393
▁פוע	-2394
▁מערכות	-2395
הבה	-2396
▁משק	-2397
▁שמח	-2398
▁עומד	-2399
▁הטר	-2400
▁אמיתי	-2401
צמבר	-2402
▁חזק	-2403
▁להגן	-2404
▁איראן	-2405
▁אפשרי	-2406
-4	-2407
▁מוצרים	-2408
בלים	-2409
▁חינו	-2410
▁לאור	-2411
▁יהודי	-2412
▁במסגרת	-2413
▁משמעותי	-2414
▁אק	-2415
שייה	-2416
▁צבע	-2417
▁קטנה	-2418
רקע	-2419
▁אמרו	-2420
▁צרפת	-2421
▁שווה	-2422
▁הקד	-2423
▁פולי	-2424
וכן	-2425
סום	-2426
ראי	-2427
גיעה	-2428
▁זר	-2429
שיית	-2430
▁ומע	-2431
▁ממשי	-2432
▁אנרגיה	-2433
▁השירות	-2434
סד	-2435
טרף	-2436
▁לרכ	-2437
▁לשלם	-2438
חס	-2439
ולת	-2440
▁המים	-2441
▁דת	-2442
כונים	-2443
▁מדבר	-2444
אק	-2445
▁בוד	-2446
▁רכב	-2447
▁לדוגמה	-2448
בוש	-2449
לוח	-2450
▁אבא	-2451
▁בנוגע	-2452
▁האוויר	-2453
זיר	-2454
▁הלו	-2455
▁לשמוע	-2456
▁ניסיון	-2457
נהי	-2458
צית	-2459
▁מבט	-2460
▁בבי	-2461
▁המטרה	-2462
▁מסוים	-2463
ניח	-2464
▁האופ	-2465
יס	-2466
▁הכסף	-2467
▁מבלי	-2468
▁לנסות	-2469
▁כתוצאה	-2470
ילום	-2471
▁כללי	-2472
▁אישית	-2473
▁לישראל	-2474
▁עב	-2475
▁מפל	-2476
▁ופ	-2477
ודעה	-2478
▁השחק	-2479
▁וכך	-2480
▁מלחמה	-2481
▁שבועות	-2482
ושי	-2483
▁באירופה	-2484
פך	-2485
ליחה	-2486
▁הוצ	-2487
▁שמת	-2488
▁העתי	-2489
דיניות	-2490
▁תקופה	-2491
▁אפשרות	-2492
פיות	-2493
▁אמת	-2494
וריות	-2495
ניינים	-2496
▁לאחרונה	-2497
טן	-2498
לון	-2499
▁סמ	-2500
▁הדין	-2501
▁העובדה	-2502
במבר	-2503
▁ובכל	-2504
שתו	-2505
▁גופ	-2506
▁הוג	-2507
▁אוניברסי	-2508
שק	-2509
▁X	-2510
▁מעוני	-2511
▁קטנים	-2512
▁הנסי	-2513
▁קבוצה	-2514
▁תרג	-2515
▁נוספות	-2516
▁כספ	-2517
▁שינויים	-2518
▁טיפ	-2519
▁לרו	-2520
▁איתו	-2521
▁הבאים	-2522
▁היהודי	-2523
▁זמ	-2524
ומן	-2525
שיב	-2526
▁יות	-2527
▁יוצא	-2528
▁ארבעה	-2529
▁הטובה	-2530
▁היכולת	-2531
מונים	-2532
▁אילו	-2533
▁אוהבת	-2534
▁כלום	-2535
▁המערכת	-2536
חרי	-2537
▁הים	-2538
...	-2539
▁חצי	-2540
▁הנוכ	-2541
נייה	-2542
▁מיוחד	-2543
▁חר	-2544
טיות	-2545
▁אסטר	-2546
▁עצמך	-2547
▁החשוב	-2548
חית	-2549
▁אליה	-2550
▁דיווח	-2551
למה	-2552
סקי	-2553
רחב	-2554
▁הצה	-2555
▁מוכן	-2556
▁מחיר	-2557
פאים	-2558
▁המלא	-2559
▁חודש	-2560
▁נשיא	-2561
▁מלאה	-2562
▁מאחורי	-2563
▁האזרח	-2564
▁כיוון	-2565
וגר	-2566
▁נז	-2567
-201	-2568
▁החולים	-2569
רתי	-2570
▁ערב	-2571
נתיים	-2572
▁להתע	-2573
פכה	-2574
▁עית	-2575
▁רכי	-2576
ראו	-2577
ושב	-2578
ראת	-2579
▁וד	-2580
▁ספרים	-2581
▁עתי	-2582
▁שבהם	-2583
מדה	-2584
מנט	-2585
סיס	-2586
▁לעמוד	-2587
▁שבע	-2588
▁2015	-2589
▁יחיד	-2590
▁שצריך	-2591
▁תמ	-2592
▁מסע	-2593
▁לימוד	-2594
ילד	-2595
▁זיה	-2596
▁ייש	-2597
▁רחב	-2598
▁אנגל	-2599
▁חשבו	-2600
▁אודות	-2601
▁מעניין	-2602
לץ	-2603
▁הביט	-2604
▁בחודש	-2605
▁ראיתי	-2606
צא	-2607
עבר	-2608
▁הקרו	-2609
▁לשים	-2610
▁ארבע	-2611
▁הקרי	-2612
▁טכנולוג	-2613
▁שרו	-2614
▁היסט	-2615
▁פתרון	-2616
▁גא	-2617
▁יג	-2618
בעים	-2619
טיבי	-2620
▁הגיעו	-2621
▁דה	-2622
▁תלוי	-2623
▁הישראלי	-2624
oc	-2625
סוק	-2626
▁נפר	-2627
ליטים	-2628
▁צעירים	-2629
▁הבינלאומי	-2630
▁לצד	-2631
▁יצירת	-2632
▁וג	-2633
יכרון	-2634
▁לספר	-2635
▁תמיכה	-2636
▁Re	-2637
▁יפ	-2638
חושה	-2639
▁לפעול	-2640
▁ורק	-2641
▁הקבוצה	-2642
▁בהן	-2643
▁הסט	-2644
▁כזו	-2645
▁לנק	-2646
▁האלו	-2647
▁בבוקר	-2648
חרר	-2649
▁תל	-2650
▁יצי	-2651
▁מתע	-2652
▁שגם	-2653
▁השפעה	-2654
▁>	-2655
▁הנא	-2656
▁הנפ	-2657
▁ואף	-2658
▁הסכם	-2659
▁ובע	-2660
▁ייע	-2661
▁שבי	-2662
▁נשאר	-2663
▁תשומת	-2664
▁האחרונים	-2665
▁ing	-2666
▁ההס	-2667
▁מילים	-2668
▁מקבלים	-2669
im	-2670
▁בוח	-2671
▁»	-2672
ורד	-2673
זרו	-2674
▁מלו	-2675
▁עוצ	-2676
▁הלילה	-2677
▁חזרה	-2678
▁בעתיד	-2679
▁דוג	-2680
▁מבחינה	-2681
▁המפ	-2682
▁לשפר	-2683
▁התשובה	-2684
▁בעזרת	-2685
▁חושבת	-2686
▁התיכון	-2687
▁to	-2688
▁הרע	-2689
▁מתא	-2690
▁באוק	-2691
▁בשוק	-2692
▁הקול	-2693
▁ממנה	-2694
▁קש	-2695
▁2014	-2696
▁הופך	-2697
▁ביצוע	-2698
▁מגיעים	-2699
▁קבוצות	-2700
שהי	-2701
▁.”	-2702
▁אוו	-2703
▁הקשר	-2704
▁עלול	-2705
▁במרכז	-2706
▁חולים	-2707
▁יכולת	-2708
▁הארגון	-2709
ul	-2710
▁ראה	-2711
▁שיר	-2712
▁נקודות	-2713
▁התוכנית	-2714
ריכה	-2715
▁שאר	-2716
▁!!	-2717
▁קא	-2718
▁תב	-2719
▁תינו	-2720
▁המשטרה	-2721
▁השלישי	-2722
יט	-2723
▁שעה	-2724
יצוני	-2725
▁כפ	-2726
מדים	-2727
זוב	-2728
▁לדי	-2729
▁עבד	-2730
▁טבעי	-2731
▁בקלות	-2732
▁לשא	-2733
ia	-2734
▁on	-2735
ונית	-2736
▁תכנית	-2737
▁תרופות	-2738
מאס	-2739
עון	-2740
נועה	-2741
▁מצוי	-2742
מם	-2743
ניהול	-2744
▁המלך	-2745
▁לאדם	-2746
▁לגלות	-2747
▁הרב	-2748
▁בחלק	-2749
ליף	-2750
▁לומ	-2751
ייסבוק	-2752
▁ההבד	-2753
ונת	-2754
▁Ch	-2755
כבת	-2756
לנד	-2757
▁השמ	-2758
▁שמש	-2759
ווק	-2760
▁חמ	-2761
▁המון	-2762
▁מנהל	-2763
▁מוקדם	-2764
ie	-2765
▁מיק	-2766
ילויות	-2767
▁למקום	-2768
▁בהי	-2769
▁חוץ	-2770
▁להתי	-2771
▁במידה	-2772
▁תמונה	-2773
רגל	-2774
▁טרי	-2775
כולוג	-2776
▁הגור	-2777
▁נולד	-2778
▁v	-2779
▁|	-2780
מום	-2781
דרות	-2782
▁שניתן	-2783
וניברסיטה	-2784
th	-2785
▁השר	-2786
▁אחריות	-2787
▁הבר	-2788
▁אלקט	-2789
▁לרוב	-2790
▁לקראת	-2791
▁y	-2792
וגה	-2793
▁לבע	-2794
▁להיר	-2795
▁נשמע	-2796
▁הקהילה	-2797
▁עת	-2798
▁מוט	-2799
▁ארוך	-2800
▁בעצמ	-2801
▁נותן	-2802
▁ספורט	-2803
▁ההורים	-2804
▁’	-2805
יתנו	-2806
מינו	-2807
▁לפתח	-2808
▁בתחילת	-2809
ניס	-2810
▁שכן	-2811
▁שאפשר	-2812
▁משחקים	-2813
ורר	-2814
נסת	-2815
▁לבדוק	-2816
▁שאינם	-2817
0%	-2818
טרות	-2819
▁העתיד	-2820
ht	-2821
ִי	-2822
▁מין	-2823
▁כולו	-2824
os	-2825
▁האו	-2826
▁מאושר	-2827
כלו	-2828
▁יתר	-2829
▁סופ	-2830
▁2017	-2831
▁יקרה	-2832
▁ואפילו	-2833
ביות	-2834
▁מהן	-2835
▁הכוח	-2836
▁שימו	-2837
פית	-2838
▁(2	-2839
וסייה	-2840
▁2018	-2841
▁מגוון	-2842
▁מכת	-2843
▁בראש	-2844
▁השמש	-2845
ניו	-2846
פוך	-2847
ברואר	-2848
▁האיש	-2849
רס	-2850
פחה	-2851
ברתי	-2852
מנויות	-2853
▁להבטיח	-2854
▁הגדולים	-2855
ָה	-2856
לקת	-2857
▁שו	-2858
▁הדת	-2859
▁בערך	-2860
▁עזרה	-2861
▁ויותר	-2862
▁רוסיה	-2863
▁תוכניות	-2864
."	-2865
קיע	-2866
▁חסר	-2867
▁נמצאת	-2868
דיל	-2869
▁21	-2870
▁ומת	-2871
ובל	-2872
▁יחסים	-2873
וגל	-2874
טיקה	-2875
סטים	-2876
▁במאי	-2877
▁היכן	-2878
▁מתאים	-2879
▁קיימת	-2880
▁בינואר	-2881
",	-2882
▁k	-2883
ייב	-2884
משו	-2885
חלטה	-2886
▁הכת	-2887
▁כוו	-2888
▁חייו	-2889
טליה	-2890
ומרים	-2891
▁הרכב	-2892
▁בצד	-2893
▁בשב	-2894
▁2013	-2895
▁הדרו	-2896
▁המפל	-2897
▁חוקי	-2898
שיבה	-2899
▁שאם	-2900
▁בסרט	-2901
▁נמ	-2902
▁צה	-2903
▁דברי	-2904
▁נצ	-2905
▁ומי	-2906
▁צעד	-2907
▁חיוב	-2908
▁להור	-2909
▁רחוק	-2910
▁פיתוח	-2911
▁הטובים	-2912
▁3.	-2913
▁בחברה	-2914
ידן	-2915
▁המודר	-2916
לין	-2917
סטית	-2918
▁הפני	-2919
▁ולאחר	-2920
▁להעביר	-2921
▁מאיתנו	-2922
-200	-2923
ביעי	-2924
▁לבקר	-2925
▁כשהוא	-2926
בנה	-2927
▁דמי	-2928
טמבר	-2929
▁אמור	-2930
▁עשרות	-2931
▁היחסים	-2932
▁אינטרנט	-2933
וסף	-2934
▁ואין	-2935
▁להתח	-2936
▁הנכון	-2937
▁An	-2938
▁גד	-2939
▁נהרג	-2940
▁חשבתי	-2941
▁מוכנים	-2942
מיחה	-2943
▁הומ	-2944
▁מסוגלים	-2945
דבר	-2946
ילוס	-2947
▁ממוק	-2948
▁לשעבר	-2949
טרך	-2950
שימת	-2951
▁בלילה	-2952
▁מחפשים	-2953
▁שאנשים	-2954
▁העובדים	-2955
סלא	-2956
ושבי	-2957
▁יצר	-2958
▁שזו	-2959
נגדות	-2960
▁גורמים	-2961
▁מחקרים	-2962
אט	-2963
כתי	-2964
אלות	-2965
גשתי	-2966
▁195	-2967
▁2012	-2968
▁מראש	-2969
▁קבוצת	-2970
▁האחרים	-2971
בס	-2972
▁$	-2973
▁בטח	-2974
▁הוע	-2975
הם	-2976
מכים	-2977
▁התינוק	-2978
▁',	-2979
▁יר	-2980
בטחה	-2981
מינה	-2982
▁כרי	-2983
▁רמת	-2984
זורים	-2985
רישות	-2986
שירים	-2987
▁אזור	-2988
▁לילה	-2989
▁לנצח	-2990
em	-2991
נינו	-2992
▁גרי	-2993
▁ברשת	-2994
▁הנושא	-2995
▁הגל	-2996
▁שמא	-2997
▁ברמה	-2998
▁החלו	-2999
▁מכיר	-3000
▁המוצר	-3001
לטון	-3002
▁לשימוש	-3003
▁התנהגות	-3004
▁הוש	-3005
▁נשק	-3006
▁שקי	-3007
▁האזור	-3008
▁חינוך	-3009
ind	-3010
בעת	-3011
לבד	-3012
▁בבר	-3013
▁גוף	-3014
▁תור	-3015
▁החופ	-3016
▁ראשית	-3017
▁גרמניה	-3018
▁מבק	-3019
▁פוג	-3020
▁משנת	-3021
▁הצורך	-3022
▁איננו	-3023
▁רצון	-3024
▁לזכור	-3025
▁החינוך	-3026
▁העליון	-3027
▁תקשורת	-3028
מקד	-3029
בורים	-3030
▁החלטה	-3031
▁יז	-3032
מויות	-3033
▁כרגע	-3034
▁מוסי	-3035
▁לסייע	-3036
▁קוראים	-3037
▁האירופי	-3038
און	-3039
מפי	-3040
▁דר	-3041
▁איי	-3042
▁האת	-3043
▁קפה	-3044
▁איזו	-3045
▁אמנות	-3046
▁בזכות	-3047
צעים	-3048
▁פחד	-3049
▁2010	-3050
▁2011	-3051
▁בניו	-3052
▁צעיר	-3053
▁המילה	-3054
▁כאב	-3055
▁ההשפ	-3056
▁כבוד	-3057
ושת	-3058
עולם	-3059
▁קומ	-3060
▁בוקר	-3061
▁אתמול	-3062
▁חשיבות	-3063
▁הפלסטינים	-3064
יך	-3065
▁ינו	-3066
▁העית	-3067
▁סביר	-3068
▁בשנות	-3069
▁חלב	-3070
▁ביוני	-3071
▁הלאומי	-3072
▁מתחילים	-3073
סיים	-3074
▁הבחירות	-3075
▁מחוי	-3076
▁האדמה	-3077
▁an	-3078
טובר	-3079
ליטה	-3080
▁בשר	-3081
▁סטי	-3082
▁יוכל	-3083
▁חייבת	-3084
▁הרעיון	-3085
ביש	-3086
▁חכ	-3087
▁הינו	-3088
?"	-3089
▁וס	-3090
▁חג	-3091
דיין	-3092
▁מראה	-3093
▁בספטמבר	-3094
▁המציאות	-3095
▁לבוא	-3096
▁לוקח	-3097
▁יוכלו	-3098
▁בדצמבר	-3099
כנע	-3100
▁הפסי	-3101
▁חמישה	-3102
5%	-3103
באי	-3104
▁23	-3105
ובים	-3106
▁גדל	-3107
▁התחת	-3108
▁להכיר	-3109
▁ואנחנו	-3110
▁מבינים	-3111
▁מסוימת	-3112
▁קד	-3113
לוונ	-3114
▁האש	-3115
▁פיק	-3116
יינים	-3117
▁לצפות	-3118
▁לשאול	-3119
וניברסיטת	-3120
].	-3121
הוא	-3122
▁אקד	-3123
▁הזוג	-3124
▁עיצוב	-3125
▁גדולות	-3126
טוא	-3127
▁סל	-3128
זיקה	-3129
▁סול	-3130
▁אמנם	-3131
▁סוגי	-3132
מוקרטיה	-3133
▁התרבות	-3134
est	-3135
▁כם	-3136
▁ניתוח	-3137
▁להסביר	-3138
▁צו	-3139
▁נצי	-3140
▁ישוע	-3141
▁שירותי	-3142
שתה	-3143
רייה	-3144
▁מוות	-3145
▁פרטים	-3146
תק	-3147
▁לחי	-3148
▁מייצ	-3149
▁מומלץ	-3150
▁סיבות	-3151
▁שיתוף	-3152
op	-3153
ונו	-3154
לום	-3155
עיל	-3156
▁פט	-3157
יוני	-3158
▁החק	-3159
▁חופש	-3160
▁לחפש	-3161
▁להאמין	-3162
▁הלח	-3163
▁משר	-3164
▁סיפ	-3165
גישות	-3166
▁במערכת	-3167
▁‘	-3168
▁הווע	-3169
▁שכבר	-3170
▁בימים	-3171
▁טובות	-3172
▁לעבודה	-3173
▁הפוליטי	-3174
▁הפל	-3175
▁לבח	-3176
וטנציאל	-3177
▁ישירות	-3178
▁להפסיק	-3179
),	-3180
ge	-3181
כרת	-3182
▁גבר	-3183
יימים	-3184
▁שמות	-3185
▁ביקורת	-3186
-6	-3187
למת	-3188
▁למדי	-3189
▁חשבון	-3190
דמנויות	-3191
▁הנוכחי	-3192
▁מכירים	-3193
▁מרגישים	-3194
ne	-3195
▁ענק	-3196
▁נמוך	-3197
▁האמיתי	-3198
בש	-3199
ודו	-3200
▁לגי	-3201
▁המחש	-3202
▁מעדי	-3203
▁עשרה	-3204
▁בהמשך	-3205
▁חשובה	-3206
ופט	-3207
פיה	-3208
▁חדר	-3209
כונית	-3210
▁לאפשר	-3211
▁אפשרויות	-3212
רוד	-3213
▁Ne	-3214
▁ממו	-3215
▁אזרחים	-3216
▁שמה	-3217
▁אנטי	-3218
▁ידעתי	-3219
▁מקומות	-3220
▁לתי	-3221
▁בקרוב	-3222
▁ההחלטה	-3223
▁האנרגיה	-3224
לוש	-3225
▁1,	-3226
דיים	-3227
▁אנג	-3228
▁הגב	-3229
▁מצו	-3230
▁מפור	-3231
▁לכולם	-3232
▁רציתי	-3233
▁שנתיים	-3234
▁האמריקאי	-3235
▁בפע	-3236
▁למשך	-3237
▁ביולי	-3238
▁פעולות	-3239
▁התקשורת	-3240
סא	-3241
▁משה	-3242
▁נוכל	-3243
▁ספצי	-3244
▁אוטומ	-3245
▁הימים	-3246
▁תשובה	-3247
▁הולכים	-3248
▁העניין	-3249
יתם	-3250
כוח	-3251
דימה	-3252
▁(19	-3253
▁בקי	-3254
▁ויד	-3255
▁לבן	-3256
▁בחדר	-3257
▁בתקופה	-3258
▁קיימים	-3259
▁היהודית	-3260
יקים	-3261
▁אספ	-3262
▁ושוב	-3263
▁אליהם	-3264
▁אפריקה	-3265
▁להוסיף	-3266
▁שינה	-3267
▁באוקטובר	-3268
ine	-3269
ברר	-3270
▁נאל	-3271
ard	-3272
▁22	-3273
▁נזק	-3274
שוואה	-3275
▁ממלי	-3276
▁תנאי	-3277
▁המפור	-3278
▁החלטות	-3279
ליו	-3280
ידום	-3281
▁בהק	-3282
▁להתא	-3283
▁לפתוח	-3284
▁רעיון	-3285
ודד	-3286
▁ביחס	-3287
▁החלה	-3288
▁הפנים	-3289
ook	-3290
וזה	-3291
▁הדם	-3292
▁שבת	-3293
וגוסט	-3294
▁בספר	-3295
▁להציל	-3296
▁למק	-3297
▁מהח	-3298
▁ראשו	-3299
▁רפוא	-3300
▁שאינו	-3301
▁בחשבון	-3302
og	-3303
▁באמצע	-3304
▁האישה	-3305
▁עצמנו	-3306
▁ביטחון	-3307
▁בור	-3308
▁סבל	-3309
▁שהמ	-3310
▁מציע	-3311
ap	-3312
רית	-3313
▁מזל	-3314
▁בריט	-3315
▁השוק	-3316
▁מוצר	-3317
▁בחזרה	-3318
▁בול	-3319
▁זוכר	-3320
▁מזרח	-3321
▁60	-3322
▁הבנק	-3323
▁השיר	-3324
▁האמית	-3325
▁לחיים	-3326
ate	-3327
מרו	-3328
▁ברצ	-3329
▁ואתה	-3330
▁מלבד	-3331
▁פופול	-3332
▁בתע	-3333
▁מחר	-3334
כוהול	-3335
▁במקרים	-3336
▁והן	-3337
▁שהן	-3338
▁סוגים	-3339
▁המקצוע	-3340
▁העולמי	-3341
▁בנובמבר	-3342
▁האג	-3343
▁בכדי	-3344
▁ביטוח	-3345
▁המזרח	-3346
▁בעבודה	-3347
our	-3348
▁193	-3349
▁שאל	-3350
▁הערב	-3351
▁st	-3352
▁יהם	-3353
▁במשחק	-3354
▁הוסיף	-3355
אין	-3356
רוכה	-3357
▁לספ	-3358
▁שהא	-3359
▁יחסי	-3360
▁לטפל	-3361
▁התלמידים	-3362
ity	-3363
מידה	-3364
▁עתה	-3365
▁ממני	-3366
▁כלשהו	-3367
ודאי	-3368
נקים	-3369
▁אלב	-3370
▁בבע	-3371
▁המחיר	-3372
▁מטרות	-3373
all	-3374
פוץ	-3375
▁פק	-3376
ותרת	-3377
נדון	-3378
▁2016	-3379
▁נפלא	-3380
קטיבי	-3381
▁הנשים	-3382
▁להימנע	-3383
ליחו	-3384
▁בפי	-3385
▁שלב	-3386
בוהים	-3387
▁2009	-3388
▁משמש	-3389
▁שמונה	-3390
▁סטודנטים	-3391
▁מתאי	-3392
▁אוויר	-3393
▁השלום	-3394
▁אחוזים	-3395
▁התמונה	-3396
-5	-3397
▁צמ	-3398
ופיע	-3399
▁היי	-3400
▁מתנה	-3401
ותה	-3402
...]	-3403
מרים	-3404
פייה	-3405
קלים	-3406
▁ביל	-3407
▁בסך	-3408
▁היע	-3409
▁ללק	-3410
▁נאמר	-3411
רן	-3412
ישור	-3413
תפים	-3414
▁נדי	-3415
▁איתם	-3416
▁[...]	-3417
חרור	-3418
▁במג	-3419
▁אסור	-3420
▁המחשב	-3421
art	-3422
ובלי	-3423
לושה	-3424
▁מהווה	-3425
▁משמעותית	-3426
▁יור	-3427
▁בשעה	-3428
▁מתוכ	-3429
▁עשויה	-3430
▁תקופת	-3431
▁מיוחדת	-3432
▁"?	-3433
▁אמי	-3434
▁מפר	-3435
יקטים	-3436
▁המור	-3437
▁העור	-3438
▁ליום	-3439
▁ארוכה	-3440
▁שליטה	-3441
gle	-3442
▁חזר	-3443
בוצות	-3444
▁לטיפול	-3445
גיט	-3446
▁אמו	-3447
▁ספי	-3448
▁בגוף	-3449
▁עדיף	-3450
▁הרופא	-3451
▁משפחות	-3452
▁האפשרות	-3453
▁ההצ	-3454
▁שהח	-3455
ולוגי	-3456
▁לרכוש	-3457
▁מבחינת	-3458
se	-3459
ינה	-3460
▁Al	-3461
פריל	-3462
▁בהכ	-3463
▁בחר	-3464
▁נוצ	-3465
▁נפג	-3466
▁מאחר	-3467
▁שעבר	-3468
▁המוות	-3469
▁לזהות	-3470
▁ביניהם	-3471
▁הצדדים	-3472
▁באוגוסט	-3473
וניים	-3474
▁..."	-3475
▁בשני	-3476
-8	-3477
בירה	-3478
▁אדי	-3479
▁הפעילות	-3480
לס	-3481
▁ארץ	-3482
▁לתח	-3483
▁הגנה	-3484
ab	-3485
▁ויל	-3486
▁נול	-3487
▁אינן	-3488
ודא	-3489
▁ניק	-3490
▁בחוץ	-3491
▁בנות	-3492
▁פרטי	-3493
▁העיקר	-3494
▁לעזוב	-3495
▁האנושי	-3496
▁האנושות	-3497
▁גרם	-3498
▁בריא	-3499
▁במזרח	-3500
▁לעצור	-3501
▁לצורך	-3502
וצים	-3503
▁שטח	-3504
▁2008	-3505
▁אופן	-3506
▁סרטן	-3507
▁התהליך	-3508
▁36	-3509
▁Goo	-3510
▁for	-3511
ונאים	-3512
▁לאתר	-3513
▁פתוח	-3514
▁רמות	-3515
▁שלישי	-3516
▁בירושלים	-3517
▁נחשב	-3518
▁שלהן	-3519
▁מוחלט	-3520
▁נכונה	-3521
מט	-3522
▁[2	-3523
כחות	-3524
▁בסין	-3525
▁מודר	-3526
▁עונה	-3527
▁ההבדל	-3528
▁להציג	-3529
▁הפעולה	-3530
ft	-3531
ואל	-3532
ריע	-3533
▁Sh	-3534
▁re	-3535
ריכים	-3536
▁למות	-3537
▁רווח	-3538
▁נמוכה	-3539
ak	-3540
▁הוב	-3541
נגטון	-3542
▁הארי	-3543
▁לבני	-3544
▁מטופ	-3545
▁מילה	-3546
▁שווי	-3547
גנון	-3548
▁צוד	-3549
▁תואר	-3550
▁אירועים	-3551
▁בריטניה	-3552
▁”,	-3553
▁מרק	-3554
▁ריק	-3555
▁הצליח	-3556
▁מצרים	-3557
▁סיכוי	-3558
▁הישראלית	-3559
ען	-3560
▁&	-3561
וכה	-3562
רוח	-3563
▁28	-3564
מאות	-3565
▁איתי	-3566
▁בהיסטוריה	-3567
▁סתם	-3568
▁ואמר	-3569
▁חומר	-3570
▁לנהל	-3571
▁יחסית	-3572
▁חיילים	-3573
▁הבינלאומית	-3574
▁שיק	-3575
▁קדימה	-3576
▁במדינות	-3577
אס	-3578
נש	-3579
ight	-3580
▁חרי	-3581
מצאים	-3582
רמניה	-3583
▁רופא	-3584
▁הלקוחות	-3585
▁המשמעות	-3586
כנן	-3587
▁השו	-3588
▁ולק	-3589
▁לקח	-3590
▁2007	-3591
▁הבאות	-3592
פיל	-3593
תיע	-3594
צועים	-3595
▁חברתית	-3596
קן	-3597
ונס	-3598
צעי	-3599
▁26	-3600
ביעה	-3601
▁הבה	-3602
ודיים	-3603
▁עליי	-3604
▁שמחה	-3605
▁פרסום	-3606
▁בצי	-3607
▁מרג	-3608
▁2019	-3609
od	-3610
יימת	-3611
▁האב	-3612
▁ירד	-3613
▁לאן	-3614
▁מתמ	-3615
▁הפכה	-3616
▁טרור	-3617
▁בבקשה	-3618
▁הגיעה	-3619
▁לישון	-3620
▁לציין	-3621
▁מנסים	-3622
▁להראות	-3623
נך	-3624
ובע	-3625
עתם	-3626
שוף	-3627
ושים	-3628
▁קבלת	-3629
▁זקוקים	-3630
▁חזקה	-3631
▁מידי	-3632
▁התוצאות	-3633
נצ	-3634
▁היצ	-3635
▁דרום	-3636
▁האהבה	-3637
▁החברת	-3638
▁לקבוע	-3639
▁תשלום	-3640
▁המילים	-3641
com	-3642
לחת	-3643
▁35	-3644
▁?”	-3645
▁מדהים	-3646
▁התפתחות	-3647
אבל	-3648
וכים	-3649
ניהו	-3650
▁מטרה	-3651
▁משקל	-3652
▁נושאים	-3653
▁הלאומית	-3654
מני	-3655
▁שוכ	-3656
▁לממש	-3657
▁נכתב	-3658
▁פתאום	-3659
▁שיעור	-3660
▁הסביבה	-3661
▁טל	-3662
גיעו	-3663
▁הנע	-3664
▁להתג	-3665
▁טלוויזיה	-3666
ort	-3667
ברט	-3668
ויד	-3669
זין	-3670
מצאו	-3671
וניות	-3672
▁פעיל	-3673
▁קשור	-3674
▁ראשי	-3675
▁האיחוד	-3676
▁האירוע	-3677
▁בּ	-3678
▁ור	-3679
▁במספר	-3680
▁בעניין	-3681
▁מציאות	-3682
ועה	-3683
▁התמ	-3684
▁ניס	-3685
▁תוספ	-3686
▁חופשי	-3687
▁שניהם	-3688
▁שעברה	-3689
ויח	-3690
נאה	-3691
▁עתיד	-3692
▁התחיל	-3693
▁עליכם	-3694
▁באפריל	-3695
▁הידע	-3696
▁כנגד	-3697
▁וידאו	-3698
▁להציע	-3699
▁ליהנות	-3700
▁אוניברסיטת	-3701
▁4.	-3702
▁Th	-3703
▁it	-3704
▁מצט	-3705
ריאות	-3706
שובות	-3707
▁הצלחה	-3708
▁להניח	-3709
▁לייצר	-3710
▁העיקרי	-3711
▁התוצאה	-3712
▁עומדים	-3713
פוט	-3714
▁דח	-3715
▁עז	-3716
לבום	-3717
צחון	-3718
רחים	-3719
▁החז	-3720
▁להד	-3721
▁האפש	-3722
▁מושג	-3723
▁#	-3724
ונש	-3725
קוב	-3726
ופיה	-3727
▁דוד	-3728
▁וול	-3729
▁פות	-3730
▁המוב	-3731
▁לבקש	-3732
▁בפברואר	-3733
▁להן	-3734
▁עורך	-3735
▁לבסוף	-3736
▁שלושת	-3737
גרי	-3738
▁גיד	-3739
▁החת	-3740
▁היס	-3741
▁כרטיס	-3742
▁לפתור	-3743
שן	-3744
קסט	-3745
▁הפא	-3746
▁למס	-3747
▁נבח	-3748
בויות	-3749
וונים	-3750
▁כזאת	-3751
▁מוזיקה	-3752
ביבת	-3753
▁רצה	-3754
▁זמין	-3755
▁להיע	-3756
▁מדוי	-3757
▁המזון	-3758
▁אסטרטג	-3759
▁להוציא	-3760
▁הראש	-3761
▁מתרח	-3762
▁עמוק	-3763
▁הזכות	-3764
נשי	-3765
ריד	-3766
▁27	-3767
▁191	-3768
▁מנג	-3769
▁סנט	-3770
▁2000	-3771
▁מידה	-3772
▁חייהם	-3773
▁מרבית	-3774
▁אמיתית	-3775
▁בתהליך	-3776
פד	-3777
שׁ	-3778
ובב	-3779
בלתי	-3780
▁דרו	-3781
▁מסר	-3782
▁הקונ	-3783
▁כולה	-3784
▁קורא	-3785
▁ההגנה	-3786
▁ובי	-3787
▁הפרט	-3788
▁חוזר	-3789
▁לגיל	-3790
▁Se	-3791
דמות	-3792
וגים	-3793
▁ויר	-3794
▁השפה	-3795
▁קטנות	-3796
ff	-3797
ub	-3798
לן	-3799
דרש	-3800
ננים	-3801
▁מהא	-3802
▁החברות	-3803
▁לדבריו	-3804
▁מחשבות	-3805
ורא	-3806
פעל	-3807
אלית	-3808
▁העבר	-3809
▁מתקד	-3810
▁אלינו	-3811
▁חיפוש	-3812
▁הסיכון	-3813
▁חשובים	-3814
דרים	-3815
▁גזע	-3816
▁הנח	-3817
▁מפח	-3818
▁שלם	-3819
ודיות	-3820
▁חיות	-3821
▁מותר	-3822
ריטניה	-3823
▁במטרה	-3824
▁כשאני	-3825
▁תחרות	-3826
one	-3827
▁טור	-3828
▁שנא	-3829
▁עובר	-3830
▁שחור	-3831
▁מסתכל	-3832
▁המוצרים	-3833
▁עץ	-3834
וויה	-3835
▁העת	-3836
▁זכה	-3837
▁לעצמי	-3838
ice	-3839
ive	-3840
▁סא	-3841
▁צפוי	-3842
▁ארוחת	-3843
▁במחקר	-3844
▁העונה	-3845
▁היסטוריה	-3846
-7	-3847
▁+	-3848
אתם	-3849
חשב	-3850
משי	-3851
דרגה	-3852
▁ליצ	-3853
▁התרג	-3854
▁מושלם	-3855
▁אלימות	-3856
▁יכולתי	-3857
ob	-3858
ומט	-3859
▁בך	-3860
▁גרו	-3861
▁להיפ	-3862
▁בפועל	-3863
▁ישראלים	-3864
▁הטכנולוגיה	-3865
▁דני	-3866
▁מעצ	-3867
▁עיק	-3868
▁פינ	-3869
▁איתך	-3870
▁השתת	-3871
▁זקוק	-3872
▁מקרים	-3873
▁נקודת	-3874
▁־	-3875
ast	-3876
בצע	-3877
▁דג	-3878
▁Pro	-3879
ביעות	-3880
לויות	-3881
▁ואיך	-3882
▁לידי	-3883
▁למכור	-3884
▁לעלות	-3885
▁רעיונות	-3886
וטים	-3887
זציה	-3888
▁ברוב	-3889
▁נישוא	-3890
וקף	-3891
▁אגב	-3892
▁להיל	-3893
▁מותו	-3894
▁מחשב	-3895
▁בעלות	-3896
▁הלקוח	-3897
▁תכונות	-3898
▁זי	-3899
לאות	-3900
שאיר	-3901
▁נתן	-3902
▁אידי	-3903
▁הנית	-3904
▁למצב	-3905
▁סיפר	-3906
▁להוביל	-3907
עדה	-3908
עוד	-3909
▁לפנות	-3910
▁הטלפון	-3911
גרם	-3912
ושות	-3913
▁לדא	-3914
▁עקב	-3915
קיעים	-3916
▁הינה	-3917
▁המוק	-3918
▁מעמד	-3919
▁בניגוד	-3920
▁הלימודים	-3921
נטית	-3922
▁יוע	-3923
▁קיל	-3924
▁שתה	-3925
▁בדרום	-3926
▁הפלסטינית	-3927
ונל	-3928
▁לשת	-3929
▁מחלות	-3930
▁מרכזי	-3931
▁שניים	-3932
▁פעמיים	-3933
▁הגדולות	-3934
ייט	-3935
תיבה	-3936
▁ראוי	-3937
▁הבלתי	-3938
▁המטופ	-3939
▁הנראה	-3940
▁התנועה	-3941
▁תלמידים	-3942
▁u	-3943
▁De	-3944
▁en	-3945
▁מלון	-3946
▁אישור	-3947
▁ייצור	-3948
▁לנשים	-3949
עש	-3950
סיקו	-3951
▁הנק	-3952
▁כיף	-3953
▁פלי	-3954
▁תשת	-3955
וקטור	-3956
▁בעלת	-3957
▁סעיף	-3958
▁צפון	-3959
▁הקודם	-3960
▁מצליח	-3961
▁תנועה	-3962
וסטר	-3963
קציה	-3964
▁הבט	-3965
▁לאט	-3966
▁שאמר	-3967
▁הכלכלי	-3968
▁מקורות	-3969
בדה	-3970
פני	-3971
בנות	-3972
▁גבי	-3973
▁הכרח	-3974
▁ישנה	-3975
ישורים	-3976
רגונים	-3977
▁מרגישה	-3978
טלק	-3979
ננו	-3980
▁אט	-3981
▁מכם	-3982
▁הגרמ	-3983
▁החמי	-3984
▁מתרג	-3985
▁הצוות	-3986
▁לעצמו	-3987
▁עצמכם	-3988
▁במילים	-3989
▁הבחירה	-3990
▁בהשוואה	-3991
▁בינתיים	-3992
כום	-3993
▁באמ	-3994
רופות	-3995
▁השטח	-3996
▁ניסו	-3997
▁להשפיע	-3998
▁וו	-3999
▁חפ	-4000
ידות	-4001
▁והת	-4002
▁שור	-4003
ירותים	-4004
▁הורים	-4005
▁עצמית	-4006
▁פשוטה	-4007
▁המפלגה	-4008
▁פרויקט	-4009
▁שד	-4010
▁משכ	-4011
▁הרשת	-4012
▁ישראלי	-4013
-18	-4014
▁Un	-4015
▁בבח	-4016
▁דיא	-4017
▁לכא	-4018
▁ללי	-4019
נסייה	-4020
▁ברית	-4021
▁ברצי	-4022
▁החלל	-4023
▁כשאתה	-4024
▁רלוונ	-4025
▁בשימוש	-4026
▁ועכשיו	-4027
▁ההזדמנות	-4028
רז	-4029
ill	-4030
ובד	-4031
▁Com	-4032
▁סקר	-4033
▁מסכים	-4034
כרה	-4035
▁ירו	-4036
▁עוס	-4037
▁שבא	-4038
▁שפה	-4039
▁אביו	-4040
▁הפכו	-4041
▁השאר	-4042
▁כשהם	-4043
▁לחלק	-4044
▁מעוד	-4045
▁סימן	-4046
▁הבוקר	-4047
▁Ex	-4048
▁You	-4049
▁קלא	-4050
▁לשתף	-4051
▁מוצא	-4052
▁שחקן	-4053
▁תוכן	-4054
▁המחלה	-4055
▁ראשונה	-4056
ell	-4057
בעות	-4058
▁לתקן	-4059
▁החוצה	-4060
▁לטובת	-4061
תיי	-4062
▁בבתי	-4063
▁המבק	-4064
▁מהיר	-4065
▁האישי	-4066
▁הבנתי	-4067
▁השתמש	-4068
▁השונים	-4069
▁שחקנים	-4070
▁ממך	-4071
▁בכמה	-4072
▁מספק	-4073
▁שיער	-4074
▁ברורה	-4075
▁רפואי	-4076
▁אנגלית	-4077
▁פתרונות	-4078
ue	-4079
אג	-4080
ומם	-4081
חוק	-4082
▁נוה	-4083
▁מחפש	-4084
▁ואילו	-4085
▁החוקרים	-4086
▁המערבית	-4087
▁לפר	-4088
▁פית	-4089
▁קרב	-4090
לימות	-4091
▁במאה	-4092
▁הבדי	-4093
▁מופי	-4094
▁מפתח	-4095
▁עוזר	-4096
▁אירוע	-4097
▁המשות	-4098
▁התקופה	-4099
רצו	-4100
כרות	-4101
▁עברו	-4102
ואן	-4103
רוף	-4104
בדות	-4105
סמים	-4106
▁נורא	-4107
▁בטוחה	-4108
▁הכדור	-4109
▁לשלוח	-4110
▁נתניהו	-4111
▁פלסטינים	-4112
-9	-4113
גוש	-4114
▁is	-4115
▁בקה	-4116
▁נשי	-4117
▁האקד	-4118
▁ממשיך	-4119
▁הכוחות	-4120
▁למדינה	-4121
ועלת	-4122
ופעה	-4123
▁למא	-4124
▁הפרי	-4125
▁התרח	-4126
▁זרים	-4127
▁הנוכח	-4128
▁חם	-4129
▁בעד	-4130
וריאה	-4131
קידים	-4132
▁לעבר	-4133
▁רגשות	-4134
▁תחושה	-4135
▁Google	-4136
▁פועלים	-4137
▁הזדמנויות	-4138
סן	-4139
▁("	-4140
▁שס	-4141
▁ויט	-4142
▁ומו	-4143
▁ומש	-4144
▁מתג	-4145
▁ביטוי	-4146
▁סיכון	-4147
▁שקורה	-4148
סטרו	-4149
▁לני	-4150
▁מהש	-4151
▁סדר	-4152
▁הכלב	-4153
▁הקיץ	-4154
▁כותב	-4155
▁פסיכולוג	-4156
גד	-4157
▁אנד	-4158
▁קבע	-4159
▁לשמש	-4160
▁בהרבה	-4161
▁בעיני	-4162
▁הראשי	-4163
ותי	-4164
▁Wh	-4165
אללה	-4166
כאון	-4167
▁פלא	-4168
▁Wind	-4169
▁דופן	-4170
▁החוץ	-4171
▁רגיל	-4172
▁בצפון	-4173
▁הופיע	-4174
▁לפגוע	-4175
▁החדשות	-4176
-10	-4177
▁Con	-4178
▁באו	-4179
▁הקל	-4180
▁יקר	-4181
▁לשו	-4182
▁מלך	-4183
▁קוס	-4184
▁תפי	-4185
▁2006	-4186
▁חשמל	-4187
▁לשני	-4188
▁פועל	-4189
ומנויות	-4190
▁באנגלית	-4191
יתוף	-4192
▁האר	-4193
▁לקה	-4194
▁מאה	-4195
▁בקשר	-4196
▁ילדי	-4197
▁ספרי	-4198
▁ההיסט	-4199
▁כלבים	-4200
▁מקצועי	-4201
▁אלכוהול	-4202
▁הראשונות	-4203
נב	-4204
ark	-4205
▁וק	-4206
▁ולח	-4207
▁צורה	-4208
▁להרוג	-4209
רם	-4210
מיר	-4211
▁הדלת	-4212
▁הלבן	-4213
▁עבודת	-4214
▁צילום	-4215
▁מתחילה	-4216
דלים	-4217
ופית	-4218
▁לחת	-4219
▁פיר	-4220
▁אחרא	-4221
▁חובה	-4222
▁בצרפת	-4223
▁לאהוב	-4224
▁הבעיות	-4225
▁העיניים	-4226
פתחו	-4227
▁ייצ	-4228
כולנו	-4229
▁הקמת	-4230
▁כחלק	-4231
▁לחוק	-4232
▁שישה	-4233
▁עלולים	-4234
אנו	-4235
ובוס	-4236
▁מפע	-4237
▁שוט	-4238
▁ומתן	-4239
▁חלקים	-4240
▁במקומות	-4241
ows	-4242
▁at	-4243
▁נר	-4244
▁ולב	-4245
▁תמי	-4246
לונות	-4247
▁לשלוט	-4248
ספים	-4249
▁דיי	-4250
▁חתי	-4251
ליכים	-4252
▁ובין	-4253
▁בחירה	-4254
▁תקווה	-4255
▁פוליטית	-4256
גרס	-4257
▁45	-4258
גובה	-4259
▁בלע	-4260
▁נוח	-4261
▁המשך	-4262
▁תחום	-4263
▁אמונה	-4264
▁הסדרה	-4265
▁בטוחים	-4266
▁הרגשתי	-4267
▁להחליט	-4268
ותם	-4269
▁Ar	-4270
▁גז	-4271
▁אנא	-4272
▁אינס	-4273
▁גודל	-4274
▁אמצעי	-4275
▁להצטרף	-4276
▁בינלאומיים	-4277
pe	-4278
קע	-4279
ועד	-4280
▁דלת	-4281
▁סיר	-4282
▁עזה	-4283
▁קלה	-4284
▁המנה	-4285
▁מחזיק	-4286
▁משתנה	-4287
▁גבולות	-4288
▁הוועדה	-4289
▁ארגונים	-4290
זיל	-4291
▁פח	-4292
ואות	-4293
▁ישת	-4294
ובדים	-4295
▁דיבר	-4296
▁הקטן	-4297
▁סופר	-4298
▁תושבי	-4299
▁למת	-4300
▁לנס	-4301
▁הקהל	-4302
▁אוסטר	-4303
▁ואולי	-4304
▁לדעתי	-4305
▁שיפור	-4306
EB	-4307
if	-4308
ידת	-4309
כבות	-4310
▁ומא	-4311
▁להרח	-4312
▁מבית	-4313
▁גן	-4314
▁וְ	-4315
וכיח	-4316
חרים	-4317
▁ביד	-4318
קשורת	-4319
▁התפר	-4320
▁וחצי	-4321
▁מחיי	-4322
▁הפולי	-4323
▁סרטים	-4324
▁להילחם	-4325
▁עבודות	-4326
וּ	-4327
▁de	-4328
מדות	-4329
▁נקי	-4330
▁אדמה	-4331
▁בקול	-4332
▁לאחד	-4333
▁מרכי	-4334
▁מוצרי	-4335
▁מורכב	-4336
▁ההשפעה	-4337
▁החברים	-4338
▁להשקיע	-4339
▁מומחים	-4340
▁70	-4341
לוקת	-4342
▁גלי	-4343
▁חוב	-4344
▁לונ	-4345
▁מחי	-4346
▁הדור	-4347
▁למטה	-4348
▁ביקור	-4349
▁למרבה	-4350
שמה	-4351
ולחן	-4352
ילית	-4353
▁ולע	-4354
▁שרא	-4355
▁המונ	-4356
▁האלבום	-4357
▁השחקנים	-4358
▁בבריטניה	-4359
▁al	-4360
סטין	-4361
▁ברכ	-4362
▁עמוד	-4363
▁להחזיר	-4364
▁מודעים	-4365
▁מיוחדים	-4366
כתה	-4367
מפט	-4368
▁0.	-4369
▁Bl	-4370
לחמת	-4371
פלים	-4372
▁יין	-4373
▁ללב	-4374
▁הגיל	-4375
▁מסכי	-4376
▁אינדי	-4377
▁שיטות	-4378
▁בדיקות	-4379
▁המרכזי	-4380
▁השינוי	-4381
▁חומרים	-4382
▁בלונדון	-4383
חוץ	-4384
יית	-4385
▁פג	-4386
ואים	-4387
טיין	-4388
▁וכו	-4389
▁בדבר	-4390
▁גרוע	-4391
▁הסוכ	-4392
▁ללמד	-4393
▁אופטי	-4394
▁המקור	-4395
▁להכין	-4396
▁הפופול	-4397
▁האוניברסיטה	-4398
pp	-4399
▁תד	-4400
▁גול	-4401
▁הדר	-4402
▁גרעי	-4403
▁הכוכ	-4404
▁טכני	-4405
▁לשבת	-4406
▁הרצון	-4407
▁לחברה	-4408
▁כלכלית	-4409
▁לומדים	-4410
▁נוסעים	-4411
▁טכנולוגיה	-4412
▁Z	-4413
ost	-4414
ברא	-4415
צעת	-4416
▁Pl	-4417
▁אע	-4418
מפרט	-4419
▁בטר	-4420
▁מקי	-4421
▁פירו	-4422
▁שהופ	-4423
▁המספר	-4424
▁סוריה	-4425
▁עלולה	-4426
▁5.	-4427
▁המנ	-4428
▁כרא	-4429
עויות	-4430
▁אדום	-4431
▁במרץ	-4432
▁נוצר	-4433
BA	-4434
▁בגי	-4435
▁רגל	-4436
ודשים	-4437
▁בכוח	-4438
▁בשום	-4439
▁דורש	-4440
▁בסביבה	-4441
מרת	-4442
▁סב	-4443
ועים	-4444
יראן	-4445
▁ההשק	-4446
▁לגור	-4447
▁חוויה	-4448
▁כלשהי	-4449
▁לענות	-4450
▁החיפוש	-4451
▁מתכוון	-4452
▁ממשיכים	-4453
30	-4454
שול	-4455
▁th	-4456
ולין	-4457
למות	-4458
▁Wor	-4459
▁עמד	-4460
▁ובכן	-4461
The	-4462
▁פו	-4463
כסוך	-4464
▁טעות	-4465
▁מועד	-4466
▁במרחק	-4467
▁תגובה	-4468
▁העתיקה	-4469
▁שהייתה	-4470
▁^	-4471
ros	-4472
בדו	-4473
ברג	-4474
סייע	-4475
▁חכם	-4476
▁מפת	-4477
▁אכפת	-4478
▁התכו	-4479
▁דוגמה	-4480
▁נראית	-4481
אז	-4482
נוס	-4483
▁29	-4484
▁Le	-4485
▁וזו	-4486
▁שדה	-4487
▁שכר	-4488
▁החבר	-4489
▁ובכך	-4490
▁חינם	-4491
▁הולדת	-4492
▁לקרות	-4493
▁מבוסס	-4494
▁מנהיג	-4495
▁עובדת	-4496
▁עשיתי	-4497
▁האמנות	-4498
▁Windows	-4499
▁באוניברסיטת	-4500
לקה	-4501
מדת	-4502
▁192	-4503
▁הבן	-4504
▁שאף	-4505
▁תקי	-4506
▁הפסק	-4507
▁הרגע	-4508
▁מעלה	-4509
▁לוודא	-4510
▁לתמוך	-4511
▁משותף	-4512
▁כוס	-4513
▁שיא	-4514
▁שישי	-4515
▁אהבתי	-4516
▁שהייתי	-4517
יון	-4518
טאות	-4519
ירור	-4520
▁ברג	-4521
▁ולת	-4522
▁כלב	-4523
▁יעשה	-4524
▁לקדם	-4525
▁הכנסת	-4526
כנה	-4527
שינו	-4528
▁WEB	-4529
▁טלפון	-4530
▁לדאוג	-4531
▁שנקרא	-4532
סקו	-4533
▁סקס	-4534
▁למלא	-4535
▁עיניים	-4536
▁Q	-4537
ייק	-4538
ספרים	-4539
▁בשטח	-4540
▁וכמה	-4541
▁הודעה	-4542
▁שיווק	-4543
▁בהתחלה	-4544
▁הפרויקט	-4545
▁הקריירה	-4546
▁פעילויות	-4547
▁האמריקאית	-4548
נף	-4549
חייה	-4550
למנט	-4551
מצים	-4552
מרות	-4553
סאות	-4554
▁מזג	-4555
וויות	-4556
מפיין	-4557
▁אלכס	-4558
▁דמות	-4559
▁במשקל	-4560
▁הקודש	-4561
▁מסוכן	-4562
▁שירותים	-4563
▁היב	-4564
▁משם	-4565
▁האיר	-4566
▁הווי	-4567
▁הקומ	-4568
▁מסחר	-4569
▁האמונה	-4570
▁להסתכל	-4571
▁לונדון	-4572
▁לכאורה	-4573
▁עובדות	-4574
▁תגובות	-4575
▁ללקוחות	-4576
בוב	-4577
טרת	-4578
דיהם	-4579
▁נתי	-4580
▁צדק	-4581
שיבות	-4582
▁טווח	-4583
▁משפי	-4584
▁הטרור	-4585
▁מגיעה	-4586
▁המהפכה	-4587
▁להפחית	-4588
▁סיפורים	-4589
וֹ	-4590
▁-2	-4591
▁Be	-4592
▁דף	-4593
▁חיה	-4594
▁נמש	-4595
▁פונ	-4596
סטיבל	-4597
▁אשתו	-4598
▁המוכ	-4599
▁העומ	-4600
▁מכאן	-4601
▁ניסי	-4602
▁הקרוב	-4603
▁כתובת	-4604
▁מאחור	-4605
▁הגבוהה	-4606
פג	-4607
קף	-4608
רע	-4609
▁טה	-4610
▁צור	-4611
▁באשר	-4612
▁הבנה	-4613
▁ישנן	-4614
▁החומר	-4615
▁לקבלת	-4616
▁נראים	-4617
▁הנכונה	-4618
▁לאחרים	-4619
▁להוכיח	-4620
▁העיקרית	-4621
-15	-4622
ביס	-4623
▁Mic	-4624
▁הכח	-4625
▁קופ	-4626
▁אהבת	-4627
▁מבנה	-4628
▁סובל	-4629
▁הערבי	-4630
▁עומדת	-4631
▁חוקרים	-4632
שבו	-4633
שוך	-4634
▁בכו	-4635
▁הלה	-4636
▁ולש	-4637
▁רקע	-4638
▁בשפה	-4639
▁מכיל	-4640
▁מסוכ	-4641
▁עצמא	-4642
▁תוצאה	-4643
▁זיכרון	-4644
▁להחליף	-4645
▁מבוגרים	-4646
אד	-4647
אשר	-4648
בעה	-4649
ערי	-4650
רידה	-4651
▁התנ	-4652
▁שופ	-4653
ורקיה	-4654
▁בפרו	-4655
▁יעיל	-4656
▁לרגע	-4657
▁מודע	-4658
▁מוקד	-4659
▁שקרה	-4660
▁קיבלו	-4661
▁שירים	-4662
▁להעלות	-4663
▁מציעים	-4664
▁קיימות	-4665
▁המוזיקה	-4666
ld	-4667
are	-4668
שיון	-4669
▁נוש	-4670
▁אמון	-4671
▁המומ	-4672
▁הקרב	-4673
▁מאוח	-4674
▁מבקש	-4675
▁נדרש	-4676
▁רחבי	-4677
▁בדיקה	-4678
▁בהכרח	-4679
▁בוחרים	-4680
▁בשבילי	-4681
▁גבוהים	-4682
▁דולרים	-4683
▁המשימה	-4684
ace	-4685
דיק	-4686
▁80	-4687
▁ב־	-4688
דינת	-4689
▁ארי	-4690
▁זהב	-4691
▁רצח	-4692
לטפור	-4693
▁הסוב	-4694
▁סיוע	-4695
▁שומן	-4696
▁עשרים	-4697
▁המקרים	-4698
▁להוריד	-4699
נל	-4700
וצות	-4701
▁מספרים	-4702
▁קוריאה	-4703
▁שיניים	-4704
▁האנושית	-4705
▁המדיניות	-4706
גיב	-4707
זרים	-4708
סיקה	-4709
▁העד	-4710
▁ישר	-4711
▁הנוס	-4712
▁מאמר	-4713
▁מעשה	-4714
▁השינה	-4715
▁הטובות	-4716
▁להשתתף	-4717
פקד	-4718
פרד	-4719
▁אוי	-4720
▁ההע	-4721
▁רבי	-4722
▁שרק	-4723
וגיות	-4724
▁הלאה	-4725
▁כלים	-4726
פורניה	-4727
▁דומים	-4728
▁השראה	-4729
▁חוקים	-4730
▁לחכות	-4731
▁האזרחים	-4732
כרו	-4733
למו	-4734
סמו	-4735
▁500	-4736
▁באה	-4737
▁דמו	-4738
▁שקט	-4739
ביבות	-4740
▁בשתי	-4741
▁האסלא	-4742
▁המקורי	-4743
▁המשחקים	-4744
ack	-4745
בחן	-4746
ויב	-4747
עתו	-4748
▁ויק	-4749
▁נפש	-4750
▁הערך	-4751
▁קשים	-4752
▁כאמור	-4753
▁לזכות	-4754
ילנד	-4755
▁כבד	-4756
▁נפט	-4757
▁באחד	-4758
▁היתר	-4759
▁משלו	-4760
▁אבטחה	-4761
▁אינני	-4762
▁מסביב	-4763
▁הודעות	-4764
▁הספרים	-4765
ain	-4766
זות	-4767
מלית	-4768
▁במת	-4769
▁עני	-4770
▁פתי	-4771
▁המצי	-4772
▁לארץ	-4773
▁מחלה	-4774
▁המבנה	-4775
▁לחקור	-4776
▁במקביל	-4777
▁הצליחו	-4778
▁תעשיית	-4779
▁הקשורים	-4780
רפתי	-4781
▁ובה	-4782
▁חיצ	-4783
▁טיי	-4784
▁עיי	-4785
▁רשות	-4786
▁המבוס	-4787
▁לאומי	-4788
▁המשתמש	-4789
▁כוללים	-4790
▁פרויקטים	-4791
▁or	-4792
▁במט	-4793
▁דוא	-4794
▁כבי	-4795
▁פיצ	-4796
▁2005	-4797
▁אורג	-4798
▁האוט	-4799
▁הבסי	-4800
▁מורה	-4801
▁מעולה	-4802
▁תחילת	-4803
▁תיאור	-4804
▁מכוניות	-4805
▁בינלאומי	-4806
אור	-4807
לאים	-4808
▁התכ	-4809
▁ואל	-4810
▁מתן	-4811
▁החול	-4812
▁יוני	-4813
▁פרנק	-4814
'.	-4815
טיב	-4816
▁Ph	-4817
טחים	-4818
▁ההול	-4819
▁מקרי	-4820
▁שיחק	-4821
▁שניות	-4822
▁איטליה	-4823
▁החדשים	-4824
▁שמישהו	-4825
▁בגרמניה	-4826
▁היתרונות	-4827
יהן	-4828
▁Ad	-4829
ילוב	-4830
▁מתו	-4831
▁אביב	-4832
▁הצעיר	-4833
▁נותנים	-4834
oun	-4835
ענו	-4836
גרות	-4837
▁כיש	-4838
▁לנה	-4839
▁נהג	-4840
▁השות	-4841
▁מצפה	-4842
▁נהדר	-4843
▁שפות	-4844
▁אזרחי	-4845
▁מופיע	-4846
▁מכונית	-4847
▁האוכלוסייה	-4848
וקי	-4849
מנת	-4850
▁בקר	-4851
פונים	-4852
▁הצטר	-4853
▁זהות	-4854
▁טוען	-4855
▁סמים	-4856
▁האסטר	-4857
▁הגבול	-4858
▁המפתח	-4859
▁מינית	-4860
▁בסוריה	-4861
▁הפתרון	-4862
▁להתייחס	-4863
iv	-4864
סטן	-4865
יימס	-4866
▁אחי	-4867
▁בחו	-4868
▁בשמ	-4869
▁הקש	-4870
▁חור	-4871
▁סיום	-4872
▁המנהי	-4873
▁לבחון	-4874
צרי	-4875
דיות	-4876
טרכו	-4877
שרות	-4878
▁אליך	-4879
▁כוללת	-4880
▁לשתות	-4881
▁להשלים	-4882
▁מוצאים	-4883
▁מכירות	-4884
▁משפחתו	-4885
שוט	-4886
בדים	-4887
▁מהע	-4888
▁מרת	-4889
יונים	-4890
▁הפדר	-4891
▁יתכן	-4892
▁הולכת	-4893
▁נהרגו	-4894
▁שילוב	-4895
▁בתקופת	-4896
▁הכלכלה	-4897
▁העיצוב	-4898
▁מסוימות	-4899
פסור	-4900
▁הדו	-4901
▁הפס	-4902
▁יים	-4903
▁רוק	-4904
כולות	-4905
קציות	-4906
▁ההור	-4907
▁ידעו	-4908
▁מוכר	-4909
▁נדמה	-4910
▁איתנו	-4911
▁נוטים	-4912
▁מאפשרת	-4913
ome	-4914
פחת	-4915
▁הַ	-4916
וגמא	-4917
עורר	-4918
▁דלק	-4919
▁יפן	-4920
▁לטע	-4921
▁מזו	-4922
▁המופ	-4923
▁תלמי	-4924
▁בחינם	-4925
▁הבסיס	-4926
▁המסחר	-4927
▁הקרקע	-4928
▁מועצת	-4929
▁תחושת	-4930
סיד	-4931
▁2,	-4932
▁En	-4933
▁רמ	-4934
כבים	-4935
▁תאי	-4936
▁לעיר	-4937
▁מכתב	-4938
▁נותר	-4939
▁האפשר	-4940
▁לטווח	-4941
▁מספקת	-4942
▁הבריטי	-4943
▁הופכים	-4944
▁לקי	-4945
▁קרן	-4946
▁חלקם	-4947
▁יוצר	-4948
▁מצלי	-4949
▁שואל	-4950
▁שפור	-4951
▁לפיכך	-4952
▁ממשלה	-4953
▁אוכלים	-4954
▁אישיות	-4955
▁הכניסה	-4956
ci	-4957
בוי	-4958
ונד	-4959
וצי	-4960
ושה	-4961
כנו	-4962
מצי	-4963
ברהם	-4964
רואי	-4965
▁ושי	-4966
▁בערב	-4967
▁הנפש	-4968
▁ילדה	-4969
▁מצאו	-4970
▁הרכבת	-4971
▁כדורגל	-4972
▁נוכחות	-4973
חש	-4974
פלל	-4975
▁כוא	-4976
▁אתרים	-4977
▁להקים	-4978
▁להחזיק	-4979
▁מודעות	-4980
▁השלישית	-4981
oft	-4982
בסס	-4983
בקש	-4984
▁ער	-4985
ווית	-4986
פנים	-4987
▁באח	-4988
▁דרכ	-4989
▁תאו	-4990
▁באים	-4991
▁מאמץ	-4992
▁יוצאים	-4993
▁לציבור	-4994
▁האחריות	-4995
▁מיליוני	-4996
▁רצו	-4997
▁לשלב	-4998
קטיבית	-4999
▁הגישה	-5000
▁הסיבות	-5001
▁התפקיד	-5002
▁חיובית	-5003
av	-5004
טט	-5005
קון	-5006
▁תן	-5007
▁הלך	-5008
חידים	-5009
▁צעדים	-5010
▁האינטר	-5011
▁הממוצע	-5012
▁המכונית	-5013
ָּ	-5014
ייד	-5015
כוז	-5016
וגיה	-5017
נסיה	-5018
▁החוף	-5019
▁המתק	-5020
▁ואנו	-5021
▁לרדת	-5022
▁איננה	-5023
▁רשימה	-5024
▁שמעתי	-5025
▁השניים	-5026
▁[3	-5027
▁ed	-5028
כרים	-5029
▁אבן	-5030
▁בוא	-5031
▁הוח	-5032
▁הקב	-5033
▁שונ	-5034
▁בקיץ	-5035
▁בקשה	-5036
▁בתים	-5037
▁מגלה	-5038
▁משני	-5039
▁נבחר	-5040
▁קצרה	-5041
▁בעצמו	-5042
▁החליט	-5043
▁השאלות	-5044
▁להצליח	-5045
▁להשאיר	-5046
▁עוברים	-5047
▁העולמית	-5048
▁He	-5049
מיני	-5050
▁מהד	-5051
רועים	-5052
▁ישיר	-5053
▁לכאן	-5054
▁מבני	-5055
▁עצום	-5056
▁רשמי	-5057
▁שבהן	-5058
▁האהוב	-5059
▁הממשל	-5060
▁תחילה	-5061
▁להגדיל	-5062
▁Cl	-5063
▁טעם	-5064
▁איבד	-5065
▁הירח	-5066
▁כאלו	-5067
▁יעזור	-5068
▁מציעה	-5069
▁לוקחים	-5070
▁מדענים	-5071
▁אמריקאי	-5072
▁הטלוויזיה	-5073
▁זע	-5074
ייקט	-5075
רוויח	-5076
▁איתה	-5077
▁המין	-5078
▁מדעי	-5079
▁סכום	-5080
▁אחראי	-5081
▁האדום	-5082
▁המאמר	-5083
▁מתייח	-5084
מוקרטית	-5085
▁בבחירות	-5086
▁האמריקני	-5087
▁מנצ	-5088
▁קיר	-5089
▁רומ	-5090
▁חמאס	-5091
▁לאבד	-5092
▁מטרת	-5093
▁משלה	-5094
▁המלון	-5095
▁קיבלה	-5096
▁בתפקיד	-5097
▁התכנית	-5098
▁כוכבים	-5099
▁לשינוי	-5100
▁להשתנות	-5101
ure	-5102
ונם	-5103
▁le	-5104
גישו	-5105
▁יתק	-5106
▁הודו	-5107
▁במשרד	-5108
▁כלכלי	-5109
▁שנייה	-5110
▁תינוק	-5111
▁גופנית	-5112
▁מוזיאון	-5113
',	-5114
ליג	-5115
אבים	-5116
מונת	-5117
▁מבצע	-5118
▁התורה	-5119
▁ירידה	-5120
▁תאריך	-5121
▁להודות	-5122
דיש	-5123
כירה	-5124
▁ואתם	-5125
▁לוותר	-5126
▁מחשבה	-5127
▁עורכי	-5128
▁בחירות	-5129
פכו	-5130
▁6.	-5131
▁במל	-5132
▁ניסה	-5133
מודדות	-5134
▁ההסכם	-5135
▁מוסדות	-5136
1.	-5137
:00	-5138
▁32	-5139
▁מחו	-5140
▁משע	-5141
▁שער	-5142
נייני	-5143
▁הפינ	-5144
▁חולה	-5145
▁יושב	-5146
▁ירוק	-5147
▁נהיה	-5148
▁ברחוב	-5149
▁הודיע	-5150
▁לנסוע	-5151
▁בינינו	-5152
▁השלטון	-5153
▁התמונות	-5154
▁המוזיאון	-5155
-12	-5156
האם	-5157
▁חב	-5158
▁עג	-5159
מורה	-5160
▁מית	-5161
▁נים	-5162
▁ציין	-5163
▁שבין	-5164
▁דיגיט	-5165
▁לקיים	-5166
▁המועצה	-5167
צרו	-5168
▁הארו	-5169
▁השרי	-5170
▁כתוב	-5171
▁מתכנ	-5172
▁פארק	-5173
▁אובדן	-5174
▁אשראי	-5175
▁המשיך	-5176
▁ברצינות	-5177
רין	-5178
▁ch	-5179
▁גנ	-5180
▁וט	-5181
▁אול	-5182
▁בוט	-5183
▁דרי	-5184
▁התנה	-5185
▁ליבר	-5186
▁המאפשר	-5187
▁התחלתי	-5188
▁להגדיר	-5189
▁הפלסטיני	-5190
io	-5191
ואלי	-5192
קאים	-5193
▁ישן	-5194
▁לסט	-5195
▁מתב	-5196
▁נבד	-5197
▁עוק	-5198
▁שבר	-5199
▁שמן	-5200
▁ביקש	-5201
▁לשנת	-5202
▁נחמד	-5203
▁יוצאת	-5204
▁מצוין	-5205
▁קשרים	-5206
סמה	-5207
רונית	-5208
▁במים	-5209
▁דובר	-5210
▁חלום	-5211
▁במקור	-5212
▁למשחק	-5213
▁מהבית	-5214
▁משחקי	-5215
▁נסיעה	-5216
▁בתגובה	-5217
▁להצביע	-5218
כז	-5219
מצם	-5220
-199	-5221
▁אבו	-5222
▁בכת	-5223
▁והי	-5224
▁והש	-5225
▁מתה	-5226
▁2020	-5227
▁אושר	-5228
▁דעות	-5229
▁הקדוש	-5230
▁חיבור	-5231
▁לסיים	-5232
▁יהודית	-5233
▁הכנסייה	-5234
qu	-5235
ire	-5236
ore	-5237
נאות	-5238
▁התה	-5239
▁נהר	-5240
▁היעד	-5241
▁המות	-5242
▁המיק	-5243
▁מסורת	-5244
ran	-5245
ust	-5246
צעו	-5247
▁")	-5248
▁במצ	-5249
▁גאה	-5250
▁ערו	-5251
▁הכאב	-5252
▁הלידה	-5253
▁חברתי	-5254
▁רשימת	-5255
▁הבעלים	-5256
▁ייחודי	-5257
▁רופאים	-5258
▁מעוניינים	-5259
ביה	-5260
ייה	-5261
ערה	-5262
ריח	-5263
▁דוח	-5264
▁יוז	-5265
▁נלח	-5266
▁דגים	-5267
▁כלכל	-5268
▁מביא	-5269
▁מוזר	-5270
▁עמדה	-5271
▁קשות	-5272
▁מכירה	-5273
▁רוברט	-5274
▁שכולם	-5275
▁אוסטרליה	-5276
▁השינויים	-5277
גיה	-5278
לוי	-5279
נסו	-5280
▁90	-5281
מיין	-5282
▁לואי	-5283
▁נועד	-5284
▁הליכה	-5285
▁להסיר	-5286
▁מוצלח	-5287
▁למישהו	-5288
▁התנגדות	-5289
▁יתרונות	-5290
▁x	-5291
מרה	-5292
מתו	-5293
▁אינך	-5294
▁יגיע	-5295
▁להיש	-5296
▁בגדים	-5297
▁בניית	-5298
▁בהצלחה	-5299
▁·	-5300
והר	-5301
▁סוד	-5302
▁אבות	-5303
▁באור	-5304
▁לנצל	-5305
▁לשאת	-5306
▁מזמן	-5307
▁מחוז	-5308
▁משול	-5309
▁הופכת	-5310
▁הרשות	-5311
▁עלייה	-5312
▁תנאים	-5313
▁להפעיל	-5314
ַי	-5315
-16	-5316
לקט	-5317
▁Am	-5318
וגרפ	-5319
▁הקו	-5320
▁מנכ	-5321
▁מנק	-5322
▁מצח	-5323
▁אופי	-5324
▁החלי	-5325
▁חלקי	-5326
▁לבטל	-5327
▁קראו	-5328
▁גידול	-5329
▁שאולי	-5330
▁בשבילך	-5331
▁הגברים	-5332
▁הייצור	-5333
▁תינוקות	-5334
▁אלקטרוני	-5335
▁העיקריים	-5336
▁=	-5337
ינג	-5338
▁8.	-5339
▁הונ	-5340
▁טען	-5341
▁להט	-5342
▁מהת	-5343
▁ממשל	-5344
▁Inter	-5345
▁אצלנו	-5346
▁במחיר	-5347
▁הצרפת	-5348
▁השיער	-5349
▁לשאלה	-5350
▁לתפוס	-5351
▁השתמשו	-5352
▁יוצרים	-5353
בתא	-5354
נור	-5355
▁):	-5356
ינוי	-5357
מהות	-5358
▁הסמ	-5359
▁הכפר	-5360
▁לחיי	-5361
▁המורה	-5362
▁חיובי	-5363
▁מוכנה	-5364
▁מעלות	-5365
▁השונות	-5366
▁באפשרות	-5367
ry	-5368
up	-5369
-30	-5370
סוך	-5371
▁קב	-5372
גדים	-5373
יינה	-5374
מציה	-5375
ריכל	-5376
▁ליל	-5377
▁מהס	-5378
▁בימי	-5379
▁הרכי	-5380
▁מודה	-5381
▁צבאי	-5382
▁ציוד	-5383
▁באיזה	-5384
▁לפגוש	-5385
▁מהירה	-5386
▁עובדה	-5387
מפטומים	-5388
▁בשירות	-5389
▁התגובה	-5390
▁פרטיות	-5391
201	-5392
פתי	-5393
כנים	-5394
פקוד	-5395
▁190	-5396
▁וית	-5397
▁עזר	-5398
▁הבין	-5399
▁משבר	-5400
▁נעים	-5401
▁פורט	-5402
ובליקה	-5403
▁היקום	-5404
▁עבורי	-5405
▁פילוס	-5406
▁רציני	-5407
▁המלכות	-5408
▁ידידות	-5409
▁מאמינה	-5410
▁סובלים	-5411
9.	-5412
חתם	-5413
שוי	-5414
▁פש	-5415
▁תוק	-5416
▁החדר	-5417
▁מבטי	-5418
▁מסור	-5419
▁הפוסט	-5420
▁לעקוב	-5421
▁לשכוח	-5422
▁בוודאי	-5423
▁ההצלחה	-5424
▁הערבים	-5425
▁מהירות	-5426
ולל	-5427
▁ציל	-5428
▁הסבר	-5429
▁השלב	-5430
▁יכלו	-5431
▁מערב	-5432
▁אימון	-5433
▁סמכות	-5434
▁שיחות	-5435
ist	-5436
לחו	-5437
מוס	-5438
נטה	-5439
▁7.	-5440
▁Sp	-5441
▁הכרי	-5442
וציאלי	-5443
▁המאוח	-5444
▁השתנה	-5445
▁תנועת	-5446
▁בטיחות	-5447
▁גבוהות	-5448
▁הנישוא	-5449
וטנציאלי	-5450
▁מעוניין	-5451
עין	-5452
זיות	-5453
▁גיא	-5454
▁זור	-5455
▁ענה	-5456
▁מחלת	-5457
▁סטוד	-5458
▁המערב	-5459
▁שתהיה	-5460
▁הוראות	-5461
▁התנאים	-5462
▁מבקשים	-5463
▁להרוויח	-5464
▁המשתמשים	-5465
1]	-5466
▁סד	-5467
ביים	-5468
ניקה	-5469
▁שהצ	-5470
▁ששי	-5471
כליים	-5472
▁2003	-5473
▁צודק	-5474
▁האופן	-5475
▁עמוקה	-5476
▁לכיוון	-5477
▁בינלאומית	-5478
ָא	-5479
ענה	-5480
אלון	-5481
אפשר	-5482
וארד	-5483
וציה	-5484
▁בדם	-5485
▁התר	-5486
▁ווי	-5487
▁עיו	-5488
מינות	-5489
שימות	-5490
▁אסיה	-5491
▁הביק	-5492
▁המסע	-5493
▁המסר	-5494
▁וזאת	-5495
▁סדרת	-5496
פיינים	-5497
▁בפנים	-5498
▁הכנסה	-5499
▁חירום	-5500
▁כשהיא	-5501
▁מוביל	-5502
▁החוקים	-5503
▁ועדיין	-5504
▁סימנים	-5505
te	-5506
יגה	-5507
▁48	-5508
▁One	-5509
▁ייק	-5510
▁לעי	-5511
▁כתבה	-5512
▁מודל	-5513
▁המשרד	-5514
▁להגיש	-5515
▁מפלגת	-5516
▁באיכות	-5517
▁יחידות	-5518
▁להעניק	-5519
▁ציבורית	-5520
4]	-5521
דמה	-5522
▁גו	-5523
▁חום	-5524
▁לים	-5525
▁נמס	-5526
▁התחל	-5527
▁מחכה	-5528
▁שיחה	-5529
▁אברהם	-5530
▁היומי	-5531
▁הצרכים	-5532
פח	-5533
ock	-5534
ליות	-5535
▁בים	-5536
▁האפ	-5537
▁מסך	-5538
▁מעי	-5539
▁פיל	-5540
▁פסק	-5541
פעמים	-5542
▁יוסף	-5543
▁כוכב	-5544
▁הערכה	-5545
▁מזכיר	-5546
▁נוחות	-5547
▁שאלתי	-5548
▁חלומות	-5549
▁שואלים	-5550
▁לבריאות	-5551
ite	-5552
כנת	-5553
▁34	-5554
▁שפת	-5555
▁עמית	-5556
▁שיטת	-5557
▁הייתם	-5558
▁מסביר	-5559
▁נקודה	-5560
▁להתגבר	-5561
▁עקרונות	-5562
▁התש	-5563
▁לכו	-5564
▁רוד	-5565
▁2002	-5566
▁הבדל	-5567
▁מתים	-5568
▁יעילה	-5569
▁כראוי	-5570
▁במלחמה	-5571
▁בסגנון	-5572
▁המערבי	-5573
▁האמיתית	-5574
געו	-5575
▁איל	-5576
▁בוג	-5577
▁ביצ	-5578
▁תיע	-5579
וצרים	-5580
נגליה	-5581
▁ישנו	-5582
▁מסיי	-5583
▁קיום	-5584
▁מצליחים	-5585
▁מקומיים	-5586
▁הישראלים	-5587
▁פוטנציאל	-5588
▁לְ	-5589
▁סו	-5590
יתות	-5591
ננות	-5592
▁!!!	-5593
▁בכי	-5594
▁כני	-5595
▁לנת	-5596
▁ממח	-5597
סיבות	-5598
▁הכוו	-5599
▁לילד	-5600
▁נתון	-5601
▁פוסט	-5602
▁אובמה	-5603
▁הקטנה	-5604
▁חזקים	-5605
▁צמיחה	-5606
▁ראיות	-5607
▁החברתית	-5608
▁הנוכחית	-5609
▁מקצועית	-5610
▁פייסבוק	-5611
ant	-5612
יציה	-5613
▁ברק	-5614
▁הידי	-5615
▁הקשה	-5616
▁נפרד	-5617
▁ואולם	-5618
▁לברוח	-5619
ational	-5620
▁להצלחה	-5621
▁פרטיים	-5622
▁הסטודנטים	-5623
li	-5624
חין	-5625
▁קת	-5626
לווה	-5627
נציה	-5628
▁אוק	-5629
▁חיס	-5630
▁נפת	-5631
▁קהל	-5632
▁הזהב	-5633
▁לעצמך	-5634
▁מייקל	-5635
▁רשמית	-5636
▁תושבים	-5637
▁התעשייה	-5638
חתה	-5639
▁קמ	-5640
ביעת	-5641
גלים	-5642
דובר	-5643
▁באת	-5644
▁לרצ	-5645
▁בפרס	-5646
▁האחר	-5647
▁למשת	-5648
▁לסרט	-5649
▁נוער	-5650
▁ערבי	-5651
▁שרוב	-5652
▁הכללי	-5653
▁למספר	-5654
▁מוזיק	-5655
▁דוגמאות	-5656
צרה	-5657
▁Is	-5658
בורג	-5659
▁נסו	-5660
▁עין	-5661
▁ההתק	-5662
▁לזמן	-5663
▁נפתח	-5664
▁משפיע	-5665
▁פירות	-5666
▁Micros	-5667
▁בריאים	-5668
▁הדרכים	-5669
▁הפרטים	-5670
▁התמיכה	-5671
▁להתאים	-5672
▁השיניים	-5673
ביו	-5674
טגי	-5675
פלי	-5676
▁השח	-5677
▁ויצ	-5678
דרגות	-5679
▁ועדת	-5680
▁תעשה	-5681
▁המשבר	-5682
▁זמנית	-5683
▁לגדול	-5684
▁מעורב	-5685
▁קונים	-5686
▁תוכנה	-5687
▁בתחילה	-5688
▁מבקרים	-5689
▁מוסיקה	-5690
▁היסטורי	-5691
▁הציבורי	-5692
▁התקדמות	-5693
▁We	-5694
▁אֶ	-5695
▁באר	-5696
▁טופ	-5697
▁נעי	-5698
▁קני	-5699
▁פרופ	-5700
▁בהקשר	-5701
▁האחים	-5702
▁האימפ	-5703
▁הכבוד	-5704
▁המעבר	-5705
▁השחקן	-5706
▁ישירה	-5707
▁לחוות	-5708
▁ארגוני	-5709
▁שותפים	-5710
▁הצעירים	-5711
▁להיראות	-5712
ציג	-5713
▁וּ	-5714
ונאי	-5715
פחות	-5716
▁למט	-5717
▁שיח	-5718
▁אוסף	-5719
▁הפרק	-5720
▁יצאו	-5721
▁שוחר	-5722
▁במובן	-5723
▁לאחור	-5724
▁שנראה	-5725
▁דוקטור	-5726
▁הקרובה	-5727
▁להתמקד	-5728
▁שבועיים	-5729
נמי	-5730
ננת	-5731
▁Te	-5732
▁ובו	-5733
▁נוע	-5734
▁פתח	-5735
▁אהיה	-5736
▁דיון	-5737
▁לרוץ	-5738
▁קווי	-5739
▁מטרים	-5740
▁מעדיף	-5741
▁סליחה	-5742
▁לדמיין	-5743
▁מוגבלת	-5744
▁Microsoft	-5745
גריה	-5746
▁ריצ	-5747
ביעית	-5748
▁מעשי	-5749
▁עברה	-5750
▁שבעה	-5751
▁השקעה	-5752
▁ערכים	-5753
▁פגיעה	-5754
▁דרישות	-5755
▁ממשיכה	-5756
▁משפחתי	-5757
▁עכ	-5758
▁אטר	-5759
▁חלל	-5760
▁חייל	-5761
▁נמשך	-5762
▁בעבוד	-5763
▁הכרחי	-5764
▁חיוני	-5765
▁מומחה	-5766
▁ממוקם	-5767
▁המקומית	-5768
▁האירועים	-5769
ִים	-5770
▁יך	-5771
▁שז	-5772
ובדה	-5773
▁מגע	-5774
▁עות	-5775
▁איום	-5776
▁נגמר	-5777
▁עמדת	-5778
▁ערים	-5779
▁הערים	-5780
▁רגילים	-5781
ונך	-5782
פוח	-5783
▁טקס	-5784
ועלים	-5785
▁2004	-5786
▁לתאר	-5787
▁מצבי	-5788
▁נבנה	-5789
▁נייר	-5790
▁אלבום	-5791
▁בדיקת	-5792
▁בשעות	-5793
▁החודש	-5794
▁התחיי	-5795
▁ידיים	-5796
▁הקודמת	-5797
▁הרביעי	-5798
▁מאמרים	-5799
▁מנהלים	-5800
▁הגורמים	-5801
זת	-5802
בחר	-5803
נצל	-5804
תיו	-5805
זונה	-5806
▁חסי	-5807
▁הנדר	-5808
▁מורי	-5809
▁הכולל	-5810
▁מצאתי	-5811
▁קראתי	-5812
▁ארוכות	-5813
▁להעריך	-5814
▁החשובים	-5815
גרש	-5816
וקס	-5817
▁33	-5818
▁אכז	-5819
▁לאף	-5820
▁לוב	-5821
▁בשדה	-5822
▁לגוף	-5823
▁לתוכ	-5824
▁האלקט	-5825
▁נתוני	-5826
▁טוענים	-5827
▁לפיתוח	-5828
▁מספקים	-5829
▁משותפת	-5830
▁אוטומטי	-5831
▁המחירים	-5832
▁הרגליים	-5833
ֵי	-5834
נחה	-5835
▁אוג	-5836
▁גמי	-5837
▁ההר	-5838
▁זול	-5839
▁ממצ	-5840
▁עזב	-5841
▁תשל	-5842
▁הודי	-5843
▁הלחץ	-5844
▁הנשק	-5845
▁הקפי	-5846
▁עלות	-5847
▁שמאל	-5848
▁הידוע	-5849
▁תכנון	-5850
▁הביטוח	-5851
▁הביטוי	-5852
▁הזמנים	-5853
▁הכיבוש	-5854
▁ציבורי	-5855
▁שעדיין	-5856
ברך	-5857
חיש	-5858
נתן	-5859
חיות	-5860
▁אורח	-5861
▁גוגל	-5862
▁יעקב	-5863
▁מציג	-5864
▁עשיר	-5865
▁הפרטי	-5866
▁חשיבה	-5867
▁לשרוד	-5868
▁הספורט	-5869
▁למטרות	-5870
▁מתייחס	-5871
ith	-5872
סמת	-5873
▁sh	-5874
▁Man	-5875
▁נרצ	-5876
▁שהע	-5877
טיסטי	-5878
▁אורך	-5879
▁הנפט	-5880
▁הצבע	-5881
▁עסקי	-5882
▁מצפים	-5883
▁שמחים	-5884
▁להופיע	-5885
▁עבודתו	-5886
▁באזורים	-5887
▁להתקיים	-5888
▁משקיעים	-5889
-17	-5890
-50	-5891
טין	-5892
▁38	-5893
▁Me	-5894
▁צפ	-5895
ישון	-5896
סקנה	-5897
▁300	-5898
▁למג	-5899
▁פוט	-5900
▁שקר	-5901
דירות	-5902
▁השטן	-5903
▁השעה	-5904
▁נקבע	-5905
▁תערו	-5906
ולוגית	-5907
▁לשחרר	-5908
▁נמצאו	-5909
▁קהילה	-5910
▁קריאה	-5911
▁העסקים	-5912
▁חופשית	-5913
▁ליצירת	-5914
לכה	-5915
פואה	-5916
▁משמ	-5917
ודאות	-5918
רכנים	-5919
▁בעית	-5920
▁בעלה	-5921
▁גילו	-5922
▁הפחד	-5923
▁טיסה	-5924
▁לשרת	-5925
▁מסוב	-5926
▁שנוע	-5927
▁המקרה	-5928
▁מוגבל	-5929
▁סטנדר	-5930
באנגלית	-5931
▁בדרכים	-5932
▁המסורת	-5933
▁מסמכים	-5934
▁באמריקה	-5935
▁הכוכבים	-5936
▁הרשויות	-5937
co	-5938
ud	-5939
ארי	-5940
כמה	-5941
▁31	-5942
רגיל	-5943
▁חוס	-5944
▁ללח	-5945
▁שחי	-5946
▁שלח	-5947
▁הערה	-5948
▁פסיכ	-5949
▁קובע	-5950
▁התוכן	-5951
▁התייח	-5952
▁וכיצד	-5953
▁לעתיד	-5954
▁לשכנע	-5955
▁מניות	-5956
▁מתרחש	-5957
▁לעצמכם	-5958
ולט	-5959
ונן	-5960
▁חט	-5961
ועדת	-5962
רבעה	-5963
▁במכ	-5964
▁בנה	-5965
▁האס	-5966
▁שכי	-5967
ומנים	-5968
▁גבול	-5969
▁יומי	-5970
▁לחדר	-5971
▁לשנה	-5972
▁קנדה	-5973
▁רחבה	-5974
▁ation	-5975
▁אדוני	-5976
▁הצבאי	-5977
▁חיינו	-5978
▁ייעוץ	-5979
▁להגיב	-5980
▁תמורת	-5981
▁הבניין	-5982
▁זוכרים	-5983
▁מסוגלת	-5984
▁הפוליטית	-5985
לטת	-5986
רגן	-5987
דירה	-5988
יינת	-5989
▁הצפ	-5990
▁עמי	-5991
▁אליי	-5992
▁המיי	-5993
▁הסוף	-5994
▁יופי	-5995
▁צורת	-5996
▁שותף	-5997
▁בחירת	-5998
▁הארוך	-5999
▁יתרון	-6000
▁צעירה	-6001
▁במצרים	-6002
▁לדוגמא	-6003
▁להזמין	-6004
▁קרובים	-6005
▁לאלוהים	-6006
▁בטלוויזיה	-6007
בון	-6008
וגי	-6009
ניע	-6010
▁אשה	-6011
▁בוצ	-6012
▁במד	-6013
יינוס	-6014
▁בכתב	-6015
▁הישן	-6016
▁תגית	-6017
▁חוזרת	-6018
▁לאסוף	-6019
▁לתרום	-6020
▁ערבים	-6021
▁תלמיד	-6022
▁אינטרא	-6023
▁קיצוני	-6024
זן	-6025
יאם	-6026
נין	-6027
▁מלי	-6028
ומנות	-6029
מורים	-6030
▁יבוא	-6031
▁הודות	-6032
▁מרוצה	-6033
▁בתחומי	-6034
▁מבוססת	-6035
▁מתאימה	-6036
▁הזיכרון	-6037
ph	-6038
הו	-6039
נע	-6040
ber	-6041
▁On	-6042
▁המז	-6043
▁זרי	-6044
▁ברמת	-6045
▁הפרס	-6046
▁כאחד	-6047
▁למחרת	-6048
▁למידה	-6049
▁מעטים	-6050
▁פיזית	-6051
▁צורות	-6052
▁השקעות	-6053
▁במציאות	-6054
▁פרופסור	-6055
▁המודרנית	-6056
▁טכנולוגיות	-6057
והה	-6058
▁רד	-6059
סוקה	-6060
▁בתא	-6061
▁חטי	-6062
▁נמל	-6063
▁דירה	-6064
▁מפות	-6065
▁רובם	-6066
▁רחוב	-6067
▁שגור	-6068
▁החורף	-6069
▁לשלום	-6070
▁מסיבה	-6071
▁משימה	-6072
▁צבעים	-6073
▁המחשבה	-6074
▁חוזרים	-6075
▁טעויות	-6076
▁להכניס	-6077
▁החיילים	-6078
מלא	-6079
מתין	-6080
▁אתן	-6081
▁הביא	-6082
▁המזל	-6083
▁מנות	-6084
▁אחריו	-6085
▁המאבק	-6086
▁המקדש	-6087
▁העברת	-6088
▁כעבור	-6089
▁מבינה	-6090
▁שיותר	-6091
▁התחרות	-6092
▁המקומות	-6093
▁המשתתפים	-6094
לף	-6095
חזר	-6096
טלר	-6097
▁סן	-6098
▁תו	-6099
בוצת	-6100
▁אפל	-6101
▁טון	-6102
▁כשי	-6103
▁בכלא	-6104
▁הקפה	-6105
▁והנה	-6106
▁מאוב	-6107
▁עשתה	-6108
▁שומע	-6109
▁שייך	-6110
▁בצורת	-6111
▁הרשמי	-6112
▁למדתי	-6113
▁פורסם	-6114
▁ארוכים	-6115
▁הכללית	-6116
▁המכשיר	-6117
▁להתקדם	-6118
▁מחשבים	-6119
▁קיבלתי	-6120
3)	-6121
ox	-6122
קח	-6123
סיי	-6124
ריב	-6125
▁נל	-6126
▁תם	-6127
לטות	-6128
▁קיץ	-6129
שמיות	-6130
▁איני	-6131
▁ארכי	-6132
▁יפים	-6133
▁להקל	-6134
▁לקוח	-6135
▁מבחן	-6136
▁עונש	-6137
▁אמורה	-6138
▁בריאה	-6139
▁המראה	-6140
▁השיטה	-6141
▁ואחרי	-6142
▁לבלות	-6143
▁מפתיע	-6144
▁עובדי	-6145
▁רשתות	-6146
▁המטופל	-6147
▁הפנימי	-6148
▁הצליחה	-6149
▁חנויות	-6150
▁קריירה	-6151
▁המרכזית	-6152
▁מסכימים	-6153
▁מעורבים	-6154
זוק	-6155
גידו	-6156
גיון	-6157
▁ריי	-6158
▁דיוק	-6159
▁חסרי	-6160
▁לשיר	-6161
▁תחנת	-6162
▁ברשות	-6163
▁האנטי	-6164
▁הדיון	-6165
▁המשטר	-6166
▁הצעות	-6167
▁כניסה	-6168
▁מחזור	-6169
▁אנגליה	-6170
▁להרחיב	-6171
▁מוכרים	-6172
▁ממליצים	-6173
▁הטכנולוג	-6174
▁מיומנויות	-6175
ביד	-6176
▁es	-6177
וויי	-6178
לונה	-6179
▁באש	-6180
▁דיס	-6181
▁הגז	-6182
▁שמר	-6183
▁אתרי	-6184
▁הורה	-6185
▁המנו	-6186
▁הראו	-6187
▁יולי	-6188
▁מאבק	-6189
▁שהתק	-6190
▁תפקי	-6191
▁המטוס	-6192
▁יהודה	-6193
▁למוות	-6194
▁מעניי	-6195
▁עצמאי	-6196
▁בשיתוף	-6197
▁הקטנים	-6198
▁התחילו	-6199
▁אמריקאים	-6200
▁הפוטנציאל	-6201
כש	-6202
גנה	-6203
▁37	-6204
ress	-6205
▁לחג	-6206
פריקה	-6207
▁(200	-6208
▁הונג	-6209
▁הסדר	-6210
▁סוכר	-6211
▁בדומה	-6212
▁במאמר	-6213
▁בעיית	-6214
▁זוכרת	-6215
▁שנמצא	-6216
▁הקומוני	-6217
ers	-6218
▁בתפ	-6219
▁נוג	-6220
▁סחר	-6221
▁קיצ	-6222
▁קצב	-6223
▁המסך	-6224
▁הצער	-6225
▁חסרת	-6226
▁ימין	-6227
▁לקרי	-6228
▁מטעם	-6229
▁מתנד	-6230
▁עשית	-6231
▁שולח	-6232
▁בטווח	-6233
▁השואה	-6234
▁ידועה	-6235
▁למשוך	-6236
▁מבטיח	-6237
▁שאינה	-6238
▁במדינת	-6239
▁החוויה	-6240
▁הנקודה	-6241
▁הסינית	-6242
▁טורקיה	-6243
▁הרופאים	-6244
▁התושבים	-6245
ove	-6246
גול	-6247
▁טא	-6248
▁סח	-6249
▁שׁ	-6250
▁אסי	-6251
▁היפ	-6252
▁הנכ	-6253
▁טרו	-6254
▁יוש	-6255
▁תוא	-6256
▁המבט	-6257
▁הסכי	-6258
▁העדי	-6259
▁וויל	-6260
▁טיול	-6261
▁לדרך	-6262
▁נפטר	-6263
▁החלום	-6264
▁פועלת	-6265
▁פתוחה	-6266
▁ראינו	-6267
▁להקשיב	-6268
▁עולמית	-6269
▁חשבונות	-6270
▁בפייסבוק	-6271
מותה	-6272
מנית	-6273
משלה	-6274
▁New	-6275
▁אזה	-6276
▁ויי	-6277
▁ידו	-6278
▁משך	-6279
▁שגי	-6280
זיאון	-6281
▁הוגן	-6282
▁הייח	-6283
▁ולמה	-6284
▁מובן	-6285
▁מעין	-6286
▁ספרד	-6287
▁קונס	-6288
▁האינט	-6289
▁החשמל	-6290
▁למידע	-6291
▁ממוצע	-6292
▁אפשרית	-6293
▁בממוצע	-6294
▁פעילים	-6295
▁חברתיים	-6296
▁כשאנחנו	-6297
▁z	-6298
וער	-6299
ספו	-6300
בינו	-6301
גורר	-6302
▁בצע	-6303
▁הקר	-6304
▁חבל	-6305
▁אתגר	-6306
▁חוזה	-6307
▁לכמה	-6308
▁מתנג	-6309
▁סדרה	-6310
כוניות	-6311
▁אנושי	-6312
▁דניאל	-6313
▁הוקמה	-6314
▁המוני	-6315
▁כספים	-6316
▁תקציב	-6317
▁אישיים	-6318
▁המקומי	-6319
▁הערבית	-6320
▁זמינים	-6321
▁בתוכנית	-6322
ond	-6323
▁ענ	-6324
▁פצ	-6325
בונן	-6326
ולית	-6327
יעין	-6328
לחתי	-6329
▁בוו	-6330
▁דרמ	-6331
▁הרס	-6332
▁טרם	-6333
כנסות	-6334
קדמות	-6335
▁בקרי	-6336
▁כחול	-6337
▁ליותר	-6338
▁התרופה	-6339
▁יעילות	-6340
▁הכלכלית	-6341
▁המקורית	-6342
▁השירותים	-6343
▁פוליטיים	-6344
לע	-6345
בנו	-6346
▁סר	-6347
▁בבת	-6348
▁חמצ	-6349
▁מהפ	-6350
▁עצם	-6351
▁בבני	-6352
▁בכיר	-6353
▁האוק	-6354
▁זמני	-6355
▁לארה	-6356
▁מתאר	-6357
▁פניו	-6358
▁השיחה	-6359
יכרונות	-6360
▁בסביבות	-6361
▁האמריקאים	-6362
pt	-6363
ies	-6364
בוא	-6365
שמים	-6366
▁ביר	-6367
▁הנד	-6368
▁ומד	-6369
▁מיה	-6370
▁סיל	-6371
▁רדי	-6372
וריים	-6373
יליות	-6374
▁(201	-6375
▁ברזל	-6376
▁הכלל	-6377
▁הרוב	-6378
▁נעלם	-6379
▁במערב	-6380
▁מאתנו	-6381
▁מחירי	-6382
▁מיקום	-6383
▁אלוקים	-6384
▁בהדרגה	-6385
▁בהריון	-6386
▁הידיים	-6387
▁הסרטים	-6388
▁הרשימה	-6389
▁השולחן	-6390
▁ויטמין	-6391
▁האישיים	-6392
▁דמוקרטיה	-6393
▁j	-6394
-11	-6395
משל	-6396
▁?!	-6397
▁ar	-6398
▁אן	-6399
▁אוס	-6400
▁אשת	-6401
▁ביה	-6402
▁ההפ	-6403
▁הפה	-6404
▁חגי	-6405
▁מפי	-6406
▁בחרו	-6407
▁בנים	-6408
▁המדי	-6409
▁הצעת	-6410
▁לארו	-6411
▁רכוש	-6412
▁הכביש	-6413
▁השפעת	-6414
▁זיהום	-6415
▁לנקוט	-6416
▁פנימה	-6417
▁צבאית	-6418
▁תיקון	-6419
▁מלאכות	-6420
▁קשורים	-6421
▁תשובות	-6422
▁הקרובים	-6423
▁פופולרי	-6424
▁שאלוהים	-6425
+]	-6426
rom	-6427
וזן	-6428
שנים	-6429
▁שרה	-6430
▁גילה	-6431
▁האות	-6432
▁להלן	-6433
▁לעיל	-6434
▁בנייה	-6435
▁המשיח	-6436
▁לעורר	-6437
▁לשקול	-6438
▁מימון	-6439
▁צריכת	-6440
▁שחרור	-6441
▁יומיים	-6442
▁צריכות	-6443
BC	-6444
ֶר	-6445
ory	-6446
פרץ	-6447
▁[+]	-6448
▁ion	-6449
▁גיר	-6450
▁צמח	-6451
▁שוח	-6452
▁חנות	-6453
▁ציון	-6454
▁האויב	-6455
▁לחשוף	-6456
▁לכלול	-6457
▁מילות	-6458
▁מכשיר	-6459
▁שולחן	-6460
▁באוויר	-6461
▁החלטתי	-6462
▁הנסיעה	-6463
▁פלטפור	-6464
▁תופעות	-6465
▁הזכויות	-6466
▁החיצוני	-6467
▁מאושרים	-6468
▁מטופלים	-6469
לוס	-6470
▁As	-6471
וצמה	-6472
זינו	-6473
▁ביס	-6474
▁הון	-6475
▁יוח	-6476
▁מקד	-6477
▁קטל	-6478
מיוחד	-6479
▁אחיו	-6480
▁האחד	-6481
▁מטוס	-6482
▁מניח	-6483
▁סקוט	-6484
▁בגודל	-6485
▁הכלים	-6486
▁לאזור	-6487
▁לבנים	-6488
▁תזונה	-6489
▁תרגום	-6490
▁הגיוני	-6491
▁המכונה	-6492
▁לשירות	-6493
▁המספרים	-6494
-14	-6495
ארד	-6496
חתת	-6497
▁:)	-6498
ment	-6499
▁וכמ	-6500
▁מסק	-6501
▁עדן	-6502
▁פרא	-6503
▁חמור	-6504
▁מלכת	-6505
▁ברירה	-6506
▁לחסוך	-6507
▁לעצמם	-6508
▁מיקרו	-6509
▁שיהיו	-6510
▁אמורים	-6511
▁יצירות	-6512
▁הגרמנים	-6513
NA	-6514
זא	-6515
איך	-6516
פשט	-6517
▁דל	-6518
ודיה	-6519
מוני	-6520
▁Mar	-6521
▁קרח	-6522
▁שנק	-6523
▁שקל	-6524
נסיות	-6525
צבעות	-6526
רגיות	-6527
▁בשקט	-6528
▁העצמ	-6529
▁חרדה	-6530
▁מעמי	-6531
▁אלפים	-6532
▁הריון	-6533
▁כשאתם	-6534
▁עריכה	-6535
▁אוגוסט	-6536
▁בפיתוח	-6537
▁השפעות	-6538
▁להתחבר	-6539
▁להתעלם	-6540
▁משאבים	-6541
▁עלויות	-6542
▁הניסיון	-6543
7]	-6544
oy	-6545
ass	-6546
ide	-6547
iver	-6548
לונן	-6549
▁Off	-6550
וסיית	-6551
▁בחור	-6552
▁ביפן	-6553
▁בקצב	-6554
▁הממל	-6555
▁העין	-6556
▁לידה	-6557
▁בחורה	-6558
▁מקומי	-6559
▁תוספת	-6560
▁וכמובן	-6561
▁שומרים	-6562
▁המבקרים	-6563
▁המודרני	-6564
▁קליפורניה	-6565
iz	-6566
מוח	-6567
מוי	-6568
דושה	-6569
טרון	-6570
▁ולי	-6571
▁ורו	-6572
▁פנט	-6573
חקרים	-6574
▁מתמק	-6575
▁עידן	-6576
▁שאלו	-6577
▁שיטה	-6578
▁בקבוק	-6579
▁המתאי	-6580
▁לרבות	-6581
▁לרשות	-6582
▁מסלול	-6583
▁סוכרת	-6584
▁מורכבת	-6585
▁תחבורה	-6586
ארק	-6587
ביט	-6588
רטה	-6589
שתת	-6590
ניעת	-6591
תיבת	-6592
▁150	-6593
▁איכ	-6594
▁הוז	-6595
▁מטי	-6596
▁רמה	-6597
▁רעב	-6598
▁הלוח	-6599
▁נדיר	-6600
▁הבורא	-6601
▁המיוח	-6602
▁ילדות	-6603
▁ללבוש	-6604
▁מראים	-6605
▁הודיעה	-6606
▁המטרות	-6607
▁הצמיחה	-6608
▁מנקודת	-6609
▁הפרטיות	-6610
▁התרופות	-6611
▁מנהיגים	-6612
pl	-6613
וים	-6614
טוף	-6615
לתה	-6616
▁II	-6617
▁US	-6618
▁קפ	-6619
גשים	-6620
פלומ	-6621
▁הבת	-6622
▁ממל	-6623
▁קחו	-6624
▁יוון	-6625
▁מגדל	-6626
▁ציור	-6627
▁רומא	-6628
▁תאים	-6629
▁הנשמה	-6630
▁מיידי	-6631
▁עולמי	-6632
▁רביעי	-6633
▁תועלת	-6634
▁בקיצור	-6635
▁הפליטים	-6636
▁השתתפות	-6637
ere	-6638
דעי	-6639
▁ון	-6640
זמים	-6641
▁המר	-6642
▁הפק	-6643
▁כרו	-6644
▁בגין	-6645
▁הצעד	-6646
▁חוות	-6647
▁יסוד	-6648
▁ניכר	-6649
▁שעומ	-6650
▁המנהל	-6651
▁אזורים	-6652
▁בטלפון	-6653
▁הפיתוח	-6654
▁למערכת	-6655
▁נורמלי	-6656
▁המכירות	-6657
▁הקבוצות	-6658
5]	-6659
ממה	-6660
תיב	-6661
בילה	-6662
▁ערי	-6663
▁תשע	-6664
▁דואר	-6665
▁הנרי	-6666
▁נעצר	-6667
▁שגרי	-6668
▁אבנים	-6669
▁בניין	-6670
▁מדברת	-6671
▁רכישת	-6672
▁להבחין	-6673
▁קולנוע	-6674
▁מכשירים	-6675
▁מנהיגות	-6676
6]	-6677
ְר	-6678
כיל	-6679
▁My	-6680
▁ic	-6681
פרסם	-6682
▁Air	-6683
▁בהס	-6684
▁כמי	-6685
▁נטי	-6686
▁קוק	-6687
ציבות	-6688
▁ובני	-6689
▁וושי	-6690
▁יהוה	-6691
▁לאלה	-6692
▁לחבר	-6693
▁מערי	-6694
▁נרחב	-6695
▁איזון	-6696
▁לסבול	-6697
▁עליהן	-6698
▁קידום	-6699
▁שהגיע	-6700
▁שמירה	-6701
▁בטיפול	-6702
▁במלחמת	-6703
▁ברוסיה	-6704
▁הוצאות	-6705
▁הכוללת	-6706
▁הפילוס	-6707
▁הפרסום	-6708
▁למלחמה	-6709
▁לעצמנו	-6710
▁לתקופה	-6711
▁משימות	-6712
▁שיעורי	-6713
▁האלוהים	-6714
▁הצהריים	-6715
▁הקונגרס	-6716
▁חברתיות	-6717
▁מעורבות	-6718
▁הדמוקרטיה	-6719
500	-6720
▁ne	-6721
וצרת	-6722
מורת	-6723
▁החר	-6724
▁ניי	-6725
▁יקבל	-6726
▁ספרו	-6727
▁השחור	-6728
▁לסמוך	-6729
▁סגנון	-6730
▁צמחים	-6731
▁ראייה	-6732
▁בקבוצה	-6733
▁חוויות	-6734
▁לאומית	-6735
▁לתפקיד	-6736
▁מטוסים	-6737
▁אמיתיים	-6738
▁בפעילות	-6739
▁המועצות	-6740
▁כרטיסים	-6741
▁הרפובליקה	-6742
az	-6743
ood	-6744
נרל	-6745
פסת	-6746
▁וז	-6747
נטון	-6748
▁ההד	-6749
▁יחס	-6750
▁ריח	-6751
▁בחלל	-6752
▁המיל	-6753
▁לדון	-6754
▁החופש	-6755
▁המלכה	-6756
▁הרווח	-6757
▁לפרסם	-6758
▁מצבים	-6759
▁פרחים	-6760
▁שתמיד	-6761
▁בסיפור	-6762
▁לשיפור	-6763
▁האנגלית	-6764
▁האסטרטג	-6765
▁הביניים	-6766
▁ליהודים	-6767
▁מוסלמים	-6768
▁וושינגטון	-6769
שט	-6770
מעו	-6771
נתו	-6772
ספס	-6773
▁טק	-6774
▁יט	-6775
▁קס	-6776
ווין	-6777
▁ממע	-6778
טיבית	-6779
יימות	-6780
▁הדעת	-6781
▁השופ	-6782
▁התיא	-6783
▁זוכה	-6784
▁למעט	-6785
▁פיטר	-6786
▁קורס	-6787
▁שונא	-6788
▁שחלק	-6789
▁בעצמך	-6790
▁הולנד	-6791
▁העסקה	-6792
▁טיסות	-6793
▁מקבלת	-6794
▁מתמוד	-6795
▁נהדרת	-6796
▁שהופך	-6797
▁הרוסית	-6798
▁ניצחון	-6799
▁צפויים	-6800
▁תלמידי	-6801
▁הבריטית	-6802
▁לזכויות	-6803
de	-6804
-13	-6805
▁99	-6806
▁דוב	-6807
▁חוט	-6808
▁לנג	-6809
▁מכה	-6810
▁מלה	-6811
▁פוס	-6812
▁שנפ	-6813
וחרים	-6814
ופעות	-6815
כויים	-6816
▁אומץ	-6817
▁כימי	-6818
▁מחול	-6819
▁בפריז	-6820
▁דיווי	-6821
▁חובות	-6822
▁טיפים	-6823
▁לסגור	-6824
▁פירוש	-6825
▁פרנסי	-6826
▁צפויה	-6827
▁קולות	-6828
▁שלאחר	-6829
▁תצטרך	-6830
▁בבירור	-6831
▁במשפחה	-6832
▁ההריון	-6833
▁שיכולים	-6834
▁המוסלמים	-6835
-]	-6836
לאת	-6837
▁חן	-6838
חילה	-6839
שווי	-6840
▁העל	-6841
ולדות	-6842
▁דרכו	-6843
▁זכור	-6844
▁מרגש	-6845
▁פריז	-6846
▁קרקע	-6847
▁רכבת	-6848
▁העצמי	-6849
▁להרוס	-6850
▁לעודד	-6851
▁לערוך	-6852
▁מורים	-6853
▁נשימה	-6854
▁שתיים	-6855
▁בסיכון	-6856
▁הבנייה	-6857
▁הניתוח	-6858
▁חשובות	-6859
▁מובילה	-6860
▁מושלמת	-6861
▁לתלמידים	-6862
1,	-6863
ָר	-6864
וכח	-6865
מתם	-6866
▁[[	-6867
▁הות	-6868
▁נלק	-6869
▁סגן	-6870
חלטות	-6871
▁בפרט	-6872
▁הוספ	-6873
▁היות	-6874
▁הנור	-6875
▁הצלב	-6876
▁ולהת	-6877
▁חזון	-6878
▁יציר	-6879
▁מונה	-6880
▁סיטי	-6881
▁חכמים	-6882
▁שחשוב	-6883
▁מקווים	-6884
▁עבורכם	-6885
▁פריטים	-6886
▁ההחלטות	-6887
▁המפורסם	-6888
▁האפשרויות	-6889
9)	-6890
ke	-6891
אהב	-6892
ומך	-6893
טוח	-6894
רמו	-6895
בריו	-6896
קיפה	-6897
▁הכפ	-6898
▁חיד	-6899
▁מרט	-6900
▁תוב	-6901
▁בחוק	-6902
▁ואחר	-6903
▁זכתה	-6904
▁פיזי	-6905
▁תראה	-6906
▁בקושי	-6907
▁הלהקה	-6908
▁המרכי	-6909
▁מדווח	-6910
▁מדויק	-6911
▁מסתבר	-6912
▁אלקטרו	-6913
▁בדברים	-6914
▁הכוונה	-6915
▁המתאים	-6916
▁להתרחש	-6917
▁פלסטין	-6918
▁מתקדמים	-6919
דלת	-6920
ומק	-6921
קאות	-6922
שירי	-6923
▁[-]	-6924
▁יזם	-6925
אטרון	-6926
רועות	-6927
שיאות	-6928
▁הבמה	-6929
▁המצל	-6930
▁הרפת	-6931
▁וחלק	-6932
▁טקסט	-6933
▁מחלק	-6934
▁פילי	-6935
▁ביטול	-6936
▁הכרטי	-6937
▁חמישי	-6938
▁טבעית	-6939
▁להורג	-6940
▁מציין	-6941
▁נותרו	-6942
▁שהאדם	-6943
▁שלטון	-6944
▁תרופה	-6945
▁הרפואה	-6946
▁מזונות	-6947
▁פיננסי	-6948
▁שמדובר	-6949
▁ההתנגדות	-6950
▁האמריקנית	-6951
%)	-6952
בדת	-6953
בוט	-6954
רוט	-6955
ence	-6956
כתבו	-6957
כתוב	-6958
▁?".	-6959
▁ארכ	-6960
▁חשש	-6961
▁לעד	-6962
נטיות	-6963
▁אימא	-6964
▁האמצ	-6965
▁הסחר	-6966
▁הפתי	-6967
▁לחזק	-6968
▁לשוק	-6969
▁מתוק	-6970
▁נהנה	-6971
▁נתנו	-6972
▁שמים	-6973
▁תומך	-6974
▁הרוסי	-6975
▁לתכנן	-6976
▁מוחמד	-6977
▁שאינן	-6978
▁שנערך	-6979
בולוציה	-6980
▁ההודעה	-6981
▁השירים	-6982
aw	-6983
הא	-6984
וסה	-6985
טול	-6986
▁3,	-6987
▁ro	-6988
▁דן	-6989
וזים	-6990
ולדת	-6991
שארו	-6992
▁חות	-6993
▁קבל	-6994
▁שפע	-6995
▁בוחר	-6996
▁הכרה	-6997
▁הצעה	-6998
▁הקלי	-6999
▁השאי	-7000
▁מטבע	-7001
▁קונה	-7002
▁במועד	-7003
▁הבינו	-7004
▁המוקד	-7005
▁נולדה	-7006
▁נחשבת	-7007
מפרטורה	-7008
▁Intern	-7009
▁מהווים	-7010
▁מחירים	-7011
▁נכנסים	-7012
▁אופניים	-7013
▁בתחומים	-7014
▁פוטנציאלי	-7015
7,	-7016
ish	-7017
▁>>	-7018
▁]]	-7019
בטים	-7020
וונת	-7021
▁").	-7022
▁400	-7023
▁אבט	-7024
▁באל	-7025
▁חוג	-7026
▁כאל	-7027
▁לאת	-7028
▁ציו	-7029
גריות	-7030
משיכו	-7031
▁יעשו	-7032
▁כשהי	-7033
▁איטלק	-7034
▁גילוי	-7035
▁דתיים	-7036
▁המחוז	-7037
▁מספרת	-7038
▁עצומה	-7039
▁פתיחת	-7040
▁באנשים	-7041
▁ידועים	-7042
▁לניהול	-7043
▁עצמאית	-7044
▁שרוצים	-7045
▁אסטרטגי	-7046
▁~	-7047
ord	-7048
ודר	-7049
▁2:	-7050
יימו	-7051
ליכי	-7052
▁אנה	-7053
▁לחם	-7054
▁צוע	-7055
▁שהש	-7056
ווירה	-7057
וריון	-7058
▁100%	-7059
▁באחת	-7060
▁חייה	-7061
▁לחופ	-7062
▁מהנד	-7063
▁נוכח	-7064
▁חוקית	-7065
▁יישום	-7066
▁לגיטי	-7067
▁למרכז	-7068
▁מדריך	-7069
▁מייצג	-7070
▁מלאים	-7071
▁מלכות	-7072
▁תופעה	-7073
▁האישית	-7074
▁הרפואי	-7075
▁למשפחה	-7076
▁מכונות	-7077
▁מסיבות	-7078
▁עבורנו	-7079
▁החומרים	-7080
▁קלוריות	-7081
גלה	-7082
וזר	-7083
ופק	-7084
וגות	-7085
ויים	-7086
▁התל	-7087
▁ממק	-7088
▁דאגה	-7089
▁הרגל	-7090
▁ודאי	-7091
▁מפקד	-7092
▁מרחב	-7093
▁נמסר	-7094
▁רדיו	-7095
▁האושר	-7096
▁החיות	-7097
▁המולד	-7098
▁הנסיך	-7099
▁חלבון	-7100
▁מתקדם	-7101
▁פרטית	-7102
▁מוחלטת	-7103
▁שאמרתי	-7104
▁שימושי	-7105
4,	-7106
▁ri	-7107
atch	-7108
אנים	-7109
נסון	-7110
▁Res	-7111
▁שגר	-7112
ודעות	-7113
לקטוא	-7114
מדובר	-7115
תיימה	-7116
▁בעזה	-7117
▁דאעש	-7118
▁הרחב	-7119
▁לגשת	-7120
▁לרשת	-7121
▁מקסי	-7122
▁תראו	-7123
▁ברזיל	-7124
▁למשהו	-7125
וסטרליה	-7126
▁הבנקים	-7127
▁עצמאות	-7128
▁תיירים	-7129
ly	-7130
ov	-7131
end	-7132
ברס	-7133
לאי	-7134
▁75	-7135
▁SE	-7136
▁ab	-7137
▁וני	-7138
▁ייר	-7139
▁פשע	-7140
▁שמס	-7141
בונות	-7142
שרדות	-7143
▁אוקט	-7144
▁הכות	-7145
▁יצחק	-7146
▁משלי	-7147
▁נפוץ	-7148
▁שכתב	-7149
▁דיאטה	-7150
▁היופי	-7151
▁כללית	-7152
▁לחלוק	-7153
▁ליישם	-7154
▁סביבה	-7155
▁עוצמה	-7156
▁פולין	-7157
▁קצרים	-7158
▁רגעים	-7159
▁בבעלות	-7160
▁בכיוון	-7161
▁האחרות	-7162
▁מדהימה	-7163
0.	-7164
ll	-7165
כית	-7166
▁צא	-7167
חילו	-7168
▁For	-7169
▁אכל	-7170
▁שנש	-7171
מליים	-7172
רגשות	-7173
▁בטבע	-7174
▁בפרק	-7175
▁המלח	-7176
▁התנג	-7177
▁עדות	-7178
▁שעלי	-7179
▁בעידן	-7180
▁האידי	-7181
▁ההצעה	-7182
▁חירות	-7183
▁יקרים	-7184
▁לבעלי	-7185
▁לנהוג	-7186
▁מתמיד	-7187
▁נתחיל	-7188
▁ספרות	-7189
▁שרוצה	-7190
▁בתנאים	-7191
▁הגרמני	-7192
▁באוניברסיטה	-7193
▁39	-7194
▁דנ	-7195
ביעו	-7196
צרות	-7197
▁האצ	-7198
▁העק	-7199
▁נמנ	-7200
▁נתק	-7201
▁הסול	-7202
▁כואב	-7203
▁מגני	-7204
▁מנוע	-7205
ובוסים	-7206
טיבציה	-7207
▁אליכם	-7208
▁הבנות	-7209
▁המועד	-7210
▁העמים	-7211
▁חקירה	-7212
▁אירועי	-7213
▁לדברים	-7214
▁להזכיר	-7215
▁מועדון	-7216
▁מתרחשת	-7217
▁עשויות	-7218
▁באיטליה	-7219
▁טיפולים	-7220
▁עיתונאים	-7221
ֹת	-7222
גרה	-7223
▁1:	-7224
וניה	-7225
▁גשר	-7226
▁דקה	-7227
▁מהה	-7228
▁משל	-7229
▁קשי	-7230
▁תסת	-7231
▁הצפו	-7232
▁זכרו	-7233
▁מבול	-7234
▁סגור	-7235
▁שעשו	-7236
▁בעצמי	-7237
▁לתואר	-7238
▁הדיווח	-7239
▁סבלנות	-7240
▁האתגרים	-7241
▁המחשבות	-7242
3.	-7243
ky	-7244
ֶה	-7245
נז	-7246
ומץ	-7247
זבז	-7248
טציה	-7249
כיים	-7250
מפוס	-7251
עתים	-7252
וסטון	-7253
▁בירה	-7254
▁המזו	-7255
▁עלתה	-7256
▁פרסם	-7257
▁תשוב	-7258
▁בהודו	-7259
▁הילדה	-7260
▁המיני	-7261
▁הנקרא	-7262
▁השמים	-7263
▁טילים	-7264
▁ישנים	-7265
▁להביע	-7266
▁מבוגר	-7267
▁מצחיק	-7268
▁צופים	-7269
▁תעופה	-7270
וליטיקה	-7271
נחלויות	-7272
▁במגוון	-7273
▁החשבון	-7274
▁נכונות	-7275
▁החודשים	-7276
▁קורבנות	-7277
IV	-7278
ֹא	-7279
▁«	-7280
ail	-7281
מרק	-7282
נהג	-7283
קיף	-7284
וכית	-7285
כלים	-7286
סופו	-7287
▁Pre	-7288
▁בגן	-7289
▁הדא	-7290
▁התב	-7291
▁ומח	-7292
▁קאר	-7293
▁שעל	-7294
▁שעש	-7295
גיעים	-7296
לומים	-7297
▁אנוש	-7298
▁ביקר	-7299
▁הציע	-7300
▁לראש	-7301
▁מלמד	-7302
ומטרים	-7303
▁המכון	-7304
▁מחצית	-7305
▁ממליץ	-7306
▁ניסוי	-7307
▁לבעיות	-7308
▁להגביר	-7309
▁לימודי	-7310
▁לעניין	-7311
▁ספינות	-7312
▁רישיון	-7313
▁שפורסם	-7314
▁אוקטובר	-7315
▁בניסיון	-7316
▁המודעות	-7317
▁לימודים	-7318
▁הציבורית	-7319
▁האינטרסים	-7320
▁משמעותיים	-7321
▁קילומטרים	-7322
נפ	-7323
ath	-7324
int	-7325
▁un	-7326
ערות	-7327
ריית	-7328
▁ביח	-7329
▁התס	-7330
נאביס	-7331
▁בטרם	-7332
▁ביטח	-7333
▁הגבר	-7334
▁הליך	-7335
▁הפיק	-7336
▁כספי	-7337
▁שהכל	-7338
▁גורמת	-7339
▁גיבור	-7340
▁הפסקת	-7341
שינגטון	-7342
▁בארגון	-7343
▁ההשקעה	-7344
▁תפקידו	-7345
▁ובמיוחד	-7346
▁משתתפים	-7347
▁[2]	-7348
▁איז	-7349
▁כוע	-7350
▁לעם	-7351
▁מחק	-7352
סיקים	-7353
▁אויב	-7354
▁גונג	-7355
▁הוסי	-7356
▁היפה	-7357
▁משוב	-7358
▁המונח	-7359
▁זוגות	-7360
▁כתבתי	-7361
▁משפטי	-7362
▁מתנות	-7363
▁נהנים	-7364
▁פנימי	-7365
▁שבאמת	-7366
▁תחומי	-7367
▁האקלים	-7368
▁המלצות	-7369
▁הצרפתי	-7370
▁רפואית	-7371
▁שישראל	-7372
CD	-7373
ָּ	-7374
ריל	-7375
▁9.	-7376
▁et	-7377
▁יכ	-7378
-100	-7379
וספת	-7380
כונת	-7381
▁מטה	-7382
▁נפל	-7383
▁סיד	-7384
▁רוז	-7385
▁אחים	-7386
▁בחופ	-7387
▁הענק	-7388
▁התמק	-7389
▁מכלל	-7390
▁ממוש	-7391
▁עסקה	-7392
▁שומר	-7393
▁תגיד	-7394
▁בחייו	-7395
▁דירות	-7396
▁הגורם	-7397
▁הדירה	-7398
ולוגיות	-7399
▁Office	-7400
▁בקהילה	-7401
▁ברשימה	-7402
▁דמויות	-7403
▁השליטה	-7404
▁לקבוצה	-7405
▁התיירות	-7406
▁רלוונטי	-7407
▁ההתנהגות	-7408
לאה	-7409
▁42	-7410
▁189	-7411
▁Ser	-7412
▁אהב	-7413
▁בבל	-7414
▁הדג	-7415
▁ווא	-7416
▁מגן	-7417
▁שרצ	-7418
וצרות	-7419
טיחות	-7420
ליפות	-7421
מטיקה	-7422
▁בצבא	-7423
▁הנזק	-7424
▁נניח	-7425
▁חומרי	-7426
▁האיטלק	-7427
▁הבדיקה	-7428
▁מצוינת	-7429
▁העובדות	-7430
▁מקצועיים	-7431
יג	-7432
בין	-7433
מלט	-7434
נדו	-7435
רגו	-7436
▁IP	-7437
▁צר	-7438
פיסה	-7439
▁והא	-7440
▁נגר	-7441
▁סוס	-7442
▁תתק	-7443
ובליק	-7444
ובלית	-7445
וויטר	-7446
▁הראה	-7447
▁לפתע	-7448
▁רעים	-7449
▁שאלת	-7450
▁אסטרו	-7451
▁בכדור	-7452
▁במחשב	-7453
▁החלטת	-7454
▁היטלר	-7455
▁עבורך	-7456
▁קניות	-7457
▁דיכאון	-7458
▁העיתון	-7459
▁הצבאית	-7460
▁משתנים	-7461
▁רוחנית	-7462
▁באנגליה	-7463
▁החברתיות	-7464
4)	-7465
7.	-7466
צג	-7467
ife	-7468
ild	-7469
מיע	-7470
ציע	-7471
בירו	-7472
ניום	-7473
▁מחז	-7474
▁ספט	-7475
גויות	-7476
▁בכפר	-7477
▁הבול	-7478
▁הפור	-7479
▁מהלך	-7480
▁אוקרא	-7481
▁באיזו	-7482
▁הגעתי	-7483
▁הצטרף	-7484
▁ולקבל	-7485
▁אנושית	-7486
▁בכירים	-7487
▁גרעיני	-7488
▁דורשים	-7489
▁הצלחתי	-7490
▁התוכנה	-7491
▁התחילה	-7492
▁מבצעים	-7493
▁משפטית	-7494
▁קישורים	-7495
▁רפואיים	-7496
ְּ	-7497
נצח	-7498
רגש	-7499
כללה	-7500
כנסה	-7501
▁בכם	-7502
▁כפר	-7503
וונית	-7504
ריאלי	-7505
▁אסון	-7506
▁הנבח	-7507
▁הנחה	-7508
▁לומד	-7509
▁עצוב	-7510
▁שיצא	-7511
▁אדמות	-7512
▁אחדות	-7513
▁בסדרה	-7514
▁השמאל	-7515
▁השניה	-7516
▁למטרה	-7517
▁מבנים	-7518
▁נותנת	-7519
▁נכסים	-7520
▁סביבת	-7521
▁סודות	-7522
▁קשורה	-7523
▁הדיגיט	-7524
▁הלוואי	-7525
▁המחלקה	-7526
▁הסכסוך	-7527
▁הרגשות	-7528
▁טבעיים	-7529
▁שלושים	-7530
▁בנושאים	-7531
▁ההשפעות	-7532
▁הפעולות	-7533
▁הפרלמנט	-7534
▁ישראלית	-7535
▁מתכננים	-7536
▁‬	-7537
כוד	-7538
▁כס	-7539
וסיה	-7540
פתור	-7541
▁188	-7542
▁הבק	-7543
▁ולל	-7544
▁יוק	-7545
▁נכש	-7546
▁סבא	-7547
נטיים	-7548
▁אוסט	-7549
▁ההנה	-7550
▁החוב	-7551
▁חוקר	-7552
▁משוכ	-7553
בוגרים	-7554
וגרפיה	-7555
▁המטבע	-7556
▁מחלקת	-7557
▁מרטין	-7558
▁שנאמר	-7559
▁בתמונה	-7560
▁מרוצים	-7561
▁ספטמבר	-7562
▁רשויות	-7563
▁למציאות	-7564
▁מתייחסים	-7565
ck	-7566
ib	-7567
בך	-7568
חז	-7569
-25	-7570
ear	-7571
ערת	-7572
קאי	-7573
▁65	-7574
▁IC	-7575
אונה	-7576
ינות	-7577
צבעה	-7578
צוות	-7579
▁והח	-7580
▁סקי	-7581
▁במסע	-7582
▁התעל	-7583
▁כפול	-7584
▁נתקל	-7585
▁עצים	-7586
▁שכזה	-7587
▁אחורה	-7588
▁הוכחה	-7589
▁המוסי	-7590
▁הרחוב	-7591
▁כוונה	-7592
▁נהיגה	-7593
▁ניתנת	-7594
▁עשינו	-7595
▁הרוחני	-7596
▁השיווק	-7597
▁השלכות	-7598
▁עסקיים	-7599
▁הנוסעים	-7600
▁העצמאות	-7601
▁מעדיפים	-7602
הה	-7603
מוץ	-7604
פטן	-7605
פעם	-7606
ונלד	-7607
▁man	-7608
▁הבכ	-7609
▁כעס	-7610
▁לוי	-7611
▁נסת	-7612
▁קפי	-7613
▁אביה	-7614
▁אשמח	-7615
▁הוקם	-7616
▁התער	-7617
▁לחוש	-7618
▁מופע	-7619
▁מופת	-7620
▁מייד	-7621
▁מסמך	-7622
▁מפחד	-7623
▁מתפת	-7624
▁סכנה	-7625
▁שימש	-7626
▁אפליק	-7627
▁בשלום	-7628
▁דבריו	-7629
▁חדרים	-7630
▁לנושא	-7631
▁שנוכל	-7632
▁תמשיך	-7633
▁מודרני	-7634
▁משלמים	-7635
▁ספציפי	-7636
▁האלימות	-7637
▁הדמויות	-7638
▁מובילים	-7639
▁נישואין	-7640
▁האימפריה	-7641
ip	-7642
הר	-7643
ree	-7644
זהר	-7645
פסה	-7646
▁55	-7647
▁us	-7648
▁סת	-7649
eric	-7650
בחרו	-7651
סדות	-7652
שלון	-7653
▁אנט	-7654
▁אסת	-7655
▁דתי	-7656
▁העץ	-7657
▁לשמ	-7658
▁נחת	-7659
▁פרש	-7660
▁שלג	-7661
▁תדע	-7662
▁הקלא	-7663
▁ממתי	-7664
▁משוג	-7665
▁איחוד	-7666
▁גירוש	-7667
▁הפארק	-7668
▁וכאשר	-7669
▁בראשית	-7670
▁החתונה	-7671
▁כרטיסי	-7672
▁מגורים	-7673
▁פתוחים	-7674
▁אינטליג	-7675
▁הפועלים	-7676
▁סיכונים	-7677
▁תיאטרון	-7678
xt	-7679
וקת	-7680
טוס	-7681
ילר	-7682
יני	-7683
▁186	-7684
▁בלח	-7685
▁ופע	-7686
▁מבע	-7687
▁נרש	-7688
▁קסם	-7689
בירים	-7690
▁הלכת	-7691
▁סבור	-7692
▁רצוי	-7693
▁שינו	-7694
▁ארבעת	-7695
▁בתנאי	-7696
▁הדואר	-7697
▁ומעלה	-7698
▁חלקית	-7699
▁לחגוג	-7700
▁שתוכל	-7701
▁אסירים	-7702
▁בהתחשב	-7703
▁ההתחלה	-7704
▁הלימוד	-7705
▁המשותף	-7706
▁הערכים	-7707
▁לחברות	-7708
▁נדרשים	-7709
▁ניסיתי	-7710
▁פשוטים	-7711
▁הנושאים	-7712
▁ייחודית	-7713
ַּ	-7714
ach	-7715
ריס	-7716
רכן	-7717
וכמה	-7718
מזרח	-7719
פיפי	-7720
▁ויא	-7721
▁סבי	-7722
▁עצב	-7723
▁שרת	-7724
▁תיר	-7725
דושים	-7726
שובים	-7727
▁במחש	-7728
▁בקנה	-7729
▁גדלה	-7730
▁גרסה	-7731
▁הבנת	-7732
▁הגול	-7733
▁יעלה	-7734
ייקטים	-7735
▁הגענו	-7736
▁הוביל	-7737
▁הסביר	-7738
▁לנקות	-7739
▁לתקשר	-7740
▁מאורג	-7741
▁עולים	-7742
▁פיגוע	-7743
▁רפואה	-7744
▁תמצאו	-7745
▁אתגרים	-7746
▁הופעות	-7747
▁התקציב	-7748
▁להיפטר	-7749
▁תומכים	-7750
▁מאפשרים	-7751
▁הנישואין	-7752
AS	-7753
הל	-7754
אלת	-7755
ידו	-7756
-198	-7757
▁ארצ	-7758
▁בחק	-7759
▁הפג	-7760
▁השא	-7761
▁חלו	-7762
▁כור	-7763
▁לבל	-7764
▁לתע	-7765
▁ממי	-7766
▁מנד	-7767
▁שיצ	-7768
▁החיו	-7769
▁ונית	-7770
▁ימות	-7771
▁לקום	-7772
▁מאסר	-7773
▁נזכר	-7774
▁צהוב	-7775
▁תהיו	-7776
▁הנוער	-7777
▁הערות	-7778
▁ונשים	-7779
▁יישאר	-7780
▁יקבלו	-7781
▁מתעור	-7782
▁שאומר	-7783
▁הנאצים	-7784
▁מופיעה	-7785
▁מלונות	-7786
▁שמעולם	-7787
▁ברחובות	-7788
▁בתקשורת	-7789
4%	-7790
8)	-7791
age	-7792
טיס	-7793
▁Ac	-7794
סיבה	-7795
קרטי	-7796
▁ארד	-7797
▁מבו	-7798
▁רעה	-7799
מנטים	-7800
▁Home	-7801
▁אלוה	-7802
▁ההון	-7803
▁ההפר	-7804
▁הטור	-7805
▁הרים	-7806
▁כושר	-7807
▁לבדי	-7808
▁להתפ	-7809
▁מדהי	-7810
▁שהוק	-7811
▁האומה	-7812
▁הרבים	-7813
▁מחליט	-7814
▁מצטער	-7815
▁סיינט	-7816
▁תיירות	-7817
▁הדרושים	-7818
▁מעריכים	-7819
▁האמיתיים	-7820
▁מעניינים	-7821
ax	-7822
דג	-7823
עק	-7824
וגו	-7825
חתן	-7826
▁CO	-7827
▁ין	-7828
ואנה	-7829
טונו	-7830
▁המו	-7831
▁חני	-7832
▁נשל	-7833
▁שחר	-7834
ותרות	-7835
▁בודד	-7836
▁דלקת	-7837
▁הירי	-7838
▁התרו	-7839
▁מכון	-7840
▁מרחק	-7841
▁משרת	-7842
▁סמוך	-7843
▁World	-7844
▁אספקת	-7845
▁בשווי	-7846
▁הטבעי	-7847
▁לרצות	-7848
▁עבורם	-7849
▁עסקית	-7850
▁שקיבל	-7851
▁הספינה	-7852
▁לביצוע	-7853
▁להיפגש	-7854
▁נוצרים	-7855
▁עמודים	-7856
▁פירושו	-7857
▁שומעים	-7858
▁אינטנסי	-7859
▁הקודמים	-7860
▁ניסויים	-7861
▁לסטודנטים	-7862
2]	-7863
5)	-7864
יפ	-7865
צם	-7866
ויה	-7867
ירו	-7868
ייני	-7869
ציאה	-7870
▁pro	-7871
▁הצו	-7872
▁מפה	-7873
▁פוש	-7874
▁שנג	-7875
▁ברכב	-7876
▁הינם	-7877
▁המוג	-7878
▁הקלה	-7879
▁השוט	-7880
▁השקט	-7881
▁חזרו	-7882
▁ייתן	-7883
▁לעצב	-7884
▁סינג	-7885
▁עיני	-7886
פיפיור	-7887
▁בחברת	-7888
▁הכשרה	-7889
▁הסכמה	-7890
▁למחקר	-7891
▁נמשיך	-7892
▁תלויה	-7893
▁החליטו	-7894
▁המניות	-7895
▁פליטים	-7896
אנ	-7897
▁\	-7898
ork	-7899
ויק	-7900
חקו	-7901
כלל	-7902
מאי	-7903
כמים	-7904
צועת	-7905
▁אמה	-7906
▁זכו	-7907
▁רון	-7908
כניים	-7909
נוקות	-7910
▁1999	-7911
▁בואי	-7912
▁גובה	-7913
▁לקחו	-7914
▁מוצי	-7915
▁מענה	-7916
▁סמית	-7917
▁בהיות	-7918
▁בעבור	-7919
▁הבירה	-7920
▁הבתים	-7921
▁המחבר	-7922
▁התעור	-7923
▁זמנים	-7924
▁חווים	-7925
▁להגנה	-7926
▁מחסור	-7927
▁רגילה	-7928
▁רוחני	-7929
▁שהיתה	-7930
▁החברתי	-7931
▁המאסטר	-7932
▁המשיכה	-7933
▁התחושה	-7934
▁התשלום	-7935
▁להסתיר	-7936
▁הפסיכולוג	-7937
ian	-7938
בעו	-7939
בתם	-7940
בהיר	-7941
וצאת	-7942
חיית	-7943
פעול	-7944
▁דרג	-7945
▁ומק	-7946
▁צוח	-7947
גינים	-7948
ורידה	-7949
▁הגזע	-7950
▁הלכה	-7951
▁כנסי	-7952
▁כתבי	-7953
▁לשוב	-7954
▁מאמן	-7955
▁מפגש	-7956
▁נודע	-7957
▁קונג	-7958
▁שנאה	-7959
▁אחדים	-7960
▁במידע	-7961
▁במשרה	-7962
▁בסיסי	-7963
▁האוצר	-7964
▁הטיסה	-7965
▁הטכני	-7966
▁היסוד	-7967
▁הלכתי	-7968
▁הרצפה	-7969
▁ובלתי	-7970
▁לצמצם	-7971
▁סיפרה	-7972
▁אירלנד	-7973
▁בחינוך	-7974
▁ילדיהם	-7975
▁נעליים	-7976
▁סוכנות	-7977
▁פסטיבל	-7978
▁חופשיים	-7979
▁מתאימים	-7980
▁סוציאלי	-7981
ick	-7982
ron	-7983
אמה	-7984
טלי	-7985
▁TH	-7986
בקים	-7987
ומבי	-7988
שראי	-7989
▁Out	-7990
▁גני	-7991
▁גשם	-7992
▁מקל	-7993
▁סמל	-7994
▁פצי	-7995
▁קנה	-7996
פויות	-7997
▁הנהג	-7998
▁וללא	-7999
▁לשמר	-8000
▁מעקב	-8001
▁עדים	-8002
▁קינג	-8003
▁קלים	-8004
▁תכשי	-8005
▁דורשת	-8006
▁הסרטן	-8007
▁הרגיל	-8008
▁הרגיש	-8009
▁השעון	-8010
▁התואר	-8011
▁מאיפה	-8012
▁מוסיף	-8013
▁רישום	-8014
▁האשראי	-8015
▁נובמבר	-8016
▁לפעילות	-8017
9]	-8018
DA	-8019
ics	-8020
בטא	-8021
בלי	-8022
דוד	-8023
יקף	-8024
▁CB	-8025
▁IS	-8026
ובלת	-8027
▁App	-8028
▁אתי	-8029
▁גיי	-8030
▁זכר	-8031
▁יעד	-8032
▁לעת	-8033
▁לרח	-8034
▁נרד	-8035
בונים	-8036
▁במוח	-8037
▁הירו	-8038
▁הפיצ	-8039
▁הקיר	-8040
▁להפי	-8041
▁למים	-8042
▁עצמן	-8043
גוריות	-8044
נשטיין	-8045
▁אזהרה	-8046
▁הדמות	-8047
▁הסופר	-8048
▁טענות	-8049
▁למשרד	-8050
▁אורחים	-8051
▁בתמורה	-8052
▁מיידית	-8053
▁ממשלות	-8054
▁שוויון	-8055
▁שלישית	-8056
▁האישיות	-8057
▁החשיבות	-8058
▁מחויבות	-8059
▁באפשרותך	-8060
6)	-8061
ww	-8062
זג	-8063
▁→	-8064
ake	-8065
own	-8066
נלי	-8067
▁To	-8068
▁קח	-8069
בטיה	-8070
כנסו	-8071
▁הפח	-8072
▁לרי	-8073
▁קים	-8074
▁שיד	-8075
▁אהוב	-8076
▁ברוך	-8077
▁דתית	-8078
▁הנמו	-8079
▁כמוך	-8080
▁מתוח	-8081
▁פוגע	-8082
▁תורה	-8083
▁אינכם	-8084
▁במאבק	-8085
▁בנפרד	-8086
▁המלאה	-8087
▁הסכום	-8088
▁כללים	-8089
▁לכבוד	-8090
▁לעסוק	-8091
▁פרקים	-8092
▁בשילוב	-8093
▁דיוויד	-8094
▁האיכות	-8095
▁הכנסות	-8096
▁משמשים	-8097
▁שהגיעו	-8098
▁שוקולד	-8099
▁באחריות	-8100
▁בנסיבות	-8101
▁הסתיימה	-8102
▁הפיננסי	-8103
▁ולפעמים	-8104
▁במדיניות	-8105
▁המקומיים	-8106
ru	-8107
זול	-8108
פלת	-8109
רבע	-8110
כנון	-8111
פלגה	-8112
פסים	-8113
שמות	-8114
▁And	-8115
▁בהש	-8116
▁חוף	-8117
▁כהן	-8118
▁קיד	-8119
דברים	-8120
נחלים	-8121
שלכות	-8122
▁אונס	-8123
▁התור	-8124
▁מידת	-8125
▁סיני	-8126
▁קובץ	-8127
▁שעשה	-8128
▁בעצמם	-8129
▁הוציא	-8130
▁הסיני	-8131
▁לאזרח	-8132
▁להפיק	-8133
▁לעזרה	-8134
▁מגלים	-8135
▁קישור	-8136
▁בימינו	-8137
▁המשיכו	-8138
▁התודעה	-8139
▁לקידום	-8140
▁מהחיים	-8141
▁האקדמיה	-8142
▁הכדורגל	-8143
▁הקולנוע	-8144
▁האלקטרוני	-8145
IS	-8146
ֶם	-8147
אדם	-8148
כחו	-8149
-197	-8150
▁'".	-8151
▁אלן	-8152
▁הסע	-8153
▁ואה	-8154
▁מוא	-8155
▁מטע	-8156
▁מכש	-8157
▁נגי	-8158
▁נרח	-8159
▁צמי	-8160
▁קיו	-8161
▁שיט	-8162
פלציה	-8163
▁אלטר	-8164
▁חייך	-8165
▁להיו	-8166
▁לרמה	-8167
▁מאלה	-8168
▁מוני	-8169
▁נוטה	-8170
▁קושי	-8171
▁באותם	-8172
▁הסופי	-8173
▁זיהוי	-8174
▁לצערי	-8175
▁מלווה	-8176
▁נשארו	-8177
▁העשרים	-8178
▁לגברים	-8179
▁מלחמות	-8180
▁נאמנות	-8181
▁פנימית	-8182
▁קורסים	-8183
▁תכניות	-8184
▁המועדון	-8185
▁מוזמנים	-8186
▁נישואים	-8187
1)	-8188
IT	-8189
ַל	-8190
ועץ	-8191
נוג	-8192
רקט	-8193
רתם	-8194
▁se	-8195
גלות	-8196
נהיג	-8197
▁פאר	-8198
▁אעשה	-8199
▁בגדה	-8200
▁במונ	-8201
▁הצדק	-8202
▁טענה	-8203
▁למדו	-8204
▁מיום	-8205
▁מעגל	-8206
▁מעצב	-8207
▁עקבו	-8208
▁בסכנה	-8209
▁בעונה	-8210
▁הפיזי	-8211
▁כיסוי	-8212
▁לשבור	-8213
▁החליטה	-8214
▁היצירה	-8215
▁המיקום	-8216
▁ויליאם	-8217
▁חיצוני	-8218
▁מנהיגי	-8219
▁במוזיאון	-8220
ime	-8221
אטה	-8222
טחה	-8223
▁ביץ	-8224
▁ומס	-8225
▁תום	-8226
▁אחות	-8227
▁באתי	-8228
▁בפור	-8229
▁המוט	-8230
▁והכל	-8231
▁משלם	-8232
▁קדוש	-8233
▁שבני	-8234
▁בכיתה	-8235
▁בסעיף	-8236
▁הסתכל	-8237
▁התחלה	-8238
▁כניסת	-8239
▁לבכות	-8240
▁להרים	-8241
▁מיועד	-8242
▁החמישי	-8243
▁חתולים	-8244
▁לכולנו	-8245
▁שוטרים	-8246
▁הגרמנית	-8247
▁הארגונים	-8248
▁אסטרטגיות	-8249
')	-8250
ְּ	-8251
כא	-8252
יין	-8253
ננה	-8254
ודיע	-8255
משכת	-8256
▁ואח	-8257
▁רוס	-8258
וויית	-8259
להבות	-8260
▁גולד	-8261
▁הנהר	-8262
▁הקוס	-8263
▁ואכן	-8264
▁לנוע	-8265
▁מהמש	-8266
▁תשעה	-8267
▁אזורי	-8268
▁האתגר	-8269
▁המודל	-8270
▁המפגש	-8271
▁כרגיל	-8272
▁להשגת	-8273
▁מועמד	-8274
▁סימני	-8275
▁רגשית	-8276
▁הסופית	-8277
▁הסיכוי	-8278
▁יציבות	-8279
▁להרשות	-8280
▁מקומית	-8281
▁שמאפשר	-8282
▁הקיימים	-8283
▁כשהייתי	-8284
▁פוליטיקה	-8285
▁טכנולוגיית	-8286
▁מאוניברסיטת	-8287
5,	-8288
6.	-8289
7%	-8290
זכר	-8291
▁סך	-8292
בחנה	-8293
געים	-8294
וגני	-8295
חלתי	-8296
טרים	-8297
מיון	-8298
נטרי	-8299
פיין	-8300
▁אוז	-8301
▁דגל	-8302
▁מרה	-8303
▁מרצ	-8304
▁פנו	-8305
▁היקף	-8306
▁השיב	-8307
▁השער	-8308
▁יורד	-8309
▁לגדל	-8310
▁מקלט	-8311
▁נמנע	-8312
▁צופה	-8313
▁בחנות	-8314
▁דומות	-8315
▁דצמבר	-8316
▁האולי	-8317
▁הוריו	-8318
▁הקיים	-8319
▁חמורה	-8320
▁להשיב	-8321
▁לעצמה	-8322
▁לרופא	-8323
▁מעריך	-8324
▁משלוח	-8325
▁שנעשה	-8326
▁בידיים	-8327
▁הכותרת	-8328
▁המצלמה	-8329
▁ובעיקר	-8330
▁כישלון	-8331
▁לעסקים	-8332
▁הגבולות	-8333
▁כלכליים	-8334
▁מתכוונים	-8335
▁ניסיונות	-8336
לד	-8337
▁{	-8338
-80	-8339
נום	-8340
פין	-8341
▁MA	-8342
▁רט	-8343
uman	-8344
בקות	-8345
יווד	-8346
ספור	-8347
קסון	-8348
▁HIV	-8349
▁War	-8350
▁com	-8351
▁ers	-8352
▁דעה	-8353
▁הוס	-8354
▁הצט	-8355
▁מבר	-8356
▁פגי	-8357
יליים	-8358
צילום	-8359
▁אמין	-8360
▁ביצע	-8361
▁גאים	-8362
▁דייו	-8363
▁הטעם	-8364
▁חתול	-8365
▁יציב	-8366
▁למסע	-8367
▁מארק	-8368
▁פרשת	-8369
▁רצתה	-8370
▁רשאי	-8371
▁שהוצ	-8372
▁האינס	-8373
▁המתנה	-8374
▁הפסקה	-8375
▁התאים	-8376
▁שווים	-8377
▁שמגיע	-8378
▁בודדים	-8379
▁מיליאר	-8380
▁ההבדלים	-8381
▁מצביעים	-8382
▁אסטרטגיה	-8383
??	-8384
old	-8385
▁66	-8386
▁No	-8387
ומני	-8388
שתמש	-8389
▁הגא	-8390
▁לרק	-8391
▁שאה	-8392
▁תות	-8393
▁המתי	-8394
▁לאשר	-8395
▁גורמי	-8396
▁הביאו	-8397
▁החזון	-8398
▁הנביא	-8399
▁השופט	-8400
▁טיימס	-8401
▁לאישה	-8402
▁לטייל	-8403
▁מעשים	-8404
▁קשיים	-8405
▁שלפני	-8406
▁בהתבסס	-8407
▁בראיון	-8408
▁הגידול	-8409
▁החקירה	-8410
▁להגשים	-8411
▁אלכסנדר	-8412
▁החלומות	-8413
▁ההתפתחות	-8414
▁הסיפורים	-8415
▁הרעיונות	-8416
7)	-8417
8]	-8418
דרג	-8419
יעה	-8420
יקת	-8421
▁250	-8422
▁[1]	-8423
▁יהן	-8424
▁יכל	-8425
▁יכם	-8426
▁מיע	-8427
▁פקי	-8428
▁ששת	-8429
▁אקרא	-8430
▁הקסם	-8431
▁ידעה	-8432
▁סבתא	-8433
▁עוסק	-8434
▁ערוץ	-8435
▁קלות	-8436
▁שעון	-8437
▁תקבל	-8438
▁הבקשה	-8439
▁המותג	-8440
▁המעור	-8441
▁הקשור	-8442
▁יגיעו	-8443
▁ידענו	-8444
▁לבנון	-8445
▁להתכו	-8446
▁מבקשת	-8447
▁מפחיד	-8448
▁עמדות	-8449
▁פגישה	-8450
▁תפילה	-8451
▁אזרחות	-8452
▁ארבעים	-8453
▁במצבים	-8454
▁ופיתוח	-8455
▁מסעדות	-8456
▁מקסיקו	-8457
▁משקאות	-8458
▁עוזרים	-8459
▁התערוכה	-8460
▁ציפורים	-8461
וניברסיטאות	-8462
2,	-8463
פגש	-8464
▁ra	-8465
▁כף	-8466
גשנו	-8467
ספיק	-8468
פוסי	-8469
רקות	-8470
▁אלג	-8471
▁בְּ	-8472
▁בלא	-8473
▁חטא	-8474
▁מנט	-8475
▁רות	-8476
▁שטי	-8477
▁אריק	-8478
▁הייש	-8479
▁חיפש	-8480
▁חשים	-8481
▁כולן	-8482
▁לחדש	-8483
▁לשתי	-8484
▁מבקר	-8485
▁מהות	-8486
▁מוסד	-8487
▁משטר	-8488
▁אפריק	-8489
▁הודעת	-8490
▁החולה	-8491
▁השגרי	-8492
▁התובע	-8493
▁מכונה	-8494
▁נציגי	-8495
▁קהילת	-8496
▁שעושה	-8497
ואליציה	-8498
▁Americ	-8499
▁בעברית	-8500
▁המושלם	-8501
▁הצפוני	-8502
▁יצטרכו	-8503
▁אידיאלי	-8504
▁העירייה	-8505
▁הצרפתית	-8506
▁הקשורות	-8507
▁פרנסיסקו	-8508
ES	-8509
-60	-8510
סין	-8511
פוק	-8512
▁by	-8513
▁ly	-8514
בחון	-8515
יורק	-8516
צועה	-8517
▁All	-8518
▁אמן	-8519
▁האט	-8520
▁ושם	-8521
▁זרה	-8522
▁מהג	-8523
▁שבח	-8524
▁שפי	-8525
▁ייקח	-8526
▁לשום	-8527
▁נערה	-8528
▁שכול	-8529
▁אמנים	-8530
▁באהבה	-8531
▁הרפוא	-8532
▁זקוקה	-8533
▁ינואר	-8534
▁לדרוש	-8535
▁לחודש	-8536
▁מחכים	-8537
▁מחפשת	-8538
▁מעורר	-8539
▁משטרת	-8540
▁משלהם	-8541
▁עיראק	-8542
▁פעילה	-8543
▁תגיות	-8544
▁אחרונה	-8545
▁האבטחה	-8546
▁הצטרפו	-8547
▁כריסטי	-8548
▁לממשלה	-8549
▁מנגנון	-8550
▁נסיעות	-8551
▁שראיתי	-8552
▁שתוכלו	-8553
▁תנועות	-8554
▁אלטרנטי	-8555
▁באפריקה	-8556
▁המוסיקה	-8557
▁למדינות	-8558
▁זיכרונות	-8559
10	-8560
3,	-8561
סס	-8562
עס	-8563
per	-8564
טוט	-8565
טוק	-8566
מצב	-8567
איות	-8568
וקות	-8569
חינה	-8570
▁Med	-8571
▁לוס	-8572
▁לית	-8573
▁נצח	-8574
▁פדר	-8575
▁צול	-8576
דירים	-8577
▁אנדר	-8578
▁החזק	-8579
▁הפסד	-8580
▁השמי	-8581
▁חכמה	-8582
▁לגעת	-8583
▁מזוי	-8584
▁נאלץ	-8585
▁רושם	-8586
▁שאדם	-8587
▁ביצים	-8588
▁יצירה	-8589
▁סוסים	-8590
▁שאחרי	-8591
▁החיסון	-8592
▁המסלול	-8593
▁לפתרון	-8594
▁מביאים	-8595
▁האורחים	-8596
▁הגבוהים	-8597
▁התשובות	-8598
▁להתפתחות	-8599
▁מתמודדים	-8600
ti	-8601
ָם	-8602
ךְ	-8603
oci	-8604
ושך	-8605
פאי	-8606
▁44	-8607
▁טס	-8608
וברת	-8609
ונתי	-8610
כנות	-8611
נדים	-8612
ניהן	-8613
▁בשו	-8614
▁הקת	-8615
▁התז	-8616
▁ויע	-8617
▁מדד	-8618
▁פיי	-8619
ישלון	-8620
▁האנג	-8621
▁וזהו	-8622
▁יצאה	-8623
▁פוטר	-8624
▁ראתה	-8625
▁אחרון	-8626
▁אנוני	-8627
▁בחורף	-8628
▁בכבוד	-8629
▁בערים	-8630
▁דוגמא	-8631
▁הוראה	-8632
▁ואינו	-8633
▁יחדיו	-8634
▁לואיס	-8635
▁עדכון	-8636
▁עוצמת	-8637
לסטינים	-8638
▁המורים	-8639
▁הסוביי	-8640
▁מטבעות	-8641
▁שהעולם	-8642
▁מחויבים	-8643
▁תהליכים	-8644
▁תפקידים	-8645
8,	-8646
ave	-8647
וחח	-8648
וטי	-8649
פיד	-8650
▁49	-8651
▁מִ	-8652
אלוג	-8653
חתית	-8654
▁הכר	-8655
▁וכש	-8656
▁טעי	-8657
▁יבש	-8658
▁מתפ	-8659
▁נסה	-8660
▁פשי	-8661
▁רעש	-8662
▁שטר	-8663
מושים	-8664
עודיה	-8665
▁אצלי	-8666
▁גברת	-8667
▁דעתו	-8668
▁הסופ	-8669
▁הקוב	-8670
▁השבת	-8671
▁לאמץ	-8672
▁מפעל	-8673
▁סוצי	-8674
▁עונת	-8675
▁עירו	-8676
▁בסמים	-8677
▁המתים	-8678
▁לירות	-8679
▁מקובל	-8680
▁שמשהו	-8681
▁אחראים	-8682
▁בחיפוש	-8683
▁בשיעור	-8684
▁הביקור	-8685
▁הכתיבה	-8686
▁הפגישה	-8687
▁השמיים	-8688
▁לארצות	-8689
▁למסקנה	-8690
▁נשארים	-8691
▁צהריים	-8692
▁העליונה	-8693
▁הפנימית	-8694
▁מעניינת	-8695
ךָ	-8696
כמו	-8697
▁Wi	-8698
▁אֲ	-8699
▁דק	-8700
סיבי	-8701
▁(1)	-8702
▁10.	-8703
▁הזר	-8704
▁טום	-8705
▁מזכ	-8706
▁מחס	-8707
הייתי	-8708
פינים	-8709
▁בושה	-8710
▁ברוח	-8711
▁החלב	-8712
▁הספק	-8713
▁הפול	-8714
▁הקרח	-8715
▁הרצח	-8716
▁השור	-8717
▁ומתי	-8718
▁חווה	-8719
▁לאחת	-8720
▁לבדו	-8721
▁לווי	-8722
▁מחבר	-8723
▁משתי	-8724
▁הסיוע	-8725
▁השנתי	-8726
▁יחזור	-8727
▁יצליח	-8728
▁כמוני	-8729
▁לתקוף	-8730
▁מסחרי	-8731
▁מרכיב	-8732
▁נקראת	-8733
▁ריכוז	-8734
▁שהדבר	-8735
▁שרבים	-8736
▁תרומה	-8737
▁אחראית	-8738
▁דיפלומ	-8739
▁המשפטי	-8740
▁הרוגים	-8741
▁ימשיכו	-8742
▁מאמצים	-8743
▁מוקדמת	-8744
▁נמצאות	-8745
▁להתעורר	-8746
▁לתוצאות	-8747
▁היסטורית	-8748
▁התוכניות	-8749
▁פלסטינית	-8750
1%	-8751
PN	-8752
ובש	-8753
otel	-8754
ענות	-8755
צהרה	-8756
▁בתה	-8757
▁נשר	-8758
▁סני	-8759
▁עצה	-8760
▁קרק	-8761
▁שהס	-8762
ction	-8763
טינית	-8764
▁איתן	-8765
▁בהול	-8766
▁במבט	-8767
▁האול	-8768
▁הפוך	-8769
▁חמשת	-8770
▁לחצו	-8771
▁לעוד	-8772
▁נשלח	-8773
▁נשמה	-8774
▁נתפס	-8775
וזיציה	-8776
רוסופט	-8777
▁התגלה	-8778
▁ובכלל	-8779
▁כיבוש	-8780
▁מאסטר	-8781
▁מחובר	-8782
▁ניצול	-8783
▁קבצים	-8784
▁שקלים	-8785
▁ארוחות	-8786
▁בניהול	-8787
▁וילדים	-8788
▁כותבים	-8789
▁עלולות	-8790
▁עשירים	-8791
▁רצינית	-8792
▁בחודשים	-8793
▁המנהלים	-8794
▁הקיצוני	-8795
▁לתוכנית	-8796
▁המובילים	-8797
ED	-8798
אפ	-8799
נתר	-8800
-196	-8801
עשרה	-8802
▁''.	-8803
▁בפל	-8804
▁מסל	-8805
▁נער	-8806
▁נשמ	-8807
▁פנה	-8808
▁שים	-8809
▁הלכו	-8810
▁המדה	-8811
▁הנכס	-8812
▁העוס	-8813
▁חמים	-8814
▁טוני	-8815
▁לכבד	-8816
▁מוסר	-8817
▁עמנו	-8818
▁פותח	-8819
▁אפריל	-8820
▁חופשה	-8821
▁יחידה	-8822
▁כוכבי	-8823
▁לנשיא	-8824
▁מתכנן	-8825
▁שלילי	-8826
▁הדרומי	-8827
▁לארגון	-8828
▁דיווחים	-8829
▁לאינטרנט	-8830
PS	-8831
yn	-8832
ִּ	-8833
ִּ	-8834
-40	-8835
גתי	-8836
ואת	-8837
זבת	-8838
נאט	-8839
רופ	-8840
▁Co	-8841
▁Pe	-8842
געתי	-8843
▁בדף	-8844
▁ביע	-8845
▁סמי	-8846
▁עיכ	-8847
וונות	-8848
▁אשמה	-8849
▁בגוד	-8850
▁בדקו	-8851
▁בודה	-8852
▁דומי	-8853
▁ההרג	-8854
▁הכבי	-8855
▁הסבל	-8856
▁הרחק	-8857
▁נוסע	-8858
▁קנדי	-8859
▁שדות	-8860
▁תמצא	-8861
יאונים	-8862
▁במשהו	-8863
▁דורות	-8864
▁המבצע	-8865
▁המטבח	-8866
▁המידה	-8867
▁הנוגע	-8868
▁הקורס	-8869
▁הרגשה	-8870
▁לוחות	-8871
▁מועיל	-8872
▁מסגרת	-8873
▁עיבוד	-8874
▁ענקית	-8875
▁הטבעית	-8876
▁הלוואה	-8877
▁יושבים	-8878
▁להתפתח	-8879
▁נמוכים	-8880
▁ההוצאות	-8881
▁מופיעים	-8882
▁מרכיבים	-8883
▁אמריקאית	-8884
ah	-8885
ink	-8886
נוב	-8887
▁גמ	-8888
מודי	-8889
▁בהע	-8890
▁העמ	-8891
▁ורא	-8892
▁ירח	-8893
▁נטו	-8894
▁תשא	-8895
ומכים	-8896
סויים	-8897
▁אבוד	-8898
▁התבו	-8899
▁התפש	-8900
▁ובמק	-8901
▁יראה	-8902
▁לברר	-8903
▁לעשן	-8904
▁לפרו	-8905
▁מאזן	-8906
▁נדבר	-8907
▁שאוה	-8908
▁במידת	-8909
▁הדרום	-8910
▁המכתב	-8911
▁העלות	-8912
▁חזקות	-8913
▁רצונו	-8914
▁אורגני	-8915
▁החופשי	-8916
▁להורים	-8917
▁מצלמות	-8918
▁פסיכיא	-8919
▁הרביעית	-8920
▁קלינטון	-8921
▁ההיסטורי	-8922
▁אינטלקטוא	-8923
▁האוקיינוס	-8924
AR	-8925
ect	-8926
ּוֹ	-8927
דרי	-8928
כיה	-8929
עתה	-8930
ance	-8931
בורת	-8932
זאזל	-8933
נסית	-8934
▁10%	-8935
▁Tra	-8936
▁אֶת	-8937
▁הזכ	-8938
▁וטי	-8939
▁זקן	-8940
▁לתא	-8941
ישראל	-8942
▁בוגר	-8943
▁בצבע	-8944
▁דרכי	-8945
▁הסוד	-8946
▁טועה	-8947
▁כאבי	-8948
▁כריס	-8949
▁מכדי	-8950
▁קצין	-8951
▁בקרבת	-8952
▁ברלין	-8953
▁הצורה	-8954
▁לגייס	-8955
▁למחוק	-8956
▁מכונת	-8957
▁ערבית	-8958
▁קולומ	-8959
▁איכשהו	-8960
▁ברוכים	-8961
▁דיווחו	-8962
▁האגודה	-8963
▁הפתיחה	-8964
▁התייחס	-8965
▁ולראות	-8966
▁לעזאזל	-8967
▁המשפחות	-8968
▁דמוקרטית	-8969
וין	-8970
טחת	-8971
כזב	-8972
▁Gl	-8973
▁Jo	-8974
▁ph	-8975
ical	-8976
ווני	-8977
מישה	-8978
נוני	-8979
▁מכר	-8980
▁מרד	-8981
▁רגש	-8982
▁אישר	-8983
▁אמרת	-8984
▁הפרה	-8985
▁טבעת	-8986
▁כוחו	-8987
▁מדור	-8988
▁עזבו	-8989
▁שופט	-8990
נקציות	-8991
▁אופנה	-8992
▁במהרה	-8993
▁הקבלה	-8994
▁ובעלי	-8995
▁ומדוע	-8996
▁זילנד	-8997
▁לאותו	-8998
▁לטעון	-8999
▁נפוצה	-9000
▁שעליו	-9001
▁באירוע	-9002
▁החשיבה	-9003
▁הפרעות	-9004
▁משפיעה	-9005
▁עשורים	-9006
▁רגליים	-9007
▁ביצועים	-9008
▁ביקורות	-9009
▁כשמדובר	-9010
▁למדיניות	-9011
▁מיקרוסופט	-9012
▁International	-9013
ise	-9014
איש	-9015
דין	-9016
זוג	-9017
▁3:	-9018
▁Fl	-9019
בטיח	-9020
▁גלו	-9021
▁הדף	-9022
▁הקצ	-9023
▁לצע	-9024
בולות	-9025
נושות	-9026
▁בעסק	-9027
▁בשבת	-9028
▁דווח	-9029
▁לימד	-9030
▁מזהה	-9031
▁מחלי	-9032
▁נוהג	-9033
▁קולו	-9034
▁ריקה	-9035
גוררים	-9036
▁Human	-9037
▁הגרעי	-9038
▁הטבעת	-9039
▁היעדר	-9040
▁נכנסו	-9041
▁תחנות	-9042
▁אדוארד	-9043
▁באיראן	-9044
▁העלייה	-9045
▁נכונים	-9046
▁ראויים	-9047
▁לביטחון	-9048
▁מהאנשים	-9049
▁אוקראינה	-9050
▁הסיכויים	-9051
▁פוליטיקאים	-9052
8.	-9053
ER	-9054
me	-9055
ase	-9056
משה	-9057
ודעת	-9058
▁תפס	-9059
ivers	-9060
רואיד	-9061
▁בונה	-9062
▁בטקס	-9063
▁החיס	-9064
▁הציג	-9065
▁ואלה	-9066
▁חולי	-9067
▁חיוך	-9068
▁כביש	-9069
▁לחסל	-9070
▁לתרג	-9071
▁מודא	-9072
▁מולי	-9073
▁עושר	-9074
▁בעמוד	-9075
▁ההבנה	-9076
▁המוסר	-9077
▁המרחק	-9078
▁הפעלת	-9079
▁כלכלה	-9080
▁מינים	-9081
▁עוברת	-9082
▁עיניו	-9083
▁הרכישה	-9084
▁לחינוך	-9085
▁נסיבות	-9086
▁הבריטים	-9087
▁מתכוונת	-9088
▁הסימפטומים	-9089
נכ	-9090
-70	-9091
▁5,	-9092
ביאו	-9093
ספקת	-9094
שבתי	-9095
▁אשל	-9096
▁בסט	-9097
▁העכ	-9098
▁נכס	-9099
▁סטא	-9100
▁שתע	-9101
▁ברכה	-9102
▁המלו	-9103
▁השכר	-9104
▁לרעה	-9105
▁עצות	-9106
▁Watch	-9107
▁בקשות	-9108
▁הבטיח	-9109
▁ההכרה	-9110
▁הצפון	-9111
▁חזרתי	-9112
▁יוצרת	-9113
▁קוראת	-9114
▁קירות	-9115
▁ההזמנה	-9116
▁הרשמית	-9117
▁לרפואה	-9118
▁במערכות	-9119
▁בתעשיית	-9120
▁לעובדים	-9121
▁מבחינתי	-9122
▁ספציפיים	-9123
''	-9124
3]	-9125
4.	-9126
ai	-9127
אתר	-9128
מטי	-9129
▁59	-9130
▁Sc	-9131
טיבה	-9132
כיות	-9133
ניתי	-9134
ציונ	-9135
שוות	-9136
▁50%	-9137
▁בנג	-9138
▁בקט	-9139
▁דון	-9140
▁ומצ	-9141
▁Love	-9142
▁בוכה	-9143
▁במוע	-9144
▁בקלי	-9145
▁ברגל	-9146
▁המתח	-9147
▁הפלי	-9148
▁חלון	-9149
▁מעני	-9150
▁משמע	-9151
▁עברי	-9152
▁שבוצ	-9153
▁שהוב	-9154
▁שורה	-9155
▁בשאלה	-9156
▁החזיק	-9157
▁ותמיד	-9158
▁יהפוך	-9159
▁כתיבה	-9160
▁לוקחת	-9161
▁ממקום	-9162
▁מנוחה	-9163
▁מתמשך	-9164
▁תומכת	-9165
▁אדריכל	-9166
▁הופיעו	-9167
▁הכללים	-9168
▁הניהול	-9169
▁הרלוונ	-9170
▁התפילה	-9171
▁להשוות	-9172
▁למניעת	-9173
▁לקהילה	-9174
▁סבורים	-9175
▁בזהירות	-9176
▁בפרויקט	-9177
▁הקמפיין	-9178
▁מורכבות	-9179
▁אוכלוסיית	-9180
▁באוסטרליה	-9181
יתו	-9182
▁It	-9183
אנית	-9184
ציית	-9185
▁בדק	-9186
▁גרה	-9187
▁וחי	-9188
▁ורי	-9189
▁לנד	-9190
ights	-9191
וסיות	-9192
נונים	-9193
עיפים	-9194
▁אייר	-9195
▁אשתי	-9196
▁הדוק	-9197
▁וייט	-9198
▁להיא	-9199
▁מכסה	-9200
▁עמדו	-9201
▁פטרי	-9202
▁רגוע	-9203
ינויים	-9204
▁בשמחה	-9205
▁הגרסה	-9206
▁הכירו	-9207
▁השכרת	-9208
▁התקשר	-9209
▁חשיפה	-9210
▁כתיבת	-9211
▁להקמת	-9212
▁לצחוק	-9213
▁ציפור	-9214
▁קבועה	-9215
▁הכספים	-9216
▁התקווה	-9217
▁התקפות	-9218
▁ולעתים	-9219
▁זהירות	-9220
▁יסודות	-9221
▁מאנשים	-9222
▁מפחדים	-9223
▁פלסטיק	-9224
▁צרפתית	-9225
▁שותפות	-9226
▁בעיניים	-9227
▁הסוכנות	-9228
▁השרירים	-9229
▁טכניקות	-9230
▁מועמדים	-9231
▁מיוחדות	-9232
▁מסתכלים	-9233
%.	-9234
olog	-9235
port	-9236
בעון	-9237
דיון	-9238
ידוד	-9239
▁(2)	-9240
▁800	-9241
▁???	-9242
▁Can	-9243
▁בחש	-9244
▁בצה	-9245
▁גוד	-9246
▁דבש	-9247
▁ווד	-9248
▁ילי	-9249
▁ציי	-9250
וגרפי	-9251
נרלים	-9252
▁"...	-9253
▁2001	-9254
▁באוט	-9255
▁ירדן	-9256
▁מבוק	-9257
▁נאות	-9258
▁נעשו	-9259
▁פורד	-9260
▁רובי	-9261
▁בדירה	-9262
▁במחנה	-9263
▁הבחור	-9264
▁הטענה	-9265
▁ימשיך	-9266
▁כאבים	-9267
▁מישהי	-9268
▁מכירת	-9269
▁פיקוח	-9270
▁שיפוט	-9271
▁המיוחד	-9272
▁התכנון	-9273
▁יצורים	-9274
▁לאמנות	-9275
▁להתפלל	-9276
▁קמפיין	-9277
▁אוטומטית	-9278
▁האפיפיור	-9279
AT	-9280
גנו	-9281
גרו	-9282
וצא	-9283
נקה	-9284
▁1)	-9285
▁אַ	-9286
▁חצ	-9287
ound	-9288
דילה	-9289
▁Col	-9290
▁אפס	-9291
▁בגל	-9292
▁וור	-9293
▁לאל	-9294
▁לבר	-9295
▁למכ	-9296
▁נוף	-9297
▁שהג	-9298
שימים	-9299
▁(199	-9300
▁האוב	-9301
▁הוות	-9302
▁היחס	-9303
▁הכספ	-9304
▁כתבו	-9305
▁מיות	-9306
▁רפור	-9307
▁שמטר	-9308
▁תושב	-9309
ולוגים	-9310
שתתפות	-9311
▁איגוד	-9312
▁איסוף	-9313
▁בפארק	-9314
▁בתוכו	-9315
▁דלתות	-9316
▁המשמש	-9317
▁השכלה	-9318
▁ואומר	-9319
▁	-9320
י	-9321
ו	-9322
ה	-9323
ל	-9324
ת	-9325
א	-9326
ר	-9327
מ	-9328
ב	-9329
ש	-9330
ם	-9331
נ	-9332
ע	-9333
ד	-9334
כ	-9335
ח	-9336
ק	-9337
פ	-9338
.	-9339
ס	-9340
ג	-9341
,	-9342
ט	-9343
צ	-9344
ן	-9345
ז	-9346
ך	-9347
"	-9348
-	-9349
e	-9350
0	-9351
1	-9352
ף	-9353
?	-9354
a	-9355
o	-9356
i	-9357
2	-9358
:	-9359
n	-9360
r	-9361
t	-9362
'	-9363
)	-9364
(	-9365
s	-9366
l	-9367
ץ	-9368
9	-9369
5	-9370
3	-9371
4	-9372
c	-9373
h	-9374
d	-9375
u	-9376
–	-9377
8	-9378
6	-9379
7	-9380
S	-9381
!	-9382
m	-9383
A	-9384
C	-9385
g	-9386
y	-9387
T	-9388
P	-9389
p	-9390
M	-9391
I	-9392
B	-9393
D	-9394
E	-9395
”	-9396
]	-9397
[	-9398
f	-9399
b	-9400
R	-9401
L	-9402
k	-9403
%	-9404
;	-9405
N	-9406
v	-9407
O	-9408
H	-9409
w	-9410
G	-9411
ּ	-9412
F	-9413
“	-9414
W	-9415
/	-9416
ָ	-9417
ְ	-9418
V	-9419
ַ	-9420
ִ	-9421
U	-9422
’	-9423
x	-9424
ֹ	-9425
ֶ	-9426
־	-9427
K	-9428
״	-9429
J	-9430
ֵ	-9431
Y	-9432
z	-9433
*	-9434
X	-9435
ׁ	-9436
>	-9437
•	-9438
+	-9439
—	-9440
»	-9441
|	-9442
&	-9443
$	-9444
‘	-9445
Q	-9446
j	-9447
Z	-9448
ֲ	-9449
#	-9450
q	-9451
׳	-9452
=	-9453
^	-9454
\	-9455
·	-9456
ׂ	-9457
‬	-9458
}	-9459
{	-9460
_	-9461
~	-9462
ֱ	-9463
«	-9464
`	-9465
→	-9466
é	-9467
‭	-9468
<	-9469
@	-9470
́	-9471
	-9472
←	-9473
🙂	-9474
®	-9475
ֻ	-9476
‫	-9477
°	-9478
׃	-9479
₪	-9480
×	-9481
á	-9482
‪	-9483
€	-9484
′	-9485
↑	-9486
♥	-9487
‐	-9488
í	-9489
›	-9490
ö	-9491
£	-9492
ó	-9493
ü	-9494
©	-9495
ا	-9496
ل	-9497
■	-9498
¶	-9499
●	-9500
ä	-9501
♦	-9502
↩	-9503
­	-9504
è	-9505
â	-9506
◄	-9507
▼	-9508
م	-9509
😉	-9510
	-9511
„	-9512
§	-9513
ç	-9514
α	-9515
ي	-9516
∗	-9517
ر	-9518
	-9519
à	-9520
ο	-9521
ֿ	-9522
−	-9523
►	-9524
τ	-9525
و	-9526
‹	-9527
ú	-9528
λ	-9529
ب	-9530
َ	-9531
👈	-9532
š	-9533
ʉ	-9534
κ	-9535
а	-9536
‡	-9537
️	-9538
¬	-9539
ß	-9540
ł	-9541
ž	-9542
̄	-9543
θ	-9544
о	-9545
ֳ	-9546
ع	-9547
ن	-9548
	-9549
å	-9550
ê	-9551
ñ	-9552
μ	-9553
ρ	-9554
ς	-9555
⬅	-9556
￼	-9557
ō	-9558
ι	-9559
π	-9560
и	-9561
⁄	-9562
▪	-9563
▲	-9564
♪	-9565
	-9566
±	-9567
É	-9568
Δ	-9569
γ	-9570
ν	-9571
φ	-9572
н	-9573
ِ	-9574
ی	-9575
😛	-9576
🙁	-9577
¦	-9578
ã	-9579
ć	-9580
ή	-9581
β	-9582
Р	-9583
х	-9584
ت	-9585
س	-9586
ه	-9587
‍	-9588
‒	-9589
‚	-9590
√	-9591
	-9592
👑	-9593
¢	-9594
æ	-9595
ë	-9596
ā	-9597
č	-9598
Ł	-9599
ş	-9600
Θ	-9601
Ω	-9602
ά	-9603
ε	-9604
σ	-9605
О	-9606
в	-9607
с	-9608
ֽ	-9609
أ	-9610
ج	-9611
ح	-9612
د	-9613
ش	-9614
ك	-9615
⁠	-9616
∈	-9617
⋅	-9618
♫	-9619
	-9620
😀	-9621
😊	-9622
	-9623
	-9624
	-9625
Î	-9626
Ö	-9627
Ü	-9628
ø	-9629
ś	-9630
ɾ	-9631
Σ	-9632
η	-9633
υ	-9634
χ	-9635
С	-9636
Т	-9637
р	-9638
і	-9639
֥	-9640
ة	-9641
ذ	-9642
ق	-9643
ُ	-9644
ْ	-9645
٠	-9646
ल	-9647
―	-9648
†	-9649
⁡	-9650
□	-9651
★	-9652
⚡	-9653
✔	-9654
😂	-9655
🤔	-9656
	-9657
	-9658
¿	-9659
Á	-9660
Ç	-9661
ð	-9662
ò	-9663
õ	-9664
ù	-9665
û	-9666
ý	-9667
ÿ	-9668
ă	-9669
Č	-9670
Đ	-9671
ę	-9672
ğ	-9673
ħ	-9674
ī	-9675
İ	-9676
ň	-9677
ő	-9678
œ	-9679
ţ	-9680
ū	-9681
ż	-9682
ɒ	-9683
ʻ	-9684
ˌ	-9685
̈	-9686
Ε	-9687
έ	-9688
ί	-9689
δ	-9690
В	-9691
К	-9692
Н	-9693
д	-9694
е	-9695
й	-9696
п	-9697
т	-9698
у	-9699
ф	-9700
ц	-9701
ч	-9702
я	-9703
֖	-9704
װ	-9705
إ	-9706
خ	-9707
ط	-9708
ा	-9709
ា	-9710
‰	-9711
↓	-9712
∘	-9713
∙	-9714
∽	-9715
≠	-9716
≥	-9717
▶	-9718
☀	-9719
☆	-9720
☺	-9721
♠	-9722
✰	-9723
❻	-9724
❽	-9725
⟩	-9726
⦁	-9727
、	-9728
の	-9729
ル	-9730
ー	-9731
日	-9732
黑	-9733
	-9734
	-9735
	-9736
📄	-9737
🔥	-9738
😁	-9739
😃	-9740
😍	-9741
😚	-9742
¡	-9743
È	-9744
Ë	-9745
Ó	-9746
Ø	-9747
Ú	-9748
Û	-9749
ï	-9750
ô	-9751
÷	-9752
Ġ	-9753
ŋ	-9754
Ś	-9755
Š	-9756
Ÿ	-9757
Ż	-9758
Ž	-9759
ư	-9760
ș	-9761
ț	-9762
ɓ	-9763
ə	-9764
ɛ	-9765
ɸ	-9766
ʊ	-9767
ʌ	-9768
ʼ	-9769
ˈ	-9770
ː	-9771
Α	-9772
Β	-9773
Κ	-9774
Τ	-9775
Φ	-9776
Χ	-9777
Ψ	-9778
ω	-9779
ό	-9780
Б	-9781
Д	-9782
П	-9783
Ы	-9784
Я	-9785
г	-9786
ж	-9787
к	-9788
л	-9789
ш	-9790
ы	-9791
Ҫ	-9792
Ӑ	-9793
Ӗ	-9794
ӝ	-9795
Ӳ	-9796
Ե	-9797
Խ	-9798
Յ	-9799
Ս	-9800
ֺ	-9801
ׅ	-9802
ױ	-9803
آ	-9804
ئ	-9805
ث	-9806
ص	-9807
ف	-9808
ى	-9809
١	-9810
٢	-9811
٨	-9812
٩	-9813
ٰ	-9814
ٹ	-9815
چ	-9816
ھ	-9817
ߟ	-9818
ߡ	-9819
ं	-9820
औ	-9821
ग	-9822
त	-9823
द	-9824
न	-9825
ब	-9826
ि	-9827
ी	-9828
े	-9829
्	-9830
ં	-9831
ગ	-9832
બ	-9833
લ	-9834
ો	-9835
༓	-9836
ខ	-9837
ភ	-9838
ម	-9839
រ	-9840
ស	-9841
ែ	-9842
្	-9843
ṅ	-9844
ạ	-9845
ả	-9846
ἀ	-9847
ὥ	-9848
ῦ	-9849
‮	-9850
⁨	-9851
⁩	-9852
₹	-9853
⇒	-9854
∀	-9855
∂	-9856
∆	-9857
∞	-9858
≪	-9859
≿	-9860
⋯	-9861
─	-9862
▸	-9863
▾	-9864
◻	-9865
◼	-9866
☚	-9867
☝	-9868
♔	-9869
♣	-9870
✌	-9871
✯	-9872
❁	-9873
❓	-9874
❤	-9875
❷	-9876
❼	-9877
❾	-9878
➝	-9879
⟨	-9880
⟵	-9881
⭐	-9882
ア	-9883
ギ	-9884
コ	-9885
シ	-9886
ス	-9887
ド	-9888
ュ	-9889
㪗	-9890
三	-9891
东	-9892
主	-9893
九	-9894
京	-9895
介	-9896
以	-9897
会	-9898
元	-9899
列	-9900
反	-9901
古	-9902
名	-9903
士	-9904
大	-9905
学	-9906
川	-9907
工	-9908
幕	-9909
广	-9910
府	-9911
式	-9912
徳	-9913
慢	-9914
拾	-9915
旦	-9916
本	-9917
来	-9918
株	-9919
民	-9920
浪	-9921
海	-9922
点	-9923
理	-9924
疽	-9925
社	-9926
穂	-9927
空	-9928
章	-9929
第	-9930
简	-9931
算	-9932
絵	-9933
義	-9934
聲	-9935
航	-9936
色	-9937
茶	-9938
蒙	-9939
術	-9940
襲	-9941
詞	-9942
赤	-9943
逆	-9944
道	-9945
都	-9946
鈴	-9947
院	-9948
髓	-9949
黒	-9950
랙	-9951
블	-9952
엠	-9953
	-9954
	-9955
	-9956
	-9957
	-9958
	-9959
	-9960
	-9961
	-9962
	-9963
﴾	-9964
﴿	-9965
🇸	-9966
🇾	-9967
🌈	-9968
🌎	-9969
🍻	-9970
🎉	-9971
🎶	-9972
🏽	-9973
🐔	-9974
👉	-9975
💉	-9976
💔	-9977
💖	-9978
💜	-9979
💫	-9980
📁	-9981
😄	-9982
😅	-9983
😆	-9984
😈	-9985
😏	-9986
😐	-9987
😒	-9988
😜	-9989
😦	-9990
🙌	-9991
🚖	-9992
🚘	-9993
🤨	-9994
🦁	-9995
🧼	-9996
