[UNK]	0
[CLS]	1
[SEP]	2
[PAD]	3
[MASK]	4
!	5
"	6
#	7
$	8
%	9
&	10
'	11
(	12
)	13
*	14
+	15
,	16
-	17
.	18
/	19
0	20
1	21
2	22
3	23
4	24
5	25
6	26
7	27
8	28
9	29
:	30
;	31
<	32
=	33
>	34
?	35
@	36
[	37
\	38
]	39
^	40
_	41
`	42
a	43
b	44
c	45
d	46
e	47
f	48
g	49
h	50
i	51
j	52
k	53
l	54
m	55
n	56
o	57
p	58
q	59
r	60
s	61
t	62
u	63
v	64
w	65
x	66
y	67
z	68
{	69
|	70
}	71
~	72
	73
	74
	75
	76
	77
	78
	79
	80
	81
	82
	83
¡	84
¢	85
£	86
¦	87
§	88
©	89
«	90
¬	91
­	92
®	93
°	94
±	95
¶	96
·	97
»	98
¿	99
×	100
ß	101
à	102
á	103
â	104
ã	105
ä	106
å	107
æ	108
ç	109
è	110
é	111
ê	112
ë	113
í	114
î	115
ï	116
ð	117
ñ	118
ò	119
ó	120
ô	121
õ	122
ö	123
÷	124
ø	125
ù	126
ú	127
û	128
ü	129
ý	130
ÿ	131
ā	132
ă	133
ć	134
č	135
đ	136
ę	137
ğ	138
ġ	139
ħ	140
ī	141
ł	142
ň	143
ŋ	144
ō	145
ő	146
œ	147
ś	148
ş	149
š	150
ţ	151
ū	152
ż	153
ž	154
ư	155
ș	156
ț	157
ɒ	158
ɓ	159
ə	160
ɛ	161
ɸ	162
ɾ	163
ʉ	164
ʊ	165
ʌ	166
ʻ	167
ʼ	168
ˈ	169
ˌ	170
ː	171
́	172
̄	173
̇	174
̈	175
ά	176
έ	177
ή	178
ί	179
α	180
β	181
γ	182
δ	183
ε	184
η	185
θ	186
ι	187
κ	188
λ	189
μ	190
ν	191
ο	192
π	193
ρ	194
ς	195
σ	196
τ	197
υ	198
φ	199
χ	200
ψ	201
ω	202
ό	203
а	204
б	205
в	206
г	207
д	208
е	209
ж	210
и	211
й	212
к	213
л	214
н	215
о	216
п	217
р	218
с	219
т	220
у	221
ф	222
х	223
ц	224
ч	225
ш	226
ы	227
я	228
і	229
ҫ	230
ӑ	231
ӗ	232
ӝ	233
ӳ	234
ե	235
խ	236
յ	237
ս	238
֖	239
֥	240
ְ	241
ֱ	242
ֲ	243
ֳ	244
ִ	245
ֵ	246
ֶ	247
ַ	248
ָ	249
ֹ	250
ֺ	251
ֻ	252
ּ	253
ֽ	254
־	255
ֿ	256
ׁ	257
ׂ	258
׃	259
ׅ	260
א	261
ב	262
ג	263
ד	264
ה	265
ו	266
ז	267
ח	268
ט	269
י	270
ך	271
כ	272
ל	273
ם	274
מ	275
ן	276
נ	277
ס	278
ע	279
ף	280
פ	281
ץ	282
צ	283
ק	284
ר	285
ש	286
ת	287
װ	288
ױ	289
׳	290
״	291
آ	292
أ	293
إ	294
ئ	295
ا	296
ب	297
ة	298
ت	299
ث	300
ج	301
ح	302
خ	303
د	304
ذ	305
ر	306
س	307
ش	308
ص	309
ط	310
ع	311
ف	312
ق	313
ك	314
ل	315
م	316
ن	317
ه	318
و	319
ى	320
ي	321
َ	322
ُ	323
ِ	324
ْ	325
٠	326
١	327
٢	328
٨	329
٩	330
ٰ	331
ٹ	332
چ	333
ھ	334
ی	335
ߟ	336
ߡ	337
ं	338
औ	339
ग	340
त	341
द	342
न	343
ब	344
ल	345
ा	346
ि	347
ी	348
े	349
्	350
ં	351
ગ	352
બ	353
લ	354
ો	355
༓	356
ខ	357
ភ	358
ម	359
រ	360
ស	361
ា	362
ែ	363
្	364
ṅ	365
ạ	366
ả	367
ἀ	368
ὥ	369
ῦ	370
​	371
‌	372
‍	373
‎	374
‏	375
‐	376
‒	377
–	378
—	379
―	380
‘	381
’	382
‚	383
“	384
”	385
„	386
†	387
‡	388
•	389
‪	390
‫	391
‬	392
‭	393
‮	394
‰	395
′	396
‹	397
›	398
⁄	399
⁠	400
⁡	401
⁨	402
⁩	403
₪	404
€	405
₹	406
←	407
↑	408
→	409
↓	410
↩	411
⇒	412
∀	413
∂	414
∆	415
∈	416
−	417
∗	418
∘	419
∙	420
√	421
∞	422
∽	423
≠	424
≥	425
≪	426
≿	427
⋅	428
⋯	429
─	430
■	431
□	432
▪	433
▲	434
▶	435
▸	436
►	437
▼	438
▾	439
◄	440
●	441
◻	442
◼	443
☀	444
★	445
☆	446
☚	447
☝	448
☺	449
♔	450
♠	451
♣	452
♥	453
♦	454
♪	455
♫	456
⚡	457
✌	458
✔	459
✯	460
✰	461
❁	462
❓	463
❤	464
❷	465
❻	466
❼	467
❽	468
❾	469
➝	470
⟨	471
⟩	472
⟵	473
⦁	474
⬅	475
⭐	476
、	477
の	478
ア	479
ギ	480
コ	481
シ	482
ス	483
ド	484
ュ	485
ル	486
ー	487
㪗	488
三	489
东	490
主	491
九	492
京	493
介	494
以	495
会	496
元	497
列	498
反	499
古	500
名	501
士	502
大	503
学	504
川	505
工	506
幕	507
广	508
府	509
式	510
徳	511
慢	512
拾	513
日	514
旦	515
本	516
来	517
株	518
民	519
浪	520
海	521
点	522
理	523
疽	524
社	525
穂	526
空	527
章	528
第	529
简	530
算	531
絵	532
義	533
聲	534
航	535
色	536
茶	537
蒙	538
術	539
襲	540
詞	541
赤	542
逆	543
道	544
都	545
鈴	546
院	547
髓	548
黑	549
黒	550
랙	551
블	552
엠	553
	554
	555
	556
	557
	558
	559
	560
	561
	562
	563
	564
	565
	566
	567
	568
﴾	569
﴿	570
️	571
﻿	572
￼	573
�	574
🇸	575
🇾	576
🌈	577
🌎	578
🍻	579
🎉	580
🎶	581
🏽	582
🐔	583
👈	584
👉	585
👑	586
💉	587
💔	588
💖	589
💜	590
💫	591
📁	592
📄	593
🔥	594
😀	595
😁	596
😂	597
😃	598
😄	599
😅	600
😆	601
😈	602
😉	603
😊	604
😍	605
😏	606
😐	607
😒	608
😚	609
😛	610
😜	611
😦	612
🙁	613
🙂	614
🙌	615
🚖	616
🚘	617
🤔	618
🤨	619
🦁	620
🧼	621
##ו	622
##ּ	623
##כ	624
##ַ	625
##ל	626
##r	627
##a	628
##t	629
##o	630
##i	631
##ח	632
##ה	633
##m	634
##ע	635
##ז	636
##י	637
##ב	638
##ת	639
##מ	640
##ר	641
##ד	642
##z	643
##e	644
##h	645
##ש	646
##פ	647
##ג	648
##נ	649
##ם	650
##ס	651
##ק	652
##צ	653
##ן	654
##ץ	655
##u	656
##y	657
##א	658
##ט	659
##n	660
##s	661
##c	662
##ף	663
##g	664
##l	665
##3	666
##p	667
##é	668
##ך	669
##7	670
##1	671
##8	672
##0	673
##b	674
##d	675
##w	676
##ֹ	677
##ֵ	678
##6	679
##ְ	680
##k	681
##>	682
##ֶ	683
##4	684
##9	685
##v	686
##ִ	687
##ָ	688
##)	689
##.	690
##}	691
##&	692
###	693
##x	694
##2	695
##’	696
##f	697
##5	698
##ׁ	699
##!	700
##"	701
##‏	702
##q	703
##‎	704
##,	705
##ֲ	706
##х	707
##í	708
##j	709
##?	710
##[	711
##<	712
##/	713
##{	714
##ò	715
##á	716
##ֻ	717
##$	718
##]	719
##ل	720
##خ	721
##ي	722
##ج	723
##'	724
##ׂ	725
##ֱ	726
##‘	727
##:	728
##‬	729
##-	730
##ā	731
##”	732
##ֿ	733
##ɛ	734
##ˌ	735
##ʊ	736
##ː	737
##τ	738
##ι	739
##έ	740
##ν	741
##ο	742
##υ	743
##+	744
##@	745
##π	746
##`	747
##ž	748
##ی	749
##ر	750
##ا	751
##ن	752
##ֳ	753
##►	754
##(	755
##↩	756
##ü	757
##​	758
##¢	759
##🚖	760
##̇	761
##â	762
##^	763
##ʉ	764
##–	765
##~	766
##�	767
##ö	768
##♪	769
##õ	770
##״	771
##\	772
##*	773
##“	774
##ë	775
##′	776
##;	777
##و	778
##ط	779
##ç	780
##ー	781
##ド	782
##ギ	783
##ア	784
##ス	785
##٩	786
##📁	787
##_	788
##û	789
##ú	790
##ñ	791
##ά	792
##ρ	793
##聲	794
##å	795
##ø	796
##ó	797
##à	798
##ω	799
##َ	800
##♥	801
##ã	802
##ő	803
##δ	804
##ł	805
##٢	806
##٠	807
##	808
##ả	809
##ֽ	810
##®	811
##»	812
##ħ	813
##|	814
##ä	815
##%	816
##α	817
##ῦ	818
##ς	819
##è	820
##ṅ	821
##ھ	822
##ٹ	823
##ح	824
##م	825
##د	826
##ِ	827
##ك	828
##ð	829
##ō	830
##ş	831
##ß	832
##š	833
##‍	834
##§	835
##	836
##ា	837
##ស	838
##ខ	839
##្	840
##ម	841
##ែ	842
##រ	843
##ֺ	844
##—	845
##λ	846
##η	847
##σ	848
##κ	849
##ή	850
##€	851
##յ	852
##խ	853
##ե	854
##چ	855
##ه	856
##‌	857
##‪	858
##č	859
##ň	860
##س	861
##ï	862
##ś	863
##£	864
##ạ	865
##茶	866
##‭	867
##֥	868
##θ	869
##ș	870
##	871
##•	872
##블	873
##랙	874
##і	875
##ɒ	876
##œ	877
##=	878
##🤨	879
##ب	880
##府	881
##б	882
##о	883
##н	884
##р	885
##ă	886
##ţ	887
##ش	888
##́	889
##п	890
##е	891
##а	892
##־	893
##😚	894
##׳	895
##ׅ	896
##ğ	897
##	898
##🦁	899
##ױ	900
##∗	901
##ш	902
##㪗	903
##ε	904
##β	905
##ū	906
##֖	907
##ê	908
##г	909
##и	910
##л	911
##с	912
##д	913
##‡	914
##ق	915
##ɾ	916
##😍	917
##😁	918
##￼	919
##ć	920
##ț	921
##‫	922
##й	923
##₪	924
##ં	925
##ગ	926
##લ	927
##ો	928
##ы	929
##ف	930
##в	931
##ч	932
##😜	933
##古	934
##襲	935
##来	936
##絵	937
##詞	938
##名	939
##东	940
##ż	941
##γ	942
##ý	943
##ं	944
##ग	945
##ल	946
##ा	947
##ί	948
##ة	949
##ī	950
##逆	951
##の	952
##ル	953
##シ	954
##ュ	955
##ٰ	956
##ذ	957
##ُ	958
##φ	959
##т	960
##я	961
##ت	962
##ى	963
##к	964
##ع	965
##→	966
##ʻ	967
##﻿	968
##🤔	969
##°	970
##	971
##🏽	972
##े	973
##त	974
##⁠	975
##­	976
##ि	977
##्	978
##ी	979
##ص	980
##▼	981
##װ	982
##◄	983
##›	984
##←	985
##色	986
##列	987
##ْ	988
##元	989
##ߟ	990
##ʼ	991
##介	992
##æ	993
##ư	994
##章	995
##算	996
##術	997
##ж	998
##👑	999
##î	1000
##都	1001
##民	1002
##主	1003
##義	1004
##―	1005
##ɓ	1006
##ث	1007
##⚡	1008
##💫	1009
##🎶	1010
##🌈	1011
##☀	1012
##😂	1013
##式	1014
##会	1015
##社	1016
##日	1017
##本	1018
##航	1019
##空	1020
##أ	1021
##工	1022
##学	1023
##院	1024
##ӝ	1025
##🇾	1026
##«	1027
##₹	1028
##🐔	1029
##ߡ	1030
##ʌ	1031
##ŋ	1032
##ə	1033
##у	1034
##ę	1035
##ô	1036
##★	1037
##ئ	1038
##ф	1039
##ц	1040
##„	1041
##ים	1042
##ות	1043
של	1044
##ור	1045
##ני	1046
##ול	1047
את	1048
##ית	1049
##נו	1050
המ	1051
##וד	1052
לה	1053
לא	1054
##יה	1055
##בר	1056
##יו	1057
##יר	1058
##יל	1059
##וב	1060
##וא	1061
הא	1062
על	1063
##נה	1064
##רי	1065
##די	1066
##יות	1067
##רו	1068
##מו	1069
##ין	1070
##שר	1071
##תי	1072
הי	1073
##ומ	1074
##ון	1075
##לי	1076
מה	1077
##נים	1078
##מה	1079
##ופ	1080
זה	1081
##כל	1082
##יש	1083
##יב	1084
הש	1085
בא	1086
##יד	1087
במ	1088
##נות	1089
אח	1090
הוא	1091
הח	1092
שה	1093
כל	1094
##ום	1095
או	1096
##רא	1097
הע	1098
##יק	1099
##לה	1100
למ	1101
##וק	1102
הת	1103
##וש	1104
מש	1105
##וח	1106
##יים	1107
##וצ	1108
מא	1109
##רים	1110
##יע	1111
##וע	1112
##וס	1113
וה	1114
##בל	1115
בע	1116
אי	1117
##פר	1118
שא	1119
##וג	1120
עם	1121
לע	1122
##כול	1123
##מש	1124
##לא	1125
##יא	1126
##זה	1127
הב	1128
הס	1129
מס	1130
אני	1131
##רב	1132
##לו	1133
בש	1134
##שים	1135
מת	1136
יש	1137
אות	1138
##רה	1139
הפ	1140
וא	1141
הק	1142
##יט	1143
##ותר	1144
##רג	1145
לש	1146
##נת	1147
##יס	1148
##שה	1149
##רכ	1150
##יפ	1151
מע	1152
היא	1153
הג	1154
##מת	1155
הה	1156
לפ	1157
אנ	1158
יותר	1159
##וכ	1160
##שו	1161
גם	1162
כי	1163
".	1164
יכול	1165
##מי	1166
בה	1167
##מים	1168
לב	1169
##נט	1170
היה	1171
מח	1172
אם	1173
##יי	1174
הצ	1175
##ולם	1176
לח	1177
##את	1178
##דים	1179
בת	1180
##נס	1181
הד	1182
##וו	1183
מק	1184
##רת	1185
לי	1186
##כם	1187
אמ	1188
##נית	1189
הם	1190
הכ	1191
##עות	1192
##אל	1193
##מן	1194
אל	1195
##רח	1196
בח	1197
לק	1198
שב	1199
##שות	1200
אבל	1201
##כו	1202
##שת	1203
כא	1204
##שי	1205
##מצ	1206
##לק	1207
וב	1208
20	1209
##חר	1210
##ינו	1211
##בים	1212
בס	1213
הנ	1214
הז	1215
##דר	1216
היו	1217
מב	1218
מצ	1219
##עת	1220
##לים	1221
##מות	1222
##יח	1223
##דם	1224
רק	1225
כדי	1226
##עה	1227
##רט	1228
##כה	1229
להיות	1230
##ירות	1231
##חת	1232
##דה	1233
אתה	1234
##ורה	1235
##יצ	1236
ומ	1237
שמ	1238
ול	1239
##סט	1240
##פת	1241
##חנו	1242
אפ	1243
אחד	1244
עב	1245
הט	1246
##וי	1247
##וף	1248
##אים	1249
##יון	1250
לת	1251
מכ	1252
##חה	1253
##ינ	1254
פע	1255
##..	1256
##ברים	1257
##חק	1258
##ירה	1259
כמו	1260
##אי	1261
כך	1262
##יותר	1263
עצ	1264
##אה	1265
##רות	1266
##וז	1267
##וט	1268
צרי	1269
להת	1270
##ילה	1271
##וך	1272
##קה	1273
19	1274
##ורים	1275
##חות	1276
מי	1277
##ונ	1278
##שב	1279
##כת	1280
##יתה	1281
שלה	1282
##חד	1283
בק	1284
##שראל	1285
לג	1286
זו	1287
מד	1288
##ודה	1289
##לב	1290
##פי	1291
##פק	1292
##עים	1293
לד	1294
##כן	1295
##אות	1296
##דול	1297
##שוב	1298
יה	1299
אז	1300
ביותר	1301
בכל	1302
עד	1303
הרא	1304
##כים	1305
שלך	1306
##בי	1307
##יתי	1308
המש	1309
טוב	1310
הר	1311
ידי	1312
##פה	1313
בר	1314
##ילו	1315
##לת	1316
בב	1317
##רך	1318
##לות	1319
##יג	1320
##וני	1321
זאת	1322
##ישה	1323
אנחנו	1324
##כות	1325
האם	1326
##ונים	1327
בג	1328
לס	1329
...	1330
וע	1331
שנ	1332
לו	1333
##לט	1334
מג	1335
##er	1336
##מיד	1337
הזה	1338
##יני	1339
אותו	1340
רוצ	1341
רא	1342
##ומר	1343
בד	1344
בפ	1345
שלי	1346
ממ	1347
##תה	1348
בין	1349
##וה	1350
אין	1351
שלנו	1352
##בה	1353
##סק	1354
##יום	1355
כמה	1356
##לח	1357
שע	1358
##מוד	1359
בכ	1360
##דות	1361
מדי	1362
לצ	1363
מפ	1364
הרב	1365
##שא	1366
מאוד	1367
##נג	1368
חד	1369
##זור	1370
##בות	1371
##00	1372
##בע	1373
##רק	1374
עבור	1375
##ופן	1376
##ראה	1377
לך	1378
חי	1379
201	1380
בט	1381
##ניות	1382
##in	1383
##בת	1384
##פים	1385
##פט	1386
לפני	1387
אנשים	1388
##ולי	1389
דבר	1390
לנו	1391
##ירים	1392
##רון	1393
##רוב	1394
##ניה	1395
##ברה	1396
בי	1397
אך	1398
לאחר	1399
##נק	1400
##רצ	1401
",	1402
שלו	1403
##ולה	1404
##on	1405
אנו	1406
לכ	1407
##ילים	1408
##פות	1409
לעשות	1410
##כש	1411
צריך	1412
עוד	1413
בצ	1414
ישראל	1415
##ימו	1416
##מד	1417
##יהם	1418
האח	1419
בני	1420
##יכ	1421
שהוא	1422
כבר	1423
איך	1424
##ונה	1425
##לך	1426
במק	1427
כמ	1428
מט	1429
הכל	1430
יוד	1431
אמר	1432
ולא	1433
##יבה	1434
##ושה	1435
אשר	1436
הרבה	1437
כאשר	1438
המק	1439
##טים	1440
נוס	1441
##ופה	1442
להג	1443
).	1444
שלא	1445
##an	1446
מז	1447
##של	1448
##ימ	1449
בו	1450
##חים	1451
חבר	1452
שלהם	1453
##ובר	1454
אתם	1455
אלה	1456
ממש	1457
##וכל	1458
##ורת	1459
שני	1460
אחר	1461
בנו	1462
נית	1463
גדול	1464
באופן	1465
שם	1466
אלו	1467
##מר	1468
יצ	1469
##נד	1470
וכ	1471
##רס	1472
היום	1473
אדם	1474
חלק	1475
##חי	1476
##יקה	1477
יל	1478
במה	1479
##קר	1480
רוצה	1481
##שמ	1482
יד	1483
שנים	1484
##סף	1485
תק	1486
##פשר	1487
##טר	1488
##ילות	1489
##דת	1490
אחת	1491
##יך	1492
##אר	1493
הבר	1494
כן	1495
כול	1496
נע	1497
##נשים	1498
##ar	1499
##וץ	1500
."	1501
##צב	1502
##ורי	1503
##ורך	1504
##ווה	1505
##תח	1506
##כון	1507
למע	1508
##es	1509
##en	1510
##קים	1511
אב	1512
##טי	1513
##or	1514
##קות	1515
בל	1516
##פור	1517
זמן	1518
העולם	1519
##יעה	1520
##ולוג	1521
##ולים	1522
##צע	1523
##הו	1524
לכל	1525
##at	1526
המח	1527
##וות	1528
הל	1529
##גר	1530
##שון	1531
אחרי	1532
לרא	1533
שיש	1534
##פס	1535
יכולים	1536
אפשר	1537
יום	1538
##תם	1539
עדי	1540
להם	1541
##al	1542
מיל	1543
שת	1544
אינ	1545
##צה	1546
בית	1547
המע	1548
המס	1549
תה	1550
הייתה	1551
שק	1552
##או	1553
##ידע	1554
תח	1555
##ידה	1556
200	1557
וח	1558
כש	1559
אותם	1560
##וחות	1561
איש	1562
##ורות	1563
##ריק	1564
יהיה	1565
במש	1566
##מית	1567
רג	1568
למה	1569
חוש	1570
קט	1571
להב	1572
פעם	1573
בז	1574
##יז	1575
##תר	1576
##כשיו	1577
ולה	1578
מספר	1579
##דו	1580
שכ	1581
נג	1582
##סים	1583
##ינים	1584
נת	1585
##נצ	1586
##ואה	1587
שאני	1588
הנו	1589
##רץ	1590
אחרים	1591
תמיד	1592
אף	1593
כאן	1594
ניתן	1595
שלכם	1596
##בוצ	1597
##יבות	1598
##רכת	1599
כת	1600
##שוט	1601
הראשו	1602
גב	1603
##לית	1604
בשנת	1605
וג	1606
רצ	1607
##פל	1608
הרו	1609
##תיים	1610
לט	1611
חשוב	1612
שהם	1613
##ומי	1614
th	1615
##רכז	1616
מוצ	1617
רבים	1618
##צר	1619
יח	1620
יע	1621
##כנ	1622
שנה	1623
##בוד	1624
אותה	1625
##ובה	1626
##פו	1627
##ומים	1628
נק	1629
חז	1630
המת	1631
##ניים	1632
##יוחד	1633
##דרך	1634
אלא	1635
לל	1636
ות	1637
##חו	1638
##דינה	1639
בעולם	1640
##בוע	1641
##וריה	1642
משהו	1643
האמ	1644
##ומה	1645
##פש	1646
התק	1647
משת	1648
איר	1649
נמצ	1650
הפר	1651
באמצ	1652
נה	1653
ללא	1654
##סת	1655
##צת	1656
##ימוש	1657
##ic	1658
##הים	1659
##דש	1660
עדיין	1661
הגדול	1662
עוב	1663
##ניין	1664
##ונות	1665
וש	1666
##סי	1667
##קט	1668
פי	1669
##לם	1670
##מין	1671
נש	1672
##ירת	1673
פשוט	1674
##רונות	1675
עכשיו	1676
לכם	1677
##עי	1678
ברי	1679
דרך	1680
##יאות	1681
##ודות	1682
##עם	1683
##מא	1684
שח	1685
##צל	1686
##it	1687
לראות	1688
באמת	1689
אומר	1690
##חיל	1691
##לל	1692
##יבור	1693
##בודה	1694
##ביר	1695
##בד	1696
##שית	1697
##יפור	1698
##ינה	1699
##אן	1700
##רום	1701
הספר	1702
##מעות	1703
להשת	1704
הראשון	1705
##ומות	1706
במהלך	1707
אולי	1708
הן	1709
##רד	1710
##יסט	1711
אפילו	1712
),	1713
חיים	1714
האדם	1715
##ודים	1716
התי	1717
##טה	1718
##רגיש	1719
10	1720
נח	1721
the	1722
##גים	1723
הזמן	1724
אותי	1725
שאתה	1726
##ביל	1727
כשה	1728
עשו	1729
##רמ	1730
##מונה	1731
להפ	1732
היל	1733
##ינט	1734
##עו	1735
אוה	1736
##קד	1737
עצמ	1738
ואת	1739
הול	1740
שזה	1741
משפ	1742
##ושים	1743
בדרך	1744
בבית	1745
אה	1746
החיים	1747
##בור	1748
##צד	1749
פת	1750
השני	1751
תע	1752
חייב	1753
##ליך	1754
##ציה	1755
נפ	1756
##בא	1757
##ולות	1758
##צי	1759
באמצעות	1760
חוק	1761
##st	1762
##בק	1763
##עט	1764
המא	1765
##ודי	1766
##יפול	1767
מוכ	1768
##צוע	1769
אד	1770
##עד	1771
##le	1772
יודע	1773
##צמ	1774
##צים	1775
מקום	1776
##גל	1777
לקבל	1778
##גה	1779
הרג	1780
##ייה	1781
##חון	1782
רוב	1783
##לסט	1784
אומ	1785
היתה	1786
קור	1787
##רבות	1788
תוכ	1789
שי	1790
אס	1791
הופ	1792
##זו	1793
כלל	1794
גבוה	1795
אינו	1796
?"	1797
הייתי	1798
דברים	1799
18	1800
##ou	1801
רח	1802
##רנט	1803
##ותו	1804
רע	1805
##מוק	1806
שבו	1807
מאז	1808
מלא	1809
##תו	1810
מוד	1811
##וליט	1812
##סה	1813
נראה	1814
שוב	1815
רוצים	1816
להצ	1817
המט	1818
##בו	1819
##יקר	1820
שהיא	1821
קשה	1822
למצ	1823
ית	1824
##ואר	1825
##יטה	1826
##צור	1827
##ריות	1828
מן	1829
כד	1830
קרוב	1831
ספר	1832
לז	1833
##ודש	1834
##om	1835
##פע	1836
##רכים	1837
צריכים	1838
סי	1839
התע	1840
כיצד	1841
##ריך	1842
##נחנו	1843
היח	1844
סט	1845
##ביב	1846
מוס	1847
##פיק	1848
הראשונה	1849
במקום	1850
ונ	1851
##גע	1852
##פון	1853
בלי	1854
##יעים	1855
##רצות	1856
מל	1857
##יוק	1858
##מור	1859
סוג	1860
##ישהו	1861
אלי	1862
אלוהים	1863
בן	1864
ארו	1865
##ובן	1866
יכולה	1867
התח	1868
##re	1869
במשך	1870
לדבר	1871
האלה	1872
די	1873
נא	1874
רב	1875
חדש	1876
להע	1877
##ליים	1878
בלב	1879
##בח	1880
כמעט	1881
כפי	1882
ניס	1883
השת	1884
ילדים	1885
גור	1886
הכי	1887
פחות	1888
ספ	1889
שבה	1890
##כנס	1891
בתח	1892
##ינלא	1893
##בט	1894
לפע	1895
החברה	1896
הרי	1897
נס	1898
הדבר	1899
נגד	1900
##יפה	1901
מוש	1902
יוצ	1903
משמעות	1904
##זרח	1905
##יוון	1906
מסוג	1907
חשב	1908
שג	1909
אור	1910
ההת	1911
מנה	1912
##is	1913
מכל	1914
שתי	1915
לר	1916
##ברס	1917
##el	1918
אית	1919
##קו	1920
##כי	1921
##ופי	1922
העיר	1923
צע	1924
עשר	1925
##דל	1926
##וקים	1927
מידע	1928
##עתי	1929
##פקיד	1930
##נוע	1931
מהם	1932
הברית	1933
##זר	1934
##ינוי	1935
##מנות	1936
תש	1937
##ion	1938
עסק	1939
הלא	1940
חש	1941
תג	1942
##כנולוג	1943
נכון	1944
קוד	1945
במס	1946
בהת	1947
דול	1948
פני	1949
##חור	1950
עצמו	1951
##לחמה	1952
15	1953
##יעו	1954
##ריים	1955
##יית	1956
לכן	1957
##ליט	1958
בתוך	1959
##קת	1960
המדינה	1961
##ברת	1962
עבודה	1963
להש	1964
עושה	1965
שום	1966
הזו	1967
##וקר	1968
##מון	1969
מיליון	1970
##יניים	1971
פרו	1972
בשביל	1973
אותך	1974
למרות	1975
##ועים	1976
הדי	1977
רכ	1978
##נון	1979
##ומת	1980
כולם	1981
##וסט	1982
##ro	1983
רבות	1984
תא	1985
##קס	1986
בדיוק	1987
מוע	1988
וס	1989
##ing	1990
##et	1991
##נם	1992
##כר	1993
הטוב	1994
בלתי	1995
##ומית	1996
לדעת	1997
כולל	1998
ביום	1999
##וצאות	2000
בזמן	2001
למצוא	2002
האיר	2003
000	2004
הני	2005
מתוך	2006
הממש	2007
##חלט	2008
##מנו	2009
יחד	2010
במו	2011
בגלל	2012
##ריקה	2013
שונים	2014
וזה	2015
מהמ	2016
##יוני	2017
199	2018
##ווח	2019
וגם	2020
ביט	2021
##רגע	2022
in	2023
משחק	2024
חל	2025
12	2026
ואני	2027
ביק	2028
וק	2029
אחרת	2030
במיוחד	2031
חס	2032
לפי	2033
המצ	2034
החל	2035
##גו	2036
##נן	2037
##אם	2038
##ed	2039
##רגון	2040
הזאת	2041
להשתמש	2042
כה	2043
##וחר	2044
##וצאה	2045
##ליה	2046
##גת	2047
לכך	2048
יק	2049
לגבי	2050
קל	2051
והוא	2052
תהיה	2053
השנה	2054
##ac	2055
בעלי	2056
##יף	2057
במח	2058
מור	2059
ברח	2060
מר	2061
##ורק	2062
לנ	2063
פרט	2064
##קש	2065
מתח	2066
##לוט	2067
הלי	2068
שש	2069
##אלי	2070
##כויות	2071
הור	2072
יודעים	2073
בטוח	2074
העבודה	2075
מתי	2076
##תיד	2077
בצורה	2078
הפע	2079
##ינטרנט	2080
קצת	2081
קבוצ	2082
מנת	2083
חושב	2084
##רונה	2085
##קל	2086
##ואים	2087
##גות	2088
הנה	2089
##גש	2090
לפחות	2091
##il	2092
##ol	2093
משתמש	2094
למש	2095
הגב	2096
כזה	2097
מוז	2098
עליו	2099
הוד	2100
להח	2101
מתק	2102
##פא	2103
במע	2104
מספיק	2105
of	2106
##וקה	2107
בהם	2108
שירות	2109
להכ	2110
##מל	2111
##צות	2112
##פתח	2113
ומה	2114
סרט	2115
מדוע	2116
##סם	2117
##חקר	2118
הבע	2119
כיום	2120
חברת	2121
##טרה	2122
הדברים	2123
האמריק	2124
שהת	2125
##טח	2126
בשל	2127
##דינות	2128
מאשר	2129
##זק	2130
##למיד	2131
##דע	2132
הדרך	2133
##ותה	2134
##שימה	2135
##משיך	2136
קיב	2137
מערכת	2138
##יחס	2139
אינט	2140
פר	2141
##am	2142
טובה	2143
ראש	2144
##אלה	2145
##כונה	2146
##ויות	2147
שאנחנו	2148
דולר	2149
##יבים	2150
תוכל	2151
##as	2152
##תים	2153
המשפט	2154
נשים	2155
גר	2156
החד	2157
שבוע	2158
ברא	2159
##ולד	2160
תוך	2161
##יקט	2162
##כור	2163
עומ	2164
חופ	2165
אותנו	2166
להגיע	2167
##זרה	2168
שעות	2169
בלבד	2170
##פחה	2171
##מוך	2172
##ליח	2173
להבין	2174
מופ	2175
##ער	2176
הבית	2177
בישראל	2178
מישהו	2179
האיש	2180
ימים	2181
##ודשים	2182
##יאה	2183
אוכל	2184
ואז	2185
קיי	2186
##מק	2187
החוק	2188
ופ	2189
30	2190
להס	2191
לזה	2192
11	2193
שאתם	2194
##אב	2195
##ch	2196
כסף	2197
אינם	2198
ארב	2199
קשר	2200
מוג	2201
פרס	2202
שיע	2203
##oo	2204
##משך	2205
##שרד	2206
והת	2207
##ובות	2208
##רפת	2209
נמצא	2210
##מינים	2211
מסוי	2212
מכן	2213
##נסה	2214
וד	2215
שלוש	2216
הביט	2217
זהו	2218
##רכות	2219
אחרות	2220
##מפ	2221
ומת	2222
an	2223
##טיח	2224
כמובן	2225
שימוש	2226
החלט	2227
בעוד	2228
למו	2229
בנ	2230
##ושר	2231
הארץ	2232
בתי	2233
עושים	2234
מיו	2235
הנש	2236
בנוסף	2237
##רגיה	2238
##ינג	2239
למעשה	2240
נד	2241
##ברות	2242
אינה	2243
מקבל	2244
לעולם	2245
##שם	2246
קול	2247
##יין	2248
סוף	2249
##קב	2250
הבא	2251
הללו	2252
##מבר	2253
לתת	2254
פרי	2255
אופ	2256
ומש	2257
לקחת	2258
מצב	2259
##ימה	2260
שר	2261
##גור	2262
##יטת	2263
טבע	2264
מעל	2265
ללמוד	2266
##שובה	2267
כנ	2268
קרי	2269
העוב	2270
##וצר	2271
הסרט	2272
הכול	2273
לעבוד	2274
מזה	2275
##רוש	2276
##מיים	2277
ועל	2278
הממשלה	2279
האנשים	2280
17	2281
##ואי	2282
חמ	2283
הלב	2284
##מונות	2285
שהיה	2286
##ינם	2287
##ודת	2288
והמ	2289
פור	2290
##וניברס	2291
##יץ	2292
המב	2293
##רבית	2294
##ירוש	2295
גיל	2296
קר	2297
##נע	2298
הו	2299
מול	2300
מדובר	2301
כג	2302
בעיקר	2303
תחת	2304
##יונות	2305
##ופו	2306
##ינוך	2307
אפש	2308
מרגיש	2309
16	2310
נות	2311
##יעות	2312
קש	2313
תכ	2314
פה	2315
נוסף	2316
נוש	2317
##iv	2318
וי	2319
למח	2320
לעזור	2321
##יבי	2322
##שתי	2323
##יתוח	2324
האנו	2325
בדי	2326
ילד	2327
פעמים	2328
אולם	2329
ברו	2330
למשל	2331
קודם	2332
כח	2333
שצ	2334
##ופים	2335
בעצ	2336
המה	2337
כוח	2338
##כס	2339
##נתי	2340
13	2341
מוק	2342
מסת	2343
##רבה	2344
לומר	2345
המשחק	2346
אג	2347
##ילת	2348
##סטר	2349
##ונג	2350
st	2351
##ad	2352
הילדים	2353
##דרה	2354
חיו	2355
##זיה	2356
##ידים	2357
ביצ	2358
השנים	2359
גדולה	2360
לבד	2361
##ay	2362
רוח	2363
חיי	2364
##ודית	2365
מומ	2366
דקות	2367
ברור	2368
##ברו	2369
האחרון	2370
האד	2371
##ומיים	2372
יהיו	2373
רואה	2374
##יסטוריה	2375
ליצור	2376
##ent	2377
##ילדים	2378
##וסר	2379
והא	2380
##נטים	2381
ארה	2382
פעולה	2383
שנות	2384
##פרים	2385
נשא	2386
דו	2387
##ילי	2388
אזרח	2389
##רכה	2390
##כתב	2391
##לתי	2392
מעט	2393
מחדש	2394
מקצוע	2395
שמו	2396
בכלל	2397
אצל	2398
שכל	2399
שנת	2400
השפ	2401
הקט	2402
זק	2403
השל	2404
הרכ	2405
ככל	2406
לפת	2407
##מס	2408
צריכה	2409
##צרים	2410
בעל	2411
איזה	2412
##מנים	2413
קרובות	2414
מרכז	2415
##כונות	2416
##על	2417
14	2418
הפלסט	2419
ספק	2420
##ig	2421
חדשים	2422
תת	2423
##ow	2424
##כלה	2425
נוספים	2426
רפ	2427
'.	2428
##וביל	2429
התא	2430
##וחים	2431
הגוף	2432
##זון	2433
##ot	2434
בכך	2435
##ירי	2436
בפני	2437
בתחום	2438
##ינית	2439
שלושה	2440
##שונה	2441
נב	2442
לבית	2443
כעת	2444
חודשים	2445
שאין	2446
##שיג	2447
אוהב	2448
##חרות	2449
זוכ	2450
שיח	2451
##זיק	2452
כגון	2453
##רוא	2454
מחקר	2455
ויש	2456
##בית	2457
##נהל	2458
##פורט	2459
מים	2460
##קום	2461
גל	2462
מדינות	2463
##id	2464
לאח	2465
צורך	2466
יג	2467
שפ	2468
שונות	2469
##קרים	2470
כאלה	2471
פוליט	2472
בבר	2473
יב	2474
##רבים	2475
השלי	2476
תרו	2477
##דק	2478
##שהו	2479
מרו	2480
עש	2481
100	2482
טיפ	2483
בתק	2484
סביב	2485
האמת	2486
##יסה	2487
מיי	2488
##וגמה	2489
##ורג	2490
וכל	2491
האי	2492
##מיכה	2493
##דמנות	2494
המוד	2495
באתר	2496
עובד	2497
באותו	2498
טר	2499
החדש	2500
הבינלא	2501
##פרי	2502
משום	2503
ברחבי	2504
כשא	2505
##ובת	2506
בסיס	2507
בעבר	2508
##ינויים	2509
25	2510
##וויר	2511
מיוחד	2512
המוע	2513
##וסים	2514
כב	2515
מלח	2516
ללכת	2517
שמת	2518
##מוקרט	2519
קטן	2520
קורה	2521
##טל	2522
##וקט	2523
ומו	2524
המל	2525
הבח	2526
הגיע	2527
198	2528
מוח	2529
לאורך	2530
##וציא	2531
לפעמים	2532
לעתים	2533
שומ	2534
##דור	2535
מיד	2536
חדשה	2537
נור	2538
##סון	2539
העסק	2540
בשנה	2541
שונה	2542
##us	2543
##ביבה	2544
##מע	2545
אחוז	2546
##ויים	2547
שט	2548
המג	2549
התוכ	2550
##לווי	2551
מפני	2552
בפר	2553
עצמי	2554
שמש	2555
##ווים	2556
עיר	2557
והח	2558
ומע	2559
##ופת	2560
##בוצה	2561
##למידים	2562
ידע	2563
##ואו	2564
הרע	2565
##אית	2566
פס	2567
לנס	2568
”.	2569
##גרת	2570
העל	2571
לשמור	2572
ולכן	2573
##זם	2574
לתק	2575
קרא	2576
##בול	2577
##ניס	2578
##ורר	2579
תנו	2580
##שתמש	2581
תלו	2582
ניצ	2583
##מרי	2584
וט	2585
נצ	2586
כדור	2587
##ועל	2588
לכת	2589
יורק	2590
##קי	2591
##בלת	2592
שיו	2593
ארצות	2594
לקרוא	2595
להשיג	2596
הפס	2597
להפוך	2598
##סוף	2599
באיר	2600
תפ	2601
יית	2602
##שרה	2603
מחשב	2604
שאלה	2605
##ישים	2606
אש	2607
מהא	2608
בקרב	2609
מבחי	2610
עלי	2611
194	2612
ממנו	2613
הרח	2614
##ut	2615
יס	2616
לשנות	2617
לוק	2618
##קבות	2619
לבר	2620
להא	2621
##ולט	2622
שמע	2623
##וון	2624
מעבר	2625
אמריק	2626
כנראה	2627
50	2628
197	2629
##לוטין	2630
נכנס	2631
##רטיס	2632
##ישאר	2633
##יכון	2634
תודה	2635
לחלוטין	2636
מקור	2637
##ation	2638
כלומר	2639
משפט	2640
רש	2641
חברות	2642
הקה	2643
הרצ	2644
##ec	2645
##ירו	2646
כתב	2647
##נח	2648
המצב	2649
##כנולוגיה	2650
שנו	2651
המד	2652
לעצ	2653
לבין	2654
לבצע	2655
באזור	2656
##זל	2657
אמרה	2658
לחשוב	2659
טובים	2660
שיה	2661
##רכו	2662
בגיל	2663
עובדים	2664
##יצוב	2665
##ag	2666
לחיות	2667
דור	2668
##ur	2669
פעילות	2670
##טון	2671
המרכז	2672
מאפשר	2673
פלסט	2674
בחיים	2675
להתק	2676
פג	2677
##ישות	2678
בעיר	2679
שאנו	2680
##רפ	2681
בסוף	2682
במקרה	2683
##הי	2684
זכויות	2685
##כב	2686
##ישי	2687
איפה	2688
##רע	2689
##כולת	2690
מאד	2691
בשם	2692
##וסיף	2693
כאילו	2694
##חית	2695
##פתחות	2696
הולך	2697
פל	2698
האל	2699
##יכו	2700
הציבור	2701
שינוי	2702
תיא	2703
מגיע	2704
קלי	2705
##מצא	2706
דא	2707
##זרת	2708
##כולם	2709
אליו	2710
היר	2711
##ציות	2712
פא	2713
##מודד	2714
##סיס	2715
##טב	2716
יא	2717
יוכל	2718
קו	2719
אתכם	2720
##טו	2721
השנייה	2722
מעולם	2723
המשפחה	2724
##שרת	2725
##רויות	2726
196	2727
הנוכ	2728
חוז	2729
מני	2730
רואים	2731
##מט	2732
עשוי	2733
##תף	2734
כס	2735
מאח	2736
משנה	2737
והיא	2738
בעיות	2739
ההש	2740
תוכנית	2741
עלינו	2742
ליד	2743
מנו	2744
תב	2745
ובע	2746
תצ	2747
ממו	2748
##ובל	2749
##מודים	2750
האחרונות	2751
שית	2752
אכ	2753
לרו	2754
רבה	2755
וז	2756
פול	2757
טיפול	2758
דיו	2759
##ir	2760
##ראות	2761
גבוהה	2762
##סית	2763
ואם	2764
המכ	2765
##דרת	2766
למס	2767
הילד	2768
בידי	2769
##מח	2770
היש	2771
השאלה	2772
##וצה	2773
הקוד	2774
תפקיד	2775
##גן	2776
##לוויזיה	2777
##לול	2778
יהודים	2779
##הליך	2780
##שורת	2781
##יקים	2782
##ייס	2783
##נאי	2784
ידוע	2785
',	2786
##os	2787
חדשות	2788
##יניה	2789
אוב	2790
המידע	2791
הסכ	2792
##יצור	2793
נמ	2794
##יתים	2795
אומרים	2796
##ניק	2797
##ופר	2798
and	2799
##לפון	2800
##נתונים	2801
מבין	2802
##רמניה	2803
##נאים	2804
משק	2805
מספק	2806
מעור	2807
מצד	2808
##חן	2809
והם	2810
##ומרים	2811
שהא	2812
נוספת	2813
להסת	2814
לפר	2815
עבר	2816
##שרים	2817
##דון	2818
היסט	2819
בינלא	2820
חברים	2821
##וחה	2822
הטבע	2823
!"	2824
משל	2825
הפעם	2826
ביח	2827
בעת	2828
מדינה	2829
40	2830
##וים	2831
##קור	2832
##צו	2833
להתחיל	2834
שחק	2835
##נר	2836
##ראים	2837
כלי	2838
שס	2839
##יפות	2840
לחזור	2841
עצמה	2842
סיפור	2843
##יהן	2844
##יפוש	2845
בעיה	2846
מות	2847
מתחיל	2848
הבעיה	2849
מוב	2850
##um	2851
עליהם	2852
##סטרט	2853
שמח	2854
אהבה	2855
פרק	2856
מהר	2857
לעצמ	2858
הגדולה	2859
בריאות	2860
חייבים	2861
##ter	2862
##נטי	2863
דומה	2864
עצמם	2865
##ונית	2866
באי	2867
העיק	2868
##im	2869
##em	2870
בנושא	2871
למען	2872
ככה	2873
##נתה	2874
המחקר	2875
לגרום	2876
עולם	2877
אומרת	2878
##מנויות	2879
##נגד	2880
משתמשים	2881
הבל	2882
##כיר	2883
בסופו	2884
com	2885
נשמ	2886
והש	2887
הכנס	2888
מרג	2889
עוז	2890
מאוחר	2891
##יטי	2892
ניו	2893
עמ	2894
##יבית	2895
למד	2896
הצל	2897
באותה	2898
להמשיך	2899
בסדר	2900
##בוק	2901
וכן	2902
קרה	2903
רוס	2904
מחוץ	2905
ועוד	2906
המקום	2907
שנית	2908
##יצוני	2909
ליי	2910
##סטרטג	2911
##זב	2912
##לוהים	2913
לבחור	2914
##וכן	2915
הקש	2916
בהחלט	2917
והע	2918
בארה	2919
בהתאם	2920
מנ	2921
מאת	2922
מכו	2923
בעקבות	2924
טרא	2925
##דן	2926
##ודנטים	2927
אנג	2928
יפה	2929
הקרוב	2930
##יכנס	2931
##יוע	2932
הצד	2933
##נצח	2934
העם	2935
העצ	2936
חול	2937
העול	2938
הצע	2939
נתונים	2940
##בלות	2941
##לקוחות	2942
לתוך	2943
הרפ	2944
וצ	2945
##שלום	2946
מאות	2947
ההג	2948
גברים	2949
המשי	2950
##לון	2951
המוס	2952
שוא	2953
##הוב	2954
##יאון	2955
לשחק	2956
ולע	2957
תוכלו	2958
התג	2959
מדע	2960
היינו	2961
##יינו	2962
הסיבה	2963
##כלי	2964
##ראת	2965
הגבוה	2966
מהת	2967
##ופול	2968
##ידות	2969
בזה	2970
אתר	2971
##רבי	2972
ראשון	2973
24	2974
לגמרי	2975
טע	2976
סיפ	2977
##ווי	2978
##אט	2979
השבוע	2980
##נגלית	2981
תהליך	2982
עק	2983
##ופות	2984
##ריז	2985
אנשי	2986
##רחק	2987
##יחוד	2988
לאנשים	2989
לשל	2990
לספק	2991
##ap	2992
קה	2993
הפרו	2994
נוע	2995
כע	2996
שות	2997
##וקא	2998
קיים	2999
האינטרנט	3000
לעומת	3001
שלום	3002
##ילד	3003
ייתכן	3004
בארץ	3005
הקד	3006
##שראלי	3007
כלפי	3008
חת	3009
זוהי	3010
ch	3011
##פג	3012
שהח	3013
רגע	3014
שוק	3015
##ובע	3016
אותן	3017
הנס	3018
היית	3019
##גרים	3020
במא	3021
החדשה	3022
המלחמה	3023
##רחב	3024
הוכ	3025
הית	3026
##מך	3027
##ולת	3028
איכות	3029
ומא	3030
השק	3031
ארג	3032
כדאי	3033
המוצ	3034
אמא	3035
מנהיג	3036
##oc	3037
##ודל	3038
ניה	3039
תס	3040
##un	3041
,"	3042
זכ	3043
ערך	3044
##שע	3045
קצר	3046
ומס	3047
לצאת	3048
המוז	3049
האחרונה	3050
##סיה	3051
לשם	3052
נמצאים	3053
##זע	3054
##יאל	3055
הרוח	3056
כפ	3057
מתע	3058
מיליא	3059
להביא	3060
היהודים	3061
נעשה	3062
המחשב	3063
לרכ	3064
בשבוע	3065
משפחת	3066
##מיות	3067
בתוכ	3068
##וגרים	3069
##ורית	3070
##פסיק	3071
##נדר	3072
##רחש	3073
השימוש	3074
##ולוגיה	3075
חוו	3076
##טית	3077
המוש	3078
שיכול	3079
##בלו	3080
##ייע	3081
##מץ	3082
להז	3083
מהח	3084
למנוע	3085
##פשרות	3086
##צלחה	3087
תרבות	3088
המאה	3089
להרו	3090
ישנם	3091
אלף	3092
להתמודד	3093
ועד	3094
on	3095
##כני	3096
האתר	3097
אוט	3098
ובר	3099
ממה	3100
##th	3101
מהע	3102
כולנו	3103
##רם	3104
האו	3105
##נהגות	3106
ארגון	3107
כוחות	3108
צי	3109
הנשיא	3110
להגיד	3111
הפת	3112
אק	3113
''	3114
##יגה	3115
חברה	3116
להק	3117
##יבת	3118
##ראו	3119
משא	3120
לאכול	3121
מתחת	3122
מנסה	3123
##ידו	3124
הבאה	3125
כמות	3126
##חתי	3127
##וטים	3128
##ניהם	3129
.[	3130
##שבון	3131
צבא	3132
##אס	3133
עליך	3134
בשנים	3135
הבריאות	3136
אצ	3137
עשה	3138
##נוק	3139
להתע	3140
##פרד	3141
סימ	3142
##כנית	3143
לפג	3144
היטב	3145
21	3146
ממשלת	3147
ייש	3148
עניין	3149
##כלית	3150
שנע	3151
אר	3152
חמש	3153
..	3154
זוג	3155
##ליק	3156
##ers	3157
מלחמת	3158
ברגע	3159
שהיו	3160
##יקום	3161
באינטרנט	3162
עמו	3163
##נרגיה	3164
מבוס	3165
יודעת	3166
משפחה	3167
##eb	3168
##...	3169
אישי	3170
ני	3171
##אום	3172
המוח	3173
בשלב	3174
מזון	3175
##סל	3176
##ia	3177
יכולות	3178
מכך	3179
שהג	3180
בנק	3181
##רש	3182
רופ	3183
##הבה	3184
הסיפור	3185
##ess	3186
##וטנצ	3187
תומ	3188
מדינת	3189
שול	3190
##נסים	3191
סוכ	3192
דעת	3193
חוסר	3194
עסקים	3195
בינו	3196
##פן	3197
מוט	3198
195	3199
to	3200
טוע	3201
והה	3202
מצא	3203
לקנות	3204
אמרתי	3205
אישה	3206
##רוך	3207
שאלות	3208
##וכלוס	3209
גישה	3210
מדה	3211
##ושבים	3212
השם	3213
חושבים	3214
לכתוב	3215
זמ	3216
עור	3217
##רוע	3218
קצ	3219
תוצאות	3220
##לוו	3221
2015	3222
##ברי	3223
ושל	3224
ליה	3225
##רתי	3226
##רונים	3227
משות	3228
במצב	3229
לעיתים	3230
הביתה	3231
רשת	3232
##סיק	3233
אכן	3234
הצבא	3235
קבוע	3236
##יחות	3237
##מוע	3238
היד	3239
צד	3240
להרגיש	3241
הסת	3242
מסוימים	3243
נט	3244
תז	3245
משרד	3246
סג	3247
הישראל	3248
השר	3249
היחידה	3250
האור	3251
למעלה	3252
##מול	3253
##ימות	3254
שהע	3255
##ראש	3256
מכיוון	3257
לדוגמה	3258
##לוק	3259
##בורה	3260
##בן	3261
במהירות	3262
הראשונים	3263
##ri	3264
##מיה	3265
הפוליט	3266
אבא	3267
##בתי	3268
שהמ	3269
סכ	3270
re	3271
##מינו	3272
בואו	3273
חודש	3274
עשויים	3275
##פוס	3276
##רצה	3277
היחיד	3278
הנתונים	3279
##ציפ	3280
החש	3281
##ושת	3282
בעצם	3283
תופ	3284
אוני	3285
אירופה	3286
דרכים	3287
##ובים	3288
האופ	3289
חק	3290
צוות	3291
האס	3292
שבע	3293
##זים	3294
לעבור	3295
מדיניות	3296
##טא	3297
##יטות	3298
הזדמנות	3299
##ורף	3300
הקור	3301
בפעם	3302
ביחד	3303
##ra	3304
והפ	3305
בתור	3306
##וונת	3307
לוח	3308
לבנות	3309
2014	3310
צפ	3311
ציל	3312
מהס	3313
הפך	3314
ובא	3315
##פטמבר	3316
אוהבים	3317
כרטיס	3318
##רקע	3319
60	3320
מונ	3321
##קשה	3322
##דיניות	3323
##כלו	3324
עולה	3325
מאמין	3326
זכות	3327
##מתי	3328
דין	3329
##סר	3330
].	3331
להישאר	3332
לחץ	3333
הביטחון	3334
נדר	3335
##ונו	3336
##ce	3337
##נייה	3338
עליה	3339
מסוגל	3340
##טות	3341
להיכנס	3342
במדינה	3343
שהי	3344
מקווה	3345
אמית	3346
מדברים	3347
לראשונה	3348
האוויר	3349
##נהיג	3350
נחשב	3351
טראמפ	3352
המדינות	3353
שמא	3354
##ודעה	3355
אמריקה	3356
רומ	3357
##ובי	3358
מדבר	3359
סיבה	3360
התעופה	3361
##וריות	3362
נשיא	3363
al	3364
##פילו	3365
##שויות	3366
##and	3367
תמונות	3368
##פיה	3369
##עיף	3370
גורם	3371
ניהול	3372
צפו	3373
מחפ	3374
הצב	3375
ההיסטוריה	3376
יצא	3377
##סום	3378
ההז	3379
גדולים	3380
##צמבר	3381
##יונים	3382
לקוחות	3383
ערב	3384
להגן	3385
##רושלים	3386
חופש	3387
שיהיה	3388
סיכו	3389
נושא	3390
ירושלים	3391
מיליארד	3392
22	3393
שד	3394
##סות	3395
מוצרים	3396
sh	3397
בארצות	3398
הדין	3399
דווקא	3400
דם	3401
פנים	3402
פוע	3403
##ניח	3404
החלק	3405
לילדים	3406
מקרה	3407
##טרף	3408
##יניהם	3409
כוכ	3410
##op	3411
##מנה	3412
אמיתי	3413
ובה	3414
איראן	3415
אוניברס	3416
נמו	3417
##נדה	3418
הטיפול	3419
המטרה	3420
אפשרי	3421
##בלים	3422
אמרו	3423
מיני	3424
ירי	3425
לשלם	3426
קטנה	3427
##ab	3428
המים	3429
שיר	3430
##חדים	3431
לאור	3432
##ייך	3433
ניסיון	3434
##לנד	3435
##ניינים	3436
מסוים	3437
##שיית	3438
מבלי	3439
##מדו	3440
בנוגע	3441
##ניסה	3442
מהה	3443
עומד	3444
##ליחה	3445
ובכל	3446
##יפים	3447
לנסות	3448
הוק	3449
שאת	3450
מערכות	3451
צרפת	3452
.”	3453
כתוצאה	3454
ויותר	3455
##שייה	3456
יהודי	3457
ואח	3458
כשאת	3459
ציבור	3460
##סור	3461
העתי	3462
מאמינים	3463
סין	3464
עול	3465
##).	3466
וכך	3467
שיל	3468
שווה	3469
##ראית	3470
##יטים	3471
משמעותי	3472
במסגרת	3473
הקרי	3474
עו	3475
ראה	3476
מהש	3477
##ראי	3478
סמ	3479
##ידת	3480
השירות	3481
היהודי	3482
אלפי	3483
תקופה	3484
##ul	3485
##רוני	3486
אוו	3487
ומח	3488
ראיתי	3489
ור	3490
ההחלט	3491
ולח	3492
קיבל	3493
כות	3494
##לין	3495
##בלה	3496
מכש	3497
אילו	3498
##ומו	3499
חזק	3500
שבועות	3501
##זיר	3502
##זרו	3503
##דיר	3504
אישית	3505
חג	3506
##רית	3507
לישראל	3508
ממשי	3509
הבאים	3510
מבט	3511
you	3512
##ומיות	3513
כללי	3514
הסט	3515
##ישון	3516
הבנק	3517
##נש	3518
לשמוע	3519
##פני	3520
##יחה	3521
##צית	3522
בסרט	3523
השתמש	3524
הכסף	3525
##ew	3526
##ורם	3527
ארבעה	3528
טי	3529
הנא	3530
2013	3531
עצמך	3532
ניק	3533
##ביא	3534
##מם	3535
##ליטים	3536
לשע	3537
אנרגיה	3538
##ליות	3539
היכולת	3540
##יעי	3541
##יינים	3542
הטובה	3543
אפשרות	3544
איתו	3545
ולק	3546
בחודש	3547
נוספות	3548
העובדה	3549
מלחמה	3550
אמת	3551
##פיע	3552
##ורט	3553
##ודד	3554
החולים	3555
2017	3556
רכב	3557
סק	3558
קטנים	3559
הוצ	3560
ההס	3561
##שתו	3562
לאחרונה	3563
##20	3564
החשוב	3565
יוצא	3566
##שבים	3567
המערכת	3568
שבהם	3569
for	3570
קבוצה	3571
לנק	3572
##לץ	3573
##נויות	3574
המלא	3575
באירופה	3576
##נועה	3577
##ופט	3578
##חם	3579
##ופית	3580
##igh	3581
הים	3582
תיק	3583
##גוד	3584
##יכרון	3585
מוכן	3586
שצריך	3587
##ופש	3588
השחק	3589
והג	3590
הקול	3591
2012	3592
צב	3593
ראו	3594
כיוון	3595
צל	3596
צבע	3597
שרו	3598
תרג	3599
##יקטים	3600
ואף	3601
##תחלה	3602
עשרה	3603
##מנט	3604
##ישור	3605
הצה	3606
אודות	3607
2018	3608
23	3609
ורק	3610
##נדי	3611
מלאה	3612
לפעול	3613
מאחורי	3614
שינויים	3615
האזרח	3616
מחיר	3617
מעוני	3618
2010	3619
רחב	3620
הלו	3621
##if	3622
מהי	3623
כלום	3624
מסע	3625
##מינה	3626
אוהבת	3627
מהו	3628
בהן	3629
2011	3630
חשמ	3631
##טן	3632
לשא	3633
ארבע	3634
לספר	3635
מפל	3636
ספרים	3637
אט	3638
ורג	3639
שז	3640
##ידן	3641
האחרונים	3642
שגם	3643
איב	3644
ויר	3645
לשים	3646
לצד	3647
האלו	3648
תמיכה	3649
בבוקר	3650
הבינלאומי	3651
##רוק	3652
השמ	3653
כזו	3654
לרוב	3655
##ov	3656
לעמוד	3657
##יטר	3658
גופ	3659
לשפר	3660
##ts	3661
להימ	3662
התשובה	3663
##וגה	3664
##ירושלים	3665
ומי	3666
##כח	3667
הקבוצה	3668
התיכון	3669
פיל	3670
##ותם	3671
המדע	3672
##ומדים	3673
##ליף	3674
התפ	3675
הגיעו	3676
80	3677
דת	3678
##פרט	3679
מעניין	3680
##ציב	3681
תלוי	3682
##וגר	3683
מחו	3684
הנפ	3685
##ניהול	3686
!!	3687
הופך	3688
טבעי	3689
קד	3690
##פכה	3691
הסכם	3692
חושבת	3693
##זוב	3694
חזרה	3695
de	3696
##עון	3697
##יתנו	3698
##פריל	3699
##ity	3700
גבר	3701
בשוק	3702
##ילויות	3703
פתרון	3704
##ינת	3705
##מדים	3706
לימוד	3707
יצירת	3708
##מאס	3709
מלב	3710
##ָּ	3711
והס	3712
##רכי	3713
##וניברסיטה	3714
התוכנית	3715
##אק	3716
##ורמים	3717
הארגון	3718
ממנה	3719
מקבלים	3720
##דבר	3721
חוץ	3722
עתי	3723
##ומט	3724
השפעה	3725
נוצ	3726
##og	3727
##און	3728
שבא	3729
הטר	3730
ביד	3731
ולי	3732
##דיו	3733
##est	3734
קבוצות	3735
חיל	3736
מילים	3737
##ריכה	3738
##ושב	3739
הבסיס	3740
35	3741
חולים	3742
ספורט	3743
##כולוג	3744
מבחינה	3745
##זית	3746
##נא	3747
##ניסט	3748
האג	3749
##דרות	3750
193	3751
מגיעים	3752
חשבתי	3753
לאדם	3754
##כוון	3755
מוקדם	3756
ביו	3757
חצי	3758
הלילה	3759
תשומת	3760
הוג	3761
##דיה	3762
להיר	3763
משמש	3764
הקשר	3765
ברצ	3766
שעל	3767
טכנולוג	3768
##ורו	3769
##דיים	3770
##לונות	3771
לגלות	3772
נקודות	3773
חלב	3774
שעה	3775
עלול	3776
העבר	3777
למקום	3778
##רגל	3779
הגרמ	3780
בקלות	3781
##ind	3782
##בנה	3783
##צא	3784
במידה	3785
בעתיד	3786
##וגל	3787
עובר	3788
באנגלית	3789
##ושי	3790
##חרר	3791
המשטרה	3792
הקהילה	3793
##כתי	3794
##ורד	3795
הפג	3796
לבע	3797
תכנית	3798
שניתן	3799
השלישי	3800
ומצ	3801
המלך	3802
##רוץ	3803
##יבל	3804
למי	3805
בעצמ	3806
שאל	3807
##לקת	3808
לבדוק	3809
##מוצע	3810
ייע	3811
שיק	3812
תמונה	3813
בעזרת	3814
ההורים	3815
לפתח	3816
יכולת	3817
##ine	3818
##תק	3819
##פיים	3820
##קרא	3821
ואפילו	3822
##ודו	3823
##יבוש	3824
ההבד	3825
נותן	3826
תרופות	3827
נולד	3828
פט	3829
היצ	3830
פיז	3831
##פוך	3832
##יימים	3833
##שתה	3834
ולאחר	3835
כולו	3836
שכן	3837
##סס	3838
##ברואר	3839
במרכז	3840
תמ	3841
##יתונ	3842
##תייחס	3843
צעירים	3844
נשאר	3845
רוסיה	3846
הישראלי	3847
##וונה	3848
להבטיח	3849
עזרה	3850
האינט	3851
##ידאו	3852
במצ	3853
שאינם	3854
מתא	3855
הרש	3856
בוח	3857
נוכ	3858
המון	3859
עבד	3860
מגוון	3861
70	3862
בערך	3863
##אלות	3864
הגדולים	3865
שאפשר	3866
##חילת	3867
ארוך	3868
זיה	3869
ניש	3870
שיצ	3871
תל	3872
##ויח	3873
להור	3874
##ליטה	3875
מהן	3876
##av	3877
un	3878
הכוח	3879
2016	3880
סב	3881
היכן	3882
מנהל	3883
בינואר	3884
האת	3885
העתיד	3886
2008	3887
יקרה	3888
בראש	3889
##סקה	3890
השמש	3891
מזרח	3892
2009	3893
מיק	3894
500	3895
להיפ	3896
בחלק	3897
חברי	3898
אינטרנט	3899
הוש	3900
הדרו	3901
##לקט	3902
המודר	3903
לשעבר	3904
וו	3905
יתר	3906
##מדה	3907
מאיתנו	3908
בעיני	3909
לקראת	3910
דה	3911
המשתמש	3912
##מונים	3913
##ישת	3914
התרו	3915
ימי	3916
כרגע	3917
הכב	3918
##לטון	3919
הטובים	3920
דוג	3921
##פלגה	3922
להעביר	3923
##ורא	3924
##ידול	3925
##שימת	3926
הנכון	3927
חייו	3928
##תחיל	3929
נמצאת	3930
##מויות	3931
##יבורי	3932
##וצים	3933
##ועה	3934
##פרס	3935
##יפורים	3936
##יצה	3937
קיימת	3938
##מיחה	3939
שאם	3940
ואין	3941
איננו	3942
תוכניות	3943
דג	3944
##טרך	3945
##יוס	3946
רחוק	3947
##למים	3948
##ct	3949
מתאים	3950
##נגדות	3951
חסר	3952
26	3953
מין	3954
##ומן	3955
במאי	3956
בחברה	3957
למט	3958
סיפר	3959
רווח	3960
##מכים	3961
##דיל	3962
##שק	3963
##ופל	3964
הפני	3965
##ריט	3966
##וסף	3967
שאנשים	3968
הכת	3969
##וניברסיטת	3970
הרכב	3971
27	3972
כבוד	3973
תינו	3974
##רישות	3975
הרעיון	3976
28	3977
חומ	3978
עוצ	3979
פיתוח	3980
התב	3981
goo	3982
ייח	3983
ענק	3984
מסוגלים	3985
##כוה	3986
בינ	3987
צעד	3988
משנת	3989
הגל	3990
אלקט	3991
##מדת	3992
יחסים	3993
ar	3994
pro	3995
מראש	3996
##ak	3997
הדת	3998
##וונים	3999
##יננס	4000
אחריות	4001
פק	4002
##od	4003
##זורים	4004
##מלי	4005
משה	4006
##סיכולוג	4007
העליון	4008
כיש	4009
##ברתי	4010
חוקי	4011
רמת	4012
המוצר	4013
אמור	4014
אזור	4015
היחסים	4016
גורמים	4017
משחקים	4018
##דיין	4019
אירוע	4020
התינוק	4021
עת	4022
##מקד	4023
##ריון	4024
##ודאי	4025
השכ	4026
לסייע	4027
עשרות	4028
האירופי	4029
90	4030
בלו	4031
לנצח	4032
שמות	4033
אליה	4034
##שינו	4035
בניו	4036
מחפשים	4037
נז	4038
##ווא	4039
ברמה	4040
##וקטובר	4041
בשר	4042
מרי	4043
פיר	4044
##ועדה	4045
ברשת	4046
בצד	4047
בלילה	4048
2007	4049
##יור	4050
##פיל	4051
##יונ	4052
החי	4053
בתחילת	4054
האחרים	4055
נהרג	4056
כשהוא	4057
##וזה	4058
ולש	4059
##נצל	4060
בוקר	4061
גא	4062
##שתת	4063
##ard	4064
הנושא	4065
is	4066
גרמניה	4067
מוות	4068
##כך	4069
המילה	4070
הלאומי	4071
אסטרטג	4072
ון	4073
חינוך	4074
לשימוש	4075
לבקר	4076
מאושר	4077
ביוני	4078
שלב	4079
רציתי	4080
נקרא	4081
לזכור	4082
איט	4083
ראשית	4084
גד	4085
##צעים	4086
##טחה	4087
ואנחנו	4088
##ive	4089
החמ	4090
החינוך	4091
הפל	4092
##יסות	4093
##נטית	4094
מכת	4095
מכיר	4096
רצון	4097
פחד	4098
שמה	4099
##וין	4100
##ְּ	4101
האזור	4102
הצורך	4103
בספטמבר	4104
להכיר	4105
העובדים	4106
##יתון	4107
##יסבוק	4108
##מוקרטיה	4109
מראה	4110
הערב	4111
ובמ	4112
מוכנים	4113
צעיר	4114
חמישה	4115
סביר	4116
##רן	4117
שהה	4118
בשנות	4119
מחקרים	4120
האדמה	4121
לתי	4122
סיי	4123
קא	4124
הינו	4125
##ימון	4126
לילה	4127
##יבו	4128
##וסטר	4129
בהק	4130
בדצמבר	4131
לשאול	4132
גוף	4133
מתב	4134
##לקוח	4135
הזוג	4136
המציאות	4137
sp	4138
שבר	4139
שהס	4140
יוכלו	4141
##במבר	4142
##ושבי	4143
להתח	4144
ועם	4145
מסוימת	4146
נשמע	4147
ad	4148
קפה	4149
##רוס	4150
לבוא	4151
שכבר	4152
נשק	4153
קבוצת	4154
לחפש	4155
חשבון	4156
##ook	4157
191	4158
תקשורת	4159
חייבת	4160
הבחירות	4161
כז	4162
האש	4163
לעבודה	4164
##וכה	4165
שבת	4166
בריט	4167
לוקח	4168
ממוק	4169
סיבות	4170
##דמנויות	4171
לאפשר	4172
שאר	4173
לתח	4174
"?	4175
תי	4176
##זי	4177
מצוי	4178
הנוכחי	4179
##וספת	4180
בפע	4181
wh	4182
נפט	4183
למדי	4184
ישירות	4185
לבן	4186
כאב	4187
לצפות	4188
קיו	4189
##ast	4190
##ריה	4191
##ופלים	4192
שהצ	4193
##יפת	4194
בתע	4195
בזכות	4196
האמיתי	4197
במערכת	4198
##כוהול	4199
הלח	4200
##דימה	4201
ההשפ	4202
ex	4203
##קסט	4204
##ָה	4205
##ריכים	4206
ואתה	4207
מבינים	4208
..."	4209
##מידה	4210
להאמין	4211
ושוב	4212
##פחות	4213
##שרות	4214
מקומות	4215
##כונית	4216
גדולות	4217
ידעתי	4218
נמוך	4219
צה	4220
##יליא	4221
##רגה	4222
##שוואה	4223
האמריקאי	4224
החלטה	4225
גדל	4226
ניתוח	4227
שיתוף	4228
ורו	4229
##ob	4230
אתמול	4231
היהודית	4232
הנק	4233
מבק	4234
טובות	4235
שנתיים	4236
מתחילים	4237
צילום	4238
##ובלים	4239
אמנות	4240
להסביר	4241
הפלסטינים	4242
קוראים	4243
אוויר	4244
חכ	4245
לכולם	4246
פוג	4247
##וגוסט	4248
ביולי	4249
##ינות	4250
להפסיק	4251
##לאות	4252
מכירים	4253
הולכים	4254
חשיבות	4255
למשך	4256
לפתוח	4257
האנרגיה	4258
##ידום	4259
##פיין	4260
חשובה	4261
באוקטובר	4262
בהמשך	4263
בימים	4264
אסור	4265
ספציפ	4266
אליהם	4267
בקרוב	4268
....	4269
מומלץ	4270
קוב	4271
שימו	4272
המפ	4273
כלשה	4274
בחשבון	4275
##פקד	4276
##נדון	4277
קיימים	4278
##אג	4279
##יימת	4280
רפוא	4281
חדר	4282
הימים	4283
עצמנו	4284
נכ	4285
##ie	4286
##רוכה	4287
הנח	4288
מציע	4289
ההחלטה	4290
סנט	4291
החק	4292
איזו	4293
##שיים	4294
האמית	4295
התחת	4296
התרבות	4297
אמנם	4298
ומק	4299
שמס	4300
##קול	4301
שאינו	4302
ליצ	4303
אפריקה	4304
טרור	4305
web	4306
נזק	4307
אמצע	4308
##all	4309
בתקופה	4310
##עיל	4311
##one	4312
##בוצות	4313
פרטים	4314
מייצ	4315
אבי	4316
יז	4317
עיצוב	4318
תד	4319
מוצר	4320
נפג	4321
מרגישים	4322
##יתם	4323
השוק	4324
הדם	4325
בנובמבר	4326
בפי	4327
ביחס	4328
שינה	4329
הפנים	4330
להציל	4331
con	4332
מו	4333
##בש	4334
##ודא	4335
##ריד	4336
והן	4337
במקרים	4338
##ליחו	4339
השיר	4340
##עתם	4341
לטפל	4342
ביטחון	4343
העולמי	4344
כלשהו	4345
בעבודה	4346
שאינ	4347
בחדר	4348
בחזרה	4349
2019	4350
במשחק	4351
אפשרויות	4352
תשובה	4353
להוסיף	4354
##ובלי	4355
שהן	4356
ראשו	4357
ממלי	4358
שירותי	4359
##מרים	4360
העניין	4361
באמצע	4362
##ell	4363
להימנע	4364
נפש	4365
קונ	4366
האישה	4367
בהכ	4368
להתא	4369
ממני	4370
אקד	4371
הוע	4372
ים	4373
נוכל	4374
##זיקה	4375
הנשים	4376
בכדי	4377
מטרת	4378
המכש	4379
והצ	4380
##כונים	4381
##מצאים	4382
התקשורת	4383
אחוזים	4384
en	4385
עקב	4386
##פול	4387
##ִּ	4388
##ומד	4389
##ותרת	4390
אנט	4391
##ill	4392
זוכר	4393
ארץ	4394
לאיר	4395
האב	4396
##מוס	4397
שעבר	4398
המקצוע	4399
##...]	4400
כרי	4401
שמצ	4402
##gle	4403
המזרח	4404
לחיים	4405
##רסה	4406
עתה	4407
המור	4408
##נהג	4409
מהווה	4410
שהש	4411
מעדי	4412
פעולות	4413
##וכלוסייה	4414
מלבד	4415
##וטנציאל	4416
bl	4417
ספי	4418
מהד	4419
החלה	4420
התמונה	4421
ההצ	4422
ולת	4423
se	4424
עונה	4425
העש	4426
##שאר	4427
המחיר	4428
[...]	4429
לדי	4430
אלב	4431
ולמ	4432
רעיון	4433
ביקורת	4434
45	4435
מרח	4436
##שיות	4437
##שאים	4438
להי	4439
##art	4440
לרכוש	4441
סוגים	4442
שמונה	4443
שלישי	4444
##ושות	4445
##וניות	4446
איתם	4447
החלטות	4448
?”	4449
סל	4450
##ip	4451
##ist	4452
##בנות	4453
עדיף	4454
לטיפול	4455
עשויה	4456
סוגי	4457
ארוכה	4458
ביניהם	4459
שגר	4460
החלו	4461
התלמידים	4462
##וכים	4463
בגוף	4464
נאמר	4465
הוסיף	4466
באוגוסט	4467
העור	4468
##יאו	4469
ישוע	4470
ואל	4471
בסך	4472
בבע	4473
##יקור	4474
למק	4475
התנהגות	4476
##יטניה	4477
##ate	4478
אזרחים	4479
36	4480
לני	4481
##ען	4482
##פך	4483
הארי	4484
##ליסט	4485
בריא	4486
פופול	4487
##למת	4488
##שום	4489
##פחת	4490
המוב	4491
במזרח	4492
למא	4493
מאחר	4494
אינן	4495
השלום	4496
נאל	4497
שזו	4498
תנאי	4499
##דרים	4500
המוות	4501
##מונת	4502
הפא	4503
משמעותית	4504
ביצוע	4505
שיי	4506
##נב	4507
שליטה	4508
לעצור	4509
לבני	4510
##סקים	4511
האנושי	4512
הצדדים	4513
##מרו	4514
##דית	4515
##גנון	4516
האפשרות	4517
##יביות	4518
ביטוח	4519
כנס	4520
קפ	4521
”,	4522
ואמר	4523
מצט	4524
בבקשה	4525
##גיש	4526
בשעה	4527
2000	4528
הרופא	4529
מיוחדת	4530
##ft	4531
מחר	4532
שלהן	4533
להציג	4534
מורכ	4535
29	4536
ביל	4537
##ובדים	4538
החליט	4539
הגנה	4540
2006	4541
הישראלית	4542
am	4543
בוד	4544
ונו	4545
ללי	4546
##זין	4547
עבוד	4548
ph	4549
pl	4550
ליום	4551
##גיע	4552
##ub	4553
המפור	4554
לעזוב	4555
##ונן	4556
לצורך	4557
הפעולה	4558
נכונה	4559
המז	4560
העיקר	4561
התהליך	4562
מתאי	4563
##וטר	4564
להשק	4565
קב	4566
##מאות	4567
פתאום	4568
00	4569
ויצ	4570
נול	4571
פיק	4572
השב	4573
הבאות	4574
יחסית	4575
נמוכה	4576
סבל	4577
##טיות	4578
##ובב	4579
האפ	4580
בשני	4581
בהיסטוריה	4582
הנע	4583
##שובות	4584
הניס	4585
האנושות	4586
כשאני	4587
מוחלט	4588
אופן	4589
##וגים	4590
מעני	4591
##פקת	4592
פתוח	4593
לנהל	4594
מנסים	4595
בחיי	4596
יצר	4597
מבחינת	4598
סיכוי	4599
google	4600
ריש	4601
##יתוף	4602
להד	4603
עלה	4604
##ישורים	4605
הפכה	4606
מפור	4607
מרק	4608
השיע	4609
במדינות	4610
##וויה	4611
ההבדל	4612
בירושלים	4613
##מחים	4614
המוק	4615
להראות	4616
לממש	4617
מזל	4618
מילה	4619
לאתר	4620
התוצאות	4621
מתוכ	4622
בסין	4623
תקופת	4624
לזהות	4625
קדימה	4626
##ידי	4627
##דמות	4628
##לווה	4629
הגיעה	4630
##ניהו	4631
חזר	4632
איתי	4633
הוב	4634
שטח	4635
לאן	4636
##כנן	4637
##ice	4638
הפעילות	4639
גרם	4640
הבינלאומית	4641
חומר	4642
שרי	4643
##se	4644
התחיל	4645
והק	4646
מבטיח	4647
הלאומית	4648
דר	4649
הלקוחות	4650
##עש	4651
##ver	4652
האהבה	4653
היע	4654
שהופ	4655
לקח	4656
מידי	4657
##רצו	4658
##כלים	4659
בחוץ	4660
בטח	4661
מטרות	4662
חברתית	4663
סתם	4664
הצליח	4665
המשמעות	4666
שעברה	4667
לציין	4668
זקוקים	4669
("	4670
דח	4671
והכ	4672
לעבר	4673
להתג	4674
סטודנטים	4675
סרטן	4676
דיווח	4677
קבלת	4678
שניהם	4679
המופ	4680
##תיע	4681
הידע	4682
בחר	4683
##פעל	4684
ליהנות	4685
le	4686
##ריע	4687
##דיק	4688
אירועים	4689
##ינגטון	4690
ישר	4691
##ואין	4692
אוסטר	4693
התוצאה	4694
וכי	4695
להציע	4696
האירוע	4697
לייצר	4698
לישון	4699
עז	4700
##נאה	4701
##ובד	4702
לבקש	4703
לידי	4704
בריטניה	4705
יפ	4706
סיר	4707
באפריל	4708
החז	4709
##לויות	4710
העיקרי	4711
be	4712
נכתב	4713
##גובה	4714
##לאים	4715
לבסוף	4716
יחסי	4717
מושג	4718
לפתור	4719
צוד	4720
רמות	4721
##קן	4722
להן	4723
החברת	4724
בעניין	4725
לקבוע	4726
בפברואר	4727
במספר	4728
##גוון	4729
קשור	4730
עליכם	4731
גרי	4732
##ידור	4733
החת	4734
בספר	4735
##לבום	4736
רופא	4737
%.	4738
##ge	4739
##מוש	4740
מהיר	4741
מביא	4742
מדהים	4743
אמי	4744
נוג	4745
סופ	4746
שתה	4747
##בעת	4748
##קוב	4749
##יבוד	4750
##וקי	4751
ועכשיו	4752
##עויות	4753
31	4754
ריק	4755
##יוו	4756
האפש	4757
משמ	4758
הקו	4759
מצרים	4760
משפחות	4761
קורא	4762
מודר	4763
ברכ	4764
רצה	4765
שוו	4766
תשלום	4767
השפה	4768
מאי	4769
##מתו	4770
חזקה	4771
להוציא	4772
לאט	4773
ממח	4774
אלינו	4775
חופשי	4776
חוזר	4777
חר	4778
יו	4779
##רגונים	4780
המילים	4781
##יצוע	4782
חיילים	4783
##שמית	4784
פרסום	4785
300	4786
##טרת	4787
להיע	4788
התכ	4789
חייהם	4790
##קשורת	4791
זכה	4792
סול	4793
עמד	4794
תואר	4795
במטרה	4796
##וטה	4797
הנוס	4798
לדבריו	4799
עומדים	4800
##לן	4801
##רמו	4802
המיו	4803
העת	4804
לגיל	4805
מדו	4806
לדא	4807
האיחוד	4808
היס	4809
והב	4810
):	4811
נוב	4812
עתיד	4813
##יכה	4814
##דיא	4815
##יסון	4816
בתהליך	4817
192	4818
מטרה	4819
")	4820
גמ	4821
דיא	4822
דרום	4823
וידאו	4824
מידה	4825
ואיך	4826
הטכנולוגיה	4827
אוטומ	4828
אמיתית	4829
מבר	4830
מרכ	4831
שיא	4832
להניח	4833
##our	4834
פרטי	4835
בנות	4836
כולה	4837
##ba	4838
משקל	4839
שאמר	4840
לשת	4841
פעיל	4842
##ונש	4843
איתך	4844
חיפוש	4845
קרב	4846
##רז	4847
באמ	4848
##וקף	4849
הראש	4850
ראשי	4851
ולהת	4852
לעצמי	4853
tr	4854
##ואל	4855
הסביבה	4856
כזאת	4857
it	4858
טלוויזיה	4859
נו	4860
להוביל	4861
למכור	4862
שמחה	4863
בניגוד	4864
##ost	4865
החברות	4866
מתרח	4867
##ונק	4868
ברוב	4869
בדבר	4870
##וברת	4871
צפוי	4872
אוניברסיטת	4873
ירד	4874
מנג	4875
עץ	4876
עמוק	4877
הזכות	4878
מציאות	4879
בפועל	4880
הפלסטינית	4881
הבלתי	4882
ההגנה	4883
הנית	4884
הימ	4885
##לימות	4886
מהג	4887
למצב	4888
הסיכון	4889
הנראה	4890
2005	4891
הגדולות	4892
ארוחת	4893
##ילחם	4894
התפתחות	4895
הפיז	4896
##ירותים	4897
##וניים	4898
היסטוריה	4899
זמין	4900
כנגד	4901
סא	4902
הינה	4903
##ופעה	4904
העונה	4905
##וסי	4906
בבח	4907
##ark	4908
אלימות	4909
##ows	4910
דיג	4911
יימ	4912
מותר	4913
עורך	4914
המזון	4915
במחקר	4916
יכולתי	4917
##סטרו	4918
##שאיר	4919
הלימודים	4920
שיעור	4921
שלושת	4922
זקוק	4923
כשאתה	4924
טרי	4925
##כוח	4926
##ננים	4927
שאח	4928
הסיכו	4929
ולב	4930
##יכר	4931
שחור	4932
אנגלית	4933
סעיף	4934
מקרים	4935
קטנות	4936
נתן	4937
חשובים	4938
עצמכם	4939
הקודם	4940
ip	4941
wor	4942
הקפ	4943
##וויות	4944
שניים	4945
##כנע	4946
להשפיע	4947
המוצרים	4948
כיס	4949
ללב	4950
##אורה	4951
שלם	4952
פעמיים	4953
עצמית	4954
##oun	4955
ומתן	4956
נושאים	4957
נציג	4958
לעצמו	4959
##סוק	4960
##ודיה	4961
בעלות	4962
הבה	4963
בהשוואה	4964
as	4965
בוא	4966
##סו	4967
##ניט	4968
למות	4969
מחלות	4970
##מצאו	4971
וְ	4972
מרבית	4973
הצוות	4974
שנא	4975
##חייב	4976
נקודת	4977
מלון	4978
בור	4979
ביני	4980
הלקוח	4981
##ישית	4982
בעלת	4983
לעלות	4984
לפנות	4985
##לקה	4986
הטלפון	4987
לתקן	4988
הצלחה	4989
##ep	4990
מושלם	4991
אגב	4992
ap	4993
חיות	4994
השטח	4995
התרג	4996
לשתף	4997
בבתי	4998
wind	4999
