<unk>	0
<s>	0
</s>	0
▁ה	-3.00896
▁.	-3.30609
▁,	-3.61218
▁ב	-3.86402
▁ל	-3.93274
▁ים	-3.98307
▁ו	-4.03764
▁מ	-4.04042
▁ת	-4.11972
▁ות	-4.34503
▁"	-4.45936
▁י	-4.49241
▁ש	-4.51557
▁את	-4.5638
▁של	-4.56691
▁לא	-4.99558
▁על	-5.03085
י	-5.06409
▁א	-5.13873
▁-	-5.21506
▁נ	-5.22745
ת	-5.3198
▁0	-5.45562
▁?	-5.47585
נ	-5.49826
▁זה	-5.51269
▁1	-5.52855
ו	-5.53886
▁	-5.54184
▁הוא	-5.54709
▁פ	-5.62052
▁כ	-5.67368
▁או	-5.68646
▁מה	-5.69057
▁ע	-5.73272
▁:	-5.75087
▁עם	-5.83902
מ	-5.84092
▁כל	-5.84372
▁המ	-5.86555
▁ק	-5.87715
▁ח	-5.90033
▁2	-5.90094
▁(	-5.94631
▁'	-5.95135
▁אני	-5.95482
▁ס	-5.97703
▁)	-5.98574
▁ן	-6.03252
▁ג	-6.05941
▁יותר	-6.07127
▁ם	-6.07267
▁היא	-6.09028
▁ר	-6.11728
▁לה	-6.11843
▁גם	-6.19838
▁יש	-6.21235
▁9	-6.24985
▁היה	-6.2701
▁ד	-6.27667
▁הם	-6.28736
▁כי	-6.29153
▁אם	-6.32008
ה	-6.3855
▁אבל	-6.45762
▁וה	-6.4727
,	-6.51598
ל	-6.54156
▁נו	-6.56627
.	-6.57426
▁–	-6.58165
▁אחד	-6.59113
▁כדי	-6.59284
▁אתה	-6.60382
▁הא	-6.61044
▁ט	-6.61086
▁צ	-6.62662
▁להיות	-6.63273
▁תי	-6.63429
▁רק	-6.64321
▁5	-6.68751
▁הפ	-6.69395
▁לי	-6.71136
▁כך	-6.71504
▁3	-6.71621
▁אל	-6.72649
▁אנחנו	-6.76606
▁יכול	-6.80072
▁!	-6.80138
▁כמו	-6.81349
▁הת	-6.81466
▁4	-6.82278
▁8	-6.82332
▁אנשים	-6.82381
ים	-6.83052
▁ישראל	-6.83645
▁שה	-6.83871
ר	-6.84857
ם	-6.86542
▁עד	-6.88369
▁שלך	-6.93705
▁7	-6.93923
▁ביותר	-6.94222
▁זו	-6.95228
▁זאת	-6.95671
▁6	-6.95957
▁מי	-6.97017
▁אי	-6.98724
▁ז	-7.00983
▁האם	-7.01012
ש	-7.01882
▁זמן	-7.02074
▁כמה	-7.03297
▁ידי	-7.04222
▁אותו	-7.05138
▁במ	-7.06403
▁בין	-7.07964
▁מו	-7.09002
▁כש	-7.09269
▁הב	-7.09376
▁ול	-7.09949
▁ך	-7.10533
▁אין	-7.10823
▁עבור	-7.11067
▁וב	-7.1152
▁לו	-7.12803
▁שלנו	-7.14044
▁היו	-7.14702
▁ני	-7.16072
▁בכל	-7.1698
▁הזה	-7.1837
▁שלי	-7.19636
▁מאוד	-7.19803
▁הק	-7.21001
▁אז	-7.21263
▁צריך	-7.226
▁למ	-7.2307
▁הש	-7.23855
▁בא	-7.24341
▁הנ	-7.25137
▁כבר	-7.25261
▁ומ	-7.25707
▁מת	-7.25718
▁עוד	-7.26493
▁רוב	-7.26563
▁לך	-7.26675
▁לפני	-7.27837
▁לאחר	-7.28619
▁דבר	-7.30925
▁איך	-7.31877
▁הע	-7.32066
▁הרבה	-7.32275
▁לעשות	-7.32533
▁אך	-7.33018
▁”	-7.34092
▁הח	-7.36255
▁שלו	-7.3648
פי	-7.36864
▁דברים	-7.37046
▁בה	-7.37104
▁עולם	-7.37218
▁שי	-7.37805
▁שהוא	-7.38609
▁הג	-7.38688
▁אנו	-7.38888
▁טוב	-7.39102
ט	-7.39324
▁אשר	-7.39732
▁כאשר	-7.40047
▁הס	-7.41436
▁אלה	-7.42326
▁אתם	-7.42491
▁ראשו	-7.42637
▁s	-7.42676
▁אדם	-7.43134
▁אמר	-7.43186
▁פי	-7.43718
▁בו	-7.44249
ק	-7.44657
▁שם	-7.4478
▁אחת	-7.45391
▁לנו	-7.4572
▁רוצה	-7.46696
▁יום	-7.4715
▁שלהם	-7.47208
▁שנ	-7.47324
▁היום	-7.48435
▁אחרים	-7.48584
▁עבודה	-7.4881
▁באופן	-7.49128
▁[	-7.49378
▁ילדים	-7.51669
ב	-7.52719
▁מספר	-7.53033
▁ספר	-7.53508
▁שנים	-7.53968
▁חלק	-7.54329
▁]	-7.54678
▁שנה	-7.5478
▁שלא	-7.54925
▁אפשר	-7.55517
▁הכ	-7.55835
▁אחר	-7.57383
▁כן	-7.57808
▁ין	-7.5785
▁כאן	-7.58572
▁תמיד	-7.58821
▁;	-7.59142
▁הר	-7.59199
▁לש	-7.60299
▁הייתה	-7.60381
▁מא	-7.60705
▁שני	-7.60873
▁הי	-7.60897
▁לב	-7.61381
▁בית	-7.62045
▁די	-7.62111
▁שמ	-7.62237
▁כולים	-7.6264
▁מדינה	-7.62927
▁אותם	-7.63834
▁בני	-7.63885
▁“	-7.66308
▁ולא	-7.66758
כ	-7.67098
▁פעם	-7.68111
▁רבים	-7.68277
ס	-7.68695
▁יו	-7.69017
▁להם	-7.69366
▁נים	-7.70525
▁יהיה	-7.70719
▁משהו	-7.70883
▁הו	-7.71105
▁גדול	-7.72157
▁אחרי	-7.72262
▁הצ	-7.727
▁/	-7.7296
▁ניתן	-7.73091
פ	-7.7321
▁ראשון	-7.73449
▁הה	-7.73983
-	-7.74358
▁בת	-7.74649
▁אותה	-7.74839
ע	-7.74959
▁למה	-7.75144
▁מס	-7.75546
▁סי	-7.75645
▁עכשיו	-7.75671
▁שאני	-7.76435
▁אולי	-7.76731
▁בשנת	-7.77236
▁עדיין	-7.77338
▁חשוב	-7.77476
▁שלכם	-7.77611
▁מר	-7.777
▁אף	-7.78008
▁לח	-7.7803
יפ	-7.78147
▁בר	-7.78295
▁שלה	-7.78981
▁לע	-7.79233
▁er	-7.79519
▁לכל	-7.80248
▁שהם	-7.8096
▁מן	-7.81531
▁אפילו	-7.81614
▁ף	-7.8186
▁דרך	-7.82787
▁להי	-7.84223
▁הן	-7.84339
▁אומר	-7.84623
▁בעולם	-7.84631
▁שיש	-7.84994
▁ללא	-7.86789
▁אלא	-7.87189
▁שימוש	-7.87353
אמצע	-7.88
▁פשוט	-7.88078
▁מיוחד	-7.88107
▁באמת	-7.89568
▁להת	-7.89979
לא	-7.90502
▁חי	-7.90807
א	-7.91313
▁לראות	-7.92529
יסט	-7.92688
▁מש	-7.92915
▁מערכת	-7.9296
▁ויות	-7.9314
▁יה	-7.93518
▁לוהים	-7.93648
▁ואת	-7.94148
▁האדם	-7.94589
▁לכם	-7.94591
▁...	-7.94952
ְ	-7.95735
ות	-7.96184
▁הייתי	-7.96242
▁קשה	-7.96874
▁החיים	-7.97234
ג	-7.9728
▁יי	-7.9734
▁לפ	-7.97546
▁וי	-7.97566
▁חיים	-7.98407
▁במהלך	-7.98421
▁ץ	-7.98656
▁כם	-7.98808
▁שום	-7.99189
▁רוצים	-7.99277
משך	-7.99442
▁מדי	-8.01172
▁בדרך	-8.01175
▁נשים	-8.01913
▁צריכ	-8.02508
▁בבית	-8.03386
▁יודע	-8.0364
▁שאתה	-8.03681
▁אותי	-8.03915
▁שינוי	-8.04107
ּ	-8.04294
▁טיפול	-8.04929
▁נראה	-8.05066
▁הד	-8.05272
i	-8.05288
ד	-8.05325
▁הכל	-8.05328
▁מקום	-8.05663
▁שמעות	-8.05817
▁ָ	-8.0584
▁שוב	-8.06436
▁סיפור	-8.06454
▁אלו	-8.06565
▁חדש	-8.06798
"	-8.06943
▁חושב	-8.07074
▁דינות	-8.07104
▁פעמים	-8.07564
▁לאומי	-8.07675
▁היתה	-8.07859
▁עניין	-8.0974
▁האי	-8.0977
▁שתי	-8.09833
▁חייב	-8.09877
▁נות	-8.10038
▁ציה	-8.10074
▁שב	-8.10711
▁שזה	-8.10943
▁%	-8.11088
▁אחרונ	-8.11654
▁טי	-8.11655
▁רי	-8.11915
▁אינו	-8.12119
▁מע	-8.12348
▁פר	-8.12611
▁לס	-8.1272
▁כיצד	-8.13433
▁לת	-8.14177
▁הל	-8.14275
▁מידע	-8.14707
▁לצ	-8.15051
▁שבו	-8.15553
▁לפי	-8.15846
▁ברית	-8.16131
▁יהודי	-8.16484
▁פחות	-8.16485
t	-8.16804
▁נגד	-8.17077
▁לקבל	-8.17618
▁כמעט	-8.18069
▁שת	-8.18638
▁כולם	-8.18704
▁שהיא	-8.19077
▁עילות	-8.19893
▁יד	-8.20081
ַ	-8.2026
▁בק	-8.20321
▁כולל	-8.20325
▁במקום	-8.20666
מנ	-8.21562
▁קרא	-8.21653
▁ארץ	-8.21667
▁יכולה	-8.21727
▁קל	-8.22231
▁הכי	-8.22244
▁מק	-8.22251
▁ממ	-8.22263
▁הט	-8.22285
▁הדבר	-8.22414
▁השתמש	-8.22449
▁בן	-8.22563
▁הגדול	-8.22569
▁מאז	-8.22931
▁כוח	-8.23338
▁שירות	-8.23427
▁החברה	-8.23674
▁נטרנט	-8.23685
▁בעלי	-8.23779
▁שלוש	-8.23918
▁עצמו	-8.2395
▁ִ	-8.24191
▁מצ	-8.24199
▁עצמי	-8.24456
▁בי	-8.24591
ח	-8.24652
▁לק	-8.24756
▁קו	-8.25404
▁בנ	-8.25667
▁כתב	-8.25927
▁קשר	-8.26126
▁שונים	-8.26597
a	-8.26764
▁אוהב	-8.27004
זה	-8.27182
▁מישהו	-8.27449
▁האלה	-8.28267
▁גדולה	-8.28425
▁מים	-8.28551
▁אס	-8.28699
▁בלתי	-8.28823
▁מפ	-8.29063
▁עושה	-8.29447
▁כלל	-8.29887
'	-8.30067
▁בשביל	-8.30092
▁רבות	-8.30151
▁קר	-8.30425
▁תפקיד	-8.30478
▁יכולת	-8.31111
▁ודעים	-8.31123
▁ולר	-8.31302
▁ריאות	-8.31722
▁רב	-8.323
סטינ	-8.32614
▁תה	-8.32851
?	-8.32941
▁בל	-8.33041
▁לנ	-8.3313
▁הודים	-8.3314
▁ימים	-8.33307
▁למרות	-8.33335
▁תם	-8.33371
▁יליון	-8.33425
▁רע	-8.33784
▁ונ	-8.33915
▁נכון	-8.33916
▁ממש	-8.34047
▁ארצות	-8.34427
▁תהיה	-8.34501
▁פה	-8.34593
▁בתוך	-8.34907
▁מכל	-8.34912
▁ילד	-8.35211
▁סוף	-8.35283
אז	-8.35323
▁בגלל	-8.35364
e	-8.35446
:	-8.35517
▁שא	-8.35641
▁ממשלה	-8.35714
▁מהם	-8.35717
▁תו	-8.36453
▁הז	-8.36656
▁וא	-8.36821
▁באו	-8.36869
▁סט	-8.37444
▁ראה	-8.37708
▁לכן	-8.37836
▁בג	-8.37918
▁מגיע	-8.38081
▁לדעת	-8.38788
▁בלי	-8.39071
▁שעות	-8.39126
▁מלחמה	-8.39375
▁זכו	-8.39562
▁יחד	-8.39748
▁וכנית	-8.39847
▁וס	-8.40192
▁למד	-8.40251
▁למצוא	-8.40255
▁וח	-8.4035
▁בדיוק	-8.40544
▁חברות	-8.40658
▁לדבר	-8.4095
▁ערך	-8.40992
▁ביום	-8.41019
▁נמצא	-8.41058
▁העיר	-8.4112
▁בזמן	-8.41214
▁לוגי	-8.41288
▁בינ	-8.41321
▁אותך	-8.41466
▁מתוך	-8.41555
▁לגבי	-8.41649
▁איז	-8.41663
▁פעולה	-8.41776
▁אירוע	-8.41845
▁ריקאי	-8.41941
▁המו	-8.42318
▁כזה	-8.4248
▁כיוון	-8.43015
▁אחרת	-8.43328
▁חזק	-8.43343
▁רחב	-8.43504
▁משרד	-8.43661
▁ראש	-8.43817
▁A	-8.45108
▁ובדים	-8.45216
▁הבית	-8.45225
▁תהליך	-8.45249
▁לכ	-8.45313
ן	-8.455
מפ	-8.45519
ניב	-8.45598
▁בב	-8.45778
▁הזד	-8.46026
ף	-8.46083
▁וגם	-8.46084
▁השני	-8.4613
▁הזו	-8.46844
▁ואני	-8.46868
▁’	-8.46962
▁האמ	-8.46983
▁קצת	-8.47039
▁תוך	-8.47082
▁גיל	-8.47329
▁מח	-8.47767
▁האו	-8.47783
▁כסף	-8.48166
▁לכך	-8.4832
▁השנה	-8.48322
▁מעט	-8.48502
▁בעל	-8.48515
▁רד	-8.48603
▁מדובר	-8.48724
▁יין	-8.48874
▁מספיק	-8.4914
▁הזאת	-8.49305
▁מדוע	-8.49457
ומד	-8.49459
▁לפחות	-8.49564
▁תונים	-8.4957
▁חברתי	-8.4979
▁ארגון	-8.49926
▁והוא	-8.50416
▁כיום	-8.50514
▁טובה	-8.50766
▁הדרך	-8.50774
▁וצרים	-8.50864
צורה	-8.50964
▁וריה	-8.51062
▁מלא	-8.51169
▁עליו	-8.51231
▁קודם	-8.51364
▁וצאות	-8.51416
▁אולם	-8.51487
▁איש	-8.51654
▁חוק	-8.52021
▁The	-8.52161
▁וזה	-8.52938
▁תקופה	-8.53453
▁בהם	-8.53636
▁אוכל	-8.53681
־	-8.53843
▁אחרות	-8.53887
▁מג	-8.53952
▁ידע	-8.5424
▁משחק	-8.54352
▁מעל	-8.5438
▁בעיות	-8.54613
עד	-8.54646
▁קבוצה	-8.54667
▁ארה	-8.5494
▁סוג	-8.55061
▁ירוש	-8.55393
▁ית	-8.55795
▁כמובן	-8.55991
▁רגע	-8.56017
▁ידוע	-8.5607
ֶ	-8.56139
▁משתמש	-8.56617
▁חו	-8.56657
▁יניים	-8.56799
▁מאשר	-8.56902
▁עובד	-8.57009
▁עתיד	-8.57422
▁סביב	-8.57494
▁להבין	-8.57523
▁להגיע	-8.58205
▁עושים	-8.58668
▁ור	-8.58972
▁מנת	-8.59044
▁שלושה	-8.5908
▁פור	-8.59108
▁שאל	-8.59108
▁לעולם	-8.59137
▁זהו	-8.59228
▁ון	-8.59299
▁אמיתי	-8.59355
▁בעיקר	-8.60154
▁דו	-8.60261
רצ	-8.60275
▁סוגל	-8.6032
▁אינם	-8.60335
▁מדיני	-8.60356
▁ברור	-8.61074
▁תלמיד	-8.61281
▁תוצאה	-8.61576
▁בלבד	-8.61621
ילו	-8.61644
▁טובים	-8.6201
▁אותנו	-8.62076
▁רמ	-8.62455
▁ומרים	-8.62689
▁בעוד	-8.62814
▁למעשה	-8.63306
▁וף	-8.63518
▁קיים	-8.63528
▁לל	-8.63881
▁לתת	-8.63946
▁חברת	-8.64003
▁ירופה	-8.64097
▁בכך	-8.64229
▁ספק	-8.6426
▁בכ	-8.64314
נוסף	-8.64381
s	-8.64578
צר	-8.64603
▁עי	-8.64657
▁עיר	-8.6473
▁וליטי	-8.64822
▁שאתם	-8.6507
▁מעבר	-8.65093
▁אצל	-8.6515
▁תמודד	-8.65188
▁שאלה	-8.65313
▁מול	-8.65781
▁C	-8.66
d	-8.66109
▁אינה	-8.66169
▁קטן	-8.6625
▁עשו	-8.66265
▁רס	-8.66312
▁יהיו	-8.66333
▁פרק	-8.66352
▁חסר	-8.66625
▁עלה	-8.66714
▁פחד	-8.66748
רים	-8.66765
▁אמ	-8.66851
▁חברים	-8.66871
▁קורה	-8.67008
▁ללמוד	-8.67106
▁מתחיל	-8.67169
▁רצו	-8.67418
▁ציבור	-8.67796
▁פרס	-8.67799
▁התחיל	-8.67859
▁הנה	-8.68019
▁יל	-8.68047
▁באי	-8.68121
▁קרה	-8.68175
ניינ	-8.68218
▁ממשל	-8.68301
▁טכנ	-8.68448
▁מכן	-8.68597
▁לקחת	-8.68791
▁אחרון	-8.69007
▁הרי	-8.69078
▁בכלל	-8.69089
▁מחקר	-8.69533
▁נג	-8.69625
▁דר	-8.69806
▁שונות	-8.6998
▁יהם	-8.69993
▁ומה	-8.7001
▁מרגיש	-8.70024
o	-8.70274
▁תינוק	-8.70346
▁מקור	-8.7035
▁G	-8.70367
▁משפט	-8.70372
▁ערכו	-8.70608
▁גברים	-8.70815
▁וצר	-8.70866
▁מחיר	-8.71004
▁נח	-8.71044
▁חירות	-8.71139
▁״	-8.7126
▁פא	-8.71506
▁יטחון	-8.71644
▁אלי	-8.71653
▁הללו	-8.71735
▁הגיע	-8.71806
▁לימוד	-8.71973
▁מילים	-8.71999
▁אות	-8.72522
▁תייחס	-8.72754
▁קורא	-8.72765
▁עשה	-8.72824
▁אנ	-8.73023
▁נס	-8.73057
▁ירות	-8.73394
▁לעזור	-8.73425
▁עסק	-8.73464
▁סיבות	-8.73567
▁מכ	-8.73636
▁מקומי	-8.73745
▁לוגיה	-8.7393
▁צריכה	-8.74043
צ	-8.74162
▁כה	-8.74338
▁עשר	-8.74544
▁תק	-8.74594
▁מב	-8.74771
▁נוסף	-8.74807
▁טר	-8.74913
▁נרגיה	-8.74967
▁החדש	-8.7507
▁ינג	-8.75143
אף	-8.75232
▁ציאות	-8.75264
▁איכות	-8.75323
בר	-8.75418
▁אור	-8.7544
▁רואה	-8.7552
▁חודש	-8.75638
▁חצי	-8.75653
▁יתר	-8.75672
▁משפחה	-8.75714
כל	-8.75752
▁שנייה	-8.75785
▁חדשות	-8.75788
▁לומר	-8.75803
▁טבעי	-8.75989
▁לעבוד	-8.76123
▁ועל	-8.76352
▁ליצור	-8.76673
יש	-8.76748
שם	-8.76907
▁מצב	-8.77063
ונ	-8.77118
▁מתי	-8.77417
▁שבה	-8.7745
▁רויקט	-8.77452
▁דקות	-8.7758
▁אחוז	-8.77639
▁חינוך	-8.77708
▁ing	-8.77815
▁קומות	-8.77969
▁כעת	-8.77994
▁עבד	-8.78018
▁עור	-8.78091
▁of	-8.78263
▁הבא	-8.78274
▁עיקרי	-8.78307
▁קיבל	-8.78358
▁שש	-8.78601
▁מזון	-8.78628
▁עשוי	-8.78663
▁מצא	-8.78722
▁עבוד	-8.79147
▁קשורת	-8.79148
▁פשרות	-8.79173
▁יט	-8.79177
▁פיתוח	-8.7925
▁ורי	-8.79315
▁דומה	-8.79575
מה	-8.79635
▁מז	-8.79762
▁מרכזי	-8.80093
▁כוחות	-8.80305
▁רגיל	-8.80353
▁הירות	-8.80361
▁בטוח	-8.80429
▁רבה	-8.80449
▁קצר	-8.80503
▁חברה	-8.80651
ֵ	-8.811
▁ולה	-8.81306
נות	-8.81316
▁תחת	-8.81318
▁עסקים	-8.81347
▁אפשרי	-8.81365
בע	-8.8143
▁השנים	-8.81467
▁להש	-8.81528
▁מוות	-8.81688
רפ	-8.81788
▁לעתים	-8.81834
▁למשל	-8.82192
▁תמונה	-8.82205
▁ניהול	-8.82329
l	-8.8245
▁שלום	-8.82518
▁החוק	-8.82669
▁יון	-8.82746
▁מחדש	-8.82768
▁נשאר	-8.82794
▁חופש	-8.82814
▁חדר	-8.82822
▁לוח	-8.8285
▁אהבה	-8.82991
▁אינט	-8.8305
▁הגוף	-8.8306
▁חשבון	-8.83077
▁יף	-8.83084
▁מקרים	-8.83191
▁סו	-8.83193
▁אנשי	-8.83469
▁איפה	-8.83478
▁גבוה	-8.83555
▁עצמם	-8.83618
▁שונה	-8.83663
▁תשובה	-8.83674
▁כלכלי	-8.83698
בינ	-8.83751
▁כאלה	-8.83906
n	-8.83927
מור	-8.8405
▁התפתח	-8.84085
▁אג	-8.84324
▁גבוהה	-8.84635
▁לבית	-8.84732
▁כנ	-8.84874
▁ארבע	-8.84901
▁האמת	-8.84967
▁ירה	-8.85034
▁טרי	-8.8505
▁צורך	-8.85061
▁אוויר	-8.85064
▁אן	-8.85085
▁מחשב	-8.85178
▁שאלות	-8.85181
▁צוות	-8.85387
▁בשל	-8.85454
▁קי	-8.85471
▁ספרים	-8.85657
▁עבר	-8.85698
▁כלי	-8.8582
▁יצ	-8.86014
▁גישה	-8.86073
יצ	-8.86101
▁מצאים	-8.86235
▁רוח	-8.86315
▁מדבר	-8.864
▁אמנות	-8.86405
▁מכיר	-8.86555
▁B	-8.86558
▁אש	-8.86695
▁פוט	-8.86715
▁בתי	-8.8698
▁רווח	-8.87026
▁גדל	-8.87077
▁לנד	-8.87094
▁חדשים	-8.87113
יכ	-8.87277
▁המשיך	-8.87326
▁עולמי	-8.87509
▁שמח	-8.87593
▁מעולם	-8.87648
▁אט	-8.87667
▁10	-8.87791
▁בתחום	-8.8794
▁אזור	-8.87947
▁וספים	-8.88036
▁שפה	-8.88091
▁הורים	-8.88152
▁מנהיג	-8.88173
כדור	-8.88279
▁מין	-8.88309
▁דרכים	-8.88337
▁דוד	-8.88381
▁הפך	-8.88536
▁ככל	-8.88576
▁חומר	-8.88577
▁ללכת	-8.88581
▁כולנו	-8.88791
▁נושא	-8.88946
זו	-8.88964
▁ליד	-8.88971
▁מנ	-8.89228
וגע	-8.89334
▁תרבות	-8.89335
▁ודשים	-8.89341
▁ימי	-8.8937
▁שאין	-8.89382
▁סדר	-8.89672
▁לשמור	-8.89702
▁טיבי	-8.89901
▁יפה	-8.8994
▁אליו	-8.89971
▁קול	-8.89974
▁שרת	-8.90103
▁כאב	-8.90289
▁כגון	-8.90512
▁משום	-8.90565
▁יקר	-8.90743
▁נכנס	-8.90831
▁נקרא	-8.91149
▁ראי	-8.91149
▁עולה	-8.91184
▁יסיון	-8.91305
▁יבורי	-8.91386
▁נשיא	-8.91708
▁אר	-8.91851
▁לחץ	-8.9189
▁חופשי	-8.91911
▁צפון	-8.91959
▁מטר	-8.91973
▁ריק	-8.91988
▁בנים	-8.92041
▁שלב	-8.92219
▁קס	-8.92261
▁מדינת	-8.92269
נא	-8.92277
אותו	-8.92314
▁תחילה	-8.92336
▁קצועי	-8.92342
▁ברחבי	-8.92506
▁באתר	-8.92521
תכן	-8.92559
▁להפוך	-8.92844
▁מט	-8.92898
▁מאוחר	-8.93087
▁אמא	-8.93369
▁ורד	-8.93396
▁דח	-8.9368
▁שתמש	-8.93739
▁אופ	-8.93925
▁לאורך	-8.9397
▁שכל	-8.93997
▁S	-8.94063
▁תרופ	-8.94131
▁ארוכ	-8.9415
ינ	-8.94225
▁כפ	-8.94349
▁חוץ	-8.94389
▁מיד	-8.94408
▁הצלחה	-8.9445
▁ממנו	-8.94476
▁כנראה	-8.94623
▁סל	-8.94833
▁רט	-8.94848
▁שעה	-8.94882
▁יצא	-8.94994
▁מונות	-8.95057
▁אק	-8.95195
▁האל	-8.95206
▁בקרב	-8.95431
▁בשנה	-8.95658
▁אחורי	-8.95764
▁רכב	-8.95816
▁a	-8.95872
▁שלישי	-8.95931
▁חזר	-8.9609
▁צבע	-8.96112
▁פתרון	-8.96125
▁הטוב	-8.96125
▁טלו	-8.96223
▁אמרה	-8.96241
▁יחסי	-8.96359
▁בעיה	-8.96373
▁רעיון	-8.96478
▁נדרש	-8.96661
▁ער	-8.96797
▁טודנט	-8.96953
▁לקרוא	-8.96953
▁עובדה	-8.96957
▁הולך	-8.96965
▁וקרטי	-8.96994
▁רפואי	-8.96996
▁פני	-8.97035
▁להשיג	-8.97077
▁חדשה	-8.97124
▁ורות	-8.97258
▁the	-8.97314
▁דמי	-8.97326
▁מאו	-8.97329
▁הגנה	-8.97342
▁החלטה	-8.97353
▁וֹ	-8.97359
▁רוץ	-8.97547
▁תודה	-8.9781
▁ולט	-8.9781
▁ביצוע	-8.97884
▁חמש	-8.97937
▁דמ	-8.97991
▁החל	-8.98128
▁חק	-8.98182
▁תמיכה	-8.98258
▁תחילת	-8.98354
▁חיי	-8.98372
▁עונה	-8.98373
▁מורה	-8.98456
▁חריות	-8.9848
▁שנת	-8.98686
▁זי	-8.98699
▁ינה	-8.98771
▁לקח	-8.98784
ירופ	-8.98807
▁חוסר	-8.98841
▁לחלו	-8.99055
▁בסוף	-8.99254
▁יצוני	-8.99259
▁הילד	-8.99261
דיר	-8.99269
דר	-8.99371
▁עלינו	-8.99382
▁היינו	-8.9939
▁ורג	-8.99412
▁בעבר	-8.99518
▁יורק	-8.99565
▁כולות	-8.99612
▁שהו	-8.99664
▁ולכן	-8.99674
▁המשחק	-8.9969
▁לשנות	-8.99802
▁במקרה	-9.00031
▁צדק	-9.00054
▁רא	-9.00067
▁לבצע	-9.00128
▁זכר	-9.00208
▁ינו	-9.00445
▁יח	-9.00478
▁אמנ	-9.00581
▁מפני	-9.00823
▁בעת	-9.00824
▁עצמך	-9.01082
▁בחר	-9.01092
▁e	-9.01145
▁קשור	-9.01196
▁הסכם	-9.01251
▁מבוס	-9.0127
▁התא	-9.0128
רוב	-9.01285
▁דוגמה	-9.01562
▁בנושא	-9.01607
▁לחיות	-9.01613
▁לזה	-9.01633
▁נט	-9.01641
אמינ	-9.01697
▁רואים	-9.01798
▁יץ	-9.01864
▁תואר	-9.01962
▁התנהג	-9.0205
▁וז	-9.02108
פני	-9.02118
▁תכנית	-9.02149
▁גב	-9.0224
▁רשת	-9.02257
▁שטח	-9.0233
▁נה	-9.02399
▁לחשוב	-9.02495
▁ורמים	-9.02549
▁כבוד	-9.02582
▁מוצר	-9.02661
▁קוחות	-9.02778
▁מד	-9.02888
▁מזה	-9.02915
▁טבע	-9.02926
▁חוקי	-9.03059
▁נוצר	-9.03067
סופו	-9.03089
▁נולד	-9.03119
▁אישה	-9.03139
▁כמות	-9.0323
▁מהר	-9.03256
▁שרה	-9.03387
▁שחור	-9.03387
▁עצמה	-9.03393
▁ווה	-9.03397
▁דעת	-9.03409
תע	-9.03422
▁צפוי	-9.03682
▁נוח	-9.03774
▁ואם	-9.03776
▁מתח	-9.03917
▁שווי	-9.04006
▁הסרט	-9.04021
▁נתיים	-9.04035
▁מצד	-9.04271
▁on	-9.04291
▁מקבל	-9.04306
▁פתוח	-9.04392
▁מרכז	-9.04399
▁גורם	-9.04426
▁לבין	-9.0451
קפ	-9.04515
▁פנים	-9.04529
▁בחיים	-9.04543
▁בול	-9.04742
▁צעד	-9.04773
▁הרגיש	-9.04841
▁במה	-9.0489
▁זכות	-9.04924
▁טרור	-9.05049
▁כלומר	-9.05108
▁סיבה	-9.05122
▁ראוי	-9.05137
▁מאפשר	-9.052
▁מריקה	-9.05291
▁תוכלו	-9.0541
▁in	-9.05613
▁דין	-9.05785
▁תוכל	-9.05867
▁עקבות	-9.06048
▁וכ	-9.06065
▁תקופ	-9.06121
▁ארוח	-9.06131
▁ערב	-9.06166
▁אבא	-9.06219
▁כאילו	-9.06315
▁הקו	-9.06389
▁זקוק	-9.06396
▁המצב	-9.0641
▁קרב	-9.06486
▁בוצות	-9.06581
▁מסר	-9.06608
▁בריא	-9.06632
▁נעשה	-9.06674
▁דור	-9.06806
ומ	-9.06865
▁רצון	-9.06894
▁שאנו	-9.06969
▁קבל	-9.06974
▁מבקש	-9.07139
▁השאלה	-9.07232
▁וכן	-9.07292
▁al	-9.07327
▁המת	-9.07434
▁ניו	-9.07448
▁רצה	-9.07495
▁בסיס	-9.07561
▁סרט	-9.07635
▁חש	-9.0779
▁עליהם	-9.0806
לצ	-9.08071
▁ייר	-9.08148
לחמת	-9.08156
▁הצליח	-9.0817
▁אב	-9.0822
▁גר	-9.08314
שפחת	-9.08357
▁המקום	-9.08358
▁רמניה	-9.08365
▁הולכ	-9.0839
▁עיצוב	-9.08457
▁חברי	-9.08478
סוימ	-9.08491
▁שוק	-9.08595
▁חיפוש	-9.08736
▁שר	-9.08821
▁מקרה	-9.08832
▁מאד	-9.0888
▁אמרתי	-9.08972
▁מנהל	-9.08999
▁קט	-9.0901
▁שמו	-9.09068
▁המידע	-9.09117
▁טוע	-9.09158
▁איראן	-9.09211
y	-9.09299
▁בוקר	-9.0975
▁ביקור	-9.0988
▁עקב	-9.09885
▁ספורט	-9.09899
p	-9.09912
▁רצ	-9.09955
▁יבי	-9.10055
▁השפעה	-9.10078
▁מציע	-9.10082
▁עצב	-9.1009
▁קוד	-9.10124
▁ועד	-9.10139
▁תקנ	-9.10157
▁אתכם	-9.10299
▁באזור	-9.10379
▁טיפ	-9.10384
▁לוקח	-9.10526
▁מטרה	-9.10568
תקדמ	-9.10596
▁נגלית	-9.10641
▁אהוב	-9.10653
▁אמן	-9.10784
▁קונ	-9.10863
▁מבין	-9.10956
▁מדעי	-9.11016
▁כדאי	-9.11037
▁ודעות	-9.11162
▁וּ	-9.11227
▁הכול	-9.11352
▁חשבו	-9.11503
פר	-9.11545
▁גן	-9.11583
▁טלפון	-9.11626
▁יק	-9.11681
▁אותן	-9.11685
▁מאמר	-9.11793
▁ערים	-9.1181
▁מוכר	-9.11835
▁הפעם	-9.11863
מען	-9.11864
▁כללי	-9.11995
▁שמע	-9.12097
▁הבעיה	-9.12109
▁זיה	-9.12116
▁והיא	-9.12219
▁נשק	-9.12246
▁סכ	-9.12284
▁ורק	-9.12322
▁ככה	-9.12356
▁לחזור	-9.12403
▁סוכ	-9.12416
▁גודל	-9.12516
▁אנושי	-9.12521
▁שפ	-9.12556
▁גופ	-9.12611
▁חכ	-9.12612
מצ	-9.12627
▁עלול	-9.1267
▁תש	-9.12687
▁*	-9.12711
▁נד	-9.12717
▁יס	-9.12754
▁יז	-9.12773
▁הוסיף	-9.12797
▁ביק	-9.12827
▁עץ	-9.12877
▁חבר	-9.12972
▁לז	-9.12982
▁לגרום	-9.13027
▁ודרני	-9.13097
▁עמוק	-9.13117
גיל	-9.13141
▁סיכון	-9.13203
▁פנימי	-9.13249
▁קהילה	-9.13255
▁לון	-9.13268
▁יחידה	-9.13292
▁רוסיה	-9.13343
▁והמ	-9.13461
▁ליל	-9.13546
מי	-9.13604
▁שחקים	-9.13715
▁נוספת	-9.13725
▁גא	-9.13858
מידה	-9.13877
)	-9.13982
▁שכח	-9.14093
▁צרפת	-9.14163
▁צו	-9.14178
▁זוהי	-9.14198
▁ויזיה	-9.14201
▁ראו	-9.14295
▁הקשר	-9.14301
▁שיעור	-9.14389
▁עמוד	-9.14402
▁מחוץ	-9.1449
▁מאות	-9.14547
▁רצח	-9.14617
▁נית	-9.14736
▁מיני	-9.14774
▁משקל	-9.14869
▁אומרת	-9.14872
▁לבחור	-9.14891
▁אנט	-9.15013
▁תלוי	-9.15035
▁ביע	-9.15171
▁מור	-9.15171
▁רחוק	-9.15201
▁שיט	-9.1521
▁שפחה	-9.15295
▁היחיד	-9.15295
▁דא	-9.15308
▁מגוון	-9.15372
▁ליארד	-9.15396
▁שאר	-9.15509
▁וג	-9.15585
▁והם	-9.15596
כן	-9.15618
▁מסגרת	-9.15704
אג	-9.15796
▁טל	-9.15875
▁בריט	-9.16055
ורי	-9.16077
▁אכן	-9.16089
▁משטרה	-9.16186
▁הנשיא	-9.16211
▁סכו	-9.16212
▁ויש	-9.1626
▁עירים	-9.16325
▁מראה	-9.16463
▁מפתח	-9.16651
▁העם	-9.16779
▁בנו	-9.16857
▁נוכחי	-9.16968
▁ירד	-9.16987
▁בהתאם	-9.17135
▁ביל	-9.17148
▁רגל	-9.1717
▁תגובה	-9.17176
▁משך	-9.1719
אה	-9.17415
▁שיתוף	-9.17442
▁מבט	-9.17612
▁דם	-9.17634
▁קטנה	-9.17665
▁סין	-9.17725
▁מכשיר	-9.1776
▁כבד	-9.178
▁ערה	-9.17866
▁ניתוח	-9.17969
▁המחקר	-9.18168
▁זוג	-9.18247
▁טווח	-9.18285
▁ונג	-9.18353
▁תנועה	-9.18475
▁הסיבה	-9.18481
▁ראיתי	-9.1854
▁זוכר	-9.18542
▁חשב	-9.18626
▁יפ	-9.18632
▁שבת	-9.18646
▁פטר	-9.18725
▁עין	-9.18766
אותה	-9.18813
▁שבוע	-9.18919
▁ייט	-9.19016
▁קהיל	-9.19151
▁דוק	-9.19217
▁רסיטת	-9.19395
▁זרחים	-9.19406
▁ברגע	-9.19658
▁יטר	-9.19675
▁סביבה	-9.19851
▁גו	-9.19882
▁ינ	-9.19919
▁שינה	-9.19926
▁ממוצע	-9.19954
▁ולים	-9.20023
▁לספק	-9.20029
▁שמות	-9.20055
▁בהן	-9.20059
▁בסדר	-9.20062
▁אמרו	-9.20123
ארה	-9.20195
▁בעיר	-9.20278
▁עלות	-9.20318
▁תחרות	-9.20388
▁קח	-9.20398
▁עמד	-9.20417
ומת	-9.20486
▁וכל	-9.20557
▁אתר	-9.20602
▁תיק	-9.20672
▁כונות	-9.20705
▁וזיקה	-9.20805
▁אלף	-9.20844
ציג	-9.20863
▁גרם	-9.21034
▁פרופ	-9.21065
▁ישנ	-9.21091
▁מחלה	-9.21131
▁לבן	-9.21193
▁ממה	-9.21307
▁טרטגי	-9.21449
▁קהל	-9.21458
עמד	-9.21459
▁למעלה	-9.21556
▁מנסה	-9.21558
▁מטרות	-9.21779
▁רכי	-9.21879
▁מטוס	-9.21899
▁גוף	-9.21903
▁בואו	-9.21971
▁ליפ	-9.21974
▁חיובי	-9.22064
▁מוביל	-9.22099
סביר	-9.22114
▁רוד	-9.22131
▁קבוע	-9.22205
▁תע	-9.2226
▁נז	-9.22301
▁תא	-9.22702
▁פרטים	-9.22708
▁ועוד	-9.22854
▁תעופה	-9.22859
▁גיד	-9.2286
▁האתר	-9.22868
▁ייצור	-9.22966
▁לתוך	-9.22967
▁חמד	-9.23014
▁הקרוב	-9.23063
▁יוצא	-9.23078
▁לצאת	-9.23207
▁גז	-9.23225
מנוע	-9.23323
▁מצרים	-9.2337
ליק	-9.23398
▁D	-9.23411
▁יא	-9.2344
▁משמש	-9.23516
▁תקן	-9.23552
▁נא	-9.23606
▁E	-9.23657
צב	-9.23748
▁שאת	-9.23802
▁להביא	-9.2381
▁לט	-9.23815
▁ישנם	-9.2385
▁פועל	-9.23851
▁קיץ	-9.23871
▁דיווח	-9.23956
▁F	-9.23959
▁עלי	-9.24027
▁המאה	-9.24028
אם	-9.24055
▁סת	-9.24089
▁ארבעה	-9.24098
▁קטנים	-9.24184
▁שט	-9.24216
יג	-9.24421
▁ולל	-9.24512
▁ריח	-9.24523
▁עזרה	-9.24568
▁לילה	-9.24619
▁פתח	-9.24647
▁תחנ	-9.2466
▁קודות	-9.24662
▁שפט	-9.24712
▁הלו	-9.24782
▁מסע	-9.24786
▁תר	-9.24795
▁לגמרי	-9.24859
▁תנו	-9.24913
▁עזר	-9.25101
▁כתוב	-9.25248
▁זמין	-9.25311
▁מוקד	-9.25343
▁ושר	-9.25449
m	-9.25467
▁מלון	-9.25517
▁שבע	-9.25548
▁מצליח	-9.25624
▁אזרחי	-9.25685
▁סופר	-9.25692
▁ערכ	-9.25743
▁צרפתי	-9.25767
▁דג	-9.2585
▁פסיכ	-9.26014
▁צוי	-9.26113
▁בארץ	-9.26115
▁המש	-9.26142
▁סיכוי	-9.26173
רגונ	-9.2619
▁עשיר	-9.26346
תרחש	-9.26464
▁מכר	-9.26486
▁to	-9.26581
▁דנ	-9.26683
▁כור	-9.26685
▁שמש	-9.26799
עת	-9.26949
▁לחם	-9.26994
▁סרטן	-9.27005
▁דתי	-9.27047
▁בטיח	-9.27068
▁בועות	-9.27126
▁שווה	-9.27217
▁נן	-9.27219
▁שמר	-9.27264
סס	-9.2727
and	-9.27277
וכני	-9.27285
▁רוחני	-9.27331
▁שיח	-9.27336
▁אישית	-9.27347
▁עליה	-9.27355
▁אסור	-9.2744
▁דרג	-9.27478
▁עליך	-9.27672
▁החדשה	-9.27725
▁רוע	-9.27828
▁רמו	-9.27841
▁נר	-9.27865
▁איתנו	-9.2793
▁גידו	-9.27959
▁שקט	-9.28051
▁תקשר	-9.28136
▁הופך	-9.28242
▁מאבק	-9.28243
▁I	-9.2831
▁P	-9.28356
▁רגשות	-9.28503
נח	-9.28533
▁גלה	-9.28572
▁וסף	-9.28604
▁כרטיס	-9.28698
▁בוא	-9.28736
▁ונה	-9.28767
▁20	-9.28832
▁בהחלט	-9.28843
▁יב	-9.29005
▁N	-9.2904
▁עולות	-9.29058
▁קבלת	-9.29074
▁בשר	-9.29149
▁יהן	-9.29324
▁אישי	-9.29349
▁הרכב	-9.29395
▁גבר	-9.29404
▁להגיד	-9.29513
▁מכיל	-9.29514
▁דורש	-9.29519
▁שניים	-9.29519
▁לשם	-9.29568
▁ונן	-9.29703
▁עק	-9.29728
▁מספק	-9.29779
▁דרוש	-9.29804
▁החליט	-9.29872
▁זמי	-9.29927
▁מורכב	-9.29933
▁שליטה	-9.30015
▁חייו	-9.30056
▁קבוצת	-9.30096
▁עדיף	-9.30113
▁וות	-9.30128
▁בשנים	-9.30153
▁שח	-9.30322
▁שימ	-9.30405
▁כותב	-9.30471
▁מטופל	-9.3058
▁לאכול	-9.30658
▁ורש	-9.3087
▁יתה	-9.30918
▁יחודי	-9.3094
▁לבד	-9.30965
ריכ	-9.30983
▁פעיל	-9.31015
▁ראשית	-9.3103
▁צליח	-9.31045
▁בטח	-9.31052
▁ירת	-9.31131
▁דלת	-9.31207
▁אקדמ	-9.31285
▁משפטי	-9.31366
▁חוש	-9.31645
▁y	-9.31651
ֹ	-9.31654
▁ניח	-9.31658
▁צפו	-9.31669
▁מתו	-9.31722
▁שיבות	-9.31804
▁פק	-9.31809
▁דרום	-9.31821
▁אופן	-9.31915
▁פיק	-9.31932
▁ישום	-9.31934
▁M	-9.31936
▁מות	-9.31974
צט	-9.32016
▁רותים	-9.32046
▁מופיע	-9.32111
▁ארוך	-9.32111
▁תעורר	-9.3212
▁en	-9.32128
▁ריקני	-9.32151
▁רוס	-9.32226
▁קרקע	-9.32232
▁מקורי	-9.32232
▁ביא	-9.32304
סייע	-9.32309
▁הלב	-9.32397
▁גל	-9.32421
▁ביטוי	-9.32471
▁פל	-9.32535
c	-9.32605
▁סדרה	-9.32615
▁בשלב	-9.32683
▁וקרים	-9.32782
▁ושל	-9.32792
▁סון	-9.32795
▁רשות	-9.32839
▁מתאים	-9.32943
▁R	-9.33028
▁טובות	-9.33092
▁ייס	-9.3315
▁יודעת	-9.33157
▁לכתוב	-9.33196
▁קור	-9.33297
u	-9.33299
▁התנגד	-9.33389
▁העביר	-9.33436
▁מזל	-9.33442
▁מבנה	-9.33448
▁ציות	-9.33514
▁הישאר	-9.33557
▁רגש	-9.33573
▁שדה	-9.33576
רז	-9.33584
▁דה	-9.33622
▁פרי	-9.33647
▁אמונה	-9.33657
▁יימים	-9.33682
▁ירוק	-9.33712
▁מושג	-9.33727
▁כמ	-9.33802
▁הגיעו	-9.33835
▁הסביר	-9.33875
קווה	-9.33899
ירו	-9.33992
▁שיר	-9.34128
▁מתן	-9.34186
▁צמח	-9.34238
▁נב	-9.34336
▁תנאים	-9.34369
▁ואי	-9.34396
▁שפחות	-9.34414
▁בחינה	-9.34447
▁ריה	-9.34557
▁ייך	-9.34562
▁שמאל	-9.34588
מצב	-9.34593
▁חולים	-9.34646
▁ארי	-9.34724
▁פח	-9.34734
▁יסוד	-9.34783
▁וצג	-9.3479
▁הבאה	-9.34812
▁לקנות	-9.34832
▁מלאה	-9.34832
▁בסיסי	-9.34867
▁יילים	-9.34869
▁tion	-9.34902
פעם	-9.35011
▁תב	-9.35041
▁יסטי	-9.35047
▁היטב	-9.3506
▁בחירה	-9.35065
▁בעצם	-9.35081
▁עשיי	-9.35255
▁דרכ	-9.35315
▁תס	-9.35321
▁ריד	-9.35379
▁התחלה	-9.35468
▁השת	-9.35624
מד	-9.35635
▁בוע	-9.35637
שע	-9.3565
▁הטבע	-9.35698
▁משכ	-9.35721
k	-9.35746
▁איחוד	-9.35767
▁נשמע	-9.35772
▁מרחק	-9.35807
▁מתחת	-9.35823
▁מעשי	-9.35875
▁ביטוח	-9.35896
▁פורט	-9.36024
▁טראמפ	-9.36026
▁המי	-9.36184
▁לבנות	-9.36227
▁זר	-9.3634
וליט	-9.36486
▁לימות	-9.36564
▁מתרחש	-9.36585
▁מיר	-9.36615
▁תנאי	-9.36677
▁זב	-9.36717
▁קיימת	-9.36732
▁נהג	-9.36736
▁יוצר	-9.36749
▁חיה	-9.36791
▁מבצע	-9.36895
▁לשחק	-9.36934
▁רח	-9.36937
▁ספי	-9.37013
▁הליכ	-9.37031
▁דיון	-9.37032
▁•	-9.37142
▁חקנים	-9.37143
▁קפה	-9.37232
סו	-9.3728
▁שאי	-9.37282
▁שויים	-9.3729
▁בחודש	-9.37307
▁ניצח	-9.37399
▁וט	-9.37479
▁עצמנו	-9.37522
▁דיר	-9.37607
▁זיאון	-9.37647
▁תשלום	-9.37647
ץ	-9.37765
▁לעבור	-9.37773
▁פשרו	-9.37776
▁קצוע	-9.37808
▁גרוע	-9.37921
▁בראש	-9.37946
▁תח	-9.37965
▁נאמר	-9.38036
וא	-9.38058
▁נק	-9.38139
▁מאמין	-9.38155
▁נציאל	-9.38155
▁רשימה	-9.3823
▁מועמד	-9.38262
▁קיר	-9.38398
▁שיפור	-9.38414
▁דומ	-9.38433
▁מעורב	-9.38541
▁בנה	-9.3864
▁יינ	-9.387
▁גול	-9.38727
▁חג	-9.38743
▁30	-9.38791
▁נכונה	-9.38795
▁שותפ	-9.38796
▁פו	-9.38826
▁ווי	-9.38855
▁חיל	-9.38924
▁חזרה	-9.38928
▁בור	-9.38933
▁אינ	-9.39023
▁עוצ	-9.3907
▁יור	-9.39434
▁בידי	-9.3945
▁ודע	-9.39544
▁נצל	-9.39616
▁ומן	-9.39635
▁תוכן	-9.39731
▁דווקא	-9.39821
▁השבוע	-9.39821
▁המים	-9.39829
▁שהיו	-9.39862
▁ונדון	-9.39926
▁להגן	-9.39961
▁השם	-9.39962
▁הביתה	-9.40006
▁לוט	-9.40102
▁אחראי	-9.40196
▁כונית	-9.40212
▁מערבי	-9.4023
▁ation	-9.40339
▁אבד	-9.40341
▁למי	-9.40438
▁היות	-9.40549
▁לנסות	-9.40607
▁מקו	-9.40622
▁סוריה	-9.40646
חזיק	-9.40651
▁נחשב	-9.40724
וח	-9.40738
▁ושבים	-9.40743
▁פוסט	-9.4079
▁עשרה	-9.40803
▁אמת	-9.40809
▁עצמכם	-9.40863
▁נבחר	-9.41122
▁ביחד	-9.41123
▁מועד	-9.41208
▁תושב	-9.41257
▁פרסום	-9.41262
▁היכנס	-9.41341
▁דוגמא	-9.41398
▁העסק	-9.414
▁יקורת	-9.41465
▁ינואר	-9.41518
▁קף	-9.41581
וציא	-9.41776
▁להפ	-9.41893
▁פורסם	-9.42003
▁רדה	-9.42218
▁טיל	-9.42326
▁קדם	-9.42407
▁לין	-9.42418
▁ובב	-9.4247
▁גרס	-9.42507
▁נקוד	-9.42529
▁המטרה	-9.42573
▁שומר	-9.42623
▁משפיע	-9.42734
▁הרוג	-9.42757
▁חקרים	-9.42803
▁פס	-9.42853
▁תשומת	-9.42855
▁סכים	-9.42939
▁כוכב	-9.42973
▁נזק	-9.43043
▁הפסיק	-9.43107
▁כזו	-9.43166
▁מסת	-9.43198
▁חרונה	-9.43242
▁גמר	-9.43358
▁בתור	-9.43421
▁הכנס	-9.43423
▁סוגי	-9.43454
▁חזור	-9.43516
▁טו	-9.43628
▁פריקה	-9.43642
פולר	-9.43691
הפ	-9.43772
▁יקום	-9.43942
▁בחינת	-9.44019
▁שחקן	-9.44052
▁שמה	-9.44132
▁עסקי	-9.44134
▁בעלות	-9.44144
▁שג	-9.44203
▁שתתפ	-9.44238
▁סא	-9.44304
▁אנג	-9.44333
▁וין	-9.44397
▁סנ	-9.44527
▁צבא	-9.44538
▁פטמבר	-9.44587
▁ריירה	-9.44612
▁סד	-9.44635
▁דיב	-9.44828
▁לשלם	-9.4486
▁יזם	-9.44868
▁יתי	-9.44893
▁מך	-9.44917
▁טן	-9.44965
▁מל	-9.44997
▁L	-9.45007
b	-9.45084
▁קלים	-9.45094
▁לבו	-9.45095
▁תן	-9.45132
▁ינוי	-9.45164
▁כפר	-9.45239
כונ	-9.45302
▁שלח	-9.45313
▁נקי	-9.45316
▁נאה	-9.45345
▁סיפ	-9.45412
ין	-9.45483
▁זהיר	-9.45575
▁גזע	-9.45595
▁ענק	-9.45603
▁פרטי	-9.45774
▁אתגר	-9.4582
▁מוכן	-9.45943
▁מוגבל	-9.45955
▁רוך	-9.45956
▁רז	-9.4599
▁רומ	-9.45996
לאומ	-9.46068
▁כלכלה	-9.46116
▁עברו	-9.46119
▁הופ	-9.46119
▁אדמ	-9.46127
▁בריטי	-9.46251
▁שיער	-9.46268
▁פים	-9.46276
רומ	-9.46294
▁בשבוע	-9.46365
▁משבר	-9.46442
▁שיהיה	-9.46503
▁—	-9.46506
▁הסכ	-9.46507
▁ניק	-9.46585
▁נקודה	-9.46683
▁נתן	-9.46728
▁חשבתי	-9.46756
▁משאב	-9.46813
▁ורנ	-9.46838
▁אפ	-9.46884
▁נפרד	-9.46921
▁נצח	-9.46937
קשור	-9.46944
▁זכה	-9.46947
▁הפר	-9.47026
▁מונח	-9.47043
▁קורות	-9.47101
▁דון	-9.47152
▁וני	-9.47156
▁מחלות	-9.47197
▁רופא	-9.47359
▁הדין	-9.47374
▁סמים	-9.47456
▁דצמבר	-9.47476
▁הריון	-9.47479
▁פול	-9.47482
▁אלבום	-9.47503
▁רוק	-9.47513
▁ורה	-9.47515
▁היית	-9.47573
▁שויות	-9.47663
▁יפים	-9.47826
▁מבלי	-9.47846
▁קטובר	-9.479
שים	-9.47905
▁רל	-9.47917
▁פרו	-9.47928
▁מסוים	-9.47994
▁לשפר	-9.4811
▁תקיים	-9.48177
▁לפעול	-9.48178
▁הגדר	-9.48251
▁מוקדם	-9.48308
▁פוס	-9.48315
▁משימה	-9.48317
▁גבי	-9.4834
▁שכר	-9.48347
▁לידה	-9.4835
▁לשמוע	-9.48457
▁כלום	-9.48473
▁רון	-9.48518
▁רמות	-9.48584
▁הטכנ	-9.48599
▁הכסף	-9.48603
▁פרט	-9.48604
▁קה	-9.48609
▁כביש	-9.48619
▁קורס	-9.48653
▁סבל	-9.48874
▁צי	-9.48956
▁פרסם	-9.48975
חשוב	-9.49044
▁בזה	-9.4906
▁וצאת	-9.49078
▁12	-9.49138
▁צעיר	-9.49171
▁טעם	-9.49189
▁ליי	-9.4922
▁רג	-9.49236
▁נותן	-9.49274
▁ניות	-9.49316
▁טיול	-9.49325
▁תאי	-9.49348
▁ניסוי	-9.49407
▁מתאי	-9.49507
▁ואל	-9.49585
▁מכתב	-9.49592
▁יהו	-9.49662
▁מניע	-9.49742
▁פארק	-9.49755
▁יניהם	-9.49757
▁יג	-9.49758
▁ריע	-9.49773
▁מהיר	-9.49842
▁לד	-9.49866
▁שופט	-9.49893
▁גרמני	-9.49978
▁שכן	-9.49994
▁טע	-9.50033
▁צבאי	-9.50112
▁הוביל	-9.50168
טרונ	-9.50171
▁אוהבת	-9.50255
▁איתו	-9.50268
▁זהב	-9.50268
r	-9.50312
▁איננו	-9.50346
▁וד	-9.50356
▁רסיטה	-9.5041
▁ערות	-9.50412
▁זורים	-9.50442
▁גמ	-9.50454
▁15	-9.50468
▁כלא	-9.50607
▁סרטים	-9.50644
▁רעיו	-9.50671
▁פט	-9.50719
▁שׁ	-9.50723
▁פשט	-9.50745
▁במאי	-9.50749
▁קרן	-9.50813
▁יית	-9.50876
▁ידה	-9.51093
▁גש	-9.51152
▁חיק	-9.51171
▁ריס	-9.51316
▁מסלול	-9.51317
שנות	-9.51367
▁טון	-9.51372
▁מילה	-9.51387
▁סק	-9.51407
פתח	-9.51411
▁פעל	-9.51435
▁חלטות	-9.51462
▁קבלים	-9.51486
▁כירות	-9.51515
▁חם	-9.51572
▁מוח	-9.51702
▁נותר	-9.51878
סך	-9.51892
▁וספות	-9.51919
▁טה	-9.52021
▁וכך	-9.52054
▁נפש	-9.52055
יט	-9.52082
▁ובמבר	-9.52345
▁חמישה	-9.52397
▁ריב	-9.5247
▁חנות	-9.52486
▁סיוע	-9.52497
▁הימנע	-9.52517
▁קלה	-9.5261
▁וק	-9.52707
▁בירה	-9.52829
▁מסוג	-9.52845
▁ארכ	-9.52865
▁זמנים	-9.52919
▁נהר	-9.52929
▁נהדר	-9.52947
▁אינן	-9.52952
▁דירה	-9.53108
▁חיות	-9.53136
וצ	-9.53267
▁יכר	-9.53294
▁דל	-9.53335
▁ימון	-9.53376
▁סטרלי	-9.53376
▁רגיש	-9.53393
▁שמחה	-9.53405
▁ענ	-9.53422
▁הבאים	-9.53451
▁נוכל	-9.53473
▁שמים	-9.53497
▁רביעי	-9.53517
▁ופס	-9.53522
▁צילום	-9.53528
▁רחוב	-9.53535
▁W	-9.53549
▁אדום	-9.53564
ועצ	-9.53658
▁בטל	-9.53691
▁שלטון	-9.53821
▁יציב	-9.54121
▁נמצאת	-9.54128
ז	-9.5414
▁מצאו	-9.54369
▁טא	-9.54381
▁המון	-9.54399
▁קנה	-9.54403
▁הטובה	-9.54419
▁הודעה	-9.54559
▁ופים	-9.54588
▁לונות	-9.54605
וט	-9.54606
▁יעד	-9.54622
▁בנות	-9.54642
▁בעתיד	-9.54671
▁מודל	-9.5469
▁לצד	-9.5469
▁מטה	-9.54755
▁ישוע	-9.54764
▁יונ	-9.54829
▁ולי	-9.54862
▁ישר	-9.54885
▁סר	-9.54916
▁H	-9.55042
את	-9.55048
▁אויב	-9.55132
▁המוח	-9.55138
בל	-9.55221
v	-9.55237
▁וריד	-9.55248
▁פורס	-9.5525
▁הצבע	-9.55257
▁וננ	-9.55292
▁און	-9.55302
▁שלם	-9.55307
▁יקרה	-9.55338
▁חלום	-9.55357
▁כניסה	-9.55418
▁הופיע	-9.55463
▁חינם	-9.55465
▁פותח	-9.5549
▁הבנה	-9.55557
▁היי	-9.55635
▁הינו	-9.55653
▁הפכו	-9.55694
▁עלם	-9.55769
▁האמין	-9.55789
▁נכס	-9.55801
▁מיתית	-9.5588
▁האוכל	-9.55966
▁נש	-9.56015
▁יחסים	-9.5603
▁לעמוד	-9.5607
▁ed	-9.56233
חק	-9.56258
▁ערבים	-9.56303
▁תום	-9.56361
▁דבריו	-9.56367
▁משיך	-9.56374
מונ	-9.56379
▁מערב	-9.56389
▁עודד	-9.564
▁חשבות	-9.56428
▁דוח	-9.56512
▁הוציא	-9.56593
▁קצב	-9.5665
▁אישור	-9.5668
▁רן	-9.56764
▁חוויה	-9.56904
▁עצמאי	-9.56986
▁חמור	-9.57247
▁מאושר	-9.57295
▁אודות	-9.57343
יטה	-9.57363
▁יוכלו	-9.5738
▁ישן	-9.57472
▁קוט	-9.57514
▁לגלות	-9.57605
▁מביא	-9.57686
▁ירי	-9.57714
▁יכרון	-9.57786
▁עמ	-9.57878
▁מחפש	-9.57911
▁פציפי	-9.57915
▁עשייה	-9.57972
▁חוף	-9.58127
▁החלו	-9.58191
▁שילוב	-9.58224
קח	-9.58282
st	-9.58322
▁וויר	-9.58506
▁מחשבה	-9.5858
▁בולות	-9.58597
▁גוע	-9.58629
בוש	-9.58658
▁תקבל	-9.58706
▁תפי	-9.58723
▁לוא	-9.58897
▁סטיב	-9.58901
▁מפלגה	-9.5897
▁בעזרת	-9.59001
▁שד	-9.59022
▁צדדים	-9.59027
▁ממנה	-9.59043
כיר	-9.59105
▁רציתי	-9.59134
▁סגנון	-9.59163
▁ומי	-9.59172
▁כוס	-9.59187
▁ההת	-9.59188
▁פיזי	-9.5919
▁גדיל	-9.59191
▁שיחה	-9.59237
▁ציי	-9.59281
▁זמני	-9.5932
▁סיום	-9.59347
▁וגע	-9.5939
▁רבי	-9.59424
▁נור	-9.59445
▁קק	-9.59466
▁נמוך	-9.59472
▁עליי	-9.59477
▁יקה	-9.5961
▁בטא	-9.59637
▁חוקים	-9.59679
▁אמצעי	-9.59741
▁תחום	-9.59788
▁התח	-9.59829
▁ובי	-9.5989
▁לוג	-9.59893
▁סקר	-9.59904
▁בבוקר	-9.59945
▁תיכון	-9.59946
▁מדויק	-9.59946
▁יוכל	-9.60002
רגל	-9.60004
▁שגם	-9.60038
זמנ	-9.60043
שותפ	-9.60046
▁המלך	-9.60048
▁T	-9.60111
▁רוויח	-9.60112
▁עצר	-9.60229
סוק	-9.60289
▁עליון	-9.60331
▁אושר	-9.60337
▁ולדת	-9.60346
▁ציפ	-9.60384
▁רץ	-9.60397
▁לבדוק	-9.60404
יחס	-9.60419
▁סור	-9.60536
▁»	-9.60589
▁רעה	-9.60717
▁יבה	-9.6083
▁סעי	-9.60852
וב	-9.60856
▁בנק	-9.60873
▁חייהם	-9.60874
▁הנדס	-9.60899
טע	-9.6091
▁חיוני	-9.60913
▁וטל	-9.60946
▁טענ	-9.60951
▁גיע	-9.6102
▁גורי	-9.61166
▁אהב	-9.61208
▁ייג	-9.61236
▁תקציב	-9.6124
▁כלים	-9.61264
▁שיטות	-9.61279
▁הרוח	-9.61292
▁שע	-9.61319
▁חשובה	-9.61339
▁דמו	-9.61343
▁ידיים	-9.61358
▁ולד	-9.61387
▁חשמל	-9.61392
▁השמש	-9.61402
▁מטבע	-9.6141
▁ידור	-9.61631
▁האיש	-9.61639
▁משו	-9.61653
▁טעות	-9.61669
▁יוני	-9.61673
▁בך	-9.61708
צירת	-9.61723
▁חושבת	-9.6174
▁הרב	-9.61743
▁רכבת	-9.61841
▁בחנ	-9.61871
▁וצאים	-9.61879
▁שמונה	-9.61898
▁רוז	-9.62028
▁שוואה	-9.62073
▁דמות	-9.62103
▁עילו	-9.62109
▁למים	-9.62141
▁שיווק	-9.62184
זמ	-9.6224
▁לופ	-9.6231
▁חייבת	-9.62325
▁מבוגר	-9.62345
▁ספקת	-9.62349
▁שלילי	-9.62357
▁וכו	-9.62455
▁אומית	-9.62458
▁לאדם	-9.62492
▁קיו	-9.62502
▁טיקה	-9.62524
▁הסי	-9.62534
▁חמ	-9.62622
▁קוב	-9.62623
▁תיר	-9.62665
▁|	-9.62672
▁סגור	-9.62706
▁אבו	-9.62708
לק	-9.62734
▁גרמ	-9.62765
▁ענה	-9.62851
▁עזה	-9.62903
▁מצל	-9.62966
▁מהו	-9.62983
▁בקלות	-9.62996
▁עובר	-9.63011
▁קופ	-9.63016
▁נהיג	-9.63026
▁החלק	-9.63066
▁לווי	-9.63071
▁וכיח	-9.63181
▁תפס	-9.63195
▁תקווה	-9.63214
▁בוק	-9.63472
▁הלילה	-9.63486
▁ושאים	-9.63495
▁וכנים	-9.63522
▁נסי	-9.63555
▁טט	-9.63621
▁אכל	-9.63637
וג	-9.63647
▁יסבוק	-9.63655
קראת	-9.63751
▁כולו	-9.63826
▁איבד	-9.63841
▁אים	-9.63868
▁מפגש	-9.63897
שתי	-9.63902
▁נושות	-9.63979
▁עוסק	-9.63984
▁בשוק	-9.63986
▁טען	-9.64004
▁לספר	-9.64042
▁רך	-9.64086
▁לאור	-9.64104
▁בדיקה	-9.64143
▁עתה	-9.64144
▁הצבא	-9.64185
▁איי	-9.64376
▁הודיע	-9.6441
יימ	-9.64412
▁הערבי	-9.64611
▁יננסי	-9.64639
▁למקום	-9.64639
▁אפריל	-9.64639
▁נמל	-9.64674
יד	-9.64766
▁בש	-9.64774
תקפ	-9.64792
▁פסיק	-9.64989
▁נפלא	-9.65022
▁איתם	-9.65055
▁בניו	-9.65082
▁מדע	-9.65099
▁פירוש	-9.65142
▁לוק	-9.65167
▁רלו	-9.65227
▁מסחר	-9.65343
▁בניין	-9.65363
▁שער	-9.65385
▁ראות	-9.65405
▁העתיק	-9.65473
▁קישור	-9.65484
▁אבק	-9.65507
▁הכוח	-9.65544
▁יתרו	-9.65619
▁יפש	-9.65624
▁קומ	-9.65629
▁יטה	-9.6565
▁חייה	-9.65709
▁יירות	-9.65763
▁te	-9.65781
▁וגרפי	-9.65834
▁עקרו	-9.65856
קים	-9.65887
▁סכי	-9.6591
▁סוגים	-9.6593
▁וקם	-9.65944
▁ועם	-9.65964
▁מחר	-9.65987
▁פיל	-9.66033
▁ורו	-9.66062
▁גנטי	-9.66101
▁רוט	-9.66101
סד	-9.66163
▁רום	-9.66224
▁ביב	-9.66229
▁שראלי	-9.6631
▁כלוס	-9.66356
▁תחושה	-9.6638
תונא	-9.66381
▁במרכז	-9.66478
▁בערך	-9.6648
ניתן	-9.66486
על	-9.66619
▁כרגע	-9.66647
▁ההי	-9.66675
▁ציין	-9.66681
▁טפל	-9.66728
▁בז	-9.66739
▁טקס	-9.6677
▁השפיע	-9.66817
▁זון	-9.66837
▁ערכים	-9.6685
הווה	-9.6698
▁נכתב	-9.66986
ניח	-9.67013
▁ובכ	-9.67014
▁קולו	-9.67015
▁שאינם	-9.6707
▁חלת	-9.67076
▁ראים	-9.67082
▁חייל	-9.67109
סטר	-9.67135
▁הנושא	-9.67156
▁חוזר	-9.6717
▁חתול	-9.67209
▁הקוד	-9.67218
▁ראשי	-9.67295
▁חליף	-9.67327
▁יחיד	-9.67339
▁סמ	-9.6745
▁גוש	-9.67486
▁יומי	-9.67519
זכות	-9.67584
לאכ	-9.6772
▁ימין	-9.67726
▁רבותי	-9.67764
▁ההבדל	-9.67838
▁המר	-9.67842
▁קשיב	-9.67843
▁ity	-9.67843
▁מהן	-9.67883
רב	-9.67909
▁ירח	-9.68032
▁מעלה	-9.68044
▁חפשים	-9.68049
▁שחרר	-9.68101
▁הראשי	-9.68136
▁תורה	-9.68143
▁וסייה	-9.68196
ריא	-9.68244
▁רוג	-9.68265
▁אבי	-9.68283
▁רפא	-9.68321
▁עדר	-9.68329
▁ברואר	-9.68365
▁ישור	-9.68371
▁מותו	-9.68516
▁ארד	-9.68561
▁משת	-9.68631
▁מפעל	-9.68667
▁חלקים	-9.68691
▁וידאו	-9.68701
▁לאפשר	-9.6887
▁חבל	-9.68875
או	-9.68962
אחר	-9.69
▁הסתכ	-9.69017
▁לבסוף	-9.69042
▁בחוץ	-9.69048
נצ	-9.69067
▁להס	-9.6911
▁עצמ	-9.69147
▁קוי	-9.69198
▁משותף	-9.69216
▁רפואה	-9.69243
קמ	-9.69271
▁בתים	-9.69356
▁זול	-9.69382
▁למנט	-9.69445
▁עמדו	-9.69479
▁סטי	-9.69537
▁החזיר	-9.69563
▁ועלים	-9.69668
▁עשרים	-9.69687
▁לג	-9.69691
▁שניהם	-9.69698
▁וול	-9.69725
▁שאפשר	-9.69738
▁לנצח	-9.69738
▁זן	-9.69755
▁סתם	-9.69758
▁מלי	-9.69935
אין	-9.6998
▁תיא	-9.69986
▁חום	-9.70081
▁המילה	-9.70091
▁תקדם	-9.70097
▁ורמ	-9.7016
▁נסיעה	-9.70264
גנ	-9.70266
▁ותיו	-9.70296
▁חורה	-9.70427
▁רדת	-9.70511
▁לשעבר	-9.70614
▁שאם	-9.70656
▁סמך	-9.70658
▁יך	-9.70691
▁חוב	-9.70732
▁סוק	-9.70843
ך	-9.70929
▁חצ	-9.70955
▁מקביל	-9.70966
▁צורה	-9.71006
▁פיצ	-9.71092
▁תחומי	-9.71143
▁טייל	-9.71147
▁אזרח	-9.71222
▁הנכון	-9.71319
▁סמוך	-9.7132
▁לבקר	-9.7132
▁הודו	-9.71352
▁עברי	-9.71387
▁העבר	-9.71499
▁בחדר	-9.715
▁יטליה	-9.71503
▁ברי	-9.71573
▁ורים	-9.71642
▁דפ	-9.71669
▁וקה	-9.71737
▁ינס	-9.71761
▁ראית	-9.7178
▁שק	-9.71837
▁יפן	-9.71945
▁Mi	-9.71995
▁מושלם	-9.72071
▁פתרו	-9.72081
▁המס	-9.72141
▁פתיע	-9.72219
▁האור	-9.72233
▁טור	-9.72235
▁קש	-9.72252
▁סקס	-9.72267
▁וסעים	-9.72388
▁משנת	-9.724
▁כלבים	-9.72414
▁צמיחה	-9.72429
▁ואלי	-9.72547
▁בחור	-9.72634
▁ווים	-9.7266
▁נע	-9.72663
▁עיני	-9.72682
▁יציר	-9.72716
▁צטרך	-9.72752
▁בלילה	-9.72773
▁פיר	-9.72856
▁שפחתי	-9.72931
▁ועלת	-9.72955
▁רקע	-9.72978
▁יבש	-9.72999
▁וספת	-9.73035
▁‘	-9.73119
▁בהמשך	-9.73123
▁זרים	-9.73178
▁להכיר	-9.73182
▁קשות	-9.73199
▁סן	-9.73249
▁אתמול	-9.73287
▁רנ	-9.73343
▁המוצר	-9.73356
▁יסק	-9.73397
▁ונד	-9.73417
▁סוד	-9.73463
▁הצטרף	-9.73468
▁לווה	-9.73513
▁השיר	-9.73555
▁המכ	-9.73566
▁מאמצ	-9.73566
▁האס	-9.73577
▁חד	-9.73602
▁בחברה	-9.73649
▁קרי	-9.73727
▁דעו	-9.73758
▁בחיי	-9.73775
▁שמי	-9.73814
▁הרופא	-9.73831
▁שורה	-9.73872
▁חוות	-9.73907
▁דרו	-9.73912
▁סחר	-9.73934
▁תנוע	-9.73946
▁נפגע	-9.74012
▁דווח	-9.74039
▁רגשת	-9.7405
▁חתונה	-9.74061
▁לסייע	-9.74074
▁X	-9.74086
▁בקרים	-9.74152
▁אח	-9.74181
▁זוכ	-9.74189
▁ימות	-9.74226
▁האדמה	-9.74226
▁ביס	-9.74278
▁וגל	-9.74306
▁ילדה	-9.74339
▁רכיב	-9.74342
▁מרחב	-9.74382
רכיב	-9.744
▁חיבור	-9.7456
▁תחייב	-9.7456
▁לשאול	-9.74573
▁פחי	-9.74591
▁וגרים	-9.74645
▁חמישי	-9.74649
▁והן	-9.74654
▁גי	-9.74669
▁מוזר	-9.74671
▁ותיה	-9.74747
▁סטרו	-9.74771
▁דלק	-9.74845
▁סמל	-9.74917
▁הצורך	-9.74927
▁מראש	-9.74935
▁חור	-9.75033
▁ושי	-9.75156
▁כנסת	-9.7519
▁סע	-9.75229
נה	-9.75264
▁קא	-9.75265
▁השאיר	-9.75294
▁נינ	-9.75295
▁לחפש	-9.75295
▁חליט	-9.75302
▁וכחות	-9.75336
▁רבנ	-9.75347
▁סוכן	-9.75364
▁חלקי	-9.75384
▁מנוע	-9.75434
▁נוס	-9.7544
▁לזכור	-9.75479
▁יאו	-9.7549
▁דף	-9.75495
▁וסדות	-9.755
▁אליהם	-9.75506
▁בצד	-9.75511
▁ודה	-9.7553
▁וקס	-9.75546
▁מכירה	-9.75731
▁בודות	-9.75755
▁פתיח	-9.75857
▁מקס	-9.75888
▁דורגל	-9.75908
▁$	-9.75916
▁בינים	-9.75917
▁גישות	-9.75938
▁סם	-9.76009
▁משה	-9.76019
▁רציני	-9.76044
▁ירידה	-9.76078
▁מזכיר	-9.76089
▁בהיר	-9.76115
▁נסה	-9.76153
▁החלה	-9.76248
▁ובר	-9.76252
▁ושש	-9.76266
▁הפוך	-9.76275
▁ווק	-9.76289
▁כוללת	-9.76304
▁ידעתי	-9.76307
▁רמה	-9.76421
▁תיים	-9.76474
▁ספרי	-9.76544
▁פלא	-9.76555
▁שולחן	-9.76561
▁הסבר	-9.76589
▁עורך	-9.76611
▁פגש	-9.76611
▁בקרוב	-9.76668
▁רישות	-9.76677
יומנ	-9.76711
▁התע	-9.76795
תח	-9.76804
▁עיל	-9.76859
▁אד	-9.76929
חלק	-9.77014
▁קטנות	-9.77044
▁מוסרי	-9.77095
▁חלל	-9.77108
לאחר	-9.77131
▁בקש	-9.77137
▁כוהול	-9.77155
▁המחיר	-9.77155
▁תכנון	-9.77158
▁זכור	-9.77198
▁הכללי	-9.77198
▁קלי	-9.77222
▁וותר	-9.77251
▁קובע	-9.77276
עניק	-9.77314
▁ne	-9.77355
▁רטיות	-9.77373
▁יופי	-9.77379
▁וש	-9.77392
▁ישאר	-9.77398
▁שוטר	-9.77401
▁חלב	-9.77444
▁סח	-9.77475
▁יבו	-9.77501
▁ידו	-9.77509
▁מנסים	-9.77533
▁כשה	-9.77545
▁ובדות	-9.77551
▁מסך	-9.77586
▁לף	-9.77589
▁&	-9.77596
▁לבוא	-9.77659
▁כרז	-9.77691
▁מהפכה	-9.7772
▁ביוני	-9.77741
▁עוזר	-9.77742
▁רעב	-9.77764
▁נמוכה	-9.77829
▁אורה	-9.77831
▁שהי	-9.77844
▁יות	-9.77854
שהוא	-9.77885
▁ָה	-9.77925
▁דיקות	-9.77944
▁סיק	-9.77953
▁עוני	-9.78017
▁מאמץ	-9.78099
▁סורתי	-9.78103
g	-9.78131
▁אליה	-9.78136
▁הסיני	-9.78179
▁כוונה	-9.7825
כוני	-9.78283
▁יוחדת	-9.78288
▁חורף	-9.78311
▁הצלח	-9.78316
▁הרגע	-9.78324
▁O	-9.78397
נס	-9.78414
▁יקוד	-9.78491
▁סנט	-9.78553
▁רדיו	-9.78595
פתוח	-9.78603
▁גורל	-9.78611
▁ולין	-9.78625
▁ניגוד	-9.78626
▁תאים	-9.78629
▁ce	-9.78646
▁לצפות	-9.78669
▁דיש	-9.7867
▁סוימת	-9.78673
▁הבנק	-9.78679
▁עזור	-9.78685
▁ומחים	-9.78705
▁שירים	-9.78711
▁ולוגי	-9.78711
▁ולש	-9.78716
▁המא	-9.7879
▁11	-9.78876
▁סול	-9.78879
▁השי	-9.78943
▁st	-9.78953
▁הדור	-9.78959
▁ופאים	-9.79055
▁נדר	-9.79111
▁כתובת	-9.7912
▁עש	-9.79129
▁השוק	-9.79257
▁דרש	-9.79292
▁מונים	-9.79374
▁יאור	-9.79419
עבד	-9.79424
▁יצו	-9.79451
▁כול	-9.79471
▁תנהל	-9.79481
▁וחרים	-9.79544
▁יתן	-9.7972
▁עון	-9.79746
▁התמקד	-9.79748
▁תחיל	-9.79755
▁עית	-9.79834
▁תקרב	-9.79909
▁בוב	-9.79921
▁פתאום	-9.80018
▁זהות	-9.80134
▁הודות	-9.80175
▁מומלץ	-9.80206
▁יתות	-9.8023
רבית	-9.80303
▁מחוז	-9.80402
▁מוצא	-9.80428
רמה	-9.80461
▁נפתח	-9.80544
▁עידן	-9.80615
▁להציל	-9.8065
▁פסק	-9.80679
▁הנהג	-9.80751
▁בחזרה	-9.80788
▁לטפל	-9.80794
▁מסו	-9.80811
▁אומ	-9.80821
▁ינט	-9.80823
▁תפתח	-9.80837
▁סטר	-9.80865
▁סכנה	-9.8087
▁בימים	-9.80876
▁הצביע	-9.80889
▁נייד	-9.809
▁מנע	-9.80956
▁טובוס	-9.80986
▁מסק	-9.81047
▁נדי	-9.81134
▁בצ	-9.81147
▁צורת	-9.81165
▁ורט	-9.81166
▁תגורר	-9.81179
▁אכיל	-9.81179
▁מחנה	-9.81254
▁עונש	-9.81261
▁שקר	-9.81307
▁ונק	-9.81309
▁צה	-9.81323
▁גלגל	-9.81382
▁וכח	-9.81397
▁גיא	-9.81424
▁יהנות	-9.81433
▁ושם	-9.8144
▁עגל	-9.81481
▁וויות	-9.81492
שכ	-9.81497
ומכ	-9.81504
▁במזרח	-9.8157
▁גובות	-9.8157
▁ציור	-9.81586
▁נהלים	-9.8163
▁חיד	-9.81689
▁הגיעה	-9.81701
▁וור	-9.81704
▁מותר	-9.81871
▁קיום	-9.81907
▁קמ	-9.81911
▁מגדל	-9.8197
▁לכולם	-9.81973
▁עשיתי	-9.82
▁טורקי	-9.82039
▁תערו	-9.82132
▁מוצלח	-9.82161
▁עשית	-9.82164
▁ומנ	-9.82167
▁רדו	-9.8217
▁>	-9.82182
▁הקמת	-9.82208
▁הידע	-9.82209
תק	-9.82224
▁וכבים	-9.82229
▁נורא	-9.82265
▁סימן	-9.82381
▁ותק	-9.82404
▁עברה	-9.82417
▁ישב	-9.82428
▁שואה	-9.8246
▁בודד	-9.82481
▁מלה	-9.82523
▁ולנוע	-9.82562
▁ועדון	-9.82571
▁עלייה	-9.82578
כש	-9.8258
בהם	-9.82582
לבד	-9.82605
▁צעדים	-9.82608
▁רשתות	-9.82641
z	-9.82641
▁אשתו	-9.82655
▁מוד	-9.82729
▁ספים	-9.82757
▁הפנים	-9.8279
ווי	-9.82807
קיימ	-9.82815
▁ולם	-9.82826
ונים	-9.82902
▁le	-9.82926
▁וגד	-9.82935
▁קודש	-9.82944
▁מהות	-9.82946
▁דעתי	-9.82958
▁צרות	-9.82961
▁ביולי	-9.82989
▁העלות	-9.83062
רש	-9.83072
▁לאו	-9.83086
▁מדהים	-9.8309
▁מרץ	-9.8314
▁סימ	-9.83164
▁ודר	-9.83201
▁תג	-9.83242
▁חלוק	-9.83297
▁לכו	-9.83325
▁השאר	-9.83353
▁עזב	-9.83405
▁ישיות	-9.83457
שתתפ	-9.8357
▁זכ	-9.8361
▁ייה	-9.83688
▁ילות	-9.83718
▁לוס	-9.83748
▁מיועד	-9.83756
▁וריו	-9.83781
▁שומע	-9.83783
▁נצ	-9.83826
▁תאריך	-9.83869
▁טיב	-9.83886
לפ	-9.83909
דמ	-9.83922
▁נקים	-9.83928
יעו	-9.84012
▁פצ	-9.84016
▁קדש	-9.84021
▁עשויה	-9.84048
▁חולה	-9.84078
▁היר	-9.8417
▁כנס	-9.84175
▁עיד	-9.8424
▁ליב	-9.84287
▁צור	-9.84318
▁סודות	-9.84398
▁רשם	-9.84474
▁תיבה	-9.84484
▁הרגו	-9.84497
▁כלב	-9.84499
▁הרה	-9.8455
▁חובה	-9.84555
▁הוכח	-9.84565
▁לנהל	-9.84589
▁אביו	-9.8462
▁השקעה	-9.84723
▁הזוג	-9.84735
▁מיקום	-9.84761
▁קידום	-9.84778
▁הרס	-9.84846
▁צירתי	-9.84848
▁הדם	-9.84902
▁גג	-9.84911
▁נושית	-9.84964
▁בלה	-9.84991
▁You	-9.85083
▁הולנד	-9.85167
▁וסיקה	-9.85167
▁האישה	-9.85183
▁גלוב	-9.85184
▁יימס	-9.8519
אינט	-9.85192
▁כחול	-9.85196
▁כתבה	-9.85199
▁מתאר	-9.85205
▁שיא	-9.8526
▁גדה	-9.8526
▁מסחרי	-9.85324
▁נכ	-9.85339
▁לבקש	-9.85372
▁קדימה	-9.85399
בני	-9.8541
▁שפע	-9.8541
▁האלו	-9.85427
▁לחיים	-9.85439
▁ושוב	-9.85565
▁דגיש	-9.8561
▁פגיעה	-9.85649
▁צער	-9.85668
▁רוכ	-9.85676
▁כשל	-9.85724
▁הצבאי	-9.85741
▁הקדוש	-9.85779
▁דידות	-9.85793
▁פסיד	-9.85799
יקרו	-9.8581
▁פעמי	-9.85882
▁פד	-9.85887
▁ענו	-9.8593
▁פת	-9.85932
▁ניב	-9.85944
▁אקו	-9.85954
▁בנייה	-9.85994
▁אמון	-9.86008
▁חיש	-9.86037
▁פות	-9.86069
▁רכ	-9.86094
▁לן	-9.86121
▁עו	-9.86124
▁מכון	-9.86201
▁דיק	-9.8622
▁שו	-9.86249
▁ולנ	-9.86262
▁טיסה	-9.86285
▁פשע	-9.86385
▁גוסט	-9.86409
▁בניית	-9.86424
▁יסי	-9.86427
▁המע	-9.86505
▁מלכה	-9.86505
▁ספרד	-9.86507
כוונ	-9.86516
▁גע	-9.86535
▁וטר	-9.86554
▁K	-9.86606
▁עליכם	-9.86613
▁כלה	-9.86685
▁זכרו	-9.86704
▁טרם	-9.86717
▁הלא	-9.86798
▁רעיני	-9.86811
▁זיק	-9.86843
▁רוצ	-9.86853
נכ	-9.86856
כדי	-9.86864
▁נגליה	-9.86874
▁דירות	-9.86904
▁ונס	-9.86922
▁ביד	-9.86942
▁הכרה	-9.87017
▁בחון	-9.87032
▁חשיבה	-9.87051
▁דק	-9.87079
▁אינדי	-9.87105
▁מטרים	-9.87169
▁מלך	-9.87195
▁בקשה	-9.87206
▁גיטלי	-9.87223
▁עריך	-9.87228
▁אסיר	-9.87248
▁להציג	-9.87249
▁יבוד	-9.8726
▁והר	-9.87339
▁ייק	-9.87351
▁חכם	-9.8742
▁עיתו	-9.87438
▁ופק	-9.8744
▁משיכה	-9.87456
▁הבדל	-9.87484
▁מית	-9.87499
▁טקסט	-9.87507
▁תוכנה	-9.87526
▁גור	-9.87581
▁טומ	-9.87583
▁וסט	-9.87599
▁נת	-9.87606
▁יאן	-9.87632
▁כזב	-9.87639
זג	-9.87663
▁הערכה	-9.87667
▁הדו	-9.87773
▁חקר	-9.87793
▁ורר	-9.87851
▁פרד	-9.87852
▁אבטחה	-9.8787
▁ירו	-9.87923
▁טומטי	-9.87961
▁בעה	-9.87969
▁ילדות	-9.88021
▁גשר	-9.88053
▁כלשהו	-9.88057
▁בלעדי	-9.88058
▁ציוד	-9.88063
▁שפות	-9.8809
▁חל	-9.88109
▁היט	-9.88135
▁i	-9.88137
h	-9.88194
▁ריטים	-9.8822
▁עז	-9.88243
▁נגטון	-9.88267
▁במספר	-9.88273
▁איון	-9.88298
▁גופני	-9.88309
▁בוהים	-9.88479
▁תפלל	-9.88482
▁צודק	-9.88545
▁אום	-9.88576
▁קריאה	-9.8863
▁ולת	-9.88643
▁ימ	-9.88731
▁לעצור	-9.88732
▁רם	-9.88811
▁ורכ	-9.88844
רכי	-9.88847
▁מצבים	-9.88855
▁זל	-9.88857
▁מיידי	-9.88942
▁השקע	-9.88946
▁קצ	-9.88983
▁אבן	-9.89006
ייק	-9.89052
▁יעשה	-9.8911
▁ורמלי	-9.89129
▁כנסי	-9.89139
▁בדק	-9.89139
▁מעשה	-9.8916
▁אורח	-9.89194
▁ופעות	-9.89194
▁קושי	-9.89211
▁חזית	-9.89243
לב	-9.89296
▁לולה	-9.89312
▁חטא	-9.89349
▁רנק	-9.89399
▁שלמת	-9.894
▁שיק	-9.89419
▁הפי	-9.8943
▁50	-9.8946
▁שאינ	-9.89512
▁וואי	-9.89531
▁אהבת	-9.89549
▁יטו	-9.89563
▁ממני	-9.8964
▁ישוא	-9.89674
▁סקי	-9.89705
▁צר	-9.89725
▁דים	-9.89742
▁תות	-9.89761
▁הוצא	-9.89765
▁יתרון	-9.8978
▁וקף	-9.89782
▁כיבוש	-9.8979
▁נוער	-9.89846
לט	-9.89904
▁נוחות	-9.89918
▁na	-9.8992
▁or	-9.89927
▁שוח	-9.89957
▁כשאני	-9.89963
▁טנדר	-9.90073
▁אחים	-9.90158
▁el	-9.90164
▁השלום	-9.90173
אונ	-9.90176
▁תבצע	-9.90178
▁בשעה	-9.9018
▁בדן	-9.90185
▁לוי	-9.90264
▁מבטיח	-9.90272
▁לקו	-9.90357
▁פג	-9.90375
▁מטבח	-9.90388
▁כס	-9.90432
▁דואר	-9.90442
▁רומא	-9.90447
▁טש	-9.90485
▁עצ	-9.90485
▁יסט	-9.90486
▁עניק	-9.9051
ירה	-9.90578
▁ביצע	-9.90631
▁כלול	-9.90635
▁יקול	-9.9067
▁ווד	-9.9069
▁ובל	-9.90706
▁מפלג	-9.90731
▁יבור	-9.9074
▁חוצה	-9.90758
▁נסייה	-9.90819
▁תנדב	-9.9082
▁תרופה	-9.90839
▁בחרו	-9.90915
▁רשימת	-9.90962
▁יושב	-9.91038
▁טובת	-9.91047
ופע	-9.91054
▁יעיל	-9.91062
▁צוג	-9.91071
▁ואב	-9.91082
▁פגישה	-9.9109
▁מחה	-9.91118
▁שואל	-9.91119
▁בלנות	-9.91125
▁לרכוש	-9.91249
▁ופר	-9.91259
▁כספי	-9.91262
▁עיתון	-9.91273
▁ייל	-9.91282
▁החי	-9.91304
▁רני	-9.9132
▁יאל	-9.91345
▁אסר	-9.91358
▁כנע	-9.91387
▁בתוכ	-9.91389
▁40	-9.91413
▁ברג	-9.91464
▁לישית	-9.91468
▁14	-9.91484
▁צום	-9.91488
▁לזהות	-9.91561
▁הראות	-9.91568
▁דברי	-9.91637
גן	-9.91709
▁נקבע	-9.91722
▁מושב	-9.91733
▁שחרור	-9.91733
▁נפט	-9.91738
▁ופן	-9.91789
▁מחבר	-9.91832
▁בגוף	-9.919
▁גרש	-9.91903
▁חות	-9.91963
▁שישה	-9.91965
▁מינ	-9.91988
▁וודאי	-9.91994
▁שפעת	-9.92007
▁מחצי	-9.92026
▁יעוד	-9.92034
▁קום	-9.92041
▁בבקשה	-9.92117
▁פריז	-9.92143
▁חבורה	-9.92145
▁מסביר	-9.92175
▁לאן	-9.92192
▁רבן	-9.92196
תמקד	-9.92206
▁משק	-9.92212
▁רה	-9.92225
▁סיכו	-9.92237
▁עונ	-9.92239
▁רפ	-9.92252
▁ביו	-9.92267
▁מום	-9.92301
▁ריש	-9.92312
▁פייה	-9.92349
נגד	-9.92384
▁18	-9.92398
▁ייש	-9.92464
▁שן	-9.92476
▁השקיע	-9.92478
▁בלב	-9.92518
▁כוונ	-9.92543
▁מפקד	-9.92555
▁הצוות	-9.92561
▁פשוטה	-9.9257
▁בטחת	-9.9258
▁שלהן	-9.92592
▁חודשי	-9.92607
▁נטי	-9.92621
▁התו	-9.92625
▁בשני	-9.92682
▁לצורך	-9.92774
▁דריך	-9.92778
▁ברחוב	-9.92787
▁וער	-9.92804
▁צאתי	-9.92865
▁לעזוב	-9.92896
▁re	-9.92909
▁סופי	-9.92914
▁קלט	-9.92964
▁אשראי	-9.93005
▁שול	-9.93031
▁עלים	-9.93118
▁גובה	-9.93215
▁כיף	-9.93217
▁לול	-9.93375
▁מתנה	-9.93386
▁כזאת	-9.93435
▁תיקון	-9.93441
▁פוץ	-9.93452
▁איר	-9.93464
▁תור	-9.93468
▁לילי	-9.93532
▁תמ	-9.93555
אל	-9.93575
▁ושך	-9.93665
▁בסין	-9.93675
▁וטו	-9.93675
▁הצעה	-9.93708
▁מותג	-9.93783
▁תמוך	-9.9388
שוב	-9.93885
▁ent	-9.93889
▁וועדה	-9.93898
▁בגדים	-9.93956
פת	-9.93995
▁צפה	-9.93995
▁ינך	-9.94095
▁תגבר	-9.94119
▁וברת	-9.94138
▁שכנ	-9.94245
▁קצה	-9.94283
▁נויות	-9.94299
▁להציע	-9.943
ֲ	-9.94322
▁גייס	-9.94333
▁ייד	-9.94343
▁משטר	-9.94392
▁סגר	-9.94403
al	-9.94513
▁לקוח	-9.94556
▁לאתר	-9.94621
▁יחס	-9.94643
▁ומץ	-9.94678
סמ	-9.94688
▁איתי	-9.94693
!	-9.94712
רת	-9.9476
▁ברשת	-9.94783
▁נשמה	-9.94828
▁דיאל	-9.94835
▁תזונה	-9.94836
▁חלוקת	-9.94868
▁בינה	-9.94961
▁וכי	-9.95014
▁שכנע	-9.95037
▁ואיד	-9.95086
▁שיחות	-9.9511
▁כון	-9.95129
▁צד	-9.95159
▁עילה	-9.95209
oogl	-9.95219
▁+	-9.95263
▁נדל	-9.95286
▁חקירה	-9.95355
▁כולה	-9.95422
▁שישי	-9.95444
▁תקל	-9.95515
▁הצד	-9.95516
▁לומות	-9.95519
▁וזרים	-9.95525
▁רשמי	-9.95627
▁השתתף	-9.95669
▁איום	-9.95706
וסלמ	-9.95721
▁גליים	-9.95727
▁יישב	-9.95729
▁אללה	-9.95746
▁אשה	-9.95746
D	-9.95775
▁ניס	-9.95818
▁נחה	-9.95822
חכ	-9.95852
▁ליטים	-9.95857
▁פגע	-9.95943
▁ודעה	-9.95972
▁סמכים	-9.95988
ולים	-9.96004
נחל	-9.96014
▁הבאות	-9.96019
▁com	-9.96086
▁גנים	-9.96086
▁זנ	-9.96101
▁האהבה	-9.96122
▁לפתור	-9.96122
▁פגוע	-9.96129
▁טיחות	-9.96155
▁איס	-9.96167
▁ברו	-9.96197
▁צירה	-9.96203
▁אצ	-9.96261
▁חדות	-9.96283
▁רשמ	-9.96325
▁מחזור	-9.9635
▁צמאות	-9.96359
▁עשתה	-9.96361
▁ופעה	-9.96373
▁התנ	-9.96392
▁חולק	-9.96422
▁רחבה	-9.96461
טור	-9.96492
▁צעו	-9.96561
▁החזק	-9.96588
▁תגרים	-9.96611
▁רגן	-9.96616
▁חווה	-9.96638
▁ומדת	-9.96658
יהם	-9.96721
▁הורה	-9.96727
▁הערב	-9.96738
▁ולן	-9.96751
▁מחוי	-9.96761
▁אתרי	-9.96796
▁תחלתי	-9.96806
▁לישון	-9.96807
▁לציין	-9.96807
▁שוחרר	-9.96812
▁האג	-9.96814
▁נעצר	-9.96829
▁ישנה	-9.96839
▁ימור	-9.96891
▁שליח	-9.96976
▁יחסית	-9.96997
▁ייב	-9.97002
▁שמור	-9.97016
▁הכין	-9.97025
▁מבחן	-9.97034
▁חומים	-9.97092
▁אלינו	-9.97103
▁הראש	-9.9711
▁ירום	-9.97151
▁עילים	-9.9718
לקוח	-9.97221
▁מדהי	-9.97232
▁מייצג	-9.97246
▁דענים	-9.97264
▁ישיים	-9.97293
▁הרגיל	-9.97394
▁יימות	-9.97405
▁הרשמי	-9.97459
▁לקבוע	-9.97494
▁לשתף	-9.97495
▁חזיר	-9.97525
▁חידות	-9.97538
▁החלט	-9.97541
▁מוס	-9.97547
▁סמכות	-9.97576
▁ליסטי	-9.9759
▁שנתי	-9.97613
▁for	-9.97627
▁למכור	-9.97724
▁יזון	-9.97734
▁תרגום	-9.97736
שיר	-9.97744
▁משא	-9.97759
▁יגה	-9.97787
▁פנה	-9.97857
▁עת	-9.97899
הן	-9.97929
▁סתיים	-9.97957
▁אפקט	-9.97961
▁שמן	-9.97973
▁תערב	-9.97981
▁יסר	-9.97983
ולי	-9.98
▁ורחים	-9.9803
▁בטוחה	-9.9805
▁תכוון	-9.98122
▁ינק	-9.98138
▁דגים	-9.98188
▁דינ	-9.98193
▁מניות	-9.98266
▁ציר	-9.98272
▁שיבה	-9.98301
▁צט	-9.98311
▁ייפ	-9.98359
▁הסדר	-9.98363
▁מימון	-9.98419
▁שגריר	-9.98427
▁ורא	-9.98444
▁צצ	-9.98453
▁חלקם	-9.98463
▁ינוס	-9.98469
▁יבר	-9.98495
▁סופ	-9.98512
▁הודה	-9.98515
▁הלקוח	-9.98542
קונ	-9.98548
▁מורים	-9.98565
▁25	-9.98601
▁ועצת	-9.98625
▁לר	-9.9869
▁גברת	-9.98712
בת	-9.98735
▁יכ	-9.98753
▁ליג	-9.98757
▁תחבר	-9.98763
▁מגע	-9.98841
▁de	-9.98843
▁Pro	-9.98895
▁תכנן	-9.98901
▁קנדה	-9.98908
▁סיה	-9.98909
▁פרנס	-9.98928
בילה	-9.99011
▁מסביב	-9.99017
▁ליך	-9.99064
ניהו	-9.99083
▁מידי	-9.99098
▁אמונ	-9.99114
▁תכ	-9.99116
▁שעברה	-9.99118
▁עביר	-9.99118
▁משתנה	-9.99246
▁בדרום	-9.99352
▁קילו	-9.99363
▁שומן	-9.9937
▁צרכ	-9.99397
▁ישו	-9.99437
▁גילוי	-9.99499
▁טכני	-9.99571
▁בפועל	-9.99587
▁מהי	-9.99598
▁אצבע	-9.99603
▁יראק	-9.9963
▁בץ	-9.99664
ניק	-9.99685
▁קשים	-9.99745
▁עיתי	-9.99776
▁אהבתי	-9.99818
▁ממשיך	-9.99825
▁יוס	-9.99864
▁מונע	-9.99865
▁100	-9.9987
▁יוט	-9.99916
▁נפ	-9.99922
▁גרי	-9.99965
▁הרג	-10.0001
▁להר	-10.0002
▁ולו	-10.0002
פגש	-10.0004
▁הגבוה	-10.0006
▁ינני	-10.0008
▁איים	-10.0014
▁ספרות	-10.0015
▁ביט	-10.0021
▁הריים	-10.0023
▁במשחק	-10.0029
▁רחיב	-10.003
▁יקל	-10.0031
▁ופה	-10.0033
▁גיעה	-10.0034
▁שובות	-10.0043
▁תפ	-10.0046
▁U	-10.005
▁חשמלי	-10.0052
▁מינית	-10.0055
▁וברים	-10.0056
▁קצרה	-10.0063
שלח	-10.0063
זר	-10.007
גדר	-10.0075
▁וקר	-10.008
▁פילה	-10.0081
▁חא	-10.0084
▁וגן	-10.0085
▁הכריז	-10.0087
▁ערי	-10.0092
▁מכונה	-10.0095
▁הלך	-10.0098
▁אזורי	-10.0098
▁וגיות	-10.0104
▁חוצ	-10.0109
מלי	-10.0113
▁המפ	-10.0116
▁וץ	-10.0118
▁מכם	-10.013
▁נייה	-10.0135
▁מוש	-10.014
▁בוס	-10.0143
תם	-10.0148
פעיל	-10.0149
▁למידה	-10.0161
▁רצוי	-10.0163
▁הוו	-10.0166
עורר	-10.0167
▁הרוסי	-10.0173
▁העור	-10.0173
▁אמצע	-10.0177
משיכ	-10.018
▁24	-10.0188
▁ארט	-10.0192
מאס	-10.0197
▁גיבור	-10.0199
▁רגשי	-10.0201
▁Win	-10.0208
צהר	-10.0209
▁פרה	-10.0219
▁עס	-10.0223
▁נוכ	-10.0226
▁מודע	-10.0228
▁עצים	-10.0235
▁ובלים	-10.0237
▁כפול	-10.0245
▁בּ	-10.0245
▁אימ	-10.0252
▁דגל	-10.0252
▁חיס	-10.0253
▁חזקה	-10.0257
▁מינים	-10.0259
▁ריכ	-10.0261
▁ng	-10.0269
▁יוון	-10.0272
▁נפו	-10.0283
▁עשים	-10.0292
▁המדע	-10.0302
▁בנתי	-10.0304
▁הון	-10.0311
▁שאלו	-10.0314
▁וגי	-10.0319
▁ורס	-10.0328
▁תקפה	-10.0329
חסו	-10.0334
▁כניס	-10.0338
▁אוטו	-10.0343
▁בעיני	-10.0347
▁רנס	-10.0353
▁נפל	-10.0353
▁עמו	-10.0354
▁ווית	-10.0362
▁סתר	-10.0368
▁בוצע	-10.037
▁יצה	-10.0374
▁להב	-10.0377
▁להן	-10.0383
▁המשך	-10.0385
▁ניסי	-10.0386
▁השראה	-10.0395
▁לאסי	-10.0399
▁יטול	-10.0408
מובן	-10.0411
▁ללה	-10.0411
▁דן	-10.0412
▁אטה	-10.0423
▁טרא	-10.0428
▁ליונ	-10.0429
▁סוס	-10.0432
▁מכונ	-10.0435
▁המק	-10.0437
▁13	-10.0442
▁גבול	-10.0442
▁עמים	-10.0442
▁בחלק	-10.0446
▁יתך	-10.0454
▁עשור	-10.0458
▁תז	-10.0463
▁קדוש	-10.0468
▁זרח	-10.0471
מח	-10.0472
▁הרשות	-10.0472
▁צאו	-10.0481
▁th	-10.0485
▁רקט	-10.0501
▁מוסד	-10.0506
▁רחק	-10.0513
▁קפ	-10.0515
▁ריא	-10.0519
▁בלו	-10.0521
בכל	-10.0525
▁ומדים	-10.0546
ציע	-10.0547
▁בורג	-10.0549
▁והה	-10.0551
▁ידיד	-10.0559
▁לאט	-10.056
▁טין	-10.0564
▁חזיק	-10.0567
▁הארי	-10.0577
▁סרב	-10.0585
▁בתא	-10.0586
▁יר	-10.0588
כה	-10.0596
▁מבו	-10.0602
▁פניו	-10.0606
▁במחקר	-10.0614
▁טרון	-10.0617
▁שתנה	-10.0619
▁16	-10.0625
בלתי	-10.0627
ני	-10.0629
▁מבית	-10.0639
▁טוחים	-10.0642
▁ברא	-10.0644
▁ברוח	-10.0651
▁משקיע	-10.0653
▁סיכ	-10.0656
▁טים	-10.0661
▁וויל	-10.0668
▁שוף	-10.0669
ודיע	-10.0676
בן	-10.068
▁יסות	-10.0684
▁יירים	-10.0686
▁מזו	-10.0694
▁רכוש	-10.0697
▁ia	-10.0703
שיכו	-10.0703
▁רות	-10.0705
קיבל	-10.0707
▁מתכ	-10.0714
▁טענה	-10.0718
▁זהה	-10.0722
▁ארק	-10.0735
▁תחילו	-10.0745
▁וזרת	-10.0761
▁אופי	-10.0764
▁הכלב	-10.0764
▁לילד	-10.0774
▁חר	-10.0779
▁יצור	-10.078
▁זע	-10.0784
יטחו	-10.0792
▁ימנים	-10.0796
▁אמו	-10.0797
דא	-10.0801
▁רגו	-10.0802
▁לקט	-10.0804
▁מעתי	-10.0808
▁ללים	-10.0819
▁רר	-10.0825
▁לעצמו	-10.0829
▁וסים	-10.083
▁יסוי	-10.083
▁מאי	-10.0835
▁הכרח	-10.0843
▁האב	-10.0843
▁סתיר	-10.0843
▁קריא	-10.0847
▁הזכות	-10.0851
▁נסו	-10.0852
▁דובר	-10.0853
פרט	-10.0874
▁לעבר	-10.0884
▁דומים	-10.0891
ריר	-10.0892
▁עמיד	-10.0898
▁לתה	-10.09
▁דבק	-10.0901
▁חוזה	-10.0906
▁רקו	-10.0907
▁מתוק	-10.0907
▁ביר	-10.091
▁ותרת	-10.0914
▁נרי	-10.0915
▁ההר	-10.0922
▁נציג	-10.0924
▁נייר	-10.0927
▁רגוני	-10.0948
▁לבנו	-10.0959
▁איפ	-10.097
▁התקבל	-10.0972
▁אנגל	-10.0974
▁וך	-10.0976
▁תנגד	-10.0984
▁רו	-10.0984
▁נער	-10.0985
▁סינ	-10.0987
▁ינים	-10.099
▁ונים	-10.0995
▁אפל	-10.1
▁לאמי	-10.1
▁In	-10.1005
ולוג	-10.1006
▁et	-10.1007
▁יכל	-10.1008
▁לפים	-10.1011
▁נוכח	-10.1016
▁גבלות	-10.1024
▁תאבד	-10.1024
וחר	-10.1025
▁ציפור	-10.1025
אמר	-10.1027
▁למדי	-10.1031
▁שינו	-10.1046
▁ליוני	-10.1046
▁לויות	-10.1052
▁מפעיל	-10.1059
▁יסטים	-10.1061
▁חלש	-10.1063
▁רקים	-10.1064
▁הרחב	-10.1076
▁צרו	-10.1078
▁בוש	-10.1081
▁סלו	-10.1093
רע	-10.1093
▁מוצ	-10.11
▁לכס	-10.1102
▁הרים	-10.1108
▁יבוא	-10.111
▁ובדת	-10.1111
▁מסורת	-10.1113
▁חובר	-10.1127
▁סוכר	-10.1131
▁חושת	-10.1132
▁ובה	-10.1135
▁צטר	-10.1136
▁פירות	-10.1138
▁דני	-10.1152
דבר	-10.1155
▁הליך	-10.1156
▁רגישה	-10.116
▁למות	-10.1162
▁ביה	-10.1166
▁שימה	-10.1168
▁רורה	-10.1168
▁דרגה	-10.1169
▁יינו	-10.1173
▁וגה	-10.1177
▁יטב	-10.1177
▁שותף	-10.1182
▁פלה	-10.1187
▁סמכ	-10.119
▁כוב	-10.1192
▁V	-10.1209
▁מכך	-10.1211
▁עירה	-10.1217
▁צאה	-10.1225
▁קרות	-10.1227
▁האישי	-10.1234
▁מדד	-10.1245
▁פריט	-10.1255
▁צרכים	-10.1255
▁עולמ	-10.1256
ממשל	-10.126
▁וגש	-10.1261
▁הור	-10.1261
▁הסת	-10.127
▁גורמ	-10.1274
שתנ	-10.1284
▁ro	-10.1292
▁סטרי	-10.1296
▁ra	-10.1306
▁בהי	-10.1316
▁׳	-10.132
▁ישות	-10.132
▁x	-10.132
▁וביל	-10.133
▁כרחי	-10.1341
▁Int	-10.1345
▁ירק	-10.1347
נדר	-10.1351
▁מנו	-10.1362
הם	-10.1364
▁שימות	-10.1366
▁לוודא	-10.138
▁הפרטי	-10.1396
▁בסרט	-10.1397
▁פצע	-10.1398
▁תון	-10.1399
▁ופנה	-10.14
▁es	-10.1401
▁צוב	-10.1408
▁הגיש	-10.1426
▁ליק	-10.1436
▁רוש	-10.144
▁t	-10.1444
▁מכס	-10.1444
▁שאיר	-10.1447
▁קרו	-10.1448
▁יכם	-10.1453
▁יטי	-10.1455
▁החלטת	-10.1455
▁לידי	-10.1457
▁שלכ	-10.1459
▁מיע	-10.1459
▁ראיות	-10.1464
▁אול	-10.1464
▁צות	-10.1467
▁ובע	-10.1469
▁עג	-10.1476
▁חסו	-10.1477
▁רטון	-10.1481
▁זרחי	-10.1483
בתי	-10.1484
לכ	-10.1488
▁ובין	-10.1499
▁למצב	-10.1499
▁יווני	-10.15
▁בינו	-10.1504
▁La	-10.1505
ck	-10.1507
▁מרק	-10.1517
▁ידות	-10.1522
▁האש	-10.1522
▁ונא	-10.153
▁יינים	-10.1532
▁שוד	-10.1537
▁עוט	-10.1549
▁הרע	-10.1557
▁המרכז	-10.1562
לוס	-10.1569
▁פיו	-10.1574
▁ושע	-10.1576
▁רמי	-10.1581
▁רכה	-10.1581
▁הרגש	-10.1588
▁המספר	-10.159
▁הגר	-10.1593
▁מרים	-10.1615
▁=	-10.1618
▁גשת	-10.1621
▁הגיב	-10.1622
ישוא	-10.1624
דף	-10.1632
▁עמדת	-10.1634
▁שתמשו	-10.1638
▁ותינו	-10.1643
▁ועיל	-10.1647
▁התג	-10.1652
הפכה	-10.1665
▁נון	-10.1665
▁דעות	-10.1667
▁שלמה	-10.1673
▁גרו	-10.1673
אמ	-10.1681
▁פעול	-10.1683
▁הכולל	-10.1686
▁קוק	-10.1687
▁הסיר	-10.1691
▁וקי	-10.1693
▁מונ	-10.1693
▁dows	-10.17
▁מלמד	-10.1702
▁בסי	-10.1709
▁עדות	-10.1717
▁שתות	-10.1719
▁קד	-10.1721
▁היב	-10.1723
כניס	-10.1725
▁ויד	-10.1727
▁ment	-10.1728
▁תיאור	-10.173
▁וזי	-10.1732
▁אורך	-10.174
▁פלו	-10.1742
▁קונים	-10.1745
▁לבש	-10.175
▁[...]	-10.1756
▁הווה	-10.1758
▁ויל	-10.1759
שש	-10.176
▁ועדת	-10.1763
▁ריי	-10.1764
קוד	-10.1765
▁גיב	-10.1766
▁המח	-10.177
▁תיב	-10.1772
▁וקש	-10.1776
▁ניסה	-10.1778
▁וקים	-10.1778
▁ילים	-10.1778
▁בשטח	-10.1784
▁חומרי	-10.1788
▁וגו	-10.1788
▁סובל	-10.1789
▁שליט	-10.179
▁נייני	-10.1797
th	-10.1798
▁וטה	-10.18
▁חזרו	-10.1804
▁נשא	-10.1809
ביע	-10.1813
▁בחו	-10.1815
▁יסא	-10.1824
▁ואן	-10.1832
▁מלט	-10.1836
▁יסון	-10.1842
▁cro	-10.1844
▁טחים	-10.1845
▁קיימ	-10.1847
▁קם	-10.1855
▁זם	-10.1865
▁ליש	-10.1866
▁רסיט	-10.1867
▁מוני	-10.187
צביע	-10.187
▁ספרדי	-10.1871
▁ופיה	-10.1874
▁הבי	-10.1878
▁גני	-10.1881
▁היד	-10.1893
▁בספר	-10.1898
▁בוגר	-10.1898
▁בטים	-10.19
▁ירא	-10.19
▁עתיק	-10.1903
▁ציל	-10.1905
▁St	-10.1909
▁Mo	-10.1913
▁באים	-10.1926
▁זונ	-10.193
▁והל	-10.1936
▁ומר	-10.1936
▁והג	-10.1946
גז	-10.195
▁מוחלט	-10.1962
▁פקד	-10.1963
▁ציע	-10.1964
▁ציעה	-10.1974
▁כד	-10.1975
▁^	-10.1984
▁גנת	-10.1987
▁J	-10.1996
▁רף	-10.1997
▁לבל	-10.2006
נט	-10.2029
▁צל	-10.2034
▁כוז	-10.2042
▁קבר	-10.205
▁תית	-10.2052
▁ודי	-10.2058
▁גדר	-10.206
▁שלט	-10.2073
▁דפס	-10.2078
▁וואר	-10.208
▁יע	-10.2089
▁ברים	-10.2089
▁רש	-10.2091
▁אשם	-10.2098
▁כונה	-10.21
▁שלים	-10.2109
▁נתונ	-10.211
▁רשימ	-10.2126
▁רופ	-10.2127
▁WEB	-10.2129
▁גנ	-10.2132
▁להכ	-10.2143
▁ליצ	-10.2147
▁טופ	-10.2151
▁w	-10.2155
ורת	-10.2173
▁שון	-10.2183
▁באה	-10.2184
▁ook	-10.219
▁בדים	-10.2199
▁נין	-10.2203
▁רשה	-10.2206
▁ריאל	-10.2209
▁להח	-10.2227
▁עברת	-10.2232
▁הירה	-10.2235
▁קוח	-10.2237
▁הפיזי	-10.2246
▁הצג	-10.2261
▁כרת	-10.2267
▁נוי	-10.2271
▁שרו	-10.2272
▁מינו	-10.2273
▁ולות	-10.2278
▁קווי	-10.2285
▁כתבו	-10.2289
רק	-10.229
▁מקרי	-10.2292
▁סיני	-10.2298
▁ענות	-10.2308
חשב	-10.2313
▁נעים	-10.2324
▁לבנ	-10.2327
▁רכז	-10.2328
▁צב	-10.2335
▁תאר	-10.2336
▁ומק	-10.2337
▁להצ	-10.2337
▁ובנ	-10.235
▁ריכה	-10.236
▁שס	-10.2362
▁כות	-10.2362
▁שומ	-10.2363
▁הדת	-10.237
▁שיפ	-10.2376
▁נמוכ	-10.2378
▁חול	-10.2379
▁קרים	-10.2383
▁ניה	-10.2387
▁לרי	-10.2392
▁התכ	-10.2395
▁הצעיר	-10.2395
▁משני	-10.2403
▁פריי	-10.2404
▁מלכת	-10.2407
▁דוני	-10.2411
▁כנים	-10.2417
▁יפוי	-10.243
▁ימושי	-10.2433
ראות	-10.2434
▁נמי	-10.2437
▁אוס	-10.244
▁יאת	-10.246
▁ורשת	-10.246
▁התחל	-10.2465
▁בגר	-10.2465
▁בורה	-10.2466
▁טרו	-10.2468
▁הביט	-10.2471
▁אומה	-10.248
▁בלות	-10.2483
דרכ	-10.2508
▁דת	-10.2512
▁מקדש	-10.2517
▁יפי	-10.2519
טים	-10.2523
יגוד	-10.2526
S	-10.2536
תו	-10.2539
▁זור	-10.2544
▁הגבול	-10.2546
▁רצי	-10.2547
▁רכו	-10.2549
▁מופע	-10.2553
▁ואר	-10.2557
▁השיב	-10.2559
בט	-10.2563
▁ריטי	-10.2564
▁זהר	-10.2569
▁פץ	-10.2572
▁ספס	-10.2579
▁c	-10.2579
▁אורג	-10.258
▁כוונת	-10.2584
▁קין	-10.2587
▁שיים	-10.2587
▁גורים	-10.2587
▁17	-10.259
▁דרי	-10.2604
▁יאנ	-10.2605
▁וויי	-10.2605
▁ליזם	-10.2617
▁טפ	-10.262
▁וקב	-10.262
▁דיס	-10.2623
▁ורב	-10.2627
an	-10.2635
▁דיי	-10.2637
▁נתח	-10.264
▁וויד	-10.2647
▁סוע	-10.2663
▁פולי	-10.2667
▁דונ	-10.2668
▁ורם	-10.2669
▁יגיע	-10.267
▁דס	-10.2673
▁ילר	-10.2694
כם	-10.2699
יק	-10.2703
▁צעת	-10.2708
▁חט	-10.2716
▁דע	-10.2724
▁יקרו	-10.2726
▁ספור	-10.2731
▁איננ	-10.2733
▁רצינ	-10.2737
▁מיש	-10.2747
▁שמיים	-10.275
▁ידר	-10.2754
עם	-10.2755
▁שכב	-10.2756
כז	-10.2759
▁הרוס	-10.2763
▁לכלית	-10.2766
▁ערבי	-10.277
▁תכנ	-10.278
▁איל	-10.2788
▁וקו	-10.2806
▁אמי	-10.2807
▁חלקה	-10.2809
▁דלה	-10.281
▁וכרת	-10.2813
▁יפול	-10.2833
ופ	-10.2836
▁חקיר	-10.2838
▁החלל	-10.2846
אינו	-10.2847
▁מתה	-10.2848
▁אלוהי	-10.2856
▁ורן	-10.2868
▁ריז	-10.2875
▁nce	-10.2875
x	-10.2884
▁זק	-10.2886
▁שולח	-10.2888
▁טעו	-10.2893
▁אמין	-10.2893
▁ומס	-10.2896
▁ציב	-10.2907
▁כשיר	-10.2915
הא	-10.2915
A	-10.2916
סביב	-10.2924
▁חז	-10.2924
▁בודה	-10.2931
▁ועדה	-10.2945
▁יחה	-10.295
▁ונט	-10.2952
G	-10.2963
▁ותרו	-10.2966
▁פקו	-10.2984
▁מרו	-10.2985
▁מרי	-10.2991
▁לכת	-10.2994
▁פינ	-10.2999
▁ציג	-10.3
▁no	-10.3001
וצי	-10.3004
▁המז	-10.3004
▁גיר	-10.301
▁אמינ	-10.3013
▁עט	-10.3019
▁60	-10.3025
▁רתי	-10.3034
▁הוב	-10.3042
קל	-10.3053
▁והב	-10.308
פנ	-10.3091
▁שימו	-10.3096
ביא	-10.3097
▁פיט	-10.311
▁יירה	-10.311
▁ועבר	-10.3112
▁ומים	-10.3121
▁שעל	-10.3124
▁חשבים	-10.3144
▁דרים	-10.3144
▁שצ	-10.3149
▁כיל	-10.3152
▁אמינו	-10.3184
▁סה	-10.3193
▁ברק	-10.3193
▁לבי	-10.3203
▁תפר	-10.3209
▁שרות	-10.3209
▁an	-10.3214
▁נוסע	-10.3214
▁ספרו	-10.3223
▁קיבלו	-10.3226
▁ופל	-10.3232
▁#	-10.3239
▁ght	-10.3239
▁ive	-10.3245
▁סום	-10.3256
▁מסכ	-10.3266
▁אדו	-10.3266
▁שתו	-10.3279
▁ודת	-10.3292
▁הקל	-10.3293
▁בתו	-10.3305
▁כנסו	-10.3307
רד	-10.3312
▁בריו	-10.3315
▁המצ	-10.3327
▁ישיו	-10.3337
▁עתי	-10.3339
▁סטון	-10.334
▁כבות	-10.334
▁טלפו	-10.3342
▁אנה	-10.3342
▁משמע	-10.3344
▁רובה	-10.3346
▁אמנים	-10.3347
▁שירה	-10.3353
▁עלו	-10.3362
▁רחים	-10.3367
▁להו	-10.337
▁ורף	-10.3372
▁ריט	-10.3373
▁כינ	-10.3375
▁ליז	-10.3379
▁המלא	-10.338
▁גלו	-10.3388
▁ni	-10.3403
▁אחי	-10.3405
▁נמצאו	-10.3408
▁יעור	-10.341
כי	-10.3413
00	-10.3419
▁צפ	-10.342
ויות	-10.3434
▁ic	-10.3444
חקני	-10.3449
▁ווא	-10.3449
▁פוק	-10.3454
▁קות	-10.346
▁דיה	-10.3463
▁שאו	-10.3474
וזיק	-10.3474
▁הישג	-10.3479
▁שף	-10.3489
ra	-10.3489
▁רוסי	-10.3495
▁חולי	-10.3503
▁לחוק	-10.3508
חז	-10.3509
▁ובמ	-10.3511
פא	-10.3514
תיב	-10.352
▁ווע	-10.352
▁גיט	-10.3529
רגנ	-10.3535
▁ומות	-10.3541
▁כנות	-10.3542
▁אחיו	-10.3544
▁To	-10.3553
▁ורמת	-10.3565
▁בורים	-10.357
▁עודי	-10.3572
▁ורח	-10.3577
▁אביב	-10.3582
▁תך	-10.3588
▁שניה	-10.3595
▁גיש	-10.3601
▁\	-10.3605
▁בעו	-10.3606
▁ליחה	-10.3607
▁מקוו	-10.3614
▁ימא	-10.3614
▁חרת	-10.3615
▁גילה	-10.3618
▁שרק	-10.362
▁הבין	-10.3628
וכ	-10.363
▁הוג	-10.3632
]	-10.3633
▁התר	-10.3638
▁וסד	-10.3641
▁ספיק	-10.3654
סיפ	-10.3657
וקי	-10.366
▁חן	-10.3661
▁מאפ	-10.3675
▁ge	-10.3683
▁הצי	-10.3686
▁קליט	-10.3691
▁במס	-10.3705
▁דוי	-10.3715
▁היל	-10.3715
▁יקס	-10.3724
ינס	-10.3729
▁כא	-10.3731
▁is	-10.3731
▁בחרת	-10.376
סיכו	-10.3761
▁בוי	-10.3778
▁גוי	-10.3793
▁משתנ	-10.3793
▁ריבו	-10.3798
▁בהת	-10.3815
▁כאל	-10.3827
▁קלות	-10.383
▁דוש	-10.3831
▁יזר	-10.3834
כוון	-10.3844
▁המוני	-10.3862
הליכ	-10.3876
▁זציה	-10.388
▁ירס	-10.3887
▁נדו	-10.3894
▁יעו	-10.3902
▁be	-10.3912
▁ציד	-10.3916
▁פקיד	-10.3916
▁ריון	-10.3917
▁מייל	-10.3925
▁והק	-10.3929
▁שיו	-10.3934
▁תגל	-10.395
▁מנט	-10.3957
▁מבקר	-10.3963
▁ילת	-10.3965
▁ליני	-10.3966
מכ	-10.3966
▁אספ	-10.3971
▁רעות	-10.3972
▁דוגמ	-10.3976
▁ight	-10.3984
▁וכנה	-10.3993
▁קני	-10.3998
ונה	-10.4008
▁שגר	-10.4013
▁טמ	-10.4019
▁בחן	-10.402
▁יער	-10.4028
▁חלו	-10.4036
▁רול	-10.4043
▁הבן	-10.4049
▁ציאה	-10.4057
▁ובו	-10.4071
▁Me	-10.4078
▁צינ	-10.4079
▁שיב	-10.4079
▁תני	-10.4096
▁הקה	-10.4101
▁יניו	-10.4107
▁ודאי	-10.4117
ll	-10.4118
▁המזרח	-10.4126
▁הפסק	-10.4128
▁פיינ	-10.4128
מידי	-10.413
▁יפות	-10.4135
▁מלחמ	-10.4143
▁הקול	-10.4147
▁יאר	-10.4154
▁וסלמי	-10.4162
▁הנפש	-10.4162
▁One	-10.4163
▁פופ	-10.4166
▁נהרג	-10.4171
▁מלכ	-10.4172
▁שיי	-10.418
▁ליה	-10.4183
▁קבלה	-10.4192
▁חשבת	-10.4195
ומט	-10.4197
סט	-10.4202
▁לכה	-10.4231
▁מזרח	-10.4234
▁sh	-10.4236
▁אחור	-10.4242
תג	-10.4246
▁נגל	-10.4252
▁דקה	-10.4264
תיי	-10.427
▁רשים	-10.427
שג	-10.4271
ch	-10.4274
▁נוב	-10.4275
▁צועים	-10.4278
▁אחריו	-10.4279
▁בקר	-10.4286
▁ותית	-10.4296
▁משל	-10.4302
לו	-10.4303
▁שנמצא	-10.4305
▁זיכר	-10.4308
▁וטי	-10.4322
▁וכב	-10.4326
▁מיק	-10.4327
▁פון	-10.4333
▁נוחה	-10.4339
בסיס	-10.4339
▁סיקו	-10.4345
▁מוי	-10.4346
▁בצע	-10.4348
▁קטיב	-10.4351
▁קע	-10.4361
▁Co	-10.4366
▁it	-10.4367
▁·	-10.4378
I	-10.4383
▁זמ	-10.4383
2	-10.4387
▁אוק	-10.4387
▁מהפכ	-10.4389
▁ולרי	-10.4395
▁עמי	-10.4398
▁רור	-10.4404
▁יסה	-10.4409
”	-10.4412
▁כו	-10.4416
▁עיית	-10.4417
▁שבר	-10.4422
▁טינ	-10.4426
▁יתנ	-10.443
▁שוט	-10.4436
▁עול	-10.4445
▁לימ	-10.445
▁דות	-10.445
▁תצ	-10.4451
▁חיצ	-10.4459
חות	-10.4463
בנת	-10.447
▁סים	-10.4485
▁גרות	-10.4494
▁צגת	-10.4495
▁התאים	-10.4497
▁ואלים	-10.4503
▁ודא	-10.4504
▁דדי	-10.4505
▁וטב	-10.4507
▁דעה	-10.451
▁co	-10.4515
▁ישא	-10.4519
▁חווי	-10.4521
▁כח	-10.4523
▁טיס	-10.453
▁סג	-10.4533
שמ	-10.4536
▁ניסו	-10.4551
▁ברות	-10.4551
▁סוך	-10.4566
▁ערבית	-10.4573
▁הנו	-10.4577
▁ייתי	-10.4581
מודי	-10.4599
▁וכנות	-10.4608
▁החבר	-10.4621
▁ולח	-10.4623
▁ובד	-10.4628
▁יחו	-10.4629
▁מוסר	-10.4629
▁תבר	-10.4637
▁פניה	-10.464
▁דיוק	-10.4642
▁יוונ	-10.4668
▁הפרס	-10.4689
▁מוצע	-10.4689
▁שליש	-10.4689
▁רטו	-10.4692
▁כנסה	-10.4708
ׂ	-10.4713
ׁ	-10.4717
▁בימי	-10.472
▁חובות	-10.4725
כות	-10.4732
▁נטו	-10.4734
▁מנהלי	-10.4737
▁יקי	-10.4749
▁המערב	-10.4753
▁צרכי	-10.4753
B	-10.4755
▁וגר	-10.4758
▁נחש	-10.4761
▁לחמ	-10.4784
▁זמנ	-10.4788
es	-10.4791
▁בשת	-10.4795
▁Be	-10.4799
▁ולמ	-10.48
▁כין	-10.4802
▁פלסט	-10.4805
▁רונות	-10.4808
▁הקב	-10.4814
▁Man	-10.4839
▁כירו	-10.4843
▁ie	-10.4846
3	-10.485
▁לסי	-10.486
▁soft	-10.4865
▁שורות	-10.4867
▁Wi	-10.4874
▁לחת	-10.4875
▁אבות	-10.4881
▁מנה	-10.4882
▁גלים	-10.4885
▁יכוי	-10.4886
▁פלסטי	-10.489
▁הקט	-10.4896
▁המשטר	-10.4904
▁חוקר	-10.4916
▁כנן	-10.4916
▁ולדו	-10.4921
▁ta	-10.4926
▁n	-10.4936
▁21	-10.4939
▁במי	-10.4947
▁Con	-10.4954
▁רמן	-10.4957
...	-10.4958
▁תוכנ	-10.4975
הס	-10.498
▁וסיף	-10.4983
▁המנהל	-10.4984
▁כניות	-10.4986
▁אמץ	-10.4987
▁גד	-10.4988
▁נתה	-10.4991
-3	-10.4993
עצם	-10.4998
▁תקפ	-10.5001
▁ופית	-10.5001
▁יעות	-10.5003
▁דרכי	-10.5012
▁זמנו	-10.5022
▁ועדו	-10.5025
שקיע	-10.5036
▁מאס	-10.505
▁שקל	-10.507
▁ליט	-10.5092
▁ma	-10.5098
גם	-10.5108
▁הלי	-10.5125
▁רויות	-10.5128
▁קנו	-10.5129
▁ידיו	-10.5135
צוי	-10.5141
▁ברתי	-10.5145
▁לומים	-10.5153
▁ילדי	-10.516
עסקי	-10.5173
w	-10.518
▁דלי	-10.5183
▁קולות	-10.5191
▁באות	-10.5192
▁לשיר	-10.5195
▁אגר	-10.5195
▁פנו	-10.5204
-5	-10.5205
▁יקאי	-10.5207
▁b	-10.5209
▁גרה	-10.5212
▁פיה	-10.5212
▁המקור	-10.5217
▁לכתי	-10.5219
▁רטיס	-10.522
▁נטל	-10.5221
הג	-10.5256
▁גנון	-10.5258
▁ילי	-10.5261
▁מלים	-10.5266
▁מסור	-10.5271
▁בע	-10.5272
דיא	-10.5282
▁תיקה	-10.5282
▁שמת	-10.5286
▁הורי	-10.5297
▁האפשר	-10.5297
4	-10.5304
▁רין	-10.5306
▁ry	-10.5313
▁ליא	-10.5321
▁שמית	-10.5332
▁יולי	-10.5333
▁צים	-10.5344
▁ועה	-10.5354
▁יסים	-10.5364
▁חמים	-10.537
▁ללו	-10.5374
▁יונות	-10.5375
▁ריות	-10.5376
▁חס	-10.538
▁קרוב	-10.54
▁קבי	-10.5411
▁גילו	-10.5416
▁כמים	-10.5426
▁mi	-10.5432
ri	-10.5434
▁האנ	-10.5441
▁טונ	-10.5446
▁ופות	-10.546
▁סימנ	-10.5467
▁להג	-10.5471
▁נפשי	-10.5471
▁ההש	-10.5473
▁ילך	-10.548
▁תגוב	-10.5484
▁לטה	-10.5489
▁גלות	-10.5491
שפ	-10.55
▁טוס	-10.5514
▁חפ	-10.5515
re	-10.5518
▁פקט	-10.5521
▁פנית	-10.5523
▁תחוש	-10.5523
▁נאצ	-10.5525
se	-10.5527
▁נהל	-10.5536
▁גאה	-10.5536
▁קמה	-10.5537
▁ינטרס	-10.5541
▁יבית	-10.5544
▁חיפ	-10.5547
▁ודדים	-10.5549
▁ייקט	-10.5553
▁אנרג	-10.5554
▁שנית	-10.5563
▁בדות	-10.5567
▁האחר	-10.5575
▁אנס	-10.5576
▁ציונ	-10.5577
▁קסי	-10.5577
▁טול	-10.5588
▁ריקה	-10.5588
▁לית	-10.5592
▁19	-10.5596
▁לדות	-10.5604
▁האפ	-10.5611
▁שבח	-10.5613
▁רוי	-10.5616
▁מומחי	-10.5623
▁הומו	-10.5634
▁ble	-10.5664
▁מלכות	-10.567
▁טימי	-10.5679
▁ישון	-10.5681
▁מהפ	-10.5684
▁רגלי	-10.5685
▁כלית	-10.5691
▁יקאים	-10.5717
▁רגי	-10.5742
▁at	-10.5743
פרו	-10.5745
▁ניי	-10.5748
▁העת	-10.575
▁one	-10.5759
▁היג	-10.5763
▁דוא	-10.5785
ורא	-10.579
▁וצ	-10.5792
▁פיים	-10.5799
▁כרה	-10.5806
▁לאים	-10.5815
▁רבו	-10.582
▁ומיים	-10.5825
▁‬	-10.5834
▁רטיים	-10.5838
▁שוא	-10.5839
▁ובני	-10.5844
▁חמיש	-10.5844
▁פעת	-10.5852
f	-10.5852
▁ern	-10.5855
הכ	-10.5867
▁הגב	-10.5875
רועי	-10.5882
▁לחו	-10.5888
▁בטחה	-10.5894
בש	-10.5897
▁צביע	-10.5912
▁וחס	-10.5917
▁מחז	-10.5917
▁האח	-10.5922
▁הוד	-10.5925
▁נאצי	-10.594
▁סיבי	-10.5948
זכיר	-10.5956
▁ריר	-10.5961
▁משלו	-10.5969
▁והי	-10.597
▁ly	-10.5972
▁יימ	-10.5973
li	-10.5973
לך	-10.5981
▁בון	-10.5983
▁בקשת	-10.5986
▁פרת	-10.5988
▁תמיכ	-10.5992
▁ביעות	-10.5994
▁קוש	-10.5995
▁האט	-10.5995
▁פך	-10.6006
▁עכב	-10.6007
▁יומ	-10.6011
▁השר	-10.6015
▁ילו	-10.6017
▁אנד	-10.6045
▁נטר	-10.6049
▁nt	-10.6049
▁סף	-10.6052
צרכ	-10.6059
▁צחי	-10.6074
▁חלטת	-10.6089
▁מחים	-10.6095
▁בוד	-10.6096
גרמנ	-10.6097
▁פרות	-10.6113
▁ממך	-10.6117
▁גלי	-10.6123
▁Uni	-10.6125
▁Al	-10.6144
▁לשה	-10.6146
▁החזר	-10.6148
▁קנים	-10.6158
▁טס	-10.6159
▁תחר	-10.6167
▁המט	-10.6177
▁ואמ	-10.6178
▁תול	-10.6186
▁35	-10.6189
▁בדה	-10.6194
▁שקו	-10.6195
▁וכה	-10.6204
▁ודו	-10.621
▁חדים	-10.6215
▁וודא	-10.623
▁צוע	-10.6233
▁מיס	-10.6251
▁כונים	-10.6253
▁פנימ	-10.6265
▁פתור	-10.6269
▁קדים	-10.6287
ייצג	-10.6295
E	-10.63
ליא	-10.6302
▁שגים	-10.6304
▁ארצ	-10.632
▁פנ	-10.633
▁שלטו	-10.6333
▁לומ	-10.6333
צע	-10.634
▁22	-10.6348
▁r	-10.6348
עוד	-10.6349
אס	-10.6359
▁סיר	-10.6367
פצ	-10.6377
צפ	-10.6385
▁פינה	-10.6394
▁לינ	-10.6397
▁ונית	-10.6409
התח	-10.6414
▁וגוסט	-10.6444
▁ייצ	-10.6444
▁מעות	-10.6452
▁פשר	-10.6459
▁בילה	-10.6461
▁nd	-10.6465
▁ניהם	-10.6488
▁ליטו	-10.6491
▁זד	-10.6502
▁ספו	-10.6503
▁da	-10.6505
▁ure	-10.6506
▁וחי	-10.6507
▁ילוי	-10.6512
▁עצה	-10.6524
▁חיו	-10.6524
▁מוז	-10.6528
▁ויס	-10.6538
▁תוק	-10.6559
▁רוני	-10.6559
▁em	-10.6567
חצ	-10.6574
▁ion	-10.6586
▁צע	-10.6587
▁קאות	-10.6602
▁חברו	-10.6618
▁תוס	-10.6625
▁בבר	-10.6634
▁אמה	-10.6635
▁ואחרי	-10.6635
▁מנות	-10.6645
▁רלי	-10.6646
▁עסקה	-10.665
▁קיצ	-10.6652
▁h	-10.6666
▁ערכי	-10.6669
▁{	-10.6669
▁ושה	-10.6677
הצ	-10.668
פכ	-10.6683
▁עצות	-10.6686
▁חלה	-10.6687
▁ותיי	-10.6692
▁קדמ	-10.67
▁רומי	-10.67
▁פוח	-10.6716
▁יזציה	-10.6717
▁נוע	-10.6727
▁טנ	-10.6732
▁אליי	-10.6739
▁מושל	-10.6739
▁גיעו	-10.6744
▁אונ	-10.6749
▁חתו	-10.6758
▁ותיות	-10.6765
▁המסע	-10.6773
C	-10.6775
K	-10.6782
▁d	-10.6785
▁ינת	-10.6795
עצור	-10.6798
▁יקו	-10.6802
▁Re	-10.6804
▁וראה	-10.6805
ריקנ	-10.6819
▁שקע	-10.6821
▁קירה	-10.6839
▁מצרי	-10.6854
▁[+]	-10.6855
▁יאטר	-10.6861
סופ	-10.687
▁המיני	-10.6871
▁אדי	-10.6877
▁דיע	-10.688
▁נטלי	-10.6883
▁תונה	-10.6893
▁כרות	-10.6896
▁גיה	-10.6909
ft	-10.6921
▁סודי	-10.6925
חרר	-10.6929
▁מפי	-10.6936
▁אחות	-10.694
▁צא	-10.6942
▁וסר	-10.6961
▁28	-10.6978
▁ללות	-10.6994
▁לחבר	-10.6999
▁תנהג	-10.7
▁מצו	-10.7004
▁ויר	-10.701
▁טות	-10.7015
▁רידה	-10.7015
רלי	-10.7026
▁מלח	-10.7026
▁ובא	-10.7041
▁קטו	-10.7054
▁חמא	-10.7073
▁70	-10.7074
▁קן	-10.7083
▁Off	-10.7097
’	-10.7101
▁הגבר	-10.7101
ורכב	-10.7106
▁פלג	-10.7107
▁אגו	-10.7109
▁זים	-10.711
▁מדה	-10.7115
▁ניים	-10.7115
▁אמרת	-10.7118
▁us	-10.7121
▁פגיע	-10.7123
▁ואו	-10.7139
▁חשו	-10.7153
▁All	-10.7155
ינו	-10.7162
▁במק	-10.7165
ויב	-10.7177
▁וחד	-10.7179
▁ch	-10.7195
▁ופו	-10.721
▁כב	-10.7211
▁חוס	-10.722
▁דקים	-10.7222
▁פוא	-10.7228
▁טחון	-10.7237
▁הודי	-10.7247
▁רסי	-10.7254
▁500	-10.7255
נית	-10.7256
▁תמו	-10.7265
▁man	-10.727
▁למת	-10.727
▁אלים	-10.7272
▁תנות	-10.7273
▁הראו	-10.7276
▁סכנ	-10.7278
▁Mar	-10.7282
▁נטה	-10.7286
▁דיני	-10.729
▁שביל	-10.7297
▁Z	-10.7304
P	-10.7309
▁וחב	-10.731
▁הצט	-10.7333
▁יני	-10.7334
▁ייחוד	-10.7335
▁תשוב	-10.7335
▁טוו	-10.7338
▁שורים	-10.7351
▁בויות	-10.7356
▁חומ	-10.7365
▁23	-10.7374
▁Air	-10.7384
▁אלפ	-10.7385
▁בכי	-10.7387
▁ברה	-10.7388
▁My	-10.7391
▁גרעי	-10.7392
▁יצים	-10.7411
▁נדה	-10.7422
la	-10.7428
T	-10.7431
▁סורי	-10.744
▁בחי	-10.7453
▁חופ	-10.7458
▁ימוש	-10.7478
▁Ta	-10.7483
▁לראש	-10.7484
▁דשות	-10.7487
▁ליון	-10.7495
▁תעשי	-10.7496
יז	-10.7497
▁la	-10.75
▁מתים	-10.7511
en	-10.7516
▁שעים	-10.7525
▁כאבי	-10.7533
▁son	-10.7533
▁באר	-10.7534
▁תיכ	-10.7535
▁mo	-10.754
▁נסות	-10.7558
▁ובס	-10.7562
▁כיר	-10.7563
▁לגור	-10.7572
▁דקו	-10.7581
▁שמעו	-10.7584
▁לדה	-10.7599
ur	-10.76
▁ייז	-10.7603
פיל	-10.7605
▁פקה	-10.7608
1	-10.7611
▁יגר	-10.7623
▁אליס	-10.7632
▁מלאי	-10.7645
▁יטנ	-10.765
▁מולד	-10.7661
▁IP	-10.7666
▁כוחו	-10.767
▁No	-10.7671
▁Y	-10.7686
N	-10.7704
▁p	-10.7706
▁ca	-10.7707
▁ורע	-10.7709
▁לונ	-10.7712
▁מחק	-10.7717
ממש	-10.7732
לונ	-10.7736
▁יכון	-10.7737
▁ri	-10.7746
▁דיו	-10.7747
ירי	-10.775
▁ica	-10.7763
▁עים	-10.7764
וני	-10.779
▁שירי	-10.7794
▁מנים	-10.7801
.1	-10.7804
▁ודיו	-10.7808
▁כר	-10.7814
▁45	-10.7828
▁מרצ	-10.7831
▁המציא	-10.7839
פעות	-10.7842
פו	-10.7846
▁רדות	-10.7849
▁ינד	-10.785
▁רכות	-10.7858
ent	-10.7862
▁Ma	-10.7874
בטיח	-10.7883
בדוק	-10.7886
▁פונים	-10.7894
▁ליס	-10.7896
▁נצי	-10.7898
▁מימ	-10.7915
▁זיקה	-10.7934
▁כשא	-10.7941
▁נאי	-10.7942
▁by	-10.7944
▁ופיע	-10.7945
▁vers	-10.7951
יברס	-10.7962
▁רשו	-10.7968
▁מייד	-10.7969
▁יוב	-10.7974
▁ולוג	-10.7993
▁ופש	-10.7999
▁ימום	-10.8005
▁בעים	-10.8017
▁27	-10.8018
▁אוט	-10.8021
▁ציוני	-10.8024
▁כיס	-10.8035
).	-10.8047
▁מאחור	-10.8047
▁קיב	-10.8048
▁Fi	-10.8052
▁ואחר	-10.8054
▁אלבו	-10.8058
;	-10.8061
O	-10.8062
▁חתם	-10.8072
▁לוש	-10.8073
▁שחי	-10.8075
▁נתר	-10.8088
▁בענ	-10.8097
▁do	-10.81
▁באש	-10.8108
▁מבי	-10.8111
▁סטו	-10.8123
▁מון	-10.8128
ֱ	-10.8154
▁~	-10.8154
▁gy	-10.8155
▁בפנ	-10.8156
▁אפו	-10.8157
-1	-10.8172
lo	-10.8184
▁בד	-10.8202
▁כמי	-10.821
▁אנוש	-10.821
▁ness	-10.8212
▁ליות	-10.8219
▁זרו	-10.822
▁שחק	-10.823
▁חת	-10.8241
▁ליכם	-10.8241
▁26	-10.8242
▁גרפי	-10.8245
ספק	-10.8249
▁l	-10.8251
▁גשו	-10.8253
▁ספיר	-10.8253
▁ואה	-10.8263
▁הדג	-10.8267
R	-10.8276
▁כנו	-10.8277
▁ברט	-10.8289
▁מוכ	-10.8291
▁ממי	-10.8297
▁עדים	-10.8298
▁שרד	-10.83
▁סקו	-10.8301
▁פונ	-10.8302
▁ומב	-10.8306
▁רווי	-10.8309
us	-10.8319
▁צנ	-10.8327
▁הצל	-10.8328
le	-10.8339
▁המשק	-10.8343
▁שרי	-10.8369
▁80	-10.837
▁מבטי	-10.8373
▁וונת	-10.8377
גי	-10.838
▁ריל	-10.8383
צי	-10.8385
▁ההו	-10.8408
▁החו	-10.8409
▁90	-10.8416
▁בחיר	-10.8418
▁הוכיח	-10.8424
▁יליו	-10.843
▁גדו	-10.8431
שפיע	-10.8433
▁ימן	-10.8433
▁חנ	-10.8451
▁נגלי	-10.8454
ודק	-10.847
▁קראת	-10.847
▁«	-10.8479
▁est	-10.8481
▁שטחי	-10.8484
▁לצות	-10.8497
▁סות	-10.8511
▁יפו	-10.8512
▁עות	-10.8524
▁וע	-10.8531
▁ימו	-10.8533
▁ודד	-10.8533
▁מיה	-10.8533
-6	-10.854
▁אכ	-10.854
השפע	-10.855
▁לפו	-10.8554
ed	-10.8555
▁ממו	-10.857
▁Is	-10.8576
▁ועצ	-10.8578
בים	-10.8582
▁הפיל	-10.8589
▁שז	-10.8591
▁צאות	-10.8593
▁טק	-10.8595
▁שווא	-10.8604
▁פשית	-10.8604
▁מונו	-10.8616
יס	-10.8622
▁לאס	-10.8623
▁k	-10.8623
▁יקט	-10.8627
▁you	-10.863
לה	-10.8635
▁200	-10.8636
רג	-10.8637
▁רונ	-10.8643
▁New	-10.8644
▁הול	-10.8645
▁לוצ	-10.8648
▁התק	-10.8649
▁ian	-10.865
תיא	-10.8651
▁לבדו	-10.8658
▁הממ	-10.8669
▁Tra	-10.8682
אופ	-10.8684
▁הכדור	-10.8709
▁Comm	-10.8713
▁יימת	-10.8713
▁ברח	-10.8723
▁יפור	-10.8725
▁וקול	-10.8728
▁וקט	-10.8729
▁כולת	-10.8732
▁ריו	-10.8733
▁דד	-10.8734
▁פן	-10.8736
▁end	-10.875
▁חפש	-10.8753
▁תינ	-10.8758
▁פליט	-10.8767
▁דש	-10.8767
▁צלחת	-10.8773
▁o	-10.8779
▁ומת	-10.8781
▁אטי	-10.8782
▁עכ	-10.8782
▁שופ	-10.879
▁דיד	-10.879
▁Di	-10.8799
▁סטנ	-10.8805
▁g	-10.881
יכנס	-10.882
▁זרה	-10.8838
▁נוג	-10.8839
V	-10.8846
▁בהר	-10.8846
▁התפ	-10.8859
▁מתנ	-10.8859
▁גים	-10.8885
▁צלי	-10.8886
▁שינ	-10.8902
▁מוג	-10.8908
in	-10.891
לומ	-10.8927
▁ted	-10.8944
▁tor	-10.8944
▁קולי	-10.8944
▁se	-10.8947
▁נתי	-10.8951
▁טענו	-10.8956
▁מוך	-10.896
▁סיי	-10.8966
▁מפת	-10.8973
▁ביעה	-10.8981
▁סס	-10.9
▁Out	-10.9001
▁f	-10.9003
▁Ad	-10.9006
▁מתא	-10.9007
-4	-10.9014
▁מדת	-10.903
▁סב	-10.9031
▁ers	-10.9043
▁הבו	-10.9044
▁pro	-10.9046
▁קרון	-10.9053
▁המב	-10.9068
▁רוצי	-10.9079
▁Home	-10.9106
▁לתק	-10.9111
Y	-10.9113
▁וכמה	-10.9121
▁אולוג	-10.9122
▁רית	-10.9125
▁בגד	-10.913
▁חתה	-10.9136
יח	-10.9137
▁בדי	-10.9145
▁לדת	-10.9145
▁רעו	-10.9157
כלו	-10.9159
▁ence	-10.9163
tt	-10.9172
▁}	-10.9178
▁Q	-10.9185
▁וקד	-10.9188
טיפ	-10.9195
עצמ	-10.9196
וספ	-10.9204
▁ולס	-10.9205
ראק	-10.9208
▁דום	-10.9215
גרום	-10.9221
▁ורטו	-10.9222
▁רפיה	-10.9237
▁קדמו	-10.9247
▁אפר	-10.9253
▁קאר	-10.9257
▁וראי	-10.9264
▁רפו	-10.9264
.2	-10.9269
▁תאם	-10.9269
▁World	-10.9281
▁For	-10.9285
▁IT	-10.929
▁ורטי	-10.9295
▁וחנ	-10.9302
▁קונג	-10.9306
▁נסט	-10.9309
בטח	-10.931
▁me	-10.931
▁קשרי	-10.9313
▁וניות	-10.9324
▁איב	-10.9333
אפ	-10.9334
▁מלו	-10.9334
▁בדם	-10.9341
▁And	-10.9344
▁מונת	-10.9345
ood	-10.9353
▁שיע	-10.9354
▁וברי	-10.9367
▁ינר	-10.9369
▁מיי	-10.9399
▁מדים	-10.9421
▁ביי	-10.9438
▁ומח	-10.9456
▁העובד	-10.9462
▁ילה	-10.9463
▁טינית	-10.9485
H	-10.9488
▁לעז	-10.949
▁חדת	-10.9507
יב	-10.9508
▁ies	-10.9509
ga	-10.951
▁תזונ	-10.9516
▁בחינ	-10.9526
עמ	-10.953
ve	-10.9535
▁סיס	-10.9543
▁סבור	-10.959
▁ליכ	-10.9599
▁לנוע	-10.9608
▁תומ	-10.9608
▁לחי	-10.9609
ער	-10.9611
▁קיע	-10.9624
▁פסת	-10.963
▁לולי	-10.9641
▁טיח	-10.9642
▁דמת	-10.9649
▁רצות	-10.9657
▁כרו	-10.9657
▁עקבו	-10.9664
▁הציב	-10.9668
▁דיג	-10.9674
▁ודיה	-10.9684
▁הילה	-10.9688
▁יוו	-10.9688
▁התי	-10.9691
▁המד	-10.9694
▁שכ	-10.9701
▁ey	-10.9716
▁בבו	-10.9718
▁יהנו	-10.9726
▁ראן	-10.9734
▁מקומו	-10.9736
▁גנו	-10.975
▁בבת	-10.9752
▁טרס	-10.9752
5	-10.9752
▁יוח	-10.9761
▁→	-10.9771
▁וסי	-10.9773
olo	-10.9779
▁טימ	-10.9787
▁דלים	-10.979
▁ממשי	-10.9791
טר	-10.9796
▁מחו	-10.98
▁הכנ	-10.9805
▁סרטי	-10.9805
▁שמיר	-10.981
▁תיות	-10.9815
▁:)	-10.9834
U	-10.9837
▁רדים	-10.9856
',	-10.9858
▁כשהו	-10.9859
▁m	-10.9861
▁רכת	-10.9865
▁תנה	-10.9866
הסת	-10.9881
▁קרית	-10.9882
רכ	-10.9884
▁צדדי	-10.9891
▁כית	-10.9893
▁29	-10.9894
▁טבח	-10.9899
▁ial	-10.9902
▁מרת	-10.9918
▁ננו	-10.9948
▁ביעי	-10.9977
▁אופט	-10.9978
▁ומדי	-10.9979
▁מיל	-11.0018
▁De	-11.0018
▁Da	-11.0022
▁Amer	-11.0025
▁_	-11.0026
▁מופ	-11.0031
▁ניש	-11.0031
▁צמ	-11.0043
▁שוי	-11.005
▁זני	-11.0051
▁תרי	-11.0063
▁ניין	-11.0066
▁שית	-11.0072
מהלך	-11.0074
▁יילי	-11.0075
▁פגיש	-11.0077
▁HIV	-11.0089
▁להיו	-11.0092
▁`	-11.0093
▁ולכ	-11.0105
▁שדר	-11.0117
▁האד	-11.0118
▁מעונ	-11.012
▁שפו	-11.0123
▁שחר	-11.0139
▁המנ	-11.0142
▁Sa	-11.016
▁רנט	-11.0165
▁פתר	-11.0173
▁Go	-11.0179
▁li	-11.0184
מבי	-11.0185
▁פאר	-11.019
▁תקו	-11.0207
▁לור	-11.0213
▁Love	-11.022
▁קדמי	-11.0247
▁sta	-11.0255
-2	-11.0256
▁מיתי	-11.0257
▁הגז	-11.0259
▁מתק	-11.0266
פעל	-11.0266
▁קודה	-11.0272
▁מטוסי	-11.0274
זיאו	-11.0275
שיג	-11.0275
▁בגדי	-11.028
▁שתתף	-11.0286
▁גיות	-11.0302
▁רצינו	-11.0305
▁יגו	-11.0325
ma	-11.0328
דל	-11.0334
▁סבי	-11.0339
F	-11.0339
▁כאי	-11.0343
is	-11.0354
▁נקו	-11.0362
▁תופ	-11.0367
כריז	-11.0369
▁nge	-11.0373
▁Ph	-11.0375
▁טיות	-11.0382
30	-11.0391
▁net	-11.0392
▁קנ	-11.0392
▁מחנ	-11.0402
▁ואש	-11.0421
▁קוס	-11.043
▁300	-11.0443
▁out	-11.0445
▁כרח	-11.0494
▁מצבי	-11.0513
ון	-11.0515
▁מטרי	-11.0534
▁בניה	-11.054
▁>>	-11.0553
▁חמה	-11.0554
▁מנם	-11.0558
▁תרג	-11.0566
▁Pre	-11.0571
▁ארג	-11.0575
▁גשתי	-11.0602
▁ונו	-11.0608
▁בגן	-11.0631
▁קדו	-11.0641
▁וויה	-11.0645
▁חוו	-11.0646
▁הפג	-11.0654
▁נאות	-11.0659
▁תיו	-11.0663
▁Mac	-11.0683
ta	-11.0694
וסיק	-11.0701
▁rch	-11.0702
גיר	-11.0704
er	-11.0708
▁משם	-11.0709
▁הבת	-11.0713
▁נקב	-11.0716
j	-11.0721
▁gn	-11.0742
▁ex	-11.0757
לים	-11.0771
▁תפק	-11.0777
▁מוק	-11.0785
▁רדי	-11.0786
▁צוא	-11.0789
▁פסי	-11.0801
▁לפת	-11.0831
▁גדי	-11.0847
▁שמא	-11.0872
▁במז	-11.0872
▁סמה	-11.0876
▁נימי	-11.0878
▁Un	-11.0886
▁חוזי	-11.0887
▁Ro	-11.0888
קצי	-11.0893
▁סיון	-11.0905
▁בלנ	-11.0916
▁It	-11.0923
▁וזר	-11.0939
▁חתונ	-11.0947
-8	-11.0955
ופול	-11.096
▁קאי	-11.0964
▁Exp	-11.0973
ותר	-11.0979
▁וצות	-11.0984
▁II	-11.0995
▁הוק	-11.0998
ss	-11.1001
▁לעם	-11.1001
▁ישים	-11.1004
▁בקה	-11.1012
▁בתח	-11.102
▁Sch	-11.103
▁Human	-11.1039
ww	-11.1041
▁הרת	-11.1045
▁זרות	-11.1055
▁קים	-11.1055
▁כינו	-11.1057
▁וניה	-11.106
▁ינות	-11.1066
▁מגו	-11.1088
▁טאר	-11.109
▁ha	-11.1099
▁ורשי	-11.1114
▁שבי	-11.1117
▁חב	-11.112
M	-11.1146
▁pe	-11.1147
של	-11.1152
▁דרה	-11.1162
▁An	-11.1167
סן	-11.1181
▁Watch	-11.1183
▁ותפים	-11.1193
▁באור	-11.1207
X	-11.1221
▁הספ	-11.1224
▁סמי	-11.1224
at	-11.1239
▁Star	-11.1243
ויקט	-11.1263
▁תמונ	-11.1281
▁פרח	-11.131
▁דול	-11.1315
▁שרים	-11.1328
▁Life	-11.1328
▁יריד	-11.1329
▁שתנו	-11.1332
▁tal	-11.134
▁פלי	-11.134
▁נשי	-11.1344
▁יטל	-11.1348
▁sa	-11.135
▁צוד	-11.1355
▁ליים	-11.1356
▁מעש	-11.1363
▁v	-11.1393
▁באת	-11.1394
▁ספ	-11.1397
▁אחרא	-11.1398
▁סגנו	-11.14
▁כריס	-11.1405
6	-11.141
▁ניקה	-11.1421
W	-11.1422
▁Can	-11.1426
▁ואח	-11.1435
▁בהק	-11.1442
▁אומי	-11.145
▁וגיה	-11.1455
▁לעת	-11.1457
טרנט	-11.1463
▁יימי	-11.1464
▁דורג	-11.1493
▁אדמה	-11.1501
▁בלת	-11.1508
9	-11.1511
▁לנס	-11.1517
▁תיהם	-11.1527
-7	-11.1536
▁מחקרי	-11.154
▁nta	-11.154
▁אימה	-11.1558
▁מכור	-11.1561
L	-11.1562
▁War	-11.1574
▁ינית	-11.1579
▁מכו	-11.1582
▁וחר	-11.159
▁צמיח	-11.1609
▁הפרט	-11.1609
▁הספר	-11.1609
▁רצית	-11.161
▁שור	-11.1611
▁מדו	-11.1618
▁יקון	-11.163
▁MBA	-11.1633
0%	-11.1645
▁גברי	-11.1648
▁איג	-11.1649
▁ניצ	-11.165
▁מציא	-11.1665
▁טרנ	-11.1669
▁הרשמ	-11.168
עיקר	-11.168
▁חותי	-11.1702
▁ואנ	-11.1719
▁Ch	-11.1724
▁dis	-11.1729
▁Comp	-11.1778
עזוב	-11.1781
▁התמו	-11.1787
mp	-11.1787
▁רוו	-11.1793
▁תוח	-11.1794
8	-11.1799
▁דלו	-11.18
▁חלומ	-11.1806
▁150	-11.1814
▁קוו	-11.1824
▁לאח	-11.1827
דם	-11.1829
▁הגי	-11.1833
▁פוי	-11.184
▁קשת	-11.1843
▁כף	-11.1855
▁וטנ	-11.1859
▁Sci	-11.186
-9	-11.1868
▁עני	-11.1886
▁יסל	-11.1896
צל	-11.1899
▁בטי	-11.1901
▁רפי	-11.1914
▁וספי	-11.1921
▁פיות	-11.1927
▁רחו	-11.1931
▁VPN	-11.1932
קטרו	-11.1939
▁בלונ	-11.1941
▁31	-11.1942
▁day	-11.1944
▁ושות	-11.1952
▁48	-11.1959
▁Per	-11.1983
▁עדי	-11.1989
▁יקנ	-11.1994
ציל	-11.1995
▁לטות	-11.2006
▁Play	-11.201
▁קלו	-11.2014
▁חזי	-11.2024
▁מקל	-11.2028
▁מנית	-11.2029
▁מינה	-11.2047
▁אלן	-11.205
▁אֶ	-11.2051
▁ליבר	-11.2051
▁משלה	-11.2054
▁ba	-11.2057
▁il	-11.2072
יכול	-11.2074
▁נחל	-11.2088
▁Hotel	-11.2089
▁ימני	-11.2097
ליונ	-11.2099
▁השמ	-11.2101
▁Sta	-11.2107
'.	-11.2115
ne	-11.2136
▁סיו	-11.2162
▁my	-11.2171
▁לטון	-11.2172
▁Serv	-11.2174
me	-11.2184
▁יהי	-11.2189
▁Le	-11.2191
▁ננים	-11.2194
▁הלת	-11.2203
▁Sec	-11.2213
▁Art	-11.2231
▁with	-11.2248
▁לחיי	-11.2252
▁לכים	-11.2279
▁הצע	-11.2303
▁תף	-11.231
el	-11.2316
▁(1)	-11.2329
▁NBA	-11.2329
▁וכר	-11.2333
▁Cont	-11.2334
יאט	-11.2348
ולדת	-11.2371
na	-11.2374
תקופ	-11.2377
il	-11.2386
▁App	-11.2403
▁Li	-11.2434
▁di	-11.2448
▁bil	-11.2457
▁הבעל	-11.246
צטרף	-11.2463
ar	-11.2474
בא	-11.2475
10	-11.2502
▁מטרו	-11.2506
▁ar	-11.2512
▁אסט	-11.2514
▁ard	-11.2527
▁בטו	-11.2529
▁ינוק	-11.2547
▁CO	-11.2564
▁Ex	-11.2566
▁עב	-11.2576
▁נעל	-11.2578
ראו	-11.2594
▁כבי	-11.2601
וודא	-11.2609
▁הפה	-11.2611
▁יניות	-11.2613
▁כספ	-11.2614
▁בבי	-11.2614
▁וצל	-11.2627
▁32	-11.2634
▁Or	-11.2657
▁Next	-11.2659
▁Word	-11.2659
▁Web	-11.2659
▁פתי	-11.2665
▁נימ	-11.2672
▁הפכ	-11.2679
▁הדי	-11.2704
▁36	-11.2723
▁2:	-11.2737
שווא	-11.2744
▁Act	-11.2745
▁הגן	-11.2746
▁אפי	-11.2752
▁Sea	-11.2754
תרג	-11.2763
▁Net	-11.2764
▁קץ	-11.2766
▁הרו	-11.277
▁כני	-11.2772
ing	-11.2785
▁טפו	-11.279
▁מרג	-11.2792
▁טח	-11.2797
שנה	-11.2806
et	-11.2811
no	-11.2813
▁רטי	-11.2814
50	-11.2815
▁He	-11.2838
▁ללי	-11.2841
▁Inc	-11.2842
▁קב	-11.2863
▁לחש	-11.2878
▁בדיו	-11.2879
▁בדו	-11.2886
▁בצר	-11.2901
▁ככ	-11.2916
▁Te	-11.2921
▁יריי	-11.2921
▁ושבת	-11.293
▁רעי	-11.2945
▁vi	-11.2951
▁lo	-11.2954
▁10%	-11.2958
כול	-11.2964
▁לוו	-11.2965
▁יקור	-11.297
sh	-11.297
▁צרה	-11.2985
▁לעצמ	-11.2987
ill	-11.2992
▁ריהם	-11.2994
רבי	-11.3004
▁um	-11.3008
▁Ab	-11.3012
te	-11.3038
▁טרה	-11.3048
▁עצמית	-11.3084
20	-11.3089
▁שלמו	-11.3095
▁למק	-11.3101
▁Jo	-11.3104
▁קרטי	-11.3106
▁ארו	-11.3107
▁לטו	-11.3115
▁וכנ	-11.3143
▁בצעי	-11.3152
▁Sha	-11.3159
▁On	-11.3161
▁Onl	-11.3162
בד	-11.3174
▁Busi	-11.3175
▁דוב	-11.3177
▁Up	-11.3189
▁ליפו	-11.3192
▁ess	-11.3197
▁ביש	-11.3213
▁ריכים	-11.3217
▁go	-11.3223
▁קטי	-11.3234
▁סטינ	-11.3245
▁nti	-11.3254
▁ine	-11.3255
▁ka	-11.3261
▁צרת	-11.3263
▁Cha	-11.3267
▁שעי	-11.3271
▁העץ	-11.3275
▁טלי	-11.3289
מלחמ	-11.3312
תוכ	-11.3316
▁שתף	-11.332
▁מקומ	-11.3326
▁יאט	-11.3346
▁Wha	-11.3349
▁DNA	-11.3351
▁‭	-11.3352
▁Arch	-11.3353
▁פוז	-11.3357
▁גרת	-11.3387
▁ומית	-11.3389
▁טוק	-11.3392
▁חיוב	-11.3412
▁סוצי	-11.3437
▁הער	-11.3439
▁Post	-11.3442
נאים	-11.3443
▁ציאל	-11.3445
▁ישהו	-11.3453
וועד	-11.3468
▁Ni	-11.347
▁יוז	-11.3473
▁סבא	-11.3474
▁נלי	-11.3483
▁בעות	-11.3493
▁נגר	-11.3502
▁לגר	-11.3502
si	-11.3511
▁bo	-11.3511
▁ho	-11.3513
▁יידי	-11.3521
▁החומ	-11.3524
▁סיקה	-11.3525
▁יגות	-11.3534
▁גון	-11.3585
▁Inst	-11.3585
▁as	-11.3586
▁שאפ	-11.3603
▁ki	-11.3604
▁העלו	-11.3607
▁Vi	-11.361
▁מסוי	-11.3614
▁land	-11.3626
▁Pay	-11.3631
▁מחיי	-11.3631
▁אשת	-11.3642
▁Glo	-11.3643
▁ומל	-11.3648
▁ופלים	-11.3655
▁gen	-11.3656
▁ומכ	-11.3666
▁Car	-11.3714
▁סיפו	-11.3723
▁up	-11.3724
▁נגו	-11.3733
de	-11.3736
▁Pal	-11.3739
▁השו	-11.3744
▁400	-11.3747
▁יימו	-11.3758
▁We	-11.3764
7	-11.3779
▁הרש	-11.3785
▁מצאי	-11.3799
▁הברית	-11.381
▁Park	-11.381
▁Book	-11.381
▁ובת	-11.3818
va	-11.3822
▁עדן	-11.3822
▁איות	-11.3845
▁ny	-11.3847
▁ופול	-11.3869
▁לום	-11.3872
▁Bri	-11.3874
▁קומו	-11.3891
▁פאל	-11.3893
▁לכי	-11.3902
▁צמא	-11.3908
▁רסו	-11.3916
ימנע	-11.3917
▁מני	-11.3926
▁נגדו	-11.3937
▁אותנ	-11.3949
▁1:	-11.3963
▁בילי	-11.3965
▁ol	-11.3967
▁כלכל	-11.3976
▁יבות	-11.3994
▁Day	-11.3999
▁Point	-11.3999
▁(2)	-11.4
▁ליו	-11.4
▁ייח	-11.4
▁גרמנ	-11.4004
▁גטו	-11.4004
▁ress	-11.4005
▁חץ	-11.4013
▁ומרי	-11.4013
▁סקה	-11.402
קרי	-11.4035
▁מרבי	-11.4038
▁ומש	-11.4044
▁ראלי	-11.4075
בק	-11.4079
▁במד	-11.4082
▁reet	-11.4096
נדון	-11.4098
▁ert	-11.4102
▁סופו	-11.4107
▁Lo	-11.4107
▁ויק	-11.4109
▁יאון	-11.4109
▁הוכ	-11.4117
▁טינים	-11.4132
▁ובנו	-11.4138
▁ut	-11.4139
ro	-11.4141
▁היינ	-11.4148
▁הגנ	-11.416
בונ	-11.4171
▁לגי	-11.4171
▁נוף	-11.4174
▁למו	-11.4179
▁Of	-11.4184
▁play	-11.4193
טין	-11.4198
▁חרא	-11.4208
7%	-11.4214
▁זכי	-11.4229
▁Des	-11.4242
▁75	-11.4242
▁ורסי	-11.4251
9%	-11.4255
▁IC	-11.426
▁חדו	-11.426
▁Gen	-11.4262
▁טום	-11.4275
▁צית	-11.4277
▁ויז	-11.4284
נג	-11.429
▁בקרו	-11.4294
▁ER	-11.4297
▁לוגית	-11.4305
▁ידא	-11.4312
▁ice	-11.4321
▁קסם	-11.4322
מלכ	-11.4332
ard	-11.4335
▁חלות	-11.4348
▁חית	-11.435
▁פתו	-11.4357
קצ	-11.436
▁טרונ	-11.4366
▁tic	-11.4382
▁צח	-11.4385
▁וספ	-11.4386
▁אוש	-11.4401
▁תקש	-11.4406
▁cy	-11.4406
▁50%	-11.4406
▁נוא	-11.4409
▁צהר	-11.4409
▁דרות	-11.4418
▁תקף	-11.4423
ce	-11.4439
▁יזו	-11.4441
רך	-11.4444
▁ידן	-11.4447
Ph	-11.4455
▁Sup	-11.4457
נטי	-11.4475
▁חשיב	-11.4479
▁Mark	-11.4492
גוון	-11.4494
▁Don	-11.4504
▁וצאה	-11.4506
▁eb	-11.4515
▁וויז	-11.4518
Q	-11.4547
▁בח	-11.4566
▁שנו	-11.4567
▁Dr	-11.4568
▁אסי	-11.4576
▁ורנו	-11.4576
▁tics	-11.4593
▁חוזים	-11.4606
▁איד	-11.461
8%	-11.4618
▁Lin	-11.4634
▁הפס	-11.4634
▁ניג	-11.464
▁So	-11.4645
▁tes	-11.4664
uto	-11.4672
▁נקר	-11.4675
▁he	-11.4682
▁תכוו	-11.4682
▁לשי	-11.469
▁way	-11.4692
▁Ent	-11.4695
▁2.	-11.4697
▁Red	-11.4698
▁כחו	-11.4701
▁ple	-11.4704
▁UN	-11.4705
▁ברל	-11.4713
אריך	-11.4716
▁cha	-11.4716
▁דיהם	-11.4727
15	-11.4729
▁זונה	-11.4738
▁פתחו	-11.4749
Z	-11.4749
ni	-11.4755
▁Hea	-11.4762
▁וחל	-11.4794
▁Part	-11.4802
▁Ca	-11.4803
▁מרות	-11.4805
▁שוע	-11.4817
▁יעל	-11.4821
▁גיבו	-11.4826
▁ond	-11.4838
▁Ri	-11.4845
▁שכך	-11.4861
ound	-11.4864
ou	-11.4875
ֻ	-11.49
▁port	-11.49
▁Acc	-11.4902
▁Live	-11.4904
▁ell	-11.4912
ha	-11.4912
▁בוו	-11.4914
▁1.	-11.4936
▁וסו	-11.4937
▁ko	-11.4941
▁החוקר	-11.4947
▁un	-11.4952
מפלג	-11.4967
▁נני	-11.4968
יצי	-11.4969
▁טוני	-11.4993
▁טרלי	-11.4993
▁יעה	-11.4994
▁במשק	-11.5006
▁dy	-11.5011
▁Stu	-11.5012
רגלי	-11.5015
▁bal	-11.5025
▁שיל	-11.5026
▁רואי	-11.5035
▁Na	-11.5038
▁נויים	-11.5054
▁Bo	-11.5066
▁Do	-11.5084
▁nic	-11.5098
▁FDA	-11.5112
▁®	-11.5113
▁שובו	-11.5114
▁ov	-11.5119
▁תער	-11.5124
▁קנות	-11.5131
ry	-11.5134
▁פיתו	-11.5143
▁טרל	-11.5172
דע	-11.5172
ack	-11.5173
לית	-11.5182
ke	-11.5182
ate	-11.5183
12	-11.5194
▁לאומ	-11.5204
▁מכות	-11.5207
▁אגם	-11.5212
▁Tube	-11.5219
▁אסל	-11.5222
▁השק	-11.5223
▁ומו	-11.5223
▁יבים	-11.5232
▁יעי	-11.5232
▁רתה	-11.5238
אך	-11.5239
עונ	-11.5243
▁גוד	-11.5261
AT	-11.5262
vi	-11.5266
ut	-11.5266
▁לומי	-11.5274
שר	-11.5312
▁השרא	-11.5321
▁John	-11.5328
▁Pow	-11.5329
igh	-11.5332
▁ue	-11.5343
▁Ka	-11.5347
▁מפה	-11.5348
▁רמים	-11.5357
▁אוד	-11.536
▁דב	-11.5376
▁33	-11.5384
▁nes	-11.5401
יף	-11.5405
▁וסל	-11.5432
▁בלע	-11.5449
▁מאל	-11.5459
▁1)	-11.547
▁ודות	-11.5482
▁sis	-11.5483
▁38	-11.5487
4%	-11.5505
▁והבים	-11.5508
all	-11.5509
▁כהן	-11.5522
▁Time	-11.5547
▁work	-11.5549
▁מאר	-11.5549
▁עיקר	-11.5551
▁Adv	-11.5555
▁US	-11.5566
▁ענן	-11.5569
▁ארת	-11.5569
▁ow	-11.5575
▁מבל	-11.5584
תן	-11.5604
ערי	-11.5607
▁לנה	-11.5619
▁ברחו	-11.5622
עלי	-11.5633
▁form	-11.5635
▁ct	-11.5654
▁קיי	-11.5656
▁ליטי	-11.5656
▁SEO	-11.5662
▁Apple	-11.5662
▁רעש	-11.5667
▁זקן	-11.5669
▁ודיות	-11.5671
▁rec	-11.5692
▁והו	-11.5703
ib	-11.5703
▁Si	-11.5722
▁רזי	-11.5732
▁סבו	-11.5733
&	-11.5736
עיון	-11.575
▁Ba	-11.5758
.3	-11.5759
▁כרים	-11.576
▁השח	-11.5762
ol	-11.5763
▁עוז	-11.577
▁עיצו	-11.5771
▁THE	-11.5785
▁צרי	-11.5787
▁רבת	-11.5789
▁לטוב	-11.579
▁מקצ	-11.579
▁lin	-11.5794
é	-11.5794
mi	-11.5813
▁נשמ	-11.5815
פוך	-11.5819
▁וניו	-11.583
▁Chi	-11.5839
▁IN	-11.5851
▁נוצ	-11.5852
▁המונ	-11.5853
▁וכני	-11.5854
▁כרי	-11.5856
▁ur	-11.5857
▁2)	-11.5861
▁Se	-11.5874
▁CBD	-11.589
urn	-11.5894
▁ונר	-11.5901
▁טוח	-11.5908
▁20%	-11.5932
▁itu	-11.5949
גור	-11.5956
▁cia	-11.5974
ell	-11.5983
▁סלי	-11.5991
▁34	-11.5998
▁האדמ	-11.6006
▁Free	-11.6007
▁37	-11.6012
▁טומט	-11.6022
▁ריך	-11.6027
▁שתה	-11.605
▁עצי	-11.6065
▁טג	-11.6071
▁פכ	-11.6073
▁דמים	-11.6076
▁קרח	-11.6079
ig	-11.608
▁ev	-11.6081
▁65	-11.6082
▁ארים	-11.609
▁hi	-11.609
▁ton	-11.6092
▁וכים	-11.6093
▁style	-11.6124
▁Tech	-11.6124
▁בשו	-11.6125
▁ical	-11.6129
▁איתנ	-11.6135
▁כתי	-11.614
▁PC	-11.6152
BI	-11.6175
▁ייבי	-11.6187
מך	-11.6199
▁סיב	-11.62
▁55	-11.6214
▁ora	-11.6215
▁גס	-11.6236
▁Black	-11.6243
▁Ra	-11.6253
▁טב	-11.6275
▁יניה	-11.6277
▁הבל	-11.6282
ic	-11.629
▁בודו	-11.6304
▁תלמ	-11.6319
▁ייבים	-11.632
▁מילי	-11.6325
▁מצי	-11.6332
▁El	-11.6334
▁ושלם	-11.6349
cc	-11.635
5%	-11.6351
▁וריות	-11.6361
▁BBC	-11.6364
▁Get	-11.6366
▁ort	-11.6372
▁יכו	-11.6375
עולמ	-11.6385
▁לוסי	-11.6385
▁Fa	-11.6401
נך	-11.6404
um	-11.6405
▁רכים	-11.6428
mb	-11.6431
▁מחצ	-11.644
▁sm	-11.6445
חנו	-11.6452
sa	-11.6458
▁Ope	-11.647
▁Ha	-11.6473
▁ya	-11.6475
▁ject	-11.6485
▁ei	-11.649
▁xy	-11.649
▁Cap	-11.6507
▁קידו	-11.651
▁HD	-11.6512
▁ect	-11.6515
וד	-11.6528
▁גלית	-11.6531
▁רפוא	-11.6541
▁pi	-11.6575
▁בער	-11.6582
▁קדימ	-11.6592
פח	-11.6597
▁we	-11.6597
מקומ	-11.6607
▁Blue	-11.6614
▁מטופ	-11.6614
▁בסו	-11.6616
▁Fac	-11.6616
▁הבד	-11.6619
▁42	-11.6622
nk	-11.6632
J	-11.664
▁op	-11.6645
ast	-11.6647
int	-11.6655
▁Sam	-11.6662
▁מפל	-11.6669
▁ורגנ	-11.6675
▁מער	-11.6678
▁אנר	-11.6684
▁אווי	-11.6693
▁המזו	-11.6698
▁im	-11.6699
MA	-11.6711
▁Pi	-11.6711
▁ביעו	-11.6726
▁fro	-11.6734
▁(3)	-11.6734
▁כעס	-11.6735
IT	-11.6735
▁post	-11.6736
▁יפת	-11.674
▁חשי	-11.6742
חג	-11.6747
▁Har	-11.6754
▁סוי	-11.6755
▁גשות	-11.6756
▁line	-11.6759
▁כלכ	-11.6765
▁אוסט	-11.677
▁Tag	-11.6772
תחלת	-11.6775
▁ID	-11.678
▁At	-11.6782
▁ריאו	-11.6784
oth	-11.6784
co	-11.6798
▁בכם	-11.6798
▁יגי	-11.6823
▁אלק	-11.6826
▁וניס	-11.6828
40	-11.6856
▁ral	-11.6869
▁ומיי	-11.6903
▁עוק	-11.6905
▁שוני	-11.6908
▁הרא	-11.6911
▁הזכ	-11.6953
nd	-11.6953
▁bi	-11.6965
▁TV	-11.6966
▁ורך	-11.6974
gi	-11.6986
▁Skype	-11.6988
▁va	-11.6989
▁ious	-11.6989
▁מענ	-11.7
▁מתר	-11.7003
▁מניה	-11.7016
▁5%	-11.7032
▁Col	-11.7033
RC	-11.7034
▁גישים	-11.7037
▁Ana	-11.7067
▁ציאו	-11.7076
▁des	-11.7077
▁וצא	-11.7077
▁Bi	-11.7082
▁ויזי	-11.7091
▁וקרט	-11.7102
▁זית	-11.7105
▁מוב	-11.7114
▁Group	-11.7119
▁Note	-11.712
▁Rep	-11.7121
▁יזיה	-11.7133
▁קישו	-11.7133
▁Rev	-11.7137
▁חמי	-11.7138
▁Soc	-11.7143
▁עינ	-11.7148
▁fi	-11.7159
▁250	-11.7161
▁ph	-11.7164
▁OS	-11.7166
▁צלם	-11.7169
▁עזו	-11.7177
▁En	-11.7181
ge	-11.7184
▁Gal	-11.7186
▁גנט	-11.7197
▁Bu	-11.7206
▁טיו	-11.7206
▁מורי	-11.7207
▁מזכ	-11.7208
▁קטר	-11.7212
▁פאים	-11.7213
▁גישו	-11.7224
וע	-11.7233
▁West	-11.7251
▁iew	-11.7251
▁Sys	-11.7254
▁הערכ	-11.7255
▁art	-11.7256
▁לגן	-11.7275
▁Medi	-11.7276
▁Nor	-11.7278
▁ונל	-11.7282
▁ננה	-11.7285
▁פרץ	-11.7298
▁סטיק	-11.7306
▁ביצ	-11.7312
TA	-11.7316
▁ci	-11.7316
▁דבש	-11.732
עץ	-11.7324
1%	-11.7331
יבי	-11.7343
▁pa	-11.7346
▁מעת	-11.7351
▁Po	-11.7355
▁Res	-11.7368
25	-11.7379
▁ADHD	-11.7383
▁House	-11.7384
▁Rock	-11.7384
▁לצי	-11.7386
▁red	-11.7394
▁ab	-11.7396
▁רגון	-11.7397
▁ga	-11.7403
▁יונית	-11.7408
▁am	-11.7417
▁ינן	-11.7425
▁יומנ	-11.7443
pp	-11.7452
▁Sun	-11.7456
ca	-11.746
▁ner	-11.7472
/	-11.7474
▁ונות	-11.7475
▁לנק	-11.748
ount	-11.7504
▁רובי	-11.7504
MS	-11.7515
▁Cloud	-11.7518
▁Excel	-11.7518
▁ium	-11.7519
▁Drive	-11.7519
▁תחי	-11.7522
▁תוד	-11.7524
▁ru	-11.7532
▁דאו	-11.7532
▁טרות	-11.7544
▁לספ	-11.7547
▁רונו	-11.758
AL	-11.7589
▁che	-11.7606
▁לעד	-11.7611
oll	-11.7615
▁כולי	-11.7616
אן	-11.7618
or	-11.7623
▁con	-11.7625
70	-11.764
▁חבור	-11.7648
▁Data	-11.7656
▁Mus	-11.7659
▁מפר	-11.7663
▁אפיל	-11.767
▁וונטי	-11.7672
▁רטים	-11.768
▁צעים	-11.7695
▁ילית	-11.7703
rand	-11.7711
▁ניט	-11.7714
▁120	-11.7719
▁AI	-11.7726
▁צילו	-11.7733
▁ישית	-11.7736
.8	-11.7739
▁iz	-11.775
to	-11.7762
▁קיל	-11.7776
▁קיד	-11.7778
▁וחו	-11.7785
▁Gold	-11.7795
▁ופך	-11.7795
▁°	-11.7798
▁oin	-11.7805
▁40%	-11.7815
▁Way	-11.7817
▁Lon	-11.7818
2%	-11.7835
▁ציו	-11.7841
▁אפס	-11.7843
▁סגל	-11.7851
6%	-11.7862
▁הטב	-11.7866
▁גונ	-11.7875
ub	-11.7877
▁הלל	-11.788
▁זיכ	-11.7888
▁res	-11.7891
ולחן	-11.7895
בחינ	-11.7896
▁3.	-11.7902
▁rea	-11.7926
▁Work	-11.7935
▁less	-11.7938
▁365	-11.7938
▁ועי	-11.7942
▁que	-11.7948
MP	-11.8
▁נטים	-11.8007
▁מגוו	-11.8015
▁id	-11.8033
יוו	-11.8041
▁יטית	-11.8055
CC	-11.8059
▁po	-11.8062
▁Ne	-11.8066
▁io	-11.8073
▁Press	-11.8079
▁duc	-11.8085
▁MS	-11.8086
▁are	-11.8087
ng	-11.8089
נכונ	-11.8107
▁האר	-11.8124
▁ראל	-11.8126
▁הכח	-11.8129
▁TM	-11.8157
ly	-11.816
▁חוד	-11.8187
▁אינד	-11.8199
▁dom	-11.8206
AN	-11.8207
▁נדע	-11.8216
▁Rec	-11.8221
▁Whit	-11.8223
▁roid	-11.8223
▁King	-11.8224
▁Wal	-11.8224
▁קופה	-11.8233
דוגמ	-11.8237
▁גיי	-11.8248
▁om	-11.826
▁Ho	-11.8264
▁ord	-11.8266
PA	-11.8279
▁ברוא	-11.8289
▁במצ	-11.8316
▁הדר	-11.8318
▁אירו	-11.8321
▁Tha	-11.8331
AS	-11.8334
▁למצ	-11.8346
lu	-11.8348
▁משקי	-11.8352
ust	-11.8356
▁Euro	-11.837
▁Asso	-11.8371
▁Fire	-11.8372
▁חכו	-11.8377
▁ספט	-11.8383
▁נלך	-11.8396
▁Lu	-11.8401
▁3:	-11.841
▁les	-11.841
ul	-11.8412
▁נבו	-11.8417
3%	-11.8417
▁ומטי	-11.8421
▁פלס	-11.8425
▁לגו	-11.8432
▁ביני	-11.8438
וחלט	-11.8451
▁נוספ	-11.8455
▁Mon	-11.8455
▁רמל	-11.8475
▁לטי	-11.8479
▁שיבו	-11.8489
▁אבים	-11.8499
▁Cy	-11.8506
▁קרט	-11.8521
▁39	-11.8522
▁ימיו	-11.8534
▁ויו	-11.8536
▁ot	-11.8538
▁משיכ	-11.8541
RA	-11.8541
▁כלבי	-11.8543
▁52	-11.8552
▁שאב	-11.8555
▁יסו	-11.856
▁ret	-11.8572
▁רגיה	-11.8583
▁וללת	-11.859
▁קאו	-11.8594
▁sp	-11.8594
TC	-11.8622
▁ומא	-11.8625
▁si	-11.8626
}	-11.8631
כף	-11.8636
▁מקד	-11.8637
da	-11.8642
▁OECD	-11.8671
▁DVD	-11.8671
▁III	-11.8672
▁64	-11.8674
▁cle	-11.8683
▁bu	-11.8685
▁30%	-11.8696
id	-11.8698
▁סלמ	-11.8701
▁os	-11.8721
▁CD	-11.8733
▁ric	-11.8734
ויזי	-11.8751
▁יצי	-11.8755
▁Nat	-11.8759
rt	-11.876
▁פלים	-11.8769
80	-11.8773
▁Pri	-11.8773
▁ידעת	-11.8778
▁חסד	-11.8781
▁Sur	-11.8786
▁mus	-11.8797
.5	-11.8807
▁לגל	-11.8809
▁כלש	-11.8819
▁Heart	-11.8825
▁Share	-11.8825
▁ISO	-11.8825
▁ual	-11.8826
▁׃	-11.8826
▁פורים	-11.8839
▁החז	-11.8845
▁עוס	-11.8863
▁הביטו	-11.8872
▁עַ	-11.8879
▁ps	-11.8884
▁תלו	-11.8894
IN	-11.8896
60	-11.8902
▁הבנ	-11.8905
▁צאת	-11.8908
ET	-11.8916
▁זיות	-11.8936
▁אגב	-11.8943
▁67	-11.8948
סמכי	-11.895
▁Dia	-11.8957
SA	-11.8968
▁להתי	-11.897
▁השב	-11.8973
▁שגי	-11.8974
▁time	-11.8981
▁rome	-11.8982
▁ary	-11.8985
▁יתון	-11.8989
▁זרי	-11.8989
▁כיב	-11.8994
▁תייר	-11.8995
▁צירת	-11.9008
▁פשו	-11.902
▁1.5	-11.9022
▁הימי	-11.9024
IC	-11.9033
▁לצו	-11.9033
ach	-11.9038
▁שפעו	-11.9048
▁Her	-11.9049
▁דיין	-11.9051
יעה	-11.9082
ash	-11.9083
▁der	-11.9088
רוו	-11.909
▁ברמ	-11.9101
▁צעדי	-11.9121
ull	-11.9124
▁Music	-11.914
▁IBM	-11.914
▁USB	-11.914
▁Who	-11.914
▁gge	-11.9144
▁du	-11.9147
act	-11.9153
▁עיק	-11.9156
▁tch	-11.9163
▁ham	-11.9168
▁Bar	-11.9183
▁החול	-11.9187
▁הצו	-11.9198
ישר	-11.9204
▁car	-11.9232
▁קיות	-11.9233
▁Sim	-11.9244
▁חוקרי	-11.9248
ick	-11.9266
▁Eng	-11.9267
▁אבטח	-11.9281
▁יגים	-11.9283
▁טטי	-11.9286
▁צבי	-11.9297
▁Award	-11.9301
▁iOS	-11.9301
▁ool	-11.9302
▁cra	-11.9303
▁Bio	-11.9304
▁This	-11.9311
▁יירו	-11.9325
▁ובים	-11.9341
▁הכו	-11.9349
▁Leg	-11.9355
▁הירו	-11.9357
▁py	-11.937
▁2.2	-11.9377
▁Bitc	-11.9382
▁רנו	-11.9384
▁טיני	-11.9395
▁ועמ	-11.9399
.6	-11.94
▁per	-11.9405
ail	-11.9406
▁הענ	-11.9412
▁ולמי	-11.9412
▁ren	-11.9414
▁שהיי	-11.9429
14	-11.9438
נוס	-11.9447
▁קשו	-11.9451
▁ננס	-11.9451
▁אית	-11.9452
▁ראמ	-11.9456
▁טורק	-11.946
▁org	-11.946
▁כירה	-11.9461
▁York	-11.9465
hi	-11.9468
▁Age	-11.9469
זן	-11.9471
▁ives	-11.9474
▁Elec	-11.9474
▁טובי	-11.9475
RI	-11.9485
▁Dig	-11.9488
▁gram	-11.9494
▁מניו	-11.9497
▁Us	-11.9507
▁וכמ	-11.9512
▁Inn	-11.9513
▁שיכה	-11.9513
▁השד	-11.9514
▁ולך	-11.9517
▁AT	-11.9522
▁95	-11.9527
ci	-11.9556
▁בסופ	-11.9564
▁ארצו	-11.957
▁cal	-11.9571
▁49	-11.9574
עז	-11.9577
▁IV	-11.9579
▁תיקו	-11.9585
▁טכ	-11.9602
ES	-11.9608
▁ירופ	-11.9617
▁ti	-11.9623
it	-11.9628
ER	-11.963
▁PDF	-11.9632
▁Isla	-11.9632
▁שמצ	-11.9633
▁מעור	-11.9633
▁Times	-11.9634
▁How	-11.9636
AR	-11.964
▁ory	-11.9641
▁הסינ	-11.9649
▁אודו	-11.965
▁תכן	-11.9668
▁ll	-11.9672
BS	-11.9675
▁בחז	-11.9685
as	-11.97
▁פרסו	-11.9703
▁גוס	-11.9707
▁Ass	-11.9707
▁האיר	-11.9708
▁יוכ	-11.9708
▁Ja	-11.9729
▁אולו	-11.9733
air	-11.9735
▁comm	-11.9736
▁Mc	-11.9743
▁TO	-11.9747
▁gi	-11.975
▁ופע	-11.9756
▁San	-11.9764
▁החמ	-11.9767
▁פגו	-11.9777
תגל	-11.978
▁4.	-11.9792
▁ניינ	-11.9793
▁HP	-11.9795
▁win	-11.9796
▁חתי	-11.9798
▁rol	-11.9798
▁קנד	-11.9798
ka	-11.9799
▁ננת	-11.9801
▁בליל	-11.9801
▁Rob	-11.9803
▁Real	-11.9816
▁החיי	-11.9819
▁lla	-11.9835
SP	-11.9836
gg	-11.984
▁היח	-11.9842
▁tain	-11.9863
▁מוע	-11.9863
▁Dis	-11.9883
▁so	-11.9884
▁הרגל	-11.9889
▁מיכה	-11.9889
▁gon	-11.9905
SE	-11.9906
19	-11.9907
▁Ser	-11.9908
▁Dra	-11.9914
▁PS	-11.9928
▁קורי	-11.9943
.4	-11.9946
▁סיע	-11.9963
▁44	-11.9969
▁u	-11.9971
▁Dream	-11.9974
▁Eco	-11.9975
▁Hill	-11.9975
▁News	-11.9979
▁Val	-11.9987
▁לגה	-11.9991
▁2.5	-12.0005
רגשת	-12.0005
▁4:	-12.0027
▁רוא	-12.0039
▁שהג	-12.0058
umb	-12.0062
▁int	-12.0064
▁אמש	-12.0082
אזור	-12.0083
SS	-12.0091
▁Sal	-12.0091
▁יתית	-12.0092
ff	-12.0106
▁56	-12.0116
▁AM	-12.0121
▁ST	-12.0124
▁col	-12.0133
▁לימו	-12.0134
▁Space	-12.0149
▁graph	-12.0149
▁השטח	-12.0149
▁Just	-12.015
▁ware	-12.015
▁ward	-12.015
▁GPS	-12.015
▁טיק	-12.0151
▁Call	-12.0152
▁בטן	-12.0154
▁Pho	-12.0154
▁ures	-12.0156
▁iet	-12.0157
▁זג	-12.0157
▁85	-12.0159
▁ney	-12.0159
TS	-12.016
▁בגל	-12.0172
▁הימנ	-12.0172
▁MA	-12.0174
iz	-12.018
▁uni	-12.0184
▁רובים	-12.0188
כך	-12.0192
▁ערו	-12.0194
▁ייני	-12.0196
▁ima	-12.0208
▁Lea	-12.0209
▁יזי	-12.0212
▁חשד	-12.0213
':	-12.0226
▁!!	-12.0237
▁תוש	-12.0241
וגבל	-12.0244
▁רישו	-12.0245
▁מץ	-12.0254
▁קחת	-12.0256
EP	-12.0256
ct	-12.0264
▁53	-12.0266
▁קאית	-12.0276
▁חזו	-12.0282
▁ללכ	-12.0295
▁מפג	-12.0296
▁וליו	-12.0296
▁קומי	-12.0296
▁SA	-12.0304
▁החד	-12.0309
▁דינו	-12.0313
▁האינ	-12.0315
▁חדה	-12.0322
▁Child	-12.0327
▁eum	-12.0329
▁Media	-12.0331
▁God	-12.0332
▁רשי	-12.034
▁sion	-12.0345
hen	-12.0346
▁רמז	-12.0351
▁הגג	-12.0354
▁ac	-12.0359
ימים	-12.0382
▁Stat	-12.0385
▁Lit	-12.039
▁למר	-12.0401
ak	-12.0422
▁all	-12.0427
▁ופנ	-12.0454
▁ודית	-12.0458
▁TR	-12.0468
▁ip	-12.0468
–	-12.047
▁שטר	-12.0471
▁צלח	-12.0478
▁vo	-12.0503
▁Plus	-12.0509
▁Dead	-12.051
▁Every	-12.051
▁ABC	-12.0511
▁Stra	-12.0512
▁לוהי	-12.0515
▁72	-12.0522
▁Peo	-12.0522
▁Ko	-12.053
▁Plan	-12.0531
▁וגות	-12.0534
▁sor	-12.0551
▁ad	-12.0554
▁Su	-12.0557
▁נסים	-12.0568
13	-12.057
▁15%	-12.057
▁אלל	-12.0576
▁Fra	-12.0576
on	-12.0582
▁Crea	-12.06
ארו	-12.0607
▁mic	-12.0615
▁עקר	-12.0624
▁בעי	-12.0632
▁SS	-12.0641
ath	-12.0646
box	-12.0655
הזד	-12.0656
קצוע	-12.0664
▁ver	-12.0673
▁Cor	-12.0677
▁בשבי	-12.068
ord	-12.0685
▁מיו	-12.0693
▁min	-12.0693
▁Great	-12.0694
ond	-12.0695
▁וסיי	-12.0695
▁חפץ	-12.0705
▁pt	-12.071
▁End	-12.0712
▁למוד	-12.0714
▁בצו	-12.0715
▁יסבו	-12.0715
▁60%	-12.0718
FC	-12.0733
▁ינדי	-12.0737
▁Ver	-12.0744
▁נוספו	-12.0747
▁אסד	-12.0748
▁דשה	-12.0756
▁ימית	-12.0762
▁au	-12.0764
▁בנת	-12.0765
▁AS	-12.0782
▁תלך	-12.0797
▁Gra	-12.0818
▁mal	-12.0818
▁כג	-12.0833
▁קטנ	-12.0842
▁Ti	-12.085
▁del	-12.0864
90	-12.0866
▁GB	-12.0883
▁Thing	-12.0883
▁Jew	-12.0883
▁Sky	-12.0884
▁ege	-12.0885
▁41	-12.0889
▁כירי	-12.089
▁שוו	-12.089
▁וכרי	-12.0893
▁הזכו	-12.0893
▁תיאו	-12.0894
▁פשי	-12.0896
▁360	-12.0898
▁Sui	-12.0904
▁תצא	-12.0904
▁AR	-12.0908
▁Fam	-12.0912
▁ever	-12.0918
▁המנה	-12.0924
mo	-12.0926
ny	-12.0929
▁Tour	-12.0936
▁Com	-12.0943
▁בבק	-12.0946
▁43	-12.0964
▁תפש	-12.0968
▁זיו	-12.0972
▁Bra	-12.099
▁וועד	-12.0992
EN	-12.0992
▁ביות	-12.0997
▁Doc	-12.1001
PS	-12.1002
כלכל	-12.1004
▁47	-12.1015
▁לדו	-12.1017
▁wi	-12.1017
▁לפה	-12.1023
ST	-12.1028
אי	-12.1036
▁כדו	-12.1051
▁Shi	-12.1053
CP	-12.1053
▁אלך	-12.1071
תחומ	-12.1071
▁Am	-12.1079
פטי	-12.1081
▁מרח	-12.1082
▁תוכ	-12.1084
uth	-12.1088
ix	-12.11
go	-12.1101
▁serv	-12.1106
▁אמצ	-12.1129
16	-12.113
▁ושא	-12.1132
▁וענ	-12.1137
▁אהו	-12.1145
▁וגב	-12.1145
.7	-12.1152
▁DC	-12.1157
ind	-12.1159
ide	-12.1166
▁דכ	-12.1171
ad	-12.1174
▁תגר	-12.1178
▁ההב	-12.1205
▁18,	-12.1209
▁ja	-12.1214
▁Bro	-12.1224
▁As	-12.1228
▁וחרי	-12.1235
▁mon	-12.1243
▁ve	-12.1243
▁MP	-12.1254
▁fin	-12.1255
IP	-12.1256
▁UV	-12.1265
▁Hol	-12.1267
▁המער	-12.127
▁rce	-12.127
▁HTML	-12.1271
▁Geo	-12.1272
▁View	-12.1272
▁Story	-12.1272
▁phy	-12.1273
▁Cry	-12.1275
▁חירו	-12.1279
11	-12.1279
▁דינה	-12.1283
▁Rese	-12.1288
▁dex	-12.1296
▁Wat	-12.1297
▁ty	-12.1298
▁הסב	-12.1307
▁gin	-12.131
▁לבס	-12.1312
▁Pet	-12.1322
▁5.	-12.1326
▁3%	-12.1327
▁Are	-12.133
▁ina	-12.133
▁ura	-12.1349
▁Let	-12.1357
טרו	-12.1365
▁ec	-12.137
▁Char	-12.1383
▁68	-12.1385
▁tra	-12.1395
▁gue	-12.1397
▁Clas	-12.14
18	-12.1403
▁מאלי	-12.1404
▁קחי	-12.141
▁לדוג	-12.1411
MC	-12.1412
MW	-12.1413
▁Je	-12.1414
▁Va	-12.1436
▁Fo	-12.1437
▁Hi	-12.1438
▁Ar	-12.1439
▁ai	-12.1471
×	-12.1471
▁Down	-12.1471
▁Girl	-12.1471
▁BDS	-12.1473
▁ger	-12.1474
▁More	-12.1474
▁זאב	-12.1477
▁Ob	-12.148
▁Law	-12.1482
▁comp	-12.1482
▁era	-12.1483
▁Cra	-12.1484
ave	-12.1487
▁ועב	-12.1489
▁dge	-12.1497
▁עוף	-12.1498
▁החג	-12.1499
▁קרטיה	-12.1512
io	-12.1514
▁לשאו	-12.152
▁Mu	-12.1523
▁מעז	-12.1527
NA	-12.1532
▁גבו	-12.1538
▁Edi	-12.1543
▁3)	-12.1555
▁not	-12.1563
▁oo	-12.1566
ִ	-12.1576
▁תמי	-12.1578
▁תרגו	-12.1582
▁ir	-12.1586
▁הקש	-12.1596
▁ומד	-12.1601
▁ייע	-12.1605
▁ומט	-12.1606
EL	-12.161
▁רובות	-12.1617
יחסי	-12.1632
umm	-12.1642
משמע	-12.1643
▁יתו	-12.165
▁בכו	-12.1655
▁10,	-12.1664
▁וצי	-12.1672
▁Java	-12.1676
▁Cat	-12.1676
▁East	-12.1677
▁ula	-12.1677
▁Fri	-12.168
ON	-12.1718
▁jo	-12.172
▁180	-12.173
▁יתים	-12.174
▁אמרי	-12.1744
FT	-12.1747
▁הטל	-12.1756
▁ופט	-12.1765
▁tte	-12.1768
▁51	-12.1771
▁וזים	-12.1805
▁Sc	-12.1823
+	-12.1845
▁לומו	-12.1848
▁Coun	-12.185
תנוע	-12.1865
▁Sil	-12.1882
▁קטנו	-12.1882
▁Swi	-12.1884
▁Road	-12.1884
▁mark	-12.1885
▁Chri	-12.1885
▁tect	-12.1886
▁ices	-12.1889
▁סיסי	-12.1895
▁ain	-12.19
חמי	-12.1901
cha	-12.1903
▁Ci	-12.1903
▁exp	-12.1911
▁בפה	-12.1917
ow	-12.1923
▁רובו	-12.1929
ru	-12.1949
▁זז	-12.1954
▁His	-12.1958
em	-12.1967
▁מרא	-12.1976
▁גדים	-12.2
▁מודי	-12.2008
▁Ga	-12.2012
▁NY	-12.2028
▁ide	-12.2032
▁פרנ	-12.204
▁אלב	-12.2049
▁ידול	-12.2052
▁Tri	-12.2054
21	-12.2055
▁Mas	-12.2078
▁Men	-12.2094
▁ION	-12.2098
▁Bab	-12.2098
▁טד	-12.2099
▁ways	-12.21
▁ולנו	-12.2102
▁Batt	-12.2102
▁our	-12.2108
▁Inv	-12.2108
▁ארב	-12.2111
▁הפנ	-12.2116
▁fer	-12.2119
EM	-12.2123
▁fa	-12.2134
▁ושבי	-12.2134
▁שבתי	-12.2142
▁תכנו	-12.2153
▁הרשו	-12.2164
▁ציפו	-12.2197
▁lic	-12.2198
AD	-12.2201
▁תרו	-12.2206
ריקא	-12.221
▁Del	-12.2233
AM	-12.2235
▁18.	-12.2236
▁ES	-12.2248
uch	-12.2254
▁OR	-12.2255
▁Reg	-12.2255
▁59	-12.2264
▁She	-12.2267
▁רופו	-12.2269
▁Der	-12.2281
▁MI	-12.229
▁הרף	-12.2292
▁Nort	-12.2301
▁can	-12.2305
▁pre	-12.2308
▁field	-12.2314
▁Publ	-12.2314
▁האנוש	-12.2314
▁HBO	-12.2314
▁Dark	-12.2314
▁THC	-12.2314
▁Davi	-12.2314
▁rge	-12.2314
▁Song	-12.2316
▁more	-12.2316
▁gu	-12.2318
▁Ju	-12.2343
▁54	-12.2343
▁By	-12.2347
▁הסר	-12.2352
LS	-12.2353
▁EC	-12.2361
▁Not	-12.2362
▁2,	-12.2369
▁Pat	-12.237
▁AP	-12.2373
▁תחל	-12.2376
▁Nu	-12.2401
▁lli	-12.2411
▁Pa	-12.2414
▁Gar	-12.2416
CS	-12.2419
▁תאו	-12.2423
▁מפו	-12.2434
▁Hor	-12.2434
▁Op	-12.2438
▁tis	-12.2439
17	-12.2441
▁MB	-12.2445
▁sco	-12.2452
▁shi	-12.2453
▁וראו	-12.2453
▁יטים	-12.2462
DR	-12.2477
BA	-12.2479
qui	-12.2494
▁פחם	-12.2507
▁BA	-12.2511
▁69	-12.2514
SD	-12.2514
▁ron	-12.2515
אלבו	-12.252
▁LG	-12.2524
▁[1]	-12.2536
▁€	-12.2537
▁עיים	-12.2537
▁icle	-12.2538
▁wood	-12.2538
▁Corp	-12.2538
▁Imp	-12.2539
▁sung	-12.254
▁Fed	-12.2542
▁ems	-12.2546
▁rep	-12.2548
▁ley	-12.2549
▁May	-12.2565
▁70%	-12.2565
▁pho	-12.2571
▁ida	-12.2574
▁טני	-12.2577
▁Ama	-12.2607
▁Fe	-12.2615
▁הכס	-12.2622
rain	-12.2632
▁Para	-12.2656
27	-12.2682
▁זא	-12.2687
▁כהה	-12.2692
za	-12.2695
ונו	-12.27
ir	-12.2712
▁ria	-12.2717
סתכ	-12.2718
▁לתו	-12.273
▁IS	-12.2733
TV	-12.2735
▁99	-12.2739
▁ste	-12.2745
▁תחים	-12.276
▁Tru	-12.2763
▁SQL	-12.2764
▁prise	-12.2764
▁Moon	-12.2764
▁Key	-12.2765
▁ON	-12.2771
▁Vo	-12.2773
ודים	-12.278
▁פש	-12.2788
▁--	-12.2804
▁רטור	-12.2825
▁fac	-12.2829
▁קיש	-12.2832
דים	-12.285
▁קעו	-12.285
שף	-12.2859
▁Ben	-12.286
▁CC	-12.2863
▁sc	-12.2867
▁cer	-12.2886
▁דאי	-12.2897
דעני	-12.2897
▁z	-12.29
▁לסט	-12.2918
▁דנה	-12.2921
▁fic	-12.2946
▁חרב	-12.295
q	-12.2956
▁Ke	-12.2969
▁משח	-12.2976
▁במח	-12.2977
▁Fina	-12.2978
▁טלפ	-12.2984
▁eo	-12.2985
ML	-12.2996
▁South	-12.2997
▁Show	-12.2997
▁Fall	-12.2999
▁rer	-12.3001
▁chi	-12.3005
ead	-12.3011
▁Pass	-12.3015
SC	-12.3016
▁off	-12.3023
▁dia	-12.3026
LA	-12.3029
▁tu	-12.3031
תוצא	-12.3037
▁Sou	-12.3042
ome	-12.3045
ev	-12.3046
▁רמני	-12.3052
▁AC	-12.3052
▁IL	-12.3056
▁Bur	-12.3057
24	-12.306
▁שובים	-12.3061
▁יוש	-12.3065
LE	-12.3078
we	-12.3078
▁אמנו	-12.3085
▁46	-12.3088
DI	-12.3088
ild	-12.31
קטנ	-12.3106
▁הגו	-12.3108
rk	-12.3118
▁ררי	-12.3128
OP	-12.3144
TP	-12.3144
PD	-12.3145
IM	-12.3146
▁iv	-12.3148
BT	-12.3154
▁חינו	-12.3157
▁Lim	-12.3178
▁Spi	-12.3187
▁פע	-12.3189
nt	-12.3202
ED	-12.3203
▁סטית	-12.3209
▁הנשי	-12.3212
▁לכול	-12.3219
▁ללב	-12.3232
26	-12.3233
▁Brea	-12.3235
▁Beau	-12.3235
▁אסו	-12.3236
▁SMS	-12.3237
▁Lab	-12.3241
▁wa	-12.3245
▁fo	-12.3256
BC	-12.3268
▁Game	-12.3275
EC	-12.329
▁דעי	-12.3292
▁2.3	-12.3294
FA	-12.3303
▁Rea	-12.3314
▁1%	-12.3316
HA	-12.3318
▁בנט	-12.332
▁mas	-12.3338
▁עוש	-12.3343
▁Riv	-12.3344
▁בעצ	-12.335
unt	-12.3357
▁Mad	-12.3394
PI	-12.3404
▁ous	-12.3429
▁4)	-12.345
▁דיא	-12.346
איז	-12.3462
בריא	-12.3464
▁רונה	-12.3472
▁CA	-12.3477
▁Smart	-12.3479
▁יהוד	-12.3479
סף	-12.3479
▁Max	-12.348
▁Box	-12.348
▁back	-12.348
▁Resp	-12.348
▁IQ	-12.348
▁Bay	-12.348
▁ssion	-12.3481
▁Mind	-12.3482
▁וחדת	-12.3483
▁נפץ	-12.3503
▁AL	-12.3505
▁VI	-12.351
▁ola	-12.351
▁Ir	-12.3516
▁הקור	-12.3522
MD	-12.3524
OC	-12.3537
▁ther	-12.3543
▁קוני	-12.3546
▁סמכו	-12.3549
▁Ul	-12.3562
▁nec	-12.358
ven	-12.3597
▁ED	-12.3606
▁טחו	-12.3613
▁סלע	-12.3614
▁שיפו	-12.3626
fa	-12.3634
▁תעש	-12.3641
▁עצו	-12.3644
▁61	-12.3646
▁cho	-12.3652
ראי	-12.3658
LO	-12.366
▁66	-12.3668
▁אדע	-12.3675
משפט	-12.3692
תניה	-12.3692
▁Par	-12.3693
▁יוצ	-12.3697
יץ	-12.3702
▁Pe	-12.3705
▁המינ	-12.3714
▁Du	-12.3722
‐	-12.3728
▁iPad	-12.3728
▁Like	-12.3728
▁LCD	-12.3728
▁!!!	-12.3729
▁Syn	-12.3729
▁Some	-12.373
▁Store	-12.373
▁stra	-12.3735
▁Pu	-12.3736
▁real	-12.3736
▁Ub	-12.3736
CA	-12.3738
▁ze	-12.3746
▁ke	-12.3773
▁EN	-12.3778
▁טנו	-12.3787
▁Att	-12.3788
PO	-12.3793
▁Pra	-12.3801
▁pha	-12.3801
▁ul	-12.3802
▁cont	-12.3803
▁קשב	-12.381
▁סוב	-12.3818
▁SH	-12.3825
▁אפק	-12.3831
▁Che	-12.3843
▁phi	-12.3849
am	-12.3859
22	-12.386
▁לעמ	-12.3861
vo	-12.3861
ong	-12.3863
DS	-12.3868
▁ליח	-12.3872
MT	-12.3881
▁AN	-12.3898
▁met	-12.39
28	-12.3904
▁DS	-12.3905
HS	-12.3906
▁Def	-12.3906
▁ריקנ	-12.3908
▁שתת	-12.3914
hat	-12.3914
▁Ann	-12.3914
▁EA	-12.3931
EE	-12.3939
▁קצו	-12.3951
▁פצי	-12.3953
▁מיכ	-12.3955
▁ספת	-12.3956
DE	-12.3957
▁Spa	-12.3966
DA	-12.3967
sy	-12.397
▁ges	-12.3982
▁76	-12.3984
í	-12.3984
▁Old	-12.3984
▁bnb	-12.3984
▁Blood	-12.3985
▁CNN	-12.3985
▁Disc	-12.3993
▁PR	-12.3993
RS	-12.3997
▁Poli	-12.4008
▁ובלי	-12.4009
')	-12.401
▁Now	-12.401
▁NA	-12.4037
▁dio	-12.4041
חומר	-12.4051
ake	-12.4051
▁sha	-12.4054
▁התחת	-12.4055
OS	-12.4057
▁Bal	-12.4058
חדים	-12.4059
PU	-12.408
▁לייה	-12.408
▁Fort	-12.4092
▁קעה	-12.4114
aid	-12.4118
▁כמת	-12.4121
סיפו	-12.4123
▁Ora	-12.4126
▁Tel	-12.4132
▁כנר	-12.4135
▁58	-12.4137
ph	-12.4145
▁תינו	-12.4147
▁אוני	-12.4149
▁od	-12.4155
AND	-12.4159
▁נאו	-12.4163
OR	-12.4163
au	-12.4183
▁6.	-12.419
▁יאול	-12.4196
▁Ed	-12.4208
׳	-12.4208
0	-12.4234
▁עשי	-12.4235
45	-12.4244
▁mac	-12.4246
▁Never	-12.4248
▁Squa	-12.4248
▁(4)	-12.4248
▁Spec	-12.4248
▁body	-12.4248
▁gory	-12.4248
▁›	-12.4248
▁Know	-12.4249
▁Green	-12.4249
▁Kill	-12.4249
▁Wild	-12.425
▁Emp	-12.4251
▁Sing	-12.4252
▁From	-12.4259
PC	-12.4264
▁Whe	-12.4281
▁pri	-12.4281
▁Visi	-12.4285
▁Pala	-12.4288
▁Meta	-12.4298
▁IRA	-12.4305
▁box	-12.4306
▁SE	-12.4323
▁Pla	-12.4325
▁Fir	-12.4327
▁mb	-12.434
▁בדר	-12.434
NT	-12.4342
▁Fin	-12.4343
▁Met	-12.4345
DL	-12.4348
▁תהא	-12.4357
▁Bad	-12.4367
▁שונו	-12.4372
▁נהי	-12.4377
PG	-12.4416
CR	-12.4427
▁שיני	-12.443
▁Sol	-12.4436
▁זבל	-12.4458
▁gra	-12.4482
▁je	-12.4484
▁nia	-12.4492
35	-12.4503
תך	-12.4503
▁עירי	-12.4511
eb	-12.4513
á	-12.4516
▁Over	-12.4518
▁מתכו	-12.4518
▁TED	-12.4519
▁this	-12.452
▁Games	-12.452
▁זורי	-12.4522
▁Rem	-12.4523
▁Ru	-12.453
▁ביבה	-12.453
▁rid	-12.4548
im	-12.4559
▁בעז	-12.458
▁7.	-12.4581
▁Hav	-12.4584
▁und	-12.4588
▁חנו	-12.4588
▁j	-12.4596
▁שבות	-12.4597
▁זמר	-12.4615
▁צעי	-12.4617
▁ימס	-12.4617
▁Pen	-12.462
LM	-12.4621
שפה	-12.4624
DF	-12.4628
▁fil	-12.4638
sse	-12.4656
▁sup	-12.4656
cur	-12.4658
▁למנו	-12.4659
▁גורר	-12.466
▁מציאו	-12.4664
▁pla	-12.4677
▁שאנ	-12.4695
▁השפע	-12.47
FI	-12.4711
uck	-12.4713
רוצ	-12.4719
▁RE	-12.4738
tch	-12.4745
UM	-12.4754
▁בורי	-12.4756
PM	-12.4758
),	-12.4766
▁CT	-12.4777
fi	-12.478
▁rd	-12.4785
▁URL	-12.4796
▁flix	-12.4796
▁Death	-12.4796
▁(5)	-12.4796
▁£	-12.4796
▁ncy	-12.4796
▁MRI	-12.4797
▁Lake	-12.4798
▁לחג	-12.4799
▁nger	-12.4801
.0	-12.4811
▁dow	-12.4813
▁ford	-12.4817
▁וגוס	-12.4837
▁Ap	-12.4847
EG	-12.4848
▁Hua	-12.4859
▁ult	-12.4862
לקטר	-12.4863
▁2%	-12.4884
▁Dou	-12.4922
ant	-12.4935
MO	-12.4938
▁שונ	-12.4943
▁bel	-12.4951
▁להרג	-12.4956
▁DA	-12.4957
▁קנס	-12.4967
▁Bel	-12.4986
▁Buil	-12.4986
▁EM	-12.4987
▁Too	-12.5004
▁Mid	-12.5014
▁Cas	-12.5017
▁nk	-12.5028
NC	-12.5028
29	-12.5038
*	-12.5041
ָ	-12.5042
▁Vol	-12.5058
▁Cho	-12.5063
▁ושב	-12.5067
▁#1	-12.508
▁[4]	-12.5081
▁burg	-12.5081
▁town	-12.5081
▁world	-12.5081
▁life	-12.5081
▁shop	-12.5081
▁OCD	-12.5082
▁LED	-12.5083
▁press	-12.5083
רף	-12.5083
▁Test	-12.5084
hu	-12.5091
▁חזה	-12.5094
▁berg	-12.5094
▁dent	-12.5103
▁free	-12.5104
▁Mag	-12.5105
▁75%	-12.5105
ext	-12.511
US	-12.5126
▁qui	-12.5133
▁fu	-12.514
▁לחל	-12.5142
▁Die	-12.5152
▁Ve	-12.5166
PP	-12.5172
nc	-12.5186
2,	-12.5189
▁tran	-12.519
▁(1	-12.52
ho	-12.5212
▁nte	-12.5215
▁Run	-12.5216
TM	-12.5236
ract	-12.524
▁קיה	-12.5254
▁Pea	-12.5263
▁Er	-12.5271
▁עסו	-12.5287
EA	-12.5311
▁Hal	-12.5321
▁Las	-12.5326
RAM	-12.5332
▁Sk	-12.5333
$	-12.5336
ja	-12.5341
".	-12.5358
RM	-12.5374
▁פאי	-12.5375
▁Club	-12.5376
▁Film	-12.5376
▁Why	-12.5376
▁Angel	-12.5376
▁Bank	-12.5376
▁**	-12.5377
▁Boy	-12.5377
▁lear	-12.5378
▁Vill	-12.5378
▁CBS	-12.5379
▁app	-12.5379
▁Ima	-12.538
▁sort	-12.538
▁Anti	-12.5386
▁Stand	-12.5386
▁היתר	-12.5387
OL	-12.5388
▁par	-12.5388
▁Gran	-12.5388
ID	-12.5389
07	-12.5395
▁Tu	-12.5395
▁Eth	-12.54
▁Cast	-12.54
▁star	-12.5402
gu	-12.5407
▁Chu	-12.5411
▁mp	-12.5422
ya	-12.5429
CE	-12.543
▁ior	-12.5433
▁MIT	-12.5434
▁mat	-12.5435
▁ME	-12.5437
▁שמך	-12.5445
▁השוו	-12.5459
▁יחי	-12.5471
▁ואים	-12.5474
▁é	-12.548
▁OF	-12.5482
ציה	-12.5488
utt	-12.5508
▁CIA	-12.5509
▁ema	-12.552
▁Voi	-12.5521
wa	-12.5529
▁tro	-12.5539
רץ	-12.5541
▁פורי	-12.5545
▁ire	-12.5552
zi	-12.5552
▁Yo	-12.5565
▁lus	-12.5572
▁Pic	-12.5575
und	-12.5581
▁Mat	-12.5606
▁מזר	-12.561
▁יתיים	-12.5626
▁חרים	-12.5644
Tu	-12.5644
▁stic	-12.5648
מר	-12.5649
▁NT	-12.5656
ein	-12.5659
ö	-12.5678
ü	-12.5679
▁ville	-12.5679
▁Place	-12.5679
▁hine	-12.5679
▁:-)	-12.5679
▁love	-12.5679
▁Qui	-12.568
▁down	-12.568
▁Fair	-12.5681
▁that	-12.5681
▁get	-12.5688
▁Card	-12.569
▁רחי	-12.5691
▁Far	-12.5692
▁Sof	-12.5693
▁3.5	-12.5703
▁Alt	-12.5707
▁2.0	-12.5709
▁BI	-12.5731
▁שמם	-12.5736
▁הבור	-12.5746
ite	-12.5753
▁הכלל	-12.5753
HI	-12.5753
▁lle	-12.5754
ala	-12.5755
▁Hu	-12.5763
CH	-12.5768
▁MD	-12.5769
▁Mal	-12.5785
▁ועים	-12.5787
▁טוד	-12.5791
▁cu	-12.5803
▁tri	-12.5805
31	-12.5806
▁AD	-12.5808
iam	-12.5815
▁LE	-12.5818
▁CH	-12.5831
▁82	-12.5838
▁דירו	-12.5852
HR	-12.5852
▁16.	-12.5854
▁sy	-12.5862
▁Ins	-12.5863
▁bus	-12.5865
▁Aca	-12.5865
עתיד	-12.5872
▁בדב	-12.5889
ssi	-12.589
75	-12.5893
▁62	-12.5897
SU	-12.5907
uld	-12.5918
ion	-12.5921
erry	-12.5933
▁Tom	-12.5938
vil	-12.5945
▁Sen	-12.595
▁פיז	-12.5961
▁תקד	-12.5962
OW	-12.5972
▁sto	-12.5978
▁Stor	-12.5989
▁IoT	-12.5991
▁Women	-12.5991
▁where	-12.5991
▁GDPR	-12.5991
▁Flash	-12.5991
▁James	-12.5991
▁rrow	-12.5991
▁Beach	-12.5992
▁Fun	-12.5993
▁Swa	-12.5993
▁web	-12.5994
▁ומלץ	-12.5994
▁Ball	-12.5998
▁Avi	-12.5998
▁roll	-12.5998
▁יננו	-12.5998
▁Line	-12.5999
▁בריה	-12.6
▁There	-12.6006
▁use	-12.6007
▁mar	-12.6014
▁בעינ	-12.6016
mm	-12.6022
▁דקי	-12.6024
▁ssa	-12.6049
▁Ur	-12.605
▁SM	-12.6054
▁פסח	-12.6056
▁Dist	-12.6058
1,	-12.6065
▁TE	-12.6071
po	-12.6079
▁oli	-12.6084
▁מאמי	-12.6098
▁sse	-12.6102
▁יופ	-12.6109
▁cap	-12.6123
▁sum	-12.6125
▁וצאי	-12.6138
▁Ze	-12.6154
▁מעץ	-12.6164
▁ii	-12.6166
GE	-12.6166
▁ef	-12.6188
FF	-12.6209
▁ris	-12.6216
▁5:	-12.6222
▁ריכי	-12.6229
AF	-12.6236
״	-12.6255
OT	-12.6263
▁רועי	-12.6265
▁Cli	-12.627
▁EP	-12.627
▁73	-12.6272
▁blo	-12.6282
▁Twit	-12.6283
▁NO	-12.6286
CO	-12.6304
▁מעו	-12.6313
▁Learn	-12.6314
▁eBay	-12.6314
▁house	-12.6314
▁Frank	-12.6314
▁דגי	-12.6314
▁צחון	-12.6314
▁Deep	-12.6314
▁Team	-12.6314
▁ival	-12.6315
▁Want	-12.6316
▁UK	-12.6317
▁Hall	-12.6318
▁Camp	-12.6323
dge	-12.6324
▁OT	-12.6325
▁Ris	-12.6332
▁הולד	-12.6333
1.	-12.6338
IX	-12.634
▁Ly	-12.6341
▁dies	-12.6345
▁nol	-12.6346
SL	-12.6348
zy	-12.6352
▁Fla	-12.6353
▁Vall	-12.6361
▁q	-12.6364
▁CI	-12.6365
▁שקי	-12.6373
▁ING	-12.6383
▁3-4	-12.6384
▁Min	-12.6423
32	-12.644
▁8%	-12.6446
GA	-12.6467
▁אטר	-12.6473
ush	-12.6501
IA	-12.6508
23	-12.6519
OM	-12.6521
▁קשי	-12.6533
בוס	-12.6543
AP	-12.6547
DC	-12.6549
▁br	-12.6572
▁but	-12.6574
very	-12.6577
▁Rh	-12.6581
DP	-12.6584
▁אימי	-12.6586
LC	-12.6602
▁don	-12.6603
▁bar	-12.6609
PT	-12.6627
EF	-12.6631
▁ig	-12.6634
▁+1	-12.6643
▁Azure	-12.6647
▁Talk	-12.6647
▁[2]	-12.6647
▁[3]	-12.6647
▁book	-12.6647
▁Again	-12.6648
▁word	-12.6648
▁LLC	-12.6648
▁ular	-12.6648
▁news	-12.6649
▁fri	-12.6649
RP	-12.6649
▁Sub	-12.6652
▁Bot	-12.6653
▁צג	-12.6656
▁Mill	-12.6657
▁//	-12.6658
▁Ava	-12.6661
▁Fli	-12.6662
▁6:	-12.6664
מטופ	-12.6665
▁Hand	-12.6671
▁ful	-12.6677
UT	-12.6699
החלי	-12.6702
▁טבק	-12.6712
▁hyp	-12.6712
▁ji	-12.6715
▁BS	-12.6719
▁1.4	-12.6727
44	-12.6742
▁gh	-12.6744
▁Thin	-12.6747
▁פעי	-12.6751
▁tt	-12.6753
▁קרק	-12.6757
▁Sho	-12.6767
▁5)	-12.6774
▁Ant	-12.6776
>	-12.6786
▁Cla	-12.6786
▁lor	-12.6793
▁yo	-12.6795
▁מחס	-12.6801
▁110	-12.6815
42	-12.682
▁SI	-12.6821
▁SD	-12.6823
▁Pan	-12.6838
▁bon	-12.6839
▁nch	-12.6841
▁דוג	-12.6889
NP	-12.692
▁ספא	-12.6924
▁Qua	-12.6926
קבוצ	-12.6928
▁87	-12.6932
▁val	-12.6939
▁Saf	-12.6945
▁Fro	-12.695
ang	-12.6963
▁rio	-12.6967
ND	-12.697
so	-12.6971
▁מאפי	-12.6971
▁Earth	-12.6992
▁Exec	-12.6992
▁Two	-12.6992
▁WiFi	-12.6992
▁Woman	-12.6992
▁Ltd	-12.6992
▁Page	-12.6992
▁fess	-12.6992
▁Quest	-12.6992
▁Happy	-12.6992
▁Trade	-12.6993
▁CDC	-12.6994
▁API	-12.6995
▁גמו	-12.6998
▁ball	-12.6999
▁Wars	-12.7
▁gic	-12.7007
idd	-12.7016
▁Land	-12.7018
▁tory	-12.7019
▁Step	-12.702
▁Hard	-12.7022
MF	-12.7033
▁Dec	-12.7034
▁Ali	-12.7035
▁Guar	-12.704
▁ett	-12.7048
▁ea	-12.7052
ps	-12.7052
▁Trip	-12.7068
▁Priv	-12.7069
56	-12.7073
▁Ten	-12.7085
▁קיצו	-12.7094
aze	-12.7112
▁gia	-12.7113
▁EPA	-12.7116
GC	-12.7122
▁TS	-12.7126
▁LA	-12.7144
BR	-12.7146
▁שרא	-12.715
▁ff	-12.7164
▁פכת	-12.7169
▁Dog	-12.7181
▁pal	-12.7182
37	-12.7184
57	-12.719
▁Wo	-12.7191
GF	-12.7204
▁שובי	-12.7212
▁עשת	-12.7229
AY	-12.7229
▁Pur	-12.723
▁pol	-12.7236
▁כץ	-12.7243
▁Hat	-12.7247
LI	-12.7249
▁Sex	-12.7257
ko	-12.7268
▁שורי	-12.7272
▁Fre	-12.7273
▁bat	-12.7281
tal	-12.7293
▁non	-12.7298
▁za	-12.7307
▁Tre	-12.7309
ult	-12.731
▁Top	-12.7313
TH	-12.7323
▁יירי	-12.7327
פן	-12.7328
▁Cur	-12.733
▁')	-12.733
▁Blu	-12.7345
▁ific	-12.7349
▁Where	-12.7349
▁Ghost	-12.735
▁Cali	-12.735
▁rro	-12.735
▁Fest	-12.735
▁AWS	-12.7351
▁SSL	-12.7351
▁here	-12.7352
▁ury	-12.7353
▁ky	-12.7356
▁88	-12.7358
▁clo	-12.7359
▁Bey	-12.736
▁Port	-12.7365
▁ics	-12.7368
▁Fee	-12.7372
▁פתאו	-12.7381
▁וגלי	-12.7386
▁EX	-12.739
▁Ya	-12.7392
EI	-12.7395
▁Band	-12.7396
▁rib	-12.7402
▁Make	-12.7406
▁ידך	-12.7408
▁2.4	-12.7409
IL	-12.7412
AV	-12.7413
▁ld	-12.7425
▁96	-12.7437
▁Ku	-12.7441
▁Han	-12.7451
PL	-12.7462
WE	-12.7466
EW	-12.7471
▁קפו	-12.7473
ive	-12.7474
▁Hot	-12.7477
▁har	-12.7479
▁ועית	-12.748
▁RT	-12.7484
ich	-12.7489
64	-12.7489
CT	-12.7497
▁VR	-12.7498
▁גוני	-12.7499
▁Mem	-12.7502
oom	-12.7505
▁Ast	-12.7505
old	-12.7507
CM	-12.7507
CL	-12.7508
▁ju	-12.7516
▁פואה	-12.7517
▁MAN	-12.7522
▁Sin	-12.7525
▁לפח	-12.7527
▁Prem	-12.7528
▁אמני	-12.753
GS	-12.7533
▁(3	-12.7538
▁משר	-12.7554
▁לחמת	-12.756
▁63	-12.757
▁fra	-12.7574
▁Dom	-12.7587
▁BL	-12.7588
▁bol	-12.7602
▁Arm	-12.7611
▁ero	-12.7623
elf	-12.763
▁bot	-12.7632
uit	-12.7647
▁וותי	-12.7648
▁לגמר	-12.7658
▁Cru	-12.7661
▁tec	-12.7663
▁hol	-12.7677
MX	-12.7694
▁tar	-12.77
▁פוני	-12.77
▁Hell	-12.7706
SO	-12.7711
▁Pol	-12.7711
▁[5]	-12.7719
▁Xia	-12.7719
▁>>>	-12.7719
▁HPV	-12.772
▁dust	-12.7722
▁Even	-12.7722
▁Hub	-12.7722
▁mics	-12.7723
▁Spr	-12.7723
▁part	-12.7723
▁cli	-12.7724
▁Aff	-12.7724
▁Sound	-12.7724
▁Russ	-12.7725
▁ob	-12.7725
▁DO	-12.7726
▁Kra	-12.7726
▁tech	-12.7727
▁Days	-12.7727
▁ense	-12.7729
ונדו	-12.7732
AU	-12.7732
▁tock	-12.7733
▁Son	-12.7734
▁NBC	-12.7735
▁(2	-12.7736
▁pp	-12.7738
▁Spot	-12.7741
▁Hy	-12.7747
▁gie	-12.775
▁bla	-12.7758
▁nda	-12.7759
▁sla	-12.7767
▁Liv	-12.7788
af	-12.7794
▁לרא	-12.7797
▁Bell	-12.7798
▁cas	-12.78
▁bour	-12.78
▁ship	-12.7805
▁was	-12.7824
▁גלג	-12.7825
▁bra	-12.783
▁125	-12.7839
▁gica	-12.7844
▁Tele	-12.7858
▁ak	-12.7871
▁ממס	-12.7876
▁ners	-12.7878
▁if	-12.7885
▁new	-12.7889
▁han	-12.789
ודד	-12.7897
MG	-12.7905
▁CE	-12.7908
emo	-12.7923
▁נפת	-12.7924
PR	-12.7928
▁lia	-12.7932
▁uri	-12.7939
▁סלמי	-12.794
▁IE	-12.7949
▁סמו	-12.795
▁1-2	-12.7955
fer	-12.7961
▁93	-12.7969
▁UC	-12.7984
▁ban	-12.7985
▁דדו	-12.7996
▁OLE	-12.7996
▁Mass	-12.7998
▁Len	-12.8005
▁Wil	-12.802
SF	-12.8032
▁Ros	-12.8045
▁Ce	-12.8066
▁GM	-12.8066
La	-12.8079
▁יחוד	-12.8079
▁Wa	-12.81
▁לסטי	-12.81
▁ynet	-12.8104
■	-12.8104
▁Sport	-12.8104
▁Stop	-12.8104
▁point	-12.8104
▁load	-12.8104
▁Touch	-12.8104
▁ECT	-12.8105
▁Cree	-12.8106
▁Gear	-12.8106
▁העול	-12.8106
▁SAP	-12.8106
▁Eff	-12.8106
▁Wire	-12.8107
▁Side	-12.8107
▁Cir	-12.8108
▁rial	-12.811
▁Mars	-12.8118
▁ah	-12.8128
▁Mr	-12.8129
▁rew	-12.8131
LP	-12.8131
▁Ret	-12.8132
72	-12.8132
▁85%	-12.814
▁35%	-12.8144
81	-12.8144
▁tz	-12.8149
▁Chat	-12.8164
FO	-12.8165
▁95%	-12.8168
▁86	-12.8169
NG	-12.8171
▁תנד	-12.8178
▁Tho	-12.818
▁PM	-12.8197
▁Sca	-12.8201
▁Boo	-12.8207
▁base	-12.821
ock	-12.8212
▁TH	-12.8221
▁ua	-12.8221
▁Ref	-12.8226
uff	-12.823
▁ber	-12.8236
▁זקי	-12.8241
▁Set	-12.8255
▁תכו	-12.8261
▁GO	-12.8286
▁sur	-12.8301
▁fol	-12.8306
▁WHO	-12.8316
▁דנט	-12.833
fo	-12.8332
▁Bit	-12.834
▁niz	-12.8347
▁Mont	-12.8353
▁Terr	-12.8372
3.	-12.8372
▁-1	-12.8374
95	-12.8377
▁sec	-12.8381
▁ses	-12.8396
▁mor	-12.8404
שחקנ	-12.8411
▁pic	-12.8416
▁set	-12.8427
55	-12.8432
TF	-12.8432
ize	-12.8458
Hz	-12.8466
וקרט	-12.8467
▁78	-12.8484
שליש	-12.8488
ect	-12.8492
▁רשע	-12.8493
▁Med	-12.8494
¶	-12.8504
▁Movie	-12.8504
▁Video	-12.8504
●	-12.8504
▁Zero	-12.8504
▁wort	-12.8505
▁NFL	-12.8505
▁Mult	-12.8505
▁Base	-12.8505
▁Demo	-12.8506
▁ries	-12.8506
▁SP	-12.8506
▁USD	-12.8507
▁stu	-12.8507
▁Emb	-12.8507
רוכ	-12.8508
uro	-12.8508
▁Tale	-12.8508
▁Cell	-12.8511
▁Bill	-12.8512
▁rict	-12.8512
▁nto	-12.8521
▁nced	-12.8527
▁ker	-12.8528
▁ותיים	-12.854
▁ox	-12.8544
▁פירו	-12.8545
▁Py	-12.8546
▁Non	-12.8552
▁born	-12.8559
▁Solu	-12.8566
▁כתר	-12.8573
▁23%	-12.8581
ear	-12.8598
CN	-12.8603
▁Clo	-12.861
מהיר	-12.8616
▁Ada	-12.8616
EX	-12.8619
▁bet	-12.8627
▁eth	-12.8628
▁her	-12.8635
RO	-12.8637
▁Shu	-12.8642
▁AA	-12.8643
PF	-12.8653
▁Rad	-12.8669
▁עילי	-12.8671
▁olu	-12.8674
▁gro	-12.8691
▁PRO	-12.8697
▁#2	-12.8711
▁גוו	-12.8712
▁נויו	-12.873
▁רותי	-12.8735
aga	-12.8738
VI	-12.8742
▁pres	-12.8747
▁nov	-12.8772
IF	-12.8776
▁#3	-12.8796
38	-12.8797
▁mer	-12.8799
▁וכבי	-12.881
▁$.	-12.8822
▁tre	-12.8829
▁nel	-12.8829
FL	-12.8836
▁תניה	-12.8843
▁ino	-12.8846
▁hy	-12.885
rl	-12.8859
33	-12.8864
▁Scri	-12.8866
▁Gre	-12.8868
VC	-12.8873
▁77	-12.8881
▁Ac	-12.8892
▁וצו	-12.8895
▁sk	-12.8899
▁Prin	-12.8906
▁ncia	-12.8907
▁Deve	-12.8912
ä	-12.8921
▁Blog	-12.8921
▁ties	-12.8921
▁Force	-12.8921
▁fox	-12.8921
▁Beat	-12.8922
▁ERP	-12.8923
▁Ston	-12.8923
▁CRM	-12.8923
▁Visa	-12.8923
▁ACT	-12.8923
▁Fut	-12.8924
▁dern	-12.8925
▁Pack	-12.8926
▁Made	-12.8926
▁FX	-12.8926
▁stin	-12.8927
▁bio	-12.8927
▁Gate	-12.8928
▁Phy	-12.8928
▁Kin	-12.8928
PE	-12.8931
▁כתף	-12.8935
▁Ger	-12.8936
▁גנץ	-12.8936
▁sci	-12.8942
▁Bli	-12.8949
▁4.5	-12.8951
▁Ham	-12.8952
▁המחש	-12.8954
▁65%	-12.8955
▁su	-12.8964
▁Vent	-12.8964
SR	-12.8967
▁old	-12.8975
▁Zen	-12.8976
▁450	-12.8977
▁File	-12.8985
▁98	-12.8986
▁tin	-12.8989
tz	-12.8997
▁Name	-12.9005
▁גרע	-12.9009
02	-12.901
cro	-12.901
▁Come	-12.901
▁8.1	-12.9013
▁ונאי	-12.9015
▁men	-12.9015
▁VIP	-12.9032
ME	-12.9034
▁ונדו	-12.9051
▁Leo	-12.9067
▁NE	-12.9068
▁19.	-12.9069
▁See	-12.9077
▁רטיו	-12.9086
▁XP	-12.9087
EY	-12.9088
▁sit	-12.9099
▁7%	-12.91
▁let	-12.9105
▁Dy	-12.911
▁ליצו	-12.9113
▁Dep	-12.9116
▁Ano	-12.9121
▁Vic	-12.913
):	-12.9135
ung	-12.9135
▁tit	-12.9145
▁mid	-12.9148
▁92	-12.9153
▁ye	-12.9154
▁NI	-12.9162
▁nth	-12.9175
76	-12.9194
▁ts	-12.9195
▁tan	-12.9208
CI	-12.9222
low	-12.9254
NU	-12.9256
ציבו	-12.9313
▁נכו	-12.9315
(	-12.9316
▁une	-12.9317
ess	-12.9317
▁Got	-12.9319
▁79	-12.9336
▁Jun	-12.9338
▁יזצי	-12.9348
↩	-12.9355
▁Brown	-12.9355
▁HTTP	-12.9355
▁Radio	-12.9355
▁iful	-12.9355
▁Lync	-12.9355
▁Magic	-12.9356
▁ridge	-12.9356
▁Four	-12.9356
▁head	-12.9356
▁chain	-12.9356
▁Block	-12.9356
▁RSS	-12.9358
▁NSA	-12.9358
▁rre	-12.936
▁Hold	-12.936
▁Oth	-12.9364
▁101	-12.9368
▁endo	-12.9369
▁bit	-12.9387
▁Hon	-12.9392
▁′	-12.9394
▁הנפ	-12.9394
▁Rain	-12.9399
▁emi	-12.9401
▁mast	-12.9401
▁פשרת	-12.9404
▁3.3	-12.9405
▁84	-12.9409
OD	-12.941
▁חובו	-12.9424
▁lik	-12.944
▁Ven	-12.9443
▁Bor	-12.9448
▁Den	-12.9458
▁סיבו	-12.946
▁Via	-12.9474
▁Cri	-12.9476
▁Our	-12.948
ura	-12.9481
▁Sig	-12.9483
▁Van	-12.9498
▁סטרט	-12.9501
▁HR	-12.9507
ודרנ	-12.9523
▁רמנ	-12.9524
▁Cul	-12.9542
▁dor	-12.9542
MBA	-12.9549
99	-12.9552
▁rs	-12.9561
▁Care	-12.9561
▁PO	-12.9571
▁Mur	-12.9577
קץ	-12.96
DD	-12.9607
▁VK	-12.9609
▁Pau	-12.962
קרב	-12.963
▁Rap	-12.9636
▁מחד	-12.9637
▁24,	-12.9639
AE	-12.9641
▁war	-12.9659
UI	-12.9659
▁Civi	-12.9663
▁בעב	-12.9665
66	-12.9671
▁mu	-12.9682
יום	-12.9683
▁lon	-12.9689
SV	-12.9704
ALL	-12.9713
eel	-12.9719
VO	-12.9727
IFA	-12.9727
FS	-12.9734
▁ico	-12.9739
▁יטלי	-12.974
▁Dev	-12.9754
ribe	-12.9754
▁ck	-12.9761
49	-12.9767
′	-12.977
ox	-12.9775
הורי	-12.9776
▁Ave	-12.9787
▁come	-12.9788
▁gan	-12.9799
▁תכני	-12.9802
▁bor	-12.9804
▁Eye	-12.9808
▁Year	-12.9808
▁Ever	-12.9809
ا	-12.981
▁Hilt	-12.981
▁Guide	-12.981
▁Thro	-12.981
▁Queen	-12.981
▁room	-12.981
▁Sense	-12.981
▁inue	-12.9811
▁BMI	-12.9811
▁tru	-12.9811
▁whi	-12.9812
▁well	-12.9813
▁Site	-12.9813
▁Soul	-12.9814
▁ius	-12.9815
▁sic	-12.9815
▁Bir	-12.9815
▁tag	-12.9817
VM	-12.9823
▁Sel	-12.9826
▁ler	-12.9829
▁thy	-12.9832
▁Sma	-12.9838
▁Est	-12.9842
▁57	-12.9846
▁OL	-12.9849
ms	-12.9851
TE	-12.9856
▁חפשי	-12.9862
▁zi	-12.9864
▁RO	-12.9865
▁ben	-12.9865
▁Sand	-12.987
▁ou	-12.9874
cy	-12.9878
▁משט	-12.9893
▁ald	-12.9898
▁הובי	-12.9899
▁erm	-12.9904
▁den	-12.9904
▁PL	-12.9905
חרור	-12.9906
HL	-12.991
▁צמר	-12.9927
CD	-12.9929
▁Mor	-12.9929
▁Holl	-12.9935
▁Leav	-12.9936
▁tta	-12.9938
▁13%	-12.9938
▁חתן	-12.9956
▁DD	-12.9963
▁rev	-12.997
▁וספו	-12.9974
▁Pin	-12.9975
▁eli	-12.9981
▁רייר	-12.9981
▁Wai	-12.9982
▁TI	-12.9991
▁Kni	-13.0003
▁Sh	-13.0007
▁Ki	-13.0015
▁Shen	-13.0026
▁urn	-13.003
ump	-13.0036
▁PV	-13.0038
▁Tree	-13.005
▁Sco	-13.0052
▁CB	-13.0063
ART	-13.0069
▁hav	-13.0074
▁ET	-13.0077
que	-13.0089
▁ter	-13.0091
▁Palm	-13.0098
▁rum	-13.0108
▁EU	-13.0118
MM	-13.0119
▁Luc	-13.013
▁13.	-13.0132
RB	-13.0141
eek	-13.0144
▁#4	-13.0147
▁Ill	-13.016
87	-13.0166
▁ngo	-13.0175
ode	-13.018
▁Cu	-13.0201
▁tw	-13.0215
91	-13.0221
▁ub	-13.0244
▁hom	-13.0244
▁bro	-13.0245
▁ini	-13.0249
ara	-13.0261
41	-13.0273
▁יברס	-13.0276
▁Indi	-13.0283
â	-13.0286
▁AFP	-13.0286
▁Aqua	-13.0286
▁Smith	-13.0286
▁Thre	-13.0286
▁Esp	-13.0286
▁Cross	-13.0286
▁PHP	-13.0286
▁ruct	-13.0286
▁Skin	-13.0286
▁Keep	-13.0287
▁Need	-13.0287
▁Week	-13.0287
▁tive	-13.0287
▁Room	-13.0287
▁cry	-13.0288
▁Years	-13.0288
▁RNA	-13.0288
▁Kid	-13.029
▁List	-13.029
▁Fund	-13.029
▁IA	-13.0291
▁True	-13.0291
▁Hero	-13.0293
▁Here	-13.0295
▁kia	-13.03
36	-13.0301
▁Dur	-13.0304
▁rop	-13.0307
▁Gri	-13.031
▁15,	-13.0312
▁Ig	-13.0314
▁Id	-13.0317
▁7.5	-13.0318
▁road	-13.032
▁zz	-13.0326
▁Take	-13.0335
▁55%	-13.0338
▁EUR	-13.0341
▁נואר	-13.0344
▁ביח	-13.0346
חבר	-13.0347
48	-13.0348
ACE	-13.035
▁89	-13.0356
▁ap	-13.037
▁posi	-13.038
AI	-13.038
▁ssi	-13.0388
ook	-13.0392
▁Pres	-13.0403
▁smo	-13.0404
▁חינה	-13.0406
▁160	-13.0415
MI	-13.0416
▁גבל	-13.0418
▁Ic	-13.0419
MU	-13.0419
▁IU	-13.043
▁sen	-13.0431
▁mm	-13.0458
▁iga	-13.0461
▁ien	-13.0463
▁Cro	-13.048
▁18%	-13.0483
▁קטני	-13.0483
▁plan	-13.0496
▁Miss	-13.0501
mail	-13.0514
▁Wei	-13.0521
▁Ken	-13.0526
▁ser	-13.0535
▁Rose	-13.0542
▁פסט	-13.0544
BB	-13.0557
▁נהלי	-13.0561
BU	-13.0562
▁Pha	-13.0563
▁מובי	-13.0565
קבות	-13.0576
TO	-13.0583
arri	-13.0586
▁Phi	-13.0586
ugh	-13.0587
uer	-13.0602
▁Loc	-13.0612
nna	-13.0646
▁ONE	-13.0647
▁ku	-13.0651
▁mun	-13.0653
▁Vir	-13.0657
▁Flo	-13.0658
▁nu	-13.0659
▁Sav	-13.0682
▁Phil	-13.0686
ept	-13.0702
▁fun	-13.0703
ero	-13.0736
▁sca	-13.074
▁ray	-13.0749
▁Sant	-13.075
GB	-13.0751
CK	-13.0759
▁kt	-13.0762
▁ere	-13.0768
▁ep	-13.0773
▁Pok	-13.0781
ó	-13.0785
▁Easy	-13.0786
▁Jones	-13.0786
▁space	-13.0786
▁Paris	-13.0786
▁flu	-13.0787
▁MVP	-13.0787
▁Plea	-13.0787
▁known	-13.0787
▁just	-13.0787
sney	-13.0787
▁ssin	-13.0788
▁LLM	-13.0788
▁pH	-13.0788
▁Sony	-13.0788
▁bank	-13.0788
▁Court	-13.0788
▁make	-13.0789
▁zza	-13.0789
▁IBS	-13.0789
▁Fly	-13.079
▁Code	-13.079
▁Ray	-13.0791
▁Path	-13.0791
▁Six	-13.0791
▁gio	-13.0795
▁nics	-13.0795
▁Gam	-13.0796
▁הקרו	-13.0796
▁Ads	-13.0802
▁Sli	-13.0815
▁crip	-13.0818
יסבו	-13.083
▁dra	-13.0834
▁Qual	-13.0837
IO	-13.0848
▁VA	-13.0862
RT	-13.0863
▁wan	-13.0872
LT	-13.0872
▁Ara	-13.0874
AZ	-13.0877
▁RF	-13.0886
▁לעמו	-13.0894
▁Ang	-13.0904
▁מחט	-13.091
▁5.1	-13.0915
▁Regi	-13.0917
CV	-13.0921
▁Zoo	-13.0926
גיטל	-13.0927
SH	-13.0935
ניס	-13.0937
▁Fon	-13.0946
▁10:	-13.0948
▁ICA	-13.0966
▁BP	-13.0967
▁Bla	-13.0979
▁kin	-13.0986
▁nces	-13.099
▁ns	-13.0991
85	-13.0993
▁som	-13.0996
▁טסה	-13.1001
▁17%	-13.1001
▁GT	-13.1007
▁9%	-13.1008
FR	-13.1009
RF	-13.1017
▁EB	-13.1018
▁לטפ	-13.1025
▁yes	-13.1033
▁לזכ	-13.1047
▁;)	-13.1055
lec	-13.1056
▁gre	-13.1059
▁IR	-13.1068
▁חומי	-13.1072
▁Gro	-13.1072
▁ear	-13.1073
▁oc	-13.108
▁ינטר	-13.1086
ku	-13.1088
▁sou	-13.109
▁edi	-13.1099
▁Moni	-13.1106
▁Eli	-13.1126
▁Dut	-13.1132
▁Jac	-13.1153
▁UP	-13.1159
BO	-13.1165
▁Vel	-13.117
WS	-13.1182
rex	-13.1187
▁ms	-13.1199
KA	-13.1208
mart	-13.1232
43	-13.1242
▁לחן	-13.1258
▁Ah	-13.1262
▁Pap	-13.1277
eep	-13.1287
HC	-13.129
עיתו	-13.1298
▁Yan	-13.13
▁Driv	-13.131
▁Drop	-13.1312
▁Roma	-13.1313
▁page	-13.1313
▁LTE	-13.1313
▁Harry	-13.1313
▁ency	-13.1313
▁sport	-13.1314
▁Afr	-13.1314
▁qua	-13.1314
▁Imm	-13.1315
▁Rome	-13.1315
▁only	-13.1317
▁rces	-13.1317
▁mg	-13.1318
▁81	-13.1319
▁Clea	-13.132
▁mine	-13.1321
▁Face	-13.1324
▁ew	-13.1327
▁Tren	-13.1328
▁Add	-13.1329
▁ICO	-13.1331
▁104	-13.1331
▁ean	-13.1337
▁Town	-13.134
▁ens	-13.1347
▁oni	-13.1347
▁Wind	-13.1355
▁dos	-13.1358
▁Low	-13.1368
▁Cort	-13.1378
▁ira	-13.1382
olu	-13.1386
71	-13.1389
▁ודדי	-13.1391
▁Gy	-13.141
▁פתא	-13.1412
▁gian	-13.1418
▁Wan	-13.1437
▁ICT	-13.1442
▁Pot	-13.1444
AAP	-13.1446
▁Hel	-13.1456
34	-13.1464
▁Clin	-13.1468
▁ail	-13.1468
▁eve	-13.1468
sion	-13.1469
▁16%	-13.147
▁קומית	-13.1475
▁ona	-13.1476
▁ount	-13.1481
▁rgi	-13.1484
▁fec	-13.1486
LY	-13.1492
▁(5	-13.1493
▁gr	-13.1496
▁Bet	-13.1504
▁sma	-13.1506
ISS	-13.1513
▁4%	-13.1515
▁dro	-13.1518
▁nz	-13.1521
▁tric	-13.1523
iki	-13.1532
▁Colo	-13.1556
▁cat	-13.1558
eer	-13.1568
▁tel	-13.1576
▁Plat	-13.1581
▁pra	-13.159
LL	-13.1603
▁Bos	-13.1604
67	-13.1606
▁Vis	-13.1606
▁rin	-13.1607
▁pyr	-13.1642
▁Bat	-13.1645
alm	-13.1646
47	-13.1649
▁fal	-13.165
▁wea	-13.1651
▁bin	-13.1672
▁Lee	-13.1679
▁Hit	-13.1681
▁Pr	-13.1694
TR	-13.1706
UA	-13.171
▁Apo	-13.1712
▁71	-13.1718
▁tur	-13.172
▁Ele	-13.1726
VA	-13.1728
▁rou	-13.1729
FE	-13.1734
▁Et	-13.1739
lea	-13.1763
▁pos	-13.1773
▁91	-13.1775
PH	-13.1788
▁Hono	-13.1792
▁LL	-13.1803
▁Il	-13.1813
omb	-13.1815
חבור	-13.1828
‘	-13.1829
▁וונט	-13.1829
▁Nov	-13.183
▁Tow	-13.1845
▁Tro	-13.1847
▁Mil	-13.1847
▁Mess	-13.1855
▁dem	-13.1856
▁Say	-13.1862
▁Epi	-13.1868
ل	-13.1868
م	-13.1868
▁Spee	-13.1868
▁[7]	-13.1868
▁iPod	-13.1868
▁walk	-13.1868
▁Educ	-13.1868
▁***	-13.1868
▁writ	-13.1868
▁Hope	-13.1868
▁Zone	-13.1868
▁zine	-13.1868
▁hydr	-13.1868
▁Yun	-13.1869
▁Admi	-13.1869
▁MAX	-13.1869
▁Pira	-13.1869
▁ify	-13.187
▁Hunt	-13.187
▁nni	-13.187
▁UPS	-13.187
▁Jose	-13.187
▁Wish	-13.187
▁bow	-13.187
▁Mega	-13.1871
▁uk	-13.1871
▁Ber	-13.1871
▁Tool	-13.1873
▁rra	-13.1873
▁age	-13.1874
▁Edit	-13.1876
▁Tab	-13.1877
▁Dell	-13.188
▁dam	-13.1881
▁tone	-13.1887
▁ndo	-13.189
▁74	-13.1895
▁dep	-13.1896
אנרג	-13.1897
XL	-13.1899
CF	-13.1905
▁ream	-13.1911
▁Los	-13.1925
UN	-13.1928
▁#5	-13.194
▁כאיל	-13.1959
▁ines	-13.1959
▁ACC	-13.196
▁ori	-13.196
▁גסה	-13.1963
▁CR	-13.1965
MR	-13.1967
▁Exc	-13.1969
▁mos	-13.1981
▁97	-13.1986
▁111	-13.1993
amp	-13.1995
OOD	-13.1995
▁COM	-13.1997
▁וצאו	-13.2006
▁gne	-13.2016
▁oi	-13.2016
▁דולה	-13.203
▁Move	-13.2034
▁12%	-13.2035
▁rim	-13.2065
▁Sat	-13.2067
▁Za	-13.2071
▁SIM	-13.208
▁Neur	-13.2086
ough	-13.2094
▁iro	-13.2099
ABA	-13.21
unch	-13.2106
▁Ala	-13.2108
▁בעול	-13.2112
מזון	-13.2116
▁Came	-13.2117
▁uli	-13.2137
BM	-13.2144
▁rus	-13.215
▁Chan	-13.2152
▁Jam	-13.2155
▁Mel	-13.2174
▁vol	-13.2177
▁Shop	-13.2178
כרון	-13.2183
▁ינוא	-13.2187
▁got	-13.2196
▁JD	-13.2202
▁Garc	-13.2204
II	-13.2235
lock	-13.2238
▁goo	-13.2239
▁ita	-13.2251
▁GP	-13.2261
▁ודש	-13.2261
▁spi	-13.227
▁תפל	-13.2272
▁nc	-13.2276
▁Eva	-13.2279
AW	-13.2285
ipp	-13.2286
▁adv	-13.2287
▁see	-13.2294
ank	-13.2309
▁nci	-13.2315
78	-13.2317
69	-13.232
CU	-13.2322
ream	-13.2345
▁FM	-13.2363
▁Lev	-13.2371
AX	-13.238
▁Var	-13.2386
▁Os	-13.2393
XX	-13.2394
65	-13.2401
▁Twi	-13.2412
▁Mer	-13.242
▁wat	-13.2425
▁tia	-13.2426
han	-13.2427
ner	-13.2432
oon	-13.2449
TU	-13.2453
ENT	-13.2453
▁DNS	-13.2456
▁Flex	-13.2456
▁Hosp	-13.2456
▁Ocean	-13.2456
▁Own	-13.2456
▁Snow	-13.2456
▁spect	-13.2456
▁Vista	-13.2456
▁Grow	-13.2457
▁Earl	-13.2457
▁bury	-13.2457
▁Wolf	-13.2457
▁fish	-13.2457
▁Stock	-13.2457
▁iple	-13.2457
▁Audio	-13.2457
▁Yah	-13.2457
▁Steam	-13.2457
▁NLP	-13.2458
▁TOE	-13.2458
▁Flow	-13.2458
ón	-13.2458
▁ela	-13.2458
▁Gmail	-13.2458
▁MMR	-13.2458
▁rma	-13.2459
▁India	-13.246
▁Tax	-13.246
▁dios	-13.246
▁DJ	-13.2461
▁Mode	-13.2462
▁Rela	-13.2462
▁llo	-13.2465
▁self	-13.2466
▁ופאי	-13.2466
▁Rel	-13.2467
▁Ox	-13.2467
▁105	-13.247
▁---	-13.2474
▁ngu	-13.248
gree	-13.2487
▁אלקט	-13.2489
RR	-13.2493
▁eld	-13.2507
▁IG	-13.2512
▁low	-13.2513
ucc	-13.252
▁erc	-13.253
▁oa	-13.2537
road	-13.2537
▁fact	-13.2541
▁rh	-13.2542
TN	-13.2545
IVE	-13.2553
add	-13.2555
▁sim	-13.2563
▁Trea	-13.2563
TI	-13.2569
ody	-13.2579
HH	-13.2583
oid	-13.2584
▁mes	-13.2584
▁sys	-13.2601
פריק	-13.2605
▁IAS	-13.2614
▁MAC	-13.2624
▁Dan	-13.2627
▁dec	-13.2635
▁אִ	-13.2635
▁Inf	-13.2636
▁6%	-13.2637
▁Tur	-13.2647
▁Rac	-13.267
▁eas	-13.2676
46	-13.2681
OX	-13.269
▁eh	-13.2691
▁sus	-13.2696
▁Has	-13.2704
▁כניו	-13.2723
▁fit	-13.2725
▁lan	-13.2746
▁IB	-13.2747
▁wo	-13.2765
▁Lie	-13.278
▁יסב	-13.2787
TL	-13.2787
88	-13.2788
▁Amo	-13.2798
▁וזיא	-13.2826
ew	-13.2829
▁Thi	-13.2855
▁dat	-13.2856
tra	-13.2857
▁erv	-13.2861
ask	-13.2868
מקרי	-13.2871
ארץ	-13.2878
WA	-13.2887
each	-13.2909
▁Tor	-13.2928
73	-13.2935
▁fort	-13.295
▁UM	-13.296
FD	-13.2971
▁ong	-13.2992
▁fir	-13.2998
86	-13.3002
▁zo	-13.3003
aul	-13.3014
▁ffi	-13.3015
▁vor	-13.3023
=	-13.3042
»	-13.3042
▁Ren	-13.3048
▁ART	-13.3051
צדדי	-13.3054
ava	-13.306
α	-13.3081
ي	-13.3081
▁Away	-13.3081
▁Esca	-13.3081
▁HCG	-13.3081
▁type	-13.3081
▁(7)	-13.3081
▁לונד	-13.3081
▁medi	-13.3081
▁Lodge	-13.3081
▁mult	-13.3082
▁ע״י	-13.3082
▁Apar	-13.3082
▁Door	-13.3082
▁Shock	-13.3082
▁Evol	-13.3082
▁Champ	-13.3082
/2	-13.3083
▁	-13.3083
▁Basi	-13.3083
▁Coast	-13.3083
▁Prime	-13.3083
▁Maps	-13.3083
▁xic	-13.3084
▁Inde	-13.3084
▁force	-13.3084
▁Host	-13.3084
oop	-13.3085
▁lio	-13.3085
▁sure	-13.3086
▁Yes	-13.3086
▁show	-13.3087
▁ICC	-13.3087
▁now	-13.3088
▁SPA	-13.3088
▁bli	-13.3089
▁Pod	-13.3089
▁boy	-13.3089
▁◄	-13.309
▁Emi	-13.309
▁Shee	-13.3095
▁vs	-13.3098
▁mann	-13.3101
▁desi	-13.3101
▁103	-13.3105
▁Sla	-13.3111
▁EV	-13.3121
▁3.7	-13.3123
▁Gay	-13.3132
▁Jeru	-13.3134
ARC	-13.3146
▁pat	-13.3148
▁spa	-13.3155
▁meth	-13.3155
▁Twe	-13.3167
hri	-13.3169
▁Que	-13.3172
▁OK	-13.318
▁Vie	-13.3185
▁Appl	-13.3188
▁But	-13.3197
NN	-13.3207
▁imi	-13.3212
KO	-13.3214
חופש	-13.3224
▁Dol	-13.3233
VP	-13.3235
▁brea	-13.3244
▁Logi	-13.3252
▁mali	-13.3263
▁Wel	-13.3266
▁Bou	-13.3266
▁pur	-13.327
▁km	-13.3274
▁AG	-13.3274
ays	-13.3277
▁hal	-13.3284
IE	-13.3287
KK	-13.3291
▁Hype	-13.3298
▁dog	-13.3302
▁ESS	-13.331
▁למצו	-13.3311
▁cs	-13.3313
▁Dun	-13.3331
▁char	-13.3355
54	-13.3355
▁Cour	-13.3369
SM	-13.3377
▁Cov	-13.339
▁Brok	-13.3392
EST	-13.3393
▁Cel	-13.341
▁Rid	-13.3414
▁dic	-13.3432
96	-13.3438
▁fli	-13.3451
53	-13.3455
reen	-13.3456
▁Pia	-13.3457
▁Zo	-13.3465
▁sea	-13.348
▁nion	-13.3485
חודש	-13.3497
▁Oh	-13.3512
▁EST	-13.3521
ASC	-13.354
▁Carl	-13.354
▁gus	-13.3549
▁hen	-13.3553
IST	-13.357
▁cri	-13.3573
GR	-13.3581
▁pec	-13.3587
BG	-13.3598
rou	-13.3617
▁log	-13.362
▁poli	-13.3627
GI	-13.3628
▁rov	-13.3629
והה	-13.3645
94	-13.3657
▁denc	-13.3659
UE	-13.3672
▁sol	-13.368
▁BE	-13.3684
▁bia	-13.3704
▁eat	-13.3706
‬	-13.3709
In	-13.3738
of	-13.3738
▁eff	-13.374
▁know	-13.3746
ر	-13.3748
▁Sweet	-13.3748
▁[8]	-13.3748
agle	-13.3748
▁Emer	-13.3748
▁Plaza	-13.3748
▁Kiss	-13.3748
▁flow	-13.3748
▁feat	-13.3749
▁Chro	-13.3749
▁game	-13.3749
▁Shell	-13.3749
▁Camb	-13.3749
▁§	-13.3749
▁Fish	-13.375
▁Cool	-13.375
▁Roman	-13.375
▁flo	-13.3751
▁Lov	-13.3751
▁PCI	-13.3751
▁Jim	-13.3751
▁Oct	-13.3751
▁fla	-13.3752
▁Duo	-13.3753
▁Heav	-13.3753
▁Pix	-13.3753
▁SSD	-13.3754
▁none	-13.3755
▁Lost	-13.3756
▁vert	-13.3759
etch	-13.3759
▁Lou	-13.3759
▁החופ	-13.376
▁PTS	-13.376
▁call	-13.3761
▁bb	-13.3762
▁è	-13.3766
▁ier	-13.3767
▁path	-13.3768
▁ras	-13.3768
58	-13.3774
▁bes	-13.3776
▁3.0	-13.3779
ERS	-13.3803
59	-13.3804
▁Did	-13.3807
▁FL	-13.3809
▁51%	-13.3814
▁Arg	-13.383
▁DAY	-13.3831
MEA	-13.3832
▁Equi	-13.3837
▁Bett	-13.384
	-13.4462
à	-13.4462
`	-13.5192
ο	-13.5231
ֿ	-13.5231
−	-13.5231
►	-13.5231
“	-13.6025
τ	-13.6065
و	-13.6065
‹	-13.6065
%	-13.6295
#	-13.6934
λ	-13.6974
ú	-13.6974
ç	-13.6974
َ	-13.6974
ب	-13.6974
ʉ	-13.7974
κ	-13.7974
а	-13.7974
️	-13.7974
š	-13.7974
о	-13.9085
θ	-13.9085
ž	-13.9085
̄	-13.9085
ֳ	-13.9085
ع	-13.9085
ن	-13.9085
ł	-13.9085
°	-14.0295
å	-14.0335
ê	-14.0335
ñ	-14.0335
ς	-14.0335
⬅	-14.0335
ρ	-14.0335
è	-14.1723
^	-14.1724
ō	-14.1763
ι	-14.1763
π	-14.1763
▪	-14.1763
♪	-14.1763
и	-14.1764
н	-14.343
	-14.343
±	-14.343
É	-14.343
γ	-14.343
ν	-14.343
φ	-14.343
ِ	-14.343
ی	-14.343
😛	-14.343
~	-14.5391
—	-14.5391
ت	-14.543
¦	-14.543
ć	-14.543
ή	-14.543
β	-14.543
Р	-14.543
х	-14.543
س	-14.543
ه	-14.543
‍	-14.543
‚	-14.543
	-14.543
ã	-14.543
◄	-14.789
_	-14.7891
\	-14.7891
|	-14.7891
с	-14.793
в	-14.793
ح	-14.793
О	-14.793
د	-14.793
¢	-14.793
ë	-14.793
ā	-14.793
Ω	-14.793
σ	-14.793
ֽ	-14.793
أ	-14.793
ش	-14.793
ك	-14.793
∈	-14.793
	-14.793
æ	-14.793
ε	-14.793
ά	-14.793
׃	-15.1224
®	-15.1224
ذ	-15.1263
С	-15.1263
і	-15.1263
	-15.1263
	-15.1263
Ü	-15.1263
ø	-15.1263
ś	-15.1263
ɾ	-15.1263
η	-15.1263
Т	-15.1263
р	-15.1263
֥	-15.1263
ة	-15.1263
ق	-15.1263
ُ	-15.1263
ْ	-15.1263
٠	-15.1263
ल	-15.1263
―	-15.1263
⁡	-15.1263
□	-15.1263
★	-15.1263
⚡	-15.1263
✔	-15.1263
😂	-15.1263
‭	-15.6225
→	-15.6225
«	-15.6225
[	-15.6225
й	-15.6263
の	-15.6263
خ	-15.6263
ط	-15.6263
	-15.6263
	-15.6263
¿	-15.6263
Á	-15.6263
ò	-15.6263
ù	-15.6263
û	-15.6263
ý	-15.6263
ę	-15.6263
ī	-15.6263
İ	-15.6263
ő	-15.6263
œ	-15.6263
ţ	-15.6263
ū	-15.6263
ż	-15.6263
ɒ	-15.6263
ʻ	-15.6263
̈	-15.6263
έ	-15.6263
ί	-15.6263
Н	-15.6263
е	-15.6263
т	-15.6263
у	-15.6263
ф	-15.6263
ч	-15.6263
я	-15.6263
֖	-15.6263
װ	-15.6263
إ	-15.6263
ា	-15.6263
‰	-15.6263
↓	-15.6263
∘	-15.6263
∙	-15.6263
∽	-15.6263
≠	-15.6263
≥	-15.6263
▶	-15.6263
☆	-15.6263
❻	-15.6263
❽	-15.6263
⟩	-15.6263
⦁	-15.6263
、	-15.6263
ル	-15.6263
日	-15.6263
黑	-15.6263
	-15.6263
	-15.6263
📄	-15.6263
🔥	-15.6263
😁	-15.6263
😃	-15.6263
😍	-15.6263
😚	-15.6263
õ	-15.6264
ц	-15.6264
ー	-15.6264
	-16.6191
✰	-16.6192
♠	-16.6193
☺	-16.6194
☀	-16.6195
ा	-16.6196
п	-16.6197
д	-16.6198
К	-16.6199
В	-16.62
δ	-16.6201
Ε	-16.6202
ˌ	-16.6203
ň	-16.6204
ħ	-16.6205
ğ	-16.6206
Đ	-16.6207
Č	-16.6208
ă	-16.6209
ÿ	-16.621
ð	-16.6211
Ç	-16.6212
🤔	-16.6213
†	-16.6214
χ	-16.6215
υ	-16.6216
Σ	-16.6217
Ö	-16.6218
Î	-16.6219
	-16.622
😊	-16.6221
😀	-16.6222
♫	-16.6223
⋅	-16.6224
⁠	-16.6225
ج	-16.6226
§	-16.6226
	-16.6226
Θ	-16.6227
£	-16.6227
›	-16.6227
€	-16.6227
•	-16.6227
ş	-16.6228
Ł	-16.6229
č	-16.623
👑	-16.6231
√	-16.6232
‒	-16.6233
🙁	-16.6234
Δ	-16.6235
▲	-16.6236
⁄	-16.6237
￼	-16.6238
μ	-16.6239
	-16.624
ß	-16.6241
¬	-16.6242
‡	-16.6243
👈	-16.6244
∗	-16.6245
„	-16.6246
😉	-16.6247
▼	-16.6248
­	-16.6249
♦	-16.625
©	-16.6251
♥	-16.6252
↑	-16.6253
‪	-16.6254
₪	-16.6255
‫	-16.6256
🙂	-16.6257
←	-16.6258
	-16.6259
́	-16.626
@	-16.6261
<	-16.6262
{	-16.6263
Б	-16.6263
逆	-16.6263
Ø	-16.6263
Ÿ	-16.6263
疽	-16.6263
¡	-16.6263
È	-16.6263
Ë	-16.6263
Ó	-16.6263
Û	-16.6263
ï	-16.6263
ô	-16.6263
÷	-16.6263
Ġ	-16.6263
ŋ	-16.6263
Ś	-16.6263
Š	-16.6263
Ż	-16.6263
Ž	-16.6263
ư	-16.6263
ș	-16.6263
ț	-16.6263
ɓ	-16.6263
ə	-16.6263
ɛ	-16.6263
ɸ	-16.6263
ʊ	-16.6263
ʌ	-16.6263
ʼ	-16.6263
ˈ	-16.6263
ː	-16.6263
Α	-16.6263
Κ	-16.6263
Τ	-16.6263
Φ	-16.6263
Ψ	-16.6263
ω	-16.6263
Д	-16.6263
П	-16.6263
Ы	-16.6263
Я	-16.6263
г	-16.6263
ж	-16.6263
к	-16.6263
л	-16.6263
ш	-16.6263
ы	-16.6263
Ҫ	-16.6263
Ӑ	-16.6263
Ӗ	-16.6263
ӝ	-16.6263
Ӳ	-16.6263
Ե	-16.6263
Խ	-16.6263
Յ	-16.6263
ֺ	-16.6263
ׅ	-16.6263
ױ	-16.6263
آ	-16.6263
ئ	-16.6263
ث	-16.6263
ص	-16.6263
ى	-16.6263
١	-16.6263
٢	-16.6263
٨	-16.6263
٩	-16.6263
ٰ	-16.6263
ٹ	-16.6263
چ	-16.6263
ھ	-16.6263
ߟ	-16.6263
ߡ	-16.6263
ं	-16.6263
औ	-16.6263
ग	-16.6263
त	-16.6263
द	-16.6263
न	-16.6263
ब	-16.6263
ि	-16.6263
ी	-16.6263
े	-16.6263
्	-16.6263
ં	-16.6263
ગ	-16.6263
બ	-16.6263
લ	-16.6263
ો	-16.6263
༓	-16.6263
ខ	-16.6263
ភ	-16.6263
ម	-16.6263
រ	-16.6263
ស	-16.6263
ែ	-16.6263
្	-16.6263
ạ	-16.6263
ả	-16.6263
ἀ	-16.6263
ὥ	-16.6263
ῦ	-16.6263
‮	-16.6263
⁨	-16.6263
⁩	-16.6263
₹	-16.6263
⇒	-16.6263
∀	-16.6263
∂	-16.6263
∆	-16.6263
∞	-16.6263
≪	-16.6263
≿	-16.6263
⋯	-16.6263
─	-16.6263
▸	-16.6263
▾	-16.6263
◻	-16.6263
◼	-16.6263
☚	-16.6263
☝	-16.6263
♔	-16.6263
♣	-16.6263
✌	-16.6263
✯	-16.6263
❁	-16.6263
❓	-16.6263
❤	-16.6263
❷	-16.6263
❼	-16.6263
❾	-16.6263
➝	-16.6263
⟨	-16.6263
⟵	-16.6263
⭐	-16.6263
ア	-16.6263
ギ	-16.6263
シ	-16.6263
ス	-16.6263
ュ	-16.6263
㪗	-16.6263
东	-16.6263
主	-16.6263
京	-16.6263
介	-16.6263
以	-16.6263
会	-16.6263
元	-16.6263
列	-16.6263
反	-16.6263
古	-16.6263
名	-16.6263
士	-16.6263
大	-16.6263
学	-16.6263
川	-16.6263
工	-16.6263
幕	-16.6263
广	-16.6263
府	-16.6263
式	-16.6263
徳	-16.6263
慢	-16.6263
拾	-16.6263
旦	-16.6263
本	-16.6263
来	-16.6263
民	-16.6263
浪	-16.6263
海	-16.6263
点	-16.6263
社	-16.6263
穂	-16.6263
空	-16.6263
章	-16.6263
第	-16.6263
简	-16.6263
算	-16.6263
絵	-16.6263
義	-16.6263
聲	-16.6263
航	-16.6263
色	-16.6263
茶	-16.6263
術	-16.6263
襲	-16.6263
詞	-16.6263
赤	-16.6263
道	-16.6263
都	-16.6263
鈴	-16.6263
院	-16.6263
髓	-16.6263
黒	-16.6263
랙	-16.6263
블	-16.6263
엠	-16.6263
	-16.6263
	-16.6263
	-16.6263
	-16.6263
	-16.6263
	-16.6263
	-16.6263
	-16.6263
	-16.6263
	-16.6263
﴾	-16.6263
﴿	-16.6263
🇸	-16.6263
🇾	-16.6263
🌈	-16.6263
🌎	-16.6263
🍻	-16.6263
🎉	-16.6263
🎶	-16.6263
🏽	-16.6263
🐔	-16.6263
👉	-16.6263
💉	-16.6263
💔	-16.6263
💖	-16.6263
💜	-16.6263
💫	-16.6263
📁	-16.6263
😄	-16.6263
😅	-16.6263
😆	-16.6263
😈	-16.6263
😏	-16.6263
😐	-16.6263
😒	-16.6263
😜	-16.6263
😦	-16.6263
🙌	-16.6263
🚖	-16.6263
🚘	-16.6263
🤨	-16.6263
🦁	-16.6263
🧼	-16.6263
Ú	-16.6264
ό	-16.6264
ف	-16.6264
ṅ	-16.6264
·	-16.6264
Β	-16.6264
Χ	-16.6264
Ս	-16.6264
コ	-16.6264
ド	-16.6264
三	-16.6264
九	-16.6264
株	-16.6264
理	-16.6264
蒙	-16.6264
