[UNK]	0
[CLS]	1
[SEP]	2
[PAD]	3
[MASK]	4
!	5
"	6
#	7
$	8
%	9
&	10
'	11
(	12
)	13
*	14
+	15
,	16
-	17
.	18
/	19
0	20
1	21
2	22
3	23
4	24
5	25
6	26
7	27
8	28
9	29
:	30
;	31
<	32
=	33
>	34
?	35
@	36
[	37
\	38
]	39
^	40
_	41
`	42
a	43
b	44
c	45
d	46
e	47
f	48
g	49
h	50
i	51
j	52
k	53
l	54
m	55
n	56
o	57
p	58
q	59
r	60
s	61
t	62
u	63
v	64
w	65
x	66
y	67
z	68
{	69
|	70
}	71
~	72
	73
	74
	75
	76
	77
	78
	79
	80
	81
	82
	83
¡	84
¢	85
£	86
¦	87
§	88
©	89
«	90
¬	91
­	92
®	93
°	94
±	95
¶	96
·	97
»	98
¿	99
×	100
ß	101
à	102
á	103
â	104
ã	105
ä	106
å	107
æ	108
ç	109
è	110
é	111
ê	112
ë	113
í	114
î	115
ï	116
ð	117
ñ	118
ò	119
ó	120
ô	121
õ	122
ö	123
÷	124
ø	125
ù	126
ú	127
û	128
ü	129
ý	130
ÿ	131
ā	132
ă	133
ć	134
č	135
đ	136
ę	137
ğ	138
ġ	139
ħ	140
ī	141
ł	142
ň	143
ŋ	144
ō	145
ő	146
œ	147
ś	148
ş	149
š	150
ţ	151
ū	152
ż	153
ž	154
ư	155
ș	156
ț	157
ɒ	158
ɓ	159
ə	160
ɛ	161
ɸ	162
ɾ	163
ʉ	164
ʊ	165
ʌ	166
ʻ	167
ʼ	168
ˈ	169
ˌ	170
ː	171
́	172
̄	173
̇	174
̈	175
ά	176
έ	177
ή	178
ί	179
α	180
β	181
γ	182
δ	183
ε	184
η	185
θ	186
ι	187
κ	188
λ	189
μ	190
ν	191
ο	192
π	193
ρ	194
ς	195
σ	196
τ	197
υ	198
φ	199
χ	200
ψ	201
ω	202
ό	203
а	204
б	205
в	206
г	207
д	208
е	209
ж	210
и	211
й	212
к	213
л	214
н	215
о	216
п	217
р	218
с	219
т	220
у	221
ф	222
х	223
ц	224
ч	225
ш	226
ы	227
я	228
і	229
ҫ	230
ӑ	231
ӗ	232
ӝ	233
ӳ	234
ե	235
խ	236
յ	237
ս	238
֖	239
֥	240
ְ	241
ֱ	242
ֲ	243
ֳ	244
ִ	245
ֵ	246
ֶ	247
ַ	248
ָ	249
ֹ	250
ֺ	251
ֻ	252
ּ	253
ֽ	254
־	255
ֿ	256
ׁ	257
ׂ	258
׃	259
ׅ	260
א	261
ב	262
ג	263
ד	264
ה	265
ו	266
ז	267
ח	268
ט	269
י	270
ך	271
כ	272
ל	273
ם	274
מ	275
ן	276
נ	277
ס	278
ע	279
ף	280
פ	281
ץ	282
צ	283
ק	284
ר	285
ש	286
ת	287
װ	288
ױ	289
׳	290
״	291
آ	292
أ	293
إ	294
ئ	295
ا	296
ب	297
ة	298
ت	299
ث	300
ج	301
ح	302
خ	303
د	304
ذ	305
ر	306
س	307
ش	308
ص	309
ط	310
ع	311
ف	312
ق	313
ك	314
ل	315
م	316
ن	317
ه	318
و	319
ى	320
ي	321
َ	322
ُ	323
ِ	324
ْ	325
٠	326
١	327
٢	328
٨	329
٩	330
ٰ	331
ٹ	332
چ	333
ھ	334
ی	335
ߟ	336
ߡ	337
ं	338
औ	339
ग	340
त	341
द	342
न	343
ब	344
ल	345
ा	346
ि	347
ी	348
े	349
्	350
ં	351
ગ	352
બ	353
લ	354
ો	355
༓	356
ខ	357
ភ	358
ម	359
រ	360
ស	361
ា	362
ែ	363
្	364
ṅ	365
ạ	366
ả	367
ἀ	368
ὥ	369
ῦ	370
​	371
‌	372
‍	373
‎	374
‏	375
‐	376
‒	377
–	378
—	379
―	380
‘	381
’	382
‚	383
“	384
”	385
„	386
†	387
‡	388
•	389
‪	390
‫	391
‬	392
‭	393
‮	394
‰	395
′	396
‹	397
›	398
⁄	399
⁠	400
⁡	401
⁨	402
⁩	403
₪	404
€	405
₹	406
←	407
↑	408
→	409
↓	410
↩	411
⇒	412
∀	413
∂	414
∆	415
∈	416
−	417
∗	418
∘	419
∙	420
√	421
∞	422
∽	423
≠	424
≥	425
≪	426
≿	427
⋅	428
⋯	429
─	430
■	431
□	432
▪	433
▲	434
▶	435
▸	436
►	437
▼	438
▾	439
◄	440
●	441
◻	442
◼	443
☀	444
★	445
☆	446
☚	447
☝	448
☺	449
♔	450
♠	451
♣	452
♥	453
♦	454
♪	455
♫	456
⚡	457
✌	458
✔	459
✯	460
✰	461
❁	462
❓	463
❤	464
❷	465
❻	466
❼	467
❽	468
❾	469
➝	470
⟨	471
⟩	472
⟵	473
⦁	474
⬅	475
⭐	476
、	477
の	478
ア	479
ギ	480
コ	481
シ	482
ス	483
ド	484
ュ	485
ル	486
ー	487
㪗	488
三	489
东	490
主	491
九	492
京	493
介	494
以	495
会	496
元	497
列	498
反	499
古	500
名	501
士	502
大	503
学	504
川	505
工	506
幕	507
广	508
府	509
式	510
徳	511
慢	512
拾	513
日	514
旦	515
本	516
来	517
株	518
民	519
浪	520
海	521
点	522
理	523
疽	524
社	525
穂	526
空	527
章	528
第	529
简	530
算	531
絵	532
義	533
聲	534
航	535
色	536
茶	537
蒙	538
術	539
襲	540
詞	541
赤	542
逆	543
道	544
都	545
鈴	546
院	547
髓	548
黑	549
黒	550
랙	551
블	552
엠	553
	554
	555
	556
	557
	558
	559
	560
	561
	562
	563
	564
	565
	566
	567
	568
﴾	569
﴿	570
️	571
﻿	572
￼	573
�	574
🇸	575
🇾	576
🌈	577
🌎	578
🍻	579
🎉	580
🎶	581
🏽	582
🐔	583
👈	584
👉	585
👑	586
💉	587
💔	588
💖	589
💜	590
💫	591
📁	592
📄	593
🔥	594
😀	595
😁	596
😂	597
😃	598
😄	599
😅	600
😆	601
😈	602
😉	603
😊	604
😍	605
😏	606
😐	607
😒	608
😚	609
😛	610
😜	611
😦	612
🙁	613
🙂	614
🙌	615
🚖	616
🚘	617
🤔	618
🤨	619
🦁	620
🧼	621
##ע	622
##ו	623
##ר	624
##ל	625
##א	626
##ד	627
##ש	628
##ת	629
##י	630
##h	631
##e	632
##c	633
##k	634
##i	635
##n	636
##ב	637
##ח	638
##צ	639
##ה	640
##נ	641
##ס	642
##ך	643
##a	644
##t	645
##r	646
##s	647
##ט	648
##ק	649
##ג	650
##כ	651
##u	652
##j	653
##ן	654
##מ	655
##פ	656
##p	657
##o	658
##l	659
##y	660
##ם	661
##m	662
##ַ	663
##ֹ	664
##ּ	665
##ְ	666
##b	667
##v	668
##ז	669
##d	670
##9	671
##3	672
##5	673
##0	674
##ִ	675
##w	676
##ף	677
##ָ	678
##ץ	679
##4	680
##z	681
##g	682
##2	683
##6	684
##f	685
##ֶ	686
##ü	687
##1	688
##x	689
##ֲ	690
##و	691
##ا	692
##ل	693
##ف	694
##ق	695
##ر	696
##8	697
##ׁ	698
##ֵ	699
##q	700
##”	701
##"	702
##[	703
##.	704
##à	705
##7	706
##/	707
##:	708
##$	709
##ê	710
##ׂ	711
##а	712
##ш	713
##*	714
##+	715
##)	716
##%	717
##é	718
##ž	719
##―	720
##?	721
##״	722
##â	723
##ં	724
##ગ	725
##લ	726
##ો	727
##‏	728
##‎	729
##=	730
##<	731
##!	732
##_	733
##ن	734
##}	735
##^	736
##°	737
##ֱ	738
##,	739
##م	740
##ه	741
##ي	742
##ة	743
##ç	744
##ã	745
##ֻ	746
##ó	747
##>	748
##]	749
##'	750
##-	751
##{	752
##ß	753
##(	754
##ä	755
##🇾	756
##ِ	757
##َ	758
##“	759
##​	760
##í	761
##θ	762
##ο	763
##ς	764
##ö	765
##ú	766
##á	767
##😂	768
##|	769
##і	770
##т	771
##к	772
##р	773
##ы	774
##о	775
##ø	776
##æ	777
##å	778
##û	779
##ñ	780
##ʻ	781
##;	782
##色	783
##列	784
##→	785
##خ	786
##ب	787
##’	788
##ɓ	789
##î	790
##📁	791
##α	792
##ῦ	793
##ρ	794
##è	795
##ő	796
##~	797
##λ	798
##�	799
##•	800
##ֽ	801
##\	802
##‬	803
##🐔	804
##ά	805
##τ	806
##ʉ	807
##‭	808
##★	809
##€	810
##ë	811
##ߡ	812
##‍	813
##工	814
##学	815
##院	816
##»	817
##־	818
##♪	819
##式	820
##会	821
##社	822
##日	823
##本	824
##航	825
##空	826
##č	827
##š	828
##名	829
##‘	830
##′	831
##¢	832
##ֳ	833
##ş	834
##ý	835
##&	836
##–	837
##и	838
##ж	839
##н	840
##й	841
##ױ	842
##„	843
##ħ	844
##́	845
##п	846
##е	847
##ھ	848
##ٹ	849
###	850
##ł	851
##ň	852
##ص	853
##ع	854
##ι	855
##έ	856
##ν	857
##υ	858
##	859
##δ	860
##ك	861
##♥	862
##у	863
##с	864
##я	865
##聲	866
##٢	867
##٠	868
##ش	869
##	870
##س	871
##б	872
##ω	873
##ś	874
##ֿ	875
##­	876
##ï	877
##ō	878
##œ	879
##ت	880
##٩	881
##ɒ	882
##د	883
##@	884
##ф	885
##ā	886
##֖	887
##←	888
##`	889
##г	890
##л	891
##	892
##ă	893
##‪	894
##₪	895
##ạ	896
##ئ	897
##民	898
##主	899
##義	900
##֥	901
##ε	902
##π	903
##κ	904
##ί	905
##ɾ	906
##ć	907
##茶	908
##	909
##õ	910
##😚	911
##«	912
##ч	913
##ى	914
##—	915
##ֺ	916
##‫	917
##д	918
##ц	919
##в	920
##ʼ	921
##σ	922
##β	923
##ή	924
##׳	925
##х	926
##ӝ	927
##յ	928
##խ	929
##ե	930
##®	931
##ð	932
##🚖	933
##ー	934
##ド	935
##ギ	936
##ア	937
##ス	938
##γ	939
##£	940
##블	941
##랙	942
##ả	943
##₹	944
##े	945
##त	946
##ा	947
##̇	948
##ɛ	949
##ˌ	950
##ʊ	951
##ː	952
##ُ	953
##η	954
##⁠	955
##ា	956
##ស	957
##ខ	958
##្	959
##ម	960
##ែ	961
##រ	962
##💫	963
##🎶	964
##🌈	965
##☀	966
##װ	967
##ğ	968
##▼	969
##ߟ	970
##ط	971
##🤔	972
##ं	973
##ग	974
##ल	975
##🏽	976
##ż	977
##👑	978
##ح	979
##🦁	980
##ی	981
##›	982
##逆	983
##の	984
##ル	985
##シ	986
##ュ	987
##ٰ	988
##ذ	989
##‌	990
##ę	991
##ū	992
##都	993
##元	994
##ț	995
##ô	996
##￼	997
##φ	998
##ư	999
##ْ	1000
##§	1001
##㪗	1002
##😜	1003
##چ	1004
##↩	1005
##府	1006
##😍	1007
##😁	1008
##ׅ	1009
##ṅ	1010
##古	1011
##襲	1012
##来	1013
##絵	1014
##詞	1015
##ò	1016
##东	1017
##أ	1018
##ʌ	1019
##ŋ	1020
##ə	1021
##⚡	1022
##ș	1023
##ि	1024
##्	1025
##ी	1026
##►	1027
##◄	1028
##章	1029
##算	1030
##術	1031
##ţ	1032
##﻿	1033
##ث	1034
##ج	1035
##ī	1036
##	1037
##🤨	1038
##∗	1039
##介	1040
##‡	1041
##ים	1042
##ות	1043
של	1044
##ור	1045
##ני	1046
##ול	1047
את	1048
##ית	1049
##נו	1050
המ	1051
##וד	1052
לה	1053
לא	1054
##יה	1055
##בר	1056
##יו	1057
##יר	1058
##יל	1059
##וב	1060
##וא	1061
הא	1062
על	1063
##נה	1064
##רי	1065
##די	1066
##יות	1067
##רו	1068
##מו	1069
##ין	1070
##שר	1071
##תי	1072
הי	1073
##ומ	1074
##ון	1075
##לי	1076
מה	1077
##נים	1078
##מה	1079
##ופ	1080
זה	1081
##כל	1082
##יש	1083
##יב	1084
הש	1085
בא	1086
##יד	1087
במ	1088
##נות	1089
אח	1090
הוא	1091
הח	1092
שה	1093
כל	1094
##ום	1095
או	1096
##רא	1097
הע	1098
##יק	1099
##לה	1100
למ	1101
##וק	1102
הת	1103
##וש	1104
מש	1105
##וח	1106
##יים	1107
##וצ	1108
מא	1109
##רים	1110
##יע	1111
##וע	1112
##וס	1113
וה	1114
##בל	1115
בע	1116
אי	1117
##פר	1118
שא	1119
##וג	1120
עם	1121
לע	1122
##כול	1123
##מש	1124
##לא	1125
##יא	1126
##זה	1127
הב	1128
הס	1129
מס	1130
אני	1131
##רב	1132
##לו	1133
בש	1134
##שים	1135
מת	1136
יש	1137
אות	1138
##רה	1139
הפ	1140
וא	1141
הק	1142
##יט	1143
##ותר	1144
##רג	1145
לש	1146
##נת	1147
##יס	1148
##שה	1149
##רכ	1150
##יפ	1151
מע	1152
היא	1153
הג	1154
##מת	1155
הה	1156
לפ	1157
אנ	1158
יותר	1159
##וכ	1160
##שו	1161
גם	1162
כי	1163
".	1164
יכול	1165
##מי	1166
בה	1167
##מים	1168
לב	1169
##נט	1170
היה	1171
מח	1172
אם	1173
##יי	1174
הצ	1175
##ולם	1176
לח	1177
##את	1178
##דים	1179
בת	1180
##נס	1181
הד	1182
##וו	1183
מק	1184
##רת	1185
לי	1186
##כם	1187
אמ	1188
##נית	1189
הם	1190
הכ	1191
##עות	1192
##אל	1193
##מן	1194
אל	1195
##רח	1196
בח	1197
לק	1198
שב	1199
##שות	1200
אבל	1201
##כו	1202
##שת	1203
כא	1204
##שי	1205
##מצ	1206
##לק	1207
וב	1208
20	1209
##חר	1210
##ינו	1211
##בים	1212
בס	1213
הנ	1214
הז	1215
##דר	1216
היו	1217
מב	1218
מצ	1219
##עת	1220
##לים	1221
##מות	1222
##יח	1223
##דם	1224
רק	1225
כדי	1226
##עה	1227
##רט	1228
##כה	1229
להיות	1230
##ירות	1231
##חת	1232
##דה	1233
אתה	1234
##ורה	1235
##יצ	1236
ומ	1237
שמ	1238
ול	1239
##סט	1240
##פת	1241
##חנו	1242
אפ	1243
אחד	1244
עב	1245
הט	1246
##וי	1247
##וף	1248
##אים	1249
##יון	1250
לת	1251
מכ	1252
##חה	1253
##ינ	1254
פע	1255
##..	1256
##ברים	1257
##חק	1258
##ירה	1259
כמו	1260
##אי	1261
כך	1262
##יותר	1263
עצ	1264
##אה	1265
##רות	1266
##וז	1267
##וט	1268
צרי	1269
להת	1270
##ילה	1271
##וך	1272
##קה	1273
19	1274
##ורים	1275
##חות	1276
מי	1277
##ונ	1278
##שב	1279
##כת	1280
##יתה	1281
שלה	1282
##חד	1283
בק	1284
##שראל	1285
לג	1286
זו	1287
מד	1288
##ודה	1289
##לב	1290
##פי	1291
##פק	1292
##עים	1293
לד	1294
##כן	1295
##אות	1296
##דול	1297
##שוב	1298
יה	1299
אז	1300
ביותר	1301
בכל	1302
עד	1303
הרא	1304
##כים	1305
שלך	1306
##בי	1307
##יתי	1308
המש	1309
טוב	1310
הר	1311
ידי	1312
##פה	1313
בר	1314
##ילו	1315
##לת	1316
בב	1317
##רך	1318
##לות	1319
##יג	1320
##וני	1321
זאת	1322
##ישה	1323
אנחנו	1324
##כות	1325
האם	1326
##ונים	1327
בג	1328
לס	1329
...	1330
וע	1331
שנ	1332
לו	1333
##לט	1334
מג	1335
##er	1336
##מיד	1337
הזה	1338
##יני	1339
אותו	1340
רוצ	1341
רא	1342
##ומר	1343
בד	1344
בפ	1345
שלי	1346
ממ	1347
##תה	1348
בין	1349
##וה	1350
אין	1351
שלנו	1352
##בה	1353
##סק	1354
##יום	1355
כמה	1356
##לח	1357
שע	1358
##מוד	1359
בכ	1360
##דות	1361
מדי	1362
לצ	1363
מפ	1364
הרב	1365
##שא	1366
מאוד	1367
##נג	1368
חד	1369
##זור	1370
##בות	1371
##00	1372
##בע	1373
##רק	1374
עבור	1375
##ופן	1376
##ראה	1377
לך	1378
חי	1379
201	1380
בט	1381
##ניות	1382
##in	1383
##בת	1384
##פים	1385
##פט	1386
לפני	1387
אנשים	1388
##ולי	1389
דבר	1390
לנו	1391
##ירים	1392
##רון	1393
##רוב	1394
##ניה	1395
##ברה	1396
בי	1397
אך	1398
לאחר	1399
##נק	1400
##רצ	1401
",	1402
שלו	1403
##ולה	1404
##on	1405
אנו	1406
לכ	1407
##ילים	1408
##פות	1409
לעשות	1410
##כש	1411
צריך	1412
עוד	1413
בצ	1414
ישראל	1415
##ימו	1416
##מד	1417
##יהם	1418
האח	1419
בני	1420
##יכ	1421
שהוא	1422
כבר	1423
איך	1424
##ונה	1425
##לך	1426
במק	1427
כמ	1428
מט	1429
הכל	1430
יוד	1431
אמר	1432
ולא	1433
##יבה	1434
##ושה	1435
אשר	1436
הרבה	1437
כאשר	1438
המק	1439
##טים	1440
נוס	1441
##ופה	1442
להג	1443
).	1444
שלא	1445
##an	1446
מז	1447
##של	1448
##ימ	1449
בו	1450
##חים	1451
חבר	1452
שלהם	1453
##ובר	1454
אתם	1455
אלה	1456
ממש	1457
##וכל	1458
##ורת	1459
שני	1460
אחר	1461
בנו	1462
נית	1463
גדול	1464
באופן	1465
שם	1466
אלו	1467
##מר	1468
יצ	1469
##נד	1470
וכ	1471
##רס	1472
היום	1473
אדם	1474
חלק	1475
##חי	1476
##יקה	1477
יל	1478
במה	1479
##קר	1480
רוצה	1481
##שמ	1482
יד	1483
שנים	1484
##סף	1485
תק	1486
##פשר	1487
##טר	1488
##ילות	1489
##דת	1490
אחת	1491
##יך	1492
##אר	1493
הבר	1494
כן	1495
כול	1496
נע	1497
##נשים	1498
##ar	1499
##וץ	1500
."	1501
##צב	1502
##ורי	1503
##ורך	1504
##ווה	1505
##תח	1506
##כון	1507
למע	1508
##es	1509
##en	1510
##קים	1511
אב	1512
##טי	1513
##or	1514
##קות	1515
בל	1516
##פור	1517
זמן	1518
העולם	1519
##יעה	1520
##ולוג	1521
##ולים	1522
##צע	1523
##הו	1524
לכל	1525
##at	1526
המח	1527
##וות	1528
הל	1529
##גר	1530
##שון	1531
אחרי	1532
לרא	1533
שיש	1534
##פס	1535
יכולים	1536
אפשר	1537
יום	1538
##תם	1539
עדי	1540
להם	1541
##al	1542
מיל	1543
שת	1544
אינ	1545
##צה	1546
בית	1547
המע	1548
המס	1549
תה	1550
הייתה	1551
שק	1552
##או	1553
##ידע	1554
תח	1555
##ידה	1556
200	1557
וח	1558
כש	1559
אותם	1560
##וחות	1561
איש	1562
##ורות	1563
##ריק	1564
יהיה	1565
במש	1566
##מית	1567
רג	1568
למה	1569
חוש	1570
קט	1571
להב	1572
פעם	1573
בז	1574
##יז	1575
##תר	1576
##כשיו	1577
ולה	1578
מספר	1579
##דו	1580
שכ	1581
נג	1582
##סים	1583
##ינים	1584
נת	1585
##נצ	1586
##ואה	1587
שאני	1588
הנו	1589
##רץ	1590
אחרים	1591
תמיד	1592
אף	1593
כאן	1594
ניתן	1595
שלכם	1596
##בוצ	1597
##יבות	1598
##רכת	1599
כת	1600
##שוט	1601
הראשו	1602
גב	1603
##לית	1604
בשנת	1605
וג	1606
רצ	1607
##פל	1608
הרו	1609
##תיים	1610
לט	1611
חשוב	1612
שהם	1613
##ומי	1614
th	1615
##רכז	1616
מוצ	1617
רבים	1618
##צר	1619
יח	1620
יע	1621
##כנ	1622
שנה	1623
##בוד	1624
אותה	1625
##ובה	1626
##פו	1627
##ומים	1628
נק	1629
חז	1630
המת	1631
##ניים	1632
##יוחד	1633
##דרך	1634
אלא	1635
לל	1636
ות	1637
##חו	1638
##דינה	1639
בעולם	1640
##בוע	1641
##וריה	1642
משהו	1643
האמ	1644
##ומה	1645
##פש	1646
התק	1647
משת	1648
איר	1649
נמצ	1650
הפר	1651
באמצ	1652
נה	1653
ללא	1654
##סת	1655
##צת	1656
##ימוש	1657
##ic	1658
##הים	1659
##דש	1660
עדיין	1661
הגדול	1662
עוב	1663
##ניין	1664
##ונות	1665
וש	1666
##סי	1667
##קט	1668
פי	1669
##לם	1670
##מין	1671
נש	1672
##ירת	1673
פשוט	1674
##רונות	1675
עכשיו	1676
לכם	1677
##עי	1678
ברי	1679
דרך	1680
##יאות	1681
##ודות	1682
##עם	1683
##מא	1684
שח	1685
##צל	1686
##it	1687
לראות	1688
באמת	1689
אומר	1690
##חיל	1691
##לל	1692
##יבור	1693
##בודה	1694
##ביר	1695
##שית	1696
##בד	1697
##יפור	1698
##ינה	1699
##אן	1700
##רום	1701
הספר	1702
##מעות	1703
להשת	1704
הראשון	1705
##ומות	1706
במהלך	1707
אולי	1708
הן	1709
##רד	1710
##יסט	1711
אפילו	1712
),	1713
חיים	1714
האדם	1715
##ודים	1716
התי	1717
##טה	1718
##רגיש	1719
10	1720
נח	1721
the	1722
##גים	1723
הזמן	1724
אותי	1725
שאתה	1726
##ביל	1727
כשה	1728
עשו	1729
##רמ	1730
##מונה	1731
להפ	1732
היל	1733
##ינט	1734
##עו	1735
אוה	1736
##קד	1737
עצמ	1738
ואת	1739
הול	1740
שזה	1741
משפ	1742
##ושים	1743
בדרך	1744
בבית	1745
אה	1746
החיים	1747
##בור	1748
##צד	1749
פת	1750
השני	1751
תע	1752
חייב	1753
##ליך	1754
##ציה	1755
נפ	1756
##בא	1757
##ולות	1758
##צי	1759
באמצעות	1760
חוק	1761
##st	1762
##בק	1763
##עט	1764
המא	1765
##ודי	1766
##יפול	1767
מוכ	1768
##צוע	1769
אד	1770
##עד	1771
##le	1772
יודע	1773
##צמ	1774
##צים	1775
מקום	1776
##גל	1777
לקבל	1778
##גה	1779
הרג	1780
##ייה	1781
##חון	1782
רוב	1783
##לסט	1784
אומ	1785
היתה	1786
קור	1787
##רבות	1788
תוכ	1789
שי	1790
אס	1791
הופ	1792
##זו	1793
כלל	1794
גבוה	1795
אינו	1796
?"	1797
הייתי	1798
דברים	1799
18	1800
##ou	1801
רח	1802
##רנט	1803
##ותו	1804
רע	1805
##מוק	1806
שבו	1807
מאז	1808
מלא	1809
##תו	1810
מוד	1811
##וליט	1812
##סה	1813
נראה	1814
שוב	1815
רוצים	1816
להצ	1817
המט	1818
##בו	1819
##יקר	1820
שהיא	1821
קשה	1822
למצ	1823
ית	1824
##ואר	1825
##יטה	1826
##צור	1827
##ריות	1828
מן	1829
כד	1830
קרוב	1831
ספר	1832
לז	1833
##ודש	1834
##om	1835
##פע	1836
##רכים	1837
צריכים	1838
סי	1839
התע	1840
כיצד	1841
##ריך	1842
##נחנו	1843
היח	1844
סט	1845
##ביב	1846
מוס	1847
##פיק	1848
הראשונה	1849
במקום	1850
ונ	1851
##גע	1852
##פון	1853
בלי	1854
##יעים	1855
##רצות	1856
מל	1857
##יוק	1858
##מור	1859
סוג	1860
##ישהו	1861
אלי	1862
אלוהים	1863
בן	1864
ארו	1865
##ובן	1866
יכולה	1867
התח	1868
##re	1869
במשך	1870
לדבר	1871
האלה	1872
די	1873
נא	1874
רב	1875
חדש	1876
להע	1877
##ליים	1878
בלב	1879
##בח	1880
כמעט	1881
כפי	1882
ניס	1883
השת	1884
ילדים	1885
גור	1886
הכי	1887
פחות	1888
ספ	1889
שבה	1890
##כנס	1891
בתח	1892
##ינלא	1893
##בט	1894
לפע	1895
החברה	1896
הרי	1897
נס	1898
הדבר	1899
נגד	1900
##יפה	1901
מוש	1902
יוצ	1903
משמעות	1904
##זרח	1905
##יוון	1906
מסוג	1907
חשב	1908
שג	1909
אור	1910
ההת	1911
מנה	1912
##is	1913
מכל	1914
שתי	1915
לר	1916
##ברס	1917
##el	1918
אית	1919
##קו	1920
##כי	1921
##ופי	1922
העיר	1923
צע	1924
עשר	1925
##דל	1926
##וקים	1927
מידע	1928
##עתי	1929
##פקיד	1930
##נוע	1931
מהם	1932
הברית	1933
##זר	1934
##ינוי	1935
##מנות	1936
תש	1937
##ion	1938
עסק	1939
הלא	1940
חש	1941
תג	1942
##כנולוג	1943
נכון	1944
קוד	1945
במס	1946
בהת	1947
דול	1948
פני	1949
##חור	1950
עצמו	1951
##לחמה	1952
15	1953
##יעו	1954
##ריים	1955
##יית	1956
לכן	1957
##ליט	1958
בתוך	1959
##קת	1960
המדינה	1961
##ברת	1962
עבודה	1963
להש	1964
עושה	1965
שום	1966
הזו	1967
##וקר	1968
##מון	1969
מיליון	1970
##יניים	1971
פרו	1972
בשביל	1973
אותך	1974
למרות	1975
##ועים	1976
הדי	1977
רכ	1978
##נון	1979
##ומת	1980
כולם	1981
##וסט	1982
##ro	1983
רבות	1984
תא	1985
##קס	1986
בדיוק	1987
מוע	1988
וס	1989
##ing	1990
##et	1991
##נם	1992
##כר	1993
הטוב	1994
בלתי	1995
##ומית	1996
לדעת	1997
כולל	1998
ביום	1999
##וצאות	2000
בזמן	2001
למצוא	2002
האיר	2003
000	2004
הני	2005
מתוך	2006
הממש	2007
##חלט	2008
##מנו	2009
יחד	2010
במו	2011
בגלל	2012
##ריקה	2013
שונים	2014
וזה	2015
מהמ	2016
##יוני	2017
199	2018
##ווח	2019
וגם	2020
ביט	2021
##רגע	2022
in	2023
משחק	2024
חל	2025
12	2026
ואני	2027
ביק	2028
וק	2029
אחרת	2030
במיוחד	2031
חס	2032
לפי	2033
המצ	2034
החל	2035
##נן	2036
##גו	2037
##אם	2038
##ed	2039
##רגון	2040
הזאת	2041
להשתמש	2042
כה	2043
##וחר	2044
##וצאה	2045
##ליה	2046
##גת	2047
לכך	2048
יק	2049
לגבי	2050
קל	2051
והוא	2052
תהיה	2053
השנה	2054
##ac	2055
בעלי	2056
##יף	2057
במח	2058
מור	2059
ברח	2060
מר	2061
##ורק	2062
לנ	2063
פרט	2064
##קש	2065
מתח	2066
##לוט	2067
הלי	2068
שש	2069
##אלי	2070
##כויות	2071
הור	2072
יודעים	2073
בטוח	2074
העבודה	2075
מתי	2076
##תיד	2077
בצורה	2078
הפע	2079
##ינטרנט	2080
קצת	2081
קבוצ	2082
מנת	2083
חושב	2084
##רונה	2085
##קל	2086
##ואים	2087
##גות	2088
הנה	2089
##גש	2090
לפחות	2091
##il	2092
##ol	2093
משתמש	2094
למש	2095
הגב	2096
כזה	2097
מוז	2098
עליו	2099
הוד	2100
להח	2101
מתק	2102
##פא	2103
במע	2104
מספיק	2105
of	2106
##וקה	2107
בהם	2108
שירות	2109
להכ	2110
##מל	2111
##צות	2112
##פתח	2113
ומה	2114
סרט	2115
מדוע	2116
##סם	2117
##חקר	2118
הבע	2119
כיום	2120
חברת	2121
##טרה	2122
הדברים	2123
האמריק	2124
שהת	2125
##טח	2126
בשל	2127
##דינות	2128
מאשר	2129
##זק	2130
##למיד	2131
##דע	2132
הדרך	2133
##ותה	2134
##שימה	2135
##משיך	2136
קיב	2137
מערכת	2138
##יחס	2139
אינט	2140
פר	2141
##am	2142
טובה	2143
ראש	2144
##אלה	2145
##כונה	2146
##ויות	2147
שאנחנו	2148
דולר	2149
##יבים	2150
תוכל	2151
##as	2152
##תים	2153
המשפט	2154
נשים	2155
גר	2156
החד	2157
שבוע	2158
ברא	2159
##ולד	2160
תוך	2161
##יקט	2162
##כור	2163
עומ	2164
חופ	2165
אותנו	2166
להגיע	2167
##זרה	2168
שעות	2169
בלבד	2170
##פחה	2171
##מוך	2172
##ליח	2173
להבין	2174
מופ	2175
##ער	2176
הבית	2177
בישראל	2178
מישהו	2179
האיש	2180
ימים	2181
##ודשים	2182
##יאה	2183
אוכל	2184
ואז	2185
קיי	2186
##מק	2187
החוק	2188
ופ	2189
30	2190
להס	2191
לזה	2192
11	2193
שאתם	2194
##אב	2195
##ch	2196
כסף	2197
אינם	2198
ארב	2199
קשר	2200
מוג	2201
פרס	2202
שיע	2203
##oo	2204
##משך	2205
##שרד	2206
והת	2207
##ובות	2208
##רפת	2209
נמצא	2210
##מינים	2211
מסוי	2212
מכן	2213
##נסה	2214
וד	2215
שלוש	2216
הביט	2217
זהו	2218
##רכות	2219
אחרות	2220
##מפ	2221
ומת	2222
an	2223
##טיח	2224
כמובן	2225
שימוש	2226
החלט	2227
בעוד	2228
למו	2229
בנ	2230
##ושר	2231
הארץ	2232
בתי	2233
עושים	2234
מיו	2235
הנש	2236
בנוסף	2237
##רגיה	2238
##ינג	2239
למעשה	2240
נד	2241
##ברות	2242
אינה	2243
מקבל	2244
לעולם	2245
##שם	2246
קול	2247
##יין	2248
סוף	2249
##קב	2250
הבא	2251
הללו	2252
##מבר	2253
לתת	2254
פרי	2255
אופ	2256
ומש	2257
לקחת	2258
מצב	2259
##ימה	2260
שר	2261
##גור	2262
##יטת	2263
טבע	2264
מעל	2265
ללמוד	2266
##שובה	2267
כנ	2268
קרי	2269
העוב	2270
##וצר	2271
הסרט	2272
הכול	2273
לעבוד	2274
מזה	2275
##רוש	2276
##מיים	2277
ועל	2278
הממשלה	2279
האנשים	2280
17	2281
##ואי	2282
חמ	2283
הלב	2284
##מונות	2285
שהיה	2286
##ינם	2287
##ודת	2288
והמ	2289
פור	2290
##וניברס	2291
##יץ	2292
המב	2293
##רבית	2294
##ירוש	2295
גיל	2296
קר	2297
##נע	2298
הו	2299
מול	2300
מדובר	2301
כג	2302
בעיקר	2303
תחת	2304
##יונות	2305
##ופו	2306
##ינוך	2307
אפש	2308
מרגיש	2309
16	2310
נות	2311
##יעות	2312
קש	2313
תכ	2314
פה	2315
נוסף	2316
נוש	2317
##iv	2318
וי	2319
למח	2320
לעזור	2321
##יבי	2322
##שתי	2323
##יתוח	2324
האנו	2325
בדי	2326
ילד	2327
פעמים	2328
אולם	2329
ברו	2330
למשל	2331
קודם	2332
כח	2333
שצ	2334
##ופים	2335
בעצ	2336
המה	2337
כוח	2338
##נתי	2339
##כס	2340
13	2341
מוק	2342
מסת	2343
##רבה	2344
לומר	2345
המשחק	2346
אג	2347
##ילת	2348
##סטר	2349
##ונג	2350
st	2351
##ad	2352
הילדים	2353
##דרה	2354
חיו	2355
##זיה	2356
##ידים	2357
ביצ	2358
השנים	2359
גדולה	2360
לבד	2361
##ay	2362
רוח	2363
חיי	2364
##ודית	2365
מומ	2366
דקות	2367
ברור	2368
##ברו	2369
האחרון	2370
האד	2371
##ומיים	2372
יהיו	2373
רואה	2374
##יסטוריה	2375
ליצור	2376
##ent	2377
##ילדים	2378
##וסר	2379
והא	2380
##נטים	2381
ארה	2382
פעולה	2383
שנות	2384
##פרים	2385
נשא	2386
דו	2387
##ילי	2388
אזרח	2389
##רכה	2390
##כתב	2391
##לתי	2392
מעט	2393
מחדש	2394
מקצוע	2395
שמו	2396
בכלל	2397
אצל	2398
שכל	2399
שנת	2400
השפ	2401
הקט	2402
זק	2403
השל	2404
הרכ	2405
ככל	2406
לפת	2407
##מס	2408
צריכה	2409
##צרים	2410
בעל	2411
איזה	2412
##מנים	2413
קרובות	2414
מרכז	2415
##כונות	2416
##על	2417
14	2418
הפלסט	2419
ספק	2420
##ig	2421
חדשים	2422
תת	2423
##ow	2424
##כלה	2425
נוספים	2426
רפ	2427
'.	2428
##וביל	2429
התא	2430
##וחים	2431
הגוף	2432
##זון	2433
##ot	2434
בכך	2435
##ירי	2436
בפני	2437
בתחום	2438
##ינית	2439
שלושה	2440
##שונה	2441
נב	2442
לבית	2443
כעת	2444
חודשים	2445
שאין	2446
##שיג	2447
אוהב	2448
##חרות	2449
זוכ	2450
שיח	2451
##זיק	2452
כגון	2453
##רוא	2454
מחקר	2455
ויש	2456
##בית	2457
##נהל	2458
##פורט	2459
מים	2460
##קום	2461
גל	2462
מדינות	2463
##id	2464
לאח	2465
צורך	2466
יג	2467
שפ	2468
שונות	2469
##קרים	2470
כאלה	2471
פוליט	2472
בבר	2473
יב	2474
##רבים	2475
השלי	2476
תרו	2477
##דק	2478
##שהו	2479
מרו	2480
עש	2481
100	2482
טיפ	2483
בתק	2484
סביב	2485
האמת	2486
##יסה	2487
מיי	2488
##וגמה	2489
##ורג	2490
וכל	2491
האי	2492
##מיכה	2493
##דמנות	2494
המוד	2495
באתר	2496
עובד	2497
באותו	2498
טר	2499
החדש	2500
הבינלא	2501
##פרי	2502
משום	2503
ברחבי	2504
כשא	2505
##ובת	2506
בסיס	2507
בעבר	2508
##ינויים	2509
25	2510
##וויר	2511
מיוחד	2512
המוע	2513
##וסים	2514
כב	2515
מלח	2516
ללכת	2517
שמת	2518
##מוקרט	2519
קטן	2520
קורה	2521
##טל	2522
##וקט	2523
ומו	2524
המל	2525
הבח	2526
הגיע	2527
198	2528
מוח	2529
לאורך	2530
##וציא	2531
לפעמים	2532
לעתים	2533
שומ	2534
##דור	2535
מיד	2536
חדשה	2537
נור	2538
##סון	2539
העסק	2540
בשנה	2541
שונה	2542
##us	2543
##ביבה	2544
##מע	2545
אחוז	2546
##ויים	2547
שט	2548
המג	2549
התוכ	2550
##לווי	2551
מפני	2552
בפר	2553
עצמי	2554
שמש	2555
##ווים	2556
עיר	2557
והח	2558
ומע	2559
##ופת	2560
##בוצה	2561
##למידים	2562
ידע	2563
##ואו	2564
הרע	2565
##אית	2566
פס	2567
לנס	2568
”.	2569
##גרת	2570
העל	2571
לשמור	2572
ולכן	2573
##זם	2574
לתק	2575
קרא	2576
##בול	2577
##ניס	2578
##ורר	2579
תנו	2580
##שתמש	2581
תלו	2582
ניצ	2583
##מרי	2584
וט	2585
נצ	2586
כדור	2587
##ועל	2588
לכת	2589
יורק	2590
##קי	2591
##בלת	2592
שיו	2593
ארצות	2594
לקרוא	2595
להשיג	2596
הפס	2597
להפוך	2598
##סוף	2599
באיר	2600
תפ	2601
יית	2602
##שרה	2603
מחשב	2604
שאלה	2605
##ישים	2606
אש	2607
מהא	2608
בקרב	2609
מבחי	2610
עלי	2611
194	2612
ממנו	2613
הרח	2614
##ut	2615
יס	2616
לשנות	2617
לוק	2618
##קבות	2619
לבר	2620
להא	2621
##ולט	2622
שמע	2623
##וון	2624
מעבר	2625
אמריק	2626
כנראה	2627
50	2628
197	2629
##לוטין	2630
נכנס	2631
##רטיס	2632
##ישאר	2633
##יכון	2634
תודה	2635
לחלוטין	2636
מקור	2637
##ation	2638
כלומר	2639
משפט	2640
רש	2641
חברות	2642
הקה	2643
הרצ	2644
##ec	2645
##ירו	2646
כתב	2647
##נח	2648
המצב	2649
##כנולוגיה	2650
שנו	2651
המד	2652
לעצ	2653
לבין	2654
לבצע	2655
באזור	2656
##זל	2657
אמרה	2658
לחשוב	2659
טובים	2660
שיה	2661
##רכו	2662
בגיל	2663
עובדים	2664
##יצוב	2665
##ag	2666
לחיות	2667
דור	2668
##ur	2669
פעילות	2670
##טון	2671
המרכז	2672
מאפשר	2673
פלסט	2674
בחיים	2675
להתק	2676
פג	2677
##ישות	2678
בעיר	2679
שאנו	2680
##רפ	2681
בסוף	2682
במקרה	2683
##הי	2684
זכויות	2685
##כב	2686
##ישי	2687
איפה	2688
##רע	2689
##כולת	2690
מאד	2691
בשם	2692
##וסיף	2693
כאילו	2694
##חית	2695
##פתחות	2696
הולך	2697
פל	2698
האל	2699
##יכו	2700
הציבור	2701
שינוי	2702
תיא	2703
מגיע	2704
קלי	2705
##מצא	2706
דא	2707
##זרת	2708
##כולם	2709
אליו	2710
היר	2711
##ציות	2712
פא	2713
##מודד	2714
##סיס	2715
##טב	2716
יא	2717
יוכל	2718
קו	2719
אתכם	2720
##טו	2721
השנייה	2722
מעולם	2723
המשפחה	2724
##שרת	2725
##רויות	2726
196	2727
הנוכ	2728
חוז	2729
מני	2730
רואים	2731
##מט	2732
עשוי	2733
##תף	2734
כס	2735
מאח	2736
משנה	2737
והיא	2738
בעיות	2739
ההש	2740
תוכנית	2741
עלינו	2742
ליד	2743
מנו	2744
תב	2745
ובע	2746
תצ	2747
ממו	2748
##ובל	2749
##מודים	2750
האחרונות	2751
שית	2752
אכ	2753
לרו	2754
רבה	2755
וז	2756
פול	2757
טיפול	2758
דיו	2759
##ir	2760
##ראות	2761
גבוהה	2762
##סית	2763
ואם	2764
המכ	2765
##דרת	2766
למס	2767
הילד	2768
בידי	2769
##מח	2770
היש	2771
השאלה	2772
##וצה	2773
הקוד	2774
תפקיד	2775
##גן	2776
##לוויזיה	2777
##לול	2778
יהודים	2779
##הליך	2780
##שורת	2781
##יקים	2782
##ייס	2783
##נאי	2784
ידוע	2785
',	2786
##os	2787
חדשות	2788
##יניה	2789
אוב	2790
המידע	2791
הסכ	2792
##יצור	2793
נמ	2794
##יתים	2795
אומרים	2796
##ניק	2797
##ופר	2798
and	2799
##לפון	2800
##נתונים	2801
מבין	2802
##רמניה	2803
##נאים	2804
משק	2805
מספק	2806
מעור	2807
מצד	2808
##חן	2809
והם	2810
##ומרים	2811
שהא	2812
נוספת	2813
להסת	2814
לפר	2815
עבר	2816
##שרים	2817
##דון	2818
היסט	2819
בינלא	2820
חברים	2821
##וחה	2822
הטבע	2823
!"	2824
משל	2825
הפעם	2826
ביח	2827
בעת	2828
מדינה	2829
40	2830
##וים	2831
##צו	2832
##קור	2833
להתחיל	2834
שחק	2835
##נר	2836
##ראים	2837
כלי	2838
שס	2839
##יפות	2840
לחזור	2841
עצמה	2842
סיפור	2843
##יהן	2844
##יפוש	2845
בעיה	2846
מות	2847
מתחיל	2848
הבעיה	2849
מוב	2850
##um	2851
עליהם	2852
##סטרט	2853
שמח	2854
אהבה	2855
פרק	2856
מהר	2857
לעצמ	2858
הגדולה	2859
בריאות	2860
חייבים	2861
##ter	2862
##נטי	2863
דומה	2864
עצמם	2865
##ונית	2866
באי	2867
העיק	2868
##em	2869
##im	2870
בנושא	2871
למען	2872
ככה	2873
##נתה	2874
המחקר	2875
לגרום	2876
עולם	2877
אומרת	2878
##מנויות	2879
##נגד	2880
משתמשים	2881
הבל	2882
##כיר	2883
בסופו	2884
com	2885
נשמ	2886
והש	2887
הכנס	2888
מרג	2889
עוז	2890
מאוחר	2891
##יטי	2892
ניו	2893
עמ	2894
##יבית	2895
למד	2896
הצל	2897
באותה	2898
להמשיך	2899
בסדר	2900
##בוק	2901
וכן	2902
קרה	2903
רוס	2904
מחוץ	2905
ועוד	2906
המקום	2907
שנית	2908
##יצוני	2909
ליי	2910
##סטרטג	2911
##זב	2912
##לוהים	2913
לבחור	2914
##וכן	2915
הקש	2916
בהחלט	2917
והע	2918
בארה	2919
בהתאם	2920
מנ	2921
מאת	2922
מכו	2923
בעקבות	2924
טרא	2925
##דן	2926
##ודנטים	2927
אנג	2928
יפה	2929
הקרוב	2930
##יכנס	2931
##יוע	2932
הצד	2933
##נצח	2934
העצ	2935
העם	2936
חול	2937
העול	2938
הצע	2939
נתונים	2940
##בלות	2941
##לקוחות	2942
לתוך	2943
הרפ	2944
וצ	2945
##שלום	2946
מאות	2947
ההג	2948
גברים	2949
המשי	2950
##לון	2951
המוס	2952
שוא	2953
##הוב	2954
##יאון	2955
לשחק	2956
ולע	2957
תוכלו	2958
התג	2959
מדע	2960
היינו	2961
##יינו	2962
הסיבה	2963
##כלי	2964
##ראת	2965
הגבוה	2966
מהת	2967
##ופול	2968
##ידות	2969
בזה	2970
אתר	2971
##רבי	2972
ראשון	2973
24	2974
לגמרי	2975
טע	2976
סיפ	2977
##ווי	2978
##אט	2979
השבוע	2980
##נגלית	2981
תהליך	2982
עק	2983
##ופות	2984
##ריז	2985
אנשי	2986
##רחק	2987
##יחוד	2988
לאנשים	2989
לשל	2990
לספק	2991
##ap	2992
קה	2993
הפרו	2994
נוע	2995
כע	2996
שות	2997
##וקא	2998
קיים	2999
האינטרנט	3000
לעומת	3001
שלום	3002
##ילד	3003
ייתכן	3004
בארץ	3005
הקד	3006
##שראלי	3007
כלפי	3008
חת	3009
זוהי	3010
ch	3011
##פג	3012
שהח	3013
רגע	3014
שוק	3015
##ובע	3016
אותן	3017
הנס	3018
היית	3019
##גרים	3020
במא	3021
החדשה	3022
המלחמה	3023
##רחב	3024
הוכ	3025
הית	3026
##מך	3027
##ולת	3028
איכות	3029
ומא	3030
השק	3031
ארג	3032
כדאי	3033
המוצ	3034
אמא	3035
מנהיג	3036
##oc	3037
##ודל	3038
ניה	3039
תס	3040
##un	3041
,"	3042
זכ	3043
ערך	3044
##שע	3045
קצר	3046
ומס	3047
לצאת	3048
המוז	3049
האחרונה	3050
##סיה	3051
לשם	3052
נמצאים	3053
##זע	3054
##יאל	3055
הרוח	3056
כפ	3057
מתע	3058
מיליא	3059
להביא	3060
היהודים	3061
נעשה	3062
המחשב	3063
לרכ	3064
בשבוע	3065
משפחת	3066
##מיות	3067
בתוכ	3068
##וגרים	3069
##ורית	3070
##פסיק	3071
##נדר	3072
##רחש	3073
השימוש	3074
##ולוגיה	3075
חוו	3076
##טית	3077
המוש	3078
שיכול	3079
##בלו	3080
##ייע	3081
##מץ	3082
להז	3083
מהח	3084
למנוע	3085
##פשרות	3086
##צלחה	3087
תרבות	3088
המאה	3089
להרו	3090
ישנם	3091
אלף	3092
להתמודד	3093
ועד	3094
on	3095
##כני	3096
האתר	3097
אוט	3098
ובר	3099
ממה	3100
##th	3101
מהע	3102
כולנו	3103
##רם	3104
האו	3105
##נהגות	3106
ארגון	3107
כוחות	3108
צי	3109
הנשיא	3110
להגיד	3111
הפת	3112
אק	3113
''	3114
##יגה	3115
חברה	3116
להק	3117
##יבת	3118
##ראו	3119
משא	3120
לאכול	3121
מתחת	3122
מנסה	3123
##ידו	3124
הבאה	3125
כמות	3126
##חתי	3127
##וטים	3128
##ניהם	3129
.[	3130
##שבון	3131
צבא	3132
##אס	3133
עליך	3134
בשנים	3135
הבריאות	3136
אצ	3137
עשה	3138
##נוק	3139
להתע	3140
##פרד	3141
סימ	3142
##כנית	3143
לפג	3144
היטב	3145
21	3146
ממשלת	3147
ייש	3148
עניין	3149
##כלית	3150
שנע	3151
אר	3152
חמש	3153
..	3154
זוג	3155
##ליק	3156
##ers	3157
מלחמת	3158
ברגע	3159
שהיו	3160
##יקום	3161
באינטרנט	3162
עמו	3163
##נרגיה	3164
מבוס	3165
יודעת	3166
משפחה	3167
##eb	3168
##...	3169
אישי	3170
ני	3171
##אום	3172
המוח	3173
בשלב	3174
מזון	3175
##סל	3176
##ia	3177
יכולות	3178
מכך	3179
שהג	3180
בנק	3181
##רש	3182
רופ	3183
##הבה	3184
הסיפור	3185
##ess	3186
##וטנצ	3187
תומ	3188
מדינת	3189
שול	3190
##נסים	3191
סוכ	3192
דעת	3193
חוסר	3194
עסקים	3195
בינו	3196
##פן	3197
מוט	3198
195	3199
to	3200
טוע	3201
והה	3202
מצא	3203
לקנות	3204
אמרתי	3205
אישה	3206
##רוך	3207
שאלות	3208
##וכלוס	3209
גישה	3210
מדה	3211
##ושבים	3212
השם	3213
חושבים	3214
לכתוב	3215
זמ	3216
עור	3217
##רוע	3218
קצ	3219
תוצאות	3220
##לוו	3221
2015	3222
##ברי	3223
ושל	3224
ליה	3225
##רתי	3226
##רונים	3227
משות	3228
במצב	3229
לעיתים	3230
הביתה	3231
רשת	3232
##סיק	3233
אכן	3234
הצבא	3235
קבוע	3236
##יחות	3237
##מוע	3238
היד	3239
צד	3240
להרגיש	3241
הסת	3242
מסוימים	3243
נט	3244
תז	3245
משרד	3246
סג	3247
הישראל	3248
השר	3249
היחידה	3250
האור	3251
למעלה	3252
##מול	3253
##ימות	3254
שהע	3255
##ראש	3256
מכיוון	3257
לדוגמה	3258
##לוק	3259
##בורה	3260
##בן	3261
במהירות	3262
הראשונים	3263
##ri	3264
##מיה	3265
הפוליט	3266
אבא	3267
##בתי	3268
שהמ	3269
סכ	3270
re	3271
##מינו	3272
בואו	3273
חודש	3274
עשויים	3275
##פוס	3276
##רצה	3277
היחיד	3278
הנתונים	3279
##ציפ	3280
החש	3281
##ושת	3282
בעצם	3283
תופ	3284
אוני	3285
אירופה	3286
דרכים	3287
##ובים	3288
האופ	3289
חק	3290
צוות	3291
האס	3292
שבע	3293
##זים	3294
לעבור	3295
מדיניות	3296
##טא	3297
##יטות	3298
הזדמנות	3299
##ורף	3300
הקור	3301
בפעם	3302
ביחד	3303
##ra	3304
והפ	3305
בתור	3306
##וונת	3307
לוח	3308
לבנות	3309
2014	3310
צפ	3311
ציל	3312
מהס	3313
הפך	3314
ובא	3315
##פטמבר	3316
אוהבים	3317
כרטיס	3318
##רקע	3319
60	3320
מונ	3321
##קשה	3322
##דיניות	3323
##כלו	3324
עולה	3325
מאמין	3326
זכות	3327
##מתי	3328
דין	3329
##סר	3330
].	3331
להישאר	3332
לחץ	3333
הביטחון	3334
נדר	3335
##ונו	3336
##ce	3337
##נייה	3338
עליה	3339
מסוגל	3340
##טות	3341
להיכנס	3342
במדינה	3343
שהי	3344
מקווה	3345
אמית	3346
מדברים	3347
לראשונה	3348
האוויר	3349
##נהיג	3350
נחשב	3351
טראמפ	3352
המדינות	3353
שמא	3354
##ודעה	3355
אמריקה	3356
רומ	3357
##ובי	3358
מדבר	3359
סיבה	3360
התעופה	3361
##וריות	3362
נשיא	3363
al	3364
##פילו	3365
##שויות	3366
##and	3367
תמונות	3368
##פיה	3369
##עיף	3370
גורם	3371
ניהול	3372
צפו	3373
מחפ	3374
הצב	3375
ההיסטוריה	3376
יצא	3377
##סום	3378
ההז	3379
גדולים	3380
##צמבר	3381
##יונים	3382
לקוחות	3383
ערב	3384
להגן	3385
##רושלים	3386
חופש	3387
שיהיה	3388
סיכו	3389
נושא	3390
ירושלים	3391
מיליארד	3392
22	3393
שד	3394
##סות	3395
מוצרים	3396
sh	3397
בארצות	3398
הדין	3399
דווקא	3400
דם	3401
פנים	3402
פוע	3403
##ניח	3404
החלק	3405
לילדים	3406
מקרה	3407
##טרף	3408
##יניהם	3409
כוכ	3410
##מנה	3411
##op	3412
אמיתי	3413
ובה	3414
איראן	3415
אוניברס	3416
נמו	3417
##נדה	3418
הטיפול	3419
המטרה	3420
אפשרי	3421
##בלים	3422
אמרו	3423
מיני	3424
ירי	3425
לשלם	3426
קטנה	3427
##ab	3428
המים	3429
שיר	3430
##חדים	3431
לאור	3432
##ייך	3433
ניסיון	3434
##לנד	3435
##ניינים	3436
מסוים	3437
##שיית	3438
מבלי	3439
##מדו	3440
בנוגע	3441
##ניסה	3442
מהה	3443
עומד	3444
##ליחה	3445
ובכל	3446
##יפים	3447
לנסות	3448
הוק	3449
שאת	3450
מערכות	3451
צרפת	3452
.”	3453
כתוצאה	3454
ויותר	3455
##שייה	3456
יהודי	3457
ואח	3458
כשאת	3459
ציבור	3460
##סור	3461
העתי	3462
מאמינים	3463
סין	3464
עול	3465
##).	3466
וכך	3467
שיל	3468
שווה	3469
##ראית	3470
##יטים	3471
משמעותי	3472
במסגרת	3473
הקרי	3474
עו	3475
ראה	3476
מהש	3477
##ראי	3478
סמ	3479
##ידת	3480
השירות	3481
היהודי	3482
אלפי	3483
תקופה	3484
##ul	3485
##רוני	3486
אוו	3487
ומח	3488
ראיתי	3489
ור	3490
ההחלט	3491
ולח	3492
קיבל	3493
כות	3494
##לין	3495
##בלה	3496
מכש	3497
אילו	3498
##ומו	3499
חזק	3500
שבועות	3501
##דיר	3502
##זיר	3503
##זרו	3504
אישית	3505
חג	3506
##רית	3507
לישראל	3508
ממשי	3509
הבאים	3510
מבט	3511
you	3512
##ומיות	3513
כללי	3514
הסט	3515
##ישון	3516
הבנק	3517
##נש	3518
לשמוע	3519
##פני	3520
##יחה	3521
##צית	3522
בסרט	3523
השתמש	3524
הכסף	3525
##ew	3526
##ורם	3527
ארבעה	3528
טי	3529
הנא	3530
2013	3531
עצמך	3532
ניק	3533
##ביא	3534
##מם	3535
##ליטים	3536
לשע	3537
אנרגיה	3538
##ליות	3539
היכולת	3540
##יעי	3541
##יינים	3542
הטובה	3543
אפשרות	3544
איתו	3545
ולק	3546
בחודש	3547
נוספות	3548
העובדה	3549
מלחמה	3550
אמת	3551
##פיע	3552
##ורט	3553
##ודד	3554
החולים	3555
2017	3556
רכב	3557
סק	3558
קטנים	3559
הוצ	3560
ההס	3561
##שתו	3562
לאחרונה	3563
##20	3564
החשוב	3565
יוצא	3566
##שבים	3567
המערכת	3568
שבהם	3569
for	3570
קבוצה	3571
לנק	3572
##לץ	3573
##נויות	3574
המלא	3575
באירופה	3576
##נועה	3577
##ופט	3578
##חם	3579
##ופית	3580
##igh	3581
הים	3582
תיק	3583
##גוד	3584
##יכרון	3585
מוכן	3586
שצריך	3587
##ופש	3588
השחק	3589
והג	3590
הקול	3591
2012	3592
צב	3593
ראו	3594
כיוון	3595
צל	3596
צבע	3597
שרו	3598
תרג	3599
##יקטים	3600
ואף	3601
##תחלה	3602
עשרה	3603
##מנט	3604
##ישור	3605
הצה	3606
אודות	3607
2018	3608
23	3609
ורק	3610
##נדי	3611
מלאה	3612
לפעול	3613
מאחורי	3614
שינויים	3615
האזרח	3616
מחיר	3617
מעוני	3618
2010	3619
רחב	3620
הלו	3621
##if	3622
מהי	3623
כלום	3624
מסע	3625
##מינה	3626
אוהבת	3627
מהו	3628
בהן	3629
2011	3630
חשמ	3631
##טן	3632
לשא	3633
ארבע	3634
לספר	3635
מפל	3636
ספרים	3637
אט	3638
ורג	3639
שז	3640
##ידן	3641
האחרונים	3642
שגם	3643
איב	3644
ויר	3645
לשים	3646
לצד	3647
האלו	3648
תמיכה	3649
בבוקר	3650
הבינלאומי	3651
##רוק	3652
השמ	3653
כזו	3654
לרוב	3655
##ov	3656
לעמוד	3657
##יטר	3658
גופ	3659
לשפר	3660
##ts	3661
להימ	3662
התשובה	3663
##וגה	3664
##ירושלים	3665
ומי	3666
##כח	3667
הקבוצה	3668
התיכון	3669
פיל	3670
##ותם	3671
המדע	3672
##ומדים	3673
##ליף	3674
התפ	3675
הגיעו	3676
80	3677
דת	3678
##פרט	3679
מעניין	3680
##ציב	3681
תלוי	3682
##וגר	3683
מחו	3684
הנפ	3685
##ניהול	3686
!!	3687
הופך	3688
טבעי	3689
קד	3690
##פכה	3691
הסכם	3692
חושבת	3693
##זוב	3694
חזרה	3695
de	3696
##עון	3697
##יתנו	3698
##פריל	3699
##ity	3700
גבר	3701
בשוק	3702
##ילויות	3703
פתרון	3704
##ינת	3705
##מדים	3706
לימוד	3707
יצירת	3708
##מאס	3709
מלב	3710
##ָּ	3711
והס	3712
##רכי	3713
##וניברסיטה	3714
התוכנית	3715
##אק	3716
##ורמים	3717
הארגון	3718
ממנה	3719
מקבלים	3720
##דבר	3721
חוץ	3722
עתי	3723
##ומט	3724
השפעה	3725
נוצ	3726
##און	3727
##og	3728
שבא	3729
הטר	3730
ביד	3731
ולי	3732
##דיו	3733
##est	3734
קבוצות	3735
חיל	3736
מילים	3737
##ריכה	3738
##ושב	3739
הבסיס	3740
35	3741
חולים	3742
ספורט	3743
##כולוג	3744
מבחינה	3745
##נא	3746
##זית	3747
##ניסט	3748
האג	3749
##דרות	3750
193	3751
מגיעים	3752
חשבתי	3753
לאדם	3754
##כוון	3755
מוקדם	3756
ביו	3757
חצי	3758
הלילה	3759
תשומת	3760
הוג	3761
##דיה	3762
להיר	3763
משמש	3764
הקשר	3765
ברצ	3766
שעל	3767
טכנולוג	3768
##ורו	3769
##דיים	3770
##לונות	3771
לגלות	3772
נקודות	3773
חלב	3774
שעה	3775
עלול	3776
העבר	3777
למקום	3778
##רגל	3779
הגרמ	3780
בקלות	3781
##ind	3782
##בנה	3783
##צא	3784
במידה	3785
בעתיד	3786
##וגל	3787
עובר	3788
באנגלית	3789
##ושי	3790
##חרר	3791
המשטרה	3792
הקהילה	3793
##כתי	3794
##ורד	3795
הפג	3796
לבע	3797
תכנית	3798
שניתן	3799
השלישי	3800
ומצ	3801
המלך	3802
##רוץ	3803
##יבל	3804
למי	3805
בעצמ	3806
שאל	3807
##לקת	3808
לבדוק	3809
##מוצע	3810
ייע	3811
שיק	3812
תמונה	3813
בעזרת	3814
ההורים	3815
לפתח	3816
יכולת	3817
##ine	3818
##תק	3819
##קרא	3820
##פיים	3821
ואפילו	3822
##ודו	3823
##יבוש	3824
ההבד	3825
נותן	3826
תרופות	3827
נולד	3828
פט	3829
היצ	3830
פיז	3831
##פוך	3832
##יימים	3833
##שתה	3834
ולאחר	3835
כולו	3836
שכן	3837
##סס	3838
##ברואר	3839
במרכז	3840
תמ	3841
##יתונ	3842
##תייחס	3843
צעירים	3844
נשאר	3845
רוסיה	3846
הישראלי	3847
##וונה	3848
להבטיח	3849
עזרה	3850
האינט	3851
##ידאו	3852
במצ	3853
שאינם	3854
מתא	3855
הרש	3856
בוח	3857
נוכ	3858
המון	3859
עבד	3860
מגוון	3861
70	3862
בערך	3863
##אלות	3864
הגדולים	3865
שאפשר	3866
##חילת	3867
ארוך	3868
זיה	3869
ניש	3870
שיצ	3871
תל	3872
##ויח	3873
להור	3874
##ליטה	3875
מהן	3876
##av	3877
un	3878
הכוח	3879
2016	3880
סב	3881
היכן	3882
מנהל	3883
בינואר	3884
האת	3885
העתיד	3886
2008	3887
יקרה	3888
בראש	3889
##סקה	3890
השמש	3891
מזרח	3892
2009	3893
מיק	3894
500	3895
להיפ	3896
בחלק	3897
חברי	3898
אינטרנט	3899
הוש	3900
הדרו	3901
##לקט	3902
המודר	3903
לשעבר	3904
וו	3905
יתר	3906
##מדה	3907
מאיתנו	3908
בעיני	3909
לקראת	3910
דה	3911
המשתמש	3912
##מונים	3913
##ישת	3914
התרו	3915
ימי	3916
כרגע	3917
הכב	3918
##לטון	3919
הטובים	3920
דוג	3921
##פלגה	3922
להעביר	3923
##ורא	3924
##ידול	3925
##שימת	3926
הנכון	3927
חייו	3928
##תחיל	3929
נמצאת	3930
##מויות	3931
##יבורי	3932
##וצים	3933
##ועה	3934
##פרס	3935
##יפורים	3936
##יצה	3937
קיימת	3938
##מיחה	3939
שאם	3940
ואין	3941
איננו	3942
תוכניות	3943
דג	3944
##טרך	3945
##יוס	3946
רחוק	3947
##למים	3948
##ct	3949
מתאים	3950
##נגדות	3951
חסר	3952
26	3953
מין	3954
##ומן	3955
במאי	3956
בחברה	3957
למט	3958
סיפר	3959
רווח	3960
##דיל	3961
##שק	3962
##מכים	3963
##ופל	3964
הפני	3965
##ריט	3966
##וסף	3967
שאנשים	3968
הכת	3969
##וניברסיטת	3970
הרכב	3971
27	3972
כבוד	3973
תינו	3974
##רישות	3975
הרעיון	3976
28	3977
חומ	3978
עוצ	3979
פיתוח	3980
התב	3981
goo	3982
ייח	3983
ענק	3984
מסוגלים	3985
##כוה	3986
בינ	3987
צעד	3988
משנת	3989
הגל	3990
אלקט	3991
##מדת	3992
יחסים	3993
ar	3994
pro	3995
מראש	3996
##ak	3997
הדת	3998
##וונים	3999
##יננס	4000
אחריות	4001
פק	4002
##מלי	4003
##od	4004
##זורים	4005
משה	4006
##סיכולוג	4007
העליון	4008
כיש	4009
##ברתי	4010
חוקי	4011
רמת	4012
המוצר	4013
אמור	4014
אזור	4015
היחסים	4016
גורמים	4017
משחקים	4018
##דיין	4019
אירוע	4020
התינוק	4021
עת	4022
##ריון	4023
##מקד	4024
##ודאי	4025
השכ	4026
לסייע	4027
עשרות	4028
האירופי	4029
90	4030
בלו	4031
לנצח	4032
שמות	4033
אליה	4034
##שינו	4035
בניו	4036
מחפשים	4037
נז	4038
##ווא	4039
ברמה	4040
##וקטובר	4041
בשר	4042
מרי	4043
פיר	4044
##ועדה	4045
ברשת	4046
בצד	4047
בלילה	4048
2007	4049
##יור	4050
##פיל	4051
##יונ	4052
החי	4053
בתחילת	4054
האחרים	4055
נהרג	4056
כשהוא	4057
##וזה	4058
ולש	4059
##נצל	4060
בוקר	4061
גא	4062
##שתת	4063
##ard	4064
הנושא	4065
is	4066
גרמניה	4067
מוות	4068
##כך	4069
המילה	4070
הלאומי	4071
אסטרטג	4072
ון	4073
חינוך	4074
לשימוש	4075
לבקר	4076
מאושר	4077
ביוני	4078
שלב	4079
רציתי	4080
נקרא	4081
לזכור	4082
איט	4083
ראשית	4084
גד	4085
##צעים	4086
##טחה	4087
ואנחנו	4088
##ive	4089
החמ	4090
החינוך	4091
הפל	4092
##יסות	4093
##נטית	4094
מכת	4095
מכיר	4096
רצון	4097
פחד	4098
שמה	4099
##וין	4100
##ְּ	4101
האזור	4102
הצורך	4103
בספטמבר	4104
להכיר	4105
העובדים	4106
##יתון	4107
##יסבוק	4108
##מוקרטיה	4109
מראה	4110
הערב	4111
ובמ	4112
מוכנים	4113
צעיר	4114
חמישה	4115
סביר	4116
##רן	4117
שהה	4118
בשנות	4119
מחקרים	4120
האדמה	4121
לתי	4122
סיי	4123
קא	4124
הינו	4125
##ימון	4126
לילה	4127
##יבו	4128
##וסטר	4129
בהק	4130
בדצמבר	4131
לשאול	4132
גוף	4133
מתב	4134
##לקוח	4135
הזוג	4136
המציאות	4137
sp	4138
שבר	4139
שהס	4140
יוכלו	4141
##במבר	4142
##ושבי	4143
להתח	4144
ועם	4145
מסוימת	4146
נשמע	4147
ad	4148
קפה	4149
##רוס	4150
לבוא	4151
שכבר	4152
נשק	4153
קבוצת	4154
לחפש	4155
חשבון	4156
##ook	4157
191	4158
תקשורת	4159
חייבת	4160
הבחירות	4161
כז	4162
האש	4163
לעבודה	4164
##וכה	4165
שבת	4166
בריט	4167
לוקח	4168
ממוק	4169
סיבות	4170
##דמנויות	4171
לאפשר	4172
שאר	4173
לתח	4174
"?	4175
תי	4176
##זי	4177
מצוי	4178
הנוכחי	4179
##וספת	4180
בפע	4181
wh	4182
נפט	4183
למדי	4184
ישירות	4185
לבן	4186
כאב	4187
לצפות	4188
קיו	4189
##ריה	4190
##ast	4191
##ופלים	4192
שהצ	4193
##יפת	4194
בתע	4195
בזכות	4196
האמיתי	4197
במערכת	4198
##כוהול	4199
הלח	4200
##דימה	4201
ההשפ	4202
ex	4203
##קסט	4204
##ָה	4205
##ריכים	4206
ואתה	4207
מבינים	4208
..."	4209
##מידה	4210
להאמין	4211
ושוב	4212
##פחות	4213
##שרות	4214
מקומות	4215
##כונית	4216
גדולות	4217
ידעתי	4218
נמוך	4219
צה	4220
##יליא	4221
##רגה	4222
##שוואה	4223
האמריקאי	4224
החלטה	4225
גדל	4226
ניתוח	4227
שיתוף	4228
ורו	4229
##ob	4230
אתמול	4231
היהודית	4232
הנק	4233
מבק	4234
טובות	4235
שנתיים	4236
מתחילים	4237
צילום	4238
##ובלים	4239
אמנות	4240
להסביר	4241
הפלסטינים	4242
קוראים	4243
אוויר	4244
חכ	4245
לכולם	4246
פוג	4247
##וגוסט	4248
ביולי	4249
##ינות	4250
להפסיק	4251
##לאות	4252
מכירים	4253
הולכים	4254
חשיבות	4255
למשך	4256
לפתוח	4257
האנרגיה	4258
##ידום	4259
##פיין	4260
חשובה	4261
באוקטובר	4262
בהמשך	4263
בימים	4264
אסור	4265
ספציפ	4266
אליהם	4267
בקרוב	4268
....	4269
מומלץ	4270
קוב	4271
שימו	4272
המפ	4273
כלשה	4274
בחשבון	4275
##פקד	4276
##נדון	4277
קיימים	4278
##אג	4279
##יימת	4280
רפוא	4281
חדר	4282
הימים	4283
עצמנו	4284
נכ	4285
##ie	4286
##רוכה	4287
הנח	4288
מציע	4289
ההחלטה	4290
סנט	4291
החק	4292
איזו	4293
##שיים	4294
האמית	4295
התחת	4296
התרבות	4297
אמנם	4298
ומק	4299
שמס	4300
##קול	4301
שאינו	4302
ליצ	4303
אפריקה	4304
טרור	4305
web	4306
נזק	4307
אמצע	4308
##all	4309
בתקופה	4310
##עיל	4311
##one	4312
##בוצות	4313
פרטים	4314
מייצ	4315
אבי	4316
יז	4317
עיצוב	4318
תד	4319
מוצר	4320
נפג	4321
מרגישים	4322
##יתם	4323
השוק	4324
הדם	4325
בנובמבר	4326
בפי	4327
ביחס	4328
שינה	4329
הפנים	4330
להציל	4331
con	4332
מו	4333
##בש	4334
##ודא	4335
##ריד	4336
והן	4337
במקרים	4338
##ליחו	4339
השיר	4340
##עתם	4341
לטפל	4342
ביטחון	4343
העולמי	4344
כלשהו	4345
בעבודה	4346
שאינ	4347
בחדר	4348
בחזרה	4349
2019	4350
במשחק	4351
אפשרויות	4352
תשובה	4353
להוסיף	4354
##ובלי	4355
שהן	4356
ראשו	4357
ממלי	4358
שירותי	4359
##מרים	4360
העניין	4361
באמצע	4362
##ell	4363
להימנע	4364
נפש	4365
קונ	4366
האישה	4367
בהכ	4368
להתא	4369
ממני	4370
אקד	4371
הוע	4372
ים	4373
נוכל	4374
##זיקה	4375
הנשים	4376
בכדי	4377
מטרת	4378
המכש	4379
והצ	4380
##כונים	4381
##מצאים	4382
התקשורת	4383
אחוזים	4384
en	4385
עקב	4386
##פול	4387
##ִּ	4388
##ומד	4389
##ותרת	4390
אנט	4391
##ill	4392
זוכר	4393
ארץ	4394
לאיר	4395
האב	4396
##מוס	4397
שעבר	4398
המקצוע	4399
##...]	4400
כרי	4401
שמצ	4402
##gle	4403
המזרח	4404
לחיים	4405
##רסה	4406
עתה	4407
המור	4408
##נהג	4409
מהווה	4410
שהש	4411
מעדי	4412
פעולות	4413
##וכלוסייה	4414
מלבד	4415
##וטנציאל	4416
bl	4417
ספי	4418
מהד	4419
החלה	4420
התמונה	4421
ההצ	4422
ולת	4423
se	4424
עונה	4425
העש	4426
##שאר	4427
המחיר	4428
[...]	4429
לדי	4430
אלב	4431
ולמ	4432
רעיון	4433
ביקורת	4434
45	4435
מרח	4436
##שיות	4437
##שאים	4438
להי	4439
##art	4440
לרכוש	4441
סוגים	4442
שמונה	4443
שלישי	4444
##ושות	4445
##וניות	4446
איתם	4447
החלטות	4448
?”	4449
סל	4450
##ip	4451
##ist	4452
##בנות	4453
עדיף	4454
לטיפול	4455
עשויה	4456
סוגי	4457
ארוכה	4458
ביניהם	4459
שגר	4460
החלו	4461
התלמידים	4462
##וכים	4463
בגוף	4464
נאמר	4465
הוסיף	4466
באוגוסט	4467
העור	4468
##יאו	4469
ישוע	4470
ואל	4471
בסך	4472
בבע	4473
##יקור	4474
למק	4475
התנהגות	4476
##יטניה	4477
##ate	4478
אזרחים	4479
36	4480
לני	4481
##ען	4482
##פך	4483
הארי	4484
##ליסט	4485
בריא	4486
פופול	4487
##למת	4488
##שום	4489
##פחת	4490
המוב	4491
במזרח	4492
למא	4493
מאחר	4494
אינן	4495
השלום	4496
נאל	4497
שזו	4498
תנאי	4499
##דרים	4500
המוות	4501
##מונת	4502
הפא	4503
משמעותית	4504
ביצוע	4505
שיי	4506
##נב	4507
שליטה	4508
לעצור	4509
לבני	4510
##סקים	4511
האנושי	4512
הצדדים	4513
##דית	4514
##גנון	4515
##מרו	4516
האפשרות	4517
##יביות	4518
ביטוח	4519
כנס	4520
קפ	4521
”,	4522
ואמר	4523
מצט	4524
בבקשה	4525
##גיש	4526
בשעה	4527
2000	4528
הרופא	4529
מיוחדת	4530
##ft	4531
מחר	4532
שלהן	4533
להציג	4534
מורכ	4535
29	4536
ביל	4537
##ובדים	4538
החליט	4539
הגנה	4540
2006	4541
הישראלית	4542
am	4543
בוד	4544
ונו	4545
ללי	4546
##זין	4547
עבוד	4548
ph	4549
pl	4550
ליום	4551
##גיע	4552
##ub	4553
המפור	4554
לעזוב	4555
##ונן	4556
לצורך	4557
הפעולה	4558
נכונה	4559
המז	4560
העיקר	4561
התהליך	4562
מתאי	4563
##וטר	4564
להשק	4565
קב	4566
##מאות	4567
פתאום	4568
00	4569
ויצ	4570
נול	4571
פיק	4572
השב	4573
הבאות	4574
יחסית	4575
נמוכה	4576
סבל	4577
##טיות	4578
##ובב	4579
האפ	4580
בשני	4581
בהיסטוריה	4582
הנע	4583
##שובות	4584
הניס	4585
האנושות	4586
כשאני	4587
מוחלט	4588
אופן	4589
##וגים	4590
מעני	4591
##פקת	4592
פתוח	4593
לנהל	4594
מנסים	4595
בחיי	4596
יצר	4597
מבחינת	4598
סיכוי	4599
google	4600
ריש	4601
##יתוף	4602
להד	4603
עלה	4604
##ישורים	4605
הפכה	4606
מפור	4607
מרק	4608
השיע	4609
במדינות	4610
##וויה	4611
ההבדל	4612
בירושלים	4613
##מחים	4614
המוק	4615
להראות	4616
לממש	4617
מזל	4618
מילה	4619
לאתר	4620
התוצאות	4621
מתוכ	4622
בסין	4623
תקופת	4624
לזהות	4625
קדימה	4626
##דמות	4627
##ידי	4628
##לווה	4629
הגיעה	4630
##ניהו	4631
חזר	4632
איתי	4633
הוב	4634
שטח	4635
לאן	4636
##כנן	4637
##ice	4638
הפעילות	4639
גרם	4640
הבינלאומית	4641
חומר	4642
שרי	4643
##se	4644
התחיל	4645
והק	4646
מבטיח	4647
הלאומית	4648
דר	4649
הלקוחות	4650
##עש	4651
##ver	4652
האהבה	4653
היע	4654
שהופ	4655
לקח	4656
מידי	4657
##רצו	4658
##כלים	4659
בחוץ	4660
בטח	4661
מטרות	4662
חברתית	4663
סתם	4664
הצליח	4665
המשמעות	4666
שעברה	4667
לציין	4668
זקוקים	4669
("	4670
דח	4671
והכ	4672
לעבר	4673
להתג	4674
סטודנטים	4675
סרטן	4676
דיווח	4677
קבלת	4678
שניהם	4679
המופ	4680
##תיע	4681
הידע	4682
בחר	4683
##פעל	4684
ליהנות	4685
le	4686
##ריע	4687
##דיק	4688
אירועים	4689
##ינגטון	4690
ישר	4691
##ואין	4692
אוסטר	4693
התוצאה	4694
וכי	4695
להציע	4696
האירוע	4697
לייצר	4698
לישון	4699
עז	4700
##נאה	4701
##ובד	4702
לבקש	4703
לידי	4704
בריטניה	4705
יפ	4706
סיר	4707
באפריל	4708
החז	4709
##לויות	4710
העיקרי	4711
be	4712
נכתב	4713
##גובה	4714
##לאים	4715
לבסוף	4716
יחסי	4717
מושג	4718
לפתור	4719
צוד	4720
רמות	4721
##קן	4722
להן	4723
החברת	4724
בעניין	4725
לקבוע	4726
בפברואר	4727
במספר	4728
##גוון	4729
קשור	4730
עליכם	4731
גרי	4732
##ידור	4733
החת	4734
בספר	4735
##לבום	4736
רופא	4737
%.	4738
##ge	4739
##מוש	4740
מהיר	4741
מביא	4742
מדהים	4743
אמי	4744
נוג	4745
סופ	4746
שתה	4747
##בעת	4748
##קוב	4749
##יבוד	4750
##וקי	4751
ועכשיו	4752
##עויות	4753
31	4754
ריק	4755
##יוו	4756
האפש	4757
משמ	4758
הקו	4759
מצרים	4760
משפחות	4761
קורא	4762
מודר	4763
ברכ	4764
רצה	4765
שוו	4766
תשלום	4767
השפה	4768
מאי	4769
##מתו	4770
חזקה	4771
להוציא	4772
לאט	4773
ממח	4774
אלינו	4775
חופשי	4776
חוזר	4777
חר	4778
יו	4779
##רגונים	4780
המילים	4781
##יצוע	4782
חיילים	4783
##שמית	4784
פרסום	4785
300	4786
##טרת	4787
להיע	4788
התכ	4789
חייהם	4790
##קשורת	4791
זכה	4792
סול	4793
עמד	4794
תואר	4795
במטרה	4796
##וטה	4797
הנוס	4798
לדבריו	4799
עומדים	4800
##רמו	4801
##לן	4802
המיו	4803
העת	4804
לגיל	4805
מדו	4806
לדא	4807
האיחוד	4808
היס	4809
והב	4810
):	4811
נוב	4812
עתיד	4813
##יכה	4814
##דיא	4815
##יסון	4816
בתהליך	4817
192	4818
מטרה	4819
")	4820
גמ	4821
דיא	4822
דרום	4823
וידאו	4824
מידה	4825
ואיך	4826
הטכנולוגיה	4827
אוטומ	4828
אמיתית	4829
מבר	4830
מרכ	4831
שיא	4832
להניח	4833
##our	4834
פרטי	4835
בנות	4836
כולה	4837
##ba	4838
משקל	4839
שאמר	4840
לשת	4841
פעיל	4842
##ונש	4843
איתך	4844
חיפוש	4845
קרב	4846
##רז	4847
באמ	4848
##וקף	4849
הראש	4850
ראשי	4851
ולהת	4852
לעצמי	4853
tr	4854
##ואל	4855
הסביבה	4856
כזאת	4857
it	4858
טלוויזיה	4859
נו	4860
להוביל	4861
למכור	4862
שמחה	4863
בניגוד	4864
##ost	4865
החברות	4866
מתרח	4867
##ונק	4868
ברוב	4869
בדבר	4870
##וברת	4871
צפוי	4872
אוניברסיטת	4873
ירד	4874
מנג	4875
עץ	4876
עמוק	4877
הזכות	4878
מציאות	4879
בפועל	4880
הפלסטינית	4881
הבלתי	4882
ההגנה	4883
הנית	4884
הימ	4885
##לימות	4886
מהג	4887
למצב	4888
הסיכון	4889
הנראה	4890
2005	4891
הגדולות	4892
ארוחת	4893
##ילחם	4894
התפתחות	4895
הפיז	4896
##ירותים	4897
##וניים	4898
היסטוריה	4899
זמין	4900
כנגד	4901
סא	4902
הינה	4903
##ופעה	4904
העונה	4905
##וסי	4906
בבח	4907
##ark	4908
אלימות	4909
##ows	4910
דיג	4911
יימ	4912
מותר	4913
עורך	4914
המזון	4915
במחקר	4916
יכולתי	4917
##סטרו	4918
##שאיר	4919
הלימודים	4920
שיעור	4921
שלושת	4922
זקוק	4923
כשאתה	4924
טרי	4925
##ננים	4926
##כוח	4927
שאח	4928
הסיכו	4929
ולב	4930
##יכר	4931
שחור	4932
אנגלית	4933
סעיף	4934
מקרים	4935
קטנות	4936
נתן	4937
חשובים	4938
עצמכם	4939
הקודם	4940
ip	4941
wor	4942
הקפ	4943
##וויות	4944
שניים	4945
##כנע	4946
להשפיע	4947
המוצרים	4948
כיס	4949
ללב	4950
##אורה	4951
שלם	4952
פעמיים	4953
עצמית	4954
##oun	4955
ומתן	4956
נושאים	4957
נציג	4958
לעצמו	4959
##סוק	4960
##ודיה	4961
בעלות	4962
הבה	4963
בהשוואה	4964
as	4965
בוא	4966
##סו	4967
##ניט	4968
למות	4969
מחלות	4970
##מצאו	4971
וְ	4972
מרבית	4973
הצוות	4974
שנא	4975
##חייב	4976
נקודת	4977
מלון	4978
בור	4979
ביני	4980
הלקוח	4981
##ישית	4982
בעלת	4983
לעלות	4984
לפנות	4985
##לקה	4986
הטלפון	4987
לתקן	4988
הצלחה	4989
##ep	4990
מושלם	4991
אגב	4992
ap	4993
חיות	4994
השטח	4995
התרג	4996
לשתף	4997
בבתי	4998
wind	4999
דוד	5000
עני	5001
##כנת	5002
התמ	5003
אינס	5004
הפכו	5005
לצע	5006
חרי	5007
##יוט	5008
השונים	5009
והיה	5010
הבוקר	5011
עיק	5012
##ושינגטון	5013
לשני	5014
##חרור	5015
##פייה	5016
בדרום	5017
רעיונות	5018
רפואי	5019
##בירה	5020
המשות	5021
ישנה	5022
הפרי	5023
לחלק	5024
##עתו	5025
ההזדמנות	5026
pr	5027
גזע	5028
שוכ	5029
##ותי	5030
ראוי	5031
המחלה	5032
קמ	5033
קומ	5034
המפלגה	5035
ממך	5036
##ack	5037
האישי	5038
אוכלוס	5039
בינתיים	5040
mic	5041
מפר	5042
תחרות	5043
##גד	5044
##תיבה	5045
במילים	5046
##ועלת	5047
מעמד	5048
##וכיח	5049
##כתה	5050
##ant	5051
המערבית	5052
מוזיקה	5053
מרגישה	5054
לנשים	5055
מותו	5056
נבח	5057
##זרים	5058
##ולחן	5059
מתקד	5060
הכדור	5061
מבח	5062
פתרונות	5063
דני	5064
נוח	5065
פתח	5066
##סן	5067
ואילו	5068
בצרפת	5069
הכלכלי	5070
הרגשתי	5071
ייצור	5072
עברו	5073
קיל	5074
תלמידים	5075
##ייט	5076
##מדות	5077
לאי	5078
האקד	5079
החוץ	5080
החוצה	5081
ובכן	5082
ומד	5083
שקורה	5084
מרכזי	5085
גרו	5086
צפון	5087
##ייתי	5088
במאה	5089
התנועה	5090
ואולי	5091
מעצ	5092
מקורות	5093
ממשיך	5094
##בקש	5095
עוזר	5096
לשלוח	5097
עיני	5098
##ברג	5099
בצפון	5100
ישראלים	5101
אביו	5102
כשהם	5103
cl	5104
שונ	5105
##יקל	5106
##אללה	5107
הנצ	5108
סימן	5109
פרויקט	5110
החוקרים	5111
הבחירה	5112
##ילית	5113
הראשי	5114
הרשת	5115
ביי	5116
דרו	5117
הוס	5118
##חוק	5119
##פית	5120
##מום	5121
##וונות	5122
מצליח	5123
המשך	5124
התקופה	5125
דופן	5126
##נשי	5127
##ליכים	5128
למדינה	5129
בשימוש	5130
מתנה	5131
הומ	5132
שיפ	5133
##ענו	5134
##גם	5135
##זיל	5136
השאר	5137
##וסק	5138
הכח	5139
ובס	5140
הנדר	5141
ראשונה	5142
##רסים	5143
הראשונות	5144
מכם	5145
תכונות	5146
##למה	5147
##ואלי	5148
##ופיה	5149
##יקאים	5150
##בלתי	5151
לשמש	5152
רגיל	5153
##ros	5154
להרוג	5155
##קף	5156
##ולין	5157
במט	5158
##נטיות	5159
מחפש	5160
ובת	5161
ברית	5162
ברורה	5163
בכמה	5164
##טיין	5165
פשוטה	5166
פועלים	5167
##ight	5168
וכו	5169
מפתח	5170
קלא	5171
רלוו	5172
שיג	5173
##פנים	5174
מסכים	5175
לשלוט	5176
##יסת	5177
בחי	5178
תוכן	5179
כחלק	5180
הטרור	5181
מלה	5182
##ובוס	5183
השא	5184
כיף	5185
בהרבה	5186
הזדמנויות	5187
בקשר	5188
השתת	5189
הלבן	5190
בך	5191
הורים	5192
וול	5193
פיצ	5194
ובין	5195
נתניהו	5196
בקה	5197
הפיל	5198
ביטוי	5199
בטוחה	5200
החדשות	5201
שחקן	5202
ויו	5203
פות	5204
המונ	5205
בעד	5206
##יאת	5207
הבנתי	5208
במקומות	5209
אביב	5210
תנועה	5211
חפ	5212
פועל	5213
שמי	5214
##ain	5215
##ילנד	5216
##ואות	5217
##יקת	5218
##יעת	5219
הבן	5220
מבית	5221
##לחמת	5222
##ort	5223
##שן	5224
לאחד	5225
לאומי	5226
בקול	5227
##נקים	5228
המסע	5229
##ds	5230
##ורש	5231
הגיל	5232
הדלת	5233
##אלית	5234
לפגוע	5235
לשר	5236
פירוש	5237
##כרו	5238
##ue	5239
##דיות	5240
הסימ	5241
הסדרה	5242
לייש	5243
לדעתי	5244
הקטן	5245
טלפון	5246
נפר	5247
קבע	5248
שפה	5249
##ex	5250
##כרה	5251
##ודע	5252
האוט	5253
מאה	5254
אלכוהול	5255
אישור	5256
שחקנים	5257
כותב	5258
סע	5259
פש	5260
שישה	5261
​​	5262
##מחה	5263
##ודיות	5264
לחת	5265
מחשבות	5266
##ענה	5267
##כנה	5268
##וכר	5269
הכוחות	5270
מוצא	5271
בטוחים	5272
ביר	5273
חובה	5274
לונ	5275
מלך	5276
צורה	5277
##ירום	5278
העיניים	5279
בהתחלה	5280
##חייה	5281
וחצי	5282
יין	5283
סיכון	5284
שיפור	5285
##למנט	5286
##ַּ	5287
באח	5288
מסר	5289
הקיץ	5290
##נטה	5291
הכרח	5292
לקה	5293
הכלב	5294
לנש	5295
ויט	5296
סדר	5297
##בעות	5298
##פתי	5299
##ואן	5300
מציג	5301
הוועדה	5302
וני	5303
יי	5304
##לחת	5305
##גלה	5306
במד	5307
מסביב	5308
ובש	5309
##פתחו	5310
תחושה	5311
or	5312
חט	5313
משר	5314
עזה	5315
##דלים	5316
##כרות	5317
להרח	5318
##ילוב	5319
אינני	5320
להכין	5321
##לוקת	5322
גרמ	5323
דובר	5324
ייק	5325
##מפרט	5326
##זציה	5327
עלולים	5328
##יקות	5329
למת	5330
והד	5331
לטובת	5332
מתחילה	5333
נורא	5334
אמצעי	5335
windows	5336
אול	5337
ונס	5338
שו	5339
לאל	5340
פוליטית	5341
טל	5342
ירו	5343
##נוס	5344
התפקיד	5345
אנא	5346
הצי	5347
המספר	5348
המרכזי	5349
כלשהי	5350
חם	5351
יוע	5352
שיב	5353
##צרו	5354
##פח	5355
לאהוב	5356
למלא	5357
הפופול	5358
ההיסט	5359
תחום	5360
ללמד	5361
דיבר	5362
הבעיות	5363
##ונגרס	5364
מקצועי	5365
הקהל	5366
להשקיע	5367
אמונה	5368
זר	5369
##pl	5370
##ודיים	5371
##שוף	5372
חלקים	5373
ספרי	5374
הוו	5375
תושבי	5376
##וריים	5377
מהפ	5378
כלב	5379
כלבים	5380
##כולנו	5381
רגשות	5382
משתנה	5383
מיוחדים	5384
כשל	5385
##ian	5386
הכס	5387
בחירה	5388
בפרו	5389
ילדי	5390
##יזם	5391
ארגונים	5392
שהייתה	5393
העתיקה	5394
בלונדון	5395
ייצ	5396
##ure	5397
האלבום	5398
##ופס	5399
במרץ	5400
החברים	5401
שהק	5402
למרבה	5403
והמש	5404
##יסטים	5405
לחוק	5406
ובכך	5407
להחליט	5408
להחזיר	5409
##כסוך	5410
נוה	5411
##ויה	5412
##טחת	5413
##גרות	5414
כלכלית	5415
למטה	5416
לקרות	5417
שיטות	5418
##ib	5419
##מיר	5420
##פאים	5421
##יונית	5422
##דיקה	5423
הקל	5424
בסביבה	5425
להצטרף	5426
עשיתי	5427
sc	5428
דלת	5429
חומרים	5430
##שור	5431
להילחם	5432
##יטחון	5433
לקדם	5434
ובח	5435
לתמוך	5436
תקווה	5437
מבוסס	5438
דמוקרט	5439
היות	5440
ותי	5441
##ברר	5442
החיפוש	5443
##כולות	5444
לחברה	5445
הכוכ	5446
לוודא	5447
גבולות	5448
מודעים	5449
לטי	5450
נוצר	5451
עמוד	5452
עליי	5453
##דינת	5454
לשבת	5455
##מצים	5456
אהבתי	5457
מורכב	5458
מומחים	5459
ממשיכים	5460
לדאוג	5461
דף	5462
ליו	5463
פית	5464
##וֹ	5465
##לום	5466
##iz	5467
לענות	5468
מתכוון	5469
שיער	5470
דוגמה	5471
כוס	5472
קלה	5473
רד	5474
##נף	5475
וכמה	5476
נפלא	5477
מודע	5478
האמריקאית	5479
שהייתי	5480
גודל	5481
זרים	5482
טעות	5483
סקר	5484
סוריה	5485
##צעת	5486
##כירה	5487
המנה	5488
האק	5489
האוניברסיטה	5490
עלולה	5491
החבר	5492
התרח	5493
##וצות	5494
מאחור	5495
מתרג	5496
הקודש	5497
##סקת	5498
מפע	5499
וכמ	5500
בבריטניה	5501
השחקנים	5502
ההשפעה	5503
חינם	5504
טווח	5505
לסט	5506
מרוב	5507
##אני	5508
זהב	5509
השינוי	5510
מסכי	5511
מתכ	5512
##ולוגי	5513
להפחית	5514
גרוע	5515
##כז	5516
##יביים	5517
באו	5518
אוס	5519
##וגיות	5520
הבנה	5521
ואי	5522
הנפש	5523
##סטיבל	5524
בכוח	5525
שישי	5526
מוצרי	5527
אדמה	5528
פלסטינים	5529
אכפת	5530
גבי	5531
דמ	5532
חב	5533
ציפ	5534
##ופיע	5535
באוניברסיטת	5536
##רבע	5537
הקרב	5538
הדור	5539
שנח	5540
האמנות	5541
לדברי	5542
בדיקות	5543
דורש	5544
הגבוהה	5545
הפרויקט	5546
חוויה	5547
משותף	5548
בלא	5549
גז	5550
הונ	5551
בשום	5552
בשטח	5553
ההול	5554
בתפקיד	5555
##צביע	5556
אדום	5557
שירותים	5558
נראית	5559
מהמש	5560
שאף	5561
הרצון	5562
העיקרית	5563
##למו	5564
##אבים	5565
##תמש	5566
##כנו	5567
משם	5568
מערב	5569
הנכונה	5570
##ונד	5571
שקרה	5572
שכר	5573
יעשה	5574
הרגע	5575
להעלות	5576
##ורקיה	5577
אשתו	5578
לומדים	5579
##בצע	5580
##קע	5581
להר	5582
לארץ	5583
במרחק	5584
מחזיק	5585
עבודת	5586
##לטפור	5587
במשקל	5588
וית	5589
יקר	5590
##per	5591
הקמת	5592
##נטיים	5593
מכאן	5594
##וטרים	5595
המקרים	5596
שתוכל	5597
יעיל	5598
סרטים	5599
32	5600
ביש	5601
טכנולוגיה	5602
לרגע	5603
ישנן	5604
מעוד	5605
מוקד	5606
ac	5607
at	5608
הלה	5609
שרק	5610
##זות	5611
במג	5612
לעיר	5613
##וכנות	5614
בניס	5615
המתק	5616
##צינות	5617
האנושית	5618
ניג	5619
##חוד	5620
החיו	5621
הספ	5622
בשפה	5623
2020	5624
מבנה	5625
לכאורה	5626
##פורניה	5627
רגל	5628
בהכרח	5629
400	5630
חתי	5631
עיתונ	5632
רוק	5633
שרא	5634
שדה	5635
##ust	5636
##ִי	5637
באה	5638
באחד	5639
והט	5640
ההע	5641
##מיין	5642
2002	5643
##ome	5644
דולרים	5645
הטובות	5646
ההשק	5647
לונדון	5648
טכני	5649
סופר	5650
היב	5651
החול	5652
החומר	5653
עבודות	5654
פעילויות	5655
רחבי	5656
##בחן	5657
ללקוחות	5658
נראים	5659
##ld	5660
האינ	5661
מעב	5662
הקריירה	5663
קיר	5664
המומ	5665
המשימה	5666
##וקס	5667
ואנו	5668
לחקור	5669
מבקש	5670
ולס	5671
2003	5672
לקבלת	5673
קוריאה	5674
הודעה	5675
הפלסטיני	5676
בינלאומיים	5677
הקשורים	5678
דיס	5679
פסיכולוג	5680
שפור	5681
תלמיד	5682
##ייקט	5683
##גלים	5684
מהק	5685
##כלת	5686
לחכות	5687
המשחקים	5688
המוזיקה	5689
נדרש	5690
ממצ	5691
עי	5692
##ry	5693
שאי	5694
##ווית	5695
מייד	5696
קיבלו	5697
עומדת	5698
המבוס	5699
he	5700
ויק	5701
מפת	5702
סיוע	5703
##ies	5704
##פקה	5705
להוכיח	5706
באשר	5707
החופ	5708
מעולה	5709
מחלה	5710
מקרי	5711
המקורי	5712
חוקרים	5713
##וטנציא	5714
יימס	5715
חיה	5716
המנו	5717
העד	5718
התש	5719
שמישהו	5720
נוסעים	5721
שימש	5722
סיפורים	5723
להוריד	5724
דיגיט	5725
עיניים	5726
פצ	5727
##ud	5728
מסחר	5729
##רגות	5730
שמד	5731
תגובה	5732
בשבילי	5733
החדשים	5734
להסתכל	5735
me	5736
ושי	5737
נמש	5738
##כרת	5739
##".	5740
החלל	5741
ההור	5742
##נסות	5743
אלכס	5744
ומב	5745
מכיל	5746
הלאה	5747
המהפכה	5748
דמות	5749
##עשה	5750
##נחה	5751
להתייחס	5752
האמונה	5753
השינה	5754
מציעים	5755
שמעתי	5756
במקביל	5757
התייחס	5758
לאחרים	5759
##רפתי	5760
האסלא	5761
fr	5762
חכם	5763
סקס	5764
הפדר	5765
מעלה	5766
תחילת	5767
2004	5768
רצח	5769
נהג	5770
לזכות	5771
להחליף	5772
הכנסת	5773
אליך	5774
אמון	5775
ויע	5776
יר	5777
פלא	5778
צדק	5779
ראי	5780
שירים	5781
##טרכו	5782
מגיעה	5783
כוללת	5784
##בקרים	5785
inter	5786
האזרחים	5787
בוט	5788
שיניים	5789
מסוכן	5790
לבחון	5791
הצפ	5792
הצליחו	5793
190	5794
עובדת	5795
גבוהים	5796
במחשב	5797
##50	5798
מאוח	5799
##וגמא	5800
##סקי	5801
##רקט	5802
הכלכלה	5803
##ולוגית	5804
##גרם	5805
שקט	5806
מאפשרת	5807
היתרונות	5808
גול	5809
תוצאה	5810
##ire	5811
##טחים	5812
האפשר	5813
הספרים	5814
מזג	5815
כוללים	5816
המבנה	5817
חוב	5818
באת	5819
הרוב	5820
##פסור	5821
כתובת	5822
להשתתף	5823
יתכן	5824
איתנו	5825
מסוימות	5826
בדיקה	5827
לשתות	5828
man	5829
הַ	5830
מיס	5831
תמי	5832
##נך	5833
##נז	5834
##רחים	5835
מינית	5836
תגובות	5837
נדמה	5838
השראה	5839
חשמל	5840
מכתב	5841
זיכרון	5842
לילד	5843
המות	5844
##ומם	5845
##ברהם	5846
מופיע	5847
##ect	5848
הפתרון	5849
??	5850
##אשר	5851
המפתח	5852
החשמ	5853
מאמר	5854
בשתי	5855
מחי	5856
##פקט	5857
##נציה	5858
נהדר	5859
הולכת	5860
התחלתי	5861
הגבול	5862
שיווק	5863
בינלאומי	5864
הצעיר	5865
ושמ	5866
צו	5867
קוס	5868
##נכ	5869
##oft	5870
להקים	5871
##תיב	5872
מתן	5873
##שוך	5874
רקע	5875
בכנס	5876
חלקם	5877
הבריטי	5878
עובדות	5879
נחש	5880
הולדת	5881
הודעות	5882
קיימות	5883
דומים	5884
ויה	5885
##דרי	5886
##ליג	5887
##פריה	5888
מספרים	5889
לפיכ	5890
אמריקאי	5891
מספקת	5892
היתר	5893
נהרגו	5894
קשים	5895
שפות	5896
תר	5897
##אור	5898
האוכלוסייה	5899
הבטיח	5900
לשלב	5901
הגישה	5902
עצמא	5903
לטווח	5904
יוצר	5905
פארק	5906
טוען	5907
לפיכך	5908
##פונים	5909
##דיש	5910
כלים	5911
##יעור	5912
הקרקע	5913
כאמור	5914
מועד	5915
בתקופת	5916
בוחרים	5917
סמים	5918
##ימים	5919
שלמה	5920
האימ	5921
הערך	5922
מעשה	5923
בחינם	5924
מצאו	5925
##פלל	5926
עשרים	5927
גרע	5928
חיצוני	5929
##נל	5930
##גיט	5931
זהות	5932
מבצע	5933
ומג	5934
לציבור	5935
להגדיל	5936
מוכר	5937
שומן	5938
?!	5939
סובל	5940
##דמה	5941
##pr	5942
משלה	5943
מבוגרים	5944
##והה	5945
המסחר	5946
שבהן	5947
33	5948
##וּ	5949
המדיניות	5950
החוף	5951
מצפה	5952
מציעה	5953
##וניה	5954
בגרמניה	5955
ידעו	5956
אבטחה	5957
תעשיית	5958
?".	5959
פרנק	5960
##ock	5961
איטליה	5962
gr	5963
ושה	5964
ליר	5965
סיום	5966
רשות	5967
רובר	5968
##טיים	5969
##יתונות	5970
להשאיר	5971
הסיבות	5972
##יפן	5973
##יינה	5974
לכאן	5975
האחריות	5976
תחושת	5977
המאמר	5978
האמריקני	5979
מכוניות	5980
העולמית	5981
דוא	5982
הלך	5983
##פרו	5984
המתח	5985
בערב	5986
הקב	5987
כאלו	5988
בסוריה	5989
שנק	5990
חוקים	5991
להשלים	5992
בבחירות	5993
אמו	5994
רשימה	5995
##רוג	5996
##ליחים	5997
כלכלי	5998
מדעי	5999
שנקרא	6000
מגלה	6001
##פסת	6002
תחילה	6003
נותנים	6004
האדום	6005
new	6006
us	6007
ופע	6008
כבד	6009
שניות	6010
במל	6011
משני	6012
מאל	6013
ואתם	6014
ממשלה	6015
לטע	6016
צעדים	6017
זמנית	6018
קצרה	6019
ירידה	6020
גיר	6021
ותח	6022
לרי	6023
##גדים	6024
האהוב	6025
השניים	6026
העיצוב	6027
##יאן	6028
הדו	6029
ומכ	6030
בקשה	6031
##מודדות	6032
2001	6033
המאוח	6034
ביקור	6035
המלון	6036
הרגיש	6037
##יווק	6038
##פרסם	6039
##יטב	6040
##שוי	6041
##שימות	6042
##חתה	6043
עצום	6044
לסרט	6045
איננה	6046
להשתנות	6047
מודעות	6048
לרדת	6049
להחזיק	6050
חיובית	6051
הרכבת	6052
רשמי	6053
48	6054
איתה	6055
ודי	6056
נותר	6057
##ובדה	6058
##יבוב	6059
לקיים	6060
לוותר	6061
ניסה	6062
נבחר	6063
איו	6064
לנה	6065
##מנת	6066
הממוצע	6067
התורה	6068
בקיץ	6069
יעזור	6070
פרויקטים	6071
מועצת	6072
שואל	6073
כרא	6074
צור	6075
לאבד	6076
האר	6077
השות	6078
השאלות	6079
##יימו	6080
הכניסה	6081
מכירות	6082
המשק	6083
נהיה	6084
המאפשר	6085
אובדן	6086
איבד	6087
גופנית	6088
טעם	6089
נוטים	6090
ציין	6091
תן	6092
##ps	6093
אתרים	6094
##ופטים	6095
במת	6096
במשרד	6097
שבין	6098
ולג	6099
אבן	6100
אהבת	6101
השלישית	6102
ההסכם	6103
%)	6104
##ביבות	6105
המין	6106
המכונית	6107
להט	6108
באים	6109
לשינוי	6110
בתים	6111
##נגליה	6112
שנייה	6113
רציני	6114
יוצאת	6115
משחקי	6116
מכונית	6117
לרצ	6118
##לד	6119
מהבית	6120
##יטאות	6121
לשנת	6122
##מצם	6123
הטלוויזיה	6124
אוכלים	6125
וזו	6126
ישראלי	6127
מנצ	6128
הארו	6129
התכנית	6130
##נסט	6131
סכום	6132
טה	6133
פתי	6134
היי	6135
אחראי	6136
ישיר	6137
ברצינות	6138
אשראי	6139
##יזו	6140
הופכים	6141
יוצאים	6142
הממשל	6143
קרן	6144
בול	6145
דרכ	6146
ונת	6147
חמאס	6148
מנק	6149
##בילה	6150
##aw	6151
##מרת	6152
היעד	6153
##ליזם	6154
הצטר	6155
מיליוני	6156
##צועים	6157
ביקש	6158
ברחוב	6159
למשחק	6160
המשיך	6161
ארכ	6162
גאה	6163
דמי	6164
שכולם	6165
תיר	6166
##סמים	6167
##ox	6168
שהב	6169
הערבי	6170
למישהו	6171
##מציה	6172
לסיים	6173
ילדה	6174
כתוב	6175
מוצאים	6176
מוגבל	6177
ימ	6178
מרת	6179
מורה	6180
תפק	6181
##ארו	6182
##לייה	6183
זהה	6184
במים	6185
הכרי	6186
##שבו	6187
##בטחה	6188
150	6189
בעצמו	6190
##ational	6191
משפחתו	6192
שילוב	6193
my	6194
ברג	6195
יפן	6196
פיננס	6197
##qu	6198
המנהיג	6199
להודות	6200
באור	6201
##משלה	6202
ואחר	6203
##יטית	6204
בתגובה	6205
הדמוקרט	6206
##אלון	6207
##ונך	6208
מפג	6209
##ימור	6210
נסיעה	6211
אורג	6212
לנסוע	6213
34	6214
שפת	6215
תשת	6216
תאי	6217
##קון	6218
##ָא	6219
להיש	6220
##יעית	6221
שאולי	6222
הנג	6223
##מותה	6224
לתפוס	6225
יהודית	6226
##בתא	6227
אינך	6228
תאריך	6229
שהתק	6230
קיבלה	6231
פוליטי	6232
וזאת	6233
עמדה	6234
נוכחות	6235
ירוק	6236
שמן	6237
##לנו	6238
##מרה	6239
האוכל	6240
השלטון	6241
התמונות	6242
##ונם	6243
להצליח	6244
הירח	6245
העיקריים	6246
ארי	6247
כוא	6248
כשב	6249
רמ	6250
##ביות	6251
##גיה	6252
שלח	6253
אושר	6254
הבין	6255
מצוין	6256
##חתם	6257
מפס	6258
חברתי	6259
אישיות	6260
יתק	6261
הודו	6262
המוזיאון	6263
שחי	6264
##ial	6265
בחירות	6266
##פטומים	6267
המערב	6268
יחיד	6269
הופכת	6270
הכנסייה	6271
בינינו	6272
ab	6273
גן	6274
סד	6275
סוד	6276
##ארי	6277
##כרים	6278
##פיות	6279
השח	6280
##וסופיה	6281
לשאלה	6282
מזו	6283
##ith	6284
נחמד	6285
להפעיל	6286
מוזר	6287
באיזה	6288
##ובליקה	6289
em	6290
חיפ	6291
חולה	6292
יוני	6293
סטר	6294
תור	6295
##צרה	6296
מאמץ	6297
הגד	6298
בהד	6299
לחי	6300
לחבר	6301
##יציה	6302
מוסדות	6303
בשבילך	6304
להסיר	6305
אזרחי	6306
##מטיקה	6307
עוברים	6308
איל	6309
רשימת	6310
##ולל	6311
להצביע	6312
##ירוג	6313
הפוסט	6314
##מינות	6315
מבני	6316
##והר	6317
שקיב	6318
##ass	6319
המועצה	6320
מחשבה	6321
לוקחים	6322
מדענים	6323
בכת	6324
יושב	6325
לנצל	6326
סדרת	6327
שרוב	6328
##סוך	6329
##טת	6330
##כמה	6331
המורה	6332
##ירור	6333
הייצור	6334
##כלות	6335
##וציה	6336
מתו	6337
##יטליה	6338
הכאב	6339
##לחו	6340
הליכה	6341
המלכות	6342
כדורגל	6343
כוכבים	6344
75	6345
su	6346
דלק	6347
קשות	6348
##צרי	6349
##פלים	6350
##זיאון	6351
השונות	6352
ובק	6353
במקור	6354
הלידה	6355
ציוד	6356
##כליים	6357
##מכות	6358
##ודר	6359
##ore	6360
ההתק	6361
##ish	6362
micros	6363
בנס	6364
##ik	6365
##בדים	6366
##פיינים	6367
##זמן	6368
התנגדות	6369
והנה	6370
בהצלחה	6371
לגדול	6372
ועדיין	6373
לכיוון	6374
אצלנו	6375
נועד	6376
הקדוש	6377
להרוויח	6378
אלקטרוני	6379
]]	6380
גלי	6381
נכש	6382
ערי	6383
##וארד	6384
בשירות	6385
להגדיר	6386
השתנה	6387
במסע	6388
טען	6389
עורכי	6390
צבאי	6391
מעוניינים	6392
-"	6393
ויל	6394
כשמ	6395
##ביה	6396
##ly	6397
המבט	6398
מהירות	6399
החודש	6400
התה	6401
הגברים	6402
הכפר	6403
בניית	6404
בוודאי	6405
במחיר	6406
מוזיאון	6407
te	6408
סיג	6409
##az	6410
מהירה	6411
השינויים	6412
##יקאי	6413
מסורת	6414
חיובי	6415
יגיע	6416
בפרס	6417
לפגוש	6418
הידוע	6419
ייחודי	6420
נעים	6421
##ַי	6422
האחד	6423
##יבוי	6424
הערבים	6425
הצרפת	6426
בתא	6427
לגור	6428
מפח	6429
מזמן	6430
##בוצת	6431
יוצרים	6432
מעוניין	6433
בדם	6434
דוקט	6435
מודה	6436
קיום	6437
##לס	6438
##זונה	6439
להתי	6440
מהב	6441
##יקורת	6442
מסביר	6443
לשאת	6444
מעלות	6445
בהס	6446
מחכה	6447
קשרים	6448
הייתם	6449
כוכב	6450
הוח	6451
חירום	6452
רוז	6453
##למות	6454
להלן	6455
היקום	6456
משבר	6457
##מידי	6458
שבח	6459
בפנים	6460
בטיחות	6461
גבוהות	6462
1999	6463
פרטיות	6464
מתייחס	6465
תיאור	6466
##סיקו	6467
רוברט	6468
כראוי	6469
יכלו	6470
קני	6471
תפס	6472
##איות	6473
מסח	6474
מסור	6475
ואולם	6476
בחו	6477
הנד	6478
עבורי	6479
האחים	6480
מוצלח	6481
עובדה	6482
מוכנה	6483
הניש	6484
##ace	6485
הבעלים	6486
השתמשו	6487
האמיתית	6488
שתהיה	6489
טור	6490
מוביל	6491
תנאים	6492
##pt	6493
##ment	6494
האלקט	6495
השלב	6496
באש	6497
באפשרות	6498
החדר	6499
##וקיינו	6500
לעקוב	6501
מחוז	6502
ובני	6503
##ans	6504
ממשל	6505
##קדמות	6506
קראו	6507
הנוכחית	6508
בינלאומית	6509
ציבורית	6510
תינוק	6511
לוב	6512
סליחה	6513
##ייר	6514
המשרד	6515
משע	6516
מאמינה	6517
##ועלים	6518
מתה	6519
ישת	6520
לבטל	6521
מצח	6522
בגדים	6523
##בעו	6524
עמוקה	6525
המשתמשים	6526
להתגבר	6527
צודק	6528
אן	6529
חור	6530
רוד	6531
רבי	6532
##ריח	6533
במלחמה	6534
שהמש	6535
מסוכ	6536
הפיננס	6537
מעשי	6538
ההצלחה	6539
לקרי	6540
##יחסים	6541
הכללי	6542
להגיש	6543
חלקי	6544
חלום	6545
התגובה	6546
חיס	6547
לוו	6548
נמס	6549
רשמית	6550
##na	6551
##נמ	6552
האופן	6553
באל	6554
שאלתי	6555
מתכנ	6556
הכנסה	6557
בסגנון	6558
##לתה	6559
דברי	6560
38	6561
עוק	6562
##טיסט	6563
##ִים	6564
האיס	6565
עלייה	6566
הידי	6567
בעבוד	6568
הבדל	6569
לשכוח	6570
ובמק	6571
להתאים	6572
הרשות	6573
הזהב	6574
##גרש	6575
אסיה	6576
יתרונות	6577
לבריאות	6578
למספר	6579
לעצמך	6580
אבות	6581
סובלים	6582
רו	6583
##te	6584
##ודעות	6585
להצלחה	6586
האחר	6587
שהפ	6588
##יקס	6589
##יינת	6590
לחג	6591
ליבר	6592
##ach	6593
all	6594
השיער	6595
נלח	6596
פסק	6597
ששי	6598
##נתיים	6599
##סד	6600
##כנים	6601
לאחור	6602
##יצד	6603
מכירה	6604
##כתוב	6605
מגד	6606
##כשיר	6607
המקור	6608
##end	6609
המסר	6610
יחידות	6611
##ite	6612
כשהיא	6613
לזמן	6614
off	6615
הקטנה	6616
באיכות	6617
הקרובה	6618
אלבום	6619
אוסטרליה	6620
microsoft	6621
')	6622
קופ	6623
אימון	6624
##יפל	6625
לחוות	6626
להתמקד	6627
שער	6628
בצע	6629
##ory	6630
פרנס	6631
מנכ	6632
!!!	6633
תינוקות	6634
מבקשים	6635
ביע	6636
יוסף	6637
קרו	6638
שיותר	6639
##גי	6640
##10	6641
הערכה	6642
התמיכה	6643
##יאים	6644
מסך	6645
ישן	6646
ישנו	6647
##נתו	6648
לפס	6649
מחלת	6650
שמאל	6651
שנראה	6652
מטר	6653
שואלים	6654
גידול	6655
דעות	6656
לְ	6657
נמשך	6658
##לכה	6659
##יירה	6660
##ריא	6661
התנאים	6662
##ושם	6663
הסע	6664
אפקט	6665
##חקרים	6666
##סקנה	6667
יעילה	6668
אובמה	6669
dis	6670
mar	6671
דגים	6672
ליל	6673
עזר	6674
##pe	6675
##וגיה	6676
הסבר	6677
##מתם	6678
##ינון	6679
נתפס	6680
נקודה	6681
##קשיב	6682
החברתית	6683
ענה	6684
##ראק	6685
משול	6686
##רבעה	6687
הפק	6688
##נסיה	6689
##וטי	6690
לדמיין	6691
משתת	6692
סטוד	6693
בתחילה	6694
הניצ	6695
מוגבלת	6696
הישראלים	6697
##שתתפים	6698
יוז	6699
מלו	6700
עין	6701
עברה	6702
ששמ	6703
##בסס	6704
התנ	6705
##לונה	6706
ישירה	6707
הציבורי	6708
הדרכים	6709
לתוכ	6710
ממע	6711
המקומית	6712
##ath	6713
להעריך	6714
להעניק	6715
שיחה	6716
תנועת	6717
לברוח	6718
סמכות	6719
בהקשר	6720
זע	6721
חוס	6722
כרו	6723
מית	6724
##מיק	6725
עלות	6726
##מוח	6727
השיניים	6728
איני	6729
##פרץ	6730
##לאי	6731
בשדה	6732
הפחד	6733
ואחד	6734
הקשה	6735
##רגן	6736
אנגל	6737
מצליחים	6738
ולפע	6739
ידידות	6740
מודל	6741
##כנסות	6742
הכולל	6743
נבנה	6744
פגיעה	6745
מספקים	6746
להיראות	6747
co	6748
לנג	6749
נוחות	6750
##ber	6751
##רישה	6752
##ופעות	6753
החוקים	6754
אוג	6755
והכל	6756
הספורט	6757
##רגיל	6758
שבעה	6759
לדוגמא	6760
הקודמת	6761
סימנים	6762
אֶ	6763
חיבור	6764
מיה	6765
ערכים	6766
פח	6767
תוס	6768
##ננו	6769
##ננת	6770
##פריקה	6771
הערה	6772
משכ	6773
##כוניות	6774
הנפט	6775
מטרים	6776
לרוץ	6777
עקרונות	6778
משותפת	6779
ממשיכה	6780
אברהם	6781
בוג	6782
נפתח	6783
תיע	6784
##ne	6785
הספי	6786
מעש	6787
##כונן	6788
שעדיין	6789
מזכיר	6790
כתבה	6791
הפרס	6792
הפרטים	6793
משפיע	6794
תעשה	6795
שיחות	6796
קראתי	6797
br	6798
זול	6799
חום	6800
יור	6801
מרצ	6802
ערים	6803
ריצ	6804
שיטת	6805
##ff	6806
##ולית	6807
במובן	6808
הסתי	6809
הגורמים	6810
##יצים	6811
בקט	6812
לגוף	6813
המשבר	6814
##ימום	6815
רגילים	6816
פרטיים	6817
מעורב	6818
למדתי	6819
למטרות	6820
37	6821
נפת	6822
פירות	6823
ציבורי	6824
״.	6825
##ֶּ	6826
הערים	6827
הביא	6828
ישו	6829
##רכנים	6830
##מתין	6831
##אתה	6832
מקומיים	6833
ובט	6834
ועדת	6835
יצאו	6836
המעבר	6837
אהיה	6838
הוראות	6839
רופאים	6840
החשובים	6841
מעדיף	6842
im	6843
בנה	6844
נבד	6845
שקר	6846
##ax	6847
##ובלת	6848
שהכ	6849
לתאר	6850
מייקל	6851
וכיצד	6852
למעט	6853
נתק	6854
##ics	6855
ארוכות	6856
קיבלתי	6857
חופשית	6858
נוער	6859
לשרוד	6860
בוו	6861
בכתב	6862
##בון	6863
##מורה	6864
המשת	6865
##מהות	6866
בעלה	6867
בשעות	6868
##יימות	6869
הצרכים	6870
הזמנים	6871
לתפקיד	6872
בימי	6873
##ang	6874
נתון	6875
חשיבה	6876
בראשית	6877
הביטוי	6878
מקצועית	6879
##ide	6880
לעצמכם	6881
הצעירים	6882
מצאתי	6883
ממוקם	6884
אוטומטי	6885
dr	6886
res	6887
##ארק	6888
##יקו	6889
##עתה	6890
בקרי	6891
אבו	6892
הביטוח	6893
ארגוני	6894
ייעוץ	6895
[[	6896
רדיו	6897
##יתות	6898
המוט	6899
לאלוהים	6900
##ישוב	6901
##וסקים	6902
##נסו	6903
שמג	6904
לתרום	6905
##לטה	6906
הרביעי	6907
##ond	6908
##גריה	6909
ולהיות	6910
נגמר	6911
יעקב	6912
הצבאי	6913
הסטודנטים	6914
השחקן	6915
דוגמאות	6916
.)	6917
##דרו	6918
##ניזם	6919
המיני	6920
האסטרטג	6921
בשיתוף	6922
לשנה	6923
ההד	6924
לפיתוח	6925
הכבוד	6926
שמק	6927
המקרה	6928
להגיב	6929
פייסבוק	6930
בריאים	6931
תכנון	6932
להתקיים	6933
הישן	6934
דוח	6935
##אליים	6936
##io	6937
##חזר	6938
##גיד	6939
##ותק	6940
האט	6941
מהצ	6942
והי	6943
##כוי	6944
ראיות	6945
תוכנה	6946
##וליטיקה	6947
מומחה	6948
ליצירת	6949
עבודתו	6950
600	6951
לרבות	6952
פנו	6953
פוסט	6954
שור	6955
##סוקה	6956
##יליות	6957
השעה	6958
##ועד	6959
מתרחש	6960
##יסר	6961
הכיבוש	6962
הטיפ	6963
##וזן	6964
נתוני	6965
התעשייה	6966
למחרת	6967
קהל	6968
99	6969
ללח	6970
עזב	6971
##זת	6972
לאף	6973
##דיב	6974
למידה	6975
הבט	6976
מסמכים	6977
מגע	6978
##ere	6979
בדרכים	6980
מפחד	6981
##are	6982
תגית	6983
נייר	6984
תמורת	6985
המודרנית	6986
הכוכבים	6987
בוצ	6988
דיון	6989
ליותר	6990
לשרת	6991
עג	6992
עיו	6993
צמיחה	6994
שחר	6995
שרצ	6996
שוחר	6997
##oin	6998
השטן	6999
##וחרים	7000
הצבע	7001
##לחתי	7002
המחירים	7003
נמצאו	7004
האירועים	7005
קהילה	7006
טוענים	7007
כריסט	7008
מרט	7009
קיצוני	7010
##קרונות	7011
##oy	7012
##זן	7013
##ניע	7014
להופיע	7015
לאומית	7016
הארוך	7017
באזורים	7018
כאחד	7019
בכלא	7020
ברק	7021
הכללית	7022
##בורג	7023
הרשמי	7024
באמריקה	7025
55	7026
pre	7027
איום	7028
גילו	7029
חיוני	7030
תושבים	7031
##פד	7032
##זיות	7033
המזל	7034
##ודאות	7035
##ידר	7036
משימה	7037
##וגות	7038
לעתיד	7039
הגז	7040
לחש	7041
המקדש	7042
חזקים	7043
רובם	7044
נסו	7045
מסוגלת	7046
הנשק	7047
זוכרים	7048
המרכזית	7049
להתקדם	7050
חוזרים	7051
כעבור	7052
##יליאם	7053
בלה	7054
הודות	7055
ושא	7056
פיג	7057
שפע	7058
##לכת	7059
##אד	7060
##ינס	7061
אתרי	7062
##יבורים	7063
במצרים	7064
##לאה	7065
הבניין	7066
מתים	7067
לשיר	7068
הדג	7069
ממס	7070
וחלק	7071
אורח	7072
לרע	7073
שבועיים	7074
שיחק	7075
מרוצה	7076
##age	7077
שותפים	7078
sm	7079
דירה	7080
טיסה	7081
##uc	7082
שהד	7083
משלו	7084
הגרע	7085
חייל	7086
##ence	7087
המערבי	7088
התקדמות	7089
הפרטי	7090
רחבה	7091
בתחומי	7092
הפוליטית	7093
הפנימי	7094
44	7095
air	7096
אורך	7097
ושב	7098
טקס	7099
כניסה	7100
##נין	7101
האומ	7102
החופש	7103
##יעין	7104
הסוף	7105
מסו	7106
לשחרר	7107
לבח	7108
הרשויות	7109
ידיים	7110
בטלוויזיה	7111
מטעם	7112
גבול	7113
אדוני	7114
סטנדר	7115
מוסיקה	7116
מנהלים	7117
העסקים	7118
טכנולוגיות	7119
הלחץ	7120
המכשיר	7121
הכרחי	7122
גוגל	7123
נשב	7124
קובע	7125
רוכ	7126
##גוריה	7127
לארו	7128
התחרות	7129
הסינית	7130
הצליחה	7131
אמורה	7132
מבקרים	7133
ולמה	7134
המשמש	7135
המסורת	7136
אליי	7137
טרם	7138
התוכן	7139
לשלום	7140
להזמין	7141
תרגום	7142
ser	7143
ויא	7144
נר	7145
קנדה	7146
שייך	7147
##זא	7148
##יליון	7149
השיטה	7150
אוסף	7151
והמו	7152
שאינה	7153
הסדר	7154
הקומו	7155
אנטי	7156
מצפים	7157
שנמצא	7158
##ולוגיות	7159
אישיים	7160
יתרון	7161
חשבו	7162
##גורר	7163
בדיקת	7164
זוכרת	7165
עשיר	7166
פועלת	7167
בפייסבוק	7168
מתאימה	7169
פלי	7170
##רדי	7171
##ניקה	7172
לאסוף	7173
##רין	7174
מהט	7175
למשתמש	7176
מתג	7177
לחדר	7178
##שבות	7179
##כתבו	7180
בצורת	7181
הופיע	7182
ארוכים	7183
התחילו	7184
חסרי	7185
למוות	7186
הקטנים	7187
יבוא	7188
המועצות	7189
אמריקאים	7190
שותף	7191
עולמית	7192
טיול	7193
במציאות	7194
הנקודה	7195
לבל	7196
לדרך	7197
נפרד	7198
קונים	7199
תוא	7200
##זינו	7201
המראה	7202
המיוחד	7203
המכונה	7204
האנט	7205
החוויה	7206
לשכנע	7207
אפשרית	7208
##יזון	7209
משפחתי	7210
המאבק	7211
המטוס	7212
קרובים	7213
צעירה	7214
חיינו	7215
במאמר	7216
האויב	7217
השירותים	7218
להרחיב	7219
עשית	7220
##ולדת	7221
המשתתפים	7222
##רופות	7223
##וצמה	7224
הפור	7225
לפרו	7226
הדיון	7227
ובו	7228
##יכרונות	7229
הכלל	7230
המקומות	7231
המקורית	7232
##שמח	7233
##אטרון	7234
תיקון	7235
החיילים	7236
##וסטרליה	7237
יוח	7238
ליע	7239
סוציא	7240
ערבים	7241
עשתה	7242
##יתו	7243
בממוצע	7244
מסיבה	7245
##רבויות	7246
הצער	7247
מבחן	7248
ברמת	7249
##לטת	7250
##יכום	7251
המקומי	7252
חלומות	7253
להכניס	7254
מאתנו	7255
רשתות	7256
אלקטרו	7257
ממליצים	7258
מסכימים	7259
##וקיינוס	7260
הנת	7261
הורה	7262
לבלות	7263
פוט	7264
צורות	7265
##חס	7266
##ph	7267
##ֵּ	7268
שליש	7269
##ניעת	7270
##ולו	7271
למג	7272
הקפה	7273
##יטלק	7274
בהריון	7275
הציל	7276
בכיר	7277
מפתיע	7278
לכמה	7279
שלאחר	7280
##צבעות	7281
יעילות	7282
##בטיח	7283
המחשבה	7284
מפלגת	7285
טעויות	7286
מובן	7287
תשל	7288
##פיר	7289
##+]	7290
להקל	7291
לארה	7292
במדינת	7293
הערבית	7294
הדיו	7295
מבע	7296
אחריו	7297
תקציב	7298
יחס	7299
הרגליים	7300
חסרת	7301
החלטתי	7302
מיומנויות	7303
פורט	7304
פוליטיים	7305
בתוכנית	7306
צבאית	7307
הוקמה	7308
לנקוט	7309
[+]	7310
ne	7311
ארצ	7312
בְּ	7313
גילה	7314
טקסט	7315
סדרה	7316
פוטנציאל	7317
קיץ	7318
##פוי	7319
##ולדות	7320
אתן	7321
##ישמיות	7322
העצמ	7323
מאבק	7324
##וסה	7325
שאלוהים	7326
לקוח	7327
##לקות	7328
הזיכרון	7329
שמחים	7330
המסך	7331
עצמאי	7332
ספרד	7333
פרופ	7334
קריאה	7335
הקרובים	7336
one	7337
fl	7338
ריי	7339
שיד	7340
תראה	7341
##ix	7342
##בדו	7343
למידע	7344
##לונן	7345
מעין	7346
לחשוף	7347
מקס	7348
עצם	7349
##חדש	7350
המשטר	7351
הרשימה	7352
בבני	7353
בטווח	7354
##atch	7355
##סייע	7356
אהב	7357
רחוב	7358
המטופל	7359
סטיב	7360
האמריקאים	7361
האישיים	7362
חוזרת	7363
השקעה	7364
מבוססת	7365
פופולרי	7366
42	7367
out	7368
אשה	7369
טא	7370
נרצ	7371
עמית	7372
פוטנציא	7373
קי	7374
##ביו	7375
לאת	7376
##מוט	7377
משך	7378
הפה	7379
בחור	7380
מבינה	7381
##יצונית	7382
הטכנולוג	7383
##אהב	7384
מטוס	7385
תחנת	7386
##פשט	7387
פתוחה	7388
פנימה	7389
פורסם	7390
שיהיו	7391
המשיח	7392
התרופה	7393
sk	7394
דרישות	7395
יומ	7396
לנת	7397
תוק	7398
##שט	7399
##סמו	7400
##ah	7401
##טימ	7402
האות	7403
##ומק	7404
מהכ	7405
איז	7406
מסוב	7407
הפול	7408
##רגיות	7409
הגבר	7410
בחרו	7411
מימון	7412
בגודל	7413
ראינו	7414
##ירתו	7415
אכז	7416
מעורבים	7417
פיזית	7418
אופי	7419
בים	7420
ביס	7421
חבל	7422
ינו	7423
להקשיב	7424
החורף	7425
אויב	7426
מאמרים	7427
לשירות	7428
ההר	7429
##שוטים	7430
מחבר	7431
אמורים	7432
יהוה	7433
עדן	7434
##ens	7435
הפרק	7436
1996	7437
קשורים	7438
צבעים	7439
דניאל	7440
וכמובן	7441
65	7442
חמצ	7443
סח	7444
קצב	7445
שוח	7446
##פואה	7447
##man	7448
שלפני	7449
לאזור	7450
הידיים	7451
השואה	7452
השופט	7453
השולחן	7454
למשוך	7455
בעיית	7456
##לאת	7457
##לוי	7458
##יסקו	7459
בהג	7460
בסביבות	7461
היומ	7462
צריכות	7463
בדומה	7464
מפות	7465
##ical	7466
התיא	7467
ניסו	7468
עסקי	7469
הנסיעה	7470
השקעות	7471
הצהריים	7472
הכביש	7473
נפטר	7474
?'	7475
לים	7476
##תית	7477
##סיקה	7478
##טור	7479
##פלי	7480
##ודשי	7481
##דיקות	7482
השיחה	7483
מאיר	7484
##יסים	7485
ההוא	7486
אנדר	7487
הנכ	7488
יהודה	7489
הרס	7490
שנש	7491
אנושי	7492
להבח	7493
פרופסור	7494
##olog	7495
כספים	7496
ידועה	7497
לעצמם	7498
intern	7499
חנות	7500
ימין	7501
קוו	7502
שרה	7503
המרכ	7504
המיי	7505
עלויות	7506
באוויר	7507
##חתת	7508
ברירה	7509
הכלכלית	7510
לכלול	7511
שחלק	7512
189	7513
חשבונות	7514
ממוצע	7515
ed	7516
ii	7517
דיי	7518
דרמ	7519
ופר	7520
זמינים	7521
ריח	7522
##ויד	7523
##יונה	7524
##ידוד	7525
אחי	7526
הבת	7527
הבי	7528
הצעות	7529
##ווירה	7530
בחש	7531
הלוח	7532
ברוך	7533
שומע	7534
39	7535
חוזה	7536
קרקע	7537
##בין	7538
##מפיין	7539
##ולק	7540
העדי	7541
העברת	7542
התר	7543
הסביר	7544
לשקול	7545
##מיני	7546
##וזים	7547
רצו	7548
המתאי	7549
לרשות	7550
החלום	7551
סוכר	7552
כשאתם	7553
הגרמנים	7554
בהדרגה	7555
:)	7556
לוא	7557
מיקום	7558
##צח	7559
##כיים	7560
##מורת	7561
##זמה	7562
היפ	7563
השו	7564
אחיו	7565
##זהרה	7566
הפליטים	7567
##יפו	7568
פעילים	7569
ברשות	7570
נקי	7571
בריאה	7572
מוכרים	7573
קריירה	7574
הסרטים	7575
לעצמנו	7576
זמני	7577
הוגן	7578
המודרני	7579
הניסיון	7580
צורת	7581
##ear	7582
##צג	7583
##30	7584
השחור	7585
לעיל	7586
לעורר	7587
הביניים	7588
הפיתוח	7589
הקלי	7590
מעטים	7591
הזכויות	7592
##פיץ	7593
נעלם	7594
##פורד	7595
נקבע	7596
188	7597
במערב	7598
הכוללת	7599
כשאנחנו	7600
מניח	7601
להתעלם	7602
זיהום	7603
ללבוש	7604
מנקודת	7605
אנגליה	7606
אוגוסט	7607
":	7608
lov	7609
ביה	7610
בבל	7611
דיוק	7612
ורצ	7613
חות	7614
מראים	7615
נמל	7616
##נאות	7617
##טין	7618
##תיבת	7619
התושבים	7620
מאוב	7621
##וער	7622
מסק	7623
בשקט	7624
מחזור	7625
מחשבים	7626
הצעת	7627
שמירה	7628
אפל	7629
##ינתי	7630
##שמיים	7631
למערכת	7632
המספרים	7633
שקל	7634
הרוסית	7635
עובדי	7636
##מלכה	7637
##פרייה	7638
יסוד	7639
משאבים	7640
ביפן	7641
הון	7642
ויח	7643
טורקיה	7644
עכ	7645
צמ	7646
קחו	7647
רי	7648
תוספת	7649
##ביים	7650
המוכ	7651
העין	7652
לעד	7653
בקבוצה	7654
בטלפון	7655
##גרפיה	7656
הרופאים	7657
מלכת	7658
הדיגיט	7659
זרי	7660
לידה	7661
מניות	7662
סחר	7663
ציון	7664
תשובות	7665
##רְ	7666
##טוף	7667
##ple	7668
שלג	7669
המוני	7670
לאס	7671
##ופק	7672
במז	7673
במלחמת	7674
החיצוני	7675
##וקת	7676
##יסד	7677
מערי	7678
##נטון	7679
הציג	7680
בחורה	7681
הזכ	7682
בקצב	7683
הריון	7684
##לטות	7685
הכלים	7686
הבריטית	7687
שתמיד	7688
שחשוב	7689
ונש	7690
לפרסם	7691
בעצמך	7692
שהופך	7693
cr	7694
גיא	7695
ורא	7696
חנויות	7697
יומיים	7698
כמש	7699
צמח	7700
קת	7701
קידום	7702
תאים	7703
המנהל	7704
למלחמה	7705
##וקות	7706
התנה	7707
והז	7708
מתאר	7709
##רגשות	7710
הדעת	7711
##וזר	7712
בגין	7713
##יכיא	7714
חברתיים	7715
הפרטיות	7716
הודיעה	7717
נדיר	7718
מיידי	7719
היסטורי	7720
שיכולים	7721
שהגיע	7722
תזונה	7723
אמיתיים	7724
התרופות	7725
בפעילות	7726
להבחין	7727
800	7728
[-	7729
הוצאות	7730
##חיות	7731
##ail	7732
##כנות	7733
##כאון	7734
##נייני	7735
המוג	7736
##רוף	7737
##יקרו	7738
למב	7739
לערוך	7740
הבורא	7741
##יסוק	7742
הכרטיס	7743
צריכת	7744
##שבה	7745
לסמוך	7746
לסבול	7747
בפיתוח	7748
בנייה	7749
186	7750
הודיע	7751
תצטרך	7752
להרוס	7753
שולחן	7754
דואר	7755
זכתה	7756
יוש	7757
יפים	7758
כאל	7759
סיני	7760
##אמה	7761
##בדה	7762
##הות	7763
איי	7764
איזון	7765
שאלו	7766
לחסוך	7767
מקומי	7768
בקיצור	7769
אזורים	7770
בבירור	7771
##פטר	7772
במשפחה	7773
##ick	7774
מלאכות	7775
לתקופה	7776
משקיעים	7777
##ניסטית	7778
להתחבר	7779
מורכבת	7780
נולדה	7781
").	7782
],	7783
gl	7784
sy	7785
חוות	7786
נרחב	7787
##קרה	7788
לאלה	7789
##תיחה	7790
##ומך	7791
השג	7792
התפר	7793
##רגש	7794
הגיוני	7795
אלוקים	7796
שבס	7797
ברזל	7798
בפריז	7799
המחוז	7800
המתאים	7801
רכבת	7802
1998	7803
האמריקנית	7804
כחול	7805
##ime	7806
ליהודים	7807
חרדה	7808
[-]	7809
ונג	7810
חמור	7811
עידן	7812
##שפ	7813
##בדות	7814
##כום	7815
האלוהים	7816
האנגלית	7817
##דיאלי	7818
החיס	7819
שהתח	7820
התס	7821
והנ	7822
##וגע	7823
לעודד	7824
מסלול	7825
מתמיד	7826
הצמיחה	7827
בסיכון	7828
##דרש	7829
מצבים	7830
לתלמידים	7831
##ונלד	7832
תחבורה	7833
רביעי	7834
הנשמה	7835
טבעית	7836
זוכה	7837
הרחב	7838
מרגש	7839
שנערך	7840
סגנון	7841
מכשיר	7842
המפורסם	7843
שמדובר	7844
נוט	7845
שיטה	7846
##בעים	7847
##נאט	7848
שליח	7849
אתגר	7850
להורג	7851
##ליכי	7852
החג	7853
למרכז	7854
איכ	7855
ההריון	7856
מחירי	7857
הצעד	7858
להתרחש	7859
בניין	7860
הרוסי	7861
רעב	7862
המטרות	7863
לזכויות	7864
תשע	7865
1995	7866
יקבל	7867
##act	7868
חברתיות	7869
הרפובליקה	7870
הניתוח	7871
##מפרטורה	7872
החשמל	7873
גרעיני	7874
דיכ	7875
פשע	7876
קולות	7877
##עור	7878
##vi	7879
המבקרים	7880
לשוק	7881
##כונת	7882
ובג	7883
לתע	7884
מדברת	7885
בדברים	7886
נהדרת	7887
##סתכל	7888
##יסטית	7889
אומץ	7890
1997	7891
שהאדם	7892
עולמי	7893
שרוצים	7894
המוקד	7895
גרס	7896
דרכו	7897
כשר	7898
מורים	7899
עריכה	7900
ריב	7901
##מעט	7902
##ניב	7903
##מוני	7904
השירים	7905
שהכל	7906
אוקט	7907
והאם	7908
אימא	7909
##וגו	7910
הבנייה	7911
הפוטנציאל	7912
לשיפור	7913
##וכח	7914
לחזק	7915
בחלל	7916
מטופלים	7917
##נדבים	7918
##פסיד	7919
הפרסום	7920
מושלמת	7921
תגיד	7922
ברוסיה	7923
העצמי	7924
הפארק	7925
>>	7926
בלח	7927
גנ	7928
טיסות	7929
ניכר	7930
עונש	7931
תועלת	7932
##עק	7933
##פירה	7934
##נוקות	7935
המדי	7936
המולד	7937
##ואיד	7938
באחת	7939
##ייץ	7940
##ייני	7941
שבני	7942
לדון	7943
לסגור	7944
בטיפול	7945
##נדס	7946
נעצר	7947
##צבעה	7948
הרווח	7949
##פויות	7950
ההתנגדות	7951
1994	7952
חמישי	7953
הרפואי	7954
תומך	7955
סוכרת	7956
צפויה	7957
שאמרתי	7958
ויטמין	7959
ליט	7960
נשימה	7961
סן	7962
סגן	7963
שכתב	7964
##ֶׁ	7965
האצ	7966
הקבוצות	7967
##יסי	7968
ההפר	7969
ההודעה	7970
בהע	7971
הנור	7972
##עתים	7973
בגל	7974
##אונות	7975
חשובות	7976
##עדון	7977
##ild	7978
##טלר	7979
המכירות	7980
שולח	7981
ראייה	7982
la	7983
קוק	7984
##שְ	7985
##טרון	7986
עליהן	7987
##שרדות	7988
##יבציה	7989
למשהו	7990
הספק	7991
מתמק	7992
בחוק	7993
##מצב	7994
הנביא	7995
ולצ	7996
##eric	7997
##ord	7998
אירופ	7999
##כנסה	8000
בתחומים	8001
קולנוע	8002
קליפורניה	8003
צפויים	8004
שאינן	8005
שוויון	8006
ליישם	8007
with	8008
וּ	8009
ונית	8010
וושינגטון	8011
יט	8012
נתחיל	8013
קס	8014
##נאב	8015
##קאות	8016
##ולן	8017
##ובוסים	8018
##רועות	8019
##יעץ	8020
##וגרפ	8021
הסחר	8022
הקונגרס	8023
##ייף	8024
לחלוק	8025
הכוונה	8026
אלפים	8027
##חקו	8028
יצירות	8029
ילדות	8030
תחומי	8031
נתנו	8032
טיפים	8033
הנסיך	8034
יישום	8035
הפוליטי	8036
הבנקים	8037
הגרמני	8038
office	8039
51	8040
בולט	8041
ווי	8042
וחי	8043
ליש	8044
לניהול	8045
מנות	8046
מילות	8047
מרחב	8048
נל	8049
סביבה	8050
פגש	8051
##כחות	8052
##זקים	8053
##ירתי	8054
##ירוף	8055
##ילר	8056
היפה	8057
כללית	8058
##משיכו	8059
הבמה	8060
ההק	8061
לבנים	8062
##יגים	8063
שעלי	8064
עבורכם	8065
##ong	8066
מטוסים	8067
שישראל	8068
##ash	8069
שיעורי	8070
ודאי	8071
נותרו	8072
המלכה	8073
שומרים	8074
1967	8075
תופעות	8076
ואחרי	8077
סקוט	8078
שרוצה	8079
##ומטרים	8080
רפואית	8081
מייצג	8082
ההצעה	8083
col	8084
ויי	8085
וסט	8086
ייר	8087
ינג	8088
צוע	8089
רמה	8090
תראו	8091
##לומים	8092
##כיל	8093
##פכו	8094
##ֹת	8095
מהווים	8096
##כליות	8097
באנשים	8098
העסקה	8099
משלי	8100
##וכית	8101
הצלב	8102
הדמוקרטיה	8103
ממק	8104
בכיוון	8105
בלע	8106
בלעד	8107
ולהע	8108
אליכם	8109
האישית	8110
##וניברסיטאות	8111
תרופה	8112
דאעש	8113
מדהימה	8114
ההחלטות	8115
מאושרים	8116
חכמים	8117
מוחלטת	8118
האפשרויות	8119
שונא	8120
52	8121
ובל	8122
חלל	8123
יולי	8124
כפר	8125
עשינו	8126
##שיב	8127
האמצ	8128
האחרות	8129
##כללה	8130
שהוק	8131
והיו	8132
והתח	8133
הסיני	8134
##רגו	8135
##נטר	8136
הנרי	8137
לתואר	8138
עצומה	8139
בקושי	8140
לדברים	8141
בגן	8142
ידועים	8143
חזון	8144
חוקית	8145
הרגל	8146
קורס	8147
פניו	8148
רכישת	8149
1993	8150
##אבדות	8151
##מפוס	8152
##נחלויות	8153
המוסלמים	8154
חוויות	8155
תופעה	8156
מתרחשת	8157
no	8158
דמוקרטיה	8159
ורי	8160
יוון	8161
לית	8162
מינ	8163
##ארט	8164
##תת	8165
##כמים	8166
##פיו	8167
החודשים	8168
מקווים	8169
הכרה	8170
אבנים	8171
##צעו	8172
ספרו	8173
חשש	8174
1990	8175
פרטית	8176
##ood	8177
בעצמי	8178
השפעות	8179
נכנסים	8180
הרפואה	8181
כרטיסים	8182
עוצמה	8183
שפורסם	8184
by	8185
חן	8186
##בעה	8187
##קירה	8188
המיל	8189
המצל	8190
##ומנים	8191
באוניברסיטה	8192
שהט	8193
הענק	8194
משימות	8195
הבינו	8196
הקונ	8197
הצעה	8198
##לתם	8199
שעשו	8200
להגביר	8201
##ולוגים	8202
קטל	8203
נהנה	8204
ניסיתי	8205
גורמת	8206
לרשת	8207
מסתכל	8208
ניצחון	8209
פלסטין	8210
מנהיגים	8211
הלוואי	8212
ובמיוחד	8213
בבעלות	8214
מתקדמים	8215
הלהקה	8216
##נאביס	8217
בוחר	8218
דקה	8219
הוז	8220
ולו	8221
קונה	8222
שוט	8223
שתיים	8224
שלטון	8225
##ליפות	8226
##ועות	8227
לעם	8228
##יפוי	8229
הצרפתי	8230
בתפ	8231
מציין	8232
לתכנן	8233
עדות	8234
הראו	8235
עבורנו	8236
ישראלית	8237
מלאים	8238
##זרחים	8239
1991	8240
תתק	8241
המועד	8242
מוחמד	8243
נורמלי	8244
מעורבות	8245
מכשירים	8246
דיאטה	8247
##ound	8248
cb	8249
post	8250
אדי	8251
וכת	8252
ין	8253
מכה	8254
תוצ	8255
##שמים	8256
##נחים	8257
##כירות	8258
המר	8259
המפל	8260
##ודיע	8261
לאמ	8262
##ישו	8263
השע	8264
השמים	8265
החיות	8266
בעידן	8267
בהודו	8268
הציע	8269
לחם	8270
בתנאים	8271
לגשת	8272
מדריך	8273
##ארד	8274
יעשו	8275
עשויות	8276
אדרי	8277
ונע	8278
בפרק	8279
הציבורית	8280
##ife	8281
שבאמת	8282
מדויק	8283
world	8284
השתתפות	8285
בניסיון	8286
46	8287
ווא	8288
נלק	8289
##חילה	8290
##ברט	8291
במגוון	8292
החומרים	8293
החשבון	8294
העמים	8295
##יקף	8296
בעזה	8297
הפט	8298
מקד	8299
בחירת	8300
##חתן	8301
##שבת	8302
מדווח	8303
ברזיל	8304
חייה	8305
##חינה	8306
רגעים	8307
עצמאות	8308
נפוץ	8309
מכלל	8310
פנימי	8311
##כרתי	8312
אופניים	8313
מסתבר	8314
##פריט	8315
עצמאית	8316
נמסר	8317
.'	8318
צמחים	8319
קצרים	8320
##לף	8321
##למי	8322
##בך	8323
##מנטים	8324
##ובלית	8325
##ובליק	8326
האיטלק	8327
בארגון	8328
אוק	8329
מסייע	8330
הקלא	8331
##יסטי	8332
##אלת	8333
בסיפור	8334
היופי	8335
בקבוק	8336
ברשימה	8337
בכדור	8338
##שלכות	8339
רכוש	8340
פריז	8341
מובילה	8342
ציור	8343
לבעיות	8344
##שתתפות	8345
האקלים	8346
לנהוג	8347
כואב	8348
אוקטובר	8349
49	8350
ag	8351
וכש	8352
טילים	8353
נוק	8354
נמשיך	8355
פרא	8356
קרח	8357
##צם	8358
##קח	8359
המלח	8360
ואיר	8361
בתמונה	8362
##וויטר	8363
הנבח	8364
##מותו	8365
מגדל	8366
##פטן	8367
##תחשב	8368
הילדה	8369
הולנד	8370
מלמד	8371
מתקדם	8372
להזכיר	8373
ולקבל	8374
מצוינת	8375
שימושי	8376
רפואיים	8377
'".	8378
qu	8379
זכור	8380
מנוע	8381
ער	8382
קווי	8383
תשא	8384
##לוח	8385
##אנו	8386
##טציה	8387
##כוד	8388
##מלים	8389
##ּוֹ	8390
##זמים	8391
##יליים	8392
למז	8393
ישנים	8394
##רכן	8395
הגר	8396
הגעתי	8397
מחירים	8398
לקבוצה	8399
בכפר	8400
אנוש	8401
אנושית	8402
מזונות	8403
תעופה	8404
מלכות	8405
למשפחה	8406
מקבלת	8407
הומו	8408
ויכול	8409
בפרט	8410
פולין	8411
הצבאית	8412
נחשבת	8413
תלמידי	8414
ממליץ	8415
hot	8416
med	8417
we	8418
גשר	8419
ובלתי	8420
סיב	8421
שמים	8422
שיכ	8423
##רור	8424
##בונן	8425
##סדות	8426
המכון	8427
##ואלים	8428
השניה	8429
השקט	8430
##ידוש	8431
##ותרות	8432
##יינט	8433
הדא	8434
בסדרה	8435
ולד	8436
##סקס	8437
שעש	8438
בטרם	8439
מספרת	8440
הפרלמנט	8441
ונח	8442
קלוריות	8443
הנהג	8444
טבעיים	8445
המודעות	8446
דאגה	8447
למסע	8448
מנהיגות	8449
המחשבות	8450
קילומטרים	8451
פתיחת	8452
47	8453
can	8454
ונה	8455
מיש	8456
שיט	8457
##יכם	8458
##כנון	8459
##פגש	8460
##יתונים	8461
המדו	8462
##ריס	8463
למטרה	8464
לעניין	8465
מתנג	8466
הקצ	8467
##יסוי	8468
הגא	8469
ומתי	8470
עצוב	8471
שכזה	8472
נאס	8473
הלימוד	8474
קשורה	8475
##own	8476
חלבון	8477
חומרי	8478
אשת	8479
##בחר	8480
האנ	8481
האושר	8482
החוב	8483
בעבור	8484
הבדיקה	8485
מתמוד	8486
##מתה	8487
הכות	8488
בספרד	8489
##לטו	8490
מגן	8491
##ink	8492
בצבא	8493
בנושאים	8494
##ary	8495
##ork	8496
המחלקה	8497
נהר	8498
ניסוי	8499
משמעותיים	8500
1992	8501
פרסם	8502
נמנ	8503
סבלנות	8504
בחייו	8505
בקהילה	8506
home	8507
גונג	8508
הליך	8509
חוג	8510
יופי	8511
סת	8512
סיל	8513
##בולות	8514
##פנות	8515
שלע	8516
##ורס	8517
באנגליה	8518
##וקרט	8519
##ושך	8520
##רבו	8521
הפסקת	8522
הדירה	8523
בסט	8524
מבצעים	8525
שמר	8526
עבורך	8527
לנושא	8528
וכאשר	8529
כשע	8530
להביע	8531
ושם	8532
התיירות	8533
##ציית	8534
##ous	8535
למציאות	8536
##iss	8537
##ליטות	8538
האירופ	8539
##ניסיון	8540
שנוכל	8541
כספי	8542
תפקידו	8543
חקירה	8544
ספציפי	8545
##ִּי	8546
החברתיות	8547
שנאמר	8548
hum	8549
דתיים	8550
ונק	8551
כק	8552
לרח	8553
סיטי	8554
פרחים	8555
קח	8556
תוב	8557
##כחו	8558
##זול	8559
##da	8560
היטלר	8561
בשמ	8562
הפועלים	8563
##וכמה	8564
##פתור	8565
##ert	8566
##ולוגיים	8567
ותק	8568
פריטים	8569
ומעלה	8570
משפטית	8571
כתבתי	8572
##זבז	8573
רומא	8574
לבעלי	8575
איטלק	8576
רלוונטי	8577
המונח	8578
דיכאון	8579
דיפל	8580
חירות	8581
חובות	8582
טיי	8583
סגור	8584
ספטמבר	8585
קבל	8586
##ביעות	8587
##סמת	8588
##land	8589
עלתה	8590
באיטליה	8591
מסיבות	8592
הגור	8593
הצלחתי	8594
##יצועים	8595
המשפ	8596
##שמור	8597
##פסה	8598
נהנים	8599
פלסטיני	8600
תיירים	8601
רישיון	8602
העצמאות	8603
love	8604
car	8605
es	8606
בירה	8607
הוביל	8608
כני	8609
נניח	8610
שלושים	8611
##שראי	8612
##ישום	8613
שהוצ	8614
משוכ	8615
הבכ	8616
לשמ	8617
##רתם	8618
הנחה	8619
מגורים	8620
רצוי	8621
כשהייתי	8622
המטבע	8623
##וסטון	8624
החלטת	8625
נותנת	8626
רוחנית	8627
התוכנה	8628
שמעולם	8629
מאפשרים	8630
זכרו	8631
ספינות	8632
המשותף	8633
ההשקעה	8634
אשמח	8635
ביקר	8636
ונשים	8637
מונה	8638
רט	8639
##רר	8640
##כניים	8641
##ָר	8642
מאמצ	8643
##ועי	8644
שאומר	8645
הבנות	8646
הקוס	8647
ההתחלה	8648
##שוו	8649
הדואר	8650
ניתנת	8651
יצחק	8652
##פונית	8653
גילוי	8654
לפתע	8655
הרוחני	8656
האתגרים	8657
הדרושים	8658
ww	8659
דירות	8660
פלטפור	8661
מהלך	8662
העיתון	8663
משתי	8664
##לאם	8665
הסוציא	8666
הגורם	8667
ההומ	8668
לימודים	8669
מבנים	8670
מבוגר	8671
ומט	8672
הראה	8673
##ance	8674
שתק	8675
תהיו	8676
רגילה	8677
נהיגה	8678
המאסטר	8679
האירא	8680
##ירושין	8681
מקצועיים	8682
מרוצים	8683
הרחוב	8684
משפטי	8685
קונס	8686
נדרשים	8687
הוקם	8688
לנקות	8689
האינטרסים	8690
אירועי	8691
נכסים	8692
נובמבר	8693
700	8694
דל	8695
טק	8696
כוע	8697
ערו	8698
שינו	8699
##עס	8700
##ey	8701
##טוק	8702
##כית	8703
##מיון	8704
##gh	8705
אתגרים	8706
לאו	8707
##יפי	8708
##יימה	8709
ולמע	8710
בקנה	8711
בפור	8712
חלקית	8713
לראש	8714
ספרות	8715
##בטא	8716
ההתנהגות	8717
הפעולות	8718
בשלום	8719
הקודמים	8720
גדלה	8721
ההשפעות	8722
האמיתיים	8723
מצטער	8724
החתונה	8725
%,	8726
43	8727
up	8728
דלקת	8729
מכונות	8730
צופים	8731
קונג	8732
קישורים	8733
ריכו	8734
##מני	8735
להיו	8736
להרג	8737
##ואידים	8738
הינם	8739
##כלל	8740
במי	8741
אחורה	8742
החלב	8743
שהז	8744
שהיתה	8745
הסכסוך	8746
ההון	8747
הצטרף	8748
הכשרה	8749
בפג	8750
הרבים	8751
יעלה	8752
##בטיה	8753
מהמח	8754
יקרים	8755
השליטה	8756
250	8757
הטבעי	8758
הוכחה	8759
להיפטר	8760
הנוסעים	8761
64	8762
day	8763
בכם	8764
דפוס	8765
זכו	8766
שומר	8767
תשוב	8768
##ענות	8769
##בנו	8770
##צאים	8771
##ֹא	8772
במשרה	8773
החברתי	8774
הערכים	8775
##יקי	8776
הגענו	8777
מחלקת	8778
הנזק	8779
המעור	8780
הנוער	8781
משתנים	8782
עסקיים	8783
מועדון	8784
מתייחסים	8785
##old	8786
מופת	8787
במאבק	8788
הנאצים	8789
השמאל	8790
להיפגש	8791
cont	8792
הכדורגל	8793
95	8794
אקס	8795
טרו	8796
יוק	8797
קניות	8798
##יול	8799
##פוט	8800
##ודעת	8801
באות	8802
העץ	8803
שאוה	8804
מתוק	8805
הקלה	8806
מעקב	8807
##מימות	8808
לביצוע	8809
בתקשורת	8810
ובנו	8811
מבול	8812
וללא	8813
##וננות	8814
בקר	8815
לצמצם	8816
בטבע	8817
ידו	8818
##פסים	8819
במשפט	8820
הנושאים	8821
מוסלמים	8822
ביטול	8823
מופיעה	8824
##גוריות	8825
##ivers	8826
טיפולים	8827
##נחלים	8828
דורשים	8829
comm	8830
סכנה	8831
ואחרים	8832
שיצא	8833
הפיזי	8834
האימפריה	8835
av	8836
net	8837
דינ	8838
ותה	8839
יישאר	8840
נפל	8841
##נוב	8842
המניות	8843
האלימות	8844
שאה	8845
##משכת	8846
הבירה	8847
הבתים	8848
הסול	8849
הסופ	8850
מסמך	8851
עבורו	8852
דבריו	8853
מטבע	8854
להגנה	8855
##ank	8856
##טריה	8857
אביה	8858
חזרו	8859
הרגשות	8860
עסקית	8861
ביטח	8862
יקבלו	8863
העובדות	8864
השפעת	8865
הרצפה	8866
הקולנוע	8867
פיליפ	8868
תיירות	8869
לסטודנטים	8870
הנישואין	8871
,”	8872
דמו	8873
חוט	8874
ילי	8875
לרק	8876
נוז	8877
סבא	8878
סמוך	8879
רעה	8880
תמשיך	8881
##ננות	8882
התנג	8883
התשלום	8884
לעת	8885
לחוש	8886
ליח	8887
לקום	8888
לקחו	8889
שמב	8890
##והים	8891
בכירים	8892
הלכה	8893
כשמד	8894
המתנה	8895
##קטיבי	8896
פתוחים	8897
חוקר	8898
אסון	8899
התחילה	8900
רוחני	8901
לתקשר	8902
הסכמה	8903
לימודי	8904
נישואין	8905
פירושו	8906
משתתפים	8907
ולפעמים	8908
53	8909
war	8910
הוציא	8911
לוס	8912
לומד	8913
מיר	8914
מפקד	8915
ניכ	8916
נכונות	8917
פנט	8918
רשויות	8919
תמצאו	8920
##רדים	8921
##אטה	8922
##ואנה	8923
##ואלית	8924
הארכ	8925
האנג	8926
האשראי	8927
השער	8928
העמ	8929
לעזרה	8930
##זהר	8931
הדמויות	8932
שמטרת	8933
##לטים	8934
חדרים	8935
עבורם	8936
התקציב	8937
הרגיל	8938
בנפרד	8939
שהגיעו	8940
סיכונים	8941
המלאה	8942
##ights	8943
ייחודית	8944
85	8945
ייחוד	8946
כוונה	8947
עסקה	8948
שכול	8949
##ישן	8950
באוט	8951
למחקר	8952
##וצי	8953
מאלה	8954
ואה	8955
הקר	8956
לשמר	8957
בהיות	8958
הצדק	8959
לחברות	8960
הנמו	8961
##חתו	8962
שעשה	8963
##ימיות	8964
המחבר	8965
##צהרה	8966
##פלציה	8967
הופעות	8968
לפעילות	8969
לרמה	8970
ברחובות	8971
חופשיים	8972
בעצמם	8973
לחגוג	8974
הספינה	8975
מרטין	8976
בנים	8977
בודד	8978
כיו	8979
לרצות	8980
מלונות	8981
עמודים	8982
פשוטים	8983
##ערת	8984
##בקים	8985
##oh	8986
##יוב	8987
היג	8988
אחים	8989
העשרים	8990
למדו	8991
משוב	8992
מאסר	8993
הסל	8994
הקוב	8995
בהתחשב	8996
מחצית	8997
##יינות	8998
##רטים	8999
מכון	9000
##ימט	9001
##חייבות	9002
##עינית	9003
קורבנות	9004
אופטימ	9005
השלכות	9006
1948	9007
מהחיים	9008
תומכים	9009
sw	9010
ארד	9011
דתי	9012
יכ	9013
פיטר	9014
קישור	9015
האומה	9016
האוצר	9017
באיזו	9018
במידע	9019
במדיניות	9020
התודעה	9021
בשילוב	9022
הקיר	9023
##יטוא	9024
מענה	9025
הצט	9026
בתנאי	9027
בסכנה	9028
##יצוץ	9029
הטיסה	9030
לתא	9031
כמוך	9032
##פקוד	9033
הלכתי	9034
נתקל	9035
למשפט	9036
ופיתוח	9037
הסרטן	9038
ממוש	9039
משלמים	9040
פרקים	9041
זוגות	9042
החשיבות	9043
היסוד	9044
לצערי	9045
מתכננים	9046
fre	9047
דמויות	9048
ויליאם	9049
זמנים	9050
חטא	9051
עולים	9052
פסטיבל	9053
קסם	9054
##שׁ	9055
##בקות	9056
##ורן	9057
##ולנד	9058
המלו	9059
##ישלון	9060
##יבטים	9061
התואר	9062
בעונה	9063
לעצב	9064
הפיק	9065
ואכן	9066
הקיימים	9067
מעניינים	9068
הגזע	9069
##אתם	9070
הדוקט	9071
לקידום	9072
עצים	9073
עצמן	9074
תקצ	9075
יעד	9076
##פשרו	9077
אהוב	9078
##בקשים	9079
פנימית	9080
במוח	9081
120	9082
##ase	9083
האישיות	9084
ארבעת	9085
המבצע	9086
המלצות	9087
להסתיר	9088
עקבו	9089
סוכנות	9090
שמאפשר	9091
האלקטרוני	9092
hiv	9093
pe	9094
גברת	9095
חווים	9096
מוני	9097
מרחק	9098
ערוץ	9099
##af	9100
##sh	9101
##bc	9102
##נושות	9103
השעון	9104
באר	9105
התז	9106
##נתם	9107
##יסא	9108
ההנה	9109
בחינוך	9110
הרפת	9111
בכיתה	9112
וכמו	9113
שקיבל	9114
הנוג	9115
כתבי	9116
##פלסט	9117
אספקת	9118
187	9119
מועמד	9120
במוזיאון	9121
בעברית	9122
ייתן	9123
אמריקאית	9124
לעצמה	9125
המשיכו	9126
הגרמנית	9127
americ	9128
מתאימים	9129
ברכב	9130
##ext	9131
להרשות	9132
עיתונאים	9133
##ליגנציה	9134
life	9135
sec	9136
אפריל	9137
דצמבר	9138
לכולנו	9139
ערבי	9140
צוח	9141
שנוע	9142
##איים	9143
##שומת	9144
##ile	9145
##מישה	9146
##פין	9147
##ַל	9148
##ומכים	9149
באותם	9150
הערות	9151
##וצץ	9152
מאיפה	9153
##וגן	9154
הסופי	9155
הסובי	9156
##רבת	9157
הפסיכולוג	9158
הקיים	9159
##רגת	9160
לשוב	9161
##רכב	9162
לחודש	9163
מקומית	9164
שמגיע	9165
אחדות	9166
##וננו	9167
שנאה	9168
בימינו	9169
לכבוד	9170
##קטור	9171
אדמות	9172
מוסיף	9173
התחושה	9174
מלחמות	9175
ובעיקר	9176
שנעשה	9177
נוכח	9178
המפגש	9179
החליטו	9180
האקדמיה	9181
באפשרותך	9182
--	9183
aw	9184
גרסה	9185
ופת	9186
מיט	9187
פליטים	9188
רעים	9189
שיס	9190
תורה	9191
##port	9192
##ֵי	9193
להיח	9194
השיווק	9195
התמק	9196
##וחי	9197
##יעוט	9198
##פרה	9199
הסופית	9200
לפלסט	9201
בהיר	9202
לגברים	9203
ברע	9204
יציבות	9205
התעל	9206
מוזמנים	9207
##בולוציה	9208
תלויה	9209
דורשת	9210
הסכום	9211
נמנע	9212
מעדיפים	9213
הסיכוי	9214
בנסיבות	9215
מצחיק	9216
##ראקציה	9217
des	9218
gre	9219
mac	9220
בנג	9221
דומ	9222
חצ	9223
טייס	9224
משרת	9225
נרח	9226
סבור	9227
סבתא	9228
##שטיין	9229
##חל	9230
##חז	9231
##מאי	9232
##פיד	9233
##נום	9234
לאישה	9235
האולי	9236
עלו	9237
##ידקים	9238
מאוניברסיטת	9239
אייר	9240
איחוד	9241
לעסקים	9242
הביאו	9243
בשב	9244
##יטרה	9245
לשתי	9246
לשבור	9247
##יפיות	9248
##בהיר	9249
##סקות	9250
נעליים	9251
אינכם	9252
כשיש	9253
##קטיבית	9254
##בירו	9255
התחלה	9256
בראיון	9257
רפואה	9258
מובילים	9259
הקשור	9260
ולעשות	9261
כיסוי	9262
ינואר	9263
41	9264
sch	9265
אעשה	9266
חוף	9267
לוי	9268
מלי	9269
מיום	9270
נרש	9271
פינ	9272
צהוב	9273
תפסיק	9274
##לר	9275
##ךְ	9276
##גרה	9277
##מניה	9278
##pn	9279
##יווד	9280
##יומים	9281
השיג	9282
השגר	9283
התאים	9284
##וחח	9285
לעסוק	9286
הקת	9287
##יטור	9288
הדמות	9289
בחיפוש	9290
שעושה	9291
תקבל	9292
הלכת	9293
קורסים	9294
180	9295
שומעים	9296
##מעלה	9297
הפסקה	9298
בידיים	9299
הקשורות	9300
סיפרה	9301
רישום	9302
##ואליציה	9303
הצרפתית	9304
"[	9305
אנה	9306
אזהרה	9307
ליב	9308
עדים	9309
פונק	9310
תכש	9311
##ys	9312
##fl	9313
לאיש	9314
לארצות	9315
##כלול	9316
השיב	9317
השוו	9318
מתנות	9319
##יפיור	9320
מעריכים	9321
לבכות	9322
ובד	9323
שמור	9324
לכב	9325
וחבר	9326
##יזציה	9327
ניסויים	9328
תשעה	9329
##ליטת	9330
מיוע	9331
חמורה	9332
קשיים	9333
האיכות	9334
1945	9335
רשאי	9336
תיאטרון	9337
דיוויד	9338
##נרל	9339
כעס	9340
המושלם	9341
פיזי	9342
מיידית	9343
משלהם	9344
עריכת	9345
59	9346
bus	9347
ic	9348
אע	9349
דגל	9350
חינו	9351
כמת	9352
מלווה	9353
ראתה	9354
שדי	9355
תום	9356
##גול	9357
##גנו	9358
##גלות	9359
##der	9360
##רוח	9361
מהמו	9362
אחדים	9363
מאורג	9364
שאדם	9365
הפצ	9366
לשום	9367
##נטו	9368
הצו	9369
לחדש	9370
בתמורה	9371
בחברת	9372
שביצ	9373
הטקסט	9374
לסוג	9375
מטע	9376
מטה	9377
התערוכה	9378
בהתבסס	9379
להשיב	9380
להשגת	9381
מיועד	9382
נשארו	9383
המועדון	9384
פלסטינית	9385
החמישי	9386
##יוויד	9387
שתוכלו	9388
הצפוני	9389
הסתיימה	9390
דן	9391
דעה	9392
וילדים	9393
כושר	9394
כרגיל	9395
מנד	9396
סוס	9397
סמית	9398
ענ	9399
שופט	9400
##טוס	9401
##פוץ	9402
##ורידה	9403
##רופ	9404
החס	9405
למשרד	9406
##וצרות	9407
לעוד	9408
בשיעור	9409
הקסם	9410
בהצ	9411
מחליט	9412
מחסור	9413
בתה	9414
הכותרת	9415
בסעיף	9416
הטעם	9417
מפגש	9418
ידעה	9419
להפיק	9420
נפגש	9421
##out	9422
נאמנות	9423
##בחרו	9424
כהן	9425
הנהר	9426
פרש	9427
1944	9428
הרפוא	9429
הגבוהים	9430
כרטיסי	9431
דתית	9432
##יתונאים	9433
האתגר	9434
חכמה	9435
פוגע	9436
לממשלה	9437
##נמרק	9438
פרנסיסקו	9439
human	9440
טיימס	9441
ec	9442
דק	9443
הלט	9444
סודות	9445
##tr	9446
##זבת	9447
לאמץ	9448
שהוש	9449
למסקנה	9450
מאמן	9451
הסופר	9452
מתפת	9453
הפש	9454
לביט	9455
אמרת	9456
אפריק	9457
##ern	9458
##סקו	9459
##ons	9460
המקומיים	9461
##anc	9462
יצאה	9463
##שמע	9464
אירלנד	9465
אסירים	9466
תכניות	9467
חייך	9468
##ign	9469
יגיעו	9470
בסיסי	9471
העליונה	9472
##טונו	9473
הכנסות	9474
שהעולם	9475
כישלון	9476
קובץ	9477
ass	9478
שראיתי	9479
tw	9480
דומות	9481
צר	9482
שחרור	9483
##פנו	9484
##line	9485
##ֶם	9486
לאחת	9487
השנתי	9488
למדינות	9489
משי	9490
מארק	9491
##יפון	9492
אלן	9493
בסמים	9494
הטכני	9495
##וזרים	9496
להתפתחות	9497
לגעת	9498
לגדל	9499
עדכון	9500
לנוע	9501
יציב	9502
וכדי	9503
##תחילו	9504
המסלול	9505
וזהו	9506
לפתרון	9507
המודל	9508
שמשהו	9509
היצירה	9510
במצבים	9511
זיהוי	9512
הפנימית	9513
מביאים	9514
ייקח	9515
דמוקרטית	9516
המותג	9517
67	9518
היותר	9519
ויז	9520
מִ	9521
נכס	9522
צא	9523
שרבים	9524
##דתי	9525
##חח	9526
##פיס	9527
##פלת	9528
##נוני	9529
להרים	9530
הארגונים	9531
##ופשה	9532
באפריקה	9533
החליטה	9534
שהוב	9535
##להבות	9536
ואינו	9537
ואומר	9538
ואנשים	9539
##רגם	9540
לבדו	9541
אמן	9542
ובמה	9543
##וזיציה	9544
##יגוד	9545
בגדה	9546
##יכוח	9547
המתים	9548
נשמה	9549
יחדיו	9550
הגבולות	9551
מופע	9552
ידענו	9553
לרופא	9554
##יניהן	9555
מתעור	9556
אצלי	9557
פילוס	9558
ההבדלים	9559
דוגמא	9560
##רוסופט	9561
לטייל	9562
מתכוונים	9563
מוקדמת	9564
מפחיד	9565
לואיס	9566
58	9567
watch	9568
גובה	9569
גשם	9570
הות	9571
חמו	9572
סך	9573
סינ	9574
##ונס	9575
##שרו	9576
##נור	9577
##נקה	9578
שלישית	9579
##וריא	9580
מהות	9581
החיסון	9582
שהרי	9583
שהדבר	9584
##יקן	9585
##יקון	9586
התובע	9587
שאלת	9588
".[	9589
מבקר	9590
שנשא	9591
מגלים	9592
שעון	9593
הלכו	9594
תהליכים	9595
ולהצ	9596
ותע	9597
במוע	9598
למחוק	9599
המשיכה	9600
שוקולד	9601
הפגישה	9602
נאלץ	9603
באחריות	9604
המצלמה	9605
56	9606
אמה	9607
הרים	9608
זרה	9609
מפה	9610
סמל	9611
צופה	9612
##שנו	9613
##נדים	9614
##ְר	9615
##gr	9616
##12	9617
##יתן	9618
המדה	9619
המיקום	9620
לאינטרנט	9621
אוז	9622
למים	9623
##יאונים	9624
הבקשה	9625
בשאלה	9626
##נסי	9627
##כוז	9628
לתוצאות	9629
##חקים	9630
שנמ	9631
יצירה	9632
יצליח	9633
##וריית	9634
הנוגע	9635
אורחים	9636
אובייקט	9637
התגלה	9638
חתול	9639
וברא	9640
ובכלל	9641
הלוואה	9642
קדוש	9643
univers	9644
##ake	9645
המורכ	9646
המובילים	9647
בודדים	9648
אלכסנדר	9649
מסחרי	9650
לתוכנית	9651
international	9652
אוד	9653
ברב	9654
קרק	9655
קאר	9656
שרת	9657
ששת	9658
##כיות	9659
##פץ	9660
הממוק	9661
להיא	9662
##תייש	9663
הייח	9664
במשהו	9665
החולה	9666
כלכליים	9667
משלם	9668
שאיר	9669
##נתר	9670
מעורר	9671
##ייג	9672
מקלט	9673
שבק	9674
##ישהי	9675
בגוד	9676
בכבוד	9677
רצתה	9678
יחידה	9679
נמצאות	9680
החלומות	9681
פרשת	9682
ארבעים	9683
1989	9684
לברר	9685
הרצח	9686
הטבעית	9687
המוסיקה	9688
כפול	9689
''.	9690
נישואים	9691
הדרומי	9692
החקירה	9693
מרכיב	9694
act	9695
tag	9696
אכל	9697
אשתי	9698
הנט	9699
זילנד	9700
חווה	9701
כף	9702
מכונה	9703
עוסק	9704
שטר	9705
##דאי	9706
##חף	9707
##הר	9708
##ךָ	9709
##ממה	9710
##ok	9711
לאותו	9712
האבטחה	9713
היקף	9714
##ידס	9715
במדבר	9716
אחות	9717
אונס	9718
אוקרא	9719
ואלה	9720
הקיצוני	9721
מעשים	9722
מעריך	9723
שבש	9724
מכדי	9725
אזורי	9726
##יגות	9727
##נקציות	9728
להגשים	9729
המסת	9730
יחזור	9731
##ise	9732
##ions	9733
הוראה	9734
כביש	9735
עיראק	9736
הרעיונות	9737
סימני	9738
משמשים	9739
צהריים	9740
שאחרי	9741
פותח	9742
החופשי	9743
דוקטור	9744
##זאזל	9745
cent	9746
cook	9747
חשים	9748
ייפ	9749
מוא	9750
נסה	9751
פומ	9752
קלים	9753
קושי	9754
##אפשר	9755
##ציונ	9756
##מרות	9757
שלט	9758
המידה	9759
##ודדים	9760
לאשר	9761
##ירויות	9762
אחרונה	9763
משטר	9764
לעזאזל	9765
הביקור	9766
הסוד	9767
הסיפורים	9768
בשו	9769
הפוך	9770
מחכים	9771
לחצו	9772
ולראות	9773
מכר	9774
כמוני	9775
בבת	9776
יצטרכו	9777
הרוגים	9778
נקראת	9779
מאזן	9780
מוסד	9781
תגיות	9782
##כנולוגיות	9783
המשפטי	9784
מופיעים	9785
נדבר	9786
לתקוף	9787
תפילה	9788
עוזרים	9789
מיקרו	9790
ענקית	9791
ומדוע	9792
אֶת	9793
el	9794
גני	9795
חמים	9796
יופ	9797
יורד	9798
נוטה	9799
פוס	9800
קינג	9801
’.	9802
##ייד	9803
##ביע	9804
##בורים	9805
##כורת	9806
##ms	9807
##ֶה	9808
##נוג	9809
להנ	9810
להורים	9811
##לישה	9812
באתי	9813
החזון	9814
כללים	9815
##ועת	9816
##בלנות	9817
לעשן	9818
בשבת	9819
הקרח	9820
##וויץ	9821
מקסיקו	9822
בחנות	9823
בחודשים	9824
היוע	9825
עצב	9826
להתפתח	9827
לדרוש	9828
לכבד	9829
##יכוב	9830
כולן	9831
וחס	9832
רגשית	9833
הפרה	9834
הפרעות	9835
נפוצה	9836
המטבח	9837
ההתפתחות	9838
הוריו	9839
קולומ	9840
מצביעים	9841
##גוררים	9842
ילדיהם	9843
באירוע	9844
קלינטון	9845
ובעלי	9846
הקורס	9847
מחויבות	9848
מבקשת	9849
הצטרפו	9850
##דיביד	9851
do	9852
ברגל	9853
גאים	9854
נגר	9855
קנה	9856
שתח	9857
##צרות	9858
##ננה	9859
##קתי	9860
##קנים	9861
##גרי	9862
##ממות	9863
##bs	9864
##ניתי	9865
המורים	9866
##ילך	9867
##ליא	9868
השכר	9869
במשא	9870
אחרון	9871
הסיוע	9872
הפשוט	9873
הפתיחה	9874
הקומ	9875
מעצב	9876
מקובל	9877
אמנים	9878
כאבי	9879
##מציא	9880
בקלי	9881
##פקים	9882
בדקו	9883
##מודי	9884
##רקציות	9885
בצבע	9886
##ימונים	9887
נערה	9888
כשנ	9889
רעש	9890
מועיל	9891
ופשוט	9892
פגישה	9893
משקאות	9894
היסטורית	9895
comp	9896
עמדות	9897
##ליקציות	9898
נמוכים	9899
נוצרים	9900
שעליו	9901
הקונס	9902
המנהלים	9903
www	9904
!)	9905
54	9906
72	9907
mus	9908
not	9909
בפת	9910
דורות	9911
ויד	9912
זכר	9913
נתי	9914
פוש	9915
##יכול	9916
הארצ	9917
##רוכות	9918
באהבה	9919
במבט	9920
בערים	9921
מסי	9922
מעגל	9923
לבי	9924
##אלים	9925
בחורף	9926
שבוצ	9927
##אינט	9928
##חדשות	9929
לגייס	9930
בפארק	9931
ממתי	9932
##מדתי	9933
כמח	9934
נוסע	9935
##רסו	9936
##ארית	9937
לטוב	9938
ותמיד	9939
היחס	9940
גורמי	9941
לרעה	9942
##עתיד	9943
זקוקה	9944
עשורים	9945
1000	9946
התוכניות	9947
מהאנשים	9948
תפקידים	9949
טענה	9950
טענות	9951
מנהיגי	9952
להתעורר	9953
עונת	9954
מסעדות	9955
play	9956
דיווחו	9957
מודרני	9958
מנגנון	9959
acc	9960
66	9961
ev	9962
אריק	9963
בוגר	9964
יראה	9965
יושבים	9966
כשת	9967
מפק	9968
נשל	9969
נודע	9970
עמנו	9971
פוח	9972
קלות	9973
שווים	9974
##ותקים	9975
##נוי	9976
המכתב	9977
להשו	9978
לארגון	9979
##יומי	9980
האה	9981
האוה	9982
##ומטר	9983
מהנה	9984
אישר	9985
##פרק	9986
מעמ	9987
ההרג	9988
"...	9989
הכפ	9990
במהרה	9991
נשלח	9992
הודעת	9993
אינטנס	9994
ברוכים	9995
##ade	9996
נשארים	9997
תנועות	9998
ניצול	9999
באיראן	10000
##ult	10001
מחויבים	10002
טכנולוגיית	10003
לנשיא	10004
met	10005
בניהול	10006
דיל	10007
ימשיכו	10008
לירות	10009
פברואר	10010
רושם	10011
תושב	10012
##אוס	10013
##ייקטים	10014
##נברג	10015
##ric	10016
##ָם	10017
האוקיינוס	10018
##ריב	10019
##דיף	10020
אחראית	10021
משטרת	10022
מאנשים	10023
הבול	10024
הסח	10025
ההבנה	10026
הצורה	10027
הדגיש	10028
אמין	10029
##שימים	10030
##מצאות	10031
ולעתים	10032
פעילה	10033
עצה	10034
הרשמית	10035
בדף	10036
##רובת	10037
##ont	10038
נפגע	10039
הרגשה	10040
יוצרת	10041
העירייה	10042
inst	10043
חלון	10044
מרע	10045
ברוח	10046
כוחו	10047
תרומה	10048
אשמה	10049
חתולים	10050
##ליקציה	10051
דעתו	10052
ספציפיים	10053
דרי	10054
דווח	10055
ימשיך	10056
כתיבה	10057
שדות	10058
##צתי	10059
##זוקה	10060
##ומרי	10061
החזק	10062
הצפון	10063
לחינוך	10064
הכתיבה	10065
וממש	10066
הרביעית	10067
##רובה	10068
נעשו	10069
שתע	10070
רצינית	10071
##רגישו	10072
נסיעות	10073
לרפואה	10074
זקן	10075
יבש	10076
הוכיח	10077
האורחים	10078
האגודה	10079
##ave	10080
art	10081
מעניינת	10082
הסיכויים	10083
ההיסטורי	10084
sci	10085
מתכוונת	10086
hotel	10087
כשמדובר	10088
מרה	10089
נרד	10090
סני	10091
ערבית	10092
##לולים	10093
##כזב	10094
##מולה	10095
##פיקה	10096
##ילא	10097
שהיית	10098
כלכלה	10099
##ראתה	10100
העלות	10101
למדיניות	10102
התשובות	10103
בעיניים	10104
##פרת	10105
הגידול	10106
ההפ	10107
הדרום	10108
הכריז	10109
##שתם	10110
##מצאת	10111
הנכס	10112
הטבעת	10113
המשפחות	10114
הרלוו	10115
ברלין	10116
בדירה	10117
בטקס	10118
##iness	10119
##טייה	10120
##פעלה	10121
ארוחות	10122
במחנה	10123
מוזיק	10124
ביצועים	10125
טיפוס	10126
מיוחדות	10127
מידת	10128
1979	10129
בתוכו	10130
טועה	10131
קבועה	10132
ההזמנה	10133
בתעשיית	10134
ולבסוף	10135
המשותפת	10136
הסימפטומים	10137
בפרויקט	10138
);	10139
62	10140
אֲ	10141
נכונים	10142
עיבוד	10143
שורה	10144
שולט	10145
שוטרים	10146
##נאם	10147
##מלא	10148
שלילי	10149
לאמנות	10150
##יווי	10151
##ילס	10152
במידת	10153
אחראים	10154
מאמצים	10155
אימו	10156
ההכרה	10157
לבנון	10158
לקט	10159
ובכ	10160
שמתי	10161
##סטי	10162
עצות	10163
##וטית	10164
ממקום	10165
הכללים	10166
ממשלות	10167
."[	10168
##צועה	10169
הופיעו	10170
איתן	10171
inc	10172
##ame	10173
חופשה	10174
עשירים	10175
1988	10176
שנוצר	10177
ולתת	10178
##פתחויות	10179
מתמודדים	10180
!”	10181
gu	10182
par	10183
כמי	10184
כוונת	10185
פנה	10186
צול	10187
קנדי	10188
תמצא	10189
##ton	10190
האוסטר	10191
עלולות	10192
השמיים	10193
העלייה	10194
##יקוש	10195
לעובדים	10196
הבד	10197
הבחור	10198
ואן	10199
הגרסה	10200
##מיץ	10201
##מצום	10202
ולכל	10203
שקלים	10204
לטעון	10205
מועמדים	10206
ind	10207
במערכות	10208
1986	10209
דיווחים	10210
קהילת	10211
חמשת	10212
תומכת	10213
מחפשת	10214
ראויה	10215
עוברת	10216
אסטרטגיות	10217
המופע	10218
מבחינתי	10219
בחייהם	10220
לנגן	10221
sky	10222
##ology	10223
רוט	10224
##ערה	10225
##ביעת	10226
##חיים	10227
##נעו	10228
##ַת	10229
##for	10230
שלילית	10231
##מוי	10232
##ומדת	10233
באוסטרליה	10234
במילה	10235
העכ	10236
והופ	10237
מסגרת	10238
הקמפיין	10239
ההוצאות	10240
מחול	10241
בתחרות	10242
הזר	10243
הטענה	10244
מכירת	10245
בביט	10246
שנפ	10247
לצחוק	10248
מפורט	10249
בצה	10250
##orn	10251
##צעד	10252
רצונו	10253
##בודות	10254
##יסטן	10255
מוסרית	10256
התחבורה	10257
ניסיונות	10258
##כנסו	10259
האירופית	10260
ביצים	10261
הרכישה	10262
מכונת	10263
##ינתן	10264
אסטרטגיה	10265
##ליסטית	10266
לקהילה	10267
???	10268
הגרעין	10269
איכשהו	10270
cre	10271
בנט	10272
בואי	10273
הניהול	10274
ונצ	10275
חסי	10276
טיע	10277
ירח	10278
מרד	10279
סוסים	10280
שופ	10281
שנס	10282
##בירות	10283
##ולר	10284
האוכלוס	10285
האזורים	10286
למניעת	10287
##וגי	10288
##רכיב	10289
לפחד	10290
לחל	10291
הדף	10292
מקל	10293
##יחים	10294
##רטה	10295
הראשית	10296
מפעל	10297
אנושיים	10298
מטבעות	10299
תחנות	10300
##row	10301
במונחים	10302
להכיל	10303
אופנה	10304
מזהה	10305
אזרחות	10306
נכנסו	10307
!".	10308
##נדרטים	10309
your	10310
אוטומטית	10311
הכספים	10312
למשתמשים	10313
לפלסטינים	10314
57	10315
בונה	10316
הוות	10317
חני	10318
פוטר	10319
צמי	10320
##רנו	10321
##ימן	10322
##ty	10323
##tle	10324
##כניות	10325
##ָׁ	10326
המרחק	10327
להפסיד	10328
לאלו	10329
השעות	10330
באופ	10331
שהול	10332
שהפך	10333
אוי	10334
התלמיד	10335
##רגדיה	10336
לשכור	10337
ההיא	10338
##נטינה	10339
מחיי	10340
מחובר	10341
אלטר	10342
אפס	10343
##שבתי	10344
הרדיו	10345
שנמצאים	10346
בדרכ	10347
##רקו	10348
##נדו	10349
לכלא	10350
##צרית	10351
חזקות	10352
משפיעה	10353
קוראת	10354
ונראה	10355
ביקורות	10356
##ower	10357
יאפשר	10358
בזהירות	10359
קהילות	10360
החשיבה	10361
לבעיה	10362
ברשתות	10363
נוגע	10364
##תמשים	10365
סטודנט	10366
##oint	10367
ויאמר	10368
שעשיתי	10369
aut	10370
ro	10371
טום	10372
ימינו	10373
ככ	10374
ענן	10375
תות	10376
##les	10377
##ובש	10378
##ואליות	10379
זהירות	10380
החט	10381
מאו	10382
והרבה	10383
הסתיים	10384
ואנשי	10385
לביטחון	10386
מחק	10387
מחז	10388
##אתר	10389
הדלק	10390
מקרוב	10391
מקוון	10392
שבט	10393
כאבים	10394
מבפנים	10395
##יצב	10396
מדד	10397
בבסיס	10398
בטעות	10399
לכנס	10400
##ale	10401
רגיש	10402
התיק	10403
התחלנו	10404
##חלטה	10405
חיוביות	10406
יגרום	10407
פוליטיקה	10408
מרוויח	10409
המכירה	10410
התפילה	10411
בעצמכם	10412
מורכבות	10413
מודרנית	10414
לקהל	10415
דלתות	10416
טכניקות	10417
בושה	10418
בוכה	10419
דגש	10420
נובע	10421
נשוי	10422
צרפתי	10423
##au	10424
##ַע	10425
##ַח	10426
##ולציה	10427
##יהו	10428
האיזון	10429
השבת	10430
במרחב	10431
העמו	10432
והל	10433
והרג	10434
שאוכל	10435
מתפ	10436
מתוח	10437
מתכנן	10438
הקבלה	10439
אנד	10440
מחמ	10441
לקור	10442
שמכ	10443
בקשות	10444
יהפוך	10445
לסוף	10446
ראית	10447
אלוה	10448
##נדסה	10449
ושני	10450
##lect	10451
מודא	10452
והאח	10453
טרנס	10454
לוקחת	10455
טענו	10456
קצין	10457
השרירים	10458
הוצאת	10459
סבורים	10460
השכרת	10461
בתעשייה	10462
מרכיבים	10463
קמפיין	10464
הספציפ	10465
##פדפן	10466
ריכוז	10467
68	10468
mba	10469
גופים	10470
ויקט	10471
וכולם	10472
וניהול	10473
ייס	10474
לכו	10475
נראו	10476
עמדו	10477
ציט	10478
קץ	10479
רץ	10480
ששו	10481
##למוד	10482
##cc	10483
##ניו	10484
##יהום	10485
השמות	10486
הבש	10487
הבגדים	10488
הסקר	10489
הסוכנות	10490
בשמחה	10491
לשאלות	10492
לביקור	10493
לחסל	10494
##יחת	10495
ולט	10496
##ינור	10497
הרמ	10498
לוואי	10499
בוושינגטון	10500
##נדבות	10501
נערך	10502
כשזה	10503
אדיר	10504
נסיבות	10505
מנהלת	10506
חיוך	10507
בברכה	10508
בקרבת	10509
פלסטיק	10510
##app	10511
שותפות	10512
ומאז	10513
תרבותית	10514
כוכבי	10515
what	10516
קבצים	10517
האפשרי	10518
##press	10519
88	10520
גוד	10521
דיר	10522
וַי	10523
טעי	10524
טבעת	10525
טופס	10526
ירק	10527
נאות	10528
קם	10529
קירות	10530
##אתי	10531
##ייל	10532
##ta	10533
##40	10534
##19	10535
המוכר	10536
##ובבים	10537
היצר	10538
השופטים	10539
שהיינו	10540
כלא	10541
הבנת	10542
מתמשך	10543
ואמ	10544
ואחת	10545
##יטו	10546
##יטנאם	10547
הכירו	10548
202	10549
וליה	10550
##סטון	10551
הטור	10552
לגל	10553
בכוונה	10554
נוסדה	10555
ביתו	10556
רגליים	10557
##דויות	10558
הופיעה	10559
##ings	10560
במחוז	10561
והתק	10562
והמע	10563
star	10564
מנוחה	10565
הקרובות	10566
נועדו	10567
ומספר	10568
משותפים	10569
##able	10570
ציבוריים	10571
התכנון	10572
הנדרש	10573
מלכתחילה	10574
per	10575
אשל	10576
ברכות	10577
בילדים	10578
גולד	10579
הנות	10580
##צרת	10581
##גלו	10582
##11	10583
##ובדן	10584
##דיבות	10585
##רוגים	10586
##לינג	10587
החזיק	10588
##וקרא	10589
איסוף	10590
שאומרים	10591
הקבוע	10592
הקרן	10593
אלג	10594
##מצה	10595
##מצעי	10596
הנמוך	10597
לתפ	10598
##ונאות	10599
מגיל	10600
הזהות	10601
##והו	10602
##והי	10603
##טימי	10604
##יזכר	10605
כתבו	10606
##פשטות	10607
הפרט	10608
התייש	10609
אדוארד	10610
185	10611
היחידים	10612
##געתי	10613
תשוקה	10614
והמח	10615
##סטרול	10616
שיוכלו	10617
מהעולם	10618
מונע	10619
להירגע	10620
להיעשות	10621
לנשיאות	10622
המרכיבים	10623
##שְׁ	10624
pay	10625
איד	10626
אסטרו	10627
הוט	10628
הונג	10629
זיכרונות	10630
כיבוש	10631
ללו	10632
מיותר	10633
מישהי	10634
נשר	10635
נוף	10636
פדר	10637
פאלון	10638
תכונה	10639
##חוף	10640
##סמה	10641
##מלית	10642
##ֹה	10643
##ּת	10644
שלק	10645
לאמת	10646
##ריץ	10647
##רינה	10648
##שראה	10649
במלון	10650
התרחש	10651
משלב	10652
משטרה	10653
ואשר	10654
הגיב	10655
מחס	10656
בחק	10657
מבוק	10658
מצליחה	10659
הטרי	10660
המשקל	10661
שעושים	10662
שעברו	10663
חיז	10664
להגביל	10665
וכעת	10666
הבריטים	10667
המסמכים	10668
התקפות	10669
תוכנות	10670
קרובה	10671
חשיפה	10672
משתמשת	10673
להסכים	10674
מסתכלים	10675
ביצע	10676
1985	10677
1980	10678
להתקין	10679
##oci	10680
לרכב	10681
להקדיש	10682
בנקודה	10683
כותבים	10684
לדין	10685
פיקוח	10686
נציגי	10687
בייחוד	10688
לארוחת	10689
business	10690
להשוות	10691
ht	10692
nba	10693
אִ	10694
ברכה	10695
ווד	10696
מיצ	10697
נבה	10698
סר	10699
תורת	10700
##her	10701
##בב	10702
##נץ	10703
##טרי	10704
##ma	10705
מהפכה	10706
##וסקת	10707
והול	10708
בעסק	10709
בעמוד	10710
הבדלים	10711
הביקורת	10712
##לוף	10713
ואינ	10714
הגול	10715
ההיש	10716
בהז	10717
לבק	10718
##יצות	10719
##וינות	10720
להתפלל	10721
ראויים	10722
בפל	10723
מפחדים	10724
שתצ	10725
האמין	10726
התקווה	10727
מוסר	10728
מנהלי	10729
##גויות	10730
הרפובליק	10731
וההת	10732
חודשיים	10733
נוצרו	10734
arch	10735
מורכבים	10736
עזבו	10737
עיניו	10738
איומים	10739
בלעדי	10740
##יטואציה	10741
':	10742
op	10743
דבש	10744
ורוב	10745
משרות	10746
ציפורים	10747
רבע	10748
תמונת	10749
##הה	10750
##ron	10751
המוסר	10752
##יהוי	10753
השרי	10754
השיפ	10755
השכלה	10756
השוטרים	10757
במיטה	10758
איגוד	10759
אידיאלי	10760
##וגת	10761
הפועל	10762
ההכ	10763
בתשלום	10764
מקומיות	10765
בחמש	10766
בחזית	10767
שבמ	10768
שביק	10769
הנאה	10770
לסיום	10771
ביכולת	10772
וכבר	10773
נעלמו	10774
תחומים	10775
בזמנו	10776
שכדאי	10777
חזרתי	10778
התקשר	10779
פשוטות	10780
פתא	10781
תעשי	10782
הריבית	10783
למוע	10784
בברלין	10785
יביא	10786
לפרק	10787
נועדה	10788
ומאפשר	10789
כפולה	10790
צבאיים	10791
##ובייקט	10792
תרגול	10793
שיקול	10794
סיינט	10795
בהקדם	10796
מונט	10797
next	10798
גרה	10799
דרכי	10800
זור	10801
טיל	10802
ממי	10803
נמאס	10804
##מכה	10805
המכוניות	10806
להבהיר	10807
##ברך	10808
האחת	10809
##דין	10810
היקר	10811
##ליכה	10812
מהכל	10813
##יבט	10814
באלוהים	10815
שהוע	10816
מאותו	10817
מתגע	10818
בהודעה	10819
בתו	10820
הדרישות	10821
בחצי	10822
מיכ	10823
##בייש	10824
ברשימת	10825
בפולין	10826
חדרי	10827
בטרור	10828
חבריו	10829
וכאן	10830
##חידי	10831
##ארץ	10832
רגש	10833
שכך	10834
##ital	10835
לזרוק	10836
התעור	10837
סטטיסט	10838
דיברתי	10839
בשבילכם	10840
הפעלת	10841
קיימא	10842
קרל	10843
המהירות	10844
הקטנות	10845
עשור	10846
העסקית	10847
יסודות	10848
משלוח	10849
לייצור	10850
הצעדים	10851
היתרון	10852
הלוואות	10853
שזאת	10854
מחוברים	10855
התביעה	10856
לתחום	10857
התחתונה	10858
היעדר	10859
הקפיט	10860
אוכלוסיית	10861
נוהג	10862
האסלאם	10863
מסורתי	10864
אֱ	10865
גיבור	10866
ויס	10867
ליפול	10868
סיס	10869
עישון	10870
עמדת	10871
קרט	10872
##רף	10873
##נלי	10874
##ֶר	10875
להפר	10876
##יליזציה	10877
##ליש	10878
במכונית	10879
התכונות	10880
לעסק	10881
הבטן	10882
הפיר	10883
ההליך	10884
מחנה	10885
##ינוס	10886
ולמש	10887
לתמיכה	10888
##ביכול	10889
המשאבים	10890
בגובה	10891
##מידע	10892
##כשירים	10893
##ורתוד	10894
ניתנה	10895
יצורים	10896
##חיית	10897
תקופות	10898
##enc	10899
שקרא	10900
משפיעים	10901
תעשו	10902
המאמן	10903
מוכרת	10904
נאבק	10905
לרפא	10906
ביקום	10907
מתקיים	10908
והמס	10909
stre	10910
חיוניים	10911
כשאנו	10912
הסכנה	10913
מונח	10914
המזרחי	10915
מרחוק	10916
לניו	10917
נולדו	10918
##כנתא	10919
חיצוניים	10920
האסטרטגיה	10921
לרקוד	10922
pol	10923
גלו	10924
חילו	10925
חקר	10926
טכנית	10927
יכלה	10928
יוגה	10929
כתיבת	10930
לירושלים	10931
נסי	10932
פונה	10933
##וברים	10934
##ier	10935
##מכו	10936
הממלכה	10937
האיום	10938
היכולות	10939
העברה	10940
והכי	10941
והמק	10942
בעיתון	10943
הסגנון	10944
הסוכר	10945
הקצר	10946
##יפדיה	10947
הגשר	10948
ההפעלה	10949
מחלוקת	10950
בתכנית	10951
הדגל	10952
וביק	10953
##ינק	10954
מינים	10955
מישראל	10956
לצלם	10957
לצייר	10958
##רקים	10959
יצטרך	10960
נעימה	10961
קורבן	10962
ביקשו	10963
להסכם	10964
העובד	10965
ברומא	10966
##כסוכים	10967
להתקשר	10968
העיקריות	10969
העצבים	10970
חתונה	10971
online	10972
מצאנו	10973
צרפתית	10974
הכתבה	10975
סירב	10976
יועץ	10977
התייחסות	10978
מחייב	10979
להטיל	10980
ביעילות	10981
הניצחון	10982
מסובך	10983
61	10984
di	10985
go	10986
get	10987
pal	10988
red	10989
בודה	10990
ורע	10991
כותרת	10992
לוחות	10993
עמי	10994
עושר	10995
פיס	10996
ריא	10997
רכש	10998
ריקה	10999
תרצו	11000
##אפ	11001
##דלו	11002
##hone	11003
שלמים	11004
אתו	11005
##נוא	11006
המרחב	11007
לארגן	11008
הארג	11009
האמינו	11010
##ומרת	11011
##ופיות	11012
השתי	11013
באדם	11014
החיה	11015
החנות	11016
מאוה	11017
##נתית	11018
בחברות	11019
ולפי	11020
עבדה	11021
בקפ	11022
הראייה	11023
המשא	11024
##נקו	11025
לכסות	11026
מטוסי	11027
##ימיה	11028
בנוח	11029
##קרית	11030
##ata	11031
שתוכ	11032
רגוע	11033
שכאשר	11034
##ich	11035
##קדמיה	11036
##ouse	11037
דייוויד	11038
נאמן	11039
##בחנה	11040
לנח	11041
הבעל	11042
בשלוש	11043
חמישים	11044
האדרי	11045
1984	11046
תלויים	11047
תפיסה	11048
בעיראק	11049
שואלת	11050
##ניסטן	11051
מיקרוסופט	11052
##פחתו	11053
ההוראה	11054
דיבור	11055
זרות	11056
ניח	11057
סיד	11058
עותקים	11059
רון	11060
שניה	11061
##אש	11062
##בירים	11063
##גרו	11064
##ודם	11065
האנטי	11066
האווירה	11067
היין	11068
##ופרת	11069
השד	11070
השורה	11071
התאבדות	11072
מאור	11073
והור	11074
והפר	11075
לשינויים	11076
מחלק	11077
בתרבות	11078
מקב	11079
##ניתוח	11080
הכרת	11081
לקול	11082
ובצ	11083
בסביב	11084
מצאה	11085
מצלמות	11086
ומז	11087
שממש	11088
הטל	11089
מכסה	11090
##לבש	11091
לסביבה	11092
בפש	11093
אנוני	11094
בציבור	11095
אמרנו	11096
##ימית	11097
בוודאות	11098
##נדב	11099
תקדים	11100
נעשית	11101
##פורמציה	11102
הלמידה	11103
המסור	11104
##מארט	11105
נחשבים	11106
המשפטים	11107
גרמה	11108
מוגדר	11109
קריאת	11110
וישראל	11111
1987	11112
הסכימו	11113
העצמית	11114
זכאי	11115
חווית	11116
דעתך	11117
העברית	11118
כריס	11119
ולמרות	11120
##ליסטים	11121
מתקדמת	11122
הדמוקרטית	11123
סיגריות	11124
וניתן	11125
##טוקול	11126
69	11127
63	11128
don	11129
hy	11130
אשם	11131
ונד	11132
נחת	11133
נראתה	11134
עוסקים	11135
קים	11136
רה	11137
שים	11138
שימ	11139
תוהה	11140
##דיון	11141
##בס	11142
##בדת	11143
##ַב	11144
##‏‏	11145
##ניש	11146
להמשך	11147
להמתין	11148
האף	11149
מהרה	11150
##וקו	11151
##ועדת	11152
הגיר	11153
הגרוע	11154
##וכב	11155
בתל	11156
##נסון	11157
##שיח	11158
מצו	11159
כמויות	11160
מדיה	11161
יהודיים	11162
שעשית	11163
בכוחות	11164
האחורי	11165
##ange	11166
מזכ	11167
##טרור	11168
##ors	11169
שתת	11170
נגדו	11171
לטוס	11172
נחזור	11173
תעודת	11174
##ציין	11175
המאמץ	11176
המטופלים	11177
ארוחה	11178
תשכחו	11179
גיליתי	11180
עשירה	11181
מייצרים	11182
הישנה	11183
העיקרון	11184
מוטיבציה	11185
החלקים	11186
##מליץ	11187
קיומו	11188
הניסוי	11189
ישראליים	11190
אוכלוסייה	11191
ההשקעות	11192
כניסת	11193
אוקראינה	11194
אלטרנט	11195
82	11196
?)	11197
][	11198
part	11199
חולי	11200
ממת	11201
מנט	11202
עיתון	11203
צחק	11204
##ֵל	11205
שליליות	11206
##ניום	11207
המוביל	11208
##ירוץ	11209
##נהלות	11210
##מוז	11211
הימין	11212
למכירה	11213
התצ	11214
##וגניט	11215
ההשלכות	11216
לחימה	11217
בתום	11218
מצפון	11219
שמרו	11220
##סטית	11221
מכילה	11222
מייק	11223
לדווח	11224
ממדינות	11225
שעתיים	11226
לצוות	11227
תקף	11228
אבטחת	11229
תחשוב	11230
רגישות	11231
קטע	11232
מוצלחת	11233
באמצעים	11234
שחורים	11235
מושפ	11236
לרשום	11237
עסקאות	11238
הנייד	11239
במחצית	11240
שיעורים	11241
קולו	11242
המועמדים	11243
העסקי	11244
שטחים	11245
הפסד	11246
1969	11247
מדעית	11248
התפיסה	11249
##שינוי	11250
התחתון	11251
נפשית	11252
מתוכם	11253
הנדרשים	11254
ההערכה	11255
המומחים	11256
האסלאמית	11257
'?	11258
national	11259
חודשי	11260
יורו	11261
כיה	11262
מבל	11263
נופל	11264
סיים	11265
קוט	11266
קצה	11267
##אווה	11268
##שֶׁ	11269
##הל	11270
##air	11271
##כמת	11272
##ורשים	11273
המפעל	11274
##ובו	11275
##ומץ	11276
מהצד	11277
בממשלה	11278
החיבור	11279
העיירה	11280
##וקיו	11281
מאפיינים	11282
אימונים	11283
הביאה	11284
הפחות	11285
ואיפה	11286
לחיי	11287
##רתור	11288
לימד	11289
בסמוך	11290
מבוצ	11291
ומור	11292
להתכונן	11293
להתחתן	11294
בקצה	11295
מגניב	11296
בפס	11297
##סקבה	11298
##שאלה	11299
לכדור	11300
נער	11301
##פורמה	11302
המסמך	11303
##ition	11304
המאמצים	11305
מודעת	11306
אליזבת	11307
התחל	11308
להעמיד	11309
לפעולה	11310
מרשים	11311
אינטלקט	11312
נדירות	11313
שרשרת	11314
ככלל	11315
טיפש	11316
1942	11317
1973	11318
תביא	11319
מותא	11320
ניידים	11321
הדרומית	11322
הפלשתי	11323
ראשוני	11324
למקומות	11325
השתתפו	11326
לחתום	11327
נוהגים	11328
from	11329
המנהיגים	11330
פוטנציאליים	11331
af	11332
bu	11333
ps	11334
vi	11335
יומי	11336
קבלה	11337
ריפוי	11338
##ium	11339
##חב	11340
##חיש	11341
##מאים	11342
המרו	11343
להית	11344
להיג	11345
להפיץ	11346
לאיבוד	11347
האמון	11348
שהכי	11349
התופעה	11350
##וששות	11351
איסור	11352
לעומק	11353
ישב	11354
##רגום	11355
הגן	11356
בהיקף	11357
היהדות	11358
##וונתי	11359
בחיינו	11360
שבג	11361
##שתית	11362
בסיום	11363
מצוות	11364
מציגה	11365
##ירותי	11366
מכילים	11367
פעולת	11368
להתנגד	11369
להתלונן	11370
##קהילה	11371
מדור	11372
לדחות	11373
שנצ	11374
בדרכו	11375
ממא	11376
##לחם	11377
תקיפה	11378
תהפוך	11379
וחשוב	11380
ותרבות	11381
הפרעה	11382
##וחרר	11383
הליבר	11384
סרטי	11385
ודא	11386
וידי	11387
הרחק	11388
אמריקני	11389
1978	11390
המדריך	11391
הירוק	11392
ההגדרה	11393
הפתעה	11394
העתיק	11395
קיבלנו	11396
חשמלי	11397
המקצועי	11398
שייכים	11399
גמישות	11400
ירדן	11401
##חייבויות	11402
##יוטיקה	11403
אוספים	11404
מחזיקים	11405
הקומוניסטית	11406
אמונת	11407
ביניהן	11408
ויב	11409
טון	11410
כצ	11411
מרא	11412
שופטים	11413
##לכים	11414
##דירות	11415
##נראה	11416
##פצים	11417
המנוע	11418
להוות	11419
להודיע	11420
לאומיים	11421
האשה	11422
האביב	11423
היחידי	11424
##ופיים	11425
באנרגיה	11426
החוזה	11427
הבשר	11428
הסינים	11429
##יפוח	11430
##וכרת	11431
לבטא	11432
לבזבז	11433
הצרכנים	11434
הדרוש	11435
מקדש	11436
אמזון	11437
אמצעים	11438
אליהן	11439
שבכל	11440
##שותף	11441
בקשת	11442
בטענה	11443
לנוח	11444
וכשה	11445
המערכות	11446
##צדק	11447
##פעול	11448
התחום	11449
תאמינו	11450
נותרה	11451
קשורות	11452
מייצר	11453
1970	11454
1971	11455
##זבאללה	11456
הצעירה	11457
האופנה	11458
לוחמים	11459
כותבת	11460
סקירה	11461
להירשם	11462
גדלים	11463
החמישית	11464
החקלאות	11465
##ube	11466
החתול	11467
הסימנים	11468
משרדי	11469
המבוסס	11470
מאליו	11471
מסוכנים	11472
הפיננסי	11473
שלעולם	11474
##פלסטינים	11475
הלטינית	11476
').	11477
76	11478
78	11479
cd	11480
har	11481
ll	11482
בוגרים	11483
גיד	11484
זרם	11485
חורף	11486
מנצח	11487
סופי	11488
עמיד	11489
שכולנו	11490
##eg	11491
##טרים	11492
##מנית	11493
##פשים	11494
##ool	11495
##yt	11496
##bo	11497
##ולדו	11498
##ובדת	11499
האומות	11500
אחסון	11501
החום	11502
והרי	11503
מתברר	11504
##מייל	11505
בתוקף	11506
הכיר	11507
##מציאות	11508
ובית	11509
הזקן	11510
מצווה	11511
מיז	11512
בקנדה	11513
##ery	11514
בכלי	11515
בכסף	11516
המקומיות	11517
חלקו	11518
יעילים	11519
אדומים	11520
אסד	11521
184	11522
##פעיל	11523
##קוין	11524
##ליטו	11525
הליגה	11526
##אליזם	11527
אינטרס	11528
שרירים	11529
סביבת	11530
##ניסו	11531
כדורסל	11532
תצטרכו	11533
אכילה	11534
הישג	11535
אצבע	11536
יישומים	11537
חקלא	11538
הקוראים	11539
נפגשים	11540
היסודות	11541
מבחוץ	11542
הוסיפה	11543
המלכותי	11544
מסוכנת	11545
שוחרר	11546
הנבחרים	11547
cap	11548
rec	11549
גרים	11550
סמך	11551
רות	11552
שכת	11553
שווי	11554
תכלית	11555
##עצ	11556
##דנים	11557
##טרו	11558
##ְת	11559
##bi	11560
##ָל	11561
##ודשת	11562
האכ	11563
באג	11564
למתח	11565
למנהיג	11566
משו	11567
##משל	11568
הבנים	11569
הביש	11570
הסכים	11571
ישות	11572
הגדרות	11573
בתשובה	11574
##שימוש	11575
ולשמור	11576
##איץ	11577
מייל	11578
בכמות	11579
מפעם	11580
אלהים	11581
הרוסים	11582
##ley	11583
?",	11584
מודאג	11585
ניסתה	11586
קודמים	11587
הדיבור	11588
int	11589
סרטון	11590
אפשריים	11591
המודיעין	11592
עוזרת	11593
המוסד	11594
אוטובוס	11595
בנקים	11596
תרגיל	11597
הציוד	11598
דיברנו	11599
המבוססת	11600
דרמטי	11601
bit	11602
gen	11603
park	11604
בונים	11605
גג	11606
וצע	11607
וסי	11608
חמה	11609
כור	11610
סמי	11611
פיט	11612
תרצה	11613
##שף	11614
##סין	11615
##מלה	11616
##מעו	11617
##פוג	11618
##pa	11619
##yn	11620
##תימה	11621
##ומבי	11622
מהיום	11623
במתק	11624
החשובה	11625
משמע	11626
בעיצוב	11627
שאיש	11628
לעור	11629
בשיע	11630
ישיבה	11631
הקשרים	11632
##רגלים	11633
לשלטון	11634
לשחזר	11635
הגדה	11636
לפה	11637
מחש	11638
לינק	11639
הכישורים	11640
בחצר	11641
הנמצאים	11642
הזמנה	11643
מצלמה	11644
##חדו	11645
לגן	11646
ברורים	11647
לסין	11648
בדו	11649
בדוק	11650
לכוח	11651
##טינים	11652
שקשה	11653
רצינו	11654
להשתלט	11655
אורן	11656
תגיע	11657
מהמע	11658
במחלוקת	11659
מתקרב	11660
המהיר	11661
גלגלים	11662
נורו	11663
1960	11664
המושג	11665
להקמת	11666
הצהרת	11667
##ומטיים	11668
הבסיסית	11669
##פרסמים	11670
##יליאמס	11671
אקדמי	11672
מטרתו	11673
עבודתם	11674
word	11675
במטבח	11676
התשוקה	11677
היומיום	11678
)?	11679
dna	11680
fi	11681
min	11682
time	11683
גי	11684
דמעות	11685
דונלד	11686
וכול	11687
חלה	11688
לרד	11689
מנע	11690
נוא	11691
פרח	11692
שפר	11693
שורש	11694
תיש	11695
##בנים	11696
##צנה	11697
##ai	11698
##וליה	11699
##נונים	11700
המיטה	11701
##ברא	11702
##יומה	11703
##יליה	11704
האבולוציה	11705
עליית	11706
##ריכת	11707
החילו	11708
שהשת	11709
שהמח	11710
שאותו	11711
שאפילו	11712
לענייני	11713
הספרייה	11714
בשורה	11715
בשיחה	11716
הפיג	11717
לפק	11718
הציור	11719
לחקר	11720
הדרכה	11721
מביאה	11722
הטיול	11723
בבניין	11724
##יגיון	11725
בכנות	11726
מפשע	11727
לפניו	11728
נעשתה	11729
כשם	11730
חושש	11731
הנוצרים	11732
##חונות	11733
נשכח	11734
סיור	11735
מוסק	11736
פרופיל	11737
מועמדות	11738
האיראני	11739
חסד	11740
האמריקנים	11741
פסיכיא	11742
להאשים	11743
1976	11744
1977	11745
וצריך	11746
הסתכל	11747
הצבעים	11748
הקריאה	11749
רווחים	11750
שאיננו	11751
לאירוע	11752
לאירופה	11753
נפרדים	11754
טהור	11755
book	11756
mo	11757
בפק	11758
דעתי	11759
חלונות	11760
ייב	11761
יוג	11762
ניר	11763
נדה	11764
סינג	11765
ציר	11766
קייט	11767
שירה	11768
##sc	11769
המית	11770
המתי	11771
המפה	11772
##יומו	11773
##וביץ	11774
האמן	11775
##רונית	11776
##ליפה	11777
מהגרים	11778
השגת	11779
באולם	11780
העצים	11781
העיתונות	11782
##וקרים	11783
שאסור	11784
לעובדה	11785
הספיק	11786
##יטקט	11787
הנשימה	11788
הנמצא	11789
עבדו	11790
פעילי	11791
##וזרת	11792
מדג	11793
מדרום	11794
עדויות	11795
בביצוע	11796
לסדר	11797
מגדיר	11798
בפוליטיקה	11799
ממלכת	11800
שעובדים	11801
##ins	11802
מזיקים	11803
וכד	11804
##טריונים	11805
##צבא	11806
המחנה	11807
רציונ	11808
ושומ	11809
תגובת	11810
הפעלה	11811
למשפחות	11812
פרעה	11813
מוגבלות	11814
בנא	11815
לפרטים	11816
מהעבודה	11817
משאבי	11818
הפוליטיים	11819
נמוכות	11820
מפלגה	11821
רחוקות	11822
נזכר	11823
סייבר	11824
האפיפיור	11825
להדגיש	11826
הפילוס	11827
עיתונאי	11828
במסעדה	11829
פחמן	11830
וכתוצאה	11831
הבכורה	11832
אקו	11833
בוב	11834
דירוג	11835
וגר	11836
חיסון	11837
יִ	11838
נדל	11839
עזרת	11840
עזרו	11841
ערכי	11842
קיד	11843
קולה	11844
שיני	11845
##שיר	11846
##שמה	11847
##יכים	11848
##בוס	11849
##בניות	11850
המנג	11851
להינ	11852
##ומיני	11853
התברר	11854
הביצועים	11855
מתנדבים	11856
הגשת	11857
בהר	11858
הצמח	11859
הצפונית	11860
בתמונות	11861
הכנה	11862
אלק	11863
בסוג	11864
##דהות	11865
עבדים	11866
להתו	11867
מגוח	11868
ראיון	11869
לצרכים	11870
מפתי	11871
מטור	11872
ניתנים	11873
נעצרו	11874
עדין	11875
שקיים	11876
ושירותים	11877
##קטין	11878
אדון	11879
יתרה	11880
מלוא	11881
מלמדים	11882
מושך	11883
מורשת	11884
מצביע	11885
מרכזיים	11886
פוליטיקאים	11887
1982	11888
נצטרך	11889
1972	11890
קומו	11891
תביעות	11892
מכוון	11893
אוטובוסים	11894
מינימום	11895
בסרטן	11896
ניקוי	11897
עוצמת	11898
להתאמן	11899
המסעדה	11900
77	11901
hd	11902
mark	11903
אבר	11904
דרישה	11905
הרט	11906
הָא	11907
טס	11908
לנט	11909
נוחה	11910
נטייה	11911
סה	11912
עניינים	11913
שימור	11914
##cd	11915
##טף	11916
##up	11917
##מכת	11918
לאנשי	11919
##ילום	11920
##דיפה	11921
##שרדים	11922
##ליפו	11923
זהים	11924
השדה	11925
באס	11926
##ידך	11927
שהוג	11928
העונש	11929
למדע	11930
##יעוץ	11931
אידיא	11932
הבודה	11933
הסוג	11934
בשירותים	11935
בשטחים	11936
מתכת	11937
הפח	11938
הקיום	11939
הקישור	11940
לשפוט	11941
הגשם	11942
הגדרת	11943
הכלי	11944
##סטים	11945
מייסד	11946
בכלכלה	11947
מגבלות	11948
מגזין	11949
בטחון	11950
תקנות	11951
##ated	11952
קטגוריה	11953
##עיית	11954
להשתחרר	11955
לדבריה	11956
הפער	11957
למשטרה	11958
זוכים	11959
האינס	11960
תלונות	11961
דאפא	11962
יאנג	11963
איכותי	11964
משפחתה	11965
מבוססות	11966
מדהימים	11967
מהסוג	11968
ובאופן	11969
ובהת	11970
ניקול	11971
יצירתיות	11972
המזרחית	11973
בבעיות	11974
כנסת	11975
ללימודים	11976
סופרים	11977
"),	11978
iphone	11979
ציפיות	11980
הפדרלי	11981
תמיכת	11982
שקיבלו	11983
בקריירה	11984
למבוגרים	11985
.‏	11986
et	11987
il	11988
id	11989
mon	11990
rights	11991
vpn	11992
גרג	11993
הריק	11994
ושו	11995
וידע	11996
זרע	11997
מונו	11998
נטו	11999
נובל	12000
קעק	12001
קפטן	12002
שורות	12003
תוח	12004
##לומות	12005
##דשות	12006
##סיים	12007
##כא	12008
המינים	12009
לאותה	12010
האבן	12011
מהז	12012
##ישובים	12013
השישי	12014
##ידוע	12015
העקרונות	12016
##יקוי	12017
##ושע	12018
הסמכות	12019
מסוד	12020
בשכונה	12021
מתוא	12022
מתעל	12023
הקים	12024
מעשית	12025
ההרים	12026
ההצבעה	12027
ההכנסה	12028
##ווין	12029
בחופש	12030
לקפוץ	12031
לתהליך	12032
##חדות	12033
הרקע	12034
שנשאר	12035
ראיתם	12036
בכב	12037
בצל	12038
כולכם	12039
##ater	12040
##alk	12041
ולהג	12042
הראשוני	12043
לטובה	12044
יעבור	12045
נקיים	12046
תעלה	12047
חוקיים	12048
##בטלה	12049
ההתקדמות	12050
בהתאמה	12051
הנהלת	12052
גרעינית	12053
ומשת	12054
חמורות	12055
למחנה	12056
אגם	12057
ביצירת	12058
פוליטיות	12059
1983	12060
פלשתי	12061
ההגירה	12062
התגובות	12063
מהתק	12064
זכוכית	12065
חוויית	12066
שיכולה	12067
יישארו	12068
##רשמה	12069
מסעדה	12070
מאושרת	12071
המובילות	12072
מפורסם	12073
אוסטריה	12074
ובסופו	12075
דיסק	12076
נחשף	12077
עיוור	12078
יוחנן	12079
תשלומים	12080
ירקות	12081
street	12082
are	12083
kn	12084
sl	12085
ביב	12086
גרא	12087
דימו	12088
סיבוב	12089
צרכ	12090
##צץ	12091
##נעות	12092
##רוכת	12093
##ומטי	12094
##ופף	12095
במרו	12096
החירות	12097
הערכת	12098
העוצמה	12099
##להי	12100
##משו	12101
הסבל	12102
מסד	12103
בשעת	12104
מתנגד	12105
לשק	12106
לשבוע	12107
מערך	12108
מעניק	12109
ההיר	12110
בהווה	12111
##נסקי	12112
מקש	12113
מכוונת	12114
להתנהג	12115
ברמות	12116
מדיטציה	12117
לציון	12118
##ina	12119
לנוכח	12120
לכדי	12121
מטורף	12122
הכלבים	12123
תקין	12124
הנוחות	12125
##פשרויות	12126
הילדות	12127
דיברו	12128
השתנתה	12129
עשרת	12130
מריה	12131
בראשות	12132
למוזיקה	12133
קריטי	12134
179	12135
130	12136
אזרחית	12137
הבינלאומיים	12138
1974	12139
ובעולם	12140
חולקים	12141
הקדושה	12142
##ung	12143
תרבותי	12144
אטרקט	12145
להימלט	12146
טכנולוגית	12147
עבדתי	12148
מכתבים	12149
הלחימה	12150
##רמוניה	12151
ההולדת	12152
לסרטן	12153
הדיווח	12154
73	12155
mag	12156
wi	12157
אָ	12158
הוי	12159
ונות	12160
ורד	12161
ורבים	12162
ושאר	12163
מרים	12164
נטל	12165
עוגיות	12166
פרד	12167
קמפ	12168
שבל	12169
תסת	12170
##למד	12171
##ek	12172
##קיעים	12173
##גלי	12174
##מיו	12175
##פנה	12176
##ּא	12177
##vel	12178
##זמות	12179
שלד	12180
##נועים	12181
הממו	12182
המפג	12183
להרבה	12184
לאה	12185
אוטונו	12186
התוב	12187
בעין	12188
אימה	12189
ואילך	12190
הקיסר	12191
לשוחח	12192
מעיד	12193
לפל	12194
בהור	12195
הדורות	12196
מקיף	12197
מבחר	12198
##חתית	12199
הטייס	12200
לתקשורת	12201
מכפי	12202
לדיון	12203
ידידי	12204
שעוד	12205
בטכנולוגיה	12206
עודף	12207
בנימין	12208
מטרי	12209
אלוף	12210
יצרו	12211
התקיים	12212
נחל	12213
החלון	12214
המשפטית	12215
אופטימי	12216
בתקווה	12217
שיוכל	12218
1949	12219
תיאר	12220
מאחרים	12221
נמכר	12222
מתחילת	12223
##ement	12224
תופסים	12225
ברציפות	12226
ברצונך	12227
העשיר	12228
הסיכונים	12229
כיסא	12230
התרגום	12231
התמחות	12232
##play	12233
החברתיים	12234
ירדו	12235
השותפים	12236
נלחם	12237
התיאוריה	12238
השוואה	12239
cookie	12240
sim	12241
דרוש	12242
הרה	12243
הודה	12244
זוע	12245
טוני	12246
כט	12247
ליא	12248
##co	12249
##טט	12250
##uro	12251
##ve	12252
##15	12253
##נועות	12254
להקת	12255
לאב	12256
באביב	12257
החזר	12258
שהביא	12259
אוקס	12260
משלך	12261
מאסטר	12262
והייתי	12263
בעול	12264
לשירותים	12265
הגדרה	12266
ההסת	12267
בהש	12268
לבתי	12269
##נטיקה	12270
מחמד	12271
הדדית	12272
מכנה	12273
מדוכ	12274
בגד	12275
שעד	12276
ביכול	12277
הכלא	12278
מזע	12279
יצור	12280
יציאה	12281
אבק	12282
##אונת	12283
ולהפוך	12284
שכמעט	12285
מוצאת	12286
הספרות	12287
##בקשו	12288
המאפיינים	12289
סינית	12290
התערבות	12291
להשמיד	12292
רכישה	12293
ביקשה	12294
לנשום	12295
שהתרח	12296
ופחות	12297
1981	12298
##ations	12299
המדבר	12300
1950	12301
הצבעה	12302
החשובות	12303
מחויב	12304
משמשת	12305
good	12306
מריח	12307
בפעולה	12308
365	12309
עיקריים	12310
לאיזה	12311
טלפונים	12312
מפתחים	12313
הארוחה	12314
השחורה	12315
ממשלתיים	12316
ללחוץ	12317
הנכסים	12318
פגשתי	12319
nor	12320
בירת	12321
גמור	12322
גירושין	12323
ושר	12324
זמינה	12325
יכל	12326
ימות	12327
כביכול	12328
מובה	12329
סו	12330
ערכ	12331
שיום	12332
שותה	12333
תמצ	12334
תישאר	12335
תוקף	12336
תאונות	12337
##לכו	12338
##ml	12339
##נוחה	12340
המפרץ	12341
##ודעים	12342
להשמ	12343
##יוונים	12344
האוס	12345
עלייך	12346
השיבה	12347
##וערת	12348
לעין	12349
לפועל	12350
לבדה	12351
לחברים	12352
לחזות	12353
הדירות	12354
בחום	12355
לקשר	12356
בסת	12357
##פתה	12358
הטמפרטורה	12359
להתחרות	12360
לגיטי	12361
הראיות	12362
הרמה	12363
שעומד	12364
##ימיים	12365
חלקה	12366
תקן	12367
##פסו	12368
מיליונים	12369
שכזו	12370
נתנה	12371
מודלים	12372
להציב	12373
מוסרי	12374
גורל	12375
גרמו	12376
##ives	12377
המהירה	12378
##ורגם	12379
בסיסיים	12380
##ולטימט	12381
הנוכחות	12382
מותג	12383
למדוד	12384
הצלחנו	12385
##לוויה	12386
איבדו	12387
הבסיסי	12388
בעיניי	12389
black	12390
לבניית	12391
הובילו	12392
מבטיחים	12393
גרועה	12394
מרתק	12395
חמצן	12396
המלוכה	12397
בשבילו	12398
bi	12399
vis	12400
זמינות	12401
כבע	12402
נתיב	12403
ספור	12404
סופית	12405
צומ	12406
ציד	12407
##ונת	12408
##אלו	12409
##דנית	12410
##מחות	12411
##פלה	12412
##df	12413
##way	12414
המיוע	12415
##ודק	12416
##ודיו	12417
הישר	12418
אוצר	12419
העניק	12420
##ועידה	12421
והרו	12422
לערב	12423
##לאו	12424
לשטוף	12425
מעצר	12426
ההמל	12427
##נטרי	12428
הדוק	12429
שבדרך	12430
##שתות	12431
כאדם	12432
ובי	12433
הזק	12434
בקו	12435
בקור	12436
##סקר	12437
לצבא	12438
מפרי	12439
מפעיל	12440
מטבח	12441
מזמינים	12442
יציבה	12443
##נדסים	12444
##חינת	12445
כשח	12446
בזמנים	12447
ולהח	12448
מוצג	12449
##stem	12450
ספרדית	12451
משמעותיות	12452
עסקיות	12453
ומשמעות	12454
נושאת	12455
נשארה	12456
התאמה	12457
##דקנות	12458
1947	12459
הרחוק	12460
מנועי	12461
סיפורי	12462
הקדושים	12463
שהחברה	12464
תסמונת	12465
להיפך	12466
דגם	12467
ריקוד	12468
חפצים	12469
גרמני	12470
המתקפה	12471
היבטים	12472
פיננסי	12473
תשאלו	12474
לכבוש	12475
מיכאל	12476
87	12477
joh	12478
בוש	12479
ושות	12480
יוו	12481
לזו	12482
מפי	12483
מכולם	12484
נלה	12485
סקי	12486
צרות	12487
קסון	12488
רוחות	12489
רשמיים	12490
##ֹל	12491
##זבו	12492
שליט	12493
##ירתיים	12494
##ואת	12495
האלים	12496
##ליב	12497
מהמת	12498
מהותי	12499
##יביוטיקה	12500
במיל	12501
אחותי	12502
שהמו	12503
##ושלת	12504
##יאני	12505
הסורי	12506
הפיצ	12507
הפסק	12508
הקשים	12509
לשד	12510
מחברת	12511
הדר	12512
הכבד	12513
##אליות	12514
אללה	12515
##רחה	12516
בחג	12517
לקבוצות	12518
##מצן	12519
ובתי	12520
##ינום	12521
בספק	12522
הנמ	12523
להתבונן	12524
##בינה	12525
##וניינים	12526
מפסיק	12527
מטפלים	12528
##שלם	12529
הברזל	12530
נעשים	12531
המעמד	12532
המסח	12533
תחשבו	12534
וחוסר	12535
להביט	12536
שכח	12537
this	12538
יער	12539
נקראים	12540
ותוכ	12541
נשלחו	12542
שזהו	12543
התחנה	12544
חדשנות	12545
תשכח	12546
במועד	12547
נדירים	12548
המהלך	12549
stud	12550
המועמד	12551
1943	12552
המרכזיים	12553
תביעה	12554
בשבועות	12555
אקלים	12556
אצלו	12557
שנעשו	12558
האופרה	12559
האופניים	12560
הקורבן	12561
נדרשת	12562
וירט	12563
הדתות	12564
כישורים	12565
החייל	12566
לתחנת	12567
ראשונים	12568
לאירועים	12569
למאבק	12570
שייכת	12571
היעילות	12572
מודרניים	12573
מתרחשים	12574
##ount	12575
הומור	12576
הפילוסופיה	12577
ונסון	12578
דיסני	12579
דיגיטלי	12580
סובלנות	12581
במלוא	12582
המשקיעים	12583
הכריזה	12584
serv	12585
מסקנות	12586
האמצעים	12587
משוכנע	12588
!'	12589
-'	12590
ss	12591
אנת	12592
אטל	12593
אצבעות	12594
ארתור	12595
כִּי	12596
סוכן	12597
פניה	12598
צלם	12599
שרון	12600
שידע	12601
##אנה	12602
##דמן	12603
##שאי	12604
##יכות	12605
##cl	12606
##חרים	12607
##צן	12608
##סיקים	12609
##ֹר	12610
שלמות	12611
##יוניים	12612
##ריף	12613
החר	12614
מאבד	12615
איור	12616
הסובלים	12617
מסתי	12618
בשווי	12619
מתגלה	12620
הקצב	12621
הגעת	12622
##שווי	12623
לבנה	12624
לבשל	12625
הכרתי	12626
בחנויות	12627
##שימו	12628
מצה	12629
אפוא	12630
הטעות	12631
מכנים	12632
##וטו	12633
בפיל	12634
המקס	12635
מזמין	12636
##טרית	12637
בלוס	12638
ולהבין	12639
שכחתי	12640
התקבלה	12641
נמצאה	12642
##בילת	12643
כשהיה	12644
אומנות	12645
מלאך	12646
שגור	12647
לדעתך	12648
חלוקת	12649
מרשם	12650
##ams	12651
הסרטון	12652
ומעולם	12653
ניצח	12654
הצדקה	12655
משאיר	12656
להתערב	12657
הצהיר	12658
לתינוק	12659
בילדות	12660
מבטיחה	12661
trans	12662
שאחרים	12663
שונאים	12664
נמשכת	12665
סטרואידים	12666
נכשל	12667
הצרפתים	12668
הידיעה	12669
האומץ	12670
מלאכותית	12671
ניכרת	12672
american	12673
96	12674
98	12675
900	12676
ever	12677
ארצה	12678
דרכה	12679
הוספת	12680
כוונות	12681
לרגל	12682
מולי	12683
מונית	12684
סור	12685
צרכים	12686
רמי	12687
שוד	12688
שיז	12689
שיקום	12690
תרכ	12691
##שיו	12692
##שנים	12693
##קרו	12694
##גובות	12695
##ux	12696
##dr	12697
המייס	12698
המחקרים	12699
לאינט	12700
האיים	12701
##ליית	12702
באיחוד	12703
העומדים	12704
העומד	12705
והמת	12706
אינד	12707
שאחד	12708
##וגרת	12709
הביו	12710
הבוגרים	12711
הסק	12712
מסים	12713
##רבעים	12714
ואיש	12715
לשיתוף	12716
ההלו	12717
לפרוש	12718
מחנות	12719
לחשב	12720
בתולדות	12721
לקו	12722
שבד	12723
שבית	12724
##יחסת	12725
שממנו	12726
מימי	12727
בקבוצת	12728
בבנק	12729
שנכנס	12730
שנולד	12731
מגיעות	12732
##מדע	12733
במקצוע	12734
תקבלו	12735
כוללות	12736
##טייל	12737
##צהיר	12738
במשק	12739
המתא	12740
פינה	12741
שחורה	12742
שינתה	12743
ביקשתי	12744
הפעילויות	12745
בשלושה	12746
פריט	12747
למחשב	12748
להאכיל	12749
נכנסה	12750
הקהילות	12751
המדעי	12752
להתקרב	12753
1968	12754
הישנים	12755
היסטוריים	12756
בינלאומיות	12757
מותק	12758
נשמח	12759
הרוחנית	12760
משפחתית	12761
##סלמים	12762
תומאס	12763
טוענת	12764
רומן	12765
הוציאה	12766
חילופי	12767
1939	12768
האתרים	12769
אסטרטגית	12770
השיעור	12771
אינסט	12772
תחרותי	12773
דרושים	12774
נפלאה	12775
לירידה	12776
נשבע	12777
סטיבן	12778
שנועדו	12779
university	12780
'"	12781
86	12782
er	12783
pc	12784
בלוט	12785
דפים	12786
וקט	12787
חיד	12788
טופ	12789
יפות	12790
עמה	12791
עניים	12792
צפייה	12793
שמצא	12794
תוצר	12795
##אבי	12796
##שורים	12797
##ner	12798
##ביק	12799
##טדיון	12800
##lin	12801
##mer	12802
המבחן	12803
##רופה	12804
היבט	12805
שהור	12806
העלה	12807
העניינים	12808
העלאת	12809
התחייבות	12810
##ושש	12811
משקה	12812
לעבד	12813
הבור	12814
מסמ	12815
בשיטה	12816
ואס	12817
##יסו	12818
הגדר	12819
ההכנסות	12820
מחברי	12821
מחזיקה	12822
הדתי	12823
הדוח	12824
##רתו	12825
##רתה	12826
לקחתי	12827
##שתיות	12828
ומיו	12829
מכוסה	12830
רוצות	12831
שעלול	12832
לצמוח	12833
##נדט	12834
ידיו	12835
##פורש	12836
##alth	12837
תחושות	12838
וחברות	12839
##ריקאים	12840
רגישים	12841
נתתי	12842
הנוף	12843
וגדל	12844
מוצק	12845
יחידת	12846
##ica	12847
להפג	12848
הופעה	12849
##ough	12850
התעורר	12851
אליס	12852
השתתף	12853
##ism	12854
מהמקרים	12855
חסרים	12856
נשארת	12857
הרעב	12858
נכנסת	12859
1964	12860
מניעה	12861
רוסי	12862
צדקה	12863
יצאתי	12864
who	12865
ספציפית	12866
enter	12867
העשירים	12868
להימשך	12869
הובילה	12870
דחוף	12871
מציגים	12872
דיגיטלית	12873
באתרים	12874
הוחלט	12875
לפספס	12876
glob	12877
להרגיע	12878
בגודלה	12879
john	12880
84	12881
city	12882
fda	12883
ge	12884
ib	12885
tra	12886
אומה	12887
גיוס	12888
דוב	12889
דרק	12890
הירי	12891
וינ	12892
יראו	12893
ללקוח	12894
מינו	12895
סגל	12896
עמק	12897
עותק	12898
פטר	12899
ציינו	12900
קנו	12901
רוג	12902
ריצה	12903
ששר	12904
שוטר	12905
##אגו	12906
##net	12907
##נפ	12908
##נְ	12909
##tube	12910
##por	12911
##pal	12912
המרק	12913
הממצאים	12914
להיק	12915
##ואלה	12916
הארוכה	12917
השילוב	12918
החור	12919
שאיב	12920
הסיס	12921
מתלו	12922
אותיות	12923
הפוטנציא	12924
ואפשר	12925
לשון	12926
הצגת	12927
מצבו	12928
ומפ	12929
להתבצע	12930
יהודיות	12931
המשול	12932
שנתי	12933
בדרישות	12934
ממרכז	12935
כמדינה	12936
נעלמה	12937
המחזור	12938
המעשה	12939
בזכויות	12940
וגאס	12941
that	12942
הפרת	12943
##oup	12944
בליגה	12945
אליפות	12946
השתנו	12947
חשבנו	12948
בהתק	12949
בהתפתחות	12950
תאגיד	12951
בראון	12952
עומק	12953
המבנים	12954
שנותר	12955
והחל	12956
העלילה	12957
##שתמשו	12958
1975	12959
מאפשרות	12960
אכילת	12961
למסור	12962
מתעורר	12963
הצביעו	12964
##נשיא	12965
טיולים	12966
הנאצית	12967
וליצור	12968
שאליו	12969
רפואיות	12970
המקצועית	12971
seo	12972
המפורסמת	12973
מעניקה	12974
נויר	12975
נציגים	12976
מתרגלים	12977
וכמעט	12978
חבילות	12979
האהובים	12980
המאפשרת	12981
לנתח	12982
האולימפ	12983
מוסקבה	12984
val	12985
ורכ	12986
חרב	12987
ייא	12988
כנה	12989
לכול	12990
מיות	12991
ננסה	12992
עט	12993
פגע	12994
ציפור	12995
רעות	12996
תדע	12997
##דלת	12998
##שיא	12999
##sp	13000
##טורה	13001
##ug	13002
##ולא	13003
##ודור	13004
##ובדות	13005
##נהלים	13006
##דיקים	13007
##דיקת	13008
במתח	13009
לממן	13010
מאס	13011
מאיים	13012
בענף	13013
איפ	13014
בשאר	13015
ישויות	13016
הפייס	13017
##יפינים	13018
ההתח	13019
ההנחה	13020
##וכס	13021
מקסים	13022
הכה	13023
##לקס	13024
מבוט	13025
לתרגם	13026
##פקו	13027
יהלומים	13028
יהפכו	13029
בבטחה	13030
בביטחון	13031
##לחמות	13032
מפריע	13033
##כשל	13034
בצוות	13035
וחש	13036
וחמש	13037
כתובות	13038
התקף	13039
##מאלי	13040
##בדוק	13041
התיקון	13042
נפצעו	13043
##oud	13044
רחוקה	13045
##פעלים	13046
שגורם	13047
בעצמה	13048
הרחבה	13049
משפטיים	13050
##נחיות	13051
##רעור	13052
עוזב	13053
שהחיים	13054
##und	13055
תופס	13056
האסירים	13057
והפך	13058
אוניברסיטאות	13059
צליל	13060
המדענים	13061
הדתית	13062
למדינת	13063
קיומה	13064
##רזת	13065
פיצוי	13066
סעודיה	13067
גרמנית	13068
ייצוג	13069
הכוכב	13070
הולדתו	13071
פוטין	13072
האותיות	13073
bre	13074
fac	13075
גמר	13076
דון	13077
וור	13078
טים	13079
סיכום	13080
##דג	13081
##hy	13082
##בקה	13083
##גון	13084
##yle	13085
##זרי	13086
##ָד	13087
##ניף	13088
אתך	13089
לאמא	13090
האני	13091
##דיט	13092
באט	13093
במפורש	13094
החשב	13095
החזית	13096
התור	13097
איס	13098
הבינה	13099
הסמו	13100
מסויים	13101
מתפל	13102
ואלו	13103
הקיימת	13104
לשקר	13105
מעוצ	13106
הגברת	13107
##וכות	13108
לחלום	13109
##ווט	13110
הכר	13111
בחוסר	13112
שביל	13113
##חרט	13114
בסדרת	13115
##יצר	13116
עבירות	13117
כמוהו	13118
יהדות	13119
##יגו	13120
שנשים	13121
בפיר	13122
בינה	13123
##נדל	13124
תהליכי	13125
חוששים	13126
הראשונית	13127
##ict	13128
נחוץ	13129
מוכיח	13130
אסיר	13131
רעידת	13132
מלאי	13133
למצרים	13134
נסע	13135
ההתע	13136
##rol	13137
מהמקום	13138
חלש	13139
מתקשה	13140
פרסים	13141
החלטנו	13142
בעודו	13143
השלמת	13144
יגידו	13145
פסולת	13146
רשום	13147
שנוס	13148
1961	13149
אכיפת	13150
הקודמות	13151
מעורבת	13152
1958	13153
צדדים	13154
##לוקות	13155
youtube	13156
איבדה	13157
המדעית	13158
הפגיעה	13159
הימורים	13160
קילומטר	13161
##מפרטורות	13162
לטיול	13163
הצילום	13164
system	13165
מתמקדים	13166
כועס	13167
באוטובוס	13168
תכשיטים	13169
בקליפורניה	13170
מודאגים	13171
ושומרון	13172
אמהות	13173
ביתי	13174
וחדש	13175
חובת	13176
מרגע	13177
סלול	13178
ענו	13179
צווא	13180
קבלו	13181
רשימות	13182
שעת	13183
שפי	13184
##דורה	13185
##שמת	13186
##he	13187
##iel	13188
##צבים	13189
##צלונה	13190
##טחי	13191
##ּוּ	13192
##vis	13193
##ולפן	13194
המרת	13195
המפקד	13196
המכללה	13197
##ברנו	13198
##תיק	13199
##ופלת	13200
השכונה	13201
השיטות	13202
שהוז	13203
אוסט	13204
##וקק	13205
משנים	13206
משיח	13207
##יעוד	13208
והר	13209
והיום	13210
בעור	13211
איטי	13212
##לאמית	13213
מסרט	13214
מספרי	13215
ואוה	13216
##רגוני	13217
##יפוק	13218
ההיבטים	13219
לפיה	13220
הדמיון	13221
מקושר	13222
בחת	13223
מציאת	13224
שמט	13225
שמעו	13226
##סטל	13227
מכני	13228
##פקות	13229
יהאד	13230
אזי	13231
שעכשיו	13232
ישראליות	13233
נערכו	13234
##פסי	13235
תחזור	13236
תחליף	13237
להפריד	13238
להפריע	13239
מוסמך	13240
שגוי	13241
תגידו	13242
במסלול	13243
פנימיים	13244
במועדון	13245
מרפא	13246
מוזרה	13247
מוגן	13248
שיעזרו	13249
בנמל	13250
##קבוק	13251
התאריך	13252
לביתו	13253
##חיתות	13254
סיפורו	13255
ולעיתים	13256
סיפרו	13257
הנסיכה	13258
אריה	13259
הפוליטיקה	13260
שהמדינה	13261
צפויות	13262
מתבצע	13263
ספציפיות	13264
המכשירים	13265
נאלצו	13266
נובעת	13267
apple	13268
בישול	13269
tech	13270
הנישואים	13271
##ינסון	13272
הקובץ	13273
קולומביה	13274
לנחש	13275
אסת	13276
ברט	13277
גופו	13278
וקר	13279
ייה	13280
סלי	13281
עימות	13282
רס	13283
תיבת	13284
##שיון	13285
##ha	13286
##ning	13287
##צחון	13288
##הם	13289
##ss	13290
##ניקו	13291
המינית	13292
להכות	13293
להריון	13294
להיזכר	13295
##יווג	13296
##ילתו	13297
היישום	13298
##ופין	13299
השנאה	13300
באנו	13301
באינט	13302
באסיה	13303
העזרה	13304
הערכות	13305
התו	13306
מאבדים	13307
##זהיר	13308
הביע	13309
מסרב	13310
מסתיים	13311
בשליטה	13312
הפשע	13313
ואהבה	13314
הקברות	13315
הגג	13316
הגיא	13317
יכולנו	13318
##מיכת	13319
##מינג	13320
הכמות	13321
הנב	13322
הנכונים	13323
הזמנות	13324
מכמה	13325
פעל	13326
##אותו	13327
##יגן	13328
שנבנה	13329
מגיב	13330
מגיבים	13331
##erm	13332
האחראי	13333
המחו	13334
בזב	13335
##דויק	13336
##פלגות	13337
יעבוד	13338
הפרשה	13339
ושאל	13340
שחיים	13341
נפצע	13342
חוקיות	13343
אדירה	13344
לרמות	13345
הלאומיים	13346
מהמאה	13347
##oll	13348
מתקן	13349
להכריז	13350
החדרים	13351
מזהים	13352
תכופות	13353
למחלות	13354
ילדכם	13355
המהפ	13356
פסיכ	13357
יסודי	13358
1965	13359
מניעת	13360
משלוש	13361
הבלוג	13362
עמוקות	13363
##ebook	13364
1956	13365
מפלגות	13366
וירוס	13367
היציאה	13368
האינטרס	13369
גאווה	13370
נפגשו	13371
אנטישמיות	13372
ההצגה	13373
החזקה	13374
עיקרי	13375
לחתוך	13376
היותו	13377
ליווי	13378
המאוחדת	13379
באורח	13380
הנדסה	13381
בעבודת	13382
display	13383
##פליקט	13384
גרסאות	13385
שאוהבים	13386
חמושים	13387
היועץ	13388
gm	13389
live	13390
אורות	13391
טעים	13392
יוס	13393
ירצה	13394
לוג	13395
לכה	13396
לנצ	13397
מכול	13398
נרכ	13399
סמו	13400
עוצר	13401
ענף	13402
צחוק	13403
קיש	13404
קיצ	13405
ריבית	13406
##לֹה	13407
##דני	13408
##hd	13409
##קוף	13410
##כיה	13411
##ual	13412
##uct	13413
##מטי	13414
##box	13415
##נועת	13416
המני	13417
המנכ	13418
להמליץ	13419
##ילתי	13420
האסטרו	13421
האכז	13422
השומן	13423
כלכלת	13424
העוני	13425
למשא	13426
התמודדות	13427
משוגע	13428
מאותה	13429
הבדיקות	13430
הסלול	13431
הפלא	13432
הגנת	13433
לבוש	13434
מחליטים	13435
הצג	13436
בתנועה	13437
##רחבה	13438
##מצעות	13439
שמעת	13440
ולמצ	13441
בקיר	13442
בגדי	13443
בכניסה	13444
כמא	13445
חברו	13446
יצרה	13447
##שמל	13448
##ator	13449
לטבע	13450
מוציאים	13451
תעסוקה	13452
תערובת	13453
נפוצות	13454
הרגילים	13455
נאום	13456
מושב	13457
קודמות	13458
בשבילם	13459
ששני	13460
##ames	13461
חמלה	13462
הוועד	13463
גלובלית	13464
שמענו	13465
רשאים	13466
שנועד	13467
1966	13468
הנוכחיים	13469
תבוא	13470
עברתי	13471
עמם	13472
שואפים	13473
בתוכניות	13474
הבסיסיים	13475
ברצלונה	13476
חומצה	13477
הגלובלית	13478
כישרון	13479
כישורי	13480
לאיראן	13481
שגרם	13482
מצטערת	13483
מפורסמים	13484
נבחרת	13485
רלוונטיים	13486
גרמנים	13487
הבטיחות	13488
ארכיון	13489
פיננסיים	13490
super	13491
מלוכל	13492
מיהו	13493
נרצחו	13494
לעדכן	13495
האיראנית	13496
בפגישה	13497
הרפואית	13498
ההרגשה	13499
הפייסבוק	13500
74	13501
bm	13502
cor	13503
gal	13504
ma	13505
אמש	13506
בבי	13507
בלט	13508
דיני	13509
הוריה	13510
חלו	13511
חניה	13512
ליטר	13513
מרס	13514
נסת	13515
סף	13516
עונות	13517
עושות	13518
פנס	13519
פרץ	13520
קזינו	13521
##עורר	13522
##רער	13523
##דמו	13524
##בורת	13525
##ביעה	13526
##פיא	13527
##ולח	13528
##וללת	13529
##יתוי	13530
##נועי	13531
לאנושות	13532
האימון	13533
השחרור	13534
באורך	13535
בארבע	13536
##ידג	13537
במבנה	13538
החובה	13539
משטח	13540
##יעדר	13541
הפאלון	13542
ואינם	13543
##יטיות	13544
לשחרור	13545
לשרוף	13546
מעצמ	13547
ההי	13548
##אתו	13549
בחרתי	13550
הנדל	13551
מצטר	13552
וללמוד	13553
מכרי	13554
מכבי	13555
##איג	13556
בקבוצות	13557
לדחוף	13558
לסיפור	13559
שעבד	13560
שעליה	13561
הבריאה	13562
האמנתי	13563
התקיימה	13564
הפרחים	13565
התיאטרון	13566
להפליא	13567
בביתו	13568
נפשי	13569
183	13570
המטוסים	13571
החלפת	13572
יקרות	13573
אינטרסים	13574
anal	13575
בדיחה	13576
##סטרדם	13577
str	13578
חיוביים	13579
שפשוט	13580
יבואו	13581
תלונה	13582
משפטים	13583
לשלושה	13584
שותים	13585
שנערכו	13586
ארלס	13587
מבוססים	13588
אוניברסיטה	13589
מכשירי	13590
לנקודה	13591
להורדה	13592
ולשפר	13593
##aster	13594
ומקצוע	13595
ספינת	13596
מדויקת	13597
הניתן	13598
org	13599
מסחרית	13600
עצמאיים	13601
הגדלת	13602
המשמשים	13603
##וגרפיה	13604
.,	13605
bro	13606
fil	13607
sn	13608
ילך	13609
כידוע	13610
ליס	13611
נכל	13612
עונ	13613
פוק	13614
פסי	13615
ציו	13616
קנאביס	13617
תודעה	13618
##חול	13619
##צמות	13620
##כמות	13621
##כורות	13622
##ַד	13623
המזו	13624
להיום	13625
להאיץ	13626
האופי	13627
הישרדות	13628
##ומרה	13629
##יבש	13630
השמי	13631
השווא	13632
במגע	13633
שהרו	13634
שהיום	13635
##יקרון	13636
לעכשיו	13637
##יאמי	13638
בשמים	13639
מתפקיד	13640
מתמקד	13641
הפנט	13642
הפסטיבל	13643
ואינט	13644
ואמרה	13645
לשעה	13646
ההרוגים	13647
##וכנים	13648
לבו	13649
אלים	13650
הנער	13651
הנקרא	13652
##דרלה	13653
הטילים	13654
##חקנים	13655
להתרכז	13656
לגנוב	13657
לציית	13658
חיילי	13659
בצדק	13660
שנינו	13661
בנוכחות	13662
##טיף	13663
המסים	13664
קטגוריות	13665
נגיש	13666
##פויה	13667
המתכון	13668
תענוג	13669
ונא	13670
בלבנון	13671
שתיקה	13672
צער	13673
צעירות	13674
בשבילנו	13675
רכבים	13676
לנזק	13677
משתמשי	13678
אינטראקציה	13679
##מקום	13680
הביטח	13681
בנשק	13682
בסיסית	13683
העסקיים	13684
המגדל	13685
עיריית	13686
ומעבר	13687
המדרגות	13688
פגישות	13689
רוסית	13690
המוחלט	13691
##וכלוסיית	13692
הידועה	13693
חקיקה	13694
הקורבנות	13695
האזרחית	13696
שיקרה	13697
נולדתי	13698
הנחיות	13699
מייצגים	13700
במשחקים	13701
מהדברים	13702
צודקת	13703
##יוויליזציה	13704
הפופולריים	13705
ואיכות	13706
הפדרציה	13707
##ike	13708
דוקטורט	13709
תוספי	13710
המינימום	13711
טקסס	13712
outl	13713
המתאימה	13714
במזומן	13715
הדאפא	13716
להיאבק	13717
וליהנות	13718
בקפידה	13719
01	13720
fe	13721
fin	13722
hp	13723
tim	13724
way	13725
גו	13726
כשי	13727
כפות	13728
כפתור	13729
עסוק	13730
פונים	13731
פחם	13732
תשמ	13733
תרבויות	13734
##רשם	13735
##לג	13736
##cel	13737
##געת	13738
##מפי	13739
##po	13740
שלכל	13741
שלווה	13742
אתי	13743
הממ	13744
המפק	13745
להמציא	13746
##ילב	13747
האגו	13748
האפקט	13749
היפים	13750
מהרגע	13751
##ישומים	13752
##יבא	13753
באלימות	13754
##ידרש	13755
החושים	13756
שהנ	13757
העומ	13758
למזון	13759
מארי	13760
##פרש	13761
שאותה	13762
##לאס	13763
הבוס	13764
הקיימות	13765
##רכיה	13766
ההשת	13767
לפיו	13768
אנרג	13769
בהצהרה	13770
בהולנד	13771
בתוספת	13772
לינה	13773
בסן	13774
שמעתם	13775
הטרא	13776
הטורק	13777
##ינשטיין	13778
##אהבו	13779
לדור	13780
בגופ	13781
מזיק	13782
המחשבים	13783
אינדיא	13784
כתבות	13785
התקפה	13786
בריטי	13787
##בקשת	13788
שתייה	13789
איתכם	13790
לנע	13791
מוגבר	13792
פרסמה	13793
והתרבות	13794
חייכם	13795
מומל	13796
שמתק	13797
##רפאה	13798
הישיבה	13799
הקשיים	13800
העצום	13801
סימפטומים	13802
מוטב	13803
##נשטיין	13804
##ניסטים	13805
מצויין	13806
כנסיית	13807
השביעי	13808
ברכבת	13809
מעצבים	13810
הרשתות	13811
שיפוט	13812
קלאסי	13813
ילדינו	13814
##לטפורמה	13815
ושימוש	13816
news	13817
השותף	13818
שעלינו	13819
התעללות	13820
##וקראינה	13821
bar	13822
cam	13823
sol	13824
אמונות	13825
בכו	13826
גופות	13827
טבל	13828
כית	13829
לרב	13830
לֹא	13831
ניז	13832
נופש	13833
סוני	13834
ערובה	13835
’,	13836
##פוף	13837
##ִם	13838
##ורין	13839
##ורדים	13840
להיב	13841
להנות	13842
##ואליים	13843
האוניברס	13844
##ריכו	13845
##רוצים	13846
##ישב	13847
השיא	13848
השידור	13849
במכון	13850
שהמא	13851
למיל	13852
##יער	13853
מסרה	13854
ישע	13855
הפחתת	13856
הקבר	13857
##יפך	13858
##ייבר	13859
הציפיות	13860
הדרג	13861
ומסת	13862
שמקור	13863
עבירה	13864
לתוקף	13865
##לתו	13866
בבור	13867
חיכ	13868
מטופל	13869
הכלכליים	13870
##וברות	13871
בנוי	13872
##נדית	13873
##פסל	13874
ולהתחיל	13875
הרוע	13876
##צרפת	13877
נשכ	13878
נשואים	13879
תעזור	13880
הרגילה	13881
תוכנת	13882
מלמעלה	13883
ההתא	13884
תאורה	13885
תאפשר	13886
במוסקבה	13887
ant	13888
נדירה	13889
נבנו	13890
##דקק	13891
עשן	13892
הישגים	13893
ביחסים	13894
קבועים	13895
reg	13896
אווירה	13897
ההסבר	13898
האזרחי	13899
שזכה	13900
בוחן	13901
הפלנטה	13902
מצוינות	13903
##obe	13904
המורשת	13905
360	13906
##ליסטי	13907
המובילה	13908
הנערה	13909
המוקדמות	13910
גרין	13911
התרחשה	13912
מסכימה	13913
רמז	13914
משעמם	13915
פנוי	13916
##uck	13917
המתאימים	13918
ליתר	13919
מדווחים	13920
אוקיי	13921
מתנגדים	13922
.״	13923
bbc	13924
del	13925
ברכת	13926
דוחה	13927
וואו	13928
טו	13929
ידה	13930
יתחיל	13931
ליבה	13932
מרץ	13933
מנח	13934
נראות	13935
סם	13936
עקבות	13937
פו	13938
פרה	13939
פרצ	13940
תנסה	13941
‏(	13942
##צול	13943
##כין	13944
##ניון	13945
המנ	13946
המרה	13947
לאזרח	13948
##יופיה	13949
השדרה	13950
שהרג	13951
##וערים	13952
##פרות	13953
הסוגים	13954
הסנאט	13955
##נתח	13956
מעביר	13957
ההוצאה	13958
ההמונים	13959
אנסה	13960
יכולתו	13961
מחודש	13962
לחסום	13963
הדגים	13964
##ווך	13965
מקרב	13966
שבי	13967
הנמל	13968
הנכונות	13969
מצבי	13970
פעלו	13971
##וטט	13972
בקצרה	13973
הראיון	13974
לסח	13975
בדיון	13976
בפומבי	13977
ממל	13978
##סקנות	13979
שערים	13980
שעשינו	13981
לצרפת	13982
חייבות	13983
לכפות	13984
לכלכלה	13985
##ative	13986
המחאה	13987
המעצר	13988
הרומן	13989
הרווחה	13990
חזיר	13991
הפרות	13992
אהבו	13993
תעשייה	13994
רובנו	13995
ונפ	13996
דיכוי	13997
חשבה	13998
חשבתם	13999
שגיאות	14000
ההתב	14001
הדיפל	14002
חסרות	14003
בשלבים	14004
מוגבלים	14005
קרינה	14006
178	14007
כבדים	14008
וטיפול	14009
1941	14010
עברנו	14011
עוזבים	14012
מאתגר	14013
עקרון	14014
הוכח	14015
המושלמת	14016
ארמון	14017
הצהרה	14018
נוצרה	14019
##יתונאי	14020
הפנימיים	14021
הנעליים	14022
אמינות	14023
גרועים	14024
בייצור	14025
הפופולריות	14026
אוסלו	14027
השותפות	14028
מפגשים	14029
אורגני	14030
תשתית	14031
לקריאה	14032
קווין	14033
הכרטיסים	14034
שכתבתי	14035
האנגלי	14036
outlook	14037
**	14038
97	14039
cy	14040
cal	14041
her	14042
high	14043
house	14044
power	14045
בכול	14046
בידו	14047
גזר	14048
חבילת	14049
טועים	14050
טורק	14051
יְ	14052
כהו	14053
כרוך	14054
ללה	14055
מותה	14056
עמים	14057
עוסקת	14058
תצל	14059
תורם	14060
תתחיל	14061
##דס	14062
##צעות	14063
##סוקים	14064
##געו	14065
##כבות	14066
##מיט	14067
##fer	14068
שלש	14069
שלבים	14070
##ירס	14071
האפל	14072
עליון	14073
##רימה	14074
##דינו	14075
היער	14076
מהמא	14077
מהילדים	14078
באף	14079
שהילדים	14080
שהמע	14081
העלו	14082
העביר	14083
##יקלי	14084
התזונה	14085
##יעוטים	14086
והבר	14087
בעשור	14088
לעול	14089
לעוף	14090
##משק	14091
הבולט	14092
מתמשכת	14093
ואור	14094
ואינה	14095
לשות	14096
הגירה	14097
##מתך	14098
לפרי	14099
כימי	14100
הצרכן	14101
לחברת	14102
לחופשה	14103
מקוונים	14104
שביעות	14105
הזמין	14106
##חתים	14107
ומיד	14108
ומנהיג	14109
שמפ	14110
לתשומת	14111
מכוח	14112
המשלחת	14113
שנפג	14114
##יניו	14115
לצפייה	14116
חיידקים	14117
##ימוץ	14118
בניינים	14119
##שלומים	14120
יצירתי	14121
אבוד	14122
##גרמו	14123
כשנה	14124
##יזר	14125
##נציונ	14126
יחידים	14127
ותא	14128
##חונית	14129
הפרטיים	14130
נשאל	14131
##גלגל	14132
מלאות	14133
בתחנת	14134
הרישום	14135
הריכוז	14136
שגיאה	14137
##כימה	14138
inn	14139
פרדי	14140
המבוק	14141
קשרי	14142
חיונית	14143
שיחת	14144
תרומות	14145
שומרת	14146
##מעונ	14147
המגורים	14148
1940	14149
להאזין	14150
משפטיות	14151
להסתובב	14152
והעולם	14153
מדעיים	14154
תסמינים	14155
החשש	14156
מההתחלה	14157
ניקח	14158
350	14159
בעיניו	14160
הכתובת	14161
הפלילי	14162
מתבצעת	14163
מייצגת	14164
דרמה	14165
המיועד	14166
ההיסטורית	14167
דמיון	14168
במגזר	14169
נמשכים	14170
מסורתיים	14171
עוקב	14172
עוקבים	14173
הידיעות	14174
ליברמן	14175
ההפרדה	14176
cbd	14177
הבשורה	14178
09	14179
71	14180
92	14181
?‏	14182
win	14183
will	14184
הוצאה	14185
ויית	14186
זיו	14187
זאב	14188
חיב	14189
יניה	14190
נדע	14191
ספו	14192
סוחר	14193
ערכו	14194
פאר	14195
רול	14196
שראה	14197
תט	14198
##דום	14199
##נעים	14200
##ניית	14201
להכנס	14202
להקטין	14203
לאיס	14204
##ובנים	14205
##ואט	14206
האין	14207
האיגוד	14208
##ריצים	14209
##רוּ	14210
##ומטית	14211
##ליפים	14212
מהרו	14213
מהנדס	14214
בארי	14215
במראה	14216
החזרה	14217
העיתונאים	14218
הבטחת	14219
הסרת	14220
הסיג	14221
בשיטות	14222
הפונק	14223
הקירות	14224
##יטרס	14225
לשאר	14226
הגופ	14227
הגיבור	14228
לפעם	14229
לפרוץ	14230
##וכחה	14231
כימיק	14232
בחרה	14233
שבעת	14234
##לקים	14235
הנורא	14236
מבה	14237
##יציות	14238
ולפתח	14239
##פתחה	14240
לגב	14241
לגיט	14242
לדרום	14243
בגישה	14244
לסלוח	14245
שנולדו	14246
##erg	14247
מזוהה	14248
בלוח	14249
המחמד	14250
הלשון	14251
##פסד	14252
חושף	14253
מוצגים	14254
המתרח	14255
האמור	14256
משתתף	14257
##קטיקה	14258
##ited	14259
##led	14260
אספקה	14261
דיור	14262
יוצאי	14263
חשד	14264
הניח	14265
הורג	14266
##מלכת	14267
מקצועיות	14268
הקטע	14269
התאונה	14270
וטוב	14271
המדיה	14272
לפרס	14273
שהחל	14274
לרכישת	14275
תזונ	14276
בסרטים	14277
קדושה	14278
עתידיים	14279
בחלקים	14280
הגלובלי	14281
השכנים	14282
העשור	14283
##ubl	14284
##רמונית	14285
הגילאים	14286
ובשנת	14287
חיסכון	14288
יוזמה	14289
אנדרואיד	14290
בלחץ	14291
בלעדיו	14292
מינר	14293
המפלגות	14294
תעשייתי	14295
להתווכח	14296
79	14297
cn	14298
rock	14299
דיאל	14300
וחר	14301
ודם	14302
יוב	14303
נלך	14304
סודי	14305
פיו	14306
קרים	14307
רדיק	14308
##ee	14309
##חנה	14310
##ֹד	14311
שלחו	14312
להיט	14313
לאופ	14314
##יוך	14315
האז	14316
##ריסט	14317
##רופוס	14318
##מושת	14319
##מונד	14320
השיחות	14321
באיס	14322
החירום	14323
שהרבה	14324
העות	14325
התפתח	14326
מאגר	14327
והדבר	14328
הבמאי	14329
מסרים	14330
מתמודד	14331
ואמרו	14332
הקרה	14333
הקושי	14334
ההודעות	14335
לחשבון	14336
בתכנון	14337
אלח	14338
בחיל	14339
לקחה	14340
הנחות	14341
היוונית	14342
עצר	14343
##ונצ	14344
מדרגות	14345
ועידת	14346
ממאה	14347
##סקופ	14348
בכיכר	14349
בטן	14350
לכוחות	14351
כמיטב	14352
##ana	14353
##any	14354
אחריה	14355
אלוהי	14356
וכלי	14357
שקשור	14358
רגילות	14359
שכבות	14360
רצים	14361
רציניים	14362
מוציא	14363
יעדים	14364
יעזרו	14365
ותמיכה	14366
האמנה	14367
אירוח	14368
נשמות	14369
הופת	14370
מוסיפים	14371
מליון	14372
לרשויות	14373
מוערך	14374
מתקני	14375
שריר	14376
הכוללים	14377
170	14378
חמורים	14379
למחלה	14380
##ote	14381
בפניו	14382
נבנתה	14383
בברזיל	14384
שמתרחש	14385
באירועים	14386
בגילאי	14387
להתקבל	14388
תצליח	14389
משקף	14390
למדנו	14391
ולעולם	14392
ובריאות	14393
לוחם	14394
shar	14395
חשמליים	14396
##וגרפי	14397
##ניסטי	14398
לתיקון	14399
שמספר	14400
קונצ	14401
משמאל	14402
הנדרשת	14403
פיצוץ	14404
האוטובוס	14405
מפגינים	14406
הפיננסית	14407
בוגרי	14408
שהדברים	14409
הנמוכה	14410
להיחשב	14411
paypal	14412
05	14413
night	14414
גופה	14415
דנמרק	14416
ופי	14417
ויג	14418
יוביל	14419
לילות	14420
ניד	14421
סוב	14422
סנד	14423
קווים	14424
רם	14425
שחייה	14426
##ימת	14427
##צויות	14428
##נרים	14429
##כירת	14430
##מג	14431
##פאה	14432
##פיעו	14433
שליליים	14434
##ניר	14435
להיסטוריה	14436
##יהנום	14437
##שרדי	14438
השמר	14439
במדע	14440
החכם	14441
העק	14442
למנהל	14443
התמוט	14444
##ועלות	14445
בעיצ	14446
הסתם	14447
ואג	14448
לשולחן	14449
הגודל	14450
ההופעה	14451
בהתייחס	14452
מחברות	14453
הציעו	14454
בתורה	14455
בתואר	14456
##נסטון	14457
הזרים	14458
רקטות	14459
ומדינות	14460
ולז	14461
הטענות	14462
לתרגל	14463
##ינד	14464
שנג	14465
ממלא	14466
##זורי	14467
המקוריים	14468
##ann	14469
##דתם	14470
המעגל	14471
להבנה	14472
##יזיה	14473
המתנחלים	14474
הפרעת	14475
##קטורים	14476
שחל	14477
פתחה	14478
פתוחות	14479
להצט	14480
מוסלמי	14481
מלמדת	14482
##בחנים	14483
הריח	14484
מושגים	14485
אורז	14486
הדיאטה	14487
הניק	14488
הליבה	14489
מתייחסת	14490
##גשג	14491
110	14492
מוגברת	14493
קולג	14494
160	14495
וייטנאם	14496
אזרחיים	14497
140	14498
בבריאות	14499
וטכנולוגיה	14500
##ution	14501
פלורידה	14502
1963	14503
משלושה	14504
מובילות	14505
הנסיבות	14506
נייד	14507
בינוני	14508
1959	14509
חשמלית	14510
סבירה	14511
פירושה	14512
1918	14513
האשמה	14514
נפטרה	14515
ורוח	14516
פוגש	14517
ממליצה	14518
למקרה	14519
פשעים	14520
דוברי	14521
פיתחו	14522
מעודדים	14523
תפקוד	14524
המלכותית	14525
להתייעץ	14526
בוצע	14527
שבסופו	14528
מתמקדת	14529
איטלקית	14530
מוניטין	14531
ההנהגה	14532
מיועדת	14533
skype	14534
סיינטולוגיה	14535
תוחלת	14536
ההיריון	14537
כימיקלים	14538
bat	14539
over	14540
sal	14541
ur	14542
אא	14543
בפה	14544
גלוי	14545
דרש	14546
זעם	14547
חולם	14548
סוח	14549
סוו	14550
עיקר	14551
פן	14552
קראה	14553
קורות	14554
##למית	14555
##באללה	14556
##כימו	14557
##ממים	14558
##זקת	14559
##16	14560
המפות	14561
לארגונים	14562
##ילתה	14563
##ליחות	14564
מהנשים	14565
באמנות	14566
אחיות	14567
החוקה	14568
החוויות	14569
אויבים	14570
##ראיים	14571
העמדה	14572
העבירה	14573
##יקגו	14574
למל	14575
למקס	14576
מאלוהים	14577
##וענים	14578
הביעו	14579
מסיבת	14580
בשמו	14581
מתגוררים	14582
אותות	14583
הפי	14584
##ותרפיה	14585
לשחות	14586
כינה	14587
לבט	14588
##יימר	14589
הצריכה	14590
הצמחים	14591
לחנות	14592
לחייך	14593
לחופש	14594
לימים	14595
הכנת	14596
ובשב	14597
בספרו	14598
מבעד	14599
מצומ	14600
##אהבה	14601
##וטות	14602
##וטין	14603
להתרחק	14604
בקומה	14605
לסיכום	14606
בדרכי	14607
הרבות	14608
חיית	14609
חיזבאללה	14610
במקסיקו	14611
##ימר	14612
ידעתם	14613
נערות	14614
מילר	14615
שתס	14616
##אושר	14617
וחברים	14618
כשש	14619
##ריקת	14620
רגשי	14621
ולהשתמש	14622
נגיד	14623
##קטיב	14624
להשתפר	14625
כשהת	14626
##גענו	14627
מושבים	14628
במחלה	14629
מתחילות	14630
למשפחת	14631
והתע	14632
כוחה	14633
##עללות	14634
בברית	14635
שומעת	14636
אחוזי	14637
תפיסת	14638
הרחבת	14639
1962	14640
המכיל	14641
המשימות	14642
ולעבוד	14643
הוכרז	14644
צבאיות	14645
לפגיעה	14646
שולחים	14647
##rist	14648
read	14649
הנאשם	14650
עתיק	14651
adobe	14652
1917	14653
ממוקמת	14654
ממוקמים	14655
הנקודות	14656
end	14657
בודקים	14658
נולדים	14659
הקלעים	14660
health	14661
החופשית	14662
ויהיה	14663
מסויימים	14664
סחורות	14665
המוניטין	14666
האיטלקי	14667
המדויק	14668
הסוללה	14669
התזמורת	14670
"(	14671
back	14672
ms	14673
sou	14674
אסט	14675
בנתונים	14676
בילד	14677
בַּ	14678
גוש	14679
חוד	14680
חיפה	14681
יסת	14682
כוב	14683
לרג	14684
מרמ	14685
נרג	14686
נורה	14687
עמידה	14688
קבר	14689
קדם	14690
שירת	14691
שוכן	14692
שווא	14693
##עוד	14694
##דד	14695
##שִ	14696
##שכה	14697
##ימי	14698
##חורי	14699
##ae	14700
##son	14701
##כד	14702
##כודת	14703
##vd	14704
##work	14705
##gl	14706
אתנו	14707
המונית	14708
האטל	14709
האוניברסיטאות	14710
##רוט	14711
##לימה	14712
##ופרים	14713
השטחים	14714
באק	14715
במשימה	14716
אחותו	14717
החמאס	14718
שהילד	14719
למתק	14720
##ושל	14721
##וצרת	14722
מאוכ	14723
והאי	14724
והפע	14725
אימפ	14726
##וגלים	14727
##וגעים	14728
הסמים	14729
מתמט	14730
מעת	14731
אנדרו	14732
כיכר	14733
יכולתם	14734
הצופים	14735
הכיוון	14736
אלון	14737
לקבוצת	14738
##מצו	14739
##לקו	14740
ובלי	14741
##ינוק	14742
##פתעה	14743
אפג	14744
עבאס	14745
לתה	14746
לתנאי	14747
מיניים	14748
##ביץ	14749
הרף	14750
ועבור	14751
##eral	14752
שעולה	14753
בכרטיס	14754
בטוויטר	14755
ביממה	14756
##רציה	14757
מטען	14758
יצליחו	14759
נעלי	14760
ביתם	14761
כשג	14762
אישום	14763
רצף	14764
לטפס	14765
חזות	14766
התקיפה	14767
להפנות	14768
נפח	14769
הרגלים	14770
רעבים	14771
סוגיות	14772
נסגר	14773
##זרית	14774
inf	14775
##ility	14776
להכרה	14777
אינטוא	14778
פריצת	14779
פורד	14780
השלבים	14781
##זיקים	14782
גלגל	14783
והחברה	14784
ומערכות	14785
##urity	14786
שחקנית	14787
הגבוהות	14788
סיפוק	14789
##ריזות	14790
חתמו	14791
##פגניסטן	14792
בתוכנו	14793
תומס	14794
1957	14795
מונעת	14796
##ull	14797
הנפוץ	14798
וויל	14799
##ריטוריה	14800
שברצ	14801
adv	14802
מתוכנן	14803
משפחותיהם	14804
נבחרים	14805
פתחו	14806
הכחול	14807
שפורסמו	14808
ההוראות	14809
האימפרי	14810
ופעילות	14811
יתקיים	14812
מתכננת	14813
ממספר	14814
היפנית	14815
התנהלות	14816
הומוסקס	14817
##יינטולוגיה	14818
חוגגים	14819
ובנוסף	14820
ייחודיים	14821
נרשמו	14822
center	14823
האהובה	14824
,...	14825
93	14826
dre	14827
eb	14828
gold	14829
hol	14830
more	14831
sur	14832
sun	14833
{\	14834
אכלו	14835
ומים	14836
יוקר	14837
כר	14838
משרה	14839
נופלים	14840
נכתבו	14841
סבלו	14842
רוע	14843
שרים	14844
שנט	14845
שדו	14846
שרד	14847
תיפ	14848
##ke	14849
##nal	14850
##be	14851
##ble	14852
##ניינות	14853
##וליים	14854
המצור	14855
לאות	14856
האבטלה	14857
##ופסה	14858
##ידית	14859
שהתי	14860
למדה	14861
##וקקים	14862
##וסטים	14863
##בלט	14864
##וגמאות	14865
לעונה	14866
לעיצוב	14867
הפיס	14868
הפנסיה	14869
הקצה	14870
מעמדה	14871
הגבלת	14872
הגבלות	14873
ההרס	14874
ההכר	14875
ההיגיון	14876
לבטח	14877
לחוף	14878
בתחתית	14879
הדולר	14880
##וויל	14881
לימדו	14882
##אלוג	14883
לקרב	14884
בספורט	14885
שמואל	14886
##חקן	14887
##ונכם	14888
לגרמניה	14889
המשנה	14890
בדק	14891
בדואר	14892
מפנה	14893
דברו	14894
בצי	14895
נוסד	14896
וכיום	14897
##יךָ	14898
שתש	14899
שתיהן	14900
להבדיל	14901
נתונה	14902
##נצלות	14903
הרומית	14904
הרושם	14905
לטפח	14906
התקבל	14907
נהנית	14908
שחשב	14909
נפול	14910
##ציץ	14911
##צועת	14912
הופעת	14913
המטען	14914
רכישות	14915
תאונה	14916
הנייר	14917
##חלטות	14918
חלפו	14919
במעלה	14920
ומתק	14921
בתיכון	14922
פורנו	14923
##iver	14924
##פריסין	14925
כביסה	14926
הבחורה	14927
שטרא	14928
להאריך	14929
אמריקנים	14930
לייצג	14931
חולצה	14932
מאותם	14933
שיכולתי	14934
סגירת	14935
טייל	14936
בעצמנו	14937
הכתוב	14938
##וסטריה	14939
בפעילויות	14940
אקדח	14941
בבעיה	14942
התמכרות	14943
גזענות	14944
בכנסת	14945
group	14946
בוצעו	14947
סקוטלנד	14948
הגורל	14949
הרפתקאות	14950
בשווקים	14951
global	14952
%).	14953
(‏	14954
best	14955
fire	14956
just	14957
mod	14958
בדר	14959
גנים	14960
ויפ	14961
כיתה	14962
מבלים	14963
נכב	14964
עיסוק	14965
עייף	14966
פיצה	14967
קורים	14968
תו	14969
תלת	14970
##אנים	14971
##שנות	14972
##בוא	14973
##ject	14974
##ממת	14975
##פיהם	14976
##ַר	14977
לאנרגיה	14978
האורג	14979
האולטימט	14980
##נהלת	14981
##ריפה	14982
##ריסה	14983
הייחוד	14984
השה	14985
כלכליות	14986
העובר	14987
התוק	14988
והמא	14989
בעיירה	14990
שאמרת	14991
הבק	14992
ישפיע	14993
לשו	14994
לשדה	14995
##יפולים	14996
מערבית	14997
ההפך	14998
הציפור	14999
מקיפה	15000
מקוונת	15001
מקומו	15002
בחוף	15003
לקיום	15004
לקוות	15005
הזרם	15006
הזרוע	15007
לתפקד	15008
##ינר	15009
הרעים	15010
לסרב	15011
##תהליך	15012
להגנת	15013
##טיילים	15014
מילת	15015
מילוי	15016
אינץ	15017
שקיימת	15018
מוצד	15019
נקבל	15020
##מאית	15021
אדמת	15022
רחמים	15023
רחובות	15024
מודיעין	15025
לזוז	15026
היחידות	15027
ספורים	15028
חששות	15029
##וסטרון	15030
במוצר	15031
וקל	15032
מוזמן	15033
ודאות	15034
מיומנות	15035
המבוגרים	15036
אפשריות	15037
הרכוש	15038
תתנו	15039
טיפולי	15040
הרצאות	15041
קליניים	15042
והשני	15043
##סטרטגיה	15044
העולמות	15045
ולעזור	15046
התגלו	15047
ארגנטינה	15048
להזיז	15049
נטען	15050
שהממשלה	15051
חקלאות	15052
סמכויות	15053
בסרטון	15054
פילוסופיה	15055
עתיקים	15056
האגם	15057
קובצי	15058
כלשהם	15059
יצרנית	15060
leg	15061
אמיץ	15062
וְא	15063
וְה	15064
מתקדמות	15065
ירוקים	15066
הונאה	15067
ניגש	15068
##irect	15069
manag	15070
הרגישו	15071
דרכון	15072
ונתן	15073
ישתנה	15074
ליעד	15075
הדיווחים	15076
הדיגיטלי	15077
זרימת	15078
ממקורות	15079
נלקח	15080
השיפוט	15081
cop	15082
tre	15083
אפר	15084
ביוון	15085
בורג	15086
דוחות	15087
הָ	15088
ויכוח	15089
לור	15090
לרבים	15091
מיטב	15092
נחר	15093
עימ	15094
צרכי	15095
##sa	15096
##מְ	15097
##מעת	15098
##מליים	15099
##זינים	15100
##17	15101
##וררים	15102
##ורכי	15103
להמ	15104
לאיחוד	15105
##יוטים	15106
##וארת	15107
##דידות	15108
##לינו	15109
##ישג	15110
השנתית	15111
שהר	15112
שהוביל	15113
התכו	15114
מארג	15115
##וסת	15116
מתפתח	15117
הקולות	15118
לשגר	15119
מעיר	15120
מעתה	15121
ההווה	15122
הדעות	15123
הדרישה	15124
אמות	15125
ובינלא	15126
שמירת	15127
##סטוסטרון	15128
להתאהב	15129
##וננים	15130
##כתבה	15131
##וניו	15132
שעשוי	15133
מפצ	15134
הרבי	15135
בטכני	15136
לפנינו	15137
##ane	15138
##שמתי	15139
ידעת	15140
##פסון	15141
ולהש	15142
נגיע	15143
נשואה	15144
נחוש	15145
רובוט	15146
ארוכת	15147
להעיר	15148
לרמת	15149
צעצועים	15150
מהמס	15151
וקור	15152
וקשה	15153
##פאין	15154
ומתח	15155
##טיחות	15156
אופציה	15157
מוקדש	15158
שנותרו	15159
הקטל	15160
נביא	15161
לאחסן	15162
הפסיק	15163
נכנסתי	15164
פלילי	15165
הירידה	15166
מניחים	15167
המוסדות	15168
הפתוח	15169
עמוס	15170
סגנו	15171
##rael	15172
אמיתיות	15173
מעוניינת	15174
השמחה	15175
בידור	15176
מתארת	15177
בפעולות	15178
תדעו	15179
אקדמית	15180
המורדים	15181
בבעלי	15182
שוכחים	15183
אוכלוסיות	15184
בצרפתית	15185
במדעי	15186
כשלעצ	15187
מיסים	15188
תרנג	15189
הקבצים	15190
איבדתי	15191
תפקידה	15192
ההתקפה	15193
נלחמים	15194
הסעודית	15195
ידידותי	15196
תיעוד	15197
נפתחה	15198
שמגיעים	15199
האנטישמיות	15200
אלקטרוניים	15201
נרצח	15202
בהגנה	15203
ליטול	15204
הקלאסית	15205
ההנהלה	15206
אימוץ	15207
וכדומה	15208
facebook	15209
ולמצוא	15210
07	15211
:"	15212
dig	15213
mot	15214
ביא	15215
בָּ	15216
דינו	15217
הותק	15218
ונט	15219
וצי	15220
יני	15221
כניס	15222
כראש	15223
לכוון	15224
מלק	15225
מראות	15226
מיעוט	15227
נוחים	15228
נגרם	15229
סצ	15230
סכסוך	15231
עוף	15232
עסוקים	15233
פופ	15234
פרוב	15235
תרח	15236
תסתכל	15237
##אז	15238
##בילות	15239
##בונות	15240
##קיה	15241
##פוח	15242
##פשו	15243
##ls	15244
##ֶת	15245
שלמד	15246
המסקנה	15247
להיכ	15248
לאזרחים	15249
##ואב	15250
האוו	15251
האוז	15252
האיומים	15253
מהפר	15254
מהירים	15255
##ישרון	15256
השלט	15257
באיז	15258
אחלה	15259
העידן	15260
העלויות	15261
משכנתא	15262
איברים	15263
ואבא	15264
מעמיד	15265
ההמ	15266
ההימ	15267
ההפג	15268
בהפ	15269
היהודיים	15270
לחיז	15271
לחצות	15272
אלמנטים	15273
##כוני	15274
##לקח	15275
בסכום	15276
בסבלנות	15277
הזמנת	15278
היוצרים	15279
מבתי	15280
ולנסות	15281
##סטיב	15282
לתמונה	15283
לתכנית	15284
פער	15285
##כתבים	15286
לגובה	15287
מדרגה	15288
הראוי	15289
בגבול	15290
לספור	15291
ממילא	15292
שעובד	15293
##נקוט	15294
לכפר	15295
מטפל	15296
##שמעות	15297
שקרים	15298
במשטרה	15299
חזית	15300
המתאר	15301
הפרדה	15302
ושתי	15303
##ירתיות	15304
##itch	15305
הספרדית	15306
נפלה	15307
##style	15308
מוכנות	15309
182	15310
רחוקים	15311
להצדיק	15312
התחלת	15313
מושל	15314
תארו	15315
##eth	15316
מהמט	15317
מהמק	15318
ins	15319
125	15320
לנשק	15321
##קשן	15322
במעמד	15323
##רפתקה	15324
בנאום	15325
קרול	15326
ילדיו	15327
אגיד	15328
השלג	15329
##ott	15330
שפעת	15331
ומוות	15332
ניצב	15333
נצח	15334
##ute	15335
פלוס	15336
ההגעה	15337
לשחקן	15338
השבועות	15339
הפרופיל	15340
הוכחות	15341
מיליארדי	15342
מהעיר	15343
צייר	15344
1951	15345
הישראליות	15346
ואחיות	15347
הנפוצות	15348
עתיקה	15349
שעליהם	15350
שיקגו	15351
היצורים	15352
מייצרת	15353
המקצועיים	15354
סלע	15355
מעניינות	15356
מלהיות	15357
השאיפה	15358
נפרדות	15359
מעבדה	15360
עייפות	15361
החופשה	15362
שימשו	15363
שנקבע	15364
##ments	15365
##טיסטיקה	15366
שרציתי	15367
הגרעיני	15368
לבחירות	15369
פוטנציאלי	15370
העדיפויות	15371
##view	15372
שינויי	15373
תשובתי	15374
הנוגעים	15375
ובראשונה	15376
הממוקם	15377
שבוצעו	15378
##שֶׁר	15379
displaystyle	15380
דיאלוג	15381
ir	15382
jour	15383
lit	15384
tv	15385
דנה	15386
וחד	15387
ומצא	15388
זמנו	15389
חשה	15390
חישוב	15391
ימצא	15392
כדרך	15393
כָּ	15394
ממצאים	15395
סטי	15396
סופו	15397
עולות	15398
קיצור	15399
קוגניט	15400
רזי	15401
שסי	15402
תיכו	15403
##ca	15404
##נבול	15405
##כבים	15406
##מדי	15407
המרד	15408
המגרש	15409
המבקשים	15410
##ודנט	15411
##ודוקט	15412
האסון	15413
##מוניה	15414
היפני	15415
באילו	15416
במכתב	15417
החינו	15418
החומה	15419
##ראיות	15420
העולה	15421
התלב	15422
משפר	15423
מאפ	15424
בעובדה	15425
איבר	15426
שאול	15427
הסוס	15428
בשנתיים	15429
##וכבים	15430
לבת	15431
בתוצאות	15432
מקיימים	15433
בחול	15434
בחייך	15435
שבמה	15436
שבחר	15437
##ינוח	15438
בסיוע	15439
מבטא	15440
ומר	15441
שמיעה	15442
עצמות	15443
מיץ	15444
ברדיו	15445
##יגת	15446
שנמצאו	15447
שנדרש	15448
בפחות	15449
בכמויות	15450
##ony	15451
מטומט	15452
ממשלתי	15453
##שמיות	15454
##enn	15455
בלגיה	15456
##ates	15457
##פסות	15458
ביתר	15459
וחברת	15460
ולהס	15461
המתוכ	15462
באמצעי	15463
##מאן	15464
התחומים	15465
נאסר	15466
במוזיקה	15467
חסרה	15468
כהה	15469
##ille	15470
מתקנים	15471
מתקפה	15472
ופרו	15473
שרדו	15474
טבעיות	15475
פורסמו	15476
מולק	15477
כחברה	15478
ביצעו	15479
##ents	15480
שנתן	15481
יגיד	15482
מרוכז	15483
כבישים	15484
פסל	15485
מניע	15486
מניחה	15487
ממוצא	15488
להסתדר	15489
עברית	15490
שחקני	15491
באיזור	15492
לשלוש	15493
1955	15494
האופל	15495
ורוד	15496
המלאך	15497
אטרקציות	15498
הנפוצים	15499
יצירתית	15500
האגדה	15501
ברצוני	15502
הפגנות	15503
האינטלקט	15504
המודרניים	15505
פקודה	15506
adhd	15507
סנטה	15508
אקדמיים	15509
מרחבי	15510
השבעים	15511
דחף	15512
צודקים	15513
לגילוי	15514
הפריטים	15515
במטוס	15516
משרדים	15517
הונגריה	15518
במחשבה	15519
לטעום	15520
ארכיא	15521
הטכנולוגי	15522
היומיו	15523
התסריט	15524
האצבע	15525
צוחק	15526
ברבעון	15527
שקראתי	15528
83	15529
ep	15530
nat	15531
גישות	15532
גנטית	15533
חינ	15534
חפים	15535
חצות	15536
יורה	15537
יפסיק	15538
כנו	15539
מוניות	15540
נאה	15541
סכסוכים	15542
ערפ	15543
ענתה	15544
קמה	15545
רוסים	15546
שֶׁ	15547
תני	15548
##בנית	15549
##חורים	15550
##צוף	15551
##br	15552
##ged	15553
##13	15554
##80	15555
לאופן	15556
##ילם	15557
##ובדי	15558
האצבעות	15559
##ופעת	15560
במבחן	15561
במכשיר	15562
אחיה	15563
החגים	15564
החזרת	15565
אונים	15566
העבודות	15567
##יקוח	15568
למזרח	15569
מאט	15570
מאחד	15571
והשת	15572
והסת	15573
בעדינות	15574
בעמדה	15575
בעסקים	15576
שאמ	15577
הבכור	15578
הבטחה	15579
הבחינה	15580
הסג	15581
הסכימה	15582
מספיקה	15583
בשיטת	15584
מתלב	15585
ואשתו	15586
##נתן	15587
מעכשיו	15588
מעודד	15589
מעמיק	15590
הגמ	15591
לפיל	15592
בהשתתפות	15593
לחנך	15594
מקדם	15595
##אלב	15596
##רחת	15597
ובדרך	15598
בסקר	15599
הנתיב	15600
הנבחר	15601
הזע	15602
וממ	15603
ומרכז	15604
ולכ	15605
הטקס	15606
##....	15607
עצרו	15608
מיניות	15609
##ונל	15610
ברורות	15611
שנגרם	15612
לוודאי	15613
לצפון	15614
לכסף	15615
ולאפשר	15616
אבינו	15617
אינדי	15618
תחזית	15619
בזירה	15620
רצועת	15621
הרווחים	15622
##רמנית	15623
נפוצים	15624
מלאכים	15625
ההתנחלויות	15626
##roid	15627
##ets	15628
הניחו	15629
הוריהם	15630
למוח	15631
בתיאטרון	15632
המהות	15633
##ורגיה	15634
שנוצרו	15635
פלילית	15636
תצוגה	15637
המכריע	15638
##ose	15639
שהאנשים	15640
##יועץ	15641
להקפיד	15642
דעתם	15643
מוטלת	15644
1953	15645
המלאכים	15646
אסטרטגי	15647
סירבו	15648
נפרדת	15649
מחייבת	15650
המאוחדות	15651
דמיינו	15652
בהסכם	15653
בצעדים	15654
מעשיו	15655
שוחררו	15656
iii	15657
יושבת	15658
המעורבים	15659
##קטוריון	15660
associ	15661
הייחודי	15662
ויקטוריה	15663
בפשטות	15664
מיזוג	15665
06	15666
3d	15667
down	15668
tri	15669
איים	15670
אורי	15671
בנשים	15672
גופי	15673
הורי	15674
ורב	15675
זולה	15676
זולים	15677
חפש	15678
חידוש	15679
יזם	15680
נחק	15681
סיא	15682
עיכוב	15683
פרמ	15684
פצועים	15685
קרבות	15686
קנאה	15687
שרכ	15688
שילדים	15689
תלות	15690
##ev	15691
##בְ	15692
##of	15693
##זמת	15694
##זקה	15695
##14	15696
שלוק	15697
##וריו	15698
לאבא	15699
לאהבה	15700
##יהינום	15701
##ובס	15702
##ומנות	15703
##ומכת	15704
אחזור	15705
##וסס	15706
בעוצמה	15707
איסל	15708
איינשטיין	15709
לערך	15710
הביקוש	15711
הסגל	15712
בשיפור	15713
מתמטיקה	15714
##נתק	15715
##יסקי	15716
הגמר	15717
הגנרל	15718
הציוני	15719
מקורי	15720
וביט	15721
הנאום	15722
הזולת	15723
הזוכה	15724
היוקר	15725
וללכת	15726
##פתחים	15727
אפליקציות	15728
##וזי	15729
לדירה	15730
לדרישות	15731
ברפואה	15732
בבתים	15733
##ונייה	15734
בגדול	15735
שנכתב	15736
הזהיר	15737
בדא	15738
בפוסט	15739
ממד	15740
ממזרח	15741
##רקציה	15742
##נקי	15743
אנושיות	15744
מזוי	15745
ניתנות	15746
שקטה	15747
כשלא	15748
##יזים	15749
הרוצח	15750
להפך	15751
המטפל	15752
קרובי	15753
אלימה	15754
קודמת	15755
רכבות	15756
מוזיאונים	15757
הודיעו	15758
מתקבל	15759
להכחיש	15760
קריטית	15761
הלבנה	15762
למחצה	15763
שכלל	15764
גלולות	15765
מהאוכלוסייה	15766
הרחם	15767
פעילותו	15768
דאג	15769
למדעים	15770
חולשה	15771
child	15772
זכאים	15773
החשיפה	15774
האספקה	15775
הקורסים	15776
יצאנו	15777
תיקונים	15778
דתות	15779
חלבונים	15780
בוחנים	15781
שיצאו	15782
חומצות	15783
##יונל	15784
מצוינים	15785
קובעת	15786
להיזהר	15787
נאלצים	15788
ממחצית	15789
פותחת	15790
סעיפים	15791
הפופולרי	15792
כוסות	15793
התרחשו	15794
שראינו	15795
האינפלציה	15796
פסיכולוגי	15797
דואגים	15798
לרצוח	15799
מסורתית	15800
מוצלחים	15801
והייתה	15802
המסורתית	15803
וראיתי	15804
פלטפורמה	15805
הפשוטה	15806
access	15807
ההישגים	15808
לינקולן	15809
##יטקטורה	15810
04	15811
elect	15812
hu	15813
how	15814
iv	15815
ארס	15816
דפ	15817
דפי	15818
חיש	15819
ירה	15820
ייג	15821
ימצאו	15822
פוקס	15823
שידור	15824
תוש	15825
תכנ	15826
תורמים	15827
##שואים	15828
##ham	15829
##coin	15830
##בני	15831
##בלי	15832
##נזה	15833
##מיקה	15834
##מטה	15835
##פם	15836
##bl	15837
##bur	15838
##זקות	15839
##יתור	15840
המי	15841
לאומיות	15842
##ילין	15843
האבוד	15844
האסטר	15845
זהיר	15846
השט	15847
השיק	15848
השמונים	15849
בארו	15850
באוז	15851
במפעל	15852
החיצונית	15853
##ראן	15854
למגוון	15855
התכוון	15856
משנות	15857
משוח	15858
משחר	15859
מארה	15860
##יעון	15861
שאותם	15862
מסעות	15863
בשפת	15864
וארגונים	15865
הקואליציה	15866
הגרו	15867
בהשק	15868
לבסס	15869
מחבלים	15870
##יינתי	15871
הציונות	15872
בתנ	15873
שבאו	15874
כאמצעי	15875
##שיכה	15876
ובפ	15877
ובאי	15878
בספרי	15879
שמז	15880
לתנאים	15881
לגבולות	15882
זוהר	15883
לדף	15884
עדשות	15885
ידיד	15886
מגוונים	15887
רוצח	15888
##רצאה	15889
המקורות	15890
בלוג	15891
##מיתות	15892
הרוחות	15893
##ומיין	15894
נקמה	15895
##סימה	15896
##יסטיות	15897
הוליווד	15898
##lex	15899
רובין	15900
קורט	15901
רעידות	15902
##בטל	15903
##בטחת	15904
שגויה	15905
להשפ	15906
##rop	15907
משחקת	15908
המצרי	15909
המצרים	15910
המצוי	15911
במחירים	15912
הפעילים	15913
אינטליגנציה	15914
פרישה	15915
אגודת	15916
רוחב	15917
שפיר	15918
יבינו	15919
בסיסיות	15920
שמתח	15921
שטחי	15922
##בולנס	15923
רשומות	15924
לרוסיה	15925
אובייקטים	15926
משלחת	15927
##נרלים	15928
חולמים	15929
שהגוף	15930
שולטים	15931
סכין	15932
מהיכן	15933
וירג	15934
מחויבת	15935
לימודיו	15936
סיפרתי	15937
israel	15938
גדלו	15939
ספינה	15940
ללימודי	15941
השיעורים	15942
##ניטרי	15943
התרגיל	15944
עיקרון	15945
שונאת	15946
צוואר	15947
grand	15948
המתחרים	15949
תירוץ	15950
מיתוס	15951
נתקלים	15952
פורטוגל	15953
מתעוררת	15954
הסחורה	15955
instit	15956
בסביבת	15957
לרדוף	15958
ההלוואה	15959
data	15960
gir	15961
king	15962
אראה	15963
ויפה	15964
זבל	15965
ייכנס	15966
יאללה	15967
יופיע	15968
לואי	15969
סלב	15970
עיתונים	15971
צפה	15972
רך	15973
ריה	15974
תיו	15975
תיכון	15976
##ייתה	15977
##בנציונ	15978
##צין	15979
##טע	15980
##קיע	15981
##ֶץ	15982
##xx	15983
##וליווד	15984
##יתוך	15985
המפיק	15986
המכר	15987
##יוניות	15988
##ומטים	15989
השפות	15990
השמיני	15991
באליפות	15992
באקדמיה	15993
במאות	15994
במימון	15995
במכירות	15996
שהמצב	15997
העצה	15998
למראה	15999
למקור	16000
התפשטות	16001
בענייני	16002
לעזרת	16003
מסין	16004
בשוו	16005
בשינוי	16006
הפין	16007
הקניות	16008
##יטיס	16009
לשב	16010
ההופעות	16011
##מינל	16012
##לקסיה	16013
היוצר	16014
לתנועה	16015
מכס	16016
מכובד	16017
##ינקט	16018
##חקה	16019
להתרגל	16020
מדגם	16021
ברצועת	16022
בפלסט	16023
##שאית	16024
מטי	16025
נוסח	16026
##ימנים	16027
יצירתיים	16028
##eng	16029
אבחון	16030
##גרף	16031
המעסיק	16032
כשס	16033
ותש	16034
ותס	16035
התקנת	16036
נהגו	16037
שחזר	16038
להפיל	16039
##בקת	16040
תוכנן	16041
##וליטיקאים	16042
סטריט	16043
סטארט	16044
דייו	16045
נאמנים	16046
תגידי	16047
פרוייקט	16048
לנפש	16049
ששום	16050
##גשם	16051
##גשוג	16052
כחצי	16053
מרכזית	16054
בפנינו	16055
האידי	16056
הרחובות	16057
אמריקנית	16058
המרכזיות	16059
תיאוריה	16060
תבנית	16061
ממוח	16062
סיפק	16063
char	16064
תסריט	16065
בתוכה	16066
אצלך	16067
ממשלתית	16068
ושלושה	16069
סגורה	16070
החשוד	16071
שבעולם	16072
שמאחורי	16073
עולמות	16074
ניקיון	16075
דוגמת	16076
נפגעו	16077
לאיכות	16078
חפץ	16079
החיוך	16080
סופרמן	16081
דואג	16082
ולגרום	16083
תשתיות	16084
]].	16085
מסחריים	16086
פחמימות	16087
ללחץ	16088
לרעיון	16089
נרשם	16090
לפרויקט	16091
הטכנולוגיות	16092
המוקדמים	16093
מתפתחת	16094
##form	16095
אֱלֹה	16096
##ורתודוק	16097
##ומיניום	16098
techn	16099
נפוליאון	16100
02	16101
euro	16102
fbi	16103
god	16104
ios	16105
lab	16106
wom	16107
אַ	16108
אומות	16109
בילה	16110
בוסטון	16111
גונ	16112
הולם	16113
ויום	16114
יידע	16115
יתחילו	16116
כיהן	16117
לִ	16118
פרצה	16119
פיסת	16120
צמוד	16121
ריג	16122
שכתוב	16123
תובע	16124
##דלה	16125
##ka	16126
##צחים	16127
##מיע	16128
##yl	16129
##37	16130
##fr	16131
##ניעה	16132
##יתר	16133
##יתכן	16134
המשו	16135
המימון	16136
להזיק	16137
להחלטה	16138
##ירתם	16139
##ילון	16140
##ליזציה	16141
##יביה	16142
במשותף	16143
החתימה	16144
שהות	16145
כללו	16146
העימות	16147
למנות	16148
מאדים	16149
והיר	16150
##פרנס	16151
הסינ	16152
הסיום	16153
מתפק	16154
ישבו	16155
לשטח	16156
לשכב	16157
##יסל	16158
הגיש	16159
##מתנה	16160
לחק	16161
לחדור	16162
##וויז	16163
##שתף	16164
ובעל	16165
הנך	16166
##דרציה	16167
מביט	16168
עבורה	16169
הטבות	16170
מכות	16171
##וזב	16172
לגבול	16173
מדגיש	16174
המשקה	16175
הרצועה	16176
בבה	16177
שעם	16178
שעובר	16179
לצבור	16180
לצרוך	16181
מפיק	16182
בטורקיה	16183
##בתם	16184
##שלנות	16185
חלקיקים	16186
##פורמות	16187
הלכנו	16188
אינדיביד	16189
גביע	16190
להפע	16191
##קדמת	16192
##גליות	16193
כדורים	16194
התעשיית	16195
להעיד	16196
ניסינו	16197
גורלו	16198
חשף	16199
תגוב	16200
וקרא	16201
הגבעה	16202
במעבדה	16203
מוגנים	16204
למועדון	16205
קרדיט	16206
מולדת	16207
טיפוח	16208
יספיק	16209
##ecd	16210
כספית	16211
להסתגל	16212
להסתמך	16213
הצלחת	16214
בהחלטה	16215
המוסלמי	16216
להזין	16217
סוכנויות	16218
נטילת	16219
real	16220
צילומים	16221
ובאמת	16222
גופני	16223
להירדם	16224
אליהו	16225
פירוק	16226
להתחמק	16227
שבתוכ	16228
white	16229
excel	16230
ורוצה	16231
##קולטה	16232
יזכה	16233
להדפיס	16234
התכוונתי	16235
המיוחדים	16236
עניתי	16237
עיקריות	16238
השאיר	16239
שמייצ	16240
ויטמינים	16241
דמוקרטי	16242
חתיכת	16243
פסיכולוגית	16244
התשעים	16245
דיגיטליים	16246
חיפש	16247
לחייו	16248
בכתובת	16249
סיגריה	16250
לובש	16251
לאתגר	16252
איזשהו	16253
אכזבה	16254
קטלני	16255
המשפחתי	16256
לשמירה	16257
יוקרה	16258
תקציר	16259
השגרירות	16260
השוויון	16261
מסייעים	16262
המסורתי	16263
להפגין	16264
##ילבניה	16265
טיילור	16266
du	16267
ear	16268
mid	16269
דחה	16270
וניס	16271
חרא	16272
טיפה	16273
ירגיש	16274
יסייע	16275
כעל	16276
לנד	16277
סגר	16278
עַל	16279
צח	16280
קשת	16281
קומות	16282
ריקים	16283
תלך	16284
##עג	16285
##שיה	16286
##com	16287
##סח	16288
##סנים	16289
##טיקה	16290
##מכרות	16291
##ׂר	16292
##ורבות	16293
##ניחה	16294
##נוח	16295
##נוקת	16296
המלי	16297
המבקש	16298
להמיר	16299
לאסור	16300
לאזורים	16301
האוסף	16302
##מונ	16303
##יבוץ	16304
השיי	16305
במיקום	16306
החני	16307
החוקר	16308
החושך	16309
כללה	16310
העתק	16311
למלך	16312
בעייתי	16313
שאמרו	16314
##זהרו	16315
הסמוך	16316
##לוני	16317
בשיא	16318
בשכר	16319
בשלטון	16320
הקרק	16321
לשניים	16322
מעלים	16323
ההורה	16324
לפקח	16325
לבעל	16326
לחיל	16327
לחיצה	16328
##וויית	16329
אלך	16330
##רחי	16331
בחנו	16332
בחבר	16333
הזכיר	16334
ולבנות	16335
הטווח	16336
לתושבי	16337
מכינים	16338
להתפ	16339
להתמודדות	16340
1920	16341
מיכל	16342
בקידום	16343
בגדר	16344
...)	16345
מגדלים	16346
ממקור	16347
מדיני	16348
בטוב	16349
##בתו	16350
##ימיק	16351
בנושאי	16352
##טריון	16353
אבני	16354
לכלל	16355
##פסיה	16356
עדיפות	16357
מילולית	16358
קטעי	16359
שכבה	16360
יחזרו	16361
נהדרים	16362
פייר	16363
שחש	16364
התיירים	16365
התינוקות	16366
רחל	16367
מלפני	16368
לרשימת	16369
במוש	16370
יקום	16371
במחלות	16372
הורמון	16373
##מליות	16374
אינטרא	16375
אינטליג	16376
פרסומות	16377
למוצרים	16378
בתיק	16379
177	16380
יגדל	16381
הרעש	16382
והשפ	16383
הצליל	16384
מנחה	16385
בתוכי	16386
המושל	16387
אצטרך	16388
קצרות	16389
הקורא	16390
והפעם	16391
לוחמי	16392
צילומי	16393
רומניה	16394
ההזדמנויות	16395
##ific	16396
שזוהי	16397
השמלה	16398
דתיות	16399
##ָּה	16400
1933	16401
בחלקו	16402
##יליארד	16403
גדלתי	16404
ולתמיד	16405
שגריר	16406
ואמרתי	16407
ללימוד	16408
קביעת	16409
סירבה	16410
הימנית	16411
חריפה	16412
השאירו	16413
המונחים	16414
התפקידים	16415
הקמתה	16416
ולספק	16417
במלואו	16418
דרכם	16419
להישמע	16420
מרצון	16421
מסויימת	16422
תואם	16423
יומיומי	16424
מסייעת	16425
תובנות	16426
##שווית	16427
בהיותו	16428
היגיון	16429
peop	16430
הצוואר	16431
מרוויחים	16432
ללונדון	16433
התצוגה	16434
מושפעים	16435
להינשא	16436
בחופשיות	16437
מריחואנה	16438
ההתבגרות	16439
וייתכן	16440
";	16441
big	16442
oecd	16443
pet	16444
אֵ	16445
ארט	16446
גיב	16447
גנב	16448
דונם	16449
זרק	16450
טניס	16451
ירצו	16452
נמד	16453
עידוד	16454
שרצה	16455
##לְ	16456
##לולי	16457
##שואין	16458
##שָׁ	16459
##נפים	16460
##to	16461
##כט	16462
##מז	16463
##פחים	16464
##day	16465
##וריון	16466
המולדת	16467
##שראת	16468
החזיר	16469
שהמס	16470
שהשתת	16471
העוסקים	16472
בעיקרון	16473
אישרה	16474
##וגמת	16475
##משת	16476
הסד	16477
מסדר	16478
##לויזיה	16479
בשער	16480
מתכון	16481
ישתמש	16482
הפלישה	16483
הקימה	16484
ההשראה	16485
לפצות	16486
כימיה	16487
הציפורים	16488
לחו	16489
הדירוג	16490
מקשיב	16491
##רתית	16492
ובז	16493
בסיבוב	16494
מצלמת	16495
ומידע	16496
ולפ	16497
##סטן	16498
##ינורות	16499
להתלבש	16500
בקמפוס	16501
לגבות	16502
יהושע	16503
שעמד	16504
##בעיה	16505
כמע	16506
שקור	16507
האמא	16508
האמבטיה	16509
נשמר	16510
מוכרח	16511
רבין	16512
בלבול	16513
צעצוע	16514
מרשימה	16515
מוגדרת	16516
כחודש	16517
שצריכים	16518
האדון	16519
השלושה	16520
האידיאלי	16521
כבן	16522
כבני	16523
ההשכלה	16524
תצפית	16525
דיונים	16526
למדעי	16527
טראומה	16528
הפרויקטים	16529
הוכר	16530
עמוקים	16531
צדדי	16532
##ript	16533
הפוליטיות	16534
האופוזיציה	16535
העתידי	16536
שילם	16537
##ifi	16538
השמאלית	16539
נוצרי	16540
בידיו	16541
טכנולוגי	16542
התרומה	16543
הערביות	16544
שאינך	16545
הועבר	16546
המפורסמים	16547
מתוכננת	16548
משמעת	16549
לצעוד	16550
האקדמי	16551
פיצויים	16552
למתן	16553
ממצרים	16554
ירדה	16555
##פקטיבה	16556
ומכאן	16557
הארמון	16558
about	16559
בכתבה	16560
וילסון	16561
האיסור	16562
משולב	16563
ששמעתי	16564
משכורת	16565
##ney	16566
עגבניות	16567
מקסימ	16568
עמיתים	16569
הלוחמים	16570
ולמעשה	16571
מופתע	16572
ממושכת	16573
free	16574
award	16575
המדהים	16576
אינטנסיבי	16577
89	16578
cry	16579
found	16580
בוס	16581
בוי	16582
בידע	16583
גדר	16584
דב	16585
דיק	16586
זית	16587
זרועות	16588
טכניים	16589
יריות	16590
יוסי	16591
ככלי	16592
לָ	16593
לבלתי	16594
מְ	16595
מודים	16596
מולד	16597
עורר	16598
פלט	16599
צרו	16600
תרמו	16601
תולדות	16602
״,	16603
##נבים	16604
##טלה	16605
##מרט	16606
##מנתי	16607
##ֹּ	16608
##60	16609
שלמרות	16610
המיקרו	16611
##ריית	16612
היק	16613
##ישנים	16614
אושרה	16615
העז	16616
העושר	16617
למאה	16618
מאידך	16619
בעניינים	16620
לערבים	16621
הסיר	16622
הסודות	16623
מתגורר	16624
הפירות	16625
ההם	16626
מחוס	16627
מחודשת	16628
##יינית	16629
בתרופות	16630
הדוד	16631
הדפסה	16632
##וונו	16633
הכיתה	16634
אלרג	16635
אלפא	16636
בחומר	16637
מבוא	16638
שמלה	16639
##סטה	16640
לתלמיד	16641
##קהל	16642
מימין	16643
##ונא	16644
בקש	16645
בכלים	16646
ידיעה	16647
ברנ	16648
ברקע	16649
בגלוי	16650
ראיונות	16651
ממלאים	16652
##פטו	16653
##רצאות	16654
לכלי	16655
לכאב	16656
אחריהם	16657
וכשא	16658
תקוות	16659
המחזה	16660
המעוניינים	16661
ולהמשיך	16662
ללדת	16663
התקיימו	16664
##קטיביות	16665
##צלחת	16666
##ינהל	16667
##יסטיים	16668
##עדכן	16669
הרגלי	16670
הרגישה	16671
מלכים	16672
עסקת	16673
להשכלה	16674
תאומים	16675
במושב	16676
ביקרו	16677
הורדת	16678
קיבלת	16679
בראשו	16680
למוסיקה	16681
אגרס	16682
טריליון	16683
הרצוי	16684
##נחלות	16685
הירדן	16686
שניתנה	16687
במארס	16688
ומאוד	16689
שיכולות	16690
נדרשו	16691
ובהם	16692
1934	16693
נישוא	16694
מזרחי	16695
וויליאמס	16696
##פרסמו	16697
##oney	16698
נפגעים	16699
הועברו	16700
אנטיש	16701
blu	16702
phot	16703
להיעלם	16704
הימני	16705
הגילוי	16706
הקלפים	16707
מעבירים	16708
באתרי	16709
usb	16710
המאפשרים	16711
מפסיקים	16712
מעשנים	16713
פיגוע	16714
ובוודאי	16715
##תתפים	16716
למשפטים	16717
הדוקטורט	16718
security	16719
במועצת	16720
אֲשֶׁר	16721
הרמב	16722
פתאומי	16723
bitcoin	16724
קעקוע	16725
הממוצעת	16726
תמצית	16727
בסתיו	16728
ותוכניות	16729
ibm	16730
הסיסמה	16731
##ield	16732
המחויבות	16733
times	16734
lib	16735
law	16736
like	16737
mat	16738
mem	16739
rem	16740
בוה	16741
גוט	16742
דיקט	16743
הווי	16744
ושת	16745
חזור	16746
טריים	16747
מנס	16748
נדי	16749
נשי	16750
נרות	16751
נמר	16752
סובלת	16753
עיכ	16754
צלב	16755
צמצום	16756
ריאות	16757
תוע	16758
“.	16759
##דרון	16760
##שכת	16761
##ei	16762
##צצות	16763
##טלים	16764
##גית	16765
שלמדתי	16766
המנצח	16767
##יוטה	16768
השמו	16769
השקר	16770
במב	16771
במנה	16772
במזון	16773
העצב	16774
העוגה	16775
##יקורים	16776
התגור	16777
משוע	16778
לעקוף	16779
מתכו	16780
מתפלל	16781
הפקולטה	16782
ואוכל	16783
הקא	16784
הקיס	16785
לשנוא	16786
##יסק	16787
##יפייה	16788
ההרשמה	16789
##וכנת	16790
##וכנית	16791
בהשראת	16792
הצהוב	16793
בתזונה	16794
בתרגום	16795
הדיונים	16796
הכישלון	16797
בחייה	16798
##דרשו	16799
מצויים	16800
ומעל	16801
ולתק	16802
לתבוע	16803
פעול	16804
עצי	16805
##וננת	16806
המשפחת	16807
##יגי	16808
בגור	16809
לסגת	16810
לסיוע	16811
לספוג	16812
לוה	16813
מגמות	16814
לצער	16815
בטכנולוגיות	16816
למעמד	16817
תחזוקה	16818
קטעים	16819
בזאת	16820
הרוק	16821
יעמוד	16822
התקן	16823
##בדקו	16824
התיאור	16825
##ביבים	16826
חדשני	16827
הלאומיות	16828
תגרום	16829
הדיור	16830
רכשה	16831
רכיבים	16832
במוסדות	16833
חלשה	16834
לנמל	16835
מתחם	16836
##ily	16837
מתקשר	16838
שהתרחש	16839
##asc	16840
להסתיים	16841
פרסי	16842
שיעשה	16843
כנשיא	16844
קרני	16845
האדומים	16846
השפיע	16847
##מסונג	16848
בתקופות	16849
וטרי	16850
יאמר	16851
משלושת	16852
מותגים	16853
מותאם	16854
וצוות	16855
הפרוייקט	16856
הרוחניים	16857
כפיים	16858
להקריב	16859
הפוליטיקאים	16860
מונחים	16861
רומנטי	16862
הסטנדר	16863
השחקנית	16864
וירקות	16865
עתיקות	16866
היציבות	16867
##שינויים	16868
תדמית	16869
אנטיביוטיקה	16870
נאלצה	16871
פשעי	16872
פיתח	16873
בניסוי	16874
היבשת	16875
החולצה	16876
פצצות	16877
פציעות	16878
ויהי	16879
צורכים	16880
פתיחה	16881
אריאל	16882
שקיבלתי	16883
ההתקנה	16884
בעבודות	16885
בקטע	16886
מעריץ	16887
באותן	16888
נרחבת	16889
מאורגן	16890
קרטר	16891
ולפיכך	16892
מתלוננים	16893
מתפללים	16894
האטלנטי	16895
bel	16896
call	16897
dvd	16898
let	16899
mi	16900
mer	16901
roy	16902
york	16903
ווט	16904
ונגד	16905
ושלום	16906
וילד	16907
חנו	16908
חדה	16909
יול	16910
כפרים	16911
לוט	16912
ליבו	16913
נעה	16914
נכנ	16915
סימון	16916
עפ	16917
פינוי	16918
קיסר	16919
תנ	16920
תרי	16921
תיכ	16922
תכנן	16923
‏).	16924
##לע	16925
##למידי	16926
##חיד	16927
##צאת	16928
##הג	16929
##aut	16930
##ral	16931
##me	16932
##18	16933
##וריונים	16934
##ולף	16935
##ודדת	16936
להכשיר	16937
לאנגליה	16938
##יווח	16939
##יונר	16940
##ירתה	16941
היקרים	16942
##וממות	16943
השכל	16944
החכמה	16945
העניים	16946
העדן	16947
העבדות	16948
##יקלית	16949
למשימה	16950
התועלת	16951
##וצאת	16952
מאלו	16953
מאכלים	16954
בעני	16955
איפור	16956
הבכיר	16957
מסכן	16958
מסבירה	16959
מסלולים	16960
בשיר	16961
בשבילה	16962
מתנהג	16963
הקימו	16964
לשכת	16965
לשהות	16966
הגנים	16967
מחוסר	16968
מחסום	16969
הציונית	16970
בתדירות	16971
הדח	16972
הדוגמה	16973
אמבטיה	16974
הכיוונים	16975
##רחבות	16976
בחסות	16977
לקלוט	16978
שבור	16979
שבגל	16980
היומית	16981
היוזמה	16982
היווצרות	16983
מצבה	16984
ומלא	16985
ולפני	16986
##פתרון	16987
הטיל	16988
המשורר	16989
ועושה	16990
שנרכ	16991
שנמצאת	16992
שעבור	16993
לצרכי	16994
##פטרות	16995
לפניכם	16996
##נקן	16997
מטריד	16998
יודעות	16999
##ימא	17000
וכפי	17001
##רסון	17002
##חיילים	17003
מילא	17004
שתג	17005
שתרצה	17006
שתרצו	17007
המסגרת	17008
וחל	17009
הנופש	17010
##קטיקות	17011
תערוכה	17012
נפילת	17013
המאמינים	17014
שיודע	17015
##פעילים	17016
##קוור	17017
מתקשים	17018
מתקפת	17019
מתקיימים	17020
בשלושת	17021
ודרום	17022
##קבלה	17023
##גורית	17024
##גוריתם	17025
הוודאות	17026
מסתכלת	17027
מומחי	17028
זקנים	17029
##מסגרת	17030
גלובלי	17031
בברצלונה	17032
המגיעים	17033
שמשת	17034
לברך	17035
להאט	17036
תיאוריות	17037
קונסט	17038
מנוסה	17039
לרווח	17040
המוצא	17041
ציורים	17042
הפתעות	17043
לפגישה	17044
מבוססי	17045
1954	17046
סגורים	17047
מונעים	17048
זכותו	17049
הצביע	17050
פועלות	17051
ציבוריות	17052
מפלצת	17053
הנפוצה	17054
def	17055
dead	17056
חילוף	17057
שיצר	17058
##ויחו	17059
בתערוכה	17060
פוגעת	17061
יזמים	17062
תדירות	17063
פופולריים	17064
שווייץ	17065
מדויקים	17066
1929	17067
work	17068
הבהיר	17069
חריג	17070
נבחרו	17071
הנצרות	17072
הדלתות	17073
ליישום	17074
הווידאו	17075
מפעלים	17076
מפעילים	17077
ויקיפדיה	17078
דמותו	17079
הפדרלית	17080
מגדירים	17081
previ	17082
airport	17083
שלישיים	17084
המחוזי	17085
גרסת	17086
ייראה	17087
הגאולה	17088
##זולוציה	17089
המשפיעים	17090
דפוסי	17091
פנטזיה	17092
שמטרתו	17093
התמקדות	17094
הקתולית	17095
science	17096
דימוי	17097
המסחרי	17098
every	17099
journal	17100
previous	17101
08	17102
94	17103
jew	17104
jav	17105
pdf	17106
rob	17107
חזה	17108
חומת	17109
יפו	17110
יומית	17111
ימינה	17112
ייסון	17113
לניק	17114
סדרות	17115
ערכת	17116
פד	17117
פיי	17118
קנט	17119
קילו	17120
שְ	17121
שירי	17122
תיתן	17123
##ערים	17124
##אריות	17125
##סא	17126
##סמות	17127
##פליק	17128
##זיס	17129
##32	17130
##gb	17131
##וללות	17132
המו	17133
לאלימות	17134
##רייה	17135
##דיי	17136
##דיחה	17137
##רומה	17138
מהנו	17139
מהזמן	17140
במדויק	17141
שהוכ	17142
העניקה	17143
התמקד	17144
משמר	17145
##יעד	17146
הבאת	17147
הסברים	17148
הסייבר	17149
בשמות	17150
מתמדת	17151
מתנצל	17152
ישוב	17153
ישנות	17154
ואו	17155
ואמא	17156
הקווים	17157
##יטס	17158
##רכתי	17159
##רכון	17160
מעולים	17161
מעידים	17162
מעסיק	17163
מעמדו	17164
ההנ	17165
לחוסר	17166
לחולל	17167
הדגם	17168
אמנת	17169
בחדשות	17170
הנגר	17171
##רטי	17172
##יצו	17173
ומדע	17174
ומנהל	17175
##סטודנטים	17176
מכנס	17177
##ונר	17178
##ונגריה	17179
##שבי	17180
לדמות	17181
לדורות	17182
בגב	17183
בגידה	17184
בגינה	17185
בגוגל	17186
שנבחר	17187
בפסטיבל	17188
לצל	17189
##inc	17190
##onom	17191
הכלכליות	17192
וחסר	17193
במשבר	17194
הנוצרית	17195
אירו	17196
הפרטית	17197
##ices	17198
ושום	17199
##its	17200
להפתיע	17201
נפלאים	17202
##ster	17203
##עדפות	17204
הרגעים	17205
אומנם	17206
שייק	17207
אסורה	17208
הופנה	17209
התעסוקה	17210
אלייך	17211
##בטח	17212
יוצאות	17213
##els	17214
פנייה	17215
וסביב	17216
##ety	17217
במוצרים	17218
במחלקה	17219
מתישהו	17220
הנהיגה	17221
במעצר	17222
פרלמנט	17223
פרסומת	17224
שיעזור	17225
למוצר	17226
למוזיאון	17227
הנשיאות	17228
ומשם	17229
הלבנים	17230
מסתובב	17231
שמועות	17232
ספקי	17233
החדשנות	17234
המגזין	17235
ומערכת	17236
הפסיקה	17237
הפסיקו	17238
1946	17239
מקורו	17240
פעילותה	17241
וזמן	17242
המכילים	17243
##osh	17244
ליידי	17245
לייזר	17246
המוצעים	17247
1952	17248
מדהימות	17249
הידועים	17250
מכשול	17251
הוצגו	17252
לנקודת	17253
הצהרות	17254
האלוהי	17255
הנפשי	17256
קדושים	17257
לתינוקות	17258
תדאג	17259
האבנים	17260
מהדף	17261
פופולרית	17262
קפיט	17263
האפריק	17264
האפליקציה	17265
אינספור	17266
אינסולין	17267
קלאסית	17268
פותחים	17269
להרחיק	17270
##מפרטורת	17271
למתוח	17272
שוודיה	17273
ויקרא	17274
התייחסו	17275
בכנסייה	17276
גרעין	17277
ברגעים	17278
השחורים	17279
קניתי	17280
אבותינו	17281
בקטגוריה	17282
סטנדרטים	17283
סטנדרטי	17284
עשיתם	17285
הפורום	17286
הדיגיטלית	17287
הציגו	17288
התנהגויות	17289
מלאכותי	17290
הקונצ	17291
האיטלקית	17292
הנבחרת	17293
נמנעת	17294
##וקרטיה	17295
ייחודיות	17296
ממושך	17297
נרחבים	17298
הארצית	17299
האוהדים	17300
הבולטים	17301
טיעון	17302
האוכלוסיה	17303
בדרכם	17304
העמוקה	17305
הקפיטליזם	17306
הבישול	17307
ורדן	17308
galax	17309
people	17310
fam	17311
rad	17312
vo	17313
vol	17314
אסטר	17315
בפתח	17316
ביבי	17317
גירוש	17318
גיבוי	17319
גנרל	17320
זורם	17321
זווית	17322
חתם	17323
חומה	17324
חבורה	17325
חיצונית	17326
חרקים	17327
טוקיו	17328
יובל	17329
ניל	17330
עוני	17331
עינויים	17332
קסום	17333
קיצונית	17334
שָׁ	17335
תרגיש	17336
##לוס	17337
##אריים	17338
##נעת	17339
##rap	17340
##גמה	17341
##כרויות	17342
##פוז	17343
##ֵר	17344
##ולדה	17345
המלים	17346
המיסים	17347
להניע	17348
לאג	17349
לאוט	17350
##יוור	17351
##דיפות	17352
הימי	17353
##ופשת	17354
השירה	17355
במרבית	17356
במורד	17357
החוז	17358
החובות	17359
החטא	17360
שהבח	17361
##ראג	17362
הענן	17363
למר	17364
מאדם	17365
מאוז	17366
איטית	17367
שאבא	17368
שאיפות	17369
לעלייה	17370
##משכו	17371
##יאנית	17372
בשק	17373
הקרו	17374
לשלול	17375
##יפוס	17376
מעוות	17377
ההט	17378
ההלכה	17379
בהשפ	17380
לבנו	17381
היהודיות	17382
היהלומים	17383
לחיס	17384
הכוס	17385
הכתר	17386
אלברט	17387
בחומרים	17388
שבב	17389
בסק	17390
היווני	17391
##סטרים	17392
הטירה	17393
הטעויות	17394
מכין	17395
##וטב	17396
להתנהגות	17397
מימוש	17398
##ונזיה	17399
בקב	17400
##פיכה	17401
יהא	17402
מגר	17403
מגמה	17404
בכאב	17405
לנוס	17406
המקובל	17407
##שלמת	17408
וככל	17409
וכנראה	17410
##פורסם	17411
ולהשת	17412
שכנים	17413
נקייה	17414
ותקשורת	17415
נהניתי	17416
שחוו	17417
הספרדי	17418
הולכות	17419
נפץ	17420
הרגש	17421
אומגה	17422
תוכלי	17423
כדורי	17424
##פעמים	17425
##בחרת	17426
נסיון	17427
שגורמים	17428
שתיית	17429
ביקוש	17430
מורשה	17431
הגבלה	17432
מתקיימת	17433
עומס	17434
עומדות	17435
אוכלת	17436
מוגדרים	17437
ברוס	17438
מוקף	17439
מסתורי	17440
story	17441
רוחניות	17442
שנותן	17443
האיברים	17444
כבדה	17445
המגזר	17446
זכויותיהם	17447
חוזרות	17448
תצא	17449
הסכמי	17450
משקיע	17451
משקפיים	17452
העצם	17453
שוקל	17454
כפוף	17455
ולקחת	17456
והגנה	17457
תרגילים	17458
עתידי	17459
##ומטיות	17460
הטרנס	17461
1938	17462
פטנט	17463
סבירות	17464
##ody	17465
קובעים	17466
מעדיפה	17467
כנסיות	17468
עבודתה	17469
קבצי	17470
מעניקים	17471
מנגנוני	17472
cloud	17473
מוקדמים	17474
הספירה	17475
heart	17476
פצצה	17477
נמשכה	17478
מאוחרת	17479
גלידה	17480
לקריירה	17481
האיסלאם	17482
שליחת	17483
נלמד	17484
בכדורגל	17485
נוזלים	17486
great	17487
הטכניקה	17488
הייחודית	17489
##אינטרנט	17490
הספציפי	17491
מגוחך	17492
לשדרג	17493
"'	17494
doc	17495
direct	17496
hill	17497
link	17498
mob	17499
pat	17500
sub	17501
ביג	17502
ביניים	17503
גיטרה	17504
וחת	17505
ודו	17506
וינה	17507
ווסט	17508
חומות	17509
יורים	17510
לילי	17511
מיטה	17512
נכות	17513
נתח	17514
פרג	17515
פאל	17516
פניהם	17517
קובה	17518
קטינים	17519
רזה	17520
שובר	17521
שואה	17522
תוויות	17523
##ערות	17524
##עזר	17525
##ki	17526
##נבו	17527
##tv	17528
##קפות	17529
##גידים	17530
##מִ	17531
##מטים	17532
##פילד	17533
##by	17534
##ֶיךָ	17535
שלחה	17536
##ולמות	17537
המרוץ	17538
המגוון	17539
לארי	17540
##ילוי	17541
##ריאה	17542
##ליין	17543
##לידה	17544
העמוק	17545
##יקוד	17546
למבנה	17547
התת	17548
מארצות	17549
והדי	17550
והילדים	17551
##בלבל	17552
בעיתונות	17553
איפשר	17554
הבנו	17555
הביצוע	17556
הספה	17557
הסוהר	17558
מסט	17559
מסמל	17560
##רבעת	17561
בשלהי	17562
ישבתי	17563
הפקת	17564
הפורט	17565
לשווא	17566
הציגה	17567
לחלל	17568
לחברי	17569
הדדי	17570
ליידע	17571
הכעס	17572
##מצאה	17573
מבש	17574
מצטרף	17575
##מותת	17576
שמעה	17577
לתמיד	17578
מכוונים	17579
מכריע	17580
מייס	17581
בקרה	17582
##פינה	17583
ידיעות	17584
שנז	17585
בדח	17586
שעומדים	17587
לצמיחה	17588
##רצח	17589
בצו	17590
וכסף	17591
ילמדו	17592
כולסטרול	17593
##ara	17594
בלשון	17595
המעשים	17596
רגלי	17597
יעדי	17598
משתפים	17599
בריאן	17600
אוהבות	17601
תעודות	17602
נפלו	17603
נפלאות	17604
אדומה	17605
חדשניים	17606
ניסים	17607
נסיך	17608
מושלמים	17609
חשבונאות	17610
הדיסק	17611
ביטויים	17612
המציא	17613
אינטר	17614
מופעל	17615
והתא	17616
##מפיא	17617
גילתה	17618
תכנות	17619
ויזה	17620
בדיכאון	17621
ביצעה	17622
שפעם	17623
סביבי	17624
ומוע	17625
פסוק	17626
אשמים	17627
רשומים	17628
##ures	17629
פלדה	17630
##יכוי	17631
ידועות	17632
הקשורה	17633
במאמץ	17634
מהעבר	17635
זוגי	17636
שהגיעה	17637
צוותי	17638
צפיות	17639
1936	17640
סבירים	17641
iso	17642
אסטרטגיית	17643
הלחם	17644
...".	17645
ורוצים	17646
החקיקה	17647
phen	17648
השבטים	17649
הניסויים	17650
מרקס	17651
מברך	17652
חריף	17653
הוסיפו	17654
חטיבת	17655
גבינה	17656
בתאריך	17657
קניית	17658
הפקודה	17659
שורשים	17660
השופטת	17661
##earch	17662
לתעשיית	17663
תתקיים	17664
תוצרת	17665
נוקשה	17666
הפיקוח	17667
ופתאום	17668
מתעוררים	17669
פוסטים	17670
ששווה	17671
אשליה	17672
חיזוק	17673
html	17674
מהכלא	17675
market	17676
האולימפיים	17677
##פסיכולוג	17678
איסלנד	17679
galaxy	17680
"!	17681
bet	17682
ny	17683
so	17684
uv	17685
xbox	17686
year	17687
גלא	17688
גייס	17689
וניסיון	17690
חוכמה	17691
כו	17692
כיב	17693
כובע	17694
כרוני	17695
ליפ	17696
ליבי	17697
מלים	17698
ממתין	17699
סיבים	17700
צינור	17701
קולי	17702
קודש	17703
שדור	17704
תמרי	17705
תראי	17706
##עבד	17707
##ללה	17708
##חבת	17709
##rit	17710
##כבת	17711
המיזם	17712
להרכיב	17713
לאדמה	17714
האבות	17715
האימונים	17716
##תיחת	17717
##ומיה	17718
מהאי	17719
מהוות	17720
במחקרים	17721
כלכל	17722
אובר	17723
העבדים	17724
העיכול	17725
למין	17726
למיטה	17727
התלו	17728
משקר	17729
מאזור	17730
מאפיין	17731
מאנשי	17732
והתי	17733
##בלב	17734
אייז	17735
שאז	17736
##משכים	17737
הבינ	17738
הקשות	17739
לשליטה	17740
ההא	17741
ההבטחה	17742
לפנה	17743
בהנחה	17744
לבסיס	17745
מחוי	17746
מחאה	17747
לחצים	17748
מקדי	17749
ליגת	17750
הכרו	17751
בחלום	17752
מצעד	17753
##רטיב	17754
##יצע	17755
אפור	17756
מכא	17757
##חקיר	17758
##ונין	17759
לסמים	17760
לסמן	17761
שנאס	17762
##מידו	17763
בדלת	17764
##int	17765
##ino	17766
תקרא	17767
ולהגן	17768
ולהגיע	17769
הנוצרי	17770
נהוג	17771
נהרס	17772
ושיתוף	17773
אוהדים	17774
נפשו	17775
רובוטים	17776
מודיע	17777
להערכת	17778
##בטחות	17779
לפעולות	17780
משמעותו	17781
##קומו	17782
##כנולוגיית	17783
הניו	17784
במחזור	17785
עליונה	17786
להסיק	17787
ומתמיד	17788
מצבם	17789
גיליון	17790
אפשרו	17791
אגדה	17792
ste	17793
ספקות	17794
שפית	17795
יבין	17796
טיפוסי	17797
סביבו	17798
שמתאים	17799
הפסח	17800
תפוחי	17801
דאגות	17802
ממוקד	17803
וזכויות	17804
לפרש	17805
הקדמה	17806
ניירות	17807
שדבר	17808
מכשולים	17809
הנאמנות	17810
התבוננות	17811
פקודות	17812
express	17813
כלשהן	17814
הנחש	17815
האפשריים	17816
app	17817
micro	17818
מרובים	17819
במתמטיקה	17820
טהורה	17821
ברגשות	17822
פיננסית	17823
כשבוע	17824
התהליכים	17825
בוצעה	17826
אלקטרונית	17827
מבעיות	17828
חמצון	17829
הביולוגי	17830
מאובטח	17831
ובגלל	17832
שוטף	17833
בקבוקי	17834
סיבוכים	17835
הכותב	17836
איטלקי	17837
מבולבל	17838
הדוקטור	17839
השגריר	17840
פומבית	17841
היצרן	17842
מתגעגע	17843
view	17844
מקשיבים	17845
בחתונה	17846
מטיילים	17847
לצערנו	17848
,‏	17849
bur	17850
dc	17851
fir	17852
בורא	17853
גינה	17854
וילה	17855
וולט	17856
זל	17857
טרג	17858
טיס	17859
יונ	17860
מרוש	17861
נשות	17862
נחתם	17863
סומך	17864
קום	17865
ששה	17866
שוות	17867
שכונה	17868
תיג	17869
תפריט	17870
##לחות	17871
##בוי	17872
##חיק	17873
##גשו	17874
##גתו	17875
##מחו	17876
##מישים	17877
##פלו	17878
##פיעים	17879
##ֶל	17880
##וליות	17881
##ולטה	17882
המפתחות	17883
לאישור	17884
##יהור	17885
##ברית	17886
##ילדה	17887
##נהלי	17888
היכרות	17889
##ליד	17890
מהנ	17891
באחר	17892
באדמה	17893
במיט	17894
החוט	17895
החכמים	17896
העבירו	17897
למפלגה	17898
התחייבויות	17899
##ושוויץ	17900
משימוש	17901
מארו	17902
##ועדות	17903
אימ	17904
שאס	17905
##וגעת	17906
הסביב	17907
הסבירה	17908
בשפות	17909
מתוס	17910
מתרכז	17911
מתנהל	17912
הפכתי	17913
וארה	17914
##יפושים	17915
הגעה	17916
ההשתתפות	17917
כימיים	17918
לביקורת	17919
הדעה	17920
מקפ	17921
##רתעה	17922
בחולים	17923
לקיחת	17924
שבנו	17925
כאחת	17926
הזוכים	17927
ומל	17928
##פתיה	17929
הטלת	17930
לתרבות	17931
##וטל	17932
בקוב	17933
##לתית	17934
בגאווה	17935
לסוריה	17936
לספירה	17937
ועצ	17938
##יניות	17939
בפחד	17940
##והן	17941
##לחים	17942
שעבדו	17943
בכיס	17944
בכפוף	17945
האחיות	17946
במקצת	17947
ניתוחים	17948
ילכו	17949
תקנה	17950
##טרפו	17951
##ene	17952
##ords	17953
בליל	17954
המחלוקת	17955
תהיינה	17956
תחרויות	17957
כשק	17958
ולהביא	17959
וגור	17960
שנהיה	17961
הפרסים	17962
להשתלב	17963
אהרון	17964
תעשיות	17965
אסתר	17966
לזיהוי	17967
סינת	17968
רבקה	17969
נסבל	17970
##דלפיה	17971
במסיבת	17972
רכיבה	17973
מועבר	17974
מהמדינות	17975
במחנות	17976
לנור	17977
הפעיל	17978
##amp	17979
מופיעות	17980
ang	17981
נדון	17982
פורום	17983
ילדיה	17984
המהווה	17985
דויד	17986
רפאים	17987
בפניכם	17988
ומוצ	17989
המלצה	17990
עירוני	17991
##eck	17992
הציבוריים	17993
קליני	17994
פאול	17995
קונט	17996
נמכרו	17997
מעוררת	17998
לפרסום	17999
מובטח	18000
העצומה	18001
סיפורה	18002
שהחוק	18003
תרבותיים	18004
משאירים	18005
תופעת	18006
מההת	18007
ספורטאים	18008
1930	18009
טכנולוגיים	18010
מתארים	18011
העתידית	18012
למטבח	18013
prot	18014
##ode	18015
להתחשב	18016
1914	18017
פוגשים	18018
##פוליס	18019
פיקוד	18020
הנערים	18021
המוקדם	18022
עזבה	18023
הפיזית	18024
לצעוק	18025
המשותפים	18026
שוכח	18027
class	18028
בקולנוע	18029
במדרגות	18030
משרתים	18031
ירוקה	18032
האינדיא	18033
ממצאי	18034
המנוח	18035
המתחם	18036
לטענת	18037
יתקיימו	18038
שקיבלה	18039
לובשת	18040
שהפכו	18041
ולפעול	18042
ובטוח	18043
המיוחדת	18044
אכזרי	18045
צמחי	18046
החיסכון	18047
המוקדמת	18048
שעליכם	18049
שהוקם	18050
הקלאסי	18051
מישל	18052
בשמירה	18053
העממית	18054
ארדואן	18055
בארמון	18056
שטרם	18057
פושעים	18058
ממתינים	18059
scient	18060
ציטוט	18061
לקולנוע	18062
לנטוש	18063
אוקספורד	18064
ספורות	18065
הישראליים	18066
בזבוז	18067
להיכנע	18068
little	18069
שהשתתפו	18070
03	18071
gps	18072
last	18073
mc	18074
mp	18075
pm	18076
publ	18077
ארון	18078
גיבורים	18079
דימום	18080
זא	18081
חמוד	18082
חביב	18083
חוצה	18084
טאי	18085
ייל	18086
כיר	18087
כרצ	18088
לורד	18089
לטרור	18090
מנגד	18091
סינים	18092
סוחרים	18093
עשיית	18094
פרות	18095
פנסיה	18096
תיקים	18097
‏‏‏	18098
##לוב	18099
##נלים	18100
##נכים	18101
##rom	18102
##פינו	18103
##פילה	18104
##ִית	18105
##we	18106
##ָב	18107
##ורדו	18108
המיטב	18109
האמונות	18110
היפות	18111
##ומינ	18112
מהנש	18113
זהותו	18114
##כללות	18115
השמן	18116
השביל	18117
השוטר	18118
בארצ	18119
באפגניסטן	18120
[...]
