<unk>	0
<s>	0
</s>	0
▁ה	-0
▁ל	-1
▁א	-2
▁מ	-3
ים	-4
▁ב	-5
ות	-6
▁ש	-7
▁ע	-8
▁כ	-9
▁ו	-10
▁י	-11
ני	-12
▁של	-13
ור	-14
ול	-15
נו	-16
▁את	-17
ית	-18
רו	-19
▁המ	-20
▁ח	-21
וד	-22
▁לה	-23
רי	-24
▁לא	-25
▁הי	-26
די	-27
▁ז	-28
▁ת	-29
▁נ	-30
לי	-31
בר	-32
▁הא	-33
נה	-34
וא	-35
▁פ	-36
וב	-37
▁ק	-38
▁על	-39
ון	-40
יר	-41
יל	-42
▁ג	-43
יות	-44
יה	-45
רא	-46
ומ	-47
ין	-48
תי	-49
▁ס	-50
מו	-51
ום	-52
▁ר	-53
שי	-54
▁"	-55
מה	-56
נים	-57
▁מה	-58
כל	-59
▁ד	-60
מי	-61
שה	-62
▁זה	-63
שר	-64
ופ	-65
בי	-66
נות	-67
▁בא	-68
▁אח	-69
לה	-70
▁שה	-71
▁הוא	-72
▁אי	-73
▁הח	-74
וק	-75
סי	-76
▁צ	-77
טי	-78
וח	-79
▁כל	-80
▁הש	-81
▁הע	-82
▁במ	-83
▁או	-84
▁הת	-85
בל	-86
רים	-87
▁למ	-88
▁מא	-89
שים	-90
▁וה	-91
בו	-92
▁בע	-93
▁יש	-94
יי	-95
לא	-96
▁שא	-97
גי	-98
ספ	-99
▁מש	-100
▁עם	-101
כול	-102
▁לע	-103
לו	-104
זה	-105
▁הפ	-106
רה	-107
בה	-108
▁ט	-109
▁(	-110
יים	-111
▁מת	-112
▁אות	-113
צי	-114
וג	-115
▁כי	-116
▁מי	-117
וע	-118
ותר	-119
את	-120
שו	-121
▁הק	-122
נת	-123
▁בי	-124
▁בש	-125
רכ	-126
▁אני	-127
▁שי	-128
מש	-129
נית	-130
▁1	-131
▁לפ	-132
מת	-133
▁היא	-134
▁מע	-135
▁הה	-136
▁הב	-137
▁יותר	-138
▁רו	-139
דים	-140
..	-141
▁לי	-142
▁לש	-143
".	-144
▁גם	-145
וי	-146
▁הר	-147
▁אנ	-148
וכ	-149
▁וא	-150
▁יכול	-151
וש	-152
בים	-153
▁בה	-154
וצ	-155
מים	-156
עות	-157
דר	-158
וס	-159
▁היה	-160
▁מח	-161
יק	-162
עה	-163
ולם	-164
דה	-165
▁לח	-166
▁לב	-167
▁אם	-168
▁2	-169
▁בת	-170
טר	-171
▁הג	-172
כם	-173
שות	-174
▁מק	-175
בות	-176
▁מס	-177
בור	-178
▁אמ	-179
▁הם	-180
שת	-181
▁הכ	-182
פי	-183
מן	-184
חר	-185
▁לק	-186
כו	-187
לק	-188
רח	-189
▁בח	-190
▁כא	-191
▁נו	-192
▁הס	-193
רג	-194
▁הנ	-195
▁אבל	-196
לים	-197
רת	-198
▁-	-199
00	-200
▁הצ	-201
בע	-202
מצ	-203
דע	-204
אי	-205
נס	-206
דם	-207
▁הז	-208
וו	-209
קה	-210
צה	-211
מות	-212
אה	-213
אים	-214
אות	-215
חת	-216
פה	-217
▁הד	-218
כה	-219
▁כדי	-220
יו	-221
▁רק	-222
▁להיות	-223
▁–	-224
חה	-225
▁ומ	-226
עים	-227
חות	-228
▁אל	-229
חנו	-230
▁אתה	-231
נט	-232
פר	-233
▁ול	-234
▁שמ	-235
כן	-236
ירות	-237
בת	-238
▁אחד	-239
קי	-240
ורה	-241
פת	-242
בוד	-243
קר	-244
▁אפ	-245
▁לת	-246
וף	-247
ברים	-248
רות	-249
ונ	-250
▁פע	-251
▁כמו	-252
יותר	-253
כת	-254
דו	-255
▁עצ	-256
▁כך	-257
▁צרי	-258
ולי	-259
▁להת	-260
▁מצ	-261
הם	-262
שא	-263
וז	-264
ספר	-265
דול	-266
▁וב	-267
וך	-268
חי	-269
יתה	-270
וני	-271
שוב	-272
עת	-273
▁שלי	-274
▁סי	-275
ורים	-276
סט	-277
ירה	-278
לות	-279
▁זו	-280
כים	-281
קים	-282
▁ביותר	-283
▁שלך	-284
▁הרא	-285
▁מב	-286
יתי	-287
▁בכל	-288
▁לג	-289
▁בס	-290
▁ני	-291
לת	-292
ראל	-293
דות	-294
▁יה	-295
לב	-296
▁האי	-297
▁טוב	-298
▁הט	-299
נג	-300
▁אז	-301
ילו	-302
טים	-303
...	-304
▁עד	-305
▁ממ	-306
ונים	-307
▁מכ	-308
יא	-309
▁רא	-310
טה	-311
כות	-312
ילה	-313
▁זאת	-314
▁המש	-315
▁לו	-316
▁ידי	-317
▁בר	-318
▁די	-319
▁וע	-320
פור	-321
▁האם	-322
▁הזה	-323
▁שנ	-324
חק	-325
er	-326
▁אותו	-327
ומר	-328
▁עלי	-329
שהו	-330
▁שלו	-331
▁בג	-332
▁בפ	-333
▁בב	-334
▁אנחנו	-335
מוד	-336
▁בין	-337
▁שלנו	-338
דת	-339
עי	-340
▁בק	-341
אר	-342
ראה	-343
▁כמה	-344
▁חי	-345
▁מדי	-346
לח	-347
▁שע	-348
in	-349
▁אין	-350
01	-351
▁מאוד	-352
▁בכ	-353
ניות	-354
וט	-355
זור	-356
תה	-357
רב	-358
יש	-359
▁חד	-360
▁עבור	-361
▁19	-362
ופן	-363
רון	-364
-1	-365
גיע	-366
▁מפ	-367
▁לך	-368
▁היו	-369
חד	-370
▁פר	-371
▁לפני	-372
או	-373
",	-374
▁לנו	-375
פות	-376
▁אנשים	-377
רך	-378
סף	-379
on	-380
מע	-381
ניים	-382
ולה	-383
▁לד	-384
▁לאחר	-385
▁אך	-386
לט	-387
▁פי	-388
כי	-389
an	-390
).	-391
▁S	-392
צים	-393
▁לעשות	-394
▁מד	-395
ורי	-396
ברה	-397
חים	-398
▁עוד	-399
▁צריך	-400
▁בני	-401
ילים	-402
מר	-403
קום	-404
▁אנו	-405
מיד	-406
שב	-407
▁שהוא	-408
לך	-409
▁3	-410
סים	-411
נק	-412
▁לכ	-413
ירים	-414
▁בו	-415
▁דבר	-416
▁כבר	-417
כון	-418
צות	-419
ניה	-420
של	-421
▁יוד	-422
▁עו	-423
סק	-424
▁שב	-425
חו	-426
▁לצ	-427
▁איך	-428
▁הכל	-429
▁ולא	-430
פים	-431
▁אמר	-432
דרך	-433
▁האח	-434
▁הבי	-435
▁הרבה	-436
בודה	-437
ינו	-438
רט	-439
▁כאשר	-440
▁מג	-441
▁בצ	-442
▁שלא	-443
▁ישראל	-444
▁A	-445
יע	-446
▁אינ	-447
▁בט	-448
▁המח	-449
▁שלהם	-450
▁חיי	-451
▁C	-452
קות	-453
▁אשר	-454
▁הסי	-455
▁אלה	-456
אל	-457
▁מז	-458
▁שני	-459
▁בנו	-460
▁נית	-461
▁אתם	-462
▁גדול	-463
▁באופן	-464
▁201	-465
ונה	-466
פשר	-467
נד	-468
סה	-469
ורת	-470
▁אלי	-471
▁שם	-472
▁אלו	-473
▁חלק	-474
סת	-475
שית	-476
▁היום	-477
נשים	-478
▁במה	-479
צר	-480
▁רוצה	-481
שון	-482
▁שנים	-483
▁אדם	-484
▁השי	-485
▁יל	-486
▁מר	-487
צע	-488
ווה	-489
גר	-490
וכל	-491
▁אחר	-492
▁אחת	-493
."	-494
ומי	-495
▁בד	-496
▁וי	-497
▁אחרי	-498
▁T	-499
ריק	-500
ילות	-501
בא	-502
ברת	-503
ar	-504
▁M	-505
▁שלה	-506
▁שבו	-507
ורך	-508
שיו	-509
מית	-510
or	-511
▁כול	-512
צת	-513
פו	-514
en	-515
פט	-516
▁למע	-517
▁זמן	-518
▁שת	-519
▁העולם	-520
▁נע	-521
▁'	-522
▁תק	-523
ולים	-524
פל	-525
▁לכל	-526
מד	-527
בד	-528
מוש	-529
▁לרא	-530
al	-531
▁יכולים	-532
קד	-533
▁כש	-534
▁להי	-535
חיל	-536
ברי	-537
▁להם	-538
es	-539
▁טי	-540
▁כן	-541
at	-542
גע	-543
▁הרו	-544
יצ	-545
סטי	-546
▁עדי	-547
מא	-548
כנ	-549
▁P	-550
▁הייתה	-551
צוע	-552
▁נת	-553
▁“	-554
וות	-555
▁ות	-556
▁אפשר	-557
-2	-558
▁אותם	-559
▁יום	-560
▁וכ	-561
▁תה	-562
▁במש	-563
הים	-564
▁יהיה	-565
▁בית	-566
ורות	-567
▁המק	-568
▁במי	-569
▁המע	-570
גה	-571
כשיו	-572
▁מט	-573
▁ולה	-574
צל	-575
תר	-576
▁שיש	-577
צב	-578
▁חוש	-579
▁בז	-580
ינ	-581
ומים	-582
▁4	-583
▁שאני	-584
▁קט	-585
▁בדי	-586
▁פעם	-587
▁המת	-588
▁אחרים	-589
▁ממש	-590
גים	-591
רכת	-592
▁שלכם	-593
▁לס	-594
לית	-595
▁הנו	-596
▁ניתן	-597
זו	-598
▁כת	-599
▁כאן	-600
▁הראשו	-601
ומה	-602
טח	-603
▁וח	-604
תיים	-605
▁תמיד	-606
▁בשנת	-607
פש	-608
ודה	-609
וריה	-610
▁5	-611
▁הל	-612
רוב	-613
וחות	-614
▁למה	-615
▁שהם	-616
▁B	-617
▁ספ	-618
▁חשוב	-619
▁אף	-620
▁לל	-621
גד	-622
▁רבים	-623
▁להפ	-624
ופה	-625
▁מספר	-626
רק	-627
רכז	-628
תם	-629
▁ואת	-630
▁אותה	-631
▁שנה	-632
▁קי	-633
he	-634
רץ	-635
▁יע	-636
אני	-637
דינה	-638
פול	-639
▁יצ	-640
עם	-641
מין	-642
אן	-643
רום	-644
גם	-645
ובה	-646
▁שכ	-647
▁בעולם	-648
▁אלא	-649
▁בל	-650
חס	-651
▁משהו	-652
▁ברי	-653
▁חז	-654
שוט	-655
▁משת	-656
▁מספ	-657
▁מוצ	-658
▁נמצ	-659
▁שק	-660
▁באמצ	-661
▁מילי	-662
▁נה	-663
ניין	-664
▁האמ	-665
▁הגדול	-666
▁ללא	-667
ונות	-668
▁וש	-669
▁עוב	-670
ולוג	-671
▁עדיין	-672
נחנו	-673
ער	-674
אם	-675
רונות	-676
וץ	-677
),	-678
צד	-679
▁נש	-680
▁תח	-681
▁לכם	-682
ic	-683
ציה	-684
▁המי	-685
וסי	-686
לם	-687
▁נק	-688
▁200	-689
▁דרך	-690
▁הצי	-691
▁צי	-692
בוה	-693
▁עכשיו	-694
לל	-695
מעות	-696
קת	-697
▁D	-698
▁אר	-699
▁אומר	-700
▁לר	-701
ירת	-702
▁לראות	-703
▁I	-704
ודי	-705
טו	-706
גיש	-707
▁באמת	-708
▁פת	-709
ומות	-710
▁שח	-711
כנס	-712
יהם	-713
▁הכי	-714
קש	-715
it	-716
בוע	-717
▁הראשון	-718
▁[	-719
▁W	-720
▁רי	-721
▁להשת	-722
דש	-723
וחד	-724
ביר	-725
▁במהלך	-726
▁בלי	-727
▁הן	-728
▁במק	-729
▁אפילו	-730
▁אולי	-731
▁התי	-732
▁לנ	-733
▁נפ	-734
מור	-735
▁אותי	-736
▁המס	-737
▁שאתה	-738
▁H	-739
ירו	-740
▁הזמן	-741
גל	-742
מונה	-743
▁נוספ	-744
▁כמ	-745
▁עשו	-746
▁האדם	-747
▁הדי	-748
קו	-749
▁פשוט	-750
ודים	-751
▁אוה	-752
ודות	-753
שראל	-754
דור	-755
▁חיים	-756
▁שזה	-757
▁הספר	-758
▁עצמ	-759
▁בבית	-760
▁גר	-761
▁כשה	-762
▁השני	-763
ברית	-764
▁בדרך	-765
▁החיים	-766
▁הול	-767
צור	-768
וה	-769
עד	-770
ולות	-771
ברות	-772
תח	-773
st	-774
צמ	-775
▁באמצעות	-776
▁להב	-777
▁L	-778
צח	-779
▁היל	-780
▁G	-781
▁תע	-782
פע	-783
▁אה	-784
▁מוכ	-785
▁ונ	-786
▁יודע	-787
le	-788
▁לקבל	-789
▁נח	-790
▁לט	-791
▁המא	-792
▁חוק	-793
▁הלי	-794
▁משפ	-795
גות	-796
▁מקום	-797
מעט	-798
ליה	-799
▁מצי	-800
ריות	-801
ווי	-802
▁היתה	-803
▁אומ	-804
טרה	-805
גש	-806
פון	-807
ופי	-808
▁R	-809
ou	-810
▁אינו	-811
ביל	-812
ריך	-813
▁ית	-814
▁תוכ	-815
חז	-816
▁רח	-817
▁תפ	-818
▁חש	-819
▁.	-820
▁6	-821
▁רוצים	-822
בח	-823
▁מאז	-824
▁שהיא	-825
▁שוב	-826
ותו	-827
▁דברים	-828
▁כלל	-829
re	-830
ליים	-831
▁מלא	-832
בט	-833
רוש	-834
בק	-835
▁F	-836
▁נראה	-837
כר	-838
דעת	-839
▁קשה	-840
רכים	-841
▁הרי	-842
נם	-843
▁צריכים	-844
ואה	-845
מל	-846
▁בסי	-847
גו	-848
▁הראשונה	-849
יס	-850
▁לז	-851
000	-852
▁מן	-853
צו	-854
טרנט	-855
▁הייתי	-856
▁E	-857
נוי	-858
▁כיצד	-859
▁מוד	-860
▁התק	-861
▁הופ	-862
שיך	-863
▁במקום	-864
זרח	-865
▁יכולה	-866
עו	-867
ובן	-868
▁ארו	-869
om	-870
ליך	-871
▁האלה	-872
קט	-873
▁החל	-874
▁בן	-875
סטר	-876
▁לפי	-877
▁מל	-878
חל	-879
פא	-880
▁במשך	-881
▁חדש	-882
קל	-883
▁התע	-884
טת	-885
▁גבוה	-886
נלא	-887
▁השת	-888
▁אלוהים	-889
ברו	-890
▁שבה	-891
▁רג	-892
▁פחות	-893
ודש	-894
▁גי	-895
▁למצ	-896
▁ילדים	-897
▁כמעט	-898
▁כפי	-899
▁יד	-900
לסטי	-901
גת	-902
רכי	-903
▁החברה	-904
▁קור	-905
?"	-906
יח	-907
▁מיי	-908
טית	-909
▁להע	-910
▁נגד	-911
▁משמעות	-912
▁איש	-913
▁מסוג	-914
▁בתח	-915
▁בלב	-916
שאר	-917
▁ספר	-918
יקר	-919
▁יוצ	-920
וקר	-921
▁גור	-922
▁נא	-923
▁הפר	-924
נון	-925
ואר	-926
▁תש	-927
▁לפע	-928
▁אית	-929
▁מכל	-930
▁שתי	-931
▁רוב	-932
▁אירו	-933
▁מנה	-934
ריים	-935
▁t	-936
▁הדבר	-937
יד	-938
ביב	-939
is	-940
▁N	-941
ומית	-942
▁מוש	-943
▁ההת	-944
▁להג	-945
נוע	-946
וקים	-947
▁מהם	-948
נן	-949
שם	-950
▁מידע	-951
בית	-952
▁פני	-953
סו	-954
▁7	-955
▁אור	-956
מפ	-957
-19	-958
ומת	-959
לחמה	-960
▁הלא	-961
▁עצמו	-962
▁דול	-963
▁סט	-964
מס	-965
ion	-966
מון	-967
הי	-968
▁הגי	-969
▁הזו	-970
▁קרו	-971
מנות	-972
וסט	-973
▁עושה	-974
חור	-975
יקה	-976
גור	-977
▁קוד	-978
▁בתוך	-979
קס	-980
▁למי	-981
▁לכן	-982
▁צע	-983
▁פרו	-984
▁אותך	-985
▁מיליון	-986
ריה	-987
▁הברית	-988
▁המדינה	-989
▁בהת	-990
▁10	-991
▁להש	-992
▁קבו	-993
▁נכון	-994
זר	-995
▁עבודה	-996
▁שום	-997
▁רב	-998
el	-999
▁רבות	-1000
וצאות	-1001
▁יח	-1002
▁8	-1003
נטי	-1004
מנים	-1005
שימה	-1006
ro	-1007
▁בדיוק	-1008
▁במח	-1009
▁הטוב	-1010
▁למצוא	-1011
▁אד	-1012
ריקה	-1013
בול	-1014
▁מוע	-1015
ing	-1016
רגע	-1017
נסי	-1018
ברסי	-1019
▁ידע	-1020
▁שונים	-1021
▁למרות	-1022
תיד	-1023
▁בלתי	-1024
קור	-1025
▁ביום	-1026
▁לדעת	-1027
▁הני	-1028
▁בזמן	-1029
▁כולם	-1030
▁O	-1031
ביא	-1032
▁לגבי	-1033
סם	-1034
שיא	-1035
▁כה	-1036
▁בגלל	-1037
▁אחרת	-1038
▁בעלי	-1039
טות	-1040
▁וזה	-1041
ליות	-1042
▁מתוך	-1043
▁עשר	-1044
▁רע	-1045
▁הממש	-1046
▁חל	-1047
▁כולל	-1048
▁ואני	-1049
▁וגם	-1050
et	-1051
רגון	-1052
▁במיוחד	-1053
תו	-1054
▁במו	-1055
▁הזאת	-1056
ולוגיה	-1057
וצאה	-1058
וון	-1059
▁להשתמש	-1060
פתח	-1061
▁לכך	-1062
וחר	-1063
▁שש	-1064
,000	-1065
▁סוג	-1066
מח	-1067
▁לשי	-1068
▁מתח	-1069
▁והוא	-1070
▁השנה	-1071
▁תהיה	-1072
▁ברח	-1073
▁רצ	-1074
כויות	-1075
▁העיר	-1076
of	-1077
▁יודעים	-1078
▁תא	-1079
▁למש	-1080
דובר	-1081
למי	-1082
▁בטוח	-1083
▁להכ	-1084
▁בצורה	-1085
▁העבודה	-1086
▁היש	-1087
רבות	-1088
▁להצ	-1089
▁מתי	-1090
רונה	-1091
▁חושב	-1092
▁קצת	-1093
▁במע	-1094
▁היחי	-1095
מק	-1096
▁עי	-1097
שיים	-1098
▁הספ	-1099
▁יחד	-1100
סיה	-1101
זי	-1102
▁כזה	-1103
▁מוס	-1104
ואי	-1105
ac	-1106
על	-1107
מיים	-1108
▁הגיע	-1109
▁חס	-1110
סטוריה	-1111
▁לסי	-1112
ניי	-1113
▁בהם	-1114
▁מספיק	-1115
▁,	-1116
▁קיי	-1117
il	-1118
▁מנת	-1119
▁קל	-1120
וגי	-1121
▁מוז	-1122
▁לפחות	-1123
אלה	-1124
▁הנה	-1125
▁אש	-1126
כור	-1127
דינות	-1128
לוט	-1129
▁באי	-1130
▁הברי	-1131
עור	-1132
▁שהת	-1133
מנ	-1134
▁בנ	-1135
▁מאשר	-1136
ותה	-1137
▁חברת	-1138
וקה	-1139
▁האמריק	-1140
▁שירות	-1141
ורק	-1142
▁הדברים	-1143
וכלו	-1144
דל	-1145
▁ומה	-1146
▁ההי	-1147
משים	-1148
▁בשביל	-1149
כונה	-1150
▁התח	-1151
כב	-1152
ראי	-1153
▁שאנחנו	-1154
ol	-1155
▁דולר	-1156
▁טובה	-1157
▁כיום	-1158
ed	-1159
▁מבו	-1160
▁בשי	-1161
פחה	-1162
▁מדוע	-1163
מנו	-1164
▁מערכת	-1165
משך	-1166
משיך	-1167
▁ופ	-1168
▁18	-1169
▁ליי	-1170
▁עליו	-1171
▁הטי	-1172
▁דו	-1173
▁הפע	-1174
▁תוך	-1175
וליטי	-1176
▁החד	-1177
▁אותנו	-1178
▁להגיע	-1179
▁שר	-1180
מוך	-1181
▁עומ	-1182
▁בלבד	-1183
▁הדרך	-1184
▁שעות	-1185
ורג	-1186
▁להבין	-1187
ליח	-1188
גרים	-1189
▁9	-1190
ולד	-1191
▁בישראל	-1192
▁נשים	-1193
סור	-1194
ודשים	-1195
ציא	-1196
טחון	-1197
▁המט	-1198
▁ימים	-1199
▁האירו	-1200
▁לזה	-1201
קיד	-1202
▁חופ	-1203
▁שאתם	-1204
▁...	-1205
כתב	-1206
am	-1207
▁20	-1208
▁אוכל	-1209
▁מישהו	-1210
▁החוק	-1211
▁אינם	-1212
▁הבית	-1213
ובות	-1214
▁קר	-1215
▁כסף	-1216
מינים	-1217
▁הו	-1218
▁הבע	-1219
▁נמצא	-1220
▁יק	-1221
זרה	-1222
שרד	-1223
▁מוג	-1224
▁מסוי	-1225
טל	-1226
▁ואז	-1227
נסה	-1228
תים	-1229
▁מנ	-1230
▁קשר	-1231
▁ראש	-1232
▁אחרות	-1233
▁מכן	-1234
סון	-1235
רכות	-1236
▁טבע	-1237
▁תג	-1238
▁הוד	-1239
גיד	-1240
▁בתי	-1241
▁הור	-1242
▁מתק	-1243
oo	-1244
רגיה	-1245
▁ומת	-1246
▁עושים	-1247
▁במס	-1248
▁מור	-1249
▁שלוש	-1250
ווח	-1251
רפת	-1252
▁אינה	-1253
▁והת	-1254
▁זהו	-1255
▁בנוסף	-1256
▁תכ	-1257
▁בעוד	-1258
▁כמובן	-1259
▁מקבל	-1260
ch	-1261
מבר	-1262
▁הללו	-1263
▁למעשה	-1264
▁לקחת	-1265
as	-1266
שובה	-1267
זק	-1268
▁לתת	-1269
▁הבא	-1270
▁ללמוד	-1271
קב	-1272
אב	-1273
זון	-1274
ספק	-1275
זם	-1276
▁הרג	-1277
▁הארץ	-1278
▁לעולם	-1279
▁מזה	-1280
and	-1281
▁כנ	-1282
▁להר	-1283
▁בקר	-1284
19	-1285
▁פרי	-1286
▁קרי	-1287
▁לעבוד	-1288
▁העוב	-1289
▁ברו	-1290
סקים	-1291
מונות	-1292
▁לדבר	-1293
▁בשל	-1294
זיה	-1295
▁מבי	-1296
▁שימוש	-1297
▁מגי	-1298
▁מרו	-1299
▁שהיה	-1300
▁הממשלה	-1301
רבית	-1302
יוון	-1303
▁הכול	-1304
▁האנשים	-1305
רד	-1306
▁למו	-1307
ושר	-1308
ופו	-1309
▁להס	-1310
-3	-1311
▁יי	-1312
▁המכ	-1313
▁אופ	-1314
▁סוף	-1315
▁ועל	-1316
ומיים	-1317
▁וק	-1318
גון	-1319
▁המוצ	-1320
▁נוסף	-1321
ראש	-1322
שור	-1323
▁תי	-1324
נתי	-1325
▁נות	-1326
ליט	-1327
▁of	-1328
רטי	-1329
יתוח	-1330
▁לעזור	-1331
▁/	-1332
ילדים	-1333
▁מול	-1334
▁אפש	-1335
▁פעמים	-1336
▁קול	-1337
▁תחת	-1338
'.	-1339
▁מעל	-1340
▁The	-1341
▁מהמ	-1342
▁פור	-1343
▁פה	-1344
▁האנו	-1345
וניברסי	-1346
▁האינ	-1347
▁רש	-1348
▁החי	-1349
▁אולם	-1350
הול	-1351
▁בעצ	-1352
▁לומר	-1353
▁הלב	-1354
סות	-1355
▁מסת	-1356
▁חייב	-1357
שיג	-1358
▁וס	-1359
ודית	-1360
▁השלי	-1361
▁בעיקר	-1362
סיק	-1363
▁ומש	-1364
▁גדולה	-1365
▁קודם	-1366
▁מוק	-1367
שבון	-1368
סיון	-1369
▁השנים	-1370
▁המשפט	-1371
▁מדובר	-1372
רוא	-1373
▁דקות	-1374
0.	-1375
▁אצל	-1376
▁כוח	-1377
נטים	-1378
בן	-1379
▁המה	-1380
▁לבד	-1381
▁האחרון	-1382
▁הילדים	-1383
וסר	-1384
רמ	-1385
ent	-1386
רכה	-1387
▁15	-1388
▁מומ	-1389
▁ליצור	-1390
▁וד	-1391
▁יהיו	-1392
▁בעי	-1393
▁רואה	-1394
חלט	-1395
▁תת	-1396
צרים	-1397
▁חבר	-1398
בלו	-1399
מוק	-1400
טב	-1401
ad	-1402
נהל	-1403
▁199	-1404
ופת	-1405
גרת	-1406
▁מחדש	-1407
▁לצי	-1408
▁שנות	-1409
שונה	-1410
▁ברור	-1411
ay	-1412
▁פעולה	-1413
ופים	-1414
טיים	-1415
גישה	-1416
▁מקצוע	-1417
▁לפת	-1418
▁בכלל	-1419
וביל	-1420
▁אזרח	-1421
▁שכל	-1422
▁כד	-1423
▁?	-1424
▁מעט	-1425
רושלים	-1426
▁צריכה	-1427
▁בפני	-1428
▁קרובות	-1429
▁זק	-1430
▁שמע	-1431
קטי	-1432
כונות	-1433
כלה	-1434
▁שנת	-1435
כס	-1436
ביע	-1437
יך	-1438
ריט	-1439
שרה	-1440
נא	-1441
סל	-1442
▁נוספים	-1443
▁כח	-1444
▁חדשים	-1445
▁הציבור	-1446
▁ככל	-1447
סוף	-1448
▁בכך	-1449
▁בתחום	-1450
▁ויש	-1451
▁גיל	-1452
▁למשל	-1453
▁הפלסטי	-1454
▁הסרט	-1455
▁סרט	-1456
▁הגוף	-1457
כח	-1458
▁לבית	-1459
חרות	-1460
רפ	-1461
▁חודשים	-1462
שק	-1463
▁ארה	-1464
נויים	-1465
▁שאין	-1466
כך	-1467
▁שצ	-1468
דיו	-1469
▁מרכז	-1470
▁אוהב	-1471
טיח	-1472
▁איזה	-1473
▁זוכ	-1474
▁כאלה	-1475
▁צורך	-1476
▁שמו	-1477
▁מדינות	-1478
▁שונות	-1479
▁12	-1480
דרה	-1481
▁כעת	-1482
▁רפ	-1483
ow	-1484
▁V	-1485
▁הקט	-1486
▁שלושה	-1487
בלת	-1488
וגמה	-1489
מיכה	-1490
ובת	-1491
▁למח	-1492
תיי	-1493
iv	-1494
דמנות	-1495
ig	-1496
▁והא	-1497
▁באתר	-1498
▁רוח	-1499
▁ברחבי	-1500
▁הבינלא	-1501
מרי	-1502
▁החדש	-1503
בנה	-1504
▁תרו	-1505
▁מבחי	-1506
▁מים	-1507
▁U	-1508
▁וג	-1509
וסיף	-1510
דק	-1511
”.	-1512
▁באותו	-1513
מוקר	-1514
▁האד	-1515
▁שפ	-1516
▁וכל	-1517
▁מחקר	-1518
▁קורה	-1519
▁בעל	-1520
זל	-1521
עיון	-1522
▁עמ	-1523
▁שמת	-1524
▁משום	-1525
▁קטן	-1526
▁המל	-1527
▁המוד	-1528
ייס	-1529
ot	-1530
שיר	-1531
ביבה	-1532
▁ללכת	-1533
▁ביט	-1534
לווי	-1535
ונג	-1536
▁כגון	-1537
ופר	-1538
ראו	-1539
ציות	-1540
▁חדשה	-1541
▁לאורך	-1542
בוצה	-1543
▁מסי	-1544
וחים	-1545
▁מדע	-1546
▁שונה	-1547
▁לעתים	-1548
▁שומ	-1549
▁המוע	-1550
גן	-1551
▁האמת	-1552
▁מפני	-1553
טרו	-1554
לחמת	-1555
▁אחוז	-1556
טור	-1557
רבה	-1558
▁מוח	-1559
▁מו	-1560
▁בשנה	-1561
למידים	-1562
▁התא	-1563
▁השפ	-1564
▁ידוע	-1565
וכן	-1566
ווים	-1567
ואו	-1568
▁עובד	-1569
id	-1570
▁ובע	-1571
נסות	-1572
בלתי	-1573
▁מטר	-1574
▁לשמור	-1575
▁עצמי	-1576
קרים	-1577
▁איר	-1578
אלי	-1579
ודת	-1580
▁הבח	-1581
▁מצב	-1582
▁בתק	-1583
וכנית	-1584
רויות	-1585
▁ולכן	-1586
▁פרס	-1587
ועל	-1588
▁שהי	-1589
וויר	-1590
▁לאח	-1591
▁והמ	-1592
▁תלו	-1593
טון	-1594
us	-1595
חקים	-1596
דיה	-1597
כולם	-1598
▁לפעמים	-1599
▁ומע	-1600
▁עסק	-1601
בוש	-1602
▁משחק	-1603
▁להשיג	-1604
▁לכת	-1605
▁להפוך	-1606
▁לקרוא	-1607
▁טר	-1608
▁לתק	-1609
▁כדור	-1610
▁מעור	-1611
קבות	-1612
▁נור	-1613
▁ממנו	-1614
▁בפר	-1615
▁מכו	-1616
▁תנו	-1617
בוק	-1618
בלה	-1619
ציאות	-1620
▁גל	-1621
▁לאי	-1622
▁ארצות	-1623
50	-1624
▁:	-1625
▁יית	-1626
▁לשנות	-1627
▁כשא	-1628
לוטין	-1629
▁שאלה	-1630
נר	-1631
▁להא	-1632
▁לחלוטין	-1633
רכו	-1634
אתה	-1635
▁ילד	-1636
פס	-1637
▁the	-1638
▁הטבע	-1639
כנולוגיה	-1640
▁לבין	-1641
▁נכנס	-1642
▁ביק	-1643
▁ספק	-1644
▁לעצ	-1645
כולת	-1646
▁לבצע	-1647
▁באזור	-1648
▁קלי	-1649
▁חברות	-1650
▁לחשוב	-1651
בתי	-1652
ation	-1653
▁עבוד	-1654
▁שיה	-1655
לוהים	-1656
▁ומו	-1657
▁טובים	-1658
▁מאפשר	-1659
▁אמרה	-1660
רבי	-1661
▁שאנו	-1662
▁עובדים	-1663
▁לוק	-1664
▁מקור	-1665
▁כנראה	-1666
פרי	-1667
▁בספ	-1668
טיות	-1669
מצא	-1670
ראות	-1671
דון	-1672
▁המשחק	-1673
דיר	-1674
▁בחיים	-1675
▁מני	-1676
▁מעבר	-1677
▁לחיות	-1678
פן	-1679
▁הרכ	-1680
יכ	-1681
▁האל	-1682
ag	-1683
וסים	-1684
▁הקה	-1685
▁המרכז	-1686
▁פעילות	-1687
פתחות	-1688
דן	-1689
▁באר	-1690
▁שנו	-1691
▁הולך	-1692
▁בשם	-1693
▁בידי	-1694
▁In	-1695
בש	-1696
▁בסוף	-1697
▁שאינ	-1698
▁לרו	-1699
▁מאד	-1700
▁זכויות	-1701
מודד	-1702
▁במקרה	-1703
▁מגיע	-1704
▁בגיל	-1705
פוש	-1706
נאי	-1707
▁שיי	-1708
מיות	-1709
▁אתכם	-1710
ידי	-1711
▁בעבר	-1712
חילת	-1713
▁להח	-1714
▁מהר	-1715
▁אב	-1716
▁סיפור	-1717
ליון	-1718
▁דור	-1719
▁המשת	-1720
ut	-1721
יקט	-1722
▁השל	-1723
שרת	-1724
▁להצי	-1725
▁השנייה	-1726
ניק	-1727
▁עשוי	-1728
פק	-1729
▁לבי	-1730
▁מאח	-1731
▁החלט	-1732
▁כאילו	-1733
יג	-1734
ראת	-1735
תף	-1736
ur	-1737
▁ומי	-1738
▁שינוי	-1739
▁רואים	-1740
דבר	-1741
הליך	-1742
דרת	-1743
▁חוז	-1744
ילת	-1745
▁והיא	-1746
▁נג	-1747
מודים	-1748
▁המשפחה	-1749
▁האחרונות	-1750
ובי	-1751
יתים	-1752
ארד	-1753
▁מסו	-1754
▁משנה	-1755
אית	-1756
▁תיא	-1757
▁המצב	-1758
▁בעיות	-1759
▁בעיר	-1760
בעים	-1761
נח	-1762
זרת	-1763
▁לטי	-1764
▁J	-1765
▁אג	-1766
▁ובי	-1767
▁רבה	-1768
0%	-1769
▁גבוהה	-1770
▁כלי	-1771
נויות	-1772
▁אליו	-1773
קול	-1774
נאים	-1775
לוויזיה	-1776
-4	-1777
▁שית	-1778
שע	-1779
יצוב	-1780
▁הקוד	-1781
▁תודה	-1782
▁טיפול	-1783
▁דא	-1784
▁איפה	-1785
נתונים	-1786
▁עלינו	-1787
ומרים	-1788
▁מופ	-1789
סס	-1790
▁תוכנית	-1791
שלום	-1792
▁נס	-1793
שרים	-1794
▁אמריק	-1795
▁הילד	-1796
▁המידע	-1797
▁השאלה	-1798
סר	-1799
▁נוספת	-1800
▁מעולם	-1801
▁אומרים	-1802
שורים	-1803
▁מבין	-1804
▁כלומר	-1805
אמ	-1806
▁יורק	-1807
▁להסת	-1808
',	-1809
▁ואם	-1810
▁והם	-1811
כיר	-1812
▁מיוח	-1813
▁בינלא	-1814
▁אבי	-1815
▁אנג	-1816
ir	-1817
▁11	-1818
▁חדשות	-1819
לול	-1820
▁להתחיל	-1821
חן	-1822
▁בקרב	-1823
כני	-1824
ראים	-1825
פיע	-1826
▁תר	-1827
▁אוב	-1828
▁המצ	-1829
▁לחזור	-1830
טרי	-1831
▁להתק	-1832
▁עצמה	-1833
ינטרנט	-1834
▁בעת	-1835
▁St	-1836
ניהם	-1837
▁מצד	-1838
נגד	-1839
▁עצמם	-1840
▁עליהם	-1841
▁הפעם	-1842
▁הישרא	-1843
זאת	-1844
▁לעצמ	-1845
▁שבוע	-1846
▁הגדולה	-1847
וצה	-1848
מתי	-1849
▁בעיה	-1850
▁יהודים	-1851
!!	-1852
נתה	-1853
▁ור	-1854
▁סביב	-1855
▁תצ	-1856
▁להק	-1857
▁בנושא	-1858
▁בריאות	-1859
▁העיק	-1860
לין	-1861
נגלית	-1862
▁דומה	-1863
▁חייבים	-1864
▁שמש	-1865
סית	-1866
▁כלפי	-1867
▁אומרת	-1868
▁חברים	-1869
יינו	-1870
סטרט	-1871
▁לגרום	-1872
▁קו	-1873
רוג	-1874
▁מדינה	-1875
שפ	-1876
מנה	-1877
כלי	-1878
▁משתמשים	-1879
▁מחש	-1880
▁עוז	-1881
▁שאי	-1882
▁המחקר	-1883
▁להמשיך	-1884
▁מות	-1885
▁קרה	-1886
▁באותה	-1887
▁מאוחר	-1888
רוק	-1889
בריו	-1890
▁שנית	-1891
▁הבעיה	-1892
▁התפ	-1893
▁מנו	-1894
ter	-1895
לפון	-1896
מול	-1897
בלות	-1898
▁מיד	-1899
▁חשי	-1900
▁וכן	-1901
▁למען	-1902
▁לבחור	-1903
לקוחות	-1904
▁בסופו	-1905
▁מרגיש	-1906
▁הצע	-1907
▁הרח	-1908
▁מהא	-1909
ומו	-1910
ודנטים	-1911
▁באירו	-1912
▁K	-1913
▁שג	-1914
▁מוב	-1915
▁מחוץ	-1916
▁עליה	-1917
▁אהבה	-1918
im	-1919
פורים	-1920
▁נב	-1921
▁שחק	-1922
▁ועוד	-1923
▁בארה	-1924
▁העול	-1925
▁לתוך	-1926
▁העי	-1927
▁שמי	-1928
▁ככה	-1929
▁שהמ	-1930
▁שול	-1931
▁ציבור	-1932
▁בעקבות	-1933
▁המקום	-1934
פוי	-1935
▁מאת	-1936
ולוגי	-1937
מוע	-1938
▁בהתאם	-1939
▁(2	-1940
▁הצד	-1941
▁s	-1942
▁יפה	-1943
un	-1944
אנחנו	-1945
▁העצ	-1946
▁בסדר	-1947
מיה	-1948
▁הרפ	-1949
▁התג	-1950
▁נתונים	-1951
um	-1952
▁משי	-1953
▁p	-1954
מלי	-1955
▁שוא	-1956
ושבים	-1957
רחק	-1958
▁חול	-1959
▁תוכלו	-1960
ליק	-1961
▁וכי	-1962
-201	-1963
▁בלו	-1964
קשורת	-1965
▁לשחק	-1966
▁עולם	-1967
▁מאות	-1968
▁לגמרי	-1969
וקא	-1970
ופות	-1971
ec	-1972
▁בזה	-1973
▁הפרו	-1974
טא	-1975
▁f	-1976
▁30	-1977
רבעה	-1978
שום	-1979
▁כתב	-1980
▁גברים	-1981
▁הסיבה	-1982
מך	-1983
▁לאנשים	-1984
גוד	-1985
צית	-1986
ריז	-1987
▁ואי	-1988
נהגות	-1989
זע	-1990
▁טע	-1991
▁טרא	-1992
▁רכ	-1993
בורה	-1994
שאים	-1995
▁ולע	-1996
▁לעומת	-1997
הוב	-1998
זיק	-1999
▁שבע	-2000
▁אותן	-2001
פוס	-2002
▁בארץ	-2003
▁קיים	-2004
יב	-2005
ופול	-2006
ובל	-2007
▁אכ	-2008
▁העם	-2009
▁החדשה	-2010
▁תהליך	-2011
מנע	-2012
▁והע	-2013
▁אנשי	-2014
רחב	-2015
וחה	-2016
שוא	-2017
▁אס	-2018
▁מהת	-2019
וצר	-2020
▁חשב	-2021
זב	-2022
▁קצר	-2023
▁שהא	-2024
▁ייתכן	-2025
▁פל	-2026
▁טוע	-2027
▁פול	-2028
▁שמח	-2029
▁ראשון	-2030
▁האינטרנט	-2031
▁17	-2032
▁והח	-2033
▁יחי	-2034
▁נשא	-2035
▁שות	-2036
▁הית	-2037
▁נסי	-2038
!"	-2039
נוק	-2040
,"	-2041
▁הפי	-2042
▁נוס	-2043
▁היית	-2044
▁האחרונה	-2045
▁חת	-2046
▁חמי	-2047
▁היינו	-2048
▁נמצאים	-2049
▁הרוח	-2050
▁הוכ	-2051
▁לספק	-2052
▁שוק	-2053
▁13	-2054
▁משא	-2055
▁יא	-2056
▁אתר	-2057
▁כע	-2058
▁איכות	-2059
▁מתחיל	-2060
▁c	-2061
רוע	-2062
▁כדאי	-2063
צלחה	-2064
▁לצאת	-2065
▁מהי	-2066
▁*	-2067
כום	-2068
▁לשם	-2069
▁המוז	-2070
▁העסק	-2071
▁בהחלט	-2072
כוי	-2073
רחש	-2074
▁המלחמה	-2075
נדר	-2076
▁16	-2077
▁קה	-2078
פשרות	-2079
▁d	-2080
▁שיע	-2081
▁ערך	-2082
▁רגע	-2083
▁עור	-2084
▁להביא	-2085
▁למנוע	-2086
▁שיכול	-2087
יונות	-2088
פורט	-2089
הת	-2090
▁נעשה	-2091
▁להתמודד	-2092
▁משפחת	-2093
em	-2094
▁194	-2095
▁ארג	-2096
▁והש	-2097
נרגיה	-2098
▁בסיס	-2099
פני	-2100
קשה	-2101
▁יב	-2102
ריון	-2103
▁ועד	-2104
▁שט	-2105
כנית	-2106
▁וצ	-2107
▁יס	-2108
▁אלף	-2109
▁Y	-2110
▁המאה	-2111
▁ממה	-2112
סקה	-2113
▁זוהי	-2114
▁שלום	-2115
▁השימוש	-2116
▁האתר	-2117
.[	-2118
רוס	-2119
▁להגיד	-2120
▁היהודים	-2121
▁הבאה	-2122
▁ישנם	-2123
▁כוחות	-2124
▁והפ	-2125
▁מנסה	-2126
▁לאכול	-2127
20	-2128
▁רצי	-2129
▁עק	-2130
▁בטי	-2131
ינוך	-2132
▁כמות	-2133
▁הבריאות	-2134
▁הצל	-2135
ילד	-2136
▁ברא	-2137
▁עליך	-2138
▁תוכל	-2139
כלית	-2140
▁היטב	-2141
oc	-2142
רש	-2143
נסים	-2144
▁שנע	-2145
▁שבי	-2146
וטנ	-2147
מני	-2148
▁הרצ	-2149
1.	-2150
].	-2151
חוד	-2152
▁ארגון	-2153
וציא	-2154
יאון	-2155
▁הפת	-2156
▁פלסטי	-2157
▁בשנים	-2158
▁אישי	-2159
▁יודעת	-2160
▁עניין	-2161
▁198	-2162
▁המג	-2163
▁באינטרנט	-2164
▁הלו	-2165
▁מכך	-2166
▁חברה	-2167
אום	-2168
ציב	-2169
פיים	-2170
▁ישרא	-2171
מוצע	-2172
▁הקי	-2173
▁יכולות	-2174
חתי	-2175
▁המוח	-2176
▁מתחת	-2177
ודל	-2178
רוך	-2179
▁עשה	-2180
os	-2181
▁•	-2182
▁זכ	-2183
▁צבא	-2184
▁14	-2185
▁וט	-2186
▁מהע	-2187
אנו	-2188
הבה	-2189
▁מזון	-2190
▁ממשלת	-2191
אק	-2192
וספ	-2193
זים	-2194
מניה	-2195
▁לשא	-2196
▁בינו	-2197
ers	-2198
▁קרא	-2199
▁ברגע	-2200
▁המוש	-2201
▁and	-2202
▁אוט	-2203
▁משפחה	-2204
▁עסקים	-2205
▁חושבים	-2206
בלים	-2207
ינים	-2208
לקטרו	-2209
▁מתכו	-2210
▁משתמש	-2211
▁שאלות	-2212
▁עמו	-2213
▁כולנו	-2214
▁לקנות	-2215
ra	-2216
זית	-2217
שויות	-2218
▁משות	-2219
▁השבוע	-2220
▁לכתוב	-2221
▁בקי	-2222
▁הנשיא	-2223
ורית	-2224
▁מדה	-2225
▁סוכ	-2226
▁הביתה	-2227
▁מלחמת	-2228
▁אמא	-2229
▁תרבות	-2230
חרי	-2231
▁גישה	-2232
▁תוצאות	-2233
▁דעת	-2234
▁ליה	-2235
▁ארבע	-2236
▁מסוימים	-2237
ess	-2238
▁שהיו	-2239
▁הסיפור	-2240
▁ומא	-2241
▁השם	-2242
ומיות	-2243
5.	-2244
▁נד	-2245
▁היחידה	-2246
פילו	-2247
▁חמש	-2248
▁לעיתים	-2249
וויה	-2250
▁להרגיש	-2251
▁m	-2252
▁תומ	-2253
▁אכן	-2254
▁פוליטי	-2255
▁במהירות	-2256
חם	-2257
▁בחי	-2258
▁הראשונים	-2259
▁אישה	-2260
▁חוסר	-2261
▁100	-2262
▁להז	-2263
▁במצב	-2264
▁הצבא	-2265
▁רשת	-2266
צא	-2267
שיות	-2268
▁האור	-2269
▁עשויים	-2270
גישים	-2271
דיניות	-2272
▁למעלה	-2273
▁מדינת	-2274
ומן	-2275
▁המפ	-2276
▁אינט	-2277
הא	-2278
גוע	-2279
נדה	-2280
נייה	-2281
▁הגר	-2282
יצור	-2283
סטים	-2284
▁היחיד	-2285
-200	-2286
רטים	-2287
▁והי	-2288
▁ליד	-2289
▁הגבוה	-2290
גיעה	-2291
▁עבר	-2292
▁בעצם	-2293
▁בשלב	-2294
▁דרכים	-2295
▁לעבור	-2296
לתי	-2297
▁שרו	-2298
דית	-2299
▁חיו	-2300
רוץ	-2301
ניו	-2302
▁קרוב	-2303
▁הנתונים	-2304
-6	-2305
▁משל	-2306
▁האופ	-2307
▁צוות	-2308
▁אירופה	-2309
▁מכיוון	-2310
▁בשבוע	-2311
▁עש	-2312
מינו	-2313
▁השק	-2314
▁הזדמנות	-2315
שתו	-2316
▁הפך	-2317
▁תופ	-2318
▁אוהבים	-2319
גנה	-2320
שיב	-2321
▁לבנות	-2322
כא	-2323
▁חק	-2324
רבים	-2325
▁מונ	-2326
▁עולה	-2327
▁(1	-2328
▁בבי	-2329
רונים	-2330
▁למד	-2331
▁מהח	-2332
▁b	-2333
סקי	-2334
▁הקור	-2335
▁מדיניות	-2336
עיף	-2337
שתי	-2338
▁בתור	-2339
▁כרטי	-2340
▁מאמין	-2341
▁מסוגל	-2342
▁משרד	-2343
▁להיכנס	-2344
▁הרש	-2345
▁המדע	-2346
▁ביי	-2347
▁עיר	-2348
▁במדינה	-2349
▁להישאר	-2350
ab	-2351
כנה	-2352
▁סג	-2353
▁לראשונה	-2354
▁החש	-2355
▁ביחד	-2356
▁בפעם	-2357
▁מדברים	-2358
2.	-2359
דרש	-2360
שייה	-2361
▁לחץ	-2362
▁משפט	-2363
נדי	-2364
▁אצ	-2365
▁תז	-2366
▁זוג	-2367
▁לדי	-2368
כונים	-2369
▁אמית	-2370
▁מקווה	-2371
▁התעופה	-2372
▁הביטחון	-2373
חרת	-2374
טרף	-2375
ניח	-2376
▁סיבה	-2377
▁אמרתי	-2378
אמר	-2379
וקטו	-2380
ודעה	-2381
צמבר	-2382
ונית	-2383
▁ראו	-2384
טן	-2385
▁מאי	-2386
▁גורם	-2387
▁197	-2388
▁שרי	-2389
וקטובר	-2390
לנד	-2391
▁נכ	-2392
▁מחפ	-2393
▁שהע	-2394
ורף	-2395
כמה	-2396
שיית	-2397
▁המדינות	-2398
▁צפו	-2399
0,	-2400
פיות	-2401
▁ההז	-2402
▁יחס	-2403
מונים	-2404
▁אוני	-2405
▁להגן	-2406
▁גדולים	-2407
5,	-2408
דוע	-2409
▁אק	-2410
▁נושא	-2411
▁שיהיה	-2412
▁אמריקה	-2413
▁לקוחות	-2414
th	-2415
▁פסי	-2416
ושב	-2417
▁טראמפ	-2418
▁מיליארד	-2419
▁לוח	-2420
▁סיי	-2421
▁בואו	-2422
▁שמא	-2423
7.	-2424
▁ורו	-2425
▁להחז	-2426
▁קיבל	-2427
▁ניהול	-2428
▁בארצות	-2429
▁תמונות	-2430
▁ובה	-2431
סיס	-2432
▁מקרה	-2433
ניינים	-2434
▁לילדים	-2435
חסים	-2436
▁ושי	-2437
▁לרכ	-2438
▁המוס	-2439
▁הטיפול	-2440
▁ההיסטוריה	-2441
ולת	-2442
▁פוע	-2443
▁חברי	-2444
▁מוצרים	-2445
וריות	-2446
▁זכות	-2447
▁לשלם	-2448
▁קטנה	-2449
▁הסת	-2450
▁בחיי	-2451
ראית	-2452
▁נמו	-2453
▁המים	-2454
▁דווקא	-2455
ילום	-2456
▁מסוים	-2457
▁החלק	-2458
ia	-2459
חית	-2460
ליחה	-2461
▁196	-2462
▁עומד	-2463
▁ייח	-2464
▁לשל	-2465
▁שאת	-2466
▁אמיתי	-2467
▁בנוגע	-2468
▁האוכל	-2469
▁גב	-2470
▁לנסות	-2471
.”	-2472
המ	-2473
▁מבלי	-2474
▁לדוגמה	-2475
▁ניסיון	-2476
ובע	-2477
חלטה	-2478
▁לאור	-2479
▁אפשרי	-2480
-5	-2481
סום	-2482
▁דם	-2483
▁פנים	-2484
-8	-2485
ce	-2486
▁איראן	-2487
▁ויותר	-2488
▁מאחורי	-2489
למ	-2490
נתיים	-2491
▁אמרו	-2492
▁מדבר	-2493
▁w	-2494
למה	-2495
▁הטר	-2496
▁מערכות	-2497
גיה	-2498
במבר	-2499
▁העתי	-2500
▁ירושלים	-2501
ניסה	-2502
▁פלי	-2503
▁המשי	-2504
▁ובכל	-2505
▁כתוצאה	-2506
▁משמעותי	-2507
ונת	-2508
▁האש	-2509
▁ירי	-2510
▁תיק	-2511
op	-2512
▁צד	-2513
סטית	-2514
▁אבא	-2515
▁וכך	-2516
▁נחש	-2517
▁שווה	-2518
3.	-2519
ארק	-2520
▁המד	-2521
מדה	-2522
רצ	-2523
לון	-2524
סוי	-2525
▁ממשי	-2526
לץ	-2527
▁כוכ	-2528
▁הדין	-2529
▁האוויר	-2530
▁מאמינים	-2531
בצע	-2532
צרה	-2533
▁דין	-2534
▁הוק	-2535
▁תקופה	-2536
▁במסגרת	-2537
▁שבועות	-2538
טיה	-2539
▁(19	-2540
▁כות	-2541
▁הבאים	-2542
שהי	-2543
▁מיני	-2544
▁היהודי	-2545
▁הקד	-2546
▁ניצ	-2547
▁המטרה	-2548
מץ	-2549
▁חזק	-2550
▁שהח	-2551
▁אלפי	-2552
▁לשמוע	-2553
▁השירות	-2554
הוא	-2555
▁חינו	-2556
▁כללי	-2557
▁עצמך	-2558
▁עול	-2559
▁אישית	-2560
ורט	-2561
ריכה	-2562
▁איתו	-2563
▁1.	-2564
טרות	-2565
▁הטובה	-2566
ליו	-2567
▁ולק	-2568
▁הנוכ	-2569
▁ניו	-2570
▁שיל	-2571
▁אפשרות	-2572
▁נוספות	-2573
פאים	-2574
נועה	-2575
▁סין	-2576
▁רכב	-2577
▁הכסף	-2578
▁הקרו	-2579
ul	-2580
▁מצא	-2581
▁החשוב	-2582
▁יוצא	-2583
▁היכולת	-2584
5%	-2585
ri	-2586
▁—	-2587
▁כפ	-2588
▁שבהם	-2589
▁קטנים	-2590
▁לאחרונה	-2591
וניים	-2592
ולוגיות	-2593
ורד	-2594
▁כב	-2595
▁צרפת	-2596
▁אנרגיה	-2597
▁החולים	-2598
▁באירופה	-2599
ov	-2600
תחלה	-2601
▁ארבעה	-2602
▁שצריך	-2603
▁יר	-2604
▁ולי	-2605
▁מהש	-2606
▁בהי	-2607
▁מבט	-2608
▁מיל	-2609
▁אילו	-2610
▁המלא	-2611
▁בוד	-2612
▁בנק	-2613
▁אליה	-2614
▁העובדה	-2615
9.	-2616
▁לשע	-2617
▁יהודי	-2618
אט	-2619
▁ממנה	-2620
4.	-2621
מם	-2622
▁in	-2623
▁הנפ	-2624
▁כספ	-2625
▁מוכן	-2626
חושה	-2627
▁מלאה	-2628
▁נשיא	-2629
▁המערכת	-2630
סד	-2631
▁ואף	-2632
▁אודות	-2633
▁לפעול	-2634
▁להתע	-2635
▁הים	-2636
▁הנסי	-2637
▁הקרי	-2638
▁מעוני	-2639
▁קבוצה	-2640
▁גופ	-2641
▁בחודש	-2642
igh	-2643
▁שו	-2644
▁בהן	-2645
▁הנא	-2646
▁יצא	-2647
▁ראיתי	-2648
▁עב	-2649
▁ורק	-2650
▁מרי	-2651
▁האלו	-2652
▁כיוון	-2653
▁לישראל	-2654
▁חיל	-2655
▁רחב	-2656
▁אוהבת	-2657
▁האזרח	-2658
▁האחרונים	-2659
ושי	-2660
משו	-2661
▁תס	-2662
▁הביט	-2663
▁כזו	-2664
▁צבע	-2665
▁בתוכ	-2666
▁שס	-2667
▁הסט	-2668
▁שינויים	-2669
▁הבינלאומי	-2670
ובים	-2671
▁הצה	-2672
▁כלום	-2673
▁מלחמה	-2674
....	-2675
▁שגם	-2676
▁הקול	-2677
▁מיוחד	-2678
▁לשים	-2679
פך	-2680
ויות	-2681
יתנו	-2682
מינה	-2683
▁השחק	-2684
▁חודש	-2685
▁משק	-2686
▁לשפר	-2687
▁בבוקר	-2688
▁לעמוד	-2689
8.	-2690
ap	-2691
חש	-2692
▁לצד	-2693
ליף	-2694
▁סמ	-2695
ומדים	-2696
6.	-2697
▁ולש	-2698
▁ספרים	-2699
כתי	-2700
▁אמת	-2701
▁שיר	-2702
▁המנה	-2703
1,	-2704
ne	-2705
זוב	-2706
▁הגיעו	-2707
▁ובא	-2708
▁נשאר	-2709
כלו	-2710
ברתי	-2711
▁תמיכה	-2712
מאס	-2713
פית	-2714
מנית	-2715
פכה	-2716
▁טכנ	-2717
▁חושבת	-2718
8,	-2719
▁ההס	-2720
▁עתי	-2721
▁שאר	-2722
וליטית	-2723
▁התיכון	-2724
יט	-2725
ותם	-2726
חרר	-2727
▁חצי	-2728
▁מהו	-2729
▁הופך	-2730
▁מחיר	-2731
▁הקבוצה	-2732
מום	-2733
▁התשובה	-2734
וניברסיטה	-2735
▁ושל	-2736
וגה	-2737
▁לספר	-2738
ייסבוק	-2739
▁תלוי	-2740
▁קונ	-2741
▁בשוק	-2742
-7	-2743
ie	-2744
רס	-2745
▁חזרה	-2746
▁מעניין	-2747
לוק	-2748
פוך	-2749
▁פרק	-2750
רגל	-2751
דרות	-2752
ילויות	-2753
▁דיווח	-2754
4,	-2755
▁ערב	-2756
▁מקבלים	-2757
כוח	-2758
מדים	-2759
ציאל	-2760
▁יצירת	-2761
▁מתע	-2762
לונות	-2763
▁תפקיד	-2764
▁מגיעים	-2765
שיבה	-2766
▁לבע	-2767
▁הארגון	-2768
2,	-2769
ity	-2770
וסף	-2771
שתה	-2772
▁דת	-2773
▁לחי	-2774
▁לנק	-2775
▁לאדם	-2776
▁2.	-2777
▁ראה	-2778
▁לימוד	-2779
▁תשומת	-2780
▁התוכנית	-2781
▁נט	-2782
ביות	-2783
▁למקום	-2784
וגל	-2785
▁בקלות	-2786
▁לגלות	-2787
מאל	-2788
מנויות	-2789
▁מוקדם	-2790
▁מבחינה	-2791
▁השפעה	-2792
פחות	-2793
▁שניתן	-2794
ודו	-2795
ייב	-2796
▁פא	-2797
זיקה	-2798
▁טבעי	-2799
▁עלול	-2800
▁השלישי	-2801
לקת	-2802
▁ייש	-2803
▁מסע	-2804
▁בעצמ	-2805
▁הקשר	-2806
דאו	-2807
פיה	-2808
▁סק	-2809
לטון	-2810
▁בעתיד	-2811
7,	-2812
og	-2813
עתי	-2814
פרט	-2815
דיים	-2816
▁הרב	-2817
▁מפל	-2818
▁הסכם	-2819
▁האו	-2820
▁הוג	-2821
וניות	-2822
▁נקודות	-2823
ָה	-2824
▁לבדוק	-2825
▁מילים	-2826
▁קבוצות	-2827
▁שעה	-2828
וסייה	-2829
יכרון	-2830
▁פתרון	-2831
est	-2832
יחס	-2833
סיים	-2834
▁טיפ	-2835
תייחס	-2836
דיל	-2837
ברואר	-2838
צועים	-2839
▁במידה	-2840
מטי	-2841
יתונ	-2842
▁הרע	-2843
▁והה	-2844
▁ייע	-2845
▁נותן	-2846
▁הלילה	-2847
▁חולים	-2848
▁הקהילה	-2849
▁אוניברסי	-2850
תק	-2851
ind	-2852
▁כולו	-2853
▁המשטרה	-2854
▁להבטיח	-2855
טמבר	-2856
▁שנק	-2857
▁בעזרת	-2858
▁הישראלי	-2859
קיע	-2860
▁בוח	-2861
▁חוץ	-2862
▁שכן	-2863
▁מצוי	-2864
▁תרופות	-2865
▁>	-2866
▁24	-2867
▁לפתח	-2868
▁צעירים	-2869
ine	-2870
כרת	-2871
ניס	-2872
עון	-2873
▁קש	-2874
▁שד	-2875
▁יצי	-2876
▁נפר	-2877
▁לרוב	-2878
▁שאפשר	-2879
▁ואפילו	-2880
רקע	-2881
▁הבר	-2882
▁הגור	-2883
▁מגוון	-2884
▁תכנית	-2885
▁הגדולים	-2886
שימת	-2887
▁אוו	-2888
10	-2889
▁פס	-2890
דיין	-2891
ליטה	-2892
▁היסט	-2893
▁חשבו	-2894
▁שאינם	-2895
▁בבר	-2896
▁ארוך	-2897
▁בינואר	-2898
▁ההורים	-2899
נסת	-2900
▁בחר	-2901
▁מהן	-2902
▁המלך	-2903
▁יקרה	-2904
▁להיר	-2905
-18	-2906
בטחה	-2907
זורים	-2908
שירים	-2909
▁ההבד	-2910
▁המון	-2911
▁שקי	-2912
▁בראש	-2913
▁יכולת	-2914
מט	-2915
נטית	-2916
וניברסיטת	-2917
▁עבד	-2918
קדמות	-2919
▁עזרה	-2920
▁תמונה	-2921
טליה	-2922
פלגה	-2923
▁מאיתנו	-2924
av	-2925
▁»	-2926
ילוס	-2927
רייה	-2928
▁רכי	-2929
▁שבת	-2930
▁הדרו	-2931
▁נשמע	-2932
▁המודר	-2933
ורר	-2934
▁זיה	-2935
▁זר	-2936
למים	-2937
מויות	-2938
▁מנהל	-2939
▁לקראת	-2940
אס	-2941
זרו	-2942
▁הנק	-2943
▁התרו	-2944
▁במרכז	-2945
▁נמצאת	-2946
אין	-2947
▁תמ	-2948
מיחה	-2949
▁בחלק	-2950
▁הכוח	-2951
▁הנכון	-2952
▁העתיד	-2953
▁הטובים	-2954
טרך	-2955
נצ	-2956
אבל	-2957
▁חמ	-2958
▁מהה	-2959
וויות	-2960
▁שאם	-2961
נגדות	-2962
▁חייו	-2963
מקד	-2964
▁חר	-2965
▁שבא	-2966
▁האיש	-2967
▁רחוק	-2968
▁רוסיה	-2969
▁50	-2970
▁בסרט	-2971
▁בערך	-2972
▁ואין	-2973
▁מתאים	-2974
▁תוכניות	-2975
▁וז	-2976
מכים	-2977
▁היכן	-2978
▁נולד	-2979
▁ולאחר	-2980
לוש	-2981
סלא	-2982
פורסם	-2983
באי	-2984
מפי	-2985
▁דוג	-2986
בורים	-2987
רישות	-2988
▁במאי	-2989
▁בחברה	-2990
גשתי	-2991
▁הפני	-2992
▁להעביר	-2993
▁ומח	-2994
▁ממו	-2995
▁הרכב	-2996
▁השמש	-2997
▁קיימת	-2998
▁שאנשים	-2999
▁יתר	-3000
▁חשבתי	-3001
▁לשעבר	-3002
▁מסוגלים	-3003
ביעי	-3004
▁חסר	-3005
▁״	-3006
ושבי	-3007
צעים	-3008
שרות	-3009
▁הוצ	-3010
▁חזר	-3011
our	-3012
▁תרג	-3013
▁מנהי	-3014
לס	-3015
▁מלב	-3016
▁שזו	-3017
כונית	-3018
6,	-3019
ביש	-3020
נינו	-3021
▁בפי	-3022
▁מראש	-3023
▁הכת	-3024
▁חומ	-3025
▁הדת	-3026
▁תינו	-3027
▁אחריות	-3028
בוס	-3029
יהן	-3030
▁Ch	-3031
▁האת	-3032
▁מתא	-3033
▁העליון	-3034
סא	-3035
ועדה	-3036
▁איננו	-3037
▁המוצר	-3038
▁פיתוח	-3039
▁אינטרנט	-3040
ווק	-3041
▁נז	-3042
גישות	-3043
▁לנצח	-3044
▁יחסים	-3045
▁לסייע	-3046
▁משחקים	-3047
▁האירופי	-3048
ak	-3049
ביים	-3050
▁עשרות	-3051
ונס	-3052
יינים	-3053
▁בניו	-3054
▁ברשת	-3055
▁שימו	-3056
3,	-3057
if	-3058
רית	-3059
▁החופ	-3060
od	-3061
▁רמת	-3062
▁ברמה	-3063
▁חיוב	-3064
▁להתח	-3065
▁קבוצת	-3066
▁התינוק	-3067
▁מחפשים	-3068
ובר	-3069
▁אמור	-3070
▁|	-3071
▁פשו	-3072
▁נהרג	-3073
▁בלילה	-3074
▁בתחילת	-3075
▁היחסים	-3076
אג	-3077
צרו	-3078
▁בצד	-3079
יימים	-3080
▁לבקר	-3081
▁גורמים	-3082
▁האחרים	-3083
▁הלאומי	-3084
מכ	-3085
▁בתפ	-3086
▁ימי	-3087
▁משה	-3088
▁כרגע	-3089
▁משנת	-3090
nd	-3091
טוא	-3092
פורס	-3093
▁עוצ	-3094
▁יפ	-3095
יתון	-3096
מידה	-3097
▁לבח	-3098
▁ספורט	-3099
וין	-3100
▁דה	-3101
לקוח	-3102
▁כשהוא	-3103
▁יוכל	-3104
▁מכיר	-3105
▁המילה	-3106
ard	-3107
▁חוקי	-3108
▁כבוד	-3109
▁ביוני	-3110
▁לשימוש	-3111
▁בספטמבר	-3112
עוד	-3113
▁מאושר	-3114
מוקרטיה	-3115
▁תל	-3116
צירת	-3117
▁הנושא	-3118
▁לזכור	-3119
▁הרעיון	-3120
▁מוכנים	-3121
שורת	-3122
▁החינוך	-3123
▁העובדים	-3124
ופט	-3125
▁ללי	-3126
▁אסטרט	-3127
▁ואנחנו	-3128
▁הבל	-3129
▁ובר	-3130
ive	-3131
מדו	-3132
יקים	-3133
▁הינו	-3134
▁נקרא	-3135
▁האזור	-3136
▁הצורך	-3137
all	-3138
▁ולח	-3139
▁שמה	-3140
ליטים	-3141
▁חינוך	-3142
▁להכיר	-3143
▁האר	-3144
▁צעיר	-3145
▁האדמה	-3146
▁לשאול	-3147
▁מסוימת	-3148
▁לספ	-3149
וונים	-3150
חרים	-3151
▁שלב	-3152
ריכים	-3153
▁יוכלו	-3154
▁בדצמבר	-3155
נקים	-3156
▁פרופ	-3157
גיט	-3158
▁עת	-3159
ight	-3160
▁הוש	-3161
▁ועם	-3162
▁לתי	-3163
▁סוב	-3164
▁הפסי	-3165
▁שכבר	-3166
▁בשנות	-3167
▁ראשית	-3168
▁גרמניה	-3169
▁קבוע	-3170
▁חמישה	-3171
דמנויות	-3172
▁לעבודה	-3173
-9	-3174
ִי	-3175
אוג	-3176
בירה	-3177
קלים	-3178
שוואה	-3179
▁הנוכחי	-3180
לושה	-3181
▁סיפ	-3182
▁לחפש	-3183
▁מראה	-3184
▁חייבת	-3185
▁לאפשר	-3186
▁מחקרים	-3187
▁בוקר	-3188
▁התחל	-3189
▁לבוא	-3190
▁למדי	-3191
▁ממוק	-3192
"?	-3193
יתם	-3194
▁לצפות	-3195
▁אלקטרו	-3196
▁ישירות	-3197
▁הבחירות	-3198
קע	-3199
נדון	-3200
▁בתע	-3201
▁הזוג	-3202
▁תפקי	-3203
ידן	-3204
▁25	-3205
דימה	-3206
▁מין	-3207
▁סיבות	-3208
▁במערכת	-3209
ורו	-3210
▁בפע	-3211
▁אזור	-3212
▁מבינים	-3213
כנע	-3214
▁איזו	-3215
▁סביר	-3216
▁האמיתי	-3217
▁המציאות	-3218
30	-3219
▁גד	-3220
▁גוף	-3221
בוצות	-3222
▁לוקח	-3223
▁גדולות	-3224
עיל	-3225
בנות	-3226
▁הגל	-3227
▁ומס	-3228
▁צעד	-3229
▁ושוב	-3230
▁להאמין	-3231
ook	-3232
▁ויי	-3233
▁קפה	-3234
▁טובות	-3235
▁תקשורת	-3236
▁האמריקאי	-3237
▁בטח	-3238
▁מוט	-3239
▁היהודית	-3240
ob	-3241
זציה	-3242
ניהול	-3243
▁נמוך	-3244
art	-3245
ast	-3246
מרים	-3247
▁ההשפ	-3248
▁סוגי	-3249
▁רצון	-3250
▁החלטה	-3251
▁X	-3252
לאות	-3253
וגוסט	-3254
▁ביולי	-3255
▁מתחילים	-3256
one	-3257
גרי	-3258
ודאי	-3259
▁ובת	-3260
▁מבק	-3261
▁למשך	-3262
▁מוות	-3263
▁בזכות	-3264
▁מקומות	-3265
▁האנרגיה	-3266
אתם	-3267
רחי	-3268
▁ספצי	-3269
▁חשובה	-3270
ורא	-3271
וריד	-3272
▁כאב	-3273
▁אליהם	-3274
▁חשבון	-3275
▁לכולם	-3276
▁הולכים	-3277
▁מכירים	-3278
רוח	-3279
לבום	-3280
רוכה	-3281
▁ענק	-3282
▁לדברי	-3283
▁שיתוף	-3284
▁בחשבון	-3285
▁להסביר	-3286
▁באוקטובר	-3287
▁a	-3288
▁בהק	-3289
▁נשק	-3290
▁רציתי	-3291
▁להפסיק	-3292
▁הפלסטינים	-3293
מרו	-3294
קוב	-3295
▁40	-3296
ופיע	-3297
▁חלב	-3298
▁פוג	-3299
▁לגי	-3300
▁מיק	-3301
▁לילה	-3302
▁ניתוח	-3303
ושת	-3304
▁צה	-3305
▁מציע	-3306
▁לפתוח	-3307
▁עצמנו	-3308
▁שנתיים	-3309
com	-3310
שווי	-3311
▁החלו	-3312
▁העלי	-3313
▁בהמשך	-3314
▁גדל	-3315
▁ישוע	-3316
▁אתמול	-3317
▁חשיבות	-3318
▁קיימים	-3319
▁‘	-3320
ופיה	-3321
▁יצר	-3322
▁אנטי	-3323
▁האמית	-3324
▁ידעתי	-3325
▁מומלץ	-3326
וטנציאל	-3327
▁קוראים	-3328
ברר	-3329
▁חג	-3330
▁נצ	-3331
▁ולהת	-3332
וזה	-3333
תפים	-3334
▁התרבות	-3335
ועד	-3336
פרס	-3337
ופית	-3338
▁בבע	-3339
▁חופש	-3340
▁הימים	-3341
▁פרטים	-3342
▁שאינו	-3343
▁בנובמבר	-3344
9,	-3345
ליחו	-3346
פייה	-3347
▁דמי	-3348
▁החז	-3349
אז	-3350
סטרו	-3351
▁195	-3352
נגטון	-3353
▁העולמי	-3354
ct	-3355
קן	-3356
▁החק	-3357
כוהול	-3358
▁מייצ	-3359
▁מרגישים	-3360
פוץ	-3361
דעתי	-3362
ובלי	-3363
▁המחש	-3364
▁ואתה	-3365
▁לטפל	-3366
▁עשרה	-3367
▁הפנים	-3368
▁כלשהו	-3369
▁התנהגות	-3370
ודא	-3371
▁והן	-3372
▁בספר	-3373
▁התחת	-3374
▁רפוא	-3375
▁בימים	-3376
▁במקרים	-3377
מדת	-3378
▁הדם	-3379
בוהים	-3380
▁בחדר	-3381
▁ממלי	-3382
▁אמנות	-3383
▁בתקופה	-3384
”,	-3385
-20	-3386
ומד	-3387
פחת	-3388
▁ומק	-3389
▁שהן	-3390
▁ראשו	-3391
▁להוסיף	-3392
▁שירותי	-3393
פריל	-3394
▁אמי	-3395
▁בשר	-3396
מצאים	-3397
▁בכדי	-3398
▁להציל	-3399
▁בעבודה	-3400
▁אפשרויות	-3401
מחה	-3402
ותרת	-3403
▁הבנק	-3404
▁ממני	-3405
▁באמצע	-3406
▁בקרוב	-3407
▁הנשים	-3408
▁אחוזים	-3409
▁להימנע	-3410
▁גרי	-3411
▁נוכל	-3412
פג	-3413
חוק	-3414
▁השא	-3415
▁זוכר	-3416
▁שמות	-3417
▁העניין	-3418
gle	-3419
סוק	-3420
...]	-3421
מאות	-3422
▁האג	-3423
▁חדר	-3424
▁אמנם	-3425
▁שינה	-3426
ולוגית	-3427
▁בחזרה	-3428
▁המקצוע	-3429
▁נזק	-3430
יקטים	-3431
ריאות	-3432
▁ביחס	-3433
▁ההחלטה	-3434
משי	-3435
▁טרי	-3436
▁מעדי	-3437
בעת	-3438
למת	-3439
יימת	-3440
▁בוג	-3441
▁השוק	-3442
▁ילדי	-3443
▁התקשורת	-3444
שׁ	-3445
▁אקד	-3446
▁קוב	-3447
▁החלה	-3448
▁מוצר	-3449
▁מהווה	-3450
▁תשובה	-3451
משת	-3452
▁עתה	-3453
▁השיר	-3454
▁האישה	-3455
ate	-3456
גיעו	-3457
כחות	-3458
▁שהש	-3459
כולוג	-3460
▁המור	-3461
▁הערב	-3462
▁מבוס	-3463
▁שעבר	-3464
▁לחיים	-3465
▁עיצוב	-3466
שן	-3467
רגש	-3468
▁תב	-3469
גנון	-3470
▁גבר	-3471
▁למס	-3472
▁המזרח	-3473
▁אפריקה	-3474
נשי	-3475
▁בצי	-3476
▁למק	-3477
ובדים	-3478
▁ארוכה	-3479
ill	-3480
ביעה	-3481
▁הומ	-3482
▁איתם	-3483
▁בגוף	-3484
▁עשויה	-3485
▁ביטחון	-3486
נש	-3487
▁לבן	-3488
▁פחד	-3489
▁התמונה	-3490
▁לטיפול	-3491
וצים	-3492
▁המב	-3493
▁העור	-3494
▁אוטומ	-3495
▁רעיון	-3496
▁באוגוסט	-3497
חוץ	-3498
▁הוסיף	-3499
▁לרכוש	-3500
▁החלטות	-3501
לחץ	-3502
רווי	-3503
▁ההצ	-3504
▁ונו	-3505
▁הקונ	-3506
▁סוגים	-3507
▁התלמידים	-3508
▁Re	-3509
מונת	-3510
▁אינן	-3511
▁במזרח	-3512
▁שמונה	-3513
▁פעולות	-3514
▁הפוליטי	-3515
טניה	-3516
▁ולת	-3517
▁המוב	-3518
▁[...]	-3519
▁המחיר	-3520
משלה	-3521
▁הוע	-3522
▁ולמ	-3523
▁נאל	-3524
▁ביניהם	-3525
▁ביקורת	-3526
▁האנושי	-3527
▁משמעותית	-3528
▁נצי	-3529
▁אסור	-3530
▁הצדדים	-3531
דיא	-3532
▁Ne	-3533
▁to	-3534
▁הגב	-3535
▁נאמר	-3536
▁האפשרות	-3537
ען	-3538
כנת	-3539
▁בסך	-3540
▁המחשב	-3541
▁אזרחים	-3542
▁מיוחדת	-3543
עש	-3544
▁גא	-3545
מצאו	-3546
▁ואמר	-3547
▁שלהן	-3548
▁לעצור	-3549
וסטר	-3550
▁תנאי	-3551
▁הישראל	-3552
ort	-3553
פעל	-3554
▁מחר	-3555
▁מורכ	-3556
▁נחשב	-3557
זין	-3558
ינם	-3559
▁שאל	-3560
▁הידע	-3561
▁המוות	-3562
▁הישראלית	-3563
כלים	-3564
▁ליום	-3565
▁מלבד	-3566
▁הרופא	-3567
כנן	-3568
נאה	-3569
תיע	-3570
דירה	-3571
▁בול	-3572
▁ווי	-3573
▁כוו	-3574
ant	-3575
גובה	-3576
שובות	-3577
▁מחוי	-3578
▁עונה	-3579
▁ביטוח	-3580
▁ביצוע	-3581
▁הבאות	-3582
▁העיקר	-3583
▁השלום	-3584
▁לצורך	-3585
▁פופול	-3586
לד	-3587
לן	-3588
ברט	-3589
oogle	-3590
▁שליטה	-3591
▁התהליך	-3592
רחים	-3593
▁היי	-3594
▁מתאי	-3595
ביו	-3596
כרה	-3597
▁לתח	-3598
▁בשעה	-3599
▁לידי	-3600
▁לעזוב	-3601
שוף	-3602
▁וסי	-3603
▁לבני	-3604
▁אוויר	-3605
▁נמוכה	-3606
▁האנושות	-3607
▁בהיסטוריה	-3608
▁מוסי	-3609
▁עדיף	-3610
▁להציג	-3611
▁נכונה	-3612
ודד	-3613
▁קד	-3614
▁אופן	-3615
▁בשני	-3616
▁הפכה	-3617
▁יחסי	-3618
▁מאחר	-3619
▁הפעולה	-3620
[1	-3621
לוו	-3622
לווה	-3623
▁לנהל	-3624
▁מנסים	-3625
ist	-3626
ווית	-3627
ניהו	-3628
▁לזהות	-3629
▁ארץ	-3630
▁המוק	-3631
▁יחסית	-3632
▁בירושלים	-3633
▁יז	-3634
▁אוק	-3635
▁ברצ	-3636
▁הנע	-3637
▁כרי	-3638
▁רצו	-3639
▁בסין	-3640
▁מידי	-3641
▁הבינלאומית	-3642
ווא	-3643
ייה	-3644
קסט	-3645
▁Al	-3646
▁להד	-3647
▁תור	-3648
▁איתי	-3649
▁הגיעה	-3650
▁הלאומית	-3651
''	-3652
ופל	-3653
ריע	-3654
▁פיק	-3655
▁שיק	-3656
ופלים	-3657
▁לאתר	-3658
▁במדינות	-3659
▁$	-3660
▁גרם	-3661
ודיים	-3662
▁פתוח	-3663
▁שלישי	-3664
▁להראות	-3665
▁התוצאות	-3666
ell	-3667
▁נול	-3668
▁הארי	-3669
▁הגנה	-3670
▁הצליח	-3671
▁לציין	-3672
▁סיכוי	-3673
▁שעברה	-3674
▁הפעילות	-3675
):	-3676
ub	-3677
גדל	-3678
רוד	-3679
▁יג	-3680
ננים	-3681
▁עלה	-3682
▁מטרות	-3683
▁זקוקים	-3684
?”	-3685
הה	-3686
▁קומ	-3687
▁בחוץ	-3688
ריטניה	-3689
▁פתאום	-3690
לע	-3691
▁("	-3692
ביעות	-3693
נסייה	-3694
▁בריא	-3695
בוגרים	-3696
▁מוחלט	-3697
▁הלקוחות	-3698
▁סטודנטים	-3699
ויק	-3700
גוון	-3701
בויות	-3702
▁פרטי	-3703
▁ליהנות	-3704
נוס	-3705
ביבת	-3706
לויות	-3707
▁להציע	-3708
▁קדימה	-3709
עדה	-3710
צעי	-3711
▁שהה	-3712
רמניה	-3713
▁מילה	-3714
▁קבלת	-3715
▁ההבדל	-3716
▁&	-3717
פוט	-3718
לאים	-3719
צחון	-3720
▁הוב	-3721
▁וחי	-3722
▁לקח	-3723
▁מתנה	-3724
▁התחיל	-3725
▁העיקרי	-3726
▁התוצאה	-3727
▁מבחינת	-3728
טיב	-3729
נטה	-3730
▁והצ	-3731
▁לייצר	-3732
▁לישון	-3733
▁לפתור	-3734
▁באפריל	-3735
נע	-3736
▁יקר	-3737
▁להן	-3738
▁לפר	-3739
▁להתג	-3740
▁סרטן	-3741
▁החברת	-3742
▁לבסוף	-3743
▁אירועים	-3744
▁המשמעות	-3745
ice	-3746
▁בגי	-3747
▁האב	-3748
▁לתפ	-3749
▁שבר	-3750
▁קשור	-3751
▁לקבוע	-3752
▁שניהם	-3753
פד	-3754
רע	-3755
-10	-3756
The	-3757
כמים	-3758
▁ביל	-3759
▁להתא	-3760
▁האהבה	-3761
▁תקופת	-3762
▁האירוע	-3763
גרם	-3764
ובד	-3765
▁ויר	-3766
▁מהד	-3767
▁סתם	-3768
▁לבקש	-3769
רגונים	-3770
▁במספר	-3771
▁בפברואר	-3772
דרגה	-3773
▁אספ	-3774
▁היע	-3775
▁נכתב	-3776
▁עליכם	-3777
סיקו	-3778
▁מהס	-3779
▁צוד	-3780
ודיות	-3781
▁האפש	-3782
▁רמות	-3783
ריד	-3784
▁במא	-3785
▁מרח	-3786
▁רצה	-3787
▁שתה	-3788
▁חברתית	-3789
צעת	-3790
▁קא	-3791
ספרים	-3792
▁חזקה	-3793
ירותים	-3794
▁אלינו	-3795
▁מדהים	-3796
▁בעניין	-3797
??	-3798
מרת	-3799
▁לאן	-3800
▁החת	-3801
▁בבקשה	-3802
ובב	-3803
▁לני	-3804
▁עקב	-3805
לימות	-3806
▁חומר	-3807
▁חייהם	-3808
אד	-3809
קרב	-3810
חרור	-3811
ישור	-3812
▁אלב	-3813
▁סבל	-3814
▁השפה	-3815
▁מזרח	-3816
▁חיילים	-3817
ge	-3818
בחן	-3819
מתו	-3820
▁ספי	-3821
▁קיצ	-3822
▁להיע	-3823
▁לדבריו	-3824
▁זכה	-3825
▁במטרה	-3826
▁תשלום	-3827
▁משפחות	-3828
▁עומדים	-3829
ופעה	-3830
קציה	-3831
▁והס	-3832
▁נפג	-3833
▁שטח	-3834
▁חוזר	-3835
▁לגיל	-3836
▁רופא	-3837
▁בתהליך	-3838
▁בריטניה	-3839
הע	-3840
ונש	-3841
▁ואל	-3842
▁מזל	-3843
וקף	-3844
חקי	-3845
▁מטרה	-3846
▁קורא	-3847
▁ועכשיו	-3848
וּ	-3849
אור	-3850
וקי	-3851
▁דר	-3852
דרים	-3853
תפות	-3854
▁שאמר	-3855
▁חופשי	-3856
▁כשאני	-3857
▁מצרים	-3858
▁המילים	-3859
שאיר	-3860
▁ומצ	-3861
▁מודר	-3862
▁עתיד	-3863
▁להניח	-3864
▁לעצמי	-3865
▁פרסום	-3866
▁האיחוד	-3867
זמן	-3868
..."	-3869
קיעים	-3870
▁איתך	-3871
▁כזאת	-3872
▁אמיתית	-3873
דרו	-3874
וספת	-3875
▁מהפ	-3876
▁כולה	-3877
201	-3878
her	-3879
בוי	-3880
▁לשת	-3881
שואין	-3882
▁מידה	-3883
▁פעיל	-3884
▁תואר	-3885
▁להוביל	-3886
▁l	-3887
בילי	-3888
▁דיא	-3889
▁נדר	-3890
▁ששי	-3891
דירות	-3892
כולנו	-3893
▁להיפ	-3894
▁מתוכ	-3895
▁מתרח	-3896
▁הסביבה	-3897
▁להוציא	-3898
se	-3899
הל	-3900
▁#	-3901
טרס	-3902
▁2015	-3903
▁מושג	-3904
▁ראשי	-3905
▁כרטיס	-3906
▁למכור	-3907
▁הגדולות	-3908
▁טלוויזיה	-3909
▁הפלסטינית	-3910
▁איי	-3911
▁שהצ	-3912
▁הנראה	-3913
רן	-3914
לקה	-3915
רוף	-3916
-199	-3917
▁שהפ	-3918
▁בנות	-3919
▁הנית	-3920
▁הראש	-3921
▁בפועל	-3922
▁הבלתי	-3923
▁וידאו	-3924
▁הסיכון	-3925
רם	-3926
▁!	-3927
▁באמ	-3928
▁סול	-3929
▁העבר	-3930
▁כנגד	-3931
▁משקל	-3932
▁עמוק	-3933
▁צפוי	-3934
▁ההגנה	-3935
▁שיעור	-3936
▁החברות	-3937
טלק	-3938
▁הינה	-3939
▁זקוק	-3940
▁המזון	-3941
▁העונה	-3942
▁הטכנולוגיה	-3943
pp	-3944
ows	-3945
ומם	-3946
מוס	-3947
שמה	-3948
▁העת	-3949
▁שווי	-3950
▁עצמכם	-3951
▁חשובים	-3952
מיר	-3953
▁בבח	-3954
▁היס	-3955
▁ירד	-3956
וקטור	-3957
▁זמין	-3958
▁עובר	-3959
▁הקודם	-3960
▁קטנות	-3961
▁להשפיע	-3962
▁הלימודים	-3963
ost	-3964
בדה	-3965
▁מצט	-3966
▁ניס	-3967
▁הגרמ	-3968
▁הפרט	-3969
▁ואיך	-3970
▁ארוחת	-3971
▁מקרים	-3972
▁המוצרים	-3973
ver	-3974
חיות	-3975
▁הבה	-3976
לחת	-3977
▁האפ	-3978
▁רווח	-3979
▁שמחה	-3980
▁במחקר	-3981
▁לעצמו	-3982
יתו	-3983
▁ובמ	-3984
▁שלם	-3985
▁עורך	-3986
▁חיפוש	-3987
ומט	-3988
▁ברצי	-3989
▁מותר	-3990
▁נושאים	-3991
ff	-3992
זת	-3993
צרי	-3994
שבו	-3995
גרות	-3996
▁בעלת	-3997
▁מהיר	-3998
▁סיפר	-3999
ישורים	-4000
▁הזכות	-4001
▁מחלות	-4002
▁התפתחות	-4003
וכה	-4004
▁Sh	-4005
כנות	-4006
▁נתן	-4007
▁שעל	-4008
שיבות	-4009
▁טרור	-4010
▁למות	-4011
▁מרבית	-4012
▁שניים	-4013
▁הטלפון	-4014
▁אוניברסיטת	-4015
ros	-4016
ואן	-4017
▁שז	-4018
סיקה	-4019
▁עיק	-4020
רגשות	-4021
▁הצוות	-4022
▁לעלות	-4023
▁לפנות	-4024
▁יכולתי	-4025
▁מציאות	-4026
BA	-4027
וכר	-4028
ספים	-4029
▁פינ	-4030
▁בבתי	-4031
▁דרום	-4032
▁לשתף	-4033
▁לתקן	-4034
▁בעלות	-4035
▁השונים	-4036
ark	-4037
▁3.	-4038
▁הפל	-4039
▁הפרי	-4040
▁להיל	-4041
▁היסטוריה	-4042
פיל	-4043
▁עץ	-4044
בעות	-4045
▁וכו	-4046
▁לאט	-4047
▁מסר	-4048
▁ברוב	-4049
▁הפכו	-4050
▁שלושת	-4051
▁בניגוד	-4052
▁בהשוואה	-4053
כרח	-4054
ליל	-4055
פתחו	-4056
▁והק	-4057
▁חרי	-4058
▁השטח	-4059
▁בדרום	-4060
▁המשות	-4061
▁עצמית	-4062
▁פעמיים	-4063
כתה	-4064
סקו	-4065
▁עז	-4066
ועלת	-4067
וריאה	-4068
▁החמי	-4069
▁המשפ	-4070
▁מלון	-4071
▁הצלחה	-4072
▁רפואי	-4073
ומנויות	-4074
▁רעיונות	-4075
נב	-4076
ואל	-4077
מנת	-4078
נטיות	-4079
▁שחור	-4080
▁האישי	-4081
▁המחלה	-4082
▁מושלם	-4083
eb	-4084
נך	-4085
צעו	-4086
דינת	-4087
יראן	-4088
פנים	-4089
▁גרו	-4090
▁ממך	-4091
▁לחלק	-4092
▁מספק	-4093
▁הידוע	-4094
▁הלקוח	-4095
▁הנוכח	-4096
▁מרגישה	-4097
▁המערבית	-4098
▁בּ	-4099
▁2017	-4100
▁חיות	-4101
▁הבוקר	-4102
▁ההזדמנות	-4103
גרס	-4104
מחים	-4105
▁193	-4106
▁לעבר	-4107
▁החוצה	-4108
▁שקורה	-4109
▁במילים	-4110
▁21	-4111
כנים	-4112
▁למצב	-4113
▁ואילו	-4114
▁המפלגה	-4115
בעה	-4116
ולחן	-4117
ציאה	-4118
▁אגב	-4119
▁מחשב	-4120
אורה	-4121
כאון	-4122
▁ישנה	-4123
▁ראוי	-4124
▁שהופ	-4125
רכיבים	-4126
▁ממשיך	-4127
▁מרכזי	-4128
▁תחרות	-4129
▁אלימות	-4130
▁הכלכלי	-4131
ברג	-4132
רתי	-4133
▁ובש	-4134
▁הכדור	-4135
וֹ	-4136
וגים	-4137
ושים	-4138
טיין	-4139
מדות	-4140
▁for	-4141
▁וול	-4142
ליכים	-4143
▁במאה	-4144
▁עברו	-4145
▁בצפון	-4146
▁הראשי	-4147
▁לשלוח	-4148
▁נקודת	-4149
▁תלמידים	-4150
נפ	-4151
האם	-4152
▁שונ	-4153
▁האקד	-4154
▁לנשים	-4155
▁התנועה	-4156
▁פתרונות	-4157
ord	-4158
ושות	-4159
▁והג	-4160
▁2018	-4161
▁אביו	-4162
▁עוזר	-4163
▁מצליח	-4164
▁ראשונה	-4165
▁בינתיים	-4166
▁החוקרים	-4167
▁הראשונות	-4168
EB	-4169
▁מכם	-4170
קטיבי	-4171
▁החוץ	-4172
▁מעמד	-4173
▁בשימוש	-4174
▁מוזיקה	-4175
ack	-4176
זות	-4177
וכיח	-4178
זרים	-4179
סטין	-4180
▁ניק	-4181
▁והיה	-4182
▁כשהם	-4183
▁לשמש	-4184
▁סעיף	-4185
▁ברורה	-4186
▁למדינה	-4187
▁0	-4188
וסק	-4189
▁בכמה	-4190
▁מותו	-4191
▁מחפש	-4192
▁ייצור	-4193
דיות	-4194
ובוס	-4195
תיבה	-4196
▁ביקש	-4197
▁הרשת	-4198
▁לשני	-4199
▁מופי	-4200
▁סימן	-4201
▁לשלוט	-4202
▁פשוטה	-4203
▁הבחירה	-4204
▁התקופה	-4205
ניקה	-4206
▁מלה	-4207
▁מתב	-4208
▁דופן	-4209
▁ומתן	-4210
▁מסכים	-4211
▁תכונות	-4212
טרת	-4213
מפט	-4214
▁''	-4215
▁ובין	-4216
▁צפון	-4217
▁הזדמנויות	-4218
▁בך	-4219
▁גזע	-4220
▁שוכ	-4221
▁שחי	-4222
▁הלבן	-4223
▁כחלק	-4224
▁אירוע	-4225
▁בהרבה	-4226
▁ואולי	-4227
▁להרוג	-4228
▁מקורות	-4229
קף	-4230
גוש	-4231
▁22	-4232
▁An	-4233
מורה	-4234
▁בטר	-4235
▁בעד	-4236
▁בקה	-4237
▁מנג	-4238
▁פות	-4239
▁השאר	-4240
▁ההיסט	-4241
▁כשאתה	-4242
▁פועלים	-4243
אשר	-4244
▁כיף	-4245
▁בטוחה	-4246
▁במקומות	-4247
▁ישראלים	-4248
▁קיל	-4249
▁הבדי	-4250
▁מפתח	-4251
▁פועל	-4252
▁רגיל	-4253
▁ביטוי	-4254
זיל	-4255
▁ניסו	-4256
▁לאירו	-4257
▁לפגוע	-4258
▁הרגשתי	-4259
גלה	-4260
עורר	-4261
▁המונ	-4262
▁הקטן	-4263
▁כותב	-4264
▁תנועה	-4265
כנו	-4266
▁דוד	-4267
▁דרו	-4268
▁בקול	-4269
▁וחצי	-4270
▁משמש	-4271
▁הופיע	-4272
▁הסדרה	-4273
ונו	-4274
ותי	-4275
אפשר	-4276
יתוף	-4277
רכיב	-4278
▁הדלת	-4279
▁הורים	-4280
▁החדשות	-4281
▁נתניהו	-4282
-15	-4283
▁בקשר	-4284
▁אישור	-4285
qu	-4286
ain	-4287
▁צל	-4288
ולין	-4289
ילוב	-4290
▁בור	-4291
▁קבע	-4292
וכנות	-4293
▁מדהי	-4294
▁מוקד	-4295
▁תוכן	-4296
▁פרויקט	-4297
▁לחת	-4298
▁ריק	-4299
▁שפה	-4300
▁הקיץ	-4301
▁הכוחות	-4302
מיני	-4303
▁למא	-4304
▁משר	-4305
▁תשת	-4306
▁שחקן	-4307
▁שישה	-4308
indows	-4309
▁הבנתי	-4310
▁מחשבות	-4311
▁באנגלית	-4312
▁Th	-4313
▁ובו	-4314
▁2014	-4315
▁בצרפת	-4316
▁בטוחים	-4317
ייק	-4318
▁	-4319
י	-4320
ו	-4321
ה	-4322
ל	-4323
ת	-4324
א	-4325
ר	-4326
מ	-4327
ב	-4328
ש	-4329
ם	-4330
נ	-4331
ע	-4332
ד	-4333
כ	-4334
ח	-4335
ק	-4336
פ	-4337
.	-4338
ס	-4339
ג	-4340
,	-4341
ט	-4342
צ	-4343
ן	-4344
ז	-4345
ך	-4346
"	-4347
-	-4348
e	-4349
0	-4350
1	-4351
ף	-4352
?	-4353
a	-4354
o	-4355
i	-4356
2	-4357
:	-4358
n	-4359
r	-4360
t	-4361
'	-4362
)	-4363
(	-4364
s	-4365
l	-4366
ץ	-4367
9	-4368
5	-4369
3	-4370
4	-4371
c	-4372
h	-4373
d	-4374
u	-4375
–	-4376
8	-4377
6	-4378
7	-4379
S	-4380
!	-4381
m	-4382
A	-4383
C	-4384
g	-4385
y	-4386
T	-4387
P	-4388
p	-4389
M	-4390
I	-4391
B	-4392
D	-4393
E	-4394
”	-4395
]	-4396
[	-4397
f	-4398
b	-4399
R	-4400
L	-4401
k	-4402
%	-4403
;	-4404
N	-4405
v	-4406
O	-4407
H	-4408
w	-4409
G	-4410
ּ	-4411
F	-4412
“	-4413
W	-4414
/	-4415
ָ	-4416
ְ	-4417
V	-4418
ַ	-4419
ִ	-4420
U	-4421
’	-4422
x	-4423
ֹ	-4424
ֶ	-4425
־	-4426
K	-4427
״	-4428
J	-4429
ֵ	-4430
Y	-4431
z	-4432
*	-4433
X	-4434
ׁ	-4435
>	-4436
•	-4437
+	-4438
—	-4439
»	-4440
|	-4441
&	-4442
$	-4443
‘	-4444
Q	-4445
j	-4446
Z	-4447
ֲ	-4448
#	-4449
q	-4450
׳	-4451
=	-4452
^	-4453
\	-4454
·	-4455
ׂ	-4456
‬	-4457
}	-4458
{	-4459
_	-4460
~	-4461
ֱ	-4462
«	-4463
`	-4464
→	-4465
é	-4466
‭	-4467
<	-4468
@	-4469
́	-4470
	-4471
←	-4472
🙂	-4473
®	-4474
ֻ	-4475
‫	-4476
°	-4477
׃	-4478
₪	-4479
×	-4480
á	-4481
‪	-4482
€	-4483
′	-4484
↑	-4485
♥	-4486
‐	-4487
í	-4488
›	-4489
ö	-4490
£	-4491
ó	-4492
ü	-4493
©	-4494
ا	-4495
ل	-4496
■	-4497
¶	-4498
●	-4499
ä	-4500
♦	-4501
↩	-4502
­	-4503
è	-4504
â	-4505
◄	-4506
▼	-4507
م	-4508
😉	-4509
	-4510
„	-4511
§	-4512
ç	-4513
α	-4514
ي	-4515
∗	-4516
ر	-4517
	-4518
à	-4519
ο	-4520
ֿ	-4521
−	-4522
►	-4523
τ	-4524
و	-4525
‹	-4526
ú	-4527
λ	-4528
ب	-4529
َ	-4530
👈	-4531
š	-4532
ʉ	-4533
κ	-4534
а	-4535
‡	-4536
️	-4537
¬	-4538
ß	-4539
ł	-4540
ž	-4541
̄	-4542
θ	-4543
о	-4544
ֳ	-4545
ع	-4546
ن	-4547
	-4548
å	-4549
ê	-4550
ñ	-4551
μ	-4552
ρ	-4553
ς	-4554
⬅	-4555
￼	-4556
	-4557
ō	-4558
ι	-4559
π	-4560
и	-4561
⁄	-4562
▪	-4563
▲	-4564
♪	-4565
	-4566
±	-4567
É	-4568
Δ	-4569
γ	-4570
ν	-4571
φ	-4572
н	-4573
ِ	-4574
ی	-4575
😛	-4576
🙁	-4577
¦	-4578
ã	-4579
ć	-4580
ή	-4581
β	-4582
Р	-4583
х	-4584
ت	-4585
س	-4586
ه	-4587
‍	-4588
‒	-4589
‚	-4590
√	-4591
	-4592
👑	-4593
¢	-4594
æ	-4595
ë	-4596
ā	-4597
č	-4598
Ł	-4599
ş	-4600
Θ	-4601
Ω	-4602
ά	-4603
ε	-4604
σ	-4605
О	-4606
в	-4607
с	-4608
ֽ	-4609
أ	-4610
ج	-4611
ح	-4612
د	-4613
ش	-4614
ك	-4615
⁠	-4616
∈	-4617
⋅	-4618
♫	-4619
	-4620
😀	-4621
😊	-4622
	-4623
	-4624
	-4625
Î	-4626
Ö	-4627
Ü	-4628
ø	-4629
ś	-4630
ɾ	-4631
Σ	-4632
η	-4633
υ	-4634
χ	-4635
С	-4636
Т	-4637
р	-4638
і	-4639
֥	-4640
ة	-4641
ذ	-4642
ق	-4643
ُ	-4644
ْ	-4645
٠	-4646
ल	-4647
―	-4648
†	-4649
⁡	-4650
□	-4651
★	-4652
⚡	-4653
✔	-4654
😂	-4655
🤔	-4656
	-4657
	-4658
¿	-4659
Á	-4660
Ç	-4661
ð	-4662
ò	-4663
õ	-4664
ù	-4665
û	-4666
ý	-4667
ÿ	-4668
ă	-4669
Č	-4670
Đ	-4671
ę	-4672
ğ	-4673
ħ	-4674
ī	-4675
İ	-4676
ň	-4677
ő	-4678
œ	-4679
ţ	-4680
ū	-4681
ż	-4682
ɒ	-4683
ʻ	-4684
ˌ	-4685
̈	-4686
Ε	-4687
έ	-4688
ί	-4689
δ	-4690
В	-4691
К	-4692
Н	-4693
д	-4694
е	-4695
й	-4696
п	-4697
т	-4698
у	-4699
ф	-4700
ц	-4701
ч	-4702
я	-4703
֖	-4704
װ	-4705
إ	-4706
خ	-4707
ط	-4708
ा	-4709
ា	-4710
‰	-4711
↓	-4712
∘	-4713
∙	-4714
∽	-4715
≠	-4716
≥	-4717
▶	-4718
☀	-4719
☆	-4720
☺	-4721
♠	-4722
✰	-4723
❻	-4724
❽	-4725
⟩	-4726
⦁	-4727
、	-4728
の	-4729
ル	-4730
ー	-4731
日	-4732
黑	-4733
	-4734
	-4735
	-4736
📄	-4737
🔥	-4738
😁	-4739
😃	-4740
😍	-4741
😚	-4742
¡	-4743
È	-4744
Ë	-4745
Ó	-4746
Ø	-4747
Ú	-4748
Û	-4749
ï	-4750
ô	-4751
÷	-4752
Ġ	-4753
ŋ	-4754
Ś	-4755
Š	-4756
Ÿ	-4757
Ż	-4758
Ž	-4759
ư	-4760
ș	-4761
ț	-4762
ɓ	-4763
ə	-4764
ɛ	-4765
ɸ	-4766
ʊ	-4767
ʌ	-4768
ʼ	-4769
ˈ	-4770
ː	-4771
Α	-4772
Β	-4773
Κ	-4774
Τ	-4775
Φ	-4776
Χ	-4777
Ψ	-4778
ω	-4779
ό	-4780
Б	-4781
Д	-4782
П	-4783
Ы	-4784
Я	-4785
г	-4786
ж	-4787
к	-4788
л	-4789
ш	-4790
ы	-4791
Ҫ	-4792
Ӑ	-4793
Ӗ	-4794
ӝ	-4795
Ӳ	-4796
Ե	-4797
Խ	-4798
Յ	-4799
Ս	-4800
ֺ	-4801
ׅ	-4802
ױ	-4803
آ	-4804
ئ	-4805
ث	-4806
ص	-4807
ف	-4808
ى	-4809
١	-4810
٢	-4811
٨	-4812
٩	-4813
ٰ	-4814
ٹ	-4815
چ	-4816
ھ	-4817
ߟ	-4818
ߡ	-4819
ं	-4820
औ	-4821
ग	-4822
त	-4823
द	-4824
न	-4825
ब	-4826
ि	-4827
ी	-4828
े	-4829
्	-4830
ં	-4831
ગ	-4832
બ	-4833
લ	-4834
ો	-4835
༓	-4836
ខ	-4837
ភ	-4838
ម	-4839
រ	-4840
ស	-4841
ែ	-4842
្	-4843
ṅ	-4844
ạ	-4845
ả	-4846
ἀ	-4847
ὥ	-4848
ῦ	-4849
‮	-4850
⁨	-4851
⁩	-4852
₹	-4853
⇒	-4854
∀	-4855
∂	-4856
∆	-4857
∞	-4858
≪	-4859
≿	-4860
⋯	-4861
─	-4862
▸	-4863
▾	-4864
◻	-4865
◼	-4866
☚	-4867
☝	-4868
♔	-4869
♣	-4870
✌	-4871
✯	-4872
❁	-4873
❓	-4874
❤	-4875
❷	-4876
❼	-4877
❾	-4878
➝	-4879
⟨	-4880
⟵	-4881
⭐	-4882
ア	-4883
ギ	-4884
コ	-4885
シ	-4886
ス	-4887
ド	-4888
ュ	-4889
㪗	-4890
三	-4891
东	-4892
主	-4893
九	-4894
京	-4895
介	-4896
以	-4897
会	-4898
元	-4899
列	-4900
反	-4901
古	-4902
名	-4903
士	-4904
大	-4905
学	-4906
川	-4907
工	-4908
幕	-4909
广	-4910
府	-4911
式	-4912
徳	-4913
慢	-4914
拾	-4915
旦	-4916
本	-4917
来	-4918
株	-4919
民	-4920
浪	-4921
海	-4922
点	-4923
理	-4924
疽	-4925
社	-4926
穂	-4927
空	-4928
章	-4929
第	-4930
简	-4931
算	-4932
絵	-4933
義	-4934
聲	-4935
航	-4936
色	-4937
茶	-4938
蒙	-4939
術	-4940
襲	-4941
詞	-4942
赤	-4943
逆	-4944
道	-4945
都	-4946
鈴	-4947
院	-4948
髓	-4949
黒	-4950
랙	-4951
블	-4952
엠	-4953
	-4954
	-4955
	-4956
	-4957
	-4958
	-4959
	-4960
	-4961
	-4962
	-4963
﴾	-4964
﴿	-4965
🇸	-4966
🇾	-4967
🌈	-4968
🌎	-4969
🍻	-4970
🎉	-4971
🎶	-4972
🏽	-4973
🐔	-4974
👉	-4975
💉	-4976
💔	-4977
💖	-4978
💜	-4979
💫	-4980
📁	-4981
😄	-4982
😅	-4983
😆	-4984
😈	-4985
😏	-4986
😐	-4987
😒	-4988
😜	-4989
😦	-4990
🙌	-4991
🚖	-4992
🚘	-4993
🤨	-4994
🦁	-4995
🧼	-4996
