<unk>	0
<s>	0
</s>	0
▁ה	-3.00638
▁.	-3.3501
▁,	-3.6562
▁ב	-3.86852
▁ל	-3.94109
▁ים	-4.02742
▁מ	-4.03405
▁ו	-4.0466
▁ת	-4.12455
▁ות	-4.38954
▁י	-4.48802
י	-4.49503
▁"	-4.50334
▁ש	-4.50563
▁של	-4.58979
▁את	-4.60644
ו	-4.75501
ת	-4.9755
▁לא	-5.02227
▁על	-5.06359
▁א	-5.12466
▁נ	-5.20632
נ	-5.24127
▁-	-5.25732
▁	-5.37833
▁0	-5.49952
▁?	-5.51986
▁זה	-5.54163
▁1	-5.56294
▁פ	-5.58452
▁הוא	-5.59283
מ	-5.59892
▁כ	-5.62885
▁מה	-5.70724
▁או	-5.72017
▁ע	-5.72061
▁:	-5.78853
▁ח	-5.83036
▁ק	-5.84437
▁המ	-5.86342
▁כל	-5.87146
ה	-5.88237
▁עם	-5.88321
▁2	-5.89608
▁ס	-5.90675
▁(	-5.97707
ר	-5.98962
▁'	-5.99421
▁אני	-5.99911
▁ג	-6.01817
▁)	-6.02987
▁ר	-6.03982
▁ן	-6.07735
▁יותר	-6.1152
▁ם	-6.11728
ל	-6.13198
▁היא	-6.13431
▁לה	-6.14408
▁יש	-6.21192
▁ד	-6.23498
▁גם	-6.24261
ים	-6.24443
▁כי	-6.2677
▁9	-6.27888
▁היה	-6.31416
▁הם	-6.33563
▁אם	-6.36471
▁וה	-6.47829
▁אבל	-6.50175
.	-6.50386
▁ט	-6.52078
,	-6.527
ש	-6.5332
▁נו	-6.54764
▁הא	-6.56706
▁צ	-6.56969
▁לי	-6.62403
▁–	-6.62562
▁אחד	-6.63512
▁כדי	-6.63701
▁3	-6.63862
▁תי	-6.65157
▁רק	-6.65498
▁אתה	-6.65583
▁הפ	-6.66858
▁5	-6.67001
▁להיות	-6.67679
▁אל	-6.69223
ב	-6.73636
▁כך	-6.75959
ם	-6.7618
▁4	-6.78274
▁אנחנו	-6.81002
▁8	-6.8216
▁!	-6.83618
▁יכול	-6.84176
▁שה	-6.85538
▁כמו	-6.85594
ס	-6.86485
▁אנשים	-6.86779
▁ישראל	-6.88042
▁עד	-6.88448
ק	-6.88543
▁הת	-6.88829
▁וב	-6.92846
▁7	-6.93102
▁ז	-6.93531
▁6	-6.93593
▁מי	-6.94096
ט	-6.94098
▁זו	-6.95573
▁שלך	-6.98439
▁ביותר	-6.98618
▁אי	-6.98871
▁זאת	-7.00067
▁במ	-7.03506
▁הב	-7.04287
▁מו	-7.0481
כ	-7.04916
▁ידי	-7.05415
▁האם	-7.05543
ד	-7.06211
▁זמן	-7.0647
▁ול	-7.07482
▁כמה	-7.07746
▁ני	-7.08443
a	-7.09227
▁אותו	-7.09644
▁כש	-7.11051
א	-7.11985
▁בין	-7.12431
ות	-7.12825
i	-7.13606
ע	-7.13818
▁הש	-7.14537
▁ך	-7.15047
▁אין	-7.1529
▁עבור	-7.15463
▁לו	-7.17379
▁בא	-7.18266
▁ומ	-7.18285
▁שלנו	-7.1848
▁היו	-7.18697
▁למ	-7.20886
▁s	-7.21272
▁בכל	-7.21373
▁מת	-7.22328
פ	-7.22344
▁הזה	-7.2272
▁הק	-7.24042
▁מאוד	-7.24208
פי	-7.25067
ח	-7.25288
▁אז	-7.25755
▁עוד	-7.26396
▁הנ	-7.26405
▁צריך	-7.26997
▁רוב	-7.27468
▁שלי	-7.2935
▁כבר	-7.29697
▁הע	-7.30048
▁שי	-7.30294
▁לך	-7.31701
▁לפני	-7.32246
▁פי	-7.32831
▁לאחר	-7.33158
▁הח	-7.33273
▁הג	-7.3404
▁בה	-7.34667
▁דבר	-7.34793
▁איך	-7.36304
▁הרבה	-7.36683
▁הס	-7.3669
▁לעשות	-7.3693
ן	-7.37089
▁אך	-7.3759
e	-7.38017
▁”	-7.38492
▁אנו	-7.40276
▁דברים	-7.41536
▁עולם	-7.41614
▁טוב	-7.42045
▁אמר	-7.42513
▁שהוא	-7.43044
▁אשר	-7.44162
u	-7.44421
▁כאשר	-7.44444
▁אלה	-7.46959
▁אתם	-7.47108
▁לנו	-7.47418
▁אדם	-7.47524
▁שלו	-7.47592
▁ראשו	-7.48339
o	-7.49464
▁[	-7.49497
▁שם	-7.49531
▁אחת	-7.49814
▁שנ	-7.49868
▁די	-7.51084
▁לב	-7.51102
▁רוצה	-7.5111
▁ספר	-7.51333
▁יום	-7.51568
▁שלהם	-7.51617
▁היום	-7.52828
▁אחרים	-7.53082
▁עבודה	-7.53235
▁באופן	-7.53524
▁הר	-7.53577
▁לש	-7.5369
▁בו	-7.53984
▁S	-7.54444
▁ילדים	-7.56107
▁הכ	-7.56789
▁לח	-7.56795
▁שמ	-7.57069
y	-7.57383
▁מספר	-7.57434
▁מא	-7.58046
▁חלק	-7.58059
▁אחר	-7.58192
s	-7.58344
▁שנים	-7.58489
▁]	-7.591
▁אפשר	-7.5944
▁שנה	-7.59567
t	-7.59901
▁שלא	-7.60313
▁שני	-7.60532
▁מר	-7.61054
n	-7.6144
▁סי	-7.61449
▁כן	-7.62516
▁הצ	-7.62916
▁כאן	-7.62963
▁;	-7.63129
▁ין	-7.63197
▁תמיד	-7.63218
ג	-7.64459
▁בני	-7.64744
▁הייתה	-7.64794
▁בר	-7.65318
▁A	-7.65814
-	-7.66667
▁בית	-7.6671
▁כולים	-7.67056
▁מדינה	-7.67332
יפ	-7.68077
▁אותם	-7.68255
▁הה	-7.70244
▁“	-7.70705
▁אחרי	-7.70717
▁ולא	-7.71422
d	-7.71757
▁יו	-7.72457
▁פעם	-7.7253
▁רבים	-7.72728
▁להם	-7.73844
▁er	-7.73915
▁לע	-7.74733
▁יהיה	-7.75112
▁משהו	-7.7534
▁נים	-7.76157
▁גדול	-7.76444
▁/	-7.76637
▁ניתן	-7.77507
▁ראשון	-7.77897
▁אותה	-7.79308
▁בת	-7.79935
▁עכשיו	-7.80068
▁למה	-7.80133
▁שאני	-7.80825
▁אולי	-7.81268
▁בשנת	-7.81633
לא	-7.81657
▁עדיין	-7.81734
▁חשוב	-7.81799
▁שלכם	-7.82106
▁חי	-7.82509
▁אף	-7.82694
▁מס	-7.84754
▁לכל	-7.84771
▁שהם	-7.85406
▁אפילו	-7.86006
▁שלה	-7.86032
▁ף	-7.86402
▁פר	-7.86407
▁להי	-7.87039
▁דרך	-7.87196
ף	-7.87671
▁מן	-7.87763
ונ	-7.87919
c	-7.8874
▁אומר	-7.88845
▁יי	-7.88892
▁בעולם	-7.89021
▁שיש	-7.89173
▁מש	-7.91098
▁לפ	-7.91317
▁ללא	-7.91471
משך	-7.91541
▁להת	-7.91664
▁שימוש	-7.91754
▁אלא	-7.91831
▁C	-7.92018
אמצע	-7.92327
▁פשוט	-7.9237
▁מיוחד	-7.92504
p	-7.92705
▁באמת	-7.93968
▁הן	-7.94042
ּ	-7.95557
▁G	-7.96174
▁יה	-7.96409
▁לראות	-7.96919
m	-7.96962
▁מערכת	-7.97355
▁מע	-7.97455
▁ויות	-7.97641
▁לוהים	-7.98044
יסט	-7.98069
▁טי	-7.98515
▁ואת	-7.98866
▁האדם	-7.98976
▁לכם	-7.99228
▁...	-7.99344
r	-7.99399
▁רי	-7.99846
ְ	-8.00132
▁הייתי	-8.00745
▁קשה	-8.01313
▁החיים	-8.01646
▁במהלך	-8.0271
▁חיים	-8.02942
▁ץ	-8.03177
▁מדי	-8.03255
▁כם	-8.03488
▁שום	-8.0359
▁רוצים	-8.0369
▁שב	-8.0518
▁בדרך	-8.05572
▁שוב	-8.05772
▁נשים	-8.06309
▁צריכ	-8.06801
▁וח	-8.07202
▁הכל	-8.07248
▁לס	-8.07562
▁בבית	-8.07767
▁יודע	-8.07836
▁שאתה	-8.0811
▁לצ	-8.08521
▁שינוי	-8.08565
▁אותי	-8.08625
▁E	-8.08662
▁הל	-8.08686
▁טיפול	-8.09326
▁וס	-8.09363
▁נראה	-8.09465
רים	-8.09989
▁מקום	-8.10072
"	-8.1011
▁ָ	-8.10134
▁שמעות	-8.10203
▁סיפור	-8.10847
▁חדש	-8.10984
▁וי	-8.11153
▁חושב	-8.11287
▁וא	-8.11364
▁ממ	-8.11402
▁דינות	-8.11525
▁פעמים	-8.11962
▁לאומי	-8.12059
▁היתה	-8.12257
▁B	-8.12769
▁האי	-8.12868
▁אלו	-8.12964
▁הד	-8.1353
▁חייב	-8.14097
▁עניין	-8.14136
▁ציה	-8.14535
▁I	-8.14756
▁שתי	-8.14773
▁שזה	-8.1529
▁%	-8.1552
▁יד	-8.15883
▁אחרונ	-8.16094
▁נות	-8.1651
▁אינו	-8.16603
▁מפ	-8.17281
▁נגד	-8.17598
▁כיצד	-8.1783
:	-8.18062
▁מצ	-8.18208
מנ	-8.18232
▁מידע	-8.19123
'	-8.19209
▁שבו	-8.1933
▁קרא	-8.19376
▁כוח	-8.20136
▁ברית	-8.20583
▁יהודי	-8.20871
▁פחות	-8.20931
▁שת	-8.21179
▁אס	-8.21744
▁לפי	-8.21783
▁קו	-8.21956
▁לקבל	-8.22017
ַ	-8.2216
▁רב	-8.22378
▁בל	-8.22393
▁כמעט	-8.22465
▁בק	-8.22565
▁קל	-8.22584
▁P	-8.22912
▁רע	-8.22934
▁הט	-8.23013
▁מק	-8.23096
▁כולם	-8.23113
▁שהיא	-8.23486
C	-8.23885
▁קשר	-8.24121
▁עילות	-8.24349
▁עצמי	-8.2438
▁F	-8.24397
▁e	-8.2451
▁כולל	-8.24555
▁ולר	-8.2491
▁במקום	-8.25062
▁סט	-8.25138
▁קר	-8.25774
g	-8.25961
▁ארץ	-8.26059
▁בג	-8.26266
▁יכולה	-8.26553
▁הכי	-8.26652
▁הדבר	-8.26825
▁השתמש	-8.26846
▁הגדול	-8.26965
▁מאז	-8.27362
▁שירות	-8.27846
▁נטרנט	-8.28079
▁החברה	-8.28082
▁שלוש	-8.28356
יצ	-8.28445
▁עצמו	-8.28456
▁בעלי	-8.28476
▁ילד	-8.28515
▁ִ	-8.28592
ומ	-8.28793
ך	-8.29144
▁מח	-8.29286
▁כתב	-8.29769
h	-8.29792
▁בן	-8.3028
▁לת	-8.30377
ז	-8.30855
▁שונים	-8.31085
▁אוהב	-8.31202
▁לק	-8.31318
▁באו	-8.31352
▁ממש	-8.31561
▁T	-8.31635
▁ונ	-8.31822
▁מישהו	-8.31845
w	-8.32267
▁האלה	-8.32712
▁גדולה	-8.33004
▁בלתי	-8.33203
סטינ	-8.3326
▁שא	-8.33584
▁איז	-8.33657
I	-8.33706
▁עושה	-8.33841
▁רבות	-8.34084
▁הז	-8.34255
▁בשביל	-8.34486
▁כלל	-8.34689
▁תפקיד	-8.34875
▁בב	-8.35184
▁רד	-8.35471
▁ודעים	-8.35548
מי	-8.3555
מפ	-8.35614
▁ריאות	-8.36113
▁יכולת	-8.36429
▁בנ	-8.3686
▁לכ	-8.36913
?	-8.37266
▁הודים	-8.37458
▁ימים	-8.37705
▁למרות	-8.37731
▁יליון	-8.3782
▁נכון	-8.38312
▁יל	-8.38489
▁ארצות	-8.38807
▁תם	-8.38865
▁תהיה	-8.389
רצ	-8.38997
▁טר	-8.39178
▁בתוך	-8.39304
▁H	-8.39336
▁מכל	-8.39523
▁סוף	-8.39693
▁בגלל	-8.39757
▁מים	-8.39915
▁ממשלה	-8.40184
▁מהם	-8.40354
אז	-8.4052
▁לוגי	-8.40908
▁פה	-8.40938
▁בלי	-8.4134
v	-8.41584
זה	-8.41644
▁גיל	-8.41996
▁a	-8.42011
▁לכן	-8.42244
▁ראה	-8.42281
מה	-8.42335
▁מגיע	-8.42478
▁לנ	-8.42649
▁בינ	-8.427
יש	-8.42794
▁תה	-8.43031
▁לדעת	-8.43191
בר	-8.43258
▁מלא	-8.43409
נות	-8.43467
▁שעות	-8.43543
▁זכו	-8.43757
▁מלחמה	-8.43791
▁ראש	-8.44175
▁יחד	-8.44186
▁וכנית	-8.44223
▁למד	-8.44561
▁למצוא	-8.44651
▁לל	-8.44698
▁נמצא	-8.4479
▁בדיוק	-8.44938
▁W	-8.45022
▁חברות	-8.45037
▁מג	-8.45271
▁לדבר	-8.45354
▁ביום	-8.45398
▁ערך	-8.4541
▁העיר	-8.45523
▁בזמן	-8.45611
וא	-8.45849
▁חו	-8.45858
▁אותך	-8.45874
▁מתוך	-8.4596
▁לגבי	-8.46046
▁פעולה	-8.4619
▁אירוע	-8.4624
▁ריקאי	-8.46337
D	-8.46587
▁כזה	-8.46873
▁בי	-8.47029
▁דו	-8.47101
▁ית	-8.47239
)	-8.47291
▁כיוון	-8.47411
▁קי	-8.47529
▁חזק	-8.47652
▁רחב	-8.47832
▁משרד	-8.48061
E	-8.48063
l	-8.48133
▁אחרת	-8.48258
T	-8.49052
▁הבית	-8.49455
ניב	-8.49539
▁ובדים	-8.49622
▁תהליך	-8.49646
▁מנ	-8.49677
▁השני	-8.50513
▁וגם	-8.50537
▁הזד	-8.50558
▁ואני	-8.51224
▁’	-8.51366
▁קצת	-8.51508
▁תוך	-8.51513
▁האמ	-8.5187
▁תו	-8.52085
▁הזו	-8.52248
▁N	-8.52431
▁רמ	-8.52458
▁השנה	-8.52477
▁כסף	-8.52561
▁לכך	-8.52684
▁המו	-8.52899
▁מעט	-8.52982
▁בעל	-8.52987
▁מדובר	-8.5312
▁יין	-8.53491
▁מספיק	-8.53537
ֶ	-8.53641
▁הזאת	-8.53703
▁מדוע	-8.53851
ילו	-8.53919
▁לפחות	-8.53965
▁רס	-8.54004
ומד	-8.54116
▁תונים	-8.54139
▁ארגון	-8.54323
▁חברתי	-8.54602
st	-8.54669
▁The	-8.5485
▁כיום	-8.54913
▁והוא	-8.54923
▁הדרך	-8.55172
צורה	-8.55289
▁ידע	-8.55337
▁וצרים	-8.55344
▁טובה	-8.55492
▁וריה	-8.55545
▁קודם	-8.55774
▁חוק	-8.5578
▁וצאות	-8.55807
▁D	-8.55834
▁אולם	-8.5589
▁עליו	-8.55946
▁איש	-8.56008
וצ	-8.56455
P	-8.56481
▁בכ	-8.56895
▁עור	-8.57071
▁האו	-8.57178
▁וזה	-8.57303
▁פא	-8.5734
▁O	-8.57746
▁תקופה	-8.57911
▁אוכל	-8.58102
▁בהם	-8.58161
־	-8.5824
▁מעל	-8.58272
▁אחרות	-8.58416
▁ור	-8.58683
▁משחק	-8.58755
▁תק	-8.58821
▁סוג	-8.58956
▁בעיות	-8.59009
▁קבוצה	-8.59064
▁ארה	-8.59495
▁פור	-8.59519
▁ירוש	-8.59601
▁יק	-8.59781
▁יט	-8.60066
▁נג	-8.60091
▁חש	-8.60274
▁כמובן	-8.60397
▁רגע	-8.60446
▁ידוע	-8.60479
re	-8.60495
ינ	-8.60628
▁יצ	-8.60695
▁משתמש	-8.61014
▁i	-8.61125
▁יניים	-8.61185
▁מאשר	-8.61296
▁עובד	-8.61302
al	-8.61323
▁סביב	-8.61782
▁עתיד	-8.61821
▁להבין	-8.6192
▁M	-8.6192
צר	-8.62111
▁דר	-8.62294
S	-8.62332
b	-8.62473
▁להגיע	-8.62602
▁ינ	-8.62993
▁עושים	-8.63063
▁מכ	-8.63076
▁שאל	-8.63221
▁רצו	-8.63368
וב	-8.63417
▁לעולם	-8.6352
▁שלושה	-8.63625
▁אמיתי	-8.63753
▁מנת	-8.64038
▁עיר	-8.6423
נה	-8.64319
▁אלי	-8.64599
▁בעיקר	-8.6466
▁אינם	-8.64746
▁מדיני	-8.6475
▁אמ	-8.64765
▁סוגל	-8.64794
בע	-8.6513
O	-8.65388
▁ברור	-8.65512
▁תלמיד	-8.65678
▁מחקר	-8.65695
▁תוצאה	-8.65973
▁בלבד	-8.66028
▁אותנו	-8.66452
▁טובים	-8.66707
k	-8.66894
▁פני	-8.67183
▁ומרים	-8.67183
▁בעוד	-8.67227
▁מב	-8.67593
▁אג	-8.67594
▁ון	-8.6761
▁למעשה	-8.67702
עד	-8.67749
▁עי	-8.67927
▁קיים	-8.68097
▁חברת	-8.68141
▁מד	-8.68436
▁ספק	-8.68453
▁פרס	-8.68456
▁ירופה	-8.68488
▁בכך	-8.68578
ra	-8.68668
נוסף	-8.68693
נא	-8.68834
▁לתת	-8.68841
דר	-8.6887
▁וליטי	-8.69221
▁שאתם	-8.69476
▁מעבר	-8.6951
▁אצל	-8.69521
▁תמודד	-8.69584
▁קט	-8.69647
ניינ	-8.6965
▁אנ	-8.69691
▁וף	-8.69753
▁נס	-8.69779
▁שאלה	-8.69819
כל	-8.69819
יכ	-8.7045
▁עשו	-8.70502
▁קטן	-8.70694
▁יהיו	-8.70715
▁אינה	-8.70717
▁מול	-8.70717
▁פרק	-8.7081
ופ	-8.70899
▁חסר	-8.71009
▁כנ	-8.71108
מצ	-8.71134
▁פחד	-8.71175
פר	-8.71219
▁נח	-8.71249
▁חברים	-8.71356
▁קורה	-8.71466
▁ללמוד	-8.71503
▁מתחיל	-8.71567
▁מצב	-8.7187
▁ציבור	-8.72193
▁התחיל	-8.72256
▁טכנ	-8.72358
er	-8.72425
▁ממשל	-8.72732
▁קרה	-8.7277
יג	-8.72901
▁מכן	-8.73016
▁קס	-8.7303
▁לקחת	-8.73339
▁אחרון	-8.73397
שם	-8.73613
▁בכלל	-8.7382
▁זהו	-8.73963
▁באי	-8.74192
▁משפט	-8.74284
▁שונות	-8.7437
▁מקור	-8.74379
▁מרגיש	-8.74419
▁יהם	-8.74621
▁תינוק	-8.74741
▁אות	-8.7477
▁עלה	-8.75146
▁גברים	-8.75279
▁מצא	-8.75326
▁וצר	-8.75389
▁מחיר	-8.75425
▁חירות	-8.75521
▁הרי	-8.75611
▁הגיע	-8.75635
▁״	-8.75667
▁ומה	-8.75901
▁יטחון	-8.7604
▁וכ	-8.76067
▁הללו	-8.76111
▁מז	-8.76165
▁כה	-8.76252
▁לימוד	-8.76368
▁מילים	-8.76371
▁מטר	-8.76396
▁נט	-8.76489
▁אש	-8.76558
M	-8.7684
▁הנה	-8.76875
▁יתר	-8.76955
▁תייחס	-8.77159
▁קורא	-8.77183
▁עסק	-8.77207
▁רא	-8.77269
▁עשה	-8.77275
ץ	-8.77309
A	-8.77515
▁לעזור	-8.77821
▁ירות	-8.77862
▁10	-8.77935
▁סיבות	-8.77955
▁מקומי	-8.78107
▁לוגיה	-8.78489
▁כפ	-8.78555
▁ערכו	-8.78598
▁צריכה	-8.78651
▁עשר	-8.78796
כדור	-8.78995
▁אט	-8.79087
▁נוסף	-8.79286
אה	-8.79315
▁החדש	-8.7936
▁נרגיה	-8.79364
▁ינג	-8.79508
▁חודש	-8.79552
▁ציאות	-8.79635
▁איכות	-8.79729
▁רואה	-8.79909
▁כאב	-8.80044
1	-8.80093
▁משפחה	-8.8011
▁שנייה	-8.80189
▁לומר	-8.80192
▁חדשות	-8.8028
▁of	-8.80306
▁החוק	-8.80319
R	-8.80345
▁חצי	-8.80424
▁לעבוד	-8.8052
▁טבעי	-8.80751
▁ורי	-8.80844
▁ועל	-8.81013
▁ליצור	-8.81068
עת	-8.81238
▁שבה	-8.81318
▁רויקט	-8.81852
▁דקות	-8.81946
▁אחוז	-8.82036
▁אור	-8.82058
▁חינוך	-8.82105
▁קיבל	-8.82302
▁ing	-8.82312
▁הבא	-8.82333
▁קומות	-8.8236
▁עבד	-8.82415
▁אר	-8.82425
▁כעת	-8.82552
▁עיקרי	-8.82665
2	-8.8286
▁קול	-8.82953
▁סל	-8.82954
▁מזון	-8.8303
▁מתי	-8.83171
▁דמ	-8.8343
▁עבוד	-8.8344
▁עשוי	-8.83495
▁זי	-8.83526
▁כלי	-8.83562
▁פיתוח	-8.83645
▁פשרות	-8.8369
▁קשורת	-8.83708
▁דומה	-8.84046
זו	-8.84082
▁רט	-8.84345
אף	-8.84398
▁וז	-8.84597
▁בטוח	-8.8472
▁כוחות	-8.8473
▁רגיל	-8.8474
▁הירות	-8.84763
▁מרכזי	-8.84864
▁קצר	-8.84895
▁רבה	-8.85086
▁חברה	-8.85169
▁זר	-8.85398
ֵ	-8.85496
▁יח	-8.85502
▁יפ	-8.85506
▁ימי	-8.85722
ורי	-8.85728
אג	-8.85829
▁עסקים	-8.85843
▁השנים	-8.85883
▁תחת	-8.85936
▁ולה	-8.86187
▁לעתים	-8.86226
▁f	-8.86408
▁מוות	-8.86473
▁למשל	-8.86582
▁תמונה	-8.86585
▁חופש	-8.86718
▁ניהול	-8.86726
▁להש	-8.8679
וג	-8.86817
▁o	-8.86927
▁שלום	-8.86974
▁שש	-8.87129
בינ	-8.87151
▁מחדש	-8.87163
▁יון	-8.8718
▁נשאר	-8.87227
▁גר	-8.87419
▁אהבה	-8.87435
▁אפשרי	-8.87448
▁הגוף	-8.87457
▁חדר	-8.8746
▁חשבון	-8.87501
▁אינט	-8.87571
▁מקרים	-8.87621
▁ביע	-8.87691
▁in	-8.87701
▁גבוה	-8.87844
▁אנשי	-8.87857
▁איפה	-8.87906
▁עצמם	-8.8802
▁תשובה	-8.88046
▁כלכלי	-8.88048
▁לוח	-8.88232
▁שונה	-8.88299
▁כאלה	-8.88324
▁התפתח	-8.88483
▁יף	-8.88913
▁עבר	-8.88997
▁לבית	-8.89038
▁גבוהה	-8.89136
▁ארבע	-8.892
▁אוויר	-8.89456
▁צורך	-8.89465
▁מחשב	-8.89474
▁ירה	-8.89642
▁האמת	-8.89672
▁בשל	-8.89684
▁שאלות	-8.89699
▁סו	-8.8982
▁צוות	-8.89826
▁אופ	-8.90291
▁ספרים	-8.90427
▁גישה	-8.90525
z	-8.90582
▁יבי	-8.90677
▁מצאים	-8.90733
▁רוח	-8.90812
▁מדבר	-8.90818
▁אמנות	-8.90845
▁מכיר	-8.90853
▁טרי	-8.90881
▁מנהל	-8.90967
▁אן	-8.91208
▁פוט	-8.91246
▁רווח	-8.91419
▁ינו	-8.91422
▁גדל	-8.91518
קפ	-8.91527
▁לט	-8.91529
▁לנד	-8.91621
▁חדשים	-8.91704
▁המשיך	-8.91723
▁שטח	-8.91775
▁וד	-8.91849
▁אזור	-8.91861
▁מעולם	-8.92029
▁עולמי	-8.92045
▁בתחום	-8.92336
▁וספים	-8.92414
▁שמח	-8.92427
▁חומר	-8.92473
▁מנהיג	-8.92568
▁הורים	-8.92576
▁שפה	-8.92603
▁נק	-8.92651
▁דרכים	-8.9279
▁דוד	-8.92867
▁ער	-8.92877
▁ללכת	-8.92964
תכן	-8.92991
▁ככל	-8.93025
רפ	-8.9305
▁הפך	-8.93121
אותו	-8.93138
▁כולנו	-8.93189
וגע	-8.93275
לך	-8.93315
▁מין	-8.93332
▁נושא	-8.93343
▁נא	-8.93386
ri	-8.93395
▁בתי	-8.93576
▁ריק	-8.93626
▁תרבות	-8.93732
▁ודשים	-8.93738
▁שאין	-8.93792
▁טו	-8.93891
6	-8.93948
▁סדר	-8.9395
in	-8.94034
▁לשמור	-8.94098
▁c	-8.94218
▁ליד	-8.94312
▁שרת	-8.94434
7	-8.94451
▁טיבי	-8.94477
▁יפה	-8.94522
▁on	-8.94731
▁יקר	-8.94831
▁כגון	-8.94909
▁משום	-8.94967
▁נכנס	-8.9523
▁אליו	-8.95389
▁נקרא	-8.95543
▁עולה	-8.95602
▁מיד	-8.95602
▁מט	-8.95647
▁יז	-8.95647
▁יסיון	-8.95702
and	-8.95851
▁יבורי	-8.95964
▁נשיא	-8.96101
▁ראי	-8.96261
▁לחץ	-8.96324
▁צפון	-8.96381
▁וני	-8.96466
▁re	-8.96566
▁מדינת	-8.96671
▁בנים	-8.96734
▁תחילה	-8.96777
▁גז	-8.96791
▁חופשי	-8.96831
▁חבר	-8.96839
▁ברחבי	-8.96902
▁באתר	-8.96916
▁קצועי	-8.97041
▁נד	-8.97058
▁להפוך	-8.97225
▁מאוחר	-8.97486
▁ורג	-8.97672
▁שתמש	-8.97675
ur	-8.97683
▁אמא	-8.97836
3	-8.9788
▁סרט	-8.98003
L	-8.98075
או	-8.9812
▁ורד	-8.9814
an	-8.98145
וח	-8.98156
▁יס	-8.98242
▁K	-8.98298
▁לאורך	-8.98376
▁t	-8.98376
▁תרופ	-8.98433
▁ביל	-8.98443
▁ארוכ	-8.98536
▁שכל	-8.98539
מור	-8.9858
▁דח	-8.98756
▁חוץ	-8.98802
▁האל	-8.98823
▁the	-8.98855
▁הצלחה	-8.98892
▁ממנו	-8.98901
▁שמע	-8.98944
B	-8.99005
▁כנראה	-8.99019
▁אמנ	-8.99266
▁שעה	-8.99364
▁מונות	-8.99455
▁יצא	-8.99467
ירופ	-8.99586
▁רגל	-8.99607
la	-8.99806
▁בקרב	-8.99822
▁בשנה	-8.99864
▁חזר	-8.99898
▁עקב	-8.99934
▁רכב	-8.9999
5	-8.99993
▁שלישי	-9.00208
▁סכ	-9.0026
▁אחורי	-9.00273
▁דמי	-9.00334
▁טל	-9.00366
▁הטוב	-9.0045
▁פתרון	-9.0054
▁צבע	-9.00571
▁יחסי	-9.00708
▁בעיה	-9.00764
▁רעיון	-9.009
▁אק	-9.0101
▁קוד	-9.01039
▁נדרש	-9.01078
▁טלו	-9.01121
▁אמרה	-9.01182
▁לג	-9.01315
▁מבוס	-9.01345
▁טודנט	-9.01349
▁לקרוא	-9.01349
▁רפואי	-9.0135
▁וקרטי	-9.0135
▁R	-9.01388
▁הולך	-9.01395
▁להשיג	-9.01453
סופו	-9.01474
▁עובדה	-9.01508
▁לד	-9.01574
פני	-9.01599
▁שפ	-9.01713
▁וֹ	-9.01747
▁חדשה	-9.01778
▁החלטה	-9.01788
▁הגנה	-9.01799
4	-9.01842
▁ורות	-9.01851
▁שלב	-9.0186
▁רוץ	-9.01943
▁גב	-9.02
▁דור	-9.02185
▁תודה	-9.02196
▁ביצוע	-9.0228
▁החל	-9.02294
▁חמש	-9.02376
▁שר	-9.02478
▁ולט	-9.02563
▁תמיכה	-9.02676
▁תחילת	-9.02842
▁חריות	-9.02877
▁עונה	-9.02902
▁לקח	-9.02946
▁מורה	-9.0296
▁לחלו	-9.03144
▁שח	-9.03218
▁חוסר	-9.03263
▁צעד	-9.03511
▁w	-9.03648
▁בסוף	-9.0365
▁יצוני	-9.0366
▁עלינו	-9.03663
▁הילד	-9.03683
▁שנת	-9.03712
▁היינו	-9.03739
▁חק	-9.03855
▁בעבר	-9.03926
▁יורק	-9.03977
▁L	-9.03982
▁ולכן	-9.04068
▁המשחק	-9.0409
▁חיי	-9.04135
▁לשנות	-9.04141
▁כולות	-9.04151
▁זכר	-9.04223
▁במקרה	-9.04428
ch	-9.04461
▁צדק	-9.04467
▁מבט	-9.04496
▁לבצע	-9.04551
▁מאו	-9.0459
▁ינה	-9.04668
▁בחר	-9.04838
▁V	-9.04847
יד	-9.04963
▁פל	-9.0502
▁גו	-9.05049
▁מפני	-9.05313
אמינ	-9.05425
▁קשור	-9.05432
▁עצמך	-9.05488
▁U	-9.05664
▁הסכם	-9.05679
לצ	-9.05816
▁לזה	-9.05829
דיר	-9.05889
▁דוגמה	-9.05985
▁בנושא	-9.06003
▁לחיות	-9.06008
▁התא	-9.06148
▁רואים	-9.06181
▁תואר	-9.06365
▁התנהג	-9.06447
▁תכנית	-9.06537
▁ערכ	-9.06598
צי	-9.06619
▁בעת	-9.06668
▁וג	-9.06748
▁רג	-9.06768
▁רשת	-9.06829
▁לחשוב	-9.06887
▁טבע	-9.06904
▁כבוד	-9.06979
▁יץ	-9.06984
▁ורמים	-9.0699
8	-9.07012
▁מוצר	-9.07059
9	-9.0711
▁אב	-9.07154
▁קוחות	-9.07196
רוב	-9.07277
▁מזה	-9.07301
N	-9.07443
▁נוצר	-9.07484
▁נולד	-9.07517
▁דעת	-9.07524
▁הקו	-9.07557
▁אישה	-9.07713
▁שחור	-9.07786
▁עצמה	-9.0785
▁שרה	-9.07963
▁ווה	-9.08053
▁ייר	-9.08155
▁חוקי	-9.08171
▁מסע	-9.08272
▁מרכז	-9.08323
כה	-9.08334
▁נתיים	-9.08415
▁הסרט	-9.08416
▁צפוי	-9.08435
▁ואם	-9.08537
▁מתח	-9.08616
▁שווי	-9.08663
▁שהו	-9.08699
▁מקבל	-9.08709
▁מצד	-9.08805
▁פתוח	-9.08819
▁גורם	-9.08831
▁נוח	-9.08857
▁לבין	-9.08917
▁פנים	-9.08987
▁בחיים	-9.0899
▁נה	-9.09039
F	-9.0904
▁הרגיש	-9.09241
▁יג	-9.09263
▁במה	-9.09457
▁פו	-9.09506
▁סיבה	-9.09506
▁כלומר	-9.09507
▁טרור	-9.09508
▁כמות	-9.09549
▁מאפשר	-9.09596
▁בול	-9.09624
▁פס	-9.09639
▁מריקה	-9.09688
▁al	-9.09711
▁תוכל	-9.09808
▁זכות	-9.09955
▁ראוי	-9.09975
▁גל	-9.10186
▁ערב	-9.10206
ss	-9.1024
▁תוכלו	-9.10263
▁תקופ	-9.10282
▁p	-9.10336
▁עקבות	-9.10425
▁דין	-9.10436
כונ	-9.10528
▁ארוח	-9.10534
▁אבא	-9.10602
▁כאילו	-9.107
על	-9.10749
▁המצב	-9.10786
▁זקוק	-9.10792
▁דא	-9.10888
▁רצ	-9.10938
▁אפ	-9.1095
▁בוצות	-9.1098
▁קבל	-9.10991
▁נעשה	-9.1107
▁מטוס	-9.11071
▁בריא	-9.11077
▁קרב	-9.11148
סוימ	-9.11296
▁רצון	-9.11355
▁שאנו	-9.11359
אם	-9.11365
▁בסיס	-9.1152
▁מסר	-9.11525
▁מבקש	-9.11535
תע	-9.1156
▁השאלה	-9.11629
▁רכי	-9.11643
▁וכן	-9.11698
▁חכ	-9.11792
▁g	-9.11969
▁מהר	-9.11981
▁רצה	-9.12002
▁אנט	-9.1208
▁*	-9.12142
▁קונ	-9.12564
▁הצליח	-9.12566
ar	-9.12628
שפחת	-9.1275
▁עליהם	-9.12754
▁רמניה	-9.12755
▁המקום	-9.12755
▁הולכ	-9.12791
▁עיצוב	-9.12849
▁מור	-9.12959
▁שוק	-9.13031
▁חיפוש	-9.13133
▁מקרה	-9.1323
▁תע	-9.13242
▁אמרתי	-9.1327
▁המידע	-9.13515
▁ועד	-9.13527
▁מאד	-9.13542
▁חברי	-9.1356
▁איראן	-9.13608
▁טוע	-9.13618
לחמת	-9.13732
▁שיט	-9.13808
x	-9.13859
▁בוקר	-9.1423
▁ביקור	-9.14279
▁ספורט	-9.14306
אחר	-9.14392
▁השפעה	-9.14468
▁מציע	-9.14485
▁עצב	-9.14507
▁שמו	-9.14637
▁to	-9.1465
▁באזור	-9.14661
▁תקנ	-9.14709
תק	-9.14771
תקדמ	-9.14947
▁לוקח	-9.14954
▁נגלית	-9.14958
▁טיפ	-9.14966
▁אהוב	-9.15049
▁אתכם	-9.15055
▁ווי	-9.15095
▁המת	-9.15137
▁מטרה	-9.15164
▁פק	-9.15227
▁אמן	-9.15256
▁קח	-9.15276
▁מבין	-9.15354
▁כדאי	-9.15436
▁ודעות	-9.15594
▁צי	-9.15604
▁מדעי	-9.15738
il	-9.15883
▁ניו	-9.15896
▁טלפון	-9.16034
▁אותן	-9.16125
ירה	-9.16187
▁מוכר	-9.16216
▁מאמר	-9.16218
▁ורק	-9.16238
▁הפעם	-9.16278
▁וּ	-9.16306
▁לבד	-9.16313
▁ליפ	-9.16496
▁הכול	-9.165
▁הבעיה	-9.16505
▁r	-9.16569
▁והיא	-9.16617
▁Re	-9.16694
▁נשק	-9.16697
▁זיה	-9.1672
▁ערים	-9.16791
▁לחזור	-9.168
▁סוכ	-9.16801
▁אנושי	-9.16809
מען	-9.16843
▁גודל	-9.16898
▁ככה	-9.16995
▁לז	-9.17056
▁גן	-9.17095
▁עלול	-9.1711
▁הוסיף	-9.17193
▁גש	-9.17341
▁גופ	-9.17368
▁y	-9.17409
▁לגרום	-9.17438
▁חשבו	-9.17477
▁ודרני	-9.17493
▁כללי	-9.17497
▁עמוק	-9.17531
▁פנימי	-9.17536
▁עץ	-9.1758
גיל	-9.17608
▁סיכון	-9.17617
▁ורש	-9.17747
▁לון	-9.17748
▁יחידה	-9.1775
▁קהילה	-9.1775
▁רוסיה	-9.17771
נט	-9.17817
מד	-9.17947
▁צרפת	-9.18088
▁נוספת	-9.18091
▁שחקים	-9.18095
▁מל	-9.18259
▁ביק	-9.18358
▁צו	-9.18427
▁שכח	-9.18491
צט	-9.18574
▁ויזיה	-9.18585
▁זוהי	-9.18613
▁הקשר	-9.18687
▁ליל	-9.18764
▁שיעור	-9.18786
▁עמוד	-9.1882
▁גא	-9.18848
▁פתח	-9.18859
▁מחוץ	-9.18885
חק	-9.18909
▁ראו	-9.18972
▁רצח	-9.19062
▁מיני	-9.19228
▁לבחור	-9.19287
▁והמ	-9.19299
▁משקל	-9.19337
▁שאר	-9.19385
▁תלוי	-9.19391
▁מאות	-9.19429
▁גבר	-9.19429
▁עית	-9.1946
▁וש	-9.1952
▁מקו	-9.19587
▁רחוק	-9.19591
▁היחיד	-9.19691
▁שפחה	-9.19691
▁מגוון	-9.19776
▁ליארד	-9.19794
▁אומרת	-9.20011
▁בריט	-9.20019
▁מסגרת	-9.20097
▁תיק	-9.20135
▁ספי	-9.20263
▁והם	-9.20289
▁J	-9.20425
▁אכן	-9.20474
▁ne	-9.20543
▁הנשיא	-9.20606
▁משטרה	-9.2063
▁שבת	-9.20671
▁חשב	-9.20788
▁פסיכ	-9.20806
זכות	-9.20807
נס	-9.20813
▁מראה	-9.20894
▁סק	-9.20905
▁עירים	-9.20909
▁מפתח	-9.21054
אותה	-9.2117
▁סכו	-9.21261
▁נית	-9.21384
▁St	-9.21393
▁בהתאם	-9.21529
▁נוכחי	-9.21553
▁ירד	-9.21593
▁תגובה	-9.21598
▁נפ	-9.21683
▁העם	-9.21801
▁שיתוף	-9.21838
ro	-9.22035
▁קטנה	-9.22078
▁משך	-9.22093
▁כבד	-9.22153
▁מכשיר	-9.22163
סביר	-9.22199
▁ויש	-9.22214
en	-9.22335
▁ניתוח	-9.22371
▁דם	-9.22371
▁סין	-9.22416
▁ערה	-9.22438
us	-9.22454
f	-9.22458
▁ולל	-9.22522
▁המחקר	-9.22565
▁ונג	-9.22628
▁טווח	-9.22688
▁בנו	-9.22714
▁עמד	-9.22828
▁זוג	-9.22865
▁הסיבה	-9.22878
▁תנועה	-9.22931
ארה	-9.22983
▁זוכר	-9.2302
רב	-9.2304
▁רומ	-9.23159
▁ראיתי	-9.2322
מידה	-9.23243
▁עין	-9.23315
▁פטר	-9.23333
▁שבוע	-9.23416
▁קהיל	-9.23443
▁קא	-9.23546
▁שיר	-9.23578
▁רח	-9.23724
▁דוק	-9.2374
▁קד	-9.23764
▁זרחים	-9.23844
▁רסיטת	-9.23867
▁ייט	-9.23925
▁ודי	-9.23986
▁תש	-9.24036
▁ברגע	-9.24072
▁וט	-9.24211
▁ממוצע	-9.24351
▁לספק	-9.24375
▁שינה	-9.24408
▁סביבה	-9.24442
▁בסדר	-9.24465
▁כמ	-9.24647
▁בעיר	-9.24671
▁בהן	-9.24678
▁יטר	-9.24714
▁דל	-9.24736
▁תחרות	-9.24796
כן	-9.24832
▁תר	-9.24887
ומת	-9.24927
▁המש	-9.24934
▁שמות	-9.24964
יהם	-9.24968
▁יא	-9.24972
▁וכל	-9.24999
▁ולים	-9.25041
▁כונות	-9.25104
יז	-9.25158
▁וזיקה	-9.25202
▁אלף	-9.25484
▁גרם	-9.25485
▁מחלה	-9.25525
▁פרופ	-9.2555
▁טרטגי	-9.25845
▁נפש	-9.25895
▁קהל	-9.25914
▁למעלה	-9.25953
▁מנסה	-9.25959
ציג	-9.26174
▁מטרות	-9.26201
▁גוף	-9.26332
▁תנו	-9.26335
▁חיובי	-9.26386
▁לבן	-9.2646
עמד	-9.26474
▁מוביל	-9.26493
▁רוד	-9.26511
or	-9.26519
▁קבוע	-9.26601
rt	-9.267
▁בש	-9.26707
at	-9.26758
▁בואו	-9.26866
סד	-9.26913
▁אינ	-9.26929
▁גיד	-9.26952
רע	-9.27055
▁דג	-9.27098
▁פרטים	-9.27186
▁ועוד	-9.27249
▁תעופה	-9.27254
▁האתר	-9.27289
▁ייצור	-9.27363
▁לתוך	-9.27364
▁תח	-9.27368
ליק	-9.27418
▁הקרוב	-9.27458
▁יוצא	-9.27474
▁אמרו	-9.27505
▁חמד	-9.27542
▁ושל	-9.27546
מנוע	-9.27559
▁נז	-9.27587
▁לצאת	-9.27607
ck	-9.27646
▁ממה	-9.27684
▁עלות	-9.27724
on	-9.27787
▁מצרים	-9.27818
▁משמש	-9.27913
▁תקן	-9.28043
▁להביא	-9.28207
▁פועל	-9.28258
▁ישנם	-9.28259
▁en	-9.2828
▁קיץ	-9.28281
▁יב	-9.28281
▁דיווח	-9.28351
▁ישנ	-9.28374
▁קטנים	-9.28574
▁ארבעה	-9.28648
▁המאה	-9.28684
לכ	-9.28723
▁st	-9.28751
▁שאת	-9.28774
ולי	-9.28839
▁רוע	-9.28992
יט	-9.2905
▁עזרה	-9.29068
▁ריח	-9.29068
▁לילה	-9.29108
▁קודות	-9.29128
▁סיפ	-9.29133
▁שפט	-9.29148
ירו	-9.29163
▁עזר	-9.29216
▁לגמרי	-9.29237
▁תחנ	-9.29289
▁תא	-9.29417
▁כתוב	-9.29447
▁מוקד	-9.29581
▁זמין	-9.29743
▁ירי	-9.29747
▁עק	-9.29783
▁מלון	-9.29908
▁ושר	-9.29912
▁הלו	-9.29965
▁מצליח	-9.3002
▁קיר	-9.30048
וט	-9.3005
▁סופר	-9.30182
בל	-9.30222
רגונ	-9.30289
▁אזרחי	-9.30384
▁בארץ	-9.30469
▁שבע	-9.30521
קל	-9.30524
▁רל	-9.30677
▁צרפתי	-9.307
▁דנ	-9.30761
▁סיכוי	-9.30824
▁עשיר	-9.30839
li	-9.30851
תרחש	-9.3086
▁שט	-9.30941
רג	-9.30957
▁כור	-9.31117
▁מכר	-9.31223
G	-9.31252
es	-9.31305
▁דתי	-9.31312
▁צוי	-9.31377
▁סרטן	-9.3146
▁בטיח	-9.31476
▁בועות	-9.31567
▁שמש	-9.31587
▁לחם	-9.31601
▁שווה	-9.31605
▁שיח	-9.31649
▁רוחני	-9.31725
▁אסור	-9.31838
▁עליה	-9.31921
▁b	-9.31944
▁אישית	-9.31946
▁דרג	-9.31965
▁נש	-9.32026
le	-9.32045
מונ	-9.32059
▁20	-9.32097
▁עליך	-9.32099
▁איתנו	-9.32289
▁החדשה	-9.32297
וכני	-9.32308
▁חד	-9.32426
▁תב	-9.32456
▁שקט	-9.32506
▁תקשר	-9.32519
▁שמר	-9.32558
▁קור	-9.32604
▁מאבק	-9.32634
▁הופך	-9.3266
▁גידו	-9.32845
▁מתו	-9.32888
▁רגשות	-9.32945
H	-9.32977
▁וסף	-9.33001
▁כרטיס	-9.33095
▁גלה	-9.3311
▁בהחלט	-9.33211
▁זמי	-9.33254
▁עולות	-9.33469
▁בשר	-9.33559
ין	-9.33585
▁קבלת	-9.33725
▁הרכב	-9.33796
▁יהן	-9.33853
▁להגיד	-9.33912
▁מכיל	-9.33913
▁דורש	-9.33992
▁נן	-9.34089
th	-9.34101
▁מספק	-9.34136
▁דרוש	-9.34254
▁ונן	-9.3426
▁החליט	-9.34273
▁לשם	-9.34344
▁ענ	-9.34377
▁שליטה	-9.34387
ועצ	-9.34431
▁שניים	-9.34443
▁מורכב	-9.34475
▁קבוצת	-9.34493
▁עדיף	-9.34498
▁בשנים	-9.34556
▁נב	-9.34569
▁אישי	-9.34589
▁Ma	-9.34602
▁הופ	-9.34612
▁ניק	-9.3462
▁ירת	-9.34829
▁כותב	-9.34912
▁מטופל	-9.34963
▁אדמ	-9.34996
▁פח	-9.35017
▁סת	-9.35047
▁ורט	-9.351
▁חייו	-9.35107
▁לאכול	-9.35185
סייע	-9.35188
▁בטח	-9.35203
▁יחודי	-9.35317
▁ייס	-9.35326
▁פרו	-9.35357
▁שימ	-9.35362
▁פעיל	-9.35432
▁צליח	-9.35436
סו	-9.3545
▁ריה	-9.35463
▁ראשית	-9.35571
▁תעורר	-9.35673
▁אקדמ	-9.35688
▁יתה	-9.35758
▁רמו	-9.3582
▁צל	-9.35939
▁חוש	-9.35973
▁דלת	-9.35998
ֹ	-9.36063
▁חיל	-9.3611
▁רוס	-9.36146
▁בוא	-9.36166
▁שיבות	-9.36185
▁ארי	-9.36209
▁ונה	-9.36236
▁דרום	-9.3624
▁ישום	-9.36291
▁אופן	-9.36367
▁העסק	-9.36443
▁צפו	-9.36445
▁רותים	-9.36487
▁ניח	-9.36491
▁ארוך	-9.36507
▁מופיע	-9.36508
▁ריקני	-9.36517
▁קרקע	-9.36627
▁משפטי	-9.3664
▁ביטוי	-9.36872
▁In	-9.36955
▁פיק	-9.36967
▁ביא	-9.36984
▁רשות	-9.37171
▁סדרה	-9.37172
▁בשלב	-9.37184
▁סון	-9.37224
▁וקרים	-9.37254
▁מתאים	-9.37327
▁יינ	-9.37341
▁רגש	-9.37361
▁הלב	-9.3743
▁מקורי	-9.37533
▁לכתוב	-9.37597
צב	-9.37667
▁התנגד	-9.37787
▁שק	-9.37794
▁טובות	-9.37828
▁העביר	-9.37832
▁דיב	-9.37836
▁דק	-9.37852
▁מבנה	-9.37876
▁הישאר	-9.37954
▁ציות	-9.37955
▁יימים	-9.37959
▁מזל	-9.38003
▁שדה	-9.38064
▁ורנ	-9.38068
▁אמונה	-9.38123
סס	-9.38129
▁מושג	-9.38132
▁ירוק	-9.38136
▁ואי	-9.38178
▁יודעת	-9.38294
▁הסביר	-9.38516
▁תנאים	-9.3856
▁צמח	-9.38706
מצב	-9.38731
▁יתי	-9.388
▁זב	-9.38806
▁מתן	-9.38814
▁שפחות	-9.38815
▁בחינה	-9.38816
▁שמאל	-9.38984
▁רז	-9.39026
▁ייך	-9.3908
▁חולים	-9.39089
▁קש	-9.39093
▁30	-9.39102
▁הגיעו	-9.39106
▁יסוד	-9.39178
▁וצג	-9.39224
▁12	-9.3924
▁לקנות	-9.39246
▁tion	-9.39303
▁יילים	-9.39325
פעם	-9.39348
▁דרכ	-9.39373
▁בעצם	-9.39446
▁הבאה	-9.39468
▁בחירה	-9.39485
▁היטב	-9.39497
▁עשיי	-9.39526
▁מלאה	-9.39573
▁אתר	-9.39703
▁יסטי	-9.39718
▁דיר	-9.39744
▁טא	-9.3982
▁בסיסי	-9.39892
▁התחלה	-9.39909
מח	-9.39981
▁גיע	-9.40046
קווה	-9.40076
▁הטבע	-9.40107
▁ריד	-9.40109
▁בוע	-9.40142
▁איחוד	-9.40164
▁נשמע	-9.40164
▁מעשי	-9.40171
▁משכ	-9.40202
▁מרחק	-9.40232
▁ביטוח	-9.40295
▁טראמפ	-9.40424
▁מתחת	-9.40501
▁פורט	-9.40503
▁דה	-9.40713
▁לבנות	-9.40774
▁טענ	-9.40854
▁לימות	-9.40917
▁וות	-9.4097
▁וצ	-9.40978
▁מתרחש	-9.40994
▁פרי	-9.41032
▁תנאי	-9.41084
▁נר	-9.41114
▁נהג	-9.41159
▁יוצר	-9.41164
▁קיימת	-9.41219
▁מבצע	-9.41305
▁לשחק	-9.41358
▁דיון	-9.41416
▁הליכ	-9.41419
▁•	-9.41539
▁חקנים	-9.4154
▁בחודש	-9.41665
▁שויים	-9.41667
lo	-9.41685
▁קצוע	-9.417
▁קפה	-9.41701
▁שג	-9.41725
▁שאינ	-9.41764
▁ניצח	-9.41792
me	-9.41859
▁חיה	-9.41866
רגל	-9.41881
▁or	-9.41906
▁עצמנו	-9.4192
▁תשלום	-9.42043
▁זיאון	-9.42043
▁פשרו	-9.42126
▁לעבור	-9.4217
▁Co	-9.42181
▁גרוע	-9.42332
▁בראש	-9.4237
▁נאמר	-9.42448
▁נציאל	-9.42551
▁מאמין	-9.42551
▁רשימה	-9.42671
▁מועמד	-9.42672
▁מסת	-9.42755
▁שיפור	-9.42805
▁מעורב	-9.42933
▁נכונה	-9.43195
▁שותפ	-9.43288
▁גול	-9.43311
▁בור	-9.43321
שע	-9.43337
V	-9.43365
▁דומ	-9.43369
▁חג	-9.43385
▁חזרה	-9.43486
אל	-9.43589
יק	-9.43687
ווי	-9.43775
רז	-9.43852
▁צר	-9.43937
▁יור	-9.43955
▁שאי	-9.4397
▁עוצ	-9.43978
▁נצל	-9.44002
▁תוכן	-9.44132
▁בידי	-9.44151
▁de	-9.44162
▁דווקא	-9.44217
▁השבוע	-9.44217
▁ונדון	-9.44295
▁השת	-9.44413
▁להגן	-9.44456
▁te	-9.44462
▁ומן	-9.44462
▁אחראי	-9.44482
▁כונית	-9.4461
▁הביתה	-9.4467
דמ	-9.4468
▁שהיו	-9.44691
▁ation	-9.44736
▁אבד	-9.44736
חזיק	-9.44931
▁לנסות	-9.44999
▁סוריה	-9.45
▁מערבי	-9.45039
וציא	-9.45099
▁ושבים	-9.45127
▁נחשב	-9.45148
▁ודע	-9.4516
▁קומ	-9.45214
▁פוסט	-9.45228
▁15	-9.45233
▁סור	-9.45254
▁עצמכם	-9.45263
▁סוד	-9.45348
▁עשרה	-9.45401
▁השם	-9.45403
▁אד	-9.45442
▁נבחר	-9.45519
▁ביחד	-9.45519
▁ומי	-9.45538
▁לוט	-9.4556
▁מועד	-9.45616
▁תושב	-9.4565
▁פרסום	-9.45652
▁היכנס	-9.45698
▁יקורת	-9.4579
▁מיר	-9.45799
וליט	-9.45806
▁דוגמא	-9.45811
▁אמת	-9.45814
גן	-9.45825
▁ינואר	-9.45913
▁בע	-9.46234
▁כול	-9.46276
נח	-9.46402
▁פורסם	-9.46411
ריכ	-9.46487
▁n	-9.46551
הפ	-9.46607
▁קף	-9.46669
▁בנה	-9.46703
▁נקוד	-9.46791
טרונ	-9.46837
▁קדם	-9.46853
▁המטרה	-9.4697
▁רדה	-9.47019
▁גרס	-9.47032
▁שומר	-9.47085
בני	-9.47114
▁משפיע	-9.47117
▁היות	-9.4713
▁להפ	-9.47152
▁טיל	-9.47178
▁הרוג	-9.47227
▁תשומת	-9.47251
et	-9.47271
▁חקרים	-9.47276
▁כוכב	-9.4737
▁נזק	-9.47494
▁הפסיק	-9.47503
▁סכים	-9.47511
פולר	-9.47633
▁חרונה	-9.47637
▁כזו	-9.47675
▁רפ	-9.47746
▁בתור	-9.47786
▁המים	-9.47793
▁ובב	-9.47835
▁הכנס	-9.47848
▁גמר	-9.47895
▁חזור	-9.47907
▁פריקה	-9.48039
▁לין	-9.48128
▁k	-9.48261
▁בחינת	-9.4831
▁יקום	-9.4831
ve	-9.48314
▁שחקן	-9.48444
לאומ	-9.4846
▁צבא	-9.48466
▁ותיו	-9.48522
▁אנג	-9.48622
יימ	-9.48634
▁שתתפ	-9.48636
▁בעלות	-9.48666
▁le	-9.48687
▁מות	-9.48734
▁סא	-9.48942
▁פטמבר	-9.48983
▁סוגי	-9.48999
▁ריירה	-9.49035
▁היי	-9.49202
▁לשלם	-9.49257
▁יזם	-9.4932
▁עסקי	-9.49478
▁וין	-9.49494
▁קלים	-9.49778
▁סנ	-9.49807
▁גזע	-9.50072
▁ענק	-9.50078
▁זהיר	-9.50079
▁טן	-9.50179
▁מוגבל	-9.50212
▁אתגר	-9.50229
▁כפר	-9.50269
▁מוכן	-9.50348
▁רוך	-9.50355
▁להס	-9.50368
צע	-9.50424
▁נאה	-9.50478
▁כלכלה	-9.50488
▁ינוי	-9.50575
▁שמה	-9.50586
▁שיער	-9.50626
▁פרטי	-9.50627
▁בשבוע	-9.50762
▁פול	-9.50792
▁יהו	-9.50817
▁משבר	-9.5088
▁שיהיה	-9.509
▁—	-9.50903
▁לבו	-9.50916
▁נקי	-9.51038
▁נתן	-9.51069
▁נקודה	-9.51188
▁משאב	-9.51248
קשור	-9.51269
▁בריטי	-9.51294
▁הסכ	-9.51299
▁נפרד	-9.51324
▁חשבתי	-9.51345
▁נצח	-9.51375
▁עברו	-9.51379
▁מונח	-9.51437
▁תס	-9.515
▁זכה	-9.51548
▁קורות	-9.51558
▁סד	-9.51577
▁מחלות	-9.51594
▁דון	-9.51642
▁היית	-9.51668
▁רופא	-9.51778
▁הדין	-9.51778
▁דינ	-9.51871
▁אלבום	-9.51872
▁דצמבר	-9.51872
▁הריון	-9.51873
▁רוק	-9.519
▁סמים	-9.51953
▁עו	-9.52017
00	-9.52093
▁מבלי	-9.52182
▁הפר	-9.52196
▁קטובר	-9.52292
▁ורה	-9.52322
▁שויות	-9.52398
▁הגדר	-9.52405
▁יפים	-9.5243
▁מסוים	-9.52466
▁לשפר	-9.52563
▁לפעול	-9.52572
▁תקיים	-9.52578
▁לוק	-9.52683
▁תפ	-9.52692
▁משימה	-9.52715
▁מוקדם	-9.52718
▁שכר	-9.52746
▁פוס	-9.52825
▁פרט	-9.52831
▁לשמוע	-9.52854
▁רון	-9.52871
▁כלום	-9.52892
▁לידה	-9.52939
▁הכסף	-9.52995
▁כביש	-9.52996
▁הטכנ	-9.52997
▁קורס	-9.53122
▁בזה	-9.53149
▁סמ	-9.53214
▁סבל	-9.53348
▁רמות	-9.53349
▁פרסם	-9.53407
▁וצאת	-9.53428
▁צעיר	-9.53563
▁גבי	-9.53601
▁טעם	-9.53623
▁למי	-9.53623
▁טיול	-9.53712
▁ro	-9.53736
▁מתאי	-9.5374
חשוב	-9.5375
▁שע	-9.53782
▁נותן	-9.53814
▁מך	-9.53818
דא	-9.53941
▁ניסוי	-9.53988
▁מכתב	-9.5399
▁פארק	-9.54131
▁מניע	-9.54134
ונים	-9.54149
▁יניהם	-9.54163
0	-9.54201
▁מהיר	-9.54258
▁שופט	-9.54276
▁גרמני	-9.54282
▁d	-9.5431
▁תאי	-9.54338
▁שכן	-9.54361
▁ריע	-9.54387
▁ריס	-9.54405
כם	-9.54444
▁רעיו	-9.54539
▁טע	-9.54546
▁הוביל	-9.5456
בת	-9.54577
▁קרי	-9.54622
▁ניות	-9.54639
▁איתו	-9.54641
▁גמ	-9.54705
▁ואל	-9.54709
▁רסיטה	-9.5486
▁ערות	-9.54871
▁איננו	-9.54959
▁צבאי	-9.55013
▁זורים	-9.55073
את	-9.55095
▁שׁ	-9.55124
▁פשט	-9.55142
▁במאי	-9.55147
▁סרטים	-9.55195
▁בחנ	-9.55243
▁כשה	-9.55297
▁אוהבת	-9.55348
▁קרן	-9.55363
▁Mi	-9.55404
תג	-9.55632
▁סר	-9.55696
▁סטי	-9.55712
▁מסלול	-9.55713
▁מילה	-9.55723
▁פים	-9.55807
▁שלח	-9.55829
▁טון	-9.55838
▁ארכ	-9.55855
▁חלטות	-9.55859
בן	-9.55926
▁ed	-9.55966
▁כירות	-9.55984
פתח	-9.55985
▁ידה	-9.55996
▁קבלים	-9.56019
▁יוני	-9.56053
▁חיק	-9.56083
▁פעל	-9.56115
שיר	-9.56184
▁גרמ	-9.56265
▁וספות	-9.56296
▁וכך	-9.56356
▁ריב	-9.56491
▁פט	-9.56622
▁ובמבר	-9.56735
▁נותר	-9.56765
▁חמישה	-9.5683
ולוג	-9.56834
▁סיוע	-9.56885
▁הימנע	-9.56897
▁חם	-9.56904
יחס	-9.57028
▁כלא	-9.57059
▁ובר	-9.57206
▁חנות	-9.57232
se	-9.5729
▁מסוג	-9.57302
▁נהדר	-9.57353
▁זמנים	-9.5736
▁קלה	-9.57378
▁אינן	-9.57408
▁קופ	-9.57438
▁ציפ	-9.57478
ol	-9.57512
▁נהר	-9.57584
▁קה	-9.57616
▁ולי	-9.57667
▁רגיש	-9.57676
▁חיות	-9.57703
שתי	-9.57764
▁ימון	-9.57765
▁סטרלי	-9.5778
▁דירה	-9.57808
▁פורס	-9.57818
▁יכר	-9.57835
▁צילום	-9.57914
▁רביעי	-9.57915
▁ופס	-9.57933
▁רחוב	-9.57939
▁נוכל	-9.57962
▁אדום	-9.57966
▁שמחה	-9.58003
▁הבאים	-9.58033
▁מוח	-9.58056
▁בטל	-9.58124
▁תן	-9.58199
▁זהב	-9.58208
▁שלטון	-9.5823
▁יאו	-9.58496
▁הינו	-9.58505
▁יציב	-9.58513
▁Mo	-9.58516
▁שמי	-9.58522
▁Pa	-9.58587
▁שמים	-9.58709
רומ	-9.58779
▁יעד	-9.58829
▁המון	-9.58856
▁טה	-9.58903
▁חמ	-9.5891
▁הודעה	-9.58956
▁בעתיד	-9.58978
▁הטובה	-9.59001
▁ופים	-9.59015
▁בירה	-9.59038
▁לונות	-9.59123
▁ישוע	-9.59126
▁מודל	-9.5916
▁נמצאת	-9.59161
U	-9.59184
▁טט	-9.59222
▁קנה	-9.59315
▁לצד	-9.5934
▁יציר	-9.59347
▁מטה	-9.59396
0%	-9.59463
▁אויב	-9.595
▁עלי	-9.59533
▁תג	-9.59554
▁הצבע	-9.59689
▁וריד	-9.59788
▁חלום	-9.59789
▁התח	-9.59813
▁הופיע	-9.59861
▁חינם	-9.59864
▁כניסה	-9.59879
▁המוח	-9.59903
▁פותח	-9.59926
▁מצאו	-9.59927
▁יקרה	-9.59935
▁X	-9.60013
▁הפכו	-9.60024
▁הבנה	-9.60122
▁מיתית	-9.6017
▁האמין	-9.60192
▁נכס	-9.60246
▁מערב	-9.6033
▁נינ	-9.60344
▁האוכל	-9.60366
▁לעמוד	-9.60465
▁יחסים	-9.60506
▁וננ	-9.60542
▁משיך	-9.60772
▁De	-9.6081
▁ערבים	-9.60845
▁תום	-9.60909
▁ורא	-9.6102
▁הוציא	-9.61063
▁אישור	-9.61082
▁קצב	-9.61085
▁דבריו	-9.61122
▁חשבות	-9.61198
▁דוח	-9.61226
▁עלם	-9.61277
▁סעי	-9.61322
ic	-9.61343
▁חוויה	-9.61344
▁עודד	-9.61349
▁עצמאי	-9.61383
▁עמ	-9.61463
▁און	-9.61497
▁שלם	-9.61617
▁חמור	-9.6164
▁מאושר	-9.6169
▁אודות	-9.61693
וכ	-9.61768
▁דרו	-9.61818
תם	-9.61955
▁בנות	-9.61979
▁יית	-9.61987
▁11	-9.61997
▁לגלות	-9.61998
כש	-9.62002
▁מביא	-9.62084
▁יכרון	-9.62153
▁קוט	-9.6221
▁יוכלו	-9.62215
▁מדע	-9.62294
▁מחפש	-9.62308
▁פציפי	-9.62309
▁עשייה	-9.62499
▁יונ	-9.62533
▁חוף	-9.626
▁שילוב	-9.62622
▁רן	-9.62646
▁משת	-9.62669
▁18	-9.62891
▁ליי	-9.62989
▁בולות	-9.63076
▁ישן	-9.63083
▁גוע	-9.63096
▁תקבל	-9.63114
סט	-9.63152
▁וויר	-9.63179
▁מחשבה	-9.63194
▁וק	-9.63217
צ	-9.63247
שנות	-9.63248
si	-9.63277
▁סטיב	-9.63374
חז	-9.63377
▁בעזרת	-9.63398
▁רציתי	-9.63403
כוני	-9.63412
▁החלו	-9.63415
▁צדדים	-9.63426
▁מפלגה	-9.63442
▁ישר	-9.63459
▁ממנה	-9.63525
▁סיק	-9.63526
▁גדיל	-9.63557
▁פיזי	-9.63564
▁סגנון	-9.63568
▁כוס	-9.63603
▁סיום	-9.63719
▁שיחה	-9.63777
▁נמוך	-9.63869
סוק	-9.63883
▁זמני	-9.63907
▁יוכל	-9.63949
▁וגע	-9.64013
▁בטא	-9.64051
▁תחום	-9.64186
קראת	-9.64234
▁בבוקר	-9.64342
▁תיכון	-9.64342
▁מדויק	-9.64342
▁חוקים	-9.64354
רכי	-9.64394
שותפ	-9.644
▁רדו	-9.64433
▁אמצעי	-9.64461
▁רוויח	-9.645
▁ביב	-9.64531
▁יקה	-9.64541
▁שגם	-9.6455
▁סקר	-9.64575
כיר	-9.64587
▁לוס	-9.64641
▁טור	-9.6465
▁אושר	-9.64677
▁רוצ	-9.647
זמנ	-9.64776
▁לבדוק	-9.64829
▁עליון	-9.64841
▁עצר	-9.64851
tt	-9.64866
▁עליי	-9.64888
▁המלך	-9.64963
▁ולדת	-9.64963
▁»	-9.64988
▁המי	-9.6503
▁רץ	-9.65075
תקפ	-9.65155
▁הסי	-9.65233
▁הנדס	-9.65296
▁חשמל	-9.65315
▁חייהם	-9.65319
▁אהב	-9.6532
▁חיוני	-9.6533
▁יבה	-9.65432
▁בנק	-9.65516
▁וטל	-9.65522
תח	-9.65596
▁נסי	-9.65598
▁תקציב	-9.65615
▁רעה	-9.65651
▁הרוח	-9.65753
▁שיטות	-9.65759
▁השמש	-9.65782
▁מטבע	-9.65815
▁יבו	-9.65851
▁ולד	-9.65866
▁האיש	-9.65911
▁קק	-9.66008
▁מית	-9.66023
▁רבי	-9.66138
▁ידור	-9.6617
▁גורי	-9.66176
▁טעות	-9.6622
▁ההת	-9.66225
▁וצאים	-9.66258
▁שמונה	-9.66346
▁ציי	-9.66359
▁מוד	-9.66383
▁לוג	-9.66385
▁חשובה	-9.6639
▁שוואה	-9.6642
▁רוז	-9.66426
▁l	-9.66431
▁שיווק	-9.6658
▁רכבת	-9.66626
▁הסתכ	-9.66642
▁מלי	-9.66696
▁מבוגר	-9.66742
▁לאדם	-9.66752
▁אומית	-9.66759
▁שלילי	-9.66772
▁דמו	-9.66791
▁דמות	-9.66825
▁עילו	-9.66874
▁טיקה	-9.66906
▁ידיים	-9.66978
▁סגור	-9.67068
▁|	-9.67069
▁ייג	-9.67073
▁חושבת	-9.67093
בוש	-9.67098
▁לופ	-9.6712
▁נור	-9.67241
▁ספקת	-9.67286
▁עזה	-9.67345
▁מצל	-9.67381
▁בקלות	-9.67395
▁נהיג	-9.67426
▁עובר	-9.67431
▁ייל	-9.67466
▁החלק	-9.67529
▁תקווה	-9.6757
▁וכיח	-9.67609
▁לוא	-9.67621
▁רנ	-9.6763
▁חייבת	-9.67659
▁תפי	-9.6767
▁תפס	-9.67694
▁ובכ	-9.6773
▁למים	-9.67764
▁קוב	-9.67829
▁אבו	-9.67847
פת	-9.67874
▁הלילה	-9.67882
▁ושאים	-9.67882
▁וכנים	-9.67886
▁ic	-9.67915
▁הודיע	-9.68021
▁יסבוק	-9.68046
▁הצבא	-9.68101
▁ענה	-9.68119
▁אכל	-9.68174
▁איבד	-9.68212
▁מפגש	-9.68294
▁בוק	-9.68303
▁לווי	-9.68311
▁עוסק	-9.68375
▁בשוק	-9.68376
▁נושות	-9.68378
▁טען	-9.68446
▁לספר	-9.68465
▁עתה	-9.68477
▁בדיקה	-9.68539
▁לאור	-9.68582
▁וכו	-9.68736
▁כולו	-9.68744
▁תיא	-9.68865
▁נצ	-9.68921
▁ייב	-9.69015
▁למקום	-9.69035
▁אפריל	-9.69035
▁יננסי	-9.69036
▁נמל	-9.69107
שתנ	-9.69232
▁מסחר	-9.69265
▁רך	-9.69285
▁משו	-9.69338
▁הערבי	-9.69369
▁פסיק	-9.69384
▁איתם	-9.69487
▁נפלא	-9.69489
▁פירוש	-9.69536
ניתן	-9.69546
▁כלים	-9.69567
ריא	-9.69668
▁שער	-9.69693
▁ma	-9.69736
▁בניין	-9.69778
▁קישור	-9.69867
▁העתיק	-9.69869
▁עקרו	-9.69896
▁אבק	-9.699
▁שד	-9.69947
▁הכוח	-9.69989
▁פיל	-9.70079
▁יירות	-9.70206
▁יפש	-9.70229
▁וגרפי	-9.70235
נצ	-9.70287
▁חייה	-9.70306
▁ראות	-9.70315
▁רלו	-9.70359
▁וקם	-9.70361
▁גנטי	-9.70375
▁אבי	-9.70486
▁יטה	-9.7054
▁רום	-9.70576
▁רוט	-9.70597
▁סוגים	-9.70604
▁ועם	-9.70613
▁תיר	-9.70621
▁הרב	-9.70639
um	-9.70646
▁עש	-9.70668
▁שראלי	-9.70706
el	-9.70768
▁כלוס	-9.70793
▁תחושה	-9.7082
תונא	-9.70841
▁במרכז	-9.70875
▁בערך	-9.70877
ניח	-9.70995
▁כרגע	-9.71044
▁for	-9.71068
שוב	-9.71084
▁מחר	-9.711
▁טקס	-9.7112
▁ציין	-9.71128
▁השפיע	-9.71159
▁טפל	-9.71211
▁גד	-9.71214
סטר	-9.71215
▁ישור	-9.71337
▁סכי	-9.71341
▁קיו	-9.71381
▁נכתב	-9.71383
▁ערכים	-9.71414
הווה	-9.7143
▁רש	-9.71444
▁בצ	-9.71525
▁שאינם	-9.71539
יטה	-9.71541
▁הנושא	-9.71552
▁חוזר	-9.71552
▁חתול	-9.71553
▁יחיד	-9.71649
▁חייל	-9.71656
▁חלת	-9.7168
▁חליף	-9.71723
▁מסו	-9.71725
▁חוב	-9.71753
▁ראים	-9.71793
▁זון	-9.71844
▁יומי	-9.71853
קים	-9.71856
▁גוש	-9.72059
▁הקוד	-9.72081
▁ימין	-9.72217
▁ההבדל	-9.72234
▁קשיב	-9.72236
▁ורו	-9.72237
▁ity	-9.72268
!	-9.72284
ta	-9.72334
▁ri	-9.72366
▁קולו	-9.72415
▁ירח	-9.72438
▁חפשים	-9.72475
▁בך	-9.72475
סך	-9.72504
▁וסייה	-9.72577
▁שחרר	-9.72605
▁תורה	-9.72621
ul	-9.72635
▁עצמ	-9.72693
▁ברואר	-9.7275
יעו	-9.72757
▁v	-9.72758
▁זנ	-9.72762
▁מעלה	-9.72767
▁רפא	-9.728
▁הראשי	-9.7289
יומנ	-9.72961
▁רוג	-9.72983
▁מפעל	-9.73055
▁Po	-9.73101
▁וידאו	-9.73102
▁זכ	-9.73138
ne	-9.7322
▁בניו	-9.73226
▁ראשי	-9.73246
▁לאפשר	-9.73266
▁ארד	-9.73298
▁חבל	-9.73387
▁לבסוף	-9.73439
▁בחוץ	-9.73449
▁ובי	-9.73489
▁רפואה	-9.73613
▁משותף	-9.73613
▁מותו	-9.73631
▁פג	-9.73639
▁דפ	-9.73648
▁חלקים	-9.73842
▁וגל	-9.73894
▁חצ	-9.73916
▁ונד	-9.73925
▁למנט	-9.73944
▁החזיר	-9.7396
▁רבותי	-9.74061
▁שאפשר	-9.74134
▁לנצח	-9.74136
▁שניהם	-9.74156
▁ברי	-9.74273
▁ועלים	-9.74286
▁סתם	-9.74302
▁עשרים	-9.74325
▁מהן	-9.74431
▁צאו	-9.74435
▁עצ	-9.74455
▁תקדם	-9.74484
▁המילה	-9.74485
▁וול	-9.7451
▁חום	-9.74605
▁נסיעה	-9.74659
▁בתים	-9.74668
ll	-9.74703
▁אומ	-9.74763
▁ורמ	-9.7478
▁זן	-9.74795
▁חות	-9.74824
▁ההי	-9.74867
▁חורה	-9.74923
▁לשעבר	-9.75011
▁סמך	-9.75045
▁זול	-9.75076
▁אזרח	-9.75145
▁כס	-9.75179
▁פתרו	-9.7531
▁מקביל	-9.75362
קח	-9.75423
▁בז	-9.75429
▁com	-9.75444
▁ידו	-9.75448
▁סוק	-9.7546
▁שאם	-9.75483
▁תחומי	-9.7554
▁עדר	-9.75551
▁טייל	-9.75554
▁הנכון	-9.75716
▁סמוך	-9.75716
▁לבקר	-9.75718
▁צורה	-9.75734
▁יטליה	-9.75893
▁בחדר	-9.75898
▁$	-9.75921
▁העבר	-9.75993
▁רדת	-9.76055
▁הודו	-9.76062
▁נדי	-9.76114
▁ראית	-9.7615
▁פיצ	-9.76199
ut	-9.762
▁וקה	-9.76293
▁עיל	-9.76338
▁קוי	-9.7636
▁פיר	-9.76395
▁יפן	-9.7641
▁אח	-9.76411
▁נע	-9.76432
▁מושלם	-9.76472
▁פתיע	-9.76606
▁וסעים	-9.76785
▁סקס	-9.76791
▁כלבים	-9.76807
▁משנת	-9.76809
▁צמיחה	-9.7685
▁עברי	-9.76934
▁עיני	-9.76996
▁יבש	-9.77055
▁בחור	-9.77121
▁בלילה	-9.77146
▁האור	-9.77146
▁צטרך	-9.77163
▁עמדו	-9.77165
▁ינס	-9.77215
▁נוס	-9.7722
ונה	-9.77259
ma	-9.77278
▁ריכ	-9.7731
▁שפחתי	-9.77333
▁וספת	-9.77364
▁איי	-9.77365
▁וריו	-9.77411
רכ	-9.77454
▁ווים	-9.77508
▁‘	-9.77518
▁ואלי	-9.77545
▁להכיר	-9.77576
▁בהמשך	-9.77595
▁קשות	-9.77635
▁אים	-9.77661
▁אתמול	-9.77685
▁nt	-9.77723
▁המוצר	-9.77758
▁הצטרף	-9.77787
▁ועלת	-9.7789
▁לווה	-9.77904
▁יסק	-9.77927
▁מאמצ	-9.78036
▁בחברה	-9.78046
▁זרים	-9.78163
▁רקע	-9.78205
▁הרופא	-9.78228
▁שורה	-9.78228
▁תנוע	-9.78266
▁שפע	-9.78285
▁ce	-9.78297
▁דעו	-9.78298
▁חוות	-9.78405
▁נפגע	-9.78409
▁חתונה	-9.78411
▁דווח	-9.78463
▁ייד	-9.78467
▁סחר	-9.78469
▁ימות	-9.78472
▁לסייע	-9.78494
▁ביס	-9.7851
▁האדמה	-9.78592
▁בחיי	-9.78665
▁רגשת	-9.78689
▁בקרים	-9.78702
▁מרחב	-9.78774
רכיב	-9.78814
אין	-9.78834
▁יך	-9.78835
▁h	-9.78856
▁יכל	-9.78892
▁יתרו	-9.78897
▁רכיב	-9.78921
▁חיבור	-9.78957
▁תחייב	-9.78957
▁לשאול	-9.78957
▁קמ	-9.78986
▁מוזר	-9.79057
▁וגרים	-9.79118
▁זוכ	-9.79199
▁חמישי	-9.79253
▁ילדה	-9.79283
▁דלק	-9.79317
▁הצורך	-9.79323
▁מראש	-9.79324
▁וגד	-9.79341
▁La	-9.79342
▁כלב	-9.79344
▁סמל	-9.79461
▁סן	-9.79528
▁המר	-9.79547
▁שהי	-9.79594
▁סטרו	-9.79625
▁קצ	-9.79643
▁המס	-9.79665
רבית	-9.79685
▁השאיר	-9.79691
▁לחפש	-9.79692
▁חליט	-9.79702
▁כנסת	-9.79778
▁וכחות	-9.79787
▁פחי	-9.79805
▁חור	-9.79826
▁סוכן	-9.79834
▁ושש	-9.79837
▁לזכור	-9.79876
▁וסדות	-9.79879
▁הפוך	-9.79881
צירת	-9.79916
▁קלי	-9.79958
▁בצד	-9.7997
▁מנוע	-9.79977
▁וקס	-9.80032
▁אליהם	-9.80035
▁והן	-9.80072
▁בודות	-9.8011
▁פתיח	-9.80246
▁דורגל	-9.80279
▁גישות	-9.80317
▁האס	-9.80378
▁מכירה	-9.80406
▁ודה	-9.80421
▁ירידה	-9.80432
▁השיר	-9.80522
▁מזכיר	-9.80592
▁מקס	-9.80593
▁דף	-9.80595
▁רבנ	-9.80614
▁Be	-9.80618
▁בהיר	-9.80623
▁ידעתי	-9.80644
▁בינים	-9.8067
▁משה	-9.80782
▁ורים	-9.8082
▁To	-9.8083
▁החלה	-9.80855
▁ווק	-9.8089
▁סטר	-9.80909
▁נסה	-9.80923
▁שולחן	-9.80956
▁14	-9.81015
▁וגי	-9.81034
▁רציני	-9.8104
▁בקרוב	-9.81064
▁רישות	-9.81072
▁עורך	-9.81079
▁הסבר	-9.81082
▁המכ	-9.81093
▁פגש	-9.8114
▁ושי	-9.81226
▁צה	-9.81284
חלק	-9.81421
▁וותר	-9.81429
▁קטנות	-9.81433
▁התע	-9.81453
▁סם	-9.8149
לאכ	-9.81492
▁פלא	-9.8151
▁בקש	-9.81538
קמ	-9.81544
▁כוהול	-9.81552
▁המחיר	-9.81552
▁תכנון	-9.81552
▁הכללי	-9.81566
▁חלל	-9.81586
▁כוללת	-9.81667
עניק	-9.81674
▁מוסרי	-9.81731
▁קובע	-9.81738
▁רמה	-9.81741
▁רטיות	-9.81742
▁שוטר	-9.81752
זמ	-9.81813
▁מסך	-9.81819
▁מהפכה	-9.81853
▁ישאר	-9.81868
▁אורג	-9.81879
▁מנסים	-9.81935
▁יופי	-9.81941
▁חלב	-9.81951
▁ובדות	-9.81972
▁&	-9.82005
▁כרז	-9.82085
▁עוזר	-9.82117
▁זכור	-9.82158
▁ביוני	-9.82165
▁לבוא	-9.82267
▁נמוכה	-9.82291
▁דיקות	-9.82385
▁נסו	-9.82462
ומכ	-9.82475
▁מאמץ	-9.82496
▁el	-9.82502
▁הסיני	-9.82505
▁סורתי	-9.82508
▁רעב	-9.82512
▁אורה	-9.8253
▁הצלח	-9.826
▁יוחדת	-9.82685
▁חורף	-9.82724
▁כוונה	-9.82739
▁הרגע	-9.82751
▁יקוד	-9.8279
פתוח	-9.82841
▁ולוגי	-9.82885
▁המע	-9.82887
▁ָה	-9.82902
▁רדיו	-9.82916
▁אליה	-9.8297
▁עוני	-9.83004
▁משק	-9.83008
▁ליב	-9.83021
▁ניגוד	-9.83043
▁לצפות	-9.83066
▁עזור	-9.8307
▁סוימת	-9.83072
▁ומחים	-9.83073
▁הבנק	-9.83075
▁גורל	-9.83091
▁ולין	-9.83116
▁ותיה	-9.8321
▁תאים	-9.83219
▁תחיל	-9.83361
▁סנט	-9.83365
]	-9.83366
עבד	-9.83404
▁ינט	-9.83441
▁ופאים	-9.83449
▁תיים	-9.8346
▁הדור	-9.83489
▁שירים	-9.835
▁סול	-9.83535
▁פצ	-9.83544
▁יאור	-9.8362
▁השוק	-9.83653
▁דרש	-9.83759
▁תנהל	-9.83843
▁Ca	-9.8385
▁כתובת	-9.83863
▁ולנ	-9.83883
▁גור	-9.8392
▁וחרים	-9.8402
ויות	-9.84051
▁סח	-9.84053
פרט	-9.84059
▁th	-9.84077
▁דיש	-9.84077
▁ולש	-9.84108
▁עון	-9.84141
▁התמקד	-9.84146
▁יתן	-9.8416
▁חלקי	-9.84188
▁תקרב	-9.84255
▁תערו	-9.84264
▁נדר	-9.84383
▁פתאום	-9.84409
▁מונים	-9.84422
שהוא	-9.84522
ופע	-9.84527
▁ch	-9.84537
▁עז	-9.84549
▁מומלץ	-9.84602
▁מחוז	-9.84797
▁מוצא	-9.84801
▁הודות	-9.84846
▁יתות	-9.84871
▁נפתח	-9.84963
▁להציל	-9.84993
▁עידן	-9.85049
▁בימים	-9.85056
▁בחזרה	-9.85185
▁לטפל	-9.85185
▁סע	-9.85188
▁הנהג	-9.85191
▁פסק	-9.85212
▁תפתח	-9.85224
▁סכנה	-9.8523
▁הצביע	-9.85323
▁טובוס	-9.8539
▁נייד	-9.85405
▁טומ	-9.8556
▁תגורר	-9.85575
▁אכיל	-9.85575
▁מנע	-9.8563
▁Ba	-9.8565
▁ורס	-9.85654
▁מחנה	-9.85671
▁אמו	-9.85693
▁עונש	-9.85708
▁צורת	-9.8575
▁המא	-9.8577
▁גלגל	-9.85771
▁מסק	-9.85779
▁גיא	-9.85812
▁Li	-9.85907
▁וכח	-9.85915
כוונ	-9.85922
▁עגל	-9.85931
▁ריש	-9.85936
▁יהנות	-9.85953
▁במזרח	-9.85967
▁גובות	-9.85968
▁ציור	-9.85972
לט	-9.8602
▁שקר	-9.86028
▁ונק	-9.86032
▁מותר	-9.86036
▁עשית	-9.86055
▁נהלים	-9.86069
▁ספרי	-9.86088
בילה	-9.86117
לאחר	-9.86165
▁היר	-9.86251
▁קיום	-9.86304
▁ושם	-9.86343
▁מגדל	-9.86361
▁טורקי	-9.86362
▁לכולם	-9.86362
▁הגיעה	-9.86405
▁יצו	-9.86434
▁לול	-9.86514
▁מוצלח	-9.86557
▁Da	-9.86574
▁הידע	-9.86583
▁>	-9.86613
▁הקמת	-9.86631
▁וור	-9.86672
▁וכבים	-9.86673
▁מלה	-9.86713
▁נורא	-9.86718
▁13	-9.86739
▁וויות	-9.86757
▁שואה	-9.86796
▁בודד	-9.86808
▁סימן	-9.86817
▁חיד	-9.86865
▁עשיתי	-9.86874
לבד	-9.86876
▁ולנוע	-9.86954
גנ	-9.86967
▁אשתו	-9.86972
▁ועדון	-9.86985
▁Ch	-9.8705
▁עברה	-9.87095
▁עלייה	-9.87107
▁רשתות	-9.87144
▁ספים	-9.8719
▁הפנים	-9.87191
▁צעדים	-9.87205
▁העלות	-9.87362
▁ביולי	-9.87434
▁מדהים	-9.87453
▁קודש	-9.87497
▁מרץ	-9.87513
▁ולם	-9.87532
▁חלוק	-9.87552
▁צרות	-9.87607
▁השי	-9.87691
▁השאר	-9.87753
קיימ	-9.87766
▁ומנ	-9.87844
▁עזב	-9.87872
▁כנס	-9.87881
שתתפ	-9.87905
▁ישיות	-9.88003
▁הדם	-9.8811
▁מיועד	-9.88153
▁ילות	-9.88179
▁תאריך	-9.88181
▁אימ	-9.88198
▁שומע	-9.88205
▁בלו	-9.88229
▁טיב	-9.88268
ce	-9.88398
▁דעתי	-9.88418
▁סימ	-9.88453
▁לף	-9.88483
▁חולה	-9.88538
▁וקר	-9.88559
▁זהות	-9.88608
▁קדש	-9.88634
▁נקים	-9.88711
pp	-9.88724
▁צור	-9.88729
▁עשויה	-9.88745
▁יכ	-9.88754
▁16	-9.88869
▁סודות	-9.88885
▁Me	-9.88928
▁תיבה	-9.88957
▁הוכח	-9.8896
▁לנהל	-9.88974
▁רשם	-9.89051
רמה	-9.89058
▁חובה	-9.89085
▁וקו	-9.89125
▁מינ	-9.89146
▁קידום	-9.89158
▁מיקום	-9.89158
▁You	-9.89161
▁צירתי	-9.89171
▁עיד	-9.89205
▁השקעה	-9.8922
▁הזוג	-9.89224
▁גלוב	-9.89281
▁הרגו	-9.89314
▁נושית	-9.89361
▁ישב	-9.89403
▁בלה	-9.89446
▁ייה	-9.89469
▁no	-9.89499
בהם	-9.89534
▁הולנד	-9.89564
▁כחול	-9.89564
▁וסיקה	-9.89564
▁מתאר	-9.89567
▁יימס	-9.89568
▁אביו	-9.89599
▁האישה	-9.89713
▁בוב	-9.89761
▁קדימה	-9.89768
▁לבקש	-9.89769
▁לחיים	-9.8979
▁לכו	-9.89805
▁נכ	-9.89825
▁ודר	-9.8986
נחל	-9.89892
▁גדה	-9.89907
▁דגיש	-9.90016
▁גג	-9.90054
▁פגיעה	-9.90089
▁הרס	-9.90109
▁כתבה	-9.90112
יקרו	-9.90128
▁24	-9.90137
▁צער	-9.90148
חות	-9.90148
▁רוכ	-9.90149
▁הקדוש	-9.90176
▁דידות	-9.90177
▁פסיד	-9.90206
▁ובל	-9.90212
אינט	-9.90258
▁פעמי	-9.90267
▁מסחרי	-9.90304
▁ra	-9.90351
▁x	-9.90352
▁חל	-9.90381
▁בנייה	-9.9041
▁שיא	-9.90434
▁אמון	-9.90444
שים	-9.90478
לב	-9.90503
טע	-9.90526
▁ושוב	-9.90542
▁מכון	-9.90588
▁ירו	-9.9064
▁מהות	-9.9064
▁החי	-9.90676
▁הצבאי	-9.90731
▁טיסה	-9.9074
▁הרה	-9.90747
▁פשע	-9.9079
זג	-9.90801
▁גוסט	-9.90811
▁מלכה	-9.90833
▁בניית	-9.90865
▁Ro	-9.90968
▁ni	-9.9097
▁האלו	-9.90983
▁עליכם	-9.91021
▁ספרד	-9.91025
▁רעיני	-9.91206
▁נגליה	-9.91208
▁פד	-9.91219
▁ענו	-9.91267
▁כשל	-9.91288
▁טרם	-9.91327
כדי	-9.91343
▁דירות	-9.91353
▁דיק	-9.91354
▁זיק	-9.91403
▁חשיבה	-9.91412
▁אינדי	-9.91414
▁הכרה	-9.9142
▁בחון	-9.91457
▁רכו	-9.91466
▁חיש	-9.91497
▁אקו	-9.91542
▁גיטלי	-9.91621
▁אסיר	-9.91634
▁להציג	-9.9164
▁עריך	-9.91643
▁ניב	-9.91698
▁בקשה	-9.91719
▁יבוד	-9.91731
▁משיכה	-9.9183
▁הבדל	-9.91831
▁ופק	-9.91854
טור	-9.91877
▁מטרים	-9.91915
▁טקסט	-9.91945
▁יאן	-9.91957
גז	-9.91959
▁ציר	-9.91983
▁תוכנה	-9.92014
▁הערכה	-9.92036
▁כזב	-9.92038
▁חכם	-9.92103
▁זכרו	-9.92205
▁אבטחה	-9.92245
▁טומטי	-9.92247
▁וטר	-9.92268
▁כלשהו	-9.92454
▁חקר	-9.92455
▁בלעדי	-9.92455
▁ציוד	-9.92455
▁שפות	-9.92468
▁יסי	-9.9248
לפ	-9.92519
▁איר	-9.92568
▁תכ	-9.92584
▁חז	-9.92659
Q	-9.92663
▁נגטון	-9.92663
▁איון	-9.92674
▁במספר	-9.92674
▁ילדות	-9.92683
▁ריטים	-9.92686
▁גופני	-9.9271
▁רצינ	-9.92751
▁בעה	-9.9278
▁גשר	-9.92781
צהר	-9.92795
▁וסט	-9.92798
K	-9.9283
▁צודק	-9.92873
▁תפלל	-9.92874
▁בוהים	-9.92881
▁פרד	-9.92885
▁sh	-9.92932
▁ורר	-9.92992
רד	-9.93046
▁li	-9.93087
▁קריאה	-9.93124
▁+	-9.9313
▁סופ	-9.93147
▁לעצור	-9.93157
ard	-9.93187
▁השקע	-9.93232
▁50	-9.9334
▁ייק	-9.93389
▁ונס	-9.93397
▁יעשה	-9.93506
▁מעשה	-9.93509
▁חזית	-9.93514
▁ng	-9.93515
▁ורמלי	-9.9353
▁מיידי	-9.93532
▁מצבים	-9.93537
▁בדק	-9.93543
▁וואי	-9.93593
▁ופעות	-9.93618
▁ריא	-9.93674
▁אורח	-9.93731
▁אהבת	-9.93737
▁מהו	-9.93759
▁חטא	-9.93776
▁לולה	-9.93812
▁ביד	-9.93838
▁אום	-9.93845
▁קושי	-9.93845
▁רנק	-9.93876
▁אבן	-9.9389
▁שלמת	-9.94041
▁כנסי	-9.94049
▁ממני	-9.94088
j	-9.94143
▁מחוי	-9.94149
▁נוער	-9.94149
▁כיבוש	-9.94185
▁הוצא	-9.94201
▁וקף	-9.94209
▁יתרון	-9.94217
▁40	-9.94244
▁יטו	-9.94248
▁גשת	-9.94249
id	-9.94255
▁רם	-9.94354
▁כשאני	-9.94356
▁רני	-9.9438
▁טנדר	-9.94453
▁נוחות	-9.94503
▁התנ	-9.94508
▁גע	-9.94515
▁יות	-9.94525
▁ישוא	-9.94568
▁השלום	-9.9457
▁בשעה	-9.9458
▁תבצע	-9.94587
▁בדן	-9.94592
▁מבטיח	-9.94661
▁אחים	-9.9468
▁מטבח	-9.94784
ed	-9.94836
▁יבור	-9.94873
▁היט	-9.94889
▁דואר	-9.94911
▁רומא	-9.9495
▁ווד	-9.94968
▁עניק	-9.94985
▁יקול	-9.95006
▁זל	-9.95012
▁na	-9.95016
▁מפלג	-9.95033
▁ביצע	-9.95078
▁פות	-9.95079
▁כלול	-9.95108
▁תנדב	-9.95214
▁נסייה	-9.95218
▁חוצה	-9.95249
▁שוח	-9.95285
▁בתוכ	-9.95301
▁הדו	-9.95354
▁יעיל	-9.9543
▁יושב	-9.95431
▁שואל	-9.95456
▁רשימת	-9.95508
▁תרופה	-9.95509
▁נטל	-9.95517
▁סיכו	-9.95521
▁פגישה	-9.95521
▁כספי	-9.95525
▁בלנות	-9.95576
▁סקי	-9.95612
▁לרכוש	-9.95645
▁הראות	-9.95665
▁מלך	-9.95681
▁עיתון	-9.95703
▁צוג	-9.95746
▁שיק	-9.95757
▁יסט	-9.95812
▁לישית	-9.95868
▁צום	-9.9593
▁כנע	-9.9595
אמ	-9.95977
▁ואב	-9.95993
אונ	-9.95994
▁שחרור	-9.96079
▁לזהות	-9.96079
▁ופן	-9.96096
▁נקבע	-9.9613
פיל	-9.96143
▁מושב	-9.96188
▁מחבר	-9.96204
▁רגו	-9.96206
▁נפט	-9.96288
▁בגוף	-9.96298
▁גרש	-9.96311
▁מחה	-9.96313
▁מחצי	-9.96373
▁בחרו	-9.96458
▁יעוד	-9.9647
ייק	-9.96485
▁ביו	-9.96491
▁בבקשה	-9.96514
▁חבורה	-9.96514
▁והר	-9.96516
▁וער	-9.96586
▁קום	-9.96586
תמקד	-9.96615
▁וודאי	-9.96628
▁פריז	-9.9664
▁אסר	-9.96653
▁חלו	-9.96686
▁שפעת	-9.96723
▁יאל	-9.9674
נגד	-9.96741
▁כוונ	-9.96745
▁מסביר	-9.96747
▁פייה	-9.96778
משיכ	-9.96889
▁השקיע	-9.96902
▁נגל	-9.96927
▁טש	-9.96936
▁מפקד	-9.96952
לק	-9.96954
▁הצוות	-9.96959
▁הצד	-9.96961
▁25	-9.96988
▁רבן	-9.97006
▁כלה	-9.97058
▁בשני	-9.9707
▁ברחוב	-9.9717
▁לצורך	-9.9717
▁צאתי	-9.97177
▁היל	-9.97187
▁דריך	-9.97191
▁שישה	-9.97199
▁שלהן	-9.97241
▁לעזוב	-9.97286
▁מום	-9.97304
▁לקו	-9.97313
▁ולת	-9.97342
▁בטחת	-9.97353
▁אשראי	-9.97401
▁רצי	-9.97406
וני	-9.97519
▁שול	-9.97538
▁בלב	-9.97548
▁נטי	-9.97612
▁גובה	-9.97614
▁קלט	-9.97628
▁פשוטה	-9.9777
▁כזאת	-9.97831
▁תיקון	-9.97832
▁פוץ	-9.9788
▁גיב	-9.97897
▁סופי	-9.97923
▁מתנה	-9.9796
▁וכי	-9.97966
▁ופר	-9.98022
▁עונ	-9.9807
▁הצעה	-9.98077
▁בסין	-9.98105
▁טובת	-9.98112
▁ושך	-9.9812
▁כות	-9.9827
▁תמוך	-9.98274
▁וועדה	-9.98275
▁בגדים	-9.98275
▁ent	-9.98305
▁מותג	-9.9831
▁כיף	-9.98312
▁דים	-9.98364
▁יחס	-9.98368
▁ta	-9.98377
▁ינך	-9.98402
▁צפה	-9.98474
▁שכנ	-9.98529
▁תגבר	-9.98533
▁חודשי	-9.98547
▁הוד	-9.98638
▁להציע	-9.98695
▁משטר	-9.98705
ֲ	-9.98719
▁גייס	-9.9872
▁ירא	-9.9883
▁קצה	-9.98832
▁סגר	-9.98915
▁נויות	-9.98942
▁תור	-9.98959
▁וברת	-9.98965
▁גיש	-9.98985
▁ti	-9.98999
▁לילי	-9.99017
▁ge	-9.99084
▁לקוח	-9.99096
▁איתי	-9.99107
▁ברשת	-9.99178
▁לאתר	-9.99194
שכ	-9.99213
▁נשמה	-9.99215
▁ומץ	-9.99221
▁ברג	-9.99252
▁דיאל	-9.99268
▁תזונה	-9.99274
▁ייש	-9.99334
▁ומר	-9.99364
▁כון	-9.99431
▁שכנע	-9.9947
▁חלוקת	-9.99492
▁וטו	-9.99521
oogl	-9.99615
▁ואיד	-9.99635
▁שיחות	-9.99647
▁טפ	-9.99681
▁ותק	-9.99705
▁עילה	-9.9974
▁נדל	-9.99792
▁חקירה	-9.99841
▁לומות	-9.99856
▁קפ	-9.99866
▁וזרים	-9.9994
▁בינה	-10.0003
▁השתתף	-10.0007
▁גליים	-10.0007
▁אללה	-10.0008
▁כולה	-10.0009
▁איום	-10.0009
▁ניס	-10.001
וסלמ	-10.0011
▁יישב	-10.0019
▁ליטים	-10.0021
▁mi	-10.0032
▁רשמ	-10.0039
▁פגע	-10.004
▁גנים	-10.0044
▁סמכים	-10.0048
W	-10.0051
▁ערי	-10.0051
▁האהבה	-10.0052
▁לפתור	-10.0052
▁פגוע	-10.0052
▁רשמי	-10.0052
▁ודעה	-10.0055
▁אצ	-10.0055
▁טיחות	-10.0056
▁הבאות	-10.0057
וצי	-10.0059
▁אשה	-10.0062
▁נחה	-10.0064
▁חדות	-10.0069
▁הערב	-10.0071
▁צמאות	-10.0075
▁מחזור	-10.0075
▁ופעה	-10.0075
▁עשתה	-10.0075
▁di	-10.0078
▁חולק	-10.0085
▁צירה	-10.0092
▁Y	-10.0093
▁החזק	-10.0098
▁חווה	-10.0099
▁ימור	-10.0099
▁ברו	-10.01
▁הראש	-10.0102
▁תגרים	-10.0103
▁ומדת	-10.0103
▁צטר	-10.0107
ולים	-10.0114
▁צד	-10.0115
▁לישון	-10.012
▁תחלתי	-10.012
▁לציין	-10.012
▁שוחרר	-10.0121
▁הורה	-10.0122
▁נעצר	-10.0123
אפ	-10.0123
all	-10.0131
▁רגן	-10.0132
▁מדהי	-10.0133
▁רחבה	-10.0134
▁מבחן	-10.0143
▁חומים	-10.0144
▁אלינו	-10.0145
▁מתכ	-10.0146
▁שמור	-10.0154
לקוח	-10.0155
▁ירום	-10.0156
▁co	-10.0164
▁הרשמי	-10.0166
▁דענים	-10.0166
▁יימות	-10.0166
▁איס	-10.0167
▁הכין	-10.0168
▁עילים	-10.0168
▁ישנה	-10.0172
▁החלט	-10.0173
▁מייצג	-10.0174
▁בעו	-10.0175
▁ישיים	-10.0176
▁שליח	-10.0176
▁הרגיל	-10.0182
▁לאן	-10.0188
X	-10.0189
▁לקבוע	-10.0189
▁חזיר	-10.0189
▁לשתף	-10.0189
▁ולן	-10.0194
▁יחסית	-10.0195
▁סמכות	-10.0198
▁חידות	-10.0199
▁ליסטי	-10.0206
▁דברי	-10.0207
▁תרגום	-10.0212
▁למכור	-10.0212
▁יזון	-10.0212
ניהו	-10.0222
▁אפקט	-10.0235
▁סתיים	-10.0236
▁תערב	-10.0238
▁אוק	-10.0243
▁תקל	-10.0248
▁משא	-10.0248
▁ורחים	-10.0249
▁תכוון	-10.0251
▁זק	-10.0256
▁Win	-10.0258
▁מניות	-10.0259
▁צצ	-10.026
▁יגה	-10.0263
▁חיס	-10.027
▁ציונ	-10.0276
▁דגים	-10.0277
▁בטוחה	-10.0278
▁שיבה	-10.0281
▁מימון	-10.0282
▁ועצת	-10.0282
▁שגריר	-10.0283
▁הסדר	-10.0288
▁יסר	-10.0288
▁שמן	-10.0288
▁ינק	-10.0289
▁ינוס	-10.029
▁מוס	-10.0293
▁הלקוח	-10.0294
▁חלקם	-10.0299
▁רה	-10.0304
▁טינ	-10.0306
▁#	-10.0306
▁היב	-10.0309
▁תחבר	-10.031
▁הודה	-10.0311
▁פנה	-10.0328
▁קנדה	-10.0328
▁עיתו	-10.0329
▁שנתי	-10.0333
▁תכנן	-10.0334
▁Pro	-10.0334
▁פרנס	-10.0338
▁מסביב	-10.0342
▁יבר	-10.0344
▁מגע	-10.0344
▁יטי	-10.0344
▁צרכ	-10.0351
▁שעברה	-10.0351
▁עביר	-10.0351
▁משתנה	-10.0355
▁מורים	-10.0356
▁גילוי	-10.0357
▁יראק	-10.0362
▁אתרי	-10.0367
▁גברת	-10.0372
▁בדרום	-10.0375
▁שומן	-10.038
▁שישי	-10.0383
▁קילו	-10.039
▁וגו	-10.0397
▁בפועל	-10.0398
▁אצבע	-10.04
▁אמונ	-10.0409
▁et	-10.041
▁ליך	-10.0416
▁ממשיך	-10.0422
▁מונע	-10.0424
▁קשים	-10.0426
▁צעו	-10.0432
פגש	-10.0437
▁Le	-10.0445
▁הגבוה	-10.0445
▁ינני	-10.0449
▁100	-10.0466
▁במשחק	-10.0469
▁רחיב	-10.0469
▁אהבתי	-10.0475
▁ופה	-10.0478
▁ספרות	-10.0482
▁סיה	-10.0496
▁הריים	-10.0496
▁גיעה	-10.0498
שלח	-10.05
▁יוס	-10.0504
▁שובות	-10.0508
▁ייפ	-10.0513
▁מכונה	-10.0521
מלי	-10.0521
▁הכריז	-10.0528
▁פילה	-10.0533
▁קצרה	-10.0537
▁מינית	-10.0537
▁מידי	-10.0539
▁יוט	-10.0547
▁וברים	-10.055
▁וגיות	-10.0552
▁הרגש	-10.0556
▁חא	-10.0557
▁לוי	-10.0562
▁חשמלי	-10.0564
▁נייה	-10.0571
▁Di	-10.0572
▁טכני	-10.0575
פעיל	-10.058
▁למידה	-10.0582
ניק	-10.0585
▁הון	-10.06
▁סמכ	-10.0603
▁ביט	-10.0612
עם	-10.0613
▁העור	-10.0616
▁חוצ	-10.0623
▁בוס	-10.0631
▁אמצע	-10.0631
▁גיבור	-10.0636
▁ופל	-10.0643
בתי	-10.0645
▁לן	-10.0647
▁ארט	-10.0649
▁הרוסי	-10.065
▁Fi	-10.0655
▁שן	-10.0656
▁וגן	-10.0665
▁איים	-10.0674
▁מודע	-10.0676
▁ובלים	-10.0685
▁כפול	-10.0685
▁יקל	-10.0686
▁עצים	-10.0687
▁es	-10.0688
▁עס	-10.0689
וחר	-10.069
▁אזורי	-10.0693
▁ליג	-10.0701
va	-10.0707
▁דגל	-10.0709
▁יוון	-10.0709
▁מינים	-10.0716
▁ia	-10.0718
מאס	-10.0718
▁גרי	-10.0731
▁מוש	-10.0731
▁עשים	-10.0732
▁רגשי	-10.0736
▁בנתי	-10.0739
▁המדע	-10.0745
▁מכם	-10.0746
▁חזקה	-10.0747
▁אוטו	-10.0749
▁תקפה	-10.0759
▁התו	-10.0765
▁בץ	-10.077
▁כניס	-10.077
חסו	-10.0775
▁do	-10.0778
▁רות	-10.0781
▁בעיני	-10.0782
▁פרה	-10.0796
▁הוו	-10.0811
▁בוצע	-10.082
▁לאסי	-10.0826
▁אול	-10.0826
שיכו	-10.0826
▁נפל	-10.0827
▁רצוי	-10.083
▁השראה	-10.0831
▁רנס	-10.0833
▁סתר	-10.0844
▁נוכ	-10.085
▁ללה	-10.0853
▁יטול	-10.0856
▁וץ	-10.0867
▁mo	-10.0872
▁זרח	-10.0873
▁עמו	-10.0874
▁An	-10.0876
▁יצה	-10.0878
▁ניסי	-10.0879
▁גבול	-10.088
▁בחלק	-10.0883
▁ווית	-10.0886
▁סוס	-10.0896
▁יתך	-10.0897
▁טרא	-10.0899
▁משל	-10.0899
▁עמים	-10.09
מכ	-10.0903
▁הרשות	-10.0905
▁קדוש	-10.0905
▁אטה	-10.091
▁ליונ	-10.0922
▁שאלו	-10.0929
▁ביר	-10.0945
טר	-10.0947
ציע	-10.0948
▁עשור	-10.0954
▁מוסד	-10.0962
▁רר	-10.0969
▁עלים	-10.0977
▁יניו	-10.0982
ריר	-10.0985
▁ומדים	-10.0985
▁רחק	-10.0989
▁בורג	-10.1004
▁הארי	-10.1013
▁להן	-10.1015
▁No	-10.1018
▁חזיק	-10.1019
▁be	-10.103
▁טין	-10.104
▁דן	-10.1045
▁ולו	-10.1054
▁במחקר	-10.1054
▁רקט	-10.1055
▁מבית	-10.1058
בלתי	-10.106
▁טרון	-10.106
▁סרב	-10.1067
▁שתנה	-10.107
▁טרו	-10.1078
▁טוחים	-10.1079
▁בתא	-10.1088
הם	-10.1092
▁משקיע	-10.1094
▁צב	-10.1094
▁להר	-10.1101
▁ברוח	-10.1104
Y	-10.1108
▁שוף	-10.1113
▁ידיד	-10.1117
נכ	-10.1119
▁הביט	-10.1128
▁יסות	-10.1135
קיבל	-10.1136
▁וויל	-10.1137
▁סיכ	-10.114
▁ברא	-10.1143
▁ארק	-10.1145
אמר	-10.1146
▁רכוש	-10.1147
▁הרג	-10.1152
▁להב	-10.116
▁יירים	-10.1172
▁Do	-10.1176
▁וזרת	-10.1181
▁רופ	-10.1186
▁טענה	-10.1189
▁תות	-10.1207
▁והב	-10.1209
▁המק	-10.1221
▁לילד	-10.1228
▁ימנים	-10.1233
▁ותרת	-10.1233
יטחו	-10.1234
▁יצור	-10.1239
▁Sa	-10.1242
▁מעתי	-10.1245
▁17	-10.1245
▁תחילו	-10.1248
▁ללים	-10.1254
▁po	-10.1254
▁הכלב	-10.1256
▁לעצמו	-10.1258
▁לקט	-10.1258
▁יסוי	-10.1263
▁ציל	-10.1274
▁הכרח	-10.1283
▁סתיר	-10.1283
▁הור	-10.1287
▁פניו	-10.1289
▁קריא	-10.1289
▁דובר	-10.1295
▁תכנ	-10.1308
▁לעבר	-10.1333
▁דבק	-10.1334
▁עמיד	-10.1342
▁חוזה	-10.1348
▁דומים	-10.1348
▁לבנו	-10.1349
▁מתוק	-10.1358
▁וסים	-10.1362
▁נציג	-10.1365
▁נייר	-10.1366
▁שינו	-10.1367
▁רגוני	-10.1389
▁זע	-10.1399
ill	-10.1401
▁מזו	-10.1403
▁Con	-10.1404
▁התקבל	-10.1412
▁Ho	-10.1413
▁נוכח	-10.1413
▁תנגד	-10.1422
▁והה	-10.1424
▁נער	-10.1424
▁אנגל	-10.1427
▁ie	-10.1434
▁לתה	-10.1447
▁da	-10.1455
▁תאבד	-10.1464
▁גבלות	-10.1464
▁ציפור	-10.1464
▁וביל	-10.1468
▁נרי	-10.1472
▁אופי	-10.1475
▁אפל	-10.1475
▁מפעיל	-10.1501
▁ינים	-10.1504
▁טים	-10.1505
▁Bo	-10.1506
▁חלש	-10.1511
▁יסטים	-10.1514
▁הרחב	-10.1516
▁האב	-10.1532
דבר	-10.1545
▁ליוני	-10.1549
▁לפים	-10.1553
▁Ta	-10.1561
▁יבוא	-10.1562
▁Vi	-10.1564
▁מסורת	-10.1565
▁ובדת	-10.1566
ke	-10.1569
▁Wi	-10.1572
▁ונים	-10.1573
▁לאט	-10.1578
▁תז	-10.158
▁לכס	-10.1582
▁פירות	-10.1582
ga	-10.1583
▁איפ	-10.1591
▁חובר	-10.1595
▁הליך	-10.1596
▁ההר	-10.1602
▁it	-10.1605
▁סוכר	-10.1609
▁לויות	-10.161
▁רורה	-10.1615
▁חושת	-10.1617
▁צט	-10.1618
▁רגישה	-10.1618
▁שותף	-10.1623
▁צרו	-10.163
▁דרגה	-10.1633
▁מכך	-10.1634
▁בוש	-10.165
▁שימה	-10.1652
▁בקר	-10.1653
▁יטב	-10.1655
▁עולמ	-10.1655
▁וגה	-10.1657
▁פלה	-10.1658
▁יינו	-10.166
▁ירק	-10.1682
▁סינ	-10.169
ממשל	-10.1694
▁למות	-10.1695
▁דני	-10.1698
▁צאה	-10.1698
▁לאמי	-10.17
▁צרכים	-10.1706
▁פריט	-10.1706
חכ	-10.171
▁מדד	-10.1716
▁כד	-10.1716
▁סלו	-10.1718
▁קרות	-10.1718
▁וגש	-10.1722
▁פיו	-10.1729
▁=	-10.1732
▁חסו	-10.1734
▁למדי	-10.1736
גדר	-10.1739
▁כוב	-10.1743
▁האישי	-10.1754
▁עירה	-10.1758
▁ביה	-10.1759
▁׳	-10.176
▁גורמ	-10.1766
mp	-10.1794
▁Int	-10.1797
▁כרחי	-10.18
▁וזי	-10.1801
▁רקים	-10.1807
▁סטרי	-10.181
▁תון	-10.1811
▁הפרטי	-10.1817
▁לוודא	-10.1819
▁Z	-10.1828
▁שימות	-10.1833
▁בסרט	-10.1837
▁ופנה	-10.1837
▁ive	-10.1868
▁רוש	-10.1872
▁מרק	-10.1872
▁הגיש	-10.1879
▁מנו	-10.1884
כות	-10.1888
▁פצע	-10.1895
▁צוב	-10.1911
▁מכס	-10.1917
▁בחי	-10.1918
▁שאיר	-10.1918
▁החלטת	-10.1918
▁ראיות	-10.192
▁רטון	-10.1923
▁למצב	-10.1934
▁מאי	-10.1937
▁ובה	-10.1941
▁ובין	-10.1955
▁ישות	-10.1966
▁שוד	-10.1967
▁זרחי	-10.1975
קונ	-10.1978
▁יווני	-10.1979
▁Ha	-10.1979
▁יינים	-10.1993
▁המרכז	-10.2001
▁nce	-10.2002
▁ותינו	-10.2008
ישוא	-10.2009
▁יכם	-10.2017
▁ושע	-10.2021
▁עוט	-10.2026
▁מיע	-10.2028
▁המספר	-10.2031
▁עג	-10.2035
▁ידות	-10.2038
▁רכה	-10.2047
▁קוק	-10.2053
▁הגיב	-10.2058
▁דע	-10.2063
▁לידי	-10.2067
▁להח	-10.2082
▁ועיל	-10.2084
5%	-10.2088
▁ca	-10.2094
▁בינו	-10.2103
▁פעול	-10.2112
▁Lo	-10.2118
▁עמדת	-10.2129
▁dows	-10.214
▁דעות	-10.2143
▁מלמד	-10.2144
▁הכולל	-10.2147
כניס	-10.2149
▁צות	-10.2157
▁הסיר	-10.216
▁רמי	-10.2167
▁ment	-10.2168
▁תיאור	-10.2168
▁לבש	-10.217
▁פקו	-10.218
▁בסי	-10.2188
▁דרי	-10.2192
▁אורך	-10.2192
▁[...]	-10.2196
ect	-10.2196
gi	-10.2196
▁זהה	-10.22
▁האש	-10.2209
▁וקי	-10.2212
צביע	-10.2221
▁שתות	-10.2222
▁הווה	-10.2223
▁בשטח	-10.2224
▁נייני	-10.2227
▁קונים	-10.2228
▁סובל	-10.2228
▁וקש	-10.2229
▁ניסה	-10.2231
▁פולי	-10.2232
▁שתמשו	-10.2237
50	-10.2238
רלי	-10.2241
▁וקים	-10.2241
▁ילים	-10.2246
▁נון	-10.2246
▁נשא	-10.2249
ביע	-10.225
▁גני	-10.2252
▁בחו	-10.2254
▁ועדת	-10.2264
▁רסיט	-10.2275
▁ואן	-10.2277
בכל	-10.2278
לוס	-10.2278
▁יסון	-10.2281
▁טחים	-10.2281
▁יסא	-10.2282
▁וטה	-10.2283
▁cro	-10.2284
▁קיימ	-10.2284
▁וך	-10.2289
▁עדות	-10.2295
▁הגר	-10.2312
▁ריי	-10.2316
טים	-10.2318
▁ופיה	-10.2319
▁מלט	-10.2325
▁ויל	-10.2328
▁שלמה	-10.2336
▁Te	-10.2337
▁בספר	-10.2338
▁בוגר	-10.234
▁פלו	-10.2346
▁עתיק	-10.2347
▁ליק	-10.2355
▁שליט	-10.2357
▁בטים	-10.2364
▁זם	-10.2366
ing	-10.2366
▁מוחלט	-10.2367
▁תוכנ	-10.2368
▁המז	-10.2369
▁ספרדי	-10.2377
▁גנת	-10.2391
דף	-10.2396
▁מוני	-10.2398
▁חזרו	-10.2402
▁חומרי	-10.2402
▁תיב	-10.2407
▁ציע	-10.2419
▁פקד	-10.2421
▁ציעה	-10.2422
▁^	-10.2424
▁קם	-10.2445
▁והג	-10.2449
ומט	-10.2454
▁קרו	-10.2463
▁שיב	-10.2479
▁כוז	-10.2483
מובן	-10.2483
▁קע	-10.2487
▁bo	-10.2492
▁סג	-10.2494
▁וואר	-10.2513
▁התחל	-10.252
▁ויד	-10.2524
▁דפס	-10.2528
▁נתונ	-10.2528
▁רשימ	-10.2531
▁קבר	-10.2549
▁ba	-10.2556
▁גרו	-10.2557
▁זור	-10.2558
▁רף	-10.2564
▁WEB	-10.2568
▁an	-10.2569
▁כונה	-10.2572
▁אשם	-10.2574
▁גדר	-10.2577
▁Ad	-10.2581
▁באים	-10.2583
▁שון	-10.2585
יגוד	-10.2595
▁בדים	-10.2607
▁ook	-10.2627
▁תצ	-10.264
▁כרת	-10.2644
▁וטי	-10.2649
▁מבו	-10.2651
▁להצ	-10.2654
ירי	-10.2662
▁ריאל	-10.2666
▁טופ	-10.2666
▁בהי	-10.2669
▁רשה	-10.2677
▁מינו	-10.2685
▁הפיזי	-10.2686
▁ניה	-10.2691
▁להכ	-10.2697
▁צע	-10.2719
▁הצג	-10.2725
▁לבל	-10.2727
הן	-10.2729
▁קווי	-10.2732
▁והל	-10.2732
חשב	-10.2737
▁מקרי	-10.2739
▁עברת	-10.2753
▁קוח	-10.2755
▁רכז	-10.2768
▁נעים	-10.278
▁נין	-10.2784
▁סיני	-10.2789
▁גיר	-10.2795
▁נמוכ	-10.2807
▁מלכת	-10.2808
▁חול	-10.2817
▁תאר	-10.282
▁ריכה	-10.2833
▁הצעיר	-10.2835
▁יפוי	-10.2839
▁משני	-10.2841
▁ולות	-10.2866
▁לרי	-10.2869
▁ענות	-10.287
תיי	-10.2875
▁ומק	-10.2898
▁ימושי	-10.2901
▁כנים	-10.2909
▁דוני	-10.2913
▁שרו	-10.2924
mi	-10.2929
▁בורה	-10.2931
▁מקדש	-10.2955
▁פריי	-10.2962
▁ורשת	-10.2984
▁הגבול	-10.2986
▁יאת	-10.2987
▁ליש	-10.2997
▁התכ	-10.3
דרכ	-10.3005
▁השיב	-10.3007
▁ספס	-10.3017
ell	-10.3017
▁בלות	-10.3018
▁אומה	-10.302
▁מופע	-10.3022
▁בגר	-10.3029
▁קרים	-10.3031
▁הדת	-10.3035
▁ריטי	-10.3047
▁ליזם	-10.3047
▁גורים	-10.3051
▁כוונת	-10.3052
▁Mar	-10.3057
▁יאנ	-10.306
ub	-10.3062
▁כתבו	-10.3065
▁וקב	-10.3076
▁קין	-10.3078
▁Ph	-10.3097
▁פץ	-10.3099
▁נתח	-10.31
▁יגיע	-10.3108
▁וויד	-10.311
▁אוס	-10.3116
▁סוע	-10.3116
▁ורם	-10.3127
ורת	-10.3129
▁נמי	-10.3134
ראות	-10.3154
▁הרוס	-10.3155
▁ואר	-10.3156
▁שלכ	-10.3156
▁דיס	-10.3162
▁ספור	-10.3177
▁שכב	-10.318
co	-10.318
▁איננ	-10.318
▁קני	-10.321
▁לכלית	-10.3212
▁צעת	-10.3215
▁שמיים	-10.3216
כז	-10.3222
▁מלחמ	-10.3232
▁וכרת	-10.3233
▁שצ	-10.324
▁שומ	-10.3241
▁צפ	-10.3249
▁וויי	-10.3251
sh	-10.3253
▁ילר	-10.3265
▁יפול	-10.3265
▁חקיר	-10.3268
▁שיים	-10.327
▁דלה	-10.3285
▁אלוהי	-10.3298
▁חוקר	-10.3299
▁טונ	-10.3301
▁החלל	-10.3313
וספ	-10.332
צוי	-10.3328
▁דונ	-10.333
▁שולח	-10.333
▁ורן	-10.3338
▁אמין	-10.3338
סביב	-10.3355
q	-10.3358
▁יקרו	-10.336
▁ערבי	-10.3361
▁60	-10.3366
▁ציב	-10.337
▁בודה	-10.3385
חצ	-10.3391
▁ריז	-10.3394
▁כשיר	-10.3395
▁חלקה	-10.3412
▁me	-10.3412
▁טעו	-10.3416
▁ועדה	-10.342
▁אמינ	-10.3444
▁יחה	-10.3455
▁ציג	-10.3455
nk	-10.3461
▁ותרו	-10.3471
▁ונט	-10.3477
▁דס	-10.3477
ביא	-10.3482
▁ברק	-10.3491
▁ומס	-10.3495
תיב	-10.3498
▁בוד	-10.3502
▁רתי	-10.351
אס	-10.3514
▁חט	-10.352
▁ועבר	-10.355
▁ווע	-10.3555
▁19	-10.3584
▁לכת	-10.3584
▁מתה	-10.361
▁חשבים	-10.3611
▁שימו	-10.364
▁דיה	-10.3651
▁מקוו	-10.366
▁נוסע	-10.3661
קוד	-10.3665
ent	-10.3669
▁אמינו	-10.367
▁פיט	-10.3678
▁ght	-10.3679
no	-10.3687
▁עתי	-10.3693
▁מסכ	-10.3693
▁אספ	-10.3695
▁שרות	-10.3696
▁יעור	-10.3703
▁סום	-10.3706
▁דרים	-10.3736
▁שעל	-10.3766
▁טלפו	-10.3772
▁משמע	-10.3778
▁סטון	-10.3778
▁כבות	-10.3778
סיפ	-10.379
▁21	-10.3792
▁יירה	-10.38
▁ישיו	-10.3802
▁אמי	-10.3803
▁ורף	-10.3805
▁אנד	-10.3821
▁אמנים	-10.3824
▁כנסו	-10.3825
▁ומים	-10.3829
▁ריט	-10.383
▁רחים	-10.3839
▁מאפ	-10.3843
חקני	-10.3845
▁עט	-10.3848
▁נדו	-10.3851
▁בריו	-10.3856
▁אדו	-10.3862
גם	-10.3862
▁המלא	-10.3875
▁קיבלו	-10.3884
▁אחי	-10.3898
▁תני	-10.3907
▁is	-10.3908
▁הקט	-10.3915
▁הישג	-10.3916
▁פוק	-10.3924
▁ודת	-10.3938
▁לחוק	-10.3945
▁וכב	-10.3957
▁שרק	-10.3959
▁גיט	-10.3959
▁חרת	-10.396
int	-10.3962
וזיק	-10.3981
▁em	-10.4017
▁דדי	-10.402
▁אחיו	-10.4031
▁רובה	-10.4032
▁אביב	-10.4035
▁ורמת	-10.4044
▁ורח	-10.4044
▁\	-10.4045
▁ליחה	-10.4045
▁שירה	-10.4045
▁חולי	-10.4046
▁גלו	-10.4049
▁ימא	-10.4055
▁רוסי	-10.4057
▁בורים	-10.4069
▁הבין	-10.4075
▁כנות	-10.4085
▁אנה	-10.4096
▁ומות	-10.4107
▁ספיק	-10.4113
▁שתו	-10.4132
▁קליט	-10.4139
▁ולמ	-10.4139
▁גילה	-10.4144
▁ph	-10.4156
▁נמצאו	-10.4171
▁יזר	-10.4186
▁Al	-10.4188
▁יקס	-10.4214
▁שניה	-10.4222
▁חפ	-10.4234
כוון	-10.4237
עצמ	-10.4237
▁Ra	-10.4264
▁בחרת	-10.428
▁כאל	-10.4287
ood	-10.4293
▁קלות	-10.4294
▁יעו	-10.4301
הליכ	-10.4309
▁זציה	-10.4319
לית	-10.4319
▁המוני	-10.4323
▁דוש	-10.4326
▁ירס	-10.4329
▁במס	-10.434
▁ריבו	-10.4348
▁ריון	-10.4354
▁פקיד	-10.4358
▁ליני	-10.4363
▁מייל	-10.4363
▁ha	-10.4363
▁התר	-10.4379
▁דוגמ	-10.4389
▁יער	-10.4396
כול	-10.4399
▁מבקר	-10.4399
▁תגל	-10.441
▁ציד	-10.4411
▁וחד	-10.4413
▁ight	-10.4424
▁רעות	-10.4432
▁וכנה	-10.4435
ודיע	-10.4457
▁בחן	-10.4462
▁רול	-10.4474
נדר	-10.4476
▁שגר	-10.4497
▁ודאי	-10.4499
▁ציאה	-10.4501
▁חן	-10.4508
הצ	-10.4509
חרר	-10.4524
▁ולח	-10.4526
▁גוי	-10.4529
סמ	-10.4534
▁הקה	-10.4552
▁צינ	-10.4559
▁המזרח	-10.4565
▁הפסק	-10.4566
▁יפות	-10.4575
מידי	-10.4588
▁פיינ	-10.4588
▁הקב	-10.4595
▁הנפש	-10.4601
▁וסלמי	-10.4602
”	-10.4845
ׂ	-10.5153
ׁ	-10.5155
}	-10.6314
%	-10.6399
’	-10.7533
_	-10.8023
;	-10.8494
ֱ	-10.8593
«	-10.8809
`	-10.9721
→	-11.0086
Z	-11.1221
J	-11.1432
/	-11.1869
é	-11.1915
‭	-11.3613
*	-11.4393
®	-11.5236
ֻ	-11.534
&	-11.6168
°	-11.7173
׃	-11.881
ִ	-11.9064
>	-11.9857
״	-12.0194
–	-12.0902
×	-12.1911
á	-12.2115
+	-12.2277
€	-12.2754
′	-12.2976
‐	-12.4168
í	-12.4424
›	-12.4424
׳	-12.4641
ö	-12.4687
£	-12.4958
ó	-12.4958
ü	-12.5235
ָ	-12.5475
$	-12.5769
ا	-12.6753
=	-12.7742
ل	-12.8159
■	-12.8544
¶	-12.8944
●	-12.8944
ä	-12.936
(	-12.9749
↩	-12.9795
è	-13.025
â	-13.0726
◄	-13.1226
‘	-13.2261
م	-13.2308
	-13.2896
»	-13.3474
§	-13.3521
ç	-13.3521
α	-13.3521
ي	-13.3521
‬	-13.4141
ر	-13.4188
	-13.4902
à	-13.4902
ο	-13.5671
ֿ	-13.5671
−	-13.5671
►	-13.5671
“	-13.6458
τ	-13.6504
و	-13.6504
‹	-13.6504
#	-13.7367
ب	-13.7413
λ	-13.7413
ú	-13.7413
َ	-13.7413
а	-13.8413
️	-13.8413
š	-13.8413
ʉ	-13.8413
κ	-13.8413
ž	-13.9525
ł	-13.9525
̄	-13.9525
θ	-13.9525
о	-13.9525
ֳ	-13.9525
ع	-13.9525
ن	-13.9525
ρ	-14.0775
å	-14.0775
ê	-14.0775
ñ	-14.0775
ς	-14.0775
⬅	-14.0775
^	-14.2157
ō	-14.2203
ι	-14.2203
π	-14.2203
▪	-14.2203
♪	-14.2203
и	-14.2203
ی	-14.387
	-14.387
±	-14.387
γ	-14.387
φ	-14.387
ِ	-14.387
😛	-14.387
É	-14.387
ν	-14.387
н	-14.387
~	-14.5823
—	-14.5823
Р	-14.587
¦	-14.587
ã	-14.587
ć	-14.587
ή	-14.587
β	-14.587
х	-14.587
ت	-14.587
س	-14.587
‍	-14.587
‚	-14.587
	-14.587
ه	-14.587
\	-14.8323
|	-14.8323
с	-14.837
ش	-14.837
ح	-14.837
¢	-14.837
ë	-14.837
ā	-14.837
Ω	-14.837
ά	-14.837
σ	-14.837
О	-14.837
ֽ	-14.837
ك	-14.837
∈	-14.837
	-14.837
æ	-14.837
أ	-14.837
د	-14.837
ε	-14.837
в	-14.837
	-15.1703
	-15.1703
Ü	-15.1703
ø	-15.1703
ś	-15.1703
ɾ	-15.1703
η	-15.1703
С	-15.1703
Т	-15.1703
р	-15.1703
і	-15.1703
֥	-15.1703
ة	-15.1703
ذ	-15.1703
ق	-15.1703
ُ	-15.1703
ْ	-15.1703
٠	-15.1703
ल	-15.1703
―	-15.1703
⁡	-15.1703
□	-15.1703
★	-15.1703
⚡	-15.1703
✔	-15.1703
😂	-15.1703
[	-15.6657
ط	-15.6703
	-15.6703
	-15.6703
¿	-15.6703
Á	-15.6703
ò	-15.6703
õ	-15.6703
ù	-15.6703
û	-15.6703
ý	-15.6703
ī	-15.6703
İ	-15.6703
ő	-15.6703
œ	-15.6703
ţ	-15.6703
ū	-15.6703
ż	-15.6703
ɒ	-15.6703
ʻ	-15.6703
̈	-15.6703
ί	-15.6703
Н	-15.6703
е	-15.6703
т	-15.6703
у	-15.6703
ф	-15.6703
ц	-15.6703
ч	-15.6703
я	-15.6703
֖	-15.6703
װ	-15.6703
إ	-15.6703
خ	-15.6703
ា	-15.6703
‰	-15.6703
↓	-15.6703
∘	-15.6703
∙	-15.6703
∽	-15.6703
≠	-15.6703
≥	-15.6703
▶	-15.6703
☆	-15.6703
❻	-15.6703
❽	-15.6703
⟩	-15.6703
⦁	-15.6703
、	-15.6703
日	-15.6703
黑	-15.6703
	-15.6703
	-15.6703
📄	-15.6703
🔥	-15.6703
😁	-15.6703
😃	-15.6703
😍	-15.6703
😚	-15.6703
ę	-15.6703
й	-15.6703
の	-15.6703
ル	-15.6703
ー	-15.6703
έ	-15.6703
	-16.663
✰	-16.6631
♠	-16.6632
☺	-16.6633
☀	-16.6634
ा	-16.6635
п	-16.6636
д	-16.6637
К	-16.6638
В	-16.6639
δ	-16.664
Ε	-16.6641
ˌ	-16.6642
ň	-16.6643
ħ	-16.6644
ğ	-16.6645
Đ	-16.6646
Č	-16.6647
ă	-16.6648
ÿ	-16.6649
ð	-16.665
Ç	-16.6651
🤔	-16.6652
†	-16.6653
χ	-16.6654
υ	-16.6655
Σ	-16.6656
Ö	-16.6657
Î	-16.6658
	-16.6659
•	-16.666
😊	-16.666
😀	-16.6661
♫	-16.6662
⋅	-16.6663
⁠	-16.6664
ج	-16.6665
Θ	-16.6666
ş	-16.6667
Ł	-16.6668
č	-16.6669
👑	-16.667
√	-16.6671
‒	-16.6672
🙁	-16.6673
Δ	-16.6674
▲	-16.6675
⁄	-16.6676
￼	-16.6677
μ	-16.6678
	-16.6679
ß	-16.668
¬	-16.6681
‡	-16.6682
👈	-16.6683
∗	-16.6684
„	-16.6685
😉	-16.6686
▼	-16.6687
­	-16.6688
♦	-16.6689
©	-16.669
♥	-16.6691
↑	-16.6692
‪	-16.6693
₪	-16.6694
‫	-16.6695
🙂	-16.6696
←	-16.6697
	-16.6698
́	-16.6699
@	-16.67
<	-16.6701
{	-16.6702
Β	-16.6703
Ы	-16.6703
ô	-16.6703
¡	-16.6703
È	-16.6703
Ë	-16.6703
Ó	-16.6703
Ø	-16.6703
Ú	-16.6703
Û	-16.6703
ï	-16.6703
÷	-16.6703
ŋ	-16.6703
Š	-16.6703
Ÿ	-16.6703
Ż	-16.6703
Ž	-16.6703
ư	-16.6703
ș	-16.6703
ț	-16.6703
ɓ	-16.6703
ə	-16.6703
ɛ	-16.6703
ɸ	-16.6703
ʊ	-16.6703
ʌ	-16.6703
ʼ	-16.6703
ˈ	-16.6703
ː	-16.6703
Α	-16.6703
Κ	-16.6703
Τ	-16.6703
Φ	-16.6703
Χ	-16.6703
Ψ	-16.6703
ω	-16.6703
ό	-16.6703
Б	-16.6703
Д	-16.6703
П	-16.6703
Я	-16.6703
г	-16.6703
к	-16.6703
л	-16.6703
ш	-16.6703
ы	-16.6703
Ҫ	-16.6703
Ӑ	-16.6703
Ӗ	-16.6703
ӝ	-16.6703
Ӳ	-16.6703
Ե	-16.6703
Խ	-16.6703
Յ	-16.6703
Ս	-16.6703
ֺ	-16.6703
ׅ	-16.6703
ױ	-16.6703
آ	-16.6703
ئ	-16.6703
ث	-16.6703
ص	-16.6703
ى	-16.6703
١	-16.6703
٢	-16.6703
٨	-16.6703
٩	-16.6703
ٰ	-16.6703
ٹ	-16.6703
چ	-16.6703
ھ	-16.6703
ߟ	-16.6703
ߡ	-16.6703
ं	-16.6703
औ	-16.6703
ग	-16.6703
त	-16.6703
द	-16.6703
न	-16.6703
ब	-16.6703
ि	-16.6703
ी	-16.6703
े	-16.6703
्	-16.6703
ં	-16.6703
ગ	-16.6703
બ	-16.6703
લ	-16.6703
ો	-16.6703
༓	-16.6703
ខ	-16.6703
ភ	-16.6703
ម	-16.6703
រ	-16.6703
ស	-16.6703
ែ	-16.6703
្	-16.6703
ṅ	-16.6703
ạ	-16.6703
ả	-16.6703
ἀ	-16.6703
ὥ	-16.6703
ῦ	-16.6703
‮	-16.6703
⁨	-16.6703
⁩	-16.6703
₹	-16.6703
⇒	-16.6703
∀	-16.6703
∂	-16.6703
∆	-16.6703
∞	-16.6703
≪	-16.6703
≿	-16.6703
⋯	-16.6703
─	-16.6703
▸	-16.6703
▾	-16.6703
◻	-16.6703
◼	-16.6703
☚	-16.6703
☝	-16.6703
♔	-16.6703
♣	-16.6703
✌	-16.6703
✯	-16.6703
❁	-16.6703
❓	-16.6703
❤	-16.6703
❷	-16.6703
❼	-16.6703
❾	-16.6703
➝	-16.6703
⟨	-16.6703
⟵	-16.6703
⭐	-16.6703
ア	-16.6703
ギ	-16.6703
シ	-16.6703
ス	-16.6703
ュ	-16.6703
㪗	-16.6703
三	-16.6703
东	-16.6703
主	-16.6703
九	-16.6703
京	-16.6703
介	-16.6703
以	-16.6703
会	-16.6703
元	-16.6703
列	-16.6703
反	-16.6703
古	-16.6703
名	-16.6703
士	-16.6703
大	-16.6703
学	-16.6703
川	-16.6703
工	-16.6703
幕	-16.6703
广	-16.6703
府	-16.6703
式	-16.6703
徳	-16.6703
慢	-16.6703
拾	-16.6703
旦	-16.6703
本	-16.6703
来	-16.6703
株	-16.6703
民	-16.6703
浪	-16.6703
海	-16.6703
点	-16.6703
理	-16.6703
疽	-16.6703
社	-16.6703
穂	-16.6703
空	-16.6703
章	-16.6703
第	-16.6703
简	-16.6703
算	-16.6703
絵	-16.6703
義	-16.6703
聲	-16.6703
航	-16.6703
色	-16.6703
茶	-16.6703
蒙	-16.6703
術	-16.6703
襲	-16.6703
詞	-16.6703
赤	-16.6703
道	-16.6703
都	-16.6703
鈴	-16.6703
院	-16.6703
髓	-16.6703
黒	-16.6703
랙	-16.6703
블	-16.6703
엠	-16.6703
	-16.6703
	-16.6703
	-16.6703
	-16.6703
	-16.6703
	-16.6703
	-16.6703
	-16.6703
	-16.6703
	-16.6703
﴾	-16.6703
﴿	-16.6703
🇸	-16.6703
🇾	-16.6703
🌈	-16.6703
🌎	-16.6703
🍻	-16.6703
🎉	-16.6703
🎶	-16.6703
🏽	-16.6703
🐔	-16.6703
👉	-16.6703
💉	-16.6703
💔	-16.6703
💖	-16.6703
💜	-16.6703
💫	-16.6703
📁	-16.6703
😄	-16.6703
😅	-16.6703
😆	-16.6703
😈	-16.6703
😏	-16.6703
😐	-16.6703
😒	-16.6703
😜	-16.6703
😦	-16.6703
🙌	-16.6703
🚖	-16.6703
🚘	-16.6703
🤨	-16.6703
🦁	-16.6703
🧼	-16.6703
Ġ	-16.6703
Ś	-16.6703
ف	-16.6703
·	-16.6703
ж	-16.6703
コ	-16.6703
ド	-16.6703
逆	-16.6703
