<unk>	0
<s>	0
</s>	0
▁ה	-0
▁ל	-1
▁א	-2
▁מ	-3
▁ב	-4
ים	-5
▁ש	-6
ות	-7
▁ע	-8
▁ו	-9
▁כ	-10
▁י	-11
ני	-12
▁של	-13
ור	-14
ול	-15
▁את	-16
נו	-17
▁.	-18
ית	-19
▁,	-20
רו	-21
▁ח	-22
▁המ	-23
▁ת	-24
▁לה	-25
וד	-26
▁הי	-27
רי	-28
▁לא	-29
▁נ	-30
▁"	-31
▁ז	-32
די	-33
▁פ	-34
▁על	-35
בר	-36
▁ק	-37
▁הא	-38
יל	-39
נה	-40
וא	-41
▁ג	-42
וב	-43
ון	-44
יר	-45
▁ר	-46
▁ס	-47
יה	-48
יות	-49
ין	-50
שר	-51
ומ	-52
תי	-53
ום	-54
לי	-55
▁ד	-56
מו	-57
שי	-58
▁מה	-59
נים	-60
מה	-61
כל	-62
▁זה	-63
▁צ	-64
ופ	-65
▁אח	-66
▁אי	-67
מי	-68
שה	-69
▁בא	-70
נות	-71
▁הח	-72
בי	-73
▁או	-74
▁הוא	-75
▁הת	-76
▁הש	-77
▁כל	-78
▁הע	-79
טי	-80
וק	-81
וח	-82
רא	-83
▁במ	-84
סי	-85
בל	-86
▁מא	-87
רים	-88
שים	-89
▁למ	-90
לה	-91
▁מש	-92
▁בע	-93
▁שה	-94
▁ט	-95
וע	-96
יי	-97
▁עם	-98
▁לע	-99
▁הפ	-100
וג	-101
כול	-102
לא	-103
▁?	-104
ספ	-105
▁שא	-106
▁מת	-107
▁1	-108
זה	-109
רה	-110
▁(	-111
לו	-112
גי	-113
יים	-114
וצ	-115
▁כי	-116
בה	-117
▁אות	-118
▁יש	-119
▁בי	-120
ותר	-121
▁בש	-122
▁הק	-123
▁-	-124
▁מע	-125
▁אני	-126
▁רו	-127
▁שי	-128
נת	-129
▁הר	-130
▁מי	-131
את	-132
▁הב	-133
▁לי	-134
צי	-135
▁היא	-136
נית	-137
▁לפ	-138
שו	-139
▁יותר	-140
▁הה	-141
▁2	-142
וש	-143
▁אנ	-144
▁לש	-145
דים	-146
רכ	-147
▁גם	-148
▁:	-149
וס	-150
וכ	-151
▁יכול	-152
▁מח	-153
וי	-154
מת	-155
מש	-156
בים	-157
▁היה	-158
▁בה	-159
מים	-160
דר	-161
▁לב	-162
▁לח	-163
ולם	-164
יק	-165
▁מק	-166
▁אם	-167
▁מס	-168
▁הג	-169
▁נו	-170
▁אמ	-171
עות	-172
▁בת	-173
עה	-174
דה	-175
אל	-176
▁הם	-177
טר	-178
▁הכ	-179
בות	-180
שות	-181
כם	-182
בור	-183
▁בח	-184
▁הס	-185
▁אל	-186
מן	-187
▁לק	-188
כו	-189
רת	-190
שת	-191
▁הצ	-192
אי	-193
▁אבל	-194
רח	-195
פי	-196
▁הנ	-197
▁כא	-198
יו	-199
▁)	-200
רג	-201
▁".	-202
00	-203
▁הד	-204
▁הז	-205
בו	-206
אה	-207
לק	-208
חר	-209
עת	-210
נס	-211
וו	-212
▁רק	-213
▁–	-214
דם	-215
▁כדי	-216
עים	-217
אים	-218
▁להיות	-219
קה	-220
לים	-221
מות	-222
פה	-223
▁וא	-224
אות	-225
מצ	-226
חת	-227
כה	-228
חה	-229
▁אפ	-230
▁וה	-231
▁מב	-232
▁אחד	-233
▁אתה	-234
חנו	-235
חות	-236
ירות	-237
▁מכ	-238
ונ	-239
▁מצ	-240
▁פע	-241
ורה	-242
רות	-243
חק	-244
▁עצ	-245
בוד	-246
יא	-247
וף	-248
▁כמו	-249
יד	-250
פת	-251
ברים	-252
▁לת	-253
▁ני	-254
צה	-255
▁צרי	-256
▁יה	-257
▁סי	-258
נט	-259
רט	-260
▁כך	-261
בת	-262
▁להת	-263
יותר	-264
וז	-265
..	-266
בע	-267
וך	-268
ילה	-269
ספר	-270
ולי	-271
▁שלה	-272
יתה	-273
וני	-274
שוב	-275
שראל	-276
▁זו	-277
▁בק	-278
פר	-279
דול	-280
▁מד	-281
כת	-282
כן	-283
▁די	-284
▁שלי	-285
▁עד	-286
ורים	-287
ירה	-288
▁אז	-289
▁הרא	-290
▁טוב	-291
▁בס	-292
▁בכל	-293
▁ביותר	-294
לב	-295
▁שלך	-296
כים	-297
▁שמ	-298
יתי	-299
▁האי	-300
▁הט	-301
▁לו	-302
▁לג	-303
▁המש	-304
▁לד	-305
לת	-306
רב	-307
ונים	-308
▁בר	-309
ילו	-310
לות	-311
▁'	-312
שא	-313
▁זאת	-314
▁ידי	-315
▁...	-316
סט	-317
▁האם	-318
כות	-319
▁ממ	-320
נג	-321
▁!	-322
טה	-323
▁19	-324
▁הזה	-325
קים	-326
▁חי	-327
▁אותו	-328
▁מפ	-329
▁3	-330
▁בפ	-331
ומר	-332
▁בג	-333
▁שלו	-334
דות	-335
דע	-336
שהו	-337
▁20	-338
▁בין	-339
er	-340
▁אנחנו	-341
לח	-342
▁שלנו	-343
▁בב	-344
▁רא	-345
▁מדי	-346
▁S	-347
▁כמה	-348
קי	-349
מוד	-350
וט	-351
▁אין	-352
ניה	-353
▁מאוד	-354
▁שנ	-355
▁פי	-356
▁חד	-357
▁עבור	-358
in	-359
פור	-360
▁היו	-361
▁בכ	-362
עי	-363
זור	-364
ראה	-365
▁לך	-366
ופן	-367
דת	-368
חי	-369
ניות	-370
גיע	-371
▁לפני	-372
רון	-373
▁אנשים	-374
▁A	-375
▁לנו	-376
▁שע	-377
רך	-378
▁ול	-379
דו	-380
▁C	-381
ינו	-382
סף	-383
▁אך	-384
▁לאחר	-385
▁בו	-386
▁לעשות	-387
פות	-388
▁כש	-389
לט	-390
▁האח	-391
ברה	-392
▁צריך	-393
רק	-394
on	-395
▁שב	-396
▁עוד	-397
▁אנו	-398
תה	-399
ולה	-400
טים	-401
▁ישראל	-402
ילים	-403
צים	-404
▁בני	-405
▁עו	-406
ניים	-407
▁דבר	-408
▁יח	-409
▁מג	-410
▁שהוא	-411
an	-412
▁לכ	-413
▁כבר	-414
מיד	-415
מע	-416
▁יוד	-417
▁במק	-418
▁הכל	-419
▁מז	-420
כון	-421
▁הרבה	-422
▁אשר	-423
קר	-424
ירים	-425
▁איך	-426
▁201	-427
▁אמר	-428
לך	-429
▁אינ	-430
▁הבי	-431
".	-432
שב	-433
▁",	-434
▁לצ	-435
חים	-436
סים	-437
▁T	-438
▁כאשר	-439
▁M	-440
נק	-441
ורי	-442
פים	-443
▁4	-444
או	-445
▁[	-446
בודה	-447
▁נית	-448
יש	-449
▁חיי	-450
דרך	-451
▁בצ	-452
סק	-453
▁המק	-454
מר	-455
▁אלה	-456
▁בט	-457
▁באופן	-458
▁פר	-459
כי	-460
▁בנו	-461
▁שלהם	-462
▁הסי	-463
▁שלא	-464
▁אלו	-465
▁גדול	-466
▁5	-467
▁יל	-468
▁אתם	-469
▁חלק	-470
ונה	-471
▁שם	-472
▁P	-473
יע	-474
▁טי	-475
▁היום	-476
▁במה	-477
▁השי	-478
▁אדם	-479
▁רוצה	-480
▁ולא	-481
▁וב	-482
ורת	-483
יצ	-484
▁שנים	-485
▁s	-486
קות	-487
פשר	-488
-1	-489
▁נע	-490
▁תק	-491
▁אחר	-492
חו	-493
▁אחת	-494
שית	-495
▁ות	-496
שון	-497
▁בד	-498
ילי	-499
▁מר	-500
▁אחרי	-501
פק	-502
סה	-503
ילות	-504
נד	-505
ומי	-506
▁שני	-507
▁כול	-508
וכל	-509
ווה	-510
אר	-511
נשים	-512
▁זמן	-513
ריק	-514
▁מט	-515
▁נת	-516
▁כן	-517
▁יצ	-518
▁ים	-519
ברת	-520
רצ	-521
▁העולם	-522
ורך	-523
▁הל	-524
▁B	-525
▁;	-526
▁בל	-527
▁תה	-528
▁למע	-529
ar	-530
שיו	-531
פו	-532
▁לכל	-533
▁הרו	-534
מית	-535
מד	-536
▁יכולים	-537
▁יום	-538
or	-539
▁המח	-540
▁אפשר	-541
סת	-542
▁לרא	-543
▁עדי	-544
▁“	-545
▁להי	-546
▁t	-547
▁להם	-548
▁בית	-549
ולים	-550
▁ית	-551
▁הייתה	-552
פט	-553
וות	-554
ולוג	-555
▁קט	-556
יהם	-557
גע	-558
חיל	-559
en	-560
בד	-561
בא	-562
▁במש	-563
▁חוש	-564
al	-565
▁יהיה	-566
▁אותם	-567
מוש	-568
סטי	-569
▁I	-570
של	-571
צוע	-572
צע	-573
▁כת	-574
▁בדי	-575
כנ	-576
▁בז	-577
הים	-578
▁ממש	-579
▁המע	-580
▁מוצ	-581
at	-582
▁אחרים	-583
צב	-584
כשיו	-585
▁חז	-586
ורות	-587
▁פעם	-588
גר	-589
▁שאני	-590
▁יע	-591
פל	-592
▁משת	-593
▁כאן	-594
▁אלי	-595
▁בשנת	-596
ברי	-597
צר	-598
▁במי	-599
▁נה	-600
▁שלכם	-601
▁D	-602
רכת	-603
▁רי	-604
▁ניתן	-605
בוצ	-606
▁נש	-607
ומים	-608
מא	-609
גה	-610
▁ברי	-611
▁חשוב	-612
▁תמיד	-613
▁הראשו	-614
▁אף	-615
▁הנו	-616
טח	-617
▁וע	-618
▁שיש	-619
▁שהם	-620
וחות	-621
▁200	-622
▁).	-623
▁מספר	-624
גל	-625
▁למה	-626
▁רבים	-627
▁תח	-628
צל	-629
רץ	-630
▁באי	-631
▁להפ	-632
רכז	-633
▁קי	-634
ודה	-635
גים	-636
he	-637
▁בעולם	-638
▁התק	-639
▁אותה	-640
▁נפ	-641
▁לס	-642
▁שנה	-643
בוע	-644
תיים	-645
רוב	-646
▁ואת	-647
ופה	-648
▁6	-649
▁משהו	-650
▁צי	-651
▁נג	-652
▁האמ	-653
▁עוב	-654
▁W	-655
▁פשו	-656
▁אלא	-657
▁מספ	-658
רום	-659
צת	-660
▁נמצ	-661
דש	-662
ומה	-663
es	-664
▁נק	-665
▁באמצ	-666
דינה	-667
וריה	-668
▁המת	-669
זו	-670
▁לל	-671
נם	-672
▁H	-673
▁פת	-674
וץ	-675
פול	-676
▁הגדול	-677
ובה	-678
חד	-679
▁ללא	-680
▁שק	-681
▁עדיין	-682
▁L	-683
ניין	-684
▁הצי	-685
ונות	-686
▁דרך	-687
מין	-688
▁גר	-689
▁שת	-690
▁i	-691
אני	-692
וסי	-693
רונות	-694
תם	-695
גם	-696
יח	-697
▁הן	-698
לל	-699
▁לכם	-700
נחנו	-701
אן	-702
▁G	-703
▁ומ	-704
▁עכשיו	-705
▁שכ	-706
▁באמת	-707
לם	-708
▁אומר	-709
ער	-710
▁R	-711
ירת	-712
פש	-713
▁לראות	-714
תר	-715
מעות	-716
ודי	-717
▁E	-718
▁התי	-719
עם	-720
▁7	-721
גיש	-722
▁ספ	-723
בוה	-724
▁תע	-725
▁במהלך	-726
ובר	-727
-2	-728
▁”	-729
▁הכי	-730
▁להשת	-731
ציה	-732
▁הראשון	-733
ומות	-734
צד	-735
ביר	-736
▁F	-737
וחד	-738
▁אוה	-739
▁אולי	-740
▁אפילו	-741
▁האדם	-742
▁נח	-743
▁הזמן	-744
▁עשו	-745
▁חיים	-746
▁המס	-747
▁אותי	-748
▁פשוט	-749
▁אה	-750
▁נוספ	-751
קד	-752
▁שאתה	-753
קת	-754
▁משפ	-755
לית	-756
▁8	-757
כנס	-758
▁הדי	-759
▁הול	-760
▁מוכ	-761
▁בדרך	-762
▁הספר	-763
▁עצמ	-764
מונה	-765
▁מן	-766
▁בבית	-767
▁שזה	-768
▁חוק	-769
רד	-770
▁השני	-771
ודות	-772
▁היל	-773
▁החיים	-774
▁לט	-775
ic	-776
ודים	-777
▁באמצעות	-778
▁רצ	-779
▁חש	-780
מור	-781
▁מצי	-782
▁צע	-783
▁/	-784
▁תוכ	-785
▁אומ	-786
▁יודע	-787
▁מקום	-788
ברית	-789
▁סט	-790
▁o	-791
▁להב	-792
ולות	-793
▁לקבל	-794
▁N	-795
▁שח	-796
le	-797
דור	-798
ווי	-799
▁לנ	-800
▁הופ	-801
▁רח	-802
קט	-803
ביל	-804
רוש	-805
▁אס	-806
▁היתה	-807
▁מוד	-808
בק	-809
▁כלל	-810
▁מלא	-811
מעט	-812
▁שבו	-813
▁התח	-814
▁רג	-815
▁רוצים	-816
▁יד	-817
ברות	-818
צמ	-819
▁אינו	-820
▁דברים	-821
▁שוב	-822
▁כמ	-823
▁המא	-824
▁לר	-825
▁קשה	-826
re	-827
גות	-828
▁מאז	-829
וה	-830
▁הרי	-831
▁השת	-832
▁שהיא	-833
פון	-834
טרה	-835
▁בן	-836
▁נא	-837
▁אד	-838
it	-839
▁קור	-840
▁עי	-841
▁סוג	-842
▁התע	-843
אם	-844
▁נראה	-845
ופי	-846
▁במקום	-847
▁ארו	-848
צור	-849
ריות	-850
▁צריכים	-851
אלי	-852
▁באות	-853
▁וכ	-854
▁בלי	-855
ליך	-856
▁10	-857
▁כיצד	-858
▁תש	-859
▁עלי	-860
נטר	-861
מל	-862
רכים	-863
ro	-864
▁9	-865
▁פרו	-866
▁החל	-867
▁הייתי	-868
▁בסי	-869
▁הראשונה	-870
▁במשך	-871
▁ההת	-872
▁מיי	-873
▁בהת	-874
▁לפי	-875
גש	-876
בח	-877
▁מנה	-878
ואה	-879
▁אור	-880
▁מוש	-881
▁גי	-882
▁O	-883
▁יכולה	-884
▁ם	-885
▁גור	-886
לסטי	-887
▁כפי	-888
▁חדש	-889
שיך	-890
רצות	-891
▁אלוהים	-892
▁משמעות	-893
▁אירו	-894
000	-895
▁להע	-896
כר	-897
נוי	-898
▁האלה	-899
▁פחות	-900
▁לז	-901
▁ילדים	-902
▁איש	-903
▁נגד	-904
▁רע	-905
וון	-906
ובן	-907
מוק	-908
▁גבוה	-909
▁החברה	-910
נן	-911
▁רוב	-912
▁יוצ	-913
ריך	-914
▁כמעט	-915
ווח	-916
יליון	-917
בט	-918
▁מכל	-919
▁),	-920
קו	-921
▁חוד	-922
▁וי	-923
▁שתי	-924
טת	-925
▁מסוג	-926
נלא	-927
▁אית	-928
▁בתח	-929
מפ	-930
▁מל	-931
▁מידע	-932
▁בלב	-933
▁להג	-934
כב	-935
▁מוע	-936
▁a	-937
▁רב	-938
פא	-939
▁c	-940
▁קוד	-941
יקר	-942
גת	-943
▁למצ	-944
▁חל	-945
▁ספר	-946
צח	-947
▁שבה	-948
וקר	-949
▁פני	-950
קל	-951
נוע	-952
זרח	-953
זר	-954
▁לפע	-955
טל	-956
▁הדבר	-957
שאר	-958
ביב	-959
▁דול	-960
▁מתח	-961
ou	-962
▁וח	-963
▁מהם	-964
▁קרו	-965
דל	-966
נון	-967
st	-968
ומית	-969
▁עבודה	-970
עו	-971
▁תא	-972
▁הגי	-973
▁בתוך	-974
▁הלא	-975
▁נכון	-976
▁עצמו	-977
▁המדינה	-978
כנולוג	-979
לחמה	-980
▁הזו	-981
▁18	-982
▁עושה	-983
▁מיל	-984
ומת	-985
יקה	-986
▁מיליון	-987
▁המי	-988
▁לכן	-989
חור	-990
▁שום	-991
▁מוס	-992
▁רבות	-993
שם	-994
▁הברית	-995
▁תי	-996
▁בגלל	-997
וקים	-998
סו	-999
▁קל	-1000
▁בדיוק	-1001
▁ביום	-1002
▁עשר	-1003
▁בזמן	-1004
▁לדעת	-1005
▁ביק	-1006
▁אותך	-1007
▁הפר	-1008
וסט	-1009
▁הור	-1010
▁בלתי	-1011
▁הטוב	-1012
▁משחק	-1013
ריים	-1014
▁להש	-1015
▁m	-1016
ברו	-1017
פע	-1018
▁לגבי	-1019
▁למרות	-1020
▁שונים	-1021
וצאות	-1022
▁כולם	-1023
▁חס	-1024
שימה	-1025
▁למצוא	-1026
▁הממש	-1027
▁יי	-1028
▁מתוך	-1029
תיד	-1030
צות	-1031
מון	-1032
▁ידע	-1033
סם	-1034
▁מוז	-1035
om	-1036
▁אחרת	-1037
ברסי	-1038
ריקה	-1039
▁העיר	-1040
▁להח	-1041
ing	-1042
מנות	-1043
▁כשה	-1044
רגע	-1045
▁בעלי	-1046
ביא	-1047
מנים	-1048
▁כולל	-1049
ואר	-1050
▁מתי	-1051
▁ואני	-1052
רכי	-1053
שיא	-1054
רבות	-1055
▁קיי	-1056
▁הני	-1057
▁שאי	-1058
▁תהיה	-1059
▁וגם	-1060
▁וזה	-1061
טו	-1062
▁השנה	-1063
קס	-1064
▁קבוצ	-1065
עד	-1066
בול	-1067
▁במיוחד	-1068
el	-1069
▁ברח	-1070
רגון	-1071
▁יחד	-1072
▁מור	-1073
▁לכך	-1074
▁להשתמש	-1075
▁קצת	-1076
קום	-1077
▁יודעים	-1078
▁למי	-1079
▁בטוח	-1080
▁הזאת	-1081
▁לפת	-1082
טות	-1083
וצאה	-1084
▁הלי	-1085
וחר	-1086
▁והוא	-1087
▁להצ	-1088
▁כה	-1089
ואי	-1090
▁לשי	-1091
▁בנ	-1092
נטרנט	-1093
▁d	-1094
▁העבודה	-1095
▁הספ	-1096
ריה	-1097
פתח	-1098
▁מתק	-1099
▁בצורה	-1100
▁תפ	-1101
▁חושב	-1102
▁להכ	-1103
▁p	-1104
כויות	-1105
▁הנה	-1106
גור	-1107
ion	-1108
נטי	-1109
,000	-1110
▁עליו	-1111
▁הפע	-1112
▁חברת	-1113
▁קר	-1114
▁מנת	-1115
▁מספיק	-1116
▁במע	-1117
▁שירות	-1118
▁ולה	-1119
רטים	-1120
▁בשביל	-1121
▁לפחות	-1122
▁הגיע	-1123
▁כזה	-1124
▁פור	-1125
▁במו	-1126
רונה	-1127
▁אר	-1128
▁למש	-1129
ליים	-1130
▁יק	-1131
שיים	-1132
▁הברי	-1133
בית	-1134
למי	-1135
et	-1136
▁במח	-1137
▁הבע	-1138
סטוריה	-1139
▁הדברים	-1140
▁החי	-1141
טית	-1142
▁בהם	-1143
▁קרי	-1144
▁מאשר	-1145
▁ההי	-1146
▁מערכת	-1147
▁פרי	-1148
▁תוך	-1149
▁עומ	-1150
▁טובה	-1151
▁אוכל	-1152
▁שבוע	-1153
▁האמריק	-1154
▁החוק	-1155
▁דולר	-1156
▁חופ	-1157
גו	-1158
וכלו	-1159
▁כיום	-1160
חקר	-1161
סטר	-1162
ניי	-1163
▁מוג	-1164
פקיד	-1165
כור	-1166
מיים	-1167
▁ליי	-1168
▁הטי	-1169
▁תכ	-1170
▁כסף	-1171
▁שאנחנו	-1172
לוט	-1173
דינות	-1174
משים	-1175
▁הדרך	-1176
כונה	-1177
▁מדוע	-1178
זי	-1179
▁הוד	-1180
▁ימים	-1181
is	-1182
▁קשר	-1183
▁מנ	-1184
▁תג	-1185
▁מישהו	-1186
▁l	-1187
▁שעות	-1188
▁נשים	-1189
▁בישראל	-1190
▁החד	-1191
▁אותנו	-1192
וליטי	-1193
▁בשי	-1194
▁האירו	-1195
▁להגיע	-1196
משיך	-1197
▁הבית	-1198
הי	-1199
ולד	-1200
▁בלבד	-1201
oo	-1202
▁לסי	-1203
▁להבין	-1204
▁n	-1205
ליח	-1206
▁קול	-1207
מוך	-1208
▁לזה	-1209
▁נות	-1210
▁ברא	-1211
▁אופ	-1212
▁כנ	-1213
ורק	-1214
▁שאתם	-1215
▁אחרות	-1216
זרה	-1217
▁קיבל	-1218
▁b	-1219
שרד	-1220
▁ראש	-1221
▁נמצא	-1222
אלה	-1223
▁המשפ	-1224
טחון	-1225
▁עמ	-1226
).	-1227
נויות	-1228
▁היח	-1229
▁אינם	-1230
זק	-1231
▁שלוש	-1232
מנ	-1233
סות	-1234
▁מות	-1235
▁בעוד	-1236
▁הרג	-1237
▁עושים	-1238
▁ואז	-1239
סון	-1240
▁בתי	-1241
קש	-1242
▁מסוי	-1243
וקה	-1244
▁מקבל	-1245
▁15	-1246
▁המט	-1247
תים	-1248
▁מגי	-1249
ed	-1250
▁מסת	-1251
ודש	-1252
▁פה	-1253
▁מכן	-1254
▁מרו	-1255
תו	-1256
▁כמובן	-1257
▁199	-1258
▁בנוסף	-1259
נסה	-1260
רפת	-1261
▁העוב	-1262
רכות	-1263
▁?"	-1264
מינים	-1265
ובות	-1266
▁תת	-1267
▁ברו	-1268
▁למעשה	-1269
▁הארץ	-1270
▁זהו	-1271
▁לאי	-1272
▁אש	-1273
▁מזה	-1274
il	-1275
▁לדבר	-1276
ושר	-1277
גיד	-1278
▁במס	-1279
▁ומה	-1280
▁טבע	-1281
רגיה	-1282
▁U	-1283
▁אינה	-1284
▁מבי	-1285
▁מול	-1286
▁הבא	-1287
▁לתת	-1288
▁הללו	-1289
▁סוף	-1290
▁לקחת	-1291
עור	-1292
▁דו	-1293
-19	-1294
משך	-1295
▁האנשים	-1296
▁שימוש	-1297
סיה	-1298
▁הממשלה	-1299
▁V	-1300
▁עק	-1301
▁ללמוד	-1302
ra	-1303
▁12	-1304
▁לעולם	-1305
▁The	-1306
▁לעבוד	-1307
▁בשל	-1308
▁תחת	-1309
▁רש	-1310
▁אב	-1311
▁הלב	-1312
▁מעל	-1313
מבר	-1314
▁הכול	-1315
שובה	-1316
▁מופ	-1317
▁התא	-1318
מס	-1319
▁שהיה	-1320
▁מומ	-1321
▁מוק	-1322
▁of	-1323
מונות	-1324
נסי	-1325
▁אזרח	-1326
סקים	-1327
▁מקצוע	-1328
▁."	-1329
▁גיל	-1330
▁להר	-1331
▁בעי	-1332
▁להס	-1333
ניהם	-1334
▁מכו	-1335
▁כוח	-1336
רבית	-1337
צו	-1338
▁טר	-1339
▁חבר	-1340
▁נוסף	-1341
▁פעמים	-1342
זון	-1343
▁המוצ	-1344
▁חייב	-1345
▁בעיקר	-1346
and	-1347
ופו	-1348
ספק	-1349
▁וש	-1350
זם	-1351
▁לעזור	-1352
▁חשב	-1353
גון	-1354
נתי	-1355
▁אפש	-1356
▁f	-1357
▁שש	-1358
רטי	-1359
▁פל	-1360
▁המכ	-1361
▁ואי	-1362
יוון	-1363
יתוח	-1364
▁אצל	-1365
▁אולם	-1366
ch	-1367
▁האנו	-1368
ומיים	-1369
▁בעצ	-1370
▁קודם	-1371
▁המשפט	-1372
▁זק	-1373
▁לומר	-1374
▁המשחק	-1375
▁האחרון	-1376
▁המה	-1377
▁מים	-1378
▁ברור	-1379
▁מדובר	-1380
▁סרט	-1381
▁גדולה	-1382
▁דקות	-1383
▁הילדים	-1384
שיג	-1385
▁שר	-1386
▁יהיו	-1387
ליט	-1388
סית	-1389
סיון	-1390
ורג	-1391
▁מוב	-1392
▁המב	-1393
זיה	-1394
▁לבד	-1395
▁השנים	-1396
▁פעולה	-1397
▁מעט	-1398
וסר	-1399
▁רואה	-1400
דרה	-1401
ודית	-1402
שור	-1403
▁ליצור	-1404
סיק	-1405
רופה	-1406
▁למח	-1407
▁שנות	-1408
▁גל	-1409
▁רפ	-1410
▁מרכז	-1411
▁ארה	-1412
▁צריכה	-1413
רמ	-1414
▁שומ	-1415
▁כד	-1416
▁מחדש	-1417
רושלים	-1418
▁שכל	-1419
▁הציבור	-1420
דיה	-1421
רכה	-1422
▁בכלל	-1423
▁פרס	-1424
▁הגוף	-1425
▁רוח	-1426
נהל	-1427
▁אג	-1428
▁הפלסטי	-1429
▁לצי	-1430
▁השלי	-1431
חל	-1432
▁חדשים	-1433
ol	-1434
▁אוהב	-1435
▁הסרט	-1436
▁ככל	-1437
קרים	-1438
▁ביט	-1439
▁מבחי	-1440
▁קרובות	-1441
▁זוכ	-1442
▁מוח	-1443
רוא	-1444
▁נוספים	-1445
וניברסי	-1446
ילדים	-1447
▁בתחום	-1448
▁קו	-1449
▁נור	-1450
▁חודשים	-1451
ri	-1452
זיק	-1453
צרים	-1454
▁תנו	-1455
ופים	-1456
▁צורך	-1457
▁שאין	-1458
▁כאלה	-1459
▁בכך	-1460
▁כעת	-1461
כס	-1462
▁הו	-1463
▁למו	-1464
▁למשל	-1465
ביע	-1466
▁הפי	-1467
▁מטר	-1468
▁שונות	-1469
כלה	-1470
▁איזה	-1471
▁שלושה	-1472
נטים	-1473
עתי	-1474
▁מדינות	-1475
כתב	-1476
▁שנת	-1477
פס	-1478
▁השפ	-1479
▁לבית	-1480
▁בפני	-1481
▁נס	-1482
ent	-1483
טיח	-1484
▁in	-1485
▁כח	-1486
ובת	-1487
קור	-1488
▁משום	-1489
טב	-1490
▁בעל	-1491
▁מחקר	-1492
▁30	-1493
▁הבינלא	-1494
▁לאח	-1495
▁קלי	-1496
נויים	-1497
גישה	-1498
am	-1499
דק	-1500
ריט	-1501
▁האד	-1502
ay	-1503
▁באתר	-1504
▁ברחבי	-1505
▁השל	-1506
▁איר	-1507
▁קטן	-1508
שונה	-1509
▁המל	-1510
▁החדש	-1511
ונג	-1512
הול	-1513
▁הקט	-1514
▁מלח	-1515
▁הבח	-1516
▁מצב	-1517
שרה	-1518
וגמה	-1519
▁קורה	-1520
▁תלו	-1521
▁מעור	-1522
▁באותו	-1523
מיכה	-1524
▁שונה	-1525
▁11	-1526
▁ידוע	-1527
▁לאורך	-1528
▁אחוז	-1529
▁ללכת	-1530
דמנות	-1531
כח	-1532
וסיף	-1533
▁J	-1534
סוף	-1535
גרת	-1536
▁מסי	-1537
ייס	-1538
▁התוכ	-1539
טיים	-1540
▁מפני	-1541
מח	-1542
שיר	-1543
▁עסק	-1544
▁כדור	-1545
▁בשנה	-1546
▁האמת	-1547
חרות	-1548
▁לוק	-1549
▁המוע	-1550
▁המוד	-1551
▁לעתים	-1552
▁ילד	-1553
▁עובד	-1554
▁״	-1555
▁עבוד	-1556
עיון	-1557
-20	-1558
▁כגון	-1559
▁חדשה	-1560
ביבה	-1561
נר	-1562
▁תיא	-1563
ow	-1564
▁ספק	-1565
סל	-1566
▁נכנס	-1567
as	-1568
רויות	-1569
▁שאלה	-1570
ac	-1571
▁שהת	-1572
▁עצמי	-1573
▁נב	-1574
▁קרא	-1575
חלט	-1576
▁בתק	-1577
▁מאות	-1578
ופת	-1579
▁”.	-1580
▁the	-1581
ווים	-1582
▁העי	-1583
▁לשמור	-1584
ידע	-1585
▁לכת	-1586
למידים	-1587
מק	-1588
▁ולכן	-1589
▁דור	-1590
▁מני	-1591
לווי	-1592
נסות	-1593
▁ארצות	-1594
ודת	-1595
▁יית	-1596
▁תרו	-1597
רוע	-1598
▁להשיג	-1599
▁לפעמים	-1600
▁מקור	-1601
▁In	-1602
ועל	-1603
▁להפוך	-1604
▁עובדים	-1605
דיו	-1606
us	-1607
זל	-1608
בוצה	-1609
▁ההש	-1610
▁טובים	-1611
▁לקרוא	-1612
▁K	-1613
▁]	-1614
▁ממנו	-1615
אב	-1616
מרי	-1617
▁e	-1618
אתה	-1619
בלת	-1620
▁נד	-1621
▁פעילות	-1622
▁החלט	-1623
▁0	-1624
▁w	-1625
▁דא	-1626
▁שינוי	-1627
כך	-1628
קטי	-1629
▁חברות	-1630
▁סיפור	-1631
▁לשנות	-1632
▁לתק	-1633
טור	-1634
ליה	-1635
▁מעבר	-1636
▁להא	-1637
▁(1	-1638
▁הקה	-1639
כונות	-1640
ve	-1641
וויר	-1642
▁באזור	-1643
לוטין	-1644
▁לחלוטין	-1645
▁אמריק	-1646
▁אמרה	-1647
▁לבצע	-1648
▁כתב	-1649
▁לבין	-1650
▁יב	-1651
▁שות	-1652
▁בגיל	-1653
▁בחיים	-1654
▁המרכז	-1655
▁זכויות	-1656
ואו	-1657
רכו	-1658
▁17	-1659
▁כנראה	-1660
▁בסוף	-1661
▁בעבר	-1662
חילת	-1663
▁חוז	-1664
▁לחשוב	-1665
נא	-1666
▁מאפשר	-1667
קרא	-1668
כנולוגיה	-1669
▁מגיע	-1670
▁שאנו	-1671
▁לחיות	-1672
▁מנו	-1673
▁בשם	-1674
▁עשוי	-1675
▁לעצ	-1676
▁שצ	-1677
▁המצב	-1678
▁תוכנית	-1679
דיר	-1680
בוק	-1681
כולם	-1682
▁כאילו	-1683
▁מאד	-1684
▁בחי	-1685
סר	-1686
▁במקרה	-1687
▁פא	-1688
▁בעיר	-1689
▁רואים	-1690
ילת	-1691
▁סג	-1692
▁שיה	-1693
יכ	-1694
▁הולך	-1695
▁בספ	-1696
שראלי	-1697
מודד	-1698
▁אבי	-1699
▁חול	-1700
▁St	-1701
רבי	-1702
▁16	-1703
▁שמו	-1704
▁להתק	-1705
▁שהי	-1706
פתחות	-1707
רפ	-1708
חידה	-1709
וסים	-1710
וציא	-1711
▁מחש	-1712
ציאות	-1713
▁טיפול	-1714
▁השנייה	-1715
20	-1716
ציות	-1717
▁g	-1718
▁13	-1719
▁מסו	-1720
▁אתכם	-1721
▁משנה	-1722
▁בינלא	-1723
כולת	-1724
▁פול	-1725
ation	-1726
וביל	-1727
שורת	-1728
יקט	-1729
▁ויש	-1730
▁המשפחה	-1731
נאי	-1732
▁תודה	-1733
▁יא	-1734
▁להצי	-1735
יצוב	-1736
▁רבה	-1737
▁בעיות	-1738
פן	-1739
ig	-1740
▁שול	-1741
▁יהודים	-1742
▁עלינו	-1743
דרת	-1744
נצי	-1745
▁תצ	-1746
▁הצל	-1747
▁יו	-1748
▁בעק	-1749
▁שחק	-1750
וחים	-1751
▁אוב	-1752
▁האל	-1753
▁כשא	-1754
▁נרא	-1755
▁הילד	-1756
▁ן	-1757
זרת	-1758
▁קה	-1759
▁בידי	-1760
ot	-1761
ut	-1762
פוש	-1763
▁מונ	-1764
טון	-1765
תף	-1766
▁רכ	-1767
רוץ	-1768
▁והיא	-1769
▁וכל	-1770
▁להסת	-1771
▁האחרונות	-1772
-3	-1773
ופר	-1774
▁חשי	-1775
▁גבוהה	-1776
▁ארב	-1777
▁סוכ	-1778
▁אליו	-1779
▁בקרב	-1780
מודים	-1781
▁איפה	-1782
▁השאלה	-1783
▁משתמשים	-1784
▁חת	-1785
▁טע	-1786
▁הקוד	-1787
▁חדשות	-1788
הליך	-1789
▁מאח	-1790
▁המידע	-1791
▁אומרים	-1792
▁המשת	-1793
▁מבין	-1794
▁מיוח	-1795
▁לטי	-1796
▁מצד	-1797
▁נסי	-1798
▁עוז	-1799
▁מדינה	-1800
שרת	-1801
▁אינט	-1802
▁ואם	-1803
לוויזיה	-1804
מיות	-1805
מצא	-1806
יצור	-1807
יתים	-1808
▁הרח	-1809
▁אומרת	-1810
▁כלומר	-1811
יב	-1812
▁יורק	-1813
▁סביב	-1814
▁חברים	-1815
▁יס	-1816
▁194	-1817
▁Y	-1818
▁עצמה	-1819
▁להק	-1820
▁כלפי	-1821
▁בעת	-1822
▁הקי	-1823
▁עור	-1824
דון	-1825
לול	-1826
▁והם	-1827
▁חומ	-1828
▁הטבע	-1829
▁נוספת	-1830
▁אכ	-1831
▁לבי	-1832
▁בריאות	-1833
ad	-1834
נאים	-1835
▁מהר	-1836
▁מעולם	-1837
▁יפה	-1838
▁מהמ	-1839
▁כלי	-1840
ur	-1841
▁שפ	-1842
▁*	-1843
על	-1844
לפון	-1845
▁עליהם	-1846
▁14	-1847
▁מאת	-1848
▁הפעם	-1849
▁המחקר	-1850
▁חייבים	-1851
בלו	-1852
▁באותה	-1853
▁טרא	-1854
▁מרא	-1855
▁שיי	-1856
אית	-1857
▁נוס	-1858
▁ונ	-1859
▁מדע	-1860
▁שוא	-1861
▁עליה	-1862
▁להתחיל	-1863
▁הנת	-1864
▁דומה	-1865
▁מחוץ	-1866
חן	-1867
▁ארג	-1868
שורים	-1869
לוהים	-1870
▁לבחור	-1871
▁לחזור	-1872
▁הגדולה	-1873
▁בעיה	-1874
ניק	-1875
▁הוכ	-1876
▁קרה	-1877
▁המג	-1878
▁מיד	-1879
▁עולם	-1880
▁המקום	-1881
▁ציבור	-1882
סור	-1883
▁שוק	-1884
▁העיק	-1885
▁מנהי	-1886
▁בנושא	-1887
▁מאוחר	-1888
▁מרגיש	-1889
▁שית	-1890
▁עצמם	-1891
רבה	-1892
▁לעצמ	-1893
▁בעקבות	-1894
▁אהבה	-1895
▁זכ	-1896
▁הבל	-1897
▁משי	-1898
רוג	-1899
▁למען	-1900
▁הצע	-1901
▁לגרום	-1902
▁נתונים	-1903
זב	-1904
פיע	-1905
▁198	-1906
▁בארה	-1907
▁בסופו	-1908
▁הבעיה	-1909
▁25	-1910
▁לשחק	-1911
un	-1912
כיר	-1913
▁הצד	-1914
▁וכן	-1915
▁הרפ	-1916
וצה	-1917
▁ככה	-1918
▁רצי	-1919
▁גברים	-1920
▁להמשיך	-1921
▁h	-1922
▁שנית	-1923
▁משפחת	-1924
▁הסיבה	-1925
▁הסכ	-1926
▁התג	-1927
▁טוע	-1928
▁סוב	-1929
▁50	-1930
▁תר	-1931
▁בסדר	-1932
▁העלי	-1933
▁איכות	-1934
▁חמי	-1935
▁קיים	-1936
▁בתוכ	-1937
▁תהליך	-1938
▁פסי	-1939
▁העול	-1940
רוק	-1941
מוקרט	-1942
ומו	-1943
▁העם	-1944
ודנטים	-1945
זאת	-1946
▁לתוך	-1947
▁'.	-1948
טרי	-1949
▁בזה	-1950
▁פלסטי	-1951
▁לאנשים	-1952
▁מו	-1953
▁אנשי	-1954
▁לדברי	-1955
בלה	-1956
▁מרח	-1957
▁בהתאם	-1958
פוי	-1959
▁אינטר	-1960
▁הית	-1961
▁תוכלו	-1962
▁ערך	-1963
▁הלק	-1964
▁הרוח	-1965
הוב	-1966
▁כוחות	-1967
▁העצ	-1968
▁ועוד	-1969
▁השבוע	-1970
דן	-1971
▁האינטרנט	-1972
נגלית	-1973
פורים	-1974
▁לעומת	-1975
▁רגע	-1976
גרים	-1977
▁אתר	-1978
▁כדאי	-1979
▁לגמרי	-1980
נגד	-1981
▁בארץ	-1982
▁מיליא	-1983
▁המצ	-1984
▁פוליטי	-1985
▁היינו	-1986
▁ייתכן	-1987
נתה	-1988
▁משא	-1989
▁ראשון	-1990
▁סיי	-1991
▁חברי	-1992
בלות	-1993
▁קצר	-1994
▁מתחיל	-1995
▁1.	-1996
כלי	-1997
▁שלום	-1998
▁נמצאים	-1999
▁היהודים	-2000
▁ההג	-2001
ופות	-2002
▁הפת	-2003
ידי	-2004
▁אותן	-2005
יינו	-2006
נח	-2007
▁האחרונה	-2008
מנע	-2009
גוד	-2010
נהגות	-2011
▁החדשה	-2012
ct	-2013
שלום	-2014
▁היית	-2015
▁בהחלט	-2016
▁המלחמה	-2017
חוד	-2018
▁אוט	-2019
מול	-2020
▁197	-2021
קול	-2022
▁בסיס	-2023
▁כמות	-2024
פרי	-2025
יאון	-2026
שאים	-2027
▁היש	-2028
▁העסק	-2029
ופול	-2030
שרים	-2031
▁המוז	-2032
▁בשבוע	-2033
▁עניין	-2034
▁לצאת	-2035
▁נעשה	-2036
▁צבא	-2037
▁הפרו	-2038
▁לספק	-2039
▁[1	-2040
▁אלף	-2041
אנחנו	-2042
בורה	-2043
שבון	-2044
id	-2045
בן	-2046
מך	-2047
ריז	-2048
▁דעת	-2049
▁לשם	-2050
▁ישנם	-2051
▁להביא	-2052
▁להגיד	-2053
▁להתמודד	-2054
שע	-2055
וצר	-2056
וקא	-2057
▁תז	-2058
▁100	-2059
ובי	-2060
▁המאה	-2061
▁הסת	-2062
um	-2063
מץ	-2064
פוס	-2065
מלי	-2066
מנו	-2067
▁שמע	-2068
▁בשנים	-2069
יחס	-2070
▁בפר	-2071
▁לאכול	-2072
▁תומ	-2073
ושבים	-2074
▁אוני	-2075
▁מזון	-2076
▁תוצאות	-2077
▁היחיד	-2078
▁תרבות	-2079
זית	-2080
ינוך	-2081
▁שיכול	-2082
סקה	-2083
▁נקרא	-2084
כוי	-2085
▁למנוע	-2086
▁משפחה	-2087
רחש	-2088
▁ממשלת	-2089
▁ממה	-2090
▁האתר	-2091
▁מתחת	-2092
▁r	-2093
▁40	-2094
▁ארגון	-2095
מיה	-2096
וגרים	-2097
▁השימוש	-2098
▁הבריאות	-2099
▁and	-2100
▁עליך	-2101
זע	-2102
▁חברה	-2103
▁חיו	-2104
חתי	-2105
▁אישי	-2106
▁זוהי	-2107
▁תוכל	-2108
▁נט	-2109
▁זוג	-2110
▁מבוס	-2111
▁ברגע	-2112
▁196	-2113
▁חושבים	-2114
שוא	-2115
▁יכולות	-2116
▁רשת	-2117
▁גרמ	-2118
▁מלחמת	-2119
גוע	-2120
רבים	-2121
▁בינו	-2122
▁מתכו	-2123
כני	-2124
▁יודעת	-2125
▁משתמש	-2126
ודל	-2127
▁הרצ	-2128
▁מאי	-2129
▁שיע	-2130
▁עסקים	-2131
▁er	-2132
ינים	-2133
▁השק	-2134
▁חק	-2135
▁גישה	-2136
למים	-2137
▁מנסה	-2138
טג	-2139
▁-1	-2140
▁חמש	-2141
▁לכתוב	-2142
▁אמא	-2143
▁עבר	-2144
▁עמו	-2145
▁קרוב	-2146
▁ועד	-2147
▁שנו	-2148
▁הבאה	-2149
▁הנשיא	-2150
▁תפקיד	-2151
▁אצ	-2152
▁שרי	-2153
▁תופ	-2154
▁במצב	-2155
▁לקנות	-2156
▁היטב	-2157
מוע	-2158
קשה	-2159
▁למד	-2160
▁באינטרנט	-2161
▁עש	-2162
▁מצא	-2163
▁הצבא	-2164
▁הסיפור	-2165
▁מדה	-2166
פשרות	-2167
▁לוח	-2168
ir	-2169
ימה	-2170
מתי	-2171
ציב	-2172
▁בטי	-2173
▁נכ	-2174
▁עשה	-2175
רוס	-2176
שום	-2177
מוצע	-2178
▁כולנו	-2179
▁שאלות	-2180
▁אישה	-2181
▁מדינת	-2182
וחה	-2183
נדר	-2184
▁מכך	-2185
▁היד	-2186
▁השם	-2187
▁משרד	-2188
נוק	-2189
כלית	-2190
צלחה	-2191
▁מהי	-2192
▁עיר	-2193
▁משות	-2194
▁ך	-2195
ter	-2196
▁''	-2197
▁2.	-2198
▁שט	-2199
▁המוח	-2200
▁כרטי	-2201
▁שהיו	-2202
▁אירופה	-2203
▁•	-2204
▁קונ	-2205
▁קבוע	-2206
ver	-2207
▁ליד	-2208
▁נשא	-2209
▁בשלב	-2210
▁גב	-2211
ויות	-2212
שיות	-2213
רונים	-2214
טא	-2215
▁הגר	-2216
▁במהירות	-2217
לתי	-2218
פיים	-2219
▁למעלה	-2220
כנית	-2221
יונות	-2222
▁חוסר	-2223
▁חוו	-2224
▁בלו	-2225
▁דרכים	-2226
▁היחידה	-2227
▁תמונות	-2228
מנה	-2229
נסים	-2230
▁ביי	-2231
50	-2232
רוני	-2233
וטנצי	-2234
▁זכות	-2235
אום	-2236
▁להז	-2237
▁24	-2238
▁מיני	-2239
▁לעיתים	-2240
▁שמי	-2241
▁הישראל	-2242
▁מדיניות	-2243
רש	-2244
ליק	-2245
▁פרט	-2246
▁הביתה	-2247
▁ירי	-2248
ורף	-2249
▁משפט	-2250
▁אכן	-2251
▁הרש	-2252
▁להרגיש	-2253
▁וכי	-2254
נרגיה	-2255
▁בתור	-2256
▁עולה	-2257
▁צוות	-2258
▁הנתונים	-2259
▁תס	-2260
▁כות	-2261
▁קוב	-2262
▁ספור	-2263
▁מסוימים	-2264
▁פרק	-2265
▁פנים	-2266
▁אוהבים	-2267
▁מכיוון	-2268
▁בפעם	-2269
▁נחש	-2270
▁עשויים	-2271
▁הזדמנות	-2272
▁צפו	-2273
זים	-2274
▁האור	-2275
▁המוש	-2276
▁מאמין	-2277
נדי	-2278
חם	-2279
▁ייח	-2280
▁הראשונים	-2281
▁דין	-2282
▁הפך	-2283
▁ימי	-2284
▁בעצם	-2285
▁המדע	-2286
▁אמריקה	-2287
סוי	-2288
רוך	-2289
▁כוכ	-2290
▁מחפ	-2291
▁נדר	-2292
▁אמית	-2293
ag	-2294
ראות	-2295
▁להיכנס	-2296
▁כב	-2297
▁שג	-2298
ריון	-2299
▁מדברים	-2300
▁ראי	-2301
▁ההיסטוריה	-2302
בתי	-2303
▁ניצ	-2304
▁ביחד	-2305
▁טראמפ	-2306
▁הגבוה	-2307
▁לקוחות	-2308
▁פס	-2309
▁החש	-2310
▁המשי	-2311
▁תיק	-2312
▁גדולים	-2313
ce	-2314
ותו	-2315
▁לחץ	-2316
▁הקור	-2317
ולוגיה	-2318
ורט	-2319
ורית	-2320
▁לעבור	-2321
▁מקווה	-2322
ומיות	-2323
לוק	-2324
▁ראו	-2325
▁צד	-2326
▁מסוגל	-2327
▁המדינות	-2328
▁דם	-2329
גישים	-2330
שויות	-2331
▁בואו	-2332
קב	-2333
▁שיל	-2334
▁החלק	-2335
▁הביטחון	-2336
▁ליה	-2337
▁המוס	-2338
▁במא	-2339
▁סין	-2340
▁נושא	-2341
▁סיבה	-2342
▁במדינה	-2343
▁המד	-2344
▁לבנות	-2345
▁בארצות	-2346
▁להישאר	-2347
▁מיליארד	-2348
מדו	-2349
▁קצ	-2350
▁חיל	-2351
▁ניו	-2352
▁סק	-2353
▁לראשונה	-2354
חלה	-2355
▁!"	-2356
▁כע	-2357
▁התפ	-2358
▁ניהול	-2359
ess	-2360
▁אמרתי	-2361
▁עול	-2362
▁ירושלים	-2363
גן	-2364
▁סכ	-2365
▁מקרה	-2366
▁דווקא	-2367
▁האוכל	-2368
וספ	-2369
▁צל	-2370
▁שנע	-2371
▁גורם	-2372
דית	-2373
▁ההז	-2374
▁הוק	-2375
▁מרי	-2376
▁מאמינים	-2377
▁—	-2378
▁בנק	-2379
▁יצא	-2380
▁התעופה	-2381
עיף	-2382
▁שיהיה	-2383
▁הטיפול	-2384
רחק	-2385
▁לילדים	-2386
נדה	-2387
ניסה	-2388
▁אלפי	-2389
▁בחיי	-2390
שתי	-2391
▁נמו	-2392
פילו	-2393
▁פוע	-2394
▁מערכות	-2395
הבה	-2396
▁משק	-2397
▁שמח	-2398
▁עומד	-2399
▁הטר	-2400
▁אמיתי	-2401
צמבר	-2402
▁חזק	-2403
▁להגן	-2404
▁איראן	-2405
▁אפשרי	-2406
-4	-2407
▁מוצרים	-2408
בלים	-2409
▁חינו	-2410
▁לאור	-2411
▁יהודי	-2412
▁במסגרת	-2413
▁משמעותי	-2414
▁אק	-2415
שייה	-2416
▁צבע	-2417
▁קטנה	-2418
רקע	-2419
▁אמרו	-2420
▁צרפת	-2421
▁שווה	-2422
▁הקד	-2423
▁פולי	-2424
וכן	-2425
סום	-2426
ראי	-2427
גיעה	-2428
▁זר	-2429
שיית	-2430
▁ומע	-2431
▁ממשי	-2432
▁אנרגיה	-2433
▁השירות	-2434
סד	-2435
טרף	-2436
▁לרכ	-2437
▁לשלם	-2438
חס	-2439
ולת	-2440
▁המים	-2441
▁דת	-2442
כונים	-2443
▁מדבר	-2444
אק	-2445
▁בוד	-2446
▁רכב	-2447
▁לדוגמה	-2448
בוש	-2449
לוח	-2450
▁אבא	-2451
▁בנוגע	-2452
▁האוויר	-2453
זיר	-2454
▁הלו	-2455
▁לשמוע	-2456
▁ניסיון	-2457
נהי	-2458
צית	-2459
▁מבט	-2460
▁בבי	-2461
▁המטרה	-2462
▁מסוים	-2463
ניח	-2464
▁האופ	-2465
יס	-2466
▁הכסף	-2467
▁מבלי	-2468
▁לנסות	-2469
▁כתוצאה	-2470
ילום	-2471
▁כללי	-2472
▁אישית	-2473
▁לישראל	-2474
▁עב	-2475
▁מפל	-2476
▁ופ	-2477
ודעה	-2478
▁השחק	-2479
▁וכך	-2480
▁מלחמה	-2481
▁שבועות	-2482
ושי	-2483
▁באירופה	-2484
פך	-2485
ליחה	-2486
▁הוצ	-2487
▁שמת	-2488
▁העתי	-2489
דיניות	-2490
▁תקופה	-2491
▁אפשרות	-2492
פיות	-2493
▁אמת	-2494
וריות	-2495
ניינים	-2496
▁לאחרונה	-2497
טן	-2498
לון	-2499
▁סמ	-2500
▁הדין	-2501
▁העובדה	-2502
במבר	-2503
▁ובכל	-2504
שתו	-2505
▁גופ	-2506
▁הוג	-2507
▁אוניברסי	-2508
שק	-2509
▁X	-2510
▁מעוני	-2511
▁קטנים	-2512
▁הנסי	-2513
▁קבוצה	-2514
▁תרג	-2515
▁נוספות	-2516
▁כספ	-2517
▁שינויים	-2518
▁טיפ	-2519
▁לרו	-2520
▁איתו	-2521
▁הבאים	-2522
▁היהודי	-2523
▁זמ	-2524
ומן	-2525
שיב	-2526
▁יות	-2527
▁יוצא	-2528
▁ארבעה	-2529
▁הטובה	-2530
▁היכולת	-2531
מונים	-2532
▁אילו	-2533
▁אוהבת	-2534
▁כלום	-2535
▁המערכת	-2536
חרי	-2537
▁הים	-2538
...	-2539
▁חצי	-2540
▁הנוכ	-2541
נייה	-2542
▁מיוחד	-2543
▁חר	-2544
טיות	-2545
▁אסטר	-2546
▁עצמך	-2547
▁החשוב	-2548
חית	-2549
▁אליה	-2550
▁דיווח	-2551
למה	-2552
סקי	-2553
רחב	-2554
▁הצה	-2555
▁מוכן	-2556
▁מחיר	-2557
פאים	-2558
▁המלא	-2559
▁חודש	-2560
▁נשיא	-2561
▁מלאה	-2562
▁מאחורי	-2563
▁האזרח	-2564
▁כיוון	-2565
וגר	-2566
▁נז	-2567
-201	-2568
▁החולים	-2569
רתי	-2570
▁ערב	-2571
נתיים	-2572
▁להתע	-2573
פכה	-2574
▁עית	-2575
▁רכי	-2576
ראו	-2577
ושב	-2578
ראת	-2579
▁וד	-2580
▁ספרים	-2581
▁עתי	-2582
▁שבהם	-2583
מדה	-2584
מנט	-2585
סיס	-2586
▁לעמוד	-2587
▁שבע	-2588
▁2015	-2589
▁יחיד	-2590
▁שצריך	-2591
▁תמ	-2592
▁מסע	-2593
▁לימוד	-2594
ילד	-2595
▁זיה	-2596
▁ייש	-2597
▁רחב	-2598
▁אנגל	-2599
▁חשבו	-2600
▁אודות	-2601
▁מעניין	-2602
לץ	-2603
▁הביט	-2604
▁בחודש	-2605
▁ראיתי	-2606
צא	-2607
עבר	-2608
▁הקרו	-2609
▁לשים	-2610
▁ארבע	-2611
▁הקרי	-2612
▁טכנולוג	-2613
▁שרו	-2614
▁היסט	-2615
▁פתרון	-2616
▁גא	-2617
▁יג	-2618
בעים	-2619
טיבי	-2620
▁הגיעו	-2621
▁דה	-2622
▁תלוי	-2623
▁הישראלי	-2624
oc	-2625
סוק	-2626
▁נפר	-2627
ליטים	-2628
▁צעירים	-2629
▁הבינלאומי	-2630
▁לצד	-2631
▁יצירת	-2632
▁וג	-2633
יכרון	-2634
▁לספר	-2635
▁תמיכה	-2636
▁Re	-2637
▁יפ	-2638
חושה	-2639
▁לפעול	-2640
▁ורק	-2641
▁הקבוצה	-2642
▁בהן	-2643
▁הסט	-2644
▁כזו	-2645
▁לנק	-2646
▁האלו	-2647
▁בבוקר	-2648
חרר	-2649
▁תל	-2650
▁יצי	-2651
▁מתע	-2652
▁שגם	-2653
▁השפעה	-2654
▁>	-2655
▁הנא	-2656
▁הנפ	-2657
▁ואף	-2658
▁הסכם	-2659
▁ובע	-2660
▁ייע	-2661
▁שבי	-2662
▁נשאר	-2663
▁תשומת	-2664
▁האחרונים	-2665
▁ing	-2666
▁ההס	-2667
▁מילים	-2668
▁מקבלים	-2669
im	-2670
▁בוח	-2671
▁»	-2672
ורד	-2673
זרו	-2674
▁מלו	-2675
▁עוצ	-2676
▁הלילה	-2677
▁חזרה	-2678
▁בעתיד	-2679
▁דוג	-2680
▁מבחינה	-2681
▁המפ	-2682
▁לשפר	-2683
▁התשובה	-2684
▁בעזרת	-2685
▁חושבת	-2686
▁התיכון	-2687
▁to	-2688
▁הרע	-2689
▁מתא	-2690
▁באוק	-2691
▁בשוק	-2692
▁הקול	-2693
▁ממנה	-2694
▁קש	-2695
▁2014	-2696
▁הופך	-2697
▁ביצוע	-2698
▁מגיעים	-2699
▁קבוצות	-2700
שהי	-2701
▁.”	-2702
▁אוו	-2703
▁הקשר	-2704
▁עלול	-2705
▁במרכז	-2706
▁חולים	-2707
▁יכולת	-2708
▁הארגון	-2709
ul	-2710
▁ראה	-2711
▁שיר	-2712
▁נקודות	-2713
▁התוכנית	-2714
ריכה	-2715
▁שאר	-2716
▁!!	-2717
▁קא	-2718
▁תב	-2719
▁תינו	-2720
▁המשטרה	-2721
▁השלישי	-2722
יט	-2723
▁שעה	-2724
יצוני	-2725
▁כפ	-2726
מדים	-2727
זוב	-2728
▁לדי	-2729
▁עבד	-2730
▁טבעי	-2731
▁בקלות	-2732
▁לשא	-2733
ia	-2734
▁on	-2735
ונית	-2736
▁תכנית	-2737
▁תרופות	-2738
מאס	-2739
עון	-2740
נועה	-2741
▁מצוי	-2742
מם	-2743
ניהול	-2744
▁המלך	-2745
▁לאדם	-2746
▁לגלות	-2747
▁הרב	-2748
▁בחלק	-2749
ליף	-2750
▁לומ	-2751
ייסבוק	-2752
▁ההבד	-2753
ונת	-2754
▁Ch	-2755
כבת	-2756
לנד	-2757
▁השמ	-2758
▁שמש	-2759
ווק	-2760
▁חמ	-2761
▁המון	-2762
▁מנהל	-2763
▁מוקדם	-2764
ie	-2765
▁מיק	-2766
ילויות	-2767
▁למקום	-2768
▁בהי	-2769
▁חוץ	-2770
▁להתי	-2771
▁במידה	-2772
▁תמונה	-2773
רגל	-2774
▁טרי	-2775
כולוג	-2776
▁הגור	-2777
▁נולד	-2778
▁v	-2779
▁|	-2780
מום	-2781
דרות	-2782
▁שניתן	-2783
וניברסיטה	-2784
th	-2785
▁השר	-2786
▁אחריות	-2787
▁הבר	-2788
▁אלקט	-2789
▁לרוב	-2790
▁לקראת	-2791
▁y	-2792
וגה	-2793
▁לבע	-2794
▁להיר	-2795
▁נשמע	-2796
▁הקהילה	-2797
▁עת	-2798
▁מוט	-2799
▁ארוך	-2800
▁בעצמ	-2801
▁נותן	-2802
▁ספורט	-2803
▁ההורים	-2804
▁’	-2805
יתנו	-2806
מינו	-2807
▁לפתח	-2808
▁בתחילת	-2809
ניס	-2810
▁שכן	-2811
▁שאפשר	-2812
▁משחקים	-2813
ורר	-2814
נסת	-2815
▁לבדוק	-2816
▁שאינם	-2817
0%	-2818
טרות	-2819
▁העתיד	-2820
ht	-2821
ִי	-2822
▁מין	-2823
▁כולו	-2824
os	-2825
▁האו	-2826
▁מאושר	-2827
כלו	-2828
▁יתר	-2829
▁סופ	-2830
▁2017	-2831
▁יקרה	-2832
▁ואפילו	-2833
ביות	-2834
▁מהן	-2835
▁הכוח	-2836
▁שימו	-2837
פית	-2838
▁(2	-2839
וסייה	-2840
▁2018	-2841
▁מגוון	-2842
▁מכת	-2843
▁בראש	-2844
▁השמש	-2845
ניו	-2846
פוך	-2847
ברואר	-2848
▁האיש	-2849
רס	-2850
פחה	-2851
ברתי	-2852
מנויות	-2853
▁להבטיח	-2854
▁הגדולים	-2855
ָה	-2856
לקת	-2857
▁שו	-2858
▁הדת	-2859
▁בערך	-2860
▁עזרה	-2861
▁ויותר	-2862
▁רוסיה	-2863
▁תוכניות	-2864
."	-2865
קיע	-2866
▁חסר	-2867
▁נמצאת	-2868
דיל	-2869
▁21	-2870
▁ומת	-2871
ובל	-2872
▁יחסים	-2873
וגל	-2874
טיקה	-2875
סטים	-2876
▁במאי	-2877
▁היכן	-2878
▁מתאים	-2879
▁קיימת	-2880
▁בינואר	-2881
",	-2882
▁k	-2883
ייב	-2884
משו	-2885
חלטה	-2886
▁הכת	-2887
▁כוו	-2888
▁חייו	-2889
טליה	-2890
ומרים	-2891
▁הרכב	-2892
▁בצד	-2893
▁בשב	-2894
▁2013	-2895
▁הדרו	-2896
▁המפל	-2897
▁חוקי	-2898
שיבה	-2899
▁שאם	-2900
▁בסרט	-2901
▁נמ	-2902
▁צה	-2903
▁דברי	-2904
▁נצ	-2905
▁ומי	-2906
▁צעד	-2907
▁חיוב	-2908
▁להור	-2909
▁רחוק	-2910
▁פיתוח	-2911
▁הטובים	-2912
▁3.	-2913
▁בחברה	-2914
ידן	-2915
▁המודר	-2916
לין	-2917
סטית	-2918
▁הפני	-2919
▁ולאחר	-2920
▁להעביר	-2921
▁מאיתנו	-2922
-200	-2923
ביעי	-2924
▁לבקר	-2925
▁כשהוא	-2926
בנה	-2927
▁דמי	-2928
טמבר	-2929
▁אמור	-2930
▁עשרות	-2931
▁היחסים	-2932
▁אינטרנט	-2933
וסף	-2934
▁ואין	-2935
▁להתח	-2936
▁הנכון	-2937
▁An	-2938
▁גד	-2939
▁נהרג	-2940
▁חשבתי	-2941
▁מוכנים	-2942
מיחה	-2943
▁הומ	-2944
▁מסוגלים	-2945
דבר	-2946
ילוס	-2947
▁ממוק	-2948
▁לשעבר	-2949
טרך	-2950
שימת	-2951
▁בלילה	-2952
▁מחפשים	-2953
▁שאנשים	-2954
▁העובדים	-2955
סלא	-2956
ושבי	-2957
▁יצר	-2958
▁שזו	-2959
נגדות	-2960
▁גורמים	-2961
▁מחקרים	-2962
אט	-2963
כתי	-2964
אלות	-2965
גשתי	-2966
▁195	-2967
▁2012	-2968
▁מראש	-2969
▁קבוצת	-2970
▁האחרים	-2971
בס	-2972
▁$	-2973
▁בטח	-2974
▁הוע	-2975
הם	-2976
מכים	-2977
▁התינוק	-2978
▁',	-2979
▁יר	-2980
בטחה	-2981
מינה	-2982
▁כרי	-2983
▁רמת	-2984
זורים	-2985
רישות	-2986
שירים	-2987
▁אזור	-2988
▁לילה	-2989
▁לנצח	-2990
em	-2991
נינו	-2992
▁גרי	-2993
▁ברשת	-2994
▁הנושא	-2995
▁הגל	-2996
▁שמא	-2997
▁ברמה	-2998
▁החלו	-2999
▁מכיר	-3000
▁המוצר	-3001
לטון	-3002
▁לשימוש	-3003
▁התנהגות	-3004
▁הוש	-3005
▁נשק	-3006
▁שקי	-3007
▁האזור	-3008
▁חינוך	-3009
ind	-3010
בעת	-3011
לבד	-3012
▁בבר	-3013
▁גוף	-3014
▁תור	-3015
▁החופ	-3016
▁ראשית	-3017
▁גרמניה	-3018
▁מבק	-3019
▁פוג	-3020
▁משנת	-3021
▁הצורך	-3022
▁איננו	-3023
▁רצון	-3024
▁לזכור	-3025
▁החינוך	-3026
▁העליון	-3027
▁תקשורת	-3028
מקד	-3029
בורים	-3030
▁החלטה	-3031
▁יז	-3032
מויות	-3033
▁כרגע	-3034
▁מוסי	-3035
▁לסייע	-3036
▁קוראים	-3037
▁האירופי	-3038
און	-3039
מפי	-3040
▁דר	-3041
▁איי	-3042
▁האת	-3043
▁קפה	-3044
▁איזו	-3045
▁אמנות	-3046
▁בזכות	-3047
צעים	-3048
▁פחד	-3049
▁2010	-3050
▁2011	-3051
▁בניו	-3052
▁צעיר	-3053
▁המילה	-3054
▁כאב	-3055
▁ההשפ	-3056
▁כבוד	-3057
ושת	-3058
עולם	-3059
▁קומ	-3060
▁בוקר	-3061
▁אתמול	-3062
▁חשיבות	-3063
▁הפלסטינים	-3064
יך	-3065
▁ינו	-3066
▁העית	-3067
▁סביר	-3068
▁בשנות	-3069
▁חלב	-3070
▁ביוני	-3071
▁הלאומי	-3072
▁מתחילים	-3073
סיים	-3074
▁הבחירות	-3075
▁מחוי	-3076
▁האדמה	-3077
▁an	-3078
טובר	-3079
ליטה	-3080
▁בשר	-3081
▁סטי	-3082
▁יוכל	-3083
▁חייבת	-3084
▁הרעיון	-3085
ביש	-3086
▁חכ	-3087
▁הינו	-3088
?"	-3089
▁וס	-3090
▁חג	-3091
דיין	-3092
▁מראה	-3093
▁בספטמבר	-3094
▁המציאות	-3095
▁לבוא	-3096
▁לוקח	-3097
▁יוכלו	-3098
▁בדצמבר	-3099
כנע	-3100
▁הפסי	-3101
▁חמישה	-3102
5%	-3103
באי	-3104
▁23	-3105
ובים	-3106
▁גדל	-3107
▁התחת	-3108
▁להכיר	-3109
▁ואנחנו	-3110
▁מבינים	-3111
▁מסוימת	-3112
▁קד	-3113
לוונ	-3114
▁האש	-3115
▁פיק	-3116
יינים	-3117
▁לצפות	-3118
▁לשאול	-3119
וניברסיטת	-3120
].	-3121
הוא	-3122
▁אקד	-3123
▁הזוג	-3124
▁עיצוב	-3125
▁גדולות	-3126
טוא	-3127
▁סל	-3128
זיקה	-3129
▁סול	-3130
▁אמנם	-3131
▁סוגי	-3132
מוקרטיה	-3133
▁התרבות	-3134
est	-3135
▁כם	-3136
▁ניתוח	-3137
▁להסביר	-3138
▁צו	-3139
▁נצי	-3140
▁ישוע	-3141
▁שירותי	-3142
שתה	-3143
רייה	-3144
▁מוות	-3145
▁פרטים	-3146
תק	-3147
▁לחי	-3148
▁מייצ	-3149
▁מומלץ	-3150
▁סיבות	-3151
▁שיתוף	-3152
op	-3153
ונו	-3154
לום	-3155
עיל	-3156
▁פט	-3157
יוני	-3158
▁החק	-3159
▁חופש	-3160
▁לחפש	-3161
▁להאמין	-3162
▁הלח	-3163
▁משר	-3164
▁סיפ	-3165
גישות	-3166
▁במערכת	-3167
▁‘	-3168
▁הווע	-3169
▁שכבר	-3170
▁בימים	-3171
▁טובות	-3172
▁לעבודה	-3173
▁הפוליטי	-3174
▁הפל	-3175
▁לבח	-3176
וטנציאל	-3177
▁ישירות	-3178
▁להפסיק	-3179
),	-3180
ge	-3181
כרת	-3182
▁גבר	-3183
יימים	-3184
▁שמות	-3185
▁ביקורת	-3186
-6	-3187
למת	-3188
▁למדי	-3189
▁חשבון	-3190
דמנויות	-3191
▁הנוכחי	-3192
▁מכירים	-3193
▁מרגישים	-3194
ne	-3195
▁ענק	-3196
▁נמוך	-3197
▁האמיתי	-3198
בש	-3199
ודו	-3200
▁לגי	-3201
▁המחש	-3202
▁מעדי	-3203
▁עשרה	-3204
▁בהמשך	-3205
▁חשובה	-3206
ופט	-3207
פיה	-3208
▁חדר	-3209
כונית	-3210
▁לאפשר	-3211
▁אפשרויות	-3212
רוד	-3213
▁Ne	-3214
▁ממו	-3215
▁אזרחים	-3216
▁שמה	-3217
▁אנטי	-3218
▁ידעתי	-3219
▁מקומות	-3220
▁לתי	-3221
▁בקרוב	-3222
▁ההחלטה	-3223
▁האנרגיה	-3224
לוש	-3225
▁1,	-3226
דיים	-3227
▁אנג	-3228
▁הגב	-3229
▁מצו	-3230
▁מפור	-3231
▁לכולם	-3232
▁רציתי	-3233
▁שנתיים	-3234
▁האמריקאי	-3235
▁בפע	-3236
▁למשך	-3237
▁ביולי	-3238
▁פעולות	-3239
▁התקשורת	-3240
סא	-3241
▁משה	-3242
▁נוכל	-3243
▁ספצי	-3244
▁אוטומ	-3245
▁הימים	-3246
▁תשובה	-3247
▁הולכים	-3248
▁העניין	-3249
יתם	-3250
כוח	-3251
דימה	-3252
▁(19	-3253
▁בקי	-3254
▁ויד	-3255
▁לבן	-3256
▁בחדר	-3257
▁בתקופה	-3258
▁קיימים	-3259
▁היהודית	-3260
יקים	-3261
▁אספ	-3262
▁ושוב	-3263
▁אליהם	-3264
▁אפריקה	-3265
▁להוסיף	-3266
▁שינה	-3267
▁באוקטובר	-3268
ine	-3269
ברר	-3270
▁נאל	-3271
ard	-3272
▁22	-3273
▁נזק	-3274
שוואה	-3275
▁ממלי	-3276
▁תנאי	-3277
▁המפור	-3278
▁החלטות	-3279
ליו	-3280
ידום	-3281
▁בהק	-3282
▁להתא	-3283
▁לפתוח	-3284
▁רעיון	-3285
ודד	-3286
▁ביחס	-3287
▁החלה	-3288
▁הפנים	-3289
ook	-3290
וזה	-3291
▁הדם	-3292
▁שבת	-3293
וגוסט	-3294
▁בספר	-3295
▁להציל	-3296
▁למק	-3297
▁מהח	-3298
▁ראשו	-3299
▁רפוא	-3300
▁שאינו	-3301
▁בחשבון	-3302
og	-3303
▁באמצע	-3304
▁האישה	-3305
▁עצמנו	-3306
▁ביטחון	-3307
▁בור	-3308
▁סבל	-3309
▁שהמ	-3310
▁מציע	-3311
ap	-3312
רית	-3313
▁מזל	-3314
▁בריט	-3315
▁השוק	-3316
▁מוצר	-3317
▁בחזרה	-3318
▁בול	-3319
▁זוכר	-3320
▁מזרח	-3321
▁60	-3322
▁הבנק	-3323
▁השיר	-3324
▁האמית	-3325
▁לחיים	-3326
ate	-3327
מרו	-3328
▁ברצ	-3329
▁ואתה	-3330
▁מלבד	-3331
▁פופול	-3332
▁בתע	-3333
▁מחר	-3334
כוהול	-3335
▁במקרים	-3336
▁והן	-3337
▁שהן	-3338
▁סוגים	-3339
▁המקצוע	-3340
▁העולמי	-3341
▁בנובמבר	-3342
▁האג	-3343
▁בכדי	-3344
▁ביטוח	-3345
▁המזרח	-3346
▁בעבודה	-3347
our	-3348
▁193	-3349
▁שאל	-3350
▁הערב	-3351
▁st	-3352
▁יהם	-3353
▁במשחק	-3354
▁הוסיף	-3355
אין	-3356
רוכה	-3357
▁לספ	-3358
▁שהא	-3359
▁יחסי	-3360
▁לטפל	-3361
▁התלמידים	-3362
ity	-3363
מידה	-3364
▁עתה	-3365
▁ממני	-3366
▁כלשהו	-3367
ודאי	-3368
נקים	-3369
▁אלב	-3370
▁בבע	-3371
▁המחיר	-3372
▁מטרות	-3373
all	-3374
פוץ	-3375
▁פק	-3376
ותרת	-3377
נדון	-3378
▁2016	-3379
▁נפלא	-3380
קטיבי	-3381
▁הנשים	-3382
▁להימנע	-3383
ליחו	-3384
▁בפי	-3385
▁שלב	-3386
בוהים	-3387
▁2009	-3388
▁משמש	-3389
▁שמונה	-3390
▁סטודנטים	-3391
▁מתאי	-3392
▁אוויר	-3393
▁השלום	-3394
▁אחוזים	-3395
▁התמונה	-3396
-5	-3397
▁צמ	-3398
ופיע	-3399
▁היי	-3400
▁מתנה	-3401
ותה	-3402
...]	-3403
מרים	-3404
פייה	-3405
קלים	-3406
▁ביל	-3407
▁בסך	-3408
▁היע	-3409
▁ללק	-3410
▁נאמר	-3411
רן	-3412
ישור	-3413
תפים	-3414
▁נדי	-3415
▁איתם	-3416
▁[...]	-3417
חרור	-3418
▁במג	-3419
▁אסור	-3420
▁המחשב	-3421
art	-3422
ובלי	-3423
לושה	-3424
▁מהווה	-3425
▁משמעותית	-3426
▁יור	-3427
▁בשעה	-3428
▁מתוכ	-3429
▁עשויה	-3430
▁תקופת	-3431
▁מיוחדת	-3432
▁"?	-3433
▁אמי	-3434
▁מפר	-3435
יקטים	-3436
▁המור	-3437
▁העור	-3438
▁ליום	-3439
▁ארוכה	-3440
▁שליטה	-3441
gle	-3442
▁חזר	-3443
בוצות	-3444
▁לטיפול	-3445
גיט	-3446
▁אמו	-3447
▁ספי	-3448
▁בגוף	-3449
▁עדיף	-3450
▁הרופא	-3451
▁משפחות	-3452
▁האפשרות	-3453
▁ההצ	-3454
▁שהח	-3455
ולוגי	-3456
▁לרכוש	-3457
▁מבחינת	-3458
se	-3459
ינה	-3460
▁Al	-3461
פריל	-3462
▁בהכ	-3463
▁בחר	-3464
▁נוצ	-3465
▁נפג	-3466
▁מאחר	-3467
▁שעבר	-3468
▁המוות	-3469
▁לזהות	-3470
▁ביניהם	-3471
▁הצדדים	-3472
▁באוגוסט	-3473
וניים	-3474
▁..."	-3475
▁בשני	-3476
-8	-3477
בירה	-3478
▁אדי	-3479
▁הפעילות	-3480
לס	-3481
▁ארץ	-3482
▁לתח	-3483
▁הגנה	-3484
ab	-3485
▁ויל	-3486
▁נול	-3487
▁אינן	-3488
ודא	-3489
▁ניק	-3490
▁בחוץ	-3491
▁בנות	-3492
▁פרטי	-3493
▁העיקר	-3494
▁לעזוב	-3495
▁האנושי	-3496
▁האנושות	-3497
▁גרם	-3498
▁בריא	-3499
▁במזרח	-3500
▁לעצור	-3501
▁לצורך	-3502
וצים	-3503
▁שטח	-3504
▁2008	-3505
▁אופן	-3506
▁סרטן	-3507
▁התהליך	-3508
▁36	-3509
▁Goo	-3510
▁for	-3511
ונאים	-3512
▁לאתר	-3513
▁פתוח	-3514
▁רמות	-3515
▁שלישי	-3516
▁בירושלים	-3517
▁נחשב	-3518
▁שלהן	-3519
▁מוחלט	-3520
▁נכונה	-3521
מט	-3522
▁[2	-3523
כחות	-3524
▁בסין	-3525
▁מודר	-3526
▁עונה	-3527
▁ההבדל	-3528
▁להציג	-3529
▁הפעולה	-3530
ft	-3531
ואל	-3532
ריע	-3533
▁Sh	-3534
▁re	-3535
ריכים	-3536
▁למות	-3537
▁רווח	-3538
▁נמוכה	-3539
ak	-3540
▁הוב	-3541
נגטון	-3542
▁הארי	-3543
▁לבני	-3544
▁מטופ	-3545
▁מילה	-3546
▁שווי	-3547
גנון	-3548
▁צוד	-3549
▁תואר	-3550
▁אירועים	-3551
▁בריטניה	-3552
▁”,	-3553
▁מרק	-3554
▁ריק	-3555
▁הצליח	-3556
▁מצרים	-3557
▁סיכוי	-3558
▁הישראלית	-3559
ען	-3560
▁&	-3561
וכה	-3562
רוח	-3563
▁28	-3564
מאות	-3565
▁איתי	-3566
▁בהיסטוריה	-3567
▁סתם	-3568
▁ואמר	-3569
▁חומר	-3570
▁לנהל	-3571
▁יחסית	-3572
▁חיילים	-3573
▁הבינלאומית	-3574
▁שיק	-3575
▁קדימה	-3576
▁במדינות	-3577
אס	-3578
נש	-3579
ight	-3580
▁חרי	-3581
מצאים	-3582
רמניה	-3583
▁רופא	-3584
▁הלקוחות	-3585
▁המשמעות	-3586
כנן	-3587
▁השו	-3588
▁ולק	-3589
▁לקח	-3590
▁2007	-3591
▁הבאות	-3592
פיל	-3593
תיע	-3594
צועים	-3595
▁חברתית	-3596
קן	-3597
ונס	-3598
צעי	-3599
▁26	-3600
ביעה	-3601
▁הבה	-3602
ודיים	-3603
▁עליי	-3604
▁שמחה	-3605
▁פרסום	-3606
▁בצי	-3607
▁מרג	-3608
▁2019	-3609
od	-3610
יימת	-3611
▁האב	-3612
▁ירד	-3613
▁לאן	-3614
▁מתמ	-3615
▁הפכה	-3616
▁טרור	-3617
▁בבקשה	-3618
▁הגיעה	-3619
▁לישון	-3620
▁לציין	-3621
▁מנסים	-3622
▁להראות	-3623
נך	-3624
ובע	-3625
עתם	-3626
שוף	-3627
ושים	-3628
▁קבלת	-3629
▁זקוקים	-3630
▁חזקה	-3631
▁מידי	-3632
▁התוצאות	-3633
נצ	-3634
▁היצ	-3635
▁דרום	-3636
▁האהבה	-3637
▁החברת	-3638
▁לקבוע	-3639
▁תשלום	-3640
▁המילים	-3641
com	-3642
לחת	-3643
▁35	-3644
▁?”	-3645
▁מדהים	-3646
▁התפתחות	-3647
אבל	-3648
וכים	-3649
ניהו	-3650
▁מטרה	-3651
▁משקל	-3652
▁נושאים	-3653
▁הלאומית	-3654
מני	-3655
▁שוכ	-3656
▁לממש	-3657
▁נכתב	-3658
▁פתאום	-3659
▁שיעור	-3660
▁הסביבה	-3661
▁טל	-3662
גיעו	-3663
▁הנע	-3664
▁להתג	-3665
▁טלוויזיה	-3666
ort	-3667
ברט	-3668
ויד	-3669
זין	-3670
מצאו	-3671
וניות	-3672
▁פעיל	-3673
▁קשור	-3674
▁ראשי	-3675
▁האיחוד	-3676
▁האירוע	-3677
▁בּ	-3678
▁ור	-3679
▁במספר	-3680
▁בעניין	-3681
▁מציאות	-3682
ועה	-3683
▁התמ	-3684
▁ניס	-3685
▁תוספ	-3686
▁חופשי	-3687
▁שניהם	-3688
▁שעברה	-3689
ויח	-3690
נאה	-3691
▁עתיד	-3692
▁התחיל	-3693
▁עליכם	-3694
▁באפריל	-3695
▁הידע	-3696
▁כנגד	-3697
▁וידאו	-3698
▁להציע	-3699
▁ליהנות	-3700
▁אוניברסיטת	-3701
▁4.	-3702
▁Th	-3703
▁it	-3704
▁מצט	-3705
ריאות	-3706
שובות	-3707
▁הצלחה	-3708
▁להניח	-3709
▁לייצר	-3710
▁העיקרי	-3711
▁התוצאה	-3712
▁עומדים	-3713
פוט	-3714
▁דח	-3715
▁עז	-3716
לבום	-3717
צחון	-3718
רחים	-3719
▁החז	-3720
▁להד	-3721
▁האפש	-3722
▁מושג	-3723
▁#	-3724
ונש	-3725
קוב	-3726
ופיה	-3727
▁דוד	-3728
▁וול	-3729
▁פות	-3730
▁המוב	-3731
▁לבקש	-3732
▁בפברואר	-3733
▁להן	-3734
▁עורך	-3735
▁לבסוף	-3736
▁שלושת	-3737
גרי	-3738
▁גיד	-3739
▁החת	-3740
▁היס	-3741
▁כרטיס	-3742
▁לפתור	-3743
שן	-3744
קסט	-3745
▁הפא	-3746
▁למס	-3747
▁נבח	-3748
בויות	-3749
וונים	-3750
▁כזאת	-3751
▁מוזיקה	-3752
ביבת	-3753
▁רצה	-3754
▁זמין	-3755
▁להיע	-3756
▁מדוי	-3757
▁המזון	-3758
▁אסטרטג	-3759
▁להוציא	-3760
▁הראש	-3761
▁מתרח	-3762
▁עמוק	-3763
▁הזכות	-3764
נשי	-3765
ריד	-3766
▁27	-3767
▁191	-3768
▁מנג	-3769
▁סנט	-3770
▁2000	-3771
▁מידה	-3772
▁חייהם	-3773
▁מרבית	-3774
▁אמיתית	-3775
▁בתהליך	-3776
פד	-3777
שׁ	-3778
ובב	-3779
בלתי	-3780
▁דרו	-3781
▁מסר	-3782
▁הקונ	-3783
▁כולה	-3784
▁קורא	-3785
▁ההגנה	-3786
▁ובי	-3787
▁הפרט	-3788
▁חוזר	-3789
▁לגיל	-3790
▁Se	-3791
דמות	-3792
וגים	-3793
▁ויר	-3794
▁השפה	-3795
▁קטנות	-3796
ff	-3797
ub	-3798
לן	-3799
דרש	-3800
ננים	-3801
▁מהא	-3802
▁החברות	-3803
▁לדבריו	-3804
▁מחשבות	-3805
ורא	-3806
פעל	-3807
אלית	-3808
▁העבר	-3809
▁מתקד	-3810
▁אלינו	-3811
▁חיפוש	-3812
▁הסיכון	-3813
▁חשובים	-3814
דרים	-3815
▁גזע	-3816
▁הנח	-3817
▁מפח	-3818
▁שלם	-3819
ודיות	-3820
▁חיות	-3821
▁מותר	-3822
ריטניה	-3823
▁במטרה	-3824
▁כשאני	-3825
▁תחרות	-3826
one	-3827
▁טור	-3828
▁שנא	-3829
▁עובר	-3830
▁שחור	-3831
▁מסתכל	-3832
▁המוצרים	-3833
▁עץ	-3834
וויה	-3835
▁העת	-3836
▁זכה	-3837
▁לעצמי	-3838
ice	-3839
ive	-3840
▁סא	-3841
▁צפוי	-3842
▁ארוחת	-3843
▁במחקר	-3844
▁העונה	-3845
▁היסטוריה	-3846
-7	-3847
▁+	-3848
אתם	-3849
חשב	-3850
משי	-3851
דרגה	-3852
▁ליצ	-3853
▁התרג	-3854
▁מושלם	-3855
▁אלימות	-3856
▁יכולתי	-3857
ob	-3858
ומט	-3859
▁בך	-3860
▁גרו	-3861
▁להיפ	-3862
▁בפועל	-3863
▁ישראלים	-3864
▁הטכנולוגיה	-3865
▁דני	-3866
▁מעצ	-3867
▁עיק	-3868
▁פינ	-3869
▁איתך	-3870
▁השתת	-3871
▁זקוק	-3872
▁מקרים	-3873
▁נקודת	-3874
▁־	-3875
ast	-3876
בצע	-3877
▁דג	-3878
▁Pro	-3879
ביעות	-3880
לויות	-3881
▁ואיך	-3882
▁לידי	-3883
▁למכור	-3884
▁לעלות	-3885
▁רעיונות	-3886
וטים	-3887
זציה	-3888
▁ברוב	-3889
▁נישוא	-3890
וקף	-3891
▁אגב	-3892
▁להיל	-3893
▁מותו	-3894
▁מחשב	-3895
▁בעלות	-3896
▁הלקוח	-3897
▁תכונות	-3898
▁זי	-3899
לאות	-3900
שאיר	-3901
▁נתן	-3902
▁אידי	-3903
▁הנית	-3904
▁למצב	-3905
▁סיפר	-3906
▁להוביל	-3907
עדה	-3908
עוד	-3909
▁לפנות	-3910
▁הטלפון	-3911
גרם	-3912
ושות	-3913
▁לדא	-3914
▁עקב	-3915
קיעים	-3916
▁הינה	-3917
▁המוק	-3918
▁מעמד	-3919
▁בניגוד	-3920
▁הלימודים	-3921
נטית	-3922
▁יוע	-3923
▁קיל	-3924
▁שתה	-3925
▁בדרום	-3926
▁הפלסטינית	-3927
ונל	-3928
▁לשת	-3929
▁מחלות	-3930
▁מרכזי	-3931
▁שניים	-3932
▁פעמיים	-3933
▁הגדולות	-3934
ייט	-3935
תיבה	-3936
▁ראוי	-3937
▁הבלתי	-3938
▁המטופ	-3939
▁הנראה	-3940
▁התנועה	-3941
▁תלמידים	-3942
▁u	-3943
▁De	-3944
▁en	-3945
▁מלון	-3946
▁אישור	-3947
▁ייצור	-3948
▁לנשים	-3949
עש	-3950
סיקו	-3951
▁הנק	-3952
▁כיף	-3953
▁פלי	-3954
▁תשת	-3955
וקטור	-3956
▁בעלת	-3957
▁סעיף	-3958
▁צפון	-3959
▁הקודם	-3960
▁מצליח	-3961
▁תנועה	-3962
וסטר	-3963
קציה	-3964
▁הבט	-3965
▁לאט	-3966
▁שאמר	-3967
▁הכלכלי	-3968
▁מקורות	-3969
בדה	-3970
פני	-3971
בנות	-3972
▁גבי	-3973
▁הכרח	-3974
▁ישנה	-3975
ישורים	-3976
רגונים	-3977
▁מרגישה	-3978
טלק	-3979
ננו	-3980
▁אט	-3981
▁מכם	-3982
▁הגרמ	-3983
▁החמי	-3984
▁מתרג	-3985
▁הצוות	-3986
▁לעצמו	-3987
▁עצמכם	-3988
▁במילים	-3989
▁הבחירה	-3990
▁בהשוואה	-3991
▁בינתיים	-3992
כום	-3993
▁באמ	-3994
רופות	-3995
▁השטח	-3996
▁ניסו	-3997
▁להשפיע	-3998
▁וו	-3999
▁חפ	-4000
ידות	-4001
▁והת	-4002
▁שור	-4003
ירותים	-4004
▁הורים	-4005
▁עצמית	-4006
▁פשוטה	-4007
▁המפלגה	-4008
▁פרויקט	-4009
▁שד	-4010
▁משכ	-4011
▁הרשת	-4012
▁ישראלי	-4013
-18	-4014
▁Un	-4015
▁בבח	-4016
▁דיא	-4017
▁לכא	-4018
▁ללי	-4019
נסייה	-4020
▁ברית	-4021
▁ברצי	-4022
▁החלל	-4023
▁כשאתה	-4024
▁רלוונ	-4025
▁בשימוש	-4026
▁ועכשיו	-4027
▁ההזדמנות	-4028
רז	-4029
ill	-4030
ובד	-4031
▁Com	-4032
▁סקר	-4033
▁מסכים	-4034
כרה	-4035
▁ירו	-4036
▁עוס	-4037
▁שבא	-4038
▁שפה	-4039
▁אביו	-4040
▁הפכו	-4041
▁השאר	-4042
▁כשהם	-4043
▁לחלק	-4044
▁מעוד	-4045
▁סימן	-4046
▁הבוקר	-4047
▁Ex	-4048
▁You	-4049
▁קלא	-4050
▁לשתף	-4051
▁מוצא	-4052
▁שחקן	-4053
▁תוכן	-4054
▁המחלה	-4055
▁ראשונה	-4056
ell	-4057
בעות	-4058
▁לתקן	-4059
▁החוצה	-4060
▁לטובת	-4061
תיי	-4062
▁בבתי	-4063
▁המבק	-4064
▁מהיר	-4065
▁האישי	-4066
▁הבנתי	-4067
▁השתמש	-4068
▁השונים	-4069
▁שחקנים	-4070
▁ממך	-4071
▁בכמה	-4072
▁מספק	-4073
▁שיער	-4074
▁ברורה	-4075
▁רפואי	-4076
▁אנגלית	-4077
▁פתרונות	-4078
ue	-4079
אג	-4080
ומם	-4081
חוק	-4082
▁נוה	-4083
▁מחפש	-4084
▁ואילו	-4085
▁החוקרים	-4086
▁המערבית	-4087
▁לפר	-4088
▁פית	-4089
▁קרב	-4090
לימות	-4091
▁במאה	-4092
▁הבדי	-4093
▁מופי	-4094
▁מפתח	-4095
▁עוזר	-4096
▁אירוע	-4097
▁המשות	-4098
▁התקופה	-4099
רצו	-4100
כרות	-4101
▁עברו	-4102
ואן	-4103
רוף	-4104
בדות	-4105
סמים	-4106
▁נורא	-4107
▁בטוחה	-4108
▁הכדור	-4109
▁לשלוח	-4110
▁נתניהו	-4111
▁פלסטינים	-4112
-9	-4113
גוש	-4114
▁is	-4115
▁בקה	-4116
▁נשי	-4117
▁האקד	-4118
▁ממשיך	-4119
▁הכוחות	-4120
▁למדינה	-4121
ועלת	-4122
ופעה	-4123
▁למא	-4124
▁הפרי	-4125
▁התרח	-4126
▁זרים	-4127
▁הנוכח	-4128
▁חם	-4129
▁בעד	-4130
וריאה	-4131
קידים	-4132
▁לעבר	-4133
▁רגשות	-4134
▁תחושה	-4135
▁Google	-4136
▁פועלים	-4137
▁הזדמנויות	-4138
סן	-4139
▁("	-4140
▁שס	-4141
▁ויט	-4142
▁ומו	-4143
▁ומש	-4144
▁מתג	-4145
▁ביטוי	-4146
▁סיכון	-4147
▁שקורה	-4148
סטרו	-4149
▁לני	-4150
▁מהש	-4151
▁סדר	-4152
▁הכלב	-4153
▁הקיץ	-4154
▁כותב	-4155
▁פסיכולוג	-4156
גד	-4157
▁אנד	-4158
▁קבע	-4159
▁לשמש	-4160
▁בהרבה	-4161
▁בעיני	-4162
▁הראשי	-4163
ותי	-4164
▁Wh	-4165
אללה	-4166
כאון	-4167
▁פלא	-4168
▁Wind	-4169
▁דופן	-4170
▁החוץ	-4171
▁רגיל	-4172
▁בצפון	-4173
▁הופיע	-4174
▁לפגוע	-4175
▁החדשות	-4176
-10	-4177
▁Con	-4178
▁באו	-4179
▁הקל	-4180
▁יקר	-4181
▁לשו	-4182
▁מלך	-4183
▁קוס	-4184
▁תפי	-4185
▁2006	-4186
▁חשמל	-4187
▁לשני	-4188
▁פועל	-4189
ומנויות	-4190
▁באנגלית	-4191
יתוף	-4192
▁האר	-4193
▁לקה	-4194
▁מאה	-4195
▁בקשר	-4196
▁ילדי	-4197
▁ספרי	-4198
▁ההיסט	-4199
▁כלבים	-4200
▁מקצועי	-4201
▁אלכוהול	-4202
▁הראשונות	-4203
נב	-4204
ark	-4205
▁וק	-4206
▁ולח	-4207
▁צורה	-4208
▁להרוג	-4209
רם	-4210
מיר	-4211
▁הדלת	-4212
▁הלבן	-4213
▁עבודת	-4214
▁צילום	-4215
▁מתחילה	-4216
דלים	-4217
ופית	-4218
▁לחת	-4219
▁פיר	-4220
▁אחרא	-4221
▁חובה	-4222
▁בצרפת	-4223
▁לאהוב	-4224
▁הבעיות	-4225
▁העיניים	-4226
פתחו	-4227
▁ייצ	-4228
כולנו	-4229
▁הקמת	-4230
▁כחלק	-4231
▁לחוק	-4232
▁שישה	-4233
▁עלולים	-4234
אנו	-4235
ובוס	-4236
▁מפע	-4237
▁שוט	-4238
▁ומתן	-4239
▁חלקים	-4240
▁במקומות	-4241
ows	-4242
▁at	-4243
▁נר	-4244
▁ולב	-4245
▁תמי	-4246
לונות	-4247
▁לשלוט	-4248
ספים	-4249
▁דיי	-4250
▁חתי	-4251
ליכים	-4252
▁ובין	-4253
▁בחירה	-4254
▁תקווה	-4255
▁פוליטית	-4256
גרס	-4257
▁45	-4258
גובה	-4259
▁בלע	-4260
▁נוח	-4261
▁המשך	-4262
▁תחום	-4263
▁אמונה	-4264
▁הסדרה	-4265
▁בטוחים	-4266
▁הרגשתי	-4267
▁להחליט	-4268
ותם	-4269
▁Ar	-4270
▁גז	-4271
▁אנא	-4272
▁אינס	-4273
▁גודל	-4274
▁אמצעי	-4275
▁להצטרף	-4276
▁בינלאומיים	-4277
pe	-4278
קע	-4279
ועד	-4280
▁דלת	-4281
▁סיר	-4282
▁עזה	-4283
▁קלה	-4284
▁המנה	-4285
▁מחזיק	-4286
▁משתנה	-4287
▁גבולות	-4288
▁הוועדה	-4289
▁ארגונים	-4290
זיל	-4291
▁פח	-4292
ואות	-4293
▁ישת	-4294
ובדים	-4295
▁דיבר	-4296
▁הקטן	-4297
▁סופר	-4298
▁תושבי	-4299
▁למת	-4300
▁לנס	-4301
▁הקהל	-4302
▁אוסטר	-4303
▁ואולי	-4304
▁לדעתי	-4305
▁שיפור	-4306
EB	-4307
if	-4308
ידת	-4309
כבות	-4310
▁ומא	-4311
▁להרח	-4312
▁מבית	-4313
▁גן	-4314
▁וְ	-4315
וכיח	-4316
חרים	-4317
▁ביד	-4318
קשורת	-4319
▁	-4320
י	-4321
ו	-4322
ה	-4323
ל	-4324
ת	-4325
א	-4326
ר	-4327
מ	-4328
ב	-4329
ש	-4330
ם	-4331
נ	-4332
ע	-4333
ד	-4334
כ	-4335
ח	-4336
ק	-4337
פ	-4338
.	-4339
ס	-4340
ג	-4341
,	-4342
ט	-4343
צ	-4344
ן	-4345
ז	-4346
ך	-4347
"	-4348
-	-4349
e	-4350
0	-4351
1	-4352
ף	-4353
?	-4354
a	-4355
o	-4356
i	-4357
2	-4358
:	-4359
n	-4360
r	-4361
t	-4362
'	-4363
)	-4364
(	-4365
s	-4366
l	-4367
ץ	-4368
9	-4369
5	-4370
3	-4371
4	-4372
c	-4373
h	-4374
d	-4375
u	-4376
–	-4377
8	-4378
6	-4379
7	-4380
S	-4381
!	-4382
m	-4383
A	-4384
C	-4385
g	-4386
y	-4387
T	-4388
P	-4389
p	-4390
M	-4391
I	-4392
B	-4393
D	-4394
E	-4395
”	-4396
]	-4397
[	-4398
f	-4399
b	-4400
R	-4401
L	-4402
k	-4403
%	-4404
;	-4405
N	-4406
v	-4407
O	-4408
H	-4409
w	-4410
G	-4411
ּ	-4412
F	-4413
“	-4414
W	-4415
/	-4416
ָ	-4417
ְ	-4418
V	-4419
ַ	-4420
ִ	-4421
U	-4422
’	-4423
x	-4424
ֹ	-4425
ֶ	-4426
־	-4427
K	-4428
״	-4429
J	-4430
ֵ	-4431
Y	-4432
z	-4433
*	-4434
X	-4435
ׁ	-4436
>	-4437
•	-4438
+	-4439
—	-4440
»	-4441
|	-4442
&	-4443
$	-4444
‘	-4445
Q	-4446
j	-4447
Z	-4448
ֲ	-4449
#	-4450
q	-4451
׳	-4452
=	-4453
^	-4454
\	-4455
·	-4456
ׂ	-4457
‬	-4458
}	-4459
{	-4460
_	-4461
~	-4462
ֱ	-4463
«	-4464
`	-4465
→	-4466
é	-4467
‭	-4468
<	-4469
@	-4470
́	-4471
	-4472
←	-4473
🙂	-4474
®	-4475
ֻ	-4476
‫	-4477
°	-4478
׃	-4479
₪	-4480
×	-4481
á	-4482
‪	-4483
€	-4484
′	-4485
↑	-4486
♥	-4487
‐	-4488
í	-4489
›	-4490
ö	-4491
£	-4492
ó	-4493
ü	-4494
©	-4495
ا	-4496
ل	-4497
■	-4498
¶	-4499
●	-4500
ä	-4501
♦	-4502
↩	-4503
­	-4504
è	-4505
â	-4506
◄	-4507
▼	-4508
م	-4509
😉	-4510
	-4511
„	-4512
§	-4513
ç	-4514
α	-4515
ي	-4516
∗	-4517
ر	-4518
	-4519
à	-4520
ο	-4521
ֿ	-4522
−	-4523
►	-4524
τ	-4525
و	-4526
‹	-4527
ú	-4528
λ	-4529
ب	-4530
َ	-4531
👈	-4532
š	-4533
ʉ	-4534
κ	-4535
а	-4536
‡	-4537
️	-4538
¬	-4539
ß	-4540
ł	-4541
ž	-4542
̄	-4543
θ	-4544
о	-4545
ֳ	-4546
ع	-4547
ن	-4548
	-4549
å	-4550
ê	-4551
ñ	-4552
μ	-4553
ρ	-4554
ς	-4555
⬅	-4556
￼	-4557
ō	-4558
ι	-4559
π	-4560
и	-4561
⁄	-4562
▪	-4563
▲	-4564
♪	-4565
	-4566
±	-4567
É	-4568
Δ	-4569
γ	-4570
ν	-4571
φ	-4572
н	-4573
ِ	-4574
ی	-4575
😛	-4576
🙁	-4577
¦	-4578
ã	-4579
ć	-4580
ή	-4581
β	-4582
Р	-4583
х	-4584
ت	-4585
س	-4586
ه	-4587
‍	-4588
‒	-4589
‚	-4590
√	-4591
	-4592
👑	-4593
¢	-4594
æ	-4595
ë	-4596
ā	-4597
č	-4598
Ł	-4599
ş	-4600
Θ	-4601
Ω	-4602
ά	-4603
ε	-4604
σ	-4605
О	-4606
в	-4607
с	-4608
ֽ	-4609
أ	-4610
ج	-4611
ح	-4612
د	-4613
ش	-4614
ك	-4615
⁠	-4616
∈	-4617
⋅	-4618
♫	-4619
	-4620
😀	-4621
😊	-4622
	-4623
	-4624
	-4625
Î	-4626
Ö	-4627
Ü	-4628
ø	-4629
ś	-4630
ɾ	-4631
Σ	-4632
η	-4633
υ	-4634
χ	-4635
С	-4636
Т	-4637
р	-4638
і	-4639
֥	-4640
ة	-4641
ذ	-4642
ق	-4643
ُ	-4644
ْ	-4645
٠	-4646
ल	-4647
―	-4648
†	-4649
⁡	-4650
□	-4651
★	-4652
⚡	-4653
✔	-4654
😂	-4655
🤔	-4656
	-4657
	-4658
¿	-4659
Á	-4660
Ç	-4661
ð	-4662
ò	-4663
õ	-4664
ù	-4665
û	-4666
ý	-4667
ÿ	-4668
ă	-4669
Č	-4670
Đ	-4671
ę	-4672
ğ	-4673
ħ	-4674
ī	-4675
İ	-4676
ň	-4677
ő	-4678
œ	-4679
ţ	-4680
ū	-4681
ż	-4682
ɒ	-4683
ʻ	-4684
ˌ	-4685
̈	-4686
Ε	-4687
έ	-4688
ί	-4689
δ	-4690
В	-4691
К	-4692
Н	-4693
д	-4694
е	-4695
й	-4696
п	-4697
т	-4698
у	-4699
ф	-4700
ц	-4701
ч	-4702
я	-4703
֖	-4704
װ	-4705
إ	-4706
خ	-4707
ط	-4708
ा	-4709
ា	-4710
‰	-4711
↓	-4712
∘	-4713
∙	-4714
∽	-4715
≠	-4716
≥	-4717
▶	-4718
☀	-4719
☆	-4720
☺	-4721
♠	-4722
✰	-4723
❻	-4724
❽	-4725
⟩	-4726
⦁	-4727
、	-4728
の	-4729
ル	-4730
ー	-4731
日	-4732
黑	-4733
	-4734
	-4735
	-4736
📄	-4737
🔥	-4738
😁	-4739
😃	-4740
😍	-4741
😚	-4742
¡	-4743
È	-4744
Ë	-4745
Ó	-4746
Ø	-4747
Ú	-4748
Û	-4749
ï	-4750
ô	-4751
÷	-4752
Ġ	-4753
ŋ	-4754
Ś	-4755
Š	-4756
Ÿ	-4757
Ż	-4758
Ž	-4759
ư	-4760
ș	-4761
ț	-4762
ɓ	-4763
ə	-4764
ɛ	-4765
ɸ	-4766
ʊ	-4767
ʌ	-4768
ʼ	-4769
ˈ	-4770
ː	-4771
Α	-4772
Β	-4773
Κ	-4774
Τ	-4775
Φ	-4776
Χ	-4777
Ψ	-4778
ω	-4779
ό	-4780
Б	-4781
Д	-4782
П	-4783
Ы	-4784
Я	-4785
г	-4786
ж	-4787
к	-4788
л	-4789
ш	-4790
ы	-4791
Ҫ	-4792
Ӑ	-4793
Ӗ	-4794
ӝ	-4795
Ӳ	-4796
Ե	-4797
Խ	-4798
Յ	-4799
Ս	-4800
ֺ	-4801
ׅ	-4802
ױ	-4803
آ	-4804
ئ	-4805
ث	-4806
ص	-4807
ف	-4808
ى	-4809
١	-4810
٢	-4811
٨	-4812
٩	-4813
ٰ	-4814
ٹ	-4815
چ	-4816
ھ	-4817
ߟ	-4818
ߡ	-4819
ं	-4820
औ	-4821
ग	-4822
त	-4823
द	-4824
न	-4825
ब	-4826
ि	-4827
ी	-4828
े	-4829
्	-4830
ં	-4831
ગ	-4832
બ	-4833
લ	-4834
ો	-4835
༓	-4836
ខ	-4837
ភ	-4838
ម	-4839
រ	-4840
ស	-4841
ែ	-4842
្	-4843
ṅ	-4844
ạ	-4845
ả	-4846
ἀ	-4847
ὥ	-4848
ῦ	-4849
‮	-4850
⁨	-4851
⁩	-4852
₹	-4853
⇒	-4854
∀	-4855
∂	-4856
∆	-4857
∞	-4858
≪	-4859
≿	-4860
⋯	-4861
─	-4862
▸	-4863
▾	-4864
◻	-4865
◼	-4866
☚	-4867
☝	-4868
♔	-4869
♣	-4870
✌	-4871
✯	-4872
❁	-4873
❓	-4874
❤	-4875
❷	-4876
❼	-4877
❾	-4878
➝	-4879
⟨	-4880
⟵	-4881
⭐	-4882
ア	-4883
ギ	-4884
コ	-4885
シ	-4886
ス	-4887
ド	-4888
ュ	-4889
㪗	-4890
三	-4891
东	-4892
主	-4893
九	-4894
京	-4895
介	-4896
以	-4897
会	-4898
元	-4899
列	-4900
反	-4901
古	-4902
名	-4903
士	-4904
大	-4905
学	-4906
川	-4907
工	-4908
幕	-4909
广	-4910
府	-4911
式	-4912
徳	-4913
慢	-4914
拾	-4915
旦	-4916
本	-4917
来	-4918
株	-4919
民	-4920
浪	-4921
海	-4922
点	-4923
理	-4924
疽	-4925
社	-4926
穂	-4927
空	-4928
章	-4929
第	-4930
简	-4931
算	-4932
絵	-4933
義	-4934
聲	-4935
航	-4936
色	-4937
茶	-4938
蒙	-4939
術	-4940
襲	-4941
詞	-4942
赤	-4943
逆	-4944
道	-4945
都	-4946
鈴	-4947
院	-4948
髓	-4949
黒	-4950
랙	-4951
블	-4952
엠	-4953
	-4954
	-4955
	-4956
	-4957
	-4958
	-4959
	-4960
	-4961
	-4962
	-4963
﴾	-4964
﴿	-4965
🇸	-4966
🇾	-4967
🌈	-4968
🌎	-4969
🍻	-4970
🎉	-4971
🎶	-4972
🏽	-4973
🐔	-4974
👉	-4975
💉	-4976
💔	-4977
💖	-4978
💜	-4979
💫	-4980
📁	-4981
😄	-4982
😅	-4983
😆	-4984
😈	-4985
😏	-4986
😐	-4987
😒	-4988
😜	-4989
😦	-4990
🙌	-4991
🚖	-4992
🚘	-4993
🤨	-4994
🦁	-4995
🧼	-4996
