{
  "version": "1.0",
  "truncation": null,
  "padding": null,
  "added_tokens": [
    {
      "id": 0,
      "content": "[UNK]",
      "single_word": false,
      "lstrip": false,
      "rstrip": false,
      "normalized": false,
      "special": true
    },
    {
      "id": 1,
      "content": "[CLS]",
      "single_word": false,
      "lstrip": false,
      "rstrip": false,
      "normalized": false,
      "special": true
    },
    {
      "id": 2,
      "content": "[SEP]",
      "single_word": false,
      "lstrip": false,
      "rstrip": false,
      "normalized": false,
      "special": true
    },
    {
      "id": 3,
      "content": "[PAD]",
      "single_word": false,
      "lstrip": false,
      "rstrip": false,
      "normalized": false,
      "special": true
    },
    {
      "id": 4,
      "content": "[MASK]",
      "single_word": false,
      "lstrip": false,
      "rstrip": false,
      "normalized": false,
      "special": true
    }
  ],
  "normalizer": {
    "type": "Sequence",
    "normalizers": [
      {
        "type": "NFKC"
      },
      {
        "type": "Lowercase"
      }
    ]
  },
  "pre_tokenizer": {
    "type": "Whitespace"
  },
  "post_processor": null,
  "decoder": {
    "type": "WordPiece",
    "prefix": "##",
    "cleanup": true
  },
  "model": {
    "type": "WordPiece",
    "unk_token": "[UNK]",
    "continuing_subword_prefix": "##",
    "max_input_chars_per_word": 100,
    "vocab": {
      "[UNK]": 0,
      "[CLS]": 1,
      "[SEP]": 2,
      "[PAD]": 3,
      "[MASK]": 4,
      "!": 5,
      "\"": 6,
      "#": 7,
      "$": 8,
      "%": 9,
      "&": 10,
      "'": 11,
      "(": 12,
      ")": 13,
      "*": 14,
      "+": 15,
      ",": 16,
      "-": 17,
      ".": 18,
      "/": 19,
      "0": 20,
      "1": 21,
      "2": 22,
      "3": 23,
      "4": 24,
      "5": 25,
      "6": 26,
      "7": 27,
      "8": 28,
      "9": 29,
      ":": 30,
      ";": 31,
      "<": 32,
      "=": 33,
      ">": 34,
      "?": 35,
      "@": 36,
      "[": 37,
      "\\": 38,
      "]": 39,
      "^": 40,
      "_": 41,
      "`": 42,
      "a": 43,
      "b": 44,
      "c": 45,
      "d": 46,
      "e": 47,
      "f": 48,
      "g": 49,
      "h": 50,
      "i": 51,
      "j": 52,
      "k": 53,
      "l": 54,
      "m": 55,
      "n": 56,
      "o": 57,
      "p": 58,
      "q": 59,
      "r": 60,
      "s": 61,
      "t": 62,
      "u": 63,
      "v": 64,
      "w": 65,
      "x": 66,
      "y": 67,
      "z": 68,
      "{": 69,
      "|": 70,
      "}": 71,
      "~": 72,
      "": 73,
      "": 74,
      "": 75,
      "": 76,
      "": 77,
      "": 78,
      "": 79,
      "": 80,
      "": 81,
      "": 82,
      "": 83,
      "¡": 84,
      "¢": 85,
      "£": 86,
      "¦": 87,
      "§": 88,
      "©": 89,
      "«": 90,
      "¬": 91,
      "­": 92,
      "®": 93,
      "°": 94,
      "±": 95,
      "¶": 96,
      "·": 97,
      "»": 98,
      "¿": 99,
      "×": 100,
      "ß": 101,
      "à": 102,
      "á": 103,
      "â": 104,
      "ã": 105,
      "ä": 106,
      "å": 107,
      "æ": 108,
      "ç": 109,
      "è": 110,
      "é": 111,
      "ê": 112,
      "ë": 113,
      "í": 114,
      "î": 115,
      "ï": 116,
      "ð": 117,
      "ñ": 118,
      "ò": 119,
      "ó": 120,
      "ô": 121,
      "õ": 122,
      "ö": 123,
      "÷": 124,
      "ø": 125,
      "ù": 126,
      "ú": 127,
      "û": 128,
      "ü": 129,
      "ý": 130,
      "ÿ": 131,
      "ā": 132,
      "ă": 133,
      "ć": 134,
      "č": 135,
      "đ": 136,
      "ę": 137,
      "ğ": 138,
      "ġ": 139,
      "ħ": 140,
      "ī": 141,
      "ł": 142,
      "ň": 143,
      "ŋ": 144,
      "ō": 145,
      "ő": 146,
      "œ": 147,
      "ś": 148,
      "ş": 149,
      "š": 150,
      "ţ": 151,
      "ū": 152,
      "ż": 153,
      "ž": 154,
      "ư": 155,
      "ș": 156,
      "ț": 157,
      "ɒ": 158,
      "ɓ": 159,
      "ə": 160,
      "ɛ": 161,
      "ɸ": 162,
      "ɾ": 163,
      "ʉ": 164,
      "ʊ": 165,
      "ʌ": 166,
      "ʻ": 167,
      "ʼ": 168,
      "ˈ": 169,
      "ˌ": 170,
      "ː": 171,
      "́": 172,
      "̄": 173,
      "̇": 174,
      "̈": 175,
      "ά": 176,
      "έ": 177,
      "ή": 178,
      "ί": 179,
      "α": 180,
      "β": 181,
      "γ": 182,
      "δ": 183,
      "ε": 184,
      "η": 185,
      "θ": 186,
      "ι": 187,
      "κ": 188,
      "λ": 189,
      "μ": 190,
      "ν": 191,
      "ο": 192,
      "π": 193,
      "ρ": 194,
      "ς": 195,
      "σ": 196,
      "τ": 197,
      "υ": 198,
      "φ": 199,
      "χ": 200,
      "ψ": 201,
      "ω": 202,
      "ό": 203,
      "а": 204,
      "б": 205,
      "в": 206,
      "г": 207,
      "д": 208,
      "е": 209,
      "ж": 210,
      "и": 211,
      "й": 212,
      "к": 213,
      "л": 214,
      "н": 215,
      "о": 216,
      "п": 217,
      "р": 218,
      "с": 219,
      "т": 220,
      "у": 221,
      "ф": 222,
      "х": 223,
      "ц": 224,
      "ч": 225,
      "ш": 226,
      "ы": 227,
      "я": 228,
      "і": 229,
      "ҫ": 230,
      "ӑ": 231,
      "ӗ": 232,
      "ӝ": 233,
      "ӳ": 234,
      "ե": 235,
      "խ": 236,
      "յ": 237,
      "ս": 238,
      "֖": 239,
      "֥": 240,
      "ְ": 241,
      "ֱ": 242,
      "ֲ": 243,
      "ֳ": 244,
      "ִ": 245,
      "ֵ": 246,
      "ֶ": 247,
      "ַ": 248,
      "ָ": 249,
      "ֹ": 250,
      "ֺ": 251,
      "ֻ": 252,
      "ּ": 253,
      "ֽ": 254,
      "־": 255,
      "ֿ": 256,
      "ׁ": 257,
      "ׂ": 258,
      "׃": 259,
      "ׅ": 260,
      "א": 261,
      "ב": 262,
      "ג": 263,
      "ד": 264,
      "ה": 265,
      "ו": 266,
      "ז": 267,
      "ח": 268,
      "ט": 269,
      "י": 270,
      "ך": 271,
      "כ": 272,
      "ל": 273,
      "ם": 274,
      "מ": 275,
      "ן": 276,
      "נ": 277,
      "ס": 278,
      "ע": 279,
      "ף": 280,
      "פ": 281,
      "ץ": 282,
      "צ": 283,
      "ק": 284,
      "ר": 285,
      "ש": 286,
      "ת": 287,
      "װ": 288,
      "ױ": 289,
      "׳": 290,
      "״": 291,
      "آ": 292,
      "أ": 293,
      "إ": 294,
      "ئ": 295,
      "ا": 296,
      "ب": 297,
      "ة": 298,
      "ت": 299,
      "ث": 300,
      "ج": 301,
      "ح": 302,
      "خ": 303,
      "د": 304,
      "ذ": 305,
      "ر": 306,
      "س": 307,
      "ش": 308,
      "ص": 309,
      "ط": 310,
      "ع": 311,
      "ف": 312,
      "ق": 313,
      "ك": 314,
      "ل": 315,
      "م": 316,
      "ن": 317,
      "ه": 318,
      "و": 319,
      "ى": 320,
      "ي": 321,
      "َ": 322,
      "ُ": 323,
      "ِ": 324,
      "ْ": 325,
      "٠": 326,
      "١": 327,
      "٢": 328,
      "٨": 329,
      "٩": 330,
      "ٰ": 331,
      "ٹ": 332,
      "چ": 333,
      "ھ": 334,
      "ی": 335,
      "ߟ": 336,
      "ߡ": 337,
      "ं": 338,
      "औ": 339,
      "ग": 340,
      "त": 341,
      "द": 342,
      "न": 343,
      "ब": 344,
      "ल": 345,
      "ा": 346,
      "ि": 347,
      "ी": 348,
      "े": 349,
      "्": 350,
      "ં": 351,
      "ગ": 352,
      "બ": 353,
      "લ": 354,
      "ો": 355,
      "༓": 356,
      "ខ": 357,
      "ភ": 358,
      "ម": 359,
      "រ": 360,
      "ស": 361,
      "ា": 362,
      "ែ": 363,
      "្": 364,
      "ṅ": 365,
      "ạ": 366,
      "ả": 367,
      "ἀ": 368,
      "ὥ": 369,
      "ῦ": 370,
      "​": 371,
      "‌": 372,
      "‍": 373,
      "‎": 374,
      "‏": 375,
      "‐": 376,
      "‒": 377,
      "–": 378,
      "—": 379,
      "―": 380,
      "‘": 381,
      "’": 382,
      "‚": 383,
      "“": 384,
      "”": 385,
      "„": 386,
      "†": 387,
      "‡": 388,
      "•": 389,
      "‪": 390,
      "‫": 391,
      "‬": 392,
      "‭": 393,
      "‮": 394,
      "‰": 395,
      "′": 396,
      "‹": 397,
      "›": 398,
      "⁄": 399,
      "⁠": 400,
      "⁡": 401,
      "⁨": 402,
      "⁩": 403,
      "₪": 404,
      "€": 405,
      "₹": 406,
      "←": 407,
      "↑": 408,
      "→": 409,
      "↓": 410,
      "↩": 411,
      "⇒": 412,
      "∀": 413,
      "∂": 414,
      "∆": 415,
      "∈": 416,
      "−": 417,
      "∗": 418,
      "∘": 419,
      "∙": 420,
      "√": 421,
      "∞": 422,
      "∽": 423,
      "≠": 424,
      "≥": 425,
      "≪": 426,
      "≿": 427,
      "⋅": 428,
      "⋯": 429,
      "─": 430,
      "■": 431,
      "□": 432,
      "▪": 433,
      "▲": 434,
      "▶": 435,
      "▸": 436,
      "►": 437,
      "▼": 438,
      "▾": 439,
      "◄": 440,
      "●": 441,
      "◻": 442,
      "◼": 443,
      "☀": 444,
      "★": 445,
      "☆": 446,
      "☚": 447,
      "☝": 448,
      "☺": 449,
      "♔": 450,
      "♠": 451,
      "♣": 452,
      "♥": 453,
      "♦": 454,
      "♪": 455,
      "♫": 456,
      "⚡": 457,
      "✌": 458,
      "✔": 459,
      "✯": 460,
      "✰": 461,
      "❁": 462,
      "❓": 463,
      "❤": 464,
      "❷": 465,
      "❻": 466,
      "❼": 467,
      "❽": 468,
      "❾": 469,
      "➝": 470,
      "⟨": 471,
      "⟩": 472,
      "⟵": 473,
      "⦁": 474,
      "⬅": 475,
      "⭐": 476,
      "、": 477,
      "の": 478,
      "ア": 479,
      "ギ": 480,
      "コ": 481,
      "シ": 482,
      "ス": 483,
      "ド": 484,
      "ュ": 485,
      "ル": 486,
      "ー": 487,
      "㪗": 488,
      "三": 489,
      "东": 490,
      "主": 491,
      "九": 492,
      "京": 493,
      "介": 494,
      "以": 495,
      "会": 496,
      "元": 497,
      "列": 498,
      "反": 499,
      "古": 500,
      "名": 501,
      "士": 502,
      "大": 503,
      "学": 504,
      "川": 505,
      "工": 506,
      "幕": 507,
      "广": 508,
      "府": 509,
      "式": 510,
      "徳": 511,
      "慢": 512,
      "拾": 513,
      "日": 514,
      "旦": 515,
      "本": 516,
      "来": 517,
      "株": 518,
      "民": 519,
      "浪": 520,
      "海": 521,
      "点": 522,
      "理": 523,
      "疽": 524,
      "社": 525,
      "穂": 526,
      "空": 527,
      "章": 528,
      "第": 529,
      "简": 530,
      "算": 531,
      "絵": 532,
      "義": 533,
      "聲": 534,
      "航": 535,
      "色": 536,
      "茶": 537,
      "蒙": 538,
      "術": 539,
      "襲": 540,
      "詞": 541,
      "赤": 542,
      "逆": 543,
      "道": 544,
      "都": 545,
      "鈴": 546,
      "院": 547,
      "髓": 548,
      "黑": 549,
      "黒": 550,
      "랙": 551,
      "블": 552,
      "엠": 553,
      "": 554,
      "": 555,
      "": 556,
      "": 557,
      "": 558,
      "": 559,
      "": 560,
      "": 561,
      "": 562,
      "": 563,
      "": 564,
      "": 565,
      "": 566,
      "": 567,
      "": 568,
      "﴾": 569,
      "﴿": 570,
      "️": 571,
      "﻿": 572,
      "￼": 573,
      "�": 574,
      "🇸": 575,
      "🇾": 576,
      "🌈": 577,
      "🌎": 578,
      "🍻": 579,
      "🎉": 580,
      "🎶": 581,
      "🏽": 582,
      "🐔": 583,
      "👈": 584,
      "👉": 585,
      "👑": 586,
      "💉": 587,
      "💔": 588,
      "💖": 589,
      "💜": 590,
      "💫": 591,
      "📁": 592,
      "📄": 593,
      "🔥": 594,
      "😀": 595,
      "😁": 596,
      "😂": 597,
      "😃": 598,
      "😄": 599,
      "😅": 600,
      "😆": 601,
      "😈": 602,
      "😉": 603,
      "😊": 604,
      "😍": 605,
      "😏": 606,
      "😐": 607,
      "😒": 608,
      "😚": 609,
      "😛": 610,
      "😜": 611,
      "😦": 612,
      "🙁": 613,
      "🙂": 614,
      "🙌": 615,
      "🚖": 616,
      "🚘": 617,
      "🤔": 618,
      "🤨": 619,
      "🦁": 620,
      "🧼": 621,
      "##י": 622,
      "##ד": 623,
      "##א": 624,
      "##ג": 625,
      "##ו": 626,
      "##w": 627,
      "##2": 628,
      "##i": 629,
      "##r": 630,
      "##e": 631,
      "##ז": 632,
      "##ל": 633,
      "##ת": 634,
      "##ר": 635,
      "##a": 636,
      "##m": 637,
      "##b": 638,
      "##u": 639,
      "##d": 640,
      "##נ": 641,
      "##ח": 642,
      "##מ": 643,
      "##ֵ": 644,
      "##ּ": 645,
      "##ה": 646,
      "##פ": 647,
      "##ט": 648,
      "##o": 649,
      "##ש": 650,
      "##ף": 651,
      "##ם": 652,
      "##ב": 653,
      "##צ": 654,
      "##ן": 655,
      "##ק": 656,
      "##ָ": 657,
      "##ס": 658,
      "##ע": 659,
      "##כ": 660,
      "##n": 661,
      "##t": 662,
      "##l": 663,
      "##h": 664,
      "##ֶ": 665,
      "##ְ": 666,
      "##ֹ": 667,
      "##ַ": 668,
      "##c": 669,
      "##v": 670,
      "##y": 671,
      "##p": 672,
      "##9": 673,
      "##4": 674,
      "##5": 675,
      "##0": 676,
      "##1": 677,
      "##f": 678,
      "##s": 679,
      "##ֲ": 680,
      "##k": 681,
      "##_": 682,
      "##g": 683,
      "##ך": 684,
      "##q": 685,
      "##j": 686,
      "##3": 687,
      "##ץ": 688,
      "##ִ": 689,
      "##6": 690,
      "##ि": 691,
      "##ल": 692,
      "##्": 693,
      "##ी": 694,
      "##ث": 695,
      "##ر": 696,
      "##ب": 697,
      "##z": 698,
      "##8": 699,
      "##x": 700,
      "##-": 701,
      "##ِ": 702,
      "##ي": 703,
      "##ل": 704,
      "##َ": 705,
      "##*": 706,
      "##>": 707,
      "##ׁ": 708,
      "##ο": 709,
      "##υ": 710,
      "##σ": 711,
      "##ι": 712,
      "##κ": 713,
      "##ή": 714,
      "##ׂ": 715,
      "##7": 716,
      "##ā": 717,
      "##ֱ": 718,
      "##\"": 719,
      "##?": 720,
      "##‬": 721,
      "##'": 722,
      "##)": 723,
      "##=": 724,
      "##^": 725,
      "##ž": 726,
      "##🐔": 727,
      "##ç": 728,
      "##(": 729,
      "##á": 730,
      "##.": 731,
      "##{": 732,
      "##‡": 733,
      "##,": 734,
      "##‪": 735,
      "##ö": 736,
      "##ֻ": 737,
      "##‏": 738,
      "##‎": 739,
      "##ō": 740,
      "##[": 741,
      "##í": 742,
      "##è": 743,
      "##é": 744,
      "##/": 745,
      "##+": 746,
      "##ν": 747,
      "##ֿ": 748,
      "##ü": 749,
      "##ł": 750,
      "##ά": 751,
      "##ρ": 752,
      "##τ": 753,
      "##ֽ": 754,
      "##ó": 755,
      "##ã": 756,
      "##н": 757,
      "##и": 758,
      "##ạ": 759,
      "##ň": 760,
      "##ý": 761,
      "##]": 762,
      "##%": 763,
      "##}": 764,
      "##\\": 765,
      "##ح": 766,
      "##م": 767,
      "##و": 768,
      "##د": 769,
      "##“": 770,
      "##а": 771,
      "##р": 772,
      "##ф": 773,
      "##ñ": 774,
      "##介": 775,
      "##ß": 776,
      "##λ": 777,
      "##α": 778,
      "##η": 779,
      "##ς": 780,
      "##خ": 781,
      "##ج": 782,
      "##⚡": 783,
      "##״": 784,
      "##:": 785,
      "##<": 786,
      "##æ": 787,
      "##ع": 788,
      "##ك": 789,
      "##ṅ": 790,
      "###": 791,
      "##θ": 792,
      "##š": 793,
      "##ɾ": 794,
      "##": 795,
      "##ä": 796,
      "##â": 797,
      "##′": 798,
      "##ं": 799,
      "##ग": 800,
      "##ा": 801,
      "##ț": 802,
      "##ú": 803,
      "##茶": 804,
      "##®": 805,
      "##ֺ": 806,
      "##”": 807,
      "##🤔": 808,
      "##ʉ": 809,
      "##چ": 810,
      "##ه": 811,
      "##‌": 812,
      "##ا": 813,
      "##ی": 814,
      "##ş": 815,
      "##س": 816,
      "##ئ": 817,
      "##å": 818,
      "##٩": 819,
      "##ɛ": 820,
      "##ˌ": 821,
      "##ʊ": 822,
      "##ː": 823,
      "##ʻ": 824,
      "##’": 825,
      "##😚": 826,
      "##о": 827,
      "##й": 828,
      "##都": 829,
      "##à": 830,
      "##ε": 831,
      "##π": 832,
      "##ί": 833,
      "##ֳ": 834,
      "##‘": 835,
      "##ن": 836,
      "##ت": 837,
      "##č": 838,
      "##‭": 839,
      "##с": 840,
      "##х": 841,
      "##д": 842,
      "##📁": 843,
      "##ħ": 844,
      "##!": 845,
      "##ø": 846,
      "##ő": 847,
      "##ٰ": 848,
      "##ذ": 849,
      "##б": 850,
      "##ー": 851,
      "##ド": 852,
      "##ギ": 853,
      "##ア": 854,
      "##ス": 855,
      "##民": 856,
      "##主": 857,
      "##義": 858,
      "##@": 859,
      "##ê": 860,
      "##`": 861,
      "##œ": 862,
      "##ș": 863,
      "##&": 864,
      "##色": 865,
      "##列": 866,
      "##ص": 867,
      "##ش": 868,
      "##ğ": 869,
      "##﻿": 870,
      "##ă": 871,
      "##ţ": 872,
      "##ж": 873,
      "##і": 874,
      "##ū": 875,
      "##֥": 876,
      "##￼": 877,
      "##—": 878,
      "##工": 879,
      "##学": 880,
      "##院": 881,
      "##װ": 882,
      "##ш": 883,
      "##$": 884,
      "##🚖": 885,
      "##ױ": 886,
      "##😂": 887,
      "##の": 888,
      "##日": 889,
      "##–": 890,
      "##🏽": 891,
      "##յ": 892,
      "##խ": 893,
      "##ե": 894,
      "##ʼ": 895,
      "##ӝ": 896,
      "##�": 897,
      "##ط": 898,
      "##׳": 899,
      "##ô": 900,
      "##↩": 901,
      "##­": 902,
      "##​": 903,
      "##ׅ": 904,
      "##东": 905,
      "##ῦ": 906,
      "##章": 907,
      "##算": 908,
      "##術": 909,
      "##п": 910,
      "##古": 911,
      "##襲": 912,
      "##来": 913,
      "##絵": 914,
      "##詞": 915,
      "##◄": 916,
      "##»": 917,
      "##元": 918,
      "##式": 919,
      "##会": 920,
      "##社": 921,
      "##本": 922,
      "##航": 923,
      "##空": 924,
      "##블": 925,
      "##랙": 926,
      "##ʌ": 927,
      "##ŋ": 928,
      "##ə": 929,
      "##֖": 930,
      "##т": 931,
      "##к": 932,
      "##ы": 933,
      "##γ": 934,
      "##ả": 935,
      "##∗": 936,
      "##ɒ": 937,
      "##ω": 938,
      "##府": 939,
      "##ś": 940,
      "##ę": 941,
      "##ં": 942,
      "##ગ": 943,
      "##લ": 944,
      "##ો": 945,
      "##έ": 946,
      "##́": 947,
      "##е": 948,
      "##😍": 949,
      "##😁": 950,
      "##„": 951,
      "##û": 952,
      "##я": 953,
      "##♥": 954,
      "##;": 955,
      "##💫": 956,
      "##🎶": 957,
      "##🌈": 958,
      "##☀": 959,
      "##у": 960,
      "##̇": 961,
      "##|": 962,
      "##逆": 963,
      "##ル": 964,
      "##シ": 965,
      "##ュ": 966,
      "##ߡ": 967,
      "##ż": 968,
      "##名": 969,
      "##‍": 970,
      "##φ": 971,
      "##ُ": 972,
      "##ð": 973,
      "##ْ": 974,
      "##ق": 975,
      "##־": 976,
      "##ï": 977,
      "##õ": 978,
      "##े": 979,
      "##त": 980,
      "##聲": 981,
      "##ò": 982,
      "##ć": 983,
      "##ߟ": 984,
      "##ц": 985,
      "##в": 986,
      "##🤨": 987,
      "##ч": 988,
      "##ī": 989,
      "##": 990,
      "##‫": 991,
      "##🇾": 992,
      "##ى": 993,
      "##§": 994,
      "##►": 995,
      "##~": 996,
      "##ة": 997,
      "##أ": 998,
      "##ف": 999,
      "##ë": 1000,
      "##₹": 1001,
      "##€": 1002,
      "##٢": 1003,
      "##٠": 1004,
      "##←": 1005,
      "##": 1006,
      "##㪗": 1007,
      "##г": 1008,
      "##л": 1009,
      "##👑": 1010,
      "##ھ": 1011,
      "##ٹ": 1012,
      "##β": 1013,
      "##ư": 1014,
      "##ɓ": 1015,
      "##⁠": 1016,
      "##ា": 1017,
      "##ស": 1018,
      "##ខ": 1019,
      "##្": 1020,
      "##ម": 1021,
      "##ែ": 1022,
      "##រ": 1023,
      "##ים": 1024,
      "##ות": 1025,
      "של": 1026,
      "##ור": 1027,
      "##ני": 1028,
      "##ול": 1029,
      "את": 1030,
      "##ית": 1031,
      "##נו": 1032,
      "המ": 1033,
      "לה": 1034,
      "##וד": 1035,
      "הי": 1036,
      "לא": 1037,
      "##בר": 1038,
      "##יר": 1039,
      "##וב": 1040,
      "על": 1041,
      "##יל": 1042,
      "הא": 1043,
      "##וא": 1044,
      "##רי": 1045,
      "##ון": 1046,
      "##נה": 1047,
      "##די": 1048,
      "##יה": 1049,
      "##יות": 1050,
      "##שר": 1051,
      "##ומ": 1052,
      "##ין": 1053,
      "##ום": 1054,
      "##תי": 1055,
      "##ופ": 1056,
      "##לי": 1057,
      "##מו": 1058,
      "מה": 1059,
      "##שי": 1060,
      "##נים": 1061,
      "במ": 1062,
      "זה": 1063,
      "##כל": 1064,
      "##וח": 1065,
      "אח": 1066,
      "בא": 1067,
      "##שה": 1068,
      "##וק": 1069,
      "##נות": 1070,
      "הח": 1071,
      "אי": 1072,
      "##מה": 1073,
      "##יד": 1074,
      "הוא": 1075,
      "או": 1076,
      "הת": 1077,
      "כל": 1078,
      "הע": 1079,
      "הש": 1080,
      "הר": 1081,
      "##בי": 1082,
      "##וצ": 1083,
      "##וע": 1084,
      "##וס": 1085,
      "##בל": 1086,
      "למ": 1087,
      "מא": 1088,
      "##יק": 1089,
      "##פר": 1090,
      "##שים": 1091,
      "מש": 1092,
      "בע": 1093,
      "##לה": 1094,
      "##יים": 1095,
      "##יי": 1096,
      "##וג": 1097,
      "שה": 1098,
      "##רים": 1099,
      "עם": 1100,
      "לע": 1101,
      "##את": 1102,
      "##כול": 1103,
      "מת": 1104,
      "##רו": 1105,
      "מס": 1106,
      "##לא": 1107,
      "הס": 1108,
      "##טי": 1109,
      "אני": 1110,
      "יש": 1111,
      "##זה": 1112,
      "##לו": 1113,
      "כי": 1114,
      "אות": 1115,
      "##רא": 1116,
      "##יע": 1117,
      "##וש": 1118,
      "##בה": 1119,
      "##רה": 1120,
      "##ותר": 1121,
      "הק": 1122,
      "הפ": 1123,
      "בש": 1124,
      "מע": 1125,
      "שא": 1126,
      "##נת": 1127,
      "##יו": 1128,
      "אנ": 1129,
      "הג": 1130,
      "היא": 1131,
      "##מי": 1132,
      "יותר": 1133,
      "##שו": 1134,
      "הה": 1135,
      "##דר": 1136,
      "##וכ": 1137,
      "לפ": 1138,
      "הב": 1139,
      "לש": 1140,
      "גם": 1141,
      "לי": 1142,
      "יכול": 1143,
      "בי": 1144,
      "\".": 1145,
      "מח": 1146,
      "##יא": 1147,
      "##רכ": 1148,
      "##מת": 1149,
      "היה": 1150,
      "הצ": 1151,
      "##יש": 1152,
      "##מש": 1153,
      "##רג": 1154,
      "אם": 1155,
      "בה": 1156,
      "##מים": 1157,
      "##בים": 1158,
      "##טר": 1159,
      "##ולם": 1160,
      "לח": 1161,
      "מק": 1162,
      "מי": 1163,
      "אמ": 1164,
      "##וו": 1165,
      "לב": 1166,
      "##דים": 1167,
      "בת": 1168,
      "הם": 1169,
      "הכ": 1170,
      "##חר": 1171,
      "##סי": 1172,
      "##כם": 1173,
      "##עות": 1174,
      "##נית": 1175,
      "##בור": 1176,
      "##יפ": 1177,
      "אל": 1178,
      "##אל": 1179,
      "לק": 1180,
      "אבל": 1181,
      "##שות": 1182,
      "בח": 1183,
      "##כו": 1184,
      "##מן": 1185,
      "הנ": 1186,
      "כא": 1187,
      "וא": 1188,
      "##בות": 1189,
      "##רח": 1190,
      "מצ": 1191,
      "##שת": 1192,
      "20": 1193,
      "##בע": 1194,
      "הז": 1195,
      "##בו": 1196,
      "##נס": 1197,
      "##לק": 1198,
      "הד": 1199,
      "##רת": 1200,
      "שי": 1201,
      "##מצ": 1202,
      "רק": 1203,
      "##וי": 1204,
      "כדי": 1205,
      "להיות": 1206,
      "##דם": 1207,
      "##כה": 1208,
      "##לים": 1209,
      "##מות": 1210,
      "##ירות": 1211,
      "##עת": 1212,
      "אתה": 1213,
      "##דה": 1214,
      "אפ": 1215,
      "וה": 1216,
      "##פת": 1217,
      "אחד": 1218,
      "##חת": 1219,
      "##נט": 1220,
      "מכ": 1221,
      "##חנו": 1222,
      "##חה": 1223,
      "##אי": 1224,
      "##קר": 1225,
      "##אים": 1226,
      "##וף": 1227,
      "פע": 1228,
      "מב": 1229,
      "##יס": 1230,
      "עצ": 1231,
      "##ורה": 1232,
      "##אה": 1233,
      "בס": 1234,
      "כמו": 1235,
      "##בוד": 1236,
      "##עה": 1237,
      "יה": 1238,
      "##ברים": 1239,
      "כך": 1240,
      "לת": 1241,
      "##חות": 1242,
      "##וז": 1243,
      "צרי": 1244,
      "##ירה": 1245,
      "בר": 1246,
      "להת": 1247,
      "##יותר": 1248,
      "19": 1249,
      "##בת": 1250,
      "##ילה": 1251,
      "##..": 1252,
      "##וך": 1253,
      "זו": 1254,
      "##קה": 1255,
      "##נג": 1256,
      "שלה": 1257,
      "##יתה": 1258,
      "##שראל": 1259,
      "##פי": 1260,
      "##כים": 1261,
      "##כת": 1262,
      "מד": 1263,
      "אז": 1264,
      "##ולי": 1265,
      "לג": 1266,
      "##אות": 1267,
      "עד": 1268,
      "שמ": 1269,
      "##שוב": 1270,
      "##ורים": 1271,
      "לו": 1272,
      "ידי": 1273,
      "טוב": 1274,
      "##דול": 1275,
      "##פק": 1276,
      "שלי": 1277,
      "##כן": 1278,
      "בכל": 1279,
      "ביותר": 1280,
      "##רות": 1281,
      "שלך": 1282,
      "הט": 1283,
      "##וט": 1284,
      "##חק": 1285,
      "##לב": 1286,
      "##יתי": 1287,
      "##צי": 1288,
      "המש": 1289,
      "לד": 1290,
      "##פה": 1291,
      "##לת": 1292,
      "##וני": 1293,
      "פר": 1294,
      "מג": 1295,
      "הרא": 1296,
      "האם": 1297,
      "זאת": 1298,
      "##ילו": 1299,
      "...": 1300,
      "##לות": 1301,
      "##עים": 1302,
      "אנחנו": 1303,
      "סי": 1304,
      "##וצה": 1305,
      "##ונים": 1306,
      "##כות": 1307,
      "בג": 1308,
      "ממ": 1309,
      "##טים": 1310,
      "##יצ": 1311,
      "הזה": 1312,
      "##ומר": 1313,
      "##מיד": 1314,
      "##ינו": 1315,
      "##טה": 1316,
      "אותו": 1317,
      "רא": 1318,
      "שלו": 1319,
      "##ונ": 1320,
      "##שהו": 1321,
      "אין": 1322,
      "בין": 1323,
      "בק": 1324,
      "שלנו": 1325,
      "##לח": 1326,
      "מדי": 1327,
      "כש": 1328,
      "##דות": 1329,
      "לס": 1330,
      "כמה": 1331,
      "מפ": 1332,
      "##מוד": 1333,
      "##ינ": 1334,
      "בפ": 1335,
      "##אר": 1336,
      "מאוד": 1337,
      "חד": 1338,
      "##ניה": 1339,
      "בכ": 1340,
      "שנ": 1341,
      "##סק": 1342,
      "בב": 1343,
      "היו": 1344,
      "עבור": 1345,
      "##er": 1346,
      "##זור": 1347,
      "לך": 1348,
      "##ופן": 1349,
      "##ראה": 1350,
      "אנשים": 1351,
      "201": 1352,
      "##פים": 1353,
      "##ניות": 1354,
      "##00": 1355,
      "לפני": 1356,
      "דבר": 1357,
      "שע": 1358,
      "ול": 1359,
      "לנו": 1360,
      "##רך": 1361,
      "חבר": 1362,
      "אנו": 1363,
      "אך": 1364,
      "##ירים": 1365,
      "##עי": 1366,
      "לאחר": 1367,
      "יח": 1368,
      "לעשות": 1369,
      "צריך": 1370,
      "ישראל": 1371,
      "\",": 1372,
      "עוד": 1373,
      "אר": 1374,
      "בו": 1375,
      "##נק": 1376,
      "##ולה": 1377,
      "##ילים": 1378,
      "##לט": 1379,
      "##דת": 1380,
      "עו": 1381,
      "בני": 1382,
      "##תר": 1383,
      "לכ": 1384,
      "קר": 1385,
      "כבר": 1386,
      "##ופה": 1387,
      "שהוא": 1388,
      "##ניים": 1389,
      "איך": 1390,
      "##חים": 1391,
      "יוד": 1392,
      "הכל": 1393,
      "##דו": 1394,
      "לצ": 1395,
      "מז": 1396,
      "במק": 1397,
      "##כון": 1398,
      "אמר": 1399,
      "אשר": 1400,
      "נש": 1401,
      "הרבה": 1402,
      "בצ": 1403,
      "##לך": 1404,
      "##on": 1405,
      "שב": 1406,
      "אינ": 1407,
      "נוס": 1408,
      "##מע": 1409,
      "##מר": 1410,
      "##יג": 1411,
      "הבי": 1412,
      "כאשר": 1413,
      "להג": 1414,
      "המח": 1415,
      "##רב": 1416,
      "המק": 1417,
      "##בודה": 1418,
      "נית": 1419,
      "בט": 1420,
      "##דרך": 1421,
      "##ברה": 1422,
      "##סט": 1423,
      "אלה": 1424,
      "יל": 1425,
      "באופן": 1426,
      "אלו": 1427,
      "אתם": 1428,
      "בנו": 1429,
      "שם": 1430,
      "שלהם": 1431,
      "##שב": 1432,
      "שלא": 1433,
      "גדול": 1434,
      "חיי": 1435,
      "##פות": 1436,
      "תק": 1437,
      "##ונה": 1438,
      "חלק": 1439,
      "היום": 1440,
      "##פשר": 1441,
      "##פט": 1442,
      "אדם": 1443,
      "##in": 1444,
      "##סים": 1445,
      ").": 1446,
      "##וכל": 1447,
      "אפשר": 1448,
      "במה": 1449,
      "##ורת": 1450,
      "ולא": 1451,
      "השי": 1452,
      "וב": 1453,
      "אחר": 1454,
      "רוצה": 1455,
      "שנים": 1456,
      "##יח": 1457,
      "פי": 1458,
      "כן": 1459,
      "##נד": 1460,
      "##פור": 1461,
      "נע": 1462,
      "אחרי": 1463,
      "##ומי": 1464,
      "##יון": 1465,
      "אחת": 1466,
      "מר": 1467,
      "כול": 1468,
      "##סף": 1469,
      "יצ": 1470,
      "##שון": 1471,
      "##קים": 1472,
      "שאת": 1473,
      "יד": 1474,
      "##ילות": 1475,
      "##יקה": 1476,
      "הבר": 1477,
      "שני": 1478,
      "תח": 1479,
      "נג": 1480,
      "ים": 1481,
      "##ווה": 1482,
      "חי": 1483,
      "##an": 1484,
      "בל": 1485,
      "##צה": 1486,
      "זמן": 1487,
      "##וץ": 1488,
      "מט": 1489,
      "לר": 1490,
      "ות": 1491,
      "נת": 1492,
      "העולם": 1493,
      "הפר": 1494,
      "הל": 1495,
      "תה": 1496,
      "##וחות": 1497,
      "##רט": 1498,
      "##ורך": 1499,
      "יום": 1500,
      "למע": 1501,
      "##קות": 1502,
      "האח": 1503,
      "##נשים": 1504,
      "רג": 1505,
      "בית": 1506,
      "לכל": 1507,
      "##שיו": 1508,
      "##וות": 1509,
      "##יהם": 1510,
      "יכולים": 1511,
      "מספר": 1512,
      "מיל": 1513,
      "עדי": 1514,
      "##מד": 1515,
      "במש": 1516,
      "לרא": 1517,
      "##ורי": 1518,
      "##שית": 1519,
      "##ולים": 1520,
      "להם": 1521,
      "##בד": 1522,
      "קט": 1523,
      "הייתה": 1524,
      "##צות": 1525,
      "##ולוג": 1526,
      "האמ": 1527,
      "##יט": 1528,
      "200": 1529,
      "##כי": 1530,
      "חוש": 1531,
      "##ידע": 1532,
      "יהיה": 1533,
      "גר": 1534,
      "אותם": 1535,
      "##ar": 1536,
      "##מוש": 1537,
      "##צוע": 1538,
      "##ובה": 1539,
      "##או": 1540,
      "נפ": 1541,
      "##טח": 1542,
      "פעם": 1543,
      "המע": 1544,
      "##or": 1545,
      "ממש": 1546,
      "##ובר": 1547,
      "בז": 1548,
      "למה": 1549,
      "##הים": 1550,
      "##צע": 1551,
      "בד": 1552,
      "##ידה": 1553,
      "##ריק": 1554,
      "אחרים": 1555,
      "כת": 1556,
      "מוצ": 1557,
      "חז": 1558,
      "##כשיו": 1559,
      "##כנ": 1560,
      "##ורות": 1561,
      "th": 1562,
      "המס": 1563,
      "קצ": 1564,
      "אף": 1565,
      "יע": 1566,
      "שאני": 1567,
      "אלי": 1568,
      "##של": 1569,
      "שק": 1570,
      "כאן": 1571,
      "נה": 1572,
      "תמיד": 1573,
      "##ומים": 1574,
      "בשנת": 1575,
      "משת": 1576,
      "##ומה": 1577,
      "שלכם": 1578,
      "##ואה": 1579,
      "וע": 1580,
      "ניתן": 1581,
      "##בא": 1582,
      "##רכת": 1583,
      "שיש": 1584,
      "##גר": 1585,
      "חשוב": 1586,
      "הראשו": 1587,
      "הנו": 1588,
      "##חיל": 1589,
      "##ודה": 1590,
      "##en": 1591,
      "התק": 1592,
      "נק": 1593,
      "##al": 1594,
      "שהם": 1595,
      "בדי": 1596,
      "רבים": 1597,
      "##סת": 1598,
      "##פו": 1599,
      "##חי": 1600,
      "##רכז": 1601,
      "##וצים": 1602,
      "להפ": 1603,
      "איר": 1604,
      "בעולם": 1605,
      "##יעה": 1606,
      "##לית": 1607,
      "עצמ": 1608,
      "##יכ": 1609,
      "אותה": 1610,
      "ואת": 1611,
      "שנה": 1612,
      "##חו": 1613,
      "##בוע": 1614,
      "##תיים": 1615,
      "##צל": 1616,
      "##סה": 1617,
      "משהו": 1618,
      "אלא": 1619,
      "אס": 1620,
      "ברי": 1621,
      "ומ": 1622,
      "פשו": 1623,
      "שת": 1624,
      "נמצ": 1625,
      "##לל": 1626,
      "עוב": 1627,
      "##דש": 1628,
      "באמצ": 1629,
      "המת": 1630,
      "##דינה": 1631,
      "##ירת": 1632,
      "##וריה": 1633,
      "לל": 1634,
      "##at": 1635,
      "הסי": 1636,
      "##צב": 1637,
      "##es": 1638,
      "ללא": 1639,
      "הספר": 1640,
      "ספר": 1641,
      "האי": 1642,
      "הגדול": 1643,
      "משפ": 1644,
      "ית": 1645,
      "עדיין": 1646,
      "##חד": 1647,
      "##ובות": 1648,
      "##סטי": 1649,
      "##ניין": 1650,
      "דרך": 1651,
      "קי": 1652,
      "עכשיו": 1653,
      "##גם": 1654,
      "שכ": 1655,
      "##מין": 1656,
      "הן": 1657,
      "לכם": 1658,
      "##לם": 1659,
      "##רץ": 1660,
      "##ביר": 1661,
      "##ומות": 1662,
      "די": 1663,
      "באמת": 1664,
      "אומר": 1665,
      "תר": 1666,
      "נח": 1667,
      "##מית": 1668,
      "in": 1669,
      "רצ": 1670,
      "##רונות": 1671,
      "שר": 1672,
      "לראות": 1673,
      "##מעות": 1674,
      "10": 1675,
      "תע": 1676,
      "אולי": 1677,
      "##בוה": 1678,
      "##ציה": 1679,
      "במהלך": 1680,
      "##זו": 1681,
      "התי": 1682,
      "##גה": 1683,
      "##אן": 1684,
      "##יקר": 1685,
      "##שא": 1686,
      "להשת": 1687,
      "הרג": 1688,
      "הראשון": 1689,
      "##יב": 1690,
      "חיים": 1691,
      "the": 1692,
      "אה": 1693,
      "##וחד": 1694,
      "אוה": 1695,
      "האדם": 1696,
      "אפילו": 1697,
      "הול": 1698,
      "##ביל": 1699,
      "##עם": 1700,
      "הזמן": 1701,
      "עשו": 1702,
      "##יבור": 1703,
      "אותי": 1704,
      "פשוט": 1705,
      "שאתה": 1706,
      "צע": 1707,
      "בדרך": 1708,
      "אד": 1709,
      "מוכ": 1710,
      "חוק": 1711,
      "##ונות": 1712,
      "מן": 1713,
      "##יאות": 1714,
      "החיים": 1715,
      "##ic": 1716,
      "##מונה": 1717,
      "##וה": 1718,
      "בבית": 1719,
      "מוד": 1720,
      "שזה": 1721,
      "##ודות": 1722,
      "##פל": 1723,
      "##גים": 1724,
      "היל": 1725,
      "השני": 1726,
      "לט": 1727,
      "קור": 1728,
      "##וסי": 1729,
      "חש": 1730,
      "באמצעות": 1731,
      "##בק": 1732,
      "רוב": 1733,
      "שח": 1734,
      "##ואר": 1735,
      "##ודים": 1736,
      "##ודי": 1737,
      "תוכ": 1738,
      "פת": 1739,
      "##מור": 1740,
      "הופ": 1741,
      "אומ": 1742,
      "סט": 1743,
      "יודע": 1744,
      "מקום": 1745,
      "##ולות": 1746,
      "##קד": 1747,
      "##ישה": 1748,
      "לקבל": 1749,
      "וכ": 1750,
      "##צד": 1751,
      "רח": 1752,
      "##צר": 1753,
      "כלל": 1754,
      "התע": 1755,
      "##נצ": 1756,
      "היתה": 1757,
      "##ופי": 1758,
      "שבו": 1759,
      "18": 1760,
      "##צמ": 1761,
      "התח": 1762,
      "##it": 1763,
      "להב": 1764,
      "),": 1765,
      "דברים": 1766,
      "רוצים": 1767,
      "##גע": 1768,
      "כמ": 1769,
      "מלא": 1770,
      "##ווח": 1771,
      "קשה": 1772,
      "##מעט": 1773,
      "מוס": 1774,
      "המא": 1775,
      "אינו": 1776,
      "נא": 1777,
      "שוב": 1778,
      "##זר": 1779,
      "הרי": 1780,
      "הייתי": 1781,
      "מאז": 1782,
      "השת": 1783,
      "##ויות": 1784,
      "שהיא": 1785,
      "הדי": 1786,
      "נראה": 1787,
      "בן": 1788,
      "הכי": 1789,
      "מרג": 1790,
      "##גל": 1791,
      "##le": 1792,
      "סוג": 1793,
      "החל": 1794,
      "##ותו": 1795,
      "כד": 1796,
      "במקום": 1797,
      "במי": 1798,
      "היח": 1799,
      "צריכים": 1800,
      "בלי": 1801,
      "##ליך": 1802,
      "בהת": 1803,
      "פל": 1804,
      "אור": 1805,
      "כיצד": 1806,
      "טיפ": 1807,
      "##צור": 1808,
      "תש": 1809,
      "גור": 1810,
      "##מל": 1811,
      "ההת": 1812,
      "הראשונה": 1813,
      "במשך": 1814,
      "##נחנו": 1815,
      "אלוהים": 1816,
      "לדבר": 1817,
      "כפי": 1818,
      "##טרנט": 1819,
      "##צים": 1820,
      "מוש": 1821,
      "מנה": 1822,
      "חדש": 1823,
      "ני": 1824,
      "##טרה": 1825,
      "יכולה": 1826,
      "##ריות": 1827,
      "##פון": 1828,
      "##יפור": 1829,
      "##פש": 1830,
      "##שיך": 1831,
      "##ומית": 1832,
      "##ou": 1833,
      "להע": 1834,
      "עלי": 1835,
      "משמעות": 1836,
      "רע": 1837,
      "למצ": 1838,
      "נגד": 1839,
      "איש": 1840,
      "##יסט": 1841,
      "##פיק": 1842,
      "בסי": 1843,
      "פחות": 1844,
      "האלה": 1845,
      "ילדים": 1846,
      "חל": 1847,
      "מל": 1848,
      "##ובן": 1849,
      "להצ": 1850,
      "##קט": 1851,
      "##st": 1852,
      "החברה": 1853,
      "גבוה": 1854,
      "כמעט": 1855,
      "יוצ": 1856,
      "מכל": 1857,
      "חוד": 1858,
      "##טת": 1859,
      "##ריך": 1860,
      "שתי": 1861,
      "מסוג": 1862,
      "##נלא": 1863,
      "קוד": 1864,
      "##re": 1865,
      "עשר": 1866,
      "וח": 1867,
      "##om": 1868,
      "אית": 1869,
      "בתח": 1870,
      "הדבר": 1871,
      "מידע": 1872,
      "בלב": 1873,
      "נכ": 1874,
      "העיר": 1875,
      "נס": 1876,
      "##פול": 1877,
      "##ברת": 1878,
      "תא": 1879,
      "?\"": 1880,
      "מוע": 1881,
      "תג": 1882,
      "לפע": 1883,
      "##נוי": 1884,
      "עסק": 1885,
      "##מא": 1886,
      "##וקר": 1887,
      "במח": 1888,
      "פני": 1889,
      "רב": 1890,
      "##ומת": 1891,
      "##פרי": 1892,
      "שבה": 1893,
      "אב": 1894,
      "##ער": 1895,
      "##נוע": 1896,
      "##גת": 1897,
      "##וון": 1898,
      "##וקים": 1899,
      "##יז": 1900,
      "קב": 1901,
      "15": 1902,
      "מתח": 1903,
      "##ביב": 1904,
      "הברית": 1905,
      "דול": 1906,
      "##דל": 1907,
      "##ליים": 1908,
      "מהם": 1909,
      "נכון": 1910,
      "עבודה": 1911,
      "בתוך": 1912,
      "הלא": 1913,
      "בשביל": 1914,
      "שום": 1915,
      "עצמו": 1916,
      "המדינה": 1917,
      "##רד": 1918,
      "##קת": 1919,
      "##זרח": 1920,
      "##כנולוג": 1921,
      "קל": 1922,
      "##לחמה": 1923,
      "##נון": 1924,
      "הזו": 1925,
      "עושה": 1926,
      "##פקיד": 1927,
      "חס": 1928,
      "להש": 1929,
      "לכן": 1930,
      "מיליון": 1931,
      "##נם": 1932,
      "##קס": 1933,
      "לז": 1934,
      "##נן": 1935,
      "##כב": 1936,
      "רבות": 1937,
      "##גות": 1938,
      "לנ": 1939,
      "##פס": 1940,
      "בגלל": 1941,
      "ביק": 1942,
      "כולם": 1943,
      "לפי": 1944,
      "בדיוק": 1945,
      "הור": 1946,
      "ביום": 1947,
      "##חור": 1948,
      "מור": 1949,
      "משחק": 1950,
      "בזמן": 1951,
      "לדעת": 1952,
      "אותך": 1953,
      "בלתי": 1954,
      "מתוך": 1955,
      "למרות": 1956,
      "##יעים": 1957,
      "בקר": 1958,
      "##כר": 1959,
      "כולל": 1960,
      "##טית": 1961,
      "##בח": 1962,
      "an": 1963,
      "האיר": 1964,
      "000": 1965,
      "במס": 1966,
      "##תה": 1967,
      "לגבי": 1968,
      "שונים": 1969,
      "##וצאות": 1970,
      "##שימה": 1971,
      "למצוא": 1972,
      "הממש": 1973,
      "ידע": 1974,
      "12": 1975,
      "##תיד": 1976,
      "מתי": 1977,
      "קיי": 1978,
      ".\"": 1979,
      "מוז": 1980,
      "כשה": 1981,
      "199": 1982,
      "אחרת": 1983,
      "##ביא": 1984,
      "##ברסי": 1985,
      "##מון": 1986,
      "וגם": 1987,
      "##מנות": 1988,
      "##וסט": 1989,
      "בעלי": 1990,
      "##רכים": 1991,
      "יק": 1992,
      "##שיא": 1993,
      "להח": 1994,
      "ואני": 1995,
      "##ro": 1996,
      "להכ": 1997,
      "##ובים": 1998,
      "הני": 1999,
      "##יני": 2000,
      "במיוחד": 2001,
      "##ינים": 2002,
      "וזה": 2003,
      "תהיה": 2004,
      "השנה": 2005,
      "יחד": 2006,
      "הוד": 2007,
      "##el": 2008,
      "לקר": 2009,
      "##פע": 2010,
      "##סם": 2011,
      "ברח": 2012,
      "##מנים": 2013,
      "##ועים": 2014,
      "לכך": 2015,
      "להשתמש": 2016,
      "הלי": 2017,
      "קצת": 2018,
      "##רגון": 2019,
      "יודעים": 2020,
      "הזאת": 2021,
      "בטוח": 2022,
      "##וצאה": 2023,
      "##וחר": 2024,
      "##ריים": 2025,
      "מנת": 2026,
      "האחר": 2027,
      "ור": 2028,
      "והוא": 2029,
      "כה": 2030,
      "הנה": 2031,
      "##ion": 2032,
      "##ופות": 2033,
      "##יוני": 2034,
      "##טל": 2035,
      "לשי": 2036,
      "העבודה": 2037,
      "##רגע": 2038,
      "##בעה": 2039,
      "בצורה": 2040,
      "חושב": 2041,
      "##אלי": 2042,
      "מופ": 2043,
      "לפחות": 2044,
      "##כויות": 2045,
      "##קו": 2046,
      "הפל": 2047,
      "##ינטרנט": 2048,
      "הגיע": 2049,
      "הפע": 2050,
      "עליו": 2051,
      "##דע": 2052,
      "##נסה": 2053,
      "חברת": 2054,
      "##טות": 2055,
      "במע": 2056,
      "נו": 2057,
      "##קל": 2058,
      "מספיק": 2059,
      "פור": 2060,
      "שירות": 2061,
      "במו": 2062,
      "ולה": 2063,
      "##is": 2064,
      "of": 2065,
      "##גש": 2066,
      "##בול": 2067,
      "כזה": 2068,
      "המצ": 2069,
      "הבע": 2070,
      "##ואים": 2071,
      "##רונה": 2072,
      "הקר": 2073,
      "למש": 2074,
      "פרי": 2075,
      "##גור": 2076,
      "##שיים": 2077,
      "##וקה": 2078,
      "טר": 2079,
      "הדרך": 2080,
      "הדברים": 2081,
      "בהם": 2082,
      "מתק": 2083,
      "##לוט": 2084,
      "יור": 2085,
      "מאשר": 2086,
      "טובה": 2087,
      "מערכת": 2088,
      "כיום": 2089,
      "מדוע": 2090,
      "תוך": 2091,
      "עומ": 2092,
      "אוכל": 2093,
      "שבוע": 2094,
      "תכ": 2095,
      "##ייס": 2096,
      "לפת": 2097,
      "האמריק": 2098,
      "דולר": 2099,
      "st": 2100,
      "##ווי": 2101,
      "חופ": 2102,
      "קו": 2103,
      "##פתח": 2104,
      "##et": 2105,
      "##וצר": 2106,
      "##סיק": 2107,
      "קרי": 2108,
      "30": 2109,
      "##ריקה": 2110,
      "מוג": 2111,
      "ארו": 2112,
      "תוכל": 2113,
      "וש": 2114,
      "##תו": 2115,
      "##רום": 2116,
      "המשפ": 2117,
      "ברא": 2118,
      "טבע": 2119,
      "כסף": 2120,
      "נשים": 2121,
      "##oo": 2122,
      "שאנחנו": 2123,
      "##כור": 2124,
      "##משים": 2125,
      "##דינות": 2126,
      "אש": 2127,
      "##ותה": 2128,
      "##כונה": 2129,
      "ימים": 2130,
      "החד": 2131,
      "קשר": 2132,
      "קול": 2133,
      "ראש": 2134,
      "ניס": 2135,
      "מישהו": 2136,
      "שעות": 2137,
      "בישראל": 2138,
      "עמ": 2139,
      "אותנו": 2140,
      "11": 2141,
      "נד": 2142,
      "הבית": 2143,
      "החוק": 2144,
      "להגיע": 2145,
      "##משיך": 2146,
      "בלבד": 2147,
      "##טו": 2148,
      "##סטר": 2149,
      "##ולד": 2150,
      "בשי": 2151,
      "בנ": 2152,
      "קיבל": 2153,
      "להבין": 2154,
      "##ואי": 2155,
      "אופ": 2156,
      "כנ": 2157,
      "##ליח": 2158,
      "##מוך": 2159,
      "נות": 2160,
      "לזה": 2161,
      "##קי": 2162,
      "ואז": 2163,
      "שיע": 2164,
      "שאתם": 2165,
      "אחרות": 2166,
      "##זרה": 2167,
      "##אלה": 2168,
      "##מנ": 2169,
      "##שרד": 2170,
      "נמצא": 2171,
      "##למיד": 2172,
      "מסת": 2173,
      "##טחון": 2174,
      "שלוש": 2175,
      "##נויות": 2176,
      "אינם": 2177,
      "##ac": 2178,
      "##בט": 2179,
      "בעוד": 2180,
      "עושים": 2181,
      "##רפת": 2182,
      "##מיים": 2183,
      "##קש": 2184,
      "מסוי": 2185,
      "##תים": 2186,
      "##צת": 2187,
      "בתי": 2188,
      "הארץ": 2189,
      "מקבל": 2190,
      "פה": 2191,
      "מכן": 2192,
      "##זק": 2193,
      "##ודש": 2194,
      "ליי": 2195,
      "זהו": 2196,
      "סוף": 2197,
      "כמובן": 2198,
      "הטי": 2199,
      "התא": 2200,
      "גיל": 2201,
      "ומה": 2202,
      "העוב": 2203,
      "בנוסף": 2204,
      "דו": 2205,
      "##מינים": 2206,
      "##יוון": 2207,
      "המט": 2208,
      "##גיע": 2209,
      "למעשה": 2210,
      "##תם": 2211,
      "##בית": 2212,
      "בעיקר": 2213,
      "##il": 2214,
      "מול": 2215,
      "##וצות": 2216,
      "תת": 2217,
      "מזה": 2218,
      "##יפה": 2219,
      "##רכות": 2220,
      "##עו": 2221,
      "##אם": 2222,
      "##רגיה": 2223,
      "רש": 2224,
      "אינה": 2225,
      "מבי": 2226,
      "נוש": 2227,
      "##מפ": 2228,
      "לעולם": 2229,
      "17": 2230,
      "מיי": 2231,
      "##יקט": 2232,
      "לתת": 2233,
      "הללו": 2234,
      "לקחת": 2235,
      "##ed": 2236,
      "להס": 2237,
      "האנשים": 2238,
      "הבא": 2239,
      "שימוש": 2240,
      "פולי": 2241,
      "##ברות": 2242,
      "הכול": 2243,
      "הממשלה": 2244,
      "##מבר": 2245,
      "ללמוד": 2246,
      "##ושר": 2247,
      "מעל": 2248,
      "##משך": 2249,
      "לעבוד": 2250,
      "בשל": 2251,
      "16": 2252,
      "הלב": 2253,
      "תחת": 2254,
      "בפר": 2255,
      "##צו": 2256,
      "חשב": 2257,
      "##שובה": 2258,
      "המשפט": 2259,
      "עק": 2260,
      "המכ": 2261,
      "שהיה": 2262,
      "מומ": 2263,
      "##ופו": 2264,
      "שש": 2265,
      "##ומיים": 2266,
      "מוק": 2267,
      "הגר": 2268,
      "מדובר": 2269,
      "##מונות": 2270,
      "##מס": 2271,
      "אזרח": 2272,
      "מקצוע": 2273,
      "התר": 2274,
      "##ניהם": 2275,
      "##am": 2276,
      "כוח": 2277,
      "##שיג": 2278,
      "אג": 2279,
      "רוח": 2280,
      "נוסף": 2281,
      "פעמים": 2282,
      "##רבית": 2283,
      "##נטי": 2284,
      "##ופים": 2285,
      "##ינוך": 2286,
      "חייב": 2287,
      "קודם": 2288,
      "הו": 2289,
      "פרס": 2290,
      "##as": 2291,
      "ברור": 2292,
      "##ינה": 2293,
      "לעזור": 2294,
      "##ריה": 2295,
      "תי": 2296,
      "יס": 2297,
      "סרט": 2298,
      "השפ": 2299,
      "מים": 2300,
      "##ירי": 2301,
      "אולם": 2302,
      "אצל": 2303,
      "##יתוח": 2304,
      "##ובת": 2305,
      "האנו": 2306,
      "זק": 2307,
      "עבר": 2308,
      "המה": 2309,
      "13": 2310,
      "##ol": 2311,
      "בעצ": 2312,
      "##ליט": 2313,
      "לומר": 2314,
      "המשחק": 2315,
      "האחרון": 2316,
      "למשל": 2317,
      "ארה": 2318,
      "גדולה": 2319,
      "##ובי": 2320,
      "##ינם": 2321,
      "##נסות": 2322,
      "##רוש": 2323,
      "דקות": 2324,
      "##ילי": 2325,
      "##סיון": 2326,
      "##גון": 2327,
      "##רטי": 2328,
      "גל": 2329,
      "הילדים": 2330,
      "יהיו": 2331,
      "##עד": 2332,
      "##ילת": 2333,
      "פעולה": 2334,
      "##מק": 2335,
      "לבד": 2336,
      "האד": 2337,
      "רכ": 2338,
      "ספק": 2339,
      "להי": 2340,
      "השנים": 2341,
      "##ירוש": 2342,
      "צי": 2343,
      "##ליה": 2344,
      "המב": 2345,
      "מעט": 2346,
      "רואה": 2347,
      "##וסר": 2348,
      "מרכז": 2349,
      "##ch": 2350,
      "ליצור": 2351,
      "רפ": 2352,
      "פרו": 2353,
      "##גי": 2354,
      "##ing": 2355,
      "##ודית": 2356,
      "##זון": 2357,
      "מוב": 2358,
      "שנות": 2359,
      "14": 2360,
      "צריכה": 2361,
      "עש": 2362,
      "##דרה": 2363,
      "##עתי": 2364,
      "##וסים": 2365,
      "מחדש": 2366,
      "נור": 2367,
      "##תרון": 2368,
      "##יסטוריה": 2369,
      "שכל": 2370,
      "הציבור": 2371,
      "##אית": 2372,
      "##שם": 2373,
      "תפ": 2374,
      "בכלל": 2375,
      "הגוף": 2376,
      "##הי": 2377,
      "##ay": 2378,
      "שומ": 2379,
      "##דיה": 2380,
      "איזה": 2381,
      "השלי": 2382,
      "לפר": 2383,
      "מטר": 2384,
      "אוהב": 2385,
      "חדשים": 2386,
      "הסרט": 2387,
      "ככל": 2388,
      "##נתי": 2389,
      "מוח": 2390,
      "למח": 2391,
      "##וציא": 2392,
      "קרובות": 2393,
      "זוכ": 2394,
      "##רון": 2395,
      "קש": 2396,
      "תנו": 2397,
      "נוספים": 2398,
      "כח": 2399,
      "##כונות": 2400,
      "ממו": 2401,
      "##זיה": 2402,
      "##ילדים": 2403,
      "##וניברסי": 2404,
      "בתחום": 2405,
      "##גו": 2406,
      "חודשים": 2407,
      "ער": 2408,
      "הפלסטי": 2409,
      "בפני": 2410,
      "באי": 2411,
      "צורך": 2412,
      "שאין": 2413,
      "כאלה": 2414,
      "שלושה": 2415,
      "בכך": 2416,
      "כעת": 2417,
      "25": 2418,
      "##ביע": 2419,
      "##ידים": 2420,
      "שונות": 2421,
      "##כלה": 2422,
      "מדינות": 2423,
      "##iv": 2424,
      "##נטים": 2425,
      "הבח": 2426,
      "שנת": 2427,
      "בעבר": 2428,
      "##כתב": 2429,
      "ניצ": 2430,
      "##נהל": 2431,
      "לאח": 2432,
      "הדר": 2433,
      "כגון": 2434,
      "לבית": 2435,
      "##וקט": 2436,
      "יר": 2437,
      "##טיח": 2438,
      "##יונות": 2439,
      "משום": 2440,
      "למו": 2441,
      "##דור": 2442,
      "בעל": 2443,
      "מחקר": 2444,
      "##זיק": 2445,
      "ספ": 2446,
      "100": 2447,
      "מלח": 2448,
      "קלי": 2449,
      "טע": 2450,
      "ביט": 2451,
      "הבינלא": 2452,
      "##זם": 2453,
      "השל": 2454,
      "האמת": 2455,
      "##נויים": 2456,
      "בתק": 2457,
      "קטן": 2458,
      "מנ": 2459,
      "נב": 2460,
      "באר": 2461,
      "באתר": 2462,
      "ברחבי": 2463,
      "המל": 2464,
      "הזד": 2465,
      "עמו": 2466,
      "החדש": 2467,
      "##שונה": 2468,
      "תלו": 2469,
      "הקט": 2470,
      "מצב": 2471,
      "##קום": 2472,
      "קורה": 2473,
      "##וגמה": 2474,
      "מעור": 2475,
      "באותו": 2476,
      "שונה": 2477,
      "##ow": 2478,
      "##מיכה": 2479,
      "לאורך": 2480,
      "אחוז": 2481,
      "ללכת": 2482,
      "50": 2483,
      "העסק": 2484,
      "##וסיף": 2485,
      "המוע": 2486,
      "##ופא": 2487,
      "##חל": 2488,
      "##ופת": 2489,
      "##מח": 2490,
      "##יחס": 2491,
      "לוק": 2492,
      "תיא": 2493,
      "התוכ": 2494,
      "ילד": 2495,
      "##טיות": 2496,
      "מפני": 2497,
      "##מוקר": 2498,
      "'.": 2499,
      "on": 2500,
      "##קור": 2501,
      "בשנה": 2502,
      "כדור": 2503,
      "בבר": 2504,
      "בדר": 2505,
      "דור": 2506,
      "המוד": 2507,
      "##גרת": 2508,
      "יי": 2509,
      "רי": 2510,
      "198": 2511,
      "לעתים": 2512,
      "##סון": 2513,
      "עובד": 2514,
      "מיד": 2515,
      "עבוד": 2516,
      "לפעמים": 2517,
      "##עיון": 2518,
      "חדשה": 2519,
      "##ביבה": 2520,
      "##וסיה": 2521,
      "להר": 2522,
      "מגיע": 2523,
      "##ig": 2524,
      "שאלה": 2525,
      "##ra": 2526,
      "##קרים": 2527,
      "שהת": 2528,
      "עצמי": 2529,
      "לצי": 2530,
      "מבחי": 2531,
      "הטוב": 2532,
      "”.": 2533,
      "##נסי": 2534,
      "באיר": 2535,
      "##ווים": 2536,
      "re": 2537,
      "אכ": 2538,
      "לשמור": 2539,
      "לכת": 2540,
      "##למידים": 2541,
      "##חלט": 2542,
      "אמריק": 2543,
      "יא": 2544,
      "מני": 2545,
      "##ent": 2546,
      "המי": 2547,
      "##שתי": 2548,
      "##וויר": 2549,
      "ולכן": 2550,
      "ch": 2551,
      "##ירו": 2552,
      "מקור": 2553,
      "צד": 2554,
      "יית": 2555,
      "הקב": 2556,
      "ארצות": 2557,
      "פול": 2558,
      "##לווי": 2559,
      "עי": 2560,
      "##ודת": 2561,
      "יב": 2562,
      "דר": 2563,
      "לתק": 2564,
      "להשיג": 2565,
      "יורק": 2566,
      "מעבר": 2567,
      "החלט": 2568,
      "טובים": 2569,
      "##טיים": 2570,
      "ההש": 2571,
      "להפוך": 2572,
      "עובדים": 2573,
      "##דיו": 2574,
      "##ועל": 2575,
      "דא": 2576,
      "##מרי": 2577,
      "לקרוא": 2578,
      "מות": 2579,
      "ממנו": 2580,
      "##סור": 2581,
      "שצ": 2582,
      "הסכ": 2583,
      "##בלת": 2584,
      "פעילות": 2585,
      "הטבע": 2586,
      "בגיל": 2587,
      "חברות": 2588,
      "שינוי": 2589,
      "##טיבי": 2590,
      "בוא": 2591,
      "לשנות": 2592,
      "194": 2593,
      "להא": 2594,
      "##וחה": 2595,
      "197": 2596,
      "קרא": 2597,
      "תודה": 2598,
      "הקה": 2599,
      "למי": 2600,
      "##טון": 2601,
      "##ot": 2602,
      "כנראה": 2603,
      "באזור": 2604,
      "מו": 2605,
      "לחלוט": 2606,
      "לחלוטין": 2607,
      "זכויות": 2608,
      "משק": 2609,
      "אמרה": 2610,
      "לבצע": 2611,
      "עיר": 2612,
      "לבין": 2613,
      "בחיים": 2614,
      "כתב": 2615,
      "הצד": 2616,
      "המרכז": 2617,
      "##יך": 2618,
      "כלומר": 2619,
      "בסוף": 2620,
      "חוז": 2621,
      "מנו": 2622,
      "לחשוב": 2623,
      "##ישאר": 2624,
      "יו": 2625,
      "מאפשר": 2626,
      "בעיר": 2627,
      "##כנולוגיה": 2628,
      "דיו": 2629,
      "##שרה": 2630,
      "##טב": 2631,
      "סג": 2632,
      "##קע": 2633,
      "##ופר": 2634,
      "שאנו": 2635,
      "לחיות": 2636,
      "לעצ": 2637,
      "האיש": 2638,
      "בשם": 2639,
      "כאילו": 2640,
      "עשוי": 2641,
      "תוכנית": 2642,
      "##רכה": 2643,
      "המצב": 2644,
      "##וחים": 2645,
      "מאד": 2646,
      "כשא": 2647,
      "##זל": 2648,
      "וי": 2649,
      "##סוף": 2650,
      "40": 2651,
      "##מניה": 2652,
      "במקרה": 2653,
      "##עור": 2654,
      "איפה": 2655,
      "רואים": 2656,
      "תצ": 2657,
      "##ייע": 2658,
      "שיה": 2659,
      "נכנס": 2660,
      "ויש": 2661,
      "חול": 2662,
      "##ציות": 2663,
      "יהודים": 2664,
      "הולך": 2665,
      "בסיס": 2666,
      "עלינו": 2667,
      "##נר": 2668,
      "##מודד": 2669,
      "##ad": 2670,
      "המג": 2671,
      "יוכל": 2672,
      "##ri": 2673,
      "היסט": 2674,
      "##פתחות": 2675,
      "אק": 2676,
      "אבי": 2677,
      "מחש": 2678,
      "##יאה": 2679,
      "השנייה": 2680,
      "טיפול": 2681,
      "לבר": 2682,
      "תס": 2683,
      "מסו": 2684,
      "##פורט": 2685,
      "##פן": 2686,
      "##וביל": 2687,
      "אתכם": 2688,
      "משנה": 2689,
      "קה": 2690,
      "בינלא": 2691,
      "##אב": 2692,
      "##שורת": 2693,
      "##כולת": 2694,
      "196": 2695,
      "בעק": 2696,
      "##רגיש": 2697,
      "המשפחה": 2698,
      "##הליך": 2699,
      "הנוכ": 2700,
      "שול": 2701,
      "רבה": 2702,
      "בעיות": 2703,
      "הצל": 2704,
      "and": 2705,
      "מעולם": 2706,
      "תפקיד": 2707,
      "##נאי": 2708,
      "עז": 2709,
      "##בוק": 2710,
      "בסדר": 2711,
      "שחק": 2712,
      "האל": 2713,
      "##ועה": 2714,
      "הילד": 2715,
      "בידי": 2716,
      "מכו": 2717,
      "##תף": 2718,
      "##חית": 2719,
      "להסת": 2720,
      "##לפון": 2721,
      "##ובל": 2722,
      "##us": 2723,
      "נר": 2724,
      "##לול": 2725,
      "הרצ": 2726,
      "והיא": 2727,
      "וכל": 2728,
      "חשי": 2729,
      "האחרונות": 2730,
      "חת": 2731,
      "סוכ": 2732,
      "שפ": 2733,
      "גבוהה": 2734,
      "מהר": 2735,
      "אליו": 2736,
      "בקרב": 2737,
      "שמו": 2738,
      "##כולם": 2739,
      "##חרות": 2740,
      "משתמשים": 2741,
      "השאלה": 2742,
      "הקוד": 2743,
      "##מודים": 2744,
      "חדשות": 2745,
      "המשת": 2746,
      "מאח": 2747,
      "המידע": 2748,
      "מבין": 2749,
      "אומרים": 2750,
      "ליד": 2751,
      "אנג": 2752,
      "ואם": 2753,
      "##רכי": 2754,
      "מיוח": 2755,
      "שות": 2756,
      "##ut": 2757,
      "##שרת": 2758,
      "מצד": 2759,
      "אינט": 2760,
      "חברים": 2761,
      "מתחיל": 2762,
      "זר": 2763,
      "עוז": 2764,
      "פג": 2765,
      "להק": 2766,
      "מדינה": 2767,
      "פס": 2768,
      "##יצור": 2769,
      "com": 2770,
      "##לוויזיה": 2771,
      "##וגר": 2772,
      "##מצא": 2773,
      "##יצוב": 2774,
      "al": 2775,
      "הרח": 2776,
      "מספק": 2777,
      "אומרת": 2778,
      "סיפור": 2779,
      "סביב": 2780,
      "עור": 2781,
      "##מיות": 2782,
      "בעת": 2783,
      "מרגיש": 2784,
      "עצמה": 2785,
      "חומ": 2786,
      "ארבע": 2787,
      "והם": 2788,
      "נוספת": 2789,
      "בריאות": 2790,
      "to": 2791,
      "יפה": 2792,
      "##נאים": 2793,
      "##יתים": 2794,
      "כלי": 2795,
      "לטי": 2796,
      "טרא": 2797,
      "ארג": 2798,
      "עליהם": 2799,
      "המחקר": 2800,
      "עולם": 2801,
      "מאת": 2802,
      "הפעם": 2803,
      "מדע": 2804,
      "חייבים": 2805,
      "##ראות": 2806,
      "באותה": 2807,
      "התג": 2808,
      "שהי": 2809,
      "שוא": 2810,
      "##חן": 2811,
      "אהבה": 2812,
      "##חון": 2813,
      "בעיה": 2814,
      "##רוך": 2815,
      "עליה": 2816,
      "להתחיל": 2817,
      "הבעיה": 2818,
      "דומה": 2819,
      "הנת": 2820,
      "מחוץ": 2821,
      "כלפי": 2822,
      "הוכ": 2823,
      "האפשר": 2824,
      "לחזור": 2825,
      "לבחור": 2826,
      "##ניק": 2827,
      "הגדולה": 2828,
      "מאות": 2829,
      "קרה": 2830,
      "ניו": 2831,
      "ציבור": 2832,
      "לבי": 2833,
      "המקום": 2834,
      "שוק": 2835,
      "שית": 2836,
      "מנהיג": 2837,
      "ככה": 2838,
      "מאוחר": 2839,
      "בנושא": 2840,
      "לעצמ": 2841,
      "##ur": 2842,
      "עצמם": 2843,
      "הבל": 2844,
      "24": 2845,
      "##ראים": 2846,
      "להתק": 2847,
      "נתונים": 2848,
      "בעקבות": 2849,
      "##ומו": 2850,
      "##id": 2851,
      "בארה": 2852,
      "הצע": 2853,
      "##יפוש": 2854,
      "למען": 2855,
      "לגרום": 2856,
      "!\"": 2857,
      "חמי": 2858,
      "ונ": 2859,
      "בסופו": 2860,
      "צבע": 2861,
      "אתר": 2862,
      "העם": 2863,
      "##ובע": 2864,
      "לשחק": 2865,
      "וכן": 2866,
      "משי": 2867,
      "##מני": 2868,
      "##יינו": 2869,
      "##שיר": 2870,
      "הרפ": 2871,
      "גברים": 2872,
      "להמשיך": 2873,
      "##יצוני": 2874,
      "כס": 2875,
      "נוע": 2876,
      "אפש": 2877,
      "שנית": 2878,
      "היינו": 2879,
      "משפחת": 2880,
      "##רכו": 2881,
      "הרוח": 2882,
      "הסיבה": 2883,
      "לעומת": 2884,
      "##ופול": 2885,
      "השק": 2886,
      "##דרת": 2887,
      "##למים": 2888,
      "העלי": 2889,
      "##יכנס": 2890,
      "איכות": 2891,
      "בהתאם": 2892,
      "מרח": 2893,
      "קיים": 2894,
      "ההג": 2895,
      "תהליך": 2896,
      "##זרת": 2897,
      "##ורג": 2898,
      "העול": 2899,
      "בתוכ": 2900,
      "##נצח": 2901,
      "##ונג": 2902,
      "##כיר": 2903,
      "המוס": 2904,
      "''": 2905,
      "סכ": 2906,
      "##ודנטים": 2907,
      "at": 2908,
      "##בלו": 2909,
      "לתוך": 2910,
      "ועוד": 2911,
      "בזה": 2912,
      "לאנשים": 2913,
      "הפס": 2914,
      "אנשי": 2915,
      "er": 2916,
      "ערך": 2917,
      "##ויים": 2918,
      "##ct": 2919,
      "ראשון": 2920,
      "הית": 2921,
      "ניה": 2922,
      "שלום": 2923,
      "תוכלו": 2924,
      "הלק": 2925,
      "זכ": 2926,
      "en": 2927,
      "כוחות": 2928,
      "##רבה": 2929,
      "##ומן": 2930,
      "סמ": 2931,
      "##פא": 2932,
      "השבוע": 2933,
      "##זי": 2934,
      "האינטרנט": 2935,
      "##בלה": 2936,
      "##חתי": 2937,
      "##יתית": 2938,
      "##יחוד": 2939,
      "משא": 2940,
      "רגע": 2941,
      "##גרים": 2942,
      "כדאי": 2943,
      "לגמרי": 2944,
      "שמע": 2945,
      "בארץ": 2946,
      "מיליא": 2947,
      "קצר": 2948,
      "ייש": 2949,
      "המלחמה": 2950,
      "##וצרים": 2951,
      "##נגד": 2952,
      "##ציב": 2953,
      "אמא": 2954,
      "פסי": 2955,
      "##ברו": 2956,
      "ייתכן": 2957,
      "למד": 2958,
      "היש": 2959,
      "##נתה": 2960,
      "##סיס": 2961,
      "##ציג": 2962,
      "לספק": 2963,
      "##שראלי": 2964,
      "היהודים": 2965,
      "נמצאים": 2966,
      "##שרים": 2967,
      "##בלות": 2968,
      "##צרים": 2969,
      "##כלי": 2970,
      "##ובד": 2971,
      "הער": 2972,
      "זוהי": 2973,
      "אותן": 2974,
      "משפט": 2975,
      "##יאון": 2976,
      "האחרונה": 2977,
      "##מנע": 2978,
      "##ודל": 2979,
      "תרבות": 2980,
      "החדשה": 2981,
      "##ימה": 2982,
      "היית": 2983,
      "אוט": 2984,
      "בהחלט": 2985,
      "##רס": 2986,
      "סיפ": 2987,
      "להז": 2988,
      "כמות": 2989,
      "de": 2990,
      "##לוהים": 2991,
      "##כוי": 2992,
      "הסת": 2993,
      "sh": 2994,
      "מונ": 2995,
      "##בן": 2996,
      "האה": 2997,
      "צבא": 2998,
      "עניין": 2999,
      "##נא": 3000,
      "##מיה": 3001,
      "המוז": 3002,
      "בשבוע": 3003,
      "התכ": 3004,
      "לצאת": 3005,
      "נעשה": 3006,
      "דעת": 3007,
      "##טג": 3008,
      "##בתי": 3009,
      "##נגלית": 3010,
      "אלף": 3011,
      "##וקא": 3012,
      "להביא": 3013,
      "ישנם": 3014,
      "לשם": 3015,
      "להתמודד": 3016,
      "להגיד": 3017,
      "##לתי": 3018,
      "##ריז": 3019,
      "בנק": 3020,
      "##מט": 3021,
      "הפולי": 3022,
      "תומ": 3023,
      "המאה": 3024,
      "##ידות": 3025,
      "##מץ": 3026,
      "אוני": 3027,
      "טי": 3028,
      "##מול": 3029,
      "בשנים": 3030,
      "##שלום": 3031,
      "תוצאות": 3032,
      "לאכול": 3033,
      "העצ": 3034,
      "##וצת": 3035,
      "##ישות": 3036,
      "##ושבים": 3037,
      "מזון": 3038,
      "מלחמת": 3039,
      "האתר": 3040,
      "הנשיא": 3041,
      "שיכול": 3042,
      "כולנו": 3043,
      "##סות": 3044,
      "##שבון": 3045,
      "זוג": 3046,
      "תז": 3047,
      "##ir": 3048,
      "למנוע": 3049,
      "##קב": 3050,
      "##נהגות": 3051,
      "##רחש": 3052,
      "משפחה": 3053,
      "##נסים": 3054,
      "ממשלת": 3055,
      "',": 3056,
      "ממה": 3057,
      "הרש": 3058,
      "מתחת": 3059,
      "ארגון": 3060,
      "##נח": 3061,
      "נט": 3062,
      "##וגרים": 3063,
      "השימוש": 3064,
      "הבריאות": 3065,
      "פא": 3066,
      "עליך": 3067,
      "is": 3068,
      "##זאת": 3069,
      "חברה": 3070,
      "העיק": 3071,
      "מבוס": 3072,
      "אישי": 3073,
      "מדינת": 3074,
      "אצ": 3075,
      "##וטים": 3076,
      "21": 3077,
      "שט": 3078,
      "##בורה": 3079,
      "ברגע": 3080,
      "חק": 3081,
      "חושבים": 3082,
      "רשת": 3083,
      "##מנו": 3084,
      "##צית": 3085,
      "יכולות": 3086,
      "בינו": 3087,
      "##ישים": 3088,
      "יודעת": 3089,
      "משתמש": 3090,
      "עשה": 3091,
      "עסקים": 3092,
      "גישה": 3093,
      "חמש": 3094,
      "לרכ": 3095,
      "משרד": 3096,
      "שג": 3097,
      "##זע": 3098,
      "התפ": 3099,
      "לפג": 3100,
      "מנסה": 3101,
      "##ידו": 3102,
      "מצא": 3103,
      "לכתוב": 3104,
      "שנו": 3105,
      "תופ": 3106,
      "קרוב": 3107,
      "ועד": 3108,
      "שבע": 3109,
      "##ציפ": 3110,
      "הבאה": 3111,
      "##ation": 3112,
      "##נציא": 3113,
      "לוח": 3114,
      "במצב": 3115,
      "לקנות": 3116,
      "היטב": 3117,
      "הצבא": 3118,
      "היד": 3119,
      "באינטרנט": 3120,
      "פלסטי": 3121,
      "60": 3122,
      "השר": 3123,
      "מדה": 3124,
      "דין": 3125,
      "הסיפור": 3126,
      "ידוע": 3127,
      "ציל": 3128,
      "##נדון": 3129,
      "חוסר": 3130,
      "שאלות": 3131,
      "##um": 3132,
      "##כני": 3133,
      "האר": 3134,
      "אישה": 3135,
      "חוו": 3136,
      "נצ": 3137,
      "##נדר": 3138,
      "##סר": 3139,
      "מכך": 3140,
      "זכות": 3141,
      "לסי": 3142,
      "השם": 3143,
      "ne": 3144,
      "##יץ": 3145,
      "##צלחה": 3146,
      "כרטי": 3147,
      "##ברי": 3148,
      "משות": 3149,
      "קבוע": 3150,
      "##מלי": 3151,
      "המוח": 3152,
      "##כלית": 3153,
      "שהיו": 3154,
      "אירופה": 3155,
      "ניק": 3156,
      "##ce": 3157,
      "se": 3158,
      "צפ": 3159,
      "##ag": 3160,
      "בשלב": 3161,
      "תרג": 3162,
      "##ספר": 3163,
      "אמרתי": 3164,
      "במהירות": 3165,
      "##שע": 3166,
      "למעלה": 3167,
      "##מתי": 3168,
      "##ורית": 3169,
      "מיני": 3170,
      "##ראו": 3171,
      "ירי": 3172,
      "##טרי": 3173,
      "פיל": 3174,
      "תמונות": 3175,
      "195": 3176,
      "דרכים": 3177,
      "##זית": 3178,
      "היחידה": 3179,
      "##מוע": 3180,
      "הקש": 3181,
      "2015": 3182,
      "סק": 3183,
      "נדר": 3184,
      "##מנית": 3185,
      "הישראל": 3186,
      "##רוץ": 3187,
      "##וטנציא": 3188,
      "##פרד": 3189,
      "לעיתים": 3190,
      "שיי": 3191,
      "##ורף": 3192,
      "מדיניות": 3193,
      "אבא": 3194,
      "הביתה": 3195,
      "מבט": 3196,
      "בואו": 3197,
      "it": 3198,
      "ימי": 3199,
      "##מנה": 3200,
      "להרגיש": 3201,
      "אכן": 3202,
      "חר": 3203,
      "פנים": 3204,
      "##נרגיה": 3205,
      "##חם": 3206,
      "כוכ": 3207,
      "עולה": 3208,
      "צוות": 3209,
      "##אום": 3210,
      "##נוק": 3211,
      "##אתה": 3212,
      "בתור": 3213,
      "הנתונים": 3214,
      "##ter": 3215,
      "מסוימים": 3216,
      "יג": 3217,
      "האור": 3218,
      "מהי": 3219,
      "מכיוון": 3220,
      "אוהבים": 3221,
      "הזדמנות": 3222,
      "רצי": 3223,
      "##כונים": 3224,
      "בפעם": 3225,
      "נחש": 3226,
      "היחיד": 3227,
      "כות": 3228,
      "##יית": 3229,
      "עשויים": 3230,
      "צפו": 3231,
      "##על": 3232,
      "##ליק": 3233,
      "אמריקה": 3234,
      "המוש": 3235,
      "מאמין": 3236,
      "##יקים": 3237,
      "לדוגמה": 3238,
      "סיי": 3239,
      "ביחד": 3240,
      "הראשונים": 3241,
      "הפך": 3242,
      "##ומיות": 3243,
      "הצה": 3244,
      "בעצם": 3245,
      "כב": 3246,
      "מחפ": 3247,
      "להיכנס": 3248,
      "##וגים": 3249,
      "ar": 3250,
      "בטי": 3251,
      "שיל": 3252,
      "מדברים": 3253,
      "##רונים": 3254,
      "ההיסטוריה": 3255,
      "טראמפ": 3256,
      "לקוחות": 3257,
      "צל": 3258,
      "הגבוה": 3259,
      "שמח": 3260,
      "הקור": 3261,
      "המשי": 3262,
      "החש": 3263,
      "גדולים": 3264,
      "במא": 3265,
      "צה": 3266,
      "לחץ": 3267,
      "##ולוגיה": 3268,
      "לעבור": 3269,
      "מקווה": 3270,
      "##מך": 3271,
      "##ראי": 3272,
      "2014": 3273,
      "יחס": 3274,
      "המדינות": 3275,
      "מסוגל": 3276,
      "דם": 3277,
      "ליה": 3278,
      "החי": 3279,
      "##שויות": 3280,
      "##וונת": 3281,
      "הביטחון": 3282,
      "החלק": 3283,
      "האוויר": 3284,
      "##ess": 3285,
      "for": 3286,
      "סין": 3287,
      "במדינה": 3288,
      "סיבה": 3289,
      "נושא": 3290,
      "##ולת": 3291,
      "להישאר": 3292,
      "לבנות": 3293,
      "##רושלים": 3294,
      "בארצות": 3295,
      "מיליארד": 3296,
      "##פטמבר": 3297,
      "כע": 3298,
      "לראשונה": 3299,
      "ניהול": 3300,
      "ירושלים": 3301,
      "גב": 3302,
      "##לוק": 3303,
      "##חלה": 3304,
      "##ראש": 3305,
      "מדבר": 3306,
      "we": 3307,
      "עול": 3308,
      "##ניסה": 3309,
      "הוק": 3310,
      "##os": 3311,
      "האוכל": 3312,
      "מקרה": 3313,
      "דווקא": 3314,
      "אפשרי": 3315,
      "שנע": 3316,
      "נשא": 3317,
      "גורם": 3318,
      "##קשה": 3319,
      "חג": 3320,
      "חיל": 3321,
      "מאמינים": 3322,
      "ההז": 3323,
      "יצא": 3324,
      "צרפת": 3325,
      "##חס": 3326,
      "אלפי": 3327,
      "יהודי": 3328,
      "התעופה": 3329,
      "שיהיה": 3330,
      "##כס": 3331,
      "המטרה": 3332,
      "אסטר": 3333,
      "הטיפול": 3334,
      "לילדים": 3335,
      "##עיף": 3336,
      "נמו": 3337,
      "##סל": 3338,
      "##ושי": 3339,
      "מערכות": 3340,
      "אמיתי": 3341,
      "22": 3342,
      "##פילו": 3343,
      "השמ": 3344,
      "חזק": 3345,
      "עומד": 3346,
      "##ייה": 3347,
      "##רחק": 3348,
      "פוע": 3349,
      "##un": 3350,
      "להגן": 3351,
      "איראן": 3352,
      "##צמבר": 3353,
      "מפל": 3354,
      "מוצרים": 3355,
      "הלו": 3356,
      "##לון": 3357,
      "לאור": 3358,
      "##טיב": 3359,
      "הקד": 3360,
      "הדין": 3361,
      "##וקטובר": 3362,
      "ון": 3363,
      "משמעותי": 3364,
      "במסגרת": 3365,
      "##טרף": 3366,
      "בחיי": 3367,
      "##ia": 3368,
      "##כלו": 3369,
      "קטנה": 3370,
      "שווה": 3371,
      "אוו": 3372,
      "אמרו": 3373,
      "דת": 3374,
      "טור": 3375,
      "מלחמה": 3376,
      "##ודעה": 3377,
      "ומע": 3378,
      "השירות": 3379,
      "אנרגיה": 3380,
      "##וכן": 3381,
      "ממשי": 3382,
      "##שייה": 3383,
      "לשלם": 3384,
      "המים": 3385,
      "##דיניות": 3386,
      "##זיר": 3387,
      "##לץ": 3388,
      "אמת": 3389,
      "בוד": 3390,
      "טוע": 3391,
      "רכב": 3392,
      "##בלים": 3393,
      "לשמוע": 3394,
      "מתע": 3395,
      "פרק": 3396,
      "בנוגע": 3397,
      "ניסיון": 3398,
      "עב": 3399,
      "שיק": 3400,
      "מסוים": 3401,
      "רומ": 3402,
      "##im": 3403,
      "האופ": 3404,
      "הכסף": 3405,
      "הקרי": 3406,
      "אילו": 3407,
      "לנסות": 3408,
      "##וריות": 3409,
      "##נהיג": 3410,
      "כללי": 3411,
      "מבלי": 3412,
      "כתוצאה": 3413,
      "קנ": 3414,
      "ראה": 3415,
      "##לוח": 3416,
      "אישית": 3417,
      "לישראל": 3418,
      "תיק": 3419,
      "##גן": 3420,
      "##ונית": 3421,
      "##oc": 3422,
      "הטר": 3423,
      "##ניח": 3424,
      "##ניס": 3425,
      "המד": 3426,
      "השחק": 3427,
      "##טא": 3428,
      "פרופ": 3429,
      "וכך": 3430,
      "שבועות": 3431,
      "באירופה": 3432,
      "ביי": 3433,
      "העי": 3434,
      "שמת": 3435,
      "##ליחה": 3436,
      "העתי": 3437,
      "תקופה": 3438,
      "אפשרות": 3439,
      "##מדו": 3440,
      "##סום": 3441,
      "לאחרונה": 3442,
      "ראי": 3443,
      "לצד": 3444,
      "העובדה": 3445,
      "פק": 3446,
      "##ניינים": 3447,
      "הנפ": 3448,
      "ראיתי": 3449,
      "you": 3450,
      "קא": 3451,
      "ובכל": 3452,
      "קטנים": 3453,
      "אוניברסי": 3454,
      "ופ": 3455,
      "##רטים": 3456,
      "מסע": 3457,
      "גופ": 3458,
      "##ושה": 3459,
      "##טן": 3460,
      "מעוני": 3461,
      "סיפר": 3462,
      "לספר": 3463,
      "קבוצה": 3464,
      "un": 3465,
      "נוספות": 3466,
      "הבנק": 3467,
      "שינויים": 3468,
      "le": 3469,
      "יות": 3470,
      "הבאים": 3471,
      "מחיר": 3472,
      "היהודי": 3473,
      "איתו": 3474,
      "בלו": 3475,
      "שיו": 3476,
      "ארבעה": 3477,
      "יוצא": 3478,
      "וג": 3479,
      "##פיה": 3480,
      "##וחת": 3481,
      "ראו": 3482,
      "בבי": 3483,
      "היכולת": 3484,
      "##שיב": 3485,
      "הטובה": 3486,
      "80": 3487,
      "הים": 3488,
      "אוהבת": 3489,
      "23": 3490,
      "גבר": 3491,
      "האס": 3492,
      "מהמ": 3493,
      "##ידת": 3494,
      "כלום": 3495,
      "##רוני": 3496,
      "2013": 3497,
      "המערכת": 3498,
      "הוג": 3499,
      "חודש": 3500,
      "דה": 3501,
      "##זים": 3502,
      "המדע": 3503,
      "תל": 3504,
      "מיוחד": 3505,
      "גא": 3506,
      "החשוב": 3507,
      "החולים": 3508,
      "עצמך": 3509,
      "חצי": 3510,
      "נשיא": 3511,
      "שיר": 3512,
      "אליה": 3513,
      "בצד": 3514,
      "##דיר": 3515,
      "המלא": 3516,
      "##חילת": 3517,
      "מוכן": 3518,
      "##נייה": 3519,
      "יצירת": 3520,
      "ספרים": 3521,
      "מלאה": 3522,
      "מאחורי": 3523,
      "האזרח": 3524,
      "##מונים": 3525,
      "כיוון": 3526,
      "##ראית": 3527,
      "2017": 3528,
      "##ארק": 3529,
      "בחר": 3530,
      "ערב": 3531,
      "להתע": 3532,
      "ing": 3533,
      "עית": 3534,
      "##גוד": 3535,
      "##פכה": 3536,
      ".”": 3537,
      "שאר": 3538,
      "##ריון": 3539,
      "##יעו": 3540,
      "##נתיים": 3541,
      "##פתי": 3542,
      "לעמוד": 3543,
      "##ושב": 3544,
      "שבהם": 3545,
      "##ופית": 3546,
      "##יינים": 3547,
      "מעניין": 3548,
      "לימוד": 3549,
      "עשרה": 3550,
      "שצריך": 3551,
      "##יעות": 3552,
      "##רחב": 3553,
      "רחב": 3554,
      "אודות": 3555,
      "זיה": 3556,
      "##חרר": 3557,
      "##שתו": 3558,
      "חשבו": 3559,
      "##ופאים": 3560,
      "בחודש": 3561,
      "##יסה": 3562,
      "לשים": 3563,
      "תלוי": 3564,
      "טכנולוג": 3565,
      "פתרון": 3566,
      "הסט": 3567,
      "2012": 3568,
      "2018": 3569,
      "לשע": 3570,
      "##יכרון": 3571,
      "##th": 3572,
      "35": 3573,
      "70": 3574,
      "לנק": 3575,
      "##וונים": 3576,
      "הגיעו": 3577,
      "הנא": 3578,
      "צעירים": 3579,
      "2011": 3580,
      "הבינלאומי": 3581,
      "וד": 3582,
      "תמיכה": 3583,
      "##ליטים": 3584,
      "מסי": 3585,
      "טבעי": 3586,
      "עתי": 3587,
      "##לנד": 3588,
      "##ורר": 3589,
      "2010": 3590,
      "לפעול": 3591,
      "נוכ": 3592,
      "ורק": 3593,
      "הקבוצה": 3594,
      "כזו": 3595,
      "תמ": 3596,
      "##פיים": 3597,
      "האלו": 3598,
      "##יקטים": 3599,
      "בהן": 3600,
      "בבוקר": 3601,
      "נז": 3602,
      "שגם": 3603,
      "תב": 3604,
      "לאי": 3605,
      "הסכם": 3606,
      "השפעה": 3607,
      "##פרים": 3608,
      "ואף": 3609,
      "ייע": 3610,
      "ובע": 3611,
      "מילים": 3612,
      "ניש": 3613,
      "##ap": 3614,
      "נשאר": 3615,
      "האחרונים": 3616,
      "תשומת": 3617,
      "חולים": 3618,
      "##ie": 3619,
      "מקבלים": 3620,
      "בוח": 3621,
      "מרי": 3622,
      "ההס": 3623,
      "הרע": 3624,
      "הביט": 3625,
      "##igh": 3626,
      "מין": 3627,
      "הלילה": 3628,
      "התיכון": 3629,
      "שבי": 3630,
      "##פוס": 3631,
      "בעתיד": 3632,
      "חזרה": 3633,
      "דוג": 3634,
      "מפור": 3635,
      "##שק": 3636,
      "לשפר": 3637,
      "קבוצות": 3638,
      "מבחינה": 3639,
      "!!": 3640,
      "##שיות": 3641,
      "התשובה": 3642,
      "ביצוע": 3643,
      "נולד": 3644,
      "רווח": 3645,
      "##טיה": 3646,
      "בעזרת": 3647,
      "חושבת": 3648,
      "##ייב": 3649,
      "##צא": 3650,
      "במרכז": 3651,
      "##וגה": 3652,
      "הקול": 3653,
      "בשוק": 3654,
      "ממנה": 3655,
      "הופך": 3656,
      "יכולת": 3657,
      "##נסת": 3658,
      "מגיעים": 3659,
      "חיו": 3660,
      "מיק": 3661,
      "עלול": 3662,
      "הארגון": 3663,
      "##ידן": 3664,
      "הקשר": 3665,
      "לשא": 3666,
      "##יפות": 3667,
      "מלו": 3668,
      "להיר": 3669,
      "נקודות": 3670,
      "התוכנית": 3671,
      "שעה": 3672,
      "תינו": 3673,
      "המשטרה": 3674,
      "מוט": 3675,
      "השלישי": 3676,
      "גד": 3677,
      "האינ": 3678,
      "pro": 3679,
      "##שיית": 3680,
      "לרוב": 3681,
      "עבד": 3682,
      "##לין": 3683,
      "##סקה": 3684,
      "מתא": 3685,
      "בקלות": 3686,
      "##מדים": 3687,
      "חמ": 3688,
      "##זב": 3689,
      "תרופות": 3690,
      "תכנית": 3691,
      "חוץ": 3692,
      "עת": 3693,
      "##נועה": 3694,
      "יתר": 3695,
      "מפר": 3696,
      "המלך": 3697,
      "לאדם": 3698,
      "לגלות": 3699,
      "##ניהול": 3700,
      "לומ": 3701,
      "בחלק": 3702,
      "##and": 3703,
      "##מאס": 3704,
      "ad": 3705,
      "##ייסבוק": 3706,
      "##סס": 3707,
      "##פריל": 3708,
      "ההבד": 3709,
      "##ליף": 3710,
      "באנגלית": 3711,
      "וס": 3712,
      "שמש": 3713,
      "##דון": 3714,
      "הרב": 3715,
      "##וגל": 3716,
      "ויר": 3717,
      "ומת": 3718,
      "##חרי": 3719,
      "המון": 3720,
      "לעז": 3721,
      "##רווי": 3722,
      "מנהל": 3723,
      "לקראת": 3724,
      "חשבתי": 3725,
      "מוקדם": 3726,
      "sp": 3727,
      "תמונה": 3728,
      "##מדה": 3729,
      "למקום": 3730,
      "##ילויות": 3731,
      "חזר": 3732,
      "500": 3733,
      "להתי": 3734,
      "במידה": 3735,
      "העבר": 3736,
      "הגור": 3737,
      "##מום": 3738,
      "##דרות": 3739,
      "##ירושלים": 3740,
      "##וניברסיטה": 3741,
      "שניתן": 3742,
      "##שמה": 3743,
      "##טרות": 3744,
      "אחריות": 3745,
      "דמוקר": 3746,
      "סל": 3747,
      "##כבת": 3748,
      "193": 3749,
      "la": 3750,
      "טרי": 3751,
      "##ביעי": 3752,
      "לבע": 3753,
      "חברי": 3754,
      "רוסיה": 3755,
      "שמי": 3756,
      "בעיני": 3757,
      "נשמע": 3758,
      "הקהילה": 3759,
      "26": 3760,
      "ספורט": 3761,
      "##ָּ": 3762,
      "##וונה": 3763,
      "הוצ": 3764,
      "בערך": 3765,
      "בעצמ": 3766,
      "ההורים": 3767,
      "ארוך": 3768,
      "נותן": 3769,
      "הפג": 3770,
      "בתחילת": 3771,
      "לפתח": 3772,
      "קונ": 3773,
      "שכן": 3774,
      "##יתנו": 3775,
      "שאפשר": 3776,
      "שימו": 3777,
      "משחקים": 3778,
      "\")": 3779,
      "האו": 3780,
      "העתיד": 3781,
      "שאינם": 3782,
      "לבדוק": 3783,
      "##מינו": 3784,
      "כולו": 3785,
      "מאושר": 3786,
      "##וסייה": 3787,
      "עזרה": 3788,
      "הישראלי": 3789,
      "ואפילו": 3790,
      "יקרה": 3791,
      "להיפ": 3792,
      "מהן": 3793,
      "הכוח": 3794,
      "השמש": 3795,
      "מכת": 3796,
      "מגוון": 3797,
      "28": 3798,
      "##חרת": 3799,
      "בראש": 3800,
      "##ברואר": 3801,
      "##ילד": 3802,
      "##מוצע": 3803,
      "הגדולים": 3804,
      "##מנויות": 3805,
      "##ושת": 3806,
      "להבטיח": 3807,
      "יפ": 3808,
      "##ידאו": 3809,
      "##ייט": 3810,
      "ויותר": 3811,
      "העיקר": 3812,
      "##לקת": 3813,
      "הדת": 3814,
      "מזרח": 3815,
      "תוכניות": 3816,
      "90": 3817,
      "##ידול": 3818,
      "יצר": 3819,
      "נמצאת": 3820,
      "חסר": 3821,
      "##פיע": 3822,
      "יחסים": 3823,
      "2008": 3824,
      "עוצ": 3825,
      "היכן": 3826,
      "במאי": 3827,
      "מתאים": 3828,
      "2016": 3829,
      "##יגה": 3830,
      "קיימת": 3831,
      "בינואר": 3832,
      "הפת": 3833,
      "הכת": 3834,
      "##כוון": 3835,
      "חייו": 3836,
      "2009": 3837,
      "##חלטה": 3838,
      "27": 3839,
      "ייח": 3840,
      "שמות": 3841,
      "##ומרים": 3842,
      "##יימים": 3843,
      "##em": 3844,
      "##פוך": 3845,
      "המפל": 3846,
      "הרכב": 3847,
      "##רגל": 3848,
      "כרגע": 3849,
      "שאם": 3850,
      "##ישור": 3851,
      "חוקי": 3852,
      "##משו": 3853,
      "##שיבה": 3854,
      "ההצ": 3855,
      "בסרט": 3856,
      "הטובים": 3857,
      "].": 3858,
      "יז": 3859,
      "הוס": 3860,
      "פיתוח": 3861,
      "##פחה": 3862,
      "להור": 3863,
      "בחברה": 3864,
      "צעד": 3865,
      "רחוק": 3866,
      "המודר": 3867,
      "לשעבר": 3868,
      "אירוע": 3869,
      "##ויקט": 3870,
      "נשק": 3871,
      "לאפשר": 3872,
      "מאיתנו": 3873,
      "הפני": 3874,
      "ולאחר": 3875,
      "להעביר": 3876,
      "כפ": 3877,
      "תוס": 3878,
      "אמור": 3879,
      "לבקר": 3880,
      "להתח": 3881,
      "כשהוא": 3882,
      "בשר": 3883,
      "##ותם": 3884,
      "##ריכה": 3885,
      "##ישת": 3886,
      "איננו": 3887,
      "אינטרנט": 3888,
      "היחסים": 3889,
      "עשרות": 3890,
      "ענק": 3891,
      "משנת": 3892,
      "הנכון": 3893,
      "ואין": 3894,
      "נהרג": 3895,
      "הוש": 3896,
      "מוכנים": 3897,
      "דיא": 3898,
      "##מיחה": 3899,
      "חיוב": 3900,
      "מסוגלים": 3901,
      "ממוק": 3902,
      "co": 3903,
      "הומ": 3904,
      "##ul": 3905,
      "##טחה": 3906,
      "הרעיון": 3907,
      "מכש": 3908,
      "שמא": 3909,
      "##שימת": 3910,
      "שאנשים": 3911,
      "מחקרים": 3912,
      "##טרך": 3913,
      "בלילה": 3914,
      "העובדים": 3915,
      "מחפשים": 3916,
      "לילה": 3917,
      "שו": 3918,
      "שזו": 3919,
      "##אק": 3920,
      "##און": 3921,
      "##ושבי": 3922,
      "##נגדות": 3923,
      "גורמים": 3924,
      "הוע": 3925,
      "##אלות": 3926,
      "כבוד": 3927,
      "מראש": 3928,
      "##מנט": 3929,
      "איזו": 3930,
      "האחרים": 3931,
      "קבוצת": 3932,
      "כרי": 3933,
      "בוקר": 3934,
      "ינו": 3935,
      "רמת": 3936,
      "##מכים": 3937,
      "הגל": 3938,
      "##מינה": 3939,
      "אזור": 3940,
      "גרמניה": 3941,
      "התינוק": 3942,
      "טרור": 3943,
      "goo": 3944,
      "ph": 3945,
      "לנצח": 3946,
      "סוב": 3947,
      "קומ": 3948,
      "##רישות": 3949,
      "##ind": 3950,
      "ברשת": 3951,
      "הנושא": 3952,
      "מלב": 3953,
      "תור": 3954,
      "המוצר": 3955,
      "ברמה": 3956,
      "לשימוש": 3957,
      "##כתי": 3958,
      "חינוך": 3959,
      "היצ": 3960,
      "האזור": 3961,
      "##כולוג": 3962,
      "##לטון": 3963,
      "גוף": 3964,
      "שטח": 3965,
      "##ve": 3966,
      "##ופל": 3967,
      "החופ": 3968,
      "ההכ": 3969,
      "מבק": 3970,
      "ראשית": 3971,
      "##בנה": 3972,
      "בור": 3973,
      "מוות": 3974,
      "הצורך": 3975,
      "נקרא": 3976,
      "רצון": 3977,
      "or": 3978,
      "תקשורת": 3979,
      "העליון": 3980,
      "החינוך": 3981,
      "לזכור": 3982,
      "מכיר": 3983,
      "קוראים": 3984,
      "החלטה": 3985,
      "##שום": 3986,
      "##מויות": 3987,
      "אלקט": 3988,
      "לסייע": 3989,
      "בזכות": 3990,
      "האירופי": 3991,
      "פחד": 3992,
      "קפה": 3993,
      "האת": 3994,
      "הצי": 3995,
      "אמנות": 3996,
      "##נטית": 3997,
      "שנק": 3998,
      "##זורים": 3999,
      "##ליות": 4000,
      "##מקד": 4001,
      "##צעים": 4002,
      "הברי": 4003,
      "צעיר": 4004,
      "דח": 4005,
      "המילה": 4006,
      "כאב": 4007,
      "בניו": 4008,
      "ex": 4009,
      "פוג": 4010,
      "##וין": 4011,
      "##כוה": 4012,
      "ברצ": 4013,
      "רציתי": 4014,
      "ההשפ": 4015,
      "חלב": 4016,
      "##כח": 4017,
      "אתמול": 4018,
      "העית": 4019,
      "מתחילים": 4020,
      "הפלסטינים": 4021,
      "חשיבות": 4022,
      "סביר": 4023,
      "פט": 4024,
      "##שהי": 4025,
      "בשנות": 4026,
      "2007": 4027,
      "האדמה": 4028,
      "ביוני": 4029,
      "הלאומי": 4030,
      "חכ": 4031,
      "פיק": 4032,
      "##if": 4033,
      "הנק": 4034,
      "הבחירות": 4035,
      "מחוי": 4036,
      "וכי": 4037,
      "##ge": 4038,
      "לבן": 4039,
      "חייבת": 4040,
      "קד": 4041,
      "הינו": 4042,
      "##ליטה": 4043,
      "##ביש": 4044,
      "##...": 4045,
      "להכיר": 4046,
      "מראה": 4047,
      "בספטמבר": 4048,
      "המציאות": 4049,
      "חמישה": 4050,
      "לבוא": 4051,
      "בדצמבר": 4052,
      "לוקח": 4053,
      "יוכלו": 4054,
      "wh": 4055,
      "ומי": 4056,
      "סול": 4057,
      "התחת": 4058,
      "בהכ": 4059,
      "חשבון": 4060,
      "am": 4061,
      "גדל": 4062,
      "##מם": 4063,
      "החז": 4064,
      "ואנחנו": 4065,
      "...\"": 4066,
      "לצפות": 4067,
      "##כנע": 4068,
      "מסוימת": 4069,
      "מבינים": 4070,
      "##וניברסיטת": 4071,
      "לשאול": 4072,
      "con": 4073,
      "אקד": 4074,
      "חדר": 4075,
      "##דיין": 4076,
      "מצוי": 4077,
      "הזוג": 4078,
      "גדולות": 4079,
      "ידעתי": 4080,
      "התרבות": 4081,
      "אוק": 4082,
      "החלו": 4083,
      "אמנם": 4084,
      "כם": 4085,
      "ניתוח": 4086,
      "מייצ": 4087,
      "להסביר": 4088,
      "צילום": 4089,
      "אוויר": 4090,
      "פיר": 4091,
      "##דבר": 4092,
      "סיבות": 4093,
      "שירותי": 4094,
      "pl": 4095,
      "לדי": 4096,
      "##רית": 4097,
      "##טיקה": 4098,
      "פרטים": 4099,
      "הלח": 4100,
      "משר": 4101,
      "נמ": 4102,
      "במצ": 4103,
      "החק": 4104,
      "חופש": 4105,
      "מומלץ": 4106,
      "להאמין": 4107,
      "שיתוף": 4108,
      "ורג": 4109,
      "##זרו": 4110,
      "##לום": 4111,
      "##באי": 4112,
      "לחפש": 4113,
      "##ight": 4114,
      "be": 4115,
      "קוב": 4116,
      "##דיים": 4117,
      "##ופט": 4118,
      "##שתה": 4119,
      "במערכת": 4120,
      "ריק": 4121,
      "שס": 4122,
      "התנהגות": 4123,
      "לעבודה": 4124,
      "בימים": 4125,
      "טובות": 4126,
      "שכבר": 4127,
      "הווע": 4128,
      "דיי": 4129,
      "ציפ": 4130,
      "ישירות": 4131,
      "להפסיק": 4132,
      "ביקורת": 4133,
      "##ver": 4134,
      "שהא": 4135,
      "אפריקה": 4136,
      "##פך": 4137,
      "##במבר": 4138,
      "##ברתי": 4139,
      "##פקד": 4140,
      "למדי": 4141,
      "מכירים": 4142,
      "מרגישים": 4143,
      "הנוכחי": 4144,
      "##כוהול": 4145,
      "גרי": 4146,
      "נמוך": 4147,
      "ספי": 4148,
      "##למת": 4149,
      "##עון": 4150,
      "##ודד": 4151,
      "האג": 4152,
      "##ופלים": 4153,
      "בעי": 4154,
      "מעדי": 4155,
      "האמיתי": 4156,
      "##20": 4157,
      "##ודו": 4158,
      "אנטי": 4159,
      "בהמשך": 4160,
      "##טרון": 4161,
      "המחש": 4162,
      "חשובה": 4163,
      "ma": 4164,
      "משה": 4165,
      "שמה": 4166,
      "##וזה": 4167,
      "##כונית": 4168,
      "אפשרויות": 4169,
      "##עיל": 4170,
      "##ְּ": 4171,
      "ההר": 4172,
      "אזרחים": 4173,
      "##אס": 4174,
      "הבסיס": 4175,
      "מקומות": 4176,
      "לתי": 4177,
      "שבת": 4178,
      "האנרגיה": 4179,
      "##נהג": 4180,
      "ההחלטה": 4181,
      "שנתיים": 4182,
      "##ine": 4183,
      "אסור": 4184,
      "בקרוב": 4185,
      "לכולם": 4186,
      "תשובה": 4187,
      "הימים": 4188,
      "לאר": 4189,
      "ואתה": 4190,
      "בריט": 4191,
      "האמריקאי": 4192,
      "36": 4193,
      "העת": 4194,
      "ביולי": 4195,
      "פעולות": 4196,
      "בפע": 4197,
      "התקשורת": 4198,
      "למשך": 4199,
      "מלבד": 4200,
      "נוכל": 4201,
      "##ושים": 4202,
      "העניין": 4203,
      "אלב": 4204,
      "הולכים": 4205,
      "ספציפ": 4206,
      "אוטומ": 4207,
      "##דימה": 4208,
      "מסר": 4209,
      "היהודית": 4210,
      "בחדר": 4211,
      "קיימים": 4212,
      "##ook": 4213,
      "##ive": 4214,
      "בתקופה": 4215,
      "ושוב": 4216,
      "להוסיף": 4217,
      "השכ": 4218,
      "##טיבית": 4219,
      "אליהם": 4220,
      "as": 4221,
      "באוקטובר": 4222,
      "##בעים": 4223,
      "נאל": 4224,
      "##כנית": 4225,
      "המפ": 4226,
      "מהח": 4227,
      "נזק": 4228,
      "תנאי": 4229,
      "##מרים": 4230,
      "מהע": 4231,
      "מתב": 4232,
      "##לוש": 4233,
      "##שוואה": 4234,
      "ממלי": 4235,
      "רפוא": 4236,
      "ביל": 4237,
      "רעיון": 4238,
      "##og": 4239,
      "##סוך": 4240,
      "שינה": 4241,
      "לפתוח": 4242,
      "החלטות": 4243,
      "פיצ": 4244,
      "##ליו": 4245,
      "##ידום": 4246,
      "בהק": 4247,
      "ההזד": 4248,
      "החלה": 4249,
      "הפנים": 4250,
      "ביחס": 4251,
      "191": 4252,
      "להציל": 4253,
      "web": 4254,
      "##רוכה": 4255,
      "הדם": 4256,
      "ראשו": 4257,
      "מזל": 4258,
      "bl": 4259,
      "ed": 4260,
      "##יתם": 4261,
      "שאינו": 4262,
      "בחשבון": 4263,
      "עצמנו": 4264,
      "באמצע": 4265,
      "סבל": 4266,
      "ביטחון": 4267,
      "מצי": 4268,
      "האישה": 4269,
      "##וגוסט": 4270,
      "בחזרה": 4271,
      "מציע": 4272,
      "בול": 4273,
      "פופול": 4274,
      "##שור": 4275,
      "השוק": 4276,
      "ישוע": 4277,
      "מוצר": 4278,
      "צו": 4279,
      "##בש": 4280,
      "מחר": 4281,
      "לחיים": 4282,
      "##ity": 4283,
      "זוכר": 4284,
      "השיר": 4285,
      "הדמוקר": 4286,
      "ארץ": 4287,
      "45": 4288,
      "למס": 4289,
      "מפח": 4290,
      "##קול": 4291,
      "בעבודה": 4292,
      "שאינ": 4293,
      "להתא": 4294,
      "במקרים": 4295,
      "סוגים": 4296,
      "אט": 4297,
      "גי": 4298,
      "שגר": 4299,
      "המפור": 4300,
      "המזרח": 4301,
      "שהן": 4302,
      "##לוו": 4303,
      "והן": 4304,
      "שלישי": 4305,
      "המקצוע": 4306,
      "בנובמבר": 4307,
      "העולמי": 4308,
      "עני": 4309,
      "##ופיה": 4310,
      "מהא": 4311,
      "מעני": 4312,
      "בכדי": 4313,
      "ביטוח": 4314,
      "##טוא": 4315,
      "הערב": 4316,
      "שאל": 4317,
      "##פיין": 4318,
      "הוסיף": 4319,
      "יהם": 4320,
      "במשחק": 4321,
      "בבע": 4322,
      "##קן": 4323,
      "התלמידים": 4324,
      "##סיבות": 4325,
      "ממני": 4326,
      "יחסי": 4327,
      "עדיף": 4328,
      "לטפל": 4329,
      "עתה": 4330,
      "##ָה": 4331,
      "כלשהו": 4332,
      "מאי": 4333,
      "בספר": 4334,
      "2019": 4335,
      "סוגי": 4336,
      "29": 4337,
      "נוצ": 4338,
      "שרי": 4339,
      "##ודאי": 4340,
      "המחיר": 4341,
      "מטרות": 4342,
      "לאה": 4343,
      "##ותרת": 4344,
      "הנח": 4345,
      "נפלא": 4346,
      "\"?": 4347,
      "אמו": 4348,
      "ביד": 4349,
      "שמונה": 4350,
      "##בירה": 4351,
      "##כך": 4352,
      "שלב": 4353,
      "מתאי": 4354,
      "הנשים": 4355,
      "להימנע": 4356,
      "##ליחו": 4357,
      "משמש": 4358,
      "מצט": 4359,
      "##בוהים": 4360,
      "##מידה": 4361,
      "סטודנטים": 4362,
      "צמ": 4363,
      "התמונה": 4364,
      "השלום": 4365,
      "אחוזים": 4366,
      "##ובלי": 4367,
      "העור": 4368,
      "עונה": 4369,
      "[...": 4370,
      "ללק": 4371,
      "היע": 4372,
      "באה": 4373,
      "בתע": 4374,
      "בסך": 4375,
      "##סטית": 4376,
      "נאמר": 4377,
      "איתם": 4378,
      "##תפים": 4379,
      "##מרו": 4380,
      "##יונ": 4381,
      "##est": 4382,
      "[...]": 4383,
      "נול": 4384,
      "##דית": 4385,
      "##op": 4386,
      "הארי": 4387,
      "במג": 4388,
      "##יימת": 4389,
      "##חרור": 4390,
      "המחשב": 4391,
      "משמעותית": 4392,
      "ויל": 4393,
      "מהווה": 4394,
      "מיוחדת": 4395,
      "אמי": 4396,
      "ישר": 4397,
      "פינ": 4398,
      "##se": 4399,
      "##ִּ": 4400,
      "המור": 4401,
      "מתוכ": 4402,
      "בשעה": 4403,
      "שליטה": 4404,
      "תקופת": 4405,
      "עשויה": 4406,
      "##דיל": 4407,
      "##gle": 4408,
      "ליום": 4409,
      "בטח": 4410,
      "מודר": 4411,
      "ארוכה": 4412,
      "man": 4413,
      "לטיפול": 4414,
      "יקר": 4415,
      "הרופא": 4416,
      "##וסף": 4417,
      "בגוף": 4418,
      "משפחות": 4419,
      "האפשרות": 4420,
      "?”": 4421,
      "שהח": 4422,
      "הגנה": 4423,
      "לתח": 4424,
      "נפג": 4425,
      "מבחינת": 4426,
      "לרכוש": 4427,
      "המוות": 4428,
      "להד": 4429,
      "באוגוסט": 4430,
      "מאחר": 4431,
      "##פרט": 4432,
      "ביניהם": 4433,
      "שעבר": 4434,
      "לזהות": 4435,
      "הצדדים": 4436,
      "אסטרטג": 4437,
      "wor": 4438,
      "הפרי": 4439,
      "בשני": 4440,
      "בבקשה": 4441,
      "בריטניה": 4442,
      "00": 4443,
      "חומר": 4444,
      "עיצוב": 4445,
      "##ba": 4446,
      "##נינו": 4447,
      "בקב": 4448,
      "הפעילות": 4449,
      "##רם": 4450,
      "##נדי": 4451,
      "הפעולה": 4452,
      "פרטי": 4453,
      "אינן": 4454,
      "לעזוב": 4455,
      "בנות": 4456,
      "##ודא": 4457,
      "לאיר": 4458,
      "בחוץ": 4459,
      "פתוח": 4460,
      "האנושי": 4461,
      "האנושות": 4462,
      "##ומם": 4463,
      "במזרח": 4464,
      "לעצור": 4465,
      "לצורך": 4466,
      "גרם": 4467,
      "##ard": 4468,
      "בריא": 4469,
      "##וטנציאל": 4470,
      "אופן": 4471,
      "נכונה": 4472,
      "התהליך": 4473,
      "סרטן": 4474,
      "דיווח": 4475,
      "בירושלים": 4476,
      "וו": 4477,
      "סא": 4478,
      "רמות": 4479,
      "לאתר": 4480,
      "2000": 4481,
      "בגר": 4482,
      "##ונאים": 4483,
      "תד": 4484,
      "שלהן": 4485,
      "נחשב": 4486,
      "ic": 4487,
      "##פד": 4488,
      "להציג": 4489,
      "##וסק": 4490,
      "##לושה": 4491,
      "בסין": 4492,
      "ההבדל": 4493,
      "##ונו": 4494,
      "לאן": 4495,
      "מילה": 4496,
      "נוג": 4497,
      "האב": 4498,
      "נמוכה": 4499,
      "הוב": 4500,
      "סיר": 4501,
      "צוד": 4502,
      "##לחת": 4503,
      "##רק": 4504,
      "##ריכים": 4505,
      "לבני": 4506,
      "##יפים": 4507,
      "##נגטון": 4508,
      "2006": 4509,
      "מנג": 4510,
      "תואר": 4511,
      "מצרים": 4512,
      "אירועים": 4513,
      "יחסית": 4514,
      "ספרי": 4515,
      "”,": 4516,
      "הצליח": 4517,
      "סיכוי": 4518,
      "##ולוגי": 4519,
      "פתאום": 4520,
      "הישראלית": 4521,
      "mo": 4522,
      "איתי": 4523,
      "##וכה": 4524,
      "בהיסטוריה": 4525,
      "לנהל": 4526,
      "סתם": 4527,
      "ואמר": 4528,
      "מדו": 4529,
      "חיילים": 4530,
      "הבינלאומית": 4531,
      "כשאני": 4532,
      "לשר": 4533,
      "קדימה": 4534,
      "##גנון": 4535,
      "המוצ": 4536,
      "במדינות": 4537,
      "ליצ": 4538,
      "google": 4539,
      "רופא": 4540,
      "##ען": 4541,
      "##וקי": 4542,
      "##מצאים": 4543,
      "המשמעות": 4544,
      "הלקוחות": 4545,
      "וול": 4546,
      "ולק": 4547,
      "##ושות": 4548,
      "הבאות": 4549,
      "לקח": 4550,
      "ראשי": 4551,
      "##כנן": 4552,
      "דרום": 4553,
      "לני": 4554,
      "שמחה": 4555,
      "##צועים": 4556,
      "חברתית": 4557,
      "עקב": 4558,
      "הבה": 4559,
      "חרי": 4560,
      "טל": 4561,
      "##צעי": 4562,
      "עליי": 4563,
      "האש": 4564,
      "##ביעה": 4565,
      "פרסום": 4566,
      "מוחלט": 4567,
      "##דרים": 4568,
      "##סו": 4569,
      "להראות": 4570,
      "ירד": 4571,
      "מנסים": 4572,
      "##קיע": 4573,
      "אינס": 4574,
      "הפכה": 4575,
      "הגיעה": 4576,
      "לישון": 4577,
      "עובר": 4578,
      "זקוקים": 4579,
      "לציין": 4580,
      "דובר": 4581,
      "קבלת": 4582,
      "##מאות": 4583,
      "##שוף": 4584,
      "mar": 4585,
      "התוצאות": 4586,
      "מידי": 4587,
      "חזקה": 4588,
      "שקי": 4589,
      "תשלום": 4590,
      "המילים": 4591,
      "החברת": 4592,
      "לקבוע": 4593,
      "האהבה": 4594,
      "מדהים": 4595,
      "ap": 4596,
      "ברו": 4597,
      "יין": 4598,
      "נוב": 4599,
      "התחיל": 4600,
      "התפתחות": 4601,
      "##פקת": 4602,
      "וק": 4603,
      "וידאו": 4604,
      "##נדה": 4605,
      "משקל": 4606,
      "##ניהו": 4607,
      "מטרה": 4608,
      "הלאומית": 4609,
      "נושאים": 4610,
      "ip": 4611,
      "נכתב": 4612,
      "שוכ": 4613,
      "לממש": 4614,
      "הסביבה": 4615,
      "הנע": 4616,
      "להתג": 4617,
      "אוב": 4618,
      "טלוויזיה": 4619,
      "האיחוד": 4620,
      "מציאות": 4621,
      "##מצאו": 4622,
      "פעיל": 4623,
      "האירוע": 4624,
      "קשור": 4625,
      "300": 4626,
      "חפ": 4627,
      "מדר": 4628,
      "בעניין": 4629,
      "ולע": 4630,
      "##ate": 4631,
      "במספר": 4632,
      "יגיע": 4633,
      "עתיד": 4634,
      "שניהם": 4635,
      "##טין": 4636,
      "שעברה": 4637,
      "חופשי": 4638,
      "יצי": 4639,
      "סופ": 4640,
      "במת": 4641,
      "באפריל": 4642,
      "##וויה": 4643,
      "עליכם": 4644,
      "כנגד": 4645,
      "שור": 4646,
      "##ft": 4647,
      "הידע": 4648,
      "##ביים": 4649,
      "למת": 4650,
      "##עתם": 4651,
      "מושג": 4652,
      "להציע": 4653,
      "עומדים": 4654,
      "ליהנות": 4655,
      "אוניברסיטת": 4656,
      "us": 4657,
      "דוד": 4658,
      "##טור": 4659,
      "##שן": 4660,
      "להניח": 4661,
      "התוצאה": 4662,
      "##שובות": 4663,
      "שיעור": 4664,
      "לייצר": 4665,
      "הצלחה": 4666,
      "העיקרי": 4667,
      "פות": 4668,
      "##זין": 4669,
      "המוב": 4670,
      "##ואין": 4671,
      "התמ": 4672,
      "השו": 4673,
      "לבקש": 4674,
      "##לבום": 4675,
      "##ננים": 4676,
      "##ורא": 4677,
      "##דיא": 4678,
      "אוס": 4679,
      "##ונש": 4680,
      "בפברואר": 4681,
      "עורך": 4682,
      "להן": 4683,
      "למק": 4684,
      "לבסוף": 4685,
      "שלושת": 4686,
      "עץ": 4687,
      "##שאים": 4688,
      "היס": 4689,
      "החת": 4690,
      "##וטה": 4691,
      "##one": 4692,
      "לפתור": 4693,
      "אנגלית": 4694,
      "##ובדן": 4695,
      "כרטיס": 4696,
      "כזאת": 4697,
      "עיני": 4698,
      "תפס": 4699,
      "##ישורים": 4700,
      "##בויות": 4701,
      "מוזיקה": 4702,
      "##פעל": 4703,
      "me": 4704,
      "זמין": 4705,
      "רצה": 4706,
      "המזון": 4707,
      "להיע": 4708,
      "להוציא": 4709,
      "##ביבת": 4710,
      "לעבר": 4711,
      "הגב": 4712,
      "##ice": 4713,
      "קורא": 4714,
      "##קיה": 4715,
      "##ריע": 4716,
      "##דיק": 4717,
      "מתרח": 4718,
      "אמיתית": 4719,
      "הזכות": 4720,
      "הראש": 4721,
      "כשאתה": 4722,
      "שחור": 4723,
      "עמוק": 4724,
      "דיג": 4725,
      "מבר": 4726,
      "מידה": 4727,
      "מרבית": 4728,
      "סנט": 4729,
      "הקו": 4730,
      "##טרס": 4731,
      "בתהליך": 4732,
      "מגד": 4733,
      "חייהם": 4734,
      "כולה": 4735,
      "שיפ": 4736,
      "##ובב": 4737,
      "##וסית": 4738,
      "אלימות": 4739,
      "ההגנה": 4740,
      "he": 4741,
      "##משי": 4742,
      "מתכ": 4743,
      "ברוב": 4744,
      "לגיל": 4745,
      "חוזר": 4746,
      "מותר": 4747,
      "##נשי": 4748,
      "השפה": 4749,
      "##וסטר": 4750,
      "קטנות": 4751,
      "##יטניה": 4752,
      "בדבר": 4753,
      "##אג": 4754,
      "##ורט": 4755,
      "החברות": 4756,
      "מתקד": 4757,
      "בניגוד": 4758,
      "השתת": 4759,
      "לדבריו": 4760,
      "מחשבות": 4761,
      "גזע": 4762,
      "חיפוש": 4763,
      "לנס": 4764,
      "סעיף": 4765,
      "##דמות": 4766,
      "אלינו": 4767,
      "חשובים": 4768,
      "הסיכון": 4769,
      "חיות": 4770,
      "תחרות": 4771,
      "##בנות": 4772,
      "##קסט": 4773,
      "שלם": 4774,
      "##ופיע": 4775,
      "במטרה": 4776,
      "המוצרים": 4777,
      "האפ": 4778,
      "##ואות": 4779,
      "לשת": 4780,
      "מסתכל": 4781,
      "דני": 4782,
      "זכה": 4783,
      "לעצמי": 4784,
      "היסטוריה": 4785,
      "su": 4786,
      "ולב": 4787,
      "חיס": 4788,
      "לאט": 4789,
      "מהיר": 4790,
      "העונה": 4791,
      "ארוחת": 4792,
      "מושלם": 4793,
      "במחקר": 4794,
      "צפוי": 4795,
      "התרג": 4796,
      "יכולתי": 4797,
      "ישראלים": 4798,
      "בך": 4799,
      "הטכנולוגיה": 4800,
      "בפועל": 4801,
      "##all": 4802,
      "זקוק": 4803,
      "דג": 4804,
      "לעלות": 4805,
      "מעצ": 4806,
      "מקרים": 4807,
      "##בורים": 4808,
      "נקודת": 4809,
      "איתך": 4810,
      "sc": 4811,
      "קיל": 4812,
      "##ביעות": 4813,
      "למות": 4814,
      "למכור": 4815,
      "##לויות": 4816,
      "לידי": 4817,
      "ואיך": 4818,
      "רעיונות": 4819,
      "גבי": 4820,
      "להיל": 4821,
      "מעמד": 4822,
      "לקב": 4823,
      "##בוי": 4824,
      "##יבוש": 4825,
      "הלקוח": 4826,
      "מותו": 4827,
      "תכונות": 4828,
      "בעלות": 4829,
      "מחשב": 4830,
      "פעמיים": 4831,
      "##יכר": 4832,
      "אגב": 4833,
      "te": 4834,
      "הנית": 4835,
      "##מדת": 4836,
      "להוביל": 4837,
      "למצב": 4838,
      "##לאות": 4839,
      "##וכים": 4840,
      "נתן": 4841,
      "ברכ": 4842,
      "סע": 4843,
      "הינה": 4844,
      "##וקף": 4845,
      "מתנה": 4846,
      "לפנות": 4847,
      "##יסות": 4848,
      "הטלפון": 4849,
      "ראוי": 4850,
      "##בלתי": 4851,
      "לדא": 4852,
      "הלימודים": 4853,
      "הפלסטינית": 4854,
      "יוע": 4855,
      "##תיבה": 4856,
      "##וניות": 4857,
      "2005": 4858,
      "מרכזי": 4859,
      "בדרום": 4860,
      "cl": 4861,
      "צפון": 4862,
      "שניים": 4863,
      "המוק": 4864,
      "מחלות": 4865,
      "הגדולות": 4866,
      "פלי": 4867,
      "תלמידים": 4868,
      "התנועה": 4869,
      "הנראה": 4870,
      "אישור": 4871,
      "הבלתי": 4872,
      "ab": 4873,
      "tr": 4874,
      "ייצור": 4875,
      "לנשים": 4876,
      "##סיה": 4877,
      "מלון": 4878,
      "##ill": 4879,
      "הקודם": 4880,
      "31": 4881,
      "es": 4882,
      "שיא": 4883,
      "תשת": 4884,
      "מאה": 4885,
      "בעלת": 4886,
      "ישנה": 4887,
      "כיף": 4888,
      "מקורות": 4889,
      "אלכוהול": 4890,
      "מצליח": 4891,
      "תנועה": 4892,
      "דיס": 4893,
      "##גיש": 4894,
      "שהע": 4895,
      "שאמר": 4896,
      "הכלכלי": 4897,
      "##שאיר": 4898,
      "##אורה": 4899,
      "##יתוף": 4900,
      "מתרג": 4901,
      "הכרח": 4902,
      "192": 4903,
      "מרגישה": 4904,
      "מכם": 4905,
      "קלא": 4906,
      "##טיק": 4907,
      "##סוי": 4908,
      "במילים": 4909,
      "באמ": 4910,
      "החמי": 4911,
      "משכ": 4912,
      "בינתיים": 4913,
      "הצוות": 4914,
      "##רגונים": 4915,
      "בהשוואה": 4916,
      "מבח": 4917,
      "עצמכם": 4918,
      "הבחירה": 4919,
      "לעצמו": 4920,
      "ויט": 4921,
      "סקר": 4922,
      "סופר": 4923,
      "##מפרי": 4924,
      "השטח": 4925,
      "##ers": 4926,
      "בצרפת": 4927,
      "להשפיע": 4928,
      "par": 4929,
      "הורים": 4930,
      "##ריד": 4931,
      "##מוס": 4932,
      "##ירותים": 4933,
      "ברית": 4934,
      "עצמית": 4935,
      "פשוטה": 4936,
      "פרויקט": 4937,
      "ומתן": 4938,
      "המפלגה": 4939,
      "ובי": 4940,
      "פו": 4941,
      "##זיקה": 4942,
      "הרשת": 4943,
      "הפיז": 4944,
      "בבח": 4945,
      "תוכן": 4946,
      "po": 4947,
      "ארכ": 4948,
      "ללי": 4949,
      "נפר": 4950,
      "##ינת": 4951,
      "##רבות": 4952,
      "##קוב": 4953,
      "##ועות": 4954,
      "מסכים": 4955,
      "ועכשיו": 4956,
      "בשימוש": 4957,
      "##נסייה": 4958,
      "ההזדמנות": 4959,
      "וְ": 4960,
      "ניג": 4961,
      "##תיע": 4962,
      "מתג": 4963,
      "והת": 4964,
      "##ונד": 4965,
      "המסע": 4966,
      "אביו": 4967,
      "wind": 4968,
      "טלפון": 4969,
      "מלך": 4970,
      "רד": 4971,
      "שפה": 4972,
      "##בדה": 4973,
      "##כרו": 4974,
      "השאר": 4975,
      "הפכו": 4976,
      "מעוד": 4977,
      "הבוקר": 4978,
      "לחלק": 4979,
      "סימן": 4980,
      "שבא": 4981,
      "כשהם": 4982,
      "רפואי": 4983,
      "לתקן": 4984,
      "##ue": 4985,
      "##יתיים": 4986,
      "לשתף": 4987,
      "הנס": 4988,
      "ראשונה": 4989,
      "לצע": 4990,
      "המחלה": 4991,
      "הנוס": 4992,
      "שחקן": 4993,
      "מהש": 4994,
      "החוצה": 4995,
      "העד": 4996,
      "לטובת": 4997,
      "mic": 4998,
      "פית": 4999,
      "המבק": 5000,
      "השונים": 5001,
      "הבנתי": 5002,
      "##סקים": 5003,
      "בבתי": 5004,
      "האישי": 5005,
      "השתמש": 5006,
      "שחקנים": 5007,
      "##מיר": 5008,
      "##פני": 5009,
      "##בדות": 5010,
      "##סוק": 5011,
      "##ועד": 5012,
      "ברורה": 5013,
      "ממך": 5014,
      "בכמה": 5015,
      "פתרונות": 5016,
      "שיער": 5017,
      "##רוויח": 5018,
      "אן": 5019,
      "נוה": 5020,
      "מחפש": 5021,
      "ואילו": 5022,
      "המערבית": 5023,
      "מוצא": 5024,
      "##ell": 5025,
      "החוקרים": 5026,
      "ro": 5027,
      "מפתח": 5028,
      "ריצ": 5029,
      "שבר": 5030,
      "המשות": 5031,
      "##לימות": 5032,
      "במאה": 5033,
      "הבדי": 5034,
      "##ינוי": 5035,
      "##ort": 5036,
      "התקופה": 5037,
      "עוזר": 5038,
      "קבע": 5039,
      "##פית": 5040,
      "ילדי": 5041,
      "עברו": 5042,
      "נורא": 5043,
      "בקה": 5044,
      "חם": 5045,
      "נשי": 5046,
      "פצ": 5047,
      "##סמים": 5048,
      "מהת": 5049,
      "למדינה": 5050,
      "לשלוח": 5051,
      "מייק": 5052,
      "הכוחות": 5053,
      "הכדור": 5054,
      "המשך": 5055,
      "נתניהו": 5056,
      "בטוחה": 5057,
      "פלסטינים": 5058,
      "ומש": 5059,
      "זרים": 5060,
      "צר": 5061,
      "##פג": 5062,
      "האקד": 5063,
      "##ריט": 5064,
      "ממשיך": 5065,
      "רגיל": 5066,
      "שתה": 5067,
      "הרגשתי": 5068,
      "הטרור": 5069,
      "נוח": 5070,
      "פלא": 5071,
      "התרח": 5072,
      "##ועלת": 5073,
      "למא": 5074,
      "שהופ": 5075,
      "פועלים": 5076,
      "(\"": 5077,
      "רוק": 5078,
      "##ופעה": 5079,
      "בעד": 5080,
      "תחושה": 5081,
      "רגשות": 5082,
      "הזדמנויות": 5083,
      "אביב": 5084,
      "סדר": 5085,
      "##ab": 5086,
      "החוץ": 5087,
      "הקיץ": 5088,
      "מציג": 5089,
      "סיכון": 5090,
      "ובכן": 5091,
      "שקורה": 5092,
      "ביטוי": 5093,
      "לשו": 5094,
      "סד": 5095,
      "קמ": 5096,
      "##וויות": 5097,
      "הכלב": 5098,
      "חשמל": 5099,
      "כותב": 5100,
      "##סן": 5101,
      "לשמש": 5102,
      "בהרבה": 5103,
      "הראשי": 5104,
      "דופן": 5105,
      "פירוש": 5106,
      "צורה": 5107,
      "קוס": 5108,
      "##ke": 5109,
      "##ומט": 5110,
      "הקל": 5111,
      "ההיסט": 5112,
      "בצפון": 5113,
      "החדשות": 5114,
      "לפגוע": 5115,
      "lo": 5116,
      "פועל": 5117,
      "##לן": 5118,
      "##ותי": 5119,
      "המר": 5120,
      "המופ": 5121,
      "##ודיה": 5122,
      "לאומי": 5123,
      "##ומנויות": 5124,
      "התפקיד": 5125,
      "לשני": 5126,
      "##וונות": 5127,
      "הכר": 5128,
      "ואולי": 5129,
      "##ונק": 5130,
      "ולח": 5131,
      "היי": 5132,
      "כלבים": 5133,
      "מאמצ": 5134,
      "##יונים": 5135,
      "לקה": 5136,
      "הנדר": 5137,
      "בקשר": 5138,
      "הראשונות": 5139,
      "מקצועי": 5140,
      "להרוג": 5141,
      "ac": 5142,
      "עמוד": 5143,
      "משמ": 5144,
      "אנא": 5145,
      "##נסו": 5146,
      "שהגיע": 5147,
      "הדלת": 5148,
      "מתחילה": 5149,
      "הלבן": 5150,
      "עבודת": 5151,
      "אמונה": 5152,
      "חובה": 5153,
      "נצי": 5154,
      "##עש": 5155,
      "##כום": 5156,
      "בשטח": 5157,
      "הגיל": 5158,
      "לחת": 5159,
      "##ome": 5160,
      "הבעיות": 5161,
      "העיניים": 5162,
      "לאהוב": 5163,
      "גנ": 5164,
      "ייצ": 5165,
      "סוד": 5166,
      "שוט": 5167,
      "עלולים": 5168,
      "הקמת": 5169,
      "שישה": 5170,
      "##oun": 5171,
      "כחלק": 5172,
      "חתי": 5173,
      "תמי": 5174,
      "##ובוס": 5175,
      "##ילנד": 5176,
      "לשלוט": 5177,
      "##אללה": 5178,
      "מפע": 5179,
      "במקומות": 5180,
      "חלקים": 5181,
      "##ows": 5182,
      "הרווח": 5183,
      "##לונות": 5184,
      "##ליכים": 5185,
      "##ושם": 5186,
      "בחירה": 5187,
      "שנא": 5188,
      "תקווה": 5189,
      "ובין": 5190,
      "פוליטית": 5191,
      "גז": 5192,
      "##ורד": 5193,
      "באו": 5194,
      "הסדרה": 5195,
      "תחום": 5196,
      "בלע": 5197,
      "##בחן": 5198,
      "להחליט": 5199,
      "בטוחים": 5200,
      "##ack": 5201,
      "גודל": 5202,
      "​​": 5203,
      "##גובה": 5204,
      "אוסטר": 5205,
      "השא": 5206,
      "##אתם": 5207,
      "##טיין": 5208,
      "אמצעי": 5209,
      "התיא": 5210,
      "להצטרף": 5211,
      "בינלאומיים": 5212,
      "ארגונים": 5213,
      "דמי": 5214,
      "דלת": 5215,
      "כר": 5216,
      "עזה": 5217,
      "פח": 5218,
      "קלה": 5219,
      "מחזיק": 5220,
      "משתנה": 5221,
      "פלסט": 5222,
      "עשיתי": 5223,
      "הקטן": 5224,
      "הקהל": 5225,
      "גבולות": 5226,
      "הוועדה": 5227,
      "רכי": 5228,
      "תושבי": 5229,
      "##צח": 5230,
      "##קפה": 5231,
      "##יתות": 5232,
      "##ובדים": 5233,
      "כלכלית": 5234,
      "ישת": 5235,
      "דיבר": 5236,
      "קיר": 5237,
      "הכח": 5238,
      "##פייה": 5239,
      "לדעתי": 5240,
      "סרטים": 5241,
      "##בעות": 5242,
      "להרח": 5243,
      "התפר": 5244,
      "הבן": 5245,
      "##טרק": 5246,
      "מבית": 5247,
      "להילחם": 5248,
      "גן": 5249,
      "סב": 5250,
      "##חרים": 5251,
      "##ילית": 5252,
      "העל": 5253,
      "מחיי": 5254,
      "שכר": 5255,
      "התייחס": 5256,
      "וחצי": 5257,
      "עבודות": 5258,
      "גול": 5259,
      "דף": 5260,
      "סקס": 5261,
      "רו": 5262,
      "##מדות": 5263,
      "לאחד": 5264,
      "החברים": 5265,
      "##וניים": 5266,
      "בקול": 5267,
      "מזו": 5268,
      "מוצרי": 5269,
      "ומא": 5270,
      "אדמה": 5271,
      "בהתחלה": 5272,
      "##our": 5273,
      "להשקיע": 5274,
      "מורכב": 5275,
      "##קשורת": 5276,
      "מומחים": 5277,
      "ההשפעה": 5278,
      "חוב": 5279,
      "שוו": 5280,
      "שיפור": 5281,
      "##ואל": 5282,
      "למטה": 5283,
      "למרבה": 5284,
      "##יקת": 5285,
      "##וכיח": 5286,
      "הדור": 5287,
      "ביקור": 5288,
      "בבריטניה": 5289,
      "##לוקת": 5290,
      "גלי": 5291,
      "טכני": 5292,
      "##טחת": 5293,
      "##קף": 5294,
      "##ולחן": 5295,
      "האלבום": 5296,
      "הפופול": 5297,
      "השחקנים": 5298,
      "ייק": 5299,
      "##יף": 5300,
      "##ברר": 5301,
      "שאי": 5302,
      "הכס": 5303,
      "שיטות": 5304,
      "מודעים": 5305,
      "להחזיר": 5306,
      "מיוחדים": 5307,
      "ללב": 5308,
      "סטר": 5309,
      "סוריה": 5310,
      "תפק": 5311,
      "##בוש": 5312,
      "##ַּ": 5313,
      "##ירום": 5314,
      "מסכי": 5315,
      "##כתה": 5316,
      "השינוי": 5317,
      "בדיקות": 5318,
      "אופטי": 5319,
      "המרכזי": 5320,
      "חומרים": 5321,
      "בלונדון": 5322,
      "טכנולוגיה": 5323,
      "##מפט": 5324,
      "האוניברסיטה": 5325,
      "שהמ": 5326,
      "הסוכ": 5327,
      "אינני": 5328,
      "נוסעים": 5329,
      "המקור": 5330,
      "גרוע": 5331,
      "ללמד": 5332,
      "להכין": 5333,
      "הרצון": 5334,
      "windows": 5335,
      "אע": 5336,
      "וכו": 5337,
      "##ִי": 5338,
      "לשבת": 5339,
      "לחברה": 5340,
      "הכוכ": 5341,
      "גרעי": 5342,
      "אדום": 5343,
      "מודע": 5344,
      "לומדים": 5345,
      "נוצר": 5346,
      "##מפרט": 5347,
      "##צעת": 5348,
      "##כוח": 5349,
      "עלולה": 5350,
      "##ופס": 5351,
      "המספר": 5352,
      "pr": 5353,
      "האסטר": 5354,
      "במרץ": 5355,
      "שישי": 5356,
      "##זיל": 5357,
      "##מיק": 5358,
      "##בדו": 5359,
      "המונ": 5360,
      "##ודשים": 5361,
      "כלשהי": 5362,
      "##יקום": 5363,
      "בשום": 5364,
      "בסביבה": 5365,
      "לגור": 5366,
      "בכוח": 5367,
      "דורש": 5368,
      "טעות": 5369,
      "##חוד": 5370,
      "החיפוש": 5371,
      "לענות": 5372,
      "מתכוון": 5373,
      "##ace": 5374,
      "חוויה": 5375,
      "ממשיכים": 5376,
      "עמד": 5377,
      "##מרת": 5378,
      "##כרות": 5379,
      "##ולין": 5380,
      "הולדת": 5381,
      "תגובה": 5382,
      "ואל": 5383,
      "חכם": 5384,
      "טווח": 5385,
      "נראית": 5386,
      "במרחק": 5387,
      "החיס": 5388,
      "הקומ": 5389,
      "אלכס": 5390,
      "מועד": 5391,
      "שהייתה": 5392,
      "מבוסס": 5393,
      "העתיקה": 5394,
      "דוגמה": 5395,
      "מפת": 5396,
      "שדה": 5397,
      "##ואן": 5398,
      "מעלה": 5399,
      "##יפת": 5400,
      "רצח": 5401,
      "אכפת": 5402,
      "ברג": 5403,
      "וזו": 5404,
      "חינם": 5405,
      "##ip": 5406,
      "באוניברסיטת": 5407,
      "החבר": 5408,
      "אוי": 5409,
      "הפיל": 5410,
      "הכנסת": 5411,
      "לקרות": 5412,
      "הנסי": 5413,
      "הזר": 5414,
      "##פתחו": 5415,
      "ולש": 5416,
      "ובכך": 5417,
      "האמנות": 5418,
      "עובדת": 5419,
      "הפסק": 5420,
      "שאף": 5421,
      "לתמוך": 5422,
      "לוודא": 5423,
      "קרב": 5424,
      "הרגע": 5425,
      "משותף": 5426,
      "32": 5427,
      "##te": 5428,
      "התנ": 5429,
      "מייד": 5430,
      "אהבתי": 5431,
      "לדברי": 5432,
      "שהייתי": 5433,
      "בטר": 5434,
      "ולת": 5435,
      "##נוס": 5436,
      "כלב": 5437,
      "הקודש": 5438,
      "##טרסים": 5439,
      "לקדם": 5440,
      "יעשה": 5441,
      "ארי": 5442,
      "##ינות": 5443,
      "##שירים": 5444,
      "##שינו": 5445,
      "הבנה": 5446,
      "בתפקיד": 5447,
      "ממח": 5448,
      "לכאורה": 5449,
      "עיניים": 5450,
      "לדאוג": 5451,
      "ריי": 5452,
      "##זות": 5453,
      "##חוק": 5454,
      "##טאות": 5455,
      "המנה": 5456,
      "למלא": 5457,
      "##לקה": 5458,
      "פעילויות": 5459,
      "דמות": 5460,
      "כוס": 5461,
      "מהד": 5462,
      "הפרויקט": 5463,
      "וכמה": 5464,
      "הודעה": 5465,
      "האמריקאית": 5466,
      "הקריירה": 5467,
      "ביר": 5468,
      "דוא": 5469,
      "זיכרון": 5470,
      "טה": 5471,
      "##אבים": 5472,
      "##למנט": 5473,
      "##נך": 5474,
      "היב": 5475,
      "החלל": 5476,
      "##ידר": 5477,
      "מסוכן": 5478,
      "מזג": 5479,
      "במשקל": 5480,
      "עובדות": 5481,
      "קוריאה": 5482,
      "שירותים": 5483,
      "400": 5484,
      "תן": 5485,
      "##קון": 5486,
      "היר": 5487,
      "האמונה": 5488,
      "משם": 5489,
      "מסחר": 5490,
      "לונדון": 5491,
      "תגובות": 5492,
      "צדק": 5493,
      "להסתכל": 5494,
      "פסיכולוג": 5495,
      "ללקוחות": 5496,
      "הוו": 5497,
      "נתי": 5498,
      "##ברג": 5499,
      "##שיבות": 5500,
      "לחוק": 5501,
      "אמון": 5502,
      "מגיעה": 5503,
      "להפחית": 5504,
      "המהפכה": 5505,
      "##דיהם": 5506,
      "סיפורים": 5507,
      "דיגיט": 5508,
      "אשתו": 5509,
      "חיה": 5510,
      "נמש": 5511,
      "##ld": 5512,
      "המוכ": 5513,
      "##וקס": 5514,
      "העומ": 5515,
      "מאחור": 5516,
      "מכאן": 5517,
      "סיוע": 5518,
      "כתובת": 5519,
      "##סטיבל": 5520,
      "הקרוב": 5521,
      "one": 5522,
      "הגבוהה": 5523,
      "ין": 5524,
      "נראים": 5525,
      "סובל": 5526,
      "עיק": 5527,
      "##בוב": 5528,
      "להוכיח": 5529,
      "באשר": 5530,
      "החומר": 5531,
      "ישנן": 5532,
      "הנכונה": 5533,
      "מבנה": 5534,
      "##לחמת": 5535,
      "לקבלת": 5536,
      "##טליה": 5537,
      "לאחרים": 5538,
      "העיקרית": 5539,
      "micro": 5540,
      "סטי": 5541,
      "פרח": 5542,
      "##נף": 5543,
      "##ביס": 5544,
      "##שוך": 5545,
      "מבוגרים": 5546,
      "שמעתי": 5547,
      "אהבת": 5548,
      "חוקרים": 5549,
      "עומדת": 5550,
      "##סיקו": 5551,
      "em": 5552,
      "בוט": 5553,
      "הלה": 5554,
      "תוצאה": 5555,
      "מסוכ": 5556,
      "בשפה": 5557,
      "רקע": 5558,
      "מכיל": 5559,
      "##סקי": 5560,
      "להחליף": 5561,
      "שומן": 5562,
      "להתייחס": 5563,
      "בפי": 5564,
      "לרגע": 5565,
      "שירים": 5566,
      "מאוח": 5567,
      "מתו": 5568,
      "הקרב": 5569,
      "מערב": 5570,
      "מציעים": 5571,
      "יעיל": 5572,
      "שקרה": 5573,
      "להעלות": 5574,
      "קיימות": 5575,
      "קיבלו": 5576,
      "מוקד": 5577,
      "יימס": 5578,
      "המוזיקה": 5579,
      "גבוהים": 5580,
      "טיי": 5581,
      "שופ": 5582,
      "##וּ": 5583,
      "המומ": 5584,
      "המשימה": 5585,
      "##שיון": 5586,
      "מבקש": 5587,
      "פרנק": 5588,
      "המקרים": 5589,
      "בדיקה": 5590,
      "רחבי": 5591,
      "דולרים": 5592,
      "בשבילי": 5593,
      "נדרש": 5594,
      "בוחרים": 5595,
      "בהכרח": 5596,
      "צור": 5597,
      "לארץ": 5598,
      "##דיש": 5599,
      "זהב": 5600,
      "כלים": 5601,
      "הסוב": 5602,
      "##צינות": 5603,
      "##לטפור": 5604,
      "שתוכל": 5605,
      "עשרים": 5606,
      "להוריד": 5607,
      "##וֹ": 5608,
      "##בילה": 5609,
      "##כבות": 5610,
      "המדיניות": 5611,
      "מעשה": 5612,
      "לחכות": 5613,
      "שיניים": 5614,
      "מספרים": 5615,
      "מוכר": 5616,
      "האנושית": 5617,
      "יבוא": 5618,
      "חיפ": 5619,
      "##למו": 5620,
      "##למות": 5621,
      "##ub": 5622,
      "##כנו": 5623,
      "מאמר": 5624,
      "##כולנו": 5625,
      "##ראק": 5626,
      "##נטה": 5627,
      "הטובות": 5628,
      "השינה": 5629,
      "להשתתף": 5630,
      "חוקים": 5631,
      "דומים": 5632,
      "##למה": 5633,
      "##וגיות": 5634,
      "ההע": 5635,
      "2020": 5636,
      "##נטיות": 5637,
      "מפג": 5638,
      "##פורניה": 5639,
      "2002": 5640,
      "שרק": 5641,
      "הלאה": 5642,
      "השראה": 5643,
      "האסלא": 5644,
      "האזרחים": 5645,
      "no": 5646,
      "רבי": 5647,
      "##נאה": 5648,
      "##מלית": 5649,
      "##בדים": 5650,
      "##ופש": 5651,
      "אושר": 5652,
      "##ביבות": 5653,
      "הסתי": 5654,
      "בשתי": 5655,
      "##טרת": 5656,
      "##קרב": 5657,
      "##ונל": 5658,
      "המקורי": 5659,
      "שקט": 5660,
      "המשחקים": 5661,
      "בוו": 5662,
      "קשים": 5663,
      "##אני": 5664,
      "##פנים": 5665,
      "הערך": 5666,
      "כאמור": 5667,
      "##ויב": 5668,
      "##נטיים": 5669,
      "הטע": 5670,
      "2003": 5671,
      "נפש": 5672,
      "##גרום": 5673,
      "לזכות": 5674,
      "תיאור": 5675,
      "כבד": 5676,
      "נפט": 5677,
      "פתי": 5678,
      "##זת": 5679,
      "##זרים": 5680,
      "באחד": 5681,
      "משלו": 5682,
      "מסביב": 5683,
      "בשמ": 5684,
      "מחלה": 5685,
      "הספרים": 5686,
      "אבטחה": 5687,
      "הודעות": 5688,
      "היתר": 5689,
      "ומו": 5690,
      "חור": 5691,
      "חיצוני": 5692,
      "הצליחו": 5693,
      "לחקור": 5694,
      "פרט": 5695,
      "במקביל": 5696,
      "לטע": 5697,
      "המבנה": 5698,
      "פרויקטים": 5699,
      "ההשק": 5700,
      "המשתמש": 5701,
      "הקשורים": 5702,
      "):": 5703,
      "הַ": 5704,
      "ובה": 5705,
      "יוני": 5706,
      "מורה": 5707,
      "נסי": 5708,
      "עיי": 5709,
      "רשות": 5710,
      "מעולה": 5711,
      "כוללים": 5712,
      "inter": 5713,
      "אורג": 5714,
      "המבוס": 5715,
      "מכוניות": 5716,
      "')": 5717,
      "75": 5718,
      "דלק": 5719,
      "האוט": 5720,
      "מתן": 5721,
      "##יסת": 5722,
      "תחילת": 5723,
      "ירוק": 5724,
      "בינלאומי": 5725,
      "בצי": 5726,
      "ממצ": 5727,
      "החול": 5728,
      "איטליה": 5729,
      "שהצ": 5730,
      "##לאים": 5731,
      "הגד": 5732,
      "החדשים": 5733,
      "new": 5734,
      "שיווק": 5735,
      "דמ": 5736,
      "מבע": 5737,
      "שניות": 5738,
      "##רבי": 5739,
      "##טחים": 5740,
      "הספ": 5741,
      "ההול": 5742,
      "##רכיב": 5743,
      "מקרי": 5744,
      "שיחק": 5745,
      "היתרונות": 5746,
      "שמישהו": 5747,
      "בגרמניה": 5748,
      "מרת": 5749,
      "רובר": 5750,
      "זהות": 5751,
      "השות": 5752,
      "נותנים": 5753,
      "הצעיר": 5754,
      "שפות": 5755,
      "##ילוב": 5756,
      "##מונת": 5757,
      "מינית": 5758,
      "מצפה": 5759,
      "נהדר": 5760,
      "מופיע": 5761,
      "אזרחי": 5762,
      "מכונית": 5763,
      "האוכלוסייה": 5764,
      "טוען": 5765,
      "סמים": 5766,
      "המפתח": 5767,
      "##ודע": 5768,
      "הפתרון": 5769,
      "הגבול": 5770,
      "הצפ": 5771,
      "הצטר": 5772,
      "מכירות": 5773,
      "בסוריה": 5774,
      "##צעו": 5775,
      "המאפשר": 5776,
      "קונס": 5777,
      "אמריקאי": 5778,
      "רמ": 5779,
      "המנהיג": 5780,
      "הפדר": 5781,
      "לבחון": 5782,
      "סיום": 5783,
      "2004": 5784,
      "מוצאים": 5785,
      "יפן": 5786,
      "##טרכו": 5787,
      "במט": 5788,
      "הרוב": 5789,
      "##אלית": 5790,
      "##עתו": 5791,
      "כוללת": 5792,
      "אליך": 5793,
      "להשלים": 5794,
      "בתקופת": 5795,
      "משפחתו": 5796,
      "שילוב": 5797,
      "לשתות": 5798,
      "48": 5799,
      "fi": 5800,
      "ולי": 5801,
      "מנק": 5802,
      "##גרות": 5803,
      "##נתר": 5804,
      "ההור": 5805,
      "הכלכלה": 5806,
      "##חייה": 5807,
      "יתכן": 5808,
      "הולכת": 5809,
      "מסוימות": 5810,
      "נהרגו": 5811,
      "יים": 5812,
      "נוטים": 5813,
      "ערי": 5814,
      "רוד": 5815,
      "##פח": 5816,
      "כלכלי": 5817,
      "##כולות": 5818,
      "ואי": 5819,
      "והש": 5820,
      "קרן": 5821,
      "נהג": 5822,
      "איתנו": 5823,
      "מועצת": 5824,
      "ידעו": 5825,
      "נדמה": 5826,
      "מאפשרת": 5827,
      "ביו": 5828,
      "טקס": 5829,
      "מיקר": 5830,
      "שד": 5831,
      "##io": 5832,
      "הירי": 5833,
      "##דיות": 5834,
      "##וגמא": 5835,
      "##שוט": 5836,
      "בחינם": 5837,
      "להתפ": 5838,
      "##סטרו": 5839,
      "מרק": 5840,
      "תחושת": 5841,
      "המסחר": 5842,
      "הקרקע": 5843,
      "שואל": 5844,
      "מכתב": 5845,
      "דרכ": 5846,
      "נותר": 5847,
      "תיר": 5848,
      "תאי": 5849,
      "איי": 5850,
      "##וצי": 5851,
      "לעיר": 5852,
      "לפיכ": 5853,
      "הכניסה": 5854,
      "לטווח": 5855,
      "הופכים": 5856,
      "אישיות": 5857,
      "מספקת": 5858,
      "נוכחות": 5859,
      "שנקרא": 5860,
      "הבריטי": 5861,
      "לפיכך": 5862,
      "ושי": 5863,
      "כבי": 5864,
      "שפור": 5865,
      "הרכבת": 5866,
      "מצלי": 5867,
      "##ונא": 5868,
      "חלקם": 5869,
      "רגל": 5870,
      "ממשלה": 5871,
      "התחלתי": 5872,
      "יוצר": 5873,
      "אוכלים": 5874,
      "מטרת": 5875,
      "##עורר": 5876,
      "ויק": 5877,
      "##פחת": 5878,
      "##פסת": 5879,
      "להקים": 5880,
      "##ודיים": 5881,
      "בערב": 5882,
      "הנפש": 5883,
      "מצאו": 5884,
      "##ברהם": 5885,
      "ילדה": 5886,
      "כדורגל": 5887,
      "34": 5888,
      "im": 5889,
      "ישראלי": 5890,
      "כוא": 5891,
      "##דק": 5892,
      "אתרים": 5893,
      "הירח": 5894,
      "הכרי": 5895,
      "שנש": 5896,
      "מודעות": 5897,
      "יוצאים": 5898,
      "להחזיק": 5899,
      "השלישית": 5900,
      "bo": 5901,
      "##oft": 5902,
      "באח": 5903,
      "באים": 5904,
      "מאמץ": 5905,
      "הסמ": 5906,
      "האחריות": 5907,
      "מיליוני": 5908,
      "##בקש": 5909,
      "לציבור": 5910,
      "##רכיבים": 5911,
      "my": 5912,
      "רשימה": 5913,
      "##ain": 5914,
      "##שרות": 5915,
      "התב": 5916,
      "הגישה": 5917,
      "לשלב": 5918,
      "ליבר": 5919,
      "190": 5920,
      "הסיבות": 5921,
      "משחקי": 5922,
      "פוליטי": 5923,
      "חיובית": 5924,
      "דוקט": 5925,
      "הלך": 5926,
      "##ישו": 5927,
      "הממוצע": 5928,
      "המכונית": 5929,
      "החליט": 5930,
      "##נסיה": 5931,
      "צעדים": 5932,
      "ירידה": 5933,
      "fr": 5934,
      "חמאס": 5935,
      "לים": 5936,
      "מנצ": 5937,
      "##אשר": 5938,
      "##פקה": 5939,
      "החוף": 5940,
      "השניים": 5941,
      "ואנו": 5942,
      "##בעת": 5943,
      "מגלה": 5944,
      "עוברים": 5945,
      "איננה": 5946,
      "לרדת": 5947,
      "העולמית": 5948,
      "##av": 5949,
      "המין": 5950,
      "להשאיר": 5951,
      "השאלות": 5952,
      "משני": 5953,
      "##וגיה": 5954,
      "בתים": 5955,
      "##כוז": 5956,
      "בקשה": 5957,
      "בקיץ": 5958,
      "קצרה": 5959,
      "להצליח": 5960,
      "אבן": 5961,
      "בעצמו": 5962,
      "נבחר": 5963,
      "##ונגרס": 5964,
      "גיר": 5965,
      "טא": 5966,
      "##ייתי": 5967,
      "האק": 5968,
      "במל": 5969,
      "ישיר": 5970,
      "##ווית": 5971,
      "מבני": 5972,
      "עצום": 5973,
      "לכאן": 5974,
      "להגדיל": 5975,
      "תחילה": 5976,
      "##וברת": 5977,
      "שבהן": 5978,
      "הממשל": 5979,
      "רשמי": 5980,
      "זע": 5981,
      "זמנית": 5982,
      "טעם": 5983,
      "##יהן": 5984,
      "איבד": 5985,
      "כאלו": 5986,
      "מציעה": 5987,
      "##נסון": 5988,
      "הטלוויזיה": 5989,
      "יעזור": 5990,
      "לוקחים": 5991,
      "מדענים": 5992,
      "בבחירות": 5993,
      "איתה": 5994,
      "הוח": 5995,
      "##דינת": 5996,
      "אחראי": 5997,
      "##ראוי": 5998,
      "הפינ": 5999,
      "הדו": 6000,
      "מדעי": 6001,
      "המאמר": 6002,
      "האמריקני": 6003,
      "האדום": 6004,
      "סכום": 6005,
      "לאבד": 6006,
      "משלה": 6007,
      "להשתנות": 6008,
      "לשינוי": 6009,
      "קיבלה": 6010,
      "המלון": 6011,
      "התכנית": 6012,
      "כוכבים": 6013,
      "עג": 6014,
      "במשרד": 6015,
      "מאר": 6016,
      "שנייה": 6017,
      "תאריך": 6018,
      "מוזיאון": 6019,
      "הודו": 6020,
      "גופנית": 6021,
      "תינוק": 6022,
      "להודות": 6023,
      "במכ": 6024,
      "התורה": 6025,
      "מבצע": 6026,
      "לוותר": 6027,
      "דברי": 6028,
      "יחיד": 6029,
      "2001": 6030,
      "מחשבה": 6031,
      "di": 6032,
      "אול": 6033,
      "ובר": 6034,
      "באפשר": 6035,
      "השלטון": 6036,
      "בחירות": 6037,
      "ואתם": 6038,
      "הפלסטיני": 6039,
      "עורכי": 6040,
      "gr": 6041,
      "אבו": 6042,
      "וט": 6043,
      "רוז": 6044,
      "##פכו": 6045,
      "##ליג": 6046,
      "העיצוב": 6047,
      "משע": 6048,
      "##מיני": 6049,
      "בחו": 6050,
      "##מודדות": 6051,
      "מוסדות": 6052,
      "ניסה": 6053,
      "ההסכם": 6054,
      "לנסוע": 6055,
      "33": 6056,
      "חולה": 6057,
      "יושב": 6058,
      "##נש": 6059,
      "##חיות": 6060,
      "התמונות": 6061,
      "בינינו": 6062,
      "לקיים": 6063,
      "שער": 6064,
      "נהיה": 6065,
      "יתק": 6066,
      "ברחוב": 6067,
      "המוזיאון": 6068,
      "go": 6069,
      "ליל": 6070,
      "לזר": 6071,
      "נים": 6072,
      "קני": 6073,
      "##נחה": 6074,
      "##ביה": 6075,
      "##ענו": 6076,
      "שבין": 6077,
      "ציין": 6078,
      "המועצה": 6079,
      "אבות": 6080,
      "אובדן": 6081,
      "דרי": 6082,
      "פסק": 6083,
      "##מורה": 6084,
      "##צרו": 6085,
      "##ולל": 6086,
      "המדו": 6087,
      "המשיך": 6088,
      "##וסופיה": 6089,
      "##יקות": 6090,
      "מתכנ": 6091,
      "ביצ": 6092,
      "ברצינות": 6093,
      "אשראי": 6094,
      "כתוב": 6095,
      "תעשיית": 6096,
      "מוגבל": 6097,
      "all": 6098,
      "סר": 6099,
      "קופ": 6100,
      "##פונים": 6101,
      "להגדיר": 6102,
      "במסע": 6103,
      "נבד": 6104,
      "עוק": 6105,
      "פיג": 6106,
      "שמן": 6107,
      "##גד": 6108,
      "##נל": 6109,
      "##ואלי": 6110,
      "ישן": 6111,
      "לשנת": 6112,
      "מצוין": 6113,
      "ממשל": 6114,
      "נחמד": 6115,
      "יוצאת": 6116,
      "ביקש": 6117,
      "קשרים": 6118,
      "##למי": 6119,
      "מהבית": 6120,
      "במים": 6121,
      "מתה": 6122,
      "##רושים": 6123,
      "בתגובה": 6124,
      "במקור": 6125,
      "חלום": 6126,
      "להצביע": 6127,
      "נסיעה": 6128,
      "למשחק": 6129,
      "בכת": 6130,
      "דעות": 6131,
      "יוז": 6132,
      "כני": 6133,
      "##זציה": 6134,
      "##ure": 6135,
      "התה": 6136,
      "התנגדות": 6137,
      "הכנסייה": 6138,
      "##מצם": 6139,
      "יהודית": 6140,
      "לסיים": 6141,
      "חיבור": 6142,
      "הקדוש": 6143,
      "נוחות": 6144,
      "המות": 6145,
      "היעד": 6146,
      "##מוק": 6147,
      "מסורת": 6148,
      "אנדר": 6149,
      "150": 6150,
      "הערבי": 6151,
      "איל": 6152,
      "גאה": 6153,
      "דוח": 6154,
      "סדרת": 6155,
      "רופאים": 6156,
      "רשימת": 6157,
      "הכאב": 6158,
      "חברתי": 6159,
      "קיום": 6160,
      "הלידה": 6161,
      "הבעלים": 6162,
      "##ock": 6163,
      "מעוניינים": 6164,
      "ייחודי": 6165,
      "דגים": 6166,
      "וני": 6167,
      "מביא": 6168,
      "נלח": 6169,
      "קשות": 6170,
      "שכולם": 6171,
      "תלמיד": 6172,
      "כלכל": 6173,
      "##דרגה": 6174,
      "שיח": 6175,
      "מכירה": 6176,
      "השינויים": 6177,
      "ומס": 6178,
      "##והר": 6179,
      "מוזר": 6180,
      "עמדה": 6181,
      "אוסטרליה": 6182,
      "רוברט": 6183,
      "וּ": 6184,
      "##de": 6185,
      "##ביות": 6186,
      "באור": 6187,
      "למספר": 6188,
      "##יונית": 6189,
      "##מיין": 6190,
      "מצח": 6191,
      "מוצלח": 6192,
      "יתרונות": 6193,
      "הליכה": 6194,
      "להסיר": 6195,
      "למישהו": 6196,
      "נועד": 6197,
      "dis": 6198,
      "ליר": 6199,
      "מית": 6200,
      "להיש": 6201,
      "מחוז": 6202,
      "בהצלחה": 6203,
      "בגדים": 6204,
      "בניית": 6205,
      "אינך": 6206,
      "תנאים": 6207,
      "##pe": 6208,
      "הרשות": 6209,
      "לשאת": 6210,
      "מזמן": 6211,
      "להפעיל": 6212,
      "הופכת": 6213,
      "עלייה": 6214,
      "לנצל": 6215,
      "תינוקות": 6216,
      "אלקטרוני": 6217,
      "גידול": 6218,
      "לנה": 6219,
      "##ber": 6220,
      "##מרה": 6221,
      "הייצור": 6222,
      "החלי": 6223,
      "הפסי": 6224,
      "שאולי": 6225,
      "הגברים": 6226,
      "לבטל": 6227,
      "לתפוס": 6228,
      "##נקים": 6229,
      "חלקי": 6230,
      "בשבילך": 6231,
      "מתייחס": 6232,
      "מנכ": 6233,
      "קראו": 6234,
      "העיקריים": 6235,
      "##סמו": 6236,
      "##ירור": 6237,
      "מסור": 6238,
      "הקי": 6239,
      "לשאלה": 6240,
      "הצרפת": 6241,
      "##בתא": 6242,
      "פרטיות": 6243,
      "השיער": 6244,
      "השתמשו": 6245,
      "יוצרים": 6246,
      "במחיר": 6247,
      "בפרס": 6248,
      "אצלנו": 6249,
      "טען": 6250,
      "כוכב": 6251,
      "el": 6252,
      "רוכ": 6253,
      "##ust": 6254,
      "המורה": 6255,
      "להט": 6256,
      "השונות": 6257,
      "משבר": 6258,
      "מעלות": 6259,
      "לחיי": 6260,
      "הכפר": 6261,
      "חיובי": 6262,
      "מוכנה": 6263,
      "סמכות": 6264,
      "fl": 6265,
      "ווא": 6266,
      "מודה": 6267,
      "נמס": 6268,
      "סליחה": 6269,
      "צבאי": 6270,
      "##ast": 6271,
      "##חשב": 6272,
      "##שבו": 6273,
      "##ירוג": 6274,
      "##ריכל": 6275,
      "מהירה": 6276,
      "מאמינה": 6277,
      "משול": 6278,
      "בשירות": 6279,
      "אנגל": 6280,
      "עובדה": 6281,
      "פורט": 6282,
      "ציוד": 6283,
      "באיזה": 6284,
      "התגובה": 6285,
      "הערבים": 6286,
      "לפגוש": 6287,
      "##מפטומים": 6288,
      "li": 6289,
      "sk": 6290,
      "וית": 6291,
      "נעים": 6292,
      "עזר": 6293,
      "##סד": 6294,
      "היקום": 6295,
      "ההצלחה": 6296,
      "הבין": 6297,
      "ידידות": 6298,
      "המשק": 6299,
      "לסט": 6300,
      "עבורי": 6301,
      "##ite": 6302,
      "המלכות": 6303,
      "רציני": 6304,
      "סובלים": 6305,
      "##ובליקה": 6306,
      "38": 6307,
      "אמה": 6308,
      "אופי": 6309,
      "בים": 6310,
      "עין": 6311,
      "פש": 6312,
      "מהירות": 6313,
      "החדר": 6314,
      "אימון": 6315,
      "##יינת": 6316,
      "לעקוב": 6317,
      "הסבר": 6318,
      "הפוסט": 6319,
      "##שוי": 6320,
      "לשכוח": 6321,
      "לחבר": 6322,
      "##חתם": 6323,
      "מבטי": 6324,
      "בוודאי": 6325,
      "סטוד": 6326,
      "99": 6327,
      "do": 6328,
      "pe": 6329,
      "ומד": 6330,
      "יכלו": 6331,
      "סוציא": 6332,
      "תוק": 6333,
      "##ds": 6334,
      "השלב": 6335,
      "שיחות": 6336,
      "השתנה": 6337,
      "תנועת": 6338,
      "זור": 6339,
      "##דן": 6340,
      "##צרי": 6341,
      "##ודיות": 6342,
      "האחים": 6343,
      "התש": 6344,
      "העצמ": 6345,
      "הנכ": 6346,
      "##לקט": 6347,
      "המאוח": 6348,
      "גבוהות": 6349,
      "הניש": 6350,
      "בטיחות": 6351,
      "מעוניין": 6352,
      "]]": 6353,
      "car": 6354,
      "גיא": 6355,
      "הונ": 6356,
      "סו": 6357,
      "ענה": 6358,
      "ששי": 6359,
      "##גיה": 6360,
      "##כרת": 6361,
      "##per": 6362,
      "להרוויח": 6363,
      "התנאים": 6364,
      "מחלת": 6365,
      "מקר": 6366,
      "##לחו": 6367,
      "המערב": 6368,
      "##חושה": 6369,
      "הוראות": 6370,
      "עמוקה": 6371,
      "המשתמשים": 6372,
      "מבקשים": 6373,
      "צודק": 6374,
      "שתהיה": 6375,
      "אובי": 6376,
      "עכ": 6377,
      "##ויד": 6378,
      "##כליים": 6379,
      "האופן": 6380,
      "לגי": 6381,
      "לכיוון": 6382,
      "אסיה": 6383,
      "בינלאומית": 6384,
      "אדי": 6385,
      "בדם": 6386,
      "וזאת": 6387,
      "חירום": 6388,
      "עיו": 6389,
      "##ry": 6390,
      "##פיינים": 6391,
      "##כירה": 6392,
      "##שימות": 6393,
      "החוקים": 6394,
      "##וציה": 6395,
      "##מינות": 6396,
      "הכנסה": 6397,
      "##אלון": 6398,
      "סימנים": 6399,
      "בפנים": 6400,
      "יחידות": 6401,
      "הביק": 6402,
      "להגיש": 6403,
      "נתק": 6404,
      "המסר": 6405,
      "ועדיין": 6406,
      "התחל": 6407,
      "כשהיא": 6408,
      "מוביל": 6409,
      "אברהם": 6410,
      "שקר": 6411,
      "##דלים": 6412,
      "##נאות": 6413,
      "המשרד": 6414,
      "##יינה": 6415,
      "##יפל": 6416,
      "ממל": 6417,
      "כתבה": 6418,
      "מודל": 6419,
      "להעניק": 6420,
      "באיכות": 6421,
      "ציבורית": 6422,
      "##מטיקה": 6423,
      "מפלגת": 6424,
      "בוג": 6425,
      "הוציא": 6426,
      "חום": 6427,
      "נפת": 6428,
      "##דמה": 6429,
      "##גדים": 6430,
      "##pl": 6431,
      "להלן": 6432,
      "היומי": 6433,
      "מחכה": 6434,
      "הצרכים": 6435,
      "בתא": 6436,
      "שיחה": 6437,
      "##וארד": 6438,
      "יוסף": 6439,
      "לְ": 6440,
      "נבח": 6441,
      "הערכה": 6442,
      "מסך": 6443,
      "שאלתי": 6444,
      "לקי": 6445,
      "מזכיר": 6446,
      "יעילה": 6447,
      "חלומות": 6448,
      "לבריאות": 6449,
      "שואלים": 6450,
      "נוער": 6451,
      "תלמי": 6452,
      "באפשרות": 6453,
      "res": 6454,
      "ביע": 6455,
      "עמית": 6456,
      "שפת": 6457,
      "##ננות": 6458,
      "##קנות": 6459,
      "##na": 6460,
      "מסביר": 6461,
      "##ישום": 6462,
      "שיטת": 6463,
      "נקודה": 6464,
      "רצו": 6465,
      "מתייח": 6466,
      "off": 6467,
      "עקרונות": 6468,
      "הייתם": 6469,
      "הישראלים": 6470,
      "להתגבר": 6471,
      "כראוי": 6472,
      "##טט": 6473,
      "מהס": 6474,
      "במלחמה": 6475,
      "מתים": 6476,
      "כיש": 6477,
      "הבדל": 6478,
      "לחג": 6479,
      "##יפורים": 6480,
      "בסגנון": 6481,
      "ברק": 6482,
      "##ונאי": 6483,
      "האמיתית": 6484,
      "##ational": 6485,
      "il": 6486,
      "פוסט": 6487,
      "קת": 6488,
      "שיד": 6489,
      "תיע": 6490,
      "##פוט": 6491,
      "האיס": 6492,
      "##ליזם": 6493,
      "מתמ": 6494,
      "ישנו": 6495,
      "מקומיים": 6496,
      "##נגליה": 6497,
      "שמאל": 6498,
      "1999": 6499,
      "אלבום": 6500,
      "מצליחים": 6501,
      "גיבור": 6502,
      "לילד": 6503,
      "פייסבוק": 6504,
      "צמיחה": 6505,
      "##ָא": 6506,
      "##סית": 6507,
      "הידי": 6508,
      "אידי": 6509,
      "##בורג": 6510,
      "ואולם": 6511,
      "הזהב": 6512,
      "ראיות": 6513,
      "נתון": 6514,
      "חזקים": 6515,
      "מקצועית": 6516,
      "הקטנה": 6517,
      "הנוכחית": 6518,
      "!!!": 6519,
      "החברתית": 6520,
      "אובמה": 6521,
      "אֶ": 6522,
      "יומי": 6523,
      "לנת": 6524,
      "נפרד": 6525,
      "סחר": 6526,
      "עריכה": 6527,
      "##ננת": 6528,
      "##חש": 6529,
      "##כז": 6530,
      "להצלחה": 6531,
      "##ריח": 6532,
      "הקשה": 6533,
      "הנד": 6534,
      "פרטיים": 6535,
      "##יציה": 6536,
      "ולמ": 6537,
      "לברוח": 6538,
      "קהל": 6539,
      "לעצמך": 6540,
      "הסטודנטים": 6541,
      "וז": 6542,
      "זי": 6543,
      "לוב": 6544,
      "תושבים": 6545,
      "##כבים": 6546,
      "##לווה": 6547,
      "הפי": 6548,
      "##סקו": 6549,
      "התעשייה": 6550,
      "רשמית": 6551,
      "מייקל": 6552,
      "65": 6553,
      "ייס": 6554,
      "##ולט": 6555,
      "##תיי": 6556,
      "באת": 6557,
      "השח": 6558,
      "##ביעת": 6559,
      "למשת": 6560,
      "##נתן": 6561,
      "##חתה": 6562,
      "לסרט": 6563,
      "הכללי": 6564,
      "שרוב": 6565,
      "דוגמאות": 6566,
      "micros": 6567,
      "ויצ": 6568,
      "נפתח": 6569,
      "פירות": 6570,
      "פארק": 6571,
      "##צרה": 6572,
      "התמיכה": 6573,
      "להתאים": 6574,
      "השיניים": 6575,
      "##ant": 6576,
      "הפרטים": 6577,
      "בריאים": 6578,
      "משפיע": 6579,
      "##ith": 6580,
      "נסו": 6581,
      "לזמן": 6582,
      "הדרכים": 6583,
      "ארגוני": 6584,
      "out": 6585,
      "מרו": 6586,
      "נמל": 6587,
      "קונים": 6588,
      "שוחר": 6589,
      "##גלים": 6590,
      "באיט": 6591,
      "הסע": 6592,
      "מבקרים": 6593,
      "לתאר": 6594,
      "לגדול": 6595,
      "המשבר": 6596,
      "##ore": 6597,
      "ועדת": 6598,
      "התקדמות": 6599,
      "תעשה": 6600,
      "תוכנה": 6601,
      "מוסיקה": 6602,
      "בתחילה": 6603,
      "הציבורי": 6604,
      "מעורב": 6605,
      "אכז": 6606,
      "יכ": 6607,
      "נעי": 6608,
      "##שול": 6609,
      "##וקיינו": 6610,
      "למט": 6611,
      "ישירה": 6612,
      "לחוות": 6613,
      "הכבוד": 6614,
      "המעבר": 6615,
      "הניצ": 6616,
      "בראשית": 6617,
      "שותפים": 6618,
      "הצעירים": 6619,
      "השחקן": 6620,
      "להיראות": 6621,
      "בהקשר": 6622,
      "[[": 6623,
      "pre": 6624,
      "דיון": 6625,
      "ערכים": 6626,
      "קוו": 6627,
      "##פלים": 6628,
      "##בצע": 6629,
      "לאחור": 6630,
      "במובן": 6631,
      "אוסף": 6632,
      "הערה": 6633,
      "בימי": 6634,
      "להתמקד": 6635,
      "שנראה": 6636,
      "יצאו": 6637,
      "הקרובה": 6638,
      "שבועיים": 6639,
      "37": 6640,
      "לרוץ": 6641,
      "שז": 6642,
      "שבעה": 6643,
      "##נע": 6644,
      "איני": 6645,
      "מעשי": 6646,
      "מחו": 6647,
      "##מציה": 6648,
      "לדמיין": 6649,
      "חייל": 6650,
      "מטרים": 6651,
      "משפחתי": 6652,
      "אהיה": 6653,
      "פתח": 6654,
      "קונג": 6655,
      "מוגבלת": 6656,
      "פגיעה": 6657,
      "מעדיף": 6658,
      "microsoft": 6659,
      "air": 6660,
      "דרישות": 6661,
      "חיוני": 6662,
      "עברה": 6663,
      "צורת": 6664,
      "##ומנים": 6665,
      "איכ": 6666,
      "הפא": 6667,
      "##יפי": 6668,
      "נקי": 6669,
      "##ביעית": 6670,
      "השקעה": 6671,
      "ממשיכה": 6672,
      "##מפריה": 6673,
      "up": 6674,
      "נמשך": 6675,
      "##נב": 6676,
      "##מנת": 6677,
      "##ועדת": 6678,
      "מאמרים": 6679,
      "בעבוד": 6680,
      "שמס": 6681,
      "##ונם": 6682,
      "המקומית": 6683,
      "האירועים": 6684,
      "מומחה": 6685,
      "הונג": 6686,
      "ממוקם": 6687,
      "הכרחי": 6688,
      "ובו": 6689,
      "חות": 6690,
      "חוס": 6691,
      "יך": 6692,
      "עות": 6693,
      "ערים": 6694,
      "קס": 6695,
      "##פיות": 6696,
      "איום": 6697,
      "הערים": 6698,
      "הפק": 6699,
      "בחירת": 6700,
      "ידיים": 6701,
      "מגע": 6702,
      "##ונטי": 6703,
      "##ארט": 6704,
      "הבריט": 6705,
      "נגמר": 6706,
      "רגילים": 6707,
      "מנהלים": 6708,
      "עמדת": 6709,
      "אטרק": 6710,
      "##זונה": 6711,
      "##ak": 6712,
      "החודש": 6713,
      "אוג": 6714,
      "הרביעי": 6715,
      "בשעות": 6716,
      "אנד": 6717,
      "ביטח": 6718,
      "מצבי": 6719,
      "הפרס": 6720,
      "בדיקת": 6721,
      "התחיי": 6722,
      "נייר": 6723,
      "עשיר": 6724,
      "נבנה": 6725,
      "הקודמת": 6726,
      "הגורמים": 6727,
      "תשל": 6728,
      "##ובדה": 6729,
      "##ועלים": 6730,
      "מאבק": 6731,
      "הצבע": 6732,
      "לדוגמא": 6733,
      "הדיג": 6734,
      "להעריך": 6735,
      "ארוכות": 6736,
      "הכולל": 6737,
      "קראתי": 6738,
      "ציבורי": 6739,
      "למדתי": 6740,
      "מצאתי": 6741,
      "החשובים": 6742,
      "יפים": 6743,
      "##ַי": 6744,
      "לאף": 6745,
      "##מוי": 6746,
      "##וקת": 6747,
      "למג": 6748,
      "הספי": 6749,
      "בשדה": 6750,
      "לפיתוח": 6751,
      "לתוכ": 6752,
      "לגוף": 6753,
      "בצורת": 6754,
      "המחירים": 6755,
      "נתוני": 6756,
      "יעקב": 6757,
      "נהר": 6758,
      "##גרש": 6759,
      "הרגליים": 6760,
      "תכנון": 6761,
      "מספקים": 6762,
      "משותפת": 6763,
      "טוענים": 6764,
      "אוטומטי": 6765,
      "לשרוד": 6766,
      "ser": 6767,
      "זול": 6768,
      "פוט": 6769,
      "##der": 6770,
      "עלות": 6771,
      "הראי": 6772,
      "למטרות": 6773,
      "##ישון": 6774,
      "הכיבוש": 6775,
      "הנשק": 6776,
      "הזמנים": 6777,
      "שעדיין": 6778,
      "קיבלתי": 6779,
      "##טיביות": 6780,
      "הביטוח": 6781,
      "הביטוי": 6782,
      "הלחץ": 6783,
      "גוגל": 6784,
      "״.": 6785,
      "##ob": 6786,
      "במד": 6787,
      "##יימו": 6788,
      "הספורט": 6789,
      "הפרטי": 6790,
      "אורח": 6791,
      "חשיבה": 6792,
      "600": 6793,
      "אורך": 6794,
      "גמי": 6795,
      "להופיע": 6796,
      "באזורים": 6797,
      "##וקו": 6798,
      "השטן": 6799,
      "##וצע": 6800,
      "##וסקים": 6801,
      "בעית": 6802,
      "הנפט": 6803,
      "מצפים": 6804,
      "אפק": 6805,
      "שמחים": 6806,
      "למעט": 6807,
      "המסורת": 6808,
      "סטנדר": 6809,
      "עבודתו": 6810,
      "משקיעים": 6811,
      "קהילה": 6812,
      "להתקיים": 6813,
      "%)": 6814,
      "טיסה": 6815,
      "כשי": 6816,
      "השעה": 6817,
      "הרכי": 6818,
      "הספק": 6819,
      "בשיתוף": 6820,
      "לשחרר": 6821,
      "בסכ": 6822,
      "##סקנה": 6823,
      "##ולוגית": 6824,
      "נקבע": 6825,
      "נמצאו": 6826,
      "חופשית": 6827,
      "קריאה": 6828,
      "העסקים": 6829,
      "ation": 6830,
      "ליצירת": 6831,
      "55": 6832,
      "גילו": 6833,
      "חמצ": 6834,
      "לשרת": 6835,
      "שנוע": 6836,
      "##נציה": 6837,
      "##פואה": 6838,
      "המז": 6839,
      "הרשויות": 6840,
      "בעלה": 6841,
      "מסוב": 6842,
      "מסמכים": 6843,
      "הפחד": 6844,
      "##רכנים": 6845,
      "והנה": 6846,
      "המקרה": 6847,
      "בדרכים": 6848,
      "שותף": 6849,
      "באמריקה": 6850,
      "הכוכבים": 6851,
      "ii": 6852,
      "אשה": 6853,
      "גבול": 6854,
      "יופי": 6855,
      "כניסה": 6856,
      "ללח": 6857,
      "מניות": 6858,
      "קובע": 6859,
      "##זיות": 6860,
      "##לף": 6861,
      "שלח": 6862,
      "לעתיד": 6863,
      "מתרחש": 6864,
      "לשכנע": 6865,
      "##מתו": 6866,
      "הצבאי": 6867,
      "##יצד": 6868,
      "##ונן": 6869,
      "##ונך": 6870,
      "בבני": 6871,
      "להגיב": 6872,
      "וכיצד": 6873,
      "רחבה": 6874,
      "התוכן": 6875,
      "לעצמכם": 6876,
      "פסיכ": 6877,
      "תמורת": 6878,
      "##טיקאים": 6879,
      "האלקט": 6880,
      "##ראיתי": 6881,
      "הבניין": 6882,
      "לשנה": 6883,
      "לחדר": 6884,
      "אפל": 6885,
      "##קראת": 6886,
      "המקדש": 6887,
      "חיינו": 6888,
      "אדוני": 6889,
      "##געו": 6890,
      "מסוגלת": 6891,
      "עסקי": 6892,
      "זוכרים": 6893,
      "אמריקאים": 6894,
      "להזמין": 6895,
      "הפוליטית": 6896,
      "קנדה": 6897,
      "ייעוץ": 6898,
      "sa": 6899,
      "sm": 6900,
      "tim": 6901,
      "זרי": 6902,
      "יתרון": 6903,
      "קיצוני": 6904,
      "ריא": 6905,
      "ריח": 6906,
      "##בסס": 6907,
      "##pt": 6908,
      "לאומית": 6909,
      "לאלוהים": 6910,
      "הארוך": 6911,
      "במצרים": 6912,
      "##וסה": 6913,
      "הסוף": 6914,
      "##יאם": 6915,
      "##לטת": 6916,
      "קרובים": 6917,
      "בטלוויזיה": 6918,
      "ומח": 6919,
      "צעירה": 6920,
      "##בטחה": 6921,
      "ערבים": 6922,
      "הישן": 6923,
      "תרגום": 6924,
      "39": 6925,
      "בכתב": 6926,
      "ותי": 6927,
      "לדר": 6928,
      "נוק": 6929,
      "##סאות": 6930,
      "לאסוף": 6931,
      "הנצ": 6932,
      "לתרום": 6933,
      "לגר": 6934,
      "##art": 6935,
      "הופיע": 6936,
      "תגית": 6937,
      "חוזרת": 6938,
      "מתאימה": 6939,
      "gl": 6940,
      "הודות": 6941,
      "מלי": 6942,
      "קיצ": 6943,
      "##בון": 6944,
      "##ומנות": 6945,
      "אחי": 6946,
      "למידה": 6947,
      "הזיכרון": 6948,
      "##וזן": 6949,
      "##וניה": 6950,
      "מרוצה": 6951,
      "בתחומי": 6952,
      "מבוססת": 6953,
      "המודרנית": 6954,
      "44": 6955,
      "ווי": 6956,
      "חטי": 6957,
      "יט": 6958,
      "יוח": 6959,
      "יולי": 6960,
      "ימין": 6961,
      "משימה": 6962,
      "צורות": 6963,
      "##שמים": 6964,
      "##ֶּ": 6965,
      "##ph": 6966,
      "למחרת": 6967,
      "מעטים": 6968,
      "לשלום": 6969,
      "לקרי": 6970,
      "כאחד": 6971,
      "ברמת": 6972,
      "פיזית": 6973,
      "נפטר": 6974,
      "אליי": 6975,
      "##והה": 6976,
      "השקעות": 6977,
      "פרופסור": 6978,
      "טכנולוגיות": 6979,
      "במציאות": 6980,
      "בנה": 6981,
      "דירה": 6982,
      "סן": 6983,
      "פאר": 6984,
      "שגור": 6985,
      "##מורים": 6986,
      "##סוקה": 6987,
      "מהה": 6988,
      "החורף": 6989,
      "##ביו": 6990,
      "מתאר": 6991,
      "##רגיל": 6992,
      "לקוח": 6993,
      "מפות": 6994,
      "המקומות": 6995,
      "רובם": 6996,
      "רחוב": 6997,
      "להכניס": 6998,
      "ולהת": 6999,
      "ערבי": 7000,
      "טעויות": 7001,
      "חוזרים": 7002,
      "אינטראק": 7003,
      "צבעים": 7004,
      "החיילים": 7005,
      "מסיבה": 7006,
      "המחשבה": 7007,
      "לבלות": 7008,
      "מנות": 7009,
      "שיותר": 7010,
      "##סטים": 7011,
      "אתן": 7012,
      "המזל": 7013,
      "מהמק": 7014,
      "אישיים": 7015,
      "התחרות": 7016,
      "העברת": 7017,
      "##מתין": 7018,
      "##כונן": 7019,
      "לתפקיד": 7020,
      "הביא": 7021,
      "אחריו": 7022,
      "לרבות": 7023,
      "המאבק": 7024,
      "מבינה": 7025,
      "המכשיר": 7026,
      "המשתתפים": 7027,
      "כעבור": 7028,
      "wat": 7029,
      "טון": 7030,
      "לוג": 7031,
      "נל": 7032,
      "סדרה": 7033,
      "עשתה": 7034,
      "##חזר": 7035,
      "##פוח": 7036,
      "##פוי": 7037,
      "##שמיות": 7038,
      "##בנו": 7039,
      "הקפה": 7040,
      "בכלא": 7041,
      "בקרי": 7042,
      "הכללית": 7043,
      "פורסם": 7044,
      "ארוכים": 7045,
      "שומע": 7046,
      "מחשבים": 7047,
      "להתקדם": 7048,
      "הרשמי": 7049,
      "שייך": 7050,
      "וויל": 7051,
      "wi": 7052,
      "חנויות": 7053,
      "עונש": 7054,
      "פוטנציאל": 7055,
      "תם": 7056,
      "##סא": 7057,
      "##ניע": 7058,
      "המנו": 7059,
      "המראה": 7060,
      "להקל": 7061,
      "האפש": 7062,
      "מחזור": 7063,
      "הצליחה": 7064,
      "אמורה": 7065,
      "ואחרי": 7066,
      "הדג": 7067,
      "מבחן": 7068,
      "ברשות": 7069,
      "מפתיע": 7070,
      "##לטות": 7071,
      "השיטה": 7072,
      "בריאה": 7073,
      "עובדי": 7074,
      "ספרד": 7075,
      "קיץ": 7076,
      "קריירה": 7077,
      "המטופל": 7078,
      "מעורבים": 7079,
      "החלטתי": 7080,
      "המרכזית": 7081,
      "רשתות": 7082,
      "הפנימי": 7083,
      "מסכימים": 7084,
      "אזה": 7085,
      "הורה": 7086,
      "חט": 7087,
      "פוטנציא": 7088,
      "##נכ": 7089,
      "המכונה": 7090,
      "האנטי": 7091,
      "לשיר": 7092,
      "הצעות": 7093,
      "בהר": 7094,
      "מיומנויות": 7095,
      "הטכנולוג": 7096,
      "המשטר": 7097,
      "ובני": 7098,
      "תחנת": 7099,
      "עצמאי": 7100,
      "דיוק": 7101,
      "מוכרים": 7102,
      "הדיון": 7103,
      "חסרי": 7104,
      "טרם": 7105,
      "ממליצים": 7106,
      "להרחיב": 7107,
      "אנגליה": 7108,
      "dr": 7109,
      "תו": 7110,
      "אתרי": 7111,
      "האויב": 7112,
      "באש": 7113,
      "##לאי": 7114,
      "##לונה": 7115,
      "הגז": 7116,
      "יהודה": 7117,
      "עדן": 7118,
      "הראו": 7119,
      "סיג": 7120,
      "בצע": 7121,
      "המערבי": 7122,
      "התחילו": 7123,
      "המטוס": 7124,
      "למוות": 7125,
      "הקטנים": 7126,
      "שהתק": 7127,
      "סוכר": 7128,
      "תיקון": 7129,
      "ion": 7130,
      "בְּ": 7131,
      "גלו": 7132,
      "##da": 7133,
      "##ne": 7134,
      "##שרון": 7135,
      "בממוצע": 7136,
      "למשוך": 7137,
      "מתנד": 7138,
      "הסדר": 7139,
      "בהס": 7140,
      "##נסיים": 7141,
      "##יסר": 7142,
      "שנמצא": 7143,
      "מטעם": 7144,
      "בדומה": 7145,
      "הסינית": 7146,
      "##גורר": 7147,
      "פוליטיים": 7148,
      "זוכרת": 7149,
      "היסטורי": 7150,
      "טיול": 7151,
      "במאמר": 7152,
      "הקומוני": 7153,
      "עשית": 7154,
      "##סיקה": 7155,
      "במדינת": 7156,
      "החוויה": 7157,
      "התושבים": 7158,
      "השואה": 7159,
      "הרופאים": 7160,
      "##וער": 7161,
      "הסכי": 7162,
      "שאינה": 7163,
      "הצר": 7164,
      "הצער": 7165,
      "מבטיח": 7166,
      "בטווח": 7167,
      "ידועה": 7168,
      "המסך": 7169,
      "פתוחה": 7170,
      "חסרת": 7171,
      "שולח": 7172,
      "להקשיב": 7173,
      "טורקיה": 7174,
      "הנקודה": 7175,
      "לדרך": 7176,
      "רביעי": 7177,
      "תוא": 7178,
      "המבט": 7179,
      "החר": 7180,
      "העדי": 7181,
      "מתנג": 7182,
      "##יעין": 7183,
      "##רגן": 7184,
      "הנג": 7185,
      "בפייסבוק": 7186,
      "אפשרית": 7187,
      "##are": 7188,
      "קצב": 7189,
      "החלום": 7190,
      "ניסו": 7191,
      "##ass": 7192,
      "ממוצע": 7193,
      "עולמית": 7194,
      "פועלת": 7195,
      "ראינו": 7196,
      "חשבונות": 7197,
      "net": 7198,
      "ידו": 7199,
      "מובן": 7200,
      "##זיאון": 7201,
      "##עין": 7202,
      "##כמה": 7203,
      "##יליות": 7204,
      "##מוני": 7205,
      "למידע": 7206,
      "משך": 7207,
      "##טיסט": 7208,
      "מעין": 7209,
      "הבט": 7210,
      "##משלה": 7211,
      "##מותה": 7212,
      "פעילים": 7213,
      "יהוה": 7214,
      "ולמה": 7215,
      "חברתיים": 7216,
      "האינט": 7217,
      "המועצות": 7218,
      "כשאנחנו": 7219,
      "כספים": 7220,
      "החשמל": 7221,
      "הוגן": 7222,
      "ומצ": 7223,
      "זמינים": 7224,
      "חבל": 7225,
      "חוזה": 7226,
      "##ies": 7227,
      "אתגר": 7228,
      "המוני": 7229,
      "##ודאות": 7230,
      "איט": 7231,
      "אוז": 7232,
      "הערבית": 7233,
      "מערי": 7234,
      "בחי": 7235,
      "אנושי": 7236,
      "לכמה": 7237,
      "המקומי": 7238,
      "תקציב": 7239,
      "יעילות": 7240,
      "בתוכנית": 7241,
      "הידוע": 7242,
      "הוקמה": 7243,
      "דניאל": 7244,
      "דינ": 7245,
      "זמני": 7246,
      "ליותר": 7247,
      "תראה": 7248,
      "##צם": 7249,
      "הרס": 7250,
      "##כוניות": 7251,
      "##בונן": 7252,
      "שמר": 7253,
      "##לחתי": 7254,
      "ולפע": 7255,
      "הכלכלית": 7256,
      "המקורית": 7257,
      "השיחה": 7258,
      "##ish": 7259,
      "התרופה": 7260,
      "כחול": 7261,
      "השירותים": 7262,
      "?!": 7263,
      "ביה": 7264,
      "בבת": 7265,
      "מיה": 7266,
      "לארה": 7267,
      "##בינו": 7268,
      "מחבר": 7269,
      "הציל": 7270,
      "מקד": 7271,
      "אלוקים": 7272,
      "עצם": 7273,
      "בסביבות": 7274,
      "בכיר": 7275,
      "##יכרונות": 7276,
      "##קדמות": 7277,
      "פניו": 7278,
      "האמריקאים": 7279,
      "sy": 7280,
      "ימ": 7281,
      "לוא": 7282,
      "##ארי": 7283,
      "##ec": 7284,
      "##מטי": 7285,
      "##וריים": 7286,
      "הידיים": 7287,
      "השולחן": 7288,
      "הרשימה": 7289,
      "לעורר": 7290,
      "הסרטים": 7291,
      "מחירי": 7292,
      "בהריון": 7293,
      "בהדרגה": 7294,
      "מקב": 7295,
      "ברזל": 7296,
      "הכלל": 7297,
      "נעלם": 7298,
      "האישיים": 7299,
      "במערב": 7300,
      "comm": 7301,
      "מאתנו": 7302,
      "צבאית": 7303,
      "מיקום": 7304,
      "דמוקרטיה": 7305,
      "ויטמין": 7306,
      "'\"": 7307,
      "אשת": 7308,
      "בנים": 7309,
      "דל": 7310,
      "הות": 7311,
      "לרי": 7312,
      "נוט": 7313,
      "פונק": 7314,
      "צמח": 7315,
      "שרה": 7316,
      "תשובות": 7317,
      "##לכה": 7318,
      "##פרסם": 7319,
      "הפה": 7320,
      "שאלוהים": 7321,
      "##יוו": 7322,
      "הבת": 7323,
      "הצעת": 7324,
      "הכביש": 7325,
      "בחרו": 7326,
      "מלאכות": 7327,
      "פנימה": 7328,
      "הקרובים": 7329,
      "השפעת": 7330,
      "נורמלי": 7331,
      "קשורים": 7332,
      "זיהום": 7333,
      "לנקוט": 7334,
      "פופולרי": 7335,
      "האסטרטג": 7336,
      "qu": 7337,
      "גילה": 7338,
      "חנות": 7339,
      "יומיים": 7340,
      "עיס": 7341,
      "פלטפור": 7342,
      "שחרור": 7343,
      "##ווק": 7344,
      "##+]": 7345,
      "המדי": 7346,
      "האות": 7347,
      "החיצוני": 7348,
      "העני": 7349,
      "שהג": 7350,
      "לעיל": 7351,
      "לשקול": 7352,
      "מימון": 7353,
      "צריכת": 7354,
      "צריכות": 7355,
      "בנייה": 7356,
      "מטופלים": 7357,
      "הפרק": 7358,
      "קטל": 7359,
      "##ide": 7360,
      "חמישי": 7361,
      "תזונה": 7362,
      "המשיח": 7363,
      "מאושרים": 7364,
      "אלקטרו": 7365,
      "##וקיינוס": 7366,
      "[+]": 7367,
      "can": 7368,
      "הון": 7369,
      "מילות": 7370,
      "סיל": 7371,
      "ציון": 7372,
      "שוח": 7373,
      "##ִים": 7374,
      "##ולית": 7375,
      "אחיו": 7376,
      "באוויר": 7377,
      "מאוב": 7378,
      "##פרץ": 7379,
      "הגבר": 7380,
      "לחשוף": 7381,
      "הזכויות": 7382,
      "מכשיר": 7383,
      "לכלול": 7384,
      "##ory": 7385,
      "מוזיק": 7386,
      "1996": 7387,
      "שולחן": 7388,
      "תופעות": 7389,
      "סקוט": 7390,
      "הנסיעה": 7391,
      "אוגוסט": 7392,
      "85": 7393,
      "טק": 7394,
      "ינג": 7395,
      "לידה": 7396,
      "##ist": 7397,
      "##זינו": 7398,
      "##שנים": 7399,
      "לאזור": 7400,
      "מהפ": 7401,
      "אוסט": 7402,
      "##נתו": 7403,
      "הגיוני": 7404,
      "לשירות": 7405,
      "לבנים": 7406,
      "בגודל": 7407,
      "הכלים": 7408,
      "מטוס": 7409,
      "האחד": 7410,
      "המספרים": 7411,
      "הגרמנים": 7412,
      "יסוד": 7413,
      "מניח": 7414,
      "שיהיו": 7415,
      "800": 7416,
      ":)": 7417,
      "by": 7418,
      "et": 7419,
      "חמור": 7420,
      "קרח": 7421,
      "רוס": 7422,
      "##ֵּ": 7423,
      "##פחות": 7424,
      "המיל": 7425,
      "אימא": 7426,
      "##ייני": 7427,
      "בשקט": 7428,
      "לחסוך": 7429,
      "אמורים": 7430,
      "ברירה": 7431,
      "יצירות": 7432,
      "להבח": 7433,
      "מלכת": 7434,
      "לעצמם": 7435,
      "ברוך": 7436,
      "יוש": 7437,
      "פנט": 7438,
      "שווי": 7439,
      "##ביד": 7440,
      "##qu": 7441,
      "עלויות": 7442,
      "##ידוד": 7443,
      "הסביר": 7444,
      "##רגיות": 7445,
      "אלפים": 7446,
      "בחור": 7447,
      "בחורה": 7448,
      "##נסיות": 7449,
      "##פיט": 7450,
      "כשאתם": 7451,
      "בפיתוח": 7452,
      "שקל": 7453,
      "##צבעות": 7454,
      "וכמ": 7455,
      "הריון": 7456,
      "תשע": 7457,
      "##פריקה": 7458,
      "הניסיון": 7459,
      "השפעות": 7460,
      "משאבים": 7461,
      "חרדה": 7462,
      "להתעלם": 7463,
      "להתחבר": 7464,
      "ly": 7465,
      "מייס": 7466,
      "##איים": 7467,
      "##co": 7468,
      "הממל": 7469,
      "##רין": 7470,
      "העין": 7471,
      "##לונן": 7472,
      "ביח": 7473,
      "ביפן": 7474,
      "מקומי": 7475,
      "בקצב": 7476,
      "##וסיית": 7477,
      "##פשט": 7478,
      "רעב": 7479,
      "מורכבת": 7480,
      "שומרים": 7481,
      "קליפורניה": 7482,
      "הצהריים": 7483,
      "art": 7484,
      "המודרני": 7485,
      "תוספת": 7486,
      "המבקרים": 7487,
      "וכמובן": 7488,
      "tra": 7489,
      "דואר": 7490,
      "הוז": 7491,
      "זכר": 7492,
      "לנג": 7493,
      "עידן": 7494,
      "קרו": 7495,
      "תועלת": 7496,
      "##ידי": 7497,
      "##סיד": 7498,
      "##סמת": 7499,
      "##pr": 7500,
      "מאיר": 7501,
      "מתמק": 7502,
      "מסלול": 7503,
      "שאלו": 7504,
      "הבורא": 7505,
      "ואחר": 7506,
      "שיטה": 7507,
      "בקבוק": 7508,
      "קרקע": 7509,
      "##דושה": 7510,
      "תחבורה": 7511,
      "לרשות": 7512,
      "המתאי": 7513,
      "##וויית": 7514,
      "סוכרת": 7515,
      "ta": 7516,
      "דפ": 7517,
      "מראים": 7518,
      "קפ": 7519,
      "קאר": 7520,
      "קווי": 7521,
      "רמה": 7522,
      "תאים": 7523,
      "##ארו": 7524,
      "##ננו": 7525,
      "##ניעת": 7526,
      "המטרות": 7527,
      "##תיבת": 7528,
      "הצמיחה": 7529,
      "##שתת": 7530,
      "##חקרים": 7531,
      "##ere": 7532,
      "ילדות": 7533,
      "הפרטיות": 7534,
      "הלוח": 7535,
      "הודיעה": 7536,
      "נדיר": 7537,
      "התרופות": 7538,
      "רכוש": 7539,
      "רכבת": 7540,
      "המיוח": 7541,
      "מנהיגים": 7542,
      "ללבוש": 7543,
      "מנקודת": 7544,
      "חוות": 7545,
      "יוון": 7546,
      "קחו": 7547,
      "##אד": 7548,
      "##bo": 7549,
      "##ud": 7550,
      "##טוף": 7551,
      "##ואיד": 7552,
      "הפליטים": 7553,
      "הנשמה": 7554,
      "##לתה": 7555,
      "מגדל": 7556,
      "בקיצור": 7557,
      "מיידי": 7558,
      "ציור": 7559,
      "עולמי": 7560,
      "world": 7561,
      "השתתפות": 7562,
      "לגיטי": 7563,
      "42": 7564,
      "ייר": 7565,
      "מטי": 7566,
      "ניכר": 7567,
      "רלוו": 7568,
      "המנהל": 7569,
      "הפיתוח": 7570,
      "אנט": 7571,
      "הצעד": 7572,
      "לבח": 7573,
      "הנב": 7574,
      "אזורים": 7575,
      "הטור": 7576,
      "בגין": 7577,
      "שעומ": 7578,
      "בטלפון": 7579,
      "למערכת": 7580,
      "המכירות": 7581,
      "הקבוצות": 7582,
      "לעצמנו": 7583,
      "col": 7584,
      "דיכ": 7585,
      "דיפל": 7586,
      "חב": 7587,
      "חוג": 7588,
      "כפר": 7589,
      "נטי": 7590,
      "פשע": 7591,
      "קוק": 7592,
      "##ps": 7593,
      "##ודר": 7594,
      "היפ": 7595,
      "##תיב": 7596,
      "##ביט": 7597,
      "##וצמה": 7598,
      "##יימות": 7599,
      "הציג": 7600,
      "הנרי": 7601,
      "מדברת": 7602,
      "בניין": 7603,
      "נעצר": 7604,
      "הולנד": 7605,
      "אבנים": 7606,
      "הודיע": 7607,
      "קולנוע": 7608,
      "שיעורי": 7609,
      "רכישת": 7610,
      "מנהיגות": 7611,
      "משימות": 7612,
      "בטיפול": 7613,
      "מכשירים": 7614,
      "להבחין": 7615,
      "גו": 7616,
      "הוצאות": 7617,
      "וושי": 7618,
      "ליע": 7619,
      "נרחב": 7620,
      "פגש": 7621,
      "קידום": 7622,
      "רוצ": 7623,
      "שנג": 7624,
      "שומר": 7625,
      "##פיל": 7626,
      "לאלה": 7627,
      "האלוהים": 7628,
      "במלחמת": 7629,
      "איזון": 7630,
      "השע": 7631,
      "למלחמה": 7632,
      "##יקס": 7633,
      "##וגע": 7634,
      "##לוונטי": 7635,
      "הקונגרס": 7636,
      "ברוסיה": 7637,
      "שמירה": 7638,
      "לסבול": 7639,
      "הביניים": 7640,
      "הפרסום": 7641,
      "חברתיות": 7642,
      "הכוללת": 7643,
      "מעורבות": 7644,
      "לתקופה": 7645,
      "סגנון": 7646,
      "עליהן": 7647,
      "הרפובליקה": 7648,
      "הפוליטי": 7649,
      "חוויות": 7650,
      "כרטיסים": 7651,
      "הדמוקרטיה": 7652,
      "נולדה": 7653,
      "##משיכו": 7654,
      "##ונלד": 7655,
      "mac": 7656,
      "son": 7657,
      "##מוח": 7658,
      "השחור": 7659,
      "##וצרת": 7660,
      "לפל": 7661,
      "אמיתיים": 7662,
      "##חתת": 7663,
      "לסמוך": 7664,
      "מטוסים": 7665,
      "נתפס": 7666,
      "ספרו": 7667,
      "ההתנגדות": 7668,
      "בסיפור": 7669,
      "יקבל": 7670,
      "ראייה": 7671,
      "בפעילות": 7672,
      "צמחים": 7673,
      "בקבוצה": 7674,
      "ag": 7675,
      "day": 7676,
      "חסי": 7677,
      "חוט": 7678,
      "##מורת": 7679,
      "האנגלית": 7680,
      "הרוסית": 7681,
      "##יקו": 7682,
      "ביס": 7683,
      "מצבים": 7684,
      "##נטון": 7685,
      "שמדו": 7686,
      "לדון": 7687,
      "ממע": 7688,
      "##יצה": 7689,
      "מוציא": 7690,
      "שתמיד": 7691,
      "189": 7692,
      "מוסלמים": 7693,
      "לשיפור": 7694,
      "לפרסם": 7695,
      "ניצחון": 7696,
      "המלכה": 7697,
      "מרחב": 7698,
      "ליהודים": 7699,
      "החופש": 7700,
      "הנסיך": 7701,
      "פרחים": 7702,
      "וושינגטון": 7703,
      "אקס": 7704,
      "חלל": 7705,
      "טיסות": 7706,
      "מלה": 7707,
      "מכה": 7708,
      "מורים": 7709,
      "שונא": 7710,
      "##גיד": 7711,
      "המזו": 7712,
      "העסקה": 7713,
      "השופ": 7714,
      "מתמיד": 7715,
      "מתמוד": 7716,
      "לפס": 7717,
      "##ישוב": 7718,
      "הדעת": 7719,
      "נהדרת": 7720,
      "קורס": 7721,
      "שחלק": 7722,
      "לזכויות": 7723,
      "מקבלת": 7724,
      "זוכה": 7725,
      "צפויים": 7726,
      "רומא": 7727,
      "בעצמך": 7728,
      "שהופך": 7729,
      "תלמידי": 7730,
      "הבריטית": 7731,
      "דרכו": 7732,
      "זכור": 7733,
      "חובות": 7734,
      "קולות": 7735,
      "הישר": 7736,
      "האוו": 7737,
      "##ופעות": 7738,
      "##וחרים": 7739,
      "משלי": 7740,
      "##ראינה": 7741,
      "ההריון": 7742,
      "מחול": 7743,
      "##כויים": 7744,
      "##ציבות": 7745,
      "פרנסי": 7746,
      "לסגור": 7747,
      "בפריז": 7748,
      "בבירור": 7749,
      "##מעו": 7750,
      "שלאחר": 7751,
      "תחומי": 7752,
      "במשפחה": 7753,
      "##ence": 7754,
      "אומץ": 7755,
      "טיפים": 7756,
      "מושלמת": 7757,
      "תצטרך": 7758,
      "המוסלמים": 7759,
      "שיכולים": 7760,
      "צפויה": 7761,
      "חן": 7762,
      "נשימה": 7763,
      "שתיים": 7764,
      "##az": 7765,
      "##חילה": 7766,
      "##ולדות": 7767,
      "איז": 7768,
      "לערוך": 7769,
      "לעודד": 7770,
      "הבנייה": 7771,
      "הצלב": 7772,
      "לתלמידים": 7773,
      "חשובות": 7774,
      "שחשוב": 7775,
      "מרגש": 7776,
      "בסיכון": 7777,
      "תגיד": 7778,
      "פריז": 7779,
      "מובילה": 7780,
      "להרוס": 7781,
      "האהוב": 7782,
      "העצמי": 7783,
      "חכמים": 7784,
      "הניתוח": 7785,
      "[-": 7786,
      "av": 7787,
      "jo": 7788,
      "med": 7789,
      "מונה": 7790,
      "נלק": 7791,
      "שחי": 7792,
      "תוב": 7793,
      "##בדת": 7794,
      "היות": 7795,
      "השג": 7796,
      "הרפת": 7797,
      "הפוטנציאל": 7798,
      "ההחלט": 7799,
      "מקווים": 7800,
      "הנור": 7801,
      "סיטי": 7802,
      "עבורכם": 7803,
      "חזון": 7804,
      "פריטים": 7805,
      "מוחמד": 7806,
      "סגן": 7807,
      "האפשרויות": 7808,
      "המפורסם": 7809,
      "פלסטין": 7810,
      "הדיגיט": 7811,
      "ההחלטות": 7812,
      "ויי": 7813,
      "זכתה": 7814,
      "##מפיין": 7815,
      "##טוח": 7816,
      "##צג": 7817,
      "שלטון": 7818,
      "האיט": 7819,
      "##וכח": 7820,
      "הכוונה": 7821,
      "להתרחש": 7822,
      "##פיץ": 7823,
      "מדווח": 7824,
      "בקושי": 7825,
      "ארד": 7826,
      "פיזי": 7827,
      "בדברים": 7828,
      "המתאים": 7829,
      "חשש": 7830,
      "##טלר": 7831,
      "מסתבר": 7832,
      "דאעש": 7833,
      "הלוואי": 7834,
      "עוצמה": 7835,
      "מדויק": 7836,
      "מתקדמים": 7837,
      "הלהקה": 7838,
      "ויא": 7839,
      "טקסט": 7840,
      "יזם": 7841,
      "סח": 7842,
      "רדיו": 7843,
      "##iz": 7844,
      "המצל": 7845,
      "להורג": 7846,
      "##ומך": 7847,
      "##ופיים": 7848,
      "##שיאות": 7849,
      "##וגות": 7850,
      "לעי": 7851,
      "הבמה": 7852,
      "מחלק": 7853,
      "לחם": 7854,
      "הכרטי": 7855,
      "מצו": 7856,
      "מזונות": 7857,
      "התקשר": 7858,
      "תרופה": 7859,
      "וחלק": 7860,
      "##פרייה": 7861,
      "1998": 7862,
      "1997": 7863,
      "האמריקנית": 7864,
      "טבעית": 7865,
      "נותרו": 7866,
      "ביטול": 7867,
      "הרפואה": 7868,
      "תומך": 7869,
      "שהאדם": 7870,
      "מציין": 7871,
      "שמדובר": 7872,
      "[-]": 7873,
      "home": 7874,
      "אנה": 7875,
      "דן": 7876,
      "דתיים": 7877,
      "מבו": 7878,
      "צא": 7879,
      "שמים": 7880,
      "שכת": 7881,
      "##נצל": 7882,
      "##מיקה": 7883,
      "##טגי": 7884,
      "##שט": 7885,
      "##ולדת": 7886,
      "המולד": 7887,
      "האמצ": 7888,
      "##ומק": 7889,
      "השירים": 7890,
      "הרוסי": 7891,
      "לעד": 7892,
      "מתוק": 7893,
      "הסחר": 7894,
      "הפתי": 7895,
      "ההפר": 7896,
      "ההודעה": 7897,
      "לשוק": 7898,
      "לחזק": 7899,
      "לתכנן": 7900,
      "נתנו": 7901,
      "נהנה": 7902,
      "עצמאות": 7903,
      "##קטור": 7904,
      "?\".": 7905,
      "נחשבת": 7906,
      "שנערך": 7907,
      "שאינן": 7908,
      "המוקד": 7909,
      ">>": 7910,
      "בוחר": 7911,
      "כמי": 7912,
      "קבל": 7913,
      "קונה": 7914,
      "שפע": 7915,
      "##כרה": 7916,
      "מהווים": 7917,
      "הקלי": 7918,
      "מחירים": 7919,
      "הצעה": 7920,
      "הכרה": 7921,
      "בחלל": 7922,
      "##וזים": 7923,
      "מדריך": 7924,
      "הבינו": 7925,
      "פיטר": 7926,
      "מטבע": 7927,
      "##ath": 7928,
      "בתחומים": 7929,
      "1995": 7930,
      "במועד": 7931,
      "אופניים": 7932,
      "גילוי": 7933,
      "נכנסים": 7934,
      "##מפרטורה": 7935,
      "intern": 7936,
      "95": 7937,
      "lin": 7938,
      "per": 7939,
      "כאל": 7940,
      "לניהול": 7941,
      "צוע": 7942,
      "לאת": 7943,
      "##ומא": 7944,
      "באל": 7945,
      "באנשים": 7946,
      "##טיס": 7947,
      "##יסטים": 7948,
      "עצומה": 7949,
      "המחוז": 7950,
      "ידועים": 7951,
      "מספרת": 7952,
      "יעשו": 7953,
      "עצמאית": 7954,
      "שרוצים": 7955,
      "1994": 7956,
      "תופעה": 7957,
      "\").": 7958,
      "שוויון": 7959,
      "פתיחת": 7960,
      "איטלק": 7961,
      "49": 7962,
      "ha": 7963,
      "מכונות": 7964,
      "מפקד": 7965,
      "##אור": 7966,
      "##ופק": 7967,
      "##ליכי": 7968,
      "מהנד": 7969,
      "באחת": 7970,
      "החומרים": 7971,
      "התס": 7972,
      "למרכז": 7973,
      "מתפ": 7974,
      "בחוק": 7975,
      "עבורנו": 7976,
      "חייה": 7977,
      "חוקית": 7978,
      "מלאים": 7979,
      "מלכות": 7980,
      "קלוריות": 7981,
      "למשפחה": 7982,
      "האישית": 7983,
      "הרפואי": 7984,
      "יישום": 7985,
      "מסיבות": 7986,
      "מייצג": 7987,
      "os": 7988,
      "דנ": 7989,
      "נמנ": 7990,
      "פרא": 7991,
      "##ial": 7992,
      "##קנה": 7993,
      "##ff": 7994,
      "האושר": 7995,
      "החג": 7996,
      "החיות": 7997,
      "הענק": 7998,
      "מקסי": 7999,
      "##כונת": 8000,
      "פרטית": 8001,
      "מגי": 8002,
      "אינדי": 8003,
      "##ans": 8004,
      "הרגל": 8005,
      "מתקדם": 8006,
      "תיירים": 8007,
      "דאגה": 8008,
      "הבנקים": 8009,
      "ודאי": 8010,
      "שימושי": 8011,
      "דיאטה": 8012,
      "חלבון": 8013,
      "##ife": 8014,
      "מוחלטת": 8015,
      "שאמרתי": 8016,
      "##ound": 8017,
      "נמסר": 8018,
      "des": 8019,
      "תראו": 8020,
      "##גלה": 8021,
      "##פיר": 8022,
      "##כאון": 8023,
      "##ֶׁ": 8024,
      "המיי": 8025,
      "##ודעות": 8026,
      "למשהו": 8027,
      "בעזה": 8028,
      "הקפ": 8029,
      "##לקטוא": 8030,
      "##אהב": 8031,
      "##וזר": 8032,
      "ברזיל": 8033,
      "לגשת": 8034,
      "עדות": 8035,
      "יצחק": 8036,
      "לרשת": 8037,
      "קצרים": 8038,
      "##וסטון": 8039,
      "הרחב": 8040,
      "##וסטרליה": 8041,
      "post": 8042,
      "office": 8043,
      "aw": 8044,
      "אפר": 8045,
      "חירות": 8046,
      "סביבה": 8047,
      "שכי": 8048,
      "שכתב": 8049,
      "##לע": 8050,
      "##ֵי": 8051,
      "להנ": 8052,
      "היופי": 8053,
      "##ברס": 8054,
      "התנג": 8055,
      "כללית": 8056,
      "בעיית": 8057,
      "הגי": 8058,
      "לחלוק": 8059,
      "הכות": 8060,
      "##בונות": 8061,
      "בכיוון": 8062,
      "שנפ": 8063,
      "רגעים": 8064,
      "נפוץ": 8065,
      "האחרות": 8066,
      "ליישם": 8067,
      "פולין": 8068,
      "1967": 8069,
      "מדהימה": 8070,
      "##טיבציה": 8071,
      "בבעלות": 8072,
      "אכל": 8073,
      "סיד": 8074,
      "##חילו": 8075,
      "##מליים": 8076,
      "##נייני": 8077,
      "המלח": 8078,
      "האצ": 8079,
      "באוניברסיטה": 8080,
      "בעידן": 8081,
      "הגעתי": 8082,
      "בתנאים": 8083,
      "והא": 8084,
      "שעלי": 8085,
      "בטבע": 8086,
      "נתחיל": 8087,
      "שרוצה": 8088,
      "188": 8089,
      "יקרים": 8090,
      "בפרק": 8091,
      "הגרמני": 8092,
      "חקירה": 8093,
      "לבעלי": 8094,
      "ההצעה": 8095,
      "אירועי": 8096,
      "לנהוג": 8097,
      "with": 8098,
      "גשר": 8099,
      "מנוע": 8100,
      "סגור": 8101,
      "תסת": 8102,
      "##איות": 8103,
      "##קירה": 8104,
      "##ירוף": 8105,
      "##ובוסים": 8106,
      "העמים": 8107,
      "##ביעו": 8108,
      "הסול": 8109,
      "הבנות": 8110,
      "לדברים": 8111,
      "מגר": 8112,
      "מגני": 8113,
      "##צועה": 8114,
      "אליכם": 8115,
      "עשויות": 8116,
      "טיפולים": 8117,
      "מועדון": 8118,
      "1993": 8119,
      "המועד": 8120,
      "להזכיר": 8121,
      "עיתונאים": 8122,
      "רפואית": 8123,
      "מתרחשת": 8124,
      "כואב": 8125,
      "באיטליה": 8126,
      "mon": 8127,
      "דקה": 8128,
      "טילים": 8129,
      "נוז": 8130,
      "קשי": 8131,
      "##אליים": 8132,
      "##קבל": 8133,
      "##ערת": 8134,
      "##תיו": 8135,
      "אישר": 8136,
      "משל": 8137,
      "ישנים": 8138,
      "ההי": 8139,
      "הצפו": 8140,
      "בהודו": 8141,
      "ואה": 8142,
      "מבול": 8143,
      "לתואר": 8144,
      "שעשו": 8145,
      "אחריה": 8146,
      "##אונות": 8147,
      "קורבנות": 8148,
      "186": 8149,
      "הדיווח": 8150,
      "1990": 8151,
      "בעצמי": 8152,
      "זכרו": 8153,
      "האתגרים": 8154,
      "המחשבות": 8155,
      "סבלנות": 8156,
      "love": 8157,
      "act": 8158,
      "hot": 8159,
      "בירה": 8160,
      "נכונות": 8161,
      "סוס": 8162,
      "ספור": 8163,
      "עשינו": 8164,
      "צופים": 8165,
      "תשוב": 8166,
      "המיני": 8167,
      "להביע": 8168,
      "עלתה": 8169,
      "##ומץ": 8170,
      "החשבון": 8171,
      "החודשים": 8172,
      "השמים": 8173,
      "##וספת": 8174,
      "לימודים": 8175,
      "הציע": 8176,
      "##עתים": 8177,
      "מבוגר": 8178,
      "##וליטיקה": 8179,
      "פרסם": 8180,
      "תעופה": 8181,
      "הילדה": 8182,
      "ניסוי": 8183,
      "##מפוס": 8184,
      "##נחלויות": 8185,
      "##זבז": 8186,
      "במגוון": 8187,
      "##ִּי": 8188,
      "cb": 8189,
      "אוקטובר": 8190,
      "ביקר": 8191,
      "הליך": 8192,
      "##לומים": 8193,
      "##הו": 8194,
      "##ָר": 8195,
      "##סופו": 8196,
      "המכון": 8197,
      "##ילר": 8198,
      "##נהלות": 8199,
      "השב": 8200,
      "משוב": 8201,
      "##ייץ": 8202,
      "שהכל": 8203,
      "לעניין": 8204,
      "##וכית": 8205,
      "מחצית": 8206,
      "##יאל": 8207,
      "הצט": 8208,
      "הדא": 8209,
      "##נגל": 8210,
      "בגן": 8211,
      "שעל": 8212,
      "שעש": 8213,
      "אנוש": 8214,
      "ישראלית": 8215,
      "בניסיון": 8216,
      "להגביר": 8217,
      "ובמי": 8218,
      "לראש": 8219,
      "משמעותיים": 8220,
      "מלמד": 8221,
      "פנימי": 8222,
      "הציבורית": 8223,
      "המודעות": 8224,
      "רישיון": 8225,
      "לימודי": 8226,
      "האינטרסים": 8227,
      "לבעיות": 8228,
      "ספינות": 8229,
      "ממליץ": 8230,
      "קילומט": 8231,
      "שפורסם": 8232,
      "קילומטרים": 8233,
      "בואי": 8234,
      "גונג": 8235,
      "ייחוד": 8236,
      "סיס": 8237,
      "תשא": 8238,
      "##פלי": 8239,
      "##ple": 8240,
      "היג": 8241,
      "##שינגטון": 8242,
      "אחים": 8243,
      "בארגון": 8244,
      "##וצעו": 8245,
      "מתנות": 8246,
      "מכר": 8247,
      "משתתפים": 8248,
      "גורמת": 8249,
      "1991": 8250,
      "ניסיתי": 8251,
      "המלצות": 8252,
      "תפקידו": 8253,
      "כספי": 8254,
      "##נאביס": 8255,
      "מודרני": 8256,
      "הפסקת": 8257,
      "בטרם": 8258,
      "ההשקעה": 8259,
      "ובמיוחד": 8260,
      "כוע": 8261,
      "ענ": 8262,
      "קח": 8263,
      "היפה": 8264,
      "אויב": 8265,
      "התמק": 8266,
      "לעם": 8267,
      "לחי": 8268,
      "הדירה": 8269,
      "שישראל": 8270,
      "##נטרי": 8271,
      "המשכ": 8272,
      "נהנים": 8273,
      "משפטי": 8274,
      "נאס": 8275,
      "##סיקים": 8276,
      "יאפשר": 8277,
      "כתבתי": 8278,
      "עזב": 8279,
      "זוגות": 8280,
      "למסע": 8281,
      "שבאמת": 8282,
      "בקהילה": 8283,
      "המונח": 8284,
      "האקלים": 8285,
      "כניסת": 8286,
      "הצרפתי": 8287,
      "דירות": 8288,
      "דמויות": 8289,
      "טו": 8290,
      "מטה": 8291,
      "ממוש": 8292,
      "עסקה": 8293,
      "רלוונטי": 8294,
      "##קאות": 8295,
      "##ידוש": 8296,
      "##מצים": 8297,
      "והג": 8298,
      "בספרד": 8299,
      "ברשימה": 8300,
      "##ולוגיות": 8301,
      "##צועת": 8302,
      "התיירות": 8303,
      "ההתנהגות": 8304,
      "מכלל": 8305,
      "טבעיים": 8306,
      "השליטה": 8307,
      "הצבאית": 8308,
      "פילוס": 8309,
      "בחייו": 8310,
      "הגורם": 8311,
      "לקבוצה": 8312,
      "בבל": 8313,
      "דתי": 8314,
      "לוו": 8315,
      "נניח": 8316,
      "צוח": 8317,
      "קניות": 8318,
      "##פסים": 8319,
      "##כיים": 8320,
      "##ְׁ": 8321,
      "##ופיות": 8322,
      "##וצרות": 8323,
      "##טיחות": 8324,
      "מחז": 8325,
      "בתמונה": 8326,
      "אלטר": 8327,
      "הנזק": 8328,
      "מגן": 8329,
      "ממק": 8330,
      "בצבא": 8331,
      "##int": 8332,
      "אהב": 8333,
      "##וויטר": 8334,
      "העובדות": 8335,
      "מקצועיים": 8336,
      "חומרי": 8337,
      "מצוינת": 8338,
      "הבדיקה": 8339,
      "דיכאון": 8340,
      "האיטלק": 8341,
      "700": 8342,
      "ol": 8343,
      "דרג": 8344,
      "סודות": 8345,
      "רעים": 8346,
      "##כרים": 8347,
      "##ֹת": 8348,
      "היטלר": 8349,
      "##ובלית": 8350,
      "##ובליק": 8351,
      "באנגליה": 8352,
      "הראה": 8353,
      "##לאה": 8354,
      "שאלת": 8355,
      "שיצ": 8356,
      "מגורים": 8357,
      "בכדור": 8358,
      "עבורך": 8359,
      "יציר": 8360,
      "משתנים": 8361,
      "נכסים": 8362,
      "במחשב": 8363,
      "##יזם": 8364,
      "לפתע": 8365,
      "##ood": 8366,
      "רוחנית": 8367,
      "החלטת": 8368,
      "העיתון": 8369,
      "החברתיות": 8370,
      "da": 8371,
      "כרו": 8372,
      "נמשיך": 8373,
      "קישורים": 8374,
      "##ניום": 8375,
      "מהלך": 8376,
      "לער": 8377,
      "הפור": 8378,
      "שאה": 8379,
      "הבול": 8380,
      "הצטרף": 8381,
      "הצלחתי": 8382,
      "מבצעים": 8383,
      "בכפר": 8384,
      "בכירים": 8385,
      "אנושית": 8386,
      "מטע": 8387,
      "אדמות": 8388,
      "התחילה": 8389,
      "באיזו": 8390,
      "התוכנה": 8391,
      "דורשים": 8392,
      "משפטית": 8393,
      "לומד": 8394,
      "רפואיים": 8395,
      "ולקבל": 8396,
      "גרעיני": 8397,
      "בכם": 8398,
      "לית": 8399,
      "סבא": 8400,
      "סביבת": 8401,
      "##פסה": 8402,
      "##בך": 8403,
      "##po": 8404,
      "##כללה": 8405,
      "השניה": 8406,
      "למטרה": 8407,
      "משוכ": 8408,
      "לשמ": 8409,
      "מחלקת": 8410,
      "הנחה": 8411,
      "שיצא": 8412,
      "אחדות": 8413,
      "מבנים": 8414,
      "עצוב": 8415,
      "בסדרה": 8416,
      "שלושים": 8417,
      "בפל": 8418,
      "ולל": 8419,
      "המחלקה": 8420,
      "##סטן": 8421,
      "בנושאים": 8422,
      "נגר": 8423,
      "הפרלמנט": 8424,
      "אסון": 8425,
      "הרגשות": 8426,
      "האירא": 8427,
      "הפעולות": 8428,
      "נותנת": 8429,
      "קשורה": 8430,
      "הסכסוך": 8431,
      "הוכחה": 8432,
      "השמאל": 8433,
      "ההשפעות": 8434,
      "מתכננים": 8435,
      "bus": 8436,
      "cr": 8437,
      "ge": 8438,
      "חני": 8439,
      "כוונה": 8440,
      "ספטמבר": 8441,
      "רדי": 8442,
      "רשויות": 8443,
      "##ּוֹ": 8444,
      "##בין": 8445,
      "##קוד": 8446,
      "##כוד": 8447,
      "האנ": 8448,
      "מהג": 8449,
      "באתי": 8450,
      "החוב": 8451,
      "אייר": 8452,
      "##וגני": 8453,
      "ההנה": 8454,
      "מחק": 8455,
      "##פתור": 8456,
      "מרוצים": 8457,
      "מרטין": 8458,
      "חוקר": 8459,
      "התעל": 8460,
      "למציאות": 8461,
      "נכש": 8462,
      "##פריט": 8463,
      "המטבע": 8464,
      "##וגרפיה": 8465,
      "פיליפ": 8466,
      "מעדיפים": 8467,
      "שנאמר": 8468,
      "מתייחסים": 8469,
      "##בוגרים": 8470,
      "##צוות": 8471,
      "##כנים": 8472,
      "שליש": 8473,
      "##תייחס": 8474,
      "במר": 8475,
      "אחורה": 8476,
      "##וגן": 8477,
      "הבכ": 8478,
      "##מתם": 8479,
      "והח": 8480,
      "עצים": 8481,
      "##מרק": 8482,
      "ניתנת": 8483,
      "ובמק": 8484,
      "נתקל": 8485,
      "נהיגה": 8486,
      "שכזה": 8487,
      "עסקיים": 8488,
      "1992": 8489,
      "מופע": 8490,
      "בפרט": 8491,
      "השלכות": 8492,
      "הרחוב": 8493,
      "הרוחני": 8494,
      "כעס": 8495,
      "נוכח": 8496,
      "הנוסעים": 8497,
      "העצמאות": 8498,
      "gu": 8499,
      "hum": 8500,
      "גירוש": 8501,
      "מוני": 8502,
      "קים": 8503,
      "קסם": 8504,
      "תמשיך": 8505,
      "##ian": 8506,
      "##קרונות": 8507,
      "האלימות": 8508,
      "##מוץ": 8509,
      "משלמים": 8510,
      "שהש": 8511,
      "מתפת": 8512,
      "מסמך": 8513,
      "לחוש": 8514,
      "הדמויות": 8515,
      "שימש": 8516,
      "אפליק": 8517,
      "מפחד": 8518,
      "חדרים": 8519,
      "דבריו": 8520,
      "לנושא": 8521,
      "##פטן": 8522,
      "האימפריה": 8523,
      "##סטינים": 8524,
      "אביה": 8525,
      "מופת": 8526,
      "אשמח": 8527,
      "בשלום": 8528,
      "מובילים": 8529,
      "אינטליג": 8530,
      "מרחק": 8531,
      "סכנה": 8532,
      "שנוכל": 8533,
      "הוקם": 8534,
      "נישואין": 8535,
      "ספציפי": 8536,
      "life": 8537,
      "war": 8538,
      "נחת": 8539,
      "סת": 8540,
      "שמצ": 8541,
      "תדע": 8542,
      "##פירה": 8543,
      "##טציה": 8544,
      "שלג": 8545,
      "המו": 8546,
      "##ליפות": 8547,
      "איחוד": 8548,
      "העץ": 8549,
      "הקלא": 8550,
      "הפארק": 8551,
      "הפועלים": 8552,
      "מקל": 8553,
      "פרש": 8554,
      "סיכונים": 8555,
      "ממתי": 8556,
      "שבני": 8557,
      "גרסה": 8558,
      "##שלון": 8559,
      "ספרות": 8560,
      "פתוחים": 8561,
      "וכאשר": 8562,
      "כשהייתי": 8563,
      "תיאטרון": 8564,
      "##טיביים": 8565,
      "כרטיסי": 8566,
      "החתונה": 8567,
      "לחגוג": 8568,
      "br": 8569,
      "בלח": 8570,
      "ופע": 8571,
      "יוק": 8572,
      "כור": 8573,
      "סבור": 8574,
      "##אמה": 8575,
      "##בירים": 8576,
      "##כיל": 8577,
      "##כלים": 8578,
      "הערכים": 8579,
      "ההון": 8580,
      "לחברות": 8581,
      "בתנאי": 8582,
      "לקו": 8583,
      "הדואר": 8584,
      "שינו": 8585,
      "חלקית": 8586,
      "הלכת": 8587,
      "הנושאים": 8588,
      "אסירים": 8589,
      "פשוטים": 8590,
      "רצוי": 8591,
      "בהתחשב": 8592,
      "ההתחלה": 8593,
      "##ree": 8594,
      "ant": 8595,
      "הלימוד": 8596,
      "רפואה": 8597,
      "ארבעת": 8598,
      "##age": 8599,
      "נדרשים": 8600,
      "ומעלה": 8601,
      "לנקות": 8602,
      "ייחודית": 8603,
      "נובמבר": 8604,
      "המשותף": 8605,
      "'\".": 8606,
      "47": 8607,
      "הוביל": 8608,
      "ירו": 8609,
      "מנד": 8610,
      "סבי": 8611,
      "עולים": 8612,
      "עיקר": 8613,
      "שרת": 8614,
      "תמצאו": 8615,
      "##מלט": 8616,
      "אתגרים": 8617,
      "##יליון": 8618,
      "##מוניה": 8619,
      "הרומ": 8620,
      "מאורג": 8621,
      "הגול": 8622,
      "הגענו": 8623,
      "##וכמה": 8624,
      "הבנת": 8625,
      "עצב": 8626,
      "בקנה": 8627,
      "##דושים": 8628,
      "רגילה": 8629,
      "יעלה": 8630,
      "התקציב": 8631,
      "הופעות": 8632,
      "המאסטר": 8633,
      "במחש": 8634,
      "##ach": 8635,
      "לתקשר": 8636,
      "הסכמה": 8637,
      "מאפשרים": 8638,
      "##נרל": 8639,
      "תומכים": 8640,
      "גדלה": 8641,
      "להיפטר": 8642,
      "הנישואין": 8643,
      "דיפלומ": 8644,
      "ונית": 8645,
      "ונשים": 8646,
      "ימות": 8647,
      "יישאר": 8648,
      "לבל": 8649,
      "פליטים": 8650,
      "שתר": 8651,
      "להרג": 8652,
      "##וקות": 8653,
      "החיו": 8654,
      "הערות": 8655,
      "מאסר": 8656,
      "מתעור": 8657,
      "שאומר": 8658,
      "בתר": 8659,
      "בתקשורת": 8660,
      "##אלת": 8661,
      "לקום": 8662,
      "אלוה": 8663,
      "תהיו": 8664,
      "הנוער": 8665,
      "אספקת": 8666,
      "יקבלו": 8667,
      "ברחובות": 8668,
      "מופיעה": 8669,
      "##ild": 8670,
      "250": 8671,
      "שמעולם": 8672,
      "מדהי": 8673,
      "sec": 8674,
      "במאבק": 8675,
      "הנאצים": 8676,
      "נזכר": 8677,
      "מלונות": 8678,
      "לצערי": 8679,
      "דלקת": 8680,
      "כושר": 8681,
      "פוש": 8682,
      "רון": 8683,
      "רעה": 8684,
      "##מנטים": 8685,
      "##עק": 8686,
      "האומה": 8687,
      "באות": 8688,
      "הרים": 8689,
      "הרבים": 8690,
      "##יקי": 8691,
      "שהוק": 8692,
      "הסופר": 8693,
      "מעניינים": 8694,
      "מעריכים": 8695,
      "מחליט": 8696,
      "##רגש": 8697,
      "לבדי": 8698,
      "##סיבה": 8699,
      "הדרושים": 8700,
      "האמיתיים": 8701,
      "נפגש": 8702,
      "תיירות": 8703,
      "##own": 8704,
      "סיינט": 8705,
      "מצטער": 8706,
      "66": 8707,
      "ww": 8708,
      "גני": 8709,
      "חטא": 8710,
      "משרת": 8711,
      "נוצרים": 8712,
      "סמית": 8713,
      "סמוך": 8714,
      "עמודים": 8715,
      "קישור": 8716,
      "##ממה": 8717,
      "##ודיע": 8718,
      "לאס": 8719,
      "##וצץ": 8720,
      "לעצב": 8721,
      "##זהר": 8722,
      "##חתן": 8723,
      "מכון": 8724,
      "עבורם": 8725,
      "לרצות": 8726,
      "##ick": 8727,
      "עסקית": 8728,
      "ניסויים": 8729,
      "##טונו": 8730,
      "רוחני": 8731,
      "שומעים": 8732,
      "בעברית": 8733,
      "באירוע": 8734,
      "הטבעי": 8735,
      "הקודמים": 8736,
      "אינטנסי": 8737,
      "לביצוע": 8738,
      "בודד": 8739,
      "להיפגש": 8740,
      "שמאפשר": 8741,
      "שקיבל": 8742,
      "פירושו": 8743,
      "לסטודנטים": 8744,
      "הספינה": 8745,
      "cent": 8746,
      "דק": 8747,
      "חינו": 8748,
      "ליו": 8749,
      "מפה": 8750,
      "קלים": 8751,
      "המניות": 8752,
      "הינם": 8753,
      "החברתי": 8754,
      "השוט": 8755,
      "השקט": 8756,
      "##רויות": 8757,
      "הקלה": 8758,
      "הפיק": 8759,
      "הבק": 8760,
      "הצו": 8761,
      "בהיות": 8762,
      "אמרת": 8763,
      "הכשרה": 8764,
      "בחברת": 8765,
      "שמגיע": 8766,
      "שנאה": 8767,
      "חזרו": 8768,
      "למחקר": 8769,
      "תלויה": 8770,
      "ייתן": 8771,
      "ers": 8772,
      "ברכב": 8773,
      "החליטו": 8774,
      "##יפיור": 8775,
      "43": 8776,
      "46": 8777,
      "ib": 8778,
      "גובה": 8779,
      "זכו": 8780,
      "זמנים": 8781,
      "חווים": 8782,
      "כשר": 8783,
      "ניכ": 8784,
      "ריפ": 8785,
      "##זמים": 8786,
      "##כניים": 8787,
      "התשלום": 8788,
      "התחושה": 8789,
      "בעבור": 8790,
      "שהיתה": 8791,
      "מסיי": 8792,
      "##ותרות": 8793,
      "מענה": 8794,
      "הבירה": 8795,
      "הבתים": 8796,
      "מחסור": 8797,
      "לחש": 8798,
      "לקחו": 8799,
      "##חקו": 8800,
      "מפגש": 8801,
      "##eric": 8802,
      "להגנה": 8803,
      "המחבר": 8804,
      "הלכתי": 8805,
      "אירלנד": 8806,
      "להסתיר": 8807,
      "הוכר": 8808,
      "המשיכה": 8809,
      "ra": 8810,
      "ter": 8811,
      "גברת": 8812,
      "ובלתי": 8813,
      "לוי": 8814,
      "מפי": 8815,
      "ערוץ": 8816,
      "פיס": 8817,
      "פסטיבל": 8818,
      "רישום": 8819,
      "##כמים": 8820,
      "##נוקות": 8821,
      "האוצר": 8822,
      "##ואנה": 8823,
      "במידע": 8824,
      "במשרה": 8825,
      "אחדים": 8826,
      "מאמן": 8827,
      "##בהיר": 8828,
      "הגזע": 8829,
      "לשוב": 8830,
      "בהג": 8831,
      "בתפ": 8832,
      "בחינוך": 8833,
      "ואר": 8834,
      "והפ": 8835,
      "##בתם": 8836,
      "הטכני": 8837,
      "לצמצם": 8838,
      "ילדיהם": 8839,
      "נעליים": 8840,
      "הלכה": 8841,
      "כתבי": 8842,
      "בסיסי": 8843,
      "חופשיים": 8844,
      "כנסי": 8845,
      "הטיסה": 8846,
      "דיוויד": 8847,
      "הרצפה": 8848,
      "סוכנות": 8849,
      "סיפרה": 8850,
      "מתאימים": 8851,
      "היסוד": 8852,
      "במלוא": 8853,
      "!)": 8854,
      "59": 8855,
      "64": 8856,
      "ev": 8857,
      "גשם": 8858,
      "ירח": 8859,
      "מוסיף": 8860,
      "סני": 8861,
      "סמל": 8862,
      "עדים": 8863,
      "קנה": 8864,
      "שחר": 8865,
      "##נחים": 8866,
      "##בקים": 8867,
      "##קנים": 8868,
      "האשר": 8869,
      "התואר": 8870,
      "השעון": 8871,
      "מאיפה": 8872,
      "##פרס": 8873,
      "מעקב": 8874,
      "לשמר": 8875,
      "בהצ": 8876,
      "##בעו": 8877,
      "וללא": 8878,
      "##תרבות": 8879,
      "##ond": 8880,
      "קינג": 8881,
      "הרגיל": 8882,
      "הרגיש": 8883,
      "##ics": 8884,
      "לפעילות": 8885,
      "##בחרו": 8886,
      "הנהג": 8887,
      "תכשי": 8888,
      "הסרטן": 8889,
      "טענות": 8890,
      "onl": 8891,
      "דורשת": 8892,
      "האשראי": 8893,
      "67": 8894,
      "met": 8895,
      "דרו": 8896,
      "מפק": 8897,
      "נכת": 8898,
      "נרד": 8899,
      "תורה": 8900,
      "##uc": 8901,
      "##עורים": 8902,
      "##ֹא": 8903,
      "##xt": 8904,
      "היוו": 8905,
      "##ובלת": 8906,
      "במבט": 8907,
      "במדיניות": 8908,
      "החשיבות": 8909,
      "העש": 8910,
      "למים": 8911,
      "למשרד": 8912,
      "שהס": 8913,
      "לעת": 8914,
      "הקיר": 8915,
      "הפול": 8916,
      "הפיצ": 8917,
      "ההד": 8918,
      "בתמורה": 8919,
      "##בונים": 8920,
      "הדמות": 8921,
      "עצמן": 8922,
      "לתע": 8923,
      "השיווק": 8924,
      "ממשלות": 8925,
      "יעד": 8926,
      "תעשי": 8927,
      "אורחים": 8928,
      "במוח": 8929,
      "##בולוציה": 8930,
      "##גוריות": 8931,
      "האישיות": 8932,
      "דתית": 8933,
      "מחויבות": 8934,
      "מיידית": 8935,
      "באפשרותך": 8936,
      "אזהרה": 8937,
      "שלישית": 8938,
      "52": 8939,
      "ילי": 8940,
      "##נז": 8941,
      "כללים": 8942,
      "משמשים": 8943,
      "לעסוק": 8944,
      "מתוח": 8945,
      "הפח": 8946,
      "בשילוב": 8947,
      "ליח": 8948,
      "##רגו": 8949,
      "הכנסות": 8950,
      "אלג": 8951,
      "הנמו": 8952,
      "כמוך": 8953,
      "לגברים": 8954,
      "פרקים": 8955,
      "מגלים": 8956,
      "לכבוד": 8957,
      "אינכם": 8958,
      "המקומיים": 8959,
      "##פויות": 8960,
      "האיכות": 8961,
      "אהוב": 8962,
      "בנפרד": 8963,
      "בנסיבות": 8964,
      "##בטיה": 8965,
      "הסכום": 8966,
      "שוקולד": 8967,
      "המלאה": 8968,
      "פוגע": 8969,
      "שהגיעו": 8970,
      "הסתיימה": 8971,
      "באחריות": 8972,
      "ולפעמים": 8973,
      "אַ": 8974,
      "חוף": 8975,
      "מוא": 8976,
      "נמנע": 8977,
      "##זג": 8978,
      "##זול": 8979,
      "לאזרח": 8980,
      "אונס": 8981,
      "התור": 8982,
      "התודעה": 8983,
      "##ועץ": 8984,
      "לעזרה": 8985,
      "הפצ": 8986,
      "בימינו": 8987,
      "בהש": 8988,
      "##יפו": 8989,
      "לקידום": 8990,
      "סיני": 8991,
      "סימני": 8992,
      "בפג": 8993,
      "שעשה": 8994,
      "##שלכות": 8995,
      "להפיק": 8996,
      "הסיני": 8997,
      "נאמנות": 8998,
      "כהן": 8999,
      "מידת": 9000,
      "1948": 9001,
      "##נחלים": 9002,
      "המשיכו": 9003,
      "הקולנוע": 9004,
      "בעצמם": 9005,
      "קובץ": 9006,
      "מהחיים": 9007,
      "הכדורגל": 9008,
      "האקדמיה": 9009,
      "מצחיק": 9010,
      "האלקטרוני": 9011,
      "right": 9012,
      "sw": 9013,
      "בלא": 9014,
      "נדי": 9015,
      "נרח": 9016,
      "נוטה": 9017,
      "סבתא": 9018,
      "פוס": 9019,
      "רט": 9020,
      "##ma": 9021,
      "##כית": 9022,
      "##כחו": 9023,
      "##gh": 9024,
      "להיו": 9025,
      "באותם": 9026,
      "כלכליים": 9027,
      "העשרים": 9028,
      "מאלה": 9029,
      "##יקף": 9030,
      "הסופי": 9031,
      "##דרש": 9032,
      "אלן": 9033,
      "ואן": 9034,
      "שיט": 9035,
      "נשמ": 9036,
      "חייך": 9037,
      "לרמה": 9038,
      "##פלציה": 9039,
      "קורסים": 9040,
      "פנימית": 9041,
      "מוזמנים": 9042,
      "טרנס": 9043,
      "תכניות": 9044,
      "star": 9045,
      "קושי": 9046,
      "מלחמות": 9047,
      "המועדון": 9048,
      "נשארו": 9049,
      "זיהוי": 9050,
      "נישואים": 9051,
      "מלווה": 9052,
      "עריכת": 9053,
      "דוקטור": 9054,
      "51": 9055,
      "ll": 9056,
      "דמו": 9057,
      "דצמבר": 9058,
      "לרו": 9059,
      "ריב": 9060,
      "##נוג": 9061,
      "המיקום": 9062,
      "היקף": 9063,
      "אחות": 9064,
      "החליטה": 9065,
      "אימה": 9066,
      "למדו": 9067,
      "בעונה": 9068,
      "כיסוי": 9069,
      "מעצב": 9070,
      "לשבור": 9071,
      "בהיר": 9072,
      "מיום": 9073,
      "הדוקט": 9074,
      "בגדה": 9075,
      "במוזיאון": 9076,
      "עקבו": 9077,
      "טענה": 9078,
      "הצדק": 9079,
      "מנהיגי": 9080,
      "היצירה": 9081,
      "ויליאם": 9082,
      "הפיזי": 9083,
      "אעשה": 9084,
      "בסכנה": 9085,
      "watch": 9086,
      "אפריל": 9087,
      "לכולנו": 9088,
      "ציט": 9089,
      "רופ": 9090,
      "תום": 9091,
      "המוט": 9092,
      "להרים": 9093,
      "הארגונים": 9094,
      "משלם": 9095,
      "הקוס": 9096,
      "בשו": 9097,
      "ביץ": 9098,
      "מיועד": 9099,
      "לבכות": 9100,
      "והכל": 9101,
      "מבקר": 9102,
      "בסעיף": 9103,
      "##ינון": 9104,
      "בפור": 9105,
      "בכיתה": 9106,
      "רגשית": 9107,
      "התייש": 9108,
      "התחלה": 9109,
      "הגרמנית": 9110,
      "חתולים": 9111,
      "הסתכל": 9112,
      "קדוש": 9113,
      "אסטרטגיות": 9114,
      "יציבות": 9115,
      "החמישי": 9116,
      "שוטרים": 9117,
      "%.": 9118,
      "גולד": 9119,
      "יציב": 9120,
      "כרגיל": 9121,
      "לרח": 9122,
      "מיע": 9123,
      "##רתי": 9124,
      "##טרים": 9125,
      "מהמש": 9126,
      "##וצאת": 9127,
      "מאוניברסיטת": 9128,
      "##להבות": 9129,
      "הסופית": 9130,
      "הקיימים": 9131,
      "##משכת": 9132,
      "מקומית": 9133,
      "אמן": 9134,
      "ואכן": 9135,
      "אזורי": 9136,
      "עדכון": 9137,
      "לנוע": 9138,
      "השיב": 9139,
      "##פורד": 9140,
      "מרצ": 9141,
      "הסיכוי": 9142,
      "האינס": 9143,
      "תשעה": 9144,
      "מועמד": 9145,
      "להשגת": 9146,
      "הנהר": 9147,
      "פוליטיקה": 9148,
      "המודל": 9149,
      "להרשות": 9150,
      "חתול": 9151,
      "טכנולוגיית": 9152,
      "האתגר": 9153,
      "americ": 9154,
      "המפגש": 9155,
      "53": 9156,
      "ce": 9157,
      "hiv": 9158,
      "דעה": 9159,
      "דומות": 9160,
      "דגל": 9161,
      "מרה": 9162,
      "נשר": 9163,
      "סך": 9164,
      "סור": 9165,
      "פנו": 9166,
      "צופה": 9167,
      "רוט": 9168,
      "##ect": 9169,
      "##פוץ": 9170,
      "##קח": 9171,
      "##כנון": 9172,
      "##נום": 9173,
      "להשיב": 9174,
      "האולי": 9175,
      "##ואידים": 9176,
      "השער": 9177,
      "משלוח": 9178,
      "לעסקים": 9179,
      "כישלון": 9180,
      "הקיים": 9181,
      "מעריך": 9182,
      "הגא": 9183,
      "##מיון": 9184,
      "אמין": 9185,
      "הכותרת": 9186,
      "בחנות": 9187,
      "אפריק": 9188,
      "לגדל": 9189,
      "##פקוד": 9190,
      "לרצ": 9191,
      "לרופא": 9192,
      "המתנה": 9193,
      "רצתה": 9194,
      "הוריו": 9195,
      "יורד": 9196,
      "קולומ": 9197,
      "ניסיונות": 9198,
      "אמריקאית": 9199,
      "לעצמה": 9200,
      "בידיים": 9201,
      "פלסטיני": 9202,
      "שנעשה": 9203,
      "ובעיקר": 9204,
      "חמורה": 9205,
      "דמוקרטית": 9206,
      "דייוו": 9207,
      "הגבולות": 9208,
      "מתכוונים": 9209,
      "המצלמה": 9210,
      "fa": 9211,
      "ke": 9212,
      "אבוד": 9213,
      "אבק": 9214,
      "גאים": 9215,
      "עַ": 9216,
      "שווים": 9217,
      "תות": 9218,
      "##גרי": 9219,
      "##בקות": 9220,
      "##יליים": 9221,
      "החזון": 9222,
      "התאים": 9223,
      "##רוכות": 9224,
      "בשב": 9225,
      "ביצע": 9226,
      "##רכן": 9227,
      "הטעם": 9228,
      "פרשת": 9229,
      "נער": 9230,
      "##פלגה": 9231,
      "רשאי": 9232,
      "הפסקה": 9233,
      "מיליאר": 9234,
      "בודדים": 9235,
      "ההבדלים": 9236,
      "אסטרטגיה": 9237,
      "מצביעים": 9238,
      "human": 9239,
      "mi": 9240,
      "גרו": 9241,
      "ורי": 9242,
      "טס": 9243,
      "לוס": 9244,
      "מִ": 9245,
      "קשיים": 9246,
      "##אזל": 9247,
      "##טול": 9248,
      "שלפני": 9249,
      "לאשר": 9250,
      "לאישה": 9251,
      "##ומני": 9252,
      "התנהג": 9253,
      "העביר": 9254,
      "השופט": 9255,
      "##יימה": 9256,
      "הסיפורים": 9257,
      "מעשים": 9258,
      "##רגשות": 9259,
      "לחצו": 9260,
      "הנביא": 9261,
      "##שתמש": 9262,
      "הביאו": 9263,
      "להגשים": 9264,
      "נפל": 9265,
      "החלומות": 9266,
      "בהתבסס": 9267,
      "גורמי": 9268,
      "ההתפתחות": 9269,
      "בראיון": 9270,
      "לטייל": 9271,
      "הקשור": 9272,
      "הרעיונות": 9273,
      "מבקשת": 9274,
      "החקירה": 9275,
      "ass": 9276,
      "מפחיד": 9277,
      "אלכסנדר": 9278,
      "טיימס": 9279,
      "gre": 9280,
      "ia": 9281,
      "זילנד": 9282,
      "טום": 9283,
      "יכל": 9284,
      "יכם": 9285,
      "כף": 9286,
      "מנט": 9287,
      "עוסק": 9288,
      "קלות": 9289,
      "רות": 9290,
      "ששת": 9291,
      "##אטה": 9292,
      "##גלות": 9293,
      "##שׁ": 9294,
      "##שמו": 9295,
      "##בוא": 9296,
      "מהות": 9297,
      "##ידקים": 9298,
      "השגר": 9299,
      "##טינית": 9300,
      "הקסם": 9301,
      "הבקשה": 9302,
      "לחדש": 9303,
      "מקסיקו": 9304,
      "לבנון": 9305,
      "יהן": 9306,
      "לסוג": 9307,
      "שעון": 9308,
      "תקבל": 9309,
      "ידעה": 9310,
      "המעור": 9311,
      "##יכוח": 9312,
      "התערוכה": 9313,
      "מוסד": 9314,
      "פלור": 9315,
      "ידענו": 9316,
      "מופר": 9317,
      "עמדות": 9318,
      "בנא": 9319,
      "אזרחות": 9320,
      "תפילה": 9321,
      "##וניברסיטאות": 9322,
      "1945": 9323,
      "משקאות": 9324,
      "עוזרים": 9325,
      "פגישה": 9326,
      "ארבעים": 9327,
      "הקשורות": 9328,
      "ופיתוח": 9329,
      "מסעדות": 9330,
      "ינואר": 9331,
      "play": 9332,
      "במצבים": 9333,
      "ציפורים": 9334,
      "יגיעו": 9335,
      "המותג": 9336,
      "הפסיכולוג": 9337,
      "gen": 9338,
      "sch": 9339,
      "tag": 9340,
      "אריק": 9341,
      "גמ": 9342,
      "ויע": 9343,
      "ויז": 9344,
      "חצ": 9345,
      "חשים": 9346,
      "טיע": 9347,
      "מכונה": 9348,
      "שים": 9349,
      "##לס": 9350,
      "##??": 9351,
      "החולה": 9352,
      "התובע": 9353,
      "משטר": 9354,
      "##דרגות": 9355,
      "לשתי": 9356,
      "בהע": 9357,
      "ברוח": 9358,
      "לגעת": 9359,
      "שעושה": 9360,
      "מזכ": 9361,
      "כולן": 9362,
      "יצטרכו": 9363,
      "העירייה": 9364,
      "הודעת": 9365,
      "##ash": 9366,
      "עיראק": 9367,
      "קהילת": 9368,
      "פלסטינית": 9369,
      "המושלם": 9370,
      "חכמה": 9371,
      "נציגי": 9372,
      "הצפוני": 9373,
      "##ואליציה": 9374,
      "הצרפתית": 9375,
      "פרנסיסקו": 9376,
      "אלטרנטי": 9377,
      "זרה": 9378,
      "זיכרונות": 9379,
      "כפול": 9380,
      "פיי": 9381,
      "שכול": 9382,
      "שראיתי": 9383,
      "##הה": 9384,
      "האנג": 9385,
      "האבטחה": 9386,
      "אחרונה": 9387,
      "באפריקה": 9388,
      "למדינות": 9389,
      "משו": 9390,
      "משטרת": 9391,
      "##לאם": 9392,
      "הקוב": 9393,
      "לשום": 9394,
      "מחכים": 9395,
      "לחודש": 9396,
      "אמנים": 9397,
      "פעילה": 9398,
      "לדרוש": 9399,
      "##יצונית": 9400,
      "##ינתי": 9401,
      "##וכלוסייה": 9402,
      "נערה": 9403,
      "180": 9404,
      "נסיעות": 9405,
      "תגיות": 9406,
      "ושם": 9407,
      "##ame": 9408,
      "זקוקה": 9409,
      "תנועות": 9410,
      "מעורר": 9411,
      "הרפוא": 9412,
      "המוסיקה": 9413,
      "מחפשת": 9414,
      "אסטרטגי": 9415,
      "כריסטי": 9416,
      "באהבה": 9417,
      "מנגנון": 9418,
      "לממשלה": 9419,
      "ייקח": 9420,
      "שתוכלו": 9421,
      "הצטרפו": 9422,
      "משלהם": 9423,
      "sky": 9424,
      "na": 9425,
      "ונס": 9426,
      "מרכיב": 9427,
      "נכל": 9428,
      "נטו": 9429,
      "סה": 9430,
      "סוסים": 9431,
      "עיכ": 9432,
      "פדר": 9433,
      "צול": 9434,
      "רושם": 9435,
      "##ויקטים": 9436,
      "##רְ": 9437,
      "##בוס": 9438,
      "אתי": 9439,
      "המוג": 9440,
      "##ודעת": 9441,
      "התשובות": 9442,
      "הרכ": 9443,
      "הסוד": 9444,
      "שאדם": 9445,
      "שאחרי": 9446,
      "הגבוהים": 9447,
      "לפתרון": 9448,
      "ביצים": 9449,
      "מקובל": 9450,
      "להתפתחות": 9451,
      "יצירה": 9452,
      "המסלול": 9453,
      "str": 9454,
      "מביאים": 9455,
      "1944": 9456,
      "הפסד": 9457,
      "האורחים": 9458,
      "נאלץ": 9459,
      "החיסון": 9460,
      "מתמודדים": 9461,
      "ps": 9462,
      "דיל": 9463,
      "ממי": 9464,
      "נודע": 9465,
      "ראתה": 9466,
      "##עס": 9467,
      "##כחות": 9468,
      "המורים": 9469,
      "האט": 9470,
      "התז": 9471,
      "משמע": 9472,
      "בערים": 9473,
      "הקת": 9474,
      "##יווד": 9475,
      "##ישלון": 9476,
      "אלק": 9477,
      "בחורף": 9478,
      "ואינו": 9479,
      "מדד": 9480,
      "בכבוד": 9481,
      "אנוני": 9482,
      "יחדיו": 9483,
      "הביקור": 9484,
      "אחרון": 9485,
      "יצאה": 9486,
      "מטבעות": 9487,
      "תהליכים": 9488,
      "וכש": 9489,
      "הוראה": 9490,
      "וזהו": 9491,
      "תפקידים": 9492,
      "צהריים": 9493,
      "דוגמא": 9494,
      "עוצמת": 9495,
      "מחויבים": 9496,
      "מעניינת": 9497,
      "שהעולם": 9498,
      "פוטר": 9499,
      "הסוביי": 9500,
      "לואיס": 9501,
      "58": 9502,
      "tw": 9503,
      "אֲ": 9504,
      "גיד": 9505,
      "חמו": 9506,
      "חמים": 9507,
      "ייפ": 9508,
      "לירות": 9509,
      "נסה": 9510,
      "פשי": 9511,
      "##חז": 9512,
      "##שטיין": 9513,
      "##ְר": 9514,
      "##port": 9515,
      "לאמץ": 9516,
      "##ברט": 9517,
      "##וחח": 9518,
      "אחראים": 9519,
      "אידיא": 9520,
      "השוו": 9521,
      "השבת": 9522,
      "השמיים": 9523,
      "למסקנה": 9524,
      "מסחרי": 9525,
      "כיבוש": 9526,
      "הפוך": 9527,
      "הכתיבה": 9528,
      "##סיסי": 9529,
      "בחיפוש": 9530,
      "הזכ": 9531,
      "##חתית": 9532,
      "בסמים": 9533,
      "שמשהו": 9534,
      "בקי": 9535,
      "מפעל": 9536,
      "##ניהן": 9537,
      "עונת": 9538,
      "נשמה": 9539,
      "הנוג": 9540,
      "המתים": 9541,
      "רעש": 9542,
      "בשיעור": 9543,
      "יבש": 9544,
      "לתקוף": 9545,
      "נרצ": 9546,
      "העליונה": 9547,
      "דעתו": 9548,
      "אצלי": 9549,
      "נשארים": 9550,
      "הפגישה": 9551,
      "הפנימית": 9552,
      "לארצות": 9553,
      "not": 9554,
      "אסטרו": 9555,
      "וכת": 9556,
      "חווה": 9557,
      "טים": 9558,
      "ימשיכו": 9559,
      "נסת": 9560,
      "נקראת": 9561,
      "##bc": 9562,
      "##קפות": 9563,
      "לאחת": 9564,
      "במדבר": 9565,
      "אחראית": 9566,
      "החלב": 9567,
      "השור": 9568,
      "השנתי": 9569,
      "הרוגים": 9570,
      "מאסטר": 9571,
      "מארק": 9572,
      "משתי": 9573,
      "שהדבר": 9574,
      "##ושך": 9575,
      "הקצ": 9576,
      "הקרח": 9577,
      "הקונ": 9578,
      "מעגל": 9579,
      "הגיבור": 9580,
      "מחס": 9581,
      "בהול": 9582,
      "מקלט": 9583,
      "לבדו": 9584,
      "כמוני": 9585,
      "לתוצאות": 9586,
      "להתעורר": 9587,
      "יחזור": 9588,
      "בושה": 9589,
      "מרד": 9590,
      "יצליח": 9591,
      "##ork": 9592,
      "ומתי": 9593,
      "נמצאות": 9594,
      "הסיוע": 9595,
      "תרומה": 9596,
      "שרבים": 9597,
      "מאזן": 9598,
      "איתן": 9599,
      "נכס": 9600,
      "המשפטי": 9601,
      "התוכניות": 9602,
      "ריכוז": 9603,
      "היסטורית": 9604,
      "הרצח": 9605,
      "הוכיח": 9606,
      "sci": 9607,
      "מאמצים": 9608,
      "מוקדמת": 9609,
      "68": 9610,
      "בניהול": 9611,
      "דיר": 9612,
      "וילדים": 9613,
      "כביש": 9614,
      "עמי": 9615,
      "פומ": 9616,
      "צמי": 9617,
      "המדה": 9618,
      "##ובש": 9619,
      "עלולות": 9620,
      "האול": 9621,
      "##וסיות": 9622,
      "##וסופט": 9623,
      "##יינות": 9624,
      "לעוד": 9625,
      "מתכנן": 9626,
      "הקיצוני": 9627,
      "מחובר": 9628,
      "בתה": 9629,
      "בחודשים": 9630,
      "##עתה": 9631,
      "עצה": 9632,
      "##וזיציה": 9633,
      "ארוחות": 9634,
      "נשלח": 9635,
      "##צהרה": 9636,
      "שקלים": 9637,
      "קבצים": 9638,
      "##old": 9639,
      "עשירים": 9640,
      "ניצול": 9641,
      "התגלה": 9642,
      "חמשת": 9643,
      "רצינית": 9644,
      "כותבים": 9645,
      "ובכלל": 9646,
      "המובילים": 9647,
      "המנהלים": 9648,
      "לתוכנית": 9649,
      "bu": 9650,
      "cook": 9651,
      "op": 9652,
      "אוד": 9653,
      "אקו": 9654,
      "טוני": 9655,
      "נציג": 9656,
      "סקי": 9657,
      "פנה": 9658,
      "##ךְ": 9659,
      "שלילי": 9660,
      "##ולו": 9661,
      "##נוב": 9662,
      "##נוני": 9663,
      "לארגון": 9664,
      "לאינטרנט": 9665,
      "מסל": 9666,
      "הסוציא": 9667,
      "##יפיות": 9668,
      "הנכס": 9669,
      "ואח": 9670,
      "יחידה": 9671,
      "לכבד": 9672,
      "הלכו": 9673,
      "##חינה": 9674,
      "מוכרח": 9675,
      "מוסר": 9676,
      "לנשיא": 9677,
      "חופשה": 9678,
      "עמנו": 9679,
      "##act": 9680,
      "הדרומי": 9681,
      "עיבוד": 9682,
      "דיווחים": 9683,
      "''.": 9684,
      "כוכבי": 9685,
      "הלוואה": 9686,
      "פותח": 9687,
      "acc": 9688,
      "time": 9689,
      "mus": 9690,
      "vi": 9691,
      "בודה": 9692,
      "דורות": 9693,
      "יראה": 9694,
      "יושבים": 9695,
      "לוחות": 9696,
      "מרכיבים": 9697,
      "שדות": 9698,
      "תמצא": 9699,
      "##זבת": 9700,
      "##ֶם": 9701,
      "##pn": 9702,
      "שלע": 9703,
      "המידה": 9704,
      "היקר": 9705,
      "##ואת": 9706,
      "במשהו": 9707,
      "התפש": 9708,
      "הרחק": 9709,
      "מסגרת": 9710,
      "הסבל": 9711,
      "ההרג": 9712,
      "ההוצאות": 9713,
      "##יאונים": 9714,
      "להתפתח": 9715,
      "בגוד": 9716,
      "שנכ": 9717,
      "נוסע": 9718,
      "בדף": 9719,
      "בדקו": 9720,
      "הנוגע": 9721,
      "שתע": 9722,
      "האידי": 9723,
      "הרגשה": 9724,
      "מועיל": 9725,
      "120": 9726,
      "מופיעים": 9727,
      "ste": 9728,
      "אשתי": 9729,
      "אשמה": 9730,
      "##בטא": 9731,
      "המטבח": 9732,
      "המבצע": 9733,
      "קלינטון": 9734,
      "1989": 9735,
      "הטבעית": 9736,
      "הקורס": 9737,
      "נמוכים": 9738,
      "ענקית": 9739,
      "כריס": 9740,
      "book": 9741,
      "כוונת": 9742,
      "סמי": 9743,
      "קיד": 9744,
      "המכתב": 9745,
      "להורים": 9746,
      "האוקיינוס": 9747,
      "##ומכים": 9748,
      "במידת": 9749,
      "החזק": 9750,
      "התבו": 9751,
      "העמ": 9752,
      "העלות": 9753,
      "הרביעית": 9754,
      "בעמוד": 9755,
      "לעשן": 9756,
      "שאוה": 9757,
      "הגידול": 9758,
      "מצלמות": 9759,
      "מכירת": 9760,
      "לגייס": 9761,
      "##ציית": 9762,
      "חיז": 9763,
      "##יטרה": 9764,
      "חזקות": 9765,
      "רצונו": 9766,
      "##ool": 9767,
      "נדבר": 9768,
      "##ase": 9769,
      "הדרום": 9770,
      "לברר": 9771,
      "אינטלקטוא": 9772,
      "univ": 9773,
      "החופשי": 9774,
      "ההיסטורי": 9775,
      "אורגני": 9776,
      "פסיכיא": 9777,
      "id": 9778,
      "mba": 9779,
      "red": 9780,
      "ve": 9781,
      "בוגר": 9782,
      "טועה": 9783,
      "ערבית": 9784,
      "פברואר": 9785,
      "##מיע": 9786,
      "##שנו": 9787,
      "##יתו": 9788,
      "להיח": 9789,
      "הייח": 9790,
      "##ופיל": 9791,
      "הצורה": 9792,
      "##בורת": 9793,
      "בחופ": 9794,
      "כאבי": 9795,
      "##נסית": 9796,
      "אפס": 9797,
      "מכדי": 9798,
      "ברלין": 9799,
      "ולראות": 9800,
      "בצבע": 9801,
      "הפרעות": 9802,
      "קצין": 9803,
      "187": 9804,
      "בקרבת": 9805,
      "המשפחות": 9806,
      "זקן": 9807,
      "למחוק": 9808,
      "מכונת": 9809,
      "##נאט": 9810,
      "תרגול": 9811,
      "לעזאזל": 9812,
      "האגודה": 9813,
      "דיווחו": 9814,
      "ברוכים": 9815,
      "אֶת": 9816,
      "איכשהו": 9817,
      "הפתיחה": 9818,
      "du": 9819,
      "אסי": 9820,
      "דווח": 9821,
      "עיצ": 9822,
      "שופט": 9823,
      "##טע": 9824,
      "לאותו": 9825,
      "החשיבה": 9826,
      "כלכלה": 9827,
      "##וצא": 9828,
      "למדיניות": 9829,
      "הקבלה": 9830,
      "מחלי": 9831,
      "מדור": 9832,
      "כשמדו": 9833,
      "שעליו": 9834,
      "##נקציות": 9835,
      "עוברת": 9836,
      "במהרה": 9837,
      "הפרה": 9838,
      "רגש": 9839,
      "רגליים": 9840,
      "נפוצה": 9841,
      "##גרם": 9842,
      "משפיעה": 9843,
      "תרומת": 9844,
      "##יבטים": 9845,
      "##ical": 9846,
      "לטעון": 9847,
      "ביקורות": 9848,
      "טבעת": 9849,
      "אופנה": 9850,
      "כוחו": 9851,
      "עשורים": 9852,
      "עזבו": 9853,
      "ובעלי": 9854,
      "ביצועים": 9855,
      "cont": 9856,
      "מיקרוסופט": 9857,
      "ומדוע": 9858,
      "כשיש": 9859,
      "international": 9860,
      "כשמדובר": 9861,
      "bi": 9862,
      "חולי": 9863,
      "מיר": 9864,
      "נכונים": 9865,
      "ענן": 9866,
[...]
