[UNK]	0
[CLS]	1
[SEP]	2
[PAD]	3
[MASK]	4
!	5
"	6
#	7
$	8
%	9
&	10
'	11
(	12
)	13
*	14
+	15
,	16
-	17
.	18
/	19
0	20
1	21
2	22
3	23
4	24
5	25
6	26
7	27
8	28
9	29
:	30
;	31
<	32
=	33
>	34
?	35
@	36
[	37
\	38
]	39
^	40
_	41
`	42
a	43
b	44
c	45
d	46
e	47
f	48
g	49
h	50
i	51
j	52
k	53
l	54
m	55
n	56
o	57
p	58
q	59
r	60
s	61
t	62
u	63
v	64
w	65
x	66
y	67
z	68
{	69
|	70
}	71
~	72
	73
	74
	75
	76
	77
	78
	79
	80
	81
	82
	83
¡	84
¢	85
£	86
¦	87
§	88
©	89
«	90
¬	91
­	92
®	93
°	94
±	95
¶	96
·	97
»	98
¿	99
×	100
ß	101
à	102
á	103
â	104
ã	105
ä	106
å	107
æ	108
ç	109
è	110
é	111
ê	112
ë	113
í	114
î	115
ï	116
ð	117
ñ	118
ò	119
ó	120
ô	121
õ	122
ö	123
÷	124
ø	125
ù	126
ú	127
û	128
ü	129
ý	130
ÿ	131
ā	132
ă	133
ć	134
č	135
đ	136
ę	137
ğ	138
ġ	139
ħ	140
ī	141
ł	142
ň	143
ŋ	144
ō	145
ő	146
œ	147
ś	148
ş	149
š	150
ţ	151
ū	152
ż	153
ž	154
ư	155
ș	156
ț	157
ɒ	158
ɓ	159
ə	160
ɛ	161
ɸ	162
ɾ	163
ʉ	164
ʊ	165
ʌ	166
ʻ	167
ʼ	168
ˈ	169
ˌ	170
ː	171
́	172
̄	173
̇	174
̈	175
ά	176
έ	177
ή	178
ί	179
α	180
β	181
γ	182
δ	183
ε	184
η	185
θ	186
ι	187
κ	188
λ	189
μ	190
ν	191
ο	192
π	193
ρ	194
ς	195
σ	196
τ	197
υ	198
φ	199
χ	200
ψ	201
ω	202
ό	203
а	204
б	205
в	206
г	207
д	208
е	209
ж	210
и	211
й	212
к	213
л	214
н	215
о	216
п	217
р	218
с	219
т	220
у	221
ф	222
х	223
ц	224
ч	225
ш	226
ы	227
я	228
і	229
ҫ	230
ӑ	231
ӗ	232
ӝ	233
ӳ	234
ե	235
խ	236
յ	237
ս	238
֖	239
֥	240
ְ	241
ֱ	242
ֲ	243
ֳ	244
ִ	245
ֵ	246
ֶ	247
ַ	248
ָ	249
ֹ	250
ֺ	251
ֻ	252
ּ	253
ֽ	254
־	255
ֿ	256
ׁ	257
ׂ	258
׃	259
ׅ	260
א	261
ב	262
ג	263
ד	264
ה	265
ו	266
ז	267
ח	268
ט	269
י	270
ך	271
כ	272
ל	273
ם	274
מ	275
ן	276
נ	277
ס	278
ע	279
ף	280
פ	281
ץ	282
צ	283
ק	284
ר	285
ש	286
ת	287
װ	288
ױ	289
׳	290
״	291
آ	292
أ	293
إ	294
ئ	295
ا	296
ب	297
ة	298
ت	299
ث	300
ج	301
ح	302
خ	303
د	304
ذ	305
ر	306
س	307
ش	308
ص	309
ط	310
ع	311
ف	312
ق	313
ك	314
ل	315
م	316
ن	317
ه	318
و	319
ى	320
ي	321
َ	322
ُ	323
ِ	324
ْ	325
٠	326
١	327
٢	328
٨	329
٩	330
ٰ	331
ٹ	332
چ	333
ھ	334
ی	335
ߟ	336
ߡ	337
ं	338
औ	339
ग	340
त	341
द	342
न	343
ब	344
ल	345
ा	346
ि	347
ी	348
े	349
्	350
ં	351
ગ	352
બ	353
લ	354
ો	355
༓	356
ខ	357
ភ	358
ម	359
រ	360
ស	361
ា	362
ែ	363
្	364
ṅ	365
ạ	366
ả	367
ἀ	368
ὥ	369
ῦ	370
​	371
‌	372
‍	373
‎	374
‏	375
‐	376
‒	377
–	378
—	379
―	380
‘	381
’	382
‚	383
“	384
”	385
„	386
†	387
‡	388
•	389
‪	390
‫	391
‬	392
‭	393
‮	394
‰	395
′	396
‹	397
›	398
⁄	399
⁠	400
⁡	401
⁨	402
⁩	403
₪	404
€	405
₹	406
←	407
↑	408
→	409
↓	410
↩	411
⇒	412
∀	413
∂	414
∆	415
∈	416
−	417
∗	418
∘	419
∙	420
√	421
∞	422
∽	423
≠	424
≥	425
≪	426
≿	427
⋅	428
⋯	429
─	430
■	431
□	432
▪	433
▲	434
▶	435
▸	436
►	437
▼	438
▾	439
◄	440
●	441
◻	442
◼	443
☀	444
★	445
☆	446
☚	447
☝	448
☺	449
♔	450
♠	451
♣	452
♥	453
♦	454
♪	455
♫	456
⚡	457
✌	458
✔	459
✯	460
✰	461
❁	462
❓	463
❤	464
❷	465
❻	466
❼	467
❽	468
❾	469
➝	470
⟨	471
⟩	472
⟵	473
⦁	474
⬅	475
⭐	476
、	477
の	478
ア	479
ギ	480
コ	481
シ	482
ス	483
ド	484
ュ	485
ル	486
ー	487
㪗	488
三	489
东	490
主	491
九	492
京	493
介	494
以	495
会	496
元	497
列	498
反	499
古	500
名	501
士	502
大	503
学	504
川	505
工	506
幕	507
广	508
府	509
式	510
徳	511
慢	512
拾	513
日	514
旦	515
本	516
来	517
株	518
民	519
浪	520
海	521
点	522
理	523
疽	524
社	525
穂	526
空	527
章	528
第	529
简	530
算	531
絵	532
義	533
聲	534
航	535
色	536
茶	537
蒙	538
術	539
襲	540
詞	541
赤	542
逆	543
道	544
都	545
鈴	546
院	547
髓	548
黑	549
黒	550
랙	551
블	552
엠	553
	554
	555
	556
	557
	558
	559
	560
	561
	562
	563
	564
	565
	566
	567
	568
﴾	569
﴿	570
️	571
﻿	572
￼	573
�	574
🇸	575
🇾	576
🌈	577
🌎	578
🍻	579
🎉	580
🎶	581
🏽	582
🐔	583
👈	584
👉	585
👑	586
💉	587
💔	588
💖	589
💜	590
💫	591
📁	592
📄	593
🔥	594
😀	595
😁	596
😂	597
😃	598
😄	599
😅	600
😆	601
😈	602
😉	603
😊	604
😍	605
😏	606
😐	607
😒	608
😚	609
😛	610
😜	611
😦	612
🙁	613
🙂	614
🙌	615
🚖	616
🚘	617
🤔	618
🤨	619
🦁	620
🧼	621
##.	622
##)	623
##ס	624
##א	625
##מ	626
##ר	627
##ֶ	628
##ט	629
##נ	630
##י	631
##פ	632
##ו	633
##צ	634
##ל	635
##ת	636
##ה	637
##ב	638
##ק	639
##ד	640
##ן	641
##ג	642
##ם	643
##ש	644
##ע	645
##k	646
##i	647
##p	648
##כ	649
##ז	650
##ך	651
##a	652
##d	653
##ח	654
##e	655
##w	656
##s	657
##u	658
##m	659
##ץ	660
##y	661
##t	662
##o	663
##r	664
##n	665
##7	666
##1	667
##c	668
##l	669
##ַ	670
##ּ	671
##ְ	672
##h	673
##z	674
##ֲ	675
##ִ	676
##f	677
##g	678
##x	679
##8	680
##6	681
##q	682
##ֵ	683
##ף	684
##2	685
##4	686
##0	687
##[	688
##5	689
##3	690
##b	691
##v	692
##9	693
##!	694
##]	695
##ָ	696
##á	697
##j	698
##+	699
##'	700
##ֹ	701
##-	702
##£	703
##ׁ	704
##?	705
##ō	706
##"	707
##\	708
##è	709
##“	710
##ׂ	711
##‏	712
##_	713
##‎	714
##״	715
##ֿ	716
##}	717
##:	718
##é	719
##(	720
##,	721
##&	722
##•	723
##<	724
##ó	725
##»	726
##í	727
##*	728
##å	729
##ø	730
##َ	731
##ت	732
##ى	733
##ä	734
##ü	735
##‬	736
##ñ	737
##;	738
##’	739
##ɛ	740
##ˌ	741
##ʊ	742
##ː	743
##ֻ	744
##ë	745
##ֱ	746
###	747
##🐔	748
##̇	749
##ł	750
##ú	751
##逆	752
##の	753
##ル	754
##ー	755
##シ	756
##ュ	757
##ż	758
##@	759
##â	760
##”	761
##€	762
##ā	763
##ö	764
##=	765
##û	766
##%	767
##​	768
##~	769
##ă	770
##	771
##ô	772
##ɾ	773
##♪	774
##>	775
##و	776
##ل	777
##ا	778
##ي	779
##{	780
##н	781
##и	782
##š	783
##/	784
##æ	785
##ư	786
##💫	787
##🎶	788
##🌈	789
##☀	790
##🤨	791
##ド	792
##ギ	793
##ア	794
##ス	795
##ʼ	796
##ç	797
##ő	798
##λ	799
##ο	800
##ς	801
##а	802
##ш	803
##∗	804
##خ	805
##ج	806
##à	807
##′	808
##ε	809
##γ	810
##α	811
##ρ	812
##ά	813
##κ	814
##ι	815
##‘	816
##س	817
##د	818
##ن	819
##ױ	820
##­	821
##θ	822
##־	823
##ं	824
##ग	825
##ल	826
##ा	827
##م	828
##ر	829
##ئ	830
##٩	831
##‫	832
##ف	833
##ق	834
##ׅ	835
##π	836
##τ	837
##ί	838
##®	839
##я	840
##♥	841
##ò	842
##і	843
##в	844
##ч	845
##ِ	846
##ֳ	847
##ň	848
##ý	849
##°	850
##―	851
##ν	852
##ع	853
##ْ	854
##ُ	855
##ֽ	856
##έ	857
##υ	858
##о	859
##с	860
##х	861
##д	862
##名	863
##ب	864
##ث	865
##׳	866
##聲	867
##⁠	868
##—	869
##ạ	870
##^	871
##ê	872
##$	873
##ß	874
##▼	875
##ʉ	876
##`	877
##б	878
##р	879
##ة	880
##β	881
##📁	882
##č	883
##ć	884
##ś	885
##σ	886
##ή	887
##�	888
##η	889
##ٰ	890
##ذ	891
##ی	892
##🏽	893
##δ	894
##–	895
##﻿	896
##←	897
##ț	898
##式	899
##会	900
##社	901
##日	902
##本	903
##航	904
##空	905
##|	906
##‭	907
##й	908
##г	909
##л	910
##ṅ	911
##ش	912
##→	913
##ه	914
##î	915
##🇾	916
##↩	917
##►	918
##֥	919
##ţ	920
##چ	921
##‌	922
##ح	923
##٢	924
##٠	925
##յ	926
##խ	927
##ե	928
##‍	929
##ц	930
##́	931
##	932
##ž	933
##ʻ	934
##т	935
##🦁	936
##ã	937
##茶	938
##😜	939
##ં	940
##ગ	941
##લ	942
##ો	943
##‡	944
##章	945
##算	946
##術	947
##😚	948
##	949
##ð	950
##ж	951
##★	952
##õ	953
##⚡	954
##色	955
##列	956
##֖	957
##	958
##ា	959
##ស	960
##ខ	961
##្	962
##ម	963
##ែ	964
##រ	965
##п	966
##🤔	967
##古	968
##襲	969
##来	970
##絵	971
##詞	972
##ả	973
##ğ	974
##民	975
##主	976
##義	977
##φ	978
##ω	979
##े	980
##त	981
##ħ	982
##ū	983
##ӝ	984
##«	985
##ि	986
##्	987
##ी	988
##‪	989
##	990
##ï	991
##¢	992
##ھ	993
##ٹ	994
##介	995
##œ	996
##ę	997
##ك	998
##ы	999
##е	1000
##к	1001
##👑	1002
##ʌ	1003
##ŋ	1004
##ə	1005
##🚖	1006
##ī	1007
##ɒ	1008
##ط	1009
##„	1010
##元	1011
##װ	1012
##ص	1013
##ş	1014
##府	1015
##ɓ	1016
##😍	1017
##😁	1018
##₹	1019
##ῦ	1020
##都	1021
##东	1022
##ֺ	1023
##›	1024
##◄	1025
##أ	1026
##ߟ	1027
##§	1028
##ф	1029
##у	1030
##ߡ	1031
##😂	1032
##工	1033
##学	1034
##院	1035
##블	1036
##랙	1037
##₪	1038
##㪗	1039
##ș	1040
##￼	1041
##ים	1042
##ות	1043
של	1044
##ור	1045
##ני	1046
##ול	1047
את	1048
##ית	1049
##נו	1050
המ	1051
##וד	1052
לה	1053
לא	1054
##יה	1055
##בר	1056
##יו	1057
##יר	1058
##יל	1059
##וב	1060
##וא	1061
הא	1062
על	1063
##נה	1064
##רי	1065
##די	1066
##יות	1067
##רו	1068
##מו	1069
##ין	1070
##שר	1071
##תי	1072
הי	1073
##ומ	1074
##ון	1075
##לי	1076
מה	1077
##נים	1078
##מה	1079
##ופ	1080
זה	1081
##כל	1082
##יש	1083
##יב	1084
הש	1085
בא	1086
##יד	1087
במ	1088
##נות	1089
אח	1090
הוא	1091
הח	1092
שה	1093
כל	1094
##ום	1095
או	1096
##רא	1097
הע	1098
##יק	1099
##לה	1100
למ	1101
##וק	1102
הת	1103
##וש	1104
מש	1105
##וח	1106
##יים	1107
##וצ	1108
מא	1109
##רים	1110
##יע	1111
##וע	1112
##וס	1113
וה	1114
##בל	1115
בע	1116
אי	1117
##פר	1118
שא	1119
##וג	1120
עם	1121
לע	1122
##כול	1123
##מש	1124
##לא	1125
##יא	1126
##זה	1127
הב	1128
הס	1129
מס	1130
אני	1131
##רב	1132
##לו	1133
בש	1134
##שים	1135
מת	1136
יש	1137
אות	1138
##רה	1139
הפ	1140
וא	1141
הק	1142
##יט	1143
##ותר	1144
##רג	1145
לש	1146
##נת	1147
##יס	1148
##שה	1149
##רכ	1150
##יפ	1151
מע	1152
היא	1153
הג	1154
##מת	1155
הה	1156
לפ	1157
אנ	1158
יותר	1159
##וכ	1160
##שו	1161
גם	1162
כי	1163
".	1164
יכול	1165
##מי	1166
בה	1167
##מים	1168
לב	1169
##נט	1170
היה	1171
מח	1172
אם	1173
##יי	1174
הצ	1175
##ולם	1176
לח	1177
##את	1178
##דים	1179
בת	1180
##נס	1181
הד	1182
##וו	1183
מק	1184
##רת	1185
לי	1186
##כם	1187
אמ	1188
##נית	1189
הם	1190
הכ	1191
##עות	1192
##אל	1193
##מן	1194
אל	1195
##רח	1196
בח	1197
לק	1198
שב	1199
##שות	1200
אבל	1201
##כו	1202
##שת	1203
כא	1204
##שי	1205
##מצ	1206
##לק	1207
וב	1208
20	1209
##חר	1210
##ינו	1211
##בים	1212
בס	1213
הנ	1214
הז	1215
##דר	1216
היו	1217
מב	1218
מצ	1219
##עת	1220
##לים	1221
##מות	1222
##יח	1223
##דם	1224
רק	1225
כדי	1226
##עה	1227
##רט	1228
##כה	1229
להיות	1230
##ירות	1231
##חת	1232
##דה	1233
אתה	1234
##ורה	1235
##יצ	1236
ומ	1237
שמ	1238
ול	1239
##סט	1240
##פת	1241
##חנו	1242
אפ	1243
אחד	1244
עב	1245
הט	1246
##וי	1247
##וף	1248
##אים	1249
##יון	1250
לת	1251
מכ	1252
##חה	1253
##ינ	1254
פע	1255
##..	1256
##ברים	1257
##חק	1258
##ירה	1259
כמו	1260
##אי	1261
כך	1262
##יותר	1263
עצ	1264
##אה	1265
##רות	1266
##וז	1267
##וט	1268
צרי	1269
להת	1270
##ילה	1271
##וך	1272
##קה	1273
19	1274
##ורים	1275
##חות	1276
מי	1277
##ונ	1278
##שב	1279
##כת	1280
##יתה	1281
שלה	1282
##חד	1283
בק	1284
##שראל	1285
לג	1286
זו	1287
מד	1288
##ודה	1289
##לב	1290
##פי	1291
##פק	1292
##עים	1293
לד	1294
##כן	1295
##אות	1296
##דול	1297
##שוב	1298
יה	1299
אז	1300
ביותר	1301
בכל	1302
עד	1303
הרא	1304
##כים	1305
שלך	1306
##בי	1307
##יתי	1308
המש	1309
טוב	1310
הר	1311
ידי	1312
##פה	1313
בר	1314
##ילו	1315
##לת	1316
בב	1317
##רך	1318
##לות	1319
##יג	1320
##וני	1321
זאת	1322
##ישה	1323
אנחנו	1324
##כות	1325
האם	1326
##ונים	1327
בג	1328
לס	1329
...	1330
וע	1331
שנ	1332
לו	1333
##לט	1334
מג	1335
##er	1336
##מיד	1337
הזה	1338
##יני	1339
אותו	1340
רוצ	1341
רא	1342
##ומר	1343
בד	1344
בפ	1345
שלי	1346
ממ	1347
##תה	1348
בין	1349
##וה	1350
אין	1351
שלנו	1352
##בה	1353
##סק	1354
##יום	1355
כמה	1356
##לח	1357
שע	1358
##מוד	1359
בכ	1360
##דות	1361
מדי	1362
לצ	1363
מפ	1364
הרב	1365
##שא	1366
מאוד	1367
##נג	1368
חד	1369
##זור	1370
##בות	1371
##00	1372
##בע	1373
##רק	1374
עבור	1375
##ופן	1376
##ראה	1377
לך	1378
חי	1379
201	1380
בט	1381
##ניות	1382
##in	1383
##בת	1384
##פים	1385
##פט	1386
לפני	1387
אנשים	1388
##ולי	1389
דבר	1390
לנו	1391
##ירים	1392
##רון	1393
##רוב	1394
##ניה	1395
##ברה	1396
בי	1397
אך	1398
לאחר	1399
##נק	1400
##רצ	1401
",	1402
שלו	1403
##ולה	1404
##on	1405
אנו	1406
לכ	1407
##ילים	1408
##פות	1409
לעשות	1410
##כש	1411
צריך	1412
עוד	1413
בצ	1414
ישראל	1415
##ימו	1416
##מד	1417
##יהם	1418
האח	1419
בני	1420
##יכ	1421
שהוא	1422
כבר	1423
איך	1424
##ונה	1425
##לך	1426
במק	1427
כמ	1428
מט	1429
הכל	1430
יוד	1431
אמר	1432
ולא	1433
##יבה	1434
##ושה	1435
אשר	1436
הרבה	1437
כאשר	1438
המק	1439
##טים	1440
נוס	1441
##ופה	1442
להג	1443
).	1444
שלא	1445
##an	1446
מז	1447
##של	1448
##ימ	1449
בו	1450
##חים	1451
חבר	1452
שלהם	1453
##ובר	1454
אתם	1455
אלה	1456
ממש	1457
##וכל	1458
##ורת	1459
שני	1460
אחר	1461
בנו	1462
נית	1463
גדול	1464
באופן	1465
שם	1466
אלו	1467
##מר	1468
יצ	1469
##נד	1470
וכ	1471
##רס	1472
היום	1473
אדם	1474
חלק	1475
##חי	1476
##יקה	1477
יל	1478
במה	1479
##קר	1480
רוצה	1481
##שמ	1482
יד	1483
שנים	1484
##סף	1485
תק	1486
##פשר	1487
##טר	1488
##ילות	1489
##דת	1490
אחת	1491
##יך	1492
##אר	1493
הבר	1494
כן	1495
כול	1496
נע	1497
##נשים	1498
##ar	1499
##וץ	1500
."	1501
##צב	1502
##ורי	1503
##ורך	1504
##ווה	1505
##תח	1506
##כון	1507
למע	1508
##es	1509
##קים	1510
##en	1511
אב	1512
##טי	1513
##or	1514
##קות	1515
בל	1516
##פור	1517
זמן	1518
העולם	1519
##יעה	1520
##ולוג	1521
##ולים	1522
##צע	1523
##הו	1524
לכל	1525
##at	1526
המח	1527
##וות	1528
הל	1529
##גר	1530
##שון	1531
אחרי	1532
לרא	1533
שיש	1534
##פס	1535
יכולים	1536
אפשר	1537
יום	1538
##תם	1539
עדי	1540
להם	1541
##al	1542
מיל	1543
שת	1544
אינ	1545
##צה	1546
בית	1547
המס	1548
המע	1549
תה	1550
הייתה	1551
שק	1552
##או	1553
##ידע	1554
תח	1555
##ידה	1556
200	1557
וח	1558
כש	1559
אותם	1560
##וחות	1561
איש	1562
##ורות	1563
##ריק	1564
יהיה	1565
במש	1566
##מית	1567
רג	1568
למה	1569
חוש	1570
קט	1571
להב	1572
פעם	1573
בז	1574
##יז	1575
##תר	1576
##כשיו	1577
ולה	1578
מספר	1579
##דו	1580
שכ	1581
נג	1582
##סים	1583
##ינים	1584
נת	1585
##נצ	1586
##ואה	1587
שאני	1588
הנו	1589
##רץ	1590
אחרים	1591
תמיד	1592
אף	1593
כאן	1594
ניתן	1595
שלכם	1596
##בוצ	1597
##יבות	1598
##רכת	1599
כת	1600
##שוט	1601
הראשו	1602
גב	1603
##לית	1604
בשנת	1605
וג	1606
רצ	1607
##פל	1608
הרו	1609
##תיים	1610
לט	1611
חשוב	1612
שהם	1613
##ומי	1614
th	1615
##רכז	1616
מוצ	1617
רבים	1618
##צר	1619
יח	1620
יע	1621
##כנ	1622
שנה	1623
##בוד	1624
אותה	1625
##ובה	1626
##פו	1627
##ומים	1628
נק	1629
חז	1630
המת	1631
##ניים	1632
##יוחד	1633
##דרך	1634
אלא	1635
לל	1636
ות	1637
##חו	1638
##דינה	1639
בעולם	1640
##בוע	1641
##וריה	1642
משהו	1643
האמ	1644
##ומה	1645
##פש	1646
התק	1647
משת	1648
איר	1649
נמצ	1650
הפר	1651
באמצ	1652
נה	1653
ללא	1654
##סת	1655
##צת	1656
##ימוש	1657
##ic	1658
##הים	1659
##דש	1660
עדיין	1661
הגדול	1662
עוב	1663
##ניין	1664
##ונות	1665
וש	1666
##סי	1667
##קט	1668
פי	1669
##מין	1670
##לם	1671
נש	1672
##ירת	1673
פשוט	1674
##רונות	1675
עכשיו	1676
לכם	1677
##עי	1678
ברי	1679
דרך	1680
##יאות	1681
##ודות	1682
##עם	1683
##מא	1684
שח	1685
##צל	1686
##it	1687
לראות	1688
באמת	1689
אומר	1690
##חיל	1691
##לל	1692
##יבור	1693
##בודה	1694
##ביר	1695
##בד	1696
##שית	1697
##יפור	1698
##ינה	1699
##אן	1700
##רום	1701
הספר	1702
##מעות	1703
להשת	1704
הראשון	1705
##ומות	1706
במהלך	1707
אולי	1708
הן	1709
##רד	1710
##יסט	1711
אפילו	1712
),	1713
חיים	1714
האדם	1715
##ודים	1716
התי	1717
##טה	1718
##רגיש	1719
10	1720
נח	1721
the	1722
##גים	1723
הזמן	1724
אותי	1725
שאתה	1726
##ביל	1727
כשה	1728
עשו	1729
##רמ	1730
##מונה	1731
להפ	1732
היל	1733
##ינט	1734
##עו	1735
אוה	1736
##קד	1737
עצמ	1738
ואת	1739
הול	1740
שזה	1741
משפ	1742
##ושים	1743
בדרך	1744
בבית	1745
אה	1746
החיים	1747
##בור	1748
##צד	1749
פת	1750
השני	1751
תע	1752
חייב	1753
##ליך	1754
##ציה	1755
נפ	1756
##בא	1757
##ולות	1758
##צי	1759
באמצעות	1760
חוק	1761
##st	1762
##בק	1763
##עט	1764
המא	1765
##ודי	1766
##יפול	1767
מוכ	1768
##צוע	1769
אד	1770
##עד	1771
##le	1772
יודע	1773
##צמ	1774
##צים	1775
מקום	1776
##גל	1777
לקבל	1778
##גה	1779
הרג	1780
##ייה	1781
##חון	1782
רוב	1783
##לסט	1784
אומ	1785
היתה	1786
קור	1787
##רבות	1788
תוכ	1789
שי	1790
אס	1791
הופ	1792
##זו	1793
כלל	1794
גבוה	1795
אינו	1796
?"	1797
הייתי	1798
דברים	1799
18	1800
##ou	1801
רח	1802
##רנט	1803
##ותו	1804
רע	1805
##מוק	1806
שבו	1807
מאז	1808
מלא	1809
##תו	1810
מוד	1811
##וליט	1812
##סה	1813
נראה	1814
שוב	1815
רוצים	1816
להצ	1817
המט	1818
##בו	1819
##יקר	1820
שהיא	1821
קשה	1822
למצ	1823
ית	1824
##ואר	1825
##יטה	1826
##צור	1827
##ריות	1828
מן	1829
כד	1830
קרוב	1831
ספר	1832
לז	1833
##ודש	1834
##om	1835
##פע	1836
##רכים	1837
צריכים	1838
סי	1839
התע	1840
כיצד	1841
##ריך	1842
##נחנו	1843
היח	1844
סט	1845
##ביב	1846
מוס	1847
##פיק	1848
הראשונה	1849
במקום	1850
ונ	1851
##גע	1852
##פון	1853
בלי	1854
##יעים	1855
##רצות	1856
מל	1857
##יוק	1858
##מור	1859
סוג	1860
##ישהו	1861
אלי	1862
אלוהים	1863
בן	1864
ארו	1865
##ובן	1866
יכולה	1867
התח	1868
##re	1869
במשך	1870
לדבר	1871
האלה	1872
די	1873
נא	1874
רב	1875
חדש	1876
להע	1877
##ליים	1878
בלב	1879
##בח	1880
כמעט	1881
כפי	1882
ניס	1883
השת	1884
ילדים	1885
גור	1886
הכי	1887
פחות	1888
ספ	1889
שבה	1890
##כנס	1891
בתח	1892
##ינלא	1893
##בט	1894
לפע	1895
החברה	1896
הרי	1897
נס	1898
הדבר	1899
נגד	1900
##יפה	1901
מוש	1902
יוצ	1903
משמעות	1904
##זרח	1905
##יוון	1906
מסוג	1907
חשב	1908
שג	1909
אור	1910
ההת	1911
מנה	1912
##is	1913
מכל	1914
שתי	1915
לר	1916
##ברס	1917
##el	1918
אית	1919
##קו	1920
##כי	1921
##ופי	1922
העיר	1923
צע	1924
עשר	1925
##דל	1926
##וקים	1927
מידע	1928
##עתי	1929
##פקיד	1930
##נוע	1931
מהם	1932
הברית	1933
##זר	1934
##ינוי	1935
##מנות	1936
תש	1937
##ion	1938
עסק	1939
הלא	1940
חש	1941
תג	1942
##כנולוג	1943
נכון	1944
קוד	1945
במס	1946
בהת	1947
דול	1948
פני	1949
##חור	1950
עצמו	1951
##לחמה	1952
15	1953
##יעו	1954
##ריים	1955
##יית	1956
לכן	1957
##ליט	1958
בתוך	1959
##קת	1960
המדינה	1961
##ברת	1962
עבודה	1963
להש	1964
עושה	1965
שום	1966
הזו	1967
##וקר	1968
##מון	1969
מיליון	1970
##יניים	1971
פרו	1972
בשביל	1973
אותך	1974
למרות	1975
##ועים	1976
הדי	1977
רכ	1978
##נון	1979
##ומת	1980
כולם	1981
##וסט	1982
##ro	1983
רבות	1984
תא	1985
##קס	1986
בדיוק	1987
מוע	1988
וס	1989
##ing	1990
##נם	1991
##et	1992
##כר	1993
הטוב	1994
בלתי	1995
##ומית	1996
לדעת	1997
כולל	1998
ביום	1999
##וצאות	2000
בזמן	2001
למצוא	2002
האיר	2003
000	2004
הני	2005
מתוך	2006
הממש	2007
##חלט	2008
##מנו	2009
יחד	2010
במו	2011
בגלל	2012
##ריקה	2013
שונים	2014
וזה	2015
מהמ	2016
##יוני	2017
199	2018
##ווח	2019
וגם	2020
ביט	2021
##רגע	2022
in	2023
משחק	2024
חל	2025
12	2026
ואני	2027
ביק	2028
וק	2029
אחרת	2030
במיוחד	2031
חס	2032
לפי	2033
המצ	2034
החל	2035
##נן	2036
##גו	2037
##אם	2038
##ed	2039
##רגון	2040
הזאת	2041
להשתמש	2042
כה	2043
##וחר	2044
##וצאה	2045
##ליה	2046
##גת	2047
לכך	2048
יק	2049
לגבי	2050
קל	2051
והוא	2052
תהיה	2053
השנה	2054
##ac	2055
בעלי	2056
##יף	2057
במח	2058
מור	2059
ברח	2060
מר	2061
##ורק	2062
לנ	2063
פרט	2064
##קש	2065
מתח	2066
##לוט	2067
הלי	2068
שש	2069
##אלי	2070
##כויות	2071
הור	2072
יודעים	2073
בטוח	2074
העבודה	2075
מתי	2076
##תיד	2077
בצורה	2078
הפע	2079
##ינטרנט	2080
קצת	2081
קבוצ	2082
מנת	2083
חושב	2084
##רונה	2085
##קל	2086
##ואים	2087
##גות	2088
הנה	2089
##גש	2090
לפחות	2091
##il	2092
##ol	2093
משתמש	2094
למש	2095
הגב	2096
כזה	2097
מוז	2098
עליו	2099
הוד	2100
להח	2101
מתק	2102
##פא	2103
במע	2104
מספיק	2105
of	2106
##וקה	2107
בהם	2108
שירות	2109
להכ	2110
##מל	2111
##צות	2112
##פתח	2113
ומה	2114
סרט	2115
מדוע	2116
##סם	2117
##חקר	2118
הבע	2119
כיום	2120
חברת	2121
##טרה	2122
הדברים	2123
האמריק	2124
שהת	2125
##טח	2126
בשל	2127
##דינות	2128
מאשר	2129
##זק	2130
##למיד	2131
##דע	2132
הדרך	2133
##ותה	2134
##שימה	2135
##משיך	2136
קיב	2137
מערכת	2138
##יחס	2139
אינט	2140
פר	2141
##am	2142
טובה	2143
ראש	2144
##אלה	2145
##כונה	2146
##ויות	2147
שאנחנו	2148
דולר	2149
##יבים	2150
תוכל	2151
##as	2152
##תים	2153
המשפט	2154
נשים	2155
גר	2156
החד	2157
שבוע	2158
ברא	2159
##ולד	2160
תוך	2161
##יקט	2162
##כור	2163
עומ	2164
חופ	2165
אותנו	2166
להגיע	2167
##זרה	2168
שעות	2169
בלבד	2170
##פחה	2171
##מוך	2172
##ליח	2173
להבין	2174
מופ	2175
##ער	2176
הבית	2177
בישראל	2178
מישהו	2179
האיש	2180
ימים	2181
##ודשים	2182
##יאה	2183
אוכל	2184
ואז	2185
קיי	2186
##מק	2187
החוק	2188
ופ	2189
30	2190
להס	2191
לזה	2192
11	2193
שאתם	2194
##אב	2195
##ch	2196
כסף	2197
אינם	2198
ארב	2199
קשר	2200
מוג	2201
פרס	2202
שיע	2203
##oo	2204
##משך	2205
##שרד	2206
והת	2207
##ובות	2208
##רפת	2209
נמצא	2210
##מינים	2211
מסוי	2212
מכן	2213
##נסה	2214
וד	2215
שלוש	2216
הביט	2217
זהו	2218
##רכות	2219
אחרות	2220
##מפ	2221
ומת	2222
an	2223
##טיח	2224
כמובן	2225
שימוש	2226
החלט	2227
בעוד	2228
למו	2229
בנ	2230
##ושר	2231
הארץ	2232
בתי	2233
עושים	2234
מיו	2235
הנש	2236
בנוסף	2237
##רגיה	2238
##ינג	2239
למעשה	2240
נד	2241
##ברות	2242
אינה	2243
מקבל	2244
לעולם	2245
##שם	2246
קול	2247
##יין	2248
סוף	2249
##קב	2250
הבא	2251
הללו	2252
##מבר	2253
לתת	2254
פרי	2255
אופ	2256
ומש	2257
לקחת	2258
מצב	2259
##ימה	2260
שר	2261
##גור	2262
##יטת	2263
טבע	2264
מעל	2265
ללמוד	2266
##שובה	2267
כנ	2268
קרי	2269
העוב	2270
##וצר	2271
הסרט	2272
הכול	2273
לעבוד	2274
מזה	2275
##רוש	2276
##מיים	2277
ועל	2278
הממשלה	2279
האנשים	2280
17	2281
##ואי	2282
חמ	2283
הלב	2284
##מונות	2285
שהיה	2286
##ינם	2287
##ודת	2288
והמ	2289
פור	2290
##וניברס	2291
##יץ	2292
המב	2293
##רבית	2294
##ירוש	2295
גיל	2296
קר	2297
##נע	2298
הו	2299
מול	2300
מדובר	2301
כג	2302
בעיקר	2303
תחת	2304
##יונות	2305
##ופו	2306
##ינוך	2307
אפש	2308
מרגיש	2309
16	2310
נות	2311
##יעות	2312
קש	2313
תכ	2314
פה	2315
נוסף	2316
נוש	2317
##iv	2318
וי	2319
למח	2320
לעזור	2321
##יבי	2322
##שתי	2323
##יתוח	2324
האנו	2325
בדי	2326
ילד	2327
פעמים	2328
אולם	2329
ברו	2330
למשל	2331
קודם	2332
כח	2333
שצ	2334
##ופים	2335
בעצ	2336
המה	2337
כוח	2338
##נתי	2339
##כס	2340
13	2341
מוק	2342
מסת	2343
##רבה	2344
לומר	2345
המשחק	2346
אג	2347
##ילת	2348
##סטר	2349
##ונג	2350
st	2351
##ad	2352
הילדים	2353
##דרה	2354
חיו	2355
##זיה	2356
##ידים	2357
ביצ	2358
השנים	2359
גדולה	2360
לבד	2361
##ay	2362
רוח	2363
חיי	2364
##ודית	2365
מומ	2366
דקות	2367
ברור	2368
##ברו	2369
האחרון	2370
האד	2371
##ומיים	2372
יהיו	2373
רואה	2374
##יסטוריה	2375
ליצור	2376
##ent	2377
##ילדים	2378
##וסר	2379
והא	2380
##נטים	2381
ארה	2382
פעולה	2383
שנות	2384
##פרים	2385
נשא	2386
דו	2387
##ילי	2388
אזרח	2389
##רכה	2390
##כתב	2391
##לתי	2392
מעט	2393
מחדש	2394
מקצוע	2395
שמו	2396
בכלל	2397
אצל	2398
שכל	2399
שנת	2400
השפ	2401
הקט	2402
זק	2403
השל	2404
הרכ	2405
ככל	2406
לפת	2407
##מס	2408
צריכה	2409
##צרים	2410
בעל	2411
איזה	2412
##מנים	2413
קרובות	2414
מרכז	2415
##כונות	2416
##על	2417
14	2418
הפלסט	2419
ספק	2420
##ig	2421
חדשים	2422
תת	2423
##ow	2424
##כלה	2425
נוספים	2426
רפ	2427
'.	2428
##וביל	2429
התא	2430
##וחים	2431
הגוף	2432
##זון	2433
##ot	2434
בכך	2435
##ירי	2436
בפני	2437
בתחום	2438
##ינית	2439
שלושה	2440
##שונה	2441
נב	2442
לבית	2443
כעת	2444
חודשים	2445
שאין	2446
##שיג	2447
אוהב	2448
##חרות	2449
זוכ	2450
שיח	2451
##זיק	2452
כגון	2453
##רוא	2454
מחקר	2455
ויש	2456
##בית	2457
##נהל	2458
##פורט	2459
מים	2460
##קום	2461
גל	2462
מדינות	2463
##id	2464
לאח	2465
צורך	2466
יג	2467
שפ	2468
שונות	2469
##קרים	2470
כאלה	2471
פוליט	2472
בבר	2473
יב	2474
##רבים	2475
השלי	2476
תרו	2477
##דק	2478
##שהו	2479
מרו	2480
עש	2481
100	2482
טיפ	2483
בתק	2484
סביב	2485
האמת	2486
##יסה	2487
מיי	2488
##וגמה	2489
##ורג	2490
וכל	2491
האי	2492
##מיכה	2493
##דמנות	2494
המוד	2495
באתר	2496
עובד	2497
באותו	2498
טר	2499
החדש	2500
הבינלא	2501
##פרי	2502
משום	2503
ברחבי	2504
כשא	2505
##ובת	2506
בסיס	2507
בעבר	2508
##ינויים	2509
25	2510
##וויר	2511
מיוחד	2512
המוע	2513
##וסים	2514
כב	2515
מלח	2516
ללכת	2517
שמת	2518
##מוקרט	2519
קטן	2520
קורה	2521
##טל	2522
##וקט	2523
ומו	2524
המל	2525
הבח	2526
הגיע	2527
198	2528
מוח	2529
לאורך	2530
##וציא	2531
לפעמים	2532
לעתים	2533
שומ	2534
##דור	2535
מיד	2536
חדשה	2537
נור	2538
##סון	2539
העסק	2540
בשנה	2541
שונה	2542
##us	2543
##ביבה	2544
##מע	2545
אחוז	2546
##ויים	2547
שט	2548
המג	2549
התוכ	2550
##לווי	2551
מפני	2552
בפר	2553
עצמי	2554
שמש	2555
##ווים	2556
עיר	2557
והח	2558
ומע	2559
##ופת	2560
##בוצה	2561
##למידים	2562
ידע	2563
##ואו	2564
הרע	2565
##אית	2566
פס	2567
לנס	2568
”.	2569
##גרת	2570
העל	2571
לשמור	2572
ולכן	2573
##זם	2574
לתק	2575
קרא	2576
##בול	2577
##ניס	2578
##ורר	2579
תנו	2580
##שתמש	2581
תלו	2582
ניצ	2583
##מרי	2584
וט	2585
נצ	2586
כדור	2587
##ועל	2588
לכת	2589
יורק	2590
##קי	2591
##בלת	2592
שיו	2593
ארצות	2594
לקרוא	2595
להשיג	2596
הפס	2597
להפוך	2598
##סוף	2599
באיר	2600
תפ	2601
יית	2602
##שרה	2603
מחשב	2604
שאלה	2605
##ישים	2606
אש	2607
מהא	2608
בקרב	2609
מבחי	2610
עלי	2611
194	2612
ממנו	2613
הרח	2614
##ut	2615
יס	2616
לשנות	2617
לוק	2618
##קבות	2619
לבר	2620
להא	2621
##ולט	2622
שמע	2623
##וון	2624
מעבר	2625
אמריק	2626
כנראה	2627
50	2628
197	2629
##לוטין	2630
נכנס	2631
##רטיס	2632
##ישאר	2633
##יכון	2634
תודה	2635
לחלוטין	2636
מקור	2637
##ation	2638
כלומר	2639
משפט	2640
רש	2641
חברות	2642
הקה	2643
הרצ	2644
##ec	2645
##ירו	2646
כתב	2647
##נח	2648
המצב	2649
##כנולוגיה	2650
שנו	2651
המד	2652
לעצ	2653
לבין	2654
לבצע	2655
באזור	2656
##זל	2657
אמרה	2658
לחשוב	2659
טובים	2660
שיה	2661
##רכו	2662
בגיל	2663
עובדים	2664
##יצוב	2665
##ag	2666
לחיות	2667
דור	2668
##ur	2669
פעילות	2670
##טון	2671
המרכז	2672
מאפשר	2673
פלסט	2674
בחיים	2675
להתק	2676
פג	2677
##ישות	2678
בעיר	2679
שאנו	2680
##רפ	2681
בסוף	2682
במקרה	2683
##הי	2684
זכויות	2685
##כב	2686
##ישי	2687
איפה	2688
##רע	2689
##כולת	2690
מאד	2691
בשם	2692
##וסיף	2693
כאילו	2694
##חית	2695
##פתחות	2696
הולך	2697
פל	2698
האל	2699
##יכו	2700
הציבור	2701
שינוי	2702
תיא	2703
מגיע	2704
קלי	2705
##מצא	2706
דא	2707
##זרת	2708
##כולם	2709
אליו	2710
היר	2711
##ציות	2712
פא	2713
##מודד	2714
##סיס	2715
##טב	2716
יא	2717
יוכל	2718
קו	2719
אתכם	2720
##טו	2721
השנייה	2722
מעולם	2723
המשפחה	2724
##שרת	2725
##רויות	2726
196	2727
הנוכ	2728
חוז	2729
מני	2730
רואים	2731
##מט	2732
עשוי	2733
##תף	2734
כס	2735
מאח	2736
משנה	2737
והיא	2738
בעיות	2739
ההש	2740
תוכנית	2741
עלינו	2742
ליד	2743
מנו	2744
תב	2745
ובע	2746
תצ	2747
ממו	2748
##ובל	2749
##מודים	2750
האחרונות	2751
שית	2752
אכ	2753
לרו	2754
רבה	2755
וז	2756
פול	2757
טיפול	2758
דיו	2759
##ir	2760
##ראות	2761
גבוהה	2762
##סית	2763
ואם	2764
המכ	2765
##דרת	2766
למס	2767
הילד	2768
בידי	2769
##מח	2770
היש	2771
השאלה	2772
##וצה	2773
הקוד	2774
תפקיד	2775
##גן	2776
##לוויזיה	2777
##לול	2778
יהודים	2779
##הליך	2780
##שורת	2781
##יקים	2782
##נאי	2783
##ייס	2784
ידוע	2785
',	2786
##os	2787
חדשות	2788
##יניה	2789
אוב	2790
המידע	2791
הסכ	2792
##יצור	2793
נמ	2794
##יתים	2795
אומרים	2796
##ניק	2797
##ופר	2798
and	2799
##לפון	2800
##נתונים	2801
מבין	2802
##רמניה	2803
##נאים	2804
משק	2805
מספק	2806
מעור	2807
מצד	2808
##חן	2809
והם	2810
##ומרים	2811
שהא	2812
נוספת	2813
להסת	2814
לפר	2815
עבר	2816
##שרים	2817
##דון	2818
היסט	2819
בינלא	2820
חברים	2821
##וחה	2822
הטבע	2823
!"	2824
משל	2825
הפעם	2826
ביח	2827
בעת	2828
מדינה	2829
40	2830
##וים	2831
##צו	2832
##קור	2833
להתחיל	2834
שחק	2835
##נר	2836
##ראים	2837
כלי	2838
שס	2839
##יפות	2840
לחזור	2841
עצמה	2842
סיפור	2843
##יהן	2844
##יפוש	2845
בעיה	2846
מות	2847
מתחיל	2848
הבעיה	2849
מוב	2850
##um	2851
עליהם	2852
##סטרט	2853
שמח	2854
אהבה	2855
פרק	2856
מהר	2857
לעצמ	2858
הגדולה	2859
בריאות	2860
חייבים	2861
##ter	2862
##נטי	2863
דומה	2864
עצמם	2865
##ונית	2866
באי	2867
העיק	2868
##im	2869
##em	2870
בנושא	2871
למען	2872
ככה	2873
##נתה	2874
המחקר	2875
לגרום	2876
עולם	2877
אומרת	2878
##מנויות	2879
##נגד	2880
משתמשים	2881
הבל	2882
##כיר	2883
בסופו	2884
com	2885
נשמ	2886
והש	2887
הכנס	2888
מרג	2889
עוז	2890
מאוחר	2891
##יטי	2892
ניו	2893
עמ	2894
##יבית	2895
למד	2896
הצל	2897
באותה	2898
להמשיך	2899
בסדר	2900
##בוק	2901
וכן	2902
קרה	2903
רוס	2904
מחוץ	2905
ועוד	2906
המקום	2907
שנית	2908
##יצוני	2909
ליי	2910
##סטרטג	2911
##זב	2912
##לוהים	2913
לבחור	2914
##וכן	2915
הקש	2916
בהחלט	2917
והע	2918
בארה	2919
בהתאם	2920
מנ	2921
מאת	2922
מכו	2923
בעקבות	2924
טרא	2925
##דן	2926
##ודנטים	2927
אנג	2928
יפה	2929
הקרוב	2930
##יכנס	2931
##יוע	2932
הצד	2933
##נצח	2934
העצ	2935
העם	2936
חול	2937
העול	2938
הצע	2939
נתונים	2940
##בלות	2941
##לקוחות	2942
לתוך	2943
הרפ	2944
וצ	2945
##שלום	2946
מאות	2947
ההג	2948
גברים	2949
המשי	2950
##לון	2951
המוס	2952
שוא	2953
##הוב	2954
##יאון	2955
לשחק	2956
ולע	2957
תוכלו	2958
התג	2959
מדע	2960
היינו	2961
##יינו	2962
הסיבה	2963
##כלי	2964
##ראת	2965
הגבוה	2966
מהת	2967
##ופול	2968
##ידות	2969
בזה	2970
אתר	2971
##רבי	2972
ראשון	2973
24	2974
לגמרי	2975
טע	2976
סיפ	2977
##ווי	2978
##אט	2979
השבוע	2980
##נגלית	2981
תהליך	2982
עק	2983
##ופות	2984
##ריז	2985
אנשי	2986
##רחק	2987
##יחוד	2988
לאנשים	2989
לשל	2990
לספק	2991
##ap	2992
קה	2993
הפרו	2994
נוע	2995
כע	2996
שות	2997
##וקא	2998
קיים	2999
האינטרנט	3000
לעומת	3001
שלום	3002
##ילד	3003
ייתכן	3004
בארץ	3005
הקד	3006
##שראלי	3007
כלפי	3008
חת	3009
זוהי	3010
ch	3011
##פג	3012
שהח	3013
רגע	3014
שוק	3015
##ובע	3016
אותן	3017
הנס	3018
היית	3019
##גרים	3020
במא	3021
החדשה	3022
המלחמה	3023
##רחב	3024
הוכ	3025
הית	3026
##מך	3027
##ולת	3028
איכות	3029
ומא	3030
השק	3031
ארג	3032
כדאי	3033
המוצ	3034
אמא	3035
מנהיג	3036
##oc	3037
##ודל	3038
ניה	3039
תס	3040
##un	3041
,"	3042
זכ	3043
ערך	3044
##שע	3045
קצר	3046
ומס	3047
לצאת	3048
המוז	3049
האחרונה	3050
##סיה	3051
לשם	3052
נמצאים	3053
##זע	3054
##יאל	3055
הרוח	3056
כפ	3057
מתע	3058
מיליא	3059
להביא	3060
היהודים	3061
נעשה	3062
המחשב	3063
לרכ	3064
בשבוע	3065
משפחת	3066
##מיות	3067
בתוכ	3068
##וגרים	3069
##ורית	3070
##פסיק	3071
##נדר	3072
##רחש	3073
השימוש	3074
##ולוגיה	3075
חוו	3076
##טית	3077
המוש	3078
שיכול	3079
##בלו	3080
##מץ	3081
##ייע	3082
להז	3083
מהח	3084
למנוע	3085
##פשרות	3086
##צלחה	3087
תרבות	3088
המאה	3089
להרו	3090
ישנם	3091
אלף	3092
להתמודד	3093
ועד	3094
on	3095
##כני	3096
האתר	3097
אוט	3098
ובר	3099
ממה	3100
##th	3101
מהע	3102
כולנו	3103
##רם	3104
האו	3105
##נהגות	3106
ארגון	3107
כוחות	3108
צי	3109
הנשיא	3110
להגיד	3111
הפת	3112
אק	3113
''	3114
##יגה	3115
חברה	3116
להק	3117
##יבת	3118
##ראו	3119
משא	3120
לאכול	3121
מתחת	3122
מנסה	3123
##ידו	3124
הבאה	3125
כמות	3126
##חתי	3127
##וטים	3128
##ניהם	3129
.[	3130
##שבון	3131
צבא	3132
##אס	3133
עליך	3134
בשנים	3135
הבריאות	3136
אצ	3137
עשה	3138
##נוק	3139
להתע	3140
##פרד	3141
סימ	3142
##כנית	3143
לפג	3144
היטב	3145
21	3146
ממשלת	3147
ייש	3148
עניין	3149
##כלית	3150
שנע	3151
אר	3152
חמש	3153
..	3154
זוג	3155
##ליק	3156
##ers	3157
מלחמת	3158
ברגע	3159
שהיו	3160
##יקום	3161
באינטרנט	3162
עמו	3163
##נרגיה	3164
מבוס	3165
יודעת	3166
משפחה	3167
##eb	3168
##...	3169
אישי	3170
ני	3171
##אום	3172
המוח	3173
בשלב	3174
מזון	3175
##סל	3176
##ia	3177
יכולות	3178
מכך	3179
שהג	3180
בנק	3181
##רש	3182
רופ	3183
##הבה	3184
הסיפור	3185
##ess	3186
##וטנצ	3187
תומ	3188
מדינת	3189
שול	3190
##נסים	3191
סוכ	3192
דעת	3193
חוסר	3194
עסקים	3195
בינו	3196
##פן	3197
מוט	3198
195	3199
to	3200
טוע	3201
והה	3202
מצא	3203
לקנות	3204
אמרתי	3205
אישה	3206
##רוך	3207
שאלות	3208
##וכלוס	3209
גישה	3210
מדה	3211
##ושבים	3212
השם	3213
חושבים	3214
לכתוב	3215
זמ	3216
עור	3217
##רוע	3218
קצ	3219
תוצאות	3220
##לוו	3221
2015	3222
##ברי	3223
ושל	3224
ליה	3225
##רתי	3226
##רונים	3227
משות	3228
במצב	3229
לעיתים	3230
הביתה	3231
רשת	3232
##סיק	3233
אכן	3234
הצבא	3235
קבוע	3236
##יחות	3237
##מוע	3238
היד	3239
צד	3240
להרגיש	3241
הסת	3242
מסוימים	3243
נט	3244
תז	3245
משרד	3246
סג	3247
הישראל	3248
השר	3249
היחידה	3250
האור	3251
למעלה	3252
##מול	3253
##ימות	3254
שהע	3255
##ראש	3256
מכיוון	3257
לדוגמה	3258
##לוק	3259
##בורה	3260
##בן	3261
במהירות	3262
הראשונים	3263
##מיה	3264
##ri	3265
הפוליט	3266
אבא	3267
##בתי	3268
שהמ	3269
סכ	3270
re	3271
##מינו	3272
בואו	3273
חודש	3274
עשויים	3275
##פוס	3276
##רצה	3277
היחיד	3278
הנתונים	3279
##ציפ	3280
החש	3281
##ושת	3282
בעצם	3283
תופ	3284
אוני	3285
אירופה	3286
דרכים	3287
##ובים	3288
האופ	3289
חק	3290
צוות	3291
האס	3292
שבע	3293
##זים	3294
לעבור	3295
מדיניות	3296
##טא	3297
##יטות	3298
הזדמנות	3299
##ורף	3300
הקור	3301
בפעם	3302
ביחד	3303
##ra	3304
והפ	3305
בתור	3306
##וונת	3307
לוח	3308
לבנות	3309
2014	3310
צפ	3311
ציל	3312
מהס	3313
הפך	3314
ובא	3315
##פטמבר	3316
אוהבים	3317
כרטיס	3318
##רקע	3319
60	3320
מונ	3321
##קשה	3322
##דיניות	3323
##כלו	3324
עולה	3325
מאמין	3326
זכות	3327
##מתי	3328
דין	3329
##סר	3330
].	3331
להישאר	3332
לחץ	3333
הביטחון	3334
נדר	3335
##ונו	3336
##ce	3337
##נייה	3338
עליה	3339
מסוגל	3340
##טות	3341
להיכנס	3342
במדינה	3343
שהי	3344
מקווה	3345
אמית	3346
מדברים	3347
לראשונה	3348
האוויר	3349
##נהיג	3350
נחשב	3351
טראמפ	3352
המדינות	3353
שמא	3354
##ודעה	3355
אמריקה	3356
רומ	3357
##ובי	3358
מדבר	3359
סיבה	3360
התעופה	3361
##וריות	3362
נשיא	3363
al	3364
##פילו	3365
##שויות	3366
##and	3367
תמונות	3368
##פיה	3369
##עיף	3370
גורם	3371
ניהול	3372
צפו	3373
מחפ	3374
הצב	3375
ההיסטוריה	3376
יצא	3377
##סום	3378
ההז	3379
גדולים	3380
##צמבר	3381
##יונים	3382
לקוחות	3383
ערב	3384
להגן	3385
##רושלים	3386
חופש	3387
שיהיה	3388
סיכו	3389
נושא	3390
ירושלים	3391
מיליארד	3392
22	3393
שד	3394
##סות	3395
מוצרים	3396
sh	3397
בארצות	3398
הדין	3399
דווקא	3400
דם	3401
פנים	3402
פוע	3403
##ניח	3404
החלק	3405
לילדים	3406
מקרה	3407
##טרף	3408
##יניהם	3409
כוכ	3410
##מנה	3411
##op	3412
אמיתי	3413
ובה	3414
איראן	3415
אוניברס	3416
נמו	3417
##נדה	3418
הטיפול	3419
המטרה	3420
אפשרי	3421
##בלים	3422
אמרו	3423
מיני	3424
ירי	3425
לשלם	3426
קטנה	3427
##ab	3428
המים	3429
שיר	3430
##חדים	3431
לאור	3432
##ייך	3433
ניסיון	3434
##לנד	3435
##ניינים	3436
מסוים	3437
##שיית	3438
מבלי	3439
##מדו	3440
בנוגע	3441
##ניסה	3442
מהה	3443
עומד	3444
##ליחה	3445
ובכל	3446
##יפים	3447
לנסות	3448
הוק	3449
שאת	3450
מערכות	3451
צרפת	3452
.”	3453
כתוצאה	3454
ויותר	3455
##שייה	3456
יהודי	3457
ואח	3458
כשאת	3459
ציבור	3460
##סור	3461
העתי	3462
מאמינים	3463
סין	3464
עול	3465
##).	3466
וכך	3467
שיל	3468
שווה	3469
##ראית	3470
##יטים	3471
משמעותי	3472
במסגרת	3473
הקרי	3474
עו	3475
ראה	3476
מהש	3477
##ראי	3478
סמ	3479
##ידת	3480
השירות	3481
היהודי	3482
אלפי	3483
תקופה	3484
##ul	3485
##רוני	3486
אוו	3487
ומח	3488
ראיתי	3489
ור	3490
ההחלט	3491
ולח	3492
קיבל	3493
כות	3494
##לין	3495
##בלה	3496
מכש	3497
אילו	3498
##ומו	3499
חזק	3500
שבועות	3501
##דיר	3502
##זיר	3503
##זרו	3504
אישית	3505
חג	3506
##רית	3507
לישראל	3508
ממשי	3509
הבאים	3510
מבט	3511
you	3512
##ומיות	3513
כללי	3514
הסט	3515
##ישון	3516
הבנק	3517
##נש	3518
לשמוע	3519
##פני	3520
##יחה	3521
##צית	3522
בסרט	3523
השתמש	3524
הכסף	3525
##ew	3526
##ורם	3527
ארבעה	3528
טי	3529
הנא	3530
2013	3531
עצמך	3532
ניק	3533
##מם	3534
##ביא	3535
##ליטים	3536
לשע	3537
אנרגיה	3538
##ליות	3539
היכולת	3540
##יעי	3541
##יינים	3542
הטובה	3543
אפשרות	3544
איתו	3545
ולק	3546
בחודש	3547
נוספות	3548
העובדה	3549
מלחמה	3550
אמת	3551
##פיע	3552
##ורט	3553
##ודד	3554
החולים	3555
2017	3556
רכב	3557
סק	3558
קטנים	3559
הוצ	3560
ההס	3561
##שתו	3562
לאחרונה	3563
##20	3564
החשוב	3565
יוצא	3566
##שבים	3567
המערכת	3568
שבהם	3569
for	3570
קבוצה	3571
לנק	3572
##לץ	3573
##נויות	3574
המלא	3575
באירופה	3576
##נועה	3577
##ופט	3578
##חם	3579
##ופית	3580
##igh	3581
הים	3582
תיק	3583
##גוד	3584
##יכרון	3585
מוכן	3586
שצריך	3587
##ופש	3588
השחק	3589
והג	3590
הקול	3591
2012	3592
צב	3593
ראו	3594
כיוון	3595
צל	3596
צבע	3597
שרו	3598
תרג	3599
##יקטים	3600
ואף	3601
##תחלה	3602
עשרה	3603
##מנט	3604
##ישור	3605
הצה	3606
אודות	3607
2018	3608
23	3609
ורק	3610
##נדי	3611
מלאה	3612
לפעול	3613
מאחורי	3614
שינויים	3615
האזרח	3616
מחיר	3617
מעוני	3618
2010	3619
רחב	3620
הלו	3621
##if	3622
מהי	3623
כלום	3624
מסע	3625
##מינה	3626
אוהבת	3627
מהו	3628
בהן	3629
2011	3630
חשמ	3631
##טן	3632
לשא	3633
ארבע	3634
לספר	3635
מפל	3636
ספרים	3637
אט	3638
ורג	3639
שז	3640
##ידן	3641
האחרונים	3642
שגם	3643
איב	3644
ויר	3645
לשים	3646
לצד	3647
האלו	3648
תמיכה	3649
בבוקר	3650
הבינלאומי	3651
##רוק	3652
השמ	3653
כזו	3654
לרוב	3655
##ov	3656
לעמוד	3657
##יטר	3658
גופ	3659
לשפר	3660
##ts	3661
להימ	3662
התשובה	3663
##וגה	3664
##ירושלים	3665
ומי	3666
##כח	3667
הקבוצה	3668
התיכון	3669
פיל	3670
##ותם	3671
המדע	3672
##ומדים	3673
##ליף	3674
התפ	3675
הגיעו	3676
80	3677
דת	3678
##פרט	3679
מעניין	3680
##ציב	3681
תלוי	3682
##וגר	3683
מחו	3684
הנפ	3685
##ניהול	3686
!!	3687
הופך	3688
טבעי	3689
קד	3690
##פכה	3691
הסכם	3692
חושבת	3693
##זוב	3694
חזרה	3695
de	3696
##עון	3697
##יתנו	3698
##פריל	3699
##ity	3700
גבר	3701
בשוק	3702
##ילויות	3703
פתרון	3704
##מדים	3705
##ינת	3706
לימוד	3707
יצירת	3708
##מאס	3709
מלב	3710
##ָּ	3711
והס	3712
##רכי	3713
##וניברסיטה	3714
התוכנית	3715
##אק	3716
##ורמים	3717
הארגון	3718
ממנה	3719
מקבלים	3720
##דבר	3721
חוץ	3722
עתי	3723
##ומט	3724
השפעה	3725
נוצ	3726
##און	3727
##og	3728
שבא	3729
הטר	3730
ביד	3731
ולי	3732
##דיו	3733
##est	3734
קבוצות	3735
חיל	3736
מילים	3737
##ריכה	3738
##ושב	3739
הבסיס	3740
35	3741
חולים	3742
ספורט	3743
##כולוג	3744
מבחינה	3745
##נא	3746
##זית	3747
##ניסט	3748
האג	3749
##דרות	3750
193	3751
מגיעים	3752
חשבתי	3753
לאדם	3754
##כוון	3755
מוקדם	3756
ביו	3757
חצי	3758
הלילה	3759
תשומת	3760
הוג	3761
##דיה	3762
להיר	3763
משמש	3764
הקשר	3765
ברצ	3766
שעל	3767
טכנולוג	3768
##ורו	3769
##דיים	3770
##לונות	3771
לגלות	3772
נקודות	3773
חלב	3774
שעה	3775
עלול	3776
העבר	3777
למקום	3778
##רגל	3779
הגרמ	3780
בקלות	3781
##ind	3782
##צא	3783
##בנה	3784
במידה	3785
בעתיד	3786
##וגל	3787
עובר	3788
באנגלית	3789
##ושי	3790
##חרר	3791
המשטרה	3792
הקהילה	3793
##כתי	3794
##ורד	3795
הפג	3796
לבע	3797
תכנית	3798
שניתן	3799
השלישי	3800
ומצ	3801
המלך	3802
##רוץ	3803
##יבל	3804
למי	3805
בעצמ	3806
שאל	3807
##לקת	3808
לבדוק	3809
##מוצע	3810
ייע	3811
שיק	3812
תמונה	3813
בעזרת	3814
ההורים	3815
לפתח	3816
יכולת	3817
##ine	3818
##פיים	3819
##תק	3820
##קרא	3821
ואפילו	3822
##ודו	3823
##יבוש	3824
ההבד	3825
נותן	3826
תרופות	3827
נולד	3828
פט	3829
היצ	3830
פיז	3831
##פוך	3832
##יימים	3833
##שתה	3834
ולאחר	3835
כולו	3836
שכן	3837
##סס	3838
##ברואר	3839
במרכז	3840
תמ	3841
##יתונ	3842
##תייחס	3843
צעירים	3844
נשאר	3845
רוסיה	3846
הישראלי	3847
##וונה	3848
להבטיח	3849
עזרה	3850
האינט	3851
##ידאו	3852
במצ	3853
שאינם	3854
מתא	3855
הרש	3856
בוח	3857
נוכ	3858
המון	3859
עבד	3860
מגוון	3861
70	3862
בערך	3863
##אלות	3864
הגדולים	3865
שאפשר	3866
##חילת	3867
ארוך	3868
זיה	3869
ניש	3870
שיצ	3871
תל	3872
##ויח	3873
להור	3874
##ליטה	3875
מהן	3876
##av	3877
un	3878
הכוח	3879
2016	3880
סב	3881
היכן	3882
מנהל	3883
בינואר	3884
האת	3885
העתיד	3886
2008	3887
יקרה	3888
בראש	3889
##סקה	3890
השמש	3891
מזרח	3892
2009	3893
מיק	3894
500	3895
להיפ	3896
בחלק	3897
חברי	3898
אינטרנט	3899
הוש	3900
הדרו	3901
##לקט	3902
המודר	3903
לשעבר	3904
וו	3905
יתר	3906
##מדה	3907
מאיתנו	3908
בעיני	3909
לקראת	3910
דה	3911
המשתמש	3912
##מונים	3913
##ישת	3914
התרו	3915
ימי	3916
כרגע	3917
הכב	3918
##לטון	3919
הטובים	3920
דוג	3921
##פלגה	3922
להעביר	3923
##ורא	3924
##ידול	3925
##שימת	3926
הנכון	3927
חייו	3928
##תחיל	3929
נמצאת	3930
##מויות	3931
##יבורי	3932
##וצים	3933
##ועה	3934
##פרס	3935
##יפורים	3936
##יצה	3937
קיימת	3938
##מיחה	3939
שאם	3940
ואין	3941
איננו	3942
תוכניות	3943
דג	3944
##טרך	3945
##יוס	3946
רחוק	3947
##למים	3948
##ct	3949
מתאים	3950
##נגדות	3951
חסר	3952
26	3953
מין	3954
##ומן	3955
במאי	3956
בחברה	3957
למט	3958
סיפר	3959
רווח	3960
##מכים	3961
##דיל	3962
##שק	3963
##ופל	3964
הפני	3965
##ריט	3966
##וסף	3967
שאנשים	3968
הכת	3969
##וניברסיטת	3970
הרכב	3971
27	3972
כבוד	3973
תינו	3974
##רישות	3975
הרעיון	3976
28	3977
חומ	3978
עוצ	3979
פיתוח	3980
התב	3981
goo	3982
ייח	3983
ענק	3984
מסוגלים	3985
##כוה	3986
בינ	3987
צעד	3988
משנת	3989
הגל	3990
אלקט	3991
##מדת	3992
יחסים	3993
ar	3994
pro	3995
מראש	3996
##ak	3997
הדת	3998
##וונים	3999
##יננס	4000
אחריות	4001
פק	4002
##מלי	4003
##זורים	4004
##od	4005
משה	4006
##סיכולוג	4007
העליון	4008
כיש	4009
##ברתי	4010
חוקי	4011
רמת	4012
המוצר	4013
אמור	4014
אזור	4015
היחסים	4016
גורמים	4017
משחקים	4018
##דיין	4019
אירוע	4020
התינוק	4021
עת	4022
##מקד	4023
##ריון	4024
##ודאי	4025
השכ	4026
לסייע	4027
עשרות	4028
האירופי	4029
90	4030
בלו	4031
לנצח	4032
שמות	4033
אליה	4034
##שינו	4035
בניו	4036
מחפשים	4037
נז	4038
##ווא	4039
ברמה	4040
##וקטובר	4041
בשר	4042
מרי	4043
פיר	4044
##ועדה	4045
ברשת	4046
בצד	4047
בלילה	4048
2007	4049
##יור	4050
##פיל	4051
##יונ	4052
החי	4053
בתחילת	4054
האחרים	4055
נהרג	4056
כשהוא	4057
##וזה	4058
ולש	4059
##נצל	4060
בוקר	4061
גא	4062
##שתת	4063
##ard	4064
הנושא	4065
is	4066
גרמניה	4067
מוות	4068
##כך	4069
המילה	4070
הלאומי	4071
אסטרטג	4072
ון	4073
חינוך	4074
לשימוש	4075
לבקר	4076
מאושר	4077
ביוני	4078
שלב	4079
רציתי	4080
נקרא	4081
לזכור	4082
איט	4083
ראשית	4084
גד	4085
##טחה	4086
##צעים	4087
ואנחנו	4088
##ive	4089
החמ	4090
החינוך	4091
הפל	4092
##יסות	4093
##נטית	4094
מכת	4095
מכיר	4096
רצון	4097
פחד	4098
שמה	4099
##וין	4100
##ְּ	4101
האזור	4102
הצורך	4103
בספטמבר	4104
להכיר	4105
העובדים	4106
##יתון	4107
##יסבוק	4108
##מוקרטיה	4109
מראה	4110
הערב	4111
ובמ	4112
מוכנים	4113
צעיר	4114
חמישה	4115
סביר	4116
##רן	4117
שהה	4118
בשנות	4119
מחקרים	4120
האדמה	4121
לתי	4122
סיי	4123
קא	4124
הינו	4125
##ימון	4126
לילה	4127
##יבו	4128
##וסטר	4129
בהק	4130
בדצמבר	4131
לשאול	4132
גוף	4133
מתב	4134
##לקוח	4135
הזוג	4136
המציאות	4137
sp	4138
שבר	4139
שהס	4140
יוכלו	4141
##במבר	4142
##ושבי	4143
להתח	4144
ועם	4145
מסוימת	4146
נשמע	4147
ad	4148
קפה	4149
##רוס	4150
לבוא	4151
שכבר	4152
נשק	4153
קבוצת	4154
לחפש	4155
חשבון	4156
##ook	4157
191	4158
תקשורת	4159
חייבת	4160
הבחירות	4161
כז	4162
האש	4163
לעבודה	4164
##וכה	4165
שבת	4166
בריט	4167
לוקח	4168
ממוק	4169
סיבות	4170
##דמנויות	4171
לאפשר	4172
שאר	4173
לתח	4174
"?	4175
תי	4176
##זי	4177
מצוי	4178
הנוכחי	4179
##וספת	4180
בפע	4181
wh	4182
נפט	4183
למדי	4184
ישירות	4185
לבן	4186
כאב	4187
לצפות	4188
קיו	4189
##ריה	4190
##ast	4191
##ופלים	4192
שהצ	4193
##יפת	4194
בתע	4195
בזכות	4196
האמיתי	4197
במערכת	4198
##כוהול	4199
הלח	4200
##דימה	4201
ההשפ	4202
ex	4203
##קסט	4204
##ָה	4205
##ריכים	4206
ואתה	4207
מבינים	4208
..."	4209
##מידה	4210
להאמין	4211
ושוב	4212
##פחות	4213
##שרות	4214
מקומות	4215
##כונית	4216
גדולות	4217
ידעתי	4218
נמוך	4219
צה	4220
##יליא	4221
##רגה	4222
##שוואה	4223
האמריקאי	4224
החלטה	4225
גדל	4226
ניתוח	4227
שיתוף	4228
ורו	4229
##ob	4230
אתמול	4231
היהודית	4232
הנק	4233
מבק	4234
טובות	4235
שנתיים	4236
מתחילים	4237
צילום	4238
##ובלים	4239
אמנות	4240
להסביר	4241
הפלסטינים	4242
קוראים	4243
אוויר	4244
חכ	4245
לכולם	4246
פוג	4247
##וגוסט	4248
ביולי	4249
##ינות	4250
להפסיק	4251
##לאות	4252
מכירים	4253
הולכים	4254
חשיבות	4255
למשך	4256
לפתוח	4257
האנרגיה	4258
##ידום	4259
##פיין	4260
חשובה	4261
באוקטובר	4262
בהמשך	4263
בימים	4264
אסור	4265
ספציפ	4266
אליהם	4267
בקרוב	4268
....	4269
מומלץ	4270
קוב	4271
שימו	4272
המפ	4273
כלשה	4274
בחשבון	4275
##פקד	4276
##נדון	4277
קיימים	4278
##אג	4279
##יימת	4280
רפוא	4281
חדר	4282
הימים	4283
עצמנו	4284
נכ	4285
##ie	4286
##רוכה	4287
הנח	4288
מציע	4289
ההחלטה	4290
סנט	4291
החק	4292
איזו	4293
##שיים	4294
האמית	4295
התחת	4296
התרבות	4297
אמנם	4298
ומק	4299
שמס	4300
##קול	4301
שאינו	4302
ליצ	4303
אפריקה	4304
טרור	4305
web	4306
נזק	4307
אמצע	4308
##all	4309
בתקופה	4310
##עיל	4311
##one	4312
##בוצות	4313
פרטים	4314
מייצ	4315
אבי	4316
יז	4317
עיצוב	4318
תד	4319
מוצר	4320
נפג	4321
מרגישים	4322
##יתם	4323
השוק	4324
הדם	4325
בנובמבר	4326
בפי	4327
ביחס	4328
שינה	4329
הפנים	4330
להציל	4331
con	4332
מו	4333
##בש	4334
##ודא	4335
##ריד	4336
והן	4337
במקרים	4338
##ליחו	4339
השיר	4340
##עתם	4341
לטפל	4342
ביטחון	4343
העולמי	4344
כלשהו	4345
בעבודה	4346
שאינ	4347
בחדר	4348
בחזרה	4349
2019	4350
במשחק	4351
אפשרויות	4352
תשובה	4353
להוסיף	4354
##ובלי	4355
שהן	4356
ראשו	4357
ממלי	4358
שירותי	4359
##מרים	4360
העניין	4361
באמצע	4362
##ell	4363
להימנע	4364
נפש	4365
קונ	4366
האישה	4367
בהכ	4368
להתא	4369
ממני	4370
אקד	4371
הוע	4372
ים	4373
נוכל	4374
##זיקה	4375
הנשים	4376
בכדי	4377
מטרת	4378
המכש	4379
והצ	4380
##כונים	4381
##מצאים	4382
התקשורת	4383
אחוזים	4384
en	4385
עקב	4386
##פול	4387
##ִּ	4388
##ומד	4389
##ותרת	4390
אנט	4391
##ill	4392
זוכר	4393
ארץ	4394
לאיר	4395
האב	4396
##מוס	4397
שעבר	4398
המקצוע	4399
##...]	4400
כרי	4401
שמצ	4402
##gle	4403
המזרח	4404
לחיים	4405
##רסה	4406
עתה	4407
המור	4408
##נהג	4409
מהווה	4410
שהש	4411
מעדי	4412
פעולות	4413
##וכלוסייה	4414
מלבד	4415
##וטנציאל	4416
bl	4417
ספי	4418
מהד	4419
החלה	4420
התמונה	4421
ההצ	4422
ולת	4423
se	4424
עונה	4425
העש	4426
##שאר	4427
המחיר	4428
[...]	4429
לדי	4430
אלב	4431
ולמ	4432
רעיון	4433
ביקורת	4434
45	4435
מרח	4436
##שיות	4437
##שאים	4438
להי	4439
##art	4440
לרכוש	4441
סוגים	4442
שמונה	4443
שלישי	4444
##ושות	4445
##וניות	4446
איתם	4447
החלטות	4448
?”	4449
סל	4450
##בנות	4451
##ip	4452
##ist	4453
עדיף	4454
לטיפול	4455
עשויה	4456
סוגי	4457
ארוכה	4458
ביניהם	4459
שגר	4460
החלו	4461
התלמידים	4462
##וכים	4463
בגוף	4464
נאמר	4465
הוסיף	4466
באוגוסט	4467
העור	4468
##יאו	4469
ישוע	4470
ואל	4471
בסך	4472
בבע	4473
##יקור	4474
למק	4475
התנהגות	4476
##יטניה	4477
##ate	4478
אזרחים	4479
36	4480
לני	4481
##פך	4482
##ען	4483
הארי	4484
##ליסט	4485
בריא	4486
פופול	4487
##פחת	4488
##למת	4489
##שום	4490
המוב	4491
במזרח	4492
למא	4493
מאחר	4494
אינן	4495
השלום	4496
נאל	4497
שזו	4498
תנאי	4499
##דרים	4500
המוות	4501
##מונת	4502
הפא	4503
משמעותית	4504
ביצוע	4505
שיי	4506
##נב	4507
שליטה	4508
לעצור	4509
לבני	4510
##סקים	4511
האנושי	4512
הצדדים	4513
##מרו	4514
##דית	4515
##גנון	4516
האפשרות	4517
##יביות	4518
ביטוח	4519
כנס	4520
קפ	4521
”,	4522
ואמר	4523
מצט	4524
בבקשה	4525
##גיש	4526
בשעה	4527
2000	4528
הרופא	4529
מיוחדת	4530
##ft	4531
מחר	4532
שלהן	4533
להציג	4534
מורכ	4535
29	4536
ביל	4537
##ובדים	4538
החליט	4539
הגנה	4540
2006	4541
הישראלית	4542
am	4543
בוד	4544
ונו	4545
ללי	4546
##זין	4547
עבוד	4548
pl	4549
ph	4550
ליום	4551
##גיע	4552
##ub	4553
המפור	4554
לעזוב	4555
##ונן	4556
לצורך	4557
הפעולה	4558
נכונה	4559
המז	4560
העיקר	4561
התהליך	4562
מתאי	4563
##וטר	4564
להשק	4565
קב	4566
##מאות	4567
פתאום	4568
00	4569
ויצ	4570
נול	4571
פיק	4572
השב	4573
הבאות	4574
יחסית	4575
נמוכה	4576
סבל	4577
##טיות	4578
##ובב	4579
האפ	4580
בשני	4581
בהיסטוריה	4582
הנע	4583
##שובות	4584
הניס	4585
האנושות	4586
כשאני	4587
מוחלט	4588
אופן	4589
##וגים	4590
מעני	4591
##פקת	4592
פתוח	4593
לנהל	4594
מנסים	4595
בחיי	4596
יצר	4597
מבחינת	4598
סיכוי	4599
google	4600
ריש	4601
##יתוף	4602
להד	4603
עלה	4604
##ישורים	4605
הפכה	4606
מפור	4607
מרק	4608
השיע	4609
במדינות	4610
##וויה	4611
ההבדל	4612
בירושלים	4613
##מחים	4614
המוק	4615
להראות	4616
לממש	4617
מזל	4618
מילה	4619
לאתר	4620
התוצאות	4621
מתוכ	4622
בסין	4623
תקופת	4624
לזהות	4625
קדימה	4626
##ידי	4627
##דמות	4628
##לווה	4629
הגיעה	4630
##ניהו	4631
חזר	4632
איתי	4633
הוב	4634
שטח	4635
לאן	4636
##כנן	4637
##ice	4638
הפעילות	4639
גרם	4640
הבינלאומית	4641
חומר	4642
שרי	4643
##se	4644
התחיל	4645
והק	4646
מבטיח	4647
הלאומית	4648
דר	4649
הלקוחות	4650
##עש	4651
##ver	4652
האהבה	4653
היע	4654
שהופ	4655
לקח	4656
מידי	4657
##רצו	4658
##כלים	4659
בחוץ	4660
בטח	4661
מטרות	4662
חברתית	4663
סתם	4664
הצליח	4665
המשמעות	4666
שעברה	4667
לציין	4668
זקוקים	4669
("	4670
דח	4671
והכ	4672
לעבר	4673
להתג	4674
סטודנטים	4675
סרטן	4676
דיווח	4677
קבלת	4678
שניהם	4679
המופ	4680
##תיע	4681
הידע	4682
בחר	4683
##פעל	4684
ליהנות	4685
le	4686
##ריע	4687
##דיק	4688
אירועים	4689
##ינגטון	4690
ישר	4691
##ואין	4692
אוסטר	4693
התוצאה	4694
וכי	4695
להציע	4696
האירוע	4697
לייצר	4698
לישון	4699
עז	4700
##נאה	4701
##ובד	4702
לבקש	4703
לידי	4704
בריטניה	4705
יפ	4706
סיר	4707
באפריל	4708
החז	4709
##לויות	4710
העיקרי	4711
be	4712
נכתב	4713
##גובה	4714
##לאים	4715
לבסוף	4716
יחסי	4717
מושג	4718
לפתור	4719
צוד	4720
רמות	4721
##קן	4722
להן	4723
החברת	4724
בעניין	4725
לקבוע	4726
בפברואר	4727
במספר	4728
##גוון	4729
קשור	4730
עליכם	4731
גרי	4732
##ידור	4733
החת	4734
בספר	4735
##לבום	4736
רופא	4737
%.	4738
##ge	4739
##מוש	4740
מהיר	4741
מביא	4742
מדהים	4743
אמי	4744
נוג	4745
סופ	4746
שתה	4747
##בעת	4748
##קוב	4749
##יבוד	4750
##וקי	4751
ועכשיו	4752
##עויות	4753
31	4754
ריק	4755
##יוו	4756
האפש	4757
משמ	4758
הקו	4759
מצרים	4760
משפחות	4761
קורא	4762
מודר	4763
ברכ	4764
רצה	4765
שוו	4766
תשלום	4767
השפה	4768
מאי	4769
##מתו	4770
חזקה	4771
להוציא	4772
לאט	4773
ממח	4774
אלינו	4775
חופשי	4776
חוזר	4777
חר	4778
יו	4779
##רגונים	4780
המילים	4781
##יצוע	4782
חיילים	4783
##שמית	4784
פרסום	4785
300	4786
##טרת	4787
להיע	4788
התכ	4789
חייהם	4790
##קשורת	4791
זכה	4792
סול	4793
עמד	4794
תואר	4795
במטרה	4796
##וטה	4797
הנוס	4798
לדבריו	4799
עומדים	4800
##רמו	4801
##לן	4802
המיו	4803
העת	4804
לגיל	4805
מדו	4806
לדא	4807
האיחוד	4808
היס	4809
והב	4810
):	4811
נוב	4812
עתיד	4813
##יכה	4814
##דיא	4815
##יסון	4816
בתהליך	4817
192	4818
מטרה	4819
")	4820
גמ	4821
דיא	4822
דרום	4823
וידאו	4824
מידה	4825
ואיך	4826
הטכנולוגיה	4827
אוטומ	4828
אמיתית	4829
מבר	4830
מרכ	4831
שיא	4832
להניח	4833
##our	4834
פרטי	4835
בנות	4836
כולה	4837
##ba	4838
משקל	4839
שאמר	4840
לשת	4841
פעיל	4842
##ונש	4843
איתך	4844
חיפוש	4845
קרב	4846
##רז	4847
באמ	4848
##וקף	4849
הראש	4850
ראשי	4851
ולהת	4852
לעצמי	4853
tr	4854
##ואל	4855
הסביבה	4856
כזאת	4857
it	4858
טלוויזיה	4859
נו	4860
להוביל	4861
למכור	4862
שמחה	4863
בניגוד	4864
##ost	4865
החברות	4866
מתרח	4867
##ונק	4868
ברוב	4869
בדבר	4870
##וברת	4871
צפוי	4872
אוניברסיטת	4873
ירד	4874
מנג	4875
עץ	4876
עמוק	4877
הזכות	4878
מציאות	4879
בפועל	4880
הפלסטינית	4881
הבלתי	4882
ההגנה	4883
הנית	4884
הימ	4885
##לימות	4886
מהג	4887
למצב	4888
הסיכון	4889
הנראה	4890
2005	4891
הגדולות	4892
ארוחת	4893
##ילחם	4894
התפתחות	4895
הפיז	4896
##ירותים	4897
##וניים	4898
היסטוריה	4899
זמין	4900
כנגד	4901
סא	4902
הינה	4903
##ופעה	4904
העונה	4905
##וסי	4906
בבח	4907
##ark	4908
אלימות	4909
##ows	4910
דיג	4911
יימ	4912
מותר	4913
עורך	4914
המזון	4915
במחקר	4916
יכולתי	4917
##סטרו	4918
##שאיר	4919
הלימודים	4920
שיעור	4921
שלושת	4922
זקוק	4923
כשאתה	4924
טרי	4925
##ננים	4926
##כוח	4927
שאח	4928
הסיכו	4929
ולב	4930
##יכר	4931
שחור	4932
אנגלית	4933
סעיף	4934
מקרים	4935
קטנות	4936
נתן	4937
חשובים	4938
עצמכם	4939
הקודם	4940
ip	4941
wor	4942
הקפ	4943
##וויות	4944
שניים	4945
##כנע	4946
להשפיע	4947
המוצרים	4948
כיס	4949
ללב	4950
##אורה	4951
שלם	4952
פעמיים	4953
עצמית	4954
##oun	4955
ומתן	4956
נושאים	4957
נציג	4958
לעצמו	4959
##סוק	4960
##ודיה	4961
בעלות	4962
הבה	4963
בהשוואה	4964
as	4965
בוא	4966
##סו	4967
##ניט	4968
למות	4969
מחלות	4970
##מצאו	4971
וְ	4972
מרבית	4973
הצוות	4974
שנא	4975
##חייב	4976
נקודת	4977
מלון	4978
בור	4979
ביני	4980
הלקוח	4981
##ישית	4982
בעלת	4983
לעלות	4984
לפנות	4985
##לקה	4986
הטלפון	4987
לתקן	4988
הצלחה	4989
##ep	4990
מושלם	4991
אגב	4992
ap	4993
חיות	4994
השטח	4995
התרג	4996
לשתף	4997
בבתי	4998
wind	4999
דוד	5000
עני	5001
##כנת	5002
התמ	5003
אינס	5004
הפכו	5005
לצע	5006
חרי	5007
##יוט	5008
השונים	5009
והיה	5010
הבוקר	5011
עיק	5012
##ושינגטון	5013
לשני	5014
##חרור	5015
##פייה	5016
בדרום	5017
רעיונות	5018
רפואי	5019
##בירה	5020
המשות	5021
ישנה	5022
הפרי	5023
לחלק	5024
##עתו	5025
ההזדמנות	5026
pr	5027
גזע	5028
שוכ	5029
##ותי	5030
ראוי	5031
המחלה	5032
קמ	5033
קומ	5034
המפלגה	5035
ממך	5036
##ack	5037
האישי	5038
אוכלוס	5039
בינתיים	5040
mic	5041
מפר	5042
תחרות	5043
##גד	5044
##תיבה	5045
במילים	5046
##ועלת	5047
מעמד	5048
##וכיח	5049
##כתה	5050
##ant	5051
המערבית	5052
מוזיקה	5053
מרגישה	5054
לנשים	5055
מותו	5056
נבח	5057
##זרים	5058
##ולחן	5059
מתקד	5060
הכדור	5061
מבח	5062
פתרונות	5063
דני	5064
נוח	5065
פתח	5066
##סן	5067
ואילו	5068
בצרפת	5069
הכלכלי	5070
הרגשתי	5071
ייצור	5072
עברו	5073
קיל	5074
תלמידים	5075
##מדות	5076
##ייט	5077
לאי	5078
האקד	5079
החוץ	5080
החוצה	5081
ובכן	5082
ומד	5083
שקורה	5084
מרכזי	5085
גרו	5086
צפון	5087
##ייתי	5088
במאה	5089
התנועה	5090
ואולי	5091
מעצ	5092
מקורות	5093
ממשיך	5094
##בקש	5095
עוזר	5096
לשלוח	5097
עיני	5098
##ברג	5099
בצפון	5100
ישראלים	5101
אביו	5102
כשהם	5103
cl	5104
שונ	5105
##יקל	5106
##אללה	5107
הנצ	5108
סימן	5109
פרויקט	5110
החוקרים	5111
הבחירה	5112
##ילית	5113
הראשי	5114
הרשת	5115
ביי	5116
דרו	5117
הוס	5118
##פית	5119
##חוק	5120
##מום	5121
##וונות	5122
מצליח	5123
המשך	5124
התקופה	5125
דופן	5126
##נשי	5127
##ליכים	5128
למדינה	5129
בשימוש	5130
מתנה	5131
הומ	5132
שיפ	5133
##גם	5134
##ענו	5135
##זיל	5136
השאר	5137
##וסק	5138
הכח	5139
ובס	5140
הנדר	5141
ראשונה	5142
##רסים	5143
הראשונות	5144
מכם	5145
תכונות	5146
##למה	5147
##ואלי	5148
##ופיה	5149
##יקאים	5150
##בלתי	5151
לשמש	5152
רגיל	5153
##ros	5154
להרוג	5155
##קף	5156
##ולין	5157
במט	5158
##נטיות	5159
מחפש	5160
ובת	5161
ברית	5162
ברורה	5163
בכמה	5164
##טיין	5165
פשוטה	5166
פועלים	5167
##ight	5168
וכו	5169
מפתח	5170
קלא	5171
רלוו	5172
שיג	5173
##פנים	5174
מסכים	5175
לשלוט	5176
##יסת	5177
בחי	5178
תוכן	5179
כחלק	5180
הטרור	5181
מלה	5182
##ובוס	5183
השא	5184
כיף	5185
בהרבה	5186
הזדמנויות	5187
בקשר	5188
השתת	5189
הלבן	5190
בך	5191
הורים	5192
וול	5193
פיצ	5194
ובין	5195
נתניהו	5196
בקה	5197
הפיל	5198
ביטוי	5199
בטוחה	5200
החדשות	5201
שחקן	5202
ויו	5203
פות	5204
המונ	5205
בעד	5206
##יאת	5207
הבנתי	5208
במקומות	5209
אביב	5210
תנועה	5211
חפ	5212
פועל	5213
שמי	5214
##ain	5215
##ילנד	5216
##ואות	5217
##יקת	5218
##יעת	5219
הבן	5220
מבית	5221
##לחמת	5222
##ort	5223
##שן	5224
לאחד	5225
לאומי	5226
בקול	5227
##נקים	5228
המסע	5229
##ds	5230
##ורש	5231
הגיל	5232
הדלת	5233
##אלית	5234
לפגוע	5235
לשר	5236
פירוש	5237
##כרו	5238
##ue	5239
##דיות	5240
הסימ	5241
הסדרה	5242
לייש	5243
לדעתי	5244
הקטן	5245
טלפון	5246
נפר	5247
קבע	5248
שפה	5249
##כרה	5250
##ex	5251
##ודע	5252
האוט	5253
מאה	5254
אלכוהול	5255
אישור	5256
שחקנים	5257
כותב	5258
סע	5259
פש	5260
שישה	5261
​​	5262
##מחה	5263
##ודיות	5264
לחת	5265
מחשבות	5266
##ענה	5267
##כנה	5268
##וכר	5269
הכוחות	5270
מוצא	5271
בטוחים	5272
ביר	5273
חובה	5274
לונ	5275
מלך	5276
צורה	5277
##ירום	5278
העיניים	5279
בהתחלה	5280
##חייה	5281
וחצי	5282
יין	5283
סיכון	5284
שיפור	5285
##למנט	5286
##ַּ	5287
באח	5288
מסר	5289
הקיץ	5290
##נטה	5291
הכרח	5292
לקה	5293
הכלב	5294
לנש	5295
ויט	5296
סדר	5297
##פתי	5298
##בעות	5299
##ואן	5300
מציג	5301
הוועדה	5302
וני	5303
יי	5304
##לחת	5305
##גלה	5306
במד	5307
מסביב	5308
ובש	5309
##פתחו	5310
תחושה	5311
or	5312
חט	5313
משר	5314
עזה	5315
##דלים	5316
##כרות	5317
להרח	5318
##ילוב	5319
אינני	5320
להכין	5321
##לוקת	5322
גרמ	5323
דובר	5324
ייק	5325
##מפרט	5326
##זציה	5327
עלולים	5328
##יקות	5329
למת	5330
והד	5331
לטובת	5332
מתחילה	5333
נורא	5334
אמצעי	5335
windows	5336
אול	5337
ונס	5338
שו	5339
לאל	5340
פוליטית	5341
טל	5342
ירו	5343
##נוס	5344
התפקיד	5345
אנא	5346
הצי	5347
המספר	5348
המרכזי	5349
כלשהי	5350
חם	5351
יוע	5352
שיב	5353
##פח	5354
##צרו	5355
לאהוב	5356
למלא	5357
הפופול	5358
ההיסט	5359
תחום	5360
ללמד	5361
דיבר	5362
הבעיות	5363
##ונגרס	5364
מקצועי	5365
הקהל	5366
להשקיע	5367
אמונה	5368
זר	5369
##pl	5370
##ודיים	5371
##שוף	5372
חלקים	5373
ספרי	5374
הוו	5375
תושבי	5376
##וריים	5377
מהפ	5378
כלב	5379
כלבים	5380
##כולנו	5381
רגשות	5382
משתנה	5383
מיוחדים	5384
כשל	5385
##ian	5386
הכס	5387
בחירה	5388
בפרו	5389
ילדי	5390
##יזם	5391
ארגונים	5392
שהייתה	5393
העתיקה	5394
בלונדון	5395
ייצ	5396
##ure	5397
האלבום	5398
##ופס	5399
במרץ	5400
החברים	5401
שהק	5402
למרבה	5403
והמש	5404
##יסטים	5405
לחוק	5406
ובכך	5407
להחליט	5408
להחזיר	5409
##כסוך	5410
נוה	5411
##טחת	5412
##ויה	5413
##גרות	5414
כלכלית	5415
למטה	5416
לקרות	5417
שיטות	5418
##מיר	5419
##פאים	5420
##ib	5421
##יונית	5422
##דיקה	5423
הקל	5424
בסביבה	5425
להצטרף	5426
עשיתי	5427
sc	5428
דלת	5429
חומרים	5430
##שור	5431
להילחם	5432
##יטחון	5433
לקדם	5434
ובח	5435
לתמוך	5436
תקווה	5437
מבוסס	5438
דמוקרט	5439
היות	5440
ותי	5441
##ברר	5442
החיפוש	5443
##כולות	5444
לחברה	5445
הכוכ	5446
לוודא	5447
גבולות	5448
מודעים	5449
לטי	5450
נוצר	5451
עמוד	5452
עליי	5453
##דינת	5454
לשבת	5455
##מצים	5456
אהבתי	5457
מורכב	5458
מומחים	5459
ממשיכים	5460
לדאוג	5461
דף	5462
ליו	5463
פית	5464
##וֹ	5465
##לום	5466
##iz	5467
לענות	5468
מתכוון	5469
שיער	5470
דוגמה	5471
כוס	5472
קלה	5473
רד	5474
##נף	5475
וכמה	5476
נפלא	5477
מודע	5478
האמריקאית	5479
שהייתי	5480
גודל	5481
זרים	5482
טעות	5483
סקר	5484
סוריה	5485
##צעת	5486
##כירה	5487
המנה	5488
האק	5489
האוניברסיטה	5490
עלולה	5491
החבר	5492
התרח	5493
##וצות	5494
מאחור	5495
מתרג	5496
הקודש	5497
##סקת	5498
מפע	5499
וכמ	5500
בבריטניה	5501
השחקנים	5502
ההשפעה	5503
חינם	5504
טווח	5505
לסט	5506
מרוב	5507
##אני	5508
זהב	5509
השינוי	5510
מסכי	5511
מתכ	5512
##ולוגי	5513
להפחית	5514
גרוע	5515
##כז	5516
##יביים	5517
באו	5518
אוס	5519
##וגיות	5520
הבנה	5521
ואי	5522
הנפש	5523
##סטיבל	5524
בכוח	5525
שישי	5526
מוצרי	5527
אדמה	5528
פלסטינים	5529
אכפת	5530
גבי	5531
דמ	5532
חב	5533
ציפ	5534
##ופיע	5535
באוניברסיטת	5536
##רבע	5537
הקרב	5538
הדור	5539
שנח	5540
האמנות	5541
לדברי	5542
בדיקות	5543
דורש	5544
הגבוהה	5545
הפרויקט	5546
חוויה	5547
משותף	5548
בלא	5549
גז	5550
הונ	5551
בשום	5552
בשטח	5553
ההול	5554
בתפקיד	5555
##צביע	5556
אדום	5557
שירותים	5558
נראית	5559
מהמש	5560
שאף	5561
הרצון	5562
העיקרית	5563
##אבים	5564
##למו	5565
##תמש	5566
##כנו	5567
משם	5568
מערב	5569
הנכונה	5570
##ונד	5571
שקרה	5572
שכר	5573
יעשה	5574
הרגע	5575
להעלות	5576
##ורקיה	5577
אשתו	5578
לומדים	5579
##בצע	5580
##קע	5581
להר	5582
לארץ	5583
במרחק	5584
מחזיק	5585
עבודת	5586
##לטפור	5587
במשקל	5588
וית	5589
יקר	5590
##per	5591
הקמת	5592
##נטיים	5593
מכאן	5594
##וטרים	5595
המקרים	5596
שתוכל	5597
יעיל	5598
סרטים	5599
32	5600
ביש	5601
טכנולוגיה	5602
לרגע	5603
ישנן	5604
מעוד	5605
מוקד	5606
at	5607
ac	5608
הלה	5609
שרק	5610
##זות	5611
במג	5612
לעיר	5613
##וכנות	5614
בניס	5615
המתק	5616
##צינות	5617
האנושית	5618
ניג	5619
##חוד	5620
החיו	5621
הספ	5622
בשפה	5623
2020	5624
מבנה	5625
לכאורה	5626
##פורניה	5627
רגל	5628
בהכרח	5629
400	5630
חתי	5631
עיתונ	5632
רוק	5633
שרא	5634
שדה	5635
##ust	5636
##ִי	5637
באה	5638
באחד	5639
והט	5640
ההע	5641
##מיין	5642
2002	5643
##ome	5644
דולרים	5645
הטובות	5646
ההשק	5647
לונדון	5648
טכני	5649
סופר	5650
היב	5651
החול	5652
החומר	5653
עבודות	5654
פעילויות	5655
רחבי	5656
##בחן	5657
ללקוחות	5658
נראים	5659
##ld	5660
האינ	5661
מעב	5662
הקריירה	5663
קיר	5664
המומ	5665
המשימה	5666
##וקס	5667
ואנו	5668
לחקור	5669
מבקש	5670
ולס	5671
2003	5672
לקבלת	5673
קוריאה	5674
הודעה	5675
הפלסטיני	5676
בינלאומיים	5677
הקשורים	5678
דיס	5679
פסיכולוג	5680
שפור	5681
תלמיד	5682
##ייקט	5683
##גלים	5684
מהק	5685
##כלת	5686
לחכות	5687
המשחקים	5688
המוזיקה	5689
נדרש	5690
ממצ	5691
עי	5692
##ry	5693
שאי	5694
##ווית	5695
מייד	5696
קיבלו	5697
עומדת	5698
המבוס	5699
he	5700
ויק	5701
מפת	5702
סיוע	5703
##פקה	5704
##ies	5705
להוכיח	5706
באשר	5707
החופ	5708
מעולה	5709
מחלה	5710
מקרי	5711
המקורי	5712
חוקרים	5713
##וטנציא	5714
יימס	5715
חיה	5716
המנו	5717
העד	5718
התש	5719
שמישהו	5720
נוסעים	5721
שימש	5722
סיפורים	5723
להוריד	5724
דיגיט	5725
עיניים	5726
פצ	5727
##ud	5728
מסחר	5729
##רגות	5730
שמד	5731
תגובה	5732
בשבילי	5733
החדשים	5734
להסתכל	5735
me	5736
ושי	5737
נמש	5738
##כרת	5739
##".	5740
החלל	5741
ההור	5742
##נסות	5743
אלכס	5744
ומב	5745
מכיל	5746
הלאה	5747
המהפכה	5748
דמות	5749
##נחה	5750
##עשה	5751
להתייחס	5752
האמונה	5753
השינה	5754
מציעים	5755
שמעתי	5756
במקביל	5757
התייחס	5758
לאחרים	5759
##רפתי	5760
האסלא	5761
fr	5762
חכם	5763
סקס	5764
הפדר	5765
מעלה	5766
תחילת	5767
2004	5768
רצח	5769
נהג	5770
לזכות	5771
להחליף	5772
הכנסת	5773
אליך	5774
אמון	5775
ויע	5776
יר	5777
פלא	5778
צדק	5779
ראי	5780
שירים	5781
##טרכו	5782
מגיעה	5783
כוללת	5784
##בקרים	5785
inter	5786
האזרחים	5787
בוט	5788
שיניים	5789
מסוכן	5790
לבחון	5791
הצפ	5792
הצליחו	5793
190	5794
עובדת	5795
גבוהים	5796
במחשב	5797
##50	5798
מאוח	5799
##וגמא	5800
##סקי	5801
##רקט	5802
הכלכלה	5803
##ולוגית	5804
##גרם	5805
שקט	5806
מאפשרת	5807
היתרונות	5808
גול	5809
תוצאה	5810
##טחים	5811
##ire	5812
האפשר	5813
הספרים	5814
מזג	5815
כוללים	5816
המבנה	5817
חוב	5818
באת	5819
הרוב	5820
##פסור	5821
כתובת	5822
להשתתף	5823
יתכן	5824
איתנו	5825
מסוימות	5826
בדיקה	5827
לשתות	5828
man	5829
הַ	5830
מיס	5831
תמי	5832
##נז	5833
##נך	5834
##רחים	5835
מינית	5836
תגובות	5837
נדמה	5838
השראה	5839
חשמל	5840
מכתב	5841
זיכרון	5842
לילד	5843
המות	5844
##ומם	5845
##ברהם	5846
מופיע	5847
##ect	5848
הפתרון	5849
??	5850
##אשר	5851
המפתח	5852
החשמ	5853
מאמר	5854
בשתי	5855
מחי	5856
##פקט	5857
##נציה	5858
נהדר	5859
הולכת	5860
התחלתי	5861
הגבול	5862
שיווק	5863
בינלאומי	5864
הצעיר	5865
ושמ	5866
צו	5867
קוס	5868
##נכ	5869
##oft	5870
להקים	5871
##תיב	5872
מתן	5873
##שוך	5874
רקע	5875
בכנס	5876
חלקם	5877
הבריטי	5878
עובדות	5879
נחש	5880
הולדת	5881
הודעות	5882
קיימות	5883
דומים	5884
ויה	5885
##דרי	5886
##ליג	5887
##פריה	5888
מספרים	5889
לפיכ	5890
אמריקאי	5891
מספקת	5892
היתר	5893
נהרגו	5894
קשים	5895
שפות	5896
תר	5897
##אור	5898
האוכלוסייה	5899
הבטיח	5900
לשלב	5901
הגישה	5902
עצמא	5903
לטווח	5904
יוצר	5905
פארק	5906
טוען	5907
לפיכך	5908
##פונים	5909
##דיש	5910
כלים	5911
##יעור	5912
הקרקע	5913
כאמור	5914
מועד	5915
בתקופת	5916
בוחרים	5917
סמים	5918
##ימים	5919
שלמה	5920
האימ	5921
הערך	5922
מעשה	5923
בחינם	5924
מצאו	5925
##פלל	5926
עשרים	5927
גרע	5928
חיצוני	5929
##נל	5930
##גיט	5931
זהות	5932
מבצע	5933
ומג	5934
לציבור	5935
להגדיל	5936
מוכר	5937
שומן	5938
?!	5939
סובל	5940
##דמה	5941
##pr	5942
משלה	5943
מבוגרים	5944
##והה	5945
המסחר	5946
שבהן	5947
33	5948
##וּ	5949
המדיניות	5950
החוף	5951
מצפה	5952
מציעה	5953
##וניה	5954
בגרמניה	5955
ידעו	5956
אבטחה	5957
תעשיית	5958
?".	5959
פרנק	5960
##ock	5961
איטליה	5962
gr	5963
ושה	5964
ליר	5965
סיום	5966
רשות	5967
רובר	5968
##טיים	5969
##יתונות	5970
להשאיר	5971
הסיבות	5972
##יפן	5973
##יינה	5974
לכאן	5975
האחריות	5976
תחושת	5977
המאמר	5978
האמריקני	5979
מכוניות	5980
העולמית	5981
דוא	5982
הלך	5983
##פרו	5984
המתח	5985
בערב	5986
הקב	5987
כאלו	5988
בסוריה	5989
שנק	5990
חוקים	5991
להשלים	5992
בבחירות	5993
אמו	5994
רשימה	5995
##רוג	5996
##ליחים	5997
כלכלי	5998
מדעי	5999
שנקרא	6000
מגלה	6001
##פסת	6002
תחילה	6003
נותנים	6004
האדום	6005
new	6006
us	6007
ופע	6008
כבד	6009
שניות	6010
במל	6011
משני	6012
מאל	6013
ואתם	6014
ממשלה	6015
לטע	6016
צעדים	6017
זמנית	6018
קצרה	6019
ירידה	6020
גיר	6021
ותח	6022
לרי	6023
##גדים	6024
האהוב	6025
השניים	6026
העיצוב	6027
##יאן	6028
הדו	6029
ומכ	6030
בקשה	6031
##מודדות	6032
2001	6033
המאוח	6034
ביקור	6035
המלון	6036
הרגיש	6037
##יווק	6038
##פרסם	6039
##יטב	6040
##שוי	6041
##שימות	6042
##חתה	6043
עצום	6044
לסרט	6045
איננה	6046
להשתנות	6047
מודעות	6048
לרדת	6049
להחזיק	6050
חיובית	6051
הרכבת	6052
רשמי	6053
48	6054
איתה	6055
ודי	6056
נותר	6057
##ובדה	6058
##יבוב	6059
לקיים	6060
לוותר	6061
ניסה	6062
נבחר	6063
איו	6064
לנה	6065
##מנת	6066
הממוצע	6067
התורה	6068
בקיץ	6069
יעזור	6070
פרויקטים	6071
מועצת	6072
שואל	6073
כרא	6074
צור	6075
לאבד	6076
האר	6077
השות	6078
השאלות	6079
##יימו	6080
הכניסה	6081
מכירות	6082
המשק	6083
נהיה	6084
המאפשר	6085
אובדן	6086
איבד	6087
גופנית	6088
טעם	6089
נוטים	6090
ציין	6091
תן	6092
##ps	6093
אתרים	6094
##ופטים	6095
במת	6096
במשרד	6097
שבין	6098
ולג	6099
אבן	6100
אהבת	6101
השלישית	6102
ההסכם	6103
%)	6104
##ביבות	6105
המין	6106
המכונית	6107
להט	6108
באים	6109
לשינוי	6110
בתים	6111
##נגליה	6112
שנייה	6113
רציני	6114
יוצאת	6115
משחקי	6116
מכונית	6117
לרצ	6118
##לד	6119
מהבית	6120
##יטאות	6121
לשנת	6122
##מצם	6123
הטלוויזיה	6124
אוכלים	6125
וזו	6126
ישראלי	6127
מנצ	6128
הארו	6129
התכנית	6130
##נסט	6131
סכום	6132
טה	6133
פתי	6134
היי	6135
אחראי	6136
ישיר	6137
ברצינות	6138
אשראי	6139
##יזו	6140
הופכים	6141
יוצאים	6142
הממשל	6143
קרן	6144
בול	6145
דרכ	6146
ונת	6147
חמאס	6148
מנק	6149
##מרת	6150
##בילה	6151
##aw	6152
היעד	6153
##ליזם	6154
הצטר	6155
מיליוני	6156
##צועים	6157
ביקש	6158
ברחוב	6159
למשחק	6160
המשיך	6161
ארכ	6162
גאה	6163
דמי	6164
שכולם	6165
תיר	6166
##סמים	6167
##ox	6168
שהב	6169
הערבי	6170
למישהו	6171
##מציה	6172
לסיים	6173
ילדה	6174
כתוב	6175
מוצאים	6176
מוגבל	6177
ימ	6178
מרת	6179
מורה	6180
תפק	6181
##ארו	6182
##לייה	6183
זהה	6184
במים	6185
הכרי	6186
##שבו	6187
##בטחה	6188
150	6189
בעצמו	6190
##ational	6191
משפחתו	6192
שילוב	6193
my	6194
ברג	6195
יפן	6196
פיננס	6197
##qu	6198
המנהיג	6199
להודות	6200
באור	6201
##משלה	6202
ואחר	6203
##יטית	6204
בתגובה	6205
הדמוקרט	6206
##אלון	6207
##ונך	6208
מפג	6209
##ימור	6210
נסיעה	6211
אורג	6212
לנסוע	6213
34	6214
שפת	6215
תשת	6216
תאי	6217
##קון	6218
##ָא	6219
להיש	6220
##יעית	6221
שאולי	6222
הנג	6223
##מותה	6224
לתפוס	6225
יהודית	6226
##בתא	6227
אינך	6228
תאריך	6229
שהתק	6230
קיבלה	6231
פוליטי	6232
וזאת	6233
עמדה	6234
נוכחות	6235
ירוק	6236
שמן	6237
##מרה	6238
##לנו	6239
האוכל	6240
השלטון	6241
התמונות	6242
##ונם	6243
להצליח	6244
הירח	6245
העיקריים	6246
ארי	6247
כוא	6248
כשב	6249
רמ	6250
##ביות	6251
##גיה	6252
שלח	6253
אושר	6254
הבין	6255
מצוין	6256
##חתם	6257
מפס	6258
חברתי	6259
אישיות	6260
יתק	6261
הודו	6262
המוזיאון	6263
שחי	6264
##ial	6265
בחירות	6266
##פטומים	6267
המערב	6268
יחיד	6269
הופכת	6270
הכנסייה	6271
בינינו	6272
ab	6273
גן	6274
סד	6275
סוד	6276
##ארי	6277
##פיות	6278
##כרים	6279
השח	6280
##וסופיה	6281
לשאלה	6282
מזו	6283
##ith	6284
נחמד	6285
להפעיל	6286
מוזר	6287
באיזה	6288
##ובליקה	6289
em	6290
חיפ	6291
חולה	6292
יוני	6293
סטר	6294
תור	6295
##צרה	6296
מאמץ	6297
הגד	6298
בהד	6299
לחי	6300
לחבר	6301
##יציה	6302
מוסדות	6303
בשבילך	6304
להסיר	6305
אזרחי	6306
##מטיקה	6307
עוברים	6308
איל	6309
רשימת	6310
##ולל	6311
להצביע	6312
##ירוג	6313
הפוסט	6314
##מינות	6315
מבני	6316
##והר	6317
שקיב	6318
##ass	6319
המועצה	6320
מחשבה	6321
לוקחים	6322
מדענים	6323
בכת	6324
יושב	6325
לנצל	6326
סדרת	6327
שרוב	6328
##סוך	6329
##טת	6330
##כמה	6331
המורה	6332
##ירור	6333
הייצור	6334
##כלות	6335
##וציה	6336
מתו	6337
##יטליה	6338
הכאב	6339
##לחו	6340
הליכה	6341
המלכות	6342
כדורגל	6343
כוכבים	6344
75	6345
su	6346
דלק	6347
קשות	6348
##פלים	6349
##צרי	6350
##זיאון	6351
השונות	6352
ובק	6353
במקור	6354
הלידה	6355
ציוד	6356
##מכות	6357
##כליים	6358
##ודר	6359
##ore	6360
ההתק	6361
##ish	6362
micros	6363
בנס	6364
##פיינים	6365
##בדים	6366
##ik	6367
##זמן	6368
התנגדות	6369
והנה	6370
בהצלחה	6371
לגדול	6372
ועדיין	6373
לכיוון	6374
אצלנו	6375
נועד	6376
הקדוש	6377
להרוויח	6378
אלקטרוני	6379
]]	6380
גלי	6381
נכש	6382
ערי	6383
##וארד	6384
בשירות	6385
להגדיר	6386
השתנה	6387
במסע	6388
טען	6389
עורכי	6390
צבאי	6391
מעוניינים	6392
-"	6393
ויל	6394
כשמ	6395
##ביה	6396
##ly	6397
המבט	6398
מהירות	6399
החודש	6400
התה	6401
הגברים	6402
הכפר	6403
בניית	6404
בוודאי	6405
במחיר	6406
מוזיאון	6407
te	6408
סיג	6409
##az	6410
מהירה	6411
השינויים	6412
##יקאי	6413
מסורת	6414
חיובי	6415
יגיע	6416
בפרס	6417
לפגוש	6418
הידוע	6419
ייחודי	6420
נעים	6421
##ַי	6422
האחד	6423
##יבוי	6424
הערבים	6425
הצרפת	6426
בתא	6427
לגור	6428
מפח	6429
מזמן	6430
##בוצת	6431
יוצרים	6432
מעוניין	6433
בדם	6434
דוקט	6435
מודה	6436
קיום	6437
##לס	6438
##זונה	6439
להתי	6440
מהב	6441
##יקורת	6442
מסביר	6443
לשאת	6444
מעלות	6445
בהס	6446
מחכה	6447
קשרים	6448
הייתם	6449
כוכב	6450
הוח	6451
חירום	6452
רוז	6453
##למות	6454
להלן	6455
היקום	6456
משבר	6457
##מידי	6458
שבח	6459
בפנים	6460
בטיחות	6461
גבוהות	6462
1999	6463
פרטיות	6464
מתייחס	6465
תיאור	6466
##סיקו	6467
רוברט	6468
כראוי	6469
יכלו	6470
קני	6471
תפס	6472
##איות	6473
מסח	6474
מסור	6475
ואולם	6476
בחו	6477
הנד	6478
עבורי	6479
האחים	6480
מוצלח	6481
עובדה	6482
מוכנה	6483
הניש	6484
##ace	6485
הבעלים	6486
השתמשו	6487
האמיתית	6488
שתהיה	6489
טור	6490
מוביל	6491
תנאים	6492
##pt	6493
##ment	6494
האלקט	6495
השלב	6496
באש	6497
באפשרות	6498
החדר	6499
##וקיינו	6500
לעקוב	6501
מחוז	6502
ובני	6503
##ans	6504
ממשל	6505
##קדמות	6506
קראו	6507
הנוכחית	6508
בינלאומית	6509
ציבורית	6510
תינוק	6511
לוב	6512
סליחה	6513
##ייר	6514
המשרד	6515
משע	6516
מאמינה	6517
##ועלים	6518
מתה	6519
ישת	6520
לבטל	6521
מצח	6522
בגדים	6523
##בעו	6524
עמוקה	6525
המשתמשים	6526
להתגבר	6527
צודק	6528
אן	6529
חור	6530
רוד	6531
רבי	6532
##ריח	6533
במלחמה	6534
שהמש	6535
מסוכ	6536
הפיננס	6537
מעשי	6538
ההצלחה	6539
לקרי	6540
##יחסים	6541
הכללי	6542
להגיש	6543
חלקי	6544
חלום	6545
התגובה	6546
חיס	6547
לוו	6548
נמס	6549
רשמית	6550
##נמ	6551
##na	6552
האופן	6553
באל	6554
שאלתי	6555
מתכנ	6556
הכנסה	6557
בסגנון	6558
##לתה	6559
דברי	6560
38	6561
עוק	6562
##טיסט	6563
##ִים	6564
האיס	6565
עלייה	6566
הידי	6567
בעבוד	6568
הבדל	6569
לשכוח	6570
ובמק	6571
להתאים	6572
הרשות	6573
הזהב	6574
##גרש	6575
אסיה	6576
יתרונות	6577
לבריאות	6578
למספר	6579
לעצמך	6580
אבות	6581
סובלים	6582
רו	6583
##te	6584
##ודעות	6585
להצלחה	6586
האחר	6587
שהפ	6588
##יקס	6589
##יינת	6590
לחג	6591
ליבר	6592
##ach	6593
all	6594
השיער	6595
נלח	6596
פסק	6597
ששי	6598
##סד	6599
##נתיים	6600
##כנים	6601
לאחור	6602
##יצד	6603
מכירה	6604
##כתוב	6605
מגד	6606
##כשיר	6607
המקור	6608
##end	6609
המסר	6610
יחידות	6611
##ite	6612
כשהיא	6613
לזמן	6614
off	6615
הקטנה	6616
באיכות	6617
הקרובה	6618
אלבום	6619
אוסטרליה	6620
microsoft	6621
')	6622
קופ	6623
אימון	6624
##יפל	6625
לחוות	6626
להתמקד	6627
שער	6628
בצע	6629
##ory	6630
פרנס	6631
מנכ	6632
!!!	6633
תינוקות	6634
מבקשים	6635
ביע	6636
יוסף	6637
קרו	6638
שיותר	6639
##גי	6640
##10	6641
הערכה	6642
התמיכה	6643
##יאים	6644
מסך	6645
ישן	6646
ישנו	6647
##נתו	6648
לפס	6649
מחלת	6650
שמאל	6651
שנראה	6652
מטר	6653
שואלים	6654
גידול	6655
דעות	6656
לְ	6657
נמשך	6658
##יירה	6659
##לכה	6660
##ריא	6661
התנאים	6662
##ושם	6663
הסע	6664
אפקט	6665
##חקרים	6666
##סקנה	6667
יעילה	6668
אובמה	6669
dis	6670
mar	6671
דגים	6672
ליל	6673
עזר	6674
##pe	6675
##וגיה	6676
הסבר	6677
##מתם	6678
##ינון	6679
נתפס	6680
נקודה	6681
##קשיב	6682
החברתית	6683
ענה	6684
##ראק	6685
משול	6686
##רבעה	6687
הפק	6688
##נסיה	6689
##וטי	6690
לדמיין	6691
משתת	6692
סטוד	6693
בתחילה	6694
הניצ	6695
מוגבלת	6696
הישראלים	6697
##שתתפים	6698
יוז	6699
מלו	6700
עין	6701
עברה	6702
ששמ	6703
##בסס	6704
התנ	6705
##לונה	6706
ישירה	6707
הציבורי	6708
הדרכים	6709
לתוכ	6710
ממע	6711
המקומית	6712
##ath	6713
להעריך	6714
להעניק	6715
שיחה	6716
תנועת	6717
לברוח	6718
סמכות	6719
בהקשר	6720
זע	6721
חוס	6722
כרו	6723
מית	6724
##מיק	6725
עלות	6726
##מוח	6727
השיניים	6728
איני	6729
##פרץ	6730
##לאי	6731
בשדה	6732
הפחד	6733
ואחד	6734
הקשה	6735
##רגן	6736
אנגל	6737
מצליחים	6738
ולפע	6739
ידידות	6740
מודל	6741
##כנסות	6742
הכולל	6743
נבנה	6744
פגיעה	6745
מספקים	6746
להיראות	6747
co	6748
לנג	6749
נוחות	6750
##ber	6751
##רישה	6752
##ופעות	6753
החוקים	6754
אוג	6755
והכל	6756
הספורט	6757
##רגיל	6758
שבעה	6759
לדוגמא	6760
הקודמת	6761
סימנים	6762
אֶ	6763
חיבור	6764
מיה	6765
ערכים	6766
פח	6767
תוס	6768
##ננו	6769
##ננת	6770
##פריקה	6771
הערה	6772
משכ	6773
##כוניות	6774
הנפט	6775
מטרים	6776
לרוץ	6777
עקרונות	6778
משותפת	6779
ממשיכה	6780
אברהם	6781
בוג	6782
נפתח	6783
תיע	6784
##ne	6785
הספי	6786
מעש	6787
##כונן	6788
שעדיין	6789
מזכיר	6790
כתבה	6791
הפרס	6792
הפרטים	6793
משפיע	6794
תעשה	6795
שיחות	6796
קראתי	6797
br	6798
זול	6799
חום	6800
יור	6801
מרצ	6802
ערים	6803
ריצ	6804
שיטת	6805
##ff	6806
##ולית	6807
במובן	6808
הסתי	6809
הגורמים	6810
##יצים	6811
בקט	6812
לגוף	6813
המשבר	6814
##ימום	6815
רגילים	6816
פרטיים	6817
מעורב	6818
למדתי	6819
למטרות	6820
37	6821
נפת	6822
פירות	6823
ציבורי	6824
״.	6825
##ֶּ	6826
הערים	6827
הביא	6828
ישו	6829
##רכנים	6830
##מתין	6831
##אתה	6832
מקומיים	6833
ובט	6834
ועדת	6835
יצאו	6836
המעבר	6837
אהיה	6838
הוראות	6839
רופאים	6840
החשובים	6841
מעדיף	6842
im	6843
בנה	6844
נבד	6845
שקר	6846
##ax	6847
##ובלת	6848
שהכ	6849
לתאר	6850
מייקל	6851
וכיצד	6852
למעט	6853
נתק	6854
##ics	6855
ארוכות	6856
קיבלתי	6857
חופשית	6858
נוער	6859
לשרוד	6860
בוו	6861
בכתב	6862
##מורה	6863
##בון	6864
המשת	6865
##מהות	6866
בעלה	6867
בשעות	6868
##יימות	6869
הצרכים	6870
הזמנים	6871
לתפקיד	6872
בימי	6873
##ang	6874
נתון	6875
חשיבה	6876
בראשית	6877
הביטוי	6878
מקצועית	6879
##ide	6880
לעצמכם	6881
הצעירים	6882
מצאתי	6883
ממוקם	6884
אוטומטי	6885
dr	6886
res	6887
##ארק	6888
##יקו	6889
##עתה	6890
בקרי	6891
אבו	6892
הביטוח	6893
ארגוני	6894
ייעוץ	6895
[[	6896
רדיו	6897
##יתות	6898
המוט	6899
לאלוהים	6900
##ישוב	6901
##וסקים	6902
##נסו	6903
שמג	6904
לתרום	6905
##לטה	6906
הרביעי	6907
##ond	6908
##גריה	6909
ולהיות	6910
נגמר	6911
יעקב	6912
הצבאי	6913
הסטודנטים	6914
השחקן	6915
דוגמאות	6916
.)	6917
##דרו	6918
##ניזם	6919
המיני	6920
האסטרטג	6921
בשיתוף	6922
לשנה	6923
ההד	6924
לפיתוח	6925
הכבוד	6926
שמק	6927
המקרה	6928
להגיב	6929
פייסבוק	6930
בריאים	6931
תכנון	6932
להתקיים	6933
הישן	6934
דוח	6935
##אליים	6936
##גיד	6937
##io	6938
##חזר	6939
##ותק	6940
האט	6941
מהצ	6942
והי	6943
##כוי	6944
ראיות	6945
תוכנה	6946
##וליטיקה	6947
מומחה	6948
ליצירת	6949
עבודתו	6950
600	6951
לרבות	6952
פנו	6953
פוסט	6954
שור	6955
##סוקה	6956
##יליות	6957
השעה	6958
##ועד	6959
מתרחש	6960
##יסר	6961
הכיבוש	6962
הטיפ	6963
##וזן	6964
נתוני	6965
התעשייה	6966
למחרת	6967
קהל	6968
99	6969
ללח	6970
עזב	6971
##זת	6972
לאף	6973
##דיב	6974
למידה	6975
הבט	6976
מסמכים	6977
מגע	6978
##ere	6979
בדרכים	6980
מפחד	6981
##are	6982
תגית	6983
נייר	6984
תמורת	6985
המודרנית	6986
הכוכבים	6987
בוצ	6988
דיון	6989
ליותר	6990
לשרת	6991
עג	6992
עיו	6993
צמיחה	6994
שחר	6995
שרצ	6996
שוחר	6997
##oin	6998
השטן	6999
##וחרים	7000
הצבע	7001
##לחתי	7002
המחירים	7003
נמצאו	7004
האירועים	7005
קהילה	7006
טוענים	7007
כריסט	7008
מרט	7009
קיצוני	7010
##קרונות	7011
##זן	7012
##oy	7013
##ניע	7014
להופיע	7015
לאומית	7016
הארוך	7017
באזורים	7018
כאחד	7019
בכלא	7020
ברק	7021
הכללית	7022
##בורג	7023
הרשמי	7024
באמריקה	7025
55	7026
pre	7027
איום	7028
גילו	7029
חיוני	7030
תושבים	7031
##פד	7032
##זיות	7033
המזל	7034
##ודאות	7035
##ידר	7036
משימה	7037
##וגות	7038
לעתיד	7039
הגז	7040
לחש	7041
המקדש	7042
חזקים	7043
רובם	7044
נסו	7045
מסוגלת	7046
הנשק	7047
זוכרים	7048
המרכזית	7049
להתקדם	7050
חוזרים	7051
כעבור	7052
##יליאם	7053
בלה	7054
הודות	7055
ושא	7056
פיג	7057
שפע	7058
##אד	7059
##ינס	7060
##לכת	7061
אתרי	7062
##יבורים	7063
במצרים	7064
##לאה	7065
הבניין	7066
מתים	7067
לשיר	7068
הדג	7069
ממס	7070
וחלק	7071
אורח	7072
לרע	7073
שבועיים	7074
שיחק	7075
מרוצה	7076
##age	7077
שותפים	7078
sm	7079
דירה	7080
טיסה	7081
##uc	7082
שהד	7083
משלו	7084
הגרע	7085
חייל	7086
##ence	7087
המערבי	7088
התקדמות	7089
הפרטי	7090
רחבה	7091
בתחומי	7092
הפוליטית	7093
הפנימי	7094
44	7095
air	7096
אורך	7097
ושב	7098
טקס	7099
כניסה	7100
##נין	7101
האומ	7102
החופש	7103
##יעין	7104
הסוף	7105
מסו	7106
לשחרר	7107
לבח	7108
הרשויות	7109
ידיים	7110
בטלוויזיה	7111
מטעם	7112
גבול	7113
אדוני	7114
סטנדר	7115
מוסיקה	7116
מנהלים	7117
העסקים	7118
טכנולוגיות	7119
הלחץ	7120
המכשיר	7121
הכרחי	7122
גוגל	7123
נשב	7124
קובע	7125
רוכ	7126
##גוריה	7127
לארו	7128
התחרות	7129
הסינית	7130
הצליחה	7131
אמורה	7132
מבקרים	7133
ולמה	7134
המשמש	7135
המסורת	7136
אליי	7137
טרם	7138
התוכן	7139
לשלום	7140
להזמין	7141
תרגום	7142
ser	7143
ויא	7144
נר	7145
קנדה	7146
שייך	7147
##זא	7148
##יליון	7149
השיטה	7150
אוסף	7151
והמו	7152
שאינה	7153
הסדר	7154
הקומו	7155
אנטי	7156
מצפים	7157
שנמצא	7158
##ולוגיות	7159
אישיים	7160
יתרון	7161
חשבו	7162
##גורר	7163
בדיקת	7164
זוכרת	7165
עשיר	7166
פועלת	7167
בפייסבוק	7168
מתאימה	7169
פלי	7170
##רדי	7171
##ניקה	7172
לאסוף	7173
##רין	7174
מהט	7175
למשתמש	7176
מתג	7177
לחדר	7178
##שבות	7179
##כתבו	7180
בצורת	7181
הופיע	7182
ארוכים	7183
התחילו	7184
חסרי	7185
למוות	7186
הקטנים	7187
יבוא	7188
המועצות	7189
אמריקאים	7190
שותף	7191
עולמית	7192
טיול	7193
במציאות	7194
הנקודה	7195
לבל	7196
לדרך	7197
נפרד	7198
קונים	7199
תוא	7200
##זינו	7201
המראה	7202
המיוחד	7203
המכונה	7204
האנט	7205
החוויה	7206
לשכנע	7207
אפשרית	7208
##יזון	7209
משפחתי	7210
המאבק	7211
המטוס	7212
קרובים	7213
צעירה	7214
חיינו	7215
במאמר	7216
האויב	7217
השירותים	7218
להרחיב	7219
עשית	7220
##ולדת	7221
המשתתפים	7222
##רופות	7223
##וצמה	7224
הפור	7225
לפרו	7226
הדיון	7227
ובו	7228
##יכרונות	7229
הכלל	7230
המקומות	7231
המקורית	7232
##שמח	7233
##אטרון	7234
תיקון	7235
החיילים	7236
##וסטרליה	7237
יוח	7238
ליע	7239
סוציא	7240
ערבים	7241
עשתה	7242
##יתו	7243
בממוצע	7244
מסיבה	7245
##רבויות	7246
הצער	7247
מבחן	7248
ברמת	7249
##לטת	7250
##יכום	7251
המקומי	7252
חלומות	7253
להכניס	7254
מאתנו	7255
רשתות	7256
אלקטרו	7257
ממליצים	7258
מסכימים	7259
##וקיינוס	7260
הנת	7261
הורה	7262
לבלות	7263
פוט	7264
צורות	7265
##ph	7266
##חס	7267
##ֵּ	7268
שליש	7269
##ניעת	7270
##ולו	7271
למג	7272
הקפה	7273
##יטלק	7274
בהריון	7275
הציל	7276
בכיר	7277
מפתיע	7278
לכמה	7279
שלאחר	7280
##צבעות	7281
יעילות	7282
##בטיח	7283
המחשבה	7284
מפלגת	7285
טעויות	7286
מובן	7287
תשל	7288
##פיר	7289
##+]	7290
להקל	7291
לארה	7292
במדינת	7293
הערבית	7294
הדיו	7295
מבע	7296
אחריו	7297
תקציב	7298
יחס	7299
הרגליים	7300
חסרת	7301
החלטתי	7302
מיומנויות	7303
פורט	7304
פוליטיים	7305
בתוכנית	7306
צבאית	7307
הוקמה	7308
לנקוט	7309
[+]	7310
ne	7311
ארצ	7312
בְּ	7313
גילה	7314
טקסט	7315
סדרה	7316
פוטנציאל	7317
קיץ	7318
##פוי	7319
##ולדות	7320
אתן	7321
##ישמיות	7322
העצמ	7323
מאבק	7324
##וסה	7325
שאלוהים	7326
לקוח	7327
##לקות	7328
הזיכרון	7329
שמחים	7330
המסך	7331
עצמאי	7332
ספרד	7333
פרופ	7334
קריאה	7335
הקרובים	7336
one	7337
fl	7338
ריי	7339
שיד	7340
תראה	7341
##בדו	7342
##ix	7343
למידע	7344
##לונן	7345
מעין	7346
לחשוף	7347
מקס	7348
עצם	7349
##חדש	7350
המשטר	7351
הרשימה	7352
בבני	7353
בטווח	7354
##atch	7355
##סייע	7356
אהב	7357
רחוב	7358
המטופל	7359
סטיב	7360
האמריקאים	7361
האישיים	7362
חוזרת	7363
השקעה	7364
מבוססת	7365
פופולרי	7366
42	7367
out	7368
אשה	7369
טא	7370
נרצ	7371
עמית	7372
פוטנציא	7373
קי	7374
##ביו	7375
לאת	7376
##מוט	7377
משך	7378
הפה	7379
בחור	7380
מבינה	7381
##יצונית	7382
הטכנולוג	7383
##אהב	7384
מטוס	7385
תחנת	7386
##פשט	7387
פתוחה	7388
פנימה	7389
פורסם	7390
שיהיו	7391
המשיח	7392
התרופה	7393
sk	7394
דרישות	7395
יומ	7396
לנת	7397
תוק	7398
##סמו	7399
##טימ	7400
##שט	7401
##ah	7402
האות	7403
##ומק	7404
מהכ	7405
איז	7406
מסוב	7407
הפול	7408
##רגיות	7409
הגבר	7410
בחרו	7411
מימון	7412
בגודל	7413
ראינו	7414
##ירתו	7415
אכז	7416
מעורבים	7417
פיזית	7418
אופי	7419
בים	7420
ביס	7421
חבל	7422
ינו	7423
להקשיב	7424
החורף	7425
אויב	7426
מאמרים	7427
לשירות	7428
ההר	7429
##שוטים	7430
מחבר	7431
אמורים	7432
יהוה	7433
עדן	7434
##ens	7435
הפרק	7436
1996	7437
קשורים	7438
צבעים	7439
דניאל	7440
וכמובן	7441
65	7442
חמצ	7443
סח	7444
קצב	7445
שוח	7446
##פואה	7447
##man	7448
שלפני	7449
לאזור	7450
הידיים	7451
השואה	7452
השופט	7453
השולחן	7454
למשוך	7455
בעיית	7456
##לאת	7457
##לוי	7458
##יסקו	7459
בהג	7460
בסביבות	7461
היומ	7462
צריכות	7463
בדומה	7464
מפות	7465
##ical	7466
התיא	7467
ניסו	7468
עסקי	7469
הנסיעה	7470
השקעות	7471
הצהריים	7472
הכביש	7473
נפטר	7474
?'	7475
לים	7476
##סיקה	7477
##טור	7478
##פלי	7479
##תית	7480
##ודשי	7481
##דיקות	7482
השיחה	7483
מאיר	7484
##יסים	7485
ההוא	7486
אנדר	7487
הנכ	7488
יהודה	7489
הרס	7490
שנש	7491
אנושי	7492
להבח	7493
פרופסור	7494
##olog	7495
כספים	7496
ידועה	7497
לעצמם	7498
intern	7499
חנות	7500
ימין	7501
קוו	7502
שרה	7503
המרכ	7504
המיי	7505
עלויות	7506
באוויר	7507
##חתת	7508
ברירה	7509
הכלכלית	7510
לכלול	7511
שחלק	7512
189	7513
חשבונות	7514
ממוצע	7515
ed	7516
ii	7517
דיי	7518
דרמ	7519
ופר	7520
זמינים	7521
ריח	7522
##ויד	7523
##יונה	7524
##ידוד	7525
אחי	7526
הבי	7527
הבת	7528
הצעות	7529
##ווירה	7530
בחש	7531
הלוח	7532
ברוך	7533
שומע	7534
39	7535
חוזה	7536
קרקע	7537
##מפיין	7538
##בין	7539
##ולק	7540
העדי	7541
העברת	7542
התר	7543
הסביר	7544
לשקול	7545
##מיני	7546
##וזים	7547
רצו	7548
המתאי	7549
לרשות	7550
החלום	7551
סוכר	7552
כשאתם	7553
הגרמנים	7554
בהדרגה	7555
:)	7556
לוא	7557
מיקום	7558
##מורת	7559
##צח	7560
##כיים	7561
##זמה	7562
היפ	7563
השו	7564
אחיו	7565
##זהרה	7566
הפליטים	7567
##יפו	7568
פעילים	7569
ברשות	7570
נקי	7571
בריאה	7572
מוכרים	7573
קריירה	7574
הסרטים	7575
לעצמנו	7576
זמני	7577
הוגן	7578
המודרני	7579
הניסיון	7580
צורת	7581
##צג	7582
##ear	7583
##30	7584
השחור	7585
לעיל	7586
לעורר	7587
הביניים	7588
הפיתוח	7589
הקלי	7590
מעטים	7591
הזכויות	7592
##פיץ	7593
נעלם	7594
##פורד	7595
נקבע	7596
188	7597
במערב	7598
הכוללת	7599
כשאנחנו	7600
מניח	7601
להתעלם	7602
זיהום	7603
ללבוש	7604
מנקודת	7605
אנגליה	7606
אוגוסט	7607
":	7608
lov	7609
ביה	7610
בבל	7611
דיוק	7612
ורצ	7613
חות	7614
מראים	7615
נמל	7616
##טין	7617
##נאות	7618
##תיבת	7619
התושבים	7620
מאוב	7621
##וער	7622
מסק	7623
בשקט	7624
מחזור	7625
מחשבים	7626
הצעת	7627
שמירה	7628
אפל	7629
##ינתי	7630
##שמיים	7631
למערכת	7632
המספרים	7633
שקל	7634
הרוסית	7635
עובדי	7636
##מלכה	7637
##פרייה	7638
יסוד	7639
משאבים	7640
ביפן	7641
הון	7642
ויח	7643
טורקיה	7644
עכ	7645
צמ	7646
קחו	7647
רי	7648
תוספת	7649
##ביים	7650
המוכ	7651
העין	7652
לעד	7653
בקבוצה	7654
בטלפון	7655
##גרפיה	7656
הרופאים	7657
מלכת	7658
הדיגיט	7659
זרי	7660
לידה	7661
מניות	7662
סחר	7663
ציון	7664
תשובות	7665
##רְ	7666
##טוף	7667
##ple	7668
שלג	7669
המוני	7670
לאס	7671
##ופק	7672
במז	7673
במלחמת	7674
החיצוני	7675
##וקת	7676
##יסד	7677
מערי	7678
##נטון	7679
הציג	7680
בחורה	7681
הזכ	7682
בקצב	7683
הריון	7684
##לטות	7685
הכלים	7686
הבריטית	7687
שתמיד	7688
שחשוב	7689
ונש	7690
לפרסם	7691
בעצמך	7692
שהופך	7693
cr	7694
גיא	7695
ורא	7696
חנויות	7697
יומיים	7698
כמש	7699
צמח	7700
קת	7701
קידום	7702
תאים	7703
המנהל	7704
למלחמה	7705
##וקות	7706
התנה	7707
והז	7708
מתאר	7709
##רגשות	7710
הדעת	7711
##וזר	7712
בגין	7713
##יכיא	7714
חברתיים	7715
הפרטיות	7716
הודיעה	7717
נדיר	7718
מיידי	7719
היסטורי	7720
שיכולים	7721
שהגיע	7722
תזונה	7723
אמיתיים	7724
התרופות	7725
בפעילות	7726
להבחין	7727
800	7728
[-	7729
הוצאות	7730
##כנות	7731
##כאון	7732
##ail	7733
##חיות	7734
##נייני	7735
המוג	7736
##רוף	7737
##יקרו	7738
למב	7739
לערוך	7740
הבורא	7741
##יסוק	7742
הכרטיס	7743
צריכת	7744
##שבה	7745
לסמוך	7746
לסבול	7747
בפיתוח	7748
בנייה	7749
186	7750
הודיע	7751
תצטרך	7752
להרוס	7753
שולחן	7754
דואר	7755
זכתה	7756
יוש	7757
יפים	7758
כאל	7759
סיני	7760
##אמה	7761
##הות	7762
##בדה	7763
איי	7764
איזון	7765
שאלו	7766
לחסוך	7767
מקומי	7768
בקיצור	7769
אזורים	7770
בבירור	7771
##פטר	7772
במשפחה	7773
##ick	7774
מלאכות	7775
לתקופה	7776
משקיעים	7777
##ניסטית	7778
להתחבר	7779
מורכבת	7780
נולדה	7781
").	7782
],	7783
gl	7784
sy	7785
חוות	7786
נרחב	7787
##קרה	7788
לאלה	7789
##תיחה	7790
##ומך	7791
השג	7792
התפר	7793
##רגש	7794
הגיוני	7795
אלוקים	7796
שבס	7797
ברזל	7798
בפריז	7799
המחוז	7800
המתאים	7801
רכבת	7802
1998	7803
האמריקנית	7804
כחול	7805
##ime	7806
ליהודים	7807
חרדה	7808
[-]	7809
ונג	7810
חמור	7811
עידן	7812
##בדות	7813
##שפ	7814
##כום	7815
האלוהים	7816
האנגלית	7817
##דיאלי	7818
החיס	7819
שהתח	7820
התס	7821
והנ	7822
##וגע	7823
לעודד	7824
מסלול	7825
מתמיד	7826
הצמיחה	7827
בסיכון	7828
##דרש	7829
מצבים	7830
לתלמידים	7831
##ונלד	7832
תחבורה	7833
רביעי	7834
הנשמה	7835
טבעית	7836
זוכה	7837
הרחב	7838
מרגש	7839
שנערך	7840
סגנון	7841
מכשיר	7842
המפורסם	7843
שמדובר	7844
נוט	7845
שיטה	7846
##נאט	7847
##בעים	7848
שליח	7849
אתגר	7850
להורג	7851
##ליכי	7852
החג	7853
למרכז	7854
איכ	7855
ההריון	7856
מחירי	7857
הצעד	7858
להתרחש	7859
בניין	7860
הרוסי	7861
רעב	7862
המטרות	7863
לזכויות	7864
תשע	7865
1995	7866
יקבל	7867
##act	7868
חברתיות	7869
הרפובליקה	7870
הניתוח	7871
##מפרטורה	7872
החשמל	7873
גרעיני	7874
דיכ	7875
פשע	7876
קולות	7877
##עור	7878
##vi	7879
המבקרים	7880
לשוק	7881
##כונת	7882
ובג	7883
לתע	7884
מדברת	7885
בדברים	7886
נהדרת	7887
##סתכל	7888
##יסטית	7889
אומץ	7890
1997	7891
שהאדם	7892
עולמי	7893
שרוצים	7894
המוקד	7895
גרס	7896
דרכו	7897
כשר	7898
מורים	7899
עריכה	7900
ריב	7901
##מעט	7902
##ניב	7903
##מוני	7904
השירים	7905
שהכל	7906
אוקט	7907
והאם	7908
אימא	7909
##וגו	7910
הבנייה	7911
הפוטנציאל	7912
לשיפור	7913
##וכח	7914
לחזק	7915
בחלל	7916
מטופלים	7917
##נדבים	7918
##פסיד	7919
הפרסום	7920
מושלמת	7921
תגיד	7922
ברוסיה	7923
העצמי	7924
הפארק	7925
>>	7926
בלח	7927
גנ	7928
טיסות	7929
ניכר	7930
עונש	7931
תועלת	7932
##פירה	7933
##עק	7934
##נוקות	7935
המדי	7936
המולד	7937
##ואיד	7938
באחת	7939
##ייץ	7940
##ייני	7941
שבני	7942
לדון	7943
לסגור	7944
בטיפול	7945
##נדס	7946
נעצר	7947
##צבעה	7948
הרווח	7949
##פויות	7950
ההתנגדות	7951
1994	7952
חמישי	7953
הרפואי	7954
תומך	7955
סוכרת	7956
צפויה	7957
שאמרתי	7958
ויטמין	7959
ליט	7960
נשימה	7961
סן	7962
סגן	7963
שכתב	7964
##ֶׁ	7965
האצ	7966
הקבוצות	7967
##יסי	7968
ההפר	7969
ההודעה	7970
בהע	7971
הנור	7972
##עתים	7973
בגל	7974
##אונות	7975
חשובות	7976
##עדון	7977
##ild	7978
##טלר	7979
המכירות	7980
שולח	7981
ראייה	7982
la	7983
קוק	7984
##טרון	7985
##שְ	7986
עליהן	7987
##שרדות	7988
##יבציה	7989
למשהו	7990
הספק	7991
מתמק	7992
בחוק	7993
##מצב	7994
הנביא	7995
ולצ	7996
##eric	7997
##ord	7998
אירופ	7999
##כנסה	8000
בתחומים	8001
קולנוע	8002
קליפורניה	8003
צפויים	8004
שאינן	8005
שוויון	8006
ליישם	8007
with	8008
וּ	8009
ונית	8010
וושינגטון	8011
יט	8012
נתחיל	8013
קס	8014
##נאב	8015
##קאות	8016
##ולן	8017
##ובוסים	8018
##רועות	8019
##יעץ	8020
##וגרפ	8021
הסחר	8022
הקונגרס	8023
##ייף	8024
לחלוק	8025
הכוונה	8026
אלפים	8027
##חקו	8028
יצירות	8029
ילדות	8030
תחומי	8031
נתנו	8032
טיפים	8033
הנסיך	8034
יישום	8035
הפוליטי	8036
הבנקים	8037
הגרמני	8038
office	8039
51	8040
בולט	8041
ווי	8042
וחי	8043
ליש	8044
לניהול	8045
מנות	8046
מילות	8047
מרחב	8048
נל	8049
סביבה	8050
פגש	8051
##כחות	8052
##זקים	8053
##ירתי	8054
##ירוף	8055
##ילר	8056
היפה	8057
כללית	8058
##משיכו	8059
הבמה	8060
ההק	8061
לבנים	8062
##יגים	8063
שעלי	8064
עבורכם	8065
##ong	8066
מטוסים	8067
שישראל	8068
##ash	8069
שיעורי	8070
ודאי	8071
נותרו	8072
המלכה	8073
שומרים	8074
1967	8075
תופעות	8076
ואחרי	8077
סקוט	8078
שרוצה	8079
##ומטרים	8080
רפואית	8081
מייצג	8082
ההצעה	8083
col	8084
ויי	8085
וסט	8086
ייר	8087
ינג	8088
צוע	8089
רמה	8090
תראו	8091
##פכו	8092
##לומים	8093
##כיל	8094
##ֹת	8095
מהווים	8096
##כליות	8097
באנשים	8098
העסקה	8099
משלי	8100
##וכית	8101
הצלב	8102
הדמוקרטיה	8103
ממק	8104
בכיוון	8105
בלע	8106
בלעד	8107
ולהע	8108
אליכם	8109
האישית	8110
##וניברסיטאות	8111
תרופה	8112
דאעש	8113
מדהימה	8114
ההחלטות	8115
מאושרים	8116
חכמים	8117
מוחלטת	8118
האפשרויות	8119
שונא	8120
52	8121
ובל	8122
חלל	8123
יולי	8124
כפר	8125
עשינו	8126
##שיב	8127
האמצ	8128
האחרות	8129
##כללה	8130
שהוק	8131
והיו	8132
והתח	8133
הסיני	8134
##רגו	8135
##נטר	8136
הנרי	8137
לתואר	8138
עצומה	8139
בקושי	8140
לדברים	8141
בגן	8142
ידועים	8143
חזון	8144
חוקית	8145
הרגל	8146
קורס	8147
פניו	8148
רכישת	8149
1993	8150
##אבדות	8151
##מפוס	8152
##נחלויות	8153
המוסלמים	8154
חוויות	8155
תופעה	8156
מתרחשת	8157
no	8158
דמוקרטיה	8159
ורי	8160
יוון	8161
לית	8162
מינ	8163
##ארט	8164
##פיו	8165
##תת	8166
##כמים	8167
החודשים	8168
מקווים	8169
הכרה	8170
אבנים	8171
##צעו	8172
ספרו	8173
חשש	8174
1990	8175
פרטית	8176
##ood	8177
בעצמי	8178
השפעות	8179
נכנסים	8180
הרפואה	8181
כרטיסים	8182
עוצמה	8183
שפורסם	8184
by	8185
חן	8186
##בעה	8187
##קירה	8188
המיל	8189
המצל	8190
##ומנים	8191
באוניברסיטה	8192
שהט	8193
הענק	8194
משימות	8195
הבינו	8196
הקונ	8197
הצעה	8198
##לתם	8199
שעשו	8200
להגביר	8201
##ולוגים	8202
קטל	8203
נהנה	8204
ניסיתי	8205
גורמת	8206
לרשת	8207
מסתכל	8208
ניצחון	8209
פלסטין	8210
מנהיגים	8211
הלוואי	8212
ובמיוחד	8213
בבעלות	8214
מתקדמים	8215
הלהקה	8216
##נאביס	8217
בוחר	8218
דקה	8219
הוז	8220
ולו	8221
קונה	8222
שוט	8223
שתיים	8224
שלטון	8225
##ליפות	8226
##ועות	8227
לעם	8228
##יפוי	8229
הצרפתי	8230
בתפ	8231
מציין	8232
לתכנן	8233
עדות	8234
הראו	8235
עבורנו	8236
ישראלית	8237
מלאים	8238
##זרחים	8239
1991	8240
תתק	8241
המועד	8242
מוחמד	8243
נורמלי	8244
מעורבות	8245
מכשירים	8246
דיאטה	8247
##ound	8248
cb	8249
post	8250
אדי	8251
וכת	8252
ין	8253
מכה	8254
תוצ	8255
##נחים	8256
##שמים	8257
##כירות	8258
המר	8259
המפל	8260
##ודיע	8261
לאמ	8262
##ישו	8263
השע	8264
השמים	8265
החיות	8266
בעידן	8267
בהודו	8268
הציע	8269
לחם	8270
בתנאים	8271
לגשת	8272
מדריך	8273
##ארד	8274
יעשו	8275
עשויות	8276
אדרי	8277
ונע	8278
בפרק	8279
הציבורית	8280
##ife	8281
שבאמת	8282
מדויק	8283
world	8284
השתתפות	8285
בניסיון	8286
46	8287
ווא	8288
נלק	8289
##חילה	8290
##ברט	8291
במגוון	8292
החומרים	8293
החשבון	8294
העמים	8295
##יקף	8296
בעזה	8297
הפט	8298
מקד	8299
בחירת	8300
##חתן	8301
##שבת	8302
מדווח	8303
ברזיל	8304
חייה	8305
##חינה	8306
רגעים	8307
עצמאות	8308
נפוץ	8309
מכלל	8310
פנימי	8311
##כרתי	8312
אופניים	8313
מסתבר	8314
##פריט	8315
עצמאית	8316
נמסר	8317
.'	8318
צמחים	8319
קצרים	8320
##מנטים	8321
##לף	8322
##למי	8323
##בך	8324
##ובלית	8325
##ובליק	8326
האיטלק	8327
בארגון	8328
אוק	8329
מסייע	8330
הקלא	8331
##יסטי	8332
##אלת	8333
בסיפור	8334
היופי	8335
בקבוק	8336
ברשימה	8337
בכדור	8338
##שלכות	8339
רכוש	8340
פריז	8341
מובילה	8342
ציור	8343
לבעיות	8344
##שתתפות	8345
האקלים	8346
לנהוג	8347
כואב	8348
אוקטובר	8349
49	8350
ag	8351
וכש	8352
טילים	8353
נוק	8354
נמשיך	8355
פרא	8356
קרח	8357
##צם	8358
##קח	8359
המלח	8360
ואיר	8361
בתמונה	8362
##וויטר	8363
הנבח	8364
##מותו	8365
מגדל	8366
##פטן	8367
##תחשב	8368
הילדה	8369
הולנד	8370
מלמד	8371
מתקדם	8372
להזכיר	8373
ולקבל	8374
מצוינת	8375
שימושי	8376
רפואיים	8377
'".	8378
qu	8379
זכור	8380
מנוע	8381
ער	8382
קווי	8383
תשא	8384
##אנו	8385
##מלים	8386
##טציה	8387
##לוח	8388
##כוד	8389
##זמים	8390
##ּוֹ	8391
##יליים	8392
למז	8393
ישנים	8394
##רכן	8395
הגר	8396
הגעתי	8397
מחירים	8398
לקבוצה	8399
בכפר	8400
אנוש	8401
אנושית	8402
מזונות	8403
תעופה	8404
מלכות	8405
למשפחה	8406
מקבלת	8407
הומו	8408
ויכול	8409
בפרט	8410
פולין	8411
הצבאית	8412
נחשבת	8413
תלמידי	8414
ממליץ	8415
hot	8416
med	8417
we	8418
גשר	8419
ובלתי	8420
סיב	8421
שמים	8422
שיכ	8423
##סדות	8424
##רור	8425
##בונן	8426
המכון	8427
##ואלים	8428
השניה	8429
השקט	8430
##ידוש	8431
##ותרות	8432
##יינט	8433
הדא	8434
בסדרה	8435
ולד	8436
##סקס	8437
שעש	8438
בטרם	8439
מספרת	8440
הפרלמנט	8441
ונח	8442
קלוריות	8443
הנהג	8444
טבעיים	8445
המודעות	8446
דאגה	8447
למסע	8448
מנהיגות	8449
המחשבות	8450
קילומטרים	8451
פתיחת	8452
47	8453
can	8454
ונה	8455
מיש	8456
שיט	8457
##יכם	8458
##פגש	8459
##כנון	8460
##יתונים	8461
המדו	8462
##ריס	8463
למטרה	8464
לעניין	8465
מתנג	8466
הקצ	8467
##יסוי	8468
הגא	8469
ומתי	8470
עצוב	8471
שכזה	8472
נאס	8473
הלימוד	8474
קשורה	8475
##own	8476
חלבון	8477
חומרי	8478
אשת	8479
##בחר	8480
האנ	8481
האושר	8482
החוב	8483
בעבור	8484
הבדיקה	8485
מתמוד	8486
##מתה	8487
הכות	8488
בספרד	8489
##לטו	8490
מגן	8491
##ink	8492
בצבא	8493
בנושאים	8494
##ary	8495
##ork	8496
המחלקה	8497
נהר	8498
ניסוי	8499
משמעותיים	8500
1992	8501
פרסם	8502
נמנ	8503
סבלנות	8504
בחייו	8505
בקהילה	8506
home	8507
גונג	8508
הליך	8509
חוג	8510
יופי	8511
סת	8512
סיל	8513
##פנות	8514
##בולות	8515
שלע	8516
##ורס	8517
באנגליה	8518
##וקרט	8519
##ושך	8520
##רבו	8521
הפסקת	8522
הדירה	8523
בסט	8524
מבצעים	8525
שמר	8526
עבורך	8527
לנושא	8528
וכאשר	8529
כשע	8530
להביע	8531
ושם	8532
התיירות	8533
##ציית	8534
##ous	8535
למציאות	8536
##iss	8537
##ליטות	8538
האירופ	8539
##ניסיון	8540
שנוכל	8541
כספי	8542
תפקידו	8543
חקירה	8544
ספציפי	8545
##ִּי	8546
החברתיות	8547
שנאמר	8548
hum	8549
דתיים	8550
ונק	8551
כק	8552
לרח	8553
סיטי	8554
פרחים	8555
קח	8556
תוב	8557
##כחו	8558
##זול	8559
##da	8560
היטלר	8561
בשמ	8562
הפועלים	8563
##וכמה	8564
##פתור	8565
##ert	8566
##ולוגיים	8567
ותק	8568
פריטים	8569
ומעלה	8570
משפטית	8571
כתבתי	8572
##זבז	8573
רומא	8574
לבעלי	8575
איטלק	8576
רלוונטי	8577
המונח	8578
דיכאון	8579
דיפל	8580
חירות	8581
חובות	8582
טיי	8583
סגור	8584
ספטמבר	8585
קבל	8586
##סמת	8587
##ביעות	8588
##land	8589
עלתה	8590
באיטליה	8591
מסיבות	8592
הגור	8593
הצלחתי	8594
##יצועים	8595
המשפ	8596
##שמור	8597
##פסה	8598
נהנים	8599
פלסטיני	8600
תיירים	8601
רישיון	8602
העצמאות	8603
love	8604
car	8605
es	8606
בירה	8607
הוביל	8608
כני	8609
נניח	8610
שלושים	8611
##שראי	8612
##ישום	8613
שהוצ	8614
משוכ	8615
הבכ	8616
לשמ	8617
##רתם	8618
הנחה	8619
מגורים	8620
רצוי	8621
כשהייתי	8622
המטבע	8623
##וסטון	8624
החלטת	8625
נותנת	8626
רוחנית	8627
התוכנה	8628
שמעולם	8629
מאפשרים	8630
זכרו	8631
ספינות	8632
המשותף	8633
ההשקעה	8634
אשמח	8635
ביקר	8636
ונשים	8637
מונה	8638
רט	8639
##רר	8640
##כניים	8641
##ָר	8642
מאמצ	8643
##ועי	8644
שאומר	8645
הבנות	8646
הקוס	8647
ההתחלה	8648
##שוו	8649
הדואר	8650
ניתנת	8651
יצחק	8652
##פונית	8653
גילוי	8654
לפתע	8655
הרוחני	8656
האתגרים	8657
הדרושים	8658
ww	8659
דירות	8660
פלטפור	8661
מהלך	8662
העיתון	8663
משתי	8664
##לאם	8665
הסוציא	8666
הגורם	8667
ההומ	8668
לימודים	8669
מבנים	8670
מבוגר	8671
ומט	8672
הראה	8673
##ance	8674
שתק	8675
תהיו	8676
רגילה	8677
נהיגה	8678
המאסטר	8679
האירא	8680
##ירושין	8681
מקצועיים	8682
מרוצים	8683
הרחוב	8684
משפטי	8685
קונס	8686
נדרשים	8687
הוקם	8688
לנקות	8689
האינטרסים	8690
אירועי	8691
נכסים	8692
נובמבר	8693
700	8694
דל	8695
טק	8696
כוע	8697
ערו	8698
שינו	8699
##מיון	8700
##טוק	8701
##עס	8702
##כית	8703
##ey	8704
##gh	8705
אתגרים	8706
לאו	8707
##יפי	8708
##יימה	8709
ולמע	8710
בקנה	8711
בפור	8712
חלקית	8713
לראש	8714
ספרות	8715
##בטא	8716
ההתנהגות	8717
הפעולות	8718
בשלום	8719
הקודמים	8720
גדלה	8721
ההשפעות	8722
האמיתיים	8723
מצטער	8724
החתונה	8725
%,	8726
43	8727
up	8728
דלקת	8729
מכונות	8730
צופים	8731
קונג	8732
קישורים	8733
ריכו	8734
##מני	8735
להיו	8736
להרג	8737
##ואידים	8738
הינם	8739
##כלל	8740
במי	8741
אחורה	8742
החלב	8743
שהז	8744
שהיתה	8745
הסכסוך	8746
ההון	8747
הצטרף	8748
הכשרה	8749
בפג	8750
הרבים	8751
יעלה	8752
##בטיה	8753
מהמח	8754
יקרים	8755
השליטה	8756
250	8757
הטבעי	8758
הוכחה	8759
להיפטר	8760
הנוסעים	8761
64	8762
day	8763
בכם	8764
דפוס	8765
זכו	8766
שומר	8767
תשוב	8768
##צאים	8769
##בנו	8770
##ענות	8771
##ֹא	8772
במשרה	8773
החברתי	8774
הערכים	8775
##יקי	8776
הגענו	8777
מחלקת	8778
הנזק	8779
המעור	8780
הנוער	8781
משתנים	8782
עסקיים	8783
מועדון	8784
מתייחסים	8785
##old	8786
מופת	8787
במאבק	8788
הנאצים	8789
השמאל	8790
להיפגש	8791
cont	8792
הכדורגל	8793
95	8794
אקס	8795
טרו	8796
יוק	8797
קניות	8798
##יול	8799
##פוט	8800
##ודעת	8801
באות	8802
העץ	8803
שאוה	8804
מתוק	8805
הקלה	8806
מעקב	8807
##מימות	8808
לביצוע	8809
בתקשורת	8810
ובנו	8811
מבול	8812
וללא	8813
##וננות	8814
בקר	8815
לצמצם	8816
בטבע	8817
ידו	8818
##פסים	8819
במשפט	8820
הנושאים	8821
מוסלמים	8822
ביטול	8823
מופיעה	8824
##גוריות	8825
##ivers	8826
טיפולים	8827
##נחלים	8828
דורשים	8829
comm	8830
סכנה	8831
ואחרים	8832
שיצא	8833
הפיזי	8834
האימפריה	8835
av	8836
net	8837
דינ	8838
ותה	8839
יישאר	8840
נפל	8841
##נוב	8842
המניות	8843
האלימות	8844
שאה	8845
##משכת	8846
הבירה	8847
הבתים	8848
הסול	8849
הסופ	8850
מסמך	8851
עבורו	8852
דבריו	8853
מטבע	8854
להגנה	8855
##ank	8856
##טריה	8857
אביה	8858
חזרו	8859
הרגשות	8860
עסקית	8861
ביטח	8862
יקבלו	8863
העובדות	8864
השפעת	8865
הרצפה	8866
הקולנוע	8867
פיליפ	8868
תיירות	8869
לסטודנטים	8870
הנישואין	8871
,”	8872
דמו	8873
חוט	8874
ילי	8875
לרק	8876
נוז	8877
סבא	8878
סמוך	8879
רעה	8880
תמשיך	8881
##ננות	8882
התנג	8883
התשלום	8884
לעת	8885
לחוש	8886
ליח	8887
לקום	8888
לקחו	8889
שמב	8890
##והים	8891
בכירים	8892
הלכה	8893
כשמד	8894
המתנה	8895
##קטיבי	8896
פתוחים	8897
חוקר	8898
אסון	8899
התחילה	8900
רוחני	8901
לתקשר	8902
הסכמה	8903
לימודי	8904
נישואין	8905
פירושו	8906
משתתפים	8907
ולפעמים	8908
53	8909
war	8910
הוציא	8911
לוס	8912
לומד	8913
מיר	8914
מפקד	8915
ניכ	8916
נכונות	8917
פנט	8918
רשויות	8919
תמצאו	8920
##אטה	8921
##רדים	8922
##ואנה	8923
##ואלית	8924
הארכ	8925
האנג	8926
האשראי	8927
השער	8928
העמ	8929
לעזרה	8930
##זהר	8931
הדמויות	8932
שמטרת	8933
##לטים	8934
חדרים	8935
עבורם	8936
התקציב	8937
הרגיל	8938
בנפרד	8939
שהגיעו	8940
סיכונים	8941
המלאה	8942
##ights	8943
ייחודית	8944
85	8945
ייחוד	8946
כוונה	8947
עסקה	8948
שכול	8949
##ישן	8950
באוט	8951
למחקר	8952
##וצי	8953
מאלה	8954
ואה	8955
הקר	8956
לשמר	8957
בהיות	8958
הצדק	8959
לחברות	8960
הנמו	8961
##חתו	8962
שעשה	8963
##ימיות	8964
המחבר	8965
##צהרה	8966
##פלציה	8967
הופעות	8968
לפעילות	8969
לרמה	8970
ברחובות	8971
חופשיים	8972
בעצמם	8973
לחגוג	8974
הספינה	8975
מרטין	8976
בנים	8977
בודד	8978
כיו	8979
לרצות	8980
מלונות	8981
עמודים	8982
פשוטים	8983
##בקים	8984
##ערת	8985
##oh	8986
##יוב	8987
היג	8988
אחים	8989
העשרים	8990
למדו	8991
משוב	8992
מאסר	8993
הסל	8994
הקוב	8995
בהתחשב	8996
מחצית	8997
##יינות	8998
##רטים	8999
מכון	9000
##ימט	9001
##חייבות	9002
##עינית	9003
קורבנות	9004
אופטימ	9005
השלכות	9006
1948	9007
מהחיים	9008
תומכים	9009
sw	9010
ארד	9011
דתי	9012
יכ	9013
פיטר	9014
קישור	9015
האומה	9016
האוצר	9017
באיזו	9018
במידע	9019
במדיניות	9020
התודעה	9021
בשילוב	9022
הקיר	9023
##יטוא	9024
מענה	9025
הצט	9026
בתנאי	9027
בסכנה	9028
##יצוץ	9029
הטיסה	9030
לתא	9031
כמוך	9032
##פקוד	9033
הלכתי	9034
נתקל	9035
למשפט	9036
ופיתוח	9037
הסרטן	9038
ממוש	9039
משלמים	9040
פרקים	9041
זוגות	9042
החשיבות	9043
היסוד	9044
לצערי	9045
מתכננים	9046
fre	9047
דמויות	9048
ויליאם	9049
זמנים	9050
חטא	9051
עולים	9052
פסטיבל	9053
קסם	9054
##בקות	9055
##שׁ	9056
##ורן	9057
##ולנד	9058
המלו	9059
##ישלון	9060
##יבטים	9061
התואר	9062
בעונה	9063
לעצב	9064
הפיק	9065
ואכן	9066
הקיימים	9067
מעניינים	9068
הגזע	9069
##אתם	9070
הדוקט	9071
לקידום	9072
עצים	9073
עצמן	9074
תקצ	9075
יעד	9076
##פשרו	9077
אהוב	9078
##בקשים	9079
פנימית	9080
במוח	9081
120	9082
##ase	9083
האישיות	9084
ארבעת	9085
המבצע	9086
המלצות	9087
להסתיר	9088
עקבו	9089
סוכנות	9090
שמאפשר	9091
האלקטרוני	9092
hiv	9093
pe	9094
גברת	9095
חווים	9096
מוני	9097
מרחק	9098
ערוץ	9099
##af	9100
##sh	9101
##bc	9102
##נושות	9103
השעון	9104
באר	9105
התז	9106
##נתם	9107
##יסא	9108
ההנה	9109
בחינוך	9110
הרפת	9111
בכיתה	9112
וכמו	9113
שקיבל	9114
הנוג	9115
כתבי	9116
##פלסט	9117
אספקת	9118
187	9119
מועמד	9120
במוזיאון	9121
בעברית	9122
ייתן	9123
אמריקאית	9124
לעצמה	9125
המשיכו	9126
הגרמנית	9127
americ	9128
מתאימים	9129
ברכב	9130
##ext	9131
להרשות	9132
עיתונאים	9133
##ליגנציה	9134
life	9135
sec	9136
אפריל	9137
דצמבר	9138
לכולנו	9139
ערבי	9140
צוח	9141
שנוע	9142
##איים	9143
##מישה	9144
##פין	9145
##שומת	9146
##ile	9147
##ַל	9148
##ומכים	9149
באותם	9150
הערות	9151
##וצץ	9152
מאיפה	9153
##וגן	9154
הסופי	9155
הסובי	9156
##רבת	9157
הפסיכולוג	9158
הקיים	9159
##רגת	9160
לשוב	9161
##רכב	9162
לחודש	9163
מקומית	9164
שמגיע	9165
אחדות	9166
##וננו	9167
שנאה	9168
בימינו	9169
לכבוד	9170
##קטור	9171
אדמות	9172
מוסיף	9173
התחושה	9174
מלחמות	9175
ובעיקר	9176
שנעשה	9177
נוכח	9178
המפגש	9179
החליטו	9180
האקדמיה	9181
באפשרותך	9182
--	9183
aw	9184
גרסה	9185
ופת	9186
מיט	9187
פליטים	9188
רעים	9189
שיס	9190
תורה	9191
##port	9192
##ֵי	9193
להיח	9194
השיווק	9195
התמק	9196
##וחי	9197
##יעוט	9198
##פרה	9199
הסופית	9200
לפלסט	9201
בהיר	9202
לגברים	9203
ברע	9204
יציבות	9205
התעל	9206
מוזמנים	9207
##בולוציה	9208
תלויה	9209
דורשת	9210
הסכום	9211
נמנע	9212
מעדיפים	9213
הסיכוי	9214
בנסיבות	9215
מצחיק	9216
##ראקציה	9217
des	9218
gre	9219
mac	9220
בנג	9221
דומ	9222
חצ	9223
טייס	9224
משרת	9225
נרח	9226
סבור	9227
סבתא	9228
##מאי	9229
##פיד	9230
##שטיין	9231
##חל	9232
##חז	9233
##נום	9234
לאישה	9235
האולי	9236
עלו	9237
##ידקים	9238
מאוניברסיטת	9239
אייר	9240
איחוד	9241
לעסקים	9242
הביאו	9243
בשב	9244
##יטרה	9245
לשתי	9246
לשבור	9247
##יפיות	9248
##בהיר	9249
##סקות	9250
נעליים	9251
אינכם	9252
כשיש	9253
##קטיבית	9254
##בירו	9255
התחלה	9256
בראיון	9257
רפואה	9258
מובילים	9259
הקשור	9260
ולעשות	9261
כיסוי	9262
ינואר	9263
41	9264
sch	9265
אעשה	9266
חוף	9267
לוי	9268
מלי	9269
מיום	9270
נרש	9271
פינ	9272
צהוב	9273
תפסיק	9274
##מניה	9275
##לר	9276
##גרה	9277
##pn	9278
##ךְ	9279
##יווד	9280
##יומים	9281
השיג	9282
השגר	9283
התאים	9284
##וחח	9285
לעסוק	9286
הקת	9287
##יטור	9288
הדמות	9289
בחיפוש	9290
שעושה	9291
תקבל	9292
הלכת	9293
קורסים	9294
180	9295
שומעים	9296
##מעלה	9297
הפסקה	9298
בידיים	9299
הקשורות	9300
סיפרה	9301
רישום	9302
##ואליציה	9303
הצרפתית	9304
"[	9305
אנה	9306
אזהרה	9307
ליב	9308
עדים	9309
פונק	9310
תכש	9311
##ys	9312
##fl	9313
לאיש	9314
לארצות	9315
##כלול	9316
השיב	9317
השוו	9318
מתנות	9319
##יפיור	9320
מעריכים	9321
לבכות	9322
ובד	9323
שמור	9324
לכב	9325
וחבר	9326
##יזציה	9327
ניסויים	9328
תשעה	9329
##ליטת	9330
מיוע	9331
חמורה	9332
קשיים	9333
האיכות	9334
1945	9335
רשאי	9336
תיאטרון	9337
דיוויד	9338
##נרל	9339
כעס	9340
המושלם	9341
פיזי	9342
מיידית	9343
משלהם	9344
עריכת	9345
59	9346
bus	9347
ic	9348
אע	9349
דגל	9350
חינו	9351
כמת	9352
מלווה	9353
ראתה	9354
שדי	9355
תום	9356
##גול	9357
##גנו	9358
##גלות	9359
##der	9360
##רוח	9361
מהמו	9362
אחדים	9363
מאורג	9364
שאדם	9365
הפצ	9366
לשום	9367
##נטו	9368
הצו	9369
לחדש	9370
בתמורה	9371
בחברת	9372
שביצ	9373
הטקסט	9374
לסוג	9375
מטה	9376
מטע	9377
התערוכה	9378
בהתבסס	9379
להשיב	9380
להשגת	9381
מיועד	9382
נשארו	9383
המועדון	9384
פלסטינית	9385
החמישי	9386
##יוויד	9387
שתוכלו	9388
הצפוני	9389
הסתיימה	9390
דן	9391
דעה	9392
וילדים	9393
כושר	9394
כרגיל	9395
מנד	9396
סוס	9397
סמית	9398
ענ	9399
שופט	9400
##טוס	9401
##פוץ	9402
##ורידה	9403
##רופ	9404
החס	9405
למשרד	9406
##וצרות	9407
לעוד	9408
בשיעור	9409
הקסם	9410
בהצ	9411
מחליט	9412
מחסור	9413
בתה	9414
הכותרת	9415
בסעיף	9416
הטעם	9417
מפגש	9418
ידעה	9419
להפיק	9420
נפגש	9421
##out	9422
נאמנות	9423
##בחרו	9424
כהן	9425
הנהר	9426
פרש	9427
1944	9428
הרפוא	9429
הגבוהים	9430
כרטיסי	9431
דתית	9432
##יתונאים	9433
האתגר	9434
חכמה	9435
פוגע	9436
לממשלה	9437
##נמרק	9438
פרנסיסקו	9439
human	9440
טיימס	9441
ec	9442
דק	9443
הלט	9444
סודות	9445
##זבת	9446
##tr	9447
לאמץ	9448
שהוש	9449
למסקנה	9450
מאמן	9451
הסופר	9452
מתפת	9453
הפש	9454
לביט	9455
אמרת	9456
אפריק	9457
##ern	9458
##סקו	9459
##ons	9460
המקומיים	9461
##anc	9462
יצאה	9463
##שמע	9464
אירלנד	9465
אסירים	9466
תכניות	9467
חייך	9468
##ign	9469
יגיעו	9470
בסיסי	9471
העליונה	9472
##טונו	9473
הכנסות	9474
שהעולם	9475
כישלון	9476
קובץ	9477
ass	9478
שראיתי	9479
tw	9480
דומות	9481
צר	9482
שחרור	9483
##ֶם	9484
##פנו	9485
##line	9486
לאחת	9487
השנתי	9488
למדינות	9489
משי	9490
מארק	9491
##יפון	9492
אלן	9493
בסמים	9494
הטכני	9495
##וזרים	9496
להתפתחות	9497
לגעת	9498
לגדל	9499
עדכון	9500
לנוע	9501
יציב	9502
וכדי	9503
##תחילו	9504
המסלול	9505
וזהו	9506
לפתרון	9507
המודל	9508
שמשהו	9509
היצירה	9510
במצבים	9511
זיהוי	9512
הפנימית	9513
מביאים	9514
ייקח	9515
דמוקרטית	9516
המותג	9517
67	9518
היותר	9519
ויז	9520
מִ	9521
נכס	9522
צא	9523
שרבים	9524
##פיס	9525
##פלת	9526
##דתי	9527
##חח	9528
##נוני	9529
להרים	9530
הארגונים	9531
##ופשה	9532
באפריקה	9533
החליטה	9534
שהוב	9535
##להבות	9536
ואינו	9537
ואומר	9538
ואנשים	9539
##רגם	9540
לבדו	9541
אמן	9542
ובמה	9543
##וזיציה	9544
##יגוד	9545
בגדה	9546
##יכוח	9547
המתים	9548
נשמה	9549
יחדיו	9550
הגבולות	9551
מופע	9552
ידענו	9553
לרופא	9554
##יניהן	9555
מתעור	9556
אצלי	9557
פילוס	9558
ההבדלים	9559
דוגמא	9560
##רוסופט	9561
לטייל	9562
מתכוונים	9563
מוקדמת	9564
מפחיד	9565
לואיס	9566
58	9567
watch	9568
גובה	9569
גשם	9570
הות	9571
חמו	9572
סך	9573
סינ	9574
##נור	9575
##נקה	9576
##ונס	9577
##שרו	9578
שלישית	9579
##וריא	9580
מהות	9581
החיסון	9582
שהרי	9583
שהדבר	9584
##יקן	9585
##יקון	9586
התובע	9587
שאלת	9588
".[	9589
מבקר	9590
שנשא	9591
מגלים	9592
שעון	9593
הלכו	9594
תהליכים	9595
ולהצ	9596
ותע	9597
במוע	9598
למחוק	9599
המשיכה	9600
שוקולד	9601
הפגישה	9602
נאלץ	9603
באחריות	9604
המצלמה	9605
56	9606
אמה	9607
הרים	9608
זרה	9609
מפה	9610
סמל	9611
צופה	9612
##נדים	9613
##שנו	9614
##12	9615
##ְר	9616
##gr	9617
##יתן	9618
המדה	9619
המיקום	9620
לאינטרנט	9621
אוז	9622
למים	9623
##יאונים	9624
הבקשה	9625
בשאלה	9626
##נסי	9627
##כוז	9628
לתוצאות	9629
##חקים	9630
שנמ	9631
יצירה	9632
יצליח	9633
##וריית	9634
הנוגע	9635
אורחים	9636
אובייקט	9637
התגלה	9638
חתול	9639
וברא	9640
ובכלל	9641
הלוואה	9642
קדוש	9643
univers	9644
##ake	9645
המורכ	9646
המובילים	9647
בודדים	9648
אלכסנדר	9649
מסחרי	9650
לתוכנית	9651
international	9652
אוד	9653
ברב	9654
קרק	9655
קאר	9656
שרת	9657
ששת	9658
##פץ	9659
##כיות	9660
הממוק	9661
להיא	9662
##תייש	9663
הייח	9664
במשהו	9665
החולה	9666
כלכליים	9667
משלם	9668
שאיר	9669
##נתר	9670
מעורר	9671
##ייג	9672
מקלט	9673
שבק	9674
##ישהי	9675
בגוד	9676
בכבוד	9677
רצתה	9678
יחידה	9679
נמצאות	9680
החלומות	9681
פרשת	9682
ארבעים	9683
1989	9684
לברר	9685
הרצח	9686
הטבעית	9687
המוסיקה	9688
כפול	9689
''.	9690
נישואים	9691
הדרומי	9692
החקירה	9693
מרכיב	9694
act	9695
tag	9696
אכל	9697
אשתי	9698
הנט	9699
זילנד	9700
חווה	9701
כף	9702
מכונה	9703
עוסק	9704
שטר	9705
##ממה	9706
##הר	9707
##דאי	9708
##ךָ	9709
##חף	9710
##ok	9711
לאותו	9712
האבטחה	9713
היקף	9714
##ידס	9715
במדבר	9716
אחות	9717
אונס	9718
אוקרא	9719
ואלה	9720
הקיצוני	9721
מעשים	9722
מעריך	9723
שבש	9724
מכדי	9725
אזורי	9726
##יגות	9727
##נקציות	9728
להגשים	9729
המסת	9730
יחזור	9731
##ise	9732
##ions	9733
הוראה	9734
כביש	9735
עיראק	9736
הרעיונות	9737
סימני	9738
משמשים	9739
צהריים	9740
שאחרי	9741
פותח	9742
החופשי	9743
דוקטור	9744
##זאזל	9745
cent	9746
cook	9747
חשים	9748
ייפ	9749
מוא	9750
נסה	9751
פומ	9752
קלים	9753
קושי	9754
##אפשר	9755
##מרות	9756
##ציונ	9757
שלט	9758
המידה	9759
##ודדים	9760
לאשר	9761
##ירויות	9762
אחרונה	9763
משטר	9764
לעזאזל	9765
הביקור	9766
הסוד	9767
הסיפורים	9768
בשו	9769
הפוך	9770
מחכים	9771
לחצו	9772
ולראות	9773
מכר	9774
כמוני	9775
בבת	9776
יצטרכו	9777
הרוגים	9778
נקראת	9779
מאזן	9780
מוסד	9781
תגיות	9782
##כנולוגיות	9783
המשפטי	9784
מופיעים	9785
נדבר	9786
לתקוף	9787
תפילה	9788
עוזרים	9789
מיקרו	9790
ענקית	9791
ומדוע	9792
אֶת	9793
el	9794
גני	9795
חמים	9796
יופ	9797
יורד	9798
נוטה	9799
פוס	9800
קינג	9801
’.	9802
##ֶה	9803
##ייד	9804
##ביע	9805
##בורים	9806
##כורת	9807
##ms	9808
##נוג	9809
להנ	9810
להורים	9811
##לישה	9812
באתי	9813
החזון	9814
כללים	9815
##ועת	9816
##בלנות	9817
לעשן	9818
בשבת	9819
הקרח	9820
##וויץ	9821
מקסיקו	9822
בחנות	9823
בחודשים	9824
היוע	9825
עצב	9826
להתפתח	9827
לדרוש	9828
לכבד	9829
##יכוב	9830
כולן	9831
וחס	9832
רגשית	9833
הפרה	9834
הפרעות	9835
נפוצה	9836
המטבח	9837
ההתפתחות	9838
הוריו	9839
קולומ	9840
מצביעים	9841
##גוררים	9842
ילדיהם	9843
באירוע	9844
קלינטון	9845
ובעלי	9846
הקורס	9847
מחויבות	9848
מבקשת	9849
הצטרפו	9850
##דיביד	9851
do	9852
ברגל	9853
גאים	9854
נגר	9855
קנה	9856
שתח	9857
##ממות	9858
##ננה	9859
##צרות	9860
##קתי	9861
##קנים	9862
##גרי	9863
##bs	9864
##ניתי	9865
המורים	9866
##ילך	9867
##ליא	9868
השכר	9869
במשא	9870
אחרון	9871
הסיוע	9872
הפשוט	9873
הפתיחה	9874
הקומ	9875
מעצב	9876
מקובל	9877
אמנים	9878
כאבי	9879
##מציא	9880
בקלי	9881
##פקים	9882
בדקו	9883
##מודי	9884
##רקציות	9885
בצבע	9886
##ימונים	9887
נערה	9888
כשנ	9889
רעש	9890
מועיל	9891
ופשוט	9892
פגישה	9893
משקאות	9894
היסטורית	9895
comp	9896
עמדות	9897
##ליקציות	9898
נמוכים	9899
נוצרים	9900
שעליו	9901
הקונס	9902
המנהלים	9903
www	9904
!)	9905
54	9906
72	9907
mus	9908
not	9909
בפת	9910
דורות	9911
ויד	9912
זכר	9913
נתי	9914
פוש	9915
##יכול	9916
הארצ	9917
##רוכות	9918
באהבה	9919
במבט	9920
בערים	9921
מסי	9922
מעגל	9923
לבי	9924
##אלים	9925
בחורף	9926
שבוצ	9927
##אינט	9928
##חדשות	9929
לגייס	9930
בפארק	9931
ממתי	9932
##מדתי	9933
כמח	9934
נוסע	9935
##רסו	9936
##ארית	9937
לטוב	9938
ותמיד	9939
היחס	9940
גורמי	9941
לרעה	9942
##עתיד	9943
זקוקה	9944
עשורים	9945
1000	9946
התוכניות	9947
מהאנשים	9948
תפקידים	9949
טענה	9950
טענות	9951
מנהיגי	9952
להתעורר	9953
עונת	9954
מסעדות	9955
play	9956
דיווחו	9957
מודרני	9958
מנגנון	9959
acc	9960
66	9961
ev	9962
אריק	9963
בוגר	9964
יראה	9965
יושבים	9966
כשת	9967
מפק	9968
נשל	9969
נודע	9970
עמנו	9971
פוח	9972
קלות	9973
שווים	9974
##ותקים	9975
##נוי	9976
המכתב	9977
להשו	9978
לארגון	9979
##יומי	9980
האה	9981
האוה	9982
##ומטר	9983
מהנה	9984
אישר	9985
##פרק	9986
מעמ	9987
ההרג	9988
"...	9989
הכפ	9990
במהרה	9991
נשלח	9992
הודעת	9993
אינטנס	9994
ברוכים	9995
##ade	9996
נשארים	9997
תנועות	9998
ניצול	9999
