<unk>	0
<s>	0
</s>	0
▁ה	-0
▁ל	-1
▁א	-2
▁מ	-3
ים	-4
▁ב	-5
ות	-6
▁ש	-7
▁ע	-8
▁כ	-9
▁ו	-10
▁י	-11
ני	-12
▁של	-13
ור	-14
ול	-15
נו	-16
▁את	-17
ית	-18
רו	-19
▁המ	-20
▁ח	-21
וד	-22
▁לה	-23
רי	-24
▁לא	-25
▁הי	-26
די	-27
▁ז	-28
▁ת	-29
▁נ	-30
לי	-31
בר	-32
▁הא	-33
נה	-34
וא	-35
▁פ	-36
וב	-37
▁ק	-38
▁על	-39
ון	-40
יר	-41
יל	-42
▁ג	-43
יות	-44
יה	-45
רא	-46
ומ	-47
ין	-48
תי	-49
▁ס	-50
מו	-51
ום	-52
▁ר	-53
שי	-54
▁"	-55
מה	-56
נים	-57
▁מה	-58
כל	-59
▁ד	-60
מי	-61
שה	-62
▁זה	-63
שר	-64
ופ	-65
בי	-66
נות	-67
▁בא	-68
▁אח	-69
לה	-70
▁שה	-71
▁הוא	-72
▁אי	-73
▁הח	-74
וק	-75
סי	-76
▁צ	-77
טי	-78
וח	-79
▁כל	-80
▁הש	-81
▁הע	-82
▁במ	-83
▁או	-84
▁הת	-85
בל	-86
רים	-87
▁למ	-88
▁מא	-89
שים	-90
▁וה	-91
בו	-92
▁בע	-93
▁יש	-94
יי	-95
לא	-96
▁שא	-97
גי	-98
ספ	-99
▁מש	-100
▁עם	-101
כול	-102
▁לע	-103
לו	-104
זה	-105
▁הפ	-106
רה	-107
בה	-108
▁ט	-109
▁(	-110
יים	-111
▁מת	-112
▁אות	-113
צי	-114
וג	-115
▁כי	-116
▁מי	-117
וע	-118
ותר	-119
את	-120
שו	-121
▁הק	-122
נת	-123
▁בי	-124
▁בש	-125
רכ	-126
▁אני	-127
▁שי	-128
מש	-129
נית	-130
▁1	-131
▁לפ	-132
מת	-133
▁היא	-134
▁מע	-135
▁הה	-136
▁הב	-137
▁יותר	-138
▁רו	-139
דים	-140
..	-141
▁לי	-142
▁לש	-143
".	-144
▁גם	-145
וי	-146
▁הר	-147
▁אנ	-148
וכ	-149
▁וא	-150
▁יכול	-151
וש	-152
בים	-153
▁בה	-154
וצ	-155
מים	-156
עות	-157
דר	-158
וס	-159
▁היה	-160
▁מח	-161
יק	-162
עה	-163
ולם	-164
דה	-165
▁לח	-166
▁לב	-167
▁אם	-168
▁2	-169
▁בת	-170
טר	-171
▁הג	-172
כם	-173
שות	-174
▁מק	-175
בות	-176
▁מס	-177
בור	-178
▁אמ	-179
▁הם	-180
שת	-181
▁הכ	-182
פי	-183
מן	-184
חר	-185
▁לק	-186
כו	-187
לק	-188
רח	-189
▁בח	-190
▁כא	-191
▁נו	-192
▁הס	-193
רג	-194
▁הנ	-195
▁אבל	-196
לים	-197
רת	-198
▁-	-199
00	-200
▁הצ	-201
בע	-202
מצ	-203
דע	-204
אי	-205
נס	-206
דם	-207
▁הז	-208
וו	-209
קה	-210
צה	-211
מות	-212
אה	-213
אים	-214
אות	-215
חת	-216
פה	-217
▁הד	-218
כה	-219
▁כדי	-220
יו	-221
▁רק	-222
▁להיות	-223
▁–	-224
חה	-225
▁ומ	-226
עים	-227
חות	-228
▁אל	-229
חנו	-230
▁אתה	-231
נט	-232
פר	-233
▁ול	-234
▁שמ	-235
כן	-236
ירות	-237
בת	-238
▁אחד	-239
קי	-240
ורה	-241
פת	-242
בוד	-243
קר	-244
▁אפ	-245
▁לת	-246
וף	-247
ברים	-248
רות	-249
ונ	-250
▁פע	-251
▁כמו	-252
יותר	-253
כת	-254
דו	-255
▁עצ	-256
▁כך	-257
▁צרי	-258
ולי	-259
▁להת	-260
▁מצ	-261
הם	-262
שא	-263
וז	-264
ספר	-265
דול	-266
▁וב	-267
וך	-268
חי	-269
יתה	-270
וני	-271
שוב	-272
עת	-273
▁שלי	-274
▁סי	-275
ורים	-276
סט	-277
ירה	-278
לות	-279
▁זו	-280
כים	-281
קים	-282
▁ביותר	-283
▁שלך	-284
▁הרא	-285
▁מב	-286
יתי	-287
▁בכל	-288
▁לג	-289
▁בס	-290
▁ני	-291
לת	-292
ראל	-293
דות	-294
▁יה	-295
לב	-296
▁האי	-297
▁טוב	-298
▁הט	-299
נג	-300
▁אז	-301
ילו	-302
טים	-303
...	-304
▁עד	-305
▁ממ	-306
ונים	-307
▁מכ	-308
יא	-309
▁רא	-310
טה	-311
כות	-312
ילה	-313
▁זאת	-314
▁המש	-315
▁לו	-316
▁ידי	-317
▁בר	-318
▁די	-319
▁וע	-320
פור	-321
▁האם	-322
▁הזה	-323
▁שנ	-324
חק	-325
er	-326
▁אותו	-327
ומר	-328
▁עלי	-329
שהו	-330
▁שלו	-331
▁בג	-332
▁בפ	-333
▁בב	-334
▁אנחנו	-335
מוד	-336
▁בין	-337
▁שלנו	-338
דת	-339
עי	-340
▁בק	-341
אר	-342
ראה	-343
▁כמה	-344
▁חי	-345
▁מדי	-346
לח	-347
▁שע	-348
in	-349
▁אין	-350
01	-351
▁מאוד	-352
▁בכ	-353
ניות	-354
וט	-355
זור	-356
תה	-357
רב	-358
יש	-359
▁חד	-360
▁עבור	-361
▁19	-362
ופן	-363
רון	-364
-1	-365
גיע	-366
▁מפ	-367
▁לך	-368
▁היו	-369
חד	-370
▁פר	-371
▁לפני	-372
או	-373
",	-374
▁לנו	-375
פות	-376
▁אנשים	-377
רך	-378
סף	-379
on	-380
מע	-381
ניים	-382
ולה	-383
▁לד	-384
▁לאחר	-385
▁אך	-386
לט	-387
▁פי	-388
כי	-389
an	-390
).	-391
▁S	-392
צים	-393
▁לעשות	-394
▁מד	-395
ורי	-396
ברה	-397
חים	-398
▁עוד	-399
▁צריך	-400
▁בני	-401
ילים	-402
מר	-403
קום	-404
▁אנו	-405
מיד	-406
שב	-407
▁שהוא	-408
לך	-409
▁3	-410
סים	-411
נק	-412
▁לכ	-413
ירים	-414
▁בו	-415
▁דבר	-416
▁כבר	-417
כון	-418
צות	-419
ניה	-420
של	-421
▁יוד	-422
▁עו	-423
סק	-424
▁שב	-425
חו	-426
▁לצ	-427
▁איך	-428
▁הכל	-429
▁ולא	-430
פים	-431
▁אמר	-432
דרך	-433
▁האח	-434
▁הבי	-435
▁הרבה	-436
בודה	-437
ינו	-438
רט	-439
▁כאשר	-440
▁מג	-441
▁בצ	-442
▁שלא	-443
▁ישראל	-444
▁A	-445
יע	-446
▁אינ	-447
▁בט	-448
▁המח	-449
▁שלהם	-450
▁חיי	-451
▁C	-452
קות	-453
▁אשר	-454
▁הסי	-455
▁אלה	-456
אל	-457
▁מז	-458
▁שני	-459
▁בנו	-460
▁נית	-461
▁אתם	-462
▁גדול	-463
▁באופן	-464
▁201	-465
ונה	-466
פשר	-467
נד	-468
סה	-469
ורת	-470
▁אלי	-471
▁שם	-472
▁אלו	-473
▁חלק	-474
סת	-475
שית	-476
▁היום	-477
נשים	-478
▁במה	-479
צר	-480
▁רוצה	-481
שון	-482
▁שנים	-483
▁אדם	-484
▁השי	-485
▁יל	-486
▁מר	-487
צע	-488
ווה	-489
גר	-490
וכל	-491
▁אחר	-492
▁אחת	-493
."	-494
ומי	-495
▁בד	-496
▁וי	-497
▁אחרי	-498
▁T	-499
ריק	-500
ילות	-501
בא	-502
ברת	-503
ar	-504
▁M	-505
▁שלה	-506
▁שבו	-507
ורך	-508
שיו	-509
מית	-510
or	-511
▁כול	-512
צת	-513
פו	-514
en	-515
פט	-516
▁למע	-517
▁זמן	-518
▁שת	-519
▁העולם	-520
▁נע	-521
▁'	-522
▁תק	-523
ולים	-524
פל	-525
▁לכל	-526
מד	-527
בד	-528
מוש	-529
▁לרא	-530
al	-531
▁יכולים	-532
קד	-533
▁כש	-534
▁להי	-535
חיל	-536
ברי	-537
▁להם	-538
es	-539
▁טי	-540
▁כן	-541
at	-542
גע	-543
▁הרו	-544
יצ	-545
סטי	-546
▁עדי	-547
מא	-548
כנ	-549
▁P	-550
▁הייתה	-551
צוע	-552
▁נת	-553
▁“	-554
וות	-555
▁ות	-556
▁אפשר	-557
-2	-558
▁אותם	-559
▁יום	-560
▁וכ	-561
▁תה	-562
▁במש	-563
הים	-564
▁יהיה	-565
▁בית	-566
ורות	-567
▁המק	-568
▁במי	-569
▁המע	-570
גה	-571
כשיו	-572
▁מט	-573
▁ולה	-574
צל	-575
תר	-576
▁שיש	-577
צב	-578
▁חוש	-579
▁בז	-580
ינ	-581
ומים	-582
▁4	-583
▁שאני	-584
▁קט	-585
▁בדי	-586
▁פעם	-587
▁המת	-588
▁אחרים	-589
▁ממש	-590
גים	-591
רכת	-592
▁שלכם	-593
▁לס	-594
לית	-595
▁הנו	-596
▁ניתן	-597
זו	-598
▁כת	-599
▁כאן	-600
▁הראשו	-601
ומה	-602
טח	-603
▁וח	-604
תיים	-605
▁תמיד	-606
▁בשנת	-607
פש	-608
ודה	-609
וריה	-610
▁5	-611
▁הל	-612
רוב	-613
וחות	-614
▁למה	-615
▁שהם	-616
▁B	-617
▁ספ	-618
▁חשוב	-619
▁אף	-620
▁לל	-621
גד	-622
▁רבים	-623
▁להפ	-624
ופה	-625
▁מספר	-626
רק	-627
רכז	-628
תם	-629
▁ואת	-630
▁אותה	-631
▁שנה	-632
▁קי	-633
he	-634
רץ	-635
▁יע	-636
אני	-637
דינה	-638
פול	-639
▁יצ	-640
עם	-641
מין	-642
אן	-643
רום	-644
גם	-645
ובה	-646
▁שכ	-647
▁בעולם	-648
▁אלא	-649
▁בל	-650
חס	-651
▁משהו	-652
▁ברי	-653
▁חז	-654
שוט	-655
▁משת	-656
▁מספ	-657
▁מוצ	-658
▁נמצ	-659
▁שק	-660
▁באמצ	-661
▁מילי	-662
▁נה	-663
ניין	-664
▁האמ	-665
▁הגדול	-666
▁ללא	-667
ונות	-668
▁וש	-669
▁עוב	-670
ולוג	-671
▁עדיין	-672
נחנו	-673
ער	-674
אם	-675
רונות	-676
וץ	-677
),	-678
צד	-679
▁נש	-680
▁תח	-681
▁לכם	-682
ic	-683
ציה	-684
▁המי	-685
וסי	-686
לם	-687
▁נק	-688
▁200	-689
▁דרך	-690
▁הצי	-691
▁צי	-692
בוה	-693
▁עכשיו	-694
לל	-695
מעות	-696
קת	-697
▁D	-698
▁אר	-699
▁אומר	-700
▁לר	-701
ירת	-702
▁לראות	-703
▁I	-704
ודי	-705
טו	-706
גיש	-707
▁באמת	-708
▁פת	-709
ומות	-710
▁שח	-711
כנס	-712
יהם	-713
▁הכי	-714
קש	-715
it	-716
בוע	-717
▁הראשון	-718
▁[	-719
▁W	-720
▁רי	-721
▁להשת	-722
דש	-723
וחד	-724
ביר	-725
▁במהלך	-726
▁בלי	-727
▁הן	-728
▁במק	-729
▁אפילו	-730
▁אולי	-731
▁התי	-732
▁לנ	-733
▁נפ	-734
מור	-735
▁אותי	-736
▁המס	-737
▁שאתה	-738
▁H	-739
ירו	-740
▁הזמן	-741
גל	-742
מונה	-743
▁נוספ	-744
▁כמ	-745
▁עשו	-746
▁האדם	-747
▁הדי	-748
קו	-749
▁פשוט	-750
ודים	-751
▁אוה	-752
ודות	-753
שראל	-754
דור	-755
▁חיים	-756
▁שזה	-757
▁הספר	-758
▁עצמ	-759
▁בבית	-760
▁גר	-761
▁כשה	-762
▁השני	-763
ברית	-764
▁בדרך	-765
▁החיים	-766
▁הול	-767
צור	-768
וה	-769
עד	-770
ולות	-771
ברות	-772
תח	-773
st	-774
צמ	-775
▁באמצעות	-776
▁להב	-777
▁L	-778
צח	-779
▁היל	-780
▁G	-781
▁תע	-782
פע	-783
▁אה	-784
▁מוכ	-785
▁ונ	-786
▁יודע	-787
le	-788
▁לקבל	-789
▁נח	-790
▁לט	-791
▁המא	-792
▁חוק	-793
▁הלי	-794
▁משפ	-795
גות	-796
▁מקום	-797
מעט	-798
ליה	-799
▁מצי	-800
ריות	-801
ווי	-802
▁היתה	-803
▁אומ	-804
טרה	-805
גש	-806
פון	-807
ופי	-808
▁R	-809
ou	-810
▁אינו	-811
ביל	-812
ריך	-813
▁ית	-814
▁תוכ	-815
חז	-816
▁רח	-817
▁תפ	-818
▁חש	-819
▁.	-820
▁6	-821
▁רוצים	-822
בח	-823
▁מאז	-824
▁שהיא	-825
▁שוב	-826
ותו	-827
▁דברים	-828
▁כלל	-829
re	-830
ליים	-831
▁מלא	-832
בט	-833
רוש	-834
בק	-835
▁F	-836
▁נראה	-837
כר	-838
דעת	-839
▁קשה	-840
רכים	-841
▁הרי	-842
נם	-843
▁צריכים	-844
ואה	-845
מל	-846
▁בסי	-847
גו	-848
▁הראשונה	-849
יס	-850
▁לז	-851
000	-852
▁מן	-853
צו	-854
טרנט	-855
▁הייתי	-856
▁E	-857
נוי	-858
▁כיצד	-859
▁מוד	-860
▁התק	-861
▁הופ	-862
שיך	-863
▁במקום	-864
זרח	-865
▁יכולה	-866
עו	-867
ובן	-868
▁ארו	-869
om	-870
ליך	-871
▁האלה	-872
קט	-873
▁החל	-874
▁בן	-875
סטר	-876
▁לפי	-877
▁מל	-878
חל	-879
פא	-880
▁במשך	-881
▁חדש	-882
קל	-883
▁התע	-884
טת	-885
▁גבוה	-886
נלא	-887
▁השת	-888
▁אלוהים	-889
ברו	-890
▁שבה	-891
▁רג	-892
▁פחות	-893
ודש	-894
▁גי	-895
▁למצ	-896
▁ילדים	-897
▁כמעט	-898
▁כפי	-899
▁יד	-900
לסטי	-901
גת	-902
רכי	-903
▁החברה	-904
▁קור	-905
?"	-906
יח	-907
▁מיי	-908
טית	-909
▁להע	-910
▁נגד	-911
▁משמעות	-912
▁איש	-913
▁מסוג	-914
▁בתח	-915
▁בלב	-916
שאר	-917
▁ספר	-918
יקר	-919
▁יוצ	-920
וקר	-921
▁גור	-922
▁נא	-923
▁הפר	-924
נון	-925
ואר	-926
▁תש	-927
▁לפע	-928
▁אית	-929
▁מכל	-930
▁שתי	-931
▁רוב	-932
▁אירו	-933
▁מנה	-934
ריים	-935
▁t	-936
▁הדבר	-937
יד	-938
ביב	-939
is	-940
▁N	-941
ומית	-942
▁מוש	-943
▁ההת	-944
▁להג	-945
נוע	-946
וקים	-947
▁מהם	-948
נן	-949
שם	-950
▁מידע	-951
בית	-952
▁פני	-953
סו	-954
▁7	-955
▁אור	-956
מפ	-957
-19	-958
ומת	-959
לחמה	-960
▁הלא	-961
▁עצמו	-962
▁דול	-963
▁סט	-964
מס	-965
ion	-966
מון	-967
הי	-968
▁הגי	-969
▁הזו	-970
▁קרו	-971
מנות	-972
וסט	-973
▁עושה	-974
חור	-975
יקה	-976
גור	-977
▁קוד	-978
▁בתוך	-979
קס	-980
▁למי	-981
▁לכן	-982
▁צע	-983
▁פרו	-984
▁אותך	-985
▁מיליון	-986
ריה	-987
▁הברית	-988
▁המדינה	-989
▁בהת	-990
▁10	-991
▁להש	-992
▁קבו	-993
▁נכון	-994
זר	-995
▁עבודה	-996
▁שום	-997
▁רב	-998
el	-999
▁רבות	-1000
וצאות	-1001
▁יח	-1002
▁8	-1003
נטי	-1004
מנים	-1005
שימה	-1006
ro	-1007
▁בדיוק	-1008
▁במח	-1009
▁הטוב	-1010
▁למצוא	-1011
▁אד	-1012
ריקה	-1013
בול	-1014
▁מוע	-1015
ing	-1016
רגע	-1017
נסי	-1018
ברסי	-1019
▁ידע	-1020
▁שונים	-1021
▁למרות	-1022
תיד	-1023
▁בלתי	-1024
קור	-1025
▁ביום	-1026
▁לדעת	-1027
▁הני	-1028
▁בזמן	-1029
▁כולם	-1030
▁O	-1031
ביא	-1032
▁לגבי	-1033
סם	-1034
שיא	-1035
▁כה	-1036
▁בגלל	-1037
▁אחרת	-1038
▁בעלי	-1039
טות	-1040
▁וזה	-1041
ליות	-1042
▁מתוך	-1043
▁עשר	-1044
▁רע	-1045
▁הממש	-1046
▁חל	-1047
▁כולל	-1048
▁ואני	-1049
▁וגם	-1050
et	-1051
רגון	-1052
▁במיוחד	-1053
תו	-1054
▁במו	-1055
▁הזאת	-1056
ולוגיה	-1057
וצאה	-1058
וון	-1059
▁להשתמש	-1060
פתח	-1061
▁לכך	-1062
וחר	-1063
▁שש	-1064
,000	-1065
▁סוג	-1066
מח	-1067
▁לשי	-1068
▁מתח	-1069
▁והוא	-1070
▁השנה	-1071
▁תהיה	-1072
▁ברח	-1073
▁רצ	-1074
כויות	-1075
▁העיר	-1076
of	-1077
▁יודעים	-1078
▁תא	-1079
▁למש	-1080
דובר	-1081
למי	-1082
▁בטוח	-1083
▁להכ	-1084
▁בצורה	-1085
▁העבודה	-1086
▁היש	-1087
רבות	-1088
▁להצ	-1089
▁מתי	-1090
רונה	-1091
▁חושב	-1092
▁קצת	-1093
▁במע	-1094
▁היחי	-1095
מק	-1096
▁עי	-1097
שיים	-1098
▁הספ	-1099
▁יחד	-1100
סיה	-1101
זי	-1102
▁כזה	-1103
▁מוס	-1104
ואי	-1105
ac	-1106
על	-1107
מיים	-1108
▁הגיע	-1109
▁חס	-1110
סטוריה	-1111
▁לסי	-1112
ניי	-1113
▁בהם	-1114
▁מספיק	-1115
▁,	-1116
▁קיי	-1117
il	-1118
▁מנת	-1119
▁קל	-1120
וגי	-1121
▁מוז	-1122
▁לפחות	-1123
אלה	-1124
▁הנה	-1125
▁אש	-1126
כור	-1127
דינות	-1128
לוט	-1129
▁באי	-1130
▁הברי	-1131
עור	-1132
▁שהת	-1133
מנ	-1134
▁בנ	-1135
▁מאשר	-1136
ותה	-1137
▁חברת	-1138
וקה	-1139
▁האמריק	-1140
▁שירות	-1141
ורק	-1142
▁הדברים	-1143
וכלו	-1144
דל	-1145
▁ומה	-1146
▁ההי	-1147
משים	-1148
▁בשביל	-1149
כונה	-1150
▁התח	-1151
כב	-1152
ראי	-1153
▁שאנחנו	-1154
ol	-1155
▁דולר	-1156
▁טובה	-1157
▁כיום	-1158
ed	-1159
▁מבו	-1160
▁בשי	-1161
פחה	-1162
▁מדוע	-1163
מנו	-1164
▁מערכת	-1165
משך	-1166
משיך	-1167
▁ופ	-1168
▁18	-1169
▁ליי	-1170
▁עליו	-1171
▁הטי	-1172
▁דו	-1173
▁הפע	-1174
▁תוך	-1175
וליטי	-1176
▁החד	-1177
▁אותנו	-1178
▁להגיע	-1179
▁שר	-1180
מוך	-1181
▁עומ	-1182
▁בלבד	-1183
▁הדרך	-1184
▁שעות	-1185
ורג	-1186
▁להבין	-1187
ליח	-1188
גרים	-1189
▁9	-1190
ולד	-1191
▁בישראל	-1192
▁נשים	-1193
סור	-1194
ודשים	-1195
ציא	-1196
טחון	-1197
▁המט	-1198
▁ימים	-1199
▁האירו	-1200
▁לזה	-1201
קיד	-1202
▁חופ	-1203
▁שאתם	-1204
▁...	-1205
כתב	-1206
am	-1207
▁20	-1208
▁אוכל	-1209
▁מישהו	-1210
▁החוק	-1211
▁אינם	-1212
▁הבית	-1213
ובות	-1214
▁קר	-1215
▁כסף	-1216
מינים	-1217
▁הו	-1218
▁הבע	-1219
▁נמצא	-1220
▁יק	-1221
זרה	-1222
שרד	-1223
▁מוג	-1224
▁מסוי	-1225
טל	-1226
▁ואז	-1227
נסה	-1228
תים	-1229
▁מנ	-1230
▁קשר	-1231
▁ראש	-1232
▁אחרות	-1233
▁מכן	-1234
סון	-1235
רכות	-1236
▁טבע	-1237
▁תג	-1238
▁הוד	-1239
גיד	-1240
▁בתי	-1241
▁הור	-1242
▁מתק	-1243
oo	-1244
רגיה	-1245
▁ומת	-1246
▁עושים	-1247
▁במס	-1248
▁מור	-1249
▁שלוש	-1250
ווח	-1251
רפת	-1252
▁אינה	-1253
▁והת	-1254
▁זהו	-1255
▁בנוסף	-1256
▁תכ	-1257
▁בעוד	-1258
▁כמובן	-1259
▁מקבל	-1260
ch	-1261
מבר	-1262
▁הללו	-1263
▁למעשה	-1264
▁לקחת	-1265
as	-1266
שובה	-1267
זק	-1268
▁לתת	-1269
▁הבא	-1270
▁ללמוד	-1271
קב	-1272
אב	-1273
זון	-1274
ספק	-1275
זם	-1276
▁הרג	-1277
▁הארץ	-1278
▁לעולם	-1279
▁מזה	-1280
and	-1281
▁כנ	-1282
▁להר	-1283
▁בקר	-1284
19	-1285
▁פרי	-1286
▁קרי	-1287
▁לעבוד	-1288
▁העוב	-1289
▁ברו	-1290
סקים	-1291
מונות	-1292
▁לדבר	-1293
▁בשל	-1294
זיה	-1295
▁מבי	-1296
▁שימוש	-1297
▁מגי	-1298
▁מרו	-1299
▁שהיה	-1300
▁הממשלה	-1301
רבית	-1302
יוון	-1303
▁הכול	-1304
▁האנשים	-1305
רד	-1306
▁למו	-1307
ושר	-1308
ופו	-1309
▁להס	-1310
-3	-1311
▁יי	-1312
▁המכ	-1313
▁אופ	-1314
▁סוף	-1315
▁ועל	-1316
ומיים	-1317
▁וק	-1318
גון	-1319
▁המוצ	-1320
▁נוסף	-1321
ראש	-1322
שור	-1323
▁תי	-1324
נתי	-1325
▁נות	-1326
ליט	-1327
▁of	-1328
רטי	-1329
יתוח	-1330
▁לעזור	-1331
▁/	-1332
ילדים	-1333
▁מול	-1334
▁אפש	-1335
▁פעמים	-1336
▁קול	-1337
▁תחת	-1338
'.	-1339
▁מעל	-1340
▁The	-1341
▁מהמ	-1342
▁פור	-1343
▁פה	-1344
▁האנו	-1345
וניברסי	-1346
▁האינ	-1347
▁רש	-1348
▁החי	-1349
▁אולם	-1350
הול	-1351
▁בעצ	-1352
▁לומר	-1353
▁הלב	-1354
סות	-1355
▁מסת	-1356
▁חייב	-1357
שיג	-1358
▁וס	-1359
ודית	-1360
▁השלי	-1361
▁בעיקר	-1362
סיק	-1363
▁ומש	-1364
▁גדולה	-1365
▁קודם	-1366
▁מוק	-1367
שבון	-1368
סיון	-1369
▁השנים	-1370
▁המשפט	-1371
▁מדובר	-1372
רוא	-1373
▁דקות	-1374
0.	-1375
▁אצל	-1376
▁כוח	-1377
נטים	-1378
בן	-1379
▁המה	-1380
▁לבד	-1381
▁האחרון	-1382
▁הילדים	-1383
וסר	-1384
רמ	-1385
ent	-1386
רכה	-1387
▁15	-1388
▁מומ	-1389
▁ליצור	-1390
▁וד	-1391
▁יהיו	-1392
▁בעי	-1393
▁רואה	-1394
חלט	-1395
▁תת	-1396
צרים	-1397
▁חבר	-1398
בלו	-1399
מוק	-1400
טב	-1401
ad	-1402
נהל	-1403
▁199	-1404
ופת	-1405
גרת	-1406
▁מחדש	-1407
▁לצי	-1408
▁שנות	-1409
שונה	-1410
▁ברור	-1411
ay	-1412
▁פעולה	-1413
ופים	-1414
טיים	-1415
גישה	-1416
▁מקצוע	-1417
▁לפת	-1418
▁בכלל	-1419
וביל	-1420
▁אזרח	-1421
▁שכל	-1422
▁כד	-1423
▁?	-1424
▁מעט	-1425
רושלים	-1426
▁צריכה	-1427
▁בפני	-1428
▁קרובות	-1429
▁זק	-1430
▁שמע	-1431
קטי	-1432
כונות	-1433
כלה	-1434
▁שנת	-1435
כס	-1436
ביע	-1437
יך	-1438
ריט	-1439
שרה	-1440
נא	-1441
סל	-1442
▁נוספים	-1443
▁כח	-1444
▁חדשים	-1445
▁הציבור	-1446
▁ככל	-1447
סוף	-1448
▁בכך	-1449
▁בתחום	-1450
▁ויש	-1451
▁גיל	-1452
▁למשל	-1453
▁הפלסטי	-1454
▁הסרט	-1455
▁סרט	-1456
▁הגוף	-1457
כח	-1458
▁לבית	-1459
חרות	-1460
רפ	-1461
▁חודשים	-1462
שק	-1463
▁ארה	-1464
נויים	-1465
▁שאין	-1466
כך	-1467
▁שצ	-1468
דיו	-1469
▁מרכז	-1470
▁אוהב	-1471
טיח	-1472
▁איזה	-1473
▁זוכ	-1474
▁כאלה	-1475
▁צורך	-1476
▁שמו	-1477
▁מדינות	-1478
▁שונות	-1479
▁12	-1480
דרה	-1481
▁כעת	-1482
▁רפ	-1483
ow	-1484
▁V	-1485
▁הקט	-1486
▁שלושה	-1487
בלת	-1488
וגמה	-1489
מיכה	-1490
ובת	-1491
▁למח	-1492
תיי	-1493
iv	-1494
דמנות	-1495
ig	-1496
▁והא	-1497
▁באתר	-1498
▁רוח	-1499
▁ברחבי	-1500
▁הבינלא	-1501
מרי	-1502
▁החדש	-1503
בנה	-1504
▁תרו	-1505
▁מבחי	-1506
▁מים	-1507
▁U	-1508
▁וג	-1509
וסיף	-1510
דק	-1511
”.	-1512
▁באותו	-1513
מוקר	-1514
▁האד	-1515
▁שפ	-1516
▁וכל	-1517
▁מחקר	-1518
▁קורה	-1519
▁בעל	-1520
זל	-1521
עיון	-1522
▁עמ	-1523
▁שמת	-1524
▁משום	-1525
▁קטן	-1526
▁המל	-1527
▁המוד	-1528
ייס	-1529
ot	-1530
שיר	-1531
ביבה	-1532
▁ללכת	-1533
▁ביט	-1534
לווי	-1535
ונג	-1536
▁כגון	-1537
ופר	-1538
ראו	-1539
ציות	-1540
▁חדשה	-1541
▁לאורך	-1542
בוצה	-1543
▁מסי	-1544
וחים	-1545
▁מדע	-1546
▁שונה	-1547
▁לעתים	-1548
▁שומ	-1549
▁המוע	-1550
גן	-1551
▁האמת	-1552
▁מפני	-1553
טרו	-1554
לחמת	-1555
▁אחוז	-1556
טור	-1557
רבה	-1558
▁מוח	-1559
▁מו	-1560
▁בשנה	-1561
למידים	-1562
▁התא	-1563
▁השפ	-1564
▁ידוע	-1565
וכן	-1566
ווים	-1567
ואו	-1568
▁עובד	-1569
id	-1570
▁ובע	-1571
נסות	-1572
בלתי	-1573
▁מטר	-1574
▁לשמור	-1575
▁עצמי	-1576
קרים	-1577
▁איר	-1578
אלי	-1579
ודת	-1580
▁הבח	-1581
▁מצב	-1582
▁בתק	-1583
וכנית	-1584
רויות	-1585
▁ולכן	-1586
▁פרס	-1587
ועל	-1588
▁שהי	-1589
וויר	-1590
▁לאח	-1591
▁והמ	-1592
▁תלו	-1593
טון	-1594
us	-1595
חקים	-1596
דיה	-1597
כולם	-1598
▁לפעמים	-1599
▁ומע	-1600
▁עסק	-1601
בוש	-1602
▁משחק	-1603
▁להשיג	-1604
▁לכת	-1605
▁להפוך	-1606
▁לקרוא	-1607
▁טר	-1608
▁לתק	-1609
▁כדור	-1610
▁מעור	-1611
קבות	-1612
▁נור	-1613
▁ממנו	-1614
▁בפר	-1615
▁מכו	-1616
▁תנו	-1617
בוק	-1618
בלה	-1619
ציאות	-1620
▁גל	-1621
▁לאי	-1622
▁ארצות	-1623
50	-1624
▁:	-1625
▁יית	-1626
▁לשנות	-1627
▁כשא	-1628
לוטין	-1629
▁שאלה	-1630
נר	-1631
▁להא	-1632
▁לחלוטין	-1633
רכו	-1634
אתה	-1635
▁ילד	-1636
פס	-1637
▁the	-1638
▁הטבע	-1639
כנולוגיה	-1640
▁לבין	-1641
▁נכנס	-1642
▁ביק	-1643
▁ספק	-1644
▁לעצ	-1645
כולת	-1646
▁לבצע	-1647
▁באזור	-1648
▁קלי	-1649
▁חברות	-1650
▁לחשוב	-1651
בתי	-1652
ation	-1653
▁עבוד	-1654
▁שיה	-1655
לוהים	-1656
▁ומו	-1657
▁טובים	-1658
▁מאפשר	-1659
▁אמרה	-1660
רבי	-1661
▁שאנו	-1662
▁עובדים	-1663
▁לוק	-1664
▁מקור	-1665
▁כנראה	-1666
פרי	-1667
▁בספ	-1668
טיות	-1669
מצא	-1670
ראות	-1671
דון	-1672
▁המשחק	-1673
דיר	-1674
▁בחיים	-1675
▁מני	-1676
▁מעבר	-1677
▁לחיות	-1678
פן	-1679
▁הרכ	-1680
יכ	-1681
▁האל	-1682
ag	-1683
וסים	-1684
▁הקה	-1685
▁המרכז	-1686
▁פעילות	-1687
פתחות	-1688
דן	-1689
▁באר	-1690
▁שנו	-1691
▁הולך	-1692
▁בשם	-1693
▁בידי	-1694
▁In	-1695
בש	-1696
▁בסוף	-1697
▁שאינ	-1698
▁לרו	-1699
▁מאד	-1700
▁זכויות	-1701
מודד	-1702
▁במקרה	-1703
▁מגיע	-1704
▁בגיל	-1705
פוש	-1706
נאי	-1707
▁שיי	-1708
מיות	-1709
▁אתכם	-1710
ידי	-1711
▁בעבר	-1712
חילת	-1713
▁להח	-1714
▁מהר	-1715
▁אב	-1716
▁סיפור	-1717
ליון	-1718
▁דור	-1719
▁המשת	-1720
ut	-1721
יקט	-1722
▁השל	-1723
שרת	-1724
▁להצי	-1725
▁השנייה	-1726
ניק	-1727
▁עשוי	-1728
פק	-1729
▁לבי	-1730
▁מאח	-1731
▁החלט	-1732
▁כאילו	-1733
יג	-1734
ראת	-1735
תף	-1736
ur	-1737
▁ומי	-1738
▁שינוי	-1739
▁רואים	-1740
דבר	-1741
הליך	-1742
דרת	-1743
▁חוז	-1744
ילת	-1745
▁והיא	-1746
▁נג	-1747
מודים	-1748
▁המשפחה	-1749
▁האחרונות	-1750
ובי	-1751
יתים	-1752
ארד	-1753
▁מסו	-1754
▁משנה	-1755
אית	-1756
▁תיא	-1757
▁המצב	-1758
▁בעיות	-1759
▁בעיר	-1760
בעים	-1761
נח	-1762
זרת	-1763
▁לטי	-1764
▁J	-1765
▁אג	-1766
▁ובי	-1767
▁רבה	-1768
0%	-1769
▁גבוהה	-1770
▁כלי	-1771
נויות	-1772
▁אליו	-1773
קול	-1774
נאים	-1775
לוויזיה	-1776
-4	-1777
▁שית	-1778
שע	-1779
יצוב	-1780
▁הקוד	-1781
▁תודה	-1782
▁טיפול	-1783
▁דא	-1784
▁איפה	-1785
נתונים	-1786
▁עלינו	-1787
ומרים	-1788
▁מופ	-1789
סס	-1790
▁תוכנית	-1791
שלום	-1792
▁נס	-1793
שרים	-1794
▁אמריק	-1795
▁הילד	-1796
▁המידע	-1797
▁השאלה	-1798
סר	-1799
▁נוספת	-1800
▁מעולם	-1801
▁אומרים	-1802
שורים	-1803
▁מבין	-1804
▁כלומר	-1805
אמ	-1806
▁יורק	-1807
▁להסת	-1808
',	-1809
▁ואם	-1810
▁והם	-1811
כיר	-1812
▁מיוח	-1813
▁בינלא	-1814
▁אבי	-1815
▁אנג	-1816
ir	-1817
▁11	-1818
▁חדשות	-1819
לול	-1820
▁להתחיל	-1821
חן	-1822
▁בקרב	-1823
כני	-1824
ראים	-1825
פיע	-1826
▁תר	-1827
▁אוב	-1828
▁המצ	-1829
▁לחזור	-1830
טרי	-1831
▁להתק	-1832
▁עצמה	-1833
ינטרנט	-1834
▁בעת	-1835
▁St	-1836
ניהם	-1837
▁מצד	-1838
נגד	-1839
▁עצמם	-1840
▁עליהם	-1841
▁הפעם	-1842
▁הישרא	-1843
זאת	-1844
▁לעצמ	-1845
▁שבוע	-1846
▁הגדולה	-1847
וצה	-1848
מתי	-1849
▁בעיה	-1850
▁יהודים	-1851
!!	-1852
נתה	-1853
▁ור	-1854
▁סביב	-1855
▁תצ	-1856
▁להק	-1857
▁בנושא	-1858
▁בריאות	-1859
▁העיק	-1860
לין	-1861
נגלית	-1862
▁דומה	-1863
▁חייבים	-1864
▁שמש	-1865
סית	-1866
▁כלפי	-1867
▁אומרת	-1868
▁חברים	-1869
יינו	-1870
סטרט	-1871
▁לגרום	-1872
▁קו	-1873
רוג	-1874
▁מדינה	-1875
שפ	-1876
מנה	-1877
כלי	-1878
▁משתמשים	-1879
▁מחש	-1880
▁עוז	-1881
▁שאי	-1882
▁המחקר	-1883
▁להמשיך	-1884
▁מות	-1885
▁קרה	-1886
▁באותה	-1887
▁מאוחר	-1888
רוק	-1889
בריו	-1890
▁שנית	-1891
▁הבעיה	-1892
▁התפ	-1893
▁מנו	-1894
ter	-1895
לפון	-1896
מול	-1897
בלות	-1898
▁מיד	-1899
▁חשי	-1900
▁וכן	-1901
▁למען	-1902
▁לבחור	-1903
לקוחות	-1904
▁בסופו	-1905
▁מרגיש	-1906
▁הצע	-1907
▁הרח	-1908
▁מהא	-1909
ומו	-1910
ודנטים	-1911
▁באירו	-1912
▁K	-1913
▁שג	-1914
▁מוב	-1915
▁מחוץ	-1916
▁עליה	-1917
▁אהבה	-1918
im	-1919
פורים	-1920
▁נב	-1921
▁שחק	-1922
▁ועוד	-1923
▁בארה	-1924
▁העול	-1925
▁לתוך	-1926
▁העי	-1927
▁שמי	-1928
▁ככה	-1929
▁שהמ	-1930
▁שול	-1931
▁ציבור	-1932
▁בעקבות	-1933
▁המקום	-1934
פוי	-1935
▁מאת	-1936
ולוגי	-1937
מוע	-1938
▁בהתאם	-1939
▁(2	-1940
▁הצד	-1941
▁s	-1942
▁יפה	-1943
un	-1944
אנחנו	-1945
▁העצ	-1946
▁בסדר	-1947
מיה	-1948
▁הרפ	-1949
▁התג	-1950
▁נתונים	-1951
um	-1952
▁משי	-1953
▁p	-1954
מלי	-1955
▁שוא	-1956
ושבים	-1957
רחק	-1958
▁חול	-1959
▁תוכלו	-1960
ליק	-1961
▁וכי	-1962
-201	-1963
▁בלו	-1964
קשורת	-1965
▁לשחק	-1966
▁עולם	-1967
▁מאות	-1968
▁לגמרי	-1969
וקא	-1970
ופות	-1971
ec	-1972
▁בזה	-1973
▁הפרו	-1974
טא	-1975
▁f	-1976
▁30	-1977
רבעה	-1978
שום	-1979
▁כתב	-1980
▁גברים	-1981
▁הסיבה	-1982
מך	-1983
▁לאנשים	-1984
גוד	-1985
צית	-1986
ריז	-1987
▁ואי	-1988
נהגות	-1989
זע	-1990
▁טע	-1991
▁טרא	-1992
▁רכ	-1993
בורה	-1994
שאים	-1995
▁ולע	-1996
▁לעומת	-1997
הוב	-1998
זיק	-1999
▁שבע	-2000
▁אותן	-2001
פוס	-2002
▁בארץ	-2003
▁קיים	-2004
יב	-2005
ופול	-2006
ובל	-2007
▁אכ	-2008
▁העם	-2009
▁החדשה	-2010
▁תהליך	-2011
מנע	-2012
▁והע	-2013
▁אנשי	-2014
רחב	-2015
וחה	-2016
שוא	-2017
▁אס	-2018
▁מהת	-2019
וצר	-2020
▁חשב	-2021
זב	-2022
▁קצר	-2023
▁שהא	-2024
▁ייתכן	-2025
▁פל	-2026
▁טוע	-2027
▁פול	-2028
▁שמח	-2029
▁ראשון	-2030
▁האינטרנט	-2031
▁17	-2032
▁והח	-2033
▁יחי	-2034
▁נשא	-2035
▁שות	-2036
▁הית	-2037
▁נסי	-2038
!"	-2039
נוק	-2040
,"	-2041
▁הפי	-2042
▁נוס	-2043
▁היית	-2044
▁האחרונה	-2045
▁חת	-2046
▁חמי	-2047
▁היינו	-2048
▁נמצאים	-2049
▁הרוח	-2050
▁הוכ	-2051
▁לספק	-2052
▁שוק	-2053
▁13	-2054
▁משא	-2055
▁יא	-2056
▁אתר	-2057
▁כע	-2058
▁איכות	-2059
▁מתחיל	-2060
▁c	-2061
רוע	-2062
▁כדאי	-2063
צלחה	-2064
▁לצאת	-2065
▁מהי	-2066
▁*	-2067
כום	-2068
▁לשם	-2069
▁המוז	-2070
▁העסק	-2071
▁בהחלט	-2072
כוי	-2073
רחש	-2074
▁המלחמה	-2075
נדר	-2076
▁16	-2077
▁קה	-2078
פשרות	-2079
▁d	-2080
▁שיע	-2081
▁ערך	-2082
▁רגע	-2083
▁עור	-2084
▁להביא	-2085
▁למנוע	-2086
▁שיכול	-2087
יונות	-2088
פורט	-2089
הת	-2090
▁נעשה	-2091
▁להתמודד	-2092
▁משפחת	-2093
em	-2094
▁194	-2095
▁ארג	-2096
▁והש	-2097
נרגיה	-2098
▁בסיס	-2099
פני	-2100
קשה	-2101
▁יב	-2102
ריון	-2103
▁ועד	-2104
▁שט	-2105
כנית	-2106
▁וצ	-2107
▁יס	-2108
▁אלף	-2109
▁Y	-2110
▁המאה	-2111
▁ממה	-2112
סקה	-2113
▁זוהי	-2114
▁שלום	-2115
▁השימוש	-2116
▁האתר	-2117
.[	-2118
רוס	-2119
▁להגיד	-2120
▁היהודים	-2121
▁הבאה	-2122
▁ישנם	-2123
▁כוחות	-2124
▁והפ	-2125
▁מנסה	-2126
▁לאכול	-2127
20	-2128
▁רצי	-2129
▁עק	-2130
▁בטי	-2131
ינוך	-2132
▁כמות	-2133
▁הבריאות	-2134
▁הצל	-2135
ילד	-2136
▁ברא	-2137
▁עליך	-2138
▁תוכל	-2139
כלית	-2140
▁היטב	-2141
oc	-2142
רש	-2143
נסים	-2144
▁שנע	-2145
▁שבי	-2146
וטנ	-2147
מני	-2148
▁הרצ	-2149
1.	-2150
].	-2151
חוד	-2152
▁ארגון	-2153
וציא	-2154
יאון	-2155
▁הפת	-2156
▁פלסטי	-2157
▁בשנים	-2158
▁אישי	-2159
▁יודעת	-2160
▁עניין	-2161
▁198	-2162
▁המג	-2163
▁באינטרנט	-2164
▁הלו	-2165
▁מכך	-2166
▁חברה	-2167
אום	-2168
ציב	-2169
פיים	-2170
▁ישרא	-2171
מוצע	-2172
▁הקי	-2173
▁יכולות	-2174
חתי	-2175
▁המוח	-2176
▁מתחת	-2177
ודל	-2178
רוך	-2179
▁עשה	-2180
os	-2181
▁•	-2182
▁זכ	-2183
▁צבא	-2184
▁14	-2185
▁וט	-2186
▁מהע	-2187
אנו	-2188
הבה	-2189
▁מזון	-2190
▁ממשלת	-2191
אק	-2192
וספ	-2193
זים	-2194
מניה	-2195
▁לשא	-2196
▁בינו	-2197
ers	-2198
▁קרא	-2199
▁ברגע	-2200
▁המוש	-2201
▁and	-2202
▁אוט	-2203
▁משפחה	-2204
▁עסקים	-2205
▁חושבים	-2206
בלים	-2207
ינים	-2208
לקטרו	-2209
▁מתכו	-2210
▁משתמש	-2211
▁שאלות	-2212
▁עמו	-2213
▁כולנו	-2214
▁לקנות	-2215
ra	-2216
זית	-2217
שויות	-2218
▁משות	-2219
▁השבוע	-2220
▁לכתוב	-2221
▁בקי	-2222
▁הנשיא	-2223
ורית	-2224
▁מדה	-2225
▁סוכ	-2226
▁הביתה	-2227
▁מלחמת	-2228
▁אמא	-2229
▁תרבות	-2230
חרי	-2231
▁גישה	-2232
▁תוצאות	-2233
▁דעת	-2234
▁ליה	-2235
▁ארבע	-2236
▁מסוימים	-2237
ess	-2238
▁שהיו	-2239
▁הסיפור	-2240
▁ומא	-2241
▁השם	-2242
ומיות	-2243
5.	-2244
▁נד	-2245
▁היחידה	-2246
פילו	-2247
▁חמש	-2248
▁לעיתים	-2249
וויה	-2250
▁להרגיש	-2251
▁m	-2252
▁תומ	-2253
▁אכן	-2254
▁פוליטי	-2255
▁במהירות	-2256
חם	-2257
▁בחי	-2258
▁הראשונים	-2259
▁אישה	-2260
▁חוסר	-2261
▁100	-2262
▁להז	-2263
▁במצב	-2264
▁הצבא	-2265
▁רשת	-2266
צא	-2267
שיות	-2268
▁האור	-2269
▁עשויים	-2270
גישים	-2271
דיניות	-2272
▁למעלה	-2273
▁מדינת	-2274
ומן	-2275
▁המפ	-2276
▁אינט	-2277
הא	-2278
גוע	-2279
נדה	-2280
נייה	-2281
▁הגר	-2282
יצור	-2283
סטים	-2284
▁היחיד	-2285
-200	-2286
רטים	-2287
▁והי	-2288
▁ליד	-2289
▁הגבוה	-2290
גיעה	-2291
▁עבר	-2292
▁בעצם	-2293
▁בשלב	-2294
▁דרכים	-2295
▁לעבור	-2296
לתי	-2297
▁שרו	-2298
דית	-2299
▁חיו	-2300
רוץ	-2301
ניו	-2302
▁קרוב	-2303
▁הנתונים	-2304
-6	-2305
▁משל	-2306
▁האופ	-2307
▁צוות	-2308
▁אירופה	-2309
▁מכיוון	-2310
▁בשבוע	-2311
▁עש	-2312
מינו	-2313
▁השק	-2314
▁הזדמנות	-2315
שתו	-2316
▁הפך	-2317
▁תופ	-2318
▁אוהבים	-2319
גנה	-2320
שיב	-2321
▁לבנות	-2322
כא	-2323
▁חק	-2324
רבים	-2325
▁מונ	-2326
▁עולה	-2327
▁(1	-2328
▁בבי	-2329
רונים	-2330
▁למד	-2331
▁מהח	-2332
▁b	-2333
סקי	-2334
▁הקור	-2335
▁מדיניות	-2336
עיף	-2337
שתי	-2338
▁בתור	-2339
▁כרטי	-2340
▁מאמין	-2341
▁מסוגל	-2342
▁משרד	-2343
▁להיכנס	-2344
▁הרש	-2345
▁המדע	-2346
▁ביי	-2347
▁עיר	-2348
▁במדינה	-2349
▁להישאר	-2350
ab	-2351
כנה	-2352
▁סג	-2353
▁לראשונה	-2354
▁החש	-2355
▁ביחד	-2356
▁בפעם	-2357
▁מדברים	-2358
2.	-2359
דרש	-2360
שייה	-2361
▁לחץ	-2362
▁משפט	-2363
נדי	-2364
▁אצ	-2365
▁תז	-2366
▁זוג	-2367
▁לדי	-2368
כונים	-2369
▁אמית	-2370
▁מקווה	-2371
▁התעופה	-2372
▁הביטחון	-2373
חרת	-2374
טרף	-2375
ניח	-2376
▁סיבה	-2377
▁אמרתי	-2378
אמר	-2379
וקטו	-2380
ודעה	-2381
צמבר	-2382
ונית	-2383
▁ראו	-2384
טן	-2385
▁מאי	-2386
▁גורם	-2387
▁197	-2388
▁שרי	-2389
וקטובר	-2390
לנד	-2391
▁נכ	-2392
▁מחפ	-2393
▁שהע	-2394
ורף	-2395
כמה	-2396
שיית	-2397
▁המדינות	-2398
▁צפו	-2399
0,	-2400
פיות	-2401
▁ההז	-2402
▁יחס	-2403
מונים	-2404
▁אוני	-2405
▁להגן	-2406
▁גדולים	-2407
5,	-2408
דוע	-2409
▁אק	-2410
▁נושא	-2411
▁שיהיה	-2412
▁אמריקה	-2413
▁לקוחות	-2414
th	-2415
▁פסי	-2416
ושב	-2417
▁טראמפ	-2418
▁מיליארד	-2419
▁לוח	-2420
▁סיי	-2421
▁בואו	-2422
▁שמא	-2423
7.	-2424
▁ורו	-2425
▁להחז	-2426
▁קיבל	-2427
▁ניהול	-2428
▁בארצות	-2429
▁תמונות	-2430
▁ובה	-2431
סיס	-2432
▁מקרה	-2433
ניינים	-2434
▁לילדים	-2435
חסים	-2436
▁ושי	-2437
▁לרכ	-2438
▁המוס	-2439
▁הטיפול	-2440
▁ההיסטוריה	-2441
ולת	-2442
▁פוע	-2443
▁חברי	-2444
▁מוצרים	-2445
וריות	-2446
▁זכות	-2447
▁לשלם	-2448
▁קטנה	-2449
▁הסת	-2450
▁בחיי	-2451
ראית	-2452
▁נמו	-2453
▁המים	-2454
▁דווקא	-2455
ילום	-2456
▁מסוים	-2457
▁החלק	-2458
ia	-2459
חית	-2460
ליחה	-2461
▁196	-2462
▁עומד	-2463
▁ייח	-2464
▁לשל	-2465
▁שאת	-2466
▁אמיתי	-2467
▁בנוגע	-2468
▁האוכל	-2469
▁גב	-2470
▁לנסות	-2471
.”	-2472
המ	-2473
▁מבלי	-2474
▁לדוגמה	-2475
▁ניסיון	-2476
ובע	-2477
חלטה	-2478
▁לאור	-2479
▁אפשרי	-2480
-5	-2481
סום	-2482
▁דם	-2483
▁פנים	-2484
-8	-2485
ce	-2486
▁איראן	-2487
▁ויותר	-2488
▁מאחורי	-2489
למ	-2490
נתיים	-2491
▁אמרו	-2492
▁מדבר	-2493
▁w	-2494
למה	-2495
▁הטר	-2496
▁מערכות	-2497
גיה	-2498
במבר	-2499
▁העתי	-2500
▁ירושלים	-2501
ניסה	-2502
▁פלי	-2503
▁המשי	-2504
▁ובכל	-2505
▁כתוצאה	-2506
▁משמעותי	-2507
ונת	-2508
▁האש	-2509
▁ירי	-2510
▁תיק	-2511
op	-2512
▁צד	-2513
סטית	-2514
▁אבא	-2515
▁וכך	-2516
▁נחש	-2517
▁שווה	-2518
3.	-2519
ארק	-2520
▁המד	-2521
מדה	-2522
רצ	-2523
לון	-2524
סוי	-2525
▁ממשי	-2526
לץ	-2527
▁כוכ	-2528
▁הדין	-2529
▁האוויר	-2530
▁מאמינים	-2531
בצע	-2532
צרה	-2533
▁דין	-2534
▁הוק	-2535
▁תקופה	-2536
▁במסגרת	-2537
▁שבועות	-2538
טיה	-2539
▁(19	-2540
▁כות	-2541
▁הבאים	-2542
שהי	-2543
▁מיני	-2544
▁היהודי	-2545
▁הקד	-2546
▁ניצ	-2547
▁המטרה	-2548
מץ	-2549
▁חזק	-2550
▁שהח	-2551
▁אלפי	-2552
▁לשמוע	-2553
▁השירות	-2554
הוא	-2555
▁חינו	-2556
▁כללי	-2557
▁עצמך	-2558
▁עול	-2559
▁אישית	-2560
ורט	-2561
ריכה	-2562
▁איתו	-2563
▁1.	-2564
טרות	-2565
▁הטובה	-2566
ליו	-2567
▁ולק	-2568
▁הנוכ	-2569
▁ניו	-2570
▁שיל	-2571
▁אפשרות	-2572
▁נוספות	-2573
פאים	-2574
נועה	-2575
▁סין	-2576
▁רכב	-2577
▁הכסף	-2578
▁הקרו	-2579
ul	-2580
▁מצא	-2581
▁החשוב	-2582
▁יוצא	-2583
▁היכולת	-2584
5%	-2585
ri	-2586
▁—	-2587
▁כפ	-2588
▁שבהם	-2589
▁קטנים	-2590
▁לאחרונה	-2591
וניים	-2592
ולוגיות	-2593
ורד	-2594
▁כב	-2595
▁צרפת	-2596
▁אנרגיה	-2597
▁החולים	-2598
▁באירופה	-2599
ov	-2600
תחלה	-2601
▁ארבעה	-2602
▁שצריך	-2603
▁יר	-2604
▁ולי	-2605
▁מהש	-2606
▁בהי	-2607
▁מבט	-2608
▁מיל	-2609
▁אילו	-2610
▁המלא	-2611
▁בוד	-2612
▁בנק	-2613
▁אליה	-2614
▁העובדה	-2615
9.	-2616
▁לשע	-2617
▁יהודי	-2618
אט	-2619
▁ממנה	-2620
4.	-2621
מם	-2622
▁in	-2623
▁הנפ	-2624
▁כספ	-2625
▁מוכן	-2626
חושה	-2627
▁מלאה	-2628
▁נשיא	-2629
▁המערכת	-2630
סד	-2631
▁ואף	-2632
▁אודות	-2633
▁לפעול	-2634
▁להתע	-2635
▁הים	-2636
▁הנסי	-2637
▁הקרי	-2638
▁מעוני	-2639
▁קבוצה	-2640
▁גופ	-2641
▁בחודש	-2642
igh	-2643
▁שו	-2644
▁בהן	-2645
▁הנא	-2646
▁יצא	-2647
▁ראיתי	-2648
▁עב	-2649
▁ורק	-2650
▁מרי	-2651
▁האלו	-2652
▁כיוון	-2653
▁לישראל	-2654
▁חיל	-2655
▁רחב	-2656
▁אוהבת	-2657
▁האזרח	-2658
▁האחרונים	-2659
ושי	-2660
משו	-2661
▁תס	-2662
▁הביט	-2663
▁כזו	-2664
▁צבע	-2665
▁בתוכ	-2666
▁שס	-2667
▁הסט	-2668
▁שינויים	-2669
▁הבינלאומי	-2670
ובים	-2671
▁הצה	-2672
▁כלום	-2673
▁מלחמה	-2674
....	-2675
▁שגם	-2676
▁הקול	-2677
▁מיוחד	-2678
▁לשים	-2679
פך	-2680
ויות	-2681
יתנו	-2682
מינה	-2683
▁השחק	-2684
▁חודש	-2685
▁משק	-2686
▁לשפר	-2687
▁בבוקר	-2688
▁לעמוד	-2689
8.	-2690
ap	-2691
חש	-2692
▁לצד	-2693
ליף	-2694
▁סמ	-2695
ומדים	-2696
6.	-2697
▁ולש	-2698
▁ספרים	-2699
כתי	-2700
▁אמת	-2701
▁שיר	-2702
▁המנה	-2703
1,	-2704
ne	-2705
זוב	-2706
▁הגיעו	-2707
▁ובא	-2708
▁נשאר	-2709
כלו	-2710
ברתי	-2711
▁תמיכה	-2712
מאס	-2713
פית	-2714
מנית	-2715
פכה	-2716
▁טכנ	-2717
▁חושבת	-2718
8,	-2719
▁ההס	-2720
▁עתי	-2721
▁שאר	-2722
וליטית	-2723
▁התיכון	-2724
יט	-2725
ותם	-2726
חרר	-2727
▁חצי	-2728
▁מהו	-2729
▁הופך	-2730
▁מחיר	-2731
▁הקבוצה	-2732
מום	-2733
▁התשובה	-2734
וניברסיטה	-2735
▁ושל	-2736
וגה	-2737
▁לספר	-2738
ייסבוק	-2739
▁תלוי	-2740
▁קונ	-2741
▁בשוק	-2742
-7	-2743
ie	-2744
רס	-2745
▁חזרה	-2746
▁מעניין	-2747
לוק	-2748
פוך	-2749
▁פרק	-2750
רגל	-2751
דרות	-2752
ילויות	-2753
▁דיווח	-2754
4,	-2755
▁ערב	-2756
▁מקבלים	-2757
כוח	-2758
מדים	-2759
ציאל	-2760
▁יצירת	-2761
▁מתע	-2762
לונות	-2763
▁תפקיד	-2764
▁מגיעים	-2765
שיבה	-2766
▁לבע	-2767
▁הארגון	-2768
2,	-2769
ity	-2770
וסף	-2771
שתה	-2772
▁דת	-2773
▁לחי	-2774
▁לנק	-2775
▁לאדם	-2776
▁2.	-2777
▁ראה	-2778
▁לימוד	-2779
▁תשומת	-2780
▁התוכנית	-2781
▁נט	-2782
ביות	-2783
▁למקום	-2784
וגל	-2785
▁בקלות	-2786
▁לגלות	-2787
מאל	-2788
מנויות	-2789
▁מוקדם	-2790
▁מבחינה	-2791
▁השפעה	-2792
פחות	-2793
▁שניתן	-2794
ודו	-2795
ייב	-2796
▁פא	-2797
זיקה	-2798
▁טבעי	-2799
▁עלול	-2800
▁השלישי	-2801
לקת	-2802
▁ייש	-2803
▁מסע	-2804
▁בעצמ	-2805
▁הקשר	-2806
דאו	-2807
פיה	-2808
▁סק	-2809
לטון	-2810
▁בעתיד	-2811
7,	-2812
og	-2813
עתי	-2814
פרט	-2815
דיים	-2816
▁הרב	-2817
▁מפל	-2818
▁הסכם	-2819
▁האו	-2820
▁הוג	-2821
וניות	-2822
▁נקודות	-2823
ָה	-2824
▁לבדוק	-2825
▁מילים	-2826
▁קבוצות	-2827
▁שעה	-2828
וסייה	-2829
יכרון	-2830
▁פתרון	-2831
est	-2832
יחס	-2833
סיים	-2834
▁טיפ	-2835
תייחס	-2836
דיל	-2837
ברואר	-2838
צועים	-2839
▁במידה	-2840
מטי	-2841
יתונ	-2842
▁הרע	-2843
▁והה	-2844
▁ייע	-2845
▁נותן	-2846
▁הלילה	-2847
▁חולים	-2848
▁הקהילה	-2849
▁אוניברסי	-2850
תק	-2851
ind	-2852
▁כולו	-2853
▁המשטרה	-2854
▁להבטיח	-2855
טמבר	-2856
▁שנק	-2857
▁בעזרת	-2858
▁הישראלי	-2859
קיע	-2860
▁בוח	-2861
▁חוץ	-2862
▁שכן	-2863
▁מצוי	-2864
▁תרופות	-2865
▁>	-2866
▁24	-2867
▁לפתח	-2868
▁צעירים	-2869
ine	-2870
כרת	-2871
ניס	-2872
עון	-2873
▁קש	-2874
▁שד	-2875
▁יצי	-2876
▁נפר	-2877
▁לרוב	-2878
▁שאפשר	-2879
▁ואפילו	-2880
רקע	-2881
▁הבר	-2882
▁הגור	-2883
▁מגוון	-2884
▁תכנית	-2885
▁הגדולים	-2886
שימת	-2887
▁אוו	-2888
10	-2889
▁פס	-2890
דיין	-2891
ליטה	-2892
▁היסט	-2893
▁חשבו	-2894
▁שאינם	-2895
▁בבר	-2896
▁ארוך	-2897
▁בינואר	-2898
▁ההורים	-2899
נסת	-2900
▁בחר	-2901
▁מהן	-2902
▁המלך	-2903
▁יקרה	-2904
▁להיר	-2905
-18	-2906
בטחה	-2907
זורים	-2908
שירים	-2909
▁ההבד	-2910
▁המון	-2911
▁שקי	-2912
▁בראש	-2913
▁יכולת	-2914
מט	-2915
נטית	-2916
וניברסיטת	-2917
▁עבד	-2918
קדמות	-2919
▁עזרה	-2920
▁תמונה	-2921
טליה	-2922
פלגה	-2923
▁מאיתנו	-2924
av	-2925
▁»	-2926
ילוס	-2927
רייה	-2928
▁רכי	-2929
▁שבת	-2930
▁הדרו	-2931
▁נשמע	-2932
▁המודר	-2933
ורר	-2934
▁זיה	-2935
▁זר	-2936
למים	-2937
מויות	-2938
▁מנהל	-2939
▁לקראת	-2940
אס	-2941
זרו	-2942
▁הנק	-2943
▁התרו	-2944
▁במרכז	-2945
▁נמצאת	-2946
אין	-2947
▁תמ	-2948
מיחה	-2949
▁בחלק	-2950
▁הכוח	-2951
▁הנכון	-2952
▁העתיד	-2953
▁הטובים	-2954
טרך	-2955
נצ	-2956
אבל	-2957
▁חמ	-2958
▁מהה	-2959
וויות	-2960
▁שאם	-2961
נגדות	-2962
▁חייו	-2963
מקד	-2964
▁חר	-2965
▁שבא	-2966
▁האיש	-2967
▁רחוק	-2968
▁רוסיה	-2969
▁50	-2970
▁בסרט	-2971
▁בערך	-2972
▁ואין	-2973
▁מתאים	-2974
▁תוכניות	-2975
▁וז	-2976
מכים	-2977
▁היכן	-2978
▁נולד	-2979
▁ולאחר	-2980
לוש	-2981
סלא	-2982
פורסם	-2983
באי	-2984
מפי	-2985
▁דוג	-2986
בורים	-2987
רישות	-2988
▁במאי	-2989
▁בחברה	-2990
גשתי	-2991
▁הפני	-2992
▁להעביר	-2993
▁ומח	-2994
▁ממו	-2995
▁הרכב	-2996
▁השמש	-2997
▁קיימת	-2998
▁שאנשים	-2999
▁יתר	-3000
▁חשבתי	-3001
▁לשעבר	-3002
▁מסוגלים	-3003
ביעי	-3004
▁חסר	-3005
▁״	-3006
ושבי	-3007
צעים	-3008
שרות	-3009
▁הוצ	-3010
▁חזר	-3011
our	-3012
▁תרג	-3013
▁מנהי	-3014
לס	-3015
▁מלב	-3016
▁שזו	-3017
כונית	-3018
6,	-3019
ביש	-3020
נינו	-3021
▁בפי	-3022
▁מראש	-3023
▁הכת	-3024
▁חומ	-3025
▁הדת	-3026
▁תינו	-3027
▁אחריות	-3028
בוס	-3029
יהן	-3030
▁Ch	-3031
▁האת	-3032
▁מתא	-3033
▁העליון	-3034
סא	-3035
ועדה	-3036
▁איננו	-3037
▁המוצר	-3038
▁פיתוח	-3039
▁אינטרנט	-3040
ווק	-3041
▁נז	-3042
גישות	-3043
▁לנצח	-3044
▁יחסים	-3045
▁לסייע	-3046
▁משחקים	-3047
▁האירופי	-3048
ak	-3049
ביים	-3050
▁עשרות	-3051
ונס	-3052
יינים	-3053
▁בניו	-3054
▁ברשת	-3055
▁שימו	-3056
3,	-3057
if	-3058
רית	-3059
▁החופ	-3060
od	-3061
▁רמת	-3062
▁ברמה	-3063
▁חיוב	-3064
▁להתח	-3065
▁קבוצת	-3066
▁התינוק	-3067
▁מחפשים	-3068
ובר	-3069
▁אמור	-3070
▁|	-3071
▁פשו	-3072
▁נהרג	-3073
▁בלילה	-3074
▁בתחילת	-3075
▁היחסים	-3076
אג	-3077
צרו	-3078
▁בצד	-3079
יימים	-3080
▁לבקר	-3081
▁גורמים	-3082
▁האחרים	-3083
▁הלאומי	-3084
מכ	-3085
▁בתפ	-3086
▁ימי	-3087
▁משה	-3088
▁כרגע	-3089
▁משנת	-3090
nd	-3091
טוא	-3092
פורס	-3093
▁עוצ	-3094
▁יפ	-3095
יתון	-3096
מידה	-3097
▁לבח	-3098
▁ספורט	-3099
וין	-3100
▁דה	-3101
לקוח	-3102
▁כשהוא	-3103
▁יוכל	-3104
▁מכיר	-3105
▁המילה	-3106
ard	-3107
▁חוקי	-3108
▁כבוד	-3109
▁ביוני	-3110
▁לשימוש	-3111
▁בספטמבר	-3112
עוד	-3113
▁מאושר	-3114
מוקרטיה	-3115
▁תל	-3116
צירת	-3117
▁הנושא	-3118
▁לזכור	-3119
▁הרעיון	-3120
▁מוכנים	-3121
שורת	-3122
▁החינוך	-3123
▁העובדים	-3124
ופט	-3125
▁ללי	-3126
▁אסטרט	-3127
▁ואנחנו	-3128
▁הבל	-3129
▁ובר	-3130
ive	-3131
מדו	-3132
יקים	-3133
▁הינו	-3134
▁נקרא	-3135
▁האזור	-3136
▁הצורך	-3137
all	-3138
▁ולח	-3139
▁שמה	-3140
ליטים	-3141
▁חינוך	-3142
▁להכיר	-3143
▁האר	-3144
▁צעיר	-3145
▁האדמה	-3146
▁לשאול	-3147
▁מסוימת	-3148
▁לספ	-3149
וונים	-3150
חרים	-3151
▁שלב	-3152
ריכים	-3153
▁יוכלו	-3154
▁בדצמבר	-3155
נקים	-3156
▁פרופ	-3157
גיט	-3158
▁עת	-3159
ight	-3160
▁הוש	-3161
▁ועם	-3162
▁לתי	-3163
▁סוב	-3164
▁הפסי	-3165
▁שכבר	-3166
▁בשנות	-3167
▁ראשית	-3168
▁גרמניה	-3169
▁קבוע	-3170
▁חמישה	-3171
דמנויות	-3172
▁לעבודה	-3173
-9	-3174
ִי	-3175
אוג	-3176
בירה	-3177
קלים	-3178
שוואה	-3179
▁הנוכחי	-3180
לושה	-3181
▁סיפ	-3182
▁לחפש	-3183
▁מראה	-3184
▁חייבת	-3185
▁לאפשר	-3186
▁מחקרים	-3187
▁בוקר	-3188
▁התחל	-3189
▁לבוא	-3190
▁למדי	-3191
▁ממוק	-3192
"?	-3193
יתם	-3194
▁לצפות	-3195
▁אלקטרו	-3196
▁ישירות	-3197
▁הבחירות	-3198
קע	-3199
נדון	-3200
▁בתע	-3201
▁הזוג	-3202
▁תפקי	-3203
ידן	-3204
▁25	-3205
דימה	-3206
▁מין	-3207
▁סיבות	-3208
▁במערכת	-3209
ורו	-3210
▁בפע	-3211
▁אזור	-3212
▁מבינים	-3213
כנע	-3214
▁איזו	-3215
▁סביר	-3216
▁האמיתי	-3217
▁המציאות	-3218
30	-3219
▁גד	-3220
▁גוף	-3221
בוצות	-3222
▁לוקח	-3223
▁גדולות	-3224
עיל	-3225
בנות	-3226
▁הגל	-3227
▁ומס	-3228
▁צעד	-3229
▁ושוב	-3230
▁להאמין	-3231
ook	-3232
▁ויי	-3233
▁קפה	-3234
▁טובות	-3235
▁תקשורת	-3236
▁האמריקאי	-3237
▁בטח	-3238
▁מוט	-3239
▁היהודית	-3240
ob	-3241
זציה	-3242
ניהול	-3243
▁נמוך	-3244
art	-3245
ast	-3246
מרים	-3247
▁ההשפ	-3248
▁סוגי	-3249
▁רצון	-3250
▁החלטה	-3251
▁X	-3252
לאות	-3253
וגוסט	-3254
▁ביולי	-3255
▁מתחילים	-3256
one	-3257
גרי	-3258
ודאי	-3259
▁ובת	-3260
▁מבק	-3261
▁למשך	-3262
▁מוות	-3263
▁בזכות	-3264
▁מקומות	-3265
▁האנרגיה	-3266
אתם	-3267
רחי	-3268
▁ספצי	-3269
▁חשובה	-3270
ורא	-3271
וריד	-3272
▁כאב	-3273
▁אליהם	-3274
▁חשבון	-3275
▁לכולם	-3276
▁הולכים	-3277
▁מכירים	-3278
רוח	-3279
לבום	-3280
רוכה	-3281
▁ענק	-3282
▁לדברי	-3283
▁שיתוף	-3284
▁בחשבון	-3285
▁להסביר	-3286
▁באוקטובר	-3287
▁a	-3288
▁בהק	-3289
▁נשק	-3290
▁רציתי	-3291
▁להפסיק	-3292
▁הפלסטינים	-3293
מרו	-3294
קוב	-3295
▁40	-3296
ופיע	-3297
▁חלב	-3298
▁פוג	-3299
▁לגי	-3300
▁מיק	-3301
▁לילה	-3302
▁ניתוח	-3303
ושת	-3304
▁צה	-3305
▁מציע	-3306
▁לפתוח	-3307
▁עצמנו	-3308
▁שנתיים	-3309
com	-3310
שווי	-3311
▁החלו	-3312
▁העלי	-3313
▁בהמשך	-3314
▁גדל	-3315
▁ישוע	-3316
▁אתמול	-3317
▁חשיבות	-3318
▁קיימים	-3319
▁‘	-3320
ופיה	-3321
▁יצר	-3322
▁אנטי	-3323
▁האמית	-3324
▁ידעתי	-3325
▁מומלץ	-3326
וטנציאל	-3327
▁קוראים	-3328
ברר	-3329
▁חג	-3330
▁נצ	-3331
▁ולהת	-3332
וזה	-3333
תפים	-3334
▁התרבות	-3335
ועד	-3336
פרס	-3337
ופית	-3338
▁בבע	-3339
▁חופש	-3340
▁הימים	-3341
▁פרטים	-3342
▁שאינו	-3343
▁בנובמבר	-3344
9,	-3345
ליחו	-3346
פייה	-3347
▁דמי	-3348
▁החז	-3349
אז	-3350
סטרו	-3351
▁195	-3352
נגטון	-3353
▁העולמי	-3354
ct	-3355
קן	-3356
▁החק	-3357
כוהול	-3358
▁מייצ	-3359
▁מרגישים	-3360
פוץ	-3361
דעתי	-3362
ובלי	-3363
▁המחש	-3364
▁ואתה	-3365
▁לטפל	-3366
▁עשרה	-3367
▁הפנים	-3368
▁כלשהו	-3369
▁התנהגות	-3370
ודא	-3371
▁והן	-3372
▁בספר	-3373
▁התחת	-3374
▁רפוא	-3375
▁בימים	-3376
▁במקרים	-3377
מדת	-3378
▁הדם	-3379
בוהים	-3380
▁בחדר	-3381
▁ממלי	-3382
▁אמנות	-3383
▁בתקופה	-3384
”,	-3385
-20	-3386
ומד	-3387
פחת	-3388
▁ומק	-3389
▁שהן	-3390
▁ראשו	-3391
▁להוסיף	-3392
▁שירותי	-3393
פריל	-3394
▁אמי	-3395
▁בשר	-3396
מצאים	-3397
▁בכדי	-3398
▁להציל	-3399
▁בעבודה	-3400
▁אפשרויות	-3401
מחה	-3402
ותרת	-3403
▁הבנק	-3404
▁ממני	-3405
▁באמצע	-3406
▁בקרוב	-3407
▁הנשים	-3408
▁אחוזים	-3409
▁להימנע	-3410
▁גרי	-3411
▁נוכל	-3412
פג	-3413
חוק	-3414
▁השא	-3415
▁זוכר	-3416
▁שמות	-3417
▁העניין	-3418
gle	-3419
סוק	-3420
...]	-3421
מאות	-3422
▁האג	-3423
▁חדר	-3424
▁אמנם	-3425
▁שינה	-3426
ולוגית	-3427
▁בחזרה	-3428
▁המקצוע	-3429
▁נזק	-3430
יקטים	-3431
ריאות	-3432
▁ביחס	-3433
▁ההחלטה	-3434
משי	-3435
▁טרי	-3436
▁מעדי	-3437
בעת	-3438
למת	-3439
יימת	-3440
▁בוג	-3441
▁השוק	-3442
▁ילדי	-3443
▁התקשורת	-3444
שׁ	-3445
▁אקד	-3446
▁קוב	-3447
▁החלה	-3448
▁מוצר	-3449
▁מהווה	-3450
▁תשובה	-3451
משת	-3452
▁עתה	-3453
▁השיר	-3454
▁האישה	-3455
ate	-3456
גיעו	-3457
כחות	-3458
▁שהש	-3459
כולוג	-3460
▁המור	-3461
▁הערב	-3462
▁מבוס	-3463
▁שעבר	-3464
▁לחיים	-3465
▁עיצוב	-3466
שן	-3467
רגש	-3468
▁תב	-3469
גנון	-3470
▁גבר	-3471
▁למס	-3472
▁המזרח	-3473
▁אפריקה	-3474
נשי	-3475
▁בצי	-3476
▁למק	-3477
ובדים	-3478
▁ארוכה	-3479
ill	-3480
ביעה	-3481
▁הומ	-3482
▁איתם	-3483
▁בגוף	-3484
▁עשויה	-3485
▁ביטחון	-3486
נש	-3487
▁לבן	-3488
▁פחד	-3489
▁התמונה	-3490
▁לטיפול	-3491
וצים	-3492
▁המב	-3493
▁העור	-3494
▁אוטומ	-3495
▁רעיון	-3496
▁באוגוסט	-3497
חוץ	-3498
▁הוסיף	-3499
▁לרכוש	-3500
▁החלטות	-3501
לחץ	-3502
רווי	-3503
▁ההצ	-3504
▁ונו	-3505
▁הקונ	-3506
▁סוגים	-3507
▁התלמידים	-3508
▁Re	-3509
מונת	-3510
▁אינן	-3511
▁במזרח	-3512
▁שמונה	-3513
▁פעולות	-3514
▁הפוליטי	-3515
טניה	-3516
▁ולת	-3517
▁המוב	-3518
▁[...]	-3519
▁המחיר	-3520
משלה	-3521
▁הוע	-3522
▁ולמ	-3523
▁נאל	-3524
▁ביניהם	-3525
▁ביקורת	-3526
▁האנושי	-3527
▁משמעותית	-3528
▁נצי	-3529
▁אסור	-3530
▁הצדדים	-3531
דיא	-3532
▁Ne	-3533
▁to	-3534
▁הגב	-3535
▁נאמר	-3536
▁האפשרות	-3537
ען	-3538
כנת	-3539
▁בסך	-3540
▁המחשב	-3541
▁אזרחים	-3542
▁מיוחדת	-3543
עש	-3544
▁גא	-3545
מצאו	-3546
▁ואמר	-3547
▁שלהן	-3548
▁לעצור	-3549
וסטר	-3550
▁תנאי	-3551
▁הישראל	-3552
ort	-3553
פעל	-3554
▁מחר	-3555
▁מורכ	-3556
▁נחשב	-3557
זין	-3558
ינם	-3559
▁שאל	-3560
▁הידע	-3561
▁המוות	-3562
▁הישראלית	-3563
כלים	-3564
▁ליום	-3565
▁מלבד	-3566
▁הרופא	-3567
כנן	-3568
נאה	-3569
תיע	-3570
דירה	-3571
▁בול	-3572
▁ווי	-3573
▁כוו	-3574
ant	-3575
גובה	-3576
שובות	-3577
▁מחוי	-3578
▁עונה	-3579
▁ביטוח	-3580
▁ביצוע	-3581
▁הבאות	-3582
▁העיקר	-3583
▁השלום	-3584
▁לצורך	-3585
▁פופול	-3586
לד	-3587
לן	-3588
ברט	-3589
oogle	-3590
▁שליטה	-3591
▁התהליך	-3592
רחים	-3593
▁היי	-3594
▁מתאי	-3595
ביו	-3596
כרה	-3597
▁לתח	-3598
▁בשעה	-3599
▁לידי	-3600
▁לעזוב	-3601
שוף	-3602
▁וסי	-3603
▁לבני	-3604
▁אוויר	-3605
▁נמוכה	-3606
▁האנושות	-3607
▁בהיסטוריה	-3608
▁מוסי	-3609
▁עדיף	-3610
▁להציג	-3611
▁נכונה	-3612
ודד	-3613
▁קד	-3614
▁אופן	-3615
▁בשני	-3616
▁הפכה	-3617
▁יחסי	-3618
▁מאחר	-3619
▁הפעולה	-3620
[1	-3621
לוו	-3622
לווה	-3623
▁לנהל	-3624
▁מנסים	-3625
ist	-3626
ווית	-3627
ניהו	-3628
▁לזהות	-3629
▁ארץ	-3630
▁המוק	-3631
▁יחסית	-3632
▁בירושלים	-3633
▁יז	-3634
▁אוק	-3635
▁ברצ	-3636
▁הנע	-3637
▁כרי	-3638
▁רצו	-3639
▁בסין	-3640
▁מידי	-3641
▁הבינלאומית	-3642
ווא	-3643
ייה	-3644
קסט	-3645
▁Al	-3646
▁להד	-3647
▁תור	-3648
▁איתי	-3649
▁הגיעה	-3650
▁הלאומית	-3651
''	-3652
ופל	-3653
ריע	-3654
▁פיק	-3655
▁שיק	-3656
ופלים	-3657
▁לאתר	-3658
▁במדינות	-3659
▁$	-3660
▁גרם	-3661
ודיים	-3662
▁פתוח	-3663
▁שלישי	-3664
▁להראות	-3665
▁התוצאות	-3666
ell	-3667
▁נול	-3668
▁הארי	-3669
▁הגנה	-3670
▁הצליח	-3671
▁לציין	-3672
▁סיכוי	-3673
▁שעברה	-3674
▁הפעילות	-3675
):	-3676
ub	-3677
גדל	-3678
רוד	-3679
▁יג	-3680
ננים	-3681
▁עלה	-3682
▁מטרות	-3683
▁זקוקים	-3684
?”	-3685
הה	-3686
▁קומ	-3687
▁בחוץ	-3688
ריטניה	-3689
▁פתאום	-3690
לע	-3691
▁("	-3692
ביעות	-3693
נסייה	-3694
▁בריא	-3695
בוגרים	-3696
▁מוחלט	-3697
▁הלקוחות	-3698
▁סטודנטים	-3699
ויק	-3700
גוון	-3701
בויות	-3702
▁פרטי	-3703
▁ליהנות	-3704
נוס	-3705
ביבת	-3706
לויות	-3707
▁להציע	-3708
▁קדימה	-3709
עדה	-3710
צעי	-3711
▁שהה	-3712
רמניה	-3713
▁מילה	-3714
▁קבלת	-3715
▁ההבדל	-3716
▁&	-3717
פוט	-3718
לאים	-3719
צחון	-3720
▁הוב	-3721
▁וחי	-3722
▁לקח	-3723
▁מתנה	-3724
▁התחיל	-3725
▁העיקרי	-3726
▁התוצאה	-3727
▁מבחינת	-3728
טיב	-3729
נטה	-3730
▁והצ	-3731
▁לייצר	-3732
▁לישון	-3733
▁לפתור	-3734
▁באפריל	-3735
נע	-3736
▁יקר	-3737
▁להן	-3738
▁לפר	-3739
▁להתג	-3740
▁סרטן	-3741
▁החברת	-3742
▁לבסוף	-3743
▁אירועים	-3744
▁המשמעות	-3745
ice	-3746
▁בגי	-3747
▁האב	-3748
▁לתפ	-3749
▁שבר	-3750
▁קשור	-3751
▁לקבוע	-3752
▁שניהם	-3753
פד	-3754
רע	-3755
-10	-3756
The	-3757
כמים	-3758
▁ביל	-3759
▁להתא	-3760
▁האהבה	-3761
▁תקופת	-3762
▁האירוע	-3763
גרם	-3764
ובד	-3765
▁ויר	-3766
▁מהד	-3767
▁סתם	-3768
▁לבקש	-3769
רגונים	-3770
▁במספר	-3771
▁בפברואר	-3772
דרגה	-3773
▁אספ	-3774
▁היע	-3775
▁נכתב	-3776
▁עליכם	-3777
סיקו	-3778
▁מהס	-3779
▁צוד	-3780
ודיות	-3781
▁האפש	-3782
▁רמות	-3783
ריד	-3784
▁במא	-3785
▁מרח	-3786
▁רצה	-3787
▁שתה	-3788
▁חברתית	-3789
צעת	-3790
▁קא	-3791
ספרים	-3792
▁חזקה	-3793
ירותים	-3794
▁אלינו	-3795
▁מדהים	-3796
▁בעניין	-3797
??	-3798
מרת	-3799
▁לאן	-3800
▁החת	-3801
▁בבקשה	-3802
ובב	-3803
▁לני	-3804
▁עקב	-3805
לימות	-3806
▁חומר	-3807
▁חייהם	-3808
אד	-3809
קרב	-3810
חרור	-3811
ישור	-3812
▁אלב	-3813
▁סבל	-3814
▁השפה	-3815
▁מזרח	-3816
▁חיילים	-3817
ge	-3818
בחן	-3819
מתו	-3820
▁ספי	-3821
▁קיצ	-3822
▁להיע	-3823
▁לדבריו	-3824
▁זכה	-3825
▁במטרה	-3826
▁תשלום	-3827
▁משפחות	-3828
▁עומדים	-3829
ופעה	-3830
קציה	-3831
▁והס	-3832
▁נפג	-3833
▁שטח	-3834
▁חוזר	-3835
▁לגיל	-3836
▁רופא	-3837
▁בתהליך	-3838
▁בריטניה	-3839
הע	-3840
ונש	-3841
▁ואל	-3842
▁מזל	-3843
וקף	-3844
חקי	-3845
▁מטרה	-3846
▁קורא	-3847
▁ועכשיו	-3848
וּ	-3849
אור	-3850
וקי	-3851
▁דר	-3852
דרים	-3853
תפות	-3854
▁שאמר	-3855
▁חופשי	-3856
▁כשאני	-3857
▁מצרים	-3858
▁המילים	-3859
שאיר	-3860
▁ומצ	-3861
▁מודר	-3862
▁עתיד	-3863
▁להניח	-3864
▁לעצמי	-3865
▁פרסום	-3866
▁האיחוד	-3867
זמן	-3868
..."	-3869
קיעים	-3870
▁איתך	-3871
▁כזאת	-3872
▁אמיתית	-3873
דרו	-3874
וספת	-3875
▁מהפ	-3876
▁כולה	-3877
201	-3878
her	-3879
בוי	-3880
▁לשת	-3881
שואין	-3882
▁מידה	-3883
▁פעיל	-3884
▁תואר	-3885
▁להוביל	-3886
▁l	-3887
בילי	-3888
▁דיא	-3889
▁נדר	-3890
▁ששי	-3891
דירות	-3892
כולנו	-3893
▁להיפ	-3894
▁מתוכ	-3895
▁מתרח	-3896
▁הסביבה	-3897
▁להוציא	-3898
se	-3899
הל	-3900
▁#	-3901
טרס	-3902
▁2015	-3903
▁מושג	-3904
▁ראשי	-3905
▁כרטיס	-3906
▁למכור	-3907
▁הגדולות	-3908
▁טלוויזיה	-3909
▁הפלסטינית	-3910
▁איי	-3911
▁שהצ	-3912
▁הנראה	-3913
רן	-3914
לקה	-3915
רוף	-3916
-199	-3917
▁שהפ	-3918
▁בנות	-3919
▁הנית	-3920
▁הראש	-3921
▁בפועל	-3922
▁הבלתי	-3923
▁וידאו	-3924
▁הסיכון	-3925
רם	-3926
▁!	-3927
▁באמ	-3928
▁סול	-3929
▁העבר	-3930
▁כנגד	-3931
▁משקל	-3932
▁עמוק	-3933
▁צפוי	-3934
▁ההגנה	-3935
▁שיעור	-3936
▁החברות	-3937
טלק	-3938
▁הינה	-3939
▁זקוק	-3940
▁המזון	-3941
▁העונה	-3942
▁הטכנולוגיה	-3943
pp	-3944
ows	-3945
ומם	-3946
מוס	-3947
שמה	-3948
▁העת	-3949
▁שווי	-3950
▁עצמכם	-3951
▁חשובים	-3952
מיר	-3953
▁בבח	-3954
▁היס	-3955
▁ירד	-3956
וקטור	-3957
▁זמין	-3958
▁עובר	-3959
▁הקודם	-3960
▁קטנות	-3961
▁להשפיע	-3962
▁הלימודים	-3963
ost	-3964
בדה	-3965
▁מצט	-3966
▁ניס	-3967
▁הגרמ	-3968
▁הפרט	-3969
▁ואיך	-3970
▁ארוחת	-3971
▁מקרים	-3972
▁המוצרים	-3973
ver	-3974
חיות	-3975
▁הבה	-3976
לחת	-3977
▁האפ	-3978
▁רווח	-3979
▁שמחה	-3980
▁במחקר	-3981
▁לעצמו	-3982
יתו	-3983
▁ובמ	-3984
▁שלם	-3985
▁עורך	-3986
▁חיפוש	-3987
ומט	-3988
▁ברצי	-3989
▁מותר	-3990
▁נושאים	-3991
ff	-3992
זת	-3993
צרי	-3994
שבו	-3995
גרות	-3996
▁בעלת	-3997
▁מהיר	-3998
▁סיפר	-3999
ישורים	-4000
▁הזכות	-4001
▁מחלות	-4002
▁התפתחות	-4003
וכה	-4004
▁Sh	-4005
כנות	-4006
▁נתן	-4007
▁שעל	-4008
שיבות	-4009
▁טרור	-4010
▁למות	-4011
▁מרבית	-4012
▁שניים	-4013
▁הטלפון	-4014
▁אוניברסיטת	-4015
ros	-4016
ואן	-4017
▁שז	-4018
סיקה	-4019
▁עיק	-4020
רגשות	-4021
▁הצוות	-4022
▁לעלות	-4023
▁לפנות	-4024
▁יכולתי	-4025
▁מציאות	-4026
BA	-4027
וכר	-4028
ספים	-4029
▁פינ	-4030
▁בבתי	-4031
▁דרום	-4032
▁לשתף	-4033
▁לתקן	-4034
▁בעלות	-4035
▁השונים	-4036
ark	-4037
▁3.	-4038
▁הפל	-4039
▁הפרי	-4040
▁להיל	-4041
▁היסטוריה	-4042
פיל	-4043
▁עץ	-4044
בעות	-4045
▁וכו	-4046
▁לאט	-4047
▁מסר	-4048
▁ברוב	-4049
▁הפכו	-4050
▁שלושת	-4051
▁בניגוד	-4052
▁בהשוואה	-4053
כרח	-4054
ליל	-4055
פתחו	-4056
▁והק	-4057
▁חרי	-4058
▁השטח	-4059
▁בדרום	-4060
▁המשות	-4061
▁עצמית	-4062
▁פעמיים	-4063
כתה	-4064
סקו	-4065
▁עז	-4066
ועלת	-4067
וריאה	-4068
▁החמי	-4069
▁המשפ	-4070
▁מלון	-4071
▁הצלחה	-4072
▁רפואי	-4073
ומנויות	-4074
▁רעיונות	-4075
נב	-4076
ואל	-4077
מנת	-4078
נטיות	-4079
▁שחור	-4080
▁האישי	-4081
▁המחלה	-4082
▁מושלם	-4083
eb	-4084
נך	-4085
צעו	-4086
דינת	-4087
יראן	-4088
פנים	-4089
▁גרו	-4090
▁ממך	-4091
▁לחלק	-4092
▁מספק	-4093
▁הידוע	-4094
▁הלקוח	-4095
▁הנוכח	-4096
▁מרגישה	-4097
▁המערבית	-4098
▁בּ	-4099
▁2017	-4100
▁חיות	-4101
▁הבוקר	-4102
▁ההזדמנות	-4103
גרס	-4104
מחים	-4105
▁193	-4106
▁לעבר	-4107
▁החוצה	-4108
▁שקורה	-4109
▁במילים	-4110
▁21	-4111
כנים	-4112
▁למצב	-4113
▁ואילו	-4114
▁המפלגה	-4115
בעה	-4116
ולחן	-4117
ציאה	-4118
▁אגב	-4119
▁מחשב	-4120
אורה	-4121
כאון	-4122
▁ישנה	-4123
▁ראוי	-4124
▁שהופ	-4125
רכיבים	-4126
▁ממשיך	-4127
▁מרכזי	-4128
▁תחרות	-4129
▁אלימות	-4130
▁הכלכלי	-4131
ברג	-4132
רתי	-4133
▁ובש	-4134
▁הכדור	-4135
וֹ	-4136
וגים	-4137
ושים	-4138
טיין	-4139
מדות	-4140
▁for	-4141
▁וול	-4142
ליכים	-4143
▁במאה	-4144
▁עברו	-4145
▁בצפון	-4146
▁הראשי	-4147
▁לשלוח	-4148
▁נקודת	-4149
▁תלמידים	-4150
נפ	-4151
האם	-4152
▁שונ	-4153
▁האקד	-4154
▁לנשים	-4155
▁התנועה	-4156
▁פתרונות	-4157
ord	-4158
ושות	-4159
▁והג	-4160
▁2018	-4161
▁אביו	-4162
▁עוזר	-4163
▁מצליח	-4164
▁ראשונה	-4165
▁בינתיים	-4166
▁החוקרים	-4167
▁הראשונות	-4168
EB	-4169
▁מכם	-4170
קטיבי	-4171
▁החוץ	-4172
▁מעמד	-4173
▁בשימוש	-4174
▁מוזיקה	-4175
ack	-4176
זות	-4177
וכיח	-4178
זרים	-4179
סטין	-4180
▁ניק	-4181
▁והיה	-4182
▁כשהם	-4183
▁לשמש	-4184
▁סעיף	-4185
▁ברורה	-4186
▁למדינה	-4187
▁0	-4188
וסק	-4189
▁בכמה	-4190
▁מותו	-4191
▁מחפש	-4192
▁ייצור	-4193
דיות	-4194
ובוס	-4195
תיבה	-4196
▁ביקש	-4197
▁הרשת	-4198
▁לשני	-4199
▁מופי	-4200
▁סימן	-4201
▁לשלוט	-4202
▁פשוטה	-4203
▁הבחירה	-4204
▁התקופה	-4205
ניקה	-4206
▁מלה	-4207
▁מתב	-4208
▁דופן	-4209
▁ומתן	-4210
▁מסכים	-4211
▁תכונות	-4212
טרת	-4213
מפט	-4214
▁''	-4215
▁ובין	-4216
▁צפון	-4217
▁הזדמנויות	-4218
▁בך	-4219
▁גזע	-4220
▁שוכ	-4221
▁שחי	-4222
▁הלבן	-4223
▁כחלק	-4224
▁אירוע	-4225
▁בהרבה	-4226
▁ואולי	-4227
▁להרוג	-4228
▁מקורות	-4229
קף	-4230
גוש	-4231
▁22	-4232
▁An	-4233
מורה	-4234
▁בטר	-4235
▁בעד	-4236
▁בקה	-4237
▁מנג	-4238
▁פות	-4239
▁השאר	-4240
▁ההיסט	-4241
▁כשאתה	-4242
▁פועלים	-4243
אשר	-4244
▁כיף	-4245
▁בטוחה	-4246
▁במקומות	-4247
▁ישראלים	-4248
▁קיל	-4249
▁הבדי	-4250
▁מפתח	-4251
▁פועל	-4252
▁רגיל	-4253
▁ביטוי	-4254
זיל	-4255
▁ניסו	-4256
▁לאירו	-4257
▁לפגוע	-4258
▁הרגשתי	-4259
גלה	-4260
עורר	-4261
▁המונ	-4262
▁הקטן	-4263
▁כותב	-4264
▁תנועה	-4265
כנו	-4266
▁דוד	-4267
▁דרו	-4268
▁בקול	-4269
▁וחצי	-4270
▁משמש	-4271
▁הופיע	-4272
▁הסדרה	-4273
ונו	-4274
ותי	-4275
אפשר	-4276
יתוף	-4277
רכיב	-4278
▁הדלת	-4279
▁הורים	-4280
▁החדשות	-4281
▁נתניהו	-4282
-15	-4283
▁בקשר	-4284
▁אישור	-4285
qu	-4286
ain	-4287
▁צל	-4288
ולין	-4289
ילוב	-4290
▁בור	-4291
▁קבע	-4292
וכנות	-4293
▁מדהי	-4294
▁מוקד	-4295
▁תוכן	-4296
▁פרויקט	-4297
▁לחת	-4298
▁ריק	-4299
▁שפה	-4300
▁הקיץ	-4301
▁הכוחות	-4302
מיני	-4303
▁למא	-4304
▁משר	-4305
▁תשת	-4306
▁שחקן	-4307
▁שישה	-4308
indows	-4309
▁הבנתי	-4310
▁מחשבות	-4311
▁באנגלית	-4312
▁Th	-4313
▁ובו	-4314
▁2014	-4315
▁בצרפת	-4316
▁בטוחים	-4317
ייק	-4318
מפרט	-4319
צבים	-4320
▁דני	-4321
▁למת	-4322
עויות	-4323
▁בפרו	-4324
▁עלולים	-4325
▁n	-4326
בין	-4327
ירא	-4328
סקת	-4329
▁ברכ	-4330
▁וני	-4331
▁הקומ	-4332
▁בעיני	-4333
▁להכין	-4334
▁לטובת	-4335
▁שחקנים	-4336
▁העיניים	-4337
▁Ar	-4338
▁נמ	-4339
טווח	-4340
כירה	-4341
▁לנס	-4342
▁סופ	-4343
▁הכלב	-4344
▁חובה	-4345
▁אמצעי	-4346
▁תושבי	-4347
▁המרכזי	-4348
▁מתחילה	-4349
ויד	-4350
וקת	-4351
ינה	-4352
פרד	-4353
▁23	-4354
לוונ	-4355
▁עזה	-4356
▁נורא	-4357
▁כלשהי	-4358
▁אנגלית	-4359
12	-4360
דרי	-4361
משל	-4362
ענה	-4363
שול	-4364
פלים	-4365
רידה	-4366
▁Com	-4367
▁תחושה	-4368
בדו	-4369
ויב	-4370
גלים	-4371
כסוך	-4372
▁גבי	-4373
▁קלא	-4374
▁המשך	-4375
▁מוצא	-4376
▁לדעתי	-4377
דיק	-4378
סייע	-4379
▁Pro	-4380
▁מדו	-4381
▁לאחד	-4382
▁חלקים	-4383
▁שיפור	-4384
▁הבעיות	-4385
▁העתיקה	-4386
▁להשקיע	-4387
▁מיוחדים	-4388
ביס	-4389
עתו	-4390
ואים	-4391
▁ללמד	-4392
▁למלא	-4393
▁צורה	-4394
▁סיכון	-4395
▁להחליט	-4396
עשה	-4397
קפה	-4398
▁You	-4399
▁הבן	-4400
כולות	-4401
▁במרץ	-4402
▁הדור	-4403
▁ובכך	-4404
▁בחירה	-4405
▁לקרות	-4406
▁משתנה	-4407
▁רגשות	-4408
▁הפופול	-4409
▁Ex	-4410
▁היצ	-4411
▁וזו	-4412
▁לונ	-4413
▁להרח	-4414
▁במשחק	-4415
▁להחזיר	-4416
▁מקצועי	-4417
▁בלונדון	-4418
▁1,	-4419
▁פט	-4420
▁קצ	-4421
פרסם	-4422
טרסים	-4423
▁דברי	-4424
▁מחיי	-4425
▁שיער	-4426
▁תחום	-4427
▁צילום	-4428
▁Google	-4429
▁האלבום	-4430
▁הוועדה	-4431
▁להצטרף	-4432
60	-4433
▁חם	-4434
טחים	-4435
שואים	-4436
▁החיס	-4437
▁ביקור	-4438
▁לאהוב	-4439
▁בסביבה	-4440
▁ארגונים	-4441
גיב	-4442
▁דח	-4443
ירור	-4444
מצים	-4445
▁מאה	-4446
▁סדר	-4447
▁למטה	-4448
▁לקדם	-4449
▁כלבים	-4450
▁לוודא	-4451
▁לתמוך	-4452
ian	-4453
▁60	-4454
טאות	-4455
▁ההג	-4456
▁יוע	-4457
מפיין	-4458
▁לחברה	-4459
▁לענות	-4460
▁להילחם	-4461
▁מודעים	-4462
▁מתכוון	-4463
200	-4464
לאה	-4465
▁טל	-4466
▁בלע	-4467
▁חוד	-4468
▁קלה	-4469
▁הכוכ	-4470
▁לדאוג	-4471
▁מוצרי	-4472
▁מורכב	-4473
▁שהייתה	-4474
▁שהייתי	-4475
▁האמריקאית	-4476
נף	-4477
▁^	-4478
בילה	-4479
שינו	-4480
▁ממח	-4481
▁גרעי	-4482
▁לגור	-4483
▁לחוק	-4484
▁לשבת	-4485
▁מבית	-4486
▁עליי	-4487
▁הולדת	-4488
▁שיטות	-4489
▁החיפוש	-4490
▁אלכוהול	-4491
11	-4492
כז	-4493
בוב	-4494
יגה	-4495
▁וְ	-4496
רגיל	-4497
▁הבט	-4498
▁הגיל	-4499
▁למרבה	-4500
▁החברים	-4501
▁מומחים	-4502
▁ממשיכים	-4503
ביה	-4504
דום	-4505
לחם	-4506
▁פק	-4507
למנט	-4508
▁אנא	-4509
▁נפש	-4510
סטיבל	-4511
▁ובכן	-4512
▁מסכי	-4513
▁עלולה	-4514
▁להפחית	-4515
▁בבריטניה	-4516
הש	-4517
ירי	-4518
ולדת	-4519
▁קרב	-4520
▁המשא	-4521
▁שישי	-4522
▁דוגמה	-4523
▁המספר	-4524
▁משותף	-4525
▁תקווה	-4526
▁בהתחלה	-4527
▁חומרים	-4528
▁השחקנים	-4529
הג	-4530
וכים	-4531
וצות	-4532
▁כלב	-4533
▁לאל	-4534
▁אכפת	-4535
▁בדבר	-4536
▁בכוח	-4537
▁דיבר	-4538
▁האוט	-4539
▁זרים	-4540
▁הקודש	-4541
▁הקרוב	-4542
▁הגבוהה	-4543
▁פוליטית	-4544
▁באוניברסיטת	-4545
▁האוניברסיטה	-4546
ure	-4547
▁נר	-4548
▁ביד	-4549
▁דלת	-4550
▁הקל	-4551
▁נוח	-4552
▁בשטח	-4553
▁דורש	-4554
▁הסוב	-4555
▁הקהל	-4556
▁השתמש	-4557
▁גבולות	-4558
▁העיקרית	-4559
ib	-4560
ect	-4561
▁סקר	-4562
▁שאף	-4563
▁שור	-4564
ורקיה	-4565
▁גודל	-4566
▁המופ	-4567
▁וכמה	-4568
▁שקרה	-4569
סטן	-4570
קון	-4571
קיפה	-4572
שיון	-4573
▁אול	-4574
▁ודי	-4575
▁לנה	-4576
▁מלך	-4577
▁משם	-4578
וגיות	-4579
לטפור	-4580
ראיתי	-4581
▁2012	-4582
▁ספרי	-4583
▁פירו	-4584
▁במשקל	-4585
▁חוויה	-4586
▁מבוסס	-4587
▁הנכונה	-4588
מלית	-4589
▁במט	-4590
▁גרוע	-4591
▁יעיל	-4592
פורניה	-4593
▁הערבי	-4594
▁נראית	-4595
▁האמנות	-4596
▁ההשפעה	-4597
pl	-4598
ear	-4599
ran	-4600
נסו	-4601
שוי	-4602
▁הבו	-4603
▁מבע	-4604
רוויח	-4605
▁2013	-4606
▁החבר	-4607
▁חינם	-4608
▁יעשה	-4609
▁במרחק	-4610
▁מחזיק	-4611
▁בדיקות	-4612
▁המקרים	-4613
גול	-4614
▁אדמה	-4615
▁אשתו	-4616
▁ברית	-4617
▁הבנה	-4618
▁החיצ	-4619
▁הרגע	-4620
▁לרגע	-4621
▁המקור	-4622
▁להעלות	-4623
▁לומדים	-4624
▁האנושית	-4625
▁הפרויקט	-4626
▁פלסטינים	-4627
עתם	-4628
▁גז	-4629
ועים	-4630
▁אבר	-4631
▁גלי	-4632
▁הלה	-4633
▁כשי	-4634
▁שכר	-4635
ביבות	-4636
▁הקמת	-4637
▁עמוד	-4638
▁אהבתי	-4639
▁בהכרח	-4640
▁הרצון	-4641
▁השינוי	-4642
▁כלכלית	-4643
iz	-4644
סיי	-4645
▁חפ	-4646
סאות	-4647
פונים	-4648
▁בשום	-4649
▁בשפה	-4650
▁אמונה	-4651
▁עבודת	-4652
-12	-4653
ome	-4654
חיד	-4655
למו	-4656
קדש	-4657
▁הדר	-4658
▁עמד	-4659
▁התוכ	-4660
▁רחבי	-4661
▁דולרים	-4662
כש	-4663
▁g	-4664
מלא	-4665
▁באה	-4666
▁זהב	-4667
▁סיר	-4668
▁התרח	-4669
▁טעות	-4670
▁ישנן	-4671
▁מכאן	-4672
▁הטובות	-4673
-17	-4674
ערי	-4675
▁Con	-4676
▁ישת	-4677
▁שרק	-4678
▁תמי	-4679
▁נוצר	-4680
▁סוריה	-4681
▁שירותים	-4682
▁בינלאומיים	-4683
2]	-4684
כלת	-4685
ליג	-4686
נין	-4687
גדים	-4688
ראוי	-4689
▁ויט	-4690
▁לסט	-4691
▁נשי	-4692
▁ההשק	-4693
▁לארץ	-4694
▁סרטים	-4695
▁עשיתי	-4696
▁הקריירה	-4697
▁הקשורים	-4698
▁h	-4699
are	-4700
מרה	-4701
▁בכו	-4702
▁החול	-4703
▁מבקש	-4704
▁מעוד	-4705
▁משלו	-4706
▁לחקור	-4707
▁נראים	-4708
▁ללקוחות	-4709
ex	-4710
▁ב־	-4711
▁בלא	-4712
▁והד	-4713
▁פית	-4714
▁הווי	-4715
▁המומ	-4716
▁מבנה	-4717
▁נדרש	-4718
▁סופר	-4719
▁החומר	-4720
▁לקבלת	-4721
▁קיבלו	-4722
▁המקורי	-4723
▁חוקרים	-4724
▁פעילויות	-4725
מז	-4726
ies	-4727
ועה	-4728
ייד	-4729
מצב	-4730
▁המנ	-4731
▁ולב	-4732
▁שהס	-4733
בקרים	-4734
לחמות	-4735
▁הנוס	-4736
בס	-4737
▁Un	-4738
▁תד	-4739
בדים	-4740
▁חתי	-4741
▁ירו	-4742
▁טווח	-4743
▁עומדת	-4744
▁עיתונ	-4745
▁שיווק	-4746
▁להסתכל	-4747
▁נוסעים	-4748
▁שמישהו	-4749
▁המשחקים	-4750
per	-4751
יימס	-4752
פיסה	-4753
▁באו	-4754
▁וית	-4755
▁מפת	-4756
▁הבסי	-4757
▁להוכיח	-4758
▁עבודות	-4759
▁+	-4760
ביט	-4761
אללה	-4762
▁WEB	-4763
▁מקי	-4764
▁שדה	-4765
▁אינס	-4766
▁ואנו	-4767
▁טכני	-4768
▁מסחר	-4769
▁מקרי	-4770
▁הודעה	-4771
▁מעולה	-4772
▁לאחרים	-4773
▁להוריד	-4774
▁לכאורה	-4775
▁מציעים	-4776
ry	-4777
ענו	-4778
פתי	-4779
וגמא	-4780
כנון	-4781
▁הכח	-4782
▁הסכ	-4783
▁ייצ	-4784
▁הלאה	-4785
▁לחכות	-4786
▁החדשים	-4787
▁המוזיקה	-4788
▁להתייחס	-4789
ובדה	-4790
טרכו	-4791
ילנד	-4792
▁ההע	-4793
▁כוס	-4794
▁לכי	-4795
▁אליך	-4796
▁אוסטר	-4797
▁הטרור	-4798
▁לזכות	-4799
▁במקביל	-4800
▁לונדון	-4801
▁טכנולוגיה	-4802
ld	-4803
חתם	-4804
סיד	-4805
▁דף	-4806
▁חיה	-4807
▁ההור	-4808
▁מודע	-4809
▁מחלה	-4810
▁מכיל	-4811
▁אינני	-4812
▁גבוהים	-4813
▁המשימה	-4814
▁הצליחו	-4815
▁חוב	-4816
חריות	-4817
▁דמות	-4818
▁כוללת	-4819
▁מגיעה	-4820
▁התייחס	-4821
▁להחליף	-4822
▁מאפשרת	-4823
▁Windows	-4824
ַי	-4825
▁i	-4826
ייט	-4827
▁Bl	-4828
דוני	-4829
רפתי	-4830
שתמש	-4831
▁היב	-4832
▁העד	-4833
▁ממי	-4834
דירים	-4835
▁הפדר	-4836
▁האסלא	-4837
▁השינה	-4838
▁לבחון	-4839
▁עובדת	-4840
▁תחילת	-4841
▁כוללים	-4842
▁האזרחים	-4843
▁היתרונות	-4844
לוי	-4845
▁De	-4846
ואות	-4847
▁במל	-4848
▁הקש	-4849
▁חכם	-4850
▁אדום	-4851
▁סיוע	-4852
▁האפשר	-4853
▁המבנה	-4854
▁שירים	-4855
▁תגובה	-4856
▁להשתתף	-4857
▁מסוימות	-4858
ud	-4859
שוך	-4860
▁סל	-4861
▁פח	-4862
בורג	-4863
בינו	-4864
ניתי	-4865
▁הפס	-4866
פעמים	-4867
▁מוכר	-4868
▁מעלה	-4869
▁מסביב	-4870
▁בשבילי	-4871
▁שיניים	-4872
▁תגובות	-4873
▁סיפורים	-4874
ָּ	-4875
ust	-4876
גישו	-4877
נאות	-4878
▁החלל	-4879
קטיבית	-4880
▁איתנו	-4881
▁הכנסת	-4882
▁לשתות	-4883
▁מסוכן	-4884
▁הכלכלה	-4885
oft	-4886
דיש	-4887
קרי	-4888
▁Mic	-4889
▁מפע	-4890
▁נמש	-4891
▁נקי	-4892
▁סטי	-4893
▁באחד	-4894
▁טלפון	-4895
▁מופיע	-4896
▁האמונה	-4897
▁הספרים	-4898
▁עיניים	-4899
▁קוריאה	-4900
▁בינלאומי	-4901
")	-4902
הח	-4903
end	-4904
▁הדו	-4905
▁ויק	-4906
▁הקרב	-4907
▁התכו	-4908
▁משפי	-4909
▁בדיקה	-4910
▁השראה	-4911
▁מינית	-4912
▁תוצאה	-4913
?".	-4914
ציג	-4915
▁יו	-4916
ציונ	-4917
▁המז	-4918
קציות	-4919
▁אמון	-4920
▁באשר	-4921
▁בשתי	-4922
▁מתקד	-4923
▁נהדר	-4924
▁דומים	-4925
▁הצעיר	-4926
▁נהרגו	-4927
אירו	-4928
מיין	-4929
נסיה	-4930
▁היד	-4931
▁השו	-4932
▁ויע	-4933
▁מזג	-4934
▁2019	-4935
▁היתר	-4936
▁הגבול	-4937
▁הולכת	-4938
▁להקים	-4939
▁מספקת	-4940
▁הבריטי	-4941
יון	-4942
▁-1	-4943
▁מהג	-4944
▁אהבת	-4945
▁המות	-4946
▁חשמל	-4947
▁נדמה	-4948
▁שפות	-4949
וטנציא	-4950
▁דיגיט	-4951
▁המפתח	-4952
ינג	-4953
פלי	-4954
פלל	-4955
▁בחו	-4956
▁חיצ	-4957
▁כיש	-4958
▁מתן	-4959
▁שוט	-4960
▁שקט	-4961
▁טוען	-4962
▁מצאו	-4963
▁עצמא	-4964
▁קשים	-4965
▁הקרקע	-4966
▁כתובת	-4967
▁הודעות	-4968
▁המהפכה	-4969
▁מספרים	-4970
▁קיימות	-4971
טוב	-4972
לום	-4973
▁סא	-4974
▁לעיר	-4975
▁לאומי	-4976
▁בוחרים	-4977
▁בתקופת	-4978
▁לציבור	-4979
ph	-4980
פרץ	-4981
▁Pl	-4982
▁ים	-4983
לילה	-4984
▁רצח	-4985
▁רקע	-4986
▁שבהן	-4987
▁שלמה	-4988
▁בחינם	-4989
▁להגדיל	-4990
▁האוכלוסייה	-4991
ire	-4992
חתה	-4993
▁Ph	-4994
▁דוא	-4995
▁2010	-4996
▁יתכן	-4997
▁משלה	-4998
▁סמים	-4999
▁כאמור	-5000
▁מנהיג	-5001
▁מציעה	-5002
מוקרטית	-5003
ore	-5004
יום	-5005
שאל	-5006
▁גול	-5007
▁סנט	-5008
▁פלא	-5009
▁2011	-5010
▁כלים	-5011
יתונות	-5012
▁אבטחה	-5013
▁אופטי	-5014
▁המסחר	-5015
▁האמריקני	-5016
ue	-5017
▁”	-5018
-30	-5019
בנו	-5020
ונם	-5021
▁4.	-5022
▁כרו	-5023
ליחים	-5024
שימות	-5025
▁אביב	-5026
▁החוף	-5027
▁חלקם	-5028
▁ידעו	-5029
▁לכאן	-5030
▁החליט	-5031
▁לפיכך	-5032
▁המשתמש	-5033
▁הסיבות	-5034
▁זיכרון	-5035
▁להשאיר	-5036
▁העולמית	-5037
כוז	-5038
▁28	-5039
▁דג	-5040
▁ומכ	-5041
נגליה	-5042
▁הערך	-5043
▁כאלו	-5044
▁הבסיס	-5045
▁עובדות	-5046
▁בגרמניה	-5047
:00	-5048
בחר	-5049
ונד	-5050
מסר	-5051
▁נפט	-5052
▁לחיי	-5053
▁לשלב	-5054
▁מאוח	-5055
▁מצפה	-5056
▁שיחק	-5057
▁עשרים	-5058
▁בסוריה	-5059
▁הפתרון	-5060
▁להשלים	-5061
▁בבחירות	-5062
▁מבוגרים	-5063
ood	-5064
ופש	-5065
ייקט	-5066
קאים	-5067
▁ההש	-5068
▁הלך	-5069
▁יור	-5070
▁מגלה	-5071
מודדות	-5072
▁האדום	-5073
▁המאמר	-5074
▁לטווח	-5075
ריח	-5076
▁אט	-5077
▁בוא	-5078
▁יוצר	-5079
▁לרדת	-5080
▁עצום	-5081
▁קצרה	-5082
▁שומן	-5083
▁תלמי	-5084
▁הגישה	-5085
▁שניות	-5086
▁להשתנות	-5087
תיב	-5088
מהות	-5089
▁קוס	-5090
▁איתה	-5091
▁זהות	-5092
▁מדעי	-5093
▁מתרג	-5094
▁סיום	-5095
▁רשמי	-5096
▁להחזיק	-5097
▁נותנים	-5098
▁האחריות	-5099
▁מכוניות	-5100
▁המדיניות	-5101
%.	-5102
בוצת	-5103
▁במג	-5104
▁לטע	-5105
▁מאמר	-5106
▁ניסה	-5107
▁רשות	-5108
▁איננה	-5109
▁האהוב	-5110
▁חוקים	-5111
▁לוותר	-5112
▁ממשלה	-5113
▁שנקרא	-5114
▁השניים	-5115
25	-5116
הר	-5117
בון	-5118
ליזם	-5119
▁אחי	-5120
▁שמס	-5121
▁בקיץ	-5122
▁בקשה	-5123
▁הפינ	-5124
▁נותר	-5125
▁יעזור	-5126
▁לקיים	-5127
▁צעדים	-5128
▁תחושת	-5129
▁תחילה	-5130
▁תיאור	-5131
▁גופנית	-5132
▁המאפשר	-5133
▁תעשיית	-5134
געו	-5135
עין	-5136
▁Sp	-5137
▁במת	-5138
▁כבד	-5139
ופטים	-5140
▁ואתם	-5141
▁משני	-5142
▁סובל	-5143
▁פולי	-5144
▁ציין	-5145
▁שבין	-5146
▁שואל	-5147
▁המלון	-5148
▁השאלות	-5149
▁חיובית	-5150
▁השלישית	-5151
mer	-5152
דמה	-5153
טיקה	-5154
יגים	-5155
▁והכ	-5156
▁צדק	-5157
▁באים	-5158
▁מעשה	-5159
▁נבחר	-5160
▁אתרים	-5161
▁גידול	-5162
▁הרכבת	-5163
▁יוצאת	-5164
▁נוטים	-5165
▁איטליה	-5166
▁הממוצע	-5167
בעו	-5168
מצם	-5169
▁צו	-5170
למות	-5171
ננות	-5172
▁כבי	-5173
▁לאר	-5174
▁אלכס	-5175
▁השות	-5176
▁לאבד	-5177
▁במשרד	-5178
▁המאוח	-5179
▁מהבית	-5180
▁הכניסה	-5181
▁לשינוי	-5182
▁פרויקטים	-5183
הו	-5184
▁בכת	-5185
▁ויה	-5186
▁טעם	-5187
זיאון	-5188
▁בערב	-5189
▁השרי	-5190
▁לשנת	-5191
▁מודעות	-5192
▁הפלסטיני	-5193
40	-5194
לחו	-5195
ליפ	-5196
▁Ad	-5197
אלון	-5198
זונה	-5199
יינה	-5200
מובן	-5201
▁ושה	-5202
▁לעי	-5203
▁מתפ	-5204
▁נוש	-5205
▁המין	-5206
▁מכתב	-5207
▁פרנק	-5208
▁התורה	-5209
▁ירידה	-5210
▁שנייה	-5211
ָא	-5212
נל	-5213
ִים	-5214
היא	-5215
▁פג	-5216
דלים	-5217
▁ויל	-5218
▁ישר	-5219
▁נהיה	-5220
▁אחראי	-5221
▁רשימה	-5222
▁הופכים	-5223
▁העיצוב	-5224
▁מכירות	-5225
▁מיליוני	-5226
▁)	-5227
פרו	-5228
▁27	-5229
מציה	-5230
▁אמו	-5231
▁צור	-5232
▁הנפש	-5233
▁סכום	-5234
▁אובדן	-5235
▁ברחוב	-5236
▁המוקד	-5237
▁המשיך	-5238
▁אוכלים	-5239
▁התחלתי	-5240
▁יוצאים	-5241
▁המכונית	-5242
ארט	-5243
בתא	-5244
כרים	-5245
▁באת	-5246
▁באור	-5247
▁ישיר	-5248
▁ההסכם	-5249
▁שכולם	-5250
▁ברצינות	-5251
צם	-5252
כרו	-5253
חייה	-5254
▁אבן	-5255
▁בכי	-5256
▁גאה	-5257
▁2016	-5258
▁במים	-5259
▁הירח	-5260
▁הצטר	-5261
▁בעצמו	-5262
▁לסיים	-5263
▁התכנית	-5264
▁למישהו	-5265
▁מוצאים	-5266
3)	-5267
NA	-5268
ock	-5269
▁26	-5270
▁Wh	-5271
▁הסמ	-5272
▁נהג	-5273
▁סקס	-5274
וצרים	-5275
▁היעד	-5276
▁הממשל	-5277
▁לנסוע	-5278
▁מועצת	-5279
▁קיבלה	-5280
▁שמעתי	-5281
▁להודות	-5282
▁מכונית	-5283
▁אמריקאי	-5284
סן	-5285
▁·	-5286
-16	-5287
היה	-5288
טין	-5289
▁Be	-5290
גיות	-5291
לינו	-5292
▁זהה	-5293
▁פתי	-5294
▁שמצ	-5295
▁המיי	-5296
▁יוני	-5297
▁כתוב	-5298
▁אשראי	-5299
ational	-5300
▁העיקריים	-5301
▁הטלוויזיה	-5302
חשב	-5303
נצל	-5304
קורת	-5305
▁לכו	-5306
▁פרט	-5307
מינות	-5308
▁איבד	-5309
▁הבין	-5310
▁נסיעה	-5311
▁התפקיד	-5312
▁להצליח	-5313
▁Q	-5314
רין	-5315
▁והמש	-5316
▁מטרת	-5317
▁שאולי	-5318
מפטומים	-5319
▁בתגובה	-5320
▁התמונות	-5321
ואב	-5322
ולט	-5323
מלה	-5324
נור	-5325
ואלי	-5326
כלות	-5327
▁דרכ	-5328
▁ליל	-5329
▁פיצ	-5330
▁שיא	-5331
▁שמן	-5332
▁עמדה	-5333
ובליקה	-5334
▁הופכת	-5335
▁משפחתו	-5336
1]	-5337
▁Z	-5338
ial	-5339
▁בתים	-5340
▁המיק	-5341
▁לנצל	-5342
▁ניסי	-5343
▁הודיע	-5344
▁לשאלה	-5345
▁מצוין	-5346
▁להפעיל	-5347
▁נוכחות	-5348
ox	-5349
נז	-5350
נהג	-5351
נחה	-5352
▁35	-5353
▁191	-5354
▁במכ	-5355
▁מנק	-5356
▁תאי	-5357
חלטות	-5358
מטיקה	-5359
▁מביא	-5360
▁כלכלי	-5361
▁להסיר	-5362
▁שילוב	-5363
▁בינינו	-5364
▁השלטון	-5365
▁להצביע	-5366
▁המוזיאון	-5367
ליטו	-5368
▁מרת	-5369
▁לוקחים	-5370
▁מוסדות	-5371
בוא	-5372
וציה	-5373
שנים	-5374
▁ובס	-5375
▁טור	-5376
▁למט	-5377
▁שלח	-5378
▁וזאת	-5379
▁ילדה	-5380
▁מורה	-5381
▁הפוסט	-5382
▁לתפוס	-5383
▁בשבילך	-5384
▁השונות	-5385
▁עוברים	-5386
▁הכנסייה	-5387
לתה	-5388
טיבי	-5389
▁הקב	-5390
▁ופע	-5391
▁יפן	-5392
כליים	-5393
פריקה	-5394
▁ציוד	-5395
▁קשות	-5396
▁באיזה	-5397
▁יהודית	-5398
ER	-5399
אונה	-5400
אלית	-5401
מירה	-5402
▁אוי	-5403
▁לרי	-5404
▁קרן	-5405
▁אושר	-5406
▁הודו	-5407
▁חמאס	-5408
▁מוזר	-5409
▁נחמד	-5410
פיינים	-5411
▁בחירות	-5412
▁הייצור	-5413
▁המלכות	-5414
▁מדענים	-5415
?!	-5416
גב	-5417
-50	-5418
ass	-5419
חזר	-5420
רמו	-5421
▁הַ	-5422
בדות	-5423
ויים	-5424
ועדת	-5425
מותה	-5426
▁טען	-5427
▁מחו	-5428
▁מעי	-5429
ומנים	-5430
ועלים	-5431
▁יחיד	-5432
▁ירוק	-5433
▁מאמץ	-5434
▁הלידה	-5435
▁הליכה	-5436
▁חברתי	-5437
▁כוכבים	-5438
▁להגדיר	-5439
ילוסופיה	-5440
▁מעוניינים	-5441
פח	-5442
ליא	-5443
ערה	-5444
וארד	-5445
▁אינך	-5446
▁גירו	-5447
▁להיש	-5448
▁נועד	-5449
▁האינט	-5450
▁השתנה	-5451
▁עורכי	-5452
▁לכיוון	-5453
▁להרוויח	-5454
▁להט	-5455
מורים	-5456
▁צבאי	-5457
▁אזרחי	-5458
▁היומי	-5459
▁המורה	-5460
▁משחקי	-5461
▁תאריך	-5462
▁אישיות	-5463
▁בשירות	-5464
מוח	-5465
כתוב	-5466
מוני	-5467
▁כשמ	-5468
▁קופ	-5469
▁שכי	-5470
חקרים	-5471
▁חולה	-5472
▁יושב	-5473
וקיינו	-5474
▁אצלנו	-5475
▁לגדול	-5476
▁לפגוש	-5477
▁מהירה	-5478
▁בהצלחה	-5479
▁המועצה	-5480
▁ייחודי	-5481
▁כדורגל	-5482
▁מהירות	-5483
▁מעוניין	-5484
ip	-5485
זא	-5486
קח	-5487
ננו	-5488
ננת	-5489
קרו	-5490
רגן	-5491
▁יתק	-5492
▁כמי	-5493
▁עיי	-5494
▁במקור	-5495
▁הקדוש	-5496
▁רציני	-5497
▁יוצרים	-5498
ly	-5499
ond	-5500
איך	-5501
גית	-5502
▁השח	-5503
דרגות	-5504
▁2009	-5505
▁הכאב	-5506
▁יגיע	-5507
▁לשאת	-5508
▁מזמן	-5509
▁נעים	-5510
▁חיובי	-5511
▁כראוי	-5512
▁מוביל	-5513
▁מחשבה	-5514
▁מעלות	-5515
▁ועדיין	-5516
בלי	-5517
נציה	-5518
▁192	-5519
▁באש	-5520
▁בדם	-5521
▁התה	-5522
▁פיר	-5523
▁רגל	-5524
▁הכפר	-5525
▁יכלו	-5526
▁מחכה	-5527
▁הייתם	-5528
▁היקום	-5529
▁מסביר	-5530
▁קשרים	-5531
▁רלוונ	-5532
▁גבוהות	-5533
▁מתייחס	-5534
▁השינויים	-5535
3]	-5536
▁גן	-5537
▁דלק	-5538
▁הפא	-5539
▁התש	-5540
▁בימי	-5541
▁התרג	-5542
▁הצרפת	-5543
▁חירום	-5544
▁מסורת	-5545
▁רשימת	-5546
▁שתהיה	-5547
▁בוודאי	-5548
▁הגברים	-5549
▁השתמשו	-5550
▁האמיתית	-5551
▁הנוכחית	-5552
500	-5553
ace	-5554
וקס	-5555
tern	-5556
▁ייק	-5557
▁סוד	-5558
▁שנש	-5559
כוניות	-5560
▁במחיר	-5561
▁בפנים	-5562
▁לעקוב	-5563
▁הערבים	-5564
▁להתגבר	-5565
▁פרטיות	-5566
▁ציבורית	-5567
▁y	-5568
▁on	-5569
▁מתו	-5570
ודעות	-5571
נייני	-5572
▁הארו	-5573
▁המנו	-5574
▁לסרט	-5575
▁מודה	-5576
▁הכללי	-5577
▁ואולם	-5578
▁מוכנה	-5579
▁מוצלח	-5580
▁בטיחות	-5581
▁הבעלים	-5582
▁המערבי	-5583
▁באפשרות	-5584
▁המשתמשים	-5585
▁טכנולוגי	-5586
▁בינלאומית	-5587
4]	-5588
גרש	-5589
תיו	-5590
▁36	-5591
ment	-5592
▁500	-5593
▁אבו	-5594
▁במד	-5595
▁נהר	-5596
ומנות	-5597
▁חלקי	-5598
▁מבצע	-5599
▁מסוכ	-5600
▁מסור	-5601
▁שגור	-5602
▁עמוקה	-5603
▁תנאים	-5604
▁במלחמה	-5605
בסס	-5606
ולו	-5607
ושה	-5608
מתם	-5609
▁טה	-5610
▁ולג	-5611
▁יין	-5612
▁השלב	-5613
▁והנה	-5614
▁לבטל	-5615
▁מתכנ	-5616
▁צודק	-5617
rosoft	-5618
▁בגדים	-5619
▁בעבוד	-5620
▁האופן	-5621
▁המשרד	-5622
▁להגיש	-5623
▁עובדה	-5624
▁רוברט	-5625
▁מאמינה	-5626
▁מוזיאון	-5627
זן	-5628
טט	-5629
ith	-5630
חדש	-5631
גריה	-5632
▁הוח	-5633
▁לבו	-5634
יחסים	-5635
▁הבדל	-5636
▁שהתק	-5637
▁האימפ	-5638
▁לעצמך	-5639
▁בסגנון	-5640
▁להצלחה	-5641
▁להתאים	-5642
▁סובלים	-5643
▁יתרונות	-5644
און	-5645
ונך	-5646
▁לשו	-5647
▁מצח	-5648
▁מתה	-5649
▁2007	-5650
▁החדר	-5651
▁מבני	-5652
▁קראו	-5653
▁הכנסה	-5654
▁הקטנה	-5655
▁לשכוח	-5656
▁מאחור	-5657
▁הקרובה	-5658
▁לבריאות	-5659
ופס	-5660
▁re	-5661
פלומ	-5662
▁באל	-5663
▁מנכ	-5664
▁מנצ	-5665
▁עוק	-5666
▁שהג	-5667
▁אסיה	-5668
▁להור	-5669
▁לילד	-5670
▁מחוז	-5671
▁שרוב	-5672
▁חיבור	-5673
▁לחוות	-5674
▁תינוק	-5675
▁באיכות	-5676
▁ההצלחה	-5677
▁להתמקד	-5678
בני	-5679
וגרפ	-5680
▁מזו	-5681
▁מרק	-5682
ביעית	-5683
דברים	-5684
▁המבו	-5685
▁לזמן	-5686
▁כשהיא	-5687
▁רשמית	-5688
▁שיותר	-5689
▁התגובה	-5690
IS	-5691
-11	-5692
ory	-5693
▁Le	-5694
סיבה	-5695
סקנה	-5696
▁ישן	-5697
דושים	-5698
▁הזהב	-5699
▁נמשך	-5700
▁האנטי	-5701
▁השיער	-5702
▁למספר	-5703
▁מכירה	-5704
▁עבורי	-5705
▁שנראה	-5706
▁מבקשים	-5707
▁תינוקות	-5708
שט	-5709
▁v	-5710
חין	-5711
ילי	-5712
▁Cl	-5713
▁וו	-5714
▁שפת	-5715
▁האחר	-5716
▁הידי	-5717
▁חלום	-5718
▁סדרת	-5719
באנגלית	-5720
▁ישראלי	-5721
▁החברתית	-5722
אדם	-5723
פוח	-5724
-198	-5725
לונה	-5726
מורת	-5727
▁בוט	-5728
▁חור	-5729
ופעות	-5730
▁(200	-5731
▁2000	-5732
▁2008	-5733
▁אופי	-5734
▁בפרס	-5735
▁דעות	-5736
▁אימון	-5737
▁החודש	-5738
▁לאחור	-5739
▁התמיכה	-5740
▁שואלים	-5741
▁התנגדות	-5742
pt	-5743
ברך	-5744
ולל	-5745
לכה	-5746
מוי	-5747
עתה	-5748
▁כס	-5749
▁לחס	-5750
▁משע	-5751
▁ענה	-5752
▁ערו	-5753
ודאות	-5754
כנסות	-5755
▁לתאר	-5756
▁משבר	-5757
▁הרשות	-5758
▁זמנית	-5759
▁יעילה	-5760
וליטיקה	-5761
▁יחידות	-5762
▁לדמיין	-5763
▁המקומית	-5764
IC	-5765
לוס	-5766
▁תן	-5767
יציה	-5768
▁הנח	-5769
▁לוב	-5770
▁מסך	-5771
▁קיר	-5772
▁דגים	-5773
▁המסר	-5774
▁כוכב	-5775
▁עברה	-5776
▁אובמה	-5777
▁הכולל	-5778
▁ישירה	-5779
▁עלייה	-5780
▁הדרכים	-5781
▁להעניק	-5782
▁להעריך	-5783
▁מספקים	-5784
▁האלקטרו	-5785
▁הציבורי	-5786
▁מצליחים	-5787
מאי	-5788
מנט	-5789
ספו	-5790
קוד	-5791
▁ארי	-5792
▁ונת	-5793
▁ניי	-5794
▁פתח	-5795
▁בשדה	-5796
▁הכרי	-5797
▁הנדר	-5798
▁הפלי	-5799
▁הקשה	-5800
▁לממש	-5801
▁הערכה	-5802
▁הקודמת	-5803
▁מוגבלת	-5804
▁השיניים	-5805
▁להיראות	-5806
נתו	-5807
גיון	-5808
▁בצע	-5809
▁דרי	-5810
▁האנ	-5811
▁הונ	-5812
▁הסבר	-5813
▁ישנו	-5814
▁לברוח	-5815
▁מטרים	-5816
▁בתחילה	-5817
▁התנאים	-5818
▁ידידות	-5819
▁משותפת	-5820
▁הישראלים	-5821
דף	-5822
-13	-5823
ite	-5824
▁בקט	-5825
▁ממע	-5826
▁שיח	-5827
בירים	-5828
דויות	-5829
▁המסע	-5830
▁והכל	-5831
▁למדע	-5832
▁משול	-5833
▁בהקשר	-5834
▁משפיע	-5835
▁שאלתי	-5836
▁ממשיכה	-5837
▁זע	-5838
▁סו	-5839
▁והט	-5840
▁נבח	-5841
▁רבי	-5842
טיסטי	-5843
קידים	-5844
▁הפרק	-5845
▁מעשי	-5846
▁נבנה	-5847
▁סמכות	-5848
▁הרביעי	-5849
▁סימנים	-5850
AS	-5851
az	-5852
ik	-5853
חזק	-5854
ממה	-5855
▁לְ	-5856
-197	-5857
וצמה	-5858
יחוד	-5859
מתין	-5860
▁השר	-5861
▁טיי	-5862
רכנים	-5863
▁(201	-5864
▁יוסף	-5865
▁כתבה	-5866
▁לגוף	-5867
▁נפתח	-5868
▁סטוד	-5869
קרונות	-5870
▁מעדיף	-5871
▁מעורב	-5872
▁הגורמים	-5873
▁החשובים	-5874
▁אוסטרליה	-5875
15	-5876
ide	-5877
oin	-5878
דין	-5879
כלל	-5880
▁Pr	-5881
▁בנה	-5882
▁כשל	-5883
▁מכת	-5884
▁עזר	-5885
▁תיע	-5886
וסקים	-5887
▁מחלת	-5888
▁נפלא	-5889
▁שיטת	-5890
▁פירות	-5891
▁ארוכות	-5892
▁החוקים	-5893
▁הפרטים	-5894
▁למטרות	-5895
▁רגילים	-5896
▁שעדיין	-5897
▁מקומיים	-5898
4)	-5899
aw	-5900
▁ער	-5901
ולית	-5902
יינת	-5903
פואה	-5904
▁בתא	-5905
▁כני	-5906
▁מפר	-5907
▁נבד	-5908
▁עיו	-5909
▁רוק	-5910
ודיעה	-5911
וריים	-5912
יימות	-5913
▁לרוץ	-5914
▁מודל	-5915
▁ממשל	-5916
▁מציג	-5917
▁ערים	-5918
▁בניית	-5919
▁בשעות	-5920
▁ואחרי	-5921
▁מזכיר	-5922
▁ממוקם	-5923
▁פגיעה	-5924
▁הצרכים	-5925
▁לעצמכם	-5926
▁פרטיים	-5927
age	-5928
ודר	-5929
טוח	-5930
לוג	-5931
▁זי	-5932
▁הקו	-5933
▁ואח	-5934
▁יוז	-5935
מיוחד	-5936
פלסטי	-5937
▁בעלה	-5938
▁יצאו	-5939
▁לקרי	-5940
▁שיחה	-5941
▁האחים	-5942
▁המשבר	-5943
▁הערים	-5944
▁וכיצד	-5945
▁הביטוח	-5946
▁הביטוי	-5947
▁הוראות	-5948
te	-5949
ודיה	-5950
יתות	-5951
שמים	-5952
▁הצפ	-5953
▁זול	-5954
▁מיה	-5955
▁המערב	-5956
▁נקודה	-5957
▁ערכים	-5958
▁חופשית	-5959
ES	-5960
והר	-5961
▁ובח	-5962
▁ותר	-5963
▁חום	-5964
▁שמר	-5965
▁שקר	-5966
▁בנסי	-5967
▁הקפי	-5968
▁נתון	-5969
▁במובן	-5970
▁הצבאי	-5971
▁ייעוץ	-5972
▁לשרוד	-5973
▁לתרום	-5974
▁קראתי	-5975
▁האסטרט	-5976
▁ולהיות	-5977
▁לפיתוח	-5978
▁לאלוהים	-5979
▁להתקיים	-5980
▁הסטודנטים	-5981
-"	-5982
io	-5983
ork	-5984
וזן	-5985
מעו	-5986
זיות	-5987
לחתי	-5988
▁אבות	-5989
▁הצבע	-5990
▁נגמר	-5991
▁עלות	-5992
▁שבעה	-5993
▁המעבר	-5994
▁להגיב	-5995
▁עבודתו	-5996
▁ציבורי	-5997
▁דוגמאות	-5998
▁הצעירים	-5999
▁e	-6000
ונן	-6001
חיש	-6002
טלר	-6003
ניע	-6004
קיף	-6005
▁אֶ	-6006
ליאם	-6007
סוקה	-6008
▁התמ	-6009
▁שיצ	-6010
וחרים	-6011
טיפול	-6012
▁אהיה	-6013
▁אורג	-6014
▁דובר	-6015
▁הישן	-6016
▁הפחד	-6017
▁הסתיי	-6018
▁מייקל	-6019
▁שיחות	-6020
וסטרליה	-6021
▁רופאים	-6022
▁אוטומטי	-6023
▁מקצועית	-6024
▁עקרונות	-6025
▁Microsoft	-6026
oy	-6027
כמו	-6028
מעת	-6029
▁5.	-6030
▁קמ	-6031
ביעת	-6032
גידו	-6033
וגיה	-6034
שמיות	-6035
▁הביא	-6036
▁הנפט	-6037
▁ובני	-6038
▁מסיי	-6039
▁אברהם	-6040
▁השחקן	-6041
▁מתרחש	-6042
▁תכנון	-6043
▁בריאים	-6044
▁הזמנים	-6045
▁מסמכים	-6046
▁אלקטרוני	-6047
לאי	-6048
לכת	-6049
▁והנ	-6050
▁הכוו	-6051
▁לשנה	-6052
▁תגית	-6053
▁תעשה	-6054
▁חשיבה	-6055
▁ליותר	-6056
▁למחרת	-6057
▁מוגבל	-6058
▁מצאתי	-6059
▁נתוני	-6060
▁בתפקיד	-6061
▁טוענים	-6062
▁ליצירת	-6063
▁הכוכבים	-6064
▁המודרנית	-6065
ics	-6066
ארי	-6067
והה	-6068
▁45	-6069
חדים	-6070
ליהם	-6071
▁בוו	-6072
▁ההפ	-6073
▁התר	-6074
▁זור	-6075
▁נפת	-6076
▁שער	-6077
רופות	-6078
▁בכלא	-6079
▁מערב	-6080
▁עירו	-6081
▁הארוך	-6082
▁הכבוד	-6083
▁הרשמי	-6084
▁נמצאו	-6085
▁תנועת	-6086
▁בדרכים	-6087
▁הכללית	-6088
▁להופיע	-6089
▁באמריקה	-6090
18	-6091
ארץ	-6092
▁En	-6093
▁He	-6094
▁Is	-6095
▁פסק	-6096
▁הנשק	-6097
▁השעה	-6098
▁ואחד	-6099
▁כאחד	-6100
▁שוחר	-6101
▁אלבום	-6102
▁המקרה	-6103
▁הפרטי	-6104
▁ראיות	-6105
▁תוכנה	-6106
▁באזורים	-6107
▁המרכזית	-6108
▁פייסבוק	-6109
17	-6110
▁=	-6111
ציע	-6112
▁בהס	-6113
▁דוח	-6114
▁מגע	-6115
▁מית	-6116
▁נמל	-6117
▁שהק	-6118
▁שנפ	-6119
אטרון	-6120
▁בקרי	-6121
▁הטכנ	-6122
▁והאי	-6123
▁לשרת	-6124
▁מצבי	-6125
▁קיום	-6126
▁חזקים	-6127
▁למידה	-6128
▁מומחה	-6129
▁תמורת	-6130
▁ארגוני	-6131
▁במצרים	-6132
▁הפנימי	-6133
▁מסוגלת	-6134
▁תושבים	-6135
▁המחירים	-6136
▁האירועים	-6137
.)	-6138
אפ	-6139
ber	-6140
ביד	-6141
▁0.	-6142
▁Man	-6143
▁בלה	-6144
▁ישו	-6145
▁מהק	-6146
▁קהל	-6147
▁רומ	-6148
גוריה	-6149
▁גבול	-6150
▁לארו	-6151
▁להתי	-6152
▁מבטי	-6153
▁לעתיד	-6154
▁הבניין	-6155
▁חוזרים	-6156
▁להתקדם	-6157
▁התעשייה	-6158
▁הפוליטית	-6159
AR	-6160
uc	-6161
-14	-6162
-100	-6163
▁לאף	-6164
▁אליי	-6165
▁אתרי	-6166
▁המזל	-6167
▁השטן	-6168
▁וחלק	-6169
▁נייר	-6170
▁רחבה	-6171
▁הכרחי	-6172
▁כעבור	-6173
▁מרוצה	-6174
▁העסקים	-6175
▁שותפים	-6176
▁בטלוויזיה	-6177
AT	-6178
טיס	-6179
▁29	-6180
זינו	-6181
▁אוג	-6182
▁בוצ	-6183
בועות	-6184
וריון	-6185
▁אורח	-6186
▁אורך	-6187
▁דיון	-6188
▁דירה	-6189
▁יומי	-6190
▁אמורה	-6191
▁בתחומי	-6192
▁קיבלתי	-6193
▁שבועיים	-6194
BC	-6195
ence	-6196
גורר	-6197
ישון	-6198
▁לקה	-6199
▁הלחץ	-6200
▁יעקב	-6201
▁כשהי	-6202
▁הודות	-6203
▁השמאל	-6204
▁חיוני	-6205
▁למדתי	-6206
▁לשלום	-6207
▁שנמצא	-6208
▁הצליחה	-6209
▁התחרות	-6210
▁זוכרים	-6211
▁הרשויות	-6212
ֶר	-6213
בתם	-6214
▁On	-6215
▁Sc	-6216
בונן	-6217
כרות	-6218
מרות	-6219
▁One	-6220
▁ושא	-6221
▁מעצ	-6222
▁נוע	-6223
טיבית	-6224
שובים	-6225
▁לחדר	-6226
▁מטעם	-6227
▁נוער	-6228
▁קובע	-6229
▁רובם	-6230
▁לאסוף	-6231
▁למוות	-6232
▁מצפים	-6233
▁סליחה	-6234
▁פועלת	-6235
▁צמיחה	-6236
▁ארוכים	-6237
▁הסינית	-6238
▁לדוגמא	-6239
▁להזמין	-6240
▁מבקרים	-6241
▁מוסיקה	-6242
▁מתאימה	-6243
▁התקדמות	-6244
▁טכנולוגיות	-6245
pr	-6246
גרה	-6247
דוד	-6248
▁עכ	-6249
זמים	-6250
יעין	-6251
ספיק	-6252
▁דיי	-6253
▁המר	-6254
▁משכ	-6255
▁עות	-6256
▁שנג	-6257
▁תוא	-6258
ציבות	-6259
▁בכתב	-6260
▁הסוף	-6261
▁ועדת	-6262
▁יולי	-6263
▁לדרך	-6264
▁לשיר	-6265
▁מהמש	-6266
▁במאמר	-6267
▁המקדש	-6268
▁זוכרת	-6269
▁יתרון	-6270
▁מבטיח	-6271
▁נוחות	-6272
וקיינוס	-6273
▁בשיתוף	-6274
▁הכיבוש	-6275
▁המכשיר	-6276
▁הקטנים	-6277
▁במציאות	-6278
▁בפייסבוק	-6279
7%	-6280
ְר	-6281
!!!	-6282
ומץ	-6283
טוף	-6284
▁80	-6285
נסון	-6286
עימה	-6287
צרות	-6288
שארו	-6289
▁בשו	-6290
▁הגז	-6291
▁נסו	-6292
▁ציל	-6293
▁הכלל	-6294
▁להקל	-6295
▁מתים	-6296
▁התוכן	-6297
▁חיינו	-6298
▁קונים	-6299
▁שאינה	-6300
▁מנהלים	-6301
▁קרובים	-6302
▁המקורית	-6303
▁הקומוני	-6304
▁המשתתפים	-6305
▁פוטנציאל	-6306
16	-6307
גוג	-6308
לטת	-6309
ריו	-6310
▁קב	-6311
▁האס	-6312
▁סחר	-6313
▁גילו	-6314
▁הפרס	-6315
▁טיסה	-6316
▁נפרד	-6317
▁עשיר	-6318
▁עשתה	-6319
▁פוסט	-6320
▁העברת	-6321
▁לשחרר	-6322
▁משימה	-6323
▁המקומי	-6324
▁הספורט	-6325
▁התחילו	-6326
▁להרחיב	-6327
▁החיילים	-6328
2%	-6329
ומק	-6330
וצרת	-6331
נטון	-6332
▁אטר	-6333
▁ברק	-6334
▁לבל	-6335
▁ממצ	-6336
▁עין	-6337
▁ריצ	-6338
▁תשל	-6339
צבעות	-6340
▁איום	-6341
▁ההול	-6342
▁המבט	-6343
▁הצער	-6344
▁יבוא	-6345
▁לכמה	-6346
▁קנדה	-6347
▁שייך	-6348
▁שמאל	-6349
▁בצורת	-6350
▁מאתנו	-6351
▁מפתיע	-6352
▁סטנדר	-6353
▁צעירה	-6354
▁קהילה	-6355
▁המסורת	-6356
▁הנקודה	-6357
▁ממליצים	-6358
▁מסכימים	-6359
+]	-6360
CD	-6361
IT	-6362
קנה	-6363
▁70	-6364
דושה	-6365
▁שפע	-6366
וריהם	-6367
▁ברמת	-6368
▁הסדר	-6369
▁הראו	-6370
▁שהשת	-6371
▁המטוס	-6372
▁המראה	-6373
▁לשכנע	-6374
▁מפלגת	-6375
▁צורות	-6376
▁אפשרית	-6377
▁בהריון	-6378
▁בתוכנית	-6379
▁המקומות	-6380
ברא	-6381
דעו	-6382
חתת	-6383
ילית	-6384
▁[+]	-6385
▁בבת	-6386
ולדות	-6387
ישראל	-6388
▁אוסף	-6389
▁המסך	-6390
▁הערה	-6391
▁הקפה	-6392
▁ולמה	-6393
▁טיול	-6394
▁לארה	-6395
▁עשית	-6396
▁שותף	-6397
▁אחריו	-6398
▁הדיון	-6399
▁הוקמה	-6400
▁השיטה	-6401
▁לנקוט	-6402
▁מוזיק	-6403
▁במדינת	-6404
▁בממוצע	-6405
▁הקרובים	-6406
▁הרגליים	-6407
IV	-6408
אהב	-6409
נמי	-6410
וגות	-6411
לונן	-6412
לקות	-6413
מלכה	-6414
שמות	-6415
▁ההד	-6416
▁הות	-6417
▁הנת	-6418
▁שנא	-6419
▁גוגל	-6420
▁עסקי	-6421
▁קווי	-6422
▁בדיקת	-6423
▁ידיים	-6424
▁לבלות	-6425
▁מסיבה	-6426
▁עצמאי	-6427
▁צבאית	-6428
▁רשתות	-6429
▁החוויה	-6430
▁הערבית	-6431
▁יעילות	-6432
▁להכניס	-6433
▁עולמית	-6434
▁האישיים	-6435
▁השירותים	-6436
מב	-6437
צעה	-6438
תפו	-6439
▁פו	-6440
בירו	-6441
געים	-6442
גשים	-6443
יימו	-6444
עתים	-6445
▁ברג	-6446
▁וצי	-6447
▁טרם	-6448
▁שמק	-6449
▁איני	-6450
▁האחד	-6451
▁חסרי	-6452
▁מפור	-6453
▁כניסה	-6454
▁מבינה	-6455
▁פנימה	-6456
▁שמחים	-6457
▁המחשבה	-6458
▁טעויות	-6459
▁משפחתי	-6460
▁המודרני	-6461
▁שאלוהים	-6462
80	-6463
כית	-6464
חילה	-6465
מותו	-6466
עדון	-6467
שבות	-6468
▁ומג	-6469
▁חיס	-6470
▁שגי	-6471
▁בכיר	-6472
▁גילה	-6473
▁חסרת	-6474
▁תחנת	-6475
▁בטווח	-6476
▁חוזרת	-6477
▁שיהיו	-6478
▁אישיים	-6479
▁התרופה	-6480
▁מבוססת	-6481
▁הזיכרון	-6482
▁מעורבים	-6483
▁פופולרי	-6484
▁האמריקאים	-6485
IN	-6486
pe	-6487
טוס	-6488
ליי	-6489
▁de	-6490
▁מרג	-6491
▁האות	-6492
▁להלן	-6493
▁עדות	-6494
▁בגודל	-6495
▁לחשוף	-6496
▁למידע	-6497
▁למשחק	-6498
▁לרבות	-6499
▁עובדי	-6500
▁דרישות	-6501
ang	-6502
רוט	-6503
כתבו	-6504
▁אדי	-6505
▁הפה	-6506
▁לנת	-6507
רגיות	-6508
▁בחרו	-6509
▁הורה	-6510
▁היוו	-6511
▁העצמ	-6512
▁הפור	-6513
▁החורף	-6514
▁המאבק	-6515
▁השואה	-6516
▁ערבים	-6517
▁פתוחה	-6518
▁אמורים	-6519
▁להקשיב	-6520
▁לשירות	-6521
▁פסיכולוג	-6522
ָר	-6523
ish	-6524
מרק	-6525
וזים	-6526
קנים	-6527
▁גמי	-6528
▁לנג	-6529
אידים	-6530
ווירה	-6531
▁מובן	-6532
▁מעין	-6533
▁מתאר	-6534
▁הכביש	-6535
▁ידועה	-6536
▁לאזור	-6537
▁מימון	-6538
▁מעניי	-6539
▁המטופל	-6540
▁השקעות	-6541
▁צריכות	-6542
▁מיומנויות	-6543
3%	-6544
4%	-6545
הס	-6546
ודע	-6547
פשט	-6548
סתכל	-6549
תיבת	-6550
▁אכז	-6551
▁לקי	-6552
▁שחר	-6553
▁ההוא	-6554
▁המדי	-6555
▁הסכי	-6556
▁הרוב	-6557
▁ליבר	-6558
▁מטוס	-6559
▁מסוב	-6560
▁בדומה	-6561
▁האויב	-6562
▁המיוח	-6563
▁המשטר	-6564
▁לכלול	-6565
▁לעצמם	-6566
▁פיזית	-6567
שינגטון	-6568
▁הידיים	-6569
▁הרשימה	-6570
▁השולחן	-6571
▁חלומות	-6572
▁הכלכלית	-6573
9%	-6574
אמה	-6575
ומך	-6576
ווין	-6577
קאות	-6578
▁לאת	-6579
▁מפי	-6580
▁משך	-6581
▁קיץ	-6582
גיעים	-6583
▁המוכ	-6584
▁הנור	-6585
▁לקוח	-6586
▁פארק	-6587
▁ברירה	-6588
▁הצעות	-6589
▁השקעה	-6590
▁צבעים	-6591
▁דוקטור	-6592
▁הנסיעה	-6593
▁זמינים	-6594
▁קשורים	-6595
▁בסביבות	-6596
8%	-6597
AN	-6598
בך	-6599
איד	-6600
פסת	-6601
ריס	-6602
olog	-6603
וניה	-6604
▁מהצ	-6605
▁עצם	-6606
▁שגר	-6607
בירות	-6608
▁2006	-6609
▁המתאי	-6610
▁למשוך	-6611
▁פורסם	-6612
▁תקציב	-6613
▁באוויר	-6614
▁עלויות	-6615
PS	-6616
ts	-6617
ְּ	-6618
אנ	-6619
ופק	-6620
זוק	-6621
זכר	-6622
ical	-6623
orld	-6624
זהרה	-6625
▁אוס	-6626
▁אתן	-6627
▁התנ	-6628
▁טקס	-6629
▁שקל	-6630
▁בבני	-6631
▁בחור	-6632
▁הייח	-6633
▁מאוב	-6634
▁מבחן	-6635
▁סוכר	-6636
▁עמית	-6637
▁שחלק	-6638
▁בחירת	-6639
▁השיחה	-6640
▁כספים	-6641
▁לרשות	-6642
▁שלפני	-6643
▁בהדרגה	-6644
▁הסרטים	-6645
▁מאמרים	-6646
▁חשבונות	-6647
▁פוליטיים	-6648
ary	-6649
טול	-6650
כיא	-6651
נדו	-6652
▁Me	-6653
לוקת	-6654
▁הנכ	-6655
▁רעי	-6656
בונות	-6657
▁מפות	-6658
▁נפטר	-6659
▁נקבע	-6660
▁שומע	-6661
▁בריאה	-6662
▁ברשות	-6663
▁המשיח	-6664
▁השחור	-6665
▁כשאתם	-6666
▁לשקול	-6667
▁מעטים	-6668
▁המכונה	-6669
▁וכמובן	-6670
▁להתעלם	-6671
▁היסטורי	-6672
▁פוטנציא	-6673
לף	-6674
גנו	-6675
▁2,	-6676
בטים	-6677
▁דרמ	-6678
▁חבל	-6679
▁תוק	-6680
תרבות	-6681
▁אידי	-6682
▁בהתח	-6683
▁הוגן	-6684
▁סדרה	-6685
▁רחוב	-6686
▁המבוס	-6687
▁יהודה	-6688
▁ללבוש	-6689
▁מיקום	-6690
▁מראים	-6691
▁קריאה	-6692
▁ראינו	-6693
▁תיקון	-6694
▁הפיתוח	-6695
▁לעצמנו	-6696
▁פעילים	-6697
▁הזכויות	-6698
▁הצהריים	-6699
▁פרופסור	-6700
▁אמריקאים	-6701
7)	-6702
DA	-6703
ונק	-6704
כיל	-6705
אבים	-6706
איפה	-6707
טרון	-6708
▁ההר	-6709
▁הכר	-6710
▁ורי	-6711
▁מתג	-6712
▁קצב	-6713
כויים	-6714
סטיות	-6715
▁בראי	-6716
▁זמני	-6717
▁חנות	-6718
▁עמדת	-6719
▁שהתח	-6720
▁אנושי	-6721
▁לעורר	-6722
▁שלאחר	-6723
▁בטלפון	-6724
▁הכוללת	-6725
▁הרוסית	-6726
▁למערכת	-6727
▁קריירה	-6728
▁הפליטים	-6729
לוח	-6730
ספס	-6731
▁חב	-6732
וקות	-6733
לטות	-6734
למיד	-6735
ניעת	-6736
▁אשה	-6737
▁בים	-6738
▁הרס	-6739
▁ומב	-6740
▁פוט	-6741
נסיות	-6742
ראינה	-6743
▁ביפן	-6744
▁בקצב	-6745
▁בשקט	-6746
▁הירי	-6747
▁הלוח	-6748
▁חוזה	-6749
▁לעיל	-6750
▁מניח	-6751
▁נעלם	-6752
▁ספרד	-6753
▁במערב	-6754
▁בעצמך	-6755
▁המוני	-6756
▁לפרסם	-6757
▁ממוצע	-6758
▁שהופך	-6759
▁תלמיד	-6760
▁במלחמת	-6761
▁החלטתי	-6762
▁הביניים	-6763
▁הבריטית	-6764
▁המועצות	-6765
▁המספרים	-6766
-]	-6767
9)	-6768
ky	-6769
ach	-6770
man	-6771
בוט	-6772
וער	-6773
יתן	-6774
נצח	-6775
סין	-6776
דווח	-6777
ערות	-6778
שירי	-6779
▁Off	-6780
▁הון	-6781
▁פיל	-6782
גריות	-6783
▁זיהום	-6784
▁שהגיע	-6785
▁שתמיד	-6786
▁בקבוצה	-6787
▁הודיעה	-6788
▁להבחין	-6789
▁למלחמה	-6790
▁משאבים	-6791
▁תשובות	-6792
▁הניסיון	-6793
▁הפרטיות	-6794
▁הפוטנציאל	-6795
":	-6796
atch	-6797
כיים	-6798
ציית	-6799
▁היפ	-6800
▁אחיו	-6801
▁המוג	-6802
▁נדיר	-6803
▁צורת	-6804
▁בעיית	-6805
▁הכלים	-6806
▁הריון	-6807
▁התחיי	-6808
▁לסבול	-6809
▁מחזור	-6810
▁מניות	-6811
▁בפיתוח	-6812
▁מוכרים	-6813
▁מחשבים	-6814
▁מנקודת	-6815
▁בפעילות	-6816
▁התושבים	-6817
▁שיכולים	-6818
בדת	-6819
חתו	-6820
▁פש	-6821
▁צפ	-6822
ound	-6823
▁New	-6824
▁גיא	-6825
▁ולו	-6826
▁לעד	-6827
▁מחז	-6828
▁עדן	-6829
וצרות	-6830
▁בגין	-6831
▁הדעת	-6832
▁למעט	-6833
▁המיני	-6834
▁להרוס	-6835
▁מחירי	-6836
▁מיידי	-6837
▁צריכת	-6838
▁תצטרך	-6839
▁תרגום	-6840
▁בבירור	-6841
▁במשפחה	-6842
▁חנויות	-6843
▁להתחבר	-6844
▁לתקופה	-6845
▁התרופות	-6846
5)	-6847
]]	-6848
ah	-6849
ens	-6850
oun	-6851
ברס	-6852
לאת	-6853
מצן	-6854
תיחה	-6855
▁[-]	-6856
▁בהש	-6857
▁ביה	-6858
▁הבת	-6859
▁הכפ	-6860
▁הקר	-6861
▁ועי	-6862
▁יוש	-6863
▁שרה	-6864
וסיית	-6865
טיחות	-6866
נהלות	-6867
נטיים	-6868
▁דיוק	-6869
▁ואחר	-6870
▁ובמק	-6871
▁למנה	-6872
▁מורי	-6873
▁נרחב	-6874
▁שאלו	-6875
▁תערו	-6876
▁בחורה	-6877
▁בפריז	-6878
▁דניאל	-6879
▁הבורא	-6880
▁לחסוך	-6881
▁לסמוך	-6882
▁לערוך	-6883
▁תוספת	-6884
▁המתאים	-6885
▁מורכבת	-6886
▁הגרמנים	-6887
▁הרופאים	-6888
ove	-6889
ron	-6890
ולק	-6891
נדס	-6892
ביעו	-6893
ינות	-6894
▁הנד	-6895
▁העל	-6896
▁זרי	-6897
רכישה	-6898
▁העין	-6899
▁הצעת	-6900
▁הכרטי	-6901
▁שולחן	-6902
▁שנערך	-6903
בולוציה	-6904
▁אנגליה	-6905
▁מלאכות	-6906
▁אמיתיים	-6907
▁האנגלית	-6908
▁המפורסם	-6909
▁ליהודים	-6910
▁משקיעים	-6911
▁לתלמידים	-6912
6)	-6913
").	-6914
-25	-6915
פרק	-6916
מעשה	-6917
צועה	-6918
▁בבל	-6919
▁ויא	-6920
▁צמח	-6921
▁זוכה	-6922
▁זכתה	-6923
▁יקבל	-6924
▁לאלה	-6925
▁למשת	-6926
▁מדוי	-6927
▁ערבי	-6928
▁בנייה	-6929
▁הרוסי	-6930
▁להורג	-6931
▁למרכז	-6932
▁לעודד	-6933
▁מצבים	-6934
▁מקומי	-6935
▁שמירה	-6936
מפרטורה	-6937
▁בסיכון	-6938
▁בסיפור	-6939
▁ההריון	-6940
▁הוצאות	-6941
▁להתרחש	-6942
▁שמדובר	-6943
ee	-6944
ֶה	-6945
וחח	-6946
ספת	-6947
▁As	-6948
וונת	-6949
כנסה	-6950
ליכי	-6951
▁מאר	-6952
▁תפי	-6953
זרחים	-6954
קיפות	-6955
שיאות	-6956
▁2020	-6957
▁חמור	-6958
▁חרדה	-6959
▁ימין	-6960
▁לשוק	-6961
▁מרגש	-6962
▁תאים	-6963
▁איזון	-6964
▁נהדרת	-6965
▁שהאדם	-6966
▁אזורים	-6967
▁בקיצור	-6968
▁המטרות	-6969
▁הניתוח	-6970
▁שרוצים	-6971
▁המבקרים	-6972
▁חברתיים	-6973
▁לזכויות	-6974
▁האמריקנית	-6975
ax	-6976
צג	-6977
ail	-6978
דיף	-6979
וכח	-6980
נרל	-6981
▁".	-6982
חזיק	-6983
כונת	-6984
מעלה	-6985
צבעה	-6986
▁אפל	-6987
▁ביר	-6988
▁קחו	-6989
אמריק	-6990
ליפות	-6991
מליים	-6992
נדבים	-6993
פויות	-6994
▁בחלל	-6995
▁הקיצ	-6996
▁והמו	-6997
▁לחבר	-6998
▁מאבק	-6999
▁ציון	-7000
▁שיטה	-7001
▁החלום	-7002
▁החשמל	-7003
▁המחוז	-7004
▁הנשמה	-7005
▁מכשיר	-7006
▁בדברים	-7007
▁הצמיחה	-7008
▁טורקיה	-7009
▁לשיפור	-7010
▁תחבורה	-7011
▁חברתיות	-7012
עק	-7013
ick	-7014
אינ	-7015
חקו	-7016
כללה	-7017
▁איכ	-7018
▁יוח	-7019
אונות	-7020
▁אתגר	-7021
▁התיא	-7022
▁חוות	-7023
▁לדון	-7024
▁לידה	-7025
▁המנהל	-7026
▁מדברת	-7027
▁קולות	-7028
▁ברוסיה	-7029
▁הגיוני	-7030
▁הרפואי	-7031
▁שאמרתי	-7032
▁כשאנחנו	-7033
1)	-7034
OS	-7035
act	-7036
אמץ	-7037
יין	-7038
ילר	-7039
ניב	-7040
פכו	-7041
רגו	-7042
חינה	-7043
ידום	-7044
▁והב	-7045
▁ופי	-7046
▁לתע	-7047
▁מהב	-7048
▁עזב	-7049
▁עמי	-7050
▁רעב	-7051
לקטוא	-7052
שרדות	-7053
▁אדרי	-7054
▁ברזל	-7055
▁הצעד	-7056
▁והאם	-7057
▁והבי	-7058
▁מלכת	-7059
▁מערי	-7060
▁ניכר	-7061
▁נעצר	-7062
▁שכתב	-7063
▁הרווח	-7064
▁סגנון	-7065
ולוגיים	-7066
יכרונות	-7067
▁אלוקים	-7068
▁בטיפול	-7069
▁הדיגיט	-7070
▁המפורס	-7071
▁הפרסום	-7072
▁המכירות	-7073
▁מטופלים	-7074
2)	-7075
ֹת	-7076
דא	-7077
למד	-7078
נואר	-7079
עולם	-7080
▁החר	-7081
▁לוי	-7082
▁שפי	-7083
▁בחוק	-7084
▁יסוד	-7085
▁ליישם	-7086
▁למשהו	-7087
▁לסגור	-7088
▁מסלול	-7089
▁עליהן	-7090
▁הבנייה	-7091
▁ההודעה	-7092
▁השירים	-7093
▁חשובות	-7094
▁מושלמת	-7095
▁קולנוע	-7096
לש	-7097
'".	-7098
ild	-7099
אתר	-7100
וזר	-7101
יתר	-7102
קרה	-7103
▁8.	-7104
אווה	-7105
טציה	-7106
▁מלו	-7107
▁דרכו	-7108
▁ונית	-7109
▁לחזק	-7110
▁מתמק	-7111
▁פורט	-7112
▁שולח	-7113
ובוסים	-7114
ומטרים	-7115
▁המוסי	-7116
▁טבעית	-7117
▁לחלוק	-7118
▁נשימה	-7119
▁סוכרת	-7120
▁עולמי	-7121
▁צפויה	-7122
▁הגרמני	-7123
▁בתחומים	-7124
▁הקבוצות	-7125
8)	-7126
rom	-7127
ייץ	-7128
אוכל	-7129
ריית	-7130
▁דוב	-7131
▁שלג	-7132
▁דואר	-7133
▁הסחר	-7134
▁יהוה	-7135
▁שהכל	-7136
▁תראה	-7137
טיבציה	-7138
▁בניין	-7139
▁המולד	-7140
▁כללית	-7141
▁מורים	-7142
▁ראייה	-7143
▁שרוצה	-7144
▁יומיים	-7145
▁יצירות	-7146
▁לניהול	-7147
▁עבורכם	-7148
▁האלוהים	-7149
וניברסיטאות	-7150
ix	-7151
ולן	-7152
סמה	-7153
צתי	-7154
רופ	-7155
בטחת	-7156
וכית	-7157
ספור	-7158
▁190	-7159
▁חוס	-7160
▁תשע	-7161
לומים	-7162
▁אומץ	-7163
▁באחת	-7164
▁המזו	-7165
▁הרחב	-7166
▁והתח	-7167
▁נתנו	-7168
▁תומך	-7169
▁אליכם	-7170
▁העצמי	-7171
▁טיפים	-7172
▁ילדות	-7173
▁מייצג	-7174
▁נותרו	-7175
▁פירוש	-7176
▁פרנסי	-7177
▁קידום	-7178
▁רביעי	-7179
▁שאינן	-7180
▁תועלת	-7181
▁תזונה	-7182
▁בכיוון	-7183
▁האישית	-7184
▁הבנקים	-7185
▁ויטמין	-7186
▁מדהימה	-7187
▁מהווים	-7188
▁מוחלטת	-7189
▁פיננסי	-7190
▁האפשרויות	-7191
דג	-7192
ime	-7193
דאי	-7194
מיק	-7195
▁90	-7196
▁My	-7197
ינוי	-7198
מפוס	-7199
מצעי	-7200
קנות	-7201
▁300	-7202
▁איל	-7203
אבדות	-7204
טרנטי	-7205
▁הבמה	-7206
▁מועד	-7207
▁מנות	-7208
▁טיסות	-7209
▁לתואר	-7210
▁נולדה	-7211
▁נתחיל	-7212
▁שחשוב	-7213
נחלויות	-7214
▁אוגוסט	-7215
▁באנשים	-7216
▁האחרות	-7217
▁לדברים	-7218
▁מתרחשת	-7219
▁צפויים	-7220
▁ההחלטות	-7221
שבה	-7222
▁Gr	-7223
▁סן	-7224
▁קת	-7225
ודיע	-7226
וסיה	-7227
נוני	-7228
ניום	-7229
ציעה	-7230
▁בגן	-7231
▁הוי	-7232
▁ופר	-7233
▁שדי	-7234
סיקים	-7235
ערבות	-7236
רועות	-7237
שלכות	-7238
▁המצל	-7239
▁התפר	-7240
▁רכבת	-7241
▁אדוני	-7242
▁בעצמי	-7243
▁העסקה	-7244
▁יישום	-7245
▁עצומה	-7246
▁רכישת	-7247
▁הרפואה	-7248
▁מטוסים	-7249
▁נכנסים	-7250
▁שומרים	-7251
▁תופעות	-7252
▁הקונגרס	-7253
▁מאושרים	-7254
▁הרפובליקה	-7255
▁קליפורניה	-7256
ll	-7257
old	-7258
חתן	-7259
יקף	-7260
פעם	-7261
-194	-7262
-196	-7263
דיהם	-7264
וויד	-7265
▁חסי	-7266
▁רמה	-7267
גויות	-7268
נאביס	-7269
נוקות	-7270
▁ולהע	-7271
▁נהנה	-7272
▁סקוט	-7273
▁עונש	-7274
▁עידן	-7275
▁רומא	-7276
▁שונא	-7277
▁שעשו	-7278
▁בקושי	-7279
▁הלהקה	-7280
▁מתמיד	-7281
▁פרטית	-7282
▁תרופה	-7283
▁השפעות	-7284
▁חוויות	-7285
▁החודשים	-7286
5]	-7287
ath	-7288
וגע	-7289
גדרה	-7290
כנסו	-7291
מיון	-7292
סטון	-7293
▁היות	-7294
▁הרגל	-7295
▁ולהי	-7296
▁יופי	-7297
▁לרשת	-7298
▁מתנג	-7299
▁ספרו	-7300
▁פניו	-7301
▁קורס	-7302
ולוגים	-7303
▁אבנים	-7304
▁גורמת	-7305
▁המלכה	-7306
▁חכמים	-7307
▁לבנים	-7308
▁מלאים	-7309
▁מסתכל	-7310
▁מציין	-7311
▁סביבה	-7312
▁אינטרא	-7313
▁בבעלות	-7314
▁ידועים	-7315
▁מקווים	-7316
▁שיעורי	-7317
▁ובמיוחד	-7318
▁כרטיסים	-7319
▁מנהיגות	-7320
▁באוניברסיטה	-7321
70	-7322
ָּ	-7323
ושך	-7324
זבז	-7325
כחו	-7326
ערת	-7327
▁st	-7328
▁Air	-7329
▁והר	-7330
▁לעם	-7331
▁מהכ	-7332
▁נוה	-7333
▁סגן	-7334
▁יעשו	-7335
▁לגשת	-7336
▁מהמק	-7337
▁שהוק	-7338
▁בעבור	-7339
▁לתכנן	-7340
▁שבאמת	-7341
▁הצרפתי	-7342
▁לאומית	-7343
▁רפואית	-7344
▁שפורסם	-7345
▁מכשירים	-7346
▁מתקדמים	-7347
▁המוסלמים	-7348
▁הציבורית	-7349
כוד	-7350
מלט	-7351
▁>>	-7352
▁ענ	-7353
סדות	-7354
צועת	-7355
▁Res	-7356
▁במצ	-7357
▁דקה	-7358
▁האצ	-7359
▁הוז	-7360
▁נלק	-7361
▁שסי	-7362
כניות	-7363
▁בווי	-7364
▁בעזה	-7365
▁ההומ	-7366
▁ההפר	-7367
▁החיו	-7368
▁הנרי	-7369
▁כחול	-7370
▁נמסר	-7371
▁נפוץ	-7372
▁אלפים	-7373
▁בהודו	-7374
▁ההצעה	-7375
▁מדויק	-7376
▁מילות	-7377
▁רגעים	-7378
▁במגוון	-7379
▁הכוונה	-7380
▁משימות	-7381
▁עשויות	-7382
▁שישראל	-7383
▁מנהיגים	-7384
1%	-7385
13	-7386
ועץ	-7387
פוק	-7388
פלת	-7389
▁Tr	-7390
▁חט	-7391
וכמה	-7392
▁וכת	-7393
▁וקי	-7394
▁חשש	-7395
בונים	-7396
ובליק	-7397
ובלית	-7398
ועדים	-7399
כליות	-7400
▁דאעש	-7401
▁היפה	-7402
▁הציע	-7403
▁חייל	-7404
▁מהמח	-7405
▁מכלל	-7406
▁קונה	-7407
▁בעידן	-7408
▁החיות	-7409
▁שתיים	-7410
▁תופעה	-7411
▁ברשימה	-7412
▁בתנאים	-7413
▁האקלים	-7414
▁לבעיות	-7415
▁להגביר	-7416
▁מובילה	-7417
▁עבורנו	-7418
▁עצמאית	-7419
ושינגטון	-7420
▁השתתפות	-7421
▁מעורבות	-7422
AC	-7423
פטן	-7424
בהיר	-7425
בחון	-7426
גלות	-7427
וברת	-7428
פתור	-7429
קירה	-7430
▁אלק	-7431
▁הדא	-7432
▁ממק	-7433
ותרות	-7434
משיכו	-7435
▁בפרק	-7436
▁הכרה	-7437
▁חייה	-7438
▁יוון	-7439
▁מלמד	-7440
▁קרקע	-7441
▁רכוש	-7442
▁בכדור	-7443
▁דיאטה	-7444
▁היופי	-7445
▁העמים	-7446
▁ולקבל	-7447
▁פנימי	-7448
▁קצרים	-7449
▁תחומי	-7450
▁בארגון	-7451
▁האיטלק	-7452
▁להזכיר	-7453
▁מצוינת	-7454
▁אופניים	-7455
▁ההתנגדות	-7456
▁~	-7457
▁«	-7458
אנג	-7459
ועי	-7460
יכם	-7461
נתן	-7462
רכן	-7463
▁חן	-7464
איות	-7465
טייה	-7466
▁ליצ	-7467
▁למג	-7468
▁הבול	-7469
▁הקלא	-7470
▁כואב	-7471
▁בקבוק	-7472
▁החופש	-7473
▁טילים	-7474
▁לנהוג	-7475
▁מספרת	-7476
▁מקבלת	-7477
▁למשפחה	-7478
▁שימושי	-7479
▁החומרים	-7480
St	-7481
כין	-7482
נסט	-7483
▁II	-7484
▁ביס	-7485
▁התס	-7486
▁פשע	-7487
▁ריי	-7488
▁שבח	-7489
▁בוחר	-7490
▁הונג	-7491
▁הצלב	-7492
▁יציר	-7493
▁ממוש	-7494
▁ציור	-7495
▁שהמש	-7496
▁בסדרה	-7497
▁השניה	-7498
▁ובלתי	-7499
▁חוקית	-7500
▁נחשבת	-7501
▁החשבון	-7502
▁לתפקיד	-7503
▁בניסיון	-7504
▁קילומטרים	-7505
6]	-7506
בב	-7507
▁r	-7508
out	-7509
פיק	-7510
▁1:	-7511
▁th	-7512
▁קפ	-7513
חימה	-7514
רטין	-7515
▁לבר	-7516
▁מכה	-7517
▁מלי	-7518
▁ריח	-7519
ריאלי	-7520
▁בטרם	-7521
▁ודאי	-7522
▁להתפ	-7523
▁רדיו	-7524
▁שכזה	-7525
ייקטים	-7526
יתונים	-7527
▁השמים	-7528
▁ויכול	-7529
▁למטרה	-7530
▁ממליץ	-7531
▁מסתבר	-7532
▁מתקדם	-7533
▁צמחים	-7534
▁קשורה	-7535
▁הצבאית	-7536
▁מחירים	-7537
▁תלמידי	-7538
▁קלוריות	-7539
▁הדמוקרטיה	-7540
ON	-7541
מוץ	-7542
מתה	-7543
רהי	-7544
רכב	-7545
בחרו	-7546
ונלד	-7547
יסוק	-7548
ניהן	-7549
▁והז	-7550
▁מטי	-7551
▁שטי	-7552
▁שעש	-7553
הייתי	-7554
כירים	-7555
ציבור	-7556
▁בפור	-7557
▁בצבא	-7558
▁הפיק	-7559
▁זכרו	-7560
▁חזון	-7561
▁יפים	-7562
▁פרסם	-7563
▁תראו	-7564
וציאלי	-7565
▁אינדי	-7566
▁בחייו	-7567
▁מוחמד	-7568
▁מתמוד	-7569
▁עשינו	-7570
▁שלטון	-7571
▁תעופה	-7572
▁גרעיני	-7573
▁הדיווח	-7574
▁לעניין	-7575
▁לקבוצה	-7576
▁מזונות	-7577
▁ניצחון	-7578
▁המודעות	-7579
▁המחשבות	-7580
▁משמעותיים	-7581
אף	-7582
הק	-7583
ife	-7584
בטא	-7585
מעה	-7586
▁6.	-7587
▁Dr	-7588
ראתה	-7589
▁אסי	-7590
▁ומד	-7591
▁חטי	-7592
▁ציו	-7593
▁בכפר	-7594
▁בפרט	-7595
▁גונג	-7596
▁הגבר	-7597
▁הצעה	-7598
▁משלי	-7599
▁וכאשר	-7600
▁ישנים	-7601
▁להביע	-7602
▁לנושא	-7603
▁עבורך	-7604
▁שנאמר	-7605
▁שנוכל	-7606
▁שתוכל	-7607
▁בקהילה	-7608
▁ספציפי	-7609
▁באנגליה	-7610
▁בנושאים	-7611
▁התיירות	-7612
▁למציאות	-7613
▁רפואיים	-7614
▁החברתיות	-7615
ולא	-7616
▁2:	-7617
▁גנ	-7618
▁Ser	-7619
▁במז	-7620
▁ושם	-7621
▁ותח	-7622
▁חגי	-7623
▁ידו	-7624
▁לחם	-7625
▁מקד	-7626
▁פרא	-7627
▁קוק	-7628
▁שהב	-7629
▁במוע	-7630
▁הכות	-7631
▁המוט	-7632
▁המפל	-7633
▁הקלי	-7634
▁והשי	-7635
▁ומתי	-7636
▁טקסט	-7637
▁מנוע	-7638
▁סיטי	-7639
▁תוספ	-7640
▁ברזיל	-7641
▁חלבון	-7642
▁לבעלי	-7643
▁מצחיק	-7644
▁Office	-7645
▁הבדיקה	-7646
▁הלימוד	-7647
▁פריטים	-7648
')	-7649
ֵי	-7650
טוט	-7651
נלי	-7652
▁פצ	-7653
מכות	-7654
פיפי	-7655
פעול	-7656
▁ייר	-7657
▁שתר	-7658
פתרון	-7659
צילום	-7660
▁הענק	-7661
▁לבדי	-7662
▁נוכח	-7663
▁תגיד	-7664
▁במחשב	-7665
▁הולנד	-7666
▁המכון	-7667
▁ומעלה	-7668
▁נהנים	-7669
▁פולין	-7670
▁סבלנות	-7671
▁עצמאות	-7672
▁תפקידו	-7673
▁באיטליה	-7674
▁וושינגטון	-7675
▁Te	-7676
▁שׁ	-7677
כבות	-7678
כולל	-7679
▁דיס	-7680
▁ולצ	-7681
▁תוב	-7682
גינים	-7683
▁אימא	-7684
▁דאגה	-7685
▁הוסי	-7686
▁החוב	-7687
▁הליך	-7688
▁הנחה	-7689
▁פריז	-7690
▁שמים	-7691
▁הדירה	-7692
▁חומרי	-7693
▁חמישי	-7694
▁מלכות	-7695
▁אנושית	-7696
▁טבעיים	-7697
▁מבצעים	-7698
▁מסיבות	-7699
▁משפטית	-7700
▁ניסיתי	-7701
▁העצמאות	-7702
▁הפועלים	-7703
[2	-7704
ַל	-7705
נכ	-7706
עצ	-7707
own	-7708
land	-7709
ובלת	-7710
מישה	-7711
עשרה	-7712
פסים	-7713
▁איז	-7714
▁ובק	-7715
▁כשנ	-7716
▁קרח	-7717
▁שתק	-7718
חדשות	-7719
טורים	-7720
כניים	-7721
פונית	-7722
▁משוכ	-7723
▁עלתה	-7724
▁עצוב	-7725
▁שגרי	-7726
▁שימש	-7727
▁גילוי	-7728
▁האושר	-7729
▁הדואר	-7730
▁הוביל	-7731
▁המונח	-7732
▁המטבע	-7733
▁הנסיך	-7734
▁הסביר	-7735
▁חקירה	-7736
▁מדריך	-7737
▁משפטי	-7738
▁נותנת	-7739
▁שאומר	-7740
▁בתמונה	-7741
▁המשותף	-7742
▁התוכנה	-7743
▁תיירים	-7744
▁הדרושים	-7745
ong	-7746
ous	-7747
עיד	-7748
פגש	-7749
פיץ	-7750
קסון	-7751
▁בשב	-7752
▁כאל	-7753
סיפור	-7754
▁אנוש	-7755
▁ונשים	-7756
▁מבנים	-7757
▁שקיבל	-7758
▁ההשקעה	-7759
▁המחלקה	-7760
▁הצלחתי	-7761
▁הרוחני	-7762
▁נדרשים	-7763
▁מאפשרים	-7764
▁רלוונטי	-7765
ED	-7766
ww	-7767
דלת	-7768
משה	-7769
נום	-7770
▁:)	-7771
▁Ac	-7772
בחנה	-7773
בטיה	-7774
כונן	-7775
שלון	-7776
▁150	-7777
▁גיר	-7778
▁חלל	-7779
ורידה	-7780
לילים	-7781
מערכת	-7782
▁2005	-7783
▁ביקר	-7784
▁במדע	-7785
▁הוקם	-7786
▁לפתע	-7787
▁מהלך	-7788
▁מונה	-7789
▁מפחד	-7790
▁נניח	-7791
▁איטלק	-7792
▁הילדה	-7793
▁ניתנת	-7794
▁פרחים	-7795
קטיביות	-7796
▁דיכאון	-7797
▁העיתון	-7798
▁מרוצים	-7799
▁נורמלי	-7800
▁ספינות	-7801
▁רישיון	-7802
▁אוקטובר	-7803
▁האתגרים	-7804
▁ההשפעות	-7805
▁הקודמים	-7806
▁דמוקרטיה	-7807
▁האמיתיים	-7808
גרו	-7809
כמת	-7810
▁סר	-7811
ענות	-7812
▁For	-7813
▁ונש	-7814
▁כוע	-7815
▁לרח	-7816
▁עני	-7817
וויטר	-7818
▁גדלה	-7819
▁היחס	-7820
▁הינם	-7821
▁הראה	-7822
▁ומנה	-7823
▁כספי	-7824
▁להיו	-7825
▁רצוי	-7826
▁דירות	-7827
▁הטבעי	-7828
▁היטלר	-7829
▁הפארק	-7830
▁הפסקת	-7831
▁הרבים	-7832
▁חובות	-7833
▁יקרים	-7834
▁נהיגה	-7835
▁נמשיך	-7836
▁שהיתה	-7837
▁ההתחלה	-7838
▁רוחנית	-7839
▁שמעולם	-7840
▁הפעולות	-7841
▁האינטרסים	-7842
US	-7843
ew	-7844
וגר	-7845
ויה	-7846
טחה	-7847
מיע	-7848
ריל	-7849
דיון	-7850
ואנה	-7851
וצאת	-7852
טרית	-7853
פשרו	-7854
▁Pre	-7855
▁אשת	-7856
▁בכם	-7857
▁לרצ	-7858
▁נמנ	-7859
▁אשמח	-7860
▁בקנה	-7861
▁הטור	-7862
▁כימי	-7863
▁לראש	-7864
▁מבול	-7865
▁מופת	-7866
▁מרחב	-7867
▁סגור	-7868
▁שבני	-7869
▁תשוב	-7870
▁הגעתי	-7871
▁נכסים	-7872
▁סביבת	-7873
▁ספרות	-7874
▁עוצמה	-7875
▁צופים	-7876
▁אתגרים	-7877
▁הנאצים	-7878
▁השליטה	-7879
▁להיפטר	-7880
▁שלושים	-7881
▁אסטרטגי	-7882
▁הנוסעים	-7883
▁לימודים	-7884
▁ההתנהגות	-7885
▁מקצועיים	-7886
ok	-7887
בּ	-7888
ash	-7889
ink	-7890
iss	-7891
זול	-7892
פסה	-7893
ציר	-7894
שיח	-7895
▁כר	-7896
ודעת	-7897
ומבי	-7898
חידה	-7899
ספקת	-7900
קידו	-7901
▁Mar	-7902
▁ונה	-7903
▁זכו	-7904
▁מגן	-7905
נחלים	-7906
▁באות	-7907
▁הפול	-7908
▁זכור	-7909
▁יעלה	-7910
▁כפול	-7911
▁מקסי	-7912
▁שאוה	-7913
▁שיצא	-7914
גוריות	-7915
ליזציה	-7916
▁אחורה	-7917
▁במשרה	-7918
▁בשלום	-7919
▁דמוקר	-7920
▁האירא	-7921
▁הבנות	-7922
▁החלטת	-7923
▁הפיזי	-7924
▁מבוגר	-7925
▁ניסוי	-7926
▁Intern	-7927
▁ואחרים	-7928
▁לביצוע	-7929
▁משתנים	-7930
▁בתקשורת	-7931
▁הנושאים	-7932
▁מתייחסים	-7933
7]	-7934
ey	-7935
דרג	-7936
זהר	-7937
זוג	-7938
שתם	-7939
▁(3	-7940
▁[[	-7941
משכת	-7942
נחים	-7943
▁All	-7944
▁אהב	-7945
▁גשר	-7946
▁ומר	-7947
▁יוק	-7948
▁לים	-7949
▁קבל	-7950
▁תתק	-7951
ישלון	-7952
▁בטבע	-7953
▁הקוס	-7954
▁וללא	-7955
▁מגדל	-7956
▁מעקב	-7957
▁שהכי	-7958
▁תהיו	-7959
▁הבתים	-7960
▁הגורם	-7961
▁הכשרה	-7962
▁הצטרף	-7963
▁הרחוב	-7964
▁הרצפה	-7965
▁חלקית	-7966
▁יישאר	-7967
▁יקבלו	-7968
▁להגנה	-7969
▁לצמצם	-7970
▁עבורו	-7971
▁קניות	-7972
▁רגילה	-7973
▁אירועי	-7974
▁דורשים	-7975
▁החברתי	-7976
▁החתונה	-7977
▁המניות	-7978
▁השיווק	-7979
▁להיפגש	-7980
▁מופיעה	-7981
▁עסקיים	-7982
▁פירושו	-7983
▁הכדורגל	-7984
▁הנישואין	-7985
▁לסטודנטים	-7986
-80	-7987
אטה	-7988
וסה	-7989
פיד	-7990
קאי	-7991
▁Su	-7992
לייה	-7993
פיין	-7994
▁בסט	-7995
▁להמ	-7996
▁ספט	-7997
ivers	-7998
ופיעה	-7999
▁בירה	-8000
▁ההון	-8001
▁הנזק	-8002
▁הקלה	-8003
▁לחוש	-8004
▁אנדרו	-8005
▁בשווי	-8006
▁דבריו	-8007
▁דתיים	-8008
▁הוכחה	-8009
▁כתבתי	-8010
▁מרווי	-8011
▁עסקית	-8012
ליגנציה	-8013
▁בכירים	-8014
▁התחילה	-8015
▁לחברות	-8016
▁טיפולים	-8017
▁האימפריה	-8018
,”	-8019
14	-8020
ֹא	-8021
המש	-8022
גינה	-8023
יתכן	-8024
מאים	-8025
▁ליש	-8026
▁פנט	-8027
▁אביה	-8028
▁הלכה	-8029
▁ובנו	-8030
▁ומשת	-8031
▁סכנה	-8032
▁בחברת	-8033
▁האולי	-8034
▁הבירה	-8035
▁המלאה	-8036
▁הנוער	-8037
▁חירות	-8038
▁לנקות	-8039
▁לעזרה	-8040
▁לתקשר	-8041
▁עבורם	-8042
▁שחרור	-8043
▁האשראי	-8044
▁המאסטר	-8045
▁הערכים	-8046
▁מכונות	-8047
▁פלטפור	-8048
▁שהגיעו	-8049
נטולוגיה	-8050
▁ייחודית	-8051
▁ישראלית	-8052
▁סיכונים	-8053
IP	-8054
ֶם	-8055
ַע	-8056
ובש	-8057
וצא	-8058
נתם	-8059
▁Se	-8060
געתי	-8061
צהרה	-8062
▁בהפ	-8063
▁העץ	-8064
▁חוג	-8065
▁כפר	-8066
▁נרש	-8067
▁רעה	-8068
אנשים	-8069
פלציה	-8070
▁האיר	-8071
▁הנמו	-8072
▁הקיס	-8073
▁התנג	-8074
▁חזרו	-8075
▁למדו	-8076
▁לקום	-8077
▁לרמה	-8078
▁לשמר	-8079
▁מסמך	-8080
▁ספור	-8081
▁פיטר	-8082
▁שעשה	-8083
שתתפות	-8084
▁בנפרד	-8085
▁המחבר	-8086
▁המעור	-8087
▁הרגיל	-8088
▁לגיטי	-8089
▁לרצות	-8090
▁תמצאו	-8091
▁תמשיך	-8092
▁הופעות	-8093
▁הסכסוך	-8094
▁התשלום	-8095
▁מגורים	-8096
▁ספטמבר	-8097
▁פתוחים	-8098
▁תיירות	-8099
▁ברחובות	-8100
▁האלימות	-8101
▁הדמויות	-8102
▁העובדות	-8103
▁הפרלמנט	-8104
▁לפעילות	-8105
ise	-8106
בקים	-8107
ליפי	-8108
פקוד	-8109
▁הפק	-8110
▁ווא	-8111
▁לוא	-8112
▁ללב	-8113
▁נפל	-8114
▁נשל	-8115
▁נתק	-8116
▁סבי	-8117
▁ערי	-8118
▁שבמ	-8119
בקשים	-8120
מושים	-8121
מנטים	-8122
▁בודד	-8123
▁יצחק	-8124
▁לומד	-8125
▁לקחו	-8126
▁מאסר	-8127
▁ביטול	-8128
▁בעצמם	-8129
▁הסיני	-8130
▁חדרים	-8131
▁לחגוג	-8132
▁מחלקת	-8133
▁מחצית	-8134
▁הספינה	-8135
▁הרגשות	-8136
▁מהחיים	-8137
▁נכונות	-8138
▁הפיננסי	-8139
▁הקולנוע	-8140
▁משתתפים	-8141
6%	-8142
-60	-8143
טבע	-8144
▁טא	-8145
uman	-8146
צרפת	-8147
קפות	-8148
שאלה	-8149
▁לעת	-8150
▁רוז	-8151
בולות	-8152
מכרות	-8153
סויים	-8154
רכיון	-8155
▁דלקת	-8156
▁השוט	-8157
▁התור	-8158
▁חוקר	-8159
▁לפרו	-8160
▁מתוק	-8161
▁נתקל	-8162
▁סמוך	-8163
▁עסקה	-8164
▁באיזו	-8165
▁בהיות	-8166
▁במידע	-8167
▁בסכנה	-8168
▁הטיסה	-8169
▁הסרטן	-8170
▁זוגות	-8171
▁העשרים	-8172
▁התקציב	-8173
▁ופיתוח	-8174
▁לימודי	-8175
▁מלונות	-8176
▁משלמים	-8177
▁נובמבר	-8178
▁עמודים	-8179
▁פשוטים	-8180
▁תומכים	-8181
▁מוסלמים	-8182
21	-8183
MS	-8184
ְּ	-8185
ַח	-8186
ַר	-8187
אש	-8188
ons	-8189
נוג	-8190
port	-8191
בקות	-8192
ונתי	-8193
שומת	-8194
▁אנט	-8195
▁טרו	-8196
▁אויב	-8197
▁אסון	-8198
▁האנג	-8199
▁המתח	-8200
▁הנהג	-8201
▁מאלה	-8202
▁מטבע	-8203
▁סבור	-8204
▁עצמן	-8205
▁שומר	-8206
▁האומה	-8207
▁האוצר	-8208
▁הגענו	-8209
▁השפעת	-8210
▁כוונה	-8211
▁פתיחת	-8212
▁להסתיר	-8213
▁לקידום	-8214
▁פנימית	-8215
▁רשויות	-8216
▁הקיימים	-8217
▁ולפעמים	-8218
▁מתכננים	-8219
▁קישורים	-8220
▁במדיניות	-8221
▁מעניינים	-8222
!)	-8223
ile	-8224
ריא	-8225
שאי	-8226
כיות	-8227
פוסי	-8228
ציאו	-8229
▁ובל	-8230
▁לאמ	-8231
▁למז	-8232
▁סבא	-8233
ights	-8234
meric	-8235
ומכים	-8236
טינית	-8237
▁Home	-8238
▁במסע	-8239
▁ברכב	-8240
▁הקיר	-8241
▁וכמו	-8242
▁ייתן	-8243
▁כמוך	-8244
▁לאיש	-8245
▁לעצב	-8246
▁מענה	-8247
▁עצים	-8248
▁בתנאי	-8249
▁הסופי	-8250
▁חווים	-8251
▁מרטין	-8252
▁פרקים	-8253
▁דמויות	-8254
▁הדמוקר	-8255
▁התודעה	-8256
▁שמאפשר	-8257
▁הגרמנית	-8258
▁חופשיים	-8259
▁נישואין	-8260
▁במוזיאון	-8261
הפ	-8262
עס	-8263
כיה	-8264
▁7.	-8265
▁סח	-8266
בטלה	-8267
כרתי	-8268
סקות	-8269
▁בגל	-8270
▁חוט	-8271
▁פאר	-8272
נושות	-8273
▁האול	-8274
▁הגזע	-8275
▁השער	-8276
▁לשוב	-8277
▁עקבו	-8278
▁שמשת	-8279
▁בכיתה	-8280
▁בעונה	-8281
▁הסופר	-8282
▁הקיים	-8283
▁לעצמה	-8284
▁מוסיף	-8285
▁עולים	-8286
▁רוחני	-8287
▁שמגיע	-8288
▁בחינוך	-8289
▁בשילוב	-8290
▁החליטו	-8291
▁הלוואי	-8292
▁המלצות	-8293
▁המשיכו	-8294
▁ויליאם	-8295
▁להרשות	-8296
▁מקומית	-8297
▁פלסטין	-8298
▁החשיבות	-8299
▁קורבנות	-8300
יפ	-8301
anc	-8302
געת	-8303
ורס	-8304
מלים	-8305
▁פיי	-8306
▁קסם	-8307
▁אהוב	-8308
▁במוח	-8309
▁בנים	-8310
▁ברוך	-8311
▁הסול	-8312
▁העדי	-8313
▁השמי	-8314
▁ואכן	-8315
▁כתבי	-8316
▁שאלת	-8317
▁שנוע	-8318
וגרפיה	-8319
▁אספקת	-8320
▁במאבק	-8321
▁גיבור	-8322
▁דורשת	-8323
▁הסכמה	-8324
▁התואר	-8325
▁למחקר	-8326
▁מצטער	-8327
▁שאחרי	-8328
▁שנעשה	-8329
▁בהתחשב	-8330
▁בימינו	-8331
▁הסופית	-8332
▁השלכות	-8333
▁פסטיבל	-8334
▁האישיות	-8335
▁מוזמנים	-8336
▁מתאימים	-8337
אח	-8338
בתו	-8339
טוק	-8340
נוב	-8341
צדק	-8342
▁32	-8343
▁קס	-8344
ייני	-8345
כלול	-8346
▁אתי	-8347
▁ובג	-8348
▁עלו	-8349
▁קטל	-8350
ייבים	-8351
▁2002	-8352
▁באוט	-8353
▁והיו	-8354
▁לשתי	-8355
▁מייד	-8356
▁השעון	-8357
▁כיסוי	-8358
▁מיקרו	-8359
▁מפורס	-8360
יתונאים	-8361
▁התחושה	-8362
▁ולעשות	-8363
▁לעסקים	-8364
▁מועדון	-8365
▁כשהייתי	-8366
▁מובילים	-8367
▁באפשרותך	-8368
▁מאוניברסיטת	-8369
PN	-8370
אצ	-8371
הב	-8372
ךְ	-8373
▁→	-8374
-40	-8375
ert	-8376
ובץ	-8377
▁וּ	-8378
ולנד	-8379
וריא	-8380
וריו	-8381
זכות	-8382
▁הסע	-8383
▁הפג	-8384
▁ונע	-8385
▁לצע	-8386
▁נכש	-8387
▁נרח	-8388
מימות	-8389
▁(199	-8390
▁100%	-8391
▁אחים	-8392
▁התמק	-8393
▁מפקד	-8394
▁נמנע	-8395
▁קונג	-8396
▁שינו	-8397
▁ארבעת	-8398
▁היסוד	-8399
▁המתנה	-8400
▁הסכום	-8401
▁הקשור	-8402
▁זמנים	-8403
▁להשגת	-8404
▁לכבוד	-8405
▁לעסוק	-8406
▁סיפרה	-8407
▁שעושה	-8408
▁תלויה	-8409
ואליציה	-8410
▁בידיים	-8411
▁בראיון	-8412
▁לכולנו	-8413
▁קורסים	-8414
▁הצרפתית	-8415
▁מעדיפים	-8416
▁עיתונאים	-8417
oh	-8418
ָם	-8419
צץ	-8420
יני	-8421
לטו	-8422
נשא	-8423
צעד	-8424
▁Br	-8425
▁סד	-8426
ורגן	-8427
חיים	-8428
חינו	-8429
יורק	-8430
צרית	-8431
רכיא	-8432
▁הצו	-8433
▁התז	-8434
▁שהר	-8435
▁ששו	-8436
דונים	-8437
סטיים	-8438
▁אמרת	-8439
▁השקט	-8440
▁לווי	-8441
▁רשאי	-8442
▁שנאה	-8443
▁תקבל	-8444
▁אינכם	-8445
▁באותם	-8446
▁הביאו	-8447
▁הרגיש	-8448
▁משלהם	-8449
▁המושלם	-8450
▁לארצות	-8451
▁לגברים	-8452
▁מיידית	-8453
▁סוכנות	-8454
▁שוויון	-8455
▁שומעים	-8456
▁באחריות	-8457
In	-8458
up	-8459
ביי	-8460
נקו	-8461
פאי	-8462
▁48	-8463
ופרת	-8464
טונו	-8465
מידע	-8466
נמרק	-8467
▁בהע	-8468
▁דתי	-8469
▁כמת	-8470
▁שהכ	-8471
▁הירו	-8472
▁התעל	-8473
▁ואינ	-8474
▁למסע	-8475
▁לשום	-8476
▁עדים	-8477
▁שאדם	-8478
▁שהשי	-8479
פיפיור	-8480
▁הדמות	-8481
▁המפגש	-8482
▁הערות	-8483
▁הפסקה	-8484
▁התאים	-8485
▁התחלה	-8486
▁חמורה	-8487
▁לבכות	-8488
▁מיועד	-8489
▁מלווה	-8490
▁קשיים	-8491
▁בתמורה	-8492
▁הסוביי	-8493
▁הסיכוי	-8494
▁הצפוני	-8495
▁כרטיסי	-8496
▁מלחמות	-8497
▁נעליים	-8498
▁שתוכלו	-8499
▁האקדמיה	-8500
▁הסתיימה	-8501
▁הקשורות	-8502
],	-8503
ase	-8504
ווט	-8505
ורש	-8506
נדל	-8507
▁קח	-8508
וגני	-8509
יווד	-8510
שיפה	-8511
שנות	-8512
▁יעד	-8513
▁מרצ	-8514
בודות	-8515
שיטים	-8516
▁אוסט	-8517
▁הצדק	-8518
▁ידעה	-8519
▁לעוד	-8520
▁מכון	-8521
▁מרחק	-8522
▁ראתה	-8523
▁רעים	-8524
▁שהוצ	-8525
▁הרפוא	-8526
▁להפיק	-8527
▁למשרד	-8528
▁רישום	-8529
▁בראשית	-8530
▁האיכות	-8531
▁החמישי	-8532
▁ובעיקר	-8533
▁לממשלה	-8534
▁בנסיבות	-8535
▁הגבוהים	-8536
▁מעריכים	-8537
AP	-8538
ביק	-8539
נטו	-8540
ננה	-8541
קלי	-8542
ופשה	-8543
נסית	-8544
▁הקת	-8545
▁התב	-8546
▁ולס	-8547
▁מלח	-8548
▁שיט	-8549
חלוקת	-8550
תחילו	-8551
▁אלוה	-8552
▁ביצע	-8553
▁ההנה	-8554
▁הרפת	-8555
▁יצאה	-8556
▁כושר	-8557
▁לחדש	-8558
▁מתפת	-8559
▁פיזי	-8560
▁תורה	-8561
▁תשעה	-8562
▁אחדות	-8563
▁אחדים	-8564
▁איחוד	-8565
▁בסיסי	-8566
▁בסעיף	-8567
▁לאישה	-8568
▁לחודש	-8569
▁מחליט	-8570
▁מחסור	-8571
▁הכותרת	-8572
▁וילדים	-8573
▁חיצוני	-8574
▁למסקנה	-8575
▁פליטים	-8576
▁שהעולם	-8577
▁שראיתי	-8578
▁העליונה	-8579
▁התערוכה	-8580
▁המקומיים	-8581
▁k	-8582
חסן	-8583
▁31	-8584
▁דן	-8585
otel	-8586
אולי	-8587
מודי	-8588
תייש	-8589
▁האט	-8590
▁הדג	-8591
▁ונק	-8592
▁כמש	-8593
▁כעס	-8594
▁רדי	-8595
▁תום	-8596
כירות	-8597
להבות	-8598
▁אעשה	-8599
▁הפיצ	-8600
▁התחז	-8601
▁כלשה	-8602
▁לאחת	-8603
▁מיום	-8604
▁משרת	-8605
▁World	-8606
▁אדמות	-8607
▁בסמים	-8608
▁האינס	-8609
▁הלכתי	-8610
▁השנתי	-8611
▁כרגיל	-8612
▁להשיב	-8613
▁מתנות	-8614
▁שמשהו	-8615
▁במצבים	-8616
▁בשיעור	-8617
▁הכנסות	-8618
▁יציבות	-8619
▁לפתרון	-8620
▁הפנימית	-8621
▁למדינות	-8622
▁ניסויים	-8623
▁להתפתחות	-8624
חף	-8625
אלו	-8626
אמי	-8627
וגו	-8628
זבת	-8629
ילא	-8630
נקה	-8631
סתו	-8632
ance	-8633
ירתו	-8634
כמות	-8635
שאלו	-8636
▁Out	-8637
▁באח	-8638
▁בתה	-8639
▁חות	-8640
▁כהן	-8641
▁לאו	-8642
▁מטה	-8643
עילות	-8644
▁הייש	-8645
▁הקסם	-8646
▁וזהו	-8647
▁לנוע	-8648
▁שהוש	-8649
וזיציה	-8650
רוסופט	-8651
▁אזהרה	-8652
▁דומות	-8653
▁היותר	-8654
▁המודל	-8655
▁יגיעו	-8656
▁יחדיו	-8657
▁להרים	-8658
▁לטייל	-8659
▁מאיפה	-8660
▁נשארו	-8661
▁סימני	-8662
▁קישור	-8663
▁החליטה	-8664
▁ואנשים	-8665
▁מביאים	-8666
▁הגבולות	-8667
ִּ	-8668
ךָ	-8669
''.	-8670
ign	-8671
ont	-8672
▁דל	-8673
line	-8674
וביץ	-8675
טיבה	-8676
יימה	-8677
נדים	-8678
▁And	-8679
▁אלן	-8680
▁הזכ	-8681
▁חוף	-8682
▁מכר	-8683
▁קני	-8684
וונות	-8685
▁2003	-8686
▁בגדה	-8687
▁בואי	-8688
▁גרסה	-8689
▁הלכו	-8690
▁התבו	-8691
▁ובמה	-8692
▁חכמה	-8693
▁לאמץ	-8694
▁לבדו	-8695
▁לגדל	-8696
▁נאלץ	-8697
▁שהוב	-8698
▁הבינו	-8699
▁הגרעי	-8700
▁השופט	-8701
▁ואינו	-8702
▁מתעור	-8703
▁שהדבר	-8704
▁שרבים	-8705
לסטינים	-8706
▁אירלנד	-8707
▁הגידול	-8708
▁היצירה	-8709
▁המצלמה	-8710
▁מוקדמת	-8711
▁באפריקה	-8712
▁הארגונים	-8713
▁מתכוונים	-8714
ִּ	-8715
ake	-8716
אבי	-8717
להי	-8718
רגם	-8719
▁US	-8720
▁סך	-8721
▁צר	-8722
ומרי	-8723
ממות	-8724
▁דגל	-8725
▁דעה	-8726
▁יבש	-8727
▁ייס	-8728
▁לרק	-8729
▁לתא	-8730
וריית	-8731
עודיה	-8732
עורים	-8733
פולים	-8734
▁באתי	-8735
▁הטעם	-8736
▁הלכת	-8737
▁המתק	-8738
▁והמח	-8739
▁וכדי	-8740
▁חייך	-8741
▁לגעת	-8742
▁למים	-8743
▁סמית	-8744
▁פוגע	-8745
יאונים	-8746
▁בשאלה	-8747
▁הנביא	-8748
▁הנוגע	-8749
▁התגלה	-8750
▁ואומר	-8751
▁יצליח	-8752
▁למחוק	-8753
▁מגלים	-8754
▁דיוויד	-8755
▁החיסון	-8756
▁המסלול	-8757
▁נאמנות	-8758
▁תכניות	-8759
▁ההבדלים	-8760
▁לתוכנית	-8761
▁לתוצאות	-8762
▁תהליכים	-8763
▁תיאטרון	-8764
כנולוגיות	-8765
▁המובילים	-8766
▁לאינטרנט	-8767
ys	-8768
▁{	-8769
גלו	-8770
ילך	-8771
here	-8772
ions	-8773
▁וכש	-8774
▁מטע	-8775
▁מפה	-8776
בלנות	-8777
ובלים	-8778
▁בגוד	-8779
▁בקלי	-8780
▁גובה	-8781
▁הכבי	-8782
▁המדה	-8783
▁והכי	-8784
▁מאמן	-8785
▁מהאי	-8786
▁מפגש	-8787
▁צהוב	-8788
▁בכבוד	-8789
▁במשהו	-8790
▁דוגמא	-8791
▁האתגר	-8792
▁המותג	-8793
▁השגרי	-8794
▁התובע	-8795
▁זיהוי	-8796
▁ינואר	-8797
▁לצערי	-8798
▁לרופא	-8799
▁לשבור	-8800
▁רפואה	-8801
▁אורחים	-8802
▁אסירים	-8803
▁בודדים	-8804
▁בחיפוש	-8805
▁הדרומי	-8806
▁הטבעית	-8807
▁הלוואה	-8808
▁המיקום	-8809
▁נמצאות	-8810
▁החלומות	-8811
חח	-8812
חסי	-8813
טחת	-8814
מדי	-8815
ניט	-8816
▁אע	-8817
-195	-8818
בורת	-8819
זאזל	-8820
כורה	-8821
שבתי	-8822
▁400	-8823
▁HIV	-8824
▁אנה	-8825
▁בפל	-8826
▁שטר	-8827
▁שרת	-8828
כנראה	-8829
▁הוכר	-8830
▁החלב	-8831
▁המסת	-8832
▁הנהר	-8833
▁הרצח	-8834
▁השיב	-8835
▁ייקח	-8836
▁יציב	-8837
▁לברר	-8838
▁להיא	-8839
▁מארק	-8840
▁מוני	-8841
▁מופע	-8842
▁משוב	-8843
▁משלם	-8844
▁עוסק	-8845
▁ערוץ	-8846
▁פותח	-8847
▁צופה	-8848
נקציות	-8849
▁הבקשה	-8850
▁החולה	-8851
▁הממוק	-8852
▁המתים	-8853
▁יחזור	-8854
▁מפחיד	-8855
▁האבטחה	-8856
▁החופשי	-8857
▁המשיכה	-8858
▁כישלון	-8859
▁משמשים	-8860
▁המוסיקה	-8861
▁פרנסיסקו	-8862
99	-8863
DS	-8864
ַת	-8865
קא	-8866
-21	-8867
אחד	-8868
ינת	-8869
כבר	-8870
נתר	-8871
▁(4	-8872
▁רד	-8873
▁תו	-8874
גשנו	-8875
כורת	-8876
▁מבר	-8877
▁קאר	-8878
וזרים	-8879
ציאים	-8880
רגלים	-8881
▁בדקו	-8882
▁דתית	-8883
▁הרים	-8884
▁מידת	-8885
▁מכדי	-8886
▁סבתא	-8887
▁סיני	-8888
▁קושי	-8889
▁רצתה	-8890
גוררים	-8891
▁אסטרו	-8892
▁גירוש	-8893
▁הוראה	-8894
▁הטכני	-8895
▁לאותו	-8896
▁מסחרי	-8897
▁מעריך	-8898
▁נקראת	-8899
▁פיגוע	-8900
▁פילוס	-8901
▁אחרונה	-8902
▁המשפטי	-8903
▁הרוגים	-8904
▁ולראות	-8905
▁יצטרכו	-8906
▁להגשים	-8907
▁מנהיגי	-8908
▁עוזרים	-8909
▁המועדון	-8910
▁מופיעים	-8911
▁פלסטינית	-8912
ְת	-8913
מג	-8914
’.	-8915
נאם	-8916
שני	-8917
▁CB	-8918
ארית	-8919
וסקת	-8920
מדתי	-8921
ניזם	-8922
▁-19	-8923
▁אכל	-8924
▁אסת	-8925
▁גשם	-8926
▁דרג	-8927
▁צמי	-8928
▁רגש	-8929
▁שופ	-8930
▁תקי	-8931
וויית	-8932
ופיים	-8933
נונים	-8934
▁במשא	-8935
▁האוב	-8936
▁הקרח	-8937
▁חווה	-8938
▁חתול	-8939
▁לאשר	-8940
▁לעשן	-8941
▁משתי	-8942
▁נודע	-8943
▁קובץ	-8944
וכניות	-8945
▁דצמבר	-8946
▁הוריו	-8947
▁ובכלל	-8948
▁ובעלי	-8949
▁כמוני	-8950
▁לואיס	-8951
▁לתקוף	-8952
▁מעורר	-8953
▁סודות	-8954
▁ענקית	-8955
▁שאוכל	-8956
▁בהתבסס	-8957
▁הפגישה	-8958
▁הצטרפו	-8959
▁ילדיהם	-8960
▁להתפתח	-8961
▁שוקולד	-8962
▁שלישית	-8963
▁מצביעים	-8964
▁ההתפתחות	-8965
ern	-8966
ric	-8967
סתם	-8968
▁כק	-8969
▁מִ	-8970
▁סת	-8971
ביאו	-8972
דילה	-8973
ודיו	-8974
לינג	-8975
פרים	-8976
▁הזר	-8977
▁זרה	-8978
▁ששת	-8979
ופיות	-8980
רוצים	-8981
▁הפוך	-8982
▁הציג	-8983
▁חשים	-8984
▁כאבי	-8985
▁מהות	-8986
▁נוטה	-8987
▁קינג	-8988
▁שעון	-8989
כולוגי	-8990
▁בחנות	-8991
▁המבצע	-8992
▁המידה	-8993
▁יצירה	-8994
▁כללים	-8995
▁לדרוש	-8996
▁מועיל	-8997
▁מועמד	-8998
▁מחכים	-8999
▁נפוצה	-9000
▁עמדות	-9001
▁שעליו	-9002
▁תגיות	-9003
▁תפילה	-9004
ליקציות	-9005
▁באירוע	-9006
▁הביקור	-9007
▁החקירה	-9008
▁להורים	-9009
▁ההיסטורי	-9010
▁הרעיונות	-9011
gh	-9012
ade	-9013
ושע	-9014
ירס	-9015
שוו	-9016
▁טק	-9017
▁כף	-9018
בעון	-9019
צהיר	-9020
▁App	-9021
▁Med	-9022
▁ההק	-9023
▁נגר	-9024
▁נסה	-9025
▁סוס	-9026
▁צוח	-9027
▁שאח	-9028
שיווק	-9029
שימים	-9030
▁אחות	-9031
▁בצבע	-9032
▁בשבת	-9033
▁הורי	-9034
▁יורד	-9035
▁כולן	-9036
▁מהמו	-9037
▁נדבר	-9038
זבאללה	-9039
▁אפריל	-9040
▁בחורף	-9041
▁המטבח	-9042
▁טיימס	-9043
▁מבקשת	-9044
▁רגשית	-9045
▁דיווחו	-9046
▁דיפלומ	-9047
▁מיליאר	-9048
▁נוצרים	-9049
▁נמוכים	-9050
▁בחודשים	-9051
▁המנהלים	-9052
▁כלכליים	-9053
▁מהאנשים	-9054
▁קלינטון	-9055
▁התוכניות	-9056
22	-9057
OR	-9058
הן	-9059
שׂ	-9060
ree	-9061
וחי	-9062
▁33	-9063
▁IP	-9064
וטים	-9065
כבים	-9066
מערב	-9067
מעתי	-9068
שוות	-9069
▁War	-9070
▁אֶת	-9071
▁אמה	-9072
▁ופת	-9073
▁כשב	-9074
▁כשת	-9075
▁נרצ	-9076
▁שבס	-9077
▁שתת	-9078
וסיות	-9079
מצאות	-9080
מצעים	-9081
קהילה	-9082
▁אונס	-9083
▁אצלי	-9084
▁ביטח	-9085
▁גאים	-9086
▁דייו	-9087
▁טענה	-9088
▁לטוב	-9089
▁לכבד	-9090
▁לרעה	-9091
▁מהנה	-9092
▁ממתי	-9093
▁מקלט	-9094
▁נשלח	-9095
▁קדוש	-9096
▁אזורי	-9097
▁הבטיח	-9098
▁הסיוע	-9099
▁הקורס	-9100
▁ומדוע	-9101
▁זקוקה	-9102
▁לגייס	-9103
▁מרכיב	-9104
▁הפתיחה	-9105
▁יושבים	-9106
▁לארגון	-9107
▁משקאות	-9108
▁נשארים	-9109
▁עשורים	-9110
▁תנועות	-9111
▁אינטנסי	-9112
▁מחויבות	-9113
▁היסטורית	-9114
yn	-9115
ool	-9116
ult	-9117
▁Fl	-9118
▁יכ	-9119
בנים	-9120
מולה	-9121
מצאת	-9122
פורד	-9123
פעלה	-9124
▁בבו	-9125
▁בדף	-9126
▁נתי	-9127
▁קנה	-9128
▁שלט	-9129
פשטות	-9130
▁אישר	-9131
▁גברת	-9132
▁היקף	-9133
▁המלו	-9134
▁חמים	-9135
▁מבקר	-9136
▁מעצב	-9137
▁נוסע	-9138
▁קלים	-9139
▁שהרי	-9140
ליקציה	-9141
▁Human	-9142
▁באהבה	-9143
▁במהרה	-9144
▁בערים	-9145
▁גורמי	-9146
▁טענות	-9147
▁ידענו	-9148
▁יחידה	-9149
▁מעשים	-9150
▁מקובל	-9151
▁באיראן	-9152
▁בניהול	-9153
▁המורים	-9154
▁הפרעות	-9155
▁הרשמית	-9156
▁ימשיכו	-9157
▁מאנשים	-9158
▁מודרני	-9159
▁מסעדות	-9160
▁צהריים	-9161
▁תפקידים	-9162
▁הסיפורים	-9163
▁ספציפיים	-9164
▁האוקיינוס	-9165
במ	-9166
ונל	-9167
יקי	-9168
סקס	-9169
קתי	-9170
▁Gl	-9171
▁Or	-9172
ומרת	-9173
▁בצה	-9174
▁האה	-9175
▁מכש	-9176
▁עצה	-9177
גיעות	-9178
עיפים	-9179
ציעות	-9180
▁האוה	-9181
▁השכר	-9182
▁יראה	-9183
▁נערה	-9184
▁נעשו	-9185
▁נשמה	-9186
▁עיני	-9187
▁עמנו	-9188
▁פרשת	-9189
▁אחרון	-9190
▁אמנים	-9191
▁דורות	-9192
▁ההבנה	-9193
▁ותמיד	-9194
▁ימשיך	-9195
▁לנשיא	-9196
▁מכונה	-9197
▁פגישה	-9198
▁פעילה	-9199
▁שווים	-9200
▁אחראית	-9201
▁ארבעים	-9202
▁בעברית	-9203
▁לחינוך	-9204
▁לרפואה	-9205
▁נסיעות	-9206
▁רצינית	-9207
▁העירייה	-9208
▁הרביעית	-9209
▁להתעורר	-9210
▁מחויבים	-9211
▁מתכוונת	-9212
▁נישואים	-9213
נץ	-9214
-70	-9215
way	-9216
ּוֹ	-9217
ארה	-9218
וצץ	-9219
זבו	-9220
צרת	-9221
▁is	-9222
ומדת	-9223
יגות	-9224
▁אוז	-9225
▁הקצ	-9226
▁ותע	-9227
▁סמל	-9228
▁שבש	-9229
▁שוח	-9230
שיבים	-9231
▁אשמה	-9232
▁הדוק	-9233
▁היקר	-9234
▁מוסד	-9235
▁קלות	-9236
▁רושם	-9237
▁שהאי	-9238
נדרטים	-9239
▁בעמוד	-9240
▁החזון	-9241
▁הכריז	-9242
▁הצורה	-9243
▁עיראק	-9244
▁ההזמנה	-9245
▁מקסיקו	-9246
▁ביצועים	-9247
▁בעיניים	-9248
▁בתעשיית	-9249
▁החיצוני	-9250
▁המשותפת	-9251
▁מיוחדות	-9252
▁מעניינת	-9253
▁הסיכויים	-9254
▁למדיניות	-9255
);	-9256
90	-9257
AM	-9258
EN	-9259
דוק	-9260
וגן	-9261
פשו	-9262
פתה	-9263
reat	-9264
אהבה	-9265
ופנה	-9266
לקים	-9267
נדסה	-9268
▁גיי	-9269
▁ואר	-9270
▁זקן	-9271
▁נרד	-9272
וסטים	-9273
סיבות	-9274
רוגים	-9275
▁אריק	-9276
▁אשתי	-9277
▁בטקס	-9278
▁דעתו	-9279
▁ואלה	-9280
▁טועה	-9281
▁כביש	-9282
▁משטר	-9283
▁נתפס	-9284
▁פוטר	-9285
▁שדות	-9286
▁שמטר	-9287
▁בדירה	-9288
▁בתוכו	-9289
▁הכירו	-9290
▁המכתב	-9291
▁העירו	-9292
▁העלות	-9293
▁הצפון	-9294
▁הרגשה	-9295
▁יוצרת	-9296
▁ניצול	-9297
▁עדכון	-9298
▁קבועה	-9299
▁שנוצר	-9300
▁תרומה	-9301
פתחויות	-9302
▁הופיעו	-9303
▁האורחים	-9304
▁המשפחות	-9305
▁התשובות	-9306
▁מתמודדים	-9307
▁הסימפטומים	-9308
▁טכנולוגיית	-9309
.'	-9310
?'	-9311
af	-9312
xt	-9313
ave	-9314
orn	-9315
yst	-9316
גתי	-9317
יקת	-9318
מחו	-9319
נטל	-9320
נטר	-9321
ריב	-9322
able	-9323
וליה	-9324
כיפת	-9325
מיקה	-9326
מצום	-9327
נתית	-9328
פטים	-9329
▁גני	-9330
▁וטי	-9331
▁ומט	-9332
▁כשע	-9333
▁לרע	-9334
▁איתן	-9335
▁אמין	-9336
▁הנכס	-9337
▁הסוד	-9338
▁מזוי	-9339
▁תמצא	-9340
▁הדרום	-9341
▁הטבעת	-9342
▁מחפשת	-9343
▁משטרת	-9344
▁שקלים	-9345
▁ארוחות	-9346
▁בחייהם	-9347
▁הכללים	-9348
▁לאמנות	-9349
▁מאמצים	-9350
▁נכונים	-9351
▁בפרויקט	-9352
▁לעובדים	-9353
חב	-9354
iew	-9355
גדי	-9356
וננו	-9357
זקים	-9358
לושת	-9359
סיות	-9360
רגום	-9361
▁המו	-9362
▁העמ	-9363
▁וגי	-9364
▁וחס	-9365
▁סיל	-9366
▁פנה	-9367
▁צול	-9368
▁רוד	-9369
▁רעש	-9370
▁שמב	-9371
רכישת	-9372
▁ולכל	-9373
▁ולתת	-9374
▁כוחו	-9375
▁לחצו	-9376
▁לנגן	-9377
▁לפרק	-9378
▁מאזן	-9379
▁מחול	-9380
▁מעגל	-9381
▁קנדי	-9382
▁Watch	-9383
▁ביצים	-9384
▁במחנה	-9385
▁בפארק	-9386
▁הגרסה	-9387
▁ההכרה	-9388
▁זילנד	-9389
▁חופשה	-9390
▁לבנון	-9391
▁לירות	-9392
▁לצחוק	-9393
▁ממקום	-9394
▁עיבוד	-9395
▁אחראים	-9396
▁בתחרות	-9397
▁האגודה	-9398
▁האוסטר	-9399
▁הכתיבה	-9400
▁ולעתים	-9401
▁חתולים	-9402
▁לקהילה	-9403
▁עלולות	-9404
▁עשירים	-9405
▁במערכות	-9406
▁התחבורה	-9407
▁כשמדובר	-9408
▁מועמדים	-9409
▁האירופית	-9410
Ph	-9411
ֹה	-9412
פץ	-9413
חוף	-9414
מוט	-9415
נאט	-9416
ציו	-9417
▁TH	-9418
-193	-9419
משלת	-9420
רגשה	-9421
▁לקט	-9422
▁מאמ	-9423
▁מקל	-9424
▁נמכ	-9425
▁שהנ	-9426
▁2004	-9427
▁דווח	-9428
▁הסיי	-9429
▁וברא	-9430
▁חלון	-9431
▁כשיש	-9432
▁לפחד	-9433
▁עצות	-9434
▁במילה	-9435
▁הודעת	-9436
▁להכיל	-9437
▁לטעון	-9438
▁נכנסו	-9439
▁עוברת	-9440
▁רצונו	-9441
▁שלילי	-9442
▁איכשהו	-9443
▁הכספים	-9444
▁הראשית	-9445
▁ולבסוף	-9446
▁למניעת	-9447
▁מנגנון	-9448
▁אוטומטית	-9449
▁ניסיונות	-9450
▁באוסטרליה	-9451
לג	-9452
!".	-9453
ier	-9454
אוס	-9455
▁יט	-9456
למוד	-9457
למשל	-9458
רישה	-9459
▁בוי	-9460
▁הדף	-9461
▁הוס	-9462
▁הנב	-9463
▁שתע	-9464
ology	-9465
ומביה	-9466
נטינה	-9467
ניתוח	-9468
▁במבט	-9469
▁ההיא	-9470
▁הוות	-9471
▁המיל	-9472
▁לכלא	-9473
▁מזהה	-9474
▁מחבר	-9475
▁סינג	-9476
▁שהפך	-9477
▁שורה	-9478
▁שליש	-9479
▁במידת	-9480
▁בקרבת	-9481
▁הטענה	-9482
▁המופע	-9483
▁לבעיה	-9484
▁קהילת	-9485
▁ראויה	-9486
▁תומכת	-9487
▁תחנות	-9488
▁אזרחות	-9489
▁ברוכים	-9490
▁ברשתות	-9491
▁הגרעין	-9492
▁המיוחד	-9493
▁הניהול	-9494
▁השמיים	-9495
▁ממשלות	-9496
▁שלילית	-9497
▁שעשיתי	-9498
פלסטינים	-9499
▁ביקורות	-9500
▁ההוצאות	-9501
▁שנמצאים	-9502
▁למשתמשים	-9503
▁אסטרטגיות	-9504
24	-9505
sh	-9506
ּת	-9507
הצ	-9508
-24	-9509
ame	-9510
ton	-9511
und	-9512
ואת	-9513
לוף	-9514
שמי	-9515
▁34	-9516
ower	-9517
אותו	-9518
מייל	-9519
פולי	-9520
פנות	-9521
▁אמן	-9522
▁בְּ	-9523
▁בדר	-9524
▁הסח	-9525
▁כלא	-9526
▁לוס	-9527
▁נכס	-9528
▁עיכ	-9529
▁צוע	-9530
מליות	-9531
▁2001	-9532
▁בדרכ	-9533
▁החזק	-9534
▁הטרי	-9535
▁הפרה	-9536
▁וההת	-9537
▁לקהל	-9538
▁מופר	-9539
▁נוגע	-9540
▁אופנה	-9541
▁ברלין	-9542
▁ואנשי	-9543
▁חזקות	-9544
▁יאפשר	-9545
▁יגרום	-9546
▁לשכור	-9547
▁מחברי	-9548
▁מסגרת	-9549
▁מקוון	-9550
▁סוסים	-9551
▁בעצמכם	-9552
▁הסתיים	-9553
▁העלייה	-9554
▁להפסיד	-9555
▁משפיעה	-9556
▁אלכסנדר	-9557
▁דיווחים	-9558
▁האזורים	-9559
▁לביטחון	-9560
▁מורכבות	-9561
▁אמריקאית	-9562
▁אסטרטגיה	-9563
▁לפלסטינים	-9564
75	-9565
ty	-9566
וכב	-9567
ליש	-9568
רקו	-9569
רתו	-9570
▁אֲ	-9571
oint	-9572
דינו	-9573
היום	-9574
מזרח	-9575
מליץ	-9576
נהיג	-9577
פדפן	-9578
פשים	-9579
▁Col	-9580
▁דגש	-9581
▁וספ	-9582
▁ללו	-9583
▁למכ	-9584
▁מהט	-9585
▁מוא	-9586
▁נלח	-9587
iness	-9588
לולים	-9589
נדבות	-9590
ראלים	-9591
▁בונה	-9592
▁בקונ	-9593
▁טענו	-9594
▁למוע	-9595
▁לסוף	-9596
▁מודא	-9597
▁נובע	-9598
ינויים	-9599
▁בטעות	-9600
▁הטקסט	-9601
▁המרחק	-9602
▁הספצי	-9603
▁הקבלה	-9604
▁השעות	-9605
▁והרבה	-9606
▁יהפוך	-9607
▁ימינו	-9608
▁כאבים	-9609
▁לוקחת	-9610
▁נציגי	-9611
▁קוראת	-9612
▁ריכוז	-9613
כולוגיה	-9614
▁הרכישה	-9615
▁לעזאזל	-9616
▁סבורים	-9617
▁סטודנט	-9618
▁קהילות	-9619
▁שוטרים	-9620
▁בזהירות	-9621
▁במונחים	-9622
▁בתעשייה	-9623
▁חיוביות	-9624
--	-9625
8]	-9626
row	-9627
כבת	-9628
שלם	-9629
▁ותק	-9630
▁חטא	-9631
▁ללח	-9632
▁נצח	-9633
▁פקי	-9634
▁שנח	-9635
לווים	-9636
▁אמצע	-9637
▁בוגר	-9638
▁בוכה	-9639
▁הכרח	-9640
▁העמו	-9641
▁מתוח	-9642
▁נערך	-9643
▁נראו	-9644
▁עמדו	-9645
▁שופט	-9646
▁שמור	-9647
▁אפריק	-9648
▁במרחב	-9649
▁במשפט	-9650
▁בשמחה	-9651
▁הבחור	-9652
▁השכרת	-9653
▁ונראה	-9654
▁כתיבה	-9655
▁מכונת	-9656
▁מכירת	-9657
▁מתכנן	-9658
▁קבצים	-9659
▁האיזון	-9660
▁החשיבה	-9661
▁וניהול	-9662
▁לביקור	-9663
▁לשאלות	-9664
▁מוסרית	-9665
▁הקמפיין	-9666
▁טכניקות	-9667
▁האלקטרוני	-9668
לכו	-9669
מצה	-9670
פין	-9671
דקים	-9672
יהום	-9673
צחים	-9674
צעות	-9675
קיון	-9676
▁(1)	-9677
▁10%	-9678
▁דמו	-9679
▁ומפ	-9680
▁להנ	-9681
▁לחל	-9682
▁פנו	-9683
▁קפי	-9684
▁תות	-9685
ופרים	-9686
נטיקה	-9687
סטרול	-9688
שיתוף	-9689
▁ואחת	-9690
▁ולפי	-9691
▁חמשת	-9692
▁משמע	-9693
▁נפגע	-9694
▁נשוי	-9695
▁עונת	-9696
▁במחוז	-9697
▁דלתות	-9698
▁ומספר	-9699
▁לוואי	-9700
▁מתמשך	-9701
▁נועדו	-9702
▁ערבית	-9703
▁האפשרי	-9704
▁הופיעה	-9705
▁מטבעות	-9706
▁שהיינו	-9707
▁הקרובות	-9708
▁השרירים	-9709
▁מבחינתי	-9710
▁מודרנית	-9711
▁מרכיבים	-9712
▁ציבוריים	-9713
▁בוושינגטון	-9714
TM	-9715
au	-9716
ru	-9717
ve	-9718
לכ	-9719
ale	-9720
ans	-9721
les	-9722
מכו	-9723
קוש	-9724
▁קם	-9725
cess	-9726
lect	-9727
ליכה	-9728
▁188	-9729
▁202	-9730
▁הממ	-9731
▁ובט	-9732
▁חני	-9733
עונים	-9734
▁Love	-9735
▁ברגל	-9736
▁היצר	-9737
▁הנות	-9738
▁הסקר	-9739
▁השבת	-9740
▁מיות	-9741
▁רגוע	-9742
▁בברכה	-9743
▁בקשות	-9744
▁הנדרש	-9745
▁השמות	-9746
▁התייש	-9747
▁נוסדה	-9748
▁בילדים	-9749
▁בכוונה	-9750
▁הבגדים	-9751
▁המכירה	-9752
▁התכנון	-9753
▁מבפנים	-9754
▁מהעולם	-9755
▁פלסטיק	-9756
▁אנושיים	-9757
▁היחידים	-9758
▁הסוכנות	-9759
▁להיעשות	-9760
▁לנשיאות	-9761
▁משותפים	-9762
▁שאומרים	-9763
▁המרכיבים	-9764
▁מלכתחילה	-9765
ֵל	-9766
for	-9767
אגה	-9768
אוש	-9769
ביץ	-9770
דוש	-9771
דני	-9772
נקי	-9773
▁(5	-9774
▁).	-9775
▁3,	-9776
rans	-9777
נברג	-9778
פחתו	-9779
▁בחק	-9780
▁וור	-9781
וסטון	-9782
קדמיה	-9783
רגוני	-9784
▁אדיר	-9785
▁הרחק	-9786
▁והופ	-9787
▁חיפש	-9788
▁כתבו	-9789
▁לאלו	-9790
▁לאמת	-9791
▁לדין	-9792
▁לרכב	-9793
▁מעני	-9794
▁מפעל	-9795
▁תושב	-9796
▁באוכל	-9797
▁במלון	-9798
▁האידי	-9799
▁המוכר	-9800
▁הנמוך	-9801
▁התרחש	-9802
▁וכולם	-9803
▁מנוחה	-9804
▁קירות	-9805
▁קרובה	-9806
▁תכונה	-9807
▁תשוקה	-9808
▁התפילה	-9809
▁התקפות	-9810
▁כותבים	-9811
▁לארוחת	-9812
▁להגביל	-9813
▁להתקין	-9814
▁מצליחה	-9815
▁משתמשת	-9816
▁השופטים	-9817
▁מסתכלים	-9818
?)	-9819
AL	-9820
הט	-9821
ann	-9822
צנו	-9823
▁SE	-9824
ings	-9825
כוון	-9826
קיעה	-9827
▁186	-9828
▁you	-9829
▁בוש	-9830
▁החג	-9831
▁הצט	-9832
▁ויצ	-9833
▁ייא	-9834
▁לוו	-9835
▁ליר	-9836
▁מדד	-9837
▁ממס	-9838
▁פונ	-9839
▁קשי	-9840
דיבות	-9841
ורתוד	-9842
כלומר	-9843
▁with	-9844
▁אבוד	-9845
▁בהיר	-9846
▁בעסק	-9847
▁דרכי	-9848
▁הגול	-9849
▁הדלק	-9850
▁הציל	-9851
▁הקרן	-9852
▁כשזה	-9853
▁מבוק	-9854
▁מונע	-9855
▁שמתי	-9856
טואציה	-9857
▁איסוף	-9858
▁בספרד	-9859
▁גופים	-9860
▁הזהות	-9861
▁החזיק	-9862
▁הפולי	-9863
▁כלכלה	-9864
▁כתיבת	-9865
▁מנהלי	-9866
▁נוצרו	-9867
▁עיניו	-9868
▁צרפתי	-9869
▁כריסטי	-9870
▁להירגע	-9871
▁להסכים	-9872
▁להקדיש	-9873
▁להשוות	-9874
▁נסיבות	-9875
▁שיוכלו	-9876
▁תוכנות	-9877
▁Univers	-9878
▁הבריטים	-9879
▁הרפובליק	-9880
▁זיכרונות	-9881
!”	-9882
.5	-9883
TS	-9884
ps	-9885
tle	-9886
יעץ	-9887
▁3:	-9888
▁קץ	-9889
ומטר	-9890
ידוד	-9891
נתרו	-9892
שימו	-9893
▁Bus	-9894
▁בדו	-9895
▁הבש	-9896
▁נטו	-9897
וינות	-9898
נסיית	-9899
עריכה	-9900
שוויץ	-9901
▁בבדי	-9902
▁ביתו	-9903
▁ברכה	-9904
▁הדול	-9905
▁הפסד	-9906
▁וכעת	-9907
▁טבעת	-9908
▁לחסל	-9909
▁קצין	-9910
▁בגובה	-9911
▁במיטה	-9912
▁המשקל	-9913
▁ואירו	-9914
▁חשיפה	-9915
▁לסיום	-9916
▁מישהי	-9917
▁מנהלת	-9918
▁משטרה	-9919
▁נעלמו	-9920
▁עריכה	-9921
▁פיקוח	-9922
▁שעברו	-9923
▁בברלין	-9924
▁ביכולת	-9925
▁בתשלום	-9926
▁האיסלא	-9927
▁הבדלים	-9928
▁התחלנו	-9929
▁ומאפשר	-9930
▁קיצוני	-9931
▁ראויים	-9932
▁שעושים	-9933
▁הביקורת	-9934
▁המסמכים	-9935
▁חודשיים	-9936
▁מורכבים	-9937
':	-9938
oci	-9939
אתו	-9940
דיי	-9941
דתי	-9942
ווך	-9943
ייף	-9944
יקס	-9945
מכר	-9946
פנו	-9947
▁by	-9948
גיטי	-9949
חיית	-9950
יהוי	-9951
כחים	-9952
נסקי	-9953
קרית	-9954
▁189	-9955
▁Tag	-9956
▁בתל	-9957
▁הוט	-9958
▁כמח	-9959
▁פדר	-9960
▁שכך	-9961
▁שצי	-9962
בוכים	-9963
▁בושה	-9964
▁בחצי	-9965
▁הבנת	-9966
▁המשק	-9967
▁התיק	-9968
▁התנה	-9969
▁ואשר	-9970
▁ומאז	-9971
▁ושני	-9972
▁חדרי	-9973
▁חיוך	-9974
▁טופס	-9975
▁יביא	-9976
▁מגיל	-9977
▁מתגע	-9978
▁נאות	-9979
▁נוהג	-9980
▁עזבו	-9981
▁שזאת	-9982
▁שקרא	-9983
▁בהקדם	-9984
▁בחזית	-9985
▁האמין	-9986
▁התקשר	-9987
▁לתחום	-9988
▁משרות	-9989
▁נועדה	-9990
▁שכדאי	-9991
▁אדוארד	-9992
▁איומים	-9993
▁בהודעה	-9994
▁בנקודה	-9995
▁בפולין	-9996
▁ברשימת	-9997
▁העסקית	-9998
▁הקטנות	-9999
▁הריבית	-10000
▁התביעה	-10001
▁להתפלל	-10002
▁מפחדים	-10003
▁פשוטות	-10004
▁קמפיין	-10005
▁שותפות	-10006
▁תחומים	-10007
▁בשבילכם	-10008
▁הדוקטור	-10009
▁התחתונה	-10010
▁מקומיות	-10011
▁פוליטיקה	-10012
OL	-10013
RI	-10014
ָל	-10015
ank	-10016
יהו	-10017
לבש	-10018
לתם	-10019
ניף	-10020
–19	-10021
▁דק	-10022
ital	-10023
בדוק	-10024
בורי	-10025
טינק	-10026
טרים	-10027
כילה	-10028
כנתא	-10029
נטרי	-10030
▁Ass	-10031
▁בהז	-10032
▁בנג	-10033
▁גלו	-10034
▁גרה	-10035
▁האק	-10036
▁ושב	-10037
▁זכר	-10038
▁טום	-10039
▁קרק	-10040
▁תפס	-10041
ואלים	-10042
פיעים	-10043
שייתי	-10044
▁גולד	-10045
▁וגור	-10046
▁וכבר	-10047
▁לניו	-10048
▁מהכל	-10049
▁עשור	-10050
▁רגיש	-10051
▁שכול	-10052
▁בזמנו	-10053
▁ההליך	-10054
▁המוסר	-10055
▁השכלה	-10056
▁כוכבי	-10057
▁כפולה	-10058
▁מאותו	-10059
▁שיקול	-10060
▁התלמיד	-10061
▁זהירות	-10062
▁להבהיר	-10063
▁לייצור	-10064
▁מסורתי	-10065
▁צבאיים	-10066
▁באלוהים	-10067
▁הדרישות	-10068
▁הלוואות	-10069
▁המהירות	-10070
▁התכונות	-10071
▁חיוניים	-10072
▁משפיעים	-10073
eg	-10074
gr	-10075
אמת	-10076
מיץ	-10077
פאה	-10078
פסו	-10079
▁Qu	-10080
טרור	-10081
מחות	-10082
▁Sky	-10083
▁אלג	-10084
▁בתו	-10085
▁מחס	-10086
▁נוז	-10087
▁נשר	-10088
▁שלק	-10089
ויבות	-10090
יינות	-10091
מניות	-10092
קידום	-10093
▁Cent	-10094
▁בקצה	-10095
▁ההתח	-10096
▁הקצר	-10097
▁חולי	-10098
▁טיפש	-10099
▁יכלה	-10100
▁לעסק	-10101
▁לקול	-10102
▁מולי	-10103
▁מונח	-10104
▁סירב	-10105
▁פונה	-10106
▁ראית	-10107
▁שהול	-10108
▁שהוע	-10109
טיביים	-10110
כסוכים	-10111
▁המאמן	-10112
▁הסוכר	-10113
▁הפועל	-10114
▁חבריו	-10115
▁חתונה	-10116
▁טכנית	-10117
▁יופיע	-10118
▁יצטרך	-10119
▁להטיל	-10120
▁להסכם	-10121
▁מקרוב	-10122
▁מרחוק	-10123
▁ניתנה	-10124
▁נעימה	-10125
▁בחברות	-10126
▁בייחוד	-10127
▁בעיתון	-10128
▁האסלאם	-10129
▁ההפעלה	-10130
▁היתרון	-10131
▁לתמיכה	-10132
▁מתקיים	-10133
▁תקופות	-10134
▁ביעילות	-10135
▁במכונית	-10136
▁המשאבים	-10137
▁המכוניות	-10138
▁העיקריות	-10139
SS	-10140
-23	-10141
ארו	-10142
ואם	-10143
ובו	-10144
יצב	-10145
בולת	-10146
בעיה	-10147
ציתי	-10148
רכיט	-10149
שותף	-10150
▁אתו	-10151
▁גוד	-10152
▁דבש	-10153
▁החס	-10154
▁חקר	-10155
▁לתה	-10156
▁נוף	-10157
▁נער	-10158
▁פומ	-10159
בחרים	-10160
טויים	-10161
ישגים	-10162
▁אנדר	-10163
▁בנוח	-10164
▁האחת	-10165
▁הכספ	-10166
▁וכאן	-10167
▁לצלם	-10168
▁לקור	-10169
▁מוסר	-10170
▁סטרו	-10171
▁סרטי	-10172
▁עבדה	-10173
▁תעשו	-10174
▁תרצו	-10175
▁האדרי	-10176
▁היעדר	-10177
▁העובד	-10178
▁ליפול	-10179
▁לכסות	-10180
▁לצייר	-10181
▁מינים	-10182
▁מסובך	-10183
▁נולדו	-10184
▁שואלת	-10185
▁שכאשר	-10186
▁שלמים	-10187
▁תמונת	-10188
▁Americ	-10189
▁בתכנית	-10190
▁העצבים	-10191
▁התקווה	-10192
▁להתקשר	-10193
▁השוטרים	-10194
▁ציפורים	-10195
▁התייחסות	-10196
▁חיצוניים	-10197
▁לירושלים	-10198
26	-10199
9]	-10200
עמ	-10201
מנם	-10202
▁כג	-10203
▁ככ	-10204
▁רץ	-10205
בייש	-10206
וכרת	-10207
חזיר	-10208
חזרו	-10209
ספיר	-10210
רוני	-10211
▁Sec	-10212
▁הטל	-10213
▁השב	-10214
▁לפס	-10215
▁ענן	-10216
▁שהט	-10217
▁תבו	-10218
חישות	-10219
▁באדם	-10220
▁גרמה	-10221
▁הבטן	-10222
▁הנאה	-10223
▁זכאי	-10224
▁זרות	-10225
▁יוגה	-10226
▁לרפא	-10227
▁מצאה	-10228
▁ריקה	-10229
▁שניה	-10230
▁תירו	-10231
יהודים	-10232
▁ביקום	-10233
▁ביקשו	-10234
▁ברומא	-10235
▁הפעלת	-10236
▁התעור	-10237
▁וניתן	-10238
▁ופשוט	-10239
▁חזרתי	-10240
▁לארגן	-10241
▁לזרוק	-10242
▁מחייב	-10243
▁מטוסי	-10244
▁פאלון	-10245
▁שיפוט	-10246
▁בציבור	-10247
▁ההוראה	-10248
▁הלמידה	-10249
▁המזרחי	-10250
▁העברית	-10251
▁הצעדים	-10252
▁לסביבה	-10253
▁מצלמות	-10254
▁מתקדמת	-10255
▁נחשבים	-10256
▁עותקים	-10257
▁רגליים	-10258
▁אידיאלי	-10259
▁המשפטים	-10260
▁מחוברים	-10261
▁דמוקרטית	-10262
▁לשינויים	-10263
▁האסטרטגיה	-10264
23	-10265
yt	-10266
ich	-10267
▁אֱ	-10268
צריך	-10269
שתית	-10270
▁Day	-10271
▁Sch	-10272
▁בהצ	-10273
▁הנצ	-10274
▁ובד	-10275
▁ורג	-10276
▁ילי	-10277
▁לחש	-10278
▁פתא	-10279
▁קצה	-10280
בוטים	-10281
מצעות	-10282
ניסטן	-10283
שומים	-10284
▁ברוח	-10285
▁דומי	-10286
▁דעתך	-10287
▁הבעל	-10288
▁החיה	-10289
▁היין	-10290
▁להפר	-10291
▁לטוס	-10292
▁מכסה	-10293
▁נאמן	-10294
▁נציג	-10295
▁תוהה	-10296
▁תורת	-10297
▁ארוחה	-10298
▁דיבור	-10299
▁החנות	-10300
▁הישנה	-10301
▁הכתבה	-10302
▁המועד	-10303
▁המסור	-10304
▁המקסי	-10305
▁הסכנה	-10306
▁העברה	-10307
▁השווי	-10308
▁חווית	-10309
▁כשאנו	-10310
▁לרקוד	-10311
▁מוגדר	-10312
▁משלוח	-10313
▁נעשית	-10314
▁נראתה	-10315
▁עישון	-10316
▁עשירה	-10317
▁שעשית	-10318
ביוטיקה	-10319
▁בכוחות	-10320
▁בעיראק	-10321
▁הממלכה	-10322
▁יצורים	-10323
▁כמויות	-10324
▁להמתין	-10325
▁מחלוקת	-10326
▁עוסקים	-10327
▁תלויים	-10328
▁היכולות	-10329
▁הניצחון	-10330
▁אוכלוסיית	-10331
▁הדמוקרטית	-10332
▁International	-10333
CC	-10334
טף	-10335
enc	-10336
האי	-10337
היו	-10338
וגת	-10339
וכי	-10340
זהו	-10341
יית	-10342
ילס	-10343
מצע	-10344
פיו	-10345
צול	-10346
▁75	-10347
חינת	-10348
ליפה	-10349
מונד	-10350
סקבה	-10351
פעיל	-10352
ציאת	-10353
▁50%	-10354
▁השד	-10355
▁מאל	-10356
▁נחת	-10357
הברית	-10358
ומחים	-10359
נרלים	-10360
שטיין	-10361
▁1999	-10362
▁Comm	-10363
▁הדגל	-10364
▁והחל	-10365
▁והפר	-10366
▁והרג	-10367
▁ומדע	-10368
▁יועץ	-10369
▁מאוה	-10370
▁מושפ	-10371
▁נגדו	-10372
▁עושר	-10373
▁רובי	-10374
▁איגוד	-10375
▁בטרור	-10376
▁במדבר	-10377
▁העסקי	-10378
▁לדווח	-10379
▁לוחות	-10380
▁לצוות	-10381
▁מהפכה	-10382
▁מוכרת	-10383
▁מכילה	-10384
▁נפשית	-10385
▁בתרבות	-10386
▁האחורי	-10387
▁האמינו	-10388
▁החלקים	-10389
▁הסכימו	-10390
▁הספרות	-10391
▁ולמרות	-10392
▁יסודות	-10393
▁בוודאות	-10394
▁המומחים	-10395
▁הנדרשים	-10396
▁התאבדות	-10397
:3	-10398
Ch	-10399
EC	-10400
MA	-10401
בתה	-10402
גין	-10403
וזי	-10404
זמה	-10405
טמן	-10406
כזב	-10407
ouse	-10408
גרסי	-10409
ולדו	-10410
ועות	-10411
ריכת	-10412
רתור	-10413
▁אנד	-10414
▁האף	-10415
▁ווד	-10416
▁מבל	-10417
▁קטע	-10418
▁רבע	-10419
▁תקף	-10420
לושים	-10421
פורמה	-10422
צויים	-10423
▁בתום	-10424
▁הירד	-10425
▁העות	-10426
▁והול	-10427
▁יורו	-10428
▁מהרה	-10429
▁שהמח	-10430
▁אנוני	-10431
▁הגרוע	-10432
▁הליבר	-10433
▁הנייד	-10434
▁הפחות	-10435
▁השורה	-10436
▁כותרת	-10437
▁לחתום	-10438
▁לכדור	-10439
▁לרשום	-10440
▁קיומו	-10441
▁בסביבת	-10442
▁המוביל	-10443
▁הראייה	-10444
▁השתתפו	-10445
▁התחתון	-10446
▁להתחתן	-10447
▁למכירה	-10448
▁לפעולה	-10449
▁מישראל	-10450
▁נדירות	-10451
▁נוהגים	-10452
▁פברואר	-10453
▁ראשוני	-10454
▁אימונים	-10455
▁באמצעים	-10456
▁דייוויד	-10457
▁האווירה	-10458
▁הדרומית	-10459
▁ההשקעות	-10460
▁להתכונן	-10461
▁למקומות	-10462
▁מייצרים	-10463
▁ממדינות	-10464
▁סיגריות	-10465
▁שליליות	-10466
▁אוקראינה	-10467
▁המועמדים	-10468
▁מיקרוסופט	-10469
טס	-10470
air	-10471
בכל	-10472
ישג	-10473
כאל	-10474
נדב	-10475
פיס	-10476
צוב	-10477
▁38	-10478
▁At	-10479
▁It	-10480
▁To	-10481
▁אִ	-10482
▁ה־	-10483
דרשו	-10484
וחרר	-10485
מאלי	-10486
מוות	-10487
פיתי	-10488
▁אפס	-10489
▁בהר	-10490
▁ויו	-10491
▁ונפ	-10492
▁ושו	-10493
▁לבק	-10494
▁סמי	-10495
▁תחז	-10496
ביאים	-10497
דורים	-10498
▁האספ	-10499
▁והרי	-10500
▁ככלל	-10501
▁לימד	-10502
▁קולו	-10503
▁אבטחת	-10504
▁בדרכו	-10505
▁בסמוך	-10506
▁המאמץ	-10507
▁המסמך	-10508
▁המרחב	-10509
▁ואיפה	-10510
▁לדחות	-10511
▁להמשך	-10512
▁לחימה	-10513
▁לעומק	-10514
▁מדעית	-10515
▁מחובר	-10516
▁מסייע	-10517
▁מציגה	-10518
▁מרשים	-10519
▁מתוכם	-10520
▁קורבן	-10521
▁שפורס	-10522
▁תהפוך	-10523
▁תחשוב	-10524
▁תשכחו	-10525
▁אליזבת	-10526
▁בחיינו	-10527
▁במחצית	-10528
▁בממשלה	-10529
▁גיליתי	-10530
▁ההערכה	-10531
▁העיירה	-10532
▁העצמית	-10533
▁התפיסה	-10534
▁ותרבות	-10535
▁לאיבוד	-10536
▁מוצלחת	-10537
▁ניידים	-10538
▁ההשלכות	-10539
▁המאמצים	-10540
▁המקצועי	-10541
▁יהודיים	-10542
▁להתלונן	-10543
▁מחזיקים	-10544
▁המטופלים	-10545
▁מאפיינים	-10546
▁מוטיבציה	-10547
▁אוכלוסייה	-10548
▁הקומוניסטית	-10549
▁פוטנציאליים	-10550
RA	-10551
co	-10552
▁x	-10553
ors	-10554
אגו	-10555
ונר	-10556
סטה	-10557
סטל	-10558
▁Am	-10559
▁sh	-10560
ward	-10561
ליטת	-10562
קוין	-10563
שעים	-10564
▁www	-10565
▁אשם	-10566
▁גרא	-10567
▁התצ	-10568
▁ולד	-10569
▁כור	-10570
▁ממת	-10571
קטיקה	-10572
▁Next	-10573
▁בקפי	-10574
▁הולי	-10575
▁והמע	-10576
▁וידי	-10577
▁לנוח	-10578
▁לסוג	-10579
▁מהצד	-10580
▁מחנה	-10581
▁נופל	-10582
▁נשבע	-10583
שוויון	-10584
▁Hotel	-10585
▁אליהן	-10586
▁אמונת	-10587
▁בבסיס	-10588
▁בטענה	-10589
▁בסיום	-10590
▁בשלוש	-10591
▁דרמטי	-10592
▁האיום	-10593
▁הביאה	-10594
▁החיוב	-10595
▁הירוק	-10596
▁העתיק	-10597
▁התחום	-10598
▁חודשי	-10599
▁חשמלי	-10600
▁טיפוס	-10601
▁לבזבז	-10602
▁להוות	-10603
▁להפיץ	-10604
▁מצוות	-10605
▁מצפון	-10606
▁נותרה	-10607
▁נחזור	-10608
▁שוחרר	-10609
▁שרשרת	-10610
וריסטים	-10611
▁אוספים	-10612
▁ביצירת	-10613
▁האופנה	-10614
▁החיבור	-10615
▁הסגנון	-10616
▁הפדרלי	-10617
▁הפלשתי	-10618
▁הצעירה	-10619
▁להודיע	-10620
▁להירשם	-10621
▁להתנגד	-10622
▁מכילים	-10623
▁עסקאות	-10624
▁קשורות	-10625
▁שייכים	-10626
▁שלעולם	-10627
▁אלטרנטי	-10628
▁באנרגיה	-10629
▁החמישית	-10630
▁הלטינית	-10631
▁העיקרון	-10632
▁מסוכנים	-10633
▁שיעורים	-10634
▁האסלאמית	-10635
ium	-10636
ִּי	-10637
גלי	-10638
עוט	-10639
reet	-10640
אמרו	-10641
זכור	-10642
▁Inc	-10643
▁בנט	-10644
▁ירח	-10645
▁שתצ	-10646
▁בכלי	-10647
▁הגשר	-10648
▁החום	-10649
▁המלח	-10650
▁והמס	-10651
▁חלקו	-10652
▁חקלא	-10653
▁לבטא	-10654
▁מדור	-10655
▁מנצח	-10656
▁סטיב	-10657
▁סיים	-10658
נשטיין	-10659
▁אחסון	-10660
▁בהיקף	-10661
▁בקנדה	-10662
▁בתוקף	-10663
▁גדלים	-10664
▁האמון	-10665
▁הדרוש	-10666
▁החוזה	-10667
▁החתול	-10668
▁הימין	-10669
▁המנוע	-10670
▁הרדיו	-10671
▁מאליו	-10672
▁מגניב	-10673
▁מודעת	-10674
▁מייצר	-10675
▁תעודת	-10676
▁תקדים	-10677
▁בוגרים	-10678
▁ביניהן	-10679
▁דיברתי	-10680
▁ההגדרה	-10681
▁הוסיפה	-10682
▁היהדות	-10683
▁היחידי	-10684
▁הניסוי	-10685
▁הסינים	-10686
▁חמישים	-10687
▁יעילים	-10688
▁שחורים	-10689
▁שכולנו	-10690
▁היסודות	-10691
▁המלכותי	-10692
▁המערכות	-10693
▁הסימנים	-10694
▁המנהיגים	-10695
▁המקומיות	-10696
ET	-10697
Fi	-10698
HD	-10699
ֹל	-10700
▁\	-10701
?",	-10702
ata	-10703
ube	-10704
איץ	-10705
דתו	-10706
חול	-10707
מוז	-10708
רתם	-10709
▁Ed	-10710
בקשו	-10711
ובדת	-10712
ודשת	-10713
וקיו	-10714
טלים	-10715
כיתי	-10716
שיבו	-10717
▁Act	-10718
▁MBA	-10719
▁הגן	-10720
▁טון	-10721
▁נסת	-10722
▁פשי	-10723
▁שכת	-10724
ition	-10725
בועים	-10726
טלנטי	-10727
▁בדוק	-10728
▁בחמש	-10729
▁ביני	-10730
▁בעיק	-10731
▁גברי	-10732
▁הבשר	-10733
▁ישות	-10734
▁למתח	-10735
▁מדיה	-10736
▁מפעם	-10737
▁שבכל	-10738
▁איסור	-10739
▁בכמות	-10740
▁הדגיש	-10741
▁הסכים	-10742
▁הציוד	-10743
▁כותבת	-10744
▁מבחוץ	-10745
▁ניסתה	-10746
▁עוזרת	-10747
▁תפיסה	-10748
▁תקיפה	-10749
▁בתשובה	-10750
▁גמישות	-10751
▁האומות	-10752
▁התופעה	-10753
▁מסוכנת	-10754
▁נפגשים	-10755
▁צרפתית	-10756
▁קודמים	-10757
▁שרירים	-10758
▁תאמינו	-10759
▁החקלאות	-10760
▁הנבחרים	-10761
▁הקוראים	-10762
▁יישומים	-10763
BS	-10764
ָמ	-10765
יז	-10766
תת	-10767
".[	-10768
וטה	-10769
קוט	-10770
ריץ	-10771
▁Wi	-10772
וסקס	-10773
זיים	-10774
כירו	-10775
ערים	-10776
תימה	-10777
▁(2)	-10778
▁זרם	-10779
▁לגן	-10780
▁שהז	-10781
ליאמס	-10782
▁Inst	-10783
▁Life	-10784
▁Post	-10785
▁בודה	-10786
▁בחצר	-10787
▁בכיס	-10788
▁בכסף	-10789
▁הגדר	-10790
▁המכש	-10791
▁השגת	-10792
▁חברו	-10793
▁ירדן	-10794
▁כריס	-10795
▁לכוח	-10796
▁לסין	-10797
▁לעור	-10798
▁שקשה	-10799
פרסמים	-10800
▁במטבח	-10801
▁בנקים	-10802
▁הוצאת	-10803
▁המהיר	-10804
▁המפעל	-10805
▁הפרעה	-10806
▁יסייע	-10807
▁כיבוש	-10808
▁להקמת	-10809
▁פעולת	-10810
▁אדומים	-10811
▁בעיצוב	-10812
▁ברורים	-10813
▁האסטרו	-10814
▁הדיבור	-10815
▁המבוסס	-10816
▁ולשמור	-10817
▁לשלטון	-10818
▁עבודתם	-10819
▁רגישות	-10820
▁שופטים	-10821
▁תצטרכו	-10822
▁במחלוקת	-10823
▁הבסיסית	-10824
▁היומיום	-10825
▁המבוססת	-10826
▁תרבותית	-10827
▁הכישורים	-10828
▁המודיעין	-10829
▁ישראליים	-10830
MP	-10831
-90	-10832
ley	-10833
איי	-10834
דלי	-10835
וקו	-10836
זיז	-10837
ייך	-10838
מטר	-10839
צנה	-10840
▁IS	-10841
גרמו	-10842
לכים	-10843
פצים	-10844
▁Mus	-10845
▁דגי	-10846
▁הער	-10847
▁ובצ	-10848
▁חלה	-10849
▁חמה	-10850
▁מנד	-10851
▁רון	-10852
נגנון	-10853
עריכת	-10854
▁Cont	-10855
▁במתק	-10856
▁בקשת	-10857
▁גרים	-10858
▁האשה	-10859
▁ובאי	-10860
▁ושומ	-10861
▁מיוש	-10862
▁מפשע	-10863
▁נכשל	-10864
▁סופי	-10865
▁שאיש	-10866
▁תגיע	-10867
▁תיאר	-10868
אלוהים	-10869
טיביות	-10870
▁2011.	-10871
▁אינטי	-10872
▁אכילה	-10873
▁בונים	-10874
▁בלעדי	-10875
▁בשיחה	-10876
▁האוני	-10877
▁הטיול	-10878
▁לפניו	-10879
▁לשחזר	-10880
▁מביאה	-10881
▁מודאג	-10882
▁מטרתו	-10883
▁מתברר	-10884
▁מתקרב	-10885
▁נעשתה	-10886
▁סקירה	-10887
▁עיתון	-10888
פשרויות	-10889
▁אמצעים	-10890
▁בבניין	-10891
▁גלגלים	-10892
▁החשובה	-10893
▁הקריאה	-10894
▁הקשרים	-10895
▁התשוקה	-10896
▁לאירוע	-10897
▁להאשים	-10898
▁שאיננו	-10899
▁שאפילו	-10900
▁שעתיים	-10901
לוונטיות	-10902
▁אוטובוס	-10903
▁האיראני	-10904
▁הנמצאים	-10905
▁הצרכנים	-10906
▁Business	-10907
▁האבולוציה	-10908
הנ	-10909
▁;	-10910
100	-10911
ote	-10912
דיט	-10913
יקו	-10914
▁55	-10915
איים	-10916
כאשר	-10917
ליפו	-10918
לפני	-10919
פורש	-10920
שוטה	-10921
שתות	-10922
תמיד	-10923
▁10.	-10924
▁250	-10925
▁ואה	-10926
▁ורע	-10927
▁ישב	-10928
▁סיו	-10929
▁דעתי	-10930
▁וכשה	-10931
▁מוסק	-10932
▁מזיק	-10933
▁מטור	-10934
▁מייק	-10935
▁סיור	-10936
▁שנשא	-10937
▁אלהים	-10938
▁אמרנו	-10939
▁אקדמי	-10940
▁באולם	-10941
▁הוציא	-10942
▁הזמנה	-10943
▁המושג	-10944
▁המיטה	-10945
▁המשמש	-10946
▁הנמצא	-10947
▁מאסטר	-10948
▁מדרום	-10949
▁סרטון	-10950
▁פיליפ	-10951
▁שאותו	-10952
▁שטחים	-10953
▁תרגיל	-10954
▁במסעדה	-10955
▁הצבעים	-10956
▁הרוסים	-10957
▁כדורסל	-10958
▁להדגיש	-10959
▁להשתלט	-10960
▁לעובדה	-10961
▁מזיקים	-10962
▁נפרדים	-10963
▁רחוקות	-10964
היסטוריה	-10965
▁לאירופה	-10966
▁למשפחות	-10967
▁מהעבודה	-10968
▁עיתונאי	-10969
▁שעובדים	-10970
45	-10971
ai	-10972
ֹר	-10973
▁	-10974
▁́	-10975
-22	-10976
eth	-10977
בשת	-10978
דמן	-10979
נבה	-10980
תיק	-10981
▁at	-10982
▁גג	-10983
-300	-10984
.[1]	-10985
over	-10986
דהות	-10987
חזור	-10988
טינג	-10989
כוני	-10990
קטין	-10991
שבים	-10992
▁Sci	-10993
▁pro	-10994
▁וכד	-10995
▁קטי	-10996
חריים	-10997
טויות	-10998
סלמים	-10999
עימות	-11000
שרדים	-11001
▁1000	-11002
▁אורן	-11003
▁בכנס	-11004
▁הגדה	-11005
▁הצמח	-11006
▁יתרה	-11007
▁להקת	-11008
▁לחקר	-11009
▁מושך	-11010
▁מפתי	-11011
▁מתקר	-11012
▁נזכר	-11013
▁נשכח	-11014
▁עזרת	-11015
▁תרצה	-11016
ואליות	-11017
רכיטקט	-11018
▁בסרטן	-11019
▁ברכות	-11020
▁בשורה	-11021
▁דונלד	-11022
▁הבנים	-11023
▁העצים	-11024
▁הפתעה	-11025
▁וצריך	-11026
▁לאנשי	-11027
▁מגדיר	-11028
▁מכוון	-11029
▁מצאנו	-11030
▁מצביע	-11031
▁מצווה	-11032
▁משרדי	-11033
▁נעצרו	-11034
▁ריפוי	-11035
▁שאסור	-11036
▁המנהיג	-11037
▁הנשימה	-11038
▁חלונות	-11039
▁להעמיד	-11040
▁מלמדים	-11041
▁נמוכות	-11042
▁רווחים	-11043
▁אפשריים	-11044
▁בתמונות	-11045
▁הצפונית	-11046
▁לענייני	-11047
▁מוגבלות	-11048
▁מרכזיים	-11049
▁העיתונות	-11050
▁ושירותים	-11051
▁הפוליטיים	-11052
)?	-11053
ep	-11054
ַּ	-11055
ָד	-11056
דד	-11057
בקה	-11058
שוש	-11059
ומנו	-11060
חתית	-11061
פיעה	-11062
שטות	-11063
שלים	-11064
תודה	-11065
▁באג	-11066
▁בוב	-11067
▁בחש	-11068
▁חלו	-11069
▁מנט	-11070
▁רוכ	-11071
ובדות	-11072
ונסון	-11073
▁גורל	-11074
▁דאפא	-11075
▁הגשת	-11076
▁הזקן	-11077
▁הכלי	-11078
▁הכנה	-11079
▁הפער	-11080
▁ובית	-11081
▁והני	-11082
▁וייט	-11083
▁להתו	-11084
▁לואי	-11085
▁לסדר	-11086
▁מגוח	-11087
▁מהשי	-11088
▁מימי	-11089
▁מקדש	-11090
▁מתכת	-11091
▁נוחה	-11092
▁עבדו	-11093
▁עברי	-11094
▁עדין	-11095
▁קבלה	-11096
▁שהוג	-11097
▁אידיא	-11098
▁בכנות	-11099
▁דמעות	-11100
▁הדרכה	-11101
▁הפעלה	-11102
▁חיסון	-11103
▁לשפוט	-11104
▁מגזין	-11105
▁מהיום	-11106
▁מצלמה	-11107
▁סייבר	-11108
▁עוצמת	-11109
▁ציפור	-11110
▁שימור	-11111
▁שקיים	-11112
▁תרגול	-11113
▁בבעיות	-11114
▁בעיניי	-11115
▁בשטחים	-11116
▁הבכורה	-11117
▁הקישור	-11118
▁ובאופן	-11119
▁לדבריה	-11120
▁להתאמן	-11121
▁למשטרה	-11122
▁לצרכים	-11123
▁מהגרים	-11124
▁ניתנים	-11125
▁ציפיות	-11126
▁שקיבלו	-11127
▁תביעות	-11128
▁אופטימי	-11129
▁בקריירה	-11130
▁הנוצרים	-11131
▁מדהימים	-11132
▁מועמדות	-11133
▁מתנדבים	-11134
▁בשירותים	-11135
▁ללימודים	-11136
ID	-11137
תע	-11138
"),	-11139
-27	-11140
ins	-11141
ven	-11142
אתי	-11143
גיף	-11144
ימה	-11145
יקן	-11146
מחי	-11147
פלה	-11148
▁Ag	-11149
נועת	-11150
ראלי	-11151
▁וצע	-11152
▁כשר	-11153
▁לזו	-11154
▁לפה	-11155
▁מחי	-11156
▁סמך	-11157
▁רות	-11158
▁שוד	-11159
▁שרא	-11160
▁תוח	-11161
זינים	-11162
טלפון	-11163
צויות	-11164
▁Arch	-11165
▁Comp	-11166
▁בבור	-11167
▁הגשם	-11168
▁המעי	-11169
▁המרו	-11170
▁הקים	-11171
▁הרבי	-11172
▁הריק	-11173
▁ובהת	-11174
▁חורף	-11175
▁לאינ	-11176
▁לינק	-11177
▁מאור	-11178
▁מכפי	-11179
▁מתלו	-11180
▁נורו	-11181
▁נחשף	-11182
▁פחמן	-11183
▁פרעה	-11184
▁קונס	-11185
▁שירה	-11186
▁תעלה	-11187
▁2015,	-11188
▁ההרים	-11189
▁הליגה	-11190
▁המוסד	-11191
▁השישי	-11192
▁זוכים	-11193
▁יעבור	-11194
▁לאותה	-11195
▁לטובה	-11196
▁למחנה	-11197
▁מפורט	-11198
▁מפלגה	-11199
▁משאבי	-11200
▁ניקוי	-11201
▁נקיים	-11202
▁קריטי	-11203
▁תגובת	-11204
▁תמיכת	-11205
▁אינטרס	-11206
▁בביצוע	-11207
▁דיברנו	-11208
▁ההגירה	-11209
▁ההכנסה	-11210
▁המסעדה	-11211
▁הפילוס	-11212
▁חמורות	-11213
▁יישארו	-11214
▁לוחמים	-11215
▁לתהליך	-11216
▁מאושרת	-11217
▁מגבלות	-11218
▁משפחתה	-11219
▁סופרים	-11220
▁שיכולה	-11221
▁הספרייה	-11222
▁הראשוני	-11223
▁וכתוצאה	-11224
▁מבוססות	-11225
▁עניינים	-11226
▁האפיפיור	-11227
▁הביצועים	-11228
▁העקרונות	-11229
▁למבוגרים	-11230
▁אינטלקטוא	-11231
▁בפוליטיקה	-11232
▁האמריקנים	-11233
▁פוליטיקאים	-11234
28	-11235
PA	-11236
כדי	-11237
מען	-11238
צוף	-11239
▁..	-11240
▁CO	-11241
גידי	-11242
וארת	-11243
וויי	-11244
טורה	-11245
מודה	-11246
קדמו	-11247
רכיה	-11248
▁אבק	-11249
▁ומז	-11250
▁יוג	-11251
▁סמו	-11252
▁תדע	-11253
Phone	-11254
גרפיה	-11255
▁אצבע	-11256
▁האבן	-11257
▁המצי	-11258
▁ושאר	-11259
▁זהים	-11260
▁טהור	-11261
▁לכדי	-11262
▁מבוד	-11263
▁מתעל	-11264
▁עזרו	-11265
▁שעוד	-11266
▁תקין	-11267
▁2014,	-11268
▁בהווה	-11269
▁דירוג	-11270
▁האביב	-11271
▁הנהלת	-11272
▁הקיום	-11273
▁ירקות	-11274
▁ישיבה	-11275
▁לנוכח	-11276
▁לסרטן	-11277
▁לקפוץ	-11278
▁מהסוג	-11279
▁ממלכת	-11280
▁מעניק	-11281
▁ניקול	-11282
▁נצטרך	-11283
▁ראיתם	-11284
▁שנשאר	-11285
▁איכותי	-11286
▁בכלכלה	-11287
▁בראשות	-11288
▁ההולדת	-11289
▁ההצבעה	-11290
▁הילדות	-11291
▁הכלבים	-11292
▁הלחימה	-11293
▁הקדושה	-11294
▁ובסופו	-11295
▁חולקים	-11296
▁להימלט	-11297
▁מכוונת	-11298
▁פסיכיא	-11299
▁המזרחית	-11300
▁התגובות	-11301
▁להשתחרר	-11302
▁ההתקדמות	-11303
▁המובילות	-11304
▁פוליטיות	-11305
▁הבינלאומיים	-11306
29	-11307
BM	-11308
CO	-11309
צן	-11310
???	-11311
[1]	-11312
erm	-11313
iel	-11314
org	-11315
vel	-11316
בוץ	-11317
וטי	-11318
טיק	-11319
מכת	-11320
▁Ab	-11321
▁ch	-11322
ברנו	-11323
ובדן	-11324
▁חסד	-11325
▁טיל	-11326
▁מיט	-11327
▁קעק	-11328
▁שפר	-11329
ement	-11330
ookie	-11331
ובעים	-11332
▁Star	-11333
▁בשעת	-11334
▁האמן	-11335
▁ההמל	-11336
▁ההסת	-11337
▁המפה	-11338
▁הפיג	-11339
▁והשת	-11340
▁ולהצ	-11341
▁ומור	-11342
▁ונות	-11343
▁ירדו	-11344
▁מלוא	-11345
▁מסוד	-11346
▁מקיף	-11347
▁נובל	-11348
▁נמאס	-11349
▁שנחש	-11350
▁ברמות	-11351
▁דיברו	-11352
▁הבודה	-11353
▁התברר	-11354
▁ואילך	-11355
▁ורבים	-11356
▁להרבה	-11357
▁לציון	-11358
▁לשוחח	-11359
▁מחברת	-11360
▁מייסד	-11361
▁מעשית	-11362
▁נטייה	-11363
▁עבדים	-11364
▁פעילי	-11365
▁ראיון	-11366
▁תקנות	-11367
קטיביים	-11368
▁אוטונו	-11369
▁אזרחית	-11370
▁ברצונך	-11371
▁בשכונה	-11372
▁הדורות	-11373
▁החירות	-11374
▁המינים	-11375
▁השתנתה	-11376
▁התמחות	-11377
▁התקיים	-11378
▁ובעולם	-11379
▁זכוכית	-11380
▁לפרטים	-11381
▁מאחרים	-11382
▁עדויות	-11383
▁תלונות	-11384
▁ברציפות	-11385
▁גרעינית	-11386
▁המשפטית	-11387
▁למוזיקה	-11388
▁לתקשורת	-11389
▁החברתיים	-11390
▁הסיכונים	-11391
▁יצירתיות	-11392
▁אוטובוסים	-11393
▁בטכנולוגיה	-11394
RE	-11395
טק	-11396
alk	-11397
ung	-11398
באס	-11399
גיל	-11400
ופף	-11401
פוף	-11402
רטן	-11403
ream	-11404
אונת	-11405
ואלה	-11406
נוחה	-11407
ניון	-11408
▁600	-11409
▁com	-11410
▁אגם	-11411
▁וקר	-11412
▁כשם	-11413
▁לשר	-11414
▁מפק	-11415
▁עצב	-11416
▁צינ	-11417
▁שעי	-11418
ועידה	-11419
חונות	-11420
נועות	-11421
▁אימה	-11422
▁במרו	-11423
▁בעין	-11424
▁הכנס	-11425
▁הסבל	-11426
▁הרקע	-11427
▁השדה	-11428
▁יצרו	-11429
▁מחמד	-11430
▁מרים	-11431
▁נלחם	-11432
▁נמכר	-11433
▁ערכי	-11434
פעילות	-11435
▁אמזון	-11436
▁ביכול	-11437
▁ביקשה	-11438
▁דרישה	-11439
▁החלון	-11440
▁המחנה	-11441
▁הסתכל	-11442
▁העונש	-11443
▁הציור	-11444
▁ויאמר	-11445
▁ופחות	-11446
▁לדיון	-11447
▁ללחוץ	-11448
▁מוצאת	-11449
▁מורשת	-11450
▁מסעדה	-11451
▁עיוור	-11452
▁שורות	-11453
▁שיוכל	-11454
▁בהתאמה	-11455
▁המדריך	-11456
▁המוזיק	-11457
▁הסמכות	-11458
▁השוואה	-11459
▁השחורה	-11460
▁התרגום	-11461
▁והייתי	-11462
▁ולהפוך	-11463
▁מכתבים	-11464
▁מפורסם	-11465
▁מפתחים	-11466
▁אוסטריה	-11467
▁החשובות	-11468
▁השותפים	-11469
▁עיקריים	-11470
▁תשלומים	-11471
▁לשירותים	-11472
▁המאפיינים	-11473
DF	-11474
▁🙂	-11475
-28	-11476
-31	-11477
amp	-11478
uro	-11479
וים	-11480
חלק	-11481
נאו	-11482
ניש	-11483
▁37	-11484
▁Of	-11485
▁al	-11486
גיית	-11487
מוספ	-11488
מעונ	-11489
רופה	-11490
שפעה	-11491
▁20%	-11492
▁Car	-11493
▁Dis	-11494
▁גרג	-11495
▁הגא	-11496
▁יכל	-11497
▁פוח	-11498
▁פוש	-11499
▁קים	-11500
▁שים	-11501
ודעים	-11502
וונית	-11503
ויבים	-11504
ליטות	-11505
▁Park	-11506
▁בחום	-11507
▁בעול	-11508
▁גרמו	-11509
▁הגיב	-11510
▁הודה	-11511
▁הכלא	-11512
▁הכרת	-11513
▁הממו	-11514
▁הסוג	-11515
▁חושש	-11516
▁חמצן	-11517
▁לעין	-11518
▁מונט	-11519
▁מייל	-11520
▁מכנה	-11521
▁מעיד	-11522
▁מריח	-11523
▁משלך	-11524
▁ניצח	-11525
▁פטרי	-11526
▁שותה	-11527
▁שיום	-11528
▁שכזו	-11529
▁איבדו	-11530
▁גרועה	-11531
▁הדדית	-11532
▁הערכת	-11533
▁הצבעה	-11534
▁הקפיט	-11535
▁זמינה	-11536
▁כולכם	-11537
▁למדוד	-11538
▁לנשום	-11539
▁לפועל	-11540
▁מטורף	-11541
▁משמשת	-11542
▁פגשתי	-11543
▁שכמעט	-11544
▁שעומד	-11545
▁תכלית	-11546
ליפינים	-11547
▁Street	-11548
▁בנימין	-11549
▁בפעולה	-11550
▁בשבילו	-11551
▁בתקווה	-11552
▁הבסיסי	-11553
▁הובילו	-11554
▁המהירה	-11555
▁המלוכה	-11556
▁לבניית	-11557
▁לחברים	-11558
▁מודלים	-11559
▁מתחילת	-11560
▁פרופיל	-11561
▁קיבלנו	-11562
▁תופסים	-11563
▁הנוכחות	-11564
▁להתחרות	-11565
▁מבטיחים	-11566
▁מינימום	-11567
▁מיליונים	-11568
▁הטמפרטורה	-11569
ַד	-11570
עץ	-11571
-1,	-11572
-29	-11573
ומס	-11574
נזי	-11575
פנה	-11576
צצה	-11577
רשם	-11578
שרו	-11579
▁Pe	-11580
▁יִ	-11581
play	-11582
גלגל	-11583
גשוג	-11584
דורה	-11585
דשות	-11586
וזמה	-11587
וכנן	-11588
וקרט	-11589
ליית	-11590
פיעו	-11591
ראמפ	-11592
▁בקו	-11593
▁זוע	-11594
▁מסד	-11595
▁סקי	-11596
▁פעל	-11597
▁שבל	-11598
▁שעד	-11599
▁תיר	-11600
ystem	-11601
דקנות	-11602
וקרים	-11603
חקנים	-11604
נדסים	-11605
נועים	-11606
פושים	-11607
פיפות	-11608
קולטה	-11609
ראיות	-11610
▁גמור	-11611
▁המית	-11612
▁הרדי	-11613
▁חלקה	-11614
▁ימות	-11615
▁יצור	-11616
▁כיסא	-11617
▁כנסת	-11618
▁לבדה	-11619
▁לבתי	-11620
▁להיק	-11621
▁לצבא	-11622
▁לקשר	-11623
▁מבחר	-11624
▁מדוכ	-11625
▁מובה	-11626
▁מערך	-11627
▁מרתק	-11628
▁נתנה	-11629
▁שגוי	-11630
▁תביא	-11631
▁באביב	-11632
▁בטחון	-11633
▁המפרץ	-11634
▁הרחוק	-11635
▁יציבה	-11636
▁לאיזה	-11637
▁להיפך	-11638
▁להציב	-11639
▁לכבוש	-11640
▁לשטוף	-11641
▁נשארה	-11642
▁סיבוב	-11643
▁סינית	-11644
▁עלייך	-11645
▁קריאת	-11646
▁שהתרח	-11647
טיסטיקה	-11648
▁בזמנים	-11649
▁הארוחה	-11650
▁הגדרות	-11651
▁הדירות	-11652
▁הנוחות	-11653
▁הנכסים	-11654
▁הראיות	-11655
▁וישראל	-11656
▁חוויית	-11657
▁שהחברה	-11658
▁בסיסיים	-11659
▁ומשמעות	-11660
▁מדיטציה	-11661
▁מזמינים	-11662
▁טכנולוגית	-11663
▁משמעותיות	-11664
BI	-11665
ats	-11666
ina	-11667
ohn	-11668
קוף	-11669
קרר	-11670
רחה	-11671
שיה	-11672
▁Sw	-11673
▁צב	-11674
ילון	-11675
לכתי	-11676
שהות	-11677
▁בגר	-11678
▁הוו	-11679
▁וסט	-11680
▁וקט	-11681
▁לאס	-11682
▁מפח	-11683
▁מרע	-11684
▁קפד	-11685
▁שמפ	-11686
press	-11687
גובות	-11688
ירותי	-11689
▁Play	-11690
▁אצלו	-11691
▁באופ	-11692
▁דפוס	-11693
▁הכבד	-11694
▁הספק	-11695
▁הרמה	-11696
▁ושות	-11697
▁טוני	-11698
▁כאדם	-11699
▁מהמע	-11700
▁מהמת	-11701
▁מוצג	-11702
▁עודף	-11703
▁שהחל	-11704
▁הברזל	-11705
▁הגדרה	-11706
▁העניק	-11707
▁העשיר	-11708
▁הקיסר	-11709
▁הקשים	-11710
▁וחוסר	-11711
▁וחשוב	-11712
▁להביט	-11713
▁לחזות	-11714
▁לתחנת	-11715
▁מהותי	-11716
▁מכולם	-11717
▁נושאת	-11718
▁נעשים	-11719
▁עבדתי	-11720
▁רכישה	-11721
▁שבדרך	-11722
▁שייכת	-11723
▁שנעשו	-11724
▁תחשבו	-11725
▁תישאר	-11726
וניינים	-11727
▁האופרה	-11728
▁הכריזה	-11729
▁הקורבן	-11730
▁זמינות	-11731
▁חוקיים	-11732
▁עסקיות	-11733
▁אוניברס	-11734
▁גירושין	-11735
▁הקדושים	-11736
▁טלפונים	-11737
▁לקבוצות	-11738
▁מתרחשים	-11739
▁קטגוריה	-11740
▁ראשונים	-11741
▁האופניים	-11742
▁המרכזיים	-11743
▁התיאוריה	-11744
35	-11745
ַב	-11746
רר	-11747
-26	-11748
ism	-11749
בדי	-11750
וכו	-11751
משק	-11752
נזה	-11753
נתח	-11754
קיה	-11755
ריף	-11756
▁4:	-11757
▁9.	-11758
▁גמ	-11759
▁סה	-11760
▁עג	-11761
▁רמ	-11762
ater	-11763
ives	-11764
vent	-11765
בילת	-11766
הספר	-11767
מלכת	-11768
▁אקו	-11769
▁הפח	-11770
▁וגר	-11771
▁חוו	-11772
▁לאה	-11773
▁נאס	-11774
▁נלה	-11775
▁קוט	-11776
▁תמצ	-11777
פעלים	-11778
שתיות	-11779
▁אפוא	-11780
▁בהור	-11781
▁בספק	-11782
▁הגעת	-11783
▁החור	-11784
▁החזר	-11785
▁הכיר	-11786
▁המדו	-11787
▁הצגת	-11788
▁ואיש	-11789
▁ובתי	-11790
▁והור	-11791
▁להית	-11792
▁מאבד	-11793
▁מעצר	-11794
▁עשרת	-11795
▁צרות	-11796
▁תוקף	-11797
▁תשכח	-11798
▁2010,	-11799
▁2014.	-11800
▁2015.	-11801
▁הדתות	-11802
▁המהלך	-11803
▁הסורי	-11804
▁הצהיר	-11805
▁חפצים	-11806
▁לדעתך	-11807
▁למאבק	-11808
▁מוסרי	-11809
▁מזמין	-11810
▁משאיר	-11811
▁מתגלה	-11812
▁ניכרת	-11813
▁נמצאה	-11814
▁נמשכת	-11815
▁נשלחו	-11816
▁תביעה	-11817
▁Online	-11818
▁Rights	-11819
▁אצבעות	-11820
▁בקבוצת	-11821
▁היבטים	-11822
▁התקבלה	-11823
▁ומעולם	-11824
▁לתינוק	-11825
▁מבטיחה	-11826
▁מהאוכל	-11827
▁מטפלים	-11828
▁משוכנע	-11829
▁נדירים	-11830
▁נקראים	-11831
▁שאחרים	-11832
▁אמריקני	-11833
▁בחנויות	-11834
▁האמצעים	-11835
▁להתבונן	-11836
▁לאירועים	-11837
▁הפילוסופיה	-11838
'?	-11839
-'	-11840
AD	-11841
vi	-11842
').	-11843
oud	-11844
אמא	-11845
טני	-11846
ימי	-11847
פסי	-11848
רכש	-11849
▁39	-11850
▁Gu	-11851
אהבו	-11852
אושר	-11853
יחסת	-11854
ילוץ	-11855
צצות	-11856
קופה	-11857
▁120	-11858
▁Web	-11859
▁דגם	-11860
▁ולט	-11861
▁כמא	-11862
▁מקס	-11863
▁שתש	-11864
▁תקן	-11865
חידות	-11866
עכשיו	-11867
▁אדון	-11868
▁אוצר	-11869
▁ארצה	-11870
▁בבנק	-11871
▁ההלו	-11872
▁הימנ	-11873
▁הפסק	-11874
▁הקצב	-11875
▁ובדי	-11876
▁והמת	-11877
▁והרו	-11878
▁וקור	-11879
▁מותג	-11880
▁מטבח	-11881
▁מפרי	-11882
▁מרוב	-11883
▁מריה	-11884
▁שזהו	-11885
ations	-11886
סיונות	-11887
▁האלים	-11888
▁הבלוג	-11889
▁המדעי	-11890
▁העומד	-11891
▁טוענת	-11892
▁כשהיה	-11893
▁לפרוש	-11894
▁מדווח	-11895
▁מכנים	-11896
▁מפעיל	-11897
▁נדרשת	-11898
▁נפלאה	-11899
▁רציונ	-11900
▁שינתה	-11901
▁שממנו	-11902
▁שנולד	-11903
▁שנכנס	-11904
▁תקבלו	-11905
▁תשאלו	-11906
▁באיחוד	-11907
▁בשלושה	-11908
▁הוציאה	-11909
▁הידיעה	-11910
▁הישנים	-11911
▁הכרטיס	-11912
▁המתקפה	-11913
▁העוצמה	-11914
▁הצלחנו	-11915
▁ולהבין	-11916
▁כוונות	-11917
▁להתערב	-11918
▁לשיתוף	-11919
▁מגיעות	-11920
▁סיפורי	-11921
▁תחרותי	-11922
▁בשבועות	-11923
▁דיגיטלי	-11924
▁הבוגרים	-11925
▁היעילות	-11926
▁הסובלים	-11927
▁הקהילות	-11928
▁הרוחנית	-11929
▁משפחתית	-11930
▁המשקיעים	-11931
▁מודרניים	-11932
▁מלאכותית	-11933
▁היסטוריים	-11934
▁בינלאומיות	-11935
Sc	-11936
ְמ	-11937
ָב	-11938
בנ	-11939
▁←	-11940
any	-11941
ארס	-11942
הכל	-11943
וצי	-11944
לֹה	-11945
נוא	-11946
ריי	-11947
alth	-11948
ount	-11949
צינו	-11950
שביל	-11951
▁ברע	-11952
▁העכ	-11953
▁ולפ	-11954
▁זרע	-11955
▁סור	-11956
▁עמה	-11957
▁עצר	-11958
▁שגו	-11959
▁שהד	-11960
▁שיפ	-11961
earch	-11962
ועדות	-11963
טדיון	-11964
מטרים	-11965
מניים	-11966
נחיות	-11967
▁בירת	-11968
▁דרכה	-11969
▁העלה	-11970
▁הפרת	-11971
▁וליה	-11972
▁ורוב	-11973
▁יפות	-11974
▁לבשל	-11975
▁לערב	-11976
▁מכני	-11977
▁מרשם	-11978
▁סוכן	-11979
▁שבית	-11980
▁שמצא	-11981
▁שרון	-11982
רמוניה	-11983
▁אקלים	-11984
▁בשיטה	-11985
▁דיסני	-11986
▁האומץ	-11987
▁האיים	-11988
▁המייס	-11989
▁המעמד	-11990
▁הצהרת	-11991
▁הקונס	-11992
▁השיבה	-11993
▁השתתף	-11994
▁לאוכל	-11995
▁לצמוח	-11996
▁לשבוע	-11997
▁מיכאל	-11998
▁מכוסה	-11999
▁מנועי	-12000
▁נכנסה	-12001
▁סטיבן	-12002
▁רוצות	-12003
▁רצינו	-12004
▁שיקום	-12005
▁שעלול	-12006
▁אומנות	-12007
▁באתרים	-12008
▁בגודלה	-12009
▁בילדות	-12010
▁הובילה	-12011
▁השיעור	-12012
▁וחברות	-12013
▁חדשנות	-12014
▁כביכול	-12015
▁כוללות	-12016
▁להימשך	-12017
▁להתנהג	-12018
▁לירידה	-12019
▁מחזיקה	-12020
▁מסקנות	-12021
▁ספרדית	-12022
▁רגישים	-12023
▁רשמיים	-12024
▁שנועדו	-12025
▁תסמונת	-12026
▁בתולדות	-12027
▁העומדים	-12028
▁מהמקרים	-12029
▁ספציפית	-12030
▁אסטרטגית	-12031
▁הפעילויות	-12032
▁פסיכולוגי	-12033
33	-12034
ִם	-12035
בם	-12036
oll	-12037
oup	-12038
בקש	-12039
עיר	-12040
תית	-12041
▁(6	-12042
▁1)	-12043
▁65	-12044
▁AD	-12045
▁IT	-12046
▁ne	-12047
▁קנ	-12048
ated	-12049
אחרי	-12050
ודשי	-12051
ילוי	-12052
נדית	-12053
קבוק	-12054
קטים	-12055
רשמה	-12056
▁(18	-12057
▁Net	-12058
▁Par	-12059
▁יער	-12060
▁לור	-12061
▁מנע	-12062
▁נדל	-12063
▁סלי	-12064
▁עצי	-12065
▁פרד	-12066
▁שנס	-12067
חיתות	-12068
כורות	-12069
▁(198	-12070
▁במשק	-12071
▁בעור	-12072
▁דחוף	-12073
▁הארג	-12074
▁הבור	-12075
▁הדתי	-12076
▁הנשי	-12077
▁טייס	-12078
▁יראו	-12079
▁לבנה	-12080
▁מוצק	-12081
▁מסים	-12082
▁קפטן	-12083
▁שאחד	-12084
בראשית	-12085
▁אכילת	-12086
▁ארתור	-12087
▁בליגה	-12088
▁המדבר	-12089
▁הצדקה	-12090
▁התחנה	-12091
▁וכמעט	-12092
▁חסרים	-12093
▁יציאה	-12094
▁ללקוח	-12095
▁למסור	-12096
▁לפספס	-12097
▁ממרכז	-12098
▁מניעה	-12099
▁נכנסת	-12100
▁נעלמה	-12101
▁סופית	-12102
▁ציינו	-12103
▁צרכים	-12104
▁רוחות	-12105
▁שאליו	-12106
▁שחורה	-12107
▁שלמות	-12108
▁במקצוע	-12109
▁האינדי	-12110
▁הארוכה	-12111
▁המחזור	-12112
▁הנאצית	-12113
▁הצביעו	-12114
▁וירטוא	-12115
▁וליצור	-12116
▁חילופי	-12117
▁טיולים	-12118
▁להשמיד	-12119
▁להתבצע	-12120
▁להתקרב	-12121
▁לשחרור	-12122
▁מעניקה	-12123
▁מציגים	-12124
▁נציגים	-12125
▁שונאים	-12126
▁תאונות	-12127
▁תחושות	-12128
▁בדרישות	-12129
▁בזכויות	-12130
▁ההכנסות	-12131
▁המאפשרת	-12132
▁המחקרים	-12133
▁העשירים	-12134
▁התערבות	-12135
▁מאפשרות	-12136
▁מתרגלים	-12137
▁רפואיות	-12138
▁בהתפתחות	-12139
▁דיגיטלית	-12140
▁המקצועית	-12141
▁סטרואידים	-12142
ft	-12143
:30	-12144
cel	-12145
אנה	-12146
ויס	-12147
חקן	-12148
חרט	-12149
טוי	-12150
כבה	-12151
מסע	-12152
נגל	-12153
עשר	-12154
פתו	-12155
גענו	-12156
דורי	-12157
ודור	-12158
וזרת	-12159
ונתו	-12160
וסקר	-12161
▁Mac	-12162
▁בפס	-12163
▁הָא	-12164
▁חשד	-12165
▁כוא	-12166
▁נחר	-12167
▁נמר	-12168
בילות	-12169
זונות	-12170
חידים	-12171
צלונה	-12172
▁1990	-12173
▁Word	-12174
▁אייר	-12175
▁במוש	-12176
▁בענף	-12177
▁בשאר	-12178
▁דפים	-12179
▁הדוח	-12180
▁הנוף	-12181
▁השול	-12182
▁השור	-12183
▁ידיו	-12184
▁לממן	-12185
▁לנתח	-12186
▁מפסי	-12187
▁משקה	-12188
▁ננסה	-12189
▁נתיב	-12190
▁עוזב	-12191
▁עותק	-12192
▁שמרו	-12193
▁אחותי	-12194
▁בבטחה	-12195
▁בעצמה	-12196
▁גרמני	-12197
▁האופי	-12198
▁הדתית	-12199
▁החייל	-12200
▁הטעות	-12201
▁העלאת	-12202
▁הרחבה	-12203
▁השתנו	-12204
▁ואפשר	-12205
▁חלוקת	-12206
▁יהפכו	-12207
▁יחידת	-12208
▁מאוכל	-12209
▁מונית	-12210
▁מסתיי	-12211
▁נפצעו	-12212
▁נשארת	-12213
▁קיומה	-12214
▁שגורם	-12215
▁שנותר	-12216
▁דרושים	-12217
▁האתרים	-12218
▁המבנים	-12219
▁העלילה	-12220
▁התיקון	-12221
▁חבילות	-12222
▁להאכיל	-12223
▁להרגיע	-12224
▁מוסקבה	-12225
▁שהחיים	-12226
▁בביטחון	-12227
▁האותיות	-12228
▁הצרפתים	-12229
▁הקיצוני	-12230
▁כישורים	-12231
▁המפורסמת	-12232
▁העניינים	-12233
TA	-12234
[[	-12235
ְא	-12236
-1.	-12237
ict	-12238
obe	-12239
yle	-12240
גרף	-12241
דתם	-12242
ממש	-12243
נדט	-12244
נוח	-12245
קרא	-12246
▁Co	-12247
▁Ro	-12248
ough	-12249
בקשת	-12250
ופין	-12251
רחבה	-12252
▁אסד	-12253
▁אתך	-12254
▁ואמ	-12255
▁חלש	-12256
▁כנה	-12257
▁סלב	-12258
▁פלו	-12259
▁צלם	-12260
▁תרכ	-12261
ייבות	-12262
▁(197	-12263
▁אלוף	-12264
▁אפקט	-12265
▁בחופ	-12266
▁ביתי	-12267
▁במתח	-12268
▁גיוס	-12269
▁הרעב	-12270
▁ואלו	-12271
▁והפך	-12272
▁לאמא	-12273
▁מכבי	-12274
▁מצבו	-12275
▁מתפל	-12276
▁נחוץ	-12277
▁נתתי	-12278
▁עומק	-12279
▁קולה	-12280
▁קולי	-12281
▁רומן	-12282
▁רוסי	-12283
▁ריצה	-12284
▁רשום	-12285
▁שוטר	-12286
▁שמנה	-12287
▁אוביי	-12288
▁בחוסר	-12289
▁בצוות	-12290
▁בראון	-12291
▁הכוכב	-12292
▁המשול	-12293
▁השלמת	-12294
▁יצאתי	-12295
▁כמוהו	-12296
▁לחלום	-12297
▁לטיול	-12298
▁למשפט	-12299
▁לתרגם	-12300
▁מאיים	-12301
▁מתקשה	-12302
▁עניים	-12303
▁פיצוי	-12304
▁פלשתי	-12305
▁צפייה	-12306
▁רחוקה	-12307
▁שנשים	-12308
▁תומאס	-12309
▁במפורש	-12310
▁הולדתו	-12311
▁המדעית	-12312
▁הסרטון	-12313
▁הפגיעה	-12314
▁הקיימת	-12315
▁כמדינה	-12316
▁מסויים	-12317
▁מעורבת	-12318
▁מתעורר	-12319
מפרטורות	-12320
▁האהובים	-12321
▁הימורים	-12322
▁המדענים	-12323
▁הקודמות	-12324
▁ושומרון	-12325
▁יהלומים	-12326
▁מודאגים	-12327
▁משפטיים	-12328
▁מתמקדים	-12329
▁סוציאלי	-12330
▁תכשיטים	-12331
▁הראשונית	-12332
▁אוניברסיטאות	-12333
PC	-12334
[3	-12335
fl	-12336
טש	-12337
300	-12338
App	-12339
זיכ	-12340
טחי	-12341
לפי	-12342
פרש	-12343
קהל	-12344
קרן	-12345
▁Im	-12346
▁מ־	-12347
-400	-12348
ומרה	-12349
זהיר	-12350
חנים	-12351
חתים	-12352
יהאד	-12353
יעדר	-12354
מיכת	-12355
רכיו	-12356
▁180	-12357
▁Pay	-12358
▁בחת	-12359
▁גמר	-12360
▁כבע	-12361
▁מיר	-12362
▁ענו	-12363
ולציה	-12364
פלגות	-12365
▁איטי	-12366
▁הכרו	-12367
▁המרת	-12368
▁הסמו	-12369
▁התקף	-12370
▁ואוה	-12371
▁וגאס	-12372
▁ירצה	-12373
▁כועס	-12374
▁לכול	-12375
▁לנחש	-12376
▁לעבד	-12377
▁לפיה	-12378
▁לפרט	-12379
▁לשקר	-12380
▁מוגן	-12381
▁מלאי	-12382
▁מעוצ	-12383
▁פינה	-12384
▁פריט	-12385
▁צווא	-12386
▁שהוז	-12387
▁שולט	-12388
▁תופס	-12389
Google	-12390
טוריון	-12391
▁2009.	-12392
▁בסדרת	-12393
▁בעודו	-12394
▁הגברת	-12395
▁הוחלט	-12396
▁הופעה	-12397
▁המבחן	-12398
▁המעשה	-12399
▁הקובץ	-12400
▁יגידו	-12401
▁לביתו	-12402
▁לקחתי	-12403
▁מוזרה	-12404
▁מוכיח	-12405
▁מפריע	-12406
▁מתבצע	-12407
▁נאלצו	-12408
▁נובעת	-12409
▁נערכו	-12410
▁פוטין	-12411
▁פסולת	-12412
▁צדדים	-12413
▁ריקוד	-12414
▁רעידת	-12415
▁שכחתי	-12416
▁אליפות	-12417
▁במסלול	-12418
▁השיטות	-12419
▁התעורר	-12420
▁חוששים	-12421
▁ישויות	-12422
▁כישורי	-12423
▁כתובות	-12424
▁להפריד	-12425
▁למדינת	-12426
▁למצרים	-12427
▁מהמקום	-12428
▁עוגיות	-12429
▁צפויות	-12430
▁שיעזרו	-12431
▁תרבותי	-12432
▁במועדון	-12433
▁האסירים	-12434
▁ההיבטים	-12435
▁ולעיתים	-12436
▁קילומטר	-12437
▁שהמדינה	-12438
▁באוטובוס	-12439
▁המכשירים	-12440
▁התחייבות	-12441
▁ספציפיות	-12442
▁בקליפורניה	-12443
RC	-12444
RO	-12445
Pal	-12446
וקק	-12447
לתו	-12448
▁No	-12449
▁טס	-12450
זרחי	-12451
טיזם	-12452
ניקו	-12453
סיבת	-12454
סקופ	-12455
עדית	-12456
פויה	-12457
פלגת	-12458
קרקע	-12459
▁Ind	-12460
▁בחל	-12461
▁הבד	-12462
▁חמצ	-12463
▁נסע	-12464
▁פגע	-12465
▁צחק	-12466
▁קצי	-12467
▁רוג	-12468
▁שאה	-12469
▁שחל	-12470
▁שכח	-12471
▁שנצ	-12472
▁ששר	-12473
▁תסת	-12474
ירלנד	-12475
עימים	-12476
פליקט	-12477
▁בינה	-12478
▁בנמל	-12479
▁היבט	-12480
▁המהפ	-12481
▁המני	-12482
▁המרק	-12483
▁המתי	-12484
▁למשא	-12485
▁לנסי	-12486
▁לשון	-12487
▁מגיב	-12488
▁מהמי	-12489
▁מכמה	-12490
▁נשמח	-12491
▁סלול	-12492
▁צדקה	-12493
▁קבלו	-12494
▁רעות	-12495
▁1,000	-12496
▁2012.	-12497
▁אדירה	-12498
▁איבדה	-12499
▁אכיפת	-12500
▁באסיה	-12501
▁בישול	-12502
▁הבינה	-12503
▁ההנחה	-12504
▁החזקה	-12505
▁היותו	-12506
▁הכמות	-12507
▁הכרתי	-12508
▁התאמה	-12509
▁ואהבה	-12510
▁יעבוד	-12511
▁לחברת	-12512
▁לרמות	-12513
▁מוסמך	-12514
▁מזהים	-12515
▁מחקרי	-12516
▁מיותר	-12517
▁מציאת	-12518
▁מקושר	-12519
▁מקסים	-12520
▁נפגשו	-12521
▁פרסים	-12522
▁קלאסי	-12523
▁שחיים	-12524
▁תאגיד	-12525
▁תחליף	-12526
לטפורמה	-12527
▁בעבודת	-12528
▁בשליטה	-12529
▁היישום	-12530
▁המינית	-12531
▁הצילום	-12532
▁השילוב	-12533
▁להפריע	-12534
▁להריון	-12535
▁למחלות	-12536
▁עמוקות	-12537
▁שעכשיו	-12538
▁תהליכי	-12539
▁תכופות	-12540
▁המאוחדת	-12541
▁הממצאים	-12542
▁הנכונים	-12543
▁יהודיות	-12544
▁סובלנות	-12545
▁שאוהבים	-12546
▁הלאומיים	-12547
▁הנישואים	-12548
▁קולומביה	-12549
/0	-12550
ְנ	-12551
ֵר	-12552
▁‬	-12553
וכס	-12554
▁Em	-12555
▁We	-12556
ייבת	-12557
יניה	-12558
כייה	-12559
תיקה	-12560
▁גלק	-12561
▁דחי	-12562
▁דרק	-12563
▁הגג	-12564
▁הנש	-12565
▁הקס	-12566
▁חרב	-12567
▁טופ	-12568
▁טרג	-12569
▁לכה	-12570
▁לפל	-12571
▁לקו	-12572
▁מזע	-12573
▁מיס	-12574
▁נספ	-12575
▁סני	-12576
▁עמם	-12577
▁רכש	-12578
▁שחש	-12579
aster	-12580
ebook	-12581
וצאים	-12582
טוקול	-12583
▁1995	-12584
▁אומה	-12585
▁אליס	-12586
▁בגור	-12587
▁גופו	-12588
▁הביע	-12589
▁הישג	-12590
▁הניצ	-12591
▁הפשע	-12592
▁השכי	-12593
▁וגדל	-12594
▁וחדש	-12595
▁טעים	-12596
▁יצרה	-12597
▁מכול	-12598
▁מסרב	-12599
▁מרפא	-12600
▁נפצע	-12601
▁קייט	-12602
▁שגרם	-12603
▁שעלי	-12604
▁2013.	-12605
▁2017.	-12606
▁אינטר	-12607
▁אמהות	-12608
▁באורח	-12609
▁הדומי	-12610
▁ההצגה	-12611
▁הומור	-12612
▁הסלול	-12613
▁ייצוג	-12614
▁ילדכם	-12615
▁לחברי	-12616
▁ליווי	-12617
▁לעדכן	-12618
▁מאותה	-12619
▁מאירו	-12620
▁מהמאה	-12621
▁משלוש	-12622
▁משנים	-12623
▁מתנגד	-12624
▁נרצחו	-12625
▁רשאים	-12626
▁שנועד	-12627
▁תגידו	-12628
▁אותיות	-12629
▁ביקשתי	-12630
▁בשבילם	-12631
▁האחראי	-12632
▁ההרגשה	-12633
▁הזמנות	-12634
▁החדרים	-12635
▁המועמד	-12636
▁הערכות	-12637
▁השכונה	-12638
▁כישרון	-12639
▁להיזכר	-12640
▁להכריז	-12641
▁להמליץ	-12642
▁לסיפור	-12643
▁מאבדים	-12644
▁מגיבים	-12645
▁מפלגות	-12646
▁נפוצות	-12647
▁עבירות	-12648
▁קודמות	-12649
▁שואפים	-12650
▁תעסוקה	-12651
▁גלובלית	-12652
▁הבטיחות	-12653
▁הרגילים	-12654
▁הרפואית	-12655
▁לאומיים	-12656
▁מחליטים	-12657
▁פלסטיני	-12658
▁בתוכניות	-12659
▁הבסיסיים	-12660
▁הגלובלית	-12661
▁הנוכחיים	-12662
▁פיננסיים	-12663
▁רלוונטיים	-12664
.,	-12665
27	-12666
EL	-12667
IA	-12668
IM	-12669
ֶל	-12670
con	-12671
זרי	-12672
ילב	-12673
כחת	-12674
ניר	-12675
▁Sm	-12676
▁כצ	-12677
ארלס	-12678
בינה	-12679
גדות	-12680
ורין	-12681
ינום	-12682
נועי	-12683
פתחה	-12684
צמות	-12685
▁אזי	-12686
▁ארד	-12687
▁בנא	-12688
▁דון	-12689
▁ודא	-12690
▁מסמ	-12691
▁ניש	-12692
▁עיס	-12693
▁ענף	-12694
▁שבק	-12695
גידים	-12696
דיקים	-12697
ובנים	-12698
וערים	-12699
מישהו	-12700
סטרדם	-12701
▁אווי	-12702
▁האני	-12703
▁הנדל	-12704
▁הנער	-12705
▁והמי	-12706
▁ולמצ	-12707
▁לטבע	-12708
▁לפיו	-12709
▁לקונ	-12710
▁מכרי	-12711
▁מעצמ	-12712
▁שמעו	-12713
▁שעבד	-12714
▁2010.	-12715
▁באורך	-12716
▁בריטי	-12717
▁הוריה	-12718
▁היועץ	-12719
▁הניתן	-12720
▁העברי	-12721
▁העוני	-12722
▁השומן	-12723
▁והיום	-12724
▁ולשפר	-12725
▁יהדות	-12726
▁יסודי	-12727
▁יקרות	-12728
▁למחשב	-12729
▁מחנות	-12730
▁מספרי	-12731
▁סיכום	-12732
▁סיפרו	-12733
▁עושות	-12734
▁עימות	-12735
▁עיקרי	-12736
▁ריבית	-12737
▁שנבנה	-12738
▁תחזור	-12739
▁תפקוד	-12740
וקראינה	-12741
▁בכניסה	-12742
▁בפגישה	-12743
▁בתנועה	-12744
▁גרסאות	-12745
▁האימון	-12746
▁הדמיון	-12747
▁המכללה	-12748
▁התאריך	-12749
▁וללמוד	-12750
▁ומקצוע	-12751
▁ושימוש	-12752
▁יכולנו	-12753
▁לנקודה	-12754
▁מסתיים	-12755
▁משפטים	-12756
▁רשימות	-12757
▁שנערכו	-12758
▁בקבוצות	-12759
▁הבדיקות	-12760
▁המטוסים	-12761
▁המשמשים	-12762
▁התקיימה	-12763
▁לאנושות	-12764
▁מבוססים	-12765
▁מוציאים	-12766
▁פנימיים	-12767
▁ממשלתיים	-12768
▁מפורסמים	-12769
44	-12770
IF	-12771
app	-12772
ica	-12773
lin	-12774
vis	-12775
אבא	-12776
מאן	-12777
נגו	-12778
רוּ	-12779
רתה	-12780
▁חצ	-12781
וויל	-12782
וכחה	-12783
ונתן	-12784
חורי	-12785
קבלה	-12786
▁185	-12787
▁187	-12788
▁בשא	-12789
▁וַי	-12790
▁וחר	-12791
▁לשק	-12792
▁פרץ	-12793
▁צער	-12794
▁קנו	-12795
▁שמכ	-12796
arket	-12797
סקנות	-12798
תהליך	-12799
▁אימפ	-12800
▁אללה	-12801
▁בולט	-12802
▁האכז	-12803
▁הטרא	-12804
▁ולמש	-12805
▁ותיק	-12806
▁חניה	-12807
▁ליטר	-12808
▁לשעה	-12809
▁מצטר	-12810
▁עוצר	-12811
▁פניה	-12812
▁צליל	-12813
▁שייק	-12814
▁תוצר	-12815
▁2018,	-12816
▁בביתו	-12817
▁במבנה	-12818
▁גאווה	-12819
▁הביטח	-12820
▁הגדרת	-12821
▁הדאפא	-12822
▁המסים	-12823
▁העזרה	-12824
▁הפרשה	-12825
▁השנאה	-12826
▁ואינם	-12827
▁ואמרה	-12828
▁חקיקה	-12829
▁יבואו	-12830
▁להאיץ	-12831
▁להכות	-12832
▁לחתוך	-12833
▁לציית	-12834
▁מלוכל	-12835
▁מפסיק	-12836
▁מתמקד	-12837
▁נבחרת	-12838
▁קזינו	-12839
▁שהיום	-12840
▁שותים	-12841
▁שיקרה	-12842
▁שעליה	-12843
▁שפשוט	-12844
▁תלונה	-12845
▁תענוג	-12846
▁במזומן	-12847
▁בסיסית	-12848
▁בקפידה	-12849
▁היציאה	-12850
▁המוחלט	-12851
▁הפאלון	-12852
▁השביעי	-12853
▁השחרור	-12854
▁השיפוט	-12855
▁ואיכות	-12856
▁חמושים	-12857
▁להורדה	-12858
▁להתרכז	-12859
▁לעכשיו	-12860
▁לשלושה	-12861
▁מדויקת	-12862
▁מסחרית	-12863
▁סיפורו	-12864
▁סעודיה	-12865
▁פגישות	-12866
▁ברצלונה	-12867
▁האזרחית	-12868
▁המדרגות	-12869
▁המתאימה	-12870
▁העסקיים	-12871
▁וליהנות	-12872
▁חיוביים	-12873
▁מהדברים	-12874
▁עצמאיים	-12875
▁אינטרסים	-12876
▁הפייסבוק	-12877
▁התמודדות	-12878
▁הפוליטיקה	-12879
▁אינטראקציה	-12880
▁הפופולריים	-12881
OE	-12882
Sh	-12883
הד	-12884
נְ	-12885
’,	-12886
."[	-12887
NBA	-12888
enn	-12889
rit	-12890
מאה	-12891
נצי	-12892
קיי	-12893
רער	-12894
▁5,	-12895
▁HD	-12896
▁or	-12897
▁סף	-12898
Tube	-12899
ject	-12900
בועה	-12901
זורי	-12902
זמות	-12903
נטוש	-12904
שקעה	-12905
▁800	-12906
▁אמש	-12907
▁בסן	-12908
▁ההכ	-12909
▁ילך	-12910
▁נכל	-12911
▁סגל	-12912
▁ספו	-12913
בחנים	-12914
גועים	-12915
וברים	-12916
וכנים	-12917
ליחות	-12918
▁1998	-12919
▁אריה	-12920
▁בגופ	-12921
▁בנוי	-12922
▁בנשק	-12923
▁ההשת	-12924
▁המנכ	-12925
▁המתא	-12926
▁הנחש	-12927
▁הנמל	-12928
▁הפנט	-12929
▁חמלה	-12930
▁לרגל	-12931
▁מומל	-12932
▁מרגע	-12933
▁משטח	-12934
▁מתקן	-12935
▁נגיש	-12936
▁עסוק	-12937
▁פנוי	-12938
▁שלכל	-12939
▁תיבת	-12940
שלומים	-12941
▁2012,	-12942
▁2016,	-12943
▁איתכם	-12944
▁בארבע	-12945
▁בדיחה	-12946
▁ברכבת	-12947
▁בשמים	-12948
▁הגדלת	-12949
▁הוספת	-12950
▁החובה	-12951
▁החזית	-12952
▁היפים	-12953
▁העצום	-12954
▁השווא	-12955
▁השותף	-12956
▁חייכם	-12957
▁חיילי	-12958
▁חשבנו	-12959
▁כידוע	-12960
▁להיום	-12961
▁למזון	-12962
▁מאורג	-12963
▁מוגבר	-12964
▁מחויב	-12965
▁מניעת	-12966
▁פונים	-12967
▁שמעתם	-12968
▁בהצהרה	-12969
▁האמנתי	-12970
▁הבריאה	-12971
▁החושים	-12972
▁החלטנו	-12973
▁הישיבה	-12974
▁הקשיים	-12975
▁הריכוז	-12976
▁ילדינו	-12977
▁לאיראן	-12978
▁להיאבק	-12979
▁להפליא	-12980
▁מכשירי	-12981
▁משתמשי	-12982
▁עיריית	-12983
▁שעלינו	-12984
▁תערובת	-12985
▁באלימות	-12986
▁במשחקים	-12987
▁בנוכחות	-12988
▁האינטרס	-12989
▁ההרוגים	-12990
▁הפדרציה	-12991
▁הפסטיבל	-12992
▁הקיימות	-12993
▁והתרבות	-12994
▁תרבויות	-12995
▁האיראנית	-12996
▁המינימום	-12997
▁הקורבנות	-12998
▁קטגוריות	-12999
▁אוניברסיטה	-13000
TC	-13001
to	-13002
ֶת	-13003
ַמ	-13004
box	-13005
fer	-13006
ינר	-13007
כשה	-13008
▁2)	-13009
▁Tw	-13010
ames	-13011
ator	-13012
look	-13013
איון	-13014
וערת	-13015
חזרה	-13016
יתוי	-13017
כינו	-13018
פתעה	-13019
קדמה	-13020
רפאה	-13021
▁000	-13022
▁בהג	-13023
▁בצל	-13024
▁וגד	-13025
▁ייה	-13026
▁ממא	-13027
▁נדי	-13028
▁שעת	-13029
מסגרת	-13030
▁במגע	-13031
▁דיני	-13032
▁המשו	-13033
▁הקבר	-13034
▁השיא	-13035
▁וידע	-13036
▁כפות	-13037
▁לדור	-13038
▁לפסי	-13039
▁מיהו	-13040
▁מלאך	-13041
▁מסרה	-13042
▁נאום	-13043
▁נבנו	-13044
▁נופש	-13045
▁קשרי	-13046
▁שבחר	-13047
▁שהצי	-13048
▁שהרג	-13049
▁שיצר	-13050
יתונאי	-13051
▁אורות	-13052
▁במכון	-13053
▁גופות	-13054
▁המילי	-13055
▁ומעבר	-13056
▁כתבות	-13057
▁להנות	-13058
▁לשרוף	-13059
▁לתוקף	-13060
▁נדירה	-13061
▁צודקת	-13062
▁רכבים	-13063
▁שאותה	-13064
▁שלווה	-13065
▁שמקור	-13066
▁תאורה	-13067
▁תאפשר	-13068
▁תוספי	-13069
▁בהולנד	-13070
▁ביחסים	-13071
▁האזרחי	-13072
▁הטילים	-13073
▁המתכון	-13074
▁הנחיות	-13075
▁הפרחים	-13076
▁הרגילה	-13077
▁התרחשה	-13078
▁חוקיות	-13079
▁להמציא	-13080
▁מצויין	-13081
▁מצטערת	-13082
▁צעירות	-13083
▁קבועים	-13084
▁קנאביס	-13085
▁במוסקבה	-13086
▁בשבילנו	-13087
▁המובילה	-13088
▁המחשבים	-13089
▁ולהתחיל	-13090
▁מייצגים	-13091
▁הכלכליים	-13092
▁המוקדמות	-13093
▁המתאימים	-13094
▁הפוטנציא	-13095
▁סימפטומים	-13096
▁‫	-13097
dis	-13098
ram	-13099
דקק	-13100
ודם	-13101
יוך	-13102
כשל	-13103
לאו	-13104
לאס	-13105
לקח	-13106
סמו	-13107
פלו	-13108
קדם	-13109
קומ	-13110
שיט	-13111
▁42	-13112
▁סכ	-13113
גיים	-13114
יקוח	-13115
מתנה	-13116
סיפה	-13117
ריאה	-13118
רכשו	-13119
▁(3)	-13120
▁לגר	-13121
▁רמז	-13122
▁שמג	-13123
בישים	-13124
ודדים	-13125
ליפים	-13126
מישים	-13127
סוקים	-13128
▁בוחן	-13129
▁ברכת	-13130
▁דוחה	-13131
▁האגו	-13132
▁הוכח	-13133
▁החרי	-13134
▁המפק	-13135
▁הפיל	-13136
▁ובלי	-13137
▁חשבה	-13138
▁טקסס	-13139
▁לבוש	-13140
▁ליבה	-13141
▁מהסי	-13142
▁שביל	-13143
▁שהמא	-13144
▁שזכה	-13145
▁בדיון	-13146
▁בקצרה	-13147
▁ההסבר	-13148
▁הוועד	-13149
▁המבוק	-13150
▁המעצר	-13151
▁המפקד	-13152
▁הנדסה	-13153
▁הנקרא	-13154
▁הפחתת	-13155
▁הצהרה	-13156
▁השדרה	-13157
▁לכפות	-13158
▁נוצרה	-13159
▁פרסמה	-13160
▁רובנו	-13161
▁תעזור	-13162
▁אווירה	-13163
▁בלבנון	-13164
▁בפומבי	-13165
▁בשלבים	-13166
▁גרמנים	-13167
▁האנגלי	-13168
▁הגיבור	-13169
▁הישגים	-13170
▁המורשת	-13171
▁הסוגים	-13172
▁הפלנטה	-13173
▁הקברות	-13174
▁הראיון	-13175
▁הרשתות	-13176
▁השידור	-13177
▁וטיפול	-13178
▁חייבות	-13179
▁לכלכלה	-13180
▁מסכימה	-13181
▁מעצבים	-13182
▁עוזבים	-13183
▁שכתבתי	-13184
▁שעשינו	-13185
▁המושלמת	-13186
▁הנכונות	-13187
▁מדווחים	-13188
▁מוגבלים	-13189
▁מצוינות	-13190
▁מתנגדים	-13191
▁הכרטיסים	-13192
▁University	-13193
ux	-13194
600	-13195
ery	-13196
ual	-13197
ubl	-13198
עדי	-13199
קנו	-13200
ange	-13201
בואו	-13202
גדיה	-13203
געות	-13204
הדבר	-13205
ינון	-13206
לסון	-13207
עורי	-13208
צונו	-13209
שיהם	-13210
שרדי	-13211
▁הלח	-13212
▁הפט	-13213
▁ותה	-13214
▁לפק	-13215
▁עשן	-13216
▁פגי	-13217
▁ציד	-13218
▁שבט	-13219
טימטי	-13220
ערבים	-13221
פוסים	-13222
תינוק	-13223
▁1996	-13224
▁Part	-13225
▁Your	-13226
▁אסיר	-13227
▁באינ	-13228
▁בידו	-13229
▁בכול	-13230
▁בלוס	-13231
▁האמי	-13232
▁העלו	-13233
▁הפונ	-13234
▁הרוע	-13235
▁התקש	-13236
▁ומסת	-13237
▁ותיא	-13238
▁חובת	-13239
▁כשנה	-13240
▁ליתר	-13241
▁לנזק	-13242
▁לעול	-13243
▁לשות	-13244
▁מאיר	-13245
▁מותה	-13246
▁מותק	-13247
▁מטופ	-13248
▁נפשי	-13249
▁עוקב	-13250
▁פעלו	-13251
▁שהות	-13252
▁שמעת	-13253
▁תבוא	-13254
גבניות	-13255
▁בחרתי	-13256
▁במגזר	-13257
▁בעשור	-13258
▁דיכוי	-13259
▁הדגים	-13260
▁הזמין	-13261
▁החלפת	-13262
▁התאוש	-13263
▁ואינה	-13264
▁חשבתם	-13265
▁טועים	-13266
▁יוחנן	-13267
▁יתחיל	-13268
▁כלכלת	-13269
▁לגנוב	-13270
▁לדחוף	-13271
▁לצרפת	-13272
▁מהרגע	-13273
▁משוגע	-13274
▁עונות	-13275
▁עוסקת	-13276
▁שערים	-13277
▁שתייה	-13278
▁תוכנת	-13279
▁תתחיל	-13280
ולוגיית	-13281
▁אמונות	-13282
▁בייצור	-13283
▁בעיניו	-13284
▁גרועים	-13285
▁גרמנית	-13286
▁המיועד	-13287
▁הפלילי	-13288
▁התזונה	-13289
▁חיונית	-13290
▁יחידים	-13291
▁יצירתי	-13292
▁להאזין	-13293
▁לחופשה	-13294
▁לצפייה	-13295
▁לתשומת	-13296
▁מייצגת	-13297
▁מלמעלה	-13298
▁מפגשים	-13299
▁מתבצעת	-13300
▁מתמשכת	-13301
▁נמשכים	-13302
▁נשואים	-13303
▁ההמונים	-13304
▁המגורים	-13305
▁הנעליים	-13306
▁הפרטיים	-13307
▁הציפיות	-13308
▁התעללות	-13309
▁מהילדים	-13310
▁מקוונים	-13311
▁משפטיות	-13312
▁תסמינים	-13313
▁הפנימיים	-13314
▁התיאטרון	-13315
▁אנטישמיות	-13316
▁ההיסטורית	-13317
▁הפופולריות	-13318
48	-13319
ug	-13320
ְל	-13321
גשם	-13322
יגי	-13323
כפי	-13324
ליס	-13325
מכה	-13326
פיא	-13327
ning	-13328
קשות	-13329
רינה	-13330
▁11.	-13331
▁Bit	-13332
▁דרש	-13333
▁כמע	-13334
▁כנס	-13335
▁לדר	-13336
▁ללה	-13337
▁מרד	-13338
▁נדע	-13339
▁ערכ	-13340
▁שחס	-13341
▁שתפ	-13342
ליקון	-13343
מוניה	-13344
ספקים	-13345
עללות	-13346
▁אהבו	-13347
▁אלים	-13348
▁אנסה	-13349
▁בגדי	-13350
▁בחרה	-13351
▁בלחץ	-13352
▁במנה	-13353
▁בצדק	-13354
▁דיור	-13355
▁דרוש	-13356
▁הגופ	-13357
▁היער	-13358
▁ואור	-13359
▁וכלי	-13360
▁כרוך	-13361
▁כשאת	-13362
▁לפעם	-13363
▁לשאר	-13364
▁מהרו	-13365
▁מוכי	-13366
▁מונו	-13367
▁מחלק	-13368
▁מכוח	-13369
▁שראה	-13370
▁תורם	-13371
▁תנסה	-13372
רמונית	-13373
▁2011,	-13374
▁אלוהי	-13375
▁בגישה	-13376
▁בהונג	-13377
▁בוגרי	-13378
▁האמור	-13379
▁המדיה	-13380
▁המחמד	-13381
▁המתרח	-13382
▁הנורא	-13383
▁העביר	-13384
▁העשור	-13385
▁הרומן	-13386
▁ובשנת	-13387
▁ולפתח	-13388
▁חומצה	-13389
▁חסרות	-13390
▁יוצאי	-13391
▁כבדים	-13392
▁כפתור	-13393
▁לדרום	-13394
▁להכנס	-13395
▁לחסום	-13396
▁מאתגר	-13397
▁מזוהה	-13398
▁מלאות	-13399
▁ספינת	-13400
▁עבירה	-13401
▁עברתי	-13402
▁עליון	-13403
▁ערובה	-13404
▁קרינה	-13405
▁שתיקה	-13406
▁תשתית	-13407
ונקציונ	-13408
סטרטגיה	-13409
▁בלעדיו	-13410
▁בסרטים	-13411
▁בשיטות	-13412
▁ההומני	-13413
▁ההוצאה	-13414
▁הכתובת	-13415
▁הרווחה	-13416
▁הרישום	-13417
▁והעולם	-13418
▁יכולתו	-13419
▁לקבוצת	-13420
▁לקריאה	-13421
▁לרכישת	-13422
▁מוסלמי	-13423
▁מוצגים	-13424
▁שגיאות	-13425
▁שנולדו	-13426
▁בניינים	-13427
▁הגילאים	-13428
▁הגלובלי	-13429
▁הידיעות	-13430
▁הישרדות	-13431
▁המפלגות	-13432
▁השותפות	-13433
▁חיידקים	-13434
▁להתווכח	-13435
▁מההתחלה	-13436
▁עתידיים	-13437
▁שהילדים	-13438
▁מקצועיות	-13439
אך	-13440
net	-13441
בוך	-13442
בקת	-13443
ובס	-13444
זנה	-13445
לנו	-13446
ממת	-13447
מצו	-13448
מתך	-13449
פקד	-13450
▁AS	-13451
▁it	-13452
-500	-13453
בקשה	-13454
דעתו	-13455
הולי	-13456
כימו	-13457
מושת	-13458
סיסי	-13459
שיכה	-13460
▁Aut	-13461
▁איפ	-13462
▁אפי	-13463
▁באף	-13464
▁בפת	-13465
▁לרג	-13466
▁לרד	-13467
▁מצו	-13468
▁פיו	-13469
▁פרח	-13470
▁קמפ	-13471
ועלות	-13472
▁באנו	-13473
▁בחיל	-13474
▁בלוח	-13475
▁דרמה	-13476
▁החשש	-13477
▁הייע	-13478
▁הסרת	-13479
▁הפלא	-13480
▁הקופ	-13481
▁הקטע	-13482
▁הקרה	-13483
▁והאח	-13484
▁והדי	-13485
▁וחמש	-13486
▁ומיד	-13487
▁טייל	-13488
▁לעוף	-13489
▁לפרי	-13490
▁לקחה	-13491
▁מהמא	-13492
▁ממאה	-13493
▁נפגש	-13494
▁סודי	-13495
▁ערכו	-13496
▁צחוק	-13497
▁צייר	-13498
▁רצים	-13499
▁שהמו	-13500
▁שיחת	-13501
ודשיים	-13502
▁2013,	-13503
▁אוסלו	-13504
▁אחריה	-13505
▁אספקה	-13506
▁במראה	-13507
▁בפניו	-13508
▁בתחנת	-13509
▁האלוה	-13510
▁האמנה	-13511
▁הגירה	-13512
▁הלשון	-13513
▁המחאה	-13514
▁הנערה	-13515
▁הפרות	-13516
▁הצרכן	-13517
▁התפתח	-13518
▁ואמרו	-13519
▁והדבר	-13520
▁יעדים	-13521
▁יעזרו	-13522
▁כמיטב	-13523
▁כריסט	-13524
▁למחלה	-13525
▁לסלוח	-13526
▁מוערך	-13527
▁מליון	-13528
▁מעביר	-13529
▁משעמם	-13530
▁משתתף	-13531
▁נבנתה	-13532
▁נראות	-13533
▁עקבות	-13534
▁קוגני	-13535
▁שהרבה	-13536
▁שומרת	-13537
▁שמספר	-13538
▁תצליח	-13539
▁10,000	-13540
▁ארכיון	-13541
▁בחלקים	-13542
▁בתכנון	-13543
▁ההפרדה	-13544
▁הידועה	-13545
▁הנדרשת	-13546
▁הנמוכה	-13547
▁הקירות	-13548
▁השכנים	-13549
▁ולעולם	-13550
▁ותמיכה	-13551
▁חיסכון	-13552
▁חמורים	-13553
▁להיחשב	-13554
▁להקטין	-13555
▁לחשבון	-13556
▁ליברמן	-13557
▁לכוחות	-13558
▁לתיקון	-13559
▁מדעיים	-13560
▁מדרגות	-13561
▁מתמודד	-13562
▁עוקבים	-13563
▁שמתרחש	-13564
▁ההודעות	-13565
▁היוונית	-13566
▁הכוללים	-13567
▁ובריאות	-13568
▁חשמליים	-13569
▁להסתובב	-13570
▁לרשויות	-13571
▁שהדברים	-13572
▁National	-13573
▁באירועים	-13574
▁הפיננסית	-13575
▁מסורתיים	-13576
ֹד	-13577
▁j	-13578
lex	-13579
por	-13580
אופ	-13581
אטל	-13582
בדל	-13583
גמה	-13584
גשג	-13585
כשא	-13586
ללא	-13587
נגר	-13588
צוי	-13589
קגו	-13590
רוי	-13591
▁4,	-13592
▁ex	-13593
▁סב	-13594
...)	-13595
בריה	-13596
טינה	-13597
כתבה	-13598
מטית	-13599
נכון	-13600
▁Can	-13601
▁THE	-13602
▁התו	-13603
▁ודם	-13604
▁ורא	-13605
▁מרא	-13606
▁מרץ	-13607
▁נלך	-13608
▁תצל	-13609
אוגרפ	-13610
וענים	-13611
נסטון	-13612
ראיים	-13613
▁"...	-13614
▁City	-13615
▁באיס	-13616
▁בעיצ	-13617
▁הגנת	-13618
▁הוכי	-13619
▁הורג	-13620
▁הניי	-13621
▁הסתם	-13622
▁הריח	-13623
▁וטוב	-13624
▁לאופ	-13625
▁לאיס	-13626
▁מאגר	-13627
▁מבור	-13628
▁ממלא	-13629
▁מקרב	-13630
▁משקף	-13631
▁נייד	-13632
▁ניקח	-13633
▁סוחר	-13634
▁עמים	-13635
▁פוגש	-13636
▁פתחה	-13637
▁צרכי	-13638
▁קרים	-13639
▁שלחו	-13640
▁שנתי	-13641
וסטריה	-13642
ותרפיה	-13643
▁אירוח	-13644
▁בכיכר	-13645
▁בתואר	-13646
▁בתורה	-13647
▁דמיון	-13648
▁הבמאי	-13649
▁הגודל	-13650
▁הוכיח	-13651
▁הזרים	-13652
▁החזרה	-13653
▁הנחות	-13654
▁הקושי	-13655
▁התקפה	-13656
▁ואוכל	-13657
▁יוביל	-13658
▁יוזמה	-13659
▁להבנה	-13660
▁למנהל	-13661
▁לפרוץ	-13662
▁מהנדס	-13663
▁מלמדת	-13664
▁מתקני	-13665
▁פיצוץ	-13666
▁פיתחו	-13667
▁קדושה	-13668
▁שגיאה	-13669
▁שהיית	-13670
▁שלבים	-13671
▁שמענו	-13672
▁שנינו	-13673
▁שקשור	-13674
▁תודעה	-13675
▁תוחלת	-13676
▁אמינות	-13677
▁בברזיל	-13678
▁בגילאי	-13679
▁בתוספת	-13680
▁הבשורה	-13681
▁החירום	-13682
▁המשלחת	-13683
▁השיחות	-13684
▁כנסיית	-13685
▁להתקבל	-13686
▁לשולחן	-13687
▁מוגברת	-13688
▁מושגים	-13689
▁מיועדת	-13690
▁ממליצה	-13691
▁משלושה	-13692
▁נולדתי	-13693
▁פירושה	-13694
▁פתוחות	-13695
▁שביעות	-13696
▁שבסופו	-13697
▁תעשייה	-13698
▁בבריאות	-13699
▁דוקטורט	-13700
▁ומדינות	-13701
▁להתייעץ	-13702
▁מובילות	-13703
▁מוניטין	-13704
▁מוסיפים	-13705
▁מעודדים	-13706
▁מפגינים	-13707
▁מתייחסת	-13708
▁רציניים	-13709
▁אנדרואיד	-13710
▁האוטובוס	-13711
▁המלכותית	-13712
▁הסוציאלי	-13713
▁להיסטוריה	-13714
▁וטכנולוגיה	-13715
76	-13716
II	-13717
sc	-13718
ְה	-13719
טע	-13720
-35	-13721
arm	-13722
iam	-13723
son	-13724
uck	-13725
גיז	-13726
גלל	-13727
המח	-13728
עוץ	-13729
פיי	-13730
▁Mo	-13731
▁רם	-13732
olut	-13733
ווני	-13734
חירי	-13735
כויי	-13736
כנסי	-13737
נושא	-13738
קדמת	-13739
רטיס	-13740
ריכו	-13741
ריקת	-13742
▁30%	-13743
▁SEO	-13744
▁התכ	-13745
▁ונצ	-13746
▁ותא	-13747
▁ידה	-13748
▁ניג	-13749
אניקה	-13750
וקקים	-13751
וקרתי	-13752
ורדים	-13753
ספורד	-13754
▁בוצע	-13755
▁גופה	-13756
▁גלוי	-13757
▁האטר	-13758
▁הגיר	-13759
▁החכם	-13760
▁והסי	-13761
▁חושף	-13762
▁חזיר	-13763
▁חיית	-13764
▁יוסי	-13765
▁כינה	-13766
▁כשהת	-13767
▁לפרס	-13768
▁מבעד	-13769
▁מוטב	-13770
▁מושב	-13771
▁מותא	-13772
▁מילר	-13773
▁מצומ	-13774
▁משפר	-13775
▁סטרי	-13776
וגמאות	-13777
▁אחוזי	-13778
▁בברית	-13779
▁בדרכי	-13780
▁במחלה	-13781
▁בקומה	-13782
▁דוברי	-13783
▁הביעו	-13784
▁הוצאה	-13785
▁המגדל	-13786
▁המכיל	-13787
▁המפות	-13788
▁המתאר	-13789
▁הציעו	-13790
▁הרבות	-13791
▁ויהיה	-13792
▁חבילת	-13793
▁ידעתם	-13794
▁לחנות	-13795
▁לתנאי	-13796
▁מסרים	-13797
▁נפולי	-13798
▁נשמות	-13799
▁קיימא	-13800
▁רוסית	-13801
▁רקטות	-13802
▁שומעת	-13803
▁שחייה	-13804
▁אורגני	-13805
▁באמנות	-13806
▁ההופעה	-13807
▁הטענות	-13808
▁המדויק	-13809
▁הנסיכה	-13810
▁הסוללה	-13811
▁העבירה	-13812
▁הקלעים	-13813
▁וחברים	-13814
▁ולעבוד	-13815
▁למשפחת	-13816
▁לסיכום	-13817
▁מהנשים	-13818
▁ממוקמת	-13819
▁מתמקדת	-13820
▁נולדים	-13821
▁שולחים	-13822
▁תרומות	-13823
▁אזרחיים	-13824
▁במקסיקו	-13825
▁האיטלקי	-13826
▁ההיריון	-13827
▁החופשית	-13828
▁הנקודות	-13829
▁ולהשתמש	-13830
▁מאלוהים	-13831
▁ממוקמים	-13832
▁מתחילות	-13833
▁תעשייתי	-13834
▁המוניטין	-13835
▁המקוריים	-13836
▁חיזבאללה	-13837
▁לארגונים	-13838
▁מסויימים	-13839
▁מתגוררים	-13840
▁העיתונאים	-13841
IL	-13842
Pl	-13843
yd	-13844
yl	-13845
ְכ	-13846
ike	-13847
rop	-13848
vil	-13849
דנו	-13850
וול	-13851
קוי	-13852
שאו	-13853
שכה	-13854
▁--	-13855
▁64	-13856
▁HP	-13857
/201	-13858
ener	-13859
itut	-13860
בטיח	-13861
בנית	-13862
וריס	-13863
זרית	-13864
ילדה	-13865
כרזה	-13866
מאית	-13867
מנתי	-13868
ניית	-13869
פינו	-13870
▁אבד	-13871
▁בטן	-13872
▁בפה	-13873
▁גזר	-13874
▁ההא	-13875
▁ואן	-13876
▁ונד	-13877
▁מעת	-13878
▁ניח	-13879
▁נפח	-13880
▁סוח	-13881
▁סכי	-13882
▁עמק	-13883
▁פחם	-13884
▁רצף	-13885
▁שוש	-13886
irect	-13887
וגלים	-13888
וגעים	-13889
למרות	-13890
ריזות	-13891
שימוש	-13892
▁from	-13893
▁אורז	-13894
▁בארי	-13895
▁ביתם	-13896
▁בשמו	-13897
▁בשרי	-13898
▁גרין	-13899
▁האין	-13900
▁החיל	-13901
▁הכנת	-13902
▁השמר	-13903
▁ולהש	-13904
▁חולם	-13905
▁חתמו	-13906
▁לטפס	-13907
▁נוגד	-13908
▁נורה	-13909
▁סוני	-13910
▁עתיק	-13911
▁פרקי	-13912
▁קראה	-13913
▁שברצ	-13914
▁שוכן	-13915
▁2008,	-13916
▁אחיות	-13917
▁אישום	-13918
▁ביממה	-13919
▁בספרו	-13920
▁האשמה	-13921
▁הוכרז	-13922
▁החוקה	-13923
▁הכחול	-13924
▁הנאשם	-13925
▁הנפוץ	-13926
▁הסמים	-13927
▁וחברת	-13928
▁ועבור	-13929
▁להכרה	-13930
▁לחייך	-13931
▁לתרגל	-13932
▁מוציא	-13933
▁נפטרה	-13934
▁נרשמו	-13935
▁עברנו	-13936
▁עקרון	-13937
▁קורות	-13938
▁שהילד	-13939
▁שכבות	-13940
▁שעולה	-13941
פגניסטן	-13942
ריטוריה	-13943
▁בודקים	-13944
▁במשימה	-13945
▁בתוכנו	-13946
▁האהובה	-13947
▁הדיאטה	-13948
▁היפנית	-13949
▁המונית	-13950
▁הצריכה	-13951
▁השלבים	-13952
▁התאונה	-13953
▁ובנוסף	-13954
▁יצליחו	-13955
▁יתקיים	-13956
▁להשתפר	-13957
▁להתרחק	-13958
▁לפגיעה	-13959
▁מחברות	-13960
▁מתוכנן	-13961
▁מתכננת	-13962
▁סחורות	-13963
▁צבאיות	-13964
▁בהתייחס	-13965
▁בטוויטר	-13966
▁בנתונים	-13967
▁הגבוהות	-13968
▁הנסיבות	-13969
▁ומערכות	-13970
▁ופעילות	-13971
▁ייחודיים	-13972
▁ישראליות	-13973
▁משפחותיהם	-13974
▁סיינטולוגיה	-13975
36	-13976
VD	-13977
me	-13978
תן	-13979
ana	-13980
ner	-13981
איו	-13982
בטל	-13983
פרה	-13984
צין	-13985
שלי	-13986
▁44	-13987
▁La	-13988
▁צח	-13989
ited	-13990
iver	-13991
rist	-13992
ובעת	-13993
וכנת	-13994
ופעת	-13995
כגון	-13996
לימה	-13997
עבור	-13998
עדים	-13999
▁1.5	-14000
▁Des	-14001
▁Her	-14002
▁Red	-14003
▁ביצ	-14004
▁דיג	-14005
▁הנס	-14006
▁הרף	-14007
▁ובכ	-14008
▁ונח	-14009
▁ותפ	-14010
▁זעם	-14011
▁לסח	-14012
▁מלק	-14013
▁פסל	-14014
▁רוי	-14015
urity	-14016
דווקא	-14017
דולים	-14018
החיים	-14019
חורים	-14020
נצלות	-14021
רגנים	-14022
▁אתנו	-14023
▁בסוג	-14024
▁הקצה	-14025
▁ומים	-14026
▁חיפה	-14027
▁חלפו	-14028
▁לאות	-14029
▁לבטח	-14030
▁להצט	-14031
▁לחוף	-14032
▁לטפח	-14033
▁למתק	-14034
▁לקרב	-14035
▁מאוי	-14036
▁מאוכ	-14037
▁מארי	-14038
▁מטען	-14039
▁מפנה	-14040
▁נגיד	-14041
▁נסגר	-14042
▁סנטי	-14043
▁עבאס	-14044
▁קולג	-14045
▁שליט	-14046
▁תחיל	-14047
ניינות	-14048
פריסין	-14049
▁אותות	-14050
▁בבעיה	-14051
▁בדואר	-14052
▁בוצעו	-14053
▁בסיוע	-14054
▁דנמרק	-14055
▁האווי	-14056
▁הליבה	-14057
▁הנייר	-14058
▁הפרעת	-14059
▁הרושם	-14060
▁וכיום	-14061
▁חולצה	-14062
▁כביסה	-14063
▁כוונת	-14064
▁לילות	-14065
▁לימדו	-14066
▁למקרה	-14067
▁לעונה	-14068
▁לשחות	-14069
▁מאותם	-14070
▁מונעת	-14071
▁מטופל	-14072
▁ממספר	-14073
▁נכתבו	-14074
▁סיפוק	-14075
▁תפיסת	-14076
▁אויבים	-14077
▁אירופא	-14078
▁בינוני	-14079
▁בספורט	-14080
▁בעצמנו	-14081
▁בתחתית	-14082
▁האיגוד	-14083
▁ההנהגה	-14084
▁הכיוון	-14085
▁הפנסיה	-14086
▁הצופים	-14087
▁השטחים	-14088
▁והחברה	-14089
▁יכולתם	-14090
▁להאריך	-14091
▁להפנות	-14092
▁לעיצוב	-14093
▁מניפול	-14094
▁נבחרים	-14095
▁סוגיות	-14096
▁עייפות	-14097
▁איטלקית	-14098
▁בשווקים	-14099
▁ההוראות	-14100
▁הומוסקס	-14101
▁החוויות	-14102
▁וייטנאם	-14103
▁סקוטלנד	-14104
▁פלורידה	-14105
▁שיכולתי	-14106
▁שפורסמו	-14107
▁בפעילויות	-14108
Cl	-14109
SA	-14110
דס	-14111
איש	-14112
גמר	-14113
מבל	-14114
ראן	-14115
▁Bu	-14116
▁Up	-14117
▁אן	-14118
▁סם	-14119
imes	-14120
obal	-14121
ress	-14122
אביב	-14123
בורן	-14124
הדרך	-14125
וטית	-14126
ותית	-14127
יהיה	-14128
לישה	-14129
מפיא	-14130
נקוט	-14131
▁40%	-14132
▁וקל	-14133
▁זמנ	-14134
▁יסת	-14135
▁מרכ	-14136
▁עונ	-14137
▁פרש	-14138
▁רוס	-14139
▁תלת	-14140
ility	-14141
ארצות	-14142
בגרות	-14143
בושים	-14144
ובבים	-14145
וכבים	-14146
מורות	-14147
קיפים	-14148
ריצים	-14149
רפתקה	-14150
▁1991	-14151
▁1997	-14152
▁John	-14153
▁אינץ	-14154
▁אכלו	-14155
▁אמיץ	-14156
▁בקור	-14157
▁דיסק	-14158
▁ההפך	-14159
▁ההרס	-14160
▁הניח	-14161
▁והמא	-14162
▁והצי	-14163
▁ורוח	-14164
▁כוחה	-14165
▁להסי	-14166
▁ליעד	-14167
▁למדה	-14168
▁לשדה	-14169
▁נוסד	-14170
▁נטען	-14171
▁נלקח	-14172
▁סבלו	-14173
▁עייף	-14174
▁עיקר	-14175
▁פסיכ	-14176
▁פרדי	-14177
▁פתחו	-14178
▁רגשי	-14179
▁שבעת	-14180
▁שירת	-14181
▁שרים	-14182
▁ששני	-14183
▁תתנו	-14184
וסטרון	-14185
טיילים	-14186
ציאלית	-14187
שוטרים	-14188
▁Enter	-14189
▁בכנסת	-14190
▁במעלה	-14191
▁דרכון	-14192
▁החמאס	-14193
▁הכתוב	-14194
▁המטען	-14195
▁המפור	-14196
▁המשנה	-14197
▁הניחו	-14198
▁הספיק	-14199
▁הרכוש	-14200
▁התגלו	-14201
▁התקבל	-14202
▁זרימת	-14203
▁ישתנה	-14204
▁כלשהם	-14205
▁לגובה	-14206
▁להגנת	-14207
▁לייצג	-14208
▁למדנו	-14209
▁לקיום	-14210
▁לתפקד	-14211
▁מוזמן	-14212
▁מעמדה	-14213
▁מקיפה	-14214
▁נהנית	-14215
▁נערות	-14216
▁נתונה	-14217
▁סגירת	-14218
▁פריצת	-14219
▁רעבים	-14220
▁שאמרת	-14221
ריאליזם	-14222
▁בסרטון	-14223
▁בעיירה	-14224
▁האבטלה	-14225
▁הצמחים	-14226
▁הרגישו	-14227
▁הרגלים	-14228
▁התיאור	-14229
▁התקיפה	-14230
▁ולעזור	-14231
▁חוגגים	-14232
▁חקלאות	-14233
▁חשמלית	-14234
▁ספורים	-14235
▁עתיקים	-14236
▁רגילות	-14237
▁שחקנית	-14238
▁האולימפ	-14239
▁ההיגיון	-14240
▁המשימות	-14241
▁העולמות	-14242
▁התמכרות	-14243
▁התנהלות	-14244
▁לאנרגיה	-14245
▁ממקורות	-14246
▁סמכויות	-14247
▁שהממשלה	-14248
▁שליליים	-14249
וויליזציה	-14250
▁הדיגיטלי	-14251
▁המבוגרים	-14252
▁המתנחלים	-14253
▁כימיקלים	-14254
▁האוניברסיטאות	-14255
37	-14256
סח	-14257
רף	-14258
chn	-14259
ose	-14260
rid	-14261
וטו	-14262
ורם	-14263
יאל	-14264
יךָ	-14265
מטה	-14266
ספי	-14267
קשן	-14268
שמו	-14269
▁5%	-14270
▁פן	-14271
▁צא	-14272
,...	-14273
וארט	-14274
ובדי	-14275
וטות	-14276
יימר	-14277
יקוי	-14278
מעים	-14279
נראה	-14280
נרים	-14281
פאין	-14282
פיהם	-14283
רגיש	-14284
ריסה	-14285
▁365	-14286
▁Inn	-14287
▁Nor	-14288
▁Val	-14289
▁הסו	-14290
▁חשו	-14291
▁לֹא	-14292
▁מהז	-14293
▁נרג	-14294
▁פופ	-14295
▁צומ	-14296
▁ציי	-14297
▁קרל	-14298
▁שמט	-14299
▁שתח	-14300
style	-14301
וארים	-14302
וריום	-14303
כתבים	-14304
צרטים	-14305
ריטרי	-14306
שוטים	-14307
▁(196	-14308
▁1992	-14309
▁1993	-14310
▁Serv	-14311
▁בחוף	-14312
▁דברו	-14313
▁הגיש	-14314
▁ההפס	-14315
▁הנצח	-14316
▁וקשה	-14317
▁כיתה	-14318
▁לוחם	-14319
▁לזוז	-14320
▁לסרב	-14321
▁לרמת	-14322
▁משלב	-14323
▁נגיע	-14324
▁ניגש	-14325
▁ניצב	-14326
▁נקבל	-14327
▁נרצח	-14328
▁נשאל	-14329
▁פיצה	-14330
▁שאיר	-14331
▁שהסי	-14332
▁שורש	-14333
▁תדעו	-14334
וזניים	-14335
לדוגמה	-14336
ליסטים	-14337
▁ארוכת	-14338
▁בבעלי	-14339
▁בטכני	-14340
▁ביוון	-14341
▁במדעי	-14342
▁הגבלת	-14343
▁הדולר	-14344
▁ההווה	-14345
▁הונאה	-14346
▁הופעת	-14347
▁העמדה	-14348
▁הפסיק	-14349
▁הפתוח	-14350
▁הרחבת	-14351
▁והשני	-14352
▁חששות	-14353
▁ילדיה	-14354
▁ישפיע	-14355
▁כניסת	-14356
▁כשלעצ	-14357
▁לאחסן	-14358
▁להזיז	-14359
▁לחופש	-14360
▁ליטול	-14361
▁לקוות	-14362
▁מבלים	-14363
▁מחודש	-14364
▁מיסים	-14365
▁מקומו	-14366
▁סבירה	-14367
▁עיסוק	-14368
▁פורנו	-14369
▁פלילי	-14370
▁קובצי	-14371
▁קווים	-14372
▁קווין	-14373
▁קרובי	-14374
▁רחמים	-14375
▁שימשו	-14376
▁שעשוי	-14377
▁שתיהן	-14378
ורתודוק	-14379
▁בתיכון	-14380
▁הבחורה	-14381
▁הגבלות	-14382
▁הגירוש	-14383
▁הקולות	-14384
▁הרומית	-14385
▁השנתית	-14386
▁ובינלא	-14387
▁וכדומה	-14388
▁ולמצוא	-14389
▁לאיחוד	-14390
▁להבדיל	-14391
▁להתאהב	-14392
▁לפנינו	-14393
▁מניחים	-14394
▁מקוונת	-14395
▁רכישות	-14396
▁שהוביל	-14397
▁שקיימת	-14398
▁תפקידה	-14399
סטוסטרון	-14400
▁Outlook	-14401
▁אמיתיות	-14402
▁אפשריות	-14403
▁בפעולות	-14404
▁המוסדות	-14405
▁הקלאסית	-14406
▁ידידותי	-14407
▁לגרמניה	-14408
▁מודיעין	-14409
▁מתקדמות	-14410
▁סטטיסטי	-14411
▁שמגיעים	-14412
▁ארגנטינה	-14413
▁הדיווחים	-14414
▁מעוניינת	-14415
▁אוכלוסיות	-14416
▁אלקטרוניים	-14417
PR	-14418
Wh	-14419
__	-14420
לר	-14421
ott	-14422
red	-14423
res	-14424
the	-14425
ull	-14426
בדק	-14427
ישב	-14428
ישן	-14429
נתק	-14430
עבד	-14431
קסם	-14432
שמת	-14433
▁67	-14434
▁PC	-14435
▁{\	-14436
דרדר	-14437
ומכת	-14438
חסור	-14439
מתוך	-14440
קרות	-14441
קשים	-14442
רימה	-14443
▁Art	-14444
▁Pal	-14445
▁אוח	-14446
▁באפ	-14447
▁גונ	-14448
▁גוש	-14449
▁הנז	-14450
▁ושר	-14451
▁יוב	-14452
▁מאו	-14453
▁קוו	-14454
▁שיז	-14455
Point	-14456
ments	-14457
בילים	-14458
ישרון	-14459
קורים	-14460
▁Stud	-14461
▁האגם	-14462
▁הבוס	-14463
▁הבטי	-14464
▁הזרם	-14465
▁החצי	-14466
▁השלט	-14467
▁התוק	-14468
▁ואבא	-14469
▁והתק	-14470
▁ומתח	-14471
▁ושתי	-14472
▁מבתי	-14473
▁מטפל	-14474
▁מניע	-14475
▁נגרם	-14476
▁נחוש	-14477
▁נפלה	-14478
▁סגנו	-14479
▁שרדו	-14480
דיאנים	-14481
▁אחותו	-14482
▁אימוץ	-14483
▁ארמון	-14484
▁בהגנה	-14485
▁בידור	-14486
▁דוחות	-14487
▁הזמנת	-14488
▁הראוי	-14489
▁ויכוח	-14490
▁ומוות	-14491
▁ועידת	-14492
▁חישוב	-14493
▁לספור	-14494
▁לרבים	-14495
▁לשחקן	-14496
▁מילוי	-14497
▁מתארת	-14498
▁מתפתח	-14499
▁נוחים	-14500
▁נשואה	-14501
▁עתיקה	-14502
▁פשעים	-14503
▁שנקבע	-14504
▁שעובד	-14505
▁תאונה	-14506
display	-14507
▁איברים	-14508
▁האפריק	-14509
▁החופשה	-14510
▁הירידה	-14511
▁הציפור	-14512
▁הקבצים	-14513
▁הרצאות	-14514
▁ואחיות	-14515
▁ולנסות	-14516
▁טיפולי	-14517
▁להצדיק	-14518
▁למשתמש	-14519
▁לתכנית	-14520
▁מהירים	-14521
▁מוכנות	-14522
▁מושבים	-14523
▁מלהיות	-14524
▁נופלים	-14525
▁נפרדות	-14526
▁עסוקים	-14527
▁רומנטי	-14528
▁רחוקים	-14529
▁שבוצעו	-14530
▁שוכחים	-14531
▁שנותרו	-14532
▁שרציתי	-14533
▁תשובתי	-14534
▁בסבלנות	-14535
▁היוצרים	-14536
▁היחידות	-14537
▁היצורים	-14538
▁הנוגעים	-14539
▁הנפוצות	-14540
▁העלויות	-14541
▁השבועות	-14542
▁התזמורת	-14543
▁לבחירות	-14544
▁היהודיים	-14545
▁ובראשונה	-14546
▁מעניינות	-14547
▁האולטימטי	-14548
▁הישראליות	-14549
▁המקצועיים	-14550
▁העדיפויות	-14551
▁הפסיכולוג	-14552
▁פוטנציאלי	-14553
displaystyle	-14554
EP	-14555
cl	-14556
gl	-14557
sp	-14558
ֵּ	-14559
ַעֲ	-14560
בקו	-14561
נרי	-14562
שתף	-14563
▁LL	-14564
▁be	-14565
ield	-14566
בדקו	-14567
ביאה	-14568
ברהם	-14569
וכות	-14570
ולדה	-14571
טייל	-14572
לידה	-14573
מהלך	-14574
ממים	-14575
נבול	-14576
▁Pol	-14577
▁דחף	-14578
▁וְה	-14579
▁ותי	-14580
▁חשה	-14581
▁כהה	-14582
▁מרה	-14583
▁נחל	-14584
▁נכב	-14585
▁סיס	-14586
▁פוק	-14587
▁קדם	-14588
-2015	-14589
ורגיה	-14590
מיתות	-14591
רוסים	-14592
רכיבי	-14593
▁אגיד	-14594
▁אדמת	-14595
▁איינ	-14596
▁אסלא	-14597
▁אקדח	-14598
▁בחול	-14599
▁ביתר	-14600
▁גנים	-14601
▁הליי	-14602
▁השלג	-14603
▁והמק	-14604
▁טרנס	-14605
▁יגיד	-14606
▁ימצא	-14607
▁כיכר	-14608
▁מוטר	-14609
▁מילת	-14610
▁מעיר	-14611
▁פורד	-14612
▁קהיל	-14613
▁קרול	-14614
▁תקצי	-14615
▁תרנג	-14616
▁2009,	-14617
▁באילו	-14618
▁בגבול	-14619
▁ביצעו	-14620
▁במעמד	-14621
▁בנאום	-14622
▁בסכום	-14623
▁בפחות	-14624
▁בשיטת	-14625
▁האופל	-14626
▁האורג	-14627
▁הדעות	-14628
▁ההגעה	-14629
▁החינו	-14630
▁היפני	-14631
▁המגרש	-14632
▁המצוי	-14633
▁המצור	-14634
▁העולה	-14635
▁העידן	-14636
▁הרווי	-14637
▁השמחה	-14638
▁התחלת	-14639
▁ידידי	-14640
▁ילדיו	-14641
▁לחצות	-14642
▁לכוון	-14643
▁מוקדש	-14644
▁מניחה	-14645
▁מסיבת	-14646
▁מרחבי	-14647
▁נפתחה	-14648
▁עולות	-14649
▁עמידה	-14650
▁קורים	-14651
▁שיקגו	-14652
▁שמירת	-14653
▁תיעוד	-14654
acebook	-14655
אינטרנט	-14656
פלסטיני	-14657
▁אופציה	-14658
▁אקדמית	-14659
▁באיזור	-14660
▁באמצעי	-14661
▁במשטרה	-14662
▁בעובדה	-14663
▁ברבעון	-14664
▁גזענות	-14665
▁האידיא	-14666
▁הדרישה	-14667
▁ההנהלה	-14668
▁הלגיטי	-14669
▁הממוקם	-14670
▁הפגנות	-14671
▁השבעים	-14672
▁כבישים	-14673
▁לגילוי	-14674
▁להסתדר	-14675
▁לתמונה	-14676
▁פורסמו	-14677
▁צודקים	-14678
▁רחובות	-14679
▁שנמצאו	-14680
▁שעליהם	-14681
▁שקראתי	-14682
▁אלמנטים	-14683
▁אקדמיים	-14684
▁בכמויות	-14685
▁במוזיקה	-14686
▁בתוצאות	-14687
▁האיומים	-14688
▁המבקשים	-14689
▁המורדים	-14690
▁הנפוצים	-14691
▁הספרדית	-14692
▁הפרופיל	-14693
▁התחומים	-14694
▁יצירתית	-14695
▁כלכליות	-14696
▁לאזרחים	-14697
▁מיומנות	-14698
▁מקיימים	-14699
▁צעצועים	-14700
▁קליניים	-14701
▁אטרקציות	-14702
▁מיליארדי	-14703
▁הטכנולוגי	-14704
▁המודרניים	-14705
34	-14706
Th	-14707
ְב	-14708
ged	-14709
ini	-14710
הלו	-14711
זום	-14712
לקו	-14713
נוך	-14714
▁49	-14715
▁AM	-14716
▁Go	-14717
rael	-14718
בחור	-14719
גדלו	-14720
ודנט	-14721
וליד	-14722
וניו	-14723
ורכי	-14724
יוני	-14725
מקרה	-14726
סיבי	-14727
▁1.1	-14728
▁Cap	-14729
▁ביש	-14730
▁בתר	-14731
▁דנה	-14732
▁ולר	-14733
▁ונס	-14734
▁לבת	-14735
▁נאה	-14736
▁נטל	-14737
▁עוף	-14738
▁צרו	-14739
▁קבר	-14740
▁קמה	-14741
וויתי	-14742
ורבות	-14743
לוקות	-14744
צונית	-14745
ציגים	-14746
קיסטן	-14747
▁Anal	-14748
▁אורי	-14749
▁אחיה	-14750
▁אלון	-14751
▁אמות	-14752
▁בסקר	-14753
▁גופי	-14754
▁דעתם	-14755
▁החגי	-14756
▁המכו	-14757
▁הרגש	-14758
▁וכול	-14759
▁ומצא	-14760
▁חסרה	-14761
▁כראש	-14762
▁מבטא	-14763
▁מהפר	-14764
▁מושל	-14765
▁משרה	-14766
▁נעלי	-14767
▁ענתה	-14768
▁שבור	-14769
▁שמתח	-14770
▁שנתן	-14771
▁2007.	-14772
▁2017,	-14773
▁House	-14774
▁Skype	-14775
▁ארכיא	-14776
▁בהסכם	-14777
▁בזירה	-14778
▁במבחן	-14779
▁במועד	-14780
▁במטוס	-14781
▁במכתב	-14782
▁גישות	-14783
▁גנטית	-14784
▁הגורל	-14785
▁החגים	-14786
▁המלאך	-14787
▁הנבחר	-14788
▁ואשתו	-14789
▁וירוס	-14790
▁ומרכז	-14791
▁כחברה	-14792
▁לאופן	-14793
▁להעיר	-14794
▁לטעום	-14795
▁לימים	-14796
▁מטומט	-14797
▁מיעוט	-14798
▁ממוצא	-14799
▁ממילא	-14800
▁מעמיק	-14801
▁מקורי	-14802
▁מראות	-14803
▁סירבו	-14804
▁שמואל	-14805
▁שמיעה	-14806
▁שנדרש	-14807
לוונטית	-14808
פורמציה	-14809
▁בביקור	-14810
▁במחשבה	-14811
▁במכשיר	-14812
▁בעסקים	-14813
▁בצעדים	-14814
▁ברורות	-14815
▁בשיפור	-14816
▁הבחינה	-14817
▁ההתקפה	-14818
▁המכריע	-14819
▁המסקנה	-14820
▁הסכימה	-14821
▁השאיפה	-14822
▁ולאפשר	-14823
▁יצרנית	-14824
▁ירוקים	-14825
▁להקפיד	-14826
▁לוודאי	-14827
▁מייצרת	-14828
▁ממצאים	-14829
▁מספיקה	-14830
▁משרדים	-14831
▁מתקנים	-14832
▁נלחמים	-14833
▁נפוצים	-14834
רקטוריון	-14835
▁הדיפלומ	-14836
▁הייחודי	-14837
▁הסעודית	-14838
▁הפריטים	-14839
▁הרווחים	-14840
▁התפשטות	-14841
▁סכסוכים	-14842
▁שהאנשים	-14843
וליטיקאים	-14844
ריטריונים	-14845
▁בתיאטרון	-14846
▁המאוחדות	-14847
▁המעורבים	-14848
88	-14849
TH	-14850
TP	-14851
ke	-14852
tr	-14853
ֶּ	-14854
בץ	-14855
ams	-14856
aut	-14857
bur	-14858
nal	-14859
ony	-14860
אול	-14861
חדו	-14862
ידך	-14863
עול	-14864
עית	-14865
עלה	-14866
▁-2	-14867
▁ל־	-14868
-150	-14869
roid	-14870
אנים	-14871
בורו	-14872
גידה	-14873
גנים	-14874
וגמת	-14875
ומון	-14876
חוזה	-14877
יתוב	-14878
נדרו	-14879
קטור	-14880
–201	-14881
▁18.	-14882
▁90%	-14883
▁Get	-14884
▁מיץ	-14885
▁נוצ	-14886
▁רוע	-14887
▁שבד	-14888
ביעים	-14889
בעיקר	-14890
דרציה	-14891
ורמים	-14892
סוציא	-14893
פתחים	-14894
▁איים	-14895
▁בארו	-14896
▁הגמר	-14897
▁הוספ	-14898
▁המרד	-14899
▁הסגל	-14900
▁השופ	-14901
▁ויקט	-14902
▁זולה	-14903
▁זמנו	-14904
▁חפים	-14905
▁לחיל	-14906
▁למוח	-14907
▁לנשק	-14908
▁לערך	-14909
▁מיטב	-14910
▁מישל	-14911
▁נאסר	-14912
▁שאול	-14913
▁שלוק	-14914
▁שקטה	-14915
▁תארו	-14916
▁2008.	-14917
▁2018.	-14918
▁Inter	-14919
▁אבינו	-14920
▁בבתים	-14921
▁בלגיה	-14922
▁במוצר	-14923
▁בנשים	-14924
▁בפוסט	-14925
▁הבטחה	-14926
▁הבכור	-14927
▁הזהיר	-14928
▁הזוכה	-14929
▁הזולת	-14930
▁הזרוע	-14931
▁החומה	-14932
▁הלבנה	-14933
▁המטפל	-14934
▁המעגל	-14935
▁הנתיב	-14936
▁וללכת	-14937
▁זולים	-14938
▁זכאים	-14939
▁כוסות	-14940
▁לדירה	-14941
▁למזרח	-14942
▁לצפון	-14943
▁לרצוח	-14944
▁לשלוש	-14945
▁מדרגה	-14946
▁מעבדה	-14947
▁מעודד	-14948
▁מעשיו	-14949
▁נפרדת	-14950
▁סכסוך	-14951
▁עצמות	-14952
▁פותחת	-14953
▁קובעת	-14954
▁קודמת	-14955
▁רכבות	-14956
▁רצועת	-14957
▁שנגרם	-14958
▁שקרים	-14959
▁תחזית	-14960
▁תפסיק	-14961
▁בוחנים	-14962
▁בעוצמה	-14963
▁גלולות	-14964
▁דואגים	-14965
▁האספקה	-14966
▁הודיעו	-14967
▁הוכחות	-14968
▁הוריהם	-14969
▁החשיפה	-14970
▁הציוני	-14971
▁התרחשו	-14972
▁והייתה	-14973
▁וראיתי	-14974
▁להכחיש	-14975
▁למדעים	-14976
▁מחייבת	-14977
▁ממחצית	-14978
▁מעכשיו	-14979
▁נאלצים	-14980
▁ניתנות	-14981
▁פלילית	-14982
▁קריטית	-14983
▁שילדים	-14984
▁שינויי	-14985
▁שנוצרו	-14986
▁שראינו	-14987
▁בעדינות	-14988
▁בשנתיים	-14989
▁הונגריה	-14990
▁העבודות	-14991
▁הקורסים	-14992
▁לדרישות	-14993
▁מוצלחים	-14994
רכיטקטורה	-14995
▁אמריקנים	-14996
▁הרפתקאות	-14997
▁האינפלציה	-14998
▁מוזיאונים	-14999
▁האנטישמיות	-15000
▁מהאוכלוסייה	-15001
0)	-15002
77	-15003
AA	-15004
Ad	-15005
Bl	-15006
EG	-15007
be	-15008
ָנ	-15009
ble	-15010
oth	-15011
ren	-15012
ִית	-15013
איג	-15014
המו	-15015
יצר	-15016
ליב	-15017
נקס	-15018
סטו	-15019
קוק	-15020
רחת	-15021
▁(7	-15022
▁53	-15023
▁SS	-15024
coin	-15025
גדלת	-15026
וטין	-15027
וללת	-15028
חוות	-15029
ליין	-15030
למדו	-15031
מדוע	-15032
מקום	-15033
נטרא	-15034
עיית	-15035
צלחת	-15036
▁700	-15037
▁80%	-15038
▁Bro	-15039
▁אקס	-15040
▁בחג	-15041
▁דוק	-15042
▁הסל	-15043
▁ויז	-15044
▁זאב	-15045
▁יקי	-15046
▁לדף	-15047
▁מאפ	-15048
▁מגר	-15049
▁מזכ	-15050
▁פער	-15051
▁שוו	-15052
בולנס	-15053
בעיות	-15054
נמיקה	-15055
פגנות	-15056
▁אחלה	-15057
▁דינו	-15058
▁האפל	-15059
▁המכר	-15060
▁הסוס	-15061
▁הרחם	-15062
▁הרצי	-15063
▁והתע	-15064
▁ולהג	-15065
▁חצות	-15066
▁יורה	-15067
▁כדרך	-15068
▁לאבא	-15069
▁להפך	-15070
▁להשפ	-15071
▁להשק	-15072
▁לחיס	-15073
▁לכסף	-15074
▁מארה	-15075
▁מודי	-15076
▁מלחי	-15077
▁מעתה	-15078
▁מקדם	-15079
▁משחר	-15080
▁מתלב	-15081
▁נאבק	-15082
▁סווי	-15083
▁סופו	-15084
▁סטאר	-15085
▁סיפק	-15086
▁עמוס	-15087
▁פלוס	-15088
▁פרסי	-15089
▁קובי	-15090
▁שבאו	-15091
▁שכלל	-15092
▁שנוס	-15093
בנציונ	-15094
גרירות	-15095
ואיציה	-15096
ונתיים	-15097
מוטטות	-15098
קטיקות	-15099
▁2007,	-15100
▁Black	-15101
▁Group	-15102
▁Power	-15103
▁במפעל	-15104
▁בעמדה	-15105
▁האבוד	-15106
▁האגדה	-15107
▁האסון	-15108
▁האצבע	-15109
▁המצרי	-15110
▁הפרדה	-15111
▁הפשוט	-15112
▁הרוצח	-15113
▁ובדרך	-15114
▁יושבת	-15115
▁לאהבה	-15116
▁למילי	-15117
▁מוטלת	-15118
▁ממזרח	-15119
▁מתקבל	-15120
▁מתקפה	-15121
▁עדשות	-15122
▁פקודה	-15123
▁פרישה	-15124
▁רוסים	-15125
▁שאותם	-15126
▁שגויה	-15127
▁שהגוף	-15128
▁שונאת	-15129
▁שחקני	-15130
▁תירוץ	-15131
▁Center	-15132
▁ברפואה	-15133
▁דיאלוג	-15134
▁הפשוטה	-15135
▁הרוחות	-15136
▁השמיני	-15137
▁התסריט	-15138
▁חולמים	-15139
▁כאמצעי	-15140
▁להיזהר	-15141
▁לתנאים	-15142
▁משכנתא	-15143
▁נתקלים	-15144
▁פצועים	-15145
▁קומוני	-15146
▁רעידות	-15147
▁שוחררו	-15148
▁תורמים	-15149
▁אנושיות	-15150
▁במחירים	-15151
▁ההישגים	-15152
▁ההלוואה	-15153
▁המלאכים	-15154
▁המתחרים	-15155
▁הפעילים	-15156
▁השמונים	-15157
▁חלבונים	-15158
▁לגבולות	-15159
▁לימודיו	-15160
▁ללימודי	-15161
▁מצוינים	-15162
▁מתמטיקה	-15163
▁מתעוררת	-15164
▁פעילותו	-15165
▁תיקונים	-15166
▁בהשתתפות	-15167
▁המסורתית	-15168
▁הפופולרי	-15169
▁וארגונים	-15170
▁אפליקציות	-15171
ֶץ	-15172
▁<	-15173
Com	-15174
אוט	-15175
גבר	-15176
גלס	-15177
ילם	-15178
מונ	-15179
רזי	-15180
▁!!	-15181
▁IN	-15182
▁le	-15183
ates	-15184
form	-15185
בושה	-15186
ונכם	-15187
וסין	-15188
יתור	-15189
למית	-15190
מינל	-15191
מלות	-15192
שאית	-15193
▁Mag	-15194
▁בבה	-15195
▁בתנ	-15196
▁ותש	-15197
▁לגל	-15198
▁קלו	-15199
▁שנט	-15200
▁תכנ	-15201
אמרתי	-15202
ורקית	-15203
יהנום	-15204
ראיין	-15205
▁1948	-15206
▁1967	-15207
▁Good	-15208
▁אצלך	-15209
▁אראה	-15210
▁בהנה	-15211
▁גלגל	-15212
▁הגרו	-15213
▁הטקס	-15214
▁המשל	-15215
▁הפין	-15216
▁ויפה	-15217
▁ורוד	-15218
▁זהיר	-15219
▁כחצי	-15220
▁כשלא	-15221
▁לבסס	-15222
▁לכפר	-15223
▁ללחץ	-15224
▁לפרש	-15225
▁מסין	-15226
▁מפיק	-15227
▁סכין	-15228
▁עצרו	-15229
▁קנאה	-15230
▁רוחב	-15231
▁שחזר	-15232
▁ששום	-15233
וליווד	-15234
פעילים	-15235
קטטורה	-15236
▁Manag	-15237
▁אבחון	-15238
▁אונים	-15239
▁אחזור	-15240
▁במאות	-15241
▁במלוא	-15242
▁בתוכה	-15243
▁בתערו	-15244
▁החזרת	-15245
▁הכינו	-15246
▁העובר	-15247
▁הרעים	-15248
▁התפטר	-15249
▁וביקש	-15250
▁חולשה	-15251
▁יבינו	-15252
▁ימצאו	-15253
▁למקור	-15254
▁לעזרת	-15255
▁מיזוג	-15256
▁מכובד	-15257
▁משחקת	-15258
▁נפגעו	-15259
▁סגורה	-15260
▁עיכוב	-15261
▁קרבות	-15262
▁שידור	-15263
▁תוכנן	-15264
ומיניום	-15265
▁System	-15266
▁במימון	-15267
▁בפנינו	-15268
▁בפשטות	-15269
▁ברצוני	-15270
▁ברצועת	-15271
▁בשינוי	-15272
▁המיקרו	-15273
▁הסחורה	-15274
▁הקניות	-15275
▁הרלוונ	-15276
▁התכוון	-15277
▁ולגרום	-15278
▁ושלושה	-15279
▁חומצות	-15280
▁למגוון	-15281
▁לרוסיה	-15282
▁לרעיון	-15283
▁לתנועה	-15284
▁מחבלים	-15285
▁מחויבת	-15286
▁מרכזית	-15287
▁מתפתחת	-15288
▁ניקיון	-15289
▁נכנסתי	-15290
▁שבעולם	-15291
▁שולטים	-15292
▁באליפות	-15293
▁במכירות	-15294
▁בסיסיות	-15295
▁האצבעות	-15296
▁ההופעות	-15297
▁המוסלמי	-15298
▁לפרויקט	-15299
▁מגוונים	-15300
▁מסחריים	-15301
▁עיתונים	-15302
▁שמאחורי	-15303
▁החיצונית	-15304
▁המוקדמים	-15305
▁המרכזיות	-15306
▁השיעורים	-15307
▁פילוסופיה	-15308
▁ההתנחלויות	-15309
▁הטכנולוגיות	-15310
05	-15311
65	-15312
:"	-15313
BO	-15314
OP	-15315
TV	-15316
ck	-15317
we	-15318
הז	-15319
הכ	-15320
שְ	-15321
erv	-15322
ham	-15323
oph	-15324
pen	-15325
ּוּ	-15326
אלא	-15327
ואז	-15328
קיפ	-15329
רנו	-15330
▁(9	-15331
▁47	-15332
▁Do	-15333
▁רך	-15334
ript	-15335
אותה	-15336
בחים	-15337
ושבת	-15338
טאים	-15339
יידס	-15340
יימי	-15341
ירתי	-15342
יתוך	-15343
נעים	-15344
עדכן	-15345
▁25%	-15346
▁CBD	-15347
▁Met	-15348
▁Mon	-15349
▁Vis	-15350
▁בגד	-15351
▁בקש	-15352
▁דיו	-15353
▁הנך	-15354
▁וגו	-15355
▁זיו	-15356
▁חשף	-15357
▁יזם	-15358
▁לחק	-15359
▁משו	-15360
▁נמס	-15361
▁סלע	-15362
▁צפה	-15363
▁רמי	-15364
▁שעם	-15365
-2008	-15366
חלטתי	-15367
כוונה	-15368
לאומי	-15369
מעולם	-15370
נוחות	-15371
שווית	-15372
שלנות	-15373
▁1994	-15374
▁post	-15375
▁בטוב	-15376
▁בילה	-15377
▁בילי	-15378
▁דואג	-15379
▁דתות	-15380
▁הדוד	-15381
▁החסי	-15382
▁השתת	-15383
▁וחיי	-15384
▁וקרא	-15385
▁יזכה	-15386
▁ישבו	-15387
▁כיהן	-15388
▁כללו	-15389
▁לובש	-15390
▁לחשב	-15391
▁לנפש	-15392
▁לשטח	-15393
▁מדגם	-15394
▁נהגו	-15395
▁נקמה	-15396
▁נרשם	-15397
▁פיסת	-15398
▁שווא	-15399
▁שסיי	-15400
▁תגוב	-15401
▁תומס	-15402
▁תלות	-15403
ילבניה	-15404
פורמות	-15405
▁אֱלֹה	-15406
▁בגדול	-15407
▁גורלו	-15408
▁הגבעה	-15409
▁החיוך	-15410
▁החשוד	-15411
▁היוצר	-15412
▁המהות	-15413
▁המשקה	-15414
▁הסיום	-15415
▁השאיר	-15416
▁התקנת	-15417
▁יצאנו	-15418
▁לאתגר	-15419
▁לגבול	-15420
▁להזין	-15421
▁להפיל	-15422
▁לחייו	-15423
▁למראה	-15424
▁לצבור	-15425
▁לצרוך	-15426
▁לרדוף	-15427
▁מהיכן	-15428
▁מיתוס	-15429
▁משלחת	-15430
▁משמאל	-15431
▁משנות	-15432
▁נטילת	-15433
▁ספינה	-15434
▁עבורה	-15435
▁עברית	-15436
▁קטלני	-15437
▁שיצאו	-15438
▁שכתוב	-15439
▁שנכתב	-15440
▁תסתכל	-15441
▁תצוגה	-15442
▁Health	-15443
▁iPhone	-15444
▁איזשהו	-15445
▁בהחלטה	-15446
▁במעבדה	-15447
▁במשותף	-15448
▁בנושאי	-15449
▁הביקוש	-15450
▁החתימה	-15451
▁המימון	-15452
▁המצרים	-15453
▁הרצועה	-15454
▁התשעים	-15455
▁כדורים	-15456
▁לאיכות	-15457
▁להחלטה	-15458
▁להירדם	-15459
▁להסתגל	-15460
▁להסתמך	-15461
▁להפגין	-15462
▁להתרגל	-15463
▁לשמירה	-15464
▁לתושבי	-15465
▁מוגנים	-15466
▁מיניות	-15467
▁רשומות	-15468
▁בטורקיה	-15469
▁המקורות	-15470
▁הרחובות	-15471
▁התעשיית	-15472
▁למועדון	-15473
▁עיקריות	-15474
▁פורטוגל	-15475
▁פחמימות	-15476
▁המיוחדים	-15477
▁ויקטוריה	-15478
▁יצירתיים	-15479
▁להתנהגות	-15480
▁נפוליאון	-15481
▁דיגיטליים	-15482
";	-15483
32	-15484
38	-15485
:4	-15486
CH	-15487
ְד	-15488
[2]	-15489
che	-15490
irl	-15491
now	-15492
rol	-15493
אלץ	-15494
בגר	-15495
בלב	-15496
וגם	-15497
טלס	-15498
כוך	-15499
כמי	-15500
ליד	-15501
מיס	-15502
סיף	-15503
עזר	-15504
▁52	-15505
בונה	-15506
זהרו	-15507
יאנג	-15508
יינט	-15509
ילוט	-15510
נבים	-15511
נוקת	-15512
פרטה	-15513
▁15.	-15514
▁2.5	-15515
▁Cor	-15516
▁Tra	-15517
▁דחה	-15518
▁וחד	-15519
▁זבל	-15520
▁יוס	-15521
▁ירה	-15522
▁כשש	-15523
▁לסק	-15524
▁מינ	-15525
▁צאצ	-15526
▁רהי	-15527
▁תפק	-15528
פולין	-15529
קולים	-15530
▁1944	-15531
▁Time	-15532
▁ברוק	-15533
▁בשכר	-15534
▁גדלו	-15535
▁הולם	-15536
▁המלי	-15537
▁הרעש	-15538
▁התלו	-15539
▁וחבר	-15540
▁טיפה	-15541
▁יגדל	-15542
▁ידעת	-15543
▁כללה	-15544
▁לחנך	-15545
▁למלך	-15546
▁לפקח	-15547
▁לשכב	-15548
▁מינה	-15549
▁סנטה	-15550
▁פרצה	-15551
▁צמוד	-15552
▁שטחי	-15553
▁שליח	-15554
▁שפעת	-15555
▁תואם	-15556
▁תובע	-15557
▁בחייך	-15558
▁בתוכי	-15559
▁גופני	-15560
▁האוסף	-15561
▁הבטחת	-15562
▁הגנרל	-15563
▁הומני	-15564
▁הזכיר	-15565
▁החושך	-15566
▁הטבות	-15567
▁המבקש	-15568
▁הנאום	-15569
▁הקורא	-15570
▁הקמתה	-15571
▁השמלה	-15572
▁השפות	-15573
▁ובאמת	-15574
▁ולספק	-15575
▁ורוצה	-15576
▁חידוש	-15577
▁חריפה	-15578
▁טיפוח	-15579
▁יוקרה	-15580
▁יחזרו	-15581
▁יספיק	-15582
▁ירגיש	-15583
▁כספית	-15584
▁להזיק	-15585
▁להמיר	-15586
▁להעיד	-15587
▁לחדור	-15588
▁למנות	-15589
▁לצרכי	-15590
▁מדגיש	-15591
▁מהעיר	-15592
▁ממקור	-15593
▁מסעות	-15594
▁מעלים	-15595
▁סוביי	-15596
▁סירבה	-15597
▁עליית	-15598
▁עניתי	-15599
▁קצרות	-15600
▁רובין	-15601
▁שאמרו	-15602
▁שזוהי	-15603
▁שמייצ	-15604
▁שעובר	-15605
▁איבדתי	-15606
▁בכתובת	-15607
▁במיקום	-15608
▁במלואו	-15609
▁בעייתי	-15610
▁בקידום	-15611
▁בשלטון	-15612
▁דמיינו	-15613
▁הימנית	-15614
▁הצוואר	-15615
▁התרגיל	-15616
▁ואמרתי	-15617
▁ולבנות	-15618
▁יתחילו	-15619
▁להדפיס	-15620
▁להינשא	-15621
▁להישמע	-15622
▁להתחמק	-15623
▁ללימוד	-15624
▁לרשימת	-15625
▁מכינים	-15626
▁מסייעת	-15627
▁נאמנים	-15628
▁נהדרים	-15629
▁סיגריה	-15630
▁סיפרתי	-15631
▁עולמות	-15632
▁תובנות	-15633
▁תשתיות	-15634
וציאליזם	-15635
▁באקדמיה	-15636
▁דמוקרטי	-15637
▁הוליווד	-15638
▁המסורתי	-15639
▁המשפחתי	-15640
▁יומיומי	-15641
▁לאזורים	-15642
▁לינקולן	-15643
▁ללונדון	-15644
▁למוצרים	-15645
▁מושפעים	-15646
▁ממשלתית	-15647
▁מסויימת	-15648
▁מסורתית	-15649
▁מסייעים	-15650
▁American	-15651
▁התכוונתי	-15652
▁התפקידים	-15653
▁פלטפורמה	-15654
▁איינשטיין	-15655
▁להתמודדות	-15656
▁אינטליגנציה	-15657
כד	-15658
▁’	-15659
ode	-15660
ole	-15661
בוז	-15662
בטח	-15663
בשה	-15664
לכן	-15665
▁**	-15666
▁99	-15667
▁UN	-15668
▁ו־	-15669
▁תט	-15670
raph	-15671
אתגר	-15672
האמת	-15673
חנות	-15674
חקרו	-15675
טיפה	-15676
יכול	-15677
כנעו	-15678
לטים	-15679
נדרה	-15680
נפים	-15681
ספרי	-15682
פיכה	-15683
פרנס	-15684
רגול	-15685
רכוש	-15686
▁2.2	-15687
▁Don	-15688
▁VPN	-15689
▁דפי	-15690
▁וממ	-15691
▁ושת	-15692
▁חפץ	-15693
▁חפש	-15694
▁כבן	-15695
▁נמד	-15696
▁עַל	-15697
▁פטר	-15698
▁פרה	-15699
▁תלך	-15700
-2014	-15701
אוריה	-15702
מטיים	-15703
נתוני	-15704
סטרים	-15705
עדפות	-15706
עוטים	-15707
פרסמו	-15708
שירות	-15709
▁Book	-15710
▁באול	-15711
▁דונם	-15712
▁דרכם	-15713
▁האמא	-15714
▁הגלק	-15715
▁הומו	-15716
▁החיי	-15717
▁החני	-15718
▁העצה	-15719
▁העתק	-15720
▁הקטל	-15721
▁הקפד	-15722
▁והפי	-15723
▁וטרי	-15724
▁ויום	-15725
▁זוהר	-15726
▁חזית	-15727
▁טניס	-15728
▁ירצו	-15729
▁כבני	-15730
▁לינה	-15731
▁לכלל	-15732
▁למתן	-15733
▁מיכל	-15734
▁מכות	-15735
▁קטעי	-15736
▁קיסר	-15737
▁קרני	-15738
▁רבין	-15739
▁רוצח	-15740
▁שהור	-15741
▁שילם	-15742
▁שקור	-15743
▁שרצה	-15744
דרדרות	-15745
חיילים	-15746
לויזיה	-15747
▁אומות	-15748
▁אישרה	-15749
▁בדברי	-15750
▁בחלקו	-15751
▁בידיו	-15752
▁בכתבה	-15753
▁בלבול	-15754
▁דתיות	-15755
▁המסיי	-15756
▁הסמוך	-15757
▁הצלחת	-15758
▁הקימה	-15759
▁והפעם	-15760
▁ומידע	-15761
▁לאסור	-15762
▁לחיצה	-15763
▁למדעי	-15764
▁לפצות	-15765
▁מאדים	-15766
▁מדיני	-15767
▁צוואר	-15768
▁קביעת	-15769
▁קומות	-15770
▁ריקים	-15771
▁שאינך	-15772
▁שגריר	-15773
▁שהמצב	-15774
▁תיכון	-15775
ספקטיבה	-15776
▁בהיותו	-15777
▁בוסטון	-15778
▁בסיבוב	-15779
▁בקמפוס	-15780
▁האיסור	-15781
▁האקדמי	-15782
▁ההשכלה	-15783
▁המדהים	-15784
▁המולדת	-15785
▁העתידי	-15786
▁הפלישה	-15787
▁השאירו	-15788
▁השלושה	-15789
▁התצוגה	-15790
▁וייתכן	-15791
▁ולתמיד	-15792
▁טבעיות	-15793
▁לשניים	-15794
▁מוניות	-15795
▁ממושכת	-15796
▁ממצרים	-15797
▁ממשלתי	-15798
▁עמוקים	-15799
▁צילומי	-15800
▁רומניה	-15801
▁האמבטיה	-15802
▁הלוחמים	-15803
▁המונחים	-15804
▁העוסקים	-15805
▁הערביות	-15806
▁השמאלית	-15807
▁התיירים	-15808
▁חלקיקים	-15809
▁מתוכננת	-15810
▁פיצויים	-15811
▁פרוייקט	-15812
▁פרסומות	-15813
▁שצריכים	-15814
▁בחופשיות	-15815
▁האידיאלי	-15816
▁ההתבגרות	-15817
▁השגרירות	-15818
▁התינוקות	-15819
▁מריחואנה	-15820
▁סוכנויות	-15821
▁אובייקטים	-15822
▁אינטנסיבי	-15823
▁המפורסמים	-15824
▁הפוליטיות	-15825
▁הפרויקטים	-15826
▁ההזדמנויות	-15827
▁פסיכולוגית	-15828
EM	-15829
OC	-15830
ae	-15831
bo	-15832
ta	-15833
ָע	-15834
10]	-15835
VPN	-15836
ral	-15837
גתו	-15838
הנה	-15839
ושש	-15840
לבן	-15841
נאל	-15842
ספט	-15843
עלת	-15844
פטו	-15845
▁72	-15846
▁85	-15847
▁he	-15848
▁ימ	-15849
▁כ־	-15850
[1].	-15851
itch	-15852
אלוג	-15853
דרלה	-15854
האדם	-15855
ומני	-15856
יאני	-15857
כניס	-15858
מוטט	-15859
ניעה	-15860
נקות	-15861
נשמה	-15862
פעלו	-15863
רומה	-15864
ריהם	-15865
רכתי	-15866
רצון	-15867
▁1.2	-15868
▁13.	-15869
▁360	-15870
▁Har	-15871
▁Int	-15872
▁אלך	-15873
▁אסט	-15874
▁ביו	-15875
▁ההם	-15876
▁הכה	-15877
▁ובפ	-15878
▁ויד	-15879
▁ליס	-15880
▁לרב	-15881
▁מהנ	-15882
▁פגש	-15883
▁קיד	-15884
▁רחל	-15885
▁שיס	-15886
בעלות	-15887
כורים	-15888
לוויה	-15889
מדובר	-15890
נחלות	-15891
▁1980	-15892
▁בברי	-15893
▁בגדר	-15894
▁בחנו	-15895
▁ברקע	-15896
▁גביע	-15897
▁האיי	-15898
▁הפיר	-15899
▁ודור	-15900
▁והסת	-15901
▁וירג	-15902
▁ולהס	-15903
▁ירדה	-15904
▁ככלי	-15905
▁לכלי	-15906
▁למאה	-15907
▁מאחד	-15908
▁מרוכ	-15909
▁עורר	-15910
▁קומפ	-15911
▁שכבה	-15912
▁שריר	-15913
▁2,000	-15914
▁Adobe	-15915
▁אליהו	-15916
▁באתרי	-15917
▁בגלוי	-15918
▁בחומר	-15919
▁ביקרו	-15920
▁בכלים	-15921
▁בסתיו	-15922
▁בראשו	-15923
▁ברדיו	-15924
▁ההורה	-15925
▁החוקר	-15926
▁הימני	-15927
▁המושל	-15928
▁העושר	-15929
▁הרצוי	-15930
▁חתיכת	-15931
▁יריות	-15932
▁לבלתי	-15933
▁לגבות	-15934
▁מופתע	-15935
▁מלפני	-15936
▁מקשיב	-15937
▁משולב	-15938
▁מתכון	-15939
▁תסריט	-15940
▁תצפית	-15941
▁תקציר	-15942
זולוציה	-15943
צירתיות	-15944
▁Associ	-15945
▁Global	-15946
▁אחריהם	-15947
▁במועצת	-15948
▁במחלות	-15949
▁דיונים	-15950
▁ההשראה	-15951
▁הועברו	-15952
▁המעסיק	-15953
▁הסודות	-15954
▁הסיסמה	-15955
▁העימות	-15956
▁הרגישה	-15957
▁התרומה	-15958
▁וילסון	-15959
▁ולמעשה	-15960
▁זרועות	-15961
▁להשכלה	-15962
▁להתלבש	-15963
▁מגדלים	-15964
▁מוגדרת	-15965
▁מחודשת	-15966
▁ממלאים	-15967
▁מעשנים	-15968
▁מרשימה	-15969
▁משכורת	-15970
▁נפגעים	-15971
▁עיקרון	-15972
▁עמיתים	-15973
▁ששמעתי	-15974
סטודנטים	-15975
▁בתרופות	-15976
▁הממוצעת	-15977
▁התקיימו	-15978
▁ולהמשיך	-15979
▁טריליון	-15980
▁למוסיקה	-15981
▁למשפטים	-15982
▁מעבירים	-15983
▁מפסיקים	-15984
▁עגבניות	-15985
▁שיכולות	-15986
▁תיאוריה	-15987
▁Institut	-15988
▁האוניברס	-15989
▁הדוקטורט	-15990
▁המאפשרים	-15991
▁ותוכניות	-15992
▁מרוויחים	-15993
▁הקואליציה	-15994
▁האופוזיציה	-15995
▁המעוניינים	-15996
DC	-15997
UR	-15998
ha	-15999
ms	-16000
ְי	-16001
▁׳	-16002
נקן	-16003
פאת	-16004
▁6,	-16005
▁et	-16006
▁טב	-16007
▁לִ	-16008
▁תנ	-16009
.[2]	-16010
ific	-16011
דולף	-16012
הארץ	-16013
זיון	-16014
מצאה	-16015
סלנד	-16016
שלמת	-16017
▁12.	-16018
▁ההמ	-16019
▁ונא	-16020
▁חרא	-16021
▁כעל	-16022
▁למל	-16023
▁עזי	-16024
▁צבי	-16025
▁שלש	-16026
ביבים	-16027
העולם	-16028
וללות	-16029
ומדות	-16030
מידים	-16031
מסונג	-16032
נוסים	-16033
פויים	-16034
צועות	-16035
▁High	-16036
▁Live	-16037
▁אבני	-16038
▁בזאת	-16039
▁בידע	-16040
▁בקטע	-16041
▁בקיר	-16042
▁בשיא	-16043
▁גלוב	-16044
▁המחו	-16045
▁הקרק	-16046
▁ובהם	-16047
▁ובעל	-16048
▁וויל	-16049
▁ויצא	-16050
▁ולהפ	-16051
▁ושלי	-16052
▁חלשה	-16053
▁יאמר	-16054
▁להחל	-16055
▁לכאב	-16056
▁לסגת	-16057
▁מההת	-16058
▁מילא	-16059
▁מנחה	-16060
▁מסדר	-16061
▁משוע	-16062
▁מתבו	-16063
▁נוסח	-16064
▁נשמר	-16065
▁פיתח	-16066
▁קרטר	-16067
▁רכשה	-16068
▁תרמו	-16069
עוררות	-16070
▁אוקיי	-16071
▁אושרה	-16072
▁אכזבה	-16073
▁אצטרך	-16074
▁באותן	-16075
▁במארס	-16076
▁במזון	-16077
▁דוגמת	-16078
▁הדיור	-16079
▁הועבר	-16080
▁החזיר	-16081
▁הטווח	-16082
▁הירדן	-16083
▁הכיתה	-16084
▁המחזה	-16085
▁העוגה	-16086
▁הצהוב	-16087
▁הרגלי	-16088
▁השפיע	-16089
▁התגור	-16090
▁ומאוד	-16091
▁וצוות	-16092
▁חדשני	-16093
▁כפיים	-16094
▁לוחמי	-16095
▁למעמד	-16096
▁לסיוע	-16097
▁לעקוף	-16098
▁לצעוד	-16099
▁לשנוא	-16100
▁מאידך	-16101
▁מודים	-16102
▁מוכרח	-16103
▁מותאם	-16104
▁מעריץ	-16105
▁מצלמת	-16106
▁מרצון	-16107
▁משמעת	-16108
▁מתקשר	-16109
▁נאלצה	-16110
▁נדרשו	-16111
▁נרחבת	-16112
▁סובלת	-16113
▁סטריט	-16114
▁פתיחה	-16115
▁קיצור	-16116
▁קרדיט	-16117
▁שביצע	-16118
▁תבנית	-16119
▁תקוות	-16120
▁2017).	-16121
▁בניסוי	-16122
▁בתזונה	-16123
▁הדירוג	-16124
▁ההתקנה	-16125
▁החולצה	-16126
▁הסטנדר	-16127
▁הפירות	-16128
▁וירקות	-16129
▁טיילור	-16130
▁להיעלם	-16131
▁לערבים	-16132
▁מצויים	-16133
▁משלושת	-16134
▁פתאומי	-16135
▁שהתרחש	-16136
▁שלמדתי	-16137
▁שלמרות	-16138
▁שניתנה	-16139
▁תאומים	-16140
▁במוסדות	-16141
▁בעבודות	-16142
▁בתקופות	-16143
▁האטלנטי	-16144
▁הגרעיני	-16145
▁הפקולטה	-16146
▁הציונות	-16147
▁ובוודאי	-16148
▁להסתיים	-16149
▁מתפללים	-16150
▁שקיבלתי	-16151
▁בעניינים	-16152
▁הציפורים	-16153
▁הרוחניים	-16154
▁ויטמינים	-16155
▁מתלוננים	-16156
▁אנטיביוטיקה	-16157
▁בטכנולוגיות	-16158
FC	-16159
UN	-16160
WS	-16161
ָי	-16162
ַּ	-16163
כט	-16164
ane	-16165
erg	-16166
ety	-16167
גיח	-16168
היי	-16169
התח	-16170
ודק	-16171
וצג	-16172
מרט	-16173
▁43	-16174
▁46	-16175
▁56	-16176
ents	-16177
ople	-16178
very	-16179
view	-16180
work	-16181
ֶיךָ	-16182
אנית	-16183
בשים	-16184
דונו	-16185
דעתם	-16186
ורגם	-16187
חסון	-16188
לתית	-16189
עילי	-16190
פסות	-16191
פתיה	-16192
קודם	-16193
רכון	-16194
▁Rec	-16195
▁Way	-16196
▁ברנ	-16197
▁וטר	-16198
▁חדה	-16199
▁טאי	-16200
▁לחו	-16201
▁ציר	-16202
▁צרכ	-16203
-2013	-16204
vious	-16205
איפות	-16206
גורית	-16207
זיקים	-16208
טריון	-16209
יהודי	-16210
יינית	-16211
ייסון	-16212
יתרון	-16213
מויים	-16214
פעולה	-16215
רחבות	-16216
שקעות	-16217
[...]
