<unk>	0
<s>	0
</s>	0
.	-3.23781
,	-3.44666
▁	-3.98202
ים	-4.06259
ה	-4.1133
▁ה	-4.19928
ת	-4.34186
▁של	-4.36038
▁את	-4.3966
ו	-4.45019
▁ב	-4.51943
▁ל	-4.64773
ות	-4.68093
י	-4.82645
▁לא	-4.85295
▁על	-4.88059
▁ו	-5.01436
▁מ	-5.03341
▁"	-5.21782
▁זה	-5.33669
"	-5.37057
?	-5.37785
▁הוא	-5.41952
▁מה	-5.46257
▁ש	-5.49659
:	-5.53774
ם	-5.58635
-	-5.63959
▁או	-5.69532
▁עם	-5.70035
▁כל	-5.74548
▁(	-5.86161
'	-5.91629
▁אני	-5.94604
ב	-5.95937
▁היא	-5.97348
▁יותר	-6.00154
▁יש	-6.02638
▁גם	-6.05292
נו	-6.05761
▁וה	-6.06765
".	-6.1339
ל	-6.14728
▁אם	-6.18826
▁כי	-6.19442
)	-6.19959
▁כ	-6.23903
▁לה	-6.2797
▁הם	-6.2813
▁היה	-6.28808
ר	-6.34355
▁אבל	-6.34948
ן	-6.35811
ית	-6.37094
▁שה	-6.37715
▁לי	-6.47219
▁-	-6.4794
▁כדי	-6.48236
▁להיות	-6.49787
▁–	-6.50484
▁המ	-6.51424
▁רק	-6.51778
▁ת	-6.55479
▁אחד	-6.57046
תי	-6.58924
▁כמו	-6.63603
▁יכול	-6.6448
ח	-6.64539
▁כך	-6.6806
ג	-6.68327
▁נ	-6.69125
▁אתה	-6.70921
▁י	-6.71634
▁ביותר	-6.79328
▁עד	-6.79559
▁זו	-6.79672
▁אל	-6.81207
▁וב	-6.81366
ך	-6.81426
▁שלך	-6.81473
s	-6.83735
ס	-6.84602
▁ול	-6.84646
יה	-6.84791
!	-6.86223
א	-6.86298
▁זאת	-6.88317
▁ג	-6.89202
ון	-6.92161
▁האם	-6.9353
▁מי	-6.93613
מ	-6.94465
▁אותו	-6.94751
▁ידי	-6.96792
ק	-6.97661
▁ומ	-6.97849
▁היו	-6.98313
▁א	-6.98965
▁הזה	-6.99517
▁אנחנו	-6.99558
▁בין	-7.00721
ד	-7.01569
▁בכל	-7.01576
יות	-7.01779
▁לו	-7.03041
▁שלי	-7.03579
▁שלנו	-7.03656
▁כמה	-7.04457
▁אין	-7.0678
▁מאוד	-7.07372
נה	-7.09618
▁לאחר	-7.12481
▁אז	-7.1318
▁לך	-7.14466
▁לפני	-7.14917
▁עבור	-7.16408
ני	-7.16724
▁אנשים	-7.17023
▁דבר	-7.17763
...	-7.18249
▁אך	-7.18697
ש	-7.20746
מה	-7.20814
▁לעשות	-7.21131
▁צריך	-7.22261
▁מת	-7.22847
▁עוד	-7.22918
ט	-7.24275
▁שהוא	-7.25001
▁לנו	-7.25649
▁ישראל	-7.25928
▁כבר	-7.26158
▁טוב	-7.27517
יו	-7.278
פי	-7.29168
▁בו	-7.29268
נ	-7.29331
▁איך	-7.29553
▁הרבה	-7.31047
ז	-7.31916
▁כאשר	-7.32473
▁הת	-7.32784
).	-7.33366
▁אחר	-7.34216
▁שלו	-7.34893
▁אשר	-7.35593
▁שלהם	-7.36076
▁אמר	-7.37626
▁באופן	-7.38048
▁אי	-7.38434
יים	-7.38665
▁אנו	-7.38698
",	-7.38925
▁שני	-7.39562
▁שמ	-7.39791
;	-7.3988
▁אלה	-7.39941
▁בה	-7.40048
כ	-7.403
▁במ	-7.41675
▁רוצה	-7.42252
▁שלא	-7.42438
▁היום	-7.42807
ור	-7.43464
▁אדם	-7.43771
▁שם	-7.44043
▁פי	-7.44455
▁שנים	-7.45197
ע	-7.45246
▁אתם	-7.45621
▁אחת	-7.45636
נים	-7.46553
מו	-7.46637
מי	-7.47082
▁ולא	-7.4977
או	-7.50843
פ	-7.5148
ף	-7.51658
▁שי	-7.51693
▁זמן	-7.52023
▁העולם	-7.5253
▁מספר	-7.52905
צ	-7.52979
▁ע	-7.53629
▁למ	-7.54927
▁חלק	-7.55378
▁כן	-7.55644
▁להם	-7.55967
▁19	-7.56066
▁שב	-7.56159
אני	-7.56612
▁כש	-7.56795
▁הייתה	-7.57041
▁“	-7.57055
▁שנ	-7.57825
▁יכולים	-7.57891
▁אותם	-7.57937
▁יום	-7.58896
▁יהיה	-7.59396
▁אחרי	-7.61125
▁לכל	-7.61272
▁שיש	-7.61432
זה	-7.61755
”	-7.61887
▁בית	-7.62152
▁שאני	-7.62938
לי	-7.6297
▁פעם	-7.6332
▁בשנת	-7.63886
▁ניתן	-7.64185
יש	-7.64409
▁כאן	-7.64547
▁שלכם	-7.64724
מים	-7.64847
כל	-7.64972
▁תמיד	-7.65158
▁אחרים	-7.65813
▁אף	-7.67752
▁מו	-7.68418
▁שהם	-7.6843
כם	-7.6875
▁רבים	-7.69055
▁אותה	-7.69142
לה	-7.70928
▁לב	-7.71122
▁'	-7.71185
y	-7.71344
רי	-7.71432
e	-7.71594
▁בעולם	-7.71917
▁משהו	-7.72076
▁אלא	-7.72441
▁למה	-7.72525
▁שנה	-7.7265
אי	-7.72861
מת	-7.73
▁בני	-7.73317
▁הנ	-7.73822
פת	-7.73837
▁ד	-7.75144
פו	-7.76849
▁הש	-7.77052
בר	-7.77067
▁אפשר	-7.771
▁עדיין	-7.77335
▁1	-7.77564
▁ללא	-7.77844
▁אומר	-7.7812
לא	-7.78123
▁הספר	-7.79545
▁ק	-7.80506
▁להת	-7.80752
▁לכם	-7.80881
ין	-7.81362
נות	-7.81463
▁דרך	-7.82092
▁עכשיו	-7.82286
."	-7.82694
▁לראות	-7.82771
לו	-7.83176
כו	-7.83402
קי	-7.83578
▁2	-7.8374
גר	-7.83742
▁פשוט	-7.8375
▁באמת	-7.83787
▁הכל	-7.84069
▁מדי	-7.84601
כי	-7.85153
קו	-7.85435
▁הראשון	-7.855
יר	-7.8613
▁ח	-7.86831
▁במהלך	-7.86908
מן	-7.86943
▁צ	-7.871
▁אותי	-7.87419
על	-7.87718
▁ס	-7.87995
▁בא	-7.87996
▁הס	-7.88004
▁3	-7.88348
▁אפילו	-7.88382
פר	-7.89139
▁שאתה	-7.89694
▁הזמן	-7.89793
▁אולי	-7.89901
▁הכי	-7.90298
נת	-7.90393
מר	-7.90717
▁האדם	-7.90954
▁ואת	-7.91003
▁בבית	-7.91073
▁חשוב	-7.91357
▁די	-7.92059
/	-7.92577
▁שזה	-7.9271
▁יודע	-7.92718
רה	-7.9295
▁חיים	-7.93441
]	-7.93493
ום	-7.93869
▁הן	-7.94281
▁בדרך	-7.94508
רו	-7.94732
▁הו	-7.94897
טי	-7.94918
בי	-7.9525
▁S	-7.9536
▁החיים	-7.95688
▁כלל	-7.96388
ינו	-7.96498
▁באמצעות	-7.96719
וס	-7.96881
▁הח	-7.969
אל	-7.97373
וני	-7.97572
),	-7.9759
פה	-7.97962
צה	-7.98185
רת	-7.98649
o	-7.99449
תם	-7.99486
▁שבו	-7.99663
▁מקום	-8.00567
▁מס	-8.00582
כה	-8.00705
▁לש	-8.01107
▁A	-8.01348
מות	-8.0144
▁הא	-8.02112
▁היתה	-8.02265
▁שוב	-8.02917
דה	-8.03087
יק	-8.03172
▁אינו	-8.03611
▁ונ	-8.03883
▁שת	-8.0459
חת	-8.04624
▁ולה	-8.04676
▁גדול	-8.04685
▁רוצים	-8.05382
▁מאז	-8.05463
▁שהיא	-8.05821
פים	-8.06211
▁נראה	-8.07117
▁נגד	-8.07562
תו	-8.07664
בה	-8.07721
▁קשה	-8.07955
▁צריכים	-8.08383
C	-8.08984
▁שלה	-8.09013
▁הראשונה	-8.09026
▁לקבל	-8.09396
רים	-8.09542
▁כיצד	-8.09704
▁הייתי	-8.10021
▁דברים	-8.10327
▁הזו	-8.11464
▁במקום	-8.11476
▁קל	-8.11478
▁בת	-8.11733
▁אלו	-8.11976
▁כפי	-8.12017
נית	-8.12179
נט	-8.12559
ונים	-8.12877
▁האלה	-8.13428
קס	-8.13719
יהם	-8.14045
▁במשך	-8.1431
▁C	-8.14353
▁המו	-8.14492
?"	-8.14542
er	-8.14587
▁רב	-8.14625
כים	-8.14653
יט	-8.15109
בו	-8.15339
▁מן	-8.15391
▁ממש	-8.15468
▁השני	-8.15539
ול	-8.15821
כת	-8.15829
דר	-8.16406
▁אלוהים	-8.16458
▁ספר	-8.16542
▁פחות	-8.16559
▁כמעט	-8.16754
▁שתי	-8.1678
▁רוב	-8.16868
▁בלי	-8.17233
S	-8.17247
▁4	-8.17269
סי	-8.17306
▁הדבר	-8.17339
-19	-8.17464
▁החברה	-8.17937
▁ילדים	-8.18077
▁יכולה	-8.18802
וק	-8.18857
▁לפי	-8.19092
גו	-8.20279
שה	-8.20333
▁בן	-8.20407
M	-8.20569
n	-8.20782
מד	-8.20833
▁עצמו	-8.20924
al	-8.21066
▁וי	-8.21233
▁ט	-8.21251
▁5	-8.21281
וב	-8.21427
▁חדש	-8.21578
פל	-8.21589
’	-8.2191
ונות	-8.2198
טו	-8.22485
▁פ	-8.22731
▁מידע	-8.22737
די	-8.23146
צו	-8.23683
▁נמצא	-8.23775
▁B	-8.24945
i	-8.2496
P	-8.25252
▁עושה	-8.25542
▁ר	-8.25917
נק	-8.26065
▁כולל	-8.2615
▁בתוך	-8.26407
▁F	-8.26694
ְ	-8.26829
▁אותך	-8.26853
▁מיליון	-8.26962
t	-8.2697
▁הברית	-8.27351
▁לכן	-8.27404
▁המדינה	-8.27473
▁נכון	-8.2748
יל	-8.27513
▁עבודה	-8.2789
▁יי	-8.27932
▁מהם	-8.28525
▁האי	-8.28661
▁לדעת	-8.28779
יד	-8.28811
D	-8.28867
▁בדיוק	-8.29103
▁רבות	-8.29221
▁שום	-8.2938
אן	-8.29388
▁לגבי	-8.2942
▁למצוא	-8.29483
▁בגלל	-8.29706
▁קו	-8.29756
▁סי	-8.29857
▁וש	-8.30046
▁העיר	-8.30524
▁למרות	-8.30842
▁שונים	-8.30985
▁בלתי	-8.31112
▁כולם	-8.31297
▁בזמן	-8.31372
עת	-8.316
עד	-8.31702
00	-8.31886
▁ביום	-8.32066
▁מש	-8.32151
▁הג	-8.3222
g	-8.3223
▁בעלי	-8.32261
גן	-8.32924
וט	-8.33019
קל	-8.33254
▁מכל	-8.33326
ידי	-8.33344
▁מתוך	-8.33413
יס	-8.33424
A	-8.33431
▁ז	-8.3346
▁חושב	-8.33701
כות	-8.3389
▁וגם	-8.34166
▁במיוחד	-8.34242
▁חי	-8.34263
שת	-8.34403
▁וזה	-8.34551
▁להשתמש	-8.34752
▁הזאת	-8.34837
ונה	-8.35048
ווי	-8.35064
▁ואני	-8.35263
▁לכך	-8.35408
▁ראש	-8.35859
▁10	-8.35956
▁תהיה	-8.36012
1	-8.36037
B	-8.36062
▁אחרת	-8.3607
▁והוא	-8.36208
▁השנה	-8.36351
ָ	-8.36442
▁המת	-8.36509
u	-8.36599
▁הק	-8.36714
קה	-8.36772
בל	-8.36855
אות	-8.36956
▁יו	-8.36959
חל	-8.37257
וש	-8.3734
אר	-8.37397
יך	-8.37413
▁מספיק	-8.37925
יי	-8.38186
▁בצורה	-8.38391
▁העבודה	-8.38853
מש	-8.39037
▁שר	-8.39077
▁קצת	-8.39288
ing	-8.39362
T	-8.39524
אם	-8.39554
▁יחד	-8.39601
של	-8.39653
▁יודעים	-8.3973
נג	-8.3978
E	-8.40222
▁להי	-8.40494
כנס	-8.40505
▁כזה	-8.40522
▁P	-8.40688
רד	-8.4093
יג	-8.41203
▁עליו	-8.41746
L	-8.4181
יום	-8.41851
a	-8.41903
צי	-8.42269
▁לפחות	-8.42561
I	-8.42671
▁T	-8.42807
כן	-8.42922
▁מעל	-8.42996
ּ	-8.43038
▁דולר	-8.43486
▁מאשר	-8.43765
בת	-8.43937
▁בהם	-8.44007
נא	-8.44108
▁מנת	-8.44443
2	-8.4458
צל	-8.4486
▁שאנחנו	-8.45306
▁כיום	-8.45864
▁מדוע	-8.46198
▁לדבר	-8.46239
▁קשר	-8.46513
▁תו	-8.46588
▁מערכת	-8.46664
re	-8.467
נס	-8.46739
▁הדברים	-8.46762
ץ	-8.47192
▁G	-8.47217
סט	-8.47391
▁בר	-8.47509
in	-8.47635
▁אותנו	-8.47912
▁תוך	-8.47986
▁בלבד	-8.48066
▁להגיע	-8.48085
חו	-8.4823
▁להבין	-8.48567
▁הבית	-8.48924
▁שעות	-8.48981
▁הדרך	-8.49018
▁הבא	-8.49061
לים	-8.491
▁מלא	-8.49111
▁בישראל	-8.49199
▁[	-8.4945
▁לח	-8.49624
עה	-8.49909
▁הרי	-8.49996
שר	-8.50296
▁שאתם	-8.50399
פס	-8.50557
▁נשים	-8.50609
▁טובה	-8.50706
G	-8.50904
▁מישהו	-8.50989
▁ואז	-8.51089
▁החוק	-8.51154
▁מצב	-8.51164
▁אינם	-8.51226
▁18	-8.51316
▁ועל	-8.5132
▁ימים	-8.51494
רס	-8.51648
מל	-8.51936
▁כסף	-8.52236
רח	-8.52335
חי	-8.5275
▁M	-8.52788
▁איש	-8.52856
▁מר	-8.52922
▁לקחת	-8.53324
▁שא	-8.53426
שו	-8.53553
אה	-8.5363
▁החל	-8.54063
▁האו	-8.54236
▁מכן	-8.54336
ורה	-8.54366
שי	-8.54774
▁פני	-8.54986
▁הגדול	-8.55441
▁בעוד	-8.55543
▁...	-8.5575
▁מעט	-8.55955
▁בעל	-8.55979
▁עושים	-8.56001
ינה	-8.56036
פור	-8.56129
▁בנוסף	-8.56534
וג	-8.56551
▁אחרות	-8.56599
▁H	-8.56617
־	-8.56627
ווה	-8.5668
▁אינה	-8.56784
F	-8.56923
▁ברור	-8.56975
m	-8.57017
▁כמובן	-8.57024
▁שימוש	-8.57135
▁בשביל	-8.5728
ייה	-8.57439
▁הללו	-8.57456
ירה	-8.57463
ַ	-8.57569
הם	-8.57754
טל	-8.57785
▁חייב	-8.58065
c	-8.58143
▁למעשה	-8.582
or	-8.58217
רות	-8.5842
▁ני	-8.58445
וע	-8.58458
ויות	-8.58463
▁6	-8.58671
▁E	-8.58675
▁ללמוד	-8.58708
▁לעבוד	-8.58722
לב	-8.58759
▁ומה	-8.58854
k	-8.58859
▁לתת	-8.58918
יז	-8.59093
w	-8.59116
ער	-8.59184
דו	-8.59337
▁הע	-8.5934
▁אצל	-8.5952
▁הארץ	-8.59583
R	-8.59775
▁D	-8.59888
▁לעולם	-8.5989
O	-8.59893
▁בעיקר	-8.60038
כר	-8.60042
טע	-8.6017
▁הפ	-8.60372
an	-8.60701
▁הר	-8.60748
▁דו	-8.60829
▁ילד	-8.60969
וז	-8.61193
ar	-8.61208
▁גר	-8.61263
פות	-8.61747
▁הממשלה	-8.61831
▁The	-8.61879
▁מזה	-8.61946
נר	-8.62259
▁לס	-8.62283
▁אר	-8.62429
▁האנשים	-8.6245
▁מח	-8.62597
en	-8.62824
5	-8.6316
קט	-8.63401
עות	-8.63448
▁נוסף	-8.63634
פק	-8.63734
r	-8.6378
▁ידע	-8.63802
בות	-8.6385
▁המשפט	-8.63952
▁of	-8.63993
▁סוף	-8.6411
p	-8.64125
ִ	-8.64242
l	-8.64297
▁תחת	-8.64307
▁רע	-8.64481
▁לעזור	-8.64693
▁כשה	-8.64925
גע	-8.64995
3	-8.65054
▁7	-8.65067
▁פעמים	-8.65091
טר	-8.65133
ימה	-8.65678
▁מדובר	-8.65792
▁בפני	-8.66054
st	-8.66088
▁שהיה	-8.66163
ומים	-8.66255
▁אוהב	-8.66263
▁לומר	-8.66473
▁קר	-8.66535
עו	-8.66612
יית	-8.66678
▁אולם	-8.66713
▁באתר	-8.66953
▁בכלל	-8.66964
▁אש	-8.67013
▁8	-8.67252
▁מול	-8.67255
נד	-8.67305
▁כה	-8.67323
▁כתב	-8.67366
▁קודם	-8.67722
▁בשל	-8.67788
קים	-8.67831
▁כוח	-8.67887
▁דקות	-8.68106
▁/	-8.68253
▁סוג	-8.68387
▁חיי	-8.68478
▁האחרון	-8.68537
▁אור	-8.68659
▁השנים	-8.69011
אט	-8.69199
ספק	-8.69225
רגש	-8.69275
ינים	-8.69414
▁מחדש	-8.69438
▁ליצור	-8.69532
▁יהיו	-8.69563
▁רואה	-8.69656
נח	-8.69877
▁מחקר	-8.69887
מא	-8.69955
רג	-8.70061
▁שש	-8.70286
▁גדולה	-8.70554
▁N	-8.70676
ro	-8.7081
וד	-8.71049
טור	-8.71094
▁הילדים	-8.71128
▁פעולה	-8.71399
יני	-8.71443
סטר	-8.71529
בור	-8.71541
▁פה	-8.71584
▁הסרט	-8.71611
20	-8.71651
מס	-8.71844
▁וא	-8.72326
▁ככל	-8.72438
▁צריכה	-8.7252
▁לבית	-8.72642
▁באזור	-8.72728
▁גיל	-8.72856
▁קרובות	-8.7319
את	-8.73269
le	-8.73329
▁נוספים	-8.73332
▁מא	-8.73693
▁שלוש	-8.73789
H	-8.73934
זי	-8.74017
צא	-8.74144
רש	-8.74168
ירות	-8.74191
▁בי	-8.74267
▁בתחום	-8.74418
it	-8.74427
is	-8.74509
כול	-8.74714
טה	-8.74716
▁שכל	-8.7483
▁בכך	-8.75167
N	-8.75231
f	-8.75362
▁הגוף	-8.75413
רק	-8.75502
גל	-8.75639
▁הילד	-8.7581
▁למשל	-8.7596
עים	-8.76021
ראה	-8.76176
▁שאין	-8.76193
b	-8.76316
דק	-8.76331
ed	-8.76395
▁חדשים	-8.7642
▁ספק	-8.7651
רון	-8.7661
▁חודשים	-8.7673
▁כאלה	-8.76933
▁צורך	-8.77082
▁איזה	-8.77088
▁לע	-8.77201
▁עשוי	-8.77262
צר	-8.77276
▁קול	-8.77343
עוד	-8.77582
▁כעת	-8.77658
שות	-8.77823
▁שונות	-8.77831
▁מדינות	-8.77902
▁בטוח	-8.7797
▁עובד	-8.7802
▁סביב	-8.78123
▁ארה	-8.78366
▁גו	-8.78511
לח	-8.78585
▁שנת	-8.78733
יע	-8.7879
▁טיפול	-8.78805
▁20	-8.79232
▁ברחבי	-8.7931
▁שבה	-8.7952
לות	-8.79737
דור	-8.79793
▁שלושה	-8.79813
▁עצמי	-8.79905
ri	-8.79918
▁החדש	-8.79935
▁סו	-8.79961
בש	-8.80057
▁הצ	-8.80142
שוב	-8.80341
יץ	-8.80755
▁באותו	-8.80864
▁מפני	-8.80873
▁I	-8.8102
▁הגיע	-8.81074
▁קטן	-8.812
▁ללכת	-8.81452
▁קורה	-8.81673
▁משום	-8.81803
בא	-8.81877
▁כגון	-8.81987
זו	-8.82099
▁באות	-8.82164
▁מקור	-8.82422
▁לאורך	-8.8244
ורים	-8.82558
▁האמת	-8.82603
▁בנושא	-8.82675
▁מגיע	-8.82722
4	-8.82743
▁לעתים	-8.83018
ניות	-8.83128
▁הטוב	-8.83344
▁קרוב	-8.83472
▁שונה	-8.83661
on	-8.83884
▁בסדר	-8.8415
▁ויש	-8.84348
W	-8.84474
▁בשנה	-8.84533
מצא	-8.84557
▁לזה	-8.8464
▁חברת	-8.8467
▁לשמור	-8.84793
▁L	-8.848
▁בקרב	-8.84902
▁ידוע	-8.84933
▁קצר	-8.84997
▁חדשה	-8.85322
בול	-8.85668
▁האל	-8.85784
▁להשיג	-8.85812
▁מאד	-8.8584
▁ולכן	-8.8589
יפה	-8.86108
בן	-8.86126
קבל	-8.86129
שים	-8.86208
▁וכל	-8.86358
וף	-8.86362
חיל	-8.8641
ורג	-8.86434
▁משחק	-8.8651
▁הט	-8.8669
▁חו	-8.86716
ֶ	-8.86745
▁מכ	-8.86786
0	-8.86919
▁לפעמים	-8.86954
▁לבד	-8.87008
צים	-8.87513
▁שכ	-8.87827
▁לקרוא	-8.87936
כס	-8.8798
▁שינוי	-8.88004
מור	-8.88095
▁זהו	-8.88109
ch	-8.88123
▁להפוך	-8.88346
d	-8.88434
▁נשאר	-8.88434
▁מעבר	-8.88554
ילי	-8.88576
▁the	-8.88596
▁שמו	-8.88615
▁מג	-8.88638
▁ממנו	-8.88761
▁חבר	-8.88825
▁סיפור	-8.89489
▁גבוה	-8.8953
▁לשנות	-8.89603
▁הלב	-8.89742
▁ארצות	-8.89772
▁תפקיד	-8.89834
▁המצב	-8.89834
גול	-8.89869
▁מיד	-8.89949
▁לחלוטין	-8.90009
רצו	-8.90149
בים	-8.90337
▁W	-8.9035
▁15	-8.90379
▁בידי	-8.90414
▁שהו	-8.90439
זר	-8.90556
עבור	-8.90815
קר	-8.9082
▁שאלה	-8.90882
▁נכנס	-8.90947
▁בתי	-8.90959
▁שנות	-8.90987
▁לבצע	-8.91182
▁לבין	-8.91334
גי	-8.91369
ic	-8.91394
אדם	-8.91504
ומי	-8.91542
עמ	-8.91582
▁המשחק	-8.916
▁שמח	-8.91629
▁שאנו	-8.9179
▁פר	-8.91821
▁לחשוב	-8.92112
▁בש	-8.9229
▁היחיד	-8.92467
▁בעבר	-8.9268
״	-8.92696
▁כנראה	-8.9275
נטי	-8.92825
שם	-8.93124
▁ליד	-8.9326
▁בחיים	-8.93378
▁מאות	-8.93481
▁בגיל	-8.93484
▁מתחיל	-8.9349
▁חברות	-8.93502
▁חל	-8.93587
▁לחיות	-8.93644
▁תי	-8.93791
▁נש	-8.939
h	-8.93981
▁הולך	-8.94151
ra	-8.94168
▁פעילות	-8.94301
פול	-8.94341
▁עובדים	-8.94419
ספר	-8.94577
ורי	-8.94589
▁במקרה	-8.94893
סל	-8.94908
יקה	-8.94971
▁זכויות	-8.95018
▁12	-8.95043
▁רגע	-8.95075
▁מצד	-8.95159
”.	-8.95188
ילה	-8.9525
▁מאוחר	-8.95288
▁בסוף	-8.95356
ניים	-8.95379
▁מל	-8.95392
x	-8.95441
▁מצ	-8.95619
-20	-8.95747
▁בשם	-8.95794
es	-8.95815
▁פל	-8.95909
▁רכב	-8.9591
▁הפר	-8.95951
מנו	-8.96082
כנ	-8.9614
▁מתי	-8.96148
▁חוק	-8.96261
וּ	-8.96284
▁השנייה	-8.96303
▁המחקר	-8.96432
▁כאילו	-8.96462
▁9	-8.96635
▁אליו	-8.9665
▁רואים	-8.96822
יון	-8.96865
at	-8.97045
▁לק	-8.97049
▁לג	-8.97112
[	-8.97182
▁תש	-8.97516
▁אוכל	-8.97526
▁האחרונות	-8.97593
us	-8.97602
ולי	-8.9761
▁אישי	-8.97635
דים	-8.97729
חזר	-8.97771
▁והיא	-8.97879
חס	-8.97908
▁המשפחה	-8.97922
אז	-8.98157
▁משנה	-8.98384
טון	-8.98462
▁בעיות	-8.98597
▁יד	-8.98723
▁נא	-8.98783
פט	-8.98834
עסק	-8.98849
יב	-8.98919
רוח	-8.98935
ינג	-8.99006
▁הנה	-8.99144
il	-8.99392
ֵ	-8.99496
סון	-8.99523
רט	-8.99595
▁מדבר	-8.99715
▁אתכם	-8.99751
U	-8.99775
עשי	-8.99859
רע	-8.99878
▁תודה	-8.99997
זכר	-9.00003
לס	-9.00067
אור	-9.00094
▁אמרה	-9.00109
מני	-9.0014
בטח	-9.00213
▁יורק	-9.00232
ורד	-9.00313
▁ממ	-9.00539
עול	-9.0061
▁עבד	-9.00614
לת	-9.00641
נז	-9.00669
▁איפה	-9.00737
קרא	-9.00738
▁טבעי	-9.00927
▁גבוהה	-9.00964
מצ	-9.01033
▁סרט	-9.01171
▁תוכנית	-9.01201
אד	-9.01225
▁מרגיש	-9.01239
טוב	-9.01251
▁כלפי	-9.01277
th	-9.01375
▁טובים	-9.01391
וח	-9.01426
אתה	-9.01514
ינ	-9.01621
▁השאלה	-9.01632
▁נוספת	-9.01703
יין	-9.01759
ימים	-9.01797
▁רוח	-9.01856
אנחנו	-9.02063
▁המידע	-9.02065
▁זר	-9.02093
▁אמיתי	-9.02156
▁וכ	-9.02227
▁כלומר	-9.02248
▁מקבל	-9.02333
▁מבין	-9.02365
▁עלול	-9.02451
לם	-9.02509
▁רבה	-9.02594
ומה	-9.02595
▁עלינו	-9.02607
▁נולד	-9.02845
▁במצב	-9.02862
▁מעולם	-9.02893
פיל	-9.02914
דות	-9.02958
▁להתחיל	-9.03043
▁לנ	-9.03125
▁בעיר	-9.03201
▁V	-9.03669
יצור	-9.03944
יא	-9.03948
▁מהר	-9.03962
▁לבחור	-9.04046
ביע	-9.04101
▁עצמה	-9.04202
▁לחזור	-9.0425
בד	-9.04285
▁עצמם	-9.04298
▁ואם	-9.04329
גה	-9.04469
ur	-9.0451
דבר	-9.04574
עובד	-9.04588
▁משמעותי	-9.0487
ודה	-9.04934
▁מק	-9.04935
▁האתר	-9.0504
▁רו	-9.05093
▁עבר	-9.05126
▁פו	-9.05222
▁30	-9.0525
▁הפעם	-9.05301
el	-9.05308
▁ועד	-9.0536
▁חדשות	-9.05514
קנה	-9.05519
-1	-9.056
עולם	-9.05622
▁בריאות	-9.0568
▁בעיה	-9.05721
הוא	-9.05795
▁משרד	-9.05838
אים	-9.05918
▁יהודים	-9.05951
▁לגרום	-9.06025
אפשר	-9.06089
חשב	-9.06175
שום	-9.06202
▁הקו	-9.06312
▁דומה	-9.06343
!"	-9.06461
צת	-9.06467
▁עליהם	-9.06511
▁להמשיך	-9.0664
▁המח	-9.06656
לט	-9.06892
▁בעת	-9.06939
▁ממשלת	-9.06943
קול	-9.06962
וצ	-9.06971
▁מדינה	-9.071
▁הגדולה	-9.0729
צות	-9.07496
▁הבעיה	-9.0753
▁למען	-9.07651
▁בסופו	-9.07699
▁אנשי	-9.07807
▁משתמשים	-9.07839
▁מע	-9.07848
▁שירות	-9.07862
▁אומרים	-9.07977
אס	-9.08072
מח	-9.08188
▁חייבים	-9.08192
▁מחוץ	-9.08239
V	-9.08402
▁חברים	-9.08533
חזק	-9.08561
▁תת	-9.0863
נוס	-9.08641
▁לתוך	-9.08737
סר	-9.08813
▁בס	-9.0886
▁דר	-9.08872
▁בעקבות	-9.0889
▁תלוי	-9.08894
סטי	-9.08948
▁וכן	-9.08996
▁בארה	-9.08999
▁ארבע	-9.09041
חים	-9.09212
▁ככה	-9.09303
▁בהתאם	-9.09371
▁K	-9.09464
▁אהבה	-9.0952
▁ועוד	-9.09556
▁המס	-9.09633
גור	-9.09686
קור	-9.09742
סה	-9.09802
▁בח	-9.09819
אנשים	-9.0998
▁המקום	-9.09995
▁הסיפור	-9.1
רמה	-9.10045
▁חודש	-9.10085
▁נושא	-9.10111
▁בהחלט	-9.10111
▁אנ	-9.10264
▁אומרת	-9.10389
▁קרה	-9.10503
שמע	-9.10553
▁נתונים	-9.10595
▁לגמרי	-9.10598
▁לעומת	-9.1082
▁עסק	-9.10886
▁הרב	-9.10945
▁פרק	-9.11157
בוא	-9.11203
▁הדו	-9.11232
▁להתמודד	-9.11235
▁עו	-9.1126
▁תוכלו	-9.113
▁עי	-9.11343
כיר	-9.11417
▁והם	-9.11589
▁יצא	-9.11597
▁בראש	-9.11672
מית	-9.11783
שאל	-9.1205
▁השבוע	-9.12057
▁הסיבה	-9.12072
יפות	-9.12072
כש	-9.12169
▁יפה	-9.12274
▁יהודי	-9.12282
▁עולם	-9.12315
אין	-9.12329
▁R	-9.12407
▁מנהל	-9.1252
ארי	-9.12556
יפ	-9.12669
▁אותן	-9.12719
▁חש	-9.12735
▁תוכל	-9.12816
▁בחיי	-9.12961
▁בארץ	-9.1316
▁לאנשים	-9.13178
▁היינו	-9.1321
▁האינטרנט	-9.13272
▁משתמש	-9.13356
▁כדור	-9.13359
סור	-9.13364
▁לספק	-9.13521
יף	-9.13536
▁תהליך	-9.13592
בית	-9.13709
▁דעת	-9.13779
▁גברים	-9.13904
▁חסר	-9.1396
▁מפ	-9.13963
▁ייתכן	-9.14097
▁ראשון	-9.14118
▁קי	-9.14159
▁O	-9.14256
▁ית	-9.1441
▁והמ	-9.14491
▁משמעות	-9.14512
▁האוויר	-9.14537
נסי	-9.14566
▁כדאי	-9.14597
▁הנשיא	-9.1462
ad	-9.14647
▁האחרונה	-9.1472
▁גדל	-9.14721
▁למנוע	-9.14747
▁העם	-9.14757
▁לשחק	-9.14769
מם	-9.14807
▁בשלב	-9.14831
▁ערב	-9.14864
דת	-9.14888
▁קיים	-9.14994
קד	-9.15035
▁הז	-9.15117
▁השימוש	-9.15229
▁החדשה	-9.15263
▁פור	-9.15299
▁נקרא	-9.15679
▁העסק	-9.15804
▁להביא	-9.15887
▁לצאת	-9.15919
▁חוקי	-9.15939
פתח	-9.15955
▁ברגע	-9.1615
▁הכול	-9.16239
▁מיליארד	-9.16358
▁כללי	-9.16376
ונ	-9.16378
▁סט	-9.16456
לך	-9.16518
מנה	-9.16539
רכי	-9.16562
▁המלחמה	-9.16606
▁שמע	-9.16677
▁שיכול	-9.16679
סו	-9.16684
▁פרי	-9.1678
▁ההת	-9.16831
–	-9.16832
▁צפוי	-9.16854
▁ניו	-9.16947
▁פעיל	-9.17066
▁בסיס	-9.17092
▁המי	-9.17102
▁בשבוע	-9.17264
▁נחשב	-9.17287
▁כמ	-9.17455
▁11	-9.17515
▁נעשה	-9.17523
▁שהיו	-9.17526
▁בג	-9.17538
▁בחודש	-9.17583
▁יוצא	-9.18108
▁מאחורי	-9.18122
▁בע	-9.18133
▁ערך	-9.18245
חות	-9.18281
מון	-9.18318
et	-9.18397
▁לשם	-9.1851
▁מחיר	-9.18667
▁לכתוב	-9.1881
▁אלף	-9.18893
צב	-9.19022
▁נמצאים	-9.1913
יפים	-9.19162
▁אבי	-9.19195
כך	-9.19197
▁להגיד	-9.19263
▁היהודי	-9.19287
▁אפשרי	-9.19404
▁זוהי	-9.19411
▁מד	-9.19541
אק	-9.19761
▁חזק	-9.19786
▁ישנם	-9.19841
▁למי	-9.19917
▁בד	-9.19924
▁בתור	-9.19984
▁מנסה	-9.20019
▁הבריאות	-9.20113
▁טר	-9.20115
▁שאל	-9.20251
▁היהודים	-9.20283
▁היטב	-9.20366
עמד	-9.20414
אלוהים	-9.20505
▁המאה	-9.20576
▁אס	-9.20641
ol	-9.20649
יצ	-9.20658
▁הי	-9.20827
▁לאכול	-9.20951
▁שמת	-9.21008
▁נוצר	-9.21034
רב	-9.21044
וא	-9.21122
▁הד	-9.21171
▁רי	-9.21386
וֹ	-9.21497
▁מסוגל	-9.21506
עז	-9.21525
as	-9.21641
▁הציבור	-9.21701
▁מתחת	-9.21795
▁הבינלאומי	-9.21818
עור	-9.21831
▁*	-9.21955
▁באינטרנט	-9.21992
חה	-9.22002
▁ארגון	-9.22084
▁עליך	-9.22303
li	-9.22401
▁בשנים	-9.22416
▁עיר	-9.22455
▁כוחות	-9.22653
▁עניין	-9.227
▁מכך	-9.22781
עבר	-9.22803
▁שהת	-9.22855
▁הבאה	-9.22857
▁•	-9.22869
▁לפעול	-9.22877
▁תק	-9.22903
▁פול	-9.22925
שק	-9.23105
נן	-9.23132
▁קיבל	-9.23146
7	-9.23189
קת	-9.23229
▁הקל	-9.23436
▁שבוע	-9.23453
▁17	-9.23525
▁יתר	-9.23553
te	-9.23565
▁עשה	-9.23614
פע	-9.237
אלי	-9.23806
▁מיוחד	-9.23851
▁לכ	-9.23886
▁Re	-9.23944
K	-9.24278
▁הטבע	-9.24287
▁חדר	-9.2431
כח	-9.2436
▁מזון	-9.24468
ונית	-9.24626
▁עומד	-9.24654
▁צי	-9.24695
שאר	-9.24732
▁מלחמת	-9.24805
ערב	-9.24843
▁משפחה	-9.2494
▁מאפשר	-9.24948
▁and	-9.24974
▁אמא	-9.25
am	-9.25088
▁לקנות	-9.2512
▁חמש	-9.2513
נצ	-9.25175
▁חברה	-9.25249
▁ימי	-9.25402
▁מסוימים	-9.25423
▁כולנו	-9.25441
▁קבוע	-9.25554
בני	-9.25625
▁נשיא	-9.25636
▁נח	-9.25658
▁חברי	-9.25677
זל	-9.25784
▁שאלות	-9.25871
▁גישה	-9.25939
קשר	-9.26038
0,000	-9.26042
▁בעיני	-9.26053
▁תוצאות	-9.26057
▁להרגיש	-9.26203
▁לעיתים	-9.26211
▁הטיפול	-9.26245
▁16	-9.26321
עי	-9.26484
▁יודעת	-9.26515
▁עסקים	-9.26566
▁נת	-9.26736
▁במהירות	-9.26747
▁שלום	-9.26826
▁עקב	-9.26845
שתי	-9.26906
▁אכן	-9.26941
▁כאב	-9.26954
ברי	-9.27053
▁הראשונים	-9.27131
▁כלי	-9.27176
▁ממה	-9.27235
▁מדינת	-9.2742
קוד	-9.27482
ta	-9.27692
▁חוסר	-9.2771
▁שיר	-9.27774
▁העל	-9.27784
ימי	-9.28066
▁למעלה	-9.28086
▁היחידה	-9.28372
דרך	-9.28424
▁הביתה	-9.28478
רצי	-9.2848
▁צו	-9.2855
▁ושל	-9.28558
▁חושבים	-9.2858
חול	-9.28628
פנה	-9.28651
▁דרכים	-9.28702
יזם	-9.28752
▁שאי	-9.28765
▁העבר	-9.28932
▁בעצם	-9.28953
50	-9.29075
▁זוג	-9.29152
se	-9.29157
פיס	-9.29198
▁אמ	-9.29261
ביל	-9.29309
פשט	-9.29463
נם	-9.29466
▁מתח	-9.29495
▁השם	-9.29504
-3	-9.29527
ואה	-9.29656
▁מכיוון	-9.29732
5%	-9.29736
שלוש	-9.29742
▁הנתונים	-9.29821
ילד	-9.29948
▁לעבור	-9.30004
▁אתר	-9.30138
ירו	-9.30183
▁אירופה	-9.30193
▁הזדמנות	-9.30218
▁רחב	-9.30294
▁האירופי	-9.30352
לר	-9.30362
מט	-9.30382
▁עשויים	-9.30448
▁עולה	-9.305
כב	-9.30612
פעיל	-9.30621
▁צוות	-9.30624
▁ומת	-9.30624
6	-9.30721
▁אישה	-9.30799
▁באו	-9.308
מתי	-9.30808
▁לספר	-9.30828
ִי	-9.30831
▁חר	-9.30891
▁מבלי	-9.30914
פטר	-9.30989
▁להיכנס	-9.31094
ation	-9.31116
▁לבנות	-9.31133
סדר	-9.31152
0%	-9.31261
▁התא	-9.31269
▁להישאר	-9.31344
▁U	-9.31377
אנו	-9.31408
אג	-9.31434
כנות	-9.31445
▁לראשונה	-9.31456
▁מאמין	-9.31487
▁מדיניות	-9.31551
אב	-9.31573
▁ניהול	-9.31592
▁הפך	-9.31697
חוש	-9.318
▁אחוז	-9.31838
▁בחר	-9.31866
▁ביחד	-9.3188
▁13	-9.31966
▁במדינה	-9.32024
▁מאי	-9.32106
▁בזה	-9.32131
▁התעופה	-9.32141
רחב	-9.32161
▁מקווה	-9.32169
▁נס	-9.32176
▁הישראלי	-9.32178
▁רחוק	-9.32309
▁גבר	-9.32328
10	-9.32389
▁בפעם	-9.3243
לוח	-9.32435
בנה	-9.32473
רצ	-9.32608
▁האמיתי	-9.32695
מך	-9.32701
▁המחשב	-9.32815
▁משל	-9.32816
▁אד	-9.32852
▁J	-9.32909
▁הביטחון	-9.32921
מוני	-9.32936
▁לחץ	-9.32974
דרג	-9.32995
▁סיבה	-9.3302
מפ	-9.33041
▁קשור	-9.33162
כנים	-9.33373
▁אוהבים	-9.33399
ונג	-9.33452
ניה	-9.33486
▁איתו	-9.33517
▁נשמע	-9.33599
▁אמרתי	-9.33601
עיר	-9.33615
▁שיהיה	-9.337
▁לצ	-9.33713
סקי	-9.33876
▁טו	-9.33877
▁אלפי	-9.33943
▁מסוג	-9.33997
▁גורם	-9.33999
קח	-9.34006
▁להגן	-9.34089
יח	-9.34115
סתי	-9.34147
▁אמריקה	-9.34175
▁טראמפ	-9.34213
▁השיר	-9.34252
▁המדינות	-9.34381
פרד	-9.34423
רוס	-9.34432
▁מדברים	-9.34449
▁לקח	-9.34532
8	-9.34558
▁14	-9.34583
▁לקוחות	-9.34649
▁מצא	-9.34732
▁הכר	-9.34915
▁הנושא	-9.35035
חזור	-9.35043
▁הלאומי	-9.35061
▁בואו	-9.3508
▁בארצות	-9.35157
ישראל	-9.35168
▁תמונות	-9.35194
▁חול	-9.35233
▁קטנה	-9.35301
▁מקרה	-9.35453
▁דווקא	-9.35736
▁יקר	-9.35744
▁מסוים	-9.3577
טיל	-9.35771
הפכו	-9.35774
▁לשלם	-9.35813
ליט	-9.35919
▁שאר	-9.36126
▁ההיסטוריה	-9.36186
▁נדרש	-9.36208
ריס	-9.36257
▁בכ	-9.36269
▁בנוגע	-9.36277
▁האור	-9.36331
▁אח	-9.36369
▁מבט	-9.36387
▁לנסות	-9.36428
▁זכות	-9.36462
▁מוצרים	-9.36541
▁חופש	-9.36556
▁?	-9.36621
ראו	-9.36635
קני	-9.36647
▁חזר	-9.36661
▁ויותר	-9.36717
▁לילדים	-9.3673
▁נע	-9.36735
▁לדוגמה	-9.36745
משך	-9.36782
▁והת	-9.36902
▁מרכז	-9.36958
▁בחו	-9.37005
▁הקשר	-9.37054
▁ניסיון	-9.37069
מנט	-9.37074
▁שאת	-9.37147
▁סביר	-9.37341
ֹ	-9.37351
נדי	-9.37397
עבוד	-9.37518
▁דורש	-9.37569
▁הנוכחי	-9.37613
▁החלק	-9.37691
ערך	-9.37736
ציל	-9.37762
▁כתוצאה	-9.3777
▁סל	-9.37788
גש	-9.37831
▁פתוח	-9.37894
▁אילו	-9.3793
▁איראן	-9.37943
▁מוביל	-9.37989
▁ירושלים	-9.38
▁יכולות	-9.3801
▁גל	-9.38218
יבי	-9.38244
▁הרכב	-9.38314
z	-9.38328
אמן	-9.38392
▁נו	-9.38424
▁מערכות	-9.38476
▁מכיר	-9.386
▁לשמוע	-9.386
נהג	-9.38647
▁תקופה	-9.38748
▁אבא	-9.38776
מקרים	-9.38779
▁דם	-9.38838
כנה	-9.38867
▁איכות	-9.38904
▁וכך	-9.38996
אבל	-9.39007
▁מאמינים	-9.39009
▁שלישי	-9.39009
me	-9.39039
חש	-9.39192
▁במסגרת	-9.39249
▁(19	-9.39314
▁לצד	-9.39317
▁שווה	-9.39348
▁ער	-9.39372
יבה	-9.39391
▁מזו	-9.3942
ארבע	-9.39443
▁הדין	-9.3954
▁פנים	-9.3958
▁קור	-9.396
▁המטרה	-9.39629
(	-9.39656
בחר	-9.39787
מע	-9.39837
▁חד	-9.39895
סוף	-9.39903
▁גדולים	-9.39923
▁עוזר	-9.40071
▁שבועות	-9.40092
▁In	-9.40159
בע	-9.4016
▁עצמך	-9.40244
רכיב	-9.4032
▁לישראל	-9.40472
▁דין	-9.40577
דף	-9.40603
עבד	-9.40617
▁באמצע	-9.40652
פח	-9.40683
lo	-9.40684
▁חיל	-9.40707
▁מופיע	-9.40744
▁באי	-9.40749
▁מוכר	-9.40816
▁עליה	-9.40849
ילדים	-9.40864
סים	-9.4094
▁נוספות	-9.41001
למה	-9.41127
רא	-9.41138
▁פרס	-9.41168
גז	-9.41218
▁עשר	-9.41247
▁הבי	-9.41258
▁בסרט	-9.41283
דאג	-9.41401
▁אזור	-9.41544
un	-9.41572
ואר	-9.41646
גדל	-9.41692
ir	-9.41693
ma	-9.41703
▁נפש	-9.41943
דל	-9.42021
▁לוקח	-9.42032
▁הרופא	-9.42072
ימות	-9.42088
▁הלא	-9.421
▁הבנק	-9.42146
▁רפואי	-9.42185
עזר	-9.42223
▁קטנים	-9.42264
la	-9.42314
▁הכסף	-9.42337
▁התינוק	-9.42379
שא	-9.42383
▁—	-9.42439
▁לאחרונה	-9.42459
▁לוח	-9.42505
ראש	-9.42526
פנו	-9.42536
v	-9.42583
▁היכולת	-9.42586
▁מז	-9.42614
▁בנו	-9.4267
שיח	-9.4268
▁המוח	-9.4269
▁האב	-9.42721
▁אישית	-9.4281
חוק	-9.42967
▁שצריך	-9.43011
▁שבהם	-9.43112
▁באירופה	-9.43133
▁טבע	-9.43174
▁סין	-9.43214
▁הבאים	-9.43392
▁המערכת	-9.43479
חייב	-9.43488
▁הדי	-9.43556
▁העובדה	-9.43584
▁אנרגיה	-9.43597
שור	-9.43619
▁הטובה	-9.43646
▁למד	-9.43661
▁הבר	-9.43666
שמי	-9.43744
אחר	-9.43773
▁האזור	-9.43821
▁החולים	-9.43868
▁מוכן	-9.43914
▁כזו	-9.43972
▁שעבר	-9.43997
גדר	-9.4425
▁בתו	-9.44313
▁מסר	-9.44332
▁קרא	-9.44397
-2	-9.44429
▁ראיתי	-9.44444
עק	-9.44491
▁כמות	-9.44535
▁צעיר	-9.4459
כנו	-9.44648
מוס	-9.44671
▁אודות	-9.44706
▁לאור	-9.44757
▁ואף	-9.44798
ציה	-9.44922
מועד	-9.45072
▁מור	-9.45077
▁האיש	-9.4512
▁קבוצה	-9.45131
▁ארבעה	-9.45154
▁האחרונים	-9.45202
פרי	-9.45213
טיס	-9.45251
עם	-9.45277
רוק	-9.45394
▁ההר	-9.45457
מטר	-9.45477
-18	-9.45633
שמים	-9.45635
▁ולאחר	-9.45642
שב	-9.45751
▁כיוון	-9.45755
דע	-9.45833
▁אפשרות	-9.45835
▁חופשי	-9.45875
▁אמרו	-9.45922
יכו	-9.45984
▁ורק	-9.46283
▁חצי	-9.46303
▁שגם	-9.46312
בעל	-9.4635
▁ראוי	-9.46362
▁מעשי	-9.4638
חזיר	-9.46415
▁בבוקר	-9.46432
▁מלחמה	-9.46433
▁פא	-9.46451
בקש	-9.46473
▁לעמוד	-9.46515
נע	-9.46527
▁לשפר	-9.46621
בצע	-9.46654
▁מט	-9.46742
קרה	-9.46909
19	-9.46978
▁דיבר	-9.47013
זיק	-9.47028
מונים	-9.47155
פרש	-9.47284
▁כלום	-9.4733
▁בהן	-9.47448
▁לפ	-9.47488
▁האש	-9.47551
▁השלישי	-9.47582
ia	-9.47733
▁משת	-9.47767
זמן	-9.47857
▁שחור	-9.47871
כא	-9.47894
▁מלאה	-9.47985
▁חג	-9.48011
▁אב	-9.48056
▁אוהבת	-9.4809
▁ואל	-9.4838
X	-9.48422
▁p	-9.4847
▁לרוב	-9.48559
רוב	-9.4871
-5	-9.48728
נצח	-9.48743
▁שינויים	-9.48778
▁תמיכה	-9.48852
▁התיכון	-9.48852
▁אמת	-9.48858
ve	-9.48893
ירים	-9.48898
▁הקבוצה	-9.49072
אחד	-9.49131
▁שטח	-9.49239
▁צעד	-9.49373
▁הופך	-9.4938
▁התשובה	-9.49453
גלו	-9.49549
▁עסקי	-9.49614
ידו	-9.49617
▁המלא	-9.49641
נשיא	-9.49706
▁וע	-9.49799
חז	-9.49839
▁הגיעו	-9.49881
▁ממנה	-9.49927
▁מעניין	-9.50011
▁אוויר	-9.50035
ידע	-9.50051
▁נוט	-9.50183
ימת	-9.50217
פרק	-9.50221
30	-9.50236
▁רגיל	-9.50269
▁דיווח	-9.50287
▁כותב	-9.50306
טא	-9.50334
ow	-9.50365
▁אמור	-9.505
▁ביקש	-9.50532
גובה	-9.50594
▁העו	-9.50665
▁שאפשר	-9.5069
▁משו	-9.50727
▁ביחס	-9.5077
▁בל	-9.50827
חשוב	-9.50909
▁in	-9.51095
▁עובר	-9.51211
▁2015	-9.51237
▁ואמר	-9.5129
יפו	-9.51361
▁סיפר	-9.51407
▁משמש	-9.51411
▁בקלות	-9.51445
מחל	-9.51454
▁התחיל	-9.51456
▁לגלות	-9.51458
▁מאחר	-9.51474
▁חזרה	-9.51474
כנת	-9.51496
▁תשומת	-9.5153
▁הארגון	-9.51549
▁פרו	-9.5164
▁בשוק	-9.51691
▁נבחר	-9.51702
כבד	-9.51728
▁מוקדם	-9.51732
דמי	-9.51764
▁a	-9.51771
▁לחבר	-9.51842
▁בעתיד	-9.51893
▁אג	-9.51903
▁התוכנית	-9.51919
▁מבחינה	-9.51937
יוצר	-9.52018
▁שניתן	-9.52106
▁למקום	-9.52116
▁השפעה	-9.52137
▁הבו	-9.52142
▁שבע	-9.52233
פן	-9.52243
▁החליט	-9.52353
ינס	-9.52375
▁חושבת	-9.52379
מיר	-9.52442
▁מאו	-9.52487
▁מורכב	-9.52548
▁לקראת	-9.52604
▁מראש	-9.52627
▁לאדם	-9.52632
פא	-9.52662
ציות	-9.52738
▁השו	-9.52745
טרי	-9.52856
▁מקבלים	-9.52858
פיק	-9.52867
▁לפתח	-9.52917
-4	-9.5294
גבר	-9.53018
יטה	-9.53065
▁אליה	-9.53103
▁משפט	-9.53226
בק	-9.53237
ולה	-9.53257
▁לבדוק	-9.53326
▁נקודות	-9.53356
▁במרכז	-9.53378
▁קוד	-9.53403
▁שעל	-9.53454
פתי	-9.53517
▁יחיד	-9.53529
▁תח	-9.53572
▁מצוי	-9.53585
▁מבוסס	-9.53611
נש	-9.53634
▁נותן	-9.53656
▁הסכם	-9.53684
▁50	-9.53721
%	-9.5375
▁חת	-9.53793
▁בעזרת	-9.53802
▁כולו	-9.53851
▁איזו	-9.53868
אש	-9.53897
▁מתו	-9.53902
▁קבוצות	-9.53909
▁להבטיח	-9.53928
▁ספרים	-9.53971
▁מגיעים	-9.53975
כוח	-9.54032
▁במה	-9.54082
▁וג	-9.54083
▁פתרון	-9.54106
▁מיני	-9.54149
כתב	-9.54194
▁היית	-9.54209
im	-9.54219
▁במידה	-9.54277
▁מילים	-9.5429
▁הגבוה	-9.54327
▁הקהילה	-9.54341
▁קונ	-9.54352
אמר	-9.5443
▁הלילה	-9.54434
חק	-9.54436
▁ואפילו	-9.54647
נוע	-9.54683
▁המשטרה	-9.54716
▁מקצועי	-9.54823
▁האמריקאי	-9.54837
דג	-9.54909
▁הרוח	-9.54948
▁תרופות	-9.55009
▁מכיל	-9.55068
▁אלי	-9.5516
▁שאינם	-9.55184
דעת	-9.55264
com	-9.55277
▁בחדר	-9.55304
▁גי	-9.55313
um	-9.55331
▁ארוך	-9.5535
▁בינואר	-9.55351
▁24	-9.55386
▁החלו	-9.55439
▁ביצוע	-9.55472
▁קורא	-9.55477
גנים	-9.55494
▁לשים	-9.55551
טים	-9.55589
▁חוץ	-9.55608
▁St	-9.55639
▁ראה	-9.55693
▁ההבדל	-9.55705
▁תכנית	-9.55708
▁האלו	-9.55744
▁מרכזי	-9.55784
▁ההורים	-9.55831
▁חולים	-9.55832
▁עמד	-9.55883
▁שזו	-9.55992
▁החומר	-9.56004
הפך	-9.56056
יסט	-9.56086
9	-9.56123
▁הראשי	-9.56132
▁מגוון	-9.56148
לוגי	-9.56153
▁העיקרי	-9.56161
▁מבחינת	-9.56185
פעם	-9.56206
למו	-9.56209
▁שכן	-9.56224
▁המלך	-9.5639
▁תמונה	-9.56391
ck	-9.56403
▁מאיתנו	-9.56408
▁40	-9.56476
▁קבוצת	-9.56493
▁וכי	-9.56545
▁בדבר	-9.56556
שלח	-9.56581
▁שעה	-9.56595
אמת	-9.56633
▁לד	-9.56647
תרבות	-9.56675
טן	-9.56716
עמוד	-9.56727
שמח	-9.56764
▁מאת	-9.56819
▁צעירים	-9.56819
▁»	-9.5684
▁סוגי	-9.56877
▁מעמד	-9.56944
▁כרטיס	-9.56946
▁ייחודי	-9.57119
שׁ	-9.57133
אפ	-9.57197
▁האנושי	-9.57258
▁בתחילת	-9.57293
▁עשו	-9.57378
▁תה	-9.57467
וצג	-9.57479
▁אסור	-9.5748
▁במאי	-9.57504
▁שוק	-9.57537
▁להעביר	-9.57602
▁יקרה	-9.57652
▁עזרה	-9.57658
ביט	-9.57684
▁בחלק	-9.57727
▁25	-9.57732
▁יכולת	-9.57774
ניס	-9.5786
▁הנכון	-9.5798
▁אינטרנט	-9.5799
.”	-9.58041
▁עמוק	-9.58054
▁לבקר	-9.58065
▁הכוח	-9.58072
▁אחי	-9.58084
▁שמש	-9.58085
▁השמש	-9.58122
פרט	-9.58152
▁מציע	-9.58206
▁משנת	-9.58274
▁נכתב	-9.58325
Y	-9.58399
▁בשר	-9.58451
▁ומו	-9.58453
תמיד	-9.58524
▁מתאים	-9.58534
▁הפי	-9.58659
▁אנושי	-9.58799
ניק	-9.58814
▁בק	-9.58876
כדי	-9.58941
דוד	-9.58983
פיע	-9.59001
▁קיימת	-9.59098
▁היכן	-9.59103
עשר	-9.5912
▁בלב	-9.59146
מנים	-9.59304
▁בשני	-9.59333
מדינות	-9.59375
▁לשעבר	-9.59508
▁הגדולים	-9.59546
עצב	-9.59555
ter	-9.5956
▁פחד	-9.59577
▁תוכניות	-9.59617
פני	-9.59667
▁בערך	-9.59683
ימו	-9.59722
▁ואין	-9.59761
▁בחברה	-9.59773
▁הסי	-9.59844
▁רוסיה	-9.5985
מלא	-9.59876
▁שאנשים	-9.59936
▁נוח	-9.59957
▁2014	-9.6002
מקום	-9.60092
▁המוצר	-9.60104
▁חשבתי	-9.60162
אף	-9.6023
▁לשימוש	-9.60276
▁זי	-9.60314
▁צרפת	-9.60333
דון	-9.60339
▁שאם	-9.60446
נאי	-9.60452
▁שחי	-9.60476
▁מפתח	-9.6048
ie	-9.60508
▁בספר	-9.60602
▁ואי	-9.60685
▁יצר	-9.607
טיב	-9.6075
▁העולמי	-9.60761
▁יח	-9.60774
ne	-9.6082
▁המון	-9.60826
▁s	-9.60857
▁לאפשר	-9.60865
▁מביא	-9.60887
▁ניתוח	-9.60892
▁רשת	-9.60951
ווא	-9.60976
▁איי	-9.61116
▁האר	-9.61117
▁העליון	-9.61139
▁חייו	-9.61163
▁הטובים	-9.61176
ולל	-9.61269
▁זקוק	-9.61281
▁איננו	-9.61308
▁העתיד	-9.61329
פש	-9.61345
▁בצד	-9.61377
מק	-9.61397
תמודד	-9.61493
ואי	-9.61508
▁כבוד	-9.61511
▁רווח	-9.61527
פחות	-9.61534
חבר	-9.61542
יקום	-9.6157
▁פיתוח	-9.61621
▁חשב	-9.61694
id	-9.61699
גיד	-9.61717
▁ראו	-9.61784
רוץ	-9.6181
טרו	-9.61832
▁מצליח	-9.6187
▁ספורט	-9.61878
▁משפיע	-9.6189
om	-9.61968
▁מסע	-9.61978
▁מסוגלים	-9.62023
▁נמצאת	-9.62127
▁שנמצא	-9.62159
▁הצבא	-9.62162
▁לנצח	-9.62198
▁ברשת	-9.62203
▁2017	-9.6225
ציע	-9.62264
ent	-9.62272
רגע	-9.6235
▁תמ	-9.62353
▁לסייע	-9.62377
▁יחסים	-9.62554
▁הורי	-9.62594
▁נזק	-9.62632
בנות	-9.62658
▁עבודת	-9.62693
▁אחריות	-9.62744
צפון	-9.62748
חברות	-9.62838
-10	-9.62869
▁מחפש	-9.62926
▁גרוע	-9.62961
▁יוכל	-9.62962
▁יוצר	-9.62969
ut	-9.63
▁100	-9.63031
▁עשרות	-9.6305
▁|	-9.63111
▁כרגע	-9.63197
▁האישי	-9.63232
כלל	-9.6329
▁״	-9.63358
רז	-9.63417
▁היחסים	-9.63445
יהן	-9.63593
קות	-9.63608
כתיב	-9.6364
▁בלילה	-9.63648
יכה	-9.63677
עמיד	-9.6368
▁גורמים	-9.63713
▁רצו	-9.63722
אושר	-9.63731
▁ביוני	-9.63782
▁הרע	-9.63812
▁חמור	-9.63849
▁החשוב	-9.63939
פסיק	-9.64018
▁האחרים	-9.6404
דברים	-9.64126
▁מחפשים	-9.64142
▁רמת	-9.64183
''	-9.64218
▁בספטמבר	-9.6425
משטר	-9.64318
ולד	-9.64333
יחות	-9.64386
דמות	-9.64398
▁ברמה	-9.64486
▁לבקש	-9.64491
▁0	-9.64587
▁מוכנים	-9.64591
טות	-9.64603
▁סיכוי	-9.64632
▁הנו	-9.64673
▁נשק	-9.64751
▁העובדים	-9.64757
▁2018	-9.64759
▁צמח	-9.64766
▁הרעיון	-9.64779
צור	-9.64797
▁הכלכלי	-9.64857
▁מבקש	-9.6495
▁מושג	-9.64977
▁להכיר	-9.65045
▁לבני	-9.65085
▁מאושר	-9.65093
▁המילה	-9.65107
▁ביקור	-9.65164
▁לזכור	-9.65174
קשה	-9.65228
▁תרבות	-9.65233
רוג	-9.65244
מכר	-9.65289
▁ספ	-9.65328
▁קמ	-9.65383
▁המג	-9.65393
▁משחקים	-9.65395
חנות	-9.654
▁מקצוע	-9.65403
▁החינוך	-9.65441
שתמש	-9.65486
▁אזרחי	-9.65492
ואל	-9.6553
דרום	-9.65669
▁ובכל	-9.65672
▁מסוימת	-9.65678
▁הצורך	-9.65681
▁תא	-9.65717
▁ראשית	-9.65764
פקוד	-9.65893
▁נאמר	-9.65899
▁לשאול	-9.659
▁מחר	-9.65918
tion	-9.65927
נתה	-9.65928
▁צבע	-9.6594
נתי	-9.65945
מיני	-9.66006
בחן	-9.661
▁ואנחנו	-9.66204
▁האדמה	-9.66217
▁תקשורת	-9.66253
▁המרכזי	-9.66267
▁מוצא	-9.66327
▁חינוך	-9.66361
od	-9.66367
יצר	-9.66399
▁היסטורי	-9.66472
▁בניו	-9.66493
▁בדצמבר	-9.66498
▁תור	-9.66549
▁טיפ	-9.66561
לנד	-9.66596
▁בנק	-9.66667
▁וכו	-9.66671
▁החודש	-9.66678
דן	-9.66752
שטח	-9.66792
נפ	-9.66805
▁שכבר	-9.6682
▁לבוא	-9.66836
▁לשני	-9.6684
ספ	-9.66897
אמ	-9.6692
▁אסטרטגי	-9.66925
▁מהן	-9.66935
ימון	-9.67018
ce	-9.67071
ha	-9.67102
▁נועד	-9.67128
▁ברי	-9.6716
▁בוקר	-9.67192
▁לחפש	-9.67227
▁חמישה	-9.6727
▁יוכלו	-9.67273
▁בשנות	-9.67308
▁מדעי	-9.67315
j	-9.67442
▁הבחירות	-9.67445
▁לצפות	-9.67477
חופש	-9.675
למד	-9.67509
מנהל	-9.67515
היא	-9.67685
▁ועם	-9.67825
▁מוצר	-9.67852
▁שע	-9.67871
▁סיבות	-9.67921
נצל	-9.68028
▁ומי	-9.68037
▁מבינים	-9.68073
אבד	-9.68123
▁מבצע	-9.68137
דירות	-9.68209
▁גרמניה	-9.68235
▁Co	-9.68271
צביע	-9.6832
▁טי	-9.68339
▁נפרד	-9.68411
▁שירותי	-9.68527
חזית	-9.68534
▁במערכת	-9.68538
▁יושב	-9.68583
▁היי	-9.68643
גלגל	-9.68678
▁המציאות	-9.68773
▁ישירות	-9.68775
סייע	-9.68775
▁להאמין	-9.68803
▁הלי	-9.68854
וץ	-9.68887
▁מתייחס	-9.68906
▁הזוג	-9.69016
▁בריא	-9.6904
▁2012	-9.69052
טס	-9.69134
▁עתיד	-9.69184
▁להסביר	-9.69188
▁נמוך	-9.69239
עיל	-9.69329
▁המל	-9.69404
כוונת	-9.69443
ערות	-9.69482
▁מראה	-9.69511
▁רציני	-9.69668
▁דמי	-9.69734
▁ושוב	-9.69736
▁ביולי	-9.69748
▁גוף	-9.69864
▁צל	-9.69869
▁שומר	-9.70018
▁החלטה	-9.70092
▁ספציפי	-9.70104
▁שיעור	-9.70171
▁לטיפול	-9.70196
ot	-9.70219
סקר	-9.7022
▁הרו	-9.7025
▁לכולם	-9.70261
▁לאתר	-9.70262
ייר	-9.70293
▁ההו	-9.70323
▁בזכות	-9.70329
לין	-9.70404
▁קפה	-9.70457
▁רציתי	-9.70458
▁מנהיג	-9.70506
▁זוכר	-9.70536
איר	-9.70571
▁רצון	-9.7058
▁באוקטובר	-9.7058
▁הולכים	-9.70602
▁להפסיק	-9.70672
▁2013	-9.70673
▁האנרגיה	-9.70849
▁לפתוח	-9.70864
▁הפנימי	-9.70876
▁חומר	-9.70879
▁בחשבון	-9.70905
מדינה	-9.70975
▁חייבת	-9.71041
רגיש	-9.71044
▁הני	-9.71101
co	-9.71109
▁מנ	-9.71116
▁למשך	-9.71117
▁עשיר	-9.71174
▁היהודית	-9.71185
▁חשבון	-9.71214
גלה	-9.71227
סביב	-9.7123
▁עצמנו	-9.71273
▁אליהם	-9.71273
▁קני	-9.71276
סופ	-9.71333
▁פתח	-9.71334
▁מקומות	-9.7135
▁עזר	-9.71363
▁הביא	-9.71416
▁שיתוף	-9.71425
▁איבד	-9.71428
▁שנתיים	-9.71507
▁De	-9.71513
▁בהמשך	-9.71589
▁העור	-9.7164
▁חשיבות	-9.71697
▁מחקרים	-9.71698
▁קיימים	-9.71729
▁הפלסטינים	-9.71777
▁X	-9.7187
▁ממני	-9.71877
▁קרי	-9.71879
בתי	-9.71892
תלמיד	-9.71951
▁בשטח	-9.71981
▁נב	-9.72001
צעד	-9.72003
שבת	-9.72022
כמות	-9.72026
פחד	-9.72062
▁מומלץ	-9.721
▁משפטי	-9.72134
מונה	-9.72177
▁‘	-9.72225
▁אתמול	-9.72234
▁לעבודה	-9.72251
חלק	-9.72261
▁המקומי	-9.72305
▁חיובי	-9.72306
▁ידעתי	-9.72331
▁להציל	-9.72384
▁כלכלי	-9.72569
▁מחבר	-9.72599
סק	-9.72607
▁גב	-9.72619
na	-9.72647
ho	-9.72654
▁מכירים	-9.7267
▁חוזר	-9.72681
לע	-9.72706
▁בנובמבר	-9.72722
ענייני	-9.72746
▁השת	-9.72766
▁דוד	-9.72873
ייס	-9.72918
▁ביקורת	-9.72934
▁2011	-9.72944
▁להימנע	-9.72953
▁דתי	-9.72999
מקור	-9.73006
▁רופא	-9.73048
תקיים	-9.73064
אהבה	-9.73094
▁יחסי	-9.73121
▁to	-9.73137
▁כבד	-9.73138
פרסם	-9.73146
12	-9.73192
▁שאינו	-9.73216
▁הופיע	-9.73218
▁ישוע	-9.73276
▁כלשהו	-9.73285
▁מתחילים	-9.73378
▁הקר	-9.7339
▁גדולות	-9.73394
ודי	-9.73516
לג	-9.73539
פגש	-9.73661
▁הגב	-9.7368
▁ולש	-9.73708
▁2010	-9.73794
רצח	-9.73909
▁נדיר	-9.73948
▁קוראים	-9.73971
▁בתקופה	-9.73981
פרס	-9.74045
▁התרבות	-9.74071
▁לטפל	-9.74083
15	-9.74122
▁פרטים	-9.74125
▁להוסיף	-9.74194
▁אמריקאי	-9.7428
▁בקרוב	-9.7434
▁יצירת	-9.7437
▁הינו	-9.74444
כניס	-9.74468
סמים	-9.74518
גזר	-9.74551
▁במספר	-9.74577
18	-9.74607
מנ	-9.74622
רגל	-9.7465
▁התקשורת	-9.7465
▁הדם	-9.74723
ראי	-9.74733
▁Mo	-9.74801
איש	-9.74829
▁במשחק	-9.74837
▁המק	-9.74867
▁נוכל	-9.74946
▁אפשרויות	-9.7495
שירות	-9.74975
ציב	-9.75051
▁התנהגות	-9.75061
עצים	-9.75093
▁אמנות	-9.7517
▁וד	-9.75198
▁בעבודה	-9.75276
▁בחזרה	-9.75295
▁הבריטי	-9.75345
13	-9.75356
▁עיצוב	-9.75357
אתגר	-9.75382
ותיו	-9.75403
▁הקדוש	-9.75409
▁פנימי	-9.75431
▁הפנים	-9.75434
▁מוגבל	-9.75473
▁ברוב	-9.75532
▁חיוני	-9.75545
קרב	-9.75557
▁אמנם	-9.75588
שמות	-9.75646
▁לילה	-9.75668
▁עמוד	-9.75679
▁בכדי	-9.75707
קב	-9.75764
▁נורא	-9.75796
תקן	-9.7581
כתוב	-9.75831
חדש	-9.75839
אנ	-9.75862
קוס	-9.75894
▁אחראי	-9.75989
▁ההחלטה	-9.76002
▁b	-9.76034
▁הימים	-9.76034
▁מלבד	-9.76193
▁יא	-9.76219
▁הנשים	-9.76299
עיד	-9.76303
▁נער	-9.76317
אנג	-9.76406
▁העניין	-9.76418
▁Ma	-9.76426
▁דור	-9.76439
▁מין	-9.7644
▁לימוד	-9.76472
▁בימים	-9.76473
ָה	-9.76507
▁הקרוב	-9.76543
גם	-9.7661
פקד	-9.76611
▁סמ	-9.76674
▁לעבר	-9.76678
▁מהיר	-9.76726
▁מכשיר	-9.76736
▁ירד	-9.76753
▁עיני	-9.76761
▁מקומי	-9.76765
▁ביד	-9.76839
▁חס	-9.76889
▁המחיר	-9.76913
הפוך	-9.76927
▁מרגישים	-9.76937
▁מרי	-9.76956
▁לרכוש	-9.76965
▁ארוכה	-9.76985
▁עשרה	-9.7699
▁סופר	-9.77004
חירות	-9.77011
לית	-9.77117
שבע	-9.77127
▁המים	-9.77136
▁בצ	-9.77193
▁אפריקה	-9.7723
▁עת	-9.77246
▁תשובה	-9.7725
▁לחיים	-9.7725
▁אחוזים	-9.77319
▁התח	-9.77349
▁צבא	-9.77392
▁Ch	-9.77408
▁[...]	-9.77419
פטי	-9.77436
▁משפחת	-9.77516
▁התמונה	-9.77521
▁באוגוסט	-9.77547
נדר	-9.77565
▁שינה	-9.77567
▁מהווה	-9.77614
▁איתם	-9.77644
▁רעיון	-9.77682
הן	-9.77733
▁מציג	-9.77803
▁הוסיף	-9.7788
▁המכ	-9.77903
▁בגוף	-9.77924
ge	-9.77969
▁הצבע	-9.78033
צרות	-9.78038
לק	-9.78079
▁התלמידים	-9.78104
נון	-9.78142
קלי	-9.78152
▁למצב	-9.78152
▁מטרת	-9.78167
▁במחקר	-9.78174
▁החלטות	-9.78226
בין	-9.7827
▁עתה	-9.78323
טוס	-9.78354
מערכות	-9.78381
▁ומש	-9.78383
▁המפ	-9.78403
▁אינן	-9.78413
▁החי	-9.78445
פשע	-9.7848
סוס	-9.78487
▁סנט	-9.78532
▁הכלב	-9.78562
טבע	-9.78576
▁תנאי	-9.78577
▁השטח	-9.78628
▁פועל	-9.78629
▁ביטחון	-9.7866
all	-9.78702
▁האישה	-9.78742
▁ביניהם	-9.78773
אוהב	-9.78802
..."	-9.78815
ly	-9.78889
200	-9.78907
▁המא	-9.7895
▁צד	-9.78968
▁אלקטרוני	-9.79013
▁פעולות	-9.79074
▁הארי	-9.7909
op	-9.79098
זרים	-9.79109
▁מכתב	-9.79145
▁למות	-9.7916
▁עליי	-9.79178
▁מחשב	-9.79266
▁בבתי	-9.79281
▁מודע	-9.79296
מזרח	-9.7933
▁להציג	-9.79357
▁במזרח	-9.7937
כפי	-9.794
▁מזרח	-9.79438
▁ביטוח	-9.79443
▁סול	-9.79453
▁האפשרות	-9.79531
רווח	-9.79537
▁הצדדים	-9.7959
התפתחות	-9.79732
▁צבאי	-9.79767
▁שהן	-9.79817
▁נפלא	-9.7982
▁שמונה	-9.79821
▁השירות	-9.79851
ity	-9.79927
▁טובות	-9.7994
▁לעצור	-9.79951
▁הצעיר	-9.79965
▁לחוק	-9.80043
▁משה	-9.80074
▁חשובה	-9.80162
פוליטיקה	-9.80235
▁קרב	-9.80255
▁בסך	-9.80294
אמין	-9.80303
▁נותר	-9.80339
▁מוזר	-9.80342
זאת	-9.80393
ul	-9.80485
▁אנג	-9.80511
▁שומע	-9.80536
▁וחי	-9.80551
▁יעיל	-9.80607
מקד	-9.8061
רדי	-9.80615
עש	-9.80621
▁ריק	-9.80628
שני	-9.80776
מידה	-9.80812
▁אישור	-9.80816
▁הגבול	-9.80863
פורט	-9.80909
▁הידע	-9.80929
▁נד	-9.80938
▁טרי	-9.80945
▁תקופת	-9.80955
▁החול	-9.80961
▁לנהל	-9.81
ייט	-9.81013
-15	-9.81029
?”	-9.81044
▁מהמ	-9.81051
▁נהג	-9.81141
▁סא	-9.81183
ight	-9.81206
▁המוביל	-9.81228
▁לצורך	-9.81268
▁לבן	-9.81281
▁במי	-9.81318
נדל	-9.8135
סוכנות	-9.81361
▁הצליח	-9.81398
סיפור	-9.81419
רפו	-9.81453
טין	-9.81585
▁והן	-9.81639
▁מיוחדת	-9.81675
ריח	-9.8178
▁קבלת	-9.81781
סף	-9.81792
▁משמעותית	-9.81796
מטבח	-9.8181
▁האמריקני	-9.81813
▁עשויה	-9.8183
▁האס	-9.81847
חצי	-9.81877
▁מידי	-9.81878
▁נקי	-9.81884
▁נמוכה	-9.81889
▁האנושות	-9.8189
מנע	-9.81895
תפתח	-9.81922
▁פרטי	-9.81946
מזון	-9.81985
▁אזרחים	-9.81985
▁מספק	-9.82002
▁לעזוב	-9.82027
נשים	-9.82045
▁השלום	-9.82048
▁נכונה	-9.82119
▁הקול	-9.82135
ערכו	-9.8215
▁עונה	-9.82203
▁התהליך	-9.82207
▁המר	-9.82211
קנות	-9.82215
▁הערב	-9.8222
▁החלה	-9.82227
חברה	-9.82252
ac	-9.82292
▁תיק	-9.82301
▁חוש	-9.82359
דומה	-9.82361
▁הישראלית	-9.82407
יתר	-9.82447
▁בשעה	-9.82451
▁בהיסטוריה	-9.82484
ard	-9.82498
▁מזל	-9.82534
▁ואחר	-9.82581
יקים	-9.82595
גייס	-9.82596
ry	-9.82598
▁שלהן	-9.82639
▁משקל	-9.82662
לוג	-9.82664
▁לזהות	-9.82675
ine	-9.82728
אמנים	-9.82731
ate	-9.82799
▁שער	-9.82806
▁לאומי	-9.82809
בוס	-9.82815
▁לידי	-9.82835
▁הצי	-9.82873
▁מחויב	-9.8289
▁ההי	-9.82928
▁מוח	-9.82957
▁:	-9.82972
רמות	-9.82996
כמה	-9.83059
▁הפעולה	-9.83068
▁עדיף	-9.83098
The	-9.83129
▁מנסים	-9.83129
עשה	-9.83138
מנהיג	-9.83142
▁סוד	-9.83184
▁רשמי	-9.83312
▁להר	-9.8334
▁כתוב	-9.83344
▁תואר	-9.8351
▁אופן	-9.83539
▁המדע	-9.8356
▁המד	-9.83575
▁בירושלים	-9.83593
▁סוגים	-9.83858
מצב	-9.83887
עניין	-9.83905
60	-9.83918
▁חיפוש	-9.83933
▁הפכה	-9.83952
▁להראות	-9.84001
רוע	-9.84002
▁הרשמי	-9.84066
▁ביטוי	-9.84098
יכם	-9.84146
קא	-9.84159
ver	-9.84164
▁הפעילות	-9.84226
ניח	-9.84231
פרו	-9.84245
▁לדברי	-9.84257
▁שח	-9.84357
▁אלינו	-9.8436
כלכלה	-9.84419
▁שקר	-9.84426
טיפ	-9.84495
▁ארץ	-9.84517
▁לציין	-9.84525
▁$	-9.84554
▁יחסית	-9.84564
▁קט	-9.84588
▁בסין	-9.84602
▁הבאות	-9.84624
גנטי	-9.84712
▁ביו	-9.84755
אלימות	-9.84762
ייחס	-9.84795
מאה	-9.84816
▁ראשי	-9.84843
רוט	-9.84852
גברים	-9.84888
▁מבטיח	-9.84891
תרגל	-9.84918
רית	-9.84969
▁פתאום	-9.85061
▁שליטה	-9.85062
▁במדינות	-9.85077
▁כנגד	-9.85083
מצו	-9.8511
▁Me	-9.85116
▁ליהנות	-9.85172
גמר	-9.85282
▁לחיי	-9.85292
מגוון	-9.85298
ציר	-9.85317
▁התוצאות	-9.8532
▁איתי	-9.85369
▁לילד	-9.85378
▁קדימה	-9.85379
▁ליום	-9.85403
▁עזב	-9.85449
▁וס	-9.85467
בנו	-9.85475
ילים	-9.85489
▁הגנה	-9.85493
▁הלאומית	-9.85621
▁להציע	-9.85635
ידות	-9.85641
בטיח	-9.85656
סין	-9.85665
▁הבינלאומית	-9.85674
▁האג	-9.85688
▁ואתה	-9.85701
ארגונים	-9.85703
שמו	-9.85709
▁בחוץ	-9.85732
▁המקורי	-9.85853
▁2016	-9.85865
▁נפתח	-9.8587
דא	-9.85905
אלו	-9.85908
▁המוות	-9.85955
▁האירוע	-9.86013
▁לייצר	-9.8606
▁מטרות	-9.86074
▁סטודנטים	-9.86075
שליטה	-9.86084
▁באפריל	-9.8609
▁לפתור	-9.86096
▁לישון	-9.86102
▁הפו	-9.86112
▁למדי	-9.86176
▁פוטנציאל	-9.86183
אמי	-9.86293
▁2009	-9.86339
▁מוות	-9.86345
▁ואינ	-9.86376
חקר	-9.86398
▁הלקוחות	-9.86506
רבים	-9.86518
▁התוצאה	-9.86545
▁לקבוע	-9.86568
▁הראש	-9.86595
▁זקוקים	-9.86616
▁לבסוף	-9.8664
▁שעברה	-9.86661
ומות	-9.86662
▁&	-9.86709
▁סרטן	-9.86734
▁מותר	-9.86756
▁תל	-9.86774
▁הקב	-9.86792
▁מדע	-9.86823
מלי	-9.86871
▁שקיבל	-9.869
▁גרם	-9.86938
אסטרטגי	-9.86957
▁אוטומטי	-9.87048
▁בטח	-9.87059
▁מחזיק	-9.87081
os	-9.87191
עיתונאי	-9.87283
▁ציבורי	-9.87295
▁דובר	-9.87312
▁סתם	-9.87341
ill	-9.87373
▁המשמעות	-9.87388
▁מועמד	-9.87423
חפש	-9.87444
רחק	-9.87457
▁סדר	-9.87463
▁בפברואר	-9.87482
ers	-9.87542
▁כוכב	-9.87644
כור	-9.87676
פלי	-9.87738
▁בכיר	-9.87771
▁צודק	-9.87805
גני	-9.8781
▁צר	-9.87824
▁נהדר	-9.87963
▁אמי	-9.87985
▁אירועים	-9.88001
▁רצה	-9.88018
▁שניהם	-9.88018
דבק	-9.88034
▁עליכם	-9.88099
▁הגיעה	-9.8812
▁מדהים	-9.88147
ארצות	-9.88157
▁מוש	-9.88206
▁שמות	-9.88214
▁לשינוי	-9.88216
▁לעצמי	-9.88277
עין	-9.88305
▁שואל	-9.88311
אצבע	-9.88315
11	-9.8832
▁המצ	-9.88404
art	-9.88407
▁להוציא	-9.88408
▁בכוח	-9.88424
▁בינלאומי	-9.8844
׳	-9.88503
▁האהבה	-9.88507
▁בבקשה	-9.88533
פד	-9.88535
▁העד	-9.88565
sh	-9.88587
▁חלב	-9.88589
מרכז	-9.88633
▁שכר	-9.88691
▁מוט	-9.88718
▁ירוק	-9.88751
קדם	-9.88767
הרבה	-9.8878
קרי	-9.88781
סרט	-9.8893
▁חייהם	-9.88977
משפחות	-9.88995
דוק	-9.89045
סוג	-9.89099
▁קורס	-9.89112
▁חברתית	-9.89118
חוסר	-9.89134
▁בעניין	-9.89143
▁דוח	-9.89162
זיה	-9.8931
▁האמ	-9.89402
▁מילה	-9.89407
to	-9.89413
ארד	-9.89433
▁הדור	-9.89468
ti	-9.89492
▁2019	-9.89508
▁במטרה	-9.89516
▁הדת	-9.89528
▁שבת	-9.89528
▁השוק	-9.89538
▁צפו	-9.8957
▁תשלום	-9.89612
▁כנס	-9.89652
ולוגיה	-9.89729
bo	-9.89751
▁יגיע	-9.89751
טייל	-9.89878
משפחת	-9.89894
▁להניח	-9.89958
רפא	-9.90006
▁השפה	-9.90059
טופ	-9.90093
מדע	-9.90187
▁השתמש	-9.90188
▁רמות	-9.90191
התנהגות	-9.90229
כולנו	-9.9025
ערכת	-9.90255
▁שפ	-9.90298
חוץ	-9.90318
▁טרור	-9.90336
▁חיילים	-9.90337
▁בריטניה	-9.90362
mo	-9.90372
▁שקט	-9.90423
ספי	-9.90458
▁והש	-9.90474
עוצמה	-9.90482
▁בתהליך	-9.9051
▁לוודא	-9.90531
▁לדבריו	-9.90608
▁קבע	-9.9061
גרם	-9.90654
בורג	-9.9076
▁ועכשיו	-9.90864
כמו	-9.90893
▁סר	-9.90894
פלא	-9.90911
יצירה	-9.90912
▁כזאת	-9.90941
▁איתך	-9.90997
▁זכה	-9.91009
▁כשאני	-9.91023
עיראק	-9.91032
נטר	-9.9113
שינוי	-9.91207
▁להוביל	-9.91231
דלק	-9.91265
▁לטובת	-9.91275
▁המילים	-9.91299
▁משפחות	-9.91303
לן	-9.91314
קצה	-9.91349
▁חזקה	-9.91352
ינט	-9.91363
▁בודד	-9.91376
ברו	-9.91513
▁פרסום	-9.9157
▁כולה	-9.91672
▁השר	-9.91731
▁בפועל	-9.91733
▁הסביבה	-9.91759
▁מטרה	-9.91768
מכו	-9.91798
▁בקר	-9.91808
▁המע	-9.91834
▁מצרים	-9.91866
▁ענק	-9.9193
קרו	-9.91982
חמש	-9.92013
▁חומ	-9.92033
▁למכור	-9.92063
▁האיחוד	-9.92078
▁הנפש	-9.92086
17	-9.92112
שחק	-9.92177
▁#	-9.92186
▁מודרני	-9.92347
לול	-9.92349
▁הנראה	-9.92374
▁טלוויזיה	-9.92488
גדה	-9.92507
פסק	-9.9259
▁בעד	-9.92694
▁>	-9.92724
▁לעצמו	-9.9273
▁מהו	-9.92784
▁עומדים	-9.92805
▁הסיכון	-9.9282
סתר	-9.92891
▁אורח	-9.92925
שהוא	-9.92966
J	-9.93002
▁האהוב	-9.93004
▁וידאו	-9.9309
תוצאות	-9.93114
▁הפלסטינית	-9.93121
האם	-9.93148
▁פס	-9.93194
יתי	-9.93212
▁הגרמני	-9.93235
▁עצמכם	-9.93254
▁2008	-9.93266
▁לקו	-9.93274
קטור	-9.93305
he	-9.93308
דיר	-9.93402
▁המנהל	-9.93496
▁להשפיע	-9.9351
▁ארוחת	-9.93516
▁הקודם	-9.93522
▁הבלתי	-9.93529
▁ההגנה	-9.93535
▁קטנות	-9.93563
▁נפגש	-9.93659
▁ברית	-9.93675
▁צדק	-9.93731
▁פוליטי	-9.93775
▁2007	-9.93779
תוכניות	-9.93805
פשר	-9.93856
▁השאר	-9.93859
לווי	-9.93901
▁הער	-9.93911
▁עור	-9.93944
נך	-9.93946
מקצוע	-9.93951
▁שמה	-9.93972
▁העונה	-9.93997
זרוע	-9.94069
▁הרגע	-9.94072
▁אמיתית	-9.94128
▁להן	-9.94139
▁נור	-9.94236
▁הלימודים	-9.94284
▁הבדל	-9.94306
▁פופולרי	-9.94318
ll	-9.94319
▁21	-9.94342
▁שמי	-9.94372
ערים	-9.94373
-30	-9.94385
קוב	-9.94387
בלה	-9.94387
▁מוצלח	-9.9441
▁דת	-9.94501
נהל	-9.94516
▁ואיך	-9.94549
סבל	-9.94556
גורם	-9.94605
ni	-9.94633
מידע	-9.94633
▁60	-9.94741
▁הצרפתי	-9.94741
▁שלושת	-9.94777
▁המזון	-9.94787
▁זמין	-9.94835
▁הערבי	-9.9487
▁גודל	-9.9487
ציג	-9.9491
▁מערב	-9.94919
▁המסחר	-9.94986
▁נציג	-9.95006
וטר	-9.95053
ילות	-9.95055
ok	-9.9506
מין	-9.95126
זציה	-9.9516
▁הטכנולוגיה	-9.95167
▁מחלות	-9.95185
שרת	-9.95218
40	-9.95225
ab	-9.9524
כוון	-9.95255
▁החברות	-9.95258
▁אופי	-9.95292
כסף	-9.95326
▁עורך	-9.9533
מטי	-9.95365
תוקף	-9.95379
▁הפרויקט	-9.95451
מציא	-9.95454
חווה	-9.95456
חומר	-9.95487
▁דג	-9.95487
▁אמצעי	-9.95527
▁הלקוח	-9.95607
▁מתאר	-9.95634
▁לפנות	-9.95682
▁שקל	-9.95699
▁נתן	-9.95735
▁הגדולות	-9.95743
-6	-9.95752
▁בניגוד	-9.95886
▁מרבית	-9.95899
▁הטלפון	-9.95903
▁בקשר	-9.95968
▁הזכות	-9.95988
קפה	-9.95995
ig	-9.95996
רוד	-9.96034
חור	-9.96084
▁להק	-9.96119
▁השונים	-9.96215
▁לשתף	-9.96217
▁המוצרים	-9.9622
ביטחון	-9.96313
▁תושבי	-9.96314
כותרת	-9.96333
▁לעלות	-9.9635
דיבור	-9.9637
▁Ro	-9.96383
ספיק	-9.96383
▁תחילת	-9.96391
▁הפל	-9.96404
▁מציאות	-9.96429
▁שאמר	-9.96441
one	-9.96442
▁הרחב	-9.96468
▁הצוות	-9.96474
▁אוניברסיטת	-9.96478
▁מסתכל	-9.96522
▁הקרב	-9.96597
▁מיליוני	-9.966
אמא	-9.96642
▁פעמיים	-9.96648
▁מתרחש	-9.9668
ell	-9.96689
▁אפ	-9.96697
▁מלמד	-9.96767
▁נעל	-9.96788
▁קיר	-9.96837
▁השחור	-9.9688
▁בהשוואה	-9.96883
▁הרביעי	-9.96915
▁דה	-9.96929
פוס	-9.97
▁לתקן	-9.97004
שיעור	-9.97067
▁התפתחות	-9.9708
▁שיפור	-9.97111
נגד	-9.97127
!!	-9.97139
אמצע	-9.97174
ָּ	-9.97186
▁במחיר	-9.97199
▁מלון	-9.97236
75	-9.97249
▁עני	-9.97265
טיול	-9.97277
▁המחלה	-9.97342
▁מקרים	-9.97355
▁לחלק	-9.97362
▁הצלחה	-9.97366
▁אגב	-9.97406
▁מושלם	-9.97412
em	-9.97438
סס	-9.97459
▁נעצר	-9.97569
בנק	-9.97596
טכנולוגיה	-9.97621
לוט	-9.97628
עץ	-9.97632
תחרות	-9.97633
אוכל	-9.97652
סיוע	-9.97682
▁מדויק	-9.9771
איחוד	-9.97731
▁תנו	-9.97739
כאב	-9.97834
▁בערב	-9.97903
▁Be	-9.97911
עכשיו	-9.97931
▁מייצג	-9.97973
▁הסבר	-9.97987
▁שקורה	-9.97992
▁ואילו	-9.98007
▁קא	-9.98009
▁מסביר	-9.98053
▁בדרום	-9.981
ארה	-9.98102
▁גור	-9.98105
▁הבוקר	-9.98133
▁ההזדמנות	-9.98163
מעמד	-9.98178
פגיש	-9.98187
est	-9.98193
פילוסופי	-9.98219
▁רא	-9.98227
עבודה	-9.98239
נכם	-9.98256
▁רעיונות	-9.98268
▁הזר	-9.98296
▁המפתח	-9.98313
בסיס	-9.98321
▁דרום	-9.98353
▁עץ	-9.98357
אוס	-9.98374
▁המערבית	-9.98469
איראן	-9.98469
▁מבית	-9.98474
▁נקודת	-9.98505
▁הידוע	-9.98509
▁במילים	-9.9854
▁ילדי	-9.98565
בעיית	-9.98569
▁מוס	-9.98649
▁הפרטי	-9.9868
שימוש	-9.98723
סביר	-9.98739
שקר	-9.9876
שלם	-9.98845
▁לשלוח	-9.98845
▁מידה	-9.98847
▁החוצה	-9.98866
▁נושאים	-9.98895
▁ממשיך	-9.98934
▁ממך	-9.98941
צייר	-9.98972
תיאטרון	-9.99053
▁שמחה	-9.99063
▁קובע	-9.99083
▁נחמד	-9.99113
-8	-9.99184
14	-9.99213
גנב	-9.99239
ברית	-9.9925
▁טכנולוגי	-9.99253
ment	-9.9926
vi	-9.99274
▁הרגיל	-9.99292
▁גבי	-9.99299
רכב	-9.99327
25	-9.99342
▁המפלגה	-9.99342
הצג	-9.99347
שותפים	-9.99371
▁היסטוריה	-9.99427
▁התחל	-9.99469
▁רש	-9.99552
▁האח	-9.99592
▁מיידי	-9.99628
ay	-9.99642
צלחת	-9.99684
▁ייצור	-9.99711
and	-9.99713
▁הינה	-9.99727
▁ישראלי	-9.99732
▁אלכוהול	-9.99862
ערכה	-9.99865
▁בינתיים	-9.99873
מג	-9.9988
▁משא	-9.99881
▁הראשונות	-9.99902
מפעל	-9.99917
צית	-9.99918
מתח	-9.99941
▁סבל	-9.9996
▁ראשונה	-9.99995
▁החוקרים	-10.0002
▁הפוליטי	-10.0008
▁פרויקט	-10.001
מנת	-10.0016
תפילה	-10.002
▁מחו	-10.0027
▁החלל	-10.0027
▁הקשור	-10.0031
ורס	-10.0035
▁פתרונות	-10.0035
▁תעשיית	-10.0042
הפכה	-10.0046
▁הצל	-10.0046
▁והא	-10.005
▁בעלת	-10.005
▁מזכיר	-10.0052
▁התנועה	-10.006
▁אירוע	-10.0062
זכור	-10.0065
הכרה	-10.0066
▁בשימוש	-10.0067
▁בדי	-10.0068
▁יציב	-10.0069
סתובב	-10.007
▁במשרד	-10.0073
▁הרשת	-10.008
▁תלמידים	-10.0081
אבי	-10.0083
▁לנשים	-10.0084
▁עצמית	-10.0086
▁בצפון	-10.0086
אלה	-10.0088
16	-10.0089
▁בעלות	-10.0091
▁יכולתי	-10.0093
▁במאה	-10.0095
▁התקופה	-10.0097
▁לשמש	-10.0099
▁לשלוט	-10.0101
▁לט	-10.0104
היבט	-10.0104
▁שיער	-10.0105
▁סעיף	-10.0107
▁אלימות	-10.0108
▁הוביל	-10.0114
▁תשע	-10.0125
▁דופן	-10.0128
▁מעו	-10.013
▁החיפוש	-10.014
קרן	-10.0145
▁מוזיקה	-10.0146
עלות	-10.015
▁קבל	-10.0151
שקיע	-10.0152
▁for	-10.0155
▁שונא	-10.0157
כוכב	-10.016
▁אפל	-10.0161
▁הבחירה	-10.0161
▁הפועל	-10.0165
▁לגיל	-10.0167
▁הלו	-10.0168
▁מרגישה	-10.0178
עיקר	-10.0178
▁קווי	-10.0178
▁למדינה	-10.0181
ca	-10.0182
▁החוץ	-10.0183
▁בשירות	-10.0184
▁סימן	-10.0188
עריכה	-10.0191
דווח	-10.0194
▁שנקרא	-10.0194
▁עברו	-10.0195
▁מסכים	-10.0195
חוף	-10.0199
▁לסי	-10.0199
-12	-10.02
▁ומתן	-10.0201
▁בקו	-10.0206
▁כחלק	-10.0207
בשר	-10.0207
▁להרוג	-10.0211
אללה	-10.0211
▁הכפר	-10.0212
▁רגיש	-10.0216
▁כשהם	-10.0217
▁בכמה	-10.0218
יימס	-10.0218
▁חלקי	-10.0222
▁כשאתה	-10.0223
▁הזדמנויות	-10.0228
טול	-10.0229
▁הרוחני	-10.023
▁ואולי	-10.023
▁בסיסי	-10.0233
▁הלבן	-10.0235
שחרר	-10.0238
▁עוסק	-10.0239
▁מסביב	-10.024
▁אביו	-10.0241
▁תכונות	-10.0242
▁בוגר	-10.0242
קהילות	-10.0242
צד	-10.0247
יטר	-10.0249
אכזב	-10.0265
▁ופ	-10.0266
עביר	-10.0267
קשיב	-10.0268
▁מותו	-10.027
דמו	-10.0277
▁שקי	-10.0278
ערכים	-10.0284
▁לפגוע	-10.0293
32	-10.0294
▁היעד	-10.0295
▁וחו	-10.0303
▁בהרבה	-10.0306
בעיה	-10.0306
▁הממוצע	-10.0309
▁c	-10.0313
de	-10.0315
גיל	-10.0315
[1]	-10.0321
▁וחצי	-10.0321
▁חיצוני	-10.0321
צדק	-10.0323
▁במקומות	-10.0326
▁הקטן	-10.0326
):	-10.033
זוג	-10.0331
▁ישנה	-10.0331
▁הרגשתי	-10.0332
יהודים	-10.0333
▁המהיר	-10.0342
זמנו	-10.0343
בוצע	-10.0343
▁הצד	-10.0343
▁חוב	-10.0345
▁ובין	-10.0347
▁הסופי	-10.0351
▁ואח	-10.0362
מעצר	-10.0367
חיות	-10.0371
פצצ	-10.0373
▁הכולל	-10.0374
▁משפחתי	-10.0374
עקב	-10.0375
▁בתפקיד	-10.0375
ותיהם	-10.0379
▁רלוונטי	-10.0379
ex	-10.0381
▁''	-10.0389
נדו	-10.0389
▁נתניהו	-10.039
▁f	-10.0398
מדד	-10.0405
-7	-10.0412
▁הדרוש	-10.0413
תברר	-10.0416
אווה	-10.0417
▁המספר	-10.0418
-17	-10.0419
▁התו	-10.0422
▁פועלים	-10.0427
משחק	-10.0429
גשם	-10.0431
▁מניח	-10.0433
▁וזו	-10.0434
▁צפון	-10.0434
▁ספרד	-10.0436
▁הנדרש	-10.0437
תוכנית	-10.0438
▁בגודל	-10.0438
דרכה	-10.0442
▁הטבעי	-10.0447
▁תנועה	-10.0448
▁אזרח	-10.0448
מיטב	-10.0448
▁ירי	-10.0448
▁הדלת	-10.0448
70	-10.0452
ts	-10.0454
▁הקש	-10.0458
▁אושר	-10.0458
דעה	-10.0458
36	-10.0462
▁הקיץ	-10.0472
▁שהמ	-10.0473
פסיד	-10.0473
▁טכני	-10.0474
di	-10.048
▁הסדרה	-10.0483
▁הקמת	-10.049
▁שחקן	-10.0493
▁היד	-10.0495
▁La	-10.0497
▁שכח	-10.0497
▁לאחד	-10.0504
▁אנא	-10.0509
שוויון	-10.0511
לקח	-10.0511
▁הפלסטיני	-10.0514
▁חיות	-10.052
▁הבנתי	-10.0527
▁כלשהי	-10.0537
כרו	-10.0538
▁החזק	-10.0539
▁מקורות	-10.054
33	-10.0541
▁כיף	-10.0542
▁תוכן	-10.0552
נדה	-10.0558
כבר	-10.0561
קן	-10.0565
▁בדו	-10.0567
no	-10.0567
עשן	-10.0569
▁העיניים	-10.0581
צילום	-10.0582
▁להחזיר	-10.0585
▁שגר	-10.0589
▁אחות	-10.0591
▁להכין	-10.0598
▁משני	-10.0608
▁שד	-10.0609
▁הולדת	-10.0615
▁בסי	-10.0617
per	-10.0619
גידול	-10.0621
▁בקול	-10.0623
▁קרו	-10.0626
אבא	-10.063
נוצרי	-10.0632
▁המטופל	-10.0637
ולט	-10.0638
▁מפחד	-10.0641
▁2000	-10.0647
וול	-10.0647
▁נכס	-10.0647
▁אנטי	-10.0652
▁נגמר	-10.0653
▁עצמאי	-10.0654
אנט	-10.0655
קוט	-10.0657
שותפות	-10.0659
▁סקר	-10.0666
ess	-10.0667
▁שחקנים	-10.0669
42	-10.0669
▁באנגלית	-10.0673
▁במחשב	-10.0673
▁שבא	-10.068
▁מהי	-10.068
חד	-10.0685
מטופל	-10.0686
▁נפגע	-10.0687
48	-10.0696
▁חשובים	-10.0696
▁הרגיש	-10.0697
שנים	-10.0703
▁בפ	-10.0703
▁עזה	-10.0707
-16	-10.0708
▁Pa	-10.0709
▁מודל	-10.071
מרחב	-10.0711
▁אנגלית	-10.0714
זן	-10.0715
▁שיי	-10.0716
▁לז	-10.0719
▁תחושה	-10.0721
סמל	-10.0721
▁למרב	-10.0722
▁נרחב	-10.0723
▁מחשבות	-10.0724
▁הרפואי	-10.0725
▁מעורב	-10.0726
אינטר	-10.0727
נפש	-10.0733
▁זול	-10.0734
▁הכוחות	-10.0734
▁לאהוב	-10.0735
▁מקרי	-10.074
▁בכתב	-10.0744
▁להשקיע	-10.0746
▁הבל	-10.0748
גרום	-10.0752
▁להחליט	-10.0754
▁ברורה	-10.0756
תודעה	-10.0758
פנים	-10.0762
▁החדר	-10.0763
▁גזע	-10.0768
ריון	-10.0771
ונס	-10.0776
▁הרווח	-10.0779
▁השד	-10.0779
▁חובה	-10.0779
יטים	-10.0784
דרישות	-10.0788
▁שתוכל	-10.0789
”,	-10.079
pe	-10.0791
Q	-10.0793
▁m	-10.0794
▁לקרות	-10.0795
lu	-10.0798
▁מכם	-10.0798
▁רגשות	-10.08
▁סיכון	-10.08
▁ובכך	-10.0811
▁בטוחה	-10.0815
איפה	-10.0815
טקס	-10.0817
ארגון	-10.0819
עידן	-10.0824
ru	-10.0825
▁החדשות	-10.0829
▁העתיקה	-10.0834
▁ללמד	-10.0834
▁במרץ	-10.0835
▁התנ	-10.0835
▁בנות	-10.0837
▁Y	-10.0838
רגי	-10.084
פתרון	-10.0842
▁כשנ	-10.0842
ממש	-10.0843
▁משתנה	-10.0845
ריכוז	-10.0846
שנות	-10.0848
▁שיחק	-10.0848
▁תחום	-10.085
▁הבעיות	-10.0856
עימות	-10.0856
▁22	-10.0856
▁בלונדון	-10.0858
▁להצטרף	-10.0861
▁Google	-10.0862
ספור	-10.0868
רבי	-10.0868
▁בחירה	-10.0871
▁בסביבה	-10.0876
אנה	-10.0879
ילת	-10.0879
אנרגיה	-10.0879
▁מטר	-10.088
תגורר	-10.0882
▁הוועדה	-10.089
משתמש	-10.0893
▁חשמל	-10.0894
▁המודרני	-10.0899
▁פנ	-10.0904
▁שאומר	-10.0904
קונ	-10.0906
שט	-10.0907
▁צורה	-10.0907
▁מנו	-10.0909
ייב	-10.091
▁האלבום	-10.0915
שמה	-10.0919
▁למלא	-10.0926
▁למטה	-10.0927
nt	-10.0933
קרוב	-10.0934
▁הגל	-10.0934
▁התפקיד	-10.0936
▁לתמוך	-10.0937
▁להילחם	-10.0938
שבוע	-10.0941
▁מתכוון	-10.0943
34	-10.0945
▁שימש	-10.0949
▁ניכר	-10.095
▁בלעדי	-10.0951
▁לענות	-10.0952
▁וכש	-10.0955
רמי	-10.0958
▁לדאוג	-10.0963
קמפיין	-10.0964
"?	-10.0964
▁פותח	-10.0981
▁שהייתה	-10.0985
כית	-10.0985
▁המשך	-10.0986
צפו	-10.0993
▁נראית	-10.0994
▁שמר	-10.0999
בטוח	-10.1
▁לרגע	-10.1
דין	-10.1003
▁היסוד	-10.1003
▁שהייתי	-10.1004
▁סגור	-10.1005
▁^	-10.1007
▁מוסרי	-10.1011
▁לקדם	-10.1022
▁ממשיכים	-10.1024
▁מומחים	-10.1025
▁גרעיני	-10.1026
▁צילום	-10.1028
רמת	-10.1029
▁המאמר	-10.1031
ber	-10.1031
חלון	-10.1031
▁ברא	-10.1032
▁הורים	-10.1032
▁התייחס	-10.1035
▁הטר	-10.1036
ציבור	-10.1039
אשר	-10.1048
שכ	-10.1048
עשו	-10.1052
▁אכפת	-10.1054
▁עלולים	-10.1055
הלכה	-10.1064
▁להפחית	-10.1067
יינת	-10.1069
יחיד	-10.1072
ub	-10.1072
ive	-10.1078
▁היתר	-10.108
▁מוצרי	-10.1081
▁גז	-10.1085
▁בהתחלה	-10.1086
מבו	-10.1086
▁Th	-10.1093
רשויות	-10.1095
▁הקודש	-10.1098
▁בבריטניה	-10.1101
▁סב	-10.1102
מעשה	-10.1102
▁שפה	-10.1102
תקף	-10.1105
▁לדי	-10.1106
▁ובכן	-10.1114
▁השופט	-10.1118
קיימת	-10.112
▁מתחילה	-10.1121
עזור	-10.1121
סטיק	-10.1123
כמעט	-10.1126
▁וול	-10.1127
▁מיוחדים	-10.1127
קהל	-10.1129
שיר	-10.1131
▁ארגונים	-10.1132
▁משותף	-10.1133
99	-10.1138
▁לשבת	-10.1142
▁השחקנים	-10.1148
▁בטוחים	-10.1153
▁הכלל	-10.1153
▁במשקל	-10.1155
▁דוגמה	-10.1156
▁הרש	-10.1158
וריד	-10.1168
יבר	-10.1168
▁אשתו	-10.1169
▁שיטות	-10.1169
קשיים	-10.117
▁הקהל	-10.1171
גרי	-10.1171
▁מודעים	-10.1172
▁לדעתי	-10.1178
ביצוע	-10.1184
▁הקרקע	-10.1184
▁השלב	-10.1185
▁Wi	-10.1187
▁האמריקאית	-10.119
צחוק	-10.119
▁טיול	-10.1191
▁החוב	-10.1193
▁הכנסת	-10.1195
▁הכללי	-10.1195
▁Sh	-10.1196
תמיכה	-10.1196
▁באוניברסיטת	-10.1197
▁האוניברסיטה	-10.1203
מנות	-10.1205
▁הנכונה	-10.1208
הייתי	-10.1212
קבוצות	-10.1221
▁מועד	-10.1225
man	-10.1225
דוקטור	-10.1226
ou	-10.1226
▁מרוב	-10.1231
▁גבולות	-10.1234
נוסח	-10.1234
ארץ	-10.1235
▁בלו	-10.1235
▁ערבי	-10.1237
פלטפורמ	-10.1239
אבק	-10.1243
26	-10.1244
שוק	-10.1244
▁חם	-10.1249
ְּ	-10.1249
▁w	-10.1251
▁תקווה	-10.1253
▁דלת	-10.126
▁כלבים	-10.1265
▁פוליטית	-10.1271
▁שאף	-10.1274
▁חוויה	-10.1275
▁חינם	-10.1275
מכשיר	-10.128
▁המרכז	-10.1284
▁החברים	-10.1286
▁יעשה	-10.1288
▁בתקופת	-10.1293
לפי	-10.1293
ארו	-10.1294
▁וכמה	-10.1294
פון	-10.1298
▁הופכ	-10.1298
▁ההשפעה	-10.13
גישה	-10.13
חשיב	-10.1305
▁הוכח	-10.1309
סול	-10.131
▁הבן	-10.1312
▁השינוי	-10.1313
ld	-10.1315
▁במרחק	-10.1315
זור	-10.1319
▁מטוס	-10.1322
▁להעלות	-10.1325
כין	-10.1329
38	-10.1331
▁להשת	-10.1333
▁בוא	-10.1338
▁הפוסט	-10.1341
io	-10.1341
צלם	-10.1343
תעשייה	-10.1343
▁לחברה	-10.1355
mp	-10.1358
▁מפתיע	-10.1364
תושב	-10.1369
▁גרי	-10.137
▁העיקרית	-10.1372
▁רצח	-10.1375
▁קישור	-10.1376
▁בהכרח	-10.1376
▁חומרים	-10.1376
▁האמנות	-10.1377
▁de	-10.1377
▁הבסיסי	-10.1384
▁בדיקות	-10.1385
▁מצביע	-10.1388
וכיח	-10.1388
▁מרק	-10.1389
נשק	-10.139
▁("	-10.1392
וקר	-10.1393
▁נר	-10.1397
חיי	-10.1402
▁הגבוהה	-10.1402
▁חשש	-10.1408
▁מאמר	-10.1409
▁לומדים	-10.1416
▁נפטר	-10.1419
▁אהבתי	-10.142
▁אדמה	-10.1422
בט	-10.1426
היקף	-10.1427
▁To	-10.143
▁כפול	-10.1431
▁2006	-10.1431
▁ניסוי	-10.1433
▁מסחרי	-10.1436
שנאה	-10.1441
שוטרים	-10.1443
▁דל	-10.1444
▁טעות	-10.1448
▁בשפה	-10.1448
עיני	-10.145
▁באל	-10.1453
רן	-10.1454
עמק	-10.1455
▁יסוד	-10.1455
▁התרחש	-10.1456
▁הרצון	-10.1457
שוחח	-10.1457
▁מסורתי	-10.1459
▁שצ	-10.1465
85	-10.1465
nd	-10.1474
▁שקרה	-10.1478
ke	-10.1479
▁רחבי	-10.148
▁לאט	-10.1486
▁הטרור	-10.1487
▁מכאן	-10.1487
▁אמונה	-10.1487
▁ישנן	-10.1488
▁פלסטינים	-10.1492
קדש	-10.15
▁טור	-10.1511
▁הממשל	-10.152
אביב	-10.1522
▁נראים	-10.1524
ion	-10.1525
▁כלכלית	-10.1527
▁האנושית	-10.1528
▁אקדמי	-10.1528
▁לחקור	-10.1528
גנו	-10.1529
דול	-10.1529
▁מלך	-10.1532
▁סבור	-10.1534
▁נמנע	-10.1539
ph	-10.154
23	-10.154
רץ	-10.1545
▁המסו	-10.1545
▁עשיתי	-10.1545
מסגרת	-10.1545
סכום	-10.1547
▁סקס	-10.1547
▁רגל	-10.1551
▁המקור	-10.1552
29	-10.1555
▁סוריה	-10.1556
-9	-10.1558
▁עבודות	-10.1561
▁איתנו	-10.1563
65	-10.1565
מומחי	-10.1566
▁כשל	-10.1569
▁הראו	-10.157
▁הצעד	-10.1572
▁שיווק	-10.1573
בון	-10.1574
כדור	-10.1575
שלום	-10.158
▁ולהת	-10.1581
רכז	-10.1582
▁הרגל	-10.1584
עיצוב	-10.1585
3%	-10.1585
▁ללקוחות	-10.1586
▁קדוש	-10.1587
▁המקרים	-10.1593
▁הקריירה	-10.1593
88	-10.1594
רום	-10.1596
▁ביי	-10.1599
מחלוקת	-10.16
▁מייצר	-10.1603
▁להוכיח	-10.1606
▁העצמי	-10.1608
ייצג	-10.1609
▁פשוטה	-10.1612
age	-10.1612
▁נפל	-10.1613
חורף	-10.1622
▁מבני	-10.1624
▁ספרי	-10.1625
עצמו	-10.1625
▁המקצועי	-10.163
קורבנות	-10.1632
▁להסתכל	-10.1633
▁להוריד	-10.1639
▁הבנה	-10.1643
▁משם	-10.1643
יכול	-10.1646
▁שמישהו	-10.1646
רף	-10.1647
אתר	-10.1647
▁שרק	-10.1649
▁וְ	-10.1651
קפת	-10.1654
הגיע	-10.1655
סיבי	-10.1658
בלי	-10.1659
גוד	-10.1661
▁לארץ	-10.1664
קבוצת	-10.1667
תכנון	-10.1672
נישואים	-10.1674
אוטובוס	-10.1678
▁מאה	-10.1679
▁אה	-10.1681
▁WEB	-10.1682
▁לכאורה	-10.1683
▁בינלאומיים	-10.1683
אפי	-10.1687
▁הקשורים	-10.169
נייה	-10.169
▁המבוסס	-10.169
▁הודעה	-10.1691
לפני	-10.1691
39	-10.1692
פיגוע	-10.1692
▁מעולה	-10.1694
▁סופ	-10.1699
▁חוקרים	-10.17
▁עמו	-10.1705
▁טווח	-10.1706
▁בשום	-10.1707
▁הרוסי	-10.1708
27	-10.1709
איגוד	-10.1713
תערוכה	-10.1715
פונקצי	-10.1717
▁פרש	-10.1718
▁הגבר	-10.1721
▁להתייחס	-10.1721
▁כספי	-10.1721
▁יעד	-10.1725
▁פעילויות	-10.1726
ענק	-10.1728
▁המשתמש	-10.1728
ענו	-10.1728
▁נוסעים	-10.1729
▁לחכות	-10.173
ולוג	-10.1732
איזו	-10.1732
יסטים	-10.1736
▁הציבורי	-10.1738
▁שכתב	-10.1744
ריק	-10.1745
▁תגיד	-10.1748
▁אבו	-10.1751
רוצים	-10.1751
קובץ	-10.1752
▁המאפשר	-10.176
▁יבוא	-10.176
▁שתו	-10.1767
▁רוק	-10.1769
צבא	-10.177
▁פלסטיני	-10.177
▁פג	-10.1773
37	-10.1773
▁הפיזי	-10.1774
אינ	-10.1775
▁העת	-10.1777
▁בצרפת	-10.1777
▁נשלח	-10.1777
▁פשע	-10.1778
▁אינני	-10.178
▁הטובות	-10.1787
▁האוכל	-10.1788
▁ההיסטורי	-10.1789
▁באשר	-10.179
▁כלב	-10.179
our	-10.1794
כיסא	-10.1798
אופי	-10.1801
▁באחד	-10.1803
▁במקביל	-10.1805
עומק	-10.1806
▁+	-10.1809
▁מבנה	-10.1811
▁המכשיר	-10.1812
▁מחלה	-10.1816
▁נאלצ	-10.1816
כישלון	-10.1817
▁לזכות	-10.1819
מספר	-10.1821
55	-10.1821
▁הצבאי	-10.1824
מקומות	-10.1829
▁להחליף	-10.1832
▁לונדון	-10.1832
▁Windows	-10.1835
▁קלי	-10.1837
לחץ	-10.1839
▁אליך	-10.1839
▁המוזיקה	-10.1846
▁לבחון	-10.1846
▁היתרונות	-10.1849
▁קיבלו	-10.185
חסר	-10.185
מערכת	-10.1854
▁הביקור	-10.1855
מדיניות	-10.1859
▁יז	-10.1859
▁גרמני	-10.1864
▁אויב	-10.1865
תקווה	-10.1871
▁המשימה	-10.1875
נקו	-10.1876
▁מסוימות	-10.1879
▁23	-10.1882
▁זרים	-10.1885
▁אדום	-10.1888
▁מזג	-10.1893
▁בפי	-10.1896
מערב	-10.1906
2%	-10.1907
▁אביב	-10.191
▁בט	-10.191
נשא	-10.1911
▁תגובה	-10.1911
בס	-10.1916
▁לשלב	-10.1918
וציא	-10.1919
▁להשתתף	-10.1923
▁ולמ	-10.1925
▁Ca	-10.1929
▁חכם	-10.1929
▁לשירות	-10.1935
▁לשנת	-10.1937
▁שיניים	-10.1937
▁האחר	-10.1937
▁אהב	-10.1939
▁כוס	-10.1941
▁השינה	-10.1942
▁מסלול	-10.1942
▁עומדת	-10.1943
▁סיוע	-10.1944
זכה	-10.1948
יודע	-10.1948
▁הצליחו	-10.1948
▁ואנו	-10.195
▁סיני	-10.1953
שכב	-10.1958
חברים	-10.1961
▁לשתות	-10.1962
לוס	-10.1965
סיס	-10.1974
▁האזרחים	-10.1974
קושי	-10.1976
יבו	-10.1976
פקיד	-10.1978
▁קוריאה	-10.1979
קריא	-10.1983
עיתון	-10.1984
נל	-10.1985
אח	-10.1986
▁הכרחי	-10.1992
▁מרכיב	-10.1992
▁מסוכן	-10.1995
▁מציעים	-10.1997
28	-10.2001
▁המבנה	-10.2007
סיק	-10.2007
ga	-10.2008
▁שישי	-10.2011
מייסד	-10.2011
▁גידול	-10.2015
▁ארגוני	-10.2019
▁בדיקה	-10.2019
אכיל	-10.2026
פקח	-10.2027
בוד	-10.2027
▁והיה	-10.203
▁הסביר	-10.2035
▁תגובות	-10.2036
▁סרטים	-10.2037
▁תע	-10.2037
▁מטבע	-10.2041
▁קיצוני	-10.2043
בוט	-10.2043
▁שירותים	-10.2045
שווי	-10.2047
▁נקבע	-10.2048
קוק	-10.2049
שיטות	-10.2053
רוצח	-10.2053
משפחה	-10.2057
מרחק	-10.206
איך	-10.2064
▁רומ	-10.2066
▁טלפון	-10.2067
▁המטוס	-10.207
צפה	-10.2072
▁Pro	-10.2073
כריז	-10.2073
▁האמונה	-10.2074
▁הולכת	-10.208
47	-10.2083
▁הציע	-10.2083
צבע	-10.2083
סיבוב	-10.2087
▁לעיר	-10.209
▁קומ	-10.209
מוח	-10.2091
▁ואחרי	-10.2091
לילה	-10.2094
▁ב־	-10.2097
▁הלאה	-10.2097
mi	-10.2099
▁במקור	-10.2101
▁השראה	-10.2107
▁עתיק	-10.2108
▁לחו	-10.2113
▁אמון	-10.2113
מלחמות	-10.2116
ואיד	-10.2119
מדבר	-10.212
▁בחור	-10.2122
▁נדמה	-10.2125
▁אט	-10.2127
▁מנוע	-10.2127
צדיק	-10.2127
▁תוצאה	-10.2129
פסל	-10.213
פריד	-10.2138
▁העשיר	-10.2138
▁העסקי	-10.2139
▁נהרגו	-10.2139
שנה	-10.2142
עשרה	-10.2143
בעיות	-10.2143
▁מאפשרת	-10.2145
▁עורכי	-10.2145
▁סובל	-10.2146
▁החשמל	-10.2146
▁פיננסי	-10.2147
▁טוען	-10.2147
▁כתובת	-10.2148
35	-10.2151
מרת	-10.2152
▁הצו	-10.2153
ant	-10.2153
▁קיימות	-10.2154
משמעות	-10.2156
▁דמות	-10.2156
▁נתקל	-10.2156
▁חתול	-10.2157
▁הכלכלה	-10.2159
▁טכנולוגיה	-10.216
▁לטווח	-10.216
49	-10.2162
בלים	-10.2163
▁הפרס	-10.2164
▁המהפכה	-10.2165
▁עובדת	-10.2166
▁לימודי	-10.2166
אוכלוסייה	-10.2169
▁שניים	-10.2171
▁ניצח	-10.2171
בהיר	-10.2186
▁ישיר	-10.2186
סגר	-10.2191
▁בכנס	-10.2197
ברך	-10.2198
שער	-10.2199
▁שילוב	-10.2199
מודע	-10.22
▁דף	-10.2207
▁תינוק	-10.2208
ירי	-10.2212
תבקש	-10.2213
▁דומים	-10.2213
דוג	-10.2214
▁בחינם	-10.2215
מכון	-10.2217
▁ריי	-10.2219
טוני	-10.2223
▁חשבו	-10.2227
▁שדה	-10.223
מחקר	-10.2231
▁המשחקים	-10.2233
▁הודעות	-10.2238
קומו	-10.2241
שול	-10.2243
▁תחומי	-10.2244
מבר	-10.2244
▁מרגש	-10.2244
מבוגרים	-10.2245
▁פוסט	-10.2246
זין	-10.2246
▁המשרד	-10.2247
-11	-10.2249
▁להשאיר	-10.2249
▁כאמור	-10.2249
משהו	-10.225
▁להגדיל	-10.2252
▁לציבור	-10.2252
▁עיניים	-10.2255
▁יכלו	-10.2255
▁דא	-10.2255
תשובה	-10.2255
רכישה	-10.2258
▁יתכן	-10.2259
שכר	-10.2268
ודד	-10.2273
▁כאלו	-10.2274
▁קלה	-10.2275
▁מספקת	-10.2276
▁לאן	-10.2276
לידה	-10.2277
▁אבטחה	-10.2284
▁הדרומי	-10.2286
▁הצפוני	-10.2286
▁רעב	-10.2287
עיתונות	-10.2287
▁הנוגע	-10.2289
פעילויות	-10.2289
גוף	-10.229
▁השכר	-10.2293
▁בשתי	-10.2296
▁שבהן	-10.23
be	-10.2306
כינו	-10.2307
רעיונות	-10.2316
▁מניע	-10.2318
רתי	-10.2319
נסון	-10.2322
▁הסיבות	-10.2322
קהילה	-10.2322
▁לפיכך	-10.2326
▁בוחרים	-10.233
▁אהבת	-10.2334
▁בשבילי	-10.2336
נטל	-10.2337
מעט	-10.2338
▁ריב	-10.2338
▁חז	-10.2346
תכנית	-10.2346
קדמו	-10.2347
▁תיאור	-10.2349
כבש	-10.2351
sp	-10.2352
▁דיגיטלי	-10.2353
נסו	-10.2357
▁מיועד	-10.2358
▁חייל	-10.2364
וויל	-10.2364
▁הבטיח	-10.2364
▁האוכלוסייה	-10.2365
▁יג	-10.2366
▁כפר	-10.2367
▁מינית	-10.2367
▁רקע	-10.2367
מול	-10.2368
שחר	-10.237
קומה	-10.2371
אנשי	-10.2373
גרמו	-10.2373
▁דולרים	-10.2377
השכלה	-10.2379
▁שולח	-10.238
▁לקבלת	-10.2381
שעת	-10.2383
▁תחושת	-10.2386
▁בבחירות	-10.2388
▁להשלים	-10.239
טיפול	-10.239
▁פיזי	-10.2394
רדו	-10.2395
▁בעצמו	-10.24
צער	-10.2405
רופ	-10.2407
ודו	-10.2408
▁לכאן	-10.2409
▁זיכרון	-10.241
▁פרנק	-10.241
▁להקים	-10.2411
▁גבוהים	-10.2415
▁החדשים	-10.2416
סע	-10.2417
▁האדום	-10.2423
איזה	-10.2429
▁ציור	-10.2437
זמין	-10.2437
▁בגרמניה	-10.2439
גלי	-10.2439
ושע	-10.244
▁מיקרו	-10.2444
▁קשים	-10.2445
▁שפע	-10.2445
▁בסוריה	-10.2452
▁מני	-10.2454
▁מגיעה	-10.2456
שכונה	-10.2457
▁עצום	-10.2457
▁ביצע	-10.246
▁מצאו	-10.2461
▁להשתנות	-10.2462
▁שומן	-10.2463
▁לרדת	-10.2466
▁מצפה	-10.2468
IP	-10.2469
הסכם	-10.2473
▁רשאי	-10.2475
▁שירים	-10.2475
▁נורמלי	-10.2488
ביקור	-10.249
תבסס	-10.2491
▁להחזיק	-10.2492
חקלאות	-10.2493
לף	-10.2493
▁נותנים	-10.2496
▁Con	-10.2499
▁האחריות	-10.2504
▁הסיכוי	-10.2505
יכולת	-10.2506
tra	-10.2507
בוי	-10.2508
לוק	-10.2508
פירה	-10.251
▁הסו	-10.2512
▁החוף	-10.2516
▁הכאב	-10.2518
01	-10.2518
▁נוכח	-10.2519
▁שפות	-10.252
שן	-10.2521
7%	-10.2522
▁חשמלי	-10.2525
▁החמישי	-10.2528
▁איננה	-10.2528
ba	-10.253
אלץ	-10.2531
▁לוותר	-10.2532
▁מחליט	-10.2534
▁פירוש	-10.2534
▁דרכו	-10.2535
גודל	-10.2537
▁איתה	-10.2537
▁ניסה	-10.2542
▁סיום	-10.2543
▁הירח	-10.2543
מצרים	-10.2546
▁שישה	-10.2555
אנס	-10.2555
▁מגלה	-10.2557
▁הפתרון	-10.256
▁נובע	-10.2561
▁העולמית	-10.2561
▁סיפורים	-10.2561
▁מציעה	-10.2563
▁הפרי	-10.2565
▁בקיץ	-10.2567
▁תחילה	-10.2567
IN	-10.257
נקודת	-10.2571
▁גלי	-10.2572
פלסטינים	-10.2574
▁ומס	-10.2576
תאגיד	-10.2577
▁מקס	-10.2577
קבע	-10.2578
▁יעזור	-10.2578
64	-10.2584
שעה	-10.2592
▁המיוחד	-10.2594
▁באור	-10.2595
▁הפופולרי	-10.2597
גינה	-10.2599
▁להקל	-10.26
▁שחו	-10.2602
מחיר	-10.2602
▁השאלות	-10.2603
▁הפוטנציאל	-10.2604
▁Le	-10.2606
▁גופנית	-10.2607
▁פלא	-10.2607
80	-10.2611
▁לקיים	-10.2611
▁מונע	-10.2612
▁הנמצא	-10.2617
▁המלון	-10.2618
▁הגישה	-10.2628
גדול	-10.2629
קורא	-10.2632
קיפה	-10.2633
▁28	-10.2641
▁מתן	-10.2641
▁מכוניות	-10.2644
▁הסוד	-10.2647
חקירה	-10.2647
בגד	-10.2648
חליף	-10.2651
עצר	-10.2652
קטע	-10.2654
▁לסרט	-10.2656
דרוש	-10.2657
▁35	-10.2659
▁הרג	-10.2661
מאמצי	-10.2661
▁רשות	-10.2668
76	-10.267
תקופות	-10.2672
▁יבש	-10.2674
▁הכניסה	-10.2674
▁בינ	-10.2675
רוז	-10.2676
▁קש	-10.2678
▁המדיניות	-10.2684
לחימה	-10.2684
▁העיצוב	-10.2691
צמיח	-10.2692
ֵי	-10.2692
▁המתח	-10.2693
ראית	-10.2699
ערוץ	-10.2701
▁נייר	-10.2703
תקשורת	-10.2703
▁איטליה	-10.2703
קציה	-10.2707
▁מעורר	-10.2709
▁ציין	-10.2711
גיה	-10.2712
▁ראשוני	-10.2713
▁טעם	-10.2716
▁מבוגרים	-10.2717
▁חיבור	-10.2718
▁הערך	-10.2718
עניק	-10.2718
ריב	-10.2719
▁ממשלה	-10.2721
מוסדות	-10.2723
▁כוללת	-10.2726
▁שבין	-10.2729
אמנות	-10.2732
אוניברסיטאות	-10.2741
תהליך	-10.2741
▁ממשל	-10.2744
▁We	-10.2749
▁המוני	-10.2754
▁כריס	-10.2755
שמאל	-10.2756
קיר	-10.2757
לבנון	-10.2761
ea	-10.2765
▁בקשה	-10.2768
רמז	-10.2771
▁עובדות	-10.2771
קבר	-10.2775
da	-10.2775
43	-10.278
מילה	-10.2781
▁ברחוב	-10.2782
פיקוח	-10.2785
▁מקל	-10.2786
▁נהיה	-10.279
אנדר	-10.2792
▁עשרים	-10.2793
72	-10.2794
▁המסר	-10.2796
▁מפעיל	-10.2797
▁מעצב	-10.2798
צריך	-10.2807
▁ידעו	-10.2807
מינו	-10.2808
▁מעשה	-10.2811
▁טא	-10.2813
▁מכר	-10.2813
▁הפיננסי	-10.2814
▁המשיך	-10.2814
רוש	-10.2815
ַי	-10.2816
▁מסי	-10.2817
▁חיובית	-10.2819
▁מהבית	-10.2821
דרכו	-10.2822
ff	-10.2823
▁שופט	-10.2823
מוסיקה	-10.2828
יסוד	-10.2828
▁לתאר	-10.283
פורד	-10.2831
מחשב	-10.2832
חייל	-10.2848
פצע	-10.2848
▁You	-10.2849
▁ברצינות	-10.285
▁שכולם	-10.2851
נוף	-10.2852
▁הגיוני	-10.2853
▁עצב	-10.2853
יצירת	-10.2855
צופה	-10.2855
▁פרט	-10.2856
▁ברכב	-10.2857
▁שיטת	-10.2858
-13	-10.2858
▁מודעות	-10.2862
▁סמים	-10.2865
▁התחלתי	-10.2866
▁השנתי	-10.2868
▁להסיר	-10.2869
▁התורה	-10.2869
IT	-10.2869
▁הלך	-10.2872
▁הרכבת	-10.2874
▁אדיר	-10.2876
הגדרה	-10.2876
-14	-10.2878
▁חלקם	-10.288
עיירה	-10.288
▁נמל	-10.288
▁מעניק	-10.2882
▁השלישית	-10.2885
מאות	-10.2885
21	-10.289
רבע	-10.2896
נתונים	-10.2897
▁מועיל	-10.2898
▁פרויקטים	-10.2899
נוכחות	-10.2901
שלטון	-10.2903
▁הסדר	-10.2906
▁למשחק	-10.2907
1%	-10.2909
▁אובדן	-10.291
▁מגדל	-10.291
▁רשימה	-10.2914
▁הבסיס	-10.2915
קיימו	-10.2915
▁שיצא	-10.2916
▁ירידה	-10.2917
▁ריצ	-10.2917
▁לנסוע	-10.2923
▁מעלה	-10.2927
▁הדג	-10.2927
▁חיה	-10.2927
ER	-10.2928
▁נתפס	-10.293
▁שמעתי	-10.2935
אזור	-10.2936
▁המכונית	-10.2937
מתנדב	-10.2942
▁צעדים	-10.2943
▁שמאל	-10.2944
▁להודות	-10.2945
▁הכריז	-10.2945
פנט	-10.295
רין	-10.295
▁גאה	-10.295
ארוחה	-10.2955
hi	-10.2955
▁·	-10.2961
▁למישהו	-10.2962
▁2005	-10.2963
▁אבן	-10.2963
סן	-10.2965
▁רחוב	-10.2966
▁למספר	-10.2973
מוזיקה	-10.2973
רשע	-10.2974
▁מחיי	-10.2975
אירופה	-10.2977
▁להפעיל	-10.2977
מפלגה	-10.2979
▁הופכים	-10.2981
▁לאבד	-10.2986
▁משבר	-10.2989
און	-10.299
רשת	-10.2994
▁להצליח	-10.2997
▁האיראני	-10.2998
▁מכונית	-10.3
רוסיה	-10.3002
▁פסק	-10.3002
יועץ	-10.3003
▁ההסכם	-10.3004
מדינת	-10.3004
▁בשלוש	-10.3007
▁נסו	-10.3007
▁מועצת	-10.3011
▁סכום	-10.3015
סך	-10.3015
הסכמה	-10.3016
מאמץ	-10.3019
▁יוצאת	-10.302
▁הטלוויזיה	-10.3022
69	-10.3025
אצ	-10.3026
▁מיי	-10.303
מסעדות	-10.3031
▁שנייה	-10.3032
▁שיח	-10.3035
הופעה	-10.3036
חדשות	-10.3038
▁מחובר	-10.304
▁הפחד	-10.3041
▁התכנית	-10.3043
▁החופש	-10.3043
▁בתגובה	-10.3044
▁רוברט	-10.3046
▁עיקרי	-10.3048
▁אשראי	-10.3049
▁סירב	-10.306
▁Com	-10.3061
▁נסיעה	-10.3061
נץ	-10.3065
חיוך	-10.3066
▁ממוצע	-10.3067
▁הודיע	-10.3071
מורה	-10.3072
▁כואב	-10.3072
▁שאולי	-10.3074
▁ואתם	-10.3074
▁כוללים	-10.3083
▁מתמקד	-10.3085
▁הנהג	-10.3087
פרופיל	-10.3088
▁לאזור	-10.3091
▁בניית	-10.3092
▁הפא	-10.3098
▁שימו	-10.3103
וודא	-10.3105
▁באיזו	-10.3105
▁Ba	-10.3108
▁לנצל	-10.3108
קיום	-10.3109
▁החיצוני	-10.3109
סובב	-10.3115
ממה	-10.3117
▁לשאלה	-10.3118
פסי	-10.3118
▁החברתי	-10.3118
▁מכירות	-10.3121
▁פארק	-10.3124
tor	-10.3127
▁קצרה	-10.3127
▁ביקר	-10.3131
▁המנהיג	-10.314
רוא	-10.3141
▁מושב	-10.3143
מורשת	-10.3144
▁מצוין	-10.3145
▁שמגיע	-10.3146
▁נוהג	-10.3147
רומא	-10.3148
עונש	-10.3149
▁בינינו	-10.3151
pp	-10.3154
ist	-10.3155
ממלכת	-10.3165
▁לסיים	-10.3171
▁המערבי	-10.3173
▁התמונות	-10.3177
טקסט	-10.3178
]]	-10.3182
חשש	-10.3183
פין	-10.3183
▁תקציב	-10.3184
▁קנ	-10.3184
▁להצביע	-10.3185
▁בהר	-10.3187
נחש	-10.3188
כוחות	-10.3189
סבתא	-10.319
▁יישאר	-10.3192
תזונה	-10.3197
▁המין	-10.3198
▁שנוצר	-10.3199
▁ביל	-10.3201
שיתוף	-10.3203
▁ובני	-10.3207
▁מוצאים	-10.3215
ריאל	-10.3216
▁המוזיאון	-10.3218
▁רוסי	-10.3218
▁הכנסייה	-10.3221
עיבוד	-10.3223
▁לתפוס	-10.3223
▁הדר	-10.3223
IC	-10.3228
רכש	-10.3236
כאן	-10.3236
אדריכל	-10.324
דני	-10.3244
יישב	-10.325
▁משפחתו	-10.3255
פספס	-10.3261
-50	-10.3261
ירידה	-10.3262
צוואר	-10.3262
רופא	-10.3262
31	-10.3265
▁פוגע	-10.3266
▁השונות	-10.3267
▁האפשרי	-10.3269
▁החלטת	-10.3275
▁להגדיר	-10.3275
רגיע	-10.3276
▁Z	-10.3276
▁בשבילך	-10.3285
4%	-10.3285
▁השלטון	-10.3286
▁החזר	-10.3289
ביס	-10.329
▁יפן	-10.3291
▁כחול	-10.3294
מז	-10.3296
▁שאחרי	-10.3298
▁הבין	-10.33
▁חוקים	-10.3303
פרנס	-10.3305
▁הייצור	-10.3307
▁27	-10.3313
הופך	-10.3315
מוק	-10.3315
רצון	-10.3319
▁הכביש	-10.332
▁העיקריים	-10.3323
זיל	-10.3324
▁וזאת	-10.3336
▁טען	-10.3337
▁לחדר	-10.3337
▁יוצאים	-10.334
▁טל	-10.3342
▁שרוב	-10.3343
▁פעל	-10.3343
חשיפה	-10.3348
▁הרוב	-10.335
אילו	-10.3352
▁משחקי	-10.3356
ודות	-10.3362
באנגלית	-10.3364
8%	-10.3365
▁במאמר	-10.3371
מאי	-10.3376
tic	-10.338
▁הביטוי	-10.338
▁70	-10.338
▁אינך	-10.3384
▁קשות	-10.3386
התאמה	-10.3389
▁להרוויח	-10.339
▁השתנה	-10.3391
▁חמאס	-10.3392
▁נוכחות	-10.3393
▁באיזה	-10.3393
▁השמאל	-10.3395
פתע	-10.3398
▁בימי	-10.34
ect	-10.3401
▁קיבלה	-10.3402
▁מעוניינים	-10.3403
מסר	-10.3404
▁בפרס	-10.3406
▁המשו	-10.3406
▁ציוד	-10.3407
▁כראוי	-10.3413
▁עמדה	-10.3415
חינוך	-10.3415
עסיק	-10.3417
ימין	-10.3418
▁מדענים	-10.3419
שווקים	-10.342
▁מרחב	-10.3421
▁חור	-10.3421
▁שהגיע	-10.3421
▁להתגבר	-10.3422
מקביל	-10.3423
▁הליכה	-10.3424
מוסר	-10.3424
▁חברתי	-10.3425
▁תאי	-10.3426
רשה	-10.3427
פגיעה	-10.3427
va	-10.3431
טיקה	-10.3435
▁שווי	-10.3436
68	-10.3438
ies	-10.3438
▁אמריקני	-10.3438
ידוע	-10.3439
ביץ	-10.3442
▁מוסדות	-10.3443
ביק	-10.3443
צרכים	-10.3443
מחסור	-10.3451
▁מעוניין	-10.3451
▁המועצה	-10.3451
יציאה	-10.3452
95	-10.3453
▁לכיוון	-10.3456
▁26	-10.3457
▁מסייע	-10.346
▁נכשל	-10.3461
ian	-10.3463
▁הודו	-10.3465
▁באה	-10.3468
▁התר	-10.347
▁מצטער	-10.3471
▁בבני	-10.3472
▁בהקשר	-10.3475
▁אליי	-10.3476
ec	-10.348
▁אוכלים	-10.348
!!!	-10.3487
▁לפגוש	-10.3487
ובי	-10.3487
▁קהל	-10.3488
כובד	-10.3489
▁בהצלחה	-10.349
▁סדרת	-10.3491
▁Li	-10.3491
▁בחירות	-10.3492
▁מתוק	-10.3493
בייש	-10.3493
תכניות	-10.3494
▁גלו	-10.3495
▁טקס	-10.3503
51	-10.3504
▁הלידה	-10.3508
כולל	-10.3509
▁מאמץ	-10.352
ודר	-10.3521
מטוס	-10.3526
מקסיקו	-10.3531
מעו	-10.3533
▁ועדיין	-10.3533
▁הנבחר	-10.354
▁כדורגל	-10.354
מופע	-10.3548
▁לשאת	-10.355
▁האויב	-10.3554
▁לגדול	-10.3556
▁Al	-10.3561
בחנה	-10.3562
▁המט	-10.3562
▁רשימת	-10.3569
גשר	-10.3571
▁ויכול	-10.3572
תקרב	-10.358
שיבה	-10.358
▁תאריך	-10.3581
▁אצלנו	-10.3586
▁אמו	-10.3587
אירוע	-10.3587
▁מחכה	-10.3588
▁לבטל	-10.3596
ance	-10.3608
▁שתהיה	-10.3609
▁כוכבים	-10.361
▁חירום	-10.361
זמר	-10.3612
▁לוקחים	-10.3613
▁בוודאי	-10.3613
▁עוברים	-10.3614
▁2020	-10.3615
▁רגשי	-10.3615
do	-10.3618
שלט	-10.3619
▁מוגדר	-10.362
▁שריר	-10.362
▁האקדמי	-10.3622
▁זמני	-10.3625
▁ישר	-10.3629
▁קרן	-10.363
▁תלמיד	-10.3635
▁מוחלט	-10.3638
מוסד	-10.364
▁האפשר	-10.3641
▁שיא	-10.3643
כיבוש	-10.3643
ci	-10.3652
les	-10.3654
▁תקבל	-10.3654
iz	-10.3655
דגש	-10.3656
▁הסיני	-10.3656
▁צור	-10.3658
מיקום	-10.3659
“	-10.3665
▁הייתם	-10.3666
▁באוויר	-10.3667
▁הירי	-10.3674
▁מונח	-10.3676
▁ואו	-10.3677
22	-10.368
חלומות	-10.3682
▁לעקוב	-10.3685
ud	-10.3686
ster	-10.3688
▁בטיחות	-10.369
56	-10.369
▁רוחני	-10.3691
▁הבעלים	-10.3692
▁מזמן	-10.3693
אחת	-10.3693
▁שבר	-10.3694
▁להגיש	-10.3697
▁בדם	-10.3698
▁יהודית	-10.3698
▁מוכנה	-10.37
▁פסיכולוגי	-10.3703
▁לתפקיד	-10.3705
▁Br	-10.3707
מנכ	-10.3708
▁המורה	-10.3709
שנת	-10.3711
ide	-10.3718
תמונות	-10.3722
תעורר	-10.3724
‬	-10.3725
und	-10.3726
ממשל	-10.373
סכים	-10.3735
▁ואולם	-10.3745
▁הוציא	-10.3746
▁נייד	-10.3753
59	-10.3764
▁מאמינה	-10.3765
טט	-10.3775
▁מגע	-10.3778
▁הנער	-10.3779
רקע	-10.378
דגם	-10.3781
▁בוחר	-10.3781
66	-10.3782
▁He	-10.3785
go	-10.3786
Z	-10.3787
45	-10.3789
▁השינויים	-10.3789
תפקיד	-10.379
▁מכלל	-10.379
▁בגדים	-10.379
▁נמכר	-10.3791
נוחות	-10.3795
▁תנאים	-10.3795
▁השתמשו	-10.3797
▁בהיר	-10.38
▁גורל	-10.3801
תכנן	-10.3805
▁לעצמך	-10.3805
בזבז	-10.3805
▁עצוב	-10.3805
שומר	-10.3807
▁עשור	-10.3809
▁השפעת	-10.3812
▁להתמקד	-10.3813
▁עצר	-10.3813
▁יתרונות	-10.3814
▁במלחמה	-10.3814
ap	-10.3814
▁החופשי	-10.3818
עצם	-10.3818
▁משלוש	-10.3818
▁חבל	-10.382
▁פרטיות	-10.3823
מעבד	-10.3824
▁מחשבה	-10.3824
עתיד	-10.3824
▁להתאים	-10.3825
▁הוד	-10.3825
צרפת	-10.3827
תיקון	-10.383
וננו	-10.3833
▁הדתי	-10.3836
▁להצלחה	-10.3841
9%	-10.3842
▁הקטנה	-10.3846
▁לבריאות	-10.3846
שפע	-10.3848
▁אישיות	-10.385
▁לשכוח	-10.3853
▁יוצרים	-10.3853
▁הבחור	-10.3855
זמני	-10.3855
▁מוזיאון	-10.3856
▁מהירות	-10.386
▁הכנסה	-10.3863
▁קראו	-10.3865
רך	-10.387
▁האופן	-10.3875
▁ציבורית	-10.3877
▁הציג	-10.3881
טרור	-10.3881
▁השיער	-10.3882
הליכים	-10.3885
[2]	-10.3886
▁היקום	-10.3886
פסוק	-10.3887
שש	-10.3889
▁השער	-10.3892
▁בסגנון	-10.3892
▁באיכות	-10.3893
▁לשיר	-10.3895
▁בינלאומית	-10.3896
שמש	-10.3897
▁d	-10.3897
ווין	-10.3899
▁המשתמשים	-10.3901
זכויות	-10.3909
▁הפרק	-10.3912
קרט	-10.3914
▁מבוגר	-10.3919
טמפרטור	-10.3924
אוניברסיטת	-10.3924
▁חולה	-10.3924
▁אסיה	-10.3927
▁המועמד	-10.3928
כתי	-10.3929
▁שיותר	-10.3931
▁כימי	-10.3935
▁מזיק	-10.3938
77	-10.3939
▁ושי	-10.3941
פולין	-10.3942
▁ההצלחה	-10.3943
גופים	-10.3943
ng	-10.3945
▁התגובה	-10.3947
▁80	-10.3948
▁שמן	-10.395
מאוחר	-10.3953
▁הנוכחית	-10.3956
▁An	-10.3958
מעולם	-10.3961
▁מנכ	-10.3962
▁קרקע	-10.3963
מוצא	-10.3965
יהדות	-10.3967
▁האמיתית	-10.3971
▁שפת	-10.3972
▁לאחור	-10.3972
▁העומד	-10.3974
שותף	-10.3976
▁תרבותי	-10.3977
וכח	-10.3979
▁המוכר	-10.3981
▁גבוהות	-10.3982
תנועה	-10.3982
▁בחוק	-10.3988
בוק	-10.3988
▁מודה	-10.399
▁מוצג	-10.399
▁שנראה	-10.3991
טפל	-10.3993
▁באש	-10.3996
▁יצירתי	-10.3997
הוצאות	-10.3999
▁נמשך	-10.4
ייד	-10.4002
שקע	-10.4002
תרומה	-10.4004
אזרח	-10.4007
ear	-10.401
▁סובלים	-10.4012
מוצר	-10.4012
▁בפנים	-10.4012
oc	-10.4014
▁אהוב	-10.4018
▁לחוות	-10.402
▁הערבים	-10.402
▁לעתיד	-10.4023
▁מהירה	-10.4026
▁הקיר	-10.4039
עצור	-10.4039
מכוניות	-10.4044
▁המעבר	-10.4045
▁זכר	-10.4046
פיצו	-10.405
▁משרת	-10.4057
▁לגור	-10.4058
הלכת	-10.406
פארק	-10.4063
▁שעשית	-10.4068
▁רכש	-10.4076
תבטא	-10.4076
ענף	-10.4078
-25	-10.4079
▁הגברים	-10.408
▁תינוקות	-10.4082
US	-10.4088
קצב	-10.4089
פרוייקט	-10.409
▁אימון	-10.409
▁לדמיין	-10.409
▁רצוי	-10.409
▁המשבר	-10.409
▁דעות	-10.4091
קטר	-10.4091
▁עמוקה	-10.4092
▁נעים	-10.4092
▁הצעת	-10.4092
נאמנות	-10.4095
▁קטע	-10.4103
ציית	-10.4104
▁היקר	-10.4107
▁בפרט	-10.4108
ארגן	-10.4108
▁חוקר	-10.411
▁להעניק	-10.4113
היעדר	-10.4114
▁מסחר	-10.4116
▁לימד	-10.4116
תאריך	-10.4118
▁באירוע	-10.4123
▁נחש	-10.4127
▁מחוז	-10.4127
קהילת	-10.4129
▁500	-10.4129
קפיד	-10.4129
▁אובמה	-10.4133
▁הדרכים	-10.4135
▁להעריך	-10.4139
ניהם	-10.4141
▁האחד	-10.4143
▁ילדה	-10.4143
יבשת	-10.4148
▁הקרובה	-10.4149
▁החברתית	-10.4151
מוש	-10.4151
היסטוריה	-10.4155
▁רשמית	-10.4156
בירה	-10.4157
עקרונות	-10.4161
▁בלא	-10.4162
תרגום	-10.4162
ace	-10.4169
▁לזמן	-10.4169
▁הקודמת	-10.4173
▁להיראות	-10.4173
▁השיניים	-10.4173
▁ציבור	-10.4175
▁התנגדות	-10.4181
נוהל	-10.4186
▁חושש	-10.4186
-80	-10.4187
▁סופי	-10.4188
יצו	-10.4188
▁הביט	-10.4189
▁בשדה	-10.4189
▁המונח	-10.4191
▁הראשוני	-10.4193
▁חלום	-10.4194
84	-10.4195
▁מאבק	-10.4196
כביש	-10.4197
כישורים	-10.4202
מבי	-10.4204
נאט	-10.421
ak	-10.4214
▁בתחילה	-10.4214
▁משותפת	-10.4215
▁התנאים	-10.4217
מכונה	-10.4219
▁הצדק	-10.4224
סתכל	-10.4225
לשון	-10.4226
▁זמנית	-10.4228
sa	-10.4229
סיבה	-10.4229
▁לברוח	-10.4234
53	-10.4235
▁הרשות	-10.4237
▁לנושא	-10.4243
▁התמיכה	-10.4246
▁חלל	-10.425
▁השיב	-10.4252
שוקולד	-10.4255
▁תנועת	-10.4259
▁המזרח	-10.4261
▁ממשיכה	-10.4262
▁המזו	-10.4265
▁קריטי	-10.4267
▁מורה	-10.4273
▁Se	-10.4274
▁רבי	-10.4275
▁מתפתח	-10.4276
iv	-10.4283
מעשים	-10.4284
כבוש	-10.4284
▁Sp	-10.4285
וטים	-10.4285
קינג	-10.4287
▁נהר	-10.4287
▁ואחד	-10.4293
סיר	-10.4293
ord	-10.4295
תכונות	-10.4296
▁מתע	-10.4297
▁שאלתי	-10.4307
טענות	-10.4307
73	-10.4311
▁ומח	-10.4311
▁נופל	-10.4313
הקמת	-10.4314
ניתן	-10.4317
בריא	-10.4318
▁המשפטי	-10.4318
▁מחלת	-10.4323
▁מסך	-10.4328
▁סימנים	-10.4329
der	-10.4332
▁מבקשים	-10.4333
▁יחידות	-10.4333
▁הישראלים	-10.4335
IS	-10.4336
מנגנון	-10.4341
▁שואלים	-10.4343
▁שנועד	-10.4344
▁יוסף	-10.4345
▁המקומית	-10.4346
ְר	-10.4348
תעקש	-10.435
▁מקובל	-10.435
▁נבנה	-10.4352
▁מתנגד	-10.4357
78	-10.4363
82	-10.4363
5,000	-10.4364
צרכנים	-10.4366
▁טיפש	-10.4367
שתדל	-10.4369
ריקוד	-10.437
למרות	-10.4372
▁אסיר	-10.4374
▁תס	-10.4374
▁45	-10.4376
▁מעלות	-10.4378
AN	-10.4378
}	-10.4383
▁שעדיין	-10.4383
שתחרר	-10.4383
▁ארוכות	-10.4383
▁עונש	-10.4383
▁בולט	-10.4384
▁למטרות	-10.4386
ארמון	-10.4387
▁עולמי	-10.4387
▁לבי	-10.4389
▁מעדיף	-10.4389
▁יעילה	-10.439
התקפה	-10.4391
▁ענה	-10.4392
▁חטא	-10.4395
פוליטיקאים	-10.4398
▁אתרים	-10.4407
▁הערכה	-10.4408
▁שהחל	-10.4412
▁90	-10.4418
סופר	-10.4421
▁צה	-10.4422
▁דגים	-10.4425
▁לעצמכם	-10.4425
▁ששי	-10.4428
▁מוגבלת	-10.4428
אירלנד	-10.4428
AR	-10.4429
▁מפגש	-10.4431
▁דלק	-10.4434
▁מכירה	-10.4434
▁בשעות	-10.4434
בלתי	-10.4437
▁לשרת	-10.4439
בירת	-10.4443
▁בעסק	-10.4445
מיעוט	-10.4448
▁הגורמים	-10.445
▁הנפט	-10.445
▁תופס	-10.4452
▁מתעורר	-10.4452
▁הפרטים	-10.4452
▁מספקים	-10.4454
▁גבול	-10.4454
▁No	-10.4456
תוך	-10.4457
▁נהרג	-10.446
פרויקט	-10.4461
▁הביטוח	-10.4462
חדשנות	-10.4463
▁לגוף	-10.4466
▁סמכות	-10.4466
▁וכיצד	-10.4469
▁יורד	-10.4473
אוסטרליה	-10.4478
▁2003	-10.4482
אסור	-10.4489
41	-10.4489
▁מטרים	-10.4489
▁ממוקם	-10.449
▁הנכס	-10.4491
▁ישירה	-10.4493
▁התחת	-10.4494
▁וסי	-10.4495
לכו	-10.4496
▁מבי	-10.4497
▁שימושי	-10.4498
▁חני	-10.4502
יציבות	-10.4503
44	-10.4506
▁ברק	-10.4507
▁מצחיק	-10.4511
▁נקודה	-10.4512
מינימום	-10.4512
▁לראש	-10.4515
כריע	-10.4517
oo	-10.4517
▁מצליחים	-10.4519
son	-10.4521
▁מודאג	-10.4525
קוע	-10.4527
סטון	-10.4528
%)	-10.4529
תחנת	-10.4532
▁ידיד	-10.4536
▁התקשר	-10.4539
ירדן	-10.4541
▁Da	-10.4543
זול	-10.4547
▁פירות	-10.4549
מעבר	-10.455
▁קראתי	-10.4553
▁אוסטרליה	-10.4553
ton	-10.4554
▁במובן	-10.4555
▁לתרום	-10.4556
▁רביעי	-10.4556
▁לשרוד	-10.456
נתק	-10.4562
▁פרופסור	-10.4562
▁ייעוץ	-10.4562
▁נוגע	-10.4564
▁מאבד	-10.457
58	-10.457
▁on	-10.4571
▁רמ	-10.4573
פצו	-10.458
מכשול	-10.4581
▁מלה	-10.4583
▁יוני	-10.4584
▁הצרכים	-10.4584
▁המזל	-10.4584
עצמה	-10.4587
▁מפלגת	-10.4592
▁לפיתוח	-10.4593
▁נתון	-10.4594
▁המקדש	-10.4595
▁להתקיים	-10.4597
קין	-10.4599
סוכן	-10.4604
▁ניסו	-10.4605
▁עובדה	-10.4605
אוויר	-10.4605
▁הוראות	-10.4607
▁להגיב	-10.4612
סטית	-10.4615
שבי	-10.4616
▁הסטודנטים	-10.462
משקל	-10.4622
בקר	-10.4623
פוט	-10.4624
נושא	-10.4626
אחוז	-10.4633
▁הסופר	-10.4634
יחוד	-10.4635
חלום	-10.4637
▁מייקל	-10.4645
פאלון	-10.4646
▁לרוץ	-10.4647
▁הישן	-10.4648
▁Bo	-10.4648
61	-10.4649
יסטית	-10.4653
▁Microsoft	-10.4655
ודיע	-10.4655
▁Do	-10.4656
עושר	-10.4657
שכנע	-10.4662
▁נסע	-10.4664
▁אהיה	-10.4665
סבר	-10.4666
תרופות	-10.4668
קנים	-10.4674
▁רדיו	-10.4677
▁והנה	-10.4682
▁התקבל	-10.4684
▁השחקן	-10.4685
ציפיות	-10.4687
▁הכבוד	-10.4688
▁הזמנים	-10.4688
▁בצורת	-10.4689
עישון	-10.4689
סכמת	-10.4696
▁פגיעה	-10.4697
▁שיחה	-10.4698
ננים	-10.4702
▁במוח	-10.4705
▁נתוני	-10.4706
▁סוכר	-10.4708
▁מקומיים	-10.4712
▁re	-10.4715
tt	-10.4715
▁דוגמאות	-10.4716
▁ולהיות	-10.4721
▁הכתוב	-10.4723
מכונית	-10.4724
▁להופיע	-10.4729
▁למחרת	-10.4729
▁תמורת	-10.473
▁תגית	-10.473
תופעה	-10.4731
ומנים	-10.4732
▁הכוכבים	-10.4732
מגבלות	-10.4733
▁החשובים	-10.4736
▁חשיבה	-10.474
▁אברהם	-10.4741
▁ליותר	-10.4743
ארוחות	-10.4744
▁המאבק	-10.4745
▁וחלק	-10.4745
▁הקשה	-10.4747
ריצה	-10.4754
▁מחייב	-10.476
▁פרטיים	-10.4762
▁תעשה	-10.4764
▁האחים	-10.4768
\	-10.4772
▁הארוך	-10.4773
▁הזהב	-10.4774
▁For	-10.4775
▁מצאתי	-10.4776
תאונה	-10.4777
גרמניה	-10.4781
▁השק	-10.4783
▁ואומר	-10.4783
67	-10.4784
▁טוענים	-10.4786
▁בדרכים	-10.4787
▁חום	-10.4788
▁לקוח	-10.4789
▁ערכים	-10.479
▁הרחוב	-10.4794
▁יעקב	-10.4794
▁יולי	-10.4795
▁עברה	-10.4796
▁המשטר	-10.4798
▁הנשק	-10.48
זכיר	-10.4801
▁עובדי	-10.4802
החיים	-10.4804
▁תפס	-10.4804
כיוון	-10.4805
שמיע	-10.4814
אוכלוסיית	-10.4817
כאשר	-10.4817
▁2002	-10.482
▁תוכנה	-10.4824
▁רגילים	-10.4824
▁המערב	-10.4825
מעגל	-10.4825
▁החג	-10.4829
▁עקרונות	-10.4829
▁ולח	-10.483
▁הופ	-10.4836
▁ראיות	-10.4836
▁יין	-10.4836
▁מתבצע	-10.4838
▁תלמידי	-10.4839
בחינה	-10.484
ירושלים	-10.4847
▁באמריקה	-10.4847
▁מעבד	-10.485
▁מסמכים	-10.4852
צהריים	-10.4852
▁החבר	-10.4854
▁Go	-10.4856
▁בשיעור	-10.4861
התקדמות	-10.4864
הגירה	-10.4866
▁עבודתו	-10.4866
▁המקרה	-10.4866
▁ליצירת	-10.4869
▁כאחד	-10.487
▁גנטי	-10.4871
▁נזכר	-10.4871
פאר	-10.4871
▁נמסר	-10.4876
▁לשחרר	-10.4878
▁בתחומי	-10.4878
▁שיחות	-10.4878
משמר	-10.4878
▁התל	-10.4879
▁לדוגמא	-10.4883
▁תצ	-10.4885
נקה	-10.4885
▁לאלוהים	-10.4886
נשמה	-10.4886
▁פיתח	-10.4889
חטא	-10.489
▁Ph	-10.4895
▁האנ	-10.4896
▁העתיק	-10.4897
לימוד	-10.4898
▁קצב	-10.4903
▁הבניין	-10.4906
▁מפחיד	-10.4907
תמיכת	-10.4912
▁ציפור	-10.4913
▁חופשית	-10.4914
▁המודרנית	-10.4919
▁העביר	-10.492
▁תכנון	-10.4925
▁להתקדם	-10.4926
▁תושבים	-10.4929
net	-10.4933
גורל	-10.4937
▁מגיב	-10.4938
▁סחר	-10.4941
▁אלבום	-10.4944
▁יצאו	-10.4946
אסירים	-10.4947
▁פייסבוק	-10.495
▁מומחה	-10.495
צעצוע	-10.495
▁מרוצה	-10.4951
▁הסוג	-10.4952
גישו	-10.4956
▁לשנה	-10.4956
▁השטן	-10.4962
סקופ	-10.4963
מאסטר	-10.4965
▁עלייה	-10.4966
ביר	-10.4966
up	-10.4966
שמיד	-10.4975
▁חב	-10.4982
חדר	-10.4984
חסד	-10.4986
תכלית	-10.4986
▁שמא	-10.4993
▁יצליח	-10.4995
▁הכללית	-10.4997
▁שיוכל	-10.4997
דיפלומ	-10.4998
▁במצרים	-10.4999
התקפות	-10.4999
מוז	-10.5
צפייה	-10.5
▁=	-10.5004
▁מקצועית	-10.5004
▁בטלוויזיה	-10.5005
▁והחל	-10.5006
90	-10.5006
▁רופאים	-10.5008
כרות	-10.5013
▁אישר	-10.5014
▁להרחיב	-10.5014
81	-10.5016
משקאות	-10.5018
תרגול	-10.502
▁שבועיים	-10.5023
▁הצעירים	-10.5028
אולם	-10.5029
▁הפרו	-10.503
▁מגדיר	-10.5032
▁הערים	-10.5033
▁הקורא	-10.5033
▁יחס	-10.5037
כוונות	-10.5038
▁האלקטרוני	-10.5041
▁בחירת	-10.5042
▁שלאחר	-10.5043
קריירה	-10.5046
▁השעה	-10.5046
▁קיבלתי	-10.5049
▁So	-10.5051
ריפוי	-10.5051
▁משלו	-10.5055
▁המחבר	-10.5059
▁למידה	-10.506
טריד	-10.506
▁תשכח	-10.5062
▁לאירוע	-10.5063
גילוי	-10.5066
ES	-10.5066
זכות	-10.5066
▁בריאים	-10.5071
▁המבט	-10.5071
▁הגיל	-10.5072
▁תן	-10.5073
▁שבעה	-10.5073
הליך	-10.5073
port	-10.5074
▁בסיפור	-10.5078
▁שוחרר	-10.508
חושך	-10.5082
▁בכלא	-10.5084
▁דירה	-10.5086
▁המשיח	-10.5086
▁מתאימה	-10.5086
▁ארוכים	-10.5086
תבונן	-10.5088
▁צמיחה	-10.509
▁למדתי	-10.509
▁מטעם	-10.509
חידוש	-10.5092
ניצחון	-10.5093
fe	-10.5095
דמעות	-10.5096
גבי	-10.5097
▁נוער	-10.5097
פוסט	-10.5101
דרישה	-10.5102
▁מצפים	-10.5103
▁המשמש	-10.5104
מפלגות	-10.5104
▁אורך	-10.5107
-40	-10.5108
▁העברת	-10.5109
▁להזמין	-10.5112
משאבים	-10.5113
▁שגוי	-10.5114
▁חמישי	-10.5117
▁התעשייה	-10.5119
▁הפוליטית	-10.512
-60	-10.5123
▁המסע	-10.5125
▁למוות	-10.5129
▁קיום	-10.513
ניסיונות	-10.5132
▁הקטנים	-10.5132
מודיעין	-10.5133
משקפי	-10.5136
▁המרכזית	-10.514
שתפר	-10.5143
▁דרוש	-10.5145
▁סליחה	-10.5146
פסיכולוג	-10.5149
▁המולד	-10.515
▁דיון	-10.5154
▁ברמת	-10.5155
▁לביקור	-10.5164
▁שנולד	-10.5169
מראה	-10.5172
▁שוט	-10.5175
▁הפסקת	-10.5176
▁לשלום	-10.5177
זיכרונות	-10.5178
▁יתרון	-10.5178
+	-10.5183
שוחרר	-10.5184
▁ביכולת	-10.5189
▁האירועים	-10.519
-21	-10.5196
▁h	-10.5201
ft	-10.5203
▁פרופ	-10.5203
▁Ha	-10.5204
6%	-10.5204
▁עמדת	-10.5206
מולדת	-10.5212
pa	-10.5214
▁מפעל	-10.5215
▁בפייסבוק	-10.5215
▁המבצע	-10.5218
▁במציאות	-10.5221
▁שאינה	-10.5223
▁עשתה	-10.5225
אורח	-10.5225
▁שחרור	-10.5225
▁המחירים	-10.5225
46	-10.5226
▁החיילים	-10.5229
62	-10.523
סיכום	-10.5231
▁מבקרים	-10.5232
מייל	-10.5233
מסמכים	-10.5234
▁טיסה	-10.5236
▁המשתתפים	-10.5244
▁הסינית	-10.5245
▁הלחץ	-10.5249
▁שותפים	-10.5249
סקו	-10.5251
הונגרי	-10.5254
קצין	-10.5255
▁אחיו	-10.5258
▁הכיבוש	-10.5258
▁היל	-10.5258
▁אדוני	-10.5262
שיפור	-10.5262
▁בשיתוף	-10.5264
▁הרשויות	-10.5265
חוצה	-10.5265
טכניקות	-10.5267
▁עשית	-10.527
▁ממליצים	-10.527
▁מסכימים	-10.527
▁התקדמות	-10.527
▁הנקודה	-10.5271
ep	-10.5272
sion	-10.5277
▁חוזרים	-10.5282
מישהו	-10.5284
סמכות	-10.5286
הוצאה	-10.5286
הפעלת	-10.5289
04	-10.529
▁התחרות	-10.5292
▁סמל	-10.5295
57	-10.5295
זירה	-10.5296
▁בקבוק	-10.5296
▁המזרחי	-10.5297
PS	-10.5298
▁Mar	-10.53
תשע	-10.5305
טום	-10.5306
צמח	-10.5309
▁מוסיקה	-10.5311
▁ערים	-10.5311
▁רוד	-10.5311
סחור	-10.5315
יתן	-10.5321
▁ויי	-10.5321
▁כתבה	-10.5321
▁דניאל	-10.5323
▁לאסוף	-10.5324
פסטיבל	-10.5325
▁התוכן	-10.5325
ניסוי	-10.5327
פז	-10.5329
we	-10.533
▁בהריון	-10.5331
גיבור	-10.5333
▁מסוגלת	-10.5334
▁מאתנו	-10.5335
ציוד	-10.5336
ark	-10.5337
קנדה	-10.5338
מפרץ	-10.5339
▁שייך	-10.534
ונל	-10.5342
חנויות	-10.5346
טכני	-10.5354
▁פועלת	-10.5354
CO	-10.5356
▁חיינו	-10.5358
הנדסה	-10.5359
▁[+]	-10.5363
אנטישמיות	-10.5364
▁הוקמה	-10.5364
▁עוזב	-10.5365
▁לנקוט	-10.5366
▁מעיד	-10.5366
▁n	-10.5367
▁הצליחה	-10.5368
▁בממוצע	-10.537
▁לשכנע	-10.5371
▁עמית	-10.5371
ov	-10.5374
▁טכנולוגיות	-10.5376
▁למדע	-10.5378
▁שלפני	-10.5381
▁משמע	-10.5381
צרפתית	-10.5385
▁חלש	-10.5385
▁מעודד	-10.5385
מסלול	-10.5385
63	-10.539
הפרעות	-10.5391
בראשית	-10.5393
נגר	-10.5398
קדיש	-10.5398
▁קאר	-10.5399
קרקע	-10.54
▁משימה	-10.54
▁הדיון	-10.5401
שוויץ	-10.5406
קום	-10.5406
▁בריטי	-10.5407
שורש	-10.5407
▁מוציא	-10.5408
▁להכניס	-10.5408
ct	-10.5409
ליברלי	-10.541
איטלקי	-10.5411
▁2004	-10.5413
▁נוסד	-10.5423
וושינגטון	-10.5424
▁זוכרת	-10.5425
טפח	-10.5425
▁גוגל	-10.5427
▁זוכרים	-10.5429
▁המסך	-10.543
▁איום	-10.5432
▁זכרו	-10.5437
▁הצער	-10.5439
▁co	-10.5441
ite	-10.5449
▁לבלות	-10.545
ניתוח	-10.5455
▁קנדה	-10.5456
▁המקורית	-10.5457
קטגוריה	-10.5457
עיסוק	-10.5459
טק	-10.5459
▁לדרך	-10.5459
▁עוקב	-10.5461
▁במלוא	-10.5462
▁כניסה	-10.5465
▁אמורה	-10.5466
ys	-10.5468
▁המטבע	-10.5468
▁מבינה	-10.5469
קדמי	-10.5486
▁רובם	-10.5488
▁בתוכנית	-10.549
av	-10.5491
▁הרגליים	-10.5491
תיאוריה	-10.5492
▁לכמה	-10.5495
▁שעובד	-10.5495
▁החוויה	-10.5496
▁לחלוק	-10.5498
בעת	-10.5499
▁בדיקת	-10.55
▁מסיבה	-10.5501
▁במדינת	-10.5501
יושב	-10.5504
ׁ	-10.5505
MA	-10.5505
▁רגוע	-10.5505
▁חקלאי	-10.5505
▁קהילה	-10.5506
▁שיהיו	-10.5509
▁בטיפול	-10.551
▁רחבה	-10.551
▁השיטה	-10.5514
▁פנימה	-10.5516
▁חזקים	-10.5517
▁מוקד	-10.5518
שבח	-10.5521
▁המקומות	-10.5524
▁הודות	-10.5531
▁עותק	-10.5532
רוויח	-10.5533
▁אנד	-10.5533
▁מפקד	-10.5535
פונים	-10.5537
AS	-10.554
▁התחילו	-10.5544
▁מתנה	-10.5547
פעולה	-10.5547
מבקר	-10.5549
שיטת	-10.5553
▁תחרות	-10.5553
▁עולמית	-10.5554
▁גן	-10.5556
▁לרבות	-10.5557
▁Mi	-10.556
▁הניתוח	-10.5561
▁התרופה	-10.5564
▁זכאי	-10.5565
▁טעויות	-10.5565
קדמת	-10.5567
▁חסרי	-10.5568
טלפונים	-10.557
▁המראה	-10.5574
▁שותף	-10.5576
▁אוסף	-10.5577
▁בטווח	-10.5581
▁נרצח	-10.5581
▁ניצול	-10.5586
▁נוחות	-10.5588
▁מיותר	-10.559
שמת	-10.559
לקוחות	-10.5593
ree	-10.5594
▁להלן	-10.5594
▁לחשוף	-10.5598
אתם	-10.56
600	-10.5601
▁בחלל	-10.5605
דלת	-10.5606
▁האמריקאים	-10.5609
▁יעילות	-10.561
▁הזיכרון	-10.5611
קוף	-10.5614
תגובות	-10.5615
אובייקט	-10.5615
תפלל	-10.5617
▁הסוף	-10.5619
פעמים	-10.5619
נפגע	-10.5621
▁השואה	-10.5623
▁צורות	-10.5626
▁להתרחש	-10.5627
▁סטיב	-10.563
משכו	-10.5633
▁Ar	-10.5634
▁להקשיב	-10.5635
▁גיבור	-10.5635
▁מחזור	-10.5645
▁לומד	-10.5645
▁הפדרלי	-10.5648
▁צריכות	-10.5648
▁משכ	-10.5649
בסופו	-10.5649
▁איני	-10.5652
▁29	-10.5654
▁ריח	-10.5655
דיבר	-10.5655
שבט	-10.5657
נלי	-10.5658
▁רשתות	-10.5659
מפקד	-10.566
▁התובע	-10.566
רשימה	-10.566
▁פלילי	-10.5661
▁אבות	-10.5666
▁הקורס	-10.5667
הנאה	-10.5668
התמודדות	-10.5669
עדכון	-10.5669
▁הקפה	-10.5669
▁העסקים	-10.5673
-100	-10.5673
הגנה	-10.5675
▁קילו	-10.5677
▁מובן	-10.5679
▁עמי	-10.5682
ty	-10.5684
רפובליק	-10.5684
▁המשק	-10.5685
▁הערבית	-10.5688
נער	-10.5688
▁שהדבר	-10.5689
שעון	-10.5694
▁לעצמם	-10.5697
▁הנפוצ	-10.5698
24	-10.5698
חודש	-10.5699
יישומים	-10.57
מלחמה	-10.5702
ip	-10.5703
▁הערה	-10.5706
יוון	-10.5708
נטלי	-10.5709
▁שנאמר	-10.571
▁תחנת	-10.5715
▁קוק	-10.5717
AT	-10.5718
משפט	-10.5718
▁לבעלי	-10.572
▁צבאית	-10.5725
▁המדעי	-10.5727
▁קונים	-10.5733
תוכן	-10.5734
דצמבר	-10.5735
▁הידיים	-10.5736
▁הקרובים	-10.5739
▁למידע	-10.5741
▁מנצח	-10.5743
▁זמינים	-10.5745
▁שעומד	-10.5745
▁שחלק	-10.5746
▁בסביבות	-10.5748
סובייטי	-10.5748
▁2001	-10.575
קבוצה	-10.5752
▁המלכותי	-10.5753
▁צעירה	-10.5756
▁לכלול	-10.5757
▁הצעות	-10.5757
▁כביש	-10.5761
▁בוצע	-10.5761
בדיקות	-10.5765
גדיר	-10.5768
תומכי	-10.5768
▁עין	-10.5769
▁הגז	-10.577
▁מיומנויות	-10.5773
▁ברירה	-10.5775
▁קיץ	-10.5779
54	-10.578
▁האזרחי	-10.5781
מאר	-10.5781
▁מטפל	-10.5784
כשל	-10.5785
בגרות	-10.5785
▁מעורבים	-10.5786
▁דמוקרטי	-10.5792
▁השירותים	-10.5792
פצה	-10.5793
▁מעין	-10.5794
▁למשוך	-10.5794
▁ועדת	-10.5794
▁השולחן	-10.5798
▁חוזרת	-10.5802
▁הולנד	-10.5806
רצונך	-10.5807
שכח	-10.5809
▁הנסיעה	-10.5816
▁החורף	-10.5819
▁השקעות	-10.5825
דומים	-10.5827
▁הספורט	-10.5828
▁חומרי	-10.5829
נהיג	-10.5836
▁צורת	-10.5838
▁דרישות	-10.584
ניתנת	-10.5841
▁Po	-10.5842
▁חולק	-10.5842
▁בהדרגה	-10.5843
▁מתקרב	-10.5844
▁מימון	-10.5845
OS	-10.5845
▁לרשות	-10.585
▁הרשימה	-10.5851
▁השיחה	-10.5852
▁מוק	-10.5853
▁פליט	-10.5856
▁האישיים	-10.5857
▁השקעה	-10.5859
סגנון	-10.5859
חשבון	-10.5859
▁אוטובוס	-10.586
▁נשכח	-10.5862
ON	-10.5862
▁מבוססת	-10.5867
▁בכפר	-10.5868
אוזן	-10.5873
83	-10.5875
השקעות	-10.5876
▁פיזית	-10.5877
▁שעלול	-10.5879
ארט	-10.5887
משקיעים	-10.5887
ייעץ	-10.5887
שליט	-10.5891
ציוני	-10.5893
▁מנהלים	-10.5893
▁וכמובן	-10.5893
▁כשאתם	-10.5898
▁דיוק	-10.59
▁כספים	-10.5902
סקס	-10.5902
▁להתעלם	-10.5903
▁הירוק	-10.5904
פחית	-10.5906
▁חלומות	-10.5908
nc	-10.5908
▁לשקול	-10.5908
מלך	-10.5909
ניסיון	-10.5909
CD	-10.5912
▁יופי	-10.5914
▁ברשות	-10.5915
▁טהור	-10.5917
▁דגל	-10.5918
רכוש	-10.5923
אולי	-10.5928
▁התעורר	-10.5931
▁נראו	-10.5935
הגדרות	-10.5936
תינוק	-10.5936
▁טקסט	-10.5938
שפה	-10.594
חמישים	-10.594
▁לעצמנו	-10.5942
▁ללבוש	-10.5942
מתמטיקה	-10.5942
▁לעורר	-10.5943
▁בדומה	-10.5943
▁חשבונות	-10.5943
▁יהודה	-10.5944
אקדמיה	-10.5944
▁נשי	-10.5944
▁היפני	-10.5947
▁ראינו	-10.595
▁פורסם	-10.595
▁קריאה	-10.5951
חמו	-10.5957
▁תרגיל	-10.5957
▁מראים	-10.5958
▁הגיב	-10.5961
&	-10.5962
תחומי	-10.5965
מדובר	-10.598
02	-10.5981
▁לחצו	-10.5985
אזרחים	-10.5992
מאבק	-10.5993
▁הוגן	-10.5995
משורר	-10.5998
וירוס	-10.5999
דד	-10.5999
ical	-10.6002
96	-10.6002
מרק	-10.6005
74	-10.6007
▁מבחן	-10.6007
▁הפיתוח	-10.6013
משבר	-10.6013
▁המחשבה	-10.6013
▁עצם	-10.6014
▁בקצב	-10.6021
עט	-10.6021
SS	-10.6023
▁להתחבר	-10.6024
▁הכלכלית	-10.6027
▁קבר	-10.6028
▁Ho	-10.6028
▁נוסע	-10.6028
▁במערב	-10.6029
▁אמריקאים	-10.6031
▁לממש	-10.6031
-70	-10.6039
▁בעצמך	-10.6041
אוקראינה	-10.6043
▁200	-10.6048
▁Su	-10.6049
▁ביפן	-10.605
▁הביניים	-10.6052
▁בשקט	-10.6052
▁עתידי	-10.6053
קצת	-10.6054
לאומי	-10.6057
▁חסרת	-10.6059
גיוס	-10.6059
ang	-10.606
▁שחשוב	-10.6064
▁שולט	-10.6064
▁Ad	-10.6069
▁חוזה	-10.6071
▁בטלפון	-10.6071
▁מלח	-10.6073
▁המכונה	-10.6073
▁סביבת	-10.6075
ייזר	-10.6079
▁המועצות	-10.6087
_	-10.6092
▁בבירור	-10.6092
▁תשובות	-10.6093
ענה	-10.6094
ial	-10.6104
נקודות	-10.6104
▁להבחין	-10.6106
▁הצהריים	-10.6107
השגת	-10.6108
דיל	-10.6109
▁הפליטים	-10.6111
יהודי	-10.6114
▁אמורים	-10.6115
▁נעלם	-10.6117
חבורה	-10.6117
▁בחרו	-10.6117
דימוי	-10.6119
▁מאמרים	-10.6121
▁אפשרית	-10.6123
▁הזכויות	-10.6126
כונן	-10.613
כדורסל	-10.6136
▁במלחמת	-10.6137
▁למעט	-10.6138
▁היחס	-10.6138
▁ולמה	-10.6138
עריכת	-10.6145
▁בפעילות	-10.6146
▁התושבים	-10.6146
▁אדי	-10.6146
▁למערכת	-10.6147
▁קולנוע	-10.6147
▁החלטתי	-10.6148
אישור	-10.6151
▁לסבול	-10.6153
פעולות	-10.6156
נישואי	-10.6159
▁מאחור	-10.616
nk	-10.6161
שילוב	-10.6162
▁סינ	-10.6168
▁המכיל	-10.6169
רחיב	-10.6172
▁פוליטיים	-10.6178
mon	-10.618
▁פתוחה	-10.6182
▁צבעים	-10.6187
▁גילוי	-10.6188
▁תיקון	-10.6189
עונה	-10.619
▁קריירה	-10.619
▁למלחמה	-10.6191
▁הרוסית	-10.6191
▁New	-10.6193
▁לתקופה	-10.6193
▁בפיתוח	-10.6194
קון	-10.6196
תפריט	-10.6202
▁למחשב	-10.6204
▁בקבוצה	-10.6204
▁שתמיד	-10.6205
▁תצטרך	-10.6205
au	-10.6206
▁בפריז	-10.6207
אומץ	-10.6208
▁בגין	-10.6215
▁מפסיק	-10.6217
▁בפרק	-10.6219
מטרי	-10.622
▁רכוש	-10.6224
מזג	-10.6226
כפר	-10.6227
▁אירו	-10.6227
▁הכוללת	-10.623
▁One	-10.6235
ock	-10.6237
▁לסמוך	-10.6244
▁הניסיון	-10.6245
▁צריכת	-10.6246
▁זיהום	-10.6251
▁מחירי	-10.6252
ממשלת	-10.6256
▁לעיל	-10.6258
▁המתאים	-10.6259
זמנת	-10.6263
▁הצמח	-10.6265
▁הקצר	-10.6266
טיפוח	-10.6268
משרד	-10.6271
דיכאון	-10.6271
▁הפרטיות	-10.6272
▁לפרסם	-10.6272
▁הבורא	-10.6272
▁להרוס	-10.6275
ron	-10.6275
דפים	-10.6277
▁לחסוך	-10.6281
▁העניק	-10.6282
רנס	-10.6283
▁לעודד	-10.6288
▁לערוך	-10.629
▁סדרה	-10.6298
▁דרמטי	-10.6298
▁לתלמידים	-10.6299
▁בקיצור	-10.6299
פירות	-10.6301
▁בריאה	-10.6306
מצלמות	-10.6307
▁המפורסם	-10.6309
▁תוספת	-10.631
תוצאה	-10.631
▁משאבים	-10.6312
▁שנערך	-10.6312
▁התמקד	-10.6317
▁הודיעה	-10.6317
▁הגרמנים	-10.632
ture	-10.6321
▁לרופא	-10.6323
▁רוז	-10.6332
שיטה	-10.6334
ind	-10.6334
▁שמדובר	-10.6337
MS	-10.6339
▁מיקום	-10.6343
▁הבריטית	-10.6344
אבולוציה	-10.6347
▁זכתה	-10.6347
▁אינטרס	-10.6348
▁קשורים	-10.635
▁Un	-10.6352
▁המספרים	-10.6354
▁ההריון	-10.6356
▁במשפחה	-10.6357
▁יקבל	-10.6361
▁Vi	-10.6361
בדל	-10.6362
▁דפוס	-10.6364
▁להורג	-10.6364
▁נפצע	-10.6365
נשטיין	-10.6365
ran	-10.6366
לינג	-10.6367
▁התרופות	-10.6369
▁קצ	-10.637
▁לחזק	-10.638
▁מעגל	-10.6381
land	-10.6382
ֹא	-10.6382
חפצים	-10.6386
משימה	-10.6387
▁לסוג	-10.6388
חמאס	-10.6389
▁חנויות	-10.6389
▁בסיכון	-10.6396
▁אוגוסט	-10.6397
▁הייחודי	-10.6399
▁המבקרים	-10.6402
▁לשיפור	-10.6402
▁אנגליה	-10.6402
▁גשר	-10.6402
אחרי	-10.6403
▁שמירה	-10.6407
▁המטרות	-10.6408
▁אזורי	-10.6413
ננות	-10.6413
▁תרגום	-10.6414
בגלל	-10.6419
▁משך	-10.6421
▁הכרטיס	-10.6427
▁שאלו	-10.6437
▁צרפתי	-10.644
▁השישי	-10.6441
צריכה	-10.6441
▁המורכב	-10.6442
▁קחו	-10.6446
▁[-	-10.6448
▁שולחן	-10.6449
▁איזון	-10.6451
▁רכישת	-10.6451
סיגריות	-10.6454
▁הצמיחה	-10.6454
▁למרכז	-10.6456
▁הגרוע	-10.6458
▁ההוא	-10.646
▁ברזל	-10.6462
טיפוס	-10.6463
▁שרוצים	-10.6464
▁תחבורה	-10.6468
▁ליהודים	-10.647
▁התקציב	-10.6477
שימור	-10.648
▁חנות	-10.6484
▁משקיעים	-10.6485
ens	-10.6486
▁מתמיד	-10.6488
▁הריון	-10.6492
▁רגלי	-10.6492
ורן	-10.6493
▁האנגלית	-10.6496
▁לשוק	-10.6497
▁רומא	-10.6499
מבצע	-10.6499
▁הגעת	-10.65
▁קלאסי	-10.6505
▁זוכה	-10.6508
אוניברסיטה	-10.6508
▁ציון	-10.6516
מגדל	-10.6519
▁לזכויות	-10.6521
ֶר	-10.6523
▁בחורה	-10.6527
▁חרדה	-10.6527
▁כשאנחנו	-10.653
סוד	-10.653
שמור	-10.6534
▁משאיר	-10.6543
מלכה	-10.6547
▁המחוז	-10.6548
▁עלויות	-10.6549
▁מחשבים	-10.6551
▁המסורתי	-10.6557
▁שאמרתי	-10.6557
▁מלאכותי	-10.6558
תסריט	-10.6558
תזמור	-10.6559
▁האחורי	-10.656
נכון	-10.6561
▁מטופלים	-10.6561
חקיקה	-10.6562
▁בעצמי	-10.6567
▁הוצאות	-10.6571
!)	-10.6573
▁המפגש	-10.6573
▁טורקיה	-10.6577
▁שיעורי	-10.6581
▁אמצע	-10.6598
תרבויות	-10.6609
▁ההודעה	-10.661
▁הבנייה	-10.661
▁עוצמת	-10.661
▁למחקר	-10.661
דרדר	-10.6611
▁ליישם	-10.6611
▁מער	-10.6613
▁מושלמת	-10.6613
צץ	-10.6617
▁לסגור	-10.6618
גנרל	-10.6619
הסכמי	-10.6624
▁הצטרפו	-10.6626
▁הנשמה	-10.6626
▁סוכרת	-10.6628
▁מורכבת	-10.6635
▁בפרויקט	-10.6636
בדוק	-10.6638
▁עסוק	-10.664
▁הסתכל	-10.6641
סלאמי	-10.6642
▁חברתיות	-10.6643
▁Man	-10.6645
▁העין	-10.6646
וידאו	-10.6648
▁אנוש	-10.6653
▁הפסד	-10.6654
▁למשרד	-10.6656
▁יומי	-10.6658
▁קליני	-10.6658
▁ברוסיה	-10.6659
▁שבני	-10.6659
▁אלוקים	-10.666
ספורט	-10.6661
mer	-10.6661
▁לניהול	-10.6662
▁מחלק	-10.6667
▁הדעת	-10.6669
שפות	-10.667
05	-10.6671
▁נהדרת	-10.6678
▁בעבודת	-10.6678
▁נשימה	-10.6681
,500	-10.6682
▁המכירות	-10.6683
דיכוי	-10.6683
▁חברתיים	-10.6684
ence	-10.669
pt	-10.6691
▁הפארק	-10.6693
▁האמריקנית	-10.6694
▁גילו	-10.6694
▁מפות	-10.6696
▁מעביר	-10.6697
לומד	-10.6697
▁דואר	-10.6698
▁הפרסום	-10.6701
▁שטר	-10.6703
▁בתחומים	-10.6708
▁הענק	-10.6708
מוטיבציה	-10.6715
▁שרוצה	-10.6716
סימפטו	-10.6716
אמונות	-10.6718
▁ברח	-10.6718
▁ושני	-10.6718
גרפיה	-10.6718
▁Lo	-10.6719
▁יהוה	-10.6719
▁ראייה	-10.672
▁בתא	-10.6722
▁צליל	-10.6724
ארגוני	-10.6727
מיקרו	-10.6728
▁מקומ	-10.6733
▁הסחר	-10.6734
צוק	-10.6734
עודד	-10.6734
▁ימין	-10.674
▁סגנון	-10.6744
הישגים	-10.6747
הפתעה	-10.6747
▁בנייה	-10.675
חלוק	-10.6751
▁למשהו	-10.6752
gen	-10.6756
השלכות	-10.6759
מחזור	-10.6762
הפרעה	-10.6765
דמוקרטיה	-10.6768
▁מדהימה	-10.6769
ED	-10.677
▁האסלאמי	-10.6772
▁שאינן	-10.6773
▁לתואר	-10.6774
▁המשת	-10.6775
בחנו	-10.6777
▁מניות	-10.6777
▁תומך	-10.6778
end	-10.6778
▁מהווים	-10.678
▁ההש	-10.678
▁להתפתח	-10.678
▁החלום	-10.6781
טבח	-10.6789
▁הקונגרס	-10.6793
▁נאבק	-10.6796
▁בניין	-10.6797
קונסול	-10.6798
אגר	-10.6798
מתן	-10.6801
▁בטבע	-10.6802
התנדב	-10.681
▁אליכם	-10.681
▁שיטה	-10.6811
פלג	-10.6813
▁שישראל	-10.6814
צדדים	-10.6816
▁יצירות	-10.6818
▁לדון	-10.6818
תביעות	-10.6822
▁תראה	-10.6823
חיסכון	-10.6823
▁הנביא	-10.6825
▁אכל	-10.6828
▁ויטמין	-10.6828
▁שורש	-10.6829
▁טיסות	-10.683
▁נתחיל	-10.683
▁נתנו	-10.6832
▁מדווח	-10.6835
▁הבמה	-10.6836
▁במאבק	-10.6838
מהגרים	-10.6841
סוציאל	-10.6842
פשוט	-10.6849
אדמה	-10.6851
▁האפשרויות	-10.6858
תוספת	-10.6868
▁עבורכם	-10.6872
התנחלויות	-10.6878
▁עצומה	-10.6878
▁הרפואה	-10.6878
▁הרפובליקה	-10.688
צטבר	-10.688
▁תועלת	-10.6881
▁המושב	-10.6882
▁מוגבר	-10.6882
מציאת	-10.6883
*	-10.6884
חלונות	-10.6886
יהלומים	-10.6888
▁מאסר	-10.6889
▁עליהן	-10.689
▁ולקבל	-10.689
▁האוצר	-10.6891
זכוכית	-10.6892
▁יישום	-10.6892
▁יומיים	-10.6893
▁ההחלטות	-10.6894
ערער	-10.6894
ניקוי	-10.6896
▁בכיוון	-10.69
▁נשא	-10.6906
רעב	-10.6912
אדי	-10.6913
▁נותרו	-10.6913
מחר	-10.6918
▁ונע	-10.6921
▁קידום	-10.6922
▁My	-10.6922
▁הקבוצות	-10.6922
יעזרו	-10.6923
▁סטודנט	-10.6925
יחד	-10.693
▁הלהקה	-10.6933
▁הבכור	-10.6933
▁הנזק	-10.6934
▁ברזיל	-10.6936
כיוונ	-10.6938
קנאביס	-10.6938
AP	-10.6938
ליג	-10.6941
התנהלות	-10.6941
בטחון	-10.6942
אמריקאי	-10.6943
▁ניצב	-10.6943
▁נהנה	-10.6945
▁מוחלטת	-10.6947
▁עוצר	-10.6949
אגד	-10.6956
תיכון	-10.6956
גוש	-10.6958
ָר	-10.6959
▁קיי	-10.6962
▁נחל	-10.6965
▁מילא	-10.6966
טבל	-10.6971
▁באחת	-10.6972
▁כשמ	-10.6975
▁גלובלי	-10.6983
▁הצלב	-10.6985
▁חכמים	-10.6987
▁מקווים	-10.6988
▁הציוני	-10.6988
חמצן	-10.6989
▁האחרות	-10.6989
▁מוצק	-10.699
▁בבעלות	-10.6991
▁אומץ	-10.6992
שיש	-10.6992
▁קונג	-10.6994
▁ובמיוחד	-10.6995
▁איטי	-10.6995
פוליטי	-10.6996
▁Ex	-10.6998
▁סנ	-10.6998
התאבדות	-10.6999
▁גורמת	-10.7001
▁התמ	-10.7002
▁תופעות	-10.7004
▁תאים	-10.7005
▁קליפורניה	-10.7013
▁תרופה	-10.7013
▁השפעות	-10.7014
▁והאם	-10.7014
לקוח	-10.7019
▁הנרי	-10.7022
bu	-10.7024
▁טענו	-10.7024
▁נודע	-10.7026
▁תזונה	-10.7027
▁הגלובלי	-10.7028
▁איל	-10.7031
ירוף	-10.7035
יינות	-10.7037
פורסם	-10.7039
▁מתקדמים	-10.7042
[3]	-10.7042
▁מציין	-10.7043
מעל	-10.7044
tu	-10.7045
משימות	-10.705
▁1999	-10.7052
▁לגשת	-10.7062
סיף	-10.7065
▁הדמוקרטי	-10.7066
▁יעשו	-10.7067
▁שבאמת	-10.7068
▁שנותר	-10.7074
▁הישג	-10.7081
מקדש	-10.7082
▁שפורסם	-10.7083
▁סגן	-10.7084
עדיף	-10.7085
▁מתרחשת	-10.709
ברכות	-10.7094
▁לרשת	-10.7096
מחויב	-10.7096
מוביל	-10.7096
▁להגביר	-10.7098
▁נפוץ	-10.7098
▁>>	-10.7098
הוראות	-10.7098
▁הכוונה	-10.7099
▁במונח	-10.7099
08	-10.71
נציג	-10.7101
▁באוניברסיטה	-10.7101
התמחות	-10.7102
▁אבנים	-10.7107
▁סטנדרטי	-10.7107
▁שנח	-10.7108
ראיתי	-10.7109
▁בקושי	-10.711
▁ביולוגי	-10.711
▁ייקח	-10.711
עניש	-10.7111
▁חוויות	-10.7112
יזהר	-10.7112
▁מבקר	-10.7112
bi	-10.7112
▁בהודו	-10.7113
▁פרסומ	-10.7114
ice	-10.7119
יורק	-10.7129
▁הדדי	-10.7131
▁בעזה	-10.7131
קף	-10.7134
התחל	-10.7139
03	-10.7141
=	-10.7143
השתתפות	-10.7144
▁מסרב	-10.7147
טרף	-10.7153
▁הדיגיטלי	-10.7154
▁המוסלמים	-10.7155
▁האקלים	-10.7155
▁דאעש	-10.7155
עדכן	-10.7155
▁לביצוע	-10.7156
▁המלכה	-10.7156
94	-10.7157
▁ממלא	-10.7157
SA	-10.7161
▁נשבע	-10.7163
▁השיג	-10.7165
מתכון	-10.7168
מכה	-10.7168
▁דקה	-10.7169
אקדח	-10.7169
▁לתכנן	-10.7174
נכד	-10.7175
ib	-10.7176
רחוב	-10.7176
▁נלקח	-10.7179
▁בחומר	-10.7179
נדס	-10.718
▁להזכיר	-10.718
▁מטוסים	-10.7182
93	-10.7185
כתר	-10.7185
▁ההצעה	-10.7186
▁בתנאים	-10.7188
ָּ	-10.7189
▁לובש	-10.719
▁זרע	-10.7194
▁האישית	-10.7197
נין	-10.7198
מבנה	-10.7199
▁מתקבל	-10.7206
▁נחת	-10.7209
ברצלונה	-10.721
▁ואיש	-10.7212
תלונות	-10.7212
היינו	-10.7212
▁פיטר	-10.7214
סקה	-10.7214
אוסטריה	-10.722
למעלה	-10.7221
▁איבר	-10.7221
▁מצוינת	-10.7222
▁לבנים	-10.7224
השוואה	-10.7229
Fi	-10.724
▁הנייד	-10.7245
▁מנהיגות	-10.7245
con	-10.7246
תווכח	-10.7248
ברג	-10.7253
יופי	-10.7253
דחו	-10.7261
כעס	-10.7266
▁אופטימי	-10.7267
▁II	-10.7267
▁לנהוג	-10.7267
▁תוצר	-10.7268
▁העמים	-10.7269
▁Ra	-10.7269
▁עידן	-10.727
▁הופעת	-10.7271
היגיון	-10.7272
▁פוגש	-10.7272
▁«	-10.7273
ניזם	-10.7274
▁שהכי	-10.7275
▁נחוש	-10.7276
ייצוג	-10.7276
רשימות	-10.7276
▁פרטית	-10.7277
▁המותג	-10.7279
▁ברשימה	-10.728
▁~	-10.7282
▁המיועד	-10.7283
▁ביטול	-10.7285
טרם	-10.7286
שתלט	-10.7288
▁משימות	-10.7289
פרץ	-10.7291
▁ודאי	-10.7292
▁טילים	-10.7294
▁למסע	-10.7295
-90	-10.7297
▁לרכב	-10.7297
▁ההתנגדות	-10.7304
Pr	-10.7305
▁מסתבר	-10.7309
▁לבעיות	-10.7313
▁פסטיבל	-10.7313
פרטי	-10.7316
חמישה	-10.7317
92	-10.7317
נחל	-10.7318
סתגל	-10.7318
▁קילומטרים	-10.7323
▁פתיחת	-10.7324
che	-10.7326
מציאות	-10.7329
▁מתגורר	-10.7331
מלחמת	-10.7332
▁חדשני	-10.7333
נטוש	-10.7333
▁שאיננ	-10.734
▁באנשים	-10.7341
▁בסוג	-10.7342
▁הציבורית	-10.7347
▁דיאטה	-10.7347
▁הנקרא	-10.7348
▁מילות	-10.7352
tal	-10.7353
פרסום	-10.7356
ome	-10.7357
▁נגיש	-10.7358
כשיר	-10.7361
אופן	-10.7364
דס	-10.7366
▁אופניים	-10.7366
▁לאומית	-10.7372
מדריך	-10.7377
▁תופעה	-10.738
▁ממליץ	-10.7381
▁קלוריות	-10.7381
▁תדע	-10.7383
רגיל	-10.7384
▁השקט	-10.7386
▁למטרה	-10.7387
▁צהוב	-10.7388
▁הכדור	-10.7388
▁המסלול	-10.739
עיתונים	-10.739
▁האיטלקי	-10.7391
▁עוג	-10.7392
▁הטכנולוגי	-10.7395
זוהי	-10.7395
ner	-10.7397
▁איכותי	-10.7397
כט	-10.7397
▁המאסטר	-10.7398
▁Wa	-10.7399
▁בצבע	-10.7399
אקטיב	-10.7401
▁עצמאית	-10.7403
▁נשאל	-10.7404
▁בצבא	-10.7405
סתתר	-10.7407
▁בארגון	-10.7412
▁שכזה	-10.7414
▁אלפים	-10.7417
▁האנטי	-10.7417
▁ובלתי	-10.742
▁למשפחה	-10.7427
▁שיקול	-10.7429
▁מפורט	-10.7429
▁תעופה	-10.7438
קדמה	-10.7439
▁המוצע	-10.744
▁המודעות	-10.744
▁עשינו	-10.7441
באופן	-10.7444
דונלד	-10.7444
▁מוחמד	-10.7445
▁תראו	-10.7446
▁מייד	-10.7447
▁31	-10.7448
▁בניסיון	-10.7449
▁מתקדם	-10.7452
▁פרא	-10.7456
▁חזון	-10.7456
▁פגע	-10.7459
▁שהכל	-10.7461
▁לבוש	-10.7465
▁סן	-10.7466
▁מעורבות	-10.7468
▁המודל	-10.7472
▁נפט	-10.7477
▁תיאר	-10.7479
▁השתתפות	-10.7482
▁ודא	-10.7485
טני	-10.7486
▁Office	-10.7496
▁הפרלמנט	-10.7496
▁בטרם	-10.7496
גמול	-10.7497
▁התיירות	-10.7498
▁החשבון	-10.7499
▁שנוכל	-10.7499
פיצוץ	-10.75
דחף	-10.7501
מכת	-10.7504
גורמים	-10.7504
עיכוב	-10.7507
▁רפואית	-10.751
התערבות	-10.751
שלמות	-10.7511
▁יאפשר	-10.7511
▁אלוהי	-10.7518
97	-10.7521
▁Sa	-10.7524
▁במוצר	-10.7528
קסון	-10.7536
▁פריז	-10.7542
▁יוון	-10.7545
▁:)	-10.7547
רלוונטי	-10.755
▁לקבוצה	-10.7551
▁הבדיקה	-10.7554
▁הדיווח	-10.7554
קפטן	-10.7556
תצוגה	-10.7556
▁גונג	-10.7559
▁עיוור	-10.7562
▁דואג	-10.7562
▁חריג	-10.7565
מבנים	-10.7565
מיס	-10.7565
▁מרתק	-10.7566
▁באנגליה	-10.7568
09	-10.7569
▁הקומוניסטי	-10.7572
▁הלימוד	-10.7578
דמוקרטית	-10.758
▁חלבון	-10.7581
▁חן	-10.7585
▁וכאשר	-10.759
ob	-10.759
▁מזונות	-10.7594
▁המצוי	-10.7594
▁למציאות	-10.7595
▁סיטי	-10.7597
▁חפ	-10.7599
▁תהיו	-10.7601
▁גולד	-10.7605
▁ללימודי	-10.7606
1,000	-10.7608
סטנדרט	-10.7609
▁להביע	-10.7611
פורטוגל	-10.7613
▁הקולנוע	-10.7614
▁ומעלה	-10.7616
הלוואות	-10.7617
▁הצעה	-10.762
AM	-10.7622
קשים	-10.7622
▁נהנים	-10.7622
▁היעיל	-10.7625
סוריה	-10.7626
▁חיפש	-10.7635
אספו	-10.7644
▁החברתיות	-10.7645
▁300	-10.765
דתי	-10.7651
Qu	-10.7652
▁הפשוט	-10.7653
▁היופי	-10.766
▁הצבאית	-10.7665
▁זכו	-10.7667
▁המבקש	-10.7667
ach	-10.7668
אמונה	-10.7669
ודאי	-10.7669
▁תרמ	-10.767
▁ניסיתי	-10.7671
הוליווד	-10.7671
▁הקלאסי	-10.7672
▁לעם	-10.7673
▁בקהילה	-10.7674
▁לעניין	-10.7675
▁דלקת	-10.7675
▁מסיבות	-10.7675
▁ניצחון	-10.7679
▁באיטליה	-10.7681
▁דאגה	-10.7685
הפחתת	-10.769
▁פריטים	-10.769
▁הדירה	-10.7703
תלבש	-10.7705
ּוֹ	-10.7706
צדדי	-10.7711
▁לשתי	-10.7713
▁הדמוקרטיה	-10.7716
עוז	-10.7716
▁הנחה	-10.7717
▁עצמאות	-10.7719
▁רצונו	-10.7721
▁אימא	-10.7729
res	-10.7731
▁הנסיך	-10.7732
▁התוכנה	-10.7733
▁הצלחתי	-10.7734
▁נותנת	-10.7734
חוכמה	-10.7737
מכללה	-10.7738
▁תיירים	-10.7738
▁ידידותי	-10.7742
▁בתמונה	-10.7743
▁תגובת	-10.7746
▁הדואר	-10.7747
▁המשותף	-10.7752
▁ואנשי	-10.7753
98	-10.7757
חרב	-10.7757
רוכב	-10.7758
▁וכמו	-10.776
▁מושל	-10.776
שׂ	-10.7761
▁העצמאות	-10.7761
▁תאר	-10.7771
עזוב	-10.7773
▁סבלנות	-10.7775
דחה	-10.7775
AC	-10.7779
RI	-10.7781
מאוד	-10.7781
RA	-10.7789
`	-10.779
86	-10.7795
▁נבדק	-10.7795
תנגש	-10.7798
▁100%	-10.7801
פברואר	-10.7802
פייסבוק	-10.7802
▁האחראי	-10.7809
▁אכזרי	-10.781
ary	-10.781
חוויות	-10.7815
06	-10.7816
תקציב	-10.7823
▁נסגר	-10.7831
▁קרח	-10.7831
▁וושינגטון	-10.7832
הממשלה	-10.7833
מפגש	-10.7835
out	-10.785
▁הקודמים	-10.785
▁ספינות	-10.785
אלכוהול	-10.7852
רגליים	-10.7852
גוונים	-10.7854
wa	-10.7855
▁האתגרים	-10.7857
▁מלכות	-10.7857
▁הוקם	-10.7858
▁כעס	-10.7859
▁פרחים	-10.7859
צורות	-10.787
▁החיות	-10.787
▁מעקב	-10.7871
▁מותג	-10.7875
way	-10.7876
cy	-10.7876
בוקר	-10.7878
▁סוחר	-10.7878
גירושין	-10.7882
מימוש	-10.7884
▁נניח	-10.7884
ure	-10.7884
▁שמאפשר	-10.7884
▁הספרדי	-10.7886
91	-10.7889
▁דני	-10.789
▁פולין	-10.7892
▁מוסד	-10.7893
אוסף	-10.7893
▁המכון	-10.7894
▁הגזע	-10.7899
▁עבורך	-10.7899
▁ההשקעה	-10.7901
עלויות	-10.7902
ַּ	-10.7902
כרטיס	-10.791
▁האינטרסים	-10.791
▁יצחק	-10.791
▁היטלר	-10.791
▁כועס	-10.791
מדיטציה	-10.791
▁פעולת	-10.791
▁הפתוח	-10.7911
▁אוקטובר	-10.7911
▁ההתחלה	-10.7913
משכנתא	-10.7913
חשבתי	-10.7913
▁נהיגה	-10.7913
▁הציור	-10.7915
▁המחלקה	-10.7915
▁מעוד	-10.7916
החלטה	-10.7916
▁מדריך	-10.7917
▁הניסוי	-10.7919
מונד	-10.792
מדענים	-10.792
מץ	-10.7921
87	-10.7921
▁ההשפעות	-10.7922
▁הינם	-10.7924
min	-10.7924
רכוב	-10.793
▁חוט	-10.7931
▁הליך	-10.7935
▁שהיתה	-10.7935
קפא	-10.7938
ובס	-10.7941
▁רישיון	-10.7946
▁המשא	-10.7947
▁you	-10.7951
▁לחם	-10.7954
עונות	-10.7956
▁הקיצוני	-10.7956
gr	-10.7958
▁אידיאלי	-10.7959
מאגר	-10.7964
▁נמשיך	-10.7967
אומנות	-10.7968
▁מרוצים	-10.797
▁לשמר	-10.797
▁הנוסעים	-10.7971
>	-10.7974
▁הלכתי	-10.7976
טכנולוגיות	-10.7977
rt	-10.798
▁להיפטר	-10.7981
▁שמור	-10.7981
▁Ri	-10.7982
ילון	-10.7986
▁צופים	-10.7988
▁כיסוי	-10.7989
מרבית	-10.7997
▁לפתע	-10.8004
▁ונשים	-10.8006
▁הנאצים	-10.8007
ברור	-10.8011
▁אשמח	-10.8011
▁הסורי	-10.8021
▁זכור	-10.8021
שהיא	-10.8023
▁אתגרים	-10.8023
▁חקירה	-10.8025
▁כרטיסי	-10.8028
▁שעשו	-10.8028
▁לחודש	-10.803
קונגרס	-10.8031
▁במשרה	-10.8033
▁מוכיח	-10.8034
▁מגיל	-10.8036
▁יעלה	-10.8036
סיבת	-10.8038
▁בחברת	-10.8038
▁אחורה	-10.804
זעם	-10.8042
▁הלכו	-10.8049
▁מבנים	-10.8051
▁משתנים	-10.8055
▁[[	-10.8057
▁דיכאון	-10.8061
פיזיקה	-10.8062
מזל	-10.8064
▁הגעתי	-10.8065
▁שחקני	-10.8065
▁מהנדס	-10.8068
▁מהלך	-10.8075
הייתה	-10.8077
בורא	-10.8078
▁אבוד	-10.808
הולנד	-10.8089
שלב	-10.8089
▁הפעולות	-10.8089
▁הנישואין	-10.8093
התעללות	-10.8094
▁החתונה	-10.8094
▁Home	-10.8096
זוהר	-10.8096
▁העמוק	-10.8097
▁הרצפה	-10.8097
▁להיפגש	-10.81
89	-10.81
▁מושפע	-10.8104
כף	-10.8105
▁נעשו	-10.8106
▁לנקות	-10.8112
▁העיתון	-10.8115
מסחר	-10.8115
להיות	-10.8115
התחלתי	-10.812
ִּי	-10.8121
מבט	-10.8121
תקופת	-10.8123
וננת	-10.8124
▁רוחנית	-10.8128
las	-10.8136
▁לצמצם	-10.8137
צומח	-10.8148
mb	-10.815
▁לסטודנטים	-10.8153
▁המופע	-10.8155
פרוטוקול	-10.8155
ישוע	-10.8155
▁גופו	-10.8155
אמבטיה	-10.8156
▁האימפריה	-10.8157
עשיר	-10.8158
▁הצטרף	-10.8162
▁בחיפוש	-10.8162
▁מחצית	-10.8163
▁השיווק	-10.8164
רור	-10.8167
▁למוצר	-10.8171
▁יקבלו	-10.8171
מחבל	-10.8171
▁כניסת	-10.8176
פליטים	-10.8186
כלכלי	-10.8186
▁הכשרה	-10.8189
אופרה	-10.8192
▁הכדורגל	-10.8207
▁המניות	-10.8215
▁להגנה	-10.8216
▁סיכונים	-10.8217
▁בתקשורת	-10.8217
BA	-10.8218
▁האשראי	-10.8219
חיזוק	-10.822
מתנחלים	-10.8221
▁לתקשר	-10.8223
▁לעזרה	-10.8223
▁הנוער	-10.8228
rn	-10.8228
▁נתיב	-10.8231
▁במשפט	-10.8232
▁סכנה	-10.8234
▁המושג	-10.8234
▁וגדל	-10.8235
ire	-10.8236
▁אירועי	-10.8237
▁מרוויח	-10.8239
▁מרפא	-10.8244
ps	-10.8257
▁דמוקרטיה	-10.8263
מַ	-10.8266
▁ברגל	-10.8268
▁בספרד	-10.8268
קודש	-10.8268
אלבום	-10.8271
▁בשלום	-10.8272
▁לתינוק	-10.8274
▁משלוח	-10.8276
▁הסכסוך	-10.8279
▁תמשיך	-10.8279
▁הדמויות	-10.828
▁בנפרד	-10.828
▁אלכסנדר	-10.828
▁כתבתי	-10.8281
▁הופעות	-10.8282
אימוץ	-10.8283
▁לפעילות	-10.8283
ake	-10.8287
▁שמטרת	-10.8287
▁העובדות	-10.8288
▁פיצוי	-10.8288
▁לרצות	-10.8293
▁מסמך	-10.8294
▁תיירות	-10.8295
▁החזיק	-10.8296
▁התשלום	-10.8296
צינור	-10.8298
▁מגורים	-10.8298
השלמת	-10.8301
חוזק	-10.8301
▁המוסרי	-10.8308
▁Jo	-10.8308
▁ומספר	-10.8309
▁All	-10.831
חמלה	-10.8312
▁שעשוי	-10.8312
▁פיליפ	-10.8314
▁בתנאי	-10.8321
▁שעבד	-10.8324
fi	-10.8325
▁תמצאו	-10.8325
▁ובכלל	-10.8325
▁סוציאלי	-10.8327
▁פירושו	-10.833
▁ההון	-10.8331
▁פוטר	-10.8332
▁הפנ	-10.8332
▁מרחק	-10.8334
EN	-10.8341
רצף	-10.8342
▁בעצמם	-10.8342
▁לחגוג	-10.8342
קטגוריות	-10.8342
▁ספטמבר	-10.8342
▁נכונות	-10.8342
ציטוט	-10.8347
▁משולב	-10.8352
▁המכתב	-10.8357
▁הרגשות	-10.8357
▁המתנה	-10.8358
▁מכונות	-10.8359
▁שנשאר	-10.8368
▁מנהיגי	-10.8368
▁נרשמ	-10.8372
יוזמה	-10.8388
▁הנאצי	-10.8388
מאלי	-10.8391
בחנים	-10.8395
▁הדגיש	-10.8397
▁שעשה	-10.84
▁נובמבר	-10.8405
▁להסתיר	-10.8406
▁המשיכו	-10.8406
▁סמוך	-10.8406
▁תומכים	-10.8406
▁הקיסר	-10.8406
▁הכחול	-10.8407
▁ויהי	-10.8407
▁שהגיעו	-10.8407
דיאלוג	-10.8407
▁בסכנה	-10.8411
ארכיון	-10.8411
▁יצרני	-10.8414
▁העשרים	-10.8415
du	-10.8415
▁הטיסה	-10.8416
סחר	-10.8417
שדות	-10.8418
אויב	-10.8418
תשומת	-10.8419
מזכיר	-10.842
ID	-10.8424
▁מלונות	-10.8427
▁משלמים	-10.8427
▁משתי	-10.8428
▁משטרת	-10.8429
▁התיק	-10.8435
▁מהחיים	-10.8443
▁הנהר	-10.8444
▁ופיתוח	-10.8447
▁משתתפים	-10.845
▁הבירה	-10.8454
▁הספינה	-10.8455
▁דבריו	-10.8456
ירא	-10.846
▁ברחובות	-10.8461
מתנה	-10.8466
▁מתכננים	-10.8469
▁עצמן	-10.8469
▁הקיימים	-10.847
▁מעניינים	-10.847
▁כוונה	-10.8473
אמריקה	-10.8482
▁חובות	-10.8483
▁ולפעמים	-10.8484
חוט	-10.8484
ךְ	-10.8489
פירוש	-10.8492
צמד	-10.8495
▁הועבר	-10.8499
▁עירוני	-10.8501
▁הוצאת	-10.8501
גיב	-10.8515
▁150	-10.8516
▁השתל	-10.8518
שגשג	-10.852
ראלי	-10.8522
▁למשפט	-10.8531
אינטליגנציה	-10.8533
▁נישואין	-10.8534
▁דמויות	-10.8534
▁רומנטי	-10.8534
▁הלוואי	-10.8535
▁רעיד	-10.8536
▁מרטין	-10.854
▁ובעל	-10.854
▁שנקבע	-10.8542
▁לקום	-10.8546
▁חווים	-10.8548
▁הסרטן	-10.8548
▁מוסלמים	-10.8558
▁סיפק	-10.8559
▁ייתן	-10.856
▁שקשור	-10.8563
▁ציפי	-10.8563
▁לקידום	-10.8564
▁הגענו	-10.8567
lan	-10.8568
▁מחלקת	-10.8568
▁האומה	-10.8571
▁סימני	-10.8576
מחנות	-10.858
כובע	-10.858
▁אסון	-10.8583
קידום	-10.8584
▁חתיכ	-10.8588
פוליס	-10.8588
hen	-10.8591
סיטואצי	-10.8598
▁משוכנע	-10.8598
▁ויליאם	-10.8598
▁במבט	-10.86
פסנתר	-10.86
▁החשיבות	-10.8601
יצוא	-10.8601
▁בכיתה	-10.8603
▁החתול	-10.8604
רסק	-10.8604
▁מוסיף	-10.8607
פתרונות	-10.8614
▁קנדי	-10.8616
▁השאיר	-10.8617
מאמינים	-10.8617
▁הסוכר	-10.8618
▁במוזיאון	-10.8623
גלקסי	-10.8632
נברג	-10.8632
מכירות	-10.8632
רידים	-10.8634
▁עולים	-10.8635
קווי	-10.8637
ֲ	-10.8642
אימפרי	-10.865
▁סבא	-10.865
▁שהתרחש	-10.8651
dia	-10.8652
▁האוקיינוס	-10.8653
▁נישא	-10.8655
מילים	-10.8656
שגרירות	-10.8656
▁מרצ	-10.8656
ניתנים	-10.866
[4]	-10.8663
▁מוזמנים	-10.8663
▁מתאימים	-10.8663
▁בהתחשב	-10.8663
מפגינים	-10.8663
▁אספקת	-10.8664
▁מגניב	-10.8664
הפגנות	-10.8665
בחירה	-10.8666
▁ברוך	-10.8667
▁מענה	-10.8669
אבטלה	-10.8671
▁קסם	-10.8673
▁במדיניות	-10.8674
▁שנעשה	-10.8677
כלכלת	-10.8681
▁ואכן	-10.8681
▁מאלה	-10.8681
שמונה	-10.8684
▁מחודש	-10.8685
מיליון	-10.8686
רטט	-10.869
▁תחרותי	-10.8695
עוגיות	-10.8697
▁התואר	-10.8706
▁בימינו	-10.8709
מינהל	-10.871
▁המלצות	-10.8714
▁פלסטין	-10.8714
▁תפוח	-10.8717
מושל	-10.8721
▁הבנת	-10.8723
▁החלב	-10.8726
אינטראקציה	-10.8728
▁ולעשות	-10.8729
▁תגיע	-10.8729
מלכות	-10.8733
▁באפשרותך	-10.8736
סיפוק	-10.8736
▁בשילוב	-10.8737
חיידקים	-10.8737
▁כשהייתי	-10.8739
▁לעצמה	-10.874
▁Na	-10.8746
הזדמנויות	-10.8747
▁הקיים	-10.875
▁מועדון	-10.875
▁לכבוד	-10.8751
אופניים	-10.8754
▁בעונה	-10.8756
▁גלוי	-10.8757
טמן	-10.8758
הפסד	-10.8759
▁להתעורר	-10.8762
ייתכן	-10.8766
▁בחינוך	-10.8775
מושג	-10.8779
▁להשגת	-10.8783
מכתב	-10.8786
▁הקישור	-10.879
לכי	-10.8792
גמל	-10.8794
אינפלציה	-10.8794
קואליציה	-10.8794
▁מעדיפים	-10.8794
▁שעושה	-10.8794
אוכלוסיה	-10.8795
▁עונת	-10.8795
▁להשיב	-10.8795
▁המקובל	-10.8795
▁עיתונאים	-10.8796
▁בראיון	-10.8797
▁→	-10.8805
▁ניגש	-10.8807
▁לעסוק	-10.8819
אמינות	-10.882
▁נרד	-10.882
▁ובעיקר	-10.882
להרשות	-10.882
זוז	-10.8822
▁התחושה	-10.883
▁שאיש	-10.8831
▁במסע	-10.8837
ניצול	-10.8841
לכוד	-10.8843
פופ	-10.8844
הימור	-10.8845
▁מכבד	-10.8853
BC	-10.8856
2,000	-10.886
▁באחריות	-10.8862
▁כושר	-10.8864
▁חווית	-10.8865
מסדר	-10.8866
שיקגו	-10.8868
▁זמנים	-10.8868
פילד	-10.8868
▁המושלם	-10.8869
הבטחת	-10.8869
▁חמוש	-10.887
▁משלהם	-10.8872
▁מתקש	-10.8876
▁השלכות	-10.8877
הגבלות	-10.8879
ath	-10.8882
קפו	-10.889
טיח	-10.8894
▁בינוני	-10.8901
▁תהיי	-10.8902
סוכר	-10.8913
▁מקלט	-10.8917
▁השעון	-10.8918
▁מייל	-10.8926
▁הסתיימה	-10.8927
תוצר	-10.8929
זיכרון	-10.8934
▁בתמורה	-10.8935
▁הפסקה	-10.8936
▁מאתגר	-10.8937
▁יביא	-10.8938
נכס	-10.8939
▁מלווה	-10.8943
▁ההודי	-10.8944
▁וחסר	-10.8945
▁צעק	-10.8946
▁נעליים	-10.8946
מרפא	-10.8947
נפק	-10.8949
חשף	-10.8959
אכזר	-10.8974
▁רובוט	-10.8977
lin	-10.8979
▁לתא	-10.898
▁יער	-10.8987
TM	-10.8989
תאונות	-10.899
▁מעריכים	-10.8994
▁בנסיבות	-10.8994
▁לבכות	-10.8994
ai	-10.8995
▁ממוקד	-10.8995
▁הבכיר	-10.8996
▁רישום	-10.9001
▁לממשלה	-10.9003
BS	-10.9011
גילאים	-10.9018
▁סיור	-10.9018
תרומות	-10.9019
▁הודעת	-10.9021
PC	-10.9026
כנראה	-10.903
▁האיכות	-10.9032
ds	-10.9036
טלפון	-10.9036
07	-10.9037
▁מעסיק	-10.9041
▁הבינו	-10.9042
התנסות	-10.9045
▁מתקשר	-10.9045
▁שראיתי	-10.9047
מינרל	-10.9055
אולוג	-10.9059
▁העליונה	-10.9062
▁למסקנה	-10.9062
▁קטלני	-10.9062
▁שבחר	-10.9063
tin	-10.9063
סעודיה	-10.9064
▁להפיק	-10.9071
ינתן	-10.9073
▁יתחיל	-10.9074
היכן	-10.9075
מסע	-10.9077
▁סודי	-10.9079
▁ששמ	-10.908
▁משוגע	-10.9081
בחור	-10.9087
סטורי	-10.9088
הודעות	-10.909
אובדן	-10.9092
זיהום	-10.9099
טריק	-10.9107
▁לאישה	-10.911
טווח	-10.9117
br	-10.9124
יעוץ	-10.9127
{	-10.9129
▁World	-10.9129
▁פרנסיסקו	-10.9129
תבנית	-10.9135
▁רעש	-10.9137
able	-10.9138
▁שהוביל	-10.9139
ki	-10.914
תסמיני	-10.9143
▁בהתבסס	-10.9145
▁כשיש	-10.9148
71	-10.9149
אנגלית	-10.915
ick	-10.9152
▁טייס	-10.9153
▁כרגיל	-10.9154
▁צרכי	-10.9156
▁אעשה	-10.9157
▁הביולוגי	-10.9157
▁בסעיף	-10.9159
▁בכבוד	-10.9166
אזרחי	-10.9168
▁הפער	-10.9169
▁שהעולם	-10.9171
איסט	-10.9172
▁אדמות	-10.918
▁תפקוד	-10.9187
▁קרל	-10.919
▁שמשהו	-10.9194
פוזיציה	-10.9198
▁שביצע	-10.9198
אטלנטי	-10.9199
▁מעמיק	-10.92
▁אזהרה	-10.9201
חלף	-10.9202
מפלצת	-10.9202
▁הקסם	-10.9207
▁מוקדמת	-10.9212
עסוק	-10.9215
▁אינדי	-10.9215
ועדת	-10.9215
טהר	-10.9221
▁מתפלל	-10.9223
הורדת	-10.9224
▁היותר	-10.9225
ong	-10.9227
▁חולי	-10.9232
▁אריק	-10.9238
סבלנות	-10.9239
חבילות	-10.924
טכניקה	-10.9241
▁דומות	-10.9248
שווה	-10.9254
תקנת	-10.9255
בלעדי	-10.9258
▁מתכוונים	-10.9267
עכשווי	-10.9267
▁המצלמה	-10.927
ins	-10.927
▁חכמה	-10.928
▁גרסה	-10.9282
▁ופשוט	-10.9284
ציור	-10.9291
שיווק	-10.9292
סובלנות	-10.9292
נפח	-10.9294
▁Dis	-10.9295
▁יחדיו	-10.9296
מיומנויות	-10.9297
▁שהילד	-10.9298
▁גמיש	-10.9301
▁מארק	-10.9309
שינה	-10.9323
▁בקשת	-10.9325
▁דוגמא	-10.9325
Pla	-10.9328
ue	-10.9329
מודל	-10.933
▁גמור	-10.933
▁מתנות	-10.933
אוניברסלי	-10.9336
מוזיאונים	-10.9336
▁דיוויד	-10.9336
▁הגרעיני	-10.9336
שניהם	-10.9339
▁העוסק	-10.934
▁החיסון	-10.9341
ny	-10.9345
מאמר	-10.9348
▁הטעם	-10.935
בניינים	-10.935
▁בשאלה	-10.935
▁אירופאי	-10.9351
▁מהותי	-10.9356
▁באפריקה	-10.9357
ִּ	-10.9358
▁שנבחר	-10.9359
▁עורר	-10.936
▁למחוק	-10.9361
▁לאמץ	-10.9361
▁תהליכים	-10.9365
▁התגלה	-10.9367
▁לגעת	-10.9368
▁מגלים	-10.9368
AL	-10.9369
סתפק	-10.9369
▁סד	-10.9371
▁מאיפה	-10.9372
▁אפס	-10.9375
old	-10.9384
ביטוי	-10.9386
▁דוגמ	-10.939
עורך	-10.9391
בוחר	-10.9397
עַ	-10.94
בריטניה	-10.94
▁זיהוי	-10.9402
שימו	-10.9403
▁רפואה	-10.9406
▁לאינטרנט	-10.9407
▁מוכשר	-10.9407
▁ינואר	-10.9408
▁לצערי	-10.9409
▁הלוואה	-10.9409
▁שוכח	-10.9413
מנגנוני	-10.9416
▁שרבים	-10.9416
▁הבולט	-10.9418
התחייבות	-10.9421
▁סמית	-10.9422
my	-10.9434
סיסמה	-10.9434
▁Pre	-10.9436
▁לשבור	-10.9438
▁Or	-10.944
בקבוק	-10.9441
אכלו	-10.9449
ina	-10.9455
הגדלת	-10.9463
ST	-10.9463
▁דרכי	-10.9465
▁כהן	-10.9467
▁חייך	-10.9474
▁משלב	-10.9478
▁ולראות	-10.9478
▁HIV	-10.9478
אופק	-10.948
▁לברר	-10.9481
משנה	-10.9483
מוכר	-10.9486
▁מסודר	-10.9486
vo	-10.9487
79	-10.9487
▁הבקשה	-10.9489
▁השפיע	-10.9494
משכורת	-10.95
נלחם	-10.9503
מתקנים	-10.9507
צעירים	-10.951
תקדם	-10.9528
▁War	-10.9532
השתתף	-10.9534
▁שיצר	-10.954
▁יחזור	-10.9544
International	-10.9548
סנקציות	-10.9548
▁רצתה	-10.9548
▁המועדון	-10.9548
שכל	-10.9549
▁להגשים	-10.955
▁נקב	-10.9553
▁יצטרכו	-10.9553
$	-10.9554
▁הרוגים	-10.9558
▁סיר	-10.9558
▁שיפוט	-10.9561
▁הבינ	-10.9565
▁תמצא	-10.9567
▁הקרח	-10.9567
שתף	-10.9567
אסף	-10.9569
נצר	-10.957
▁כרוני	-10.9571
-24	-10.9574
צטרך	-10.9577
▁ובעלי	-10.9577
▁דרש	-10.9594
▁מעריך	-10.9595
▁הוראה	-10.9596
חובר	-10.9603
אפריקאי	-10.962
▁לואיס	-10.962
▁לתקוף	-10.9621
▁זילנד	-10.9622
▁הפגישה	-10.963
תיבת	-10.9631
▁אחרונה	-10.9636
נקמה	-10.9639
▁צחק	-10.964
▁כישורי	-10.964
שולחן	-10.9651
▁ילדיהם	-10.9657
▁יוזמ	-10.9665
▁ענקית	-10.9672
▁העתידי	-10.9676
PA	-10.9684
▁נפוצה	-10.9691
רציונלי	-10.9692
▁תגיות	-10.9693
החלטת	-10.9695
מחסום	-10.9699
▁תתחיל	-10.9703
ופף	-10.9703
הרצאות	-10.9707
מנוגד	-10.9708
tory	-10.9709
מסגד	-10.9713
לונדון	-10.9719
טיבית	-10.972
▁נדבר	-10.9721
משימת	-10.9721
▁מחכים	-10.9724
▁שעליו	-10.9725
קליפורניה	-10.973
חנך	-10.9731
▁ימצא	-10.9734
בדיחה	-10.9744
ning	-10.9746
▁גורמי	-10.9747
ליכה	-10.975
כבוד	-10.975
שחקנים	-10.9755
מושכת	-10.9759
EC	-10.9761
אפליקציות	-10.9763
▁קלינטון	-10.9763
▁נמוכים	-10.9764
▁אפריל	-10.9764
▁חינוכי	-10.9764
שוודיה	-10.9765
▁מפריע	-10.9765
▁בניהול	-10.9765
▁אֶת	-10.9766
מחלקה	-10.9767
▁כולן	-10.9768
▁צוחק	-10.9769
▁טיימס	-10.9771
▁Love	-10.9773
▁חשד	-10.9776
▁לגבול	-10.9776
קולקטיב	-10.978
שתיקה	-10.9782
גיטרה	-10.9783
▁משלי	-10.9785
▁תשובת	-10.9786
▁הימני	-10.9796
יצירתיות	-10.9819
משלוח	-10.982
OR	-10.9825
▁המצרי	-10.9836
הנחות	-10.9836
▁אינטנסיבי	-10.9836
▁הפתיחה	-10.9837
▁ומדוע	-10.9837
גרסאות	-10.9839
▁מחולק	-10.9841
סוחר	-10.9842
▁טענה	-10.9842
▁תנועות	-10.9843
כפוף	-10.9846
▁בעשור	-10.9846
פסולת	-10.9847
מתין	-10.9847
▁לרעה	-10.985
▁הענ	-10.9852
פלשתיני	-10.9858
▁שנכתב	-10.9859
כפל	-10.9863
▁ניצל	-10.9866
▁המשפחתי	-10.9866
וגנת	-10.9869
למשל	-10.9882
▁להורים	-10.9885
נאלי	-10.9887
תגרש	-10.9888
בחין	-10.9892
זבל	-10.9893
CC	-10.9894
חוצים	-10.9898
סימן	-10.9904
▁שעליה	-10.9906
גבלת	-10.9907
▁נוגד	-10.9908
▁Human	-10.991
▁ימשיכו	-10.991
אוכלוסיות	-10.9911
▁(1)	-10.9911
▁הניהול	-10.9912
▁הציפור	-10.9917
▁1967	-10.9919
▁דחי	-10.9922
▁גאים	-10.9923
עלינו	-10.9928
▁אלכס	-10.9928
SD	-10.993
▁במהרה	-10.9931
▁אורגני	-10.9934
???	-10.9936
▁הארצי	-10.994
az	-10.9943
פיליפ	-10.9948
▁האמור	-10.9952
טורקיה	-10.9954
תקפו	-10.996
סמן	-10.9961
tri	-10.9962
דיאטה	-10.9963
ציין	-10.9965
נביא	-10.997
רשומות	-10.9976
▁תפסיק	-10.9982
נאס	-10.9983
é	-10.9984
ֱ	-10.9984
▁לרפואה	-10.9984
ארכיאולוגי	-10.9984
▁דוב	-10.9984
[5]	-10.9984
▁נסיעות	-10.9984
טראומה	-10.9986
▁החיובי	-10.9991
זווית	-10.9996
▁ההבנה	-10.9997
▁פגישה	-10.9999
▁מבטא	-11.0007
שגיאה	-11.0009
▁מתכוונת	-11.0014
▁העירייה	-11.0014
חתול	-11.0017
▁יסודי	-11.0024
דרשו	-11.0027
ריאן	-11.0031
▁עמנו	-11.0031
▁חמים	-11.0031
דיווח	-11.0037
ונתן	-11.0038
▁מתנהג	-11.0045
▁הנורא	-11.005
מרץ	-11.0054
MP	-11.0055
צורך	-11.0056
▁יפני	-11.0058
▁מעניינת	-11.0059
▁ההזמנה	-11.0059
▁בתעשיית	-11.0059
▁המשותפת	-11.0059
▁המדויק	-11.0059
תערובת	-11.006
▁1996	-11.0066
▁נהנית	-11.0066
▁שווים	-11.0067
▁אפקטיבי	-11.0068
▁רושם	-11.007
▁סקוט	-11.0073
ka	-11.0086
▁מוכרח	-11.0087
▁עצה	-11.0093
▁מוסלמי	-11.0096
סעיף	-11.0097
3,000	-11.0099
קרינה	-11.01
▁400	-11.0105
מועצת	-11.0107
LL	-11.011
▁יראה	-11.0111
פלט	-11.0131
▁בעברית	-11.0134
▁הסימפטומים	-11.0134
▁התשובות	-11.0135
גזענות	-11.0135
▁Pe	-11.0135
▁המורים	-11.0137
מהדורה	-11.0139
▁זקן	-11.0141
▁שהביא	-11.0143
cu	-11.0143
▁1995	-11.0144
▁נעלמו	-11.0145
▁האורחים	-11.0146
▁טועה	-11.0147
▁הרדיו	-11.0147
זדקק	-11.0148
קביעת	-11.0153
ah	-11.0153
▁בתוכו	-11.0155
התקפי	-11.0155
▁אשמה	-11.0156
התפתחויות	-11.0159
ענין	-11.0163
▁בדירה	-11.0164
▁הרגשה	-11.0165
▁נהרס	-11.0171
העלאת	-11.0176
נולד	-11.0183
RO	-11.0189
▁הרצוי	-11.0191
▁שנכנס	-11.0201
▁קייט	-11.0202
SP	-11.0206
▁מנקוד	-11.0207
קונפליקט	-11.021
▁נכונים	-11.021
קונצרט	-11.0211
ther	-11.0211
▁מאמצים	-11.0211
עידוד	-11.0214
▁זיהו	-11.0214
▁1998	-11.0216
▁1997	-11.0216
▁מופתע	-11.0221
▁לעובדים	-11.0221
▁הצהיר	-11.0224
קורס	-11.0224
▁בחייהם	-11.0227
▁ממצאי	-11.0228
▁שוקל	-11.0231
▁האנגלי	-11.0231
הוכחה	-11.0232
▁הסעודי	-11.0234
▁איתן	-11.0235
השפעה	-11.0238
▁10%	-11.0241
פרסמו	-11.0243
שריפה	-11.0254
טינה	-11.0257
גרמני	-11.0265
▁בנוח	-11.0273
ren	-11.0277
תפעל	-11.0279
▁המנוע	-11.0282
▁איכשהו	-11.0286
תסמונת	-11.0286
▁Watch	-11.0286
▁במחנה	-11.0287
▁הגרסה	-11.0287
▁להכיל	-11.0287
▁ולעתים	-11.0289
ראיין	-11.029
▁האגודה	-11.029
תרחיש	-11.029
▁הימנע	-11.0294
▁כשמדובר	-11.0294
סוהר	-11.0294
▁יריב	-11.0295
▁הוספת	-11.0299
▁התחבורה	-11.0299
▁התנגד	-11.0307
חשמל	-11.0308
▁צילומי	-11.0313
▁עמוס	-11.0317
-22	-11.0318
▁ביצים	-11.0322
שחיתות	-11.0337
▁האולימפי	-11.034
▁נשמר	-11.0349
ריבונ	-11.0359
▁שמתרחש	-11.0363
▁הכספים	-11.0363
▁וניהול	-11.0363
▁לטעון	-11.0364
אנרגיות	-11.0364
סטודיו	-11.0365
צמצום	-11.0365
OL	-11.037
ica	-11.037
▁ולבסוף	-11.0372
ple	-11.0372
log	-11.0377
▁הפסיכולוגי	-11.0384
▁דיסק	-11.0388
▁מדגיש	-11.0394
UN	-11.0395
זרע	-11.0399
▁איסור	-11.0402
▁עצות	-11.0404
▁כתיבת	-11.0405
▁ולתת	-11.0405
cc	-11.0405
מעורבות	-11.0418
תופעות	-11.0419
▁והשני	-11.0427
▁ומאפשר	-11.0429
▁קיד	-11.043
שֶׁ	-11.0432
▁אוצר	-11.044
טרגדיה	-11.044
VPN	-11.044
▁הגרעין	-11.0441
▁הוכרז	-11.0441
▁ברוכים	-11.0442
▁השביעי	-11.0442
▁פצוע	-11.0443
▁תומכת	-11.0444
▁הטענה	-11.0444
זעזע	-11.0445
▁למשתמשים	-11.0445
▁המוחלט	-11.0447
▁במידת	-11.0447
▁האירופאי	-11.0447
▁משתפ	-11.0448
▁נגע	-11.0449
▁בגבול	-11.0452
מילוי	-11.0453
▁העשור	-11.0456
מיומנות	-11.0456
▁השמיים	-11.0456
▁הצפוי	-11.0461
אחז	-11.0464
מוזיאון	-11.0474
day	-11.0476
▁אחראים	-11.0476
IA	-11.0509
▁חובב	-11.0514
▁בעצמכם	-11.0518
קולומביה	-11.0518
▁יורו	-11.0519
▁החקלאי	-11.052
טיעון	-11.0521
▁מקוון	-11.0521
איסלנד	-11.0522
▁תחנות	-11.0522
▁ברלין	-11.0528
▁לשכור	-11.053
קישור	-11.053
סינגל	-11.0531
▁העלייה	-11.0532
פוצץ	-11.0534
▁וחברי	-11.0535
▁הסתיים	-11.054
זקנים	-11.0542
EM	-11.0549
הכרח	-11.0563
▁מאכל	-11.0567
▁צבעוני	-11.0568
▁אוהד	-11.0569
▁להפסיד	-11.0575
תורמים	-11.0576
St	-11.058
שיקול	-11.058
▁Tra	-11.0585
TO	-11.0589
▁היער	-11.0591
gu	-11.0595
קאס	-11.0595
▁לעזאזל	-11.0597
מריחואנה	-11.0597
▁ביטחוני	-11.0597
דפדפן	-11.0597
▁הספציפי	-11.0597
▁להגביל	-11.0597
▁השלילי	-11.0599
▁אליס	-11.0599
-2014	-11.0601
טעויות	-11.0601
▁1993	-11.0605
▁הוותיק	-11.0605
▁המגיע	-11.0607
▁בזהירות	-11.0608
▁הכימי	-11.0608
▁אֲ	-11.0608
▁פנוי	-11.0615
▁בטעות	-11.0615
SE	-11.0619
pi	-11.0619
שלישי	-11.0619
NA	-11.0624
fa	-11.063
מיוחד	-11.0632
▁לציד	-11.0635
חברתי	-11.0643
▁הקבלה	-11.0644
▁יהפוך	-11.0645
ההורים	-11.0647
TA	-11.0661
▁פריט	-11.0666
▁כחבר	-11.0674
ish	-11.0675
▁לטענת	-11.0678
▁מכונת	-11.0678
▁להשוות	-11.0679
▁אפקט	-11.0681
▁תביא	-11.0682
▁בשמחה	-11.0685
▁1990	-11.0686
▁החשיבה	-11.069
▁מתוח	-11.0694
▁קבצים	-11.0695
וואן	-11.0697
▁אלבומ	-11.0701
▁מתנהל	-11.0701
מקרר	-11.0704
מנחה	-11.0704
▁נשלט	-11.0712
טרוריסט	-11.0723
▁יקיר	-11.0727
נקט	-11.0731
הטבות	-11.0736
TV	-11.0753
אינסולין	-11.0757
▁אדוארד	-11.0757
▁השרירים	-11.076
▁1992	-11.0764
▁נשוי	-11.0766
פסיכיאטר	-11.0766
▁הדגל	-11.0766
כותרות	-11.0772
עדיפות	-11.0784
▁נערך	-11.0785
que	-11.0787
ביטול	-11.0797
▁מתמשך	-11.08
CH	-11.0804
השקעה	-11.0807
▁לוואי	-11.0808
red	-11.0816
▁שהיינו	-11.0819
השראה	-11.0821
מובנים	-11.0821
כלומר	-11.0822
צייד	-11.0825
▁האמינו	-11.0833
▁שגריר	-11.0836
חוזים	-11.0836
▁מלכתחילה	-11.0837
כולסטרול	-11.0837
▁להיעשות	-11.0837
▁המשפיע	-11.0837
▁ומאז	-11.0837
▁מבפנים	-11.0838
מצליח	-11.0838
▁בברכה	-11.0838
▁המרכיבים	-11.0839
אופציה	-11.0841
▁הבגדים	-11.0843
סתמך	-11.0846
אוקיינוס	-11.0849
צריכים	-11.0852
ראיונות	-11.0852
▁לחסל	-11.0859
גיבוי	-11.0859
▁בקשות	-11.0861
NBA	-11.0877
מגמות	-11.0877
שיתופי	-11.0877
משולש	-11.0886
מראות	-11.0887
TE	-11.0888
▁סנד	-11.0889
בשביל	-11.0893
מזונות	-11.0908
▁בספרי	-11.0908
▁שבכל	-11.0915
וייטנאם	-11.0919
▁לגיטימי	-11.0919
▁הנמוך	-11.0919
ֹר	-11.0919
ade	-11.092
▁תשוקה	-11.092
סעיפים	-11.0922
▁ההסבר	-11.0923
▁מנוחה	-11.0924
▁להתקין	-11.0927
▁להתנגד	-11.0928
▁הקבוע	-11.0928
▁להירגע	-11.0929
חרדה	-11.0931
חקירת	-11.0933
חקירות	-11.0936
▁נעדר	-11.094
גיא	-11.0943
dd	-11.0944
▁להתקשר	-11.0946
▁המטפל	-11.0955
▁תוספי	-11.0957
חובות	-11.096
תיאוריות	-11.0965
▁ההולנדי	-11.0972
▁מוטל	-11.0973
בוסטון	-11.0978
▁הנמל	-11.0979
פרופסור	-11.0987
נָ	-11.0991
אקר	-11.0994
חולשה	-11.0998
חיזבאללה	-11.1
▁with	-11.1
▁המתרחש	-11.1001
▁נסיבות	-11.1001
סגירת	-11.1001
AD	-11.1003
כדורגל	-11.1006
▁החיבור	-11.1008
tter	-11.1009
for	-11.101
גיח	-11.1011
ביטוח	-11.1011
תיאום	-11.1015
▁תוכנות	-11.1015
פרע	-11.1018
אכיפת	-11.102
▁פרנ	-11.1026
▁חשוד	-11.1031
▁איסוף	-11.1035
▁להקדיש	-11.1036
▁להסכים	-11.1045
ix	-11.1054
מאס	-11.1058
חוויה	-11.1066
▁בוטל	-11.1075
▁מוזיקלי	-11.1083
▁בברלין	-11.1083
ארגנטינה	-11.1084
▁מישהי	-11.1085
▁1994	-11.1091
תייצב	-11.1092
קיימא	-11.1094
▁בתשלום	-11.1095
▁תישאר	-11.1096
▁הזהיר	-11.1097
▁טופס	-11.1099
▁וכעת	-11.1103
▁שעושים	-11.1115
▁התור	-11.1119
TH	-11.112
▁במיטה	-11.1121
ze	-11.1134
תעשיות	-11.1139
▁קץ	-11.1144
אפריקה	-11.1144
▁התחלנו	-11.1155
מתוך	-11.1157
▁קנא	-11.1158
שונה	-11.1161
▁שכדאי	-11.1167
▁לתחום	-11.1167
▁ברשימת	-11.1167
▁תצליח	-11.1167
▁בהודעה	-11.1167
▁הקטנות	-11.1167
▁התביעה	-11.1168
▁יומיומי	-11.1169
▁התחתונה	-11.1171
אֶ	-11.1172
▁בנקודה	-11.1172
▁1944	-11.1177
נסיון	-11.118
▁1948	-11.1181
משתתף	-11.1182
▁הריבית	-11.1185
פינוי	-11.1189
ET	-11.1194
▁בהקדם	-11.1195
דפוס	-11.1196
▁להתפלל	-11.1202
2018	-11.1206
ley	-11.1208
▁המתאר	-11.121
▁משיג	-11.1212
▁בשבילכם	-11.1226
air	-11.123
גרף	-11.1237
מנסים	-11.1239
▁איומים	-11.1244
▁מסתורי	-11.125
הרפתקאות	-11.125
▁מתגעגע	-11.1251
מקסימום	-11.1251
▁תרומת	-11.1251
▁תמונת	-11.1251
▁Inter	-11.1255
–19	-11.1256
EA	-11.1257
אולפן	-11.1258
הדפסה	-11.1258
מקל	-11.1261
חץ	-11.1265
חפץ	-11.1265
▁הנפלא	-11.1266
DA	-11.1274
▁המאפיינ	-11.1276
▁בחצר	-11.1284
גוגל	-11.1285
תחמק	-11.1289
▁אמיר	-11.1297
▁להבהיר	-11.13
▁מסיר	-11.1305
שאול	-11.1316
▁הדוח	-11.1316
בוגד	-11.1321
▁האפיפיור	-11.1335
סכסוכים	-11.1335
▁ההפעלה	-11.1335
▁ביעילות	-11.1335
הרפתקה	-11.1336
▁שעובר	-11.1336
▁פער	-11.1337
SI	-11.134
▁בייחוד	-11.1341
עריצים	-11.1341
▁ניתנה	-11.1341
▁יכלה	-11.1342
חגיגה	-11.1343
▁לכסות	-11.1344
חכמת	-11.1345
▁נעימה	-11.1347
▁מרחוק	-11.1348
▁הרחוק	-11.1348
▁חתונה	-11.1349
פדרצי	-11.1349
▁האוטו	-11.1351
▁יצטרך	-11.1351
נבנתה	-11.1359
▁שילד	-11.136
שגיאות	-11.1365
▁היתרון	-11.1367
ספינה	-11.1372
מועמד	-11.138
גמישות	-11.1384
▁תעשו	-11.1386
▁Car	-11.1387
▁ותיק	-11.1396
מנזר	-11.1408
קנס	-11.1417
ויקיפדיה	-11.1421
▁מסובך	-11.1421
סמכויות	-11.1422
סיינטולוג	-11.1425
השפעת	-11.1428
▁Star	-11.1432
▁העצבים	-11.1433
אמנת	-11.1445
מתנגד	-11.1446
2.5	-11.1447
תמוך	-11.1449
▁פונה	-11.1451
שכונת	-11.1453
▁מועבר	-11.1456
איידס	-11.1456
▁אמונת	-11.1462
סכנות	-11.1464
▁דבש	-11.1468
▁יופיע	-11.1469
ופץ	-11.148
קצו	-11.1482
▁משאבי	-11.1493
RC	-11.1495
אנגליה	-11.1499
ויטמינים	-11.1507
התנהגויות	-11.1507
▁Life	-11.1508
▁הלמידה	-11.1508
-2008	-11.1509
▁הבטן	-11.151
▁מאוחד	-11.151
▁לזרוק	-11.151
▁משפר	-11.151
▁חזרתי	-11.1511
▁לסביבה	-11.1513
▁ההוראה	-11.1514
שיער	-11.1517
תועלת	-11.1518
▁המניע	-11.1519
▁מתקדמת	-11.1522
▁דירוג	-11.1523
LA	-11.1532
▁נשמת	-11.1532
▁יוגה	-11.1536
פריז	-11.1539
▁להשתלט	-11.1541
▁השתתפו	-11.1544
▁ענן	-11.1544
row	-11.1547
מתמחה	-11.1548
תקיפות	-11.157
MI	-11.1579
אפגניסטן	-11.1594
אינסטינקט	-11.1594
▁פתאומי	-11.1594
▁מבולבל	-11.1594
▁(2)	-11.1595
▁לרקוד	-11.1595
▁ציד	-11.1595
▁נראתה	-11.1598
▁היכולות	-11.1598
▁האלוהי	-11.1598
▁1991	-11.1601
פציעה	-11.1604
▁הישנה	-11.1604
▁הכתבה	-11.1607
▁בסביבת	-11.1609
▁מוצדק	-11.161
▁ויעיל	-11.1612
הרצאה	-11.1612
▁ניקול	-11.1616
▁קריאת	-11.1616
הזדמנות	-11.1617
▁הסכנה	-11.1618
▁הממלכה	-11.1618
▁להמתין	-11.1619
▁הפריט	-11.1622
באמצעות	-11.1623
the	-11.1624
ever	-11.1625
שאיפות	-11.1626
▁הגשת	-11.1628
▁כשאנו	-11.1629
פלישה	-11.163
תקע	-11.163
מורכב	-11.1633
▁תוהה	-11.1638
▁המוסלמי	-11.1644
מוטט	-11.1646
קדוש	-11.1646
▁סלע	-11.1647
▁Dr	-11.1649
▁ילמד	-11.1653
הונאה	-11.1656
▁יליד	-11.1666
שחור	-11.1674
‭	-11.1682
▁הסכימו	-11.1682
נורווגי	-11.1683
▁המומחים	-11.1684
▁בוודאות	-11.1684
-2015	-11.1687
עוצמת	-11.1688
עינויים	-11.169
▁נאמן	-11.1698
סתבר	-11.1704
פטור	-11.1704
▁צנוע	-11.1706
▁לצוות	-11.1706
▁ספיר	-11.1707
▁50%	-11.1707
TS	-11.1712
▁תסתכל	-11.1717
▁Day	-11.1719
▁On	-11.1722
מנסה	-11.1722
עצמי	-11.1726
אמרתי	-11.1728
▁אדמת	-11.1732
▁האידיאלי	-11.1733
העברת	-11.174
▁נכלל	-11.1744
▁ירגיש	-11.1746
▁שידור	-11.1754
הגדיל	-11.1756
ועידה	-11.176
מדרגה	-11.1762
▁הגנת	-11.1766
▁אנדרו	-11.1768
▁דייוויד	-11.177
▁להתחתן	-11.177
התבוננות	-11.177
▁קיומו	-11.1771
▁הראייה	-11.1771
▁לרשום	-11.1772
▁צועק	-11.1777
▁להתכונן	-11.1778
טלוויזיה	-11.178
נפץ	-11.1784
▁יוביל	-11.1788
שמן	-11.1789
▁התיישב	-11.1791
▁התחתון	-11.1792
IF	-11.1801
▁נוזלי	-11.1803
▁אימונים	-11.1805
קצר	-11.181
ספורטאים	-11.1812
▁מוותר	-11.1813
▁מגיש	-11.1816
▁Inc	-11.1821
אשליה	-11.1831
▁זאב	-11.184
סטארט	-11.1843
▁שאהב	-11.1845
▁אירופי	-11.1849
הבטחות	-11.1855
▁Next	-11.1859
▁אליזבת	-11.1859
▁בסמוך	-11.1859
▁תענוג	-11.186
התחייבויות	-11.186
▁במחצית	-11.186
▁טיפוסי	-11.186
▁מאפיינים	-11.186
מיליארד	-11.1861
▁המאמצים	-11.1861
▁לאיבוד	-11.1861
▁תעודת	-11.1862
▁בממשלה	-11.1864
▁ww	-11.1865
▁השורה	-11.1866
▁ההערכה	-11.1867
▁קורבן	-11.1869
▁לדחות	-11.1869
▁גיליתי	-11.1869
▁הנשי	-11.1875
▁להתלונן	-11.1877
▁לבטא	-11.1887
▁מתוכם	-11.1889
vel	-11.1893
▁מרשים	-11.1897
התנגדות	-11.1898
▁נובל	-11.1905
IV	-11.1905
מטיילים	-11.1906
ney	-11.1916
יבולת	-11.1925
DNA	-11.1927
▁Hotel	-11.1949
פקיסטן	-11.1949
[7]	-11.195
▁להירשם	-11.195
▁להפיץ	-11.195
▁המהוו	-11.195
▁העיקרון	-11.195
▁מסוכנים	-11.195
▁הלטינית	-11.1951
▁בטענה	-11.1952
▁אוספים	-11.1954
▁הפלילי	-11.1956
▁שרשרת	-11.1959
▁שייכים	-11.196
▁שכיח	-11.1961
▁1945	-11.1961
▁נצחי	-11.1962
▁האופנה	-11.1963
▁התחום	-11.1965
מחיש	-11.1966
הישאר	-11.1967
▁הכותב	-11.1971
מומחה	-11.1973
▁להודיע	-11.1991
אסט	-11.1997
▁מצוות	-11.1997
מבצר	-11.1998
▁סדיר	-11.2005
התגלות	-11.2012
תנועת	-11.2013
קאר	-11.2015
tch	-11.2017
קשור	-11.2031
▁הממשלתי	-11.2036
4,000	-11.2039
▁שפורסמ	-11.2041
▁הוסיפה	-11.2041
CE	-11.2041
▁חלופי	-11.2041
▁ביניהן	-11.2042
▁הסימנים	-11.2044
▁פוחד	-11.2045
▁אחסון	-11.2048
-2010	-11.2049
▁יורש	-11.205
במהלך	-11.2051
מכונות	-11.2051
▁מאליו	-11.2051
▁תקדים	-11.2053
▁אוזני	-11.2057
▁ויאמר	-11.2058
▁פושע	-11.2062
בחנת	-11.2064
▁נמלט	-11.2072
▁נוש	-11.2078
press	-11.2081
חיסול	-11.2083
za	-11.2091
▁Of	-11.2098
▁האמון	-11.2105
בתוך	-11.211
▁תוקפ	-11.2119
איטליה	-11.2124
טרופי	-11.2126
▁It	-11.2126
<	-11.2132
▁מסוכנת	-11.2132
▁ניסתה	-11.2132
▁מבחוץ	-11.2133
▁לפועל	-11.2134
▁תאמינו	-11.2134
תאריכים	-11.2135
▁MBA	-11.2135
▁Act	-11.2153
tle	-11.2154
▁ולשמור	-11.2158
▁קודמים	-11.216
▁הגדרת	-11.216
פרסמה	-11.2173
הצהרות	-11.2174
▁תקיפה	-11.2185
תחושת	-11.2195
▁האומות	-11.2199
השאלה	-11.2209
סתירה	-11.2209
שכן	-11.2212
תעלם	-11.2213
סוגיות	-11.2214
@	-11.2225
́	-11.2225
▁אינסופי	-11.2225
▁היומיום	-11.2225
▁שאפילו	-11.2225
▁מופעל	-11.2229
▁אקראי	-11.223
פעמי	-11.2234
▁תצטרכו	-11.2234
פירוק	-11.2234
▁המדיני	-11.2239
▁הוגש	-11.2241
Cl	-11.2241
▁הטורקי	-11.2253
▁אדומים	-11.2254
▁לשחזר	-11.2257
▁Post	-11.226
Book	-11.226
▁הרגשי	-11.2268
עמיתי	-11.2271
מחלקת	-11.2272
הפצת	-11.2275
▁לתושבי	-11.2284
▁יסייע	-11.2287
מכור	-11.2291
▁שגורמ	-11.2296
ult	-11.2304
▁העתק	-11.2316
▁פסיכו	-11.2316
	-11.2318
▁Business	-11.2318
▁להדגיש	-11.2318
פקולטה	-11.2318
▁נעשתה	-11.2318
סוכנויות	-11.2319
▁התשוקה	-11.2319
▁סקירה	-11.2319
קתדרל	-11.232
▁להאשים	-11.232
▁שעתיים	-11.2321
▁מרהיב	-11.2323
מאפיין	-11.2325
▁הקריאה	-11.2325
▁אכילה	-11.2326
▁בבניין	-11.2329
▁בשיחה	-11.233
▁התרגיל	-11.2334
במקרה	-11.2337
ממוצע	-11.2354
▁שאותו	-11.2357
▁בגדי	-11.236
אינטרנט	-11.2364
אפשרויות	-11.2368
מוסלמים	-11.2368
▁הפולני	-11.2379
▁שנדרש	-11.2383
▁מתואר	-11.2384
פרצה	-11.2388
ham	-11.239
▁בנמל	-11.2417
▁במסעדה	-11.2417
▁שביקש	-11.2418
lor	-11.2418
▁וחברת	-11.242
▁סייבר	-11.2421
▁הזמנה	-11.2422
▁רוכש	-11.2424
בגידה	-11.2424
▁שהתקבל	-11.2426
יצירות	-11.2427
קרנות	-11.2428
▁קהילתי	-11.2438
ציונות	-11.2442
נבא	-11.2447
מוזיקאי	-11.245
▁Gu	-11.2451
ווסט	-11.2453
מתקפות	-11.2459
▁1000	-11.2459
▁20%	-11.246
סידור	-11.2464
קפיא	-11.2468
הצעה	-11.2476
▁קבור	-11.2478
הוראת	-11.2481
▁באפשרות	-11.2506
קריטריונים	-11.2508
[6]	-11.2508
תערוכות	-11.2508
▁נמוכות	-11.2508
▁מיכאל	-11.2508
סיבוכים	-11.2509
▁תרצה	-11.251
התאוששות	-11.2513
▁חמוד	-11.2514
קומדיה	-11.2514
▁מאובטח	-11.2515
▁הנשימה	-11.2516
לחצים	-11.2521
▁נמאס	-11.2523
▁מפורש	-11.2524
ידרש	-11.2524
▁מצווה	-11.2529
מאפייני	-11.2529
▁בשורה	-11.2542
בדיקת	-11.2548
רדיפה	-11.255
▁מובטח	-11.2556
חיפוש	-11.2556
מפלגת	-11.2559
PR	-11.2579
ממדי	-11.2581
▁לצרכי	-11.2588
▁מדהימים	-11.2604
סינגפור	-11.2605
▁החשוד	-11.2605
הפגין	-11.2605
התפרצות	-11.2605
▁נגיע	-11.2605
▁הפעלה	-11.2605
▁דאפא	-11.2606
▁הזקן	-11.2608
▁מגזין	-11.2608
▁מילולי	-11.2609
▁למשטרה	-11.2611
▁לשפוט	-11.2612
תרפיה	-11.2612
▁מצלמה	-11.2614
תחזיות	-11.2614
▁וביקש	-11.2616
יישר	-11.2616
▁זעיר	-11.2623
▁חיסון	-11.2628
▁מותק	-11.263
▁להתאמן	-11.263
▁השמיני	-11.2635
נדון	-11.2646
ארנב	-11.2647
צלחות	-11.2661
▁נוירו	-11.2669
▁מרוכז	-11.2701
▁נמשכת	-11.2701
▁לשחרור	-11.2701
▁פחמן	-11.2702
▁ההכנסה	-11.2702
▁למחנה	-11.2702
▁וכתוצאה	-11.2703
▁שפועל	-11.2703
תחושה	-11.2706
▁המסעדה	-11.2709
▁הביצועים	-11.2709
תלבט	-11.2709
תקרית	-11.2711
▁עניינים	-11.2711
▁הבלוג	-11.2712
▁הליגה	-11.2713
מעשנים	-11.272
נורמלי	-11.2721
קופסה	-11.2723
▁תיעוד	-11.2723
▁פרעה	-11.2728
▁And	-11.2728
סלח	-11.2729
▁מלוא	-11.2731
▁נחשף	-11.2733
▁לוחמים	-11.2735
▁הנובע	-11.2748
קובצי	-11.2749
עצמאות	-11.2766
▁פגיע	-11.2767
▁האוסטרלי	-11.2768
סטודנטים	-11.277
▁מגביר	-11.277
▁תובע	-11.2771
תסכול	-11.279
העדפות	-11.2791
▁לקפוץ	-11.2799
▁להימלט	-11.2799
▁הביטחוני	-11.2799
▁ההצבעה	-11.2799
▁ההולדת	-11.2799
▁השיפוט	-11.2799
▁השידור	-11.28
▁ירקות	-11.2801
▁El	-11.2802
▁ראיתם	-11.2802
▁פומבי	-11.2803
▁נלהב	-11.2803
הזדהות	-11.2805
▁מכבי	-11.2807
סכנת	-11.2814
תאוריה	-11.2816
▁נצטרך	-11.2816
▁חסיד	-11.2822
פלסטיני	-11.2823
הורות	-11.2824
▁הנהלת	-11.2826
נגיף	-11.2827
EP	-11.2835
▁מחמד	-11.284
American	-11.2849
▁החרדי	-11.2851
יישן	-11.2853
▁אטרקטיבי	-11.2898
▁אוטונומי	-11.2898
▁הסיכונים	-11.2898
▁ברציפות	-11.2898
▁פטנט	-11.2899
qua	-11.2899
▁השתנתה	-11.2902
▁ראיון	-11.2904
▁ואילך	-11.2904
▁שחושב	-11.2906
▁מיתוס	-11.2907
▁לפרטים	-11.2908
▁לציון	-11.291
נחישות	-11.291
▁מקיף	-11.2911
תצפית	-11.2912
וויכוח	-11.2912
▁שנעשו	-11.2915
ישיבות	-11.2916
פלסטין	-11.2919
▁רעיל	-11.2933
חשוף	-11.2948
אבנים	-11.2955
לכד	-11.2973
מטבע	-11.2977
[[	-11.2983
▁החיוני	-11.2984
▁התעשייתי	-11.2998
▁היומיומי	-11.2998
▁תשלומים	-11.2998
▁ללחוץ	-11.2999
▁מבודד	-11.3
ash	-11.3002
▁אכילת	-11.3006
האשמות	-11.3007
קופסא	-11.3015
nder	-11.3019
תאונת	-11.3023
מייצר	-11.3026
בסוף	-11.3058
▁שורות	-11.3065
▁שייכת	-11.3073
תלונן	-11.3087
iPhone	-11.3099
←	-11.3099
▁Street	-11.3099
▁קעקוע	-11.3099
▁זמינה	-11.3099
▁אינטימי	-11.3099
▁המלוכה	-11.3099
▁מטורף	-11.31
qui	-11.31
▁כולכם	-11.31
▁Park	-11.3104
▁הטמפרטורה	-11.3105
▁לנשום	-11.3111
בחינות	-11.3115
ריאליסטי	-11.3116
▁שכזו	-11.3118
▁בנימין	-11.3118
▁המופיע	-11.3119
can	-11.312
פיהם	-11.3124
מעוניינים	-11.3124
טראמפ	-11.3124
תפוח	-11.3136
▁למדוד	-11.3141
סניף	-11.3142
▁בדיוני	-11.316
▁מזמינים	-11.3201
▁לשטוף	-11.3201
▁להיפך	-11.3201
במקום	-11.3203
-2012	-11.3207
▁רפורמ	-11.3208
▁הראיות	-11.321
▁מועט	-11.322
תורגם	-11.3222
סטטיסטיקה	-11.3234
ated	-11.3234
הכרזה	-11.3238
▁הוועד	-11.3247
הצעת	-11.3254
▁גופני	-11.3269
חשבונות	-11.3272
פגוש	-11.3275
כלבים	-11.3285
®	-11.3304
אנטיביוטיקה	-11.3304
▁זמינות	-11.3304
מדריכים	-11.3305
▁תחשבו	-11.3306
נסיעה	-11.3306
קולוניאלי	-11.3307
פרסומות	-11.3307
▁מגדיל	-11.3308
▁לחזות	-11.3311
▁מוקדש	-11.3315
▁נעשים	-11.3318
▁בטכנולוגי	-11.3319
אסתטי	-11.3321
חריף	-11.3322
▁עכבר	-11.3324
המלצות	-11.3336
line	-11.3347
ינגטון	-11.3353
▁פאול	-11.3354
▁השגריר	-11.3355
▁בשיא	-11.3355
▁סטטיסטי	-11.3357
הולכים	-11.3366
▁במשא	-11.3371
▁המנוח	-11.3383
נפילה	-11.3392
משתתפים	-11.3394
ֻ	-11.3408
▁Rights	-11.3408
▁Online	-11.3408
הזדקנות	-11.3409
▁ארתור	-11.341
▁תביעה	-11.3411
▁המהלך	-11.3411
עָ	-11.3412
▁אפוא	-11.3413
מולקולות	-11.3413
▁חלוקת	-11.3415
▁מפואר	-11.3417
▁הפילוסופיה	-11.3418
מפרסמים	-11.3419
רגולצי	-11.3419
▁הכשר	-11.3425
חֲ	-11.3426
זנב	-11.3429
נסיגה	-11.3432
השמדה	-11.3436
הורמון	-11.3439
פיתוח	-11.3442
דימום	-11.3446
▁השיא	-11.3456
**	-11.3462
▁מגרש	-11.3467
פוליטיקאי	-11.3478
עקוב	-11.3488
▁דינמי	-11.3492
▁הסטנדרטי	-11.3503
▁התיאור	-11.3506
קפיטליזם	-11.3514
▁טוענת	-11.3514
תערוכת	-11.3514
▁הצלחנו	-11.3514
מתבגרים	-11.3514
▁הידיעה	-11.3514
▁ספינת	-11.3515
▁הסובלים	-11.3515
▁Mac	-11.3516
הצלחה	-11.3517
▁בתוכנו	-11.3517
▁לפרוש	-11.3517
▁1989	-11.3523
▁המתקפה	-11.3524
▁הישנים	-11.3526
▁ולהבין	-11.3531
▁נאסר	-11.3531
▁במגזר	-11.3543
▁חישוב	-11.3544
▁האבוד	-11.3555
עננים	-11.3557
לטיני	-11.356
עושים	-11.3565
tric	-11.3566
עריך	-11.3591
תפיסות	-11.3591
FDA	-11.3604
▁בתולדות	-11.362
▁כביכול	-11.362
סגנונות	-11.362
▁דיסני	-11.362
▁מובהק	-11.3621
▁מכוסה	-11.3621
▁נכנע	-11.3621
עיין	-11.3623
▁לצמוח	-11.3623
▁אקלים	-11.3624
ארלס	-11.3624
▁לנתח	-11.3626
סמינר	-11.3627
▁365	-11.3633
▁רוצות	-11.3633
▁בילדות	-11.3634
עדכונים	-11.3634
מאורע	-11.3636
▁1980	-11.3636
▁מסקנות	-11.3636
▁להימשך	-11.3637
חימום	-11.3641
▁מרשם	-11.3649
ערוך	-11.3656
פתאום	-11.3659
▁הרסני	-11.3662
2000	-11.3678
תעודה	-11.3686
תיכוני	-11.3687
שטיין	-11.3711
▁סטרואידים	-11.3728
▁אינטלקטואלי	-11.3728
ough	-11.3728
▁הארוכה	-11.3728
צפיפות	-11.373
-2009	-11.373
▁תחושות	-11.373
▁1.1	-11.373
שופר	-11.3733
-2011	-11.3733
▁מתרגלים	-11.3734
▁דחוף	-11.3745
פזר	-11.375
▁הישיר	-11.3758
שקפות	-11.3762
▁קולט	-11.3765
הפסקת	-11.3792
רענן	-11.3799
לשכת	-11.3812
▁ניהל	-11.3816
מהנדס	-11.3818
שטויות	-11.3833
▁המפורסמת	-11.3836
▁מוסקבה	-11.3836
▁שמאחורי	-11.3836
▁(3)	-11.3838
▁העניינים	-11.3839
▁תומאס	-11.384
▁Word	-11.384
▁ננסה	-11.384
▁הזמינו	-11.3841
▁מרוחק	-11.3841
box	-11.3842
ative	-11.3842
▁1986	-11.3846
▁האותיות	-11.3847
▁קיומה	-11.385
▁בבטחה	-11.3855
▁העלילה	-11.3855
Google	-11.3877
|	-11.3877
בייג	-11.3887
q	-11.3902
צמיד	-11.3941
▁וירטואלי	-11.3946
▁לתרגם	-11.3946
▁במפורש	-11.3946
▁ושומרון	-11.3946
▁קפדני	-11.3946
▁תכשיטים	-11.3947
חשבונאות	-11.3949
▁מסויים	-11.3949
▁הימורים	-11.3952
▁אובייקטיבי	-11.3953
▁הקודמות	-11.3954
▁וגאס	-11.3955
▁בישול	-11.3956
▁תיאורטי	-11.3959
▁הקפד	-11.3959
▁נסיכ	-11.3963
מלאכה	-11.3963
▁שממנ	-11.3966
▁Art	-11.3976
‘	-11.3989
המטרה	-11.3993
במשך	-11.3998
חרם	-11.4012
בעקבות	-11.402
בילוי	-11.4029
form	-11.4039
שקיפות	-11.405
▁העצמאי	-11.4057
▁ולעיתים	-11.4057
התחממות	-11.4058
▁הוחלט	-11.4058
קפיצה	-11.4061
▁ירצה	-11.4062
-2016	-11.4062
ייאוש	-11.4064
▁פוטין	-11.4064
גירסה	-11.4065
[8]	-11.4065
▁ההיבטים	-11.4068
▁מינימלי	-11.4078
שוואת	-11.4093
מיליוני	-11.4097
רישיון	-11.4106
פיתוי	-11.4114
צטט	-11.4125
▁קיוו	-11.4157
▁המאוחדת	-11.417
▁תזונתי	-11.417
▁תכופות	-11.417
▁הנכונים	-11.417
▁להפריע	-11.417
Apple	-11.417
▁ההנחה	-11.417
▁מסתדר	-11.4171
תעמולה	-11.4171
▁מקושר	-11.4172
▁באסיה	-11.4173
▁הממצאים	-11.4173
▁מוסמך	-11.4174
▁למחלות	-11.4177
▁היישום	-11.4177
▁מוצע	-11.4177
▁1979	-11.4178
▁נואש	-11.4182
▁שאיבד	-11.4182
▁נוקט	-11.4194
▁חופ	-11.421
▁הרובוט	-11.4213
מחלוקות	-11.422
צטרפו	-11.4238
מנדט	-11.4241
סיכוי	-11.4254
▁אלקטרו	-11.4263
▁גירוש	-11.4267
‫	-11.4283
▁נפוצות	-11.4283
▁שואפים	-11.4283
▁תעסוקה	-11.4284
▁אופנוע	-11.4284
סקרנות	-11.4289
▁ששימש	-11.429
▁עבירות	-11.4291
▁במושב	-11.4291
▁ההצגה	-11.4293
▁וקיבל	-11.4295
▁העממי	-11.4296
▁הזמנות	-11.4296
▁הערכות	-11.4305
סיכון	-11.431
התרחבות	-11.4311
גבעות	-11.4318
דמוקרטים	-11.4363
החלטות	-11.4365
ענפי	-11.4367
אמסטרדם	-11.4398
▁התקיימה	-11.4398
▁וללמוד	-11.4398
▁מפורסמים	-11.4398
▁לאנושות	-11.4401
▁בפגישה	-11.4408
▁בכניסה	-11.4408
תופעת	-11.4412
▁עושות	-11.4418
▁האדיר	-11.4429
▁חותמ	-11.4444
▁המשיב	-11.4451
גבוה	-11.4451
»	-11.4937
°	-11.5242
ׂ	-11.5302
—	-11.5317
׃	-11.6878
₪	-11.8309
á	-12.0184
‪	-12.0822
€	-12.0822
#	-12.0864
↑	-12.1045
′	-12.1045
♥	-12.1504
‐	-12.2236
í	-12.2493
›	-12.2493
ö	-12.2756
ó	-12.3026
£	-12.3026
ü	-12.3304
ا	-12.4822
ل	-12.6228
¶	-12.7012
●	-12.7012
^	-12.7249
ä	-12.7429
↩	-12.7864
­	-12.8318
è	-12.8318
â	-12.8794
◄	-12.9294
▼	-12.9821
م	-13.0376
	-13.0965
„	-13.0965
~	-13.1409
§	-13.159
ç	-13.159
α	-13.159
ي	-13.159
ر	-13.2256
à	-13.297
ο	-13.374
ֿ	-13.374
−	-13.374
►	-13.374
‹	-13.4573
τ	-13.4573
و	-13.4573
λ	-13.5482
ú	-13.5482
َ	-13.5482
ب	-13.5482
→	-13.6302
κ	-13.6482
ʉ	-13.6482
š	-13.6482
️	-13.6482
а	-13.6482
ž	-13.7593
θ	-13.7593
ß	-13.7593
ł	-13.7593
о	-13.7593
ֳ	-13.7593
ن	-13.7593
ع	-13.7593
μ	-13.8843
ê	-13.8843
ρ	-13.8843
å	-13.8843
ς	-13.8843
￼	-13.8843
⬅	-13.8843
«	-14.0091
π	-14.0272
	-14.0272
и	-14.0272
▪	-14.0272
♪	-14.0272
ō	-14.0272
ι	-14.0272
•	-14.1759
γ	-14.1938
±	-14.1938
ν	-14.1938
φ	-14.1938
н	-14.1938
	-14.1938
😛	-14.1938
É	-14.1938
Δ	-14.1938
ی	-14.1938
ه	-14.3938
¦	-14.3938
ć	-14.3938
ή	-14.3938
β	-14.3938
Р	-14.3938
ت	-14.3938
‚	-14.3938
	-14.3938
‍	-14.3938
х	-14.3938
س	-14.3939
ά	-14.6438
ε	-14.6438
ā	-14.6438
č	-14.6438
σ	-14.6438
О	-14.6438
¢	-14.6438
æ	-14.6438
ë	-14.6438
ş	-14.6438
Θ	-14.6438
Ω	-14.6438
в	-14.6438
ֽ	-14.6438
ك	-14.6438
∈	-14.6438
	-14.6438
😊	-14.6438
ج	-14.6438
د	-14.6438
с	-14.6439
ح	-14.6439
ش	-14.6439
أ	-14.6439
ة	-14.9772
Î	-14.9772
ق	-14.9772
ø	-14.9772
	-14.9772
Ö	-14.9772
η	-14.9772
Т	-14.9772
р	-14.9772
і	-14.9772
֥	-14.9772
ْ	-14.9772
٠	-14.9772
⁡	-14.9772
□	-14.9772
★	-14.9772
⚡	-14.9772
✔	-14.9772
😂	-14.9772
🤔	-14.9772
	-14.9772
―	-14.9772
ś	-14.9772
Ü	-14.9772
С	-14.9772
ُ	-14.9772
ल	-14.9772
ذ	-14.9772
·	-15.4594
ា	-15.4772
К	-15.4772
ī	-15.4772
ū	-15.4772
т	-15.4772
、	-15.4772
	-15.4772
Á	-15.4772
ð	-15.4772
ò	-15.4772
õ	-15.4772
ù	-15.4772
ý	-15.4772
ğ	-15.4772
œ	-15.4772
ɒ	-15.4772
ʻ	-15.4772
̈	-15.4772
έ	-15.4772
ί	-15.4772
Н	-15.4772
д	-15.4772
й	-15.4772
ф	-15.4772
ц	-15.4772
ч	-15.4772
я	-15.4772
خ	-15.4772
ط	-15.4772
ा	-15.4772
‰	-15.4772
↓	-15.4772
∘	-15.4772
∙	-15.4772
∽	-15.4772
≠	-15.4772
≥	-15.4772
▶	-15.4772
☆	-15.4772
⟩	-15.4772
⦁	-15.4772
の	-15.4772
ル	-15.4772
日	-15.4772
黑	-15.4772
	-15.4772
	-15.4772
📄	-15.4772
🔥	-15.4772
😁	-15.4772
😃	-15.4772
😍	-15.4772
😚	-15.4772
Đ	-15.4772
İ	-15.4772
е	-15.4772
п	-15.4772
у	-15.4772
	-15.4772
ー	-15.4772
ˌ	-15.4772
	-16.4715
❽	-16.4716
❻	-16.4717
✰	-16.4718
♠	-16.4719
☺	-16.472
☀	-16.4721
إ	-16.4722
װ	-16.4723
֖	-16.4724
В	-16.4725
δ	-16.4726
Ε	-16.4727
ż	-16.4728
ţ	-16.4729
ő	-16.473
ň	-16.4731
ħ	-16.4732
ę	-16.4733
Č	-16.4734
ă	-16.4735
ÿ	-16.4736
û	-16.4737
Ç	-16.4738
¿	-16.4739
†	-16.474
χ	-16.4741
υ	-16.4742
Σ	-16.4743
ɾ	-16.4744
	-16.4745
😀	-16.4746
♫	-16.4747
⋅	-16.4748
⁠	-16.4749
Ł	-16.475
👑	-16.4751
√	-16.4752
‒	-16.4753
ã	-16.4754
🙁	-16.4755
ِ	-16.4756
▲	-16.4757
⁄	-16.4758
ñ	-16.4759
	-16.476
̄	-16.4761
¬	-16.4762
‡	-16.4763
👈	-16.4764
	-16.4765
∗	-16.4766
😉	-16.4767
♦	-16.4768
■	-16.4769
©	-16.477
×	-16.4771
ខ	-16.4772
ភ	-16.4772
ម	-16.4772
ស	-16.4772
ែ	-16.4772
្	-16.4772
П	-16.4772
ث	-16.4772
ἀ	-16.4772
疽	-16.4772
Ġ	-16.4772
Ψ	-16.4772
ߡ	-16.4772
海	-16.4772
Τ	-16.4772
⁨	-16.4772
☚	-16.4772
¡	-16.4772
È	-16.4772
Ë	-16.4772
Ú	-16.4772
Û	-16.4772
ï	-16.4772
ô	-16.4772
÷	-16.4772
ŋ	-16.4772
Ś	-16.4772
Š	-16.4772
Ÿ	-16.4772
Ż	-16.4772
Ž	-16.4772
ư	-16.4772
ș	-16.4772
ț	-16.4772
ɓ	-16.4772
ə	-16.4772
ɸ	-16.4772
ʌ	-16.4772
ʼ	-16.4772
ː	-16.4772
Α	-16.4772
Β	-16.4772
Κ	-16.4772
Φ	-16.4772
ω	-16.4772
ό	-16.4772
Б	-16.4772
Д	-16.4772
Ы	-16.4772
Я	-16.4772
г	-16.4772
ж	-16.4772
к	-16.4772
л	-16.4772
ы	-16.4772
Ҫ	-16.4772
Ӑ	-16.4772
Ӗ	-16.4772
ӝ	-16.4772
Ӳ	-16.4772
Ե	-16.4772
Խ	-16.4772
Յ	-16.4772
Ս	-16.4772
ֺ	-16.4772
ׅ	-16.4772
ױ	-16.4772
ئ	-16.4772
ص	-16.4772
ف	-16.4772
ى	-16.4772
١	-16.4772
٢	-16.4772
٨	-16.4772
٩	-16.4772
ٰ	-16.4772
ٹ	-16.4772
چ	-16.4772
ھ	-16.4772
ߟ	-16.4772
ं	-16.4772
औ	-16.4772
ग	-16.4772
त	-16.4772
न	-16.4772
ब	-16.4772
ी	-16.4772
े	-16.4772
ં	-16.4772
ગ	-16.4772
બ	-16.4772
લ	-16.4772
ો	-16.4772
༓	-16.4772
រ	-16.4772
ạ	-16.4772
ả	-16.4772
‮	-16.4772
⁩	-16.4772
₹	-16.4772
⇒	-16.4772
∀	-16.4772
∂	-16.4772
∆	-16.4772
∞	-16.4772
≪	-16.4772
≿	-16.4772
⋯	-16.4772
─	-16.4772
▸	-16.4772
▾	-16.4772
◻	-16.4772
◼	-16.4772
☝	-16.4772
♔	-16.4772
♣	-16.4772
✌	-16.4772
✯	-16.4772
❁	-16.4772
❓	-16.4772
❤	-16.4772
❷	-16.4772
❼	-16.4772
❾	-16.4772
➝	-16.4772
⟨	-16.4772
⟵	-16.4772
⭐	-16.4772
ア	-16.4772
シ	-16.4772
ス	-16.4772
ュ	-16.4772
㪗	-16.4772
三	-16.4772
东	-16.4772
主	-16.4772
九	-16.4772
京	-16.4772
以	-16.4772
会	-16.4772
元	-16.4772
列	-16.4772
反	-16.4772
名	-16.4772
士	-16.4772
大	-16.4772
学	-16.4772
川	-16.4772
工	-16.4772
幕	-16.4772
广	-16.4772
府	-16.4772
式	-16.4772
徳	-16.4772
慢	-16.4772
拾	-16.4772
旦	-16.4772
本	-16.4772
来	-16.4772
株	-16.4772
民	-16.4772
浪	-16.4772
点	-16.4772
理	-16.4772
社	-16.4772
穂	-16.4772
空	-16.4772
章	-16.4772
第	-16.4772
算	-16.4772
絵	-16.4772
義	-16.4772
聲	-16.4772
航	-16.4772
色	-16.4772
茶	-16.4772
蒙	-16.4772
術	-16.4772
詞	-16.4772
赤	-16.4772
逆	-16.4772
道	-16.4772
都	-16.4772
鈴	-16.4772
院	-16.4772
黒	-16.4772
랙	-16.4772
블	-16.4772
엠	-16.4772
	-16.4772
	-16.4772
	-16.4772
	-16.4772
	-16.4772
	-16.4772
	-16.4772
	-16.4772
	-16.4772
﴾	-16.4772
﴿	-16.4772
🇸	-16.4772
🇾	-16.4772
🌈	-16.4772
🌎	-16.4772
🍻	-16.4772
🎉	-16.4772
🎶	-16.4772
🏽	-16.4772
🐔	-16.4772
👉	-16.4772
💉	-16.4772
💔	-16.4772
💖	-16.4772
💜	-16.4772
💫	-16.4772
😄	-16.4772
😅	-16.4772
😆	-16.4772
😈	-16.4772
😏	-16.4772
😐	-16.4772
😒	-16.4772
😜	-16.4772
😦	-16.4772
🙌	-16.4772
🚖	-16.4772
🚘	-16.4772
🤨	-16.4772
🦁	-16.4772
🧼	-16.4772
髓	-16.4772
	-16.4772
📁	-16.4772
Ó	-16.4772
Ø	-16.4772
ṅ	-16.4772
ὥ	-16.4772
介	-16.4772
ɛ	-16.4772
ʊ	-16.4772
ˈ	-16.4772
Χ	-16.4772
ш	-16.4772
آ	-16.4772
द	-16.4772
ि	-16.4772
्	-16.4772
ῦ	-16.4772
ギ	-16.4772
简	-16.4772
コ	-16.4772
ド	-16.4772
古	-16.4772
襲	-16.4772
🙂	-16.4772
