<unk>	0
<s>	0
</s>	0
▁ה	-0
▁ל	-1
▁א	-2
▁מ	-3
ים	-4
▁ב	-5
ות	-6
▁ש	-7
▁ע	-8
▁כ	-9
▁ו	-10
▁י	-11
ני	-12
▁של	-13
ור	-14
ול	-15
נו	-16
▁את	-17
ית	-18
רו	-19
▁המ	-20
▁ח	-21
וד	-22
▁לה	-23
רי	-24
▁לא	-25
▁הי	-26
די	-27
▁ז	-28
▁ת	-29
▁נ	-30
לי	-31
בר	-32
▁הא	-33
נה	-34
וא	-35
▁פ	-36
וב	-37
▁ק	-38
▁על	-39
ון	-40
יר	-41
יל	-42
▁ג	-43
יות	-44
יה	-45
רא	-46
ומ	-47
ין	-48
תי	-49
▁ס	-50
מו	-51
ום	-52
▁ר	-53
שי	-54
▁"	-55
מה	-56
נים	-57
▁מה	-58
כל	-59
▁ד	-60
מי	-61
שה	-62
▁זה	-63
שר	-64
ופ	-65
בי	-66
נות	-67
▁בא	-68
▁אח	-69
לה	-70
▁שה	-71
▁הוא	-72
▁אי	-73
▁הח	-74
וק	-75
סי	-76
▁צ	-77
טי	-78
וח	-79
▁כל	-80
▁הש	-81
▁הע	-82
▁במ	-83
▁או	-84
▁הת	-85
בל	-86
רים	-87
▁למ	-88
▁מא	-89
שים	-90
▁וה	-91
בו	-92
▁בע	-93
▁יש	-94
יי	-95
לא	-96
▁שא	-97
גי	-98
ספ	-99
▁מש	-100
▁עם	-101
כול	-102
▁לע	-103
לו	-104
זה	-105
▁הפ	-106
רה	-107
בה	-108
▁ט	-109
▁(	-110
יים	-111
▁מת	-112
▁אות	-113
צי	-114
וג	-115
▁כי	-116
▁מי	-117
וע	-118
ותר	-119
את	-120
שו	-121
▁הק	-122
נת	-123
▁בי	-124
▁בש	-125
רכ	-126
▁אני	-127
▁שי	-128
מש	-129
נית	-130
▁1	-131
▁לפ	-132
מת	-133
▁היא	-134
▁מע	-135
▁הה	-136
▁הב	-137
▁יותר	-138
▁רו	-139
דים	-140
..	-141
▁לי	-142
▁לש	-143
".	-144
▁גם	-145
וי	-146
▁הר	-147
▁אנ	-148
וכ	-149
▁וא	-150
▁יכול	-151
וש	-152
בים	-153
▁בה	-154
וצ	-155
מים	-156
עות	-157
דר	-158
וס	-159
▁היה	-160
▁מח	-161
יק	-162
עה	-163
ולם	-164
דה	-165
▁לח	-166
▁לב	-167
▁אם	-168
▁2	-169
▁בת	-170
טר	-171
▁הג	-172
כם	-173
שות	-174
▁מק	-175
בות	-176
▁מס	-177
בור	-178
▁אמ	-179
▁הם	-180
שת	-181
▁הכ	-182
פי	-183
מן	-184
חר	-185
▁לק	-186
כו	-187
לק	-188
רח	-189
▁בח	-190
▁כא	-191
▁נו	-192
▁הס	-193
רג	-194
▁הנ	-195
▁אבל	-196
לים	-197
רת	-198
▁-	-199
00	-200
▁הצ	-201
בע	-202
מצ	-203
דע	-204
אי	-205
נס	-206
דם	-207
▁הז	-208
וו	-209
קה	-210
צה	-211
מות	-212
אה	-213
אים	-214
אות	-215
חת	-216
פה	-217
▁הד	-218
כה	-219
▁כדי	-220
יו	-221
▁רק	-222
▁להיות	-223
▁–	-224
חה	-225
▁ומ	-226
עים	-227
חות	-228
▁אל	-229
חנו	-230
▁אתה	-231
נט	-232
פר	-233
▁ול	-234
▁שמ	-235
כן	-236
ירות	-237
בת	-238
▁אחד	-239
קי	-240
ורה	-241
פת	-242
בוד	-243
קר	-244
▁אפ	-245
▁לת	-246
וף	-247
ברים	-248
רות	-249
ונ	-250
▁פע	-251
▁כמו	-252
יותר	-253
כת	-254
דו	-255
▁עצ	-256
▁כך	-257
▁צרי	-258
ולי	-259
▁להת	-260
▁מצ	-261
הם	-262
שא	-263
וז	-264
ספר	-265
דול	-266
▁וב	-267
וך	-268
חי	-269
יתה	-270
וני	-271
שוב	-272
עת	-273
▁שלי	-274
▁סי	-275
ורים	-276
סט	-277
ירה	-278
לות	-279
▁זו	-280
כים	-281
קים	-282
▁ביותר	-283
▁שלך	-284
▁הרא	-285
▁מב	-286
יתי	-287
▁בכל	-288
▁לג	-289
▁בס	-290
▁ני	-291
לת	-292
ראל	-293
דות	-294
▁יה	-295
לב	-296
▁האי	-297
▁טוב	-298
▁הט	-299
נג	-300
▁אז	-301
ילו	-302
טים	-303
...	-304
▁עד	-305
▁ממ	-306
ונים	-307
▁מכ	-308
יא	-309
▁רא	-310
טה	-311
כות	-312
ילה	-313
▁זאת	-314
▁המש	-315
▁לו	-316
▁ידי	-317
▁בר	-318
▁די	-319
▁וע	-320
פור	-321
▁האם	-322
▁הזה	-323
▁שנ	-324
חק	-325
er	-326
▁אותו	-327
ומר	-328
▁עלי	-329
שהו	-330
▁שלו	-331
▁בג	-332
▁בפ	-333
▁בב	-334
▁אנחנו	-335
מוד	-336
▁בין	-337
▁שלנו	-338
דת	-339
עי	-340
▁בק	-341
אר	-342
ראה	-343
▁כמה	-344
▁חי	-345
▁מדי	-346
לח	-347
▁שע	-348
in	-349
▁אין	-350
01	-351
▁מאוד	-352
▁בכ	-353
ניות	-354
וט	-355
זור	-356
תה	-357
רב	-358
יש	-359
▁חד	-360
▁עבור	-361
▁19	-362
ופן	-363
רון	-364
-1	-365
גיע	-366
▁מפ	-367
▁לך	-368
▁היו	-369
חד	-370
▁פר	-371
▁לפני	-372
או	-373
",	-374
▁לנו	-375
פות	-376
▁אנשים	-377
רך	-378
סף	-379
on	-380
מע	-381
ניים	-382
ולה	-383
▁לד	-384
▁לאחר	-385
▁אך	-386
לט	-387
▁פי	-388
כי	-389
an	-390
).	-391
▁S	-392
צים	-393
▁לעשות	-394
▁מד	-395
ורי	-396
ברה	-397
חים	-398
▁עוד	-399
▁צריך	-400
▁בני	-401
ילים	-402
מר	-403
קום	-404
▁אנו	-405
מיד	-406
שב	-407
▁שהוא	-408
לך	-409
▁3	-410
סים	-411
נק	-412
▁לכ	-413
ירים	-414
▁בו	-415
▁דבר	-416
▁כבר	-417
כון	-418
צות	-419
ניה	-420
של	-421
▁יוד	-422
▁עו	-423
סק	-424
▁שב	-425
חו	-426
▁לצ	-427
▁איך	-428
▁הכל	-429
▁ולא	-430
פים	-431
▁אמר	-432
דרך	-433
▁האח	-434
▁הבי	-435
▁הרבה	-436
בודה	-437
ינו	-438
רט	-439
▁כאשר	-440
▁מג	-441
▁בצ	-442
▁שלא	-443
▁ישראל	-444
▁A	-445
יע	-446
▁אינ	-447
▁בט	-448
▁המח	-449
▁שלהם	-450
▁חיי	-451
▁C	-452
קות	-453
▁אשר	-454
▁הסי	-455
▁אלה	-456
אל	-457
▁מז	-458
▁שני	-459
▁בנו	-460
▁נית	-461
▁אתם	-462
▁גדול	-463
▁באופן	-464
▁201	-465
ונה	-466
פשר	-467
נד	-468
סה	-469
ורת	-470
▁אלי	-471
▁שם	-472
▁אלו	-473
▁חלק	-474
סת	-475
שית	-476
▁היום	-477
נשים	-478
▁במה	-479
צר	-480
▁רוצה	-481
שון	-482
▁שנים	-483
▁אדם	-484
▁השי	-485
▁יל	-486
▁מר	-487
צע	-488
ווה	-489
גר	-490
וכל	-491
▁אחר	-492
▁אחת	-493
."	-494
ומי	-495
▁בד	-496
▁וי	-497
▁אחרי	-498
▁T	-499
ריק	-500
ילות	-501
בא	-502
ברת	-503
ar	-504
▁M	-505
▁שלה	-506
▁שבו	-507
ורך	-508
שיו	-509
מית	-510
or	-511
▁כול	-512
צת	-513
פו	-514
en	-515
פט	-516
▁למע	-517
▁זמן	-518
▁שת	-519
▁העולם	-520
▁נע	-521
▁'	-522
▁תק	-523
ולים	-524
פל	-525
▁לכל	-526
מד	-527
בד	-528
מוש	-529
▁לרא	-530
al	-531
▁יכולים	-532
קד	-533
▁כש	-534
▁להי	-535
חיל	-536
ברי	-537
▁להם	-538
es	-539
▁טי	-540
▁כן	-541
at	-542
גע	-543
▁הרו	-544
יצ	-545
סטי	-546
▁עדי	-547
מא	-548
כנ	-549
▁P	-550
▁הייתה	-551
צוע	-552
▁נת	-553
▁“	-554
וות	-555
▁ות	-556
▁אפשר	-557
-2	-558
▁אותם	-559
▁יום	-560
▁וכ	-561
▁תה	-562
▁במש	-563
הים	-564
▁יהיה	-565
▁בית	-566
ורות	-567
▁המק	-568
▁במי	-569
▁המע	-570
גה	-571
כשיו	-572
▁מט	-573
▁ולה	-574
צל	-575
תר	-576
▁שיש	-577
צב	-578
▁חוש	-579
▁בז	-580
ינ	-581
ומים	-582
▁4	-583
▁שאני	-584
▁קט	-585
▁בדי	-586
▁פעם	-587
▁המת	-588
▁אחרים	-589
▁ממש	-590
גים	-591
רכת	-592
▁שלכם	-593
▁לס	-594
לית	-595
▁הנו	-596
▁ניתן	-597
זו	-598
▁כת	-599
▁כאן	-600
▁הראשו	-601
ומה	-602
טח	-603
▁וח	-604
תיים	-605
▁תמיד	-606
▁בשנת	-607
פש	-608
ודה	-609
וריה	-610
▁5	-611
▁הל	-612
רוב	-613
וחות	-614
▁למה	-615
▁שהם	-616
▁B	-617
▁ספ	-618
▁חשוב	-619
▁אף	-620
▁לל	-621
גד	-622
▁רבים	-623
▁להפ	-624
ופה	-625
▁מספר	-626
רק	-627
רכז	-628
תם	-629
▁ואת	-630
▁אותה	-631
▁שנה	-632
▁קי	-633
he	-634
רץ	-635
▁יע	-636
אני	-637
דינה	-638
פול	-639
▁יצ	-640
עם	-641
מין	-642
אן	-643
רום	-644
גם	-645
ובה	-646
▁שכ	-647
▁בעולם	-648
▁אלא	-649
▁בל	-650
חס	-651
▁משהו	-652
▁ברי	-653
▁חז	-654
שוט	-655
▁משת	-656
▁מספ	-657
▁מוצ	-658
▁נמצ	-659
▁שק	-660
▁באמצ	-661
▁מילי	-662
▁נה	-663
ניין	-664
▁האמ	-665
▁הגדול	-666
▁ללא	-667
ונות	-668
▁וש	-669
▁עוב	-670
ולוג	-671
▁עדיין	-672
נחנו	-673
ער	-674
אם	-675
רונות	-676
וץ	-677
),	-678
צד	-679
▁נש	-680
▁תח	-681
▁לכם	-682
ic	-683
ציה	-684
▁המי	-685
וסי	-686
לם	-687
▁נק	-688
▁200	-689
▁דרך	-690
▁הצי	-691
▁צי	-692
בוה	-693
▁עכשיו	-694
לל	-695
מעות	-696
קת	-697
▁D	-698
▁אר	-699
▁אומר	-700
▁לר	-701
ירת	-702
▁לראות	-703
▁I	-704
ודי	-705
טו	-706
גיש	-707
▁באמת	-708
▁פת	-709
ומות	-710
▁שח	-711
כנס	-712
יהם	-713
▁הכי	-714
קש	-715
it	-716
בוע	-717
▁הראשון	-718
▁[	-719
▁W	-720
▁רי	-721
▁להשת	-722
דש	-723
וחד	-724
ביר	-725
▁במהלך	-726
▁בלי	-727
▁הן	-728
▁במק	-729
▁אפילו	-730
▁אולי	-731
▁התי	-732
▁לנ	-733
▁נפ	-734
מור	-735
▁אותי	-736
▁המס	-737
▁שאתה	-738
▁H	-739
ירו	-740
▁הזמן	-741
גל	-742
מונה	-743
▁נוספ	-744
▁כמ	-745
▁עשו	-746
▁האדם	-747
▁הדי	-748
קו	-749
▁פשוט	-750
ודים	-751
▁אוה	-752
ודות	-753
שראל	-754
דור	-755
▁חיים	-756
▁שזה	-757
▁הספר	-758
▁עצמ	-759
▁בבית	-760
▁גר	-761
▁כשה	-762
▁השני	-763
ברית	-764
▁בדרך	-765
▁החיים	-766
▁הול	-767
צור	-768
וה	-769
עד	-770
ולות	-771
ברות	-772
תח	-773
st	-774
צמ	-775
▁באמצעות	-776
▁להב	-777
▁L	-778
צח	-779
▁היל	-780
▁G	-781
▁תע	-782
פע	-783
▁אה	-784
▁מוכ	-785
▁ונ	-786
▁יודע	-787
le	-788
▁לקבל	-789
▁נח	-790
▁לט	-791
▁המא	-792
▁חוק	-793
▁הלי	-794
▁משפ	-795
גות	-796
▁מקום	-797
מעט	-798
ליה	-799
▁מצי	-800
ריות	-801
ווי	-802
▁היתה	-803
▁אומ	-804
טרה	-805
גש	-806
פון	-807
ופי	-808
▁R	-809
ou	-810
▁אינו	-811
ביל	-812
ריך	-813
▁ית	-814
▁תוכ	-815
חז	-816
▁רח	-817
▁תפ	-818
▁חש	-819
▁.	-820
▁6	-821
▁רוצים	-822
בח	-823
▁מאז	-824
▁שהיא	-825
▁שוב	-826
ותו	-827
▁דברים	-828
▁כלל	-829
re	-830
ליים	-831
▁מלא	-832
בט	-833
רוש	-834
בק	-835
▁F	-836
▁נראה	-837
כר	-838
דעת	-839
▁קשה	-840
רכים	-841
▁הרי	-842
נם	-843
▁צריכים	-844
ואה	-845
מל	-846
▁בסי	-847
גו	-848
▁הראשונה	-849
יס	-850
▁לז	-851
000	-852
▁מן	-853
צו	-854
טרנט	-855
▁הייתי	-856
▁E	-857
נוי	-858
▁כיצד	-859
▁מוד	-860
▁התק	-861
▁הופ	-862
שיך	-863
▁במקום	-864
זרח	-865
▁יכולה	-866
עו	-867
ובן	-868
▁ארו	-869
om	-870
ליך	-871
▁האלה	-872
קט	-873
▁החל	-874
▁בן	-875
סטר	-876
▁לפי	-877
▁מל	-878
חל	-879
פא	-880
▁במשך	-881
▁חדש	-882
קל	-883
▁התע	-884
טת	-885
▁גבוה	-886
נלא	-887
▁השת	-888
▁אלוהים	-889
ברו	-890
▁שבה	-891
▁רג	-892
▁פחות	-893
ודש	-894
▁גי	-895
▁למצ	-896
▁ילדים	-897
▁כמעט	-898
▁כפי	-899
▁יד	-900
לסטי	-901
גת	-902
רכי	-903
▁החברה	-904
▁קור	-905
?"	-906
יח	-907
▁מיי	-908
טית	-909
▁להע	-910
▁נגד	-911
▁משמעות	-912
▁איש	-913
▁מסוג	-914
▁בתח	-915
▁בלב	-916
שאר	-917
▁ספר	-918
יקר	-919
▁יוצ	-920
וקר	-921
▁גור	-922
▁נא	-923
▁הפר	-924
נון	-925
ואר	-926
▁תש	-927
▁לפע	-928
▁אית	-929
▁מכל	-930
▁שתי	-931
▁רוב	-932
▁אירו	-933
▁מנה	-934
ריים	-935
▁t	-936
▁הדבר	-937
יד	-938
ביב	-939
is	-940
▁N	-941
ומית	-942
▁מוש	-943
▁ההת	-944
▁להג	-945
נוע	-946
וקים	-947
▁מהם	-948
נן	-949
שם	-950
▁מידע	-951
בית	-952
▁פני	-953
סו	-954
▁7	-955
▁אור	-956
מפ	-957
-19	-958
ומת	-959
לחמה	-960
▁הלא	-961
▁עצמו	-962
▁דול	-963
▁סט	-964
מס	-965
ion	-966
מון	-967
הי	-968
▁הגי	-969
▁הזו	-970
▁קרו	-971
מנות	-972
וסט	-973
▁עושה	-974
חור	-975
יקה	-976
גור	-977
▁קוד	-978
▁בתוך	-979
קס	-980
▁למי	-981
▁לכן	-982
▁צע	-983
▁פרו	-984
▁אותך	-985
▁מיליון	-986
ריה	-987
▁הברית	-988
▁המדינה	-989
▁בהת	-990
▁10	-991
▁להש	-992
▁קבו	-993
▁נכון	-994
זר	-995
▁עבודה	-996
▁שום	-997
▁רב	-998
el	-999
▁רבות	-1000
וצאות	-1001
▁יח	-1002
▁8	-1003
נטי	-1004
מנים	-1005
שימה	-1006
ro	-1007
▁בדיוק	-1008
▁במח	-1009
▁הטוב	-1010
▁למצוא	-1011
▁אד	-1012
ריקה	-1013
בול	-1014
▁מוע	-1015
ing	-1016
רגע	-1017
נסי	-1018
ברסי	-1019
▁ידע	-1020
▁שונים	-1021
▁למרות	-1022
תיד	-1023
▁בלתי	-1024
קור	-1025
▁ביום	-1026
▁לדעת	-1027
▁הני	-1028
▁בזמן	-1029
▁כולם	-1030
▁O	-1031
ביא	-1032
▁לגבי	-1033
סם	-1034
שיא	-1035
▁כה	-1036
▁בגלל	-1037
▁אחרת	-1038
▁בעלי	-1039
טות	-1040
▁וזה	-1041
ליות	-1042
▁מתוך	-1043
▁עשר	-1044
▁רע	-1045
▁הממש	-1046
▁חל	-1047
▁כולל	-1048
▁ואני	-1049
▁וגם	-1050
et	-1051
רגון	-1052
▁במיוחד	-1053
תו	-1054
▁במו	-1055
▁הזאת	-1056
ולוגיה	-1057
וצאה	-1058
וון	-1059
▁להשתמש	-1060
פתח	-1061
▁לכך	-1062
וחר	-1063
▁שש	-1064
,000	-1065
▁סוג	-1066
מח	-1067
▁לשי	-1068
▁מתח	-1069
▁והוא	-1070
▁השנה	-1071
▁תהיה	-1072
▁ברח	-1073
▁רצ	-1074
כויות	-1075
▁העיר	-1076
of	-1077
▁יודעים	-1078
▁תא	-1079
▁למש	-1080
דובר	-1081
למי	-1082
▁בטוח	-1083
▁להכ	-1084
▁בצורה	-1085
▁העבודה	-1086
▁היש	-1087
רבות	-1088
▁להצ	-1089
▁מתי	-1090
רונה	-1091
▁חושב	-1092
▁קצת	-1093
▁במע	-1094
▁היחי	-1095
מק	-1096
▁עי	-1097
שיים	-1098
▁הספ	-1099
▁יחד	-1100
סיה	-1101
זי	-1102
▁כזה	-1103
▁מוס	-1104
ואי	-1105
ac	-1106
על	-1107
מיים	-1108
▁הגיע	-1109
▁חס	-1110
סטוריה	-1111
▁לסי	-1112
ניי	-1113
▁בהם	-1114
▁מספיק	-1115
▁,	-1116
▁קיי	-1117
il	-1118
▁מנת	-1119
▁קל	-1120
וגי	-1121
▁מוז	-1122
▁לפחות	-1123
אלה	-1124
▁הנה	-1125
▁אש	-1126
כור	-1127
דינות	-1128
לוט	-1129
▁באי	-1130
▁הברי	-1131
עור	-1132
▁שהת	-1133
מנ	-1134
▁בנ	-1135
▁מאשר	-1136
ותה	-1137
▁חברת	-1138
וקה	-1139
▁האמריק	-1140
▁שירות	-1141
ורק	-1142
▁הדברים	-1143
וכלו	-1144
דל	-1145
▁ומה	-1146
▁ההי	-1147
משים	-1148
▁בשביל	-1149
כונה	-1150
▁התח	-1151
כב	-1152
ראי	-1153
▁שאנחנו	-1154
ol	-1155
▁דולר	-1156
▁טובה	-1157
▁כיום	-1158
ed	-1159
▁מבו	-1160
▁בשי	-1161
פחה	-1162
▁מדוע	-1163
מנו	-1164
▁מערכת	-1165
משך	-1166
משיך	-1167
▁ופ	-1168
▁18	-1169
▁ליי	-1170
▁עליו	-1171
▁הטי	-1172
▁דו	-1173
▁הפע	-1174
▁תוך	-1175
וליטי	-1176
▁החד	-1177
▁אותנו	-1178
▁להגיע	-1179
▁שר	-1180
מוך	-1181
▁עומ	-1182
▁בלבד	-1183
▁הדרך	-1184
▁שעות	-1185
ורג	-1186
▁להבין	-1187
ליח	-1188
גרים	-1189
▁9	-1190
ולד	-1191
▁בישראל	-1192
▁נשים	-1193
סור	-1194
ודשים	-1195
ציא	-1196
טחון	-1197
▁המט	-1198
▁ימים	-1199
▁האירו	-1200
▁לזה	-1201
קיד	-1202
▁חופ	-1203
▁שאתם	-1204
▁...	-1205
כתב	-1206
am	-1207
▁20	-1208
▁אוכל	-1209
▁מישהו	-1210
▁החוק	-1211
▁אינם	-1212
▁הבית	-1213
ובות	-1214
▁קר	-1215
▁כסף	-1216
מינים	-1217
▁הו	-1218
▁הבע	-1219
▁נמצא	-1220
▁יק	-1221
זרה	-1222
שרד	-1223
▁מוג	-1224
▁מסוי	-1225
טל	-1226
▁ואז	-1227
נסה	-1228
תים	-1229
▁מנ	-1230
▁קשר	-1231
▁ראש	-1232
▁אחרות	-1233
▁מכן	-1234
סון	-1235
רכות	-1236
▁טבע	-1237
▁תג	-1238
▁הוד	-1239
גיד	-1240
▁בתי	-1241
▁הור	-1242
▁מתק	-1243
oo	-1244
רגיה	-1245
▁ומת	-1246
▁עושים	-1247
▁במס	-1248
▁מור	-1249
▁שלוש	-1250
ווח	-1251
רפת	-1252
▁אינה	-1253
▁והת	-1254
▁זהו	-1255
▁בנוסף	-1256
▁תכ	-1257
▁בעוד	-1258
▁כמובן	-1259
▁מקבל	-1260
ch	-1261
מבר	-1262
▁הללו	-1263
▁למעשה	-1264
▁לקחת	-1265
as	-1266
שובה	-1267
זק	-1268
▁לתת	-1269
▁הבא	-1270
▁ללמוד	-1271
קב	-1272
אב	-1273
זון	-1274
ספק	-1275
זם	-1276
▁הרג	-1277
▁הארץ	-1278
▁לעולם	-1279
▁מזה	-1280
and	-1281
▁כנ	-1282
▁להר	-1283
▁בקר	-1284
19	-1285
▁פרי	-1286
▁קרי	-1287
▁לעבוד	-1288
▁העוב	-1289
▁ברו	-1290
סקים	-1291
מונות	-1292
▁לדבר	-1293
▁בשל	-1294
זיה	-1295
▁מבי	-1296
▁שימוש	-1297
▁מגי	-1298
▁מרו	-1299
▁שהיה	-1300
▁הממשלה	-1301
רבית	-1302
יוון	-1303
▁הכול	-1304
▁האנשים	-1305
רד	-1306
▁למו	-1307
ושר	-1308
ופו	-1309
▁להס	-1310
-3	-1311
▁יי	-1312
▁המכ	-1313
▁אופ	-1314
▁סוף	-1315
▁ועל	-1316
ומיים	-1317
▁וק	-1318
גון	-1319
▁המוצ	-1320
▁נוסף	-1321
ראש	-1322
שור	-1323
▁תי	-1324
נתי	-1325
▁נות	-1326
ליט	-1327
▁of	-1328
רטי	-1329
יתוח	-1330
▁לעזור	-1331
▁/	-1332
ילדים	-1333
▁מול	-1334
▁אפש	-1335
▁פעמים	-1336
▁קול	-1337
▁תחת	-1338
'.	-1339
▁מעל	-1340
▁The	-1341
▁מהמ	-1342
▁פור	-1343
▁פה	-1344
▁האנו	-1345
וניברסי	-1346
▁האינ	-1347
▁רש	-1348
▁החי	-1349
▁אולם	-1350
הול	-1351
▁בעצ	-1352
▁לומר	-1353
▁הלב	-1354
סות	-1355
▁מסת	-1356
▁חייב	-1357
שיג	-1358
▁וס	-1359
ודית	-1360
▁השלי	-1361
▁בעיקר	-1362
סיק	-1363
▁ומש	-1364
▁גדולה	-1365
▁קודם	-1366
▁מוק	-1367
שבון	-1368
סיון	-1369
▁השנים	-1370
▁המשפט	-1371
▁מדובר	-1372
רוא	-1373
▁דקות	-1374
0.	-1375
▁אצל	-1376
▁כוח	-1377
נטים	-1378
בן	-1379
▁המה	-1380
▁לבד	-1381
▁האחרון	-1382
▁הילדים	-1383
וסר	-1384
רמ	-1385
ent	-1386
רכה	-1387
▁15	-1388
▁מומ	-1389
▁ליצור	-1390
▁וד	-1391
▁יהיו	-1392
▁בעי	-1393
▁רואה	-1394
חלט	-1395
▁תת	-1396
צרים	-1397
▁חבר	-1398
בלו	-1399
מוק	-1400
טב	-1401
ad	-1402
נהל	-1403
▁199	-1404
ופת	-1405
גרת	-1406
▁מחדש	-1407
▁לצי	-1408
▁שנות	-1409
שונה	-1410
▁ברור	-1411
ay	-1412
▁פעולה	-1413
ופים	-1414
טיים	-1415
גישה	-1416
▁מקצוע	-1417
▁לפת	-1418
▁בכלל	-1419
וביל	-1420
▁אזרח	-1421
▁שכל	-1422
▁כד	-1423
▁?	-1424
▁מעט	-1425
רושלים	-1426
▁צריכה	-1427
▁בפני	-1428
▁קרובות	-1429
▁זק	-1430
▁שמע	-1431
קטי	-1432
כונות	-1433
כלה	-1434
▁שנת	-1435
כס	-1436
ביע	-1437
יך	-1438
ריט	-1439
שרה	-1440
נא	-1441
סל	-1442
▁נוספים	-1443
▁כח	-1444
▁חדשים	-1445
▁הציבור	-1446
▁ככל	-1447
סוף	-1448
▁בכך	-1449
▁בתחום	-1450
▁ויש	-1451
▁גיל	-1452
▁למשל	-1453
▁הפלסטי	-1454
▁הסרט	-1455
▁סרט	-1456
▁הגוף	-1457
כח	-1458
▁לבית	-1459
חרות	-1460
רפ	-1461
▁חודשים	-1462
שק	-1463
▁ארה	-1464
נויים	-1465
▁שאין	-1466
כך	-1467
▁שצ	-1468
דיו	-1469
▁מרכז	-1470
▁אוהב	-1471
טיח	-1472
▁איזה	-1473
▁זוכ	-1474
▁כאלה	-1475
▁צורך	-1476
▁שמו	-1477
▁מדינות	-1478
▁שונות	-1479
▁12	-1480
דרה	-1481
▁כעת	-1482
▁רפ	-1483
ow	-1484
▁V	-1485
▁הקט	-1486
▁שלושה	-1487
בלת	-1488
וגמה	-1489
מיכה	-1490
ובת	-1491
▁למח	-1492
תיי	-1493
iv	-1494
דמנות	-1495
ig	-1496
▁והא	-1497
▁באתר	-1498
▁רוח	-1499
▁ברחבי	-1500
▁הבינלא	-1501
מרי	-1502
▁החדש	-1503
בנה	-1504
▁תרו	-1505
▁מבחי	-1506
▁מים	-1507
▁U	-1508
▁וג	-1509
וסיף	-1510
דק	-1511
”.	-1512
▁באותו	-1513
מוקר	-1514
▁האד	-1515
▁שפ	-1516
▁וכל	-1517
▁מחקר	-1518
▁קורה	-1519
▁בעל	-1520
זל	-1521
עיון	-1522
▁עמ	-1523
▁שמת	-1524
▁משום	-1525
▁קטן	-1526
▁המל	-1527
▁המוד	-1528
ייס	-1529
ot	-1530
שיר	-1531
ביבה	-1532
▁ללכת	-1533
▁ביט	-1534
לווי	-1535
ונג	-1536
▁כגון	-1537
ופר	-1538
ראו	-1539
ציות	-1540
▁חדשה	-1541
▁לאורך	-1542
בוצה	-1543
▁מסי	-1544
וחים	-1545
▁מדע	-1546
▁שונה	-1547
▁לעתים	-1548
▁שומ	-1549
▁המוע	-1550
גן	-1551
▁האמת	-1552
▁מפני	-1553
טרו	-1554
לחמת	-1555
▁אחוז	-1556
טור	-1557
רבה	-1558
▁מוח	-1559
▁מו	-1560
▁בשנה	-1561
למידים	-1562
▁התא	-1563
▁השפ	-1564
▁ידוע	-1565
וכן	-1566
ווים	-1567
ואו	-1568
▁עובד	-1569
id	-1570
▁ובע	-1571
נסות	-1572
בלתי	-1573
▁מטר	-1574
▁לשמור	-1575
▁עצמי	-1576
קרים	-1577
▁איר	-1578
אלי	-1579
ודת	-1580
▁הבח	-1581
▁מצב	-1582
▁בתק	-1583
וכנית	-1584
רויות	-1585
▁ולכן	-1586
▁פרס	-1587
ועל	-1588
▁שהי	-1589
וויר	-1590
▁לאח	-1591
▁והמ	-1592
▁תלו	-1593
טון	-1594
us	-1595
חקים	-1596
דיה	-1597
כולם	-1598
▁לפעמים	-1599
▁ומע	-1600
▁עסק	-1601
בוש	-1602
▁משחק	-1603
▁להשיג	-1604
▁לכת	-1605
▁להפוך	-1606
▁לקרוא	-1607
▁טר	-1608
▁לתק	-1609
▁כדור	-1610
▁מעור	-1611
קבות	-1612
▁נור	-1613
▁ממנו	-1614
▁בפר	-1615
▁מכו	-1616
▁תנו	-1617
בוק	-1618
בלה	-1619
ציאות	-1620
▁גל	-1621
▁לאי	-1622
▁ארצות	-1623
50	-1624
▁:	-1625
▁יית	-1626
▁לשנות	-1627
▁כשא	-1628
לוטין	-1629
▁שאלה	-1630
נר	-1631
▁להא	-1632
▁לחלוטין	-1633
רכו	-1634
אתה	-1635
▁ילד	-1636
פס	-1637
▁the	-1638
▁הטבע	-1639
כנולוגיה	-1640
▁לבין	-1641
▁נכנס	-1642
▁ביק	-1643
▁ספק	-1644
▁לעצ	-1645
כולת	-1646
▁לבצע	-1647
▁באזור	-1648
▁קלי	-1649
▁חברות	-1650
▁לחשוב	-1651
בתי	-1652
ation	-1653
▁עבוד	-1654
▁שיה	-1655
לוהים	-1656
▁ומו	-1657
▁טובים	-1658
▁מאפשר	-1659
▁אמרה	-1660
רבי	-1661
▁שאנו	-1662
▁עובדים	-1663
▁לוק	-1664
▁מקור	-1665
▁כנראה	-1666
פרי	-1667
▁בספ	-1668
טיות	-1669
מצא	-1670
ראות	-1671
דון	-1672
▁המשחק	-1673
דיר	-1674
▁בחיים	-1675
▁מני	-1676
▁מעבר	-1677
▁לחיות	-1678
פן	-1679
▁הרכ	-1680
יכ	-1681
▁האל	-1682
ag	-1683
וסים	-1684
▁הקה	-1685
▁המרכז	-1686
▁פעילות	-1687
פתחות	-1688
דן	-1689
▁באר	-1690
▁שנו	-1691
▁הולך	-1692
▁בשם	-1693
▁בידי	-1694
▁In	-1695
בש	-1696
▁בסוף	-1697
▁שאינ	-1698
▁לרו	-1699
▁מאד	-1700
▁זכויות	-1701
מודד	-1702
▁במקרה	-1703
▁מגיע	-1704
▁בגיל	-1705
פוש	-1706
נאי	-1707
▁שיי	-1708
מיות	-1709
▁אתכם	-1710
ידי	-1711
▁בעבר	-1712
חילת	-1713
▁להח	-1714
▁מהר	-1715
▁אב	-1716
▁סיפור	-1717
ליון	-1718
▁דור	-1719
▁המשת	-1720
ut	-1721
יקט	-1722
▁השל	-1723
שרת	-1724
▁להצי	-1725
▁השנייה	-1726
ניק	-1727
▁עשוי	-1728
פק	-1729
▁לבי	-1730
▁מאח	-1731
▁החלט	-1732
▁כאילו	-1733
יג	-1734
ראת	-1735
תף	-1736
ur	-1737
▁ומי	-1738
▁שינוי	-1739
▁רואים	-1740
דבר	-1741
הליך	-1742
דרת	-1743
▁חוז	-1744
ילת	-1745
▁והיא	-1746
▁נג	-1747
מודים	-1748
▁המשפחה	-1749
▁האחרונות	-1750
ובי	-1751
יתים	-1752
ארד	-1753
▁מסו	-1754
▁משנה	-1755
אית	-1756
▁תיא	-1757
▁המצב	-1758
▁בעיות	-1759
▁בעיר	-1760
בעים	-1761
נח	-1762
זרת	-1763
▁לטי	-1764
▁J	-1765
▁אג	-1766
▁ובי	-1767
▁רבה	-1768
0%	-1769
▁גבוהה	-1770
▁כלי	-1771
נויות	-1772
▁אליו	-1773
קול	-1774
נאים	-1775
לוויזיה	-1776
-4	-1777
▁שית	-1778
שע	-1779
יצוב	-1780
▁הקוד	-1781
▁תודה	-1782
▁טיפול	-1783
▁דא	-1784
▁איפה	-1785
נתונים	-1786
▁עלינו	-1787
ומרים	-1788
▁מופ	-1789
סס	-1790
▁תוכנית	-1791
שלום	-1792
▁נס	-1793
שרים	-1794
▁אמריק	-1795
▁הילד	-1796
▁המידע	-1797
▁השאלה	-1798
סר	-1799
▁נוספת	-1800
▁מעולם	-1801
▁אומרים	-1802
שורים	-1803
▁מבין	-1804
▁כלומר	-1805
אמ	-1806
▁יורק	-1807
▁להסת	-1808
',	-1809
▁ואם	-1810
▁והם	-1811
כיר	-1812
▁מיוח	-1813
▁בינלא	-1814
▁אבי	-1815
▁אנג	-1816
ir	-1817
▁11	-1818
▁חדשות	-1819
לול	-1820
▁להתחיל	-1821
חן	-1822
▁בקרב	-1823
כני	-1824
ראים	-1825
פיע	-1826
▁תר	-1827
▁אוב	-1828
▁המצ	-1829
▁לחזור	-1830
טרי	-1831
▁להתק	-1832
▁עצמה	-1833
ינטרנט	-1834
▁בעת	-1835
▁St	-1836
ניהם	-1837
▁מצד	-1838
נגד	-1839
▁עצמם	-1840
▁עליהם	-1841
▁הפעם	-1842
▁הישרא	-1843
זאת	-1844
▁לעצמ	-1845
▁שבוע	-1846
▁הגדולה	-1847
וצה	-1848
מתי	-1849
▁בעיה	-1850
▁יהודים	-1851
!!	-1852
נתה	-1853
▁ור	-1854
▁סביב	-1855
▁תצ	-1856
▁להק	-1857
▁בנושא	-1858
▁בריאות	-1859
▁העיק	-1860
לין	-1861
נגלית	-1862
▁דומה	-1863
▁חייבים	-1864
▁שמש	-1865
סית	-1866
▁כלפי	-1867
▁אומרת	-1868
▁חברים	-1869
יינו	-1870
סטרט	-1871
▁לגרום	-1872
▁קו	-1873
רוג	-1874
▁מדינה	-1875
שפ	-1876
מנה	-1877
כלי	-1878
▁משתמשים	-1879
▁מחש	-1880
▁עוז	-1881
▁שאי	-1882
▁המחקר	-1883
▁להמשיך	-1884
▁מות	-1885
▁קרה	-1886
▁באותה	-1887
▁מאוחר	-1888
רוק	-1889
בריו	-1890
▁שנית	-1891
▁הבעיה	-1892
▁התפ	-1893
▁מנו	-1894
ter	-1895
לפון	-1896
מול	-1897
בלות	-1898
▁מיד	-1899
▁חשי	-1900
▁וכן	-1901
▁למען	-1902
▁לבחור	-1903
לקוחות	-1904
▁בסופו	-1905
▁מרגיש	-1906
▁הצע	-1907
▁הרח	-1908
▁מהא	-1909
ומו	-1910
ודנטים	-1911
▁באירו	-1912
▁K	-1913
▁שג	-1914
▁מוב	-1915
▁מחוץ	-1916
▁עליה	-1917
▁אהבה	-1918
im	-1919
פורים	-1920
▁נב	-1921
▁שחק	-1922
▁ועוד	-1923
▁בארה	-1924
▁העול	-1925
▁לתוך	-1926
▁העי	-1927
▁שמי	-1928
▁ככה	-1929
▁שהמ	-1930
▁שול	-1931
▁ציבור	-1932
▁בעקבות	-1933
▁המקום	-1934
פוי	-1935
▁מאת	-1936
ולוגי	-1937
מוע	-1938
▁בהתאם	-1939
▁(2	-1940
▁הצד	-1941
▁s	-1942
▁יפה	-1943
un	-1944
אנחנו	-1945
▁העצ	-1946
▁בסדר	-1947
מיה	-1948
▁הרפ	-1949
▁התג	-1950
▁נתונים	-1951
um	-1952
▁משי	-1953
▁p	-1954
מלי	-1955
▁שוא	-1956
ושבים	-1957
רחק	-1958
▁חול	-1959
▁תוכלו	-1960
ליק	-1961
▁וכי	-1962
-201	-1963
▁בלו	-1964
קשורת	-1965
▁לשחק	-1966
▁עולם	-1967
▁מאות	-1968
▁לגמרי	-1969
וקא	-1970
ופות	-1971
ec	-1972
▁בזה	-1973
▁הפרו	-1974
טא	-1975
▁f	-1976
▁30	-1977
רבעה	-1978
שום	-1979
▁כתב	-1980
▁גברים	-1981
▁הסיבה	-1982
מך	-1983
▁לאנשים	-1984
גוד	-1985
צית	-1986
ריז	-1987
▁ואי	-1988
נהגות	-1989
זע	-1990
▁טע	-1991
▁טרא	-1992
▁רכ	-1993
בורה	-1994
שאים	-1995
▁ולע	-1996
▁לעומת	-1997
הוב	-1998
זיק	-1999
▁שבע	-2000
▁אותן	-2001
פוס	-2002
▁בארץ	-2003
▁קיים	-2004
יב	-2005
ופול	-2006
ובל	-2007
▁אכ	-2008
▁העם	-2009
▁החדשה	-2010
▁תהליך	-2011
מנע	-2012
▁והע	-2013
▁אנשי	-2014
רחב	-2015
וחה	-2016
שוא	-2017
▁אס	-2018
▁מהת	-2019
וצר	-2020
▁חשב	-2021
זב	-2022
▁קצר	-2023
▁שהא	-2024
▁ייתכן	-2025
▁פל	-2026
▁טוע	-2027
▁פול	-2028
▁שמח	-2029
▁ראשון	-2030
▁האינטרנט	-2031
▁17	-2032
▁והח	-2033
▁יחי	-2034
▁נשא	-2035
▁שות	-2036
▁הית	-2037
▁נסי	-2038
!"	-2039
נוק	-2040
,"	-2041
▁הפי	-2042
▁נוס	-2043
▁היית	-2044
▁האחרונה	-2045
▁חת	-2046
▁חמי	-2047
▁היינו	-2048
▁נמצאים	-2049
▁הרוח	-2050
▁הוכ	-2051
▁לספק	-2052
▁שוק	-2053
▁13	-2054
▁משא	-2055
▁יא	-2056
▁אתר	-2057
▁כע	-2058
▁איכות	-2059
▁מתחיל	-2060
▁c	-2061
רוע	-2062
▁כדאי	-2063
צלחה	-2064
▁לצאת	-2065
▁מהי	-2066
▁*	-2067
כום	-2068
▁לשם	-2069
▁המוז	-2070
▁העסק	-2071
▁בהחלט	-2072
כוי	-2073
רחש	-2074
▁המלחמה	-2075
נדר	-2076
▁16	-2077
▁קה	-2078
פשרות	-2079
▁d	-2080
▁שיע	-2081
▁ערך	-2082
▁רגע	-2083
▁עור	-2084
▁להביא	-2085
▁למנוע	-2086
▁שיכול	-2087
יונות	-2088
פורט	-2089
הת	-2090
▁נעשה	-2091
▁להתמודד	-2092
▁משפחת	-2093
em	-2094
▁194	-2095
▁ארג	-2096
▁והש	-2097
נרגיה	-2098
▁בסיס	-2099
פני	-2100
קשה	-2101
▁יב	-2102
ריון	-2103
▁ועד	-2104
▁שט	-2105
כנית	-2106
▁וצ	-2107
▁יס	-2108
▁אלף	-2109
▁Y	-2110
▁המאה	-2111
▁ממה	-2112
סקה	-2113
▁זוהי	-2114
▁שלום	-2115
▁השימוש	-2116
▁האתר	-2117
.[	-2118
רוס	-2119
▁להגיד	-2120
▁היהודים	-2121
▁הבאה	-2122
▁ישנם	-2123
▁כוחות	-2124
▁והפ	-2125
▁מנסה	-2126
▁לאכול	-2127
20	-2128
▁רצי	-2129
▁עק	-2130
▁בטי	-2131
ינוך	-2132
▁כמות	-2133
▁הבריאות	-2134
▁הצל	-2135
ילד	-2136
▁ברא	-2137
▁עליך	-2138
▁תוכל	-2139
כלית	-2140
▁היטב	-2141
oc	-2142
רש	-2143
נסים	-2144
▁שנע	-2145
▁שבי	-2146
וטנ	-2147
מני	-2148
▁הרצ	-2149
1.	-2150
].	-2151
חוד	-2152
▁ארגון	-2153
וציא	-2154
יאון	-2155
▁הפת	-2156
▁פלסטי	-2157
▁בשנים	-2158
▁אישי	-2159
▁יודעת	-2160
▁עניין	-2161
▁198	-2162
▁המג	-2163
▁באינטרנט	-2164
▁הלו	-2165
▁מכך	-2166
▁חברה	-2167
אום	-2168
ציב	-2169
פיים	-2170
▁ישרא	-2171
מוצע	-2172
▁הקי	-2173
▁יכולות	-2174
חתי	-2175
▁המוח	-2176
▁מתחת	-2177
ודל	-2178
רוך	-2179
▁עשה	-2180
os	-2181
▁•	-2182
▁זכ	-2183
▁צבא	-2184
▁14	-2185
▁וט	-2186
▁מהע	-2187
אנו	-2188
הבה	-2189
▁מזון	-2190
▁ממשלת	-2191
אק	-2192
וספ	-2193
זים	-2194
מניה	-2195
▁לשא	-2196
▁בינו	-2197
ers	-2198
▁קרא	-2199
▁ברגע	-2200
▁המוש	-2201
▁and	-2202
▁אוט	-2203
▁משפחה	-2204
▁עסקים	-2205
▁חושבים	-2206
בלים	-2207
ינים	-2208
לקטרו	-2209
▁מתכו	-2210
▁משתמש	-2211
▁שאלות	-2212
▁עמו	-2213
▁כולנו	-2214
▁לקנות	-2215
ra	-2216
זית	-2217
שויות	-2218
▁משות	-2219
▁השבוע	-2220
▁לכתוב	-2221
▁בקי	-2222
▁הנשיא	-2223
ורית	-2224
▁מדה	-2225
▁סוכ	-2226
▁הביתה	-2227
▁מלחמת	-2228
▁אמא	-2229
▁תרבות	-2230
חרי	-2231
▁גישה	-2232
▁תוצאות	-2233
▁דעת	-2234
▁ליה	-2235
▁ארבע	-2236
▁מסוימים	-2237
ess	-2238
▁שהיו	-2239
▁הסיפור	-2240
▁ומא	-2241
▁השם	-2242
ומיות	-2243
5.	-2244
▁נד	-2245
▁היחידה	-2246
פילו	-2247
▁חמש	-2248
▁לעיתים	-2249
וויה	-2250
▁להרגיש	-2251
▁m	-2252
▁תומ	-2253
▁אכן	-2254
▁פוליטי	-2255
▁במהירות	-2256
חם	-2257
▁בחי	-2258
▁הראשונים	-2259
▁אישה	-2260
▁חוסר	-2261
▁100	-2262
▁להז	-2263
▁במצב	-2264
▁הצבא	-2265
▁רשת	-2266
צא	-2267
שיות	-2268
▁האור	-2269
▁עשויים	-2270
גישים	-2271
דיניות	-2272
▁למעלה	-2273
▁מדינת	-2274
ומן	-2275
▁המפ	-2276
▁אינט	-2277
הא	-2278
גוע	-2279
נדה	-2280
נייה	-2281
▁הגר	-2282
יצור	-2283
סטים	-2284
▁היחיד	-2285
-200	-2286
רטים	-2287
▁והי	-2288
▁ליד	-2289
▁הגבוה	-2290
גיעה	-2291
▁עבר	-2292
▁בעצם	-2293
▁בשלב	-2294
▁דרכים	-2295
▁לעבור	-2296
לתי	-2297
▁שרו	-2298
דית	-2299
▁חיו	-2300
רוץ	-2301
ניו	-2302
▁קרוב	-2303
▁הנתונים	-2304
-6	-2305
▁משל	-2306
▁האופ	-2307
▁צוות	-2308
▁אירופה	-2309
▁מכיוון	-2310
▁בשבוע	-2311
▁עש	-2312
מינו	-2313
▁השק	-2314
▁הזדמנות	-2315
שתו	-2316
▁הפך	-2317
▁תופ	-2318
▁אוהבים	-2319
גנה	-2320
שיב	-2321
▁לבנות	-2322
כא	-2323
▁חק	-2324
רבים	-2325
▁מונ	-2326
▁עולה	-2327
▁(1	-2328
▁בבי	-2329
רונים	-2330
▁למד	-2331
▁מהח	-2332
▁b	-2333
סקי	-2334
▁הקור	-2335
▁מדיניות	-2336
עיף	-2337
שתי	-2338
▁בתור	-2339
▁כרטי	-2340
▁מאמין	-2341
▁מסוגל	-2342
▁משרד	-2343
▁להיכנס	-2344
▁הרש	-2345
▁המדע	-2346
▁ביי	-2347
▁עיר	-2348
▁במדינה	-2349
▁להישאר	-2350
ab	-2351
כנה	-2352
▁סג	-2353
▁לראשונה	-2354
▁החש	-2355
▁ביחד	-2356
▁בפעם	-2357
▁מדברים	-2358
2.	-2359
דרש	-2360
שייה	-2361
▁לחץ	-2362
▁משפט	-2363
נדי	-2364
▁אצ	-2365
▁תז	-2366
▁זוג	-2367
▁לדי	-2368
כונים	-2369
▁אמית	-2370
▁מקווה	-2371
▁התעופה	-2372
▁הביטחון	-2373
חרת	-2374
טרף	-2375
ניח	-2376
▁סיבה	-2377
▁אמרתי	-2378
אמר	-2379
וקטו	-2380
ודעה	-2381
צמבר	-2382
ונית	-2383
▁ראו	-2384
טן	-2385
▁מאי	-2386
▁גורם	-2387
▁197	-2388
▁שרי	-2389
וקטובר	-2390
לנד	-2391
▁נכ	-2392
▁מחפ	-2393
▁שהע	-2394
ורף	-2395
כמה	-2396
שיית	-2397
▁המדינות	-2398
▁צפו	-2399
0,	-2400
פיות	-2401
▁ההז	-2402
▁יחס	-2403
מונים	-2404
▁אוני	-2405
▁להגן	-2406
▁גדולים	-2407
5,	-2408
דוע	-2409
▁אק	-2410
▁נושא	-2411
▁שיהיה	-2412
▁אמריקה	-2413
▁לקוחות	-2414
th	-2415
▁פסי	-2416
ושב	-2417
▁טראמפ	-2418
▁מיליארד	-2419
▁לוח	-2420
▁סיי	-2421
▁בואו	-2422
▁שמא	-2423
7.	-2424
▁ורו	-2425
▁להחז	-2426
▁קיבל	-2427
▁ניהול	-2428
▁בארצות	-2429
▁תמונות	-2430
▁ובה	-2431
סיס	-2432
▁מקרה	-2433
ניינים	-2434
▁לילדים	-2435
חסים	-2436
▁ושי	-2437
▁לרכ	-2438
▁המוס	-2439
▁הטיפול	-2440
▁ההיסטוריה	-2441
ולת	-2442
▁פוע	-2443
▁חברי	-2444
▁מוצרים	-2445
וריות	-2446
▁זכות	-2447
▁לשלם	-2448
▁קטנה	-2449
▁הסת	-2450
▁בחיי	-2451
ראית	-2452
▁נמו	-2453
▁המים	-2454
▁דווקא	-2455
ילום	-2456
▁מסוים	-2457
▁החלק	-2458
ia	-2459
חית	-2460
ליחה	-2461
▁196	-2462
▁עומד	-2463
▁ייח	-2464
▁לשל	-2465
▁שאת	-2466
▁אמיתי	-2467
▁בנוגע	-2468
▁האוכל	-2469
▁גב	-2470
▁לנסות	-2471
.”	-2472
המ	-2473
▁מבלי	-2474
▁לדוגמה	-2475
▁ניסיון	-2476
ובע	-2477
חלטה	-2478
▁לאור	-2479
▁אפשרי	-2480
-5	-2481
סום	-2482
▁דם	-2483
▁פנים	-2484
-8	-2485
ce	-2486
▁איראן	-2487
▁ויותר	-2488
▁מאחורי	-2489
למ	-2490
נתיים	-2491
▁אמרו	-2492
▁מדבר	-2493
▁w	-2494
למה	-2495
▁הטר	-2496
▁מערכות	-2497
גיה	-2498
במבר	-2499
▁העתי	-2500
▁ירושלים	-2501
ניסה	-2502
▁פלי	-2503
▁המשי	-2504
▁ובכל	-2505
▁כתוצאה	-2506
▁משמעותי	-2507
ונת	-2508
▁האש	-2509
▁ירי	-2510
▁תיק	-2511
op	-2512
▁צד	-2513
סטית	-2514
▁אבא	-2515
▁וכך	-2516
▁נחש	-2517
▁שווה	-2518
3.	-2519
ארק	-2520
▁המד	-2521
מדה	-2522
רצ	-2523
לון	-2524
סוי	-2525
▁ממשי	-2526
לץ	-2527
▁כוכ	-2528
▁הדין	-2529
▁האוויר	-2530
▁מאמינים	-2531
בצע	-2532
צרה	-2533
▁דין	-2534
▁הוק	-2535
▁תקופה	-2536
▁במסגרת	-2537
▁שבועות	-2538
טיה	-2539
▁(19	-2540
▁כות	-2541
▁הבאים	-2542
שהי	-2543
▁מיני	-2544
▁היהודי	-2545
▁הקד	-2546
▁ניצ	-2547
▁המטרה	-2548
מץ	-2549
▁חזק	-2550
▁שהח	-2551
▁אלפי	-2552
▁לשמוע	-2553
▁השירות	-2554
הוא	-2555
▁חינו	-2556
▁כללי	-2557
▁עצמך	-2558
▁עול	-2559
▁אישית	-2560
ורט	-2561
ריכה	-2562
▁איתו	-2563
▁1.	-2564
טרות	-2565
▁הטובה	-2566
ליו	-2567
▁ולק	-2568
▁הנוכ	-2569
▁ניו	-2570
▁שיל	-2571
▁אפשרות	-2572
▁נוספות	-2573
פאים	-2574
נועה	-2575
▁סין	-2576
▁רכב	-2577
▁הכסף	-2578
▁הקרו	-2579
ul	-2580
▁מצא	-2581
▁החשוב	-2582
▁יוצא	-2583
▁היכולת	-2584
5%	-2585
ri	-2586
▁—	-2587
▁כפ	-2588
▁שבהם	-2589
▁קטנים	-2590
▁לאחרונה	-2591
וניים	-2592
ולוגיות	-2593
ורד	-2594
▁כב	-2595
▁צרפת	-2596
▁אנרגיה	-2597
▁החולים	-2598
▁באירופה	-2599
ov	-2600
תחלה	-2601
▁ארבעה	-2602
▁שצריך	-2603
▁יר	-2604
▁ולי	-2605
▁מהש	-2606
▁בהי	-2607
▁מבט	-2608
▁מיל	-2609
▁אילו	-2610
▁המלא	-2611
▁בוד	-2612
▁בנק	-2613
▁אליה	-2614
▁העובדה	-2615
9.	-2616
▁לשע	-2617
▁יהודי	-2618
אט	-2619
▁ממנה	-2620
4.	-2621
מם	-2622
▁in	-2623
▁הנפ	-2624
▁כספ	-2625
▁מוכן	-2626
חושה	-2627
▁מלאה	-2628
▁נשיא	-2629
▁המערכת	-2630
סד	-2631
▁ואף	-2632
▁אודות	-2633
▁לפעול	-2634
▁להתע	-2635
▁הים	-2636
▁הנסי	-2637
▁הקרי	-2638
▁מעוני	-2639
▁קבוצה	-2640
▁גופ	-2641
▁בחודש	-2642
igh	-2643
▁שו	-2644
▁בהן	-2645
▁הנא	-2646
▁יצא	-2647
▁ראיתי	-2648
▁עב	-2649
▁ורק	-2650
▁מרי	-2651
▁האלו	-2652
▁כיוון	-2653
▁לישראל	-2654
▁חיל	-2655
▁רחב	-2656
▁אוהבת	-2657
▁האזרח	-2658
▁האחרונים	-2659
ושי	-2660
משו	-2661
▁תס	-2662
▁הביט	-2663
▁כזו	-2664
▁צבע	-2665
▁בתוכ	-2666
▁שס	-2667
▁הסט	-2668
▁שינויים	-2669
▁הבינלאומי	-2670
ובים	-2671
▁הצה	-2672
▁כלום	-2673
▁מלחמה	-2674
....	-2675
▁שגם	-2676
▁הקול	-2677
▁מיוחד	-2678
▁לשים	-2679
פך	-2680
ויות	-2681
יתנו	-2682
מינה	-2683
▁השחק	-2684
▁חודש	-2685
▁משק	-2686
▁לשפר	-2687
▁בבוקר	-2688
▁לעמוד	-2689
8.	-2690
ap	-2691
חש	-2692
▁לצד	-2693
ליף	-2694
▁סמ	-2695
ומדים	-2696
6.	-2697
▁ולש	-2698
▁ספרים	-2699
כתי	-2700
▁אמת	-2701
▁שיר	-2702
▁המנה	-2703
1,	-2704
ne	-2705
זוב	-2706
▁הגיעו	-2707
▁ובא	-2708
▁נשאר	-2709
כלו	-2710
ברתי	-2711
▁תמיכה	-2712
מאס	-2713
פית	-2714
מנית	-2715
פכה	-2716
▁טכנ	-2717
▁חושבת	-2718
8,	-2719
▁ההס	-2720
▁עתי	-2721
▁שאר	-2722
וליטית	-2723
▁התיכון	-2724
יט	-2725
ותם	-2726
חרר	-2727
▁חצי	-2728
▁מהו	-2729
▁הופך	-2730
▁מחיר	-2731
▁הקבוצה	-2732
מום	-2733
▁התשובה	-2734
וניברסיטה	-2735
▁ושל	-2736
וגה	-2737
▁לספר	-2738
ייסבוק	-2739
▁תלוי	-2740
▁קונ	-2741
▁בשוק	-2742
-7	-2743
ie	-2744
רס	-2745
▁חזרה	-2746
▁מעניין	-2747
לוק	-2748
פוך	-2749
▁פרק	-2750
רגל	-2751
דרות	-2752
ילויות	-2753
▁דיווח	-2754
4,	-2755
▁ערב	-2756
▁מקבלים	-2757
כוח	-2758
מדים	-2759
ציאל	-2760
▁יצירת	-2761
▁מתע	-2762
לונות	-2763
▁תפקיד	-2764
▁מגיעים	-2765
שיבה	-2766
▁לבע	-2767
▁הארגון	-2768
2,	-2769
ity	-2770
וסף	-2771
שתה	-2772
▁דת	-2773
▁לחי	-2774
▁לנק	-2775
▁לאדם	-2776
▁2.	-2777
▁ראה	-2778
▁לימוד	-2779
▁תשומת	-2780
▁התוכנית	-2781
▁נט	-2782
ביות	-2783
▁למקום	-2784
וגל	-2785
▁בקלות	-2786
▁לגלות	-2787
מאל	-2788
מנויות	-2789
▁מוקדם	-2790
▁מבחינה	-2791
▁השפעה	-2792
פחות	-2793
▁שניתן	-2794
ודו	-2795
ייב	-2796
▁פא	-2797
זיקה	-2798
▁טבעי	-2799
▁עלול	-2800
▁השלישי	-2801
לקת	-2802
▁ייש	-2803
▁מסע	-2804
▁בעצמ	-2805
▁הקשר	-2806
דאו	-2807
פיה	-2808
▁סק	-2809
לטון	-2810
▁בעתיד	-2811
7,	-2812
og	-2813
עתי	-2814
פרט	-2815
דיים	-2816
▁הרב	-2817
▁מפל	-2818
▁הסכם	-2819
▁האו	-2820
▁הוג	-2821
וניות	-2822
▁נקודות	-2823
ָה	-2824
▁לבדוק	-2825
▁מילים	-2826
▁קבוצות	-2827
▁שעה	-2828
וסייה	-2829
יכרון	-2830
▁פתרון	-2831
est	-2832
יחס	-2833
סיים	-2834
▁טיפ	-2835
תייחס	-2836
דיל	-2837
ברואר	-2838
צועים	-2839
▁במידה	-2840
מטי	-2841
יתונ	-2842
▁הרע	-2843
▁והה	-2844
▁ייע	-2845
▁נותן	-2846
▁הלילה	-2847
▁חולים	-2848
▁הקהילה	-2849
▁אוניברסי	-2850
תק	-2851
ind	-2852
▁כולו	-2853
▁המשטרה	-2854
▁להבטיח	-2855
טמבר	-2856
▁שנק	-2857
▁בעזרת	-2858
▁הישראלי	-2859
קיע	-2860
▁בוח	-2861
▁חוץ	-2862
▁שכן	-2863
▁מצוי	-2864
▁תרופות	-2865
▁>	-2866
▁24	-2867
▁לפתח	-2868
▁צעירים	-2869
ine	-2870
כרת	-2871
ניס	-2872
עון	-2873
▁קש	-2874
▁שד	-2875
▁יצי	-2876
▁נפר	-2877
▁לרוב	-2878
▁שאפשר	-2879
▁ואפילו	-2880
רקע	-2881
▁הבר	-2882
▁הגור	-2883
▁מגוון	-2884
▁תכנית	-2885
▁הגדולים	-2886
שימת	-2887
▁אוו	-2888
10	-2889
▁פס	-2890
דיין	-2891
ליטה	-2892
▁היסט	-2893
▁חשבו	-2894
▁שאינם	-2895
▁בבר	-2896
▁ארוך	-2897
▁בינואר	-2898
▁ההורים	-2899
נסת	-2900
▁בחר	-2901
▁מהן	-2902
▁המלך	-2903
▁יקרה	-2904
▁להיר	-2905
-18	-2906
בטחה	-2907
זורים	-2908
שירים	-2909
▁ההבד	-2910
▁המון	-2911
▁שקי	-2912
▁בראש	-2913
▁יכולת	-2914
מט	-2915
נטית	-2916
וניברסיטת	-2917
▁עבד	-2918
קדמות	-2919
▁עזרה	-2920
▁תמונה	-2921
טליה	-2922
פלגה	-2923
▁מאיתנו	-2924
av	-2925
▁»	-2926
ילוס	-2927
רייה	-2928
▁רכי	-2929
▁שבת	-2930
▁הדרו	-2931
▁נשמע	-2932
▁המודר	-2933
ורר	-2934
▁זיה	-2935
▁זר	-2936
למים	-2937
מויות	-2938
▁מנהל	-2939
▁לקראת	-2940
אס	-2941
זרו	-2942
▁הנק	-2943
▁התרו	-2944
▁במרכז	-2945
▁נמצאת	-2946
אין	-2947
▁תמ	-2948
מיחה	-2949
▁בחלק	-2950
▁הכוח	-2951
▁הנכון	-2952
▁העתיד	-2953
▁הטובים	-2954
טרך	-2955
נצ	-2956
אבל	-2957
▁חמ	-2958
▁מהה	-2959
וויות	-2960
▁שאם	-2961
נגדות	-2962
▁חייו	-2963
מקד	-2964
▁חר	-2965
▁שבא	-2966
▁האיש	-2967
▁רחוק	-2968
▁רוסיה	-2969
▁50	-2970
▁בסרט	-2971
▁בערך	-2972
▁ואין	-2973
▁מתאים	-2974
▁תוכניות	-2975
▁וז	-2976
מכים	-2977
▁היכן	-2978
▁נולד	-2979
▁ולאחר	-2980
לוש	-2981
סלא	-2982
פורסם	-2983
באי	-2984
מפי	-2985
▁דוג	-2986
בורים	-2987
רישות	-2988
▁במאי	-2989
▁בחברה	-2990
גשתי	-2991
▁הפני	-2992
▁להעביר	-2993
▁ומח	-2994
▁ממו	-2995
▁הרכב	-2996
▁השמש	-2997
▁קיימת	-2998
▁שאנשים	-2999
▁יתר	-3000
▁חשבתי	-3001
▁לשעבר	-3002
▁מסוגלים	-3003
ביעי	-3004
▁חסר	-3005
▁״	-3006
ושבי	-3007
צעים	-3008
שרות	-3009
▁הוצ	-3010
▁חזר	-3011
our	-3012
▁תרג	-3013
▁מנהי	-3014
לס	-3015
▁מלב	-3016
▁שזו	-3017
כונית	-3018
6,	-3019
ביש	-3020
נינו	-3021
▁בפי	-3022
▁מראש	-3023
▁הכת	-3024
▁חומ	-3025
▁הדת	-3026
▁תינו	-3027
▁אחריות	-3028
בוס	-3029
יהן	-3030
▁Ch	-3031
▁האת	-3032
▁מתא	-3033
▁העליון	-3034
סא	-3035
ועדה	-3036
▁איננו	-3037
▁המוצר	-3038
▁פיתוח	-3039
▁אינטרנט	-3040
ווק	-3041
▁נז	-3042
גישות	-3043
▁לנצח	-3044
▁יחסים	-3045
▁לסייע	-3046
▁משחקים	-3047
▁האירופי	-3048
ak	-3049
ביים	-3050
▁עשרות	-3051
ונס	-3052
יינים	-3053
▁בניו	-3054
▁ברשת	-3055
▁שימו	-3056
3,	-3057
if	-3058
רית	-3059
▁החופ	-3060
od	-3061
▁רמת	-3062
▁ברמה	-3063
▁חיוב	-3064
▁להתח	-3065
▁קבוצת	-3066
▁התינוק	-3067
▁מחפשים	-3068
ובר	-3069
▁אמור	-3070
▁|	-3071
▁פשו	-3072
▁נהרג	-3073
▁בלילה	-3074
▁בתחילת	-3075
▁היחסים	-3076
אג	-3077
צרו	-3078
▁בצד	-3079
יימים	-3080
▁לבקר	-3081
▁גורמים	-3082
▁האחרים	-3083
▁הלאומי	-3084
מכ	-3085
▁בתפ	-3086
▁ימי	-3087
▁משה	-3088
▁כרגע	-3089
▁משנת	-3090
nd	-3091
טוא	-3092
פורס	-3093
▁עוצ	-3094
▁יפ	-3095
יתון	-3096
מידה	-3097
▁לבח	-3098
▁ספורט	-3099
וין	-3100
▁דה	-3101
לקוח	-3102
▁כשהוא	-3103
▁יוכל	-3104
▁מכיר	-3105
▁המילה	-3106
ard	-3107
▁חוקי	-3108
▁כבוד	-3109
▁ביוני	-3110
▁לשימוש	-3111
▁בספטמבר	-3112
עוד	-3113
▁מאושר	-3114
מוקרטיה	-3115
▁תל	-3116
צירת	-3117
▁הנושא	-3118
▁לזכור	-3119
▁הרעיון	-3120
▁מוכנים	-3121
שורת	-3122
▁החינוך	-3123
▁העובדים	-3124
ופט	-3125
▁ללי	-3126
▁אסטרט	-3127
▁ואנחנו	-3128
▁הבל	-3129
▁ובר	-3130
ive	-3131
מדו	-3132
יקים	-3133
▁הינו	-3134
▁נקרא	-3135
▁האזור	-3136
▁הצורך	-3137
all	-3138
▁ולח	-3139
▁שמה	-3140
ליטים	-3141
▁חינוך	-3142
▁להכיר	-3143
▁האר	-3144
▁צעיר	-3145
▁האדמה	-3146
▁לשאול	-3147
▁מסוימת	-3148
▁לספ	-3149
וונים	-3150
חרים	-3151
▁שלב	-3152
ריכים	-3153
▁יוכלו	-3154
▁בדצמבר	-3155
נקים	-3156
▁פרופ	-3157
גיט	-3158
▁עת	-3159
ight	-3160
▁הוש	-3161
▁ועם	-3162
▁לתי	-3163
▁סוב	-3164
▁הפסי	-3165
▁שכבר	-3166
▁בשנות	-3167
▁ראשית	-3168
▁גרמניה	-3169
▁קבוע	-3170
▁חמישה	-3171
דמנויות	-3172
▁לעבודה	-3173
-9	-3174
ִי	-3175
אוג	-3176
בירה	-3177
קלים	-3178
שוואה	-3179
▁הנוכחי	-3180
לושה	-3181
▁סיפ	-3182
▁לחפש	-3183
▁מראה	-3184
▁חייבת	-3185
▁לאפשר	-3186
▁מחקרים	-3187
▁בוקר	-3188
▁התחל	-3189
▁לבוא	-3190
▁למדי	-3191
▁ממוק	-3192
"?	-3193
יתם	-3194
▁לצפות	-3195
▁אלקטרו	-3196
▁ישירות	-3197
▁הבחירות	-3198
קע	-3199
נדון	-3200
▁בתע	-3201
▁הזוג	-3202
▁תפקי	-3203
ידן	-3204
▁25	-3205
דימה	-3206
▁מין	-3207
▁סיבות	-3208
▁במערכת	-3209
ורו	-3210
▁בפע	-3211
▁אזור	-3212
▁מבינים	-3213
כנע	-3214
▁איזו	-3215
▁סביר	-3216
▁האמיתי	-3217
▁המציאות	-3218
30	-3219
▁גד	-3220
▁גוף	-3221
בוצות	-3222
▁לוקח	-3223
▁גדולות	-3224
עיל	-3225
בנות	-3226
▁הגל	-3227
▁ומס	-3228
▁צעד	-3229
▁ושוב	-3230
▁להאמין	-3231
ook	-3232
▁ויי	-3233
▁קפה	-3234
▁טובות	-3235
▁תקשורת	-3236
▁האמריקאי	-3237
▁בטח	-3238
▁מוט	-3239
▁היהודית	-3240
ob	-3241
זציה	-3242
ניהול	-3243
▁נמוך	-3244
art	-3245
ast	-3246
מרים	-3247
▁ההשפ	-3248
▁סוגי	-3249
▁רצון	-3250
▁החלטה	-3251
▁X	-3252
לאות	-3253
וגוסט	-3254
▁ביולי	-3255
▁מתחילים	-3256
one	-3257
גרי	-3258
ודאי	-3259
▁ובת	-3260
▁מבק	-3261
▁למשך	-3262
▁מוות	-3263
▁בזכות	-3264
▁מקומות	-3265
▁האנרגיה	-3266
אתם	-3267
רחי	-3268
▁ספצי	-3269
▁חשובה	-3270
ורא	-3271
וריד	-3272
▁כאב	-3273
▁אליהם	-3274
▁חשבון	-3275
▁לכולם	-3276
▁הולכים	-3277
▁מכירים	-3278
רוח	-3279
לבום	-3280
רוכה	-3281
▁ענק	-3282
▁לדברי	-3283
▁שיתוף	-3284
▁בחשבון	-3285
▁להסביר	-3286
▁באוקטובר	-3287
▁a	-3288
▁בהק	-3289
▁נשק	-3290
▁רציתי	-3291
▁להפסיק	-3292
▁הפלסטינים	-3293
מרו	-3294
קוב	-3295
▁40	-3296
ופיע	-3297
▁חלב	-3298
▁פוג	-3299
▁לגי	-3300
▁מיק	-3301
▁לילה	-3302
▁ניתוח	-3303
ושת	-3304
▁צה	-3305
▁מציע	-3306
▁לפתוח	-3307
▁עצמנו	-3308
▁שנתיים	-3309
com	-3310
שווי	-3311
▁החלו	-3312
▁העלי	-3313
▁בהמשך	-3314
▁גדל	-3315
▁ישוע	-3316
▁אתמול	-3317
▁חשיבות	-3318
▁קיימים	-3319
▁‘	-3320
ופיה	-3321
▁יצר	-3322
▁אנטי	-3323
▁האמית	-3324
▁ידעתי	-3325
▁מומלץ	-3326
וטנציאל	-3327
▁קוראים	-3328
ברר	-3329
▁חג	-3330
▁נצ	-3331
▁ולהת	-3332
וזה	-3333
תפים	-3334
▁התרבות	-3335
ועד	-3336
פרס	-3337
ופית	-3338
▁בבע	-3339
▁חופש	-3340
▁הימים	-3341
▁פרטים	-3342
▁שאינו	-3343
▁בנובמבר	-3344
9,	-3345
ליחו	-3346
פייה	-3347
▁דמי	-3348
▁החז	-3349
אז	-3350
סטרו	-3351
▁195	-3352
נגטון	-3353
▁העולמי	-3354
ct	-3355
קן	-3356
▁החק	-3357
כוהול	-3358
▁מייצ	-3359
▁מרגישים	-3360
פוץ	-3361
דעתי	-3362
ובלי	-3363
▁המחש	-3364
▁ואתה	-3365
▁לטפל	-3366
▁עשרה	-3367
▁הפנים	-3368
▁כלשהו	-3369
▁התנהגות	-3370
ודא	-3371
▁והן	-3372
▁בספר	-3373
▁התחת	-3374
▁רפוא	-3375
▁בימים	-3376
▁במקרים	-3377
מדת	-3378
▁הדם	-3379
בוהים	-3380
▁בחדר	-3381
▁ממלי	-3382
▁אמנות	-3383
▁בתקופה	-3384
”,	-3385
-20	-3386
ומד	-3387
פחת	-3388
▁ומק	-3389
▁שהן	-3390
▁ראשו	-3391
▁להוסיף	-3392
▁שירותי	-3393
פריל	-3394
▁אמי	-3395
▁בשר	-3396
מצאים	-3397
▁בכדי	-3398
▁להציל	-3399
▁בעבודה	-3400
▁אפשרויות	-3401
מחה	-3402
ותרת	-3403
▁הבנק	-3404
▁ממני	-3405
▁באמצע	-3406
▁בקרוב	-3407
▁הנשים	-3408
▁אחוזים	-3409
▁להימנע	-3410
▁גרי	-3411
▁נוכל	-3412
פג	-3413
חוק	-3414
▁השא	-3415
▁זוכר	-3416
▁שמות	-3417
▁העניין	-3418
gle	-3419
סוק	-3420
...]	-3421
מאות	-3422
▁האג	-3423
▁חדר	-3424
▁אמנם	-3425
▁שינה	-3426
ולוגית	-3427
▁בחזרה	-3428
▁המקצוע	-3429
▁נזק	-3430
יקטים	-3431
ריאות	-3432
▁ביחס	-3433
▁ההחלטה	-3434
משי	-3435
▁טרי	-3436
▁מעדי	-3437
בעת	-3438
למת	-3439
יימת	-3440
▁בוג	-3441
▁השוק	-3442
▁ילדי	-3443
▁התקשורת	-3444
שׁ	-3445
▁אקד	-3446
▁קוב	-3447
▁החלה	-3448
▁מוצר	-3449
▁מהווה	-3450
▁תשובה	-3451
משת	-3452
▁עתה	-3453
▁השיר	-3454
▁האישה	-3455
ate	-3456
גיעו	-3457
כחות	-3458
▁שהש	-3459
כולוג	-3460
▁המור	-3461
▁הערב	-3462
▁מבוס	-3463
▁שעבר	-3464
▁לחיים	-3465
▁עיצוב	-3466
שן	-3467
רגש	-3468
▁תב	-3469
גנון	-3470
▁גבר	-3471
▁למס	-3472
▁המזרח	-3473
▁אפריקה	-3474
נשי	-3475
▁בצי	-3476
▁למק	-3477
ובדים	-3478
▁ארוכה	-3479
ill	-3480
ביעה	-3481
▁הומ	-3482
▁איתם	-3483
▁בגוף	-3484
▁עשויה	-3485
▁ביטחון	-3486
נש	-3487
▁לבן	-3488
▁פחד	-3489
▁התמונה	-3490
▁לטיפול	-3491
וצים	-3492
▁המב	-3493
▁העור	-3494
▁אוטומ	-3495
▁רעיון	-3496
▁באוגוסט	-3497
חוץ	-3498
▁הוסיף	-3499
▁לרכוש	-3500
▁החלטות	-3501
לחץ	-3502
רווי	-3503
▁ההצ	-3504
▁ונו	-3505
▁הקונ	-3506
▁סוגים	-3507
▁התלמידים	-3508
▁Re	-3509
מונת	-3510
▁אינן	-3511
▁במזרח	-3512
▁שמונה	-3513
▁פעולות	-3514
▁הפוליטי	-3515
טניה	-3516
▁ולת	-3517
▁המוב	-3518
▁[...]	-3519
▁המחיר	-3520
משלה	-3521
▁הוע	-3522
▁ולמ	-3523
▁נאל	-3524
▁ביניהם	-3525
▁ביקורת	-3526
▁האנושי	-3527
▁משמעותית	-3528
▁נצי	-3529
▁אסור	-3530
▁הצדדים	-3531
דיא	-3532
▁Ne	-3533
▁to	-3534
▁הגב	-3535
▁נאמר	-3536
▁האפשרות	-3537
ען	-3538
כנת	-3539
▁בסך	-3540
▁המחשב	-3541
▁אזרחים	-3542
▁מיוחדת	-3543
עש	-3544
▁גא	-3545
מצאו	-3546
▁ואמר	-3547
▁שלהן	-3548
▁לעצור	-3549
וסטר	-3550
▁תנאי	-3551
▁הישראל	-3552
ort	-3553
פעל	-3554
▁מחר	-3555
▁מורכ	-3556
▁נחשב	-3557
זין	-3558
ינם	-3559
▁שאל	-3560
▁הידע	-3561
▁המוות	-3562
▁הישראלית	-3563
כלים	-3564
▁ליום	-3565
▁מלבד	-3566
▁הרופא	-3567
כנן	-3568
נאה	-3569
תיע	-3570
דירה	-3571
▁בול	-3572
▁ווי	-3573
▁כוו	-3574
ant	-3575
גובה	-3576
שובות	-3577
▁מחוי	-3578
▁עונה	-3579
▁ביטוח	-3580
▁ביצוע	-3581
▁הבאות	-3582
▁העיקר	-3583
▁השלום	-3584
▁לצורך	-3585
▁פופול	-3586
לד	-3587
לן	-3588
ברט	-3589
oogle	-3590
▁שליטה	-3591
▁התהליך	-3592
רחים	-3593
▁היי	-3594
▁מתאי	-3595
ביו	-3596
כרה	-3597
▁לתח	-3598
▁בשעה	-3599
▁לידי	-3600
▁לעזוב	-3601
שוף	-3602
▁וסי	-3603
▁לבני	-3604
▁אוויר	-3605
▁נמוכה	-3606
▁האנושות	-3607
▁בהיסטוריה	-3608
▁מוסי	-3609
▁עדיף	-3610
▁להציג	-3611
▁נכונה	-3612
ודד	-3613
▁קד	-3614
▁אופן	-3615
▁בשני	-3616
▁הפכה	-3617
▁יחסי	-3618
▁מאחר	-3619
▁הפעולה	-3620
[1	-3621
לוו	-3622
לווה	-3623
▁לנהל	-3624
▁מנסים	-3625
ist	-3626
ווית	-3627
ניהו	-3628
▁לזהות	-3629
▁ארץ	-3630
▁המוק	-3631
▁יחסית	-3632
▁בירושלים	-3633
▁יז	-3634
▁אוק	-3635
▁ברצ	-3636
▁הנע	-3637
▁כרי	-3638
▁רצו	-3639
▁בסין	-3640
▁מידי	-3641
▁הבינלאומית	-3642
ווא	-3643
ייה	-3644
קסט	-3645
▁Al	-3646
▁להד	-3647
▁תור	-3648
▁איתי	-3649
▁הגיעה	-3650
▁הלאומית	-3651
''	-3652
ופל	-3653
ריע	-3654
▁פיק	-3655
▁שיק	-3656
ופלים	-3657
▁לאתר	-3658
▁במדינות	-3659
▁$	-3660
▁גרם	-3661
ודיים	-3662
▁פתוח	-3663
▁שלישי	-3664
▁להראות	-3665
▁התוצאות	-3666
ell	-3667
▁נול	-3668
▁הארי	-3669
▁הגנה	-3670
▁הצליח	-3671
▁לציין	-3672
▁סיכוי	-3673
▁שעברה	-3674
▁הפעילות	-3675
):	-3676
ub	-3677
גדל	-3678
רוד	-3679
▁יג	-3680
ננים	-3681
▁עלה	-3682
▁מטרות	-3683
▁זקוקים	-3684
?”	-3685
הה	-3686
▁קומ	-3687
▁בחוץ	-3688
ריטניה	-3689
▁פתאום	-3690
לע	-3691
▁("	-3692
ביעות	-3693
נסייה	-3694
▁בריא	-3695
בוגרים	-3696
▁מוחלט	-3697
▁הלקוחות	-3698
▁סטודנטים	-3699
ויק	-3700
גוון	-3701
בויות	-3702
▁פרטי	-3703
▁ליהנות	-3704
נוס	-3705
ביבת	-3706
לויות	-3707
▁להציע	-3708
▁קדימה	-3709
עדה	-3710
צעי	-3711
▁שהה	-3712
רמניה	-3713
▁מילה	-3714
▁קבלת	-3715
▁ההבדל	-3716
▁&	-3717
פוט	-3718
לאים	-3719
צחון	-3720
▁הוב	-3721
▁וחי	-3722
▁לקח	-3723
▁מתנה	-3724
▁התחיל	-3725
▁העיקרי	-3726
▁התוצאה	-3727
▁מבחינת	-3728
טיב	-3729
נטה	-3730
▁והצ	-3731
▁לייצר	-3732
▁לישון	-3733
▁לפתור	-3734
▁באפריל	-3735
נע	-3736
▁יקר	-3737
▁להן	-3738
▁לפר	-3739
▁להתג	-3740
▁סרטן	-3741
▁החברת	-3742
▁לבסוף	-3743
▁אירועים	-3744
▁המשמעות	-3745
ice	-3746
▁בגי	-3747
▁האב	-3748
▁לתפ	-3749
▁שבר	-3750
▁קשור	-3751
▁לקבוע	-3752
▁שניהם	-3753
פד	-3754
רע	-3755
-10	-3756
The	-3757
כמים	-3758
▁ביל	-3759
▁להתא	-3760
▁האהבה	-3761
▁תקופת	-3762
▁האירוע	-3763
גרם	-3764
ובד	-3765
▁ויר	-3766
▁מהד	-3767
▁סתם	-3768
▁לבקש	-3769
רגונים	-3770
▁במספר	-3771
▁בפברואר	-3772
דרגה	-3773
▁אספ	-3774
▁היע	-3775
▁נכתב	-3776
▁עליכם	-3777
סיקו	-3778
▁מהס	-3779
▁צוד	-3780
ודיות	-3781
▁האפש	-3782
▁רמות	-3783
ריד	-3784
▁במא	-3785
▁מרח	-3786
▁רצה	-3787
▁שתה	-3788
▁חברתית	-3789
צעת	-3790
▁קא	-3791
ספרים	-3792
▁חזקה	-3793
ירותים	-3794
▁אלינו	-3795
▁מדהים	-3796
▁בעניין	-3797
??	-3798
מרת	-3799
▁לאן	-3800
▁החת	-3801
▁בבקשה	-3802
ובב	-3803
▁לני	-3804
▁עקב	-3805
לימות	-3806
▁חומר	-3807
▁חייהם	-3808
אד	-3809
קרב	-3810
חרור	-3811
ישור	-3812
▁אלב	-3813
▁סבל	-3814
▁השפה	-3815
▁מזרח	-3816
▁חיילים	-3817
ge	-3818
בחן	-3819
מתו	-3820
▁ספי	-3821
▁קיצ	-3822
▁להיע	-3823
▁לדבריו	-3824
▁זכה	-3825
▁במטרה	-3826
▁תשלום	-3827
▁משפחות	-3828
▁עומדים	-3829
ופעה	-3830
קציה	-3831
▁והס	-3832
▁נפג	-3833
▁שטח	-3834
▁חוזר	-3835
▁לגיל	-3836
▁רופא	-3837
▁בתהליך	-3838
▁בריטניה	-3839
הע	-3840
ונש	-3841
▁ואל	-3842
▁מזל	-3843
וקף	-3844
חקי	-3845
▁מטרה	-3846
▁קורא	-3847
▁ועכשיו	-3848
וּ	-3849
אור	-3850
וקי	-3851
▁דר	-3852
דרים	-3853
תפות	-3854
▁שאמר	-3855
▁חופשי	-3856
▁כשאני	-3857
▁מצרים	-3858
▁המילים	-3859
שאיר	-3860
▁ומצ	-3861
▁מודר	-3862
▁עתיד	-3863
▁להניח	-3864
▁לעצמי	-3865
▁פרסום	-3866
▁האיחוד	-3867
זמן	-3868
..."	-3869
קיעים	-3870
▁איתך	-3871
▁כזאת	-3872
▁אמיתית	-3873
דרו	-3874
וספת	-3875
▁מהפ	-3876
▁כולה	-3877
201	-3878
her	-3879
בוי	-3880
▁לשת	-3881
שואין	-3882
▁מידה	-3883
▁פעיל	-3884
▁תואר	-3885
▁להוביל	-3886
▁l	-3887
בילי	-3888
▁דיא	-3889
▁נדר	-3890
▁ששי	-3891
דירות	-3892
כולנו	-3893
▁להיפ	-3894
▁מתוכ	-3895
▁מתרח	-3896
▁הסביבה	-3897
▁להוציא	-3898
se	-3899
הל	-3900
▁#	-3901
טרס	-3902
▁2015	-3903
▁מושג	-3904
▁ראשי	-3905
▁כרטיס	-3906
▁למכור	-3907
▁הגדולות	-3908
▁טלוויזיה	-3909
▁הפלסטינית	-3910
▁איי	-3911
▁שהצ	-3912
▁הנראה	-3913
רן	-3914
לקה	-3915
רוף	-3916
-199	-3917
▁שהפ	-3918
▁בנות	-3919
▁הנית	-3920
▁הראש	-3921
▁בפועל	-3922
▁הבלתי	-3923
▁וידאו	-3924
▁הסיכון	-3925
רם	-3926
▁!	-3927
▁באמ	-3928
▁סול	-3929
▁העבר	-3930
▁כנגד	-3931
▁משקל	-3932
▁עמוק	-3933
▁צפוי	-3934
▁ההגנה	-3935
▁שיעור	-3936
▁החברות	-3937
טלק	-3938
▁הינה	-3939
▁זקוק	-3940
▁המזון	-3941
▁העונה	-3942
▁הטכנולוגיה	-3943
pp	-3944
ows	-3945
ומם	-3946
מוס	-3947
שמה	-3948
▁העת	-3949
▁שווי	-3950
▁עצמכם	-3951
▁חשובים	-3952
מיר	-3953
▁בבח	-3954
▁היס	-3955
▁ירד	-3956
וקטור	-3957
▁זמין	-3958
▁עובר	-3959
▁הקודם	-3960
▁קטנות	-3961
▁להשפיע	-3962
▁הלימודים	-3963
ost	-3964
בדה	-3965
▁מצט	-3966
▁ניס	-3967
▁הגרמ	-3968
▁הפרט	-3969
▁ואיך	-3970
▁ארוחת	-3971
▁מקרים	-3972
▁המוצרים	-3973
ver	-3974
חיות	-3975
▁הבה	-3976
לחת	-3977
▁האפ	-3978
▁רווח	-3979
▁שמחה	-3980
▁במחקר	-3981
▁לעצמו	-3982
יתו	-3983
▁ובמ	-3984
▁שלם	-3985
▁עורך	-3986
▁חיפוש	-3987
ומט	-3988
▁ברצי	-3989
▁מותר	-3990
▁נושאים	-3991
ff	-3992
זת	-3993
צרי	-3994
שבו	-3995
גרות	-3996
▁בעלת	-3997
▁מהיר	-3998
▁סיפר	-3999
ישורים	-4000
▁הזכות	-4001
▁מחלות	-4002
▁התפתחות	-4003
וכה	-4004
▁Sh	-4005
כנות	-4006
▁נתן	-4007
▁שעל	-4008
שיבות	-4009
▁טרור	-4010
▁למות	-4011
▁מרבית	-4012
▁שניים	-4013
▁הטלפון	-4014
▁אוניברסיטת	-4015
ros	-4016
ואן	-4017
▁שז	-4018
סיקה	-4019
▁עיק	-4020
רגשות	-4021
▁הצוות	-4022
▁לעלות	-4023
▁לפנות	-4024
▁יכולתי	-4025
▁מציאות	-4026
BA	-4027
וכר	-4028
ספים	-4029
▁פינ	-4030
▁בבתי	-4031
▁דרום	-4032
▁לשתף	-4033
▁לתקן	-4034
▁בעלות	-4035
▁השונים	-4036
ark	-4037
▁3.	-4038
▁הפל	-4039
▁הפרי	-4040
▁להיל	-4041
▁היסטוריה	-4042
פיל	-4043
▁עץ	-4044
בעות	-4045
▁וכו	-4046
▁לאט	-4047
▁מסר	-4048
▁ברוב	-4049
▁הפכו	-4050
▁שלושת	-4051
▁בניגוד	-4052
▁בהשוואה	-4053
כרח	-4054
ליל	-4055
פתחו	-4056
▁והק	-4057
▁חרי	-4058
▁השטח	-4059
▁בדרום	-4060
▁המשות	-4061
▁עצמית	-4062
▁פעמיים	-4063
כתה	-4064
סקו	-4065
▁עז	-4066
ועלת	-4067
וריאה	-4068
▁החמי	-4069
▁המשפ	-4070
▁מלון	-4071
▁הצלחה	-4072
▁רפואי	-4073
ומנויות	-4074
▁רעיונות	-4075
נב	-4076
ואל	-4077
מנת	-4078
נטיות	-4079
▁שחור	-4080
▁האישי	-4081
▁המחלה	-4082
▁מושלם	-4083
eb	-4084
נך	-4085
צעו	-4086
דינת	-4087
יראן	-4088
פנים	-4089
▁גרו	-4090
▁ממך	-4091
▁לחלק	-4092
▁מספק	-4093
▁הידוע	-4094
▁הלקוח	-4095
▁הנוכח	-4096
▁מרגישה	-4097
▁המערבית	-4098
▁בּ	-4099
▁2017	-4100
▁חיות	-4101
▁הבוקר	-4102
▁ההזדמנות	-4103
גרס	-4104
מחים	-4105
▁193	-4106
▁לעבר	-4107
▁החוצה	-4108
▁שקורה	-4109
▁במילים	-4110
▁21	-4111
כנים	-4112
▁למצב	-4113
▁ואילו	-4114
▁המפלגה	-4115
בעה	-4116
ולחן	-4117
ציאה	-4118
▁אגב	-4119
▁מחשב	-4120
אורה	-4121
כאון	-4122
▁ישנה	-4123
▁ראוי	-4124
▁שהופ	-4125
רכיבים	-4126
▁ממשיך	-4127
▁מרכזי	-4128
▁תחרות	-4129
▁אלימות	-4130
▁הכלכלי	-4131
ברג	-4132
רתי	-4133
▁ובש	-4134
▁הכדור	-4135
וֹ	-4136
וגים	-4137
ושים	-4138
טיין	-4139
מדות	-4140
▁for	-4141
▁וול	-4142
ליכים	-4143
▁במאה	-4144
▁עברו	-4145
▁בצפון	-4146
▁הראשי	-4147
▁לשלוח	-4148
▁נקודת	-4149
▁תלמידים	-4150
נפ	-4151
האם	-4152
▁שונ	-4153
▁האקד	-4154
▁לנשים	-4155
▁התנועה	-4156
▁פתרונות	-4157
ord	-4158
ושות	-4159
▁והג	-4160
▁2018	-4161
▁אביו	-4162
▁עוזר	-4163
▁מצליח	-4164
▁ראשונה	-4165
▁בינתיים	-4166
▁החוקרים	-4167
▁הראשונות	-4168
EB	-4169
▁מכם	-4170
קטיבי	-4171
▁החוץ	-4172
▁מעמד	-4173
▁בשימוש	-4174
▁מוזיקה	-4175
ack	-4176
זות	-4177
וכיח	-4178
זרים	-4179
סטין	-4180
▁ניק	-4181
▁והיה	-4182
▁כשהם	-4183
▁לשמש	-4184
▁סעיף	-4185
▁ברורה	-4186
▁למדינה	-4187
▁0	-4188
וסק	-4189
▁בכמה	-4190
▁מותו	-4191
▁מחפש	-4192
▁ייצור	-4193
דיות	-4194
ובוס	-4195
תיבה	-4196
▁ביקש	-4197
▁הרשת	-4198
▁לשני	-4199
▁מופי	-4200
▁סימן	-4201
▁לשלוט	-4202
▁פשוטה	-4203
▁הבחירה	-4204
▁התקופה	-4205
ניקה	-4206
▁מלה	-4207
▁מתב	-4208
▁דופן	-4209
▁ומתן	-4210
▁מסכים	-4211
▁תכונות	-4212
טרת	-4213
מפט	-4214
▁''	-4215
▁ובין	-4216
▁צפון	-4217
▁הזדמנויות	-4218
▁בך	-4219
▁גזע	-4220
▁שוכ	-4221
▁שחי	-4222
▁הלבן	-4223
▁כחלק	-4224
▁אירוע	-4225
▁בהרבה	-4226
▁ואולי	-4227
▁להרוג	-4228
▁מקורות	-4229
קף	-4230
גוש	-4231
▁22	-4232
▁An	-4233
מורה	-4234
▁בטר	-4235
▁בעד	-4236
▁בקה	-4237
▁מנג	-4238
▁פות	-4239
▁השאר	-4240
▁ההיסט	-4241
▁כשאתה	-4242
▁פועלים	-4243
אשר	-4244
▁כיף	-4245
▁בטוחה	-4246
▁במקומות	-4247
▁ישראלים	-4248
▁קיל	-4249
▁הבדי	-4250
▁מפתח	-4251
▁פועל	-4252
▁רגיל	-4253
▁ביטוי	-4254
זיל	-4255
▁ניסו	-4256
▁לאירו	-4257
▁לפגוע	-4258
▁הרגשתי	-4259
גלה	-4260
עורר	-4261
▁המונ	-4262
▁הקטן	-4263
▁כותב	-4264
▁תנועה	-4265
כנו	-4266
▁דוד	-4267
▁דרו	-4268
▁בקול	-4269
▁וחצי	-4270
▁משמש	-4271
▁הופיע	-4272
▁הסדרה	-4273
ונו	-4274
ותי	-4275
אפשר	-4276
יתוף	-4277
רכיב	-4278
▁הדלת	-4279
▁הורים	-4280
▁החדשות	-4281
▁נתניהו	-4282
-15	-4283
▁בקשר	-4284
▁אישור	-4285
qu	-4286
ain	-4287
▁צל	-4288
ולין	-4289
ילוב	-4290
▁בור	-4291
▁קבע	-4292
וכנות	-4293
▁מדהי	-4294
▁מוקד	-4295
▁תוכן	-4296
▁פרויקט	-4297
▁לחת	-4298
▁ריק	-4299
▁שפה	-4300
▁הקיץ	-4301
▁הכוחות	-4302
מיני	-4303
▁למא	-4304
▁משר	-4305
▁תשת	-4306
▁שחקן	-4307
▁שישה	-4308
indows	-4309
▁הבנתי	-4310
▁מחשבות	-4311
▁באנגלית	-4312
▁Th	-4313
▁ובו	-4314
▁2014	-4315
▁בצרפת	-4316
▁בטוחים	-4317
ייק	-4318
מפרט	-4319
צבים	-4320
▁דני	-4321
▁למת	-4322
עויות	-4323
▁בפרו	-4324
▁עלולים	-4325
▁n	-4326
בין	-4327
ירא	-4328
סקת	-4329
▁ברכ	-4330
▁וני	-4331
▁הקומ	-4332
▁בעיני	-4333
▁להכין	-4334
▁לטובת	-4335
▁שחקנים	-4336
▁העיניים	-4337
▁Ar	-4338
▁נמ	-4339
טווח	-4340
כירה	-4341
▁לנס	-4342
▁סופ	-4343
▁הכלב	-4344
▁חובה	-4345
▁אמצעי	-4346
▁תושבי	-4347
▁המרכזי	-4348
▁מתחילה	-4349
ויד	-4350
וקת	-4351
ינה	-4352
פרד	-4353
▁23	-4354
לוונ	-4355
▁עזה	-4356
▁נורא	-4357
▁כלשהי	-4358
▁אנגלית	-4359
12	-4360
דרי	-4361
משל	-4362
ענה	-4363
שול	-4364
פלים	-4365
רידה	-4366
▁Com	-4367
▁תחושה	-4368
בדו	-4369
ויב	-4370
גלים	-4371
כסוך	-4372
▁גבי	-4373
▁קלא	-4374
▁המשך	-4375
▁מוצא	-4376
▁לדעתי	-4377
דיק	-4378
סייע	-4379
▁Pro	-4380
▁מדו	-4381
▁לאחד	-4382
▁חלקים	-4383
▁שיפור	-4384
▁הבעיות	-4385
▁העתיקה	-4386
▁להשקיע	-4387
▁מיוחדים	-4388
ביס	-4389
עתו	-4390
ואים	-4391
▁ללמד	-4392
▁למלא	-4393
▁צורה	-4394
▁סיכון	-4395
▁להחליט	-4396
עשה	-4397
קפה	-4398
▁You	-4399
▁הבן	-4400
כולות	-4401
▁במרץ	-4402
▁הדור	-4403
▁ובכך	-4404
▁בחירה	-4405
▁לקרות	-4406
▁משתנה	-4407
▁רגשות	-4408
▁הפופול	-4409
▁Ex	-4410
▁היצ	-4411
▁וזו	-4412
▁לונ	-4413
▁להרח	-4414
▁במשחק	-4415
▁להחזיר	-4416
▁מקצועי	-4417
▁בלונדון	-4418
▁1,	-4419
▁פט	-4420
▁קצ	-4421
פרסם	-4422
טרסים	-4423
▁דברי	-4424
▁מחיי	-4425
▁שיער	-4426
▁תחום	-4427
▁צילום	-4428
▁Google	-4429
▁האלבום	-4430
▁הוועדה	-4431
▁להצטרף	-4432
60	-4433
▁חם	-4434
טחים	-4435
שואים	-4436
▁החיס	-4437
▁ביקור	-4438
▁לאהוב	-4439
▁בסביבה	-4440
▁ארגונים	-4441
גיב	-4442
▁דח	-4443
ירור	-4444
מצים	-4445
▁מאה	-4446
▁סדר	-4447
▁למטה	-4448
▁לקדם	-4449
▁כלבים	-4450
▁לוודא	-4451
▁לתמוך	-4452
ian	-4453
▁60	-4454
טאות	-4455
▁ההג	-4456
▁יוע	-4457
מפיין	-4458
▁לחברה	-4459
▁לענות	-4460
▁להילחם	-4461
▁מודעים	-4462
▁מתכוון	-4463
200	-4464
לאה	-4465
▁טל	-4466
▁בלע	-4467
▁חוד	-4468
▁קלה	-4469
▁הכוכ	-4470
▁לדאוג	-4471
▁מוצרי	-4472
▁מורכב	-4473
▁שהייתה	-4474
▁שהייתי	-4475
▁האמריקאית	-4476
נף	-4477
▁^	-4478
בילה	-4479
שינו	-4480
▁ממח	-4481
▁גרעי	-4482
▁לגור	-4483
▁לחוק	-4484
▁לשבת	-4485
▁מבית	-4486
▁עליי	-4487
▁הולדת	-4488
▁שיטות	-4489
▁החיפוש	-4490
▁אלכוהול	-4491
11	-4492
כז	-4493
בוב	-4494
יגה	-4495
▁וְ	-4496
רגיל	-4497
▁הבט	-4498
▁הגיל	-4499
▁למרבה	-4500
▁החברים	-4501
▁מומחים	-4502
▁ממשיכים	-4503
ביה	-4504
דום	-4505
לחם	-4506
▁פק	-4507
למנט	-4508
▁אנא	-4509
▁נפש	-4510
סטיבל	-4511
▁ובכן	-4512
▁מסכי	-4513
▁עלולה	-4514
▁להפחית	-4515
▁בבריטניה	-4516
הש	-4517
ירי	-4518
ולדת	-4519
▁קרב	-4520
▁המשא	-4521
▁שישי	-4522
▁דוגמה	-4523
▁המספר	-4524
▁משותף	-4525
▁תקווה	-4526
▁בהתחלה	-4527
▁חומרים	-4528
▁השחקנים	-4529
הג	-4530
וכים	-4531
וצות	-4532
▁כלב	-4533
▁לאל	-4534
▁אכפת	-4535
▁בדבר	-4536
▁בכוח	-4537
▁דיבר	-4538
▁האוט	-4539
▁זרים	-4540
▁הקודש	-4541
▁הקרוב	-4542
▁הגבוהה	-4543
▁פוליטית	-4544
▁באוניברסיטת	-4545
▁האוניברסיטה	-4546
ure	-4547
▁נר	-4548
▁ביד	-4549
▁דלת	-4550
▁הקל	-4551
▁נוח	-4552
▁בשטח	-4553
▁דורש	-4554
▁הסוב	-4555
▁הקהל	-4556
▁השתמש	-4557
▁גבולות	-4558
▁העיקרית	-4559
ib	-4560
ect	-4561
▁סקר	-4562
▁שאף	-4563
▁שור	-4564
ורקיה	-4565
▁גודל	-4566
▁המופ	-4567
▁וכמה	-4568
▁שקרה	-4569
סטן	-4570
קון	-4571
קיפה	-4572
שיון	-4573
▁אול	-4574
▁ודי	-4575
▁לנה	-4576
▁מלך	-4577
▁משם	-4578
וגיות	-4579
לטפור	-4580
ראיתי	-4581
▁2012	-4582
▁ספרי	-4583
▁פירו	-4584
▁במשקל	-4585
▁חוויה	-4586
▁מבוסס	-4587
▁הנכונה	-4588
מלית	-4589
▁במט	-4590
▁גרוע	-4591
▁יעיל	-4592
פורניה	-4593
▁הערבי	-4594
▁נראית	-4595
▁האמנות	-4596
▁ההשפעה	-4597
pl	-4598
ear	-4599
ran	-4600
נסו	-4601
שוי	-4602
▁הבו	-4603
▁מבע	-4604
רוויח	-4605
▁2013	-4606
▁החבר	-4607
▁חינם	-4608
▁יעשה	-4609
▁במרחק	-4610
▁מחזיק	-4611
▁בדיקות	-4612
▁המקרים	-4613
גול	-4614
▁אדמה	-4615
▁אשתו	-4616
▁ברית	-4617
▁הבנה	-4618
▁החיצ	-4619
▁הרגע	-4620
▁לרגע	-4621
▁המקור	-4622
▁להעלות	-4623
▁לומדים	-4624
▁האנושית	-4625
▁הפרויקט	-4626
▁פלסטינים	-4627
עתם	-4628
▁גז	-4629
ועים	-4630
▁אבר	-4631
▁גלי	-4632
▁הלה	-4633
▁כשי	-4634
▁שכר	-4635
ביבות	-4636
▁הקמת	-4637
▁עמוד	-4638
▁אהבתי	-4639
▁בהכרח	-4640
▁הרצון	-4641
▁השינוי	-4642
▁כלכלית	-4643
iz	-4644
סיי	-4645
▁חפ	-4646
סאות	-4647
פונים	-4648
▁בשום	-4649
▁בשפה	-4650
▁אמונה	-4651
▁עבודת	-4652
-12	-4653
ome	-4654
חיד	-4655
למו	-4656
קדש	-4657
▁הדר	-4658
▁עמד	-4659
▁התוכ	-4660
▁רחבי	-4661
▁דולרים	-4662
כש	-4663
▁g	-4664
מלא	-4665
▁באה	-4666
▁זהב	-4667
▁סיר	-4668
▁התרח	-4669
▁טעות	-4670
▁ישנן	-4671
▁מכאן	-4672
▁הטובות	-4673
-17	-4674
ערי	-4675
▁Con	-4676
▁ישת	-4677
▁שרק	-4678
▁תמי	-4679
▁נוצר	-4680
▁סוריה	-4681
▁שירותים	-4682
▁בינלאומיים	-4683
2]	-4684
כלת	-4685
ליג	-4686
נין	-4687
גדים	-4688
ראוי	-4689
▁ויט	-4690
▁לסט	-4691
▁נשי	-4692
▁ההשק	-4693
▁לארץ	-4694
▁סרטים	-4695
▁עשיתי	-4696
▁הקריירה	-4697
▁הקשורים	-4698
▁h	-4699
are	-4700
מרה	-4701
▁בכו	-4702
▁החול	-4703
▁מבקש	-4704
▁מעוד	-4705
▁משלו	-4706
▁לחקור	-4707
▁נראים	-4708
▁ללקוחות	-4709
ex	-4710
▁ב־	-4711
▁בלא	-4712
▁והד	-4713
▁פית	-4714
▁הווי	-4715
▁המומ	-4716
▁מבנה	-4717
▁נדרש	-4718
▁סופר	-4719
▁החומר	-4720
▁לקבלת	-4721
▁קיבלו	-4722
▁המקורי	-4723
▁חוקרים	-4724
▁פעילויות	-4725
מז	-4726
ies	-4727
ועה	-4728
ייד	-4729
מצב	-4730
▁המנ	-4731
▁ולב	-4732
▁שהס	-4733
בקרים	-4734
לחמות	-4735
▁הנוס	-4736
בס	-4737
▁Un	-4738
▁תד	-4739
בדים	-4740
▁חתי	-4741
▁ירו	-4742
▁טווח	-4743
▁עומדת	-4744
▁עיתונ	-4745
▁שיווק	-4746
▁להסתכל	-4747
▁נוסעים	-4748
▁שמישהו	-4749
▁המשחקים	-4750
per	-4751
יימס	-4752
פיסה	-4753
▁באו	-4754
▁וית	-4755
▁מפת	-4756
▁הבסי	-4757
▁להוכיח	-4758
▁עבודות	-4759
▁+	-4760
ביט	-4761
אללה	-4762
▁WEB	-4763
▁מקי	-4764
▁שדה	-4765
▁אינס	-4766
▁ואנו	-4767
▁טכני	-4768
▁מסחר	-4769
▁מקרי	-4770
▁הודעה	-4771
▁מעולה	-4772
▁לאחרים	-4773
▁להוריד	-4774
▁לכאורה	-4775
▁מציעים	-4776
ry	-4777
ענו	-4778
פתי	-4779
וגמא	-4780
כנון	-4781
▁הכח	-4782
▁הסכ	-4783
▁ייצ	-4784
▁הלאה	-4785
▁לחכות	-4786
▁החדשים	-4787
▁המוזיקה	-4788
▁להתייחס	-4789
ובדה	-4790
טרכו	-4791
ילנד	-4792
▁ההע	-4793
▁כוס	-4794
▁לכי	-4795
▁אליך	-4796
▁אוסטר	-4797
▁הטרור	-4798
▁לזכות	-4799
▁במקביל	-4800
▁לונדון	-4801
▁טכנולוגיה	-4802
ld	-4803
חתם	-4804
סיד	-4805
▁דף	-4806
▁חיה	-4807
▁ההור	-4808
▁מודע	-4809
▁מחלה	-4810
▁מכיל	-4811
▁אינני	-4812
▁גבוהים	-4813
▁המשימה	-4814
▁הצליחו	-4815
▁חוב	-4816
חריות	-4817
▁דמות	-4818
▁כוללת	-4819
▁מגיעה	-4820
▁התייחס	-4821
▁להחליף	-4822
▁מאפשרת	-4823
▁Windows	-4824
ַי	-4825
▁i	-4826
ייט	-4827
▁Bl	-4828
דוני	-4829
רפתי	-4830
שתמש	-4831
▁היב	-4832
▁העד	-4833
▁ממי	-4834
דירים	-4835
▁הפדר	-4836
▁האסלא	-4837
▁השינה	-4838
▁לבחון	-4839
▁עובדת	-4840
▁תחילת	-4841
▁כוללים	-4842
▁האזרחים	-4843
▁היתרונות	-4844
לוי	-4845
▁De	-4846
ואות	-4847
▁במל	-4848
▁הקש	-4849
▁חכם	-4850
▁אדום	-4851
▁סיוע	-4852
▁האפשר	-4853
▁המבנה	-4854
▁שירים	-4855
▁תגובה	-4856
▁להשתתף	-4857
▁מסוימות	-4858
ud	-4859
שוך	-4860
▁סל	-4861
▁פח	-4862
בורג	-4863
בינו	-4864
ניתי	-4865
▁הפס	-4866
פעמים	-4867
▁מוכר	-4868
▁מעלה	-4869
▁מסביב	-4870
▁בשבילי	-4871
▁שיניים	-4872
▁תגובות	-4873
▁סיפורים	-4874
ָּ	-4875
ust	-4876
גישו	-4877
נאות	-4878
▁החלל	-4879
קטיבית	-4880
▁איתנו	-4881
▁הכנסת	-4882
▁לשתות	-4883
▁מסוכן	-4884
▁הכלכלה	-4885
oft	-4886
דיש	-4887
קרי	-4888
▁Mic	-4889
▁מפע	-4890
▁נמש	-4891
▁נקי	-4892
▁סטי	-4893
▁באחד	-4894
▁טלפון	-4895
▁מופיע	-4896
▁האמונה	-4897
▁הספרים	-4898
▁עיניים	-4899
▁קוריאה	-4900
▁בינלאומי	-4901
")	-4902
הח	-4903
end	-4904
▁הדו	-4905
▁ויק	-4906
▁הקרב	-4907
▁התכו	-4908
▁משפי	-4909
▁בדיקה	-4910
▁השראה	-4911
▁מינית	-4912
▁תוצאה	-4913
?".	-4914
ציג	-4915
▁יו	-4916
ציונ	-4917
▁המז	-4918
קציות	-4919
▁אמון	-4920
▁באשר	-4921
▁בשתי	-4922
▁מתקד	-4923
▁נהדר	-4924
▁דומים	-4925
▁הצעיר	-4926
▁נהרגו	-4927
אירו	-4928
מיין	-4929
נסיה	-4930
▁היד	-4931
▁השו	-4932
▁ויע	-4933
▁מזג	-4934
▁2019	-4935
▁היתר	-4936
▁הגבול	-4937
▁הולכת	-4938
▁להקים	-4939
▁מספקת	-4940
▁הבריטי	-4941
יון	-4942
▁-1	-4943
▁מהג	-4944
▁אהבת	-4945
▁המות	-4946
▁חשמל	-4947
▁נדמה	-4948
▁שפות	-4949
וטנציא	-4950
▁דיגיט	-4951
▁המפתח	-4952
ינג	-4953
פלי	-4954
פלל	-4955
▁בחו	-4956
▁חיצ	-4957
▁כיש	-4958
▁מתן	-4959
▁שוט	-4960
▁שקט	-4961
▁טוען	-4962
▁מצאו	-4963
▁עצמא	-4964
▁קשים	-4965
▁הקרקע	-4966
▁כתובת	-4967
▁הודעות	-4968
▁המהפכה	-4969
▁מספרים	-4970
▁קיימות	-4971
טוב	-4972
לום	-4973
▁סא	-4974
▁לעיר	-4975
▁לאומי	-4976
▁בוחרים	-4977
▁בתקופת	-4978
▁לציבור	-4979
ph	-4980
פרץ	-4981
▁Pl	-4982
▁ים	-4983
לילה	-4984
▁רצח	-4985
▁רקע	-4986
▁שבהן	-4987
▁שלמה	-4988
▁בחינם	-4989
▁להגדיל	-4990
▁האוכלוסייה	-4991
ire	-4992
חתה	-4993
▁Ph	-4994
▁דוא	-4995
▁2010	-4996
▁יתכן	-4997
▁משלה	-4998
▁סמים	-4999
▁כאמור	-5000
▁מנהיג	-5001
▁מציעה	-5002
מוקרטית	-5003
ore	-5004
יום	-5005
שאל	-5006
▁גול	-5007
▁סנט	-5008
▁פלא	-5009
▁2011	-5010
▁כלים	-5011
יתונות	-5012
▁אבטחה	-5013
▁אופטי	-5014
▁המסחר	-5015
▁האמריקני	-5016
ue	-5017
▁”	-5018
-30	-5019
בנו	-5020
ונם	-5021
▁4.	-5022
▁כרו	-5023
ליחים	-5024
שימות	-5025
▁אביב	-5026
▁החוף	-5027
▁חלקם	-5028
▁ידעו	-5029
▁לכאן	-5030
▁החליט	-5031
▁לפיכך	-5032
▁המשתמש	-5033
▁הסיבות	-5034
▁זיכרון	-5035
▁להשאיר	-5036
▁העולמית	-5037
כוז	-5038
▁28	-5039
▁דג	-5040
▁ומכ	-5041
נגליה	-5042
▁הערך	-5043
▁כאלו	-5044
▁הבסיס	-5045
▁עובדות	-5046
▁בגרמניה	-5047
:00	-5048
בחר	-5049
ונד	-5050
מסר	-5051
▁נפט	-5052
▁לחיי	-5053
▁לשלב	-5054
▁מאוח	-5055
▁מצפה	-5056
▁שיחק	-5057
▁עשרים	-5058
▁בסוריה	-5059
▁הפתרון	-5060
▁להשלים	-5061
▁בבחירות	-5062
▁מבוגרים	-5063
ood	-5064
ופש	-5065
ייקט	-5066
קאים	-5067
▁ההש	-5068
▁הלך	-5069
▁יור	-5070
▁מגלה	-5071
מודדות	-5072
▁האדום	-5073
▁המאמר	-5074
▁לטווח	-5075
ריח	-5076
▁אט	-5077
▁בוא	-5078
▁יוצר	-5079
▁לרדת	-5080
▁עצום	-5081
▁קצרה	-5082
▁שומן	-5083
▁תלמי	-5084
▁הגישה	-5085
▁שניות	-5086
▁להשתנות	-5087
תיב	-5088
מהות	-5089
▁קוס	-5090
▁איתה	-5091
▁זהות	-5092
▁מדעי	-5093
▁מתרג	-5094
▁סיום	-5095
▁רשמי	-5096
▁להחזיק	-5097
▁נותנים	-5098
▁האחריות	-5099
▁מכוניות	-5100
▁המדיניות	-5101
%.	-5102
בוצת	-5103
▁במג	-5104
▁לטע	-5105
▁מאמר	-5106
▁ניסה	-5107
▁רשות	-5108
▁איננה	-5109
▁האהוב	-5110
▁חוקים	-5111
▁לוותר	-5112
▁ממשלה	-5113
▁שנקרא	-5114
▁השניים	-5115
25	-5116
הר	-5117
בון	-5118
ליזם	-5119
▁אחי	-5120
▁שמס	-5121
▁בקיץ	-5122
▁בקשה	-5123
▁הפינ	-5124
▁נותר	-5125
▁יעזור	-5126
▁לקיים	-5127
▁צעדים	-5128
▁תחושת	-5129
▁תחילה	-5130
▁תיאור	-5131
▁גופנית	-5132
▁המאפשר	-5133
▁תעשיית	-5134
געו	-5135
עין	-5136
▁Sp	-5137
▁במת	-5138
▁כבד	-5139
ופטים	-5140
▁ואתם	-5141
▁משני	-5142
▁סובל	-5143
▁פולי	-5144
▁ציין	-5145
▁שבין	-5146
▁שואל	-5147
▁המלון	-5148
▁השאלות	-5149
▁חיובית	-5150
▁השלישית	-5151
mer	-5152
דמה	-5153
טיקה	-5154
יגים	-5155
▁והכ	-5156
▁צדק	-5157
▁באים	-5158
▁מעשה	-5159
▁נבחר	-5160
▁אתרים	-5161
▁גידול	-5162
▁הרכבת	-5163
▁יוצאת	-5164
▁נוטים	-5165
▁איטליה	-5166
▁הממוצע	-5167
בעו	-5168
מצם	-5169
▁צו	-5170
למות	-5171
ננות	-5172
▁כבי	-5173
▁לאר	-5174
▁אלכס	-5175
▁השות	-5176
▁לאבד	-5177
▁במשרד	-5178
▁המאוח	-5179
▁מהבית	-5180
▁הכניסה	-5181
▁לשינוי	-5182
▁פרויקטים	-5183
הו	-5184
▁בכת	-5185
▁ויה	-5186
▁טעם	-5187
זיאון	-5188
▁בערב	-5189
▁השרי	-5190
▁לשנת	-5191
▁מודעות	-5192
▁הפלסטיני	-5193
40	-5194
לחו	-5195
ליפ	-5196
▁Ad	-5197
אלון	-5198
זונה	-5199
יינה	-5200
מובן	-5201
▁ושה	-5202
▁לעי	-5203
▁מתפ	-5204
▁נוש	-5205
▁המין	-5206
▁מכתב	-5207
▁פרנק	-5208
▁התורה	-5209
▁ירידה	-5210
▁שנייה	-5211
ָא	-5212
נל	-5213
ִים	-5214
היא	-5215
▁פג	-5216
דלים	-5217
▁ויל	-5218
▁ישר	-5219
▁נהיה	-5220
▁אחראי	-5221
▁רשימה	-5222
▁הופכים	-5223
▁העיצוב	-5224
▁מכירות	-5225
▁מיליוני	-5226
▁)	-5227
פרו	-5228
▁27	-5229
מציה	-5230
▁אמו	-5231
▁צור	-5232
▁הנפש	-5233
▁סכום	-5234
▁אובדן	-5235
▁ברחוב	-5236
▁המוקד	-5237
▁המשיך	-5238
▁אוכלים	-5239
▁התחלתי	-5240
▁יוצאים	-5241
▁המכונית	-5242
ארט	-5243
בתא	-5244
כרים	-5245
▁באת	-5246
▁באור	-5247
▁ישיר	-5248
▁ההסכם	-5249
▁שכולם	-5250
▁ברצינות	-5251
צם	-5252
כרו	-5253
חייה	-5254
▁אבן	-5255
▁בכי	-5256
▁גאה	-5257
▁2016	-5258
▁במים	-5259
▁הירח	-5260
▁הצטר	-5261
▁בעצמו	-5262
▁לסיים	-5263
▁התכנית	-5264
▁למישהו	-5265
▁מוצאים	-5266
3)	-5267
NA	-5268
ock	-5269
▁26	-5270
▁Wh	-5271
▁הסמ	-5272
▁נהג	-5273
▁סקס	-5274
וצרים	-5275
▁היעד	-5276
▁הממשל	-5277
▁לנסוע	-5278
▁מועצת	-5279
▁קיבלה	-5280
▁שמעתי	-5281
▁להודות	-5282
▁מכונית	-5283
▁אמריקאי	-5284
סן	-5285
▁·	-5286
-16	-5287
היה	-5288
טין	-5289
▁Be	-5290
גיות	-5291
לינו	-5292
▁זהה	-5293
▁פתי	-5294
▁שמצ	-5295
▁המיי	-5296
▁יוני	-5297
▁כתוב	-5298
▁אשראי	-5299
ational	-5300
▁העיקריים	-5301
▁הטלוויזיה	-5302
חשב	-5303
נצל	-5304
קורת	-5305
▁לכו	-5306
▁פרט	-5307
מינות	-5308
▁איבד	-5309
▁הבין	-5310
▁נסיעה	-5311
▁התפקיד	-5312
▁להצליח	-5313
▁Q	-5314
רין	-5315
▁והמש	-5316
▁מטרת	-5317
▁שאולי	-5318
מפטומים	-5319
▁בתגובה	-5320
▁התמונות	-5321
ואב	-5322
ולט	-5323
מלה	-5324
נור	-5325
ואלי	-5326
כלות	-5327
▁דרכ	-5328
▁ליל	-5329
▁פיצ	-5330
▁שיא	-5331
▁שמן	-5332
▁עמדה	-5333
ובליקה	-5334
▁הופכת	-5335
▁משפחתו	-5336
1]	-5337
▁Z	-5338
ial	-5339
▁בתים	-5340
▁המיק	-5341
▁לנצל	-5342
▁ניסי	-5343
▁הודיע	-5344
▁לשאלה	-5345
▁מצוין	-5346
▁להפעיל	-5347
▁נוכחות	-5348
ox	-5349
נז	-5350
נהג	-5351
נחה	-5352
▁35	-5353
▁191	-5354
▁במכ	-5355
▁מנק	-5356
▁תאי	-5357
חלטות	-5358
מטיקה	-5359
▁מביא	-5360
▁כלכלי	-5361
▁להסיר	-5362
▁שילוב	-5363
▁בינינו	-5364
▁השלטון	-5365
▁להצביע	-5366
▁המוזיאון	-5367
ליטו	-5368
▁מרת	-5369
▁לוקחים	-5370
▁מוסדות	-5371
בוא	-5372
וציה	-5373
שנים	-5374
▁ובס	-5375
▁טור	-5376
▁למט	-5377
▁שלח	-5378
▁וזאת	-5379
▁ילדה	-5380
▁מורה	-5381
▁הפוסט	-5382
▁לתפוס	-5383
▁בשבילך	-5384
▁השונות	-5385
▁עוברים	-5386
▁הכנסייה	-5387
לתה	-5388
טיבי	-5389
▁הקב	-5390
▁ופע	-5391
▁יפן	-5392
כליים	-5393
פריקה	-5394
▁ציוד	-5395
▁קשות	-5396
▁באיזה	-5397
▁יהודית	-5398
ER	-5399
אונה	-5400
אלית	-5401
מירה	-5402
▁אוי	-5403
▁לרי	-5404
▁קרן	-5405
▁אושר	-5406
▁הודו	-5407
▁חמאס	-5408
▁מוזר	-5409
▁נחמד	-5410
פיינים	-5411
▁בחירות	-5412
▁הייצור	-5413
▁המלכות	-5414
▁מדענים	-5415
?!	-5416
גב	-5417
-50	-5418
ass	-5419
חזר	-5420
רמו	-5421
▁הַ	-5422
בדות	-5423
ויים	-5424
ועדת	-5425
מותה	-5426
▁טען	-5427
▁מחו	-5428
▁מעי	-5429
ומנים	-5430
ועלים	-5431
▁יחיד	-5432
▁ירוק	-5433
▁מאמץ	-5434
▁הלידה	-5435
▁הליכה	-5436
▁חברתי	-5437
▁כוכבים	-5438
▁להגדיר	-5439
ילוסופיה	-5440
▁מעוניינים	-5441
פח	-5442
ליא	-5443
ערה	-5444
וארד	-5445
▁אינך	-5446
▁גירו	-5447
▁להיש	-5448
▁נועד	-5449
▁האינט	-5450
▁השתנה	-5451
▁עורכי	-5452
▁לכיוון	-5453
▁להרוויח	-5454
▁להט	-5455
מורים	-5456
▁צבאי	-5457
▁אזרחי	-5458
▁היומי	-5459
▁המורה	-5460
▁משחקי	-5461
▁תאריך	-5462
▁אישיות	-5463
▁בשירות	-5464
מוח	-5465
כתוב	-5466
מוני	-5467
▁כשמ	-5468
▁קופ	-5469
▁שכי	-5470
חקרים	-5471
▁חולה	-5472
▁יושב	-5473
וקיינו	-5474
▁אצלנו	-5475
▁לגדול	-5476
▁לפגוש	-5477
▁מהירה	-5478
▁בהצלחה	-5479
▁המועצה	-5480
▁ייחודי	-5481
▁כדורגל	-5482
▁מהירות	-5483
▁מעוניין	-5484
ip	-5485
זא	-5486
קח	-5487
ננו	-5488
ננת	-5489
קרו	-5490
רגן	-5491
▁יתק	-5492
▁כמי	-5493
▁עיי	-5494
▁במקור	-5495
▁הקדוש	-5496
▁רציני	-5497
▁יוצרים	-5498
ly	-5499
ond	-5500
איך	-5501
גית	-5502
▁השח	-5503
דרגות	-5504
▁2009	-5505
▁הכאב	-5506
▁יגיע	-5507
▁לשאת	-5508
▁מזמן	-5509
▁נעים	-5510
▁חיובי	-5511
▁כראוי	-5512
▁מוביל	-5513
▁מחשבה	-5514
▁מעלות	-5515
▁ועדיין	-5516
בלי	-5517
נציה	-5518
▁192	-5519
▁באש	-5520
▁בדם	-5521
▁התה	-5522
▁פיר	-5523
▁רגל	-5524
▁הכפר	-5525
▁יכלו	-5526
▁מחכה	-5527
▁הייתם	-5528
▁היקום	-5529
▁מסביר	-5530
▁קשרים	-5531
▁רלוונ	-5532
▁גבוהות	-5533
▁מתייחס	-5534
▁השינויים	-5535
3]	-5536
▁גן	-5537
▁דלק	-5538
▁הפא	-5539
▁התש	-5540
▁בימי	-5541
▁התרג	-5542
▁הצרפת	-5543
▁חירום	-5544
▁מסורת	-5545
▁רשימת	-5546
▁שתהיה	-5547
▁בוודאי	-5548
▁הגברים	-5549
▁השתמשו	-5550
▁האמיתית	-5551
▁הנוכחית	-5552
500	-5553
ace	-5554
וקס	-5555
tern	-5556
▁ייק	-5557
▁סוד	-5558
▁שנש	-5559
כוניות	-5560
▁במחיר	-5561
▁בפנים	-5562
▁לעקוב	-5563
▁הערבים	-5564
▁להתגבר	-5565
▁פרטיות	-5566
▁ציבורית	-5567
▁y	-5568
▁on	-5569
▁מתו	-5570
ודעות	-5571
נייני	-5572
▁הארו	-5573
▁המנו	-5574
▁לסרט	-5575
▁מודה	-5576
▁הכללי	-5577
▁ואולם	-5578
▁מוכנה	-5579
▁מוצלח	-5580
▁בטיחות	-5581
▁הבעלים	-5582
▁המערבי	-5583
▁באפשרות	-5584
▁המשתמשים	-5585
▁טכנולוגי	-5586
▁בינלאומית	-5587
4]	-5588
גרש	-5589
תיו	-5590
▁36	-5591
ment	-5592
▁500	-5593
▁אבו	-5594
▁במד	-5595
▁נהר	-5596
ומנות	-5597
▁חלקי	-5598
▁מבצע	-5599
▁מסוכ	-5600
▁מסור	-5601
▁שגור	-5602
▁עמוקה	-5603
▁תנאים	-5604
▁במלחמה	-5605
בסס	-5606
ולו	-5607
ושה	-5608
מתם	-5609
▁טה	-5610
▁ולג	-5611
▁יין	-5612
▁השלב	-5613
▁והנה	-5614
▁לבטל	-5615
▁מתכנ	-5616
▁צודק	-5617
rosoft	-5618
▁בגדים	-5619
▁בעבוד	-5620
▁האופן	-5621
▁המשרד	-5622
▁להגיש	-5623
▁עובדה	-5624
▁רוברט	-5625
▁מאמינה	-5626
▁מוזיאון	-5627
זן	-5628
טט	-5629
ith	-5630
חדש	-5631
גריה	-5632
▁הוח	-5633
▁לבו	-5634
יחסים	-5635
▁הבדל	-5636
▁שהתק	-5637
▁האימפ	-5638
▁לעצמך	-5639
▁בסגנון	-5640
▁להצלחה	-5641
▁להתאים	-5642
▁סובלים	-5643
▁יתרונות	-5644
און	-5645
ונך	-5646
▁לשו	-5647
▁מצח	-5648
▁מתה	-5649
▁2007	-5650
▁החדר	-5651
▁מבני	-5652
▁קראו	-5653
▁הכנסה	-5654
▁הקטנה	-5655
▁לשכוח	-5656
▁מאחור	-5657
▁הקרובה	-5658
▁לבריאות	-5659
ופס	-5660
▁re	-5661
פלומ	-5662
▁באל	-5663
▁מנכ	-5664
▁מנצ	-5665
▁עוק	-5666
▁שהג	-5667
▁אסיה	-5668
▁להור	-5669
▁לילד	-5670
▁מחוז	-5671
▁שרוב	-5672
▁חיבור	-5673
▁לחוות	-5674
▁תינוק	-5675
▁באיכות	-5676
▁ההצלחה	-5677
▁להתמקד	-5678
בני	-5679
וגרפ	-5680
▁מזו	-5681
▁מרק	-5682
ביעית	-5683
דברים	-5684
▁המבו	-5685
▁לזמן	-5686
▁כשהיא	-5687
▁רשמית	-5688
▁שיותר	-5689
▁התגובה	-5690
IS	-5691
-11	-5692
ory	-5693
▁Le	-5694
סיבה	-5695
סקנה	-5696
▁ישן	-5697
דושים	-5698
▁הזהב	-5699
▁נמשך	-5700
▁האנטי	-5701
▁השיער	-5702
▁למספר	-5703
▁מכירה	-5704
▁עבורי	-5705
▁שנראה	-5706
▁מבקשים	-5707
▁תינוקות	-5708
שט	-5709
▁v	-5710
חין	-5711
ילי	-5712
▁Cl	-5713
▁וו	-5714
▁שפת	-5715
▁האחר	-5716
▁הידי	-5717
▁חלום	-5718
▁סדרת	-5719
באנגלית	-5720
▁ישראלי	-5721
▁החברתית	-5722
אדם	-5723
פוח	-5724
-198	-5725
לונה	-5726
מורת	-5727
▁בוט	-5728
▁חור	-5729
ופעות	-5730
▁(200	-5731
▁2000	-5732
▁2008	-5733
▁אופי	-5734
▁בפרס	-5735
▁דעות	-5736
▁אימון	-5737
▁החודש	-5738
▁לאחור	-5739
▁התמיכה	-5740
▁שואלים	-5741
▁התנגדות	-5742
pt	-5743
ברך	-5744
ולל	-5745
לכה	-5746
מוי	-5747
עתה	-5748
▁כס	-5749
▁לחס	-5750
▁משע	-5751
▁ענה	-5752
▁ערו	-5753
ודאות	-5754
כנסות	-5755
▁לתאר	-5756
▁משבר	-5757
▁הרשות	-5758
▁זמנית	-5759
▁יעילה	-5760
וליטיקה	-5761
▁יחידות	-5762
▁לדמיין	-5763
▁המקומית	-5764
IC	-5765
לוס	-5766
▁תן	-5767
יציה	-5768
▁הנח	-5769
▁לוב	-5770
▁מסך	-5771
▁קיר	-5772
▁דגים	-5773
▁המסר	-5774
▁כוכב	-5775
▁עברה	-5776
▁אובמה	-5777
▁הכולל	-5778
▁ישירה	-5779
▁עלייה	-5780
▁הדרכים	-5781
▁להעניק	-5782
▁להעריך	-5783
▁מספקים	-5784
▁האלקטרו	-5785
▁הציבורי	-5786
▁מצליחים	-5787
מאי	-5788
מנט	-5789
ספו	-5790
קוד	-5791
▁ארי	-5792
▁ונת	-5793
▁ניי	-5794
▁פתח	-5795
▁בשדה	-5796
▁הכרי	-5797
▁הנדר	-5798
▁הפלי	-5799
▁הקשה	-5800
▁לממש	-5801
▁הערכה	-5802
▁הקודמת	-5803
▁מוגבלת	-5804
▁השיניים	-5805
▁להיראות	-5806
נתו	-5807
גיון	-5808
▁בצע	-5809
▁דרי	-5810
▁האנ	-5811
▁הונ	-5812
▁הסבר	-5813
▁ישנו	-5814
▁לברוח	-5815
▁מטרים	-5816
▁בתחילה	-5817
▁התנאים	-5818
▁ידידות	-5819
▁משותפת	-5820
▁הישראלים	-5821
דף	-5822
-13	-5823
ite	-5824
▁בקט	-5825
▁ממע	-5826
▁שיח	-5827
בירים	-5828
דויות	-5829
▁המסע	-5830
▁והכל	-5831
▁למדע	-5832
▁משול	-5833
▁בהקשר	-5834
▁משפיע	-5835
▁שאלתי	-5836
▁ממשיכה	-5837
▁זע	-5838
▁סו	-5839
▁והט	-5840
▁נבח	-5841
▁רבי	-5842
טיסטי	-5843
קידים	-5844
▁הפרק	-5845
▁מעשי	-5846
▁נבנה	-5847
▁סמכות	-5848
▁הרביעי	-5849
▁סימנים	-5850
AS	-5851
az	-5852
ik	-5853
חזק	-5854
ממה	-5855
▁לְ	-5856
-197	-5857
וצמה	-5858
יחוד	-5859
מתין	-5860
▁השר	-5861
▁טיי	-5862
רכנים	-5863
▁(201	-5864
▁יוסף	-5865
▁כתבה	-5866
▁לגוף	-5867
▁נפתח	-5868
▁סטוד	-5869
קרונות	-5870
▁מעדיף	-5871
▁מעורב	-5872
▁הגורמים	-5873
▁החשובים	-5874
▁אוסטרליה	-5875
15	-5876
ide	-5877
oin	-5878
דין	-5879
כלל	-5880
▁Pr	-5881
▁בנה	-5882
▁כשל	-5883
▁מכת	-5884
▁עזר	-5885
▁תיע	-5886
וסקים	-5887
▁מחלת	-5888
▁נפלא	-5889
▁שיטת	-5890
▁פירות	-5891
▁ארוכות	-5892
▁החוקים	-5893
▁הפרטים	-5894
▁למטרות	-5895
▁רגילים	-5896
▁שעדיין	-5897
▁מקומיים	-5898
4)	-5899
aw	-5900
▁ער	-5901
ולית	-5902
יינת	-5903
פואה	-5904
▁בתא	-5905
▁כני	-5906
▁מפר	-5907
▁נבד	-5908
▁עיו	-5909
▁רוק	-5910
ודיעה	-5911
וריים	-5912
יימות	-5913
▁לרוץ	-5914
▁מודל	-5915
▁ממשל	-5916
▁מציג	-5917
▁ערים	-5918
▁בניית	-5919
▁בשעות	-5920
▁ואחרי	-5921
▁מזכיר	-5922
▁ממוקם	-5923
▁פגיעה	-5924
▁הצרכים	-5925
▁לעצמכם	-5926
▁פרטיים	-5927
age	-5928
ודר	-5929
טוח	-5930
לוג	-5931
▁זי	-5932
▁הקו	-5933
▁ואח	-5934
▁יוז	-5935
מיוחד	-5936
פלסטי	-5937
▁בעלה	-5938
▁יצאו	-5939
▁לקרי	-5940
▁שיחה	-5941
▁האחים	-5942
▁המשבר	-5943
▁הערים	-5944
▁וכיצד	-5945
▁הביטוח	-5946
▁הביטוי	-5947
▁הוראות	-5948
te	-5949
ודיה	-5950
יתות	-5951
שמים	-5952
▁הצפ	-5953
▁זול	-5954
▁מיה	-5955
▁המערב	-5956
▁נקודה	-5957
▁ערכים	-5958
▁חופשית	-5959
ES	-5960
והר	-5961
▁ובח	-5962
▁ותר	-5963
▁חום	-5964
▁שמר	-5965
▁שקר	-5966
▁בנסי	-5967
▁הקפי	-5968
▁נתון	-5969
▁במובן	-5970
▁הצבאי	-5971
▁ייעוץ	-5972
▁לשרוד	-5973
▁לתרום	-5974
▁קראתי	-5975
▁האסטרט	-5976
▁ולהיות	-5977
▁לפיתוח	-5978
▁לאלוהים	-5979
▁להתקיים	-5980
▁הסטודנטים	-5981
-"	-5982
io	-5983
ork	-5984
וזן	-5985
מעו	-5986
זיות	-5987
לחתי	-5988
▁אבות	-5989
▁הצבע	-5990
▁נגמר	-5991
▁עלות	-5992
▁שבעה	-5993
▁המעבר	-5994
▁להגיב	-5995
▁עבודתו	-5996
▁ציבורי	-5997
▁דוגמאות	-5998
▁הצעירים	-5999
▁e	-6000
ונן	-6001
חיש	-6002
טלר	-6003
ניע	-6004
קיף	-6005
▁אֶ	-6006
ליאם	-6007
סוקה	-6008
▁התמ	-6009
▁שיצ	-6010
וחרים	-6011
טיפול	-6012
▁אהיה	-6013
▁אורג	-6014
▁דובר	-6015
▁הישן	-6016
▁הפחד	-6017
▁הסתיי	-6018
▁מייקל	-6019
▁שיחות	-6020
וסטרליה	-6021
▁רופאים	-6022
▁אוטומטי	-6023
▁מקצועית	-6024
▁עקרונות	-6025
▁Microsoft	-6026
oy	-6027
כמו	-6028
מעת	-6029
▁5.	-6030
▁קמ	-6031
ביעת	-6032
גידו	-6033
וגיה	-6034
שמיות	-6035
▁הביא	-6036
▁הנפט	-6037
▁ובני	-6038
▁מסיי	-6039
▁אברהם	-6040
▁השחקן	-6041
▁מתרחש	-6042
▁תכנון	-6043
▁בריאים	-6044
▁הזמנים	-6045
▁מסמכים	-6046
▁אלקטרוני	-6047
לאי	-6048
לכת	-6049
▁והנ	-6050
▁הכוו	-6051
▁לשנה	-6052
▁תגית	-6053
▁תעשה	-6054
▁חשיבה	-6055
▁ליותר	-6056
▁למחרת	-6057
▁מוגבל	-6058
▁מצאתי	-6059
▁נתוני	-6060
▁בתפקיד	-6061
▁טוענים	-6062
▁ליצירת	-6063
▁הכוכבים	-6064
▁המודרנית	-6065
ics	-6066
ארי	-6067
והה	-6068
▁45	-6069
חדים	-6070
ליהם	-6071
▁בוו	-6072
▁ההפ	-6073
▁התר	-6074
▁זור	-6075
▁נפת	-6076
▁שער	-6077
רופות	-6078
▁בכלא	-6079
▁מערב	-6080
▁עירו	-6081
▁הארוך	-6082
▁הכבוד	-6083
▁הרשמי	-6084
▁נמצאו	-6085
▁תנועת	-6086
▁בדרכים	-6087
▁הכללית	-6088
▁להופיע	-6089
▁באמריקה	-6090
18	-6091
ארץ	-6092
▁En	-6093
▁He	-6094
▁Is	-6095
▁פסק	-6096
▁הנשק	-6097
▁השעה	-6098
▁ואחד	-6099
▁כאחד	-6100
▁שוחר	-6101
▁אלבום	-6102
▁המקרה	-6103
▁הפרטי	-6104
▁ראיות	-6105
▁תוכנה	-6106
▁באזורים	-6107
▁המרכזית	-6108
▁פייסבוק	-6109
17	-6110
▁=	-6111
ציע	-6112
▁בהס	-6113
▁דוח	-6114
▁מגע	-6115
▁מית	-6116
▁נמל	-6117
▁שהק	-6118
▁שנפ	-6119
אטרון	-6120
▁בקרי	-6121
▁הטכנ	-6122
▁והאי	-6123
▁לשרת	-6124
▁מצבי	-6125
▁קיום	-6126
▁חזקים	-6127
▁למידה	-6128
▁מומחה	-6129
▁תמורת	-6130
▁ארגוני	-6131
▁במצרים	-6132
▁הפנימי	-6133
▁מסוגלת	-6134
▁תושבים	-6135
▁המחירים	-6136
▁האירועים	-6137
.)	-6138
אפ	-6139
ber	-6140
ביד	-6141
▁0.	-6142
▁Man	-6143
▁בלה	-6144
▁ישו	-6145
▁מהק	-6146
▁קהל	-6147
▁רומ	-6148
גוריה	-6149
▁גבול	-6150
▁לארו	-6151
▁להתי	-6152
▁מבטי	-6153
▁לעתיד	-6154
▁הבניין	-6155
▁חוזרים	-6156
▁להתקדם	-6157
▁התעשייה	-6158
▁הפוליטית	-6159
AR	-6160
uc	-6161
-14	-6162
-100	-6163
▁לאף	-6164
▁אליי	-6165
▁אתרי	-6166
▁המזל	-6167
▁השטן	-6168
▁וחלק	-6169
▁נייר	-6170
▁רחבה	-6171
▁הכרחי	-6172
▁כעבור	-6173
▁מרוצה	-6174
▁העסקים	-6175
▁שותפים	-6176
▁בטלוויזיה	-6177
AT	-6178
טיס	-6179
▁29	-6180
זינו	-6181
▁אוג	-6182
▁בוצ	-6183
בועות	-6184
וריון	-6185
▁אורח	-6186
▁אורך	-6187
▁דיון	-6188
▁דירה	-6189
▁יומי	-6190
▁אמורה	-6191
▁בתחומי	-6192
▁קיבלתי	-6193
▁שבועיים	-6194
BC	-6195
ence	-6196
גורר	-6197
ישון	-6198
▁לקה	-6199
▁הלחץ	-6200
▁יעקב	-6201
▁כשהי	-6202
▁הודות	-6203
▁השמאל	-6204
▁חיוני	-6205
▁למדתי	-6206
▁לשלום	-6207
▁שנמצא	-6208
▁הצליחה	-6209
▁התחרות	-6210
▁זוכרים	-6211
▁הרשויות	-6212
ֶר	-6213
בתם	-6214
▁On	-6215
▁Sc	-6216
בונן	-6217
כרות	-6218
מרות	-6219
▁One	-6220
▁ושא	-6221
▁מעצ	-6222
▁נוע	-6223
טיבית	-6224
שובים	-6225
▁לחדר	-6226
▁מטעם	-6227
▁נוער	-6228
▁קובע	-6229
▁רובם	-6230
▁לאסוף	-6231
▁למוות	-6232
▁מצפים	-6233
▁סליחה	-6234
▁פועלת	-6235
▁צמיחה	-6236
▁ארוכים	-6237
▁הסינית	-6238
▁לדוגמא	-6239
▁להזמין	-6240
▁מבקרים	-6241
▁מוסיקה	-6242
▁מתאימה	-6243
▁התקדמות	-6244
▁טכנולוגיות	-6245
pr	-6246
גרה	-6247
דוד	-6248
▁עכ	-6249
זמים	-6250
יעין	-6251
ספיק	-6252
▁דיי	-6253
▁המר	-6254
▁משכ	-6255
▁עות	-6256
▁שנג	-6257
▁תוא	-6258
ציבות	-6259
▁בכתב	-6260
▁הסוף	-6261
▁ועדת	-6262
▁יולי	-6263
▁לדרך	-6264
▁לשיר	-6265
▁מהמש	-6266
▁במאמר	-6267
▁המקדש	-6268
▁זוכרת	-6269
▁יתרון	-6270
▁מבטיח	-6271
▁נוחות	-6272
וקיינוס	-6273
▁בשיתוף	-6274
▁הכיבוש	-6275
▁המכשיר	-6276
▁הקטנים	-6277
▁במציאות	-6278
▁בפייסבוק	-6279
7%	-6280
ְר	-6281
!!!	-6282
ומץ	-6283
טוף	-6284
▁80	-6285
נסון	-6286
עימה	-6287
צרות	-6288
שארו	-6289
▁בשו	-6290
▁הגז	-6291
▁נסו	-6292
▁ציל	-6293
▁הכלל	-6294
▁להקל	-6295
▁מתים	-6296
▁התוכן	-6297
▁חיינו	-6298
▁קונים	-6299
▁שאינה	-6300
▁מנהלים	-6301
▁קרובים	-6302
▁המקורית	-6303
▁הקומוני	-6304
▁המשתתפים	-6305
▁פוטנציאל	-6306
16	-6307
גוג	-6308
לטת	-6309
ריו	-6310
▁קב	-6311
▁האס	-6312
▁סחר	-6313
▁גילו	-6314
▁הפרס	-6315
▁טיסה	-6316
▁נפרד	-6317
▁עשיר	-6318
▁עשתה	-6319
▁פוסט	-6320
▁העברת	-6321
▁לשחרר	-6322
▁משימה	-6323
▁המקומי	-6324
▁הספורט	-6325
▁התחילו	-6326
▁להרחיב	-6327
▁החיילים	-6328
2%	-6329
ומק	-6330
וצרת	-6331
נטון	-6332
▁אטר	-6333
▁ברק	-6334
▁לבל	-6335
▁ממצ	-6336
▁עין	-6337
▁ריצ	-6338
▁תשל	-6339
צבעות	-6340
▁איום	-6341
▁ההול	-6342
▁המבט	-6343
▁הצער	-6344
▁יבוא	-6345
▁לכמה	-6346
▁קנדה	-6347
▁שייך	-6348
▁שמאל	-6349
▁בצורת	-6350
▁מאתנו	-6351
▁מפתיע	-6352
▁סטנדר	-6353
▁צעירה	-6354
▁קהילה	-6355
▁המסורת	-6356
▁הנקודה	-6357
▁ממליצים	-6358
▁מסכימים	-6359
+]	-6360
CD	-6361
IT	-6362
קנה	-6363
▁70	-6364
דושה	-6365
▁שפע	-6366
וריהם	-6367
▁ברמת	-6368
▁הסדר	-6369
▁הראו	-6370
▁שהשת	-6371
▁המטוס	-6372
▁המראה	-6373
▁לשכנע	-6374
▁מפלגת	-6375
▁צורות	-6376
▁אפשרית	-6377
▁בהריון	-6378
▁בתוכנית	-6379
▁המקומות	-6380
ברא	-6381
דעו	-6382
חתת	-6383
ילית	-6384
▁[+]	-6385
▁בבת	-6386
ולדות	-6387
ישראל	-6388
▁אוסף	-6389
▁המסך	-6390
▁הערה	-6391
▁הקפה	-6392
▁ולמה	-6393
▁טיול	-6394
▁לארה	-6395
▁עשית	-6396
▁שותף	-6397
▁אחריו	-6398
▁הדיון	-6399
▁הוקמה	-6400
▁השיטה	-6401
▁לנקוט	-6402
▁מוזיק	-6403
▁במדינת	-6404
▁בממוצע	-6405
▁הקרובים	-6406
▁הרגליים	-6407
IV	-6408
אהב	-6409
נמי	-6410
וגות	-6411
לונן	-6412
לקות	-6413
מלכה	-6414
שמות	-6415
▁ההד	-6416
▁הות	-6417
▁הנת	-6418
▁שנא	-6419
▁גוגל	-6420
▁עסקי	-6421
▁קווי	-6422
▁בדיקת	-6423
▁ידיים	-6424
▁לבלות	-6425
▁מסיבה	-6426
▁עצמאי	-6427
▁צבאית	-6428
▁רשתות	-6429
▁החוויה	-6430
▁הערבית	-6431
▁יעילות	-6432
▁להכניס	-6433
▁עולמית	-6434
▁האישיים	-6435
▁השירותים	-6436
מב	-6437
צעה	-6438
תפו	-6439
▁פו	-6440
בירו	-6441
געים	-6442
גשים	-6443
יימו	-6444
עתים	-6445
▁ברג	-6446
▁וצי	-6447
▁טרם	-6448
▁שמק	-6449
▁איני	-6450
▁האחד	-6451
▁חסרי	-6452
▁מפור	-6453
▁כניסה	-6454
▁מבינה	-6455
▁פנימה	-6456
▁שמחים	-6457
▁המחשבה	-6458
▁טעויות	-6459
▁משפחתי	-6460
▁המודרני	-6461
▁שאלוהים	-6462
80	-6463
כית	-6464
חילה	-6465
מותו	-6466
עדון	-6467
שבות	-6468
▁ומג	-6469
▁חיס	-6470
▁שגי	-6471
▁בכיר	-6472
▁גילה	-6473
▁חסרת	-6474
▁תחנת	-6475
▁בטווח	-6476
▁חוזרת	-6477
▁שיהיו	-6478
▁אישיים	-6479
▁התרופה	-6480
▁מבוססת	-6481
▁הזיכרון	-6482
▁מעורבים	-6483
▁פופולרי	-6484
▁האמריקאים	-6485
IN	-6486
pe	-6487
טוס	-6488
ליי	-6489
▁de	-6490
▁מרג	-6491
▁האות	-6492
▁להלן	-6493
▁עדות	-6494
▁בגודל	-6495
▁לחשוף	-6496
▁למידע	-6497
▁למשחק	-6498
▁לרבות	-6499
▁עובדי	-6500
▁דרישות	-6501
ang	-6502
רוט	-6503
כתבו	-6504
▁אדי	-6505
▁הפה	-6506
▁לנת	-6507
רגיות	-6508
▁בחרו	-6509
▁הורה	-6510
▁היוו	-6511
▁העצמ	-6512
▁הפור	-6513
▁החורף	-6514
▁המאבק	-6515
▁השואה	-6516
▁ערבים	-6517
▁פתוחה	-6518
▁אמורים	-6519
▁להקשיב	-6520
▁לשירות	-6521
▁פסיכולוג	-6522
ָר	-6523
ish	-6524
מרק	-6525
וזים	-6526
קנים	-6527
▁גמי	-6528
▁לנג	-6529
אידים	-6530
ווירה	-6531
▁מובן	-6532
▁מעין	-6533
▁מתאר	-6534
▁הכביש	-6535
▁ידועה	-6536
▁לאזור	-6537
▁מימון	-6538
▁מעניי	-6539
▁המטופל	-6540
▁השקעות	-6541
▁צריכות	-6542
▁מיומנויות	-6543
3%	-6544
4%	-6545
הס	-6546
ודע	-6547
פשט	-6548
סתכל	-6549
תיבת	-6550
▁אכז	-6551
▁לקי	-6552
▁שחר	-6553
▁ההוא	-6554
▁המדי	-6555
▁הסכי	-6556
▁הרוב	-6557
▁ליבר	-6558
▁מטוס	-6559
▁מסוב	-6560
▁בדומה	-6561
▁האויב	-6562
▁המיוח	-6563
▁המשטר	-6564
▁לכלול	-6565
▁לעצמם	-6566
▁פיזית	-6567
שינגטון	-6568
▁הידיים	-6569
▁הרשימה	-6570
▁השולחן	-6571
▁חלומות	-6572
▁הכלכלית	-6573
9%	-6574
אמה	-6575
ומך	-6576
ווין	-6577
קאות	-6578
▁לאת	-6579
▁מפי	-6580
▁משך	-6581
▁קיץ	-6582
גיעים	-6583
▁המוכ	-6584
▁הנור	-6585
▁לקוח	-6586
▁פארק	-6587
▁ברירה	-6588
▁הצעות	-6589
▁השקעה	-6590
▁צבעים	-6591
▁דוקטור	-6592
▁הנסיעה	-6593
▁זמינים	-6594
▁קשורים	-6595
▁בסביבות	-6596
8%	-6597
AN	-6598
בך	-6599
איד	-6600
פסת	-6601
ריס	-6602
olog	-6603
וניה	-6604
▁מהצ	-6605
▁עצם	-6606
▁שגר	-6607
בירות	-6608
▁2006	-6609
▁המתאי	-6610
▁למשוך	-6611
▁פורסם	-6612
▁תקציב	-6613
▁באוויר	-6614
▁עלויות	-6615
PS	-6616
ts	-6617
ְּ	-6618
אנ	-6619
ופק	-6620
זוק	-6621
זכר	-6622
ical	-6623
orld	-6624
זהרה	-6625
▁אוס	-6626
▁אתן	-6627
▁התנ	-6628
▁טקס	-6629
▁שקל	-6630
▁בבני	-6631
▁בחור	-6632
▁הייח	-6633
▁מאוב	-6634
▁מבחן	-6635
▁סוכר	-6636
▁עמית	-6637
▁שחלק	-6638
▁בחירת	-6639
▁השיחה	-6640
▁כספים	-6641
▁לרשות	-6642
▁שלפני	-6643
▁בהדרגה	-6644
▁הסרטים	-6645
▁מאמרים	-6646
▁חשבונות	-6647
▁פוליטיים	-6648
ary	-6649
טול	-6650
כיא	-6651
נדו	-6652
▁Me	-6653
לוקת	-6654
▁הנכ	-6655
▁רעי	-6656
בונות	-6657
▁מפות	-6658
▁נפטר	-6659
▁נקבע	-6660
▁שומע	-6661
▁בריאה	-6662
▁ברשות	-6663
▁המשיח	-6664
▁השחור	-6665
▁כשאתם	-6666
▁לשקול	-6667
▁מעטים	-6668
▁המכונה	-6669
▁וכמובן	-6670
▁להתעלם	-6671
▁היסטורי	-6672
▁פוטנציא	-6673
לף	-6674
גנו	-6675
▁2,	-6676
בטים	-6677
▁דרמ	-6678
▁חבל	-6679
▁תוק	-6680
תרבות	-6681
▁אידי	-6682
▁בהתח	-6683
▁הוגן	-6684
▁סדרה	-6685
▁רחוב	-6686
▁המבוס	-6687
▁יהודה	-6688
▁ללבוש	-6689
▁מיקום	-6690
▁מראים	-6691
▁קריאה	-6692
▁ראינו	-6693
▁תיקון	-6694
▁הפיתוח	-6695
▁לעצמנו	-6696
▁פעילים	-6697
▁הזכויות	-6698
▁הצהריים	-6699
▁פרופסור	-6700
▁אמריקאים	-6701
7)	-6702
DA	-6703
ונק	-6704
כיל	-6705
אבים	-6706
איפה	-6707
טרון	-6708
▁ההר	-6709
▁הכר	-6710
▁ורי	-6711
▁מתג	-6712
▁קצב	-6713
כויים	-6714
סטיות	-6715
▁בראי	-6716
▁זמני	-6717
▁חנות	-6718
▁עמדת	-6719
▁שהתח	-6720
▁אנושי	-6721
▁לעורר	-6722
▁שלאחר	-6723
▁בטלפון	-6724
▁הכוללת	-6725
▁הרוסית	-6726
▁למערכת	-6727
▁קריירה	-6728
▁הפליטים	-6729
לוח	-6730
ספס	-6731
▁חב	-6732
וקות	-6733
לטות	-6734
למיד	-6735
ניעת	-6736
▁אשה	-6737
▁בים	-6738
▁הרס	-6739
▁ומב	-6740
▁פוט	-6741
נסיות	-6742
ראינה	-6743
▁ביפן	-6744
▁בקצב	-6745
▁בשקט	-6746
▁הירי	-6747
▁הלוח	-6748
▁חוזה	-6749
▁לעיל	-6750
▁מניח	-6751
▁נעלם	-6752
▁ספרד	-6753
▁במערב	-6754
▁בעצמך	-6755
▁המוני	-6756
▁לפרסם	-6757
▁ממוצע	-6758
▁שהופך	-6759
▁תלמיד	-6760
▁במלחמת	-6761
▁החלטתי	-6762
▁הביניים	-6763
▁הבריטית	-6764
▁המועצות	-6765
▁המספרים	-6766
-]	-6767
9)	-6768
ky	-6769
ach	-6770
man	-6771
בוט	-6772
וער	-6773
יתן	-6774
נצח	-6775
סין	-6776
דווח	-6777
ערות	-6778
שירי	-6779
▁Off	-6780
▁הון	-6781
▁פיל	-6782
גריות	-6783
▁זיהום	-6784
▁שהגיע	-6785
▁שתמיד	-6786
▁בקבוצה	-6787
▁הודיעה	-6788
▁להבחין	-6789
▁למלחמה	-6790
▁משאבים	-6791
▁תשובות	-6792
▁הניסיון	-6793
▁הפרטיות	-6794
▁הפוטנציאל	-6795
":	-6796
atch	-6797
כיים	-6798
ציית	-6799
▁היפ	-6800
▁אחיו	-6801
▁המוג	-6802
▁נדיר	-6803
▁צורת	-6804
▁בעיית	-6805
▁הכלים	-6806
▁הריון	-6807
▁התחיי	-6808
▁לסבול	-6809
▁מחזור	-6810
▁מניות	-6811
▁בפיתוח	-6812
▁מוכרים	-6813
▁מחשבים	-6814
▁מנקודת	-6815
▁בפעילות	-6816
▁התושבים	-6817
▁שיכולים	-6818
בדת	-6819
חתו	-6820
▁פש	-6821
▁צפ	-6822
ound	-6823
▁New	-6824
▁גיא	-6825
▁ולו	-6826
▁לעד	-6827
▁מחז	-6828
▁עדן	-6829
וצרות	-6830
▁בגין	-6831
▁הדעת	-6832
▁למעט	-6833
▁המיני	-6834
▁להרוס	-6835
▁מחירי	-6836
▁מיידי	-6837
▁צריכת	-6838
▁תצטרך	-6839
▁תרגום	-6840
▁בבירור	-6841
▁במשפחה	-6842
▁חנויות	-6843
▁להתחבר	-6844
▁לתקופה	-6845
▁התרופות	-6846
5)	-6847
]]	-6848
ah	-6849
ens	-6850
oun	-6851
ברס	-6852
לאת	-6853
מצן	-6854
תיחה	-6855
▁[-]	-6856
▁בהש	-6857
▁ביה	-6858
▁הבת	-6859
▁הכפ	-6860
▁הקר	-6861
▁ועי	-6862
▁יוש	-6863
▁שרה	-6864
וסיית	-6865
טיחות	-6866
נהלות	-6867
נטיים	-6868
▁דיוק	-6869
▁ואחר	-6870
▁ובמק	-6871
▁למנה	-6872
▁מורי	-6873
▁נרחב	-6874
▁שאלו	-6875
▁תערו	-6876
▁בחורה	-6877
▁בפריז	-6878
▁דניאל	-6879
▁הבורא	-6880
▁לחסוך	-6881
▁לסמוך	-6882
▁לערוך	-6883
▁תוספת	-6884
▁המתאים	-6885
▁מורכבת	-6886
▁הגרמנים	-6887
▁הרופאים	-6888
ove	-6889
ron	-6890
ולק	-6891
נדס	-6892
ביעו	-6893
ינות	-6894
▁הנד	-6895
▁העל	-6896
▁זרי	-6897
רכישה	-6898
▁העין	-6899
▁הצעת	-6900
▁הכרטי	-6901
▁שולחן	-6902
▁שנערך	-6903
בולוציה	-6904
▁אנגליה	-6905
▁מלאכות	-6906
▁אמיתיים	-6907
▁האנגלית	-6908
▁המפורסם	-6909
▁ליהודים	-6910
▁משקיעים	-6911
▁לתלמידים	-6912
6)	-6913
").	-6914
-25	-6915
פרק	-6916
מעשה	-6917
צועה	-6918
▁בבל	-6919
▁ויא	-6920
▁צמח	-6921
▁זוכה	-6922
▁זכתה	-6923
▁יקבל	-6924
▁לאלה	-6925
▁למשת	-6926
▁מדוי	-6927
▁ערבי	-6928
▁בנייה	-6929
▁הרוסי	-6930
▁להורג	-6931
▁למרכז	-6932
▁לעודד	-6933
▁מצבים	-6934
▁מקומי	-6935
▁שמירה	-6936
מפרטורה	-6937
▁בסיכון	-6938
▁בסיפור	-6939
▁ההריון	-6940
▁הוצאות	-6941
▁להתרחש	-6942
▁שמדובר	-6943
ee	-6944
ֶה	-6945
וחח	-6946
ספת	-6947
▁As	-6948
וונת	-6949
כנסה	-6950
ליכי	-6951
▁מאר	-6952
▁תפי	-6953
זרחים	-6954
קיפות	-6955
שיאות	-6956
▁2020	-6957
▁חמור	-6958
▁חרדה	-6959
▁ימין	-6960
▁לשוק	-6961
▁מרגש	-6962
▁תאים	-6963
▁איזון	-6964
▁נהדרת	-6965
▁שהאדם	-6966
▁אזורים	-6967
▁בקיצור	-6968
▁המטרות	-6969
▁הניתוח	-6970
▁שרוצים	-6971
▁המבקרים	-6972
▁חברתיים	-6973
▁לזכויות	-6974
▁האמריקנית	-6975
ax	-6976
צג	-6977
ail	-6978
דיף	-6979
וכח	-6980
נרל	-6981
▁".	-6982
חזיק	-6983
כונת	-6984
מעלה	-6985
צבעה	-6986
▁אפל	-6987
▁ביר	-6988
▁קחו	-6989
אמריק	-6990
ליפות	-6991
מליים	-6992
נדבים	-6993
פויות	-6994
▁בחלל	-6995
▁הקיצ	-6996
▁והמו	-6997
▁לחבר	-6998
▁מאבק	-6999
▁ציון	-7000
▁שיטה	-7001
▁החלום	-7002
▁החשמל	-7003
▁המחוז	-7004
▁הנשמה	-7005
▁מכשיר	-7006
▁בדברים	-7007
▁הצמיחה	-7008
▁טורקיה	-7009
▁לשיפור	-7010
▁תחבורה	-7011
▁חברתיות	-7012
עק	-7013
ick	-7014
אינ	-7015
חקו	-7016
כללה	-7017
▁איכ	-7018
▁יוח	-7019
אונות	-7020
▁אתגר	-7021
▁התיא	-7022
▁חוות	-7023
▁לדון	-7024
▁לידה	-7025
▁המנהל	-7026
▁מדברת	-7027
▁קולות	-7028
▁ברוסיה	-7029
▁הגיוני	-7030
▁הרפואי	-7031
▁שאמרתי	-7032
▁כשאנחנו	-7033
1)	-7034
OS	-7035
act	-7036
אמץ	-7037
יין	-7038
ילר	-7039
ניב	-7040
פכו	-7041
רגו	-7042
חינה	-7043
ידום	-7044
▁והב	-7045
▁ופי	-7046
▁לתע	-7047
▁מהב	-7048
▁עזב	-7049
▁עמי	-7050
▁רעב	-7051
לקטוא	-7052
שרדות	-7053
▁אדרי	-7054
▁ברזל	-7055
▁הצעד	-7056
▁והאם	-7057
▁והבי	-7058
▁מלכת	-7059
▁מערי	-7060
▁ניכר	-7061
▁נעצר	-7062
▁שכתב	-7063
▁הרווח	-7064
▁סגנון	-7065
ולוגיים	-7066
יכרונות	-7067
▁אלוקים	-7068
▁בטיפול	-7069
▁הדיגיט	-7070
▁המפורס	-7071
▁הפרסום	-7072
▁המכירות	-7073
▁מטופלים	-7074
2)	-7075
ֹת	-7076
דא	-7077
למד	-7078
נואר	-7079
עולם	-7080
▁החר	-7081
▁לוי	-7082
▁שפי	-7083
▁בחוק	-7084
▁יסוד	-7085
▁ליישם	-7086
▁למשהו	-7087
▁לסגור	-7088
▁מסלול	-7089
▁עליהן	-7090
▁הבנייה	-7091
▁ההודעה	-7092
▁השירים	-7093
▁חשובות	-7094
▁מושלמת	-7095
▁קולנוע	-7096
לש	-7097
'".	-7098
ild	-7099
אתר	-7100
וזר	-7101
יתר	-7102
קרה	-7103
▁8.	-7104
אווה	-7105
טציה	-7106
▁מלו	-7107
▁דרכו	-7108
▁ונית	-7109
▁לחזק	-7110
▁מתמק	-7111
▁פורט	-7112
▁שולח	-7113
ובוסים	-7114
ומטרים	-7115
▁המוסי	-7116
▁טבעית	-7117
▁לחלוק	-7118
▁נשימה	-7119
▁סוכרת	-7120
▁עולמי	-7121
▁צפויה	-7122
▁הגרמני	-7123
▁בתחומים	-7124
▁הקבוצות	-7125
8)	-7126
rom	-7127
ייץ	-7128
אוכל	-7129
ריית	-7130
▁דוב	-7131
▁שלג	-7132
▁דואר	-7133
▁הסחר	-7134
▁יהוה	-7135
▁שהכל	-7136
▁תראה	-7137
טיבציה	-7138
▁בניין	-7139
▁המולד	-7140
▁כללית	-7141
▁מורים	-7142
▁ראייה	-7143
▁שרוצה	-7144
▁יומיים	-7145
▁יצירות	-7146
▁לניהול	-7147
▁עבורכם	-7148
▁האלוהים	-7149
וניברסיטאות	-7150
ix	-7151
ולן	-7152
סמה	-7153
צתי	-7154
רופ	-7155
בטחת	-7156
וכית	-7157
ספור	-7158
▁190	-7159
▁חוס	-7160
▁תשע	-7161
לומים	-7162
▁אומץ	-7163
▁באחת	-7164
▁המזו	-7165
▁הרחב	-7166
▁והתח	-7167
▁נתנו	-7168
▁תומך	-7169
▁אליכם	-7170
▁העצמי	-7171
▁טיפים	-7172
▁ילדות	-7173
▁מייצג	-7174
▁נותרו	-7175
▁פירוש	-7176
▁פרנסי	-7177
▁קידום	-7178
▁רביעי	-7179
▁שאינן	-7180
▁תועלת	-7181
▁תזונה	-7182
▁בכיוון	-7183
▁האישית	-7184
▁הבנקים	-7185
▁ויטמין	-7186
▁מדהימה	-7187
▁מהווים	-7188
▁מוחלטת	-7189
▁פיננסי	-7190
▁האפשרויות	-7191
דג	-7192
ime	-7193
דאי	-7194
מיק	-7195
▁90	-7196
▁My	-7197
ינוי	-7198
מפוס	-7199
מצעי	-7200
קנות	-7201
▁300	-7202
▁איל	-7203
אבדות	-7204
טרנטי	-7205
▁הבמה	-7206
▁מועד	-7207
▁מנות	-7208
▁טיסות	-7209
▁לתואר	-7210
▁נולדה	-7211
▁נתחיל	-7212
▁שחשוב	-7213
נחלויות	-7214
▁אוגוסט	-7215
▁באנשים	-7216
▁האחרות	-7217
▁לדברים	-7218
▁מתרחשת	-7219
▁צפויים	-7220
▁ההחלטות	-7221
שבה	-7222
▁Gr	-7223
▁סן	-7224
▁קת	-7225
ודיע	-7226
וסיה	-7227
נוני	-7228
ניום	-7229
ציעה	-7230
▁בגן	-7231
▁הוי	-7232
▁ופר	-7233
▁שדי	-7234
סיקים	-7235
ערבות	-7236
רועות	-7237
שלכות	-7238
▁המצל	-7239
▁התפר	-7240
▁רכבת	-7241
▁אדוני	-7242
▁בעצמי	-7243
▁העסקה	-7244
▁יישום	-7245
▁עצומה	-7246
▁רכישת	-7247
▁הרפואה	-7248
▁מטוסים	-7249
▁נכנסים	-7250
▁שומרים	-7251
▁תופעות	-7252
▁הקונגרס	-7253
▁מאושרים	-7254
▁הרפובליקה	-7255
▁קליפורניה	-7256
ll	-7257
old	-7258
חתן	-7259
יקף	-7260
פעם	-7261
-194	-7262
-196	-7263
דיהם	-7264
וויד	-7265
▁חסי	-7266
▁רמה	-7267
גויות	-7268
נאביס	-7269
נוקות	-7270
▁ולהע	-7271
▁נהנה	-7272
▁סקוט	-7273
▁עונש	-7274
▁עידן	-7275
▁רומא	-7276
▁שונא	-7277
▁שעשו	-7278
▁בקושי	-7279
▁הלהקה	-7280
▁מתמיד	-7281
▁פרטית	-7282
▁תרופה	-7283
▁השפעות	-7284
▁חוויות	-7285
▁החודשים	-7286
5]	-7287
ath	-7288
וגע	-7289
גדרה	-7290
כנסו	-7291
מיון	-7292
סטון	-7293
▁היות	-7294
▁הרגל	-7295
▁ולהי	-7296
▁יופי	-7297
▁לרשת	-7298
▁מתנג	-7299
▁ספרו	-7300
▁פניו	-7301
▁קורס	-7302
ולוגים	-7303
▁אבנים	-7304
▁גורמת	-7305
▁המלכה	-7306
▁חכמים	-7307
▁לבנים	-7308
▁מלאים	-7309
▁מסתכל	-7310
▁מציין	-7311
▁סביבה	-7312
▁אינטרא	-7313
▁בבעלות	-7314
▁ידועים	-7315
▁מקווים	-7316
▁שיעורי	-7317
▁ובמיוחד	-7318
▁כרטיסים	-7319
▁מנהיגות	-7320
▁באוניברסיטה	-7321
70	-7322
ָּ	-7323
ושך	-7324
זבז	-7325
כחו	-7326
ערת	-7327
▁st	-7328
▁Air	-7329
▁והר	-7330
▁לעם	-7331
▁מהכ	-7332
▁נוה	-7333
▁סגן	-7334
▁יעשו	-7335
▁לגשת	-7336
▁מהמק	-7337
▁שהוק	-7338
▁בעבור	-7339
▁לתכנן	-7340
▁שבאמת	-7341
▁הצרפתי	-7342
▁לאומית	-7343
▁רפואית	-7344
▁שפורסם	-7345
▁מכשירים	-7346
▁מתקדמים	-7347
▁המוסלמים	-7348
▁הציבורית	-7349
כוד	-7350
מלט	-7351
▁>>	-7352
▁ענ	-7353
סדות	-7354
צועת	-7355
▁Res	-7356
▁במצ	-7357
▁דקה	-7358
▁האצ	-7359
▁הוז	-7360
▁נלק	-7361
▁שסי	-7362
כניות	-7363
▁בווי	-7364
▁בעזה	-7365
▁ההומ	-7366
▁ההפר	-7367
▁החיו	-7368
▁הנרי	-7369
▁כחול	-7370
▁נמסר	-7371
▁נפוץ	-7372
▁אלפים	-7373
▁בהודו	-7374
▁ההצעה	-7375
▁מדויק	-7376
▁מילות	-7377
▁רגעים	-7378
▁במגוון	-7379
▁הכוונה	-7380
▁משימות	-7381
▁עשויות	-7382
▁שישראל	-7383
▁מנהיגים	-7384
1%	-7385
13	-7386
ועץ	-7387
פוק	-7388
פלת	-7389
▁Tr	-7390
▁חט	-7391
וכמה	-7392
▁וכת	-7393
▁וקי	-7394
▁חשש	-7395
בונים	-7396
ובליק	-7397
ובלית	-7398
ועדים	-7399
כליות	-7400
▁דאעש	-7401
▁היפה	-7402
▁הציע	-7403
▁חייל	-7404
▁מהמח	-7405
▁מכלל	-7406
▁קונה	-7407
▁בעידן	-7408
▁החיות	-7409
▁שתיים	-7410
▁תופעה	-7411
▁ברשימה	-7412
▁בתנאים	-7413
▁האקלים	-7414
▁לבעיות	-7415
▁להגביר	-7416
▁מובילה	-7417
▁עבורנו	-7418
▁עצמאית	-7419
ושינגטון	-7420
▁השתתפות	-7421
▁מעורבות	-7422
AC	-7423
פטן	-7424
בהיר	-7425
בחון	-7426
גלות	-7427
וברת	-7428
פתור	-7429
קירה	-7430
▁אלק	-7431
▁הדא	-7432
▁ממק	-7433
ותרות	-7434
משיכו	-7435
▁בפרק	-7436
▁הכרה	-7437
▁חייה	-7438
▁יוון	-7439
▁מלמד	-7440
▁קרקע	-7441
▁רכוש	-7442
▁בכדור	-7443
▁דיאטה	-7444
▁היופי	-7445
▁העמים	-7446
▁ולקבל	-7447
▁פנימי	-7448
▁קצרים	-7449
▁תחומי	-7450
▁בארגון	-7451
▁האיטלק	-7452
▁להזכיר	-7453
▁מצוינת	-7454
▁אופניים	-7455
▁ההתנגדות	-7456
▁~	-7457
▁«	-7458
אנג	-7459
ועי	-7460
יכם	-7461
נתן	-7462
רכן	-7463
▁חן	-7464
איות	-7465
טייה	-7466
▁ליצ	-7467
▁למג	-7468
▁הבול	-7469
▁הקלא	-7470
▁כואב	-7471
▁בקבוק	-7472
▁החופש	-7473
▁טילים	-7474
▁לנהוג	-7475
▁מספרת	-7476
▁מקבלת	-7477
▁למשפחה	-7478
▁שימושי	-7479
▁החומרים	-7480
St	-7481
כין	-7482
נסט	-7483
▁II	-7484
▁ביס	-7485
▁התס	-7486
▁פשע	-7487
▁ריי	-7488
▁שבח	-7489
▁בוחר	-7490
▁הונג	-7491
▁הצלב	-7492
▁יציר	-7493
▁ממוש	-7494
▁ציור	-7495
▁שהמש	-7496
▁בסדרה	-7497
▁השניה	-7498
▁ובלתי	-7499
▁חוקית	-7500
▁נחשבת	-7501
▁החשבון	-7502
▁לתפקיד	-7503
▁בניסיון	-7504
▁קילומטרים	-7505
6]	-7506
בב	-7507
▁r	-7508
out	-7509
פיק	-7510
▁1:	-7511
▁th	-7512
▁קפ	-7513
חימה	-7514
רטין	-7515
▁לבר	-7516
▁מכה	-7517
▁מלי	-7518
▁ריח	-7519
ריאלי	-7520
▁בטרם	-7521
▁ודאי	-7522
▁להתפ	-7523
▁רדיו	-7524
▁שכזה	-7525
ייקטים	-7526
יתונים	-7527
▁השמים	-7528
▁ויכול	-7529
▁למטרה	-7530
▁ממליץ	-7531
▁מסתבר	-7532
▁מתקדם	-7533
▁צמחים	-7534
▁קשורה	-7535
▁הצבאית	-7536
▁מחירים	-7537
▁תלמידי	-7538
▁קלוריות	-7539
▁הדמוקרטיה	-7540
ON	-7541
מוץ	-7542
מתה	-7543
רהי	-7544
רכב	-7545
בחרו	-7546
ונלד	-7547
יסוק	-7548
ניהן	-7549
▁והז	-7550
▁מטי	-7551
▁שטי	-7552
▁שעש	-7553
הייתי	-7554
כירים	-7555
ציבור	-7556
▁בפור	-7557
▁בצבא	-7558
▁הפיק	-7559
▁זכרו	-7560
▁חזון	-7561
▁יפים	-7562
▁פרסם	-7563
▁תראו	-7564
וציאלי	-7565
▁אינדי	-7566
▁בחייו	-7567
▁מוחמד	-7568
▁מתמוד	-7569
▁עשינו	-7570
▁שלטון	-7571
▁תעופה	-7572
▁גרעיני	-7573
▁הדיווח	-7574
▁לעניין	-7575
▁לקבוצה	-7576
▁מזונות	-7577
▁ניצחון	-7578
▁המודעות	-7579
▁המחשבות	-7580
▁משמעותיים	-7581
אף	-7582
הק	-7583
ife	-7584
בטא	-7585
מעה	-7586
▁6.	-7587
▁Dr	-7588
ראתה	-7589
▁אסי	-7590
▁ומד	-7591
▁חטי	-7592
▁ציו	-7593
▁בכפר	-7594
▁בפרט	-7595
▁גונג	-7596
▁הגבר	-7597
▁הצעה	-7598
▁משלי	-7599
▁וכאשר	-7600
▁ישנים	-7601
▁להביע	-7602
▁לנושא	-7603
▁עבורך	-7604
▁שנאמר	-7605
▁שנוכל	-7606
▁שתוכל	-7607
▁בקהילה	-7608
▁ספציפי	-7609
▁באנגליה	-7610
▁בנושאים	-7611
▁התיירות	-7612
▁למציאות	-7613
▁רפואיים	-7614
▁החברתיות	-7615
ולא	-7616
▁2:	-7617
▁גנ	-7618
▁Ser	-7619
▁במז	-7620
▁ושם	-7621
▁ותח	-7622
▁חגי	-7623
▁ידו	-7624
▁לחם	-7625
▁מקד	-7626
▁פרא	-7627
▁קוק	-7628
▁שהב	-7629
▁במוע	-7630
▁הכות	-7631
▁המוט	-7632
▁המפל	-7633
▁הקלי	-7634
▁והשי	-7635
▁ומתי	-7636
▁טקסט	-7637
▁מנוע	-7638
▁סיטי	-7639
▁תוספ	-7640
▁ברזיל	-7641
▁חלבון	-7642
▁לבעלי	-7643
▁מצחיק	-7644
▁Office	-7645
▁הבדיקה	-7646
▁הלימוד	-7647
▁פריטים	-7648
')	-7649
ֵי	-7650
טוט	-7651
נלי	-7652
▁פצ	-7653
מכות	-7654
פיפי	-7655
פעול	-7656
▁ייר	-7657
▁שתר	-7658
פתרון	-7659
צילום	-7660
▁הענק	-7661
▁לבדי	-7662
▁נוכח	-7663
▁תגיד	-7664
▁במחשב	-7665
▁הולנד	-7666
▁המכון	-7667
▁ומעלה	-7668
▁נהנים	-7669
▁פולין	-7670
▁סבלנות	-7671
▁עצמאות	-7672
▁תפקידו	-7673
▁באיטליה	-7674
▁וושינגטון	-7675
▁Te	-7676
▁שׁ	-7677
כבות	-7678
כולל	-7679
▁דיס	-7680
▁ולצ	-7681
▁תוב	-7682
גינים	-7683
▁אימא	-7684
▁דאגה	-7685
▁הוסי	-7686
▁החוב	-7687
▁הליך	-7688
▁הנחה	-7689
▁פריז	-7690
▁שמים	-7691
▁הדירה	-7692
▁חומרי	-7693
▁חמישי	-7694
▁מלכות	-7695
▁אנושית	-7696
▁טבעיים	-7697
▁מבצעים	-7698
▁מסיבות	-7699
▁משפטית	-7700
▁ניסיתי	-7701
▁העצמאות	-7702
▁הפועלים	-7703
[2	-7704
ַל	-7705
נכ	-7706
עצ	-7707
own	-7708
land	-7709
ובלת	-7710
מישה	-7711
עשרה	-7712
פסים	-7713
▁איז	-7714
▁ובק	-7715
▁כשנ	-7716
▁קרח	-7717
▁שתק	-7718
חדשות	-7719
טורים	-7720
כניים	-7721
פונית	-7722
▁משוכ	-7723
▁עלתה	-7724
▁עצוב	-7725
▁שגרי	-7726
▁שימש	-7727
▁גילוי	-7728
▁האושר	-7729
▁הדואר	-7730
▁הוביל	-7731
▁המונח	-7732
▁המטבע	-7733
▁הנסיך	-7734
▁הסביר	-7735
▁חקירה	-7736
▁מדריך	-7737
▁משפטי	-7738
▁נותנת	-7739
▁שאומר	-7740
▁בתמונה	-7741
▁המשותף	-7742
▁התוכנה	-7743
▁תיירים	-7744
▁הדרושים	-7745
ong	-7746
ous	-7747
עיד	-7748
פגש	-7749
פיץ	-7750
קסון	-7751
▁בשב	-7752
▁כאל	-7753
סיפור	-7754
▁אנוש	-7755
▁ונשים	-7756
▁מבנים	-7757
▁שקיבל	-7758
▁ההשקעה	-7759
▁המחלקה	-7760
▁הצלחתי	-7761
▁הרוחני	-7762
▁נדרשים	-7763
▁מאפשרים	-7764
▁רלוונטי	-7765
ED	-7766
ww	-7767
דלת	-7768
משה	-7769
נום	-7770
▁:)	-7771
▁Ac	-7772
בחנה	-7773
בטיה	-7774
כונן	-7775
שלון	-7776
▁150	-7777
▁גיר	-7778
▁חלל	-7779
ורידה	-7780
לילים	-7781
מערכת	-7782
▁2005	-7783
▁ביקר	-7784
▁במדע	-7785
▁הוקם	-7786
▁לפתע	-7787
▁מהלך	-7788
▁מונה	-7789
▁מפחד	-7790
▁נניח	-7791
▁איטלק	-7792
▁הילדה	-7793
▁ניתנת	-7794
▁פרחים	-7795
קטיביות	-7796
▁דיכאון	-7797
▁העיתון	-7798
▁מרוצים	-7799
▁נורמלי	-7800
▁ספינות	-7801
▁רישיון	-7802
▁אוקטובר	-7803
▁האתגרים	-7804
▁ההשפעות	-7805
▁הקודמים	-7806
▁דמוקרטיה	-7807
▁האמיתיים	-7808
גרו	-7809
כמת	-7810
▁סר	-7811
ענות	-7812
▁For	-7813
▁ונש	-7814
▁כוע	-7815
▁לרח	-7816
▁עני	-7817
וויטר	-7818
▁גדלה	-7819
▁היחס	-7820
▁הינם	-7821
▁הראה	-7822
▁ומנה	-7823
▁כספי	-7824
▁להיו	-7825
▁רצוי	-7826
▁דירות	-7827
▁הטבעי	-7828
▁היטלר	-7829
▁הפארק	-7830
▁הפסקת	-7831
▁הרבים	-7832
▁חובות	-7833
▁יקרים	-7834
▁נהיגה	-7835
▁נמשיך	-7836
▁שהיתה	-7837
▁ההתחלה	-7838
▁רוחנית	-7839
▁שמעולם	-7840
▁הפעולות	-7841
▁האינטרסים	-7842
US	-7843
ew	-7844
וגר	-7845
ויה	-7846
טחה	-7847
מיע	-7848
ריל	-7849
דיון	-7850
ואנה	-7851
וצאת	-7852
טרית	-7853
פשרו	-7854
▁Pre	-7855
▁אשת	-7856
▁בכם	-7857
▁לרצ	-7858
▁נמנ	-7859
▁אשמח	-7860
▁בקנה	-7861
▁הטור	-7862
▁כימי	-7863
▁לראש	-7864
▁מבול	-7865
▁מופת	-7866
▁מרחב	-7867
▁סגור	-7868
▁שבני	-7869
▁תשוב	-7870
▁הגעתי	-7871
▁נכסים	-7872
▁סביבת	-7873
▁ספרות	-7874
▁עוצמה	-7875
▁צופים	-7876
▁אתגרים	-7877
▁הנאצים	-7878
▁השליטה	-7879
▁להיפטר	-7880
▁שלושים	-7881
▁אסטרטגי	-7882
▁הנוסעים	-7883
▁לימודים	-7884
▁ההתנהגות	-7885
▁מקצועיים	-7886
ok	-7887
בּ	-7888
ash	-7889
ink	-7890
iss	-7891
זול	-7892
פסה	-7893
ציר	-7894
שיח	-7895
▁כר	-7896
ודעת	-7897
ומבי	-7898
חידה	-7899
ספקת	-7900
קידו	-7901
▁Mar	-7902
▁ונה	-7903
▁זכו	-7904
▁מגן	-7905
נחלים	-7906
▁באות	-7907
▁הפול	-7908
▁זכור	-7909
▁יעלה	-7910
▁כפול	-7911
▁מקסי	-7912
▁שאוה	-7913
▁שיצא	-7914
גוריות	-7915
ליזציה	-7916
▁אחורה	-7917
▁במשרה	-7918
▁בשלום	-7919
▁דמוקר	-7920
▁האירא	-7921
▁הבנות	-7922
▁החלטת	-7923
▁הפיזי	-7924
▁מבוגר	-7925
▁ניסוי	-7926
▁Intern	-7927
▁ואחרים	-7928
▁לביצוע	-7929
▁משתנים	-7930
▁בתקשורת	-7931
▁הנושאים	-7932
▁מתייחסים	-7933
7]	-7934
ey	-7935
דרג	-7936
זהר	-7937
זוג	-7938
שתם	-7939
▁(3	-7940
▁[[	-7941
משכת	-7942
נחים	-7943
▁All	-7944
▁אהב	-7945
▁גשר	-7946
▁ומר	-7947
▁יוק	-7948
▁לים	-7949
▁קבל	-7950
▁תתק	-7951
ישלון	-7952
▁בטבע	-7953
▁הקוס	-7954
▁וללא	-7955
▁מגדל	-7956
▁מעקב	-7957
▁שהכי	-7958
▁תהיו	-7959
▁הבתים	-7960
▁הגורם	-7961
▁הכשרה	-7962
▁הצטרף	-7963
▁הרחוב	-7964
▁הרצפה	-7965
▁חלקית	-7966
▁יישאר	-7967
▁יקבלו	-7968
▁להגנה	-7969
▁לצמצם	-7970
▁עבורו	-7971
▁קניות	-7972
▁רגילה	-7973
▁אירועי	-7974
▁דורשים	-7975
▁החברתי	-7976
▁החתונה	-7977
▁המניות	-7978
▁השיווק	-7979
▁להיפגש	-7980
▁מופיעה	-7981
▁עסקיים	-7982
▁פירושו	-7983
▁הכדורגל	-7984
▁הנישואין	-7985
▁לסטודנטים	-7986
-80	-7987
אטה	-7988
וסה	-7989
פיד	-7990
קאי	-7991
▁Su	-7992
לייה	-7993
פיין	-7994
▁בסט	-7995
▁להמ	-7996
▁ספט	-7997
ivers	-7998
ופיעה	-7999
▁בירה	-8000
▁ההון	-8001
▁הנזק	-8002
▁הקלה	-8003
▁לחוש	-8004
▁אנדרו	-8005
▁בשווי	-8006
▁דבריו	-8007
▁דתיים	-8008
▁הוכחה	-8009
▁כתבתי	-8010
▁מרווי	-8011
▁עסקית	-8012
ליגנציה	-8013
▁בכירים	-8014
▁התחילה	-8015
▁לחברות	-8016
▁טיפולים	-8017
▁האימפריה	-8018
,”	-8019
14	-8020
ֹא	-8021
המש	-8022
גינה	-8023
יתכן	-8024
מאים	-8025
▁ליש	-8026
▁פנט	-8027
▁אביה	-8028
▁הלכה	-8029
▁ובנו	-8030
▁ומשת	-8031
▁סכנה	-8032
▁בחברת	-8033
▁האולי	-8034
▁הבירה	-8035
▁המלאה	-8036
▁הנוער	-8037
▁חירות	-8038
▁לנקות	-8039
▁לעזרה	-8040
▁לתקשר	-8041
▁עבורם	-8042
▁שחרור	-8043
▁האשראי	-8044
▁המאסטר	-8045
▁הערכים	-8046
▁מכונות	-8047
▁פלטפור	-8048
▁שהגיעו	-8049
נטולוגיה	-8050
▁ייחודית	-8051
▁ישראלית	-8052
▁סיכונים	-8053
IP	-8054
ֶם	-8055
ַע	-8056
ובש	-8057
וצא	-8058
נתם	-8059
▁Se	-8060
געתי	-8061
צהרה	-8062
▁בהפ	-8063
▁העץ	-8064
▁חוג	-8065
▁כפר	-8066
▁נרש	-8067
▁רעה	-8068
אנשים	-8069
פלציה	-8070
▁האיר	-8071
▁הנמו	-8072
▁הקיס	-8073
▁התנג	-8074
▁חזרו	-8075
▁למדו	-8076
▁לקום	-8077
▁לרמה	-8078
▁לשמר	-8079
▁מסמך	-8080
▁ספור	-8081
▁פיטר	-8082
▁שעשה	-8083
שתתפות	-8084
▁בנפרד	-8085
▁המחבר	-8086
▁המעור	-8087
▁הרגיל	-8088
▁לגיטי	-8089
▁לרצות	-8090
▁תמצאו	-8091
▁תמשיך	-8092
▁הופעות	-8093
▁הסכסוך	-8094
▁התשלום	-8095
▁מגורים	-8096
▁ספטמבר	-8097
▁פתוחים	-8098
▁תיירות	-8099
▁ברחובות	-8100
▁האלימות	-8101
▁הדמויות	-8102
▁העובדות	-8103
▁הפרלמנט	-8104
▁לפעילות	-8105
ise	-8106
בקים	-8107
ליפי	-8108
פקוד	-8109
▁הפק	-8110
▁ווא	-8111
▁לוא	-8112
▁ללב	-8113
▁נפל	-8114
▁נשל	-8115
▁נתק	-8116
▁סבי	-8117
▁ערי	-8118
▁שבמ	-8119
בקשים	-8120
מושים	-8121
מנטים	-8122
▁בודד	-8123
▁יצחק	-8124
▁לומד	-8125
▁לקחו	-8126
▁מאסר	-8127
▁ביטול	-8128
▁בעצמם	-8129
▁הסיני	-8130
▁חדרים	-8131
▁לחגוג	-8132
▁מחלקת	-8133
▁מחצית	-8134
▁הספינה	-8135
▁הרגשות	-8136
▁מהחיים	-8137
▁נכונות	-8138
▁הפיננסי	-8139
▁הקולנוע	-8140
▁משתתפים	-8141
6%	-8142
-60	-8143
טבע	-8144
▁טא	-8145
uman	-8146
צרפת	-8147
קפות	-8148
שאלה	-8149
▁לעת	-8150
▁רוז	-8151
בולות	-8152
מכרות	-8153
סויים	-8154
רכיון	-8155
▁דלקת	-8156
▁השוט	-8157
▁התור	-8158
▁חוקר	-8159
▁לפרו	-8160
▁מתוק	-8161
▁נתקל	-8162
▁סמוך	-8163
▁עסקה	-8164
▁באיזו	-8165
▁בהיות	-8166
▁במידע	-8167
▁בסכנה	-8168
▁הטיסה	-8169
▁הסרטן	-8170
▁זוגות	-8171
▁העשרים	-8172
▁התקציב	-8173
▁ופיתוח	-8174
▁לימודי	-8175
▁מלונות	-8176
▁משלמים	-8177
▁נובמבר	-8178
▁עמודים	-8179
▁פשוטים	-8180
▁תומכים	-8181
▁מוסלמים	-8182
21	-8183
MS	-8184
ְּ	-8185
ַח	-8186
ַר	-8187
אש	-8188
ons	-8189
נוג	-8190
port	-8191
בקות	-8192
ונתי	-8193
שומת	-8194
▁אנט	-8195
▁טרו	-8196
▁אויב	-8197
▁אסון	-8198
▁האנג	-8199
▁המתח	-8200
▁הנהג	-8201
▁מאלה	-8202
▁מטבע	-8203
▁סבור	-8204
▁עצמן	-8205
▁שומר	-8206
▁האומה	-8207
▁האוצר	-8208
▁הגענו	-8209
▁השפעת	-8210
▁כוונה	-8211
▁פתיחת	-8212
▁להסתיר	-8213
▁לקידום	-8214
▁פנימית	-8215
▁רשויות	-8216
▁הקיימים	-8217
▁ולפעמים	-8218
▁מתכננים	-8219
▁קישורים	-8220
▁במדיניות	-8221
▁מעניינים	-8222
!)	-8223
ile	-8224
ריא	-8225
שאי	-8226
כיות	-8227
פוסי	-8228
ציאו	-8229
▁ובל	-8230
▁לאמ	-8231
▁למז	-8232
▁סבא	-8233
ights	-8234
meric	-8235
ומכים	-8236
טינית	-8237
▁Home	-8238
▁במסע	-8239
▁ברכב	-8240
▁הקיר	-8241
▁וכמו	-8242
▁ייתן	-8243
▁כמוך	-8244
▁לאיש	-8245
▁לעצב	-8246
▁מענה	-8247
▁עצים	-8248
▁בתנאי	-8249
▁הסופי	-8250
▁חווים	-8251
▁מרטין	-8252
▁פרקים	-8253
▁דמויות	-8254
▁הדמוקר	-8255
▁התודעה	-8256
▁שמאפשר	-8257
▁הגרמנית	-8258
▁חופשיים	-8259
▁נישואין	-8260
▁במוזיאון	-8261
הפ	-8262
עס	-8263
כיה	-8264
▁7.	-8265
▁סח	-8266
בטלה	-8267
כרתי	-8268
סקות	-8269
▁בגל	-8270
▁חוט	-8271
▁פאר	-8272
נושות	-8273
▁האול	-8274
▁הגזע	-8275
▁השער	-8276
▁לשוב	-8277
▁עקבו	-8278
▁שמשת	-8279
▁בכיתה	-8280
▁בעונה	-8281
▁הסופר	-8282
▁הקיים	-8283
▁לעצמה	-8284
▁מוסיף	-8285
▁עולים	-8286
▁רוחני	-8287
▁שמגיע	-8288
▁בחינוך	-8289
▁בשילוב	-8290
▁החליטו	-8291
▁הלוואי	-8292
▁המלצות	-8293
▁המשיכו	-8294
▁ויליאם	-8295
▁להרשות	-8296
▁מקומית	-8297
▁פלסטין	-8298
▁החשיבות	-8299
▁קורבנות	-8300
יפ	-8301
anc	-8302
געת	-8303
ורס	-8304
מלים	-8305
▁פיי	-8306
▁קסם	-8307
▁אהוב	-8308
▁במוח	-8309
▁בנים	-8310
▁ברוך	-8311
▁הסול	-8312
▁העדי	-8313
▁השמי	-8314
▁ואכן	-8315
▁כתבי	-8316
▁שאלת	-8317
▁שנוע	-8318
וגרפיה	-8319
▁אספקת	-8320
▁במאבק	-8321
▁גיבור	-8322
▁דורשת	-8323
▁הסכמה	-8324
▁התואר	-8325
▁למחקר	-8326
▁מצטער	-8327
▁שאחרי	-8328
▁שנעשה	-8329
▁בהתחשב	-8330
▁בימינו	-8331
▁הסופית	-8332
▁השלכות	-8333
▁פסטיבל	-8334
▁האישיות	-8335
▁מוזמנים	-8336
▁מתאימים	-8337
אח	-8338
בתו	-8339
טוק	-8340
נוב	-8341
צדק	-8342
▁32	-8343
▁קס	-8344
ייני	-8345
כלול	-8346
▁אתי	-8347
▁ובג	-8348
▁עלו	-8349
▁קטל	-8350
ייבים	-8351
▁2002	-8352
▁באוט	-8353
▁והיו	-8354
▁לשתי	-8355
▁מייד	-8356
▁השעון	-8357
▁כיסוי	-8358
▁מיקרו	-8359
▁מפורס	-8360
יתונאים	-8361
▁התחושה	-8362
▁ולעשות	-8363
▁לעסקים	-8364
▁מועדון	-8365
▁כשהייתי	-8366
▁מובילים	-8367
▁באפשרותך	-8368
▁מאוניברסיטת	-8369
PN	-8370
אצ	-8371
הב	-8372
ךְ	-8373
▁→	-8374
-40	-8375
ert	-8376
ובץ	-8377
▁וּ	-8378
ולנד	-8379
וריא	-8380
וריו	-8381
זכות	-8382
▁הסע	-8383
▁הפג	-8384
▁ונע	-8385
▁לצע	-8386
▁נכש	-8387
▁נרח	-8388
מימות	-8389
▁(199	-8390
▁100%	-8391
▁אחים	-8392
▁התמק	-8393
▁מפקד	-8394
▁נמנע	-8395
▁קונג	-8396
▁שינו	-8397
▁ארבעת	-8398
▁היסוד	-8399
▁המתנה	-8400
▁הסכום	-8401
▁הקשור	-8402
▁זמנים	-8403
▁להשגת	-8404
▁לכבוד	-8405
▁לעסוק	-8406
▁סיפרה	-8407
▁שעושה	-8408
▁תלויה	-8409
ואליציה	-8410
▁בידיים	-8411
▁בראיון	-8412
▁לכולנו	-8413
▁קורסים	-8414
▁הצרפתית	-8415
▁מעדיפים	-8416
▁עיתונאים	-8417
oh	-8418
ָם	-8419
צץ	-8420
יני	-8421
לטו	-8422
נשא	-8423
צעד	-8424
▁Br	-8425
▁סד	-8426
ורגן	-8427
חיים	-8428
חינו	-8429
יורק	-8430
צרית	-8431
רכיא	-8432
▁הצו	-8433
▁התז	-8434
▁שהר	-8435
▁ששו	-8436
דונים	-8437
סטיים	-8438
▁אמרת	-8439
▁השקט	-8440
▁לווי	-8441
▁רשאי	-8442
▁שנאה	-8443
▁תקבל	-8444
▁אינכם	-8445
▁באותם	-8446
▁הביאו	-8447
▁הרגיש	-8448
▁משלהם	-8449
▁המושלם	-8450
▁לארצות	-8451
▁לגברים	-8452
▁מיידית	-8453
▁סוכנות	-8454
▁שוויון	-8455
▁שומעים	-8456
▁באחריות	-8457
In	-8458
up	-8459
ביי	-8460
נקו	-8461
פאי	-8462
▁48	-8463
ופרת	-8464
טונו	-8465
מידע	-8466
נמרק	-8467
▁בהע	-8468
▁דתי	-8469
▁כמת	-8470
▁שהכ	-8471
▁הירו	-8472
▁התעל	-8473
▁ואינ	-8474
▁למסע	-8475
▁לשום	-8476
▁עדים	-8477
▁שאדם	-8478
▁שהשי	-8479
פיפיור	-8480
▁הדמות	-8481
▁המפגש	-8482
▁הערות	-8483
▁הפסקה	-8484
▁התאים	-8485
▁התחלה	-8486
▁חמורה	-8487
▁לבכות	-8488
▁מיועד	-8489
▁מלווה	-8490
▁קשיים	-8491
▁בתמורה	-8492
▁הסוביי	-8493
▁הסיכוי	-8494
▁הצפוני	-8495
▁כרטיסי	-8496
▁מלחמות	-8497
▁נעליים	-8498
▁שתוכלו	-8499
▁האקדמיה	-8500
▁הסתיימה	-8501
▁הקשורות	-8502
],	-8503
ase	-8504
ווט	-8505
ורש	-8506
נדל	-8507
▁קח	-8508
וגני	-8509
יווד	-8510
שיפה	-8511
שנות	-8512
▁יעד	-8513
▁מרצ	-8514
בודות	-8515
שיטים	-8516
▁אוסט	-8517
▁הצדק	-8518
▁ידעה	-8519
▁לעוד	-8520
▁מכון	-8521
▁מרחק	-8522
▁ראתה	-8523
▁רעים	-8524
▁שהוצ	-8525
▁הרפוא	-8526
▁להפיק	-8527
▁למשרד	-8528
▁רישום	-8529
▁בראשית	-8530
▁האיכות	-8531
▁החמישי	-8532
▁ובעיקר	-8533
▁לממשלה	-8534
▁בנסיבות	-8535
▁הגבוהים	-8536
▁מעריכים	-8537
AP	-8538
ביק	-8539
נטו	-8540
ננה	-8541
קלי	-8542
ופשה	-8543
נסית	-8544
▁הקת	-8545
▁התב	-8546
▁ולס	-8547
▁מלח	-8548
▁שיט	-8549
חלוקת	-8550
תחילו	-8551
▁אלוה	-8552
▁ביצע	-8553
▁ההנה	-8554
▁הרפת	-8555
▁יצאה	-8556
▁כושר	-8557
▁לחדש	-8558
▁מתפת	-8559
▁פיזי	-8560
▁תורה	-8561
▁תשעה	-8562
▁אחדות	-8563
▁אחדים	-8564
▁איחוד	-8565
▁בסיסי	-8566
▁בסעיף	-8567
▁לאישה	-8568
▁לחודש	-8569
▁מחליט	-8570
▁מחסור	-8571
▁הכותרת	-8572
▁וילדים	-8573
▁חיצוני	-8574
▁למסקנה	-8575
▁פליטים	-8576
▁שהעולם	-8577
▁שראיתי	-8578
▁העליונה	-8579
▁התערוכה	-8580
▁המקומיים	-8581
▁k	-8582
חסן	-8583
▁31	-8584
▁דן	-8585
otel	-8586
אולי	-8587
מודי	-8588
תייש	-8589
▁האט	-8590
▁הדג	-8591
▁ונק	-8592
▁כמש	-8593
▁כעס	-8594
▁רדי	-8595
▁תום	-8596
כירות	-8597
להבות	-8598
▁אעשה	-8599
▁הפיצ	-8600
▁התחז	-8601
▁כלשה	-8602
▁לאחת	-8603
▁מיום	-8604
▁משרת	-8605
▁World	-8606
▁אדמות	-8607
▁בסמים	-8608
▁האינס	-8609
▁הלכתי	-8610
▁השנתי	-8611
▁כרגיל	-8612
▁להשיב	-8613
▁מתנות	-8614
▁שמשהו	-8615
▁במצבים	-8616
▁בשיעור	-8617
▁הכנסות	-8618
▁יציבות	-8619
▁לפתרון	-8620
▁הפנימית	-8621
▁למדינות	-8622
▁ניסויים	-8623
▁להתפתחות	-8624
חף	-8625
אלו	-8626
אמי	-8627
וגו	-8628
זבת	-8629
ילא	-8630
נקה	-8631
סתו	-8632
ance	-8633
ירתו	-8634
כמות	-8635
שאלו	-8636
▁Out	-8637
▁באח	-8638
▁בתה	-8639
▁חות	-8640
▁כהן	-8641
▁לאו	-8642
▁מטה	-8643
עילות	-8644
▁הייש	-8645
▁הקסם	-8646
▁וזהו	-8647
▁לנוע	-8648
▁שהוש	-8649
וזיציה	-8650
רוסופט	-8651
▁אזהרה	-8652
▁דומות	-8653
▁היותר	-8654
▁המודל	-8655
▁יגיעו	-8656
▁יחדיו	-8657
▁להרים	-8658
▁לטייל	-8659
▁מאיפה	-8660
▁נשארו	-8661
▁סימני	-8662
▁קישור	-8663
▁החליטה	-8664
▁ואנשים	-8665
▁מביאים	-8666
▁הגבולות	-8667
ִּ	-8668
ךָ	-8669
''.	-8670
ign	-8671
ont	-8672
▁דל	-8673
line	-8674
וביץ	-8675
טיבה	-8676
יימה	-8677
נדים	-8678
▁And	-8679
▁אלן	-8680
▁הזכ	-8681
▁חוף	-8682
▁מכר	-8683
▁קני	-8684
וונות	-8685
▁2003	-8686
▁בגדה	-8687
▁בואי	-8688
▁גרסה	-8689
▁הלכו	-8690
▁התבו	-8691
▁ובמה	-8692
▁חכמה	-8693
▁לאמץ	-8694
▁לבדו	-8695
▁לגדל	-8696
▁נאלץ	-8697
▁שהוב	-8698
▁הבינו	-8699
▁הגרעי	-8700
▁השופט	-8701
▁ואינו	-8702
▁מתעור	-8703
▁שהדבר	-8704
▁שרבים	-8705
לסטינים	-8706
▁אירלנד	-8707
▁הגידול	-8708
▁היצירה	-8709
▁המצלמה	-8710
▁מוקדמת	-8711
▁באפריקה	-8712
▁הארגונים	-8713
▁מתכוונים	-8714
ִּ	-8715
ake	-8716
אבי	-8717
להי	-8718
רגם	-8719
▁US	-8720
▁סך	-8721
▁צר	-8722
ומרי	-8723
ממות	-8724
▁דגל	-8725
▁דעה	-8726
▁יבש	-8727
▁ייס	-8728
▁לרק	-8729
▁לתא	-8730
וריית	-8731
עודיה	-8732
עורים	-8733
פולים	-8734
▁באתי	-8735
▁הטעם	-8736
▁הלכת	-8737
▁המתק	-8738
▁והמח	-8739
▁וכדי	-8740
▁חייך	-8741
▁לגעת	-8742
▁למים	-8743
▁סמית	-8744
▁פוגע	-8745
יאונים	-8746
▁בשאלה	-8747
▁הנביא	-8748
▁הנוגע	-8749
▁התגלה	-8750
▁ואומר	-8751
▁יצליח	-8752
▁למחוק	-8753
▁מגלים	-8754
▁דיוויד	-8755
▁החיסון	-8756
▁המסלול	-8757
▁נאמנות	-8758
▁תכניות	-8759
▁ההבדלים	-8760
▁לתוכנית	-8761
▁לתוצאות	-8762
▁תהליכים	-8763
▁תיאטרון	-8764
כנולוגיות	-8765
▁המובילים	-8766
▁לאינטרנט	-8767
ys	-8768
▁{	-8769
גלו	-8770
ילך	-8771
here	-8772
ions	-8773
▁וכש	-8774
▁מטע	-8775
▁מפה	-8776
בלנות	-8777
ובלים	-8778
▁בגוד	-8779
▁בקלי	-8780
▁גובה	-8781
▁הכבי	-8782
▁המדה	-8783
▁והכי	-8784
▁מאמן	-8785
▁מהאי	-8786
▁מפגש	-8787
▁צהוב	-8788
▁בכבוד	-8789
▁במשהו	-8790
▁דוגמא	-8791
▁האתגר	-8792
▁המותג	-8793
▁השגרי	-8794
▁התובע	-8795
▁זיהוי	-8796
▁ינואר	-8797
▁לצערי	-8798
▁לרופא	-8799
▁לשבור	-8800
▁רפואה	-8801
▁אורחים	-8802
▁אסירים	-8803
▁בודדים	-8804
▁בחיפוש	-8805
▁הדרומי	-8806
▁הטבעית	-8807
▁הלוואה	-8808
▁המיקום	-8809
▁נמצאות	-8810
▁החלומות	-8811
חח	-8812
חסי	-8813
טחת	-8814
מדי	-8815
ניט	-8816
▁אע	-8817
-195	-8818
בורת	-8819
זאזל	-8820
כורה	-8821
שבתי	-8822
▁400	-8823
▁HIV	-8824
▁אנה	-8825
▁בפל	-8826
▁שטר	-8827
▁שרת	-8828
כנראה	-8829
▁הוכר	-8830
▁החלב	-8831
▁המסת	-8832
▁הנהר	-8833
▁הרצח	-8834
▁השיב	-8835
▁ייקח	-8836
▁יציב	-8837
▁לברר	-8838
▁להיא	-8839
▁מארק	-8840
▁מוני	-8841
▁מופע	-8842
▁משוב	-8843
▁משלם	-8844
▁עוסק	-8845
▁ערוץ	-8846
▁פותח	-8847
▁צופה	-8848
נקציות	-8849
▁הבקשה	-8850
▁החולה	-8851
▁הממוק	-8852
▁המתים	-8853
▁יחזור	-8854
▁מפחיד	-8855
▁האבטחה	-8856
▁החופשי	-8857
▁המשיכה	-8858
▁כישלון	-8859
▁משמשים	-8860
▁המוסיקה	-8861
▁פרנסיסקו	-8862
99	-8863
DS	-8864
ַת	-8865
קא	-8866
-21	-8867
אחד	-8868
ינת	-8869
כבר	-8870
נתר	-8871
▁(4	-8872
▁רד	-8873
▁תו	-8874
גשנו	-8875
כורת	-8876
▁מבר	-8877
▁קאר	-8878
וזרים	-8879
ציאים	-8880
רגלים	-8881
▁בדקו	-8882
▁דתית	-8883
▁הרים	-8884
▁מידת	-8885
▁מכדי	-8886
▁סבתא	-8887
▁סיני	-8888
▁קושי	-8889
▁רצתה	-8890
גוררים	-8891
▁אסטרו	-8892
▁גירוש	-8893
▁הוראה	-8894
▁הטכני	-8895
▁לאותו	-8896
▁מסחרי	-8897
▁מעריך	-8898
▁נקראת	-8899
▁פיגוע	-8900
▁פילוס	-8901
▁אחרונה	-8902
▁המשפטי	-8903
▁הרוגים	-8904
▁ולראות	-8905
▁יצטרכו	-8906
▁להגשים	-8907
▁מנהיגי	-8908
▁עוזרים	-8909
▁המועדון	-8910
▁מופיעים	-8911
▁פלסטינית	-8912
ְת	-8913
מג	-8914
’.	-8915
נאם	-8916
שני	-8917
▁CB	-8918
ארית	-8919
וסקת	-8920
מדתי	-8921
ניזם	-8922
▁-19	-8923
▁אכל	-8924
▁אסת	-8925
▁גשם	-8926
▁דרג	-8927
▁צמי	-8928
▁רגש	-8929
▁שופ	-8930
▁תקי	-8931
וויית	-8932
ופיים	-8933
נונים	-8934
▁במשא	-8935
▁האוב	-8936
▁הקרח	-8937
▁חווה	-8938
▁חתול	-8939
▁לאשר	-8940
▁לעשן	-8941
▁משתי	-8942
▁נודע	-8943
▁קובץ	-8944
וכניות	-8945
▁דצמבר	-8946
▁הוריו	-8947
▁ובכלל	-8948
▁ובעלי	-8949
▁כמוני	-8950
▁לואיס	-8951
▁לתקוף	-8952
▁מעורר	-8953
▁סודות	-8954
▁ענקית	-8955
▁שאוכל	-8956
▁בהתבסס	-8957
▁הפגישה	-8958
▁הצטרפו	-8959
▁ילדיהם	-8960
▁להתפתח	-8961
▁שוקולד	-8962
▁שלישית	-8963
▁מצביעים	-8964
▁ההתפתחות	-8965
ern	-8966
ric	-8967
סתם	-8968
▁כק	-8969
▁מִ	-8970
▁סת	-8971
ביאו	-8972
דילה	-8973
ודיו	-8974
לינג	-8975
פרים	-8976
▁הזר	-8977
▁זרה	-8978
▁ששת	-8979
ופיות	-8980
רוצים	-8981
▁הפוך	-8982
▁הציג	-8983
▁חשים	-8984
▁כאבי	-8985
▁מהות	-8986
▁נוטה	-8987
▁קינג	-8988
▁שעון	-8989
כולוגי	-8990
▁בחנות	-8991
▁המבצע	-8992
▁המידה	-8993
▁יצירה	-8994
▁כללים	-8995
▁לדרוש	-8996
▁מועיל	-8997
▁מועמד	-8998
▁מחכים	-8999
▁נפוצה	-9000
▁עמדות	-9001
▁שעליו	-9002
▁תגיות	-9003
▁תפילה	-9004
ליקציות	-9005
▁באירוע	-9006
▁הביקור	-9007
▁החקירה	-9008
▁להורים	-9009
▁ההיסטורי	-9010
▁הרעיונות	-9011
gh	-9012
ade	-9013
ושע	-9014
ירס	-9015
שוו	-9016
▁טק	-9017
▁כף	-9018
בעון	-9019
צהיר	-9020
▁App	-9021
▁Med	-9022
▁ההק	-9023
▁נגר	-9024
▁נסה	-9025
▁סוס	-9026
▁צוח	-9027
▁שאח	-9028
שיווק	-9029
שימים	-9030
▁אחות	-9031
▁בצבע	-9032
▁בשבת	-9033
▁הורי	-9034
▁יורד	-9035
▁כולן	-9036
▁מהמו	-9037
▁נדבר	-9038
זבאללה	-9039
▁אפריל	-9040
▁בחורף	-9041
▁המטבח	-9042
▁טיימס	-9043
▁מבקשת	-9044
▁רגשית	-9045
▁דיווחו	-9046
▁דיפלומ	-9047
▁מיליאר	-9048
▁נוצרים	-9049
▁נמוכים	-9050
▁בחודשים	-9051
▁המנהלים	-9052
▁כלכליים	-9053
▁מהאנשים	-9054
▁קלינטון	-9055
▁התוכניות	-9056
22	-9057
OR	-9058
הן	-9059
שׂ	-9060
ree	-9061
וחי	-9062
▁33	-9063
▁IP	-9064
וטים	-9065
כבים	-9066
מערב	-9067
מעתי	-9068
שוות	-9069
▁War	-9070
▁אֶת	-9071
▁אמה	-9072
▁ופת	-9073
▁כשב	-9074
▁כשת	-9075
▁נרצ	-9076
▁שבס	-9077
▁שתת	-9078
וסיות	-9079
מצאות	-9080
מצעים	-9081
קהילה	-9082
▁אונס	-9083
▁אצלי	-9084
▁ביטח	-9085
▁גאים	-9086
▁דייו	-9087
▁טענה	-9088
▁לטוב	-9089
▁לכבד	-9090
▁לרעה	-9091
▁מהנה	-9092
▁ממתי	-9093
▁מקלט	-9094
▁נשלח	-9095
▁קדוש	-9096
▁אזורי	-9097
▁הבטיח	-9098
▁הסיוע	-9099
▁הקורס	-9100
▁ומדוע	-9101
▁זקוקה	-9102
▁לגייס	-9103
▁מרכיב	-9104
▁הפתיחה	-9105
▁יושבים	-9106
▁לארגון	-9107
▁משקאות	-9108
▁נשארים	-9109
▁עשורים	-9110
▁תנועות	-9111
▁אינטנסי	-9112
▁מחויבות	-9113
▁היסטורית	-9114
yn	-9115
ool	-9116
ult	-9117
▁Fl	-9118
▁יכ	-9119
בנים	-9120
מולה	-9121
מצאת	-9122
פורד	-9123
פעלה	-9124
▁בבו	-9125
▁בדף	-9126
▁נתי	-9127
▁קנה	-9128
▁שלט	-9129
פשטות	-9130
▁אישר	-9131
▁גברת	-9132
▁היקף	-9133
▁המלו	-9134
▁חמים	-9135
▁מבקר	-9136
▁מעצב	-9137
▁נוסע	-9138
▁קלים	-9139
▁שהרי	-9140
ליקציה	-9141
▁Human	-9142
▁באהבה	-9143
▁במהרה	-9144
▁בערים	-9145
▁גורמי	-9146
▁טענות	-9147
▁ידענו	-9148
▁יחידה	-9149
▁מעשים	-9150
▁מקובל	-9151
▁באיראן	-9152
▁בניהול	-9153
▁המורים	-9154
▁הפרעות	-9155
▁הרשמית	-9156
▁ימשיכו	-9157
▁מאנשים	-9158
▁מודרני	-9159
▁מסעדות	-9160
▁צהריים	-9161
▁תפקידים	-9162
▁הסיפורים	-9163
▁ספציפיים	-9164
▁האוקיינוס	-9165
במ	-9166
ונל	-9167
יקי	-9168
סקס	-9169
קתי	-9170
▁Gl	-9171
▁Or	-9172
ומרת	-9173
▁בצה	-9174
▁האה	-9175
▁מכש	-9176
▁עצה	-9177
גיעות	-9178
עיפים	-9179
ציעות	-9180
▁האוה	-9181
▁השכר	-9182
▁יראה	-9183
▁נערה	-9184
▁נעשו	-9185
▁נשמה	-9186
▁עיני	-9187
▁עמנו	-9188
▁פרשת	-9189
▁אחרון	-9190
▁אמנים	-9191
▁דורות	-9192
▁ההבנה	-9193
▁ותמיד	-9194
▁ימשיך	-9195
▁לנשיא	-9196
▁מכונה	-9197
▁פגישה	-9198
▁פעילה	-9199
▁שווים	-9200
▁אחראית	-9201
▁ארבעים	-9202
▁בעברית	-9203
▁לחינוך	-9204
▁לרפואה	-9205
▁נסיעות	-9206
▁רצינית	-9207
▁העירייה	-9208
▁הרביעית	-9209
▁להתעורר	-9210
▁מחויבים	-9211
▁מתכוונת	-9212
▁נישואים	-9213
נץ	-9214
-70	-9215
way	-9216
ּוֹ	-9217
ארה	-9218
וצץ	-9219
זבו	-9220
צרת	-9221
▁is	-9222
ומדת	-9223
יגות	-9224
▁אוז	-9225
▁הקצ	-9226
▁ותע	-9227
▁סמל	-9228
▁שבש	-9229
▁שוח	-9230
שיבים	-9231
▁אשמה	-9232
▁הדוק	-9233
▁היקר	-9234
▁מוסד	-9235
▁קלות	-9236
▁רושם	-9237
▁שהאי	-9238
נדרטים	-9239
▁בעמוד	-9240
▁החזון	-9241
▁הכריז	-9242
▁הצורה	-9243
▁עיראק	-9244
▁ההזמנה	-9245
▁מקסיקו	-9246
▁ביצועים	-9247
▁בעיניים	-9248
▁בתעשיית	-9249
▁החיצוני	-9250
▁המשותפת	-9251
▁מיוחדות	-9252
▁מעניינת	-9253
▁הסיכויים	-9254
▁למדיניות	-9255
);	-9256
90	-9257
AM	-9258
EN	-9259
דוק	-9260
וגן	-9261
פשו	-9262
פתה	-9263
reat	-9264
אהבה	-9265
ופנה	-9266
לקים	-9267
נדסה	-9268
▁גיי	-9269
▁ואר	-9270
▁זקן	-9271
▁נרד	-9272
וסטים	-9273
סיבות	-9274
רוגים	-9275
▁אריק	-9276
▁אשתי	-9277
▁בטקס	-9278
▁דעתו	-9279
▁ואלה	-9280
▁טועה	-9281
▁כביש	-9282
▁משטר	-9283
▁נתפס	-9284
▁פוטר	-9285
▁שדות	-9286
▁שמטר	-9287
▁בדירה	-9288
▁בתוכו	-9289
▁הכירו	-9290
▁המכתב	-9291
▁העירו	-9292
▁העלות	-9293
▁הצפון	-9294
▁הרגשה	-9295
▁יוצרת	-9296
▁ניצול	-9297
▁עדכון	-9298
▁קבועה	-9299
▁שנוצר	-9300
▁תרומה	-9301
פתחויות	-9302
▁הופיעו	-9303
▁האורחים	-9304
▁המשפחות	-9305
▁התשובות	-9306
▁מתמודדים	-9307
▁הסימפטומים	-9308
▁טכנולוגיית	-9309
.'	-9310
?'	-9311
af	-9312
xt	-9313
ave	-9314
orn	-9315
yst	-9316
גתי	-9317
יקת	-9318
▁	-9319
י	-9320
ו	-9321
ה	-9322
ל	-9323
ת	-9324
א	-9325
ר	-9326
מ	-9327
ב	-9328
ש	-9329
ם	-9330
נ	-9331
ע	-9332
ד	-9333
כ	-9334
ח	-9335
ק	-9336
פ	-9337
.	-9338
ס	-9339
ג	-9340
,	-9341
ט	-9342
צ	-9343
ן	-9344
ז	-9345
ך	-9346
"	-9347
-	-9348
e	-9349
0	-9350
1	-9351
ף	-9352
?	-9353
a	-9354
o	-9355
i	-9356
2	-9357
:	-9358
n	-9359
r	-9360
t	-9361
'	-9362
)	-9363
(	-9364
s	-9365
l	-9366
ץ	-9367
9	-9368
5	-9369
3	-9370
4	-9371
c	-9372
h	-9373
d	-9374
u	-9375
–	-9376
8	-9377
6	-9378
7	-9379
S	-9380
!	-9381
m	-9382
A	-9383
C	-9384
g	-9385
y	-9386
T	-9387
P	-9388
p	-9389
M	-9390
I	-9391
B	-9392
D	-9393
E	-9394
”	-9395
]	-9396
[	-9397
f	-9398
b	-9399
R	-9400
L	-9401
k	-9402
%	-9403
;	-9404
N	-9405
v	-9406
O	-9407
H	-9408
w	-9409
G	-9410
ּ	-9411
F	-9412
“	-9413
W	-9414
/	-9415
ָ	-9416
ְ	-9417
V	-9418
ַ	-9419
ִ	-9420
U	-9421
’	-9422
x	-9423
ֹ	-9424
ֶ	-9425
־	-9426
K	-9427
״	-9428
J	-9429
ֵ	-9430
Y	-9431
z	-9432
*	-9433
X	-9434
ׁ	-9435
>	-9436
•	-9437
+	-9438
—	-9439
»	-9440
|	-9441
&	-9442
$	-9443
‘	-9444
Q	-9445
j	-9446
Z	-9447
ֲ	-9448
#	-9449
q	-9450
׳	-9451
=	-9452
^	-9453
\	-9454
·	-9455
ׂ	-9456
‬	-9457
}	-9458
{	-9459
_	-9460
~	-9461
ֱ	-9462
«	-9463
`	-9464
→	-9465
é	-9466
‭	-9467
<	-9468
@	-9469
́	-9470
	-9471
←	-9472
🙂	-9473
®	-9474
ֻ	-9475
‫	-9476
°	-9477
׃	-9478
₪	-9479
×	-9480
á	-9481
‪	-9482
€	-9483
′	-9484
↑	-9485
♥	-9486
‐	-9487
í	-9488
›	-9489
ö	-9490
£	-9491
ó	-9492
ü	-9493
©	-9494
ا	-9495
ل	-9496
■	-9497
¶	-9498
●	-9499
ä	-9500
♦	-9501
↩	-9502
­	-9503
è	-9504
â	-9505
◄	-9506
▼	-9507
م	-9508
😉	-9509
	-9510
„	-9511
§	-9512
ç	-9513
α	-9514
ي	-9515
∗	-9516
ر	-9517
	-9518
à	-9519
ο	-9520
ֿ	-9521
−	-9522
►	-9523
τ	-9524
و	-9525
‹	-9526
ú	-9527
λ	-9528
ب	-9529
َ	-9530
👈	-9531
š	-9532
ʉ	-9533
κ	-9534
а	-9535
‡	-9536
️	-9537
¬	-9538
ß	-9539
ł	-9540
ž	-9541
̄	-9542
θ	-9543
о	-9544
ֳ	-9545
ع	-9546
ن	-9547
	-9548
å	-9549
ê	-9550
ñ	-9551
μ	-9552
ρ	-9553
ς	-9554
⬅	-9555
￼	-9556
	-9557
ō	-9558
ι	-9559
π	-9560
и	-9561
⁄	-9562
▪	-9563
▲	-9564
♪	-9565
	-9566
±	-9567
É	-9568
Δ	-9569
γ	-9570
ν	-9571
φ	-9572
н	-9573
ِ	-9574
ی	-9575
😛	-9576
🙁	-9577
¦	-9578
ã	-9579
ć	-9580
ή	-9581
β	-9582
Р	-9583
х	-9584
ت	-9585
س	-9586
ه	-9587
‍	-9588
‒	-9589
‚	-9590
√	-9591
	-9592
👑	-9593
¢	-9594
æ	-9595
ë	-9596
ā	-9597
č	-9598
Ł	-9599
ş	-9600
Θ	-9601
Ω	-9602
ά	-9603
ε	-9604
σ	-9605
О	-9606
в	-9607
с	-9608
ֽ	-9609
أ	-9610
ج	-9611
ح	-9612
د	-9613
ش	-9614
ك	-9615
⁠	-9616
∈	-9617
⋅	-9618
♫	-9619
	-9620
😀	-9621
😊	-9622
	-9623
	-9624
	-9625
Î	-9626
Ö	-9627
Ü	-9628
ø	-9629
ś	-9630
ɾ	-9631
Σ	-9632
η	-9633
υ	-9634
χ	-9635
С	-9636
Т	-9637
р	-9638
і	-9639
֥	-9640
ة	-9641
ذ	-9642
ق	-9643
ُ	-9644
ْ	-9645
٠	-9646
ल	-9647
―	-9648
†	-9649
⁡	-9650
□	-9651
★	-9652
⚡	-9653
✔	-9654
😂	-9655
🤔	-9656
	-9657
	-9658
¿	-9659
Á	-9660
Ç	-9661
ð	-9662
ò	-9663
õ	-9664
ù	-9665
û	-9666
ý	-9667
ÿ	-9668
ă	-9669
Č	-9670
Đ	-9671
ę	-9672
ğ	-9673
ħ	-9674
ī	-9675
İ	-9676
ň	-9677
ő	-9678
œ	-9679
ţ	-9680
ū	-9681
ż	-9682
ɒ	-9683
ʻ	-9684
ˌ	-9685
̈	-9686
Ε	-9687
έ	-9688
ί	-9689
δ	-9690
В	-9691
К	-9692
Н	-9693
д	-9694
е	-9695
й	-9696
п	-9697
т	-9698
у	-9699
ф	-9700
ц	-9701
ч	-9702
я	-9703
֖	-9704
װ	-9705
إ	-9706
خ	-9707
ط	-9708
ा	-9709
ា	-9710
‰	-9711
↓	-9712
∘	-9713
∙	-9714
∽	-9715
≠	-9716
≥	-9717
▶	-9718
☀	-9719
☆	-9720
☺	-9721
♠	-9722
✰	-9723
❻	-9724
❽	-9725
⟩	-9726
⦁	-9727
、	-9728
の	-9729
ル	-9730
ー	-9731
日	-9732
黑	-9733
	-9734
	-9735
	-9736
📄	-9737
🔥	-9738
😁	-9739
😃	-9740
😍	-9741
😚	-9742
¡	-9743
È	-9744
Ë	-9745
Ó	-9746
Ø	-9747
Ú	-9748
Û	-9749
ï	-9750
ô	-9751
÷	-9752
Ġ	-9753
ŋ	-9754
Ś	-9755
Š	-9756
Ÿ	-9757
Ż	-9758
Ž	-9759
ư	-9760
ș	-9761
ț	-9762
ɓ	-9763
ə	-9764
ɛ	-9765
ɸ	-9766
ʊ	-9767
ʌ	-9768
ʼ	-9769
ˈ	-9770
ː	-9771
Α	-9772
Β	-9773
Κ	-9774
Τ	-9775
Φ	-9776
Χ	-9777
Ψ	-9778
ω	-9779
ό	-9780
Б	-9781
Д	-9782
П	-9783
Ы	-9784
Я	-9785
г	-9786
ж	-9787
к	-9788
л	-9789
ш	-9790
ы	-9791
Ҫ	-9792
Ӑ	-9793
Ӗ	-9794
ӝ	-9795
Ӳ	-9796
Ե	-9797
Խ	-9798
Յ	-9799
Ս	-9800
ֺ	-9801
ׅ	-9802
ױ	-9803
آ	-9804
ئ	-9805
ث	-9806
ص	-9807
ف	-9808
ى	-9809
١	-9810
٢	-9811
٨	-9812
٩	-9813
ٰ	-9814
ٹ	-9815
چ	-9816
ھ	-9817
ߟ	-9818
ߡ	-9819
ं	-9820
औ	-9821
ग	-9822
त	-9823
द	-9824
न	-9825
ब	-9826
ि	-9827
ी	-9828
े	-9829
्	-9830
ં	-9831
ગ	-9832
બ	-9833
લ	-9834
ો	-9835
༓	-9836
ខ	-9837
ភ	-9838
ម	-9839
រ	-9840
ស	-9841
ែ	-9842
្	-9843
ṅ	-9844
ạ	-9845
ả	-9846
ἀ	-9847
ὥ	-9848
ῦ	-9849
‮	-9850
⁨	-9851
⁩	-9852
₹	-9853
⇒	-9854
∀	-9855
∂	-9856
∆	-9857
∞	-9858
≪	-9859
≿	-9860
⋯	-9861
─	-9862
▸	-9863
▾	-9864
◻	-9865
◼	-9866
☚	-9867
☝	-9868
♔	-9869
♣	-9870
✌	-9871
✯	-9872
❁	-9873
❓	-9874
❤	-9875
❷	-9876
❼	-9877
❾	-9878
➝	-9879
⟨	-9880
⟵	-9881
⭐	-9882
ア	-9883
ギ	-9884
コ	-9885
シ	-9886
ス	-9887
ド	-9888
ュ	-9889
㪗	-9890
三	-9891
东	-9892
主	-9893
九	-9894
京	-9895
介	-9896
以	-9897
会	-9898
元	-9899
列	-9900
反	-9901
古	-9902
名	-9903
士	-9904
大	-9905
学	-9906
川	-9907
工	-9908
幕	-9909
广	-9910
府	-9911
式	-9912
徳	-9913
慢	-9914
拾	-9915
旦	-9916
本	-9917
来	-9918
株	-9919
民	-9920
浪	-9921
海	-9922
点	-9923
理	-9924
疽	-9925
社	-9926
穂	-9927
空	-9928
章	-9929
第	-9930
简	-9931
算	-9932
絵	-9933
義	-9934
聲	-9935
航	-9936
色	-9937
茶	-9938
蒙	-9939
術	-9940
襲	-9941
詞	-9942
赤	-9943
逆	-9944
道	-9945
都	-9946
鈴	-9947
院	-9948
髓	-9949
黒	-9950
랙	-9951
블	-9952
엠	-9953
	-9954
	-9955
	-9956
	-9957
	-9958
	-9959
	-9960
	-9961
	-9962
	-9963
﴾	-9964
﴿	-9965
🇸	-9966
🇾	-9967
🌈	-9968
🌎	-9969
🍻	-9970
🎉	-9971
🎶	-9972
🏽	-9973
🐔	-9974
👉	-9975
💉	-9976
💔	-9977
💖	-9978
💜	-9979
💫	-9980
📁	-9981
😄	-9982
😅	-9983
😆	-9984
😈	-9985
😏	-9986
😐	-9987
😒	-9988
😜	-9989
😦	-9990
🙌	-9991
🚖	-9992
🚘	-9993
🤨	-9994
🦁	-9995
🧼	-9996
