[UNK]	0
[CLS]	1
[SEP]	2
[PAD]	3
[MASK]	4
!	5
"	6
#	7
$	8
%	9
&	10
'	11
(	12
)	13
*	14
+	15
,	16
-	17
.	18
/	19
0	20
1	21
2	22
3	23
4	24
5	25
6	26
7	27
8	28
9	29
:	30
;	31
<	32
=	33
>	34
?	35
@	36
[	37
\	38
]	39
^	40
_	41
`	42
a	43
b	44
c	45
d	46
e	47
f	48
g	49
h	50
i	51
j	52
k	53
l	54
m	55
n	56
o	57
p	58
q	59
r	60
s	61
t	62
u	63
v	64
w	65
x	66
y	67
z	68
{	69
|	70
}	71
~	72
	73
	74
	75
	76
	77
	78
	79
	80
	81
	82
	83
¡	84
¢	85
£	86
¦	87
§	88
©	89
«	90
¬	91
­	92
®	93
°	94
±	95
¶	96
·	97
»	98
¿	99
×	100
ß	101
à	102
á	103
â	104
ã	105
ä	106
å	107
æ	108
ç	109
è	110
é	111
ê	112
ë	113
í	114
î	115
ï	116
ð	117
ñ	118
ò	119
ó	120
ô	121
õ	122
ö	123
÷	124
ø	125
ù	126
ú	127
û	128
ü	129
ý	130
ÿ	131
ā	132
ă	133
ć	134
č	135
đ	136
ę	137
ğ	138
ġ	139
ħ	140
ī	141
ł	142
ň	143
ŋ	144
ō	145
ő	146
œ	147
ś	148
ş	149
š	150
ţ	151
ū	152
ż	153
ž	154
ư	155
ș	156
ț	157
ɒ	158
ɓ	159
ə	160
ɛ	161
ɸ	162
ɾ	163
ʉ	164
ʊ	165
ʌ	166
ʻ	167
ʼ	168
ˈ	169
ˌ	170
ː	171
́	172
̄	173
̇	174
̈	175
ά	176
έ	177
ή	178
ί	179
α	180
β	181
γ	182
δ	183
ε	184
η	185
θ	186
ι	187
κ	188
λ	189
μ	190
ν	191
ο	192
π	193
ρ	194
ς	195
σ	196
τ	197
υ	198
φ	199
χ	200
ψ	201
ω	202
ό	203
а	204
б	205
в	206
г	207
д	208
е	209
ж	210
и	211
й	212
к	213
л	214
н	215
о	216
п	217
р	218
с	219
т	220
у	221
ф	222
х	223
ц	224
ч	225
ш	226
ы	227
я	228
і	229
ҫ	230
ӑ	231
ӗ	232
ӝ	233
ӳ	234
ե	235
խ	236
յ	237
ս	238
֖	239
֥	240
ְ	241
ֱ	242
ֲ	243
ֳ	244
ִ	245
ֵ	246
ֶ	247
ַ	248
ָ	249
ֹ	250
ֺ	251
ֻ	252
ּ	253
ֽ	254
־	255
ֿ	256
ׁ	257
ׂ	258
׃	259
ׅ	260
א	261
ב	262
ג	263
ד	264
ה	265
ו	266
ז	267
ח	268
ט	269
י	270
ך	271
כ	272
ל	273
ם	274
מ	275
ן	276
נ	277
ס	278
ע	279
ף	280
פ	281
ץ	282
צ	283
ק	284
ר	285
ש	286
ת	287
װ	288
ױ	289
׳	290
״	291
آ	292
أ	293
إ	294
ئ	295
ا	296
ب	297
ة	298
ت	299
ث	300
ج	301
ح	302
خ	303
د	304
ذ	305
ر	306
س	307
ش	308
ص	309
ط	310
ع	311
ف	312
ق	313
ك	314
ل	315
م	316
ن	317
ه	318
و	319
ى	320
ي	321
َ	322
ُ	323
ِ	324
ْ	325
٠	326
١	327
٢	328
٨	329
٩	330
ٰ	331
ٹ	332
چ	333
ھ	334
ی	335
ߟ	336
ߡ	337
ं	338
औ	339
ग	340
त	341
द	342
न	343
ब	344
ल	345
ा	346
ि	347
ी	348
े	349
्	350
ં	351
ગ	352
બ	353
લ	354
ો	355
༓	356
ខ	357
ភ	358
ម	359
រ	360
ស	361
ា	362
ែ	363
្	364
ṅ	365
ạ	366
ả	367
ἀ	368
ὥ	369
ῦ	370
​	371
‌	372
‍	373
‎	374
‏	375
‐	376
‒	377
–	378
—	379
―	380
‘	381
’	382
‚	383
“	384
”	385
„	386
†	387
‡	388
•	389
‪	390
‫	391
‬	392
‭	393
‮	394
‰	395
′	396
‹	397
›	398
⁄	399
⁠	400
⁡	401
⁨	402
⁩	403
₪	404
€	405
₹	406
←	407
↑	408
→	409
↓	410
↩	411
⇒	412
∀	413
∂	414
∆	415
∈	416
−	417
∗	418
∘	419
∙	420
√	421
∞	422
∽	423
≠	424
≥	425
≪	426
≿	427
⋅	428
⋯	429
─	430
■	431
□	432
▪	433
▲	434
▶	435
▸	436
►	437
▼	438
▾	439
◄	440
●	441
◻	442
◼	443
☀	444
★	445
☆	446
☚	447
☝	448
☺	449
♔	450
♠	451
♣	452
♥	453
♦	454
♪	455
♫	456
⚡	457
✌	458
✔	459
✯	460
✰	461
❁	462
❓	463
❤	464
❷	465
❻	466
❼	467
❽	468
❾	469
➝	470
⟨	471
⟩	472
⟵	473
⦁	474
⬅	475
⭐	476
、	477
の	478
ア	479
ギ	480
コ	481
シ	482
ス	483
ド	484
ュ	485
ル	486
ー	487
㪗	488
三	489
东	490
主	491
九	492
京	493
介	494
以	495
会	496
元	497
列	498
反	499
古	500
名	501
士	502
大	503
学	504
川	505
工	506
幕	507
广	508
府	509
式	510
徳	511
慢	512
拾	513
日	514
旦	515
本	516
来	517
株	518
民	519
浪	520
海	521
点	522
理	523
疽	524
社	525
穂	526
空	527
章	528
第	529
简	530
算	531
絵	532
義	533
聲	534
航	535
色	536
茶	537
蒙	538
術	539
襲	540
詞	541
赤	542
逆	543
道	544
都	545
鈴	546
院	547
髓	548
黑	549
黒	550
랙	551
블	552
엠	553
	554
	555
	556
	557
	558
	559
	560
	561
	562
	563
	564
	565
	566
	567
	568
﴾	569
﴿	570
️	571
﻿	572
￼	573
�	574
🇸	575
🇾	576
🌈	577
🌎	578
🍻	579
🎉	580
🎶	581
🏽	582
🐔	583
👈	584
👉	585
👑	586
💉	587
💔	588
💖	589
💜	590
💫	591
📁	592
📄	593
🔥	594
😀	595
😁	596
😂	597
😃	598
😄	599
😅	600
😆	601
😈	602
😉	603
😊	604
😍	605
😏	606
😐	607
😒	608
😚	609
😛	610
😜	611
😦	612
🙁	613
🙂	614
🙌	615
🚖	616
🚘	617
🤔	618
🤨	619
🦁	620
🧼	621
##נ	622
##כ	623
##ד	624
##ל	625
##ב	626
##מ	627
##ה	628
##e	629
##b	630
##l	631
##ג	632
##י	633
##צ	634
##ט	635
##ר	636
##ת	637
##ּ	638
##a	639
##r	640
##t	641
##h	642
##y	643
##פ	644
##ו	645
##ס	646
##ע	647
##ך	648
##ק	649
##א	650
##ן	651
##ַ	652
##ֵ	653
##ז	654
##ם	655
##ָ	656
##ש	657
##[	658
##\	659
##ח	660
##i	661
##s	662
##c	663
##3	664
##n	665
##o	666
##w	667
##ֶ	668
##ִ	669
##f	670
##ְ	671
##ֹ	672
##ο	673
##υ	674
##σ	675
##ι	676
##κ	677
##ή	678
##m	679
##v	680
##'	681
##u	682
##d	683
##ף	684
##p	685
##ׁ	686
##م	687
##ا	688
##ر	689
##ت	690
##^	691
##*	692
##0	693
##è	694
##g	695
##x	696
##ץ	697
##]	698
##.	699
##2	700
##é	701
##1	702
##”	703
##k	704
##👑	705
##8	706
##9	707
##z	708
##j	709
##ֻ	710
##q	711
##!	712
##â	713
##4	714
##7	715
##6	716
##-	717
##>	718
##_	719
##ֲ	720
##‏	721
##ֱ	722
##ä	723
##ü	724
##ł	725
##á	726
##←	727
##?	728
##ð	729
##ρ	730
##ά	731
##τ	732
##ς	733
##‬	734
##ö	735
##5	736
##ٰ	737
##ذ	738
##َ	739
##ž	740
##ׂ	741
##}	742
###	743
##ê	744
##"	745
##í	746
##č	747
##‘	748
##æ	749
##‎	750
##’	751
##=	752
##œ	753
##ó	754
##)	755
##;	756
##ã	757
##֖	758
##å	759
##ø	760
##θ	761
##״	762
##ň	763
##ý	764
##(	765
##:	766
##府	767
##ֽ	768
##®	769
##ṅ	770
##٢	771
##٠	772
##💫	773
##🎶	774
##🌈	775
##☀	776
##و	777
##ي	778
##ش	779
##{	780
##	781
##и	782
##ж	783
##н	784
##й	785
##ß	786
##ā	787
##־	788
##ِ	789
##ل	790
##ْ	791
##ُ	792
##س	793
##ن	794
##&	795
##/	796
##‪	797
##<	798
##λ	799
##α	800
##ν	801
##η	802
##茶	803
##ֳ	804
##ç	805
##д	806
##ц	807
##о	808
##́	809
##в	810
##ح	811
##ق	812
##ś	813
##ę	814
##🤔	815
##ō	816
##à	817
##õ	818
##,	819
##š	820
##⚡	821
##`	822
##׳	823
##|	824
##ʉ	825
##ӝ	826
##ɓ	827
##“	828
##	829
##%	830
##色	831
##列	832
##ߡ	833
##@	834
##٩	835
##ئ	836
##ى	837
##װ	838
##ы	839
##+	840
##东	841
##∗	842
##ʌ	843
##ŋ	844
##ə	845
##ب	846
##の	847
##日	848
##ī	849
##😂	850
##­	851
##ả	852
##б	853
##р	854
##🤨	855
##$	856
##έ	857
##ߟ	858
##ż	859
##🐔	860
##ា	861
##ស	862
##ខ	863
##្	864
##ម	865
##ែ	866
##រ	867
##у	868
##с	869
##к	870
##а	871
##я	872
##₹	873
##€	874
##ñ	875
##ţ	876
##ع	877
##ك	878
##ه	879
##😍	880
##😁	881
##ف	882
##ֿ	883
##„	884
##♥	885
##π	886
##–	887
##֥	888
##㪗	889
##ῦ	890
##ć	891
##🚖	892
##ɛ	893
##ˌ	894
##ʊ	895
##ː	896
##§	897
##元	898
##п	899
##е	900
##ε	901
##β	902
##🏽	903
##د	904
##😚	905
##民	906
##主	907
##義	908
##ș	909
##工	910
##学	911
##院	912
##	913
##چ	914
##‌	915
##ی	916
##‍	917
##블	918
##랙	919
##ő	920
##خ	921
##ج	922
##і	923
##ч	924
##—	925
##ħ	926
##‭	927
##ɒ	928
##ū	929
##◄	930
##ú	931
##ھ	932
##ٹ	933
##⁠	934
##т	935
##名	936
##ô	937
##े	938
##त	939
##ा	940
##ë	941
##»	942
##古	943
##襲	944
##来	945
##絵	946
##詞	947
##​	948
##ص	949
##ث	950
##ױ	951
##̇	952
##ة	953
##أ	954
##ط	955
##逆	956
##ル	957
##ー	958
##シ	959
##ュ	960
##ω	961
##‡	962
##ि	963
##ल	964
##्	965
##ी	966
##û	967
##�	968
##ф	969
##聲	970
##ò	971
##′	972
##ɾ	973
##ạ	974
##式	975
##会	976
##社	977
##本	978
##航	979
##空	980
##介	981
##х	982
##ï	983
##﻿	984
##ț	985
##ʼ	986
##📁	987
##ğ	988
##ă	989
##ş	990
##ш	991
##章	992
##算	993
##術	994
##յ	995
##խ	996
##ե	997
##ं	998
##ग	999
##🇾	1000
##ֺ	1001
##￼	1002
##ί	1003
##‫	1004
##ư	1005
##ં	1006
##ગ	1007
##લ	1008
##ો	1009
##ド	1010
##ギ	1011
##ア	1012
##ス	1013
##г	1014
##л	1015
##φ	1016
##ׅ	1017
##γ	1018
##↩	1019
##►	1020
##~	1021
##都	1022
##ʻ	1023
##ים	1024
##ות	1025
של	1026
##ור	1027
##ני	1028
##ול	1029
את	1030
##ית	1031
##נו	1032
המ	1033
לה	1034
##וד	1035
הי	1036
לא	1037
##בר	1038
##יר	1039
##וב	1040
על	1041
##יל	1042
הא	1043
##וא	1044
##רי	1045
##ון	1046
##נה	1047
##די	1048
##יה	1049
##יות	1050
##שר	1051
##ומ	1052
##ין	1053
##ום	1054
##תי	1055
##ופ	1056
##לי	1057
##מו	1058
מה	1059
##שי	1060
##נים	1061
במ	1062
זה	1063
##כל	1064
##וח	1065
אח	1066
בא	1067
##שה	1068
##וק	1069
##נות	1070
הח	1071
אי	1072
##מה	1073
##יד	1074
הוא	1075
או	1076
הת	1077
כל	1078
הע	1079
הש	1080
הר	1081
##בי	1082
##וצ	1083
##וע	1084
##וס	1085
##בל	1086
למ	1087
מא	1088
##יק	1089
##פר	1090
##שים	1091
מש	1092
בע	1093
##לה	1094
##יים	1095
##יי	1096
##וג	1097
שה	1098
##רים	1099
עם	1100
לע	1101
##את	1102
##כול	1103
מת	1104
##רו	1105
מס	1106
##לא	1107
הס	1108
##טי	1109
אני	1110
יש	1111
##זה	1112
##לו	1113
כי	1114
אות	1115
##רא	1116
##יע	1117
##וש	1118
##בה	1119
##רה	1120
##ותר	1121
הק	1122
הפ	1123
בש	1124
מע	1125
שא	1126
##נת	1127
##יו	1128
אנ	1129
הג	1130
היא	1131
##מי	1132
יותר	1133
##שו	1134
הה	1135
##דר	1136
##וכ	1137
לפ	1138
הב	1139
לש	1140
גם	1141
לי	1142
יכול	1143
בי	1144
".	1145
מח	1146
##יא	1147
##רכ	1148
##מת	1149
היה	1150
הצ	1151
##יש	1152
##מש	1153
##רג	1154
אם	1155
בה	1156
##מים	1157
##בים	1158
##טר	1159
##ולם	1160
לח	1161
מק	1162
מי	1163
אמ	1164
##וו	1165
לב	1166
##דים	1167
בת	1168
הם	1169
הכ	1170
##חר	1171
##סי	1172
##כם	1173
##עות	1174
##נית	1175
##בור	1176
##יפ	1177
אל	1178
##אל	1179
לק	1180
אבל	1181
##שות	1182
בח	1183
##כו	1184
##מן	1185
הנ	1186
כא	1187
וא	1188
##בות	1189
##רח	1190
מצ	1191
##שת	1192
20	1193
##בע	1194
הז	1195
##בו	1196
##נס	1197
##לק	1198
הד	1199
##רת	1200
שי	1201
##מצ	1202
רק	1203
##וי	1204
כדי	1205
להיות	1206
##דם	1207
##כה	1208
##לים	1209
##מות	1210
##ירות	1211
##עת	1212
אתה	1213
##דה	1214
אפ	1215
וה	1216
##פת	1217
אחד	1218
##חת	1219
##נט	1220
מכ	1221
##חנו	1222
##חה	1223
##אי	1224
##קר	1225
##אים	1226
##וף	1227
פע	1228
מב	1229
##יס	1230
עצ	1231
##ורה	1232
##אה	1233
בס	1234
כמו	1235
##בוד	1236
##עה	1237
יה	1238
##ברים	1239
כך	1240
לת	1241
##חות	1242
##וז	1243
צרי	1244
##ירה	1245
בר	1246
להת	1247
##יותר	1248
19	1249
##בת	1250
##ילה	1251
##..	1252
##וך	1253
זו	1254
##קה	1255
##נג	1256
שלה	1257
##יתה	1258
##שראל	1259
##פי	1260
##כים	1261
##כת	1262
מד	1263
אז	1264
##ולי	1265
לג	1266
##אות	1267
עד	1268
שמ	1269
##שוב	1270
##ורים	1271
לו	1272
ידי	1273
טוב	1274
##דול	1275
##פק	1276
שלי	1277
##כן	1278
בכל	1279
ביותר	1280
##רות	1281
שלך	1282
הט	1283
##וט	1284
##חק	1285
##לב	1286
##יתי	1287
##צי	1288
המש	1289
לד	1290
##פה	1291
##לת	1292
##וני	1293
פר	1294
מג	1295
הרא	1296
האם	1297
זאת	1298
##ילו	1299
...	1300
##לות	1301
##עים	1302
אנחנו	1303
סי	1304
##וצה	1305
##ונים	1306
##כות	1307
בג	1308
ממ	1309
##טים	1310
##יצ	1311
הזה	1312
##ומר	1313
##מיד	1314
##ינו	1315
##טה	1316
אותו	1317
רא	1318
שלו	1319
##ונ	1320
##שהו	1321
אין	1322
בין	1323
בק	1324
שלנו	1325
##לח	1326
מדי	1327
כש	1328
##דות	1329
לס	1330
כמה	1331
מפ	1332
##מוד	1333
##ינ	1334
בפ	1335
##אר	1336
מאוד	1337
חד	1338
##ניה	1339
בכ	1340
שנ	1341
##סק	1342
בב	1343
היו	1344
עבור	1345
##er	1346
##זור	1347
לך	1348
##ופן	1349
##ראה	1350
אנשים	1351
201	1352
##פים	1353
##ניות	1354
##00	1355
לפני	1356
דבר	1357
שע	1358
ול	1359
לנו	1360
##רך	1361
חבר	1362
אנו	1363
אך	1364
##ירים	1365
##עי	1366
לאחר	1367
יח	1368
לעשות	1369
צריך	1370
ישראל	1371
",	1372
עוד	1373
אר	1374
בו	1375
##נק	1376
##ולה	1377
##ילים	1378
##לט	1379
##דת	1380
עו	1381
בני	1382
##תר	1383
לכ	1384
קר	1385
כבר	1386
##ופה	1387
שהוא	1388
##ניים	1389
איך	1390
##חים	1391
יוד	1392
הכל	1393
##דו	1394
לצ	1395
מז	1396
במק	1397
##כון	1398
אמר	1399
אשר	1400
נש	1401
הרבה	1402
בצ	1403
##לך	1404
##on	1405
שב	1406
אינ	1407
נוס	1408
##מע	1409
##מר	1410
##יג	1411
הבי	1412
כאשר	1413
להג	1414
המח	1415
##רב	1416
המק	1417
##בודה	1418
נית	1419
בט	1420
##דרך	1421
##ברה	1422
##סט	1423
אלה	1424
יל	1425
באופן	1426
אלו	1427
אתם	1428
בנו	1429
שם	1430
שלהם	1431
##שב	1432
שלא	1433
גדול	1434
חיי	1435
##פות	1436
תק	1437
##ונה	1438
חלק	1439
היום	1440
##פשר	1441
##פט	1442
אדם	1443
##סים	1444
##in	1445
).	1446
##וכל	1447
אפשר	1448
במה	1449
##ורת	1450
ולא	1451
השי	1452
וב	1453
אחר	1454
רוצה	1455
שנים	1456
##יח	1457
פי	1458
כן	1459
##נד	1460
##פור	1461
נע	1462
אחרי	1463
##ומי	1464
##יון	1465
אחת	1466
מר	1467
כול	1468
##סף	1469
יצ	1470
##שון	1471
##קים	1472
שאת	1473
יד	1474
##ילות	1475
##יקה	1476
הבר	1477
שני	1478
תח	1479
נג	1480
ים	1481
##ווה	1482
חי	1483
##an	1484
בל	1485
##צה	1486
זמן	1487
##וץ	1488
מט	1489
לר	1490
ות	1491
נת	1492
העולם	1493
הפר	1494
הל	1495
תה	1496
##וחות	1497
##רט	1498
##ורך	1499
יום	1500
למע	1501
##קות	1502
האח	1503
##נשים	1504
רג	1505
בית	1506
לכל	1507
##שיו	1508
##וות	1509
##יהם	1510
יכולים	1511
מספר	1512
מיל	1513
עדי	1514
##מד	1515
במש	1516
לרא	1517
##ורי	1518
##שית	1519
##ולים	1520
להם	1521
##בד	1522
קט	1523
הייתה	1524
##צות	1525
##ולוג	1526
האמ	1527
##יט	1528
200	1529
##כי	1530
חוש	1531
##ידע	1532
יהיה	1533
גר	1534
אותם	1535
##ar	1536
##מוש	1537
##צוע	1538
##ובה	1539
##או	1540
נפ	1541
##טח	1542
פעם	1543
המע	1544
##or	1545
ממש	1546
##ובר	1547
בז	1548
למה	1549
##הים	1550
##צע	1551
בד	1552
##ידה	1553
##ריק	1554
אחרים	1555
כת	1556
מוצ	1557
חז	1558
##כשיו	1559
##כנ	1560
##ורות	1561
th	1562
המס	1563
קצ	1564
אף	1565
יע	1566
שאני	1567
אלי	1568
##של	1569
שק	1570
כאן	1571
נה	1572
תמיד	1573
##ומים	1574
בשנת	1575
משת	1576
##ומה	1577
שלכם	1578
##ואה	1579
וע	1580
ניתן	1581
##בא	1582
##רכת	1583
שיש	1584
##גר	1585
חשוב	1586
הראשו	1587
הנו	1588
##חיל	1589
##ודה	1590
##en	1591
התק	1592
נק	1593
##al	1594
שהם	1595
בדי	1596
רבים	1597
##סת	1598
##פו	1599
##חי	1600
##רכז	1601
##וצים	1602
להפ	1603
איר	1604
בעולם	1605
##יעה	1606
##לית	1607
עצמ	1608
##יכ	1609
אותה	1610
ואת	1611
שנה	1612
##חו	1613
##בוע	1614
##תיים	1615
##צל	1616
##סה	1617
משהו	1618
אלא	1619
אס	1620
ברי	1621
ומ	1622
פשו	1623
שת	1624
נמצ	1625
##לל	1626
עוב	1627
##דש	1628
באמצ	1629
המת	1630
##דינה	1631
##ירת	1632
##וריה	1633
לל	1634
##at	1635
הסי	1636
##צב	1637
##es	1638
ללא	1639
הספר	1640
ספר	1641
האי	1642
הגדול	1643
משפ	1644
ית	1645
עדיין	1646
##חד	1647
##ובות	1648
##סטי	1649
##ניין	1650
דרך	1651
קי	1652
עכשיו	1653
##גם	1654
שכ	1655
##מין	1656
הן	1657
לכם	1658
##לם	1659
##רץ	1660
##ביר	1661
##ומות	1662
די	1663
באמת	1664
אומר	1665
תר	1666
נח	1667
##מית	1668
in	1669
רצ	1670
##רונות	1671
שר	1672
לראות	1673
##מעות	1674
10	1675
תע	1676
אולי	1677
##בוה	1678
##ציה	1679
במהלך	1680
##זו	1681
התי	1682
##גה	1683
##אן	1684
##יקר	1685
##שא	1686
להשת	1687
הרג	1688
הראשון	1689
##יב	1690
חיים	1691
the	1692
אה	1693
##וחד	1694
אוה	1695
האדם	1696
אפילו	1697
הול	1698
##ביל	1699
##עם	1700
הזמן	1701
עשו	1702
##יבור	1703
אותי	1704
פשוט	1705
שאתה	1706
צע	1707
בדרך	1708
אד	1709
מוכ	1710
חוק	1711
##ונות	1712
מן	1713
##יאות	1714
החיים	1715
##ic	1716
##מונה	1717
##וה	1718
בבית	1719
מוד	1720
שזה	1721
##ודות	1722
##פל	1723
##גים	1724
היל	1725
השני	1726
לט	1727
קור	1728
##וסי	1729
חש	1730
באמצעות	1731
##בק	1732
רוב	1733
שח	1734
##ואר	1735
##ודים	1736
##ודי	1737
תוכ	1738
פת	1739
##מור	1740
הופ	1741
אומ	1742
סט	1743
יודע	1744
מקום	1745
##ולות	1746
##קד	1747
##ישה	1748
לקבל	1749
וכ	1750
##צד	1751
רח	1752
##צר	1753
כלל	1754
התע	1755
##נצ	1756
היתה	1757
##ופי	1758
שבו	1759
18	1760
##צמ	1761
התח	1762
##it	1763
להב	1764
),	1765
דברים	1766
רוצים	1767
##גע	1768
כמ	1769
מלא	1770
##ווח	1771
קשה	1772
##מעט	1773
מוס	1774
המא	1775
אינו	1776
נא	1777
שוב	1778
##זר	1779
הרי	1780
הייתי	1781
מאז	1782
השת	1783
##ויות	1784
שהיא	1785
הדי	1786
נראה	1787
בן	1788
הכי	1789
מרג	1790
##גל	1791
##le	1792
סוג	1793
החל	1794
##ותו	1795
כד	1796
במקום	1797
במי	1798
היח	1799
צריכים	1800
בלי	1801
##ליך	1802
בהת	1803
פל	1804
אור	1805
כיצד	1806
טיפ	1807
##צור	1808
תש	1809
גור	1810
##מל	1811
ההת	1812
הראשונה	1813
במשך	1814
##נחנו	1815
אלוהים	1816
לדבר	1817
כפי	1818
##טרנט	1819
##צים	1820
מוש	1821
מנה	1822
חדש	1823
ני	1824
##טרה	1825
יכולה	1826
##ריות	1827
##פון	1828
##יפור	1829
##פש	1830
##שיך	1831
##ומית	1832
##ou	1833
להע	1834
עלי	1835
משמעות	1836
רע	1837
למצ	1838
נגד	1839
איש	1840
##יסט	1841
##פיק	1842
בסי	1843
פחות	1844
האלה	1845
ילדים	1846
חל	1847
מל	1848
##ובן	1849
להצ	1850
##קט	1851
##st	1852
החברה	1853
גבוה	1854
כמעט	1855
יוצ	1856
מכל	1857
חוד	1858
##טת	1859
##ריך	1860
שתי	1861
מסוג	1862
##נלא	1863
קוד	1864
##re	1865
עשר	1866
וח	1867
##om	1868
אית	1869
בתח	1870
הדבר	1871
מידע	1872
בלב	1873
נכ	1874
העיר	1875
נס	1876
##פול	1877
##ברת	1878
תא	1879
?"	1880
מוע	1881
תג	1882
לפע	1883
##נוי	1884
עסק	1885
##מא	1886
##וקר	1887
במח	1888
פני	1889
רב	1890
##ומת	1891
##פרי	1892
שבה	1893
אב	1894
##ער	1895
##נוע	1896
##גת	1897
##וון	1898
##וקים	1899
##יז	1900
קב	1901
15	1902
מתח	1903
##ביב	1904
הברית	1905
דול	1906
##דל	1907
##ליים	1908
מהם	1909
נכון	1910
עבודה	1911
בתוך	1912
הלא	1913
בשביל	1914
שום	1915
עצמו	1916
המדינה	1917
##רד	1918
##קת	1919
##זרח	1920
##כנולוג	1921
קל	1922
##לחמה	1923
##נון	1924
הזו	1925
עושה	1926
##פקיד	1927
חס	1928
להש	1929
לכן	1930
מיליון	1931
##נם	1932
##קס	1933
לז	1934
##נן	1935
##כב	1936
רבות	1937
##גות	1938
לנ	1939
##פס	1940
בגלל	1941
ביק	1942
כולם	1943
לפי	1944
בדיוק	1945
הור	1946
ביום	1947
##חור	1948
מור	1949
משחק	1950
בזמן	1951
לדעת	1952
אותך	1953
בלתי	1954
מתוך	1955
למרות	1956
##יעים	1957
בקר	1958
##כר	1959
כולל	1960
##טית	1961
##בח	1962
an	1963
האיר	1964
000	1965
במס	1966
##תה	1967
לגבי	1968
שונים	1969
##וצאות	1970
##שימה	1971
למצוא	1972
הממש	1973
ידע	1974
12	1975
##תיד	1976
מתי	1977
קיי	1978
."	1979
מוז	1980
כשה	1981
199	1982
אחרת	1983
##ביא	1984
##ברסי	1985
##מון	1986
וגם	1987
##מנות	1988
##וסט	1989
בעלי	1990
##רכים	1991
יק	1992
##שיא	1993
להח	1994
ואני	1995
##ro	1996
להכ	1997
##ובים	1998
הני	1999
##יני	2000
במיוחד	2001
##ינים	2002
וזה	2003
תהיה	2004
השנה	2005
יחד	2006
הוד	2007
##el	2008
לקר	2009
##פע	2010
##סם	2011
ברח	2012
##מנים	2013
##ועים	2014
לכך	2015
להשתמש	2016
הלי	2017
קצת	2018
##רגון	2019
יודעים	2020
הזאת	2021
בטוח	2022
##וצאה	2023
##וחר	2024
##ריים	2025
מנת	2026
האחר	2027
ור	2028
והוא	2029
כה	2030
הנה	2031
##ion	2032
##ופות	2033
##יוני	2034
##טל	2035
לשי	2036
העבודה	2037
##רגע	2038
##בעה	2039
בצורה	2040
חושב	2041
##אלי	2042
מופ	2043
לפחות	2044
##כויות	2045
##קו	2046
הפל	2047
##ינטרנט	2048
הגיע	2049
הפע	2050
עליו	2051
##דע	2052
##נסה	2053
חברת	2054
##טות	2055
במע	2056
נו	2057
##קל	2058
מספיק	2059
פור	2060
שירות	2061
במו	2062
ולה	2063
##is	2064
of	2065
##גש	2066
##בול	2067
כזה	2068
המצ	2069
הבע	2070
##ואים	2071
##רונה	2072
הקר	2073
למש	2074
פרי	2075
##גור	2076
##שיים	2077
##וקה	2078
טר	2079
הדרך	2080
הדברים	2081
בהם	2082
מתק	2083
##לוט	2084
יור	2085
מאשר	2086
טובה	2087
מערכת	2088
כיום	2089
מדוע	2090
תוך	2091
עומ	2092
אוכל	2093
שבוע	2094
תכ	2095
##ייס	2096
לפת	2097
האמריק	2098
דולר	2099
st	2100
##ווי	2101
חופ	2102
קו	2103
##פתח	2104
##et	2105
##וצר	2106
##סיק	2107
קרי	2108
30	2109
##ריקה	2110
מוג	2111
ארו	2112
תוכל	2113
וש	2114
##תו	2115
##רום	2116
המשפ	2117
ברא	2118
טבע	2119
כסף	2120
נשים	2121
##oo	2122
שאנחנו	2123
##כור	2124
##משים	2125
##דינות	2126
אש	2127
##ותה	2128
##כונה	2129
ימים	2130
החד	2131
קשר	2132
קול	2133
ראש	2134
ניס	2135
מישהו	2136
שעות	2137
בישראל	2138
עמ	2139
אותנו	2140
11	2141
נד	2142
הבית	2143
החוק	2144
להגיע	2145
##משיך	2146
בלבד	2147
##טו	2148
##סטר	2149
##ולד	2150
בשי	2151
בנ	2152
קיבל	2153
להבין	2154
##ואי	2155
אופ	2156
כנ	2157
##ליח	2158
##מוך	2159
נות	2160
לזה	2161
##קי	2162
ואז	2163
שיע	2164
שאתם	2165
אחרות	2166
##זרה	2167
##מנ	2168
##אלה	2169
##שרד	2170
נמצא	2171
##למיד	2172
מסת	2173
##טחון	2174
שלוש	2175
##נויות	2176
אינם	2177
##בט	2178
##ac	2179
בעוד	2180
עושים	2181
##מיים	2182
##רפת	2183
##קש	2184
מסוי	2185
##תים	2186
##צת	2187
בתי	2188
הארץ	2189
מקבל	2190
פה	2191
מכן	2192
##זק	2193
##ודש	2194
ליי	2195
זהו	2196
סוף	2197
כמובן	2198
הטי	2199
התא	2200
גיל	2201
ומה	2202
העוב	2203
בנוסף	2204
דו	2205
##מינים	2206
##יוון	2207
המט	2208
##גיע	2209
למעשה	2210
##בית	2211
##תם	2212
בעיקר	2213
##il	2214
מול	2215
##וצות	2216
תת	2217
מזה	2218
##יפה	2219
##רכות	2220
##עו	2221
##אם	2222
##רגיה	2223
רש	2224
אינה	2225
מבי	2226
נוש	2227
##מפ	2228
לעולם	2229
17	2230
מיי	2231
##יקט	2232
לתת	2233
הללו	2234
לקחת	2235
##ed	2236
להס	2237
האנשים	2238
הבא	2239
שימוש	2240
פולי	2241
##ברות	2242
הכול	2243
הממשלה	2244
##מבר	2245
ללמוד	2246
##ושר	2247
מעל	2248
##משך	2249
לעבוד	2250
בשל	2251
16	2252
הלב	2253
תחת	2254
בפר	2255
##צו	2256
חשב	2257
##שובה	2258
המשפט	2259
עק	2260
המכ	2261
שהיה	2262
מומ	2263
##ופו	2264
שש	2265
##ומיים	2266
מוק	2267
הגר	2268
מדובר	2269
##מונות	2270
##מס	2271
אזרח	2272
מקצוע	2273
התר	2274
##ניהם	2275
##am	2276
כוח	2277
##שיג	2278
אג	2279
רוח	2280
נוסף	2281
פעמים	2282
##רבית	2283
##נטי	2284
##ופים	2285
##ינוך	2286
חייב	2287
קודם	2288
הו	2289
פרס	2290
##as	2291
ברור	2292
##ינה	2293
לעזור	2294
##ריה	2295
תי	2296
יס	2297
סרט	2298
השפ	2299
מים	2300
##ירי	2301
אולם	2302
אצל	2303
##יתוח	2304
##ובת	2305
האנו	2306
זק	2307
עבר	2308
המה	2309
13	2310
##ol	2311
בעצ	2312
##ליט	2313
לומר	2314
המשחק	2315
האחרון	2316
למשל	2317
ארה	2318
גדולה	2319
##ובי	2320
##ינם	2321
##נסות	2322
##רוש	2323
דקות	2324
##ילי	2325
##סיון	2326
##גון	2327
##רטי	2328
גל	2329
הילדים	2330
יהיו	2331
##עד	2332
##ילת	2333
פעולה	2334
##מק	2335
לבד	2336
האד	2337
רכ	2338
ספק	2339
להי	2340
השנים	2341
##ירוש	2342
צי	2343
##ליה	2344
המב	2345
מעט	2346
רואה	2347
##וסר	2348
מרכז	2349
##ch	2350
ליצור	2351
רפ	2352
פרו	2353
##גי	2354
##ing	2355
##ודית	2356
##זון	2357
מוב	2358
שנות	2359
14	2360
צריכה	2361
עש	2362
##דרה	2363
##עתי	2364
##וסים	2365
מחדש	2366
נור	2367
##תרון	2368
##יסטוריה	2369
שכל	2370
הציבור	2371
##אית	2372
##שם	2373
תפ	2374
בכלל	2375
הגוף	2376
##הי	2377
##ay	2378
שומ	2379
##דיה	2380
איזה	2381
השלי	2382
לפר	2383
מטר	2384
אוהב	2385
חדשים	2386
הסרט	2387
ככל	2388
##נתי	2389
מוח	2390
למח	2391
##וציא	2392
קרובות	2393
זוכ	2394
##רון	2395
קש	2396
תנו	2397
נוספים	2398
כח	2399
##כונות	2400
ממו	2401
##זיה	2402
##ילדים	2403
##וניברסי	2404
בתחום	2405
##גו	2406
חודשים	2407
ער	2408
הפלסטי	2409
בפני	2410
באי	2411
צורך	2412
שאין	2413
כאלה	2414
שלושה	2415
בכך	2416
כעת	2417
25	2418
##ביע	2419
##ידים	2420
שונות	2421
##כלה	2422
מדינות	2423
##iv	2424
##נטים	2425
הבח	2426
שנת	2427
בעבר	2428
##כתב	2429
ניצ	2430
##נהל	2431
לאח	2432
הדר	2433
כגון	2434
לבית	2435
##וקט	2436
יר	2437
##טיח	2438
##יונות	2439
משום	2440
למו	2441
##דור	2442
בעל	2443
מחקר	2444
##זיק	2445
ספ	2446
100	2447
מלח	2448
קלי	2449
טע	2450
ביט	2451
הבינלא	2452
##זם	2453
השל	2454
האמת	2455
##נויים	2456
בתק	2457
קטן	2458
מנ	2459
נב	2460
באר	2461
באתר	2462
ברחבי	2463
המל	2464
הזד	2465
עמו	2466
החדש	2467
##שונה	2468
תלו	2469
הקט	2470
מצב	2471
##קום	2472
קורה	2473
##וגמה	2474
מעור	2475
באותו	2476
שונה	2477
##ow	2478
##מיכה	2479
לאורך	2480
אחוז	2481
ללכת	2482
50	2483
העסק	2484
##וסיף	2485
המוע	2486
##ופא	2487
##מח	2488
##ופת	2489
##חל	2490
##יחס	2491
לוק	2492
תיא	2493
התוכ	2494
ילד	2495
##טיות	2496
מפני	2497
##מוקר	2498
'.	2499
on	2500
##קור	2501
בשנה	2502
כדור	2503
בבר	2504
בדר	2505
דור	2506
המוד	2507
##גרת	2508
יי	2509
רי	2510
198	2511
לעתים	2512
##סון	2513
עובד	2514
מיד	2515
עבוד	2516
לפעמים	2517
##עיון	2518
חדשה	2519
##ביבה	2520
##וסיה	2521
להר	2522
מגיע	2523
##ig	2524
שאלה	2525
##ra	2526
##קרים	2527
שהת	2528
עצמי	2529
לצי	2530
מבחי	2531
הטוב	2532
”.	2533
##נסי	2534
באיר	2535
##ווים	2536
re	2537
אכ	2538
לשמור	2539
לכת	2540
##למידים	2541
##חלט	2542
אמריק	2543
יא	2544
מני	2545
##ent	2546
המי	2547
##שתי	2548
##וויר	2549
ולכן	2550
ch	2551
##ירו	2552
מקור	2553
צד	2554
יית	2555
הקב	2556
ארצות	2557
פול	2558
##לווי	2559
עי	2560
##ודת	2561
יב	2562
דר	2563
לתק	2564
להשיג	2565
יורק	2566
מעבר	2567
החלט	2568
טובים	2569
##טיים	2570
ההש	2571
להפוך	2572
עובדים	2573
##דיו	2574
##ועל	2575
דא	2576
##מרי	2577
לקרוא	2578
מות	2579
ממנו	2580
##סור	2581
שצ	2582
הסכ	2583
##בלת	2584
פעילות	2585
הטבע	2586
בגיל	2587
חברות	2588
שינוי	2589
##טיבי	2590
בוא	2591
לשנות	2592
194	2593
להא	2594
##וחה	2595
197	2596
קרא	2597
תודה	2598
הקה	2599
למי	2600
##טון	2601
##ot	2602
כנראה	2603
באזור	2604
מו	2605
לחלוט	2606
לחלוטין	2607
זכויות	2608
משק	2609
אמרה	2610
לבצע	2611
עיר	2612
לבין	2613
בחיים	2614
כתב	2615
הצד	2616
המרכז	2617
##יך	2618
כלומר	2619
בסוף	2620
חוז	2621
מנו	2622
לחשוב	2623
##ישאר	2624
יו	2625
מאפשר	2626
בעיר	2627
##כנולוגיה	2628
דיו	2629
##שרה	2630
##טב	2631
סג	2632
##קע	2633
##ופר	2634
שאנו	2635
לחיות	2636
לעצ	2637
האיש	2638
בשם	2639
כאילו	2640
עשוי	2641
תוכנית	2642
##רכה	2643
המצב	2644
##וחים	2645
מאד	2646
כשא	2647
##זל	2648
וי	2649
##סוף	2650
40	2651
##מניה	2652
במקרה	2653
##עור	2654
איפה	2655
רואים	2656
תצ	2657
##ייע	2658
שיה	2659
נכנס	2660
ויש	2661
חול	2662
##ציות	2663
יהודים	2664
הולך	2665
בסיס	2666
עלינו	2667
##נר	2668
##מודד	2669
##ad	2670
המג	2671
יוכל	2672
##ri	2673
היסט	2674
##פתחות	2675
אק	2676
אבי	2677
מחש	2678
##יאה	2679
השנייה	2680
טיפול	2681
לבר	2682
תס	2683
מסו	2684
##פורט	2685
##פן	2686
##וביל	2687
אתכם	2688
משנה	2689
קה	2690
בינלא	2691
##אב	2692
##שורת	2693
##כולת	2694
196	2695
בעק	2696
##רגיש	2697
המשפחה	2698
##הליך	2699
הנוכ	2700
שול	2701
רבה	2702
בעיות	2703
הצל	2704
and	2705
מעולם	2706
תפקיד	2707
##נאי	2708
עז	2709
##בוק	2710
בסדר	2711
שחק	2712
האל	2713
##ועה	2714
הילד	2715
בידי	2716
מכו	2717
##תף	2718
##חית	2719
להסת	2720
##לפון	2721
##ובל	2722
##us	2723
נר	2724
##לול	2725
הרצ	2726
והיא	2727
וכל	2728
חשי	2729
האחרונות	2730
חת	2731
סוכ	2732
שפ	2733
גבוהה	2734
מהר	2735
אליו	2736
בקרב	2737
שמו	2738
##כולם	2739
##חרות	2740
משתמשים	2741
השאלה	2742
הקוד	2743
##מודים	2744
חדשות	2745
המשת	2746
מאח	2747
המידע	2748
מבין	2749
אומרים	2750
ליד	2751
אנג	2752
ואם	2753
##רכי	2754
מיוח	2755
שות	2756
##ut	2757
##שרת	2758
מצד	2759
אינט	2760
חברים	2761
מתחיל	2762
זר	2763
עוז	2764
פג	2765
להק	2766
מדינה	2767
פס	2768
##יצור	2769
com	2770
##לוויזיה	2771
##וגר	2772
##מצא	2773
##יצוב	2774
al	2775
הרח	2776
מספק	2777
אומרת	2778
סיפור	2779
סביב	2780
עור	2781
##מיות	2782
בעת	2783
מרגיש	2784
עצמה	2785
חומ	2786
ארבע	2787
והם	2788
נוספת	2789
בריאות	2790
to	2791
יפה	2792
##נאים	2793
##יתים	2794
כלי	2795
לטי	2796
טרא	2797
ארג	2798
עליהם	2799
המחקר	2800
עולם	2801
מאת	2802
הפעם	2803
מדע	2804
חייבים	2805
##ראות	2806
באותה	2807
התג	2808
שהי	2809
שוא	2810
##חן	2811
אהבה	2812
##חון	2813
בעיה	2814
##רוך	2815
עליה	2816
להתחיל	2817
הבעיה	2818
דומה	2819
הנת	2820
מחוץ	2821
כלפי	2822
הוכ	2823
האפשר	2824
לחזור	2825
לבחור	2826
##ניק	2827
הגדולה	2828
מאות	2829
קרה	2830
ניו	2831
ציבור	2832
לבי	2833
המקום	2834
שוק	2835
שית	2836
מנהיג	2837
ככה	2838
מאוחר	2839
בנושא	2840
לעצמ	2841
##ur	2842
עצמם	2843
הבל	2844
24	2845
##ראים	2846
להתק	2847
נתונים	2848
בעקבות	2849
##ומו	2850
##id	2851
בארה	2852
הצע	2853
##יפוש	2854
למען	2855
לגרום	2856
!"	2857
חמי	2858
ונ	2859
בסופו	2860
צבע	2861
אתר	2862
העם	2863
##ובע	2864
לשחק	2865
וכן	2866
משי	2867
##מני	2868
##יינו	2869
##שיר	2870
הרפ	2871
גברים	2872
להמשיך	2873
##יצוני	2874
כס	2875
נוע	2876
אפש	2877
שנית	2878
היינו	2879
משפחת	2880
##רכו	2881
הרוח	2882
הסיבה	2883
לעומת	2884
##ופול	2885
השק	2886
##דרת	2887
##למים	2888
העלי	2889
##יכנס	2890
איכות	2891
בהתאם	2892
מרח	2893
קיים	2894
ההג	2895
תהליך	2896
##זרת	2897
##ורג	2898
העול	2899
בתוכ	2900
##נצח	2901
##ונג	2902
##כיר	2903
המוס	2904
''	2905
סכ	2906
##ודנטים	2907
at	2908
##בלו	2909
לתוך	2910
ועוד	2911
בזה	2912
לאנשים	2913
הפס	2914
אנשי	2915
er	2916
ערך	2917
##ויים	2918
##ct	2919
ראשון	2920
הית	2921
ניה	2922
שלום	2923
תוכלו	2924
הלק	2925
זכ	2926
en	2927
כוחות	2928
##רבה	2929
##ומן	2930
סמ	2931
##פא	2932
השבוע	2933
##זי	2934
האינטרנט	2935
##בלה	2936
##חתי	2937
##יתית	2938
##יחוד	2939
משא	2940
רגע	2941
##גרים	2942
כדאי	2943
לגמרי	2944
שמע	2945
בארץ	2946
מיליא	2947
קצר	2948
ייש	2949
המלחמה	2950
##וצרים	2951
##נגד	2952
##ציב	2953
אמא	2954
פסי	2955
##ברו	2956
ייתכן	2957
למד	2958
היש	2959
##נתה	2960
##סיס	2961
##ציג	2962
לספק	2963
##שראלי	2964
היהודים	2965
נמצאים	2966
##שרים	2967
##בלות	2968
##כלי	2969
##צרים	2970
##ובד	2971
הער	2972
זוהי	2973
אותן	2974
משפט	2975
##יאון	2976
האחרונה	2977
##מנע	2978
##ודל	2979
תרבות	2980
החדשה	2981
##ימה	2982
היית	2983
אוט	2984
בהחלט	2985
##רס	2986
סיפ	2987
להז	2988
כמות	2989
de	2990
##לוהים	2991
##כוי	2992
הסת	2993
sh	2994
מונ	2995
##בן	2996
האה	2997
צבא	2998
עניין	2999
##נא	3000
##מיה	3001
המוז	3002
בשבוע	3003
התכ	3004
לצאת	3005
נעשה	3006
דעת	3007
##בתי	3008
##טג	3009
##נגלית	3010
אלף	3011
##וקא	3012
להביא	3013
ישנם	3014
לשם	3015
להתמודד	3016
להגיד	3017
##לתי	3018
##ריז	3019
בנק	3020
##מט	3021
הפולי	3022
תומ	3023
המאה	3024
##ידות	3025
##מץ	3026
אוני	3027
טי	3028
##מול	3029
בשנים	3030
##שלום	3031
תוצאות	3032
לאכול	3033
העצ	3034
##וצת	3035
##ישות	3036
##ושבים	3037
מזון	3038
מלחמת	3039
האתר	3040
הנשיא	3041
שיכול	3042
כולנו	3043
##סות	3044
##שבון	3045
זוג	3046
תז	3047
##ir	3048
למנוע	3049
##קב	3050
##נהגות	3051
##רחש	3052
משפחה	3053
##נסים	3054
ממשלת	3055
',	3056
ממה	3057
הרש	3058
מתחת	3059
ארגון	3060
##נח	3061
נט	3062
##וגרים	3063
השימוש	3064
הבריאות	3065
פא	3066
עליך	3067
is	3068
##זאת	3069
חברה	3070
העיק	3071
מבוס	3072
אישי	3073
מדינת	3074
אצ	3075
##וטים	3076
21	3077
שט	3078
##בורה	3079
ברגע	3080
חק	3081
חושבים	3082
רשת	3083
##מנו	3084
##צית	3085
יכולות	3086
בינו	3087
##ישים	3088
יודעת	3089
משתמש	3090
עשה	3091
עסקים	3092
גישה	3093
חמש	3094
לרכ	3095
משרד	3096
שג	3097
##זע	3098
התפ	3099
לפג	3100
מנסה	3101
##ידו	3102
מצא	3103
לכתוב	3104
שנו	3105
תופ	3106
קרוב	3107
ועד	3108
שבע	3109
##ציפ	3110
הבאה	3111
##ation	3112
##נציא	3113
לוח	3114
במצב	3115
לקנות	3116
היטב	3117
הצבא	3118
היד	3119
באינטרנט	3120
פלסטי	3121
60	3122
השר	3123
מדה	3124
דין	3125
הסיפור	3126
ידוע	3127
ציל	3128
##נדון	3129
חוסר	3130
שאלות	3131
##כני	3132
##um	3133
האר	3134
אישה	3135
חוו	3136
נצ	3137
##נדר	3138
##סר	3139
מכך	3140
זכות	3141
לסי	3142
השם	3143
ne	3144
##יץ	3145
##צלחה	3146
כרטי	3147
##ברי	3148
משות	3149
קבוע	3150
##מלי	3151
המוח	3152
##כלית	3153
שהיו	3154
אירופה	3155
ניק	3156
##ce	3157
se	3158
צפ	3159
##ag	3160
בשלב	3161
תרג	3162
##ספר	3163
אמרתי	3164
במהירות	3165
##שע	3166
למעלה	3167
##מתי	3168
##ורית	3169
מיני	3170
##ראו	3171
ירי	3172
##טרי	3173
פיל	3174
תמונות	3175
195	3176
דרכים	3177
##זית	3178
היחידה	3179
##מוע	3180
הקש	3181
2015	3182
סק	3183
נדר	3184
##מנית	3185
הישראל	3186
##רוץ	3187
##וטנציא	3188
##פרד	3189
לעיתים	3190
שיי	3191
##ורף	3192
מדיניות	3193
אבא	3194
הביתה	3195
מבט	3196
בואו	3197
it	3198
ימי	3199
##מנה	3200
להרגיש	3201
אכן	3202
חר	3203
פנים	3204
##נרגיה	3205
##חם	3206
כוכ	3207
עולה	3208
צוות	3209
##אום	3210
##נוק	3211
##אתה	3212
בתור	3213
הנתונים	3214
##ter	3215
מסוימים	3216
יג	3217
האור	3218
מהי	3219
מכיוון	3220
אוהבים	3221
הזדמנות	3222
רצי	3223
##כונים	3224
בפעם	3225
נחש	3226
היחיד	3227
כות	3228
##יית	3229
עשויים	3230
צפו	3231
##על	3232
##ליק	3233
אמריקה	3234
המוש	3235
מאמין	3236
##יקים	3237
לדוגמה	3238
סיי	3239
ביחד	3240
הראשונים	3241
הפך	3242
##ומיות	3243
הצה	3244
בעצם	3245
כב	3246
מחפ	3247
להיכנס	3248
##וגים	3249
ar	3250
בטי	3251
שיל	3252
מדברים	3253
##רונים	3254
ההיסטוריה	3255
טראמפ	3256
לקוחות	3257
צל	3258
הגבוה	3259
שמח	3260
הקור	3261
המשי	3262
החש	3263
גדולים	3264
במא	3265
צה	3266
לחץ	3267
##ולוגיה	3268
לעבור	3269
מקווה	3270
##מך	3271
##ראי	3272
2014	3273
יחס	3274
המדינות	3275
מסוגל	3276
דם	3277
ליה	3278
החי	3279
##שויות	3280
##וונת	3281
הביטחון	3282
החלק	3283
האוויר	3284
##ess	3285
for	3286
סין	3287
במדינה	3288
סיבה	3289
נושא	3290
##ולת	3291
להישאר	3292
לבנות	3293
##רושלים	3294
בארצות	3295
מיליארד	3296
##פטמבר	3297
כע	3298
לראשונה	3299
ניהול	3300
ירושלים	3301
גב	3302
##לוק	3303
##חלה	3304
##ראש	3305
מדבר	3306
we	3307
עול	3308
##ניסה	3309
הוק	3310
##os	3311
האוכל	3312
מקרה	3313
דווקא	3314
אפשרי	3315
שנע	3316
נשא	3317
גורם	3318
##קשה	3319
חג	3320
חיל	3321
מאמינים	3322
ההז	3323
יצא	3324
צרפת	3325
##חס	3326
אלפי	3327
יהודי	3328
התעופה	3329
שיהיה	3330
##כס	3331
המטרה	3332
אסטר	3333
הטיפול	3334
לילדים	3335
##עיף	3336
נמו	3337
##סל	3338
##ושי	3339
מערכות	3340
אמיתי	3341
22	3342
##פילו	3343
השמ	3344
חזק	3345
עומד	3346
##ייה	3347
##רחק	3348
פוע	3349
##un	3350
להגן	3351
איראן	3352
##צמבר	3353
מפל	3354
מוצרים	3355
הלו	3356
##לון	3357
לאור	3358
##טיב	3359
הקד	3360
הדין	3361
##וקטובר	3362
ון	3363
משמעותי	3364
במסגרת	3365
##טרף	3366
בחיי	3367
##ia	3368
##כלו	3369
קטנה	3370
שווה	3371
אוו	3372
אמרו	3373
דת	3374
טור	3375
מלחמה	3376
##ודעה	3377
ומע	3378
השירות	3379
אנרגיה	3380
##וכן	3381
ממשי	3382
##שייה	3383
לשלם	3384
המים	3385
##דיניות	3386
##לץ	3387
##זיר	3388
אמת	3389
בוד	3390
טוע	3391
רכב	3392
##בלים	3393
לשמוע	3394
מתע	3395
פרק	3396
בנוגע	3397
ניסיון	3398
עב	3399
שיק	3400
מסוים	3401
רומ	3402
##im	3403
האופ	3404
הכסף	3405
הקרי	3406
אילו	3407
לנסות	3408
##וריות	3409
##נהיג	3410
כללי	3411
מבלי	3412
כתוצאה	3413
קנ	3414
ראה	3415
##לוח	3416
אישית	3417
לישראל	3418
תיק	3419
##גן	3420
##ונית	3421
##oc	3422
הטר	3423
##ניס	3424
##ניח	3425
המד	3426
השחק	3427
##טא	3428
פרופ	3429
וכך	3430
שבועות	3431
באירופה	3432
ביי	3433
העי	3434
שמת	3435
##ליחה	3436
העתי	3437
תקופה	3438
אפשרות	3439
##מדו	3440
##סום	3441
לאחרונה	3442
ראי	3443
לצד	3444
העובדה	3445
פק	3446
##ניינים	3447
הנפ	3448
ראיתי	3449
you	3450
קא	3451
ובכל	3452
קטנים	3453
אוניברסי	3454
ופ	3455
##רטים	3456
מסע	3457
גופ	3458
##טן	3459
##ושה	3460
מעוני	3461
סיפר	3462
לספר	3463
קבוצה	3464
un	3465
נוספות	3466
הבנק	3467
שינויים	3468
le	3469
יות	3470
הבאים	3471
מחיר	3472
היהודי	3473
איתו	3474
בלו	3475
שיו	3476
ארבעה	3477
יוצא	3478
וג	3479
##פיה	3480
##וחת	3481
ראו	3482
בבי	3483
היכולת	3484
##שיב	3485
הטובה	3486
80	3487
הים	3488
אוהבת	3489
23	3490
גבר	3491
האס	3492
מהמ	3493
##ידת	3494
כלום	3495
##רוני	3496
2013	3497
המערכת	3498
הוג	3499
חודש	3500
דה	3501
##זים	3502
המדע	3503
תל	3504
מיוחד	3505
גא	3506
החשוב	3507
החולים	3508
עצמך	3509
חצי	3510
נשיא	3511
שיר	3512
אליה	3513
בצד	3514
##דיר	3515
המלא	3516
##חילת	3517
מוכן	3518
##נייה	3519
יצירת	3520
ספרים	3521
מלאה	3522
מאחורי	3523
האזרח	3524
##מונים	3525
כיוון	3526
##ראית	3527
2017	3528
##ארק	3529
בחר	3530
ערב	3531
להתע	3532
ing	3533
עית	3534
##גוד	3535
##פכה	3536
.”	3537
שאר	3538
##ריון	3539
##יעו	3540
##נתיים	3541
##פתי	3542
לעמוד	3543
##ושב	3544
שבהם	3545
##ופית	3546
##יינים	3547
מעניין	3548
לימוד	3549
עשרה	3550
שצריך	3551
##יעות	3552
##רחב	3553
רחב	3554
אודות	3555
זיה	3556
##חרר	3557
##שתו	3558
חשבו	3559
##ופאים	3560
בחודש	3561
##יסה	3562
לשים	3563
תלוי	3564
טכנולוג	3565
פתרון	3566
הסט	3567
2012	3568
2018	3569
לשע	3570
##יכרון	3571
##th	3572
35	3573
70	3574
לנק	3575
##וונים	3576
הגיעו	3577
הנא	3578
צעירים	3579
2011	3580
הבינלאומי	3581
וד	3582
תמיכה	3583
##ליטים	3584
מסי	3585
טבעי	3586
עתי	3587
##לנד	3588
##ורר	3589
2010	3590
לפעול	3591
נוכ	3592
ורק	3593
הקבוצה	3594
כזו	3595
תמ	3596
##פיים	3597
האלו	3598
##יקטים	3599
בהן	3600
בבוקר	3601
נז	3602
שגם	3603
תב	3604
לאי	3605
הסכם	3606
השפעה	3607
##פרים	3608
ואף	3609
ייע	3610
ובע	3611
מילים	3612
ניש	3613
##ap	3614
נשאר	3615
האחרונים	3616
תשומת	3617
חולים	3618
##ie	3619
מקבלים	3620
בוח	3621
מרי	3622
ההס	3623
הרע	3624
הביט	3625
##igh	3626
מין	3627
הלילה	3628
התיכון	3629
שבי	3630
##פוס	3631
בעתיד	3632
חזרה	3633
דוג	3634
מפור	3635
##שק	3636
לשפר	3637
קבוצות	3638
מבחינה	3639
!!	3640
##שיות	3641
התשובה	3642
ביצוע	3643
נולד	3644
רווח	3645
##טיה	3646
בעזרת	3647
חושבת	3648
##ייב	3649
##צא	3650
במרכז	3651
##וגה	3652
הקול	3653
בשוק	3654
ממנה	3655
הופך	3656
יכולת	3657
##נסת	3658
מגיעים	3659
חיו	3660
מיק	3661
עלול	3662
הארגון	3663
##ידן	3664
הקשר	3665
לשא	3666
##יפות	3667
מלו	3668
להיר	3669
נקודות	3670
התוכנית	3671
שעה	3672
תינו	3673
המשטרה	3674
מוט	3675
השלישי	3676
גד	3677
האינ	3678
pro	3679
##שיית	3680
לרוב	3681
עבד	3682
##לין	3683
##סקה	3684
מתא	3685
בקלות	3686
##מדים	3687
חמ	3688
##זב	3689
תרופות	3690
תכנית	3691
חוץ	3692
עת	3693
##נועה	3694
יתר	3695
מפר	3696
המלך	3697
לאדם	3698
לגלות	3699
##ניהול	3700
לומ	3701
בחלק	3702
##and	3703
##מאס	3704
ad	3705
##ייסבוק	3706
##סס	3707
##פריל	3708
ההבד	3709
##ליף	3710
באנגלית	3711
וס	3712
שמש	3713
##דון	3714
הרב	3715
##וגל	3716
ויר	3717
ומת	3718
##חרי	3719
המון	3720
לעז	3721
##רווי	3722
מנהל	3723
לקראת	3724
חשבתי	3725
מוקדם	3726
sp	3727
תמונה	3728
##מדה	3729
למקום	3730
##ילויות	3731
חזר	3732
500	3733
להתי	3734
במידה	3735
העבר	3736
הגור	3737
##מום	3738
##דרות	3739
##ירושלים	3740
##וניברסיטה	3741
שניתן	3742
##שמה	3743
##טרות	3744
אחריות	3745
דמוקר	3746
סל	3747
##כבת	3748
193	3749
la	3750
טרי	3751
##ביעי	3752
לבע	3753
חברי	3754
רוסיה	3755
שמי	3756
בעיני	3757
נשמע	3758
הקהילה	3759
26	3760
ספורט	3761
##ָּ	3762
##וונה	3763
הוצ	3764
בערך	3765
בעצמ	3766
ההורים	3767
ארוך	3768
נותן	3769
הפג	3770
בתחילת	3771
לפתח	3772
קונ	3773
שכן	3774
##יתנו	3775
שאפשר	3776
שימו	3777
משחקים	3778
")	3779
האו	3780
העתיד	3781
שאינם	3782
לבדוק	3783
##מינו	3784
כולו	3785
מאושר	3786
##וסייה	3787
עזרה	3788
הישראלי	3789
ואפילו	3790
יקרה	3791
להיפ	3792
מהן	3793
הכוח	3794
השמש	3795
מכת	3796
מגוון	3797
28	3798
##חרת	3799
בראש	3800
##ברואר	3801
##ילד	3802
##מוצע	3803
הגדולים	3804
##מנויות	3805
##ושת	3806
להבטיח	3807
יפ	3808
##ידאו	3809
##ייט	3810
ויותר	3811
העיקר	3812
##לקת	3813
הדת	3814
מזרח	3815
תוכניות	3816
90	3817
##ידול	3818
יצר	3819
נמצאת	3820
חסר	3821
##פיע	3822
יחסים	3823
2008	3824
עוצ	3825
היכן	3826
במאי	3827
מתאים	3828
2016	3829
##יגה	3830
קיימת	3831
בינואר	3832
הפת	3833
הכת	3834
##כוון	3835
חייו	3836
2009	3837
##חלטה	3838
27	3839
ייח	3840
שמות	3841
##ומרים	3842
##יימים	3843
##em	3844
##פוך	3845
המפל	3846
הרכב	3847
##רגל	3848
כרגע	3849
שאם	3850
##ישור	3851
חוקי	3852
##משו	3853
##שיבה	3854
ההצ	3855
בסרט	3856
הטובים	3857
].	3858
יז	3859
הוס	3860
פיתוח	3861
##פחה	3862
להור	3863
בחברה	3864
צעד	3865
רחוק	3866
המודר	3867
לשעבר	3868
אירוע	3869
##ויקט	3870
נשק	3871
לאפשר	3872
מאיתנו	3873
הפני	3874
ולאחר	3875
להעביר	3876
כפ	3877
תוס	3878
אמור	3879
לבקר	3880
להתח	3881
כשהוא	3882
בשר	3883
##ותם	3884
##ריכה	3885
##ישת	3886
איננו	3887
אינטרנט	3888
היחסים	3889
עשרות	3890
ענק	3891
משנת	3892
הנכון	3893
ואין	3894
נהרג	3895
הוש	3896
מוכנים	3897
דיא	3898
##מיחה	3899
חיוב	3900
מסוגלים	3901
ממוק	3902
co	3903
הומ	3904
##טחה	3905
##ul	3906
הרעיון	3907
מכש	3908
שמא	3909
##שימת	3910
שאנשים	3911
מחקרים	3912
##טרך	3913
בלילה	3914
העובדים	3915
מחפשים	3916
לילה	3917
שו	3918
שזו	3919
##אק	3920
##און	3921
##ושבי	3922
##נגדות	3923
גורמים	3924
הוע	3925
##אלות	3926
כבוד	3927
מראש	3928
##מנט	3929
איזו	3930
האחרים	3931
קבוצת	3932
כרי	3933
בוקר	3934
ינו	3935
רמת	3936
##מכים	3937
הגל	3938
##מינה	3939
אזור	3940
גרמניה	3941
התינוק	3942
טרור	3943
goo	3944
ph	3945
לנצח	3946
סוב	3947
קומ	3948
##רישות	3949
##ind	3950
ברשת	3951
הנושא	3952
מלב	3953
תור	3954
המוצר	3955
ברמה	3956
לשימוש	3957
##כתי	3958
חינוך	3959
היצ	3960
האזור	3961
##כולוג	3962
##לטון	3963
גוף	3964
שטח	3965
##ve	3966
##ופל	3967
החופ	3968
ההכ	3969
מבק	3970
ראשית	3971
##בנה	3972
בור	3973
מוות	3974
הצורך	3975
נקרא	3976
רצון	3977
or	3978
תקשורת	3979
העליון	3980
החינוך	3981
לזכור	3982
מכיר	3983
קוראים	3984
החלטה	3985
##שום	3986
##מויות	3987
אלקט	3988
לסייע	3989
בזכות	3990
האירופי	3991
פחד	3992
קפה	3993
האת	3994
הצי	3995
אמנות	3996
##נטית	3997
שנק	3998
##ליות	3999
##מקד	4000
##צעים	4001
##זורים	4002
הברי	4003
צעיר	4004
דח	4005
המילה	4006
כאב	4007
בניו	4008
ex	4009
פוג	4010
##וין	4011
##כוה	4012
ברצ	4013
רציתי	4014
ההשפ	4015
חלב	4016
##כח	4017
אתמול	4018
העית	4019
מתחילים	4020
הפלסטינים	4021
חשיבות	4022
סביר	4023
פט	4024
##שהי	4025
בשנות	4026
2007	4027
האדמה	4028
ביוני	4029
הלאומי	4030
חכ	4031
פיק	4032
##if	4033
הנק	4034
הבחירות	4035
מחוי	4036
וכי	4037
##ge	4038
לבן	4039
חייבת	4040
קד	4041
הינו	4042
##ליטה	4043
##ביש	4044
##...	4045
להכיר	4046
מראה	4047
בספטמבר	4048
המציאות	4049
חמישה	4050
לבוא	4051
בדצמבר	4052
לוקח	4053
יוכלו	4054
wh	4055
ומי	4056
סול	4057
התחת	4058
בהכ	4059
חשבון	4060
am	4061
גדל	4062
##מם	4063
החז	4064
ואנחנו	4065
..."	4066
לצפות	4067
##כנע	4068
מסוימת	4069
מבינים	4070
##וניברסיטת	4071
לשאול	4072
con	4073
אקד	4074
חדר	4075
##דיין	4076
מצוי	4077
הזוג	4078
גדולות	4079
ידעתי	4080
התרבות	4081
אוק	4082
החלו	4083
אמנם	4084
כם	4085
ניתוח	4086
מייצ	4087
להסביר	4088
צילום	4089
אוויר	4090
פיר	4091
##דבר	4092
סיבות	4093
שירותי	4094
pl	4095
לדי	4096
##טיקה	4097
##רית	4098
פרטים	4099
הלח	4100
משר	4101
נמ	4102
במצ	4103
החק	4104
חופש	4105
מומלץ	4106
להאמין	4107
שיתוף	4108
ורג	4109
##לום	4110
##באי	4111
##זרו	4112
לחפש	4113
##ight	4114
be	4115
קוב	4116
##דיים	4117
##ופט	4118
##שתה	4119
במערכת	4120
ריק	4121
שס	4122
התנהגות	4123
לעבודה	4124
בימים	4125
טובות	4126
שכבר	4127
הווע	4128
דיי	4129
ציפ	4130
ישירות	4131
להפסיק	4132
ביקורת	4133
##ver	4134
שהא	4135
אפריקה	4136
##במבר	4137
##פך	4138
##ברתי	4139
##פקד	4140
למדי	4141
מכירים	4142
מרגישים	4143
הנוכחי	4144
##כוהול	4145
גרי	4146
נמוך	4147
ספי	4148
##למת	4149
##עון	4150
##ודד	4151
האג	4152
##ופלים	4153
בעי	4154
מעדי	4155
האמיתי	4156
##20	4157
##ודו	4158
אנטי	4159
בהמשך	4160
##טרון	4161
המחש	4162
חשובה	4163
ma	4164
משה	4165
שמה	4166
##וזה	4167
##כונית	4168
אפשרויות	4169
##עיל	4170
##ְּ	4171
ההר	4172
אזרחים	4173
##אס	4174
הבסיס	4175
מקומות	4176
לתי	4177
שבת	4178
האנרגיה	4179
##נהג	4180
ההחלטה	4181
שנתיים	4182
##ine	4183
אסור	4184
בקרוב	4185
לכולם	4186
תשובה	4187
הימים	4188
לאר	4189
ואתה	4190
בריט	4191
האמריקאי	4192
36	4193
העת	4194
ביולי	4195
פעולות	4196
בפע	4197
התקשורת	4198
למשך	4199
מלבד	4200
נוכל	4201
##ושים	4202
העניין	4203
אלב	4204
הולכים	4205
ספציפ	4206
אוטומ	4207
##דימה	4208
מסר	4209
היהודית	4210
בחדר	4211
קיימים	4212
##ook	4213
##ive	4214
בתקופה	4215
ושוב	4216
להוסיף	4217
השכ	4218
##טיבית	4219
אליהם	4220
as	4221
באוקטובר	4222
##בעים	4223
נאל	4224
##כנית	4225
המפ	4226
מהח	4227
נזק	4228
תנאי	4229
##מרים	4230
מהע	4231
מתב	4232
##לוש	4233
##שוואה	4234
ממלי	4235
רפוא	4236
ביל	4237
רעיון	4238
##סוך	4239
##og	4240
שינה	4241
לפתוח	4242
החלטות	4243
פיצ	4244
##ליו	4245
##ידום	4246
בהק	4247
ההזד	4248
החלה	4249
הפנים	4250
ביחס	4251
191	4252
להציל	4253
web	4254
##רוכה	4255
הדם	4256
ראשו	4257
מזל	4258
bl	4259
ed	4260
##יתם	4261
שאינו	4262
בחשבון	4263
עצמנו	4264
באמצע	4265
סבל	4266
ביטחון	4267
מצי	4268
האישה	4269
##וגוסט	4270
בחזרה	4271
מציע	4272
בול	4273
פופול	4274
##שור	4275
השוק	4276
ישוע	4277
מוצר	4278
צו	4279
##בש	4280
מחר	4281
לחיים	4282
##ity	4283
זוכר	4284
השיר	4285
הדמוקר	4286
ארץ	4287
45	4288
למס	4289
מפח	4290
##קול	4291
בעבודה	4292
שאינ	4293
להתא	4294
במקרים	4295
סוגים	4296
אט	4297
גי	4298
שגר	4299
המפור	4300
המזרח	4301
שהן	4302
##לוו	4303
והן	4304
שלישי	4305
המקצוע	4306
בנובמבר	4307
העולמי	4308
עני	4309
##ופיה	4310
מהא	4311
מעני	4312
בכדי	4313
ביטוח	4314
##טוא	4315
הערב	4316
שאל	4317
##פיין	4318
הוסיף	4319
יהם	4320
במשחק	4321
בבע	4322
##קן	4323
התלמידים	4324
##סיבות	4325
ממני	4326
יחסי	4327
עדיף	4328
לטפל	4329
עתה	4330
##ָה	4331
כלשהו	4332
מאי	4333
בספר	4334
2019	4335
סוגי	4336
29	4337
נוצ	4338
שרי	4339
##ודאי	4340
המחיר	4341
מטרות	4342
לאה	4343
##ותרת	4344
הנח	4345
נפלא	4346
"?	4347
אמו	4348
ביד	4349
שמונה	4350
##כך	4351
##בירה	4352
שלב	4353
מתאי	4354
הנשים	4355
להימנע	4356
##ליחו	4357
משמש	4358
מצט	4359
##בוהים	4360
##מידה	4361
סטודנטים	4362
צמ	4363
התמונה	4364
השלום	4365
אחוזים	4366
##ובלי	4367
העור	4368
עונה	4369
[...	4370
ללק	4371
היע	4372
באה	4373
בתע	4374
בסך	4375
##סטית	4376
נאמר	4377
איתם	4378
##מרו	4379
##תפים	4380
##יונ	4381
##est	4382
[...]	4383
נול	4384
##דית	4385
##op	4386
הארי	4387
במג	4388
##יימת	4389
##חרור	4390
המחשב	4391
משמעותית	4392
ויל	4393
מהווה	4394
מיוחדת	4395
אמי	4396
ישר	4397
פינ	4398
##se	4399
##ִּ	4400
המור	4401
מתוכ	4402
בשעה	4403
שליטה	4404
תקופת	4405
עשויה	4406
##דיל	4407
##gle	4408
ליום	4409
בטח	4410
מודר	4411
ארוכה	4412
man	4413
לטיפול	4414
יקר	4415
הרופא	4416
##וסף	4417
בגוף	4418
משפחות	4419
האפשרות	4420
?”	4421
שהח	4422
הגנה	4423
לתח	4424
נפג	4425
מבחינת	4426
לרכוש	4427
המוות	4428
להד	4429
באוגוסט	4430
מאחר	4431
##פרט	4432
ביניהם	4433
שעבר	4434
לזהות	4435
הצדדים	4436
אסטרטג	4437
wor	4438
הפרי	4439
בשני	4440
בבקשה	4441
בריטניה	4442
00	4443
חומר	4444
עיצוב	4445
##ba	4446
##נינו	4447
בקב	4448
הפעילות	4449
##נדי	4450
##רם	4451
הפעולה	4452
פרטי	4453
אינן	4454
לעזוב	4455
בנות	4456
##ודא	4457
לאיר	4458
בחוץ	4459
פתוח	4460
האנושי	4461
האנושות	4462
##ומם	4463
במזרח	4464
לעצור	4465
לצורך	4466
גרם	4467
##ard	4468
בריא	4469
##וטנציאל	4470
אופן	4471
נכונה	4472
התהליך	4473
סרטן	4474
דיווח	4475
בירושלים	4476
וו	4477
סא	4478
רמות	4479
לאתר	4480
2000	4481
בגר	4482
##ונאים	4483
תד	4484
שלהן	4485
נחשב	4486
ic	4487
##פד	4488
להציג	4489
##וסק	4490
##לושה	4491
בסין	4492
ההבדל	4493
##ונו	4494
לאן	4495
מילה	4496
נוג	4497
האב	4498
נמוכה	4499
הוב	4500
סיר	4501
צוד	4502
##לחת	4503
##רק	4504
##ריכים	4505
לבני	4506
##יפים	4507
##נגטון	4508
2006	4509
מנג	4510
תואר	4511
מצרים	4512
אירועים	4513
יחסית	4514
ספרי	4515
”,	4516
הצליח	4517
סיכוי	4518
##ולוגי	4519
פתאום	4520
הישראלית	4521
mo	4522
איתי	4523
##וכה	4524
בהיסטוריה	4525
לנהל	4526
סתם	4527
ואמר	4528
מדו	4529
חיילים	4530
הבינלאומית	4531
כשאני	4532
לשר	4533
קדימה	4534
##גנון	4535
המוצ	4536
במדינות	4537
ליצ	4538
google	4539
רופא	4540
##ען	4541
##וקי	4542
##מצאים	4543
המשמעות	4544
הלקוחות	4545
וול	4546
ולק	4547
##ושות	4548
הבאות	4549
לקח	4550
ראשי	4551
##כנן	4552
דרום	4553
לני	4554
שמחה	4555
##צועים	4556
חברתית	4557
עקב	4558
הבה	4559
חרי	4560
טל	4561
##צעי	4562
עליי	4563
האש	4564
##ביעה	4565
פרסום	4566
מוחלט	4567
##דרים	4568
##סו	4569
להראות	4570
ירד	4571
מנסים	4572
##קיע	4573
אינס	4574
הפכה	4575
הגיעה	4576
לישון	4577
עובר	4578
זקוקים	4579
לציין	4580
דובר	4581
קבלת	4582
##מאות	4583
##שוף	4584
mar	4585
התוצאות	4586
מידי	4587
חזקה	4588
שקי	4589
תשלום	4590
המילים	4591
החברת	4592
לקבוע	4593
האהבה	4594
מדהים	4595
ap	4596
ברו	4597
יין	4598
נוב	4599
התחיל	4600
התפתחות	4601
##פקת	4602
וק	4603
וידאו	4604
##נדה	4605
משקל	4606
##ניהו	4607
מטרה	4608
הלאומית	4609
נושאים	4610
ip	4611
נכתב	4612
שוכ	4613
לממש	4614
הסביבה	4615
הנע	4616
להתג	4617
אוב	4618
טלוויזיה	4619
האיחוד	4620
מציאות	4621
##מצאו	4622
פעיל	4623
האירוע	4624
קשור	4625
300	4626
חפ	4627
מדר	4628
בעניין	4629
ולע	4630
##ate	4631
במספר	4632
יגיע	4633
עתיד	4634
שניהם	4635
##טין	4636
שעברה	4637
חופשי	4638
יצי	4639
סופ	4640
במת	4641
באפריל	4642
##וויה	4643
עליכם	4644
כנגד	4645
שור	4646
##ft	4647
הידע	4648
##ביים	4649
למת	4650
##עתם	4651
מושג	4652
להציע	4653
עומדים	4654
ליהנות	4655
אוניברסיטת	4656
us	4657
דוד	4658
##טור	4659
##שן	4660
להניח	4661
התוצאה	4662
##שובות	4663
שיעור	4664
לייצר	4665
הצלחה	4666
העיקרי	4667
פות	4668
##זין	4669
המוב	4670
##ואין	4671
התמ	4672
השו	4673
לבקש	4674
##לבום	4675
##ננים	4676
##ורא	4677
##דיא	4678
אוס	4679
##ונש	4680
בפברואר	4681
עורך	4682
להן	4683
למק	4684
לבסוף	4685
שלושת	4686
עץ	4687
##שאים	4688
היס	4689
החת	4690
##וטה	4691
##one	4692
לפתור	4693
אנגלית	4694
##ובדן	4695
כרטיס	4696
כזאת	4697
עיני	4698
תפס	4699
##ישורים	4700
##בויות	4701
מוזיקה	4702
##פעל	4703
me	4704
זמין	4705
רצה	4706
המזון	4707
להיע	4708
להוציא	4709
##ביבת	4710
לעבר	4711
הגב	4712
##ice	4713
קורא	4714
##קיה	4715
##ריע	4716
##דיק	4717
מתרח	4718
אמיתית	4719
הזכות	4720
הראש	4721
כשאתה	4722
שחור	4723
עמוק	4724
דיג	4725
מבר	4726
מידה	4727
מרבית	4728
סנט	4729
הקו	4730
##טרס	4731
בתהליך	4732
מגד	4733
חייהם	4734
כולה	4735
שיפ	4736
##ובב	4737
##וסית	4738
אלימות	4739
ההגנה	4740
he	4741
##משי	4742
מתכ	4743
ברוב	4744
לגיל	4745
חוזר	4746
מותר	4747
##נשי	4748
השפה	4749
##וסטר	4750
קטנות	4751
##יטניה	4752
בדבר	4753
##אג	4754
##ורט	4755
החברות	4756
מתקד	4757
בניגוד	4758
השתת	4759
לדבריו	4760
מחשבות	4761
גזע	4762
חיפוש	4763
לנס	4764
סעיף	4765
##דמות	4766
אלינו	4767
חשובים	4768
הסיכון	4769
חיות	4770
תחרות	4771
##בנות	4772
##קסט	4773
שלם	4774
##ופיע	4775
במטרה	4776
המוצרים	4777
האפ	4778
##ואות	4779
לשת	4780
מסתכל	4781
דני	4782
זכה	4783
לעצמי	4784
היסטוריה	4785
su	4786
ולב	4787
חיס	4788
לאט	4789
מהיר	4790
העונה	4791
ארוחת	4792
מושלם	4793
במחקר	4794
צפוי	4795
התרג	4796
יכולתי	4797
ישראלים	4798
בך	4799
הטכנולוגיה	4800
בפועל	4801
##all	4802
זקוק	4803
דג	4804
לעלות	4805
מעצ	4806
מקרים	4807
##בורים	4808
נקודת	4809
איתך	4810
sc	4811
קיל	4812
##ביעות	4813
למות	4814
למכור	4815
##לויות	4816
לידי	4817
ואיך	4818
רעיונות	4819
גבי	4820
להיל	4821
מעמד	4822
לקב	4823
##בוי	4824
##יבוש	4825
הלקוח	4826
מותו	4827
תכונות	4828
בעלות	4829
מחשב	4830
פעמיים	4831
##יכר	4832
אגב	4833
te	4834
הנית	4835
##מדת	4836
להוביל	4837
למצב	4838
##לאות	4839
##וכים	4840
נתן	4841
ברכ	4842
סע	4843
הינה	4844
##וקף	4845
מתנה	4846
לפנות	4847
##יסות	4848
הטלפון	4849
ראוי	4850
##בלתי	4851
לדא	4852
הלימודים	4853
הפלסטינית	4854
יוע	4855
##תיבה	4856
##וניות	4857
2005	4858
מרכזי	4859
בדרום	4860
cl	4861
צפון	4862
שניים	4863
המוק	4864
מחלות	4865
הגדולות	4866
פלי	4867
תלמידים	4868
התנועה	4869
הנראה	4870
אישור	4871
הבלתי	4872
ab	4873
tr	4874
ייצור	4875
לנשים	4876
##סיה	4877
מלון	4878
##ill	4879
הקודם	4880
31	4881
es	4882
שיא	4883
תשת	4884
מאה	4885
בעלת	4886
ישנה	4887
כיף	4888
מקורות	4889
אלכוהול	4890
מצליח	4891
תנועה	4892
דיס	4893
##גיש	4894
שהע	4895
שאמר	4896
הכלכלי	4897
##שאיר	4898
##אורה	4899
##יתוף	4900
מתרג	4901
הכרח	4902
192	4903
מרגישה	4904
מכם	4905
קלא	4906
##טיק	4907
##סוי	4908
במילים	4909
באמ	4910
החמי	4911
משכ	4912
בינתיים	4913
הצוות	4914
##רגונים	4915
בהשוואה	4916
מבח	4917
עצמכם	4918
הבחירה	4919
לעצמו	4920
ויט	4921
סקר	4922
סופר	4923
##מפרי	4924
השטח	4925
##ers	4926
בצרפת	4927
להשפיע	4928
par	4929
הורים	4930
##ריד	4931
##מוס	4932
##ירותים	4933
ברית	4934
עצמית	4935
פשוטה	4936
פרויקט	4937
ומתן	4938
המפלגה	4939
ובי	4940
פו	4941
##זיקה	4942
הרשת	4943
הפיז	4944
בבח	4945
תוכן	4946
po	4947
ארכ	4948
ללי	4949
נפר	4950
##ינת	4951
##רבות	4952
##קוב	4953
##ועות	4954
מסכים	4955
ועכשיו	4956
בשימוש	4957
##נסייה	4958
ההזדמנות	4959
וְ	4960
ניג	4961
##תיע	4962
מתג	4963
והת	4964
##ונד	4965
המסע	4966
אביו	4967
wind	4968
טלפון	4969
מלך	4970
רד	4971
שפה	4972
##כרו	4973
##בדה	4974
השאר	4975
הפכו	4976
מעוד	4977
הבוקר	4978
לחלק	4979
סימן	4980
שבא	4981
כשהם	4982
רפואי	4983
לתקן	4984
##ue	4985
##יתיים	4986
לשתף	4987
הנס	4988
ראשונה	4989
לצע	4990
המחלה	4991
הנוס	4992
שחקן	4993
מהש	4994
החוצה	4995
העד	4996
לטובת	4997
mic	4998
פית	4999
המבק	5000
השונים	5001
הבנתי	5002
##סקים	5003
בבתי	5004
האישי	5005
השתמש	5006
שחקנים	5007
##בדות	5008
##מיר	5009
##פני	5010
##סוק	5011
##ועד	5012
ברורה	5013
ממך	5014
בכמה	5015
פתרונות	5016
שיער	5017
##רוויח	5018
אן	5019
נוה	5020
מחפש	5021
ואילו	5022
המערבית	5023
מוצא	5024
##ell	5025
החוקרים	5026
ro	5027
מפתח	5028
ריצ	5029
שבר	5030
המשות	5031
##לימות	5032
במאה	5033
הבדי	5034
##ינוי	5035
##ort	5036
התקופה	5037
עוזר	5038
קבע	5039
##פית	5040
ילדי	5041
עברו	5042
נורא	5043
בקה	5044
חם	5045
נשי	5046
פצ	5047
##סמים	5048
מהת	5049
למדינה	5050
לשלוח	5051
מייק	5052
הכוחות	5053
הכדור	5054
המשך	5055
נתניהו	5056
בטוחה	5057
פלסטינים	5058
ומש	5059
זרים	5060
צר	5061
##פג	5062
האקד	5063
##ריט	5064
ממשיך	5065
רגיל	5066
שתה	5067
הרגשתי	5068
הטרור	5069
נוח	5070
פלא	5071
התרח	5072
##ועלת	5073
למא	5074
שהופ	5075
פועלים	5076
("	5077
רוק	5078
##ופעה	5079
בעד	5080
תחושה	5081
רגשות	5082
הזדמנויות	5083
אביב	5084
סדר	5085
##ab	5086
החוץ	5087
הקיץ	5088
מציג	5089
סיכון	5090
ובכן	5091
שקורה	5092
ביטוי	5093
לשו	5094
סד	5095
קמ	5096
##וויות	5097
הכלב	5098
חשמל	5099
כותב	5100
##סן	5101
לשמש	5102
בהרבה	5103
הראשי	5104
דופן	5105
פירוש	5106
צורה	5107
קוס	5108
##ke	5109
##ומט	5110
הקל	5111
ההיסט	5112
בצפון	5113
החדשות	5114
לפגוע	5115
lo	5116
פועל	5117
##לן	5118
##ותי	5119
המר	5120
המופ	5121
##ודיה	5122
לאומי	5123
##ומנויות	5124
התפקיד	5125
לשני	5126
##וונות	5127
הכר	5128
ואולי	5129
##ונק	5130
ולח	5131
היי	5132
כלבים	5133
מאמצ	5134
##יונים	5135
לקה	5136
הנדר	5137
בקשר	5138
הראשונות	5139
מקצועי	5140
להרוג	5141
ac	5142
עמוד	5143
משמ	5144
אנא	5145
##נסו	5146
שהגיע	5147
הדלת	5148
מתחילה	5149
הלבן	5150
עבודת	5151
אמונה	5152
חובה	5153
נצי	5154
##כום	5155
##עש	5156
בשטח	5157
הגיל	5158
לחת	5159
##ome	5160
הבעיות	5161
העיניים	5162
לאהוב	5163
גנ	5164
ייצ	5165
סוד	5166
שוט	5167
עלולים	5168
הקמת	5169
שישה	5170
##oun	5171
כחלק	5172
חתי	5173
תמי	5174
##ובוס	5175
##ילנד	5176
לשלוט	5177
##אללה	5178
מפע	5179
במקומות	5180
חלקים	5181
##ows	5182
הרווח	5183
##לונות	5184
##ליכים	5185
##ושם	5186
בחירה	5187
שנא	5188
תקווה	5189
ובין	5190
פוליטית	5191
גז	5192
##ורד	5193
באו	5194
הסדרה	5195
תחום	5196
בלע	5197
##בחן	5198
להחליט	5199
בטוחים	5200
##ack	5201
גודל	5202
​​	5203
##גובה	5204
אוסטר	5205
השא	5206
##אתם	5207
##טיין	5208
אמצעי	5209
התיא	5210
להצטרף	5211
בינלאומיים	5212
ארגונים	5213
דמי	5214
דלת	5215
כר	5216
עזה	5217
פח	5218
קלה	5219
מחזיק	5220
משתנה	5221
פלסט	5222
עשיתי	5223
הקטן	5224
הקהל	5225
גבולות	5226
הוועדה	5227
רכי	5228
תושבי	5229
##צח	5230
##קפה	5231
##יתות	5232
##ובדים	5233
כלכלית	5234
ישת	5235
דיבר	5236
קיר	5237
הכח	5238
##פייה	5239
לדעתי	5240
סרטים	5241
##בעות	5242
להרח	5243
התפר	5244
הבן	5245
##טרק	5246
מבית	5247
להילחם	5248
גן	5249
סב	5250
##חרים	5251
##ילית	5252
העל	5253
מחיי	5254
שכר	5255
התייחס	5256
וחצי	5257
עבודות	5258
גול	5259
דף	5260
סקס	5261
רו	5262
##מדות	5263
לאחד	5264
החברים	5265
##וניים	5266
בקול	5267
מזו	5268
מוצרי	5269
ומא	5270
אדמה	5271
בהתחלה	5272
##our	5273
להשקיע	5274
מורכב	5275
##קשורת	5276
מומחים	5277
ההשפעה	5278
חוב	5279
שוו	5280
שיפור	5281
##ואל	5282
למטה	5283
למרבה	5284
##יקת	5285
##וכיח	5286
הדור	5287
ביקור	5288
בבריטניה	5289
##לוקת	5290
גלי	5291
טכני	5292
##טחת	5293
##קף	5294
##ולחן	5295
האלבום	5296
הפופול	5297
השחקנים	5298
ייק	5299
##יף	5300
##ברר	5301
שאי	5302
הכס	5303
שיטות	5304
מודעים	5305
להחזיר	5306
מיוחדים	5307
ללב	5308
סטר	5309
סוריה	5310
תפק	5311
##בוש	5312
##ַּ	5313
##ירום	5314
מסכי	5315
##כתה	5316
השינוי	5317
בדיקות	5318
אופטי	5319
המרכזי	5320
חומרים	5321
בלונדון	5322
טכנולוגיה	5323
##מפט	5324
האוניברסיטה	5325
שהמ	5326
הסוכ	5327
אינני	5328
נוסעים	5329
המקור	5330
גרוע	5331
ללמד	5332
להכין	5333
הרצון	5334
windows	5335
אע	5336
וכו	5337
##ִי	5338
לשבת	5339
לחברה	5340
הכוכ	5341
גרעי	5342
אדום	5343
מודע	5344
לומדים	5345
נוצר	5346
##כוח	5347
##מפרט	5348
##צעת	5349
עלולה	5350
##ופס	5351
המספר	5352
pr	5353
האסטר	5354
במרץ	5355
שישי	5356
##בדו	5357
##מיק	5358
##זיל	5359
המונ	5360
##ודשים	5361
כלשהי	5362
##יקום	5363
בשום	5364
בסביבה	5365
לגור	5366
בכוח	5367
דורש	5368
טעות	5369
##חוד	5370
החיפוש	5371
לענות	5372
מתכוון	5373
##ace	5374
חוויה	5375
ממשיכים	5376
עמד	5377
##כרות	5378
##מרת	5379
##ולין	5380
הולדת	5381
תגובה	5382
ואל	5383
חכם	5384
טווח	5385
נראית	5386
במרחק	5387
החיס	5388
הקומ	5389
אלכס	5390
מועד	5391
שהייתה	5392
מבוסס	5393
העתיקה	5394
דוגמה	5395
מפת	5396
שדה	5397
##ואן	5398
מעלה	5399
##יפת	5400
רצח	5401
אכפת	5402
ברג	5403
וזו	5404
חינם	5405
##ip	5406
באוניברסיטת	5407
החבר	5408
אוי	5409
הפיל	5410
הכנסת	5411
לקרות	5412
הנסי	5413
הזר	5414
##פתחו	5415
ולש	5416
ובכך	5417
האמנות	5418
עובדת	5419
הפסק	5420
שאף	5421
לתמוך	5422
לוודא	5423
קרב	5424
הרגע	5425
משותף	5426
32	5427
##te	5428
התנ	5429
מייד	5430
אהבתי	5431
לדברי	5432
שהייתי	5433
בטר	5434
ולת	5435
##נוס	5436
כלב	5437
הקודש	5438
##טרסים	5439
לקדם	5440
יעשה	5441
ארי	5442
##ינות	5443
##שירים	5444
##שינו	5445
הבנה	5446
בתפקיד	5447
ממח	5448
לכאורה	5449
עיניים	5450
לדאוג	5451
ריי	5452
##טאות	5453
##זות	5454
##חוק	5455
המנה	5456
למלא	5457
##לקה	5458
פעילויות	5459
דמות	5460
כוס	5461
מהד	5462
הפרויקט	5463
וכמה	5464
הודעה	5465
האמריקאית	5466
הקריירה	5467
ביר	5468
דוא	5469
זיכרון	5470
טה	5471
##נך	5472
##למנט	5473
##אבים	5474
היב	5475
החלל	5476
##ידר	5477
מסוכן	5478
מזג	5479
במשקל	5480
עובדות	5481
קוריאה	5482
שירותים	5483
400	5484
תן	5485
##קון	5486
היר	5487
האמונה	5488
משם	5489
מסחר	5490
לונדון	5491
תגובות	5492
צדק	5493
להסתכל	5494
פסיכולוג	5495
ללקוחות	5496
הוו	5497
נתי	5498
##ברג	5499
##שיבות	5500
לחוק	5501
אמון	5502
מגיעה	5503
להפחית	5504
המהפכה	5505
##דיהם	5506
סיפורים	5507
דיגיט	5508
אשתו	5509
חיה	5510
נמש	5511
##ld	5512
המוכ	5513
##וקס	5514
העומ	5515
מאחור	5516
מכאן	5517
סיוע	5518
כתובת	5519
##סטיבל	5520
הקרוב	5521
one	5522
הגבוהה	5523
ין	5524
נראים	5525
סובל	5526
עיק	5527
##בוב	5528
להוכיח	5529
באשר	5530
החומר	5531
ישנן	5532
הנכונה	5533
מבנה	5534
##לחמת	5535
לקבלת	5536
##טליה	5537
לאחרים	5538
העיקרית	5539
micro	5540
סטי	5541
פרח	5542
##נף	5543
##ביס	5544
##שוך	5545
מבוגרים	5546
שמעתי	5547
אהבת	5548
חוקרים	5549
עומדת	5550
##סיקו	5551
em	5552
בוט	5553
הלה	5554
תוצאה	5555
מסוכ	5556
בשפה	5557
רקע	5558
מכיל	5559
##סקי	5560
להחליף	5561
שומן	5562
להתייחס	5563
בפי	5564
לרגע	5565
שירים	5566
מאוח	5567
מתו	5568
הקרב	5569
מערב	5570
מציעים	5571
יעיל	5572
שקרה	5573
להעלות	5574
קיימות	5575
קיבלו	5576
מוקד	5577
יימס	5578
המוזיקה	5579
גבוהים	5580
טיי	5581
שופ	5582
##וּ	5583
המומ	5584
המשימה	5585
##שיון	5586
מבקש	5587
פרנק	5588
המקרים	5589
בדיקה	5590
רחבי	5591
דולרים	5592
בשבילי	5593
נדרש	5594
בוחרים	5595
בהכרח	5596
צור	5597
לארץ	5598
##דיש	5599
זהב	5600
כלים	5601
הסוב	5602
##צינות	5603
##לטפור	5604
שתוכל	5605
עשרים	5606
להוריד	5607
##כבות	5608
##בילה	5609
##וֹ	5610
המדיניות	5611
מעשה	5612
לחכות	5613
שיניים	5614
מספרים	5615
מוכר	5616
האנושית	5617
יבוא	5618
חיפ	5619
##כנו	5620
##למו	5621
##למות	5622
##ub	5623
מאמר	5624
##כולנו	5625
##ראק	5626
##נטה	5627
הטובות	5628
השינה	5629
להשתתף	5630
חוקים	5631
דומים	5632
##למה	5633
##וגיות	5634
ההע	5635
2020	5636
##נטיות	5637
מפג	5638
##פורניה	5639
2002	5640
שרק	5641
הלאה	5642
השראה	5643
האסלא	5644
האזרחים	5645
no	5646
רבי	5647
##נאה	5648
##בדים	5649
##מלית	5650
##ופש	5651
אושר	5652
##ביבות	5653
הסתי	5654
בשתי	5655
##טרת	5656
##קרב	5657
##ונל	5658
המקורי	5659
שקט	5660
המשחקים	5661
בוו	5662
קשים	5663
##פנים	5664
##אני	5665
הערך	5666
כאמור	5667
##ויב	5668
##נטיים	5669
הטע	5670
2003	5671
נפש	5672
##גרום	5673
לזכות	5674
תיאור	5675
כבד	5676
נפט	5677
פתי	5678
##זת	5679
##זרים	5680
באחד	5681
משלו	5682
מסביב	5683
בשמ	5684
מחלה	5685
הספרים	5686
אבטחה	5687
הודעות	5688
היתר	5689
ומו	5690
חור	5691
חיצוני	5692
הצליחו	5693
לחקור	5694
פרט	5695
במקביל	5696
לטע	5697
המבנה	5698
פרויקטים	5699
ההשק	5700
המשתמש	5701
הקשורים	5702
):	5703
הַ	5704
ובה	5705
יוני	5706
מורה	5707
נסי	5708
עיי	5709
רשות	5710
מעולה	5711
כוללים	5712
inter	5713
אורג	5714
המבוס	5715
מכוניות	5716
')	5717
75	5718
דלק	5719
האוט	5720
מתן	5721
##יסת	5722
תחילת	5723
ירוק	5724
בינלאומי	5725
בצי	5726
ממצ	5727
החול	5728
איטליה	5729
שהצ	5730
##לאים	5731
הגד	5732
החדשים	5733
new	5734
שיווק	5735
דמ	5736
מבע	5737
שניות	5738
##טחים	5739
##רבי	5740
הספ	5741
ההול	5742
##רכיב	5743
מקרי	5744
שיחק	5745
היתרונות	5746
שמישהו	5747
בגרמניה	5748
מרת	5749
רובר	5750
זהות	5751
השות	5752
נותנים	5753
הצעיר	5754
שפות	5755
##ילוב	5756
##מונת	5757
מינית	5758
מצפה	5759
נהדר	5760
מופיע	5761
אזרחי	5762
מכונית	5763
האוכלוסייה	5764
טוען	5765
סמים	5766
המפתח	5767
##ודע	5768
הפתרון	5769
הגבול	5770
הצפ	5771
הצטר	5772
מכירות	5773
בסוריה	5774
##צעו	5775
המאפשר	5776
קונס	5777
אמריקאי	5778
רמ	5779
המנהיג	5780
הפדר	5781
לבחון	5782
סיום	5783
2004	5784
מוצאים	5785
יפן	5786
##טרכו	5787
במט	5788
הרוב	5789
##אלית	5790
##עתו	5791
כוללת	5792
אליך	5793
להשלים	5794
בתקופת	5795
משפחתו	5796
שילוב	5797
לשתות	5798
48	5799
fi	5800
ולי	5801
מנק	5802
##גרות	5803
##נתר	5804
ההור	5805
הכלכלה	5806
##חייה	5807
יתכן	5808
הולכת	5809
מסוימות	5810
נהרגו	5811
יים	5812
נוטים	5813
ערי	5814
רוד	5815
##פח	5816
כלכלי	5817
##כולות	5818
ואי	5819
והש	5820
קרן	5821
נהג	5822
איתנו	5823
מועצת	5824
ידעו	5825
נדמה	5826
מאפשרת	5827
ביו	5828
טקס	5829
מיקר	5830
שד	5831
##io	5832
הירי	5833
##דיות	5834
##וגמא	5835
##שוט	5836
בחינם	5837
להתפ	5838
##סטרו	5839
מרק	5840
תחושת	5841
המסחר	5842
הקרקע	5843
שואל	5844
מכתב	5845
דרכ	5846
נותר	5847
תיר	5848
תאי	5849
איי	5850
##וצי	5851
לעיר	5852
לפיכ	5853
הכניסה	5854
לטווח	5855
הופכים	5856
אישיות	5857
מספקת	5858
נוכחות	5859
שנקרא	5860
הבריטי	5861
לפיכך	5862
ושי	5863
כבי	5864
שפור	5865
הרכבת	5866
מצלי	5867
##ונא	5868
חלקם	5869
רגל	5870
ממשלה	5871
התחלתי	5872
יוצר	5873
אוכלים	5874
מטרת	5875
##עורר	5876
ויק	5877
##פחת	5878
##פסת	5879
להקים	5880
##ודיים	5881
בערב	5882
הנפש	5883
מצאו	5884
##ברהם	5885
ילדה	5886
כדורגל	5887
34	5888
im	5889
ישראלי	5890
כוא	5891
##דק	5892
אתרים	5893
הירח	5894
הכרי	5895
שנש	5896
מודעות	5897
יוצאים	5898
להחזיק	5899
השלישית	5900
bo	5901
##oft	5902
באח	5903
באים	5904
מאמץ	5905
הסמ	5906
האחריות	5907
מיליוני	5908
##בקש	5909
לציבור	5910
##רכיבים	5911
my	5912
רשימה	5913
##ain	5914
##שרות	5915
התב	5916
הגישה	5917
לשלב	5918
ליבר	5919
190	5920
הסיבות	5921
משחקי	5922
פוליטי	5923
חיובית	5924
דוקט	5925
הלך	5926
##ישו	5927
הממוצע	5928
המכונית	5929
החליט	5930
##נסיה	5931
צעדים	5932
ירידה	5933
fr	5934
חמאס	5935
לים	5936
מנצ	5937
##פקה	5938
##אשר	5939
החוף	5940
השניים	5941
ואנו	5942
##בעת	5943
מגלה	5944
עוברים	5945
איננה	5946
לרדת	5947
העולמית	5948
##av	5949
המין	5950
להשאיר	5951
השאלות	5952
משני	5953
##וגיה	5954
בתים	5955
##כוז	5956
בקשה	5957
בקיץ	5958
קצרה	5959
להצליח	5960
אבן	5961
בעצמו	5962
נבחר	5963
##ונגרס	5964
גיר	5965
טא	5966
##ייתי	5967
האק	5968
במל	5969
ישיר	5970
##ווית	5971
מבני	5972
עצום	5973
לכאן	5974
להגדיל	5975
תחילה	5976
##וברת	5977
שבהן	5978
הממשל	5979
רשמי	5980
זע	5981
זמנית	5982
טעם	5983
##יהן	5984
איבד	5985
כאלו	5986
מציעה	5987
##נסון	5988
הטלוויזיה	5989
יעזור	5990
לוקחים	5991
מדענים	5992
בבחירות	5993
איתה	5994
הוח	5995
##דינת	5996
אחראי	5997
##ראוי	5998
הפינ	5999
הדו	6000
מדעי	6001
המאמר	6002
האמריקני	6003
האדום	6004
סכום	6005
לאבד	6006
משלה	6007
להשתנות	6008
לשינוי	6009
קיבלה	6010
המלון	6011
התכנית	6012
כוכבים	6013
עג	6014
במשרד	6015
מאר	6016
שנייה	6017
תאריך	6018
מוזיאון	6019
הודו	6020
גופנית	6021
תינוק	6022
להודות	6023
במכ	6024
התורה	6025
מבצע	6026
לוותר	6027
דברי	6028
יחיד	6029
2001	6030
מחשבה	6031
di	6032
אול	6033
ובר	6034
באפשר	6035
השלטון	6036
בחירות	6037
ואתם	6038
הפלסטיני	6039
עורכי	6040
gr	6041
אבו	6042
וט	6043
רוז	6044
##פכו	6045
##ליג	6046
העיצוב	6047
משע	6048
##מיני	6049
בחו	6050
##מודדות	6051
מוסדות	6052
ניסה	6053
ההסכם	6054
לנסוע	6055
33	6056
חולה	6057
יושב	6058
##נש	6059
##חיות	6060
התמונות	6061
בינינו	6062
לקיים	6063
שער	6064
נהיה	6065
יתק	6066
ברחוב	6067
המוזיאון	6068
go	6069
ליל	6070
לזר	6071
נים	6072
קני	6073
##נחה	6074
##ביה	6075
##ענו	6076
שבין	6077
ציין	6078
המועצה	6079
אבות	6080
אובדן	6081
דרי	6082
פסק	6083
##מורה	6084
##צרו	6085
##ולל	6086
המדו	6087
המשיך	6088
##וסופיה	6089
##יקות	6090
מתכנ	6091
ביצ	6092
ברצינות	6093
אשראי	6094
כתוב	6095
תעשיית	6096
מוגבל	6097
all	6098
סר	6099
קופ	6100
##פונים	6101
להגדיר	6102
במסע	6103
נבד	6104
עוק	6105
פיג	6106
שמן	6107
##נל	6108
##גד	6109
##ואלי	6110
ישן	6111
לשנת	6112
מצוין	6113
ממשל	6114
נחמד	6115
יוצאת	6116
ביקש	6117
קשרים	6118
##למי	6119
מהבית	6120
במים	6121
מתה	6122
##רושים	6123
בתגובה	6124
במקור	6125
חלום	6126
להצביע	6127
נסיעה	6128
למשחק	6129
בכת	6130
דעות	6131
יוז	6132
כני	6133
##זציה	6134
##ure	6135
התה	6136
התנגדות	6137
הכנסייה	6138
##מצם	6139
יהודית	6140
לסיים	6141
חיבור	6142
הקדוש	6143
נוחות	6144
המות	6145
היעד	6146
##מוק	6147
מסורת	6148
אנדר	6149
150	6150
הערבי	6151
איל	6152
גאה	6153
דוח	6154
סדרת	6155
רופאים	6156
רשימת	6157
הכאב	6158
חברתי	6159
קיום	6160
הלידה	6161
הבעלים	6162
##ock	6163
מעוניינים	6164
ייחודי	6165
דגים	6166
וני	6167
מביא	6168
נלח	6169
קשות	6170
שכולם	6171
תלמיד	6172
כלכל	6173
##דרגה	6174
שיח	6175
מכירה	6176
השינויים	6177
ומס	6178
##והר	6179
מוזר	6180
עמדה	6181
אוסטרליה	6182
רוברט	6183
וּ	6184
##ביות	6185
##de	6186
באור	6187
למספר	6188
##יונית	6189
##מיין	6190
מצח	6191
מוצלח	6192
יתרונות	6193
הליכה	6194
להסיר	6195
למישהו	6196
נועד	6197
dis	6198
ליר	6199
מית	6200
להיש	6201
מחוז	6202
בהצלחה	6203
בגדים	6204
בניית	6205
אינך	6206
תנאים	6207
##pe	6208
הרשות	6209
לשאת	6210
מזמן	6211
להפעיל	6212
הופכת	6213
עלייה	6214
לנצל	6215
תינוקות	6216
אלקטרוני	6217
גידול	6218
לנה	6219
##מרה	6220
##ber	6221
הייצור	6222
החלי	6223
הפסי	6224
שאולי	6225
הגברים	6226
לבטל	6227
לתפוס	6228
##נקים	6229
חלקי	6230
בשבילך	6231
מתייחס	6232
מנכ	6233
קראו	6234
העיקריים	6235
##סמו	6236
##ירור	6237
מסור	6238
הקי	6239
לשאלה	6240
הצרפת	6241
##בתא	6242
פרטיות	6243
השיער	6244
השתמשו	6245
יוצרים	6246
במחיר	6247
בפרס	6248
אצלנו	6249
טען	6250
כוכב	6251
el	6252
רוכ	6253
##ust	6254
המורה	6255
להט	6256
השונות	6257
משבר	6258
מעלות	6259
לחיי	6260
הכפר	6261
חיובי	6262
מוכנה	6263
סמכות	6264
fl	6265
ווא	6266
מודה	6267
נמס	6268
סליחה	6269
צבאי	6270
##ast	6271
##שבו	6272
##חשב	6273
##ירוג	6274
##ריכל	6275
מהירה	6276
מאמינה	6277
משול	6278
בשירות	6279
אנגל	6280
עובדה	6281
פורט	6282
ציוד	6283
באיזה	6284
התגובה	6285
הערבים	6286
לפגוש	6287
##מפטומים	6288
li	6289
sk	6290
וית	6291
נעים	6292
עזר	6293
##סד	6294
היקום	6295
ההצלחה	6296
הבין	6297
ידידות	6298
המשק	6299
לסט	6300
עבורי	6301
##ite	6302
המלכות	6303
רציני	6304
סובלים	6305
##ובליקה	6306
38	6307
אמה	6308
אופי	6309
בים	6310
עין	6311
פש	6312
מהירות	6313
החדר	6314
אימון	6315
##יינת	6316
לעקוב	6317
הסבר	6318
הפוסט	6319
##שוי	6320
לשכוח	6321
לחבר	6322
##חתם	6323
מבטי	6324
בוודאי	6325
סטוד	6326
99	6327
do	6328
pe	6329
ומד	6330
יכלו	6331
סוציא	6332
תוק	6333
##ds	6334
השלב	6335
שיחות	6336
השתנה	6337
תנועת	6338
זור	6339
##דן	6340
##צרי	6341
##ודיות	6342
האחים	6343
התש	6344
העצמ	6345
הנכ	6346
##לקט	6347
המאוח	6348
גבוהות	6349
הניש	6350
בטיחות	6351
מעוניין	6352
]]	6353
car	6354
גיא	6355
הונ	6356
סו	6357
ענה	6358
ששי	6359
##כרת	6360
##גיה	6361
##per	6362
להרוויח	6363
התנאים	6364
מחלת	6365
מקר	6366
##לחו	6367
המערב	6368
##חושה	6369
הוראות	6370
עמוקה	6371
המשתמשים	6372
מבקשים	6373
צודק	6374
שתהיה	6375
אובי	6376
עכ	6377
##כליים	6378
##ויד	6379
האופן	6380
לגי	6381
לכיוון	6382
אסיה	6383
בינלאומית	6384
אדי	6385
בדם	6386
וזאת	6387
חירום	6388
עיו	6389
##כירה	6390
##ry	6391
##פיינים	6392
##שימות	6393
החוקים	6394
##וציה	6395
##מינות	6396
הכנסה	6397
##אלון	6398
סימנים	6399
בפנים	6400
יחידות	6401
הביק	6402
להגיש	6403
נתק	6404
המסר	6405
ועדיין	6406
התחל	6407
כשהיא	6408
מוביל	6409
אברהם	6410
שקר	6411
##נאות	6412
##דלים	6413
המשרד	6414
##יינה	6415
##יפל	6416
ממל	6417
כתבה	6418
מודל	6419
להעניק	6420
באיכות	6421
ציבורית	6422
##מטיקה	6423
מפלגת	6424
בוג	6425
הוציא	6426
חום	6427
נפת	6428
##דמה	6429
##גדים	6430
##pl	6431
להלן	6432
היומי	6433
מחכה	6434
הצרכים	6435
בתא	6436
שיחה	6437
##וארד	6438
יוסף	6439
לְ	6440
נבח	6441
הערכה	6442
מסך	6443
שאלתי	6444
לקי	6445
מזכיר	6446
יעילה	6447
חלומות	6448
לבריאות	6449
שואלים	6450
נוער	6451
תלמי	6452
באפשרות	6453
res	6454
ביע	6455
עמית	6456
שפת	6457
##ננות	6458
##קנות	6459
##na	6460
מסביר	6461
##ישום	6462
שיטת	6463
נקודה	6464
רצו	6465
מתייח	6466
off	6467
עקרונות	6468
הייתם	6469
הישראלים	6470
להתגבר	6471
כראוי	6472
##טט	6473
מהס	6474
במלחמה	6475
מתים	6476
כיש	6477
הבדל	6478
לחג	6479
##יפורים	6480
בסגנון	6481
ברק	6482
##ונאי	6483
האמיתית	6484
##ational	6485
il	6486
פוסט	6487
קת	6488
שיד	6489
תיע	6490
##פוט	6491
האיס	6492
##ליזם	6493
מתמ	6494
ישנו	6495
מקומיים	6496
##נגליה	6497
שמאל	6498
1999	6499
אלבום	6500
מצליחים	6501
גיבור	6502
לילד	6503
פייסבוק	6504
צמיחה	6505
##סית	6506
##ָא	6507
הידי	6508
אידי	6509
##בורג	6510
ואולם	6511
הזהב	6512
ראיות	6513
נתון	6514
חזקים	6515
מקצועית	6516
הקטנה	6517
הנוכחית	6518
!!!	6519
החברתית	6520
אובמה	6521
אֶ	6522
יומי	6523
לנת	6524
נפרד	6525
סחר	6526
עריכה	6527
##ננת	6528
##כז	6529
##חש	6530
להצלחה	6531
##ריח	6532
הקשה	6533
הנד	6534
פרטיים	6535
##יציה	6536
ולמ	6537
לברוח	6538
קהל	6539
לעצמך	6540
הסטודנטים	6541
וז	6542
זי	6543
לוב	6544
תושבים	6545
##כבים	6546
##לווה	6547
הפי	6548
##סקו	6549
התעשייה	6550
רשמית	6551
מייקל	6552
65	6553
ייס	6554
##ולט	6555
##תיי	6556
באת	6557
השח	6558
##ביעת	6559
למשת	6560
##נתן	6561
##חתה	6562
לסרט	6563
הכללי	6564
שרוב	6565
דוגמאות	6566
micros	6567
ויצ	6568
נפתח	6569
פירות	6570
פארק	6571
##צרה	6572
התמיכה	6573
להתאים	6574
השיניים	6575
##ant	6576
הפרטים	6577
בריאים	6578
משפיע	6579
##ith	6580
נסו	6581
לזמן	6582
הדרכים	6583
ארגוני	6584
out	6585
מרו	6586
נמל	6587
קונים	6588
שוחר	6589
##גלים	6590
באיט	6591
הסע	6592
מבקרים	6593
לתאר	6594
לגדול	6595
המשבר	6596
##ore	6597
ועדת	6598
התקדמות	6599
תעשה	6600
תוכנה	6601
מוסיקה	6602
בתחילה	6603
הציבורי	6604
מעורב	6605
אכז	6606
יכ	6607
נעי	6608
##שול	6609
##וקיינו	6610
למט	6611
ישירה	6612
לחוות	6613
הכבוד	6614
המעבר	6615
הניצ	6616
בראשית	6617
שותפים	6618
הצעירים	6619
השחקן	6620
להיראות	6621
בהקשר	6622
[[	6623
pre	6624
דיון	6625
ערכים	6626
קוו	6627
##בצע	6628
##פלים	6629
לאחור	6630
במובן	6631
אוסף	6632
הערה	6633
בימי	6634
להתמקד	6635
שנראה	6636
יצאו	6637
הקרובה	6638
שבועיים	6639
37	6640
לרוץ	6641
שז	6642
שבעה	6643
##נע	6644
איני	6645
מעשי	6646
מחו	6647
##מציה	6648
לדמיין	6649
חייל	6650
מטרים	6651
משפחתי	6652
אהיה	6653
פתח	6654
קונג	6655
מוגבלת	6656
פגיעה	6657
מעדיף	6658
microsoft	6659
air	6660
דרישות	6661
חיוני	6662
עברה	6663
צורת	6664
##ומנים	6665
איכ	6666
הפא	6667
##יפי	6668
נקי	6669
##ביעית	6670
השקעה	6671
ממשיכה	6672
##מפריה	6673
up	6674
נמשך	6675
##נב	6676
##מנת	6677
##ועדת	6678
מאמרים	6679
בעבוד	6680
שמס	6681
##ונם	6682
המקומית	6683
האירועים	6684
מומחה	6685
הונג	6686
ממוקם	6687
הכרחי	6688
ובו	6689
חות	6690
חוס	6691
יך	6692
עות	6693
ערים	6694
קס	6695
##פיות	6696
איום	6697
הערים	6698
הפק	6699
בחירת	6700
ידיים	6701
מגע	6702
##ונטי	6703
##ארט	6704
הבריט	6705
נגמר	6706
רגילים	6707
מנהלים	6708
עמדת	6709
אטרק	6710
##ak	6711
##זונה	6712
החודש	6713
אוג	6714
הרביעי	6715
בשעות	6716
אנד	6717
ביטח	6718
מצבי	6719
הפרס	6720
בדיקת	6721
התחיי	6722
נייר	6723
עשיר	6724
נבנה	6725
הקודמת	6726
הגורמים	6727
תשל	6728
##ובדה	6729
##ועלים	6730
מאבק	6731
הצבע	6732
לדוגמא	6733
הדיג	6734
להעריך	6735
ארוכות	6736
הכולל	6737
קראתי	6738
ציבורי	6739
למדתי	6740
מצאתי	6741
החשובים	6742
יפים	6743
##ַי	6744
לאף	6745
##מוי	6746
##וקת	6747
למג	6748
הספי	6749
בשדה	6750
לפיתוח	6751
לתוכ	6752
לגוף	6753
בצורת	6754
המחירים	6755
נתוני	6756
יעקב	6757
נהר	6758
##גרש	6759
הרגליים	6760
תכנון	6761
מספקים	6762
משותפת	6763
טוענים	6764
אוטומטי	6765
לשרוד	6766
ser	6767
זול	6768
פוט	6769
##der	6770
עלות	6771
הראי	6772
למטרות	6773
##ישון	6774
הכיבוש	6775
הנשק	6776
הזמנים	6777
שעדיין	6778
קיבלתי	6779
##טיביות	6780
הביטוח	6781
הביטוי	6782
הלחץ	6783
גוגל	6784
״.	6785
##ob	6786
במד	6787
##יימו	6788
הספורט	6789
הפרטי	6790
אורח	6791
חשיבה	6792
600	6793
אורך	6794
גמי	6795
להופיע	6796
באזורים	6797
##וקו	6798
השטן	6799
##וצע	6800
##וסקים	6801
בעית	6802
הנפט	6803
מצפים	6804
אפק	6805
שמחים	6806
למעט	6807
המסורת	6808
סטנדר	6809
עבודתו	6810
משקיעים	6811
קהילה	6812
להתקיים	6813
%)	6814
טיסה	6815
כשי	6816
השעה	6817
הרכי	6818
הספק	6819
בשיתוף	6820
לשחרר	6821
בסכ	6822
##סקנה	6823
##ולוגית	6824
נקבע	6825
נמצאו	6826
חופשית	6827
קריאה	6828
העסקים	6829
ation	6830
ליצירת	6831
55	6832
גילו	6833
חמצ	6834
לשרת	6835
שנוע	6836
##נציה	6837
##פואה	6838
המז	6839
הרשויות	6840
בעלה	6841
מסוב	6842
מסמכים	6843
הפחד	6844
##רכנים	6845
והנה	6846
המקרה	6847
בדרכים	6848
שותף	6849
באמריקה	6850
הכוכבים	6851
ii	6852
אשה	6853
גבול	6854
יופי	6855
כניסה	6856
ללח	6857
מניות	6858
קובע	6859
##לף	6860
##זיות	6861
שלח	6862
לעתיד	6863
מתרחש	6864
לשכנע	6865
##מתו	6866
הצבאי	6867
##יצד	6868
##ונך	6869
##ונן	6870
בבני	6871
להגיב	6872
וכיצד	6873
רחבה	6874
התוכן	6875
לעצמכם	6876
פסיכ	6877
תמורת	6878
##טיקאים	6879
האלקט	6880
##ראיתי	6881
הבניין	6882
לשנה	6883
לחדר	6884
אפל	6885
##קראת	6886
המקדש	6887
חיינו	6888
אדוני	6889
##געו	6890
מסוגלת	6891
עסקי	6892
זוכרים	6893
אמריקאים	6894
להזמין	6895
הפוליטית	6896
קנדה	6897
ייעוץ	6898
sa	6899
sm	6900
tim	6901
זרי	6902
יתרון	6903
קיצוני	6904
ריא	6905
ריח	6906
##בסס	6907
##pt	6908
לאומית	6909
לאלוהים	6910
הארוך	6911
במצרים	6912
##וסה	6913
הסוף	6914
##יאם	6915
##לטת	6916
קרובים	6917
בטלוויזיה	6918
ומח	6919
צעירה	6920
##בטחה	6921
ערבים	6922
הישן	6923
תרגום	6924
39	6925
בכתב	6926
ותי	6927
לדר	6928
נוק	6929
##סאות	6930
לאסוף	6931
הנצ	6932
לתרום	6933
לגר	6934
##art	6935
הופיע	6936
תגית	6937
חוזרת	6938
מתאימה	6939
gl	6940
הודות	6941
מלי	6942
קיצ	6943
##בון	6944
##ומנות	6945
אחי	6946
למידה	6947
הזיכרון	6948
##וזן	6949
##וניה	6950
מרוצה	6951
בתחומי	6952
מבוססת	6953
המודרנית	6954
44	6955
ווי	6956
חטי	6957
יט	6958
יוח	6959
יולי	6960
ימין	6961
משימה	6962
צורות	6963
##שמים	6964
##ֶּ	6965
##ph	6966
למחרת	6967
מעטים	6968
לשלום	6969
לקרי	6970
כאחד	6971
ברמת	6972
פיזית	6973
נפטר	6974
אליי	6975
##והה	6976
השקעות	6977
פרופסור	6978
טכנולוגיות	6979
במציאות	6980
בנה	6981
דירה	6982
סן	6983
פאר	6984
שגור	6985
##מורים	6986
##סוקה	6987
מהה	6988
החורף	6989
##ביו	6990
מתאר	6991
##רגיל	6992
לקוח	6993
מפות	6994
המקומות	6995
רובם	6996
רחוב	6997
להכניס	6998
ולהת	6999
ערבי	7000
טעויות	7001
חוזרים	7002
אינטראק	7003
צבעים	7004
החיילים	7005
מסיבה	7006
המחשבה	7007
לבלות	7008
מנות	7009
שיותר	7010
##סטים	7011
אתן	7012
המזל	7013
מהמק	7014
אישיים	7015
התחרות	7016
העברת	7017
##מתין	7018
##כונן	7019
לתפקיד	7020
הביא	7021
אחריו	7022
לרבות	7023
המאבק	7024
מבינה	7025
המכשיר	7026
המשתתפים	7027
כעבור	7028
wat	7029
טון	7030
לוג	7031
נל	7032
סדרה	7033
עשתה	7034
##בנו	7035
##פוח	7036
##פוי	7037
##שמיות	7038
##חזר	7039
הקפה	7040
בכלא	7041
בקרי	7042
הכללית	7043
פורסם	7044
ארוכים	7045
שומע	7046
מחשבים	7047
להתקדם	7048
הרשמי	7049
שייך	7050
וויל	7051
wi	7052
חנויות	7053
עונש	7054
פוטנציאל	7055
תם	7056
##סא	7057
##ניע	7058
המנו	7059
המראה	7060
להקל	7061
האפש	7062
מחזור	7063
הצליחה	7064
אמורה	7065
ואחרי	7066
הדג	7067
מבחן	7068
ברשות	7069
מפתיע	7070
##לטות	7071
השיטה	7072
בריאה	7073
עובדי	7074
ספרד	7075
קיץ	7076
קריירה	7077
המטופל	7078
מעורבים	7079
החלטתי	7080
המרכזית	7081
רשתות	7082
הפנימי	7083
מסכימים	7084
אזה	7085
הורה	7086
חט	7087
פוטנציא	7088
##נכ	7089
המכונה	7090
האנטי	7091
לשיר	7092
הצעות	7093
בהר	7094
מיומנויות	7095
הטכנולוג	7096
המשטר	7097
ובני	7098
תחנת	7099
עצמאי	7100
דיוק	7101
מוכרים	7102
הדיון	7103
חסרי	7104
טרם	7105
ממליצים	7106
להרחיב	7107
אנגליה	7108
dr	7109
תו	7110
אתרי	7111
האויב	7112
באש	7113
##לאי	7114
##לונה	7115
הגז	7116
יהודה	7117
עדן	7118
הראו	7119
סיג	7120
בצע	7121
המערבי	7122
התחילו	7123
המטוס	7124
למוות	7125
הקטנים	7126
שהתק	7127
סוכר	7128
תיקון	7129
ion	7130
בְּ	7131
גלו	7132
##ne	7133
##da	7134
##שרון	7135
בממוצע	7136
למשוך	7137
מתנד	7138
הסדר	7139
בהס	7140
##נסיים	7141
##יסר	7142
שנמצא	7143
מטעם	7144
בדומה	7145
הסינית	7146
##גורר	7147
פוליטיים	7148
זוכרת	7149
היסטורי	7150
טיול	7151
במאמר	7152
הקומוני	7153
עשית	7154
##סיקה	7155
במדינת	7156
החוויה	7157
התושבים	7158
השואה	7159
הרופאים	7160
##וער	7161
הסכי	7162
שאינה	7163
הצר	7164
הצער	7165
מבטיח	7166
בטווח	7167
ידועה	7168
המסך	7169
פתוחה	7170
חסרת	7171
שולח	7172
להקשיב	7173
טורקיה	7174
הנקודה	7175
לדרך	7176
רביעי	7177
תוא	7178
המבט	7179
החר	7180
העדי	7181
מתנג	7182
##יעין	7183
##רגן	7184
הנג	7185
בפייסבוק	7186
אפשרית	7187
##are	7188
קצב	7189
החלום	7190
ניסו	7191
##ass	7192
ממוצע	7193
עולמית	7194
פועלת	7195
ראינו	7196
חשבונות	7197
net	7198
ידו	7199
מובן	7200
##כמה	7201
##עין	7202
##זיאון	7203
##יליות	7204
##מוני	7205
למידע	7206
משך	7207
##טיסט	7208
מעין	7209
הבט	7210
##משלה	7211
##מותה	7212
פעילים	7213
יהוה	7214
ולמה	7215
חברתיים	7216
האינט	7217
המועצות	7218
כשאנחנו	7219
כספים	7220
החשמל	7221
הוגן	7222
ומצ	7223
זמינים	7224
חבל	7225
חוזה	7226
##ies	7227
אתגר	7228
המוני	7229
##ודאות	7230
איט	7231
אוז	7232
הערבית	7233
מערי	7234
בחי	7235
אנושי	7236
לכמה	7237
המקומי	7238
תקציב	7239
יעילות	7240
בתוכנית	7241
הידוע	7242
הוקמה	7243
דניאל	7244
דינ	7245
זמני	7246
ליותר	7247
תראה	7248
##צם	7249
הרס	7250
##כוניות	7251
##בונן	7252
שמר	7253
##לחתי	7254
ולפע	7255
הכלכלית	7256
המקורית	7257
השיחה	7258
##ish	7259
התרופה	7260
כחול	7261
השירותים	7262
?!	7263
ביה	7264
בבת	7265
מיה	7266
לארה	7267
##בינו	7268
מחבר	7269
הציל	7270
מקד	7271
אלוקים	7272
עצם	7273
בסביבות	7274
בכיר	7275
##יכרונות	7276
##קדמות	7277
פניו	7278
האמריקאים	7279
sy	7280
ימ	7281
לוא	7282
##מטי	7283
##ec	7284
##ארי	7285
##וריים	7286
הידיים	7287
השולחן	7288
הרשימה	7289
לעורר	7290
הסרטים	7291
מחירי	7292
בהריון	7293
בהדרגה	7294
מקב	7295
ברזל	7296
הכלל	7297
נעלם	7298
האישיים	7299
במערב	7300
comm	7301
מאתנו	7302
צבאית	7303
מיקום	7304
דמוקרטיה	7305
ויטמין	7306
'"	7307
אשת	7308
בנים	7309
דל	7310
הות	7311
לרי	7312
נוט	7313
פונק	7314
צמח	7315
שרה	7316
תשובות	7317
##לכה	7318
##פרסם	7319
הפה	7320
שאלוהים	7321
##יוו	7322
הבת	7323
הצעת	7324
הכביש	7325
בחרו	7326
מלאכות	7327
פנימה	7328
הקרובים	7329
השפעת	7330
נורמלי	7331
קשורים	7332
זיהום	7333
לנקוט	7334
פופולרי	7335
האסטרטג	7336
qu	7337
גילה	7338
חנות	7339
יומיים	7340
עיס	7341
פלטפור	7342
שחרור	7343
##ווק	7344
##+]	7345
המדי	7346
האות	7347
החיצוני	7348
העני	7349
שהג	7350
לעיל	7351
לשקול	7352
מימון	7353
צריכת	7354
צריכות	7355
בנייה	7356
מטופלים	7357
הפרק	7358
קטל	7359
##ide	7360
חמישי	7361
תזונה	7362
המשיח	7363
מאושרים	7364
אלקטרו	7365
##וקיינוס	7366
[+]	7367
can	7368
הון	7369
מילות	7370
סיל	7371
ציון	7372
שוח	7373
##ִים	7374
##ולית	7375
אחיו	7376
באוויר	7377
מאוב	7378
##פרץ	7379
הגבר	7380
לחשוף	7381
הזכויות	7382
מכשיר	7383
לכלול	7384
##ory	7385
מוזיק	7386
1996	7387
שולחן	7388
תופעות	7389
סקוט	7390
הנסיעה	7391
אוגוסט	7392
85	7393
טק	7394
ינג	7395
לידה	7396
##זינו	7397
##שנים	7398
##ist	7399
לאזור	7400
מהפ	7401
אוסט	7402
##נתו	7403
הגיוני	7404
לשירות	7405
לבנים	7406
בגודל	7407
הכלים	7408
מטוס	7409
האחד	7410
המספרים	7411
הגרמנים	7412
יסוד	7413
מניח	7414
שיהיו	7415
800	7416
:)	7417
by	7418
et	7419
חמור	7420
קרח	7421
רוס	7422
##פחות	7423
##ֵּ	7424
המיל	7425
אימא	7426
##ייני	7427
בשקט	7428
לחסוך	7429
אמורים	7430
ברירה	7431
יצירות	7432
להבח	7433
מלכת	7434
לעצמם	7435
ברוך	7436
יוש	7437
פנט	7438
שווי	7439
##ביד	7440
##qu	7441
עלויות	7442
##ידוד	7443
הסביר	7444
##רגיות	7445
אלפים	7446
בחור	7447
בחורה	7448
##נסיות	7449
##פיט	7450
כשאתם	7451
בפיתוח	7452
שקל	7453
##צבעות	7454
וכמ	7455
הריון	7456
תשע	7457
##פריקה	7458
הניסיון	7459
השפעות	7460
משאבים	7461
חרדה	7462
להתעלם	7463
להתחבר	7464
ly	7465
מייס	7466
##איים	7467
##co	7468
הממל	7469
##רין	7470
העין	7471
##לונן	7472
ביח	7473
ביפן	7474
מקומי	7475
בקצב	7476
##וסיית	7477
##פשט	7478
רעב	7479
מורכבת	7480
שומרים	7481
קליפורניה	7482
הצהריים	7483
art	7484
המודרני	7485
תוספת	7486
המבקרים	7487
וכמובן	7488
tra	7489
דואר	7490
הוז	7491
זכר	7492
לנג	7493
עידן	7494
קרו	7495
תועלת	7496
##ידי	7497
##סיד	7498
##סמת	7499
##pr	7500
מאיר	7501
מתמק	7502
מסלול	7503
שאלו	7504
הבורא	7505
ואחר	7506
שיטה	7507
בקבוק	7508
קרקע	7509
##דושה	7510
תחבורה	7511
לרשות	7512
המתאי	7513
##וויית	7514
סוכרת	7515
ta	7516
דפ	7517
מראים	7518
קפ	7519
קאר	7520
קווי	7521
רמה	7522
תאים	7523
##ננו	7524
##ארו	7525
##ניעת	7526
המטרות	7527
##תיבת	7528
הצמיחה	7529
##שתת	7530
##חקרים	7531
##ere	7532
ילדות	7533
הפרטיות	7534
הלוח	7535
הודיעה	7536
נדיר	7537
התרופות	7538
רכוש	7539
רכבת	7540
המיוח	7541
מנהיגים	7542
ללבוש	7543
מנקודת	7544
חוות	7545
יוון	7546
קחו	7547
##bo	7548
##טוף	7549
##אד	7550
##ud	7551
##ואיד	7552
הפליטים	7553
הנשמה	7554
##לתה	7555
מגדל	7556
בקיצור	7557
מיידי	7558
ציור	7559
עולמי	7560
world	7561
השתתפות	7562
לגיטי	7563
42	7564
ייר	7565
מטי	7566
ניכר	7567
רלוו	7568
המנהל	7569
הפיתוח	7570
אנט	7571
הצעד	7572
לבח	7573
הנב	7574
אזורים	7575
הטור	7576
בגין	7577
שעומ	7578
בטלפון	7579
למערכת	7580
המכירות	7581
הקבוצות	7582
לעצמנו	7583
col	7584
דיכ	7585
דיפל	7586
חב	7587
חוג	7588
כפר	7589
נטי	7590
פשע	7591
קוק	7592
##ps	7593
##ודר	7594
היפ	7595
##תיב	7596
##ביט	7597
##וצמה	7598
##יימות	7599
הציג	7600
הנרי	7601
מדברת	7602
בניין	7603
נעצר	7604
הולנד	7605
אבנים	7606
הודיע	7607
קולנוע	7608
שיעורי	7609
רכישת	7610
מנהיגות	7611
משימות	7612
בטיפול	7613
מכשירים	7614
להבחין	7615
גו	7616
הוצאות	7617
וושי	7618
ליע	7619
נרחב	7620
פגש	7621
קידום	7622
רוצ	7623
שנג	7624
שומר	7625
##פיל	7626
לאלה	7627
האלוהים	7628
במלחמת	7629
איזון	7630
השע	7631
למלחמה	7632
##יקס	7633
##וגע	7634
##לוונטי	7635
הקונגרס	7636
ברוסיה	7637
שמירה	7638
לסבול	7639
הביניים	7640
הפרסום	7641
חברתיות	7642
הכוללת	7643
מעורבות	7644
לתקופה	7645
סגנון	7646
עליהן	7647
הרפובליקה	7648
הפוליטי	7649
חוויות	7650
כרטיסים	7651
הדמוקרטיה	7652
נולדה	7653
##משיכו	7654
##ונלד	7655
mac	7656
son	7657
##מוח	7658
השחור	7659
##וצרת	7660
לפל	7661
אמיתיים	7662
##חתת	7663
לסמוך	7664
מטוסים	7665
נתפס	7666
ספרו	7667
ההתנגדות	7668
בסיפור	7669
יקבל	7670
ראייה	7671
בפעילות	7672
צמחים	7673
בקבוצה	7674
ag	7675
day	7676
חסי	7677
חוט	7678
##מורת	7679
האנגלית	7680
הרוסית	7681
##יקו	7682
ביס	7683
מצבים	7684
##נטון	7685
שמדו	7686
לדון	7687
ממע	7688
##יצה	7689
מוציא	7690
שתמיד	7691
189	7692
מוסלמים	7693
לשיפור	7694
לפרסם	7695
ניצחון	7696
המלכה	7697
מרחב	7698
ליהודים	7699
החופש	7700
הנסיך	7701
פרחים	7702
וושינגטון	7703
אקס	7704
חלל	7705
טיסות	7706
מלה	7707
מכה	7708
מורים	7709
שונא	7710
##גיד	7711
המזו	7712
העסקה	7713
השופ	7714
מתמיד	7715
מתמוד	7716
לפס	7717
##ישוב	7718
הדעת	7719
נהדרת	7720
קורס	7721
שחלק	7722
לזכויות	7723
מקבלת	7724
זוכה	7725
צפויים	7726
רומא	7727
בעצמך	7728
שהופך	7729
תלמידי	7730
הבריטית	7731
דרכו	7732
זכור	7733
חובות	7734
קולות	7735
הישר	7736
האוו	7737
##ופעות	7738
##וחרים	7739
משלי	7740
##ראינה	7741
ההריון	7742
מחול	7743
##כויים	7744
##ציבות	7745
פרנסי	7746
לסגור	7747
בפריז	7748
בבירור	7749
##מעו	7750
שלאחר	7751
תחומי	7752
במשפחה	7753
##ence	7754
אומץ	7755
טיפים	7756
מושלמת	7757
תצטרך	7758
המוסלמים	7759
שיכולים	7760
צפויה	7761
חן	7762
נשימה	7763
שתיים	7764
##az	7765
##חילה	7766
##ולדות	7767
איז	7768
לערוך	7769
לעודד	7770
הבנייה	7771
הצלב	7772
לתלמידים	7773
חשובות	7774
שחשוב	7775
מרגש	7776
בסיכון	7777
תגיד	7778
פריז	7779
מובילה	7780
להרוס	7781
האהוב	7782
העצמי	7783
חכמים	7784
הניתוח	7785
[-	7786
av	7787
jo	7788
med	7789
מונה	7790
נלק	7791
שחי	7792
תוב	7793
##בדת	7794
היות	7795
השג	7796
הרפת	7797
הפוטנציאל	7798
ההחלט	7799
מקווים	7800
הנור	7801
סיטי	7802
עבורכם	7803
חזון	7804
פריטים	7805
מוחמד	7806
סגן	7807
האפשרויות	7808
המפורסם	7809
פלסטין	7810
הדיגיט	7811
ההחלטות	7812
ויי	7813
זכתה	7814
##מפיין	7815
##צג	7816
##טוח	7817
שלטון	7818
האיט	7819
##וכח	7820
הכוונה	7821
להתרחש	7822
##פיץ	7823
מדווח	7824
בקושי	7825
ארד	7826
פיזי	7827
בדברים	7828
המתאים	7829
חשש	7830
##טלר	7831
מסתבר	7832
דאעש	7833
הלוואי	7834
עוצמה	7835
מדויק	7836
מתקדמים	7837
הלהקה	7838
ויא	7839
טקסט	7840
יזם	7841
סח	7842
רדיו	7843
##iz	7844
המצל	7845
להורג	7846
##ומך	7847
##ופיים	7848
##שיאות	7849
##וגות	7850
לעי	7851
הבמה	7852
מחלק	7853
לחם	7854
הכרטי	7855
מצו	7856
מזונות	7857
התקשר	7858
תרופה	7859
וחלק	7860
##פרייה	7861
1998	7862
1997	7863
האמריקנית	7864
טבעית	7865
נותרו	7866
ביטול	7867
הרפואה	7868
תומך	7869
שהאדם	7870
מציין	7871
שמדובר	7872
[-]	7873
home	7874
אנה	7875
דן	7876
דתיים	7877
מבו	7878
צא	7879
שמים	7880
שכת	7881
##נצל	7882
##מיקה	7883
##טגי	7884
##שט	7885
##ולדת	7886
המולד	7887
האמצ	7888
##ומק	7889
השירים	7890
הרוסי	7891
לעד	7892
מתוק	7893
הסחר	7894
הפתי	7895
ההפר	7896
ההודעה	7897
לשוק	7898
לחזק	7899
לתכנן	7900
נתנו	7901
נהנה	7902
עצמאות	7903
##קטור	7904
?".	7905
נחשבת	7906
שנערך	7907
שאינן	7908
המוקד	7909
>>	7910
בוחר	7911
כמי	7912
קבל	7913
קונה	7914
שפע	7915
##כרה	7916
מהווים	7917
הקלי	7918
מחירים	7919
הצעה	7920
הכרה	7921
בחלל	7922
##וזים	7923
מדריך	7924
הבינו	7925
פיטר	7926
מטבע	7927
##ath	7928
בתחומים	7929
1995	7930
במועד	7931
אופניים	7932
גילוי	7933
נכנסים	7934
##מפרטורה	7935
intern	7936
95	7937
lin	7938
per	7939
כאל	7940
לניהול	7941
צוע	7942
לאת	7943
##ומא	7944
באל	7945
באנשים	7946
##טיס	7947
##יסטים	7948
עצומה	7949
המחוז	7950
ידועים	7951
מספרת	7952
יעשו	7953
עצמאית	7954
שרוצים	7955
1994	7956
תופעה	7957
").	7958
שוויון	7959
פתיחת	7960
איטלק	7961
49	7962
ha	7963
מכונות	7964
מפקד	7965
##אור	7966
##ופק	7967
##ליכי	7968
מהנד	7969
באחת	7970
החומרים	7971
התס	7972
למרכז	7973
מתפ	7974
בחוק	7975
עבורנו	7976
חייה	7977
חוקית	7978
מלאים	7979
מלכות	7980
קלוריות	7981
למשפחה	7982
האישית	7983
הרפואי	7984
יישום	7985
מסיבות	7986
מייצג	7987
os	7988
דנ	7989
נמנ	7990
פרא	7991
##קנה	7992
##ial	7993
##ff	7994
האושר	7995
החג	7996
החיות	7997
הענק	7998
מקסי	7999
##כונת	8000
פרטית	8001
מגי	8002
אינדי	8003
##ans	8004
הרגל	8005
מתקדם	8006
תיירים	8007
דאגה	8008
הבנקים	8009
ודאי	8010
שימושי	8011
דיאטה	8012
חלבון	8013
##ife	8014
מוחלטת	8015
שאמרתי	8016
##ound	8017
נמסר	8018
des	8019
תראו	8020
##כאון	8021
##גלה	8022
##פיר	8023
##ֶׁ	8024
המיי	8025
##ודעות	8026
למשהו	8027
בעזה	8028
הקפ	8029
##לקטוא	8030
##אהב	8031
##וזר	8032
ברזיל	8033
לגשת	8034
עדות	8035
יצחק	8036
לרשת	8037
קצרים	8038
##וסטון	8039
הרחב	8040
##וסטרליה	8041
post	8042
office	8043
aw	8044
אפר	8045
חירות	8046
סביבה	8047
שכי	8048
שכתב	8049
##לע	8050
##ֵי	8051
להנ	8052
היופי	8053
##ברס	8054
התנג	8055
כללית	8056
בעיית	8057
הגי	8058
לחלוק	8059
הכות	8060
##בונות	8061
בכיוון	8062
שנפ	8063
רגעים	8064
נפוץ	8065
האחרות	8066
ליישם	8067
פולין	8068
1967	8069
מדהימה	8070
##טיבציה	8071
בבעלות	8072
אכל	8073
סיד	8074
##מליים	8075
##חילו	8076
##נייני	8077
המלח	8078
האצ	8079
באוניברסיטה	8080
בעידן	8081
הגעתי	8082
בתנאים	8083
והא	8084
שעלי	8085
בטבע	8086
נתחיל	8087
שרוצה	8088
188	8089
יקרים	8090
בפרק	8091
הגרמני	8092
חקירה	8093
לבעלי	8094
ההצעה	8095
אירועי	8096
לנהוג	8097
with	8098
גשר	8099
מנוע	8100
סגור	8101
תסת	8102
##קירה	8103
##איות	8104
##ירוף	8105
##ובוסים	8106
העמים	8107
##ביעו	8108
הסול	8109
הבנות	8110
לדברים	8111
מגר	8112
מגני	8113
##צועה	8114
אליכם	8115
עשויות	8116
טיפולים	8117
מועדון	8118
1993	8119
המועד	8120
להזכיר	8121
עיתונאים	8122
רפואית	8123
מתרחשת	8124
כואב	8125
באיטליה	8126
mon	8127
דקה	8128
טילים	8129
נוז	8130
קשי	8131
##ערת	8132
##קבל	8133
##אליים	8134
##תיו	8135
אישר	8136
משל	8137
ישנים	8138
ההי	8139
הצפו	8140
בהודו	8141
ואה	8142
מבול	8143
לתואר	8144
שעשו	8145
אחריה	8146
##אונות	8147
קורבנות	8148
186	8149
הדיווח	8150
1990	8151
בעצמי	8152
זכרו	8153
האתגרים	8154
המחשבות	8155
סבלנות	8156
love	8157
act	8158
hot	8159
בירה	8160
נכונות	8161
סוס	8162
ספור	8163
עשינו	8164
צופים	8165
תשוב	8166
המיני	8167
להביע	8168
עלתה	8169
##ומץ	8170
החשבון	8171
החודשים	8172
השמים	8173
##וספת	8174
לימודים	8175
הציע	8176
##עתים	8177
מבוגר	8178
##וליטיקה	8179
פרסם	8180
תעופה	8181
הילדה	8182
ניסוי	8183
##מפוס	8184
##נחלויות	8185
##זבז	8186
במגוון	8187
##ִּי	8188
cb	8189
אוקטובר	8190
ביקר	8191
הליך	8192
##לומים	8193
##הו	8194
##סופו	8195
##ָר	8196
המכון	8197
##ילר	8198
##נהלות	8199
השב	8200
משוב	8201
##ייץ	8202
שהכל	8203
לעניין	8204
##וכית	8205
מחצית	8206
##יאל	8207
הצט	8208
הדא	8209
##נגל	8210
בגן	8211
שעל	8212
שעש	8213
אנוש	8214
ישראלית	8215
בניסיון	8216
להגביר	8217
ובמי	8218
לראש	8219
משמעותיים	8220
מלמד	8221
פנימי	8222
הציבורית	8223
המודעות	8224
רישיון	8225
לימודי	8226
האינטרסים	8227
לבעיות	8228
ספינות	8229
ממליץ	8230
קילומט	8231
שפורסם	8232
קילומטרים	8233
בואי	8234
גונג	8235
ייחוד	8236
סיס	8237
תשא	8238
##פלי	8239
##ple	8240
היג	8241
##שינגטון	8242
אחים	8243
בארגון	8244
##וצעו	8245
מתנות	8246
מכר	8247
משתתפים	8248
גורמת	8249
1991	8250
ניסיתי	8251
המלצות	8252
תפקידו	8253
כספי	8254
##נאביס	8255
מודרני	8256
הפסקת	8257
בטרם	8258
ההשקעה	8259
ובמיוחד	8260
כוע	8261
ענ	8262
קח	8263
היפה	8264
אויב	8265
התמק	8266
לעם	8267
לחי	8268
הדירה	8269
שישראל	8270
##נטרי	8271
המשכ	8272
נהנים	8273
משפטי	8274
נאס	8275
##סיקים	8276
יאפשר	8277
כתבתי	8278
עזב	8279
זוגות	8280
למסע	8281
שבאמת	8282
בקהילה	8283
המונח	8284
האקלים	8285
כניסת	8286
הצרפתי	8287
דירות	8288
דמויות	8289
טו	8290
מטה	8291
ממוש	8292
עסקה	8293
רלוונטי	8294
##קאות	8295
##ידוש	8296
##מצים	8297
והג	8298
בספרד	8299
ברשימה	8300
##ולוגיות	8301
##צועת	8302
התיירות	8303
ההתנהגות	8304
מכלל	8305
טבעיים	8306
השליטה	8307
הצבאית	8308
פילוס	8309
בחייו	8310
הגורם	8311
לקבוצה	8312
בבל	8313
דתי	8314
לוו	8315
נניח	8316
צוח	8317
קניות	8318
##כיים	8319
##פסים	8320
##ְׁ	8321
##ופיות	8322
##וצרות	8323
##טיחות	8324
מחז	8325
בתמונה	8326
אלטר	8327
הנזק	8328
מגן	8329
ממק	8330
בצבא	8331
##int	8332
אהב	8333
##וויטר	8334
העובדות	8335
מקצועיים	8336
חומרי	8337
מצוינת	8338
הבדיקה	8339
דיכאון	8340
האיטלק	8341
700	8342
ol	8343
דרג	8344
סודות	8345
רעים	8346
##כרים	8347
##ֹת	8348
היטלר	8349
##ובלית	8350
##ובליק	8351
באנגליה	8352
הראה	8353
##לאה	8354
שאלת	8355
שיצ	8356
מגורים	8357
בכדור	8358
עבורך	8359
יציר	8360
משתנים	8361
נכסים	8362
במחשב	8363
##יזם	8364
לפתע	8365
##ood	8366
רוחנית	8367
החלטת	8368
העיתון	8369
החברתיות	8370
da	8371
כרו	8372
נמשיך	8373
קישורים	8374
##ניום	8375
מהלך	8376
לער	8377
הפור	8378
שאה	8379
הבול	8380
הצטרף	8381
הצלחתי	8382
מבצעים	8383
בכפר	8384
בכירים	8385
אנושית	8386
מטע	8387
אדמות	8388
התחילה	8389
באיזו	8390
התוכנה	8391
דורשים	8392
משפטית	8393
לומד	8394
רפואיים	8395
ולקבל	8396
גרעיני	8397
בכם	8398
לית	8399
סבא	8400
סביבת	8401
##בך	8402
##פסה	8403
##po	8404
##כללה	8405
השניה	8406
למטרה	8407
משוכ	8408
לשמ	8409
מחלקת	8410
הנחה	8411
שיצא	8412
אחדות	8413
מבנים	8414
עצוב	8415
בסדרה	8416
שלושים	8417
בפל	8418
ולל	8419
המחלקה	8420
##סטן	8421
בנושאים	8422
נגר	8423
הפרלמנט	8424
אסון	8425
הרגשות	8426
האירא	8427
הפעולות	8428
נותנת	8429
קשורה	8430
הסכסוך	8431
הוכחה	8432
השמאל	8433
ההשפעות	8434
מתכננים	8435
bus	8436
cr	8437
ge	8438
חני	8439
כוונה	8440
ספטמבר	8441
רדי	8442
רשויות	8443
##כוד	8444
##בין	8445
##ּוֹ	8446
##קוד	8447
האנ	8448
מהג	8449
באתי	8450
החוב	8451
אייר	8452
##וגני	8453
ההנה	8454
מחק	8455
##פתור	8456
מרוצים	8457
מרטין	8458
חוקר	8459
התעל	8460
למציאות	8461
נכש	8462
##פריט	8463
המטבע	8464
##וגרפיה	8465
פיליפ	8466
מעדיפים	8467
שנאמר	8468
מתייחסים	8469
##כנים	8470
##בוגרים	8471
##צוות	8472
שליש	8473
##תייחס	8474
במר	8475
אחורה	8476
##וגן	8477
הבכ	8478
##מתם	8479
והח	8480
עצים	8481
##מרק	8482
ניתנת	8483
ובמק	8484
נתקל	8485
נהיגה	8486
שכזה	8487
עסקיים	8488
1992	8489
מופע	8490
בפרט	8491
השלכות	8492
הרחוב	8493
הרוחני	8494
כעס	8495
נוכח	8496
הנוסעים	8497
העצמאות	8498
gu	8499
hum	8500
גירוש	8501
מוני	8502
קים	8503
קסם	8504
תמשיך	8505
##קרונות	8506
##ian	8507
האלימות	8508
##מוץ	8509
משלמים	8510
שהש	8511
מתפת	8512
מסמך	8513
לחוש	8514
הדמויות	8515
שימש	8516
אפליק	8517
מפחד	8518
חדרים	8519
דבריו	8520
לנושא	8521
##פטן	8522
האימפריה	8523
##סטינים	8524
אביה	8525
מופת	8526
אשמח	8527
בשלום	8528
מובילים	8529
אינטליג	8530
מרחק	8531
סכנה	8532
שנוכל	8533
הוקם	8534
נישואין	8535
ספציפי	8536
life	8537
war	8538
נחת	8539
סת	8540
שמצ	8541
תדע	8542
##טציה	8543
##פירה	8544
שלג	8545
המו	8546
##ליפות	8547
איחוד	8548
העץ	8549
הקלא	8550
הפארק	8551
הפועלים	8552
מקל	8553
פרש	8554
סיכונים	8555
ממתי	8556
שבני	8557
גרסה	8558
##שלון	8559
ספרות	8560
פתוחים	8561
וכאשר	8562
כשהייתי	8563
תיאטרון	8564
##טיביים	8565
כרטיסי	8566
החתונה	8567
לחגוג	8568
br	8569
בלח	8570
ופע	8571
יוק	8572
כור	8573
סבור	8574
##כיל	8575
##בירים	8576
##אמה	8577
##כלים	8578
הערכים	8579
ההון	8580
לחברות	8581
בתנאי	8582
לקו	8583
הדואר	8584
שינו	8585
חלקית	8586
הלכת	8587
הנושאים	8588
אסירים	8589
פשוטים	8590
רצוי	8591
בהתחשב	8592
ההתחלה	8593
##ree	8594
ant	8595
הלימוד	8596
רפואה	8597
ארבעת	8598
##age	8599
נדרשים	8600
ומעלה	8601
לנקות	8602
ייחודית	8603
נובמבר	8604
המשותף	8605
'".	8606
47	8607
הוביל	8608
ירו	8609
מנד	8610
סבי	8611
עולים	8612
עיקר	8613
שרת	8614
תמצאו	8615
##מלט	8616
אתגרים	8617
##יליון	8618
##מוניה	8619
הרומ	8620
מאורג	8621
הגול	8622
הגענו	8623
##וכמה	8624
הבנת	8625
עצב	8626
בקנה	8627
##דושים	8628
רגילה	8629
יעלה	8630
התקציב	8631
הופעות	8632
המאסטר	8633
במחש	8634
##ach	8635
לתקשר	8636
הסכמה	8637
מאפשרים	8638
##נרל	8639
תומכים	8640
גדלה	8641
להיפטר	8642
הנישואין	8643
דיפלומ	8644
ונית	8645
ונשים	8646
ימות	8647
יישאר	8648
לבל	8649
פליטים	8650
שתר	8651
להרג	8652
##וקות	8653
החיו	8654
הערות	8655
מאסר	8656
מתעור	8657
שאומר	8658
בתר	8659
בתקשורת	8660
##אלת	8661
לקום	8662
אלוה	8663
תהיו	8664
הנוער	8665
אספקת	8666
יקבלו	8667
ברחובות	8668
מופיעה	8669
##ild	8670
250	8671
שמעולם	8672
מדהי	8673
sec	8674
במאבק	8675
הנאצים	8676
נזכר	8677
מלונות	8678
לצערי	8679
דלקת	8680
כושר	8681
פוש	8682
רון	8683
רעה	8684
##מנטים	8685
##עק	8686
האומה	8687
באות	8688
הרים	8689
הרבים	8690
##יקי	8691
שהוק	8692
הסופר	8693
מעניינים	8694
מעריכים	8695
מחליט	8696
##רגש	8697
לבדי	8698
##סיבה	8699
הדרושים	8700
האמיתיים	8701
נפגש	8702
תיירות	8703
##own	8704
סיינט	8705
מצטער	8706
66	8707
ww	8708
גני	8709
חטא	8710
משרת	8711
נוצרים	8712
סמית	8713
סמוך	8714
עמודים	8715
קישור	8716
##ממה	8717
##ודיע	8718
לאס	8719
##וצץ	8720
לעצב	8721
##זהר	8722
##חתן	8723
מכון	8724
עבורם	8725
לרצות	8726
##ick	8727
עסקית	8728
ניסויים	8729
##טונו	8730
רוחני	8731
שומעים	8732
בעברית	8733
באירוע	8734
הטבעי	8735
הקודמים	8736
אינטנסי	8737
לביצוע	8738
בודד	8739
להיפגש	8740
שמאפשר	8741
שקיבל	8742
פירושו	8743
לסטודנטים	8744
הספינה	8745
cent	8746
דק	8747
חינו	8748
ליו	8749
מפה	8750
קלים	8751
המניות	8752
הינם	8753
החברתי	8754
השוט	8755
השקט	8756
##רויות	8757
הקלה	8758
הפיק	8759
הבק	8760
הצו	8761
בהיות	8762
אמרת	8763
הכשרה	8764
בחברת	8765
שמגיע	8766
שנאה	8767
חזרו	8768
למחקר	8769
תלויה	8770
ייתן	8771
ers	8772
ברכב	8773
החליטו	8774
##יפיור	8775
43	8776
46	8777
ib	8778
גובה	8779
זכו	8780
זמנים	8781
חווים	8782
כשר	8783
ניכ	8784
ריפ	8785
##כניים	8786
##זמים	8787
התשלום	8788
התחושה	8789
בעבור	8790
שהיתה	8791
מסיי	8792
##ותרות	8793
מענה	8794
הבירה	8795
הבתים	8796
מחסור	8797
לחש	8798
לקחו	8799
##חקו	8800
מפגש	8801
##eric	8802
להגנה	8803
המחבר	8804
הלכתי	8805
אירלנד	8806
להסתיר	8807
הוכר	8808
המשיכה	8809
ra	8810
ter	8811
גברת	8812
ובלתי	8813
לוי	8814
מפי	8815
ערוץ	8816
פיס	8817
פסטיבל	8818
רישום	8819
##כמים	8820
##נוקות	8821
האוצר	8822
##ואנה	8823
במידע	8824
במשרה	8825
אחדים	8826
מאמן	8827
##בהיר	8828
הגזע	8829
לשוב	8830
בהג	8831
בתפ	8832
בחינוך	8833
ואר	8834
והפ	8835
##בתם	8836
הטכני	8837
לצמצם	8838
ילדיהם	8839
נעליים	8840
הלכה	8841
כתבי	8842
בסיסי	8843
חופשיים	8844
כנסי	8845
הטיסה	8846
דיוויד	8847
הרצפה	8848
סוכנות	8849
סיפרה	8850
מתאימים	8851
היסוד	8852
במלוא	8853
!)	8854
59	8855
64	8856
ev	8857
גשם	8858
ירח	8859
מוסיף	8860
סני	8861
סמל	8862
עדים	8863
קנה	8864
שחר	8865
##נחים	8866
##בקים	8867
##קנים	8868
האשר	8869
התואר	8870
השעון	8871
מאיפה	8872
##פרס	8873
מעקב	8874
לשמר	8875
בהצ	8876
##בעו	8877
וללא	8878
##תרבות	8879
##ond	8880
קינג	8881
הרגיל	8882
הרגיש	8883
##ics	8884
לפעילות	8885
##בחרו	8886
הנהג	8887
תכשי	8888
הסרטן	8889
טענות	8890
onl	8891
דורשת	8892
האשראי	8893
67	8894
met	8895
דרו	8896
מפק	8897
נכת	8898
נרד	8899
תורה	8900
##עורים	8901
##ֹא	8902
##uc	8903
##xt	8904
היוו	8905
##ובלת	8906
במבט	8907
במדיניות	8908
החשיבות	8909
העש	8910
למים	8911
למשרד	8912
שהס	8913
לעת	8914
הקיר	8915
הפול	8916
הפיצ	8917
ההד	8918
בתמורה	8919
##בונים	8920
הדמות	8921
עצמן	8922
לתע	8923
השיווק	8924
ממשלות	8925
יעד	8926
תעשי	8927
אורחים	8928
במוח	8929
##בולוציה	8930
##גוריות	8931
האישיות	8932
דתית	8933
מחויבות	8934
מיידית	8935
באפשרותך	8936
אזהרה	8937
שלישית	8938
52	8939
ילי	8940
##נז	8941
כללים	8942
משמשים	8943
לעסוק	8944
מתוח	8945
הפח	8946
בשילוב	8947
ליח	8948
##רגו	8949
הכנסות	8950
אלג	8951
הנמו	8952
כמוך	8953
לגברים	8954
פרקים	8955
מגלים	8956
לכבוד	8957
אינכם	8958
המקומיים	8959
##פויות	8960
האיכות	8961
אהוב	8962
בנפרד	8963
בנסיבות	8964
##בטיה	8965
הסכום	8966
שוקולד	8967
המלאה	8968
פוגע	8969
שהגיעו	8970
הסתיימה	8971
באחריות	8972
ולפעמים	8973
אַ	8974
חוף	8975
מוא	8976
נמנע	8977
##זג	8978
##זול	8979
לאזרח	8980
אונס	8981
התור	8982
התודעה	8983
##ועץ	8984
לעזרה	8985
הפצ	8986
בימינו	8987
בהש	8988
##יפו	8989
לקידום	8990
סיני	8991
סימני	8992
בפג	8993
שעשה	8994
##שלכות	8995
להפיק	8996
הסיני	8997
נאמנות	8998
כהן	8999
מידת	9000
1948	9001
##נחלים	9002
המשיכו	9003
הקולנוע	9004
בעצמם	9005
קובץ	9006
מהחיים	9007
הכדורגל	9008
האקדמיה	9009
מצחיק	9010
האלקטרוני	9011
right	9012
sw	9013
בלא	9014
נדי	9015
נרח	9016
נוטה	9017
סבתא	9018
פוס	9019
רט	9020
##כית	9021
##כחו	9022
##ma	9023
##gh	9024
להיו	9025
באותם	9026
כלכליים	9027
העשרים	9028
מאלה	9029
##יקף	9030
הסופי	9031
##דרש	9032
אלן	9033
ואן	9034
שיט	9035
נשמ	9036
חייך	9037
לרמה	9038
##פלציה	9039
קורסים	9040
פנימית	9041
מוזמנים	9042
טרנס	9043
תכניות	9044
star	9045
קושי	9046
מלחמות	9047
המועדון	9048
נשארו	9049
זיהוי	9050
נישואים	9051
מלווה	9052
עריכת	9053
דוקטור	9054
51	9055
ll	9056
דמו	9057
דצמבר	9058
לרו	9059
ריב	9060
##נוג	9061
המיקום	9062
היקף	9063
אחות	9064
החליטה	9065
אימה	9066
למדו	9067
בעונה	9068
כיסוי	9069
מעצב	9070
לשבור	9071
בהיר	9072
מיום	9073
הדוקט	9074
בגדה	9075
במוזיאון	9076
עקבו	9077
טענה	9078
הצדק	9079
מנהיגי	9080
היצירה	9081
ויליאם	9082
הפיזי	9083
אעשה	9084
בסכנה	9085
watch	9086
אפריל	9087
לכולנו	9088
ציט	9089
רופ	9090
תום	9091
המוט	9092
להרים	9093
הארגונים	9094
משלם	9095
הקוס	9096
בשו	9097
ביץ	9098
מיועד	9099
לבכות	9100
והכל	9101
מבקר	9102
בסעיף	9103
##ינון	9104
בפור	9105
בכיתה	9106
רגשית	9107
התייש	9108
התחלה	9109
הגרמנית	9110
חתולים	9111
הסתכל	9112
קדוש	9113
אסטרטגיות	9114
יציבות	9115
החמישי	9116
שוטרים	9117
%.	9118
גולד	9119
יציב	9120
כרגיל	9121
לרח	9122
מיע	9123
##טרים	9124
##רתי	9125
מהמש	9126
##וצאת	9127
מאוניברסיטת	9128
##להבות	9129
הסופית	9130
הקיימים	9131
##משכת	9132
מקומית	9133
אמן	9134
ואכן	9135
אזורי	9136
עדכון	9137
לנוע	9138
השיב	9139
##פורד	9140
מרצ	9141
הסיכוי	9142
האינס	9143
תשעה	9144
מועמד	9145
להשגת	9146
הנהר	9147
פוליטיקה	9148
המודל	9149
להרשות	9150
חתול	9151
טכנולוגיית	9152
האתגר	9153
americ	9154
המפגש	9155
53	9156
ce	9157
hiv	9158
דעה	9159
דומות	9160
דגל	9161
מרה	9162
נשר	9163
סך	9164
סור	9165
פנו	9166
צופה	9167
רוט	9168
##כנון	9169
##ect	9170
##פוץ	9171
##קח	9172
##נום	9173
להשיב	9174
האולי	9175
##ואידים	9176
השער	9177
משלוח	9178
לעסקים	9179
כישלון	9180
הקיים	9181
מעריך	9182
הגא	9183
##מיון	9184
אמין	9185
הכותרת	9186
בחנות	9187
אפריק	9188
לגדל	9189
##פקוד	9190
לרצ	9191
לרופא	9192
המתנה	9193
רצתה	9194
הוריו	9195
יורד	9196
קולומ	9197
ניסיונות	9198
אמריקאית	9199
לעצמה	9200
בידיים	9201
פלסטיני	9202
שנעשה	9203
ובעיקר	9204
חמורה	9205
דמוקרטית	9206
דייוו	9207
הגבולות	9208
מתכוונים	9209
המצלמה	9210
fa	9211
ke	9212
אבוד	9213
אבק	9214
גאים	9215
עַ	9216
שווים	9217
תות	9218
##בקות	9219
##גרי	9220
##יליים	9221
החזון	9222
התאים	9223
##רוכות	9224
בשב	9225
ביצע	9226
##רכן	9227
הטעם	9228
פרשת	9229
נער	9230
##פלגה	9231
רשאי	9232
הפסקה	9233
מיליאר	9234
בודדים	9235
ההבדלים	9236
אסטרטגיה	9237
מצביעים	9238
human	9239
mi	9240
גרו	9241
ורי	9242
טס	9243
לוס	9244
מִ	9245
קשיים	9246
##טול	9247
##אזל	9248
שלפני	9249
לאשר	9250
לאישה	9251
##ומני	9252
התנהג	9253
העביר	9254
השופט	9255
##יימה	9256
הסיפורים	9257
מעשים	9258
##רגשות	9259
לחצו	9260
הנביא	9261
##שתמש	9262
הביאו	9263
להגשים	9264
נפל	9265
החלומות	9266
בהתבסס	9267
גורמי	9268
ההתפתחות	9269
בראיון	9270
לטייל	9271
הקשור	9272
הרעיונות	9273
מבקשת	9274
החקירה	9275
ass	9276
מפחיד	9277
אלכסנדר	9278
טיימס	9279
gre	9280
ia	9281
זילנד	9282
טום	9283
יכל	9284
יכם	9285
כף	9286
מנט	9287
עוסק	9288
קלות	9289
רות	9290
ששת	9291
##בוא	9292
##גלות	9293
##אטה	9294
##שׁ	9295
##שמו	9296
מהות	9297
##ידקים	9298
השגר	9299
##טינית	9300
הקסם	9301
הבקשה	9302
לחדש	9303
מקסיקו	9304
לבנון	9305
יהן	9306
לסוג	9307
שעון	9308
תקבל	9309
ידעה	9310
המעור	9311
##יכוח	9312
התערוכה	9313
מוסד	9314
פלור	9315
ידענו	9316
מופר	9317
עמדות	9318
בנא	9319
אזרחות	9320
תפילה	9321
##וניברסיטאות	9322
1945	9323
משקאות	9324
עוזרים	9325
פגישה	9326
ארבעים	9327
הקשורות	9328
ופיתוח	9329
מסעדות	9330
ינואר	9331
play	9332
במצבים	9333
ציפורים	9334
יגיעו	9335
המותג	9336
הפסיכולוג	9337
gen	9338
sch	9339
tag	9340
אריק	9341
גמ	9342
ויע	9343
ויז	9344
חצ	9345
חשים	9346
טיע	9347
מכונה	9348
שים	9349
##לס	9350
##??	9351
החולה	9352
התובע	9353
משטר	9354
##דרגות	9355
לשתי	9356
בהע	9357
ברוח	9358
לגעת	9359
שעושה	9360
מזכ	9361
כולן	9362
יצטרכו	9363
העירייה	9364
הודעת	9365
##ash	9366
עיראק	9367
קהילת	9368
פלסטינית	9369
המושלם	9370
חכמה	9371
נציגי	9372
הצפוני	9373
##ואליציה	9374
הצרפתית	9375
פרנסיסקו	9376
אלטרנטי	9377
זרה	9378
זיכרונות	9379
כפול	9380
פיי	9381
שכול	9382
שראיתי	9383
##הה	9384
האנג	9385
האבטחה	9386
אחרונה	9387
באפריקה	9388
למדינות	9389
משו	9390
משטרת	9391
##לאם	9392
הקוב	9393
לשום	9394
מחכים	9395
לחודש	9396
אמנים	9397
פעילה	9398
לדרוש	9399
##יצונית	9400
##ינתי	9401
##וכלוסייה	9402
נערה	9403
180	9404
נסיעות	9405
תגיות	9406
ושם	9407
##ame	9408
זקוקה	9409
תנועות	9410
מעורר	9411
הרפוא	9412
המוסיקה	9413
מחפשת	9414
אסטרטגי	9415
כריסטי	9416
באהבה	9417
מנגנון	9418
לממשלה	9419
ייקח	9420
שתוכלו	9421
הצטרפו	9422
משלהם	9423
sky	9424
na	9425
ונס	9426
מרכיב	9427
נכל	9428
נטו	9429
סה	9430
סוסים	9431
עיכ	9432
פדר	9433
צול	9434
רושם	9435
##בוס	9436
##רְ	9437
##ויקטים	9438
אתי	9439
המוג	9440
##ודעת	9441
התשובות	9442
הרכ	9443
הסוד	9444
שאדם	9445
שאחרי	9446
הגבוהים	9447
לפתרון	9448
ביצים	9449
מקובל	9450
להתפתחות	9451
יצירה	9452
המסלול	9453
str	9454
מביאים	9455
1944	9456
הפסד	9457
האורחים	9458
נאלץ	9459
החיסון	9460
מתמודדים	9461
ps	9462
דיל	9463
ממי	9464
נודע	9465
ראתה	9466
##כחות	9467
##עס	9468
המורים	9469
האט	9470
התז	9471
משמע	9472
בערים	9473
הקת	9474
##יווד	9475
##ישלון	9476
אלק	9477
בחורף	9478
ואינו	9479
מדד	9480
בכבוד	9481
אנוני	9482
יחדיו	9483
הביקור	9484
אחרון	9485
יצאה	9486
מטבעות	9487
תהליכים	9488
וכש	9489
הוראה	9490
וזהו	9491
תפקידים	9492
צהריים	9493
דוגמא	9494
עוצמת	9495
מחויבים	9496
מעניינת	9497
שהעולם	9498
פוטר	9499
הסוביי	9500
לואיס	9501
58	9502
tw	9503
אֲ	9504
גיד	9505
חמו	9506
חמים	9507
ייפ	9508
לירות	9509
נסה	9510
פשי	9511
##שטיין	9512
##חז	9513
##ְר	9514
##port	9515
לאמץ	9516
##ברט	9517
##וחח	9518
אחראים	9519
אידיא	9520
השוו	9521
השבת	9522
השמיים	9523
למסקנה	9524
מסחרי	9525
כיבוש	9526
הפוך	9527
הכתיבה	9528
##סיסי	9529
בחיפוש	9530
הזכ	9531
##חתית	9532
בסמים	9533
שמשהו	9534
בקי	9535
מפעל	9536
##ניהן	9537
עונת	9538
נשמה	9539
הנוג	9540
המתים	9541
רעש	9542
בשיעור	9543
יבש	9544
לתקוף	9545
נרצ	9546
העליונה	9547
דעתו	9548
אצלי	9549
נשארים	9550
הפגישה	9551
הפנימית	9552
לארצות	9553
not	9554
אסטרו	9555
וכת	9556
חווה	9557
טים	9558
ימשיכו	9559
נסת	9560
נקראת	9561
##bc	9562
##קפות	9563
לאחת	9564
במדבר	9565
אחראית	9566
החלב	9567
השור	9568
השנתי	9569
הרוגים	9570
מאסטר	9571
מארק	9572
משתי	9573
שהדבר	9574
##ושך	9575
הקצ	9576
הקרח	9577
הקונ	9578
מעגל	9579
הגיבור	9580
מחס	9581
בהול	9582
מקלט	9583
לבדו	9584
כמוני	9585
לתוצאות	9586
להתעורר	9587
יחזור	9588
בושה	9589
מרד	9590
יצליח	9591
##ork	9592
ומתי	9593
נמצאות	9594
הסיוע	9595
תרומה	9596
שרבים	9597
מאזן	9598
איתן	9599
נכס	9600
המשפטי	9601
התוכניות	9602
ריכוז	9603
היסטורית	9604
הרצח	9605
הוכיח	9606
sci	9607
מאמצים	9608
מוקדמת	9609
68	9610
בניהול	9611
דיר	9612
וילדים	9613
כביש	9614
עמי	9615
פומ	9616
צמי	9617
המדה	9618
##ובש	9619
עלולות	9620
האול	9621
##וסיות	9622
##וסופט	9623
##יינות	9624
לעוד	9625
מתכנן	9626
הקיצוני	9627
מחובר	9628
בתה	9629
בחודשים	9630
##עתה	9631
עצה	9632
##וזיציה	9633
ארוחות	9634
נשלח	9635
##צהרה	9636
שקלים	9637
קבצים	9638
##old	9639
עשירים	9640
ניצול	9641
התגלה	9642
חמשת	9643
רצינית	9644
כותבים	9645
ובכלל	9646
המובילים	9647
המנהלים	9648
לתוכנית	9649
bu	9650
cook	9651
op	9652
אוד	9653
אקו	9654
טוני	9655
נציג	9656
סקי	9657
פנה	9658
##ךְ	9659
שלילי	9660
##ולו	9661
##נוב	9662
##נוני	9663
לארגון	9664
לאינטרנט	9665
מסל	9666
הסוציא	9667
##יפיות	9668
הנכס	9669
ואח	9670
יחידה	9671
לכבד	9672
הלכו	9673
##חינה	9674
מוכרח	9675
מוסר	9676
לנשיא	9677
חופשה	9678
עמנו	9679
##act	9680
הדרומי	9681
עיבוד	9682
דיווחים	9683
''.	9684
כוכבי	9685
הלוואה	9686
פותח	9687
acc	9688
time	9689
mus	9690
vi	9691
בודה	9692
דורות	9693
יראה	9694
יושבים	9695
לוחות	9696
מרכיבים	9697
שדות	9698
תמצא	9699
##זבת	9700
##ֶם	9701
##pn	9702
שלע	9703
המידה	9704
היקר	9705
##ואת	9706
במשהו	9707
התפש	9708
הרחק	9709
מסגרת	9710
הסבל	9711
ההרג	9712
ההוצאות	9713
##יאונים	9714
להתפתח	9715
בגוד	9716
שנכ	9717
נוסע	9718
בדף	9719
בדקו	9720
הנוגע	9721
שתע	9722
האידי	9723
הרגשה	9724
מועיל	9725
120	9726
מופיעים	9727
ste	9728
אשתי	9729
אשמה	9730
##בטא	9731
המטבח	9732
המבצע	9733
קלינטון	9734
1989	9735
הטבעית	9736
הקורס	9737
נמוכים	9738
ענקית	9739
כריס	9740
book	9741
כוונת	9742
סמי	9743
קיד	9744
המכתב	9745
להורים	9746
האוקיינוס	9747
##ומכים	9748
במידת	9749
החזק	9750
התבו	9751
העמ	9752
העלות	9753
הרביעית	9754
בעמוד	9755
לעשן	9756
שאוה	9757
הגידול	9758
מצלמות	9759
מכירת	9760
לגייס	9761
##ציית	9762
חיז	9763
##יטרה	9764
חזקות	9765
רצונו	9766
##ool	9767
נדבר	9768
##ase	9769
הדרום	9770
לברר	9771
אינטלקטוא	9772
univ	9773
החופשי	9774
ההיסטורי	9775
אורגני	9776
פסיכיא	9777
id	9778
mba	9779
red	9780
ve	9781
בוגר	9782
טועה	9783
ערבית	9784
פברואר	9785
##מיע	9786
##שנו	9787
##יתו	9788
להיח	9789
הייח	9790
##ופיל	9791
הצורה	9792
##בורת	9793
בחופ	9794
כאבי	9795
##נסית	9796
אפס	9797
מכדי	9798
ברלין	9799
ולראות	9800
בצבע	9801
הפרעות	9802
קצין	9803
187	9804
בקרבת	9805
המשפחות	9806
זקן	9807
למחוק	9808
מכונת	9809
##נאט	9810
תרגול	9811
לעזאזל	9812
האגודה	9813
דיווחו	9814
ברוכים	9815
אֶת	9816
איכשהו	9817
הפתיחה	9818
du	9819
אסי	9820
דווח	9821
עיצ	9822
שופט	9823
##טע	9824
לאותו	9825
החשיבה	9826
כלכלה	9827
##וצא	9828
למדיניות	9829
הקבלה	9830
מחלי	9831
מדור	9832
כשמדו	9833
שעליו	9834
##נקציות	9835
עוברת	9836
במהרה	9837
הפרה	9838
רגש	9839
רגליים	9840
נפוצה	9841
##גרם	9842
משפיעה	9843
תרומת	9844
##יבטים	9845
##ical	9846
לטעון	9847
ביקורות	9848
טבעת	9849
אופנה	9850
כוחו	9851
עשורים	9852
עזבו	9853
ובעלי	9854
ביצועים	9855
cont	9856
מיקרוסופט	9857
ומדוע	9858
כשיש	9859
international	9860
כשמדובר	9861
bi	9862
חולי	9863
מיר	9864
נכונים	9865
ענן	9866
ריקה	9867
##בולות	9868
##גרה	9869
##וים	9870
##ךָ	9871
##נושות	9872
##יקון	9873
בעסק	9874
בשבת	9875
לימד	9876
הדף	9877
לתרג	9878
ראויים	9879
בקו	9880
שבכל	9881
תחנות	9882
הסיכויים	9883
אדוארד	9884
##גוררים	9885
קולו	9886
מזהה	9887
פוליטיקאים	9888
באיראן	9889
הטבעת	9890
נכנסו	9891
לביטחון	9892
העלייה	9893
חיוך	9894
אוקראינה	9895
מהאנשים	9896
היעדר	9897
נוהג	9898
vis	9899
אשל	9900
ברכות	9901
נסיבות	9902
רץ	9903
##יתיות	9904
המוסר	9905
המרחק	9906
##מישה	9907
ההבנה	9908
לחינוך	9909
לחסל	9910
מייל	9911
מינים	9912
##סיבי	9913
ואלה	9914
עצות	9915
לתא	9916
סינג	9917
בקשות	9918
בונה	9919
עושר	9920
בטע	9921
בטקס	9922
הסימפטומים	9923
מודא	9924
##געגע	9925
חלון	9926
הפעלת	9927
הגרעי	9928
צהוב	9929
הבריטים	9930
עיניו	9931
מתכוונת	9932
ללימוד	9933
הרכישה	9934
ויאמר	9935
hotel	9936
www	9937
ba	9938
ברכה	9939
דרכי	9940
ויקט	9941
טעי	9942
כתיבה	9943
קירות	9944
קוט	9945
##bi	9946
##פיקה	9947
##ומטר	9948
התלמיד	9949
העכ	9950
השכר	9951
##ביאו	9952
לעובדים	9953
##טיבה	9954
בשווי	9955
הבטיח	9956
הצפון	9957
לרעה	9958
לרפואה	9959
נפגע	9960
קוראת	9961
יוצרת	9962
במערכות	9963
##olog	9964
1000	9965
תומכת	9966
הרשמית	9967
ההזמנה	9968
קנדי	9969
חזרתי	9970
הוצאת	9971
ההכרה	9972
ספציפיים	9973
בתעשיית	9974
מבחינתי	9975
ca	9976
fe	9977
ברגל	9978
בוכה	9979
דון	9980
הניהול	9981
ווד	9982
וטי	9983
נאות	9984
סבורים	9985
פטרי	9986
ציו	9987
שורה	9988
##נור	9989
##ta	9990
##פנו	9991
##ניתי	9992
להשו	9993
באוסטרליה	9994
החיבור	9995
החזיק	9996
##ועדים	9997
למניעת	9998
שהה	9999
שהוב	10000
מתמשך	10001
הקמפיין	10002
הפלי	10003
בשאלה	10004
יהפוך	10005
ממקום	10006
##ינויים	10007
בקלי	10008
הכללים	10009
ותמיד	10010
המתח	10011
אדריכל	10012
הופיעו	10013
מושפ	10014
##ster	10015
מורכבות	10016
במוע	10017
אוכלוסיית	10018
בפרויקט	10019
לוקחת	10020
מנוחה	10021
בזהירות	10022
תרבותית	10023
התפילה	10024
קבועה	10025
לקהילה	10026
טכניקות	10027
להשוות	10028
גוד	10029
גרה	10030
וור	10031
וייט	10032
זמ	10033
יני	10034
כתיבת	10035
לנד	10036
שטר	10037
##צתי	10038
##ציונ	10039
##קדם	10040
##זן	10041
המתי	10042
להיא	10043
זהירות	10044
##ועי	10045
מאנשים	10046
"...	10047
מכסה	10048
##יסא	10049
ולעתים	10050
לצחוק	10051
התקפות	10052
התקווה	10053
מועמדים	10054
עמדו	10055
הגרסה	10056
יסודות	10057
1979	10058
חשיפה	10059
מיוחדות	10060
שותפות	10061
להקמת	10062
השרירים	10063
צרפתית	10064
בעיניים	10065
השכרת	10066
מפחדים	10067
מסתכלים	10068
פלסטיק	10069
הכספים	10070
הסוכנות	10071
בשמחה	10072
univers	10073
???	10074
don	10075
tri	10076
דבש	10077
טרג	10078
יפס	10079
ימשיך	10080
נוף	10081
רמי	10082
רפור	10083
##לג	10084
##מאי	10085
##טוס	10086
לאל	10087
לאמנות	10088
באוט	10089
למכ	10090
##יקאי	10091
הבחור	10092
מישהי	10093
בחש	10094
כאבים	10095
##בעון	10096
##מציא	10097
מבוק	10098
שמור	10099
המשמש	10100
בצה	10101
נעשו	10102
יצורים	10103
##ank	10104
הפרט	10105
בדירה	10106
כתבו	10107
185	10108
מוסרית	10109
נאבק	10110
במחנה	10111
##רדן	10112
פורד	10113
##חלתי	10114
המיוחד	10115
##וגרפי	10116
הישג	10117
התכנון	10118
להירגע	10119
פיקוח	10120
אוטומטית	10121
ירדן	10122
שיפוט	10123
האפיפיור	10124
קמפיין	10125
##מיקלים	10126
הטענה	10127
להתפלל	10128
אידיאלי	10129
לפלסטינים	10130
.[	10131
ec	10132
pol	10133
אִ	10134
הוות	10135
עישון	10136
תושב	10137
##נדו	10138
להפר	10139
##יליז	10140
האזורים	10141
##שימים	10142
איסוף	10143
איגוד	10144
השכלה	10145
הסח	10146
הבדלים	10147
הבגדים	10148
בחצי	10149
ואומר	10150
שמטר	10151
המשאבים	10152
בפארק	10153
##ארד	10154
מטרי	10155
##ולוגים	10156
האיזון	10157
היחס	10158
מנהלי	10159
מנהלת	10160
##ous	10161
חודשיים	10162
להכיל	10163
המכירה	10164
הגרעין	10165
מוטיבציה	10166
בתוכו	10167
בנקודה	10168
שנוצר	10169
חיוביות	10170
ברשתות	10171
מודרנית	10172
ולבסוף	10173
המשותפת	10174
דלתות	10175
שופטים	10176
האסטרטגיה	10177
##שתתפות	10178
השוטרים	10179
cre	10180
אָ	10181
דגי	10182
נשוי	10183
קם	10184
שדי	10185
תמונת	10186
##דא	10187
##גוריה	10188
##ys	10189
##פיד	10190
##ment	10191
שלילית	10192
##יתכן	10193
לאמ	10194
לאמת	10195
##ריס	10196
##דיון	10197
במרחב	10198
##ידס	10199
כלשה	10200
מאפיינים	10201
משטח	10202
משטרה	10203
שהב	10204
לפחד	10205
אמצע	10206
והי	10207
הטקסט	10208
בקשת	10209
קרל	10210
בטור	10211
לרע	10212
להפסיד	10213
דיבור	10214
תוכנות	10215
התחבורה	10216
המאמן	10217
גורל	10218
1988	10219
1986	10220
מותא	10221
קהילות	10222
מצאנו	10223
ראויה	10224
מהעולם	10225
צרפתי	10226
בלעדי	10227
##פתחויות	10228
ולתת	10229
המוכר	10230
סטודנט	10231
התחלנו	10232
נעימה	10233
מתנדבים	10234
בחייהם	10235
לנגן	10236
השופטים	10237
!”	10238
aut	10239
אֵ	10240
אֱ	10241
בלה	10242
בנט	10243
בירת	10244
יגרום	10245
כותרת	10246
סרטי	10247
פאלון	10248
תכונה	10249
##משה	10250
##ts	10251
##ix	10252
מהפכה	10253
במילה	10254
השמות	10255
##פרו	10256
לעסק	10257
הפועל	10258
בתו	10259
הכירו	10260
הכריז	10261
הנש	10262
מצליחה	10263
שמג	10264
סיב	10265
הזהות	10266
אנושיים	10267
תחומים	10268
אדיר	10269
האירופית	10270
הקרן	10271
קולק	10272
הטיפ	10273
תפיסה	10274
##ign	10275
הסכנה	10276
ציבוריים	10277
זכוכית	10278
משתמשת	10279
לרכב	10280
כותבת	10281
your	10282
משרות	10283
משרדי	10284
בתעשייה	10285
יועץ	10286
למשתמשים	10287
age	10288
ur	10289
בונים	10290
נדה	10291
ניח	10292
שרו	10293
##מחים	10294
##פאה	10295
##נין	10296
המרחב	10297
היצר	10298
##מונית	10299
מהמח	10300
השעות	10301
מספרי	10302
##מימות	10303
לשכור	10304
ביני	10305
בתחרות	10306
הכרת	10307
לקור	10308
ואנשי	10309
מבפנים	10310
בסוג	10311
המשקל	10312
מפס	10313
חדרי	10314
בכוונה	10315
ולס	10316
##לטו	10317
בטעות	10318
מטור	10319
במשפט	10320
משפיעים	10321
דיברתי	10322
הופיעה	10323
##קטיקה	10324
##קיף	10325
פרוי	10326
מרחוק	10327
ימינו	10328
חגיג	10329
הלוואות	10330
עיתון	10331
##iew	10332
בוושינגטון	10333
הספציפ	10334
שעשיתי	10335
56	10336
72	10337
88	10338
min	10339
בילדים	10340
גופים	10341
פונה	10342
צומ	10343
##מולה	10344
##סמה	10345
##ניקה	10346
##ירויות	10347
איסור	10348
מתקר	10349
הבש	10350
הבטן	10351
ביניהן	10352
הדלק	10353
##מצום	10354
##קרון	10355
כמויות	10356
זוה	10357
הראשית	10358
שעתיים	10359
להגביל	10360
הפרעה	10361
ביתו	10362
המסמכים	10363
רציונ	10364
פלשתי	10365
מורכבים	10366
במונחים	10367
המהירות	10368
נועדו	10369
שיקול	10370
לבעיה	10371
נוגע	10372
להיעשות	10373
מתקדמת	10374
התייחסות	10375
לזרוק	10376
מייסד	10377
הממלכה	10378
דייוויד	10379
69	10380
pay	10381
גיי	10382
יוג	10383
עמיד	10384
קצה	10385
##ננה	10386
##דאי	10387
##ָׁ	10388
היין	10389
##ופרת	10390
##שיפה	10391
החיה	10392
התכונות	10393
##יקן	10394
שהפך	10395
לעית	10396
הסתיים	10397
ישות	10398
הנאה	10399
מצוות	10400
##נטיקה	10401
שמתי	10402
שנמצאים	10403
תקופות	10404
##iness	10405
רגיש	10406
לכלא	10407
האמין	10408
בדק	10409
המאמץ	10410
נאמן	10411
יורו	10412
להסכים	10413
טענו	10414
ונראה	10415
מונע	10416
##ult	10417
המופע	10418
לקהל	10419
מסובך	10420
האווירה	10421
cor	10422
ht	10423
pal	10424
דמעות	10425
דגש	10426
זמינות	10427
טופס	10428
יביא	10429
כוונות	10430
לכו	10431
נובע	10432
סופי	10433
קץ	10434
קפד	10435
שוד	10436
תורת	10437
##נלי	10438
##לר	10439
##ָם	10440
הממוק	10441
האוסטר	10442
##יהום	10443
##שיבים	10444
איומים	10445
הקשרים	10446
##נתם	10447
ההיש	10448
מקוון	10449
מיכ	10450
אמצעים	10451
מצווה	10452
לתמיכה	10453
לוואי	10454
##וטיקה	10455
ראית	10456
כשזה	10457
בפולין	10458
בבסיס	10459
קרובה	10460
לצלם	10461
נשל	10462
נערך	10463
##ance	10464
רגוע	10465
##end	10466
תעשו	10467
התעור	10468
תשוקה	10469
מוגדר	10470
התאבדות	10471
נורו	10472
כשאנו	10473
להקדיש	10474
לביקור	10475
דעתך	10476
משותפים	10477
בעצמכם	10478
what	10479
mark	10480
מלכתחילה	10481
78	10482
hy	10483
ms	10484
ni	10485
בנג	10486
זרות	10487
יוגה	10488
נראו	10489
עוסקים	10490
צרכ	10491
קנו	10492
קטי	10493
שליליות	10494
המרכיבים	10495
להמתין	10496
##כלת	10497
אחסון	10498
העברה	10499
##וגו	10500
מסמ	10501
מחנה	10502
הנמוך	10503
הדרישות	10504
##נטו	10505
ידידי	10506
##לבש	10507
לסוף	10508
נשכח	10509
נוסדה	10510
נעלמו	10511
מרע	10512
מרשים	10513
לרקוד	10514
גרמה	10515
הסינים	10516
פשוטות	10517
מורשת	10518
בברכה	10519
לצייר	10520
לדין	10521
##פדפן	10522
סירב	10523
אוספים	10524
המנהיגים	10525
אוסטריה	10526
af	10527
ss	10528
way	10529
גרים	10530
וכולם	10531
חקר	10532
##נאם	10533
##פין	10534
להבהיר	10535
התרחש	10536
התביעה	10537
הערכת	10538
מאותו	10539
שהיינו	10540
הקבוע	10541
ההליך	10542
ההשלכות	10543
לשאלות	10544
בחברות	10545
מצפון	10546
בסט	10547
להתכונן	10548
מדיה	10549
לסביבה	10550
מרוח	10551
##ang	10552
קטע	10553
ומספר	10554
האיום	10555
##יסטן	10556
במחוז	10557
stre	10558
בעיראק	10559
זרע	10560
הרפובליק	10561
##נדרטים	10562
לסיום	10563
חיוניים	10564
הומני	10565
נוצרו	10566
אופטימי	10567
מסוכנת	10568
חיצוניים	10569
סוציאלי	10570
האפשרי	10571
סיגריות	10572
);	10573
57	10574
are	10575
har	10576
נטל	10577
נמאס	10578
צינ	10579
##כזב	10580
##דרי	10581
##בירות	10582
##מרות	10583
##ty	10584
##סדות	10585
##ֹה	10586
שלט	10587
##יתן	10588
##ילך	10589
##יהוי	10590
במלון	10591
##וקול	10592
העמו	10593
השגת	10594
##וסקת	10595
##בלבל	10596
שהמש	10597
לשדר	10598
ביכולת	10599
אמזון	10600
בתרבות	10601
מציגה	10602
פעולת	10603
פרד	10604
מגיל	10605
בקצה	10606
חבריו	10607
ארוחה	10608
לכסות	10609
##סטוס	10610
יעילים	10611
נחזור	10612
קורבן	10613
חשד	10614
##צרית	10615
הריבית	10616
היחידים	10617
##יזכר	10618
בשבילכם	10619
##iss	10620
הקרובות	10621
##סטרול	10622
קיבלנו	10623
לפרק	10624
חתונה	10625
!".	10626
נועדה	10627
צבאיים	10628
לוחמים	10629
next	10630
אוניברסיטאות	10631
שיוכלו	10632
החקלאות	10633
park	10634
הנדרש	10635
ומאז	10636
האסלאם	10637
מחוברים	10638
חמצן	10639
הסכימו	10640
business	10641
nba	10642
ul	10643
גרג	10644
וניהול	10645
וַי	10646
ייה	10647
פגיע	10648
’.	10649
##מלא	10650
##יין	10651
##צנו	10652
##זמה	10653
שלמים	10654
המכוניות	10655
##ודוק	10656
##ילא	10657
הרדיו	10658
##בישים	10659
מאוה	10660
הפשו	10661
שאומרים	10662
מחלוקת	10663
##רכב	10664
##טרית	10665
לחימה	10666
מקומיות	10667
מיס	10668
בחזית	10669
פעילי	10670
מגבלות	10671
בגובה	10672
שנר	10673
מטוסי	10674
לרפא	10675
##ולוגיים	10676
בזמנו	10677
שתת	10678
inst	10679
תעודת	10680
תאמינו	10681
##כנולוגיות	10682
לנשיאות	10683
ביקום	10684
הבעל	10685
קריאת	10686
##נטינה	10687
תפוח	10688
מונט	10689
comp	10690
הצעדים	10691
אוטובוס	10692
מונח	10693
שטחים	10694
חווית	10695
מכתבים	10696
הפתעה	10697
התחתונה	10698
לארוחת	10699
בהקדם	10700
המזרחי	10701
נולדו	10702
מתוכם	10703
ההערכה	10704
ההשקעות	10705
ההוראה	10706
41	10707
62	10708
77	10709
cy	10710
get	10711
ho	10712
her	10713
nor	10714
ונת	10715
יופ	10716
יכלה	10717
סטיב	10718
ערכי	10719
תמצ	10720
תכלית	10721
##מכות	10722
##חיים	10723
האמינו	10724
##ליא	10725
התופעה	10726
הרמ	10727
##בייש	10728
מאור	10729
שהרי	10730
מתוא	10731
מסוד	10732
הסקר	10733
הסגנון	10734
שאוכל	10735
הגשר	10736
הגדרות	10737
ההק	10738
ההסת	10739
מצאה	10740
##וזרים	10741
ברומא	10742
סימ	10743
בקור	10744
שנשא	10745
שעברו	10746
שעושים	10747
תחשוב	10748
האמון	10749
ומכ	10750
inc	10751
התיק	10752
לטוס	10753
פתא	10754
במיטה	10755
אשם	10756
העובד	10757
מייצרים	10758
עשור	10759
עשירה	10760
תלויים	10761
העסקית	10762
1980	10763
1985	10764
להתקשר	10765
להתקין	10766
תרבותי	10767
שייכים	10768
בייחוד	10769
הכתבה	10770
מקרוב	10771
הביקורת	10772
ממלכת	10773
שוחרר	10774
הניצחון	10775
הראייה	10776
pc	10777
so	10778
בנת	10779
בפת	10780
טכנית	10781
נבה	10782
נופל	10783
סלי	10784
סיים	10785
פטר	10786
##ear	10787
##bs	10788
##גלו	10789
##אפשר	10790
##חח	10791
##ֶה	10792
שלמד	10793
הימין	10794
היכולות	10795
האשה	10796
מהנה	10797
באדם	10798
התקר	10799
##וסקס	10800
##וגת	10801
ליפול	10802
היהדות	10803
הצגת	10804
הצרכנים	10805
לדווח	10806
מפתי	10807
הכלכל	10808
הביאה	10809
תקף	10810
יצטרך	10811
##יטב	10812
אליזבת	10813
תרצו	10814
מודאג	10815
שחורים	10816
טיפש	10817
להעמיד	10818
תגובת	10819
עסקאות	10820
קיימא	10821
אוכלוסייה	10822
שיעורים	10823
לייצור	10824
הגרוע	10825
בברלין	10826
מונו	10827
שואלת	10828
היתרון	10829
העתיק	10830
העיקרון	10831
כפולה	10832
לתחום	10833
לניו	10834
נוהגים	10835
מסורתי	10836
עותקים	10837
online	10838
est	10839
je	10840
oc	10841
um	10842
אבר	10843
חלונות	10844
ינ	10845
מולי	10846
נמר	10847
סיו	10848
שירה	10849
##כניות	10850
##גתי	10851
##פיס	10852
##קיים	10853
##קעות	10854
##ַע	10855
במכונית	10856
באלוהים	10857
שהז	10858
שהוצ	10859
##נתא	10860
ההפ	10861
מחברת	10862
בהודעה	10863
מקדש	10864
בתום	10865
בתשלום	10866
אלים	10867
בחמש	10868
ברורים	10869
להתלונן	10870
בקנדה	10871
מפרי	10872
שנח	10873
נשבע	10874
אינטי	10875
ניתנה	10876
לרשום	10877
הלמידה	10878
##יטור	10879
קיומו	10880
שכדאי	10881
נחל	10882
שרשרת	10883
מוכרת	10884
##row	10885
##ise	10886
מתקיים	10887
המטופלים	10888
מייצר	10889
פרוט	10890
הקטנות	10891
עבודתם	10892
עוזרת	10893
מדעית	10894
זכאי	10895
end	10896
העצבים	10897
התחתון	10898
המקצועי	10899
החתול	10900
השתתפו	10901
מבחוץ	10902
תמיכת	10903
ומאפשר	10904
הסוכר	10905
בציבור	10906
ver	10907
val	10908
הוט	10909
חורף	10910
רבע	10911
שזאת	10912
##בב	10913
##רוג	10914
##פלת	10915
##וטי	10916
##חף	10917
המית	10918
המפעל	10919
להקת	10920
האיג	10921
האוה	10922
החנות	10923
אימונים	10924
##ידור	10925
מסח	10926
##לוכה	10927
הגדר	10928
לינק	10929
מחייב	10930
הדגל	10931
##וינות	10932
מכילה	10933
ברשימת	10934
מגדיר	10935
ממדינות	10936
##וננו	10937
ולכל	10938
אמרנו	10939
##שבתי	10940
##ange	10941
תהפוך	10942
המסור	10943
ומק	10944
תרצה	10945
הניסוי	10946
הליגה	10947
לשינויים	10948
המשפטים	10949
להסכם	10950
מטרתו	10951
אמריקני	10952
זרם	10953
חמישים	10954
משאבי	10955
סיפורי	10956
סקירה	10957
מפורט	10958
הדמוקרטית	10959
סופרים	10960
סעודיה	10961
להטיל	10962
61	10963
bit	10964
hd	10965
pa	10966
גרא	10967
ללו	10968
לירושלים	10969
מרים	10970
ניר	10971
##זקים	10972
##זוקה	10973
האף	10974
האומות	10975
##ומבי	10976
מהגרים	10977
אוצר	10978
התברר	10979
השרי	10980
##ועדה	10981
לעומק	10982
מתברר	10983
בשלוש	10984
הגן	10985
הגדה	10986
הבשר	10987
מקיף	10988
בתל	10989
בתכנית	10990
##מצה	10991
והכי	10992
מכילים	10993
בסביבת	10994
עדויות	10995
לדחות	10996
....	10997
תקדים	10998
מטפלים	10999
נפשית	11000
המסמך	11001
התערבות	11002
מוסק	11003
המאמצים	11004
הדיבור	11005
תשכחו	11006
ניידים	11007
תגיע	11008
אבטחת	11009
ביקשו	11010
למשפחות	11011
##ower	11012
המועמדים	11013
תצטרכו	11014
מכוון	11015
המוסד	11016
אוטובוסים	11017
בנקים	11018
העיקריות	11019
התפיסה	11020
נחשבים	11021
פרופיל	11022
העיירה	11023
עיתונאי	11024
העברית	11025
העיתונות	11026
טלפונים	11027
למקומות	11028
לחתום	11029
בטרור	11030
המומחים	11031
מבטיחים	11032
התשוקה	11033
עיוור	11034
גמישות	11035
בעיתון	11036
נטייה	11037
##יליזציה	11038
ir	11039
if	11040
אבד	11041
מרווי	11042
נבר	11043
נדל	11044
סנ	11045
ציר	11046
צרות	11047
ציפור	11048
##קולות	11049
##שומת	11050
##נונים	11051
להמשך	11052
לאלו	11053
##ובלים	11054
האכ	11055
##ומרי	11056
מהצד	11057
החום	11058
העונש	11059
השורה	11060
הרוסים	11061
##ביק	11062
שהוש	11063
מתקרב	11064
הסיי	11065
הקצר	11066
ההפע	11067
מיז	11068
לבטא	11069
##יפדיה	11070
מצלמה	11071
##בתו	11072
##ארית	11073
בבדי	11074
מזע	11075
אינטרס	11076
בנוח	11077
נגדו	11078
האחורי	11079
רגישות	11080
##ark	11081
המערכות	11082
בדוק	11083
שכאשר	11084
##lect	11085
##ouse	11086
במחצית	11087
הפעלה	11088
נדירות	11089
גיליתי	11090
המכש	11091
זוכים	11092
קשורות	11093
כדורסל	11094
1984	11095
אכילה	11096
יאנג	11097
דרמטי	11098
אצבע	11099
ניקול	11100
מינימום	11101
רצינו	11102
סייבר	11103
הצהרת	11104
arch	11105
החלקים	11106
עבדה	11107
מאושרת	11108
ארכיא	11109
האסלאמית	11110
מבטיחה	11111
ביעילות	11112
ההפעלה	11113
54	11114
74	11115
cd	11116
ga	11117
national	11118
אגר	11119
אצבעות	11120
דונלד	11121
חלה	11122
קפטן	11123
שניה	11124
תוח	11125
תביעות	11126
##דברים	11127
##hn	11128
##פגש	11129
##זוב	11130
המוביל	11131
להוות	11132
לארגן	11133
##ריב	11134
##ליטת	11135
##וקיו	11136
הרבי	11137
מתר	11138
הספרייה	11139
בשירותים	11140
הבנים	11141
הכנס	11142
##בוץ	11143
שיס	11144
##מצאות	11145
פעל	11146
בסמוך	11147
לתה	11148
מגוח	11149
סיור	11150
בוודאות	11151
קרדי	11152
מזיקים	11153
מוצלחת	11154
אסד	11155
ומג	11156
באמצעים	11157
תער	11158
חודשי	11159
נכשל	11160
##מאלי	11161
הניס	11162
ושני	11163
##טויים	11164
ככלל	11165
נראתה	11166
איכותי	11167
ההגדרה	11168
הישנה	11169
הפוליטיים	11170
המדריך	11171
תבוא	11172
רווחים	11173
ראשוני	11174
הקונס	11175
מסוכנים	11176
ביצירת	11177
מגניב	11178
ber	11179
iv	11180
יִ	11181
ייא	11182
יפות	11183
מנצח	11184
סמו	11185
ערכ	11186
פירו	11187
קפי	11188
קולה	11189
רס	11190
שורות	11191
שירת	11192
##tle	11193
##חיש	11194
להודיע	11195
האוס	11196
החוזה	11197
כלא	11198
למנהיג	11199
מאל	11200
בעיצוב	11201
##טינק	11202
הפחות	11203
בהז	11204
##וונתי	11205
בתוקף	11206
בחק	11207
הנבח	11208
##רתור	11209
##מצעי	11210
יהודיים	11211
הטרי	11212
בכלי	11213
בכמות	11214
לנוח	11215
##מעלה	11216
המקסי	11217
נעשית	11218
##וריית	11219
הסימנים	11220
שרירים	11221
רובי	11222
טיפוס	11223
בסיום	11224
מלמדים	11225
מוגבלות	11226
פוליטיות	11227
סרטון	11228
הדרומית	11229
1987	11230
1969	11231
העצמית	11232
נצטרך	11233
##מליץ	11234
תרגיל	11235
הקוראים	11236
מפלגה	11237
##oci	11238
מסעדה	11239
הציוד	11240
אקדמי	11241
ציפיות	11242
נפגשים	11243
פחמן	11244
מחזיקים	11245
##ube	11246
וברא	11247
דרישה	11248
ולמרות	11249
תשלומים	11250
וניתן	11251
שלעולם	11252
bar	11253
dna	11254
mp	11255
וצ	11256
ודי	11257
מיותר	11258
פגע	11259
קצי	11260
תרכ	11261
תוהה	11262
##שבות	11263
##שטות	11264
##ניסטן	11265
המינים	11266
לאנשי	11267
האביב	11268
מהרה	11269
אוטונו	11270
העצים	11271
הרקע	11272
למכירה	11273
מתפל	11274
הקפיט	11275
מעוצ	11276
##נתית	11277
##וכב	11278
בהיקף	11279
מישראל	11280
הכנה	11281
בחצר	11282
בחיינו	11283
מצביע	11284
##מצב	11285
מכני	11286
##פקים	11287
שעשית	11288
##מעשה	11289
תקיפה	11290
##נדבות	11291
מרוב	11292
תחשבו	11293
יער	11294
אליס	11295
נהרס	11296
אדומים	11297
לפעולה	11298
הנייד	11299
ניסתה	11300
המהיר	11301
העסקי	11302
בדרכו	11303
1973	11304
מתחילת	11305
הצעירה	11306
אליהן	11307
יצירתיות	11308
להירשם	11309
הוסיפה	11310
ישראליים	11311
להדגיש	11312
טהור	11313
הירוק	11314
from	11315
ריפוי	11316
-"	11317
אסת	11318
אטל	11319
בוגרים	11320
גמר	11321
ישיבה	11322
מריה	11323
ספו	11324
קבלה	11325
##נדים	11326
##שְׁ	11327
##ֶר	11328
היחי	11329
החס	11330
העות	11331
העקרונות	11332
הרלוו	11333
##וסין	11334
למר	11335
שהר	11336
##לוף	11337
לשחזר	11338
הצבעים	11339
מיט	11340
לבזבז	11341
ואחרים	11342
הזמנה	11343
##בוז	11344
הדגיש	11345
##יסים	11346
##יסטי	11347
להתר	11348
להתנגד	11349
להתחתן	11350
מדוכ	11351
מפעם	11352
בכסף	11353
לצוות	11354
מזמינים	11355
יצור	11356
התחום	11357
אורן	11358
מושך	11359
חסד	11360
להשמיד	11361
נותרה	11362
בתיא	11363
מנע	11364
תלונות	11365
המודיעין	11366
להאשים	11367
ההגירה	11368
יישומים	11369
החיוב	11370
מפורסם	11371
חיסון	11372
מתרגלים	11373
החמישית	11374
##מפריאלי	11375
הנדרשים	11376
הפיננסי	11377
פוטנציאליים	11378
תכשיטים	11379
היחידי	11380
vpn	11381
בדו	11382
גג	11383
חמה	11384
נוחה	11385
פונים	11386
קעק	11387
רוג	11388
##בלי	11389
##פטים	11390
##ov	11391
המנוע	11392
להפיץ	11393
האמן	11394
האבולוציה	11395
##רישה	11396
בממשלה	11397
באנרגיה	11398
משפר	11399
שהול	11400
שהכי	11401
מתלו	11402
מתכת	11403
מסייע	11404
הסכים	11405
הפער	11406
בשעת	11407
בשורה	11408
מעשית	11409
הגשת	11410
הנשימה	11411
ואיפה	11412
אפקט	11413
מכוונת	11414
עצר	11415
הטל	11416
פרעה	11417
ראיתם	11418
מדיטציה	11419
לסדר	11420
מפעיל	11421
בכוחות	11422
וליה	11423
לצרכים	11424
אינדיא	11425
ניתנים	11426
אלהים	11427
##נדסה	11428
##פורמציה	11429
יציאה	11430
מטופ	11431
הנוצרים	11432
##חיית	11433
ספרדית	11434
אדון	11435
הילדות	11436
קודמים	11437
מועמדות	11438
גלגלים	11439
למוע	11440
1942	11441
1978	11442
אוניברס	11443
תופסים	11444
טוענת	11445
האופנה	11446
הקריאה	11447
גדלים	11448
עבדתי	11449
ברצונך	11450
לבניית	11451
דיסני	11452
נציגים	11453
דיברנו	11454
הפדרלי	11455
הסמכות	11456
הקיום	11457
בטענה	11458
cap	11459
ep	11460
אגם	11461
דרוש	11462
הודה	11463
חמוד	11464
יוו	11465
כנסת	11466
סלול	11467
צח	11468
תיש	11469
תאונות	11470
##land	11471
##ss	11472
לאומיים	11473
הערכות	11474
העוצמה	11475
הסיס	11476
הקשי	11477
הקישור	11478
מערך	11479
אנרג	11480
אנטיבי	11481
הגשם	11482
לפה	11483
לשפוט	11484
הצבעה	11485
לחל	11486
מיוש	11487
ואחת	11488
הדול	11489
שימור	11490
המשא	11491
סיבוב	11492
בגל	11493
בכנות	11494
לכדור	11495
המחנה	11496
המקומיות	11497
חשמלי	11498
וכעת	11499
הנהלת	11500
התגובות	11501
משפחתה	11502
תזכ	11503
ניקוי	11504
ity	11505
המושג	11506
הצהיר	11507
נשארה	11508
לאיבוד	11509
הוספת	11510
ריקוד	11511
הבסיסית	11512
משמשת	11513
word	11514
ייצוג	11515
המבוסס	11516
השותפים	11517
אובייק	11518
יוחנן	11519
הקומוניסטית	11520
גלק	11521
דירוג	11522
טיל	11523
יוס	11524
נלה	11525
עמים	11526
עוגיות	11527
שטי	11528
##בטיח	11529
##מלה	11530
##אבי	11531
##אוס	11532
הימנ	11533
האחת	11534
באולם	11535
אימי	11536
מאליו	11537
ישויות	11538
כיסא	11539
##יעת	11540
מעצר	11541
שאפילו	11542
הגברת	11543
לשוחח	11544
##יאו	11545
בהווה	11546
מצה	11547
הזקן	11548
הדרוש	11549
מבחר	11550
להתו	11551
אינטר	11552
הבינה	11553
הביטח	11554
בטכנולוגיה	11555
אלוף	11556
חלקו	11557
כולכם	11558
הלטינית	11559
##שיווק	11560
עדין	11561
דיברו	11562
להשתלט	11563
##יבט	11564
מודלים	11565
מודעת	11566
אומנות	11567
##ition	11568
ההתקדמות	11569
עשרת	11570
במחלוקת	11571
להחל	11572
הליבר	11573
##קוין	11574
פריד	11575
האמריקנים	11576
בשיחה	11577
##יריית	11578
הדרכה	11579
בתקווה	11580
תיאר	11581
1970	11582
1971	11583
תסמונת	11584
סמך	11585
ראיון	11586
מריח	11587
היסודות	11588
נפרדים	11589
המסעדה	11590
נתיב	11591
במטבח	11592
המלכותי	11593
ללחוץ	11594
מוציאים	11595
אורת	11596
דעתי	11597
הנות	11598
טייס	11599
עניינים	11600
פן	11601
שכולנו	11602
תביא	11603
##אט	11604
המפע	11605
אחותי	11606
השדה	11607
מסים	11608
הספיק	11609
##וששות	11610
בשטחים	11611
מקס	11612
בתשובה	11613
לקפוץ	11614
הדורות	11615
לדח	11616
מגזין	11617
הביצועים	11618
נעשים	11619
קטגוריה	11620
חושש	11621
כתובות	11622
תעלה	11623
##ict	11624
הטיול	11625
מביאה	11626
מנוה	11627
בינלאומיות	11628
1960	11629
אפשריים	11630
יישארו	11631
חקלא	11632
עבדים	11633
ופשוט	11634
טכנולוגית	11635
מלוכל	11636
נמכר	11637
ספינת	11638
שורש	11639
מציגים	11640
מפתחים	11641
ולשמור	11642
היבטים	11643
הכריזה	11644
התחייבות	11645
הנבחרים	11646
city	11647
der	11648
eu	11649
house	11650
בורג	11651
דפוס	11652
זמינה	11653
טבל	11654
מובה	11655
שדר	11656
תוקף	11657
##דג	11658
##דלו	11659
##רן	11660
##פץ	11661
##שֶׁ	11662
##ודשת	11663
החירות	11664
החשובה	11665
התו	11666
למבוגרים	11667
##ייבים	11668
ישב	11669
הקיסר	11670
מעש	11671
שאותו	11672
הגדרה	11673
ההמל	11674
לשלטון	11675
ליש	11676
לחופ	11677
בתמונות	11678
##מצאת	11679
מכנה	11680
בכלכלה	11681
לסין	11682
מפשע	11683
בפוליטיקה	11684
בבניין	11685
הכלבים	11686
תקצ	11687
נעשתה	11688
נעצרו	11689
מיליונים	11690
##ord	11691
חזרת	11692
נקיים	11693
נקראים	11694
הסיכונים	11695
int	11696
inf	11697
שרון	11698
סטרי	11699
התעשי	11700
התעורר	11701
בהתאמה	11702
##פריה	11703
הפלשתי	11704
ולהע	11705
##בולת	11706
אזרחית	11707
להימלט	11708
הבינלאומיים	11709
אכילת	11710
המיטה	11711
1977	11712
סגנו	11713
חולקים	11714
##נרלים	11715
מבוססות	11716
עבדו	11717
המדענים	11718
להתאמן	11719
משפחותיהם	11720
לאירופה	11721
התמחות	11722
קילומטר	11723
רכישה	11724
המבוססת	11725
הצרפתים	11726
ist	11727
הריק	11728
חוויית	11729
פניה	11730
צחק	11731
##בשת	11732
##מכו	11733
##ממות	11734
##אגו	11735
##‏‏	11736
##וקרט	11737
התצ	11738
התמודדות	11739
העשיר	11740
מארי	11741
משקה	11742
לענייני	11743
מתפר	11744
מסקנות	11745
שאסור	11746
ההרים	11747
לחקר	11748
הכישורים	11749
הנמצאים	11750
##ירותי	11751
והע	11752
לתפ	11753
סיכו	11754
בכנס	11755
שנול	11756
##סקבה	11757
לנוכח	11758
בנימין	11759
בטחון	11760
חלקה	11761
תחזור	11762
תהליכי	11763
##בדיל	11764
##כנראה	11765
שקשה	11766
שקרא	11767
יתרה	11768
להשתחרר	11769
חוקיים	11770
וכאן	11771
משמעותיות	11772
רעידת	11773
וחבר	11774
##וחרר	11775
ושאר	11776
צייר	11777
ניצחו	11778
ירדו	11779
דאפא	11780
1976	11781
הקהילות	11782
מנועי	11783
עזרו	11784
סוכן	11785
נשארת	11786
רחוקות	11787
לאירוע	11788
הכרתי	11789
תפקוד	11790
כביכול	11791
במסעדה	11792
היומיום	11793
בקריירה	11794
פגשתי	11795
הכרטיס	11796
גירושין	11797
63	11798
87	11799
gal	11800
live	11801
ty	11802
ton	11803
ארתור	11804
הוי	11805
וסט	11806
סנד	11807
קיו	11808
##נברג	11809
##לוג	11810
##ציתי	11811
##hone	11812
הארג	11813
האבן	11814
מסתיי	11815
##טימ	11816
##יעץ	11817
בשכונה	11818
הגיב	11819
##שוו	11820
##שווי	11821
הבד	11822
לשירותים	11823
##יאמס	11824
לבנה	11825
הכיר	11826
הכלי	11827
אללה	11828
הנמצא	11829
##לקוחות	11830
מכנים	11831
##איץ	11832
##יסוי	11833
ברוק	11834
להתקרב	11835
אזי	11836
פרסים	11837
סינית	11838
כשם	11839
שנב	11840
עודף	11841
מזמין	11842
שבח	11843
שבית	11844
אלוהי	11845
פיט	11846
נעלמה	11847
מטבח	11848
##יטקט	11849
גרמנית	11850
בזמנים	11851
יעבור	11852
הנוחות	11853
הופעה	11854
##קדמיה	11855
מוסרי	11856
האיראני	11857
##פעול	11858
##גשוג	11859
נושאת	11860
לפרטים	11861
השלמת	11862
אקלים	11863
הצלחנו	11864
עזרת	11865
עוזב	11866
שייכת	11867
נמוכות	11868
ההצבעה	11869
שאיננו	11870
מעניקה	11871
השוואה	11872
התרגום	11873
מעצבים	11874
part	11875
סטיבן	11876
הצפונית	11877
מדהימים	11878
מיכאל	11879
del	11880
face	11881
sol	11882
ומים	11883
ידה	11884
כיד	11885
כפות	11886
נובל	11887
עניים	11888
צלם	11889
רוי	11890
##פיו	11891
##קרו	11892
##חדו	11893
המפה	11894
הימורים	11895
##ליית	11896
הרוצ	11897
##ביאים	11898
למדע	11899
לעין	11900
לעובדה	11901
הקדושה	11902
הגדרת	11903
הבודה	11904
לינה	11905
לחזות	11906
מקושר	11907
לקשר	11908
##דהות	11909
מכוסה	11910
שעובדים	11911
לכבוש	11912
תקין	11913
תקנות	11914
השישי	11915
מטורף	11916
המתקפה	11917
הספרות	11918
##בקשו	11919
התחלת	11920
השתנתה	11921
מלוא	11922
לנשום	11923
מתקשה	11924
עמם	11925
מרכזיים	11926
ירקות	11927
למועד	11928
צדקה	11929
מותג	11930
1972	11931
נחשף	11932
הקורבן	11933
מפלגות	11934
חמורות	11935
קומוני	11936
ההכנסה	11937
מהעבודה	11938
בבעיות	11939
חפצים	11940
מדרום	11941
הנכסים	11942
פוטין	11943
תשאלו	11944
הבכורה	11945
סיינטולוגיה	11946
וכתוצאה	11947
ever	11948
mer	11949
ment	11950
win	11951
גנים	11952
ויס	11953
חיש	11954
כג	11955
כנה	11956
ניי	11957
ענו	11958
עמה	11959
פרה	11960
קולי	11961
קסון	11962
תנ	11963
##קרה	11964
להינ	11965
##ירוץ	11966
האלים	11967
##רינה	11968
##תימה	11969
##לייה	11970
באביב	11971
החזר	11972
התמו	11973
העניינים	11974
השד	11975
הסוג	11976
לשחרור	11977
ביכול	11978
לבשל	11979
הכה	11980
מכפי	11981
לתהליך	11982
לגן	11983
יצרו	11984
הפרת	11985
מוצג	11986
שקיים	11987
##גרמו	11988
התקיים	11989
שתצ	11990
לטובה	11991
סטטיסט	11992
##ital	11993
##out	11994
חלש	11995
##בחנה	11996
קייט	11997
הפעילויות	11998
למשטרה	11999
קריטי	12000
ושירותים	12001
המשפטית	12002
מקצועיות	12003
האדריכל	12004
למחנה	12005
קשרי	12006
ניצח	12007
1982	12008
הנוכחות	12009
ונע	12010
הפוליטיקה	12011
##טריונים	12012
בביצוע	12013
גאווה	12014
החשובות	12015
וירטוא	12016
בסרטן	12017
הומוסקס	12018
ההכנסות	12019
דחוף	12020
לדיון	12021
הלחימה	12022
התיאוריה	12023
סובלנות	12024
מפגינים	12025
מרתק	12026
american	12027
קולומביה	12028
cookie	12029
street	12030
900	12031
דומ	12032
דגם	12033
דרכה	12034
חרב	12035
צרכים	12036
קוגני	12037
רוחות	12038
רוסי	12039
רשימות	12040
##דשות	12041
##פנות	12042
##vi	12043
##ולן	12044
המייס	12045
##וקק	12046
איס	12047
מאבד	12048
##יקוי	12049
מתנ	12050
הקים	12051
שאיר	12052
##אלים	12053
לקט	12054
##יסוק	12055
בסבל	12056
הטמפרטורה	12057
הראיות	12058
##יצב	12059
לכוח	12060
נשמות	12061
נשלחו	12062
בצל	12063
אינטרסים	12064
תקן	12065
תקבלו	12066
השיעור	12067
ובנו	12068
מוצק	12069
הראשוני	12070
השתתף	12071
לדבריה	12072
חדשנות	12073
המהלך	12074
תפיסת	12075
##היטים	12076
הסרטון	12077
תסמינים	12078
פסולת	12079
בשבועות	12080
החייל	12081
חילופי	12082
המדבר	12083
להיפך	12084
הציור	12085
365	12086
גיוס	12087
המזרחית	12088
שקיבלו	12089
המובילות	12090
ללימודים	12091
גרעינית	12092
נלחם	12093
המשקיעים	12094
מהסוג	12095
כישורי	12096
האמצעים	12097
מגיבים	12098
dat	12099
בוס	12100
וינ	12101
טופ	12102
ייב	12103
כיה	12104
נוא	12105
רומן	12106
##עוד	12107
##ערה	12108
##ms	12109
להביט	12110
לאותה	12111
##שראה	12112
##ליכה	12113
במז	12114
הרמה	12115
שהו	12116
לעבד	12117
##רוכת	12118
מעניק	12119
הגעת	12120
הגירה	12121
לשטוף	12122
בינה	12123
מחנות	12124
לבתי	12125
הכבד	12126
##שתית	12127
והר	12128
להתחרות	12129
שמעת	12130
##לחם	12131
לכדי	12132
השיבה	12133
ובסופו	12134
פינה	12135
תחושות	12136
גרמני	12137
גרסאות	12138
כתבות	12139
מוצאת	12140
##חדשות	12141
החלון	12142
למשפחת	12143
עומק	12144
בראשות	12145
נדירים	12146
חשבנו	12147
ששמע	12148
למוזיקה	12149
1983	12150
אכיפת	12151
נכנסת	12152
משאיר	12153
למדוד	12154
שיכולה	12155
בעיניי	12156
הומור	12157
בפעולה	12158
פיננסי	12159
מודרניים	12160
iphone	12161
יציבה	12162
מתגלה	12163
הפילוסופיה	12164
דיגיטלי	12165
הוחלט	12166
##ology	12167
82	12168
mc	12169
sim	12170
ביתי	12171
גמור	12172
הורי	12173
נחר	12174
סוח	12175
תביעה	12176
##לכים	12177
##מטית	12178
##אתי	12179
המפרץ	12180
האיים	12181
##תיק	12182
מהותי	12183
איפ	12184
##מהות	12185
התוב	12186
למז	12187
בעור	12188
בעול	12189
בעין	12190
##להי	12191
##לוי	12192
מעיד	12193
הגנת	12194
לפועל	12195
מחמד	12196
מחליטים	12197
מחזיקה	12198
הצמח	12199
בחום	12200
בחנויות	12201
הזכר	12202
הדרו	12203
בספק	12204
יהדות	12205
יהלומים	12206
לתר	12207
לתקשורת	12208
ברמות	12209
##ציאת	12210
##סקת	12211
יחידת	12212
לצמוח	12213
נשמח	12214
כוללות	12215
הברזל	12216
משתת	12217
התקף	12218
##ale	12219
סטאר	12220
184	12221
מלאך	12222
תגידו	12223
ביקשה	12224
מוגן	12225
עמק	12226
התאמה	12227
התאריך	12228
המהירה	12229
להרבה	12230
לציון	12231
1974	12232
מאפשרות	12233
מאחרים	12234
לביק	12235
משפחתית	12236
תומאס	12237
הארוחה	12238
נדרשת	12239
מהיום	12240
לאיזה	12241
וירוס	12242
הדתות	12243
תוספי	12244
who	12245
למדינת	12246
מתבצע	12247
trans	12248
נמשכת	12249
news	12250
ההולדת	12251
שנשאר	12252
ממשלתיים	12253
אמהות	12254
כישורים	12255
הנדסה	12256
לסרטן	12257
מחקרי	12258
מודאגים	12259
over	12260
גופות	12261
דפים	12262
הָ	12263
טעים	12264
מיות	12265
סצ	12266
סם	12267
ענף	12268
צב	12269
ציד	12270
##ַת	12271
##we	12272
##vel	12273
שלמות	12274
המרת	12275
המנג	12276
המפקד	12277
הממצאים	12278
המחקרים	12279
האופי	12280
באופ	12281
איור	12282
איטי	12283
משוגע	12284
שהכ	12285
שהוע	12286
לעור	12287
מתעורר	12288
הקצב	12289
ההיג	12290
לחברים	12291
לבדה	12292
לקחתי	12293
ואילך	12294
הדירות	12295
יהאד	12296
ברציפ	12297
שמספר	12298
פרוב	12299
מפסיק	12300
##נקו	12301
מרשם	12302
מרפא	12303
שנינו	12304
חיכ	12305
##anc	12306
גרמו	12307
המעמד	12308
המסת	12309
נמצאה	12310
ins	12311
לטוב	12312
תוכנת	12313
המאפיינים	12314
מולדת	12315
מזהים	12316
##מוקרטיה	12317
1949	12318
מונית	12319
אצלו	12320
שגוי	12321
תופס	12322
שיוכל	12323
להתערב	12324
שמשת	12325
good	12326
ברצלונה	12327
נפלאה	12328
אסטרטגית	12329
הובילו	12330
למאבק	12331
העלאת	12332
החברתיים	12333
הפילוס	12334
הגדלת	12335
הידיעה	12336
באתרים	12337
השחורה	12338
אינטראקציה	12339
מתנגדים	12340
חבילות	12341
דנמרק	12342
משוכנע	12343
ברציפות	12344
76	12345
86	12346
land	12347
בפק	12348
גופו	12349
דוב	12350
דינו	12351
וסי	12352
חובת	12353
כִּי	12354
מותה	12355
ניל	12356
נרכ	12357
סף	12358
סכי	12359
ציינו	12360
רעות	12361
תצל	12362
##נץ	12363
##כנת	12364
##לכו	12365
##ep	12366
##גריה	12367
##צאה	12368
##סוכים	12369
##שמי	12370
##fl	12371
המלוכה	12372
להית	12373
להקט	12374
בממש	12375
באיחוד	12376
העלה	12377
העניק	12378
למסור	12379
הסורי	12380
כישרון	12381
כימיקלים	12382
##ושע	12383
שאיש	12384
הבסיסי	12385
הצביעו	12386
כאדם	12387
הדדית	12388
והייתי	12389
להתפר	12390
שמעו	12391
מגור	12392
שעד	12393
הכלא	12394
לצבא	12395
ובית	12396
תחליף	12397
חיילי	12398
בלוס	12399
נתנה	12400
גרמנים	12401
##אונת	12402
התקבלה	12403
משפטים	12404
קיומה	12405
שכך	12406
שכמעט	12407
תרומות	12408
התחנה	12409
מלאות	12410
חלוקת	12411
עסקיות	12412
חסרות	12413
כשהיה	12414
ולהפוך	12415
תתחיל	12416
מובילות	12417
שומרת	12418
1981	12419
מניעה	12420
הסכמת	12421
להאכיל	12422
הצדקה	12423
הצלחת	12424
שותים	12425
הרחבה	12426
שואפים	12427
הרוחנית	12428
האופרה	12429
וגאס	12430
##app	12431
הרעב	12432
הפגיעה	12433
האתרים	12434
לאירועים	12435
האפליק	12436
##ount	12437
דמיון	12438
עיקריים	12439
דוקטורט	12440
הוציאה	12441
קווין	12442
##press	12443
בשבילו	12444
hu	12445
ng	12446
power	12447
sl	12448
vo	12449
בוע	12450
דומי	12451
הוצאה	12452
טיס	12453
לור	12454
סוני	12455
סופית	12456
צפייה	12457
קרים	12458
קמפ	12459
שותה	12460
שגו	12461
תוצר	12462
תישאר	12463
##בנים	12464
##טכנולוגיה	12465
##פורים	12466
##פצים	12467
##סין	12468
##ַב	12469
##וליה	12470
המבחן	12471
להיק	12472
להציב	12473
איבדו	12474
##ידך	12475
מתנגד	12476
מסד	12477
הקשים	12478
הקדושים	12479
ליטר	12480
מצטר	12481
שיום	12482
##וייקט	12483
יהפכו	12484
הטעות	12485
פרדי	12486
בבטחה	12487
ארצה	12488
רגישים	12489
גרועה	12490
נפשי	12491
this	12492
שכזו	12493
תרבויות	12494
נחוץ	12495
צער	12496
מלאי	12497
מוסיפים	12498
תאגיד	12499
ורבים	12500
עברתי	12501
נבחרת	12502
מגיעות	12503
מניפול	12504
בסיסיים	12505
הרחוק	12506
טייל	12507
בביטחון	12508
"),	12509
הוועד	12510
ראשונים	12511
black	12512
נפגשו	12513
עלייך	12514
מתרחשים	12515
חיסכון	12516
לקבוצות	12517
##טיקאי	12518
מפגשים	12519
רמז	12520
מתמקדים	12521
שעומד	12522
התעללות	12523
ניכרת	12524
בקליפורניה	12525
84	12526
98	12527
97	12528
gra	12529
hp	12530
hol	12531
night	12532
בוב	12533
דרושים	12534
הָא	12535
כנס	12536
מכולם	12537
סגל	12538
צחוק	12539
רוצות	12540
שוש	12541
##כא	12542
##גרו	12543
##קית	12544
##ורו	12545
##נוא	12546
המכללה	12547
היפים	12548
##שימו	12549
באסיה	12550
התאה	12551
התנהלות	12552
העוני	12553
העשירים	12554
משנים	12555
בער	12556
##ייף	12557
לערב	12558
מתמקד	12559
אותיות	12560
הפוטנציא	12561
בשאר	12562
לשיתוף	12563
בישול	12564
לבק	12565
##חרט	12566
##ניתוח	12567
הדתי	12568
הדוק	12569
והול	12570
יהודיות	12571
להתבונן	12572
סימפטומים	12573
שעוד	12574
ישראליות	12575
השיטות	12576
נתתי	12577
חוששים	12578
נפצע	12579
##orn	12580
##צעד	12581
אליפות	12582
הנוף	12583
להפג	12584
שכח	12585
תעסוקה	12586
##בילת	12587
חוקיות	12588
השתנו	12589
##stem	12590
המטוסים	12591
רשמיים	12592
יסודי	12593
המבנים	12594
לפרוש	12595
ילדכם	12596
1947	12597
המרכזיים	12598
סגירת	12599
האהובים	12600
שגיאות	12601
צליל	12602
שנעשו	12603
עבירות	12604
האופניים	12605
סיפרו	12606
האסירים	12607
##זבאללה	12608
1939	12609
מכשירי	12610
היציאה	12611
מחויב	12612
מייצגים	12613
הנחיות	12614
היעילות	12615
שהחברה	12616
בקבוצת	12617
הובילה	12618
צודקת	12619
תחרותי	12620
tech	12621
סטרואידים	12622
העומדים	12623
הסובלים	12624
השותף	12625
טקסס	12626
עוקבים	12627
באורח	12628
מלאכותית	12629
אינטליגנציה	12630
מוסקבה	12631
96	12632
bre	12633
back	12634
free	12635
mag	12636
nat	12637
wa	12638
לילות	12639
מורי	12640
סודי	12641
עונ	12642
צמוד	12643
שעת	12644
##גול	12645
##פיא	12646
##ָל	12647
##ֹל	12648
להיג	12649
הארוכה	12650
##ופאי	12651
השילוב	12652
לממן	12653
מאבדים	12654
בענף	12655
שהוג	12656
ישוב	12657
הפיר	12658
בשליטה	12659
בשלושה	12660
ההנחה	12661
הבוגרים	12662
הבטיחות	12663
לשון	12664
מקסים	12665
מימי	12666
בחוסר	12667
שינתה	12668
אפוא	12669
והצ	12670
כמוהו	12671
##כתוב	12672
פרץ	12673
מגיב	12674
סיכום	12675
בגד	12676
בגדי	12677
מפריע	12678
בפיל	12679
בבנק	12680
שבדרך	12681
נגיש	12682
חיזבאללה	12683
הפרשה	12684
האחראי	12685
עצמאיים	12686
שתיהן	12687
שכחתי	12688
מוכי	12689
מוכנות	12690
שזהו	12691
וחוסר	12692
ביקשתי	12693
לדעתך	12694
פריט	12695
אוכלוסיות	12696
##וביץ	12697
מעורבת	12698
צדדי	12699
צדדים	12700
עימות	12701
1943	12702
היסטוריים	12703
שולט	12704
פגישות	12705
ent	12706
משפטיים	12707
טיולים	12708
1950	12709
הצהרה	12710
אווירה	12711
שיקום	12712
שביעות	12713
נולדתי	12714
החזקה	12715
מתבצעת	12716
פיצוי	12717
המפורסמת	12718
המקצועית	12719
ללקוח	12720
לתחנת	12721
מדויקת	12722
דיסק	12723
מעודדים	12724
ריצה	12725
העלילה	12726
הכוכב	12727
הנסיכה	12728
העומד	12729
אנדרואיד	12730
לנתח	12731
system	12732
אינדיביד	12733
כועס	12734
rights	12735
לתרגם	12736
וייטנאם	12737
אנטיביוטיקה	12738
kn	12739
ny	12740
tv	12741
בוש	12742
בבור	12743
גזר	12744
חלי	12745
ננסה	12746
נופש	12747
סון	12748
עוצר	12749
קבר	12750
רם	12751
שידע	12752
שונאים	12753
תכל	12754
תודעה	12755
##יבה	12756
##טיל	12757
##פידה	12758
##שף	12759
היבט	12760
היועץ	12761
האוני	12762
האומץ	12763
##ופרים	12764
##שהות	12765
מארח	12766
##אתר	12767
שאחרים	12768
##מיץ	12769
ההיר	12770
##דרון	12771
לחלום	12772
##ווך	12773
הנמ	12774
הזמנות	12775
##לקות	12776
הדגים	12777
אפג	12778
מכבי	12779
שמרו	12780
הטקס	12781
ממרכז	12782
שנתי	12783
##סטין	12784
בנוי	12785
הפרות	12786
##ary	12787
המעשה	12788
משתתף	12789
התקפה	12790
בדיחה	12791
להפריד	12792
אסיר	12793
אספקה	12794
בריטי	12795
דיני	12796
תענוג	12797
צעצועים	12798
מוכיח	12799
שחורה	12800
נאום	12801
מרגע	12802
תשכח	12803
מושב	12804
נכנסה	12805
תאפשר	12806
ולהבין	12807
מתקן	12808
רכבים	12809
לציית	12810
החלטנו	12811
1964	12812
enter	12813
סיפוק	12814
יגידו	12815
צפויות	12816
ומעולם	12817
המדעי	12818
הדתית	12819
שוטר	12820
ספציפית	12821
בילדות	12822
super	12823
קלאסי	12824
עייף	12825
משעמם	12826
כלכלת	12827
לירידה	12828
שנועדו	12829
מיהו	12830
האותיות	12831
הישרדות	12832
להרגיע	12833
ריבית	12834
university	12835
כידוע	12836
fil	12837
fda	12838
אמונות	12839
אריה	12840
דיקט	12841
ונסון	12842
ערכו	12843
עקרון	12844
קבלו	12845
רוסית	12846
שמצא	12847
תלת	12848
##דרו	12849
##דורה	12850
##בס	12851
##ינג	12852
##טוי	12853
##ֹּ	12854
##ניו	12855
להמליץ	12856
##ודדים	12857
לאמא	12858
איבדה	12859
מסרה	12860
אנסה	12861
ההלו	12862
##דרום	12863
מחברי	12864
בתולדות	12865
הדמיון	12866
##בודות	12867
להתנהג	12868
##קהילה	12869
שממנו	12870
הטילים	12871
ממס	12872
##ומרון	12873
אינד	12874
הביע	12875
המחזור	12876
קטגוריות	12877
בדרישות	12878
חזיר	12879
אירוח	12880
רצים	12881
התיקון	12882
אדמת	12883
אורז	12884
חלבונים	12885
תאורה	12886
חסרים	12887
תכופות	12888
179	12889
עברנו	12890
גלגל	12891
רכישות	12892
למחלות	12893
ירצה	12894
תלונה	12895
1968	12896
הישנים	12897
אוניברסיטה	12898
האינטרס	12899
חמלה	12900
אנטישמיות	12901
לתינוק	12902
רפואיות	12903
שיאפשר	12904
דיגיטלית	12905
הנישואים	12906
עותק	12907
רלוונטיים	12908
john	12909
נרצחו	12910
בהולנד	12911
73	12912
mat	12913
mad	12914
more	12915
דוחה	12916
חו	12917
חניה	12918
יראו	12919
מבור	12920
מראות	12921
ניד	12922
נראות	12923
פצועים	12924
רדיק	12925
##טדיון	12926
##ַח	12927
##me	12928
##xy	12929
שלווה	12930
להיזכר	12931
להאיץ	12932
היישום	12933
העזרה	12934
השתי	12935
##רוכים	12936
מסתיים	12937
שאחד	12938
שאליו	12939
ההא	12940
ההומני	12941
ההיבטים	12942
לפיה	12943
מינו	12944
לבוש	12945
הכב	12946
מצבו	12947
להתבצע	12948
שעלול	12949
יחידים	12950
עונות	12951
##דויות	12952
בצוות	12953
נוסח	12954
##סטיות	12955
פיז	12956
נערכו	12957
that	12958
##ens	12959
##ירתו	12960
צעירות	12961
וכד	12962
כמדינה	12963
בליגה	12964
##oup	12965
##יסטית	12966
בשבילם	12967
stud	12968
בראון	12969
בשיטה	12970
המכשירים	12971
בעצמה	12972
להימשך	12973
שנותר	12974
עשן	12975
מותק	12976
1975	12977
שולחים	12978
חומצה	12979
ארגנטינה	12980
בתוכניות	12981
חקיקה	12982
יצאתי	12983
ופחות	12984
המדעית	12985
נאלצו	12986
המורשת	12987
בקבוצות	12988
לשרוף	12989
apple	12990
הולדתו	12991
##ידרש	12992
עייפות	12993
ליברמן	12994
מהמקרים	12995
לפספס	12996
מדווחים	12997
ליווי	12998
בגודלה	12999
תערובת	13000
01	13001
fin	13002
king	13003
חבילת	13004
סוו	13005
סטים	13006
פחם	13007
קדושה	13008
##בקה	13009
##book	13010
##תחלה	13011
##yle	13012
##פליק	13013
##שעים	13014
##od	13015
##נועים	13016
להכות	13017
להמציא	13018
##ודור	13019
##ודשי	13020
האפל	13021
##ואלים	13022
##שרדות	13023
##ומדים	13024
##ופף	13025
##ופין	13026
##מונד	13027
מהב	13028
החור	13029
החזית	13030
מאיים	13031
משוע	13032
##טינג	13033
יכולנו	13034
הציפיות	13035
##שתיות	13036
202	13037
ברע	13038
פרקי	13039
##ילוץ	13040
בכניסה	13041
##סקות	13042
ארמון	13043
הכלכליים	13044
נעלי	13045
חיידקים	13046
לרמות	13047
האמנתי	13048
להפריע	13049
האימון	13050
ine	13051
אדירה	13052
וכמעט	13053
רחוקה	13054
החלפת	13055
למצרים	13056
מלמדת	13057
שתיקה	13058
נסע	13059
מוערך	13060
הלאומיים	13061
במסלול	13062
רשום	13063
תיבת	13064
דרמה	13065
מסויים	13066
סיפורו	13067
הבלוג	13068
eng	13069
seo	13070
בודקים	13071
וגדל	13072
בצדק	13073
הנאצית	13074
ההסבר	13075
גרין	13076
ספציפיות	13077
השכנים	13078
המפג	13079
צוואר	13080
פיננסיים	13081
שהחיים	13082
תשתית	13083
ארכיון	13084
הבדיקות	13085
לחתוך	13086
המאפשרת	13087
הפדרציה	13088
וליצור	13089
פשעים	13090
בוגרי	13091
מהמקום	13092
הצילום	13093
הרפתקאות	13094
כנסיית	13095
הקובץ	13096
חמושים	13097
ההרגשה	13098
תוחלת	13099
לדחוף	13100
ie	13101
light	13102
אורות	13103
בכו	13104
ברכת	13105
דנה	13106
הוריה	13107
זציה	13108
ירה	13109
כמת	13110
סנטי	13111
עסוק	13112
עיריית	13113
שפר	13114
שרים	13115
##נקה	13116
##דוף	13117
##tube	13118
##mi	13119
המנכ	13120
היותו	13121
האגו	13122
##ואק	13123
##דיאו	13124
##ליש	13125
במפור	13126
אחיות	13127
באט	13128
החובה	13129
העלו	13130
העבירה	13131
השכונה	13132
השומן	13133
השחרור	13134
השנאה	13135
משלך	13136
##יינתי	13137
מתמשכת	13138
מסרב	13139
##לושים	13140
הקושי	13141
הקיימת	13142
הפשע	13143
מעביר	13144
אנלי	13145
הגג	13146
הבור	13147
לשקר	13148
יכולתו	13149
מחמ	13150
##ישב	13151
בתנו	13152
הכפ	13153
הכנת	13154
ואינ	13155
והפך	13156
מדאי	13157
לגנוב	13158
שנשים	13159
מזיק	13160
נשואים	13161
בנוכחות	13162
חייכם	13163
הבריאה	13164
במשק	13165
נפצעו	13166
בדמות	13167
יעבוד	13168
שתק	13169
המתנחלים	13170
דיור	13171
תעשייה	13172
אהבו	13173
מוסמך	13174
בהתפתחות	13175
פנימיים	13176
מוזרה	13177
פורנו	13178
קרינה	13179
החדרים	13180
130	13181
המועמד	13182
משקף	13183
1961	13184
בסדרת	13185
מאתגר	13186
שמענו	13187
1958	13188
youtube	13189
ודא	13190
המחשבים	13191
בולט	13192
לאיראן	13193
מסחרית	13194
עיקרי	13195
עוקב	13196
glob	13197
שגורם	13198
יושבת	13199
לעדכן	13200
האולימפ	13201
התנהגויות	13202
פלורידה	13203
התפשטות	13204
באוטובוס	13205
במפורש	13206
**	13207
cal	13208
nc	13209
ri	13210
sun	13211
זוע	13212
עבא	13213
צרו	13214
קנאביס	13215
ריג	13216
שסי	13217
##כיות	13218
##בניות	13219
##באללה	13220
##מפי	13221
##גנו	13222
##ניון	13223
##ולציה	13224
המנ	13225
##יליה	13226
##דיבות	13227
##דיקים	13228
החרי	13229
הרוע	13230
##יקאים	13231
מסרים	13232
##ושש	13233
מעמיד	13234
##יוונים	13235
הגיר	13236
לפיו	13237
הבטחת	13238
לחברת	13239
בתנועה	13240
##נסט	13241
מכמה	13242
##קרר	13243
בסן	13244
##ציבור	13245
לסוכ	13246
##ינשטיין	13247
בניינים	13248
נשאל	13249
הפרעת	13250
מוצגים	13251
יעדים	13252
שקד	13253
משתמשי	13254
הראשונית	13255
סטון	13256
ההתח	13257
מושגים	13258
לנחש	13259
הורד	13260
ורוב	13261
למשפט	13262
ושומרון	13263
נדירה	13264
בנמל	13265
שיעזרו	13266
בעודו	13267
פרסמה	13268
עמוקות	13269
שהתרח	13270
מניעת	13271
הקודמות	13272
הרחבת	13273
לטיול	13274
מבוססים	13275
לסיפור	13276
ניקח	13277
רציניים	13278
leg	13279
מפורסמים	13280
adv	13281
ההצגה	13282
ההרוגים	13283
מציאת	13284
נובעת	13285
הנערה	13286
שהמדינה	13287
##מפרטורות	13288
השותפות	13289
המוניטין	13290
מתמקדת	13291
חוגגים	13292
במועדון	13293
יצירתי	13294
men	13295
זמנ	13296
כית	13297
כפתור	13298
לזו	13299
לרגל	13300
נורה	13301
עושות	13302
פנס	13303
##כמת	13304
##גלי	13305
##ml	13306
##df	13307
לאנושות	13308
##ואליות	13309
באורך	13310
באיז	13311
החושים	13312
החוויות	13313
התזונה	13314
הערי	13315
העמדה	13316
השביעי	13317
הרפור	13318
מתגוררים	13319
ישע	13320
הקבר	13321
הפנט	13322
הפאלון	13323
בשמים	13324
ההוא	13325
##וכס	13326
הכמות	13327
##יפינים	13328
מכרי	13329
בגור	13330
בקיר	13331
שנבנה	13332
שערים	13333
שעבד	13334
שעכשיו	13335
שעליה	13336
חברו	13337
ארלס	13338
במקצוע	13339
להגנת	13340
חייבות	13341
##נדט	13342
מטופל	13343
הפרחים	13344
גרועים	13345
נפוצות	13346
שקרים	13347
##alth	13348
בדיון	13349
הרגישו	13350
מודיעין	13351
סטטי	13352
כמח	13353
הריכוז	13354
נייד	13355
##קטורים	13356
קודמות	13357
##וויץ	13358
רכש	13359
למחשב	13360
לביתו	13361
העסקיים	13362
המינית	13363
בסיסית	13364
1966	13365
1965	13366
להסתובב	13367
נרצח	13368
עוזבים	13369
למדנו	13370
##מטרים	13371
##קבוצה	13372
שגיאה	13373
פילוסופיה	13374
1956	13375
החשש	13376
חיונית	13377
בחלקים	13378
חיוביים	13379
הגלובלית	13380
דוברי	13381
ולעיתים	13382
ילדינו	13383
התיאטרון	13384
הפופולריים	13385
יבואו	13386
##דקק	13387
יוזמה	13388
הביקוש	13389
גלוי	13390
איטלקית	13391
##פליקט	13392
מוניטין	13393
הרפואית	13394
!'	13395
bra	13396
אמש	13397
ופת	13398
וחי	13399
זאב	13400
טרו	13401
כנו	13402
ציות	13403
קזינו	13404
תכנ	13405
##נְ	13406
##טף	13407
##טורה	13408
##ּוּ	13409
##פשים	13410
##פוג	13411
##סוקים	13412
##ֹר	13413
להריון	13414
לאינ	13415
האשמה	13416
מהכל	13417
במכון	13418
באנו	13419
בארי	13420
החמצ	13421
למנה	13422
למשא	13423
מאפ	13424
מאותה	13425
שהנ	13426
הסל	13427
##לושת	13428
ההוצאה	13429
ליבה	13430
בתרג	13431
אלמנטים	13432
הנכונים	13433
##שתם	13434
שיחת	13435
והכ	13436
שמיי	13437
שנולד	13438
בצו	13439
השיא	13440
מטא	13441
חושף	13442
נהנית	13443
התקיימה	13444
צעק	13445
אדרי	13446
חשבה	13447
חשבתם	13448
שחיים	13449
הופת	13450
##oud	13451
בסיוע	13452
שתייה	13453
להכריז	13454
כהו	13455
נויר	13456
מתקני	13457
בשיטות	13458
מסתוב	13459
רשאים	13460
גלובלית	13461
##עדית	13462
read	13463
אמריקנים	13464
המגדל	13465
##לוקות	13466
מהמאה	13467
בוחן	13468
העיתונאים	13469
אקדח	13470
מצויין	13471
הבסיסיים	13472
פיצוץ	13473
##טואציה	13474
תפסיק	13475
הרשתות	13476
המאוחדת	13477
##play	13478
serv	13479
סקוטלנד	13480
המתאימה	13481
המינימום	13482
שינויי	13483
שאוהבים	13484
bro	13485
down	13486
ns	13487
sal	13488
tal	13489
בוי	13490
גופה	13491
ילך	13492
כרוך	13493
נדע	13494
רך	13495
רול	13496
שפי	13497
תיפ	13498
תנסה	13499
##דנים	13500
##לֹה	13501
##la	13502
##צוף	13503
##ron	13504
המרה	13505
המדיה	13506
היער	13507
##ברך	13508
האכז	13509
##דיף	13510
##ליסטי	13511
##מוות	13512
מהאר	13513
במגע	13514
התפתח	13515
הרומן	13516
מאו	13517
משלוש	13518
שהשת	13519
מתמודד	13520
אותות	13521
הקירות	13522
הקברות	13523
הפיג	13524
הפייסבוק	13525
הפחתת	13526
מעמ	13527
##וכנן	13528
הבמאי	13529
אלון	13530
לקול	13531
בחג	13532
הנחות	13533
הנמל	13534
הנער	13535
מצומ	13536
רקטות	13537
##ויבות	13538
שמק	13539
המשלחת	13540
סימול	13541
לכפות	13542
המחאה	13543
##סטיק	13544
השיחות	13545
השיפוט	13546
מרץ	13547
יצרה	13548
מטען	13549
נפח	13550
המעצ	13551
חזות	13552
התקבל	13553
תרנג	13554
הרגלים	13555
הרגילים	13556
בביתו	13557
רובנו	13558
סוגיות	13559
מושל	13560
##ough	13561
רעבים	13562
בלבנון	13563
הפלנטה	13564
פריצת	13565
עקבות	13566
מומל	13567
באירועים	13568
חולשה	13569
הנוכחיים	13570
סמכויות	13571
הישגים	13572
חקלאות	13573
קבועים	13574
המוחלט	13575
עבירה	13576
בייצור	13577
בחרתי	13578
בעיניו	13579
תורם	13580
org	13581
משרדים	13582
שגרם	13583
מצטערת	13584
יקרות	13585
שוכחים	13586
גזענות	13587
התרחשה	13588
אויבים	13589
אובייקטים	13590
הונגריה	13591
אטרקציות	13592
פלטפורמה	13593
ביחסים	13594
מהנדס	13595
cbd	13596
האיראנית	13597
ההנהלה	13598
ההנהגה	13599
בפגישה	13600
האנגלי	13601
79	13602
בוצע	13603
יסת	13604
לֹא	13605
סוחר	13606
פוח	13607
פנוי	13608
קשת	13609
##דד	13610
##צן	13611
##רע	13612
##קוט	13613
##שמת	13614
המני	13615
המסים	13616
עליון	13617
##שרדים	13618
מהרגע	13619
במבנה	13620
זהים	13621
##וקן	13622
החזרה	13623
איפשר	13624
למזון	13625
הסרת	13626
הפסטיבל	13627
מעלי	13628
##שווה	13629
לפק	13630
הבוס	13631
לשטח	13632
לשלושה	13633
יכולתם	13634
מקיימים	13635
בחרה	13636
ואיר	13637
ואינם	13638
מבוצ	13639
בסרטים	13640
לתרגל	13641
להתרחק	13642
שמעתם	13643
המשול	13644
המשמשים	13645
בגישה	13646
בקפידה	13647
נשכ	13648
ילדיה	13649
##נדית	13650
רגילות	13651
##כייה	13652
המעצר	13653
בזכויות	13654
##גרפיה	13655
להפליא	13656
המתכון	13657
יתחיל	13658
שכבות	13659
תעזור	13660
רחובות	13661
הרישום	13662
וחברות	13663
נסגר	13664
בשבילנו	13665
הורג	13666
מתקנים	13667
מוגבלים	13668
##סטרדם	13669
בנשק	13670
##בטלה	13671
לפרוץ	13672
נבנו	13673
בארבע	13674
rec	13675
שפשוט	13676
מדעיים	13677
שהיית	13678
פסיכו	13679
שבעת	13680
הידועה	13681
כבדים	13682
הקורבנות	13683
שנערכו	13684
ומעבר	13685
האזרחית	13686
לנקודה	13687
מיקרו	13688
הגורל	13689
להורדה	13690
הפנימיים	13691
אוקס	13692
מייצגת	13693
במשחקים	13694
הנחש	13695
אמינות	13696
הנעליים	13697
הניתן	13698
רכיבים	13699
מסכימה	13700
ולשפר	13701
האוטובוס	13702
דרכון	13703
ושימוש	13704
display	13705
עמיתים	13706
הראיון	13707
שנועד	13708
וללמוד	13709
אפליקציות	13710
עבאס	13711
cam	13712
lu	13713
ros	13714
אא	13715
במוש	13716
בידו	13717
גונ	13718
גישות	13719
דיק	13720
דוחות	13721
ומיד	13722
זיו	13723
זעם	13724
יוקר	13725
ממת	13726
מבלים	13727
ממצאים	13728
מוניות	13729
נוחים	13730
קמע	13731
שוכן	13732
תני	13733
##ble	13734
##ah	13735
##קוף	13736
##שורים	13737
##חילים	13738
##ire	13739
##ox	13740
המדרגות	13741
הישיבה	13742
הארכ	13743
##ומנו	13744
מהכ	13745
באג	13746
באף	13747
באלימות	13748
החמאס	13749
איים	13750
התכו	13751
מארג	13752
מאוכל	13753
מאגר	13754
לעוף	13755
##רונית	13756
##לאמית	13757
הסמו	13758
כינה	13759
הקשיים	13760
הקיימות	13761
שאותה	13762
ההפס	13763
ההמונים	13764
ההודעות	13765
לשעה	13766
מחברות	13767
הצרכן	13768
בהצהרה	13769
לחסום	13770
מקרב	13771
מיניות	13772
מיועדת	13773
בתוספת	13774
הנדל	13775
הנכונות	13776
הנסיבות	13777
ואמרה	13778
פעלו	13779
עצרו	13780
להתרכז	13781
שמואל	13782
לדור	13783
בגופ	13784
לסלוח	13785
פייר	13786
נערות	13787
יצליחו	13788
ידעתם	13789
תחזית	13790
רגשי	13791
לכלכלה	13792
מילר	13793
דיכוי	13794
ind	13795
לטבע	13796
חשמלית	13797
להבנה	13798
הדיפל	13799
כדורים	13800
מושבים	13801
מתחילות	13802
קולג	13803
ערובה	13804
הקטע	13805
סוכנויות	13806
מונעת	13807
תומס	13808
העצום	13809
בינוני	13810
שיקרה	13811
מוטב	13812
space	13813
המפלגות	13814
שטחי	13815
הנקרא	13816
מצוינות	13817
נוצרה	13818
נולדים	13819
אוסלו	13820
משכנתא	13821
מהדברים	13822
נמשכים	13823
הטענות	13824
group	13825
מסורתיים	13826
##יוויליזציה	13827
שעלינו	13828
ואהבה	13829
הדאפא	13830
מיעוט	13831
להיאבק	13832
וליהנות	13833
במזומן	13834
09	13835
bri	13836
bbc	13837
our	13838
que	13839
si	13840
גופי	13841
הומו	13842
ותרבות	13843
חינ	13844
טיט	13845
לכה	13846
לנט	13847
מכול	13848
מרכ	13849
סגר	13850
פרג	13851
קדם	13852
קראה	13853
קורות	13854
קווים	13855
רוע	13856
שונ	13857
##כנות	13858
##דירות	13859
##לְ	13860
##מכת	13861
##מניות	13862
##pal	13863
האוניברסיטאות	13864
##ריכת	13865
החכם	13866
##וגרת	13867
##רוז	13868
מסעות	13869
הסוגים	13870
הפלא	13871
מעצמ	13872
ההופעה	13873
לימים	13874
בהור	13875
בהתייחס	13876
אמות	13877
##וויז	13878
לבו	13879
##סינו	13880
בחת	13881
הזמין	13882
בקטג	13883
בקצרה	13884
בכיכר	13885
קרול	13886
שביל	13887
השידור	13888
הפרטיים	13889
הלשון	13890
האמור	13891
יעזרו	13892
ועידת	13893
הרגילה	13894
הופעת	13895
רחמים	13896
רחוקים	13897
מלמעלה	13898
יוצאי	13899
וחשוב	13900
איתכם	13901
תאונה	13902
לנזק	13903
ang	13904
##eld	13905
מוגבר	13906
בשלבים	13907
המהפ	13908
##iver	13909
בברזיל	13910
בדרכי	13911
reg	13912
מניחים	13913
חולמים	13914
הוכח	13915
לרכישת	13916
האזרחי	13917
חמורים	13918
להתייעץ	13919
פוגש	13920
אוקיי	13921
מתוכנן	13922
work	13923
המובילה	13924
ברכבת	13925
ההיסטורית	13926
משמאל	13927
השאיפה	13928
הפופולריות	13929
').	13930
כבישים	13931
מתכננת	13932
כלכליות	13933
רוצח	13934
נלקח	13935
ההפרדה	13936
האיגוד	13937
להתווכח	13938
ct	13939
אסט	13940
זמנו	13941
חישוב	13942
טועים	13943
כמש	13944
לכול	13945
נאה	13946
נלך	13947
סבלו	13948
עוף	13949
עמידה	13950
עוסקת	13951
צרכי	13952
תרח	13953
##her	13954
##אווה	13955
להנות	13956
לאומיות	13957
לארגונים	13958
במדע	13959
באמנות	13960
החוקה	13961
התגל	13962
השדרה	13963
בעשור	13964
הסלול	13965
ההווה	13966
לשק	13967
מחבלים	13968
הציפור	13969
הציעו	13970
מקיפה	13971
מיץ	13972
מיסים	13973
בתורה	13974
הכניס	13975
לקרב	13976
הנשי	13977
לתוקף	13978
לתשומת	13979
##ינום	13980
בפומבי	13981
קרובי	13982
חלקיקים	13983
נגיד	13984
מטומט	13985
ביתר	13986
מילוי	13987
##גרף	13988
נקמה	13989
להפנות	13990
##ich	13991
פתוחות	13992
הריח	13993
אישום	13994
חלפו	13995
הפלילי	13996
במוסקבה	13997
כוחה	13998
rev	13999
che	14000
chi	14001
1941	14002
להאזין	14003
תצליח	14004
נכנסתי	14005
המגורים	14006
המוסדות	14007
משפטיות	14008
לוחם	14009
הכתובת	14010
exc	14011
ממליצה	14012
במגזר	14013
לניצ	14014
חפץ	14015
health	14016
לקבוצת	14017
המוקדמות	14018
פיתחו	14019
משמעת	14020
תפקידה	14021
press	14022
נפטרה	14023
נלחמים	14024
וואו	14025
שזכה	14026
לקריאה	14027
ולהתחיל	14028
המתאימים	14029
צוחק	14030
ליתר	14031
הבשורה	14032
שנולדו	14033
להקטין	14034
?‏	14035
bat	14036
gold	14037
iz	14038
pri	14039
ts	14040
tro	14041
will	14042
אורי	14043
בכול	14044
בַּ	14045
חשו	14046
יְ	14047
יוב	14048
רוסים	14049
תוע	14050
תמות	14051
##נרי	14052
##ly	14053
##תית	14054
##אנו	14055
##ָד	14056
##שאר	14057
##חורי	14058
שליליים	14059
אתך	14060
המלי	14061
המפק	14062
הייש	14063
##ילון	14064
##ילתי	14065
במראה	14066
אימוץ	14067
אוצ	14068
העשור	14069
השטחים	14070
##וצעה	14071
מאוכ	14072
משחר	14073
מתנת	14074
##זהיר	14075
כימי	14076
הקולות	14077
הפסיק	14078
מעשיו	14079
מעמדה	14080
מעודד	14081
הגבלות	14082
הבטחה	14083
##יאני	14084
הצופים	14085
לחופש	14086
מקוונים	14087
הכיוון	14088
לקחה	14089
##כוני	14090
##בונה	14091
הדעות	14092
##פתה	14093
מכוח	14094
בקומה	14095
שנצ	14096
שעשינו	14097
ולשת	14098
אנושיות	14099
לצפייה	14100
מזוהה	14101
שבחר	14102
בלגיה	14103
לרוח	14104
המעגל	14105
חשמליים	14106
רובוט	14107
פתחה	14108
בלימוד	14109
ההתא	14110
וחמש	14111
אבני	14112
מוזיאונים	14113
התאונה	14114
##ily	14115
המבוגרים	14116
##ives	14117
לאחסן	14118
המיועד	14119
שחקנית	14120
הרצאות	14121
פסל	14122
חומצות	14123
התפטר	14124
המושלמת	14125
תיקונים	14126
וירג	14127
ממוקמת	14128
ממוקמים	14129
שמאחורי	14130
הגלובלי	14131
דחף	14132
פיצה	14133
מדרגות	14134
מתקדמות	14135
ויטמינים	14136
ניגש	14137
הרווחה	14138
ויקיפדיה	14139
נבחרים	14140
מתייחסת	14141
תיעוד	14142
מליון	14143
סחורות	14144
הכרטיסים	14145
שכתבתי	14146
הדיווחים	14147
בלחץ	14148
הוכרז	14149
וטיפול	14150
)?	14151
dre	14152
high	14153
rock	14154
ודם	14155
חולם	14156
חידוש	14157
טול	14158
ייכנס	14159
סקו	14160
עינויים	14161
ריה	14162
ששר	14163
שחייה	14164
##look	14165
##ימות	14166
##שאי	14167
##חב	14168
שלמה	14169
שלבים	14170
להיסטוריה	14171
היוז	14172
האפק	14173
אחותו	14174
החוז	14175
שהילדים	14176
מתמטיקה	14177
ישפיע	14178
כיכר	14179
מעשנים	14180
לשחות	14181
לשאר	14182
הצריכה	14183
בתכנון	14184
לקוות	14185
##שותף	14186
הנורא	14187
ואינה	14188
הזמנת	14189
הדוח	14190
מבתי	14191
##ונאית	14192
מפנה	14193
בכפ	14194
ולפתח	14195
הביעו	14196
בטן	14197
##צהיר	14198
ביתם	14199
האמנה	14200
בזר	14201
מודיע	14202
וכלי	14203
מלאכים	14204
מוסלמי	14205
הדיאטה	14206
קודמת	14207
בתחנת	14208
הוריהם	14209
המטען	14210
תתנו	14211
אזרחיים	14212
דרש	14213
1940	14214
מוטר	14215
להתקבל	14216
סכסוכים	14217
לסיכום	14218
##כסוך	14219
דתות	14220
קנאה	14221
עתידיים	14222
ברצוני	14223
מחויבת	14224
לתיקון	14225
אמיץ	14226
app	14227
מדרגה	14228
הגילאים	14229
בלעדיו	14230
fire	14231
ההוראות	14232
הירידה	14233
הידיעות	14234
outlook	14235
מההתחלה	14236
הסוללה	14237
תעשייתי	14238
להיחשב	14239
paypal	14240
מיזוג	14241
מתפללים	14242
לחופשה	14243
ההיגיון	14244
71	14245
?'	14246
?)	14247
ak	14248
ben	14249
log	14250
אכלו	14251
בפה	14252
גייס	14253
דלי	14254
ונו	14255
ונים	14256
וצי	14257
ויכוח	14258
חצות	14259
חיפה	14260
יורה	14261
יניה	14262
יוביל	14263
כָּ	14264
לטר	14265
ניים	14266
נופלים	14267
סבירה	14268
עפר	14269
עסוקים	14270
פוקס	14271
שראה	14272
##עית	14273
##work	14274
##).	14275
שלק	14276
##ניף	14277
##נועי	14278
המיק	14279
להבדיל	14280
האגם	14281
אחיה	14282
החיל	14283
החירום	14284
החושך	14285
השול	14286
##רוט	14287
##נתח	14288
הגבלת	14289
הצמחים	14290
מיומנות	14291
##יפון	14292
ואלו	14293
הזרים	14294
##מציאות	14295
לתג	14296
##בתה	14297
##וניינים	14298
##ארס	14299
במקסיקו	14300
שבסופו	14301
המחמד	14302
ובמ	14303
לרשויות	14304
##יטת	14305
שקשור	14306
התקיפה	14307
פתחו	14308
סטארט	14309
##נציונ	14310
השתל	14311
טיפולי	14312
הודיעו	14313
הכוללים	14314
אגודת	14315
למחלה	14316
בפניו	14317
נבנתה	14318
אחוזי	14319
תיאוריות	14320
חולצה	14321
שחקני	14322
חתמו	14323
##ution	14324
זרועות	14325
שהיום	14326
מרחבי	14327
סכסוך	14328
share	14329
נטען	14330
לפגיעה	14331
לוחמי	14332
מבטא	14333
עתיק	14334
360	14335
בבעלי	14336
בספרו	14337
מנגנוני	14338
נפרדות	14339
הפיננסית	14340
פורטוגל	14341
ידידותי	14342
בעבודת	14343
זרימת	14344
פוטנציאלי	14345
ייחודיים	14346
center	14347
מיליארדי	14348
התזמורת	14349
ויקטוריה	14350
זוהר	14351
סגנונות	14352
92	14353
best	14354
fun	14355
just	14356
sam	14357
ti	14358
גיה	14359
גוש	14360
הולם	14361
ויה	14362
טקט	14363
יאה	14364
ענתה	14365
קורים	14366
קובי	14367
קיצור	14368
רה	14369
ריס	14370
רצועת	14371
תלות	14372
##מטר	14373
##טס	14374
##תח	14375
##ha	14376
##yt	14377
##סיים	14378
##עץ	14379
##זבו	14380
##שמות	14381
##ִם	14382
שלחו	14383
המרק	14384
##ובדי	14385
##ילום	14386
האבטלה	14387
##ואלה	14388
##מושת	14389
מהצ	14390
התנו	14391
העלויות	14392
הרף	14393
למנהל	14394
משלושה	14395
בענייני	14396
שהרבה	14397
שהדברים	14398
לעכשיו	14399
מתור	14400
הסיג	14401
הסתם	14402
כימיה	14403
##יעוד	14404
הקרה	14405
מעלים	14406
מעמיק	14407
מעבירים	14408
שאח	14409
לפעם	14410
לשבוע	14411
בהונג	14412
לחוף	14413
לחשבון	14414
מקומו	14415
בתואר	14416
בתחתית	14417
בחוף	14418
ואמרו	14419
שיצר	14420
והדבר	14421
מכות	14422
מכובד	14423
פער	14424
שמיעה	14425
##פקו	14426
פרסי	14427
ממאה	14428
ממלאים	14429
בפס	14430
בכי	14431
ארנ	14432
לכוחות	14433
##ont	14434
נוסד	14435
בטוויטר	14436
ובתי	14437
חיית	14438
מטפל	14439
לרמת	14440
ותמיכה	14441
הפרדה	14442
הלכנו	14443
מילת	14444
##ריקת	14445
רצף	14446
שרד	14447
להשתפר	14448
חששות	14449
ההתנחלויות	14450
וחס	14451
הליבה	14452
##גשג	14453
ושאל	14454
זקנים	14455
עברית	14456
רכבות	14457
המבוק	14458
השלבים	14459
עמוס	14460
בבריאות	14461
בגילאי	14462
הוכחות	14463
##ction	14464
להזיז	14465
האהובה	14466
##נחיות	14467
1959	14468
יגיד	14469
המשימות	14470
שמתרחש	14471
יצירתית	14472
עיתונים	14473
הנאשם	14474
בוחנים	14475
דמוקרטי	14476
דיאלוג	14477
העתק	14478
נאלצים	14479
בידור	14480
התמכרות	14481
הנדרשת	14482
המדויק	14483
תובנות	14484
כמיטב	14485
מתפתחת	14486
היוונית	14487
הנמוכה	14488
הרכוש	14489
סיכויי	14490
data	14491
,”	14492
gh	14493
mb	14494
sur	14495
בָּ	14496
בוצעו	14497
חנו	14498
חפים	14499
טריים	14500
כפרי	14501
כראש	14502
מַ	14503
משרה	14504
פופ	14505
ריש	14506
##כיה	14507
##יבים	14508
##hd	14509
##שנות	14510
##man	14511
הממו	14512
המונית	14513
הייחוד	14514
לאיס	14515
לאיחוד	14516
##ילס	14517
האז	14518
מהירים	14519
החינו	14520
השלט	14521
הרו	14522
הרומית	14523
##וסת	14524
מאדים	14525
מתלב	14526
הסמים	14527
הסברים	14528
הסגל	14529
הקצה	14530
הפט	14531
הפקול	14532
מעת	14533
מעבדה	14534
הגודל	14535
ההיפ	14536
##דרכה	14537
הבטי	14538
לשולחן	14539
לימדו	14540
##יאמי	14541
לחצות	14542
מיניים	14543
לתנאי	14544
לתפקד	14545
##כתבו	14546
לגובה	14547
שממש	14548
לספור	14549
בפיר	14550
בכנסת	14551
שנמ	14552
##ert	14553
קרבות	14554
לצרפת	14555
ניתנות	14556
נגיע	14557
ותח	14558
נתונה	14559
נפלה	14560
מוצד	14561
התקנת	14562
האיומים	14563
תרמו	14564
הוליווד	14565
נאסר	14566
היחידות	14567
ההתקפה	14568
להעיר	14569
בלבול	14570
במחלה	14571
לנע	14572
משחקת	14573
להכרה	14574
הניח	14575
מוגנים	14576
מוגברת	14577
לייצג	14578
##ames	14579
רוחב	14580
שומעת	14581
ירוקים	14582
ספורים	14583
דיונים	14584
תסריט	14585
מסויימים	14586
1963	14587
עורר	14588
##ורגני	14589
זכאים	14590
סיפק	14591
she	14592
צבאיות	14593
דעתם	14594
נצח	14595
שיקגו	14596
העימות	14597
הנפוץ	14598
מעוניינת	14599
המלאך	14600
מסיבת	14601
האלוה	14602
האינפלציה	14603
הפגנות	14604
תורמים	14605
היצורים	14606
הנקודות	14607
בפעילויות	14608
עניתי	14609
המורדים	14610
למקרה	14611
משכורת	14612
הקלעים	14613
המקוריים	14614
הזרוע	14615
מבעד	14616
##נתרופ	14617
וטכנולוגיה	14618
לילדי	14619
לחייך	14620
המלכותית	14621
הונאה	14622
לדרום	14623
התסריט	14624
האיטלקי	14625
יצירתיים	14626
secur	14627
בהגנה	14628
בשווקים	14629
skype	14630
פירושה	14631
ההיריון	14632
-'	14633
ds	14634
dc	14635
dv	14636
how	14637
lit	14638
nt	14639
tic	14640
בוסטון	14641
זולים	14642
חשה	14643
חתם	14644
טניס	14645
יפו	14646
כוב	14647
סוצי	14648
פוק	14649
קום	14650
תובע	14651
##בניה	14652
##צאות	14653
##זמת	14654
##חדות	14655
##way	14656
##gr	14657
##ject	14658
המצור	14659
המרד	14660
##ובדת	14661
האטל	14662
##יהו	14663
##ומטי	14664
##וממות	14665
מהנשים	14666
במשימה	14667
זהה	14668
אחזור	14669
איברים	14670
העידן	14671
השמר	14672
הרעים	14673
הרושם	14674
למדה	14675
מאזור	14676
בעסקים	14677
מסבירה	14678
הסוס	14679
הפנסיה	14680
מעיר	14681
הגופ	14682
הגירוש	14683
ליס	14684
ביצעו	14685
ביממה	14686
מחודש	14687
בהנה	14688
לחנות	14689
מקדם	14690
מקורי	14691
מיוצ	14692
##וונו	14693
לבטח	14694
בחיל	14695
להתאהב	14696
שמירת	14697
בגדול	14698
ממזרח	14699
שנדרש	14700
היווצרות	14701
לכפר	14702
קרני	14703
לצר	14704
לצער	14705
##ong	14706
##מרט	14707
##מרון	14708
תחיל	14709
לרבים	14710
למעמד	14711
במשטרה	14712
חושך	14713
נפול	14714
שרדו	14715
לטפח	14716
##צדק	14717
ניז	14718
קבוצ	14719
לזוז	14720
מוזמן	14721
במעלה	14722
ולהשתמש	14723
מתקפה	14724
המטפל	14725
המכיל	14726
ירדה	14727
השלג	14728
בברית	14729
הקבצים	14730
להאריך	14731
1962	14732
שולטים	14733
נרשמו	14734
התגלו	14735
שטרא	14736
צילומי	14737
1957	14738
דתיות	14739
סיפרתי	14740
המלאכים	14741
##ther	14742
350	14743
עתיקים	14744
lab	14745
יצרנית	14746
cop	14747
שווא	14748
החופשית	14749
גדלתי	14750
קובצי	14751
1918	14752
1917	14753
ענייני	14754
סירבה	14755
ולעולם	14756
סנטה	14757
גנב	14758
הכחול	14759
כוסות	14760
##ubl	14761
תירוץ	14762
כביסה	14763
איבדתי	14764
מוצלחים	14765
התחייבויות	14766
##obe	14767
האנטישמיות	14768
הסכימה	14769
אנטוני	14770
ליעד	14771
הדיגיטלי	14772
אחריהם	14773
תשובתי	14774
היגיון	14775
תדעו	14776
עיקרון	14777
מתעוררת	14778
נכתבו	14779
לינקולן	14780
בסבלנות	14781
global	14782
],	14783
sou	14784
זל	14785
זולה	14786
חפש	14787
ייל	14788
יאן	14789
לין	14790
לואי	14791
ניות	14792
עמות	14793
קנט	14794
קינ	14795
קובה	14796
קביעת	14797
רזי	14798
תוש	14799
##כנה	14800
##כמות	14801
##כודת	14802
##מעת	14803
##צויות	14804
##צלונה	14805
##וברים	14806
##קני	14807
##חול	14808
##ניר	14809
##ודיו	14810
האין	14811
##ופתי	14812
מהילדים	14813
במכתב	14814
##וקקים	14815
החצי	14816
החשיפה	14817
איסל	14818
איינשטיין	14819
##ידג	14820
אונים	14821
התוק	14822
השבעים	14823
למזרח	14824
מאלוהים	14825
משלב	14826
שהחל	14827
שהילד	14828
לעיצוב	14829
מתפתח	14830
ההפך	14831
לשות	14832
ליטול	14833
הצלת	14834
מקשיב	14835
מינה	14836
##סיבת	14837
הזרם	14838
הדרישה	14839
שימשו	14840
והה	14841
עצמות	14842
ברורות	14843
ברצועת	14844
מדגיש	14845
##וטב	14846
##יצים	14847
לסרב	14848
בכמויות	14849
שעולה	14850
לצרכי	14851
נשואה	14852
##סטל	14853
ילדיו	14854
תקצי	14855
##נדל	14856
רגלי	14857
המעסיק	14858
בדואר	14859
שקטה	14860
נקבל	14861
##חינת	14862
באמצעי	14863
יתחילו	14864
נחוש	14865
לטפס	14866
רובין	14867
המארח	14868
פלוס	14869
תגידי	14870
##פסו	14871
הורדת	14872
anal	14873
פורסמו	14874
מתקבל	14875
ארוכת	14876
אופציה	14877
ששני	14878
רוחניות	14879
לפרס	14880
הבחורה	14881
ניצב	14882
קליניים	14883
אקרא	14884
מאותם	14885
ההגעה	14886
בתוכנו	14887
סכין	14888
##ריזות	14889
שיכולתי	14890
צילומים	14891
הגבוהות	14892
השמחה	14893
ומערכות	14894
בביקור	14895
תבנית	14896
בעצמנו	14897
שוודיה	14898
אקדמית	14899
מעניינות	14900
צודקים	14901
מגדלים	14902
פציעות	14903
הרווחים	14904
ישתנה	14905
מחייבת	14906
שהממשלה	14907
דואגים	14908
פסיכולוגי	14909
צורכים	14910
לטעום	14911
שפורסמו	14912
יתקיים	14913
נפתחה	14914
לקיום	14915
אכזבה	14916
במדעי	14917
לגרמניה	14918
הטכנולוגיות	14919
מעריץ	14920
עיסוק	14921
דפוסי	14922
היפנית	14923
media	14924
האצבע	14925
ההישגים	14926
בנתונים	14927
(‏	14928
cn	14929
mot	14930
san	14931
wal	14932
ונק	14933
זיק	14934
חית	14935
יריות	14936
כבע	14937
כיתה	14938
כנסיות	14939
לווי	14940
נמד	14941
סדרות	14942
עוני	14943
פיסת	14944
תרי	14945
##למית	14946
##lo	14947
##טני	14948
##ניש	14949
המפות	14950
המפיק	14951
המסקנה	14952
לאופן	14953
לאנרגיה	14954
האוז	14955
האצבעות	14956
##לינג	14957
##מונ	14958
זהיר	14959
החומה	14960
התלב	14961
הרה	14962
הרבות	14963
##בלט	14964
##ייעו	14965
לעונה	14966
מתגורר	14967
##רוּ	14968
##לאס	14969
בשנתיים	14970
ההרס	14971
ההפג	14972
לשדה	14973
הציונות	14974
הציפורים	14975
##רגוני	14976
בהפר	14977
לחשב	14978
לחיז	14979
לחיצה	14980
אלך	14981
בחנו	14982
הזולת	14983
##מצו	14984
והופ	14985
##פתחה	14986
בספרי	14987
##וטט	14988
המשנה	14989
פרצה	14990
סינת	14991
בגבול	14992
ממא	14993
ממלא	14994
ממספר	14995
##ינוח	14996
בקש	14997
##לחמות	14998
כשנה	14999
לפנינו	15000
ולמצ	15001
בווע	15002
שבט	15003
ובא	15004
##נדב	15005
בלוח	15006
המתרח	15007
המתאר	15008
inn	15009
להצדיק	15010
תארו	15011
תגוב	15012
##פריסין	15013
לנשק	15014
מוריס	15015
יקיר	15016
הנייר	15017
כהה	15018
##בולנס	15019
פרישה	15020
מתקיימת	15021
עומס	15022
נדון	15023
בתיכון	15024
מומחי	15025
מוקדש	15026
פרסומות	15027
##גישו	15028
מותגים	15029
פעילותו	15030
תצפית	15031
שפעת	15032
##רכיבי	15033
אפשריות	15034
המוסלמי	15035
התכוונתי	15036
הפוליטיקאים	15037
ניקיון	15038
רומניה	15039
פקודה	15040
דוגמת	15041
adobe	15042
הפתעות	15043
בסרטון	15044
פירוק	15045
ספינה	15046
האגדה	15047
בעיירה	15048
בפעולות	15049
בבעיה	15050
נפגעים	15051
אינסטינק	15052
פותחת	15053
סעיפים	15054
סופרמן	15055
בצרפתית	15056
מפעילים	15057
פסיכולוגית	15058
לובש	15059
הטכנולוגי	15060
סיגריה	15061
link	15062
אסטרטגיית	15063
אסטרונו	15064
מסחריים	15065
מרוויחים	15066
שגויה	15067
להפגין	15068
ai	15069
dig	15070
ian	15071
line	15072
{\	15073
אומות	15074
ביוון	15075
דפי	15076
וגור	15077
חנה	15078
טמ	15079
יורים	15080
לכוון	15081
מרוויח	15082
פמיני	15083
צפה	15084
קין	15085
קמה	15086
קיפ	15087
תמרי	15088
תוצרת	15089
##פעת	15090
##nal	15091
אתנו	15092
הממ	15093
##ודק	15094
הידר	15095
היפני	15096
##ליסטית	15097
באיס	15098
החומ	15099
העדר	15100
העמוד	15101
העובר	15102
השכל	15103
הרדי	15104
מאוז	15105
מאכלים	15106
##יקוח	15107
משלחת	15108
בעובדה	15109
שהוז	15110
מתפק	15111
מספיקה	15112
הקטל	15113
בשוו	15114
מעתה	15115
לשכב	15116
##יאן	15117
מקוונת	15118
אמיתיות	15119
הנאום	15120
הזכיר	15121
##נסטון	15122
עצי	15123
##אותו	15124
עדשות	15125
הטבות	15126
הראוי	15127
ממילא	15128
לסח	15129
בפשטות	15130
שעובר	15131
שעובד	15132
שעשוי	15133
יחזרו	15134
##דויק	15135
לצבור	15136
אינץ	15137
##ink	15138
כולסטרול	15139
ידעת	15140
נגרם	15141
הפרופיל	15142
גרסת	15143
יעדי	15144
אלימה	15145
שקיימת	15146
משתפים	15147
אירו	15148
אספר	15149
ומדינות	15150
צעצוע	15151
רובוטים	15152
##נצואלה	15153
##זרית	15154
פלילי	15155
מלכים	15156
להצט	15157
אבח	15158
הורמון	15159
##בחון	15160
הפעילים	15161
רשומות	15162
פוליטיקאי	15163
הלבנה	15164
למחש	15165
כחברה	15166
מנחה	15167
תיאוריה	15168
real	15169
מניחה	15170
cha	15171
היסטור	15172
להסתדר	15173
לשחקן	15174
העולמות	15175
יגדל	15176
מהיכן	15177
הנפוצות	15178
ודאות	15179
מוטלת	15180
adhd	15181
הפתוח	15182
מכשול	15183
כריסט	15184
החופשה	15185
פטנט	15186
המקצועיים	15187
לאהבה	15188
צמחי	15189
שהחוק	15190
תדירות	15191
חיפש	15192
דמיינו	15193
מיתוס	15194
שידור	15195
הבטחות	15196
צאצא	15197
תסתכל	15198
ממקורות	15199
החיוך	15200
הצוואר	15201
##uck	15202
לאזרחים	15203
כלשהם	15204
market	15205
מתלוננים	15206
הסיסמה	15207
ולמצוא	15208
bur	15209
ci	15210
cro	15211
call	15212
wom	15213
דחה	15214
וטרי	15215
ונתן	15216
כז	15217
לָ	15218
מרא	15219
ננו	15220
נופ	15221
ערכת	15222
צבי	15223
קפא	15224
שרא	15225
שגרת	15226
שֶׁ	15227
##מחות	15228
##ַר	15229
##ֹד	15230
##ורין	15231
היוצרים	15232
האסון	15233
##ופסור	15234
אחלה	15235
התמקד	15236
העניים	15237
העבודות	15238
השפות	15239
השנתית	15240
##יקל	15241
##יקלי	15242
משנות	15243
משוג	15244
משמר	15245
בעיצ	15246
בעוצמה	15247
##ייסים	15248
שהרג	15249
שהוביל	15250
לעול	15251
הקואליציה	15252
בשמו	15253
שאול	15254
שאמרת	15255
הגנרל	15256
##מינג	15257
##מיכת	15258
ההורה	15259
ההכר	15260
הבחינה	15261
ביז	15262
הציגה	15263
לחנך	15264
מיטב	15265
##ווט	15266
הכור	15267
##סיבית	15268
אלרג	15269
אלגור	15270
בחסות	15271
בספורט	15272
לתמונה	15273
##ינוק	15274
ראיונות	15275
מפיק	15276
עבורו	15277
##מען	15278
נערים	15279
מרפ	15280
בלוג	15281
נפוצים	15282
חזית	15283
להפך	15284
להפיל	15285
שכנים	15286
שכבה	15287
##בירו	15288
תערוכות	15289
מודים	15290
##צרטים	15291
גורלו	15292
מתחם	15293
##פסון	15294
במעמד	15295
מוגדרת	15296
בשיטת	15297
בנאום	15298
מסתובב	15299
אגיד	15300
שנותרו	15301
##ירושים	15302
##ote	15303
משקיע	15304
מנוסה	15305
אינטגר	15306
להקפיד	15307
הרחם	15308
הרחובות	15309
השבועות	15310
נטילת	15311
תרגילים	15312
הישראליות	15313
חרקים	15314
האופל	15315
עתיקה	15316
הרעש	15317
מתארת	15318
קונצ	15319
הכתוב	15320
שגריר	15321
אינספור	15322
לגילוי	15323
הקמתה	15324
מפעלים	15325
פחמימות	15326
אריאל	15327
במכשיר	15328
נתקלים	15329
שוחררו	15330
הסעודית	15331
בהסכם	15332
פונקציונ	15333
קטלני	15334
אלקטרוניים	15335
שוויץ	15336
שעליהם	15337
ייחודיות	15338
התמקדות	15339
##point	15340
הקלאסית	15341
במחשבה	15342
אינטנסיבי	15343
הנוגעים	15344
שמגיעים	15345
##סטוסטרון	15346
הדולר	15347
מריחואנה	15348
תקציר	15349
facebook	15350
וכדומה	15351
נפוליאון	15352
bel	15353
cat	15354
fre	15355
ful	15356
ig	15357
ios	15358
pet	15359
ut	15360
בנשים	15361
גביע	15362
ושר	15363
ותר	15364
וראיתי	15365
זבל	15366
טיים	15367
ימצא	15368
כדרך	15369
נרג	15370
נביא	15371
סופו	15372
עולות	15373
קומות	15374
ריאות	15375
תולדות	15376
##נזי	15377
##דלת	15378
##מיו	15379
##תת	15380
##שומים	15381
##30	15382
##וללת	15383
המכר	15384
להמיר	15385
##ודנט	15386
היוקר	15387
היוצר	15388
##וארט	15389
במפעל	15390
החוקר	15391
החזרת	15392
כללה	15393
כללו	15394
העצה	15395
השמיני	15396
##בלב	15397
למנות	15398
למבק	15399
שהגע	15400
לערך	15401
מתנהג	15402
מעסיק	15403
הגמר	15404
##מינל	15405
הבכור	15406
מחוס	15407
היהודיים	15408
מינ	15409
הכינו	15410
ואבא	15411
ואחיות	15412
##רחבה	15413
מכינים	15414
בסכום	15415
לתנאים	15416
לתכנית	15417
להתלבש	15418
עדכונים	15419
הטרג	15420
לדרישות	15421
הזהיר	15422
בקט	15423
בפחות	15424
ולנסות	15425
##נקוט	15426
שבוצעו	15427
המקורות	15428
בטכנולוגיות	15429
לרוסיה	15430
בזירה	15431
הסיום	15432
הספרדית	15433
שריר	15434
שרציתי	15435
תערוכה	15436
הרגלי	15437
הרגישה	15438
סטריט	15439
רחל	15440
התחומים	15441
נאמנים	15442
במימון	15443
טיפה	15444
ניירות	15445
ניסינו	15446
להעיד	15447
עליית	15448
רעידות	15449
אבחון	15450
חסרה	15451
יקום	15452
להכנס	15453
להכחיש	15454
מתקיימים	15455
בשינוי	15456
המכריע	15457
תיכון	15458
המהות	15459
להיזהר	15460
ממוצא	15461
תצוגה	15462
הצליל	15463
נרשם	15464
ציבוריות	15465
כספ	15466
sha	15467
הפוליטיות	15468
תזונ	15469
##ידושים	15470
חרדים	15471
עולמות	15472
מפלצת	15473
האופוזיציה	15474
הנפוצים	15475
האספקה	15476
סלע	15477
יזמים	15478
בורא	15479
שנקבע	15480
אקדמיים	15481
מייצרת	15482
max	15483
המפורסמים	15484
נוצרי	15485
manag	15486
הפריטים	15487
סירבו	15488
ולעזור	15489
פותחים	15490
מגדירים	15491
heart	15492
פצצות	15493
השאירו	15494
הפופולרי	15495
במטוס	15496
עגבניות	15497
dire	15498
פשעי	15499
למשתמש	15500
הנצרות	15501
נלמד	15502
העדיפויות	15503
בבתים	15504
##box	15505
לבחירות	15506
מלהיות	15507
איזשהו	15508
לרצוח	15509
עיכוב	15510
אלקטר	15511
השוויון	15512
האולטימ	15513
ללימודי	15514
הממוקם	15515
קטינים	15516
קרדיט	15517
ובראשונה	15518
בתיאטרון	15519
##שֶׁר	15520
שונאת	15521
security	15522
81	15523
89	15524
ear	15525
ger	15526
jour	15527
let	15528
ot	15529
sn	15530
ted	15531
vol	15532
אוח	15533
גנטית	15534
וידע	15535
חלו	15536
חדה	15537
טרח	15538
טאי	15539
טאון	15540
ימצאו	15541
יבינו	15542
כובע	15543
מְ	15544
סמס	15545
פלו	15546
פניהם	15547
פינוי	15548
קטר	15549
רים	15550
שירי	15551
‏(	15552
##למד	15553
##בם	15554
##גידים	15555
##פוק	15556
##פלה	15557
##קגו	15558
##שִ	15559
##ֶת	15560
המגרש	15561
במבחן	15562
באילו	15563
החגים	15564
אישרה	15565
העולה	15566
השמי	15567
השמונים	15568
הרוחות	15569
למקס	15570
בעדינות	15571
##יימר	15572
שהמח	15573
##לויז	15574
כימ	15575
##ושל	15576
##ותרפיה	15577
הקימה	15578
בשכר	15579
מעוות	15580
שאפת	15581
ההשראה	15582
##רכיה	15583
בהשתתפות	15584
מיכל	15585
לבסס	15586
הנתיב	15587
כאמצעי	15588
מצבה	15589
הזוכה	15590
##בוך	15591
והחל	15592
##חתים	15593
##איון	15594
ברבעון	15595
ידיד	15596
ידיעה	15597
שליט	15598
שליח	15599
##וטוקול	15600
מגנים	15601
בקידום	15602
מדיני	15603
מפסיקים	15604
שנמצאו	15605
שנחש	15606
המחויבות	15607
השיעורים	15608
הלגי	15609
קטעים	15610
ממשלתי	15611
בזבוז	15612
##ריקאים	15613
התקן	15614
המתחרים	15615
תעל	15616
הולכות	15617
אומגה	15618
##style	15619
במחירים	15620
ביקוש	15621
##בחנים	15622
ורוד	15623
במוצר	15624
במוזיקה	15625
המצרים	15626
טבעיות	15627
בשיפור	15628
##קשן	15629
גילתה	15630
התרומה	15631
יספיק	15632
##oll	15633
גלולות	15634
האדון	15635
להיום	15636
באיזור	15637
שנתן	15638
##rael	15639
המימון	15640
child	15641
אבינו	15642
להסתגל	15643
טראומה	15644
משיח	15645
בתוכה	15646
למדעים	15647
1951	15648
1955	15649
ary	15650
שילם	15651
החשוד	15652
בחייך	15653
פקיסטן	15654
קארי	15655
גדלו	15656
law	15657
יזכה	15658
המודרניים	15659
מכשולים	15660
וכיום	15661
קובעת	15662
שהאנשים	15663
ההזדמנויות	15664
להדפיס	15665
תדמית	15666
הבהיר	15667
מברך	15668
המבקשים	15669
חתיכת	15670
התייחסו	15671
דרכם	15672
מסורתית	15673
iii	15674
תואם	15675
פנטזיה	15676
מטיילים	15677
מחלקות	15678
צאצ	15679
יוקרה	15680
מתעוררים	15681
פושעים	15682
השגרירות	15683
מסלולי	15684
התבוננות	15685
הייחודי	15686
בטורקיה	15687
פרוייקט	15688
הפשוטה	15689
euro	15690
שקראתי	15691
הרוצח	15692
displaystyle	15693
הפקולטה	15694
הלגיטי	15695
83	15696
93	15697
91	15698
eb	15699
view	15700
אראה	15701
דונם	15702
זית	15703
חבורה	15704
טפ	15705
יוסי	15706
ירגיש	15707
יובל	15708
פז	15709
צמצום	15710
שילדים	15711
שָׁ	15712
##בְ	15713
##מְ	15714
##מטיים	15715
##be	15716
##צץ	15717
##טלה	15718
##ספו	15719
##שכה	15720
##cri	15721
##ניינות	15722
המעי	15723
האטרק	15724
##ומור	15725
##ליטו	15726
אימ	15727
אוטי	15728
התועלת	15729
השקר	15730
משור	15731
בעמדה	15732
מתכו	15733
מתבו	15734
מסין	15735
מסדר	15736
ישבו	15737
הפכתי	15738
מערבית	15739
שאותם	15740
ליין	15741
לחצים	15742
##סיפור	15743
בחל	15744
ואשתו	15745
מצלמת	15746
##נסקי	15747
מבש	15748
בסתיו	15749
יהושע	15750
ברפואה	15751
מדגם	15752
שמקור	15753
לוודאי	15754
המשקה	15755
מגוונים	15756
בכרטי	15757
##סקנות	15758
לכסף	15759
קרוא	15760
בטכני	15761
ילמדו	15762
ולאפשר	15763
מרשימה	15764
לרדוף	15765
מילולית	15766
##וריום	15767
נפילת	15768
התקיימו	15769
בריאן	15770
המתרג	15771
אוהבות	15772
חשף	15773
שחל	15774
התעסוקה	15775
181	15776
##itut	15777
פלילית	15778
חדשני	15779
בסיבוב	15780
תאומים	15781
עסקת	15782
במחלות	15783
הניחו	15784
מתקשים	15785
קריטית	15786
המשפיעים	15787
גלובלי	15788
ציורים	15789
מוחל	15790
ערוצים	15791
למוח	15792
מעוררת	15793
מניע	15794
דרק	15795
##יךָ	15796
אקטיבי	15797
תפקידם	15798
כספית	15799
להזין	15800
israel	15801
שנוצרו	15802
1953	15803
הקורא	15804
הקורסים	15805
חילוף	15806
השמלה	15807
טכנולוגי	15808
בחלקו	15809
כפוף	15810
נאלצה	15811
מדויקים	15812
ולעבוד	15813
יציאת	15814
גבינה	15815
נפרדת	15816
##able	15817
התפקידים	15818
אבותינו	15819
להישמע	15820
like	15821
המאוחדות	15822
בצעדים	15823
הנבחר	15824
שנגרם	15825
##קטוריון	15826
לשמירה	15827
מאורגן	15828
בהיותו	15829
מסייעים	15830
פוסטים	15831
המעורבים	15832
אֲשֶׁר	15833
techn	15834
בתרגום	15835
au	15836
gar	15837
ru	15838
tre	15839
אדר	15840
בילה	15841
בפתח	15842
גע	15843
גדר	15844
ונות	15845
יידע	15846
כפרים	15847
נשות	15848
נעה	15849
נכנ	15850
נסיון	15851
קיסר	15852
שדו	15853
תכנן	15854
##דוד	15855
##בשה	15856
##מז	15857
##he	15858
##ונת	15859
##סיות	15860
##ְׂ	15861
##mer	15862
לאבא	15863
לאסור	15864
אחרא	15865
באקדמיה	15866
החיצונית	15867
החתימה	15868
איבר	15869
איפור	15870
התכוון	15871
משוח	15872
לעזרת	15873
##יעדר	15874
הפין	15875
הפירות	15876
הפלטפור	15877
הגיא	15878
לפצות	15879
לשגר	15880
לשלוש	15881
מחסום	15882
הציוני	15883
בהחלטה	15884
מקשיבים	15885
##ווין	15886
לבת	15887
לבנו	15888
##סיפה	15889
אלברט	15890
##אלוג	15891
הדוד	15892
הדוג	15893
הדפסה	15894
שיבוא	15895
##ויבים	15896
והמ	15897
לתושבי	15898
להתרגל	15899
ידיעות	15900
שליטת	15901
לדירה	15902
סימון	15903
בגידה	15904
##יצות	15905
כשלע	15906
שנכתב	15907
שבאו	15908
תקוות	15909
מטפ	15910
##בדק	15911
קטעי	15912
האמא	15913
##כימו	15914
נפגעו	15915
thing	15916
נהגו	15917
התייע	15918
התיירים	15919
התינוקות	15920
תוכנן	15921
הדינ	15922
חלשה	15923
שתיית	15924
?",	15925
הלאומיות	15926
ורוח	15927
במוסדות	15928
המצרי	15929
פרימי	15930
110	15931
כנשיא	15932
מסתורי	15933
ליידי	15934
לייזר	15935
##ility	15936
170	15937
160	15938
עקבי	15939
מוקף	15940
מרכזית	15941
שכלל	15942
למחצה	15943
עמוקים	15944
char	15945
דאגות	15946
המגוון	15947
הרצוי	15948
פסנתר	15949
אצלך	15950
חקירת	15951
יצאנו	15952
רומנטי	15953
השחקנית	15954
הוגנת	15955
זיהומים	15956
ביצועי	15957
להירדם	15958
מזרחי	15959
הועבר	15960
טרוריסטים	15961
מצוינים	15962
משרתים	15963
בעייתי	15964
פיצויים	15965
מהאוכלוסייה	15966
cloud	15967
ארכיטקט	15968
##כרויות	15969
לצעוד	15970
התרחשו	15971
גלידה	15972
ובריאות	15973
בכתובת	15974
באתרי	15975
מרוכ	15976
למגוון	15977
המסורתית	15978
מלאכותי	15979
שהגוף	15980
שיצאו	15981
וללכת	15982
עַל	15983
מסלולים	15984
access	15985
הפלישה	15986
מושפעים	15987
אֱלֹה	15988
ספונט	15989
טיילור	15990
ההלוואה	15991
שראינו	15992
כשלעצ	15993
bm	15994
cs	15995
den	15996
dra	15997
fbi	15998
hor	15999
ham	16000
mid	16001
בשיא	16002
חזה	16003
חומת	16004
יופיע	16005
כיהן	16006
מרוש	16007
ניט	16008
נזר	16009
סרי	16010
קדושים	16011
ריקים	16012
##בנציונ	16013
##מניים	16014
##ye	16015
##פעה	16016
##פלל	16017
##זינים	16018
המנצח	16019
##ודשיים	16020
##ילין	16021
האבוד	16022
##וארת	16023
##ואיציה	16024
##ופון	16025
##ופאית	16026
במאות	16027
במורד	16028
באד	16029
באליפות	16030
החזיר	16031
אימו	16032
התל	16033
התנצ	16034
השלושה	16035
הרוק	16036
הרצועה	16037
למראה	16038
משכנ	16039
שהק	16040
שהות	16041
מסכן	16042
מסרט	16043
##לאו	16044
הפשי	16045
הפונק	16046
בשפת	16047
מעכשיו	16048
מעסיקים	16049
שאיפות	16050
הגיש	16051
הגבעה	16052
ההופעות	16053
ליבו	16054
בידיו	16055
לחדור	16056
מימוש	16057
בתוצאות	16058
וארגונים	16059
מצויים	16060
##ויס	16061
והס	16062
מכין	16063
לגבות	16064
לגבול	16065
הטרא	16066
הטווח	16067
לדף	16068
לדמות	16069
מגמות	16070
סינים	16071
בפוסט	16072
בכאב	16073
לצרוך	16074
מזכירה	16075
שבג	16076
ניתוחים	16077
הפרויקטים	16078
לכלל	16079
עדיפות	16080
האמבטיה	16081
##orm	16082
קצרות	16083
##שלומים	16084
התקפי	16085
##יכוב	16086
תעודות	16087
שחזר	16088
הדיונים	16089
טיפוח	16090
יוצאות	16091
למשק	16092
מתקפות	16093
מתקשרים	16094
המשפחתי	16095
קיבלת	16096
##צונו	16097
ששום	16098
השפיע	16099
גלוב	16100
ספקי	16101
כחצי	16102
בפנינו	16103
ספיר	16104
אמריקנית	16105
הסכמי	16106
משקפיים	16107
המרכזיות	16108
סגורה	16109
בסיסיות	16110
עזבה	16111
##חיתות	16112
להסתמך	16113
להקריב	16114
משאיות	16115
משאירים	16116
זכותו	16117
##ung	16118
הטרדה	16119
אליהו	16120
לימודיו	16121
נישוא	16122
יצרני	16123
##ement	16124
להתחמק	16125
סובלת	16126
פוגעת	16127
white	16128
קובעים	16129
מתוכננת	16130
ica	16131
חריג	16132
למתן	16133
התרגיל	16134
תשתיות	16135
מהתק	16136
השאיר	16137
ממצאי	16138
והשני	16139
במכירות	16140
grand	16141
קניית	16142
משולב	16143
התשעים	16144
האיסור	16145
ללחץ	16146
פלטפורמת	16147
הלוחמים	16148
לאתגר	16149
נוזלים	16150
ממושכת	16151
מסייעת	16152
associ	16153
הסחורה	16154
צינור	16155
קעקוע	16156
להחלטה	16157
להינשא	16158
התמוט	16159
dream	16160
3d	16161
ale	16162
bet	16163
big	16164
elect	16165
found	16166
gi	16167
ju	16168
mu	16169
va	16170
ונה	16171
וילה	16172
זן	16173
חרא	16174
חזור	16175
חומות	16176
טכניים	16177
יאללה	16178
נרות	16179
פנ	16180
קילו	16181
קסום	16182
תלך	16183
תיתן	16184
##נבול	16185
##געים	16186
##ייד	16187
##וטר	16188
##סמות	16189
##ֶץ	16190
##dy	16191
##dge	16192
המולדת	16193
להיט	16194
להיב	16195
להזיק	16196
לארי	16197
##ובנים	16198
##ריץ	16199
##ריצים	16200
##ופסה	16201
מהאי	16202
במיקום	16203
העושר	16204
העוגה	16205
השכי	16206
למלך	16207
שהמצב	16208
מתכון	16209
##טייה	16210
הקניות	16211
בשלטון	16212
מער	16213
##יוט	16214
##וכחה	16215
לשכת	16216
לשניים	16217
לשנוא	16218
בהשק	16219
מקדי	16220
מיטה	16221
בתנ	16222
הכישלון	16223
הנך	16224
##וינים	16225
מכבד	16226
פעול	16227
מבוא	16228
לתבוע	16229
לתנועה	16230
ברנ	16231
בגדר	16232
ממדי	16233
מפוק	16234
ולגרום	16235
בניס	16236
קרנות	16237
יודעות	16238
לצפון	16239
נשמר	16240
##ons	16241
##סטון	16242
תקנה	16243
##פטו	16244
ובלי	16245
לרעיון	16246
לרשימת	16247
המעשים	16248
נהדרים	16249
דימוי	16250
##שאית	16251
##שאלה	16252
##בקשים	16253
שחש	16254
אומל	16255
וחברים	16256
פנייה	16257
לנפש	16258
במושב	16259
אוכלת	16260
story	16261
ושלושה	16262
##מנתי	16263
רכשה	16264
140	16265
לפרויקט	16266
ממוקד	16267
ירצו	16268
למוצרים	16269
ההשכלה	16270
זכויותיהם	16271
מסויימת	16272
הרוחניים	16273
בתוכי	16274
ate	16275
הפסיקה	16276
מונחים	16277
ממשלתית	16278
צוותי	16279
הצהרות	16280
גופני	16281
ley	16282
עתיקות	16283
לאיכות	16284
ספורטאים	16285
היצירת	16286
פיקוד	16287
מהעיר	16288
##ople	16289
להיעלם	16290
וְה	16291
##פגניסטן	16292
האקדמי	16293
התיאור	16294
שווייץ	16295
דואג	16296
עיקריות	16297
ממציא	16298
לחייו	16299
people	16300
יומיומי	16301
אנדרו	16302
אפקטיבית	16303
times	16304
המיוחדים	16305
המוקדמים	16306
נמנעת	16307
מגרש	16308
ציטוט	16309
מרצון	16310
דגימות	16311
institut	16312
בהזד	16313
היוזמה	16314
איסלנד	16315
gir	16316
ob	16317
pat	16318
port	16319
ונג	16320
זז	16321
זווית	16322
חיד	16323
חוכמה	16324
כרוני	16325
לִ	16326
סנקציות	16327
פרות	16328
קיט	16329
רהיטים	16330
תפריט	16331
##נרים	16332
##מחה	16333
##ek	16334
##געת	16335
##ric	16336
##ֵל	16337
##day	16338
הימנית	16339
היכרות	16340
לאזורים	16341
##ילבניה	16342
האבות	16343
האוסף	16344
##ריא	16345
במשותף	16346
באוכל	16347
איזור	16348
התגור	16349
העבדות	16350
למקור	16351
מאפיין	16352
מאידך	16353
משקר	16354
הסיר	16355
הסודות	16356
כימיים	16357
##יעוט	16358
הפקת	16359
##יונר	16360
ביבי	16361
מחוסר	16362
הצג	16363
##משק	16364
בהיש	16365
לחק	16366
מיצ	16367
מימין	16368
הכעס	16369
שיגיע	16370
מכוונים	16371
מכריע	16372
מדוי	16373
מדגי	16374
לוה	16375
בכלים	16376
##ציץ	16377
פרנס	16378
מגמה	16379
סיבים	16380
לספוג	16381
ולצ	16382
לכלי	16383
קרטר	16384
בנושאי	16385
תקריות	16386
##ומיניום	16387
תחרויות	16388
נתח	16389
הפרוייקט	16390
המער	16391
התקנים	16392
קיבולת	16393
שחיתות	16394
המאמינים	16395
כדורי	16396
ההתב	16397
משמעותה	16398
משמעותו	16399
רבקה	16400
אבטלה	16401
להשכלה	16402
להכשיר	16403
מופעל	16404
במעבדה	16405
טריליון	16406
מתקפת	16407
state	16408
בראשו	16409
בעיקרון	16410
אגדה	16411
שומרי	16412
בתקופות	16413
מותאם	16414
שצריכים	16415
פעילותה	16416
חוזים	16417
המגבלות	16418
לברך	16419
סוכנים	16420
שמועות	16421
##ורגיה	16422
ism	16423
פועלות	16424
העתידי	16425
1933	16426
##ָּה	16427
הוסיפו	16428
שזוהי	16429
הועברו	16430
master	16431
חריפה	16432
וקרא	16433
וביקש	16434
הדלתות	16435
המונחים	16436
ממחצית	16437
דיגיטליים	16438
ומוות	16439
פיגוע	16440
התהליכים	16441
]].	16442
נוקשה	16443
העניקה	16444
##coin	16445
לערבים	16446
בתרופות	16447
הפיקוח	16448
השגריר	16449
science	16450
המדהים	16451
בחופשיות	16452
סינגפור	16453
טרגדיה	16454
ולספק	16455
תפוחי	16456
תמצית	16457
המסורתי	16458
bitcoin	16459
התצוגה	16460
למועדון	16461
האפליקציה	16462
excel	16463
dvd	16464
לצערנו	16465
'?	16466
05	16467
cry	16468
fri	16469
gb	16470
hill	16471
lan	16472
oec	16473
ry	16474
rad	16475
tu	16476
בידע	16477
גנו	16478
גלים	16479
גנרל	16480
השה	16481
ויד	16482
וינה	16483
ייג	16484
כבן	16485
לרג	16486
למוש	16487
לילי	16488
לשהות	16489
ממתין	16490
ניפ	16491
נחק	16492
סלב	16493
סייע	16494
עוגה	16495
עידוד	16496
פד	16497
צרכנים	16498
רזה	16499
תיקים	16500
##בחים	16501
##מדי	16502
##טלים	16503
##קשים	16504
שלחה	16505
המלים	16506
הירו	16507
היפות	16508
הימני	16509
##שרדי	16510
##ומד	16511
במנה	16512
באוז	16513
החובות	16514
##ידית	16515
השירה	16516
הרט	16517
למאה	16518
מאלו	16519
מארה	16520
מאנשי	16521
##יינט	16522
##וגי	16523
שהשי	16524
הסמוך	16525
הקווים	16526
מעשן	16527
שאמרו	16528
אנס	16529
ההיא	16530
לפקח	16531
הבנו	16532
הבאת	16533
הצביע	16534
לחוסר	16535
בחומר	16536
הדירוג	16537
אפור	16538
ברדיו	16539
להתמודדות	16540
הטייס	16541
ממקור	16542
בכוונת	16543
שנמצאת	16544
בוה	16545
הביטו	16546
המחזה	16547
נעלמים	16548
תחפ	16549
מטריד	16550
תהיינה	16551
נפלו	16552
חזבאללה	16553
המסגרת	16554
יעמוד	16555
##שלנות	16556
הנופש	16557
##enc	16558
##יכשל	16559
ללדת	16560
יתח	16561
שרצה	16562
##icle	16563
##ited	16564
ההתקנה	16565
מלפני	16566
קודש	16567
נסבל	16568
רבין	16569
ביקרו	16570
##rol	16571
פורום	16572
מתקשר	16573
תכנות	16574
מולקולות	16575
הלבנים	16576
יסייע	16577
ערפ	16578
עיניה	16579
סגורים	16580
וייתכן	16581
המגזר	16582
זרוע	16583
למדעי	16584
אצטרך	16585
הארמון	16586
לסיוע	16587
ימינה	16588
המושל	16589
עבדות	16590
חשבונאות	16591
הנאצי	16592
קומיקס	16593
גריי	16594
מעדיפה	16595
פופולריים	16596
שאינך	16597
מעניקים	16598
הערביות	16599
וילסון	16600
##וסקופ	16601
שורשים	16602
ולבנות	16603
סקרנות	16604
המבקש	16605
הקלפים	16606
הגילוי	16607
להרחיק	16608
##יפתח	16609
ולתמיד	16610
הווידאו	16611
הטעויות	16612
ממצרים	16613
בכתבה	16614
בשירותי	16615
האיסלאם	16616
נעימים	16617
וויליאם	16618
שולחנות	16619
בקבוקי	16620
הציגו	16621
רוצחים	16622
ארדואן	16623
ממושך	16624
הפורום	16625
מופתע	16626
באותן	16627
הטכניקה	16628
במלואו	16629
חיזוק	16630
ללונדון	16631
אוקספורד	16632
בכפוף	16633
האטלנטי	16634
ההתבגרות	16635
oecd	16636
07	16637
ka	16638
old	16639
pi	16640
tm	16641
בבה	16642
גיטרה	16643
הווי	16644
חיצונית	16645
כו	16646
כרית	16647
מולד	16648
נכות	16649
פים	16650
פטי	16651
שן	16652
שובר	16653
תוויות	16654
״,	16655
##נעים	16656
##ממים	16657
##רוס	16658
##פיהם	16659
##חיד	16660
##חורים	16661
##cc	16662
##mo	16663
היקרים	16664
הירדן	16665
לאלימות	16666
##ילוי	16667
האסטרו	16668
##שראת	16669
##שרונות	16670
##ופולי	16671
##ליטות	16672
במרבית	16673
אושרה	16674
התנה	16675
העוסקים	16676
השמו	16677
##בלין	16678
למל	16679
מאופ	16680
בעניינים	16681
מתרכז	16682
מתגע	16683
מתפקיד	16684
מתנצל	16685
ישבתי	16686
בשבילה	16687
אנרגיות	16688
ליבי	16689
מחזה	16690
בהשראת	16691
לחיל	16692
לחולל	16693
מקי	16694
בתדירות	16695
הכתר	16696
אלפא	16697
אלרגיות	16698
הנשיאות	16699
מצטרף	16700
##פתעה	16701
##וזי	16702
ברוס	16703
ברקע	16704
##נגו	16705
שמנה	16706
##פקטיבה	16707
שליחת	16708
.....	16709
בקמפוס	16710
לסגת	16711
בבוא	16712
שערי	16713
##נקי	16714
הבישול	16715
תקרא	16716
##נדס	16717
תחזוקה	16718
##בדקו	16719
גרעין	16720
נפץ	16721
בדלת	16722
המסחרי	16723
להפתיע	16724
##בועים	16725
יתנו	16726
מוסיפה	16727
תאילנד	16728
במחלקה	16729
מופיעות	16730
למשפטים	16731
עומדות	16732
קולוני	16733
ניסים	16734
ליישום	16735
להסתיים	16736
פרסומת	16737
מובטח	16738
אינטואי	16739
top	16740
iso	16741
חקלאים	16742
שבעים	16743
הידועים	16744
נדרשו	16745
כבש	16746
האוכלוסיה	16747
השמאלית	16748
מתעלמים	16749
הנפשי	16750
phot	16751
בורח	16752
הלחם	16753
אלבומים	16754
שגרירות	16755
שריפה	16756
נפלאות	16757
מתאימות	16758
השוטר	16759
מסתכלת	16760
יועצים	16761
פליטות	16762
roy	16763
סבירים	16764
פתיחה	16765
החולצה	16766
הצטרפה	16767
##נשטיין	16768
מתמחה	16769
סטנדרטים	16770
מאובטח	16771
השופטת	16772
מבולבל	16773
האיראנים	16774
ממתינים	16775
נרחבת	16776
הדוקטורט	16777
האידיאלי	16778
אשליה	16779
במועצת	16780
מבוקש	16781
נורווגיה	16782
אופטימיזציה	16783
הרמב	16784
ומכאן	16785
האוהדים	16786
מגוחך	16787
הקפיטליזם	16788
##שווית	16789
ששמעתי	16790
##לויזיה	16791
06	16792
cas	16793
ft	16794
hi	16795
tion	16796
west	16797
גוט	16798
דנים	16799
ורדן	16800
חומה	16801
טבק	16802
יונ	16803
ככלי	16804
לנגד	16805
מבה	16806
נשת	16807
סיא	16808
סלק	16809
סוחרים	16810
צמר	16811
קן	16812
שבור	16813
שואה	16814
תחק	16815
תגרום	16816
##יזר	16817
##צנה	16818
##טפל	16819
##קשו	16820
##זרי	16821
##זמן	16822
##זמות	16823
##pa	16824
##--	16825
שלמרות	16826
להרכיב	16827
הימי	16828
היציבות	16829
##ריף	16830
##יהור	16831
##ומכת	16832
##שיבת	16833
במזון	16834
במארס	16835
באינ	16836
החכמה	16837
החוכמה	16838
##וצאים	16839
##וערת	16840
##ועלות	16841
##וסטים	16842
בעלים	16843
שהשתת	16844
לעקוף	16845
ישנות	16846
הפיס	16847
הפסיקו	16848
בשיר	16849
בשליטת	16850
מעידים	16851
מעמדו	16852
מעבדות	16853
מעמיקה	16854
אנדי	16855
הגנים	16856
הגלק	16857
##דרלה	16858
##וכות	16859
##וכניות	16860
ליגת	16861
ביטויים	16862
מחודשת	16863
הציונית	16864
הציוויליזציה	16865
##ישבים	16866
לחיס	16867
מקביל	16868
מינון	16869
הכיתה	16870
##יפייה	16871
מציינים	16872
הדגם	16873
הדוגמה	16874
שיז	16875
עצבים	16876
בסקר	16877
להתנהגות	16878
לגבולות	16879
ידידים	16880
טובת	16881
הטירה	16882
הטלת	16883
המשורר	16884
בגלוי	16885
##מידע	16886
בקטע	16887
בניסוי	16888
לכאב	16889
לצמיחה	16890
ובט	16891
ותוכניות	16892
במשא	16893
חושפת	16894
המעוניינים	16895
נקט	16896
להפע	16897
ומנה	16898
שכבת	16899
הרגעים	16900
התער	16901
פלדה	16902
מלכה	16903
אבול	16904
קבצי	16905
ביקורים	16906
מוריד	16907
מתישהו	16908
הנהגת	16909
הנהיגה	16910
הפעיל	16911
במעצר	16912
במוצרים	16913
ולהמשיך	16914
מוגדרים	16915
טבעו	16916
אשמים	16917
עמך	16918
אופנוע	16919
הוודאות	16920
האדומים	16921
ספקות	16922
הבחין	16923
למוסיקה	16924
בדרכם	16925
עבודתה	16926
שהתרחש	16927
מקורו	16928
להאט	16929
דיווחה	16930
ויזה	16931
אנגלי	16932
פסוק	16933
שוקל	16934
צבעי	16935
משיגים	16936
שניתנה	16937
תופעת	16938
צפיות	16939
מינימלי	16940
##עללות	16941
פקידים	16942
הנפוצה	16943
בביק	16944
ובעל	16945
פחדתי	16946
סוללות	16947
plan	16948
פופולריות	16949
גיבוי	16950
נפלאים	16951
האבנים	16952
המוצא	16953
שקיבלתי	16954
הנערים	16955
about	16956
פיתח	16957
פצצה	16958
מאמצי	16959
שוטף	16960
מפעילה	16961
ברגעים	16962
דמותו	16963
מהדורה	16964
טהורה	16965
היבשת	16966
האסלאמי	16967
משלושת	16968
ובהם	16969
המאפשרים	16970
קניתי	16971
ביצעה	16972
וּת	16973
הקימו	16974
ויתר	16975
זורם	16976
גיבורים	16977
ובוודאי	16978
אפקטיבי	16979
חטיבת	16980
עשיתם	16981
שכתוב	16982
התסמינים	16983
מתפלל	16984
ופעילות	16985
ibm	16986
##זולוציה	16987
העבירו	16988
great	16989
אנונימי	16990
סיבוכים	16991
מתקרבים	16992
העמוקה	16993
לשדרג	16994
compan	16995
פתאומי	16996
שלמדתי	16997
הכלכליות	16998
נברא	16999
תזכורת	17000
ויהי	17001
הממוצעת	17002
94	17003
bio	17004
ck	17005
han	17006
les	17007
led	17008
less	17009
ow	17010
ten	17011
אסף	17012
בלט	17013
דוק	17014
וגר	17015
זמר	17016
חשוך	17017
טוקיו	17018
יון	17019
כתר	17020
כפיים	17021
כותרות	17022
ללה	17023
לבלתי	17024
מלים	17025
נבחן	17026
ציונים	17027
תראי	17028
##כנס	17029
##דלה	17030
##לכתי	17031
##הל	17032
##צעות	17033
##ּת	17034
##סנים	17035
##net	17036
##ga	17037
המיסים	17038
להסיק	17039
##דין	17040
מהמט	17041
במיט	17042
אחותה	17043
החטא	17044
הענן	17045
##ביבים	17046
למשימה	17047
משומ	17048
מתמדת	17049
מתגעגע	17050
מסבירים	17051
הסג	17052
הסבירה	17053
הסלע	17054
הסנאט	17055
ישו	17056
ישא	17057
בשער	17058
מעולים	17059
##יוניים	17060
הגעה	17061
##מישים	17062
ההשת	17063
ביג	17064
##רגישו	17065
לחו	17066
לחלל	17067
אמנת	17068
##וויל	17069
בתזונה	17070
הכבו	17071
##סיכולוג	17072
בחייה	17073
##רתם	17074
שייק	17075
והרי	17076
מכס	17077
מכבדים	17078
יהלום	17079
לתרבות	17080
שלישיים	17081
בגינה	17082
כשש	17083
כשלא	17084
לסמן	17085
בפסטיבל	17086
בכנסייה	17087
לפניכם	17088
ארון	17089
ילכו	17090
השיג	17091
מרובים	17092
הפרטית	17093
##arn	17094
יערות	17095
נהניתי	17096
הרגשת	17097
אוהדים	17098
מוכשר	17099
קורט	17100
קורסי	17101
##בקת	17102
תוכלי	17103
הופנה	17104
אומנם	17105
כלליות	17106
##itch	17107
הדיור	17108
בהתנהגות	17109
להערכת	17110
חלוקה	17111
לנמל	17112
הוראת	17113
הורגים	17114
ana	17115
הממשלות	17116
שיעשה	17117
##בטחת	17118
##רפתקה	17119
גיליון	17120
רשומים	17121
מביך	17122
178	17123
כוחם	17124
##רטיב	17125
מובנת	17126
תפילות	17127
קליני	17128
המלצה	17129
החדשנות	17130
יאמר	17131
תספק	17132
שמונים	17133
פסח	17134
שיתופי	17135
זכרונות	17136
מונעים	17137
שיכולות	17138
##נחלות	17139
שטויות	17140
חקירות	17141
התפוצ	17142
לפגישה	17143
הארצית	17144
##טריון	17145
שייכות	17146
כבני	17147
כבדה	17148
בייבי	17149
פקודות	17150
טכנולוגיים	17151
שביצע	17152
וירקות	17153
last	17154
הוצגו	17155
תוספות	17156
express	17157
החזקת	17158
פירוט	17159
ההרשמה	17160
מסרבים	17161
הדמוקרטים	17162
בתערוכה	17163
למתוח	17164
usb	17165
able	17166
קלאסית	17167
הפיזיקה	17168
התפרצות	17169
סבירות	17170
לטענת	17171
נבחרו	17172
לקיחת	17173
לובשת	17174
אכזרי	17175
בעבודות	17176
ייראה	17177
הבולטים	17178
סביבו	17179
הגאולה	17180
key	17181
טיעון	17182
המוסרית	17183
הגרעיני	17184
שמטרתו	17185
ביניכם	17186
every	17187
לנטוש	17188
סמסונג	17189
az	17190
jav	17191
tor	17192
ting	17193
uv	17194
york	17195
year	17196
בטה	17197
ושית	17198
ווסט	17199
ומצא	17200
זא	17201
טוט	17202
יושר	17203
כמע	17204
עוצרים	17205
עשיית	17206
צבר	17207
רפי	17208
שון	17209
ששה	17210
שוות	17211
תמה	17212
‏).	17213
##צרת	17214
##ויה	17215
##עורי	17216
##זקת	17217
שלוק	17218
המרוץ	17219
להביס	17220
היפר	17221
היומית	17222
לאנגליה	17223
##שיט	17224
במפרץ	17225
זהותו	17226
באס	17227
החני	17228
איטית	17229
איידס	17230
השליח	17231
##וגמת	17232
מתוס	17233
הספה	17234
##טיוב	17235
ישמע	17236
##ראן	17237
הקשות	17238
הקיס	17239
בשלושת	17240
מעשיות	17241
##נתק	17242
הגלי	17243
ההנ	17244
ההשתתפות	17245
הבכיר	17246
ליידע	17247
מחזיר	17248
אמבטיה	17249
##ווני	17250
##ווירה	17251
הכיוונים	17252
לקלוט	17253
בחול	17254
בחורים	17255
בחומרים	17256
שיכ	17257
שיודע	17258
##קרית	17259
בסוכ	17260
1920	17261
שמעה	17262
##שובים	17263
הטיל	17264
מגביר	17265
...)	17266
סינ	17267
בקרה	17268
שעמד	17269
עודד	17270
##נקן	17271
קרק	17272
בלשון	17273
במשבר	17274
האמנים	17275
כתבת	17276
המסיי	17277
הנוצרי	17278
הנוצרית	17279
נקייה	17280
האיברים	17281
דימום	17282
inv	17283
תעודה	17284
הרגש	17285
חשוד	17286
התחשבות	17287
אישורים	17288
חלשים	17289
חלמתי	17290
מועילים	17291
##יזים	17292
מתחרים	17293
##פסות	17294
מורשה	17295
##roid	17296
מביט	17297
למוזיאון	17298
##זיקים	17299
מצבם	17300
בברצלונה	17301
המגיעים	17302
המגזין	17303
dead	17304
מבוססי	17305
במאמץ	17306
הקדמה	17307
גאון	17308
שארית	17309
עתידי	17310
נוכחים	17311
תמכו	17312
האלוהי	17313
תבניות	17314
מפרט	17315
1938	17316
1934	17317
מכתבי	17318
קומפ	17319
פוגשים	17320
פטור	17321
החקיקה	17322
לתינוקות	17323
בהקמת	17324
פופולרית	17325
##לווים	17326
ולקחת	17327
חריף	17328
אינסולין	17329
חפשו	17330
##oney	17331
מתנהגים	17332
משכורות	17333
העדן	17334
שברצ	17335
##ריטוריה	17336
מאחוריו	17337
נסיך	17338
הפדרלית	17339
ויקרא	17340
פיגועים	17341
אובייקט	17342
קתרין	17343
הפיכת	17344
השחורים	17345
previ	17346
airport	17347
סטנדרטי	17348
בבניית	17349
לקריירה	17350
וויליאמס	17351
##טיסטיקה	17352
הנבחרת	17353
המחוזי	17354
איטלקי	17355
award	17356
הכותב	17357
המלחמות	17358
השבטים	17359
פרשנות	17360
anti	17361
שתרצה	17362
שתרצו	17363
מדהימות	17364
הקתולית	17365
html	17366
jew	17367
הסייבר	17368
הניסויים	17369
איפשהו	17370
באטמן	17371
כמחצית	17372
מאפייני	17373
direct	17374
journal	17375
girl	17376
previous	17377
";	17378
dia	17379
far	17380
ial	17381
mal	17382
pdf	17383
און	17384
גינה	17385
דרא	17386
דודה	17387
וקל	17388
זיכ	17389
טביעת	17390
יוכ	17391
יפע	17392
ישיבות	17393
ככ	17394
לַ	17395
לורד	17396
נופים	17397
נחתם	17398
סיק	17399
סומך	17400
פנסיה	17401
ציינה	17402
תיה	17403
תמך	17404
תנסו	17405
תאונת	17406
##דס	17407
##לד	17408
##br	17409
##au	17410
##פיעו	17411
##uct	17412
##ורש	17413
##ניט	17414
המשו	17415
להניע	17416
האובי	17417
##ומון	17418
##מויים	17419
בממל	17420
במחקרים	17421
במדויק	17422
באק	17423
בארגונים	17424
התדר	17425
התנסות	17426
התנדבות	17427
למין	17428
מאכל	17429
מסמל	17430
הסד	17431
##טיילים	17432
הפית	17433
בשפות	17434
מעז	17435
הגופים	17436
הגבלה	17437
ההבטחה	17438
ההלכה	17439
לשלול	17440
ביצה	17441
מחאה	17442
מחלוקות	17443
היהודיות	17444
היהלומים	17445
בתיהם	17446
##בורי	17447
בחדשות	17448
##כוך	17449
הנגר	17450
הזע	17451
שיב	17452
אפליה	17453
והתרבות	17454
מדריכים	17455
מדריד	17456
שמלה	17457
##פקות	17458
שליחות	17459
בגוגל	17460
##יציות	17461
##ונכם	17462
לסמים	17463
בבק	17464
ארצי	17465
מזינים	17466
במקומו	17467
הביולוגי	17468
בטון	17469
##סטיים	17470
מרצה	17471
תהיי	17472
נפשו	17473
בדור	17474
אלייך	17475
משתנות	17476
בדיכאון	17477
אירא	17478
אסורה	17479
ומנהל	17480
שתדע	17481
האימפריאלי	17482
תעשיות	17483
אהרון	17484
הדיסק	17485
תשאל	17486
ההתע	17487
מושלמים	17488
מועבר	17489
##פסל	17490
לשימור	17491
עליונות	17492
חופשיות	17493
ושום	17494
קולט	17495
שיעזור	17496
דויד	17497
המכילים	17498
##שיגן	17499
שנותן	17500
תפיסות	17501
שומנים	17502
דרומה	17503
1946	17504
חוזרות	17505
תצא	17506
אביך	17507
הפסוק	17508
תומכי	17509
העצם	17510
זוגי	17511
ידועות	17512
זכותם	17513
צפונה	17514
תרגישו	17515
1954	17516
כבשים	17517
צלילים	17518
ומעל	17519
ומערכת	17520
מתעניינים	17521
שיקולים	17522
זיהו	17523
לנקודת	17524
הנאמנות	17525
מלווים	17526
יפנית	17527
phen	17528
...".	17529
צווא	17530
להתאחד	17531
פיננסית	17532
ואמרתי	17533
המוצעים	17534
האשמות	17535
שוכב	17536
שוכח	17537
דגמים	17538
לצעוק	17539
פיתרון	17540
קבעו	17541
ומשפחת	17542
רכיב	17543
רכיבה	17544
חובבי	17545
##מפרטורת	17546
מהדף	17547
קונסט	17548
box	17549
ייסון	17550
קיצונית	17551
המנוח	17552
הדיגיטלית	17553
האיטלקית	17554
נרחבים	17555
כריסטיאן	17556
הייחודית	17557
החזיקו	17558
הטיפולים	17559
היצרן	17560
הספציפי	17561
יוונית	17562
נלהב	17563
שנבחר	17564
ובנוסף	17565
לביקורת	17566
צבאות	17567
מצטרפים	17568
זמננו	17569
בקטגוריה	17570
אוצרות	17571
little	17572
bot	17573
cp	17574
fam	17575
gm	17576
ko	17577
ner	17578
pm	17579
pp	17580
rus	17581
אנת	17582
בילד	17583
בוצעה	17584
גייט	17585
הִ	17586
ושות	17587
וקי	17588
וורד	17589
וכנראה	17590
טונות	17591
ינס	17592
כוז	17593
נורת	17594
סרג	17595
סאלי	17596
פון	17597
שרות	17598
שכונה	17599
שדבר	17600
##בילות	17601
##ּא	17602
##ton	17603
##פז	17604
##וול	17605
##ונטו	17606
##סח	17607
##קפת	17608
##אנה	17609
##sh	17610
##ner	17611
##fer	17612
##ְת	17613
##ותן	17614
שלחתי	17615
המצי	17616
המרכיב	17617
היפנים	17618
לאישור	17619
לאדמה	17620
האיי	17621
האוזן	17622
מהוות	17623
##וקראינה	17624
החט	17625
איד	17626
איסט	17627
אובר	17628
התשי	17629
התנגד	17630
כלבי	17631
העבדים	17632
העמוק	17633
השביל	17634
הרכבות	17635
##וענים	17636
מאס	17637
##ייבת	17638
לעלייה	17639
מתחד	17640
מסיימים	17641
הסוהר	17642
##זהרו	17643
שאבא	17644
ההמ	17645
ההצהרה	17646
##מתנה	17647
לחצי	17648
לחברי	17649
הכבישים	17650
בחינה	17651
בחלום	17652
מצעד	17653
הזוכים	17654
##לקל	17655
הדח	17656
הדדי	17657
הדעה	17658
לדורות	17659
בגב	17660
בגאווה	17661
בקבלת	17662
בכיס	17663
בניש	17664
קראת	17665
נשבר	17666
נשמת	17667
הביצוע	17668
המחלות	17669
המחלוקת	17670
המקובל	17671
בטוחות	17672
נגע	17673
בליל	17674
ותקשורת	17675
הפרו	17676
למערכות	17677
נהוג	17678
##צלחת	17679
אסתר	17680
ומור	17681
הסיור	17682
האימונים	17683
שרירי	17684
מוכשרים	17685
וככל	17686
תשנה	17687
##מליות	17688
מועילה	17689
רבנים	17690
125	17691
ברחו	17692
ורע	17693
ולהג	17694
המציא	17695
sta	17696
קריאות	17697
תתקיים	17698
מומחיות	17699
הוור	17700
פרסומים	17701
המהגרים	17702
ספקים	17703
להיכנע	17704
למוצר	17705
יבין	17706
מספקות	17707
צבעוני	17708
הפסח	17709
סיפורה	17710
נטול	17711
חקלאי	17712
המושגים	17713
נזקים	17714
רווחי	17715
הקולק	17716
מתאפשר	17717
מפרסמים	17718
הוצאו	17719
קונבנציונ	17720
הפתרונות	17721
תוסף	17722
הושלמה	17723
ההכשרה	17724
העיתונים	17725
where	17726
נמכרו	17727
blue	17728
סירוב	17729
יציבים	17730
במתמטיקה	17731
תפסו	17732
מבריק	17733
מתרגלי	17734
מעודדת	17735
ומשם	17736
הכרזת	17737
חתימה	17738
חתיכות	17739
התפרצויות	17740
ייקוב	17741
ברגשות	17742
נמשכה	17743
מאוחרת	17744
מוקדמים	17745
בשמירה	17746
הספירה	17747
שיחקו	17748
באחרונה	17749
הפסיכ	17750
סטודיו	17751
בתאריך	17752
הפקודה	17753
בעיתונות	17754
שגורמים	17755
הצילומים	17756
מחולק	17757
מקסימום	17758
ספורות	17759
והגנה	17760
צוחקים	17761
בכדורגל	17762
סביבי	17763
סניפים	17764
היווני	17765
לתעשיית	17766
school	17767
טיעונים	17768
גידולים	17769
open	17770
מחליפים	17771
אדריכלות	17772
הימנעות	17773
מסתיימת	17774
חיכיתי	17775
כריסטופר	17776
bal	17777
ira	17778
ive	17779
lc	17780
sing	17781
tur	17782
uk	17783
בילי	17784
גוס	17785
גלא	17786
גנטי	17787
וצוות	17788
זם	17789
חוצה	17790
חותם	17791
לוד	17792
מבל	17793
מבלבל	17794
סירות	17795
צלב	17796
צנוע	17797
שְׁ	17798
ששווה	17799
תיו	17800
##מכרות	17801
##ימו	17802
##פוני	17803
##עבד	17804
##ארת	17805
##ik	17806
##ִית	17807
##יתור	17808
##נוקת	17809
המיזם	17810
היוונים	17811
##ריכי	17812
מהלכים	17813
במדרגות	17814
##כלות	17815
אחמד	17816
החכמים	17817
איבוד	17818
השמן	17819
הרוו	17820
הרמות	17821
##ועדות	17822
למבנה	17823
מאוי	17824
מתפתחות	17825
מתנחלים	17826
מסקנה	17827
##טינה	17828
הפקה	17829
בשלהי	17830
מעיל	17831
הגעתם	17832
ההט	17833
לפרי	17834
לשליטה	17835
ביניים	17836
ביבשת	17837
##רכשו	17838
הצצה	17839
הצגה	17840
בהנחה	17841
הכוס	17842
הכיכר	17843
מציעות	17844
##בוט	17845
##ויף	17846
והני	17847
לתמיד	17848
לגידול	17849
שמך	17850
שמחתי	17851
הטה	17852
פרלמנט	17853
##ונזיה	17854
לסכן	17855
בפחד	17856
ולשל	17857
לנוס	17858
נשלט	17859
##יגות	17860
##נדבים	17861
הפרסים	17862
נפשות	17863
המעט	17864
המעקב	17865
המעבדה	17866
בזאת	17867
התקד	17868
בדיוני	17869
שתח	17870
המתקד	17871
המתחם	17872
הסימן	17873
הספרדי	17874
קיומם	17875
שכנות	17876
התינוקת	17877
אדומה	17878
שחזור	17879
פתחתי	17880
התעקש	17881
חדשניים	17882
להצלת	17883
במחנות	17884
מתחייב	17885
לזיהוי	17886
עליונה	17887
במעבר	17888
במעגל	17889
ולהביא	17890
תכנים	17891
בשיחות	17892
התאגיד	17893
נושאי	17894
##מפיא	17895
אגף	17896
ערוצי	17897
ירוקה	17898
בתקציב	17899
בארמון	17900
משקפי	17901
המגמה	17902
נרצה	17903
סוכני	17904
משימוש	17905
def	17906
show	17907
1952	17908
הקשורה	17909
סיימון	17910
העיכול	17911
הוגו	17912
מתארים	17913
מפרץ	17914
יפגע	17915
ההצעות	17916
להתחשב	17917
חכמת	17918
בולטים	17919
הנחיתה	17920
היעדים	17921
פינלנד	17922
לניש	17923
השוואת	17924
הפיזית	17925
בבחירת	17926
לשווא	17927
סודיות	17928
הפסקתי	17929
בפינה	17930
רודף	17931
ואיכות	17932
יוזמות	17933
בוגד	17934
ביער	17935
קיצוניים	17936
האינטליג	17937
פונקציות	17938
שהגיעה	17939
אלקטרונית	17940
המיוחדת	17941
רלוונטיות	17942
שעומדים	17943
הישראליים	17944
design	17945
הגיבו	17946
נתקלתי	17947
נפגשנו	17948
והפעם	17949
מיליארדים	17950
בנאדם	17951
הפסיכולוגיה	17952
הוכיחו	17953
פומבית	17954
לאמריקה	17955
בכושר	17956
האולימפיים	17957
ופתאום	17958
מהכלא	17959
מאוכלוסיית	17960
הדיפלומ	17961
בחתונה	17962
הרוויח	17963
ast	17964
dom	17965
east	17966
mem	17967
ris	17968
sen	17969
בנס	17970
וראה	17971
ויפה	17972
ודרום	17973
טבעות	17974
כבל	17975
כְּ	17976
מבלה	17977
מנגד	17978
עט	17979
קיוו	17980
שדים	17981
##גית	17982
##axy	17983
##קטי	17984
##זא	17985
##חבת	17986
המול	17987
המפר	17988
המונים	17989
המפתחות	17990
המינון	17991
היוע	17992
עליות	17993
האמונות	17994
##ופע	17995
במסיבת	17996
החצר	17997
החנויות	17998
אייז	17999
התלו	18000
התפל	18001
התבט	18002
התומכים	18003
התחדשות	18004
למלחמת	18005
למפלגה	18006
מאיימת	18007
##יינית	18008
מתנהל	18009
מסקר	18010
כיפת	18011
בשמות	18012
מעידה	18013
##נתים	18014
הגיון	18015
ליז	18016
הצלה	18017
הצבת	18018
הציעה	18019
בהירות	18020
אמיתות	18021
הכין	18022
בחולים	18023
בחושך	18024
ואיש	18025
מצור	18026
הדומה	18027
שימשה	18028
והרג	18029
מבצעת	18030
##פיכך	18031
מדג	18032
שמנים	18033
ידיעת	18034
ראסל	18035
כשבוע	18036
ולמעשה	18037
ולפיכך	18038
לנושאים	18039
יחול	18040
קרוס	18041
קרקעות	18042
לצור	18043
במקצת	18044
השיח	18045
מרובה	18046
מרקס	18047
הלשכה	18048
##יטליה	18049
שקיפות	18050
משתפר	18051
ועושה	18052
שנהיה	18053
##חויות	18054
בריטים	18055
שתש	18056
##דשנות	18057
משפיעות	18058
חשק	18059
התחזית	18060
כמנהל	18061
מלאכה	18062
כדוגמת	18063
בהתלהבות	18064
טיפוסי	18065
ההתפתחויות	18066
חלופות	18067
וחסר	18068
במחזור	18069
פנימיות	18070
קלפים	18071
להשאר	18072
כשהגע	18073
ולהגיע	18074
ולהגן	18075
מתקבלת	18076
הטיסות	18077
התאוששות	18078
רשע	18079
רשומה	18080
פרסמו	18081
רפאל	18082
רפאים	18083
פרוץ	18084
הציבוריים	18085
ניצלו	18086
הבינלאומיות	18087
אמריקן	18088
לתקופת	18089
מותם	18090
למיטה	18091
עירוני	18092
כשאין	18093
כשאנשים	18094
תסייע	18095
חתמה	18096
שותפי	18097
מדען	18098
משיב	18099
משימת	18100
פאול	18101
פאונד	18102
שנוס	18103
נחשפו	18104
חגיגה	18105
שמתאים	18106
##פתיע	18107
שביקש	18108
מפורסמת	18109
חיוניות	18110
מפרסם	18111
ומתמיד	18112
דמוקרטיות	18113
העתידית	18114
להתחייב	18115
קומדיה	18116
החזקים	18117
בולטת	18118
המורכבת	18119
המורכבות	18120
שקיבלה	18121
במתן	18122
class	18123
abc	18124
קלארק	18125
השתמשתי	18126
המשותפים	18127
ייצא	18128
בקולנוע	18129
טכניקה	18130
החיסכון	18131
המוכרת	18132
אהבתו	18133
מאוחדים	18134
עייפים	18135
מבעלי	18136
טקסטים	18137
נבדק	18138
וניסיון	18139
אטרקטיבי	18140
חמצון	18141
water	18142
האפשריים	18143
דינא	18144
החיצוניים	18145
המוקדמת	18146
נמנעים	18147
הדאגה	18148
לחיילים	18149
לערער	18150
בפלור	18151
הקלאסי	18152
שהוקם	18153
הבקבוק	18154
הגאווה	18155
שנכנס	18156
שטרם	18157
כלשהן	18158
פגיעות	18159
בפתרון	18160
תרכובות	18161
נהרסו	18162
הטלפונים	18163
galaxy	18164
הפיגוע	18165
התמוטטות	18166
ושיתוף	18167
[...]
