<unk>	0
<s>	0
</s>	0
.	-3.12884
,	-3.33513
▁של	-4.27551
▁את	-4.29358
ים	-4.36699
ה	-4.40496
▁	-4.52005
ת	-4.69747
ו	-4.72121
▁ה	-4.74095
▁לא	-4.77888
▁על	-4.78036
▁ב	-4.83853
ות	-4.92973
▁ל	-4.9948
▁ו	-5.05275
▁"	-5.10011
י	-5.1234
▁זה	-5.2364
"	-5.26457
?	-5.27786
▁הוא	-5.30791
▁מ	-5.41685
▁מה	-5.42336
:	-5.45223
-	-5.56593
▁עם	-5.58864
▁או	-5.62726
▁כל	-5.64787
▁ש	-5.6873
▁(	-5.79595
ם	-5.80608
'	-5.82058
▁אני	-5.83286
▁היא	-5.86188
▁יותר	-5.89041
▁גם	-5.94098
▁יש	-5.98125
".	-6.03275
▁אם	-6.07513
▁כי	-6.09691
▁וה	-6.10377
▁הם	-6.15209
)	-6.15928
▁היה	-6.17667
▁אבל	-6.23778
ב	-6.29986
נו	-6.3137
▁-	-6.35045
▁כדי	-6.37041
▁כ	-6.37964
▁להיות	-6.38478
▁–	-6.39316
▁רק	-6.41603
▁לי	-6.42978
▁שה	-6.43714
▁אחד	-6.45859
ל	-6.47862
▁יכול	-6.55138
▁אתה	-6.55747
▁כך	-6.568
▁כמו	-6.57308
▁ביותר	-6.6822
ר	-6.69044
▁שלך	-6.69979
▁זו	-6.71415
ן	-6.72472
ית	-6.74428
▁לה	-6.75311
▁עד	-6.75348
▁זאת	-6.77135
▁אל	-6.79874
▁האם	-6.82118
!	-6.83279
▁אותו	-6.83545
▁ידי	-6.87926
▁הזה	-6.87994
▁לו	-6.88244
▁אנחנו	-6.88345
▁בין	-6.89256
▁בכל	-6.90356
▁שלנו	-6.91706
▁כמה	-6.93103
▁וב	-6.93511
▁שלי	-6.94249
▁היו	-6.94297
▁ג	-6.94504
▁אין	-6.9548
▁מאוד	-6.96218
▁מי	-6.97738
▁ול	-6.99577
▁ת	-7.00015
תי	-7.01254
▁לך	-7.02482
▁אז	-7.03554
▁לפני	-7.03684
s	-7.03954
▁לאחר	-7.04961
▁אנשים	-7.0572
▁אך	-7.07516
▁י	-7.08654
...	-7.0972
▁לעשות	-7.1002
▁דבר	-7.10815
▁צריך	-7.11089
▁המ	-7.11672
ך	-7.11677
▁עוד	-7.13084
▁שהוא	-7.13811
▁עבור	-7.1395
▁כבר	-7.14929
ס	-7.15235
יה	-7.16032
▁נ	-7.16108
▁טוב	-7.17224
▁איך	-7.1833
▁שלו	-7.19394
▁הרבה	-7.19733
▁לנו	-7.1981
▁כאשר	-7.21318
ג	-7.2168
ח	-7.22812
▁ישראל	-7.23417
▁ומ	-7.23882
▁אשר	-7.24362
▁שלהם	-7.24849
מ	-7.25999
▁באופן	-7.26894
▁אלה	-7.27766
▁בו	-7.27889
▁אחר	-7.27965
▁אמר	-7.29055
▁שלא	-7.30511
",	-7.30514
▁אנו	-7.30585
▁היום	-7.31099
).	-7.31128
▁רוצה	-7.31141
;	-7.31501
▁שם	-7.31677
▁אדם	-7.32325
▁אתם	-7.3283
▁שנים	-7.32866
▁אחת	-7.34299
ק	-7.34767
א	-7.36202
▁שני	-7.38523
▁ולא	-7.39202
▁זמן	-7.40736
▁העולם	-7.41163
יות	-7.41577
ון	-7.43726
▁בה	-7.4377
▁כן	-7.43813
▁להם	-7.43892
יו	-7.45118
▁יכולים	-7.45596
▁הייתה	-7.45813
▁“	-7.45893
▁אותם	-7.46784
▁יום	-7.46998
▁יהיה	-7.48276
▁בית	-7.4976
▁פי	-7.50088
▁מספר	-7.51021
▁שאני	-7.51707
אני	-7.51756
▁שיש	-7.51822
▁פעם	-7.52015
▁ניתן	-7.52994
▁כאן	-7.533
▁שלכם	-7.53356
ד	-7.53475
▁תמיד	-7.5386
▁אחרים	-7.53907
מה	-7.53918
▁אי	-7.54455
▁לכל	-7.54466
▁בשנת	-7.54504
▁חלק	-7.54761
▁אחרי	-7.54909
▁'	-7.55999
▁אף	-7.5638
▁שהם	-7.56771
▁א	-7.56783
▁רבים	-7.57404
▁אותה	-7.58088
▁למה	-7.59238
”	-7.60322
▁בעולם	-7.60596
▁משהו	-7.60851
▁שנה	-7.61278
▁אלא	-7.61424
ש	-7.61788
ט	-7.63194
▁בני	-7.63583
ני	-7.66037
▁עדיין	-7.66221
▁כש	-7.66226
▁ללא	-7.66326
▁אפשר	-7.66493
▁אומר	-7.67748
▁לכם	-7.6919
▁דרך	-7.70663
▁עכשיו	-7.71004
▁לראות	-7.71662
▁שב	-7.72188
▁באמת	-7.72524
▁שמ	-7.73158
נים	-7.73483
▁הראשון	-7.74401
או	-7.7483
כ	-7.75436
▁במהלך	-7.75763
▁אותי	-7.75781
▁מדי	-7.76386
."	-7.7681
יים	-7.76854
▁פשוט	-7.76897
▁אפילו	-7.77284
ז	-7.77505
▁לב	-7.77788
▁שאתה	-7.78426
▁הזמן	-7.78468
▁הן	-7.78799
▁האדם	-7.79526
▁הספר	-7.79747
▁אולי	-7.79761
▁בבית	-7.79888
▁ואת	-7.80263
נה	-7.80694
▁שזה	-7.81367
▁חיים	-7.8177
▁יודע	-7.82293
▁שי	-7.82482
▁הכל	-7.83137
▁בדרך	-7.83232
▁שלה	-7.83507
זה	-7.83763
/	-7.84125
▁החיים	-7.84359
פי	-7.84966
▁באמצעות	-7.85452
▁כלל	-7.86333
▁חשוב	-7.86954
כם	-7.87433
▁שבו	-7.88903
▁מקום	-7.89239
▁הת	-7.89709
ע	-7.89859
יש	-7.89886
),	-7.90467
▁מת	-7.90565
▁היתה	-7.91075
▁אינו	-7.92302
▁ד	-7.93361
▁שוב	-7.9365
▁רוצים	-7.94132
▁3	-7.94403
▁הכי	-7.94511
▁גדול	-7.94539
▁שהיא	-7.94601
▁2	-7.94745
פ	-7.95466
לא	-7.95555
▁נראה	-7.95984
▁נגד	-7.96254
▁קשה	-7.96427
▁צריכים	-7.97201
צ	-7.97606
▁דברים	-7.97739
▁הראשונה	-7.97925
▁לקבל	-7.98349
▁כיצד	-7.98591
▁הייתי	-7.98725
▁במקום	-8.00204
▁כפי	-8.00416
▁1	-8.00681
▁מן	-8.00846
▁האלה	-8.01855
▁מאז	-8.02036
▁ע	-8.0282
▁במשך	-8.02918
]	-8.03368
?"	-8.04306
▁אלוהים	-8.04897
▁פחות	-8.05083
▁אלו	-8.05167
▁בן	-8.05268
▁כמעט	-8.05435
▁יכולה	-8.05758
▁ילדים	-8.06061
▁הדבר	-8.06222
▁החברה	-8.06567
כל	-8.06924
▁לפי	-8.07188
▁ממש	-8.07232
▁הזו	-8.09088
▁די	-8.09591
▁עצמו	-8.09605
▁צ	-8.0988
ף	-8.10117
▁רב	-8.10537
▁שנ	-8.10552
’	-8.10792
▁מידע	-8.11233
מי	-8.11416
▁חדש	-8.12182
▁רוב	-8.13489
ור	-8.13621
▁בלי	-8.14185
y	-8.1438
▁עושה	-8.14415
▁5	-8.14497
▁בתוך	-8.15157
▁מהם	-8.15488
▁כולל	-8.15699
▁אותך	-8.1576
▁מיליון	-8.15792
▁לכן	-8.15835
▁הברית	-8.16039
▁4	-8.16072
▁המדינה	-8.16128
▁נכון	-8.16295
▁עבודה	-8.16575
לה	-8.16614
פו	-8.16698
▁שום	-8.17323
מן	-8.17591
▁רבות	-8.17834
▁שתי	-8.18003
▁בדיוק	-8.18004
▁לגבי	-8.18222
▁למצוא	-8.18364
▁בגלל	-8.18485
ין	-8.18664
פת	-8.18823
נ	-8.19184
▁S	-8.19189
▁למרות	-8.19569
▁שונים	-8.19619
▁בלתי	-8.19822
▁בזמן	-8.20102
▁ביום	-8.20169
▁כולם	-8.20285
מת	-8.20417
▁בעלי	-8.20697
▁למ	-8.20762
▁קל	-8.21128
▁מכל	-8.21534
▁ק	-8.21995
▁מתוך	-8.22185
▁C	-8.22283
נות	-8.22481
▁לדעת	-8.22505
אי	-8.22667
ינו	-8.22839
▁וגם	-8.22962
▁ספר	-8.23037
▁במיוחד	-8.23109
▁חושב	-8.23376
▁הזאת	-8.23485
▁להשתמש	-8.2359
▁השני	-8.23761
▁אחרת	-8.23789
מו	-8.23926
▁ואני	-8.23933
▁לכך	-8.24106
▁העיר	-8.24671
▁תהיה	-8.24878
▁השנה	-8.24995
▁והוא	-8.25082
▁שת	-8.25795
▁A	-8.26145
תם	-8.26306
▁מספיק	-8.2672
▁10	-8.26884
-19	-8.26975
יהם	-8.27002
▁בא	-8.27311
▁בצורה	-8.27328
▁העבודה	-8.27549
▁ח	-8.27581
▁יודעים	-8.27881
▁קצת	-8.27953
▁יחד	-8.28348
▁כזה	-8.29238
▁וזה	-8.30411
▁ס	-8.31164
▁לפחות	-8.31267
▁נמצא	-8.31539
▁מעל	-8.31606
אל	-8.31904
▁בהם	-8.31959
בי	-8.3227
▁מאשר	-8.32575
▁ראש	-8.32579
▁דולר	-8.32856
▁B	-8.32947
▁ונ	-8.33049
▁שאנחנו	-8.34149
▁כיום	-8.34417
▁הדברים	-8.34723
▁עליו	-8.34732
▁מדוע	-8.35119
▁מערכת	-8.35301
▁ולה	-8.35425
▁הנ	-8.35668
▁מנת	-8.35775
▁במ	-8.35777
רה	-8.35791
▁תוך	-8.36596
▁אותנו	-8.3676
▁להגיע	-8.36831
▁בלבד	-8.36951
▁בת	-8.37029
▁הבית	-8.37303
▁להבין	-8.3742
▁הדרך	-8.37496
▁שעות	-8.37501
▁בישראל	-8.37784
▁טובה	-8.38175
▁נשים	-8.38209
▁מס	-8.38317
כי	-8.38925
▁שאתם	-8.39216
על	-8.39288
▁הבא	-8.39336
▁ימים	-8.39426
▁מישהו	-8.3979
▁אינם	-8.40115
▁ואז	-8.40173
תו	-8.40736
▁כסף	-8.40746
▁[	-8.41038
▁...	-8.41076
רי	-8.41143
וס	-8.41277
▁ז	-8.41469
גר	-8.41477
▁לקחת	-8.41816
▁להת	-8.41951
▁ועל	-8.42584
e	-8.42679
▁מכן	-8.42772
▁18	-8.43291
יר	-8.43807
▁בעוד	-8.43876
S	-8.4417
▁אחרות	-8.44631
▁עושים	-8.44833
▁הגדול	-8.45251
אם	-8.45312
▁לדבר	-8.45316
▁בנוסף	-8.45434
▁איש	-8.45472
▁אינה	-8.45542
לי	-8.45637
▁כמובן	-8.4591
לו	-8.45953
▁שימוש	-8.46003
▁ברור	-8.46011
▁הללו	-8.46372
▁קו	-8.46399
פה	-8.46753
▁למעשה	-8.46944
▁חייב	-8.4712
▁לתת	-8.472
ידי	-8.47568
▁ללמוד	-8.4759
▁לעבוד	-8.47711
▁וש	-8.47966
נית	-8.48086
▁הארץ	-8.48326
▁לעולם	-8.48377
▁הרי	-8.49195
2	-8.49425
▁קשר	-8.49841
▁מו	-8.49984
▁ומה	-8.50003
▁מצב	-8.50474
▁הממשלה	-8.50474
ונים	-8.50656
A	-8.50677
▁האנשים	-8.50717
נת	-8.50845
אן	-8.51427
מות	-8.516
▁The	-8.51778
▁הו	-8.51815
מים	-8.52335
▁סוף	-8.52461
▁נוסף	-8.52513
▁וי	-8.52615
▁תחת	-8.52808
▁6	-8.5288
▁בעיקר	-8.52984
▁לעזור	-8.53406
D	-8.53595
▁פעמים	-8.53823
▁of	-8.54172
יי	-8.54217
▁מדובר	-8.5451
▁כה	-8.54514
▁שהיה	-8.54587
▁יו	-8.55082
▁בכלל	-8.55141
▁לומר	-8.55245
▁אולם	-8.55269
▁אוהב	-8.55429
▁/	-8.55575
▁באתר	-8.55696
1	-8.55993
מר	-8.56314
ְ	-8.5641
▁פה	-8.56422
▁קודם	-8.56635
▁דקות	-8.5708
דה	-8.5713
פים	-8.57227
▁השנים	-8.57344
▁האחרון	-8.57406
B	-8.57632
▁ליצור	-8.57798
כו	-8.57822
▁מעט	-8.57904
דר	-8.58128
▁מחדש	-8.58142
▁חי	-8.5826
▁יהיו	-8.58448
▁רואה	-8.58512
קי	-8.58549
C	-8.58588
▁גדולה	-8.58641
▁הילדים	-8.58781
▁מחקר	-8.58882
▁בעל	-8.5905
כה	-8.59156
▁החוק	-8.59888
▁מר	-8.5992
▁פעולה	-8.60073
▁מול	-8.60329
קו	-8.60347
▁המו	-8.60727
▁בר	-8.60796
▁לבית	-8.6094
▁צריכה	-8.61231
ing	-8.6149
▁קרובות	-8.6169
▁נוספים	-8.62214
בר	-8.62333
הם	-8.62359
▁פני	-8.62522
t	-8.62865
רת	-8.62976
וני	-8.62986
▁סוג	-8.63117
▁המשפט	-8.63124
▁מזה	-8.63298
▁בתחום	-8.63349
▁בכך	-8.63766
er	-8.63901
▁הגוף	-8.6408
F	-8.64129
▁חדשים	-8.64484
־	-8.64489
▁T	-8.6458
▁החל	-8.64602
בה	-8.6471
▁בשביל	-8.6475
▁P	-8.64867
▁שאין	-8.6495
▁חודשים	-8.65077
יק	-8.6513
▁למשל	-8.65158
▁בשל	-8.65234
▁ט	-8.6533
▁ספק	-8.65427
▁איזה	-8.65636
▁כוח	-8.65675
▁מלא	-8.65834
▁צורך	-8.65876
▁כאלה	-8.65946
▁M	-8.66066
▁מדינות	-8.66072
▁שונות	-8.66313
▁כעת	-8.66326
שה	-8.66438
▁שבה	-8.66462
▁ארה	-8.66758
▁יי	-8.66805
▁עשוי	-8.66822
קה	-8.66843
טי	-8.66858
רו	-8.66979
לים	-8.6701
▁הח	-8.67133
▁7	-8.67343
▁בטוח	-8.67355
▁עובד	-8.67498
▁ככל	-8.67543
▁זהו	-8.67811
P	-8.67896
▁שלושה	-8.68038
G	-8.68147
▁ברחבי	-8.68184
▁הג	-8.68188
רים	-8.68371
▁בפני	-8.68406
כן	-8.68494
▁עצמי	-8.69101
▁מפני	-8.69269
▁באותו	-8.69334
פר	-8.69372
▁שכל	-8.69694
M	-8.69968
▁קורה	-8.70053
▁קטן	-8.70088
▁20	-8.70156
▁משום	-8.7021
▁הגיע	-8.70264
▁ללכת	-8.70355
▁הש	-8.70382
▁8	-8.70479
▁האמת	-8.70604
al	-8.70626
▁כגון	-8.7082
▁F	-8.7085
▁לאורך	-8.71304
o	-8.71702
▁לזה	-8.71863
▁לעתים	-8.72078
▁שונה	-8.72081
▁הטוב	-8.72383
▁החדש	-8.72433
ינה	-8.72569
▁כשה	-8.72598
יל	-8.72638
ונות	-8.72741
▁D	-8.72766
סי	-8.73126
▁ויש	-8.73188
▁בשנה	-8.7325
נג	-8.73326
▁חדשה	-8.73396
▁חברת	-8.73488
▁לשמור	-8.73608
▁שלוש	-8.73632
L	-8.74125
▁מאד	-8.74177
▁להשיג	-8.74694
▁ולכן	-8.74705
בו	-8.75094
3	-8.7534
די	-8.7556
יך	-8.75566
▁אור	-8.75611
▁משחק	-8.75697
▁לפעמים	-8.75809
וב	-8.75881
▁שנת	-8.76136
▁האי	-8.76252
▁חיי	-8.76493
יג	-8.76577
▁ילד	-8.76652
▁מעבר	-8.7679
▁לקרוא	-8.76905
▁שינוי	-8.76939
▁the	-8.7694
▁להפוך	-8.76994
▁E	-8.77053
▁בי	-8.77056
E	-8.77135
▁ממנו	-8.77227
I	-8.774
n	-8.77446
▁המצב	-8.77667
▁אצל	-8.77888
▁הר	-8.78041
▁ארצות	-8.78179
▁לשנות	-8.78182
re	-8.78389
in	-8.78517
▁G	-8.78682
עד	-8.78832
▁לחלוטין	-8.78891
▁שאלה	-8.79119
▁וכל	-8.79125
▁15	-8.79127
▁באזור	-8.7927
▁חבר	-8.79288
▁גבוה	-8.79448
נק	-8.79522
▁לבצע	-8.79707
▁ידע	-8.79847
▁לבין	-8.79965
▁כתב	-8.80178
▁טיפול	-8.80253
▁שאנו	-8.80413
▁מגיע	-8.80443
▁לחשוב	-8.80647
▁המשחק	-8.80659
▁בעבר	-8.81024
▁מתי	-8.81252
▁האל	-8.81283
▁חברות	-8.81476
▁כנראה	-8.81487
דו	-8.82121
▁בחיים	-8.82231
▁לחיות	-8.82301
▁סביב	-8.82411
▁פעילות	-8.82832
▁עובדים	-8.8287
▁הנה	-8.83053
▁הולך	-8.8309
▁שנות	-8.83096
▁מצד	-8.83195
▁דו	-8.83306
▁מקור	-8.83329
▁H	-8.83393
▁12	-8.83635
i	-8.83665
▁במקרה	-8.83706
▁פ	-8.83735
▁בסוף	-8.83822
▁בשם	-8.83879
▁מאוחר	-8.83915
00	-8.83955
T	-8.84412
טו	-8.84422
רס	-8.84652
▁אליו	-8.84773
קל	-8.84781
▁בתי	-8.84913
▁בקרב	-8.8493
▁המחקר	-8.85021
▁השנייה	-8.85065
”.	-8.8508
▁הס	-8.85111
פל	-8.85172
▁ר	-8.85187
▁לש	-8.85274
▁כאילו	-8.8537
▁הסרט	-8.85479
״	-8.85689
▁רואים	-8.85806
▁שש	-8.86015
▁בנושא	-8.86068
▁האחרונות	-8.86472
את	-8.86558
▁המשפחה	-8.86617
▁הילד	-8.86639
▁והיא	-8.86666
g	-8.86783
▁אמרה	-8.86816
▁משנה	-8.86884
▁בעיות	-8.8703
▁גיל	-8.87598
▁טובים	-8.87705
▁בסדר	-8.87727
▁באות	-8.87735
▁סיפור	-8.87753
▁אתכם	-8.87767
▁שר	-8.87825
▁אוכל	-8.8802
יס	-8.8862
▁שא	-8.88751
כת	-8.88768
▁תודה	-8.88909
▁חוק	-8.88913
▁יורק	-8.88966
▁איפה	-8.89051
▁בגיל	-8.891
▁המת	-8.89361
▁גבוהה	-8.89383
▁זכויות	-8.89399
4	-8.89572
▁כלפי	-8.89676
▁תוכנית	-8.89677
▁קצר	-8.89751
נד	-8.89783
רד	-8.8982
p	-8.89979
ום	-8.90033
סטר	-8.90316
5	-8.90367
▁רבה	-8.90371
▁השאלה	-8.90458
▁המידע	-8.90463
כות	-8.90562
▁נוספת	-8.90584
▁מיד	-8.90642
כים	-8.90711
▁מרגיש	-8.90766
נר	-8.90792
▁הא	-8.90817
▁עלינו	-8.90913
אר	-8.90983
▁כלומר	-8.91031
▁מעולם	-8.91071
▁מבין	-8.9108
▁האו	-8.91393
▁במצב	-8.91413
יד	-8.91538
ול	-8.91738
אנחנו	-8.91794
▁להתחיל	-8.91822
▁בעיר	-8.91877
▁ליד	-8.92087
ָ	-8.92157
צי	-8.92306
▁רע	-8.92455
▁לחזור	-8.9265
▁ואם	-8.92675
▁עצמה	-8.92745
הוא	-8.92861
▁לבחור	-8.9287
▁עצמם	-8.9318
▁לבד	-8.93225
▁מאות	-8.93282
ed	-8.93285
▁בעת	-8.9334
a	-8.93392
▁חדשות	-8.93507
▁הפעם	-8.93533
▁האתר	-8.93612
▁מתחיל	-8.93625
▁ועד	-8.93807
פות	-8.93872
ץ	-8.93882
▁בעיה	-8.93949
▁יהודים	-8.94426
▁בריאות	-8.94524
▁דומה	-8.94563
▁לגרום	-8.94699
פס	-8.94761
▁L	-8.94951
▁ני	-8.95016
בת	-8.95077
▁עליהם	-8.9508
▁30	-8.95106
H	-8.95229
▁מדינה	-8.95242
▁אומרים	-8.95296
▁הגדולה	-8.95479
▁להמשיך	-8.9555
▁I	-8.95763
ייה	-8.95889
▁הבעיה	-8.95993
▁שירות	-8.96045
▁משתמשים	-8.96161
▁חייבים	-8.96296
▁בסופו	-8.9632
▁אנשי	-8.96327
▁חברים	-8.96353
▁למען	-8.96473
!"	-8.96766
or	-8.96954
▁סי	-8.96972
▁מחוץ	-8.9698
▁קרה	-8.97077
חת	-8.97313
▁וכן	-8.97323
▁אהבה	-8.97422
▁לתוך	-8.97456
▁מהר	-8.97462
של	-8.97509
▁והם	-8.97614
▁בעקבות	-8.97636
▁אומרת	-8.97787
▁ועוד	-8.97923
▁ככה	-8.9796
רק	-8.98131
▁בהתאם	-8.98252
▁?	-8.98277
יט	-8.98322
▁המקום	-8.98347
c	-8.98358
▁9	-8.98514
▁בהחלט	-8.9852
▁בארה	-8.98665
צו	-8.98759
▁נתונים	-8.99116
W	-8.9923
▁להתמודד	-8.99392
▁לגמרי	-8.99479
סט	-8.99733
▁לעומת	-8.99749
▁עולם	-8.99792
▁תוכלו	-8.99912
▁שמו	-9.00147
en	-9.00299
▁קר	-9.00398
▁השבוע	-9.00575
▁הסיבה	-9.00699
▁רגע	-9.00831
▁בידי	-9.00927
▁הלב	-9.00985
קים	-9.01041
אין	-9.0124
▁תת	-9.01259
▁לספק	-9.0127
▁לאנשים	-9.01387
▁היינו	-9.01603
▁גברים	-9.01655
▁אותן	-9.01688
▁בארץ	-9.01802
▁תוכל	-9.01923
▁כדור	-9.01972
m	-9.01992
▁האינטרנט	-9.02077
▁תהליך	-9.02081
▁19	-9.02128
▁יד	-9.02182
▁קיים	-9.02496
▁העם	-9.02605
▁הנשיא	-9.02655
▁ייתכן	-9.02786
▁ראשון	-9.03025
ונה	-9.03317
N	-9.03319
▁רכב	-9.03352
w	-9.03381
▁בשלב	-9.03461
▁החדשה	-9.03503
▁כדאי	-9.03545
▁האחרונה	-9.03598
▁הק	-9.03655
▁השימוש	-9.03665
▁למנוע	-9.03709
▁הכול	-9.04008
▁קרוב	-9.04086
שת	-9.04354
קס	-9.04374
▁ברגע	-9.04572
▁משמעות	-9.04731
▁להביא	-9.04768
▁לצאת	-9.04777
▁היחיד	-9.04829
▁מיליארד	-9.0511
ורים	-9.05249
▁המלחמה	-9.05352
an	-9.05637
וט	-9.05661
בל	-9.05663
נט	-9.05718
▁לשם	-9.05939
ּ	-9.06062
▁ערך	-9.06063
פור	-9.06319
▁נמצאים	-9.06335
ווה	-9.06356
–	-9.06444
▁נעשה	-9.06455
ורג	-9.06604
▁משרד	-9.06851
ירה	-9.06897
▁עלול	-9.06969
▁מאחורי	-9.07019
▁רוח	-9.07108
מד	-9.07256
it	-9.07296
▁לכתוב	-9.07409
l	-9.07447
אז	-9.07451
▁11	-9.07452
▁יפה	-9.0747
▁אלף	-9.0761
u	-9.07824
▁אישי	-9.07845
גו	-9.08028
▁להגיד	-9.08054
▁זוהי	-9.08075
▁תי	-9.08137
▁בתור	-9.08167
ִ	-9.08177
שו	-9.08231
▁המאה	-9.08246
▁היהודי	-9.08439
▁ישנם	-9.08649
▁ית	-9.08674
▁מנסה	-9.08777
▁היהודים	-9.08811
▁שמח	-9.08984
▁תפקיד	-9.09049
▁הבריאות	-9.09066
▁מדבר	-9.09091
חו	-9.09115
▁היטב	-9.09242
▁לאכול	-9.09317
וש	-9.09379
נס	-9.09451
▁כלי	-9.0948
▁למי	-9.09772
r	-9.09783
בים	-9.09866
▁נושא	-9.09938
▁בסיס	-9.10053
▁מים	-9.10109
▁אר	-9.10193
▁ארגון	-9.10487
▁הציבור	-9.10489
▁שהו	-9.10503
▁כוחות	-9.10588
▁*	-9.10612
▁עליך	-9.10624
▁מקבל	-9.10649
▁מתחת	-9.10735
▁הבאה	-9.10832
▁באינטרנט	-9.10833
▁לס	-9.10841
▁בשנים	-9.11007
▁עניין	-9.1103
b	-9.111
▁מסוגל	-9.1115
טור	-9.1122
▁17	-9.11271
▁מכך	-9.11307
V	-9.11419
טר	-9.11428
▁עשה	-9.11658
▁מל	-9.11697
▁•	-9.11746
אות	-9.11753
▁שבוע	-9.11846
רות	-9.11897
▁שהיו	-9.1191
▁ידוע	-9.12117
▁חסר	-9.12121
▁שלום	-9.12233
▁מזון	-9.12444
▁חברה	-9.12792
U	-9.12818
▁אמיתי	-9.12897
רח	-9.1299
▁לשחק	-9.12995
▁אמא	-9.1308
R	-9.13284
▁נשיא	-9.13379
▁and	-9.13419
▁מלחמת	-9.13428
▁הסיפור	-9.1353
▁משפחה	-9.13536
ar	-9.13553
▁ות	-9.13679
▁כולנו	-9.13787
▁לקנות	-9.13791
▁יודעת	-9.13929
st	-9.14143
▁עסקים	-9.14198
▁שאלות	-9.14266
▁תוצאות	-9.14276
▁מסוימים	-9.14305
▁גישה	-9.14329
▁עומד	-9.14355
▁שיכול	-9.14543
▁הטיפול	-9.14775
לס	-9.1481
O	-9.14813
▁ניו	-9.14865
▁להי	-9.14888
▁להרגיש	-9.14989
▁לעיתים	-9.15089
▁W	-9.15175
▁במהירות	-9.15621
us	-9.15623
▁חוסר	-9.15728
▁16	-9.15736
▁אכן	-9.15768
▁מדינת	-9.15833
▁הראשונים	-9.15948
▁השם	-9.1599
ri	-9.15992
שי	-9.16013
▁האוויר	-9.16046
▁חושבים	-9.16286
▁היחידה	-9.16307
▁הביתה	-9.16445
▁למעלה	-9.16681
▁אתר	-9.17151
נא	-9.17206
▁בשבוע	-9.17209
▁R	-9.17274
תה	-9.17484
ינג	-9.17519
מנו	-9.17527
▁דרכים	-9.17665
▁בעצם	-9.17733
▁יוצא	-9.17826
▁לעבור	-9.17994
טה	-9.18014
-1	-9.18114
▁כללי	-9.18159
▁הנתונים	-9.18369
▁אפשרי	-9.18409
▁רחב	-9.18414
▁בזה	-9.18495
▁עשויים	-9.18536
▁מכיוון	-9.18562
▁אירופה	-9.18573
ra	-9.18814
▁אישה	-9.1884
▁הזדמנות	-9.18987
▁צוות	-9.19083
K	-9.19118
▁וא	-9.19157
▁לבנות	-9.19416
▁עולה	-9.19468
▁סרט	-9.19537
בית	-9.19547
▁עבר	-9.19742
ורה	-9.19792
▁מבלי	-9.19841
▁הפך	-9.19846
יז	-9.1992
צה	-9.19943
▁להיכנס	-9.19969
▁מאמין	-9.20013
▁מדיניות	-9.20018
▁להישאר	-9.20097
ויות	-9.201
▁סו	-9.20155
7	-9.20323
▁לראשונה	-9.20384
▁ושל	-9.204
▁לספר	-9.20444
▁במדינה	-9.20512
▁ניהול	-9.20559
▁ביחד	-9.20669
et	-9.20702
▁אש	-9.20714
▁בפעם	-9.20757
ֶ	-9.20871
וד	-9.20918
▁גר	-9.21048
▁התעופה	-9.21051
▁הרב	-9.2112
▁מקווה	-9.21124
▁הביטחון	-9.21206
▁לחץ	-9.21249
▁אוהבים	-9.21376
▁ממה	-9.21382
▁סיבה	-9.21391
כך	-9.21457
▁הישראלי	-9.2161
וק	-9.21708
▁13	-9.21873
▁אמרתי	-9.21941
d	-9.21941
▁איתו	-9.22037
▁מדברים	-9.22071
▁גורם	-9.22179
שם	-9.22268
▁המדינות	-9.22274
▁נשמע	-9.22354
וח	-9.22382
לת	-9.2239
▁בראש	-9.22404
אתה	-9.22514
▁להגן	-9.22527
▁שיהיה	-9.22584
▁אלפי	-9.22631
▁מסוג	-9.22681
▁14	-9.22691
▁האור	-9.22822
[	-9.22835
▁אמריקה	-9.22846
▁מש	-9.22941
▁טראמפ	-9.22994
זו	-9.23206
▁יכולות	-9.23213
▁לפעול	-9.23265
f	-9.23612
▁תמונות	-9.23635
▁בארצות	-9.23638
▁הבינלאומי	-9.23674
▁בואו	-9.23681
▁מקרה	-9.23941
▁הלאומי	-9.2411
▁קטנה	-9.24147
▁משמעותי	-9.24233
▁K	-9.24234
▁לח	-9.2434
▁ההיסטוריה	-9.24421
▁לשלם	-9.24448
▁לילדים	-9.24514
▁דווקא	-9.24536
▁מסוים	-9.24591
וע	-9.24602
▁ממשלת	-9.24666
▁בחודש	-9.24911
▁חזק	-9.24964
▁זכות	-9.24971
▁N	-9.24984
▁נא	-9.25052
אט	-9.25087
▁בנוגע	-9.25146
▁פרק	-9.25149
לח	-9.25163
▁מוצרים	-9.25227
טע	-9.2525
▁לנסות	-9.2529
ולי	-9.25357
▁מרכז	-9.25391
עת	-9.25427
▁לדוגמה	-9.25546
▁מק	-9.2557
▁סביר	-9.25673
▁ויותר	-9.25695
▁שאת	-9.2573
▁ניסיון	-9.25733
▁כמות	-9.25755
▁O	-9.2576
▁יהודי	-9.25887
עו	-9.25891
▁אילו	-9.2601
▁איראן	-9.26091
ימים	-9.26095
▁ירושלים	-9.26465
▁מערכות	-9.2657
▁כתוצאה	-9.26644
יב	-9.26706
▁המס	-9.26707
כול	-9.26829
▁הנוכחי	-9.26875
▁אבא	-9.26915
טל	-9.26942
▁גדולים	-9.27052
▁פנים	-9.27071
▁דם	-9.27105
▁הרכב	-9.27157
▁עליה	-9.27507
ומי	-9.27513
▁לשמוע	-9.27537
▁עיר	-9.27546
בות	-9.27559
▁שווה	-9.27588
▁מאמינים	-9.27626
▁וכך	-9.27647
el	-9.27693
ומים	-9.27721
▁במסגרת	-9.27733
▁תקופה	-9.27761
וג	-9.27831
▁הדין	-9.27857
il	-9.27973
▁משתמש	-9.28064
▁איכות	-9.28119
וּ	-9.28322
▁מחיר	-9.28357
▁המטרה	-9.28384
8	-9.28438
▁דין	-9.28493
▁שבועות	-9.28692
▁לישראל	-9.28719
לב	-9.28732
▁סט	-9.29004
▁לאור	-9.29024
▁חברי	-9.29061
▁עצמך	-9.29126
אה	-9.29201
(	-9.29268
דת	-9.29281
קול	-9.29324
שים	-9.29355
le	-9.2942
▁טבעי	-9.29439
▁V	-9.29505
▁חמש	-9.29907
▁נוספות	-9.29933
▁עשר	-9.29981
▁המוח	-9.30116
▁תלוי	-9.30171
▁שאר	-9.30178
יין	-9.30403
▁לקוחות	-9.30409
▁קרא	-9.30432
▁הכסף	-9.30524
▁אישית	-9.30696
▁לצד	-9.30758
▁סין	-9.30807
▁(19	-9.30855
▁היכולת	-9.30984
es	-9.30986
▁הבאים	-9.31044
▁התינוק	-9.31064
▁נו	-9.31086
▁קטנים	-9.31127
▁ממ	-9.31142
▁לאחרונה	-9.31226
▁—	-9.31233
▁מג	-9.3163
שות	-9.31638
ניים	-9.31648
▁באירופה	-9.31695
▁הטובה	-9.31758
▁חודש	-9.31763
▁שבהם	-9.31794
▁שצריך	-9.31808
▁אחוז	-9.31895
▁אנרגיה	-9.31899
th	-9.31952
▁המערכת	-9.32006
▁מיוחד	-9.3206
▁מבט	-9.32092
▁צו	-9.32131
פול	-9.32159
▁קבוע	-9.32243
ורי	-9.32248
▁החולים	-9.32261
▁בחר	-9.3227
▁נשאר	-9.32346
▁אמרו	-9.32423
בא	-9.32528
▁כזו	-9.32647
▁העובדה	-9.32655
▁מוכן	-9.32699
▁ערב	-9.32728
▁קיבל	-9.32765
▁יתר	-9.32789
ניות	-9.32872
ינים	-9.32873
▁ארבעה	-9.32922
▁פר	-9.32937
▁הפ	-9.32983
▁במה	-9.33009
בול	-9.33021
▁ראיתי	-9.33052
x	-9.33104
20	-9.33186
▁אודות	-9.33272
▁ואף	-9.33315
▁אפשרות	-9.33513
▁והמ	-9.33596
▁ארבע	-9.33631
▁קבוצה	-9.33773
▁חצי	-9.33989
קט	-9.34001
חה	-9.34009
▁האחרונים	-9.34079
▁כיוון	-9.34092
▁הלא	-9.34157
חל	-9.3426
אים	-9.34346
▁גו	-9.34349
גע	-9.34415
6	-9.34471
▁ולאחר	-9.3452
▁אמת	-9.34531
בש	-9.347
▁רי	-9.34707
▁לעמוד	-9.34754
בור	-9.34802
▁מלחמה	-9.34945
▁מלאה	-9.34952
▁בבוקר	-9.35155
▁שגם	-9.35204
▁נקרא	-9.35205
▁באו	-9.35219
ad	-9.35249
▁בהן	-9.35252
▁ורק	-9.35347
▁כלום	-9.35354
▁לשפר	-9.35371
as	-9.3548
-18	-9.35482
ַ	-9.35486
on	-9.35636
כש	-9.35642
סו	-9.35682
▁סל	-9.35717
אבל	-9.35746
▁הטבע	-9.35829
▁ימי	-9.35963
▁אוהבת	-9.36084
ירות	-9.36085
ילה	-9.36157
▁in	-9.36222
כר	-9.36336
אס	-9.36339
שר	-9.36514
צל	-9.36519
▁תש	-9.36667
▁השלישי	-9.36717
▁שינויים	-9.3682
צת	-9.36856
▁תמיכה	-9.37008
▁מנהל	-9.37252
▁התיכון	-9.37347
▁ממנה	-9.3737
10	-9.37459
at	-9.3753
▁המים	-9.37588
▁צעד	-9.3771
▁הקבוצה	-9.37738
▁לשים	-9.37777
▁התשובה	-9.37886
▁הופך	-9.37924
פט	-9.37934
גל	-9.37966
▁האירופי	-9.38085
▁הגיעו	-9.382
עה	-9.38361
▁אוויר	-9.38472
סון	-9.38593
יפה	-9.38626
▁מעניין	-9.38667
▁בג	-9.38668
▁לרוב	-9.38684
▁העסק	-9.38797
מצ	-9.39084
▁נח	-9.39085
▁שאפשר	-9.392
▁חזרה	-9.39406
▁נולד	-9.39686
▁מצ	-9.39739
▁הארגון	-9.39883
▁שהת	-9.39903
▁חושבת	-9.3999
▁הקו	-9.39992
חים	-9.40056
▁תשומת	-9.40071
▁שאי	-9.40081
▁בשוק	-9.40114
▁אמור	-9.40129
▁2015	-9.40196
-20	-9.4022
▁התוכנית	-9.40229
▁הקשר	-9.40241
לט	-9.40291
▁בקלות	-9.40292
▁ספרים	-9.40318
▁היית	-9.40366
▁מוקדם	-9.40527
▁לאדם	-9.40533
▁לגלות	-9.40534
▁בעתיד	-9.4056
▁למקום	-9.40589
▁מקבלים	-9.40634
▁מבחינה	-9.40651
▁דר	-9.40659
▁לפתח	-9.40792
▁השפעה	-9.40849
▁50	-9.40952
▁שניתן	-9.40956
זי	-9.40987
▁מראש	-9.40996
ur	-9.40999
▁ראה	-9.41019
בן	-9.41035
h	-9.41312
קשר	-9.41313
▁עסק	-9.41318
▁הצ	-9.41382
▁לקראת	-9.41472
k	-9.41507
▁הסכם	-9.41695
▁מגיעים	-9.41736
▁במרכז	-9.41785
מא	-9.41805
▁נקודות	-9.41829
▁חד	-9.41908
▁לג	-9.4195
▁לבדוק	-9.4196
0	-9.41996
▁קבוצות	-9.42045
▁יצא	-9.42285
▁פתרון	-9.42312
▁הט	-9.42318
▁ומת	-9.42422
▁פרי	-9.42491
▁נותן	-9.42511
▁מילים	-9.42524
▁במידה	-9.42592
▁בעזרת	-9.42669
▁הקהילה	-9.42719
▁:	-9.42787
▁להבטיח	-9.42798
▁האיש	-9.42864
▁הלילה	-9.42924
רט	-9.42927
כנ	-9.42949
▁הרוח	-9.42987
▁כולו	-9.42987
▁שעה	-9.43235
▁המשטרה	-9.43312
עם	-9.43326
▁ביחס	-9.43384
▁בנו	-9.43466
▁תרופות	-9.43479
אק	-9.43536
▁ואפילו	-9.43591
▁וכ	-9.43644
▁חולים	-9.43739
▁חוץ	-9.43781
▁האמריקאי	-9.43839
▁תכנית	-9.43875
מקרים	-9.43987
▁בחדר	-9.44025
▁שאינם	-9.44094
▁מעמד	-9.44124
▁שכן	-9.44221
▁ארוך	-9.44229
▁האלו	-9.44239
עבור	-9.44248
סל	-9.4426
▁בינואר	-9.44293
▁ההורים	-9.44476
▁מגוון	-9.44547
קור	-9.44625
▁קבוצת	-9.44644
▁המלך	-9.44725
▁צעירים	-9.4482
יני	-9.44927
▁מיני	-9.44935
▁גבר	-9.44979
אד	-9.45158
דור	-9.45221
▁גל	-9.45244
יע	-9.45261
שום	-9.45263
פק	-9.45278
▁מאיתנו	-9.45286
li	-9.4529
דים	-9.45332
▁תמונה	-9.45341
▁יקרה	-9.45407
▁בע	-9.45481
▁במאי	-9.45504
▁אסור	-9.45527
com	-9.45545
▁נע	-9.45561
▁והת	-9.45566
▁קול	-9.45597
נח	-9.45601
▁»	-9.45616
גי	-9.45618
z	-9.45645
▁שוק	-9.45689
▁עזרה	-9.45705
▁שזו	-9.45721
▁חופש	-9.45746
▁מא	-9.45822
▁מתח	-9.45912
הפך	-9.45921
▁הכוח	-9.46036
ספר	-9.46048
▁בחלק	-9.46174
▁בתחילת	-9.46235
▁המון	-9.4627
למה	-9.46355
▁סוגי	-9.46375
▁פו	-9.46407
▁להעביר	-9.46412
▁לקח	-9.46433
הפכו	-9.46501
▁השמש	-9.46507
חזק	-9.46526
▁הנכון	-9.46648
▁תו	-9.46658
▁לבקר	-9.4669
▁נחשב	-9.46704
▁אינטרנט	-9.46737
0,000	-9.46763
▁האנושי	-9.46764
קבל	-9.46769
▁משנת	-9.46852
▁עשו	-9.46916
▁J	-9.4697
▁40	-9.47009
▁בשני	-9.47035
ro	-9.47068
▁קיימת	-9.47082
▁משפט	-9.47095
▁נכתב	-9.47114
▁יכולת	-9.47136
▁הגדולים	-9.47136
X	-9.47154
▁שיר	-9.47234
▁תוכניות	-9.47435
▁מציע	-9.47524
▁מתאים	-9.47593
.”	-9.47608
▁היכן	-9.47632
▁האמיתי	-9.4773
▁רוסיה	-9.47735
▁בערך	-9.47742
▁a	-9.47777
▁החלק	-9.48045
▁בחברה	-9.4808
ומה	-9.481
▁צעיר	-9.48271
▁שאם	-9.4837
▁לשעבר	-9.4839
▁מח	-9.48408
▁ואין	-9.48409
יזם	-9.48412
-3	-9.48432
▁שאנשים	-9.48459
▁לאפשר	-9.48539
▁חשבתי	-9.48698
▁לשימוש	-9.48752
9	-9.48781
▁רשת	-9.48787
▁גדל	-9.48817
▁חייו	-9.48842
▁המוצר	-9.48873
מור	-9.48932
▁נמצאת	-9.48933
לות	-9.49007
▁הטובים	-9.4904
▁2014	-9.49045
חי	-9.49048
▁המחשב	-9.4907
▁הנושא	-9.49099
▁חוקי	-9.49101
▁ראו	-9.49102
▁מכיר	-9.49286
▁ניתוח	-9.49361
▁שלישי	-9.49405
▁שמת	-9.49532
מנה	-9.49579
▁24	-9.49686
טון	-9.49788
▁אחריות	-9.49838
▁העתיד	-9.49967
▁העליון	-9.50005
▁העולמי	-9.501
▁כבוד	-9.50129
▁מאי	-9.50212
▁מסוגלים	-9.50214
▁איננו	-9.5025
▁25	-9.50294
▁בש	-9.50294
▁כמ	-9.50305
▁פיתוח	-9.50368
▁לנצח	-9.50415
וז	-9.50599
▁לסייע	-9.50605
▁מכ	-9.50679
▁״	-9.50728
19	-9.5077
▁הצבא	-9.50869
▁שכ	-9.50955
ודה	-9.51077
▁צרפת	-9.51179
▁איזו	-9.51182
▁רחוק	-9.51281
▁נשק	-9.51445
יפ	-9.51455
▁יחסים	-9.51511
▁נכנס	-9.51551
עים	-9.51569
▁מהן	-9.51757
ואה	-9.51786
▁עשרות	-9.51824
▁השיר	-9.51865
▁|	-9.51868
▁רמת	-9.519
▁יוכל	-9.52026
▁עבד	-9.52063
▁העבר	-9.52079
▁כרגע	-9.52084
▁100	-9.521
▁הי	-9.5219
▁בלילה	-9.52223
▁ברמה	-9.52247
▁מחפשים	-9.52261
רש	-9.52262
מס	-9.52273
▁היחסים	-9.52401
▁לוקח	-9.52425
▁גורמים	-9.52436
רמה	-9.525
se	-9.52505
te	-9.52516
ֵ	-9.52578
▁לבקש	-9.52602
▁האחרים	-9.52626
עוד	-9.52645
▁ביוני	-9.52734
-2	-9.52737
▁לע	-9.52893
אב	-9.52961
▁חל	-9.53053
▁בספטמבר	-9.531
▁אליה	-9.53196
▁שעבר	-9.53224
▁משחקים	-9.53236
▁המילה	-9.53245
▁מאפשר	-9.53296
עות	-9.53319
▁בצד	-9.53344
▁באי	-9.53374
▁סיכוי	-9.5339
▁אלי	-9.53406
▁חדר	-9.53425
▁בניו	-9.53521
▁מוכנים	-9.53528
▁הרעיון	-9.53551
▁מושג	-9.53568
▁להכיר	-9.53662
▁לזכור	-9.53683
▁וכי	-9.53716
▁כאב	-9.53749
אלי	-9.53759
▁החינוך	-9.53788
ארי	-9.53929
▁ראשית	-9.54104
קר	-9.54198
▁מסר	-9.54198
▁העובדים	-9.54212
▁הצורך	-9.54396
▁תקשורת	-9.54397
▁בס	-9.54506
▁ובכל	-9.54526
▁מסוימת	-9.54559
▁שאל	-9.54567
▁חינוך	-9.54605
▁לשאול	-9.5464
▁פרס	-9.54661
▁האדמה	-9.54688
▁לבוא	-9.54708
▁צבע	-9.54713
▁נאמר	-9.548
▁מצא	-9.54803
▁שמש	-9.54911
מון	-9.5495
▁ואנחנו	-9.54999
▁בדצמבר	-9.55048
-5	-9.55095
▁זוג	-9.55147
▁האב	-9.55188
אנו	-9.55307
▁בוקר	-9.55358
וֹ	-9.55419
▁שכבר	-9.55452
פיל	-9.55473
▁חג	-9.55526
▁Re	-9.5553
ִי	-9.55544
▁טר	-9.55579
▁בשנות	-9.55579
▁לחפש	-9.55683
▁מקצוע	-9.55782
▁יוכלו	-9.55862
▁בלב	-9.55882
▁חמישה	-9.55901
▁גרמניה	-9.56
חוק	-9.56253
▁ועם	-9.56301
▁לצפות	-9.56337
▁נבחר	-9.56354
חות	-9.56392
▁החלו	-9.56396
▁הבחירות	-9.56422
אור	-9.56526
▁מראה	-9.56535
גה	-9.56613
▁מחר	-9.56654
▁הזוג	-9.56694
צות	-9.56725
▁סיבות	-9.56741
▁קור	-9.56827
▁מוצר	-9.56857
▁תרבות	-9.56944
▁לק	-9.57012
▁מבינים	-9.57014
▁שירותי	-9.57089
▁ישירות	-9.57118
▁עתיד	-9.57154
▁במערכת	-9.57215
▁מאחר	-9.57221
גן	-9.57224
מש	-9.57249
▁פול	-9.57326
פני	-9.57431
דק	-9.5746
▁פחד	-9.57483
ly	-9.57489
▁להאמין	-9.57555
▁המציאות	-9.57571
סטי	-9.57574
▁בשר	-9.57587
ראו	-9.57613
▁ושוב	-9.57619
זל	-9.57629
▁s	-9.57642
▁ספורט	-9.57741
▁הינו	-9.57847
▁גוף	-9.57894
▁בריא	-9.5799
▁להסביר	-9.58012
▁2012	-9.58044
ol	-9.58112
▁נמוך	-9.58121
▁ומי	-9.58358
▁לאתר	-9.58433
ימה	-9.58439
▁קפה	-9.58442
נז	-9.58509
▁אזור	-9.58537
▁החלטה	-9.58549
▁ביולי	-9.58578
▁מד	-9.58673
▁חייבת	-9.58684
▁חש	-9.58711
▁לטיפול	-9.58772
כס	-9.58785
▁אס	-9.5885
▁רצון	-9.58854
lo	-9.58958
▁האנרגיה	-9.58977
▁למשך	-9.58986
▁בזכות	-9.59052
שוב	-9.59064
▁דוד	-9.59266
▁חומר	-9.59298
▁מהו	-9.59321
▁מחקרים	-9.59328
▁לכולם	-9.59341
▁הולכים	-9.59345
▁להפסיק	-9.59395
▁היהודית	-9.59421
▁באוקטובר	-9.59427
▁מקומות	-9.5944
▁בח	-9.59471
▁חשבון	-9.59483
▁לעבודה	-9.59512
▁בחשבון	-9.59514
▁שיתוף	-9.59572
▁רציתי	-9.59595
▁2013	-9.59701
▁לפתוח	-9.59821
▁אליהם	-9.59907
▁הפלסטינים	-9.60022
▁ממני	-9.60042
▁זוכר	-9.60047
▁עצמנו	-9.60155
▁שנתיים	-9.60283
ולה	-9.60398
▁מאת	-9.60429
▁שבע	-9.60524
▁מכירים	-9.60544
▁בהמשך	-9.60569
אדם	-9.6057
▁קיימים	-9.60583
-4	-9.60736
▁מעשי	-9.60819
▁חשיבות	-9.60832
▁באמצע	-9.60864
▁ההת	-9.60894
▁מומלץ	-9.60897
▁חופשי	-9.60956
▁מתחילים	-9.6096
▁‘	-9.60971
▁ביקורת	-9.60982
▁אתמול	-9.60982
▁מין	-9.60999
▁שעל	-9.61042
יקה	-9.61056
▁גדולות	-9.61076
▁ידעתי	-9.6109
▁להציל	-9.61127
▁כבד	-9.61293
▁ישוע	-9.61327
מל	-9.61424
▁מתו	-9.61552
▁בנובמבר	-9.61679
▁רופא	-9.61731
צים	-9.61785
-10	-9.61805
▁שאינו	-9.6189
▁2011	-9.61911
▁להימנע	-9.62037
▁רו	-9.62127
▁לשני	-9.62167
▁לילה	-9.62169
▁קוראים	-9.62207
▁כלשהו	-9.62262
עמ	-9.62285
▁חוזר	-9.6238
▁בחיי	-9.62445
▁to	-9.62495
וצ	-9.62554
▁יחסי	-9.62632
▁פרטים	-9.6264
▁2010	-9.62674
▁התנהגות	-9.62682
▁לטפל	-9.62731
▁משה	-9.62754
▁בקרוב	-9.62815
▁התקשורת	-9.62854
▁במספר	-9.6295
▁הימים	-9.62963
▁בתקופה	-9.62994
יום	-9.63014
▁מרכזי	-9.63051
id	-9.63118
▁להוסיף	-9.63133
▁וג	-9.63136
רוס	-9.63156
▁עיצוב	-9.63342
▁חזר	-9.63389
am	-9.63438
▁הדם	-9.63441
▁הפנים	-9.63445
▁טבע	-9.63465
▁In	-9.63524
▁בסרט	-9.63536
▁אפשרויות	-9.63603
יון	-9.63635
▁לעבר	-9.63699
▁בעבודה	-9.63717
אנשים	-9.63759
▁נוכל	-9.6377
▁בכדי	-9.63803
יבי	-9.63927
30	-9.63943
חס	-9.63951
כנים	-9.63989
▁בימים	-9.64024
נדי	-9.64074
▁צד	-9.64134
▁ברוב	-9.64135
▁הנשים	-9.64143
▁בחזרה	-9.64145
▁למות	-9.64176
▁עמוק	-9.64255
ic	-9.6431
▁אמנם	-9.6433
▁קי	-9.64375
▁נוט	-9.64435
▁העניין	-9.64513
▁ההחלטה	-9.64527
▁X	-9.64545
▁עשרה	-9.64675
כנס	-9.64837
ter	-9.64841
▁עובר	-9.64844
▁שינה	-9.64845
▁מרגישים	-9.64845
▁הרופא	-9.64887
um	-9.64913
▁מלבד	-9.6515
▁בל	-9.65181
ער	-9.65247
Y	-9.65271
▁תשובה	-9.65273
▁אחוזים	-9.65306
יא	-9.65314
▁2017	-9.6535
▁טי	-9.65422
▁העור	-9.65479
סוף	-9.65544
un	-9.65545
▁לרכוש	-9.65612
אפשר	-9.65658
▁המחיר	-9.65675
▁U	-9.65695
טא	-9.65744
ינ	-9.65776
▁מהווה	-9.65814
▁קרב	-9.65832
▁ארוכה	-9.65865
▁אפריקה	-9.65924
▁חשובה	-9.65928
▁אבי	-9.65932
▁טובות	-9.66055
▁הד	-9.66091
▁למצב	-9.66292
▁[...]	-9.66301
▁הדו	-9.66308
▁השטח	-9.66322
▁איתם	-9.66325
▁2018	-9.6638
▁באוגוסט	-9.66393
▁ביטחון	-9.66432
▁שהן	-9.66438
▁לחיים	-9.66439
▁קוד	-9.66457
▁בגוף	-9.6646
ווי	-9.66487
▁עתה	-9.66507
▁התמונה	-9.66529
▁רעיון	-9.66534
▁במחקר	-9.66701
▁הוסיף	-9.66746
▁מחשב	-9.66882
▁החלטות	-9.66955
▁האישה	-9.67117
▁אינן	-9.67273
▁הראשי	-9.674
▁לנ	-9.67428
▁פעולות	-9.67453
▁השירות	-9.67527
▁והן	-9.67551
נוס	-9.67566
▁הארי	-9.67567
▁מזו	-9.67596
▁התלמידים	-9.67601
▁תנאי	-9.67629
▁ביניהם	-9.6764
גנים	-9.67665
▁במזרח	-9.67701
▁יקר	-9.67805
▁שמונה	-9.67828
▁מפתח	-9.67891
▁אלקטרוני	-9.67943
▁הצדדים	-9.68033
▁צבא	-9.6808
▁קורא	-9.68084
▁נהג	-9.68104
▁להציג	-9.68119
▁מהיר	-9.68124
▁ביטוח	-9.68127
▁הידע	-9.68141
▁יצירת	-9.68237
▁פועל	-9.6824
▁לבן	-9.68248
▁האפשרות	-9.68283
▁נוח	-9.68324
נן	-9.68456
▁החלה	-9.6847
▁מסע	-9.68494
▁מידי	-9.68547
▁לעצור	-9.68602
▁בסך	-9.68719
מם	-9.6877
▁ביצוע	-9.68772
▁הע	-9.68843
▁מבחינת	-9.68859
▁נזק	-9.68869
▁אישור	-9.68896
נהג	-9.6893
סה	-9.68957
בני	-9.6898
▁לנהל	-9.6923
▁משמעותית	-9.69263
▁תקופת	-9.69309
מתי	-9.69327
▁פתוח	-9.6943
▁אזרחים	-9.6943
50	-9.69489
▁עשויה	-9.69513
▁מיוחדת	-9.69601
דות	-9.69611
▁קבלת	-9.69622
▁מזל	-9.69673
▁בספר	-9.69689
▁האזור	-9.69728
▁בדבר	-9.69749
▁שמות	-9.69798
?”	-9.69983
▁מוות	-9.69996
▁לצורך	-9.70062
▁מספק	-9.70257
▁עונה	-9.70289
מית	-9.70308
▁הכלכלי	-9.7032
▁השלום	-9.70354
טים	-9.70365
▁התהליך	-9.70445
פא	-9.70506
▁ליום	-9.70561
ציה	-9.70568
▁העיקרי	-9.70636
▁הישראלית	-9.70651
▁הערב	-9.70658
▁לעזוב	-9.70737
▁נמוכה	-9.70771
ארד	-9.70796
..."	-9.70854
▁בשעה	-9.70908
▁לזהות	-9.70937
דאג	-9.70953
רגש	-9.70961
▁הצליח	-9.70968
▁האנושות	-9.70973
▁סוגים	-9.70982
▁משקל	-9.70984
▁שלהן	-9.7101
▁בהיסטוריה	-9.7105
▁נכונה	-9.71054
ונג	-9.71067
▁שמה	-9.7109
הן	-9.71103
▁נדרש	-9.71112
▁פרטי	-9.71117
▁עו	-9.7112
▁שטח	-9.71139
▁עת	-9.71244
▁התחיל	-9.71246
קת	-9.71304
▁ואתה	-9.71319
▁מע	-9.71397
▁הפעולה	-9.71414
is	-9.71534
▁סא	-9.71542
▁עדיף	-9.71551
▁הפכה	-9.71631
▁שליטה	-9.71673
נצ	-9.71709
▁מנסים	-9.7177
▁המוות	-9.7181
▁אופן	-9.71914
צב	-9.71944
▁תואר	-9.72048
▁בירושלים	-9.7211
לם	-9.72229
▁ראשי	-9.72274
▁אזרחי	-9.72283
▁טו	-9.72357
▁ארץ	-9.72421
מני	-9.72429
עיר	-9.72433
▁קשור	-9.7249
▁ההבדל	-9.72519
▁הבאות	-9.72584
▁חיפוש	-9.72634
▁בסין	-9.72689
▁סנט	-9.72716
▁ביטוי	-9.72737
פרסם	-9.72804
▁שחור	-9.72815
מוני	-9.72822
▁דה	-9.7286
▁במדינות	-9.72898
▁להראות	-9.72952
▁יחסית	-9.72988
The	-9.73002
▁וכו	-9.73008
יף	-9.73025
▁אלינו	-9.73029
ירים	-9.73127
▁התוצאות	-9.73192
▁$	-9.73199
▁איתי	-9.73291
▁לציין	-9.73302
▁הגנה	-9.73375
▁הפעילות	-9.73535
אלוהים	-9.73537
זכר	-9.73551
▁הבינלאומית	-9.73632
▁פתאום	-9.73635
▁גרם	-9.73723
▁בחו	-9.73742
▁עוזר	-9.7375
▁הלאומית	-9.73864
▁כנגד	-9.73882
▁בקר	-9.73926
ֹ	-9.74
גור	-9.74023
▁ליהנות	-9.74036
ia	-9.74092
▁למד	-9.74127
▁בחוץ	-9.7415
וא	-9.74265
▁מתייחס	-9.74284
קות	-9.74328
▁להציע	-9.74336
▁קדימה	-9.7434
יית	-9.74426
▁עקב	-9.74447
▁האש	-9.74477
▁זקוקים	-9.74513
▁עבודת	-9.74518
▁המקורי	-9.74555
▁נפתח	-9.74555
▁סטודנטים	-9.74569
▁שעברה	-9.74577
▁בעיני	-9.74668
▁האירוע	-9.74673
▁ואל	-9.74691
▁מטרות	-9.74764
▁ומו	-9.74838
▁2016	-9.74844
▁לייצר	-9.74859
▁הלקוחות	-9.74877
שמי	-9.74906
▁לישון	-9.74976
▁סדר	-9.74999
▁לידי	-9.75018
▁נס	-9.75019
גם	-9.75024
▁באפריל	-9.75059
▁המרכזי	-9.7508
▁נפש	-9.75096
▁לפתור	-9.7513
▁התוצאה	-9.75133
▁מותר	-9.75196
▁2009	-9.75221
▁&	-9.75242
▁לבסוף	-9.7542
▁סרטן	-9.75423
▁לקבוע	-9.7545
▁נת	-9.75513
la	-9.75589
▁בטח	-9.75627
מקום	-9.75797
▁הגיעה	-9.75823
מגוון	-9.7584
12	-9.75846
▁פעיל	-9.75944
▁בפברואר	-9.76032
▁האהבה	-9.76051
רכיב	-9.76051
▁מילה	-9.7611
טוב	-9.76131
▁אמנות	-9.76132
▁סתם	-9.76229
▁מצליח	-9.76259
▁שניהם	-9.7629
▁מוצא	-9.76299
יצ	-9.76618
▁אירועים	-9.76635
נדר	-9.76717
רע	-9.76776
▁הראש	-9.76915
▁מדהים	-9.7694
טיס	-9.7697
▁עליכם	-9.76977
▁חס	-9.77017
▁רצה	-9.77068
▁לעצמי	-9.77079
▁מדעי	-9.77097
נטי	-9.77166
▁להוציא	-9.77207
▁נהדר	-9.77214
ta	-9.77258
▁הז	-9.77294
▁שכר	-9.77385
כא	-9.77424
▁השוק	-9.77468
▁בעניין	-9.77497
▁בבקשה	-9.77527
▁חברתית	-9.77585
▁רמות	-9.77602
▁לחוק	-9.77605
▁המדע	-9.77627
▁ברשת	-9.77702
▁ירוק	-9.7786
▁חייהם	-9.7791
ראה	-9.7795
▁בעד	-9.78118
▁למדי	-9.78137
ורד	-9.7827
סר	-9.78284
▁השפה	-9.78334
▁במטרה	-9.78372
▁פא	-9.78379
▁תשלום	-9.78428
▁עי	-9.78485
▁להן	-9.78537
בוא	-9.78552
▁יוצר	-9.78568
▁קבע	-9.78621
▁חיילים	-9.78657
▁להניח	-9.78693
▁דעת	-9.78838
▁צפוי	-9.78865
▁לדבריו	-9.78887
שק	-9.78899
יהן	-9.78905
▁בתהליך	-9.7896
▁ואמר	-9.78986
▁חזקה	-9.78987
▁ברית	-9.79028
▁זכה	-9.79032
▁בריטניה	-9.79076
▁קא	-9.79097
▁שקט	-9.79098
▁ועכשיו	-9.79307
זר	-9.79309
▁זקוק	-9.79379
▁מצרים	-9.7963
▁תה	-9.79663
▁כזאת	-9.79713
▁המילים	-9.79773
וי	-9.79783
▁האיחוד	-9.79791
-15	-9.79868
▁לבני	-9.79882
▁איתך	-9.79895
▁פרסום	-9.79937
▁ענק	-9.7997
דל	-9.79971
▁כשאני	-9.79992
ונית	-9.80048
▁להוביל	-9.80109
▁שיעור	-9.80141
▁החומר	-9.80184
▁מטרה	-9.80191
▁מחפש	-9.80232
▁בכ	-9.80237
▁השאר	-9.80259
▁לטובת	-9.80536
▁בפועל	-9.80612
▁הסביבה	-9.80619
▁בתו	-9.80667
ve	-9.80669
▁עומדים	-9.80788
▁ראוי	-9.80807
▁למכור	-9.80823
אש	-9.80903
▁כרטיס	-9.80918
▁מאו	-9.80943
ילי	-9.80962
▁כולה	-9.80974
▁מבוסס	-9.80998
▁לעצמו	-9.81044
▁טלוויזיה	-9.81162
האם	-9.81195
חק	-9.81234
רוב	-9.81283
▁שמע	-9.81287
▁>	-9.81303
▁הנראה	-9.81328
▁הרגע	-9.8136
▁מהי	-9.81376
▁וידאו	-9.81455
na	-9.81465
שהוא	-9.81493
▁הסיכון	-9.81562
מח	-9.81635
▁אמיתית	-9.81638
▁הפלסטינית	-9.81661
▁שלושת	-9.81704
▁הבלתי	-9.81754
דוד	-9.81779
▁ההגנה	-9.8178
▁בבתי	-9.81807
מין	-9.81825
ation	-9.81862
וף	-9.8187
▁טרור	-9.81943
▁עצמכם	-9.82136
▁העונה	-9.82212
▁ביקור	-9.8222
▁2008	-9.82262
▁המזון	-9.82264
ינס	-9.82349
▁להשפיע	-9.82392
▁קטנות	-9.82416
יפו	-9.82468
▁החברות	-9.82483
▁ארוחת	-9.82575
▁ואי	-9.82608
ריס	-9.82635
היא	-9.82658
▁2007	-9.82661
▁התרבות	-9.82668
ברי	-9.82702
▁זמין	-9.82707
▁הטכנולוגיה	-9.82713
▁הקודם	-9.8275
▁עלי	-9.82844
▁רפואי	-9.82849
▁רצו	-9.82875
▁בשטח	-9.82891
▁הלימודים	-9.82958
▁בד	-9.82997
▁התא	-9.83007
קב	-9.83041
עי	-9.83054
▁גודל	-9.83059
▁פופולרי	-9.83081
▁לוח	-9.83105
▁האישי	-9.83105
▁נוצר	-9.83119
▁השר	-9.83168
▁הקרב	-9.83261
▁ואיך	-9.83277
▁קמ	-9.83523
פתי	-9.83664
▁הגדולות	-9.83719
▁הפרויקט	-9.83733
יץ	-9.83755
▁הרע	-9.83759
קנה	-9.838
▁בקשר	-9.83846
שיח	-9.8385
▁דת	-9.83875
▁הערבי	-9.83877
▁המא	-9.83879
▁עורך	-9.83884
כנות	-9.83911
''	-9.83942
ליט	-9.83944
ch	-9.83998
בד	-9.84057
▁שחי	-9.84121
▁מחלות	-9.84152
▁הלקוח	-9.84181
▁נורא	-9.84209
▁מבקש	-9.84254
one	-9.84405
▁הזכות	-9.8442
▁21	-9.84426
▁נתן	-9.84426
▁מידה	-9.84443
▁מרבית	-9.8447
▁גב	-9.84507
שמע	-9.84508
▁חול	-9.84531
▁הטלפון	-9.84541
▁מקרים	-9.84545
▁הינה	-9.8455
▁התפתחות	-9.84568
▁לעלות	-9.8463
▁המוצרים	-9.84707
שבע	-9.84731
▁לפנות	-9.84737
▁הצוות	-9.84772
מק	-9.84829
▁השונים	-9.84841
▁לשתף	-9.84888
▁אוניברסיטת	-9.84888
▁בניגוד	-9.84889
▁שיפור	-9.84946
▁לתקן	-9.84971
לך	-9.84972
▁במשחק	-9.85034
▁השו	-9.85134
▁דרום	-9.85138
▁p	-9.85153
▁תחילת	-9.85264
▁הכלב	-9.85279
אפ	-9.85375
▁בהשוואה	-9.85421
מצא	-9.85431
▁הבנק	-9.85529
▁כותב	-9.85557
▁לחלק	-9.85668
רון	-9.85669
▁פעמיים	-9.85717
יבה	-9.85744
▁דורש	-9.85764
▁במחיר	-9.85783
▁בדרום	-9.85798
▁שמחה	-9.85826
גול	-9.85834
▁תושבי	-9.85858
▁מבית	-9.85877
טיב	-9.85896
אג	-9.85921
▁עץ	-9.85932
▁אגב	-9.85946
▁הצלחה	-9.86055
כנה	-9.86063
ac	-9.86086
▁המחלה	-9.86088
▁מושלם	-9.86169
▁רעיונות	-9.86208
▁היסטוריה	-9.86246
▁הסבר	-9.8626
▁טרי	-9.86355
▁נושאים	-9.86369
▁מלון	-9.86423
ספ	-9.86434
רג	-9.86477
▁נקודת	-9.86513
▁ואילו	-9.86557
▁הבוקר	-9.86569
▁מסביר	-9.86619
▁צל	-9.86623
עסק	-9.86637
▁Ma	-9.86672
▁ממך	-9.86715
חלק	-9.86733
▁ההזדמנות	-9.86852
▁שקורה	-9.86868
▁מזרח	-9.86946
▁ברי	-9.86954
בין	-9.86981
▁0	-9.87019
▁המערבית	-9.87058
▁60	-9.87128
▁המפתח	-9.87157
▁החוצה	-9.87195
▁בעלת	-9.87209
▁במילים	-9.87218
ייט	-9.87251
!!	-9.87275
▁יושב	-9.87311
לק	-9.8732
▁המפלגה	-9.87385
צר	-9.87388
בע	-9.87741
▁ממשיך	-9.87763
ir	-9.87765
▁לשלוח	-9.87776
▁שבת	-9.87827
▁בעלות	-9.8783
▁קובע	-9.87858
to	-9.87873
▁נחמד	-9.87994
גדר	-9.88003
▁יכולתי	-9.88006
ma	-9.88076
▁אלימות	-9.88114
קנות	-9.88141
▁אלכוהול	-9.88412
▁אח	-9.88437
▁עצמית	-9.88467
▁רגיל	-9.88473
▁ייצור	-9.88492
ine	-9.88525
▁בצפון	-9.88544
▁במאה	-9.88645
▁התנועה	-9.88684
▁פרויקט	-9.88698
מונים	-9.88722
▁בנות	-9.88759
▁מופיע	-9.88765
▁הראשונות	-9.88771
▁בשימוש	-9.88874
▁מזכיר	-9.88877
▁בינתיים	-9.88914
▁פתרונות	-9.88925
▁ראשונה	-9.88982
▁לנשים	-9.8902
▁צי	-9.89131
▁מדע	-9.89151
▁אירוע	-9.89192
▁החוקרים	-9.89212
▁שיער	-9.89281
זמן	-9.89297
▁מוזיקה	-9.89299
סביר	-9.893
▁תנו	-9.89323
▁ביד	-9.89357
▁במשרד	-9.89376
▁עברו	-9.89389
▁לשמש	-9.89421
▁אנ	-9.89432
▁מרגישה	-9.89534
▁מט	-9.89539
פש	-9.89553
▁אביו	-9.89591
▁פל	-9.8968
▁סעיף	-9.89688
▁הקר	-9.89707
▁ישנה	-9.89721
▁תלמידים	-9.89724
לנד	-9.89745
▁יצר	-9.89774
▁החוץ	-9.89796
▁לשלוט	-9.89867
▁for	-9.89878
▁למדינה	-9.89904
מע	-9.89948
-12	-9.89959
▁המי	-9.89991
▁התקופה	-9.90045
▁מותו	-9.90047
▁החיפוש	-9.90098
ערכה	-9.9014
▁דופן	-9.90143
▁משמש	-9.9015
עול	-9.90153
גש	-9.90155
בקש	-9.90179
▁השתמש	-9.90199
▁הבחירה	-9.90218
פרי	-9.90302
▁הלי	-9.90338
▁ההר	-9.90349
▁סימן	-9.90357
▁בכמה	-9.90426
▁לגיל	-9.90428
▁מסכים	-9.90432
▁הכפר	-9.90451
▁כשהם	-9.90475
▁תכונות	-9.90475
כב	-9.90494
▁מוזר	-9.90501
כמה	-9.90529
שא	-9.9053
▁מכיל	-9.90537
ילד	-9.90596
▁מכתב	-9.90616
▁הזדמנויות	-9.90663
▁חיות	-9.90674
▁אושר	-9.90709
▁מסביב	-9.90737
▁ומתן	-9.9074
▁שנקרא	-9.90778
יימס	-9.9084
ניה	-9.90853
▁כחלק	-9.90866
ul	-9.90901
▁נפלא	-9.9091
רכי	-9.90922
▁פרו	-9.90943
ne	-9.90962
▁צפון	-9.90987
▁להרוג	-9.91019
דן	-9.91043
▁ואולי	-9.91097
▁בהרבה	-9.91116
▁דור	-9.91192
▁ביו	-9.91225
▁הלבן	-9.91238
צא	-9.91298
▁גרוע	-9.91299
▁מוכר	-9.91301
גני	-9.91312
ונ	-9.91325
▁חשובים	-9.91405
▁הקל	-9.91428
▁כשאתה	-9.91513
▁''	-9.91514
▁לצ	-9.91563
▁ובין	-9.91644
▁וחצי	-9.91651
רוץ	-9.91653
▁Me	-9.91729
▁לפ	-9.91746
דרך	-9.91764
▁במקומות	-9.91775
▁הממוצע	-9.91785
▁לפגוע	-9.91852
▁הקול	-9.92009
קרא	-9.92029
אחד	-9.92042
▁חיל	-9.92076
▁הרגשתי	-9.9214
דעת	-9.9221
▁הגבוה	-9.92217
▁ומש	-9.92232
סדר	-9.92256
▁המספר	-9.92261
11	-9.92267
▁הקטן	-9.92289
▁אנא	-9.9231
▁ירד	-9.92328
ינט	-9.92341
▁מרי	-9.92348
▁תנועה	-9.92358
▁בתפקיד	-9.9237
▁לאומי	-9.92383
▁הקמת	-9.9246
חיל	-9.92523
-6	-9.92555
▁פועלים	-9.92555
▁הצד	-9.92591
▁אמצעי	-9.92616
▁נתניהו	-9.92617
▁לאחד	-9.92713
▁הדלת	-9.92744
▁מטרת	-9.92779
יתי	-9.92791
▁זול	-9.92803
▁מכם	-9.92814
כנו	-9.92824
ולל	-9.92843
▁סקר	-9.92998
יטה	-9.9302
▁ער	-9.9302
▁משל	-9.93056
פטר	-9.93057
בטח	-9.9306
▁כיף	-9.93078
▁מקורות	-9.93146
▁בכוח	-9.93205
-17	-9.93223
▁אד	-9.93332
▁הסדרה	-9.93355
▁אמריקאי	-9.93408
▁העל	-9.93415
▁אב	-9.93545
▁בערב	-9.9357
▁וזו	-9.93704
▁הקיץ	-9.93707
▁תוכן	-9.93724
יהודים	-9.93755
דון	-9.93787
▁רווח	-9.93825
רצ	-9.93978
▁כתוב	-9.94085
▁שחקן	-9.94096
▁מודע	-9.94106
▁שער	-9.94162
▁הביא	-9.94177
▁היי	-9.94183
15	-9.94199
▁#	-9.94243
▁הבנתי	-9.94255
▁חר	-9.94279
▁הפלסטיני	-9.9429
▁משפחת	-9.94315
▁הבריטי	-9.9433
סקי	-9.94356
ver	-9.94408
▁להחזיר	-9.94468
בנה	-9.94536
me	-9.94538
▁ברורה	-9.94545
▁הפל	-9.94592
▁מקרי	-9.94625
▁כלשהי	-9.94636
▁העיניים	-9.94678
חוש	-9.94716
▁להכין	-9.94724
פן	-9.94771
-30	-9.94899
▁באנגלית	-9.94928
▁וחי	-9.94946
▁מקצועי	-9.9495
ציות	-9.94972
▁2000	-9.9498
מוס	-9.94981
▁וע	-9.95013
▁יא	-9.95019
▁הכוחות	-9.95022
▁בכתב	-9.95075
גבר	-9.9508
▁תא	-9.95145
▁הורים	-9.95151
▁שחקנים	-9.95161
ערך	-9.95196
▁חלב	-9.95247
▁דיווח	-9.95259
▁22	-9.95314
▁נגמר	-9.95345
עק	-9.95358
יסט	-9.95401
יפים	-9.95415
ll	-9.9546
▁החדשות	-9.95469
▁רשמי	-9.95498
▁בטוחה	-9.95523
דבר	-9.95583
▁הפי	-9.95601
▁מורכב	-9.95642
▁מטר	-9.95736
▁תחושה	-9.95862
שב	-9.95865
▁מבצע	-9.95873
▁נרחב	-9.95897
▁אנגלית	-9.9592
▁חובה	-9.95934
▁בנק	-9.95944
▁מחשבות	-9.95998
▁עזה	-9.9602
דרג	-9.96067
▁דובר	-9.96092
▁2019	-9.96109
פח	-9.96136
יפות	-9.96153
▁סיפר	-9.96165
רוח	-9.96176
▁להשקיע	-9.9621
):	-9.96215
▁אנג	-9.96262
▁יח	-9.96287
▁לאהוב	-9.96317
▁שפה	-9.96354
▁ריק	-9.96379
▁הבעיות	-9.96446
▁ללמד	-9.96475
▁להחליט	-9.96492
ce	-9.96593
ימי	-9.96626
▁המשך	-9.96634
▁לדברי	-9.96647
נסי	-9.96659
▁סיכון	-9.96716
▁לוודא	-9.96723
▁למרב	-9.96798
▁המשמעות	-9.96843
J	-9.96844
▁משתנה	-9.96867
co	-9.96887
▁ובכך	-9.96932
▁במרץ	-9.96932
▁העתיקה	-9.96934
▁שיחק	-9.96944
▁לקרות	-9.96971
קרי	-9.9699
▁נותר	-9.97072
לין	-9.97136
▁בלונדון	-9.97183
▁הקרוב	-9.97194
▁בחירה	-9.97216
ho	-9.97295
v	-9.97295
▁Google	-9.97306
▁וס	-9.9734
ers	-9.97387
▁De	-9.9741
מקד	-9.97411
▁להצטרף	-9.97438
▁בצ	-9.97441
עולם	-9.97474
▁עלולים	-9.97505
עימות	-9.97544
נצח	-9.97572
▁הכר	-9.97599
▁תחום	-9.97601
▁בסביבה	-9.97623
▁הוועדה	-9.97652
▁למלא	-9.97668
▁התפקיד	-9.97682
▁האלבום	-9.97727
▁צורה	-9.97728
▁מאה	-9.97753
▁האמריקני	-9.97816
-16	-9.97826
רא	-9.97828
עזר	-9.97846
▁פור	-9.97865
▁לרגע	-9.97892
▁היתר	-9.979
3%	-9.9795
▁זר	-9.97973
▁אחראי	-9.98009
▁תל	-9.98029
▁מור	-9.98039
▁לתמוך	-9.9807
▁יעיל	-9.9807
▁צילום	-9.98128
פסק	-9.98135
▁עור	-9.98171
▁מתכוון	-9.98232
▁להילחם	-9.98244
▁למטה	-9.98267
▁ארגונים	-9.98283
▁הבן	-9.98318
▁לקדם	-9.98341
תן	-9.9835
▁לענות	-9.98387
מפ	-9.98411
▁מתחילה	-9.98434
▁לדאוג	-9.98516
▁שנמצא	-9.98521
▁צודק	-9.98534
▁St	-9.98558
▁מיוחדים	-9.98558
▁המאמר	-9.98605
▁נראית	-9.9862
▁במחשב	-9.98626
ָה	-9.98641
▁בטוחים	-9.98676
▁הצעיר	-9.98691
▁^	-9.98895
▁שהייתה	-9.98929
▁שהייתי	-9.98981
ent	-9.99074
”,	-9.99081
▁ייחודי	-9.99097
▁סגור	-9.99145
5%	-9.99202
▁לאן	-9.99202
▁לדעתי	-9.99222
▁לשבת	-9.99223
▁לאט	-9.99251
זיה	-9.99286
▁אכפת	-9.993
▁הקודש	-9.99331
טוס	-9.99373
▁ממשיכים	-9.99402
אותה	-9.99451
▁מוצרי	-9.99451
▁שיטות	-9.99475
▁להפחית	-9.99476
▁מנהיג	-9.99484
▁מומחים	-9.99507
▁לחברה	-9.99518
▁מודעים	-9.99546
▁הקהל	-9.99569
▁סר	-9.99672
▁חו	-9.99752
▁בבריטניה	-9.99764
טות	-9.99767
▁חם	-9.99784
▁אופי	-9.99796
ie	-9.99813
▁המח	-9.99817
▁משפחות	-9.99823
▁בהתחלה	-9.9985
▁משותף	-9.99852
▁ובכן	-9.99934
▁דוגמה	-9.99935
▁תקווה	-10.0001
▁במשקל	-10.0005
▁השחקנים	-10.0009
▁גי	-10.0009
▁האמריקאית	-10.001
חול	-10.0019
▁עליי	-10.0022
ge	-10.0027
שור	-10.0029
▁האוניברסיטה	-10.0031
▁הבר	-10.0033
▁משני	-10.0034
▁הקרקע	-10.0035
▁הני	-10.0036
רמות	-10.0038
▁כלבים	-10.0045
▁החברים	-10.005
▁מז	-10.0052
▁פשוטה	-10.0052
▁c	-10.0055
יחיד	-10.006
▁באוניברסיטת	-10.0063
▁איבד	-10.0067
▁החשוב	-10.0073
▁המודרני	-10.0073
חזר	-10.0079
▁פוליטית	-10.0083
▁שניים	-10.0093
▁חשמל	-10.0094
שאר	-10.0097
▁המר	-10.0097
▁רצח	-10.0097
▁המרכז	-10.01
▁הנכונה	-10.0102
▁שאף	-10.0107
▁אשתו	-10.0107
▁ואינ	-10.0109
▁אמ	-10.011
▁בק	-10.0112
▁במרחק	-10.0119
▁קונ	-10.0121
▁גבולות	-10.0126
נם	-10.0128
▁הופכ	-10.0129
עור	-10.0129
מנים	-10.0134
▁הפוסט	-10.0135
▁הגבוהה	-10.0136
▁חוויה	-10.0137
גז	-10.0138
▁השינוי	-10.0139
▁בתקופת	-10.014
ירו	-10.014
קלי	-10.014
סיפור	-10.0142
▁וכמה	-10.0147
▁רגל	-10.015
▁הדי	-10.0152
pe	-10.016
▁העיקרית	-10.0161
▁ההשפעה	-10.0162
▁יעשה	-10.0163
▁הכנסת	-10.0171
למד	-10.0171
▁חינם	-10.0175
▁החלל	-10.0182
ry	-10.0184
▁אחי	-10.0186
▁חומרים	-10.0186
▁עמוד	-10.0188
▁מערב	-10.0189
-7	-10.019
נדו	-10.0191
ונו	-10.0197
▁בדיקות	-10.0197
▁להעלות	-10.0198
▁שקרה	-10.0206
▁כלב	-10.0207
▁שצ	-10.0209
ישראל	-10.021
▁אדמה	-10.0217
▁מלך	-10.0218
▁מאמר	-10.022
פד	-10.0224
הפוך	-10.0237
▁בהכרח	-10.0241
▁זרים	-10.0242
▁ספרי	-10.0246
מיר	-10.0247
▁שקר	-10.0251
▁מפתיע	-10.0254
▁פלסטינים	-10.0255
עשר	-10.0256
▁משם	-10.0259
▁צר	-10.0268
▁לימוד	-10.027
▁b	-10.0272
▁לומדים	-10.0273
▁הרצון	-10.0276
2%	-10.028
▁קט	-10.028
▁הלו	-10.0286
נתי	-10.0286
▁אהבתי	-10.0288
▁רגשות	-10.029
נאי	-10.0292
▁כלכלית	-10.0299
▁בשפה	-10.0301
▁הבנה	-10.0304
ניק	-10.0306
▁גז	-10.0307
▁רחבי	-10.0308
▁האר	-10.0309
▁אמונה	-10.0315
▁המקרים	-10.0317
▁מכאן	-10.0332
טרי	-10.0336
▁2006	-10.0336
▁!	-10.0338
▁ירי	-10.0345
▁האנושית	-10.0349
▁שומר	-10.035
▁ישנן	-10.0352
▁טעות	-10.0362
בטיח	-10.0367
▁מחו	-10.037
▁דיבר	-10.0372
▁במי	-10.0374
▁בצרפת	-10.0374
וקר	-10.0375
▁משו	-10.0378
נע	-10.038
▁סוריה	-10.0383
▁הקריירה	-10.0392
▁בשום	-10.0396
▁שרק	-10.0404
▁סקס	-10.0406
man	-10.0408
▁לחקור	-10.0412
אמר	-10.0412
▁בך	-10.0417
▁הסי	-10.0419
פע	-10.042
▁עשיתי	-10.0424
חוץ	-10.0425
▁נראים	-10.0427
▁שיווק	-10.0429
▁בפ	-10.0432
עניין	-10.0434
מט	-10.0435
▁עבודות	-10.0443
▁To	-10.0444
▁איתנו	-10.0445
▁נמנע	-10.0446
im	-10.0447
▁מבני	-10.0447
"?	-10.0448
ni	-10.0457
▁מתאר	-10.0459
לר	-10.0463
מערכת	-10.0463
▁לארץ	-10.0464
▁הקשורים	-10.0464
▁לילד	-10.0465
כניס	-10.0468
▁בינלאומיים	-10.0472
▁בינלאומי	-10.0473
▁התנ	-10.0478
▁להוכיח	-10.048
▁פעילויות	-10.0483
▁("	-10.0487
סרט	-10.0488
▁המשתמש	-10.0504
▁מבנה	-10.0509
▁להסתכל	-10.0513
▁להוריד	-10.0514
יצר	-10.0522
ימו	-10.0524
▁שמישהו	-10.0529
בוס	-10.0532
▁טווח	-10.0535
▁היעד	-10.0544
עצב	-10.0545
▁גור	-10.0546
▁חוקרים	-10.0547
▁תיק	-10.0547
פחד	-10.0549
▁שלב	-10.0554
קוס	-10.0554
פרו	-10.0555
▁צדק	-10.0558
▁המבוסס	-10.0562
▁לכ	-10.0564
▁באחד	-10.0565
▁ולהת	-10.0574
פרק	-10.0574
▁מעולה	-10.0575
▁הטרור	-10.0579
▁אביב	-10.0582
▁WEB	-10.0582
▁לכאורה	-10.0586
אוס	-10.0586
▁הטובות	-10.0587
פנה	-10.0587
▁הציבורי	-10.0587
▁הדת	-10.0588
▁הודעה	-10.059
אנג	-10.059
▁באשר	-10.059
▁וכש	-10.0591
מלא	-10.0601
קא	-10.0603
▁לחכות	-10.0606
אמא	-10.0607
וץ	-10.0609
▁עמד	-10.061
חשוב	-10.061
▁שאמר	-10.0615
▁המאפשר	-10.0616
▁נוסעים	-10.0616
▁קלה	-10.0616
ולד	-10.0619
▁מוח	-10.062
▁קיבלו	-10.0624
▁במקביל	-10.0627
▁המוזיקה	-10.063
▁מזג	-10.0638
▁סיוע	-10.0639
▁כספי	-10.0643
▁+	-10.0646
▁האחר	-10.0647
▁העת	-10.0655
▁הגב	-10.0658
▁לונדון	-10.0664
▁חשב	-10.0668
▁והיה	-10.067
▁לזכות	-10.0681
אף	-10.0681
▁המשימה	-10.0683
▁להתייחס	-10.0684
▁סרטים	-10.0688
▁הצבאי	-10.0692
▁אליך	-10.0692
▁שישי	-10.0697
▁אינני	-10.07
▁להחליף	-10.0708
▁Windows	-10.0714
▁מחלה	-10.0715
ברו	-10.0715
גלו	-10.0716
▁הכללי	-10.0718
▁Co	-10.0719
פילוסופי	-10.0732
▁עומדת	-10.0733
▁לבחון	-10.0734
איך	-10.0736
▁היתרונות	-10.0736
▁לשנת	-10.0742
▁סול	-10.0745
▁טכנולוגיה	-10.0745
ידות	-10.0746
▁ביקש	-10.0746
25	-10.0747
▁גידול	-10.0748
▁מסלול	-10.0749
▁דף	-10.075
▁הצי	-10.0756
▁סופר	-10.0757
קוד	-10.0762
▁ב־	-10.0764
אחר	-10.0767
▁מסוימות	-10.0767
▁לשלב	-10.077
▁תגובה	-10.0772
▁שירותים	-10.0777
▁להשתתף	-10.0777
▁דמות	-10.0779
לוגי	-10.078
פתח	-10.0787
מזרח	-10.0788
▁השינה	-10.079
▁חכם	-10.079
▁המבנה	-10.0792
שׁ	-10.0792
▁הפיזי	-10.0793
▁צפו	-10.0795
▁הצליחו	-10.0795
רכב	-10.0798
▁קרי	-10.0798
▁אדום	-10.0799
▁מציעים	-10.08
ייר	-10.0805
▁לעיר	-10.0812
כתוב	-10.0813
מנט	-10.0816
הייתי	-10.0822
▁הסביר	-10.0831
▁האזרחים	-10.0835
▁לשינוי	-10.0836
▁תגובות	-10.0837
▁לשתות	-10.0837
▁הממשל	-10.0841
▁שדה	-10.0843
▁דמי	-10.0848
▁סוד	-10.0852
▁במקור	-10.0852
▁מסוכן	-10.0854
עבר	-10.0857
▁מאפשרת	-10.0858
▁ואחר	-10.0861
▁הלאה	-10.0866
▁ארגוני	-10.0869
▁הכלכלה	-10.087
חייב	-10.087
▁עובדת	-10.0871
▁הכרחי	-10.0873
▁פתח	-10.0877
קן	-10.0878
▁בשתי	-10.0882
קפה	-10.0883
▁שיניים	-10.0885
ell	-10.0885
7%	-10.0889
om	-10.089
▁קוריאה	-10.0894
ut	-10.0894
▁f	-10.0896
▁הגבול	-10.09
▁שישה	-10.0904
▁הנפש	-10.0907
▁נקבע	-10.0914
▁האמונה	-10.0918
▁טלפון	-10.0919
▁אפל	-10.0921
▁השראה	-10.0925
ילת	-10.0927
▁קיצוני	-10.0929
▁בדיקה	-10.0931
▁מרגש	-10.0931
▁השת	-10.0937
פוס	-10.0942
▁הידוע	-10.0946
כדי	-10.0948
▁כתובת	-10.095
▁פוסט	-10.0953
▁23	-10.0955
▁המשחקים	-10.0955
▁לקבלת	-10.0962
▁הרשמי	-10.0968
▁תוצאה	-10.0968
פעיל	-10.0976
▁עיניים	-10.0979
▁אמון	-10.0982
▁דומים	-10.0987
▁הולכת	-10.0989
▁ישיר	-10.0994
▁עורכי	-10.0996
זרים	-10.0997
▁דולרים	-10.0998
and	-10.0999
▁החליט	-10.1002
▁מביא	-10.1002
▁נהרגו	-10.1004
▁שמי	-10.1005
▁שילוב	-10.1005
▁נדמה	-10.1005
▁רקע	-10.1019
▁לטווח	-10.102
יח	-10.1021
▁משפיע	-10.1025
מערב	-10.1034
▁גבי	-10.1036
▁בחור	-10.1047
▁המהפכה	-10.1052
▁טוען	-10.1053
ונס	-10.1056
▁שואל	-10.1056
▁קיימות	-10.1059
▁הודעות	-10.106
רצו	-10.1061
▁בשבילי	-10.1062
▁תינוק	-10.1068
ארה	-10.1069
▁לציבור	-10.1069
ודי	-10.107
-8	-10.1071
אנ	-10.1074
▁זי	-10.1075
מתח	-10.1078
▁שירים	-10.108
▁המשרד	-10.1083
חזור	-10.1089
▁ציבורי	-10.1093
▁החדשים	-10.1096
מדינה	-10.1102
▁השכר	-10.1102
▁מספקת	-10.1103
חבר	-10.1103
▁להקים	-10.1104
ate	-10.1105
▁בחינם	-10.1116
וול	-10.1118
▁להגדיל	-10.1119
כתב	-10.1123
כיר	-10.1123
צביע	-10.1125
▁גבוהים	-10.1129
▁אהבת	-10.113
ti	-10.1133
▁האוכלוסייה	-10.1136
▁להשאיר	-10.1137
▁מגיעה	-10.1141
▁מינית	-10.1141
▁כאמור	-10.1142
▁קשים	-10.1143
משפחה	-10.1146
▁חלקים	-10.1151
עבוד	-10.1152
▁ישראלים	-10.1153
")	-10.1154
60	-10.1157
▁שבהן	-10.1163
▁יתכן	-10.1167
▁הנוגע	-10.1173
▁צה	-10.1174
▁מציאות	-10.1175
לג	-10.1177
בנו	-10.1177
▁בוחרים	-10.1179
▁מדויק	-10.1185
נדה	-10.1187
▁אבטחה	-10.1189
ותיו	-10.1196
▁בעצמו	-10.1201
▁מצאו	-10.1201
▁יכלו	-10.1203
▁35	-10.1204
▁הסיבות	-10.1208
כמו	-10.121
-11	-10.1213
▁לפיכך	-10.1214
▁לר	-10.1221
▁סובל	-10.1222
▁תח	-10.123
▁לכאן	-10.1232
▁החוף	-10.1237
▁סיפורים	-10.1239
▁באה	-10.1244
▁תחושת	-10.1246
משחק	-10.1249
▁הכאב	-10.1251
קד	-10.1251
▁כאלו	-10.1253
▁זיכרון	-10.126
כלל	-10.1267
▁מתן	-10.1273
▁הפר	-10.1273
▁ואנו	-10.1274
▁להשלים	-10.1276
▁הפרטי	-10.1277
▁חיה	-10.1277
▁אוטומטי	-10.1277
▁בגרמניה	-10.1282
רב	-10.1287
רצח	-10.1289
▁בבחירות	-10.1291
▁סמים	-10.1294
▁כוכב	-10.1299
לוט	-10.1301
▁רציני	-10.1303
רווח	-10.1304
▁בסוריה	-10.1305
פנים	-10.1308
▁הרשת	-10.1313
דבק	-10.1317
▁מצפה	-10.1319
ואר	-10.1321
▁Mo	-10.1323
mo	-10.1327
שינוי	-10.1327
נון	-10.1328
▁בקו	-10.133
▁הפתרון	-10.1331
▁כוללת	-10.1332
▁האדום	-10.1337
▁הערך	-10.1347
▁להשתנות	-10.1347
▁לרדת	-10.1349
▁שיי	-10.1351
▁מגלה	-10.1358
▁עצום	-10.1358
שתי	-10.136
▁מציעה	-10.1371
▁שומן	-10.1372
חיים	-10.1376
▁העולמית	-10.1376
טס	-10.1378
▁להחזיק	-10.1381
▁נותנים	-10.1382
sh	-10.1382
כנת	-10.1384
פרט	-10.1398
▁שד	-10.1399
▁האחריות	-10.1404
▁סיום	-10.1409
רגע	-10.1409
גיד	-10.141
▁מרק	-10.1411
▁איתה	-10.1412
▁אבו	-10.1416
▁לוותר	-10.1418
▁הירח	-10.142
ניס	-10.142
▁איננה	-10.142
▁נוכח	-10.142
▁ניסה	-10.1424
▁מבוגרים	-10.1426
רגל	-10.1428
▁הלך	-10.1429
▁פוליטי	-10.143
▁יבש	-10.1431
▁המסר	-10.1431
▁מפ	-10.1436
▁ידעו	-10.1438
▁מכוניות	-10.1439
▁הגישה	-10.144
בוי	-10.144
▁המיוחד	-10.1441
בצע	-10.1447
▁העיצוב	-10.1453
▁יעזור	-10.1454
▁בסי	-10.1456
▁המדיניות	-10.1459
▁ולש	-10.1462
▁לקיים	-10.1465
פגש	-10.1466
▁חשבו	-10.1468
▁נייר	-10.1469
▁מעו	-10.1469
40	-10.1471
▁בקיץ	-10.1472
▁תחילה	-10.1477
׳	-10.1479
▁מעשה	-10.1481
▁גופנית	-10.1482
16	-10.1489
▁הנמצא	-10.149
▁מתרחש	-10.1491
ניו	-10.1494
צעד	-10.1495
▁רשות	-10.1504
ואל	-10.1506
▁השחור	-10.1509
▁ממשלה	-10.1509
▁עזב	-10.1514
דברים	-10.1514
ציל	-10.1515
▁בקשה	-10.1518
▁מוצלח	-10.1525
▁מיליוני	-10.1526
▁המלון	-10.1529
ייחס	-10.153
▁השאלות	-10.1531
▁החי	-10.1544
▁ציין	-10.1548
נשים	-10.155
▁הסדר	-10.1552
▁הנו	-10.1553
▁עובדות	-10.1555
17	-10.1558
▁הכניסה	-10.1559
▁ואחרי	-10.1559
▁איטליה	-10.1563
▁פרט	-10.1563
▁שבין	-10.1564
▁הכולל	-10.1568
▁מוביל	-10.1568
▁עשרים	-10.157
▁חיובית	-10.1575
▁מעלה	-10.1575
de	-10.1577
גינה	-10.1583
▁28	-10.1584
▁לאבד	-10.1585
שלם	-10.1588
1%	-10.159
▁מעורר	-10.1595
תמיד	-10.1595
▁מגדל	-10.1598
▁חיבור	-10.1598
▁לד	-10.1602
ראי	-10.1602
▁פסק	-10.1608
▁חלקם	-10.1609
▁יחיד	-10.1618
▁טעם	-10.1621
▁טיפ	-10.1624
▁כוללים	-10.1625
▁Y	-10.1626
▁ופ	-10.1627
▁והש	-10.163
רית	-10.1634
▁Be	-10.1639
זיק	-10.1661
אבי	-10.1664
▁הרכבת	-10.1665
▁de	-10.1665
▁ברחוב	-10.1667
▁להר	-10.1667
▁לתאר	-10.167
▁שמאל	-10.1671
▁נפגע	-10.1672
▁הבל	-10.1673
▁נהיה	-10.1675
יכם	-10.168
▁מהבית	-10.1681
נכם	-10.1681
▁ירידה	-10.1684
▁Ro	-10.1686
▁השלישית	-10.1687
ידה	-10.1688
▁מרוב	-10.1696
קומה	-10.1697
▁התורה	-10.1702
▁עמו	-10.1706
▁הקדוש	-10.1707
שירות	-10.1715
▁התחלתי	-10.1717
▁המשיך	-10.1717
▁רשימה	-10.1719
גרי	-10.172
▁וד	-10.1722
▁גלי	-10.1723
▁פרויקטים	-10.1725
-13	-10.1725
4%	-10.1727
▁משפחתי	-10.1727
▁נש	-10.1727
▁צעדים	-10.1729
▁כלכלי	-10.173
▁הנהג	-10.1733
▁מודעות	-10.1734
▁סכום	-10.1735
▁הפא	-10.1737
▁המכונית	-10.1738
▁ברצינות	-10.1739
▁היד	-10.174
חשב	-10.174
▁מעניק	-10.1745
▁להסיר	-10.1746
▁הקב	-10.1747
כח	-10.1756
▁You	-10.1757
▁שכולם	-10.1757
▁אובדן	-10.1759
▁נורמלי	-10.176
▁הרוב	-10.1764
▁הפחד	-10.1764
▁יוצאת	-10.1765
8%	-10.1765
▁ההסכם	-10.1767
▁הגיוני	-10.1767
▁קצרה	-10.1774
▁משבר	-10.1779
▁למספר	-10.1783
▁מועיל	-10.1788
▁שיצא	-10.1793
▁מכונית	-10.1797
▁שנייה	-10.1799
▁נמל	-10.18
▁גאה	-10.1801
▁אבן	-10.1802
▁התכנית	-10.1805
▁חיוני	-10.1807
▁לנסוע	-10.1812
▁נתפס	-10.1814
▁הופכים	-10.1815
▁להודות	-10.1821
▁להפעיל	-10.1825
▁למישהו	-10.1827
▁המין	-10.1832
▁אנטי	-10.1833
▁מועצת	-10.1838
▁מכירות	-10.184
▁שמעתי	-10.1841
▁·	-10.1849
▁2005	-10.185
▁נעצר	-10.1851
▁שיא	-10.1852
אלץ	-10.1856
▁ואתם	-10.1861
▁מפעיל	-10.1864
▁הבדל	-10.187
▁לנצל	-10.1871
▁לסיים	-10.1877
▁האמנות	-10.1878
▁הטלוויזיה	-10.1884
▁להצליח	-10.1885
▁עזר	-10.1887
▁תיאור	-10.1888
▁לאזור	-10.1898
▁אשראי	-10.19
▁ללקוחות	-10.1901
▁בניית	-10.1905
▁בוא	-10.1909
▁חיובי	-10.1909
▁נסיעה	-10.1923
▁בתגובה	-10.1924
▁ממוצע	-10.1926
סביב	-10.1929
▁רוברט	-10.1929
▁חוקים	-10.1933
קני	-10.1936
▁ישר	-10.1938
▁בימי	-10.1939
עקב	-10.1941
▁החזק	-10.1948
ידו	-10.1949
▁רלוונטי	-10.1955
▁למשחק	-10.1958
לילה	-10.1958
▁כואב	-10.196
▁פארק	-10.1963
70	-10.1964
80	-10.1964
ראש	-10.1965
▁Pa	-10.1966
▁מוצאים	-10.1969
▁שאולי	-10.197
▁התמונות	-10.197
ion	-10.1973
-14	-10.1976
▁נועד	-10.1978
▁חלקי	-10.1988
▁ביקר	-10.1988
לווי	-10.1989
יכו	-10.1998
▁תקציב	-10.1998
סובב	-10.2
ck	-10.2004
חש	-10.2005
▁מצוין	-10.2008
▁הרוחני	-10.2009
▁האוכל	-10.2014
חומר	-10.2017
▁הבין	-10.2019
ספק	-10.2023
▁לשאלה	-10.2024
▁הבסיס	-10.2025
ha	-10.203
▁בינינו	-10.2037
נש	-10.2039
▁העד	-10.204
▁להצביע	-10.2048
ca	-10.2048
▁משפחתו	-10.2051
קרו	-10.2052
▁השלטון	-10.2055
▁המוזיאון	-10.2055
▁העיקריים	-10.2056
▁יוצאים	-10.2057
▁להקל	-10.2059
▁ובה	-10.2073
▁המערבי	-10.2075
▁הפנימי	-10.2082
▁המל	-10.2089
▁צבאי	-10.2092
יקים	-10.2093
▁Z	-10.2096
כוח	-10.2098
▁נוכחות	-10.2099
▁קיבלה	-10.2101
▁הוביל	-10.2101
מנת	-10.2102
▁עמדה	-10.2103
מערכות	-10.2104
▁לתפוס	-10.211
]]	-10.2112
tion	-10.2113
▁החלטת	-10.2117
▁הכביש	-10.2118
פרס	-10.2119
▁השונות	-10.2121
▁האפשרי	-10.2124
▁הכנסייה	-10.2125
שנה	-10.2131
סים	-10.2131
▁המלא	-10.2132
למו	-10.2135
עידן	-10.2135
ודד	-10.2136
▁פותח	-10.2136
▁ביי	-10.2137
ציר	-10.2141
▁26	-10.2142
▁סבל	-10.2143
▁בשבילך	-10.2148
▁מועד	-10.2151
▁להגדיר	-10.2153
▁פוגע	-10.2157
פעם	-10.2157
ביע	-10.2159
▁שפת	-10.2162
▁המסחר	-10.2162
טרו	-10.2164
שיר	-10.2165
ודו	-10.2169
▁נור	-10.2169
▁וזאת	-10.2171
בוט	-10.2172
גברים	-10.2172
▁אוכלים	-10.2176
▁לחדר	-10.2176
▁מוסדות	-10.2181
▁אורח	-10.2183
▁הספרים	-10.2185
▁הדור	-10.2188
▁משחקי	-10.2189
▁קשות	-10.219
▁מתוק	-10.219
▁ציוד	-10.2191
▁יפן	-10.2192
רך	-10.2194
▁חמאס	-10.2196
עז	-10.2198
▁27	-10.2202
-9	-10.2202
ant	-10.2204
▁האפשר	-10.2208
▁הייצור	-10.2213
▁באיזה	-10.2213
▁במאמר	-10.2216
▁הודו	-10.2217
יקי	-10.2217
ולוגיה	-10.2219
עביר	-10.2219
▁קהל	-10.2219
סס	-10.2223
רוק	-10.2224
▁טען	-10.2224
▁בכיר	-10.2224
▁מדענים	-10.2225
▁המנהל	-10.2228
▁הביטוי	-10.2234
▁בחירות	-10.2237
▁מעוניינים	-10.2237
מג	-10.2238
פנו	-10.2241
▁קורס	-10.225
ווא	-10.2251
▁חברתי	-10.2253
▁הליכה	-10.2256
▁מאמץ	-10.2264
זן	-10.2266
▁השתנה	-10.2267
בון	-10.2267
▁יגיע	-10.2272
▁אינך	-10.2272
▁להרוויח	-10.2272
הופך	-10.2275
▁בגודל	-10.2275
גלה	-10.2277
▁לכיוון	-10.2282
אנס	-10.2284
▁הלידה	-10.2292
▁סדרת	-10.2294
נך	-10.2294
▁דל	-10.2295
עבודה	-10.2298
▁בודד	-10.2299
%	-10.23
▁כראוי	-10.2301
▁שהגיע	-10.2302
▁השניים	-10.2302
▁להתגבר	-10.2303
ציע	-10.2306
▁תלמיד	-10.2307
▁שתו	-10.231
▁הרגיש	-10.2314
▁תאי	-10.2314
בלי	-10.2316
רשת	-10.2316
באנגלית	-10.2319
▁מציג	-10.2319
▁היסטורי	-10.2319
▁מסתכל	-10.2321
▁לוקחים	-10.2325
תפקיד	-10.2328
מצו	-10.2328
▁קרן	-10.2329
ערות	-10.2332
▁כחול	-10.2333
שמים	-10.2333
▁עוברים	-10.2334
▁תאריך	-10.2339
▁מעוניין	-10.2339
ts	-10.2342
▁הפרס	-10.2342
▁נכשל	-10.2343
פרש	-10.2349
▁המועצה	-10.235
רן	-10.2354
▁בהקשר	-10.2355
נפ	-10.2358
▁הבו	-10.2364
▁ספרד	-10.2364
▁לפגוש	-10.2365
▁כדורגל	-10.2366
▁בהצלחה	-10.2367
ניח	-10.2376
▁שימו	-10.2379
▁כוכבים	-10.238
▁יהודית	-10.2386
▁לגדול	-10.2387
!!!	-10.2391
▁עצמאי	-10.2394
▁לבי	-10.2397
▁האויב	-10.2398
צפו	-10.2402
▁שרוב	-10.2402
▁פלא	-10.2404
13	-10.241
▁שמן	-10.2413
▁המורה	-10.2416
▁אצלנו	-10.2417
▁נפרד	-10.2417
▁זמני	-10.242
▁לשאת	-10.2423
איר	-10.2432
▁ועדיין	-10.2433
סק	-10.2444
▁חשש	-10.2447
op	-10.2456
▁החדר	-10.2458
▁מחכה	-10.246
▁לבטל	-10.2467
▁רשימת	-10.2472
חפש	-10.2475
▁מזמן	-10.2482
ערב	-10.2484
▁שבא	-10.2487
סופ	-10.2487
▁הולדת	-10.2489
אמנים	-10.2496
▁חירום	-10.2496
▁שתהיה	-10.2498
צילום	-10.2499
▁2020	-10.2499
▁נקי	-10.25
▁בוודאי	-10.25
▁מורה	-10.2506
ill	-10.2506
ive	-10.2506
▁באוויר	-10.2506
עמד	-10.2511
▁ההי	-10.2517
טבע	-10.2518
▁הרפואי	-10.2522
▁היקום	-10.2523
▁הציג	-10.2524
▁מוט	-10.2527
▁חולה	-10.253
▁הוציא	-10.2531
▁הייתם	-10.2531
רחב	-10.2532
כוכב	-10.2533
no	-10.2536
ילים	-10.2537
▁שע	-10.2547
▁מונח	-10.2551
▁בדם	-10.2551
▁עיני	-10.2554
זאת	-10.2556
▁לעקוב	-10.2561
▁לתפקיד	-10.2561
▁מוחלט	-10.2565
▁השלב	-10.2565
▁רוחני	-10.2575
▁בטיחות	-10.2575
▁מוכנה	-10.2577
▁מהירות	-10.2579
▁יוצרים	-10.2579
▁להגיש	-10.258
▁w	-10.2586
▁מצוי	-10.2589
▁ריי	-10.2591
▁אתרים	-10.2591
חקר	-10.2592
▁”	-10.2593
▁שקל	-10.2598
▁מנ	-10.2601
שלום	-10.2602
צבע	-10.2603
▁ואולם	-10.2604
▁אישיות	-10.2612
▁המקור	-10.2613
▁גזע	-10.2616
▁השינויים	-10.2618
▁חבל	-10.262
▁השתמשו	-10.2622
נוע	-10.2623
“	-10.2626
מיה	-10.2629
mp	-10.263
ָּ	-10.2635
▁מחשבה	-10.2638
סול	-10.2638
▁בחוק	-10.2641
אושר	-10.2641
▁ילדה	-10.2647
▁מכלל	-10.2648
▁ציבורית	-10.265
▁ניצח	-10.2654
▁במלחמה	-10.2655
▁באים	-10.2656
▁בט	-10.2656
▁הבעלים	-10.2658
שני	-10.2659
▁קראו	-10.2659
רוז	-10.2659
▁נמכר	-10.2661
▁מאמינה	-10.2661
▁לשיר	-10.2662
▁השפעת	-10.2664
▁בוחר	-10.2667
all	-10.2668
▁פרטיות	-10.2668
פקח	-10.2673
▁שניות	-10.2677
▁מודה	-10.2677
ist	-10.2679
▁מוזיאון	-10.268
▁re	-10.2681
ph	-10.2682
▁בינלאומית	-10.2686
▁מנכ	-10.2689
▁בפרט	-10.269
▁האמיתית	-10.2693
▁לעצמך	-10.2693
פונקצי	-10.2695
▁להתמקד	-10.2696
▁יתרונות	-10.27
▁להתאים	-10.27
▁תנאים	-10.2704
▁מהירה	-10.2704
99	-10.2706
▁הגברים	-10.2707
▁זהב	-10.2707
45	-10.2709
ירי	-10.2711
▁נעים	-10.2713
▁האופן	-10.2713
▁עצוב	-10.2714
▁עשיר	-10.2718
▁להצלחה	-10.2718
▁בסגנון	-10.2721
▁בלעדי	-10.273
▁החודש	-10.2731
חווה	-10.2731
▁קיר	-10.2735
▁לשכוח	-10.2735
▁הקטנה	-10.2735
▁הנוכחית	-10.2738
lu	-10.274
▁רצוי	-10.274
ab	-10.2745
Z	-10.2748
age	-10.275
▁לבריאות	-10.2753
▁ובני	-10.2754
▁האחד	-10.2757
▁בגדים	-10.2759
▁השיער	-10.276
ימת	-10.2761
▁גבוהות	-10.277
▁המשתמשים	-10.277
▁נתקל	-10.2773
נתה	-10.2774
מיני	-10.2774
[2]	-10.2774
▁בפנים	-10.2777
▁המעבר	-10.2787
▁לאחור	-10.2795
▁אסיה	-10.2796
עצם	-10.28
▁באיכות	-10.2801
כרו	-10.2802
▁אמו	-10.2804
▁ההצלחה	-10.2807
▁מעורב	-10.2808
כולנו	-10.281
▁רכש	-10.2813
io	-10.2814
מרים	-10.2814
18	-10.2815
▁משא	-10.282
▁הכנסה	-10.2821
▁Con	-10.2822
▁70	-10.2826
▁המוכר	-10.2828
לוח	-10.2829
▁התגובה	-10.2831
▁שיותר	-10.2833
▁משרת	-10.2834
▁חוקר	-10.2837
▁מודל	-10.2837
▁הגל	-10.2838
▁בפרס	-10.2839
▁סובלים	-10.2841
▁שקיבל	-10.2843
▁עמוקה	-10.2843
▁הערבים	-10.2847
▁לחוות	-10.2852
od	-10.2859
▁Le	-10.286
▁נמשך	-10.286
מצב	-10.2862
▁on	-10.2865
חזיר	-10.2865
▁מספרים	-10.2865
▁מבוגר	-10.2867
▁לעתיד	-10.287
▁חלל	-10.2871
▁שנראה	-10.2872
יעה	-10.2874
▁לחבר	-10.2875
▁הטבעי	-10.2895
ואי	-10.2897
▁הקרובה	-10.29
▁נפטר	-10.2901
▁המשבר	-10.2901
he	-10.2905
שנים	-10.2907
אוניברסיטת	-10.2915
▁לזמן	-10.2915
קרן	-10.2918
j	-10.2926
עמק	-10.2932
▁מאבק	-10.2935
os	-10.2935
va	-10.2935
שן	-10.2936
שש	-10.2937
▁אהוב	-10.2938
▁הרג	-10.294
▁רשמית	-10.2941
▁תינוקות	-10.2943
▁חלום	-10.295
כבד	-10.2952
▁הרביעי	-10.2954
▁היקר	-10.2955
▁החברתית	-10.2958
קוט	-10.2959
▁תק	-10.296
▁קווי	-10.296
▁הפרק	-10.2964
▁אה	-10.2969
▁לחו	-10.2972
▁החוב	-10.2978
▁לדמיין	-10.2978
▁אימון	-10.2978
▁התמיכה	-10.298
▁ציבור	-10.2986
▁להעניק	-10.2989
▁מחוז	-10.2993
▁הצעת	-10.2993
רוד	-10.2993
מכר	-10.2995
▁500	-10.2998
▁45	-10.3014
▁התנגדות	-10.3019
▁אובמה	-10.302
חופש	-10.3021
▁להעריך	-10.3024
▁לימד	-10.3027
▁מעלות	-10.3033
▁הבה	-10.3035
לית	-10.3039
ממש	-10.3041
▁מכר	-10.3043
▁גן	-10.3045
▁במים	-10.3045
עריכה	-10.3047
▁הדרכים	-10.305
מרכז	-10.3054
▁מבקשים	-10.3055
▁השער	-10.3057
▁להיראות	-10.3061
▁קלי	-10.3061
▁המקומית	-10.3062
▁הקודמת	-10.3062
מנהיג	-10.3064
ידע	-10.3066
ba	-10.3067
▁המונח	-10.3068
▁המזו	-10.3068
▁יין	-10.3068
▁יחידות	-10.3069
▁דעות	-10.3074
▁ענה	-10.3075
▁מסחרי	-10.3076
▁טיול	-10.3079
▁ואחד	-10.3081
מחל	-10.3086
▁וחו	-10.3087
▁שואלים	-10.3091
▁השיניים	-10.3091
▁לנושא	-10.3095
▁בשדה	-10.3102
▁חיצוני	-10.3102
▁משותפת	-10.3102
▁זמנית	-10.3103
▁לברוח	-10.3109
▁תנועת	-10.3111
▁דלק	-10.3115
▁הרשות	-10.3115
יבו	-10.3116
רבי	-10.3121
פקד	-10.3121
▁בתחילה	-10.3123
▁חור	-10.313
▁בקול	-10.3131
▁התנאים	-10.3134
▁עונש	-10.3136
?!	-10.314
שטח	-10.314
▁מסך	-10.314
▁וול	-10.314
▁מאושר	-10.3141
ru	-10.3143
▁יעילה	-10.3149
▁מוגבלת	-10.315
▁ניכר	-10.3153
▁מכירה	-10.3154
אזור	-10.3154
▁שלמה	-10.3157
▁המטופל	-10.3161
▁חטא	-10.3165
▁ממשיכה	-10.3184
▁הערכה	-10.3194
▁שימושי	-10.3197
▁דגים	-10.3198
▁לקו	-10.3198
ומות	-10.3199
▁הגרמני	-10.32
▁נבנה	-10.3201
▁טיפש	-10.3201
וכח	-10.3205
▁קשרים	-10.3207
ודר	-10.321
▁מבטיח	-10.3212
▁הישראלים	-10.3213
▁הקשה	-10.3214
▁עסקי	-10.3216
▁מקובל	-10.3219
פקוד	-10.3221
▁נער	-10.3223
▁דא	-10.3224
מסר	-10.3224
▁נפל	-10.3228
▁שאלתי	-10.3228
▁שנועד	-10.323
▁בתים	-10.323
▁דברי	-10.3234
▁מצליחים	-10.3238
▁סמכות	-10.3239
▁מחלת	-10.3241
▁קדוש	-10.3242
▁והנה	-10.3245
▁לשרת	-10.3249
▁מסחר	-10.3249
▁זכר	-10.3251
▁יוסף	-10.3252
טופ	-10.3252
▁הפרי	-10.3252
▁מספקים	-10.3253
משמעות	-10.3255
תרבות	-10.3255
▁סימנים	-10.3256
▁הכלל	-10.3256
14	-10.3258
▁ישירה	-10.326
▁מעדיף	-10.3262
ייב	-10.3264
▁תשע	-10.3264
▁התו	-10.3266
▁ביל	-10.3266
▁עובדה	-10.3266
בחר	-10.3266
ay	-10.327
5,000	-10.327
▁ארוכות	-10.3271
▁שעדיין	-10.3278
ot	-10.3279
▁כוס	-10.3283
▁הנפט	-10.3283
שמו	-10.3284
רבע	-10.3287
▁פרנק	-10.3287
ty	-10.3291
▁יוני	-10.3291
▁מטרים	-10.3292
▁החול	-10.3293
▁לגוף	-10.3293
ימות	-10.3293
▁הגורמים	-10.3295
▁למטרות	-10.3297
▁יורד	-10.3303
▁אוסטרליה	-10.3303
ard	-10.3305
▁נסע	-10.3307
-25	-10.3308
נגד	-10.3309
▁לעצמכם	-10.3313
ga	-10.3313
▁פירות	-10.3316
▁הביטוח	-10.3316
בס	-10.3317
da	-10.3325
▁חז	-10.3327
▁מוגבל	-10.3335
▁איי	-10.3336
אנט	-10.3339
▁תעשיית	-10.334
▁גבול	-10.334
▁מאבד	-10.3344
כמות	-10.3345
נקה	-10.3347
▁הצרכים	-10.3348
▁באל	-10.3348
▁בשעות	-10.3351
▁עולמי	-10.3352
▁ממוקם	-10.3352
▁2003	-10.3368
▁נהרג	-10.3369
▁שימש	-10.3369
▁וכיצד	-10.3372
▁המזל	-10.3372
שלח	-10.3373
רתי	-10.3378
▁הוראות	-10.3378
▁ציור	-10.3378
▁אנד	-10.338
עשרה	-10.338
▁מקומיים	-10.3381
▁הפרטים	-10.3383
סתי	-10.3384
▁פנימי	-10.3385
▁עברה	-10.3394
▁תפס	-10.3395
▁שק	-10.3401
▁המקדש	-10.3401
חז	-10.3401
▁החשובים	-10.3405
▁פגיעה	-10.3406
▁פרופסור	-10.3412
חצי	-10.3414
▁הסו	-10.3414
▁לרוץ	-10.3414
▁המצ	-10.3415
▁מצחיק	-10.3418
▁בולט	-10.3421
▁הבי	-10.3421
צדק	-10.3423
▁נקודה	-10.3423
▁המק	-10.3424
▁קראתי	-10.3426
נדל	-10.3427
▁הזהב	-10.3428
6%	-10.343
קוב	-10.3433
אנה	-10.3434
▁מקל	-10.3436
▁לתרום	-10.3443
▁סיני	-10.3444
▁לשרוד	-10.3444
מכשול	-10.3445
▁נוגע	-10.3446
▁ייעוץ	-10.3446
▁להתקיים	-10.3447
▁מפלגת	-10.3447
▁הסופר	-10.3448
ריון	-10.3448
▁כימי	-10.3453
▁נתון	-10.3455
▁האמ	-10.3459
▁שיחה	-10.3461
▁במובן	-10.3462
▁שהמ	-10.3465
▁לאחרים	-10.3465
▁שח	-10.3466
▁לפיתוח	-10.3469
▁רגילים	-10.347
קרב	-10.3473
▁רביעי	-10.3474
דמו	-10.3476
▁המשטר	-10.348
▁גרעיני	-10.3482
▁ההו	-10.3485
▁כשל	-10.3488
מורה	-10.3491
▁להגיב	-10.3493
▁בהיר	-10.3501
▁הורי	-10.3501
▁הסטודנטים	-10.3501
▁האחים	-10.3506
▁במוח	-10.3511
▁ערכים	-10.3512
▁הערים	-10.3514
סופר	-10.3514
▁הנשק	-10.3516
שכ	-10.3518
סין	-10.3521
סקר	-10.3523
▁המאבק	-10.3531
▁הישן	-10.3531
▁Pro	-10.3532
▁לראש	-10.3533
פסיק	-10.3535
▁תן	-10.3535
▁הגבר	-10.3536
▁הכבוד	-10.3537
▁Microsoft	-10.3537
רז	-10.3537
▁המזרח	-10.3538
▁רבי	-10.354
▁עלייה	-10.3544
▁אהיה	-10.3545
▁חום	-10.3547
אלה	-10.3549
▁ולהיות	-10.3553
▁פרטיים	-10.3558
▁דוגמאות	-10.3559
קשה	-10.3564
▁להק	-10.3568
▁סוכר	-10.3568
▁לקוח	-10.3568
▁האהוב	-10.357
עיל	-10.3575
▁עובדי	-10.3578
▁החבר	-10.3581
▁מייקל	-10.3581
▁הציע	-10.3582
ילדים	-10.3582
▁ריצ	-10.3584
▁לאלוהים	-10.3584
▁עמדת	-10.3587
▁וחלק	-10.3592
▁עקרונות	-10.3593
▁תכנון	-10.3595
▁מהמ	-10.3595
▁העברת	-10.3597
מינו	-10.3601
▁80	-10.3601
▁בצורת	-10.3603
▁הזמנים	-10.3604
▁אברהם	-10.3607
▁יצאו	-10.3608
טב	-10.3608
▁השחקן	-10.3609
▁נתוני	-10.3613
▁שמא	-10.3615
▁מסמכים	-10.3616
▁להופיע	-10.3616
▁תמורת	-10.3617
▁מיידי	-10.3617
▁למחרת	-10.3618
▁ליצירת	-10.3619
▁חשיבה	-10.3619
סטון	-10.3619
▁חופשית	-10.3619
▁בשיעור	-10.362
▁ניסו	-10.3621
▁תעשה	-10.3626
כאשר	-10.3626
▁יולי	-10.3627
▁תגית	-10.3627
▁שיחות	-10.3627
ci	-10.3631
▁ערים	-10.3632
▁קצב	-10.3632
▁מפחד	-10.3637
נצל	-10.3637
נושא	-10.3638
▁מצאתי	-10.3638
▁עבודתו	-10.3648
9%	-10.3649
▁טוענים	-10.3651
▁דג	-10.3657
לן	-10.3658
▁ליותר	-10.3658
▁הארוך	-10.3661
▁פס	-10.3661
▁לשחרר	-10.3662
▁רעב	-10.3669
▁והו	-10.367
▁יעקב	-10.3671
-50	-10.3671
▁הכוכבים	-10.3676
▁ישנו	-10.3678
אמת	-10.368
▁פיזי	-10.3684
▁אישר	-10.3687
▁מקצועית	-10.3693
▁וצ	-10.3695
▁ואומר	-10.3695
▁שכתב	-10.3699
▁בדרכים	-10.3701
▁2002	-10.3708
פרנס	-10.371
▁ראיות	-10.371
▁המערב	-10.3713
זכה	-10.3713
רמת	-10.3715
▁באמריקה	-10.3715
▁לשנה	-10.3715
▁תלמידי	-10.3717
▁הצעירים	-10.3722
▁חת	-10.3726
▁כאחד	-10.3732
ER	-10.3733
▁נסו	-10.3734
שרת	-10.3736
▁המקרה	-10.3737
ment	-10.3738
▁בתחומי	-10.374
גמר	-10.3742
▁פייסבוק	-10.3742
▁דוח	-10.3742
זם	-10.3745
▁המודרנית	-10.3746
▁תוכנה	-10.3749
מחקר	-10.3751
דין	-10.3752
sa	-10.3754
▁נמסר	-10.3757
▁שבעה	-10.376
▁שלאחר	-10.3763
▁הופיע	-10.3764
▁לדוגמא	-10.3769
▁האח	-10.3772
▁במצרים	-10.3772
▁בפי	-10.3773
▁משלו	-10.3774
▁מפחיד	-10.3776
▁ברא	-10.3779
▁אלבום	-10.3779
ביט	-10.3784
חדר	-10.3785
▁השעה	-10.3786
ex	-10.3788
▁הבניין	-10.3794
▁ישן	-10.3794
▁כתבה	-10.3799
▁הכללית	-10.3801
▁מומחה	-10.3801
▁למידה	-10.3801
▁להתקדם	-10.3804
▁המקומי	-10.3807
▁קיום	-10.3809
טק	-10.381
▁הצבע	-10.3812
▁יבוא	-10.3817
▁מגע	-10.3817
▁המג	-10.3819
▁העתיק	-10.3822
▁המחבר	-10.3828
▁משת	-10.3832
▁=	-10.3834
▁בכלא	-10.3837
▁התעשייה	-10.3839
▁גרי	-10.3844
שט	-10.3844
▁הרחב	-10.3845
▁מרוצה	-10.385
▁השטן	-10.3854
▁רופאים	-10.3854
▁בריאים	-10.3854
▁מפעל	-10.3856
▁המסע	-10.386
צוק	-10.386
▁ישראלי	-10.3861
▁יחס	-10.3861
▁בסיפור	-10.3863
▁ערבי	-10.3865
▁המד	-10.3867
▁מגדיר	-10.3873
▁הפוליטית	-10.3874
▁בטלוויזיה	-10.3878
ity	-10.3883
▁שותפים	-10.3887
88	-10.3891
▁להרחיב	-10.3891
▁המרכזית	-10.3891
▁אליי	-10.3899
▁המכשיר	-10.3899
פלו	-10.39
▁שבועיים	-10.3902
ומנים	-10.3908
▁בינ	-10.391
יכול	-10.3912
▁ההיסטורי	-10.3916
בק	-10.3916
▁תושבים	-10.3916
גנו	-10.3917
up	-10.3925
טיל	-10.3926
▁קיבלתי	-10.3928
עלות	-10.3932
▁אג	-10.3933
▁הגז	-10.3935
▁ברמת	-10.3937
▁ושי	-10.3937
▁בחירת	-10.3939
▁האלקטרוני	-10.394
▁La	-10.3942
▁המשיח	-10.3943
▁90	-10.3944
▁ברק	-10.3946
▁הצל	-10.3947
▁למדתי	-10.395
▁הגיל	-10.3951
מטר	-10.3954
אבא	-10.3957
זכור	-10.3958
▁רוק	-10.396
בחן	-10.3962
היה	-10.3964
▁אורך	-10.3966
דג	-10.3967
▁הרשויות	-10.3968
▁תגיד	-10.397
▁שג	-10.398
▁ארוכים	-10.398
▁להזמין	-10.398
▁ביכולת	-10.3981
▁המשמש	-10.3982
▁הרוסי	-10.3982
ארו	-10.3986
▁הלחץ	-10.3986
▁מטעם	-10.3988
▁מצפים	-10.3991
▁דיון	-10.3992
▁מתאימה	-10.3992
▁לט	-10.3993
רמי	-10.3996
ig	-10.3996
▁התחרות	-10.3998
▁הפסקת	-10.3999
▁לשלום	-10.4005
רדי	-10.4007
▁מוסיקה	-10.4008
▁סליחה	-10.401
▁נוער	-10.401
▁החוקים	-10.401
▁עמית	-10.4012
▁המחירים	-10.4014
▁שומע	-10.4014
גורם	-10.4016
200	-10.4016
▁חלש	-10.4018
▁צמיחה	-10.4018
▁האירועים	-10.402
▁דירה	-10.4021
▁המבצע	-10.4022
▁הקטנים	-10.4022
▁הכיבוש	-10.4028
▁התקדמות	-10.4033
▁בפייסבוק	-10.4048
▁טכנולוגיות	-10.405
▁נהר	-10.4054
▁שיטת	-10.4056
קטר	-10.4056
▁בשיתוף	-10.4059
▁הסינית	-10.406
יכה	-10.4066
▁חוזרים	-10.4067
▁אדוני	-10.4069
▁יתרון	-10.4077
▁מסוגלת	-10.4078
גוף	-10.4079
עניק	-10.408
▁מבקרים	-10.4081
▁במציאות	-10.4082
▁שאינה	-10.4085
וציא	-10.4085
bo	-10.4089
▁למוות	-10.409
▁המשתתפים	-10.4104
-21	-10.4107
▁עשתה	-10.4112
▁טיסה	-10.4117
▁התוכן	-10.4127
▁שפות	-10.4127
▁לדרך	-10.4129
di	-10.4135
▁משימה	-10.4139
▁ראשוני	-10.4141
▁ומס	-10.4144
+	-10.4144
עלה	-10.4145
▁שחרור	-10.4145
▁חזקים	-10.4151
ופר	-10.4153
▁המטוס	-10.4154
▁לאסוף	-10.4155
▁ממליצים	-10.4158
▁מסכימים	-10.4158
go	-10.4159
▁פועלת	-10.416
▁ביצע	-10.4164
▁מתנה	-10.4164
▁אהב	-10.4168
ומו	-10.4168
▁בעלה	-10.417
▁הצליחה	-10.4172
▁המשו	-10.4176
▁חיינו	-10.4177
▁הודות	-10.4178
▁הנקודה	-10.4179
▁הצער	-10.4182
יקו	-10.4188
▁מעיד	-10.419
▁מחזיק	-10.419
▁בריטי	-10.4191
צמח	-10.4194
▁כפר	-10.4195
▁החיילים	-10.4195
▁לשכנע	-10.4199
קטור	-10.4199
▁מאתנו	-10.42
▁ספ	-10.4201
שחק	-10.4202
מחיר	-10.4202
▁פוטנציאל	-10.4205
▁העסקים	-10.4207
תך	-10.4207
▁מיועד	-10.4208
▁בהריון	-10.4213
▁קנדה	-10.4214
▁הסוף	-10.4215
IN	-10.4219
קרה	-10.4219
▁זוכרים	-10.422
▁מפקד	-10.422
▁שייך	-10.4221
▁ריח	-10.4223
▁אמורה	-10.4225
▁דניאל	-10.4228
▁שלפני	-10.4231
▁זוכרת	-10.4234
▁קהילה	-10.4234
▁גוגל	-10.4236
▁נוחות	-10.4236
▁עבורי	-10.4238
▁איום	-10.424
שקיע	-10.4243
▁בממוצע	-10.4243
▁תחרות	-10.4247
▁מחזור	-10.4247
▁רחבה	-10.4251
▁[+]	-10.4251
▁ויכול	-10.4252
▁הוקמה	-10.4254
▁המקורית	-10.4257
▁לנקוט	-10.4262
▁המראה	-10.4265
▁הקשור	-10.4267
▁עין	-10.4268
דומה	-10.4268
▁רובם	-10.4269
▁להכניס	-10.427
▁נמצאו	-10.427
▁המקומות	-10.4277
▁בתוכנית	-10.4277
מישהו	-10.4279
▁לכמה	-10.428
▁מייצג	-10.4281
סבל	-10.4284
יטים	-10.4288
שוויץ	-10.429
▁התחילו	-10.4291
▁חסרי	-10.4294
▁הדיון	-10.4297
בנות	-10.4297
▁29	-10.4298
▁שותף	-10.4299
▁לימודי	-10.43
▁2004	-10.4301
בורג	-10.4302
▁טור	-10.4304
▁המטבע	-10.4305
▁הראו	-10.4308
דא	-10.4309
דיר	-10.4312
▁המסך	-10.4313
▁לבלות	-10.4314
▁שהדבר	-10.4317
▁במדינת	-10.4318
▁מניח	-10.4319
▁בטיפול	-10.4319
▁דרכו	-10.4321
▁חוש	-10.4321
▁השיטה	-10.4323
עץ	-10.4324
ke	-10.4327
מבצע	-10.4328
כית	-10.433
▁מסיבה	-10.4331
▁שאומר	-10.4332
▁בהר	-10.4333
▁שולח	-10.4335
▁אוסף	-10.4335
▁באזורים	-10.4336
▁לחלוק	-10.4337
▁הרגליים	-10.4341
היו	-10.4347
▁החוויה	-10.4347
▁כניסה	-10.4348
▁קרו	-10.4349
▁בדיקת	-10.4351
▁היל	-10.4351
רוצים	-10.4353
▁הניתוח	-10.4359
שוק	-10.4368
▁מבינה	-10.4369
▁For	-10.437
▁הערה	-10.4372
▁קונים	-10.4377
▁פנימה	-10.4379
▁טעויות	-10.4379
▁הקפה	-10.4384
IS	-10.4385
▁צורות	-10.439
שמור	-10.4391
▁חוב	-10.4393
▁רגוע	-10.4394
▁מסי	-10.4396
▁גיבור	-10.4398
▁שיהיו	-10.4399
▁עולמית	-10.4399
ציג	-10.4401
גיל	-10.4402
פשט	-10.4403
▁ניצול	-10.4403
▁המבט	-10.4404
01	-10.4411
סף	-10.4413
▁יעילות	-10.4414
מחשב	-10.4414
▁בטווח	-10.4423
son	-10.4424
▁התרופה	-10.4427
▁נד	-10.443
▁לומד	-10.4435
Q	-10.4435
▁ועדת	-10.4438
▁צבאית	-10.4439
רוויח	-10.4441
▁איני	-10.4447
עצור	-10.4448
▁מנהלים	-10.4451
▁הקרובים	-10.4453
▁מיותר	-10.4454
▁הזיכרון	-10.4454
▁פיננסי	-10.4459
ריק	-10.4463
vi	-10.4463
▁תחנת	-10.4464
מך	-10.4466
▁דרישות	-10.4467
ub	-10.4471
▁צעירה	-10.4471
▁לחשוף	-10.4474
פורט	-10.448
אתר	-10.4483
▁רשתות	-10.4488
▁להלן	-10.4493
לף	-10.4495
מעולם	-10.4499
▁להקשיב	-10.4499
▁למידע	-10.4504
▁השואה	-10.4508
▁לרבות	-10.4508
▁לגור	-10.4516
▁האמריקאים	-10.4517
▁להתרחש	-10.4519
▁בחלל	-10.452
▁דק	-10.4521
ווין	-10.4521
▁טקסט	-10.4523
▁החורף	-10.4523
▁הערבית	-10.4524
▁נשלח	-10.4532
און	-10.4533
▁Wi	-10.4534
▁צריכות	-10.4537
▁הפדרלי	-10.4537
-80	-10.4537
▁התובע	-10.4542
▁מעורבים	-10.4542
ותיהם	-10.4542
▁האישיים	-10.4546
נטר	-10.4546
▁מונע	-10.4547
▁מנצח	-10.455
▁הגר	-10.4551
קום	-10.4552
▁שפ	-10.4554
לקוחות	-10.4561
▁סחר	-10.4562
▁שכח	-10.4563
▁מבוססת	-10.4564
▁בלו	-10.4566
▁חומ	-10.4568
ביל	-10.4569
▁הספורט	-10.457
▁והא	-10.4571
▁לשירות	-10.4572
▁מובן	-10.4572
▁קרובים	-10.4572
▁מוש	-10.4574
▁השירותים	-10.4575
▁מני	-10.4578
▁המפ	-10.4582
▁השקעות	-10.4583
▁פירוש	-10.4584
▁לעצמם	-10.4585
▁מימון	-10.4586
▁הולנד	-10.4596
▁200	-10.4599
▁חוזרת	-10.46
▁מעין	-10.46
▁הידיים	-10.46
▁מטוס	-10.46
▁המט	-10.4602
▁שנאמר	-10.4603
פשר	-10.4604
▁במו	-10.4606
▁צמח	-10.4607
▁השולחן	-10.4609
▁מיומנויות	-10.461
▁הצרפתי	-10.4611
▁לכלול	-10.4613
יינת	-10.4618
▁שמר	-10.4619
▁השופט	-10.4621
פנט	-10.4623
פיה	-10.4627
▁שחלק	-10.4628
▁אנושי	-10.4631
▁שעומד	-10.4633
▁בסביבות	-10.4634
▁זמינים	-10.4634
▁2001	-10.464
▁לביקור	-10.4641
▁הבטיח	-10.4643
▁הרשימה	-10.4644
▁חלומות	-10.4645
▁ברירה	-10.4646
▁החשמל	-10.465
▁חומרי	-10.4652
▁הצעות	-10.4658
est	-10.466
זים	-10.4661
▁המחשבה	-10.4662
▁מתקרב	-10.4663
▁דגל	-10.4664
▁אתרי	-10.4665
▁נשי	-10.4672
▁בדומה	-10.4673
-60	-10.4674
▁הנסיעה	-10.4674
▁צורת	-10.4675
▁קיץ	-10.4678
ַי	-10.4684
▁פיזית	-10.4686
ניתנת	-10.4686
▁בכפר	-10.4688
יאה	-10.4688
▁ולמה	-10.4694
▁רוז	-10.4698
▁m	-10.4699
▁השקעה	-10.4699
▁למשוך	-10.47
שמאל	-10.4702
▁Al	-10.4704
▁קרקע	-10.4709
▁נדיר	-10.4714
be	-10.4715
▁עצב	-10.4717
▁הרגיל	-10.4719
▁התעורר	-10.472
▁פרופ	-10.472
▁אפשרית	-10.4721
▁נשא	-10.4722
▁ברח	-10.4723
▁פורסם	-10.4723
רשה	-10.4725
▁דלת	-10.4726
▁הצעד	-10.4731
▁בהדרגה	-10.4731
▁השיחה	-10.4734
זציה	-10.4736
▁רחוב	-10.4736
▁חסרת	-10.4739
▁No	-10.4739
תעורר	-10.4742
21	-10.4743
סע	-10.4746
ערים	-10.4749
▁משך	-10.4749
our	-10.4751
▁נשכח	-10.4755
▁לכת	-10.4756
▁שעלול	-10.4758
ֵי	-10.476
גלגל	-10.4765
▁טל	-10.4765
רצון	-10.4769
▁מכשיר	-10.477
▁השק	-10.4772
צרות	-10.4776
em	-10.4777
▁לרשות	-10.4777
▁כספים	-10.4777
ארצות	-10.4778
▁הכלכלית	-10.4779
שעה	-10.4782
▁ומח	-10.4782
▁לשקול	-10.4785
▁פתוחה	-10.4786
▁להתעלם	-10.4787
סוס	-10.4787
▁חשבונות	-10.4787
▁סמ	-10.4792
▁השנתי	-10.4792
▁Mar	-10.4792
▁טהור	-10.4793
ברג	-10.4798
▁כשאתם	-10.4798
▁לז	-10.4799
גים	-10.4799
▁יסוד	-10.48
▁אמי	-10.4801
▁וכמובן	-10.4801
אולי	-10.4802
▁רשאי	-10.4802
76	-10.4805
נור	-10.4809
▁לאף	-10.481
▁עצם	-10.4811
▁שונא	-10.4814
▁מבחן	-10.4815
דמי	-10.4817
▁מושב	-10.4819
שמח	-10.4819
▁סב	-10.4819
טרם	-10.4822
▁הירוק	-10.4822
▁מנוע	-10.4825
▁המע	-10.4827
▁לעצמנו	-10.483
▁יהודה	-10.483
▁ללבוש	-10.4831
▁מתע	-10.4832
▁חיו	-10.4832
▁ראינו	-10.4833
▁הורה	-10.4833
▁קריאה	-10.4834
▁בקצב	-10.4836
▁לעורר	-10.4836
▁העצמי	-10.4837
▁מראים	-10.4838
▁השי	-10.4838
חברה	-10.4838
▁החיצוני	-10.4838
שתמש	-10.4839
▁חייל	-10.484
קבוצה	-10.484
▁בחרו	-10.4842
▁הצהריים	-10.4845
▁באש	-10.4854
▁שמחים	-10.4856
▁אמורים	-10.486
שמש	-10.486
▁כפול	-10.4863
▁תרגיל	-10.4863
▁ברשות	-10.4867
ודות	-10.4868
▁הפוטנציאל	-10.4868
ריצה	-10.4868
▁יופי	-10.4869
▁הפיתוח	-10.487
▁המכונה	-10.4873
אוזן	-10.4875
▁המוביל	-10.4877
▁תיקון	-10.4879
▁שחשוב	-10.4883
▁הוגן	-10.4887
▁להתחבר	-10.4889
▁Com	-10.4889
▁הזכויות	-10.4892
▁גילוי	-10.4893
▁יציב	-10.4893
▁סירב	-10.4895
68	-10.49
רצי	-10.49
▁קשורים	-10.4903
ובה	-10.4904
▁הסופי	-10.4906
▁הודיע	-10.4906
▁פוליטיים	-10.491
זכות	-10.4915
▁חמור	-10.4916
וריד	-10.4919
משטר	-10.4919
חד	-10.4921
▁הפליטים	-10.4922
&	-10.4923
▁מיקום	-10.4924
סוד	-10.4924
ace	-10.4925
קדש	-10.493
▁בעצמך	-10.493
▁קריירה	-10.4932
▁הביניים	-10.4933
▁מאמרים	-10.4935
sp	-10.4935
▁אמריקאים	-10.4935
▁מלמד	-10.4936
▁אישיים	-10.4937
▁בטלפון	-10.4937
נל	-10.4938
סגר	-10.494
▁חמישי	-10.494
per	-10.4941
צבא	-10.4942
▁Th	-10.4946
▁נעלם	-10.495
טפל	-10.4955
▁צבעים	-10.4956
▁המועצות	-10.4957
▁נוסע	-10.4957
▁לעיל	-10.496
▁חנות	-10.4962
ניסיון	-10.4963
שתו	-10.4963
לוק	-10.4964
יקום	-10.4965
▁בשקט	-10.4965
▁ביפן	-10.4966
▁מיי	-10.4968
מלי	-10.4969
▁במלחמת	-10.4973
יחות	-10.4976
תינוק	-10.4976
לאומי	-10.4977
▁בבירור	-10.498
▁תשובות	-10.498
עבד	-10.4981
▁כול	-10.4981
חיי	-10.4985
▁להבחין	-10.4985
▁מפסיק	-10.4986
▁למערכת	-10.4986
▁חוזה	-10.4986
▁ערבים	-10.4987
der	-10.4989
▁שאלו	-10.499
▁למעט	-10.4992
▁השמאל	-10.4992
ance	-10.4997
▁רכוש	-10.4997
שול	-10.4997
רגיש	-10.5001
מז	-10.5007
▁הרוסית	-10.5008
▁המכיל	-10.5008
▁ידועה	-10.5009
ton	-10.501
▁מחליט	-10.5011
▁הכוללת	-10.5012
▁יס	-10.5012
▁לחזק	-10.5018
מזג	-10.5022
▁ההוא	-10.5024
▁למלחמה	-10.5025
עצים	-10.5026
▁גילה	-10.5027
▁שתמיד	-10.5029
גודל	-10.503
▁קולנוע	-10.5032
▁מקומי	-10.5037
איש	-10.504
▁הפיננסי	-10.5041
▁הפו	-10.5043
▁העניק	-10.5044
▁החלטתי	-10.5045
תוכנית	-10.505
חיות	-10.5051
▁הספק	-10.5054
▁עלויות	-10.5055
▁אחיו	-10.5056
▁מאחור	-10.5056
▁בבי	-10.5057
▁בקבוצה	-10.5059
▁לסבול	-10.5061
tor	-10.5062
▁בשירות	-10.5066
▁במערב	-10.5066
▁בפיתוח	-10.5067
▁הניסיון	-10.5068
▁זיהום	-10.507
גרום	-10.507
חמש	-10.5071
▁לפרסם	-10.5072
▁בפריז	-10.5074
▁התושבים	-10.5075
▁לחיי	-10.5076
גישה	-10.5079
עריכת	-10.5079
איזה	-10.508
▁בפעילות	-10.5081
▁Br	-10.5082
▁תצטרך	-10.5085
▁מעגל	-10.5085
▁הבורא	-10.5086
▁תוספת	-10.5087
▁הבריטית	-10.5088
▁גשר	-10.5088
▁בריאה	-10.5089
▁הפרטיות	-10.509
▁הקצר	-10.509
▁סדרה	-10.509
▁בגין	-10.5091
')	-10.5094
▁רומא	-10.5099
▁שנוצר	-10.5099
▁מעצב	-10.5102
▁משאבים	-10.5102
ממשלת	-10.5104
▁הודיעה	-10.5105
▁לתקופה	-10.5107
▁הפוליטי	-10.5108
▁צור	-10.511
▁פעילים	-10.5111
אתגר	-10.5113
▁צריכת	-10.5113
יהודי	-10.5113
▁להרוס	-10.5114
עיני	-10.5121
▁קבר	-10.5125
▁One	-10.5131
▁מסייע	-10.5132
שהיא	-10.5133
▁המתאים	-10.5137
▁הסיני	-10.5137
תבסס	-10.5138
ארץ	-10.5143
▁חנויות	-10.5144
▁לסמוך	-10.5144
▁אדיר	-10.5149
ap	-10.5149
בקר	-10.5153
▁לעודד	-10.5153
▁התרופות	-10.5153
וטה	-10.5155
נץ	-10.5155
▁תרגום	-10.5156
▁נובע	-10.5157
▁המספרים	-10.5157
▁לחסוך	-10.5158
▁לערוך	-10.5165
▁שמגיע	-10.5165
▁רוד	-10.5166
עתיד	-10.5169
mi	-10.5169
MA	-10.5169
▁הרווח	-10.517
כונן	-10.5171
ביר	-10.5173
ערכים	-10.5174
▁למח	-10.5177
נשיא	-10.5182
מדע	-10.5183
▁דרמטי	-10.5184
▁הריון	-10.5186
▁להורג	-10.5186
▁המפורסם	-10.5187
▁שנערך	-10.5189
▁טכני	-10.5189
▁הגרמנים	-10.5189
▁עני	-10.5189
▁כנ	-10.5192
▁במשפחה	-10.5197
▁בקיצור	-10.52
▁שמדובר	-10.5201
▁להשת	-10.5201
מנע	-10.5202
-100	-10.5205
▁גילו	-10.5205
av	-10.5206
כפי	-10.5206
▁לשיפור	-10.5213
▁שגר	-10.5215
▁למרכז	-10.5216
hi	-10.522
▁יקבל	-10.5224
לפי	-10.5226
▁שולחן	-10.5228
דיכאון	-10.5233
▁לכו	-10.5233
פלג	-10.5234
▁ההריון	-10.5238
האדם	-10.5238
▁השישי	-10.524
▁הדעת	-10.524
▁לממש	-10.5241
▁שבר	-10.5244
בלים	-10.5245
ולט	-10.5248
▁העין	-10.5249
▁מתמיד	-10.5251
▁Sp	-10.5255
▁החופש	-10.5257
▁לבעלי	-10.5258
▁שמירה	-10.5259
ng	-10.526
▁לשוק	-10.526
▁אנגליה	-10.5261
▁מוכרים	-10.5264
▁ושני	-10.5265
▁אוגוסט	-10.5265
▁זכתה	-10.5267
▁סנ	-10.5268
▁הפרו	-10.5269
▁בסיכון	-10.527
ster	-10.5271
▁ברכב	-10.5272
קטי	-10.5273
▁התקציב	-10.5279
אתם	-10.5285
▁הייחודי	-10.5287
▁המבקרים	-10.5288
▁המורכב	-10.5289
ייס	-10.5289
▁מוסרי	-10.529
▁מורכבת	-10.5292
▁לתלמידים	-10.5294
נתק	-10.53
▁מוס	-10.53
▁ליהודים	-10.5305
▁מוגדר	-10.5305
▁העו	-10.5307
נתונים	-10.531
דס	-10.531
▁האנגלית	-10.5311
▁משקיעים	-10.5311
und	-10.5314
תחומי	-10.5316
לידה	-10.5316
▁Ch	-10.5319
ממה	-10.5323
▁שרוצים	-10.5325
▁המפגש	-10.5325
▁בחורה	-10.5327
▁מחיי	-10.5328
AT	-10.533
▁מחשבים	-10.533
▁לארה	-10.5335
שמות	-10.5337
▁לזכויות	-10.5337
תוצאה	-10.5337
▁תמ	-10.5338
אבק	-10.534
▁זוכה	-10.5343
▁הפועל	-10.5345
▁תחבורה	-10.5346
69	-10.5346
▁[-	-10.5348
▁מניות	-10.5349
▁הוצאות	-10.5352
▁רדיו	-10.5354
▁המטרות	-10.5355
▁גורל	-10.5357
▁חרדה	-10.5358
▁יומי	-10.5362
שקע	-10.5362
▁נב	-10.5365
▁רכישת	-10.5371
אלו	-10.5371
▁הגרוע	-10.5372
▁איזון	-10.5373
▁הענק	-10.5374
▁ברזל	-10.5376
▁הצמיחה	-10.538
תחת	-10.5383
זור	-10.5385
פסיכולוג	-10.5387
mer	-10.5387
▁משאיר	-10.5388
ber	-10.539
▁הסרטים	-10.5391
▁זכרו	-10.5394
עמיד	-10.5394
▁סבור	-10.5394
▁ימין	-10.5395
▁הנשמה	-10.5396
▁מלח	-10.54
חברות	-10.5401
▁ציון	-10.5403
▁אמריקני	-10.5407
ציב	-10.541
וויל	-10.5412
▁אשה	-10.5414
▁הסתכל	-10.5415
▁כשאנחנו	-10.5415
▁המולד	-10.542
בט	-10.542
▁קחו	-10.5421
עמוד	-10.5423
רוסיה	-10.5423
אצ	-10.5423
▁אזרח	-10.5425
▁טורקיה	-10.5427
▁למחקר	-10.5427
▁פסיכולוגי	-10.5431
רצונך	-10.5432
ורס	-10.5436
▁בעצמי	-10.5437
▁מחירי	-10.5438
▁הפארק	-10.5439
▁שאמרתי	-10.5444
▁האמריקנית	-10.5446
▁בפרויקט	-10.5447
לע	-10.5452
אחוז	-10.5452
▁טא	-10.5453
▁השיב	-10.5459
59	-10.5462
▁ובו	-10.5463
ארגון	-10.5466
▁יג	-10.5466
▁סוכרת	-10.5466
▁שתוכל	-10.5466
▁החלום	-10.5466
▁ברוסיה	-10.5468
שמה	-10.5471
יתן	-10.5474
pa	-10.5475
▁הצטרפו	-10.5476
▁הפסד	-10.5479
▁המכירות	-10.548
▁חברתיות	-10.548
▁האחורי	-10.5481
▁נהדרת	-10.5482
ילות	-10.5483
].	-10.5485
!)	-10.5487
עשו	-10.5491
-70	-10.5491
▁חברתיים	-10.5492
▁הרופאים	-10.5493
▁סגנון	-10.5494
▁דיוק	-10.5495
שבוע	-10.5495
▁מושלמת	-10.5499
▁הפה	-10.5499
▁הפרסום	-10.55
48	-10.5501
▁למשרד	-10.5508
▁בנייה	-10.5513
▁ליישם	-10.5513
יחד	-10.5513
▁מעביר	-10.5515
כור	-10.5517
▁בפרק	-10.5518
▁ההודעה	-10.5521
▁אלוקים	-10.5526
▁שיטה	-10.5531
▁לדון	-10.5531
▁לסגור	-10.5532
▁בטבע	-10.5532
▁התקשר	-10.5533
▁השד	-10.5534
▁אביה	-10.5539
▁הבנייה	-10.5541
ec	-10.5546
-40	-10.5546
מרו	-10.5548
▁למשהו	-10.5549
פלא	-10.5549
▁בעבודת	-10.5555
יצור	-10.5555
תמודד	-10.5559
מציאת	-10.5563
,500	-10.5564
▁הצפוני	-10.5566
▁שורש	-10.5569
נטלי	-10.5571
▁לניהול	-10.5572
▁דואר	-10.5572
נכון	-10.5574
▁מטופלים	-10.5576
▁חוות	-10.5579
▁התמ	-10.5581
▁בתחומים	-10.5587
▁An	-10.5589
▁נשימה	-10.5589
▁תאים	-10.5592
▁הדרוש	-10.5596
▁הביקור	-10.5597
▁יהוה	-10.5604
26	-10.5606
▁הקבוצות	-10.5613
▁צליל	-10.5613
עובד	-10.5614
▁עדן	-10.5615
▁אחות	-10.5615
▁שרוצה	-10.5615
יגת	-10.5616
▁אזורי	-10.5617
▁עצר	-10.5617
▁שישראל	-10.5622
▁הקונגרס	-10.5626
▁הנביא	-10.563
קריא	-10.5636
לינג	-10.5637
▁ראייה	-10.5641
nt	-10.5646
▁במאבק	-10.5648
▁נתנו	-10.5651
עודד	-10.5656
שימוש	-10.5656
▁בניין	-10.5657
▁מדהימה	-10.5657
▁לתואר	-10.5658
▁שאינן	-10.5659
עיד	-10.5659
מעשה	-10.566
▁מעטים	-10.5662
▁מהווים	-10.5662
▁נותרו	-10.5663
▁יצירות	-10.5664
מוח	-10.5666
▁הסחר	-10.5671
28	-10.5671
▁נאבק	-10.5675
אותם	-10.5679
טוני	-10.568
לקח	-10.5681
▁תחומי	-10.5682
▁Li	-10.5685
▁אליכם	-10.5686
ess	-10.5687
▁Do	-10.5688
▁תועלת	-10.5688
▁בכיוון	-10.569
▁אזורים	-10.5691
▁ויטמין	-10.5692
וצג	-10.5697
בתי	-10.5698
▁אמיתיים	-10.57
▁תומך	-10.5708
▁קידום	-10.5708
▁האפשרויות	-10.5709
ארגוני	-10.5709
▁הרגל	-10.571
▁תראה	-10.5711
▁h	-10.5711
נטה	-10.5712
אשר	-10.5713
▁טיסות	-10.5713
▁הבמה	-10.5715
▁באחת	-10.5717
▁במס	-10.572
▁עבורכם	-10.572
ריח	-10.5722
נין	-10.5722
▁משכ	-10.5723
סייע	-10.5723
▁המושב	-10.5725
▁תזונה	-10.5726
▁תג	-10.5726
▁בבני	-10.5727
▁עליהן	-10.5729
▁החופשי	-10.5731
▁נתחיל	-10.5732
היקף	-10.5733
פוט	-10.5735
▁יומיים	-10.5735
▁בתא	-10.5736
▁He	-10.5737
▁ולקבל	-10.5739
נקו	-10.574
▁לרופא	-10.5742
▁אפ	-10.5742
▁מועמד	-10.5745
▁בדברים	-10.575
▁אומץ	-10.5751
▁קולות	-10.5751
▁ההחלטות	-10.5752
ֶר	-10.5754
▁קונג	-10.5762
▁האוצר	-10.5765
▁עצומה	-10.5766
מידע	-10.5766
▁הרפובליקה	-10.5767
▁מאסר	-10.5768
▁מילא	-10.577
▁יישום	-10.5771
יסוד	-10.5774
▁בנה	-10.5778
קדמו	-10.578
▁מוחלטת	-10.5782
▁אתגר	-10.5783
▁מדברת	-10.5786
▁זרע	-10.5786
עשה	-10.5787
▁הרפואה	-10.5788
דמוקרטיה	-10.5791
פתרון	-10.5792
▁קליפורניה	-10.5793
צית	-10.5793
▁למחשב	-10.5793
נציג	-10.5796
▁קומ	-10.5802
▁מחבר	-10.5804
▁והאם	-10.5806
למים	-10.5812
▁הנרי	-10.5812
גדול	-10.5813
▁וְ	-10.5813
ולוג	-10.5813
▁שיעורי	-10.5815
24	-10.5815
▁קס	-10.5818
▁הצלב	-10.5819
*	-10.5823
▁ניצב	-10.5824
▁מרחב	-10.5826
▁נהנה	-10.5828
▁מסרב	-10.5829
▁צפויה	-10.5829
▁האלוהים	-10.5829
▁האחרות	-10.5836
▁סיר	-10.5837
▁תופעות	-10.584
▁המכ	-10.5841
▁עוצר	-10.5848
▁ברזיל	-10.5848
▁מתרחשת	-10.5851
▁בקושי	-10.5854
▁נכס	-10.5855
טיפול	-10.5856
ביה	-10.5859
▁הלהקה	-10.5859
▁סטודנט	-10.586
▁השירים	-10.5866
▁מצביע	-10.5867
▁השפעות	-10.5868
▁תרופה	-10.5868
▁היחס	-10.5869
▁שלח	-10.5874
▁ונע	-10.5875
▁בבעלות	-10.5876
נקי	-10.5879
▁חוויות	-10.5879
▁הנזק	-10.5881
שפה	-10.5884
שלוש	-10.5884
▁האישית	-10.5888
▁מקווים	-10.5889
▁שנח	-10.589
▁מבקר	-10.5892
▁ובמיוחד	-10.5894
ענו	-10.5896
▁נודע	-10.5898
מץ	-10.5902
▁לביצוע	-10.5904
▁גורמת	-10.5905
▁טבעית	-10.5907
▁חכמים	-10.5907
▁טיפים	-10.5908
▁ממלא	-10.5909
▁מנקוד	-10.5911
▁מציין	-10.5911
▁החמישי	-10.5914
▁באנשים	-10.5918
▁Ha	-10.5918
▁הבנקים	-10.5919
▁באוניברסיטה	-10.592
▁לרשת	-10.5922
רוט	-10.5925
▁אבנים	-10.5925
▁מוצק	-10.5926
▁הכריז	-10.5928
[3]	-10.5931
פצע	-10.5931
▁מטוסים	-10.5931
▁קלאסי	-10.5931
▁1999	-10.5932
▁מאושרים	-10.5932
▁לגשת	-10.5936
▁באור	-10.5937
MS	-10.5937
tt	-10.5938
▁יעשו	-10.594
▁המשפטי	-10.5942
▁אחריו	-10.5942
▁שפורסם	-10.5945
66	-10.5948
▁שבאמת	-10.5951
▁המלכה	-10.5951
▁לתכנן	-10.5953
▁מתקדמים	-10.5956
▁אקדמי	-10.5958
אמן	-10.5958
חדש	-10.596
▁סן	-10.5962
דוג	-10.5963
▁ולמ	-10.5963
▁לסוג	-10.5967
▁e	-10.5971
מתן	-10.5976
▁סגן	-10.5976
▁עידן	-10.5977
סך	-10.598
▁בחומר	-10.5984
ES	-10.5985
▁נפוץ	-10.5986
▁>>	-10.5987
▁שומרים	-10.5987
▁במונח	-10.5987
▁איטי	-10.5989
▁נזכר	-10.5995
▁Ho	-10.5996
▁בהודו	-10.5997
מקומות	-10.5997
▁להגביר	-10.5999
חברים	-10.5999
▁צפויים	-10.6
▁המוסלמים	-10.6001
▁בעזה	-10.6001
▁קטע	-10.6001
פטי	-10.6002
חולים	-10.6004
▁ייקח	-10.6007
▁לְ	-10.6007
▁קני	-10.6008
▁הדרומי	-10.6008
▁החודשים	-10.6008
▁הדתי	-10.6009
▁מנהיגות	-10.601
▁נשבע	-10.601
▁פסטיבל	-10.6011
▁ילדי	-10.6013
▁מרכיב	-10.6016
▁לשתי	-10.6019
▁לבנים	-10.6019
▁בגן	-10.6021
גזר	-10.6024
▁1.	-10.6026
▁ביולוגי	-10.6026
אח	-10.6029
▁הכוונה	-10.603
we	-10.6032
▁לובש	-10.6034
▁קוק	-10.6036
▁ההצעה	-10.6037
▁שמור	-10.6037
▁מתה	-10.6037
אמצע	-10.6039
▁האקלים	-10.6042
▁ניסוי	-10.6043
מוות	-10.6046
קין	-10.6048
עדיף	-10.6049
▁משימות	-10.605
▁להזכיר	-10.605
▁נלקח	-10.605
▁אנוש	-10.6054
▁מתקבל	-10.6055
טכני	-10.6055
מטי	-10.6058
▁Bo	-10.6059
▁פרטית	-10.606
▁דאעש	-10.6063
▁ודאי	-10.6064
▁רכבת	-10.6064
יגו	-10.6064
▁מתים	-10.6065
פלי	-10.6066
בנק	-10.6067
▁Ca	-10.607
דתי	-10.6072
▁בעבור	-10.6073
▁רד	-10.6075
יורק	-10.6075
▁סופ	-10.6078
tra	-10.6078
▁מורים	-10.6081
90	-10.6085
עט	-10.6087
ארט	-10.6088
▁לבעיות	-10.6088
▁מכשירים	-10.6089
▁ספציפי	-10.609
▁הכדור	-10.6095
לפני	-10.6099
▁מצוינת	-10.6101
▁לרכב	-10.6102
ian	-10.6102
▁ברשימה	-10.6103
מקור	-10.6103
=	-10.6104
▁פיטר	-10.6105
▁הבחור	-10.6105
▁בתנאים	-10.6106
▁שרה	-10.6106
▁נולדה	-10.611
tal	-10.611
▁תופעה	-10.6111
[1]	-10.6112
▁לאומית	-10.6114
▁בלא	-10.6114
▁הנייד	-10.6114
▁חדשני	-10.6115
▁כח	-10.6117
סתר	-10.6123
▁ילדות	-10.6125
▁רפואית	-10.6127
▁נחוש	-10.6129
▁טקס	-10.6129
יצו	-10.613
▁אופניים	-10.6131
מדינת	-10.6132
▁דיאטה	-10.6134
ריות	-10.6135
▁נכנסים	-10.6137
▁משפטי	-10.6138
▁חייה	-10.614
▁הציבורית	-10.6142
▁לסרט	-10.6145
▁ביטול	-10.615
▁המסלול	-10.6151
▁המאסטר	-10.6152
▁ההתנגדות	-10.6152
▁לנהוג	-10.6155
▁Sa	-10.6155
▁הופעת	-10.6156
▁איכותי	-10.6158
▁«	-10.6159
זוהי	-10.616
▁דקה	-10.6161
▁המיועד	-10.6163
▁31	-10.6164
▁~	-10.6164
ממשל	-10.6168
▁פשע	-10.6168
▁העמים	-10.6171
▁פוגש	-10.6172
▁עצמאית	-10.6173
▁שהחל	-10.6174
▁העסקה	-10.6175
▁הגיב	-10.6178
▁הנער	-10.6178
▁נגיש	-10.6178
▁מסתבר	-10.6179
▁כרטיסים	-10.6182
▁בארגון	-10.6184
▁מטבע	-10.6185
מרת	-10.6186
▁הסורי	-10.6187
▁בצבא	-10.6189
▁חב	-10.6195
▁אלפים	-10.6196
אינ	-10.6197
▁מצטער	-10.6198
▁המותג	-10.6198
נקודת	-10.6198
וטר	-10.6201
▁השתתפות	-10.6205
▁קבל	-10.6211
▁בצבע	-10.6212
מילה	-10.6214
▁כללית	-10.6217
▁מעורבות	-10.6217
▁הירי	-10.6217
▁אט	-10.6221
▁תס	-10.6223
▁מפורט	-10.6226
הרבה	-10.6226
פרד	-10.6227
וזי	-10.6227
▁מצבים	-10.6227
▁הרס	-10.6231
מאה	-10.6234
▁מובילה	-10.6235
▁מעוד	-10.6235
ספי	-10.6236
▁יוון	-10.6238
▁לעם	-10.6239
▁מקס	-10.6239
▁שיקול	-10.6246
▁ואו	-10.6247
▁מנהיגים	-10.6248
▁הנקרא	-10.6249
▁פגע	-10.6251
▁פתיחת	-10.6252
▁המודל	-10.6258
▁מחלק	-10.6261
▁ובלתי	-10.6265
▁למשפחה	-10.6265
▁החשבון	-10.6267
▁טילים	-10.6267
▁רמה	-10.6268
▁קלוריות	-10.6269
▁למטרה	-10.627
▁מתפתח	-10.6274
▁הרו	-10.6276
חמישה	-10.6277
▁השקט	-10.628
▁קילומטרים	-10.6281
▁שכזה	-10.6281
▁שהכל	-10.6286
באופן	-10.6287
▁ממליץ	-10.6289
קדמה	-10.629
גורמים	-10.6294
▁ולח	-10.6294
▁תראו	-10.6297
המ	-10.6298
▁בניסיון	-10.63
▁לסי	-10.6301
▁פניו	-10.6303
▁החיות	-10.6307
ואן	-10.6308
ביץ	-10.6308
▁צהוב	-10.6309
אסי	-10.6311
▁קונה	-10.6313
▁מתקדם	-10.6313
net	-10.6314
▁בוגר	-10.632
AS	-10.632
מוק	-10.632
שלמות	-10.6323
נהל	-10.6324
▁לאלה	-10.6324
▁עשינו	-10.6326
▁המוצע	-10.6326
37	-10.6327
▁מוחמד	-10.6328
מאר	-10.6328
▁פריז	-10.6328
▁תיאר	-10.6332
▁מוסד	-10.6333
▁היופי	-10.6335
סיבת	-10.6339
▁תעופה	-10.634
22	-10.6342
▁התפתח	-10.6344
גרמו	-10.6344
גיה	-10.6351
▁יאפשר	-10.6351
▁היפה	-10.6354
▁חן	-10.6354
▁שרו	-10.6355
קבע	-10.6356
▁אלוהי	-10.6356
שכר	-10.6359
92	-10.6363
▁בטרם	-10.6364
▁שבני	-10.6364
אמונה	-10.6365
אמי	-10.6373
עשי	-10.6374
▁הרש	-10.6375
תודה	-10.6379
מציאות	-10.6379
מב	-10.638
▁לידה	-10.6381
▁Office	-10.6384
▁Po	-10.6384
שווה	-10.6385
▁שנוכל	-10.6385
▁חזון	-10.6386
▁הלימוד	-10.6391
▁הכרה	-10.6391
▁המודעות	-10.6392
▁נחשבת	-10.6396
▁המצוי	-10.6398
▁ניצחון	-10.6398
תהליך	-10.6401
חסר	-10.6402
▁להביע	-10.6403
▁לקבוצה	-10.6404
קשיב	-10.6404
יבר	-10.6405
▁נפט	-10.6407
▁באנגליה	-10.6408
▁בדו	-10.641
▁מזונות	-10.6412
▁התיירות	-10.6412
35	-10.6413
▁מלה	-10.6414
▁יעד	-10.6415
▁גונג	-10.6415
▁השמים	-10.6416
▁:)	-10.6417
חודש	-10.642
▁תהיו	-10.642
▁השב	-10.642
bu	-10.6424
▁סמל	-10.6424
▁מסת	-10.6435
▁צמחים	-10.6435
▁ידועים	-10.6439
▁החומרים	-10.6444
יישב	-10.6445
▁שאחרי	-10.6446
tic	-10.6446
▁מרתק	-10.6447
▁הדמוקרטיה	-10.6448
▁לעניין	-10.6448
ובי	-10.6449
ide	-10.6451
▁למציאות	-10.6451
▁ספרו	-10.6453
▁עיוור	-10.6453
▁בקהילה	-10.6453
▁סיטי	-10.6454
▁החברתיות	-10.6455
כינו	-10.6462
▁חיפש	-10.6463
ron	-10.6466
▁הצבאית	-10.6467
▁וכאשר	-10.6471
ליל	-10.6476
סוכנות	-10.6477
▁חריג	-10.6479
▁הצעה	-10.6482
▁נשאל	-10.6482
סוג	-10.6483
▁הבדיקה	-10.6483
טית	-10.6484
אופן	-10.6484
oo	-10.6488
▁חלבון	-10.6491
▁וכמו	-10.6493
▁הקולנוע	-10.6501
▁נהנים	-10.6503
▁אויב	-10.6504
לון	-10.6504
סקה	-10.6507
אהבה	-10.651
שבת	-10.6511
אכזב	-10.6517
▁1:	-10.6521
▁פעל	-10.6522
גדל	-10.6523
▁הביט	-10.6534
שאל	-10.6534
▁קריטי	-10.6536
ודאי	-10.6543
▁300	-10.6546
▁דלקת	-10.6546
▁סבלנות	-10.6549
▁באיטליה	-10.655
▁המכון	-10.6551
צרפת	-10.6553
▁וושינגטון	-10.6554
▁(1	-10.6555
טכנולוגיה	-10.6556
▁שופט	-10.6558
▁עצמאות	-10.6563
23	-10.6563
▁דאגה	-10.6564
▁פריטים	-10.6568
▁חוקית	-10.6568
▁ומעלה	-10.6569
▁בחייו	-10.6572
בשר	-10.6574
▁מקבלת	-10.6574
חוכמה	-10.6575
▁קשורה	-10.6575
▁זכו	-10.6578
▁גולד	-10.658
▁כעס	-10.6586
▁מסיבות	-10.6588
▁פולין	-10.6596
78	-10.6602
▁תגובת	-10.6603
▁מוצג	-10.6605
ָּ	-10.6605
▁מסורתי	-10.6606
▁מודרני	-10.6607
▁סביבה	-10.6608
▁חשובות	-10.6608
איפה	-10.6609
▁הדירה	-10.661
טן	-10.661
▁העצמאות	-10.6611
▁יפים	-10.6614
לד	-10.6614
▁ניסיתי	-10.6615
▁המחשבות	-10.6616
77	-10.6616
▁האקדמי	-10.6618
▁נותנת	-10.6619
▁הנסיך	-10.662
▁תיירים	-10.6622
▁המשותף	-10.6623
▁עוג	-10.6623
▁ריב	-10.6625
▁הדואר	-10.6627
▁רגעים	-10.6628
▁לחם	-10.6628
fe	-10.663
יחסים	-10.663
▁עבורנו	-10.6634
▁שט	-10.6634
ורו	-10.6635
▁הליך	-10.6635
▁וסי	-10.6635
▁הבעל	-10.6636
תוצאות	-10.6639
▁קרח	-10.664
Fi	-10.664
oc	-10.6644
▁ידו	-10.6646
▁בדק	-10.665
רוש	-10.6651
ud	-10.6652
▁הזר	-10.6654
▁עבורך	-10.6656
▁בז	-10.6659
▁האחראי	-10.6662
▁זכור	-10.6662
צורות	-10.6663
לול	-10.6664
▁מדריך	-10.6665
▁מלכות	-10.6665
▁התוכנה	-10.6666
נפש	-10.6668
▁הציור	-10.6668
▁הניסוי	-10.6669
עש	-10.6669
▁רפואיים	-10.6672
▁בתמונה	-10.6672
▁חתול	-10.6674
▁הנחה	-10.6677
▁אימא	-10.6677
`	-10.6678
▁100%	-10.6681
▁מרצ	-10.6681
▁אכזרי	-10.6682
▁הצלחתי	-10.6683
▁אנושית	-10.6684
▁סוחר	-10.6685
▁כתבי	-10.6688
סקס	-10.6688
▁מעקב	-10.669
יופי	-10.669
▁משפטית	-10.6696
ft	-10.6698
▁הפועלים	-10.6703
▁נסגר	-10.6704
מנכ	-10.6706
▁חקירה	-10.6706
מודע	-10.6706
מזכיר	-10.6714
▁So	-10.6714
▁המחלקה	-10.6715
דוק	-10.6718
צער	-10.6728
86	-10.6729
פצה	-10.6731
▁מתעורר	-10.6732
▁n	-10.6733
רלי	-10.6734
▁החברתי	-10.6735
▁הקודמים	-10.6739
▁נופל	-10.674
▁ההשקעה	-10.6743
▁הלכו	-10.6745
סמל	-10.6747
נסו	-10.6748
▁נניח	-10.675
▁שמאפשר	-10.675
▁הפרלמנט	-10.675
ייל	-10.6751
ננים	-10.6752
▁האושר	-10.6753
▁פלסטיני	-10.6755
▁מפר	-10.6755
אישה	-10.6757
ציית	-10.6759
▁רישיון	-10.676
▁אסיר	-10.6761
▁הדרושים	-10.6761
▁באיזו	-10.6762
▁מייד	-10.6764
▁טס	-10.6767
▁מותג	-10.6768
לוס	-10.677
AR	-10.6773
▁הגזע	-10.6774
▁אוקטובר	-10.6774
משך	-10.6774
▁העיתון	-10.6776
▁לפתע	-10.6779
▁מגיל	-10.6779
▁ההשפעות	-10.678
▁שיח	-10.6781
▁g	-10.6786
▁מבנים	-10.6787
▁שלטון	-10.6787
▁באירוע	-10.6788
75	-10.6793
▁מרוצים	-10.6794
ילו	-10.6798
▁כועס	-10.6798
▁הפתוח	-10.6798
▁דני	-10.6799
▁נהיגה	-10.6799
▁ההתחלה	-10.6799
נטל	-10.6799
▁ספינות	-10.6799
▁הינם	-10.6801
▁מחירים	-10.6803
▁d	-10.6803
שומר	-10.6803
▁אידיאלי	-10.6805
▁מדד	-10.6806
▁מלאים	-10.6809
‬	-10.6812
אלכוהול	-10.6813
ואיד	-10.6816
▁הוקם	-10.6818
▁מבצעים	-10.6819
44	-10.682
pp	-10.6821
▁פעולת	-10.6821
▁יצחק	-10.6822
▁שהיתה	-10.6823
מדיניות	-10.6823
סתכל	-10.6824
נחל	-10.6824
▁קצרים	-10.6824
▁הקיצוני	-10.6825
עשיר	-10.6825
▁היטלר	-10.6827
▁מרחק	-10.6828
SA	-10.683
▁נמשיך	-10.6832
che	-10.6832
▁פיל	-10.6833
פסי	-10.6833
אוויר	-10.6835
היבט	-10.6836
▁רגיש	-10.6839
צריך	-10.684
מרי	-10.684
▁מוכיח	-10.6841
▁מהלך	-10.6842
▁גול	-10.6843
▁לחוש	-10.6845
▁כיסוי	-10.6845
▁Q	-10.6845
▁)	-10.6848
▁32	-10.6848
▁האתגרים	-10.6848
▁פרחים	-10.6852
▁לשמר	-10.6852
שמת	-10.6855
נייה	-10.6857
▁הפעולות	-10.686
▁Man	-10.6861
▁להיפטר	-10.6861
▁דיכאון	-10.6862
תקדם	-10.6862
▁למדו	-10.6862
▁אבק	-10.6863
רץ	-10.6864
▁ידידותי	-10.6865
▁אשמח	-10.6868
ייד	-10.6871
%)	-10.6871
▁המופע	-10.6872
▁משמעותיים	-10.6872
▁ישנים	-10.6874
▁קישור	-10.6875
▁אבוד	-10.6875
▁Ad	-10.6877
▁המנ	-10.6878
▁ונשים	-10.6881
רכוב	-10.6882
▁כאל	-10.6883
מרבית	-10.6885
▁ששי	-10.6889
מנ	-10.689
34	-10.6894
▁יישאר	-10.6896
▁מהנדס	-10.6899
▁ברגל	-10.6902
שווקים	-10.6902
▁עוצמה	-10.6907
▁לתא	-10.6907
דע	-10.691
▁האינטרסים	-10.691
▁הנאצים	-10.6912
▁My	-10.6912
ep	-10.6914
▁[[	-10.6915
▁השיג	-10.6916
▁ההתנהגות	-10.6916
▁המתנה	-10.6919
▁במשרה	-10.692
▁סופי	-10.692
▁צופים	-10.6921
▁בחברת	-10.6922
▁אחורה	-10.6922
▁הורג	-10.6925
▁משתנים	-10.6926
▁תפקידו	-10.6928
▁בסדרה	-10.6928
IC	-10.6928
▁לבוש	-10.6929
▁המנהיג	-10.6929
▁וגדל	-10.6929
ak	-10.6929
▁מרפא	-10.693
▁סביבת	-10.6931
▁קח	-10.6934
>	-10.6935
▁נעשו	-10.6935
▁האג	-10.6937
▁רוחנית	-10.6948
▁הנוסעים	-10.6949
▁עוסק	-10.6949
▁דירות	-10.6951
שמונה	-10.6955
▁הגעתי	-10.6955
▁הבת	-10.6955
דמות	-10.6957
קהל	-10.6957
הצג	-10.696
ct	-10.6961
▁השליטה	-10.6962
מול	-10.6963
▁הראה	-10.6963
אפי	-10.6964
▁דמוקרטיה	-10.6964
פיזיקה	-10.6966
▁Da	-10.6967
מונד	-10.6968
▁בתקשורת	-10.6972
87	-10.6973
מסחר	-10.6975
▁החתונה	-10.6981
▁העמוק	-10.6982
▁הלכתי	-10.6983
▁הרצפה	-10.6983
▁להיפגש	-10.6983
▁Home	-10.6983
▁חזרו	-10.6983
קונגרס	-10.6986
▁לנקות	-10.6987
רום	-10.6987
▁לדברים	-10.6988
▁הרחוב	-10.6988
ear	-10.699
▁יעלה	-10.6993
▁היות	-10.6993
▁השיווק	-10.6997
מאוחר	-10.6997
▁ושם	-10.6999
▁נכסים	-10.7
▁כבש	-10.7002
▁נדרשים	-10.701
▁משלוח	-10.701
▁לצמצם	-10.7012
▁להגנה	-10.7012
דד	-10.7014
▁הכדורגל	-10.7014
▁נתיב	-10.7016
▁הַ	-10.702
▁לסטודנטים	-10.7021
▁הצטרף	-10.7021
▁לשוב	-10.7022
תרופות	-10.7022
▁אתגרים	-10.7023
▁מחייב	-10.7024
▁הנישואין	-10.7025
▁יקבלו	-10.7025
▁הכלים	-10.7026
▁בחיפוש	-10.703
port	-10.7032
▁והכל	-10.7033
▁במשפט	-10.7036
איזו	-10.7042
▁שווי	-10.7042
פרוטוקול	-10.7043
▁האימפריה	-10.7043
▁2:	-10.7044
חליף	-10.7045
▁מחצית	-10.7045
▁הכשרה	-10.7045
▁סוציאלי	-10.7045
▁בקנה	-10.705
▁כניסת	-10.7051
▁בשלום	-10.7052
ציוני	-10.7055
חמו	-10.7056
סבר	-10.7057
▁תקבל	-10.7058
גרו	-10.7058
▁הבנות	-10.706
תקופות	-10.7061
▁פורט	-10.7062
▁המושג	-10.7063
ome	-10.7064
ָר	-10.7066
▁והיו	-10.7066
קח	-10.7066
התחלתי	-10.7068
▁תרבותי	-10.7068
58	-10.707
כרת	-10.7074
נפק	-10.7075
▁למש	-10.7079
▁טבעיים	-10.708
▁מאפשרים	-10.708
▁המניות	-10.7082
▁אירועי	-10.7084
▁קניות	-10.7087
▁ההון	-10.7089
▁פיליפ	-10.7089
▁נבדק	-10.7092
▁ספרות	-10.7094
ֶה	-10.7098
▁מרוויח	-10.71
▁המכתב	-10.7105
יסה	-10.7105
▁האשראי	-10.7106
▁שעשוי	-10.7106
▁ומספר	-10.7106
▁סיכונים	-10.7106
▁לעזרה	-10.7107
▁לתקשר	-10.7107
▁כתבתי	-10.7108
▁חובות	-10.7108
משרד	-10.7109
שינה	-10.7109
▁סכנה	-10.7111
▁המתח	-10.7114
▁הבתים	-10.7118
▁פירושו	-10.7118
▁הגורם	-10.7119
09	-10.7122
38	-10.7123
הליכים	-10.7127
קציה	-10.7128
▁מילות	-10.7134
▁ובכלל	-10.7135
טבח	-10.7138
וטו	-10.7138
וכיח	-10.7139
▁מקצועיים	-10.7142
▁הלכה	-10.7144
▁הנוער	-10.7144
▁לימודים	-10.7147
▁הון	-10.7148
▁המוני	-10.7148
סיר	-10.7148
יסטים	-10.7149
▁מגן	-10.7149
▁בנ	-10.7151
▁יקרים	-10.7151
").	-10.7152
SS	-10.7153
דול	-10.7159
▁בנושאים	-10.716
▁האמיתיים	-10.7165
יתר	-10.7165
▁הסכסוך	-10.7167
RI	-10.7168
▁פטר	-10.7171
▁החזיק	-10.7171
▁לרצות	-10.7171
▁נישא	-10.7172
▁לחודש	-10.7174
▁מכונות	-10.7174
▁התשלום	-10.7174
▁המקצוע	-10.7175
▁בספרד	-10.7176
▁דתיים	-10.7178
les	-10.7181
▁חירות	-10.7185
▁בארבע	-10.7185
▁תמצאו	-10.7186
▁עסקיים	-10.7186
▁תמשיך	-10.7187
▁מגורים	-10.7187
שתדל	-10.7189
▁התחת	-10.7192
▁אלכסנדר	-10.7194
▁הבירה	-10.7194
סמן	-10.7196
ליג	-10.7199
▁הופעות	-10.7199
▁חקלאי	-10.72
צינור	-10.7201
▁בנפרד	-10.7203
▁סוס	-10.7203
▁הנדרש	-10.7203
▁גדלה	-10.7204
▁ספטמבר	-10.7205
89	-10.7206
▁הוכחה	-10.7208
▁שעשה	-10.7209
▁ואחרים	-10.721
73	-10.7212
▁הדמויות	-10.7213
▁הערכים	-10.7214
▁עמי	-10.7216
▁מעבד	-10.7218
▁מפגש	-10.7218
▁פוטר	-10.7218
▁מסמך	-10.7219
מבקר	-10.7219
▁הדר	-10.722
▁לפעילות	-10.7221
▁מונה	-10.7222
ff	-10.7222
▁עסקית	-10.7223
▁ממשל	-10.7229
▁בעצמם	-10.723
▁יער	-10.7231
ּוֹ	-10.7232
▁משולב	-10.7233
▁גנטי	-10.7235
▁לחברות	-10.7235
▁האלימות	-10.7236
▁העובדות	-10.7237
▁לעצב	-10.7238
ראית	-10.724
אחרי	-10.7241
צפה	-10.7241
82	-10.7243
▁בעסק	-10.7244
▁לחגוג	-10.7248
▁שהגיעו	-10.7249
אויב	-10.7249
▁נכונות	-10.725
art	-10.725
84	-10.7251
▁רצונו	-10.7256
▁מופיעה	-10.7256
▁בכירים	-10.7256
▁בתנאי	-10.7256
▁נציג	-10.7258
▁רגילה	-10.726
▁הספינה	-10.726
▁וקל	-10.7263
מטוס	-10.7264
▁הרגשות	-10.7264
▁כוונת	-10.7264
▁שחל	-10.7267
▁הגי	-10.7272
▁דורשים	-10.7281
▁ובעל	-10.7282
▁שנשאר	-10.7283
מילים	-10.7283
▁העץ	-10.7287
▁ריכוז	-10.7289
IT	-10.729
▁מייל	-10.7291
62	-10.7291
▁ייחודית	-10.7292
אלבום	-10.7293
▁להסתיר	-10.7294
▁המשיכו	-10.7294
▁גלוי	-10.7295
▁בסכנה	-10.7296
▁העשרים	-10.7296
▁נאלצ	-10.7297
קיר	-10.7297
▁הטיסה	-10.7298
▁הדגיש	-10.7298
▁משלמים	-10.7299
▁משתתפים	-10.7301
ארבע	-10.7305
▁ברחובות	-10.7307
▁לקום	-10.731
ED	-10.7311
▁המלאה	-10.7314
אמריקה	-10.7315
ְר	-10.7316
▁סמוך	-10.7317
▁החזיר	-10.7319
▁רא	-10.7321
▁היסוד	-10.7323
▁150	-10.7323
▁נובמבר	-10.7324
▁הקיסר	-10.7326
▁לסדר	-10.7326
▁קולו	-10.733
▁ופיתוח	-10.7331
27	-10.7332
▁עשית	-10.7333
קבר	-10.7335
פיקוח	-10.7335
▁לדי	-10.7336
▁שהילד	-10.7337
חשבתי	-10.7337
רחוב	-10.7339
היסטוריה	-10.734
▁בסוג	-10.734
▁הקלה	-10.7342
צפון	-10.7348
▁הכחול	-10.7349
▁מחלקת	-10.7349
▁הנושאים	-10.735
חלון	-10.7354
▁מתנגד	-10.7356
▁שקי	-10.7357
▁עצמן	-10.7357
▁מעניינים	-10.7357
▁הקיימים	-10.7357
▁יז	-10.7357
▁מהחיים	-10.7358
▁אבות	-10.7363
▁מלונות	-10.7365
▁התיק	-10.7368
▁עירוני	-10.7369
▁הסרטן	-10.7373
▁בקבוק	-10.7376
▁תומכים	-10.7379
▁מתכננים	-10.7379
31	-10.738
▁הוכיח	-10.7384
▁מכה	-10.7384
נוהל	-10.7388
▁במידע	-10.739
▁מוסלמים	-10.7391
▁מחובר	-10.7391
וקי	-10.7392
▁לקידום	-10.7395
▁ולפעמים	-10.7396
ON	-10.7397
יטר	-10.7404
▁גלו	-10.7408
▁רומנטי	-10.7409
▁התחילה	-10.7412
▁דבריו	-10.7413
▁הגענו	-10.7413
▁כוונה	-10.7419
▁רשויות	-10.742
▁מרטין	-10.7423
▁שנקבע	-10.7425
▁סיפק	-10.7426
▁אסון	-10.7428
▁חלקית	-10.7429
▁Ba	-10.7429
▁מוק	-10.7429
57	-10.743
▁עלתה	-10.7431
▁הסוכר	-10.7431
מספר	-10.7431
cy	-10.7433
▁כרטיסי	-10.7436
▁ואנשי	-10.7438
▁האומה	-10.7438
▁ייתן	-10.7438
יצוא	-10.7439
▁מאלה	-10.744
▁במדיניות	-10.7441
ial	-10.7441
ליברלי	-10.7442
33	-10.7443
▁דרש	-10.7444
do	-10.7447
רופא	-10.7447
▁שקשור	-10.7448
נשק	-10.7449
▁הלוואי	-10.745
-90	-10.745
חושך	-10.7452
רטט	-10.7452
▁Ra	-10.7452
▁הרבים	-10.7452
▁במוזיאון	-10.7454
▁התע	-10.7455
▁קנדי	-10.7455
▁הקיר	-10.7457
תוכן	-10.7459
▁לעסק	-10.7461
▁שוחרר	-10.7461
▁חתיכ	-10.7461
▁סודי	-10.7462
▁בטקס	-10.7462
▁איל	-10.747
דף	-10.747
דעה	-10.7471
▁חושש	-10.7473
▁חולי	-10.7474
בחינה	-10.7475
▁שנית	-10.7476
▁דמויות	-10.7479
▁התודעה	-10.7483
▁נישואין	-10.7483
▁משוכנע	-10.7486
▁ויליאם	-10.7486
גובה	-10.7486
▁נוהג	-10.7487
▁הוצאת	-10.7487
גוד	-10.7488
רטי	-10.7488
▁מוסיף	-10.7488
רגי	-10.7489
▁בכיתה	-10.749
פוליטי	-10.749
▁השאיר	-10.749
▁האוקיינוס	-10.7491
▁קישורים	-10.7492
▁חווים	-10.7498
▁באר	-10.7498
▁פנימית	-10.7499
▁שפע	-10.7505
ניתנים	-10.7505
שחרר	-10.7508
▁הילדה	-10.751
פירוש	-10.7511
▁מענה	-10.7516
▁סימני	-10.7517
▁מחברי	-10.7518
▁תחרותי	-10.7521
▁לעצמה	-10.7521
חדשנות	-10.7521
lan	-10.7523
▁פתוחים	-10.7525
▁הקיים	-10.7525
▁הפנ	-10.7528
לומד	-10.753
לצ	-10.7531
▁הוד	-10.7535
▁בשילוב	-10.7537
▁קורבנות	-10.7537
▁זוגות	-10.7537
32	-10.7538
הפכה	-10.754
▁שהתרחש	-10.7542
▁סבא	-10.7544
▁בחינוך	-10.7545
▁המוסרי	-10.7547
▁בהתחשב	-10.7551
[4]	-10.7551
▁עיתונאי	-10.7552
▁מוזמנים	-10.7552
גרפיה	-10.7553
▁המלצות	-10.7553
▁מגניב	-10.7554
▁החשיבות	-10.7554
▁העומד	-10.7556
קונ	-10.7556
▁מעצר	-10.7557
PS	-10.7557
▁עמודים	-10.7558
▁בעונה	-10.7558
▁מכבד	-10.7559
▁פלסטין	-10.7559
▁התואר	-10.7561
▁הגרמנית	-10.7562
▁הצדק	-10.7562
▁מנו	-10.7563
bi	-10.7564
▁המשא	-10.7566
מלכות	-10.7567
▁משטרת	-10.7567
▁מתאימים	-10.757
קלו	-10.7574
אכיל	-10.7574
▁שנעשה	-10.7575
▁ששת	-10.7575
▁ואכן	-10.7581
▁כשמ	-10.7582
▁להשגת	-10.7583
▁לקחו	-10.7583
▁עצים	-10.7585
קצה	-10.7585
▁בירה	-10.7585
▁בימינו	-10.7586
▁צרפתי	-10.7586
▁תע	-10.7586
▁עולים	-10.7588
▁קסם	-10.7589
גמל	-10.7589
CD	-10.759
ake	-10.7592
▁ברוך	-10.7592
▁עקבו	-10.7597
iv	-10.7598
▁השלכות	-10.7601
פתרונות	-10.7603
AP	-10.7604
▁אספקת	-10.7604
▁הסיכוי	-10.7605
nk	-10.7607
▁למסע	-10.7608
▁לכבוד	-10.7611
מרה	-10.7611
▁מקומית	-10.7613
▁לעת	-10.7617
▁תגיע	-10.7618
▁השניה	-10.7621
מלך	-10.7621
▁באפשרותך	-10.7622
▁הקישור	-10.7623
מלכה	-10.7624
▁בראשית	-10.7625
אבד	-10.763
▁סיור	-10.763
▁התח	-10.7632
▁הכתוב	-10.7632
▁להתעורר	-10.7633
▁מוקד	-10.7637
מדה	-10.7638
בלו	-10.764
▁הסכמה	-10.764
61	-10.7641
▁עונת	-10.7641
▁ולעשות	-10.7642
רמן	-10.7643
▁הנהר	-10.7643
▁ישראלית	-10.7645
▁כשהייתי	-10.7645
▁הבינו	-10.7645
▁דיבור	-10.7647
פון	-10.7647
▁שתיים	-10.7654
▁המקובל	-10.7655
רפא	-10.7657
▁שנאה	-10.7658
▁החליטו	-10.7658
▁סינ	-10.766
81	-10.7664
▁השעון	-10.7665
▁מועדון	-10.7666
▁לעסוק	-10.7667
▁הסופית	-10.7671
ביטחון	-10.7675
▁התחושה	-10.7675
ניתן	-10.7677
▁t	-10.7678
קהילה	-10.7679
▁שעושה	-10.7682
▁להשיב	-10.7682
▁מאתגר	-10.7682
▁בראיון	-10.7683
ary	-10.7685
▁ניגש	-10.7686
▁חדרים	-10.7687
▁שגוי	-10.7688
בחירה	-10.7689
▁→	-10.7689
אמ	-10.7692
הפסד	-10.7694
מיליון	-10.7695
▁לנוע	-10.7698
▁שיו	-10.7705
▁מעדיפים	-10.7709
▁הראשוני	-10.771
67	-10.7713
▁בינוני	-10.7714
▁העביר	-10.7718
▁יב	-10.772
▁ובעיקר	-10.7724
▁בעיית	-10.7728
▁במסע	-10.773
קוף	-10.7732
▁הסכום	-10.7732
▁Lo	-10.7733
▁ההודי	-10.7733
ייק	-10.7737
▁המסו	-10.774
▁מנהלי	-10.7745
▁לעסקים	-10.7748
▁שהכי	-10.7749
▁באחריות	-10.7749
▁כושר	-10.7749
▁האס	-10.7753
▁ניק	-10.7754
▁וחסר	-10.7758
▁לנשיא	-10.7761
▁הביאו	-10.7761
נכס	-10.7762
▁עסקה	-10.7764
▁חווית	-10.7766
בלה	-10.7766
▁הבנת	-10.7766
▁עיתונאים	-10.7767
החיים	-10.7769
▁המושלם	-10.7769
גרמניה	-10.7776
▁48	-10.7778
▁מקלט	-10.778
▁משלהם	-10.7781
▁דורשת	-10.7781
▁בעמוד	-10.7782
מושג	-10.7784
▁לכולנו	-10.7793
▁זמנים	-10.7794
עונש	-10.7795
▁מוסר	-10.7804
לימוד	-10.7805
נדס	-10.7807
פין	-10.781
▁ודא	-10.781
▁איחוד	-10.7811
פחות	-10.7811
לכו	-10.7812
▁האישיות	-10.7813
63	-10.7814
▁מתקשר	-10.7814
▁הפסקה	-10.7818
נברג	-10.7819
▁בתמורה	-10.782
ps	-10.782
▁יביא	-10.7821
▁מלווה	-10.7821
▁צעק	-10.7823
IP	-10.7825
ציבור	-10.7832
07	-10.7833
סיה	-10.7834
36	-10.7838
▁דתי	-10.7839
▁הסתיימה	-10.7839
▁חופשיים	-10.7841
פלסטינים	-10.7841
▁לארצות	-10.7841
▁בור	-10.7842
שונה	-10.7843
ind	-10.7844
▁לבכות	-10.7844
▁התר	-10.7849
▁העובד	-10.7851
▁מובילים	-10.7851
65	-10.7851
▁משמע	-10.7854
▁שוויון	-10.7856
▁רמז	-10.7856
אמין	-10.7856
▁הצרפתית	-10.7858
סקו	-10.7861
▁רעש	-10.7862
▁מנהיגי	-10.7865
▁ארבעת	-10.787
▁לגברים	-10.787
▁סוכנות	-10.7872
אזרחי	-10.7872
▁בסיסי	-10.7874
ינתן	-10.7876
נטו	-10.7876
ight	-10.788
ov	-10.7883
▁אינ	-10.7883
▁ממוקד	-10.7883
▁לממשלה	-10.7887
ְּ	-10.7888
▁המפעל	-10.789
▁הודעת	-10.789
רעיונות	-10.789
▁נעליים	-10.7891
▁תז	-10.7891
סטים	-10.7892
▁קשיים	-10.7893
▁גברת	-10.7893
▁להפיק	-10.7894
▁הצלחת	-10.7895
אופי	-10.7896
▁מעריכים	-10.7896
מלחמות	-10.7898
▁שראיתי	-10.79
▁מיידית	-10.7901
התנסות	-10.7901
▁קורסים	-10.7905
▁הבכיר	-10.7905
▁שבחר	-10.7908
סיבי	-10.7908
▁ללב	-10.7909
▁עדות	-10.791
▁שוקולד	-10.7911
▁אכל	-10.7912
▁בנסיבות	-10.7915
קדם	-10.7915
▁הקשורות	-10.7919
▁טיפולים	-10.792
▁בתל	-10.792
BS	-10.7921
▁הדמות	-10.7922
▁מלחמות	-10.7923
כולם	-10.7925
▁Mi	-10.7926
▁שאדם	-10.7927
▁פגש	-10.7927
▁ירו	-10.7927
▁שתוכלו	-10.7927
עובדים	-10.7928
▁משוגע	-10.7931
חוצה	-10.7931
חץ	-10.7932
▁רישום	-10.7932
▁רעה	-10.7933
▁התחלה	-10.7933
▁שומעים	-10.7934
ערוץ	-10.7936
▁תור	-10.7936
▁האיכות	-10.7938
▁לטייל	-10.7938
כאב	-10.7939
▁מהותי	-10.7939
▁הנע	-10.7942
רין	-10.7945
▁שלושים	-10.7946
ence	-10.7949
▁העליונה	-10.795
▁למסקנה	-10.795
▁ראתה	-10.7952
גברת	-10.7954
תשע	-10.7956
תראה	-10.7957
▁פלי	-10.7957
▁סיפרה	-10.7958
זיכרון	-10.796
▁כמוך	-10.796
כין	-10.7961
▁קטלני	-10.7964
▁מכון	-10.7966
▁טרו	-10.7967
▁התערוכה	-10.7973
▁Un	-10.7974
בחור	-10.7975
ure	-10.7978
בירה	-10.7978
▁פרש	-10.7978
▁אזרחות	-10.7978
יטי	-10.7981
חלף	-10.7982
▁חמורה	-10.7983
▁שהעולם	-10.7986
תלמידים	-10.799
▁במח	-10.799
▁האקדמיה	-10.7992
▁ויי	-10.7994
רפו	-10.7999
דחו	-10.7999
▁הכותרת	-10.7999
חם	-10.8
גשר	-10.8002
▁פרקים	-10.8006
ניתוח	-10.8013
▁מזיק	-10.8013
גנב	-10.8015
▁מפי	-10.8016
שכב	-10.8017
▁העשיר	-10.8018
מיס	-10.8018
▁הפער	-10.8019
▁בסעיף	-10.802
▁שהוביל	-10.802
צדיק	-10.8022
▁בכבוד	-10.8023
▁פרנסיסקו	-10.8023
▁אעשה	-10.8024
▁כרגיל	-10.8025
▁במלוא	-10.8027
▁בהתבסס	-10.8027
▁משתי	-10.8028
▁פיתח	-10.8028
▁הטכנולוגי	-10.8028
▁אדמות	-10.8029
▁לגדל	-10.803
▁World	-10.8033
▁תפקוד	-10.8033
▁מחסור	-10.8036
ירידה	-10.8036
▁שמשהו	-10.8036
▁הערות	-10.8043
זכויות	-10.8047
▁שאלת	-10.8047
▁התייחס	-10.805
אובדן	-10.805
▁נרד	-10.8051
זיהום	-10.8053
איראן	-10.8057
54	-10.8058
▁הביולוגי	-10.806
▁הול	-10.8062
מעט	-10.8062
▁נחש	-10.8064
▁יצליח	-10.8066
▁הסוג	-10.8067
▁אפס	-10.8067
מבו	-10.8068
▁נשארו	-10.8069
▁משלב	-10.8072
▁ערכי	-10.8072
▁עורר	-10.8072
יאן	-10.8073
▁למדינות	-10.8075
▁מתנות	-10.8076
96	-10.8079
יוון	-10.808
tri	-10.8081
▁אחים	-10.8084
▁שביצע	-10.8086
▁ומתי	-10.8087
▁אזהרה	-10.8087
הסכמי	-10.8088
▁הקסם	-10.8088
טלפון	-10.8089
פספס	-10.8089
▁קושי	-10.809
▁מוקדמת	-10.8091
▁החתול	-10.8093
▁בסמים	-10.8094
צורה	-10.8096
04	-10.8098
▁כשיש	-10.8101
▁לפתרון	-10.8101
55	-10.8104
▁מעמיק	-10.8105
▁דומות	-10.8107
▁פליטים	-10.8108
תבקש	-10.8111
▁חובת	-10.8114
קרוב	-10.8115
▁הכנסות	-10.8119
▁חני	-10.812
דרכו	-10.812
▁וילדים	-10.8121
שותפות	-10.8121
שניהם	-10.8123
▁הטקסט	-10.8123
▁ופשוט	-10.8128
▁חלו	-10.8128
מוש	-10.813
US	-10.8131
▁הסכמת	-10.8134
▁כריס	-10.8135
▁להתפתחות	-10.8136
▁תורה	-10.8138
▁דמוקרטי	-10.814
▁מתבצע	-10.8141
▁המקומיים	-10.8143
פיק	-10.8146
הרוג	-10.8146
▁גרמני	-10.8148
▁מאיפה	-10.8149
▁לאישה	-10.815
וקס	-10.8152
▁חוט	-10.8153
נצר	-10.8153
▁מתכוונים	-10.8155
▁גובה	-10.8155
צור	-10.8156
▁גרסה	-10.8159
▁חכמה	-10.8162
▁Se	-10.8164
▁אבד	-10.8164
מאי	-10.8164
▁תשעה	-10.8165
▁הגידול	-10.8166
▁יחדיו	-10.8166
טיקה	-10.8168
▁התאים	-10.8169
▁לאשר	-10.8169
▁ואיש	-10.8174
▁טייס	-10.818
▁בקשת	-10.8181
▁ניסויים	-10.8182
▁הפנימית	-10.8183
▁אירלנד	-10.8183
▁היותר	-10.8183
▁משקפי	-10.8184
▁יציבות	-10.8185
משכו	-10.8187
▁הגבוהים	-10.8188
39	-10.8188
נער	-10.8192
▁שרבים	-10.8193
▁המצלמה	-10.8193
▁המקצועי	-10.8198
▁תאגיד	-10.8198
au	-10.8202
▁היעדר	-10.8203
47	-10.8203
▁נק	-10.8205
גנטי	-10.8206
▁גמור	-10.8207
▁האנ	-10.8208
אגד	-10.8208
▁יגיעו	-10.8208
▁והחל	-10.821
▁חשמלי	-10.8211
▁שאו	-10.8212
▁גרו	-10.8214
אדי	-10.8215
▁תום	-10.8216
▁בנוי	-10.8217
אנגלית	-10.8218
▁באפריקה	-10.822
תבטא	-10.8221
יינות	-10.8222
▁הנח	-10.8223
▁תלויה	-10.8223
▁דוגמא	-10.8224
▁הגרעיני	-10.8225
▁העוסק	-10.8225
▁גנב	-10.8226
בכל	-10.8226
▁במל	-10.8226
▁דיוויד	-10.8226
▁היצירה	-10.8227
▁אריק	-10.8227
▁עיראק	-10.8229
▁משטח	-10.8229
מבר	-10.823
▁הארגונים	-10.8231
▁לגעת	-10.8232
▁עבורם	-10.8234
כוונת	-10.8235
▁התגלה	-10.8235
▁למחוק	-10.8236
סח	-10.8236
▁מגלים	-10.8236
▁מיום	-10.8238
▁חוף	-10.8238
06	-10.8239
▁זיהוי	-10.8239
▁New	-10.824
▁שטר	-10.8241
▁וכדי	-10.8242
▁מודאג	-10.8244
ID	-10.8245
▁החיסון	-10.8246
בוחר	-10.8247
sk	-10.8249
▁שנבחר	-10.8251
▁תהליכים	-10.8255
מיומנויות	-10.8258
ביק	-10.8261
▁לאמץ	-10.8262
▁הסובייטי	-10.8263
pi	-10.8264
גרם	-10.8265
▁הטעם	-10.8266
אובייקט	-10.8267
▁כהן	-10.8269
לכי	-10.827
▁לעוד	-10.8272
▁לאינטרנט	-10.8273
▁נאמנות	-10.8274
▁כשר	-10.8275
▁תיאטרון	-10.8279
ברים	-10.828
▁בשאלה	-10.8282
▁הגבולות	-10.8283
▁הצו	-10.8284
חובות	-10.8284
▁האתגר	-10.8288
וטים	-10.8292
▁פסל	-10.8292
▁מוכשר	-10.8295
▁הלוואה	-10.8296
▁סמית	-10.8297
▁מארק	-10.8297
▁לשבור	-10.8301
▁לתוצאות	-10.8303
▁חייך	-10.8304
ִים	-10.8305
תמונות	-10.8305
▁דרכי	-10.8306
מעו	-10.8306
▁הוכח	-10.8307
פוליטיקה	-10.8307
אנרגיה	-10.831
▁תכניות	-10.831
שיווק	-10.8312
כוון	-10.8314
▁חקר	-10.8314
▁בכם	-10.8315
▁לצערי	-10.8315
▁נפגש	-10.8316
▁War	-10.8317
▁בגדה	-10.8318
▁לתוכנית	-10.832
▁הדלק	-10.8323
▁טיל	-10.8323
סוכן	-10.8323
לחץ	-10.8327
▁ינואר	-10.833
▁רפואה	-10.833
▁כנס	-10.8331
אחז	-10.8332
▁ואנשים	-10.8333
צלחת	-10.8335
ture	-10.8336
טורי	-10.8338
▁החליטה	-10.834
כשל	-10.8344
▁All	-10.8345
ננו	-10.8347
▁מביאים	-10.8347
שוויון	-10.8348
משהו	-10.8348
משו	-10.835
▁שיצר	-10.8354
▁המיקום	-10.8354
ערכת	-10.8357
▁בדקו	-10.8357
כתיבה	-10.8358
גוש	-10.8364
▁HIV	-10.8366
▁הטר	-10.8366
▁השפיע	-10.8367
▁במבט	-10.8367
▁כיסא	-10.8367
▁הבקשה	-10.8368
▁הבולט	-10.8368
▁מסודר	-10.837
▁שאיש	-10.8371
▁תמצא	-10.8372
פיצו	-10.8373
▁במשהו	-10.8374
▁החלומות	-10.8374
▁לברר	-10.8376
שאלות	-10.838
▁ולראות	-10.8381
מוסדות	-10.8381
▁הווי	-10.8381
▁נייד	-10.8383
▁יחזור	-10.8384
▁להפר	-10.839
בריטניה	-10.8392
OS	-10.8392
▁האבטחה	-10.8393
▁מספרת	-10.8394
מנהל	-10.8394
נאו	-10.8396
▁לענייני	-10.8397
▁ויל	-10.8398
פיס	-10.84
▁פק	-10.84
▁הרצח	-10.8401
▁המובילים	-10.8404
▁חשד	-10.8406
▁המוסיקה	-10.8407
ערער	-10.8412
▁המשיכה	-10.8416
▁מאמן	-10.8416
רצה	-10.8418
שׂ	-10.8419
▁הסוד	-10.842
מוז	-10.8421
כסף	-10.8421
ביטוי	-10.8421
זול	-10.8429
▁איגוד	-10.8431
▁במרחב	-10.8433
▁שעשו	-10.8434
▁בכי	-10.8434
סנקציות	-10.8436
▁רצתה	-10.8436
▁להרים	-10.8437
▁להגשים	-10.8437
כפל	-10.8437
▁להתפתח	-10.8437
▁יצטרכו	-10.8438
▁מתמודד	-10.8439
כרים	-10.8439
▁הרוגים	-10.8439
▁למו	-10.8439
▁הקרח	-10.8439
צופה	-10.8439
▁דעה	-10.844
בלתי	-10.8441
▁יצאה	-10.8441
79	-10.8442
▁כישלון	-10.8443
▁הוראה	-10.8444
▁כרוני	-10.8445
▁נחת	-10.8446
▁לקהל	-10.8446
▁לאותו	-10.8454
▁מסדר	-10.8455
▁ואח	-10.8455
רופ	-10.8456
ודיע	-10.8456
▁התרחש	-10.8457
▁רמ	-10.8457
▁הישג	-10.846
בחנו	-10.8461
$	-10.8462
בגד	-10.8463
▁מעריך	-10.8467
▁בידיים	-10.8467
▁הדוק	-10.8472
▁ובעלי	-10.8473
▁לניו	-10.8473
▁המטבח	-10.8475
▁המועדון	-10.8477
▁זכאי	-10.8477
▁בּ	-10.8479
עלינו	-10.848
▁אחרונה	-10.848
פז	-10.8481
כביש	-10.8481
▁צופה	-10.8482
▁בנוח	-10.8485
▁ערוץ	-10.8486
▁מייסד	-10.8487
▁36	-10.8488
▁i	-10.8488
-24	-10.8493
▁אסירים	-10.8493
▁הקורס	-10.8496
▁וטוב	-10.8497
▁פנ	-10.8498
סחר	-10.8501
▁פיגוע	-10.8505
▁מקדש	-10.8505
מבי	-10.8506
דם	-10.8506
▁הטבעית	-10.8507
▁דן	-10.8507
▁מסורת	-10.8507
▁העתידי	-10.8507
▁לואיס	-10.8508
▁לתקוף	-10.8508
▁זילנד	-10.8508
▁הפגישה	-10.8509
▁הנכס	-10.8512
▁הוריו	-10.8515
▁צחק	-10.8517
71	-10.852
מנות	-10.8523
▁המועד	-10.8524
תקן	-10.8525
חדשות	-10.8528
▁בודדים	-10.853
▁משלם	-10.853
תרגום	-10.8531
▁סבתא	-10.8532
עצר	-10.8532
▁ימצא	-10.8533
ue	-10.8534
▁החג	-10.8537
צעירים	-10.8537
▁פאר	-10.8538
קונים	-10.8538
▁נדבר	-10.854
כבש	-10.854
▁אירופאי	-10.854
חקירה	-10.8541
▁אורחים	-10.8543
▁ענקית	-10.8543
64	-10.8543
▁לעשן	-10.8544
▁פלסטינית	-10.8545
חור	-10.8546
קצת	-10.8549
לכוד	-10.8554
▁דצמבר	-10.8557
רשימה	-10.8557
29	-10.8558
להרשות	-10.8562
▁בוב	-10.8563
רפובליק	-10.8564
▁ברוח	-10.8564
▁יסודי	-10.8565
▁קובץ	-10.8567
▁הסיוע	-10.8569
▁מקשיב	-10.857
▁מנצ	-10.8573
▁דתית	-10.8573
▁ההתפתחות	-10.8573
▁החולה	-10.8575
▁פלילי	-10.8576
▁נפוצה	-10.8579
מעשים	-10.858
קצב	-10.8582
▁תתחיל	-10.8583
נגר	-10.8584
כבר	-10.8585
▁מחכים	-10.8585
way	-10.8586
מוסד	-10.8586
תפלל	-10.8587
▁תגיות	-10.8589
▁ילדיהם	-10.8589
מסגד	-10.859
רוג	-10.8592
עורך	-10.8592
PA	-10.8594
▁שעליו	-10.8602
יכולת	-10.8602
gen	-10.8604
▁בשבת	-10.8614
▁פרשת	-10.8614
land	-10.8615
▁כאבי	-10.8619
סקופ	-10.8621
▁הגיבור	-10.8622
▁לאחת	-10.8626
קדים	-10.8627
▁לכבד	-10.8628
זין	-10.8628
רני	-10.8629
▁כביש	-10.8633
▁שנולד	-10.8634
▁ההבדלים	-10.8637
בעת	-10.8641
הדרך	-10.8644
CC	-10.8644
רבה	-10.8644
▁לדרוש	-10.8646
▁לבדו	-10.8649
able	-10.865
▁והכי	-10.8651
▁נמוכים	-10.8652
▁קלינטון	-10.8652
▁חינוכי	-10.8652
▁אֶת	-10.8652
ite	-10.8656
▁טיימס	-10.8656
▁שעון	-10.8657
▁מפריע	-10.8658
▁להורים	-10.8659
▁תפילה	-10.866
גיטרה	-10.8661
ice	-10.8661
סימן	-10.8661
▁השבת	-10.8662
▁גשם	-10.8662
▁שעליה	-10.8663
שיעור	-10.8664
▁הפשע	-10.8665
▁החקירה	-10.8667
קומו	-10.8669
▁יצירה	-10.8671
▁קינג	-10.8673
▁הרעיונות	-10.8674
nd	-10.8675
▁מצביעים	-10.8675
▁תופס	-10.8678
קהילות	-10.8681
▁מגיב	-10.8684
▁גורמי	-10.8685
▁מופע	-10.8686
▁מקורי	-10.8686
▁בניהול	-10.8687
74	-10.8687
▁צוחק	-10.8687
▁אפריל	-10.8689
פירות	-10.8689
▁המידה	-10.869
▁מפל	-10.869
דלת	-10.8691
כבוד	-10.8692
מסעדות	-10.8693
▁משמשים	-10.8693
▁בחנות	-10.8693
▁Love	-10.8694
▁הספיק	-10.8697
▁משטר	-10.8697
▁רוצח	-10.8698
גלי	-10.8699
▁בחורף	-10.8704
95	-10.8705
אקר	-10.8706
▁בפארק	-10.8709
▁שבית	-10.871
▁הלוח	-10.871
▁התוכניות	-10.8712
גופים	-10.8715
▁אוצר	-10.8717
▁הומו	-10.872
▁הפתיחה	-10.8725
▁ותו	-10.8725
▁הגעת	-10.8725
▁כולן	-10.8726
▁מחולק	-10.8727
▁תנועות	-10.8727
▁בעשור	-10.8728
▁בבל	-10.8728
▁למנהל	-10.8729
תקף	-10.873
▁שנכתב	-10.8731
08	-10.8733
▁מעודד	-10.8733
פשע	-10.8734
▁אנה	-10.8734
▁הכבד	-10.8736
▁רעים	-10.8739
▁רגשית	-10.874
▁מעסיק	-10.8741
▁נציגי	-10.8743
▁המהיר	-10.8748
עקרונות	-10.875
יחוד	-10.875
▁פג	-10.8751
▁המועמד	-10.8751
▁צרכי	-10.8755
פנות	-10.8758
▁יפני	-10.8758
▁ומדוע	-10.876
▁לקל	-10.8766
▁וזהו	-10.8767
▁מופיעים	-10.8767
▁המשפחתי	-10.8768
▁טענה	-10.877
עיבוד	-10.8771
▁סודות	-10.8771
▁מחויבות	-10.8772
נולד	-10.8772
בעל	-10.8773
פסיד	-10.8773
▁גאים	-10.8774
▁האמור	-10.8777
סיק	-10.8778
כמעט	-10.8779
▁אקו	-10.878
▁ניצל	-10.8781
חשש	-10.8785
שחקנים	-10.8786
min	-10.8787
▁הבסיסי	-10.8787
ow	-10.8789
▁בכנס	-10.879
▁האד	-10.879
איי	-10.8791
▁חווה	-10.8792
▁משקאות	-10.8792
▁לחדש	-10.8793
▁לגייס	-10.8793
ַּ	-10.8794
▁אלכס	-10.8795
כף	-10.8796
בונה	-10.8797
▁Human	-10.8798
דרוש	-10.8799
▁1967	-10.8799
▁בוצע	-10.88
▁אורגני	-10.8803
▁הנורא	-10.8803
▁נקראת	-10.8803
▁מהאנשים	-10.8806
▁המדעי	-10.8806
▁טכנולוגי	-10.8808
▁במהרה	-10.8811
▁לרעה	-10.8812
▁ימשיכו	-10.8815
גייס	-10.8815
מכו	-10.8819
ענין	-10.8822
מניה	-10.8823
▁צהריים	-10.8825
72	-10.8825
ach	-10.8825
▁חמים	-10.8826
▁עוזרים	-10.8827
▁הפרט	-10.8827
פרויקט	-10.8828
▁ידעה	-10.8828
מטה	-10.8828
▁האנטי	-10.883
lin	-10.8831
▁לחצו	-10.8832
וניות	-10.8833
▁קייט	-10.8833
ST	-10.8834
שנת	-10.8836
▁אינטנסיבי	-10.8837
▁הניהול	-10.8838
זווית	-10.8841
▁הפוך	-10.8841
▁התקבל	-10.8844
▁עשורים	-10.8845
אמה	-10.8846
ביס	-10.8846
▁מוכרח	-10.8847
דיל	-10.885
עוז	-10.8853
צלם	-10.8853
???	-10.8854
▁תפסיק	-10.8854
▁אלן	-10.8855
▁(1)	-10.8858
בגלל	-10.8858
▁הער	-10.8865
תרו	-10.8866
▁לארגון	-10.8867
▁הפרעות	-10.8868
קסון	-10.8869
מידה	-10.8871
▁הכנס	-10.8872
▁שלישית	-10.8872
é	-10.8872
[5]	-10.8872
▁המורים	-10.8874
▁ההבנה	-10.8875
▁דיווחו	-10.8875
▁פגישה	-10.8875
▁מתכוונת	-10.8877
▁מעי	-10.8878
פרסמו	-10.8879
פריד	-10.8879
▁החיובי	-10.8881
▁אפקטיבי	-10.8881
תחרות	-10.8882
▁באיראן	-10.8884
▁מידת	-10.8885
גבי	-10.8885
קורס	-10.8886
▁משלה	-10.8888
▁הכירו	-10.889
וודא	-10.8891
▁העירייה	-10.8891
פחית	-10.8894
טראומה	-10.8894
▁היסטורית	-10.8895
▁לרפואה	-10.8896
▁המנהלים	-10.8897
▁מבטא	-10.8898
▁ימשיך	-10.8898
ונם	-10.8899
▁בדף	-10.89
▁יראה	-10.8901
▁באהבה	-10.8902
ענק	-10.8907
▁זרה	-10.8907
למשל	-10.8907
ob	-10.8908
▁כלכליים	-10.8908
▁מבקשת	-10.8908
▁מסעדות	-10.8909
▁הסט	-10.8911
▁עז	-10.8911
▁מתנהג	-10.8912
▁הצר	-10.8919
ick	-10.892
▁משלי	-10.892
▁עצה	-10.8924
▁400	-10.8924
ציין	-10.8929
▁לחינוך	-10.893
▁העסקי	-10.8931
משפחת	-10.8932
שמן	-10.8935
ens	-10.8938
▁סק	-10.8938
▁נסיעות	-10.894
▁הפסיק	-10.8942
▁בבסיס	-10.8942
▁היקף	-10.8946
▁ידענו	-10.8946
}	-10.8946
▁ההזמנה	-10.8947
▁המשותפת	-10.8947
▁שולט	-10.8947
▁המדויק	-10.8947
▁1996	-10.8948
mb	-10.8949
▁התחל	-10.8949
▁רושם	-10.8951
מחר	-10.8952
▁כמוני	-10.8953
▁מחויבים	-10.8955
▁שווים	-10.8955
▁סקוט	-10.8956
▁התמקד	-10.896
▁נישואים	-10.8962
ובס	-10.8962
▁ספציפיים	-10.8965
▁מכונה	-10.8966
▁מעניינת	-10.8967
▁דגש	-10.8968
תחנת	-10.8968
▁מאנשים	-10.8969
פיע	-10.8969
res	-10.897
▁עוקב	-10.8973
vo	-10.8975
▁טענות	-10.8976
▁נעלמו	-10.8978
כיבוש	-10.8978
br	-10.898
היום	-10.898
▁IP	-10.898
קבוצות	-10.8982
▁בתעשיית	-10.8982
▁מקסיקו	-10.8984
▁אשמה	-10.8984
▁להקמת	-10.8984
רדו	-10.8988
הנדסה	-10.8989
▁נשמה	-10.8989
תיבת	-10.8991
94	-10.8992
שריפה	-10.8993
42	-10.8993
סופי	-10.8994
▁כא	-10.8995
▁לפרק	-10.8998
▁בעברית	-10.8999
▁הרשמית	-10.9
▁החזון	-10.9002
▁Na	-10.9004
▁הקש	-10.9005
▁שרי	-10.9005
▁מטה	-10.9005
גידול	-10.9007
▁הבהיר	-10.9007
▁ותמיד	-10.9008
eg	-10.9013
שפע	-10.9013
▁מעשים	-10.9015
ip	-10.9016
גשם	-10.9017
▁נוטה	-10.9017
▁מוסלמי	-10.9018
▁בערים	-10.9018
▁מקו	-10.9021
3,000	-10.9022
▁התשובות	-10.9022
▁1995	-10.9023
פיסת	-10.9024
▁(4	-10.9025
▁טועה	-10.9025
▁רבע	-10.9026
83	-10.9027
▁זקן	-10.9027
);	-10.9027
▁שהביא	-10.9028
▁בתוכו	-10.9028
▁האורחים	-10.9028
▁חפ	-10.9029
זדקק	-10.9029
▁הרצוי	-10.9031
קרט	-10.9032
▁למדיניות	-10.9033
▁אצלי	-10.9034
sion	-10.9037
▁כף	-10.9038
▁הרביעית	-10.9038
▁נוצרים	-10.9039
פעמים	-10.9039
טיפ	-10.9039
▁נהרס	-10.9039
▁חשים	-10.904
▁מפה	-10.9041
▁ולכל	-10.9045
▁Vi	-10.9045
מלחמה	-10.9046
▁דיסק	-10.9046
▁עוזב	-10.9047
49	-10.9048
מחבל	-10.9049
▁דווח	-10.905
05	-10.905
▁יריב	-10.9051
מקצוע	-10.9052
day	-10.9052
▁האיראני	-10.9052
▁הצורה	-10.9052
▁קרל	-10.9053
ea	-10.9055
▁יחידה	-10.9055
▁הסימפטומים	-10.9056
דיווח	-10.906
▁תרומה	-10.9062
▁הרגשה	-10.9063
▁co	-10.9067
▁רצינית	-10.9068
▁נסה	-10.9068
▁רש	-10.9069
▁מפת	-10.907
▁נחל	-10.9071
מטרי	-10.9071
▁יושבים	-10.9072
▁המצרי	-10.9072
▁שחו	-10.9073
מסורת	-10.9073
▁בדירה	-10.9077
סעיף	-10.9078
▁האנגלי	-10.9079
שאלת	-10.908
▁עדכון	-10.9083
התפתחויות	-10.9083
שתחרר	-10.9085
▁אמנים	-10.9086
▁דורות	-10.9086
▁שוקל	-10.9088
▁זקוקה	-10.9088
יוס	-10.909
▁המרחק	-10.9091
▁דרוש	-10.9092
▁הסיכויים	-10.9093
▁בדי	-10.9096
מרפא	-10.9096
צורך	-10.9097
▁נכונים	-10.9098
▁אחרון	-10.9099
▁1998	-10.9099
▁1997	-10.9099
▁מופתע	-10.91
▁הצג	-10.91
▁הצהיר	-10.91
טעות	-10.9101
▁אחראית	-10.9102
▁לפחד	-10.9103
▁נערה	-10.9104
▁10%	-10.9106
▁בחייהם	-10.9106
שנות	-10.9107
▁המשפחות	-10.9108
▁דיגיטלי	-10.911
▁רוסי	-10.9114
ורן	-10.9115
▁נעשית	-10.912
▁קיי	-10.9122
▁לנוכח	-10.9122
▁איתן	-10.9123
תפעל	-10.9125
▁מומחי	-10.9127
▁הצפון	-10.9128
▁עמדות	-10.9129
ממת	-10.913
עונה	-10.913
פירה	-10.9132
שכנע	-10.9138
▁מייצר	-10.9145
▁שביל	-10.9145
טיפוח	-10.9146
רחיב	-10.9146
▁הזכר	-10.9147
נוסח	-10.915
▁Ex	-10.9153
▁לצחוק	-10.9154
▁עמוס	-10.9157
עסיק	-10.9158
▁מתמודדים	-10.9158
ראיין	-10.9158
▁רובוט	-10.9159
▁סייע	-10.9159
דרום	-10.9162
טרור	-10.9165
▁שרת	-10.9165
מאות	-10.9167
▁הלכת	-10.9168
▁אשתי	-10.9171
▁הופיעו	-10.9173
EN	-10.9173
▁תמיכת	-10.9174
▁Watch	-10.9174
▁איכשהו	-10.9174
▁להכיל	-10.9174
▁הגרסה	-10.9176
▁ארוחות	-10.9176
קשים	-10.9177
▁האגודה	-10.9177
▁כשמדובר	-10.9177
▁התחבורה	-10.9178
▁המנוע	-10.9182
02	-10.9184
▁מאמצים	-10.9184
ארגן	-10.9186
שחיתות	-10.9187
מבט	-10.9188
▁הדרום	-10.9189
פוליס	-10.919
עמים	-10.9191
▁אמה	-10.9192
85	-10.9197
▁ביצים	-10.9197
▁התל	-10.9199
97	-10.9199
▁ולעתים	-10.9204
▁מסיר	-10.9207
אקו	-10.9207
▁הוספת	-10.9211
▁נכנסו	-10.9217
▁במחנה	-10.9219
▁ולתת	-10.9219
▁דפוס	-10.9221
▁הפסיכולוגי	-10.9222
צרכנים	-10.9224
▁האולימפי	-10.9227
בגרות	-10.9228
מדבר	-10.9229
השפעה	-10.9233
▁33	-10.9233
אוכל	-10.9234
TM	-10.9234
יוני	-10.9234
קבוצת	-10.9235
▁לנגן	-10.9235
▁התור	-10.9237
▁נטו	-10.9238
ka	-10.9239
▁ההכרה	-10.924
▁היער	-10.9242
רנס	-10.9242
▁לבנון	-10.9243
מיקרו	-10.9245
▁קש	-10.9245
▁הרחק	-10.9246
ריב	-10.9248
▁you	-10.925
▁הופ	-10.9251
▁לטעון	-10.9251
▁נשמר	-10.9252
סטודיו	-10.9253
▁לקהילה	-10.9253
▁בתחרות	-10.9254
▁שמתרחש	-10.9257
▁פעילה	-10.9258
AM	-10.9258
▁ולבסוף	-10.9259
▁לאמנות	-10.9261
▁אמין	-10.9261
▁לעובדים	-10.9263
▁האמינו	-10.9265
מדד	-10.9267
▁החזר	-10.9268
▁קנה	-10.9269
ךְ	-10.927
▁כתיבת	-10.9271
▁הכתיבה	-10.9271
▁הזהיר	-10.9274
נאט	-10.9275
סיבה	-10.9275
▁ומאפשר	-10.9276
▁הכספים	-10.9277
▁בשעת	-10.9277
▁אוהד	-10.9277
ai	-10.9278
רבות	-10.9278
ונתן	-10.928
AC	-10.9281
▁וניהול	-10.9281
משפחות	-10.9282
▁לטיול	-10.9283
▁נגע	-10.9285
▁עיבוד	-10.9287
-22	-10.9287
▁אחראים	-10.9288
בוד	-10.9291
▁למניעת	-10.9295
▁איסור	-10.9295
▁מדגיש	-10.9296
!”	-10.9299
▁דעתו	-10.9301
▁Sh	-10.9302
▁יורו	-10.9303
▁יוצרת	-10.9304
▁מיוחדות	-10.9304
▁עצות	-10.9305
▁פולי	-10.9306
ענה	-10.9307
▁is	-10.9309
▁בחודשים	-10.931
▁כישורי	-10.9312
▁הפרה	-10.9312
▁באוסטרליה	-10.9313
▁עק	-10.9315
מופע	-10.9316
פורד	-10.9318
▁ודי	-10.932
חשמל	-10.9321
כפר	-10.9322
וּת	-10.9323
▁המתים	-10.9328
טרגדיה	-10.9329
▁ברוכים	-10.9329
▁הגרעין	-10.9329
▁השביעי	-10.933
מעבד	-10.933
מזון	-10.933
▁העשור	-10.9331
▁במידת	-10.9332
▁המוחלט	-10.9333
הספר	-10.9336
▁הצפוי	-10.9337
בטוח	-10.9337
ran	-10.9337
▁תעשייתי	-10.9337
▁ניסיונות	-10.9338
▁נשארים	-10.9339
▁מנגנון	-10.934
ילון	-10.9342
כוחות	-10.9343
סן	-10.9345
▁טכנולוגיי	-10.9346
▁פריט	-10.9347
טול	-10.9348
▁שקלים	-10.9351
כריז	-10.9354
▁מועמדים	-10.9355
▁מכובד	-10.9359
▁הוכרז	-10.9361
ברך	-10.9362
▁מוציא	-10.9362
▁השמיים	-10.9364
הברית	-10.9364
▁לבעיה	-10.9365
▁הטענה	-10.9368
▁טענו	-10.9368
▁תומכת	-10.9373
אזרחים	-10.9375
▁בעיניים	-10.9375
▁דוקטור	-10.9377
▁נמצאות	-10.9377
▁מחפשת	-10.9377
תופעות	-10.9379
▁ביצועים	-10.9379
▁במילה	-10.938
▁האוטובוס	-10.938
▁מאגר	-10.9384
חבורה	-10.9384
▁משמר	-10.9384
נוחות	-10.9386
▁הכיר	-10.9387
▁We	-10.939
▁בול	-10.9392
▁ציר	-10.9393
▁תחנות	-10.9394
▁שעשיתי	-10.9395
שישה	-10.9395
▁המלכותי	-10.9395
ההורים	-10.9396
▁אסטרטגיות	-10.9398
St	-10.9402
▁כמי	-10.9404
▁המזרחי	-10.9405
▁במכשיר	-10.9406
▁בעצמכם	-10.9407
▁ההוצאות	-10.9407
▁החקלאי	-10.9407
▁שדות	-10.9407
▁לשכור	-10.9409
▁חתולים	-10.9409
▁ואלה	-10.941
▁הסתיים	-10.941
▁העלייה	-10.9411
PC	-10.9411
היינו	-10.9413
▁מקוון	-10.9414
▁אירו	-10.9414
כוונות	-10.9414
אוט	-10.9415
פוצץ	-10.9416
▁להפסיד	-10.942
▁הציל	-10.9421
▁עשירים	-10.9421
▁חזיר	-10.9421
▁לאירוע	-10.9421
▁חלון	-10.9421
▁באג	-10.9423
▁34	-10.9426
תשובה	-10.9427
▁מוצ	-10.9427
רשות	-10.9428
דפים	-10.9429
צמד	-10.9432
▁למס	-10.9435
וזה	-10.9435
▁לציד	-10.9436
▁מאזן	-10.9438
▁התלמיד	-10.9439
חף	-10.9439
רכו	-10.944
▁העלות	-10.9445
▁הכללים	-10.9445
וגה	-10.9446
▁שלילית	-10.9447
בסופו	-10.9448
▁הדף	-10.9449
▁צבעוני	-10.9449
▁נפשי	-10.945
נחת	-10.945
▁הסקר	-10.9454
▁אוטומטית	-10.9455
''.	-10.9456
▁האירופאי	-10.9457
תחדש	-10.9458
▁ברלין	-10.9459
▁סטנדרטי	-10.9459
תפריט	-10.9461
▁פקיד	-10.9462
צד	-10.9462
SP	-10.9467
▁שבט	-10.9468
קצו	-10.947
▁שלילי	-10.947
▁שנכנס	-10.9471
▁פלסטיק	-10.9472
לוג	-10.9472
▁מתא	-10.9477
▁למשתמשים	-10.9478
▁כוכבי	-10.9479
▁מסגרת	-10.9482
בחנה	-10.9482
▁לבתי	-10.9483
▁וחשוב	-10.9484
קווי	-10.9484
דפדפן	-10.9485
▁הספציפי	-10.9485
▁לפלסטינים	-10.9486
▁לביטחון	-10.9486
עזוב	-10.9486
▁1993	-10.9487
▁הוותיק	-10.9487
▁ארבעים	-10.9488
▁לחי	-10.9488
▁v	-10.9488
▁חודשי	-10.9489
אסור	-10.949
▁בזהירות	-10.9491
▁הדג	-10.9492
▁להגביל	-10.9493
▁אופנה	-10.9494
▁הטבעת	-10.9495
▁לעזאזל	-10.9498
▁הקבלה	-10.9498
▁המעמד	-10.9499
▁בחול	-10.9499
▁בבת	-10.95
▁ביטחוני	-10.95
ללא	-10.9504
▁יהפוך	-10.9508
קפיד	-10.9508
▁נראו	-10.9509
קפא	-10.9511
▁בחצי	-10.9512
▁השלילי	-10.9513
מסע	-10.9516
▁מסתובב	-10.9516
דרכה	-10.9517
מתוך	-10.9517
▁בצע	-10.9517
▁ויתר	-10.9518
▁פת	-10.9519
▁אוכלוסיית	-10.9519
▁שהרי	-10.9521
מודעות	-10.9523
▁שבכל	-10.9524
▁שאוכל	-10.9525
▁מִ	-10.9526
ארגונים	-10.9528
ליות	-10.9528
▁לכלא	-10.9529
מקרר	-10.9531
ang	-10.9531
מציא	-10.9532
▁מנע	-10.9532
▁הרכישה	-10.9533
▁ואב	-10.9534
נָ	-10.9534
דרדר	-10.9534
סכנות	-10.9537
-2014	-10.9537
סבתא	-10.954
RA	-10.9542
▁הסל	-10.9549
▁הסיפורים	-10.9551
▁ובטוח	-10.9551
▁ביקורות	-10.9553
חטא	-10.9556
▁בתעשייה	-10.9556
▁מתנהל	-10.9556
▁ימות	-10.9559
קישור	-10.9562
▁ברשתות	-10.9564
▁להשוות	-10.9565
▁השגת	-10.9566
▁בשמחה	-10.9566
▁תביא	-10.9567
▁1990	-10.9567
▁החשיבה	-10.9567
▁השעות	-10.9567
▁ממשלות	-10.9569
▁בטעות	-10.957
▁בקרבת	-10.9571
▁נשלט	-10.9572
▁סוסים	-10.9572
▁סיבוב	-10.9573
שיקול	-10.9574
קנו	-10.9574
▁לגו	-10.9575
▁אלבומ	-10.9577
▁תפקידים	-10.9577
▁בדרכו	-10.9578
▁מאסטר	-10.9578
▁בחיל	-10.9579
ֹת	-10.9579
▁עוברת	-10.9582
▁נג	-10.9582
▁והס	-10.9582
▁יקיר	-10.9585
▁מתכנן	-10.9586
חוזק	-10.9587
▁לטענת	-10.9587
▁מחזיר	-10.959
▁ימינו	-10.9592
▁נוצרו	-10.9592
▁אסטרטגיה	-10.9592
▁לעבד	-10.9595
▁פנה	-10.9596
az	-10.9597
▁אפקט	-10.9598
▁אמיר	-10.9598
תוך	-10.9599
▁רגלי	-10.96
▁קהילות	-10.9601
▁נערך	-10.9603
▁והרבה	-10.9603
▁מורכבות	-10.9605
▁האירופית	-10.9605
▁מכונת	-10.9607
▁אפי	-10.9607
▁שורה	-10.9609
▁מאמצי	-10.961
-23	-10.9612
▁קבצים	-10.9613
▁הראשית	-10.9614
▁ונראה	-10.9616
▁לירות	-10.9618
שיטות	-10.9619
▁מקרוב	-10.962
▁קבועה	-10.9626
▁הקמפיין	-10.9626
מפרץ	-10.9628
וננו	-10.9628
▁האיזון	-10.9629
שלישי	-10.963
גיב	-10.9631
טט	-10.9633
ערבים	-10.9634
▁מכירת	-10.9635
חסד	-10.9642
tro	-10.9642
▁חיוביות	-10.9642
▁לשאלות	-10.9642
וידאו	-10.9644
▁אדוארד	-10.9645
▁1992	-10.9646
▁השרירים	-10.9647
קפת	-10.9647
▁נשוי	-10.9648
▁בוכה	-10.9648
▁הדגל	-10.965
▁האפל	-10.965
▁מתמשך	-10.965
כט	-10.9652
▁עלולות	-10.9653
43	-10.9654
▁שנמצאים	-10.9656
▁Go	-10.9658
▁אמריקאית	-10.9659
יאנג	-10.966
▁המסורת	-10.9661
▁המרחב	-10.9662
רכוש	-10.9662
▁עמדו	-10.9663
מונה	-10.9664
סמים	-10.9665
ירוף	-10.9666
▁אמן	-10.9667
fi	-10.9667
▁לוואי	-10.9668
▁שמים	-10.9668
▁ספי	-10.9669
▁כתבו	-10.9671
▁נר	-10.9676
que	-10.9676
▁שוטרים	-10.9676
וננת	-10.9677
מובנים	-10.9677
אמנת	-10.9679
▁סבורים	-10.968
▁טכניקות	-10.968
▁שהיינו	-10.9682
משבר	-10.9683
▁מוטל	-10.9684
▁הגשר	-10.9688
▁כתיבה	-10.9688
וגנת	-10.969
▁משפיעה	-10.9692
▁פנוי	-10.9695
סנט	-10.9695
▁במחוז	-10.9696
AN	-10.9697
תרגל	-10.9697
דחה	-10.9699
▁בוושינגטון	-10.9699
מכוניות	-10.9699
▁ההולנדי	-10.9701
פיצ	-10.9703
יחס	-10.9703
▁האזרח	-10.9705
▁צוואר	-10.9707
ייעץ	-10.971
▁לפר	-10.9711
RO	-10.9714
תבונן	-10.9715
▁חופשה	-10.9716
בירת	-10.972
▁מוסרית	-10.9721
▁דנ	-10.9722
▁פרופיל	-10.9722
▁שעמד	-10.9723
▁בשלוש	-10.9723
▁מלכתחילה	-10.9725
▁להיעשות	-10.9725
▁מבפנים	-10.9726
▁בברכה	-10.9728
▁השתל	-10.973
תקפו	-10.973
▁לחסל	-10.9731
טמפרטור	-10.9731
▁בקשות	-10.9732
אללה	-10.9735
▁לסוף	-10.974
▁קנ	-10.9743
▁ראויה	-10.9748
ווד	-10.9749
▁מיקרו	-10.9749
NBA	-10.9749
משולש	-10.9751
מכשיר	-10.9752
▁הצמח	-10.9753
▁דיווחים	-10.9754
כתי	-10.9754
▁משותפים	-10.9755
▁להתנגד	-10.9759
ree	-10.976
▁התכנון	-10.976
▁מטבעות	-10.9761
סכים	-10.9764
▁המכירה	-10.9766
▁מודרנית	-10.9769
▁הטיול	-10.9769
98	-10.9772
סטית	-10.9777
רלוונטי	-10.9781
כלומר	-10.9782
▁בכוונה	-10.9783
▁הבגדים	-10.9784
הסכמה	-10.9787
נשא	-10.9789
טני	-10.9793
חן	-10.9796
▁פנו	-10.9799
▁ורוב	-10.98
▁ההש	-10.9804
▁העות	-10.9804
כרי	-10.9804
▁סד	-10.9805
גדיר	-10.9806
אוקיינוס	-10.9807
▁הנמוך	-10.9807
אופק	-10.9808
▁ההסבר	-10.9808
▁מנוחה	-10.9809
השקעה	-10.9809
▁להירגע	-10.9809
▁להתקין	-10.981
▁ואחת	-10.9811
חקירות	-10.9814
▁חזקות	-10.9814
▁נוסדה	-10.9814
▁לנשיאות	-10.9816
עכשיו	-10.9816
▁נעדר	-10.9816
▁להתקשר	-10.9818
חרדה	-10.9818
▁הנמל	-10.9819
▁קוראת	-10.9821
▁המרכיבים	-10.9825
עַ	-10.9826
▁דלתות	-10.9826
▁הקבוע	-10.9827
93	-10.983
ner	-10.9832
▁מטיל	-10.9832
עידת	-10.9833
כלכלה	-10.9834
▁נועדו	-10.9837
▁דיפלומטי	-10.9838
AL	-10.9838
מפעל	-10.9839
עניש	-10.9843
▁מהעולם	-10.9843
▁הקרובות	-10.9844
ina	-10.9844
אמנות	-10.9845
▁לארוחת	-10.9846
מערך	-10.9846
משפט	-10.9846
▁הסוכנות	-10.9848
ys	-10.985
▁מבי	-10.9851
▁הפעלת	-10.9855
▁תכונה	-10.9855
▁תשוקה	-10.9857
▁חשוד	-10.9858
▁ומאז	-10.9859
חבילה	-10.986
▁תוספי	-10.9861
▁שוטר	-10.9864
▁חסד	-10.9865
▁הופיעה	-10.9867
▁בוטל	-10.9867
▁מרכיבים	-10.9868
▁לוקחת	-10.9871
▁האזורים	-10.9876
פולין	-10.9879
ניהם	-10.9882
▁התפילה	-10.9882
מאלי	-10.9883
מזונות	-10.9884
▁במלון	-10.9885
רף	-10.9885
▁השמות	-10.9885
בייש	-10.9887
▁with	-10.9889
▁וכולם	-10.9889
▁מבחינתי	-10.9891
▁החיבור	-10.9891
▁התקפות	-10.9896
תיאום	-10.9897
אכיפת	-10.9897
▁ומנהל	-10.9898
▁להקדיש	-10.9898
▁המסחרי	-10.99
▁להסכים	-10.9902
tes	-10.9904
▁נעל	-10.9904
▁המתרחש	-10.9905
פעילות	-10.9906
▁אסטרטגי	-10.9908
▁איסוף	-10.9909
▁החשש	-10.991
▁ואשר	-10.9912
וניה	-10.9913
▁לנוח	-10.9914
▁בְּ	-10.9916
▁Star	-10.9916
גמול	-10.9918
▁העיקר	-10.9919
51	-10.992
ock	-10.9925
▁שיודע	-10.9925
▁Pe	-10.9928
ביטול	-10.9929
תפתח	-10.993
▁רומ	-10.993
בעיות	-10.9931
טייל	-10.9932
▁תוכנות	-10.9932
אקס	-10.9933
קונסול	-10.9934
hen	-10.9934
רוא	-10.9935
שמ	-10.994
▁כוחו	-10.9941
▁משקר	-10.9942
▁נסיבות	-10.9944
▁חפש	-10.9944
▁שאומרים	-10.9946
▁אנושיים	-10.9947
▁ציד	-10.9947
פרופסור	-10.9948
התקדמות	-10.9948
TA	-10.9948
▁ערבית	-10.9949
▁ציבוריים	-10.9953
▁בילדים	-10.9954
▁לדין	-10.9956
▁עבדו	-10.9957
רופאים	-10.9957
▁שיוכלו	-10.9962
מיטב	-10.9965
מעורבות	-10.9965
▁מוזיקלי	-10.9971
▁מישהי	-10.9972
▁1994	-10.9973
▁זיכרונות	-10.9973
▁התברר	-10.9974
▁מקביל	-10.9975
▁תישאר	-10.9975
תייצב	-10.9976
▁הבריטים	-10.9976
▁וכעת	-10.9976
▁עיניו	-10.9976
▁הדיבור	-10.9977
▁בתשלום	-10.9978
▁נרצח	-10.9979
▁במיטה	-10.9981
ריאן	-10.9982
בתוך	-10.9984
הנאה	-10.9984
▁ירח	-10.9984
▁טופס	-10.9985
▁קירות	-10.9986
so	-10.9988
אלית	-10.9989
▁הדמוקרטי	-10.9996
▁ההיא	-10.9997
▁שעושים	-10.9998
▁תושב	-10.9999
▁כשזה	-11.0002
▁מפות	-11.0002
▁כלכלה	-11.0005
▁עשור	-11.0007
▁לסיום	-11.0007
▁ושתי	-11.0007
▁בברלין	-11.0008
▁פשוטים	-11.0016
▁הדוח	-11.0019
▁עושר	-11.0021
נוף	-11.0023
ix	-11.0024
פצו	-11.0027
MP	-11.0031
▁75	-11.0032
▁התחלנו	-11.0033
▁קץ	-11.004
▁המסמכים	-11.004
עונות	-11.0041
▁חשיפה	-11.0041
▁מקומ	-11.0042
ביטוח	-11.0042
▁גופים	-11.0045
מנסים	-11.0046
▁ריקוד	-11.0047
TV	-11.0048
▁משק	-11.0048
▁רוט	-11.0049
דיס	-11.005
▁השופטים	-11.005
דפוס	-11.005
שווי	-11.0052
▁II	-11.0053
▁תצליח	-11.0055
▁התביעה	-11.0055
מוג	-11.0055
▁התחתונה	-11.0056
▁1944	-11.0056
▁יומיומי	-11.0056
▁1948	-11.0057
▁כאבים	-11.0057
▁הקטנות	-11.0057
▁לרפא	-11.0059
▁רגש	-11.0061
▁קצין	-11.0062
▁בהקדם	-11.0063
תמיכה	-11.0064
חרדים	-11.0065
אלימות	-11.0066
▁משיג	-11.0067
▁המתאר	-11.0067
▁הריבית	-11.0068
▁המשקל	-11.0069
▁להתפלל	-11.0069
▁שכדאי	-11.007
▁ברכה	-11.0071
CE	-11.0071
מועמד	-11.0073
▁בגובה	-11.0075
▁עזבו	-11.0075
▁שגריר	-11.0076
▁הפרש	-11.0076
ֹר	-11.0078
פאר	-11.0079
▁ברשימת	-11.0081
▁אקס	-11.0084
▁ותיק	-11.0084
טלי	-11.0085
▁קלות	-11.0086
חוויה	-11.0087
▁בהודעה	-11.0088
חשיבות	-11.0089
▁שנותר	-11.0089
▁בנקודה	-11.0091
▁עול	-11.0091
ברור	-11.0091
▁האגו	-11.0092
נשמה	-11.0092
▁אמצע	-11.0093
שכן	-11.0094
אטי	-11.0095
▁בשבילכם	-11.0095
▁לוס	-11.0095
du	-11.0097
▁מסתכלים	-11.0097
▁טבעת	-11.0098
▁לתחום	-11.0098
▁מסתורי	-11.0099
יותר	-11.01
איסט	-11.01
za	-11.0102
▁תחומים	-11.0105
the	-11.0107
סיס	-11.0108
▁הקרן	-11.0108
▁לצייר	-11.0109
▁פיקוח	-11.011
טום	-11.0112
▁רוע	-11.0112
▁משטרה	-11.0114
ימון	-11.0115
\	-11.0116
הנה	-11.0117
▁בחזית	-11.0118
חידוש	-11.0121
מיעוט	-11.0122
▁הביקורת	-11.0122
▁משרות	-11.0122
תזונה	-11.0123
▁שזאת	-11.0126
אפריקה	-11.0128
▁נוש	-11.013
▁by	-11.0133
▁קמפיין	-11.0133
▁הדיגיטלי	-11.0133
התמודדות	-11.0134
▁אימה	-11.0134
קדמת	-11.0135
▁בפולין	-11.0136
עיצוב	-11.0136
03	-11.0138
▁חמשת	-11.0138
▁מתגעגע	-11.0139
מקסימום	-11.0139
▁תרומת	-11.0139
▁מטופל	-11.014
▁איומים	-11.014
ser	-11.0142
▁הנפלא	-11.0143
אולפן	-11.0143
–19	-11.0144
▁וכבר	-11.0145
▁חיוך	-11.0145
▁להבהיר	-11.0146
▁בעייתי	-11.0148
iz	-11.0149
נתנה	-11.0151
▁מטריד	-11.0153
▁המאפיינ	-11.0154
▁בציבור	-11.0155
צלו	-11.0156
פעילויות	-11.0157
טריד	-11.0157
▁מביט	-11.0158
▁ארי	-11.0161
▁המספק	-11.0162
▁להטיל	-11.0163
▁פער	-11.0165
▁תמונת	-11.0166
Pr	-11.0168
▁האזרחי	-11.017
ting	-11.0172
▁האמין	-11.0175
▁ומר	-11.0175
▁תוצר	-11.0175
▁הדרישות	-11.0177
אורח	-11.0178
▁בזמנו	-11.018
▁לדבריה	-11.0181
שֶׁ	-11.0181
▁מקומיות	-11.0183
▁התייחסות	-11.0185
החל	-11.0185
אירוע	-11.0185
צץ	-11.0185
▁חודשיים	-11.0185
▁פוליטיקה	-11.0186
ניקה	-11.0186
▁הלוואות	-11.0186
▁שותפות	-11.0186
נף	-11.0187
אולם	-11.0188
▁עריכה	-11.019
יצירה	-11.0191
out	-11.0191
וקם	-11.0191
נגן	-11.0192
בדל	-11.0192
ישוע	-11.0192
▁עתידי	-11.0194
חמאס	-11.0196
▁חרב	-11.0196
שחור	-11.0197
91	-11.0198
▁השליח	-11.0199
▁עסוק	-11.02
דיבור	-11.0204
▁המסורתי	-11.0204
קוק	-11.0205
▁כותבים	-11.0205
▁בחצר	-11.0205
▁ההליך	-11.0206
▁כשנ	-11.0206
▁במכונית	-11.0208
טיפוס	-11.0209
▁לייצור	-11.021
tter	-11.0212
למות	-11.0215
▁נשמת	-11.0217
▁פד	-11.0218
תברר	-11.0218
▁ויז	-11.0219
▁העסקית	-11.022
▁קם	-11.022
אנרגיות	-11.0221
צעצוע	-11.0221
▁38	-11.0222
▁נדל	-11.0223
▁האפיפיור	-11.0223
▁ביעילות	-11.0224
▁המהירות	-11.0224
▁החלב	-11.0224
הרפתקה	-11.0224
▁ניתנה	-11.0225
בסיס	-11.0225
▁וישראל	-11.0225
ובים	-11.0225
▁Car	-11.0225
סיקה	-11.0226
▁לכסות	-11.0226
▁בייחוד	-11.0226
▁חתונה	-11.0226
▁מצליחה	-11.0227
▁נעימה	-11.0227
SD	-11.0227
▁התכונות	-11.0227
חגיגה	-11.0229
▁יצטרך	-11.0229
ney	-11.023
שורש	-11.023
▁הרחוק	-11.0231
▁ליפול	-11.0231
▁ידיד	-11.0231
▁מרחוק	-11.0232
ליה	-11.0233
חינוך	-11.0234
▁מכס	-11.0234
▁שאהב	-11.0236
ראלי	-11.024
נני	-11.024
▁תעשו	-11.0241
▁כיבוש	-11.0244
מחסור	-11.0245
▁ההפעלה	-11.0245
▁סיל	-11.0248
▁הטי	-11.025
▁האיטלקי	-11.025
▁שעובר	-11.0252
דגים	-11.0254
▁מתקיים	-11.0254
▁האסלאם	-11.0256
▁העונש	-11.0258
▁השכלה	-11.026
▁בנים	-11.0263
הבטחות	-11.0263
OR	-11.0264
הארץ	-11.0265
▁מונט	-11.0267
▁משוב	-11.0268
מוצרים	-11.0269
▁בחמש	-11.0269
▁לשר	-11.027
▁לאיש	-11.0271
מנית	-11.0272
▁בעיתון	-11.0272
ans	-11.0275
▁בביצוע	-11.0275
▁להסכם	-11.0275
▁לעומק	-11.0276
שכונת	-11.0276
יניה	-11.028
▁be	-11.0282
▁שכלל	-11.0283
▁סקי	-11.0287
תופעה	-11.0288
תכונות	-11.0289
טלפונים	-11.029
בדיקות	-11.0291
דמעות	-11.0292
▁לתמיכה	-11.0292
חלוק	-11.0292
קודם	-11.0294
53	-11.0296
▁גג	-11.0297
▁שכך	-11.0297
▁היתרון	-11.0298
▁הבדלים	-11.0299
▁מפחדים	-11.03
▁המשאבים	-11.03
ריפוי	-11.0301
▁המאמן	-11.0302
יחסי	-11.0303
השפעת	-11.0306
התנחלויות	-11.0307
▁מסובך	-11.0309
חנויות	-11.0309
▁העצבים	-11.0312
▁מורשת	-11.0312
▁יופיע	-11.0313
▁מועבר	-11.0315
▁פונה	-11.0316
▁משתמשת	-11.0316
▁המכוניות	-11.0321
תלמיד	-11.0325
▁יכלה	-11.0326
ננה	-11.0326
▁בקצה	-11.0328
▁משפר	-11.0328
▁הפופולרי	-11.0328
▁דבש	-11.0329
▁עוצמת	-11.0329
▁עקבי	-11.033
▁רגשי	-11.033
פעולות	-11.0331
▁נועדה	-11.0331
▁מגיש	-11.0333
▁תרצו	-11.0334
▁בלה	-11.0335
▁מורכבים	-11.0338
שיש	-11.0338
▁התג	-11.0338
איידס	-11.0339
ושע	-11.034
▁בושה	-11.0341
▁שחוו	-11.0342
▁הרדיו	-11.0343
ren	-11.0344
תקיפות	-11.0345
▁האסטרטגי	-11.0347
▁כפולה	-11.0348
▁הוג	-11.0349
ical	-11.035
מלה	-11.035
▁קליני	-11.035
▁לטוס	-11.0351
▁מימי	-11.0353
▁בחברות	-11.0354
▁מישראל	-11.0354
▁בונה	-11.0358
▁ליעד	-11.0361
מועד	-11.0361
▁שעברו	-11.0363
▁עזרת	-11.0364
▁ברומא	-11.0365
חיה	-11.0367
מכור	-11.0369
▁חדרי	-11.0369
▁לירושלים	-11.0369
נסון	-11.037
▁בתכנית	-11.0372
▁התקווה	-11.0372
▁וכאן	-11.0375
▁טכנית	-11.0375
▁תקופות	-11.0376
▁לרגל	-11.038
▁טום	-11.0381
שיער	-11.0383
פרסום	-11.0384
▁מטוסי	-11.0385
▁חזרתי	-11.0386
▁נוגד	-11.0387
במשך	-11.0393
▁לצלם	-11.0393
סטורי	-11.0394
▁לגיטימי	-11.0395
▁הלמידה	-11.0395
▁Life	-11.0395
DA	-11.0396
▁לזרוק	-11.0396
▁ההוראה	-11.0396
▁מאוחד	-11.0396
▁שמעו	-11.0397
▁המטפל	-11.0397
▁לסביבה	-11.0397
▁שמתי	-11.0397
ld	-11.0397
מנזר	-11.0398
תוצר	-11.0398
▁מתקדמת	-11.0399
red	-11.04
▁דירוג	-11.04
▁בבר	-11.04
▁במדבר	-11.0402
▁הבטן	-11.0402
מתמחה	-11.0407
▁להשתלט	-11.0409
טקסט	-11.0409
▁רז	-11.0411
טף	-11.0413
מגדל	-11.0413
▁ושימוש	-11.0415
▁יוגה	-11.0416
▁מיעוט	-11.0418
▁המניע	-11.0419
▁ראויים	-11.042
-2008	-11.0421
▁המפקד	-11.0422
▁שעשית	-11.0425
▁באלוהים	-11.0427
▁זהירות	-11.0427
ריבונ	-11.0427
שכח	-11.0428
▁סטיב	-11.043
▁בצל	-11.0431
▁הגשת	-11.0432
▁השוטרים	-11.0432
▁חיוניים	-11.0437
▁לבעל	-11.0437
▁הנאה	-11.0441
▁צבאיים	-11.0445
▁מפשע	-11.0447
▁עיכוב	-11.0448
▁השתתפו	-11.045
▁העברית	-11.0452
▁סלע	-11.0453
רבים	-11.0453
▁ובא	-11.0453
▁מנהלת	-11.0454
▁יצור	-11.0455
▁כותרת	-11.0455
▁משפיעים	-11.0458
פסל	-11.046
זירה	-11.0461
זרי	-11.0463
דווח	-11.0464
עישון	-11.0464
▁משלוש	-11.0464
כעס	-11.0466
▁האדריכל	-11.0468
▁מצלמות	-11.047
▁נוף	-11.047
-27	-11.047
▁השג	-11.047
וקים	-11.0472
▁ציפורים	-11.0472
▁לארגן	-11.0473
▁גרמה	-11.0475
פיכת	-11.0475
fa	-11.0477
מפקד	-11.0478
מעבר	-11.0478
▁אופטימי	-11.0479
▁פתאומי	-11.0482
▁מבולבל	-11.0482
▁1991	-11.0483
▁היכולות	-11.0483
▁לרקוד	-11.0483
פציעה	-11.0485
ושים	-11.0486
▁הישנה	-11.0486
הרצאה	-11.0487
▁מסמל	-11.0487
▁תורת	-11.0487
יטו	-11.0487
▁הסכנה	-11.0487
▁ענן	-11.0488
▁בסביבת	-11.0488
▁מוצדק	-11.0488
▁מושל	-11.0488
▁אדי	-11.0489
▁נראתה	-11.0489
▁תוהה	-11.049
תכניות	-11.0491
▁להמתין	-11.0491
▁קריאת	-11.0493
▁הממלכה	-11.0493
סיט	-11.0496
דירות	-11.0496
▁עותקים	-11.0501
▁במוצר	-11.0502
▁Ne	-11.0503
▁העיקריות	-11.0505
▁פאלון	-11.0506
▁International	-11.0506
זכיר	-11.0507
▁ניקול	-11.0511
▁נאמן	-11.0511
▁דעתך	-11.0512
▁(2)	-11.0512
▁יליד	-11.0513
ערת	-11.0514
▁מחלוקת	-11.0515
▁והנ	-11.0518
▁תדאג	-11.0519
▁ויעיל	-11.052
▁כשאנו	-11.052
▁האידיאלי	-11.0521
פאלון	-11.0522
שמיע	-11.0526
קצר	-11.053
▁ביקום	-11.053
▁שוט	-11.0532
▁בטרור	-11.0532
▁On	-11.0533
כתר	-11.0538
▁ארוחה	-11.0538
▁שואלת	-11.0541
▁חיילי	-11.0543
אזרח	-11.0546
▁המוסד	-11.0548
אוניברסיטאות	-11.055
תקרב	-11.0552
▁מוותר	-11.0552
▁בעיראק	-11.0552
שבי	-11.0553
הוצאות	-11.0553
▁Day	-11.0554
סמכות	-11.0555
מנסה	-11.0557
עסוק	-11.0558
▁הניצחון	-11.0561
▁מתכת	-11.0564
▁המוסלמי	-11.0565
ect	-11.0565
דני	-11.0566
אלפי	-11.0566
▁רץ	-11.0567
▁משאבי	-11.0567
ניצול	-11.0568
▁מחוברים	-11.0569
‭	-11.057
▁דמוקרטית	-11.057
▁חיצוניים	-11.057
▁הכתבה	-11.0573
מורכב	-11.0573
▁בוודאות	-11.0576
▁לצוות	-11.0576
▁צנוע	-11.0578
▁50%	-11.0579
חשבון	-11.0581
▁האסטרטגיה	-11.0582
▁קאר	-11.0582
▁האחת	-11.0583
▁תרגול	-11.0583
פלטפורמ	-11.0584
▁תכלית	-11.0584
▁תסתכל	-11.0585
גורל	-11.0585
▁ירגיש	-11.0587
▁עישון	-11.059
▁הסכימו	-11.059
▁הגנת	-11.0591
▁נכלל	-11.0592
-2015	-11.0593
▁לעד	-11.0594
▁שידור	-11.0594
▁החנות	-11.0595
▁מכניס	-11.0595
מרחב	-11.0596
בורא	-11.0601
כנסת	-11.061
▁הפעיל	-11.0612
▁יצורים	-11.0613
סוכר	-11.0613
צריכה	-11.0613
▁מכסה	-11.0615
עין	-11.0615
ערכו	-11.062
ish	-11.0622
▁הקוד	-11.0623
דלק	-11.0623
מחשבות	-11.0624
▁Pre	-11.0624
▁הצעדים	-11.0625
ועדת	-11.0626
▁שחשב	-11.0626
▁זרות	-11.0626
▁התנגד	-11.0629
▁הדמוקרטית	-11.0629
▁מהפכה	-11.063
מאס	-11.063
▁ביקשו	-11.063
SI	-11.063
con	-11.0632
▁מסור	-11.0633
▁המומחים	-11.0634
▁ולמרות	-11.0634
▁מזהה	-11.0635
▁אדמת	-11.0636
המשך	-11.0637
כימיה	-11.0638
su	-11.0638
מחיש	-11.0638
▁לדווח	-11.0639
אביב	-11.064
משקל	-11.064
EA	-11.064
נשטיין	-11.064
הזדמנות	-11.0641
▁תבוא	-11.0645
▁37	-11.0646
ריאל	-11.0647
CT	-11.0648
▁שכיח	-11.0649
▁יועץ	-11.0649
▁המשת	-11.065
ונסון	-11.065
▁היחידים	-11.0651
▁רגליים	-11.0652
▁Of	-11.0652
▁st	-11.0653
▁לקשר	-11.0654
▁ערכו	-11.0655
בוצע	-11.0656
▁התאבדות	-11.0656
▁55	-11.0657
▁דייוויד	-11.0658
▁קיומו	-11.066
קדוש	-11.066
▁לרשום	-11.0661
▁צועק	-11.0661
▁להתכונן	-11.0662
▁יוביל	-11.0663
▁עוסקים	-11.0664
▁התיישב	-11.0665
▁שוחח	-11.0667
▁סדיר	-11.0667
▁התחתון	-11.0667
▁להתחתן	-11.0668
▁הנשי	-11.067
▁תנ	-11.0672
▁אירופי	-11.0672
▁אימונים	-11.0676
cu	-11.0676
▁השקר	-11.0677
גורי	-11.0679
mon	-11.068
▁הערכת	-11.0683
▁מיקרוסופט	-11.0685
עשייה	-11.0685
▁רוס	-11.0685
▁קרובה	-11.0687
▁הביע	-11.0688
▁הכרטיס	-11.0688
מוצא	-11.0689
▁למכירה	-11.0691
מטיילים	-11.0694
▁בבנק	-11.0697
▁לכוח	-11.0697
▁נולדו	-11.0697
▁הבשר	-11.0699
-31	-11.07
▁ממדינות	-11.0701
▁לחתום	-11.0702
▁הסוס	-11.0703
▁מתברר	-11.0705
▁Inc	-11.0705
-26	-11.0707
▁המחוז	-11.0707
▁הראייה	-11.0707
▁פברואר	-11.0709
רואים	-11.071
▁אבטחת	-11.0712
▁המהוו	-11.0712
מרות	-11.0714
רור	-11.0714
▁הימנע	-11.0716
▁זאב	-11.0717
רכה	-11.0717
▁נפשית	-11.0719
▁בלוג	-11.0721
שתלט	-11.0723
פטו	-11.0724
▁נוצרי	-11.0725
▁ההשקעות	-11.0727
▁ראית	-11.0729
סחור	-11.073
▁באדם	-11.0732
▁לשינויים	-11.0732
AD	-11.0734
▁סיגריות	-11.0734
סלח	-11.0736
▁בתרבות	-11.0736
▁שמקור	-11.0737
משתמשים	-11.0738
▁אוקראינה	-11.0741
גבלת	-11.0743
חלומות	-11.0744
▁סרטי	-11.0747
▁אליזבת	-11.0748
▁תענוג	-11.0748
▁השורה	-11.0748
▁מאפיינים	-11.0748
▁במחצית	-11.0748
▁Next	-11.0748
▁תעודת	-11.0748
▁לאיבוד	-11.0748
No	-11.0749
▁הנדרשים	-11.0749
▁בממשלה	-11.0749
▁ww	-11.075
▁לדחות	-11.0751
▁ההערכה	-11.0751
מכונה	-11.0751
▁עשירה	-11.0753
▁גיליתי	-11.0753
▁יסודות	-11.0754
▁קצה	-11.0756
נקודות	-11.0757
▁להתלונן	-11.0759
▁שליליות	-11.0759
רגליים	-11.0759
▁הקורא	-11.076
LA	-11.0761
▁מרשים	-11.0762
▁למקומות	-11.0764
rt	-11.0764
▁מתוכם	-11.0765
▁קילו	-11.0765
▁הרים	-11.0766
my	-11.0767
▁לחופש	-11.0768
▁תשכחו	-11.0769
▁להעמיד	-11.0769
▁חבריו	-11.0769
▁המשק	-11.0771
▁בסמוך	-11.0772
nc	-11.0774
▁ספיר	-11.0774
▁ריקה	-11.0775
ינית	-11.0777
▁תחשוב	-11.0777
סור	-11.0778
אנשי	-11.0782
▁הפחות	-11.0783
▁מער	-11.0785
רגו	-11.0785
פריז	-11.0788
עצמי	-11.0788
התחייבויות	-11.0789
▁נובל	-11.0789
▁הקומוניסטית	-11.0793
MI	-11.0793
▁קורבן	-11.0794
▁מטפל	-11.0795
fo	-11.0795
▁הורד	-11.0797
מבוגרים	-11.0798
▁לבטא	-11.0798
▁לבניית	-11.08
▁נדירות	-11.0801
▁המאמצים	-11.0803
אגר	-11.0803
▁הדרומית	-11.0804
▁ההשלכות	-11.0805
▁התפיסה	-11.0805
▁תקף	-11.0806
▁המסמך	-11.0807
▁מייצרים	-11.0809
▁הרוע	-11.081
▁המועמדים	-11.0814
ya	-11.0816
הורות	-11.0817
▁העיירה	-11.0819
▁מוטיבציה	-11.0819
iss	-11.082
TE	-11.0822
מהדורה	-11.0825
▁בחיינו	-11.0825
קנים	-11.0826
▁המאמץ	-11.0826
▁יורש	-11.0827
▁לחימה	-11.083
אך	-11.0831
▁נוהגים	-11.0835
▁להמשך	-11.0836
טלוויזיה	-11.0836
▁להירשם	-11.0838
פקיסטן	-11.0838
[7]	-11.0838
▁מסוכנים	-11.0838
▁Hotel	-11.0838
▁הלטינית	-11.0838
▁וארבע	-11.0839
▁באתי	-11.0839
▁מניע	-11.0839
מכת	-11.084
▁אוספים	-11.084
▁הפלילי	-11.084
▁1945	-11.084
▁שרשרת	-11.0841
▁האופנה	-11.0842
ספור	-11.0842
▁הכותב	-11.0843
▁וחזר	-11.0844
מינג	-11.0844
▁העיקרון	-11.0844
▁להפיץ	-11.0849
דברי	-11.0849
ds	-11.0851
▁אוכלוסייה	-11.0852
מפלגה	-11.0853
▁להודיע	-11.0854
מבצר	-11.0854
▁תרגיש	-11.0856
.5%	-11.0859
▁בכוחות	-11.0859
▁נחזור	-11.0859
▁ואיפה	-11.086
דבקות	-11.0863
▁הכספי	-11.0863
גיוס	-11.0863
▁מוכרת	-11.0864
▁פוטנציאליים	-11.0865
מטבע	-11.0866
-28	-11.0867
▁מייק	-11.0867
▁בכדור	-11.0869
מומחה	-11.0871
▁ישפיע	-11.0871
▁ועובד	-11.0871
▁ככלל	-11.0873
אוכלוסייה	-11.0873
▁במטבח	-11.0875
▁משרדי	-11.0875
▁שייכים	-11.0876
▁שיוצר	-11.0876
▁עבדה	-11.0876
▁לאלו	-11.0877
▁בטענה	-11.0878
▁מאותו	-11.088
▁סיכ	-11.0881
▁בסיום	-11.0882
▁לוחות	-11.0884
ברא	-11.0885
ris	-11.0885
ord	-11.0886
▁לבזבז	-11.0886
▁ותרבות	-11.0887
חצו	-11.0889
▁להוות	-11.089
▁הממשלתי	-11.0891
▁קלים	-11.0891
▁מפסיד	-11.0893
▁נצח	-11.0897
56	-11.0898
▁עט	-11.0898
▁שימור	-11.0899
▁האסלאמית	-11.09
▁3:	-11.0901
▁מאיר	-11.0903
▁התחום	-11.0904
▁אצבע	-11.0905
▁נמלט	-11.0906
▁הטיל	-11.0907
מינרל	-11.0908
▁בירת	-11.0908
▁הסגנון	-11.0909
▁ניידים	-11.091
בראשית	-11.0913
▁העצמית	-11.0914
▁Dis	-11.0914
end	-11.0915
▁נוסח	-11.0916
כדור	-11.0917
▁מכפי	-11.0918
▁עסקאות	-11.0923
▁מחנה	-11.0924
שמיד	-11.0927
▁האיום	-11.0927
▁מצוות	-11.0928
אפריקאי	-11.0928
4,000	-11.0929
▁הוסיפה	-11.0929
▁האף	-11.0929
כיוונ	-11.0929
▁ביניהן	-11.093
▁פוחד	-11.093
תנועת	-11.0931
▁אחסון	-11.0932
▁מאליו	-11.0932
▁ומלא	-11.0932
-2010	-11.0933
▁חלופי	-11.0934
▁פושע	-11.0935
▁ויאמר	-11.0935
▁באנרגיה	-11.0938
▁אליהן	-11.0941
נבא	-11.0941
סטיות	-11.0944
▁תקדים	-11.0944
▁לסיפור	-11.0944
סיף	-11.0945
▁אונס	-11.0945
▁המגדל	-11.0946
וואן	-11.0947
תמונה	-11.0947
▁הצגת	-11.0949
▁שעובד	-11.0949
▁נשארת	-11.0952
▁מצפון	-11.0956
▁המיני	-11.0957
▁Gu	-11.0959
מולדת	-11.0961
האמת	-11.0962
▁מצאה	-11.0963
▁ביצירת	-11.0963
▁חילופי	-11.0965
▁מכילה	-11.0966
▁לבר	-11.0967
▁צמוד	-11.0968
▁מיוצר	-11.0969
▁It	-11.0969
חופים	-11.0969
▁הסימנים	-11.097
▁מתרגל	-11.0971
פרסמה	-11.0972
▁Is	-11.0973
ידוע	-11.0974
Ma	-11.0975
התנגדות	-11.0977
▁אבר	-11.0978
חיסול	-11.0978
מלחמת	-11.0979
▁מוצלחת	-11.098
הפצת	-11.0983
▁לוק	-11.0983
▁לשטח	-11.0985
קרנות	-11.0985
▁ההגדרה	-11.0986
▁אוזני	-11.0987
תקשורת	-11.0987
EC	-11.0989
▁נטל	-11.099
▁החמישית	-11.099
▁גמר	-11.0991
▁החיה	-11.0992
תעשייה	-11.0992
טרופי	-11.0993
-29	-11.0993
▁מחזיקים	-11.0994
▁מהנה	-11.0995
▁בתוקף	-11.0996
▁דיברתי	-11.0998
▁הכרת	-11.0998
▁האמון	-11.0998
תעלם	-11.0999
גלות	-11.1
▁המדבר	-11.1002
חשיב	-11.1002
▁החוזה	-11.1003
▁בקנדה	-11.1004
▁כריסטי	-11.1005
▁הסינים	-11.1006
gr	-11.1007
סטנדרט	-11.1007
במהלך	-11.1008
זנים	-11.101
▁בילי	-11.1011
קף	-11.1011
▁תשכח	-11.1012
▁לזו	-11.1013
▁בעיצוב	-11.1014
▁מדור	-11.1014
▁me	-11.1017
אולוג	-11.1017
תומכים	-11.1017
▁הימין	-11.1018
▁ולב	-11.1018
100	-11.102
▁מבחוץ	-11.1021
▁לפועל	-11.1021
▁תאמינו	-11.1021
▁ניסתה	-11.1022
▁נחשבים	-11.1025
הימור	-11.1025
▁קודמים	-11.1029
▁העובר	-11.1029
▁החום	-11.1031
▁תקיפה	-11.1031
▁מהסוג	-11.1032
▁שגיל	-11.1034
▁היסודות	-11.1035
▁מציגה	-11.1036
▁להתערב	-11.1039
התנדב	-11.1039
תכלית	-11.104
▁ולשמור	-11.1041
▁מסוכנת	-11.1041
▁לאמת	-11.1045
▁הרגשי	-11.1046
▁גלגל	-11.1051
▁בגד	-11.1052
▁האלוהי	-11.1052
▁היין	-11.1056
▁בשמו	-11.1056
▁הקצב	-11.1059
▁אוטובוס	-11.1059
ple	-11.1059
▁החקלאות	-11.106
▁לאנשי	-11.1062
▁מחזק	-11.1063
▁מינים	-11.1063
ade	-11.1065
▁וחברת	-11.1073
▁אשם	-11.1073
▁MBA	-11.1074
▁וגו	-11.1074
שיתוף	-11.1074
gu	-11.1075
זוג	-11.1078
▁המקומיות	-11.1079
▁אינטרס	-11.1079
מדינות	-11.108
אנר	-11.1082
▁ציפור	-11.1084
▁חמישים	-11.1086
▁הממ	-11.1087
▁הראוי	-11.1088
▁האומות	-11.109
-2013	-11.1091
דליק	-11.1091
כולל	-11.1091
▁תפיסה	-11.1092
סוריה	-11.1093
▁לעיני	-11.1095
סכנת	-11.1095
נדון	-11.1096
▁ראשו	-11.1096
▁המטופלים	-11.1097
מלון	-11.1098
▁היהדות	-11.1098
מנגנון	-11.11
יישר	-11.1101
עיתונים	-11.1103
התחל	-11.1104
▁בתשובה	-11.1106
▁בשיר	-11.1108
▁הציוד	-11.1109
@	-11.1113
▁אינסופי	-11.1113
▁היומיום	-11.1114
▁התופעה	-11.1114
▁אפר	-11.1115
▁תצטרכו	-11.1116
איטליה	-11.1116
▁אקראי	-11.1116
▁לשחזר	-11.1117
תחושת	-11.1118
▁di	-11.1118
▁המנהיגים	-11.1119
▁הטורקי	-11.1121
▁אדומים	-11.1121
▁אשת	-11.1122
▁לקט	-11.1122
▁כמויות	-11.1123
הגדרות	-11.1123
▁הנבחרים	-11.1124
▁האט	-11.1125
▁קשורות	-11.1126
▁מדעית	-11.1126
▁יסייע	-11.1128
תרגול	-11.1129
▁מפעם	-11.113
▁שאפילו	-11.1131
ריסה	-11.1132
▁העברה	-11.1132
▁גמישות	-11.1133
▁שתש	-11.1134
▁הסכים	-11.1137
▁\	-11.1138
▁במחלוקת	-11.1138
▁הימי	-11.1141
▁המערכות	-11.1142
▁המודיעין	-11.1143
▁שרירים	-11.1143
חמישים	-11.1146
תודעה	-11.1146
סטין	-11.1146
התנהגות	-11.1148
▁נאס	-11.115
▁לשלטון	-11.115
air	-11.1152
▁חולק	-11.1152
טח	-11.1156
▁הכישורים	-11.1156
▁בוגרים	-11.1157
אנד	-11.1157
▁המדיני	-11.1158
▁Post	-11.1159
נפגע	-11.116
tin	-11.116
▁יישומים	-11.1162
מוט	-11.1163
▁(2	-11.1163
▁שהצ	-11.1163
מרק	-11.1173
גדה	-11.1175
▁הזמר	-11.1176
▁סגר	-11.1176
הדבר	-11.1177
סטיק	-11.1182
▁בורח	-11.1185
טין	-11.1185
▁הביו	-11.1187
▁נפגשים	-11.1188
▁שקשה	-11.1189
אילו	-11.119
▁המדובר	-11.1192
התפתחות	-11.1193
ib	-11.1193
▁Ri	-11.1194
ספורט	-11.1195
הישרדות	-11.1195
▁ושאל	-11.1197
זמין	-11.1198
▁65	-11.12
דיכוי	-11.12
כותרות	-11.1202
▁הפרעה	-11.1203
יהאד	-11.1203
מניות	-11.1204
▁בכמות	-11.1204
▁מופעל	-11.1205
_	-11.1206
אטה	-11.1206
▁Business	-11.1206
▁נעשתה	-11.1206
▁שממנ	-11.1207
▁להאשים	-11.1207
▁מרהיב	-11.1208
▁אכילה	-11.1208
▁הצעירה	-11.1209
▁הקריאה	-11.1209
▁הוגש	-11.1209
▁העירוני	-11.121
מחלקת	-11.121
▁בשיחה	-11.121
שליטה	-11.121
הונגרי	-11.1211
▁והאחר	-11.1211
▁בבניין	-11.1211
▁למסור	-11.1213
פצצ	-11.1213
▁העתק	-11.1213
משקיעים	-11.1215
▁בכסף	-11.1215
▁נותרה	-11.1216
▁להדגיש	-11.1217
▁תאר	-11.1217
▁החלקים	-11.122
▁שנא	-11.1221
▁לכי	-11.1221
מזל	-11.1224
▁איבר	-11.1225
אלף	-11.1225
▁מטבח	-11.1226
▁שאותו	-11.1226
▁רגישות	-11.1227
▁מודעת	-11.1229
▁Ta	-11.1232
▁עבודתם	-11.1232
▁ירדן	-11.1232
עצמו	-11.1232
▁בגבול	-11.1233
▁תלויים	-11.1234
סוגיות	-11.1235
▁שנדרש	-11.1237
▁באמצעים	-11.1237
מקל	-11.1239
קשור	-11.1242
▁הקוראים	-11.1242
▁למים	-11.1243
בלט	-11.1243
טש	-11.1244
קיום	-11.1245
▁היבט	-11.1245
▁שאיננו	-11.1246
ציוד	-11.1248
▁הצליל	-11.1251
▁נאות	-11.1253
אבו	-11.1254
▁תקרא	-11.1254
▁התשוקה	-11.1254
▁התרגיל	-11.1257
▁שיני	-11.1257
מַ	-11.1258
▁מכילים	-11.1259
▁הבסיסית	-11.1259
מאן	-11.126
בסוף	-11.1263
▁שעתיים	-11.1264
▁מתואר	-11.1266
▁פרוייקט	-11.1267
▁למנהיג	-11.1268
▁מוגבר	-11.1268
אסט	-11.1271
▁לנזק	-11.1271
▁מארבע	-11.1274
▁סקירה	-11.1274
▁סנד	-11.1275
▁זרם	-11.1277
▁האבולוציה	-11.1279
לוב	-11.128
▁עיתון	-11.128
▁הגדרת	-11.1283
יקס	-11.1284
קוראים	-11.1287
▁שידע	-11.1287
.[1]	-11.1288
אירופה	-11.129
▁מארי	-11.1292
▁לשלוש	-11.1293
שימו	-11.1294
יעוץ	-11.1294
▁רצינו	-11.1296
▁קצ	-11.1296
▁ובית	-11.1298
▁צרפתית	-11.1299
▁חמה	-11.13
▁לסין	-11.1301
▁שביקש	-11.1302
▁סייבר	-11.1303
▁הזמנה	-11.1304
▁אֲ	-11.1304
סטו	-11.1305
▁רוכש	-11.1305
ספורטאים	-11.1305
▁שהתקבל	-11.1306
צחוק	-11.1307
פרע	-11.1308
▁תרבותית	-11.1309
▁בנמל	-11.1309
▁יוזמ	-11.131
ok	-11.131
▁1000	-11.131
▁היחידי	-11.1313
▁הצרכנים	-11.1315
תפילה	-11.1319
▁20%	-11.1319
▁יעילים	-11.1321
תאריכים	-11.1321
מתנה	-11.1321
▁קבור	-11.1321
▁תזכור	-11.1322
ונל	-11.1323
מתקפות	-11.1328
▁הקט	-11.1331
▁המיטה	-11.1333
▁גלגלים	-11.134
▁להקת	-11.1341
עזור	-11.1342
▁כותבת	-11.1342
▁במסעדה	-11.1343
▁שאסור	-11.1343
▁מאוהב	-11.1345
▁המציא	-11.1345
▁סרטון	-11.1347
פופ	-11.1349
▁כדורסל	-11.135
-300	-11.1354
אפשרויות	-11.1354
▁שופטים	-11.1356
▁Or	-11.1356
ברית	-11.1356
▁ואפשר	-11.1357
▁מדרום	-11.1357
▁k	-11.1357
▁שיעורים	-11.1359
שעות	-11.136
▁מיטב	-11.1363
▁בדוק	-11.1364
▁רות	-11.1368
46	-11.1368
▁לאירופה	-11.1369
▁משקיע	-11.137
▁הרוסים	-11.137
יצירות	-11.1372
IV	-11.1374
▁l	-11.1374
▁הכנת	-11.1376
▁למשפחת	-11.1378
▁עוזרת	-11.1382
▁ליטר	-11.1382
תרבויות	-11.1385
רוע	-11.1386
▁באפשרות	-11.139
▁באולם	-11.1391
▁משתפ	-11.1392
מאפייני	-11.1392
תגובות	-11.1393
מראה	-11.1395
הופעה	-11.1396
קריטריונים	-11.1396
▁נמוכות	-11.1396
[6]	-11.1396
אקטיב	-11.1396
▁	-11.1398
▁מאובטח	-11.1398
▁́	-11.1399
▁אמונת	-11.14
ies	-11.14
▁מפורש	-11.1402
▁דוב	-11.1402
▁מצווה	-11.1403
מוסלמים	-11.1403
▁מובטח	-11.1404
▁נמאס	-11.1404
משימות	-11.1404
▁לעובדה	-11.1407
▁הקטע	-11.1407
סיבוב	-11.1408
ממוצע	-11.141
נטיות	-11.141
▁תרצה	-11.141
▁מהעבודה	-11.1411
▁וירוס	-11.1411
▁אינדי	-11.1412
▁ושירותים	-11.1413
▁מדווח	-11.1413
▁מיכאל	-11.1417
יעזרו	-11.1417
▁מטרתו	-11.1417
מכונית	-11.1419
ככה	-11.142
ֵר	-11.1422
▁תצ	-11.1424
ins	-11.1425
▁הסר	-11.1425
תלבש	-11.1425
▁הרעב	-11.1427
גרמני	-11.1428
אחת	-11.1428
▁(18	-11.1429
▁הרשע	-11.1431
▁ושאר	-11.1431
ירושלים	-11.1432
UN	-11.1439
מעמד	-11.144
אינטרנט	-11.1441
▁שחורים	-11.1443
רדיפה	-11.1444
▁צייר	-11.1446
▁הפשוט	-11.1448
▁הנשימה	-11.145
▁בסרטן	-11.1451
▁אמצעים	-11.1453
▁x	-11.1455
▁מושך	-11.1457
▁pro	-11.1457
▁מכוון	-11.1457
▁העיתונות	-11.146
▁החור	-11.146
▁המעצר	-11.1464
0%	-11.1465
▁הבנים	-11.1465
▁מתוח	-11.1466
▁דונלד	-11.1467
▁שגורמ	-11.1468
▁בשורה	-11.1469
▁ונש	-11.1476
ny	-11.1479
כרות	-11.1479
▁חמוד	-11.1481
▁מזיקים	-11.1482
▁שעובדים	-11.1483
קטורים	-11.1483
▁הסיר	-11.1483
קורא	-11.1483
▁הפתעה	-11.1484
▁כשא	-11.1484
חנות	-11.1486
▁חלונות	-11.1488
▁מדהימים	-11.1492
▁החשוד	-11.1492
סוחר	-11.1493
▁מגזין	-11.1493
▁דאפא	-11.1494
▁למשטרה	-11.1494
▁הזקן	-11.1494
▁לשפוט	-11.1495
תחזיות	-11.1495
בדיקת	-11.1496
▁להתאמן	-11.1496
▁בדיוני	-11.1496
▁וביקש	-11.1497
▁שהש	-11.1498
▁לגן	-11.1498
הצעה	-11.1498
▁דיר	-11.1499
▁השמיני	-11.1499
▁וצריך	-11.1499
בנת	-11.1499
שגשג	-11.15
▁זעיר	-11.1502
תוספת	-11.1502
▁נגיע	-11.1503
לשון	-11.1503
▁בתמונות	-11.1504
כבה	-11.1504
tel	-11.1505
▁ידידי	-11.1507
▁לפעולה	-11.1507
▁האווירה	-11.1507
▁להשתחרר	-11.1508
אוניברסיטה	-11.1509
▁וחברי	-11.1509
▁ברכות	-11.1509
מפלגת	-11.151
▁הגדה	-11.1512
▁הכלא	-11.1514
▁בשינוי	-11.1515
▁ריפוי	-11.1515
סינגפור	-11.1516
ath	-11.1516
▁הנוצרים	-11.1517
▁מפיק	-11.1521
▁במשא	-11.1522
התפרצות	-11.1525
קומדיה	-11.1525
תושב	-11.1526
▁אנונימי	-11.1528
בוקר	-11.153
▁בקריירה	-11.1531
מייל	-11.1534
שבט	-11.1535
▁מהגרים	-11.1536
▁חיסון	-11.1537
ייזר	-11.1539
▁בנקים	-11.1539
▁הצהרת	-11.154
▁מצאנו	-11.1541
▁הפולני	-11.1542
טינה	-11.1542
▁ושב	-11.1544
תלבט	-11.1544
las	-11.1548
מאוד	-11.1549
▁מביאה	-11.1551
▁עיקרי	-11.1551
▁דוא	-11.1551
רעב	-11.1554
▁יהודיים	-11.1557
▁האצ	-11.1557
קובצי	-11.1558
▁מצלמה	-11.156
▁הצפונית	-11.156
▁מוגבלות	-11.1561
▁למאבק	-11.1563
שוחח	-11.1565
▁העצים	-11.1566
▁שמספר	-11.1567
▁ייצוג	-11.1568
מוביל	-11.1569
▁במסלול	-11.1569
▁דיברנו	-11.1569
▁הגן	-11.1571
TS	-11.1572
טיח	-11.1572
▁דואג	-11.1573
▁גדלים	-11.1573
▁הכוכב	-11.1573
▁הצבעים	-11.1575
▁הפעלה	-11.1576
▁לצרכים	-11.1576
▁שחרר	-11.1577
▁מכבי	-11.1577
אחי	-11.1577
600	-11.1577
▁דעתי	-11.1577
▁ניקוי	-11.1577
▁תביעות	-11.1578
▁בואי	-11.1579
SE	-11.1579
קנדה	-11.158
קהילת	-11.1583
▁בבעיות	-11.1585
▁הבכורה	-11.1586
tle	-11.1586
▁החשובה	-11.1587
לבן	-11.1587
▁מרוכז	-11.1589
▁פחמן	-11.1589
כישלון	-11.1589
ארנב	-11.159
▁ישוב	-11.159
▁שפועל	-11.159
▁וכתוצאה	-11.1591
▁ומצא	-11.1591
אסף	-11.1592
▁ללימודים	-11.1592
חשוף	-11.1592
▁הליגה	-11.1594
▁רעיל	-11.1595
▁מחברת	-11.1595
▁הפיל	-11.1596
▁פרעה	-11.1596
▁תיעוד	-11.1596
דומים	-11.1598
▁נחשף	-11.1598
ult	-11.16
קופסה	-11.1601
גרד	-11.1601
▁נעצרו	-11.1602
ko	-11.1603
▁להשמיד	-11.1603
▁הדרכה	-11.1604
ניצחון	-11.1606
קשיים	-11.1607
▁המכס	-11.1609
▁נגזר	-11.161
▁הנובע	-11.161
▁תובע	-11.161
▁סמך	-11.1611
▁הדוד	-11.1611
▁נמשכת	-11.1611
▁שעד	-11.1611
▁ווי	-11.1612
▁נפצע	-11.1612
קאר	-11.1612
▁דמעות	-11.1613
▁נפרדים	-11.1614
▁עניינים	-11.1615
חיפוש	-11.1615
ברט	-11.1615
אגו	-11.1615
▁תעלה	-11.1617
▁שגרתי	-11.1618
▁ארצי	-11.1618
▁כור	-11.1619
תעשיות	-11.162
נשו	-11.1622
האשמות	-11.1623
העדפות	-11.1625
▁ההכנסה	-11.1625
▁לשחרור	-11.1625
▁מועמדות	-11.1626
▁הבלוג	-11.1627
▁הספרייה	-11.1628
▁האוסטרלי	-11.163
▁אורן	-11.1632
▁ההגירה	-11.1632
▁ציפיות	-11.1635
▁ישראליים	-11.1636
▁הפוליטיים	-11.1638
▁המסעדה	-11.1638
▁יעבור	-11.164
▁חוויית	-11.164
▁למחנה	-11.1642
▁מלמדים	-11.1643
▁מנות	-11.1643
התנהלות	-11.1644
▁הסבל	-11.1645
▁לעו	-11.1647
▁שעוד	-11.1647
for	-11.1647
▁נערכו	-11.1648
▁פליט	-11.1648
In	-11.1649
רידים	-11.165
▁מגביר	-11.165
tu	-11.165
▁מתנדבים	-11.1651
▁תרמ	-11.1651
אוסף	-11.1653
▁לוחמים	-11.1653
▁מופר	-11.1654
▁העמוד	-11.1655
▁התגורר	-11.1657
▁הביצועים	-11.1662
▁למבוגרים	-11.1663
▁טון	-11.1663
▁מגבלות	-11.1663
▁Bu	-11.1664
פקיד	-11.1664
▁יאמר	-11.1664
▁המחזור	-11.1664
▁הנפשי	-11.1664
▁בניסוי	-11.1665
▁רחוקות	-11.1672
▁עמיד	-11.1673
▁הבטחת	-11.1677
▁חורף	-11.1679
▁מתמקד	-11.1679
▁מתחילת	-11.1681
▁o	-11.1681
▁פוליטיקאים	-11.1682
חרב	-11.1682
מסלול	-11.1684
קפו	-11.1686
old	-11.1686
▁תקר	-11.1686
▁ההולדת	-11.1687
▁ההצבעה	-11.1687
עיין	-11.1687
▁השיפוט	-11.1688
▁ירקות	-11.1688
▁האמריקנים	-11.1688
▁נלהב	-11.1689
▁השידור	-11.1689
▁להימלט	-11.1691
מאגר	-11.1692
▁הזכיר	-11.1692
▁נצטרך	-11.1693
תאוריה	-11.1694
▁האביב	-11.1697
▁מלוא	-11.1698
▁בפוליטיקה	-11.1698
▁Dr	-11.1699
▁הנהלת	-11.1701
הזדהות	-11.1702
▁קובי	-11.1702
▁שקיבלו	-11.1702
תסכול	-11.1702
▁הביטחוני	-11.1702
▁בביקור	-11.1702
pt	-11.1703
▁יגדל	-11.1704
תחושה	-11.1704
טיפים	-11.1705
▁לתהליך	-11.1705
▁העקרונות	-11.1707
org	-11.1707
▁מפלגה	-11.1707
▁שקיים	-11.1708
▁לקפוץ	-11.1708
▁לסרטן	-11.1709
▁לטובה	-11.1709
▁פגיע	-11.1709
▁זוכים	-11.171
▁תקין	-11.1712
▁גופי	-11.1713
▁קבלה	-11.1714
▁תדע	-11.1714
▁המנצח	-11.1714
מאסטר	-11.1715
▁במטוס	-11.1716
▁הגשם	-11.1718
▁דע	-11.1718
▁רון	-11.1721
▁ראיתם	-11.1721
נגיף	-11.1722
רזי	-11.1723
▁האשה	-11.1724
מייצר	-11.1727
▁הכנה	-11.1728
▁עדין	-11.1729
▁Tra	-11.173
▁גזר	-11.1731
▁יישארו	-11.1732
▁חמורות	-11.1732
▁מציב	-11.1735
אומץ	-11.1738
▁המעשי	-11.1743
▁42	-11.1743
sta	-11.1744
▁בהווה	-11.1744
▁באוטובוס	-11.1745
באר	-11.1747
▁מכוונת	-11.175
▁הלחימה	-11.1754
▁בוש	-11.1755
ישיבות	-11.1757
▁האבן	-11.1757
אוסטרליה	-11.1758
▁בשירותים	-11.1759
▁הרקע	-11.176
כתיב	-11.1765
▁And	-11.1765
▁מהיום	-11.1767
ah	-11.1772
▁נצחי	-11.1774
▁התגובות	-11.1778
ליס	-11.1779
▁ה־	-11.1782
▁ממי	-11.1783
פילד	-11.1783
▁שלמד	-11.1785
▁בכלכלה	-11.1786
▁הצביע	-11.1786
▁אוטונומי	-11.1786
▁הקיום	-11.1786
▁ברציפות	-11.1786
▁פטנט	-11.1786
▁השתנתה	-11.1787
▁ראיון	-11.1788
▁ואילך	-11.1788
si	-11.1789
▁שחושב	-11.1789
▁מיתוס	-11.1789
▁ישיבה	-11.1789
▁לפרטים	-11.179
▁מקיף	-11.1791
▁ההתקדמות	-11.1791
תקרית	-11.1792
▁בכנות	-11.1793
עצמאות	-11.1793
▁מתגורר	-11.1793
נחישות	-11.1795
▁שנעשו	-11.1796
▁הונג	-11.1796
Re	-11.1798
התקפות	-11.1798
PR	-11.18
▁הסיכונים	-11.1801
חובר	-11.1803
▁שיוכל	-11.1803
▁מאושרת	-11.1805
חזרו	-11.1807
פונים	-11.1808
▁אטרקטיבי	-11.1808
▁חידוש	-11.1812
row	-11.1812
▁פרח	-11.1814
▁מוריד	-11.1814
▁בגדי	-11.1817
▁ובעולם	-11.1818
▁לשבוע	-11.1819
▁המציע	-11.182
▁נרגש	-11.182
דחף	-11.1822
אימא	-11.1824
שילוב	-11.1827
▁חולקים	-11.1827
▁לתינוק	-11.1829
▁תקנות	-11.183
וויכוח	-11.183
▁המזרחית	-11.1831
▁קהילתי	-11.1831
▁המובילות	-11.1833
▁מבוצע	-11.1836
▁ולהי	-11.1836
▁הרוצח	-11.1839
אמו	-11.1839
לפחות	-11.1842
▁לאתגר	-11.1842
▁לציון	-11.1843
פרטי	-11.1843
▁מחמד	-11.1847
▁למוזיקה	-11.1849
מקדש	-11.1849
▁בספרי	-11.185
מסור	-11.185
▁השלמת	-11.1851
▁ששני	-11.1851
▁רווחים	-11.1852
▁הקדמי	-11.1852
מאבק	-11.1853
▁לשוחח	-11.1855
▁התקיים	-11.1856
משאבים	-11.1856
▁בשאר	-11.1857
▁בתיק	-11.1858
▁לתקשורת	-11.186
▁בשכונה	-11.1861
▁הוצג	-11.1861
גוונים	-11.1862
פלסטיני	-11.1862
מוסר	-11.1863
▁נטייה	-11.1865
▁שטחים	-11.1866
▁אייר	-11.1868
▁מבוססות	-11.1872
▁הזרוע	-11.1872
גיבור	-11.1873
▁התמחות	-11.1874
▁הדיווח	-11.1875
▁העי	-11.1875
▁זכוכית	-11.1875
▁תלונות	-11.1878
אסטרטגי	-11.1878
▁עדויות	-11.1878
▁החיוני	-11.1879
▁החירות	-11.1879
שורת	-11.188
קנאביס	-11.1881
▁הפסיד	-11.1881
פלסטין	-11.1883
▁רוכב	-11.1885
בושה	-11.1885
במקרה	-11.1885
▁תשלומים	-11.1886
▁ללחוץ	-11.1887
▁מבודד	-11.1887
▁היומיומי	-11.1887
▁המבקש	-11.1888
שבר	-11.1888
▁אכילת	-11.1888
נינג	-11.1892
wa	-11.1893
▁חלה	-11.1893
▁השתלט	-11.1894
▁פוליטיות	-11.1894
קופסא	-11.1894
▁לכדי	-11.1894
תאונת	-11.1897
▁פגשתי	-11.1902
▁קולט	-11.1903
▁שורות	-11.1905
▁פרנ	-11.1907
▁מקרב	-11.1908
▁עמנו	-11.191
שגרירות	-11.1913
בריא	-11.1913
▁אירע	-11.1913
[[	-11.1914
אומנות	-11.1915
פתע	-11.1915
▁שליח	-11.1917
אמריקאים	-11.1917
תושבים	-11.1919
זיז	-11.1921
▁מפורסם	-11.1921
▁נקיים	-11.1922
שנאה	-11.1922
▁פעילי	-11.1923
▁אוטובוסים	-11.1925
▁תוקפ	-11.1926
▁הפול	-11.1931
OL	-11.1931
▁נלחם	-11.1931
▁אחיד	-11.1932
▁עזרו	-11.1932
שיטה	-11.1932
הגיע	-11.1934
▁דרישה	-11.1939
▁אמזון	-11.1944
▁הקשרים	-11.1947
▁שייכת	-11.1948
▁יצירתיות	-11.1948
▁הדולר	-11.1948
רכים	-11.195
▁בהתאמה	-11.195
▁המדריך	-11.1951
▁מסעדה	-11.1951
▁שקרא	-11.1952
טהר	-11.1953
שדות	-11.1955
▁לדיון	-11.1955
▁משחרר	-11.1956
▁המשפטים	-11.1956
▁המחנה	-11.196
▁השותפים	-11.196
▁המינים	-11.1964
אימפרי	-11.1965
פנס	-11.1966
▁עליית	-11.1968
▁ורבים	-11.1968
▁ורוד	-11.197
▁אוסטריה	-11.1971
הכרזה	-11.1972
סתה	-11.1973
סתתר	-11.1974
▁כשב	-11.1974
להיות	-11.1974
▁השוואה	-11.1975
▁בטכנולוגיה	-11.1975
▁ירדו	-11.1976
▁קולג	-11.1976
▁סופרים	-11.1977
▁אגם	-11.1978
תלונן	-11.1979
▁בשטחים	-11.198
פיץ	-11.1982
▁Ph	-11.1983
מדיה	-11.1983
קצין	-11.1984
יישומים	-11.1985
קונצרט	-11.1987
▁קעקוע	-11.1987
▁Street	-11.1987
▁אינטימי	-11.1987
▁זמינה	-11.1987
▁מטורף	-11.1987
qui	-11.1987
▁הסמכות	-11.1987
פארק	-11.1988
▁הטמפרטורה	-11.1989
▁הדורות	-11.1989
▁Park	-11.1989
▁ופחות	-11.1989
שאלה	-11.199
ye	-11.199
▁המופיע	-11.199
▁לנשום	-11.1991
▁שכזו	-11.1993
▁סימ	-11.1994
▁האמן	-11.1995
▁בעין	-11.1995
▁כולכם	-11.1995
▁מתנצל	-11.1997
▁השורש	-11.1997
▁גרעינית	-11.1997
▁החברתיים	-11.1999
▁מתג	-11.2
▁להתחרות	-11.2004
line	-11.2005
▁ששמע	-11.2006
▁בנימין	-11.2007
זון	-11.2008
שלב	-11.2008
▁התרגום	-11.2009
▁משפחתה	-11.201
▁המלוכה	-11.201
▁שאחד	-11.2011
▁למדוד	-11.2012
▁להציב	-11.2012
▁מרכזיים	-11.2013
▁נשלחו	-11.2018
ביקורת	-11.2018
אווה	-11.2018
▁גמיש	-11.2018
▁למוצר	-11.2019
חום	-11.202
▁חמצן	-11.202
▁משלך	-11.202
▁עיקריים	-11.2022
מאמץ	-11.2023
▁הקדושה	-11.2024
▁שנפגע	-11.2025
תפוח	-11.2025
▁שחזר	-11.2025
▁לצבא	-11.2027
▁למקור	-11.2027
▁בזו	-11.2029
סניף	-11.2034
▁מנגנוני	-11.2035
▁שנשא	-11.2035
▁שכמעט	-11.2036
▁נוחה	-11.2036
▁שמטרת	-11.2037
▁מעז	-11.204
▁הנוכחות	-11.2041
▁מינימום	-11.2041
בוק	-11.2041
▁הברזל	-11.2041
▁טיפוסי	-11.2043
▁משכנע	-11.2047
תורגם	-11.2048
▁דיברו	-11.2049
ווסט	-11.2052
▁בתקווה	-11.2055
▁ההרים	-11.2055
▁בפעולה	-11.2061
▁הדדית	-11.2063
▁מושפע	-11.2069
▁מתבקש	-11.207
ציץ	-11.207
▁שריר	-11.2071
▁וידע	-11.2073
▁מיליונים	-11.2074
▁הזמנת	-11.2076
▁לעין	-11.2082
הכרה	-11.2083
▁הסמל	-11.2084
שכונה	-11.2084
▁בגילאי	-11.2084
▁עמל	-11.2086
חפצים	-11.2086
▁לשטוף	-11.2089
▁להיפך	-11.2089
▁מזמינים	-11.209
▁עומק	-11.2091
▁מבחר	-11.2091
▁הראיות	-11.2091
▁מועט	-11.2096
▁המתגורר	-11.2096
פגוש	-11.2099
זמר	-11.2099
▁זוהר	-11.21
טראמפ	-11.21
NA	-11.2106
▁כפתור	-11.2107
▁אליס	-11.2107
dy	-11.2108
▁Can	-11.2109
▁החטא	-11.211
בדוק	-11.2112
▁בצי	-11.2112
▁המשפטית	-11.2113
▁בשווי	-11.2115
פלט	-11.2121
▁שהחברה	-11.2123
בשל	-11.2123
תקציב	-11.2126
▁סיים	-11.2127
▁תלמד	-11.2127
▁החשובות	-11.2129
נזק	-11.213
▁עלייך	-11.213
▁ללקוח	-11.2133
כאן	-11.2138
▁קיבלנו	-11.2139
סטטיסטיקה	-11.2143
▁הארוחה	-11.2144
וירוס	-11.2145
▁מוקדש	-11.2146
-2012	-11.2146
▁השדה	-11.2147
▁בעיניי	-11.2147
▁סיפורי	-11.215
▁לכבוש	-11.2152
▁בזמנים	-11.2154
▁קהילת	-11.2156
▁היבשת	-11.2157
▁המהירה	-11.2158
▁גופני	-11.2158
▁לשירותים	-11.2159
פזר	-11.2159
▁מאש	-11.2159
▁(3	-11.216
▁מודיע	-11.2161
▁החייל	-11.2162
▁בחג	-11.2163
▁מרע	-11.2164
וּב	-11.2164
פתור	-11.2164
▁מדיטציה	-11.2165
▁תופסים	-11.2166
▁הנחש	-11.2166
▁החלון	-11.2168
CA	-11.2168
נלי	-11.217
ארוחות	-11.2171
▁לקר	-11.2171
▁מנועי	-11.2171
פלטפורמות	-11.2174
▁אמרנו	-11.2175
▁הקבר	-11.218
ou	-11.218
▁לטבע	-11.2181
▁באביב	-11.2182
▁המפה	-11.2182
▁במעמד	-11.2182
▁זמר	-11.2183
מפתח	-11.2183
דלקת	-11.2183
▁המחר	-11.2185
▁והדבר	-11.2187
מינהל	-11.2188
▁בצדק	-11.2189
זיכרונות	-11.219
יושב	-11.2191
®	-11.2192
▁זמינות	-11.2192
▁תחשבו	-11.2193
קולוניאלי	-11.2193
זמנת	-11.2193
▁המעט	-11.2193
▁לחזות	-11.2194
▁מגדיל	-11.2194
▁לטוב	-11.2195
▁יתרה	-11.2196
▁גרמו	-11.2198
▁נעשים	-11.2198
▁mo	-11.2199
ev	-11.2204
▁הדירות	-11.2204
▁המפרץ	-11.2204
חוף	-11.2204
▁אזרחית	-11.2205
▁1)	-11.2205
▁תפיסת	-11.2207
בטחון	-11.2208
▁39	-11.2208
▁טכנולוגית	-11.2209
▁וטיפול	-11.2212
▁בספק	-11.2213
ופץ	-11.2213
▁בחום	-11.2215
▁תבחר	-11.2217
▁יצרו	-11.2219
▁בראשות	-11.2219
▁שותה	-11.2221
▁בטחון	-11.2222
BA	-11.2222
▁להביט	-11.2223
▁בנט	-11.2223
▁מכוח	-11.2224
▁משמשת	-11.2225
נפילה	-11.2225
▁נשבר	-11.2226
▁הובילו	-11.2228
▁המנוח	-11.2229
▁מעשית	-11.2231
מיל	-11.2231
▁סטטיסטי	-11.2232
▁הקורבן	-11.2233
גרף	-11.2233
▁שבדרך	-11.2234
הצעת	-11.2237
▁השחורה	-11.2237
▁יכל	-11.224
חשבונות	-11.224
▁האופניים	-11.224
▁זוגי	-11.2241
קיפה	-11.2242
▁הנוחות	-11.2243
▁פרא	-11.2245
▁לאיזה	-11.2246
▁וקי	-11.2247
▁וחוסר	-11.2248
מוכר	-11.2249
▁התיאוריה	-11.2249
▁שיום	-11.225
▁האופרה	-11.2251
סמי	-11.2253
▁הצביעו	-11.2253
▁קטגוריה	-11.2253
▁הטייס	-11.2254
▁באיחוד	-11.2263
מרחק	-11.2264
▁מותק	-11.2265
שכל	-11.2265
▁at	-11.2266
וגן	-11.2267
▁ביקשה	-11.2269
▁רכישה	-11.2269
▁הצבעה	-11.227
עובר	-11.227
קטין	-11.2272
▁גירושין	-11.2273
▁מוצאת	-11.2275
▁שירת	-11.2275
▁פיצוי	-11.2276
▁הגדרות	-11.2276
▁הנכסים	-11.2276
▁כאדם	-11.2278
▁עותק	-11.2279
▁הכלבים	-11.2281
צדדי	-11.2282
חמם	-11.2282
▁תמות	-11.2284
תנאי	-11.2286
▁לקבוצות	-11.2286
▁עבדתי	-11.2286
▁איבדו	-11.2286
▁לתחנת	-11.2287
▁בשיא	-11.2288
▁מחל	-11.2288
▁מכולם	-11.2288
הייתה	-11.2289
יסטית	-11.2291
▁לחברי	-11.2294
עקוב	-11.2296
המלצות	-11.2296
ֻ	-11.2297
▁Rights	-11.2297
▁Online	-11.2297
▁ארתור	-11.2297
▁תביעה	-11.2297
▁המהלך	-11.2297
אוהב	-11.2298
▁אפוא	-11.2298
▁מפואר	-11.2298
▁שלמים	-11.2298
ספרד	-11.2298
▁מבטיחים	-11.2299
▁גרים	-11.2299
▁חלוקת	-11.2299
▁הפילוסופיה	-11.23
מולקולות	-11.2301
▁אסד	-11.2301
▁האות	-11.2302
▁ראשונים	-11.2302
הולכים	-11.2303
ניסוי	-11.2304
נסיגה	-11.2305
הורמון	-11.2306
הזדקנות	-11.2306
▁קילומטר	-11.2307
שופר	-11.2307
▁מודלים	-11.231
סטודנטים	-11.2311
▁מתגלה	-11.2311
▁מלאכותי	-11.2311
▁להתבונן	-11.2313
ינגטון	-11.2313
מפרסמים	-11.2314
▁להתקרב	-11.2317
▁לבשל	-11.2317
▁האמצעים	-11.2319
נסיעה	-11.2319
▁מגרש	-11.232
▁להכנס	-11.2321
▁נקט	-11.2321
פליטים	-11.2323
מלאכה	-11.2325
▁בקי	-11.2325
▁כלא	-11.2327
▁בסיסיים	-11.2328
עריך	-11.2329
▁למדינת	-11.2331
תווכח	-11.2333
▁הפסטיבל	-11.2335
אדריכל	-11.2336
▁והשני	-11.2337
▁נכנסת	-11.2339
▁טלפונים	-11.234
tch	-11.234
▁יציבה	-11.2343
log	-11.2345
▁תאפשר	-11.2346
▁טוני	-11.2346
▁מזמין	-11.2348
שטיין	-11.235
▁מכתבים	-11.2352
▁שאחרים	-11.2353
▁סינית	-11.2354
▁במועד	-11.2355
בריח	-11.2355
מכונות	-11.2356
נהרות	-11.2357
▁Pi	-11.2357
▁נטול	-11.2357
▁כנסת	-11.2357
▁ליווי	-11.236
חזית	-11.2362
ביצה	-11.2365
▁קבלו	-11.2366
נבה	-11.2366
▁בשער	-11.2366
▁יווני	-11.2366
▁העלאת	-11.2367
▁לאותה	-11.2369
▁הגור	-11.237
▁ויצא	-11.2372
▁בידו	-11.2375
▁דינמי	-11.2376
▁בלוס	-11.2379
▁עודף	-11.2379
השמדה	-11.2384
▁האבוד	-11.2384
▁השיא	-11.2384
מאמין	-11.2385
שתף	-11.2385
שקר	-11.2386
▁החמור	-11.2386
▁הגדרה	-11.2386
▁מסד	-11.2387
רחק	-11.239
BC	-11.239
נִי	-11.2391
ics	-11.2391
בינה	-11.2392
▁הקור	-11.2394
**	-11.2396
▁בחנויות	-11.2397
▁הגג	-11.2398
▁כפרי	-11.2398
▁מדיני	-11.24
▁תוקף	-11.2401
תערוכת	-11.2402
▁הצלחנו	-11.2402
▁תיירות	-11.2402
▁הידיעה	-11.2403
▁בקבוצת	-11.2403
▁1989	-11.2404
פיצוץ	-11.2405
▁גרה	-11.2405
▁הישנים	-11.2406
▁במגזר	-11.2406
▁המתקפה	-11.2406
▁ספינת	-11.2407
▁למשפחות	-11.2408
▁רוג	-11.2408
מחויב	-11.2411
▁ולהבין	-11.2412
▁חישוב	-11.2412
eo	-11.2412
▁גלובלי	-11.2413
▁שינתה	-11.2414
▁עסקיות	-11.2414
▁תקוע	-11.2414
תפיסות	-11.2416
▁מתחייב	-11.2417
▁ארצה	-11.2419
▁חפצים	-11.2419
משתתפים	-11.2419
ניט	-11.2421
▁טוענת	-11.2422
▁להתנהג	-11.2422
▁הכריזה	-11.2425
▁ושר	-11.2427
סיוע	-11.243
מיד	-11.243
ham	-11.2432
תוכניות	-11.2435
הליך	-11.2435
נקט	-11.2437
▁גרועה	-11.244
▁מאחרים	-11.244
▁לפרוש	-11.2442
▁היבטים	-11.2442
מקביל	-11.2442
▁המלח	-11.2442
אייר	-11.2443
שחקן	-11.2443
▁אדון	-11.2444
תעודה	-11.2444
▁כשלוש	-11.2444
▁הילדות	-11.2446
רנט	-11.2446
▁לעור	-11.2446
חרם	-11.2452
▁הסובלים	-11.2454
▁תהיי	-11.2456
▁פוטנציאלי	-11.2456
נוּ	-11.2458
פגישות	-11.2458
זרוע	-11.2458
▁הבוגרים	-11.2458
▁לכאב	-11.2459
נסח	-11.2459
▁שכש	-11.246
▁היעילות	-11.246
▁במגע	-11.2462
▁לדעתך	-11.2462
▁למשפט	-11.2466
▁התקבלה	-11.2469
ערוך	-11.2469
▁ומעולם	-11.2469
▁לחברים	-11.247
▁ערי	-11.247
▁העוצמה	-11.2471
ממדי	-11.2473
▁En	-11.2473
▁האופי	-11.2473
▁הספרדי	-11.2473
▁עבדים	-11.2474
פלס	-11.2475
▁Web	-11.2478
▁לשיתוף	-11.2479
ons	-11.2479
▁לשקר	-11.248
▁מפתחים	-11.248
▁תשאלו	-11.2481
▁הומור	-11.2482
▁נאסר	-11.2482
▁הקשים	-11.2483
▁2)	-11.2484
רגיז	-11.2487
צדדים	-11.2489
▁התרחשו	-11.2491
ki	-11.2491
▁נפגשו	-11.2493
עננים	-11.2493
▁מלאכותית	-11.2494
FDA	-11.2496
▁מטפלים	-11.2496
▁ששמ	-11.2496
▁אקדח	-11.2498
▁פצע	-11.25
▁אפשריים	-11.2501
▁המשקיעים	-11.2501
▁Act	-11.2501
▁הישיר	-11.2503
▁במפעל	-11.2503
▁ומיד	-11.2503
תסמיני	-11.2504
קיימת	-11.2506
▁250	-11.2508
רדף	-11.2508
▁מעמיד	-11.2508
▁בתולדות	-11.2508
▁כביכול	-11.2508
▁דיסני	-11.2508
▁מכוסה	-11.2508
▁נכנע	-11.2508
▁מובהק	-11.2509
▁אקלים	-11.2509
▁הגלובלי	-11.2509
▁לצמוח	-11.2509
▁השיעור	-11.251
חיזוק	-11.251
▁להימשך	-11.251
ייתכן	-11.251
▁במקצוע	-11.2511
▁מנוגד	-11.2512
▁1980	-11.2512
▁רוצות	-11.2512
ּר	-11.2513
▁←	-11.2513
למעלה	-11.2515
▁365	-11.2516
▁מסקנות	-11.2517
חימום	-11.2517
▁Fe	-11.252
קון	-11.2521
▁כשהיה	-11.2523
עושים	-11.2523
▁לאירועים	-11.2523
▁סטיבן	-11.2523
▁מרשם	-11.2524
▁Fu	-11.2525
▁אצבעות	-11.2526
מסמכים	-11.2528
▁פטי	-11.2528
▁ניכרת	-11.2529
▁הקהילות	-11.2529
▁שיאפשר	-11.253
▁באורח	-11.2532
▁הועבר	-11.2535
▁120	-11.2536
▁והפ	-11.2538
פיתוח	-11.254
▁ההכנסות	-11.2541
▁צרו	-11.2542
▁וויל	-11.2543
▁ספרדית	-11.2543
▁הדתות	-11.2545
▁שאליו	-11.2547
ארלס	-11.2547
▁יפו	-11.2549
▁כוונות	-11.255
▁תסמונת	-11.2551
▁רווחי	-11.2552
▁משח	-11.2553
▁לפה	-11.2554
▁וקרא	-11.2555
▁תקבלו	-11.2555
ספינות	-11.2555
▁יראו	-11.2558
LE	-11.2559
בייג	-11.2559
טקס	-11.256
▁נתתי	-11.256
▁השתתף	-11.2561
▁הקדושים	-11.2562
שוחרר	-11.2563
▁בער	-11.2565
▁בשלושה	-11.2565
▁צער	-11.2568
▁מתרחשים	-11.2569
▁המייסד	-11.257
סמינר	-11.257
▁יצרני	-11.2572
פּ	-11.2572
▁נדירים	-11.2572
▁דגם	-11.2573
▁לדרג	-11.2573
▁לנתח	-11.2574
▁בונים	-11.2577
התקפה	-11.2578
▁בילדות	-11.2579
▁השתנו	-11.2579
▁אוסר	-11.258
▁סוני	-11.258
▁האיגוד	-11.2586
תנגש	-11.2587
EP	-11.2587
▁שיקום	-11.2588
גזע	-11.2589
▁העז	-11.2591
▁העלו	-11.2592
ler	-11.2594
▁בשיטה	-11.2596
▁הבינלאומיים	-11.2598
הצלחה	-11.2601
▁הוועד	-11.2602
▁השילוב	-11.2603
רסק	-11.2603
תכנית	-11.2604
▁4:	-11.2605
▁מבטיחה	-11.2605
מוזיקה	-11.2606
▁האומץ	-11.2607
עלויות	-11.2609
▁והיית	-11.261
▁סטרואידים	-11.2616
▁הארוכה	-11.2616
▁תחושות	-11.2616
▁תקן	-11.2618
-2009	-11.2618
תמיכת	-11.2619
נבו	-11.2619
▁דחוף	-11.262
▁הפעילויות	-11.262
פיהם	-11.262
▁הוק	-11.262
NT	-11.2621
▁מתבייש	-11.2621
הפעלת	-11.2621
צרפתית	-11.2622
▁ממרכז	-11.2622
▁התחנה	-11.2623
▁להתבצע	-11.2623
▁להג	-11.2624
פשוט	-11.2625
▁מתפקד	-11.2626
קרקע	-11.2626
▁ציינו	-11.2627
▁אסטרטגית	-11.2628
▁נעלמה	-11.2628
צייר	-11.2628
בלעדי	-11.2628
▁הנעל	-11.2629
מלונות	-11.263
▁מודרניים	-11.2632
▁נדרשת	-11.2632
▁התפטר	-11.2633
יקר	-11.2635
▁וליצור	-11.2635
▁בליגה	-11.2636
cc	-11.2636
אוכלוסיה	-11.2637
▁הכימי	-11.2638
החלטה	-11.2641
נתח	-11.2641
▁ניהל	-11.2643
▁בינלאומיות	-11.2645
בנייה	-11.2645
מטופלים	-11.2651
צפיפות	-11.2652
▁שירה	-11.2653
חנן	-11.2654
▁הניח	-11.2654
▁עמה	-11.2655
-2011	-11.2656
מאמר	-11.2657
▁הטקס	-11.2658
▁בדרישות	-11.266
▁שיפוט	-11.2661
CH	-11.2663
▁הבוס	-11.267
▁דרכה	-11.2671
▁הרוחנית	-11.2674
התגלות	-11.2677
▁נאלצו	-11.268
▁הנאצית	-11.268
▁שגדל	-11.2681
▁ספציפית	-11.2682
▁משמעותיות	-11.2682
▁אומנות	-11.2682
ms	-11.2683
גלם	-11.2684
▁אינטלקטואלי	-11.2685
▁סוכן	-11.2685
▁קיסר	-11.2687
תאריך	-11.2688
▁תאונות	-11.2692
OP	-11.2692
▁הודה	-11.2692
מעל	-11.2695
רגז	-11.2696
תוקף	-11.2696
▁התערבות	-11.2697
פסוק	-11.2698
▁מגנ	-11.2703
▁המתוק	-11.2703
ננות	-11.2704
▁בהתפתחות	-11.2705
▁קפטן	-11.2707
▁יציאה	-11.271
יוצר	-11.271
בשו	-11.2711
▁לווי	-11.2712
▁וכמעט	-11.2713
▁לפרויקט	-11.2715
▁וחברות	-11.2716
פעולה	-11.2717
▁הפרת	-11.2717
▁משפחתית	-11.2717
▁העומדים	-11.2718
המטרה	-11.272
▁לפספס	-11.2722
▁מוסקבה	-11.2724
▁העניינים	-11.2725
▁משיח	-11.2725
זעם	-11.2725
▁תומאס	-11.2725
▁מרוחק	-11.2726
▁Word	-11.2726
▁ננסה	-11.2726
▁הזמינו	-11.2726
▁1986	-11.2727
▁במשק	-11.2727
▁בבטחה	-11.2728
▁שמאחורי	-11.2728
טכניקות	-11.2728
שקפות	-11.2728
▁קיומה	-11.2729
ַת	-11.273
▁העלילה	-11.273
▁ממלכת	-11.273
▁וכתב	-11.2731
ופף	-11.2732
▁האותיות	-11.2734
▁בכביש	-11.2736
▁להרגיע	-11.2737
קטע	-11.2737
▁רגישים	-11.2737
▁בזכויות	-11.2738
צטבר	-11.2738
▁600	-11.2739
רשימות	-11.2745
▁להפריד	-11.2745
▁לכדור	-11.2746
▁להאכיל	-11.2746
▁דיגיטלית	-11.2746
▁היסטוריים	-11.2746
▁אַ	-11.2747
ענן	-11.2747
מטרת	-11.2748
▁חדשנות	-11.2749
▁משכנתא	-11.275
▁מונית	-11.2754
▁לרע	-11.2754
▁צחוק	-11.2756
box	-11.2757
פיגוע	-11.2758
▁הרמה	-11.2759
עיראק	-11.2762
ביקור	-11.2762
כּ	-11.2763
▁מניעה	-11.2766
41	-11.2766
▁המרכזיים	-11.2767
▁צרכים	-11.2772
נבחר	-11.2774
כיסא	-11.2779
▁בענף	-11.278
▁יהפכו	-11.278
▁המקצועית	-11.278
בחנים	-11.2781
שטויות	-11.2782
▁שעת	-11.2783
מאמינים	-11.2783
▁גייס	-11.2784
▁פעלו	-11.2784
▁המפורסמת	-11.2785
▁הרסני	-11.2785
▁לממן	-11.2786
▁בעור	-11.2787
▁מהמקרים	-11.2787
▁חבילות	-11.2789
▁(3)	-11.2789
ָב	-11.2791
▁מחזיקה	-11.2792
▁הפלא	-11.2794
▁איטלקי	-11.2794
▁בעצמה	-11.2794
▁הצרפתים	-11.2795
גוון	-11.2799
▁המבנים	-11.2801
▁הגורל	-11.2803
▁סופית	-11.2805
▁התיקון	-11.2807
▁הריכוז	-11.2808
▁התגלו	-11.281
▁טיפוס	-11.281
הממשלה	-11.281
קאס	-11.2815
ָל	-11.282
שיבה	-11.2822
▁נפצעו	-11.2824
שבח	-11.2824
אטר	-11.2825
חשק	-11.2825
נוהג	-11.2825
וויד	-11.2826
▁גוש	-11.2827
▁יחידת	-11.2829
▁הצדקה	-11.283
▁כישורים	-11.283
שקיפות	-11.2831
▁שרון	-11.2832
▁לקרב	-11.2834
▁במפורש	-11.2834
▁ושומרון	-11.2834
▁קפדני	-11.2834
▁תכשיטים	-11.2835
EM	-11.2835
▁Mac	-11.2835
▁מסויים	-11.2835
מהנדס	-11.2836
▁הימורים	-11.2836
העובדה	-11.2837
▁חופ	-11.2837
Google	-11.2838
|	-11.2838
▁אובייקטיבי	-11.2838
▁הקודמות	-11.2839
אינטליגנציה	-11.2839
▁הקפד	-11.2839
▁התרבותי	-11.2839
▁בישול	-11.2839
מיליוני	-11.284
▁העשירים	-11.2841
▁מאחל	-11.2841
▁וגאס	-11.2842
▁שדבר	-11.2842
▁בצוות	-11.2843
low	-11.2843
▁רשום	-11.2847
▁מתרגלים	-11.2847
▁שנחשב	-11.2848
כבוש	-11.2848
התאוששות	-11.285
צטט	-11.285
▁המוצג	-11.2851
ger	-11.2851
▁עתיק	-11.2854
▁בראון	-11.2854
▁בביטחון	-11.2855
▁בגודלה	-11.2856
▁נסתר	-11.2857
ments	-11.2857
▁הטעות	-11.2857
▁השיבה	-11.286
ייסון	-11.286
כנסיות	-11.2863
▁נחוץ	-11.2864
▁תיאורטי	-11.2864
מטרות	-11.2865
▁רומן	-11.2865
▁לתרגם	-11.2866
▁הנוף	-11.2866
בדקו	-11.2866
ימין	-11.2866
יציבות	-11.2867
רענן	-11.2868
▁נפלאה	-11.2872
▁יהלומים	-11.2874
▁תפוח	-11.2874
▁הכרתי	-11.2874
▁וירטואלי	-11.2879
▁נסבל	-11.288
▁גיוס	-11.288
▁אקטיבי	-11.2883
▁שתת	-11.2884
▁נציגים	-11.2884
▁למשתמש	-11.2884
בואו	-11.2885
▁לשאר	-11.2886
עומק	-11.2887
▁כמדינה	-11.2889
▁לחלום	-11.2892
תמלא	-11.2894
▁El	-11.2896
▁יצאתי	-11.2896
▁אחותי	-11.2897
▁משקה	-11.2898
יהדות	-11.2898
▁צפייה	-11.2899
חוויות	-11.2899
שוואת	-11.29
למרות	-11.2901
ברכות	-11.2904
▁לנחש	-11.2904
גבש	-11.2904
▁הסרטון	-11.2906
▁לתלמיד	-11.2906
▁ומהיר	-11.2907
▁בחוסר	-11.2907
צמיד	-11.2907
איזון	-11.2908
▁מכני	-11.291
▁al	-11.2911
▁דרושים	-11.2912
▁בהיות	-11.2912
הסכם	-11.2912
יצא	-11.2913
רשויות	-11.2913
▁שונאים	-11.2917
תקני	-11.2917
טמן	-11.292
שותף	-11.2921
▁הפגיעה	-11.2921
▁החשמלי	-11.2922
▁הקיימת	-11.2924
▁רפואיות	-11.2925
חַ	-11.2926
▁הסלע	-11.2926
▁ומפ	-11.2926
▁צומח	-11.2928
סתירה	-11.2928
▁נשארה	-11.2929
▁משתדל	-11.293
חייל	-11.2934
טמפרטורות	-11.2934
▁המדענים	-11.2935
פיזי	-11.2937
▁נוסד	-11.2938
▁שרד	-11.2938
▁שעבד	-11.294
צלחות	-11.294
▁לעובד	-11.2941
הכרח	-11.2942
▁מעשר	-11.2943
▁מתקשה	-11.2943
▁As	-11.2945
אינסטינקט	-11.2945
▁ולעיתים	-11.2945
▁הוחלט	-11.2946
▁העצמאי	-11.2946
התחממות	-11.2946
▁בתוכנו	-11.2946
▁פוטין	-11.2947
▁דפים	-11.2947
▁הדתית	-11.2947
▁ההיבטים	-11.2947
▁מינימלי	-11.2948
ייאוש	-11.2948
קפיצה	-11.2949
[8]	-11.2949
▁כמוהו	-11.295
פסנתר	-11.295
▁אצ	-11.295
‘	-11.2951
פורטוגל	-11.2951
▁טיולים	-11.2951
עיקר	-11.2954
▁תהליכי	-11.2955
▁מניעת	-11.2958
▁ירצה	-11.2961
פיתוי	-11.2965
כוונה	-11.2966
▁אלוף	-11.2968
▁וראש	-11.2969
▁אוניברסיטאות	-11.297
ַד	-11.2971
car	-11.2972
▁Fa	-11.2974
גירסה	-11.2978
▁מתמקדים	-11.2978
den	-11.2978
▁מציגים	-11.2979
▁ממשלתי	-11.2981
▁נושאת	-11.2981
▁רשמיים	-11.2982
ark	-11.2983
▁הריח	-11.2986
▁חוקיים	-11.2986
▁בקליפורניה	-11.2986
ey	-11.2987
▁יוסי	-11.2987
▁הראשונית	-11.299
▁שכולל	-11.2992
▁אנדרו	-11.2993
צמיחה	-11.2993
▁למצרים	-11.2995
▁בשבועות	-11.2995
▁אליפות	-11.2996
▁הנותר	-11.2997
▁שהמדינה	-11.2999
IA	-11.3
▁במועדון	-11.3001
▁שחייה	-11.3002
▁ועבר	-11.3002
פרץ	-11.3004
▁לבנה	-11.3004
פינג	-11.3005
▁היווני	-11.3006
▁מוגן	-11.3008
כנראה	-11.3009
מדובר	-11.3009
▁התקפי	-11.3009
▁שכחתי	-11.3009
בילוי	-11.301
סגנון	-11.301
▁מגביל	-11.3011
▁חוו	-11.3011
סגור	-11.3013
▁יגידו	-11.3018
▁מריה	-11.3019
פגיעה	-11.3021
▁הקובץ	-11.3023
▁1.1	-11.3025
זנב	-11.3026
▁מציאותי	-11.3027
▁אגו	-11.3028
ָד	-11.3028
▁הרחבה	-11.3028
▁במדע	-11.3028
▁המדעית	-11.3029
▁רעיד	-11.303
▁קרול	-11.3031
▁המבחן	-11.3032
▁הגלגל	-11.3035
גבעות	-11.3035
▁מאפשרות	-11.3036
מעשי	-11.3036
▁מודאגים	-11.3037
▁כלכלת	-11.3037
תוכנה	-11.3039
-2016	-11.304
▁עוגיות	-11.3041
▁פסולת	-11.3042
▁מתבסס	-11.3042
▁מהדור	-11.3042
סיסי	-11.3043
▁גיר	-11.3044
▁בלוח	-11.3049
▁שחקני	-11.3052
▁לחברת	-11.3052
▁נישואי	-11.3052
▁קרני	-11.3054
▁ma	-11.3054
▁הסב	-11.3056
▁המאוחדת	-11.3058
▁תכופות	-11.3058
▁הנכונים	-11.3058
▁ההנחה	-11.3058
▁המכר	-11.3058
▁מוסמך	-11.3058
ישראלי	-11.3059
תעמולה	-11.3059
▁תזונתי	-11.3059
▁להפריע	-11.3059
חצה	-11.3059
▁הממצאים	-11.3059
▁מתחבר	-11.3059
▁1979	-11.306
▁מיהו	-11.306
▁לצרכי	-11.3061
▁היישום	-11.3061
▁למחלות	-11.3061
▁האסירים	-11.3061
▁מסתדר	-11.3062
2,000	-11.3065
▁באסיה	-11.3065
כובד	-11.3065
▁ויכוח	-11.3065
▁מקושר	-11.3065
▁התחייבות	-11.3068
▁שיכור	-11.3069
ראשון	-11.3071
▁הופעה	-11.3071
▁נרצחו	-11.3073
מרץ	-11.3073
▁המעי	-11.3075
▁תחליף	-11.3077
▁נשמח	-11.3077
▁ומספק	-11.3082
קואליציה	-11.3083
▁נואש	-11.3083
קדיש	-11.3083
▁הקשב	-11.3084
▁שאיבד	-11.3084
▁יפות	-11.3084
▁מעורבת	-11.3085
מחלוקות	-11.3085
▁הולדתו	-11.3087
▁התקף	-11.3087
▁נוקט	-11.3087
▁יעבוד	-11.3088
▁צדדים	-11.3089
rin	-11.309
▁ספציפיות	-11.3091
▁להגנת	-11.3092
1)	-11.3093
▁להריון	-11.3093
▁וחמש	-11.3096
היכן	-11.3096
רגיע	-11.3098
דגש	-11.31
▁גופו	-11.31
▁המגזר	-11.3103
מתנדבים	-11.3103
צרכים	-11.3104
▁קולומביה	-11.3105
▁שעכשיו	-11.3105
חוזה	-11.3107
chi	-11.3108
▁השיטות	-11.3109
בחינות	-11.3114
▁מהרה	-11.3116
▁לשיא	-11.3117
▁משפטיים	-11.3118
ניסיונות	-11.3119
▁(5	-11.3119
ליכה	-11.3121
השקעות	-11.3122
מסגרת	-11.3127
▁רוקד	-11.313
▁מוצע	-11.313
ther	-11.3132
חֲ	-11.3133
ביד	-11.3134
▁מנוהל	-11.3136
▁צרות	-11.3136
ריג	-11.3137
▁עניים	-11.3137
▁חותמ	-11.3137
▁סובלנות	-11.314
סתובב	-11.3141
CO	-11.3142
עיירה	-11.3142
▁צלם	-11.3143
▁הנישואים	-11.3145
הנחיות	-11.3146
▁פינה	-11.3146
▁נובעת	-11.3148
▁המעשה	-11.3149
▁קיוו	-11.3152
▁IT	-11.3152
מאמצי	-11.3154
▁מהמאה	-11.3154
▁נבנו	-11.3157
▁מהמקום	-11.3157
סתבר	-11.3159
▁נקראים	-11.3159
▁החלפת	-11.3159
▁האהובים	-11.316
gi	-11.3161
▁לגל	-11.3161
▁בשליטה	-11.3162
▁שאוהבים	-11.3164
▁הנבחר	-11.3165
▁פסיכו	-11.3166
▁חוששים	-11.3169
▁ומע	-11.317
▁המעסיק	-11.3171
▁נפוצות	-11.3171
▁שואפים	-11.3171
▁תעסוקה	-11.3172
▁אופנוע	-11.3172
▁שמרו	-11.3172
▁ההצגה	-11.3173
▁עבירות	-11.3174
▁לשל	-11.3176
▁להיזכר	-11.3177
▁ניח	-11.3177
▁במושב	-11.318
אוקראינה	-11.318
ירוק	-11.318
▁מוטב	-11.318
rn	-11.318
אימוץ	-11.3182
▁ממד	-11.3183
▁להמליץ	-11.3183
▁Air	-11.3183
ממשלות	-11.3184
▁ואהבה	-11.3184
▁התאמה	-11.3186
▁קודמות	-11.3186
▁בשבילו	-11.3186
▁ששימש	-11.3188
שתוק	-11.3189
▁להכריז	-11.319
▁עמם	-11.3191
▁כישרון	-11.3192
▁טעים	-11.3193
▁קנו	-11.3194
חירות	-11.3194
▁המינית	-11.3195
▁וחבר	-11.3196
-400	-11.3197
אבולוציה	-11.3198
▁נוראי	-11.3204
▁שחורה	-11.3205
▁ביקשתי	-11.3205
vid	-11.3206
קמפיין	-11.3206
מאד	-11.3207
רשע	-11.3208
▁הרגישו	-11.3208
▁התפר	-11.3209
▁מרגע	-11.3213
▁לעדכן	-11.3213
▁ההרגשה	-11.3214
ero	-11.3215
▁חסיד	-11.3215
נישואים	-11.3216
פורום	-11.3216
Pla	-11.3217
טאון	-11.322
אישיות	-11.3221
▁נכנסה	-11.3221
▁העלה	-11.3225
▁השחרור	-11.3226
סיכוי	-11.3233
ern	-11.3234
▁מפלגות	-11.3235
צליל	-11.3236
▁רג	-11.3238
ley	-11.3239
▁העוני	-11.324
▁וספר	-11.3241
▁רשאים	-11.3243
▁הקלאסי	-11.3244
מצה	-11.3245
▁וחיי	-11.3245
עשרות	-11.3247
▁לשון	-11.3249
▁הסודי	-11.3249
▁למדע	-11.325
▁עיסוק	-11.3256
▁בתוכניות	-11.3257
▁נסוג	-11.3259
ors	-11.326
▁המהות	-11.3263
▁ילדכם	-11.3263
חצר	-11.3264
▁הבינה	-11.3265
קידום	-11.3265
▁מגיעות	-11.3265
▁המכשירים	-11.3265
▁השכונה	-11.3267
▁הזמנות	-11.3267
▁ישויות	-11.3269
▁אצלו	-11.3269
▁כתובות	-11.3269
▁הגלובלית	-11.3269
הלכת	-11.3269
▁הערכות	-11.327
▁גלובלית	-11.327
300	-11.3271
רצינו	-11.3276
דגיש	-11.3279
▁אפור	-11.3283
▁הנייר	-11.3284
▁טופ	-11.3286
אמסטרדם	-11.3286
▁מפורסמים	-11.3286
▁וללמוד	-11.3286
▁ומעבר	-11.3287
▁לאנושות	-11.3288
▁התקיימה	-11.3288
▁בפגישה	-11.3288
▁בכניסה	-11.329
▁שנערכו	-11.3291
▁גירוש	-11.3291
▁עושות	-11.3292
▁ולשפר	-11.3292
tur	-11.3295
הוליווד	-11.3296
▁שגרם	-11.3297
▁מהצד	-11.3298
▁שנבנה	-11.3298
▁הכמות	-11.33
▁צפויות	-11.3302
▁מוז	-11.3303
▁אמהות	-11.3305
שליט	-11.3306
▁באורך	-11.3307
▁המושל	-11.3307
המשטרה	-11.3307
▁מחויב	-11.3308
נחש	-11.3311
פדרצי	-11.3315
▁קלט	-11.3315
פרסומים	-11.3316
▁הצילום	-11.3317
מתנחלים	-11.3319
▁ריבית	-11.3319
▁מקסים	-11.332
▁What	-11.332
▁תחזור	-11.3321
אמיתות	-11.3322
▁שפשוט	-11.3323
הזדמנויות	-11.3323
צורת	-11.3324
אגף	-11.3324
▁האינטרס	-11.3324
▁צבר	-11.3326
ריכוז	-11.3326
▁לנקודה	-11.3327
▁לרמות	-11.3328
להתחיל	-11.3329
חתימה	-11.3332
▁ששר	-11.3332
רסן	-11.3333
▁מסתיים	-11.3334
▁הגברת	-11.3341
▁אדירה	-11.3343
הפרעה	-11.3344
חיקוי	-11.3344
▁האדיר	-11.3346
וֹת	-11.3348
▁הבטיחות	-11.3348
▁גרסאות	-11.3349
תחתן	-11.3351
▁סיכום	-11.3354
▁ענו	-11.3356
▁הדמיון	-11.3356
ana	-11.336
▁משימת	-11.336
▁האימון	-11.3362
עמיתי	-11.3363
ַח	-11.3363
סיכון	-11.3364
▁בתנועה	-11.3365
▁השומן	-11.3366
▁המכללה	-11.3367
▁מאזור	-11.3368
▁ענף	-11.3369
סכום	-11.337
איל	-11.337
▁At	-11.3372
▁באיזור	-11.3373
החלטות	-11.3373
▁כובע	-11.3375
▁‬	-11.3376
▁הקושי	-11.3377
ated	-11.3378
▁מציל	-11.3379
▁מימד	-11.338
▁התאריך	-11.338
ste	-11.3386
▁הבסיסיים	-11.3386
▁ליתר	-11.3387
פאל	-11.3389
אספו	-11.339
▁היועץ	-11.3392
▁ריצה	-11.3394
▁תגידו	-11.3396
נאס	-11.3398
▁לבנק	-11.3398
▁יהדות	-11.34
▁ברכת	-11.34
▁רשימות	-11.3401
ציוויליזציה	-11.3403
▁במזומן	-11.3403
▁הדאפא	-11.3403
▁מדוכא	-11.3403
▁קזינו	-11.3403
▁להאיץ	-11.3403
אמבולנס	-11.3403
▁וליהנות	-11.3403
▁המדרגות	-11.3403
style	-11.3403
▁מבוקש	-11.3403
▁להורדה	-11.3403
▁לחתוך	-11.3404
▁בקפידה	-11.3404
▁1942	-11.3405
▁הטרי	-11.3405
▁קשוח	-11.3405
▁נבחרת	-11.3405
סקרנות	-11.3405
▁הבדיקות	-11.3406
▁מצטרפ	-11.3407
▁תלונה	-11.3408
▁בקבוצות	-11.3409
▁העזרה	-11.341
▁המסוגל	-11.341
▁רוחות	-11.3411
קשישים	-11.3411
זרע	-11.3412
▁מגיבים	-11.3413
▁להתרכז	-11.3416
גינות	-11.3417
▁שאמור	-11.3418
▁000	-11.3418
נסיעות	-11.3419
גדוד	-11.3419
▁Sc	-11.342
-200	-11.3421
דמוקרטים	-11.3422
▁השפל	-11.3424
▁החד	-11.3426
▁גובר	-11.3428
תנועה	-11.343
תומך	-11.3431
▁נלמד	-11.3432
כרטיס	-11.3433
▁החזקה	-11.3434
הפחתת	-11.3436
▁אוניברסלי	-11.3438
▁הרפואית	-11.3439
▁המתאימה	-11.344
▁ברצלונה	-11.344
▁CO	-11.3441
ux	-11.3441
אומר	-11.3443
ica	-11.3443
תבנית	-11.3444
▁משנים	-11.3444
▁מחנות	-11.3446
ale	-11.3447
▁זז	-11.3447
▁מוזרה	-11.3449
▁עיריי	-11.345
▁שמוביל	-11.345
שעון	-11.345
▁עמוקות	-11.3451
וושינגטון	-11.3452
▁הניתן	-11.3452
▁הגדר	-11.3453
▁היריב	-11.3457
▁הנוצרי	-11.3457
hu	-11.3459
▁זריק	-11.346
▁חקיקה	-11.346
▁ממשלתיים	-11.346
נעשה	-11.346
▁במבנה	-11.3462
▁חזית	-11.3462
▁מחליטים	-11.3463
▁סגל	-11.3465
▁גאווה	-11.3465
▁ואיכות	-11.3468
גבוה	-11.3468
משקאות	-11.3468
▁אלוקי	-11.3473
▁הרגילים	-11.3473
יזמות	-11.3473
▁פיננסיים	-11.3476
▁וכלל	-11.3476
הפרעות	-11.3479
▁למרחק	-11.3479
▁והגיע	-11.348
▁הפייסבוק	-11.3484
נהיג	-11.3484
חבק	-11.3485
▁סעודיה	-11.3486
▁היציאה	-11.3486
▁אינטראקציה	-11.3487
▁בדרכי	-11.3493
▁לעכשיו	-11.35
▁חמושים	-11.35
▁למוח	-11.3501
הפיכה	-11.3502
▁עצי	-11.3505
▁השנאה	-11.3506
▁צדקה	-11.3506
▁מוציאים	-11.3507
▁מיס	-11.3508
AA	-11.3509
▁היוצר	-11.3511
-35	-11.3511
מכון	-11.3513
▁שיקרה	-11.3513
רשמה	-11.3514
אינטרסים	-11.3514
רמז	-11.3515
▁הכשר	-11.3515
▁בהצהרה	-11.352
6,000	-11.352
▁להפליא	-11.352
טרמינל	-11.352
▁נדיב	-11.3521
פינלנד	-11.3521
▁ואינם	-11.3521
▁הפדרציה	-11.3521
▁הישיבה	-11.3522
▁פגישות	-11.3522
▁איתכם	-11.3522
▁האמנתי	-11.3522
▁ההרוגים	-11.3522
▁הבריאה	-11.3523
▁להיאבק	-11.3523
▁1988	-11.3523
▁מבלבל	-11.3524
▁שכתוב	-11.3524
▁תוכנת	-11.3525
▁שהיית	-11.3526
גיבוש	-11.3527
▁שנשלח	-11.3529
▁נרכש	-11.3529
▁מצרי	-11.3529
▁מכשירי	-11.353
▁ונמצא	-11.3531
▁מנה	-11.3532
▁בלעדיו	-11.3532
דיאלוג	-11.3533
▁ובתי	-11.3534
דיבר	-11.3534
מפלצת	-11.3536
▁פרץ	-11.3536
▁פסוק	-11.354
▁לציית	-11.354
כד	-11.3541
▁Live	-11.3542
▁הנדל	-11.3542
▁כידוע	-11.3543
חתולים	-11.3543
הפתעה	-11.3544
פעוט	-11.3544
▁האזרחית	-11.3549
▁בנשק	-11.3549
▁מרחבי	-11.355
▁החלטנו	-11.3551
▁מהדברים	-11.3552
▁להכות	-11.3552
▁הפוליטיקה	-11.3553
אקדח	-11.3554
▁החדרים	-11.3554
▁העצום	-11.3555
▁לשלושה	-11.3557
▁הקים	-11.3558
▁רווק	-11.3558
שעת	-11.3559
תבניות	-11.3559
▁ברוק	-11.356
ממוקם	-11.3561
lic	-11.3561
▁מהרגע	-11.3561
▁בנפש	-11.3562
▁שמעתם	-11.3562
▁ילך	-11.3563
ja	-11.3563
▁אמש	-11.3567
▁רחוקה	-11.3567
▁לשעה	-11.3569
אדום	-11.357
▁רלוונטיים	-11.357
▁Wa	-11.3571
סירוב	-11.3571
▁המינימום	-11.3572
▁שלקח	-11.3572
▁שיט	-11.3573
חיוך	-11.3574
▁פטרי	-11.3574
▁בנוכחות	-11.3576
▁והיום	-11.3577
▁הציוני	-11.3577
▁הפופולריים	-11.3577
▁חייכם	-11.3578
ET	-11.3581
▁תערובת	-11.3583
▁מתפלל	-11.3585
▁הקיימות	-11.3586
▁והתרבות	-11.3586
▁מ־	-11.3586
▁דימוי	-11.3586
▁לאמא	-11.3586
▁הפרשה	-11.3587
בעיקר	-11.3588
▁חשבנו	-11.3589
▁הגדלת	-11.359
▁ורוח	-11.3592
▁בדיחה	-11.3592
▁ילדינו	-11.3597
▁הקורבנות	-11.3597
▁סיפרו	-11.3598
▁לדור	-11.3599
מונט	-11.36
▁המוזר	-11.36
שורה	-11.36
חלופה	-11.3601
▁לדו	-11.3603
טיבית	-11.3604
▁הוריה	-11.3604
תקווה	-11.3607
▁סיפוק	-11.3607
▁המטוסים	-11.3611
נראה	-11.3612
▁התמודדות	-11.3613
▁סער	-11.3614
▁קטגוריות	-11.3615
▁השותף	-11.3615
מכתב	-11.3618
▁בשבילם	-11.3618
▁חמלה	-11.3618
▁החזית	-11.362
▁מכול	-11.3624
מקו	-11.3625
תגרש	-11.3626
▁חניה	-11.3626
▁שבח	-11.3627
▁למזון	-11.3628
▁צועד	-11.3628
▁הפחתת	-11.3629
ג׳	-11.363
ִּי	-11.363
▁באלימות	-11.3634
▁פנימיים	-11.3634
TO	-11.3634
ism	-11.3635
▁הקשיים	-11.3635
▁החושים	-11.3636
מניעת	-11.3636
▁יהודיות	-11.3638
▁לאיראן	-11.3638
▁במוסקבה	-11.3639
▁היוקרתי	-11.3639
▁צמחי	-11.3639
עוצמת	-11.364
▁העסקיים	-11.364
▁המוקדמות	-11.3641
אוור	-11.3641
▁1971	-11.3641
▁לשרוף	-11.3642
▁מבריק	-11.3642
▁1987	-11.3642
ore	-11.3642
▁שחר	-11.3642
▁תאורה	-11.3645
▁נופש	-11.3645
▁יבואו	-11.3647
▁מצויין	-11.3648
▁במסיב	-11.3649
▁אהבו	-11.365
IF	-11.3651
▁אוניברסיטה	-11.3652
מיליארד	-11.3652
▁קולי	-11.3652
▁תרבויות	-11.3654
▁נאום	-11.3654
▁ווד	-11.3656
זכוכית	-11.3656
▁בוגרי	-11.3656
▁דיני	-11.3657
▁להמציא	-11.3658
▁r	-11.3658
▁מאתר	-11.366
זבל	-11.3661
רייט	-11.3662
▁האיראנית	-11.3664
▁המנכ	-11.3667
▁המתאימים	-11.3667
▁Art	-11.3667
▁הגמר	-11.3669
▁מתקני	-11.3671
▁סטרי	-11.3672
שיפור	-11.3672
▁בספרו	-11.3672
▁המתכון	-11.3672
▁אינטרסים	-11.3673
▁התחלת	-11.3674
▁יקרות	-11.3676
▁מאיים	-11.3677
▁שותים	-11.368
הוכחה	-11.3681
▁לחומר	-11.3682
▁בסיסית	-11.3682
▁נמר	-11.3683
▁הבמאי	-11.3684
▁הגנרל	-11.3684
וויט	-11.3685
▁יצרה	-11.3686
▁משורר	-11.3687
רומם	-11.3688
▁סגירת	-11.3688
דמויות	-11.3689
בדו	-11.3692
▁מסחרית	-11.3693
רכז	-11.3693
▁שיחת	-11.3697
▁הפרחים	-11.3697
▁נזקק	-11.3699
-2017	-11.37
▁לאומיים	-11.37
קוצר	-11.3704
▁סימפטומים	-11.3706
▁פונים	-11.3706
דינמיקה	-11.3707
▁קולה	-11.3709
חמוד	-11.3709
▁מתקן	-11.371
▁נעלי	-11.371
▁בהולנד	-11.371
שחר	-11.3711
▁מדויקת	-11.3714
▁לתוקף	-11.3714
▁להיום	-11.3716
כותרת	-11.3719
▁Ar	-11.3721
שותפים	-11.3721
▁ביער	-11.3722
▁רפורמ	-11.3723
טבל	-11.3723
▁דיג	-11.3723
אמריקני	-11.3723
▁מחודש	-11.3724
▁בסן	-11.3724
▁המעגל	-11.3725
▁במכון	-11.3725
הקליט	-11.3726
זירת	-11.3727
ME	-11.3729
▁HD	-11.3733
▁ברכבת	-11.3733
כחול	-11.3735
זנח	-11.3736
יודע	-11.3737
▁גיא	-11.3743
▁la	-11.3747
▁גופות	-11.3749
▁הוליווד	-11.375
▁הטל	-11.3757
▁מתמשכת	-11.376
▁שהצליח	-11.376
▁מסכימה	-11.376
▁בפומבי	-11.376
▁שעשינו	-11.376
▁הראיון	-11.376
▁המחוקק	-11.376
▁הצהרה	-11.376
משחקי	-11.3761
תאונה	-11.3761
▁הפלנטה	-11.3761
▁בקצרה	-11.3761
▁שוכב	-11.3761
-2005	-11.3763
▁המושלמת	-11.3763
גופם	-11.3764
▁הנחיות	-11.3765
▁מלאך	-11.3765
▁לכפות	-11.3765
▁‫	-11.3766
▁השדרה	-11.3766
▁קנאביס	-11.3767
▁היפני	-11.3768
▁מצוינות	-11.3769
▁הרפובליקני	-11.3769
סיווג	-11.377
היצע	-11.377
▁גדר	-11.377
▁בוחן	-11.3772
תבלבל	-11.3773
▁תעזור	-11.3773
בעוד	-11.3774
▁University	-11.3774
אפו	-11.3774
צופים	-11.3774
הפגנות	-11.3774
Book	-11.3774
רצף	-11.3775
נורמלי	-11.3777
▁טקסס	-11.3777
▁חזותי	-11.3777
▁מלאי	-11.3779
פחת	-11.3779
חלוף	-11.378
▁נפח	-11.378
▁מעת	-11.3781
▁וילד	-11.3781
▁בשמים	-11.3783
סדנאות	-11.3786
▁שכתבתי	-11.3786
סלאמי	-11.3787
תביעות	-11.3789
ארכיטקטור	-11.379
▁הנכונות	-11.3791
▁עצמאיים	-11.3791
ראתה	-11.3791
▁אריה	-11.3792
▁Cha	-11.3792
אינפלציה	-11.3793
▁ולפתח	-11.3794
▁יתחיל	-11.3798
▁המשורר	-11.3799
איום	-11.38
▁הגדיר	-11.38
▁לפרש	-11.3801
ative	-11.3802
הולך	-11.3803
▁לרכישת	-11.3807
הורדת	-11.3808
דרכים	-11.3809
גלגול	-11.381
▁חיוביים	-11.381
▁אנדרואיד	-11.3812
רומא	-11.3812
▁ובשנת	-11.3813
מבוסס	-11.3814
אמנם	-11.3815
▁הבור	-11.3817
▁משאל	-11.3817
▁סבר	-11.3817
▁הטילים	-11.3817
▁גרמנים	-11.3818
סבול	-11.3818
▁היצירתי	-11.3818
-2006	-11.3819
שקט	-11.382
▁Ga	-11.382
מתנגד	-11.3823
▁סף	-11.3823
▁התאגיד	-11.3823
קיומם	-11.3825
▁אורז	-11.3827
גוס	-11.3829
▁בלבנון	-11.3831
נוסעים	-11.3831
ries	-11.3832
▁הכתב	-11.3833
מיוחד	-11.3833
▁מצטערת	-11.3833
▁הובא	-11.3835
▁סגול	-11.3835
▁הפרופיל	-11.3837
▁שהיום	-11.3837
▁נביא	-11.3838
דיון	-11.3841
מדענים	-11.3841
▁כפות	-11.3842
▁Du	-11.3843
משיכה	-11.3843
▁הגדל	-11.3844
▁עמק	-11.3845
▁התרחשה	-11.3846
▁המורשת	-11.3848
▁והחי	-11.385
ודאות	-11.385
▁אללה	-11.3851
▁הקברות	-11.3852
באתי	-11.3852
▁בדיון	-11.3853
GB	-11.3854
אימות	-11.3854
▁יחול	-11.3854
ערבית	-11.3854
מומחים	-11.3859
BBC	-11.3859
dia	-11.386
▁לכלכלה	-11.3862
▁אגר	-11.3862
▁תשתית	-11.3863
▁ויהי	-11.3863
▁בגב	-11.3865
▁ידיעת	-11.3865
עילה	-11.3867
des	-11.3869
פצצות	-11.3869
תנאים	-11.3873
mber	-11.3873
▁מבוססים	-11.3875
שיניים	-11.3877
▁פרסים	-11.388
▁גיאוגרפי	-11.3882
▁להאזין	-11.3882
▁לדחוף	-11.3882
▁לגנוב	-11.3882
▁תסמינים	-11.3882
▁יפעל	-11.3883
חלל	-11.3883
▁מעוצב	-11.3884
▁יוחנן	-11.3884
▁סצנ	-11.3884
▁רצפ	-11.3885
other	-11.3885
▁לחג	-11.3885
▁מקוונים	-11.3886
▁המגורים	-11.3886
▁ולעבוד	-11.3886
▁משתמשי	-11.3886
▁טועים	-11.3886
rd	-11.3887
▁Your	-11.3887
תוספות	-11.3887
▁הסנאט	-11.3887
▁נמשכים	-11.3887
▁רעות	-11.3888
▁הנעליים	-11.3889
-500	-11.3891
▁חשבתם	-11.3893
▁לפרי	-11.3894
ness	-11.3896
התעללות	-11.3898
נפח	-11.3898
»	-11.3898
בדיקה	-11.3899
▁ההמונים	-11.39
חלונות	-11.3902
▁לנפש	-11.3903
DS	-11.3903
▁1.5	-11.3904
הנדסת	-11.3905
▁היפים	-11.3905
▁המציג	-11.3906
▁החוקר	-11.3907
▁יצירתי	-11.3908
▁הנצחי	-11.3908
ier	-11.3911
▁שנפל	-11.3913
תעקש	-11.3916
▁בשבילנו	-11.3917
איחוד	-11.3918
שלט	-11.3921
▁מדווחים	-11.3922
▁לצפייה	-11.3923
חזון	-11.3924
▁בברזיל	-11.3926
▁הדדי	-11.3928
טווח	-11.3929
הוצאת	-11.3929
▁בכיכר	-11.393
▁בודק	-11.393
▁מלמעלה	-11.3933
▁הרשו	-11.3933
▁הנדסה	-11.3934
▁הכרטיסים	-11.3935
▁פרצו	-11.3936
▁גזעני	-11.3937
▁מתעקש	-11.3939
▁נשואים	-11.394
▁לתשומת	-11.3943
מינים	-11.3944
תרופה	-11.3944
▁הרגילה	-11.3945
▁סה	-11.3946
▁צאצאי	-11.3946
can	-11.395
▁החובה	-11.395
▁נדירה	-11.3952
צאצא	-11.3953
▁כנסיית	-11.3953
▁להנות	-11.3954
ain	-11.3954
3)	-11.3956
יציאה	-11.3956
▁ויוצר	-11.3958
▁בחרתי	-11.3961
אצל	-11.3961
▁הציפיות	-11.3961
▁התיאטרון	-11.3962
אמרתי	-11.3963
▁בייצור	-11.3964
▁למטופל	-11.3964
▁הסרת	-11.3965
▁עוזבים	-11.3965
900	-11.3966
טיעונים	-11.3967
מתין	-11.3967
▁מייצגים	-11.3968
▁במכתב	-11.3974
▁אמונות	-11.3975
han	-11.3975
רקע	-11.3976
▁רעל	-11.3976
עצמה	-11.3984
▁לתושבי	-11.3985
▁הפופולריות	-11.3987
▁הסוגים	-11.3988
מוצר	-11.3988
▁עשן	-11.3988
▁התעללות	-11.3989
צטער	-11.3991
▁מזרחי	-11.3992
בּ	-11.3994
▁הפוטנציאלי	-11.3994
יגן	-11.3998
שתיקה	-11.3998
▁ואמרה	-11.3999
▁פורטוגל	-11.4
▁הזמין	-11.4001
עסקאות	-11.4003
▁צודקת	-11.4004
MD	-11.4004
פסיכיאטר	-11.4004
▁קריס	-11.4004
▁מהילדים	-11.4005
▁מתנגדים	-11.4005
▁לחסום	-11.4005
▁הידיעות	-11.4005
קיבוץ	-11.4005
▁כרוך	-11.4006
▁מההתחלה	-11.4006
▁הגובר	-11.4006
▁ערובה	-11.4007
▁טעמ	-11.4007
▁תנסה	-11.4008
▁לקריאה	-11.4008
זכייה	-11.4008
▁מהפכני	-11.4009
▁התזונה	-11.4009
▁המחמד	-11.401
אווי	-11.401
▁Bi	-11.4011
▁הרומן	-11.4012
מרפסת	-11.4013
מכנסיים	-11.4013
▁אנסה	-11.4013
רפואת	-11.4013
▁מזוהה	-11.4014
▁דוקטורט	-11.4015
▁עבירה	-11.4016
▁יישוב	-11.4017
▁אנטישמיות	-11.4018
בינוני	-11.402
משתמש	-11.402
▁להתווכח	-11.402
▁הרשתות	-11.402
▁כילד	-11.402
▁2.2	-11.4023
▁דיכוי	-11.4023
▁כבל	-11.4025
ציטוט	-11.4026
▁הכח	-11.4027
תלונות	-11.4029
בגדים	-11.403
התמחות	-11.403
אמריקאי	-11.403
▁זרוע	-11.4031
בחין	-11.4031
נתניהו	-11.4032
▁נדע	-11.4032
מתקפת	-11.4035
ning	-11.4037
▁כותר	-11.404
ׁ	-11.404
▁הישגים	-11.404
ניקוי	-11.4043
▁1,000	-11.4044
▁מתבצעת	-11.4045
קוע	-11.4046
▁גרמנית	-11.4047
▁בלימודי	-11.4048
מלווים	-11.4049
▁חומצה	-11.405
▁לחופשה	-11.4053
▁יעל	-11.4054
▁שבור	-11.4055
▁שגיאות	-11.4055
▁באנו	-11.4055
התאמה	-11.4056
▁הגילאים	-11.4058
▁תרש	-11.406
▁תחי	-11.406
מסגרות	-11.4061
▁המפלגות	-11.4062
▁מבתי	-11.4062
▁תורם	-11.4063
נישואין	-11.4065
▁עוסקת	-11.4065
cha	-11.4067
מליץ	-11.4067
נסק	-11.4067
▁בילד	-11.4068
▁מעצבים	-11.4069
▁ההוצאה	-11.4069
פולחן	-11.4071
חוסר	-11.4072
▁בתנ	-11.4072
▁דון	-11.4072
שייכות	-11.4076
ונגל	-11.4077
Ho	-11.4079
אסטרטגיה	-11.408
ולוגית	-11.408
▁דיור	-11.4081
▁800	-11.4082
▁מכריז	-11.4083
נקס	-11.4084
▁נדב	-11.4085
▁ואוהב	-11.4085
▁עכבר	-11.4086
אנק	-11.4086
כשיר	-11.4087
▁משפטיות	-11.4088
טענות	-11.4089
▁הרישום	-11.4091
▁49	-11.4092
▁עברתי	-11.4093
▁שתייה	-11.4094
קינג	-11.4094
▁מיזוג	-11.4097
בעלי	-11.4098
▁והעולם	-11.4099
אגודת	-11.41
תקיים	-11.4101
▁חיידקים	-11.4102
▁מולדת	-11.4102
פוסט	-11.4104
▁שנולדו	-11.4105
▁במשחקים	-11.4106
▁דוחה	-11.4108
▁הרבי	-11.4108
▁עונות	-11.4109
שליח	-11.4111
מתקן	-11.4113
▁מנוי	-11.4113
▁לקבוצת	-11.4114
▁לדרום	-11.4117
ישויות	-11.4122
▁במראה	-11.4122
ֹא	-11.4122
▁מייצגת	-11.4122
▁השומר	-11.4124
להפוך	-11.4124
▁מוגבלים	-11.4126
Qu	-11.4127
▁בשיטות	-11.4129
°	-11.413
▁הנמוכה	-11.413
▁THE	-11.413
[10]	-11.413
▁ליברמן	-11.413
▁הגופני	-11.4131
מָ	-11.4131
תחמושת	-11.4131
▁ההיסטורית	-11.4131
▁חבילת	-11.4131
▁מדרגות	-11.4132
▁קרינה	-11.4132
מדוייק	-11.4133
▁להתרחק	-11.4133
▁אוסלו	-11.4133
▁הצרכן	-11.4133
▁לסלוח	-11.4134
ְךָ	-11.4134
גישו	-11.4134
▁להיחשב	-11.4134
דוקטרינ	-11.4134
▁המחאה	-11.4135
▁הבכור	-11.4135
▁מפגשים	-11.4136
בונ	-11.4137
ever	-11.4138
▁להיווצר	-11.4138
▁המכריע	-11.4139
▁השכנים	-11.414
▁מוערך	-11.414
▁למחלה	-11.4141
חטיבת	-11.4142
▁המדיה	-11.4142
ביום	-11.4143
דמיינו	-11.4143
▁להסתובב	-11.4144
pos	-11.4144
בניינים	-11.4145
השפעות	-11.4145
▁הישרדות	-11.4146
ירדן	-11.4146
▁להתקבל	-11.4146
▁שבאו	-11.4147
▁בלחץ	-11.4147
▁רצים	-11.4147
בזבז	-11.4148
▁עקרוני	-11.4148
הגבלות	-11.4149
▁משעמם	-11.415
▁לזכר	-11.4151
סיגריות	-11.4151
יישן	-11.4151
קפטן	-11.4151
▁האמנה	-11.4152
▁בניינים	-11.4153
▁בתואר	-11.4156
▁תשתמש	-11.4157
▁סותר	-11.416
▁שמקבל	-11.4161
איגוד	-11.4161
tive	-11.4163
להקה	-11.4163
▁השותפות	-11.4164
▁ספא	-11.4164
▁National	-11.4165
▁כשאת	-11.4171
יועץ	-11.4171
ממצא	-11.4171
מזו	-11.4172
▁מליון	-11.4172
אבטלה	-11.4174
▁אייל	-11.4175
▁ואור	-11.4175
▁מורי	-11.4176
נטרי	-11.4176
▁ההפרדה	-11.4178
▁בתכנון	-11.4178
▁חביב	-11.4178
▁אספקה	-11.4178
▁מכריע	-11.4179
▁שתיקה	-11.4179
מצלמות	-11.4179
▁הכתובת	-11.4182
▁משוחרר	-11.4182
זכרונות	-11.4183
▁נבנתה	-11.4184
▁מחק	-11.4184
▁לעוף	-11.4184
▁משתתף	-11.4184
כניע	-11.4185
▁בדמות	-11.4188
CI	-11.4189
▁בוגד	-11.4193
▁לתיקון	-11.4194
ערבי	-11.4194
▁שראה	-11.4194
רכש	-11.4195
▁דרמה	-11.4196
▁צעירות	-11.4196
▁ומעל	-11.4197
▁52	-11.4197
▁חיסכון	-11.4197
dd	-11.4197
סבא	-11.4198
השוואה	-11.42
▁בגישה	-11.42
▁בכיס	-11.4202
▁ענייני	-11.4202
▁ההודעות	-11.4203
▁מאחד	-11.4204
▁הניחו	-11.4204
היעדר	-11.4207
▁חיונית	-11.4207
ציון	-11.4207
▁והרי	-11.4207
▁לרשויות	-11.4207
מוטט	-11.4207
▁חוקיות	-11.4207
▁בכאב	-11.4208
▁do	-11.4208
סתפק	-11.421
van	-11.421
▁עציר	-11.4211
▁לשבח	-11.4211
▁ורב	-11.4212
▁ולעולם	-11.4213
▁המשמעותי	-11.4213
▁המוצלח	-11.4214
▁עתידיים	-11.4214
ּוּ	-11.4215
GA	-11.4216
▁טורקי	-11.4216
רבן	-11.4218
FA	-11.4218
▁הדגים	-11.4218
סינ	-11.4219
▁הגירה	-11.4222
▁5%	-11.4225
▁בסקר	-11.4226
מודל	-11.4227
▁ותמיכה	-11.4229
▁התעקש	-11.4229
▁לחשבון	-11.423
▁לפעם	-11.423
מסדר	-11.4233
השאלה	-11.4234
מחוז	-11.4236
▁ארכיון	-11.4236
▁רובנו	-11.4237
▁שהרבה	-11.4237
פייסבוק	-11.4238
▁חשבה	-11.424
▁הדובר	-11.4241
▁הלשון	-11.4241
cle	-11.4241
▁ממאה	-11.4241
סכמת	-11.4242
▁נרשמו	-11.4243
ze	-11.4243
▁כשנה	-11.4245
מבנים	-11.4246
▁דוברי	-11.4248
דנ	-11.425
▁ובריאות	-11.4251
▁כנה	-11.4251
לץ	-11.4251
▁לכפר	-11.4252
דרשו	-11.4252
▁ידני	-11.4254
ייצור	-11.4256
▁ממליצה	-11.4257
▁שעוסק	-11.4257
▁תוחלת	-11.4257
▁המבוקש	-11.4257
▁הבשורה	-11.4257
גיהנום	-11.4257
זמנים	-11.4257
▁החירום	-11.4258
▁תקציר	-11.4258
▁מוסיפים	-11.4258
▁מבעד	-11.4258
▁הנתיב	-11.4259
-2007	-11.426
▁לפרוץ	-11.426
▁להתייעץ	-11.4261
▁מופלא	-11.4263
▁משקף	-11.4263
פץ	-11.4263
נציבות	-11.4263
▁City	-11.4265
▁נקב	-11.4266
▁השיחות	-11.4266
▁אחיה	-11.4268
lor	-11.4269
▁יעזרו	-11.4272
אלוקים	-11.4274
▁ניקח	-11.4275
▁המסייע	-11.4276
מכללה	-11.4277
▁הנחת	-11.4277
▁מוצגים	-11.4277
כפוף	-11.4278
—	-11.4278
דווקא	-11.4278
▁מיכל	-11.4278
▁נראות	-11.4279
אוסטריה	-11.4279
ous	-11.4279
מחסום	-11.4279
מעגל	-11.4281
ash	-11.4281
▁זיהו	-11.4281
מצוות	-11.4282
ֶל	-11.4282
העברה	-11.4284
משאית	-11.4284
▁שמעת	-11.4285
▁הקירות	-11.4285
▁מאר	-11.4285
▁היוונית	-11.4285
לקוח	-11.429
חורף	-11.4291
▁השכל	-11.4292
▁אירוח	-11.4292
הערכות	-11.4294
▁המשלחת	-11.4294
תגורר	-11.4295
▁67	-11.4295
▁נלך	-11.4295
▁מותה	-11.4297
תשתית	-11.4299
IR	-11.43
▁הפנימיים	-11.4303
▁הרווחה	-11.4304
▁מחוסר	-11.4305
▁51	-11.4306
▁לשולחן	-11.4306
▁שביעות	-11.4307
הגיון	-11.4307
ילחם	-11.4307
ארכיון	-11.4311
▁להבנה	-11.4312
▁שבסופו	-11.4313
▁לתנאי	-11.4313
▁הנדרשת	-11.4314
נטון	-11.4315
אתיופיה	-11.4318
▁מוניטין	-11.4319
▁הכלכליים	-11.4321
▁ציפי	-11.4323
קובץ	-11.4323
▁ורע	-11.4323
▁האישור	-11.4323
▁בתהליכי	-11.4324
▁בבריאות	-11.4328
▁יחידים	-11.433
▁נולדתי	-11.433
NS	-11.4332
TR	-11.4333
▁ויודע	-11.4334
הגענו	-11.4334
▁שגיאה	-11.4335
▁לגילוי	-11.4335
פורסם	-11.4336
קופה	-11.4338
טיפש	-11.4341
▁הפרטיים	-11.4342
▁גביע	-11.4344
דירה	-11.4345
▁נוצרה	-11.4346
▁ומדינות	-11.4346
תגלית	-11.4347
▁לרמת	-11.4347
▁בעיניו	-11.4347
Mo	-11.4348
מחסן	-11.4356
▁הפיננסית	-11.4359
▁מפגינים	-11.4359
▁לכוחות	-11.4359
▁יגרו	-11.436
▁שמענו	-11.4361
▁בתוספת	-11.4362
▁ליבה	-11.4362
נאלי	-11.4363
▁ובלי	-11.4363
▁מקצועיות	-11.4365
▁אמינות	-11.4365
▁ציטוט	-11.4366
▁סופו	-11.4366
▁נרשמ	-11.4368
▁ואלו	-11.4368
▁האזורי	-11.4369
▁הסתם	-11.4373
▁דמיון	-11.4373
חליפה	-11.4374
רגון	-11.4381
▁חשמליים	-11.4383
▁מסויימים	-11.4385
▁SEO	-11.4385
▁קוסמטי	-11.4385
▁מוגברת	-11.4385
▁פיצוץ	-11.4385
▁הסוללה	-11.4385
▁בתחתית	-11.4385
▁ההיריון	-11.4386
▁קפוא	-11.4386
IG	-11.4386
▁תאילנד	-11.4387
ling	-11.4389
תוקפנות	-11.4389
▁לטפס	-11.4389
מדפסת	-11.439
▁הקלעים	-11.439
▁להיסטוריה	-11.4391
▁ולהשתמש	-11.4392
▁חושף	-11.4394
▁במחלה	-11.4394
▁30%	-11.4394
בזק	-11.4395
▁גס	-11.4396
▁הדיסק	-11.4397
סוכני	-11.4399
▁הנס	-11.4401
▁(6	-11.4401
▁התקפה	-11.4402
▁שעזר	-11.4405
דבורים	-11.4406
▁תודעה	-11.4406
▁המלכותית	-11.4406
▁64	-11.4407
▁מסורתיים	-11.4407
כגון	-11.4408
גביל	-11.4409
השראת	-11.4409
שוודיה	-11.4409
▁עוקבים	-11.4411
סיסמה	-11.4412
▁הנערה	-11.4412
מקומי	-11.4413
הזמנות	-11.4414
▁ממוקמת	-11.4414
uck	-11.4415
▁שחיי	-11.4415
▁נגיד	-11.4416
IL	-11.4421
▁בענייני	-11.4423
▁פיתחו	-11.4424
by	-11.4425
▁ידעתם	-11.4425
▁ממוקמים	-11.4426
▁מילר	-11.4428
▁תעשייה	-11.4429
▁היוצא	-11.443
▁לסיכום	-11.4431
▁במקסיקו	-11.4431
▁חלפו	-11.4434
▁ושלוש	-11.4434
▁Di	-11.4437
▁המוניטין	-11.4437
חלץ	-11.4442
▁משלושה	-11.4444
זמני	-11.4445
nder	-11.4446
▁חיזבאללה	-11.4446
▁דפי	-11.4446
▁הנסיכה	-11.4446
▁החכם	-11.4447
▁קיימא	-11.4447
▁שיתופי	-11.4449
פוטנציאל	-11.445
ros	-11.445
▁החודשי	-11.4452
▁גרועים	-11.4454
▁חמורים	-11.4454
▁וטכנולוגיה	-11.4456
bs	-11.4456
תלוי	-11.4459
▁החצי	-11.446
▁הביעו	-11.446
▁בלש	-11.4461
▁רקטות	-11.4464
▁החזרה	-11.4466
▁במדי	-11.4466
▁בפוסט	-11.4469
▁HP	-11.447
בקת	-11.447
בורן	-11.4471
▁מסרה	-11.4474
▁הרוק	-11.4474
תמוך	-11.4476
אישור	-11.4477
▁הטענות	-11.4477
▁הגודל	-11.4477
▁באירועים	-11.4478
יפן	-11.4478
▁מעודדים	-11.448
TH	-11.4481
▁המחוזי	-11.4483
▁תרומות	-11.4484
צטרך	-11.4484
▁ממספר	-11.4485
▁Har	-11.4485
ציור	-11.4485
▁בסיוע	-11.4486
▁הדק	-11.4488
▁למעמד	-11.4488
▁הפיגוע	-11.4488
טוק	-11.449
▁מלמדת	-11.4493
▁השלט	-11.4493
▁מרץ	-11.4493
▁צבי	-11.4494
▁לארגונים	-11.4494
אספקת	-11.4494
▁ודם	-11.4495
רוף	-11.4497
▁העיתונאים	-11.4497
yn	-11.4498
▁יוזמה	-11.45
RC	-11.45
ביצוע	-11.4501
▁קליפ	-11.4502
▁ההופעה	-11.4503
▁לחנות	-11.4504
▁גופה	-11.4505
▁מתמקדת	-11.4505
▁יעדים	-11.4506
▁הנקודות	-11.4508
▁הגיש	-11.4509
dom	-11.451
המשפט	-11.4512
▁שנמצאו	-11.4513
▁באף	-11.4514
▁from	-11.4515
▁בטוויטר	-11.4515
▁מתוכנן	-11.4515
▁מתכננת	-11.4515
▁הנפוץ	-11.4515
▁יוקרתי	-11.4515
▁סיינטולוגיה	-11.4515
רויטרס	-11.4515
▁הנאשם	-11.4515
טריטוריה	-11.4515
▁Play	-11.4515
▁באמנות	-11.4516
▁נפילת	-11.4516
▁סחורות	-11.4516
▁זרימת	-11.4517
▁מכוער	-11.4517
▁בברית	-11.4518
▁המשל	-11.4518
יימי	-11.4519
▁53	-11.4519
▁שעולה	-11.4519
▁פחם	-11.452
▁שוכן	-11.452
▁ביממה	-11.452
▁הפרעת	-11.452
שרון	-11.4521
▁הוענק	-11.4521
▁מובילות	-11.4521
▁המייצג	-11.4521
▁מיועדת	-11.4523
▁חתמו	-11.4524
▁לשכב	-11.4524
▁מזהיר	-11.4524
▁יתקיים	-11.4525
▁שכבות	-11.4525
▁שערים	-11.4526
▁אויבי	-11.4526
▁להבדיל	-11.4526
לינק	-11.4528
▁שסב	-11.4528
▁ויהיה	-11.4528
▁להשתפר	-11.4529
▁משאב	-11.4531
▁להזיז	-11.4531
▁הנחות	-11.4531
▁פלוס	-11.4532
▁יוצאי	-11.4532
מנצ	-11.4532
▁אלברט	-11.4532
▁בכוונת	-11.4533
▁1.2	-11.4533
אפליה	-11.4533
-0	-11.4535
אינני	-11.4535
אסונות	-11.4535
lar	-11.4536
▁התחייב	-11.4539
חלום	-11.4539
▁לחייך	-11.4539
מכה	-11.454
▁ובנוסף	-11.454
לדוגמה	-11.454
▁מדורג	-11.454
כלבים	-11.4543
מלכודת	-11.4544
ile	-11.4544
▁מזעזע	-11.4545
מותג	-11.4547
▁האשמה	-11.4549
אחורי	-11.4549
▁הוצאה	-11.455
▁מתגוררים	-11.4551
▁מהנשים	-11.4553
מתקנים	-11.4554
▁שקיימת	-11.4557
▁בכור	-11.4562
אירועים	-11.4562
▁בונוס	-11.4564
▁במשימה	-11.4567
▁לייצג	-11.4567
ten	-11.4569
▁ואמרו	-11.4569
▁עמים	-11.457
▁לשמח	-11.4572
שולחנות	-11.4573
גיא	-11.4574
▁בטוב	-11.4579
▁הדיאטה	-11.4581
▁לטפח	-11.4581
SC	-11.4582
רתיע	-11.4583
▁תדמית	-11.4583
▁פירושה	-11.4586
▁נסיכ	-11.4587
▁הנסיבות	-11.4587
▁Tag	-11.4587
▁אישום	-11.4588
▁כחבר	-11.4589
▁משפחותיהם	-11.4591
רצונות	-11.4592
מתמטיקה	-11.4592
▁עקרון	-11.4592
▁לפגיעה	-11.4594
▁שדיבר	-11.4594
▁לילדי	-11.4597
▁גרין	-11.4598
▁הידועה	-11.4598
נאצים	-11.4599
עיתונאים	-11.4601
gs	-11.4602
בקע	-11.4603
▁להכרה	-11.4603
▁רצית	-11.4603
▁חובב	-11.4604
▁בכרטיס	-11.4604
ליין	-11.4605
כיוון	-11.4606
▁מילד	-11.4607
פרצוף	-11.4608
▁הכוללים	-11.4609
▁מלפני	-11.4609
▁התאונה	-11.4613
▁ומחקר	-11.4614
▁היפנית	-11.4614
▁בבעלי	-11.4615
▁מסתיר	-11.4619
מורשת	-11.462
▁לעיצוב	-11.462
קחו	-11.4622
▁ופעילות	-11.4623
▁שטחי	-11.4624
▁העבירה	-11.4625
▁לתל	-11.4625
▁היעיל	-11.4626
▁במדעי	-11.4627
▁10,000	-11.4628
גבולות	-11.4629
▁לתרגל	-11.463
▁רצף	-11.4631
יטול	-11.4631
▁צדדי	-11.4632
▁קדושה	-11.4632
התקנים	-11.4633
▁מאלוהים	-11.4633
▁החופשית	-11.4636
par	-11.4645
▁שומעת	-11.4646
▁בעצמנו	-11.4646
קפריסין	-11.4646
▁להתאהב	-11.4647
▁עבאס	-11.4647
▁להאריך	-11.4647
▁הצריכה	-11.4647
▁פלורידה	-11.4647
▁העדכני	-11.4647
▁כביסה	-11.4647
▁מאוכזב	-11.4647
▁הפנסיה	-11.4647
▁הארצי	-11.4647
▁סקוטלנד	-11.4647
▁כהונת	-11.4648
▁רוסית	-11.4649
▁המגרש	-11.4649
▁1984	-11.4649
▁הרושם	-11.465
▁נכד	-11.4651
▁בודקים	-11.4651
▁חולצה	-11.4652
Cl	-11.4652
רבו	-11.4652
▁הפרות	-11.4653
▁ומקצועי	-11.4653
▁פריצת	-11.4653
▁הליבה	-11.4657
▁לשחות	-11.4657
▁הציעו	-11.4657
▁בדואר	-11.4659
ארג	-11.466
שיטת	-11.466
שוטרים	-11.466
▁המקרא	-11.4661
פסגת	-11.4662
▁בשד	-11.4664
מחלקות	-11.4665
▁ממצאי	-11.4666
אפריקני	-11.4666
שפות	-11.4667
רציתי	-11.4667
▁להפנות	-11.4669
▁ממתי	-11.4671
▁חולם	-11.4671
עכשווי	-11.4672
מתבגרים	-11.4672
חסוך	-11.4673
מוטיבציה	-11.4673
בלע	-11.4673
מפגינים	-11.4674
▁יבחר	-11.4674
חנך	-11.4674
עדכון	-11.4675
▁פתוחות	-11.4676
▁ההנהגה	-11.4677
ייני	-11.4678
סוציאליזם	-11.4679
▁44	-11.4683
משכורת	-11.4684
▁יפתח	-11.4684
צייד	-11.4685
עיתונות	-11.4685
▁יצליחו	-11.4685
▁שפורסמו	-11.4686
▁עברנו	-11.469
▁האסלאמי	-11.469
איכות	-11.4691
אטלנטי	-11.4692
▁הסמים	-11.4692
▁מטען	-11.4696
פאניקה	-11.4697
חמישי	-11.4699
תקופה	-11.47
▁המתואר	-11.4701
▁וכיום	-11.4701
▁Su	-11.4701
▁שבעת	-11.4702
▁ההוראות	-11.4702
▁למקרה	-11.4704
▁שמתחיל	-11.4704
צרף	-11.4704
▁תסריט	-11.4705
▁עייפות	-11.4705
▁חיפה	-11.4706
▁מסתתר	-11.4706
▁והחברה	-11.4707
▁בנתונים	-11.4709
▁עוול	-11.4709
▁שפותח	-11.471
יתרון	-11.4711
מיקום	-11.4711
▁וייטנאם	-11.4713
מטלות	-11.4714
▁המשלוח	-11.4714
▁חילוני	-11.4714
צמצם	-11.4715
▁הפרוייקט	-11.4718
▁אכלו	-11.4719
▁בבעיה	-11.4719
▁נהנית	-11.4723
▁אדל	-11.4724
יזהר	-11.4728
▁קיצור	-11.4729
▁בטן	-11.4729
▁רציניים	-11.473
באותו	-11.4733
חשיפה	-11.4734
▁וחברים	-11.4734
▁רציונלי	-11.4737
▁הכיוון	-11.4737
▁חסרות	-11.4739
▁פתחה	-11.474
▁פירס	-11.474
טלטל	-11.474
▁ומערכות	-11.4741
▁שולחים	-11.4742
הרגשתי	-11.4742
▁ועבור	-11.4743
▁שיכולתי	-11.4745
▁לחוף	-11.4746
▁מאכזב	-11.4747
ֲ	-11.4747
▁הצופים	-11.4748
EL	-11.4748
▁דנמרק	-11.475
עדיפות	-11.4751
▁לספור	-11.4751
▁47	-11.4752
▁הודי	-11.4752
▁החוויות	-11.4753
▁וואו	-11.4753
▁רוחב	-11.4754
צומח	-11.4754
▁בארי	-11.4755
▁היומי	-11.4755
▁סוגר	-11.4756
▁איטלקית	-11.4757
▁מתייחסת	-11.4758
▁בינה	-11.4759
אכלו	-11.4759
▁אנוכי	-11.476
▁שמואל	-11.4763
▁שרידי	-11.4766
▁למזל	-11.4767
▁שיע	-11.4767
סרטונים	-11.4769
▁בפעילויות	-11.4769
ert	-11.477
▁למדנו	-11.477
pro	-11.4771
אוטובוס	-11.4775
מכירות	-11.4775
RS	-11.4777
חלב	-11.4778
▁באילו	-11.4779
הנחות	-11.4779
▁אומלל	-11.478
display	-11.478
ונצואלה	-11.478
▁נטען	-11.478
[9]	-11.478
סיליקון	-11.478
רטון	-11.478
▁רדיקלי	-11.478
▁לעונה	-11.478
▁העולמות	-11.478
משנה	-11.4781
▁התמכרות	-11.4781
▁לתפקד	-11.4782
▁Night	-11.4782
▁כלשהם	-11.4782
▁התקיפה	-11.4786
▁ספורים	-11.4786
▁40%	-11.4787
שושלת	-11.4787
▁הרעש	-11.4788
▁נתונה	-11.4788
▁במעלה	-11.4789
▁מורחב	-11.4789
▁ישתנה	-11.4789
▁אמיץ	-11.4789
▁לסרב	-11.4789
▁יחליט	-11.4789
אוטיזם	-11.479
▁הרחבת	-11.4791
▁ולעזור	-11.4793
▁התמודד	-11.4794
▁זעם	-11.4795
▁מוזמן	-11.4795
תייעצו	-11.4796
▁שווא	-11.4796
▁אינץ	-11.4796
תרכז	-11.4796
▁בקיר	-11.4797
▁המונית	-11.4798
▁קיד	-11.4803
▁John	-11.4804
מאיימת	-11.4805
הולנד	-11.4806
▁פורד	-11.4806
▁לשדה	-11.4806
▁בוצעו	-11.4807
מוזיאונים	-11.4807
קטגוריות	-11.4807
▁צבאיות	-11.4811
▁מוזכר	-11.4811
▁בוער	-11.4813
ong	-11.4813
▁סרב	-11.4814
▁דרכון	-11.4815
למען	-11.4818
▁בשווקים	-11.4819
▁בסרטון	-11.4819
▁המטען	-11.482
▁הורדת	-11.4821
▁שהממשלה	-11.4822
תחום	-11.4824
▁פסיכיאטרי	-11.4824
▁מחברות	-11.4825
▁אריאל	-11.4826
▁מעובד	-11.4828
▁ההיגיון	-11.4829
▁לבטח	-11.4832
▁הצהוב	-11.4832
▁פיקוד	-11.4834
▁הקצה	-11.4835
▁עליון	-11.4835
▁תאכל	-11.4839
יבשת	-11.4839
▁סמכויות	-11.484
▁ביתר	-11.4841
▁Ac	-11.4841
מאמן	-11.4842
▁מפנה	-11.4842
קוריאה	-11.4844
▁הרף	-11.4844
▁רם	-11.4845
▁מקיפה	-11.4846
▁נברא	-11.4846
ראס	-11.4846
תיקון	-11.4846
ערכי	-11.4847
נקמה	-11.4848
אנטי	-11.485
▁מכאב	-11.485
▁חקלאות	-11.485
▁ממקורות	-11.4852
▁הגבוהות	-11.4857
▁אחוזי	-11.486
▁עייף	-11.4861
▁מילוי	-11.4861
▁אנגלי	-11.4866
▁כימיקלים	-11.4867
2014	-11.487
▁האבטלה	-11.4873
▁בעיירה	-11.4874
הכריח	-11.4874
פנתה	-11.4875
תשומת	-11.4878
דגל	-11.4878
לחימה	-11.4881
▁לקיום	-11.4882
טפח	-11.4882
▁המתנחלים	-11.4883
La	-11.4883
ענפים	-11.4883
▁האהובה	-11.4887
ַרְ	-11.4889
▁לילי	-11.4889
מדוע	-11.489
▁Jo	-11.4892
▁נבוא	-11.4894
▁המשנה	-11.4895
▁הזרים	-11.4896
חמלה	-11.4896
▁מונעת	-11.4897
וביץ	-11.4899
אפר	-11.4899
▁מתמטי	-11.4899
▁שילד	-11.49
▁תדעו	-11.4901
▁המשימות	-11.4905
בימוי	-11.4907
▁לאנרגיה	-11.4908
▁חוגגים	-11.491
ברון	-11.4913
תיאטרון	-11.4913
עוצמה	-11.4913
סלול	-11.4914
8,000	-11.4915
צומת	-11.4915
▁ובינלאומי	-11.4915
טסטוסטרון	-11.4915
▁Outlook	-11.4915
▁מעוניינת	-11.4915
▁בקמפוס	-11.4915
Cloud	-11.4915
▁ולמצוא	-11.4915
▁Center	-11.4915
▁מקוונת	-11.4915
▁רכישות	-11.4915
▁מכחיש	-11.4915
▁ארוכת	-11.4915
▁רחמים	-11.4915
גלוקוז	-11.4915
▁האוניברסיטאות	-11.4915
▁לאחסן	-11.4916
▁תמצית	-11.4916
רוכב	-11.4916
פשיעה	-11.4917
De	-11.4917
▁1943	-11.4917
מושכת	-11.4917
▁וכדומה	-11.4917
▁נפטרה	-11.4918
▁היישוב	-11.4918
▁הדורש	-11.4919
[...]
