<unk>	0
<s>	0
</s>	0
.	-3.61554
ים	-3.94298
,	-3.95797
ה	-3.99668
▁ה	-4.03033
▁	-4.03224
▁ו	-4.05809
ת	-4.06782
▁של	-4.373
▁ב	-4.40087
▁את	-4.40132
▁,	-4.42222
▁.	-4.47366
ו	-4.51165
▁ל	-4.51699
ות	-4.54889
י	-4.64881
▁ש	-4.76579
▁לא	-4.8569
▁על	-4.86219
▁"	-4.86251
▁מ	-4.94982
▁זה	-5.34465
ם	-5.40213
▁הוא	-5.43707
▁מה	-5.45923
▁או	-5.67177
▁עם	-5.68975
▁כל	-5.75115
ב	-5.82912
▁?	-5.84989
▁(	-5.85374
-	-5.86112
▁אני	-5.94619
▁היא	-5.9823
ן	-5.98756
ר	-5.98922
▁יש	-5.99788
"	-5.99982
▁יותר	-6.00776
▁-	-6.02286
▁גם	-6.06297
נו	-6.06741
▁:	-6.07617
'	-6.11694
ח	-6.15696
▁כ	-6.1738
▁כי	-6.18222
ל	-6.18265
▁אם	-6.19072
ע	-6.2154
▁הם	-6.26558
▁היה	-6.27546
▁י	-6.28083
▁ת	-6.29704
▁אבל	-6.36152
?	-6.37697
▁לי	-6.43134
:	-6.47252
ק	-6.47481
▁לה	-6.47498
▁–	-6.47992
▁כדי	-6.4854
ית	-6.489
▁להיות	-6.49403
▁רק	-6.50273
▁".	-6.5391
▁אחד	-6.55909
▁נ	-6.59826
א	-6.60157
ס	-6.60316
תי	-6.60548
▁כמו	-6.62665
▁יכול	-6.6291
▁המ	-6.65694
ט	-6.66378
▁ג	-6.67367
▁כך	-6.6917
ד	-6.69473
▁אתה	-6.75228
)	-6.75738
ג	-6.75831
▁עד	-6.78103
▁זו	-6.78742
▁אל	-6.79936
▁ביותר	-6.81826
▁שלך	-6.83493
ך	-6.86926
מ	-6.89403
▁זאת	-6.89882
ש	-6.89951
▁מי	-6.90956
▁האם	-6.92275
ז	-6.9572
▁אותו	-6.96351
▁ידי	-6.9641
▁...	-6.97794
▁לו	-6.9831
▁היו	-7.0004
▁)	-7.00833
▁בין	-7.01529
▁אנחנו	-7.01607
▁בכל	-7.01608
ני	-7.01767
▁הזה	-7.01922
s	-7.02115
▁כמה	-7.04362
▁שלנו	-7.05342
▁אין	-7.06946
ף	-7.07201
▁מאוד	-7.07474
כ	-7.11626
▁שלי	-7.11637
▁אז	-7.12728
▁כש	-7.12984
▁א	-7.1344
▁לפני	-7.13624
▁לאחר	-7.14377
▁לך	-7.14514
▁!	-7.14528
פ	-7.15687
ון	-7.15899
▁עבור	-7.15985
▁אנשים	-7.16127
▁אך	-7.1945
▁לעשות	-7.20185
נה	-7.20907
▁צריך	-7.20985
▁'	-7.20985
ור	-7.21526
▁דבר	-7.21534
▁עוד	-7.22264
יה	-7.24018
▁טוב	-7.24207
▁כבר	-7.2561
צ	-7.25676
▁שהוא	-7.25867
▁ישראל	-7.26739
▁שה	-7.27885
▁לנו	-7.28144
יות	-7.29594
▁איך	-7.30082
▁הרבה	-7.30094
▁בו	-7.30532
▁אי	-7.31382
▁כאשר	-7.32996
▁אחר	-7.33338
▁אשר	-7.34683
מי	-7.35434
▁שלו	-7.36503
▁באופן	-7.36838
▁פי	-7.3702
▁אמר	-7.37608
▁שלהם	-7.37923
מה	-7.37947
נים	-7.38641
▁אנו	-7.3928
▁אלה	-7.39613
▁שני	-7.41392
▁היום	-7.4213
▁ול	-7.42133
פי	-7.42164
▁רוצה	-7.42397
▁אדם	-7.42508
כו	-7.42667
▁מת	-7.43313
▁שלא	-7.44373
".	-7.45335
▁שנים	-7.4591
▁אחת	-7.46116
מים	-7.46256
בר	-7.47077
▁שם	-7.47187
▁אתם	-7.47995
▁ח	-7.49203
▁זמן	-7.50332
▁חלק	-7.5152
▁העולם	-7.51605
▁כן	-7.51894
▁;	-7.52453
▁מספר	-7.52837
בי	-7.52959
▁למ	-7.5323
משך	-7.55079
▁יום	-7.55279
▁“	-7.55921
▁",	-7.56564
מו	-7.56604
▁הייתה	-7.57135
▁ולא	-7.57376
נות	-7.5746
▁אפשר	-7.5772
▁להם	-7.57745
יו	-7.58118
▁בית	-7.58296
▁ס	-7.58625
נ	-7.58695
▁לכל	-7.58719
▁יהיה	-7.59167
▁שיש	-7.59188
▁יכולים	-7.59444
▁צ	-7.59536
▁אותם	-7.59544
ין	-7.60384
▁אחרי	-7.61157
▁s	-7.64096
▁פעם	-7.64275
▁בשנת	-7.64367
לה	-7.64588
▁כאן	-7.64668
▁שאני	-7.64754
▁ר	-7.65018
▁ד	-7.65767
▁אחרים	-7.65956
▁S	-7.66024
▁ניתן	-7.66069
▁שלכם	-7.66283
▁תמיד	-7.66532
▁במ	-7.67524
▁אף	-7.68
▁שהם	-7.69069
y	-7.69275
▁בני	-7.6963
יר	-7.69811
▁בעולם	-7.70182
▁רבים	-7.70547
יק	-7.70608
▁אותה	-7.71093
רו	-7.7118
▁משהו	-7.7276
אני	-7.72923
▁בה	-7.73057
כם	-7.73857
▁שנה	-7.74283
▁אלא	-7.74473
ץ	-7.74558
▁).	-7.74902
▁למה	-7.75073
e	-7.75188
▁A	-7.75842
▁ואת	-7.76223
▁לב	-7.76479
יש	-7.76807
וק	-7.77355
ול	-7.77849
▁ק	-7.78402
▁אומר	-7.78435
▁עדיין	-7.78993
מת	-7.79434
▁ללא	-7.79508
▁דרך	-7.79907
או	-7.80545
t	-7.8069
▁ע	-7.8074
רי	-7.80762
▁3	-7.81157
לו	-7.81905
▁עכשיו	-7.8242
▁לכם	-7.82569
1	-7.83047
▁באמת	-7.83252
▁מדי	-7.83253
▁הספר	-7.8338
▁פשוט	-7.83382
▁לראות	-7.84362
פו	-7.8484
▁הכל	-7.8539
טי	-7.8598
▁במהלך	-7.86035
מות	-7.8623
▁די	-7.86292
▁הכי	-7.86577
פר	-7.86871
פה	-7.87103
▁הראשון	-7.87296
וס	-7.87354
קי	-7.87537
מר	-7.87903
אל	-7.88357
▁אותי	-7.89043
טר	-7.89625
▁אפילו	-7.89671
▁C	-7.89944
▁הזמן	-7.90137
▁האדם	-7.90461
▁חשוב	-7.90518
זה	-7.91319
o	-7.91487
▁שאתה	-7.91489
▁יודע	-7.91663
▁חיים	-7.91715
▁לש	-7.91795
▁בבית	-7.91916
▁אולי	-7.92129
לי	-7.92599
▁B	-7.92709
▁בא	-7.92969
▁הן	-7.93086
a	-7.93247
▁שי	-7.93286
▁בדרך	-7.93351
%	-7.94042
▁קו	-7.941
▁כלל	-7.94768
▁שזה	-7.94882
▁5	-7.94981
גר	-7.95098
▁החיים	-7.95422
▁פ	-7.95683
בו	-7.95699
▁באמצעות	-7.96559
2	-7.97141
פת	-7.97517
▁/	-7.98277
▁מקום	-7.98632
▁מן	-7.99788
וני	-8.00364
יד	-8.0059
3	-8.00682
▁שבו	-8.01236
גל	-8.01323
אי	-8.01383
וש	-8.01597
▁הנ	-8.01725
יט	-8.01774
▁שוב	-8.01786
▁היתה	-8.02244
▁קל	-8.0302
▁רוב	-8.03102
▁רוצים	-8.03496
▁M	-8.03555
▁להת	-8.03732
כל	-8.04019
▁מאז	-8.0413
כי	-8.04535
▁גדול	-8.04886
▁נגד	-8.05029
יל	-8.0503
▁שנ	-8.05079
▁P	-8.05234
כה	-8.05275
▁אינו	-8.0528
6	-8.05606
▁נו	-8.05625
0	-8.05649
▁ז	-8.05908
▁קשה	-8.05915
▁שהיא	-8.06145
▁ט	-8.06236
▁הא	-8.06573
יב	-8.06608
▁[	-8.06751
▁רב	-8.06792
די	-8.07145
▁אלו	-8.07853
וד	-8.07902
▁שתי	-8.08078
▁כפי	-8.08404
▁במקום	-8.08441
מד	-8.08477
▁מס	-8.08478
▁נראה	-8.08481
▁2	-8.08958
▁צריכים	-8.09018
▁דברים	-8.09356
5	-8.09626
▁כיצד	-8.10232
▁ספר	-8.10496
7	-8.10669
וב	-8.10924
▁לקבל	-8.10948
▁הראשונה	-8.11033
▁הייתי	-8.11541
▁הס	-8.11685
▁באות	-8.11795
▁19	-8.1186
▁הזו	-8.11968
▁וב	-8.12053
8	-8.12459
ווי	-8.12483
d	-8.12597
נק	-8.1277
▁בר	-8.13812
▁אלוהים	-8.14214
▁לפי	-8.14306
▁פחות	-8.14676
al	-8.14768
דו	-8.15269
▁האלה	-8.15546
▁החברה	-8.15726
▁10	-8.1578
▁ממש	-8.15828
▁ילדים	-8.16038
אר	-8.16185
קה	-8.16245
▁השני	-8.1626
▁כמעט	-8.16315
זר	-8.16372
שי	-8.16501
▁בלי	-8.16904
▁בן	-8.17118
▁יו	-8.17188
▁T	-8.17189
▁חדש	-8.174
▁D	-8.17413
קס	-8.1757
רה	-8.18039
▁הדבר	-8.18078
סי	-8.18976
שר	-8.19039
▁מידע	-8.1906
נת	-8.19088
פים	-8.19382
▁מר	-8.19473
4	-8.19657
er	-8.20522
ינו	-8.20547
טו	-8.21027
אן	-8.2111
צו	-8.21133
▁יכולה	-8.21286
▁הר	-8.21313
לא	-8.21543
i	-8.21557
C	-8.21763
▁F	-8.21835
▁שמ	-8.21871
▁עצמו	-8.21982
A	-8.22065
▁4	-8.22351
נט	-8.22389
▁שלה	-8.23462
”	-8.23484
▁שבה	-8.23522
▁),	-8.2361
▁ומ	-8.24222
▁עבודה	-8.2436
▁7	-8.24643
▁בתוך	-8.24728
▁8	-8.25271
▁נכון	-8.25316
▁כולל	-8.25451
▁המדינה	-8.25905
וט	-8.26059
▁העיר	-8.26262
▁הג	-8.26435
▁עושה	-8.26506
▁מיליון	-8.26958
▁בגלל	-8.27208
צי	-8.27358
u	-8.27452
▁לכן	-8.27859
קו	-8.27873
גו	-8.27975
▁לדעת	-8.28061
▁הברית	-8.28119
צר	-8.2815
▁בדיוק	-8.28263
▁הפ	-8.28478
▁שום	-8.28836
כת	-8.28889
▁הח	-8.28911
▁בזמן	-8.28933
▁רבות	-8.28998
▁ביום	-8.29015
▁אותך	-8.29102
▁לגבי	-8.29403
▁בלתי	-8.29598
▁מכל	-8.3046
אות	-8.30503
נית	-8.30521
▁6	-8.30573
▁גר	-8.30667
!	-8.30742
▁ים	-8.30937
▁למרות	-8.31027
▁מהם	-8.31324
▁G	-8.31431
נס	-8.31472
דה	-8.31566
▁למצוא	-8.31584
▁שונים	-8.3164
▁כולם	-8.31647
▁מתוך	-8.31827
▁שב	-8.31948
מן	-8.32038
▁E	-8.32444
re	-8.32617
ום	-8.32838
n	-8.33037
▁חושב	-8.33258
יפ	-8.34101
▁בעל	-8.34108
▁ראש	-8.34627
▁בעלי	-8.34932
וח	-8.34949
▁נמצא	-8.34969
ינה	-8.35186
▁תהיה	-8.35397
▁וגם	-8.35454
▁השנה	-8.35641
חל	-8.35976
▁במיוחד	-8.36184
▁מו	-8.36371
▁יחד	-8.36475
g	-8.3666
▁להשתמש	-8.36669
ויות	-8.367
▁קצת	-8.36961
▁מספיק	-8.3698
▁לכך	-8.37006
▁הזאת	-8.3724
מש	-8.37267
▁ואני	-8.37346
▁אחרת	-8.37496
חו	-8.37521
l	-8.3756
יהם	-8.3763
P	-8.3775
▁חי	-8.37854
▁סי	-8.38025
יג	-8.38136
נג	-8.38168
▁העבודה	-8.3824
▁וזה	-8.38311
▁הש	-8.38481
r	-8.38601
▁והוא	-8.3864
נד	-8.38765
▁ני	-8.38981
פל	-8.39092
ְ	-8.39298
D	-8.39391
ַ	-8.3948
▁יודעים	-8.39938
שו	-8.39958
9	-8.39987
בל	-8.40156
דר	-8.40311
וג	-8.40431
▁יי	-8.40819
▁1	-8.41114
▁קשר	-8.41394
▁לפחות	-8.4142
▁עליו	-8.41512
▁הע	-8.41567
▁כזה	-8.41985
▁ם	-8.42058
]	-8.42485
▁שר	-8.42489
זי	-8.42539
▁בצור	-8.43087
▁מעל	-8.43114
▁דולר	-8.43311
▁מנת	-8.43407
▁מלא	-8.43453
▁לדבר	-8.43804
▁מאשר	-8.44478
שם	-8.44673
פות	-8.44743
▁תוך	-8.45075
קר	-8.45344
▁בהם	-8.45398
ירה	-8.45451
c	-8.45464
▁הרי	-8.45721
▁מערכת	-8.45783
מצ	-8.45911
▁I	-8.45988
I	-8.46071
▁דו	-8.46089
▁כיום	-8.4649
איזה	-8.46605
▁הדברים	-8.46675
▁מצב	-8.46675
▁הבית	-8.46896
▁כסף	-8.47031
ונים	-8.47128
M	-8.47212
שת	-8.47215
▁מדוע	-8.47554
▁אור	-8.47634
▁שאנחנו	-8.47646
▁הדרך	-8.47731
ונות	-8.47806
▁פני	-8.47869
כים	-8.47878
▁הבא	-8.48288
עת	-8.48482
▁קר	-8.48504
▁החוק	-8.48611
▁ימים	-8.48708
▁בישראל	-8.49261
▁מישהו	-8.49268
▁שעות	-8.4934
▁L	-8.49648
▁אותנו	-8.49689
▁אר	-8.50132
▁להגיע	-8.50211
T	-8.50299
▁a	-8.5065
▁נשים	-8.50737
▁להבין	-8.508
in	-8.50852
טל	-8.509
▁בלבד	-8.50908
▁המו	-8.50991
קט	-8.51186
▁להי	-8.51211
▁טובה	-8.51228
▁?"	-8.5135
▁החל	-8.51634
E	-8.51819
▁N	-8.51932
▁איש	-8.52038
▁אש	-8.52124
▁שאתם	-8.52173
▁ברור	-8.52507
ּ	-8.52645
▁האי	-8.52713
סט	-8.52818
▁9	-8.52975
▁בעוד	-8.53032
▁מעט	-8.53039
מל	-8.53193
ָ	-8.53201
▁אינם	-8.53313
פס	-8.53503
▁עושים	-8.53679
רס	-8.53834
▁לקחת	-8.53922
▁בשביל	-8.54018
ינ	-8.54054
▁ית	-8.54112
▁לס	-8.54227
רג	-8.54408
ar	-8.54525
’	-8.54627
b	-8.54853
en	-8.54891
▁ואז	-8.55086
גן	-8.55387
כר	-8.55427
כן	-8.5559
▁הגדול	-8.55689
▁אחרות	-8.55867
▁כמובן	-8.56095
▁בנוסף	-8.5624
▁”	-8.56275
▁חייב	-8.56308
▁מכן	-8.56497
▁שימוש	-8.56745
▁ילד	-8.56841
▁למעשה	-8.57064
an	-8.57269
▁הארץ	-8.57423
S	-8.57662
▁רע	-8.57712
ונ	-8.58517
▁The	-8.58568
m	-8.58752
▁מזה	-8.59015
w	-8.59051
▁הללו	-8.59138
פור	-8.59192
פח	-8.5952
▁לעבוד	-8.59564
▁אינה	-8.59581
▁אצל	-8.59692
עו	-8.59707
לים	-8.59804
▁המת	-8.59973
▁תחת	-8.60028
▁האנשים	-8.6027
ִ	-8.60301
▁הממשלה	-8.60336
▁ללמוד	-8.60413
▁סוף	-8.60611
▁לתת	-8.60727
▁20	-8.60977
מא	-8.61113
▁לעולם	-8.61176
▁H	-8.61491
שה	-8.61719
▁אוהב	-8.61942
▁האו	-8.62002
▁פה	-8.6225
▁חיי	-8.62265
▁כתב	-8.63046
,000	-8.63248
▁of	-8.63419
▁כוח	-8.63871
▁סוג	-8.64012
▁בעיקר	-8.64191
/	-8.64356
בור	-8.64456
צה	-8.64458
▁טר	-8.64642
▁המשפט	-8.64681
רד	-8.64847
le	-8.64964
▁פעמים	-8.65138
▁נוסף	-8.65144
ירות	-8.65366
אף	-8.65411
L	-8.6573
▁R	-8.65766
▁שהיה	-8.66124
▁לעזור	-8.66254
O	-8.66276
▁מדובר	-8.66373
של	-8.66541
R	-8.66646
▁פר	-8.66751
or	-8.671
▁בשל	-8.67186
▁אולם	-8.67283
▁באתר	-8.6734
▁מול	-8.6744
▁בפני	-8.67478
▁האחרון	-8.67523
▁קודם	-8.67604
▁מחקר	-8.67661
▁לח	-8.67684
▁לומר	-8.67741
ינג	-8.68445
▁ומה	-8.68625
וז	-8.68669
▁יהיו	-8.68839
▁דקות	-8.68849
ידי	-8.68956
יח	-8.68979
ורה	-8.69013
זו	-8.69041
ונה	-8.6914
יז	-8.69145
▁תי	-8.69237
▁סביב	-8.69379
▁12	-8.69408
יי	-8.69679
דור	-8.69733
▁בכלל	-8.69796
▁פעולה	-8.69878
טה	-8.69964
▁הסרט	-8.69976
▁נא	-8.7012
▁רואה	-8.70134
▁15	-8.70177
▁גיל	-8.70182
B	-8.70195
יבה	-8.70205
▁מח	-8.70405
מור	-8.70459
▁השנים	-8.7052
▁הילדים	-8.70536
▁W	-8.70578
▁מחדש	-8.70786
▁ליצור	-8.70791
▁ספק	-8.70972
▁כה	-8.71333
▁בש	-8.71391
עד	-8.71558
▁גדולה	-8.71574
▁ככל	-8.71601
דע	-8.718
▁שלוש	-8.72007
▁עבר	-8.72128
▁באזור	-8.72279
▁הילד	-8.72401
ing	-8.72505
▁צריכה	-8.72567
על	-8.72655
▁מש	-8.72982
▁הגוף	-8.73234
נא	-8.73348
▁טיפול	-8.74079
▁ארה	-8.74252
קים	-8.74595
יני	-8.74885
אלי	-8.74923
▁לבית	-8.75039
ורד	-8.75127
▁נוספים	-8.75173
▁עשוי	-8.75186
▁הק	-8.75259
▁V	-8.75262
▁קרובות	-8.75778
וא	-8.75959
▁החדש	-8.75972
▁צורך	-8.76113
▁בתחום	-8.76167
▁עובד	-8.76286
▁שכל	-8.76298
▁עשר	-8.76326
▁כאלה	-8.7645
דות	-8.76468
▁30	-8.76494
▁כעת	-8.76796
▁שאין	-8.7682
▁חודשים	-8.76955
▁בכך	-8.76977
▁קרוב	-8.77076
חר	-8.77098
▁בטוח	-8.77141
▁חדשים	-8.77491
כח	-8.77605
▁למשל	-8.7765
יס	-8.7772
▁הצ	-8.77786
▁ידע	-8.77978
אם	-8.78229
קל	-8.78432
▁ממ	-8.78472
▁עצמי	-8.78494
▁שונות	-8.78534
▁מדינות	-8.7898
).	-8.79011
▁משום	-8.79188
▁מפני	-8.79373
▁שלושה	-8.79922
▁שינוי	-8.80048
▁ברחבי	-8.80133
סופו	-8.8018
סר	-8.80239
רח	-8.80482
ווה	-8.80484
▁קטן	-8.80511
סטר	-8.80513
פעם	-8.8098
▁מגיע	-8.81278
▁האמת	-8.81299
▁הטוב	-8.81499
ֶ	-8.81548
ינים	-8.81626
צב	-8.81719
▁לאורך	-8.81742
▁ללכת	-8.81751
▁ידוע	-8.81804
▁חברת	-8.81847
נר	-8.81854
▁."	-8.82035
▁18	-8.82169
▁קורה	-8.82258
▁משחק	-8.8232
▁שונה	-8.82333
p	-8.82355
▁בי	-8.82452
▁תש	-8.82708
הוא	-8.82891
▁הגיע	-8.82903
▁בשנה	-8.83146
▁סיפור	-8.8333
לט	-8.83343
▁11	-8.83382
▁קצר	-8.83383
▁בנושא	-8.83564
▁חבר	-8.83573
st	-8.83611
k	-8.83663
רט	-8.83831
וף	-8.84035
▁בקרב	-8.84128
▁לעתים	-8.84137
כב	-8.84179
▁בסדר	-8.84244
▁כגון	-8.84279
▁תפקיד	-8.84363
ראה	-8.84459
▁״	-8.84569
▁נשאר	-8.84594
▁the	-8.84826
▁נכנס	-8.84926
צל	-8.85399
טור	-8.8543
▁t	-8.85554
ra	-8.85588
▁מאד	-8.85659
▁שש	-8.8567
▁מא	-8.85789
▁לזה	-8.85795
▁ליד	-8.85969
▁לג	-8.86351
▁שאלה	-8.86443
▁קיבל	-8.86505
סוף	-8.86571
▁לשמור	-8.86805
▁שנת	-8.86838
▁b	-8.86879
קד	-8.86905
▁מעבר	-8.86931
כמה	-8.87017
▁גו	-8.8711
▁ולכן	-8.87217
▁בתי	-8.87684
▁O	-8.8778
▁זהו	-8.87868
▁חדשה	-8.87964
▁ארצות	-8.87968
-19	-8.88042
▁להשיג	-8.88084
▁המצב	-8.88099
אס	-8.88255
יא	-8.88342
▁חסר	-8.88466
▁לפעמים	-8.88569
הן	-8.88638
▁מיד	-8.88684
▁גבוה	-8.88699
פול	-8.8876
▁מצד	-8.88793
▁מצא	-8.88843
▁רכב	-8.89103
רמה	-8.89139
־	-8.89199
▁מאות	-8.89436
▁לקרוא	-8.89482
▁להפוך	-8.89497
אנחנו	-8.89501
▁מתי	-8.89517
▁יוצא	-8.89589
▁ממנו	-8.89679
▁מתחיל	-8.89887
▁רגע	-8.89929
▁”.	-8.90088
G	-8.90148
טון	-8.90154
▁בידי	-8.90486
▁שאינ	-8.90495
שים	-8.90513
▁קול	-8.90612
▁לשנות	-8.90888
▁p	-8.91015
▁בס	-8.91095
▁in	-8.91139
▁עובדים	-8.91179
▁פעילות	-8.91276
▁שנות	-8.91287
▁בעיר	-8.913
▁הלב	-8.91345
▁המשחק	-8.91362
▁שא	-8.91397
▁יצא	-8.91446
▁בגיל	-8.91448
ייה	-8.91462
on	-8.91663
▁היחיד	-8.91705
▁מק	-8.91782
▁לחלוטין	-8.91815
▁בעבר	-8.91876
▁תו	-8.91992
▁חברות	-8.92206
▁מקור	-8.92267
בד	-8.92346
▁לבצע	-8.92462
▁זכויות	-8.92552
▁לבין	-8.92809
▁שאנו	-8.92912
▁רי	-8.92925
▁כנראה	-8.92967
▁17	-8.93007
ורג	-8.93062
ic	-8.93142
▁בחיים	-8.93178
▁מאפשר	-8.93399
▁לחשוב	-8.93506
▁המחקר	-8.93631
▁חוק	-8.93656
▁לחיות	-8.93663
▁K	-8.93796
חות	-8.93928
צים	-8.93951
▁מקוו	-8.94039
▁בסוף	-8.94151
▁אישי	-8.94234
אט	-8.9426
מע	-8.9429
▁סט	-8.94333
▁לע	-8.94399
▁יד	-8.9446
▁כאילו	-8.94497
▁סו	-8.94702
▁תוכנית	-8.94823
▁לבד	-8.94919
▁עבד	-8.94982
▁מאוחר	-8.95112
el	-8.95164
▁לכ	-8.95298
▁רוח	-8.95406
▁רואים	-8.95414
▁וכל	-8.95522
▁הז	-8.9554
00	-8.95665
יון	-8.95896
▁במקרה	-8.96076
בע	-8.96121
▁הולך	-8.96135
▁c	-8.96161
▁אוכל	-8.962
נח	-8.96342
▁16	-8.96593
▁השנייה	-8.96938
▁אמור	-8.97014
▁הנה	-8.97069
סק	-8.97069
▁n	-8.97409
▁אליו	-8.97491
▁i	-8.97495
▁המשפחה	-8.97593
▁עו	-8.97662
▁נולד	-8.97668
▁משנה	-8.97677
▁זר	-8.97794
▁תודה	-8.9797
▁עלול	-8.98095
▁שמו	-8.98473
F	-8.98512
▁מדבר	-8.98585
▁בעיות	-8.98652
▁התא	-8.98695
▁טבעי	-8.9871
▁13	-8.98717
▁האל	-8.98756
▁יהודים	-8.98796
▁כלפי	-8.98886
▁פו	-8.98931
▁מקבל	-8.98944
▁נס	-8.98974
N	-8.99035
▁נש	-8.99035
▁מרגיש	-8.99123
רצ	-8.993
מען	-8.99312
ri	-8.9949
▁והיא	-8.99762
▁טובים	-8.99876
▁האחרונות	-8.99928
▁פור	-8.99929
▁משרד	-9.00041
▁עלינו	-9.00329
▁השאלה	-9.00415
כס	-9.00568
▁0	-9.00568
▁יורק	-9.00604
▁המידע	-9.00678
נן	-9.00709
▁אמיתי	-9.0071
▁אפשרי	-9.00777
אה	-9.00945
▁אמרה	-9.00976
▁מבין	-9.01101
▁משמעותי	-9.01103
it	-9.01153
▁במצב	-9.01271
▁איפה	-9.01308
▁אתכם	-9.01352
▁הדו	-9.016
סון	-9.01654
▁דר	-9.01781
ֵ	-9.01922
▁מהר	-9.01928
▁גבוהה	-9.02092
▁ארבע	-9.02148
ילה	-9.02161
▁משתמשים	-9.02217
ed	-9.02299
▁עי	-9.02372
▁מדינה	-9.02481
H	-9.02505
▁רבה	-9.02555
▁לבחור	-9.0271
▁כלומר	-9.02801
▁עצמה	-9.02912
▁m	-9.02999
▁חדשות	-9.03037
▁שירות	-9.03242
גור	-9.03283
▁נוספת	-9.03521
וצ	-9.03663
▁ויש	-9.03742
at	-9.04019
▁ואם	-9.04239
▁בריאות	-9.0429
▁אנ	-9.04297
▁מעולם	-9.04309
וּ	-9.04353
ייתכן	-9.04457
▁לוקח	-9.04502
בק	-9.04559
▁מל	-9.04602
▁והם	-9.04641
▁מג	-9.04774
▁יהודי	-9.04884
▁d	-9.04905
עים	-9.05009
▁האתר	-9.05038
▁14	-9.05092
▁להתחיל	-9.05199
עמ	-9.0523
▁נושא	-9.05449
▁מחוץ	-9.0547
▁טי	-9.05476
▁חברים	-9.05481
▁תלוי	-9.05549
▁בעיה	-9.05649
▁הסיפור	-9.05715
▁דומה	-9.05743
▁חש	-9.05783
יץ	-9.05841
▁הכוח	-9.05849
▁עולם	-9.05903
▁עליהם	-9.06117
▁לחזור	-9.06156
סד	-9.06171
▁אנשי	-9.06303
▁e	-9.0657
▁עצמם	-9.06621
▁המקום	-9.06623
▁בעת	-9.06629
▁הפעם	-9.06645
▁בעקבות	-9.06834
זוהי	-9.07113
יך	-9.07128
▁משמעות	-9.07212
▁מע	-9.07295
▁אומרים	-9.07389
פא	-9.07415
▁יפה	-9.07575
▁אהבה	-9.07591
▁בארה	-9.07619
▁חייבים	-9.07642
▁כדור	-9.07744
V	-9.07752
▁לגרום	-9.07753
ולי	-9.07806
▁הבעיה	-9.0781
▁נתונים	-9.07836
▁מנהל	-9.07962
▁שמע	-9.0815
▁חוקי	-9.0816
▁קשור	-9.08184
רון	-9.08261
חק	-9.08471
מט	-9.08486
▁הגדולה	-9.0853
▁הרב	-9.08604
▁להמשיך	-9.08647
▁בהחלט	-9.08658
▁אומרת	-9.08667
עוד	-9.08698
מדינות	-9.08714
▁טו	-9.08883
▁אד	-9.08929
פתח	-9.08991
▁ככה	-9.09011
אור	-9.09082
▁קרה	-9.09125
▁משתמש	-9.09183
▁הסיבה	-9.09223
פט	-9.0925
▁ועד	-9.09486
אתה	-9.0973
נטי	-9.09743
▁נוצר	-9.09804
▁כללי	-9.09813
סל	-9.09838
יקה	-9.0987
אק	-9.0989
▁r	-9.10002
▁o	-9.10076
▁להתמודד	-9.10109
▁תהליך	-9.10147
▁גברים	-9.10228
▁גדל	-9.10287
▁J	-9.10385
z	-9.10528
▁לתוך	-9.10834
▁שבע	-9.10868
▁וכן	-9.11002
▁לעומת	-9.11022
ch	-9.11024
il	-9.11062
▁היינו	-9.11174
▁העם	-9.11355
▁בהתאם	-9.11359
▁ניו	-9.11359
▁לנ	-9.11463
▁בשלב	-9.11597
לס	-9.11617
▁תוכל	-9.11627
ישנם	-9.11629
▁פרי	-9.11969
▁קיים	-9.11984
▁האינטרנט	-9.12013
מון	-9.12098
▁הנשיא	-9.12139
גדל	-9.12172
ורי	-9.12192
us	-9.12217
▁לאנשים	-9.12231
▁פרק	-9.12244
▁בחיי	-9.12263
▁פול	-9.12351
▁ברגע	-9.12456
▁לגמרי	-9.12458
▁תוכלו	-9.12559
ואה	-9.12599
▁כדאי	-9.12718
▁האוויר	-9.12799
▁סרט	-9.128
▁באו	-9.12842
▁בארץ	-9.12846
▁נקרא	-9.12913
▁צפוי	-9.1305
▁מיליארד	-9.13135
▁מחיר	-9.13269
▁ערך	-9.13314
▁אס	-9.13324
ad	-9.13357
פש	-9.13406
▁השבוע	-9.13486
▁ראשון	-9.13529
▁כוחות	-9.13575
כנס	-9.13639
ur	-9.13647
▁ועוד	-9.137
▁חזק	-9.13788
▁מציע	-9.13825
▁הקו	-9.1397
▁*	-9.14008
עבור	-9.14148
▁U	-9.14152
▁נחשב	-9.14483
▁הכול	-9.14557
▁עמד	-9.14588
▁אותן	-9.14646
▁גל	-9.14667
▁לספק	-9.1467
▁האחרונה	-9.14715
שות	-9.1482
▁היהודים	-9.14829
▁בד	-9.14844
יכולת	-9.15025
עבד	-9.15047
▁היית	-9.15102
▁בראש	-9.15111
אד	-9.15173
▁זי	-9.1536
▁המלחמה	-9.15374
et	-9.15624
▁עסק	-9.1593
▁l	-9.15959
▁בתור	-9.16037
יף	-9.16104
▁השימוש	-9.16106
▁בסיס	-9.16161
לב	-9.16411
▁שמח	-9.16438
▁מצ	-9.16521
▁לצאת	-9.16532
▁לשחק	-9.16569
▁40	-9.16596
▁ימי	-9.16723
ערך	-9.16769
▁עניין	-9.16831
▁שהיו	-9.1686
▁חומר	-9.16939
▁הציבור	-9.16983
▁למנוע	-9.17016
הופך	-9.17042
▁חל	-9.17124
▁להגיד	-9.17129
▁להביא	-9.1713
▁נעשה	-9.17166
▁לכתוב	-9.17215
▁בחו	-9.1723
la	-9.17558
▁צו	-9.17671
▁אלף	-9.17694
▁החדשה	-9.17813
▁חדר	-9.17864
בול	-9.18007
▁מאחורי	-9.18132
▁תת	-9.18171
▁לאכול	-9.18195
יין	-9.18247
רש	-9.18296
▁בשנים	-9.1835
▁נמצאים	-9.18367
▁מוצא	-9.18461
וֹ	-9.18719
▁]	-9.18753
▁שהו	-9.18843
▁תוצאות	-9.18915
▁מזון	-9.18945
▁משפחה	-9.19012
▁העסק	-9.19301
▁דעת	-9.19369
f	-9.19389
▁סל	-9.19393
▁בשבוע	-9.1941
▁מתחת	-9.19417
▁המאה	-9.19431
▁בחודש	-9.19443
▁קי	-9.19459
▁הבריאות	-9.19489
▁רפואי	-9.19728
▁ארגון	-9.19916
ציה	-9.20156
ירת	-9.2018
ll	-9.20186
▁מיוחד	-9.20191
ִי	-9.20207
▁and	-9.20238
▁שלום	-9.20256
▁חברי	-9.20263
is	-9.20395
▁יצירת	-9.20452
▁עליך	-9.2056
▁חודש	-9.20677
▁חמש	-9.20725
▁מסוגל	-9.20748
▁!"	-9.20809
קבל	-9.20909
▁שבוע	-9.20917
▁מתח	-9.20973
▁היהודי	-9.21018
es	-9.21077
▁לשם	-9.21177
▁שיכול	-9.21199
▁הבינלאומי	-9.21299
▁50	-9.21482
▁מלחמת	-9.21504
▁מאי	-9.2151
▁אח	-9.21522
אין	-9.21574
▁הכר	-9.21621
▁מנסה	-9.21804
▁נשיא	-9.2191
▁גישה	-9.21986
▁Re	-9.22067
▁בג	-9.22132
גה	-9.22271
▁חברה	-9.2242
רע	-9.2246
▁מכ	-9.22482
▁היטב	-9.22537
▁לקנות	-9.2259
▁עומד	-9.2263
▁באינטרנט	-9.22765
מנות	-9.22783
▁המר	-9.22863
▁בעיני	-9.22909
ביט	-9.22915
▁בל	-9.22978
▁אמא	-9.22994
▁פרו	-9.23132
סטי	-9.23319
▁מדינת	-9.2336
ניות	-9.23376
איחוד	-9.23404
▁מערכ	-9.23472
▁עסקים	-9.23607
יזם	-9.2372
▁מור	-9.23964
▁גבר	-9.23981
▁העבר	-9.24014
▁המס	-9.24023
מרחק	-9.24105
▁לפעול	-9.24116
נש	-9.24123
▁נח	-9.24195
▁כאב	-9.24249
תקופה	-9.24384
▁הטיפול	-9.24391
▁מכך	-9.2453
▁כולנו	-9.2453
▁יכולת	-9.24538
▁חול	-9.24574
▁אירופה	-9.24634
▁יתר	-9.24637
▁קבוע	-9.24759
▁•	-9.2476
ter	-9.24839
▁f	-9.24864
▁עשו	-9.24906
▁הטבע	-9.24936
▁עשה	-9.25026
ניתן	-9.25046
נוס	-9.25126
▁חושבים	-9.2517
▁שאלות	-9.25185
▁במהירות	-9.25282
▁w	-9.25283
כש	-9.25355
▁למעלה	-9.2557
▁בכ	-9.25893
▁הבאה	-9.25933
▁קור	-9.26003
גדר	-9.26004
▁חד	-9.26139
▁לד	-9.26144
▁תמונות	-9.2617
U	-9.26223
▁ממה	-9.26254
▁''	-9.26307
▁שאל	-9.26435
▁חוסר	-9.26573
▁זוג	-9.26615
שום	-9.26619
▁למי	-9.26676
▁פרס	-9.26684
לק	-9.26764
▁דרכים	-9.26802
כדי	-9.26932
▁25	-9.27027
▁לעיתים	-9.27063
▁אחוז	-9.27121
▁לוח	-9.27203
▁רחב	-9.2721
▁עיר	-9.27399
▁24	-9.274
▁מבלי	-9.27414
▁יודעת	-9.2742
▁להרגיש	-9.27478
נוגע	-9.27562
▁אכן	-9.27603
ol	-9.2767
▁אישה	-9.27728
▁מדיניות	-9.27792
▁זכות	-9.27808
▁מסוימים	-9.27826
ro	-9.27835
עמד	-9.28018
▁הנתונים	-9.28157
▁בחר	-9.2816
▁נשמע	-9.28206
▁אלפי	-9.28216
▁עולה	-9.28269
▁מכיוון	-9.28284
▁הזדמנות	-9.28369
אז	-9.28383
▁שיר	-9.28512
נז	-9.2872
▁היחידה	-9.28776
▁הראשונים	-9.28895
▁מאמין	-9.28903
▁צל	-9.28911
▁מוביל	-9.28984
▁אמריקה	-9.293
▁לספר	-9.29353
▁להיכנס	-9.29463
יום	-9.29556
▁השם	-9.29611
מני	-9.29631
▁ניהול	-9.29667
מנו	-9.29699
▁בעצם	-9.29712
▁קרא	-9.29731
te	-9.29749
גש	-9.29771
▁יקר	-9.29946
▁המחשב	-9.29963
am	-9.30055
▁טראמפ	-9.3006
▁ביחד	-9.30061
▁er	-9.30142
▁במיד	-9.30197
▁דין	-9.30314
▁נפש	-9.30353
▁פנים	-9.30362
▁צוות	-9.30451
▁הפך	-9.30517
▁ממשלת	-9.30652
▁לקוחות	-9.30787
ֹ	-9.3089
▁ההיסטוריה	-9.31099
▁רחוק	-9.31169
▁הביתה	-9.31263
▁הקשר	-9.31279
▁השיר	-9.31279
▁לחץ	-9.31428
▁טבע	-9.31517
▁רו	-9.31575
▁ערב	-9.31581
▁עשויים	-9.31582
חזק	-9.31605
▁כלי	-9.31642
▁פל	-9.31644
▁הביטחון	-9.31663
מנים	-9.31704
▁השו	-9.31753
▁אוהבים	-9.31763
▁'.	-9.31767
▁האירופי	-9.31801
▁הנושא	-9.31935
▁קוד	-9.31959
▁סיבה	-9.32045
▁להישאר	-9.3209
un	-9.32118
▁לעבור	-9.32191
גנ	-9.32199
▁מרכז	-9.32244
▁אלי	-9.32281
▁בזה	-9.32284
שתמש	-9.32304
▁סביר	-9.32329
▁לראשונה	-9.32345
▁לבנות	-9.32347
▁החלו	-9.32401
▁במדינה	-9.32436
▁איתו	-9.32445
▁חופש	-9.3246
▁בואו	-9.32477
▁אבי	-9.32482
▁החלק	-9.32587
▁בארצות	-9.32618
נצל	-9.32728
▁מדברים	-9.32745
▁ירושלים	-9.32747
שאר	-9.32787
▁סין	-9.3286
▁דורש	-9.32866
▁הישראלי	-9.32938
▁מקרה	-9.33103
▁דווקא	-9.33157
▁שלישי	-9.3319
▁מבט	-9.33333
▁g	-9.33382
מאה	-9.33389
▁אתר	-9.33395
▁חמ	-9.33496
▁קט	-9.33567
▁מסר	-9.33593
▁פעיל	-9.33599
דל	-9.33607
▁המדינות	-9.33666
▁האמיתי	-9.33824
▁אמרתי	-9.33947
▁התעופה	-9.33982
▁—	-9.33991
▁דם	-9.34045
▁פתוח	-9.34131
▁שיהיה	-9.34134
▁משו	-9.34275
▁הלאומי	-9.34356
▁גורם	-9.34365
▁אזור	-9.34436
▁אינ	-9.34581
מס	-9.34596
▁יה	-9.34756
as	-9.34879
זכר	-9.34917
▁מאמינים	-9.34934
▁השת	-9.34942
ce	-9.35164
▁נדרש	-9.35165
▁המחיר	-9.35249
▁לילדים	-9.3539
עלה	-9.35414
▁הרכב	-9.35472
נצ	-9.35496
▁מסוג	-9.35498
תחיל	-9.35561
ודי	-9.35604
▁עליה	-9.35613
▁להגן	-9.35615
▁הקל	-9.35643
נתן	-9.35673
▁to	-9.35785
▁לקח	-9.35906
▁קטנה	-9.3601
▁ן	-9.36039
▁איראן	-9.36048
▁האב	-9.36098
טא	-9.36363
▁יכולות	-9.36438
פנה	-9.36483
▁לשמוע	-9.3664
▁אילו	-9.36659
▁אנרגיה	-9.36719
▁לשלם	-9.37068
▁קרי	-9.37076
▁מיני	-9.37125
▁ער	-9.37304
▁לדוגמה	-9.37335
▁מוצרים	-9.37369
▁עוזר	-9.37395
▁גדולים	-9.37592
עשה	-9.37753
▁דיבר	-9.37765
▁השתמש	-9.37779
חזור	-9.37796
▁המטרה	-9.37801
▁שווה	-9.37871
▁מסוים	-9.37873
▁לצד	-9.37873
-20	-9.37878
▁אבא	-9.37892
▁מספק	-9.37977
מתי	-9.38063
▁הכסף	-9.38069
▁איכות	-9.38164
בחר	-9.38174
▁שטח	-9.38237
▁לנסות	-9.38248
▁מכיר	-9.38333
▁לחו	-9.38403
יית	-9.38408
▁שאר	-9.38505
W	-9.3851
סו	-9.38512
אלוהים	-9.38539
שור	-9.38601
▁תל	-9.38653
▁ניסיון	-9.38908
▁אמת	-9.38998
▁צי	-9.3902
▁באירופה	-9.39079
▁הנוכחי	-9.39127
▁לישראל	-9.39147
▁חופשי	-9.39148
▁ראוי	-9.39183
▁מלחמה	-9.39198
▁מופיע	-9.39259
▁האיש	-9.39267
▁אמ	-9.39445
חשבתי	-9.39491
▁לאחרונה	-9.39539
ia	-9.39701
מנה	-9.39776
▁עקב	-9.39811
▁בסרט	-9.39888
תמיד	-9.39957
▁הדין	-9.40077
בטח	-9.40142
lo	-9.40144
▁צעד	-9.40226
▁שבועות	-9.40255
▁התינוק	-9.40257
▁קטנים	-9.40316
▁סיפר	-9.40359
ניים	-9.40386
▁הצי	-9.40438
▁וכך	-9.40521
▁נוספות	-9.40542
▁הקשור	-9.40571
▁האזור	-9.40606
▁ארוח	-9.40677
▁קבוצה	-9.40698
אדם	-9.40714
▁העובדה	-9.40733
שוב	-9.40837
▁חזר	-9.40942
▁הצליח	-9.40998
▁הבנק	-9.41005
▁תקופה	-9.41243
▁X	-9.41322
▁אישית	-9.41405
▁צעיר	-9.41423
ימי	-9.41465
▁כותב	-9.41556
▁נוט	-9.41588
תואר	-9.41621
▁שחור	-9.41802
ילד	-9.41829
▁בנ	-9.41879
▁חצי	-9.41949
▁האור	-9.41963
▁באמצע	-9.42024
קוד	-9.42058
▁המערכת	-9.42161
ייצר	-9.42182
▁מתו	-9.42212
▁המוח	-9.42274
▁הלא	-9.4256
אג	-9.42618
▁עצמך	-9.42627
▁דיווח	-9.42779
גיע	-9.4278
קנה	-9.42781
▁הדי	-9.42813
▁עסקי	-9.42838
▁מוכן	-9.43
▁כלום	-9.4306
▁אוויר	-9.43193
▁במה	-9.43199
▁כמות	-9.43219
▁המח	-9.43262
ימה	-9.43563
▁פרטי	-9.43796
▁ההת	-9.43832
תוצאה	-9.43949
▁חר	-9.44185
▁אמרו	-9.44363
▁מקצועי	-9.4439
▁כיוון	-9.44396
▁In	-9.44401
▁מזו	-9.44435
▁שינויים	-9.44449
▁שצריך	-9.44603
▁2015	-9.44608
▁ארבעה	-9.44657
רא	-9.44901
▁ך	-9.44911
▁הטובה	-9.45
▁לחבר	-9.4503
▁כזו	-9.45095
שמר	-9.45115
▁בלב	-9.45141
▁החולים	-9.45172
▁מעניין	-9.45174
רבים	-9.45216
הפוך	-9.45236
▁לעמוד	-9.45288
▁באי	-9.45576
▁יחיד	-9.45589
th	-9.45642
▁אודות	-9.45648
▁ונ	-9.45663
▁אוהבת	-9.45726
ut	-9.45751
▁מעשי	-9.45781
▁ראיתי	-9.45861
ונג	-9.45905
▁השלישי	-9.46012
ולוגי	-9.46046
ונית	-9.46096
▁הבאים	-9.4613
▁עובר	-9.46144
גבר	-9.46156
▁פתרון	-9.46209
▁נבחר	-9.46293
ואי	-9.46324
כיר	-9.46651
▁ספ	-9.46768
▁פחד	-9.46793
תחום	-9.46809
בנה	-9.46916
▁בבוקר	-9.46936
▁פס	-9.4694
▁אליה	-9.47021
חוק	-9.47067
▁השפעה	-9.47107
▁הקבוצה	-9.47114
▁משמש	-9.47137
▁שגם	-9.47145
▁הפר	-9.47239
משיך	-9.47288
▁שאי	-9.47308
ארי	-9.47338
קור	-9.47351
li	-9.47491
h	-9.475
▁תשומת	-9.47563
▁האחרונים	-9.47573
▁רגיל	-9.47597
▁איזו	-9.47635
מק	-9.47717
▁h	-9.47749
▁תמיכה	-9.47933
▁הגיעו	-9.47937
▁»	-9.48078
▁מורכב	-9.4813
▁פא	-9.48133
▁הסכם	-9.48193
▁צעירים	-9.48196
▁הלילה	-9.48251
▁ורק	-9.48303
▁הופכ	-9.48329
▁מלאה	-9.48338
▁ממנה	-9.48339
▁מבחינת	-9.48375
▁קבוצת	-9.48394
▁כתוצא	-9.48431
▁St	-9.48464
מיד	-9.48532
לם	-9.48579
▁משפט	-9.48735
▁בעתיד	-9.48829
▁התשובה	-9.48836
▁ביחס	-9.48848
se	-9.48859
צורה	-9.48886
▁מבחינה	-9.48903
▁תר	-9.48948
▁לרוב	-9.48951
הניח	-9.48985
▁בעזרת	-9.48996
▁התיכון	-9.49003
ברי	-9.49045
טרי	-9.49101
-3	-9.49128
▁ביקש	-9.49194
דג	-9.49231
▁לשפר	-9.49265
▁סוגי	-9.4938
▁קמ	-9.49389
▁בשוק	-9.49417
▁הרע	-9.49481
▁ביצוע	-9.49482
▁2014	-9.49483
▁אג	-9.49582
דף	-9.49688
צוות	-9.49712
▁האלו	-9.49725
▁מילים	-9.49732
▁המלא	-9.49779
▁1.	-9.49829
בוא	-9.49848
▁מנ	-9.49887
יצו	-9.49945
ואר	-9.49972
▁לאור	-9.49986
▁משת	-9.50065
▁במרכז	-9.50141
ימו	-9.50195
▁קבוצות	-9.50224
▁נקודות	-9.50252
בית	-9.50266
▁חזרה	-9.5039
▁הארגון	-9.50406
▁רווח	-9.50503
▁מעמד	-9.50508
▁שעבר	-9.50572
▁בקלות	-9.50641
▁נד	-9.50686
▁שעה	-9.50696
▁קורא	-9.50705
▁בדבר	-9.50808
כך	-9.5081
אב	-9.5083
עבוד	-9.50842
▁המשטרה	-9.50866
▁מקבלים	-9.50941
▁מבוסס	-9.51043
▁מכיל	-9.51046
נע	-9.51062
▁הרוח	-9.5108
▁צר	-9.51106
▁התוכנית	-9.5112
▁עליי	-9.51162
▁רשת	-9.51198
ספק	-9.51241
▁ייחודי	-9.51266
▁לגלות	-9.51325
▁בהן	-9.51375
פתי	-9.51392
▁תרופות	-9.51455
▁ing	-9.51463
▁מרכזי	-9.51501
▁תכנית	-9.51675
▁ההבדל	-9.5176
▁המלך	-9.51762
▁שוק	-9.51885
▁ספרים	-9.51942
▁להק	-9.52115
▁התחיל	-9.52172
▁תור	-9.52212
▁לקראת	-9.52273
יסט	-9.52322
▁הורי	-9.52479
▁אנושי	-9.52483
יפו	-9.5249
▁אמי	-9.52507
▁לאדם	-9.52529
▁חולים	-9.52604
▁תמונה	-9.52608
▁יצר	-9.52636
מציא	-9.52707
▁מוקדם	-9.52746
▁יא	-9.5282
▁בחלק	-9.52866
ייר	-9.52883
▁הפכ	-9.529
▁|	-9.52978
▁למקום	-9.5302
סייע	-9.53027
▁הצבא	-9.53074
▁מאו	-9.53122
▁מאת	-9.53344
▁החומר	-9.53344
▁מגיעים	-9.53389
▁עבודת	-9.53558
▁שומר	-9.53573
ייט	-9.53576
▁ספורט	-9.53664
▁מפתח	-9.53688
▁חוץ	-9.53732
▁הקר	-9.53759
▁נער	-9.53759
▁הקהילה	-9.5376
▁דוד	-9.53793
▁מאחר	-9.53835
▁.”	-9.5393
▁השמש	-9.54094
▁ארוך	-9.54099
▁נוח	-9.54136
▁האש	-9.54158
▁נותן	-9.54196
▁100	-9.542
▁בתחילת	-9.5429
▁אזרחי	-9.54353
קול	-9.54361
▁צרפת	-9.54371
▁ראה	-9.54377
▁ההורים	-9.54429
▁חושבת	-9.54537
▁ניתוח	-9.54616
▁אסטרטגי	-9.54681
▁מראש	-9.54725
▁צבע	-9.54728
▁עמוק	-9.54801
▁החי	-9.54807
ילי	-9.54869
▁שאפשר	-9.54914
▁לפתח	-9.54985
▁לבדוק	-9.55051
▁ולאחר	-9.55116
▁כר	-9.55178
טים	-9.55254
חקר	-9.55267
▁2017	-9.55284
▁בתו	-9.55348
ניק	-9.55372
▁שאינם	-9.55438
אילו	-9.55468
▁במאי	-9.55486
▁הגבוה	-9.55518
▁2018	-9.55626
▁כולו	-9.5563
▁ואפילו	-9.5563
▁בחדר	-9.55634
▁האמריקאי	-9.55663
ופק	-9.55753
רציתי	-9.559
▁נכתב	-9.55901
▁קיימת	-9.5592
um	-9.55936
עורר	-9.55975
▁לפ	-9.56088
▁בריא	-9.56128
▁אסור	-9.56211
ry	-9.56234
▁להבטיח	-9.56245
▁משפיע	-9.5632
▁אינטרנט	-9.56327
▁נזק	-9.5633
▁מצוי	-9.56398
כולם	-9.56509
טיס	-9.56573
▁דמי	-9.56619
▁לבקר	-9.56658
▁מרי	-9.56725
▁שכן	-9.56751
▁נע	-9.56809
▁מצליח	-9.56825
▁מחפש	-9.56868
▁האנושי	-9.56869
▁מגוון	-9.56891
▁נשק	-9.56924
נצח	-9.56927
▁ההר	-9.57
אנו	-9.57063
▁מחר	-9.57073
▁יוצר	-9.57107
▁המון	-9.5713
▁הראשי	-9.57133
▁ביקור	-9.57177
▁בינואר	-9.57182
▁ויותר	-9.57196
▁רוסיה	-9.57332
אנשים	-9.57436
▁תוכניות	-9.57562
com	-9.57612
▁יקרה	-9.57663
▁היכ	-9.57666
▁בנק	-9.5767
▁היסטורי	-9.57677
▁ואמר	-9.5768
▁מתרחש	-9.57716
▁בשני	-9.57755
▁2013	-9.57879
▁סיכוי	-9.57887
▁להר	-9.58018
▁בנו	-9.58037
▁מבצע	-9.58104
▁מביא	-9.58271
▁עזרה	-9.58305
יסטי	-9.58315
▁יחסים	-9.58331
▁מוח	-9.58351
▁בערך	-9.58397
▁מתאים	-9.584
▁פיתוח	-9.5841
ניסיון	-9.58455
▁זקוק	-9.58592
▁בחברה	-9.586
▁העיקרי	-9.58613
▁מושג	-9.58638
מונ	-9.58652
מסגרת	-9.58656
▁משחקים	-9.58701
▁60	-9.58826
▁מוט	-9.58844
▁מאיתנו	-9.58943
סמוך	-9.58968
▁משא	-9.58982
▁בצד	-9.59009
▁’	-9.59033
▁להעביר	-9.59058
▁עיני	-9.59077
רוח	-9.5908
▁יושב	-9.59088
פשט	-9.59089
▁ראו	-9.59191
▁עזר	-9.59329
▁לשימוש	-9.59389
עור	-9.59393
▁גרוע	-9.59406
20	-9.59432
שיח	-9.59504
איר	-9.59525
▁מרא	-9.59682
K	-9.59707
פורסם	-9.59732
▁מוכנים	-9.59846
דון	-9.59874
▁הכלכלי	-9.59919
▁הנכון	-9.59931
▁המוצר	-9.59948
איכות	-9.60005
▁דור	-9.60094
▁21	-9.60101
▁היחסים	-9.60151
▁לשעבר	-9.60185
יבי	-9.60229
לנד	-9.60248
▁לאפשר	-9.60329
▁חייו	-9.60379
שמע	-9.6039
ולה	-9.6039
▁מיל	-9.60455
v	-9.60509
השוואה	-9.60548
▁חמור	-9.60564
פנות	-9.60568
▁בספר	-9.6059
▁בלילה	-9.60604
▁ענק	-9.60605
▁יח	-9.60691
▁מקצוע	-9.60801
▁שאם	-9.60885
▁העובדים	-9.60907
▁כבוד	-9.60914
▁2012	-9.60914
▁תקשורת	-9.60962
▁נפרד	-9.61186
כנות	-9.61195
▁$	-9.61226
▁שאנשים	-9.61243
▁מבקש	-9.61264
▁הבר	-9.61403
▁חשב	-9.6145
▁אחריות	-9.61499
▁העתיד	-9.61579
▁ראשית	-9.61635
om	-9.61717
▁הגדולים	-9.61726
▁חג	-9.61737
▁35	-9.61767
קע	-9.61767
▁ברשת	-9.61774
ent	-9.61823
▁נג	-9.61902
קרא	-9.61933
▁טרי	-9.61981
▁האחרים	-9.62021
▁עשיר	-9.62031
▁גורמים	-9.62071
▁שיעור	-9.62145
משהו	-9.62177
▁ריק	-9.62178
▁חינוך	-9.62178
▁טרור	-9.62202
▁במקר	-9.62218
▁האישי	-9.62256
▁העולמי	-9.6231
▁ואין	-9.62321
▁מחפשים	-9.62378
▁מחבר	-9.62418
▁נמצאת	-9.62541
▁התנהגות	-9.62567
id	-9.6257
▁נאמר	-9.62573
▁לנצח	-9.62594
▁למד	-9.62621
▁בקר	-9.62654
▁הטובים	-9.62688
▁הצורך	-9.62729
▁גוף	-9.62823
▁משנת	-9.62838
הוסיף	-9.62858
ינס	-9.62863
▁רמת	-9.62908
▁מסוגלים	-9.62934
▁מדעי	-9.62948
▁כמ	-9.62987
תמיכה	-9.63045
▁החינוך	-9.63096
▁העליון	-9.63122
▁תרבות	-9.63147
▁ביקורת	-9.63159
▁איננו	-9.63198
▁סופר	-9.63237
נשים	-9.63239
▁שנמצא	-9.63282
רופ	-9.63288
▁לזכור	-9.6347
▁בע	-9.63475
▁כלכלי	-9.63483
הפך	-9.63519
▁כרגע	-9.63622
ta	-9.63644
▁נותנ	-9.63751
ימת	-9.63799
▁2011	-9.63837
▁אמנות	-9.63847
▁2010	-9.63848
▁רצון	-9.63907
נל	-9.63915
לבד	-9.63921
▁החלטה	-9.64024
▁תא	-9.64071
סור	-9.64085
▁גרמניה	-9.64096
▁ברי	-9.64097
▁השל	-9.641
▁מט	-9.64111
▁אחי	-9.64198
סוג	-9.64274
ma	-9.64307
▁גור	-9.64324
▁קא	-9.64337
▁יוכל	-9.64391
▁מד	-9.64479
▁בזכות	-9.64511
בתי	-9.64542
▁מוצר	-9.64597
▁לסייע	-9.64673
▁הפלסטינים	-9.64698
דבר	-9.64698
▁בשנות	-9.64718
▁לשני	-9.64729
▁עת	-9.64782
▁שהת	-9.64802
▁קלי	-9.64805
אמי	-9.64823
▁לילה	-9.64841
אחת	-9.64846
▁החשוב	-9.64852
▁קרב	-9.64911
▁רופא	-9.64935
▁הבחירות	-9.6496
▁רציני	-9.64962
▁שחי	-9.64977
▁מתייחס	-9.65004
▁ביוני	-9.65008
▁ביד	-9.65053
▁אתמול	-9.65064
▁מין	-9.65117
▁חשיבות	-9.65135
▁האדמה	-9.65167
▁חיל	-9.65177
▁המילה	-9.652
גובה	-9.65216
▁נועד	-9.65255
▁לבקש	-9.65265
▁התח	-9.65385
▁גב	-9.65477
▁סא	-9.65495
▁קפה	-9.65566
▁מחקרים	-9.65574
▁משפטי	-9.6568
▁ניק	-9.65692
▁עתיד	-9.65712
▁קוראים	-9.65715
▁בספטמבר	-9.65715
▁המציאות	-9.65739
▁בוקר	-9.65761
▁התנ	-9.65839
▁עור	-9.65866
▁בדצמבר	-9.65905
▁הרעיון	-9.65955
▁יחסי	-9.66107
צור	-9.66212
▁לבני	-9.6622
▁מסוימת	-9.66286
▁מבינים	-9.66295
▁המרכזי	-9.66298
הפכו	-9.66326
ולד	-9.66343
▁פתח	-9.66372
▁כבד	-9.66383
▁ניתנ	-9.66486
▁לצפות	-9.66491
פיק	-9.66502
▁להכיר	-9.66515
▁חמישה	-9.66621
▁עיצוב	-9.66668
▁לשאול	-9.66704
ספר	-9.66739
מיני	-9.6674
יקו	-9.66746
▁איבד	-9.66836
▁אמנם	-9.66883
-4	-9.66895
פעל	-9.66942
ho	-9.67
▁יוכלו	-9.67024
▁שירותי	-9.67032
▁בשר	-9.6704
▁הקול	-9.67101
▁להסביר	-9.67135
לפתוח	-9.67157
▁שזו	-9.67189
▁לבוא	-9.67334
כנה	-9.67371
שלוח	-9.67414
▁אמריקאי	-9.67511
▁מומלץ	-9.67629
▁ובכל	-9.6765
ביל	-9.67661
נתה	-9.67686
▁הפל	-9.67759
▁ישוע	-9.67841
▁23	-9.67867
▁חיוני	-9.67906
▁להאמין	-9.67975
▁זוכר	-9.68032
▁מכתב	-9.68032
▁סיבות	-9.68095
ot	-9.68154
▁נדיר	-9.68172
מנת	-9.68288
▁צבא	-9.68318
▁שכבר	-9.68367
▁‘	-9.68407
▁התרבות	-9.68422
▁תמ	-9.68457
▁להפסיק	-9.68486
▁לחפש	-9.68498
▁לימוד	-9.68579
בין	-9.68725
▁חיובי	-9.68728
▁בימים	-9.68729
▁קפ	-9.68841
▁לאתר	-9.68859
▁פוליטי	-9.68891
▁מתחילים	-9.68965
▁סר	-9.69005
▁לאומי	-9.69051
▁משפחת	-9.69113
▁שיתוף	-9.69169
ie	-9.69225
▁פרטים	-9.69289
▁במערכת	-9.69331
▁אחראי	-9.69347
▁תה	-9.69382
▁התקשורת	-9.69478
עיד	-9.69532
▁עמוד	-9.69592
▁הקש	-9.69625
▁הצבע	-9.69636
▁נהג	-9.69675
▁שער	-9.69699
▁ישירות	-9.69778
▁נמוך	-9.69822
מוס	-9.69861
▁הביא	-9.69881
▁אפשרויות	-9.69978
▁חשבון	-9.70011
▁ואנחנו	-9.70143
▁בהמשך	-9.70149
▁בשטח	-9.70174
▁העור	-9.70335
▁ענ	-9.70344
▁האנרגיה	-9.70372
▁לטיפול	-9.70373
▁בקרוב	-9.7041
▁היי	-9.70417
▁ידעתי	-9.70556
▁חייבת	-9.70558
j	-9.70571
▁קונ	-9.70618
▁ההחלטה	-9.7064
▁אב	-9.70671
▁המקומי	-9.70689
▁מוכר	-9.70721
ישראל	-9.70721
?"	-9.70725
▁2.	-9.70728
▁הזוג	-9.7085
▁ביולי	-9.70869
ָה	-9.70875
▁22	-9.7092
▁הכלב	-9.70944
▁סנט	-9.70962
▁תשובה	-9.70976
ריס	-9.71009
▁ספציפי	-9.71035
▁נורא	-9.7106
▁החודש	-9.7108
▁הימים	-9.71145
▁בניו	-9.71191
▁שנתיים	-9.71227
סיים	-9.7127
▁הולכים	-9.71291
▁הארי	-9.71323
▁אזרחים	-9.71346
▁אפריקה	-9.71374
▁שעלי	-9.71393
ver	-9.7141
ייס	-9.71462
בן	-9.71502
עמוד	-9.71513
▁לר	-9.71539
▁באוקטובר	-9.71571
▁מטרת	-9.71578
▁הופיע	-9.71607
ine	-9.71644
▁מקומות	-9.71697
מין	-9.71713
לין	-9.71721
ציל	-9.71726
▁תנאי	-9.71743
▁נוכל	-9.71763
▁הפנימי	-9.71773
▁הקדוש	-9.71774
נתי	-9.71803
-10	-9.71805
▁לכולם	-9.71843
▁העניין	-9.71851
▁מכירים	-9.71877
▁פעולות	-9.71891
שׁ	-9.71897
פצ	-9.71929
למה	-9.71977
נאי	-9.72053
▁מציג	-9.7209
▁מוגבל	-9.72092
שיטות	-9.72103
תקן	-9.7227
▁גדולות	-9.72275
▁אליהם	-9.72394
▁מזל	-9.72397
▁חוזר	-9.72403
-15	-9.72411
פרק	-9.72427
-1	-9.72462
▁ביטוח	-9.72583
מובן	-9.7259
קידום	-9.72604
פרי	-9.72677
▁סדר	-9.72696
▁קיימים	-9.72775
מחנה	-9.72779
▁ממני	-9.72786
▁הפנים	-9.7286
סדר	-9.72899
בצע	-9.72905
▁הדם	-9.72953
▁להציל	-9.72959
▁רעיון	-9.73038
▁תיק	-9.7304
▁מהן	-9.7308
פני	-9.73125
▁ירד	-9.73141
▁מרגישים	-9.73159
▁ביטחון	-9.73192
▁עצמנו	-9.73192
ir	-9.73215
מם	-9.7323
▁פנימי	-9.7323
▁חוש	-9.73237
▁החלטות	-9.73304
▁הרופא	-9.73309
▁ואל	-9.73348
פגש	-9.73352
▁השירות	-9.73367
▁בחשבון	-9.73447
▁מקומי	-9.73566
▁בחזרה	-9.73601
▁ושוב	-9.73618
אפ	-9.73659
▁תנו	-9.73673
▁..."	-9.73674
▁דוח	-9.73709
▁לעבודה	-9.73822
▁דה	-9.73835
▁נקי	-9.73885
▁הינו	-9.73997
▁היהודית	-9.74022
▁השוק	-9.74036
▁כתוב	-9.74132
▁מהיר	-9.74184
▁לבן	-9.74237
▁שמות	-9.7427
▁התק	-9.74359
▁השמ	-9.74387
▁מודע	-9.74395
▁תקופת	-9.74406
▁מחשב	-9.74484
▁משקל	-9.74489
▁לחיים	-9.74508
אנ	-9.74525
▁חס	-9.74537
▁בנובמבר	-9.74632
▁שומע	-9.74656
▁אישור	-9.74683
▁להימנע	-9.74734
▁בעבודה	-9.74868
▁בכוח	-9.74966
▁ביו	-9.74971
▁רא	-9.75039
▁בקו	-9.75209
▁מזרח	-9.75231
אבל	-9.75292
▁עשרה	-9.75307
לכו	-9.75316
▁במספר	-9.75437
▁כלשהו	-9.75685
ly	-9.7569
נפ	-9.75714
▁מסע	-9.7575
▁הציבורי	-9.75751
מכר	-9.7576
פעילות	-9.75796
▁האישה	-9.75906
חשוב	-9.75988
▁מחויב	-9.76005
ציא	-9.76059
▁2016	-9.76094
עול	-9.76197
▁שינה	-9.76208
▁שלילי	-9.76343
▁לטפל	-9.76437
▁בשמ	-9.76513
▁נפלא	-9.76523
▁2009	-9.7653
אש	-9.76546
▁דובר	-9.76611
▁התלמידים	-9.76614
▁השטח	-9.76728
▁התמונה	-9.7674
שלח	-9.76816
▁מטרות	-9.76838
▁דת	-9.76839
▁מבטיח	-9.76853
אחר	-9.76875
▁צבאי	-9.76879
▁לחיי	-9.76885
▁נותר	-9.76913
▁ברוב	-9.76998
ge	-9.77018
▁מוזר	-9.77073
דאג	-9.77085
▁הקרוב	-9.7711
▁עזב	-9.77139
▁הוסיף	-9.77226
▁פירוש	-9.77293
▁משה	-9.77312
▁שמונה	-9.77319
▁במשחק	-9.77353
▁[...]	-9.77363
▁השלום	-9.77366
▁הצבאי	-9.77395
▁פועל	-9.77395
▁בסך	-9.77417
נהג	-9.77423
גנים	-9.77456
▁איתם	-9.77465
▁פנ	-9.7748
דמות	-9.77484
▁בעד	-9.77527
ידע	-9.77588
▁במחקר	-9.77632
עיר	-9.77644
▁חיפוש	-9.77791
▁הצעיר	-9.77801
▁מהוו	-9.77916
אמר	-9.7796
▁רצו	-9.77976
▁בשעה	-9.78015
▁סטודנטים	-9.78077
▁עתה	-9.78143
עיל	-9.78188
▁ארוכה	-9.78221
ראו	-9.78223
▁הצרפתי	-9.78223
▁1,	-9.78266
▁הנשים	-9.78489
וצא	-9.78506
▁הגבול	-9.7852
▁צד	-9.78587
▁בגוף	-9.78684
דוק	-9.78753
הליך	-9.78765
▁הערב	-9.78801
▁למות	-9.78844
▁יעיל	-9.78967
▁השב	-9.79034
▁באוגוסט	-9.79082
▁קנ	-9.7913
▁נפתח	-9.79143
▁החלה	-9.79232
▁לרכוש	-9.79262
▁האפשרות	-9.79266
▁v	-9.79339
▁לקו	-9.79357
▁עדיף	-9.7941
▁ביניהם	-9.79421
דד	-9.79426
נקודה	-9.79448
▁שליטה	-9.79491
▁מחזיק	-9.79517
פרסם	-9.79624
דמי	-9.79626
▁למצב	-9.79673
עשר	-9.79681
ולל	-9.79692
▁רוחני	-9.7972
▁הצדדים	-9.79788
▁לעבר	-9.79864
▁המים	-9.79891
▁אחוזים	-9.79968
שיתוף	-9.79986
▁ראשי	-9.80036
▁נק	-9.80112
▁הגנה	-9.8015
▁צדק	-9.80154
▁האנושות	-9.80172
בוס	-9.80227
▁לצורך	-9.80392
▁אינן	-9.80465
▁רשמי	-9.80475
בני	-9.80528
▁לעזוב	-9.80533
▁on	-9.80578
▁2008	-9.80631
▁התהליך	-9.80642
▁ארץ	-9.80651
▁בירושלים	-9.80831
▁החליט	-9.80893
▁ליום	-9.80972
▁לעצור	-9.80973
▁ביטוי	-9.8102
▁נכונה	-9.81067
▁מיוחדת	-9.81076
▁סרטן	-9.81091
▁אורח	-9.81096
איש	-9.81099
▁חשובה	-9.81191
▁סקר	-9.81233
▁de	-9.81264
▁סוגים	-9.81265
▁הפעולה	-9.81285
רק	-9.81312
▁לנהל	-9.81312
▁בחוץ	-9.81331
מישהו	-9.8135
▁המוביל	-9.81368
▁דק	-9.81384
▁להציג	-9.81401
▁בסין	-9.81426
▁for	-9.81435
▁טובות	-9.81449
▁במזרח	-9.8147
▁סב	-9.81484
▁Y	-9.81497
▁קיר	-9.81514
▁עונה	-9.81584
▁האמריקני	-9.81592
אמין	-9.81599
▁בטח	-9.81619
▁פוטנציאל	-9.81623
▁בכיר	-9.81665
▁נמוכה	-9.81717
שעות	-9.81724
▁ירי	-9.8173
▁קבלת	-9.81743
▁מועמד	-9.81765
▁משמעותית	-9.81824
-5	-9.81867
תוכנית	-9.81881
ate	-9.81909
▁תואר	-9.81917
▁הפעילות	-9.81918
▁לזהות	-9.81971
▁צריכ	-9.81981
▁ציבורי	-9.81993
פוס	-9.82043
▁הדת	-9.82115
נדר	-9.82165
▁מידי	-9.82205
▁קורס	-9.82243
▁רמות	-9.82329
▁מותר	-9.8234
▁צודק	-9.8239
▁מוות	-9.82422
▁בריטניה	-9.82455
▁אופן	-9.82467
▁גרם	-9.82468
▁מצרים	-9.82571
▁ירוק	-9.8263
▁סמ	-9.82642
▁הידע	-9.82683
דרום	-9.827
▁מעו	-9.82744
▁צפו	-9.82744
יקום	-9.82759
▁אוטומטי	-9.82835
שמח	-9.82866
▁סתם	-9.8291
דוד	-9.82918
▁וכי	-9.82998
▁בהיסטוריה	-9.83017
▁מאר	-9.83033
▁קדימה	-9.83061
▁הרגשת	-9.83128
▁הטי	-9.83134
▁הסי	-9.83231
ילת	-9.83247
▁&	-9.83292
תחנת	-9.83322
מסור	-9.83377
▁יהם	-9.83391
▁עשויה	-9.83429
▁אק	-9.83458
-200	-9.83515
▁2007	-9.83534
▁המוות	-9.83565
▁מכר	-9.83576
▁הגל	-9.83608
▁הסבר	-9.83611
▁המשמעות	-9.83722
▁שקט	-9.83833
▁נר	-9.83862
▁>	-9.83868
חבר	-9.83904
▁שואל	-9.83923
▁הצד	-9.83974
▁בינלאומי	-9.83978
▁אירועים	-9.84048
▁הנפש	-9.84053
▁בדי	-9.84062
▁החול	-9.84063
▁חיילים	-9.84065
ight	-9.84194
▁2019	-9.84201
▁אלקטרוני	-9.84235
▁סעי	-9.84235
חומר	-9.84281
▁האירוע	-9.84337
-18	-9.84366
רגשות	-9.84403
▁בבקשה	-9.84426
▁לישון	-9.84434
▁השר	-9.84449
▁להראות	-9.84463
▁ברית	-9.84468
▁פרסום	-9.8449
▁לדברי	-9.84525
▁איתי	-9.84612
▁סימ	-9.8466
עריכ	-9.84664
▁הלקוחות	-9.84681
עון	-9.84704
▁k	-9.84794
עצם	-9.84828
▁הראש	-9.84844
▁פרש	-9.84844
▁רגש	-9.84882
▁גודל	-9.84889
מלא	-9.84893
▁28	-9.84913
▁מנסים	-9.8496
▁יחסית	-9.84969
משיכו	-9.84984
תרבות	-9.85023
▁נפגש	-9.85035
▁לידי	-9.85083
▁לקבוע	-9.85111
▁האהבה	-9.85112
▁המילים	-9.85135
פן	-9.85167
▁תשלום	-9.8519
▁לציין	-9.8521
▁הישראלית	-9.85216
▁הזר	-9.85222
▁70	-9.8526
▁בודד	-9.85294
▁חברתית	-9.85298
▁הרשמי	-9.85326
▁קווי	-9.85371
▁בצ	-9.85411
▁המקורי	-9.85455
▁מדהים	-9.85457
▁המדע	-9.85458
▁כנגד	-9.85573
▁De	-9.85612
▁שקר	-9.85649
▁מודרני	-9.85657
▁26	-9.85676
לוג	-9.85678
▁אלינו	-9.85694
▁הסביבה	-9.85804
▁שלושת	-9.85805
נדס	-9.85809
▁הדור	-9.8584
▁התחל	-9.85927
טענה	-9.85938
▁הבינלאומית	-9.8603
▁סובל	-9.86095
▁התוצאות	-9.86131
▁פתאום	-9.86152
▁טלוויזיה	-9.86264
▁העד	-9.86306
▁45	-9.86309
טפל	-9.86334
גורמים	-9.86437
קצב	-9.86521
▁מציאות	-9.86538
כנע	-9.86552
▁שלהן	-9.86725
▁לשינוי	-9.86737
▁משק	-9.86742
▁re	-9.86766
בעיות	-9.86789
▁?”	-9.86821
▁',	-9.86845
▁דרום	-9.86908
▁קבע	-9.86908
▁נהדר	-9.86925
▁מזכיר	-9.86968
▁באפריל	-9.86969
▁אופי	-9.87013
▁עליכם	-9.8703
▁יגיע	-9.87054
▁Me	-9.87108
ul	-9.87163
▁זקוקים	-9.87192
▁בעניין	-9.87206
▁תומכ	-9.87209
▁וידאו	-9.87209
▁Mo	-9.87238
רוע	-9.87244
▁ליהנות	-9.87245
▁ארי	-9.87288
▁התפתחות	-9.87289
▁להציע	-9.87345
▁מטרה	-9.87386
est	-9.87419
▁עני	-9.87424
פרש	-9.87544
▁שניהם	-9.87567
▁שהגיע	-9.87569
▁שמחה	-9.87729
▁קבל	-9.87733
▁סבל	-9.87775
▁מצפ	-9.87777
▁הבאות	-9.8781
▁מילה	-9.8785
▁בפברואר	-9.87911
▁מוצלח	-9.87912
▁אוניברסיטת	-9.87977
▁#	-9.87984
X	-9.88084
▁כשהי	-9.88149
▁שמש	-9.88163
▁הצלחה	-9.88169
▁שכר	-9.8819
▁מדע	-9.88239
▁לבסוף	-9.88276
▁ילדי	-9.88277
ard	-9.8828
▁מונ	-9.88382
▁לפתור	-9.88393
▁לנקו	-9.88398
▁המנהל	-9.88427
עניינים	-9.88439
▁הלאומית	-9.88458
גשת	-9.88536
▁המק	-9.88599
▁מוזיקה	-9.88632
▁כרטיס	-9.88671
▁עורך	-9.88718
מקור	-9.8872
▁חזקה	-9.88737
▁כזאת	-9.88795
▁טא	-9.88831
▁להוציא	-9.88865
▁מדויק	-9.88865
נון	-9.88879
▁מחכ	-9.8891
במסגרת	-9.89086
▁רצה	-9.89125
▁המפ	-9.89149
▁הרגע	-9.89168
▁תשע	-9.8923
רוט	-9.89265
ובל	-9.89294
נדל	-9.89352
▁בתהליך	-9.89365
▁השאר	-9.89368
▁2000	-9.89412
▁שעברה	-9.89417
▁חייהם	-9.89481
▁ההגנה	-9.89584
▁”,	-9.89608
ig	-9.89628
▁מחלק	-9.89633
▁הגיעה	-9.89682
רצח	-9.89707
▁המזון	-9.89816
▁פופולרי	-9.89823
▁לעצמי	-9.89823
▁אלכוהול	-9.8983
יעשה	-9.89862
▁מלמד	-9.89905
▁מרבית	-9.89952
▁נושאים	-9.89971
▁זמין	-9.90019
▁הפוליטי	-9.90025
▁הבדל	-9.90107
▁קטנות	-9.90161
טוס	-9.90244
▁השפה	-9.90256
▁סינ	-9.90262
▁התוצאה	-9.90266
מגוון	-9.90305
טוב	-9.90372
▁קרו	-9.90396
▁סול	-9.9045
▁90	-9.90474
▁הקרב	-9.90535
▁הסיכון	-9.90562
▁פרויקט	-9.90594
▁לילד	-9.90664
▁הזכות	-9.90734
מיר	-9.90761
▁במטרה	-9.908
▁לטובת	-9.90812
▁ערבי	-9.90851
▁קובע	-9.90905
▁ברמ	-9.91
▁למדי	-9.91137
▁מתאר	-9.9114
▁עומדים	-9.91199
▁")	-9.91214
פסק	-9.91223
▁מסתכל	-9.9124
▁מסביר	-9.9126
Y	-9.91273
▁רכיש	-9.91286
▁בקשר	-9.91313
▁נקודת	-9.91406
יתי	-9.91463
▁זכה	-9.91495
▁כולה	-9.91512
▁האהוב	-9.91531
▁משפחתי	-9.91544
וקר	-9.91585
▁מחשבות	-9.91589
▁העונה	-9.91619
▁27	-9.91686
▁כשאני	-9.91717
▁לדבריו	-9.91722
מונים	-9.91737
״	-9.91773
▁מיליוני	-9.9184
▁הלקוח	-9.91919
סיס	-9.9198
▁שיפור	-9.9201
▁מושלם	-9.92018
▁בפועל	-9.9202
▁ואינ	-9.92028
▁המסחר	-9.92059
▁Co	-9.92068
קטור	-9.92096
he	-9.92167
▁זול	-9.92214
שקיע	-9.92219
▁+	-9.92272
▁איתך	-9.92292
חוץ	-9.92352
▁הרחב	-9.92356
▁עץ	-9.92361
▁יציב	-9.92369
פשר	-9.92382
אבד	-9.92387
נסיבות	-9.92415
ארד	-9.92429
▁בבתי	-9.92487
os	-9.92488
▁לעלות	-9.92561
▁לוודא	-9.92603
▁חז	-9.92644
▁אחות	-9.92718
▁מקרים	-9.92752
תופעה	-9.92761
▁החברות	-9.92819
▁נחמד	-9.92828
▁לחוק	-9.92842
חברות	-9.92846
▁למכור	-9.92941
▁החזק	-9.93043
▁בערב	-9.93135
▁אנג	-9.93252
▁גבי	-9.93267
▁להוביל	-9.93363
יצירה	-9.93424
▁אגב	-9.93471
▁ואיך	-9.93474
ve	-9.93498
▁אלימות	-9.93505
▁אמיתית	-9.93516
▁החלל	-9.93533
▁הפרויקט	-9.9358
▁שולח	-9.93618
▁רעיונות	-9.9364
▁לעצמו	-9.9376
▁בניגוד	-9.9376
▁מייצג	-9.93763
▁נעצר	-9.93801
▁הטלפון	-9.93911
▁ישראלי	-9.93931
דבק	-9.94093
▁תכונות	-9.9411
▁דא	-9.94115
▁בסיסי	-9.94219
▁הטכנולוגיה	-9.94258
ity	-9.943
▁המוצרים	-9.94302
na	-9.94321
כתיבה	-9.9437
הפחית	-9.94426
רגע	-9.94443
אנג	-9.9446
ac	-9.94471
לוט	-9.94511
קצה	-9.94512
▁התנועה	-9.94515
▁רגיש	-9.94533
▁פעמיים	-9.94576
▁הלימודים	-9.94613
-2	-9.94705
▁שיער	-9.94728
▁היסטוריה	-9.94733
סקי	-9.94761
חייב	-9.94761
▁הול	-9.9477
מזרח	-9.94816
im	-9.94865
כתב	-9.94912
▁תרומ	-9.94929
▁מותו	-9.94966
▁בוגר	-9.94971
▁במחיר	-9.95004
עביר	-9.95026
▁תנועה	-9.95027
▁הקודם	-9.95037
▁שמה	-9.95072
▁שכח	-9.95099
▁Ch	-9.95102
▁שמת	-9.95118
שיר	-9.9515
ושב	-9.95172
קח	-9.95199
▁מידה	-9.95245
▁צפון	-9.9531
▁הגרמני	-9.95345
▁פת	-9.95371
op	-9.95372
▁בדרום	-9.95372
▁הערבי	-9.95389
▁תושבי	-9.95503
סוכנות	-9.95522
איפה	-9.95541
▁מלון	-9.95543
▁הפלסטינית	-9.95547
אלימות	-9.95568
מץ	-9.95572
▁דל	-9.95588
▁תחילת	-9.9559
ראיון	-9.95732
▁מחלות	-9.9574
▁הרשת	-9.95776
▁עצמכם	-9.95787
▁בינתיים	-9.95788
▁הבחירה	-9.95795
▁הנראה	-9.95795
פרד	-9.95817
▁במילים	-9.95819
▁אמצעי	-9.95828
▁ייצור	-9.95925
אופן	-9.95933
▁לממש	-9.95943
חצי	-9.95958
ארגונים	-9.95988
▁שקל	-9.96006
▁אירוע	-9.9608
▁הבלתי	-9.96092
▁יג	-9.96121
▁La	-9.9616
▁מועד	-9.96162
▁כם	-9.96167
▁הפרטי	-9.96233
▁בפי	-9.96261
one	-9.96297
▁לנשים	-9.96335
▁המפתח	-9.96352
להשפיע	-9.96367
io	-9.96448
פשוט	-9.96486
ion	-9.96611
co	-9.96632
אבא	-9.96644
ub	-9.96706
▁מנהיג	-9.96809
▁רלוונטי	-9.96817
▁הרביעי	-9.96817
▁הגב	-9.96824
▁תלמידים	-9.96904
▁כשאתה	-9.97014
▁מיידי	-9.97058
▁ההזדמנות	-9.97135
▁שונא	-9.97149
▁נפגע	-9.97151
הגדיר	-9.97151
▁הבוקר	-9.97345
▁־	-9.97432
▁דתי	-9.97465
▁המפלגה	-9.97471
▁כשהם	-9.97483
▁הורים	-9.97561
▁בשימוש	-9.97561
▁You	-9.97575
▁בנות	-9.97604
▁עוסק	-9.97634
מבנה	-9.97638
▁הידוע	-9.97639
▁ראשונה	-9.97689
▁המחלה	-9.97691
▁אה	-9.97692
me	-9.97703
▁נכ	-9.97731
ילות	-9.97783
▁חיות	-9.97803
כמות	-9.97922
▁סקס	-9.97926
טיבי	-9.97934
▁קיומ	-9.9797
▁עצמאי	-9.97989
▁לשתף	-9.98012
▁גז	-9.98041
רבע	-9.98043
מנ	-9.98077
▁טיפ	-9.98142
אחד	-9.98159
▁ועכשיו	-9.9825
▁סימן	-9.98266
▁בחי	-9.98289
▁תוכן	-9.98303
▁השונים	-9.98359
▁הרגיש	-9.98398
▁מקורות	-9.98409
▁מסכים	-9.98409
▁השחור	-9.98435
סיר	-9.98436
▁בעלות	-9.98515
▁הבנתי	-9.98551
צעד	-9.98572
▁מאושר	-9.986
▁מטר	-9.98604
▁הרוחני	-9.98625
▁חיצוני	-9.98646
▁מניח	-9.98654
▁שחקנים	-9.9867
▁הגדולות	-9.98685
▁הכפר	-9.98686
▁יות	-9.98697
▁To	-9.98709
▁ממך	-9.9873
▁החוצה	-9.98734
▁לחלק	-9.98779
bo	-9.98806
קאי	-9.98809
▁הצוות	-9.98833
▁המג	-9.98894
▁אנגלית	-9.98896
▁מסביב	-9.98913
חווה	-9.98925
▁האח	-9.98981
▁פתרונות	-9.99018
▁שחקן	-9.99148
▁החוקרים	-9.99152
חוסר	-9.99157
▁הפועל	-9.99177
▁כיף	-9.99283
מדיניות	-9.99291
▁לתקן	-9.99297
יתכן	-9.99299
גרסה	-9.99353
▁ישנה	-9.9942
▁החיפוש	-9.99439
▁הקמת	-9.99517
▁מודל	-9.99524
▁בדרכ	-9.99533
▁אביו	-9.99575
▁אושר	-9.99673
שש	-9.99696
▁נתניהו	-9.99698
▁קדוש	-9.99709
▁הטרור	-9.99715
▁הוכח	-9.99742
▁Be	-9.99783
▁טל	-9.99793
▁פלסטינים	-9.99843
▁להן	-9.99909
כולנו	-9.99922
▁אנא	-9.9994
כוון	-9.99957
▁פיר	-9.99964
▁המערבית	-9.99998
▁התייחס	-9.99998
בקר	-10.0004
יסטים	-10.0008
▁הרגיל	-10.0024
זכות	-10.0034
▁מרגישה	-10.0048
▁Google	-10.0049
▁שקורה	-10.0054
▁מבית	-10.0057
▁סיכון	-10.0058
ex	-10.006
▁שקי	-10.0068
▁למדינה	-10.0071
חופש	-10.0072
▁מפחד	-10.0078
▁הקיץ	-10.0083
אינני	-10.0086
▁הזדמנויות	-10.0088
ation	-10.0089
▁המהיר	-10.009
▁יקבל	-10.0096
▁ממשיך	-10.0098
▁ספרי	-10.0098
תחומים	-10.0108
▁קישור	-10.0111
▁במשרד	-10.0115
▁הבת	-10.0118
▁מקרי	-10.0119
▁ניסוי	-10.0122
▁לשמש	-10.0124
קשה	-10.0125
▁שקיבל	-10.0128
▁תחושה	-10.0128
ָּ	-10.013
▁לפגוע	-10.0132
▁בצפון	-10.0132
▁דופן	-10.0134
▁מקל	-10.0142
▁החדר	-10.0146
▁המל	-10.0158
▁התפקיד	-10.0161
▁2006	-10.0161
▁הוד	-10.0161
▁הטבעי	-10.0165
▁נכס	-10.0168
כלל	-10.0171
▁בהרבה	-10.0175
▁שאמר	-10.0179
▁הממוצע	-10.0186
▁הראשונות	-10.0188
▁אבו	-10.0191
▁עצמית	-10.0197
▁קס	-10.02
סא	-10.0201
כנים	-10.0202
טבח	-10.0206
אנה	-10.0216
▁חשמל	-10.0217
▁יבש	-10.0223
אוסף	-10.0224
▁ומי	-10.0224
▁עמו	-10.0226
מנט	-10.0229
גזר	-10.023
▁y	-10.0231
▁בלעדי	-10.0242
▁נור	-10.0246
▁הדלת	-10.0247
▁הכנסת	-10.025
▁הוביל	-10.0252
▁מלך	-10.0256
▁is	-10.0257
▁מכונ	-10.0257
▁להרוג	-10.0262
▁היד	-10.0263
▁העיניים	-10.0269
▁פועלים	-10.027
▁ברא	-10.0272
סיוע	-10.0273
▁קש	-10.0275
▁ניס	-10.0275
פורט	-10.0278
▁התקופה	-10.0279
▁לאהוב	-10.0279
▁חלב	-10.0285
▁4.	-10.0286
▁כחלק	-10.0296
חיל	-10.0297
מספר	-10.0298
▁נגמר	-10.0301
הצג	-10.0303
▁באנגלית	-10.0305
חדש	-10.031
יבוש	-10.0314
▁הלבן	-10.0317
תוכניות	-10.032
▁החוץ	-10.0327
▁מכם	-10.0327
▁היתר	-10.033
▁לאחד	-10.0334
מראה	-10.0344
▁מרק	-10.0347
▁מחו	-10.0351
▁Ro	-10.0351
▁רגשות	-10.0354
▁לשלוט	-10.0355
פקד	-10.0355
▁שיחק	-10.0364
▁עברו	-10.0365
רבות	-10.0374
▁השק	-10.0377
▁בתפקיד	-10.038
אמא	-10.038
▁בחירה	-10.0382
▁החוב	-10.0385
▁פותח	-10.0387
▁תקווה	-10.0388
▁משני	-10.0389
▁כלבים	-10.039
▁צילום	-10.039
▁חשש	-10.0403
תום	-10.0406
▁חובה	-10.041
▁למרב	-10.041
▁החר	-10.0414
▁להחליט	-10.0418
▁!!	-10.0421
▁מצביע	-10.0428
▁הכולל	-10.0437
▁מעורב	-10.0439
▁שפה	-10.0448
▁להצטרף	-10.045
▁אנטי	-10.0455
▁ומתן	-10.0457
-30	-10.0458
▁האג	-10.0463
▁פשע	-10.0464
▁שנקרא	-10.0467
ti	-10.0467
צטרך	-10.0468
▁אויב	-10.0472
▁במקומות	-10.0475
▁משתנה	-10.0475
▁סגור	-10.0476
▁אמונה	-10.0481
▁הבעיות	-10.0482
▁הקטן	-10.0492
קהילות	-10.0496
▁דלת	-10.0498
▁גידול	-10.0514
▁לגיל	-10.0516
▁נרחב	-10.0518
▁המטופל	-10.0519
▁הוועדה	-10.052
nd	-10.0521
▁החדשות	-10.0521
▁השינוי	-10.0521
▁הקהל	-10.0522
▁פלא	-10.0523
▁הרווח	-10.053
▁יס	-10.0531
▁"?	-10.0536
▁גבולות	-10.0537
▁אט	-10.0537
▁הסופי	-10.0538
שמה	-10.0542
▁בכתב	-10.0551
▁הפלסטיני	-10.0551
▁קופ	-10.0551
▁הבריטי	-10.0557
כיוון	-10.0566
▁הסדרה	-10.0567
▁המספר	-10.0567
▁בגודל	-10.0569
נטר	-10.0572
▁להילחם	-10.0574
▁זרים	-10.0574
▁נפל	-10.0576
▁עבודות	-10.0577
to	-10.058
▁מאה	-10.058
▁גרמני	-10.0585
▁חשובים	-10.0586
▁בטוחה	-10.0588
רווח	-10.0594
אבי	-10.0596
שפע	-10.06
▁ואולי	-10.0602
▁ההשפעה	-10.0603
▁המרכז	-10.0605
שמעתי	-10.061
▁חם	-10.0614
▁ביל	-10.0615
שוויון	-10.0616
▁סוס	-10.0617
▁פוליטית	-10.062
▁עזה	-10.062
▁להשקיע	-10.0622
▁אסיר	-10.0624
▁אדמה	-10.0625
▁יסוד	-10.0629
▁השופט	-10.0634
ec	-10.0637
▁הרש	-10.0651
יתרונות	-10.0652
▁למטה	-10.0658
▁הדרוש	-10.0659
▁היסוד	-10.0662
תקפות	-10.0662
פרס	-10.0664
▁הנדרש	-10.0664
▁בשירות	-10.0667
▁מוסרי	-10.0667
▁הולדת	-10.0669
זאת	-10.0669
התפתחות	-10.0669
פסיד	-10.0671
▁ניכר	-10.0671
▁ברורה	-10.0672
▁בינלאומיים	-10.0673
▁מוס	-10.0675
▁וול	-10.0677
▁נראית	-10.068
▁צורה	-10.0682
▁מסלול	-10.0686
▁בבריטניה	-10.0686
▁ובין	-10.0689
▁שמר	-10.069
▁ארגונים	-10.069
ca	-10.0691
משפחות	-10.0692
▁התגל	-10.0695
ment	-10.0697
ינט	-10.0699
▁מומחים	-10.0703
▁להחזיר	-10.0704
▁השחקנים	-10.0707
▁פוסט	-10.0708
▁משפחות	-10.0711
▁כול	-10.0712
▁סבור	-10.0714
▁בלונדון	-10.0717
▁מפתיע	-10.0717
▁ריי	-10.0718
▁רצח	-10.0721
▁מאמר	-10.0721
מיומנויות	-10.0723
▁האלבום	-10.0725
▁עצב	-10.0733
▁מוצרי	-10.0739
▁החברים	-10.0743
תיבת	-10.0747
▁ללמד	-10.0747
בטיח	-10.0754
▁טיול	-10.0763
מדבר	-10.0764
▁להכין	-10.0765
;	-10.0765
▁וחצי	-10.0769
הכנסות	-10.077
▁הממשל	-10.0771
▁גרעיני	-10.0774
The	-10.0777
▁לשבת	-10.0779
▁כנס	-10.078
▁מגדל	-10.0784
▁הרגל	-10.0785
▁נעל	-10.079
▁בדיקות	-10.0795
▁התרחש	-10.0795
▁במחשב	-10.0801
יאה	-10.081
▁טור	-10.0813
▁רגל	-10.0815
-12	-10.0818
▁שבת	-10.0825
▁השלב	-10.0826
▁מתחילה	-10.0828
▁הבל	-10.0829
▁Wi	-10.0829
▁האוניברסיטה	-10.0831
▁במרץ	-10.0833
▁נאלצ	-10.0834
כפי	-10.0837
▁אדום	-10.084
שחרר	-10.0844
▁בוא	-10.0851
▁הדר	-10.0851
▁מסחרי	-10.0852
▁איי	-10.0857
▁בסביבה	-10.0861
▁חתול	-10.0864
סטון	-10.0865
▁סוריה	-10.0868
שן	-10.0868
▁נפטר	-10.0869
▁36	-10.0871
▁הגבר	-10.0873
▁הרצון	-10.0873
▁רומ	-10.0876
ציע	-10.0881
תקף	-10.0884
▁הכלל	-10.0884
▁עלולים	-10.0886
▁Z	-10.0889
▁הרפואי	-10.089
▁כלשהי	-10.0892
כתוב	-10.0895
▁וכו	-10.0895
טוען	-10.0897
▁מתכוון	-10.0898
▁נוסעים	-10.0903
שבע	-10.0909
▁לענות	-10.091
▁הצלחת	-10.0911
▁לומדים	-10.0911
▁ממשיכים	-10.0912
קרב	-10.0916
נדה	-10.0919
▁אפ	-10.092
▁תגיד	-10.0923
▁פג	-10.0925
יימס	-10.0925
▁פונ	-10.0928
▁ובכן	-10.0936
▁חוויה	-10.0937
סח	-10.0944
חמש	-10.0946
טיקה	-10.0948
▁מרכיב	-10.0949
תודעה	-10.0951
▁נורמלי	-10.0954
▁מטבע	-10.0957
▁מודעים	-10.096
איראן	-10.0967
גדיל	-10.0967
▁הרג	-10.0968
▁חלו	-10.097
▁תינוק	-10.0971
▁סופ	-10.0973
▁מטוס	-10.0975
▁הצעד	-10.0978
▁אכפת	-10.0978
▁הלי	-10.0981
▁תגובה	-10.0982
▁^	-10.0986
▁יעד	-10.0989
▁תע	-10.0991
▁כפול	-10.0993
▁המאמר	-10.0996
sh	-10.0996
▁מייצר	-10.1
▁ביי	-10.1002
der	-10.1005
יסה	-10.1008
▁Windows	-10.1008
▁מעצב	-10.1012
שחקן	-10.1013
▁חינם	-10.1014
▁לקרות	-10.1014
▁התמ	-10.1014
▁ובכך	-10.1014
▁נמנע	-10.102
30	-10.1021
▁המקור	-10.1021
▁סוד	-10.1024
▁שהייתה	-10.1024
▁ריצ	-10.1025
▁29	-10.1025
▁ריב	-10.1025
▁רעב	-10.1028
▁פריט	-10.1037
▁חכם	-10.104
▁כלכלית	-10.104
▁הקרקע	-10.104
▁סיני	-10.1042
–	-10.1043
▁אקדמי	-10.1044
▁מזג	-10.1044
▁פלסטיני	-10.1045
הכרה	-10.1048
צטרף	-10.105
▁שילוב	-10.1053
רמת	-10.1053
▁שיט	-10.1053
צביע	-10.1053
▁אפל	-10.106
סקו	-10.1066
▁Pro	-10.1067
▁עשיתי	-10.107
▁סרטים	-10.1071
▁לתמוך	-10.1074
▁העתיקה	-10.1076
▁באוניברסיטת	-10.1077
▁טכנולוגיה	-10.108
לבוש	-10.108
▁לדעתי	-10.1081
▁משותף	-10.1082
דפס	-10.1082
גרום	-10.1082
▁ההיסטורי	-10.1083
▁לקדם	-10.1099
▁טעות	-10.1108
▁אהב	-10.1114
▁טכני	-10.1118
▁בטוחים	-10.1119
מעמד	-10.1121
▁האמנות	-10.1125
▁מבני	-10.1126
▁לחברה	-10.1126
▁WEB	-10.1127
▁לדאוג	-10.1127
▁האמנ	-10.1127
דן	-10.1135
▁מנוע	-10.1139
▁לרגע	-10.1139
רמי	-10.1141
▁נשלח	-10.1146
▁הסכמ	-10.1146
חלוקת	-10.1148
▁עורכי	-10.1152
▁מיוחדים	-10.1158
no	-10.116
▁ציור	-10.1161
קטיבי	-10.1161
▁דוגמה	-10.1163
צמח	-10.1163
רוד	-10.1164
▁ארגוני	-10.1172
▁טלפון	-10.1172
▁אהבתי	-10.1174
אפשר	-10.1182
▁שהייתי	-10.1186
▁להשת	-10.1186
▁בהתחלה	-10.1187
▁הקריירה	-10.1187
ארצות	-10.1187
▁הודעה	-10.1187
▁שיווק	-10.1188
▁הכרחי	-10.1188
חזיר	-10.1189
▁ביר	-10.1189
▁פעילויות	-10.1192
ביר	-10.1192
▁Pa	-10.1199
▁אביב	-10.1202
ציר	-10.1203
עקוב	-10.1204
▁הקודש	-10.1217
▁מסורתי	-10.1218
קמפיין	-10.1224
▁לחתו	-10.1226
▁בתקופת	-10.1227
▁בצרפת	-10.1229
▁אשתו	-10.1231
▁הבסיסי	-10.1236
▁פרט	-10.1236
▁המוני	-10.124
pe	-10.1242
▁לכאורה	-10.1247
▁לונדון	-10.1247
טען	-10.1251
ציג	-10.1251
ייד	-10.1252
▁ישר	-10.1255
▁להסתכל	-10.1256
▁מתע	-10.1257
קשיים	-10.1257
▁מסוכן	-10.126
מחצית	-10.1265
-16	-10.127
▁הכללי	-10.1274
▁אנדר	-10.1276
▁שאומר	-10.1278
יבש	-10.128
▁80	-10.1282
▁500	-10.1283
ימצא	-10.1287
▁המהפכה	-10.1288
▁במשקל	-10.1289
▁פשוטה	-10.1298
▁העצמי	-10.1308
▁ללקוחות	-10.1311
▁מכאן	-10.1315
ha	-10.1315
▁יבוא	-10.1319
▁האמונה	-10.1321
העניק	-10.1324
מעולם	-10.1324
▁הרוסי	-10.1325
אוס	-10.1328
▁הנכונה	-10.1338
▁נראים	-10.1339
▁תגובות	-10.1339
▁טווח	-10.1341
▁היעד	-10.1343
▁למלא	-10.1343
▁להוכיח	-10.1344
▁הבן	-10.1355
אצ	-10.1357
▁שבא	-10.1359
▁כוס	-10.1361
צפו	-10.1364
▁הפיזי	-10.1368
מקום	-10.1375
מחלות	-10.1381
▁באשר	-10.1382
▁מתוק	-10.1394
▁המכ	-10.1395
▁en	-10.1396
▁בדק	-10.1399
▁להתייחס	-10.1403
▁דמוקרטי	-10.1406
▁מרוב	-10.1406
▁המודרני	-10.1407
▁העסקי	-10.1411
מלחמת	-10.1411
▁להחליף	-10.1413
▁בשפה	-10.1415
-6	-10.1417
▁מכשיר	-10.142
▁הראו	-10.1422
▁צמח	-10.1427
▁המוזיקה	-10.143
▁להעלות	-10.1431
▁בשתי	-10.1431
▁עובדת	-10.1435
דרך	-10.1437
▁שופט	-10.1442
po	-10.1446
▁זיכרון	-10.1448
▁אהבת	-10.145
▁מני	-10.1452
▁באחד	-10.1452
פעולות	-10.1453
▁מחליט	-10.1455
אתגרים	-10.1457
▁פסק	-10.1458
▁בהכרח	-10.1461
▁המשימה	-10.1461
▁נתקל	-10.1462
▁הפוסט	-10.1463
ייחס	-10.1468
חפש	-10.1468
ראש	-10.1474
▁קיימות	-10.1476
pp	-10.1476
▁הפרס	-10.148
▁אמו	-10.1485
▁עיניים	-10.1486
מועדון	-10.1486
▁האמריקאית	-10.149
▁פארק	-10.1491
▁להוריד	-10.1492
▁המקרים	-10.1494
▁שומן	-10.1498
▁חיבור	-10.1503
▁במי	-10.1505
▁המטוס	-10.1511
▁בחור	-10.1515
ap	-10.1519
▁במו	-10.1523
▁קוריאה	-10.1524
▁המקצועי	-10.1525
▁אמון	-10.1526
▁לימודי	-10.1527
▁המכשיר	-10.1534
▁יין	-10.1537
▁שיניים	-10.1541
▁וחבר	-10.1544
▁נלח	-10.1549
em	-10.155
▁הביקור	-10.1554
▁ch	-10.1555
▁מעורר	-10.1559
▁כתובת	-10.1566
▁להשתתף	-10.1569
▁נמשכ	-10.1571
בשר	-10.1574
▁רחבי	-10.1575
צהיר	-10.1575
▁המשתמש	-10.1575
▁להודו	-10.1577
טעות	-10.1582
▁קיצוני	-10.1586
סיום	-10.1586
▁לחכות	-10.1586
▁An	-10.1587
ְּ	-10.1594
▁חוקרים	-10.1596
▁איתנו	-10.1598
ber	-10.1603
▁גאו	-10.1606
▁לעיר	-10.1612
▁בדיקה	-10.1612
▁הפרי	-10.1615
▁פיננסי	-10.1617
▁דומים	-10.1619
▁דמות	-10.1622
▁בוחרים	-10.1629
▁שדה	-10.1632
▁השינה	-10.1635
▁הגבוהה	-10.1639
מיטב	-10.1642
▁העיקרית	-10.1643
▁le	-10.1644
ביס	-10.1648
▁כאמור	-10.1648
▁השראה	-10.1653
▁וְ	-10.166
ci	-10.1663
▁טוענ	-10.167
׳	-10.1672
▁מבוגרים	-10.1672
היקף	-10.1673
זור	-10.1676
▁עובדות	-10.1677
▁רחוב	-10.168
▁הבנה	-10.168
▁נוכח	-10.1681
▁סיוע	-10.1688
▁שקרה	-10.169
שורה	-10.1691
▁מושב	-10.1691
▁מאמינ	-10.1693
▁האזרחים	-10.1699
▁גלי	-10.1701
▁ואחר	-10.1704
ינם	-10.1705
בעלי	-10.1707
▁מעשה	-10.1707
▁פיזי	-10.1709
▁במקביל	-10.1711
כאב	-10.1713
▁לחקור	-10.1716
▁לעובד	-10.1717
קלי	-10.1717
▁כוכב	-10.1718
▁משבר	-10.1722
▁Sh	-10.1723
▁u	-10.1725
▁ינו	-10.1728
▁הציע	-10.1729
קיימים	-10.1729
▁כימי	-10.1729
▁Con	-10.1734
צליח	-10.1738
▁מחלה	-10.1741
▁המבוסס	-10.1743
▁כפר	-10.1744
▁הודעות	-10.1748
▁מרחב	-10.1752
▁דף	-10.1752
▁אבטחה	-10.1753
▁שמי	-10.1754
▁ישיר	-10.1761
רשויות	-10.1762
▁רשות	-10.1765
▁Th	-10.1766
צילום	-10.1767
הפכה	-10.1769
▁200	-10.177
שוחח	-10.177
▁כספי	-10.1772
גיה	-10.1773
▁המדיניות	-10.1773
▁מיועד	-10.1776
▁2005	-10.1778
עכשיו	-10.1778
▁העשיר	-10.1779
▁("	-10.1784
▁לארץ	-10.1784
▁מכוניות	-10.1784
סע	-10.1784
▁לשלב	-10.1787
▁עומדת	-10.18
▁לעסק	-10.1803
זציה	-10.1809
▁רגלי	-10.181
מערכת	-10.1812
▁טקס	-10.1815
תרגל	-10.1824
▁שרק	-10.1824
▁קיבלו	-10.1828
▁משם	-10.1829
▁נעש	-10.1829
▁al	-10.1831
▁מעולה	-10.1832
▁האנושית	-10.1832
▁נייר	-10.1833
▁בעצמו	-10.1839
▁איטליה	-10.1839
▁החזר	-10.184
קדש	-10.184
▁אמריקני	-10.1842
-17	-10.1845
▁מפעיל	-10.1847
▁נתנ	-10.1853
▁עק	-10.1855
ישור	-10.1857
▁הסביר	-10.1862
▁שימש	-10.1862
mp	-10.1869
▁עצר	-10.1871
תופעות	-10.1871
▁עתיק	-10.188
טכנולוגיה	-10.1886
בלתי	-10.1887
קוב	-10.1893
צלם	-10.1899
▁קשים	-10.1902
▁מתכוונ	-10.1904
עידן	-10.1907
▁בגרמניה	-10.1907
אנט	-10.1908
חלון	-10.1913
חשוף	-10.1916
רקע	-10.1923
▁מכונית	-10.1925
▁Le	-10.1925
▁שמאל	-10.1928
▁ב־	-10.1933
▁החשמל	-10.1936
▁בשבילי	-10.1938
▁שירים	-10.1942
▁מחובר	-10.1943
x	-10.1945
הייתי	-10.1946
▁המאפשר	-10.1949
▁הצליחו	-10.1951
our	-10.1952
▁תחושת	-10.1952
צוץ	-10.1958
ֵי	-10.1959
▁הכאב	-10.1965
▁המנהיג	-10.1973
▁המבנה	-10.1977
▁הבטיח	-10.1977
▁הטובות	-10.198
▁בסוריה	-10.1983
▁לחש	-10.1984
▁סג	-10.1985
▁מגיעה	-10.1987
▁No	-10.2
▁הלאה	-10.2001
▁פרויקטים	-10.2001
▁הגיוני	-10.2002
▁משטר	-10.2002
▁להשלים	-10.2002
▁קלה	-10.2005
▁חשמלי	-10.2005
▁סיפורים	-10.2007
▁נקבע	-10.2008
קובץ	-10.201
▁(19	-10.2016
ell	-10.2017
▁בך	-10.2017
תוצאות	-10.2019
▁an	-10.2023
▁לשתות	-10.2026
▁האחר	-10.2027
ציין	-10.2028
קופ	-10.2031
▁מונע	-10.2032
▁פגיש	-10.2032
▁לבחון	-10.2032
▁שירותים	-10.2032
▁המשרד	-10.2033
▁מסוימות	-10.2034
▁העיצוב	-10.2034
▁מעניק	-10.2036
▁הולכת	-10.2038
מדינה	-10.2038
▁ידיד	-10.2039
▁השכר	-10.2046
טבע	-10.2048
שפיע	-10.2054
מועד	-10.2056
age	-10.2059
12	-10.2061
▁אליך	-10.2064
▁האוכלוסייה	-10.2064
▁שישי	-10.2066
▁נסו	-10.2067
▁ביצע	-10.2067
▁הכלכלה	-10.2067
▁נוהג	-10.2068
כישלון	-10.207
עומק	-10.2073
▁במקור	-10.2079
▁הפתרון	-10.2084
פקח	-10.2095
▁מתמודד	-10.2095
▁השיב	-10.2097
▁בחינם	-10.21
התמקד	-10.21
▁כחול	-10.2111
▁גן	-10.2118
עזור	-10.212
כין	-10.2124
▁נהרגו	-10.2128
ראינו	-10.2129
▁יפן	-10.2134
▁נמל	-10.2136
עוצמת	-10.2137
יעילות	-10.2139
אריך	-10.2145
▁ערכ	-10.2149
▁המשו	-10.2153
▁מועצת	-10.2157
▁הערך	-10.2163
פטר	-10.2163
▁גבוהים	-10.2163
▁חני	-10.2167
▁מתמקד	-10.2168
קחו	-10.217
▁הכניסה	-10.2171
▁לטווח	-10.2172
גיל	-10.2172
▁סיום	-10.2176
▁גורל	-10.2177
▁משפחתו	-10.2186
מקומות	-10.2189
▁דיגיטלי	-10.2199
קראתי	-10.22
▁מועיל	-10.2203
▁לפיכך	-10.2206
▁כדורגל	-10.2209
ne	-10.2212
ברך	-10.2216
▁סטר	-10.2216
דרישות	-10.2228
פטי	-10.2229
▁להחזיק	-10.2232
▁כואב	-10.2233
▁מעלה	-10.2235
ליט	-10.2236
▁הסדר	-10.2243
▁הירח	-10.2244
▁קהל	-10.2246
שאת	-10.2251
▁Se	-10.2252
ספיק	-10.226
▁לציבור	-10.2265
▁מרגש	-10.2272
▁האחריות	-10.2274
10	-10.2276
▁התר	-10.2281
▁שכתב	-10.2289
▁זכר	-10.2294
▁הסוד	-10.2298
▁עשרים	-10.2301
▁סמים	-10.2307
▁המשחקים	-10.2313
▁ראשוני	-10.2315
קרן	-10.2317
פד	-10.2318
▁מכירות	-10.2318
▁ממשלה	-10.2319
ושע	-10.2323
▁שניים	-10.2326
▁המסר	-10.2328
▁תאי	-10.2332
תכנון	-10.2332
▁תרבותי	-10.2332
▁הדרומי	-10.2333
▁הסיכוי	-10.2333
▁המכונית	-10.2334
▁נתפס	-10.2334
▁רקע	-10.234
▁נסע	-10.2344
ant	-10.2351
▁סירב	-10.2353
▁שכב	-10.2354
נדו	-10.2355
סכום	-10.2356
כאשר	-10.2363
בחן	-10.2366
▁רשימה	-10.2366
▁לרדת	-10.2376
▁החוף	-10.2379
▁החמישי	-10.2379
▁הסיבות	-10.2382
▁איננה	-10.2383
▁הפוטנציאל	-10.2387
▁פוגע	-10.2388
הרוס	-10.2389
העולם	-10.2391
▁חור	-10.2399
▁להשאיר	-10.24
▁מאמץ	-10.24
מדיה	-10.2401
▁בקיץ	-10.2401
▁הצפוני	-10.2402
▁השאלות	-10.2402
▁תקציב	-10.2406
לון	-10.2407
מלחמות	-10.2408
מעל	-10.2408
▁משרת	-10.241
▁קולו	-10.2411
▁חוקים	-10.2414
▁שייכ	-10.2418
▁להצליח	-10.2418
▁מינית	-10.2426
▁פרנק	-10.2429
▁מגלה	-10.2429
▁המיוחד	-10.2434
▁הלך	-10.2439
דול	-10.2442
▁לכאן	-10.2444
▁תחילה	-10.2444
▁מסיב	-10.2449
▁הכריז	-10.2451
▁החלטת	-10.2451
▁נוכחות	-10.2453
▁עונש	-10.2454
▁להגדיל	-10.2454
מסקנה	-10.2458
▁אבן	-10.2459
▁הגישה	-10.2462
▁משמע	-10.2467
▁הטלוויזיה	-10.2468
▁הפופולרי	-10.2468
▁טעם	-10.2469
▁רשאי	-10.247
▁שריר	-10.2471
סיק	-10.2472
▁נכשל	-10.2477
▁צה	-10.248
▁קרן	-10.2482
▁רבי	-10.2483
▁נובע	-10.2485
נישואים	-10.2486
ופר	-10.2487
▁יעזור	-10.2489
▁החופש	-10.249
▁בעיית	-10.249
▁התל	-10.2497
▁עצום	-10.25
▁בבחירות	-10.2503
▁האדום	-10.2503
▁אכל	-10.2508
▁כלב	-10.251
▁מוגדר	-10.2511
הזמנה	-10.2511
תפיסה	-10.2512
▁אדיר	-10.2515
▁רוברט	-10.2517
▁שפות	-10.2517
▁Com	-10.252
▁בניית	-10.2524
שותפות	-10.2527
▁מספקת	-10.2534
▁הפחד	-10.2539
▁ביקר	-10.2539
עיתונות	-10.2541
▁כאלו	-10.2541
יישב	-10.2543
▁להשתנות	-10.2543
mi	-10.2544
▁מודעות	-10.2545
▁ידעו	-10.2545
▁חיה	-10.2548
▁שימו	-10.2554
▁מדענים	-10.2557
▁תג	-10.2557
בסיס	-10.2561
▁המלון	-10.2562
▁דלק	-10.2563
▁שוטר	-10.2568
▁איתה	-10.2569
▁בפרס	-10.257
▁מוזיאון	-10.2571
▁ממוצע	-10.2571
▁להקל	-10.2573
▁מחיי	-10.2574
▁לאט	-10.2578
▁הודו	-10.2578
▁בקול	-10.2581
השכלה	-10.2583
▁דרכו	-10.2585
לג	-10.2585
▁דולרים	-10.2589
▁חיובית	-10.2593
▁שיטת	-10.2597
▁לתאר	-10.2599
פעיל	-10.26
▁אישיות	-10.2601
הכניס	-10.2602
▁השלישית	-10.2603
▁ברחוב	-10.2604
▁הודיע	-10.2608
▁הרכבת	-10.2612
▁מורה	-10.2616
and	-10.2619
▁תלמיד	-10.2619
עיתון	-10.262
▁ציפור	-10.2622
▁הלווא	-10.2624
▁גזע	-10.2626
▁רוק	-10.2627
▁חלל	-10.2628
▁תכנ	-10.2629
▁75	-10.2629
▁תאריך	-10.263
▁מגע	-10.2631
▁דברי	-10.2632
▁גופנית	-10.2638
▁חמאס	-10.264
פלג	-10.2641
רישום	-10.2641
▁בחירות	-10.2642
▁רוד	-10.2645
קורא	-10.2647
ni	-10.2648
▁וזו	-10.2648
▁לוותר	-10.2649
▁מתנגד	-10.2649
▁מערב	-10.2651
▁th	-10.2652
השגת	-10.2653
▁לסרט	-10.2654
ליל	-10.266
▁מכלל	-10.2674
ערוץ	-10.2675
▁החדשים	-10.2678
▁חוב	-10.268
▁סכום	-10.268
גידול	-10.2682
ביעות	-10.2682
▁התכנית	-10.2683
רוסי	-10.2685
האם	-10.2686
▁בבני	-10.2689
▁חומ	-10.2691
▁חטא	-10.2694
▁מרש	-10.2697
לוק	-10.2709
▁המוזיאון	-10.2711
▁לנסוע	-10.2711
▁לקבלת	-10.2711
▁עמית	-10.2712
▁בינינו	-10.2712
▁התמונות	-10.2713
▁השפעת	-10.2714
ייצג	-10.2715
צפה	-10.2715
▁בקשה	-10.2716
▁באיזו	-10.2717
▁השלטון	-10.2717
▁רד	-10.272
▁נהיה	-10.272
▁העולמית	-10.272
▁התורה	-10.2721
▁יכלו	-10.2727
▁האוכל	-10.2728
▁חוס	-10.2728
▁32	-10.2729
▁העת	-10.273
▁ואנו	-10.2739
▁העלו	-10.2739
▁להסת	-10.2744
▁הפיננסי	-10.2746
זיהוי	-10.2748
▁חוקר	-10.2753
▁פעל	-10.2756
שלושה	-10.2757
▁ירידה	-10.2763
רוץ	-10.2765
▁הנהג	-10.2769
▁לקיים	-10.277
▁הצל	-10.2773
▁מורש	-10.2775
▁כוכבים	-10.2777
▁ברצינות	-10.2781
▁זמני	-10.2787
▁הקב	-10.2787
▁קוק	-10.2789
▁צעדים	-10.2793
לחימה	-10.2796
▁בעונ	-10.28
▁טכנולוגי	-10.2801
▁חבל	-10.2803
▁Ca	-10.2815
▁הנמצא	-10.2816
▁החיצוני	-10.2816
▁הסיני	-10.2817
▁ההסכם	-10.2819
▁שנייה	-10.282
▁המועצה	-10.2825
▁עוברים	-10.2831
▁מפגש	-10.2832
▁אשראי	-10.2845
:00	-10.2846
ערכים	-10.2847
▁מנכ	-10.2854
▁מאבק	-10.2858
▁לשנת	-10.286
▁ואחרי	-10.286
ריון	-10.2862
אלץ	-10.2863
▁בהיר	-10.2865
▁בימי	-10.2865
▁ברכב	-10.2866
▁אובדן	-10.2866
▁לשירות	-10.2867
תאהב	-10.287
שחזר	-10.2871
▁אוכלים	-10.2873
▁בזמנ	-10.2873
▁הדתי	-10.2873
▁הבסיס	-10.2875
תאפשר	-10.2877
▁האיראני	-10.2888
▁בתגובה	-10.2891
▁מוסדות	-10.2898
▁השמאל	-10.2901
▁מצוין	-10.2902
▁מצטער	-10.2902
▁להצביע	-10.2908
▁גול	-10.2909
עימות	-10.2911
▁אתרים	-10.2912
▁הבה	-10.2912
שמות	-10.2914
▁ספרד	-10.2917
▁Q	-10.2922
▁הכנסייה	-10.2923
▁ניסה	-10.2923
▁תפס	-10.2925
ke	-10.2925
▁2020	-10.2927
ימנע	-10.2928
▁יישאר	-10.293
▁קרקע	-10.2932
תקופות	-10.2934
▁דעות	-10.2935
▁נסיעה	-10.2936
▁התחלתי	-10.2936
▁לנשיא	-10.2942
▁חלום	-10.2951
▁מחשבה	-10.2954
ru	-10.2957
▁מזיק	-10.2965
▁ציין	-10.2965
▁נייד	-10.2968
▁תעש	-10.2971
▁יעל	-10.2972
כשיר	-10.2975
▁חברתי	-10.2975
IT	-10.2977
▁מניע	-10.2982
▁יוני	-10.2984
▁פורט	-10.2991
▁הנוגע	-10.2993
אוניברסיטאות	-10.2995
▁המין	-10.2995
▁מפלגת	-10.2997
▁פליט	-10.2998
▁מהבית	-10.3004
▁הוקמ	-10.3005
▁שמיר	-10.3008
▁לאבד	-10.3008
▁נדמ	-10.3009
▁צרפתי	-10.3018
▁יוצאים	-10.3024
▁בוחר	-10.3026
אוקיינוס	-10.3031
פיקוח	-10.3042
▁מציעה	-10.3042
▁אספ	-10.3044
▁רכש	-10.3047
▁בתחומי	-10.3048
▁גאה	-10.3048
▁קטע	-10.3052
יועץ	-10.3054
▁Al	-10.3054
▁נמכר	-10.3055
הטיל	-10.3056
ונס	-10.3063
▁הכביש	-10.3068
מהלך	-10.3068
▁מעוניינים	-10.3068
בוי	-10.307
אנס	-10.3071
▁לאזור	-10.3073
▁אוסטרליה	-10.3075
▁אהוב	-10.3075
▁המערבי	-10.3086
התבסס	-10.3088
▁190	-10.3091
▁להסיר	-10.3094
עצים	-10.3095
▁משחקי	-10.3099
דרכה	-10.31
▁פנו	-10.31
▁בהצלחה	-10.3104
▁רשימת	-10.3118
▁למשחק	-10.3119
▁הבעלים	-10.3123
▁מונח	-10.3127
▁החברתי	-10.313
אוכלוסייה	-10.3134
▁אינך	-10.3135
▁הנער	-10.3137
▁הליכה	-10.3137
▁עיקרי	-10.314
▁כוללים	-10.3151
שתתף	-10.3153
▁it	-10.3155
מגרש	-10.3158
-11	-10.3159
▁הלידה	-10.3163
התחשב	-10.3164
ברר	-10.317
▁קצרה	-10.317
500	-10.317
▁פסיכולוגי	-10.3175
▁בדו	-10.3178
▁ילדה	-10.3178
קיף	-10.318
▁התקשר	-10.318
פרופיל	-10.3182
▁מזמן	-10.3184
לבש	-10.3186
▁מחוז	-10.3187
▁סדרת	-10.3189
▁המשיך	-10.3191
▁שימושי	-10.3192
▁תנועת	-10.3193
▁סוכר	-10.3193
צופה	-10.3195
עיירה	-10.3196
▁דג	-10.3198
▁קשות	-10.3198
▁מתפתח	-10.3201
▁מבוגר	-10.3205
▁לבטל	-10.3206
▁ed	-10.3207
▁הביטוי	-10.3211
▁השיער	-10.3213
▁לשאלה	-10.3214
תומך	-10.3216
קושי	-10.3216
▁לתפוס	-10.3217
▁תנאים	-10.3225
▁למספר	-10.3225
הגדרה	-10.3225
▁דגים	-10.3233
מתנה	-10.3234
▁חולה	-10.3235
▁שאולי	-10.3236
▁בשבילך	-10.3237
▁סופי	-10.324
▁בגדים	-10.3242
רמות	-10.3247
▁למישהו	-10.3249
▁מוצג	-10.3251
▁באפשרות	-10.3252
▁בהקשר	-10.3253
▁מסייע	-10.3256
▁מוכנה	-10.3256
▁יצור	-10.3258
הופעה	-10.3258
▁כוללת	-10.3259
▁מעבד	-10.3259
▁נציג	-10.3264
▁השער	-10.3265
▁מתעורר	-10.3266
▁חלקי	-10.3268
הפעיל	-10.3271
▁אליי	-10.3272
▁ברק	-10.328
▁השונות	-10.3281
▁השינויים	-10.3283
ארגון	-10.3284
זמין	-10.3286
▁הבחור	-10.3287
▁מעודד	-10.3289
▁התגובה	-10.3293
▁התנגדות	-10.3295
▁יתרונות	-10.3296
▁ציוד	-10.3296
▁=	-10.3297
▁x	-10.3299
מסעדות	-10.3311
▁תינוקות	-10.3313
▁שיא	-10.3313
▁הירי	-10.3314
נייה	-10.3314
▁האפשרי	-10.3322
דגם	-10.3322
▁מודה	-10.3323
▁לפגוש	-10.3323
▁במאמר	-10.3332
נך	-10.3338
▁אצלנו	-10.3345
קבוצות	-10.3345
וול	-10.3345
ברית	-10.3345
סובב	-10.3347
▁הייצור	-10.3349
▁הכנ	-10.3355
▁המורה	-10.3356
▁סקי	-10.3359
▁נהר	-10.3359
דמה	-10.336
סימפטומים	-10.3362
▁ההצלחה	-10.3362
▁לשכוח	-10.3362
▁בוודאי	-10.3368
ודר	-10.337
▁קראו	-10.3371
▁רופאים	-10.3372
▁המשפטי	-10.3373
▁יחס	-10.3374
▁המוכר	-10.3376
גישה	-10.3377
▁Ho	-10.3379
▁פרופסור	-10.3381
שכר	-10.3381
▁מפקד	-10.3382
▁כותר	-10.3385
▁הצעת	-10.3385
▁הציג	-10.3386
▁Do	-10.339
▁עמדת	-10.3391
וסף	-10.3392
▁לגור	-10.3395
▁הרשות	-10.3397
▁המעבר	-10.34
▁מקובל	-10.3402
▁טיפש	-10.3404
▁מפל	-10.3404
▁שמגיע	-10.3406
▁דנ	-10.3417
▁האויב	-10.3419
▁טען	-10.342
▁נזכר	-10.3435
▁הגברים	-10.3436
▁עצוב	-10.3437
▁מעוניין	-10.3437
▁at	-10.3438
▁באוויר	-10.3438
עיבוד	-10.3439
עלייה	-10.3439
▁בטיחות	-10.344
▁יורד	-10.3444
▁אימון	-10.3445
לחץ	-10.3448
▁מוחלט	-10.3449
סבתא	-10.345
▁האקדמי	-10.3453
נשק	-10.3454
▁השתנה	-10.3458
דברים	-10.346
▁מתבצע	-10.3467
▁להרוויח	-10.3475
▁שתהיה	-10.3475
▁התנאים	-10.3475
▁Ha	-10.3483
▁להתגבר	-10.3483
חשיפה	-10.3485
▁לחדר	-10.3488
▁זכרו	-10.3492
לפעמים	-10.3492
▁השד	-10.3498
▁שותפ	-10.3503
▁הרוב	-10.3503
▁פט	-10.3506
▁סמל	-10.3506
▁מכירה	-10.3512
ck	-10.3516
כוכב	-10.3518
▁רצוי	-10.3519
▁קאר	-10.352
▁סמכות	-10.3521
▁קני	-10.3521
גינה	-10.3522
▁co	-10.3526
▁יהודית	-10.3529
בטוח	-10.3536
▁גנטי	-10.3541
▁ניצח	-10.3541
vi	-10.3543
▁2003	-10.3546
▁סיר	-10.355
▁חירום	-10.3551
▁Bo	-10.3554
▁מחלת	-10.3556
בורג	-10.356
▁פרטיות	-10.356
▁הכנסה	-10.3561
התנגדות	-10.3562
כמעט	-10.3569
רעיונות	-10.3571
▁הוראות	-10.3573
▁בקש	-10.3573
▁נופל	-10.3577
דרש	-10.3579
▁חמישי	-10.3581
▁אסיה	-10.3583
רשם	-10.3584
▁העיקריים	-10.3587
▁הספ	-10.3588
▁להגיש	-10.3589
ph	-10.3589
▁One	-10.3593
▁הנוצרי	-10.3596
▁סימנים	-10.3597
דרוש	-10.3605
▁מוז	-10.3605
-14	-10.3607
▁המשבר	-10.361
▁היקום	-10.361
-13	-10.3615
▁מתא	-10.3622
▁שפע	-10.3624
▁בקבוק	-10.3627
▁מגדיר	-10.3627
▁אברהם	-10.3627
▁הוציא	-10.3632
▁יוצרים	-10.3632
▁מודאג	-10.3632
▁בפרט	-10.3636
▁סובלים	-10.3636
▁הנכס	-10.364
הרגשה	-10.3644
-80	-10.3645
▁הער	-10.3647
▁סחר	-10.3659
▁פיס	-10.366
קדמו	-10.3662
▁לכיוון	-10.3663
▁לבריאות	-10.3666
tion	-10.367
שמיע	-10.367
פצע	-10.367
▁חלומות	-10.3671
▁תעוד	-10.3671
▁המועמד	-10.3672
▁שיחות	-10.3673
▁חום	-10.3681
שווקים	-10.3683
▁הדמוקרטי	-10.3683
טף	-10.3686
IN	-10.3686
▁יוסף	-10.3687
▁מפעל	-10.3691
▁היקר	-10.3691
▁Mar	-10.3692
כמו	-10.3693
ud	-10.3695
▁השנתי	-10.3697
▁תופס	-10.3697
▁בולט	-10.3698
▁):	-10.37
חליף	-10.3706
▁הבין	-10.3707
▁שאלתי	-10.3712
▁שבר	-10.3713
▁המשתמשים	-10.3713
▁תיאור	-10.3717
ide	-10.372
▁היל	-10.3721
▁שיצא	-10.3723
▁בדם	-10.3725
תהליכים	-10.3725
▁ועדיין	-10.3726
▁הצדק	-10.373
▁שמן	-10.3734
▁להגנ	-10.3737
▁חושש	-10.3742
▁המאבק	-10.3743
▁כראוי	-10.3743
▁שנוצר	-10.3745
▁הנבחר	-10.3752
▁הסופר	-10.3758
▁מסך	-10.3767
▁מסחר	-10.3772
-40	-10.3775
▁הערבים	-10.3777
עשרה	-10.3779
▁וזאת	-10.3781
▁מעי	-10.3781
דומה	-10.3782
▁אבות	-10.3782
▁2002	-10.3783
▁רוס	-10.3783
▁הצרכים	-10.3784
▁or	-10.3787
▁מוציא	-10.3788
▁האפשר	-10.3788
▁במלחמה	-10.379
▁קריטי	-10.3795
▁בפנים	-10.3799
▁בינלאומית	-10.38
▁החג	-10.3801
▁מהירות	-10.3802
▁בתים	-10.3803
▁טס	-10.3805
▁שנרא	-10.381
▁נהרג	-10.381
▁ציבור	-10.3815
▁פיל	-10.3815
▁באה	-10.3821
▁הערכה	-10.3821
▁רביעי	-10.3821
▁הקטנה	-10.3822
▁גיבור	-10.3822
▁באירוע	-10.3822
▁צמיחה	-10.3823
▁אובמה	-10.3823
▁!!!	-10.3824
-25	-10.3827
▁נתון	-10.3828
▁]]	-10.3828
▁בסגנון	-10.3831
ייצור	-10.3831
▁פרסומ	-10.3833
▁שיחה	-10.3833
רכיב	-10.3833
▁נעים	-10.3834
מילה	-10.3837
▁For	-10.3838
איומים	-10.384
▁עקרונות	-10.3844
▁48	-10.3847
▁מגיב	-10.3851
חליט	-10.3851
▁להצלחה	-10.386
▁יחידות	-10.386
▁האתגר	-10.3866
▁לברוח	-10.3871
עדיין	-10.3872
עשייה	-10.3873
ציונ	-10.3874
▁300	-10.3874
קוט	-10.3877
היינו	-10.3878
▁מבקשים	-10.3887
per	-10.3895
ארג	-10.3898
▁לעצמך	-10.3899
▁מפחיד	-10.39
▁העומד	-10.39
▁מייקל	-10.3901
▁ציבורית	-10.3901
▁התעשייה	-10.3902
▁מתרגל	-10.3909
US	-10.391
▁לקוח	-10.391
▁המונח	-10.391
▁פייסבוק	-10.3911
▁גבוהות	-10.3913
▁ממוק	-10.3914
לוס	-10.3914
▁הישראלים	-10.3918
מפלגה	-10.3919
▁ראיות	-10.3919
▁מהירה	-10.3923
▁ענה	-10.3924
▁מחייב	-10.3925
▁עמוקה	-10.3935
▁נוחות	-10.3937
ירידה	-10.3939
▁מצחיק	-10.3939
▁נוער	-10.3939
▁יופי	-10.3946
פקיד	-10.3947
סתיר	-10.3953
מתין	-10.3954
▁טקסט	-10.3961
משפחת	-10.3965
▁שרוב	-10.397
▁קיום	-10.3976
נראה	-10.3978
▁השיניים	-10.3979
▁אמה	-10.3979
▁הדרכים	-10.3982
ance	-10.3985
▁בקנ	-10.3991
מניעת	-10.3996
▁להתאים	-10.3998
▁ואולם	-10.3999
פתרון	-10.3999
▁שואלים	-10.3999
▁הסטודנטים	-10.4
▁פרופ	-10.4
▁החברתית	-10.4005
▁מעלות	-10.4008
▁נקודה	-10.4011
בוט	-10.4016
▁מאבד	-10.402
▁לגדול	-10.402
▁מוסיקה	-10.402
▁תוכנה	-10.4022
▁לאחור	-10.4024
▁לייש	-10.4025
▁Un	-10.4025
▁בתחילה	-10.4025
▁המעו	-10.4027
זן	-10.4029
▁גלגל	-10.4032
▁תלמידי	-10.4033
כתה	-10.4033
▁חלש	-10.4034
▁Br	-10.4035
הערכת	-10.4037
▁לעתיד	-10.4037
קיום	-10.4039
תקנות	-10.4042
▁לימד	-10.4043
▁דוגמאות	-10.4044
▁ריח	-10.4047
▁בדיק	-10.4052
▁לזמן	-10.4054
▁להיראות	-10.4059
▁הכבוד	-10.4059
▁לתפקיד	-10.406
▁ממשלתי	-10.4062
▁עובדי	-10.4066
▁חשבו	-10.4068
▁האחד	-10.4069
▁אחיו	-10.4069
ive	-10.4073
מרכז	-10.4075
▁חביל	-10.4077
▁פלי	-10.4078
▁יעילה	-10.4079
▁תושבים	-10.4079
▁שיח	-10.408
עניין	-10.408
סביר	-10.4091
▁לשיר	-10.4091
מגזין	-10.4091
▁תאונ	-10.4092
ציפיות	-10.4093
▁שגר	-10.4094
יכולות	-10.4096
בודד	-10.4098
▁אדוני	-10.4098
קבע	-10.4098
▁הרחוב	-10.4099
ook	-10.41
▁עולמי	-10.4104
▁אכיל	-10.4109
ak	-10.411
▁המערב	-10.4114
▁קבר	-10.4114
▁שאחרי	-10.4114
צדק	-10.4115
▁34	-10.4117
לידה	-10.4117
▁המשטר	-10.4117
חזרו	-10.4119
▁לשרת	-10.4125
גון	-10.4127
▁מוש	-10.413
▁בחוק	-10.4132
▁הומו	-10.4136
▁Microsoft	-10.4139
▁לדמיין	-10.4139
▁סליחה	-10.4139
▁המשק	-10.4141
▁מקומיים	-10.4143
▁הפרק	-10.4143
בינו	-10.4147
▁עין	-10.4147
▁בשלוש	-10.4152
▁שבועיים	-10.4154
חסן	-10.4158
▁אהיה	-10.4158
▁הטקס	-10.4159
אסור	-10.4164
▁הפרטים	-10.4169
▁פירות	-10.4172
▁33	-10.4172
פגיעה	-10.4173
▁מעדיף	-10.418
▁ממשיכה	-10.418
▁מבקרים	-10.4188
▁התקדמות	-10.4189
▁הפסקת	-10.4196
▁הולנד	-10.4197
מצאתי	-10.4206
▁רשמית	-10.421
▁קצב	-10.421
קבוצת	-10.4212
▁זמנית	-10.4213
▁מומחה	-10.422
▁שעשית	-10.422
▁הקיר	-10.4221
מול	-10.4222
AS	-10.4222
▁החופשי	-10.4226
▁האמיתית	-10.4227
▁השקעה	-10.4227
▁מצליחים	-10.4228
▁מגו	-10.4228
כיל	-10.4234
עיקרון	-10.4236
-8	-10.4241
דיאט	-10.425
▁לרוץ	-10.4257
היבטים	-10.4261
דירוג	-10.4266
▁דיון	-10.4267
-7	-10.4268
▁שפת	-10.4268
שתדל	-10.427
▁שותפים	-10.4277
שירותים	-10.4279
▁תעשה	-10.428
ריץ	-10.4283
▁תעשיית	-10.4284
▁התפתח	-10.4288
▁הנוכחית	-10.4289
נגר	-10.4291
▁רוסי	-10.4291
▁גבול	-10.4292
▁מקצועית	-10.4293
▁הקודמת	-10.4302
▁לנושא	-10.4303
▁בעסק	-10.4305
▁2004	-10.4305
▁סיימ	-10.4308
יליון	-10.431
▁המקדש	-10.4318
▁צורת	-10.4322
▁עובדה	-10.4332
▁נבנה	-10.4336
ER	-10.4339
▁נתוני	-10.4342
▁ללימוד	-10.4343
▁ארוכות	-10.4343
▁אוטובוס	-10.4343
פרוייקט	-10.4343
▁בחירת	-10.4344
▁נמצאו	-10.4344
מתקפה	-10.4347
▁יולי	-10.4348
▁דניאל	-10.4349
הצהרה	-10.4358
▁רכיב	-10.4359
▁להעריך	-10.436
▁פרטיים	-10.4362
▁להכ	-10.4363
וויל	-10.4364
▁האחים	-10.4365
▁הראשוני	-10.4377
▁הנשק	-10.4378
▁חומרי	-10.4381
▁דרוש	-10.4383
תוכנן	-10.4383
▁לפיתוח	-10.4385
▁משותפת	-10.4385
▁הרגליים	-10.4387
▁במוח	-10.4389
▁דרישות	-10.4392
▁אלבום	-10.4392
▁לגוף	-10.4393
נוהל	-10.4397
1%	-10.4397
שופ	-10.4397
▁באש	-10.4397
▁החבר	-10.44
הפעלה	-10.4401
קיבלתי	-10.4416
▁מחזור	-10.442
▁המזרח	-10.4423
▁הביטוח	-10.4426
▁עוזב	-10.4426
▁הכיבוש	-10.4426
▁הצעירים	-10.4427
▁לומד	-10.4428
▁הזמנים	-10.443
באנגלית	-10.4431
da	-10.4432
▁בריאים	-10.4435
▁מתקרב	-10.4436
▁באים	-10.4442
▁הקרובה	-10.4446
▁איום	-10.4455
▁התקנ	-10.4455
▁31	-10.4458
כיצד	-10.4463
▁הספק	-10.4463
▁נמשך	-10.4463
למטרות	-10.4466
▁מטרים	-10.447
▁פגיעה	-10.447
נוכחות	-10.4471
פרנס	-10.4473
▁לשרוד	-10.4473
▁ישירה	-10.4476
▁חשיבה	-10.4477
▁בשדה	-10.4479
▁שוחרר	-10.4483
▁יעקב	-10.4484
▁גוגל	-10.4485
▁מוגבלת	-10.4486
▁הפרש	-10.4496
-50	-10.4506
▁ואח	-10.4506
▁קונים	-10.4509
▁העברת	-10.4509
▁הקשה	-10.4511
▁משקיעים	-10.4512
סגור	-10.4512
▁גמיש	-10.4512
קומה	-10.4514
▁המזל	-10.4517
▁חזקים	-10.4518
▁להופיע	-10.4522
▁הנפט	-10.4523
▁הופ	-10.4526
▁קח	-10.4527
▁מלח	-10.4529
ארגן	-10.4529
שלם	-10.4537
תזונה	-10.4549
כבוש	-10.4549
▁השטן	-10.4552
▁ליצירת	-10.4552
▁קהילה	-10.4552
פורסמו	-10.4553
▁השעה	-10.4554
▁הסתכל	-10.4556
▁קריאה	-10.4559
גישות	-10.4562
החלטות	-10.4563
▁המקומית	-10.4569
iz	-10.4569
▁גילוי	-10.4569
תיקון	-10.4569
▁האירועים	-10.4571
▁בער	-10.4573
▁mo	-10.4575
▁נרצח	-10.4576
▁מוקד	-10.4579
▁משקפ	-10.458
▁שורש	-10.458
עסוק	-10.4581
▁מאמרים	-10.4587
ack	-10.4587
▁פיתח	-10.459
▁המסע	-10.4591
▁אישר	-10.4592
שחרור	-10.4593
▁[2]	-10.4594
מנגנון	-10.4595
רשום	-10.4595
▁הכוכבים	-10.4597
▁הכתוב	-10.4599
▁בריטי	-10.4601
▁המקרה	-10.4601
מפרץ	-10.4602
▁נמסר	-10.4605
▁טיסה	-10.4608
▁צפי	-10.461
צרכנים	-10.4617
▁להתקיים	-10.4618
בלוג	-10.4622
▁הלחץ	-10.4628
ian	-10.4628
▁הערים	-10.4633
מוסדות	-10.4635
}	-10.4636
▁לעצמכם	-10.4636
פוליטיקאים	-10.4636
▁עוקב	-10.4636
▁תרגיל	-10.4637
▁שנועד	-10.4637
פסיק	-10.464
▁לשכנע	-10.4643
▁באמריקה	-10.4643
▁התעורר	-10.4644
▁לתלמיד	-10.4645
▁יכל	-10.4646
▁תכנון	-10.4647
הגביר	-10.4655
ארמון	-10.4659
עריך	-10.466
▁ראית	-10.4661
▁משכ	-10.4663
▁ערכים	-10.4666
▁סטיב	-10.4666
▁כתבה	-10.4667
▁אורך	-10.4669
▁רוז	-10.4671
▁2001	-10.4671
כישורים	-10.4672
גרמו	-10.4675
▁חומצ	-10.4676
▁הבניין	-10.4679
▁רגוע	-10.4679
▁להגיב	-10.4679
▁ועדת	-10.4687
לשון	-10.4688
▁es	-10.4689
▁קנדה	-10.469
הוצאות	-10.4693
מיעוט	-10.4693
▁דיוק	-10.4695
הגענו	-10.4697
▁לשחרר	-10.4707
▁בטלוויזיה	-10.4721
▁לדוגמא	-10.4721
▁הארוך	-10.4721
▁בשיעור	-10.4721
▁אצבע	-10.4721
▁במצרים	-10.4722
▁נחל	-10.4723
נסון	-10.4726
go	-10.4726
ies	-10.4727
▁נשכח	-10.4728
▁המזרחי	-10.4732
-9	-10.4734
▁עז	-10.4735
ספי	-10.4737
▁חוט	-10.4744
▁התוכן	-10.4746
מתן	-10.4749
7%	-10.475
▁נחת	-10.4752
▁קצ	-10.4754
▁מסמכים	-10.4755
תכנית	-10.4757
▁ייעוץ	-10.4757
▁יתרון	-10.4759
▁לתרום	-10.4764
▁רגילים	-10.4765
▁Ad	-10.477
מאמץ	-10.4771
▁לשנה	-10.4773
▁הישן	-10.4773
▁מכוונ	-10.4776
▁אימו	-10.4777
▁נוגע	-10.4778
נטל	-10.4779
תמורת	-10.4779
▁99	-10.478
שימוש	-10.4781
▁הפא	-10.4782
▁החשובים	-10.4784
▁עבודתו	-10.4784
▁תגית	-10.4786
שתתפו	-10.4787
▁הזהב	-10.4788
▁יצליח	-10.4791
▁ניסו	-10.4792
▁המשיח	-10.4794
if	-10.4796
▁תיאורי	-10.4797
▁me	-10.48
טק	-10.4801
ust	-10.4803
▁העתיק	-10.4805
▁[1]	-10.4807
▁מרוצה	-10.4808
▁מתאימה	-10.4808
son	-10.4812
▁תחרות	-10.4824
עצור	-10.4826
מודעות	-10.4826
▁נשי	-10.4827
נשיא	-10.4831
▁המבצע	-10.4832
▁איל	-10.4834
▁65	-10.4835
שיטה	-10.4836
לעולם	-10.4839
▁משלוש	-10.484
▁הרשויות	-10.4841
▁רכוש	-10.4846
▁חיינו	-10.4849
▁למחרת	-10.4851
▁כביש	-10.4854
▁במציאות	-10.4854
▁מצפים	-10.4856
▁דפוס	-10.4861
▁מעיד	-10.4863
▁הערה	-10.4875
▁הזיכרון	-10.4878
▁כאחד	-10.4885
▁שגוי	-10.4888
▁אזורי	-10.4891
▁החורף	-10.4894
▁בסיפור	-10.4894
אספקת	-10.4895
ציית	-10.4896
▁בדרכים	-10.4897
▁משימה	-10.4899
▁שותף	-10.4903
va	-10.4912
▁חייל	-10.4912
שגריר	-10.4925
▁נוסע	-10.4928
▁עמי	-10.4937
▁התחרות	-10.4939
▁לאירוע	-10.4939
תושבי	-10.494
▁מבינה	-10.4941
עישון	-10.4943
▁סיכ	-10.4943
פאלון	-10.4944
▁זרע	-10.4944
▁שולט	-10.4946
▁אדי	-10.4946
▁צורות	-10.4948
▁ation	-10.4952
▁משלי	-10.4955
▁38	-10.4957
▁המדעי	-10.4957
▁משלו	-10.496
▁לשלום	-10.4971
▁טעויות	-10.4975
▁דירה	-10.4976
▁ערים	-10.4977
▁המחבר	-10.4978
▁ארוכים	-10.4982
▁בטיפול	-10.4982
▁קהילת	-10.4982
▁הפוליטית	-10.4983
▁השקעות	-10.4984
▁המשתתפים	-10.4985
מגבלות	-10.4986
▁החיילים	-10.4987
▁תשכח	-10.499
▁He	-10.4992
▁להתקדם	-10.4994
▁ניצול	-10.4995
רוז	-10.4995
▁עוג	-10.4997
▁דמו	-10.5002
▁שייך	-10.5002
▁פלילי	-10.5003
▁הקפה	-10.5007
▁הפרו	-10.5011
▁למדתי	-10.502
▁55	-10.5021
▁למידה	-10.5022
▁מסכימים	-10.5026
▁מעצמ	-10.5027
▁שיותר	-10.5027
הערכה	-10.503
▁האסטרטגי	-10.5031
▁קריירה	-10.5033
התפלל	-10.5038
▁לבלות	-10.504
-60	-10.5046
▁לאלוהים	-10.5047
▁נבו	-10.5048
▁חלופ	-10.5052
וכנת	-10.5056
▁קיץ	-10.5061
גודל	-10.5062
▁מנהלים	-10.5064
▁והנה	-10.5067
זרק	-10.5068
▁להרחיב	-10.507
▁המולד	-10.5071
▁מנצח	-10.5071
▁כניסה	-10.5072
▁מניות	-10.5074
▁אנגליה	-10.5076
▁בוצע	-10.5076
▁Te	-10.5083
חשיבות	-10.5085
▁אמצע	-10.5086
▁פיזית	-10.5087
▁ברשות	-10.509
▁טהור	-10.509
ָא	-10.5092
▁ויטמי	-10.5093
▁המודרנית	-10.5094
▁טכנולוגיות	-10.5096
▁הדיון	-10.5096
הסכם	-10.51
▁חופשית	-10.51
▁עשית	-10.5111
▁זוכרים	-10.5114
▁יהודה	-10.5115
▁הקטנים	-10.5115
▁שיוכל	-10.5115
תרגום	-10.5121
תחושה	-10.5128
▁אינדי	-10.5129
▁חוזרת	-10.5131
▁עשתה	-10.5134
▁הצעות	-10.5143
▁ממליצים	-10.5143
▁מסיבה	-10.5154
▁גשר	-10.5155
▁צליל	-10.5157
▁למוות	-10.5159
▁לביקור	-10.5159
▁שחרור	-10.5161
▁חולק	-10.5161
▁דגל	-10.5161
▁נגיש	-10.5165
▁חנויות	-10.5167
▁הפסד	-10.5172
▁המקומות	-10.5178
iv	-10.5183
▁המבט	-10.5186
-100	-10.5187
מבוגרים	-10.5188
▁מקומ	-10.5188
▁הגז	-10.5192
▁למשוך	-10.5204
ear	-10.5204
▁הצער	-10.5204
▁התושבים	-10.5205
ga	-10.521
ולוג	-10.5211
▁השיטה	-10.5214
צרכים	-10.5214
▁אמריקאים	-10.5219
▁השואה	-10.5219
▁ובני	-10.5224
▁שהדבר	-10.5229
תכלית	-10.5232
▁לראש	-10.5233
▁מטעם	-10.5235
וביל	-10.5242
▁המסך	-10.5243
▁הודות	-10.5244
IS	-10.5244
▁להקשיב	-10.5249
▁זכאי	-10.5249
▁מיט	-10.5249
▁שמחים	-10.525
▁נית	-10.5251
תרגול	-10.5253
▁הכללית	-10.5262
▁צעירה	-10.5263
▁בטווח	-10.5264
▁מבוססת	-10.5266
השפעות	-10.5267
דמויות	-10.5269
▁יפים	-10.5273
▁מבחן	-10.5274
8%	-10.5276
▁החוויה	-10.5279
mo	-10.5283
▁פטרי	-10.5284
▁הגר	-10.5286
▁שליח	-10.5287
▁טורקיה	-10.5291
▁השג	-10.5291
▁בממוצע	-10.5294
▁הניתוח	-10.5295
▁המשמש	-10.5295
▁New	-10.5296
▁מסוגלת	-10.5296
פוט	-10.5298
▁רחבה	-10.5303
▁העי	-10.5304
שליטה	-10.5304
▁העסקים	-10.5305
▁הגופ	-10.5309
▁טיפוס	-10.531
▁הוגן	-10.5312
▁עותק	-10.5312
▁למידע	-10.5313
▁בדומה	-10.5313
▁המטבע	-10.5313
מאז	-10.5316
מערב	-10.5316
▁חוזרים	-10.5318
▁במדינת	-10.5323
▁רשתות	-10.5323
▁בפייסבוק	-10.5324
רושם	-10.5326
הפרעות	-10.5327
▁משאיר	-10.5331
ווין	-10.5332
▁מעורבים	-10.5338
▁זמינים	-10.534
▁חוזה	-10.5342
חידוש	-10.5346
▁מחירי	-10.5346
▁ימין	-10.5347
דרישה	-10.5357
מזון	-10.5357
tic	-10.5357
sp	-10.5358
▁חשבונות	-10.5366
▁חסרי	-10.5368
▁למדע	-10.5372
מתח	-10.5372
▁ביכולת	-10.538
שיהיו	-10.5385
▁התרופה	-10.5385
▁איכותי	-10.5386
port	-10.5391
[	-10.5392
עכבר	-10.5394
תאים	-10.5395
▁מחשבים	-10.54
▁מרצ	-10.5401
▁צבעים	-10.5403
▁המראה	-10.5407
▁לדרך	-10.5407
▁חב	-10.5409
ְר	-10.5409
התקפה	-10.541
▁אבק	-10.5411
▁עתידי	-10.5415
▁התחילו	-10.5417
מטרי	-10.5417
מנכ	-10.5419
▁החלום	-10.5419
וודאות	-10.5428
תשע	-10.5428
▁הסינית	-10.543
▁בכלא	-10.543
▁בסביבות	-10.5431
▁קלאסי	-10.5433
יישום	-10.5437
הרי	-10.5439
▁השיחה	-10.544
▁אזרח	-10.5444
▁תאר	-10.5446
מאוחר	-10.5446
AT	-10.5449
▁Ph	-10.5449
יפוי	-10.545
▁סן	-10.5451
▁המרכזית	-10.5455
▁עולמית	-10.5458
▁החמ	-10.546
▁פטר	-10.5472
▁השולחן	-10.5477
▁ברזל	-10.5477
▁יישומ	-10.5478
▁הרשימה	-10.5479
▁מתנה	-10.5479
▁התקבל	-10.5481
משקאות	-10.5482
▁בהדרגה	-10.5482
▁דחי	-10.5483
▁נראו	-10.5485
▁רומא	-10.5486
▁בהריון	-10.5486
▁הענ	-10.5488
▁מסכ	-10.5489
עוצמה	-10.549
▁ידו	-10.5491
תפילה	-10.5496
▁ערבים	-10.5499
▁הידיים	-10.5504
▁אלוקים	-10.5504
צפייה	-10.5506
▁היפני	-10.5509
▁מוכרים	-10.5509
▁הישג	-10.551
Fi	-10.5513
שמאל	-10.5513
▁בריאה	-10.5515
רכז	-10.5517
▁המחשבה	-10.5517
▁150	-10.5521
▁דרכ	-10.5523
▁תשובות	-10.5524
▁התמקד	-10.5526
▁So	-10.5528
אנר	-10.5529
מולדת	-10.5531
▁כספים	-10.5538
▁תוצר	-10.554
▁לפרט	-10.554
▁מאתנו	-10.5544
▁הגיל	-10.5546
יציבות	-10.5553
▁נעלם	-10.5553
▁האמריקאים	-10.5553
▁חברתיים	-10.5554
מימון	-10.5555
סרב	-10.5559
▁זוכרת	-10.556
4%	-10.556
▁עולמ	-10.5562
▁התובע	-10.557
▁סטי	-10.557
▁הספורט	-10.5572
▁להלן	-10.5573
▁פנימה	-10.5574
▁הקורס	-10.5579
▁לשקול	-10.5581
תעשיית	-10.5584
ba	-10.5587
איך	-10.5592
AN	-10.5595
▁מבקר	-10.5596
▁במערב	-10.5604
▁להתפתח	-10.5606
▁מיותר	-10.561
קצין	-10.5614
▁פועלת	-10.5615
▁דני	-10.5616
▁מיקום	-10.5616
▁[+]	-10.5617
▁מתגורר	-10.5617
▁אוגוסט	-10.5617
▁קולנוע	-10.5617
▁נשא	-10.5621
▁נאבק	-10.5626
up	-10.5626
25	-10.5627
▁זיהום	-10.5628
כיכר	-10.5628
di	-10.5628
▁הרופאים	-10.5638
קרט	-10.5638
▁במלוא	-10.5644
▁דרש	-10.5648
▁מפסיק	-10.565
ock	-10.5652
▁1999	-10.5652
ניינים	-10.5653
מעין	-10.5654
אליפות	-10.5661
▁מתקבל	-10.5661
▁הטכני	-10.5662
▁שולחן	-10.5663
▁דרמטי	-10.5664
▁Ex	-10.5667
▁כבש	-10.5668
▁37	-10.5669
▁ציון	-10.5672
▁הנסיעה	-10.5683
▁הערבית	-10.5685
▁פלו	-10.5686
▁יך	-10.5689
מדינת	-10.5697
▁בכנס	-10.5701
▁חיו	-10.5703
▁Lo	-10.5707
▁לעצמם	-10.5711
▁הנפוצ	-10.5711
עיסוק	-10.5713
▁להבח	-10.5715
▁בענ	-10.5719
ff	-10.5722
עקרונות	-10.5731
קמפוס	-10.5734
▁תיקון	-10.5735
מהווה	-10.5738
▁חנות	-10.5738
▁במס	-10.5739
▁לחסוך	-10.5742
▁מעביר	-10.5746
▁ברירה	-10.5747
▁המקורית	-10.5756
▁Mi	-10.5756
▁סוציאלי	-10.5757
מעגל	-10.5758
▁בפיתוח	-10.5758
▁יומיים	-10.5761
▁הופעת	-10.5761
▁בחלל	-10.5762
עבירה	-10.5762
▁הזכויות	-10.5764
הרבה	-10.5764
▁עריכה	-10.5765
▁כשאתם	-10.5765
▁להתחבר	-10.5766
▁להתעלם	-10.5766
פגע	-10.5767
▁ביולוגי	-10.5769
▁המכונה	-10.5769
▁סדרה	-10.577
▁בשקט	-10.5771
חזות	-10.5776
▁יצירות	-10.5777
▁הפסיק	-10.5783
▁מימון	-10.5793
▁39	-10.5794
▁הגרמנים	-10.5796
▁לכלול	-10.58
▁החלטתי	-10.5802
▁?!	-10.5803
▁מעגל	-10.5804
▁קליפורניה	-10.5806
▁וכמובן	-10.5806
▁המבקרים	-10.5806
▁הירוק	-10.5807
▁המוקדמ	-10.5809
שותף	-10.581
למידה	-10.5813
▁יצרני	-10.5814
▁ביפן	-10.5815
▁להתרחש	-10.5818
▁חריג	-10.5819
▁מטופלים	-10.582
▁שיקול	-10.5824
▁לעיל	-10.5826
ure	-10.5828
▁הכלכלית	-10.583
▁הנרי	-10.5841
▁פוליטיים	-10.5842
▁דמוקרטיה	-10.5842
ערים	-10.5846
▁תרגום	-10.5848
▁שיעורי	-10.5848
▁יעילות	-10.585
▁פתוחה	-10.5856
הציב	-10.5858
▁תזונה	-10.5859
▁פרא	-10.5861
▁שנולד	-10.5862
▁לרשות	-10.5863
▁ולמה	-10.5864
▁תקבל	-10.5866
▁בכפר	-10.5867
שיחות	-10.5868
▁רדיו	-10.5869
▁תחבורה	-10.5872
▁להגש	-10.5873
מסמכים	-10.5877
▁מפורט	-10.5881
lu	-10.5882
▁העין	-10.5883
net	-10.5884
▁לבנים	-10.5891
▁בנייה	-10.5894
משאבים	-10.59
להזמין	-10.59
▁מדווח	-10.5902
▁הבורא	-10.5904
▁הנזק	-10.5904
▁המטרות	-10.5904
▁הצמיחה	-10.5904
וירוס	-10.5909
▁הכתב	-10.5909
הנאה	-10.591
PS	-10.5919
SS	-10.5919
▁ספינ	-10.592
▁מאחור	-10.5923
ES	-10.5924
טפח	-10.5925
פיץ	-10.5928
▁משאבים	-10.5932
▁פעילים	-10.5935
▁ion	-10.594
▁בחרו	-10.5941
▁אביה	-10.5942
▁צבאית	-10.5944
▁השפעות	-10.5944
▁הקרובים	-10.5946
▁Go	-10.5948
▁תוספת	-10.5948
▁פיטר	-10.5948
▁לחלוק	-10.5948
▁בקיצור	-10.595
▁יומי	-10.595
▁המלכותי	-10.5955
▁הנשמה	-10.5956
עברו	-10.5958
▁שמור	-10.596
▁עוצר	-10.5964
תמך	-10.5965
▁מאושרים	-10.5967
▁II	-10.5968
▁קרח	-10.5969
▁האישיים	-10.5969
▁400	-10.5978
▁הגעת	-10.5979
▁העניק	-10.5981
▁אפי	-10.5981
-70	-10.599
▁המצרי	-10.5997
▁הפיתוח	-10.5999
▁שעומד	-10.5999
▁המספרים	-10.5999
▁המורכב	-10.5999
▁מתנדב	-10.5999
ממלכה	-10.6001
▁נערכ	-10.6001
▁צהוב	-10.6005
▁סטודנט	-10.6007
▁ממצא	-10.6007
▁נפצע	-10.6016
▁טון	-10.6018
▁בגין	-10.6022
סוכן	-10.6023
▁חרדה	-10.6027
▁תועלת	-10.6029
▁מאפיינ	-10.6032
▁שאלו	-10.6034
▁מושל	-10.6041
▁בפרק	-10.6042
▁חוות	-10.6044
▁מילות	-10.6044
היבט	-10.6047
▁הפדרלי	-10.6047
▁מלאכותי	-10.6047
▁השירותים	-10.6049
▁הכשר	-10.605
▁בטלפון	-10.6052
▁חיפש	-10.6052
▁גולד	-10.6052
▁הפליטים	-10.6053
אימונים	-10.6055
▁אלפים	-10.6055
▁התרופות	-10.6062
▁מרפא	-10.6062
תמודדות	-10.6062
▁הצטרפו	-10.6062
▁המשא	-10.6063
▁אבנים	-10.6064
▁לסוג	-10.6074
▁סור	-10.6074
הפעלת	-10.6075
מיס	-10.6075
▁האזרחי	-10.6079
▁הריון	-10.608
▁השתתפות	-10.6081
▁הביע	-10.6083
▁הפק	-10.6086
▁דואר	-10.6087
▁למחשב	-10.6088
▁תחומי	-10.6096
▁לעצמנו	-10.6096
▁הצהריים	-10.6096
▁המכירות	-10.6097
▁שעלול	-10.6097
▁אלוהי	-10.6097
תחושות	-10.6099
▁ברוסיה	-10.61
פנסיה	-10.61
▁עסוק	-10.6101
▁לסבול	-10.6105
▁ברגל	-10.6106
▁יהוה	-10.6108
▁בחורה	-10.6108
▁התקציב	-10.611
▁הפרטיות	-10.6114
▁עידן	-10.6117
▁השישי	-10.6118
▁מתנ	-10.612
נקודת	-10.6124
▁הקבר	-10.6127
we	-10.6128
▁חדשני	-10.6128
יטול	-10.6131
▁טופ	-10.6137
pa	-10.6137
טלפונים	-10.6141
▁פסטיבל	-10.6146
▁ברזיל	-10.6146
▁לרופא	-10.6146
▁הפארק	-10.6147
▁בניין	-10.6147
▁רשומ	-10.6147
▁למלחמה	-10.6149
▁ראייה	-10.6149
פיס	-10.615
מחנות	-10.6151
אוזן	-10.6151
יותר	-10.6152
▁שנאמר	-10.6153
-21	-10.6155
▁My	-10.6157
▁סוכרת	-10.6159
▁למחקר	-10.6161
▁ניצב	-10.6161
▁הודיעה	-10.6163
אתר	-10.6163
▁לובש	-10.6166
מחאה	-10.6168
▁איזון	-10.6174
▁הצלב	-10.6178
ty	-10.6179
▁ne	-10.6181
וצץ	-10.6182
▁הרפובליקה	-10.6193
▁עליהן	-10.6195
▁וושינגטון	-10.6195
▁הגלובלי	-10.6195
▁תערוכ	-10.6195
▁Man	-10.6196
ייתן	-10.6196
▁הביניים	-10.6197
▁המועצות	-10.6197
▁פרחים	-10.6198
OS	-10.6199
▁התחייב	-10.6199
גיוס	-10.6201
▁En	-10.6201
▁המלכה	-10.6202
▁הענק	-10.6204
▁הפרסום	-10.6209
כולל	-10.6211
▁יוון	-10.6211
▁מדד	-10.6212
▁בקבוצה	-10.6219
▁ביטול	-10.6222
▁ממלא	-10.6225
▁נשבע	-10.6227
אמצעי	-10.6227
▁מוסלמים	-10.6229
▁הקונגרס	-10.6229
▁משימות	-10.6231
חולל	-10.6233
▁הקבוצות	-10.6237
למרות	-10.624
▁גילו	-10.6242
▁בעצמך	-10.6245
▁טיסות	-10.6251
▁הגרוע	-10.6251
▁למעט	-10.6252
חשיב	-10.6252
▁מנהיגות	-10.6255
▁מסרב	-10.6259
▁קליני	-10.6263
▁הדעת	-10.6266
סכימו	-10.6266
ערכו	-10.6268
▁פריז	-10.627
▁חוויות	-10.6274
▁המפגש	-10.6278
קריאת	-10.6282
▁לשיפור	-10.6294
▁ליהודים	-10.6294
▁במשפחה	-10.6295
▁הנביא	-10.6295
▁בבירור	-10.6295
▁בפריז	-10.6296
▁חברתיות	-10.6296
▁גלובלי	-10.6297
▁הוצאות	-10.6297
▁מוצק	-10.6297
▁סגנון	-10.6303
▁ההריון	-10.6304
חישוב	-10.6305
עלויות	-10.6305
מייל	-10.6306
▁מנהיגים	-10.6306
תמודד	-10.6306
▁מנח	-10.6312
▁הקצר	-10.6314
▁הפעיל	-10.6321
פוא	-10.6321
▁המתח	-10.6321
תיאטרון	-10.6323
▁המוסלמים	-10.6324
▁שגריר	-10.6326
▁למדו	-10.6328
▁85	-10.6329
▁תצטרך	-10.6333
▁סומ	-10.6335
אחוז	-10.6337
▁לזכויות	-10.634
ts	-10.6343
▁הייחודי	-10.6345
▁שעובד	-10.6345
▁לעודד	-10.6346
▁הבנייה	-10.6346
▁בסיכון	-10.6346
תוך	-10.6347
▁גנב	-10.6349
▁המכיל	-10.6349
▁מושלמת	-10.6349
▁נשימה	-10.6357
▁מכשירים	-10.6362
רצונך	-10.6367
ord	-10.637
מבחן	-10.6372
שכב	-10.6373
▁מורכבת	-10.6373
▁מעורבות	-10.638
▁לארה	-10.6382
שוחרר	-10.6382
▁קונג	-10.6389
▁אקס	-10.6392
אגיד	-10.6393
אופי	-10.6394
▁האנגלית	-10.6394
▁זוכה	-10.6395
▁חכמים	-10.6396
▁לערוך	-10.6396
▁תגובת	-10.6396
▁האפשרויות	-10.6399
▁ציפ	-10.6399
▁בתא	-10.6401
▁הכוללת	-10.6406
ארץ	-10.6409
▁חזון	-10.6412
▁נחוש	-10.6414
כדורסל	-10.6415
rom	-10.6417
▁ניצחון	-10.6419
אולם	-10.6419
▁היחס	-10.6421
רשימת	-10.6421
בישול	-10.6424
▁בפרויקט	-10.6424
▁הדמוקרטיה	-10.6429
▁המפורסם	-10.6431
תחנה	-10.6435
▁סיטי	-10.6436
▁ודאי	-10.644
▁פלסטין	-10.6446
▁מתקדמים	-10.6446
▁נבדק	-10.6447
▁הכוונה	-10.6447
▁הלהקה	-10.6447
▁מסתבר	-10.6448
▁נלקח	-10.6448
▁חובות	-10.6449
זמינה	-10.645
▁לפרסם	-10.645
▁מוסד	-10.6455
▁צמחים	-10.6458
▁[[	-10.6458
▁המתאים	-10.6464
▁פגע	-10.6468
▁מטוסים	-10.6473
▁סגן	-10.6475
▁לדון	-10.6489
זין	-10.6491
▁שמדובר	-10.6497
▁הרפואה	-10.6497
▁תרופה	-10.6499
▁פילוסופי	-10.6499
▁האחורי	-10.65
▁הכרטיס	-10.65
▁הבמה	-10.6511
▁אנוש	-10.6512
own	-10.6513
▁אומץ	-10.6523
▁חקלאי	-10.6524
▁איטי	-10.6527
ַּ	-10.6527
▁זכור	-10.6528
▁הרוסית	-10.6528
עולה	-10.6536
▁עבורכם	-10.6537
▁כעס	-10.6538
ֹא	-10.654
יזמים	-10.6542
טיפוח	-10.6543
נתונים	-10.6544
▁Li	-10.6546
כזב	-10.6546
▁ההודעה	-10.6549
▁הבריטית	-10.655
▁נוגד	-10.6553
עט	-10.6553
תפריט	-10.6555
-]	-10.6557
מצלמות	-10.6557
▁מוחמד	-10.6558
▁נהנה	-10.656
ite	-10.6562
▁מתמיד	-10.6565
▁חרד	-10.6565
סטודנטים	-10.657
▁הסחר	-10.6572
באמת	-10.6573
▁תראה	-10.6573
ינוק	-10.6574
חודשיים	-10.6576
▁נותרו	-10.6582
▁לאומית	-10.6586
▁כרטיסים	-10.6596
▁להורג	-10.6597
▁אימא	-10.6599
▁נתיב	-10.66
▁האסלאמי	-10.66
אבולוציה	-10.66
תסמינים	-10.66
▁אופניים	-10.6602
▁ברח	-10.6603
▁שחשוב	-10.6606
▁מזונות	-10.6608
▁לבעלי	-10.661
▁למשרד	-10.6611
▁מאסר	-10.6612
▁בטבע	-10.6613
▁נהדרת	-10.6614
חפצים	-10.6614
▁לשוק	-10.6616
תעסוקה	-10.6616
▁נשאל	-10.6619
▁לתכנן	-10.6621
ass	-10.6626
▁אנד	-10.6627
▁האלקטרוני	-10.6633
J	-10.6634
▁בקושי	-10.6635
▁המט	-10.6636
▁כשהיית	-10.6636
עקב	-10.6638
התקדמות	-10.6638
▁נפט	-10.6642
תקשורת	-10.6643
ריצה	-10.6645
▁שמא	-10.665
▁לניהול	-10.6652
▁פתיחת	-10.6652
▁>>	-10.6652
▁איטלקי	-10.6652
▁יעשו	-10.6652
ind	-10.6652
▁שרוצים	-10.6653
▁רצונו	-10.6657
הפרעה	-10.6658
▁בטקס	-10.6659
ame	-10.6662
▁המחוז	-10.6662
▁הצעה	-10.667
▁מייל	-10.6671
שרשרת	-10.6674
▁ריכוז	-10.6677
ib	-10.6681
▁חזרת	-10.6685
בגרות	-10.6685
▁ייקח	-10.6686
▁טיפים	-10.6689
ach	-10.6689
RA	-10.669
נהנים	-10.669
ניצחון	-10.6691
▁למשפחה	-10.6704
▁במאבק	-10.6704
▁קלוריות	-10.6704
▁~	-10.6705
סיגריות	-10.6705
MS	-10.6707
▁מרוויח	-10.6707
▁גופו	-10.6708
▁תקיפ	-10.6712
▁100%	-10.6715
▁נודע	-10.673
▁הציוני	-10.6736
▁פוגש	-10.6746
▁בממשל	-10.6755
▁תאים	-10.6756
▁בעצמי	-10.6757
▁המושב	-10.6757
▁הנסיך	-10.6757
ארבעה	-10.6758
▁עצומה	-10.6761
▁ובעל	-10.6761
▁מרתק	-10.6762
▁ממוקמ	-10.6766
▁דאגה	-10.6767
▁לחצו	-10.6768
▁חלבון	-10.6772
אוניברסיטת	-10.6776
▁האושר	-10.6779
tro	-10.6787
ark	-10.6792
q	-10.6793
מג	-10.68
ודאי	-10.6806
▁מהנדס	-10.6807
▁דאעש	-10.6809
▁פעולת	-10.6809
מעדיפים	-10.681
▁תיירים	-10.6811
כניס	-10.6816
▁מתקדם	-10.6817
חקיקה	-10.6818
15	-10.6819
▁האינטרס	-10.6821
אינטרסים	-10.6822
MA	-10.6822
▁בעזה	-10.6825
▁לרשת	-10.6827
אקדמיה	-10.6829
▁נסגר	-10.683
▁האוצר	-10.6831
▁מלכות	-10.6834
hy	-10.6837
▁מדרג	-10.6838
▁שאמרתי	-10.6838
▁תיאר	-10.6838
▁מאמצ	-10.6843
▁למרכז	-10.685
▁שתוכל	-10.6859
כלול	-10.686
תבצע	-10.6861
▁בבעלות	-10.6862
▁יצחק	-10.6862
▁נפוץ	-10.6862
▁מדהימה	-10.6862
תרבויות	-10.6864
▁דיאטה	-10.6867
דרדר	-10.6868
הפתעה	-10.6868
דפים	-10.6869
▁משלוח	-10.6869
▁חגיג	-10.687
▁דואג	-10.687
▁ידידותי	-10.6872
▁שחקני	-10.6874
ערער	-10.6875
▁תראו	-10.6877
בחינה	-10.6879
▁עצמאות	-10.688
▁מדריך	-10.6881
▁ממשל	-10.6883
▁2:	-10.6884
ov	-10.6887
▁פולין	-10.6891
▁האמריקנית	-10.6892
צטרכו	-10.6894
▁di	-10.6894
שימור	-10.6905
▁מותג	-10.6905
▁צור	-10.6907
התקרב	-10.6909
▁יישום	-10.6913
▁הקומוניסטי	-10.6915
av	-10.6916
▁שרוצה	-10.6916
▁לנהוג	-10.6916
▁המודל	-10.6925
הכשרה	-10.6933
▁לנוע	-10.6936
אמונות	-10.6938
איד	-10.6938
תרגם	-10.694
▁Ar	-10.6945
עשתה	-10.6946
▁חן	-10.6947
▁הכדור	-10.6948
דיכוי	-10.6949
▁סודי	-10.6957
▁בתנאים	-10.6957
land	-10.6957
▁חירות	-10.6963
▁לחזק	-10.6968
▁באיטליה	-10.6969
▁לביצוע	-10.6969
▁להזכיר	-10.6969
▁חקירה	-10.6969
הישרדות	-10.6969
▁אלכסנדר	-10.6969
▁המסורתי	-10.697
▁מעסיק	-10.6971
▁השקט	-10.6979
▁מוגבר	-10.698
▁המותג	-10.6981
▁הבנות	-10.6981
▁נרד	-10.6984
רצון	-10.6986
▁ההצעה	-10.6988
▁אליכם	-10.6989
▁מכונות	-10.6994
▁עצמאית	-10.6995
▁מוחלטת	-10.6997
▁פסל	-10.6999
▁פלטפורמ	-10.7001
▁הגיב	-10.7006
▁רובוט	-10.7007
▁הלכתי	-10.7007
▁כאל	-10.7008
▁עיתונאים	-10.701
סמכות	-10.7012
▁We	-10.7021
▁הדיווח	-10.7023
▁אידיאלי	-10.7023
189	-10.7023
▁באוניברסיטה	-10.7024
▁משתפ	-10.7025
▁במונח	-10.7027
▁מחסו	-10.7028
▁באנשים	-10.7029
▁המסלול	-10.7031
▁פיליפ	-10.7033
▁יער	-10.7034
הפרדה	-10.7037
זכור	-10.7041
▁דתיים	-10.7041
ֶר	-10.7041
▁אוצר	-10.7043
▁האחרות	-10.7047
▁מתקיימ	-10.7049
▁העמים	-10.7052
▁האחראי	-10.7057
▁הטכנולוגי	-10.7058
▁עוצמה	-10.7062
▁מוכיח	-10.7063
▁הפיל	-10.7065
▁ספור	-10.7068
▁לחם	-10.7073
חוצה	-10.7073
גורם	-10.7075
חיסכון	-10.7077
▁תעופה	-10.7077
▁הבכור	-10.7077
תשלומים	-10.7077
▁להביע	-10.7077
▁אפקטיבי	-10.7078
▁בהודו	-10.7078
▁זכי	-10.7081
▁נכונות	-10.7081
▁שלפני	-10.7082
ידוד	-10.7084
▁הנקרא	-10.7087
-90	-10.709
▁צופים	-10.7092
▁צעק	-10.7096
au	-10.7099
▁1:	-10.7099
▁לבוש	-10.7103
▁היופי	-10.7104
▁הדדי	-10.7109
▁גיר	-10.7116
תקבלו	-10.7118
▁אירועי	-10.712
▁לחדש	-10.7124
▁הפרלמנט	-10.7129
▁אוקטובר	-10.7131
התנחלויות	-10.7131
▁ממליץ	-10.7131
יעזרו	-10.7131
▁המאסטר	-10.7131
חנויות	-10.7135
יהלומים	-10.7135
▁בבת	-10.7137
▁מכבד	-10.7138
▁מתקש	-10.7139
▁מוסר	-10.714
▁Sp	-10.7146
▁ודא	-10.7147
חצה	-10.715
▁בשווי	-10.7153
▁סבלנות	-10.7156
טפס	-10.7168
עסקאות	-10.7169
ev	-10.7175
▁תדע	-10.7176
▁שהחל	-10.7177
דיכאון	-10.7177
▁עיוור	-10.7177
▁במשר	-10.718
▁כרטיסי	-10.7182
▁ובמיוחד	-10.7186
התנהלות	-10.7186
1991	-10.7186
אספקה	-10.7188
▁הידיע	-10.7189
חמישים	-10.719
נץ	-10.7191
רגיש	-10.7192
ran	-10.7193
ON	-10.7194
▁בטרם	-10.7195
▁החיות	-10.7195
קנאביס	-10.7196
▁בעבודת	-10.7196
▁קורבנות	-10.7198
▁רישיון	-10.7199
▁לחצ	-10.7202
▁גורמת	-10.7202
▁הבינו	-10.7203
▁קיי	-10.7209
▁קונה	-10.7219
סגנון	-10.722
תרופות	-10.7224
אתם	-10.7235
יוון	-10.724
▁יוזמ	-10.724
▁הדיגיטלי	-10.724
▁כועס	-10.724
▁האקלים	-10.7241
▁החזיק	-10.7241
▁כניסת	-10.7243
▁חתיכ	-10.7245
▁בצבע	-10.7247
▁קילומטרים	-10.7248
▁האישית	-10.7249
▁הנייד	-10.725
▁ההשקעה	-10.7252
▁ספינות	-10.7256
▁החשבון	-10.7256
▁טילים	-10.7262
▁מופע	-10.7263
חשבון	-10.7267
▁הבעל	-10.7274
▁לעניין	-10.7277
ax	-10.7277
▁יאפשר	-10.7279
▁מועדון	-10.7282
▁המכון	-10.7285
ָר	-10.7286
▁רמז	-10.7295
▁Office	-10.7296
▁ההתנהגות	-10.7296
▁ברשימה	-10.7296
▁בקהילה	-10.7296
▁כוונת	-10.7296
gen	-10.7296
▁הניסוי	-10.7297
▁תהיו	-10.7297
▁התיירות	-10.7298
▁ממוקד	-10.7299
▁מושפע	-10.7302
▁לרכב	-10.7302
בגדים	-10.7303
▁גונג	-10.7304
▁המלצות	-10.7306
ירוף	-10.7306
▁בודק	-10.7308
▁מעצר	-10.731
▁הדירה	-10.731
▁הספרדי	-10.731
▁הוצאת	-10.7317
תולדות	-10.7318
זירה	-10.732
▁שנותר	-10.7327
אומץ	-10.7329
▁מייד	-10.733
▁ניגש	-10.733
▁מקוונ	-10.7331
▁הסורי	-10.7331
דחה	-10.7333
ארט	-10.7341
▁דירות	-10.7341
▁צרכי	-10.7343
▁רעיד	-10.7344
▁משתתפים	-10.7345
סנאט	-10.7346
ָּ	-10.7348
מהגרים	-10.7348
ice	-10.7348
השקעות	-10.7349
▁הבדיקה	-10.7351
▁האיטלקי	-10.7351
▁ציינ	-10.7352
▁בצבא	-10.7352
▁נניח	-10.7352
▁שחלק	-10.7357
▁מצוינת	-10.736
▁שהכי	-10.7361
▁בארגון	-10.7364
▁כתבתי	-10.7364
▁תהיי	-10.7366
▁לקבוצה	-10.7369
ish	-10.7378
יהודים	-10.7381
▁תחרותי	-10.7387
התמחות	-10.7396
תגובות	-10.7405
חבורה	-10.7406
▁באנגליה	-10.7407
▁היטלר	-10.7407
▁המיועד	-10.7407
▁תפוח	-10.7408
זיז	-10.7409
▁לפתע	-10.7412
▁דלקת	-10.7414
אקדח	-10.7415
▁סוחר	-10.7417
old	-10.7421
▁נישא	-10.7427
▁משתנים	-10.743
ידוע	-10.7434
▁95	-10.7436
שיפור	-10.7438
14	-10.7441
ron	-10.7445
▁העובדות	-10.7446
צדדים	-10.7446
▁מחצית	-10.7449
RE	-10.7459
Q	-10.746
▁דן	-10.7462
▁אדריכל	-10.7463
▁התוכנה	-10.7463
טוויטר	-10.7464
▁נוזל	-10.7468
קזינו	-10.7469
עשות	-10.7475
▁בינוני	-10.7478
▁החזיר	-10.7482
ננת	-10.7482
▁לחוש	-10.7487
▁הגורם	-10.7489
דיונים	-10.7491
איבוד	-10.7494
▁דוגמ	-10.7496
הנחיות	-10.7501
האדם	-10.7503
▁קנדי	-10.7505
פילוסופיה	-10.7505
▁נקב	-10.7507
▁דמויות	-10.752
▁השליטה	-10.752
▁המחלקה	-10.752
▁למטרה	-10.7522
▁כיסוי	-10.7522
בחון	-10.7524
הפיכ	-10.7526
▁מאתגר	-10.7534
▁מונה	-10.7544
▁מתנות	-10.7544
▁תאגיד	-10.7544
▁וחי	-10.7547
▁לעם	-10.7547
▁גלוי	-10.7556
ברג	-10.756
▁אדמות	-10.7561
▁שעשו	-10.7567
ופיע	-10.7568
▁רוע	-10.757
רעיון	-10.7573
&	-10.7575
▁החברתיות	-10.7576
▁ספטמבר	-10.7577
▁הקולנוע	-10.7577
▁בתמונה	-10.7577
▁השיעור	-10.7577
▁מרטין	-10.7577
▁מתפלל	-10.7577
▁מרוצים	-10.7577
▁המוסרי	-10.7578
▁ואומר	-10.7578
הלכה	-10.758
▁למסע	-10.758
▁למציאות	-10.7581
▁דיכאון	-10.7585
▁יגיד	-10.7589
חצו	-10.7594
▁All	-10.7595
▁188	-10.7597
▁44	-10.7599
▁פאר	-10.76
הישגים	-10.7602
▁השמים	-10.7604
לעתים	-10.7604
▁אסון	-10.7608
▁הלימוד	-10.7612
▁קניות	-10.7613
▁סבא	-10.7614
ake	-10.7616
▁42	-10.7619
▁נטו	-10.7625
▁עימ	-10.7627
▁הוכיח	-10.7629
▁משוב	-10.7631
▁השיווק	-10.7634
▁הנוסעים	-10.7634
▁עשינו	-10.7634
▁השלכות	-10.7634
▁שכזה	-10.7635
מומחים	-10.7636
▁כוונה	-10.7637
▁משולב	-10.7638
▁מסודר	-10.764
▁מתכננים	-10.764
▁חובת	-10.7641
מונד	-10.7642
▁אחורה	-10.7642
עובדה	-10.7642
עיתונים	-10.7643
▁התפשט	-10.7644
אורח	-10.7647
▁הגעתי	-10.765
▁‬	-10.7653
▁כריס	-10.766
אשתו	-10.766
▁סיור	-10.766
▁עמיד	-10.766
שנאה	-10.766
▁49	-10.7663
▁אבד	-10.7663
▁אכזרי	-10.7672
▁הלוואי	-10.7673
▁מגיל	-10.7679
עדכן	-10.7679
▁שבני	-10.768
מוצא	-10.7681
▁הסכסוך	-10.769
▁אפליקצי	-10.7691
▁משלמים	-10.7692
▁פיצוי	-10.7692
▁המוצע	-10.7692
דונלד	-10.7692
▁סיפק	-10.7693
▁הבינ	-10.7695
▁העיתון	-10.7698
▁חולי	-10.7699
▁הציור	-10.7699
▁הנהר	-10.77
▁מגניב	-10.77
▁סכנה	-10.7708
▁הוקם	-10.7708
▁נישואין	-10.771
▁הנחה	-10.771
▁אשמח	-10.7712
▁העצמאות	-10.7714
▁ושני	-10.7718
בחנו	-10.772
עזב	-10.7722
▁דיבור	-10.7724
מימוש	-10.7724
▁זכו	-10.7728
▁לוגי	-10.7729
בריח	-10.7742
▁נהיגה	-10.7743
▁אבוד	-10.7743
מסר	-10.7743
▁סודות	-10.7745
▁רוצח	-10.7749
▁האימפריה	-10.7749
▁החתונה	-10.7749
▁איגוד	-10.775
▁מייסד	-10.7751
▁שוקולד	-10.7751
לחגוג	-10.7752
עיכוב	-10.7754
▁מגורים	-10.7758
▁מסמך	-10.7762
דחף	-10.7765
ical	-10.7766
▁בתנאי	-10.7768
זכויות	-10.7769
▁תמשיך	-10.777
▁מבנים	-10.7775
▁משתי	-10.7777
▁המכתב	-10.7779
▁עבורך	-10.7781
▁קיד	-10.7786
דוגמה	-10.7788
▁תפקוד	-10.7797
גרמניה	-10.7804
▁ההתחלה	-10.7807
▁המושג	-10.7808
▁הדגיש	-10.7811
תוספת	-10.7811
אפי	-10.7813
▁התיק	-10.7815
ang	-10.7815
▁משלב	-10.7818
▁עיתונאי	-10.782
▁המשותף	-10.7823
▁נציגי	-10.7825
▁הדואר	-10.7825
▁בשלום	-10.7827
▁186	-10.783
▁פקיד	-10.783
▁נרשמ	-10.7831
▁טייס	-10.7833
▁man	-10.7836
▁אפר	-10.7844
נוכל	-10.7858
▁עירוני	-10.7864
▁דיפלומטי	-10.7866
▁הנישואין	-10.7866
▁הקיצוני	-10.7866
▁רפואה	-10.7866
▁פיגוע	-10.7866
▁הקיסר	-10.7866
▁החתול	-10.7867
▁ניסיתי	-10.7868
▁Ne	-10.7869
יקוד	-10.7869
Z	-10.7869
▁חווית	-10.787
▁שזכ	-10.7877
▁מוסיפ	-10.7879
סמך	-10.788
ft	-10.7882
▁IP	-10.7882
▁עולים	-10.7891
▁פוטר	-10.7891
▁סיכונים	-10.7893
▁מכוס	-10.7896
שבור	-10.79
משקל	-10.7904
▁המבקש	-10.7908
זמן	-10.7909
▁קסם	-10.7915
▁הבנת	-10.7917
מזג	-10.7921
ראיתי	-10.7923
▁הביצוע	-10.7924
▁הנוער	-10.7925
▁הקלאסי	-10.7925
הוליווד	-10.7926
▁בראשית	-10.7927
▁עונת	-10.7935
▁היפה	-10.7936
▁לתקשר	-10.7936
▁הוצג	-10.7938
▁מתקשר	-10.7939
▁מלונות	-10.7939
▁אורגני	-10.7941
▁סימני	-10.7943
▁תיאטרון	-10.795
▁אינטרס	-10.7965
▁הנאצים	-10.7967
▁תמצאו	-10.7969
▁העץ	-10.7971
▁הופעות	-10.7972
יקרא	-10.7973
▁עצים	-10.7974
▁לצמצ	-10.7974
▁בנוח	-10.7979
ֲ	-10.7984
▁אנטישמי	-10.7984
▁משוגע	-10.7984
▁Home	-10.7984
▁היעדר	-10.7985
▁Ra	-10.7986
▁מעריכים	-10.7987
▁כושר	-10.7989
▁המערכ	-10.7992
▁בספרד	-10.7994
▁שהכל	-10.7995
50%	-10.7996
▁תיירות	-10.8003
▁מנקוד	-10.8005
גמול	-10.8012
חוכמה	-10.8013
▁שהילד	-10.8017
▁רעש	-10.8024
▁חשד	-10.8033
▁אפס	-10.804
▁האומה	-10.8041
ai	-10.8043
`	-10.8043
▁World	-10.8043
▁אינטנסיבי	-10.8043
▁מקשיב	-10.8043
▁משטח	-10.8043
חבל	-10.8044
▁הקודמים	-10.8044
שבט	-10.8047
▁הספינה	-10.8047
▁שמאפשר	-10.8049
▁להיפגש	-10.805
▁הודעת	-10.805
▁לרצות	-10.8051
ue	-10.8052
▁אלבומ	-10.8052
mon	-10.8054
דרגה	-10.8054
▁זרוע	-10.8055
▁הצלח	-10.8055
▁מקדש	-10.8057
▁לקום	-10.8057
ave	-10.806
▁במבט	-10.8061
▁בתקשורת	-10.8066
▁הועבר	-10.8069
LE	-10.8069
▁מעקב	-10.8073
▁צחק	-10.8077
▁מאמצי	-10.8078
▁טבל	-10.8088
▁משטרת	-10.8089
זעם	-10.8095
ence	-10.8095
▁דבריו	-10.8097
ong	-10.8101
way	-10.8103
▁העמוק	-10.8104
▁הפתוח	-10.8104
ריג	-10.8106
▁בחברת	-10.8109
▁העלי	-10.8111
חמאס	-10.8111
▁ברחובות	-10.8112
▁לעצב	-10.8114
▁ההון	-10.8115
▁you	-10.8128
רכוש	-10.8129
fi	-10.8142
שנתיים	-10.8151
הלך	-10.8152
הנחה	-10.8157
▁היוצר	-10.8162
▁[3]	-10.8163
▁המשיכה	-10.8163
▁התכוונ	-10.8164
▁קטלני	-10.8164
יכנס	-10.8164
▁מעניינים	-10.8164
מדיטציה	-10.8164
▁חווים	-10.8165
▁התשלום	-10.8166
▁כריסטי	-10.8172
▁שעשוי	-10.8175
▁תפסיק	-10.8176
▁שהיתה	-10.8176
▁המניות	-10.8177
▁הבירה	-10.8177
היפטר	-10.818
▁מנהיגי	-10.818
▁הערות	-10.8183
ּוֹ	-10.8187
▁לארוח	-10.8188
▁אמונת	-10.8189
▁מזד	-10.8193
▁מונט	-10.8199
בדוק	-10.8201
בגד	-10.8202
גירושין	-10.8202
אולי	-10.8203
▁קניי	-10.8205
▁הגזע	-10.8205
▁מענה	-10.8206
▁מקורי	-10.8211
▁סמית	-10.8212
מינהל	-10.8213
▁\	-10.822
▁בכדור	-10.8221
טכניקות	-10.8222
גוונים	-10.8223
▁בחיפוש	-10.8224
▁אירלנד	-10.8224
▁בחינוך	-10.8224
▁מתאימים	-10.8224
▁ממלכת	-10.8224
סכסוך	-10.8225
▁משוכנע	-10.8226
▁נעליים	-10.8228
▁הרצפה	-10.823
▁צוחק	-10.8231
▁מכון	-10.8233
si	-10.8234
▁להתעורר	-10.8236
▁Air	-10.8237
▁הטיסה	-10.8237
▁בנוי	-10.824
▁מאמן	-10.8241
▁במערכ	-10.8243
תמכו	-10.8245
▁ילדיהם	-10.8248
▁כישורי	-10.8249
▁רומנטי	-10.8254
▁זמנים	-10.8256
מהלכ	-10.8264
נטוש	-10.8268
שיקום	-10.8272
▁הפער	-10.8276
▁ובכלל	-10.8282
▁גרפי	-10.8284
▁נובמבר	-10.8285
▁האשראי	-10.8285
אוניברסיטה	-10.8286
פרלמנט	-10.8288
▁מוסיף	-10.8288
▁מנוס	-10.8289
▁נטל	-10.8292
▁השעון	-10.8292
▁השאיר	-10.8294
תפקוד	-10.8296
צדדי	-10.8302
▁ימות	-10.8307
בסס	-10.8314
ple	-10.832
▁דיסק	-10.8322
▁המפעל	-10.8329
▁במידע	-10.8333
מחזור	-10.8333
31	-10.8334
▁ברוכ	-10.8338
הסתיר	-10.8339
▁סיל	-10.834
▁קינג	-10.8346
▁מסתובב	-10.8346
▁צעצוע	-10.8346
התעללות	-10.8346
▁עצמן	-10.8346
▁טענות	-10.8346
▁בתמורה	-10.8347
▁מעמיק	-10.8348
▁אזהרה	-10.8349
מבנים	-10.8351
▁יפני	-10.8358
6%	-10.8358
▁אוכלוסי	-10.8373
▁ספיר	-10.8378
▁איבר	-10.8378
▁יתחיל	-10.8379
פיזיקה	-10.8381
שלום	-10.8387
שפות	-10.8389
פוסט	-10.8393
▁לפרו	-10.8396
▁האשמ	-10.8405
▁החליטו	-10.8405
▁הסתיימה	-10.8408
פרוטוקול	-10.8408
▁מוכשר	-10.8408
▁דיוויד	-10.8408
▁במשפט	-10.8408
▁באחריות	-10.8408
אמבטיה	-10.8408
▁לכבוד	-10.8408
▁מפריע	-10.8409
▁בנפרד	-10.841
▁ברוך	-10.8413
▁בקשת	-10.8413
▁הלכה	-10.8414
▁ערכי	-10.8417
▁שנבנ	-10.8418
▁מאסטר	-10.8419
▁חמוש	-10.8426
▁בהיות	-10.8428
▁מקלט	-10.843
▁Fa	-10.8431
▁תשאל	-10.8433
▁קרל	-10.8436
כט	-10.8436
▁גשם	-10.8439
▁שנאה	-10.8443
▁הסכמת	-10.8444
ׁ	-10.8445
נקודות	-10.8448
▁קייט	-10.845
▁במקומ	-10.845
ki	-10.8453
▁התוו	-10.8465
וודא	-10.8465
▁בעצמם	-10.847
▁חוגג	-10.847
▁לעזרה	-10.847
יפגע	-10.8471
▁המופע	-10.8471
מתנחלים	-10.8472
▁הכדורגל	-10.8474
חיזוק	-10.8474
תקדם	-10.8474
▁לאזרח	-10.8474
▁אלרגי	-10.8478
▁ממשלות	-10.8478
▁ישראלית	-10.848
כישרון	-10.8486
▁תמצא	-10.8487
יכון	-10.8489
▁הסרטן	-10.8492
▁אריק	-10.85
▁מיקרו	-10.8507
▁מגלים	-10.8508
▁יסודי	-10.851
▁בימינו	-10.8513
▁חוף	-10.8516
▁וחלק	-10.8517
ובס	-10.852
▁בשילוב	-10.852
▁להפיק	-10.8524
▁חלקית	-10.853
▁לצערי	-10.8533
▁אירופאי	-10.8533
▁פצוע	-10.8533
19	-10.8534
▁במוצר	-10.8535
▁הכחול	-10.8536
▁מוזמנים	-10.8537
▁מהחיים	-10.8538
▁עיראק	-10.8538
▁טיל	-10.854
▁pro	-10.854
תדירות	-10.854
▁הציפור	-10.8541
▁נאמנות	-10.8541
▁לגברים	-10.8542
▁מלווה	-10.8543
▁הוספת	-10.8543
▁העשרים	-10.8543
▁אלכס	-10.8543
▁יביא	-10.8544
חמישה	-10.855
▁War	-10.8551
▁דוב	-10.8554
▁בחלו	-10.8556
▁הנאצי	-10.8562
▁יוח	-10.8563
▁מבטא	-10.8574
▁במוזיאון	-10.8595
▁1967	-10.8595
סוד	-10.8596
▁כיסא	-10.8597
תאימו	-10.8603
▁להתנהג	-10.8606
תשתית	-10.8611
▁לתא	-10.8612
▁בגדה	-10.8614
▁ניצל	-10.8615
▁כרוני	-10.8618
▁אזרחות	-10.8619
▁תגיע	-10.8622
▁מגמ	-10.8627
▁המיקום	-10.8629
▁יזכ	-10.8629
▁מותק	-10.863
כונן	-10.8634
מתקני	-10.8636
דוקטורט	-10.8636
▁חייך	-10.8642
▁תכניות	-10.8655
רצף	-10.8658
▁למשטר	-10.8659
דיאלוג	-10.866
ארכיון	-10.866
▁בכיתה	-10.8661
▁לבכות	-10.8663
▁בסכנה	-10.8665
▁1)	-10.8668
▁ויליאם	-10.8669
יורק	-10.8669
התחלתי	-10.8678
▁סנד	-10.868
▁בסעי	-10.8682
משימות	-10.8682
▁מאכל	-10.8684
▁ריקוד	-10.8699
▁למערכ	-10.87
▁1997	-10.8701
▁מהותי	-10.8704
▁שיקר	-10.8705
שאלו	-10.8714
▁השיג	-10.872
▁1996	-10.8722
▁פרנסיסקו	-10.8722
סטיק	-10.8724
▁כרגיל	-10.8724
▁לתינוק	-10.8725
▁שקשור	-10.8725
▁ואכן	-10.8725
▁פוליטיקה	-10.8732
▁שיפוט	-10.8733
▁תשובת	-10.8736
ךְ	-10.8739
▁קנא	-10.8743
▁תוקפ	-10.8743
ְּ	-10.8746
שאלת	-10.875
▁העובד	-10.875
קווה	-10.8759
▁תכונ	-10.876
▁מתנהג	-10.8761
ללא	-10.8762
שגשג	-10.8765
▁משלם	-10.8779
▁דצמבר	-10.8787
▁ובעיקר	-10.8787
▁הכותרת	-10.8787
▁לעצמה	-10.8787
▁למשפט	-10.8787
▁ואנשי	-10.8787
▁המצלמה	-10.8787
הרמוניה	-10.8787
▁שמטרת	-10.8787
▁להשיב	-10.8788
▁הקישור	-10.8791
▁חוצ	-10.8791
לכוד	-10.8793
▁בחנות	-10.8797
▁שנעשה	-10.88
▁תוספי	-10.8802
▁סטנדרטי	-10.8805
▁פסיכו	-10.8805
▁התנגד	-10.8808
▁הרחק	-10.8811
▁תנס	-10.8813
ase	-10.8815
▁דוקטור	-10.8815
▁Or	-10.8816
ox	-10.8817
▁הלכת	-10.8818
▁לשתי	-10.8819
▁כוכבי	-10.882
מחיר	-10.882
▁IC	-10.8821
▁250	-10.8825
▁התור	-10.8829
▁דומות	-10.8831
▁העתידי	-10.8842
▁אימה	-10.8847
▁HIV	-10.8851
מפורסמת	-10.8851
▁הטעם	-10.8851
שׂ	-10.8851
▁רצתה	-10.8851
פסנתר	-10.8852
▁המקובל	-10.8853
▁אגד	-10.8854
▁שהתרחש	-10.8859
▁הפסקה	-10.8861
▁שווים	-10.8868
▁גאים	-10.887
▁מדגיש	-10.8873
▁הקיים	-10.8875
▁טכניק	-10.8877
DS	-10.888
שמור	-10.8895
▁גורמי	-10.8897
▁כהן	-10.89
▁ירח	-10.8906
תכונות	-10.8912
▁עקבי	-10.8912
▁כחבר	-10.8912
מפגינים	-10.8916
▁החזון	-10.8916
▁החקירה	-10.8916
▁מסתורי	-10.8916
▁לטייל	-10.8917
תמקד	-10.8917
בייחוד	-10.8917
▁הבכיר	-10.8918
▁שנקבע	-10.8921
הפגנות	-10.8923
▁טיימס	-10.8924
פקודה	-10.8931
גילאים	-10.8931
▁ניסיונות	-10.8932
▁שואפ	-10.8932
▁CO	-10.8938
▁איסור	-10.8939
חתימה	-10.8943
▁פגיע	-10.8944
כוס	-10.8944
כעס	-10.8945
▁אייר	-10.8947
▁עט	-10.8947
▁אופצי	-10.8956
▁מסדר	-10.8956
▁ההודי	-10.8957
▁מארק	-10.8957
▁אופטימי	-10.8961
▁לאישה	-10.8963
▁1998	-10.8964
▁מכובד	-10.8965
מפל	-10.8965
▁אנגל	-10.8973
▁גמור	-10.8973
יצוא	-10.8975
▁התערוכה	-10.8981
אינטראקציה	-10.8981
▁[4]	-10.8981
▁ופיתוח	-10.8981
▁האצבע	-10.8981
▁מקסיקו	-10.8981
▁חינוכי	-10.8981
חיידקים	-10.8983
▁הבקשה	-10.8983
סיפוק	-10.8989
לקבל	-10.899
▁לבנון	-10.8996
▁פרנ	-10.9012
הגבלות	-10.9016
הרשות	-10.9047
אינפלציה	-10.9047
▁שעושה	-10.9047
▁המושלם	-10.9051
▁נהנית	-10.9054
▁דונ	-10.9054
עוגיות	-10.906
עץ	-10.9067
מבי	-10.9067
▁העירייה	-10.9068
▁הבהיר	-10.9069
▁מסיר	-10.9072
▁רז	-10.9082
החיים	-10.9083
▁אוכלוסיית	-10.9083
השתתפות	-10.9087
▁59	-10.909
▁1995	-10.9095
▁כולן	-10.9105
▁אלטרנטיב	-10.9113
▁זיכרונות	-10.9113
▁באפריקה	-10.9113
▁לחודש	-10.9113
▁המוסיקה	-10.9114
▁במרחב	-10.9114
▁האבטחה	-10.9114
▁תמיכת	-10.9114
▁באהבה	-10.9115
▁מטופל	-10.912
▁ינואר	-10.9121
▁אליס	-10.9125
▁סקוט	-10.9126
▁תגיות	-10.913
▁Dis	-10.9139
▁התערבו	-10.9145
הקפיד	-10.9149
▁by	-10.9149
▁דוגמא	-10.9154
▁משלהם	-10.9156
▁תעל	-10.9159
▁הפרט	-10.9159
▁פוק	-10.916
▁סולל	-10.9161
▁בעברית	-10.917
צמיח	-10.9173
▁אחרונה	-10.9177
▁ידענו	-10.9179
▁1990	-10.918
▁התשובות	-10.918
▁התקר	-10.918
▁אמנים	-10.9182
▁האמצע	-10.9183
▁החיסון	-10.9185
▁האורחים	-10.9187
▁נשלט	-10.9191
▁נסיעות	-10.9194
▁תנועות	-10.9201
▁מוסלמי	-10.9202
▁ביצים	-10.9202
אסף	-10.9203
▁תעשייתי	-10.9207
▁יריב	-10.9209
▁שראיתי	-10.921
עזוב	-10.9215
▁תתחיל	-10.9218
תרחש	-10.9223
▁תפילה	-10.9224
▁כספ	-10.9226
▁חכמה	-10.9226
תחומי	-10.9232
מחזה	-10.9233
▁הסובייטי	-10.9247
▁לגיטימי	-10.9247
▁סיבוב	-10.9248
▁הדק	-10.9248
▁בכבוד	-10.9248
▁לואיס	-10.9248
▁אפקט	-10.9251
▁שתוכלו	-10.9252
▁המקצוע	-10.9255
▁המסורת	-10.9256
▁ברצונ	-10.9257
צצה	-10.926
▁הוראה	-10.9263
▁בחורף	-10.9266
▁נשמת	-10.9266
▁מעשים	-10.9266
▁שריד	-10.927
▁פריצ	-10.9273
תלמידים	-10.9275
▁פונקצי	-10.9277
▁הדלק	-10.9277
אוסקר	-10.9283
▁בתל	-10.9284
הוראות	-10.9285
התנסות	-10.9291
▁67	-10.9291
▁דרכי	-10.9292
מינון	-10.9295
▁המורים	-10.9297
הבטחה	-10.9304
מנם	-10.9306
קונגרס	-10.9307
ישוע	-10.9314
▁אובייקט	-10.9314
▁האולימפי	-10.9315
▁מעניינת	-10.9315
able	-10.9315
▁צהריים	-10.9315
▁העליונה	-10.9317
▁מחולק	-10.9318
▁עדכון	-10.9318
▁הפגישה	-10.9319
▁הפשע	-10.932
▁הכבד	-10.9322
▁השמיים	-10.9322
▁הסובל	-10.9325
▁נעדר	-10.9326
▁יהן	-10.9326
▁יחדיו	-10.9327
חמלה	-10.9331
▁אמן	-10.9331
▁שהוביל	-10.9333
▁נשמר	-10.9336
יומן	-10.9338
▁חובב	-10.9341
▁אלמנט	-10.9343
▁מושכ	-10.9344
lin	-10.9348
▁Pri	-10.9351
hen	-10.936
▁בסמים	-10.9364
▁לערב	-10.9364
מכור	-10.9365
▁עמוס	-10.9366
▁1994	-10.9368
חוויות	-10.9369
▁נעשו	-10.9373
▁מטיל	-10.9376
▁חסיד	-10.9379
▁צאצא	-10.9383
▁מכשול	-10.9383
▁(1)	-10.9383
שמונה	-10.9384
▁לתקוף	-10.9385
היסטוריה	-10.9386
▁הבולט	-10.9387
▁הרוגים	-10.9387
▁מוקדמת	-10.939
▁תביא	-10.939
▁אֲ	-10.9392
▁הזהיר	-10.9393
ture	-10.9393
הרוג	-10.9397
▁שוקל	-10.9397
שניהם	-10.9403
▁המוסד	-10.9404
▁הגיבור	-10.9407
▁הפיצו	-10.9408
▁היער	-10.9411
PA	-10.9411
הגביל	-10.9415
התמכרו	-10.9422
שילוב	-10.9431
כנסיות	-10.9436
אחז	-10.9438
▁ננס	-10.9439
פאר	-10.9439
ארון	-10.9442
צילומים	-10.945
▁שביצע	-10.9451
אטלנטי	-10.9452
▁בניהול	-10.9453
שלמות	-10.9455
▁התיאורי	-10.9466
▁וילדים	-10.9467
מרוץ	-10.9468
▁איתן	-10.9469
▁קבצים	-10.9471
צוד	-10.9475
▁נחש	-10.9475
תערב	-10.9475
▁מגיש	-10.948
▁אחראים	-10.9482
ade	-10.9483
▁במסע	-10.9487
▁לשלוש	-10.9492
ומב	-10.9494
▁כשיש	-10.9496
▁הקרח	-10.9497
▁עצה	-10.9499
▁1993	-10.95
מדריך	-10.9518
ath	-10.9518
▁לאינטרנט	-10.952
▁Time	-10.9521
▁הביולוגי	-10.9521
▁העוסק	-10.9521
▁אפריל	-10.9524
▁מטע	-10.9527
▁נשמה	-10.953
▁לכבד	-10.9531
תודה	-10.9531
▁שנשאר	-10.9533
▁66	-10.9533
▁חופ	-10.9541
▁משיג	-10.9545
▁עמנו	-10.9547
▁נוסח	-10.9548
▁תזכור	-10.9553
שומר	-10.9568
הרכב	-10.9571
▁1992	-10.959
מוזיאונים	-10.959
▁נמוכים	-10.959
▁הניהול	-10.959
הסתדר	-10.9591
▁מוכרח	-10.9593
CC	-10.9595
סתפק	-10.9595
▁אמיר	-10.9596
▁למנהל	-10.9598
▁בסוגי	-10.9601
▁מתנהל	-10.9602
▁נגע	-10.9605
▁מטריד	-10.9605
לראות	-10.9608
סופי	-10.9608
▁המידה	-10.9612
תחשבו	-10.9615
▁לקצ	-10.9618
▁המטבח	-10.9622
ריכוז	-10.963
עדיפות	-10.9632
טכנולוגיות	-10.9646
▁אינטלקטואל	-10.966
▁פסיכיאטר	-10.966
▁קלינטון	-10.966
▁שאוהב	-10.966
תקפת	-10.9662
▁לעשן	-10.9663
▁לקהל	-10.9665
▁התיישב	-10.9666
מלך	-10.9666
▁הסוכר	-10.9668
איום	-10.9668
▁המשפחתי	-10.9674
▁להורים	-10.9674
bu	-10.9675
▁הסקר	-10.9679
▁אשמה	-10.968
BC	-10.9682
▁נהרס	-10.9682
▁לקנ	-10.9691
▁לציד	-10.9692
▁משפר	-10.9694
▁בארבע	-10.9695
▁צבעוני	-10.9696
▁חלקיק	-10.9697
▁מתוכ	-10.9699
שדה	-10.9703
▁800	-10.9709
▁מחודש	-10.9718
▁מחזיר	-10.972
▁Love	-10.973
▁האוטובוס	-10.973
▁לעזאזל	-10.973
▁איכשהו	-10.973
▁הפתיחה	-10.973
▁פער	-10.973
▁האגודה	-10.973
▁בפארק	-10.973
▁זקן	-10.9731
עדיף	-10.9731
▁אֶת	-10.9731
תשתיות	-10.9732
▁טועה	-10.9732
▁נדבר	-10.9734
ze	-10.9736
▁הנמוכ	-10.9737
משכורת	-10.9737
▁Star	-10.9738
fa	-10.9739
▁בפגיש	-10.9739
▁סלע	-10.9741
▁ברלין	-10.9742
▁החני	-10.9744
▁ייעוד	-10.9747
▁בודה	-10.9751
יוזמה	-10.9752
ww	-10.9752
▁למחוק	-10.9752
משנה	-10.9755
▁למוצר	-10.9764
▁חיילי	-10.9767
▁הפחת	-10.9768
▁נטיי	-10.9769
ick	-10.9769
▁43	-10.9776
BS	-10.9783
▁מערבי	-10.9789
▁10%	-10.979
אווי	-10.9793
AC	-10.9794
ail	-10.9796
▁International	-10.9801
▁כשמדובר	-10.9801
▁מיקרוסופט	-10.9801
▁1948	-10.9801
▁נפוצה	-10.9801
סחורות	-10.9801
▁הארצי	-10.9803
▁נחשפ	-10.9803
▁זילנד	-10.9805
▁החשיבה	-10.9806
▁השתל	-10.9808
▁לטעון	-10.9809
▁פושע	-10.9809
▁העיקר	-10.9809
▁צוואר	-10.981
שווה	-10.981
כיום	-10.9811
▁2)	-10.9812
▁במהרה	-10.9819
▁יראה	-10.9821
▁התלמיד	-10.9823
▁הנורא	-10.9828
תוכן	-10.983
חלף	-10.983
▁הקבלה	-10.983
קסון	-10.9831
▁אגוד	-10.9841
▁מחבל	-10.9843
דכא	-10.9843
פתרונות	-10.9843
סיכונים	-10.9843
▁Pre	-10.9849
▁העתק	-10.986
▁47	-10.9861
▁נעלמו	-10.9865
RI	-10.9865
▁המודע	-10.9865
הנהגה	-10.9871
{	-10.9872
▁64	-10.9872
▁Human	-10.9872
▁לביטחון	-10.9872
▁אוקראינה	-10.9872
▁אדוארד	-10.9872
▁תחנות	-10.9874
▁הבוגר	-10.9874
▁בשבת	-10.9877
▁נכונים	-10.9879
התעקש	-10.9879
▁תורמ	-10.9879
▁משלה	-10.9885
קוף	-10.9888
▁להקמת	-10.9892
▁תושב	-10.9897
▁רצית	-10.9916
מכון	-10.9918
אובדן	-10.992
▁נורמ	-10.9922
▁האזרח	-10.9928
▁שהיית	-10.9935
בדיחה	-10.9937
משבר	-10.9939
הפצה	-10.9943
▁הרכישה	-10.9944
▁הגרעיני	-10.9944
▁לחינוך	-10.9944
▁המדויק	-10.9944
▁תצוג	-10.9946
▁מפותח	-10.9949
▁בעשור	-10.995
▁מקביל	-10.995
▁טוני	-10.9951
מסגד	-10.9953
▁הימני	-10.9955
לגייס	-10.9956
▁כלכלה	-10.9956
הרצאות	-10.9957
▁לחסל	-10.9957
▁ההבנה	-10.9959
חנך	-10.996
▁חיוך	-10.9962
▁עושר	-10.9965
▁טכנולוגיי	-10.9967
▁46	-10.9969
▁המשפיע	-10.997
▁האמור	-10.9978
▁האגד	-10.9978
▁מכניס	-10.9979
▁אבר	-10.9979
גביע	-10.998
הזדמנויות	-10.9989
▁אדמת	-10.9994
נברג	-10.9998
▁Watch	-11.0017
▁1944	-11.0017
▁לרפואה	-11.0017
▁אנונימי	-11.0017
▁מופתע	-11.0017
▁הצפון	-11.0018
▁עצות	-11.002
▁וחסר	-11.0021
▁עפ	-11.0022
▁הדיבור	-11.0026
▁לרעה	-11.0031
▁שתרצ	-11.0032
קדמה	-11.0033
זבל	-11.004
▁בשעת	-11.004
▁חשוד	-11.0041
מחויבות	-11.0057
▁הבריטים	-11.0061
▁תבני	-11.0062
▁העלא	-11.0066
פף	-11.007
▁יורו	-11.0071
▁Car	-11.0071
▁מופעל	-11.0072
low	-11.0076
▁המצוי	-11.0077
▁באוסטרליה	-11.009
▁הרלוונטי	-11.009
▁לקהילה	-11.009
▁מנוחה	-11.009
▁בשאלה	-11.009
ction	-11.0091
פגין	-11.0091
תפעול	-11.0091
▁שבוצע	-11.0092
▁5%	-11.0094
▁מוטל	-11.0095
▁בזהירות	-11.01
▁סדיר	-11.0101
▁רחמ	-11.0103
▁יקיר	-11.0106
סיבות	-11.0129
▁אגר	-11.0137
▁חרב	-11.0137
▁מיומנ	-11.0142
▁דגש	-11.0148
▁בספרי	-11.0151
נחשב	-11.0153
הבנת	-11.0155
לגעת	-11.0156
▁שיצר	-11.0161
▁האירופאי	-11.0163
התלהבות	-11.0164
▁מאוחד	-11.0164
▁השרירים	-11.0164
▁במחלק	-11.0164
▁פלסטיק	-11.0164
▁החיובי	-11.0168
פוליס	-11.017
▁התקווה	-11.0172
▁בשמחה	-11.0172
▁שנכתב	-11.0173
day	-11.0173
צריכה	-11.0185
▁מיקומ	-11.0198
ניסו	-11.0199
▁הכספים	-11.0201
▁המטפל	-11.0206
זווית	-11.0208
כדאי	-11.0213
▁Su	-11.0222
▁מתקנ	-11.0223
היזהר	-11.0225
▁נוש	-11.0235
▁להשוו	-11.0237
é	-11.0237
ארכיאולוגי	-11.0237
▁האפיפיור	-11.0237
▁טמפרטור	-11.0237
▁השביעי	-11.0237
▁מבולבל	-11.0237
▁(2)	-11.0238
▁דבש	-11.0238
טראומה	-11.0238
תפילות	-11.024
כימיקלים	-11.0241
▁???	-11.0243
▁המנוע	-11.0245
▁מולקול	-11.0246
▁התרומ	-11.0246
▁בוכה	-11.025
▁הסעודי	-11.0252
▁שנבחר	-11.0253
▁ביטחוני	-11.0255
▁תסתכל	-11.0256
תאושש	-11.0256
▁בדירה	-11.0264
▁185	-11.0265
▁תבוא	-11.0271
ka	-11.0281
▁מישה	-11.0285
▁סביבתי	-11.0291
▁יורש	-11.0293
man	-11.0297
אמונה	-11.0309
▁מוטיבציה	-11.0312
תחזוקה	-11.0312
▁המשותפת	-11.0312
▁ולבסוף	-11.0312
▁לפלסטינים	-11.0312
▁האיזון	-11.0313
▁מועבר	-11.0313
▁הוותיק	-11.0314
▁רפורמ	-11.0314
פייסבוק	-11.0315
עמידה	-11.0319
▁המכירה	-11.0319
▁במכשיר	-11.0321
ix	-11.0325
▁53	-11.0328
▁ירדן	-11.0328
▁בתוכו	-11.0338
▁אשתי	-11.0347
▁מסמל	-11.0352
▁להכיל	-11.0353
▁יליד	-11.0364
▁אָ	-11.0371
ניצול	-11.0375
עֲ	-11.0377
הודיע	-11.0381
▁מודיע	-11.0383
▁52	-11.0385
▁הטמפרטור	-11.0387
▁[5]	-11.0387
▁הגרעין	-11.0387
זדקק	-11.0387
▁ההסבר	-11.0387
▁המאמן	-11.0388
1988	-11.0388
קביעת	-11.0389
▁לפחד	-11.0389
▁בוחנ	-11.0389
▁מותאמ	-11.039
תגרש	-11.0391
▁נעימה	-11.0391
▁התחבורה	-11.0392
▁שהביא	-11.0393
▁הרצוי	-11.0393
▁להירגע	-11.0394
▁תוכנות	-11.0394
▁נשוי	-11.0397
▁לגבול	-11.0397
▁בחייהם	-11.0399
מלכות	-11.0401
ps	-11.0403
מרבית	-11.0415
מדענים	-11.0419
▁רוג	-11.0428
רמן	-11.043
▁להפסיד	-11.0432
שליש	-11.044
ound	-11.0457
קונפליקט	-11.0463
▁מבוצע	-11.0463
▁זכוכית	-11.0463
▁התחלנו	-11.0463
▁תמונת	-11.0465
▁בתעשייה	-11.0467
▁התברר	-11.047
▁הדגל	-11.047
דליק	-11.0471
▁שבכל	-11.0472
▁הסכנה	-11.0476
▁העשור	-11.0477
▁רונ	-11.0479
▁משרות	-11.0479
▁תואמ	-11.0488
שתף	-11.0488
act	-11.0491
▁הגדרת	-11.0491
▁משקר	-11.0493
▁ציוני	-11.0497
▁המפקד	-11.0502
SD	-11.0504
גזענות	-11.0505
▁שילמ	-11.0507
▁שריפ	-11.0515
=	-11.052
פקולט	-11.052
הכריז	-11.0523
עתיד	-11.0526
▁קיימ	-11.0531
▁It	-11.0534
▁סיבי	-11.0539
▁Life	-11.0539
▁בוושינגטון	-11.0539
▁מבפנים	-11.0539
▁1945	-11.0539
▁ההולנדי	-11.0539
▁בתחרות	-11.054
▁במשטר	-11.054
▁אַ	-11.0542
▁הרומי	-11.0544
▁Inter	-11.0544
▁הספציפי	-11.0545
▁רוכש	-11.0546
▁בגבול	-11.0547
▁דייג	-11.0548
▁מרחוק	-11.0554
▁On	-11.0556
▁אקטיבי	-11.0562
▁בורח	-11.0564
כבש	-11.0571
מעשים	-11.0586
▁החלט	-11.059
▁ענן	-11.0591
זיהום	-11.0599
שֶׁ	-11.0599
מתכונ	-11.0614
נעול	-11.0616
▁אטרקצי	-11.0616
▁מתקדמת	-11.0616
▁הבטן	-11.0616
▁קינ	-11.0616
▁ביניהן	-11.0616
▁לשכור	-11.0617
▁תצפי	-11.0617
▁מקרוב	-11.0617
▁לזרוק	-11.0617
▁בכוונה	-11.0617
▁לבעיה	-11.0618
אורגניז	-11.0618
סטודיו	-11.0619
▁מיוצר	-11.0619
▁רצוע	-11.0619
▁לטיול	-11.062
▁אכיפ	-11.062
▁מהפכה	-11.062
▁עמל	-11.0622
▁מתוכננ	-11.0625
הונגרי	-11.0625
-24	-11.0627
▁בילדים	-11.0629
▁תישאר	-11.063
▁הצפוי	-11.0631
▁פצצ	-11.0632
▁להתקי	-11.0633
▁אירופי	-11.0635
▁ציד	-11.0643
▁ערוצי	-11.0645
▁ויתר	-11.0652
סבלנות	-11.0669
קורבנות	-11.0676
פירוש	-11.0679
▁צורכ	-11.0681
נמוך	-11.0683
▁גופים	-11.0683
▁ניקול	-11.0683
יחזור	-11.0685
▁האנגלי	-11.0686
פיין	-11.0687
כיוונים	-11.0691
▁הרשע	-11.0692
▁דייוויד	-11.0694
▁מסובך	-11.0694
VPN	-11.0694
▁צנוע	-11.0696
הולך	-11.0696
▁מרשימ	-11.0699
▁מגביר	-11.0699
▁לטענת	-11.0699
מוצרים	-11.0699
ראיין	-11.0699
▁ביסוד	-11.0699
▁הסתיים	-11.07
▁מוצדק	-11.07
▁אוזני	-11.0704
▁רוכב	-11.0704
▁000	-11.0705
▁שכיח	-11.0707
צמצום	-11.0708
SP	-11.0717
▁נאמן	-11.0721
▁תובנ	-11.0721
▁187	-11.0722
▁הלוח	-11.0725
ביכול	-11.0738
בחינת	-11.0738
סמן	-11.0742
שמלה	-11.0744
▁קבור	-11.0745
▁שידור	-11.0749
▁ברוק	-11.0757
▁רץ	-11.0759
▁לצעו	-11.077
▁בעצמכם	-11.0772
▁מלכתחילה	-11.0772
▁זמינות	-11.0772
▁להקדיש	-11.0772
▁התאבדות	-11.0772
▁להסכים	-11.0772
▁דמעות	-11.0772
▁מדריכ	-11.0772
▁ברצוע	-11.0772
▁משותפים	-11.0773
▁בפולין	-11.0773
▁הממוק	-11.0773
▁ילמד	-11.0774
▁השלילי	-11.0776
▁כוונות	-11.0776
חולים	-11.0777
▁מקסימ	-11.0778
▁השליח	-11.0781
▁הטיול	-11.0788
▁המוחלט	-11.0791
חשאי	-11.0791
▁המוסלמי	-11.0805
▁לרגל	-11.0806
▁האפל	-11.0807
▁1000	-11.081
▁נכלל	-11.0814
▁הנמל	-11.0818
▁Gu	-11.0821
▁תמימ	-11.0826
▁לוואי	-11.0832
▁דעתך	-11.084
▁זאב	-11.084
דפדפן	-11.0851
▁מוזיקלי	-11.0851
מריחואנה	-11.0851
▁Day	-11.0851
AL	-11.0851
פרויקט	-11.0851
חליפו	-11.0852
נציג	-11.0853
▁המרכיבים	-11.0855
▁מתגעגע	-11.0855
▁מאובטח	-11.0855
▁לרקוד	-11.0855
▁אחסון	-11.0859
▁הקוסמ	-11.0859
אמנויות	-11.0863
▁יוגה	-11.088
מילוי	-11.0883
▁השתלט	-11.0889
▁20%	-11.0894
תקציב	-11.0894
אלבום	-11.0898
▁בגדי	-11.09
▁התכונ	-11.0909
נמוכות	-11.0924
▁התביעה	-11.093
▁להבהיר	-11.093
▁צועק	-11.0931
▁הקבוע	-11.0931
▁לצייר	-11.0931
▁אוספים	-11.0931
▁הסוס	-11.0932
▁שמתרחש	-11.0933
▁לשאלות	-11.0933
התבטא	-11.0934
▁להתכונן	-11.0934
▁מסוכנת	-11.0935
▁צייר	-11.0938
▁היצור	-11.094
▁180	-11.094
▁נישואי	-11.0942
טיעון	-11.0946
▁שנכנס	-11.0951
▁הקימ	-11.0955
חלוקה	-11.096
▁הגנת	-11.097
▁תצליח	-11.0982
כשל	-11.0983
▁מדלי	-11.0985
מועצה	-11.0991
▁גייס	-11.0994
RO	-11.1004
אזור	-11.1004
▁מקיפ	-11.101
▁with	-11.101
▁האסלאם	-11.101
אינסולין	-11.101
▁החקלאות	-11.101
▁מנגנוני	-11.101
▁אוסטריה	-11.101
▁המאמצ	-11.1011
▁חתונה	-11.1011
▁לקשר	-11.1013
▁זמר	-11.1013
▁סוכנו	-11.1014
▁פטנט	-11.1016
▁מיתוס	-11.1018
▁מצווה	-11.102
▁לכסות	-11.1021
▁במלון	-11.1023
▁הריבית	-11.1024
▁מובטח	-11.1026
▁אבטח	-11.103
ענין	-11.1032
▁1,000	-11.1038
גיבוי	-11.1038
חסות	-11.1047
▁קילו	-11.1057
איזו	-11.1058
שלווה	-11.1059
▁בשבילכם	-11.1066
מצוינות	-11.1071
שכונות	-11.1072
DA	-11.1078
▁שנערכ	-11.108
הודעות	-11.108
סופר	-11.1081
למשל	-11.1081
▁מומחי	-11.1083
_	-11.1091
▁האדריכל	-11.1091
▁בחזית	-11.1091
NBA	-11.1091
▁התחתונה	-11.1091
▁וניהול	-11.1091
▁תאמינו	-11.1091
▁בהקדם	-11.1091
▁הנפלא	-11.1091
▁רצינו	-11.1092
▁בלימוד	-11.1093
▁הרדיו	-11.1093
▁חילופי	-11.1094
ראיונות	-11.1096
וויט	-11.1096
▁מציינ	-11.1099
CT	-11.1099
▁סטטיסטי	-11.1099
▁68	-11.1101
▁תהליכי	-11.1102
▁אמזון	-11.1105
תכנן	-11.1107
שיתופי	-11.112
▁ירגיש	-11.112
▁תרגיש	-11.1122
▁דינמי	-11.1122
-22	-11.1128
▁69	-11.1128
▁אייל	-11.1134
▁מתכת	-11.1141
▁הבטחת	-11.1145
נבה	-11.1153
▁Cha	-11.1156
▁לטע	-11.1157
חולשה	-11.1159
▁Mac	-11.116
סלול	-11.116
הכול	-11.1169
EN	-11.1172
▁בביצוע	-11.1172
▁תענוג	-11.1172
▁יומיומי	-11.1172
▁המכוניות	-11.1172
▁הראייה	-11.1172
▁שעושים	-11.1172
▁פוחד	-11.1172
▁צינור	-11.1173
▁שאוכל	-11.1173
1985	-11.1173
מרכיב	-11.1178
▁היכרו	-11.1178
כנראה	-11.118
▁במיטה	-11.118
▁המתרחש	-11.1187
▁מתברר	-11.1189
▁תובע	-11.1189
▁מוותר	-11.1189
▁sta	-11.1194
▁האמון	-11.1196
▁);	-11.1198
▁Can	-11.1201
▁הפריט	-11.1205
▁חסכו	-11.1206
פרסמו	-11.1209
▁הכרז	-11.1211
▁לבדיק	-11.1216
קרנות	-11.1224
נפח	-11.1226
מעקב	-11.1239
▁נמלט	-11.1242
▁נראת	-11.1244
הגוף	-11.1245
▁72	-11.1247
ראיות	-11.1249
חיזבאללה	-11.1254
סיטואציה	-11.1254
▁אליזבת	-11.1254
▁Tag	-11.1254
▁להעמיד	-11.1254
▁בברלין	-11.1254
▁ברומא	-11.1255
תחרויות	-11.1256
אמפ	-11.1264
איברים	-11.1265
ah	-11.1267
▁נסיכ	-11.1267
תיאום	-11.1268
▁להתנגד	-11.1268
▁להתקשר	-11.127
▁תרצו	-11.1271
הולדת	-11.1272
▁תקרא	-11.1277
גרף	-11.1279
▁היתרון	-11.128
אירוח	-11.1285
▁יועצ	-11.1288
▁לוחמים	-11.1294
▁שממנ	-11.1299
▁שגרתי	-11.1301
הפריד	-11.1305
▁בכיס	-11.1305
סלון	-11.1309
▁בהודעה	-11.1337
▁אינטימי	-11.1337
▁צומח	-11.1337
▁בציבור	-11.1337
▁העצבים	-11.1337
▁מבחוץ	-11.1337
▁הקטנות	-11.1338
▁בתשלום	-11.1339
TA	-11.134
▁מתקיים	-11.134
▁להשתלט	-11.1341
▁בחצר	-11.1341
▁ומאפשר	-11.1344
▁המניע	-11.1345
▁אקראי	-11.1347
▁הרגשי	-11.1348
▁מכבי	-11.1349
▁להתלונן	-11.1349
▁2.5	-11.135
פרסום	-11.135
▁תיעוד	-11.1354
▁con	-11.1354
▁גריי	-11.1358
ישמע	-11.1365
▁השלט	-11.1365
▁מוריד	-11.1366
▁חלונות	-11.1368
▁שתל	-11.1371
▁ותיק	-11.1372
▁הצליל	-11.1374
▁נתת	-11.1387
מכונה	-11.1398
▁והכל	-11.1404
▁סוכני	-11.1409
פינוי	-11.1417
▁הורמונ	-11.1417
▁תדאג	-11.1418
קבוצה	-11.1419
▁Next	-11.142
▁סעודיה	-11.142
▁המאפיינ	-11.142
▁התחתון	-11.142
▁הכותב	-11.1421
▁הליגה	-11.1424
▁קורבן	-11.1425
▁סקירה	-11.1427
לעיתים	-11.1431
תבגר	-11.1433
▁תרצה	-11.1433
דריך	-11.1435
▁מכול	-11.1435
▁חורף	-11.1442
▁אינטר	-11.1443
que	-11.1444
אכזבה	-11.1446
טוענים	-11.145
התרסק	-11.1457
▁משנ	-11.1458
▁שאהב	-11.1459
פילד	-11.1461
▁קולט	-11.1462
מובנים	-11.1462
▁שהחבר	-11.1469
סימן	-11.147
▁לשטו	-11.1476
▁בחול	-11.1477
נחיתה	-11.148
תקיימו	-11.148
▁Per	-11.1481
לרפא	-11.1482
▁יופיע	-11.1483
▁המספק	-11.1484
EM	-11.1488
ריאן	-11.1497
הרפתקאות	-11.1504
▁בסביבת	-11.1504
▁לירושלים	-11.1504
▁1980	-11.1504
▁התגורר	-11.1504
נסיון	-11.1505
▁סייבר	-11.1505
▁מאוהב	-11.1507
▁תקדים	-11.1508
אולפן	-11.1511
▁משכנע	-11.1511
▁לדחות	-11.1515
▁המסמך	-11.1522
מנסים	-11.1523
▁החנות	-11.1525
▁השקר	-11.1536
▁תצטרכו	-11.1538
IP	-11.1546
סעיפים	-11.1547
ייעץ	-11.1548
▁הגדה	-11.1553
▁האומות	-11.1554
▁זרימ	-11.1562
▁המדיני	-11.1569
▁נגרמ	-11.1571
▁והכי	-11.1574
ריבונות	-11.1577
מלוא	-11.158
מקסימום	-11.1585
+	-11.1586
אלכוהול	-11.1586
שישה	-11.1586
ֱ	-11.1589
סכסוכים	-11.1589
▁מנוגד	-11.1589
▁האנטישמי	-11.1589
▁מינימום	-11.1589
▁הצהרת	-11.1589
▁שעובר	-11.1589
הרפתקה	-11.1589
▁צמוד	-11.159
1984	-11.159
▁שיודע	-11.159
▁בטרור	-11.1591
▁מצלמה	-11.1594
▁גיליתי	-11.1598
▁1.5	-11.1606
▁להתערב	-11.1611
▁לבטא	-11.1618
▁זוהר	-11.1627
מחסום	-11.1637
▁יוביל	-11.1644
▁ישפיע	-11.1646
מצוקה	-11.1653
יימר	-11.1653
▁החום	-11.1654
▁ולקח	-11.1656
אובססי	-11.1659
▁המגיע	-11.166
תבונן	-11.1664
קץ	-11.1664
מזל	-11.1665
ther	-11.1665
▁קולג	-11.1669
ויקיפדיה	-11.1674
▁Hotel	-11.1674
▁בתערוכ	-11.1674
▁פתאומי	-11.1674
▁האידיאלי	-11.1674
▁מסוכנים	-11.1674
▁ביצירת	-11.1674
▁תפיסת	-11.1675
▁מציב	-11.1675
סמכויות	-11.1675
▁הישנה	-11.1678
CE	-11.1679
ירצה	-11.1682
▁ומנהל	-11.1685
ישלח	-11.1695
▁הבנים	-11.1701
▁נובל	-11.1702
פליטים	-11.171
▁המעט	-11.171
▁מכינ	-11.1713
▁הספרייה	-11.1716
▁ארצי	-11.1717
▁אלקטרו	-11.1721
מלכים	-11.1722
▁תביעות	-11.1726
▁רעיל	-11.1733
חלבונים	-11.1736
סוריה	-11.1738
הרחבה	-11.1738
היאבק	-11.174
▁הסוציאל	-11.174
▁עצי	-11.1749
▁התחתנ	-11.1759
▁מרוכז	-11.176
▁היצירתי	-11.176
▁בעיצוב	-11.176
▁בתוקף	-11.176
▁לרכיש	-11.1761
▁פחמן	-11.1761
▁התרגיל	-11.1761
1969	-11.1761
▁החוזה	-11.1763
מזכיר	-11.1764
▁תחי	-11.1767
▁בבנק	-11.1768
אפילו	-11.1768
▁מרהיב	-11.1769
▁הקוראים	-11.1769
▁נענ	-11.177
צוק	-11.1785
▁הפסיכולוגי	-11.1787
סכנות	-11.1789
▁HD	-11.179
סתכל	-11.1792
▁גרמ	-11.1804
פסיכ	-11.1805
▁לאנשי	-11.1808
▁הפחות	-11.1813
▁אחיד	-11.1822
▁שורות	-11.1822
▁סרטון	-11.1829
▁גירוש	-11.1838
▁התקיימ	-11.1847
▁אוטונומי	-11.1847
▁אופנוע	-11.1847
▁להדגיש	-11.1847
▁הוסיפה	-11.1847
התנדבות	-11.1847
▁חוויית	-11.1847
▁למכירה	-11.1848
▁אדומים	-11.1848
▁מיכאל	-11.1848
▁לסיפור	-11.1848
▁אינסופי	-11.1848
▁נלהב	-11.1849
▁הסימנים	-11.1851
▁להירשם	-11.1852
בחירת	-11.1853
▁ויאמר	-11.1854
פציעה	-11.1855
▁המגדל	-11.186
▁המלח	-11.1876
▁תוהה	-11.1886
אמרתי	-11.1901
ספורטאים	-11.1905
▁לבעל	-11.191
▁מכני	-11.1919
קיימא	-11.1923
▁נגיע	-11.1926
▁עצומ	-11.193
הליכים	-11.193
‭	-11.1935
▁המודיעין	-11.1935
▁תכשיטים	-11.1935
▁אטרקטיבי	-11.1935
▁ההגירה	-11.1935
שחייה	-11.1936
▁בכסף	-11.1936
▁מפשע	-11.1936
▁להאשים	-11.1937
▁מתבקש	-11.1938
▁לבזבז	-11.1939
פציעות	-11.194
▁Nation	-11.1941
▁מגביל	-11.1942
היעדר	-11.1942
▁מסעדה	-11.1947
▁גופני	-11.1948
▁להתחתן	-11.1949
▁חיסון	-11.1957
▁האביב	-11.1958
▁מושך	-11.196
מקרר	-11.1966
ורשה	-11.1968
▁טרנס	-11.1969
▁האלוהי	-11.1969
▁הוגש	-11.1984
נצרות	-11.1985
וסיפו	-11.1988
ביוגרפי	-11.1998
▁הוועד	-11.2018
▁tra	-11.202
▁Business	-11.2023
▁באנרגיה	-11.2023
▁להשמיד	-11.2024
▁הנשימה	-11.2024
▁לשטח	-11.2024
מטיילים	-11.2024
▁יציאה	-11.2025
▁מתמח	-11.2025
▁מרוחק	-11.2026
▁והשני	-11.2026
▁הקריאה	-11.2028
▁לנזק	-11.2028
▁פרעה	-11.2029
tive	-11.203
▁האופנה	-11.2036
אורך	-11.2036
▁הלווי	-11.2043
▁חושפ	-11.2045
רמז	-11.2048
▁הטורקי	-11.2051
▁מבחי	-11.2051
▁למענ	-11.2061
▁קודמים	-11.2063
▁האנטי	-11.2064
ink	-11.2066
ney	-11.2066
▁ספרדית	-11.2067
▁הכספי	-11.2069
אשליה	-11.2079
▁האמן	-11.2081
sis	-11.2083
ההורים	-11.2084
▁הממשלתי	-11.21
תמוך	-11.21
▁השאיפ	-11.2104
▁במשק	-11.2106
המצב	-11.2107
אופוזיציה	-11.2113
▁מתלוננ	-11.2113
DNA	-11.2113
▁דיסני	-11.2113
▁מגנ	-11.2113
▁המעצר	-11.2114
▁וכעת	-11.2115
▁הנהלת	-11.2117
חיסול	-11.2118
▁הערכות	-11.2119
▁הזרוע	-11.2119
▁לשפוט	-11.2121
▁מפורש	-11.2121
▁הקטע	-11.2122
▁ריפוי	-11.2124
▁תיאורטי	-11.2124
▁יווני	-11.2126
▁בטכנולוגי	-11.2131
▁הרחוק	-11.2132
סגרו	-11.2132
עצום	-11.2134
ash	-11.2143
שטיין	-11.2144
▁נרגש	-11.2145
▁נדיב	-11.2147
▁עמק	-11.2148
▁Art	-11.2151
▁המתאר	-11.216
▁הגשמ	-11.2161
▁הגשם	-11.2165
▁הסול	-11.2167
▁גירס	-11.2168
▁לענייני	-11.2169
▁תזכ	-11.2173
ich	-11.2179
▁רוקד	-11.218
▁קילומטר	-11.219
▁במשא	-11.219
▁הביטחוני	-11.2203
▁הסטנדרט	-11.2203
▁תסמונת	-11.2203
▁[7]	-11.2203
▁הלטינית	-11.2203
▁משכנתא	-11.2203
▁הזקן	-11.2203
▁בביקור	-11.2203
▁השותפים	-11.2204
▁אובייקטיבי	-11.2204
air	-11.2205
סיגריה	-11.2205
▁בתקווה	-11.2206
▁המסעדה	-11.2209
▁מאליו	-11.2214
▁במחלוקת	-11.2216
▁במטבח	-11.2217
פצצות	-11.2223
▁תלמד	-11.2225
▁מתפקד	-11.2226
▁מתחייב	-11.2229
▁Of	-11.2232
הותיר	-11.2236
▁להיחש	-11.2242
גבלת	-11.2242
המלצה	-11.2245
▁טונ	-11.226
▁נגזר	-11.2263
▁ניהל	-11.2264
▁נטול	-11.227
ויטמינים	-11.227
▁בהווה	-11.2274
▁עציר	-11.2283
▁התנהגו	-11.2286
▁מתמטי	-11.2294
press	-11.2294
▁לקפוץ	-11.2294
▁Post	-11.2294
▁בתשובה	-11.2294
▁בשינוי	-11.2294
▁נמאס	-11.2294
▁קפדני	-11.2294
▁שיוצר	-11.2296
▁Web	-11.2297
נהיגה	-11.2301
תקופת	-11.2304
▁Inc	-11.2307
לאומי	-11.2308
מוקדם	-11.2309
▁החייל	-11.231
▁לצרו	-11.2311
▁גרסא	-11.2313
מבצר	-11.2313
מנסה	-11.2314
▁קיוו	-11.2315
▁מעריצ	-11.2318
▁גופי	-11.2318
האמת	-11.232
-27	-11.2321
▁פאול	-11.2322
עדיפה	-11.2322
▁משאל	-11.2325
ַּ	-11.2327
ממשלת	-11.233
▁5,000	-11.2342
▁Mon	-11.2343
▁לקב	-11.2347
▁נשבר	-11.2349
▁הצביעו	-11.2352
קלפים	-11.2353
▁מצרי	-11.2359
▁המנצח	-11.2359
▁120	-11.2361
▁And	-11.2364
▁מתכננ	-11.2376
und	-11.2381
▁קעקוע	-11.2385
<	-11.2385
▁בהתאמה	-11.2385
▁בפוליטיקה	-11.2385
▁להימלט	-11.2386
▁לאירופה	-11.2386
▁להתאמן	-11.2386
▁בתמונות	-11.2386
▁לשלטון	-11.2386
▁כפתור	-11.2386
▁תוקף	-11.2386
1977	-11.2387
▁חטיב	-11.2387
תאריכים	-11.2388
משרד	-11.2389
▁בבדיק	-11.2389
▁בכלכלה	-11.239
הצהרות	-11.2391
▁משפחותיהם	-11.2393
▁מועט	-11.2394
▁המיטה	-11.2394
▁התפטר	-11.2395
חשבתם	-11.2395
▁גניב	-11.2395
מחיש	-11.2397
▁בבניין	-11.2399
-26	-11.24
▁תערוב	-11.2401
▁זעיר	-11.2402
אנרגיות	-11.2402
▁אטומ	-11.2405
מחלת	-11.2408
▁בגופ	-11.2411
▁דומינ	-11.2411
בגידה	-11.2412
▁ענייני	-11.2414
תקשר	-11.2415
▁700	-11.2416
התווכח	-11.2417
▁החירות	-11.2425
▁צער	-11.2427
וביץ	-11.2442
▁ביטחונ	-11.2457
פרצה	-11.2457
התאוששות	-11.2465
▁מעז	-11.2468
▁לסין	-11.247
וחלט	-11.2474
́	-11.2478
@	-11.2478
▁בקטגורי	-11.2478
▁להשתחרר	-11.2478
▁1986	-11.2478
▁המעסיק	-11.2478
▁היומיום	-11.2478
▁בקריירה	-11.2478
▁למאבק	-11.2478
▁מסקנות	-11.2479
af	-11.2479
▁פגשתי	-11.248
▁במסעדה	-11.2482
התפרצו	-11.2482
▁דאפא	-11.2483
▁נביא	-11.2483
▁כובע	-11.2483
▁מעוצב	-11.2485
▁קשוח	-11.2487
▁מעמיד	-11.2487
▁הגורל	-11.249
▁Vis	-11.249
▁בנמל	-11.2491
טווח	-11.2497
הכנת	-11.2498
טעויות	-11.25
▁בנימין	-11.25
ביטוי	-11.2507
חשף	-11.251
▁בטחון	-11.2513
▁השפל	-11.2522
מכירות	-11.2523
▁הסבל	-11.2543
לשמור	-11.2554
סטטיסטיק	-11.2562
▁האוכלוסי	-11.2571
IA	-11.2571
▁ההצבעה	-11.2572
▁מדהימים	-11.2572
ביטקוין	-11.2572
▁האיגוד	-11.2572
מבחנים	-11.2572
קתדרל	-11.2572
▁מפואר	-11.2573
▁שביקש	-11.2573
▁ארתור	-11.2574
▁Park	-11.2577
▁הטייס	-11.258
▁משימת	-11.2582
▁אקלים	-11.2583
הוכחה	-11.2584
▁מסתיימ	-11.2585
*	-11.2586
הפצת	-11.2587
▁Jo	-11.2587
ייעוץ	-11.2587
▁במטוס	-11.2589
▁הקדומ	-11.2592
▁השמיני	-11.2594
▁נעלמה	-11.2595
▁טביע	-11.261
▁שמצא	-11.2612
משמעות	-11.2619
מומחיות	-11.2622
עורך	-11.2633
הופכ	-11.2641
▁הפולני	-11.2642
▁לצרכי	-11.2644
▁הרוצח	-11.2666
▁הקורבן	-11.2666
▁פוטין	-11.2666
▁ההכנסה	-11.2666
▁מטורף	-11.2667
▁מקושר	-11.2667
▁ירקות	-11.2667
▁בניסוי	-11.2668
▁שחוו	-11.2668
▁מפלגות	-11.2668
▁תקין	-11.2669
▁פומבי	-11.2669
▁סיינטולוגיה	-11.2669
▁מהעבודה	-11.2671
▁השתנתה	-11.2671
שמן	-11.2673
▁לנשום	-11.2674
▁מתבסס	-11.2677
מקלט	-11.2679
הוראת	-11.2682
▁מקדמ	-11.2692
▁נחשף	-11.2692
▁עמם	-11.2695
ko	-11.2697
▁המעשי	-11.2712
▁החיוני	-11.2715
▁הסמל	-11.2717
סטור	-11.272
gu	-11.2722
▁אידיאולוגי	-11.2722
פרסמה	-11.2722
▁מוקפ	-11.2723
▁לעין	-11.2725
▁פלד	-11.2732
כובד	-11.2732
שקוע	-11.2737
ET	-11.2739
▁בחג	-11.2752
▁Up	-11.2754
▁ניסיונ	-11.2758
▁באוטובוס	-11.2761
▁הומוסקסואל	-11.2761
▁[6]	-11.2761
▁החשוד	-11.2761
▁דחוף	-11.2761
▁השיפוט	-11.2761
▁השידור	-11.2762
סיבוכים	-11.2762
▁קולומביה	-11.2763
▁הבודה	-11.2763
▁תקוע	-11.2763
1982	-11.2763
▁באביב	-11.2763
▁למנהיג	-11.2763
▁הבחנ	-11.2764
שגשוג	-11.2765
▁מהפכני	-11.2765
▁הפעילויות	-11.2766
▁הנובע	-11.2767
▁גאווה	-11.2768
▁לטובה	-11.2769
▁לתהליך	-11.2769
▁טורקי	-11.277
▁התקיים	-11.2771
▁הפוליטיקה	-11.2773
▁כלכלת	-11.2775
▁קיסר	-11.2775
הופעות	-11.278
(	-11.278
כלומר	-11.2782
▁תאורי	-11.2782
הליכה	-11.2786
השראה	-11.2786
וכיח	-11.2787
▁רצפ	-11.2789
▁תקרי	-11.279
דמוקרטיה	-11.2795
▁החקלאי	-11.2804
ny	-11.281
▁לבשל	-11.2823
ult	-11.2843
▁הלוחמ	-11.2851
▁מעוניינ	-11.2857
▁1971	-11.2857
▁המייסד	-11.2857
▁פסולת	-11.2858
▁להיפך	-11.2858
▁המשקיעים	-11.2858
▁התרגש	-11.2859
תחזיות	-11.2861
▁אומלל	-11.2861
▁המנוח	-11.2865
שינה	-11.2867
▁365	-11.2867
▁לכדור	-11.2868
פקודות	-11.2869
לנתח	-11.287
▁לדיון	-11.2871
▁התעשייתי	-11.2879
▁צדיק	-11.2882
גלריה	-11.2884
מזונות	-11.289
בחינו	-11.29
▁המציע	-11.29
וגרפיה	-11.2902
מעורבות	-11.291
▁טעמ	-11.2911
▁הטרד	-11.2931
▁נשמות	-11.2932
שתייה	-11.2952
▁.[1]	-11.2954
▁וירטואלי	-11.2954
▁מדוכא	-11.2954
▁למוזיקה	-11.2954
תסכול	-11.2955
▁בפעולה	-11.2955
▁להתחרות	-11.2955
IM	-11.2956
▁דימוי	-11.2956
▁התמוטט	-11.2957
▁העובר	-11.2957
▁הפלילי	-11.2959
▁וביקש	-11.2959
▁הנוחות	-11.296
קובצי	-11.2962
מנעו	-11.2963
▁הקדמי	-11.2964
▁לעיני	-11.2967
הפגנה	-11.2968
▁מצטיי	-11.297
מבורג	-11.2975
-300	-11.2975
מאמינים	-11.298
▁הרסני	-11.2984
▁הגירה	-11.3002
קופסה	-11.3004
ator	-11.3007
▁ליחס	-11.3009
▁מתחבר	-11.3031
חרדה	-11.3042
▁לצמוח	-11.3052
פנטזיה	-11.3052
פחמימות	-11.3052
▁תביעה	-11.3052
▁הברזל	-11.3053
2,000	-11.3053
▁הארוחה	-11.3053
▁ממושכ	-11.3053
▁לפועל	-11.3053
▁(3)	-11.3053
▁נלמד	-11.3053
1974	-11.3054
▁לציון	-11.3055
שריפה	-11.3058
שאול	-11.3059
קפיא	-11.306
הזדהות	-11.306
▁שנדרש	-11.3063
▁הנדסה	-11.3067
להתבונן	-11.3067
▁לספור	-11.3075
מועצת	-11.3077
▁התנצל	-11.3083
▁השיא	-11.3087
מירוץ	-11.3087
▁סגול	-11.309
פלסטיני	-11.309
חוקרים	-11.3091
▁בעין	-11.3092
▁מחמד	-11.3097
הרחיק	-11.31
▁מוגן	-11.3102
▁סטיי	-11.311
American	-11.3122
רדוף	-11.3124
▁פולני	-11.3136
הורות	-11.3149
▁Street	-11.3151
▁היומיומי	-11.3151
▁ברצלונה	-11.3151
▁הממצאים	-11.3151
▁Play	-11.3151
▁ברציפות	-11.3151
▁דנמרק	-11.3151
▁ואילך	-11.3151
אופטימלי	-11.3151
▁תומאס	-11.3151
▁ציטוט	-11.3152
▁מבלבל	-11.3152
▁שפועל	-11.3152
▁הזמינו	-11.3153
▁טענת	-11.3153
גבש	-11.3156
יצאתי	-11.3156
▁הדירות	-11.3157
▁נסתר	-11.3157
-29	-11.3162
נחישות	-11.3164
העדפות	-11.3167
▁צועד	-11.3167
מכירת	-11.3167
פרקליט	-11.3173
▁טעים	-11.3194
ישיבות	-11.32
▁בתאונ	-11.321
▁ציוו	-11.3212
▁Act	-11.3214
עשיית	-11.3215
▁התרש	-11.3226
▁Ga	-11.3228
▁אוניברסלי	-11.3251
▁Online	-11.3251
▁האפליקצי	-11.3251
▁להאכיל	-11.3251
▁הקתולי	-11.3253
▁האופרה	-11.3253
▁לצבא	-11.3253
▁במגע	-11.3253
▁משורר	-11.3253
▁מאורגנ	-11.3254
▁המלוכה	-11.3254
▁Word	-11.3255
▁החמור	-11.3255
▁בוגד	-11.3255
עיכול	-11.3255
▁כנסיית	-11.3255
▁נרכש	-11.3257
▁במסלול	-11.3257
▁Live	-11.3261
סבון	-11.3263
-28	-11.3265
▁המופיע	-11.3274
▁במפעל	-11.3274
▁מאחל	-11.328
תכניות	-11.3281
נבא	-11.3284
▁רווק	-11.3293
אמריקאי	-11.33
▁קצינ	-11.3316
▁גזעני	-11.334
נוסחה	-11.334
▁מוקדש	-11.3342
iPhone	-11.3352
←	-11.3352
▁בביטחון	-11.3352
▁בקליפורניה	-11.3352
▁1942	-11.3352
▁גיאוגרפי	-11.3352
▁האוסטרלי	-11.3353
▁שכזו	-11.3353
▁מינרל	-11.3355
משרת	-11.3356
אנגלית	-11.3356
נשטיין	-11.3357
מקדם	-11.336
▁מצטרפ	-11.336
▁סער	-11.3367
▁הוצאה	-11.3368
▁בבטחה	-11.3368
▁2.2	-11.3371
▁האמיר	-11.3377
▁שהתקבל	-11.3381
“	-11.3384
▁פסוק	-11.3384
▁ארצה	-11.3387
▁תוחל	-11.3391
▁הנחת	-11.3392
נסקי	-11.3412
תעלם	-11.3412
חיטה	-11.3417
חורבן	-11.3418
למעשה	-11.344
בדידות	-11.3447
▁ללקוח	-11.3448
ology	-11.3454
▁סטרואידים	-11.3454
▁הפסטיבל	-11.3454
▁מוסקבה	-11.3454
▁שגיאות	-11.3454
▁האופניים	-11.3455
▁שנעשו	-11.3455
▁מיזוג	-11.3455
▁המכללה	-11.3455
▁רוצות	-11.3456
▁וגאס	-11.3457
זבז	-11.3457
▁באסיה	-11.3458
▁סגירת	-11.3458
טורניר	-11.3461
▁מבריק	-11.3462
משכורות	-11.3462
▁עבירות	-11.3462
▁היעיל	-11.3464
עדויות	-11.3465
▁ליברלי	-11.3467
▁לפרוש	-11.3473
צבוע	-11.3477
שיגור	-11.3477
רמונית	-11.3479
▁מינימלי	-11.3481
OP	-11.3481
מלחמה	-11.3485
▁ורוב	-11.3488
▁1.1	-11.3493
▁בשיא	-11.3551
®	-11.3558
▁אינטליגנציה	-11.3558
▁אנטיביוטיקה	-11.3558
▁וייטנאם	-11.3558
▁רציונלי	-11.3558
▁1943	-11.3558
▁הארוכה	-11.3558
▁מתבייש	-11.3558
▁הבלעדי	-11.3558
▁שיכור	-11.3559
▁הדולר	-11.356
▁חטיפ	-11.3562
▁מוצע	-11.3563
▁שבדרך	-11.3566
▁העלילה	-11.3567
▁הסלע	-11.3567
▁עומס	-11.3568
▁במגזר	-11.3574
▁מוכנות	-11.3575
מבט	-11.3579
נפילה	-11.358
▁אפוא	-11.3581
▁נסבל	-11.3584
▁היבשת	-11.3588
התנתק	-11.3603
▁הורס	-11.3606
▁דגימ	-11.3608
▁הישיר	-11.3619
-23	-11.362
חריף	-11.3631
▁שנשא	-11.3647
סולם	-11.3651
לקוחות	-11.366
▁נצפ	-11.3661
ֻ	-11.3662
הזדקנות	-11.3662
▁אינדיבידואל	-11.3662
▁Rights	-11.3662
▁אנדרואיד	-11.3662
▁1987	-11.3662
▁המתגורר	-11.3662
▁משעמם	-11.3662
איסלאם	-11.3662
▁לחלום	-11.3663
▁גלקסי	-11.3663
▁סטארט	-11.3665
▁האותיות	-11.3672
▁עייף	-11.3674
▁הזמנות	-11.3674
▁חותמ	-11.3676
▁האדיר	-11.3676
▁משתתפ	-11.3677
▁בילדות	-11.3679
ייעל	-11.3688
▁האבוד	-11.3689
▁נאום	-11.3703
פוגע	-11.3704
דימום	-11.371
▁בתוכנו	-11.3711
התמדה	-11.3719
ולהבין	-11.3732
ממדי	-11.3738
מבקש	-11.3762
קפיטליזם	-11.3767
▁קטגוריות	-11.3767
▁אפריקאי	-11.3767
▁מבוקש	-11.3767
▁תכופות	-11.3767
▁בהולנד	-11.3767
▁הדמיון	-11.3768
▁שחושב	-11.3768
▁ביער	-11.3768
▁עקרון	-11.3771
▁הישנים	-11.3771
▁מסיימ	-11.3776
אמריקה	-11.3777
▁שוכב	-11.3779
▁מכריז	-11.378
▁תלונה	-11.3781
▁שיאפשר	-11.3784
▁מפרסמ	-11.3787
תפיסות	-11.3788
▁לשמיר	-11.379
▁נואש	-11.379
▁הפילוסופי	-11.3791
▁סותר	-11.3794
תועלת	-11.3807
פלטפורמה	-11.3809
העברת	-11.3811
▁מטעמ	-11.3812
▁מנהר	-11.3826
מתכנן	-11.3832
מתבגרים	-11.3834
ליצור	-11.386
▁מארבע	-11.3866
▁מהצד	-11.3869
▁ארגנטינה	-11.3873
▁התומכ	-11.3873
▁מהמקרים	-11.3873
▁בעצמה	-11.3873
▁תסריט	-11.3873
▁נפילת	-11.3874
▁הגנרל	-11.3874
▁University	-11.3874
▁ליברמן	-11.3874
▁לפספס	-11.3874
זיהומים	-11.3874
▁לרחוב	-11.3874
▁בכביש	-11.3874
▁העזרה	-11.3875
▁הבמאי	-11.3876
▁תקליט	-11.3878
▁להרגיע	-11.3878
▁שצריכ	-11.3882
▁בחקיר	-11.3888
▁נבנו	-11.3889
FDA	-11.389
▁עשן	-11.3891
חימום	-11.3902
▁ופחות	-11.3905
ux	-11.3909
דשא	-11.3914
הצעות	-11.3916
▁כדוגמ	-11.3927
חשק	-11.3942
סטטוס	-11.3945
▁שחשב	-11.3952
חלקם	-11.3961
פסיכולוגיה	-11.3978
▁דיקטטור	-11.3981
▁הפדרציה	-11.3981
▁1970	-11.3981
▁קוסמטי	-11.3981
▁פורטוגל	-11.3981
▁מסתתר	-11.3981
▁מסויים	-11.3982
תחתן	-11.3982
▁העצומ	-11.3983
▁למצרים	-11.3983
לדחוף	-11.3984
הסמכה	-11.3984
▁עיריי	-11.3985
▁בכניסה	-11.3985
▁מגנטי	-11.3987
▁מסתיים	-11.3989
חילוץ	-11.3989
▁השכנים	-11.3991
להפריע	-11.3992
▁מנטלי	-11.3994
הפרעת	-11.4001
▁כרוכ	-11.4002
▁כנפי	-11.4006
ג׳	-11.4006
בראשית	-11.4026
▁דגמ	-11.4026
צטט	-11.4039
tric	-11.4043
vil	-11.4056
FA	-11.4081
lf	-11.4088
▁טעימ	-11.4089
▁פלורידה	-11.409
▁מתמשכת	-11.409
▁מדאיג	-11.409
▁במפורש	-11.409
▁השכונה	-11.409
רגיז	-11.409
▁המשורר	-11.409
THE	-11.409
▁משלך	-11.4091
▁העממי	-11.4091
▁תאילנד	-11.4092
▁הבריאה	-11.4093
▁טיעונ	-11.4094
▁מוסמך	-11.4095
▁שנפגע	-11.4097
-2008	-11.4103
ליכוד	-11.4105
60%	-11.411
▁תאכל	-11.411
▁השומן	-11.411
התבוננות	-11.4114
הנפק	-11.4119
box	-11.4126
>	-11.4136
▁המגמ	-11.4144
ערוך	-11.4147
row	-11.416
חוויה	-11.4163
רענן	-11.4168
לשכת	-11.4171
▁לעקו	-11.4174
זיכרון	-11.4177
▁הבחי	-11.4177
ham	-11.4178
▁יחול	-11.4182
▁מפורסמים	-11.4199
▁בתנועה	-11.4199
▁משעשע	-11.42
▁בכוונת	-11.42
▁ושומרון	-11.42
▁המוצג	-11.42
▁מתעקש	-11.42
▁מסתדר	-11.4201
▁מכוער	-11.4201
▁לנחש	-11.4201
-2014	-11.4201
-2015	-11.4201
▁איראני	-11.4203
▁בשער	-11.4204
עדיפויות	-11.4205
▁ההרוגים	-11.4206
▁הקודמות	-11.4206
▁ההצגה	-11.4213
▁יישוב	-11.4217
ניווט	-11.4223
פיתוי	-11.4231
התחממו	-11.4232
▁חזותי	-11.4248
ביניהם	-11.425
▁המבוגר	-11.429
גבעות	-11.4297
חשבונאות	-11.4307
▁נפוצות	-11.4311
▁שמאחורי	-11.4311
▁הביקוש	-11.4311
▁שגיאה	-11.4311
▁Part	-11.4311
▁שבגלל	-11.4312
▁**	-11.4312
▁לאנושות	-11.4313
▁החושים	-11.4313
▁הפרחים	-11.4314
קפיצה	-11.4316
▁מודיעין	-11.4318
ייאוש	-11.4319
▁80%	-11.4324
▁עושות	-11.4327
▁ומערכ	-11.4327
▁במושב	-11.4331
▁הרובוט	-11.4332
▁הנותר	-11.4343
וידיאו	-11.4352
▁חילוני	-11.4358
▁ההתפתחו	-11.4368
לשפר	-11.4375
▁חביב	-11.4376
טלפון	-11.4397
eep	-11.4406
▁במקצוע	-11.4423
▁המאוחדת	-11.4423
▁המינימום	-11.4423
▁העיתונאים	-11.4423
▁להסתובב	-11.4423
▁תקציר	-11.4423
▁הנכונים	-11.4423
▁מתבטא	-11.4423
▁אלגנטי	-11.4423
▁ההוצאה	-11.4423
▁יוקרתי	-11.4423
▁סקוטלנד	-11.4424
▁שדיבר	-11.4424
▁תמצית	-11.4425
▁הופתע	-11.4426
מחלוקות	-11.4426
▁אותנטי	-11.4431
▁חיסוני	-11.4435
▁תומס	-11.4438
▁משיב	-11.4438
▁הדגש	-11.4441
▁אולמ	-11.4442
הקליט	-11.4458
יישן	-11.4463
תבונה	-11.4469
ללמוד	-11.4478
נקציות	-11.4494
▁Glob	-11.4537
ough	-11.4537
‫	-11.4537
▁תרנגול	-11.4537
▁חקלאות	-11.4537
▁הנסיכה	-11.4537
▁מומלצ	-11.4537
▁מסובכ	-11.4538
▁המשלחת	-11.4538
▁כרוך	-11.4538
▁הרומן	-11.4539
▁צילומי	-11.4539
▁אלברט	-11.454
▁הונגריה	-11.4541
תפילת	-11.4542
נאספו	-11.4543
▁גלוב	-11.4545
▁ילך	-11.4546
▁לקיומ	-11.4546
▁יירא	-11.4547
נכון	-11.4555
▁בוער	-11.4559
▁ist	-11.456
▁מובא	-11.457
▁הזנ	-11.4572
מלאכה	-11.4582
▁חשבונ	-11.4588
פתאום	-11.4596
הולכים	-11.4601
בעיית	-11.4609
תחושת	-11.4613
▁בכנסיי	-11.4621
ענישה	-11.463
פגוש	-11.4632
תלונן	-11.4639
▁צילמ	-11.4649
isplay	-11.4652
▁בקפידה	-11.4652
▁הנעליים	-11.4652
▁1950	-11.4652
▁להפליא	-11.4652
▁קומוניסט	-11.4652
▁להתרחק	-11.4652
▁עבאס	-11.4652
▁רדיקלי	-11.4652
▁המחוקק	-11.4652
▁ששימש	-11.4652
▁ומעבר	-11.4653
▁מסכימה	-11.4654
▁להורדה	-11.4657
▁מרחיב	-11.4658
▁str	-11.4663
▁מביע	-11.4675
▁נוירו	-11.4679
רובע	-11.4683
▁לאתגר	-11.4695
סוכרת	-11.4698
אסטרטגיה	-11.4699
לכנו	-11.4704
פרופסור	-11.4712
▁כשאנ	-11.4717
ציפייה	-11.4726
נמשכ	-11.4738
▁פסיכולוג	-11.4742
זנב	-11.4761
ׂ	-11.4767
▁Power	-11.4768
▁הדאפא	-11.4768
▁הרפובליקני	-11.4768
▁1949	-11.4768
▁במזומן	-11.4768
▁הטענות	-11.4768
▁המדרגות	-11.4768
style	-11.4768
▁הקיימות	-11.4768
אמבולנס	-11.4768
▁המכשול	-11.4768
▁הנכונות	-11.4768
▁תרכוב	-11.4768
▁ואהבה	-11.4768
▁מופלא	-11.4768
▁וליהנות	-11.4768
▁המפלגות	-11.4768
▁לסלוח	-11.4768
▁נועז	-11.4768
▁גנרל	-11.4769
▁המסוגל	-11.4769
▁הישיבה	-11.4769
▁הסמוכ	-11.477
▁ליחיד	-11.477
▁קיצור	-11.4776
▁הקפד	-11.4776
▁רשע	-11.4776
לחסום	-11.4776
▁להתרכז	-11.4777
הבדיל	-11.4777
▁מחמיר	-11.4778
▁ידעתם	-11.478
▁Your	-11.478
▁לשעה	-11.4781
▁פוסק	-11.4788
קשישים	-11.4791
שונה	-11.4799
דלקת	-11.4806
הקשר	-11.4808
להיזכר	-11.4809
Drive	-11.4809
▁ממליצ	-11.481
100,000	-11.481
▁הנצחי	-11.4834
גופנו	-11.4858
▁בברזיל	-11.4885
▁עכשווי	-11.4885
▁1939	-11.4885
▁בקצרה	-11.4886
▁מלמעלה	-11.4886
טרמינל	-11.4886
▁קונסול	-11.4886
▁בהתייחס	-11.4886
▁עקרוני	-11.4886
▁מכחיש	-11.4886
▁להתייעץ	-11.489
▁קתולי	-11.4891
▁איתכם	-11.4891
סוחרים	-11.4892
אייפון	-11.4896
▁טלפוני	-11.4897
אֵל	-11.4898
▁שאיבד	-11.4899
ness	-11.4902
▁בנפש	-11.4903
▁הוזמנ	-11.4904
התרחבות	-11.4908
נסיונ	-11.4913
▁אנרגי	-11.4918
▁בענייני	-11.4961
עניינו	-11.4962
▁במסיב	-11.4974
▁רפובליק	-11.4987
▁הובא	-11.4991
▁Black	-11.5005
▁במוסקבה	-11.5005
▁1941	-11.5005
▁המתאימים	-11.5005
רזולוצי	-11.5005
▁לתוקף	-11.5005
▁בפומבי	-11.5005
▁לקריאה	-11.5005
▁להאזין	-11.5005
▁הרומא	-11.5006
▁הבשורה	-11.5007
▁המגורים	-11.5008
▁ערובה	-11.5008
▁נלך	-11.5009
▁תיכוני	-11.501
סאונד	-11.5011
▁וחזר	-11.5011
הדפיס	-11.5014
▁השדרה	-11.5016
ווסט	-11.5017
▁קדם	-11.5018
לצבור	-11.5019
להקטין	-11.5022
▁סרטוני	-11.5023
▁מנותק	-11.5024
גלגול	-11.5033
התעלות	-11.5042
ctor	-11.5065
אמיתות	-11.5076
דינמיקה	-11.5078
הפיל	-11.512
ופץ	-11.5121
ארכיטקטור	-11.5125
▁קוגניטיבי	-11.5125
▁SEO	-11.5125
▁המושלמת	-11.5125
▁1972	-11.5125
רגולציה	-11.5125
▁המוצלח	-11.5125
סדנאות	-11.5125
▁חקירת	-11.5125
▁היוקרתי	-11.5125
▁מאוכזב	-11.5127
▁לשבח	-11.5127
▁מאכזב	-11.5128
▁בהסכמ	-11.5128
▁עדכני	-11.5131
▁אוסלו	-11.5132
▁Free	-11.5132
היצע	-11.5134
▁הליברלי	-11.5135
▁סניפ	-11.5138
סיווג	-11.5152
חליפה	-11.5183
דמוקרטית	-11.519
יישר	-11.5192
אוכלוסיה	-11.5193
▁הארגוני	-11.5218
▁התיאור	-11.5224
▁קדומ	-11.5224
▁התקדמ	-11.5241
▁John	-11.5247
▁Outlook	-11.5247
▁אינטראקטיבי	-11.5247
▁העצמאי	-11.5247
▁ההיגיון	-11.5247
▁מההתחלה	-11.5247
▁1960	-11.5247
▁מעשנים	-11.5247
▁הוענק	-11.5247
▁הפלשתיני	-11.5247
▁השוואת	-11.5248
▁תודעת	-11.5248
▁הפסוק	-11.5249
התייצב	-11.5249
▁מאשימ	-11.5249
▁מתמטיקה	-11.5251
▁בלגיה	-11.5252
▁מאוחס	-11.5253
▁הסוללה	-11.5254
▁היוצא	-11.526
BBC	-11.5298
כותל	-11.5299
duc	-11.5299
▁מעונ	-11.5329
▁הדנ	-11.533
▁צמחוני	-11.5343
▁מסכנ	-11.5348
▁מוריס	-11.535
יצירות	-11.5352
מחדל	-11.5369
▁אגרסיבי	-11.537
▁במקסיקו	-11.537
▁ויקטוריה	-11.537
▁CBD	-11.537
▁הפיגוע	-11.537
▁עינויים	-11.537
▁החושך	-11.537
▁Blue	-11.5371
▁החירום	-11.5371
קיבוץ	-11.5371
▁התקיפה	-11.5371
▁הגובר	-11.5375
חקלאים	-11.5375
▁חתמו	-11.5376
תבלבל	-11.5376
▁הנתיב	-11.5379
▁מעובד	-11.538
▁מלפני	-11.5381
שגרה	-11.5387
מרפסת	-11.5404
זוגיות	-11.5409
מלווים	-11.5422
חשבונות	-11.5448
הצלחת	-11.5451
מטופלים	-11.5452
מנהיגי	-11.5468
▁ושאל	-11.5474
▁Good	-11.5495
°	-11.5495
▁[8]	-11.5495
▁בתחתית	-11.5495
▁המבוקש	-11.5495
{\	-11.5496
תחמושת	-11.5496
▁לשבוע	-11.5496
▁בבריאות	-11.5496
▁זקנים	-11.5496
▁האבטלה	-11.5496
▁מפלצת	-11.5496
▁הנאשם	-11.5496
ְךָ	-11.5498
אתיופיה	-11.5499
-2010	-11.5499
▁לגילוי	-11.55
התעסק	-11.5501
▁הליבה	-11.5505
חשד	-11.551
▁כפופ	-11.5511
▁תצא	-11.5511
▁הושק	-11.5548
ערוב	-11.561
תבקשו	-11.5619
▁Skype	-11.5622
▁מסויימים	-11.5622
▁התסריט	-11.5622
▁1947	-11.5622
▁הנפוץ	-11.5622
▁בפעילויות	-11.5622
▁החינוכי	-11.5622
▁ההיריון	-11.5622
▁סלולרי	-11.5622
▁איזשה	-11.5622
▁פדרלי	-11.5622
▁קרדיט	-11.5622
▁לשולחן	-11.5622
▁שעוסק	-11.5622
▁המסתורי	-11.5622
▁בזרוע	-11.5623
תווך	-11.5623
גיהנום	-11.5623
▁מורחב	-11.5623
▁לצרפת	-11.5623
▁שיקגו	-11.5623
▁בוועד	-11.5624
▁בהגנה	-11.5624
▁הצהוב	-11.5624
▁במחלה	-11.5624
▁הגילוי	-11.5625
▁החיסוני	-11.5625
▁פיזיולוגי	-11.5625
▁אקולוגי	-11.5627
▁נתונה	-11.5627
▁היישוב	-11.5627
סצנה	-11.5632
ִּי	-11.5642
מכונות	-11.5646
נסיעה	-11.5652
▁הדגמ	-11.5669
▁למשא	-11.5669
▁משיכ	-11.5682
אפליה	-11.5686
▁כשלוש	-11.5687
חתונות	-11.5695
סתיימו	-11.5705
התגלות	-11.5705
▁השחקני	-11.5705
הגעתי	-11.5706
▁סטנדרט	-11.5714
שולח	-11.5723
▁מזינ	-11.5733
מיקרו	-11.5739
▁שתעש	-11.574
▁שלטונו	-11.5742
משחקי	-11.5748
▁לינקולן	-11.575
▁היווצרות	-11.575
▁1917	-11.575
▁הסכימה	-11.575
▁מיוצג	-11.575
▁חכמת	-11.575
▁העדכני	-11.5751
▁במשימה	-11.5751
▁טניס	-11.5751
▁ההימור	-11.5751
▁ההסכמ	-11.5752
▁לוועד	-11.5752
1957	-11.5753
▁3.5	-11.5754
▁התנגשו	-11.5754
▁לזוז	-11.5754
▁בגדול	-11.5755
▁הקבצים	-11.5756
▁צמיחת	-11.5756
▁התחייבויות	-11.5756
▁סצנ	-11.5762
▁מכנסי	-11.5764
סיפון	-11.5774
עצמאות	-11.5785
דבורים	-11.5804
‬	-11.5837
▁הורמו	-11.5841
הערות	-11.5842
הסתתר	-11.5847
שוער	-11.5851
ניסינו	-11.5858
תנועת	-11.5858
▁בעצמנו	-11.588
▁להיווצר	-11.588
▁Center	-11.588
▁ההגעה	-11.588
▁לעיצוב	-11.588
▁אסלאמי	-11.588
רויטרס	-11.588
▁איינשטיין	-11.5881
▁ארוכת	-11.5881
▁מעניינות	-11.5881
▁המארח	-11.5882
▁שהוצג	-11.5882
פרצוף	-11.5883
▁לטעום	-11.5884
קיבולת	-11.5891
מוטט	-11.5903
▁מאנשי	-11.5905
מדפסת	-11.5906
גופם	-11.5917
▁אסתטי	-11.5925
▁ההתקפ	-11.5925
▁הניתנ	-11.5932
חסומים	-11.5933
העברה	-11.5944
מחשב	-11.5951
החמיר	-11.5952
מלכודת	-11.5954
שבש	-11.5956
למצוא	-11.5972
בריטניה	-11.5979
▁ומצא	-11.5991
תוקפנות	-11.5998
געגע	-11.6004
▁מופנ	-11.6008
▁בפסטיבל	-11.6012
-2013	-11.6012
▁Group	-11.6012
▁House	-11.6012
▁אינסטינקט	-11.6012
▁אסטרונומי	-11.6012
▁להצדיק	-11.6012
▁1964	-11.6012
▁1978	-11.6012
▁לאנרגיה	-11.6012
▁אולימפי	-11.6012
▁הפתעות	-11.6012
▁לחיצה	-11.6012
▁מוסמכ	-11.6012
▁רומניה	-11.6013
qui	-11.6013
▁משולש	-11.6013
▁בבעיה	-11.6013
▁בתקיפ	-11.6014
כִּי	-11.6014
▁נמדד	-11.6015
▁ביקוש	-11.6015
▁בתיכון	-11.6016
פאניקה	-11.602
other	-11.6033
סוציאליזם	-11.6047
כאיב	-11.6053
הצעה	-11.606
זכייה	-11.6067
שפיל	-11.6083
קניון	-11.6103
קריטריוני	-11.6106
תנועות	-11.6107
החלטה	-11.6125
▁וזכ	-11.613
▁למטופל	-11.6132
▁הדיפלומטי	-11.6145
▁ADHD	-11.6145
▁הבקבוק	-11.6145
▁כולסטרול	-11.6145
▁הסוהר	-11.6145
סיליקון	-11.6145
▁העולמות	-11.6145
▁מתוחכמ	-11.6145
▁הצוואר	-11.6145
▁היגיון	-11.6146
▁הטבות	-11.6146
▁החיוך	-11.6146
▁הנאום	-11.6147
׃	-11.7132
‘	-11.8561
\	-11.9282
×	-12.0233
á	-12.0437
‪	-12.1076
€	-12.1076
$	-12.1124
′	-12.1298
‐	-12.249
í	-12.2746
ö	-12.3009
ó	-12.328
ü	-12.3557
ا	-12.5075
ل	-12.6481
■	-12.6866
¶	-12.7266
●	-12.7266
ä	-12.7682
↩	-12.8117
è	-12.8572
â	-12.9048
|	-12.9374
◄	-12.9548
▼	-13.0074
#	-13.0456
م	-13.063
	-13.1218
„	-13.1218
§	-13.1843
α	-13.1843
ي	-13.1843
^	-13.2335
»	-13.2336
ر	-13.251
	-13.3224
à	-13.3224
ο	-13.3993
ֿ	-13.3993
−	-13.3993
►	-13.3993
و	-13.4826
τ	-13.4826
‹	-13.4826
λ	-13.5735
َ	-13.5735
ú	-13.5736
ب	-13.5736
κ	-13.6735
️	-13.6735
š	-13.6735
а	-13.6735
ʉ	-13.6736
ž	-13.7847
ع	-13.7847
¬	-13.7847
ß	-13.7847
̄	-13.7847
θ	-13.7847
ł	-13.7847
о	-13.7847
ֳ	-13.7847
ن	-13.7847
å	-13.9097
μ	-13.9097
	-13.9097
ê	-13.9097
ñ	-13.9097
ρ	-13.9097
ς	-13.9097
и	-14.0525
ι	-14.0525
π	-14.0525
ō	-14.0525
▪	-14.0525
♪	-14.0525
н	-14.2192
	-14.2192
Δ	-14.2192
ν	-14.2192
😛	-14.2192
γ	-14.2192
φ	-14.2192
ی	-14.2192
ه	-14.4192
¦	-14.4192
ć	-14.4192
ή	-14.4192
β	-14.4192
х	-14.4192
ت	-14.4192
‒	-14.4192
‚	-14.4192
	-14.4192
‍	-14.4192
Р	-14.4192
س	-14.4192
—	-14.6518
ح	-14.6692
ά	-14.6692
О	-14.6692
в	-14.6692
😊	-14.6692
ş	-14.6692
ج	-14.6692
د	-14.6692
¢	-14.6692
ë	-14.6692
č	-14.6692
Θ	-14.6692
Ω	-14.6692
ε	-14.6692
σ	-14.6692
с	-14.6692
أ	-14.6692
ش	-14.6692
ك	-14.6692
∈	-14.6692
	-14.6692
ā	-14.6692
ֽ	-14.6692
æ	-14.6692
ذ	-15.0025
ś	-15.0025
ُ	-15.0025
ल	-15.0025
Ü	-15.0025
ق	-15.0025
😂	-15.0025
🤔	-15.0025
	-15.0025
	-15.0025
	-15.0025
Ö	-15.0025
η	-15.0025
χ	-15.0025
С	-15.0025
і	-15.0025
֥	-15.0025
ة	-15.0025
٠	-15.0025
―	-15.0025
⁡	-15.0025
□	-15.0025
⚡	-15.0025
✔	-15.0025
Т	-15.0025
р	-15.0025
ْ	-15.0025
ø	-15.0025
ц	-15.5025
д	-15.5025
😍	-15.5025
œ	-15.5025
ー	-15.5025
ð	-15.5025
õ	-15.5025
ɒ	-15.5025
	-15.5025
	-15.5025
¿	-15.5025
Á	-15.5025
ù	-15.5025
û	-15.5025
ý	-15.5025
Đ	-15.5025
ę	-15.5025
ğ	-15.5025
ī	-15.5025
İ	-15.5025
ū	-15.5025
ż	-15.5025
ʻ	-15.5025
ˌ	-15.5025
̈	-15.5025
έ	-15.5025
ί	-15.5025
К	-15.5025
Н	-15.5025
й	-15.5025
т	-15.5025
ф	-15.5025
ч	-15.5025
я	-15.5025
خ	-15.5025
ط	-15.5025
ा	-15.5025
ា	-15.5025
‰	-15.5025
↓	-15.5025
∘	-15.5025
∙	-15.5025
∽	-15.5025
≠	-15.5025
≥	-15.5025
▶	-15.5025
☆	-15.5025
☺	-15.5025
♠	-15.5025
❻	-15.5025
❽	-15.5025
⟩	-15.5025
⦁	-15.5025
、	-15.5025
の	-15.5025
ル	-15.5025
日	-15.5025
黑	-15.5025
	-15.5025
	-15.5025
📄	-15.5025
🔥	-15.5025
😁	-15.5025
😃	-15.5025
😚	-15.5025
ò	-15.5025
е	-15.5025
п	-15.5025
у	-15.5025
~	-16.4864
•	-16.4864
	-16.4969
✰	-16.497
☀	-16.4971
إ	-16.4972
װ	-16.4973
֖	-16.4974
В	-16.4975
δ	-16.4976
Ε	-16.4977
ţ	-16.4978
ő	-16.4979
ň	-16.498
ħ	-16.4981
Č	-16.4982
ă	-16.4983
ÿ	-16.4984
Ç	-16.4985
★	-16.4986
†	-16.4987
υ	-16.4988
Σ	-16.4989
ɾ	-16.499
Î	-16.4991
😀	-16.4992
♫	-16.4993
⋅	-16.4994
⁠	-16.4995
Ł	-16.4996
👑	-16.4997
√	-16.4998
ã	-16.4999
🙁	-16.5
ِ	-16.5001
É	-16.5002
±	-16.5003
▲	-16.5004
⁄	-16.5005
￼	-16.5006
⬅	-16.5007
‡	-16.5008
👈	-16.5009
∗	-16.501
ç	-16.5011
😉	-16.5012
­	-16.5013
♦	-16.5014
©	-16.5015
£	-16.5016
›	-16.5017
♥	-16.5018
↑	-16.5019
₪	-16.502
🙂	-16.5021
	-16.5022
→	-16.5023
«	-16.5024
द	-16.5025
ि	-16.5025
ɛ	-16.5025
्	-16.5025
コ	-16.5025
三	-16.5025
理	-16.5025
海	-16.5025
¡	-16.5025
È	-16.5025
Ë	-16.5025
Ó	-16.5025
Ø	-16.5025
Ú	-16.5025
Û	-16.5025
ï	-16.5025
ô	-16.5025
÷	-16.5025
Ġ	-16.5025
ŋ	-16.5025
Ś	-16.5025
Ż	-16.5025
Ž	-16.5025
ư	-16.5025
ș	-16.5025
ț	-16.5025
ɓ	-16.5025
ə	-16.5025
ɸ	-16.5025
ʊ	-16.5025
ʌ	-16.5025
ʼ	-16.5025
ː	-16.5025
Α	-16.5025
Β	-16.5025
Κ	-16.5025
Τ	-16.5025
Φ	-16.5025
Χ	-16.5025
Ψ	-16.5025
ω	-16.5025
ό	-16.5025
Б	-16.5025
Д	-16.5025
П	-16.5025
Ы	-16.5025
Я	-16.5025
г	-16.5025
ж	-16.5025
к	-16.5025
л	-16.5025
ш	-16.5025
ы	-16.5025
Ҫ	-16.5025
Ӑ	-16.5025
Ӗ	-16.5025
ӝ	-16.5025
Ӳ	-16.5025
Ե	-16.5025
Խ	-16.5025
Յ	-16.5025
Ս	-16.5025
ֺ	-16.5025
ׅ	-16.5025
ױ	-16.5025
آ	-16.5025
ئ	-16.5025
ث	-16.5025
ص	-16.5025
ف	-16.5025
ى	-16.5025
١	-16.5025
٢	-16.5025
٨	-16.5025
٩	-16.5025
ٰ	-16.5025
ٹ	-16.5025
چ	-16.5025
ߟ	-16.5025
ߡ	-16.5025
ं	-16.5025
औ	-16.5025
ग	-16.5025
त	-16.5025
न	-16.5025
ब	-16.5025
ी	-16.5025
े	-16.5025
ં	-16.5025
ગ	-16.5025
બ	-16.5025
લ	-16.5025
ો	-16.5025
༓	-16.5025
ខ	-16.5025
ភ	-16.5025
ម	-16.5025
រ	-16.5025
ស	-16.5025
ែ	-16.5025
្	-16.5025
ṅ	-16.5025
ạ	-16.5025
ả	-16.5025
ἀ	-16.5025
ῦ	-16.5025
⁨	-16.5025
⁩	-16.5025
₹	-16.5025
⇒	-16.5025
∀	-16.5025
∂	-16.5025
∆	-16.5025
∞	-16.5025
≪	-16.5025
≿	-16.5025
⋯	-16.5025
─	-16.5025
▸	-16.5025
▾	-16.5025
◻	-16.5025
◼	-16.5025
☚	-16.5025
☝	-16.5025
♔	-16.5025
♣	-16.5025
✌	-16.5025
✯	-16.5025
❁	-16.5025
❓	-16.5025
❤	-16.5025
❷	-16.5025
❼	-16.5025
❾	-16.5025
➝	-16.5025
⟨	-16.5025
⟵	-16.5025
⭐	-16.5025
ア	-16.5025
ギ	-16.5025
シ	-16.5025
ス	-16.5025
ド	-16.5025
ュ	-16.5025
㪗	-16.5025
东	-16.5025
主	-16.5025
九	-16.5025
京	-16.5025
介	-16.5025
以	-16.5025
会	-16.5025
元	-16.5025
列	-16.5025
反	-16.5025
古	-16.5025
名	-16.5025
士	-16.5025
大	-16.5025
学	-16.5025
川	-16.5025
工	-16.5025
幕	-16.5025
广	-16.5025
府	-16.5025
式	-16.5025
徳	-16.5025
慢	-16.5025
拾	-16.5025
旦	-16.5025
本	-16.5025
来	-16.5025
株	-16.5025
民	-16.5025
浪	-16.5025
点	-16.5025
疽	-16.5025
社	-16.5025
穂	-16.5025
空	-16.5025
章	-16.5025
第	-16.5025
简	-16.5025
算	-16.5025
絵	-16.5025
義	-16.5025
聲	-16.5025
航	-16.5025
色	-16.5025
茶	-16.5025
蒙	-16.5025
術	-16.5025
襲	-16.5025
詞	-16.5025
赤	-16.5025
逆	-16.5025
道	-16.5025
都	-16.5025
鈴	-16.5025
院	-16.5025
髓	-16.5025
黒	-16.5025
랙	-16.5025
블	-16.5025
엠	-16.5025
	-16.5025
	-16.5025
	-16.5025
	-16.5025
	-16.5025
	-16.5025
	-16.5025
	-16.5025
	-16.5025
	-16.5025
﴾	-16.5025
﴿	-16.5025
🇸	-16.5025
🇾	-16.5025
🌈	-16.5025
🌎	-16.5025
🍻	-16.5025
🎉	-16.5025
🎶	-16.5025
🏽	-16.5025
🐔	-16.5025
👉	-16.5025
💉	-16.5025
💔	-16.5025
💖	-16.5025
💜	-16.5025
💫	-16.5025
📁	-16.5025
😄	-16.5025
😅	-16.5025
😆	-16.5025
😈	-16.5025
😏	-16.5025
😐	-16.5025
😒	-16.5025
😜	-16.5025
😦	-16.5025
🙌	-16.5025
🚖	-16.5025
🚘	-16.5025
🤨	-16.5025
🦁	-16.5025
🧼	-16.5025
Š	-16.5025
Ÿ	-16.5025
ὥ	-16.5025
‮	-16.5025
·	-16.5025
ˈ	-16.5025
ھ	-16.5025
