<unk>	0
<s>	0
</s>	0
.	-3.07926
,	-3.28425
▁של	-4.23604
▁את	-4.24558
ים	-4.565
ה	-4.58951
▁על	-4.72979
▁לא	-4.74076
▁	-4.78546
ת	-4.92046
ו	-4.93219
▁ב	-5.02087
▁"	-5.04586
▁ה	-5.07222
▁ו	-5.12516
▁זה	-5.1896
"	-5.2081
ות	-5.21132
▁ל	-5.22028
?	-5.22709
▁הוא	-5.25557
י	-5.35951
:	-5.40802
▁מה	-5.42619
-	-5.52382
▁עם	-5.53629
▁כל	-5.60324
▁או	-5.61167
▁מ	-5.61552
▁ש	-5.73108
▁(	-5.77098
'	-5.7785
▁אני	-5.7801
▁היא	-5.81042
▁יותר	-5.83821
▁גם	-5.88843
▁יש	-5.96049
ם	-5.97419
".	-5.99613
▁אם	-6.02245
▁כי	-6.05175
▁הם	-6.0944
▁היה	-6.12266
)	-6.15014
▁אבל	-6.18547
▁וה	-6.25487
▁-	-6.29451
▁כדי	-6.31812
▁להיות	-6.33214
▁–	-6.3408
▁רק	-6.36508
▁אחד	-6.41459
▁לי	-6.42124
▁כ	-6.45167
ב	-6.46234
▁אתה	-6.48617
נו	-6.51406
▁כך	-6.51532
▁יכול	-6.51672
▁כמו	-6.523
▁שה	-6.5815
▁ביותר	-6.63
▁שלך	-6.64582
ל	-6.66217
▁זו	-6.68059
▁עד	-6.71533
▁זאת	-6.71902
▁האם	-6.76812
▁אותו	-6.78292
!	-6.787
▁אל	-6.79258
▁אנחנו	-6.83093
▁הזה	-6.83797
▁בין	-6.83921
ר	-6.85146
▁ידי	-6.85734
▁שלנו	-6.86028
▁בכל	-6.8623
▁לו	-6.86657
ן	-6.87061
▁כמה	-6.8779
▁שלי	-6.87979
▁אין	-6.9019
▁מאוד	-6.90995
▁היו	-6.91528
▁לה	-6.96772
ית	-6.96942
▁לך	-6.96997
▁אז	-6.98283
▁מי	-6.99075
▁לאחר	-6.9994
▁ג	-6.99951
▁אנשים	-7.0047
▁לפני	-7.01225
▁וב	-7.01537
▁אך	-7.02277
▁לעשות	-7.04799
▁צריך	-7.0586
▁דבר	-7.0591
...	-7.0644
s	-7.08421
▁שהוא	-7.08563
▁עוד	-7.08717
▁כבר	-7.10082
▁עבור	-7.1111
▁שלו	-7.11366
▁טוב	-7.12573
▁איך	-7.13077
▁ול	-7.13744
▁הרבה	-7.14445
▁לנו	-7.14493
▁כאשר	-7.16089
▁ישראל	-7.18549
▁אשר	-7.19134
▁שלהם	-7.19525
▁באופן	-7.21652
▁אלה	-7.22126
▁שלא	-7.25217
▁בו	-7.2523
▁אחר	-7.25294
▁אנו	-7.25296
▁היום	-7.25764
▁רוצה	-7.25925
תי	-7.26028
▁שם	-7.26053
;	-7.2623
▁אמר	-7.26389
▁אתם	-7.26647
",	-7.26731
▁אדם	-7.27054
▁שנים	-7.2721
▁אחת	-7.29042
▁י	-7.2944
ך	-7.31905
).	-7.33565
▁ת	-7.34267
יה	-7.34325
▁ולא	-7.34922
▁זמן	-7.35473
▁העולם	-7.35928
▁להם	-7.3837
▁כן	-7.38388
▁שני	-7.39019
▁יכולים	-7.3979
ג	-7.40288
▁הייתה	-7.40561
▁“	-7.40653
▁אותם	-7.41517
▁יום	-7.41688
ס	-7.42324
▁יהיה	-7.43065
ח	-7.43696
▁המ	-7.45058
▁שאני	-7.46459
▁פעם	-7.46763
▁ניתן	-7.47764
▁ומ	-7.47932
▁שלכם	-7.47936
▁כאן	-7.48047
▁שיש	-7.48107
▁מספר	-7.48195
▁אחרים	-7.48337
▁תמיד	-7.48605
▁בשנת	-7.49284
▁'	-7.49457
אני	-7.49473
▁נ	-7.49773
▁אחרי	-7.49867
▁בית	-7.49929
מ	-7.50655
▁אף	-7.51131
▁שהם	-7.51232
▁לכל	-7.51394
▁רבים	-7.52018
▁אותה	-7.52806
▁חלק	-7.52908
▁בה	-7.53349
א	-7.53406
▁למה	-7.5437
▁בעולם	-7.55352
”	-7.55388
▁משהו	-7.55582
▁אלא	-7.56207
▁פי	-7.56294
▁שנה	-7.5698
▁בני	-7.60013
יו	-7.60397
▁ללא	-7.60972
▁עדיין	-7.60995
▁אפשר	-7.62104
▁אומר	-7.62877
ק	-7.63083
▁לכם	-7.63748
יות	-7.64886
▁דרך	-7.65387
▁אי	-7.65604
▁עכשיו	-7.65777
▁לראות	-7.6644
ון	-7.66602
▁באמת	-7.67262
▁כש	-7.69112
▁הראשון	-7.6917
▁במהלך	-7.7054
▁שלה	-7.7184
▁אפילו	-7.72061
▁הן	-7.72522
▁אותי	-7.72669
▁א	-7.73014
▁שאתה	-7.73155
▁הזמן	-7.73194
ד	-7.7348
מה	-7.74078
."	-7.74204
▁האדם	-7.74222
▁ואת	-7.75459
▁פשוט	-7.75633
▁אולי	-7.76104
▁חיים	-7.76274
▁מדי	-7.76542
▁בבית	-7.76969
▁יודע	-7.77472
▁בדרך	-7.77972
▁הספר	-7.78562
▁שזה	-7.78744
▁החיים	-7.79038
▁באמצעות	-7.80188
▁הכל	-7.82129
▁חשוב	-7.82274
▁מקום	-7.83951
▁לב	-7.84407
▁כלל	-7.84696
▁שבו	-7.84826
▁היתה	-7.8583
▁שב	-7.85943
ש	-7.86212
/	-7.86701
▁אינו	-7.86972
ט	-7.87494
▁שוב	-7.8832
▁רוצים	-7.88869
▁שהיא	-7.89347
▁גדול	-7.89881
),	-7.90302
▁נראה	-7.90753
▁קשה	-7.91127
ני	-7.91505
▁דברים	-7.91911
▁צריכים	-7.91977
או	-7.92444
▁הראשונה	-7.92701
▁לקבל	-7.93217
▁כיצד	-7.93366
▁הייתי	-7.93437
▁הכי	-7.936
▁2	-7.93745
▁מן	-7.94729
זה	-7.94777
▁במקום	-7.94945
▁כפי	-7.95061
▁האלה	-7.96367
▁נגד	-7.97001
▁מאז	-7.97091
▁במשך	-7.97664
▁שי	-7.98623
▁בן	-7.99056
?"	-7.99535
▁יכולה	-7.99582
▁אלוהים	-7.99621
▁פחות	-7.99845
▁3	-8.00072
▁כמעט	-8.00198
כ	-8.00613
▁ילדים	-8.00652
▁הדבר	-8.01152
▁החברה	-8.01287
▁אלו	-8.01566
]	-8.03111
ז	-8.03376
יים	-8.03546
▁עצמו	-8.04364
לא	-8.04967
▁הזו	-8.05309
’	-8.05574
▁מידע	-8.05967
פי	-8.07045
▁ממש	-8.07371
▁חדש	-8.08359
▁עושה	-8.09206
▁מהם	-8.09251
▁רב	-8.09735
▁ד	-8.09756
▁בתוך	-8.09881
כם	-8.10017
▁לכן	-8.10477
▁אותך	-8.10528
▁מיליון	-8.10538
▁הברית	-8.10773
▁המדינה	-8.1085
▁נכון	-8.11027
▁1	-8.11254
▁עבודה	-8.1127
▁רוב	-8.11659
▁שום	-8.11949
▁בדיוק	-8.12784
▁לגבי	-8.12976
▁לפי	-8.13058
▁למצוא	-8.13151
▁בגלל	-8.13221
נים	-8.13749
▁רבות	-8.14001
▁מת	-8.14095
▁שונים	-8.14315
▁למרות	-8.1435
▁בלי	-8.14466
▁בלתי	-8.14576
▁בזמן	-8.14804
יש	-8.1485
▁ביום	-8.14856
▁שתי	-8.149
▁כולם	-8.15039
▁כולל	-8.15041
פ	-8.15135
▁בעלי	-8.15672
▁מכל	-8.16051
▁שמ	-8.16806
▁מתוך	-8.1693
▁לדעת	-8.17367
▁5	-8.17405
▁וגם	-8.17715
▁במיוחד	-8.17865
▁צ	-8.18022
▁אחרת	-8.18067
▁הזאת	-8.1821
▁להשתמש	-8.18365
▁חושב	-8.18553
▁ואני	-8.18571
▁לכך	-8.18813
▁השני	-8.18972
▁העיר	-8.19519
▁תהיה	-8.19647
▁השנה	-8.19712
▁והוא	-8.19817
▁ספר	-8.20436
▁מספיק	-8.2149
▁בצורה	-8.22099
נה	-8.22121
▁העבודה	-8.22277
▁יודעים	-8.22307
▁קצת	-8.22666
▁יחד	-8.23052
▁כזה	-8.23962
▁4	-8.2422
▁קל	-8.24328
צ	-8.24515
▁10	-8.24985
▁וזה	-8.25263
▁לפחות	-8.26009
▁ע	-8.26193
▁בהם	-8.26287
יהם	-8.26573
▁מאשר	-8.27338
▁דולר	-8.2784
▁שאנחנו	-8.28917
▁הדברים	-8.29117
▁כיום	-8.2915
▁מדוע	-8.2989
▁ראש	-8.29962
▁מערכת	-8.29979
▁מנת	-8.30196
▁די	-8.30563
▁מעל	-8.30892
▁תוך	-8.31328
▁עליו	-8.31431
▁אותנו	-8.31531
▁להגיע	-8.31605
▁בלבד	-8.31724
▁נמצא	-8.31838
לה	-8.31868
▁הבית	-8.32039
▁הדרך	-8.32152
▁שעות	-8.32161
▁להבין	-8.32187
▁טובה	-8.32276
▁בישראל	-8.32541
▁נשים	-8.32761
▁בא	-8.33763
▁ימים	-8.33954
▁שאתם	-8.33969
▁מישהו	-8.34504
▁...	-8.34681
כל	-8.3471
▁ואז	-8.34855
▁אינם	-8.34885
▁כסף	-8.35473
▁הבא	-8.36107
▁[	-8.37084
▁מכן	-8.37401
ף	-8.3773
▁ועל	-8.37926
מי	-8.38208
▁בעוד	-8.38499
▁אחרות	-8.38809
▁עושים	-8.39575
▁S	-8.39669
▁A	-8.39721
▁בנוסף	-8.40211
▁אינה	-8.40219
▁הגדול	-8.40576
▁כמובן	-8.40676
▁שימוש	-8.40842
▁18	-8.41127
▁הללו	-8.41155
▁בת	-8.41188
▁לקחת	-8.41448
▁למעשה	-8.41689
▁לדבר	-8.41823
▁לתת	-8.41843
▁ללמוד	-8.42379
▁איש	-8.42812
▁הארץ	-8.4301
▁לעולם	-8.43093
תם	-8.43199
ע	-8.43404
▁לעבוד	-8.44442
▁הממשלה	-8.45138
▁האנשים	-8.45399
מן	-8.45947
▁הת	-8.46004
▁C	-8.46014
ין	-8.46372
▁ומה	-8.46908
▁סוף	-8.47096
▁נוסף	-8.47293
▁חייב	-8.4732
אל	-8.47431
▁בעיקר	-8.47743
▁ק	-8.47943
ינו	-8.48099
▁לעזור	-8.48168
▁פעמים	-8.4853
▁The	-8.48832
▁of	-8.48863
▁הרי	-8.48906
▁שהיה	-8.49133
▁מדובר	-8.49273
▁אולם	-8.49921
▁לומר	-8.4999
אם	-8.50116
▁פה	-8.50236
▁תחת	-8.50281
▁אוהב	-8.50569
▁שנ	-8.50744
▁קשר	-8.50875
▁ונ	-8.51039
▁בכלל	-8.51097
▁קודם	-8.51376
▁דקות	-8.51821
▁ברור	-8.51864
▁השנים	-8.51965
▁האחרון	-8.52192
▁/	-8.52267
▁ליצור	-8.52517
▁כה	-8.526
▁מחדש	-8.52856
▁מעט	-8.52931
▁גדולה	-8.53036
פו	-8.53216
▁יהיו	-8.53243
▁הילדים	-8.53311
▁רואה	-8.53313
y	-8.53676
נות	-8.54272
אי	-8.5462
▁פעולה	-8.54838
מו	-8.55193
▁B	-8.55582
ידי	-8.55828
▁צריכה	-8.55993
▁קרובות	-8.56325
▁מול	-8.5671
▁6	-8.56729
▁נוספים	-8.56995
▁שת	-8.57084
▁וש	-8.57089
▁בעל	-8.57817
▁בתחום	-8.58123
▁המשפט	-8.58191
▁בכך	-8.58431
2	-8.58469
▁זהו	-8.58719
▁הגוף	-8.58772
▁חדשים	-8.5886
▁סוג	-8.58965
▁שאין	-8.59656
▁מחקר	-8.59665
▁חודשים	-8.59737
▁בשביל	-8.59892
▁החוק	-8.59921
▁למשל	-8.60034
▁איזה	-8.60341
▁שבה	-8.60486
▁צורך	-8.60601
נ	-8.60629
▁כאלה	-8.6069
▁מדינות	-8.60807
▁שונות	-8.60955
▁ארה	-8.61006
▁באתר	-8.61057
▁כעת	-8.61091
▁מצב	-8.61555
▁לבית	-8.61811
▁עשוי	-8.61986
▁החל	-8.62154
לו	-8.6236
▁בטוח	-8.62484
▁שלושה	-8.62643
ור	-8.62657
▁ברחבי	-8.62976
מת	-8.63074
▁עובד	-8.63091
S	-8.63253
▁הנ	-8.63638
▁למ	-8.63761
▁בשל	-8.63933
▁באותו	-8.63961
▁עצמי	-8.64016
▁מפני	-8.6402
▁מזה	-8.6413
▁שכל	-8.64226
▁קורה	-8.64569
▁קטן	-8.64842
▁משום	-8.64918
▁האמת	-8.651
▁ללכת	-8.65131
▁ס	-8.6528
e	-8.65341
▁הגיע	-8.65383
▁7	-8.6541
▁כגון	-8.65586
▁ספק	-8.66105
▁לאורך	-8.66112
▁פני	-8.66396
▁לזה	-8.66397
▁בר	-8.66484
על	-8.66534
▁שונה	-8.66711
▁לעתים	-8.66818
▁ככל	-8.67159
▁ויש	-8.67614
▁הטוב	-8.67672
▁חדשה	-8.67778
▁בשנה	-8.6799
▁חברת	-8.68165
▁ולה	-8.68199
▁לשמור	-8.68318
כי	-8.68421
▁שלוש	-8.687
וס	-8.68716
▁החדש	-8.68932
▁8	-8.69275
▁להשיג	-8.69476
▁ולכן	-8.69481
▁בפני	-8.69927
▁20	-8.70464
▁לפעמים	-8.70516
▁כוח	-8.70828
תו	-8.71153
▁מעבר	-8.71442
▁לקרוא	-8.71686
▁להפוך	-8.71721
▁ממנו	-8.71905
▁the	-8.71937
▁מאד	-8.72079
▁מלא	-8.72744
▁לשנות	-8.72923
▁אצל	-8.72956
▁ז	-8.73052
▁ארצות	-8.7325
▁המצב	-8.73293
1	-8.73393
▁חי	-8.73429
ing	-8.73439
er	-8.73661
▁לחלוטין	-8.73673
▁שאלה	-8.73744
לי	-8.73941
רה	-8.7413
▁לבצע	-8.74391
▁לבין	-8.74595
▁גבוה	-8.74819
C	-8.74835
▁שאנו	-8.75116
▁לחשוב	-8.75331
▁ילד	-8.75456
▁המשחק	-8.75513
▁הנה	-8.75545
▁בעבר	-8.75783
▁מגיע	-8.75823
▁חברות	-8.75981
▁כנראה	-8.76248
▁משחק	-8.76252
▁כשה	-8.76442
▁וי	-8.76507
▁בחיים	-8.7691
▁לחיות	-8.76962
▁15	-8.77048
▁עובדים	-8.77317
▁מר	-8.7774
▁הולך	-8.7781
רי	-8.77867
▁D	-8.77882
▁שינוי	-8.77985
▁מס	-8.78142
▁מתי	-8.78261
▁בשם	-8.78402
▁בסוף	-8.7844
▁במקרה	-8.78456
בי	-8.78707
▁באזור	-8.78752
נית	-8.79747
▁בקרב	-8.79795
▁השנייה	-8.79831
▁מו	-8.79871
▁מצד	-8.80009
▁הסרט	-8.80085
▁כאילו	-8.80133
הם	-8.80171
▁ידע	-8.80376
▁אמרה	-8.80519
▁רואים	-8.80559
פת	-8.80662
D	-8.80683
▁וכל	-8.80709
”.	-8.80825
B	-8.81129
▁המשפחה	-8.81248
▁האחרונות	-8.81251
▁טובים	-8.81256
▁שנות	-8.81298
▁והיא	-8.81369
▁משנה	-8.81588
▁בעיות	-8.81726
▁אתכם	-8.81818
▁הילד	-8.81852
▁כתב	-8.81868
ונים	-8.82082
אן	-8.82336
▁אור	-8.82434
▁F	-8.82541
קו	-8.82578
▁12	-8.82672
G	-8.82688
▁אליו	-8.83132
נת	-8.83372
▁טיפול	-8.83488
▁פעילות	-8.8355
▁תודה	-8.83567
▁איפה	-8.83684
▁יורק	-8.8369
F	-8.83719
▁בתי	-8.83803
▁מאוחר	-8.8381
▁גבוהה	-8.8394
▁זכויות	-8.84093
▁ח	-8.84103
פה	-8.84171
▁תוכנית	-8.84373
▁P	-8.84454
▁באות	-8.84545
▁רבה	-8.84564
▁יו	-8.84718
▁?	-8.84809
״	-8.85143
▁השאלה	-8.85163
▁המידע	-8.85188
3	-8.85213
▁שנת	-8.85234
▁עלינו	-8.85251
▁נוספת	-8.85366
▁מיד	-8.85367
t	-8.85529
את	-8.85647
▁מעולם	-8.8575
▁מבין	-8.85768
▁כלומר	-8.85781
▁להת	-8.85789
▁כלפי	-8.85932
▁מרגיש	-8.85961
▁במצב	-8.86077
הוא	-8.8636
▁בעיר	-8.86465
▁להתחיל	-8.86579
▁בגיל	-8.86981
▁מקור	-8.87001
▁קו	-8.87006
A	-8.87085
▁ואם	-8.87213
▁לחזור	-8.87312
▁בנושא	-8.8736
▁עצמה	-8.87475
▁בעת	-8.87528
▁לבחור	-8.87596
רים	-8.87696
▁חדשות	-8.87808
▁עצמם	-8.87962
▁המחקר	-8.88076
▁מאות	-8.88118
▁הפעם	-8.88192
▁אוכל	-8.8823
▁גיל	-8.88334
P	-8.88435
▁רע	-8.88606
▁בעיה	-8.88685
יי	-8.89023
▁יהודים	-8.89054
▁חיי	-8.89148
▁דומה	-8.89183
▁אומרים	-8.89244
▁לגרום	-8.89436
▁מים	-8.89584
▁ועד	-8.89674
▁מדינה	-8.89773
אנחנו	-8.89784
▁עליהם	-8.89822
▁הגדולה	-8.89925
▁חבר	-8.89934
▁בי	-8.90128
מים	-8.90302
▁להמשיך	-8.90326
ְ	-8.9044
▁והם	-8.9049
▁דו	-8.90566
▁חברים	-8.90576
▁חייבים	-8.90621
▁משתמשים	-8.90706
▁הבעיה	-8.90738
▁שירות	-8.90755
-19	-8.9085
וני	-8.90861
▁ליד	-8.91048
▁סיפור	-8.91055
▁אנשי	-8.91092
▁בסופו	-8.91108
▁קרה	-8.91217
▁למען	-8.91236
▁קצר	-8.91373
▁בסדר	-8.9144
דר	-8.91499
▁מחוץ	-8.91686
▁חוק	-8.9176
▁וכן	-8.91823
מר	-8.91829
T	-8.91881
▁אומרת	-8.91899
▁אהבה	-8.92064
▁לתוך	-8.92197
כן	-8.92392
▁ועוד	-8.92426
▁ככה	-8.92572
בה	-8.9267
▁המקום	-8.92976
▁בהתאם	-8.93052
▁30	-8.93078
▁בארה	-8.93302
▁מהר	-8.93342
▁G	-8.93426
▁נתונים	-8.93709
4	-8.94127
־	-8.94134
גר	-8.94152
▁לגמרי	-8.94259
▁עולם	-8.94393
▁M	-8.94482
▁תוכלו	-8.94491
▁לעומת	-8.94519
▁הג	-8.9461
▁T	-8.95265
▁הסיבה	-8.95366
רת	-8.95521
al	-8.95598
▁רגע	-8.95702
in	-8.95829
▁לספק	-8.95952
▁לאנשים	-8.9604
▁גברים	-8.96096
▁היינו	-8.96184
פים	-8.96217
▁אותן	-8.96483
▁בארץ	-8.96507
רו	-8.96521
n	-8.96613
▁הו	-8.96665
יר	-8.96666
▁תהליך	-8.96776
▁האינטרנט	-8.9681
▁קיים	-8.96929
▁במ	-8.97025
▁העם	-8.97115
▁בעקבות	-8.97197
▁E	-8.97259
▁לבד	-8.97292
▁מתחיל	-8.97355
▁האתר	-8.97496
▁ייתכן	-8.97541
!"	-8.97561
▁ראשון	-8.97733
▁הלב	-8.97943
קה	-8.97987
▁החדשה	-8.97987
קי	-8.98085
▁כדאי	-8.98311
▁השימוש	-8.98363
▁האחרונה	-8.98378
▁הכול	-8.98428
▁למנוע	-8.98465
▁בריאות	-8.99095
▁ברגע	-8.99266
▁לצאת	-8.99554
▁להביא	-8.99561
▁בהחלט	-8.99576
o	-8.9996
▁המלחמה	-9.00075
▁לשם	-9.00321
▁שמו	-9.00327
▁להתמודד	-9.00442
▁נמצאים	-9.00536
שה	-9.00584
▁ערך	-9.00611
▁הנשיא	-9.0074
▁המו	-9.00755
מות	-9.00859
M	-9.01042
▁נעשה	-9.0116
▁יפה	-9.01707
▁I	-9.01718
▁9	-9.0184
▁כלי	-9.01861
▁לכתוב	-9.0205
▁רוח	-9.02243
▁אלף	-9.02275
▁המאה	-9.02568
▁עלול	-9.02569
▁הס	-9.02655
▁זוהי	-9.02726
▁להגיד	-9.02811
▁אישי	-9.02893
▁תוכל	-9.03067
כו	-9.03228
▁השבוע	-9.03292
לים	-9.03347
▁היהודים	-9.03372
▁ישנם	-9.03396
▁מנסה	-9.03481
▁לאכול	-9.03692
5	-9.03693
▁הבריאות	-9.03855
▁היטב	-9.0402
▁ר	-9.04122
–	-9.04502
▁בסיס	-9.04563
▁תת	-9.04681
▁סביב	-9.04739
▁עליך	-9.05052
▁הבאה	-9.05164
▁ארגון	-9.05211
▁באינטרנט	-9.0555
▁בשנים	-9.05629
▁עניין	-9.05649
▁מקבל	-9.05687
▁משמעות	-9.05715
כה	-9.05766
▁הציבור	-9.05771
▁האי	-9.05883
▁מכך	-9.05954
▁שלום	-9.06138
▁עשה	-9.06261
▁שהיו	-9.06404
▁•	-9.06526
▁שבוע	-9.06584
▁האו	-9.06734
▁חברה	-9.06967
יל	-9.071
▁בשלב	-9.07108
▁מזון	-9.07127
ed	-9.07296
▁שר	-9.0745
ום	-9.07477
▁אמא	-9.07579
▁17	-9.077
a	-9.07841
▁11	-9.07873
עד	-9.07957
▁*	-9.07988
▁and	-9.07999
▁בידי	-9.08002
▁יודעת	-9.08046
▁משפחה	-9.08092
▁מלחמת	-9.08173
▁שש	-9.08177
▁לקנות	-9.08282
▁קרוב	-9.08297
▁הסיפור	-9.08309
▁מיליארד	-9.08476
▁כולנו	-9.08479
יך	-9.08568
▁היחיד	-9.08595
▁מתחת	-9.08595
▁עסקים	-9.08709
▁שאלות	-9.0875
▁תוצאות	-9.08889
▁גישה	-9.08977
▁מסוימים	-9.09086
i	-9.09146
יק	-9.09282
▁משרד	-9.09336
▁כוחות	-9.09357
▁הטיפול	-9.09496
▁לשחק	-9.09705
▁אתר	-9.09727
▁להרגיש	-9.09762
▁לעיתים	-9.09886
▁ניו	-9.10006
▁השם	-9.10166
H	-9.10267
▁מדבר	-9.10365
▁במהירות	-9.104
▁חוסר	-9.10483
▁חושבים	-9.10498
▁אכן	-9.1051
▁מדינת	-9.10529
▁נשיא	-9.10673
E	-9.10688
▁הראשונים	-9.10717
▁היחידה	-9.10769
▁הביתה	-9.1078
וב	-9.10894
▁נושא	-9.10944
▁האל	-9.11124
c	-9.11236
דו	-9.11272
▁למעלה	-9.11444
▁ט	-9.11472
▁כדור	-9.11565
פל	-9.11683
▁בתור	-9.1179
▁למי	-9.12092
L	-9.12267
▁בזה	-9.12323
▁מסוגל	-9.12324
▁בעצם	-9.12394
▁דרכים	-9.12397
▁16	-9.12468
▁הח	-9.12504
▁לעבור	-9.12605
דה	-9.12606
ול	-9.12908
▁עשויים	-9.1293
▁אישה	-9.13017
נר	-9.13026
▁הנתונים	-9.13031
▁אירופה	-9.13246
▁מכיוון	-9.13313
▁רחב	-9.13427
רק	-9.13452
▁הזדמנות	-9.13687
re	-9.13707
▁מבלי	-9.13856
▁יי	-9.13943
▁עולה	-9.14121
▁לבנות	-9.14145
▁הפך	-9.14258
▁הר	-9.14498
▁ידוע	-9.14619
▁מדיניות	-9.14646
▁מאמין	-9.14711
▁להיכנס	-9.14737
▁שא	-9.14755
▁להישאר	-9.14869
▁במדינה	-9.15112
▁לראשונה	-9.15156
▁ממה	-9.15214
▁יכולות	-9.15309
▁ניהול	-9.15319
סט	-9.15354
▁ביחד	-9.15361
▁בפעם	-9.15458
I	-9.15642
טי	-9.15687
▁אוהבים	-9.15717
▁מאחורי	-9.15722
▁התעופה	-9.15825
▁מקווה	-9.15843
▁הביטחון	-9.1586
▁לחץ	-9.1588
▁שמח	-9.15975
▁סיבה	-9.16019
▁בשבוע	-9.16277
▁רכב	-9.1642
▁מדברים	-9.16423
▁עבר	-9.16429
g	-9.16432
▁אמרתי	-9.16595
אר	-9.16672
סטר	-9.16775
אין	-9.16777
▁גורם	-9.16827
ורג	-9.16878
▁המדינות	-9.17014
סי	-9.17037
▁עומד	-9.17168
▁להגן	-9.17271
▁כמות	-9.17319
▁אלפי	-9.17347
▁שיהיה	-9.17382
▁שיכול	-9.17409
▁אמריקה	-9.17458
▁13	-9.1749
▁יד	-9.17646
▁אמיתי	-9.17667
▁14	-9.17686
▁טראמפ	-9.17743
די	-9.1783
▁כללי	-9.17836
אתה	-9.17907
נד	-9.17949
▁תמונות	-9.18283
▁בואו	-9.18288
▁מקרה	-9.1861
ץ	-9.18842
▁בארצות	-9.18864
▁קטנה	-9.18919
▁ההיסטוריה	-9.18982
▁לשלם	-9.19047
▁לילדים	-9.19061
יד	-9.19228
▁דווקא	-9.19291
רד	-9.19331
▁מסוים	-9.19355
▁משמעותי	-9.19423
N	-9.19593
▁היהודי	-9.19718
▁מוצרים	-9.19745
▁הא	-9.19868
פר	-9.19878
▁חזק	-9.19887
נג	-9.1992
w	-9.19923
▁בנוגע	-9.19925
▁לנסות	-9.20067
בת	-9.20102
▁אפשרי	-9.20108
▁לספר	-9.20115
▁פ	-9.20139
▁שאת	-9.20139
▁לדוגמה	-9.20301
ונות	-9.20309
▁ניסיון	-9.20377
▁ויותר	-9.20465
▁אילו	-9.20565
▁איראן	-9.20738
▁ות	-9.20756
▁עליה	-9.20907
▁H	-9.20941
▁גדולים	-9.20987
▁יהודי	-9.21185
▁מערכות	-9.21193
▁ירושלים	-9.21211
▁צוות	-9.21293
▁כתוצאה	-9.21401
▁יוצא	-9.21425
▁דם	-9.21466
▁פנים	-9.21482
▁מרכז	-9.21513
▁אבא	-9.21535
▁עיר	-9.2159
▁ממשלת	-9.21808
▁איתו	-9.21991
▁שווה	-9.22056
▁וכך	-9.22295
▁לשמוע	-9.22306
▁מאמינים	-9.22376
▁תקופה	-9.22485
פות	-9.2249
▁במסגרת	-9.22497
▁הדין	-9.22525
ינג	-9.23007
▁דין	-9.23028
▁המטרה	-9.23127
▁מחיר	-9.23201
בו	-9.23204
▁משתמש	-9.23239
▁שבועות	-9.23251
▁לישראל	-9.23436
00	-9.23553
▁עצמך	-9.23908
כים	-9.23948
p	-9.24138
▁נשמע	-9.2417
▁המוח	-9.2448
▁מסוג	-9.24604
▁חמש	-9.24629
▁נוספות	-9.24705
▁לפעול	-9.24909
▁סרט	-9.24934
▁לקוחות	-9.24953
▁עשר	-9.25106
▁אישית	-9.25187
יג	-9.25188
▁הבאים	-9.25216
▁סין	-9.2523
▁האוויר	-9.25256
▁הכסף	-9.25269
▁תלוי	-9.25301
▁חברי	-9.25383
▁איכות	-9.2547
תה	-9.25484
▁במה	-9.25634
▁היכולת	-9.25676
▁אמרו	-9.25845
קס	-9.25875
אה	-9.25944
▁קטנים	-9.25944
▁לאחרונה	-9.25969
▁—	-9.25987
▁בחודש	-9.26106
▁הטובה	-9.2617
פס	-9.26174
▁המים	-9.26241
▁ושל	-9.26308
▁באירופה	-9.2639
▁שבהם	-9.26453
▁אנרגיה	-9.2649
▁המערכת	-9.26568
▁שצריך	-9.26572
▁החולים	-9.26636
▁הבינלאומי	-9.26656
▁חודש	-9.26782
▁אחוז	-9.26849
▁יתר	-9.27201
▁:	-9.27272
▁העובדה	-9.27298
כך	-9.27304
פור	-9.27315
▁מיוחד	-9.27342
▁אפשרות	-9.27414
▁כזו	-9.27425
▁מוכן	-9.27461
▁ארבעה	-9.27499
d	-9.27565
צי	-9.27736
▁N	-9.27766
▁ראיתי	-9.27782
▁בראש	-9.2782
גו	-9.27978
▁L	-9.28012
(	-9.28013
r	-9.28027
▁ואף	-9.28061
▁חצי	-9.28294
▁קר	-9.28327
▁תפקיד	-9.28364
▁קבוצה	-9.28421
▁פרק	-9.28607
טה	-9.28672
▁אמת	-9.28751
▁כיוון	-9.2882
▁האחרונים	-9.28857
▁ארבע	-9.28883
▁מלאה	-9.2909
אז	-9.29191
▁מבט	-9.2922
נק	-9.29386
▁לעמוד	-9.29472
▁שאר	-9.29628
▁בהן	-9.29641
▁מלחמה	-9.29669
▁הלא	-9.29671
נט	-9.29811
or	-9.29887
▁שגם	-9.29894
▁בבוקר	-9.29917
b	-9.29931
▁כלום	-9.29998
▁הרכב	-9.30033
W	-9.30115
▁לשפר	-9.30134
▁ורק	-9.3028
▁נקרא	-9.30333
▁אוהבת	-9.30462
אבל	-9.30465
▁נשאר	-9.30834
▁ימי	-9.30901
▁סי	-9.30902
▁לשים	-9.31022
▁W	-9.31156
▁שינויים	-9.31217
▁אודות	-9.31481
▁אש	-9.31606
▁השלישי	-9.31609
K	-9.3161
▁תמיכה	-9.31742
m	-9.31747
▁ממנה	-9.31785
▁המת	-9.31846
וש	-9.3194
קל	-9.3205
▁התיכון	-9.32112
▁in	-9.322
en	-9.3228
טו	-9.32332
ִ	-9.32347
▁הקבוצה	-9.32393
▁מנהל	-9.32424
נס	-9.32466
שי	-9.32487
▁צעד	-9.325
▁הטבע	-9.32518
▁התשובה	-9.32546
▁הופך	-9.32598
צו	-9.32601
▁הגיעו	-9.3266
▁ולאחר	-9.32848
▁האירופי	-9.33022
▁לצד	-9.33083
בית	-9.33127
-18	-9.33138
▁ערב	-9.3319
▁לאור	-9.33222
▁מעניין	-9.33369
בל	-9.33412
כת	-9.33462
-1	-9.33536
יס	-9.33657
▁טבעי	-9.33762
▁שאפשר	-9.33896
▁חזרה	-9.33951
שם	-9.34026
▁חסר	-9.34155
▁חושבת	-9.342
▁ספרים	-9.34229
▁העסק	-9.34319
▁לרוב	-9.34487
R	-9.34546
▁הארגון	-9.34586
8	-9.34642
▁תשומת	-9.34773
▁הקשר	-9.34809
▁התוכנית	-9.34881
▁בשוק	-9.34888
h	-9.3493
▁היית	-9.35023
▁בקלות	-9.35064
▁מקבלים	-9.35107
▁לאדם	-9.35114
▁בעתיד	-9.35128
▁למקום	-9.35232
▁לגלות	-9.3525
▁הישראלי	-9.35268
▁זכות	-9.35281
▁מוקדם	-9.35283
▁אמור	-9.35334
▁מבחינה	-9.35377
▁ראה	-9.35386
▁לפתח	-9.35412
▁השפעה	-9.35578
▁שניתן	-9.35713
▁הרב	-9.35817
[	-9.36026
ינה	-9.36048
▁מגיעים	-9.361
O	-9.36107
ּ	-9.36272
▁לקראת	-9.36273
▁מראש	-9.36397
▁הסכם	-9.36414
▁במרכז	-9.36423
▁נקודות	-9.36497
ָ	-9.36518
▁בנו	-9.36534
▁לבדוק	-9.36685
דת	-9.36698
▁קבוצות	-9.36712
▁פתרון	-9.36944
▁מילים	-9.37041
▁הש	-9.37116
▁נותן	-9.37281
▁במידה	-9.3731
▁יצא	-9.37385
▁הקהילה	-9.37404
ונה	-9.3743
▁בעזרת	-9.37446
▁שעה	-9.37455
▁הלילה	-9.37466
l	-9.37482
▁להבטיח	-9.37524
▁כולו	-9.37672
▁קיבל	-9.37679
▁חולים	-9.37818
ורה	-9.37908
▁האיש	-9.37916
▁המשטרה	-9.37951
▁תרופות	-9.38033
▁K	-9.38164
▁חוץ	-9.38258
לס	-9.38311
רות	-9.38341
▁ואפילו	-9.38367
▁שכן	-9.38594
▁הק	-9.38603
▁בחדר	-9.38612
▁האור	-9.38624
▁תכנית	-9.38649
▁האמריקאי	-9.38773
▁שאינם	-9.38866
▁וא	-9.38982
▁מגוון	-9.38987
▁ארוך	-9.39012
▁בינואר	-9.39064
▁ההורים	-9.39087
▁50	-9.39093
בר	-9.39213
▁צעירים	-9.39242
▁קבוצת	-9.39277
▁המלך	-9.39374
▁גבר	-9.39584
זו	-9.39692
▁יקרה	-9.39898
שו	-9.40004
▁תמונה	-9.40064
▁במאי	-9.40066
▁מאיתנו	-9.40067
▁המון	-9.40257
▁R	-9.40314
▁קבוע	-9.40338
▁»	-9.40364
▁עזרה	-9.40404
מנו	-9.40467
שת	-9.40509
▁תי	-9.40746
on	-9.40796
▁הכוח	-9.40825
חת	-9.40911
▁בתחילת	-9.41004
רס	-9.41007
מקרים	-9.41035
-20	-9.41045
▁השמש	-9.41115
▁2015	-9.41125
▁להעביר	-9.4116
▁הנכון	-9.41268
▁הגדולים	-9.41291
▁לבקר	-9.4134
▁שזו	-9.41368
▁אינטרנט	-9.41389
6	-9.41472
▁עשו	-9.41647
▁קיימת	-9.41759
ירה	-9.41806
▁נחשב	-9.41834
▁הלאומי	-9.41878
7	-9.41878
▁תוכניות	-9.42121
▁רוסיה	-9.42241
▁מתאים	-9.42269
▁היכן	-9.42304
▁בערך	-9.42345
▁הנוכחי	-9.42544
▁קול	-9.42646
▁בחברה	-9.42728
קים	-9.42767
▁שאם	-9.42834
▁האמיתי	-9.42885
▁ואין	-9.42907
▁חייו	-9.43009
▁נמצאת	-9.43024
▁פרס	-9.43118
▁לשעבר	-9.43158
▁שאנשים	-9.43214
▁אחריות	-9.43283
▁חשבתי	-9.43297
▁הטובים	-9.43332
▁רשת	-9.43419
▁והמ	-9.43437
▁לשימוש	-9.43447
▁לאפשר	-9.43478
V	-9.43485
ֶ	-9.43545
▁צעיר	-9.43647
ורים	-9.43734
▁המוצר	-9.43835
f	-9.43895
▁הנושא	-9.43951
של	-9.43985
▁חוקי	-9.4428
▁24	-9.44335
▁החלק	-9.44401
▁מסוגלים	-9.44565
בים	-9.44708
us	-9.44737
▁מכיר	-9.44748
▁התינוק	-9.4476
▁כבוד	-9.44777
▁העליון	-9.44784
st	-9.44794
▁לנצח	-9.44943
▁איננו	-9.45012
▁העולמי	-9.45039
▁25	-9.45048
▁פיתוח	-9.45049
▁מהן	-9.45159
▁לסייע	-9.45204
▁נשק	-9.45579
u	-9.45854
▁הצבא	-9.45968
.”	-9.45977
▁צרפת	-9.4598
▁יחסים	-9.46016
▁עשרות	-9.46323
▁רמת	-9.46385
▁לס	-9.46397
▁משנת	-9.46556
▁|	-9.46609
▁שיר	-9.4677
▁ברמה	-9.46789
▁כרגע	-9.46818
▁בלילה	-9.46883
▁מחפשים	-9.46899
▁יוכל	-9.4693
▁היחסים	-9.46938
▁גורמים	-9.47038
▁עסק	-9.47119
▁100	-9.47203
▁האחרים	-9.47247
▁שוק	-9.4727
▁משחקים	-9.47379
▁ראו	-9.47412
an	-9.4752
▁לוקח	-9.47598
יז	-9.47657
טר	-9.47662
▁ית	-9.47706
ייה	-9.47706
ri	-9.47725
-3	-9.47765
▁ביוני	-9.47796
▁המילה	-9.47809
▁בספטמבר	-9.47868
▁העתיד	-9.47945
▁נולד	-9.47985
▁בצד	-9.48021
▁בניו	-9.48104
▁חדר	-9.48143
▁סו	-9.48147
▁מוכנים	-9.48276
▁לזכור	-9.48303
▁הרעיון	-9.48321
▁להכיר	-9.48411
▁החינוך	-9.48453
es	-9.48454
▁מאפשר	-9.485
▁כאב	-9.48617
▁אוויר	-9.48649
▁ראשית	-9.48702
▁וכ	-9.48778
ילה	-9.48789
▁העובדים	-9.48819
▁מל	-9.48853
עם	-9.48963
▁בשני	-9.48982
▁הצורך	-9.49067
▁תקשורת	-9.49076
סו	-9.4921
▁לבוא	-9.49231
▁באו	-9.49244
▁חינוך	-9.49252
▁ובכל	-9.49264
▁מסוימת	-9.49341
▁סביר	-9.49366
▁לשאול	-9.49377
▁האדמה	-9.49432
▁נאמר	-9.49451
▁חג	-9.49636
▁ואנחנו	-9.49656
חל	-9.49685
▁ביחס	-9.49715
▁בדצמבר	-9.49814
▁חד	-9.49835
▁בוקר	-9.49848
▁הרוח	-9.49895
▁מק	-9.49977
▁חופש	-9.49984
▁a	-9.50016
et	-9.50017
▁שאל	-9.50117
▁שכבר	-9.50203
▁לחפש	-9.50236
▁סוגי	-9.50251
▁בשנות	-9.50286
▁40	-9.50317
▁אסור	-9.50343
יט	-9.50355
▁ומת	-9.50465
▁יוכלו	-9.50502
▁גרמניה	-9.50525
▁חמישה	-9.50543
בן	-9.50771
ווה	-9.50795
▁הינו	-9.50871
▁ועם	-9.50888
ויות	-9.50939
th	-9.51016
▁מראה	-9.51077
▁לצפות	-9.51112
▁האלו	-9.51122
▁בשר	-9.51148
▁הבחירות	-9.51176
טל	-9.51286
אנו	-9.51397
הפכו	-9.51438
▁סיבות	-9.51574
el	-9.51595
▁ישירות	-9.51676
▁שירותי	-9.51756
▁מבינים	-9.5177
▁שאי	-9.51773
▁במערכת	-9.51787
▁זוג	-9.51866
▁וכי	-9.51909
▁פחד	-9.51928
▁המציאות	-9.52164
▁ושוב	-9.52177
▁גר	-9.52308
▁להאמין	-9.52329
▁מציע	-9.52353
▁גוף	-9.52371
רח	-9.52741
▁להסביר	-9.52742
▁קפה	-9.52806
▁חייבת	-9.52806
▁איזו	-9.52867
▁V	-9.52901
▁נמוך	-9.52929
▁לאתר	-9.52999
כות	-9.53018
▁החלטה	-9.53214
▁ביולי	-9.53333
יין	-9.53355
▁אזור	-9.53356
▁רצון	-9.53363
▁מחקרים	-9.53374
▁לעבודה	-9.53411
▁לטיפול	-9.53502
▁האנרגיה	-9.53585
9	-9.53614
x	-9.53657
▁בזכות	-9.53703
▁למשך	-9.53704
▁היהודית	-9.53742
▁ניתוח	-9.5376
com	-9.53762
▁מקומות	-9.53782
▁תרבות	-9.53906
לב	-9.53975
▁חשבון	-9.54076
▁הולכים	-9.54079
▁לכולם	-9.54097
▁בחשבון	-9.5418
▁להפסיק	-9.54185
▁באוקטובר	-9.54194
אט	-9.54284
▁רציתי	-9.54291
▁שיתוף	-9.54301
▁להי	-9.54359
▁מין	-9.5443
▁קרא	-9.5454
▁מיני	-9.54572
▁אליהם	-9.5458
▁לפתוח	-9.54612
▁הפלסטינים	-9.54649
▁לש	-9.54652
ra	-9.54662
▁שעבר	-9.54684
▁בלב	-9.54732
k	-9.54811
▁גדולות	-9.54925
▁עצמנו	-9.54937
▁מכירים	-9.55064
▁מתחילים	-9.55144
▁זוכר	-9.55186
▁שנתיים	-9.55186
▁עבד	-9.55189
▁גל	-9.55207
▁O	-9.55231
▁בהמשך	-9.5526
▁נכנס	-9.55324
▁הקו	-9.55336
▁ומי	-9.55347
▁קיימים	-9.554
▁הצ	-9.55425
-5	-9.55442
▁חשיבות	-9.55481
▁החלו	-9.55529
▁נו	-9.55605
▁אתמול	-9.55645
▁מומלץ	-9.55652
▁מצא	-9.55652
▁‘	-9.55709
▁להציל	-9.5586
▁ידעתי	-9.55861
▁ישוע	-9.55943
▁באמצע	-9.56069
▁נכתב	-9.56108
▁לילה	-9.56215
מצ	-9.56244
▁מחר	-9.56258
מנה	-9.56362
▁משה	-9.56431
▁בנובמבר	-9.56448
▁ממני	-9.56514
וג	-9.56546
▁שאינו	-9.56576
▁משפט	-9.56649
עבור	-9.5669
▁קוראים	-9.56699
▁לקח	-9.56728
▁להימנע	-9.56757
il	-9.56776
▁מוצר	-9.56816
צה	-9.56885
▁הימים	-9.56986
▁to	-9.56997
▁מהו	-9.56997
רמה	-9.57014
▁לבקש	-9.57052
▁כלשהו	-9.57067
▁פרטים	-9.57112
▁מאת	-9.57137
▁עתיד	-9.57148
▁גדל	-9.57219
▁השיר	-9.5725
▁J	-9.57297
▁יכולת	-9.5731
שום	-9.57314
▁שמש	-9.57382
▁לטפל	-9.57427
▁בקרוב	-9.57477
▁מאי	-9.57498
▁יחסי	-9.57516
▁התקשורת	-9.57536
▁במספר	-9.57669
בא	-9.5771
▁בתקופה	-9.57762
▁הפנים	-9.57838
▁להוסיף	-9.57902
▁עיצוב	-9.57984
▁הדם	-9.58025
▁פרי	-9.5815
▁בימים	-9.58169
▁בעבודה	-9.58231
▁בריא	-9.58231
▁אפשרויות	-9.5831
▁בכדי	-9.58503
▁נוכל	-9.58524
▁הנשים	-9.58701
▁רי	-9.58735
▁טובות	-9.58755
▁שינה	-9.58766
▁בחזרה	-9.58923
▁עשרה	-9.58973
נא	-9.58998
▁מאחר	-9.59028
▁העניין	-9.59041
▁אמנם	-9.59069
▁מרגישים	-9.59154
▁ההחלטה	-9.59268
▁ני	-9.59298
▁״	-9.59352
▁חשובה	-9.59509
▁צבע	-9.59525
חי	-9.59652
▁המחשב	-9.5972
▁הרופא	-9.59736
▁אליה	-9.59738
▁האנושי	-9.59744
▁אחוזים	-9.59762
▁העבר	-9.59803
▁עובר	-9.5989
▁מלבד	-9.59916
▁תשובה	-9.59963
▁שהו	-9.60125
▁2017	-9.60163
▁סיכוי	-9.60208
▁שהן	-9.60295
▁הזוג	-9.60307
▁לרכוש	-9.6033
▁וג	-9.60334
▁מהווה	-9.60368
▁המחיר	-9.60391
אק	-9.60404
▁רחוק	-9.60476
▁אפריקה	-9.60573
▁ארוכה	-9.6065
▁שהת	-9.60733
at	-9.60818
▁ממ	-9.60832
▁לחיים	-9.60876
▁והן	-9.60975
▁ביטחון	-9.60979
▁איתם	-9.61034
▁בגוף	-9.61044
▁למצב	-9.61055
▁עתה	-9.61058
▁[...]	-9.61104
▁באוגוסט	-9.6116
▁2018	-9.61162
▁התמונה	-9.61243
▁רעיון	-9.61372
▁2013	-9.61405
▁האישה	-9.61477
▁הוסיף	-9.61524
▁שלישי	-9.61546
אד	-9.61547
le	-9.61592
▁פול	-9.61677
▁החלטות	-9.61689
-2	-9.61694
וט	-9.61933
סון	-9.6194
▁השירות	-9.61961
▁דוד	-9.61976
גע	-9.61997
▁אינן	-9.62025
▁פעולות	-9.6209
-10	-9.62101
▁באי	-9.62131
▁תש	-9.6214
אס	-9.6216
▁התלמידים	-9.62182
▁שמונה	-9.62208
▁במזרח	-9.62261
▁תנאי	-9.62306
וק	-9.62337
▁ביניהם	-9.62413
▁לבן	-9.62506
▁החלה	-9.62562
▁הידע	-9.62675
▁ביטוח	-9.62705
בור	-9.62712
▁מפתח	-9.62715
▁הצדדים	-9.62717
▁מידי	-9.62731
▁קורא	-9.62772
▁חומר	-9.62849
▁להציג	-9.62864
▁האפשרות	-9.6301
▁קוד	-9.63043
▁לעצור	-9.63252
▁עת	-9.63253
▁דה	-9.63385
▁בסך	-9.63397
▁שעל	-9.63464
ַ	-9.63515
▁מושג	-9.63599
עת	-9.63622
▁אלי	-9.6363
▁מוות	-9.63665
▁משמעותית	-9.63705
▁עשויה	-9.63714
▁נזק	-9.63745
▁אזרחים	-9.63836
טים	-9.63884
▁לנהל	-9.63901
▁מזל	-9.63949
▁תקופת	-9.64065
▁צד	-9.64082
▁מיוחדת	-9.64121
▁והת	-9.6414
▁קבלת	-9.6419
▁העור	-9.64428
▁ואתה	-9.6466
▁האזור	-9.64695
▁לצורך	-9.64756
▁השלום	-9.64856
▁פתוח	-9.64866
▁עונה	-9.64889
▁חל	-9.64894
גל	-9.64894
▁הישראלית	-9.64943
?”	-9.64975
▁סוגים	-9.64994
▁מעמד	-9.64996
▁ליום	-9.65004
▁התהליך	-9.65073
▁רופא	-9.65108
ad	-9.65138
▁לזהות	-9.65245
▁המוות	-9.65278
am	-9.65306
▁חופשי	-9.65396
▁לעזוב	-9.65429
שים	-9.6545
מד	-9.65456
▁בשעה	-9.65479
למה	-9.65492
▁משקל	-9.65567
▁שלהן	-9.65573
▁נמוכה	-9.65575
ניות	-9.65629
▁ספורט	-9.65658
▁בהיסטוריה	-9.65672
▁האנושות	-9.65708
▁שטח	-9.65799
▁נכונה	-9.65823
▁העיקרי	-9.65954
▁מקצוע	-9.65966
▁(19	-9.6607
▁התנהגות	-9.66076
▁הצליח	-9.66114
▁פרטי	-9.66124
▁המס	-9.66129
▁עדיף	-9.66135
▁הפעולה	-9.66143
▁שליטה	-9.66189
▁נא	-9.66192
▁הפכה	-9.66259
▁אופן	-9.66343
ar	-9.66347
▁עלי	-9.66359
▁התחיל	-9.66367
חות	-9.66451
▁מנסים	-9.66481
▁ראשי	-9.66643
▁הבאות	-9.66657
ירות	-9.66683
▁אר	-9.66693
▁הערב	-9.66771
▁תואר	-9.66837
▁Re	-9.66846
▁בירושלים	-9.66861
▁ארץ	-9.66921
-4	-9.66926
..."	-9.67012
▁בסין	-9.67143
▁חזר	-9.67225
▁חיפוש	-9.6727
▁ביטוי	-9.67293
▁יחסית	-9.67557
▁אלינו	-9.67565
▁ההבדל	-9.67581
▁במדינות	-9.67626
▁בחר	-9.67641
▁להראות	-9.67708
▁קשור	-9.67727
▁איתי	-9.6775
▁לעבר	-9.67805
▁התוצאות	-9.67812
▁$	-9.67888
▁לציין	-9.68013
▁הבינלאומית	-9.68031
▁גרם	-9.68131
▁הגנה	-9.68144
▁הפעילות	-9.68178
▁הלאומית	-9.68196
▁הפ	-9.68197
▁מחשב	-9.68263
▁פתאום	-9.68399
פול	-9.68539
▁כנגד	-9.68618
▁בחוץ	-9.68653
▁שמת	-9.68679
פט	-9.68743
אלוהים	-9.68788
▁שמה	-9.68796
▁ליהנות	-9.68812
לת	-9.68818
▁עוזר	-9.68974
▁שעברה	-9.69031
▁זקוקים	-9.69079
▁להציע	-9.69108
▁סטודנטים	-9.69111
וע	-9.69125
ולה	-9.69131
▁שבע	-9.69133
▁קדימה	-9.69135
ol	-9.69159
▁מטרות	-9.69195
אנשים	-9.69203
▁מתייחס	-9.69209
▁עקב	-9.6923
▁הלקוחות	-9.6927
The	-9.69322
בות	-9.69375
ro	-9.69403
it	-9.69434
טור	-9.69521
▁אבי	-9.6955
▁לג	-9.69558
▁האירוע	-9.69606
חים	-9.69656
▁התוצאה	-9.69667
U	-9.69696
▁מתח	-9.69696
▁בטח	-9.69743
▁לישון	-9.69784
▁בחלק	-9.69802
▁לייצר	-9.69809
▁באפריל	-9.69827
30	-9.69828
הפך	-9.69838
▁X	-9.69857
▁מותר	-9.69875
▁לפתור	-9.69881
קט	-9.69912
▁&	-9.69912
עו	-9.69943
as	-9.69986
רט	-9.70006
▁הגיעה	-9.7002
אור	-9.70065
▁שמות	-9.70072
▁לבסוף	-9.70127
קשר	-9.70137
▁סרטן	-9.70158
▁s	-9.70194
▁לקבוע	-9.70232
▁מרכזי	-9.70316
▁מילה	-9.7035
0,000	-9.70416
מס	-9.70501
▁האהבה	-9.7066
se	-9.70762
▁שניהם	-9.70783
▁בפברואר	-9.70797
▁חוזר	-9.70833
דור	-9.70871
▁בחיי	-9.70877
▁אמנות	-9.70892
▁סתם	-9.70913
יב	-9.70928
▁הארי	-9.70961
▁צו	-9.70978
10	-9.71047
ולי	-9.71059
▁פעיל	-9.71116
▁אירועים	-9.71155
▁מוצא	-9.71208
דים	-9.71209
▁מצליח	-9.71436
20	-9.71607
▁רצה	-9.71689
▁מדהים	-9.71697
▁עליכם	-9.7171
▁לעצמי	-9.71782
▁מהי	-9.7181
▁רמות	-9.71868
▁הראש	-9.71873
▁לח	-9.71888
X	-9.71915
▁להוציא	-9.71951
▁בעניין	-9.72075
▁השוק	-9.72089
▁חברתית	-9.7218
▁להן	-9.72239
▁בבקשה	-9.72273
▁ברשת	-9.72468
▁חייהם	-9.72637
▁למדי	-9.72695
▁ברית	-9.72831
▁ביקורת	-9.72872
▁השפה	-9.72938
חה	-9.73083
▁19	-9.73134
▁במטרה	-9.73152
הן	-9.73217
▁תשלום	-9.73277
▁חיילים	-9.73286
▁יצירת	-9.73337
▁צבא	-9.73403
▁חזקה	-9.73408
▁דעת	-9.73432
▁זכה	-9.73432
▁להניח	-9.73462
▁לדבריו	-9.73484
▁עמוק	-9.73548
▁בחו	-9.7355
z	-9.73597
▁יוצר	-9.73624
▁בתהליך	-9.73626
▁בריטניה	-9.73676
▁מבחינת	-9.73683
▁במחקר	-9.73819
ומה	-9.73833
▁ואל	-9.73883
ימים	-9.73884
▁הראשי	-9.73934
▁סט	-9.73963
▁ועכשיו	-9.74073
▁צפוי	-9.74088
▁שכר	-9.74168
▁ואמר	-9.74201
ורי	-9.74259
עה	-9.74296
נוס	-9.74346
▁מצרים	-9.74346
▁המילים	-9.7436
▁כזאת	-9.74459
ניים	-9.74479
וּ	-9.74504
▁האיחוד	-9.7452
▁פרסום	-9.74556
▁השאר	-9.74581
▁זקוק	-9.7459
▁איתך	-9.74663
▁כשאני	-9.74709
▁מטרה	-9.74719
▁מהיר	-9.74761
▁מג	-9.74777
▁סל	-9.7482
פני	-9.74823
▁וכו	-9.7489
▁להוביל	-9.7489
▁האש	-9.74932
▁עומדים	-9.74986
-15	-9.74996
▁קרב	-9.75055
▁אישור	-9.75116
▁שיעור	-9.7516
יני	-9.75165
▁מחפש	-9.7523
▁לטובת	-9.75264
חו	-9.7527
▁לשני	-9.75298
▁טר	-9.75354
▁בפועל	-9.75393
▁הסביבה	-9.75395
היא	-9.75451
▁למכור	-9.75478
▁ברוב	-9.75493
▁כולה	-9.75526
▁ביצוע	-9.75687
מור	-9.75741
▁לעצמו	-9.75751
▁בסרט	-9.75764
▁כמ	-9.75787
▁טלוויזיה	-9.75796
▁ראוי	-9.75813
▁שלושת	-9.75847
▁>	-9.75881
▁כרטיס	-9.75893
▁אמיתית	-9.75938
▁הנראה	-9.76048
▁וידאו	-9.76072
לח	-9.76073
▁הפלסטינית	-9.76285
▁הסיכון	-9.7629
▁טרור	-9.76395
▁הבלתי	-9.7647
ינ	-9.76501
▁ההגנה	-9.7651
▁בבתי	-9.76557
▁בעד	-9.76559
▁יקר	-9.76576
כש	-9.76645
▁העונה	-9.76841
▁החברות	-9.76885
▁המזון	-9.7691
▁עצמכם	-9.76918
▁2008	-9.77015
▁הטכנולוגיה	-9.77038
▁להשפיע	-9.77174
▁קטנות	-9.77185
▁ארוחת	-9.77317
▁מספק	-9.77341
▁זמין	-9.77414
▁הקודם	-9.77439
▁גודל	-9.77497
▁2007	-9.77504
▁בשטח	-9.77574
▁הלימודים	-9.77638
▁הינה	-9.77651
▁פועל	-9.77708
▁הגדולות	-9.77793
▁השטח	-9.77828
▁ואיך	-9.77989
▁שחור	-9.78028
ter	-9.78045
האם	-9.78077
שהוא	-9.78156
▁בקשר	-9.78188
יום	-9.78212
▁האישי	-9.78225
▁רפואי	-9.78269
▁מידה	-9.78304
ספר	-9.78436
גן	-9.78471
ur	-9.78495
▁לידי	-9.78495
▁עורך	-9.78498
▁נוט	-9.78571
יע	-9.78594
▁מצ	-9.78637
▁21	-9.78652
▁סא	-9.78656
▁מקרים	-9.78895
▁מחלות	-9.78918
▁הזכות	-9.78972
▁הלקוח	-9.7909
▁המוצרים	-9.79092
▁נתן	-9.79106
▁תו	-9.7911
▁מרבית	-9.79122
▁הטלפון	-9.79173
▁התפתחות	-9.7918
▁לעלות	-9.79219
''	-9.7934
▁לפנות	-9.79397
▁הצוות	-9.7944
▁אוניברסיטת	-9.79519
▁השונים	-9.79574
▁לשתף	-9.7959
▁לתקן	-9.79618
▁בניגוד	-9.79641
▁הדו	-9.79655
▁מסר	-9.7972
פיל	-9.79764
▁דרום	-9.79794
▁הכלב	-9.79993
▁נוח	-9.80008
▁שמחה	-9.80035
▁תחילת	-9.80042
▁שיפור	-9.80051
וח	-9.8008
וצ	-9.80105
▁מש	-9.80114
▁בהשוואה	-9.8012
▁הכלכלי	-9.8018
▁בס	-9.80197
וז	-9.80313
ינים	-9.80316
▁הבנק	-9.8032
▁מבית	-9.80328
▁בעיני	-9.80422
▁עץ	-9.80446
פק	-9.80463
▁פעמיים	-9.80464
▁בדרום	-9.80481
▁היסטוריה	-9.80482
▁התרבות	-9.8053
▁נושאים	-9.80566
▁תושבי	-9.80654
▁רעיונות	-9.80657
זי	-9.80666
קר	-9.80675
▁אגב	-9.80685
▁כותב	-9.80702
טוב	-9.80718
ly	-9.80737
▁הצלחה	-9.80775
אות	-9.8083
▁בנות	-9.80892
▁המחלה	-9.80894
▁מלון	-9.80897
▁דורש	-9.80904
▁מושלם	-9.80998
▁לחוק	-9.81087
▁נקודת	-9.81093
▁בע	-9.81207
▁בעלת	-9.81224
▁הבוקר	-9.81281
▁ואילו	-9.81298
▁ממך	-9.81378
▁לחלק	-9.81434
▁ההזדמנות	-9.81491
▁שקורה	-9.81646
▁בעלות	-9.81679
▁המערבית	-9.81688
▁נורא	-9.81701
▁החוצה	-9.81793
▁במילים	-9.81862
▁יכולתי	-9.81868
אדם	-9.81912
▁למות	-9.81967
Y	-9.82023
▁המפלגה	-9.8203
מקום	-9.82048
פא	-9.82062
19	-9.82114
▁60	-9.8236
▁לשלוח	-9.8253
▁ממשיך	-9.82565
▁עצמית	-9.82666
▁אלימות	-9.82775
▁מסע	-9.82787
▁נדרש	-9.82867
שר	-9.8292
ומי	-9.83016
▁בצפון	-9.83085
נדר	-9.831
▁ייצור	-9.83106
▁במאה	-9.83168
▁הקרב	-9.83211
▁התנועה	-9.83408
▁פתרונות	-9.83486
▁בשימוש	-9.83515
▁פרויקט	-9.83521
▁ואי	-9.83524
▁הראשונות	-9.83545
מון	-9.83628
וֹ	-9.83638
▁לנשים	-9.8364
▁בינתיים	-9.8366
▁ראשונה	-9.83707
▁סדר	-9.83738
▁חיות	-9.83757
▁עברו	-9.83764
▁מרגישה	-9.8377
▁ישנה	-9.8379
▁רגיל	-9.83823
רש	-9.83851
▁החוקרים	-9.83906
▁שיער	-9.83929
na	-9.83977
▁לשמש	-9.84017
▁מוזיקה	-9.84018
▁במשרד	-9.84041
סוף	-9.84073
▁אביו	-9.8408
▁תלמידים	-9.84094
▁החוץ	-9.84158
▁המדע	-9.84179
▁דור	-9.84206
▁אירוע	-9.84232
▁סעיף	-9.84293
▁למדינה	-9.84344
רע	-9.8435
▁מותו	-9.84443
▁חשובים	-9.84476
▁האב	-9.84501
▁טבע	-9.8462
▁לשלוט	-9.8464
ia	-9.84653
▁החיפוש	-9.84729
▁התקופה	-9.84732
▁הבחירה	-9.84749
ִי	-9.84865
▁סימן	-9.84903
▁דופן	-9.84927
▁בכמה	-9.8494
▁כשהם	-9.84985
טע	-9.85091
▁לגיל	-9.85104
▁מסכים	-9.85104
▁מזרח	-9.8518
▁תכונות	-9.85181
is	-9.85204
▁משמש	-9.85216
▁בג	-9.85282
▁הזדמנויות	-9.85388
▁צפון	-9.85396
▁ומתן	-9.85408
▁מסביב	-9.85509
▁שנקרא	-9.8554
▁for	-9.85572
▁כחלק	-9.85625
▁להרוג	-9.85637
▁נהג	-9.85663
▁בהרבה	-9.85824
▁ואולי	-9.85826
▁הלבן	-9.85905
▁ובין	-9.8595
ומים	-9.86017
▁מכם	-9.86093
▁מוזר	-9.86138
סה	-9.86147
▁''	-9.86172
▁היי	-9.86179
▁In	-9.86184
▁כשאתה	-9.86205
▁במקומות	-9.86239
▁וחצי	-9.8625
דות	-9.86283
שוב	-9.86304
▁גרוע	-9.86427
▁בספר	-9.86447
נח	-9.86561
▁המרכזי	-9.86571
מם	-9.86602
▁לפגוע	-9.86624
lo	-9.86625
קת	-9.86691
קול	-9.86736
0	-9.86787
▁הרגשתי	-9.86794
▁לוח	-9.86855
▁פועלים	-9.86881
▁הקטן	-9.87013
▁אנא	-9.8704
▁המספר	-9.87059
▁תנועה	-9.87078
▁תה	-9.8709
▁לאחד	-9.87101
לט	-9.87171
▁הצד	-9.87182
▁לבני	-9.8721
▁כיף	-9.87306
▁מקורות	-9.87335
מא	-9.87359
▁נתניהו	-9.8739
▁אמצעי	-9.874
▁בדבר	-9.87525
▁הגבוה	-9.87548
-17	-9.87895
-12	-9.87941
▁בד	-9.87949
▁הסדרה	-9.87972
▁בכוח	-9.87977
▁ברורה	-9.87995
▁תוכן	-9.88188
li	-9.88252
▁השר	-9.88399
▁הקיץ	-9.88433
▁קי	-9.88443
אים	-9.88489
כר	-9.88499
▁הורים	-9.88605
▁המקורי	-9.88659
▁כתוב	-9.88698
נן	-9.88702
▁שחקן	-9.88724
▁מתו	-9.8889
▁הבנתי	-9.88939
▁החומר	-9.89012
יהן	-9.89066
▁הביא	-9.89085
▁מודע	-9.89094
▁מקרי	-9.89127
▁להחזיר	-9.89205
▁הפלסטיני	-9.89225
▁0	-9.89303
▁הבריטי	-9.89336
▁מבקש	-9.89394
▁באנגלית	-9.89395
▁הכוחות	-9.89403
▁החדשות	-9.89462
▁להכין	-9.89475
▁כלשהי	-9.89508
מש	-9.89534
▁העיניים	-9.89562
▁בטוחה	-9.89579
▁אנג	-9.8965
▁שחקנים	-9.89759
▁2000	-9.89774
▁חלב	-9.89793
▁לאן	-9.89978
▁שפה	-9.89988
▁מקצועי	-9.90033
▁נגמר	-9.90093
▁מחשבות	-9.90171
-30	-9.90275
▁2009	-9.90291
▁חובה	-9.90417
▁אנגלית	-9.9045
ימה	-9.90474
▁בל	-9.90547
▁תחושה	-9.90572
▁רשמי	-9.90607
▁עזה	-9.90628
▁מורכב	-9.90794
יית	-9.9081
סטי	-9.90829
כנה	-9.90861
▁ללמד	-9.90909
ta	-9.90944
▁להשקיע	-9.90971
▁במשחק	-9.90998
▁2019	-9.9102
um	-9.91045
▁לאהוב	-9.91056
▁הבעיות	-9.91057
▁המשך	-9.91099
צות	-9.91102
יפ	-9.91143
צל	-9.91184
▁הרגע	-9.91217
▁להחליט	-9.91259
▁העתיקה	-9.91278
▁סיפר	-9.91309
▁המשמעות	-9.91337
▁סיכון	-9.91429
גור	-9.9147
לות	-9.91474
▁לוודא	-9.91585
▁משתנה	-9.91603
▁במרץ	-9.91621
▁לקרות	-9.91651
נצ	-9.91666
▁בחירה	-9.91672
▁ובכך	-9.91677
-6	-9.91678
▁למרב	-9.91682
מית	-9.91684
▁שניים	-9.91691
▁עלולים	-9.91701
▁סנט	-9.91706
צת	-9.91868
▁שקט	-9.91871
▁בלונדון	-9.91875
▁Google	-9.92025
▁צורה	-9.92025
▁לדברי	-9.92048
מק	-9.92082
▁בכ	-9.92099
▁פר	-9.92125
▁להצטרף	-9.92196
▁נותר	-9.92201
▁האלבום	-9.92245
▁תחום	-9.92315
▁הקרוב	-9.92372
סל	-9.92375
▁היתר	-9.92383
▁בסביבה	-9.92399
▁מתחילה	-9.92399
▁בערב	-9.9242
▁הוועדה	-9.92465
▁לרגע	-9.92467
▁הבן	-9.92482
▁נח	-9.92523
▁בטוחים	-9.92622
▁צילום	-9.92627
▁עו	-9.9263
גי	-9.92666
▁האמריקני	-9.9269
דל	-9.92752
▁ארגונים	-9.92809
▁לתמוך	-9.92821
▁מיוחדים	-9.92897
▁אחראי	-9.92914
▁למטה	-9.92942
▁לקדם	-9.92988
▁מתכוון	-9.93005
▁להילחם	-9.93013
▁מבוסס	-9.93015
אותה	-9.93081
▁לענות	-9.93084
▁פשוטה	-9.93182
▁אלכוהול	-9.93234
▁הצעיר	-9.93257
יימס	-9.93274
▁לדאוג	-9.93298
▁לדעתי	-9.93309
▁נראית	-9.93375
▁יעיל	-9.93418
▁חם	-9.93529
▁שהייתה	-9.93657
▁^	-9.9366
▁שהייתי	-9.93699
ראה	-9.93789
▁2014	-9.9383
▁לשבת	-9.93874
חזק	-9.93879
▁דת	-9.93935
▁עור	-9.93939
▁לחברה	-9.93953
מתי	-9.93965
▁הקודש	-9.9398
▁שיטות	-9.94005
דן	-9.94013
▁אכפת	-9.94042
▁הע	-9.94066
▁מוצרי	-9.94069
▁מודעים	-9.94087
▁עליי	-9.9411
▁נוצר	-9.94114
▁ממשיכים	-9.94131
▁בך	-9.94159
▁מומחים	-9.9417
▁הקהל	-9.94227
▁להפחית	-9.94287
▁המאמר	-9.94307
▁מנהיג	-9.94337
▁מדע	-9.94376
▁בבריטניה	-9.94407
▁משפחות	-9.94414
▁לאט	-9.94431
▁שבת	-9.94506
▁עבודת	-9.94507
▁ובכן	-9.9457
▁כלבים	-9.94576
▁בהתחלה	-9.94604
▁משותף	-9.94612
▁22	-9.94613
▁האמריקאית	-9.9463
▁במשקל	-9.94682
▁דוגמה	-9.94682
▁השחקנים	-9.94707
▁תקווה	-9.94727
▁הד	-9.94767
▁הז	-9.94799
▁החברים	-9.94895
▁למד	-9.94899
la	-9.94933
▁האוניברסיטה	-9.9494
▁הקרקע	-9.94944
▁משני	-9.94967
▁!	-9.94998
▁רצח	-9.95076
▁הערבי	-9.95085
גם	-9.9514
ונג	-9.95149
▁מד	-9.95232
▁וזו	-9.95295
▁באוניברסיטת	-9.95311
רוב	-9.95383
▁פוליטית	-9.95452
עוד	-9.95516
גה	-9.95534
▁אשתו	-9.95561
▁החשוב	-9.9566
▁למלא	-9.95664
):	-9.95739
▁גבולות	-9.9578
▁הנכונה	-9.95783
▁שאף	-9.95795
▁השינוי	-9.95797
▁הפרויקט	-9.958
▁במרחק	-9.95854
▁הגבוהה	-9.95916
▁חוויה	-9.95953
▁רגל	-9.95975
▁הופכ	-9.96001
▁שחי	-9.96027
▁הכנסת	-9.96035
▁וכמה	-9.96054
▁חומרים	-9.96123
-16	-9.96129
▁העיקרית	-9.96143
▁בתקופת	-9.96156
▁אב	-9.96165
”,	-9.96185
te	-9.96194
▁ביד	-9.96224
דק	-9.96232
אג	-9.96269
▁זרים	-9.96274
▁הט	-9.96277
▁ההשפעה	-9.96305
▁החלל	-9.96307
▁שקרה	-9.96315
▁מלך	-9.96325
▁יעשה	-9.9638
▁נע	-9.96428
▁חינם	-9.96494
▁טו	-9.96576
טון	-9.96618
▁עמוד	-9.96654
▁בדיקות	-9.96665
▁2012	-9.96694
▁משם	-9.96725
▁מאמר	-9.96751
▁המרכז	-9.96753
כנס	-9.96792
▁להעלות	-9.96797
▁חיל	-9.96821
ne	-9.96836
מגוון	-9.9686
▁מטר	-9.96867
▁אדמה	-9.96878
▁הקר	-9.96901
▁בהכרח	-9.9706
▁פלסטינים	-9.97061
שות	-9.97076
▁נבחר	-9.97091
▁הבנה	-9.97159
▁הרצון	-9.97223
▁לומדים	-9.97237
▁רגשות	-9.97293
▁המפתח	-9.97302
▁אהבתי	-9.97382
בני	-9.97404
▁המקרים	-9.97481
נז	-9.97483
▁בשפה	-9.97512
▁אמונה	-9.97533
▁רחבי	-9.97546
▁2010	-9.97553
▁2016	-9.97586
▁כלכלית	-9.97614
▁חשמל	-9.97617
▁רו	-9.97656
שמע	-9.977
▁האנושית	-9.97747
וד	-9.97761
ישראל	-9.97792
▁פו	-9.97885
▁מזכיר	-9.97916
ation	-9.97965
ֹ	-9.98021
▁מכאן	-9.98027
▁2006	-9.98057
עות	-9.98075
▁מוח	-9.98117
▁טעות	-9.98123
▁מכיל	-9.98177
▁ישנן	-9.98207
▁2011	-9.98243
▁גב	-9.98261
אלי	-9.98262
id	-9.98316
▁בשום	-9.98353
הפוך	-9.98379
▁סוריה	-9.98499
▁שרק	-9.98533
▁קור	-9.98585
▁מרי	-9.98633
▁הקריירה	-9.98664
▁שיווק	-9.98668
▁מוכר	-9.98712
מין	-9.98842
▁השתמש	-9.98915
▁לחקור	-9.98928
▁עשיתי	-9.98928
▁נראים	-9.99013
▁הקשורים	-9.9908
▁קלה	-9.9908
▁לארץ	-9.99118
▁איתנו	-9.99222
▁כלב	-9.99234
עים	-9.99239
▁לנ	-9.99269
▁בינלאומיים	-9.99271
▁תנו	-9.99325
ער	-9.99378
▁פעילויות	-9.99398
קב	-9.99405
יהודים	-9.99482
▁אזרחי	-9.99497
▁מבנה	-9.99505
▁להוכיח	-9.99562
▁העל	-9.99605
▁והיה	-9.99655
J	-9.99695
▁שלב	-9.99711
אחד	-9.99713
חוק	-9.99816
▁חוקרים	-9.99836
▁הי	-9.99853
▁להוריד	-9.99881
▁המשתמש	-9.99887
▁שישי	-9.9989
▁צדק	-9.99945
ve	-9.99979
▁שמישהו	-9.99979
▁הטובות	-9.99979
▁העת	-9.99983
▁מבני	-9.99998
!!	-10.0002
מצא	-10.0003
▁טווח	-10.0007
אף	-10.0008
▁להסתכל	-10.0009
▁בינלאומי	-10.001
▁ומו	-10.0016
▁באחד	-10.0019
to	-10.002
▁הטרור	-10.0029
בול	-10.0033
▁c	-10.0035
▁אביב	-10.0038
▁כבד	-10.0049
▁מעולה	-10.0051
▁נוסעים	-10.0051
▁קיבלו	-10.0054
▁ואינ	-10.0057
▁WEB	-10.0058
▁מזג	-10.006
▁לכאורה	-10.006
סקי	-10.0062
▁הודעה	-10.0063
▁("	-10.0064
▁אמריקאי	-10.0069
חלק	-10.0075
▁מופיע	-10.0081
קור	-10.0082
▁לחכות	-10.0082
▁סרטים	-10.0086
▁במקביל	-10.0087
▁נפש	-10.009
▁שישה	-10.0091
▁בתפקיד	-10.0094
▁סיוע	-10.0097
12	-10.0098
▁המוזיקה	-10.01
אפשר	-10.0101
▁המאפשר	-10.0102
▁מעשי	-10.0106
▁ב־	-10.0111
▁נפתח	-10.012
איך	-10.0121
one	-10.0124
▁לונדון	-10.0127
▁אח	-10.0128
▁מאה	-10.0137
▁לזכות	-10.014
▁נהדר	-10.0143
▁התא	-10.0149
▁עומדת	-10.0152
▁אליך	-10.0153
▁המשימה	-10.0157
▁טכנולוגיה	-10.0163
▁להתייחס	-10.017
▁אינני	-10.0172
▁מחלה	-10.0175
▁להחליף	-10.0183
אב	-10.0186
▁באשר	-10.0189
▁Windows	-10.0189
▁דף	-10.0191
▁שירותים	-10.0193
▁בנק	-10.0196
▁יושב	-10.0198
▁הכללי	-10.0201
▁גידול	-10.0201
▁לשנת	-10.0202
▁לילד	-10.0211
▁לבחון	-10.0212
▁היתרונות	-10.0214
▁מציעים	-10.0219
▁סקר	-10.0222
▁שדה	-10.0226
כדי	-10.0226
▁לעיר	-10.0227
ac	-10.023
▁השינה	-10.0231
"?	-10.0237
▁לשלב	-10.0239
▁הדת	-10.0245
▁מסוימות	-10.0245
▁תגובה	-10.0249
▁הצליחו	-10.025
▁ישראלים	-10.0252
▁להשתתף	-10.0254
▁קבע	-10.0255
▁המבנה	-10.026
▁הקול	-10.0263
▁ביקש	-10.0265
▁האזרחים	-10.0267
▁חכם	-10.0268
▁עובדת	-10.0269
▁אדום	-10.0269
▁לימוד	-10.0272
▁אושר	-10.028
▁לשינוי	-10.0289
▁צה	-10.029
▁מכתב	-10.0291
▁הלאה	-10.0295
▁לקבלת	-10.0296
▁תגובות	-10.0296
▁חלקים	-10.0305
▁מאפשרת	-10.0305
▁ארגוני	-10.0307
יקה	-10.0309
נטי	-10.0311
▁לשתות	-10.0313
▁במקור	-10.0319
▁מסוכן	-10.0321
▁שמע	-10.0323
▁הכלכלה	-10.0329
▁De	-10.0337
▁Me	-10.0339
▁שיניים	-10.034
▁פתח	-10.0345
▁דולרים	-10.0346
▁המשחקים	-10.0352
▁לאומי	-10.0357
▁האמונה	-10.0361
ינס	-10.0363
▁קוריאה	-10.0366
▁טלפון	-10.0376
אנג	-10.0381
בע	-10.0384
▁בצרפת	-10.0385
▁נקבע	-10.0386
▁בדיקה	-10.039
▁עמד	-10.0391
▁השראה	-10.0397
מני	-10.0398
▁הגבול	-10.0402
▁עיניים	-10.0403
▁ישיר	-10.0405
▁תוצאה	-10.0406
▁כתובת	-10.0407
יץ	-10.0407
▁רקע	-10.0421
▁מור	-10.0424
נדי	-10.0429
יזם	-10.0435
▁דומים	-10.0438
▁לע	-10.0443
▁אמון	-10.0447
טא	-10.0456
▁וע	-10.0458
▁הרשמי	-10.0461
▁הולכת	-10.0463
▁שילוב	-10.0465
▁נהרגו	-10.0469
▁בשתי	-10.0471
צים	-10.0478
▁החדשים	-10.0478
▁נדמה	-10.0482
▁שירים	-10.0485
▁בשבילי	-10.0489
▁לטווח	-10.0494
כמה	-10.0498
יפה	-10.0499
▁להקים	-10.0504
ימי	-10.0508
▁באה	-10.0509
▁החליט	-10.0513
▁ענק	-10.0513
▁מביא	-10.0517
▁זר	-10.052
▁גבוהים	-10.0523
▁המהפכה	-10.0526
▁טוען	-10.0527
▁לציבור	-10.0527
▁חיה	-10.0528
חס	-10.0528
▁תינוק	-10.0529
▁קיימות	-10.0532
▁הודעות	-10.0532
▁המשרד	-10.0541
▁מינית	-10.0543
▁מגיעה	-10.0544
▁משפיע	-10.0546
▁מספקת	-10.0548
וא	-10.0553
זר	-10.0554
▁הממוצע	-10.0557
▁קשים	-10.0561
▁שואל	-10.0563
▁הדלת	-10.0582
▁האוכלוסייה	-10.0588
▁בחינם	-10.0592
▁23	-10.0594
▁להגדיל	-10.0596
▁ביקור	-10.0598
▁מדעי	-10.0601
▁סיפורים	-10.0611
▁להשאיר	-10.0616
▁כאמור	-10.062
▁מא	-10.0632
▁שבהן	-10.0633
▁בוחרים	-10.0635
▁מציאות	-10.0637
▁יתכן	-10.0637
▁מצאו	-10.0638
אש	-10.0641
▁הנוגע	-10.0651
▁אבטחה	-10.0663
▁כוללת	-10.0664
קות	-10.0664
▁בעצמו	-10.0668
▁מתן	-10.0671
▁דיווח	-10.0672
▁נס	-10.0672
▁הקמת	-10.0688
▁לפיכך	-10.0691
▁הסיבות	-10.0693
▁לכאן	-10.07
▁החוף	-10.0701
▁טרי	-10.0703
▁תחושת	-10.0707
▁הכאב	-10.0708
▁ירד	-10.0709
▁זיכרון	-10.0713
ילי	-10.0714
▁ירוק	-10.0718
▁סמים	-10.0718
עור	-10.072
▁ואנו	-10.0727
ch	-10.0733
▁בגרמניה	-10.0735
-8	-10.0738
▁כאלו	-10.0739
▁כוכב	-10.0742
▁הנפש	-10.0751
▁אופי	-10.0752
▁קא	-10.0753
▁להשלים	-10.0754
▁אוטומטי	-10.0756
▁הרשת	-10.0757
▁בסוריה	-10.0765
▁בבחירות	-10.0767
▁הערך	-10.0768
▁דובר	-10.0772
ונס	-10.0775
▁הפתרון	-10.0782
▁מצפה	-10.0787
▁מציעה	-10.0791
▁נת	-10.0802
▁אפל	-10.0803
▁האדום	-10.0808
▁המסר	-10.0809
ניה	-10.081
▁מגלה	-10.0813
▁העולמית	-10.0821
▁רציני	-10.0821
▁להשתנות	-10.0824
▁לרדת	-10.0825
▁עצום	-10.0833
וף	-10.0835
▁ידעו	-10.0837
▁הלך	-10.0839
ers	-10.0841
▁שומן	-10.0844
▁מבוגרים	-10.0853
קבל	-10.0857
▁נותנים	-10.0861
▁להחזיק	-10.0863
-11	-10.0866
נכם	-10.0874
▁האחריות	-10.0877
▁סיום	-10.0879
▁איתה	-10.088
▁הגישה	-10.088
▁מכוניות	-10.0882
▁מעשה	-10.089
▁הירח	-10.0895
▁לוותר	-10.0895
▁איננה	-10.0896
▁המדיניות	-10.0898
▁ניסה	-10.0899
▁מאו	-10.09
▁מעלה	-10.09
▁פרו	-10.0906
▁העיצוב	-10.091
▁כוללים	-10.0912
▁גז	-10.0916
▁הגב	-10.0917
טרי	-10.0925
ine	-10.0926
הייתי	-10.0931
▁יעזור	-10.0931
▁לקיים	-10.0935
עמ	-10.0939
▁פוליטי	-10.0941
▁תחילה	-10.0946
▁בקיץ	-10.0947
כנ	-10.0949
▁רשות	-10.095
▁גופנית	-10.0954
▁עבודות	-10.096
me	-10.0962
▁28	-10.0963
▁משפחת	-10.0969
▁ממשלה	-10.0971
▁עובדות	-10.0976
▁השאלות	-10.0982
▁המלון	-10.0983
▁שמי	-10.0984
▁הסדר	-10.0984
ווי	-10.0989
▁מיליוני	-10.099
▁תל	-10.099
▁בקשה	-10.0991
ic	-10.0992
▁עשרים	-10.0995
▁ציין	-10.1005
▁חלקם	-10.1014
▁שבין	-10.1015
▁לאבד	-10.1018
▁איטליה	-10.102
40	-10.1029
▁הכפר	-10.1029
ארי	-10.1035
▁חיובית	-10.1036
▁הבר	-10.1045
▁הכניסה	-10.1049
▁וס	-10.105
▁35	-10.1052
▁יא	-10.1057
▁הכולל	-10.1063
▁איבד	-10.1064
▁חיבור	-10.1075
▁יחיד	-10.1075
▁הרכבת	-10.1083
▁מוביל	-10.1084
▁שער	-10.1085
▁p	-10.109
▁טעם	-10.1092
▁מע	-10.1093
רן	-10.1097
▁חש	-10.1103
מע	-10.1109
מח	-10.1125
▁השלישית	-10.1126
sh	-10.1126
▁U	-10.1131
▁מהבית	-10.1134
▁ירידה	-10.1135
co	-10.1136
▁ברחוב	-10.1138
▁לתאר	-10.1143
▁גו	-10.1143
▁הסבר	-10.1143
יפו	-10.1148
▁+	-10.1149
▁נהיה	-10.1149
▁קצרה	-10.1157
▁צעדים	-10.1157
▁התורה	-10.1157
▁התחלתי	-10.1158
▁משפחתי	-10.1162
ארד	-10.1164
▁מודעות	-10.1166
▁רשימה	-10.117
▁הפחד	-10.1177
▁יוצאת	-10.1179
▁Co	-10.118
▁מפתיע	-10.1187
טס	-10.1189
▁אס	-10.119
▁פרויקטים	-10.1191
▁המשיך	-10.1192
▁מעניק	-10.1195
▁המכונית	-10.1195
▁הרע	-10.1195
שא	-10.1197
▁ישר	-10.12
▁נחמד	-10.1202
ראו	-10.1204
▁סכום	-10.1206
▁בוא	-10.1208
▁השכר	-10.1211
▁לק	-10.1212
▁ברצינות	-10.1217
▁הקדוש	-10.1218
▁המין	-10.1218
▁משבר	-10.1223
▁אובדן	-10.1225
ent	-10.1225
▁דר	-10.1228
▁להסיר	-10.1228
גבר	-10.1229
▁שכולם	-10.1234
▁ריק	-10.1235
▁ההסכם	-10.1237
▁נמל	-10.1238
▁שנייה	-10.124
ָה	-10.1246
▁You	-10.125
▁מכונית	-10.125
▁למספר	-10.125
▁רצו	-10.1251
25	-10.1251
▁דמי	-10.1256
▁כלכלי	-10.126
▁שיצא	-10.1264
▁הופכים	-10.1266
▁עמו	-10.1268
▁אבן	-10.1274
▁התכנית	-10.1275
▁מכירות	-10.1275
▁התפקיד	-10.1276
▁גאה	-10.1276
▁למישהו	-10.1279
11	-10.128
▁ואתם	-10.1282
▁חוקים	-10.1288
▁לנסוע	-10.129
▁לד	-10.1292
▁הפוסט	-10.1293
▁התנ	-10.1295
▁להפעיל	-10.1298
▁להודות	-10.1302
▁שמעתי	-10.1303
▁לסיים	-10.1308
▁מועצת	-10.131
▁#	-10.1311
▁לנצל	-10.1321
▁·	-10.1327
4%	-10.133
▁מסביר	-10.1332
▁גבי	-10.1333
▁2005	-10.1335
יטה	-10.1343
▁הטלוויזיה	-10.1343
▁ללקוחות	-10.1347
▁בניית	-10.1347
▁האמנות	-10.1347
וי	-10.135
ברי	-10.1351
נהג	-10.1355
▁הבדל	-10.1359
▁להצליח	-10.1363
▁אשראי	-10.137
▁למשחק	-10.1371
▁נסיעה	-10.1372
כול	-10.1381
▁הספרים	-10.1382
▁בימי	-10.1384
▁בתגובה	-10.1402
ll	-10.1404
▁מוצאים	-10.1412
▁התמונות	-10.1418
▁פארק	-10.1422
▁הבין	-10.1424
סר	-10.1425
▁לכ	-10.1425
-7	-10.1436
▁שאולי	-10.144
▁יוצאים	-10.1448
-14	-10.1455
יכם	-10.1456
▁האוכל	-10.1461
▁חשבו	-10.1465
▁אנטי	-10.1466
▁היד	-10.1474
▁26	-10.1478
▁ייחודי	-10.1481
▁מצוין	-10.1482
▁שנמצא	-10.1485
▁משפחתו	-10.1488
▁נועד	-10.1491
▁לשאלה	-10.1494
▁העיקריים	-10.1497
▁פא	-10.1497
▁סקס	-10.1499
▁קיבלה	-10.1508
▁המלא	-10.1514
▁סבל	-10.1516
▁להצביע	-10.1519
▁בינינו	-10.1522
ונו	-10.1524
נע	-10.1524
80	-10.1525
▁יצר	-10.1526
▁חיובי	-10.1526
▁השלטון	-10.1527
▁המוזיאון	-10.1527
▁טי	-10.1527
▁נוכחות	-10.1536
▁דיבר	-10.1538
רמות	-10.1538
דרך	-10.1541
▁אוכלים	-10.1547
אפ	-10.155
ציה	-10.1552
▁המערבי	-10.1558
▁עמדה	-10.1568
ואה	-10.1578
ונית	-10.1582
]]	-10.1587
בש	-10.1587
ייר	-10.1591
▁השונות	-10.1592
▁הוביל	-10.1593
▁לתפוס	-10.1596
▁משחקי	-10.1597
▁אורח	-10.1598
▁ההר	-10.1598
▁צבאי	-10.1599
▁הכנסייה	-10.1599
ירו	-10.16
▁מוסדות	-10.1602
חיים	-10.161
▁הדור	-10.1615
▁לחדר	-10.1615
▁השניים	-10.1616
▁בשבילך	-10.1619
▁27	-10.1622
▁זול	-10.1623
▁וזאת	-10.1628
▁להגדיר	-10.1629
7%	-10.1632
▁ציוד	-10.1636
אוס	-10.1637
▁הודו	-10.1639
▁קשות	-10.1643
עידן	-10.1648
-13	-10.165
▁יפן	-10.165
▁חמאס	-10.1653
▁במחיר	-10.1654
▁חלקי	-10.1662
▁בכיר	-10.1665
גול	-10.1668
▁הממשל	-10.1669
▁באיזה	-10.1669
▁הייצור	-10.1675
▁קהל	-10.1681
▁מח	-10.1682
רוס	-10.1687
▁עורכי	-10.1693
▁בחירות	-10.1695
▁היעד	-10.1696
▁הביטוי	-10.1696
▁מדענים	-10.1696
▁שיא	-10.1699
▁מכ	-10.1699
▁טען	-10.1702
▁סדרת	-10.1706
▁הפנימי	-10.1708
▁שמן	-10.1708
יצ	-10.1708
▁הבסיס	-10.1709
▁מעוניינים	-10.1712
▁צודק	-10.1716
▁סופר	-10.1717
▁הליכה	-10.1717
▁חברתי	-10.1721
▁מאמץ	-10.1733
▁קרן	-10.1735
▁במי	-10.1739
זל	-10.174
חיל	-10.174
▁סוד	-10.1741
▁השתנה	-10.1742
im	-10.1744
▁להרוויח	-10.1744
בד	-10.1747
▁הצבאי	-10.1747
▁אינך	-10.1747
▁הלידה	-10.1748
▁תא	-10.1749
▁שומר	-10.1749
▁במאמר	-10.1751
▁”	-10.1752
▁שניות	-10.1754
▁לכיוון	-10.1756
▁בש	-10.1756
▁St	-10.1757
▁לוקחים	-10.1758
▁זהב	-10.1765
ֵ	-10.1768
▁באים	-10.1769
▁עוברים	-10.1772
▁שימו	-10.1773
הופך	-10.1775
▁יגיע	-10.1777
▁כראוי	-10.1779
▁להתגבר	-10.1798
באנגלית	-10.1804
▁תאריך	-10.1808
▁יח	-10.1812
v	-10.1813
▁מציג	-10.1816
▁יהודית	-10.1816
▁מעוניין	-10.1817
▁המועצה	-10.1826
▁בהקשר	-10.1827
זכר	-10.1832
▁לפגוש	-10.1834
▁לגדול	-10.1836
▁כדורגל	-10.1838
▁המבוסס	-10.1839
▁השו	-10.184
▁בהצלחה	-10.1841
▁כוכבים	-10.1846
▁הכרחי	-10.1846
▁נקי	-10.1848
▁שרוב	-10.1848
▁הציבורי	-10.1848
▁מורה	-10.1854
▁במים	-10.1859
▁המורה	-10.1867
▁אתרים	-10.1871
מט	-10.1877
▁תלמיד	-10.1878
מוס	-10.1878
▁אצלנו	-10.1881
▁מתאר	-10.1882
▁החדר	-10.1902
▁לשאת	-10.1902
▁חולה	-10.1903
▁המסחר	-10.1904
▁שכ	-10.1905
▁ועדיין	-10.1909
▁בקר	-10.1912
▁עצמאי	-10.1913
▁ההת	-10.1913
▁זמני	-10.1914
▁אלקטרוני	-10.1922
▁פסק	-10.1925
50	-10.1926
▁האחר	-10.193
▁מזמן	-10.1931
▁מחכה	-10.1935
▁נפרד	-10.1935
▁לבטל	-10.1942
▁יכלו	-10.1943
▁רשימת	-10.1947
רית	-10.1953
▁היקום	-10.1963
")	-10.1966
▁מכלל	-10.1967
פרסם	-10.1972
▁חירום	-10.1974
▁בוודאי	-10.1975
▁2020	-10.1976
▁מספרים	-10.1977
▁קראו	-10.1979
▁מהירות	-10.1981
▁שתהיה	-10.1981
▁חשב	-10.1981
▁לתפקיד	-10.199
▁אבו	-10.1991
▁הולדת	-10.1991
-9	-10.1994
ma	-10.1996
▁הייתם	-10.1997
▁פלא	-10.1998
▁ברי	-10.2008
▁בדם	-10.2009
מל	-10.201
▁אישיות	-10.2018
▁יוצרים	-10.2021
▁הרפואי	-10.2024
דון	-10.2026
דבר	-10.2026
▁לעקוב	-10.2028
ידו	-10.203
▁נעים	-10.2034
mo	-10.2035
▁ילדה	-10.2036
רג	-10.2051
▁בטיחות	-10.2052
▁השלב	-10.2053
▁מוכנה	-10.2054
▁לפ	-10.2055
▁להגיש	-10.2056
▁קיר	-10.2056
לג	-10.2057
▁מוחלט	-10.2061
▁ואולם	-10.2061
▁שקל	-10.2062
▁השתמשו	-10.2063
▁חבל	-10.2065
▁מנכ	-10.2067
▁המר	-10.2076
▁מהירה	-10.2078
▁מחשבה	-10.2084
▁השינויים	-10.2086
▁האפשר	-10.2088
▁רצוי	-10.2089
▁ציבורית	-10.209
▁מרגש	-10.2093
ion	-10.2095
▁קמ	-10.2099
▁הבעלים	-10.21
▁de	-10.2103
▁הגברים	-10.2106
▁פרטיות	-10.2114
▁מזו	-10.2118
▁בצ	-10.2119
▁השפעת	-10.212
▁מודה	-10.2122
לנד	-10.2125
▁במלחמה	-10.2126
▁צל	-10.2131
▁האמיתית	-10.2132
לר	-10.2132
▁הנוכחית	-10.2132
▁מאמינה	-10.2138
▁שד	-10.2139
▁בינלאומית	-10.2142
▁תאי	-10.2145
ie	-10.2149
▁האופן	-10.2151
▁מוזיאון	-10.2153
כמו	-10.2153
פנים	-10.2156
נשים	-10.2159
טבע	-10.2164
▁תנאים	-10.2165
נדה	-10.2166
וול	-10.2168
▁להקל	-10.2168
נאי	-10.2169
▁בחוק	-10.2169
▁גבוהות	-10.217
▁לעצמך	-10.2171
▁להתאים	-10.2174
▁יתרונות	-10.2176
▁להתמקד	-10.2176
ho	-10.2185
▁עצוב	-10.2188
▁עשיר	-10.2188
אלץ	-10.2191
▁להצלחה	-10.2191
▁הפא	-10.2193
מיר	-10.2194
▁בסגנון	-10.2195
▁בפנים	-10.2197
▁לשיר	-10.2198
▁המשתמשים	-10.2198
▁צפו	-10.22
▁וחי	-10.2205
▁בגדים	-10.221
▁לשכוח	-10.2212
▁הקטנה	-10.2213
▁החודש	-10.2218
▁ובני	-10.222
עי	-10.2223
▁השיער	-10.2225
▁שיי	-10.2225
▁לבריאות	-10.2227
▁צר	-10.2228
▁המעבר	-10.2232
▁שלמה	-10.2243
▁הערבים	-10.2244
רוח	-10.2247
▁שקר	-10.225
יסט	-10.2251
▁עמוקה	-10.2257
▁סובלים	-10.2258
▁לצ	-10.2263
▁הכנסה	-10.2267
▁לאחור	-10.2269
עולם	-10.2273
▁באיכות	-10.2274
▁ההצלחה	-10.2276
▁אסיה	-10.2281
▁מבצע	-10.2285
עניין	-10.2302
▁לעתיד	-10.2304
▁התגובה	-10.2305
▁שיותר	-10.231
▁סר	-10.2312
▁הרוב	-10.2322
▁לחוות	-10.2325
לין	-10.2328
▁בתים	-10.233
▁מודל	-10.2333
▁נמשך	-10.2337
▁מעורב	-10.234
▁מעלות	-10.2346
▁שנראה	-10.2347
▁לזמן	-10.2347
▁בפרס	-10.2348
כולנו	-10.2349
▁הקרובה	-10.235
▁המשבר	-10.2355
▁גן	-10.2362
▁לחבר	-10.2362
▁יין	-10.2371
▁אמו	-10.2373
קרא	-10.2376
▁אמ	-10.2376
ילת	-10.2378
un	-10.2383
▁עזר	-10.2386
קרי	-10.2391
▁מאבק	-10.2391
▁רשמית	-10.2394
▁70	-10.2397
▁נפטר	-10.2397
▁תינוקות	-10.24
טות	-10.2403
▁קובע	-10.2405
▁לאחרים	-10.2406
▁אהוב	-10.2407
▁וכש	-10.2411
▁חלום	-10.2412
▁דמות	-10.2414
▁המקור	-10.2414
▁בחור	-10.2416
רא	-10.2417
▁מטרת	-10.2417
▁החברתית	-10.2424
▁הנמצא	-10.2426
זמן	-10.2428
אוניברסיטת	-10.243
70	-10.2433
▁הרביעי	-10.2435
▁דברי	-10.2439
▁מערב	-10.2441
▁הצי	-10.2441
▁הצעת	-10.2443
שני	-10.2445
▁התמיכה	-10.2446
▁אימון	-10.2447
▁f	-10.245
▁קרי	-10.2451
▁לימד	-10.2456
▁לדמיין	-10.2456
▁בקול	-10.2462
דעת	-10.2464
▁להעניק	-10.2464
נדו	-10.247
▁נפלא	-10.2474
▁b	-10.2479
▁התנגדות	-10.2481
▁מבקשים	-10.2484
ארה	-10.2505
▁Ma	-10.2505
▁להעריך	-10.2506
▁אובמה	-10.2506
▁ענה	-10.2509
▁רבי	-10.2512
▁הדרכים	-10.2518
▁קשרים	-10.2523
▁המקומית	-10.2523
▁יחידות	-10.2538
▁להיראות	-10.2539
▁ואחד	-10.2539
▁הקודמת	-10.254
▁שואלים	-10.2541
▁Be	-10.2543
▁לנושא	-10.2548
▁טיול	-10.2549
▁הרשות	-10.2549
▁והנה	-10.255
▁זמנית	-10.2556
▁השיניים	-10.2561
▁מסך	-10.2569
▁חר	-10.2571
▁Z	-10.2573
▁בשדה	-10.2573
▁ספרי	-10.2574
▁תנועת	-10.2578
▁דלק	-10.2578
▁מכירה	-10.2578
▁משותפת	-10.2581
8%	-10.2581
▁לברוח	-10.2585
▁עונש	-10.2585
▁הערכה	-10.259
חבר	-10.2591
▁בפ	-10.2591
▁בתחילה	-10.2596
▁יעילה	-10.2598
▁ציבור	-10.26
▁שימושי	-10.2603
▁דגים	-10.2605
▁התנאים	-10.2607
▁מוגבלת	-10.2611
▁הקשה	-10.2617
▁45	-10.2617
▁רוברט	-10.2625
▁השער	-10.2625
▁מאושר	-10.2633
בוא	-10.2634
▁עובדה	-10.2638
▁ניכר	-10.264
ir	-10.264
▁ממשיכה	-10.2651
▁המטופל	-10.2657
▁הישראלים	-10.2659
▁הגרמני	-10.2664
▁מספקים	-10.2667
▁הכלל	-10.2676
ca	-10.2676
▁נבנה	-10.2677
▁מצליחים	-10.2677
▁בכתב	-10.2681
▁החי	-10.2683
▁תשע	-10.2685
▁מחו	-10.2685
▁ישירה	-10.2686
▁לשרת	-10.2687
▁שאלתי	-10.2687
▁מבטיח	-10.2688
▁סמכות	-10.2692
▁ואחר	-10.2694
▁רווח	-10.2697
▁500	-10.2698
▁שנועד	-10.2707
▁מחלת	-10.2708
▁המח	-10.2712
%	-10.2713
ul	-10.2714
▁עסקי	-10.2715
de	-10.2716
▁ציבורי	-10.2717
▁אה	-10.2719
יכה	-10.2719
▁סימנים	-10.2721
ti	-10.2723
▁מטרים	-10.2724
▁יוסף	-10.2724
▁ער	-10.2728
▁מעדיף	-10.273
▁כוס	-10.2734
▁לגוף	-10.2736
יא	-10.274
▁הגורמים	-10.2742
▁ואחרי	-10.2749
▁ארוכות	-10.2749
רחב	-10.275
▁אוסטרליה	-10.2753
▁שעדיין	-10.2756
אנ	-10.2756
פרי	-10.2758
man	-10.2759
▁הביטוח	-10.2763
▁למטרות	-10.277
1%	-10.2773
▁פירות	-10.2782
▁תן	-10.2787
▁והש	-10.2791
▁לעצמכם	-10.2791
ביט	-10.2794
?!	-10.2797
נם	-10.2798
▁יוני	-10.28
▁עברה	-10.2804
▁אד	-10.2805
▁בשעות	-10.2812
▁הזהב	-10.2813
▁הנפט	-10.2814
▁הצרכים	-10.2815
▁מאבד	-10.2816
▁לרוץ	-10.2819
▁ממוקם	-10.2822
▁מתרחש	-10.2823
3%	-10.2824
▁תעשיית	-10.2828
▁המזל	-10.2829
▁עולמי	-10.2831
▁הפרטים	-10.2832
כנו	-10.2832
▁מקומיים	-10.2838
▁גבול	-10.2839
שנה	-10.2845
▁וכיצד	-10.2849
▁החשובים	-10.2851
▁הוראות	-10.2851
▁2003	-10.2852
▁פגיעה	-10.2854
▁המקדש	-10.2856
▁נהרג	-10.2861
▁פרופסור	-10.2862
▁מוגבל	-10.2867
▁עלייה	-10.2871
כס	-10.2872
קלי	-10.2876
ut	-10.2883
▁Y	-10.2891
▁מסחר	-10.2891
▁מצחיק	-10.2892
▁נקודה	-10.2896
▁קראתי	-10.2904
▁רגילים	-10.2912
9%	-10.2914
▁מפלגת	-10.2915
▁לתרום	-10.2921
▁לשרוד	-10.2921
▁ייעוץ	-10.2922
▁להתקיים	-10.2923
▁לר	-10.2927
▁המשטר	-10.293
▁לפיתוח	-10.2933
▁האחים	-10.2934
▁שיחה	-10.2935
▁מועד	-10.2936
▁הערים	-10.2936
▁במובן	-10.2937
▁נתון	-10.2937
▁תקציב	-10.2938
דין	-10.2939
▁הנשק	-10.2944
▁שמאל	-10.2945
▁ערכים	-10.2949
▁הגבר	-10.2949
io	-10.2961
▁הפרטי	-10.2964
▁הסטודנטים	-10.2965
מונים	-10.2965
▁ביו	-10.2966
▁להגיב	-10.2967
▁המזרח	-10.297
ערות	-10.297
▁המנהל	-10.2972
גש	-10.2977
ck	-10.298
▁גרעיני	-10.298
יבה	-10.2981
▁ערים	-10.2984
▁הפיזי	-10.2987
▁הכבוד	-10.2987
▁חום	-10.2989
▁פרטיים	-10.2991
נון	-10.2992
חול	-10.2994
▁המאבק	-10.2996
▁במחשב	-10.2997
ודי	-10.2998
פש	-10.2999
▁ולהיות	-10.3
▁עובדי	-10.3005
▁הישן	-10.3008
▁דוגמאות	-10.3012
▁Microsoft	-10.3013
בין	-10.3016
▁לראש	-10.3024
▁דל	-10.3026
▁אהיה	-10.3029
▁במוח	-10.3031
▁נייר	-10.3032
עשר	-10.3034
▁לאלוהים	-10.3037
▁חופשית	-10.3038
▁יצאו	-10.3043
▁סוכר	-10.3043
▁עקרונות	-10.3043
▁לקוח	-10.3053
▁מייקל	-10.3054
▁on	-10.3057
60	-10.306
ce	-10.3062
▁אברהם	-10.3063
▁העברת	-10.3065
עק	-10.3066
▁ליצירת	-10.3066
▁עבודתו	-10.3067
▁השחקן	-10.3067
▁תכנון	-10.3068
▁נסו	-10.3068
▁החבר	-10.307
סים	-10.3072
▁הזמנים	-10.3073
-50	-10.3074
▁בצורת	-10.3077
▁מסמכים	-10.3078
▁האהוב	-10.3084
כאשר	-10.3087
▁שיחות	-10.3088
▁נתוני	-10.3089
▁לחו	-10.3091
▁ופ	-10.3092
▁מיידי	-10.3094
לק	-10.3094
▁להופיע	-10.3095
▁תמורת	-10.3095
▁חשיבה	-10.3096
▁תעשה	-10.3098
▁תגית	-10.3101
▁פל	-10.3101
▁טוענים	-10.3106
▁למחרת	-10.3108
▁מצאתי	-10.311
▁80	-10.3115
פתי	-10.3116
▁ישן	-10.3117
▁חשש	-10.3126
▁ליותר	-10.3127
יח	-10.3129
▁לשחרר	-10.3131
▁ממוצע	-10.3134
▁מקצועית	-10.3135
▁רעב	-10.3135
▁הצעירים	-10.3137
▁הארוך	-10.3139
▁המערב	-10.3145
▁ספרד	-10.3146
נך	-10.3148
▁כתבה	-10.3149
▁כואב	-10.3154
שאר	-10.3155
▁לשנה	-10.3156
▁הכוכבים	-10.3156
▁משלו	-10.3157
▁ישראלי	-10.3159
▁באמריקה	-10.3159
▁שבעה	-10.3159
▁יעקב	-10.3161
▁המודרנית	-10.3162
ציות	-10.3162
17	-10.3167
▁בדרכים	-10.3171
▁הגיוני	-10.3173
ate	-10.3177
▁בתחומי	-10.3179
▁הנהג	-10.3184
▁נתפס	-10.3193
▁2002	-10.3193
▁חיוני	-10.3195
ידות	-10.3201
▁המקרה	-10.3203
▁תוכנה	-10.3203
▁השעה	-10.3204
▁ראיות	-10.3205
▁כאחד	-10.3205
▁ולהת	-10.3208
▁אלבום	-10.3212
▁פייסבוק	-10.3212
▁שלאחר	-10.3216
עז	-10.3219
▁מגע	-10.3225
▁בח	-10.3226
▁לדוגמא	-10.3229
2%	-10.3231
▁הגז	-10.3232
רגע	-10.3236
▁נמסר	-10.3237
מיני	-10.324
▁במצרים	-10.3247
▁מומחה	-10.3248
▁רופאים	-10.3248
▁מפחיד	-10.3249
▁יחס	-10.3249
▁הכללית	-10.3252
▁המחבר	-10.3252
רון	-10.3263
▁למידה	-10.3264
-25	-10.3265
ותיו	-10.3268
▁בריאים	-10.3268
▁קיום	-10.3273
ab	-10.3274
▁להתקדם	-10.3276
▁בסיפור	-10.3277
▁רוק	-10.3278
▁הופיע	-10.3278
גני	-10.328
▁בכלא	-10.3281
▁הצבע	-10.3281
▁הבניין	-10.3281
▁מעורר	-10.3289
▁התעשייה	-10.3293
▁המסע	-10.3296
▁נעצר	-10.3296
▁יבוא	-10.3301
▁המא	-10.3304
▁השחור	-10.3311
▁המרכזית	-10.3312
▁אליי	-10.3314
▁פרט	-10.3316
▁פופולרי	-10.3317
פעיל	-10.3317
▁החוקים	-10.3322
שק	-10.3323
▁מרוצה	-10.3326
▁משא	-10.3327
קן	-10.3328
▁השטן	-10.3328
▁הרחב	-10.3329
▁המקומי	-10.3329
os	-10.3336
▁הפוליטית	-10.3336
▁בטלוויזיה	-10.3338
▁קונ	-10.3339
▁הקל	-10.3351
▁מט	-10.3352
▁תושבים	-10.3352
▁שותפים	-10.3355
▁תיאור	-10.3355
ולל	-10.3364
▁להרחיב	-10.3364
▁לט	-10.3365
ילד	-10.337
▁המכשיר	-10.3372
▁שבועיים	-10.3375
ביע	-10.3376
ייב	-10.3378
כא	-10.3379
▁עבורי	-10.3386
פן	-10.339
▁ברמת	-10.3391
▁קיבלתי	-10.3406
תן	-10.3411
▁המשיח	-10.3412
▁בחירת	-10.3415
▁נרחב	-10.3416
מעולם	-10.342
▁אורך	-10.3428
▁Pro	-10.3429
pe	-10.343
▁המבצע	-10.343
ניס	-10.3433
לך	-10.3434
▁הרשויות	-10.3435
▁דיון	-10.3436
▁הלחץ	-10.3436
▁שמא	-10.3438
▁דירה	-10.3439
▁למדתי	-10.3442
▁המחירים	-10.3444
▁לשלום	-10.3444
▁התחרות	-10.3445
ורד	-10.3445
▁האירועים	-10.3446
פרש	-10.3451
▁בק	-10.3452
▁המשמש	-10.3456
▁להזמין	-10.3457
▁ארוכים	-10.3458
▁מטעם	-10.3463
▁מצפים	-10.3464
▁הרוסי	-10.3465
לית	-10.3466
▁בעלה	-10.3466
▁מתאימה	-10.3466
▁חוזרים	-10.3467
פנו	-10.3469
▁נוער	-10.3472
▁מסוגלת	-10.3475
▁מוסיקה	-10.3479
▁הכיבוש	-10.3479
▁סליחה	-10.348
▁נהר	-10.3481
▁טור	-10.3484
▁לבי	-10.3486
▁צמיחה	-10.3487
פטר	-10.3488
▁טכנולוגיות	-10.3489
▁תיק	-10.3489
▁התקדמות	-10.349
Z	-10.3496
▁שפת	-10.3503
ill	-10.3508
ant	-10.3509
▁הקטנים	-10.351
▁=	-10.3512
כלל	-10.3512
▁אדוני	-10.3513
קרב	-10.3515
▁שיטת	-10.3517
אנס	-10.352
▁הסינית	-10.3522
▁בפייסבוק	-10.3522
▁שפות	-10.3522
▁למוות	-10.3526
▁שומע	-10.3527
▁בשיתוף	-10.3531
▁בודד	-10.3531
▁במציאות	-10.3532
▁בגודל	-10.3535
גורם	-10.3539
▁מבקרים	-10.354
ניק	-10.3542
▁יתרון	-10.3542
-21	-10.3546
▁כחול	-10.3551
▁שאינה	-10.3553
בנו	-10.3554
▁חזקים	-10.3555
▁שהדבר	-10.3556
כבד	-10.356
▁הודות	-10.356
▁ביל	-10.356
▁המשתתפים	-10.3561
▁התוכן	-10.3563
▁לדרך	-10.3565
גנו	-10.3572
▁ריח	-10.3574
ci	-10.3582
▁פועלת	-10.3582
▁משל	-10.3583
▁עשתה	-10.359
▁ריצ	-10.3594
▁לאסוף	-10.3598
▁נמצאו	-10.3606
▁הסוף	-10.3608
▁הצליחה	-10.3609
▁משימה	-10.3612
▁המטוס	-10.3613
שוק	-10.3613
▁הצער	-10.3613
▁טיסה	-10.3615
▁העסקים	-10.3617
▁חיינו	-10.3619
טיב	-10.3624
▁הראו	-10.3626
▁גזע	-10.3628
▁נוחות	-10.3635
▁ממליצים	-10.3636
▁בלעדי	-10.3636
▁מסכימים	-10.3641
▁אמורה	-10.3644
▁זוכרים	-10.3644
+	-10.3646
▁ירי	-10.365
▁הנקודה	-10.3652
▁ישנו	-10.3654
▁לשכנע	-10.3657
▁החיילים	-10.3657
▁הפי	-10.3658
▁רחבה	-10.366
טרם	-10.366
▁Le	-10.3663
▁קנדה	-10.3665
▁קורס	-10.3667
▁מפקד	-10.3667
▁מתנה	-10.3669
▁זוכרת	-10.367
▁מאתנו	-10.367
▁המקורית	-10.3672
▁מחזור	-10.3673
▁באזורים	-10.3682
▁קהילה	-10.3683
מנת	-10.3687
▁פוטנציאל	-10.3687
▁בהריון	-10.3688
▁שייך	-10.3691
מערכת	-10.3691
▁רובם	-10.3694
16	-10.3695
▁פרנק	-10.3696
▁איום	-10.3696
▁המקומות	-10.3699
ive	-10.37
▁דניאל	-10.3701
▁בממוצע	-10.3704
פוס	-10.3705
▁גוגל	-10.3706
▁תחרות	-10.3707
▁בתו	-10.3708
▁עין	-10.371
▁קצב	-10.3711
▁מחזיק	-10.3711
▁המראה	-10.3712
▁באל	-10.3716
▁לכמה	-10.3717
▁קונים	-10.3718
▁שאמר	-10.372
▁הסי	-10.372
▁מקל	-10.3721
▁נפגע	-10.3725
▁בתוכנית	-10.373
▁[+]	-10.373
▁הוקמה	-10.3731
סרט	-10.3732
עול	-10.3733
▁התחילו	-10.3736
▁לנקוט	-10.3738
▁להכניס	-10.3738
שיר	-10.3741
נתי	-10.3748
▁עזב	-10.375
▁הדיון	-10.3759
▁המסך	-10.3761
▁אוסף	-10.3766
▁שותף	-10.3766
▁חו	-10.3769
▁אתרי	-10.377
▁חלל	-10.3774
▁הרגליים	-10.3777
▁צורות	-10.3777
ערך	-10.378
▁הקפה	-10.3781
▁2004	-10.3781
▁השיטה	-10.3784
▁במדינת	-10.3785
▁לבלות	-10.3785
▁בטיפול	-10.3786
▁29	-10.3789
▁הניתוח	-10.3791
▁מניח	-10.3794
15	-10.3794
שן	-10.3795
▁מסיבה	-10.3796
▁מייצג	-10.3797
▁החוויה	-10.3799
▁שבא	-10.38
צילום	-10.38
▁בדיקת	-10.38
▁מוצלח	-10.3806
▁ועדת	-10.3807
▁הערה	-10.3812
צעד	-10.3818
▁האחד	-10.3818
▁מגדל	-10.3823
▁הפל	-10.3824
▁שאומר	-10.3827
ניו	-10.3835
▁הכביש	-10.3837
▁באוויר	-10.3838
▁מבינה	-10.3841
ומות	-10.3845
▁לכת	-10.3846
▁כניסה	-10.3847
▁לחלוק	-10.3847
▁אהב	-10.3848
▁פנימה	-10.3849
▁טעויות	-10.385
“	-10.3851
׳	-10.3852
▁האויב	-10.3852
פח	-10.3853
עסק	-10.3855
ge	-10.3856
▁עולמית	-10.3857
▁מנהלים	-10.386
▁דעות	-10.3861
רגש	-10.3862
▁יעילות	-10.3866
קוס	-10.3868
רוד	-10.3869
▁הסביר	-10.3871
צמח	-10.3872
▁שיהיו	-10.3875
▁נמנע	-10.3875
קרו	-10.3881
▁צבאית	-10.3887
▁איני	-10.3894
▁הקרובים	-10.3895
▁התרופה	-10.3896
▁צעירה	-10.3896
▁בטווח	-10.3897
▁re	-10.3898
▁קווי	-10.3899
▁הזיכרון	-10.39
▁פוסט	-10.3902
6%	-10.3913
חייב	-10.3914
▁אחי	-10.3923
▁הערבית	-10.3926
▁תחנת	-10.3926
▁החוב	-10.3927
סק	-10.3931
▁קרובים	-10.3933
▁חסרי	-10.3933
▁לחשוף	-10.3937
▁שע	-10.3938
▁דרישות	-10.3939
▁קט	-10.3941
▁רשתות	-10.3943
רב	-10.3946
▁להלן	-10.3958
אבי	-10.3958
בוס	-10.3959
קא	-10.3962
▁לרבות	-10.3964
▁המודרני	-10.3965
▁נשא	-10.3966
▁למידע	-10.3969
רמי	-10.397
▁האמריקאים	-10.3971
▁להקשיב	-10.3972
▁האישיים	-10.3978
▁90	-10.3978
▁השואה	-10.3979
שתי	-10.398
▁בחלל	-10.3982
פד	-10.3984
מערב	-10.3987
▁מבוססת	-10.3987
▁החורף	-10.3991
יף	-10.3992
▁מעורבים	-10.3993
▁שולח	-10.3995
▁להתרחש	-10.3999
▁לגור	-10.4001
▁גלי	-10.4003
מערכות	-10.4003
▁לאזור	-10.4007
מנט	-10.4008
▁ברק	-10.4014
▁חוזרת	-10.4016
▁התובע	-10.4017
▁השירותים	-10.402
▁סחר	-10.4021
יפים	-10.4021
▁צריכות	-10.4023
▁ולמה	-10.4031
נש	-10.4034
▁מטוס	-10.4035
▁מיומנויות	-10.4036
▁שמר	-10.4037
▁לאף	-10.4038
▁מובן	-10.4042
-80	-10.4045
▁200	-10.4046
▁פירוש	-10.4048
▁השקעות	-10.4051
אמר	-10.4055
▁מימון	-10.406
▁הולנד	-10.4061
▁מעין	-10.4062
▁הרג	-10.4062
▁לעצמם	-10.4063
▁חומרי	-10.4064
▁דגל	-10.4066
▁המחשבה	-10.4067
▁הידיים	-10.4072
▁שנאמר	-10.4073
▁אפשרית	-10.4078
▁השולחן	-10.408
▁הגיל	-10.4081
▁צורת	-10.4082
▁חסרת	-10.4083
▁הקב	-10.4083
▁לכלול	-10.4085
▁הרשימה	-10.409
כוח	-10.4092
▁הדי	-10.4093
טוס	-10.4096
▁רוז	-10.4098
▁מז	-10.4103
ונ	-10.4104
▁בדומה	-10.4106
▁פיזית	-10.4109
▁הצרפתי	-10.4111
▁חלומות	-10.4111
▁זמינים	-10.4112
▁שעומד	-10.4116
▁2001	-10.4117
▁ברירה	-10.4119
▁הנסיעה	-10.412
ינט	-10.4122
כנים	-10.4123
אתר	-10.4126
ity	-10.4129
▁בסביבות	-10.4129
חק	-10.4129
▁הצעות	-10.4129
רשת	-10.4131
▁והו	-10.4133
▁סובל	-10.4137
סדר	-10.4139
▁אנושי	-10.4142
ניתנת	-10.4143
▁קיץ	-10.4145
▁דלת	-10.4146
▁השקעה	-10.4147
מנהיג	-10.4149
אחר	-10.4151
▁צמח	-10.4153
▁הנו	-10.4153
▁בכפר	-10.4157
▁הורה	-10.416
▁בחרו	-10.4165
▁למשוך	-10.4175
▁הצעד	-10.4175
רמת	-10.4176
▁רחוב	-10.4179
▁פותח	-10.418
לוח	-10.4182
▁לימודי	-10.4188
18	-10.4188
▁משך	-10.419
▁שמחים	-10.4191
▁פורסם	-10.4192
▁בוחר	-10.4197
▁הכלכלית	-10.4198
▁מבוגר	-10.4198
▁שחלק	-10.4201
▁בהדרגה	-10.4209
▁אהבת	-10.421
▁עצם	-10.4211
פתח	-10.4212
▁אמי	-10.4213
▁חול	-10.4215
▁פתוחה	-10.4221
▁חשבונות	-10.4232
▁שעלול	-10.4239
▁מכשיר	-10.4241
▁לרשות	-10.4243
▁יבש	-10.4244
▁מבחן	-10.4244
ga	-10.4245
▁נדיר	-10.4246
▁כספים	-10.4248
זיק	-10.4253
▁השיחה	-10.4254
▁מחוז	-10.4257
-60	-10.4259
▁להתעלם	-10.4261
▁עי	-10.4261
▁לשקול	-10.4264
▁אמורים	-10.427
▁מנוע	-10.4271
▁הוציא	-10.4272
שרת	-10.4273
▁כשאתם	-10.4274
▁וכמובן	-10.4278
ייט	-10.4284
▁חייל	-10.4286
▁נוכח	-10.4291
גנים	-10.4292
חוש	-10.4298
▁שהגיע	-10.4298
ירים	-10.4306
▁לעצמנו	-10.4308
▁ללבוש	-10.4309
▁העצמי	-10.4309
14	-10.4311
▁חטא	-10.4313
▁אישיים	-10.4313
▁המכונה	-10.4317
▁הצהריים	-10.4319
▁לעורר	-10.432
▁מראים	-10.4321
▁הידוע	-10.4323
▁יהודה	-10.4324
▁הפיתוח	-10.4325
▁ראינו	-10.4327
▁ערבים	-10.4329
▁קריאה	-10.433
▁קשורים	-10.4331
tion	-10.4333
▁הזכויות	-10.4334
▁גילוי	-10.4334
▁שחשוב	-10.434
▁שונא	-10.4343
▁הוגן	-10.4345
▁תיקון	-10.4345
ha	-10.4345
גז	-10.4345
▁בקצב	-10.4351
▁פוליטיים	-10.4355
▁מיקום	-10.4356
▁צבעים	-10.4357
▁הפוטנציאל	-10.4357
▁כפול	-10.4359
▁להתחבר	-10.4362
▁הסופי	-10.4363
▁גילה	-10.4366
▁המוביל	-10.4368
חוץ	-10.4369
▁הפליטים	-10.4374
▁ידועה	-10.4378
▁ההוא	-10.4384
קנה	-10.4387
וקר	-10.4387
שהיא	-10.4388
פע	-10.4388
▁אמריקאים	-10.4389
שיח	-10.4391
▁הודיע	-10.4394
▁בטלפון	-10.4395
▁יולי	-10.4395
▁מאמרים	-10.4396
▁לחזק	-10.4397
▁לעיל	-10.4398
▁קריירה	-10.4399
▁חנות	-10.4404
op	-10.4405
▁ניסו	-10.4408
▁בעצמך	-10.4408
▁הביניים	-10.441
שמים	-10.4411
▁המק	-10.4411
אנט	-10.4412
▁חמישי	-10.4414
▁מלמד	-10.4415
▁נעלם	-10.4416
▁עלויות	-10.4416
▁למערכת	-10.4417
&	-10.4425
▁המועצות	-10.4427
▁ביפן	-10.4429
▁חוזה	-10.4433
אזור	-10.4435
▁למעט	-10.4435
▁בשקט	-10.4437
▁דק	-10.4438
▁העניק	-10.4439
▁הפה	-10.444
▁החשמל	-10.4443
▁במלחמת	-10.4444
מך	-10.4445
▁רכוש	-10.445
▁חמור	-10.4452
▁הציג	-10.4457
▁הרוסית	-10.4457
▁בבירור	-10.4458
מטר	-10.4459
▁להבחין	-10.446
▁הכוללת	-10.4463
▁שאלו	-10.4469
▁תשובות	-10.4471
ry	-10.4471
▁הפרק	-10.4475
▁גילו	-10.4479
▁המכיל	-10.4479
▁החלטתי	-10.448
טיס	-10.4481
▁לפרסם	-10.4482
▁במערב	-10.4483
▁זיהום	-10.4489
▁שתמיד	-10.4491
▁היסטורי	-10.4491
▁למלחמה	-10.4494
▁סדרה	-10.4495
▁משו	-10.4498
▁בריאה	-10.4501
▁כספי	-10.4501
סביר	-10.4502
▁הניסיון	-10.4503
▁אחיו	-10.4503
▁מסתכל	-10.4504
▁בשירות	-10.4507
מוני	-10.4509
▁מחליט	-10.4509
▁בקבוצה	-10.451
אולי	-10.4513
▁קולנוע	-10.4518
▁רומא	-10.452
▁לסבול	-10.4524
▁הפרטיות	-10.4526
▁בפיתוח	-10.4526
▁לארה	-10.4527
▁מקומי	-10.453
▁בפריז	-10.453
▁התושבים	-10.4531
▁תוספת	-10.4534
▁הבריטית	-10.4535
▁הבורא	-10.4535
▁פעילים	-10.4538
▁בפעילות	-10.4546
▁יסוד	-10.455
▁משאבים	-10.4555
▁איי	-10.4559
▁תצטרך	-10.456
▁הודיעה	-10.4562
▁בגין	-10.4564
עיר	-10.4566
שקיע	-10.457
▁לתקופה	-10.4574
▁התרופות	-10.4575
▁הבה	-10.4575
▁צריכת	-10.4584
▁גשר	-10.4585
▁חנויות	-10.4587
ראש	-10.4587
▁לעודד	-10.4589
▁תרגום	-10.4589
▁להרוס	-10.4591
▁המספרים	-10.4594
▁הריון	-10.4599
▁לכו	-10.46
▁בקו	-10.4609
קומה	-10.461
▁הפוליטי	-10.461
▁במשפחה	-10.4612
כונן	-10.4618
▁המתאים	-10.4619
ph	-10.4619
▁לסמוך	-10.462
▁הספק	-10.4622
▁לחסוך	-10.4631
▁הפר	-10.4632
▁זי	-10.4635
▁לערוך	-10.4636
▁הסיני	-10.4638
▁הדעת	-10.464
ER	-10.4643
▁להורג	-10.4647
▁לקו	-10.4648
עריכה	-10.465
כפי	-10.4655
▁למרכז	-10.4655
▁הגרמנים	-10.4657
▁שנערך	-10.4664
▁המפורסם	-10.4664
▁שמגיע	-10.4665
▁לשיפור	-10.4673
▁בקיצור	-10.4675
da	-10.4675
▁מוכרים	-10.4677
▁שמדובר	-10.4678
נדל	-10.468
▁פרופ	-10.4695
per	-10.4696
▁היות	-10.4696
▁שולחן	-10.4697
▁מתמיד	-10.4701
▁יקבל	-10.4703
▁ברכב	-10.4704
▁מניות	-10.4706
▁אתגר	-10.4708
▁העין	-10.4709
▁ושני	-10.471
▁יורד	-10.4713
▁ההריון	-10.4714
▁החופש	-10.4716
▁באש	-10.4716
▁יופי	-10.4716
▁מנקוד	-10.4722
▁זכתה	-10.4724
▁אנגליה	-10.4725
▁לשוק	-10.4725
▁המבט	-10.4728
▁La	-10.4732
▁האנגלית	-10.4732
▁שמירה	-10.4735
▁מחשבים	-10.4736
▁אוגוסט	-10.4737
▁מורכבת	-10.4738
▁לתלמידים	-10.474
▁בסיכון	-10.4742
▁בחורה	-10.4743
▁משקיעים	-10.4743
▁התקציב	-10.4745
▁אשה	-10.4747
▁מונח	-10.4748
▁הסרטים	-10.475
▁שהמ	-10.4752
▁ליהודים	-10.4753
▁דוח	-10.4757
▁לבעלי	-10.4758
תמיד	-10.4761
▁משרת	-10.4764
▁הבל	-10.4769
שׁ	-10.4777
▁וד	-10.4781
▁שרוצים	-10.4782
▁משכ	-10.4783
▁מתים	-10.4785
▁הוצאות	-10.4785
▁זוכה	-10.4786
▁המבקרים	-10.4788
ay	-10.4792
▁הספורט	-10.4799
▁מתה	-10.4799
נטר	-10.4805
▁המטרות	-10.481
▁צי	-10.4814
▁תחבורה	-10.482
ig	-10.4821
כיר	-10.4822
no	-10.4822
▁חרדה	-10.4823
▁חס	-10.4826
▁רכישת	-10.4829
▁גור	-10.4831
▁האלקטרוני	-10.4831
▁Mo	-10.4833
▁איזון	-10.4833
-100	-10.4833
▁מצוי	-10.4834
▁[-	-10.4835
13	-10.4837
▁הגרוע	-10.4841
▁ציון	-10.4844
▁ברזל	-10.4845
▁הצמיחה	-10.4847
ואל	-10.4847
▁משאיר	-10.4849
▁ימין	-10.4851
ימו	-10.4858
▁הנשמה	-10.4858
▁למחקר	-10.486
עבר	-10.4861
▁ובה	-10.4861
▁קחו	-10.4863
ערכה	-10.4863
רצונך	-10.4876
לידה	-10.4878
מזרח	-10.4878
רוק	-10.4879
▁הסופר	-10.488
▁נהדרת	-10.4882
▁Al	-10.4883
▁מחירי	-10.4884
▁מסלול	-10.4885
▁טורקיה	-10.4888
▁דרכו	-10.489
▁הרופאים	-10.4893
▁האמריקנית	-10.4893
ke	-10.4894
▁בעצמי	-10.4897
▁סבור	-10.4897
אצ	-10.4898
▁טקסט	-10.4899
▁ברוסיה	-10.4902
▁כשאנחנו	-10.4904
▁ובו	-10.4904
▁הפארק	-10.4904
▁המולד	-10.4907
▁שאמרתי	-10.4909
▁החלום	-10.4915
age	-10.4915
▁רביעי	-10.4919
▁בנייה	-10.492
▁סוכרת	-10.492
va	-10.4921
▁רדיו	-10.4922
מורה	-10.4923
▁חברתיות	-10.4924
▁חברתיים	-10.4931
▁בפרק	-10.4932
פרס	-10.4938
▁מחיי	-10.494
▁הפרסום	-10.4947
▁המכירות	-10.4948
רבי	-10.4952
▁לדון	-10.4954
▁תאים	-10.4955
!)	-10.4956
▁שתוכל	-10.4958
der	-10.4961
▁סגנון	-10.4961
▁למשרד	-10.4963
▁שיטה	-10.4966
and	-10.4968
יתי	-10.4968
▁אלוקים	-10.4968
האדם	-10.4969
מיה	-10.4973
▁מושלמת	-10.4976
▁מעטים	-10.4978
▁בטבע	-10.4979
רגל	-10.498
▁מאחור	-10.4981
ברו	-10.4983
אתם	-10.4985
ארגון	-10.4986
▁ליישם	-10.4988
▁ההודעה	-10.4992
ודה	-10.4992
▁לסגור	-10.4993
▁למשהו	-10.4999
▁ערבי	-10.4999
ru	-10.5002
ts	-10.5003
▁הבנייה	-10.5007
▁חוות	-10.5007
▁להר	-10.5012
▁עדן	-10.5014
▁מטופלים	-10.5021
דבק	-10.5021
▁נורמלי	-10.5021
בון	-10.5022
▁אזרח	-10.5038
▁מקובל	-10.504
▁הקונגרס	-10.5043
▁לניהול	-10.5045
ערים	-10.5047
▁עני	-10.5047
▁אמיתיים	-10.5047
▁אזורי	-10.5051
נתה	-10.5055
▁נשימה	-10.5056
▁דואר	-10.5058
▁הקבוצות	-10.5059
▁בתחומים	-10.506
▁הצפוני	-10.5062
מנים	-10.5066
▁תלמידי	-10.5067
יכו	-10.5069
▁בדברים	-10.5069
▁זכר	-10.5076
חשוב	-10.5078
▁הביקור	-10.5081
צביע	-10.5083
עשרה	-10.5085
רצ	-10.5089
▁תחומי	-10.509
▁אזורים	-10.5091
▁בפרט	-10.5091
▁שרוצה	-10.5092
▁אחריו	-10.5093
רגיש	-10.5094
▁יהוה	-10.5097
פשט	-10.5098
▁שישראל	-10.5098
▁מחבר	-10.5102
▁הלי	-10.5102
▁נותרו	-10.5105
▁נתנו	-10.5107
▁ראייה	-10.511
▁במאבק	-10.5119
היה	-10.5127
רתי	-10.5128
▁הסחר	-10.5128
▁הגר	-10.5134
▁מדהימה	-10.5136
▁בניין	-10.5136
▁שאינן	-10.5137
▁קולות	-10.5137
▁To	-10.5141
▁פור	-10.5142
למד	-10.5144
▁לתואר	-10.5147
▁הרגל	-10.5148
▁תראה	-10.5148
▁מהווים	-10.5148
▁מרק	-10.5154
▁תועלת	-10.5159
שב	-10.516
▁אליכם	-10.516
▁בכיוון	-10.5162
▁ויטמין	-10.5163
▁תזונה	-10.5165
▁מדברת	-10.5166
▁האפשרויות	-10.5173
▁באחת	-10.5173
▁עבורכם	-10.5173
▁תומך	-10.5175
▁קידום	-10.5175
יון	-10.5177
▁יומיים	-10.5186
מידע	-10.5188
▁אומץ	-10.5188
▁הבמה	-10.5191
▁עליהן	-10.5192
▁לממש	-10.5199
▁בהר	-10.5201
▁ולקבל	-10.5202
▁)	-10.5202
90	-10.5203
▁פנימי	-10.5203
▁החופשי	-10.5205
▁נתחיל	-10.5206
נין	-10.5213
▁וצ	-10.5213
▁קונג	-10.5214
▁והאם	-10.5214
▁ההחלטות	-10.5219
▁האוצר	-10.522
▁בבני	-10.5222
▁לזכויות	-10.5222
היקף	-10.5228
▁מדויק	-10.5228
▁חור	-10.5229
באופן	-10.5229
רכב	-10.523
▁טיסות	-10.5235
▁מוחלטת	-10.5235
▁מושב	-10.5239
▁טיפים	-10.5239
▁האלוהים	-10.524
▁מועמד	-10.5242
▁עצומה	-10.5244
▁יישום	-10.5247
בס	-10.5248
▁נער	-10.525
*	-10.5251
▁הרפובליקה	-10.5253
▁מאסר	-10.5253
פרק	-10.5254
bo	-10.5254
j	-10.5255
נושא	-10.5258
▁צפויה	-10.5258
▁הרפואה	-10.526
▁השירים	-10.5262
▁הנרי	-10.5264
▁שרה	-10.5264
▁קליפורניה	-10.5265
▁האחרות	-10.5268
פקד	-10.5272
▁שיעורי	-10.5274
▁מרחב	-10.5276
לן	-10.5282
▁מתרחשת	-10.5283
lu	-10.5283
▁טבעית	-10.5285
▁תופעות	-10.5286
בטח	-10.5286
▁ביי	-10.5287
▁נפל	-10.5293
▁החלטת	-10.5295
▁נהנה	-10.5303
סך	-10.5305
קום	-10.5307
שמו	-10.5309
▁הלהקה	-10.5314
▁הצלב	-10.5314
▁קלי	-10.5314
סופר	-10.5317
ub	-10.5317
▁הציע	-10.5319
▁האישית	-10.532
▁הפו	-10.5325
▁בקושי	-10.5327
▁אג	-10.5327
▁מבקר	-10.5332
▁השפעות	-10.5335
מתן	-10.5336
▁תרופה	-10.5336
ילים	-10.5338
▁חייה	-10.5343
▁חוויות	-10.5344
פעם	-10.5344
▁הנזק	-10.5345
▁באנשים	-10.5345
טרו	-10.5346
היו	-10.5347
▁שתו	-10.5349
▁הבנקים	-10.535
לוט	-10.5351
▁בבעלות	-10.5354
▁סן	-10.5358
▁המשפטי	-10.5359
כתב	-10.536
▁מקווים	-10.5365
▁נודע	-10.5366
▁חכמים	-10.5368
▁ובמיוחד	-10.5369
ard	-10.537
דוד	-10.537
עבד	-10.5371
!!!	-10.5374
▁לביצוע	-10.5376
▁באוניברסיטה	-10.5377
▁מוצק	-10.5379
▁מטוסים	-10.5379
▁המלכה	-10.538
▁מאושרים	-10.5381
▁מורים	-10.5385
▁ואומר	-10.5385
▁מציין	-10.5388
▁אבנים	-10.5392
▁רכבת	-10.5392
▁גורמת	-10.5393
אנה	-10.5396
▁בפרויקט	-10.5397
▁שומרים	-10.54
▁בגן	-10.5404
▁1999	-10.5409
שנים	-10.541
▁לגשת	-10.5411
▁יעשו	-10.5413
אלה	-10.5414
▁מצבים	-10.5416
▁קדוש	-10.5419
טיפול	-10.542
▁עידן	-10.542
▁לתכנן	-10.5422
▁שפורסם	-10.5423
▁שבאמת	-10.5424
▁לסוג	-10.5424
▁צפויים	-10.5424
ירי	-10.5426
▁מתקדמים	-10.5428
▁ודאי	-10.5432
▁האח	-10.5432
▁נתקל	-10.5437
ell	-10.5437
▁שמור	-10.5439
ריק	-10.5442
▁המוסלמים	-10.5443
▁סגן	-10.5443
▁הגל	-10.5447
▁החודשים	-10.5453
▁חיצוני	-10.5454
-70	-10.5454
▁מנהיגות	-10.5456
▁נפוץ	-10.5464
▁במונח	-10.5465
פרו	-10.5469
▁בהודו	-10.547
▁מעו	-10.5471
▁בעזה	-10.5473
▁להגביר	-10.5475
▁בעבור	-10.5476
▁אנוש	-10.5478
▁ניסוי	-10.548
▁משימות	-10.548
▁נולדה	-10.5481
▁פסטיבל	-10.5484
▁לבנים	-10.5484
▁מנ	-10.5486
▁פרטית	-10.5487
מקור	-10.5494
▁הכוונה	-10.55
▁ההצעה	-10.5501
▁An	-10.5501
▁הדרומי	-10.5503
מלא	-10.5507
לינג	-10.5516
▁שלפני	-10.5517
▁לרכב	-10.552
▁האקלים	-10.552
-40	-10.552
גרי	-10.5521
▁שימש	-10.5521
▁באור	-10.5522
▁נכנסים	-10.5523
21	-10.5523
סול	-10.5525
▁להזכיר	-10.5526
▁w	-10.553
הרבה	-10.5531
▁שג	-10.5534
▁סמ	-10.5534
▁תופעה	-10.5536
▁דאעש	-10.5537
▁לבעיות	-10.5544
▁הכדור	-10.5546
ארט	-10.5547
▁ברשימה	-10.5552
▁פיטר	-10.5552
▁כללית	-10.5556
▁הציבורית	-10.5557
ספק	-10.5559
▁לאומית	-10.556
▁הבחור	-10.5561
▁סיני	-10.5561
mp	-10.5563
▁מכשירים	-10.5565
▁רפואית	-10.5566
▁בלא	-10.5566
טק	-10.5567
▁המי	-10.5567
▁ביטול	-10.5568
▁סופ	-10.5571
ידה	-10.5571
לם	-10.5572
▁בתנאים	-10.5574
▁מצוינת	-10.5578
סגר	-10.5579
ריס	-10.5581
▁ציור	-10.5581
▁וחלק	-10.5581
▁העסקה	-10.5582
▁הנייד	-10.5585
▁פניו	-10.5586
▁רמה	-10.5586
▁במו	-10.5586
▁לידה	-10.5588
▁כול	-10.5589
▁שחרור	-10.559
▁דקה	-10.5595
▁המסלול	-10.5597
▁המונח	-10.5599
ist	-10.56
▁חוש	-10.5601
▁ההתנגדות	-10.5602
▁המאסטר	-10.5604
▁דיאטה	-10.5604
▁הון	-10.5605
▁מפחד	-10.5605
▁כרטיסים	-10.5605
▁לעם	-10.5609
▁העמים	-10.5612
▁בפי	-10.5617
▁פשע	-10.5622
סיבת	-10.5625
פרט	-10.5625
▁אופניים	-10.5625
▁עצמאית	-10.5625
▁ספציפי	-10.5627
זאת	-10.5627
▁בצבא	-10.5628
▁נד	-10.5632
▁בצבע	-10.5632
▁לנהוג	-10.5633
▁«	-10.5636
▁אלפים	-10.5636
▁מטבע	-10.5637
▁~	-10.564
▁יוון	-10.5642
▁ולש	-10.5642
▁מעורבות	-10.5644
▁בארגון	-10.5648
und	-10.5652
יצר	-10.5653
▁מסתבר	-10.5656
▁המותג	-10.5656
פלו	-10.5661
▁השתתפות	-10.5662
▁לחיי	-10.5662
▁החיות	-10.5666
▁31	-10.5669
▁קונה	-10.567
מדינת	-10.5673
▁הכרה	-10.5679
▁מנהיגים	-10.5679
▁מובילה	-10.568
▁למשפחה	-10.5681
▁מפורט	-10.5681
▁לאלה	-10.5683
▁הלו	-10.5683
עבוד	-10.5686
שט	-10.5687
ot	-10.5689
▁מצטער	-10.5695
▁שהכל	-10.5698
טיל	-10.57
▁טילים	-10.5702
▁החשבון	-10.5706
▁פגע	-10.5709
▁מועיל	-10.5712
▁פתיחת	-10.5715
אותם	-10.5715
▁הנקרא	-10.5715
▁ובלתי	-10.5716
▁הני	-10.5719
▁המודל	-10.5722
רכי	-10.5732
▁השקט	-10.5734
▁לשתי	-10.5735
▁חן	-10.5735
▁טקס	-10.5736
▁ספרו	-10.5739
▁בניסיון	-10.5742
▁מסת	-10.5746
▁קילומטרים	-10.5746
▁היופי	-10.5747
▁למטרה	-10.5747
▁ברשות	-10.5749
▁שכזה	-10.5752
▁פריז	-10.5753
איר	-10.5754
▁קלוריות	-10.5756
▁וְ	-10.5756
▁תראו	-10.5758
▁לרשת	-10.5761
▁ממליץ	-10.5764
▁מתקדם	-10.5766
זרים	-10.5772
▁לסרט	-10.5773
▁טל	-10.5777
▁וכמו	-10.5779
▁צהוב	-10.578
▁ידועים	-10.5781
▁שפ	-10.5782
לווי	-10.5788
גיל	-10.5788
▁תיאר	-10.5788
▁שבני	-10.5794
▁ומש	-10.5798
▁ידו	-10.5801
פוט	-10.5805
אשר	-10.5808
▁חשובות	-10.5808
▁כח	-10.5809
▁נחשבת	-10.581
▁בוגר	-10.5811
od	-10.5813
▁סביבה	-10.5815
▁תעופה	-10.5815
▁מוחמד	-10.5817
▁רלוונטי	-10.5818
▁השמים	-10.5823
▁עשינו	-10.5823
▁בטרם	-10.583
▁שלח	-10.5833
▁ניצול	-10.5834
▁הדמוקרטיה	-10.5835
צב	-10.5839
▁ניצחון	-10.584
▁סמל	-10.5842
▁מזונות	-10.5844
▁החומרים	-10.5847
▁אויב	-10.5848
▁חזון	-10.5848
▁המודעות	-10.5849
▁לקבוצה	-10.5852
▁המצוי	-10.5853
▁הלימוד	-10.5856
▁שיח	-10.5861
▁שנוכל	-10.5863
▁Office	-10.5866
ver	-10.5867
▁להביע	-10.5875
סס	-10.5879
▁גונג	-10.5881
▁לעניין	-10.5881
▁באנגליה	-10.5882
▁התיירות	-10.5883
▁צמחים	-10.5883
▁תהיו	-10.5883
▁הצבאית	-10.5887
▁תגיד	-10.5889
▁קרו	-10.5889
▁:)	-10.589
זם	-10.589
קין	-10.5891
son	-10.5894
▁למציאות	-10.5897
▁לומד	-10.5902
חשב	-10.5904
▁בקהילה	-10.5909
▁טס	-10.5909
▁החברתיות	-10.5915
פקח	-10.5922
עקב	-10.5923
ודו	-10.5925
▁סיטי	-10.5926
▁פיל	-10.5927
קד	-10.5928
▁שאחרי	-10.593
▁הבדיקה	-10.5934
▁הצעה	-10.5938
▁הרגיש	-10.5938
▁וכאשר	-10.5943
▁e	-10.5943
▁יפים	-10.5945
ריון	-10.5945
45	-10.5946
▁נסע	-10.5946
▁הרוחני	-10.595
שירות	-10.595
▁כשל	-10.5952
כניס	-10.5953
▁חלבון	-10.5958
חיי	-10.5968
▁מקבלת	-10.5968
ֶר	-10.597
▁חוקית	-10.597
▁דלקת	-10.5972
▁המג	-10.5977
בורג	-10.5977
▁בחייו	-10.5979
▁נהנים	-10.598
▁משפטי	-10.5981
▁המחשבות	-10.5981
▁הקולנוע	-10.5987
▁שח	-10.5987
▁רגעים	-10.5989
▁עבורנו	-10.5994
▁חוב	-10.5995
▁סבלנות	-10.5999
▁קשורה	-10.6001
▁פריטים	-10.6003
▁וושינגטון	-10.6003
▁באיטליה	-10.6004
▁עצמאות	-10.6005
▁פולין	-10.6008
קטור	-10.6015
▁המטבע	-10.6015
▁המכון	-10.6015
▁כעס	-10.6021
דוג	-10.6024
▁מלאים	-10.6029
▁קריטי	-10.6034
▁מיועד	-10.6037
בלי	-10.6043
▁פס	-10.6047
▁ומעלה	-10.605
שור	-10.6054
▁זכור	-10.6055
▁כתבי	-10.6056
▁שופט	-10.6056
▁לחם	-10.6057
▁העצמאות	-10.6058
▁הדירה	-10.6061
גרום	-10.6061
▁ברא	-10.6063
▁הליך	-10.6065
▁מסיבות	-10.6066
▁קרח	-10.6068
▁זכרו	-10.6068
▁הפסקת	-10.6069
▁תגובת	-10.6072
▁ניסיתי	-10.6075
▁עבורך	-10.6079
יקים	-10.6079
▁הכלים	-10.6084
▁מוצג	-10.6084
יורק	-10.6088
נסי	-10.6095
▁רפואיים	-10.6098
▁המשותף	-10.61
▁דאגה	-10.6101
לילה	-10.6101
▁סגור	-10.6103
ודד	-10.6107
▁הנחה	-10.6107
▁d	-10.6112
▁האג	-10.6112
▁נותנת	-10.6113
▁נפט	-10.6113
▁הדואר	-10.6116
▁התוכנה	-10.6116
▁השת	-10.6118
▁שלטון	-10.6118
▁חקירה	-10.6119
▁מכר	-10.6121
רום	-10.6122
▁הנסיך	-10.6122
▁האושר	-10.6123
5%	-10.6126
▁וחו	-10.6126
▁h	-10.6127
▁אימא	-10.613
▁קצרים	-10.6131
▁מדריך	-10.6133
ידע	-10.6133
עזר	-10.6134
▁הפועלים	-10.6134
▁תיירים	-10.6136
▁אנושית	-10.6137
▁הצלחתי	-10.6137
▁מעקב	-10.6138
▁משפטית	-10.6139
▁בתמונה	-10.6142
▁זכו	-10.6144
רז	-10.6149
נקו	-10.6152
▁חתול	-10.6153
▁היפה	-10.6159
▁100%	-10.6159
ba	-10.6159
▁300	-10.6161
▁Wi	-10.6162
▁הלכו	-10.6164
▁למדו	-10.6165
ווא	-10.6168
▁מדד	-10.6172
▁לחוש	-10.6173
סיפור	-10.6173
▁נסגר	-10.6174
▁לדברים	-10.6176
▁ישנים	-10.6177
▁המחלקה	-10.6179
▁מחירים	-10.6184
▁1:	-10.6184
01	-10.6185
▁הדרושים	-10.6186
▁הפרלמנט	-10.6187
▁ההשקעה	-10.6189
▁הבת	-10.619
22	-10.6193
יסה	-10.6193
▁מבצעים	-10.6198
▁וול	-10.6204
▁נכשל	-10.6206
▁הסו	-10.6207
▁מייד	-10.6209
קשה	-10.6211
▁לשירות	-10.6212
▁ההיסטורי	-10.6212
▁הקודמים	-10.6217
גרמו	-10.6218
▁נניח	-10.622
▁לְ	-10.6222
▁הרגיל	-10.6222
שמי	-10.6225
▁העיתון	-10.623
▁לפתע	-10.6232
▁שמאפשר	-10.6232
▁רישיון	-10.6234
ציל	-10.6236
▁בסדרה	-10.6237
▁מרוצים	-10.6237
▁הטבעי	-10.6238
▁32	-10.6238
▁ספינות	-10.6239
▁נופל	-10.6241
▁שנית	-10.6243
▁אוקטובר	-10.6244
▁ההשפעות	-10.6246
▁הבטיח	-10.6247
▁פורט	-10.6247
▁משמעותיים	-10.6248
▁דיכאון	-10.6249
▁נשלח	-10.6249
▁תפקידו	-10.6251
פסיק	-10.6253
▁מבנים	-10.6258
▁החברתי	-10.626
תמודד	-10.6266
▁מרחק	-10.6267
בנות	-10.6276
▁ההתחלה	-10.6277
▁נהיגה	-10.6277
▁הינם	-10.6278
▁באירוע	-10.6279
▁הוקם	-10.6279
▁מפ	-10.628
ייס	-10.6281
▁אידיאלי	-10.6282
ָּ	-10.6282
▁מהלך	-10.6289
קהל	-10.6291
▁מודרני	-10.6292
▁הפרס	-10.6293
יכול	-10.6294
▁פעולת	-10.6294
▁יצחק	-10.6295
▁כיסוי	-10.6296
▁שהיתה	-10.6297
▁היטלר	-10.6298
▁ביקר	-10.6299
▁ראשוני	-10.6301
▁נמשיך	-10.6303
▁הפעולות	-10.6303
מתח	-10.6303
▁יעד	-10.6305
▁מוכיח	-10.6305
▁פרחים	-10.6307
▁חזרו	-10.631
ארו	-10.6311
▁המתנה	-10.6312
▁חוקר	-10.6313
‬	-10.6314
▁ונשים	-10.6315
▁האתגרים	-10.6318
חזר	-10.6319
▁מעגל	-10.632
▁דמוקרטיה	-10.632
ולד	-10.6322
וטר	-10.6329
▁קח	-10.6329
▁סופי	-10.6333
▁ושם	-10.6335
אמא	-10.6336
▁להיפטר	-10.6338
▁n	-10.6343
▁לשמר	-10.6345
▁לביקור	-10.6347
▁הראה	-10.6348
פנט	-10.6349
▁אשמח	-10.6352
▁רוחנית	-10.6354
em	-10.6357
▁מרפא	-10.6359
▁האינטרסים	-10.6363
▁דירות	-10.6365
▁נעשו	-10.6367
▁השד	-10.637
▁עוצמה	-10.6374
▁הנאצים	-10.6376
▁ההתנהגות	-10.6378
▁מלה	-10.6379
▁צופים	-10.6382
▁My	-10.6384
▁[[	-10.6385
▁נדרשים	-10.6388
יתן	-10.6389
▁יישאר	-10.639
▁הגעתי	-10.6391
▁הנוסעים	-10.6394
▁שיחק	-10.6395
▁במשרה	-10.6399
▁השליטה	-10.6399
▁בחברת	-10.6399
▁אחורה	-10.64
▁משתנים	-10.6408
▁והכל	-10.6409
▁השיווק	-10.641
▁טבעיים	-10.6423
ud	-10.6423
משך	-10.6424
▁הרחוב	-10.6427
▁והיו	-10.6428
▁בתקשורת	-10.6429
▁הרש	-10.6432
▁בקנה	-10.6438
▁לשוב	-10.6442
▁מגיל	-10.6444
ולוגיה	-10.6445
ty	-10.6446
▁הלכתי	-10.6451
▁הירוק	-10.6452
כתוב	-10.6452
ton	-10.6453
▁נכסים	-10.6455
▁יעלה	-10.6455
▁כאל	-10.646
▁להיפגש	-10.646
▁הרצפה	-10.646
].	-10.6461
▁Home	-10.6461
▁לנקות	-10.6462
עמוד	-10.6465
▁בנושאים	-10.6467
▁עוסק	-10.6467
▁בשלום	-10.6468
▁חובות	-10.6469
▁החתונה	-10.6469
▁נשכח	-10.647
דג	-10.6471
עץ	-10.6472
▁מחייב	-10.6477
▁מעצב	-10.6477
▁משלוח	-10.6477
▁הנישואין	-10.6479
▁גורל	-10.648
▁המיוחד	-10.648
▁בחיפוש	-10.6481
▁הכדורגל	-10.6483
▁יקבלו	-10.6484
גדר	-10.6484
▁לצמצם	-10.6484
▁רשאי	-10.6484
▁מאפשרים	-10.6485
▁במשפט	-10.6485
▁להגנה	-10.6486
▁הצטרף	-10.6491
▁לסטודנטים	-10.6491
ַי	-10.6494
▁הזר	-10.6495
')	-10.6496
▁הכשרה	-10.6498
▁האר	-10.65
▁שצ	-10.65
עלה	-10.6504
▁הבנות	-10.6505
▁קניות	-10.6506
▁ניצח	-10.6507
▁החמישי	-10.6513
▁המניות	-10.6521
▁האימפריה	-10.6521
▁מונה	-10.6521
▁תקבל	-10.6526
▁יקרים	-10.6527
▁מהמ	-10.6529
נטה	-10.6531
▁שעשוי	-10.6535
▁מגן	-10.6535
▁אתגרים	-10.6535
▁עדות	-10.6538
▁אירועי	-10.6539
▁ההון	-10.6544
טופ	-10.6544
▁סוס	-10.6545
▁ומספר	-10.6548
גלה	-10.6549
▁מילות	-10.6554
▁Man	-10.6554
▁מחצית	-10.6556
▁הגורם	-10.6558
▁כפר	-10.6561
▁המכתב	-10.6562
▁לימודים	-10.6563
קדש	-10.6564
▁האמיתיים	-10.6566
").	-10.6566
▁מקצועיים	-10.6566
▁הבתים	-10.657
תך	-10.6571
▁בדו	-10.6573
▁ובכלל	-10.6573
▁גדלה	-10.6573
▁נב	-10.6573
▁פירושו	-10.6576
▁וגדל	-10.6579
▁כתבתי	-10.658
▁שהילד	-10.6583
▁לתקשר	-10.6584
▁סיכונים	-10.6587
▁סכנה	-10.6587
▁הקיצוני	-10.6591
▁האשראי	-10.6591
▁אביה	-10.6592
▁השנתי	-10.6593
▁נוסע	-10.6594
▁לעזרה	-10.6599
▁תור	-10.6601
▁גלוי	-10.6602
▁הנוער	-10.6603
▁הלכה	-10.6613
▁ואחרים	-10.6614
▁חולי	-10.6616
▁לחודש	-10.6616
▁חירות	-10.662
▁מכונות	-10.6622
עמיד	-10.6622
▁ויכול	-10.6622
ess	-10.6623
נצח	-10.6623
▁עסקיים	-10.6624
▁המקצוע	-10.6625
▁ממשל	-10.6626
27	-10.6628
▁דתיים	-10.6629
▁בעסק	-10.663
תעורר	-10.663
▁הוכחה	-10.6633
▁לעצב	-10.6633
ממש	-10.6636
24	-10.6637
▁לחברות	-10.6638
▁באיזו	-10.6638
שתדל	-10.664
▁הערכים	-10.6644
▁הבירה	-10.6644
מרבית	-10.6644
אח	-10.6645
▁הסכסוך	-10.6646
רשה	-10.6647
▁לרצות	-10.6647
אבק	-10.6649
▁תמצאו	-10.6649
▁מופיעה	-10.6653
▁אלכסנדר	-10.666
▁תמשיך	-10.6661
▁עסקית	-10.6661
▁בנפרד	-10.6662
מרים	-10.6663
▁ובעל	-10.6664
▁שעשה	-10.6665
▁מסמך	-10.6665
▁מפגש	-10.6667
▁התשלום	-10.6668
▁הופעות	-10.667
▁מגורים	-10.6672
מסר	-10.6673
צר	-10.6674
▁שהגיעו	-10.6674
▁ספטמבר	-10.6675
מרכז	-10.6676
▁סול	-10.6677
▁פוטר	-10.6678
▁הדמויות	-10.6678
▁יצירות	-10.6678
▁לפעילות	-10.6684
▁הקלה	-10.6687
▁נציג	-10.6688
אבא	-10.669
▁רגילה	-10.6691
נפ	-10.6691
▁האלימות	-10.6694
▁בכירים	-10.6695
▁לז	-10.6704
▁דורשים	-10.6704
משחק	-10.6704
חקר	-10.6705
▁ייחודית	-10.6707
▁בעצמם	-10.6708
mer	-10.6709
▁העץ	-10.6713
▁בתנאי	-10.6714
▁הרבים	-10.6715
▁בסי	-10.6718
▁לסדר	-10.672
▁הנדרש	-10.6721
משפחה	-10.6722
▁לחגוג	-10.6722
▁ביצע	-10.6724
▁נכונות	-10.6724
▁העובדות	-10.6727
סע	-10.6729
▁הספינה	-10.673
▁מחלקת	-10.6733
▁עלתה	-10.6735
▁לקום	-10.6743
▁For	-10.6745
▁משתתפים	-10.6746
ווין	-10.675
▁הנושאים	-10.6751
יאה	-10.6753
שכר	-10.6753
▁ריכוז	-10.6754
▁הדגיש	-10.6755
▁המלאה	-10.6756
▁הרגשות	-10.6756
▁ברח	-10.6758
▁שנשאר	-10.6759
99	-10.676
▁ברחובות	-10.6764
ָּ	-10.6769
גמר	-10.6771
▁להסתיר	-10.6772
▁המשיכו	-10.6772
▁העשרים	-10.6773
▁בסכנה	-10.6773
▁הטיסה	-10.6774
▁משלמים	-10.6774
26	-10.6777
▁2:	-10.6779
▁היסוד	-10.6781
▁עמי	-10.6783
יקו	-10.6783
▁שתיים	-10.6787
בוי	-10.6788
ייד	-10.6788
▁רוחני	-10.6789
▁בנה	-10.6789
▁סמוך	-10.679
▁ופיתוח	-10.6792
▁עמדת	-10.6794
▁הקיסר	-10.6795
▁נובמבר	-10.6796
בצע	-10.6801
▁מלונות	-10.6802
▁שנח	-10.6803
▁הפרי	-10.6804
▁שגר	-10.6804
▁חלקית	-10.6805
▁הבי	-10.681
▁תומכים	-10.6811
▁לעת	-10.6813
▁הכחול	-10.6814
יהודי	-10.6814
ייל	-10.6814
▁מהחיים	-10.6816
▁התחילה	-10.682
▁הפועל	-10.6821
▁הוכיח	-10.6824
▁עשית	-10.6827
▁מתנגד	-10.6827
▁דבריו	-10.6829
▁מוסלמים	-10.6829
המ	-10.6829
▁קישור	-10.683
▁נאלצ	-10.683
▁עצמן	-10.6835
▁מעניינים	-10.6836
▁הסרטן	-10.684
▁הפרו	-10.6841
קפה	-10.6841
ֵי	-10.6841
▁הקיימים	-10.6846
▁בירה	-10.6847
ואי	-10.685
▁במידע	-10.6851
▁בט	-10.6852
▁השניה	-10.6852
מספר	-10.6853
▁לעסק	-10.6857
סוג	-10.6857
mi	-10.6858
▁הגענו	-10.6859
▁כוונה	-10.6863
▁מתכננים	-10.6864
▁ולפעמים	-10.6864
▁לקידום	-10.6865
▁מחובר	-10.6876
▁הילדה	-10.6876
פורט	-10.688
▁האומה	-10.6881
▁אסון	-10.6882
▁רשויות	-10.6884
he	-10.6884
▁הקיר	-10.6884
▁מאלה	-10.6887
▁במדיניות	-10.6888
▁כרטיסי	-10.6896
ותיהם	-10.6898
▁עמית	-10.6901
▁ואנשי	-10.6903
פסק	-10.6907
▁שפע	-10.6909
▁ייתן	-10.691
קוד	-10.6911
▁150	-10.6913
שבת	-10.6914
▁מרטין	-10.6914
▁שקשור	-10.6915
▁התודעה	-10.6915
▁ברגל	-10.692
▁קנדי	-10.692
מפ	-10.6921
▁הלוואי	-10.6922
▁הקשור	-10.6924
▁פנימית	-10.6926
▁במוזיאון	-10.6927
▁האוקיינוס	-10.6928
▁נישואין	-10.693
מוות	-10.6935
▁פתוחים	-10.6938
ילות	-10.694
▁הוצאת	-10.6941
▁קישורים	-10.6941
קבוצה	-10.6941
פלא	-10.6942
=	-10.6945
▁נוהג	-10.6946
ni	-10.6952
▁שבר	-10.6952
▁לקחו	-10.6954
▁מוסד	-10.6956
▁הצדק	-10.6961
▁חווים	-10.6962
▁דמויות	-10.6964
▁ויליאם	-10.6964
▁מוסיף	-10.6965
▁השאיר	-10.6966
▁בכיתה	-10.6966
▁משוכנע	-10.697
גוד	-10.6971
▁עצים	-10.6971
▁מעצר	-10.6972
▁שיו	-10.6975
▁סבא	-10.6976
▁הנהר	-10.6976
▁תחרותי	-10.6977
▁זוגות	-10.6978
▁לעצמה	-10.6979
▁הקיים	-10.6982
▁קורבנות	-10.6985
▁מענה	-10.6986
▁עמודים	-10.6988
▁המלצות	-10.6989
▁סימני	-10.6991
▁בחינוך	-10.6992
-90	-10.6992
▁בשילוב	-10.6993
est	-10.6995
▁החשיבות	-10.6996
לפי	-10.6998
▁פלסטין	-10.7002
▁צרפתי	-10.7003
▁מלח	-10.7003
שחרר	-10.7004
▁עולים	-10.7006
ערב	-10.7007
▁בעונה	-10.701
ניתן	-10.7011
▁ישראלית	-10.7012
▁הגרמנית	-10.7012
oo	-10.7012
▁מחברי	-10.7013
▁סיור	-10.7015
שמת	-10.7015
אמי	-10.7019
ex	-10.7021
עלות	-10.7022
▁שהכי	-10.7024
▁הכתוב	-10.7026
▁הקצר	-10.7029
▁מוזמנים	-10.703
עדיף	-10.7033
ment	-10.7035
▁הכר	-10.7039
▁בהתחשב	-10.7039
▁מגניב	-10.7041
▁להשגת	-10.7042
▁שנעשה	-10.7042
▁הסכמה	-10.7043
▁מתאימים	-10.7044
▁ויי	-10.7046
▁התואר	-10.7048
▁קרקע	-10.7051
▁עקבו	-10.7054
יעה	-10.7055
▁ואכן	-10.7056
▁בימינו	-10.7057
▁אספקת	-10.7058
▁לכבוד	-10.706
▁מקומית	-10.7062
ביר	-10.7065
▁העומד	-10.7066
▁השלכות	-10.7068
ng	-10.707
▁ברוך	-10.7073
▁גי	-10.7073
אבד	-10.7076
ובי	-10.7076
▁דיבור	-10.7076
▁צור	-10.7077
▁יג	-10.7078
▁קסם	-10.7079
▁חדרים	-10.7082
▁למחשב	-10.7082
עריכת	-10.7083
▁בראשית	-10.7084
מינו	-10.7084
tra	-10.7085
▁לרופא	-10.709
▁הסיכוי	-10.7092
▁למסע	-10.7093
▁באפשרותך	-10.7099
רוז	-10.71
▁החליטו	-10.7104
▁שנאה	-10.7104
▁טיפש	-10.7104
▁להתעורר	-10.7105
Q	-10.7112
▁השעון	-10.7114
▁ולעשות	-10.7118
צפה	-10.7118
נצל	-10.7118
▁עסקה	-10.7121
▁נובע	-10.7122
תחת	-10.7123
▁עונת	-10.7123
▁מאתגר	-10.7125
▁הסופית	-10.7125
▁לעסוק	-10.7126
נחל	-10.7127
גיד	-10.7128
▁כשהייתי	-10.7129
▁מועדון	-10.7132
▁48	-10.7132
▁התחושה	-10.7136
go	-10.7136
▁היחס	-10.7137
מזג	-10.7142
▁No	-10.7156
ap	-10.7158
▁ומתי	-10.716
▁להשיב	-10.716
▁בראיון	-10.7161
▁קולו	-10.7162
▁→	-10.7165
▁שעושה	-10.7166
▁מנהלי	-10.7167
▁ניגש	-10.7167
▁דיוק	-10.7168
חזיר	-10.7173
▁שנוצר	-10.7173
▁וקל	-10.7174
▁פרש	-10.7177
הפסד	-10.7177
▁החיצוני	-10.718
▁הפיננסי	-10.718
▁מעדיפים	-10.7181
▁פיננסי	-10.7181
▁הביאו	-10.7183
▁בעיית	-10.7191
תוכנית	-10.7193
▁הסכום	-10.7196
רצי	-10.7198
▁טיפולים	-10.7199
ודר	-10.72
אלו	-10.72
▁לעסקים	-10.7203
▁שלושים	-10.7205
▁עיתונאים	-10.7206
▁לנשיא	-10.7207
▁הראשוני	-10.721
▁חופשיים	-10.721
▁הבנת	-10.7212
▁דורשת	-10.7213
▁דתי	-10.7214
▁המפגש	-10.7218
רווח	-10.7221
▁האישיות	-10.7223
▁ברזיל	-10.7226
35	-10.7227
▁>>	-10.7227
▁באחריות	-10.7227
▁כושר	-10.7227
▁ניק	-10.723
▁ובעיקר	-10.7231
▁בעמוד	-10.7234
▁המד	-10.7241
▁מהותי	-10.7241
▁גברת	-10.7242
ערכים	-10.7247
▁מקלט	-10.725
▁זמנים	-10.725
▁משלהם	-10.7252
▁לכולנו	-10.7253
▁חווית	-10.7256
▁המושלם	-10.7256
32	-10.7263
▁תח	-10.7265
▁בכם	-10.7266
סופ	-10.7268
▁בתל	-10.7269
▁פגש	-10.7269
▁ארבעת	-10.727
▁סוכנות	-10.7271
▁רעה	-10.7271
▁הצרפתית	-10.7272
▁איחוד	-10.7274
▁חז	-10.7276
▁השמאל	-10.7281
ES	-10.7283
נטלי	-10.7285
▁שוויון	-10.7285
▁מובילים	-10.7287
▁יביא	-10.7295
▁בתמורה	-10.7296
▁צעק	-10.7298
וויל	-10.7305
▁לבכות	-10.7307
▁מלווה	-10.731
מדינה	-10.7311
▁הסתיימה	-10.7312
▁העובד	-10.7314
▁הפסקה	-10.7317
▁קורסים	-10.7319
▁לגברים	-10.7319
▁רעש	-10.7325
▁מלחמות	-10.7327
▁בסיסי	-10.7331
▁לארצות	-10.7332
▁קשיים	-10.7334
33	-10.7334
▁פרקים	-10.7336
▁כמוך	-10.7338
ביל	-10.734
▁מנהיגי	-10.7344
▁הדמות	-10.7346
יפות	-10.7348
▁מיידית	-10.7349
סוס	-10.735
▁הקשורות	-10.7351
▁נעליים	-10.7355
be	-10.7357
▁קומ	-10.7357
%)	-10.7359
▁באר	-10.7364
▁להפיק	-10.7367
▁מספרת	-10.737
▁יציב	-10.7373
▁מעריכים	-10.7373
▁שאדם	-10.7375
▁חוט	-10.7376
▁שראיתי	-10.7376
▁משוגע	-10.7379
▁שומעים	-10.7379
▁הודעת	-10.7379
▁שוקולד	-10.7383
▁שתוכלו	-10.7385
▁בנסיבות	-10.7388
▁התחלה	-10.7388
▁בהיר	-10.7388
שלום	-10.7389
▁סיפרה	-10.739
ספ	-10.7392
▁ראתה	-10.7393
▁לטייל	-10.7394
▁Ro	-10.7394
חזור	-10.7395
▁לממשלה	-10.7395
▁האיכות	-10.7397
▁האקדמיה	-10.7397
▁רישום	-10.7399
▁Bo	-10.7399
▁מוסר	-10.74
▁השופט	-10.7401
וקי	-10.7401
▁שאלת	-10.7408
זים	-10.7408
▁אדיר	-10.741
55	-10.7413
▁מתוק	-10.7416
▁ההו	-10.7418
קבע	-10.7418
▁בנ	-10.7423
▁מכון	-10.7424
▁אחים	-10.7425
▁העליונה	-10.7428
▁m	-10.743
▁חמורה	-10.7431
▁הערות	-10.7434
▁נשארו	-10.7435
our	-10.7435
▁אזרחות	-10.7437
▁למסקנה	-10.7437
▁המוכר	-10.7441
▁התערוכה	-10.7444
ציר	-10.7452
▁משלב	-10.7453
דתי	-10.7454
▁ביכולת	-10.7455
▁והחל	-10.7455
▁בשיעור	-10.7457
▁הכותרת	-10.7461
▁אפס	-10.7464
▁מונע	-10.7464
▁בכבוד	-10.7467
▁שהעולם	-10.7467
▁טהור	-10.7468
▁בסעיף	-10.7469
▁מחסור	-10.7471
▁לגדל	-10.7474
ראי	-10.7476
מאות	-10.7478
מאי	-10.7478
▁פליטים	-10.7481
▁החתול	-10.7487
אכזב	-10.7488
ביה	-10.7488
▁הפדרלי	-10.7491
▁העשיר	-10.7492
פגש	-10.7493
om	-10.7494
▁שמשהו	-10.7495
▁חובת	-10.7497
▁אעשה	-10.7498
▁בהתבסס	-10.75
▁הול	-10.7503
▁כרגיל	-10.7503
▁פרנסיסקו	-10.7506
▁World	-10.7508
▁מצביע	-10.751
▁הבו	-10.7511
צבע	-10.7512
קני	-10.7513
▁עבורם	-10.7516
▁התאים	-10.7517
▁הביולוגי	-10.7518
עצב	-10.7525
▁השיב	-10.7527
▁ערכי	-10.753
גנב	-10.7532
up	-10.7534
▁קושי	-10.7536
▁אדמות	-10.7536
▁ילדי	-10.7538
▁נמכר	-10.7539
▁למדינות	-10.7539
בכל	-10.754
▁וילדים	-10.7541
▁בסמים	-10.7542
▁לפתרון	-10.7544
עלינו	-10.7548
דם	-10.7551
אובדן	-10.7552
▁הנביא	-10.7552
רין	-10.7555
▁הכנסות	-10.7555
▁התייחס	-10.756
▁יצליח	-10.7561
▁ללב	-10.7563
רוש	-10.7565
▁מוקדמת	-10.7567
▁להתפתחות	-10.7569
▁ההי	-10.757
▁תורה	-10.7573
▁אזהרה	-10.7576
▁לאישה	-10.7576
▁דומות	-10.7577
▁מתנות	-10.758
36	-10.7583
▁לנוע	-10.759
▁גובה	-10.759
▁הקסם	-10.7591
רלי	-10.7593
▁המקומיים	-10.7595
▁מאיפה	-10.7596
▁אנ	-10.7597
▁תשעה	-10.7598
tt	-10.7598
▁הגידול	-10.7598
בלים	-10.7602
▁Con	-10.7602
אמין	-10.7602
▁ופשוט	-10.7603
▁תג	-10.7603
▁יציבות	-10.7606
▁תלויה	-10.7609
▁הגבוהים	-10.761
בט	-10.7613
▁One	-10.7618
▁Do	-10.7619
▁בדקו	-10.762
▁לעוד	-10.7623
כולם	-10.7623
שול	-10.7624
▁טייס	-10.7627
▁הפנימית	-10.7627
ציב	-10.7627
בירה	-10.7628
▁ניסויים	-10.763
▁Ca	-10.7631
▁יחדיו	-10.7631
▁מתבצע	-10.7633
▁Pa	-10.7636
▁חכמה	-10.7636
▁היותר	-10.7637
ילו	-10.7638
▁כריס	-10.7639
▁מתכוונים	-10.7639
▁קוק	-10.764
ברג	-10.7641
▁אט	-10.7642
▁חקר	-10.7643
▁היעדר	-10.7643
שש	-10.7646
▁שמים	-10.7647
▁גרמני	-10.7651
▁מיום	-10.7652
▁גמור	-10.7655
▁יגיעו	-10.7656
▁אירלנד	-10.7656
▁הדלק	-10.7658
▁סטודנט	-10.7658
▁המצלמה	-10.766
ותם	-10.7663
▁שרבים	-10.7665
▁נוגע	-10.7666
זכות	-10.7666
▁גרסה	-10.7668
▁באפריקה	-10.767
▁היצירה	-10.767
▁הארגונים	-10.7672
▁1.	-10.7678
▁תום	-10.7679
▁חוף	-10.7679
▁עיראק	-10.7692
▁שווי	-10.7694
▁יומי	-10.7696
▁הגבולות	-10.7701
▁העוסק	-10.7703
▁האתגר	-10.7703
▁המכ	-10.7704
▁גנב	-10.7705
▁לגעת	-10.7706
▁התגלה	-10.7707
▁36	-10.7709
▁לאמץ	-10.771
▁זרע	-10.771
▁המקצועי	-10.771
▁וכדי	-10.7711
IT	-10.7711
▁New	-10.7714
▁הטקסט	-10.7715
▁כהן	-10.7715
▁דיוויד	-10.7716
▁במבט	-10.7716
גים	-10.7717
▁מגלים	-10.7717
▁החיסון	-10.7718
▁דוגמא	-10.772
▁לאינטרנט	-10.772
▁תהליכים	-10.7722
▁זיהוי	-10.7723
▁לתוצאות	-10.7724
▁בידיים	-10.7725
גובה	-10.7727
לוגי	-10.7728
▁שטר	-10.7728
▁מרכיב	-10.773
▁הטעם	-10.7731
av	-10.7732
▁הדרוש	-10.7732
יסטים	-10.7732
▁הוכח	-10.7738
▁נאמנות	-10.774
▁תיאטרון	-10.774
וצג	-10.7743
▁בשאלה	-10.7746
שבע	-10.7746
▁סמית	-10.7754
▁מסחרי	-10.7754
▁מודאג	-10.7755
▁וסי	-10.7755
▁בגדה	-10.7756
▁לאשר	-10.7758
▁תכניות	-10.7758
▁שאיש	-10.776
▁לתוכנית	-10.7762
▁ואנשים	-10.777
▁Ch	-10.7771
▁ייקח	-10.7771
▁להרים	-10.7771
פיו	-10.7772
▁לאותו	-10.7773
▁ושי	-10.7776
נער	-10.7776
▁החליטה	-10.7776
▁מארק	-10.7776
▁חייך	-10.7776
▁מילא	-10.7777
▁מביאים	-10.7778
▁חשד	-10.7779
▁ילדות	-10.7781
▁המוני	-10.7783
▁הלוואה	-10.7784
▁דרכי	-10.7784
▁לשבור	-10.7784
▁בקשת	-10.7784
▁כשיש	-10.7786
חור	-10.7786
▁לצערי	-10.7789
▁משטח	-10.7796
▁המיקום	-10.7797
▁ינואר	-10.78
▁רפואה	-10.78
▁כנס	-10.7801
bi	-10.7804
▁All	-10.7805
▁דעה	-10.7805
che	-10.7806
יבו	-10.7808
▁במשהו	-10.781
ייחס	-10.7813
▁חיו	-10.7815
▁החלומות	-10.7817
איי	-10.782
סתר	-10.7822
▁דני	-10.7824
ימות	-10.7824
אגד	-10.7826
▁הרס	-10.7826
▁נחוש	-10.783
▁הדוק	-10.7835
▁קבל	-10.7835
▁יצאה	-10.7836
US	-10.7837
▁ביולוגי	-10.7837
▁דן	-10.7838
▁מאמן	-10.7841
▁HIV	-10.7843
▁הבקשה	-10.7844
▁t	-10.7844
דברים	-10.7846
▁הוריו	-10.7848
▁הוד	-10.7849
IS	-10.785
▁המובילים	-10.785
▁יחזור	-10.7851
▁לברר	-10.7851
▁דרמטי	-10.7852
▁תמצא	-10.7854
AS	-10.7855
▁לאל	-10.7856
▁ולראות	-10.7858
כב	-10.7859
דמי	-10.7859
▁קיצוני	-10.7862
▁ערוץ	-10.7863
▁האבטחה	-10.7864
▁המשיכה	-10.7865
▁המתח	-10.7866
▁הצטרפו	-10.7866
▁והכי	-10.7867
פחד	-10.787
עביר	-10.7872
▁שהחל	-10.7872
▁הנכס	-10.7872
▁המוסיקה	-10.7873
▁הבינו	-10.7883
▁במרחב	-10.7884
ואן	-10.7885
▁לאחת	-10.7885
נץ	-10.7889
▁הקרח	-10.7889
▁אנה	-10.7891
מבי	-10.7894
שימוש	-10.7895
▁איגוד	-10.7895
▁הטבעית	-10.7901
שמאל	-10.7901
▁כישלון	-10.7903
▁צופה	-10.7903
להרשות	-10.7904
לפני	-10.7904
ילדים	-10.7905
▁לקהל	-10.7908
▁אסירים	-10.7909
▁יצטרכו	-10.7915
▁השבת	-10.7915
▁הרוגים	-10.7916
▁להתפתח	-10.7917
▁משלם	-10.7918
▁הוראה	-10.7918
▁להגשים	-10.792
▁ברוח	-10.792
▁מקדש	-10.7924
▁מעריך	-10.7926
▁ובעלי	-10.793
▁הקורס	-10.793
▁אכל	-10.7932
▁הסוד	-10.7932
▁רצתה	-10.7933
▁בודדים	-10.7934
▁מוט	-10.7934
▁המטבח	-10.7938
▁החולה	-10.7939
▁וטוב	-10.7939
▁המועדון	-10.7941
▁בז	-10.7944
▁אחרונה	-10.7944
▁לבדו	-10.7946
▁Mar	-10.7946
פסי	-10.7951
בגד	-10.7952
▁הרווח	-10.7952
▁מייסד	-10.7953
▁Ra	-10.7959
▁זכאי	-10.796
▁שכתב	-10.7964
▁סבתא	-10.7966
AR	-10.7968
▁אחות	-10.797
גינה	-10.7973
▁פלסטינית	-10.7974
כרת	-10.7974
▁אורחים	-10.7975
מרי	-10.7976
▁נזכר	-10.7977
גברים	-10.7982
▁זילנד	-10.7986
▁הפגישה	-10.7986
▁צחק	-10.7991
תהליך	-10.7991
בעל	-10.7991
פון	-10.7993
Fi	-10.7994
מלי	-10.7994
▁לואיס	-10.7996
טפל	-10.7996
▁לתקוף	-10.7997
▁שיצר	-10.7999
ניסיון	-10.8002
▁ימצא	-10.8002
▁נדבר	-10.8003
קצב	-10.8007
▁ההתפתחות	-10.8009
▁הסיוע	-10.8011
אמצע	-10.8011
▁לעשן	-10.8014
▁דתית	-10.8019
▁מיי	-10.8021
▁תפס	-10.8021
▁דצמבר	-10.8024
▁פוגע	-10.8026
▁ענקית	-10.8026
tic	-10.8029
pa	-10.8029
▁במס	-10.803
צדק	-10.8031
▁קובץ	-10.8032
שמש	-10.8033
▁ההבדלים	-10.8037
04	-10.8045
▁כאבי	-10.8048
▁רעים	-10.8051
▁ילדיהם	-10.8053
▁Ha	-10.8054
גרפיה	-10.8055
▁הלוח	-10.8056
▁נפוצה	-10.8057
▁i	-10.8057
▁הדר	-10.8058
▁ידיים	-10.8058
▁מחכים	-10.8059
▁בשבת	-10.8062
▁תגיות	-10.8063
▁פלילי	-10.8063
▁פרשת	-10.8064
▁מפת	-10.8069
▁לכבד	-10.8071
-24	-10.8072
▁גשם	-10.8073
▁כביש	-10.8074
▁וזהו	-10.8074
▁שעליו	-10.8075
▁תפילה	-10.8075
▁הרעיונות	-10.8076
▁החקירה	-10.8078
מערך	-10.8078
נקה	-10.8082
▁למחוק	-10.8084
מאר	-10.8085
RI	-10.8089
ואר	-10.809
▁דג	-10.8093
▁שעון	-10.8093
▁בכנס	-10.8094
▁ידעה	-10.8095
▁Love	-10.8096
▁להורים	-10.8098
ליט	-10.8099
▁לדרוש	-10.8101
▁חווה	-10.8104
▁מצביעים	-10.8106
▁יצירה	-10.8108
שמות	-10.8111
▁משמשים	-10.8112
▁מופע	-10.8112
▁שנולד	-10.8117
▁בלו	-10.8117
▁שבית	-10.8117
▁והא	-10.8119
▁רד	-10.8126
▁המידה	-10.8127
▁So	-10.8128
ai	-10.8128
▁נמוכים	-10.813
▁קלינטון	-10.813
ak	-10.8131
חמישה	-10.8132
דא	-10.8132
▁מפריע	-10.8134
סחר	-10.8135
עט	-10.8136
יופי	-10.8137
▁קינג	-10.8143
▁מופיעים	-10.8145
57	-10.8147
▁אֶת	-10.8148
▁האחורי	-10.8148
▁טיימס	-10.8149
▁גורמי	-10.8154
▁בבי	-10.8154
עיל	-10.8156
▁התוכניות	-10.8156
קרן	-10.8157
▁הכבד	-10.8157
▁אפריל	-10.8158
▁מסורת	-10.8159
▁בניהול	-10.8159
▁מטה	-10.8161
מוח	-10.8161
▁בחנות	-10.8162
▁הספיק	-10.8163
▁שרת	-10.8163
ּוֹ	-10.8164
אינ	-10.8165
▁בחורף	-10.8172
▁למנהל	-10.8172
▁אבות	-10.8177
▁בפארק	-10.8177
מחקר	-10.8178
▁הורי	-10.818
▁ואו	-10.8183
▁מפה	-10.8184
▁כולן	-10.8185
▁המדעי	-10.8186
▁משלה	-10.8188
▁ספרות	-10.8191
רכיב	-10.8193
▁צליל	-10.8195
ובה	-10.8196
▁סירב	-10.8197
צריך	-10.8197
▁נקראת	-10.8199
▁רגשית	-10.8201
▁סודות	-10.8201
תיבת	-10.8202
▁הפתיחה	-10.8203
▁תנועות	-10.8204
▁בעשור	-10.8204
▁מרתק	-10.8205
▁אלן	-10.821
▁הגעת	-10.8211
▁האמור	-10.8211
שיעור	-10.8212
▁מידת	-10.8213
▁טא	-10.8215
רץ	-10.8216
סתי	-10.8223
di	-10.8227
▁המועמד	-10.8229
tor	-10.8229
▁משקאות	-10.8232
▁ריי	-10.8233
▁עוזרים	-10.8234
▁ומדוע	-10.8235
▁טענה	-10.8237
▁שלישית	-10.8237
▁מחויבות	-10.8239
▁גאים	-10.8243
חם	-10.8243
▁לגייס	-10.8243
▁אלכס	-10.8246
▁נציגי	-10.8247
▁היקר	-10.8249
▁שק	-10.8253
יגת	-10.8253
▁לרעה	-10.8254
▁הפוך	-10.8258
▁המהיר	-10.8259
ian	-10.826
▁עז	-10.826
כמעט	-10.8263
ימת	-10.8264
▁התחל	-10.8264
ללא	-10.8267
▁מהאנשים	-10.8267
▁Lo	-10.827
מב	-10.827
▁נכס	-10.8271
▁חשים	-10.8274
▁Human	-10.8276
▁לבוש	-10.8277
לוס	-10.8277
▁בעבודת	-10.8281
▁דיווחו	-10.8284
▁במהרה	-10.8285
▁1967	-10.8288
▁ימשיכו	-10.829
▁זרה	-10.8291
▁IP	-10.8291
▁חמים	-10.8292
▁האנטי	-10.8293
לקוחות	-10.8293
▁לחצו	-10.8293
▁צהריים	-10.8297
▁הגזע	-10.8298
▁עשורים	-10.8301
▁הניהול	-10.8304
▁הכריז	-10.8309
▁היסטורית	-10.831
▁המנהלים	-10.8313
▁באיראן	-10.8313
▁לארגון	-10.8314
▁פנ	-10.8315
▁לניו	-10.8315
▁טיפ	-10.8316
החיים	-10.8317
▁כמוני	-10.8318
יחס	-10.8318
▁(1)	-10.8318
כית	-10.8321
קדמו	-10.8322
תחנת	-10.8323
▁משטר	-10.8323
כוונת	-10.8325
▁מבקשת	-10.8325
▁מסעדות	-10.8327
▁הפרעות	-10.833
ear	-10.8333
▁בדף	-10.8333
29	-10.8334
▁המתים	-10.8335
▁כלכליים	-10.834
▁באהבה	-10.834
וץ	-10.834
אדי	-10.8341
מצו	-10.8342
▁מבטא	-10.8344
37	-10.8349
▁הייחודי	-10.8351
???	-10.8352
▁פגישה	-10.8352
▁מתכוונת	-10.8354
▁Q	-10.8354
▁נוטה	-10.8355
חופש	-10.8357
ec	-10.8358
▁המורים	-10.8359
23	-10.836
▁נסה	-10.8365
▁חפ	-10.8368
▁ההבנה	-10.8369
▁יראה	-10.8369
▁לרפואה	-10.8369
▁ימשיך	-10.8371
▁העירייה	-10.8372
▁אישר	-10.8372
▁נסיעות	-10.8374
▁פיליפ	-10.8376
▁לחינוך	-10.8377
חיות	-10.8379
צבא	-10.8381
▁כף	-10.8384
▁עצה	-10.8384
▁ידענו	-10.839
▁מעשים	-10.8391
יבר	-10.8391
▁היקף	-10.8391
כח	-10.8392
ובס	-10.8394
port	-10.8397
▁נישואים	-10.8397
▁בור	-10.8398
למשל	-10.8398
▁מאנשים	-10.8404
▁אצלי	-10.8408
▁בבסיס	-10.8409
גישה	-10.841
▁דגש	-10.8412
וכח	-10.8412
▁ספציפיים	-10.8413
▁העסקי	-10.8413
▁שווים	-10.8414
▁טענות	-10.8416
▁מחויבים	-10.8418
▁מכונה	-10.8421
תודה	-10.8422
`	-10.8425
}	-10.8425
▁ההזמנה	-10.8425
▁המשותפת	-10.8425
▁המדויק	-10.8425
▁רושם	-10.8427
▁אמריקני	-10.8428
▁הופעת	-10.8428
▁אמנים	-10.8428
▁נוצרים	-10.843
▁נשמה	-10.8433
חדש	-10.8434
OS	-10.8436
▁יושבים	-10.8438
▁הרשמית	-10.8438
▁ותמיד	-10.8438
▁בערים	-10.8439
היום	-10.8439
▁נעלמו	-10.8439
▁מעניינת	-10.8441
▁1996	-10.8441
ance	-10.8442
▁יריב	-10.8442
▁הבהיר	-10.8449
▁אשמה	-10.845
▁בעברית	-10.845
▁נגיש	-10.8451
▁להקמת	-10.8451
▁מקסיקו	-10.8454
חברים	-10.8454
▁בתעשיית	-10.8455
▁הכירו	-10.8461
▁החזון	-10.8465
▁דווח	-10.8466
▁ולכל	-10.8468
▁חב	-10.847
ial	-10.8471
▁העד	-10.8471
▁עוקב	-10.8472
▁מוגדר	-10.8475
▁למדיניות	-10.8477
PA	-10.8478
▁אמה	-10.8479
▁כשר	-10.8482
▁לפחד	-10.8483
▁הרביעית	-10.8484
▁שוקל	-10.8484
▁הצורה	-10.8485
▁קנה	-10.8487
▁יחידה	-10.8488
חומר	-10.8489
▁מוסלמי	-10.8495
▁נערה	-10.8495
וקס	-10.8496
תרגל	-10.8499
▁1995	-10.8501
▁טועה	-10.8502
▁בתוכו	-10.8502
▁שהביא	-10.8504
▁זקוקה	-10.8505
▁סייע	-10.8505
▁רצינית	-10.8507
מנ	-10.8507
ps	-10.8508
צית	-10.851
▁דורות	-10.8512
▁התשובות	-10.8513
מעו	-10.8517
שלם	-10.8517
$	-10.8519
▁זקן	-10.8522
▁אחרון	-10.8524
▁הסימפטומים	-10.8525
▁הצפון	-10.8527
▁נלקח	-10.8527
בלה	-10.8528
▁בדירה	-10.8529
רדי	-10.853
▁עדכון	-10.8531
▁המרחק	-10.8531
▁תרומה	-10.8531
▁מפעל	-10.8532
▁אחראית	-10.8539
כפר	-10.854
▁האורחים	-10.8542
▁33	-10.8543
▁המשפחות	-10.8544
▁הסיכויים	-10.8545
לומד	-10.8546
▁הירי	-10.8548
▁התקשר	-10.8548
▁האיראני	-10.8553
ניח	-10.8555
▁מנו	-10.8556
▁נמצאות	-10.8558
מצב	-10.8559
▁נכנסו	-10.856
▁נחש	-10.856
▁קרל	-10.8562
▁בריטי	-10.8563
ולט	-10.8565
▁עוזב	-10.8567
ופר	-10.8568
ster	-10.8571
תינוק	-10.8572
כמות	-10.8575
▁נכונים	-10.8576
▁1998	-10.8576
▁1997	-10.8576
▁הצהיר	-10.8577
▁הרגשה	-10.8577
▁המצ	-10.8579
▁מתמודדים	-10.858
▁10%	-10.8583
▁נעשית	-10.8584
▁מייצר	-10.8584
▁מתקבל	-10.8585
PS	-10.8586
לכו	-10.8586
▁שביל	-10.8587
▁איתן	-10.8592
▁בחייהם	-10.8593
▁מסדר	-10.8594
אישה	-10.8599
▁אשתי	-10.8602
▁ארוחות	-10.8605
▁לצחוק	-10.8605
נברג	-10.8606
▁תמיכת	-10.8606
קנו	-10.8608
▁רוסי	-10.8612
נחת	-10.8616
▁שחל	-10.8619
קח	-10.8619
▁הופיעו	-10.8623
▁הדרום	-10.8626
▁עמוס	-10.8629
ary	-10.8629
▁המנוע	-10.863
▁החזר	-10.8631
▁הלכת	-10.8632
▁מסייע	-10.8638
גורמים	-10.8641
▁מאמצים	-10.8642
חש	-10.8642
▁בחודשים	-10.8644
▁is	-10.8645
ריח	-10.8649
▁Watch	-10.8652
▁להכיל	-10.8652
▁400	-10.8653
▁התחבורה	-10.8654
▁כשמדובר	-10.8656
חצי	-10.8658
▁רצונו	-10.8658
▁איכשהו	-10.866
▁הפרה	-10.866
▁האגודה	-10.866
דס	-10.8661
▁רבע	-10.8662
בוט	-10.8662
▁שעליה	-10.8663
סטון	-10.8664
ber	-10.8666
77	-10.8666
▁ההכרה	-10.8666
▁ששי	-10.8666
סח	-10.8668
▁מקס	-10.8669
מידה	-10.867
▁פעילה	-10.867
81	-10.8671
▁לעובדים	-10.8672
מלחמה	-10.8673
▁ולתת	-10.8676
▁למש	-10.8677
▁התיק	-10.8677
מרת	-10.8679
▁נשבע	-10.8681
▁הגרסה	-10.8681
▁האמינו	-10.8681
▁ולעתים	-10.8682
▁ביצים	-10.8682
פיה	-10.8683
▁לנגן	-10.8683
▁אלוהי	-10.8686
▁הכתיבה	-10.8686
מישהו	-10.8688
▁במחנה	-10.8688
▁נשארים	-10.8689
▁עיבוד	-10.869
▁נשמר	-10.869
▁מיוחדות	-10.8694
▁בתחרות	-10.8696
מדע	-10.8697
);	-10.8699
▁אמין	-10.8699
▁חת	-10.87
▁הרחק	-10.8702
▁לקהילה	-10.8703
▁לאמנות	-10.8703
ite	-10.8707
▁לבנון	-10.871
min	-10.8713
▁מפר	-10.8713
מנות	-10.8713
ומו	-10.8717
▁בבת	-10.8721
▁you	-10.8721
▁דעתו	-10.8725
שמח	-10.8725
▁יוצרת	-10.8726
▁נגע	-10.8726
מול	-10.8727
פין	-10.8729
é	-10.8729
▁לטעון	-10.8729
וכיח	-10.8732
▁פעל	-10.8732
▁ולבסוף	-10.8734
'".	-10.8735
▁שמתרחש	-10.8735
▁מפעיל	-10.8737
▁אחראים	-10.874
▁יורו	-10.8741
▁בנים	-10.8742
▁לפרק	-10.8743
▁בשעת	-10.8743
vi	-10.8745
דוק	-10.8746
▁לטיול	-10.8747
▁כתיבת	-10.8747
זציה	-10.8749
▁ביצועים	-10.8749
▁למניעת	-10.875
28	-10.875
השפעה	-10.8752
▁שדות	-10.8753
נגד	-10.8756
מכר	-10.8756
▁וניהול	-10.8757
קדים	-10.8757
תרבות	-10.8759
נדס	-10.8761
▁ואלה	-10.8761
▁באוסטרליה	-10.8762
▁העלות	-10.8762
לד	-10.8763
▁איסור	-10.8763
סקה	-10.8763
▁מנגנון	-10.8765
▁מדגיש	-10.8766
38	-10.8766
▁ישו	-10.8767
▁הכספים	-10.8767
▁עצות	-10.8769
▁ומאפשר	-10.8771
ct	-10.8772
▁בעיניים	-10.8774
▁ניסיונות	-10.8776
sa	-10.8776
בקר	-10.8779
ron	-10.8781
▁שקלים	-10.8781
מזון	-10.8782
▁במסע	-10.8782
▁כמי	-10.8783
▁תעשייתי	-10.8783
פתרון	-10.8785
▁אריק	-10.8786
▁משתי	-10.8786
,500	-10.8787
▁תפקידים	-10.879
!”	-10.8793
▁במילה	-10.8797
▁מחפשת	-10.88
IC	-10.8801
▁מועמדים	-10.8801
איש	-10.8801
▁מכה	-10.8802
▁חלון	-10.8802
▁פיזי	-10.8804
▁מנע	-10.8804
שתמש	-10.8806
▁ברוכים	-10.8807
▁הגרעין	-10.8807
▁מתע	-10.8807
▁עוצר	-10.8808
▁ששת	-10.8814
וטו	-10.8814
לון	-10.8815
▁מוציא	-10.8817
▁במידת	-10.8818
קסון	-10.882
יטי	-10.882
oc	-10.8823
היינו	-10.8826
מתוך	-10.8826
משרד	-10.8829
▁יאפשר	-10.8829
▁דוקטור	-10.883
נהל	-10.8832
▁השמיים	-10.8833
▁הסקר	-10.8833
▁הטענה	-10.8834
▁לבעיה	-10.8836
פסיכולוג	-10.8836
[2]	-10.8838
▁ההוצאות	-10.884
▁תומכת	-10.8841
אסור	-10.8842
▁חתולים	-10.8842
▁הוכרז	-10.8842
▁פנה	-10.8844
מסע	-10.8847
▁יס	-10.8847
▁הפרט	-10.8847
▁שעשיתי	-10.885
▁ארבעים	-10.8852
▁שלילי	-10.8853
▁תחנות	-10.8854
▁עשירים	-10.8855
▁הכללים	-10.8857
ָר	-10.8862
▁הדף	-10.8864
פלג	-10.8865
▁טענו	-10.8866
חטא	-10.8869
land	-10.887
▁כא	-10.8875
▁מאזן	-10.8876
▁הטבעת	-10.8878
▁הזהיר	-10.8884
▁בעצמכם	-10.8885
▁אסטרטגיות	-10.8885
▁הסתיים	-10.8886
▁לשכור	-10.8886
▁להפסיד	-10.8888
▁מקוון	-10.8888
▁כועס	-10.889
נתנה	-10.8891
▁הסיפורים	-10.8892
▁בחצי	-10.8893
▁אוטומטית	-10.8893
▁הענק	-10.8893
▁נוצרו	-10.8893
נפש	-10.8893
▁בקרבת	-10.8894
▁המזרחי	-10.8895
▁התעורר	-10.8897
▁וחשוב	-10.8897
▁השגת	-10.8897
gen	-10.8898
▁עמדות	-10.8899
▁ימות	-10.8903
▁שלילית	-10.8904
▁ברלין	-10.8906
▁התלמיד	-10.8907
▁פשוטים	-10.8908
▁העלייה	-10.8909
▁לאירוע	-10.8909
▁למשתמשים	-10.8909
▁לביטחון	-10.8912
▁פלסטיק	-10.8913
▁לירות	-10.8913
▁ולמ	-10.8917
כריז	-10.8917
▁אופנה	-10.8919
iv	-10.8924
76	-10.8927
▁34	-10.8928
ence	-10.893
▁לפלסטינים	-10.8933
▁חודשי	-10.8936
בסופו	-10.8938
▁סטנדרטי	-10.8942
▁המלכותי	-10.8943
▁קבועה	-10.8943
יסוד	-10.8943
▁מסגרת	-10.8943
▁המעמד	-10.8944
▁נחת	-10.895
▁לתא	-10.8955
ברים	-10.8955
▁ביקורות	-10.8959
▁כוכבי	-10.8961
-22	-10.8962
▁הספציפי	-10.8964
▁1993	-10.8964
▁הוותיק	-10.8964
▁שקיבל	-10.8965
84	-10.8965
▁להגביל	-10.897
▁הקבלה	-10.897
▁המע	-10.8971
▁לכלא	-10.8972
44	-10.8973
▁ממשלות	-10.8973
▁לעזאזל	-10.8973
חליף	-10.8974
▁ביטחוני	-10.8975
צפו	-10.8979
▁האפשרי	-10.898
▁סיבוב	-10.8981
▁יהפוך	-10.8981
▁הרכישה	-10.8982
▁בזהירות	-10.8983
▁ויתר	-10.8984
▁שאוכל	-10.8984
▁ובטוח	-10.8985
▁נראו	-10.8985
▁מפי	-10.8986
▁לקל	-10.8987
▁אוכלוסיית	-10.899
▁ולו	-10.8993
מטה	-10.8993
-23	-10.8994
▁עוברת	-10.8994
▁רגוע	-10.8994
▁בחיל	-10.8997
חשמל	-10.8997
▁האירופית	-10.8998
▁שנכנס	-10.8999
▁בטעות	-10.9001
▁השעות	-10.9002
אמנת	-10.9002
▁נג	-10.9002
▁בתעשייה	-10.9003
▁אסטרטגיה	-10.9005
▁החול	-10.9005
נור	-10.9006
▁התרחש	-10.9006
פצע	-10.9007
-2014	-10.9007
▁האפל	-10.9009
▁הראשית	-10.901
▁עלולות	-10.901
''.	-10.9014
▁ברשתות	-10.9015
▁מאסטר	-10.9016
▁סוסים	-10.9021
▁קהילות	-10.9021
▁ובת	-10.9022
▁שנמצאים	-10.9026
▁אנד	-10.903
▁הַ	-10.9031
▁אמן	-10.9032
דרדר	-10.9032
▁מכירת	-10.9033
▁מורכבות	-10.9037
▁המשו	-10.9037
חד	-10.9038
▁המפ	-10.9038
מץ	-10.9042
▁עורר	-10.9043
▁לעבד	-10.9043
▁להשוות	-10.9043
זוהי	-10.9044
▁1990	-10.9044
▁החשיבה	-10.9044
תקופות	-10.9045
▁קטע	-10.9046
▁ימינו	-10.9047
▁מוקד	-10.9048
▁שהרי	-10.905
▁מאמצי	-10.9051
▁מוטל	-10.9053
▁סנ	-10.9056
▁תביא	-10.9057
▁חופשה	-10.906
▁נערך	-10.9063
▁שורה	-10.9066
▁מתכנן	-10.9067
▁והרבה	-10.9068
▁אפקט	-10.9069
▁שט	-10.9069
▁הקמפיין	-10.9069
▁מקרוב	-10.9072
▁להתנגד	-10.9072
וזי	-10.9073
▁בסוג	-10.9073
▁רגיש	-10.9076
▁מכונת	-10.9076
▁לשאלות	-10.9076
▁שיקול	-10.9079
▁בשמחה	-10.9079
יגו	-10.9081
▁קבצים	-10.9081
סקר	-10.9082
▁חיוביות	-10.9082
65	-10.9085
▁אמריקאית	-10.9086
▁האיזון	-10.9088
▁פנו	-10.9088
▁ונראה	-10.9088
▁כתיבה	-10.9089
רני	-10.909
IN	-10.9091
▁בוכה	-10.9093
חודש	-10.9093
▁המרחב	-10.9096
שאל	-10.9098
do	-10.9099
▁יב	-10.9099
▁הדגל	-10.9099
עצם	-10.9103
ושע	-10.9106
▁מוסרית	-10.9113
▁הגשר	-10.9115
▁שוטרים	-10.9117
▁האחראי	-10.9117
43	-10.9118
▁עמדו	-10.912
▁טכניקות	-10.9121
▁משפיעה	-10.9122
▁לסוף	-10.9122
▁סבורים	-10.9123
▁1992	-10.9123
▁נשוי	-10.9124
▁מתמשך	-10.9127
▁למו	-10.9129
▁המסורת	-10.913
▁אפ	-10.9131
▁אבוד	-10.9132
▁מפל	-10.9133
▁אדוארד	-10.9134
שווי	-10.9136
51	-10.9138
▁לוואי	-10.9138
דע	-10.9139
▁צוואר	-10.9145
▁בוושינגטון	-10.9149
▁השרירים	-10.9153
▁ראויה	-10.9154
▁פנוי	-10.9154
▁דיווחים	-10.9154
▁שהיינו	-10.9158
מיס	-10.9158
▁הצו	-10.9159
▁נשאל	-10.9162
▁דרש	-10.9165
▁במחוז	-10.9166
ran	-10.9166
▁המופע	-10.9169
▁רוט	-10.917
יחסים	-10.917
▁ספ	-10.9176
נסו	-10.9181
מרו	-10.9181
בחן	-10.9183
▁פרופיל	-10.9184
מנע	-10.9185
▁בשלוש	-10.9186
טית	-10.9188
▁חזקות	-10.919
לול	-10.9194
▁הגיב	-10.9195
art	-10.9199
88	-10.9203
▁מלכתחילה	-10.9204
▁להיעשות	-10.9204
▁מבפנים	-10.9204
▁קלות	-10.9205
▁בברכה	-10.9205
▁לחסל	-10.9206
▁כוחו	-10.9208
▁מטבעות	-10.9211
▁איטי	-10.9212
▁מיקרו	-10.9214
▁חסד	-10.9218
שמה	-10.9219
▁מלכות	-10.922
▁מודרנית	-10.9221
▁בולט	-10.9221
▁הטיול	-10.9226
▁משותפים	-10.9228
▁התכנון	-10.9229
▁בכוונה	-10.923
▁ואחת	-10.9231
▁קוראת	-10.9231
94	-10.9232
▁המכירה	-10.9233
▁למים	-10.9233
▁פאר	-10.9238
ip	-10.9239
▁מפות	-10.9241
▁שעשו	-10.9241
סיה	-10.9244
▁הסוכנות	-10.9245
הפכה	-10.9245
▁הבגדים	-10.9246
▁ציד	-10.9248
▁Ad	-10.9248
אויב	-10.9248
▁הנער	-10.9249
חץ	-10.9251
דול	-10.9253
71	-10.9255
▁חפש	-10.9259
רשות	-10.9262
קטר	-10.9264
▁דלתות	-10.9264
▁הרים	-10.9268
▁האזורים	-10.927
IP	-10.927
▁לנשיאות	-10.9272
▁לוקחת	-10.9272
▁הקרובות	-10.9273
למות	-10.9274
95	-10.9274
▁מרכיבים	-10.9275
▁מושל	-10.9275
▁הפעלת	-10.9276
▁המרכיבים	-10.9277
▁ידידותי	-10.9277
▁נוסדה	-10.9278
▁נועדו	-10.9279
▁מטיל	-10.928
אהבה	-10.928
MP	-10.9281
▁השמות	-10.9282
כלומר	-10.9283
▁עיניו	-10.9283
▁ההסבר	-10.9285
▁בקשות	-10.9286
▁מנוחה	-10.9286
▁לנוח	-10.9286
▁להירגע	-10.9286
כנת	-10.9288
▁חיפש	-10.9289
מבקר	-10.929
▁מסתורי	-10.9291
▁לאיש	-10.9292
▁הנמוך	-10.9293
▁עבורו	-10.9294
▁להתקין	-10.9295
פטי	-10.9295
מדיניות	-10.9296
סיקה	-10.9297
נוף	-10.9297
▁התפילה	-10.93
▁הנמל	-10.93
▁בחומר	-10.93
▁אבק	-10.93
כנות	-10.93
▁מבחינתי	-10.9305
▁שוטר	-10.9307
▁הופיעה	-10.9307
תום	-10.9308
▁ומאז	-10.9309
▁Sa	-10.9313
▁מהעולם	-10.9314
▁גיבור	-10.9315
▁Un	-10.9315
▁לארוחת	-10.9316
סיבי	-10.9319
▁מרוב	-10.9319
חברה	-10.932
▁במלון	-10.9321
▁ערבית	-10.9322
▁תכונה	-10.9323
▁תשוקה	-10.9324
▁התקפות	-10.9325
▁אינ	-10.9326
▁ההיא	-10.9327
לכוד	-10.9328
▁ציבוריים	-10.933
נל	-10.9334
▁הסוכר	-10.9335
גוף	-10.9335
▁ירח	-10.9336
▁האנ	-10.9338
au	-10.9341
▁ויל	-10.9341
▁ומנהל	-10.9343
רגי	-10.9343
05	-10.9344
עכשיו	-10.9346
▁כשמ	-10.9346
▁בילדים	-10.9347
▁קבר	-10.9347
מועמד	-10.9348
▁רגש	-10.9352
הנה	-10.9353
▁וכולם	-10.9358
בנה	-10.936
עניש	-10.9364
▁with	-10.9367
47	-10.9367
גרו	-10.9368
▁החיבור	-10.9368
אכיפת	-10.9371
זכה	-10.9371
▁להסכים	-10.9372
▁להקדיש	-10.9374
▁המתרחש	-10.9378
▁משקר	-10.9379
▁איסוף	-10.9381
▁הפרש	-10.9382
▁רוד	-10.9383
▁שאומרים	-10.9384
▁אנושיים	-10.9385
יאן	-10.9386
▁מקביל	-10.9387
▁הציור	-10.9388
▁העיקר	-10.9388
▁בספרד	-10.9391
▁הטי	-10.9391
▁החזיר	-10.9391
קוף	-10.9394
גדל	-10.9394
רף	-10.9395
יצו	-10.9395
שונה	-10.9396
▁התברר	-10.9397
▁תוכנות	-10.94
▁יער	-10.9401
▁זיכרונות	-10.9401
▁לדין	-10.9401
▁הדיבור	-10.9406
▁הצמח	-10.9407
▁טכנולוגיי	-10.9407
▁נסיבות	-10.9411
מיטב	-10.9414
יותר	-10.9416
קהילה	-10.9416
▁קירות	-10.942
▁טבעת	-10.942
קבר	-10.9422
▁התר	-10.9427
בק	-10.9428
שמור	-10.9428
▁כלכלה	-10.943
▁השופטים	-10.9431
▁שיוכלו	-10.9431
▁החג	-10.9431
▁כאבים	-10.9432
all	-10.9437
▁מסורתי	-10.9439
▁בונה	-10.9441
שלח	-10.9443
יצוא	-10.9444
מטי	-10.9444
▁העתיק	-10.9444
▁פוגש	-10.9445
▁משת	-10.9445
אמ	-10.9446
▁ותיק	-10.9448
▁גופים	-10.9449
▁עזבו	-10.9449
▁1994	-10.945
▁במיטה	-10.9455
▁הדוח	-10.9457
▁הבריטים	-10.9457
▁כשזה	-10.946
▁תישאר	-10.9463
▁שעושים	-10.9464
▁נרצח	-10.9464
▁בברלין	-10.9465
▁מישהי	-10.9466
▁וכעת	-10.9468
▁הקרן	-10.9469
▁Ba	-10.9471
▁מסתכלים	-10.9471
מנסים	-10.9472
לצ	-10.9475
▁לסיום	-10.9476
▁חרב	-10.9478
עצור	-10.948
▁בתשלום	-10.948
▁המסמכים	-10.9481
▁משטרת	-10.9482
נקי	-10.9482
איזו	-10.9483
▁טופס	-10.9485
▁עושר	-10.9487
▁בקבוק	-10.9488
▁קצין	-10.9489
▁תושב	-10.9489
שנות	-10.949
▁אסיר	-10.9491
▁שנותר	-10.9491
▁עשור	-10.9492
▁פיקוח	-10.9493
▁שמעו	-10.9494
סיק	-10.9495
▁המשקל	-10.9495
▁לרפא	-10.9495
▁התחלנו	-10.9499
▁קץ	-10.9499
▁להתקשר	-10.9502
▁חשיפה	-10.9502
בירת	-10.9504
▁רוע	-10.9504
זן	-10.9505
▁סקי	-10.9505
לף	-10.9505
▁ריקוד	-10.9507
שׂ	-10.951
▁קם	-10.9511
ניתנים	-10.9514
עַ	-10.9515
דומה	-10.9518
▁האזרחי	-10.9518
▁חמשת	-10.9518
▁ואשר	-10.9519
מונד	-10.952
▁ברכה	-10.9526
▁75	-10.9526
OR	-10.9527
איזה	-10.9528
▁בגובה	-10.9529
SS	-10.953
▁תצליח	-10.9533
▁התביעה	-10.9533
עין	-10.9533
▁1948	-10.9533
▁1944	-10.9533
▁יומיומי	-10.9534
▁התחתונה	-10.9534
▁הקטנות	-10.9534
ure	-10.9538
▁בהקדם	-10.9539
▁המתאר	-10.9539
נטל	-10.9539
▁להתפלל	-10.9542
רצון	-10.9543
מרה	-10.9543
▁הביקורת	-10.9544
▁הריבית	-10.9544
▁אמצע	-10.9545
▁שכדאי	-10.9548
נשמה	-10.9549
▁בפולין	-10.9552
▁מביט	-10.9554
▁ברשימת	-10.9555
רכה	-10.9555
הברית	-10.9557
▁II	-10.9557
▁לצייר	-10.956
▁בהודעה	-10.9561
▁בנקודה	-10.9562
וריד	-10.9564
▁משטרה	-10.9565
▁בשבילכם	-10.9565
▁גג	-10.9567
▁לתחום	-10.9568
ינתן	-10.9569
▁קמפיין	-10.9569
▁חיוך	-10.957
▁בציבור	-10.9576
▁תחומים	-10.9576
▁שותפות	-10.9579
▁שזאת	-10.9581
▁משרות	-10.9583
▁קיי	-10.9584
▁בחזית	-10.9585
אלימות	-10.9586
▁עריכה	-10.9587
אחרי	-10.959
▁איומים	-10.9591
▁מטריד	-10.9592
▁וכבר	-10.9593
▁by	-10.9594
▁פוליטיקה	-10.9598
דגים	-10.9605
out	-10.9606
▁בעייתי	-10.9607
תמיכה	-10.961
63	-10.961
▁כותבים	-10.9611
▁מגדיר	-10.9611
ננו	-10.9611
▁חודשיים	-10.9614
▁האמין	-10.9615
עובדים	-10.9617
\	-10.9617
▁פער	-10.9618
▁תוצר	-10.9618
▁הנפלא	-10.9619
▁התייחסות	-10.9621
נוע	-10.9622
▁ושתי	-10.9623
קונ	-10.9623
▁פסיכולוגי	-10.9623
▁להבהיר	-10.9623
תראה	-10.9624
▁בדרכו	-10.9624
נציג	-10.9627
▁מקומיות	-10.9627
קוב	-10.9627
▁הדיגיטלי	-10.9629
▁מטופל	-10.9631
▁להטיל	-10.9633
▁מצליחה	-10.9634
ליג	-10.9635
גלות	-10.9636
▁תמונת	-10.9638
▁ההליך	-10.9638
▁החלב	-10.9639
מוק	-10.9642
▁כיבוש	-10.9643
▁הדרישות	-10.9644
▁בחצר	-10.9645
▁38	-10.9647
▁לייצור	-10.9647
▁בזמנו	-10.9648
▁במכונית	-10.9648
בסיס	-10.9652
▁הלוואות	-10.9654
▁בחמש	-10.9654
▁עסוק	-10.966
▁העסקית	-10.9665
▁לסי	-10.9669
66	-10.967
ft	-10.9675
▁ליפול	-10.9677
▁התכונות	-10.968
▁מוס	-10.968
▁המהירות	-10.9681
▁עזרת	-10.9682
▁נתיב	-10.9683
▁נבדק	-10.9684
כוחות	-10.9685
▁מפחדים	-10.9689
▁המסורתי	-10.9689
▁משתמשת	-10.9692
▁ההש	-10.9693
▁בוב	-10.9694
ממה	-10.9695
▁בנוח	-10.9695
▁מימי	-10.9699
▁הרצח	-10.9699
▁וישראל	-10.9701
▁האפיפיור	-10.9702
▁ביעילות	-10.9702
▁ניתנה	-10.9702
▁לכסות	-10.9702
▁בייחוד	-10.9703
▁נעימה	-10.9703
▁יצטרך	-10.9703
▁לחדש	-10.9705
▁נחל	-10.9706
▁המספק	-10.9707
▁תעשו	-10.971
▁ליעד	-10.971
▁שוחרר	-10.9711
▁מרחוק	-10.9714
▁בבר	-10.9714
▁השכלה	-10.9715
שלוש	-10.9715
▁הבדלים	-10.9716
יבי	-10.9716
▁ההפעלה	-10.9717
▁שעובר	-10.9718
▁בושה	-10.9719
▁עיתונאי	-10.9719
▁הרחוק	-10.9719
▁חתונה	-10.972
▁He	-10.9721
97	-10.9722
▁בעיתון	-10.9723
נייה	-10.9723
▁שכלל	-10.9724
▁לטוס	-10.9725
▁האסלאם	-10.9725
▁שכך	-10.9725
כרו	-10.9726
טן	-10.9727
▁לעומק	-10.9728
▁המכוניות	-10.9728
▁מתקיים	-10.9737
עידת	-10.9737
מפקד	-10.9737
▁בקצה	-10.9738
▁המאמן	-10.9739
אירוע	-10.9742
▁קלאסי	-10.9742
▁להסכם	-10.9743
מושג	-10.9744
▁בביצוע	-10.9745
▁המטפל	-10.9745
▁שעברו	-10.9747
▁המסו	-10.9748
▁מורכבים	-10.9749
כשל	-10.975
גלגל	-10.9755
▁פונה	-10.9756
▁בחברות	-10.9757
▁לתמיכה	-10.9757
▁היתרון	-10.9757
זכור	-10.9758
▁v	-10.976
▁נועדה	-10.9763
מוצרים	-10.9763
▁טכנית	-10.9764
▁מורשת	-10.9767
▁שרי	-10.9767
▁יכלה	-10.9769
▁טום	-10.9769
hi	-10.9772
ix	-10.9776
64	-10.9778
▁המשאבים	-10.9782
▁האקדמי	-10.9785
▁מגיש	-10.9787
סטים	-10.9787
▁הבעל	-10.9789
▁מועבר	-10.979
▁שממנ	-10.9791
▁כפולה	-10.9791
רוט	-10.9792
סביב	-10.9792
▁תרצו	-10.9794
▁תקופות	-10.9795
▁משפר	-10.9795
▁חדרי	-10.9795
▁מסובך	-10.9795
און	-10.9795
מילים	-10.98
קטי	-10.9802
▁רוס	-10.9803
▁עוצמת	-10.9804
זירה	-10.9806
▁בול	-10.9807
▁מישראל	-10.9808
▁רגשי	-10.9809
▁ברומא	-10.9812
RA	-10.9813
תכונות	-10.9813
▁ראויים	-10.9814
ַּ	-10.9816
▁עקבי	-10.9816
בדיקות	-10.9816
▁דבש	-10.9816
דחה	-10.9818
▁חיוניים	-10.9818
▁מזהה	-10.9819
▁קלים	-10.9819
יקום	-10.982
זיה	-10.9823
▁מייל	-10.9824
▁לצלם	-10.9826
▁יצור	-10.9828
▁וכאן	-10.9833
▁התקווה	-10.9833
▁במדבר	-10.9834
נכון	-10.9834
▁מנהלת	-10.9835
וניה	-10.9835
▁לירושלים	-10.9836
▁בתכנית	-10.984
▁לשר	-10.9842
▁Com	-10.9845
▁העצבים	-10.9846
▁חזרתי	-10.9846
▁מטוסי	-10.9848
▁התמ	-10.9848
עשו	-10.985
▁החזק	-10.9851
fe	-10.9852
▁סודי	-10.9852
טורי	-10.9855
▁כתבו	-10.9856
▁באלוהים	-10.9858
▁לבעל	-10.9859
פרד	-10.986
▁רות	-10.9861
▁כותרת	-10.9862
▁המפקד	-10.9864
▁צבאיים	-10.9865
מניה	-10.9866
53	-10.9871
▁הגשת	-10.9873
▁הלמידה	-10.9873
▁לזרוק	-10.9874
▁לסביבה	-10.9874
▁ההוראה	-10.9874
▁הפתוח	-10.9874
וציא	-10.9875
▁מתקדמת	-10.9876
▁זהירות	-10.9876
09	-10.9877
▁משפיעים	-10.9879
▁המשא	-10.988
דמות	-10.9882
▁השוטרים	-10.9882
▁תק	-10.9883
▁Life	-10.9888
ome	-10.9889
▁דירוג	-10.9889
▁הקוד	-10.989
▁ציפורים	-10.9892
31	-10.9893
▁צרכי	-10.9898
▁הבטן	-10.99
▁מפשע	-10.99
-2008	-10.9901
▁נוף	-10.9901
▁היחידים	-10.9902
רוץ	-10.9902
רצה	-10.9903
–19	-10.9904
▁מצלמות	-10.9905
87	-10.9907
▁be	-10.9909
גלי	-10.991
שיער	-10.991
▁Ho	-10.9911
▁ענן	-10.9913
▁העיקריות	-10.9914
אמן	-10.9915
ep	-10.9916
▁מסמל	-10.9916
▁Se	-10.9917
▁הנאה	-10.9922
▁נוצרי	-10.9923
ow	-10.9923
▁יוגה	-10.9923
▁האדריכל	-10.9925
▁מנצח	-10.9927
עונש	-10.9928
▁שגוי	-10.9931
▁גרמה	-10.9931
בחר	-10.9936
▁משלוש	-10.9939
▁בטרור	-10.9939
נאו	-10.9941
▁ביקום	-10.9943
דרג	-10.9946
▁הרדיו	-10.9946
▁חיצוניים	-10.9949
▁השתתפו	-10.9951
▁העברית	-10.9951
▁האחת	-10.9953
▁קרובה	-10.9954
▁פאלון	-10.9959
צורה	-10.9959
ומנים	-10.9959
יוס	-10.996
▁עותקים	-10.996
net	-10.996
אמת	-10.996
▁מבולבל	-10.996
▁היכולות	-10.9961
▁1991	-10.9961
▁הישנה	-10.9962
▁בסביבת	-10.9962
▁תורת	-10.9963
▁נראתה	-10.9964
▁הסכנה	-10.9964
▁תוהה	-10.9964
▁בְּ	-10.9965
▁להמתין	-10.9968
▁ובא	-10.9968
▁לארגן	-10.9968
▁קריאת	-10.9968
ליברלי	-10.9969
עמד	-10.9969
▁הורג	-10.997
▁שנא	-10.9973
▁שואלת	-10.9973
▁נאמן	-10.9974
▁לרקוד	-10.9974
▁הממלכה	-10.9974
פירות	-10.9975
▁ממלא	-10.9975
▁תגיע	-10.9976
סיר	-10.9976
AC	-10.9976
▁המוסד	-10.9976
▁האסטרטגיה	-10.9977
מנכ	-10.9978
▁International	-10.9979
▁רץ	-10.998
▁סביבת	-10.9983
▁דמוקרטית	-10.9984
▁האמ	-10.9984
▁דעתך	-10.9984
▁האידיאלי	-10.9987
▁לקשר	-10.9987
▁מתקרב	-10.999
▁רגליים	-10.9991
▁ויעיל	-10.9991
▁כשאנו	-10.9991
▁עישון	-10.9992
▁מתכת	-10.9994
MA	-10.9995
▁מחלוקת	-10.9996
▁הניצחון	-10.9997
▁חיילי	-10.9998
פורד	-10.9999
▁ערכו	-11.0003
▁עצר	-11.0003
▁ארוחה	-11.0004
קדם	-11.0005
כעס	-11.0006
פיסת	-11.0006
▁המושג	-11.0007
the	-11.0008
עבודה	-11.0015
▁רכש	-11.0015
▁הצל	-11.0015
▁מחוברים	-11.0016
▁תרגול	-11.0016
▁פלסטיני	-11.0016
▁We	-11.0018
▁בעיראק	-11.0018
בוד	-11.0019
פאלון	-11.002
▁(2)	-11.0021
ציין	-11.0021
▁הפעיל	-11.0021
▁בצע	-11.0021
נָ	-11.0024
▁גרו	-11.0025
▁זרות	-11.0025
אך	-11.0027
▁השק	-11.0027
מז	-11.0028
וטה	-11.0028
▁הגנת	-11.0032
34	-11.0033
▁בינוני	-11.0033
▁נולדו	-11.0035
קודם	-11.0035
▁ומח	-11.0035
▁הכתבה	-11.0036
▁תכלית	-11.004
▁החנות	-11.0041
ריצה	-11.0046
ens	-11.0047
▁משאבי	-11.0047
‭	-11.0048
▁מכסה	-11.0048
▁שתש	-11.005
▁לצוות	-11.0051
▁בוודאות	-11.0051
▁צנוע	-11.0052
רבע	-11.0052
▁50%	-11.0057
דאג	-11.0057
▁הדמוקרטית	-11.0059
▁נכלל	-11.006
▁הצעדים	-11.0061
▁ממוקד	-11.0063
▁שרו	-11.0063
▁שידור	-11.0063
▁הסכימו	-11.0064
▁ביקשו	-11.0064
וודא	-11.0065
▁להשתלט	-11.0069
▁מסי	-11.007
-2015	-11.007
▁לאמת	-11.0071
▁קצה	-11.0072
▁בטקס	-11.0072
▁37	-11.0073
▁כוונת	-11.0075
▁לדווח	-11.0076
▁הביע	-11.0079
כף	-11.0082
מוז	-11.0084
▁יועץ	-11.0085
▁הבשר	-11.0085
▁תפקוד	-11.0086
▁התאבדות	-11.0086
▁בלוג	-11.0086
▁מהפכה	-11.0088
▁שוחח	-11.0089
▁הפנ	-11.009
▁באדם	-11.009
▁מהנה	-11.0092
ide	-11.0092
[1]	-11.0093
▁המומחים	-11.0094
▁אדמת	-11.0101
▁יצורים	-11.0102
▁סרטי	-11.0103
▁השתל	-11.0103
▁תבוא	-11.0104
▁ולמרות	-11.0105
מזל	-11.0107
▁נפגש	-11.0107
▁סוחר	-11.0108
רבה	-11.0109
▁עוסקים	-11.0109
▁הערכת	-11.011
-27	-11.0114
פרנס	-11.0115
78	-11.0116
פלסטינים	-11.0116
צריכה	-11.0124
▁הסוג	-11.0125
▁לכוח	-11.0125
▁חבריו	-11.0125
▁בתרבות	-11.0126
שמיע	-11.0128
▁פטר	-11.0129
פצה	-11.013
▁רמז	-11.0132
▁הנשי	-11.0133
-31	-11.0135
▁קיומו	-11.0137
▁צועק	-11.0138
▁נפשית	-11.0138
▁לרשום	-11.0138
יניה	-11.0138
רבים	-11.0139
▁יוביל	-11.0139
▁להתכונן	-11.0139
▁התחתון	-11.0139
מרפא	-11.014
>	-11.0141
רואים	-11.0141
▁להתחתן	-11.0141
ונסון	-11.0146
▁ראית	-11.0147
▁דייוויד	-11.0149
נני	-11.0149
קציה	-11.015
▁הכרטיס	-11.0151
▁לחתום	-11.0153
▁שהוביל	-11.0154
▁אימונים	-11.0155
▁הכרת	-11.0155
▁מתברר	-11.0155
▁מחלק	-11.0155
קשיב	-11.0156
▁מיקרוסופט	-11.0157
▁הפסד	-11.0158
נקודת	-11.0158
▁ורוב	-11.0159
▁כור	-11.0159
אלף	-11.0159
▁למקומות	-11.0162
▁ריקה	-11.0162
▁למכירה	-11.0163
▁סיגריות	-11.0167
▁אוקראינה	-11.0167
▁ממדינות	-11.017
▁הראייה	-11.0172
סבר	-11.0173
▁פברואר	-11.0176
אביב	-11.0177
▁דא	-11.0177
▁אבטחת	-11.0178
שווה	-11.018
▁המנהיג	-11.0183
▁עשירה	-11.0185
גבלת	-11.0186
▁ההשקעות	-11.0186
קדוש	-11.0187
תפלל	-11.0187
▁לשינויים	-11.0187
לוג	-11.0187
▁השורה	-11.0189
▁לחופש	-11.0189
▁בנוי	-11.0189
דיס	-11.0192
▁חלש	-11.0192
▁הנדרשים	-11.0195
▁הפחות	-11.0195
▁יסודות	-11.0195
▁ומר	-11.0199
▁זאב	-11.0201
▁נטל	-11.0201
שניהם	-11.0203
▁השי	-11.0205
▁תקף	-11.0206
הכל	-11.0207
לוק	-11.021
נשק	-11.0211
▁שליליות	-11.0211
▁נצח	-11.0211
יוני	-11.0212
▁הרוע	-11.0212
▁חשמלי	-11.0213
▁מייק	-11.0215
▁ציר	-11.0218
-26	-11.022
ספי	-11.022
▁עבדה	-11.0221
way	-11.0223
▁היל	-11.0223
▁תענוג	-11.0226
▁במחצית	-11.0226
▁Next	-11.0226
▁לאיבוד	-11.0226
▁ההערכה	-11.0227
טלפון	-11.0228
▁לדחות	-11.0228
▁תשכחו	-11.023
▁מאותו	-11.0231
▁להתלונן	-11.0231
▁מרשים	-11.0234
▁אליזבת	-11.0234
▁והס	-11.0235
▁מתוכם	-11.0236
▁תחשוב	-11.0238
▁להעמיד	-11.024
ka	-11.0241
לקח	-11.0241
▁באתי	-11.0242
▁שלג	-11.0242
▁נדירות	-11.0243
▁גיליתי	-11.0245
▁חושש	-11.0246
▁תעודת	-11.0246
▁מוטיבציה	-11.0246
▁בסמוך	-11.0246
▁המסמך	-11.0246
▁אוכלוסייה	-11.0248
▁מינים	-11.0249
hen	-11.0249
שמ	-11.025
▁בכוחות	-11.0252
סכנת	-11.0252
▁הדרומית	-11.0253
גדה	-11.0254
▁מוכרת	-11.0255
▁העיירה	-11.0256
שומר	-11.0256
86	-11.0258
▁נובל	-11.0258
▁מטפל	-11.0259
▁מייצרים	-11.0259
▁לחימה	-11.026
▁קורבן	-11.0261
פנה	-11.0261
▁המאמצים	-11.0263
▁הקומוניסטית	-11.0263
▁הטיל	-11.0263
▁לבניית	-11.0264
▁המועמדים	-11.0264
▁התפיסה	-11.0267
▁ההשלכות	-11.0267
▁יורש	-11.0267
▁לזו	-11.0268
▁לוחות	-11.0268
CC	-11.0269
▁לבטא	-11.0269
▁בממשלה	-11.027
▁משלי	-11.0272
▁לאלו	-11.0273
מכונה	-11.0274
▁שמקור	-11.0274
▁התו	-11.0275
▁להמשך	-11.0275
▁תע	-11.0277
קונים	-11.0279
קוק	-11.0281
מציאות	-11.0281
▁היין	-11.0281
▁החיה	-11.0281
▁נוהגים	-11.0281
▁בחיינו	-11.0281
▁המאמץ	-11.0282
תמונה	-11.0282
BS	-11.0283
ליה	-11.0288
▁ואיפה	-11.0288
כור	-11.029
-28	-11.0293
▁גמר	-11.0294
▁מאפיינים	-11.0297
ner	-11.03
פיזיקה	-11.0301
ang	-11.0302
▁ככלל	-11.0303
▁מעיד	-11.0304
▁הצגת	-11.0307
▁סיפק	-11.0307
▁לסיפור	-11.0309
▁מצאה	-11.0312
▁להירשם	-11.0316
▁מסוכנים	-11.0316
[7]	-11.0316
▁הלטינית	-11.0316
▁1945	-11.0317
▁הפלילי	-11.0317
▁האופנה	-11.0318
▁שרשרת	-11.0318
▁הכספי	-11.032
▁פוטנציאליים	-11.0321
▁ניידים	-11.0323
▁להפיץ	-11.0325
▁בכדור	-11.0325
▁להודיע	-11.0326
89	-11.0327
▁האף	-11.0327
▁Hotel	-11.0328
▁המדבר	-11.0331
▁בתא	-11.0333
▁הניסוי	-11.0334
שישה	-11.0336
▁העיקרון	-11.0337
סקס	-11.0337
▁אוספים	-11.0337
▁מכילה	-11.0337
▁בירת	-11.0337
58	-11.0339
▁נחזור	-11.034
▁להוות	-11.034
▁ובית	-11.0341
▁שייכים	-11.0345
▁במטבח	-11.0345
▁בכי	-11.0349
▁בטענה	-11.0349
▁שימור	-11.035
▁בסיום	-11.035
▁שיוצר	-11.0351
▁מכפי	-11.0351
▁באנרגיה	-11.0352
▁נטו	-11.0352
▁לבזבז	-11.0355
זכיר	-11.0355
▁עסקאות	-11.0355
גלו	-11.0358
פעילות	-11.0359
▁העצמית	-11.0359
▁מצפון	-11.0359
▁מאיר	-11.036
▁מצוות	-11.036
▁התחום	-11.0363
▁האסלאמית	-11.0366
▁עבדו	-11.0366
▁בארבע	-11.0366
▁אצבע	-11.0367
▁הסגנון	-11.0367
ov	-11.0367
▁מוצלחת	-11.0367
▁הצלחת	-11.037
בתי	-11.037
סיס	-11.0371
▁לבתי	-11.0373
טש	-11.0375
▁האיום	-11.0377
▁היער	-11.0379
▁It	-11.0382
▁איכותי	-11.0383
ֹר	-11.0383
ob	-11.0384
רצו	-11.0384
▁נחשבים	-11.0388
ווד	-11.0392
68	-11.0393
▁מחנה	-11.0394
▁מתעורר	-11.0395
▁משרדי	-11.0399
▁אליהן	-11.0399
מאוחר	-11.0402
▁כשנ	-11.0402
אפריקאי	-11.0407
חפש	-11.0407
▁הוסיפה	-11.0407
▁ביניהן	-11.0408
▁מאליו	-11.0408
▁מדור	-11.0408
▁Br	-11.0408
לימוד	-11.0409
▁ביצירת	-11.041
▁חלופי	-11.041
▁לעד	-11.041
▁תקדים	-11.0416
ודיע	-11.0416
▁העברה	-11.0417
▁למסור	-11.0417
▁אחסון	-11.0421
תנועת	-11.0423
חדשות	-11.0423
▁החמישית	-11.0424
ies	-11.0425
▁מחזק	-11.0426
▁החזיק	-11.0428
▁מחזיקים	-11.0428
▁ההגדרה	-11.043
הדבר	-11.0431
-2010	-11.0433
▁ויאמר	-11.0433
▁חילופי	-11.0435
▁החוזה	-11.0436
▁הסימנים	-11.0436
▁אקדמי	-11.0439
▁בתוקף	-11.0439
▁גלגל	-11.044
פז	-11.0443
וזה	-11.0444
מגדל	-11.0446
nd	-11.0447
▁בקנדה	-11.0448
דרוש	-11.0448
▁מדעית	-11.0449
▁בעיצוב	-11.045
מילה	-11.0451
▁צמוד	-11.0451
▁האמון	-11.0451
▁כמויות	-11.0451
▁העובר	-11.0453
▁הימי	-11.0453
▁55	-11.0456
חסר	-11.0458
▁דיברתי	-11.0458
▁Ri	-11.046
עיד	-11.0464
▁רא	-11.0465
ונל	-11.0465
▁מציגה	-11.0465
▁הימין	-11.0473
בראשית	-11.0477
ea	-11.0478
▁העו	-11.0479
▁החום	-11.048
▁אשם	-11.0485
.[1]	-11.0485
▁היסודות	-11.0487
▁נש	-11.0488
▁המטופלים	-11.0495
רוויח	-11.0496
תושב	-11.0497
פנס	-11.0499
▁מבחוץ	-11.0499
▁לפועל	-11.0499
▁ניסתה	-11.0499
▁תאמינו	-11.0499
SP	-11.05
ננים	-11.0501
▁תשכח	-11.0501
▁תקיפה	-11.0504
▁קודמים	-11.0504
-29	-11.0507
▁ולשמור	-11.0509
▁מהסוג	-11.0509
▁חמישים	-11.0512
▁לאנשי	-11.0512
▁פת	-11.0513
▁המנהיגים	-11.0515
▁הסינים	-11.0516
▁מסוכנת	-11.0516
▁היהדות	-11.0516
▁הציוד	-11.0518
▁להתערב	-11.0518
▁התופעה	-11.0519
אוט	-11.0519
▁המקומיות	-11.052
▁חולק	-11.0524
▁MBA	-11.0525
▁החקלאות	-11.0527
▁המערכות	-11.0528
▁ולהי	-11.0529
▁המפעל	-11.0531
תכלית	-11.0531
▁קשורות	-11.0532
▁ושאל	-11.0535
▁הראוי	-11.0536
▁סגר	-11.0536
▁בתשובה	-11.054
▁האומות	-11.054
▁הער	-11.0541
וּת	-11.0541
▁קטלני	-11.0542
▁אוטובוס	-11.0544
▁הסכים	-11.0544
סטין	-11.055
▁תפיסה	-11.0554
▁אינטרס	-11.0559
▁מִ	-11.0559
▁ממי	-11.0559
-2013	-11.056
▁מפעם	-11.0561
מלחמת	-11.0563
▁גמישות	-11.0567
▁החלקים	-11.0569
▁הקישור	-11.0569
▁לוס	-11.0569
לאומי	-11.0573
06	-11.0573
▁יישומים	-11.0574
▁תלויים	-11.0575
61	-11.0575
▁שעובד	-11.0577
ֶה	-11.0581
▁הנבחרים	-11.0584
▁בכמות	-11.0585
▁Inc	-11.0585
▁למר	-11.0585
▁שרירים	-11.0585
▁שבכל	-11.0585
עורך	-11.0588
▁co	-11.0589
able	-11.059
▁\	-11.059
@	-11.0591
98	-11.0591
▁היומיום	-11.0592
▁לשחזר	-11.0592
איסט	-11.0592
▁תצטרכו	-11.0593
▁מנות	-11.0594
עיין	-11.0594
▁יסייע	-11.0594
▁אדומים	-11.0595
▁דיסק	-11.0596
▁אקראי	-11.0597
▁לענייני	-11.0599
▁3:	-11.0603
אחוז	-11.0603
שיתוף	-11.0607
▁שאפילו	-11.0608
▁נפגשים	-11.0608
▁Go	-11.0608
▁באמצעים	-11.061
▁היבט	-11.0611
▁במחלוקת	-11.0612
▁בורח	-11.0613
▁Post	-11.0613
▁המודיעין	-11.0613
פלי	-11.0613
▁ירו	-11.0614
מעמד	-11.0615
▁מכילים	-11.0619
▁לשלטון	-11.062
▁אפי	-11.0621
▁הכישורים	-11.0622
EC	-11.0623
אלכוהול	-11.0625
▁הצעירה	-11.0626
למו	-11.0627
ya	-11.0629
▁נותרה	-11.063
▁הורד	-11.063
▁בוגרים	-11.0632
▁הפרעה	-11.0633
חום	-11.0634
▁Vi	-11.0634
▁הקוראים	-11.0634
צא	-11.0639
▁פסל	-11.0639
▁להקת	-11.0641
▁מזיק	-11.0642
▁שקשה	-11.0644
▁מודעת	-11.0645
שחק	-11.0646
75	-11.0647
42	-11.0649
▁מטבח	-11.065
▁בכסף	-11.065
▁מותג	-11.0651
רך	-11.0652
ade	-11.0653
▁רגישות	-11.0658
ובים	-11.0659
▁נדל	-11.066
קריא	-11.0662
▁ואח	-11.0662
▁הצליל	-11.0662
נפגע	-11.0663
▁לסין	-11.0664
▁העתק	-11.0664
▁שמתי	-11.0665
▁היחידי	-11.0669
▁עבודתם	-11.067
▁צרפתית	-11.0674
▁תרגיל	-11.0674
צד	-11.0675
▁יסודי	-11.0677
▁ותו	-11.0679
▁ירדן	-11.068
▁הבסיסית	-11.0684
▁לשטח	-11.0684
▁נעשתה	-11.0685
▁להאשים	-11.0685
▁מרהיב	-11.0685
▁מופעל	-11.0687
סתכל	-11.0687
▁Business	-11.0689
ביס	-11.0689
פוליטי	-11.069
קיום	-11.069
▁עיני	-11.0691
יישר	-11.0692
▁להדגיש	-11.0693
▁למנהיג	-11.0696
▁כימי	-11.0696
התנהגות	-11.07
▁x	-11.0701
מניות	-11.0702
▁שנדרש	-11.0703
▁במשא	-11.0706
▁הכנת	-11.0706
▁בבניין	-11.0707
▁יז	-11.0711
▁הצרכנים	-11.0711
▁הקריאה	-11.0714
▁עיתון	-11.0714
▁שאותו	-11.0715
▁שאיננו	-11.0715
▁הדוד	-11.0715
▁בשיחה	-11.0716
▁האד	-11.0716
אלפי	-11.0717
▁זרם	-11.0717
▁הצר	-11.0717
▁הנורא	-11.0717
רטט	-11.0718
▁עירוני	-11.0719
▁אכילה	-11.0719
▁התשוקה	-11.0719
▁מארבע	-11.0719
מקל	-11.072
במהלך	-11.072
▁תרבותית	-11.0721
ראית	-11.0724
גרמני	-11.0724
יתר	-11.0724
▁הגדרת	-11.0727
▁יעילים	-11.0727
▁חמה	-11.0727
AL	-11.0729
▁שעתיים	-11.0729
סטו	-11.0734
▁מוגבר	-11.0735
▁לנזק	-11.0737
▁האבולוציה	-11.0737
▁סקירה	-11.0737
▁מתואר	-11.0738
▁ונע	-11.0738
▁לשלוש	-11.0738
59	-11.0739
▁שלמד	-11.0742
▁נר	-11.0742
▁אוצר	-11.0743
▁שיעורים	-11.0744
08	-11.0745
▁האווירה	-11.0747
כולל	-11.0748
כאב	-11.0748
▁ה־	-11.0749
▁בדוק	-11.0751
תלמידים	-11.0751
שכב	-11.0752
49	-11.0753
▁רצינו	-11.0754
▁כותבת	-11.0756
▁Li	-11.0762
▁כללים	-11.0763
▁מטרתו	-11.0763
קווי	-11.0767
רמן	-11.0771
עיני	-11.0776
▁me	-11.0778
▁הזמנה	-11.0781
▁שידע	-11.0782
TA	-11.0783
▁שחורים	-11.0785
▁בנמל	-11.0785
▁שופטים	-11.0785
מדינות	-11.0786
יינת	-11.0786
ach	-11.0786
▁עוזרת	-11.0788
▁ראשו	-11.0793
▁גלגלים	-11.0793
▁לפעולה	-11.0795
▁בבנק	-11.0796
▁20%	-11.0796
▁המיטה	-11.0796
▁למשפחת	-11.0796
▁סייבר	-11.0799
▁גרי	-11.0799
▁לאירופה	-11.08
▁באולם	-11.0805
cy	-11.0806
▁מניע	-11.0807
que	-11.081
▁Is	-11.0814
▁מדרום	-11.0814
▁הגן	-11.0814
▁כדורסל	-11.0815
▁טון	-11.0817
▁שאסור	-11.082
מציאת	-11.0821
▁הונג	-11.0821
▁ליטר	-11.0821
▁לנוכח	-11.0822
▁1000	-11.0824
▁המט	-11.0824
▁Sp	-11.0825
▁תמ	-11.0826
▁הזכר	-11.0826
▁לעובדה	-11.0828
▁ישב	-11.0828
▁בוש	-11.0828
▁לגן	-11.0829
▁(2	-11.083
▁ושאר	-11.083
▁הרעב	-11.0831
▁סרטון	-11.0832
85	-11.0833
▁במסעדה	-11.0835
▁הרוסים	-11.0835
end	-11.0836
▁הסורי	-11.0837
ממת	-11.0839
EN	-11.084
תרו	-11.0845
▁הקטע	-11.0846
▁וירוס	-11.0846
אפשרויות	-11.0848
פצצ	-11.0848
▁כישורי	-11.0848
אקו	-11.0848
▁מהעבודה	-11.085
שפע	-11.085
▁צייר	-11.0852
▁מכבי	-11.0855
▁איל	-11.0855
מייל	-11.0856
▁משקיע	-11.0857
▁שאו	-11.0858
▁חלו	-11.0858
ונם	-11.0862
▁הנח	-11.0867
▁גדלים	-11.0871
זמין	-11.0872
▁נמוכות	-11.0874
[6]	-11.0874
▁מאובטח	-11.0875
▁	-11.0875
▁́	-11.0876
וניות	-11.0878
▁תרצה	-11.0882
▁ריב	-11.0883
נולד	-11.0883
נבא	-11.0885
▁יהודיים	-11.0886
▁מזיקים	-11.0887
▁אמצעים	-11.089
▁נאבק	-11.089
▁דונלד	-11.089
▁מיכאל	-11.089
הארץ	-11.0893
▁העיתונות	-11.0894
▁(18	-11.0896
▁מצווה	-11.0896
▁בנקים	-11.0897
רעב	-11.0898
יעזרו	-11.0899
▁המעצר	-11.0899
▁ריפוי	-11.0899
▁נמאס	-11.0899
לבן	-11.0901
▁התח	-11.0902
▁באפשרות	-11.0903
▁הפער	-11.0903
-300	-11.0903
צלו	-11.0904
▁ואפשר	-11.0907
צור	-11.0909
בוקר	-11.0911
▁הפתעה	-11.0911
▁קייט	-11.0911
▁הנשימה	-11.0913
▁בסרטן	-11.0914
▁חמוד	-11.0915
▁מושך	-11.0915
▁(3	-11.0918
לפחות	-11.0919
▁ושירותים	-11.092
רבות	-11.092
▁בתמונות	-11.092
▁דוא	-11.0922
▁חלונות	-11.0922
▁מכוון	-11.0923
▁שעובדים	-11.0923
▁בשורה	-11.0927
▁מארי	-11.0928
▁מתחילת	-11.0928
▁ברכות	-11.0929
כתי	-11.0931
lan	-11.0934
▁רון	-11.0935
▁העצים	-11.0935
מיליון	-11.0937
מאוד	-11.0938
▁בואי	-11.0939
טינה	-11.0943
▁מפיק	-11.0944
▁הכוכב	-11.0946
▁g	-11.0949
מקד	-11.0952
▁הגדה	-11.0952
▁מני	-11.0953
▁המגדל	-11.0953
▁וצריך	-11.0953
▁גולד	-11.0956
תבסס	-11.0957
ירושלים	-11.096
▁להשת	-11.0961
▁להפר	-11.0964
▁בשיר	-11.0964
▁הבנים	-11.0965
אטי	-11.0968
▁השישי	-11.0969
▁מדהימים	-11.097
▁מביאה	-11.0971
▁הכלא	-11.0971
▁מגזין	-11.0971
▁דאפא	-11.0971
▁ולב	-11.0971
▁לשפוט	-11.0972
▁להתאמן	-11.0972
▁זעיר	-11.0974
קוט	-11.0974
▁קוו	-11.0975
▁להשתחרר	-11.0975
דף	-11.098
▁פשוטות	-11.098
צץ	-11.0981
▁הזקן	-11.0985
▁מצאנו	-11.0986
▁החשוד	-11.0986
סוחר	-11.0989
▁שעוד	-11.0992
▁נגיע	-11.0994
▁נעצרו	-11.0996
פאר	-11.0997
▁אנונימי	-11.0998
▁אמרת	-11.0998
▁החשובה	-11.1
SE	-11.1
▁דעתי	-11.1001
▁מוגבלות	-11.1002
▁ישראליים	-11.1002
מפלגת	-11.1003
▁בקריירה	-11.1003
▁הצבעים	-11.1003
▁תביעות	-11.1004
▁במסלול	-11.1004
▁חיסון	-11.1004
▁גזר	-11.1005
▁הצפונית	-11.1006
▁ניקוי	-11.1006
▁הצהרת	-11.1008
▁ותרבות	-11.1011
כבר	-11.1011
גברת	-11.1013
▁בבעיות	-11.102
▁למשטרה	-11.102
▁ומצא	-11.102
▁הדרכה	-11.1021
MS	-11.1022
▁מצלמה	-11.1022
▁דמעות	-11.1022
הצעה	-11.1022
▁רחוקות	-11.1023
▁נייד	-11.1024
▁דיברנו	-11.1025
▁למאבק	-11.1026
▁העתידי	-11.1027
טום	-11.1028
▁שבט	-11.1029
▁ייצוג	-11.103
▁מהגרים	-11.103
מפתח	-11.1031
ערכת	-11.1031
▁שמספר	-11.1031
▁ישוב	-11.1033
▁פיתח	-11.1035
▁נפרדים	-11.1035
▁לצרכים	-11.1037
▁הפעלה	-11.1038
▁הנוצרים	-11.1039
91	-11.104
▁מחברת	-11.1041
▁עצב	-11.1042
▁אתן	-11.1045
סיט	-11.1045
▁שקיים	-11.1047
▁דמוקרטי	-11.1047
▁pro	-11.1048
▁65	-11.1049
▁ללימודים	-11.1053
▁סיים	-11.1054
AT	-11.1057
▁בכנות	-11.1057
ציית	-11.1057
הדרך	-11.1059
▁שקיבלו	-11.1059
▁הבכורה	-11.106
▁עיקרי	-11.1061
▁ציפיות	-11.1063
▁העמוק	-11.1063
לכי	-11.1064
▁מתנדבים	-11.1065
▁מרוכז	-11.1067
▁שפועל	-11.1068
▁וכתוצאה	-11.1068
▁פחמן	-11.1069
▁הליגה	-11.1069
▁פרעה	-11.107
▁דואג	-11.1071
▁הפוליטיים	-11.1072
▁נחשף	-11.1073
שנת	-11.1074
קופסה	-11.1074
07	-11.1075
▁נגזר	-11.1076
▁תס	-11.1076
▁מלמדים	-11.1076
▁להשמיד	-11.1077
▁הנובע	-11.1079
▁בצל	-11.108
▁אורן	-11.108
▁תעלה	-11.1082
▁סמך	-11.1083
▁מועמדות	-11.1083
▁כיסא	-11.1083
▁האשה	-11.1084
▁הכנה	-11.1086
▁שגרתי	-11.1087
▁עניינים	-11.1088
ולא	-11.1089
▁התגורר	-11.1089
▁הסל	-11.109
▁ההכנסה	-11.1093
כינו	-11.1094
בלו	-11.1094
▁המחזור	-11.1094
▁הרשע	-11.1095
▁לשחרור	-11.1096
▁הבלוג	-11.1096
▁נערכו	-11.1097
▁ההגירה	-11.1098
▁נמשכת	-11.1099
▁נפצע	-11.11
▁בביקור	-11.1101
▁המשק	-11.1101
▁יעבור	-11.1101
72	-11.1101
▁המסעדה	-11.1102
זור	-11.1103
▁תיעוד	-11.1104
▁למבוגרים	-11.1104
▁בניסוי	-11.1105
▁למחנה	-11.1106
▁הספרייה	-11.1107
▁חוויית	-11.1107
שבר	-11.111
▁שלמים	-11.1112
▁Of	-11.1113
פרסמה	-11.1115
▁קבלה	-11.1116
▁מגביר	-11.1116
רזי	-11.1116
כישלון	-11.1117
▁לוחמים	-11.1117
חדר	-11.1117
▁בתיק	-11.112
ans	-11.1122
שמיד	-11.1123
▁בפוליטיקה	-11.1124
▁מגבלות	-11.1125
▁הגשם	-11.1125
▁הביצועים	-11.1127
▁מפלגה	-11.1128
▁העקרונות	-11.1129
▁הבטחת	-11.1131
48	-11.1131
▁לבר	-11.1132
▁במטוס	-11.1133
▁חורף	-11.1136
▁הזכיר	-11.1137
▁רווחים	-11.1139
אימא	-11.114
▁פוליטיקאים	-11.114
▁האביב	-11.1141
▁לתהליך	-11.1142
200	-11.1144
▁הסבל	-11.1145
▁חלה	-11.1145
▁המשפטים	-11.1146
▁מציב	-11.1147
ארצות	-11.1147
נף	-11.1148
▁עדין	-11.1151
bu	-11.1151
▁קני	-11.1152
▁זוכים	-11.1153
0%	-11.1154
▁שעד	-11.1159
▁גופי	-11.1163
▁ההצבעה	-11.1165
▁השיפוט	-11.1166
▁ירקות	-11.1166
▁נלהב	-11.1166
▁השידור	-11.1166
▁לטובה	-11.1167
▁להימלט	-11.1168
▁והפ	-11.1169
נוחות	-11.1169
▁מלוא	-11.1171
▁המנצח	-11.1175
▁האמריקנים	-11.1176
▁חמורות	-11.1176
▁הביטחוני	-11.1176
▁תקין	-11.118
▁לקפוץ	-11.1182
▁ההולדת	-11.1182
בטיח	-11.1183
▁Ex	-11.1183
▁לסרטן	-11.1183
▁יישארו	-11.1184
▁נצטרך	-11.1188
▁מתמקד	-11.1188
כרות	-11.1189
▁הלחימה	-11.1191
ורס	-11.1193
▁ראיתם	-11.1194
▁פרח	-11.1194
▁שנקבע	-11.1194
▁42	-11.1195
צוק	-11.1196
▁בהווה	-11.1196
▁הנהלת	-11.1196
ארץ	-11.1198
▁מהיום	-11.1199
▁תדע	-11.1201
▁קולט	-11.1201
▁ww	-11.1204
▁Mi	-11.1205
sk	-11.1205
▁התגובות	-11.1206
▁mo	-11.1207
▁האבן	-11.1208
▁מוריד	-11.1209
קצת	-11.1209
▁הפיל	-11.1209
▁ארצי	-11.121
▁ההתקדמות	-11.1211
mb	-11.1212
▁באוטובוס	-11.1214
▁מכוונת	-11.1214
איפה	-11.1214
▁נצחי	-11.1216
▁הרקע	-11.1218
ורו	-11.1219
כתיב	-11.1219
▁לשבוע	-11.1221
▁בשאר	-11.1221
▁בכלכלה	-11.1222
אחי	-11.1223
תחושה	-11.1224
▁בשירותים	-11.1225
▁חידוש	-11.1227
▁ששני	-11.1229
יהאד	-11.123
▁ישיבה	-11.1233
▁גרה	-11.1234
▁לאתגר	-11.1235
▁הקיום	-11.1236
▁הבסיסי	-11.1236
83	-11.1239
מאבק	-11.124
▁מאושרת	-11.124
בקש	-11.1241
עונה	-11.1241
רצח	-11.1243
▁כב	-11.1244
▁מתמודד	-11.1245
גנטי	-11.1245
5,000	-11.1247
▁מבוססות	-11.1248
CE	-11.125
▁התור	-11.1253
▁(1	-11.1254
להיות	-11.1255
▁תופס	-11.1257
▁Tra	-11.1259
▁האנגלי	-11.1262
▁בספרי	-11.1264
▁בגדי	-11.1264
▁ברציפות	-11.1264
▁אוטונומי	-11.1264
▁ראיון	-11.1265
▁השתנתה	-11.1265
▁ואילך	-11.1266
▁מיתוס	-11.1266
▁נאס	-11.1266
▁טיל	-11.1266
▁לתינוק	-11.1267
▁התל	-11.1269
▁שנעשו	-11.1269
▁ודי	-11.1272
▁והדבר	-11.1272
▁מגיב	-11.1273
▁תקנות	-11.1274
▁המציע	-11.1274
▁המובילות	-11.1275
נשיא	-11.1275
▁הסיכונים	-11.1276
שחקנים	-11.1276
▁לקט	-11.1279
▁עליית	-11.128
CT	-11.128
▁שליש	-11.128
▁המזרחית	-11.1281
▁נרגש	-11.1281
▁השלמת	-11.1282
▁אטרקטיבי	-11.1282
▁התמחות	-11.1282
▁הוצג	-11.1282
SI	-11.1282
▁שטחים	-11.1282
▁מקיף	-11.1283
▁הכנס	-11.1285
▁הדמוקרטי	-11.1285
PR	-11.1287
▁ובעולם	-11.1287
אנר	-11.1287
lin	-11.1289
▁לציון	-11.1289
▁הקשרים	-11.129
▁הקדמי	-11.129
▁שביצע	-11.1291
▁קהילתי	-11.1292
▁זכוכית	-11.1292
▁מבוצע	-11.1293
▁לשוחח	-11.1294
רכוש	-11.1295
▁בשכונה	-11.1295
ick	-11.1296
▁שיוכל	-11.1296
▁תלונות	-11.13
▁התקיים	-11.1301
▁הרוצח	-11.1302
▁החירות	-11.1303
▁הזרוע	-11.1305
▁חולקים	-11.1306
▁לתקשורת	-11.1306
▁למוזיקה	-11.1314
▁הדיווח	-11.1315
שקר	-11.132
פיץ	-11.132
▁פוליטיות	-11.1321
▁הקצב	-11.1321
ys	-11.1324
▁לפרטים	-11.1325
▁מחמד	-11.1325
▁מרכזיים	-11.1325
▁נטייה	-11.1326
▁ארי	-11.133
תוצאה	-11.133
▁שגורמ	-11.1332
▁לדבריה	-11.1332
▁שנשא	-11.1332
▁לכדי	-11.1333
באר	-11.1334
ענו	-11.1337
▁רוכב	-11.1337
▁ניצב	-11.1338
▁נקיים	-11.1339
▁סופרים	-11.1341
▁ירדו	-11.1342
▁עזרו	-11.1344
▁נשלחו	-11.1346
▁ההרים	-11.1347
▁הגיבור	-11.1349
פסל	-11.1351
גייס	-11.1351
▁משפחתה	-11.1351
▁עדויות	-11.1352
▁נוחה	-11.1354
▁פעילי	-11.1355
▁מקרב	-11.1359
לחץ	-11.136
בריטניה	-11.1361
▁בטכנולוגיה	-11.1361
▁לפה	-11.1361
▁ללחוץ	-11.1365
▁מבודד	-11.1365
▁האמן	-11.1365
▁אכילת	-11.1365
עקרונות	-11.1365
vo	-11.1367
▁המינים	-11.1368
שכח	-11.1368
▁יצירתיות	-11.1369
קופסא	-11.1369
החל	-11.1369
▁פגשתי	-11.1376
▁גרים	-11.1377
▁אוטובוסים	-11.1378
▁Or	-11.138
במקרה	-11.1381
דרום	-11.1381
▁בנט	-11.1383
▁אירע	-11.1384
ימון	-11.1386
▁עמנו	-11.1387
פיס	-11.1388
▁מוסרי	-11.1392
▁מפורסם	-11.1393
פלסטיני	-11.1393
▁בהתאמה	-11.1395
מדה	-11.1396
▁הדולר	-11.1396
▁קולג	-11.1399
מרות	-11.14
▁תשלומים	-11.14
▁ורוד	-11.1401
▁נלחם	-11.1401
[[	-11.1401
עמק	-11.1401
▁טכני	-11.1401
▁בשטחים	-11.1403
▁Sh	-11.1404
▁השוואה	-11.1405
▁דרישה	-11.1405
▁הטר	-11.1408
▁התרגום	-11.1409
▁אמזון	-11.141
בגרות	-11.141
▁המדריך	-11.1411
▁הסמכות	-11.1415
▁לדיון	-11.1415
▁הדורות	-11.1416
▁המחנה	-11.1417
▁השותפים	-11.1418
▁ורבים	-11.1418
גרם	-11.1421
▁משחרר	-11.1421
▁שביקש	-11.1422
▁אוסטריה	-11.1423
▁שייכת	-11.1425
▁ופחות	-11.1426
הייתה	-11.1426
▁סקוט	-11.1426
▁אגם	-11.1428
▁דיברו	-11.1429
אמריקאים	-11.1431
▁שולט	-11.1433
▁גרעינית	-11.1433
שנאה	-11.1435
▁מסעדה	-11.1437
▁בחול	-11.1439
▁החברתיים	-11.1439
AN	-11.144
▁לצבא	-11.144
▁Star	-11.1444
▁כנ	-11.1444
▁הקדושה	-11.1445
חז	-11.1447
▁שורות	-11.1447
▁אימה	-11.1448
זמר	-11.145
▁כלא	-11.1451
הספר	-11.1453
הגיע	-11.1453
▁בעין	-11.1453
▁הסמל	-11.1455
▁המבקש	-11.1458
▁תז	-11.146
▁סיפורי	-11.1463
▁Street	-11.1465
▁אינטימי	-11.1465
▁מטורף	-11.1465
▁זמינה	-11.1466
▁הטמפרטורה	-11.1466
ind	-11.1466
qui	-11.1466
▁Park	-11.1466
▁המופיע	-11.1467
tro	-11.1467
▁לנשום	-11.1468
רופא	-11.1468
▁at	-11.1468
▁שאחד	-11.1469
▁מתנצל	-11.1471
▁מונט	-11.1474
פזר	-11.1474
▁להתחרות	-11.1474
▁בגילאי	-11.1475
▁עיקריים	-11.1475
▁אמרנו	-11.1476
▁בעיניי	-11.1477
▁למדוד	-11.1478
▁שכזו	-11.1478
▁נשי	-11.1478
▁להציב	-11.148
▁בנימין	-11.1482
▁המלוכה	-11.1482
[5]	-11.1483
▁המפה	-11.1484
▁בונים	-11.1484
▁קובי	-11.1486
sp	-11.1487
שיטה	-11.1488
▁הבכיר	-11.1488
▁מנגנוני	-11.149
▁מעשית	-11.1491
▁חמצן	-11.1491
▁משלך	-11.1492
▁כולכם	-11.1493
▁טיפוסי	-11.1494
פארק	-11.1495
▁הנוכחות	-11.1496
▁משכנע	-11.1497
39	-11.1497
גרף	-11.15
▁מרוויח	-11.1503
▁הברזל	-11.1504
ord	-11.1504
נשטיין	-11.1506
▁מינימום	-11.1507
יקי	-11.1508
קלו	-11.1508
פתור	-11.151
▁שכמעט	-11.1511
ארגן	-11.1512
▁אזרחית	-11.1513
▁וגו	-11.1516
▁שמטרת	-11.1516
▁עומק	-11.1517
▁רווחי	-11.1517
רפא	-11.1518
▁הזמנת	-11.1518
פלט	-11.1519
.5%	-11.1519
יכולת	-11.152
▁בתקווה	-11.1522
▁המשפטית	-11.1522
אנגלית	-11.1523
▁מפסיק	-11.1523
▁החלון	-11.1523
▁הקבר	-11.1524
ראיין	-11.1524
▁הדדית	-11.1526
▁בפעולה	-11.1527
▁מבחר	-11.153
חיה	-11.153
▁1)	-11.1531
▁יתרה	-11.1531
▁הכיר	-11.1532
▁אצ	-11.1532
קונסול	-11.1533
▁שיני	-11.1536
מנהל	-11.1536
▁לעין	-11.1539
▁דיגיטלי	-11.154
▁מיליונים	-11.154
▁הטכנולוגי	-11.1542
מלכות	-11.1544
▁נפשי	-11.1545
נזק	-11.1545
▁ומלא	-11.1546
▁El	-11.1546
עצים	-11.1546
▁החשובות	-11.1546
tu	-11.1547
אילו	-11.1547
▁מעז	-11.1547
▁מתא	-11.1548
▁וידע	-11.1549
▁מסרב	-11.1549
פילד	-11.155
▁בשווי	-11.1553
▁זוהר	-11.1553
פתרונות	-11.1555
▁אליס	-11.1559
▁בצדק	-11.1561
מאמץ	-11.1563
ren	-11.1564
▁יצרו	-11.1566
▁לשטוף	-11.1567
▁להיפך	-11.1568
▁מושפע	-11.1568
▁מזמינים	-11.1568
▁המתגורר	-11.157
▁מועט	-11.1571
▁קיבלנו	-11.1571
שוויון	-11.1572
▁תופסים	-11.1573
▁השדה	-11.1574
מוסד	-11.1576
▁המעט	-11.1577
▁הספרות	-11.1577
▁שירת	-11.1578
▁ידידי	-11.1579
▁הצביעו	-11.1581
טוני	-11.1582
▁כפתור	-11.1584
▁לשירותים	-11.1584
מג	-11.1585
משאבים	-11.1588
▁שתת	-11.1588
▁נק	-11.1588
▁בספק	-11.1589
▁לאותה	-11.1592
▁קהילת	-11.1593
▁סיל	-11.1593
רחק	-11.1593
▁מדיטציה	-11.1593
▁דפוס	-11.1594
▁השחורה	-11.1595
ֵר	-11.1597
▁שותה	-11.1597
התחלתי	-11.1599
טראמפ	-11.1601
▁הראיות	-11.1602
▁החיובי	-11.1605
▁מוקדש	-11.1607
▁הארוחה	-11.1607
▁המהירה	-11.1607
su	-11.1608
-2012	-11.161
טול	-11.161
▁מנועי	-11.1611
▁שהחברה	-11.1611
פיצו	-11.1612
▁ונש	-11.1616
▁המפרץ	-11.1617
▁לטבע	-11.1617
▁סד	-11.1617
▁אורגני	-11.1618
▁לכבוש	-11.1618
▁גרמו	-11.1618
▁הכלבים	-11.1621
▁בזמנים	-11.1622
▁קבלו	-11.1623
▁ללקוח	-11.1624
▁קס	-11.1625
▁טוני	-11.1626
▁החייל	-11.1627
▁גופני	-11.1628
▁הדירות	-11.1629
▁בראשות	-11.1632
▁בטחון	-11.1633
▁טכנולוגית	-11.1633
▁משמשת	-11.1636
▁לטוב	-11.1636
▁עמל	-11.1641
קיר	-11.1644
▁באביב	-11.1645
▁העונש	-11.1647
וטים	-11.1648
פשר	-11.1648
▁מכוח	-11.1648
▁במעמד	-11.1648
▁שדבר	-11.1648
קטין	-11.1649
▁בחום	-11.165
▁לאיזה	-11.165
פחות	-11.1652
סין	-11.1652
אמנים	-11.1653
שלב	-11.1656
▁למקור	-11.1657
נטו	-11.1658
ייק	-11.166
▁Pre	-11.1661
▁הובילו	-11.1662
▁הנוחות	-11.1662
▁עלייך	-11.1664
תקציב	-11.1665
®	-11.1671
▁זמינות	-11.1671
▁תחשבו	-11.1671
▁שיום	-11.1672
▁נכנסת	-11.1673
▁מוצאת	-11.1675
▁הגדרות	-11.1675
▁איבדו	-11.1676
▁בצי	-11.1678
▁נגדו	-11.1678
▁Pi	-11.1679
▁וטיפול	-11.1679
▁תפיסת	-11.1679
▁ביקשה	-11.1681
▁לוי	-11.1683
דד	-11.1683
▁האופרה	-11.1688
▁מגדיל	-11.169
▁נעשים	-11.169
שפה	-11.1692
יינות	-11.1693
תווכח	-11.1694
▁להביט	-11.1695
▁רומנטי	-11.1697
▁גירושין	-11.17
▁הצבעה	-11.17
▁הקורבן	-11.17
▁מכתבים	-11.1702
▁רכישה	-11.1703
▁האופניים	-11.1705
▁שבדרך	-11.1705
נבה	-11.171
▁לחזות	-11.171
▁התיאוריה	-11.1711
▁להכנס	-11.1711
▁נשבר	-11.1712
▁הטייס	-11.1713
▁צרו	-11.1713
ִים	-11.1716
▁אפשריים	-11.1717
▁קטגוריה	-11.1718
▁פרא	-11.1718
▁העז	-11.172
▁מבטיחים	-11.172
▁לקבוצות	-11.1721
▁וחוסר	-11.1721
▁סינית	-11.1723
▁יציבה	-11.1724
מטוס	-11.1728
עשיר	-11.1729
▁באיחוד	-11.1729
▁מודלים	-11.1731
▁בשיא	-11.1731
▁כנסת	-11.1732
▁כאדם	-11.1732
▁הילדות	-11.1734
▁מתקשר	-11.1736
▁עבדתי	-11.1737
אבו	-11.1738
TE	-11.1741
▁ראשונים	-11.1745
▁טלפונים	-11.1747
▁לתחנת	-11.1747
▁מכולם	-11.1749
ריסה	-11.1749
חברות	-11.175
▁לבשל	-11.1751
▁הנכסים	-11.1752
▁הודה	-11.1752
פלס	-11.1752
▁אסד	-11.1756
▁אקס	-11.1756
ענה	-11.1758
מבו	-11.1758
ice	-11.1759
▁39	-11.1759
▁בסיסיים	-11.1761
צדדי	-11.1764
ְר	-11.1766
▁המצרי	-11.1766
ON	-11.1766
▁בגד	-11.1769
טיקה	-11.1772
רוצים	-11.1773
▁Ph	-11.1774
נלי	-11.1774
▁Online	-11.1775
▁תביעה	-11.1775
▁מפואר	-11.1775
▁פיצוי	-11.1776
▁Rights	-11.1777
▁עותק	-11.1777
▁והשני	-11.1778
הורמון	-11.1779
▁אפוא	-11.1779
▁במועד	-11.1779
▁למדינת	-11.1781
▁סוני	-11.1781
הרוג	-11.1781
▁מתגלה	-11.1782
▁עבדים	-11.1783
▁להתבונן	-11.1785
סמן	-11.1786
▁להתקרב	-11.1787
▁מאחרים	-11.1787
RO	-11.179
▁נטול	-11.179
אית	-11.179
▁המהלך	-11.1791
▁ארתור	-11.1792
▁בלוס	-11.1792
▁האמצעים	-11.1793
▁הגדרה	-11.1798
▁תאפשר	-11.1798
הולכים	-11.18
eg	-11.18
▁קילומטר	-11.1801
▁הקשים	-11.1801
▁הפסטיבל	-11.1802
▁ואב	-11.1803
▁האס	-11.1804
ham	-11.1805
ah	-11.1805
▁העות	-11.1806
▁מלאכותי	-11.1807
▁האבוד	-11.1808
▁עודף	-11.1809
old	-11.181
קוראים	-11.1813
▁נפגשו	-11.1813
▁הכריזה	-11.1815
מצה	-11.1816
▁מזמין	-11.1816
▁ושר	-11.1818
▁בקבוצת	-11.1819
▁סימ	-11.1819
▁לחי	-11.1821
▁תוקף	-11.1821
▁הופ	-11.1822
▁מסד	-11.1822
100	-11.1823
▁בחנויות	-11.1823
▁התפר	-11.1823
▁ויצא	-11.1824
▁השיא	-11.1825
▁למשפחות	-11.1827
סטודנטים	-11.1829
▁חפצים	-11.183
▁להק	-11.183
אמה	-11.1832
רופאים	-11.1832
▁לחברים	-11.1832
▁העלאת	-11.1833
▁הפילוסופיה	-11.1835
▁הגג	-11.1835
▁עסקיות	-11.1835
fi	-11.1835
גמול	-11.1837
▁האופי	-11.1838
▁גרועה	-11.1841
קובצי	-11.1841
▁חלוקת	-11.1843
▁As	-11.1843
שתו	-11.1844
▁שאחרים	-11.1844
▁(5	-11.1845
▁שירה	-11.1845
▁מגרש	-11.1845
▁חני	-11.1846
▁מפתחים	-11.1848
OP	-11.185
▁הבינלאומיים	-11.1851
שקע	-11.1852
In	-11.1853
SD	-11.1854
les	-11.1855
מתו	-11.1858
▁החמור	-11.1859
שיש	-11.186
▁וביקש	-11.1861
▁התקבלה	-11.1861
▁השיג	-11.1863
▁פולי	-11.1864
▁לחברי	-11.1864
ko	-11.1865
כסף	-11.1865
▁שחוו	-11.1867
▁והנ	-11.1873
▁נור	-11.1876
זיכרון	-11.1878
▁הצלחנו	-11.188
▁1989	-11.1881
ny	-11.1881
▁ומיד	-11.1881
▁הישנים	-11.1882
תלמיד	-11.1882
▁לכאב	-11.1882
▁ולהבין	-11.1884
▁הישג	-11.1885
חזית	-11.1885
▁תקוע	-11.1886
▁הנעל	-11.1886
▁חישוב	-11.1886
▁שינתה	-11.1887
▁מתחייב	-11.1889
סן	-11.1889
▁כניסת	-11.189
▁צער	-11.1892
EA	-11.1894
▁תיירות	-11.1895
▁המתקפה	-11.1895
▁אונס	-11.1896
▁טוענת	-11.1896
▁שגריר	-11.19
▁העלו	-11.19
▁במגזר	-11.19
▁לוק	-11.1901
▁הידיעה	-11.1903
▁On	-11.1903
▁k	-11.1904
▁ספינת	-11.1904
מחויב	-11.1907
▁לפרוש	-11.1907
▁להתנהג	-11.1908
ath	-11.1909
▁לדעתך	-11.191
▁המיועד	-11.1913
▁הבוס	-11.1914
▁מכובד	-11.1915
▁(4	-11.1917
▁אקדח	-11.1919
▁המשקיעים	-11.1919
▁למשפט	-11.1921
▁ארצה	-11.1921
דלת	-11.1921
▁הסובלים	-11.1923
▁הסתכל	-11.1923
▁היעילות	-11.1924
טיים	-11.1926
▁מתרחשים	-11.1927
▁העוצמה	-11.1929
▁הומור	-11.193
▁ומעולם	-11.1931
▁פוטנציאלי	-11.1931
▁מטפלים	-11.1931
▁במגע	-11.1931
▁במפעל	-11.1932
▁אדון	-11.1932
צופה	-11.1934
▁היבטים	-11.1934
▁הניח	-11.1935
▁ביתו	-11.1938
▁הקהילות	-11.1938
▁Web	-11.1939
▁במקצוע	-11.194
▁לשקר	-11.1941
▁לשיתוף	-11.1942
▁נאסר	-11.1944
▁באורח	-11.1944
▁2)	-11.1944
▁מחולק	-11.1947
▁תשאלו	-11.1948
▁האות	-11.1953
▁מלאכותית	-11.1954
▁אופטימי	-11.1954
▁הבוגרים	-11.1955
▁הדתות	-11.1955
▁מעמיד	-11.1956
סוגיות	-11.1959
▁לאירועים	-11.1959
▁ניכרת	-11.196
לע	-11.1962
▁גוש	-11.1963
▁נדרשת	-11.1964
org	-11.1965
▁כשהיה	-11.197
▁תנ	-11.1971
▁אצבעות	-11.1971
▁הקדושים	-11.1973
▁השיעור	-11.1973
▁תקן	-11.1975
שבוע	-11.1977
מחיר	-11.1979
רדו	-11.1979
▁מכני	-11.198
▁סינ	-11.1981
▁בשינוי	-11.1982
▁כוונות	-11.1985
▁לדי	-11.1985
▁נכנע	-11.1986
▁מובהק	-11.1987
▁לצמוח	-11.1987
▁אקלים	-11.1988
▁להימשך	-11.1988
▁1980	-11.1988
וננת	-11.1988
▁דיסני	-11.1988
ייתכן	-11.199
▁דגם	-11.199
▁←	-11.199
▁Can	-11.1992
▁365	-11.1993
▁סטיבן	-11.1997
▁מרשם	-11.1997
▁שיאפשר	-11.1998
▁אוסר	-11.1999
▁נדירים	-11.2
▁מסקנות	-11.2004
▁תקבלו	-11.2005
▁בתולדות	-11.2006
▁הגלובלי	-11.2006
▁ושב	-11.2008
▁יראו	-11.2009
▁כביכול	-11.2009
▁250	-11.2009
▁כשב	-11.201
▁מכוסה	-11.2011
כוון	-11.2012
▁משמעותיות	-11.2012
▁ההכנסות	-11.2012
▁נתתי	-11.2012
בנייה	-11.2014
▁שאליו	-11.2018
▁ברורים	-11.2019
▁תסמונת	-11.2019
▁השתנו	-11.202
ארלס	-11.202
▁לנתח	-11.2022
▁הרוחנית	-11.2022
mon	-11.2023
אדריכל	-11.2024
פרץ	-11.2024
▁הועבר	-11.2025
▁רוצות	-11.2025
▁השתתף	-11.2028
▁הרמה	-11.2028
▁האומץ	-11.2029
ערוך	-11.2029
▁מבטיחה	-11.2031
▁השילוב	-11.2032
▁2011.	-11.2033
▁שיקום	-11.2034
▁הפעילויות	-11.2035
▁ספרדית	-11.2039
סמינר	-11.204
ארבע	-11.2041
▁שנבחר	-11.2041
67	-11.2041
▁שכש	-11.2041
▁האיגוד	-11.2042
▁בילדות	-11.2045
▁הוו	-11.2046
קרוב	-11.2046
▁וקרא	-11.2048
תבונן	-11.2049
▁ממרכז	-11.2049
גודל	-11.205
▁אסטרטגית	-11.2052
▁בשיטה	-11.2058
מבט	-11.2062
▁בינלאומיות	-11.2063
▁הקים	-11.2063
▁בשלושה	-11.2064
▁Th	-11.2065
▁מודרניים	-11.2065
▁דרכה	-11.2065
▁סוכן	-11.2066
סמים	-11.2066
62	-11.2066
▁חדשנות	-11.2067
▁הטקס	-11.2069
▁טופ	-11.2069
▁הפרת	-11.2072
▁המרכזיים	-11.2075
▁אחדות	-11.2075
כוונות	-11.2076
▁החקלאי	-11.2077
פיק	-11.2077
מבר	-11.2086
▁וחברות	-11.2089
צורך	-11.209
▁המנ	-11.209
▁אומנות	-11.2091
▁סטרואידים	-11.2094
▁תחושות	-11.2094
▁הארוכה	-11.2094
בוק	-11.2095
▁מתבייש	-11.2096
▁תצ	-11.2096
▁להתבצע	-11.2096
▁הממ	-11.2096
▁ציינו	-11.2099
▁התחנה	-11.2099
▁נעלמה	-11.2099
יוצר	-11.21
▁התפטר	-11.21
▁שכח	-11.21
▁וליצור	-11.21
▁מתפקד	-11.21
▁היסטוריים	-11.2102
▁משוב	-11.2105
קנות	-11.2106
▁הוועד	-11.2109
▁דרוש	-11.2109
▁אדי	-11.2111
▁נאלצו	-11.2113
fo	-11.2113
▁קפטן	-11.2119
▁פריט	-11.2123
▁מונית	-11.2125
▁ספציפית	-11.2126
▁משפחתית	-11.2127
משו	-11.2127
▁דחוף	-11.2127
▁הומו	-11.2128
▁רגישים	-11.2129
▁המזו	-11.213
-2009	-11.213
▁בדרישות	-11.213
▁בהתפתחות	-11.2131
תאריך	-11.2134
פנות	-11.2134
סמל	-11.2134
-2011	-11.2138
ימין	-11.2138
▁המתוק	-11.2141
ביות	-11.2142
[3]	-11.2144
פגישות	-11.2144
▁שיפוט	-11.2144
03	-11.2146
▁הנאצית	-11.2146
▁נפלאה	-11.2146
▁לפספס	-11.2148
▁ויו	-11.2148
▁בליגה	-11.2148
פשוט	-11.2148
▁בכביש	-11.215
con	-11.215
▁מאגר	-11.215
▁תאונות	-11.2152
הצלחה	-11.2154
תכנית	-11.2155
▁חריג	-11.2155
למים	-11.2156
▁גייס	-11.2159
מוזיקה	-11.2159
▁העומדים	-11.2159
▁עט	-11.2161
▁לעור	-11.2161
יסטית	-11.2162
תופעות	-11.2164
▁יציאה	-11.2167
▁סטיב	-11.2168
▁צחוק	-11.217
▁דיגיטלית	-11.2172
▁גלובלי	-11.2173
▁עמה	-11.2173
שאלה	-11.2176
▁מנה	-11.2177
בחנו	-11.2179
▁התערבות	-11.2181
▁הכלי	-11.2181
▁שרון	-11.2183
▁וכמעט	-11.2184
▁שנכתב	-11.2184
▁פעלו	-11.2185
▁הגי	-11.2186
▁מהרה	-11.2186
פרויקט	-11.2187
▁קנו	-11.2188
סטנדרט	-11.2191
▁לכדור	-11.2193
▁הדתי	-11.2195
המטרה	-11.2195
▁במשק	-11.2196
▁מתרגלים	-11.2199
_	-11.2202
▁מוסקבה	-11.2203
▁העניינים	-11.2203
▁תומאס	-11.2203
▁ננסה	-11.2203
▁1986	-11.2203
▁Word	-11.2204
▁שמאחורי	-11.2204
▁בבטחה	-11.2204
▁600	-11.2204
שטח	-11.2204
▁קיומה	-11.2205
▁הגורל	-11.2206
TM	-11.2206
▁העלילה	-11.2206
▁צרכים	-11.2207
▁האותיות	-11.2209
▁להאכיל	-11.2211
▁מניעה	-11.2212
▁השיבה	-11.2212
▁להרגיע	-11.2212
▁המפורסמת	-11.2213
▁להפריד	-11.2213
חוצה	-11.2215
▁האגו	-11.2215
טט	-11.2218
שרים	-11.2218
sta	-11.2219
▁ממלכת	-11.2219
▁הדג	-11.222
▁סה	-11.2221
טיפ	-11.2222
▁מחזיקה	-11.2222
▁משכנתא	-11.2223
▁חוו	-11.2223
▁המסחרי	-11.2223
▁מעשר	-11.2225
בינה	-11.2225
▁המקצועית	-11.2225
▁בענף	-11.2226
ou	-11.2226
▁בגודלה	-11.2227
cu	-11.2228
▁הציל	-11.223
ביקור	-11.2231
▁לממן	-11.2231
▁לקרב	-11.2231
▁לציד	-11.2232
▁טיפוס	-11.2233
▁יפות	-11.2233
▁מוז	-11.2233
▁מעמיק	-11.2233
▁Fa	-11.2234
▁בעצמה	-11.2234
טכניקות	-11.2236
cc	-11.2238
▁לשאר	-11.2238
▁צרות	-11.2238
משפחות	-11.224
▁נשארה	-11.224
רשימות	-11.2241
▁יהפכו	-11.2242
▁נשלט	-11.2243
▁לרגל	-11.2244
▁סופית	-11.2245
▁לבנה	-11.2246
▁ומהיר	-11.2247
▁בביטחון	-11.2248
רענן	-11.2249
▁חבילות	-11.2252
▁הטעות	-11.2253
סעיף	-11.2254
74	-11.2254
Pr	-11.2256
▁מהמקרים	-11.2257
▁ולח	-11.2257
▁המבנים	-11.226
▁בעור	-11.2261
▁התיקון	-11.2261
▁הריכוז	-11.2263
▁נושאת	-11.2263
▁(3)	-11.2264
▁חומ	-11.2265
▁איטלקי	-11.2265
מטרות	-11.2266
ult	-11.227
כרי	-11.2271
▁בהיות	-11.2272
▁הצרפתים	-11.2276
▁Dis	-11.2276
▁120	-11.2277
▁חזיר	-11.2278
חוויות	-11.2278
▁רש	-11.2278
▁העשירים	-11.2279
▁יחידת	-11.228
▁כישורים	-11.2281
▁נפצעו	-11.2284
▁גיוס	-11.2284
יציבות	-11.2286
▁And	-11.2288
אופי	-11.2288
▁הצדקה	-11.2292
פספס	-11.2292
▁שבי	-11.2293
▁אנדרו	-11.2293
פעולה	-11.2296
למרות	-11.2297
קון	-11.23
▁משקה	-11.23
▁הנוף	-11.2301
▁שרד	-11.2303
אטה	-11.2304
יאנג	-11.2305
▁רוג	-11.2307
▁בשבועות	-11.2308
▁הקור	-11.2308
▁הריח	-11.2309
זון	-11.231
▁דרושים	-11.2311
▁הדתית	-11.2311
ID	-11.2312
מאמינים	-11.2312
▁חוקיים	-11.2312
▁במפורש	-11.2312
▁מסויים	-11.2313
▁למס	-11.2314
▁אחותי	-11.2314
▁נציגים	-11.2315
▁הקודמות	-11.2315
▁מריה	-11.2315
▁לבו	-11.2315
▁בישול	-11.2315
▁מאחל	-11.2315
▁הכרתי	-11.2316
מַ	-11.2316
▁וגאס	-11.2318
▁שליח	-11.2319
▁דפים	-11.232
▁רשום	-11.2321
▁המוצג	-11.2322
▁הרצוי	-11.2323
▁שנחשב	-11.2323
▁בראון	-11.2324
▁וירטואלי	-11.2325
▁נסתר	-11.2325
▁נחוץ	-11.2326
▁ושומרון	-11.2326
▁רפואיות	-11.2327
tri	-11.2328
54	-11.2328
ייסון	-11.233
▁לתרגם	-11.2332
כיבוש	-11.2333
▁הוספת	-11.2333
▁פק	-11.2334
▁נסבל	-11.2334
red	-11.2335
טייל	-11.2336
▁תיאורטי	-11.2337
▁תכשיטים	-11.2338
וגן	-11.2338
▁כמדינה	-11.2339
▁שונאים	-11.2339
Google	-11.234
|	-11.234
קדמה	-11.2343
▁מניעת	-11.2345
▁יהלומים	-11.2346
גשר	-11.2346
▁צומח	-11.2347
שותף	-11.2348
▁בצוות	-11.2349
▁הקיימת	-11.2349
Ma	-11.2349
▁וחסר	-11.2349
▁למשתמש	-11.2349
▁חינוכי	-11.235
מהנדס	-11.2351
▁מיותר	-11.2353
▁לחלום	-11.2357
עיראק	-11.2357
ישוע	-11.236
נינג	-11.236
▁יצאתי	-11.236
▁רומן	-11.2363
▁צפייה	-11.2363
▁הימורים	-11.2365
טין	-11.2366
▁לנחש	-11.2366
▁Car	-11.2366
צמיד	-11.2369
▁דינמי	-11.2369
▁טיולים	-11.2369
▁שעת	-11.2371
▁נשארת	-11.2372
כבוש	-11.2373
▁בחוסר	-11.2373
▁אירו	-11.2373
▁מנצ	-11.2374
ight	-11.2374
▁הסלע	-11.2374
92	-11.2374
▁רשמיים	-11.2374
▁הפגיעה	-11.2375
אסי	-11.2376
▁חברו	-11.2376
▁לתלמיד	-11.2376
▁אוניברסיטאות	-11.2377
הצג	-11.2379
▁המדענים	-11.2382
גבש	-11.2383
▁מרצ	-11.2384
▁משתדל	-11.2386
▁הסרטון	-11.2387
בעת	-11.2389
▁בבל	-11.2389
נוסח	-11.2389
▁מציגים	-11.239
▁עתיק	-11.239
▁כמוהו	-11.2391
▁כבש	-11.2392
fa	-11.2394
ממשלת	-11.2396
פקוד	-11.24
▁מתקשה	-11.24
▁וקי	-11.2401
עמים	-11.2401
אפי	-11.2402
▁שבח	-11.2407
▁אלוף	-11.241
▁שחייה	-11.241
▁מוכרח	-11.2412
ברא	-11.2413
וקים	-11.2415
▁ביתי	-11.2416
▁Na	-11.2417
gu	-11.2418
▁המעסיק	-11.2418
▁Ne	-11.2418
ֻ	-11.2424
▁הוחלט	-11.2424
▁פוטין	-11.2424
ביץ	-11.2424
▁מינימלי	-11.2425
▁בשמו	-11.2426
▁בתוכנו	-11.2427
[8]	-11.2427
רגו	-11.2428
▁תהליכי	-11.2428
▁מתחבר	-11.243
▁מתמקדים	-11.243
קבוצות	-11.2431
▁ניהל	-11.2431
▁1.1	-11.2431
▁מאפשרות	-11.2431
▁קרני	-11.2432
▁ירצה	-11.2433
▁ולעיתים	-11.2434
שורת	-11.2435
▁נוסד	-11.2435
ולוג	-11.2436
▁מהדור	-11.2436
▁בשבילו	-11.2437
▁הראשונית	-11.2437
TS	-11.2439
▁War	-11.2439
הסכם	-11.2441
▁תרבותי	-11.2443
▁מופתע	-11.2444
▁במדע	-11.2448
▁אליפות	-11.2448
▁כשלוש	-11.2449
▁הופעה	-11.2449
רשויות	-11.245
▁משיח	-11.245
‘	-11.2452
▁המבחן	-11.2454
▁הרחבה	-11.2455
▁האיטלקי	-11.2456
מלה	-11.2456
מסגד	-11.2456
כנראה	-11.2457
▁IT	-11.2457
קף	-11.2457
▁4:	-11.2458
▁בקליפורניה	-11.2458
▁מציאותי	-11.2458
▁העלה	-11.2459
▁וחיי	-11.2459
▁עוגיות	-11.2459
סבל	-11.246
▁למצרים	-11.2463
▁המדעית	-11.2464
▁שכולל	-11.2464
▁הגרעיני	-11.2465
▁שהמדינה	-11.2465
כבש	-11.2465
▁שכחתי	-11.2465
▁המוחלט	-11.2466
▁מתבסס	-11.2466
חשש	-11.2466
▁צלם	-11.2467
▁תתחיל	-11.2467
קרה	-11.2469
▁מוגן	-11.2469
▁במועדון	-11.247
▁מעביר	-11.247
▁התע	-11.2473
▁2014,	-11.2474
▁וחמש	-11.2476
▁לחברת	-11.2476
▁המעשה	-11.2478
pi	-11.2478
▁מודאגים	-11.2479
▁הקובץ	-11.2479
▁נקראים	-11.2479
וקם	-11.248
▁מגביל	-11.2481
▁יגידו	-11.2483
בואו	-11.2483
גדול	-11.2488
האמת	-11.2489
▁במכשיר	-11.2491
▁כלכלת	-11.2494
▁כפרי	-11.2497
02	-11.2497
▁רוצח	-11.2499
▁פסולת	-11.25
חף	-11.2502
צמיחה	-11.2502
▁המשפחתי	-11.2503
▁ההיבטים	-11.2505
▁רעיד	-11.2505
ישראלי	-11.2505
מדובר	-11.2507
▁צדדים	-11.2507
כובד	-11.251
▁האסירים	-11.2512
▁מעורבת	-11.2513
res	-11.2514
▁התחייבות	-11.2517
▁התקף	-11.2517
▁השיטות	-11.2517
▁הולדתו	-11.2518
▁שמרו	-11.2518
▁פד	-11.252
▁הסכמת	-11.252
▁מעודד	-11.2521
סתירה	-11.2521
▁הפלא	-11.2522
▁נרצחו	-11.2522
▁תפסיק	-11.2523
יטים	-11.2524
▁קיוו	-11.2524
סימן	-11.2526
▁שעבד	-11.2527
▁מגיעות	-11.2528
▁נכנסה	-11.2528
סטיק	-11.2529
69	-11.2529
▁בלוח	-11.2531
▁משפטיים	-11.2532
▁Bu	-11.2532
▁לשיא	-11.2532
▁שחורה	-11.2533
▁ספציפיות	-11.2533
זות	-11.2534
▁נבחרת	-11.2535
▁תכופות	-11.2536
▁הנכונים	-11.2536
▁ההנחה	-11.2536
▁מוסמך	-11.2536
▁1979	-11.2537
▁לצרכי	-11.2537
-2016	-11.2537
▁להפריע	-11.2537
▁הממצאים	-11.2537
▁מסתדר	-11.2539
▁היישום	-11.2539
▁פינה	-11.2539
▁ויכוח	-11.2541
▁שיכור	-11.2542
▁מתנהל	-11.2542
▁אצלו	-11.2543
▁מוכשר	-11.2544
▁נשמח	-11.2545
▁באסיה	-11.2545
day	-11.2546
▁מקושר	-11.2546
▁תחליף	-11.2546
▁המאוחדת	-11.2546
79	-11.2547
סגנון	-11.2549
▁יעבוד	-11.255
▁נובעת	-11.255
▁לבדה	-11.2552
▁l	-11.2552
▁החלפת	-11.2553
אגר	-11.2555
▁נואש	-11.2556
▁חוששים	-11.2556
▁להריון	-11.2556
▁למחלות	-11.2558
פגיעה	-11.2561
▁להגנת	-11.2562
▁בלה	-11.2562
קדיש	-11.2564
▁מוצע	-11.2568
▁שאיבד	-11.2568
▁עניים	-11.2569
שיבה	-11.2569
▁מנוהל	-11.2569
ודות	-11.257
▁קולומביה	-11.2573
▁המגזר	-11.2574
▁אקו	-11.2574
זנב	-11.2575
▁נבנו	-11.2575
▁Po	-11.2577
▁הנישואים	-11.2577
מאן	-11.2579
▁האהובים	-11.2579
CA	-11.2581
▁שעכשיו	-11.2581
▁מהמאה	-11.2582
▁גופו	-11.2582
אווה	-11.2583
▁צוחק	-11.2585
▁המושל	-11.2585
פיע	-11.2586
▁בשליטה	-11.2589
סוכר	-11.2589
מולדת	-11.2589
▁התאמה	-11.2597
▁סובלנות	-11.2597
▁לטענת	-11.2599
▁הפשע	-11.2605
עמיתי	-11.2609
מרק	-11.2609
מעשים	-11.261
▁הקפד	-11.261
▁מותק	-11.2611
▁מהמקום	-11.2611
▁המינית	-11.2611
tal	-11.2611
עסוק	-11.2613
▁יגרו	-11.2613
AM	-11.2614
רטו	-11.2614
דברי	-11.2618
▁משח	-11.2619
▁מאזור	-11.262
עסיק	-11.2622
▁ישויות	-11.2622
▁שאוהבים	-11.2623
▁הנבחר	-11.2623
▁צבעוני	-11.2624
▁ושימוש	-11.2624
▁והיית	-11.2624
חמו	-11.2625
▁ניצל	-11.2629
השקעות	-11.2629
▁קשרי	-11.263
דיווח	-11.2631
▁יפני	-11.2632
▁הכמות	-11.2633
▁מרגע	-11.2638
▁התמקד	-11.2639
פריד	-11.264
▁החור	-11.2641
ירידה	-11.2642
▁ואהבה	-11.2644
ביק	-11.2644
▁Day	-11.2646
▁לשון	-11.2647
פוליטיקה	-11.2648
שיטות	-11.2649
▁נפוצות	-11.265
▁תעסוקה	-11.265
▁אופנוע	-11.265
nt	-11.265
▁ההצגה	-11.265
▁המל	-11.2651
line	-11.2651
▁להיזכר	-11.2652
סטיות	-11.2653
ביו	-11.2654
דירות	-11.2654
סתובב	-11.2654
▁במושב	-11.2656
מנית	-11.2657
▁טעים	-11.2657
▁קודמות	-11.2658
▁להמליץ	-11.2659
▁דנ	-11.266
רצינו	-11.2661
▁ששימש	-11.2661
עצר	-11.2662
הקליט	-11.2664
▁להכריז	-11.2664
▁גלו	-11.2664
▁ומספק	-11.2664
מסגרת	-11.2665
פוליס	-11.2667
קטע	-11.2667
סטורי	-11.2668
▁כישרון	-11.2668
יחוד	-11.2669
▁שואפים	-11.2669
▁כתובות	-11.267
▁ריצה	-11.2672
▁החזקה	-11.2673
▁מוטב	-11.2677
▁הזמנות	-11.2679
▁ההרגשה	-11.268
▁עמם	-11.2681
▁הערכות	-11.2682
▁השכונה	-11.2683
▁לעדכן	-11.2683
▁עיוור	-11.2683
חֲ	-11.2684
▁שלמות	-11.2686
▁הבינה	-11.2686
▁העי	-11.2687
▁עבירות	-11.2688
סור	-11.2689
▁צפויות	-11.2689
▁השחרור	-11.269
▁העוני	-11.2691
▁טכנולוגי	-11.2691
ֹת	-11.2691
▁בתוכניות	-11.2693
דגיש	-11.2694
▁מקסים	-11.2696
▁רשאים	-11.2698
▁ביקשתי	-11.2699
▁מפלגות	-11.2699
▁כרוני	-11.27
אבולוציה	-11.2701
▁הצילום	-11.2702
▁למדע	-11.2702
▁רוחות	-11.2703
▁ומעבר	-11.2703
רפו	-11.2704
▁לרמות	-11.2705
משטר	-11.2706
-400	-11.2706
אנד	-11.2708
73	-11.271
▁רג	-11.2713
▁התג	-11.2714
▁נסוג	-11.2714
כד	-11.2714
▁אדירה	-11.2714
▁זז	-11.2715
אלית	-11.2716
▁עיסוק	-11.2716
טלי	-11.2719
▁ילדכם	-11.2719
▁העביר	-11.2722
▁הנייר	-11.2724
▁מחזיר	-11.2725
▁המכשירים	-11.2726
▁CO	-11.2726
להתחיל	-11.2727
▁וכלל	-11.2727
▁הגלובלית	-11.2728
OL	-11.2729
▁לאמא	-11.2729
▁גלובלית	-11.273
▁הגברת	-11.273
▁שגרם	-11.2734
בּ	-11.2735
si	-11.2736
▁שיט	-11.2737
82	-11.2737
סיכוי	-11.2737
סבתא	-11.2738
▁הגדר	-11.2744
רוסיה	-11.2745
▁סלע	-11.2746
ינגטון	-11.2746
נפק	-11.2753
זרי	-11.2757
▁מהצד	-11.2758
▁אפור	-11.2759
רגיע	-11.276
נחש	-11.2762
בנק	-11.2765
▁לאנושות	-11.2765
▁התקיימה	-11.2765
▁בפגישה	-11.2765
▁שנערכו	-11.2767
▁ולשפר	-11.2767
צורת	-11.2767
מציא	-11.2769
▁ליווי	-11.2769
▁האלים	-11.2772
▁וללמוד	-11.2774
▁שנבנה	-11.2776
▁מפורסמים	-11.2776
▁תחזור	-11.2777
מכתב	-11.2777
▁אמהות	-11.2781
▁ריבית	-11.2782
▁הבסיסיים	-11.2782
פדרצי	-11.2784
קהילות	-11.2785
▁נעדר	-11.2786
איזון	-11.2787
אמנות	-11.2787
שינוי	-11.2789
▁עושות	-11.279
▁המכללה	-11.2791
▁לכי	-11.2791
קידום	-11.2793
▁עמוקות	-11.2793
שבי	-11.2794
▁תגידו	-11.2794
▁כובע	-11.2795
▁מ־	-11.2796
מלך	-11.2797
▁לנקודה	-11.2797
▁הקט	-11.2798
▁ענף	-11.2798
▁מסתיים	-11.2798
▁צבר	-11.2799
▁הבטיחות	-11.2799
▁המורכב	-11.28
▁שפשוט	-11.28
חן	-11.2802
▁מגיבים	-11.2802
ace	-11.2803
▁משמר	-11.2804
▁היוצר	-11.2805
▁השביעי	-11.2807
▁נעלי	-11.2808
▁בכניסה	-11.2809
עשה	-11.2809
▁‬	-11.2809
▁החד	-11.2811
▁האינטרס	-11.2811
▁הקושי	-11.2812
▁מסתובב	-11.2812
▁בלעדיו	-11.2813
▁גרסאות	-11.2813
▁ברוק	-11.2814
▁הדמיון	-11.2814
השקעה	-11.2815
▁באורך	-11.2815
▁האימון	-11.2816
▁סיכום	-11.2816
▁מעת	-11.2817
▁יהדות	-11.2818
▁השומן	-11.2818
▁היועץ	-11.2818
▁מחויב	-11.2821
▁הסט	-11.2821
▁ברכת	-11.2823
החלטות	-11.2829
▁משימת	-11.283
▁בתנועה	-11.283
br	-11.283
▁פיננסיים	-11.2832
▁התאריך	-11.2833
פאל	-11.2833
▁שאהב	-11.2833
▁בקבוצות	-11.2833
▁מוזרה	-11.2836
▁אינטנסיבי	-11.2836
▁משנים	-11.2836
93	-11.2838
▁באיזור	-11.2839
▁לפרויקט	-11.2841
96	-11.2843
▁רחוקה	-11.2844
▁מחנות	-11.2846
▁למח	-11.2849
הזדמנויות	-11.285
▁ידיד	-11.285
▁הבדיקות	-11.2851
▁הרגילים	-11.2851
ריכוז	-11.2852
רופ	-11.2853
▁רשימות	-11.2854
▁שחשב	-11.2857
▁ליתר	-11.2857
▁רלוונטיים	-11.2859
▁חסרים	-11.286
רמז	-11.2863
▁מיהו	-11.2864
▁הרפואית	-11.2864
שקט	-11.2866
▁בדק	-11.2867
▁ממשלתיים	-11.2871
-200	-11.2873
▁היריב	-11.2875
▁התכ	-11.2877
▁במזומן	-11.2881
▁קזינו	-11.2881
▁להאיץ	-11.2881
▁וליהנות	-11.2881
style	-11.2881
▁מדוכא	-11.2881
▁הדאפא	-11.2881
▁בקפידה	-11.2881
▁לחתוך	-11.2881
▁1942	-11.2882
▁קשוח	-11.2882
כבוד	-11.2883
▁תלונה	-11.2884
ld	-11.2884
▁הניתן	-11.2884
ale	-11.2884
▁סגל	-11.2886
DS	-11.2886
▁המסוגל	-11.2888
▁מחליטים	-11.2888
קנים	-11.2889
צלחת	-11.2889
▁המדרגות	-11.289
לץ	-11.289
תחרות	-11.2891
▁מבוקש	-11.2891
▁להתרכז	-11.2891
תומך	-11.2892
פרסמו	-11.2892
▁הבור	-11.2892
▁נלמד	-11.2893
▁מאיים	-11.2897
מינים	-11.2898
▁הצפוי	-11.2898
gr	-11.2899
▁להורדה	-11.2902
▁מכול	-11.2903
ערער	-11.2905
סכום	-11.2905
▁בידו	-11.2906
▁לדור	-11.2907
AD	-11.2907
▁המתאימה	-11.2908
▁שמוביל	-11.2908
▁צדקה	-11.2908
▁גדר	-11.2908
▁אוניברסלי	-11.2908
ייעץ	-11.2908
▁ברצלונה	-11.291
▁שאמור	-11.2911
▁אינטראקציה	-11.2913
NBA	-11.2915
▁עיריי	-11.2918
▁העזרה	-11.2919
מוסר	-11.2922
סיכון	-11.2923
▁ששמע	-11.2923
▁שגדל	-11.2923
▁חקיקה	-11.2925
מזכיר	-11.2925
▁תרומת	-11.2925
וגה	-11.2926
▁טיפולי	-11.2926
זרע	-11.2927
▁במבנה	-11.2929
▁לשעה	-11.293
▁גאווה	-11.293
תבנית	-11.2931
ממצא	-11.2931
▁להג	-11.2931
רשימה	-11.2932
▁מציל	-11.2934
▁ואיכות	-11.2938
בחור	-11.2938
▁הפייסבוק	-11.2939
▁היציאה	-11.2941
▁להכות	-11.2942
▁שכתוב	-11.2944
ופן	-11.2944
▁פסוק	-11.2944
▁מוציאים	-11.2945
▁אלוקי	-11.2945
▁סעודיה	-11.2946
▁לציית	-11.2948
▁הפוליטיקה	-11.2949
▁שחקני	-11.2949
▁שבור	-11.295
▁השפל	-11.2951
אללה	-11.2952
▁מצבו	-11.2953
תקרב	-11.2954
חמאס	-11.2954
den	-11.2955
▁השנאה	-11.2955
הפרעות	-11.2955
▁מצרי	-11.2956
▁האיים	-11.2957
▁מהדברים	-11.2957
▁לשל	-11.2959
▁התמודדות	-11.2959
▁לעכשיו	-11.2959
פשע	-11.2959
▁חמושים	-11.2961
▁והגיע	-11.2961
▁000	-11.2962
▁דיני	-11.2963
▁החדרים	-11.2963
מקצוע	-11.2963
▁המלח	-11.2965
ורן	-11.2966
▁הציוני	-11.2967
▁הפופולריים	-11.2968
▁בנשק	-11.2969
▁חזית	-11.2969
▁שיקרה	-11.297
iz	-11.297
▁יהודיות	-11.2972
▁פגישות	-11.2973
▁יצרה	-11.2973
▁הוריה	-11.2973
תנועה	-11.2973
▁al	-11.2974
קדמת	-11.2975
▁ואינם	-11.2976
▁פרץ	-11.2978
▁נדיב	-11.2979
דרו	-11.2979
▁מלאי	-11.298
▁בנפש	-11.2982
▁מכשירי	-11.2985
▁הנוצרי	-11.2985
דבקות	-11.2987
▁הנדל	-11.2989
▁פנימיים	-11.299
מזו	-11.2991
גבוה	-11.2992
עזוב	-11.2993
▁האזרחית	-11.2994
▁מרחבי	-11.2995
▁רגלי	-11.2995
▁קולה	-11.2995
▁מקו	-11.2996
▁הפדרציה	-11.2999
▁הישיבה	-11.2999
▁1988	-11.2999
▁האמנתי	-11.2999
▁איתכם	-11.2999
▁ההרוגים	-11.3
▁להיאבק	-11.3
▁חניה	-11.3
▁שנשלח	-11.3002
▁בדרכי	-11.3002
▁והיום	-11.3002
שכל	-11.3003
▁שחו	-11.3003
▁להפליא	-11.3003
▁בחג	-11.3004
▁מאתר	-11.3005
▁ונמצא	-11.3006
▁כידוע	-11.3006
▁מהרגע	-11.3006
▁נרכש	-11.3006
▁סיפרו	-11.3007
▁המנכ	-11.3008
▁שהיית	-11.3008
וויי	-11.3013
▁הגמר	-11.3013
6,000	-11.3013
▁בהצהרה	-11.3014
▁הנע	-11.3014
▁מבלבל	-11.3017
ler	-11.3017
▁הביו	-11.3017
▁ילך	-11.3018
▁לאומיים	-11.3018
▁יקרות	-11.3019
▁רווק	-11.3021
▁הרו	-11.3021
▁לחומר	-11.3021
מעורבות	-11.3022
▁החלטנו	-11.3022
▁שלקח	-11.3022
▁העצום	-11.3023
▁הגדלת	-11.3024
כרים	-11.3025
▁בדיחה	-11.3026
▁הקורבנות	-11.3027
▁תוכנת	-11.3027
▁בשבילם	-11.3027
▁אמש	-11.3028
אינטרסים	-11.3028
▁המטוסים	-11.303
▁מסחרית	-11.3031
▁הפרשה	-11.3031
▁שותים	-11.3035
▁המינימום	-11.3036
▁הפחתת	-11.3036
▁בנוכחות	-11.3036
▁קטגוריות	-11.3036
▁חייכם	-11.3038
▁מתנהג	-11.3038
▁תרבויות	-11.3039
▁מדויקת	-11.304
▁שעשית	-11.3044
▁חשבנו	-11.3045
▁הקיימות	-11.3046
▁שמעתם	-11.3047
▁תערובת	-11.3047
▁לאיראן	-11.3048
az	-11.3048
▁הקשיים	-11.3048
▁דימוי	-11.3049
we	-11.3049
▁ליש	-11.305
▁Live	-11.305
▁הבריאה	-11.305
▁קילו	-11.3051
▁ילדינו	-11.3052
▁לשלושה	-11.3053
▁שורש	-11.3054
▁וכתב	-11.3054
▁וספר	-11.3056
ממוקם	-11.3057
▁בזכויות	-11.3057
▁אהבו	-11.3061
▁הצג	-11.3061
▁מתפלל	-11.3061
▁אוניברסיטה	-11.3061
דלקת	-11.3065
▁מימד	-11.3066
▁סיפוק	-11.3066
▁השותף	-11.3067
מעל	-11.3067
אדום	-11.3068
▁החזית	-11.3069
▁העסקיים	-11.3072
▁סק	-11.3073
▁חמלה	-11.3074
חובות	-11.3075
▁נפח	-11.3078
▁יבואו	-11.3079
טרור	-11.308
▁למזון	-11.3084
▁שעמד	-11.3085
▁מתקן	-11.3088
עימות	-11.3089
▁החושים	-11.309
▁סף	-11.309
▁la	-11.3091
Re	-11.3092
▁באלימות	-11.3093
מוג	-11.3094
▁אינטרסים	-11.3098
▁ועבר	-11.3099
השפעת	-11.3099
▁חלקו	-11.3099
חלומות	-11.31
מחשב	-11.3104
▁בסיסית	-11.3104
▁פונים	-11.3104
חלף	-11.3106
רקע	-11.3107
▁בוגרי	-11.3107
מנצ	-11.3107
▁אכזרי	-11.3107
גמל	-11.3108
▁בסדרת	-11.3108
▁שחר	-11.3109
▁Art	-11.3112
▁מרע	-11.3113
מוש	-11.3113
▁האיראנית	-11.3113
ser	-11.3116
▁2010,	-11.3117
▁באג	-11.3117
▁במוסקבה	-11.3118
▁היוקרתי	-11.3118
▁המוקדמות	-11.3118
▁1987	-11.3118
▁1971	-11.3118
▁לשרוף	-11.3119
▁מבריק	-11.3119
כלכלה	-11.3119
כחול	-11.3119
▁נזקק	-11.312
▁נופש	-11.312
▁תאורה	-11.3121
▁אֲ	-11.3121
חנות	-11.3122
רומם	-11.3122
▁בסן	-11.3125
▁נאום	-11.3125
▁לעו	-11.3127
נקס	-11.3127
▁והע	-11.3127
▁להמציא	-11.3128
▁מתקני	-11.3129
▁צמחי	-11.3129
▁תוספי	-11.313
ism	-11.313
▁עמק	-11.3132
▁מצויין	-11.3133
tin	-11.3135
▁שיחת	-11.3136
▁קנאביס	-11.3137
צרכים	-11.3137
▁המתאימים	-11.3137
הורדת	-11.3137
▁הוליווד	-11.3139
▁ומפ	-11.314
▁המושב	-11.314
תקף	-11.3141
▁להיום	-11.3141
▁המתכון	-11.3142
עונות	-11.3143
עוצמת	-11.3145
תקווה	-11.3145
NA	-11.3146
בקת	-11.3148
▁אסטרטגי	-11.3148
▁הבמאי	-11.3149
▁הגנרל	-11.315
מתין	-11.315
▁רעות	-11.3151
▁לתוקף	-11.3152
מיליארד	-11.3154
▁המעגל	-11.3154
▁משורר	-11.3154
יצירה	-11.3156
▁סגירת	-11.3156
MI	-11.3158
נראה	-11.3159
car	-11.3159
ue	-11.316
▁אריה	-11.316
חתולים	-11.3162
▁מהנדס	-11.3163
▁לפרש	-11.3164
▁פט	-11.3164
▁הקבוע	-11.3165
גינות	-11.3165
חלוף	-11.3165
-2017	-11.3165
▁הנחיות	-11.3166
אישיות	-11.3168
ועדת	-11.3168
חשיב	-11.3169
▁ברכבת	-11.3169
▁סימפטומים	-11.3169
▁כנה	-11.317
▁מחודש	-11.3172
איום	-11.3173
מינג	-11.3175
▁בשמים	-11.3175
זירת	-11.3176
▁בהולנד	-11.3177
41	-11.3177
מאה	-11.3178
▁התחלת	-11.3179
▁פג	-11.3179
כיה	-11.3182
יודע	-11.3182
▁Mac	-11.3183
▁אייל	-11.3184
-35	-11.3187
▁במכון	-11.3187
יקס	-11.319
▁שיודע	-11.319
ריג	-11.3191
▁Act	-11.3191
▁מבוססים	-11.3193
▁לפר	-11.3194
▁הגדיר	-11.3195
ley	-11.3196
▁עצמאיים	-11.3199
▁גופות	-11.32
▁אללה	-11.3201
ביקורת	-11.3203
▁פטי	-11.3203
סקופ	-11.3204
▁הפרחים	-11.3205
▁פרצו	-11.3208
▁ויהי	-11.3209
מכון	-11.3211
שותפים	-11.3211
▁הלאומיים	-11.3213
▁חיוביים	-11.3213
▁הכתב	-11.3217
▁הסודי	-11.3217
▁הקלאסי	-11.3221
▁לובש	-11.3221
ons	-11.3222
שרה	-11.3224
▁מרים	-11.3225
▁כוללות	-11.3225
▁המחקרים	-11.3227
▁והג	-11.3231
▁היפים	-11.3232
air	-11.3236
▁מלאך	-11.3236
low	-11.3237
▁למוח	-11.3237
▁מתמשכת	-11.3238
▁בפומבי	-11.3238
▁שהצליח	-11.3238
▁הראיון	-11.3238
▁שוכב	-11.3238
▁הפלנטה	-11.3239
▁ועובד	-11.3239
▁בקצרה	-11.3239
▁מסכימה	-11.324
▁המושלמת	-11.324
ple	-11.324
דיון	-11.3241
▁האתרים	-11.3241
▁השדרה	-11.3242
▁‫	-11.3243
בעיקר	-11.3243
▁מצוינות	-11.3243
מסורת	-11.3243
▁פרסים	-11.3243
▁שהיום	-11.3243
▁בער	-11.3244
▁תעזור	-11.3245
אחת	-11.3246
DA	-11.3248
▁University	-11.3249
▁דון	-11.3251
▁בינה	-11.3252
▁התפתח	-11.3253
ax	-11.3253
▁שעשינו	-11.3254
סבא	-11.3255
▁לרכישת	-11.3255
כין	-11.3256
ins	-11.3256
▁אורז	-11.3258
▁ולפתח	-11.3258
chi	-11.3258
▁הצהרה	-11.3258
▁הנכונות	-11.326
▁בילי	-11.3261
▁הטילים	-11.3262
גופים	-11.3263
שאלת	-11.3264
יטו	-11.3264
גלגול	-11.3264
▁r	-11.3265
▁המשורר	-11.3266
▁לכפות	-11.3267
▁לחג	-11.3268
נבו	-11.3268
▁ובתי	-11.327
▁משתמשי	-11.327
▁קולי	-11.3271
▁התרחשה	-11.3272
▁בוחן	-11.3273
▁החצי	-11.3273
▁מצטערת	-11.3273
▁תשתית	-11.3273
▁היפני	-11.3274
▁הובא	-11.3275
וֹת	-11.3276
עודד	-11.3279
▁אנדרואיד	-11.3279
▁טקסס	-11.3279
מאפיינים	-11.328
הנדסת	-11.3281
טני	-11.3282
דפוס	-11.3282
▁האזרח	-11.3283
▁התאגיד	-11.3283
-2006	-11.3284
▁ובשנת	-11.3284
▁גרמנים	-11.3285
▁פתאומי	-11.3286
▁מוזיקלי	-11.3286
-2005	-11.3287
▁להנות	-11.3288
▁שכתבתי	-11.3289
▁כפות	-11.329
ֹא	-11.329
▁יתחיל	-11.329
להפוך	-11.3291
משמעות	-11.3291
▁הנדסה	-11.3292
▁הפרופיל	-11.3293
▁סגול	-11.3294
▁לכלכלה	-11.3294
▁החוקר	-11.3294
BBC	-11.3295
▁בלבנון	-11.3297
▁נביא	-11.3298
מקו	-11.3298
אמנם	-11.3299
▁צא	-11.3299
תנגש	-11.33
▁המורשת	-11.3301
▁1.5	-11.3301
▁ולעבוד	-11.3303
▁רעל	-11.3305
▁החובה	-11.3305
כט	-11.3305
▁ידיעת	-11.3306
ערכו	-11.3306
▁הקברות	-11.3307
▁הביט	-11.3307
בדל	-11.3308
▁HD	-11.3309
TO	-11.3311
▁בדיון	-11.3311
▁לבנק	-11.3311
▁עק	-11.3314
זווית	-11.3317
▁אשת	-11.3319
▁הכח	-11.3323
גדיר	-11.3323
▁הוג	-11.3323
קצר	-11.3323
▁לנפש	-11.3324
▁הרגילה	-11.3325
▁מקשיב	-11.3326
דמויות	-11.3327
ביום	-11.3329
▁הנוכחיים	-11.3329
▁ספי	-11.333
▁מדווחים	-11.3331
נפח	-11.3333
מרחב	-11.3333
za	-11.3335
שורש	-11.3336
▁וראש	-11.334
טב	-11.3341
▁בשבילנו	-11.3344
פצצות	-11.3346
AA	-11.3347
גיב	-11.3347
▁צודקת	-11.3349
▁לקר	-11.3351
▁רצפ	-11.3352
▁יצירתי	-11.3355
▁לגנוב	-11.336
▁תסמינים	-11.336
וידאו	-11.3361
▁מעוצב	-11.3361
▁מקוונים	-11.3362
▁טועים	-11.3362
▁נמשכים	-11.3362
▁אקטיבי	-11.3363
▁פסיכו	-11.3364
שכנע	-11.3365
▁הנעליים	-11.3365
▁להאזין	-11.3365
משכו	-11.3365
פונים	-11.3367
בתוך	-11.3369
שיניים	-11.3369
▁המציג	-11.3371
מומחים	-11.3373
▁ההמונים	-11.3373
▁נדירה	-11.3373
▁ואמרה	-11.3374
מתקפת	-11.3375
▁גיאוגרפי	-11.3376
▁עוג	-11.3377
▁הזהות	-11.3378
▁העשור	-11.3379
▁המגורים	-11.338
דמוקרטיה	-11.338
עזור	-11.3381
▁הכרטיסים	-11.3382
ברה	-11.3382
▁לדחוף	-11.3382
▁חשבתם	-11.3382
▁2014.	-11.3383
מודעות	-11.3384
▁הסוגים	-11.3385
▁לתשומת	-11.3385
▁מייצגים	-11.3387
צופים	-11.3387
▁Your	-11.3388
איחוד	-11.3388
▁מתעקש	-11.339
צורות	-11.339
פגוש	-11.339
▁יוחנן	-11.3391
תנאים	-11.3392
▁יקיר	-11.3392
▁לצפייה	-11.3393
▁or	-11.3393
▁מלמעלה	-11.3395
ye	-11.3395
▁הסרת	-11.3395
▁בדי	-11.3396
▁הבולט	-11.3396
▁פורטוגל	-11.3396
סטית	-11.3397
▁בברזיל	-11.3397
▁בייצור	-11.3398
▁מורי	-11.3399
התעללות	-11.3399
»	-11.34
▁בכיכר	-11.34
זכויות	-11.3404
ET	-11.3405
▁do	-11.3406
▁עוזבים	-11.3407
by	-11.3408
▁התיאטרון	-11.341
▁בודק	-11.3411
▁התזונה	-11.3411
ריות	-11.3413
▁משפטים	-11.3414
▁בקי	-11.3414
▁כנסיית	-11.3415
משהו	-11.3416
▁הדדי	-11.3417
▁הציפיות	-11.3417
שעת	-11.3417
מוצר	-11.3418
חזון	-11.3419
▁הפוטנציאלי	-11.3421
▁הישגים	-11.3421
דני	-11.3424
▁דיכוי	-11.3427
▁אחיה	-11.3427
▁דוב	-11.3427
▁בחרתי	-11.3428
▁אמונות	-11.3429
זנים	-11.343
ina	-11.3431
תפעל	-11.3432
▁נשואים	-11.3432
▁ויוצר	-11.3432
רכז	-11.3433
▁מנוי	-11.3433
▁מהילדים	-11.3435
▁טעמ	-11.3436
▁הפופולריות	-11.3437
▁במכתב	-11.3438
▁אגר	-11.3439
▁מתנגדים	-11.3439
ַת	-11.344
▁התקבל	-11.3441
ונתן	-11.3441
▁עשן	-11.3442
▁משק	-11.3444
▁הזמין	-11.3444
▁במשחקים	-11.3444
▁משמע	-11.3445
▁מעצבים	-11.3446
▁5%	-11.3447
▁המחר	-11.3448
EP	-11.3448
▁הסר	-11.3449
▁המסים	-11.3449
▁היווני	-11.345
▁הקורא	-11.3451
▁ואיש	-11.3451
צלם	-11.3453
▁התעללות	-11.3454
מדענים	-11.3455
▁מבתי	-11.3457
▁ma	-11.3457
▁במסיב	-11.3459
אנק	-11.3461
▁ודא	-11.3462
אימפרי	-11.3463
▁אנטישמיות	-11.3465
תרופה	-11.3466
קפת	-11.347
▁זרוע	-11.347
tes	-11.347
טווח	-11.3472
בריח	-11.3474
▁עצי	-11.3474
נאס	-11.3475
▁מחק	-11.3475
שימו	-11.3476
▁קאר	-11.3476
סובב	-11.3476
▁עונות	-11.3478
▁השומר	-11.3479
▁הרשתות	-11.348
▁לקחתי	-11.348
אולוג	-11.3483
▁לחסום	-11.3483
קיבוץ	-11.3484
▁מההתחלה	-11.3484
▁ערובה	-11.3484
▁המחמד	-11.3485
יציאה	-11.3486
▁מזוהה	-11.3487
▁דוחה	-11.3487
▁אנסה	-11.3487
▁לביתו	-11.3487
מרפסת	-11.3488
▁יישוב	-11.3489
רפואת	-11.3489
▁עבירה	-11.349
▁נוש	-11.349
▁מתבצעת	-11.3491
▁גרמנית	-11.3492
ib	-11.3494
▁והתרבות	-11.3494
▁הנחת	-11.3495
▁להתווכח	-11.3495
▁נדע	-11.3497
▁באתרים	-11.3498
-500	-11.35
▁לחופשה	-11.3502
בשל	-11.3503
▁הידיעות	-11.3504
▁1,000	-11.3504
▁הישרדות	-11.3505
מיל	-11.3505
ינית	-11.3507
▁משפטיות	-11.3507
▁מולדת	-11.3507
▁עוסקת	-11.3507
▁מסים	-11.3508
חזרו	-11.3509
▁שתייה	-11.3511
▁ההיסטורית	-11.3512
▁צעירות	-11.3512
▁דוקטורט	-11.3513
מעבד	-11.3513
las	-11.3514
▁תנסה	-11.3514
▁חיידקים	-11.3515
בגדים	-11.3516
▁לקריאה	-11.3516
▁הרומן	-11.3516
De	-11.3516
▁הדק	-11.3517
▁חומצה	-11.3517
▁כרוך	-11.3519
אסטרטגיה	-11.3519
▁מיזוג	-11.3521
תקדם	-11.3522
▁אירופי	-11.3522
▁הגילאים	-11.3522
▁שגיאות	-11.3522
▁הגור	-11.3524
▁המפלגות	-11.3524
▁לקבוצת	-11.3526
▁ההוצאה	-11.3528
▁מספרי	-11.3529
נתניהו	-11.353
אוהב	-11.3531
דמיינו	-11.3533
▁השותפות	-11.3534
▁קרינה	-11.3535
▁גירוש	-11.3535
▁דיור	-11.3535
מליץ	-11.3536
▁הפול	-11.3536
▁מוגבלים	-11.3537
rn	-11.3539
וּב	-11.354
▁חוקיות	-11.3542
▁במראה	-11.3543
▁ואוהב	-11.3546
▁הרישום	-11.3547
רוע	-11.3548
אינני	-11.3549
פרע	-11.3551
▁לדרום	-11.3552
▁מייצגת	-11.3553
▁בכלי	-11.3553
▁שנולדו	-11.3553
שתק	-11.3554
אתגר	-11.3554
▁אבד	-11.3555
▁המדיה	-11.3556
▁בשיטות	-11.3556
ME	-11.3557
אגודת	-11.3557
ושים	-11.3559
▁בניינים	-11.3559
▁בילד	-11.3559
▁וילד	-11.3561
▁Gu	-11.3562
▁הניחו	-11.3563
▁חשבה	-11.3564
אזרחים	-11.3565
▁מותה	-11.3566
▁שתיקה	-11.3566
▁בלחץ	-11.3567
▁מפגשים	-11.3568
סוכן	-11.3568
▁כילד	-11.3569
SA	-11.3571
קופה	-11.3571
▁חיונית	-11.3573
▁שמעת	-11.3574
▁כשנה	-11.3574
▁הדגים	-11.3575
מכו	-11.3575
▁תורם	-11.3578
▁דוברי	-11.3578
▁לגל	-11.3579
▁עברתי	-11.3581
צאצא	-11.3582
▁עתידיים	-11.3584
▁השלילי	-11.3585
ירוק	-11.3585
▁בדמות	-11.3586
זמנת	-11.3587
▁יעל	-11.3588
▁ומעל	-11.3589
פוסט	-11.3589
▁המוצלח	-11.3589
La	-11.3589
ובר	-11.359
▁בגישה	-11.3594
סנט	-11.3594
▁והעולם	-11.3598
▁בגב	-11.36
קאר	-11.3601
▁חשוד	-11.3602
▁הכלכליים	-11.3602
חוסר	-11.3603
▁49	-11.3604
▁מצבי	-11.3604
▁ליבה	-11.3605
▁אפקטיבי	-11.3605
ze	-11.3606
°	-11.3608
▁THE	-11.3608
[10]	-11.3609
▁2.2	-11.3609
▁לפעם	-11.361
▁אוסלו	-11.361
▁המאפיינ	-11.361
▁להיחשב	-11.361
▁להתרחק	-11.361
▁לסלוח	-11.361
▁המחוקק	-11.3611
▁המחאה	-11.3612
▁למחלה	-11.3612
חטיבת	-11.3613
▁המכריע	-11.3613
▁800	-11.3614
▁להתקבל	-11.3614
▁רובנו	-11.3614
▁ורב	-11.3616
▁מסרה	-11.3617
▁בכאב	-11.3618
▁הנמוכה	-11.3618
▁האמנה	-11.3619
חליפה	-11.3619
▁המשמעותי	-11.3619
▁להסתובב	-11.3619
רכש	-11.3622
▁חבילת	-11.3622
ger	-11.3623
▁ליברמן	-11.3623
▁סותר	-11.3624
▁עקרוני	-11.3624
▁משעמם	-11.3624
▁הכתובת	-11.3625
▁החשש	-11.3626
▁מאחד	-11.3627
▁הצרכן	-11.3628
▁חביב	-11.3629
▁שראה	-11.3629
▁ויז	-11.363
▁חיסכון	-11.3631
▁הבכור	-11.3633
היסטוריה	-11.3633
▁מכריע	-11.3635
▁מוערך	-11.3636
▁National	-11.3636
▁משוחרר	-11.3637
▁מליון	-11.3637
▁השכנים	-11.3639
ערת	-11.364
▁כשאת	-11.3641
▁אלבומ	-11.3642
▁דרמה	-11.3643
▁ההפרדה	-11.3643
▁שבאו	-11.3644
▁לחשבון	-11.3645
▁מדרגות	-11.3645
טף	-11.3646
▁סופו	-11.3646
▁אספקה	-11.3646
בזבז	-11.3646
▁הלשון	-11.3647
גשם	-11.3648
מחוז	-11.3648
▁בתכנון	-11.3648
▁נבנתה	-11.365
השפעות	-11.365
צעירים	-11.365
▁משתתף	-11.3651
▁לעוף	-11.3651
▁התעקש	-11.3652
▁בתואר	-11.3652
▁נהרס	-11.3653
▁נוצרה	-11.3654
▁ממאה	-11.3654
▁לשבח	-11.3656
▁ארכיון	-11.3656
▁בוגד	-11.3657
אפריקה	-11.3657
▁שנמצאו	-11.366
▁ההודעות	-11.3661
▁לתיקון	-11.3661
מטרי	-11.3661
▁ענייני	-11.3663
▁הרווחה	-11.3663
בונה	-11.3665
▁הפרטיים	-11.3667
▁הרוק	-11.3668
MD	-11.3668
▁שנתי	-11.3668
▁טורקי	-11.3669
▁מדיה	-11.3669
▁לרשויות	-11.367
▁הגירה	-11.3673
▁52	-11.3673
▁ולעולם	-11.3675
רטי	-11.3675
מודל	-11.3676
▁הוק	-11.3677
ey	-11.3677
▁ולי	-11.3677
איגוד	-11.3679
▁51	-11.3681
56	-11.3683
▁רצים	-11.3684
ern	-11.3685
דרכה	-11.3686
זמנים	-11.3687
ופץ	-11.3689
▁האוטובוס	-11.3689
אפר	-11.3691
▁וז	-11.3692
ריאל	-11.3693
▁סיפורו	-11.3694
יוון	-11.3695
▁האישור	-11.3696
▁ווי	-11.3697
▁נרשמו	-11.3697
▁ותמיכה	-11.3699
so	-11.3701
▁הפנימיים	-11.3701
▁בעיניו	-11.3701
▁שהרבה	-11.3703
▁לכפר	-11.3705
▁מוצגים	-11.3706
סוכנות	-11.3706
שלישי	-11.3711
▁כשת	-11.3716
▁המחשבים	-11.3716
▁ובריאות	-11.3716
ירוף	-11.3717
היעדר	-11.3717
▁היוונית	-11.3719
▁יעזרו	-11.3719
▁השכל	-11.372
▁נרשמ	-11.3722
▁זיהו	-11.3722
▁67	-11.3723
▁הקירות	-11.3723
▁יחידים	-11.3724
▁נמצאה	-11.3725
גביל	-11.3726
▁נראות	-11.3727
▁סלי	-11.373
▁ממליצה	-11.3735
▁שעוסק	-11.3735
▁הבשורה	-11.3735
גיהנום	-11.3735
▁מבעד	-11.3736
זין	-11.3736
▁החירום	-11.3736
▁להתייעץ	-11.3737
▁הדובר	-11.3738
FA	-11.3738
TH	-11.3738
▁מופלא	-11.3739
▁המסייע	-11.3739
▁החודשי	-11.3739
ten	-11.3739
▁City	-11.3741
▁המבוקש	-11.3743
ja	-11.3743
▁קליפ	-11.3745
▁ניקח	-11.3748
▁הפיננסית	-11.3749
מכשיר	-11.375
▁נלך	-11.3751
▁המחוז	-11.3751
▁נמלט	-11.3753
▁לתנאי	-11.3755
▁תוחלת	-11.3755
▁מקצועיות	-11.3755
▁הנדרשת	-11.3755
▁מוסיפים	-11.3757
▁אירוח	-11.3757
▁שגיאה	-11.3757
▁תקציר	-11.3757
▁לפרוץ	-11.3758
▁המשלחת	-11.3762
-2007	-11.3762
▁משקף	-11.3762
▁האזורי	-11.3764
סיף	-11.3765
▁שבחר	-11.3766
אכיל	-11.3768
▁לווי	-11.3768
▁גס	-11.3768
▁לרמת	-11.377
▁בוצע	-11.377
▁הנערה	-11.3771
▁הנתיב	-11.3771
St	-11.3771
▁חשמליים	-11.3772
▁שביעות	-11.3773
▁מחוסר	-11.3774
▁ציטוט	-11.3774
▁לשולחן	-11.3774
▁איבר	-11.3774
▁מסורתיים	-11.3775
▁הנא	-11.3775
▁תודעה	-11.3777
▁להבנה	-11.3777
וירוס	-11.3777
פייסבוק	-11.3777
לקוח	-11.3778
▁מפגינים	-11.3778
▁לגילוי	-11.3779
סמכות	-11.3779
—	-11.3779
דווקא	-11.378
נטון	-11.378
▁לכוחות	-11.3781
▁פיצוץ	-11.3781
מונט	-11.3782
▁מוניטין	-11.3783
▁64	-11.3784
חלב	-11.3784
▁נולדתי	-11.3785
כימיה	-11.3785
▁בתוספת	-11.3786
▁שבסופו	-11.3788
ַד	-11.3789
ירדן	-11.3789
▁להיסטוריה	-11.379
▁מכס	-11.379
▁בבריאות	-11.3794
other	-11.3794
▁התקפה	-11.3796
▁שמענו	-11.3797
▁גביע	-11.3798
▁פניה	-11.3802
▁בסקר	-11.3802
ייזר	-11.3805
▁ההד	-11.3806
▁כס	-11.3806
▁הספרדי	-11.3806
אסט	-11.3808
תגלית	-11.3809
▁קים	-11.3809
▁הגודל	-11.3811
כפוף	-11.3812
פוצץ	-11.3813
▁הסתם	-11.3814
▁ומדינות	-11.3814
מדד	-11.3815
▁st	-11.3816
▁אמינות	-11.3818
▁ויודע	-11.3819
ךְ	-11.3819
שאלות	-11.3819
▁הפסיכולוגי	-11.382
▁תעשייה	-11.3821
היי	-11.3822
▁השיחות	-11.3822
▁וטכנולוגיה	-11.3823
▁דמיון	-11.3824
▁המיני	-11.3824
▁שערים	-11.3825
1)	-11.3827
שינויים	-11.3827
▁גרועים	-11.3827
ds	-11.3827
▁דפי	-11.383
▁פיתחו	-11.3831
▁עוקבים	-11.3832
EL	-11.3833
▁דיפלומטי	-11.3835
בוצע	-11.3836
▁מוגברת	-11.3837
חורף	-11.3838
עצמי	-11.3838
יטר	-11.384
ect	-11.3845
פורסם	-11.3845
זוג	-11.3846
▁המחוזי	-11.3846
קובץ	-11.3847
▁קבועים	-11.3847
ליס	-11.3849
וריה	-11.3851
▁מעודדים	-11.3855
▁מומחי	-11.3858
▁המלכותית	-11.3861
ff	-11.3862
▁יוצאי	-11.3863
▁מסויימים	-11.3863
▁SEO	-11.3863
▁בתחתית	-11.3863
▁ההיריון	-11.3864
▁קפוא	-11.3864
▁תאילנד	-11.3864
ניהם	-11.3865
▁הקלעים	-11.3865
▁במחלה	-11.3866
▁ולהשתמש	-11.3866
גידול	-11.3868
אלבום	-11.3868
קיפה	-11.3868
זכרו	-11.3868
▁ושלוש	-11.3869
▁הידועה	-11.3871
▁הדיסק	-11.3872
▁30%	-11.3872
▁חמורים	-11.3873
▁יוזמה	-11.3874
▁מרץ	-11.3875
השראת	-11.3875
▁נגיד	-11.3876
▁מזהיר	-11.3879
▁הסוללה	-11.388
▁וויל	-11.3881
▁רמ	-11.3883
▁ביחסים	-11.3883
▁חיית	-11.3885
▁ההופעה	-11.3885
▁יוסי	-11.3885
▁לטפס	-11.3886
▁דיר	-11.3886
▁ממוקמת	-11.3887
עצמו	-11.3887
▁יעדים	-11.3888
קאי	-11.3889
▁מוש	-11.3892
▁חושף	-11.3893
דרכים	-11.3893
גלם	-11.3893
▁באירועים	-11.3894
▁טרו	-11.3894
▁בענייני	-11.3894
▁הנסיכה	-11.3895
▁מילר	-11.3896
▁כבדים	-11.3896
▁ממוקמים	-11.3897
▁וחברת	-11.3897
▁לגיטימי	-11.3897
▁הפסיק	-11.3899
כביש	-11.39
▁הפיגוע	-11.39
▁לסיכום	-11.39
sion	-11.39
▁המוניטין	-11.3901
▁חלפו	-11.3901
▁במקסיקו	-11.3902
▁אווירה	-11.3902
▁תרומות	-11.3902
▁מיועדת	-11.3905
חנך	-11.3905
מיד	-11.3905
ms	-11.3905
▁חסרות	-11.3906
▁היוצא	-11.3907
▁גופה	-11.3908
▁החזרה	-11.3908
▁השלט	-11.3909
רתיע	-11.3909
כגון	-11.3909
▁הביעו	-11.391
▁בסיוע	-11.391
פטו	-11.391
▁חיזבאללה	-11.3911
▁הנקודות	-11.3911
מאד	-11.3912
▁קיימא	-11.3912
▁הנחות	-11.3913
▁אויבי	-11.3913
▁שיתופי	-11.3913
▁Ta	-11.3914
▁ידעתם	-11.3914
▁לארגונים	-11.3915
תיאום	-11.3916
ney	-11.3917
▁באף	-11.3919
▁ודם	-11.3919
הסתפק	-11.392
▁משלושה	-11.3922
▁רקטות	-11.3922
▁העיתונאים	-11.3923
▁מלמדת	-11.3924
▁מער	-11.3925
▁הטענות	-11.3926
ירא	-11.3926
▁53	-11.3928
תמוך	-11.3928
▁החכם	-11.393
▁חקלאי	-11.3932
▁הנס	-11.3932
▁בפוסט	-11.3933
קפו	-11.3933
▁מובילות	-11.3933
▁לחנות	-11.3934
▁הפרות	-11.3935
ודאי	-11.3937
ling	-11.3941
"),	-11.3942
▁באמנות	-11.3942
▁בטוב	-11.3942
נקר	-11.3942
▁וכלי	-11.3943
▁ממספר	-11.3943
ST	-11.3944
▁בברית	-11.3945
רוף	-11.3945
רור	-11.3947
▁אדל	-11.3947
סוד	-11.3948
▁למעמד	-11.3948
▁ורע	-11.3949
תסמיני	-11.3949
זמני	-11.395
▁מתגוררים	-11.3954
▁ואמרו	-11.3956
▁הרגישו	-11.3957
LE	-11.3957
iss	-11.3958
▁נקט	-11.3958
ְּ	-11.3959
▁מתמקדת	-11.3959
אגו	-11.396
▁עליון	-11.3961
ציבור	-11.3961
חנו	-11.3963
▁לשכב	-11.3966
נוהל	-11.3967
מונה	-11.3968
▁בגבול	-11.3972
▁קדושה	-11.3973
▁כתבות	-11.3973
הוצאת	-11.3974
פרופסור	-11.3976
פוטנציאל	-11.3976
▁משאב	-11.3979
▁בכוונת	-11.398
▁העבירה	-11.398
▁ויהיה	-11.3981
טאון	-11.3982
▁מלפני	-11.3985
גרד	-11.3987
שכ	-11.3987
▁ציפור	-11.3989
חשיבות	-11.3991
▁ומחקר	-11.3991
בעיות	-11.3992
יתרון	-11.3992
▁from	-11.3993
▁הנפוץ	-11.3993
▁סחורות	-11.3993
▁נפילת	-11.3994
▁הוצאה	-11.3994
▁הנאשם	-11.3994
▁מכוער	-11.3994
▁הוענק	-11.3994
▁שמשתמש	-11.3995
▁ביממה	-11.3996
▁שעולה	-11.3996
▁תאגיד	-11.3996
▁חתמו	-11.3997
▁המייצג	-11.3998
▁מתוכנן	-11.3998
▁יוקרתי	-11.3998
▁הכוללים	-11.3998
▁יתקיים	-11.3999
▁להבדיל	-11.3999
▁העירוני	-11.3999
תחושת	-11.4
▁להזיז	-11.4
▁להשתפר	-11.4
עילה	-11.4001
▁פלוס	-11.4001
▁אלברט	-11.4005
▁בטוויטר	-11.4006
מחסור	-11.4007
▁44	-11.4008
▁פירושה	-11.4008
▁מחל	-11.4009
▁מתכננת	-11.4009
▁מהנשים	-11.401
▁עמים	-11.401
▁בסרטים	-11.4011
▁מדורג	-11.4013
▁להכרה	-11.4013
ּוּ	-11.4014
מלכודת	-11.4014
▁שקיימת	-11.4015
▁כחבר	-11.4016
▁ובנוסף	-11.4016
▁מדעיים	-11.4016
▁ואלו	-11.4018
▁זרימת	-11.4018
▁מזעזע	-11.4018
▁סרב	-11.4018
▁פחם	-11.402
למעלה	-11.4021
▁הפרעת	-11.4021
ux	-11.4022
▁שוכן	-11.4024
▁סיינטולוגיה	-11.4025
שינה	-11.4025
▁קוט	-11.4026
▁ובר	-11.4028
▁לבטח	-11.4029
אמרתי	-11.4029
▁התאונה	-11.4029
▁ובלי	-11.403
חייל	-11.4031
טת	-11.4031
▁שכבות	-11.4034
▁לטפח	-11.4034
▁שטחי	-11.4034
▁לייצג	-11.4035
▁לחייך	-11.4035
▁בונוס	-11.4035
▁במשימה	-11.4037
▁הציעו	-11.4038
▁רצף	-11.4038
▁בכרטיס	-11.4039
▁גרין	-11.404
▁הדיאטה	-11.404
תבקש	-11.4041
▁בנתונים	-11.4041
▁יכל	-11.4041
לדוגמה	-11.4041
▁האשמה	-11.4043
תקשורת	-11.4044
וננו	-11.4044
▁לעיצוב	-11.4044
▁הנסיבות	-11.4045
▁תדמית	-11.4046
שיקול	-11.4047
▁ליבו	-11.4047
ערבי	-11.4047
▁Tag	-11.4047
▁בחרה	-11.4048
▁אישום	-11.4048
מיקרו	-11.405
▁2009.	-11.405
▁פתוחות	-11.405
▁לכלל	-11.4053
▁מחקרי	-11.4053
▁עקרון	-11.4054
▁משפחותיהם	-11.4055
-0	-11.4055
▁רכבים	-11.4056
▁לפגיעה	-11.4056
▁הווי	-11.4056
▁לגו	-11.4057
ְךָ	-11.4057
סתה	-11.4058
▁תסתכל	-11.4059
ביצוע	-11.406
נוּ	-11.4061
▁מסתיר	-11.4063
▁חולם	-11.4063
▁החופשית	-11.4064
▁בבעלי	-11.4065
בסוף	-11.4065
▁תובע	-11.4065
▁מאלוהים	-11.4067
▁רוסית	-11.4069
▁שומעת	-11.4072
▁אומה	-11.4074
▁התחייב	-11.4076
תחומי	-11.4076
▁התגלו	-11.4077
ארגוני	-11.4078
▁השב	-11.4078
▁וחברים	-11.4079
מורשת	-11.408
▁במדעי	-11.408
▁צדדי	-11.4081
▁ופעילות	-11.4082
▁מזהים	-11.4082
▁גול	-11.4083
אירועים	-11.4086
אקי	-11.4087
▁הסמים	-11.4087
איכות	-11.4088
▁הצריכה	-11.4088
ong	-11.4089
▁נכד	-11.4089
▁לתרגל	-11.4089
בשו	-11.4091
צייד	-11.4092
איראן	-11.4094
רפובליק	-11.4094
אנשי	-11.4095
▁10,000	-11.4095
▁היפנית	-11.4096
▁לדו	-11.4099
ning	-11.4099
פרצוף	-11.4099
▁שלווה	-11.41
▁היעיל	-11.4103
ציג	-11.4104
▁בודקים	-11.4105
▁אכלו	-11.4106
פרוטוקול	-11.4108
▁הזרים	-11.4109
▁שזהו	-11.4111
▁אורות	-11.4111
ערכי	-11.4112
▁ועבור	-11.4113
־ה	-11.4118
▁כשא	-11.4118
▁הקרה	-11.4119
מבנים	-11.4119
▁רציניים	-11.4123
▁בעצמנו	-11.4125
▁להתאהב	-11.4125
▁להאריך	-11.4125
▁מאוכזב	-11.4125
▁הפנסיה	-11.4125
▁כביסה	-11.4125
▁1984	-11.4126
▁הרושם	-11.4126
▁חולצה	-11.4127
זהו	-11.4128
▁ומקצועי	-11.4129
▁הליבה	-11.4129
▁לשחות	-11.4129
▁סוגר	-11.4129
PC	-11.413
התפתחויות	-11.4131
▁יצליחו	-11.4132
פוד	-11.4133
טכנולוגיה	-11.4133
▁עברנו	-11.4134
▁חובב	-11.4134
▁מקורי	-11.4135
▁והרי	-11.4135
▁פתחה	-11.4135
טענות	-11.4135
חמישים	-11.4136
▁מתייחסת	-11.4137
▁להפנות	-11.4137
▁העדכני	-11.4138
ציע	-11.4139
▁רוחב	-11.414
▁שפותח	-11.414
שורה	-11.4141
▁עבאס	-11.4141
▁ממצאי	-11.4142
סוציאליזם	-11.4142
משבר	-11.4143
▁המגרש	-11.4143
▁הארצי	-11.4143
▁יפתח	-11.4144
▁פלורידה	-11.4145
▁סקוטלנד	-11.4145
▁שולחים	-11.4148
חסוך	-11.4149
▁וייטנאם	-11.4149
▁ההנהגה	-11.4149
מובנים	-11.4151
▁הרחבת	-11.4151
ייני	-11.4152
▁שעזר	-11.4154
▁דנמרק	-11.4156
▁רם	-11.4156
▁Air	-11.4157
רכו	-11.4157
▁פריצת	-11.4157
▁מסתתר	-11.4157
רציתי	-11.4157
▁והחברה	-11.4158
▁1.2	-11.4158
▁ומערכות	-11.4159
▁שריר	-11.4159
▁בקיר	-11.4159
נאלי	-11.416
▁אנוכי	-11.4161
▁בשבי	-11.4161
▁שפורסמו	-11.4162
▁מטען	-11.4163
▁המתואר	-11.4164
▁בטן	-11.4164
▁בדואר	-11.4164
ראס	-11.4165
▁ההוראות	-11.4165
▁Wa	-11.4167
▁למקרה	-11.4168
▁עייפות	-11.4169
▁עוול	-11.417
▁יבחר	-11.417
▁תסריט	-11.417
▁המונית	-11.4171
▁Su	-11.4171
▁פורד	-11.4172
rt	-11.4172
שוטרים	-11.4172
▁וכיום	-11.4173
חבורה	-11.4173
▁דיג	-11.4173
▁שמתחיל	-11.4174
▁המשלוח	-11.4174
CH	-11.4174
▁di	-11.4175
▁בספרו	-11.4175
▁הפרוייקט	-11.4176
▁בשווקים	-11.4176
▁נורה	-11.4178
▁בחלקים	-11.4178
▁מודיע	-11.4178
lic	-11.4181
▁ומס	-11.4181
יזהר	-11.4181
▁הקצה	-11.4182
▁רציונלי	-11.4183
▁לחוף	-11.4183
▁מתגעגע	-11.4184
רטון	-11.4184
▁בבעיה	-11.4185
▁מפנה	-11.4185
▁האסלאמי	-11.4185
▁המוסלמי	-11.4185
מכירות	-11.4186
▁בפעילויות	-11.4187
אמונה	-11.4187
▁חיפה	-11.4187
▁לצרפת	-11.4187
▁וואו	-11.4189
▁הכיוון	-11.4189
▁קיצור	-11.4191
▁זעם	-11.4193
▁מחברות	-11.4194
▁שיכולתי	-11.4195
▁הצופים	-11.4195
עוז	-11.4196
טלטל	-11.4196
▁מאכזב	-11.4196
תוך	-11.4199
▁בּ	-11.42
▁בוצעו	-11.4201
▁החוויות	-11.4202
תחום	-11.4202
בדוק	-11.4203
▁למדנו	-11.4204
▁לעונה	-11.4204
▁הודי	-11.4205
▁במלוא	-11.4206
צמצם	-11.4206
▁התמודד	-11.4207
▁הורדת	-11.4208
▁לילי	-11.4209
▁שמואל	-11.421
▁באילו	-11.421
▁נהנית	-11.4212
▁בטי	-11.4212
▁קנ	-11.4212
▁יכולתו	-11.4213
פנתה	-11.4213
▁איטלקית	-11.4214
▁צבאיות	-11.4214
▁הרעש	-11.4216
אנז	-11.4218
▁מעובד	-11.4221
מודע	-11.4222
▁ביתר	-11.4222
pp	-11.4222
▁בלש	-11.4223
רוג	-11.4224
חמישי	-11.4224
צרף	-11.4224
CI	-11.4228
הנחות	-11.423
בחנה	-11.4231
▁התנגד	-11.4231
▁משולב	-11.4232
מדי	-11.4234
כיוון	-11.4234
▁סדיר	-11.4234
▁מכאב	-11.4235
▁שדיבר	-11.4236
▁אופק	-11.4237
▁אחוזי	-11.4238
▁At	-11.4238
ננה	-11.4239
CO	-11.4239
כדור	-11.424
▁2012.	-11.424
ָב	-11.4241
▁לקחה	-11.4245
תפקיד	-11.4247
חידוש	-11.4247
▁תלת	-11.425
▁הגבוהות	-11.4251
▁הרף	-11.4252
אנטי	-11.4253
▁חייבות	-11.4253
מטופלים	-11.4255
טרף	-11.4256
▁וחזק	-11.4258
display	-11.4258
[9]	-11.4258
▁העולמות	-11.4258
▁התמכרות	-11.4258
▁לתפקד	-11.4259
▁Night	-11.4259
▁כלשהם	-11.4259
▁התקיפה	-11.4261
▁נתונה	-11.4262
▁נטען	-11.4262
▁ישתנה	-11.4263
▁לסרב	-11.4263
▁40%	-11.4264
▁קליני	-11.4264
▁אמיץ	-11.4265
▁מוזמן	-11.4267
▁ולעזור	-11.4267
כאן	-11.4267
▁אינץ	-11.4269
▁מונעת	-11.4269
מחשבות	-11.4271
נטיות	-11.4273
▁בוער	-11.4277
▁John	-11.4277
חשיפה	-11.4277
דגל	-11.4278
▁האבטלה	-11.4281
נקמה	-11.4283
עדיפות	-11.4283
בונ	-11.4284
▁מלאות	-11.4285
▁המשימות	-11.4286
▁אומלל	-11.4286
▁המטען	-11.4287
▁אריאל	-11.4287
עשרות	-11.429
▁ההיגיון	-11.4293
גשים	-11.4294
להלן	-11.4295
▁הצהוב	-11.4295
▁המתנחלים	-11.4296
מסדר	-11.4297
').	-11.4297
בלתי	-11.4298
▁נברא	-11.4298
▁בשלבים	-11.43
ריאן	-11.4301
▁שהממשלה	-11.4301
▁שבעת	-11.4301
▁לאנרגיה	-11.4302
Qu	-11.4302
▁האהובה	-11.4302
ics	-11.4302
▁לשדה	-11.4302
הולנד	-11.4303
uck	-11.4303
▁אזרחיים	-11.4303
▁בעיירה	-11.4304
פחית	-11.4304
▁במעלה	-11.4305
▁אנגלי	-11.4305
מפעל	-11.4305
▁סמכויות	-11.4305
▁ספורים	-11.4306
▁43	-11.4308
▁בסרטון	-11.4308
▁it	-11.4308
▁שלחו	-11.4309
מוזיאונים	-11.4309
תקיפות	-11.431
▁דרכון	-11.431
▁חקלאות	-11.4313
▁Ar	-11.4313
▁ממקורות	-11.4314
אוטובוס	-11.4314
למען	-11.4316
▁האוניברסיטאות	-11.4317
▁עייף	-11.432
▁מילוי	-11.4321
גזע	-11.4324
ical	-11.4325
▁מקיפה	-11.4325
▁47	-11.4325
▁כימיקלים	-11.4326
צרה	-11.4327
▁המשנה	-11.4327
SC	-11.4328
▁נפטרה	-11.4328
▁הדורש	-11.4328
תיקון	-11.4329
▁פיקוד	-11.4329
IG	-11.433
▁בתנ	-11.433
▁החמאס	-11.4332
ברך	-11.4333
צרפת	-11.4334
▁נבוא	-11.4335
▁מתפתח	-11.4336
עובד	-11.4337
▁לקיום	-11.4339
▁הרכוש	-11.4344
▁השלבים	-11.4345
▁משתפר	-11.4345
קוריאה	-11.4349
▁מושגים	-11.4349
▁שעבור	-11.4349
▁ישפיע	-11.4351
רוכב	-11.4352
עובדות	-11.4354
ish	-11.4354
ness	-11.4354
▁המקוריים	-11.4355
▁תדעו	-11.4357
▁נוסח	-11.4357
▁הפת	-11.4359
▁המעי	-11.4359
dia	-11.436
ברית	-11.436
▁חוגגים	-11.4364
חמלה	-11.4364
tch	-11.4365
פצו	-11.4366
▁לגובה	-11.4366
▁ייחודיים	-11.4367
▁מצויד	-11.4373
▁מתמטי	-11.4373
▁לילות	-11.4374
יימי	-11.4378
▁שחקנית	-11.4379
▁התנהלות	-11.4379
▁95	-11.4382
▁בדיוני	-11.4385
▁עתיקים	-11.4386
▁72	-11.4387
▁שנע	-11.4387
▁צמא	-11.4388
▁סטר	-11.4389
מדוע	-11.4389
דיי	-11.4389
▁קשת	-11.439
▁הרבות	-11.4391
ire	-11.4391
▁פירס	-11.4393
▁שנינו	-11.4393
▁בקמפוס	-11.4393
▁מעוניינת	-11.4393
▁מקוונת	-11.4393
▁Center	-11.4393
▁ארוכת	-11.4393
▁רחמים	-11.4393
▁לאחסן	-11.4394
פשיעה	-11.4394
▁1943	-11.4394
▁וכדומה	-11.4394
▁היישוב	-11.4396
תרכז	-11.4396
▁השלג	-11.4396
▁תומס	-11.4397
▁ההווה	-11.4399
▁אויבים	-11.4399
▁לפיה	-11.44
▁שמירת	-11.44
▁Outlook	-11.4402
▁ולמצוא	-11.4402
ציוני	-11.4402
מפלגה	-11.4405
סמי	-11.4405
▁המבוגרים	-11.4406
חווה	-11.4407
▁כתפי	-11.4407
▁מכחיש	-11.4407
תעשייה	-11.4408
ana	-11.4409
▁חשמלית	-11.4411
▁מסור	-11.4411
▁מקומו	-11.4413
▁מסרים	-11.4414
▁הקש	-11.4417
▁נערות	-11.4418
▁הצוואר	-11.442
▁רכישות	-11.442
EM	-11.4421
▁תמצית	-11.4422
▁לאיחוד	-11.4422
אותן	-11.4423
נאצים	-11.4424
▁נקבל	-11.4426
▁מיהר	-11.4426
▁הגילוי	-11.4427
הצל	-11.4427
▁בשיפור	-11.443
▁בפסטיבל	-11.4431
▁הצמחים	-11.4431
▁בתיכון	-11.4431
▁מתקדמות	-11.4435
▁בידור	-11.4436
▁מרגיע	-11.4436
▁שווא	-11.4437
▁התקנת	-11.4437
▁העמדה	-11.4437
▁לזוז	-11.4437
חוויה	-11.4437
▁מודיעין	-11.4438
▁הפסוק	-11.4439
▁הונאה	-11.444
▁קורות	-11.4441
ממשל	-11.4444
▁לגרמניה	-11.4445
ליות	-11.4445
▁דיאלוג	-11.4446
מלכה	-11.4447
▁שליליים	-11.4449
▁הרומית	-11.4449
▁חקירת	-11.4449
▁הגבלות	-11.4451
ברק	-11.4451
▁מילת	-11.4451
ייצוג	-11.4451
▁בבו	-11.4452
▁המניע	-11.4452
▁שאמרת	-11.4452
▁מוותר	-11.4453
עוצמה	-11.4453
▁בכנסת	-11.4453
▁להעיר	-11.4454
▁שתיהן	-11.4454
▁לֹא	-11.4454
▁בספורט	-11.4455
▁בפעולות	-11.4457
▁עפ	-11.4457
▁תאמר	-11.4457
8,000	-11.4458
▁מיס	-11.4459
▁קווין	-11.446
נטייה	-11.446
חלום	-11.4461
▁עוצמתי	-11.4461
▁השגריר	-11.4462
▁שאוהב	-11.4462
▁Sc	-11.4462
▁הגיש	-11.4463
RS	-11.4463
ישעיה	-11.4463
▁אוכלוסיות	-11.4464
כפל	-11.4467
▁ארגנטינה	-11.4469
▁התבקש	-11.4469
▁בחוף	-11.4469
▁איפשר	-11.4472
▁אסר	-11.4473
▁התקרב	-11.4475
▁הקלאסית	-11.4476
▁נכתבו	-11.448
▁נמנ	-11.4481
▁o	-11.4482
▁שחזר	-11.4482
▁ביוון	-11.4482
ליל	-11.4483
▁לשמח	-11.4486
בהיר	-11.4487
IA	-11.4488
מועד	-11.4489
תרגול	-11.449
אחז	-11.449
▁שיע	-11.4491
▁כיכר	-11.4491
▁שולל	-11.4495
איל	-11.4495
▁התפשטות	-11.4495
יצירות	-11.4496
▁המוסרי	-11.4496
▁פיצה	-11.4497
▁הרובוט	-11.4499
▁מתחילות	-11.4502
ארגונים	-11.4505
התנגדות	-11.4506
▁פתחו	-11.4507
▁רשע	-11.4508
יטול	-11.4508
!".	-11.4509
▁ישראליות	-11.4516
lar	-11.4517
▁מדווח	-11.4518
▁פריס	-11.4519
עשן	-11.4519
▁הזרע	-11.452
מדריך	-11.4521
תכניות	-11.4521
ציפיות	-11.4522
▁סבלו	-11.4524
▁המוסדות	-11.4525
מזונות	-11.4526
וקו	-11.4527
עלי	-11.4528
קרט	-11.4529
▁2016,	-11.4529
▁האולטימטיבי	-11.453
▁המוזיקלי	-11.453
▁להסתדר	-11.453
▁משעשע	-11.453
▁{\	-11.453
▁התזמורת	-11.4531
▁ולנסות	-11.4531
▁1969	-11.4531
▁1976	-11.4531
▁וקשה	-11.4532
▁1970	-11.4532
▁העדיפויות	-11.4533
מאסטר	-11.4533
▁רגילות	-11.4533
▁פוסק	-11.4534
חרדה	-11.4535
▁פורצ	-11.4535
אופן	-11.4536
▁שנפתח	-11.4536
▁הקנדי	-11.4537
▁ובראשונה	-11.4537
▁מיסים	-11.4538
▁להצדיק	-11.4538
▁נגרם	-11.4538
▁לוחם	-11.4541
יחד	-11.4543
▁פורסמו	-11.4544
מדיה	-11.4545
▁2012,	-11.4546
▁המקובל	-11.4547
▁לקוות	-11.4547
▁מעניינות	-11.4547
▁מתקש	-11.4548
▁קודמת	-11.455
▁הרגלים	-11.455
▁Fu	-11.4553
יגה	-11.4553
▁עדכני	-11.4553
▁השנתית	-11.4555
▁בכור	-11.4556
▁אימוץ	-11.4556
▁מדיני	-11.4559
▁הארכ	-11.4561
▁הבקבוק	-11.4561
▁בסבלנות	-11.4562
▁בשיטת	-11.4563
▁אגיד	-11.4565
אוויר	-11.4565
▁הקבצים	-11.4566
▁התסריט	-11.4566
אהוב	-11.457
הנאה	-11.457
▁תשובתי	-11.4572
להקטין	-11.4574
▁לבחירות	-11.4575
▁הדיווחים	-11.4575
▁פח	-11.4577
▁נבחרים	-11.4577
▁מוכנות	-11.4578
▁הנפוצות	-11.4578
▁תעבור	-11.4578
▁תאונה	-11.4579
▁שרציתי	-11.4582
דיבור	-11.4583
▁נשואה	-11.4583
▁התרחשו	-11.4584
▁נשמות	-11.4584
▁לספור	-11.4584
▁העלויות	-11.4586
סליחה	-11.4586
תרחיש	-11.4586
טוהר	-11.4589
▁וראיתי	-11.4589
▁מזכ	-11.4589
▁ארמון	-11.4589
▁נולדים	-11.4593
▁מלהיות	-11.4594
הזדמנות	-11.4594
▁בהגנה	-11.4594
▁שבוצעו	-11.4594
▁רעבים	-11.4595
▁הסוס	-11.4596
▁האגם	-11.4596
▁בפניו	-11.4596
שחור	-11.4598
dd	-11.4598
▁מתג	-11.4599
▁מוצדק	-11.4599
▁לתכנית	-11.4599
▁כראש	-11.4601
דעה	-11.4602
▁שחש	-11.4603
q	-11.4603
▁ואבא	-11.4604
▁2010.	-11.4604
▁כבל	-11.4606
▁(6	-11.4607
▁הרצאות	-11.4607
▁גרא	-11.4607
התקדמות	-11.4607
רסק	-11.4607
▁הימני	-11.4612
▁שנותרו	-11.4613
▁בקטע	-11.4613
▁שחרר	-11.4613
▁יגיד	-11.4614
▁שימשו	-11.4615
ative	-11.4615
אוור	-11.4616
▁יכולתם	-11.4616
עיצוב	-11.4619
אנושי	-11.462
עידוד	-11.462
אמינות	-11.462
▁נחקר	-11.4621
▁ההפך	-11.4623
▁מוריס	-11.4625
סטן	-11.4625
▁הקולות	-11.4629
ניקה	-11.4631
▁תרש	-11.4631
lor	-11.4632
▁אַ	-11.4633
סתבר	-11.4633
▁היצורים	-11.4634
▁הירידה	-11.4637
נאט	-11.4639
▁שילד	-11.4639
▁סב	-11.4643
▁הבחורה	-11.4644
▁תיקח	-11.4644
תמונות	-11.4645
▁הסגל	-11.4647
▁הזרם	-11.465
תקן	-11.465
▁חששות	-11.465
▁שוכחים	-11.465
▁רנ	-11.4655
חלון	-11.4655
תקני	-11.4656
▁היוצרים	-11.4656
▁ברדיו	-11.4657
▁במח	-11.4657
מנוע	-11.4659
▁עתיקה	-11.466
▁הכו	-11.4661
השלכות	-11.4663
▁משיב	-11.4663
חצה	-11.4664
▁קרובי	-11.4664
▁איברים	-11.4665
גרים	-11.4667
שבו	-11.4668
▁ומרכז	-11.4669
▁Group	-11.4669
▁אטרקציות	-11.4669
▁החינוכי	-11.4669
[11]	-11.4669
▁בנאום	-11.4669
▁פדרלי	-11.467
▁בעובדה	-11.467
▁1973	-11.467
▁1949	-11.467
▁1947	-11.467
▁Out	-11.4671
▁התחומים	-11.4671
תפיסה	-11.4672
▁להכחיש	-11.4673
▁שמגיעים	-11.4674
פוליטיקאים	-11.4674
▁ואור	-11.4676
▁ידידות	-11.4676
היתה	-11.4676
▁שקראתי	-11.4676
▁העולה	-11.4678
טלוויזיה	-11.4681
▁לנמל	-11.4681
▁האופל	-11.4681
▁מקיימים	-11.4682
טקסט	-11.4684
זרימה	-11.4685
פרסום	-11.4685
▁לשחקן	-11.4685
▁אורי	-11.4685
▁המצור	-11.4685
▁לקוי	-11.4686
▁סבב	-11.4687
▁ההנהלה	-11.4687
▁דוחות	-11.4687
▁קראה	-11.4688
▁הדגש	-11.4688
▁יכולנו	-11.4688
▁״ה	-11.4689
יצור	-11.4689
▁קווים	-11.4689
▁שמכיר	-11.469
▁ברבעון	-11.4691
▁ההגעה	-11.4692
▁חילוני	-11.4692
000	-11.4693
▁יליד	-11.4693
▁סם	-11.4694
▁אופציה	-11.4695
כוכב	-11.4696
▁כלול	-11.4697
▁ממוצא	-11.4697
פירוש	-11.4697
▁היומי	-11.47
bs	-11.47
▁דיו	-11.4701
ארג	-11.4701
▁מניחים	-11.4701
▁שיקגו	-11.4702
▁האולימפי	-11.4702
▁עסוקים	-11.4703
▁פיר	-11.4703
▁אחותו	-11.4704
באתי	-11.4705
▁סוגיות	-11.4705
▁מבוא	-11.4706
▁בכמויות	-11.4707
▁המורדים	-11.4708
▁הבטוח	-11.4709
▁ממילא	-11.471
הלכת	-11.4711
SM	-11.4711
▁עומס	-11.4712
▁הדרישה	-11.4712
טוק	-11.4713
▁לרבים	-11.4713
ברט	-11.4714
▁תרמו	-11.4714
▁סטרי	-11.4715
▁שהצ	-11.4716
▁עולות	-11.4716
המשך	-11.4719
ting	-11.4719
▁השטחים	-11.472
▁שרדו	-11.4721
▁ללימודי	-11.4721
▁השבעים	-11.4722
▁בתוצאות	-11.4723
תזמור	-11.4723
▁הפגנות	-11.4724
▁ולאפשר	-11.4726
פציעה	-11.4727
במשך	-11.4727
▁נפרדות	-11.4727
ריבוע	-11.4729
▁עקבות	-11.4729
מומחי	-11.4729
▁הדעות	-11.473
▁השמחה	-11.473
▁אפר	-11.473
▁האיומים	-11.4731
▁חשו	-11.4732
עקוב	-11.4732
אזרחי	-11.4734
מנסה	-11.4736
▁מיומנות	-11.4736
▁החוש	-11.4736
▁דחף	-11.4738
▁קרים	-11.4738
▁השמיני	-11.4738
▁הפופולרי	-11.474
ok	-11.474
▁במשטרה	-11.4741
הבעיה	-11.4741
בחנת	-11.4742
▁האין	-11.4745
▁המגע	-11.4745
נימוס	-11.4746
▁קרס	-11.4747
▁המקצועיים	-11.4748
▁האלוהי	-11.4748
▁בסכום	-11.4749
קישור	-11.4749
▁באמצעי	-11.4749
▁הספרדית	-11.475
▁צעצועים	-11.475
IF	-11.4751
▁גזענות	-11.4752
שעה	-11.4752
▁מינהל	-11.4752
▁פן	-11.4753
פיצ	-11.4753
▁לכוון	-11.4754
▁במוזיקה	-11.4754
▁לתמונה	-11.4754
אפס	-11.4754
▁לנשק	-11.4756
▁התפשט	-11.476
▁הנפוצים	-11.4761
▁בפחות	-11.4763
▁אלקטרוניים	-11.4764
פיקסל	-11.4765
▁אלמנטים	-11.4765
▁56	-11.4766
▁שוכח	-11.4767
ייך	-11.4767
▁עמידה	-11.477
▁הוגש	-11.4772
▁נופלים	-11.4773
▁פגיע	-11.4773
ממדי	-11.4778
▁סיר	-11.4778
שעות	-11.4778
וואן	-11.4778
קיץ	-11.4779
▁לחשב	-11.478
דרכו	-11.478
▁במוצר	-11.478
בנת	-11.4781
▁קליניים	-11.4781
▁אקדמית	-11.4782
▁מיעוט	-11.4782
▁אותיות	-11.4782
ספור	-11.4785
שנו	-11.4787
▁בתורה	-11.4787
אמשיך	-11.4787
▁פרסי	-11.479
▁41	-11.479
▁שיקר	-11.479
▁החוט	-11.479
▁הסב	-11.4791
▁נפלה	-11.4792
טבעי	-11.4795
בורא	-11.4795
▁מתארת	-11.4796
▁כיתה	-11.4797
▁).	-11.4798
▁שובר	-11.4798
ata	-11.4798
ענפים	-11.4799
▁מושבים	-11.48
ַח	-11.48
ors	-11.48
▁דע	-11.4802
▁תארו	-11.4803
משפחת	-11.4803
שמעתי	-11.4805
▁שקרא	-11.4806
גוס	-11.4806
▁שמעל	-11.4806
▁קדם	-11.4807
▁החופשה	-11.4807
▁לאזרחים	-11.4808
▁שעזב	-11.4808
▁הותיר	-11.4809
▁יצירתית	-11.4809
ספורט	-11.481
אצטדיון	-11.481
▁House	-11.481
▁הסכימה	-11.481
▁נפוצים	-11.481
▁לטעום	-11.481
book	-11.481
▁1982	-11.4811
▁1985	-11.4811
▁יפו	-11.4811
▁1977	-11.4811
▁מחמיר	-11.4811
▁ואשתו	-11.4812
▁פשעים	-11.4813
לבנון	-11.4814
מיקומים	-11.4814
▁המבקשים	-11.4815
לוב	-11.4815
▁להסתגל	-11.4816
▁ענתה	-11.4817
▁למדה	-11.4818
▁עתיר	-11.4818
▁לחצות	-11.4818
אווי	-11.4818
▁להקפיד	-11.4819
העולם	-11.4819
▁Skype	-11.4819
▁תצא	-11.4819
▁ייצא	-11.4819
▁המאוחדות	-11.482
▁שמיעה	-11.482
▁מתרגש	-11.4822
▁לשו	-11.4824
▁להערכת	-11.4825
46	-11.4825
בדרך	-11.4826
יישן	-11.4826
▁יפסיק	-11.4827
▁נוב	-11.4827
▁בשכר	-11.4828
▁השאיפה	-11.4828
▁אקדמיים	-11.483
rin	-11.4831
▁ביצעו	-11.4831
יחיד	-11.4833
▁נלחמים	-11.4834
▁הביקוש	-11.4834
חולים	-11.4835
▁המסקנה	-11.4835
Co	-11.4839
▁ממצאים	-11.484
קומו	-11.484
▁במבחן	-11.4842
▁המעורבים	-11.4844
▁מתבטא	-11.4845
כיוונ	-11.4846
▁הבחינה	-11.4847
▁אחיות	-11.4847
▁מיכל	-11.4847
▁הרשו	-11.4848
▁טול	-11.4848
▁נפרדת	-11.4848
▁הכותב	-11.4849
פּ	-11.485
▁לחלל	-11.485
▁האטלנטי	-11.4851
מכונות	-11.4852
כבה	-11.4853
▁האיסור	-11.4854
גיוס	-11.4858
▁ההתקפה	-11.4858
▁הנפשי	-11.4858
▁קש	-11.486
▁המלאך	-11.4861
פעילויות	-11.4861
▁מראות	-11.4861
▁לנער	-11.4863
▁ומקבל	-11.4863
▁משרה	-11.4865
▁בשפת	-11.4867
▁רחובות	-11.4867
▁גלקסי	-11.4869
▁סכסוכים	-11.4869
▁הסיור	-11.487
▁בתיאטרון	-11.487
win	-11.4871
פעולות	-11.4873
▁הסעודית	-11.4873
קירור	-11.4873
▁מיטב	-11.4874
▁לייזר	-11.4874
▁כבישים	-11.4874
▁עציר	-11.4876
▁אינסופי	-11.4879
▁גישות	-11.488
▁2017)	-11.488
▁ספקי	-11.4881
▁Up	-11.4882
▁גנטית	-11.4882
▁כלכליות	-11.4884
▁המפיק	-11.4885
BA	-11.4891
אצל	-11.4893
▁מתקנים	-11.4894
▁בהסכם	-11.4895
OT	-11.4895
▁פשט	-11.4895
יצא	-11.4896
▁מיוצר	-11.4898
▁מישל	-11.4898
▁עוף	-11.4899
▁מאור	-11.4899
אלא	-11.49
▁ילדיו	-11.49
נייר	-11.4901
דפים	-11.4903
המשטרה	-11.4906
▁בצעדים	-11.4907
▁מעמדה	-11.4907
▁העידן	-11.4907
החלטת	-11.4909
han	-11.4909
CR	-11.491
איור	-11.4912
▁התפלל	-11.4912
▁יצרנית	-11.4913
▁הפריטים	-11.4915
▁לשיעור	-11.4915
rop	-11.4915
▁עיכוב	-11.4915
הערה	-11.4916
▁ממהר	-11.4918
▁למת	-11.492
▁בזירה	-11.4922
▁מארח	-11.4922
▁מאוהב	-11.4922
▁לשכת	-11.4925
▁לתושבי	-11.4928
▁עודד	-11.4928
התערבות	-11.4932
▁ומוות	-11.4932
אמריקה	-11.4939
ated	-11.494
▁אמיתיות	-11.494
חסד	-11.4942
הבטחת	-11.4943
▁שנוצרו	-11.4945
▁מייצרת	-11.4948
מגבלות	-11.4949
▁כחברה	-11.495
▁סכסוך	-11.4953
▁ממחצית	-11.4953
▁יפגע	-11.4953
▁לרצוח	-11.4953
▁סלולרי	-11.4953
▁בעדינות	-11.4953
▁בוחנים	-11.4953
▁סירבו	-11.4953
▁הונגריה	-11.4953
▁העבודות	-11.4954
▁גלולות	-11.4954
▁קורט	-11.4954
▁כאמצעי	-11.4955
▁שנגרם	-11.4956
▁נועז	-11.4956
▁מביע	-11.4957
▁לעזרת	-11.4957
▁הפולני	-11.4958
▁ומציע	-11.4959
▁בינ	-11.496
▁90%	-11.496
▁המתפתח	-11.4961
▁דעתם	-11.4961
▁תחזית	-11.4962
▁ימ	-11.4963
תרגום	-11.4963
▁רחל	-11.4965
▁שנתן	-11.4965
נגן	-11.4965
▁הגנטי	-11.4968
▁Ga	-11.497
▁הרבי	-11.497
▁עכשווי	-11.4971
▁מהאוכלוסייה	-11.4972
▁שיוצא	-11.4972
▁שראינו	-11.4973
▁הפשוט	-11.4973
▁App	-11.4973
▁צמר	-11.4973
פרופיל	-11.4975
▁כנשיא	-11.4976
▁וללכת	-11.4976
▁מניחה	-11.4978
▁בלגיה	-11.4979
▁המודרניים	-11.4979
▁נבע	-11.498
ראיתי	-11.4982
ארלי	-11.4982
ניצול	-11.4985
▁האספקה	-11.4986
▁Da	-11.4986
▁הלבנה	-11.4987
▁הבטחה	-11.4987
▁מעיר	-11.4987
dy	-11.4987
▁שהשתמש	-11.4988
ev	-11.4989
▁מחייבת	-11.4991
טקס	-11.4992
▁לדרישות	-11.4993
▁הישראליות	-11.4993
▁החגים	-11.4994
nc	-11.4995
▁לצפון	-11.4995
אפו	-11.4996
▁הכימי	-11.4996
נקט	-11.4996
▁American	-11.4997
▁לדירה	-11.4999
▁האינפלציה	-11.4999
זרם	-11.5001
▁וקר	-11.5005
שער	-11.5005
▁רצועת	-11.5006
▁אבר	-11.5007
▁החומה	-11.5007
▁ניתנות	-11.5007
▁99	-11.501
צחוק	-11.5011
▁מיליארדי	-11.5012
▁הרפתקאות	-11.5012
▁מאר	-11.5012
▁הסובייטי	-11.5017
בנים	-11.5017
▁מעכשיו	-11.5017
▁הורס	-11.5018
▁הזולת	-11.502
▁הרווחים	-11.5021
▁החשיפה	-11.5021
▁מגורי	-11.5022
▁בעוצמה	-11.5023
▁לפיו	-11.5024
▁למשא	-11.5024
▁זכאים	-11.5025
▁בהתייחס	-11.5027
צטרפו	-11.5028
AP	-11.5028
אוניברסיטאות	-11.5028
גרמניה	-11.503
▁הזוכה	-11.5032
▁רכיב	-11.5037
▁מנג	-11.5037
דגם	-11.5039
▁זמנו	-11.5039
▁האנטישמיות	-11.5041
▁זהיר	-11.5042
▁הוריהם	-11.5042
▁מוזיאונים	-11.5043
▁בצה	-11.5044
תלבש	-11.5045
ברור	-11.5046
▁פיט	-11.5046
▁אמריקנים	-11.505
▁לוודאי	-11.5051
▁לגבול	-11.5052
▁בעסקים	-11.5052
▁התה	-11.5054
▁אבינו	-11.5054
-150	-11.5055
▁מעבדה	-11.5056
ערבים	-11.5056
המלחמה	-11.5057
▁צודקים	-11.5058
ונגל	-11.5059
מתנה	-11.506
▁[1]	-11.506
▁מדרגה	-11.506
אץ	-11.5062
▁מגנטי	-11.5063
ake	-11.5064
תגובת	-11.5066
pt	-11.5067
▁ואן	-11.507
בריאות	-11.5071
▁לבש	-11.5072
בייג	-11.5074
▁ורוח	-11.5075
משחקי	-11.5076
אוכל	-11.5076
▁האצבע	-11.5084
קופים	-11.5084
▁מצור	-11.5084
סוציאל	-11.5085
מכיוון	-11.5086
ree	-11.5086
גבי	-11.5086
▁2011,	-11.5086
▁מעבד	-11.5087
כלכלת	-11.5089
כולן	-11.5089
▁נאות	-11.509
▁360	-11.5092
תפתח	-11.5092
▁ועבד	-11.5092
▁הרגשי	-11.5093
▁חשה	-11.5094
▁הודיעו	-11.5094
בעיה	-11.5095
▁עיקר	-11.5096
▁צילומי	-11.5096
שרון	-11.5098
▁קוגניטיבי	-11.5098
▁נוחים	-11.5098
עיסוק	-11.5098
▁ופועל	-11.5098
▁שמביא	-11.5098
ביד	-11.5099
▁צמיחת	-11.5099
▁וּ	-11.5099
▁פקודה	-11.5099
▁נהוג	-11.5099
▁בחסות	-11.5099
▁פלילית	-11.5099
▁1950	-11.51
▁מוטרד	-11.51
טלפונים	-11.51
▁השמונים	-11.5101
באותו	-11.5101
▁הרחם	-11.5101
▁80%	-11.5101
▁שתדע	-11.5102
קשים	-11.5102
▁חולמים	-11.5102
▁למזרח	-11.5103
▁גרסת	-11.5103
▁בכיס	-11.5103
▁האגדה	-11.5104
▁תיקונים	-11.5104
▁פסיכיאטרי	-11.5105
Book	-11.5106
▁מצוינים	-11.5106
▁פרישה	-11.5107
▁לבסס	-11.5108
▁דואגים	-11.5109
▁להיזהר	-11.5109
▁אחלה	-11.511
ous	-11.5112
▁למדעים	-11.5112
▁הסלולרי	-11.5112
▁שהש	-11.5113
▁ההלוואה	-11.5114
▁הוכחות	-11.5115
▁Black	-11.5116
סקו	-11.5116
▁נפתחה	-11.5116
▁ממס	-11.5118
▁En	-11.5119
▁לערך	-11.512
▁הטרי	-11.5121
אורגניזם	-11.5122
מענה	-11.5123
▁שהגוף	-11.5123
▁המתחרים	-11.5124
▁שילדים	-11.5127
▁לזכר	-11.5127
FBI	-11.5128
▁מתקפה	-11.5129
▁כעשר	-11.513
ממוצע	-11.5132
▁קריטית	-11.5134
▁המארח	-11.5135
אוקיינוס	-11.5136
▁2.5	-11.5136
▁46	-11.5137
▁המלאכים	-11.5137
▁מפחית	-11.5138
▁ברצועת	-11.5138
▁כבעל	-11.5139
במקום	-11.5139
▁תירוץ	-11.5141
▁הדיפלומטי	-11.5142
▁סבירה	-11.5142
▁ברפואה	-11.5143
▁אפליקציות	-11.5143
▁וקיבל	-11.5143
▁טענת	-11.5143
▁מתמטיקה	-11.5144
רשומות	-11.5144
▁ידה	-11.5144
▁בהשתתפות	-11.5144
▁תורמים	-11.5146
נפו	-11.5146
תוצר	-11.5146
▁בעמדה	-11.5147
▁שגיל	-11.5149
▁מאלו	-11.5153
▁המוצא	-11.5153
▁להפיל	-11.5154
▁האסון	-11.5154
▁כעל	-11.5155
▁הפרדה	-11.5155
▁במעבר	-11.5157
▁קבור	-11.5158
▁שינו	-11.516
ED	-11.5161
סיפוק	-11.5162
▁בשנתיים	-11.5162
שדות	-11.5163
▁חצות	-11.5164
du	-11.5164
נִי	-11.5165
▁חלבונים	-11.5166
▁הקורסים	-11.5167
▁מבשר	-11.5168
▁מנותק	-11.5168
תחדש	-11.517
ספיק	-11.5171
▁פותחת	-11.5172
החלטתי	-11.5172
▁היחידות	-11.5173
▁כוסות	-11.5173
▁לכסף	-11.5174
▁השבועות	-11.5174
.[2]	-11.5174
ריקוד	-11.5174
▁אפשריות	-11.5174
▁רעידות	-11.5174
▁וארגונים	-11.5176
▁אבני	-11.5176
▁הנחש	-11.5178
▁הסתובב	-11.5179
▁זית	-11.518
הוד	-11.5181
טבל	-11.5181
▁זוגי	-11.5182
▁התחת	-11.5184
▁המציא	-11.5184
▁בדור	-11.5185
▁עצרו	-11.5186
מבוגרים	-11.5186
▁יורה	-11.5187
שלושה	-11.5187
מינרל	-11.5188
משתמשים	-11.5188
▁מקדם	-11.5188
▁שכיח	-11.5189
▁(7	-11.519
▁לדף	-11.519
קרנות	-11.5191
שבח	-11.5191
▁לתנאים	-11.5193
▁עדשות	-11.5194
▁מעיל	-11.5195
▁ובדרך	-11.5196
▁וכולל	-11.5196
▁גנים	-11.5198
▁בנשים	-11.5199
מכנסיים	-11.5199
▁קורים	-11.5199
IL	-11.52
▁ממזרח	-11.52
הוצאות	-11.52
▁משמאל	-11.5201
▁מעשיו	-11.5202
▁הפשוטה	-11.5202
▁מלכת	-11.5203
▁אייר	-11.5203
tter	-11.5204
▁במחשבה	-11.5204
חזות	-11.5206
וקצ	-11.5206
▁נפגעו	-11.5207
▁ההישגים	-11.5208
▁הממשלתי	-11.5208
חוף	-11.5208
▁מוד	-11.5209
▁לאהבה	-11.5209
▁קנס	-11.521
▁החזרת	-11.5211
תושבים	-11.5212
▁לימודיו	-11.5213
יחות	-11.5213
▁85	-11.5213
צרות	-11.5213
▁פרוייקט	-11.5214
▁המוצע	-11.5214
▁מרד	-11.5215
▁קובעת	-11.5216
▁מתעוררת	-11.5217
▁רחוקים	-11.5217
ash	-11.5221
▁סיכ	-11.5223
▁שוחררו	-11.5224
▁לגבולות	-11.5225
▁פצועים	-11.5228
▁אשמת	-11.523
▁תשמע	-11.5231
דיבר	-11.5231
▁שולי	-11.5234
▁ממצב	-11.5236
▁מעתה	-11.5236
▁רווי	-11.5237
▁שכיר	-11.5238
▁מוצ	-11.5238
נציבות	-11.5238
לפעמים	-11.5239
▁המסורתית	-11.5243
נדון	-11.5243
PO	-11.5243
מועצת	-11.5243
נעלי	-11.5244
▁ההודי	-11.5244
׃	-11.5245
▁אבחון	-11.5245
▁שמסוגל	-11.5245
▁נטילת	-11.5245
גופכם	-11.5245
▁הסחורה	-11.5245
▁ניקיון	-11.5245
▁1941	-11.5245
▁באליפות	-11.5245
▁בפשטות	-11.5246
דומיין	-11.5246
חברתי	-11.5246
▁המוקדמים	-11.5247
אוסף	-11.5248
▁התכוון	-11.5248
▁שהוגש	-11.5249
▁בתוכה	-11.5249
▁יבינו	-11.5249
▁ירוקים	-11.525
▁הקניות	-11.5251
▁להתחמק	-11.5252
▁מוחזק	-11.5254
דמיון	-11.5256
▁אחזור	-11.5257
גיה	-11.5257
▁תוכנן	-11.5257
▁הנתבע	-11.5257
▁שבעולם	-11.5259
▁מיץ	-11.5261
▁Good	-11.5262
▁חומצות	-11.5264
רוא	-11.5264
רקס	-11.5264
▁בפה	-11.5264
▁ולגרום	-11.5265
▁יספק	-11.5265
▁מגוונים	-11.5267
▁עיתונים	-11.5267
טעות	-11.5267
▁משדר	-11.5269
▁כמנהל	-11.527
▁שגויה	-11.527
▁מהירים	-11.5272
SH	-11.5273
▁אראה	-11.5273
▁Am	-11.5273
▁לרעיון	-11.5273
▁ההתנחלויות	-11.5274
▁סכין	-11.5275
▁קמה	-11.5275
▁במימון	-11.5275
▁הפעילים	-11.5275
LA	-11.5276
▁CBD	-11.5276
▁ויוצא	-11.5277
▁מוצלחים	-11.5277
IR	-11.5277
▁וירג	-11.528
דלק	-11.528
בדיוק	-11.5281
▁פייר	-11.5281
חוות	-11.5281
כתיבה	-11.5281
▁iPhone	-11.5283
▁מדאיג	-11.5283
▁התיישב	-11.5284
צער	-11.5284
▁חולשה	-11.5284
▁חתיכ	-11.5285
▁ונשאר	-11.5286
LS	-11.5286
▁אנושיות	-11.5287
▁פילוסופיה	-11.5288
▁משלחת	-11.5288
▁ההופעות	-11.5288
▁המפורט	-11.5291
▁בדוח	-11.5292
טיסות	-11.5294
▁גוד	-11.5295
חוט	-11.5295
שילוב	-11.5295
▁כשיר	-11.5296
▁ולקחת	-11.5297
▁בפתח	-11.5299
אותו	-11.53
▁נוראי	-11.53
ain	-11.53
צמד	-11.53
▁האצבעות	-11.5301
ראשון	-11.5304
מוט	-11.5304
▁חיזוק	-11.5306
▁בבתים	-11.5307
▁הבינ	-11.5308
אמור	-11.5312
ste	-11.5313
▁לתנועה	-11.5313
ore	-11.5314
גיא	-11.5315
▁תפקידה	-11.5315
▁לרוסיה	-11.5315
▁שונאת	-11.5315
▁משאל	-11.5316
▁ברצוני	-11.5316
▁בזו	-11.5317
▁מחבלים	-11.5318
▁וחזר	-11.5318
▁פוקס	-11.5318
▁במכירות	-11.5319
▁נורו	-11.532
▁שלטונו	-11.5322
▁ללחץ	-11.5326
▁מתפתחת	-11.5326
▁קביעת	-11.5326
▁סנד	-11.5327
▁שיבוא	-11.5328
▁הופק	-11.5329
▁יופיע	-11.5329
▁תצפית	-11.533
▁רוסים	-11.5333
▁השקר	-11.5334
▁בציור	-11.5335
נשא	-11.5335
▁בגדול	-11.5338
▁מחויבת	-11.534
▁Du	-11.534
עיירות	-11.5341
▁שקי	-11.5341
▁דנה	-11.5342
▁זבל	-11.5347
▁בארי	-11.5347
▁התאהב	-11.5347
נסון	-11.5348
▁מסין	-11.535
נטרי	-11.535
תמלא	-11.5353
לכל	-11.5353
מוסלמים	-11.5355
▁אצלך	-11.5355
▁מסוק	-11.5357
תשובה	-11.5358
▁ספיר	-11.5359
▁לימים	-11.536
הבטחות	-11.536
▁שקרים	-11.5361
▁המיטב	-11.5361
▁הטכנולוגיות	-11.5361
שבט	-11.5362
▁האסטרטגי	-11.5362
תבטא	-11.5362
▁המוסר	-11.5362
▁באנו	-11.5363
▁ומתחיל	-11.5366
▁מרב	-11.5367
▁היסודי	-11.5367
▁קנאה	-11.5369
▁גיר	-11.5372
▁המדד	-11.5373
▁נתקלים	-11.5377
[...]
