{
  "version": "1.0",
  "truncation": null,
  "padding": null,
  "added_tokens": [
    {
      "id": 0,
      "content": "[UNK]",
      "single_word": false,
      "lstrip": false,
      "rstrip": false,
      "normalized": false,
      "special": true
    },
    {
      "id": 1,
      "content": "[CLS]",
      "single_word": false,
      "lstrip": false,
      "rstrip": false,
      "normalized": false,
      "special": true
    },
    {
      "id": 2,
      "content": "[SEP]",
      "single_word": false,
      "lstrip": false,
      "rstrip": false,
      "normalized": false,
      "special": true
    },
    {
      "id": 3,
      "content": "[PAD]",
      "single_word": false,
      "lstrip": false,
      "rstrip": false,
      "normalized": false,
      "special": true
    },
    {
      "id": 4,
      "content": "[MASK]",
      "single_word": false,
      "lstrip": false,
      "rstrip": false,
      "normalized": false,
      "special": true
    }
  ],
  "normalizer": {
    "type": "Sequence",
    "normalizers": [
      {
        "type": "NFKC"
      },
      {
        "type": "Lowercase"
      }
    ]
  },
  "pre_tokenizer": {
    "type": "Whitespace"
  },
  "post_processor": null,
  "decoder": {
    "type": "WordPiece",
    "prefix": "##",
    "cleanup": true
  },
  "model": {
    "type": "WordPiece",
    "unk_token": "[UNK]",
    "continuing_subword_prefix": "##",
    "max_input_chars_per_word": 100,
    "vocab": {
      "[UNK]": 0,
      "[CLS]": 1,
      "[SEP]": 2,
      "[PAD]": 3,
      "[MASK]": 4,
      "!": 5,
      "\"": 6,
      "#": 7,
      "$": 8,
      "%": 9,
      "&": 10,
      "'": 11,
      "(": 12,
      ")": 13,
      "*": 14,
      "+": 15,
      ",": 16,
      "-": 17,
      ".": 18,
      "/": 19,
      "0": 20,
      "1": 21,
      "2": 22,
      "3": 23,
      "4": 24,
      "5": 25,
      "6": 26,
      "7": 27,
      "8": 28,
      "9": 29,
      ":": 30,
      ";": 31,
      "<": 32,
      "=": 33,
      ">": 34,
      "?": 35,
      "@": 36,
      "[": 37,
      "\\": 38,
      "]": 39,
      "^": 40,
      "_": 41,
      "`": 42,
      "a": 43,
      "b": 44,
      "c": 45,
      "d": 46,
      "e": 47,
      "f": 48,
      "g": 49,
      "h": 50,
      "i": 51,
      "j": 52,
      "k": 53,
      "l": 54,
      "m": 55,
      "n": 56,
      "o": 57,
      "p": 58,
      "q": 59,
      "r": 60,
      "s": 61,
      "t": 62,
      "u": 63,
      "v": 64,
      "w": 65,
      "x": 66,
      "y": 67,
      "z": 68,
      "{": 69,
      "|": 70,
      "}": 71,
      "~": 72,
      "": 73,
      "": 74,
      "": 75,
      "": 76,
      "": 77,
      "": 78,
      "": 79,
      "": 80,
      "": 81,
      "": 82,
      "": 83,
      "¡": 84,
      "¢": 85,
      "£": 86,
      "¦": 87,
      "§": 88,
      "©": 89,
      "«": 90,
      "¬": 91,
      "­": 92,
      "®": 93,
      "°": 94,
      "±": 95,
      "¶": 96,
      "·": 97,
      "»": 98,
      "¿": 99,
      "×": 100,
      "ß": 101,
      "à": 102,
      "á": 103,
      "â": 104,
      "ã": 105,
      "ä": 106,
      "å": 107,
      "æ": 108,
      "ç": 109,
      "è": 110,
      "é": 111,
      "ê": 112,
      "ë": 113,
      "í": 114,
      "î": 115,
      "ï": 116,
      "ð": 117,
      "ñ": 118,
      "ò": 119,
      "ó": 120,
      "ô": 121,
      "õ": 122,
      "ö": 123,
      "÷": 124,
      "ø": 125,
      "ù": 126,
      "ú": 127,
      "û": 128,
      "ü": 129,
      "ý": 130,
      "ÿ": 131,
      "ā": 132,
      "ă": 133,
      "ć": 134,
      "č": 135,
      "đ": 136,
      "ę": 137,
      "ğ": 138,
      "ġ": 139,
      "ħ": 140,
      "ī": 141,
      "ł": 142,
      "ň": 143,
      "ŋ": 144,
      "ō": 145,
      "ő": 146,
      "œ": 147,
      "ś": 148,
      "ş": 149,
      "š": 150,
      "ţ": 151,
      "ū": 152,
      "ż": 153,
      "ž": 154,
      "ư": 155,
      "ș": 156,
      "ț": 157,
      "ɒ": 158,
      "ɓ": 159,
      "ə": 160,
      "ɛ": 161,
      "ɸ": 162,
      "ɾ": 163,
      "ʉ": 164,
      "ʊ": 165,
      "ʌ": 166,
      "ʻ": 167,
      "ʼ": 168,
      "ˈ": 169,
      "ˌ": 170,
      "ː": 171,
      "́": 172,
      "̄": 173,
      "̇": 174,
      "̈": 175,
      "ά": 176,
      "έ": 177,
      "ή": 178,
      "ί": 179,
      "α": 180,
      "β": 181,
      "γ": 182,
      "δ": 183,
      "ε": 184,
      "η": 185,
      "θ": 186,
      "ι": 187,
      "κ": 188,
      "λ": 189,
      "μ": 190,
      "ν": 191,
      "ο": 192,
      "π": 193,
      "ρ": 194,
      "ς": 195,
      "σ": 196,
      "τ": 197,
      "υ": 198,
      "φ": 199,
      "χ": 200,
      "ψ": 201,
      "ω": 202,
      "ό": 203,
      "а": 204,
      "б": 205,
      "в": 206,
      "г": 207,
      "д": 208,
      "е": 209,
      "ж": 210,
      "и": 211,
      "й": 212,
      "к": 213,
      "л": 214,
      "н": 215,
      "о": 216,
      "п": 217,
      "р": 218,
      "с": 219,
      "т": 220,
      "у": 221,
      "ф": 222,
      "х": 223,
      "ц": 224,
      "ч": 225,
      "ш": 226,
      "ы": 227,
      "я": 228,
      "і": 229,
      "ҫ": 230,
      "ӑ": 231,
      "ӗ": 232,
      "ӝ": 233,
      "ӳ": 234,
      "ե": 235,
      "խ": 236,
      "յ": 237,
      "ս": 238,
      "֖": 239,
      "֥": 240,
      "ְ": 241,
      "ֱ": 242,
      "ֲ": 243,
      "ֳ": 244,
      "ִ": 245,
      "ֵ": 246,
      "ֶ": 247,
      "ַ": 248,
      "ָ": 249,
      "ֹ": 250,
      "ֺ": 251,
      "ֻ": 252,
      "ּ": 253,
      "ֽ": 254,
      "־": 255,
      "ֿ": 256,
      "ׁ": 257,
      "ׂ": 258,
      "׃": 259,
      "ׅ": 260,
      "א": 261,
      "ב": 262,
      "ג": 263,
      "ד": 264,
      "ה": 265,
      "ו": 266,
      "ז": 267,
      "ח": 268,
      "ט": 269,
      "י": 270,
      "ך": 271,
      "כ": 272,
      "ל": 273,
      "ם": 274,
      "מ": 275,
      "ן": 276,
      "נ": 277,
      "ס": 278,
      "ע": 279,
      "ף": 280,
      "פ": 281,
      "ץ": 282,
      "צ": 283,
      "ק": 284,
      "ר": 285,
      "ש": 286,
      "ת": 287,
      "װ": 288,
      "ױ": 289,
      "׳": 290,
      "״": 291,
      "آ": 292,
      "أ": 293,
      "إ": 294,
      "ئ": 295,
      "ا": 296,
      "ب": 297,
      "ة": 298,
      "ت": 299,
      "ث": 300,
      "ج": 301,
      "ح": 302,
      "خ": 303,
      "د": 304,
      "ذ": 305,
      "ر": 306,
      "س": 307,
      "ش": 308,
      "ص": 309,
      "ط": 310,
      "ع": 311,
      "ف": 312,
      "ق": 313,
      "ك": 314,
      "ل": 315,
      "م": 316,
      "ن": 317,
      "ه": 318,
      "و": 319,
      "ى": 320,
      "ي": 321,
      "َ": 322,
      "ُ": 323,
      "ِ": 324,
      "ْ": 325,
      "٠": 326,
      "١": 327,
      "٢": 328,
      "٨": 329,
      "٩": 330,
      "ٰ": 331,
      "ٹ": 332,
      "چ": 333,
      "ھ": 334,
      "ی": 335,
      "ߟ": 336,
      "ߡ": 337,
      "ं": 338,
      "औ": 339,
      "ग": 340,
      "त": 341,
      "द": 342,
      "न": 343,
      "ब": 344,
      "ल": 345,
      "ा": 346,
      "ि": 347,
      "ी": 348,
      "े": 349,
      "्": 350,
      "ં": 351,
      "ગ": 352,
      "બ": 353,
      "લ": 354,
      "ો": 355,
      "༓": 356,
      "ខ": 357,
      "ភ": 358,
      "ម": 359,
      "រ": 360,
      "ស": 361,
      "ា": 362,
      "ែ": 363,
      "្": 364,
      "ṅ": 365,
      "ạ": 366,
      "ả": 367,
      "ἀ": 368,
      "ὥ": 369,
      "ῦ": 370,
      "​": 371,
      "‌": 372,
      "‍": 373,
      "‎": 374,
      "‏": 375,
      "‐": 376,
      "‒": 377,
      "–": 378,
      "—": 379,
      "―": 380,
      "‘": 381,
      "’": 382,
      "‚": 383,
      "“": 384,
      "”": 385,
      "„": 386,
      "†": 387,
      "‡": 388,
      "•": 389,
      "‪": 390,
      "‫": 391,
      "‬": 392,
      "‭": 393,
      "‮": 394,
      "‰": 395,
      "′": 396,
      "‹": 397,
      "›": 398,
      "⁄": 399,
      "⁠": 400,
      "⁡": 401,
      "⁨": 402,
      "⁩": 403,
      "₪": 404,
      "€": 405,
      "₹": 406,
      "←": 407,
      "↑": 408,
      "→": 409,
      "↓": 410,
      "↩": 411,
      "⇒": 412,
      "∀": 413,
      "∂": 414,
      "∆": 415,
      "∈": 416,
      "−": 417,
      "∗": 418,
      "∘": 419,
      "∙": 420,
      "√": 421,
      "∞": 422,
      "∽": 423,
      "≠": 424,
      "≥": 425,
      "≪": 426,
      "≿": 427,
      "⋅": 428,
      "⋯": 429,
      "─": 430,
      "■": 431,
      "□": 432,
      "▪": 433,
      "▲": 434,
      "▶": 435,
      "▸": 436,
      "►": 437,
      "▼": 438,
      "▾": 439,
      "◄": 440,
      "●": 441,
      "◻": 442,
      "◼": 443,
      "☀": 444,
      "★": 445,
      "☆": 446,
      "☚": 447,
      "☝": 448,
      "☺": 449,
      "♔": 450,
      "♠": 451,
      "♣": 452,
      "♥": 453,
      "♦": 454,
      "♪": 455,
      "♫": 456,
      "⚡": 457,
      "✌": 458,
      "✔": 459,
      "✯": 460,
      "✰": 461,
      "❁": 462,
      "❓": 463,
      "❤": 464,
      "❷": 465,
      "❻": 466,
      "❼": 467,
      "❽": 468,
      "❾": 469,
      "➝": 470,
      "⟨": 471,
      "⟩": 472,
      "⟵": 473,
      "⦁": 474,
      "⬅": 475,
      "⭐": 476,
      "、": 477,
      "の": 478,
      "ア": 479,
      "ギ": 480,
      "コ": 481,
      "シ": 482,
      "ス": 483,
      "ド": 484,
      "ュ": 485,
      "ル": 486,
      "ー": 487,
      "㪗": 488,
      "三": 489,
      "东": 490,
      "主": 491,
      "九": 492,
      "京": 493,
      "介": 494,
      "以": 495,
      "会": 496,
      "元": 497,
      "列": 498,
      "反": 499,
      "古": 500,
      "名": 501,
      "士": 502,
      "大": 503,
      "学": 504,
      "川": 505,
      "工": 506,
      "幕": 507,
      "广": 508,
      "府": 509,
      "式": 510,
      "徳": 511,
      "慢": 512,
      "拾": 513,
      "日": 514,
      "旦": 515,
      "本": 516,
      "来": 517,
      "株": 518,
      "民": 519,
      "浪": 520,
      "海": 521,
      "点": 522,
      "理": 523,
      "疽": 524,
      "社": 525,
      "穂": 526,
      "空": 527,
      "章": 528,
      "第": 529,
      "简": 530,
      "算": 531,
      "絵": 532,
      "義": 533,
      "聲": 534,
      "航": 535,
      "色": 536,
      "茶": 537,
      "蒙": 538,
      "術": 539,
      "襲": 540,
      "詞": 541,
      "赤": 542,
      "逆": 543,
      "道": 544,
      "都": 545,
      "鈴": 546,
      "院": 547,
      "髓": 548,
      "黑": 549,
      "黒": 550,
      "랙": 551,
      "블": 552,
      "엠": 553,
      "": 554,
      "": 555,
      "": 556,
      "": 557,
      "": 558,
      "": 559,
      "": 560,
      "": 561,
      "": 562,
      "": 563,
      "": 564,
      "": 565,
      "": 566,
      "": 567,
      "": 568,
      "﴾": 569,
      "﴿": 570,
      "️": 571,
      "﻿": 572,
      "￼": 573,
      "�": 574,
      "🇸": 575,
      "🇾": 576,
      "🌈": 577,
      "🌎": 578,
      "🍻": 579,
      "🎉": 580,
      "🎶": 581,
      "🏽": 582,
      "🐔": 583,
      "👈": 584,
      "👉": 585,
      "👑": 586,
      "💉": 587,
      "💔": 588,
      "💖": 589,
      "💜": 590,
      "💫": 591,
      "📁": 592,
      "📄": 593,
      "🔥": 594,
      "😀": 595,
      "😁": 596,
      "😂": 597,
      "😃": 598,
      "😄": 599,
      "😅": 600,
      "😆": 601,
      "😈": 602,
      "😉": 603,
      "😊": 604,
      "😍": 605,
      "😏": 606,
      "😐": 607,
      "😒": 608,
      "😚": 609,
      "😛": 610,
      "😜": 611,
      "😦": 612,
      "🙁": 613,
      "🙂": 614,
      "🙌": 615,
      "🚖": 616,
      "🚘": 617,
      "🤔": 618,
      "🤨": 619,
      "🦁": 620,
      "🧼": 621,
      "##ע": 622,
      "##ר": 623,
      "##י": 624,
      "##כ": 625,
      "##ו": 626,
      "##נ": 627,
      "##ה": 628,
      "##פ": 629,
      "##ט": 630,
      "##ס": 631,
      "##ל": 632,
      "##ת": 633,
      "##s": 634,
      "##e": 635,
      "##ח": 636,
      "##ד": 637,
      "##א": 638,
      "##ק": 639,
      "##מ": 640,
      "##ן": 641,
      "##ב": 642,
      "##ם": 643,
      "##ֶ": 644,
      "##ְ": 645,
      "##ּ": 646,
      "##ז": 647,
      "##ַ": 648,
      "##צ": 649,
      "##a": 650,
      "##t": 651,
      "##i": 652,
      "##o": 653,
      "##n": 654,
      "##ש": 655,
      "##ץ": 656,
      "##g": 657,
      "##l": 658,
      "##ג": 659,
      "##u": 660,
      "##p": 661,
      "##ֵ": 662,
      "##ָ": 663,
      "##r": 664,
      "##d": 665,
      "##ך": 666,
      "##k": 667,
      "##h": 668,
      "##4": 669,
      "##1": 670,
      "##3": 671,
      "##c": 672,
      "##8": 673,
      "##6": 674,
      "##а": 675,
      "##ш": 676,
      "##y": 677,
      "##x": 678,
      "##ף": 679,
      "##b": 680,
      "##_": 681,
      "##w": 682,
      "##9": 683,
      "##ż": 684,
      "##v": 685,
      "##f": 686,
      "##7": 687,
      "##2": 688,
      "##ׁ": 689,
      "##с": 690,
      "##д": 691,
      "##р": 692,
      "##п": 693,
      "##0": 694,
      "##ִ": 695,
      "##'": 696,
      "##m": 697,
      "##”": 698,
      "##ֹ": 699,
      "##“": 700,
      "##ֲ": 701,
      "##ֻ": 702,
      "##ׂ": 703,
      "##z": 704,
      "##[": 705,
      "##ֱ": 706,
      "##\"": 707,
      "##ư": 708,
      "##‎": 709,
      "##↩": 710,
      "##]": 711,
      "##5": 712,
      "##+": 713,
      "##ž": 714,
      "##-": 715,
      "##/": 716,
      "##م": 717,
      "##ه": 718,
      "##و": 719,
      "##ر": 720,
      "##ي": 721,
      "##ة": 722,
      "##θ": 723,
      "##ο": 724,
      "##ς": 725,
      "##‏": 726,
      "##ø": 727,
      "##„": 728,
      "##®": 729,
      "##‍": 730,
      "##х": 731,
      "##*": 732,
      "##é": 733,
      "##\\": 734,
      "##j": 735,
      "##ü": 736,
      "##?": 737,
      "##״": 738,
      "##ú": 739,
      "##!": 740,
      "##(": 741,
      "##)": 742,
      "##ṅ": 743,
      "##>": 744,
      "##ß": 745,
      "##q": 746,
      "##‘": 747,
      "##ن": 748,
      "##ֳ": 749,
      "##.": 750,
      "##س": 751,
      "##ا": 752,
      "##’": 753,
      "##,": 754,
      "##:": 755,
      "##ý": 756,
      "##工": 757,
      "##学": 758,
      "##院": 759,
      "##ó": 760,
      "##{": 761,
      "##ñ": 762,
      "##ε": 763,
      "##γ": 764,
      "##α": 765,
      "##ρ": 766,
      "##ά": 767,
      "##κ": 768,
      "##ι": 769,
      "##–": 770,
      "##ç": 771,
      "##õ": 772,
      "##т": 773,
      "##к": 774,
      "##ы": 775,
      "##о": 776,
      "##ֿ": 777,
      "##æ": 778,
      "##ä": 779,
      "##—": 780,
      "##á": 781,
      "##í": 782,
      "##←": 783,
      "##ö": 784,
      "##и": 785,
      "##ж": 786,
      "##н": 787,
      "##й": 788,
      "##}": 789,
      "##‬": 790,
      "##​": 791,
      "##ʼ": 792,
      "##ð": 793,
      "##τ": 794,
      "##ش": 795,
      "##د": 796,
      "##å": 797,
      "##ث": 798,
      "##ب": 799,
      "##$": 800,
      "##茶": 801,
      "##@": 802,
      "##֥": 803,
      "###": 804,
      "##ῦ": 805,
      "##у": 806,
      "##́": 807,
      "##я": 808,
      "##â": 809,
      "##‪": 810,
      "##ă": 811,
      "##=": 812,
      "##<": 813,
      "##ν": 814,
      "##ê": 815,
      "##è": 816,
      "##ò": 817,
      "##&": 818,
      "##­": 819,
      "##ɓ": 820,
      "##ل": 821,
      "##🇾": 822,
      "##λ": 823,
      "##υ": 824,
      "##š": 825,
      "##ł": 826,
      "##έ": 827,
      "##ِ": 828,
      "##َ": 829,
      "##👑": 830,
      "##￼": 831,
      "##^": 832,
      "##ߟ": 833,
      "##": 834,
      "##ô": 835,
      "##‡": 836,
      "##ی": 837,
      "##😍": 838,
      "##😁": 839,
      "##‭": 840,
      "##ֽ": 841,
      "##🚖": 842,
      "##ت": 843,
      "##ٰ": 844,
      "##ذ": 845,
      "##ं": 846,
      "##ग": 847,
      "##ल": 848,
      "##ा": 849,
      "##і": 850,
      "##в": 851,
      "##ч": 852,
      "##е": 853,
      "##ױ": 854,
      "##े": 855,
      "##त": 856,
      "##♥": 857,
      "##ɛ": 858,
      "##ˌ": 859,
      "##ʊ": 860,
      "##ː": 861,
      "##٩": 862,
      "##ʉ": 863,
      "##ō": 864,
      "##ã": 865,
      "##ӝ": 866,
      "##à": 867,
      "##介": 868,
      "##府": 869,
      "##ં": 870,
      "##ગ": 871,
      "##લ": 872,
      "##ો": 873,
      "##色": 874,
      "##列": 875,
      "##の": 876,
      "##日": 877,
      "##ح": 878,
      "##ʌ": 879,
      "##ŋ": 880,
      "##ə": 881,
      "##ك": 882,
      "##�": 883,
      "##ő": 884,
      "##ɾ": 885,
      "##′": 886,
      "##🤔": 887,
      "##章": 888,
      "##算": 889,
      "##術": 890,
      "##ň": 891,
      "##式": 892,
      "##会": 893,
      "##社": 894,
      "##本": 895,
      "##航": 896,
      "##空": 897,
      "##": 898,
      "##ū": 899,
      "##逆": 900,
      "##ル": 901,
      "##ー": 902,
      "##シ": 903,
      "##ュ": 904,
      "##`": 905,
      "##₹": 906,
      "##€": 907,
      "##٢": 908,
      "##٠": 909,
      "##π": 910,
      "##ί": 911,
      "##ئ": 912,
      "##ف": 913,
      "##ق": 914,
      "##ţ": 915,
      "##б": 916,
      "##û": 917,
      "##㪗": 918,
      "##ë": 919,
      "##ф": 920,
      "##ș": 921,
      "##🐔": 922,
      "##ś": 923,
      "##ī": 924,
      "##ή": 925,
      "##η": 926,
      "##ğ": 927,
      "##č": 928,
      "##ć": 929,
      "##;": 930,
      "##ā": 931,
      "##ि": 932,
      "##्": 933,
      "##ी": 934,
      "##ş": 935,
      "##§": 936,
      "##ɒ": 937,
      "##œ": 938,
      "##ع": 939,
      "##ْ": 940,
      "##ُ": 941,
      "##%": 942,
      "##﻿": 943,
      "##ħ": 944,
      "##东": 945,
      "##∗": 946,
      "##֖": 947,
      "##⁠": 948,
      "##ド": 949,
      "##ギ": 950,
      "##ア": 951,
      "##ス": 952,
      "##σ": 953,
      "##β": 954,
      "##元": 955,
      "##🤨": 956,
      "##ʻ": 957,
      "##ߡ": 958,
      "##~": 959,
      "##": 960,
      "##ׅ": 961,
      "##ھ": 962,
      "##ٹ": 963,
      "##յ": 964,
      "##խ": 965,
      "##ե": 966,
      "##ى": 967,
      "##💫": 968,
      "##🎶": 969,
      "##🌈": 970,
      "##☀": 971,
      "##ា": 972,
      "##ស": 973,
      "##ខ": 974,
      "##្": 975,
      "##ម": 976,
      "##ែ": 977,
      "##រ": 978,
      "##»": 979,
      "##ę": 980,
      "##خ": 981,
      "##ج": 982,
      "##ï": 983,
      "##聲": 984,
      "##ص": 985,
      "##ω": 986,
      "##̇": 987,
      "##블": 988,
      "##랙": 989,
      "##ц": 990,
      "##‫": 991,
      "##ֺ": 992,
      "##古": 993,
      "##襲": 994,
      "##来": 995,
      "##絵": 996,
      "##詞": 997,
      "##◄": 998,
      "##أ": 999,
      "##װ": 1000,
      "##🏽": 1001,
      "##־": 1002,
      "##😚": 1003,
      "##📁": 1004,
      "##φ": 1005,
      "##چ": 1006,
      "##‌": 1007,
      "##名": 1008,
      "##ț": 1009,
      "##ط": 1010,
      "##ạ": 1011,
      "##ả": 1012,
      "##׳": 1013,
      "##都": 1014,
      "##民": 1015,
      "##主": 1016,
      "##義": 1017,
      "##⚡": 1018,
      "##|": 1019,
      "##►": 1020,
      "##😂": 1021,
      "##г": 1022,
      "##л": 1023,
      "##ים": 1024,
      "##ות": 1025,
      "של": 1026,
      "##ור": 1027,
      "##ני": 1028,
      "##ול": 1029,
      "את": 1030,
      "##ית": 1031,
      "##נו": 1032,
      "המ": 1033,
      "לה": 1034,
      "##וד": 1035,
      "הי": 1036,
      "לא": 1037,
      "##בר": 1038,
      "##יר": 1039,
      "##וב": 1040,
      "על": 1041,
      "##יל": 1042,
      "הא": 1043,
      "##וא": 1044,
      "##רי": 1045,
      "##ון": 1046,
      "##נה": 1047,
      "##די": 1048,
      "##יה": 1049,
      "##יות": 1050,
      "##שר": 1051,
      "##ומ": 1052,
      "##ין": 1053,
      "##ום": 1054,
      "##תי": 1055,
      "##ופ": 1056,
      "##לי": 1057,
      "##מו": 1058,
      "מה": 1059,
      "##שי": 1060,
      "##נים": 1061,
      "במ": 1062,
      "זה": 1063,
      "##כל": 1064,
      "##וח": 1065,
      "אח": 1066,
      "בא": 1067,
      "##שה": 1068,
      "##וק": 1069,
      "##נות": 1070,
      "הח": 1071,
      "אי": 1072,
      "##מה": 1073,
      "##יד": 1074,
      "הוא": 1075,
      "או": 1076,
      "הת": 1077,
      "כל": 1078,
      "הע": 1079,
      "הש": 1080,
      "הר": 1081,
      "##בי": 1082,
      "##וצ": 1083,
      "##וע": 1084,
      "##וס": 1085,
      "##בל": 1086,
      "למ": 1087,
      "מא": 1088,
      "##יק": 1089,
      "##פר": 1090,
      "##שים": 1091,
      "מש": 1092,
      "בע": 1093,
      "##לה": 1094,
      "##יים": 1095,
      "##יי": 1096,
      "##וג": 1097,
      "שה": 1098,
      "##רים": 1099,
      "עם": 1100,
      "לע": 1101,
      "##את": 1102,
      "##כול": 1103,
      "מת": 1104,
      "##רו": 1105,
      "מס": 1106,
      "##לא": 1107,
      "הס": 1108,
      "##טי": 1109,
      "אני": 1110,
      "יש": 1111,
      "##זה": 1112,
      "##לו": 1113,
      "כי": 1114,
      "אות": 1115,
      "##רא": 1116,
      "##יע": 1117,
      "##וש": 1118,
      "##בה": 1119,
      "##רה": 1120,
      "##ותר": 1121,
      "הק": 1122,
      "הפ": 1123,
      "בש": 1124,
      "מע": 1125,
      "שא": 1126,
      "##נת": 1127,
      "##יו": 1128,
      "אנ": 1129,
      "הג": 1130,
      "היא": 1131,
      "##מי": 1132,
      "יותר": 1133,
      "##שו": 1134,
      "הה": 1135,
      "##דר": 1136,
      "##וכ": 1137,
      "לפ": 1138,
      "הב": 1139,
      "לש": 1140,
      "גם": 1141,
      "לי": 1142,
      "יכול": 1143,
      "בי": 1144,
      "\".": 1145,
      "מח": 1146,
      "##יא": 1147,
      "##רכ": 1148,
      "##מת": 1149,
      "היה": 1150,
      "הצ": 1151,
      "##יש": 1152,
      "##מש": 1153,
      "##רג": 1154,
      "אם": 1155,
      "בה": 1156,
      "##מים": 1157,
      "##בים": 1158,
      "##טר": 1159,
      "##ולם": 1160,
      "לח": 1161,
      "מק": 1162,
      "מי": 1163,
      "אמ": 1164,
      "##וו": 1165,
      "לב": 1166,
      "##דים": 1167,
      "בת": 1168,
      "הם": 1169,
      "הכ": 1170,
      "##חר": 1171,
      "##סי": 1172,
      "##כם": 1173,
      "##עות": 1174,
      "##נית": 1175,
      "##בור": 1176,
      "##יפ": 1177,
      "אל": 1178,
      "##אל": 1179,
      "לק": 1180,
      "אבל": 1181,
      "##שות": 1182,
      "בח": 1183,
      "##כו": 1184,
      "##מן": 1185,
      "הנ": 1186,
      "כא": 1187,
      "וא": 1188,
      "##בות": 1189,
      "##רח": 1190,
      "מצ": 1191,
      "##שת": 1192,
      "20": 1193,
      "##בע": 1194,
      "הז": 1195,
      "##בו": 1196,
      "##נס": 1197,
      "##לק": 1198,
      "הד": 1199,
      "##רת": 1200,
      "שי": 1201,
      "##מצ": 1202,
      "רק": 1203,
      "##וי": 1204,
      "כדי": 1205,
      "להיות": 1206,
      "##דם": 1207,
      "##כה": 1208,
      "##לים": 1209,
      "##מות": 1210,
      "##ירות": 1211,
      "##עת": 1212,
      "אתה": 1213,
      "##דה": 1214,
      "אפ": 1215,
      "וה": 1216,
      "##פת": 1217,
      "אחד": 1218,
      "##חת": 1219,
      "##נט": 1220,
      "מכ": 1221,
      "##חנו": 1222,
      "##חה": 1223,
      "##אי": 1224,
      "##קר": 1225,
      "##אים": 1226,
      "##וף": 1227,
      "פע": 1228,
      "מב": 1229,
      "##יס": 1230,
      "עצ": 1231,
      "##ורה": 1232,
      "##אה": 1233,
      "בס": 1234,
      "כמו": 1235,
      "##בוד": 1236,
      "##עה": 1237,
      "יה": 1238,
      "##ברים": 1239,
      "כך": 1240,
      "לת": 1241,
      "##חות": 1242,
      "##וז": 1243,
      "צרי": 1244,
      "##ירה": 1245,
      "בר": 1246,
      "להת": 1247,
      "##יותר": 1248,
      "19": 1249,
      "##בת": 1250,
      "##ילה": 1251,
      "##..": 1252,
      "##וך": 1253,
      "זו": 1254,
      "##קה": 1255,
      "##נג": 1256,
      "שלה": 1257,
      "##יתה": 1258,
      "##שראל": 1259,
      "##פי": 1260,
      "##כים": 1261,
      "##כת": 1262,
      "מד": 1263,
      "אז": 1264,
      "##ולי": 1265,
      "לג": 1266,
      "##אות": 1267,
      "עד": 1268,
      "שמ": 1269,
      "##שוב": 1270,
      "##ורים": 1271,
      "לו": 1272,
      "ידי": 1273,
      "טוב": 1274,
      "##דול": 1275,
      "##פק": 1276,
      "שלי": 1277,
      "##כן": 1278,
      "בכל": 1279,
      "ביותר": 1280,
      "##רות": 1281,
      "שלך": 1282,
      "הט": 1283,
      "##וט": 1284,
      "##חק": 1285,
      "##לב": 1286,
      "##יתי": 1287,
      "##צי": 1288,
      "המש": 1289,
      "לד": 1290,
      "##פה": 1291,
      "##לת": 1292,
      "##וני": 1293,
      "פר": 1294,
      "מג": 1295,
      "הרא": 1296,
      "האם": 1297,
      "זאת": 1298,
      "##ילו": 1299,
      "...": 1300,
      "##עים": 1301,
      "##לות": 1302,
      "אנחנו": 1303,
      "סי": 1304,
      "##וצה": 1305,
      "##ונים": 1306,
      "##כות": 1307,
      "בג": 1308,
      "ממ": 1309,
      "##טים": 1310,
      "##יצ": 1311,
      "הזה": 1312,
      "##ומר": 1313,
      "##מיד": 1314,
      "##ינו": 1315,
      "##טה": 1316,
      "אותו": 1317,
      "רא": 1318,
      "שלו": 1319,
      "##ונ": 1320,
      "##שהו": 1321,
      "אין": 1322,
      "בין": 1323,
      "בק": 1324,
      "שלנו": 1325,
      "##לח": 1326,
      "מדי": 1327,
      "כש": 1328,
      "##דות": 1329,
      "לס": 1330,
      "כמה": 1331,
      "מפ": 1332,
      "##מוד": 1333,
      "##ינ": 1334,
      "בפ": 1335,
      "##אר": 1336,
      "מאוד": 1337,
      "חד": 1338,
      "##ניה": 1339,
      "בכ": 1340,
      "שנ": 1341,
      "##סק": 1342,
      "בב": 1343,
      "היו": 1344,
      "עבור": 1345,
      "##er": 1346,
      "##זור": 1347,
      "לך": 1348,
      "##ופן": 1349,
      "##ראה": 1350,
      "אנשים": 1351,
      "201": 1352,
      "##פים": 1353,
      "##ניות": 1354,
      "##00": 1355,
      "לפני": 1356,
      "דבר": 1357,
      "שע": 1358,
      "ול": 1359,
      "לנו": 1360,
      "##רך": 1361,
      "חבר": 1362,
      "אנו": 1363,
      "אך": 1364,
      "##ירים": 1365,
      "##עי": 1366,
      "לאחר": 1367,
      "יח": 1368,
      "לעשות": 1369,
      "צריך": 1370,
      "ישראל": 1371,
      "\",": 1372,
      "עוד": 1373,
      "אר": 1374,
      "בו": 1375,
      "##נק": 1376,
      "##ולה": 1377,
      "##ילים": 1378,
      "##לט": 1379,
      "##דת": 1380,
      "עו": 1381,
      "בני": 1382,
      "##תר": 1383,
      "לכ": 1384,
      "קר": 1385,
      "כבר": 1386,
      "##ופה": 1387,
      "שהוא": 1388,
      "##ניים": 1389,
      "איך": 1390,
      "##חים": 1391,
      "יוד": 1392,
      "הכל": 1393,
      "##דו": 1394,
      "לצ": 1395,
      "מז": 1396,
      "במק": 1397,
      "##כון": 1398,
      "אמר": 1399,
      "אשר": 1400,
      "נש": 1401,
      "הרבה": 1402,
      "בצ": 1403,
      "##לך": 1404,
      "##on": 1405,
      "שב": 1406,
      "אינ": 1407,
      "נוס": 1408,
      "##מע": 1409,
      "##מר": 1410,
      "##יג": 1411,
      "הבי": 1412,
      "כאשר": 1413,
      "להג": 1414,
      "המח": 1415,
      "##רב": 1416,
      "המק": 1417,
      "##בודה": 1418,
      "נית": 1419,
      "בט": 1420,
      "##דרך": 1421,
      "##ברה": 1422,
      "##סט": 1423,
      "אלה": 1424,
      "יל": 1425,
      "באופן": 1426,
      "אלו": 1427,
      "אתם": 1428,
      "בנו": 1429,
      "שם": 1430,
      "שלהם": 1431,
      "##שב": 1432,
      "שלא": 1433,
      "גדול": 1434,
      "חיי": 1435,
      "##פות": 1436,
      "תק": 1437,
      "##ונה": 1438,
      "חלק": 1439,
      "היום": 1440,
      "##פשר": 1441,
      "##פט": 1442,
      "אדם": 1443,
      "##סים": 1444,
      "##in": 1445,
      ").": 1446,
      "##וכל": 1447,
      "אפשר": 1448,
      "במה": 1449,
      "##ורת": 1450,
      "ולא": 1451,
      "השי": 1452,
      "וב": 1453,
      "אחר": 1454,
      "רוצה": 1455,
      "שנים": 1456,
      "##יח": 1457,
      "פי": 1458,
      "כן": 1459,
      "##נד": 1460,
      "##פור": 1461,
      "נע": 1462,
      "אחרי": 1463,
      "##ומי": 1464,
      "##יון": 1465,
      "אחת": 1466,
      "מר": 1467,
      "כול": 1468,
      "##סף": 1469,
      "יצ": 1470,
      "##שון": 1471,
      "##קים": 1472,
      "שאת": 1473,
      "יד": 1474,
      "##ילות": 1475,
      "##יקה": 1476,
      "הבר": 1477,
      "שני": 1478,
      "תח": 1479,
      "נג": 1480,
      "ים": 1481,
      "##ווה": 1482,
      "חי": 1483,
      "##an": 1484,
      "בל": 1485,
      "##צה": 1486,
      "זמן": 1487,
      "##וץ": 1488,
      "מט": 1489,
      "לר": 1490,
      "ות": 1491,
      "נת": 1492,
      "העולם": 1493,
      "הפר": 1494,
      "הל": 1495,
      "תה": 1496,
      "##וחות": 1497,
      "##רט": 1498,
      "##ורך": 1499,
      "יום": 1500,
      "למע": 1501,
      "##קות": 1502,
      "האח": 1503,
      "##נשים": 1504,
      "רג": 1505,
      "בית": 1506,
      "לכל": 1507,
      "##שיו": 1508,
      "##וות": 1509,
      "##יהם": 1510,
      "יכולים": 1511,
      "מספר": 1512,
      "מיל": 1513,
      "עדי": 1514,
      "##מד": 1515,
      "במש": 1516,
      "לרא": 1517,
      "##ורי": 1518,
      "##שית": 1519,
      "##ולים": 1520,
      "להם": 1521,
      "##בד": 1522,
      "קט": 1523,
      "הייתה": 1524,
      "##צות": 1525,
      "##ולוג": 1526,
      "האמ": 1527,
      "##יט": 1528,
      "200": 1529,
      "##כי": 1530,
      "חוש": 1531,
      "##ידע": 1532,
      "יהיה": 1533,
      "גר": 1534,
      "אותם": 1535,
      "##ar": 1536,
      "##מוש": 1537,
      "##צוע": 1538,
      "##ובה": 1539,
      "##או": 1540,
      "נפ": 1541,
      "##טח": 1542,
      "פעם": 1543,
      "המע": 1544,
      "##or": 1545,
      "ממש": 1546,
      "##ובר": 1547,
      "בז": 1548,
      "למה": 1549,
      "##הים": 1550,
      "##צע": 1551,
      "בד": 1552,
      "##ידה": 1553,
      "##ריק": 1554,
      "אחרים": 1555,
      "כת": 1556,
      "מוצ": 1557,
      "חז": 1558,
      "##כשיו": 1559,
      "##כנ": 1560,
      "##ורות": 1561,
      "th": 1562,
      "המס": 1563,
      "קצ": 1564,
      "אף": 1565,
      "יע": 1566,
      "שאני": 1567,
      "אלי": 1568,
      "##של": 1569,
      "שק": 1570,
      "כאן": 1571,
      "נה": 1572,
      "תמיד": 1573,
      "##ומים": 1574,
      "בשנת": 1575,
      "משת": 1576,
      "##ומה": 1577,
      "שלכם": 1578,
      "##ואה": 1579,
      "וע": 1580,
      "ניתן": 1581,
      "##בא": 1582,
      "##רכת": 1583,
      "שיש": 1584,
      "##גר": 1585,
      "חשוב": 1586,
      "הראשו": 1587,
      "הנו": 1588,
      "##חיל": 1589,
      "##ודה": 1590,
      "##en": 1591,
      "התק": 1592,
      "נק": 1593,
      "##al": 1594,
      "שהם": 1595,
      "בדי": 1596,
      "רבים": 1597,
      "##סת": 1598,
      "##פו": 1599,
      "##חי": 1600,
      "##רכז": 1601,
      "##וצים": 1602,
      "להפ": 1603,
      "איר": 1604,
      "בעולם": 1605,
      "##יעה": 1606,
      "##לית": 1607,
      "עצמ": 1608,
      "##יכ": 1609,
      "אותה": 1610,
      "ואת": 1611,
      "שנה": 1612,
      "##חו": 1613,
      "##בוע": 1614,
      "##תיים": 1615,
      "##צל": 1616,
      "##סה": 1617,
      "משהו": 1618,
      "אלא": 1619,
      "אס": 1620,
      "ברי": 1621,
      "ומ": 1622,
      "פשו": 1623,
      "שת": 1624,
      "נמצ": 1625,
      "##לל": 1626,
      "עוב": 1627,
      "##דש": 1628,
      "באמצ": 1629,
      "המת": 1630,
      "##דינה": 1631,
      "##ירת": 1632,
      "##וריה": 1633,
      "לל": 1634,
      "##at": 1635,
      "הסי": 1636,
      "##צב": 1637,
      "##es": 1638,
      "ללא": 1639,
      "הספר": 1640,
      "ספר": 1641,
      "האי": 1642,
      "הגדול": 1643,
      "משפ": 1644,
      "ית": 1645,
      "עדיין": 1646,
      "##חד": 1647,
      "##ובות": 1648,
      "##סטי": 1649,
      "##ניין": 1650,
      "דרך": 1651,
      "קי": 1652,
      "עכשיו": 1653,
      "##גם": 1654,
      "שכ": 1655,
      "##מין": 1656,
      "הן": 1657,
      "לכם": 1658,
      "##לם": 1659,
      "##רץ": 1660,
      "##ביר": 1661,
      "##ומות": 1662,
      "די": 1663,
      "באמת": 1664,
      "אומר": 1665,
      "תר": 1666,
      "נח": 1667,
      "##מית": 1668,
      "in": 1669,
      "רצ": 1670,
      "##רונות": 1671,
      "שר": 1672,
      "לראות": 1673,
      "##מעות": 1674,
      "10": 1675,
      "תע": 1676,
      "אולי": 1677,
      "##בוה": 1678,
      "##ציה": 1679,
      "במהלך": 1680,
      "##זו": 1681,
      "התי": 1682,
      "##גה": 1683,
      "##אן": 1684,
      "##יקר": 1685,
      "##שא": 1686,
      "להשת": 1687,
      "הרג": 1688,
      "הראשון": 1689,
      "##יב": 1690,
      "חיים": 1691,
      "the": 1692,
      "אה": 1693,
      "##וחד": 1694,
      "אוה": 1695,
      "האדם": 1696,
      "אפילו": 1697,
      "הול": 1698,
      "##ביל": 1699,
      "##עם": 1700,
      "הזמן": 1701,
      "עשו": 1702,
      "##יבור": 1703,
      "אותי": 1704,
      "פשוט": 1705,
      "שאתה": 1706,
      "צע": 1707,
      "בדרך": 1708,
      "אד": 1709,
      "מוכ": 1710,
      "חוק": 1711,
      "##ונות": 1712,
      "מן": 1713,
      "##יאות": 1714,
      "החיים": 1715,
      "##ic": 1716,
      "##מונה": 1717,
      "##וה": 1718,
      "בבית": 1719,
      "מוד": 1720,
      "שזה": 1721,
      "##ודות": 1722,
      "##פל": 1723,
      "##גים": 1724,
      "היל": 1725,
      "השני": 1726,
      "לט": 1727,
      "קור": 1728,
      "##וסי": 1729,
      "חש": 1730,
      "באמצעות": 1731,
      "##בק": 1732,
      "רוב": 1733,
      "שח": 1734,
      "##ואר": 1735,
      "##ודים": 1736,
      "##ודי": 1737,
      "תוכ": 1738,
      "פת": 1739,
      "##מור": 1740,
      "הופ": 1741,
      "אומ": 1742,
      "סט": 1743,
      "יודע": 1744,
      "מקום": 1745,
      "##ולות": 1746,
      "##קד": 1747,
      "##ישה": 1748,
      "לקבל": 1749,
      "וכ": 1750,
      "##צד": 1751,
      "רח": 1752,
      "##צר": 1753,
      "כלל": 1754,
      "התע": 1755,
      "##נצ": 1756,
      "היתה": 1757,
      "##ופי": 1758,
      "שבו": 1759,
      "18": 1760,
      "##צמ": 1761,
      "התח": 1762,
      "##it": 1763,
      "להב": 1764,
      "),": 1765,
      "דברים": 1766,
      "רוצים": 1767,
      "##גע": 1768,
      "כמ": 1769,
      "מלא": 1770,
      "##ווח": 1771,
      "קשה": 1772,
      "##מעט": 1773,
      "מוס": 1774,
      "המא": 1775,
      "אינו": 1776,
      "נא": 1777,
      "שוב": 1778,
      "##זר": 1779,
      "הרי": 1780,
      "הייתי": 1781,
      "מאז": 1782,
      "השת": 1783,
      "##ויות": 1784,
      "שהיא": 1785,
      "הדי": 1786,
      "נראה": 1787,
      "בן": 1788,
      "הכי": 1789,
      "מרג": 1790,
      "##גל": 1791,
      "##le": 1792,
      "סוג": 1793,
      "החל": 1794,
      "##ותו": 1795,
      "כד": 1796,
      "במקום": 1797,
      "במי": 1798,
      "היח": 1799,
      "צריכים": 1800,
      "בלי": 1801,
      "##ליך": 1802,
      "בהת": 1803,
      "פל": 1804,
      "אור": 1805,
      "כיצד": 1806,
      "טיפ": 1807,
      "##צור": 1808,
      "תש": 1809,
      "גור": 1810,
      "##מל": 1811,
      "ההת": 1812,
      "הראשונה": 1813,
      "במשך": 1814,
      "##נחנו": 1815,
      "אלוהים": 1816,
      "לדבר": 1817,
      "כפי": 1818,
      "##טרנט": 1819,
      "##צים": 1820,
      "מוש": 1821,
      "מנה": 1822,
      "חדש": 1823,
      "ני": 1824,
      "##טרה": 1825,
      "יכולה": 1826,
      "##ריות": 1827,
      "##פון": 1828,
      "##יפור": 1829,
      "##פש": 1830,
      "##שיך": 1831,
      "##ומית": 1832,
      "##ou": 1833,
      "להע": 1834,
      "עלי": 1835,
      "משמעות": 1836,
      "רע": 1837,
      "למצ": 1838,
      "נגד": 1839,
      "איש": 1840,
      "##יסט": 1841,
      "##פיק": 1842,
      "בסי": 1843,
      "פחות": 1844,
      "האלה": 1845,
      "ילדים": 1846,
      "חל": 1847,
      "מל": 1848,
      "##ובן": 1849,
      "להצ": 1850,
      "##st": 1851,
      "##קט": 1852,
      "החברה": 1853,
      "גבוה": 1854,
      "כמעט": 1855,
      "יוצ": 1856,
      "מכל": 1857,
      "חוד": 1858,
      "##טת": 1859,
      "##ריך": 1860,
      "שתי": 1861,
      "מסוג": 1862,
      "##נלא": 1863,
      "קוד": 1864,
      "##re": 1865,
      "עשר": 1866,
      "וח": 1867,
      "##om": 1868,
      "אית": 1869,
      "בתח": 1870,
      "הדבר": 1871,
      "מידע": 1872,
      "בלב": 1873,
      "נכ": 1874,
      "העיר": 1875,
      "נס": 1876,
      "##פול": 1877,
      "##ברת": 1878,
      "תא": 1879,
      "?\"": 1880,
      "מוע": 1881,
      "תג": 1882,
      "לפע": 1883,
      "##נוי": 1884,
      "עסק": 1885,
      "##מא": 1886,
      "##וקר": 1887,
      "במח": 1888,
      "פני": 1889,
      "רב": 1890,
      "##ומת": 1891,
      "##פרי": 1892,
      "שבה": 1893,
      "אב": 1894,
      "##ער": 1895,
      "##נוע": 1896,
      "##גת": 1897,
      "##וון": 1898,
      "##וקים": 1899,
      "##יז": 1900,
      "קב": 1901,
      "15": 1902,
      "מתח": 1903,
      "##ביב": 1904,
      "הברית": 1905,
      "דול": 1906,
      "##דל": 1907,
      "##ליים": 1908,
      "מהם": 1909,
      "נכון": 1910,
      "עבודה": 1911,
      "בתוך": 1912,
      "הלא": 1913,
      "בשביל": 1914,
      "שום": 1915,
      "עצמו": 1916,
      "המדינה": 1917,
      "##רד": 1918,
      "##קת": 1919,
      "##זרח": 1920,
      "##כנולוג": 1921,
      "קל": 1922,
      "##לחמה": 1923,
      "##נון": 1924,
      "הזו": 1925,
      "עושה": 1926,
      "##פקיד": 1927,
      "חס": 1928,
      "להש": 1929,
      "לכן": 1930,
      "מיליון": 1931,
      "##נם": 1932,
      "##קס": 1933,
      "לז": 1934,
      "##כב": 1935,
      "##נן": 1936,
      "רבות": 1937,
      "##גות": 1938,
      "לנ": 1939,
      "##פס": 1940,
      "בגלל": 1941,
      "ביק": 1942,
      "כולם": 1943,
      "לפי": 1944,
      "בדיוק": 1945,
      "הור": 1946,
      "ביום": 1947,
      "##חור": 1948,
      "מור": 1949,
      "משחק": 1950,
      "בזמן": 1951,
      "לדעת": 1952,
      "אותך": 1953,
      "בלתי": 1954,
      "מתוך": 1955,
      "למרות": 1956,
      "##יעים": 1957,
      "בקר": 1958,
      "##כר": 1959,
      "כולל": 1960,
      "##טית": 1961,
      "##בח": 1962,
      "an": 1963,
      "האיר": 1964,
      "000": 1965,
      "במס": 1966,
      "##תה": 1967,
      "לגבי": 1968,
      "שונים": 1969,
      "##וצאות": 1970,
      "##שימה": 1971,
      "למצוא": 1972,
      "הממש": 1973,
      "ידע": 1974,
      "12": 1975,
      "##תיד": 1976,
      "מתי": 1977,
      "קיי": 1978,
      ".\"": 1979,
      "מוז": 1980,
      "כשה": 1981,
      "199": 1982,
      "אחרת": 1983,
      "##ביא": 1984,
      "##ברסי": 1985,
      "##מון": 1986,
      "וגם": 1987,
      "##מנות": 1988,
      "##וסט": 1989,
      "בעלי": 1990,
      "##רכים": 1991,
      "יק": 1992,
      "##שיא": 1993,
      "להח": 1994,
      "ואני": 1995,
      "##ro": 1996,
      "להכ": 1997,
      "##ובים": 1998,
      "הני": 1999,
      "##יני": 2000,
      "במיוחד": 2001,
      "##ינים": 2002,
      "וזה": 2003,
      "תהיה": 2004,
      "השנה": 2005,
      "יחד": 2006,
      "הוד": 2007,
      "##el": 2008,
      "לקר": 2009,
      "##פע": 2010,
      "##סם": 2011,
      "ברח": 2012,
      "##מנים": 2013,
      "##ועים": 2014,
      "לכך": 2015,
      "להשתמש": 2016,
      "הלי": 2017,
      "קצת": 2018,
      "##רגון": 2019,
      "יודעים": 2020,
      "הזאת": 2021,
      "בטוח": 2022,
      "##וצאה": 2023,
      "##וחר": 2024,
      "##ריים": 2025,
      "מנת": 2026,
      "האחר": 2027,
      "ור": 2028,
      "והוא": 2029,
      "כה": 2030,
      "הנה": 2031,
      "##ion": 2032,
      "##ופות": 2033,
      "##יוני": 2034,
      "##טל": 2035,
      "לשי": 2036,
      "העבודה": 2037,
      "##רגע": 2038,
      "##בעה": 2039,
      "בצורה": 2040,
      "חושב": 2041,
      "##אלי": 2042,
      "מופ": 2043,
      "לפחות": 2044,
      "##כויות": 2045,
      "##קו": 2046,
      "הפל": 2047,
      "##ינטרנט": 2048,
      "הגיע": 2049,
      "הפע": 2050,
      "עליו": 2051,
      "##דע": 2052,
      "##נסה": 2053,
      "חברת": 2054,
      "##טות": 2055,
      "במע": 2056,
      "נו": 2057,
      "##קל": 2058,
      "מספיק": 2059,
      "פור": 2060,
      "שירות": 2061,
      "במו": 2062,
      "ולה": 2063,
      "##is": 2064,
      "of": 2065,
      "##גש": 2066,
      "##בול": 2067,
      "כזה": 2068,
      "המצ": 2069,
      "הבע": 2070,
      "##ואים": 2071,
      "##רונה": 2072,
      "הקר": 2073,
      "למש": 2074,
      "פרי": 2075,
      "##גור": 2076,
      "##שיים": 2077,
      "##וקה": 2078,
      "טר": 2079,
      "הדרך": 2080,
      "הדברים": 2081,
      "בהם": 2082,
      "מתק": 2083,
      "##לוט": 2084,
      "יור": 2085,
      "מאשר": 2086,
      "טובה": 2087,
      "מערכת": 2088,
      "כיום": 2089,
      "מדוע": 2090,
      "תוך": 2091,
      "עומ": 2092,
      "אוכל": 2093,
      "שבוע": 2094,
      "תכ": 2095,
      "##ייס": 2096,
      "לפת": 2097,
      "האמריק": 2098,
      "דולר": 2099,
      "st": 2100,
      "##ווי": 2101,
      "חופ": 2102,
      "קו": 2103,
      "##פתח": 2104,
      "##et": 2105,
      "##וצר": 2106,
      "##סיק": 2107,
      "קרי": 2108,
      "30": 2109,
      "##ריקה": 2110,
      "מוג": 2111,
      "ארו": 2112,
      "תוכל": 2113,
      "וש": 2114,
      "##תו": 2115,
      "##רום": 2116,
      "המשפ": 2117,
      "ברא": 2118,
      "טבע": 2119,
      "כסף": 2120,
      "נשים": 2121,
      "##oo": 2122,
      "שאנחנו": 2123,
      "##כור": 2124,
      "##משים": 2125,
      "##דינות": 2126,
      "אש": 2127,
      "##ותה": 2128,
      "##כונה": 2129,
      "ימים": 2130,
      "החד": 2131,
      "קשר": 2132,
      "קול": 2133,
      "ראש": 2134,
      "ניס": 2135,
      "מישהו": 2136,
      "שעות": 2137,
      "בישראל": 2138,
      "עמ": 2139,
      "אותנו": 2140,
      "11": 2141,
      "נד": 2142,
      "הבית": 2143,
      "החוק": 2144,
      "להגיע": 2145,
      "##משיך": 2146,
      "בלבד": 2147,
      "##טו": 2148,
      "##סטר": 2149,
      "##ולד": 2150,
      "בשי": 2151,
      "בנ": 2152,
      "קיבל": 2153,
      "להבין": 2154,
      "##ואי": 2155,
      "אופ": 2156,
      "כנ": 2157,
      "##ליח": 2158,
      "##מוך": 2159,
      "נות": 2160,
      "לזה": 2161,
      "##קי": 2162,
      "ואז": 2163,
      "שיע": 2164,
      "שאתם": 2165,
      "אחרות": 2166,
      "##זרה": 2167,
      "##אלה": 2168,
      "##מנ": 2169,
      "##שרד": 2170,
      "נמצא": 2171,
      "##למיד": 2172,
      "מסת": 2173,
      "##טחון": 2174,
      "שלוש": 2175,
      "##נויות": 2176,
      "אינם": 2177,
      "##בט": 2178,
      "##ac": 2179,
      "בעוד": 2180,
      "עושים": 2181,
      "##רפת": 2182,
      "##מיים": 2183,
      "##קש": 2184,
      "מסוי": 2185,
      "##תים": 2186,
      "##צת": 2187,
      "בתי": 2188,
      "הארץ": 2189,
      "מקבל": 2190,
      "פה": 2191,
      "מכן": 2192,
      "##זק": 2193,
      "##ודש": 2194,
      "ליי": 2195,
      "זהו": 2196,
      "סוף": 2197,
      "כמובן": 2198,
      "הטי": 2199,
      "התא": 2200,
      "גיל": 2201,
      "ומה": 2202,
      "העוב": 2203,
      "בנוסף": 2204,
      "דו": 2205,
      "##מינים": 2206,
      "##יוון": 2207,
      "המט": 2208,
      "##גיע": 2209,
      "למעשה": 2210,
      "##תם": 2211,
      "##בית": 2212,
      "בעיקר": 2213,
      "##il": 2214,
      "מול": 2215,
      "##וצות": 2216,
      "תת": 2217,
      "מזה": 2218,
      "##יפה": 2219,
      "##רכות": 2220,
      "##עו": 2221,
      "##אם": 2222,
      "##רגיה": 2223,
      "רש": 2224,
      "אינה": 2225,
      "מבי": 2226,
      "נוש": 2227,
      "##מפ": 2228,
      "לעולם": 2229,
      "17": 2230,
      "מיי": 2231,
      "##יקט": 2232,
      "לתת": 2233,
      "הללו": 2234,
      "לקחת": 2235,
      "##ed": 2236,
      "להס": 2237,
      "האנשים": 2238,
      "הבא": 2239,
      "שימוש": 2240,
      "פולי": 2241,
      "##ברות": 2242,
      "הכול": 2243,
      "הממשלה": 2244,
      "##מבר": 2245,
      "ללמוד": 2246,
      "##ושר": 2247,
      "מעל": 2248,
      "##משך": 2249,
      "לעבוד": 2250,
      "בשל": 2251,
      "16": 2252,
      "הלב": 2253,
      "תחת": 2254,
      "בפר": 2255,
      "##צו": 2256,
      "חשב": 2257,
      "##שובה": 2258,
      "המשפט": 2259,
      "עק": 2260,
      "המכ": 2261,
      "שהיה": 2262,
      "מומ": 2263,
      "##ופו": 2264,
      "שש": 2265,
      "##ומיים": 2266,
      "מוק": 2267,
      "הגר": 2268,
      "מדובר": 2269,
      "##מונות": 2270,
      "##מס": 2271,
      "אזרח": 2272,
      "מקצוע": 2273,
      "התר": 2274,
      "##ניהם": 2275,
      "##am": 2276,
      "כוח": 2277,
      "##שיג": 2278,
      "אג": 2279,
      "רוח": 2280,
      "נוסף": 2281,
      "פעמים": 2282,
      "##רבית": 2283,
      "##נטי": 2284,
      "##ופים": 2285,
      "##ינוך": 2286,
      "חייב": 2287,
      "קודם": 2288,
      "הו": 2289,
      "פרס": 2290,
      "##as": 2291,
      "ברור": 2292,
      "##ינה": 2293,
      "לעזור": 2294,
      "##ריה": 2295,
      "תי": 2296,
      "יס": 2297,
      "סרט": 2298,
      "השפ": 2299,
      "מים": 2300,
      "##ירי": 2301,
      "אולם": 2302,
      "אצל": 2303,
      "##יתוח": 2304,
      "##ובת": 2305,
      "האנו": 2306,
      "זק": 2307,
      "עבר": 2308,
      "המה": 2309,
      "13": 2310,
      "##ol": 2311,
      "בעצ": 2312,
      "##ליט": 2313,
      "לומר": 2314,
      "המשחק": 2315,
      "האחרון": 2316,
      "למשל": 2317,
      "ארה": 2318,
      "גדולה": 2319,
      "##ובי": 2320,
      "##ינם": 2321,
      "##נסות": 2322,
      "##רוש": 2323,
      "דקות": 2324,
      "##ילי": 2325,
      "##סיון": 2326,
      "##רטי": 2327,
      "##גון": 2328,
      "גל": 2329,
      "הילדים": 2330,
      "יהיו": 2331,
      "##עד": 2332,
      "##ילת": 2333,
      "פעולה": 2334,
      "##מק": 2335,
      "לבד": 2336,
      "האד": 2337,
      "רכ": 2338,
      "ספק": 2339,
      "להי": 2340,
      "השנים": 2341,
      "##ירוש": 2342,
      "צי": 2343,
      "##ליה": 2344,
      "המב": 2345,
      "מעט": 2346,
      "רואה": 2347,
      "##וסר": 2348,
      "מרכז": 2349,
      "##ch": 2350,
      "ליצור": 2351,
      "רפ": 2352,
      "פרו": 2353,
      "##גי": 2354,
      "##ing": 2355,
      "##ודית": 2356,
      "##זון": 2357,
      "מוב": 2358,
      "שנות": 2359,
      "14": 2360,
      "צריכה": 2361,
      "עש": 2362,
      "##עתי": 2363,
      "##דרה": 2364,
      "##וסים": 2365,
      "מחדש": 2366,
      "נור": 2367,
      "##תרון": 2368,
      "##יסטוריה": 2369,
      "שכל": 2370,
      "הציבור": 2371,
      "##אית": 2372,
      "##שם": 2373,
      "תפ": 2374,
      "בכלל": 2375,
      "הגוף": 2376,
      "##הי": 2377,
      "##ay": 2378,
      "שומ": 2379,
      "##דיה": 2380,
      "איזה": 2381,
      "השלי": 2382,
      "לפר": 2383,
      "מטר": 2384,
      "אוהב": 2385,
      "חדשים": 2386,
      "הסרט": 2387,
      "ככל": 2388,
      "##נתי": 2389,
      "מוח": 2390,
      "למח": 2391,
      "##וציא": 2392,
      "קרובות": 2393,
      "זוכ": 2394,
      "##רון": 2395,
      "קש": 2396,
      "תנו": 2397,
      "נוספים": 2398,
      "כח": 2399,
      "##כונות": 2400,
      "ממו": 2401,
      "##זיה": 2402,
      "##ילדים": 2403,
      "##וניברסי": 2404,
      "בתחום": 2405,
      "##גו": 2406,
      "חודשים": 2407,
      "ער": 2408,
      "הפלסטי": 2409,
      "בפני": 2410,
      "באי": 2411,
      "צורך": 2412,
      "שאין": 2413,
      "כאלה": 2414,
      "שלושה": 2415,
      "בכך": 2416,
      "כעת": 2417,
      "25": 2418,
      "##ביע": 2419,
      "##ידים": 2420,
      "שונות": 2421,
      "##כלה": 2422,
      "מדינות": 2423,
      "##iv": 2424,
      "##נטים": 2425,
      "הבח": 2426,
      "שנת": 2427,
      "בעבר": 2428,
      "##כתב": 2429,
      "ניצ": 2430,
      "##נהל": 2431,
      "לאח": 2432,
      "הדר": 2433,
      "כגון": 2434,
      "לבית": 2435,
      "##וקט": 2436,
      "יר": 2437,
      "##טיח": 2438,
      "##יונות": 2439,
      "משום": 2440,
      "למו": 2441,
      "##דור": 2442,
      "בעל": 2443,
      "מחקר": 2444,
      "##זיק": 2445,
      "ספ": 2446,
      "100": 2447,
      "מלח": 2448,
      "קלי": 2449,
      "טע": 2450,
      "ביט": 2451,
      "הבינלא": 2452,
      "##זם": 2453,
      "השל": 2454,
      "האמת": 2455,
      "##נויים": 2456,
      "בתק": 2457,
      "קטן": 2458,
      "מנ": 2459,
      "נב": 2460,
      "באר": 2461,
      "באתר": 2462,
      "ברחבי": 2463,
      "המל": 2464,
      "הזד": 2465,
      "עמו": 2466,
      "החדש": 2467,
      "##שונה": 2468,
      "תלו": 2469,
      "הקט": 2470,
      "מצב": 2471,
      "##קום": 2472,
      "קורה": 2473,
      "##וגמה": 2474,
      "מעור": 2475,
      "באותו": 2476,
      "שונה": 2477,
      "##ow": 2478,
      "##מיכה": 2479,
      "לאורך": 2480,
      "אחוז": 2481,
      "ללכת": 2482,
      "50": 2483,
      "העסק": 2484,
      "##וסיף": 2485,
      "המוע": 2486,
      "##ופא": 2487,
      "##חל": 2488,
      "##ופת": 2489,
      "##מח": 2490,
      "##יחס": 2491,
      "לוק": 2492,
      "תיא": 2493,
      "התוכ": 2494,
      "ילד": 2495,
      "##טיות": 2496,
      "מפני": 2497,
      "##מוקר": 2498,
      "'.": 2499,
      "on": 2500,
      "##קור": 2501,
      "בשנה": 2502,
      "כדור": 2503,
      "בבר": 2504,
      "בדר": 2505,
      "דור": 2506,
      "המוד": 2507,
      "##גרת": 2508,
      "יי": 2509,
      "רי": 2510,
      "198": 2511,
      "לעתים": 2512,
      "##סון": 2513,
      "עובד": 2514,
      "מיד": 2515,
      "עבוד": 2516,
      "לפעמים": 2517,
      "##עיון": 2518,
      "חדשה": 2519,
      "##ביבה": 2520,
      "##וסיה": 2521,
      "להר": 2522,
      "מגיע": 2523,
      "##ig": 2524,
      "שאלה": 2525,
      "##ra": 2526,
      "##קרים": 2527,
      "שהת": 2528,
      "עצמי": 2529,
      "לצי": 2530,
      "מבחי": 2531,
      "הטוב": 2532,
      "”.": 2533,
      "##נסי": 2534,
      "באיר": 2535,
      "##ווים": 2536,
      "re": 2537,
      "אכ": 2538,
      "לשמור": 2539,
      "לכת": 2540,
      "##למידים": 2541,
      "##חלט": 2542,
      "אמריק": 2543,
      "יא": 2544,
      "מני": 2545,
      "##ent": 2546,
      "המי": 2547,
      "##שתי": 2548,
      "##וויר": 2549,
      "ולכן": 2550,
      "ch": 2551,
      "##ירו": 2552,
      "מקור": 2553,
      "צד": 2554,
      "יית": 2555,
      "הקב": 2556,
      "ארצות": 2557,
      "פול": 2558,
      "##לווי": 2559,
      "עי": 2560,
      "##ודת": 2561,
      "יב": 2562,
      "דר": 2563,
      "לתק": 2564,
      "להשיג": 2565,
      "יורק": 2566,
      "מעבר": 2567,
      "החלט": 2568,
      "טובים": 2569,
      "##טיים": 2570,
      "ההש": 2571,
      "להפוך": 2572,
      "עובדים": 2573,
      "##דיו": 2574,
      "##ועל": 2575,
      "דא": 2576,
      "##מרי": 2577,
      "לקרוא": 2578,
      "מות": 2579,
      "ממנו": 2580,
      "##סור": 2581,
      "שצ": 2582,
      "הסכ": 2583,
      "##בלת": 2584,
      "פעילות": 2585,
      "הטבע": 2586,
      "בגיל": 2587,
      "חברות": 2588,
      "שינוי": 2589,
      "##טיבי": 2590,
      "בוא": 2591,
      "לשנות": 2592,
      "194": 2593,
      "להא": 2594,
      "##וחה": 2595,
      "197": 2596,
      "קרא": 2597,
      "תודה": 2598,
      "הקה": 2599,
      "למי": 2600,
      "##טון": 2601,
      "##ot": 2602,
      "כנראה": 2603,
      "באזור": 2604,
      "מו": 2605,
      "לחלוט": 2606,
      "לחלוטין": 2607,
      "זכויות": 2608,
      "משק": 2609,
      "אמרה": 2610,
      "לבצע": 2611,
      "עיר": 2612,
      "לבין": 2613,
      "בחיים": 2614,
      "כתב": 2615,
      "הצד": 2616,
      "המרכז": 2617,
      "##יך": 2618,
      "כלומר": 2619,
      "בסוף": 2620,
      "חוז": 2621,
      "מנו": 2622,
      "לחשוב": 2623,
      "##ישאר": 2624,
      "יו": 2625,
      "מאפשר": 2626,
      "בעיר": 2627,
      "##כנולוגיה": 2628,
      "דיו": 2629,
      "##שרה": 2630,
      "##טב": 2631,
      "סג": 2632,
      "##קע": 2633,
      "##ופר": 2634,
      "שאנו": 2635,
      "לחיות": 2636,
      "לעצ": 2637,
      "האיש": 2638,
      "בשם": 2639,
      "כאילו": 2640,
      "עשוי": 2641,
      "תוכנית": 2642,
      "##רכה": 2643,
      "המצב": 2644,
      "##וחים": 2645,
      "מאד": 2646,
      "כשא": 2647,
      "##זל": 2648,
      "וי": 2649,
      "##סוף": 2650,
      "40": 2651,
      "##מניה": 2652,
      "במקרה": 2653,
      "##עור": 2654,
      "איפה": 2655,
      "רואים": 2656,
      "תצ": 2657,
      "##ייע": 2658,
      "שיה": 2659,
      "נכנס": 2660,
      "ויש": 2661,
      "חול": 2662,
      "##ציות": 2663,
      "יהודים": 2664,
      "הולך": 2665,
      "בסיס": 2666,
      "עלינו": 2667,
      "##נר": 2668,
      "##מודד": 2669,
      "##ad": 2670,
      "המג": 2671,
      "יוכל": 2672,
      "##ri": 2673,
      "היסט": 2674,
      "##פתחות": 2675,
      "אק": 2676,
      "אבי": 2677,
      "מחש": 2678,
      "##יאה": 2679,
      "השנייה": 2680,
      "טיפול": 2681,
      "לבר": 2682,
      "תס": 2683,
      "מסו": 2684,
      "##פורט": 2685,
      "##פן": 2686,
      "##וביל": 2687,
      "אתכם": 2688,
      "משנה": 2689,
      "קה": 2690,
      "בינלא": 2691,
      "##אב": 2692,
      "##שורת": 2693,
      "##כולת": 2694,
      "196": 2695,
      "בעק": 2696,
      "##רגיש": 2697,
      "המשפחה": 2698,
      "##הליך": 2699,
      "הנוכ": 2700,
      "שול": 2701,
      "רבה": 2702,
      "בעיות": 2703,
      "הצל": 2704,
      "and": 2705,
      "מעולם": 2706,
      "תפקיד": 2707,
      "##נאי": 2708,
      "עז": 2709,
      "##בוק": 2710,
      "בסדר": 2711,
      "שחק": 2712,
      "האל": 2713,
      "##ועה": 2714,
      "הילד": 2715,
      "בידי": 2716,
      "מכו": 2717,
      "##תף": 2718,
      "##חית": 2719,
      "להסת": 2720,
      "##לפון": 2721,
      "##ובל": 2722,
      "##us": 2723,
      "נר": 2724,
      "##לול": 2725,
      "הרצ": 2726,
      "והיא": 2727,
      "וכל": 2728,
      "חשי": 2729,
      "האחרונות": 2730,
      "חת": 2731,
      "סוכ": 2732,
      "שפ": 2733,
      "גבוהה": 2734,
      "מהר": 2735,
      "אליו": 2736,
      "בקרב": 2737,
      "שמו": 2738,
      "##כולם": 2739,
      "##חרות": 2740,
      "משתמשים": 2741,
      "השאלה": 2742,
      "הקוד": 2743,
      "##מודים": 2744,
      "חדשות": 2745,
      "המשת": 2746,
      "מאח": 2747,
      "המידע": 2748,
      "מבין": 2749,
      "אומרים": 2750,
      "ליד": 2751,
      "אנג": 2752,
      "ואם": 2753,
      "##רכי": 2754,
      "מיוח": 2755,
      "שות": 2756,
      "##ut": 2757,
      "##שרת": 2758,
      "מצד": 2759,
      "אינט": 2760,
      "חברים": 2761,
      "מתחיל": 2762,
      "זר": 2763,
      "עוז": 2764,
      "פג": 2765,
      "להק": 2766,
      "מדינה": 2767,
      "פס": 2768,
      "##יצור": 2769,
      "com": 2770,
      "##לוויזיה": 2771,
      "##וגר": 2772,
      "##מצא": 2773,
      "##יצוב": 2774,
      "al": 2775,
      "הרח": 2776,
      "מספק": 2777,
      "אומרת": 2778,
      "סיפור": 2779,
      "סביב": 2780,
      "עור": 2781,
      "##מיות": 2782,
      "בעת": 2783,
      "מרגיש": 2784,
      "עצמה": 2785,
      "חומ": 2786,
      "ארבע": 2787,
      "והם": 2788,
      "נוספת": 2789,
      "בריאות": 2790,
      "to": 2791,
      "יפה": 2792,
      "##נאים": 2793,
      "##יתים": 2794,
      "כלי": 2795,
      "לטי": 2796,
      "טרא": 2797,
      "ארג": 2798,
      "עליהם": 2799,
      "המחקר": 2800,
      "עולם": 2801,
      "מאת": 2802,
      "הפעם": 2803,
      "מדע": 2804,
      "חייבים": 2805,
      "##ראות": 2806,
      "באותה": 2807,
      "התג": 2808,
      "שהי": 2809,
      "שוא": 2810,
      "##חן": 2811,
      "אהבה": 2812,
      "##חון": 2813,
      "בעיה": 2814,
      "##רוך": 2815,
      "עליה": 2816,
      "להתחיל": 2817,
      "הבעיה": 2818,
      "דומה": 2819,
      "הנת": 2820,
      "מחוץ": 2821,
      "כלפי": 2822,
      "הוכ": 2823,
      "האפשר": 2824,
      "לחזור": 2825,
      "לבחור": 2826,
      "##ניק": 2827,
      "הגדולה": 2828,
      "מאות": 2829,
      "קרה": 2830,
      "ניו": 2831,
      "ציבור": 2832,
      "לבי": 2833,
      "המקום": 2834,
      "שוק": 2835,
      "שית": 2836,
      "מנהיג": 2837,
      "ככה": 2838,
      "מאוחר": 2839,
      "בנושא": 2840,
      "לעצמ": 2841,
      "##ur": 2842,
      "עצמם": 2843,
      "הבל": 2844,
      "24": 2845,
      "##ראים": 2846,
      "להתק": 2847,
      "נתונים": 2848,
      "בעקבות": 2849,
      "##ומו": 2850,
      "##id": 2851,
      "בארה": 2852,
      "הצע": 2853,
      "##יפוש": 2854,
      "למען": 2855,
      "לגרום": 2856,
      "!\"": 2857,
      "חמי": 2858,
      "ונ": 2859,
      "בסופו": 2860,
      "צבע": 2861,
      "אתר": 2862,
      "העם": 2863,
      "##ובע": 2864,
      "לשחק": 2865,
      "וכן": 2866,
      "משי": 2867,
      "##מני": 2868,
      "##יינו": 2869,
      "##שיר": 2870,
      "הרפ": 2871,
      "גברים": 2872,
      "להמשיך": 2873,
      "##יצוני": 2874,
      "כס": 2875,
      "נוע": 2876,
      "אפש": 2877,
      "שנית": 2878,
      "היינו": 2879,
      "משפחת": 2880,
      "##רכו": 2881,
      "הרוח": 2882,
      "הסיבה": 2883,
      "לעומת": 2884,
      "##ופול": 2885,
      "השק": 2886,
      "##דרת": 2887,
      "##למים": 2888,
      "העלי": 2889,
      "##יכנס": 2890,
      "איכות": 2891,
      "בהתאם": 2892,
      "מרח": 2893,
      "קיים": 2894,
      "ההג": 2895,
      "תהליך": 2896,
      "##זרת": 2897,
      "##ורג": 2898,
      "העול": 2899,
      "בתוכ": 2900,
      "##נצח": 2901,
      "##ונג": 2902,
      "##כיר": 2903,
      "המוס": 2904,
      "''": 2905,
      "סכ": 2906,
      "##ודנטים": 2907,
      "at": 2908,
      "##בלו": 2909,
      "לתוך": 2910,
      "ועוד": 2911,
      "בזה": 2912,
      "לאנשים": 2913,
      "הפס": 2914,
      "אנשי": 2915,
      "er": 2916,
      "ערך": 2917,
      "##ויים": 2918,
      "##ct": 2919,
      "ראשון": 2920,
      "הית": 2921,
      "ניה": 2922,
      "שלום": 2923,
      "תוכלו": 2924,
      "הלק": 2925,
      "זכ": 2926,
      "en": 2927,
      "כוחות": 2928,
      "##רבה": 2929,
      "##ומן": 2930,
      "סמ": 2931,
      "##פא": 2932,
      "השבוע": 2933,
      "##זי": 2934,
      "האינטרנט": 2935,
      "##בלה": 2936,
      "##חתי": 2937,
      "##יתית": 2938,
      "##יחוד": 2939,
      "משא": 2940,
      "רגע": 2941,
      "##גרים": 2942,
      "כדאי": 2943,
      "לגמרי": 2944,
      "שמע": 2945,
      "בארץ": 2946,
      "מיליא": 2947,
      "קצר": 2948,
      "ייש": 2949,
      "המלחמה": 2950,
      "##וצרים": 2951,
      "##נגד": 2952,
      "##ציב": 2953,
      "אמא": 2954,
      "פסי": 2955,
      "##ברו": 2956,
      "ייתכן": 2957,
      "למד": 2958,
      "היש": 2959,
      "##נתה": 2960,
      "##סיס": 2961,
      "##ציג": 2962,
      "לספק": 2963,
      "##שראלי": 2964,
      "היהודים": 2965,
      "נמצאים": 2966,
      "##שרים": 2967,
      "##בלות": 2968,
      "##כלי": 2969,
      "##צרים": 2970,
      "##ובד": 2971,
      "הער": 2972,
      "זוהי": 2973,
      "אותן": 2974,
      "משפט": 2975,
      "##יאון": 2976,
      "האחרונה": 2977,
      "##מנע": 2978,
      "##ודל": 2979,
      "תרבות": 2980,
      "החדשה": 2981,
      "##ימה": 2982,
      "היית": 2983,
      "אוט": 2984,
      "בהחלט": 2985,
      "##רס": 2986,
      "סיפ": 2987,
      "להז": 2988,
      "כמות": 2989,
      "de": 2990,
      "##לוהים": 2991,
      "##כוי": 2992,
      "הסת": 2993,
      "sh": 2994,
      "מונ": 2995,
      "##בן": 2996,
      "האה": 2997,
      "צבא": 2998,
      "עניין": 2999,
      "##נא": 3000,
      "##מיה": 3001,
      "המוז": 3002,
      "בשבוע": 3003,
      "התכ": 3004,
      "לצאת": 3005,
      "נעשה": 3006,
      "דעת": 3007,
      "##טג": 3008,
      "##בתי": 3009,
      "##נגלית": 3010,
      "אלף": 3011,
      "##וקא": 3012,
      "להביא": 3013,
      "ישנם": 3014,
      "לשם": 3015,
      "להתמודד": 3016,
      "להגיד": 3017,
      "##לתי": 3018,
      "##ריז": 3019,
      "בנק": 3020,
      "##מט": 3021,
      "הפולי": 3022,
      "תומ": 3023,
      "המאה": 3024,
      "##ידות": 3025,
      "##מץ": 3026,
      "אוני": 3027,
      "טי": 3028,
      "##מול": 3029,
      "בשנים": 3030,
      "##שלום": 3031,
      "תוצאות": 3032,
      "לאכול": 3033,
      "העצ": 3034,
      "##וצת": 3035,
      "##ישות": 3036,
      "##ושבים": 3037,
      "מזון": 3038,
      "מלחמת": 3039,
      "האתר": 3040,
      "הנשיא": 3041,
      "שיכול": 3042,
      "כולנו": 3043,
      "##סות": 3044,
      "##שבון": 3045,
      "זוג": 3046,
      "תז": 3047,
      "##ir": 3048,
      "למנוע": 3049,
      "##קב": 3050,
      "##נהגות": 3051,
      "##רחש": 3052,
      "משפחה": 3053,
      "##נסים": 3054,
      "ממשלת": 3055,
      "',": 3056,
      "ממה": 3057,
      "הרש": 3058,
      "מתחת": 3059,
      "ארגון": 3060,
      "##נח": 3061,
      "נט": 3062,
      "##וגרים": 3063,
      "השימוש": 3064,
      "הבריאות": 3065,
      "פא": 3066,
      "עליך": 3067,
      "is": 3068,
      "##זאת": 3069,
      "חברה": 3070,
      "העיק": 3071,
      "מבוס": 3072,
      "אישי": 3073,
      "מדינת": 3074,
      "אצ": 3075,
      "##וטים": 3076,
      "21": 3077,
      "שט": 3078,
      "##בורה": 3079,
      "ברגע": 3080,
      "חק": 3081,
      "חושבים": 3082,
      "רשת": 3083,
      "##מנו": 3084,
      "##צית": 3085,
      "יכולות": 3086,
      "בינו": 3087,
      "##ישים": 3088,
      "יודעת": 3089,
      "משתמש": 3090,
      "עשה": 3091,
      "עסקים": 3092,
      "גישה": 3093,
      "חמש": 3094,
      "לרכ": 3095,
      "משרד": 3096,
      "שג": 3097,
      "##זע": 3098,
      "התפ": 3099,
      "לפג": 3100,
      "מנסה": 3101,
      "##ידו": 3102,
      "מצא": 3103,
      "לכתוב": 3104,
      "שנו": 3105,
      "תופ": 3106,
      "קרוב": 3107,
      "ועד": 3108,
      "שבע": 3109,
      "##ציפ": 3110,
      "הבאה": 3111,
      "##ation": 3112,
      "##נציא": 3113,
      "לוח": 3114,
      "במצב": 3115,
      "לקנות": 3116,
      "היטב": 3117,
      "הצבא": 3118,
      "היד": 3119,
      "באינטרנט": 3120,
      "פלסטי": 3121,
      "60": 3122,
      "השר": 3123,
      "מדה": 3124,
      "דין": 3125,
      "הסיפור": 3126,
      "ידוע": 3127,
      "ציל": 3128,
      "##נדון": 3129,
      "חוסר": 3130,
      "שאלות": 3131,
      "##כני": 3132,
      "##um": 3133,
      "האר": 3134,
      "אישה": 3135,
      "חוו": 3136,
      "נצ": 3137,
      "##נדר": 3138,
      "##סר": 3139,
      "מכך": 3140,
      "זכות": 3141,
      "לסי": 3142,
      "השם": 3143,
      "ne": 3144,
      "##יץ": 3145,
      "##צלחה": 3146,
      "כרטי": 3147,
      "##ברי": 3148,
      "משות": 3149,
      "קבוע": 3150,
      "##מלי": 3151,
      "המוח": 3152,
      "##כלית": 3153,
      "שהיו": 3154,
      "אירופה": 3155,
      "ניק": 3156,
      "##ce": 3157,
      "se": 3158,
      "צפ": 3159,
      "##ag": 3160,
      "בשלב": 3161,
      "תרג": 3162,
      "##ספר": 3163,
      "אמרתי": 3164,
      "במהירות": 3165,
      "##שע": 3166,
      "למעלה": 3167,
      "##מתי": 3168,
      "##ורית": 3169,
      "מיני": 3170,
      "##ראו": 3171,
      "ירי": 3172,
      "##טרי": 3173,
      "פיל": 3174,
      "תמונות": 3175,
      "195": 3176,
      "דרכים": 3177,
      "##זית": 3178,
      "היחידה": 3179,
      "##מוע": 3180,
      "הקש": 3181,
      "2015": 3182,
      "סק": 3183,
      "נדר": 3184,
      "##מנית": 3185,
      "הישראל": 3186,
      "##רוץ": 3187,
      "##וטנציא": 3188,
      "##פרד": 3189,
      "לעיתים": 3190,
      "שיי": 3191,
      "##ורף": 3192,
      "מדיניות": 3193,
      "אבא": 3194,
      "הביתה": 3195,
      "מבט": 3196,
      "בואו": 3197,
      "it": 3198,
      "ימי": 3199,
      "##מנה": 3200,
      "להרגיש": 3201,
      "אכן": 3202,
      "חר": 3203,
      "פנים": 3204,
      "##נרגיה": 3205,
      "##חם": 3206,
      "כוכ": 3207,
      "עולה": 3208,
      "צוות": 3209,
      "##אום": 3210,
      "##נוק": 3211,
      "##אתה": 3212,
      "בתור": 3213,
      "הנתונים": 3214,
      "##ter": 3215,
      "מסוימים": 3216,
      "יג": 3217,
      "האור": 3218,
      "מהי": 3219,
      "מכיוון": 3220,
      "אוהבים": 3221,
      "הזדמנות": 3222,
      "רצי": 3223,
      "##כונים": 3224,
      "בפעם": 3225,
      "נחש": 3226,
      "היחיד": 3227,
      "כות": 3228,
      "##יית": 3229,
      "עשויים": 3230,
      "צפו": 3231,
      "##על": 3232,
      "##ליק": 3233,
      "אמריקה": 3234,
      "המוש": 3235,
      "מאמין": 3236,
      "##יקים": 3237,
      "לדוגמה": 3238,
      "סיי": 3239,
      "ביחד": 3240,
      "הראשונים": 3241,
      "הפך": 3242,
      "##ומיות": 3243,
      "הצה": 3244,
      "בעצם": 3245,
      "כב": 3246,
      "מחפ": 3247,
      "להיכנס": 3248,
      "##וגים": 3249,
      "ar": 3250,
      "בטי": 3251,
      "שיל": 3252,
      "מדברים": 3253,
      "##רונים": 3254,
      "ההיסטוריה": 3255,
      "טראמפ": 3256,
      "לקוחות": 3257,
      "צל": 3258,
      "הגבוה": 3259,
      "שמח": 3260,
      "הקור": 3261,
      "המשי": 3262,
      "החש": 3263,
      "גדולים": 3264,
      "במא": 3265,
      "צה": 3266,
      "לחץ": 3267,
      "##ולוגיה": 3268,
      "לעבור": 3269,
      "מקווה": 3270,
      "##מך": 3271,
      "##ראי": 3272,
      "2014": 3273,
      "יחס": 3274,
      "המדינות": 3275,
      "מסוגל": 3276,
      "דם": 3277,
      "ליה": 3278,
      "החי": 3279,
      "##שויות": 3280,
      "##וונת": 3281,
      "הביטחון": 3282,
      "החלק": 3283,
      "האוויר": 3284,
      "##ess": 3285,
      "for": 3286,
      "סין": 3287,
      "במדינה": 3288,
      "סיבה": 3289,
      "נושא": 3290,
      "##ולת": 3291,
      "להישאר": 3292,
      "לבנות": 3293,
      "##רושלים": 3294,
      "בארצות": 3295,
      "מיליארד": 3296,
      "##פטמבר": 3297,
      "כע": 3298,
      "לראשונה": 3299,
      "ניהול": 3300,
      "ירושלים": 3301,
      "גב": 3302,
      "##לוק": 3303,
      "##חלה": 3304,
      "##ראש": 3305,
      "מדבר": 3306,
      "we": 3307,
      "עול": 3308,
      "##ניסה": 3309,
      "הוק": 3310,
      "##os": 3311,
      "האוכל": 3312,
      "מקרה": 3313,
      "דווקא": 3314,
      "אפשרי": 3315,
      "שנע": 3316,
      "נשא": 3317,
      "גורם": 3318,
      "##קשה": 3319,
      "חג": 3320,
      "חיל": 3321,
      "מאמינים": 3322,
      "ההז": 3323,
      "יצא": 3324,
      "צרפת": 3325,
      "##חס": 3326,
      "אלפי": 3327,
      "יהודי": 3328,
      "התעופה": 3329,
      "שיהיה": 3330,
      "##כס": 3331,
      "המטרה": 3332,
      "אסטר": 3333,
      "הטיפול": 3334,
      "לילדים": 3335,
      "##עיף": 3336,
      "נמו": 3337,
      "##סל": 3338,
      "##ושי": 3339,
      "מערכות": 3340,
      "אמיתי": 3341,
      "22": 3342,
      "##פילו": 3343,
      "השמ": 3344,
      "חזק": 3345,
      "עומד": 3346,
      "##ייה": 3347,
      "##רחק": 3348,
      "פוע": 3349,
      "##un": 3350,
      "להגן": 3351,
      "איראן": 3352,
      "##צמבר": 3353,
      "מפל": 3354,
      "מוצרים": 3355,
      "הלו": 3356,
      "##לון": 3357,
      "לאור": 3358,
      "##טיב": 3359,
      "הקד": 3360,
      "הדין": 3361,
      "##וקטובר": 3362,
      "ון": 3363,
      "משמעותי": 3364,
      "במסגרת": 3365,
      "##טרף": 3366,
      "בחיי": 3367,
      "##ia": 3368,
      "##כלו": 3369,
      "קטנה": 3370,
      "שווה": 3371,
      "אוו": 3372,
      "אמרו": 3373,
      "דת": 3374,
      "טור": 3375,
      "מלחמה": 3376,
      "##ודעה": 3377,
      "ומע": 3378,
      "השירות": 3379,
      "אנרגיה": 3380,
      "##וכן": 3381,
      "ממשי": 3382,
      "##שייה": 3383,
      "לשלם": 3384,
      "המים": 3385,
      "##דיניות": 3386,
      "##לץ": 3387,
      "##זיר": 3388,
      "אמת": 3389,
      "בוד": 3390,
      "טוע": 3391,
      "רכב": 3392,
      "##בלים": 3393,
      "לשמוע": 3394,
      "מתע": 3395,
      "פרק": 3396,
      "בנוגע": 3397,
      "ניסיון": 3398,
      "עב": 3399,
      "שיק": 3400,
      "מסוים": 3401,
      "רומ": 3402,
      "##im": 3403,
      "האופ": 3404,
      "הכסף": 3405,
      "הקרי": 3406,
      "אילו": 3407,
      "לנסות": 3408,
      "##וריות": 3409,
      "##נהיג": 3410,
      "כללי": 3411,
      "מבלי": 3412,
      "כתוצאה": 3413,
      "קנ": 3414,
      "ראה": 3415,
      "##לוח": 3416,
      "אישית": 3417,
      "לישראל": 3418,
      "תיק": 3419,
      "##ונית": 3420,
      "##oc": 3421,
      "##גן": 3422,
      "הטר": 3423,
      "##ניס": 3424,
      "##ניח": 3425,
      "המד": 3426,
      "השחק": 3427,
      "##טא": 3428,
      "פרופ": 3429,
      "וכך": 3430,
      "שבועות": 3431,
      "באירופה": 3432,
      "ביי": 3433,
      "העי": 3434,
      "שמת": 3435,
      "##ליחה": 3436,
      "העתי": 3437,
      "תקופה": 3438,
      "אפשרות": 3439,
      "##סום": 3440,
      "##מדו": 3441,
      "לאחרונה": 3442,
      "ראי": 3443,
      "לצד": 3444,
      "העובדה": 3445,
      "פק": 3446,
      "##ניינים": 3447,
      "הנפ": 3448,
      "ראיתי": 3449,
      "you": 3450,
      "קא": 3451,
      "ובכל": 3452,
      "קטנים": 3453,
      "אוניברסי": 3454,
      "ופ": 3455,
      "##רטים": 3456,
      "מסע": 3457,
      "גופ": 3458,
      "##ושה": 3459,
      "##טן": 3460,
      "מעוני": 3461,
      "סיפר": 3462,
      "לספר": 3463,
      "קבוצה": 3464,
      "un": 3465,
      "נוספות": 3466,
      "הבנק": 3467,
      "שינויים": 3468,
      "le": 3469,
      "יות": 3470,
      "הבאים": 3471,
      "מחיר": 3472,
      "היהודי": 3473,
      "איתו": 3474,
      "בלו": 3475,
      "שיו": 3476,
      "ארבעה": 3477,
      "יוצא": 3478,
      "וג": 3479,
      "##פיה": 3480,
      "##וחת": 3481,
      "ראו": 3482,
      "בבי": 3483,
      "היכולת": 3484,
      "##שיב": 3485,
      "הטובה": 3486,
      "80": 3487,
      "הים": 3488,
      "אוהבת": 3489,
      "23": 3490,
      "גבר": 3491,
      "האס": 3492,
      "מהמ": 3493,
      "##ידת": 3494,
      "כלום": 3495,
      "##רוני": 3496,
      "2013": 3497,
      "המערכת": 3498,
      "הוג": 3499,
      "חודש": 3500,
      "דה": 3501,
      "##זים": 3502,
      "המדע": 3503,
      "תל": 3504,
      "מיוחד": 3505,
      "גא": 3506,
      "החשוב": 3507,
      "החולים": 3508,
      "עצמך": 3509,
      "חצי": 3510,
      "נשיא": 3511,
      "שיר": 3512,
      "אליה": 3513,
      "בצד": 3514,
      "##דיר": 3515,
      "המלא": 3516,
      "##חילת": 3517,
      "מוכן": 3518,
      "##נייה": 3519,
      "יצירת": 3520,
      "ספרים": 3521,
      "מלאה": 3522,
      "מאחורי": 3523,
      "האזרח": 3524,
      "##מונים": 3525,
      "כיוון": 3526,
      "##ראית": 3527,
      "2017": 3528,
      "##ארק": 3529,
      "בחר": 3530,
      "ערב": 3531,
      "להתע": 3532,
      "ing": 3533,
      "עית": 3534,
      "##פכה": 3535,
      "##גוד": 3536,
      ".”": 3537,
      "שאר": 3538,
      "##ריון": 3539,
      "##יעו": 3540,
      "##נתיים": 3541,
      "##פתי": 3542,
      "לעמוד": 3543,
      "##ושב": 3544,
      "שבהם": 3545,
      "##ופית": 3546,
      "##יינים": 3547,
      "מעניין": 3548,
      "לימוד": 3549,
      "עשרה": 3550,
      "שצריך": 3551,
      "##יעות": 3552,
      "##רחב": 3553,
      "רחב": 3554,
      "אודות": 3555,
      "זיה": 3556,
      "##חרר": 3557,
      "##שתו": 3558,
      "חשבו": 3559,
      "##ופאים": 3560,
      "בחודש": 3561,
      "##יסה": 3562,
      "לשים": 3563,
      "תלוי": 3564,
      "טכנולוג": 3565,
      "פתרון": 3566,
      "הסט": 3567,
      "2018": 3568,
      "2012": 3569,
      "לשע": 3570,
      "##יכרון": 3571,
      "##th": 3572,
      "35": 3573,
      "70": 3574,
      "לנק": 3575,
      "##וונים": 3576,
      "הגיעו": 3577,
      "הנא": 3578,
      "צעירים": 3579,
      "2011": 3580,
      "הבינלאומי": 3581,
      "וד": 3582,
      "תמיכה": 3583,
      "##ליטים": 3584,
      "מסי": 3585,
      "טבעי": 3586,
      "עתי": 3587,
      "##לנד": 3588,
      "##ורר": 3589,
      "2010": 3590,
      "לפעול": 3591,
      "נוכ": 3592,
      "ורק": 3593,
      "הקבוצה": 3594,
      "כזו": 3595,
      "תמ": 3596,
      "##פיים": 3597,
      "האלו": 3598,
      "##יקטים": 3599,
      "בהן": 3600,
      "בבוקר": 3601,
      "נז": 3602,
      "שגם": 3603,
      "תב": 3604,
      "לאי": 3605,
      "הסכם": 3606,
      "השפעה": 3607,
      "##פרים": 3608,
      "ואף": 3609,
      "ייע": 3610,
      "ובע": 3611,
      "מילים": 3612,
      "ניש": 3613,
      "##ap": 3614,
      "נשאר": 3615,
      "האחרונים": 3616,
      "תשומת": 3617,
      "חולים": 3618,
      "##ie": 3619,
      "מקבלים": 3620,
      "בוח": 3621,
      "מרי": 3622,
      "ההס": 3623,
      "הרע": 3624,
      "הביט": 3625,
      "##igh": 3626,
      "מין": 3627,
      "הלילה": 3628,
      "התיכון": 3629,
      "שבי": 3630,
      "##פוס": 3631,
      "בעתיד": 3632,
      "חזרה": 3633,
      "דוג": 3634,
      "מפור": 3635,
      "##שק": 3636,
      "לשפר": 3637,
      "קבוצות": 3638,
      "מבחינה": 3639,
      "!!": 3640,
      "##שיות": 3641,
      "התשובה": 3642,
      "ביצוע": 3643,
      "נולד": 3644,
      "רווח": 3645,
      "##טיה": 3646,
      "בעזרת": 3647,
      "חושבת": 3648,
      "##ייב": 3649,
      "##צא": 3650,
      "במרכז": 3651,
      "##וגה": 3652,
      "הקול": 3653,
      "בשוק": 3654,
      "ממנה": 3655,
      "הופך": 3656,
      "יכולת": 3657,
      "##נסת": 3658,
      "מגיעים": 3659,
      "חיו": 3660,
      "מיק": 3661,
      "עלול": 3662,
      "הארגון": 3663,
      "##ידן": 3664,
      "הקשר": 3665,
      "לשא": 3666,
      "##יפות": 3667,
      "מלו": 3668,
      "להיר": 3669,
      "נקודות": 3670,
      "התוכנית": 3671,
      "שעה": 3672,
      "תינו": 3673,
      "המשטרה": 3674,
      "מוט": 3675,
      "השלישי": 3676,
      "גד": 3677,
      "האינ": 3678,
      "pro": 3679,
      "##שיית": 3680,
      "לרוב": 3681,
      "עבד": 3682,
      "##סקה": 3683,
      "##לין": 3684,
      "מתא": 3685,
      "בקלות": 3686,
      "##מדים": 3687,
      "חמ": 3688,
      "##זב": 3689,
      "תרופות": 3690,
      "תכנית": 3691,
      "חוץ": 3692,
      "עת": 3693,
      "##נועה": 3694,
      "יתר": 3695,
      "מפר": 3696,
      "המלך": 3697,
      "לאדם": 3698,
      "לגלות": 3699,
      "##ניהול": 3700,
      "לומ": 3701,
      "בחלק": 3702,
      "##and": 3703,
      "##מאס": 3704,
      "ad": 3705,
      "##ייסבוק": 3706,
      "##סס": 3707,
      "##פריל": 3708,
      "ההבד": 3709,
      "##ליף": 3710,
      "באנגלית": 3711,
      "וס": 3712,
      "שמש": 3713,
      "##דון": 3714,
      "הרב": 3715,
      "##וגל": 3716,
      "ויר": 3717,
      "ומת": 3718,
      "##חרי": 3719,
      "המון": 3720,
      "לעז": 3721,
      "##רווי": 3722,
      "מנהל": 3723,
      "לקראת": 3724,
      "חשבתי": 3725,
      "מוקדם": 3726,
      "sp": 3727,
      "תמונה": 3728,
      "##מדה": 3729,
      "למקום": 3730,
      "##ילויות": 3731,
      "חזר": 3732,
      "500": 3733,
      "להתי": 3734,
      "במידה": 3735,
      "העבר": 3736,
      "הגור": 3737,
      "##מום": 3738,
      "##דרות": 3739,
      "##ירושלים": 3740,
      "##וניברסיטה": 3741,
      "שניתן": 3742,
      "##שמה": 3743,
      "##טרות": 3744,
      "אחריות": 3745,
      "דמוקר": 3746,
      "סל": 3747,
      "##כבת": 3748,
      "193": 3749,
      "la": 3750,
      "טרי": 3751,
      "##ביעי": 3752,
      "לבע": 3753,
      "חברי": 3754,
      "רוסיה": 3755,
      "שמי": 3756,
      "בעיני": 3757,
      "נשמע": 3758,
      "הקהילה": 3759,
      "26": 3760,
      "ספורט": 3761,
      "##ָּ": 3762,
      "##וונה": 3763,
      "הוצ": 3764,
      "בערך": 3765,
      "בעצמ": 3766,
      "ההורים": 3767,
      "ארוך": 3768,
      "נותן": 3769,
      "הפג": 3770,
      "בתחילת": 3771,
      "לפתח": 3772,
      "קונ": 3773,
      "שכן": 3774,
      "##יתנו": 3775,
      "שאפשר": 3776,
      "שימו": 3777,
      "משחקים": 3778,
      "\")": 3779,
      "האו": 3780,
      "העתיד": 3781,
      "שאינם": 3782,
      "לבדוק": 3783,
      "##מינו": 3784,
      "כולו": 3785,
      "מאושר": 3786,
      "##וסייה": 3787,
      "עזרה": 3788,
      "הישראלי": 3789,
      "ואפילו": 3790,
      "יקרה": 3791,
      "להיפ": 3792,
      "מהן": 3793,
      "הכוח": 3794,
      "השמש": 3795,
      "מכת": 3796,
      "מגוון": 3797,
      "28": 3798,
      "##חרת": 3799,
      "בראש": 3800,
      "##ברואר": 3801,
      "##ילד": 3802,
      "##מוצע": 3803,
      "הגדולים": 3804,
      "##מנויות": 3805,
      "##ושת": 3806,
      "להבטיח": 3807,
      "יפ": 3808,
      "##ידאו": 3809,
      "##ייט": 3810,
      "ויותר": 3811,
      "העיקר": 3812,
      "##לקת": 3813,
      "הדת": 3814,
      "מזרח": 3815,
      "תוכניות": 3816,
      "90": 3817,
      "##ידול": 3818,
      "יצר": 3819,
      "נמצאת": 3820,
      "חסר": 3821,
      "##פיע": 3822,
      "יחסים": 3823,
      "2008": 3824,
      "עוצ": 3825,
      "היכן": 3826,
      "במאי": 3827,
      "מתאים": 3828,
      "2016": 3829,
      "##יגה": 3830,
      "קיימת": 3831,
      "בינואר": 3832,
      "הפת": 3833,
      "הכת": 3834,
      "##כוון": 3835,
      "חייו": 3836,
      "2009": 3837,
      "##חלטה": 3838,
      "27": 3839,
      "ייח": 3840,
      "שמות": 3841,
      "##ומרים": 3842,
      "##יימים": 3843,
      "##פוך": 3844,
      "##em": 3845,
      "המפל": 3846,
      "הרכב": 3847,
      "##רגל": 3848,
      "כרגע": 3849,
      "שאם": 3850,
      "##ישור": 3851,
      "חוקי": 3852,
      "##משו": 3853,
      "##שיבה": 3854,
      "ההצ": 3855,
      "בסרט": 3856,
      "הטובים": 3857,
      "].": 3858,
      "יז": 3859,
      "הוס": 3860,
      "פיתוח": 3861,
      "##פחה": 3862,
      "להור": 3863,
      "בחברה": 3864,
      "צעד": 3865,
      "רחוק": 3866,
      "המודר": 3867,
      "לשעבר": 3868,
      "אירוע": 3869,
      "##ויקט": 3870,
      "נשק": 3871,
      "לאפשר": 3872,
      "מאיתנו": 3873,
      "הפני": 3874,
      "ולאחר": 3875,
      "להעביר": 3876,
      "כפ": 3877,
      "תוס": 3878,
      "אמור": 3879,
      "לבקר": 3880,
      "להתח": 3881,
      "כשהוא": 3882,
      "בשר": 3883,
      "##ותם": 3884,
      "##ריכה": 3885,
      "##ישת": 3886,
      "איננו": 3887,
      "אינטרנט": 3888,
      "היחסים": 3889,
      "עשרות": 3890,
      "ענק": 3891,
      "משנת": 3892,
      "הנכון": 3893,
      "ואין": 3894,
      "נהרג": 3895,
      "הוש": 3896,
      "מוכנים": 3897,
      "דיא": 3898,
      "##מיחה": 3899,
      "חיוב": 3900,
      "מסוגלים": 3901,
      "ממוק": 3902,
      "co": 3903,
      "הומ": 3904,
      "##טחה": 3905,
      "##ul": 3906,
      "הרעיון": 3907,
      "מכש": 3908,
      "שמא": 3909,
      "##שימת": 3910,
      "שאנשים": 3911,
      "מחקרים": 3912,
      "##טרך": 3913,
      "בלילה": 3914,
      "העובדים": 3915,
      "מחפשים": 3916,
      "לילה": 3917,
      "שו": 3918,
      "שזו": 3919,
      "##אק": 3920,
      "##און": 3921,
      "##ושבי": 3922,
      "##נגדות": 3923,
      "גורמים": 3924,
      "הוע": 3925,
      "##אלות": 3926,
      "כבוד": 3927,
      "מראש": 3928,
      "##מנט": 3929,
      "איזו": 3930,
      "האחרים": 3931,
      "קבוצת": 3932,
      "כרי": 3933,
      "בוקר": 3934,
      "ינו": 3935,
      "רמת": 3936,
      "##מכים": 3937,
      "הגל": 3938,
      "##מינה": 3939,
      "אזור": 3940,
      "גרמניה": 3941,
      "התינוק": 3942,
      "טרור": 3943,
      "goo": 3944,
      "ph": 3945,
      "לנצח": 3946,
      "סוב": 3947,
      "קומ": 3948,
      "##רישות": 3949,
      "##ind": 3950,
      "ברשת": 3951,
      "הנושא": 3952,
      "מלב": 3953,
      "תור": 3954,
      "המוצר": 3955,
      "ברמה": 3956,
      "לשימוש": 3957,
      "##כתי": 3958,
      "חינוך": 3959,
      "היצ": 3960,
      "האזור": 3961,
      "##כולוג": 3962,
      "##לטון": 3963,
      "גוף": 3964,
      "שטח": 3965,
      "##ve": 3966,
      "##ופל": 3967,
      "החופ": 3968,
      "ההכ": 3969,
      "מבק": 3970,
      "ראשית": 3971,
      "##בנה": 3972,
      "בור": 3973,
      "מוות": 3974,
      "הצורך": 3975,
      "נקרא": 3976,
      "רצון": 3977,
      "or": 3978,
      "תקשורת": 3979,
      "העליון": 3980,
      "החינוך": 3981,
      "לזכור": 3982,
      "מכיר": 3983,
      "קוראים": 3984,
      "החלטה": 3985,
      "##שום": 3986,
      "##מויות": 3987,
      "אלקט": 3988,
      "לסייע": 3989,
      "בזכות": 3990,
      "האירופי": 3991,
      "פחד": 3992,
      "קפה": 3993,
      "האת": 3994,
      "הצי": 3995,
      "אמנות": 3996,
      "##נטית": 3997,
      "שנק": 3998,
      "##ליות": 3999,
      "##מקד": 4000,
      "##זורים": 4001,
      "##צעים": 4002,
      "הברי": 4003,
      "צעיר": 4004,
      "דח": 4005,
      "המילה": 4006,
      "כאב": 4007,
      "בניו": 4008,
      "ex": 4009,
      "פוג": 4010,
      "##וין": 4011,
      "##כוה": 4012,
      "ברצ": 4013,
      "רציתי": 4014,
      "ההשפ": 4015,
      "חלב": 4016,
      "##כח": 4017,
      "אתמול": 4018,
      "העית": 4019,
      "מתחילים": 4020,
      "הפלסטינים": 4021,
      "חשיבות": 4022,
      "סביר": 4023,
      "פט": 4024,
      "##שהי": 4025,
      "בשנות": 4026,
      "2007": 4027,
      "האדמה": 4028,
      "ביוני": 4029,
      "הלאומי": 4030,
      "חכ": 4031,
      "פיק": 4032,
      "##if": 4033,
      "הנק": 4034,
      "הבחירות": 4035,
      "מחוי": 4036,
      "וכי": 4037,
      "##ge": 4038,
      "לבן": 4039,
      "חייבת": 4040,
      "קד": 4041,
      "הינו": 4042,
      "##ליטה": 4043,
      "##ביש": 4044,
      "##...": 4045,
      "להכיר": 4046,
      "מראה": 4047,
      "בספטמבר": 4048,
      "המציאות": 4049,
      "חמישה": 4050,
      "לבוא": 4051,
      "בדצמבר": 4052,
      "לוקח": 4053,
      "יוכלו": 4054,
      "wh": 4055,
      "ומי": 4056,
      "סול": 4057,
      "התחת": 4058,
      "בהכ": 4059,
      "חשבון": 4060,
      "am": 4061,
      "גדל": 4062,
      "##מם": 4063,
      "החז": 4064,
      "ואנחנו": 4065,
      "...\"": 4066,
      "לצפות": 4067,
      "##כנע": 4068,
      "מסוימת": 4069,
      "מבינים": 4070,
      "##וניברסיטת": 4071,
      "לשאול": 4072,
      "con": 4073,
      "אקד": 4074,
      "חדר": 4075,
      "##דיין": 4076,
      "מצוי": 4077,
      "הזוג": 4078,
      "גדולות": 4079,
      "ידעתי": 4080,
      "התרבות": 4081,
      "אוק": 4082,
      "החלו": 4083,
      "אמנם": 4084,
      "כם": 4085,
      "ניתוח": 4086,
      "מייצ": 4087,
      "להסביר": 4088,
      "צילום": 4089,
      "אוויר": 4090,
      "פיר": 4091,
      "##דבר": 4092,
      "סיבות": 4093,
      "שירותי": 4094,
      "pl": 4095,
      "לדי": 4096,
      "##רית": 4097,
      "##טיקה": 4098,
      "פרטים": 4099,
      "הלח": 4100,
      "משר": 4101,
      "נמ": 4102,
      "במצ": 4103,
      "החק": 4104,
      "חופש": 4105,
      "מומלץ": 4106,
      "להאמין": 4107,
      "שיתוף": 4108,
      "ורג": 4109,
      "##לום": 4110,
      "##באי": 4111,
      "##זרו": 4112,
      "לחפש": 4113,
      "##ight": 4114,
      "be": 4115,
      "קוב": 4116,
      "##דיים": 4117,
      "##ופט": 4118,
      "##שתה": 4119,
      "במערכת": 4120,
      "ריק": 4121,
      "שס": 4122,
      "התנהגות": 4123,
      "לעבודה": 4124,
      "בימים": 4125,
      "טובות": 4126,
      "שכבר": 4127,
      "הווע": 4128,
      "דיי": 4129,
      "ציפ": 4130,
      "ישירות": 4131,
      "להפסיק": 4132,
      "ביקורת": 4133,
      "##ver": 4134,
      "שהא": 4135,
      "אפריקה": 4136,
      "##פך": 4137,
      "##במבר": 4138,
      "##ברתי": 4139,
      "##פקד": 4140,
      "למדי": 4141,
      "מכירים": 4142,
      "מרגישים": 4143,
      "הנוכחי": 4144,
      "##כוהול": 4145,
      "גרי": 4146,
      "נמוך": 4147,
      "ספי": 4148,
      "##עון": 4149,
      "##למת": 4150,
      "##ודד": 4151,
      "האג": 4152,
      "##ופלים": 4153,
      "בעי": 4154,
      "מעדי": 4155,
      "האמיתי": 4156,
      "##20": 4157,
      "##ודו": 4158,
      "אנטי": 4159,
      "בהמשך": 4160,
      "##טרון": 4161,
      "המחש": 4162,
      "חשובה": 4163,
      "ma": 4164,
      "משה": 4165,
      "שמה": 4166,
      "##וזה": 4167,
      "##כונית": 4168,
      "אפשרויות": 4169,
      "##עיל": 4170,
      "##ְּ": 4171,
      "ההר": 4172,
      "אזרחים": 4173,
      "##אס": 4174,
      "הבסיס": 4175,
      "מקומות": 4176,
      "לתי": 4177,
      "שבת": 4178,
      "האנרגיה": 4179,
      "##נהג": 4180,
      "ההחלטה": 4181,
      "שנתיים": 4182,
      "##ine": 4183,
      "אסור": 4184,
      "בקרוב": 4185,
      "לכולם": 4186,
      "תשובה": 4187,
      "הימים": 4188,
      "לאר": 4189,
      "ואתה": 4190,
      "בריט": 4191,
      "האמריקאי": 4192,
      "36": 4193,
      "העת": 4194,
      "ביולי": 4195,
      "פעולות": 4196,
      "בפע": 4197,
      "התקשורת": 4198,
      "למשך": 4199,
      "מלבד": 4200,
      "נוכל": 4201,
      "##ושים": 4202,
      "העניין": 4203,
      "אלב": 4204,
      "הולכים": 4205,
      "ספציפ": 4206,
      "אוטומ": 4207,
      "##דימה": 4208,
      "מסר": 4209,
      "היהודית": 4210,
      "בחדר": 4211,
      "קיימים": 4212,
      "##ook": 4213,
      "##ive": 4214,
      "בתקופה": 4215,
      "ושוב": 4216,
      "להוסיף": 4217,
      "השכ": 4218,
      "##טיבית": 4219,
      "אליהם": 4220,
      "as": 4221,
      "באוקטובר": 4222,
      "##בעים": 4223,
      "נאל": 4224,
      "##כנית": 4225,
      "המפ": 4226,
      "מהח": 4227,
      "נזק": 4228,
      "תנאי": 4229,
      "##מרים": 4230,
      "מהע": 4231,
      "מתב": 4232,
      "##לוש": 4233,
      "##שוואה": 4234,
      "ממלי": 4235,
      "רפוא": 4236,
      "ביל": 4237,
      "רעיון": 4238,
      "##סוך": 4239,
      "##og": 4240,
      "שינה": 4241,
      "לפתוח": 4242,
      "החלטות": 4243,
      "פיצ": 4244,
      "##ליו": 4245,
      "##ידום": 4246,
      "בהק": 4247,
      "ההזד": 4248,
      "החלה": 4249,
      "הפנים": 4250,
      "ביחס": 4251,
      "191": 4252,
      "להציל": 4253,
      "web": 4254,
      "##רוכה": 4255,
      "הדם": 4256,
      "ראשו": 4257,
      "מזל": 4258,
      "bl": 4259,
      "ed": 4260,
      "##יתם": 4261,
      "שאינו": 4262,
      "בחשבון": 4263,
      "עצמנו": 4264,
      "באמצע": 4265,
      "סבל": 4266,
      "ביטחון": 4267,
      "מצי": 4268,
      "האישה": 4269,
      "##וגוסט": 4270,
      "בחזרה": 4271,
      "מציע": 4272,
      "בול": 4273,
      "פופול": 4274,
      "##שור": 4275,
      "השוק": 4276,
      "ישוע": 4277,
      "מוצר": 4278,
      "צו": 4279,
      "##בש": 4280,
      "מחר": 4281,
      "לחיים": 4282,
      "##ity": 4283,
      "זוכר": 4284,
      "השיר": 4285,
      "הדמוקר": 4286,
      "ארץ": 4287,
      "45": 4288,
      "למס": 4289,
      "מפח": 4290,
      "##קול": 4291,
      "בעבודה": 4292,
      "שאינ": 4293,
      "להתא": 4294,
      "במקרים": 4295,
      "סוגים": 4296,
      "אט": 4297,
      "גי": 4298,
      "שגר": 4299,
      "המפור": 4300,
      "המזרח": 4301,
      "שהן": 4302,
      "##לוו": 4303,
      "והן": 4304,
      "שלישי": 4305,
      "המקצוע": 4306,
      "בנובמבר": 4307,
      "העולמי": 4308,
      "עני": 4309,
      "##ופיה": 4310,
      "מהא": 4311,
      "מעני": 4312,
      "בכדי": 4313,
      "ביטוח": 4314,
      "##טוא": 4315,
      "הערב": 4316,
      "שאל": 4317,
      "##פיין": 4318,
      "הוסיף": 4319,
      "יהם": 4320,
      "במשחק": 4321,
      "בבע": 4322,
      "##קן": 4323,
      "התלמידים": 4324,
      "##סיבות": 4325,
      "ממני": 4326,
      "יחסי": 4327,
      "עדיף": 4328,
      "לטפל": 4329,
      "עתה": 4330,
      "##ָה": 4331,
      "כלשהו": 4332,
      "מאי": 4333,
      "בספר": 4334,
      "2019": 4335,
      "סוגי": 4336,
      "29": 4337,
      "נוצ": 4338,
      "שרי": 4339,
      "##ודאי": 4340,
      "המחיר": 4341,
      "מטרות": 4342,
      "לאה": 4343,
      "##ותרת": 4344,
      "הנח": 4345,
      "נפלא": 4346,
      "\"?": 4347,
      "אמו": 4348,
      "ביד": 4349,
      "שמונה": 4350,
      "##כך": 4351,
      "##בירה": 4352,
      "שלב": 4353,
      "מתאי": 4354,
      "הנשים": 4355,
      "להימנע": 4356,
      "##ליחו": 4357,
      "משמש": 4358,
      "מצט": 4359,
      "##בוהים": 4360,
      "##מידה": 4361,
      "סטודנטים": 4362,
      "צמ": 4363,
      "התמונה": 4364,
      "השלום": 4365,
      "אחוזים": 4366,
      "##ובלי": 4367,
      "העור": 4368,
      "עונה": 4369,
      "[...": 4370,
      "ללק": 4371,
      "היע": 4372,
      "באה": 4373,
      "בתע": 4374,
      "בסך": 4375,
      "##סטית": 4376,
      "נאמר": 4377,
      "איתם": 4378,
      "##תפים": 4379,
      "##מרו": 4380,
      "##יונ": 4381,
      "##est": 4382,
      "[...]": 4383,
      "נול": 4384,
      "##דית": 4385,
      "##op": 4386,
      "הארי": 4387,
      "במג": 4388,
      "##יימת": 4389,
      "##חרור": 4390,
      "המחשב": 4391,
      "משמעותית": 4392,
      "ויל": 4393,
      "מהווה": 4394,
      "מיוחדת": 4395,
      "אמי": 4396,
      "ישר": 4397,
      "פינ": 4398,
      "##se": 4399,
      "##ִּ": 4400,
      "המור": 4401,
      "מתוכ": 4402,
      "בשעה": 4403,
      "שליטה": 4404,
      "תקופת": 4405,
      "עשויה": 4406,
      "##דיל": 4407,
      "##gle": 4408,
      "ליום": 4409,
      "בטח": 4410,
      "מודר": 4411,
      "ארוכה": 4412,
      "man": 4413,
      "לטיפול": 4414,
      "יקר": 4415,
      "הרופא": 4416,
      "##וסף": 4417,
      "בגוף": 4418,
      "משפחות": 4419,
      "האפשרות": 4420,
      "?”": 4421,
      "שהח": 4422,
      "הגנה": 4423,
      "לתח": 4424,
      "נפג": 4425,
      "מבחינת": 4426,
      "לרכוש": 4427,
      "המוות": 4428,
      "להד": 4429,
      "באוגוסט": 4430,
      "מאחר": 4431,
      "##פרט": 4432,
      "ביניהם": 4433,
      "שעבר": 4434,
      "לזהות": 4435,
      "הצדדים": 4436,
      "אסטרטג": 4437,
      "wor": 4438,
      "הפרי": 4439,
      "בשני": 4440,
      "בבקשה": 4441,
      "בריטניה": 4442,
      "00": 4443,
      "חומר": 4444,
      "עיצוב": 4445,
      "##ba": 4446,
      "##נינו": 4447,
      "בקב": 4448,
      "הפעילות": 4449,
      "##רם": 4450,
      "##נדי": 4451,
      "הפעולה": 4452,
      "פרטי": 4453,
      "אינן": 4454,
      "לעזוב": 4455,
      "בנות": 4456,
      "##ודא": 4457,
      "לאיר": 4458,
      "בחוץ": 4459,
      "פתוח": 4460,
      "האנושי": 4461,
      "האנושות": 4462,
      "##ומם": 4463,
      "במזרח": 4464,
      "לעצור": 4465,
      "לצורך": 4466,
      "גרם": 4467,
      "##ard": 4468,
      "בריא": 4469,
      "##וטנציאל": 4470,
      "אופן": 4471,
      "נכונה": 4472,
      "התהליך": 4473,
      "סרטן": 4474,
      "דיווח": 4475,
      "בירושלים": 4476,
      "וו": 4477,
      "סא": 4478,
      "רמות": 4479,
      "לאתר": 4480,
      "2000": 4481,
      "בגר": 4482,
      "##ונאים": 4483,
      "תד": 4484,
      "שלהן": 4485,
      "נחשב": 4486,
      "ic": 4487,
      "##פד": 4488,
      "להציג": 4489,
      "##וסק": 4490,
      "##לושה": 4491,
      "בסין": 4492,
      "ההבדל": 4493,
      "##ונו": 4494,
      "לאן": 4495,
      "מילה": 4496,
      "נוג": 4497,
      "האב": 4498,
      "נמוכה": 4499,
      "הוב": 4500,
      "סיר": 4501,
      "צוד": 4502,
      "##רק": 4503,
      "##לחת": 4504,
      "##ריכים": 4505,
      "לבני": 4506,
      "##יפים": 4507,
      "##נגטון": 4508,
      "2006": 4509,
      "מנג": 4510,
      "תואר": 4511,
      "מצרים": 4512,
      "אירועים": 4513,
      "יחסית": 4514,
      "ספרי": 4515,
      "”,": 4516,
      "הצליח": 4517,
      "סיכוי": 4518,
      "##ולוגי": 4519,
      "פתאום": 4520,
      "הישראלית": 4521,
      "mo": 4522,
      "איתי": 4523,
      "##וכה": 4524,
      "בהיסטוריה": 4525,
      "לנהל": 4526,
      "סתם": 4527,
      "ואמר": 4528,
      "מדו": 4529,
      "חיילים": 4530,
      "הבינלאומית": 4531,
      "כשאני": 4532,
      "לשר": 4533,
      "קדימה": 4534,
      "##גנון": 4535,
      "המוצ": 4536,
      "במדינות": 4537,
      "ליצ": 4538,
      "google": 4539,
      "רופא": 4540,
      "##ען": 4541,
      "##וקי": 4542,
      "##מצאים": 4543,
      "המשמעות": 4544,
      "הלקוחות": 4545,
      "וול": 4546,
      "ולק": 4547,
      "##ושות": 4548,
      "הבאות": 4549,
      "לקח": 4550,
      "ראשי": 4551,
      "##כנן": 4552,
      "דרום": 4553,
      "לני": 4554,
      "שמחה": 4555,
      "##צועים": 4556,
      "חברתית": 4557,
      "עקב": 4558,
      "הבה": 4559,
      "חרי": 4560,
      "טל": 4561,
      "##צעי": 4562,
      "עליי": 4563,
      "האש": 4564,
      "##ביעה": 4565,
      "פרסום": 4566,
      "מוחלט": 4567,
      "##סו": 4568,
      "##דרים": 4569,
      "להראות": 4570,
      "ירד": 4571,
      "מנסים": 4572,
      "##קיע": 4573,
      "אינס": 4574,
      "הפכה": 4575,
      "הגיעה": 4576,
      "לישון": 4577,
      "עובר": 4578,
      "זקוקים": 4579,
      "לציין": 4580,
      "דובר": 4581,
      "קבלת": 4582,
      "##מאות": 4583,
      "##שוף": 4584,
      "mar": 4585,
      "התוצאות": 4586,
      "מידי": 4587,
      "חזקה": 4588,
      "שקי": 4589,
      "תשלום": 4590,
      "המילים": 4591,
      "החברת": 4592,
      "לקבוע": 4593,
      "האהבה": 4594,
      "מדהים": 4595,
      "ap": 4596,
      "ברו": 4597,
      "יין": 4598,
      "נוב": 4599,
      "התחיל": 4600,
      "התפתחות": 4601,
      "##פקת": 4602,
      "וק": 4603,
      "וידאו": 4604,
      "##נדה": 4605,
      "משקל": 4606,
      "##ניהו": 4607,
      "מטרה": 4608,
      "הלאומית": 4609,
      "נושאים": 4610,
      "ip": 4611,
      "נכתב": 4612,
      "שוכ": 4613,
      "לממש": 4614,
      "הסביבה": 4615,
      "הנע": 4616,
      "להתג": 4617,
      "אוב": 4618,
      "טלוויזיה": 4619,
      "האיחוד": 4620,
      "מציאות": 4621,
      "##מצאו": 4622,
      "פעיל": 4623,
      "האירוע": 4624,
      "קשור": 4625,
      "300": 4626,
      "חפ": 4627,
      "מדר": 4628,
      "בעניין": 4629,
      "ולע": 4630,
      "##ate": 4631,
      "במספר": 4632,
      "יגיע": 4633,
      "עתיד": 4634,
      "שניהם": 4635,
      "##טין": 4636,
      "שעברה": 4637,
      "חופשי": 4638,
      "יצי": 4639,
      "סופ": 4640,
      "במת": 4641,
      "באפריל": 4642,
      "##וויה": 4643,
      "עליכם": 4644,
      "כנגד": 4645,
      "שור": 4646,
      "##ft": 4647,
      "הידע": 4648,
      "##ביים": 4649,
      "למת": 4650,
      "##עתם": 4651,
      "מושג": 4652,
      "להציע": 4653,
      "עומדים": 4654,
      "ליהנות": 4655,
      "אוניברסיטת": 4656,
      "us": 4657,
      "דוד": 4658,
      "##טור": 4659,
      "##שן": 4660,
      "להניח": 4661,
      "התוצאה": 4662,
      "##שובות": 4663,
      "שיעור": 4664,
      "לייצר": 4665,
      "הצלחה": 4666,
      "העיקרי": 4667,
      "פות": 4668,
      "##זין": 4669,
      "המוב": 4670,
      "##ואין": 4671,
      "התמ": 4672,
      "השו": 4673,
      "לבקש": 4674,
      "##לבום": 4675,
      "##ננים": 4676,
      "##ורא": 4677,
      "##דיא": 4678,
      "אוס": 4679,
      "##ונש": 4680,
      "בפברואר": 4681,
      "עורך": 4682,
      "להן": 4683,
      "למק": 4684,
      "לבסוף": 4685,
      "שלושת": 4686,
      "עץ": 4687,
      "##שאים": 4688,
      "היס": 4689,
      "החת": 4690,
      "##וטה": 4691,
      "##one": 4692,
      "לפתור": 4693,
      "אנגלית": 4694,
      "##ובדן": 4695,
      "כרטיס": 4696,
      "כזאת": 4697,
      "עיני": 4698,
      "תפס": 4699,
      "##ישורים": 4700,
      "##בויות": 4701,
      "מוזיקה": 4702,
      "##פעל": 4703,
      "me": 4704,
      "זמין": 4705,
      "רצה": 4706,
      "המזון": 4707,
      "להיע": 4708,
      "להוציא": 4709,
      "##ביבת": 4710,
      "לעבר": 4711,
      "הגב": 4712,
      "##ice": 4713,
      "קורא": 4714,
      "##קיה": 4715,
      "##ריע": 4716,
      "##דיק": 4717,
      "מתרח": 4718,
      "אמיתית": 4719,
      "הזכות": 4720,
      "הראש": 4721,
      "כשאתה": 4722,
      "שחור": 4723,
      "עמוק": 4724,
      "דיג": 4725,
      "מבר": 4726,
      "מידה": 4727,
      "מרבית": 4728,
      "סנט": 4729,
      "הקו": 4730,
      "##טרס": 4731,
      "בתהליך": 4732,
      "מגד": 4733,
      "חייהם": 4734,
      "כולה": 4735,
      "שיפ": 4736,
      "##ובב": 4737,
      "##וסית": 4738,
      "אלימות": 4739,
      "ההגנה": 4740,
      "he": 4741,
      "##משי": 4742,
      "מתכ": 4743,
      "ברוב": 4744,
      "לגיל": 4745,
      "חוזר": 4746,
      "מותר": 4747,
      "##נשי": 4748,
      "השפה": 4749,
      "##וסטר": 4750,
      "קטנות": 4751,
      "##יטניה": 4752,
      "בדבר": 4753,
      "##אג": 4754,
      "##ורט": 4755,
      "החברות": 4756,
      "מתקד": 4757,
      "בניגוד": 4758,
      "השתת": 4759,
      "לדבריו": 4760,
      "מחשבות": 4761,
      "גזע": 4762,
      "חיפוש": 4763,
      "לנס": 4764,
      "סעיף": 4765,
      "##דמות": 4766,
      "אלינו": 4767,
      "חשובים": 4768,
      "הסיכון": 4769,
      "חיות": 4770,
      "תחרות": 4771,
      "##קסט": 4772,
      "##בנות": 4773,
      "שלם": 4774,
      "##ופיע": 4775,
      "במטרה": 4776,
      "המוצרים": 4777,
      "האפ": 4778,
      "##ואות": 4779,
      "לשת": 4780,
      "מסתכל": 4781,
      "דני": 4782,
      "זכה": 4783,
      "לעצמי": 4784,
      "היסטוריה": 4785,
      "su": 4786,
      "ולב": 4787,
      "חיס": 4788,
      "לאט": 4789,
      "מהיר": 4790,
      "העונה": 4791,
      "ארוחת": 4792,
      "מושלם": 4793,
      "במחקר": 4794,
      "צפוי": 4795,
      "התרג": 4796,
      "יכולתי": 4797,
      "ישראלים": 4798,
      "בך": 4799,
      "הטכנולוגיה": 4800,
      "בפועל": 4801,
      "##all": 4802,
      "זקוק": 4803,
      "דג": 4804,
      "לעלות": 4805,
      "מעצ": 4806,
      "מקרים": 4807,
      "##בורים": 4808,
      "נקודת": 4809,
      "איתך": 4810,
      "sc": 4811,
      "קיל": 4812,
      "##ביעות": 4813,
      "למות": 4814,
      "למכור": 4815,
      "##לויות": 4816,
      "לידי": 4817,
      "ואיך": 4818,
      "רעיונות": 4819,
      "גבי": 4820,
      "להיל": 4821,
      "מעמד": 4822,
      "לקב": 4823,
      "##בוי": 4824,
      "##יבוש": 4825,
      "הלקוח": 4826,
      "מותו": 4827,
      "תכונות": 4828,
      "בעלות": 4829,
      "מחשב": 4830,
      "פעמיים": 4831,
      "##יכר": 4832,
      "אגב": 4833,
      "te": 4834,
      "הנית": 4835,
      "##מדת": 4836,
      "להוביל": 4837,
      "למצב": 4838,
      "##לאות": 4839,
      "##וכים": 4840,
      "נתן": 4841,
      "ברכ": 4842,
      "סע": 4843,
      "הינה": 4844,
      "##וקף": 4845,
      "מתנה": 4846,
      "לפנות": 4847,
      "##יסות": 4848,
      "הטלפון": 4849,
      "ראוי": 4850,
      "##בלתי": 4851,
      "לדא": 4852,
      "הלימודים": 4853,
      "הפלסטינית": 4854,
      "יוע": 4855,
      "##תיבה": 4856,
      "##וניות": 4857,
      "2005": 4858,
      "מרכזי": 4859,
      "בדרום": 4860,
      "cl": 4861,
      "צפון": 4862,
      "שניים": 4863,
      "המוק": 4864,
      "מחלות": 4865,
      "הגדולות": 4866,
      "פלי": 4867,
      "תלמידים": 4868,
      "התנועה": 4869,
      "הנראה": 4870,
      "אישור": 4871,
      "הבלתי": 4872,
      "ab": 4873,
      "tr": 4874,
      "ייצור": 4875,
      "לנשים": 4876,
      "##סיה": 4877,
      "מלון": 4878,
      "##ill": 4879,
      "הקודם": 4880,
      "31": 4881,
      "es": 4882,
      "שיא": 4883,
      "תשת": 4884,
      "מאה": 4885,
      "בעלת": 4886,
      "ישנה": 4887,
      "כיף": 4888,
      "מקורות": 4889,
      "אלכוהול": 4890,
      "מצליח": 4891,
      "תנועה": 4892,
      "דיס": 4893,
      "##גיש": 4894,
      "שהע": 4895,
      "שאמר": 4896,
      "הכלכלי": 4897,
      "##שאיר": 4898,
      "##אורה": 4899,
      "##יתוף": 4900,
      "מתרג": 4901,
      "הכרח": 4902,
      "192": 4903,
      "מרגישה": 4904,
      "מכם": 4905,
      "קלא": 4906,
      "##טיק": 4907,
      "##סוי": 4908,
      "במילים": 4909,
      "באמ": 4910,
      "החמי": 4911,
      "משכ": 4912,
      "בינתיים": 4913,
      "הצוות": 4914,
      "##רגונים": 4915,
      "בהשוואה": 4916,
      "מבח": 4917,
      "עצמכם": 4918,
      "הבחירה": 4919,
      "לעצמו": 4920,
      "ויט": 4921,
      "סקר": 4922,
      "סופר": 4923,
      "##מפרי": 4924,
      "השטח": 4925,
      "##ers": 4926,
      "בצרפת": 4927,
      "להשפיע": 4928,
      "par": 4929,
      "הורים": 4930,
      "##ריד": 4931,
      "##מוס": 4932,
      "##ירותים": 4933,
      "ברית": 4934,
      "עצמית": 4935,
      "פשוטה": 4936,
      "פרויקט": 4937,
      "ומתן": 4938,
      "המפלגה": 4939,
      "ובי": 4940,
      "פו": 4941,
      "##זיקה": 4942,
      "הרשת": 4943,
      "הפיז": 4944,
      "בבח": 4945,
      "תוכן": 4946,
      "po": 4947,
      "ארכ": 4948,
      "ללי": 4949,
      "נפר": 4950,
      "##רבות": 4951,
      "##ינת": 4952,
      "##קוב": 4953,
      "##ועות": 4954,
      "מסכים": 4955,
      "ועכשיו": 4956,
      "בשימוש": 4957,
      "##נסייה": 4958,
      "ההזדמנות": 4959,
      "וְ": 4960,
      "ניג": 4961,
      "##תיע": 4962,
      "מתג": 4963,
      "והת": 4964,
      "##ונד": 4965,
      "המסע": 4966,
      "אביו": 4967,
      "wind": 4968,
      "טלפון": 4969,
      "מלך": 4970,
      "רד": 4971,
      "שפה": 4972,
      "##כרו": 4973,
      "##בדה": 4974,
      "השאר": 4975,
      "הפכו": 4976,
      "מעוד": 4977,
      "הבוקר": 4978,
      "לחלק": 4979,
      "סימן": 4980,
      "שבא": 4981,
      "כשהם": 4982,
      "רפואי": 4983,
      "לתקן": 4984,
      "##ue": 4985,
      "##יתיים": 4986,
      "לשתף": 4987,
      "הנס": 4988,
      "ראשונה": 4989,
      "לצע": 4990,
      "המחלה": 4991,
      "הנוס": 4992,
      "שחקן": 4993,
      "מהש": 4994,
      "החוצה": 4995,
      "העד": 4996,
      "לטובת": 4997,
      "mic": 4998,
      "פית": 4999
    }
  }
}