<unk>	0
<s>	0
</s>	0
।	-3.29718
▁के	-3.52334
▁में	-3.76835
▁की	-3.98821
▁है	-4.07518
,	-4.09052
▁को	-4.22441
▁से	-4.26648
▁ने	-4.41724
▁का	-4.54681
▁और	-4.6572
▁पर	-4.68684
ी	-4.78591
▁कि	-4.97302
ों	-5.08392
▁हैं	-5.1318
ा	-5.23854
▁भी	-5.25144
न	-5.32987
र	-5.35423
▁कर	-5.36983
-	-5.37681
▁किया	-5.45908
े	-5.48519
▁लिए	-5.5064
क	-5.52243
▁एक	-5.52746
ल	-5.53559
▁गया	-5.55802
▁इस	-5.57901
▁नहीं	-5.6417
▁था	-5.64577
म	-5.67767
▁हो	-5.71129
.	-5.73537
▁ही	-5.80013
▁बाद	-5.80021
ने	-5.87584
▁साथ	-5.92654
▁पुलिस	-5.98743
▁कहा	-5.99077
▁	-5.99263
▁गई	-6.00301
त	-6.02778
▁करने	-6.03388
स	-6.0857
▁दिया	-6.09614
▁जा	-6.14681
ट	-6.16262
▁तो	-6.16931
▁रहे	-6.17134
▁थी	-6.19552
ना	-6.19596
▁व	-6.21082
▁रहा	-6.21833
▁बताया	-6.22154
▁तक	-6.24247
▁हुए	-6.26595
▁यह	-6.27682
▁रही	-6.32421
▁थे	-6.33052
ता	-6.35549
कर	-6.36139
द	-6.36482
▁न	-6.40054
प	-6.40494
▁सिंह	-6.41269
▁दी	-6.41292
ं	-6.43825
▁(	-6.45087
▁गए	-6.45752
ज	-6.46398
▁उन्होंने	-6.46739
ो	-6.48685
▁अ	-6.49484
:	-6.50692
)	-6.52605
▁आ	-6.53175
व	-6.53424
▁लेकर	-6.53434
▁पहले	-6.54081
ब	-6.56107
▁इसके	-6.56151
रा	-6.56618
ह	-6.5885
▁लोगों	-6.5934
▁अपने	-6.61742
ला	-6.61943
▁हुई	-6.64012
▁लेकिन	-6.66925
▁स	-6.71928
श	-6.73575
▁होने	-6.75292
▁वह	-6.75538
▁साल	-6.75692
सी	-6.75972
▁दिन	-6.76646
▁वाले	-6.77008
ड	-6.77687
▁दौरान	-6.78145
िंग	-6.78396
▁जो	-6.79186
ित	-6.80883
▁हुआ	-6.81281
▁इन	-6.81489
▁क	-6.82538
▁अब	-6.83167
फ	-6.83352
ग	-6.85696
▁ब	-6.86171
▁दो	-6.86277
ू	-6.87431
▁सरकार	-6.8787
ते	-6.88386
ि	-6.89181
▁घर	-6.90224
िक	-6.90532
▁करते	-6.90728
▁कुमार	-6.92114
्स	-6.92794
री	-6.93944
▁ये	-6.94585
पुर	-6.95835
▁म	-6.95974
▁बार	-6.96121
▁सभी	-6.97141
च	-6.97148
ियों	-6.97818
▁कुछ	-6.9865
▁चुनाव	-7.00066
▁लिया	-7.00169
▁कई	-7.00712
▁ग	-7.01722
नी	-7.01844
▁भारत	-7.02552
य	-7.03356
ु	-7.0378
▁काम	-7.05876
▁बात	-7.06031
ली	-7.06427
ई	-7.06732
▁गांव	-7.07103
मा	-7.07229
वा	-7.07472
▁क्षेत्र	-7.08161
▁टीम	-7.0841
▁पास	-7.08505
ड़	-7.09378
▁उनके	-7.09522
ती	-7.10339
▁मामले	-7.10438
▁लोग	-7.11282
ें	-7.12087
▁कोई	-7.13107
▁थाना	-7.13542
ख	-7.1438
▁द्वारा	-7.15142
ए	-7.15379
▁5	-7.15652
▁कांग्रेस	-7.15671
▁अपनी	-7.16359
▁समय	-7.16395
▁जब	-7.16649
▁शुरू	-7.16703
▁उन्हें	-7.17932
▁वहीं	-7.181
▁दर्ज	-7.18245
िया	-7.18672
ै	-7.18935
ंग	-7.19225
▁यहां	-7.20147
▁दोनों	-7.20163
ण	-7.20806
▁विभाग	-7.21431
▁ले	-7.2224
▁बजे	-7.23138
ंड	-7.23646
▁रुपए	-7.23695
▁जांच	-7.25367
▁प	-7.26014
▁प्र	-7.2615
▁रूप	-7.26592
▁वे	-7.26767
▁आज	-7.27127
▁घटना	-7.27473
▁ज	-7.27607
पी	-7.28308
▁किसी	-7.28571
▁तरह	-7.2865
ओं	-7.28786
▁नाम	-7.29263
▁10	-7.29409
▁आरोपी	-7.299
▁'	-7.30028
▁बीच	-7.30037
▁2	-7.30042
▁उसके	-7.30087
या	-7.3011
▁जानकारी	-7.31
का	-7.31288
▁नगर	-7.32671
▁फ	-7.33308
▁महिला	-7.33727
▁प्रदेश	-7.34325
▁लाख	-7.34505
▁शामिल	-7.34643
▁जिला	-7.34802
▁हर	-7.35294
ध	-7.36324
▁एवं	-7.36398
▁6	-7.36577
जी	-7.36769
▁फिर	-7.37633
क्ष	-7.38478
▁कम	-7.3858
3	-7.39076
▁राम	-7.39217
▁होगा	-7.39589
▁अस्पताल	-7.39699
▁भाजपा	-7.39699
▁"	-7.39707
▁जाने	-7.39709
▁जाएगा	-7.39813
सा	-7.40844
▁3	-7.40911
▁आई	-7.41067
▁पूर्व	-7.41218
'	-7.41699
▁किए	-7.41757
▁सी	-7.41897
▁उसे	-7.42053
टी	-7.42844
▁खिलाफ	-7.43067
▁अन्य	-7.43078
▁द	-7.43256
▁च	-7.43344
▁करीब	-7.43566
▁जारी	-7.43616
▁जिले	-7.43765
▁कारण	-7.43852
▁देश	-7.43931
▁पार्टी	-7.44133
▁श	-7.44158
जा	-7.4437
▁4	-7.44478
▁मांग	-7.4526
▁रात	-7.45816
▁या	-7.45856
▁त	-7.46103
्य	-7.46811
6	-7.4781
5	-7.4862
▁उनकी	-7.48716
ंद	-7.48738
थ	-7.49121
▁करना	-7.49125
▁डॉ	-7.49235
▁ज्यादा	-7.49688
▁परिवार	-7.49879
के	-7.50222
▁हम	-7.51098
9	-7.51121
▁वाली	-7.51342
▁ओर	-7.51815
8	-7.5186
▁मौके	-7.51917
▁नि	-7.52105
▁मंत्री	-7.52135
▁मु	-7.52479
▁मंदिर	-7.53038
▁हजार	-7.53618
▁कार्रवाई	-7.53704
?	-7.53726
▁मौत	-7.53959
▁जाता	-7.53977
ाई	-7.54459
▁ना	-7.54561
▁दे	-7.54816
▁तीन	-7.55203
▁सा	-7.55238
▁वो	-7.55354
7	-7.55574
▁ह	-7.56544
▁सामने	-7.56549
▁सुबह	-7.57529
▁कार्यक्रम	-7.57798
4	-7.58516
▁चल	-7.58883
▁7	-7.59416
डी	-7.59905
इ	-7.5996
▁शहर	-7.60069
▁सबसे	-7.60482
ौ	-7.60696
▁देने	-7.60737
▁अध्यक्ष	-7.61564
्	-7.6162
▁ख	-7.6234
▁8	-7.6245
▁फिल्म	-7.63103
▁लगा	-7.63212
▁करोड़	-7.63724
▁निवासी	-7.64014
▁क्या	-7.64092
▁यादव	-7.64598
2	-7.64672
▁आरोप	-7.6534
a	-7.65821
e	-7.65901
▁1	-7.66087
▁उ	-7.66089
▁वि	-7.66096
▁युवक	-7.66128
▁सूचना	-7.66234
ंट	-7.66431
▁पानी	-7.66761
▁पा	-7.66978
हा	-7.6705
ले	-7.67464
▁र	-7.67826
▁बारिश	-7.68016
▁जहां	-7.68084
वर	-7.68115
▁ऐसे	-7.68137
▁शिकायत	-7.68183
▁जी	-7.68271
▁20	-7.68412
▁दिए	-7.6862
▁मा	-7.68786
ॉ	-7.70464
▁अधिक	-7.70468
▁होगी	-7.70694
▁पहुंचे	-7.70931
▁मिल	-7.70945
▁गिरफ्तार	-7.70992
▁आने	-7.70996
▁स्कूल	-7.7125
▁जिसमें	-7.71369
▁सु	-7.71706
▁आया	-7.71744
दा	-7.72055
▁इसमें	-7.72096
▁12	-7.7224
बी	-7.72789
▁ए	-7.7281
▁अधिकारी	-7.73134
▁इससे	-7.736
▁कु	-7.73765
▁ली	-7.74433
▁आए	-7.74488
▁राज्य	-7.74671
▁बाहर	-7.74835
वि	-7.75166
िल	-7.75309
ष	-7.7571
आई	-7.75722
▁भारतीय	-7.75773
▁इसी	-7.76022
▁अनुसार	-7.76443
एं	-7.76643
▁मोदी	-7.76785
▁रहने	-7.76813
▁9	-7.77183
एस	-7.77188
▁ल	-7.77502
▁लग	-7.77773
▁शर्मा	-7.77916
▁दिल्ली	-7.77971
▁राज	-7.78002
▁कोर्ट	-7.78248
▁मिली	-7.78809
पा	-7.78815
1	-7.7883
▁सकता	-7.78856
▁चाहिए	-7.79831
▁स्थित	-7.80381
ियां	-7.80753
▁लोकसभा	-7.80871
ओ	-7.81203
▁मैं	-7.81807
▁सं	-7.81936
र्	-7.82018
मी	-7.82058
▁जीत	-7.82336
▁वहां	-7.8243
▁शव	-7.82548
i	-7.82762
▁बा	-7.82941
▁बना	-7.8309
▁बंद	-7.8341
ड़ा	-7.83469
▁19	-7.83639
▁भ	-7.83997
▁मामला	-7.84093
▁पिछले	-7.84531
ीय	-7.8461
ंस	-7.84798
▁उसकी	-7.85307
▁इ	-7.85381
▁पूरी	-7.85435
▁बैठक	-7.86868
▁रि	-7.86894
गा	-7.87473
▁रिपोर्ट	-7.87698
▁पी	-7.8799
"	-7.88118
▁आप	-7.88201
▁कार्य	-7.88201
▁उस	-7.88245
▁11	-7.88314
▁विधायक	-7.88514
o	-7.88741
▁ड	-7.88776
▁ट	-7.89045
ान	-7.8927
▁मिला	-7.89414
▁वर्ष	-7.89912
्या	-7.89957
▁नेता	-7.90214
▁काफी	-7.90327
▁आगे	-7.90444
▁मे	-7.90555
▁शाम	-7.90904
▁सहित	-7.91707
बा	-7.91997
▁केंद्र	-7.9215
▁बड़ी	-7.92538
▁जाएगी	-7.92593
▁बढ़	-7.92596
▁अपना	-7.92604
▁बी	-7.92606
▁गो	-7.92643
्र	-7.92927
की	-7.92978
▁सड़क	-7.93003
▁करें	-7.93114
▁जबकि	-7.93356
कार	-7.93383
र्स	-7.94118
▁मां	-7.94512
▁बहुत	-7.94852
ाय	-7.94859
▁बस	-7.94919
▁हालांकि	-7.95144
▁विकास	-7.95178
स्त	-7.9528
▁खेल	-7.95578
▁अभी	-7.95959
गी	-7.96125
▁बे	-7.96129
▁वीडियो	-7.96161
▁कार	-7.96613
▁मुख्यमंत्री	-7.9669
▁15	-7.96738
शा	-7.96767
▁मुख्य	-7.97214
▁भर	-7.97377
▁बन	-7.97412
भ	-7.97836
प्र	-7.97865
▁तहत	-7.97935
▁विधानसभा	-7.97958
▁होता	-7.98137
टा	-7.98188
▁बाइक	-7.98598
▁बच्चों	-7.987
जन	-7.98823
▁चार	-7.99113
▁परीक्षा	-7.99481
राज	-7.99569
▁रोड	-7.99626
▁हत्या	-7.99788
▁पिता	-7.99995
▁निर्देश	-8.0011
▁2024	-8.00163
▁उसने	-8.0024
▁सकते	-8.00475
्ल	-8.00572
▁तब	-8.00721
▁अलावा	-8.00819
▁बारे	-8.00912
▁उनका	-8.01322
▁बि	-8.01344
रे	-8.0148
▁जिसक	-8.01551
▁जान	-8.0181
▁मीडिया	-8.01862
▁चला	-8.01988
▁बता	-8.02061
रो	-8.02225
एम	-8.02232
▁अलग	-8.02651
▁पहुंच	-8.03278
्यू	-8.0335
00	-8.03626
▁अगर	-8.03955
▁पता	-8.04032
आर	-8.04097
▁भाग	-8.04152
0	-8.04486
▁कंपनी	-8.04657
▁कहना	-8.04848
ेट	-8.05043
▁वजह	-8.05451
ड़ी	-8.05602
ेश	-8.05663
ंत	-8.05715
्व	-8.06048
▁संख्या	-8.06178
▁आरोपियों	-8.0639
▁पत्नी	-8.06631
▁शादी	-8.06848
▁समाज	-8.07006
▁मौजूद	-8.07152
▁सीट	-8.07292
से	-8.07387
▁सुरक्षा	-8.07418
▁मार	-8.0744
▁ई	-8.07561
▁ला	-8.07635
▁दूसरे	-8.07691
▁श्री	-8.08162
ति	-8.08385
्त	-8.08956
▁अधिकारियों	-8.09238
पाल	-8.09502
▁गु	-8.09715
▁आर	-8.09769
▁प्रति	-8.09852
▁उप	-8.09883
▁दिनों	-8.10153
▁मुताबिक	-8.10231
S	-8.10311
I	-8.1043
▁आयोजन	-8.10459
▁तरफ	-8.10639
▁करेंगे	-8.10809
▁पूरा	-8.10874
नि	-8.11131
▁घायल	-8.11141
▁इसे	-8.11147
s	-8.11196
C	-8.11301
▁करता	-8.11336
त्र	-8.11468
वी	-8.11671
में	-8.11709
हर	-8.11885
▁होती	-8.12084
▁महीने	-8.12152
▁सब	-8.12181
▁निर्माण	-8.12232
▁शिव	-8.12438
▁पद	-8.12456
▁भाई	-8.12697
▁जैसे	-8.12774
्‍	-8.12785
▁कै	-8.1282
▁सर	-8.13034
▁लगे	-8.13277
▁जिस	-8.13586
▁बनाने	-8.13697
t	-8.13895
▁घंटे	-8.13912
▁पहुंची	-8.14065
▁बिहार	-8.14283
▁नंबर	-8.14378
िका	-8.14631
▁ऐसा	-8.14665
▁S	-8.14811
ाव	-8.15122
उ	-8.15258
▁एस	-8.15817
▁नजर	-8.15838
▁हरियाणा	-8.15852
▁बीजेपी	-8.15892
▁झ	-8.16274
▁आग	-8.16503
रिया	-8.16537
▁लगातार	-8.16538
...	-8.16565
A	-8.16766
▁मो	-8.16789
▁रन	-8.16927
▁सोमवार	-8.17026
▁जल	-8.17135
▁थाने	-8.17162
▁मान	-8.17277
▁जिससे	-8.17341
▁व्यक्ति	-8.17362
▁पूरे	-8.17439
िन	-8.17528
▁कॉलेज	-8.17563
▁टी	-8.17609
▁डी	-8.17627
िट	-8.17667
▁वोट	-8.17701
▁देख	-8.17809
▁भेज	-8.1801
गढ़	-8.1844
▁इसकी	-8.19082
▁सांसद	-8.19219
▁योजना	-8.19448
▁प्रदर्शन	-8.19811
▁जगह	-8.19826
▁रह	-8.20039
ेड	-8.203
▁सकती	-8.20412
▁लगाया	-8.2116
u	-8.21372
▁निगम	-8.21596
दार	-8.21614
▁A	-8.21864
▁मिलने	-8.21888
▁पहली	-8.21904
ठ	-8.2191
▁महा	-8.22131
राम	-8.22163
▁वाला	-8.22649
▁तैयार	-8.22662
अ	-8.22674
▁तेज	-8.22814
शन	-8.23296
▁गांधी	-8.23744
▁मंगलवार	-8.23749
मे	-8.23798
▁हूं	-8.23909
वाल	-8.24163
▁गंभीर	-8.24223
▁इसका	-8.24271
▁भगवान	-8.24272
▁जाए	-8.24338
स्ट	-8.2436
▁रो	-8.24524
▁कराया	-8.24757
ंज	-8.25017
▁प्रशासन	-8.25176
▁आधार	-8.25335
▁सि	-8.25689
▁पांच	-8.25848
▁डिग्री	-8.25852
▁देर	-8.25898
▁सीएम	-8.25938
▁देते	-8.25975
▁मृतक	-8.25993
▁प्रधानमंत्री	-8.26207
ोर	-8.2623
▁इसलिए	-8.26521
▁मैच	-8.2658
▁जाती	-8.26596
ेशन	-8.27292
▁खुद	-8.27668
टे	-8.27896
▁पंजाब	-8.2805
▁देव	-8.28106
▁व्यवस्था	-8.28152
़	-8.28257
▁30	-8.28276
▁बड़ा	-8.28498
▁एन	-8.28525
▁मुझे	-8.28565
▁विरोध	-8.28641
▁बनाया	-8.28691
▁ट्रेन	-8.29005
▁खान	-8.29019
▁25	-8.29091
छ	-8.29152
▁शनिवार	-8.29236
▁इलाज	-8.29237
टर	-8.29335
▁बड़े	-8.29339
▁डि	-8.29365
▁जमीन	-8.29698
▁सवाल	-8.29874
▁शिक्षा	-8.29912
लाल	-8.30015
▁रविवार	-8.30076
▁छ	-8.30091
र्म	-8.30148
ां	-8.30242
▁बुधवार	-8.3053
ेज	-8.30584
▁रे	-8.30592
▁नए	-8.30593
▁राजस्थान	-8.30763
P	-8.31024
▁शुक्रवार	-8.31089
मेंट	-8.31373
▁जून	-8.31654
ार	-8.31679
▁ऑ	-8.31744
▁लगी	-8.31843
▁नई	-8.31868
▁पहचान	-8.31935
▁ध	-8.31954
▁संबंध	-8.32025
▁प्रभारी	-8.32049
▁रुपये	-8.3208
ेंगे	-8.32306
▁जेल	-8.32334
ाया	-8.32415
▁उन	-8.32594
्ट	-8.32613
▁पूजा	-8.32758
▁आयोजित	-8.32835
▁हाथ	-8.3284
▁पति	-8.33251
▁दुकान	-8.33285
भा	-8.33292
▁जल्द	-8.33323
▁रा	-8.33371
▁कुल	-8.33371
▁एम	-8.3338
▁मौसम	-8.33743
खा	-8.33848
मान	-8.33854
▁पत्र	-8.33947
▁बैंक	-8.34005
▁तापमान	-8.34369
रू	-8.34554
▁समेत	-8.34612
िस	-8.34943
ास	-8.34979
▁13	-8.35047
▁आदेश	-8.35099
ंक	-8.35158
▁14	-8.35203
▁बिजली	-8.35341
▁उसका	-8.35451
▁भर्ती	-8.35732
▁परिजनों	-8.36037
▁स्थिति	-8.36044
▁लाल	-8.36189
▁गुरुवार	-8.36629
रण	-8.36928
▁गिर	-8.37061
▁लेने	-8.37252
▁बयान	-8.37314
▁खा	-8.37352
दी	-8.37518
▁शुरुआत	-8.3761
▁आम	-8.37744
▁बच्चे	-8.37811
▁-	-8.37867
▁सेवा	-8.38638
ेंट	-8.3864
▁फोन	-8.38717
▁विशेष	-8.38857
▁दें	-8.38966
▁उत्तर	-8.39027
▁होते	-8.3926
को	-8.39421
▁जुलाई	-8.39424
▁मह	-8.39479
▁समिति	-8.39504
D	-8.39574
▁चि	-8.39581
▁राहुल	-8.39729
▁यात्रा	-8.39781
▁बेटे	-8.3982
▁मिले	-8.40587
▁बनाए	-8.40713
▁मन	-8.41036
▁बाजार	-8.41069
▁होकर	-8.41081
▁बाल	-8.41118
▁कल	-8.41138
▁जनता	-8.41165
ंच	-8.41186
▁चलते	-8.41196
▁अभियान	-8.41738
वार	-8.41857
▁आदि	-8.41891
▁चोरी	-8.42101
्म	-8.42114
▁डॉक्टर	-8.4232
▁रखा	-8.4234
▁राष्ट्रीय	-8.42352
▁18	-8.42356
▁जे	-8.42447
▁क्योंकि	-8.42476
▁चुके	-8.42697
▁सरकारी	-8.42912
ृ	-8.42971
▁बै	-8.43169
▁विभिन्न	-8.43257
▁दोपहर	-8.43258
▁थीं	-8.43513
▁अन	-8.43557
▁दूसरी	-8.43686
▁चर्चा	-8.43805
▁सोशल	-8.4384
▁जवाब	-8.43947
▁अगस्त	-8.44053
▁बेटी	-8.44099
▁सवार	-8.44345
▁प्रतिशत	-8.44373
▁करके	-8.44443
▁यू	-8.44558
▁घ	-8.44638
घ	-8.44739
▁बु	-8.44818
▁मदद	-8.44856
नगर	-8.44867
▁बदल	-8.44933
आ	-8.44975
▁हाल	-8.45319
▁16	-8.45375
an	-8.45419
▁तथा	-8.45426
▁0	-8.45491
▁प्रयास	-8.45717
▁महिलाओं	-8.45764
▁लड़	-8.46196
▁अवसर	-8.46216
▁होंगे	-8.4632
▁स्वास्थ्य	-8.46423
▁50	-8.46467
l	-8.46492
▁24	-8.4655
▁सिर्फ	-8.46596
▁रेलवे	-8.46924
▁स्ट	-8.46964
हार	-8.47192
▁केस	-8.47267
▁पेश	-8.47349
▁चुकी	-8.47423
▁अनु	-8.47622
▁दा	-8.47641
▁पंचायत	-8.4774
h	-8.47758
▁विवाद	-8.47811
▁वाहन	-8.48008
तर	-8.48136
▁मोबाइल	-8.48293
▁सचिव	-8.48575
▁बल	-8.48646
शी	-8.48989
▁17	-8.49156
M	-8.49343
▁स्थानीय	-8.49384
▁छोड़	-8.49688
▁जाते	-8.49709
▁ट्र	-8.4973
▁ऑफ	-8.49828
मन	-8.5003
▁प्रमुख	-8.50045
▁पुत्र	-8.50358
▁ग्राम	-8.50359
▁हा	-8.50437
▁बर	-8.50764
▁बने	-8.51008
▁हि	-8.51306
▁जयपुर	-8.51374
▁जैन	-8.51745
▁देखा	-8.51765
▁लगभग	-8.51798
्रा	-8.51921
▁ता	-8.51965
ंगी	-8.52039
लो	-8.52174
▁पोस्ट	-8.52175
▁इलाके	-8.52317
▁दूर	-8.52349
▁सदस्य	-8.52507
▁200	-8.5266
▁किसान	-8.52684
▁पु	-8.52763
p	-8.52838
▁वापस	-8.52951
▁शराब	-8.53014
▁देवी	-8.53219
▁करती	-8.53265
गंज	-8.53402
वे	-8.53428
▁मेरे	-8.53428
▁प्राप्त	-8.53486
▁अवैध	-8.53538
▁छात्र	-8.53788
▁धर्म	-8.54105
▁गाड़ी	-8.54218
ौर	-8.5442
क्स	-8.54435
▁स्तर	-8.54518
▁शो	-8.54701
▁किसानों	-8.54756
▁गा	-8.5486
नाथ	-8.55035
धा	-8.55127
▁पि	-8.55147
▁रोक	-8.5525
▁मि	-8.55304
▁शेयर	-8.55345
▁जिन	-8.55377
▁बरामद	-8.55489
▁पाकिस्तान	-8.55548
▁अंदर	-8.55733
▁पीड़ित	-8.55797
▁पक्ष	-8.55809
▁दिल	-8.55834
▁मई	-8.55856
▁जीवन	-8.56144
पुरा	-8.56464
▁वन	-8.56568
वीं	-8.56583
▁दल	-8.56771
ग्र	-8.56873
▁जय	-8.56941
▁सह	-8.56965
ेंद्र	-8.57108
▁कोशिश	-8.57116
m	-8.57449
▁M	-8.57451
▁सितंबर	-8.57478
ढ़	-8.57499
▁स्टेशन	-8.57513
▁पीएम	-8.57607
▁कहते	-8.57885
▁इंडिया	-8.5791
▁जन	-8.58013
▁शाह	-8.58047
▁मारपीट	-8.5815
जे	-8.58351
▁थ	-8.58801
▁स्व	-8.59126
▁अक्टूबर	-8.59197
▁कलेक्टर	-8.59198
▁चुका	-8.59234
▁पड़	-8.59335
▁वालों	-8.59449
जीत	-8.5946
न्न	-8.60216
▁इं	-8.60282
▁इंदौर	-8.60507
▁लौट	-8.60509
▁हमारे	-8.60571
▁कह	-8.60716
▁दिसंबर	-8.60758
ेन	-8.60787
ंध	-8.60871
▁हमला	-8.61112
▁डा	-8.61134
ज़	-8.61153
सर	-8.61266
त्त	-8.61336
▁भा	-8.61389
▁पीछे	-8.61516
बल	-8.61669
▁संगठन	-8.6177
▁हादसे	-8.62216
▁तलाश	-8.62283
▁लोक	-8.62315
मो	-8.62329
ड़े	-8.62613
बर	-8.62634
▁देकर	-8.62989
यों	-8.63105
ेल	-8.63358
▁P	-8.63358
▁C	-8.63369
▁पूछताछ	-8.63371
▁उठा	-8.63409
▁माता	-8.63436
▁लिखा	-8.63443
▁पार	-8.63453
▁कार्यालय	-8.63518
पर	-8.63575
िए	-8.6367
▁विजय	-8.63733
▁मेडिकल	-8.63954
▁आवेदन	-8.64085
▁आसपास	-8.64218
वन	-8.64301
गर	-8.64458
▁नवंबर	-8.64475
▁पै	-8.64477
स्क	-8.64838
▁पढ़ें	-8.65146
ीन	-8.65799
▁केंद्रीय	-8.65875
▁डाल	-8.65908
▁ठ	-8.66058
▁22	-8.6607
▁कभी	-8.66295
झ	-8.66333
▁मतदान	-8.66459
र्ड	-8.66602
▁ओ	-8.66622
▁तौर	-8.66651
▁सके	-8.66714
▁बोल	-8.66907
▁चौधरी	-8.67055
▁मंडल	-8.67368
▁जाएंगे	-8.67413
▁एसपी	-8.67566
▁आपको	-8.67603
चार	-8.6764
स्थ	-8.68168
▁देखने	-8.68255
▁बिना	-8.68331
▁खास	-8.68375
▁मैंने	-8.6839
▁पड़ा	-8.68559
्क	-8.68563
▁केवल	-8.68672
▁मिनट	-8.68746
▁मै	-8.68923
िम	-8.68932
%	-8.69359
▁लाइन	-8.69403
▁सम	-8.6944
/	-8.69496
▁शा	-8.69556
▁दिख	-8.69675
ंब	-8.6972
▁राय	-8.69742
▁राशि	-8.69874
▁डे	-8.6988
▁नेताओं	-8.70002
ुल	-8.70106
ॉल	-8.70132
▁माह	-8.70405
50	-8.70422
एल	-8.7043
ही	-8.70627
▁क्यों	-8.70801
स्	-8.70882
र्ज	-8.70909
▁ध्यान	-8.70949
▁भारी	-8.71063
▁रख	-8.71276
▁जाना	-8.71282
▁माध्यम	-8.71407
▁भोपाल	-8.7152
ुक	-8.71523
यू	-8.7155
▁लगाए	-8.7164
20	-8.71876
▁नदी	-8.72114
v	-8.72564
▁मार्च	-8.72589
ेस	-8.72904
ेश्वर	-8.72945
▁जमा	-8.7296
▁21	-8.73074
्न	-8.73136
▁मध्य	-8.73191
T	-8.73232
▁D	-8.73277
ये	-8.73548
▁पकड़	-8.73603
▁चौ	-8.73655
ंडा	-8.74043
▁खबर	-8.74049
▁निकाल	-8.7419
ाल	-8.74245
▁हमें	-8.74438
y	-8.74541
▁कैसे	-8.74626
d	-8.74652
▁सिर	-8.74763
▁देखते	-8.74893
▁बढ़ा	-8.7512
▁फरार	-8.75223
फ़	-8.7536
ूल	-8.75396
▁लाभ	-8.75441
▁टिकट	-8.75729
▁समस्या	-8.75733
▁रंग	-8.75735
▁सो	-8.75798
▁प्रसाद	-8.75875
▁B	-8.76002
अलग	-8.7628
एन	-8.76354
▁पहुंचा	-8.76505
▁गोली	-8.76658
▁होना	-8.76748
▁चालक	-8.7676
▁कराने	-8.76916
▁वै	-8.76929
फा	-8.77001
▁एक्स	-8.77063
▁प्रेम	-8.77082
▁बोर्ड	-8.77516
ाइट	-8.77693
ष्ट	-8.77886
▁संबंधित	-8.78046
ंप	-8.78094
▁ग्रामीणों	-8.78632
▁बनी	-8.78705
गु	-8.78816
▁जिसे	-8.78874
▁नव	-8.79029
▁वार्ड	-8.79155
▁दिखा	-8.79226
लि	-8.79272
▁जनवरी	-8.79375
▁ग्रामीण	-8.79439
भर	-8.79504
▁प्रक्रिया	-8.79603
▁कर्मचारी	-8.79754
▁कीमत	-8.79856
र्थ	-8.79865
▁संभावना	-8.79907
िय	-8.79907
वास	-8.79944
▁वक्त	-8.79994
▁हार	-8.80119
▁एल	-8.8012
▁छात्रों	-8.80178
▁सीटों	-8.80434
▁हवा	-8.80576
▁यानी	-8.80584
▁समारोह	-8.80671
▁परेशान	-8.80774
▁मार्ग	-8.80783
िश	-8.80809
ाइड	-8.80878
▁अगले	-8.80884
िव	-8.8093
▁आयोग	-8.8104
▁तय	-8.81177
▁चीन	-8.8138
▁स्थान	-8.81401
▁उपलब्ध	-8.81597
▁जिलों	-8.816
▁I	-8.8181
▁संजय	-8.8183
▁सहयोग	-8.81838
िर	-8.81981
▁बहन	-8.8244
▁अपराध	-8.82518
▁भेजा	-8.82524
▁चौक	-8.82612
g	-8.82756
▁गलत	-8.82762
k	-8.8277
▁दावा	-8.83136
▁भवन	-8.83386
देव	-8.83422
▁भू	-8.83476
▁नेतृत्व	-8.83553
▁फोटो	-8.83632
▁ऐसी	-8.83674
रि	-8.83705
चा	-8.83841
डा	-8.83914
▁छत्तीसगढ़	-8.84029
▁उर्फ	-8.8403
ar	-8.84078
▁रखने	-8.84107
▁40	-8.84123
▁पो	-8.84277
▁उम्मीदवार	-8.84305
म्	-8.84402
ड्	-8.84425
कों	-8.84635
दर	-8.84759
▁बोले	-8.84918
▁नीचे	-8.84986
▁लो	-8.85272
▁कर्मचारियों	-8.85307
▁ताकि	-8.85322
▁करवा	-8.85341
▁स्	-8.85461
▁गर्मी	-8.85529
▁यूपी	-8.85617
▁नरेंद्र	-8.85722
O	-8.8602
▁हिस्सा	-8.86033
▁प्रो	-8.86108
▁निकल	-8.86126
▁विकेट	-8.86439
▁ऑफिस	-8.86476
▁यही	-8.86753
▁टक्कर	-8.86847
▁बल्कि	-8.86928
▁कप	-8.87061
▁अप्रैल	-8.87092
▁तैयारी	-8.8718
▁100	-8.87201
▁लगाने	-8.87245
▁प्रत्याशी	-8.87256
▁करा	-8.87326
▁मुंबई	-8.87338
▁समझ	-8.8737
▁क्र	-8.87427
▁गुप्ता	-8.8754
▁दरअसल	-8.87667
c	-8.87693
▁ओवर	-8.87727
▁वर्ग	-8.87911
▁योग	-8.88137
▁सीमा	-8.88222
▁साफ	-8.88233
▁दुनिया	-8.88253
▁सजा	-8.88373
बे	-8.8848
▁कॉ	-8.88535
▁माना	-8.88594
▁2023	-8.88675
▁कृष्ण	-8.88709
ेस्ट	-8.88871
▁फैसला	-8.8891
▁री	-8.89137
क्र	-8.89538
▁26	-8.89635
▁तैनात	-8.89747
▁जुड़े	-8.89749
▁टेस्ट	-8.89809
▁हासिल	-8.89831
▁कट	-8.89832
▁मकान	-8.89834
▁ढ	-8.89911
▁जोड़	-8.90226
▁सदर	-8.90398
▁जाकर	-8.90441
▁23	-8.90557
R	-8.9059
▁मैदान	-8.90775
▁घोषणा	-8.90846
रु	-8.91082
▁चरण	-8.91285
▁रहते	-8.91397
▁इस्तेमाल	-8.91528
ियो	-8.91625
▁पे	-8.91793
▁प्रकाश	-8.92005
▁क्रिकेट	-8.92043
ूर	-8.92263
▁राजनीतिक	-8.92385
▁खरीद	-8.92617
▁बच	-8.92797
▁खुल	-8.92816
कल	-8.92823
▁किस	-8.92856
▁अमेरिका	-8.92993
▁प्रकार	-8.93104
▁रहेगा	-8.93284
ेगा	-8.93285
▁ऊपर	-8.93349
▁सै	-8.93457
▁सू	-8.93602
▁हालत	-8.93813
▁माल	-8.93833
▁संघ	-8.9394
G	-8.9396
▁विश्व	-8.94042
हि	-8.94413
▁28	-8.94532
▁बातचीत	-8.94569
वाह	-8.94792
▁सुन	-8.94862
▁पैसे	-8.94876
सु	-8.94925
▁कं	-8.94926
वें	-8.95031
▁परिसर	-8.95036
िटी	-8.95106
शु	-8.95153
▁बाबा	-8.95208
एफ	-8.95282
▁पटना	-8.95342
▁कानून	-8.9535
▁अमित	-8.95372
▁प्रा	-8.95411
▁खराब	-8.95637
कु	-8.95723
▁वायरल	-8.95723
▁ठीक	-8.95996
▁महत्वपूर्ण	-8.96264
▁बनने	-8.96307
▁जरूरत	-8.96457
्ड	-8.96505
▁नया	-8.9653
▁टे	-8.96579
ऊ	-8.96904
न्द	-8.96912
▁तीनों	-8.97002
▁य	-8.97063
वान	-8.97197
▁हमने	-8.97286
▁झारखंड	-8.97342
▁खत्म	-8.97342
▁फिलहाल	-8.97433
▁दिवस	-8.97483
▁भीड़	-8.9754
▁स्थल	-8.97568
▁चंद्र	-8.97702
▁रिकॉर्ड	-8.97705
▁गठबंधन	-8.97796
▁धन	-8.9787
▁विद्यालय	-8.97888
ुआ	-8.97958
▁सेंटर	-8.97962
हरा	-8.97966
▁प्रधान	-8.98009
लिया	-8.98069
्च	-8.98142
ेंस	-8.98237
▁बांग्लादेश	-8.98266
▁खेत	-8.98366
▁युवा	-8.98368
▁चोर	-8.98379
्ब	-8.98519
▁कहीं	-8.98765
▁निजी	-8.98926
ट्	-8.98927
▁स्प	-8.98977
ल्ट	-8.99005
वल	-8.99005
▁कार्ड	-8.99107
द्ध	-8.99127
▁उम्मीद	-8.9915
▁कराई	-8.9918
▁खोल	-8.99332
▁सिटी	-8.99338
▁ब्र	-8.99409
▁मोहन	-8.99705
▁इतन	-8.99817
▁दर	-8.99937
▁बह	-8.99985
ियन	-9.00105
ग्	-9.00106
▁लूट	-9.00147
ंगा	-9.00246
▁आपके	-9.00372
B	-9.00435
▁पहला	-9.00512
▁घोषित	-9.00568
▁राष्ट्रपति	-9.00575
▁जि	-9.00578
णी	-9.00619
था	-9.00648
▁27	-9.00758
▁होटल	-9.00879
▁ट्रक	-9.01051
म्प	-9.01084
▁सभा	-9.0118
▁लड़की	-9.01201
▁मिलकर	-9.0121
र्द	-9.01368
र्क	-9.01472
▁उपस्थित	-9.01488
▁लखनऊ	-9.01698
्रो	-9.01744
▁सामान	-9.01844
▁सम्मान	-9.01882
▁चा	-9.01884
▁अंतिम	-9.01993
▁मेरी	-9.02104
▁मजबूत	-9.02173
▁दर्शन	-9.02269
मर	-9.0237
▁N	-9.02559
▁बो	-9.02747
▁जन्म	-9.02791
चर	-9.02832
▁कमेटी	-9.02845
▁स्क	-9.02881
),	-9.03235
▁तभी	-9.03258
ायर	-9.03316
▁हाई	-9.0348
▁मना	-9.03503
▁जरिए	-9.03516
▁धारा	-9.03516
ँ	-9.03805
िप	-9.03838
्री	-9.03839
▁पाया	-9.04016
▁मीटर	-9.04022
▁धमकी	-9.04096
▁वर्षीय	-9.0413
▁बज	-9.04138
▁अभि	-9.04315
▁उच्च	-9.04419
▁अंक	-9.04679
▁अस	-9.0472
▁शिक्षक	-9.04744
▁हमारी	-9.04879
▁उतर	-9.0491
▁लगाई	-9.05026
▁सुप्रीम	-9.05169
▁जु	-9.05195
▁गुरु	-9.05279
▁प्रवेश	-9.05562
▁सुनवाई	-9.05573
▁अव	-9.05613
▁अदालत	-9.0566
▁कॉल	-9.05702
▁अचानक	-9.05759
▁प्रस्ताव	-9.05759
ेयर	-9.05779
बार	-9.05809
िता	-9.0582
▁अग्रवाल	-9.05858
▁तोड़	-9.06121
▁वरिष्ठ	-9.06154
▁लिख	-9.06205
▁समर्थन	-9.06254
▁परिषद	-9.06254
▁फा	-9.06255
र्न	-9.06329
▁वारदात	-9.06353
ाबाद	-9.06383
▁चाहते	-9.06393
▁विपक्ष	-9.06552
▁परिजन	-9.06566
▁कॉलोनी	-9.06651
▁हिंदू	-9.0695
▁दोस्त	-9.06962
▁सात	-9.06994
पो	-9.07001
▁राज्यों	-9.07176
पति	-9.07199
▁कब	-9.07203
er	-9.07363
▁सही	-9.07399
ेक्ट	-9.0763
▁बावजूद	-9.07652
▁पैर	-9.07837
िस्ट	-9.079
▁लागू	-9.07954
▁कमी	-9.08022
▁उम्र	-9.08156
▁सदस्यों	-9.08325
म्ब	-9.0848
▁देना	-9.08507
▁गेट	-9.08623
र्ट	-9.08887
▁अशोक	-9.08967
▁आते	-9.08975
▁घाट	-9.08986
ोज	-9.09022
▁सामान्य	-9.09131
मु	-9.0918
▁उनसे	-9.09241
▁निरीक्षण	-9.09273
▁शुभ	-9.09275
▁पटेल	-9.09293
E	-9.09528
▁विश्वविद्यालय	-9.09683
्ज	-9.09692
धार	-9.09914
▁31	-9.09973
र्ग	-9.10094
▁याचिका	-9.10094
▁उसी	-9.10165
▁बेहतर	-9.10176
ेगी	-9.10193
▁बदलाव	-9.10356
▁जग	-9.10414
▁सौ	-9.10686
n	-9.10792
दान	-9.1083
al	-9.1099
▁झा	-9.11102
मि	-9.1122
▁राजनीति	-9.11237
गो	-9.11266
10	-9.11321
ाकर	-9.11421
▁हथियार	-9.11443
▁प्रभावित	-9.11551
ंदा	-9.11712
▁कही	-9.11775
ेन्द्र	-9.11804
▁वर्मा	-9.11865
▁मं	-9.1188
▁बनाकर	-9.11908
▁एंड	-9.11986
▁जुट	-9.12031
▁सुख	-9.12112
इस	-9.12169
▁क्षेत्रों	-9.12191
▁29	-9.12274
▁दिखाई	-9.12482
▁आवास	-9.12619
▁छात्रा	-9.12679
ra	-9.12756
ाइज	-9.12886
▁रहता	-9.1304
▁नुकसान	-9.13234
▁बंगाल	-9.13236
▁जरूरी	-9.13464
ज्ज	-9.13501
▁प्रतियोगिता	-9.13554
▁उससे	-9.13559
गत	-9.13598
▁T	-9.13618
▁पुल	-9.1362
▁फैल	-9.13649
▁पदाधिकारी	-9.13768
▁नेशनल	-9.13781
स्त्र	-9.13879
▁शि	-9.13883
पत	-9.13888
▁अतिथि	-9.14002
ः	-9.14088
▁रखी	-9.14273
▁अध	-9.14276
▁अजय	-9.14413
▁उपयोग	-9.14429
▁असर	-9.14438
▁प्रभाव	-9.14557
▁करेगी	-9.14577
▁बनाई	-9.14582
▁गंगा	-9.14736
▁दु	-9.14739
▁मजदूर	-9.1495
▁राहत	-9.15073
▁संस्थान	-9.1509
सिंह	-9.15127
▁ग्रुप	-9.15384
▁विचार	-9.1546
▁रास्ते	-9.15493
▁हॉस्पिटल	-9.15601
पु	-9.15716
▁वी	-9.15755
b	-9.15819
▁तरीके	-9.1582
▁गाय	-9.15884
जि	-9.16075
▁बांध	-9.16111
ानी	-9.16239
शि	-9.1629
▁मिश्रा	-9.16339
वत	-9.16378
▁रवि	-9.16392
▁टूट	-9.16418
▁जब्त	-9.16474
▁भूमिका	-9.16535
▁चोट	-9.16701
सू	-9.16722
in	-9.1676
ाप	-9.16953
ियर	-9.17021
▁सीसीटीवी	-9.17027
दीप	-9.17066
▁शांति	-9.17077
▁ड्राइवर	-9.17121
▁कौन	-9.1714
अप	-9.17261
▁सफाई	-9.17291
▁कार्यकर्ताओं	-9.17309
लू	-9.17317
▁फ़	-9.17352
ॉन	-9.17374
▁महाराज	-9.17451
▁मर	-9.17525
▁महाराष्ट्र	-9.17564
णा	-9.17834
▁तुरंत	-9.18026
▁संस्था	-9.18104
▁स्वागत	-9.18256
▁2019	-9.18387
▁पाए	-9.18471
▁कल्याण	-9.18473
▁चेक	-9.18476
▁चंद	-9.1849
▁अप	-9.18511
▁ख़	-9.18587
▁रिलीज	-9.18701
▁हमले	-9.18839
वानी	-9.18935
निया	-9.18982
▁कपूर	-9.19055
▁डर	-9.19058
▁इतना	-9.19116
w	-9.19147
▁दक्षिण	-9.1926
गे	-9.1935
▁विदेश	-9.19382
▁बजट	-9.19402
▁खर्च	-9.19496
▁मंच	-9.19845
▁प्रदान	-9.19907
▁युवती	-9.1994
▁नौकरी	-9.19942
▁ज़	-9.19979
▁वाहनों	-9.20074
▁अयोध्या	-9.20168
बि	-9.20169
▁प्रचार	-9.20172
▁पं	-9.20248
▁लगाकर	-9.20263
▁परि	-9.20274
▁छोटे	-9.20396
▁अल	-9.20452
जर	-9.20543
▁सेना	-9.2065
्प	-9.20727
वाई	-9.20775
▁फरवरी	-9.20969
▁आनंद	-9.21088
प्ल	-9.21089
▁संयुक्त	-9.21342
▁अभिषेक	-9.21429
▁बीते	-9.21466
▁सीटें	-9.21572
▁लगता	-9.21586
▁दीप	-9.21612
;	-9.2166
कि	-9.21682
▁सर्व	-9.21746
▁नाग	-9.21768
▁मिलेगा	-9.21807
▁निर्णय	-9.21892
▁लेते	-9.21961
▁कृषि	-9.22008
ठा	-9.22137
▁रायपुर	-9.22217
ुर	-9.2224
▁अमर	-9.22269
▁राजेश	-9.22305
्वा	-9.2234
▁सिविल	-9.22357
सं	-9.22376
▁फीसदी	-9.22486
▁नोटिस	-9.22491
▁भग	-9.22571
गल	-9.22753
▁मल	-9.22865
▁सौंप	-9.22883
▁तेजी	-9.2295
▁हल	-9.23109
▁बताते	-9.23174
▁अंतर	-9.23184
यां	-9.23249
ध्य	-9.2328
15	-9.23461
▁नाबालिग	-9.23528
▁ऑनलाइन	-9.23529
▁कदम	-9.23541
▁फंस	-9.23617
▁यदि	-9.23655
▁E	-9.23707
▁रहेगी	-9.23749
▁जमकर	-9.23887
▁सूर्य	-9.2401
▁मालिक	-9.24116
▁भास्कर	-9.2412
▁रोहित	-9.2412
ल्ला	-9.24182
ाइन	-9.24272
L	-9.24338
▁मुलाकात	-9.24357
▁दीपक	-9.24497
▁पट	-9.24527
▁गुर	-9.24547
▁आय	-9.24557
▁विषय	-9.24596
▁आर्थिक	-9.24714
▁एक्सप्रेस	-9.24953
▁रेल	-9.25031
▁करेगा	-9.25115
▁शक्ति	-9.25137
▁उतार	-9.25155
▁जाम	-9.25422
▁भविष्य	-9.25432
▁अली	-9.25744
▁छह	-9.25774
्ता	-9.25807
ाइल	-9.25856
ज्ञ	-9.25891
ैन	-9.259
▁सागर	-9.26014
्द	-9.26052
▁रुक	-9.2611
▁R	-9.26257
▁सामना	-9.26281
▁अपील	-9.26286
िफ	-9.26358
▁पाल	-9.264
▁खो	-9.26446
▁रहती	-9.26522
▁अंतर्गत	-9.26522
▁शेख	-9.26554
▁संत	-9.26624
▁फर्जी	-9.26763
-20	-9.26873
▁बेटा	-9.26893
▁नौ	-9.26936
ूं	-9.27039
▁मनोज	-9.27088
▁दूसरा	-9.27093
▁न्याय	-9.27144
बू	-9.27166
▁प्राथमिक	-9.27197
▁न्यू	-9.27221
▁ठाकुर	-9.2725
▁सहायक	-9.27251
तु	-9.27321
▁अतिरिक्त	-9.27373
▁मेरा	-9.27506
▁दम	-9.27513
▁35	-9.27551
ढ	-9.27704
▁गोल	-9.27854
▁सुविधा	-9.27906
▁मोहम्मद	-9.27987
▁हाईकोर्ट	-9.27987
▁हटा	-9.28221
स्ट्र	-9.28353
▁करवाया	-9.28398
▁खड़े	-9.28413
▁कार्यकर्ता	-9.2844
▁लॉ	-9.28448
▁अज्ञात	-9.28481
▁सुधार	-9.28542
▁याद	-9.2857
पूर्ण	-9.28594
▁इलाकों	-9.28605
▁छा	-9.28698
▁मी	-9.28699
ंभ	-9.287
▁चले	-9.28736
▁डाय	-9.2875
▁संचालन	-9.28853
▁हाउस	-9.28978
▁ति	-9.28995
▁साहू	-9.29059
दे	-9.291
▁भाव	-9.29122
▁अंजाम	-9.29228
▁सीरीज	-9.2923
▁किशोर	-9.29355
▁मंत्रालय	-9.29356
▁एक्ट	-9.2937
ैर	-9.2937
▁तस्वीर	-9.29395
▁देंगे	-9.2941
▁रु	-9.29427
▁पार्षद	-9.29477
▁मोह	-9.29499
▁बदमाशों	-9.29547
▁K	-9.29638
▁अनिल	-9.29708
▁सुनील	-9.29735
▁पीड़िता	-9.29834
▁मिलते	-9.29858
▁गिरफ्तारी	-9.29965
N	-9.29973
▁सिस्टम	-9.29979
▁उदयपुर	-9.30013
ीकरण	-9.30113
▁मामलों	-9.3023
▁कोतवाली	-9.30356
▁बैठे	-9.30366
द्	-9.30443
्फ	-9.30444
न्ना	-9.30456
▁किलोमीटर	-9.30482
▁बच्ची	-9.30483
▁जिसकी	-9.30538
▁सत्र	-9.30554
▁जैसी	-9.3056
▁भि	-9.30566
वाड़	-9.30586
▁अच्छी	-9.3061
▁स्टार	-9.30762
▁एयर	-9.31117
▁नीति	-9.3117
▁पर्व	-9.3119
▁कू	-9.31256
▁सोच	-9.31369
▁उठ	-9.31487
▁प्रोजेक्ट	-9.31498
▁एक्ट्रेस	-9.31498
▁भूमि	-9.31791
एच	-9.32015
▁जंगल	-9.32022
▁पहन	-9.32085
▁रक्षा	-9.3213
िक्स	-9.32132
▁फसल	-9.32146
सि	-9.32278
▁चुन	-9.32474
▁G	-9.32515
▁पेट्रोल	-9.32525
▁पश्चिम	-9.32528
▁बैठ	-9.3263
▁आंदोलन	-9.32654
▁युवाओं	-9.3275
वां	-9.32802
▁अच्छा	-9.33044
▁गृह	-9.33108
▁मगर	-9.33154
▁प्रताप	-9.33174
▁कड़ी	-9.33184
▁पल	-9.33228
▁दिशा	-9.33262
▁कला	-9.33288
▁देशों	-9.33385
▁हनुमान	-9.33431
▁अधिकार	-9.33715
▁सोने	-9.33745
on	-9.33822
▁परेशानी	-9.34042
25	-9.34042
ब्र	-9.34048
▁नीतीश	-9.34084
▁बिल	-9.34198
▁स्पेशल	-9.34215
▁पढ़	-9.34431
▁फ्ल	-9.34494
▁देखकर	-9.34513
▁घुस	-9.34545
▁मौका	-9.34671
▁मरीज	-9.34701
▁अलर्ट	-9.34756
▁केजरीवाल	-9.34873
▁2022	-9.34889
र्व	-9.34893
्टर	-9.35106
▁बेच	-9.3514
▁निवेश	-9.35253
्ति	-9.35397
डे	-9.35513
▁मुश्किल	-9.35535
▁नियम	-9.35613
▁आयुक्त	-9.3565
▁चीज	-9.3592
वीर	-9.35966
लैंड	-9.36028
▁डो	-9.36092
▁नामांकन	-9.36202
▁मीणा	-9.36215
ल्ड	-9.36223
▁पकड़ा	-9.36283
▁पेड़	-9.36312
▁शिविर	-9.3639
▁शासन	-9.36475
ॉट	-9.36494
▁सत्ता	-9.36503
▁मुस्लिम	-9.36604
▁वर्तमान	-9.36604
▁तिवारी	-9.36604
▁न्यायालय	-9.36748
टो	-9.36821
▁अधिकतम	-9.36878
काल	-9.37023
▁साइबर	-9.37143
▁सेक्टर	-9.3715
at	-9.37163
▁इधर	-9.37172
▁एड	-9.37329
F	-9.37564
▁पढ़ाई	-9.37603
▁बदमाश	-9.37608
▁सत	-9.37625
▁यात्रियों	-9.37685
▁चै	-9.37693
▁कैंप	-9.3774
ण्ड	-9.37743
लेट	-9.37779
▁डॉक्टरों	-9.37797
न्ह	-9.37828
▁दि	-9.37887
▁गुजरात	-9.37961
व्य	-9.3809
▁कब्जे	-9.38093
▁मनाया	-9.38118
कारी	-9.38119
▁रैली	-9.38169
-1	-9.38261
▁संचालक	-9.38366
▁ऑटो	-9.38395
▁निकाला	-9.38417
▁मुकेश	-9.38504
▁उसमें	-9.38639
▁हमेशा	-9.38779
िकल	-9.38782
▁ठंड	-9.38857
▁आवाज	-9.38995
▁प्लान	-9.39052
▁सुरक्षित	-9.39189
्रे	-9.39212
स्प	-9.39229
▁महिलाएं	-9.39247
▁स्पष्ट	-9.3935
एक	-9.39592
▁गणेश	-9.39829
▁दवा	-9.39994
नो	-9.40004
▁बचा	-9.4019
24	-9.40266
▁पूछा	-9.40423
साथ	-9.4045
▁देता	-9.40586
ष्ठ	-9.40685
▁60	-9.40691
वासियों	-9.40694
▁संविधान	-9.40717
▁सम्मानित	-9.40741
▁बढ़ाने	-9.40858
▁स्कूलों	-9.40863
▁व्रत	-9.40864
▁मत	-9.40872
▁आकर	-9.40879
▁चयन	-9.40912
▁जिम्मेदारी	-9.40936
▁घट	-9.4095
▁तीसरे	-9.40998
▁यूनिवर्सिटी	-9.40998
▁मनीष	-9.41007
▁एक्टर	-9.41016
▁पेपर	-9.41031
देश	-9.41039
▁योगी	-9.41123
▁चिकित्सा	-9.41138
▁मरीजों	-9.41236
▁हु	-9.41251
▁पोस्टमार्टम	-9.41279
▁संबोधित	-9.41279
▁लि	-9.41434
▁चलने	-9.41458
▁कमरे	-9.41547
▁निभा	-9.41558
▁सप्ताह	-9.4156
▁खुलासा	-9.41561
▁किनारे	-9.41567
▁चली	-9.4157
▁एयरपोर्ट	-9.41708
ंडी	-9.42171
च्च	-9.42212
▁पारी	-9.42395
▁युद्ध	-9.42553
▁सामाजिक	-9.42553
▁अहम	-9.42596
▁विवाह	-9.42628
▁घरों	-9.42695
▁वर्ल्ड	-9.42696
▁हादसा	-9.42696
▁उनको	-9.42764
ालय	-9.42897
▁नागरिक	-9.42936
डीए	-9.42941
▁गईं	-9.42962
▁सख्त	-9.42982
▁मंडी	-9.43016
िज	-9.43091
ैया	-9.43104
▁संपर्क	-9.43125
▁पार्क	-9.43268
▁मशीन	-9.43271
▁ईरान	-9.43295
▁पॉ	-9.4333
▁रहेंगे	-9.43364
पीएस	-9.43429
▁युवकों	-9.43456
▁उद्देश्य	-9.43556
▁स्टूडेंट्स	-9.43602
▁शिक्षकों	-9.43605
िनी	-9.43708
▁विधि	-9.43759
sh	-9.43771
िड	-9.43785
▁संपत्ति	-9.43845
▁लिस्ट	-9.43934
ंडे	-9.43939
घर	-9.44002
▁प्रबंधन	-9.44015
▁आउट	-9.44081
▁रखे	-9.44085
▁खाली	-9.44105
च्छ	-9.44131
▁नर	-9.44178
▁लाया	-9.44241
ठी	-9.44247
मार	-9.44318
▁पहुंचकर	-9.4456
▁बेहद	-9.4457
▁उपचार	-9.44635
▁पाई	-9.4466
▁नारायण	-9.44673
▁जाति	-9.44678
▁खुश	-9.44746
▁अधीक्षक	-9.45007
▁लक्ष्य	-9.45007
त्	-9.45092
षा	-9.45469
वाड़ा	-9.45565
▁पुरुष	-9.45593
▁वित्त	-9.45664
▁सालों	-9.45811
कू	-9.45938
▁आठ	-9.45947
▁समुदाय	-9.46035
▁लंबे	-9.46035
ॉय	-9.4604
▁सपा	-9.46406
▁कौर	-9.4645
▁पशु	-9.46595
▁राजा	-9.46614
▁न्यूनतम	-9.46627
▁बाकी	-9.46836
▁प्रखंड	-9.46843
▁रज	-9.46985
यो	-9.46987
▁45	-9.47003
▁मौ	-9.47004
प्रीत	-9.47065
▁ब्लॉक	-9.47073
▁चुनावी	-9.47285
▁तिथि	-9.47289
▁सूत्र	-9.47371
▁बुला	-9.47417
▁जिसका	-9.47505
▁धार्मिक	-9.47522
▁जोर	-9.47552
ची	-9.47648
▁कार्यों	-9.47719
डो	-9.47842
12	-9.47964
j	-9.47972
▁बुजुर्ग	-9.47972
▁आदमी	-9.47973
▁सड़कों	-9.48025
▁पैसा	-9.4811
्‍य	-9.48244
िंदर	-9.4827
▁सफलता	-9.48294
▁टा	-9.48468
▁समाधान	-9.4858
▁मुख्यालय	-9.48613
क्का	-9.48675
क़	-9.48685
▁चौहान	-9.48728
▁शरीर	-9.48732
▁रेप	-9.48778
▁घेर	-9.48841
▁प्रतिनिधि	-9.49026
▁टो	-9.49054
▁किलो	-9.4907
▁आस	-9.49117
▁राकेश	-9.49184
प्प	-9.49246
▁मिलेगी	-9.49358
करण	-9.49371
▁बताई	-9.49413
▁सीजन	-9.49467
▁निर्वाचन	-9.49488
वेद	-9.49525
nd	-9.49553
जो	-9.49582
▁आसान	-9.49611
▁चौकी	-9.49649
ha	-9.49703
द्र	-9.49731
▁पड़े	-9.49741
▁आता	-9.49796
H	-9.49845
▁कप्तान	-9.49949
▁प्ले	-9.49992
दु	-9.50024
▁एजेंसी	-9.50101
▁दाखिल	-9.50101
▁चिंता	-9.50103
▁आखिरी	-9.50115
▁आंकड़	-9.50119
बंध	-9.50139
▁पूजन	-9.5029
▁ढा	-9.50356
▁सफल	-9.504
मू	-9.50404
▁इमेज	-9.5041
▁पड़ी	-9.50439
▁संदीप	-9.50466
▁रवाना	-9.50565
▁गुजर	-9.50616
▁फाइनल	-9.50719
पास	-9.50758
▁चे	-9.50764
▁मारने	-9.50806
▁रूस	-9.50857
▁सुनिश्चित	-9.50873
▁कुमारी	-9.50983
यु	-9.51007
हे	-9.51022
▁बीए	-9.51034
▁पोल	-9.51053
▁भु	-9.51097
ावत	-9.51158
▁प्राइवेट	-9.51183
▁पहल	-9.51227
▁परिणाम	-9.51339
▁स्टाफ	-9.51349
▁अर	-9.51612
▁पहुंचने	-9.5163
▁इंतजार	-9.51651
▁लाने	-9.51756
▁तेल	-9.51916
▁कमिश्नर	-9.51963
▁मानसून	-9.51964
▁उद्योग	-9.51966
ट्ट	-9.52048
▁धर	-9.52059
पेट	-9.52153
▁आवश्यक	-9.52259
▁कैप्शन	-9.52277
▁टॉप	-9.52279
▁मार्केट	-9.52293
▁फीट	-9.52295
▁फूल	-9.52424
▁वकील	-9.52439
खंड	-9.52443
▁कहानी	-9.52528
▁सुपर	-9.52561
▁खिलाड़ी	-9.52609
गांव	-9.52663
बीर	-9.52788
▁लॉन्च	-9.52908
▁तर	-9.52911
▁रै	-9.52944
▁पंच	-9.52999
▁स्थापित	-9.53066
झा	-9.53116
▁पूर्ण	-9.53201
▁अरविंद	-9.53256
▁राजधानी	-9.53383
▁छोड़कर	-9.53401
▁संग	-9.53484
f	-9.53542
ियम	-9.53611
▁इतिहास	-9.53701
▁शपथ	-9.53702
दू	-9.5382
▁दौर	-9.53872
श्व	-9.53925
▁जू	-9.54048
▁साह	-9.54079
क्शन	-9.54146
गन	-9.54167
▁परियोजना	-9.5418
▁विद्यार्थियों	-9.5418
▁प्रथम	-9.54343
▁फायदा	-9.54501
▁पू	-9.54562
ानंद	-9.54587
▁दबाव	-9.54663
▁शंकर	-9.5471
▁माहौल	-9.54823
▁सूची	-9.54839
▁रोकने	-9.54938
▁मिलता	-9.54955
▁ऑपरेशन	-9.54984
▁ट्रैफिक	-9.54984
▁संतोष	-9.54984
▁पसंद	-9.54986
स्व	-9.55077
or	-9.551
ार्थ	-9.55108
▁निदेशक	-9.55146
कृत	-9.55288
▁बुलाया	-9.55383
▁अमेरिकी	-9.5547
▁डिप्टी	-9.5547
▁रफ्तार	-9.5547
ष्	-9.55553
▁प्यार	-9.55642
40	-9.55868
हल	-9.55934
▁सहायता	-9.55958
▁नोट	-9.55963
▁बाग	-9.56036
दो	-9.56102
नू	-9.56147
वंत	-9.56173
▁प्रशिक्षण	-9.56284
▁हिरासत	-9.56284
▁पालन	-9.56284
▁उक्त	-9.56285
▁पीट	-9.56362
▁प्रस्तुत	-9.56416
▁खर	-9.56494
▁कमल	-9.56531
▁ज्योति	-9.56612
▁अनुमति	-9.56612
▁टैक्स	-9.56627
▁जुड़ी	-9.56674
▁सोनी	-9.56741
▁रूम	-9.56824
▁दान	-9.56948
हम	-9.56965
▁कंपनियों	-9.57105
▁स्थानों	-9.57105
▁कक्षा	-9.5711
▁ड्यूटी	-9.5727
ाराम	-9.57307
▁H	-9.57381
वाद	-9.57397
▁फ्र	-9.57443
ैल	-9.57483
▁तत्काल	-9.57579
▁बचाने	-9.57612
ay	-9.57659
▁वार	-9.57674
▁मूल	-9.57737
▁सैनी	-9.57782
दास	-9.57919
▁धार	-9.5793
▁रेड	-9.57955
▁डीएम	-9.58071
▁रोजगार	-9.58104
▁जमानत	-9.58108
U	-9.58177
▁चु	-9.58217
▁जानते	-9.58276
▁दस	-9.5835
▁क्षमता	-9.58366
▁BJP	-9.58433
▁सीनियर	-9.58433
रियल	-9.58461
▁70	-9.58535
▁गोपाल	-9.58597
▁संभाल	-9.58611
▁त्रि	-9.58637
कर्ता	-9.58684
▁बाढ़	-9.5871
▁छत	-9.58716
सो	-9.58812
▁सेल्सियस	-9.58935
▁समूह	-9.58936
▁जला	-9.5905
युक्त	-9.59058
▁मध्यप्रदेश	-9.59103
जल	-9.59133
▁80	-9.59393
▁वही	-9.5944
▁एसोसिएशन	-9.5944
▁जम्मू	-9.5944
▁2024:	-9.59501
▁किमी	-9.59536
▁पोस्टमॉर्टम	-9.59609
▁मुकदमा	-9.59609
▁मुकाबले	-9.59609
▁रेफर	-9.59612
▁डूब	-9.59616
▁दास	-9.59621
▁हेड	-9.59762
▁समाप्त	-9.59955
▁हरि	-9.59996
▁गौरव	-9.60087
▁डायरेक्टर	-9.60118
▁ज्ञान	-9.60118
▁फायर	-9.6012
▁तारीख	-9.60123
▁महत्व	-9.60126
▁कारोबार	-9.60147
त्री	-9.60247
▁ग्वालियर	-9.60288
▁फैसले	-9.60288
▁भरा	-9.60402
▁दस्तावेज	-9.60458
▁विस्तार	-9.60458
यन	-9.60615
▁अंत	-9.60698
▁राष्ट्र	-9.60747
▁ज्ञापन	-9.608
▁बॉलीवुड	-9.608
▁जताई	-9.60803
▁L	-9.60827
▁बूथ	-9.60833
स्टर	-9.60947
▁ग्रे	-9.61207
स्म	-9.61255
ौली	-9.6128
▁फायरिंग	-9.6143
▁आरक्षण	-9.61487
▁रखते	-9.61569
▁निर्धारित	-9.61659
▁सत्य	-9.61769
ृत	-9.6182
▁गरीब	-9.62018
दि	-9.62076
▁संचालित	-9.62178
-2	-9.62364
▁धान	-9.62445
▁निकले	-9.62445
▁घूम	-9.62529
▁तार	-9.62535
▁जोन	-9.62545
ॉर्	-9.62712
▁करवाई	-9.62724
▁आरती	-9.6275
.4	-9.62756
▁रॉ	-9.62787
▁F	-9.62855
▁सप्लाई	-9.62874
▁V	-9.62947
▁राव	-9.63003
▁J	-9.63046
▁गिरावट	-9.6305
▁सर्वे	-9.63269
▁कहां	-9.63341
▁समझा	-9.63396
▁सोना	-9.63399
स्थल	-9.63408
पू	-9.6341
▁सरपंच	-9.63576
▁राजीव	-9.63583
▁धो	-9.63673
ड़िया	-9.637
▁अर्	-9.63723
▁वास	-9.63774
▁फेंक	-9.63786
मंडल	-9.63898
▁मॉडल	-9.63929
टू	-9.6405
▁लापरवाही	-9.64104
▁दुर्गा	-9.64219
▁चुनावों	-9.64245
,000	-9.64259
▁प्रत्येक	-9.64281
▁स्टेट	-9.64349
▁32	-9.64448
▁श्याम	-9.64465
▁स्टोर	-9.64569
िशन	-9.64586
▁खिलाड़ियों	-9.64636
▁सक्रिय	-9.64814
▁केन्द्र	-9.64822
▁बेस	-9.64922
▁प्रदीप	-9.65107
▁आगामी	-9.65173
▁पावर	-9.65192
वाला	-9.65246
▁शिकार	-9.65329
▁भो	-9.65329
▁पुराने	-9.65353
▁खड़ा	-9.65477
hi	-9.65495
▁पैदा	-9.65499
.30	-9.65502
▁दैनिक	-9.65529
▁ट्रैक्टर	-9.65537
▁2021	-9.65562
▁संसद	-9.65672
जू	-9.6571
▁साबित	-9.6571
▁जिन्होंने	-9.65718
▁डॉलर	-9.65727
▁करियर	-9.65758
▁इंटर	-9.65855
▁ठगी	-9.65895
▁रच	-9.65897
भी	-9.65997
▁उम्मीदवारों	-9.66028
▁क्लास	-9.66069
▁खाते	-9.66093
▁कथा	-9.66098
▁पड़ता	-9.66186
▁रमेश	-9.6625
ल्स	-9.66255
▁उठाया	-9.66293
▁श्र	-9.6634
▁उपाध्यक्ष	-9.6643
▁सोन	-9.66474
▁अनुमान	-9.66512
▁खंड	-9.66542
▁प्रतिमा	-9.66553
▁अकाउंट	-9.66611
▁कोलकाता	-9.66611
▁मृत	-9.66671
V	-9.66717
▁प्रेस	-9.66727
▁करनी	-9.66773
▁उत्	-9.6679
▁इंडस्ट्री	-9.66793
▁विश्वास	-9.66846
▁रू	-9.66868
▁नील	-9.66915
▁तीसरी	-9.66975
▁दौड़	-9.6698
▁हमारा	-9.66984
क्की	-9.66984
▁वितरण	-9.67158
▁संदेश	-9.67211
▁करवाने	-9.67281
▁विशाल	-9.67341
▁नशे	-9.67352
▁मच	-9.6738
▁छठ	-9.6746
▁सलमान	-9.67524
▁धु	-9.67558
ंश	-9.67684
▁क्लब	-9.67706
▁पूछ	-9.67754
▁चुनौती	-9.67889
चित	-9.67982
▁क्रम	-9.67983
योग	-9.68094
▁फि	-9.68173
्यो	-9.68181
11	-9.68254
▁स्टैंड	-9.68257
▁गार्ड	-9.68312
▁डीसी	-9.68435
प्त	-9.68551
▁मुद्दे	-9.68626
▁यूनिट	-9.68628
कांत	-9.68654
ाएंगे	-9.68725
▁तालाब	-9.68731
es	-9.68846
▁चाहता	-9.68938
▁इंटरव्यू	-9.68997
▁हालात	-9.69002
वंश	-9.69044
▁जस	-9.69095
▁हाईवे	-9.69221
▁2025	-9.6925
ात्मक	-9.69284
▁छापेमारी	-9.69369
▁सुर	-9.69491
▁संघर्ष	-9.69555
▁पहाड़	-9.69569
▁33	-9.69586
▁लु	-9.69635
▁इसको	-9.69684
▁विमान	-9.69745
▁आपकी	-9.69804
▁रद्द	-9.69976
▁टोल	-9.69994
▁आजाद	-9.70035
▁प्रमाण	-9.70118
▁सलाह	-9.70121
▁आती	-9.70244
▁पलट	-9.70264
▁एफआईआर	-9.70305
▁अनुभव	-9.70306
▁समीक्षा	-9.70321
▁कर्मियों	-9.70386
30	-9.70431
कुल	-9.70438
चंद	-9.70453
▁भुगतान	-9.70494
▁शहीद	-9.70494
▁वीर	-9.70592
▁हे	-9.70603
▁बढ़ने	-9.70613
▁चंडीगढ़	-9.70682
▁निर्	-9.7069
भाव	-9.70694
▁टू	-9.70755
▁स्वा	-9.70811
▁दायर	-9.70839
r	-9.70864
▁योजनाओं	-9.70994
▁पत्रकार	-9.71014
▁गेंद	-9.71031
्यु	-9.71138
▁लाइट	-9.71171
▁निशाना	-9.71187
▁वोटिंग	-9.71208
ur	-9.71325
▁संदिग्ध	-9.71441
▁सम्मेलन	-9.71441
▁फुटेज	-9.71453
▁गौ	-9.71531
▁साउथ	-9.71631
it	-9.71647
ग्रह	-9.71669
▁जवान	-9.71678
▁रोज	-9.71695
▁सकेंगे	-9.71833
▁पुरानी	-9.72015
▁अरब	-9.72074
▁नवीन	-9.72095
▁हिंसा	-9.72177
▁दुर्घटना	-9.72204
▁इंटरनेशनल	-9.72205
▁मूर्ति	-9.72205
▁राजस्व	-9.72254
▁मानव	-9.72285
▁भीतर	-9.72287
am	-9.723
▁फैंस	-9.72397
▁सां	-9.7252
ri	-9.72589
▁जोधपुर	-9.7259
!	-9.72781
▁स्थापना	-9.72781
▁घायलों	-9.72808
▁दूरी	-9.72816
▁पेट	-9.72925
▁समर्थक	-9.72975
▁भीषण	-9.72977
▁CM	-9.73036
▁खड़ी	-9.73053
▁अच्छे	-9.73169
▁एसडीएम	-9.73362
▁फिल्मों	-9.73373
▁विशेषज्ञ	-9.73398
▁मू	-9.73412
▁लक्ष्मी	-9.7343
▁घंट	-9.73501
▁l	-9.73636
▁ऑस्ट्रेलिया	-9.7375
द्द	-9.73857
पूर्व	-9.73898
▁चलाया	-9.73946
हत	-9.73954
▁वृद्धि	-9.73986
वाया	-9.74099
:30	-9.74104
▁मांगी	-9.74147
▁तु	-9.74159
▁चू	-9.74172
▁नियुक्त	-9.74178
▁कलाकार	-9.74204
▁500	-9.74247
▁फल	-9.74277
पिता	-9.7434
▁अंतरराष्ट्रीय	-9.7434
▁सर्विस	-9.74378
▁यात्री	-9.74406
धर	-9.74416
as	-9.7442
▁खाना	-9.74491
▁दाम	-9.74582
▁कार्यकाल	-9.74591
▁नाराज	-9.74697
▁कानपुर	-9.74812
▁विज्ञान	-9.74926
▁स्वीकार	-9.74927
श्त	-9.74992
चल	-9.75032
▁जरूर	-9.75053
▁वाराणसी	-9.75123
▁गठन	-9.75125
▁जै	-9.75151
ूंगा	-9.7526
▁रेट	-9.75294
▁खूब	-9.75323
▁हटाने	-9.75375
▁खाने	-9.75398
▁मॉ	-9.75414
▁टाइम	-9.75485
ैक्ट	-9.75605
K	-9.75659
▁तहसील	-9.7569
▁स्वामी	-9.75694
▁गैंग	-9.75711
▁पवन	-9.75741
▁डेढ़	-9.75772
en	-9.7589
▁धाम	-9.75902
▁उद्घाटन	-9.75916
▁नियुक्ति	-9.75941
▁निशान	-9.76045
▁स्टेडियम	-9.76115
▁कैमरे	-9.76116
▁बीमार	-9.76145
बो	-9.76164
▁एप	-9.76181
▁विकसित	-9.76315
▁दुकानदार	-9.76429
▁प्राण	-9.76471
▁अतिक्रमण	-9.76515
▁पुष्प	-9.76515
▁आंख	-9.76519
▁दर्जन	-9.76603
र्ण	-9.76611
▁राजेंद्र	-9.76653
▁तल	-9.76659
19	-9.76701
▁सोरेन	-9.76716
▁दोबारा	-9.76717
▁लेना	-9.7673
▁टेक	-9.76734
▁आत्म	-9.76751
▁पाली	-9.76803
▁आखिर	-9.76899
▁महंग	-9.76906
▁लड़ाई	-9.76906
▁मीटिंग	-9.76916
th	-9.76926
▁भजन	-9.76937
▁श्रद्धालुओं	-9.76963
▁बढ़ावा	-9.76963
▁चाहती	-9.76982
▁अध्यक्षता	-9.77018
▁शानदार	-9.77118
▁सूरज	-9.7712
शंकर	-9.77146
लाइन	-9.77242
▁नहर	-9.77243
▁एरिया	-9.77341
▁खुशी	-9.77466
▁आशंका	-9.77521
▁संभव	-9.77526
▁विवेक	-9.7753
▁O	-9.77554
▁मंगल	-9.77577
▁कश्मीर	-9.77678
▁News	-9.77723
▁पुरस्कार	-9.77723
▁महोत्सव	-9.77738
▁संगीत	-9.78083
▁पंडित	-9.78131
▁डाला	-9.78136
▁समा	-9.78156
▁2014	-9.78164
▁गैर	-9.78188
▁जिन्हें	-9.78333
▁रांची	-9.78334
▁इंस्पेक्टर	-9.78537
▁यश	-9.78544
▁आतंक	-9.78733
▁90	-9.78753
▁सुरेश	-9.78768
▁गोल्ड	-9.7882
▁तस्कर	-9.78946
ti	-9.79164
▁दिनेश	-9.79206
▁दर्द	-9.79504
हु	-9.79532
▁असम	-9.79552
भूषण	-9.79578
▁महीन	-9.79673
▁विष्णु	-9.7977
▁मिशन	-9.79771
▁अरुण	-9.79771
▁सुंदर	-9.79775
▁एक्शन	-9.79828
▁राजकुमार	-9.80019
्मा	-9.8004
▁रहीं	-9.80043
99	-9.80094
▁समस्याओं	-9.80172
▁कैबिनेट	-9.80185
▁संजीव	-9.80186
▁हित	-9.80293
▁वर्क	-9.80342
▁संस्कार	-9.80393
▁सार्वजनिक	-9.80393
▁लड़के	-9.80403
▁कैद	-9.80474
▁जानिए	-9.805
▁रोशन	-9.80546
▁प्रवक्ता	-9.80601
▁गौतम	-9.80602
▁नियमों	-9.80739
13	-9.80776
▁होनी	-9.80786
▁गिरा	-9.80805
▁प्रोफेसर	-9.8081
▁प्रारंभ	-9.8081
▁अपराधियों	-9.80851
कुमार	-9.80954
▁पदों	-9.80991
▁सिन्हा	-9.81019
▁चढ़	-9.81045
▁मिलती	-9.81083
▁अखिलेश	-9.81238
▁अफसरों	-9.81392
▁वेतन	-9.81453
▁प्रतिष्ठा	-9.81604
▁जगहों	-9.8161
▁सका	-9.81628
▁सिम	-9.81649
▁उत्साह	-9.81649
▁एफ	-9.81652
पोर्ट	-9.81688
▁ट्रैक	-9.81716
▁धरना	-9.81729
मंत्र	-9.81748
▁बैग	-9.81759
▁पहुंचाया	-9.81773
शिप	-9.81823
▁गैस	-9.81844
▁बल्लेबाज	-9.8186
▁आबादी	-9.8186
▁सिख	-9.8187
▁शहरों	-9.82043
▁आपका	-9.82132
दाय	-9.82232
▁36	-9.82262
▁छु	-9.82281
▁साहिब	-9.82284
▁अपर	-9.8229
▁भव्य	-9.8235
▁चेतावनी	-9.82496
▁विनोद	-9.82496
▁पंकज	-9.825
▁चलाने	-9.82521
▁शक	-9.82525
▁48	-9.82526
ुरी	-9.82553
▁मौजूदा	-9.82576
▁हल्की	-9.82709
▁ब्ल	-9.82887
▁कर्नाटक	-9.82922
▁कमजोर	-9.82924
▁टीचर	-9.83032
▁महेंद्र	-9.83217
▁37	-9.83306
▁पर्यावरण	-9.8335
▁लुधियाना	-9.8335
▁बिगड़	-9.83445
▁रस	-9.83485
▁बम	-9.83559
▁अंडर	-9.83574
ad	-9.83578
▁बातें	-9.83589
▁बॉल	-9.83681
▁निगरानी	-9.83779
▁सांस्कृतिक	-9.83779
▁एंट्री	-9.83779
▁छोटी	-9.8378
▁पेंशन	-9.8378
▁व्यक्त	-9.83888
▁सुना	-9.83955
▁उपचुनाव	-9.83995
▁ऊर्जा	-9.83995
▁ट्रांसफर	-9.83995
▁दिवसीय	-9.84092
ट्टा	-9.84187
▁टै	-9.8421
▁ट्रंप	-9.84271
▁आयु	-9.84316
▁मैन	-9.84393
ro	-9.84399
▁गोविंद	-9.84429
▁चाकू	-9.84447
▁सिद्ध	-9.84483
▁छूट	-9.84649
▁आदिवासी	-9.84664
▁भाषा	-9.84674
▁योगदान	-9.84674
▁चांदी	-9.84693
▁विदेशी	-9.84701
▁दलों	-9.84748
▁2020	-9.84789
▁आकाश	-9.84864
▁इसराइल	-9.84865
▁गतिविधियों	-9.84873
▁एक्टिव	-9.84894
▁रानी	-9.84965
▁रास्ता	-9.85081
▁भावना	-9.85333
▁कपड़े	-9.85348
▁पश्चिमी	-9.85378
ेक्शन	-9.85637
श्री	-9.85714
▁बधाई	-9.85737
▁ससुराल	-9.85743
बु	-9.85757
▁गर्म	-9.85775
▁चारों	-9.85799
▁रोल	-9.85897
▁आवश्यकता	-9.85981
ज़ा	-9.8603
▁प्रयोग	-9.8604
▁निकाली	-9.86043
ियत	-9.86101
सूस	-9.86125
▁फॉर्म	-9.8613
▁सुभाष	-9.86176
▁पाठ	-9.86183
▁जज	-9.86219
▁गायब	-9.8631
▁टकरा	-9.86344
▁भक्त	-9.86579
▁मुक्त	-9.86589
▁झूठ	-9.86621
▁समान	-9.86706
▁एच	-9.86761
पत्र	-9.86829
▁इन्हें	-9.8684
▁आचार्य	-9.86841
▁बिक्री	-9.86841
ाचार्य	-9.86841
re	-9.86845
70	-9.86948
▁नजदीक	-9.87062
▁पत्थर	-9.87062
▁सारे	-9.87195
▁ऊ	-9.87219
▁34	-9.8722
▁भक्तों	-9.87239
▁उत्सव	-9.87283
▁मेहनत	-9.87285
▁एनडीए	-9.87326
▁अफसर	-9.87335
▁खु	-9.87335
▁कंट्रोल	-9.87508
▁मस्जिद	-9.87508
▁हंगामा	-9.87508
▁मानसिक	-9.87733
▁सैनिक	-9.87734
▁खाद्य	-9.87784
▁नंद	-9.87835
▁पांडे	-9.87947
▁क्राइम	-9.87956
▁फैक्ट्री	-9.87956
▁संकल्प	-9.87956
▁गेंदबाज	-9.88007
▁बचाव	-9.88047
st	-9.88313
ाधि	-9.88318
▁स्तरीय	-9.88336
▁PM	-9.88477
▁उड़	-9.88549
▁देती	-9.8861
▁सुसाइड	-9.88632
▁बैठा	-9.88676
▁खरीदा	-9.88703
▁हॉ	-9.88807
▁ऐ	-9.88839
▁हिस्से	-9.88857
▁कौशल	-9.89084
▁संस्कृति	-9.89125
नायक	-9.89216
▁निकला	-9.89272
▁परिवहन	-9.89312
▁साढ़े	-9.89312
धान	-9.89343
▁बोला	-9.89458
▁खून	-9.89551
▁लगाते	-9.89631
▁गीत	-9.89635
▁दुर्ग	-9.89643
▁पीठ	-9.89661
मिन	-9.89681
▁श्रीवास्तव	-9.89768
▁कुर्	-9.89786
विंदर	-9.89805
▁मंत्र	-9.89891
▁बॉक्स	-9.89997
ंद्र	-9.89997
▁संभाग	-9.89998
▁बोर	-9.90066
▁जीतने	-9.90163
▁छीन	-9.90196
▁सुनाई	-9.90228
▁आएंगे	-9.90373
वाने	-9.90375
▁धा	-9.90393
▁वित्तीय	-9.9052
▁जिम्मेदार	-9.90556
▁व्यापारी	-9.90566
▁धीरे	-9.90746
▁फ्री	-9.90818
▁श्रीराम	-9.90859
▁लेख	-9.90881
त्व	-9.90903
▁उज्जैन	-9.90917
▁अग्नि	-9.91149
▁कहती	-9.91235
गार	-9.91364
▁कब्जा	-9.91381
ेलू	-9.91419
▁वर्षा	-9.91426
▁कराए	-9.91491
▁इंडियन	-9.91613
▁परंपरा	-9.91615
▁अधिनियम	-9.91846
▁बाबू	-9.91926
▁किरदार	-9.91972
▁खुले	-9.9206
▁प्रिंसिपल	-9.9208
▁वेबसाइट	-9.9208
▁सीधे	-9.92083
▁U	-9.92124
▁75	-9.92219
▁गति	-9.9222
▁चेयरमैन	-9.92314
▁मधु	-9.92321
वेल	-9.9236
▁लागत	-9.92391
▁कमाई	-9.92511
▁प्रियंका	-9.92549
▁टाटा	-9.92608
▁ईडी	-9.92644
▁अगल	-9.92644
▁अक्स	-9.92687
▁जितन	-9.92692
▁भ्रष्टाचार	-9.92784
▁बिजनेस	-9.9302
▁मजबूर	-9.9302
▁व्यापार	-9.9305
▁ठग	-9.93119
▁एडी	-9.93236
▁काबू	-9.93249
▁मुकाबला	-9.93257
▁दिखाया	-9.93315
▁सच	-9.9335
▁पकड़े	-9.93472
▁डीएसपी	-9.93494
▁हवाई	-9.93628
▁फीस	-9.93731
▁हिंदी	-9.93733
▁एं	-9.93783
▁मान्यता	-9.93884
▁दूध	-9.93971
▁जिनक	-9.93983
▁कोहली	-9.94023
▁पांडेय	-9.9406
▁पासवान	-9.94196
▁संरक्षण	-9.94208
▁हिसाब	-9.94208
▁आपस	-9.94276
▁पारा	-9.94385
▁अर्जुन	-9.94447
▁आश्वासन	-9.94447
▁ठेकेदार	-9.94447
▁अपडेट	-9.94447
▁डिजाइन	-9.94447
एंगे	-9.94488
60	-9.9455
▁हट	-9.9467
x	-9.94687
▁उत्पाद	-9.9469
▁राज्यपाल	-9.94725
▁कानूनी	-9.94742
▁उचित	-9.94748
▁स्कोर	-9.94753
▁शूटिंग	-9.94768
▁मतदाता	-9.94859
▁श्रेणी	-9.94927
▁अहमद	-9.95093
▁औसत	-9.95169
बाग	-9.95368
▁रणनीति	-9.9541
▁मुद्दों	-9.9541
मैं	-9.95448
▁जैसा	-9.95485
▁लख	-9.95523
▁निरीक्षक	-9.95652
▁कैलाश	-9.95653
▁दोषी	-9.9566
▁वापसी	-9.9567
▁फ्लाइट	-9.9568
▁प्रतिबंध	-9.957
▁भोजन	-9.95702
▁मचा	-9.95708
▁प्लांट	-9.95895
▁संयोजक	-9.95895
▁अवधि	-9.95897
▁पदार्थ	-9.95942
▁जुटी	-9.95978
यिक	-9.9605
▁रूट	-9.96098
▁प्रश्न	-9.96138
▁गज	-9.96192
▁लें	-9.96252
."	-9.96275
▁उड़ान	-9.9636
वादी	-9.96376
▁भंडार	-9.964
▁फॉर	-9.96492
▁नशा	-9.96531
35	-9.96577
▁चिकित्सक	-9.96626
▁यातायात	-9.96626
▁तुलना	-9.9675
▁हाथों	-9.96872
▁असल	-9.96991
▁रुप	-9.97019
▁चीफ	-9.97077
▁मतगणना	-9.97117
▁महासचिव	-9.97117
▁सीबीआई	-9.97117
▁रिश्तेदार	-9.97137
▁खेला	-9.9715
▁वाद	-9.97153
वारा	-9.97181
्लो	-9.97248
▁एमपी	-9.97363
▁हर्ष	-9.97364
▁लंबी	-9.97365
▁ममता	-9.97375
▁दुबे	-9.97397
▁चार्ज	-9.97434
▁लाश	-9.97453
▁बुरी	-9.97459
▁अजमेर	-9.9761
▁मुद्दा	-9.97611
▁गौर	-9.97621
▁दीवार	-9.97805
▁पार्ट	-9.97896
▁आइ	-9.97918
बाजी	-9.97976
एसएस	-9.97983
▁आत्महत्या	-9.98106
▁लिमिटेड	-9.98106
▁हाइ	-9.98185
▁बनकर	-9.98193
▁इनकार	-9.98219
▁महेश	-9.98239
▁तुम	-9.98262
▁प्रतिभा	-9.98275
▁मेडल	-9.98362
▁राउंड	-9.98399
▁ट्रेनिंग	-9.98475
▁गिरने	-9.98498
▁मोर्चा	-9.98584
ऑ	-9.98595
▁जनरल	-9.98612
45	-9.98616
डिया	-9.98654
▁निकलने	-9.98717
▁बांट	-9.98822
▁सम्	-9.98846
▁इस्तीफा	-9.98854
▁शख्स	-9.98855
▁बहु	-9.98858
▁अमन	-9.98872
▁शुक्ला	-9.98914
मैन	-9.98973
▁आगरा	-9.98985
▁जिलाध्यक्ष	-9.99105
▁राज्यसभा	-9.99105
▁दशक	-9.99121
▁निकली	-9.99141
हाल	-9.99248
▁डिजिटल	-9.99356
▁सामग्री	-9.99356
▁ट्रस्ट	-9.99358
▁रोग	-9.99401
▁आशीष	-9.99608
▁ऐलान	-9.99609
▁कथित	-9.99609
22	-9.99675
▁बताए	-9.99717
▁लीक	-9.99756
47	-9.99816
▁साझा	-9.99944
▁बढ़ती	-10.0002
▁मेला	-10.0006
▁त्योहार	-10.0011
घाट	-10.0013
▁हेमंत	-10.0014
▁मेले	-10.0025
▁चित्र	-10.0028
80	-10.0029
ॅ	-10.0037
▁हड़ताल	-10.0037
▁खारिज	-10.0037
▁गोयल	-10.0037
▁चाहे	-10.0039
ुष	-10.004
अर्चना	-10.0044
▁प्राचार्य	-10.0045
▁पक्षों	-10.0046
▁मिस	-10.0053
▁नियमित	-10.0058
▁कॉन्	-10.0058
▁कुलदीप	-10.0068
▁जाएं	-10.0074
▁अमृत	-10.0086
▁जस्टिस	-10.0088
िस्तान	-10.0093
▁बढ़कर	-10.0098
▁लटक	-10.0102
▁ताल	-10.0104
▁नियंत्रण	-10.0113
▁महतो	-10.0113
▁प्रकरण	-10.0126
▁प्रस्तुति	-10.0144
्याप्त	-10.0144
▁प्रशासनिक	-10.0146
▁पड़ेगा	-10.0151
▁शांत	-10.0159
▁रखें	-10.0163
▁शिफ्ट	-10.0165
▁कैंसर	-10.0165
▁बेचने	-10.0168
▁लू	-10.0173
▁फोर	-10.019
▁न्यायाधीश	-10.019
▁छोटा	-10.019
▁लापता	-10.0191
98	-10.0201
▁आर्य	-10.0207
▁400	-10.0219
खेड़ा	-10.0222
▁अर्पित	-10.0228
▁शैल	-10.0229
ोली	-10.0234
यंत्र	-10.024
▁चाह	-10.0241
▁तेजस्वी	-10.0242
ग्राफ	-10.025
▁ओम	-10.0254
21	-10.0257
मिल	-10.0257
▁दौरे	-10.0257
▁कर्मी	-10.0261
▁दिक्कत	-10.0268
▁पाने	-10.0279
▁गुल	-10.0292
J	-10.0295
▁मोटर	-10.0297
▁कटा	-10.0298
▁श्रम	-10.03
▁300	-10.0305
18	-10.0309
▁धूप	-10.032
▁छात्राओं	-10.0328
▁इंद्र	-10.0332
▁बिल्डिंग	-10.0346
▁मतलब	-10.0347
▁जनपद	-10.0347
▁2018	-10.0351
000	-10.0355
▁हफ्ते	-10.0373
▁शब्द	-10.0373
▁राधा	-10.0385
▁लीग	-10.0394
▁गोरखपुर	-10.0399
▁टूर्नामेंट	-10.0399
▁संहिता	-10.0399
▁भरोसा	-10.0399
▁अंज	-10.0401
23	-10.0407
▁रुख	-10.0412
▁खेती	-10.0423
▁आक्रोश	-10.0425
▁टिप्पणी	-10.0425
▁नीरज	-10.0426
▁संकट	-10.0426
▁मतदाताओं	-10.0433
▁पोर्टल	-10.0445
▁पार्किंग	-10.0446
▁विज	-10.045
▁पुष्टि	-10.0452
▁ड्रोन	-10.0452
W	-10.0453
▁बीमारी	-10.0455
वासी	-10.0465
▁पदाधिकारियों	-10.0478
▁एक्सपर्ट	-10.0478
▁साजिश	-10.0478
▁तहसीलदार	-10.0482
ाउंड	-10.0483
▁नागरिकों	-10.0487
▁फाइल	-10.0493
▁ओडिशा	-10.0505
▁लाइसेंस	-10.0505
▁विद्युत	-10.0505
▁विक्रम	-10.0505
▁समापन	-10.0505
▁मैनेजर	-10.0506
▁केरल	-10.0507
▁आर्ट	-10.051
शाली	-10.0526
▁रखना	-10.053
▁जयंती	-10.0532
▁बड़	-10.0538
and	-10.0542
▁सकें	-10.0547
▁मारकर	-10.0552
▁प्रावधान	-10.0558
▁बढ़ोतरी	-10.0558
▁सिनेमा	-10.0559
▁जबलपुर	-10.0559
▁गुना	-10.0567
▁अंकित	-10.0572
▁रेंज	-10.0574
▁आलम	-10.0576
▁चौराहे	-10.0585
▁पब्लिक	-10.0585
▁यूक्रेन	-10.0585
▁मैसेज	-10.0585
▁साय	-10.059
▁हॉल	-10.0595
▁मूल्य	-10.0602
▁एग्जाम	-10.0612
▁जोशी	-10.0616
▁मूवी	-10.0617
▁पौ	-10.0623
▁सौंपा	-10.063
▁गुर्जर	-10.0639
▁कनाडा	-10.0639
ch	-10.0653
▁जुड़	-10.0659
▁उसको	-10.066
▁विद्या	-10.0666
कोट	-10.0666
▁दौरा	-10.0675
▁इंजीनियर	-10.0682
▁विहार	-10.0689
▁नृत्य	-10.0693
▁कार्यवाही	-10.0693
▁फतेह	-10.0693
▁सकी	-10.0699
▁पड़ोसी	-10.0699
▁हिस्सों	-10.072
▁थानाध्यक्ष	-10.072
▁बाघ	-10.0741
▁वैज्ञानिक	-10.0748
▁विराट	-10.0748
▁तनाव	-10.0748
▁छि	-10.0754
▁सिल	-10.0757
▁तकनीकी	-10.0761
▁जागरूकता	-10.0792
▁शुल्क	-10.0802
▁स्मार्ट	-10.0802
▁रिजल्ट	-10.0802
▁बच्चा	-10.0802
वर्धन	-10.0803
▁आपूर्ति	-10.0809
har	-10.0813
▁अंग्रेज	-10.083
▁अभ्यर्थियों	-10.083
▁कंगना	-10.083
li	-10.0837
▁लेंगे	-10.0857
▁नमः	-10.0857
▁अक्षय	-10.0858
▁निधन	-10.0858
▁लड़ने	-10.086
ख़	-10.0871
▁उपभोक्ता	-10.0885
▁रिजर्व	-10.0885
▁बृज	-10.0885
▁ब्रह्म	-10.0885
▁हिसार	-10.0885
500	-10.0887
‍	-10.0889
▁टैंक	-10.0892
14	-10.0908
▁शुभारंभ	-10.0913
▁जिंदगी	-10.0913
▁जताया	-10.0913
▁दोस्तों	-10.0919
75	-10.0934
▁लिखित	-10.0944
स्‍ट	-10.0949
▁कहने	-10.0954
▁क्व	-10.0958
▁स्टे	-10.0959
▁150	-10.0965
▁कॉन्फ्रेंस	-10.0968
▁घटनाओं	-10.0972
▁जिसने	-10.0973
▁42	-10.0985
▁फांसी	-10.0996
▁सदन	-10.0999
▁दुख	-10.1007
▁वैसे	-10.1008
▁डांस	-10.1014
▁जुड़ा	-10.1015
▁आशीर्वाद	-10.1024
▁जुर्माना	-10.1024
▁सफर	-10.1026
▁कारोबारी	-10.1048
▁दलित	-10.1049
मुख	-10.1052
▁शॉ	-10.1075
▁उल्लेख	-10.108
▁ग्राहक	-10.108
▁विजेता	-10.1081
▁तत्कालीन	-10.1084
▁स्‍	-10.1084
▁पंप	-10.1091
SP	-10.1094
un	-10.1104
▁बिलासपुर	-10.1109
▁हैदराबाद	-10.1109
▁बनाना	-10.1113
▁लव	-10.1127
▁चलता	-10.1128
धाम	-10.113
▁कितनी	-10.1141
▁स्वतंत्रता	-10.1144
िंक	-10.1157
▁दिलीप	-10.1166
▁मानना	-10.1169
▁ब्रेक	-10.1171
et	-10.1173
▁बनवा	-10.1179
▁सारी	-10.1183
▁चढ़ा	-10.119
▁परिवर्तन	-10.1194
▁सेंट्रल	-10.1194
▁पर्यटन	-10.1194
▁सचिन	-10.1198
▁गले	-10.1213
▁38	-10.1214
बाज	-10.1215
▁लाइफ	-10.1223
▁नही	-10.1224
▁जवानों	-10.123
▁देखें	-10.1234
▁आधारित	-10.1237
बद्ध	-10.1253
▁घु	-10.1274
▁W	-10.1279
▁जितेंद्र	-10.128
▁जागरूक	-10.1291
▁55	-10.1291
रदार	-10.1295
▁गढ़	-10.1299
॥	-10.1309
▁पिछली	-10.1309
▁फार्म	-10.1317
▁कितना	-10.1318
▁शाखा	-10.1319
▁खतरा	-10.1323
▁इंजन	-10.1325
▁क्षेत्रीय	-10.1337
▁प्रेरित	-10.1338
▁पुराना	-10.1338
▁नकद	-10.1338
▁सीए	-10.1341
▁गेम	-10.1344
▁पालिका	-10.1345
▁46	-10.1349
▁इलेक्ट्रिक	-10.1367
▁शास्त्री	-10.1367
▁उधर	-10.1374
ir	-10.1378
▁Ra	-10.1381
▁सांप	-10.1384
▁कैंडिडेट	-10.1396
▁ग्रहण	-10.1396
▁बच्चन	-10.1396
▁साहब	-10.1396
▁दिलाने	-10.1397
▁बालिका	-10.1412
▁इस्लाम	-10.1425
▁राजपूत	-10.1425
▁तस्करी	-10.1425
भद्र	-10.1425
ायब	-10.1435
▁बाई	-10.1445
▁टीमें	-10.1446
▁गीता	-10.1452
▁उत्पादन	-10.1454
▁जायसवाल	-10.1454
▁अपहरण	-10.1454
▁सिंघ	-10.1454
▁पौधे	-10.1454
▁पाइप	-10.1454
▁लीटर	-10.1455
▁कोचिंग	-10.1458
▁मंजूरी	-10.1461
▁राजद	-10.1462
▁सोनू	-10.1474
▁औ	-10.1474
▁मुंह	-10.1484
▁सैकड़ों	-10.1513
▁चौराहा	-10.1513
▁पैदल	-10.1513
▁ओपन	-10.1513
▁पिछड़	-10.1513
▁एसआई	-10.1514
▁बजाय	-10.153
▁श्रद्धालु	-10.1535
▁चेहरे	-10.1542
▁लहर	-10.1543
▁ताला	-10.1543
▁बदलने	-10.1547
▁वादा	-10.1548
▁महाकाल	-10.1549
▁गहन	-10.1551
▁भट्ट	-10.1557
▁मोड़	-10.1558
▁तहरीर	-10.1572
▁प्रभु	-10.1572
▁धूम	-10.1573
▁बुरा	-10.1578
▁ऐप	-10.1586
▁प्लेटफॉर्म	-10.1602
▁संपन्न	-10.1602
▁बू	-10.1608
▁राजू	-10.1627
▁गुट	-10.163
▁नवरात्र	-10.1631
▁गाड़ियों	-10.1631
▁ताकत	-10.1632
▁किराए	-10.1633
▁जिक्र	-10.1636
▁आशा	-10.1636
55	-10.1653
▁दुष्कर्म	-10.1661
▁सहमति	-10.1661
▁बाज	-10.1668
ल्हा	-10.1684
▁रहना	-10.1688
▁ललित	-10.1695
▁देवेंद्र	-10.1704
▁गाली	-10.1707
90	-10.1718
▁महज	-10.1721
▁सदस्यता	-10.1752
▁आइए	-10.1761
▁महादेव	-10.1762
▁फोर्स	-10.1763
▁मिमी	-10.1773
▁सीख	-10.1775
▁जगदीश	-10.1781
▁स्वयं	-10.1782
▁टाइगर	-10.1783
▁मिश्र	-10.1789
▁पाठक	-10.1791
▁अंसारी	-10.1812
▁रजिस्ट्रेशन	-10.1812
▁कनेक्शन	-10.1812
▁गिरोह	-10.1812
▁तमाम	-10.1812
▁बेस्ट	-10.1817
26	-10.1817
▁खरीदने	-10.1818
▁जिनके	-10.1833
▁FIR	-10.1842
▁शासकीय	-10.1842
▁नाराजगी	-10.1848
▁भड़क	-10.1848
▁उठाए	-10.185
▁महाविद्यालय	-10.1873
▁मेरठ	-10.1873
▁सतीश	-10.1873
▁पवार	-10.1884
▁मेघ	-10.1894
▁खिला	-10.1896
▁लोन	-10.1897
▁जालंधर	-10.1903
▁रात्रि	-10.1903
▁नरेश	-10.1915
▁बहस	-10.1924
▁हेल्थ	-10.1934
▁विकल्प	-10.1934
▁मिट्टी	-10.1934
▁कैमरा	-10.1934
27	-10.1935
ing	-10.1938
▁भय	-10.194
▁पड़ताल	-10.194
▁लालू	-10.1946
16	-10.1946
▁डेट	-10.1961
▁मीना	-10.1961
▁मुहूर्त	-10.1965
▁ग्रीन	-10.1965
▁लाठी	-10.1972
▁अल्	-10.1989
▁हंस	-10.1994
▁सुनकर	-10.1995
▁प्रतीक	-10.1996
▁कार्तिक	-10.1996
▁दर्शक	-10.2027
▁रोजाना	-10.2027
▁44	-10.2031
▁भरने	-10.2033
▁त्रिपाठी	-10.2058
▁सौरभ	-10.2058
▁राजकीय	-10.2058
▁विवि	-10.2062
▁मेट्रो	-10.2065
▁आदर्श	-10.2089
▁बरसात	-10.2089
▁अंदाज	-10.2094
▁बैर	-10.2109
▁स्टूडेंट	-10.211
▁नाथ	-10.2119
▁प्रगति	-10.212
▁{	-10.2121
▁निर्मल	-10.2133
ोत्सव	-10.2149
▁पर्यटक	-10.2151
▁मात्रा	-10.2167
शाह	-10.2179
▁वसूली	-10.218
17	-10.2181
▁आदित्य	-10.2181
▁आपराधिक	-10.2183
▁श्रीलंका	-10.2183
▁ग्राउंड	-10.2183
▁एएसआई	-10.2183
▁रिमांड	-10.2183
▁प्रतिक्रिया	-10.2183
▁आतंकवाद	-10.2184
▁भोग	-10.2195
▁गहरा	-10.2212
▁इमरजेंसी	-10.2214
▁तीसरा	-10.2214
ग्राम	-10.2217
▁छाप	-10.2235
▁प्राधिकरण	-10.2246
▁यूनियन	-10.2246
बोध	-10.225
▁पात्र	-10.2255
▁सकेगा	-10.2265
▁अधिवक्ता	-10.2278
▁गड़बड़	-10.2278
▁थोड़ी	-10.2278
▁पहुंचाने	-10.2305
▁जबरदस्त	-10.231
▁द्वितीय	-10.231
▁प्रोत्साह	-10.231
▁आंध्र	-10.231
▁आश्रम	-10.231
▁संकेत	-10.231
▁नेहरू	-10.2312
▁बचने	-10.2317
▁टु	-10.2321
श्र	-10.2336
▁बिल्कुल	-10.2341
▁हिमाचल	-10.2341
▁रोहतक	-10.2342
▁बस्ती	-10.2343
▁रथ	-10.2356
▁महंत	-10.2362
ma	-10.2373
▁इंग्लैंड	-10.2374
▁प्रयागराज	-10.2374
▁टेंडर	-10.2374
▁आदित्यनाथ	-10.2376
▁2017	-10.2378
▁बहादुर	-10.2406
▁व्यवसाय	-10.2406
▁मास्टर	-10.2415
▁उपाय	-10.2417
▁भाषण	-10.2438
▁खोज	-10.2442
▁बढ़ते	-10.2445
▁डेटा	-10.2446
▁किताब	-10.2446
▁रखकर	-10.2454
▁हमलावर	-10.2463
▁बिश्नोई	-10.247
▁स्वच्छता	-10.247
▁बैटरी	-10.2471
▁संसदीय	-10.2478
▁सियास	-10.2502
▁रिसर्च	-10.2503
▁शीर्ष	-10.2503
▁खनन	-10.2506
▁संवाद	-10.2511
▁अनेक	-10.2514
▁भक्ति	-10.2516
▁मप्र	-10.253
▁बॉर्डर	-10.2535
▁विरुद्ध	-10.2535
▁महामंत्री	-10.2535
▁एशिया	-10.2535
▁रावत	-10.2536
▁मृत्यु	-10.2536
▁ऊंचा	-10.2537
id	-10.254
▁मार्क	-10.254
भारत	-10.2544
▁बीज	-10.2554
▁टीवी	-10.2561
▁उल्लंघन	-10.2568
▁इवेंट	-10.2568
28	-10.2575
▁अर्थ	-10.2589
il	-10.2595
▁इजराइल	-10.2601
▁समीप	-10.2602
▁हेतु	-10.2603
▁फंड	-10.2615
▁मुसलमान	-10.2634
▁संसाधन	-10.2634
▁साइकिल	-10.2634
▁डिमांड	-10.2634
▁गठित	-10.2634
▁अरेस्ट	-10.2637
▁पथ	-10.2654
▁तकनीक	-10.2655
▁साधन	-10.2662
▁जख्मी	-10.2667
▁ऋषि	-10.2667
▁रिश्वत	-10.2667
▁नरेन्द्र	-10.267
▁सुरेंद्र	-10.267
कश्मीर	-10.2674
▁खाद	-10.2686
Y	-10.27
▁अभियंता	-10.27
▁एकादशी	-10.27
▁बेंगलुरु	-10.27
▁जूनियर	-10.2707
इंग	-10.2708
▁एंटी	-10.271
▁आएगी	-10.2712
ल्ली	-10.2726
▁निर्दलीय	-10.2733
▁तुलसी	-10.2733
▁अश्विन	-10.2733
▁नर्सिंग	-10.2733
▁स्नान	-10.2734
▁रंजन	-10.2735
ल्लू	-10.2736
▁पढ़ने	-10.2738
▁दिव्यांग	-10.2766
▁लोकतंत्र	-10.2766
▁अल्पसंख्यक	-10.2766
▁पटवारी	-10.2766
▁हेम	-10.2772
▁चक्कर	-10.28
▁इंदिरा	-10.28
त्थ	-10.28
▁तीर्थ	-10.28
▁कैश	-10.28
▁तस्वीरें	-10.2822
▁धोखाधड़ी	-10.2833
▁पायलट	-10.2833
▁प्रार्थना	-10.2833
▁वैश्व	-10.2837
▁प्राथमिकता	-10.2848
▁सोम	-10.285
▁नोएडा	-10.2867
▁सुझाव	-10.2867
▁मिसाइल	-10.2868
▁पुनर्	-10.2873
▁इंच	-10.2883
▁अकेले	-10.2893
▁शूट	-10.2894
▁पूर्णिमा	-10.2901
▁फ्लैट	-10.2901
▁पिटाई	-10.2901
▁डीजल	-10.2907
▁मानते	-10.2921
▁भले	-10.2922
▁तोड़कर	-10.2928
ट्रिक	-10.2936
▁रकम	-10.2937
▁जिंदा	-10.2963
▁रिश्ते	-10.2966
▁प्रबंधक	-10.2967
▁तमिलनाडु	-10.2969
▁शारीरिक	-10.2969
▁सबूत	-10.2969
▁कार्यरत	-10.297
कॉम	-10.2977
▁खन्ना	-10.2982
▁पुलिसकर्मी	-10.299
▁क़	-10.3005
▁नाले	-10.3011
▁राणा	-10.3012
▁प्रदूषण	-10.3037
▁छुट्टी	-10.3041
धिकारी	-10.3042
▁चाचा	-10.3043
▁उपस्थिति	-10.3045
ic	-10.3056
▁आधा	-10.3071
▁विद्यार्थी	-10.3072
▁स्क्रीन	-10.3072
▁मुखिया	-10.3072
▁देगा	-10.3087
▁ऐतिहासिक	-10.3106
▁बीकानेर	-10.3106
▁लड़कियों	-10.3106
▁कन्या	-10.3107
▁पीजी	-10.3112
▁सपोर्ट	-10.3126
▁गुणवत्ता	-10.3141
▁आभार	-10.3142
▁अमृतसर	-10.3143
▁गतिविधि	-10.3174
आधिकारिक	-10.3175
▁अफ्रीका	-10.3175
▁बाड़मेर	-10.3175
▁सैन्य	-10.3175
▁पीछा	-10.3175
▁शरण	-10.318
▁प्रसिद्ध	-10.321
▁मोटरसाइकिल	-10.321
▁खींच	-10.321
▁लंबा	-10.3214
चंद्र	-10.3223
▁व्यापारियों	-10.3224
▁न्यायिक	-10.3239
▁व्यक्तियों	-10.3241
▁मेयर	-10.3245
नियंत्रित	-10.3246
▁सुशील	-10.3247
▁शोध	-10.3249
▁भजनलाल	-10.325
भूत	-10.3251
▁प्रशांत	-10.3252
▁चुरा	-10.3255
▁मनो	-10.3279
▁अभ्यर्थी	-10.328
▁सनातन	-10.328
▁मेहता	-10.3281
क्चर	-10.3285
▁ॐ	-10.3289
▁कॉन्स्टेबल	-10.3315
▁रेस्क्यू	-10.3315
▁विधान	-10.3323
▁मात्र	-10.334
▁चक्र	-10.334
ed	-10.3344
▁लेवल	-10.3345
▁पॉइंट	-10.3351
▁ज़्यादा	-10.3351
▁सामुदा	-10.3351
▁प्रतिदिन	-10.3351
▁प्रोग्राम	-10.3352
▁स्मृति	-10.3386
▁हुसैन	-10.3386
▁डेंगू	-10.3386
▁आलोक	-10.3387
▁फूड	-10.3387
▁कलेक्शन	-10.339
▁मुक्ति	-10.3392
▁देगी	-10.3395
▁सुविधाओं	-10.3406
ानुसार	-10.3418
शांत	-10.3421
▁इंस्टाग्राम	-10.3422
▁सामूहिक	-10.3422
▁खतर	-10.3425
▁गये	-10.3431
na	-10.3441
▁संशोधन	-10.3458
▁अवॉर्ड	-10.3458
▁जुलूस	-10.3458
▁सेकेंड	-10.3459
ुअल	-10.3469
▁अब्दुल	-10.3472
▁बिग	-10.3487
▁माफी	-10.3495
▁उद्	-10.3508
▁सिपाही	-10.3529
▁प्रवीण	-10.3529
▁सब्जी	-10.3529
▁वायु	-10.353
▁मोहल्ले	-10.353
नारायण	-10.354
▁चावल	-10.3543
▁माध्यमिक	-10.3545
▁रेखा	-10.3548
▁द्वार	-10.355
▁अनंत	-10.3552
▁हैरान	-10.3559
▁अंबानी	-10.3565
▁ढूंढ	-10.3566
▁स्पीकर	-10.3566
▁तलाक	-10.357
क्के	-10.3588
▁व्यवहार	-10.3602
▁सिक्योरिटी	-10.3602
z	-10.3602
▁पप्पू	-10.3602
▁महापौर	-10.3602
▁अधिकांश	-10.3602
ुद्दीन	-10.3602
▁शर्त	-10.3602
▁फेल	-10.3614
▁जेपी	-10.3614
▁कलेक्ट्रेट	-10.3638
▁चौथे	-10.3638
▁संध्या	-10.3638
▁पिस्टल	-10.3638
▁हराया	-10.3649
▁सुविधाएं	-10.3651
▁व्यापक	-10.3675
▁कमांड	-10.3676
▁भतीज	-10.3681
▁लिंक	-10.3687
▁घोटाले	-10.3711
▁मार्गदर्शन	-10.3711
रिक्शा	-10.3711
▁उत्तराखंड	-10.3711
▁स्कूटी	-10.3711
▁अमिताभ	-10.3711
▁बसपा	-10.3723
▁धर्मेंद्र	-10.3723
▁फुल	-10.374
▁नक्सल	-10.3745
▁मौजूदगी	-10.3747
▁सिलेंडर	-10.3748
▁स्वरूप	-10.3748
▁रघु	-10.3748
▁बीबीसी	-10.3748
▁सीईओ	-10.3748
▁प्रमोद	-10.3748
▁निकाय	-10.3752
▁रावण	-10.3768
▁समन्वय	-10.3785
▁दीपावली	-10.3785
▁परीक्षण	-10.3785
▁तबीयत	-10.3785
▁हसीना	-10.3785
▁रतन	-10.3788
▁ब्रिज	-10.3788
▁कुलपति	-10.3796
दूसरे	-10.3796
▁चांद	-10.3805
▁आग्रह	-10.3813
▁समर्पित	-10.3822
▁यूजर्स	-10.3822
▁जिलाधिकारी	-10.3829
इयों	-10.3849
▁पड़ोस	-10.3851
▁गर्ग	-10.3854
▁इंतजाम	-10.3859
▁झगड़ा	-10.3859
▁गोदाम	-10.3859
▁भाइयों	-10.3861
▁गुप्त	-10.3885
▁चलेगा	-10.3892
▁अनिवार्य	-10.3896
▁एंबुलेंस	-10.3896
▁ट्रॉफी	-10.3896
▁समुद्र	-10.3896
▁पवित्र	-10.3896
▁मनोहर	-10.39
▁स्वर्ण	-10.39
▁हरकत	-10.39
▁कामयाब	-10.39
▁पुलिसकर्मियों	-10.3912
▁आएगा	-10.3914
▁रिहा	-10.3918
▁कटौती	-10.3934
▁एसएसपी	-10.3934
▁इकाई	-10.3934
▁ढाई	-10.3941
▁दिग्गज	-10.3971
▁जनसभा	-10.3971
▁UP	-10.3984
्होंने	-10.3993
▁सांस	-10.4005
म्भ	-10.4033
▁तैयारियां	-10.4045
▁काउंसिल	-10.4047
▁प्रतिपक्ष	-10.4047
▁कृपा	-10.4048
▁Re	-10.4073
▁क्रू	-10.4078
▁मनाई	-10.4083
डब्ल्यू	-10.4085
▁ओलिंपिक	-10.4085
▁क्षतिग्रस्त	-10.4085
▁बहाल	-10.4087
▁समक्ष	-10.4121
▁फाउंडेशन	-10.4123
▁ब्रांच	-10.4123
▁पुणे	-10.4123
▁जवाहर	-10.4123
▁इंसान	-10.4124
▁सुमित	-10.4124
▁चालू	-10.4128
▁मुजफ्फरपुर	-10.4162
▁तिरंगा	-10.4162
▁शेष	-10.4162
▁तिलक	-10.4165
▁नक्सलियों	-10.4171
▁उदय	-10.4193
▁अखिल	-10.4198
▁संज्ञान	-10.42
▁इच्छा	-10.42
▁धमका	-10.4201
▁रैंक	-10.4206
▁सिंगल	-10.4234
▁आह्वान	-10.4239
▁राठौड़	-10.4239
▁कठिन	-10.4239
▁राशिफल	-10.4239
▁डिटेल	-10.4239
▁सुनीता	-10.4239
▁नाटक	-10.4241
▁समाजवादी	-10.4244
फॉर्म	-10.4253
▁मित्र	-10.4259
▁समस्त	-10.426
▁साइंस	-10.4277
वर्ती	-10.4278
▁सेवाएं	-10.4312
▁प्रणाली	-10.4316
▁भूपेंद्र	-10.4316
▁पिकअप	-10.4316
ak	-10.4354
▁एडवोकेट	-10.4355
▁दफ्तर	-10.4355
▁शायद	-10.4356
▁शरद	-10.4357
▁सर्च	-10.4369
▁जाएंगी	-10.438
▁औद्योगिक	-10.4395
▁अत्य	-10.4396
▁गयी	-10.4397
▁उपकरण	-10.4403
स्वामी	-10.4408
▁ब्लड	-10.4416
▁चर्च	-10.4422
▁स्मार्टफोन	-10.4434
▁मदन	-10.4443
▁अलवर	-10.4452
▁मथुरा	-10.4473
▁बॉडी	-10.4474
▁माफिया	-10.4474
▁यौन	-10.4474
▁मर्डर	-10.4474
▁शतक	-10.4476
▁पूर्णिया	-10.4483
▁तत्व	-10.4485
▁योग्य	-10.4501
▁प्रॉपर्टी	-10.4513
▁दरवाजा	-10.4513
▁X	-10.4531
▁शशि	-10.4538
▁बेहोश	-10.4553
▁जनप्रतिनिधि	-10.4553
▁बतौर	-10.4553
▁कविता	-10.4553
▁मंजिल	-10.4553
▁गवाह	-10.4554
▁2016	-10.4559
▁आसमान	-10.456
▁अपमान	-10.4562
ce	-10.4578
▁नारेबाजी	-10.4593
▁तृतीय	-10.4593
▁अनुरोध	-10.4593
▁बनर्जी	-10.4593
▁सपना	-10.4594
▁दत्त	-10.4596
▁मंत्रियों	-10.4609
▁शेर	-10.4613
▁आमजन	-10.4622
▁हिंदुओं	-10.4633
▁धन्यवाद	-10.4633
▁खंगाल	-10.4635
▁बेहतरीन	-10.4642
▁अटल	-10.4646
ेटिव	-10.4652
▁कपिल	-10.4654
▁अमल	-10.4664
▁दादा	-10.4668
▁फीचर्स	-10.4673
▁स्पोर्ट्स	-10.4673
▁हार्दिक	-10.4673
▁चौटाला	-10.4673
▁जाहिर	-10.4674
▁चेहरा	-10.4677
▁टेबल	-10.4683
▁झाड़	-10.4703
▁ब्रिगेड	-10.4714
▁थोड़ा	-10.4714
▁प्रबंध	-10.4727
छात्राओं	-10.4729
PS	-10.4732
▁राशन	-10.4738
▁कमलेश	-10.4751
▁फुट	-10.4753
▁प्रेरणा	-10.4755
▁पढ़िए	-10.476
कर्मी	-10.479
▁नेटवर्क	-10.4795
▁श्रद्धांजलि	-10.4795
▁छिपा	-10.4804
▁ख़िलाफ़	-10.4836
▁टेक्नोलॉजी	-10.4836
▁ऑर्डर	-10.4836
▁अनुराग	-10.4837
▁व्यक्तिगत	-10.4848
▁इंजीनियरिंग	-10.4854
▁उदाहरण	-10.4878
▁जहाज	-10.4889
धीरे	-10.4894
▁गश्त	-10.4896
▁छेड़छाड़	-10.4919
▁ब्राह्मण	-10.4919
आउट	-10.4935
▁मंजू	-10.4955
▁समझौता	-10.496
▁शिवसेना	-10.496
▁स्कीम	-10.4962
▁लिये	-10.4965
▁काटने	-10.4983
▁चलेगी	-10.4993
▁मशहूर	-10.5002
▁चुनौतिय	-10.5002
▁टाउन	-10.5002
▁अरोड़ा	-10.5002
▁ट्रेड	-10.5023
▁उपाध्याय	-10.5044
▁टारगेट	-10.5044
▁सर्टिफिकेट	-10.5044
▁रेड्डी	-10.5044
▁आलोचना	-10.5044
▁लोकेशन	-10.5061
▁बायो	-10.5086
▁मजिस्ट्रेट	-10.5086
▁हुड्डा	-10.5086
▁तेलंगाना	-10.5086
▁अर्थव्यवस्था	-10.5086
▁प्रोसेस	-10.5086
▁मोहल्ला	-10.5089
▁महावीर	-10.5095
▁संभावित	-10.5128
▁सैंपल	-10.5128
▁ब्याज	-10.513
▁विनय	-10.5132
▁माधव	-10.5132
▁आमिर	-10.5142
▁शुद्ध	-10.517
▁एजेंट	-10.5171
▁झांसी	-10.5171
▁बजरंग	-10.5171
▁लिहाज	-10.5179
▁पदस्थ	-10.5189
▁शुक्ल	-10.5245
▁हसन	-10.5249
▁गहलोत	-10.5256
▁गारंटी	-10.5256
▁एडमिशन	-10.5256
▁बघेल	-10.5256
▁सकारात्मक	-10.5256
▁एटीएम	-10.5256
▁गाड़ियां	-10.5256
▁संदेह	-10.5256
▁ब्रांड	-10.5256
▁संभल	-10.5256
▁एमएस	-10.5293
▁सावन	-10.5296
▁मैनेजमेंट	-10.5299
▁लंबित	-10.5299
▁मासूम	-10.5299
▁वार्ता	-10.5301
▁नकली	-10.5301
▁वसूल	-10.5309
भूमि	-10.5316
▁चेन्नई	-10.5342
▁सिंचाई	-10.5342
▁डेवलप	-10.5342
▁स्वीकृति	-10.5381
▁नितिन	-10.5386
▁रजिस्टर	-10.5387
▁गुलाब	-10.5388
िष्क	-10.5398
कृष्ण	-10.54
▁नीट	-10.5413
▁ग्लोबल	-10.5429
▁निलंबित	-10.5429
▁बहुमत	-10.5429
▁निरस्त	-10.543
▁रविंद्र	-10.5431
ल्ले	-10.5443
▁लक्ष्मण	-10.5472
▁फर्स्ट	-10.5472
▁आस्था	-10.5473
▁कचरा	-10.5473
▁श्रीकृष्ण	-10.5475
ुल्लाह	-10.5499
₹	-10.5516
▁मुआवजा	-10.5516
▁स्थिर	-10.5516
▁ड्रेस	-10.5516
▁अभय	-10.5519
▁वीरेंद्र	-10.5521
घात	-10.5558
▁क्विंटल	-10.556
▁गेहूं	-10.556
▁गौरतलब	-10.556
▁मणिपुर	-10.556
▁इंचार्ज	-10.556
▁आईएएस	-10.556
▁ट्रांस	-10.5604
▁दावेदार	-10.5604
▁बेरोजगार	-10.5604
▁ठाकरे	-10.5604
▁मायके	-10.5605
▁निवेशकों	-10.561
▁एनएच	-10.5613
▁थानाधिकारी	-10.5615
▁कायम	-10.5619
▁फेर	-10.5634
▁डिलीवरी	-10.5649
▁मरम्मत	-10.5649
▁महात्मा	-10.5649
▁गर्भ	-10.5652
▁अभियुक्त	-10.5652
▁सहकार	-10.5656
▁01	-10.569
▁एकजुट	-10.5693
▁मुठभेड़	-10.5693
▁रामलला	-10.5695
▁चालान	-10.5695
▁दरबार	-10.57
▁उतन	-10.5707
▁सरस्वती	-10.5738
▁ड्रग	-10.5738
▁कार्यशाला	-10.5738
▁विनेश	-10.5739
▁गुरुग्राम	-10.574
ll	-10.5752
▁हार्ट	-10.5763
▁व्यास	-10.5776
▁रिटायर	-10.5782
▁अटैक	-10.5783
▁प्लास्टिक	-10.5783
▁कस्बे	-10.5783
▁चिराग	-10.5783
▁शीतल	-10.5784
▁अवगत	-10.5789
▁बुझा	-10.5791
▁तारीफ	-10.5797
क्षेत्र	-10.5803
▁त्याग	-10.583
ाएगा	-10.5865
▁फोकस	-10.5874
▁साहित्य	-10.5874
▁झटका	-10.5874
▁सिद्धार्थ	-10.5876
▁निकट	-10.5877
▁प्लेयर	-10.5877
▁पार्टिय	-10.589
▁अंतर्	-10.5904
▁पंडाल	-10.592
▁बोतल	-10.592
CB	-10.5951
▁धनबाद	-10.5966
▁ईश्वर	-10.5966
▁आधे	-10.5967
▁स्वस्थ	-10.5978
▁ट्रेलर	-10.6012
▁अभिनेता	-10.6012
▁फंदे	-10.6012
▁गंवा	-10.6027
ोदय	-10.6027
▁इजरायल	-10.6058
▁वार्षिक	-10.6058
▁अध्ययन	-10.6058
▁समस्तीपुर	-10.6058
▁सर्जरी	-10.6058
गलौज	-10.6058
▁बहाने	-10.6059
▁आपत्ति	-10.6068
▁सिंधिया	-10.6104
▁गांजा	-10.6105
▁सर्दी	-10.6105
▁चैनल	-10.6105
▁सक्षम	-10.6105
▁पेयजल	-10.6151
▁सफेद	-10.6151
▁पेरिस	-10.6151
▁बराबर	-10.6151
▁चमक	-10.6171
प्रकाश	-10.6172
▁अनुसंधान	-10.6198
▁विरासत	-10.6198
▁शुभकामनाएं	-10.6198
▁मुकदमे	-10.6198
▁फील्ड	-10.6198
▁शिखर	-10.6198
▁बरेली	-10.6199
▁श्रद्धा	-10.6199
▁अनाज	-10.6201
▁बारात	-10.6216
▁खैर	-10.6232
▁अंबेडकर	-10.6245
▁प्रत्याशियों	-10.6245
▁विशिष्ट	-10.6245
▁पुजारी	-10.6245
▁रिटर्न	-10.6245
▁अनुपम	-10.6256
▁एक्सीडेंट	-10.6293
▁जश्न	-10.6293
▁देखभाल	-10.6293
▁शॉर्ट	-10.6295
▁टाइ	-10.6301
घोष	-10.6309
राष्ट्रीय	-10.6321
▁वृद्ध	-10.633
▁इमरान	-10.634
▁लाइव	-10.634
▁अंचल	-10.6347
▁कागज	-10.6348
▁अटक	-10.6358
जगह	-10.6363
▁कार्यकारिणी	-10.6388
▁शिंदे	-10.6388
▁राठौर	-10.6436
▁स्नातक	-10.6436
▁सुर्खिय	-10.6436
▁मुफ्त	-10.6436
▁पूनम	-10.6437
▁वाटर	-10.6438
▁उमस	-10.6438
पंथ	-10.6439
▁श्रेय	-10.6442
▁आसार	-10.6443
▁सितार	-10.6454
▁पृथ्वी	-10.6485
▁डेब्यू	-10.6485
▁दहेज	-10.6485
▁मौर्य	-10.6489
▁हमलों	-10.649
▁पैनल	-10.6491
मोहन	-10.6506
▁गाजियाबाद	-10.6533
▁मकसद	-10.6533
▁गूगल	-10.6533
▁अभिभावक	-10.6533
▁जायजा	-10.6534
▁मुझस	-10.6536
▁कुचल	-10.6554
▁भागीदारी	-10.6582
▁शैक्षणिक	-10.6582
▁बचपन	-10.6582
▁ओबीसी	-10.6631
▁पुस्तक	-10.6631
▁भागलपुर	-10.6631
▁रिटायर्ड	-10.6632
▁वनडे	-10.6639
▁अनुसूचित	-10.668
▁अश्लील	-10.668
▁पारंपरिक	-10.668
▁दिवाली	-10.668
▁ट्रायल	-10.668
▁झांसा	-10.668
▁फ्रांस	-10.668
▁जैसलमेर	-10.673
▁रतलाम	-10.673
▁हत्याकांड	-10.673
▁आबकारी	-10.673
▁घटनाक्रम	-10.673
▁दिमाग	-10.673
▁पीढ़ी	-10.673
▁आजमगढ़	-10.673
▁सिंगर	-10.6746
▁आधुनिक	-10.6779
▁चंद्रशेखर	-10.6779
▁दबिश	-10.6779
▁ब्लैक	-10.678
▁वस्तु	-10.678
▁पार्टनर	-10.6782
▁ड्राइव	-10.6787
▁ओलंपिक	-10.6829
▁अनूप	-10.683
▁जापान	-10.6847
Q	-10.688
▁कांस्टेबल	-10.688
▁ज्वेलर	-10.688
▁दरभंगा	-10.688
▁निश्चित	-10.688
▁समझौते	-10.688
▁उपायुक्त	-10.688
▁वरुण	-10.688
▁निर्भर	-10.6884
▁सतर्क	-10.6884
▁नशील	-10.6905
▁IPL	-10.693
▁तोड़फोड़	-10.693
▁दहशत	-10.693
▁सुल्तान	-10.693
▁बाधित	-10.693
▁जलस्तर	-10.693
▁अतुल	-10.6931
▁स्पीड	-10.6932
▁प्रसार	-10.6952
गृह	-10.6955
▁न्यूजीलैंड	-10.6981
्ज़	-10.6985
▁कन्हैया	-10.7032
▁स्थायी	-10.7032
▁हड़कंप	-10.7032
▁आईपीएल	-10.7032
▁साक्ष्य	-10.7032
▁बकाया	-10.7033
▁गैंगस्टर	-10.7034
▁अहमदाबाद	-10.7034
▁नज़र	-10.7034
▁ऐश्वर्या	-10.7083
▁चोपड़ा	-10.7083
▁छिंदवाड़ा	-10.7083
▁दुश्मन	-10.7083
▁ब्यूरो	-10.7083
▁बंधक	-10.7085
▁चौंका	-10.709
▁विस्फोट	-10.7135
▁शोभायात्रा	-10.7135
▁सिलसिला	-10.7135
▁दरवाजे	-10.7135
▁लैब	-10.7135
▁नामजद	-10.7136
▁बस्तर	-10.7136
▁मुखबिर	-10.7187
▁संवेदनशील	-10.7187
▁हॉस्टल	-10.7187
▁सावधान	-10.7187
▁इमारत	-10.7187
▁मालूम	-10.7187
▁रत्न	-10.7188
▁इकट्ठा	-10.7239
▁कश्यप	-10.7239
▁जन्मदिन	-10.7239
▁यूरोप	-10.7239
▁आयुष्म	-10.724
▁मनमोहन	-10.7241
▁लोहे	-10.7244
▁फरीदाबाद	-10.7291
▁बेगूसराय	-10.7291
▁प्राचीन	-10.7291
▁दौसा	-10.7291
▁Election	-10.7344
▁अंबाला	-10.7344
▁दुल्हन	-10.7344
▁बर्बाद	-10.7344
▁रेस्टोरेंट	-10.7344
▁निष्पक्ष	-10.7344
▁दिलचस्प	-10.7344
▁निपटा	-10.7344
▁सभागार	-10.7347
▁उमेश	-10.7357
▁ब्रिटेन	-10.7397
▁विसर्जन	-10.7397
▁अंधेर	-10.7397
▁शाहरुख	-10.7397
▁लेपर्ड	-10.7397
▁बेटियों	-10.7397
▁उत्पीड़न	-10.745
▁छानबीन	-10.745
▁भ्रमण	-10.745
▁यमुना	-10.745
▁भोजपुर	-10.745
▁जर्जर	-10.745
▁दहन	-10.7451
▁प्रतिनिधित्व	-10.7452
▁अकेल	-10.748
▁Lok	-10.7503
▁अफगानिस्तान	-10.7503
▁इलेक्ट्रॉनिक	-10.7503
▁कंपनियां	-10.7503
▁मामूली	-10.7503
+	-10.7557
▁एजुकेशन	-10.7557
▁एजेंसियों	-10.7557
▁रजिस्ट्री	-10.7557
▁वातावरण	-10.7557
▁मालदीव	-10.7557
▁गिनती	-10.7557
▁नतीजे	-10.7557
▁उद्यम	-10.7557
▁हरीश	-10.7603
▁शौचालय	-10.7611
▁हस्ताक्षर	-10.7611
▁हिन्दू	-10.7611
▁ईवीएम	-10.7611
▁कांवड़	-10.7611
▁एएसपी	-10.7611
▁इंटरनेट	-10.7611
श्रेष्ठ	-10.7613
▁छुट्	-10.7654
▁दृष्टि	-10.7665
तांत्रिक	-10.7665
▁खतरनाक	-10.7666
▁किलोग्राम	-10.7667
▁फैमिली	-10.772
▁लोकप्रिय	-10.772
▁एडवांस	-10.772
▁निर्माता	-10.772
▁नालंदा	-10.772
▁ट्रांसपोर्ट	-10.7721
▁अवकाश	-10.7721
▁युग	-10.7722
▁कारतूस	-10.7775
▁गुरुद्वारा	-10.7775
▁साझेदारी	-10.7775
▁एसयूवी	-10.7775
▁क्रेडिट	-10.7775
▁उजागर	-10.7775
▁लेबनान	-10.7775
▁लॉरेंस	-10.7775
▁जनजाति	-10.7775
▁झुलस	-10.7776
▁इंस्टीट्यूट	-10.783
▁दृष्टिकोण	-10.783
▁प्रज्वल	-10.783
▁पॉलिसी	-10.783
▁लुटेर	-10.7831
▁बंसल	-10.7831
▁खातों	-10.7832
▁सशक्त	-10.7845
▁CCTV	-10.7886
▁जगन्नाथ	-10.7886
▁ध्रुव	-10.7886
▁विश्वकर्मा	-10.7886
▁डीजीपी	-10.7886
▁जॉब	-10.7886
▁प्रीमिय	-10.7886
▁डैम	-10.7886
▁सूचित	-10.789
पूर्ति	-10.7931
▁बॉन्ड	-10.7942
▁विधेयक	-10.7942
▁डिवीजन	-10.7942
▁प्लॉट	-10.7942
▁निर्यात	-10.7942
▁जानलेवा	-10.7942
▁रोडवेज	-10.7942
▁चौथी	-10.7942
▁कोषाध्यक्ष	-10.7998
▁मद्देनजर	-10.7998
▁राहगीर	-10.7998
▁निकासी	-10.7998
▁परिस्थितियों	-10.7999
▁सोलर	-10.7999
▁Sabha	-10.8054
▁असिस्टेंट	-10.8054
▁ऋषभ	-10.8054
▁ऑप्शन	-10.8054
▁सोलंकी	-10.8054
▁एसएचओ	-10.8054
▁विज्ञापन	-10.8054
▁बलरामपुर	-10.8054
▁परिचय	-10.8054
▁कल्पना	-10.8054
▁तथ्य	-10.8054
▁सुराग	-10.8055
▁घबरा	-10.8056
पत्नी	-10.8086
▁ट्वीट	-10.8111
▁शोषण	-10.8111
▁श्रवण	-10.8111
▁रिश्ता	-10.8111
▁सर्जन	-10.8112
▁गहरी	-10.8117
साधारण	-10.812
टेंशन	-10.8125
▁उत्कृष्ट	-10.8168
▁एम्बुलेंस	-10.8168
▁सर्किल	-10.8168
▁मांझी	-10.8169
▁चैंपियनशिप	-10.8169
▁सीमित	-10.817
▁वैष्णव	-10.8226
▁सोसाइटी	-10.8226
▁सुधीर	-10.8226
▁अवस्था	-10.8226
▁मित्तल	-10.8226
▁एसडीओ	-10.8226
▁प्रभात	-10.8226
▁वंचित	-10.8226
▁मोर्च	-10.8231
▁वॉर	-10.8238
▁प्रभार	-10.826
ब्बा	-10.8277
▁आवंटित	-10.8284
▁कैटेगरी	-10.8284
▁पारिवारिक	-10.8284
▁फाजिल्का	-10.8284
▁मशक्कत	-10.8284
▁रक्तदान	-10.8284
▁CBI	-10.8284
▁विस्तृत	-10.8284
▁बरकरार	-10.8284
▁उन्‍ह	-10.8284
▁जदयू	-10.8284
▁शातिर	-10.8284
▁ठोस	-10.8284
▁ओमप्रकाश	-10.8284
▁भीलवाड़ा	-10.8284
▁सीधी	-10.8285
▁झलक	-10.831
X	-10.8316
ोलॉजी	-10.833
▁खूबसूरत	-10.8342
▁शीघ्र	-10.8342
▁क्लीन	-10.8342
▁जंक्शन	-10.8342
▁सिकंदर	-10.8342
▁किशनगंज	-10.8342
▁अकाली	-10.8343
▁शिवपुरी	-10.8343
▁अमेठी	-10.84
▁पार्वती	-10.84
▁रणबीर	-10.84
▁दुबई	-10.84
▁शोरूम	-10.84
▁बिखर	-10.8417
▁गर्भवती	-10.8459
▁सर्किट	-10.8459
▁रणवीर	-10.8459
▁वितरित	-10.8459
▁प्रिंस	-10.8459
▁बक्सर	-10.846
▁गहरे	-10.846
▁आंधी	-10.846
▁आधी	-10.8463
▁आवागमन	-10.8518
▁कैप्टन	-10.8518
▁सस्पेंड	-10.8518
▁प्रतिभागियों	-10.8518
▁आईआईटी	-10.8518
▁संस्थापक	-10.8519
लेखक	-10.8535
▁अमीर	-10.854
▁चैंपियन	-10.8577
▁आवंटन	-10.8578
▁डिपार्टमेंट	-10.8578
▁परफॉर्मेंस	-10.8578
▁बुनियाद	-10.8578
▁दीक्षित	-10.8578
▁ट्रेंड	-10.858
▁ससुर	-10.8636
▁काउंसलिंग	-10.8638
▁फाइनेंस	-10.8638
▁अपलोड	-10.8638
▁मिठाई	-10.8638
▁स्ट्रीट	-10.8638
▁स्टॉक	-10.8638
▁अभ्यास	-10.8698
▁सऊदी	-10.8698
▁जीएसटी	-10.8698
▁अफवाह	-10.8698
▁दोषियों	-10.8698
्राफ्ट	-10.8698
▁बालाजी	-10.8698
▁शरीफ	-10.8725
▁1.5	-10.8749
▁तूफान	-10.8758
▁लड्डू	-10.8758
▁प्राकृतिक	-10.8758
▁आरजेडी	-10.8758
▁गृहमंत्री	-10.8758
▁उन्ही	-10.8759
▁अंशु	-10.8759
▁संस्कृत	-10.8808
▁उपमुख्यमंत्री	-10.8819
▁निर्मित	-10.882
▁दबंग	-10.882
▁आकर्षक	-10.8881
▁निपटने	-10.8881
▁रंजिश	-10.8881
▁सत्यापन	-10.8881
▁हल्के	-10.8881
▁इलेक्ट	-10.8881
▁रंजीत	-10.8881
▁भिलाई	-10.8881
कर्मियों	-10.8892
▁कंप्यूटर	-10.8942
▁प्रोडक्ट	-10.8942
▁माधोपुर	-10.8942
▁सक्सेना	-10.8942
▁स्वीकृत	-10.8948
▁यूट्यूब	-10.9005
▁एडिशनल	-10.9005
▁फायदे	-10.9005
▁दशहरा	-10.9005
▁2024-25	-10.9005
▁सेवानिवृत्त	-10.9005
▁टंकी	-10.9005
▁देहात	-10.9006
▁ढेर	-10.9007
▁सलाम	-10.9028
पढ़ें	-10.9042
▁हिम्मत	-10.9067
▁थप्पड़	-10.9067
▁कठोर	-10.9067
▁शिल्प	-10.9067
▁Khan	-10.9067
▁रिंकू	-10.9067
▁चन्द्र	-10.9067
▁मालवीय	-10.9067
▁कारावास	-10.9068
▁चेतन	-10.9083
व्ह	-10.9113
▁चित्तौड़गढ़	-10.913
▁सेंसेक्स	-10.913
▁जहरील	-10.913
▁साधक	-10.9132
▁उमड़	-10.9151
▁अमावस्या	-10.9193
▁मुरैना	-10.9193
▁नोडल	-10.9193
▁क्रांति	-10.9193
▁सच्चाई	-10.9193
▁ओपीडी	-10.9193
▁प्रीति	-10.921
▁IND	-10.9257
▁निरंतर	-10.9257
▁परमाणु	-10.9257
▁प्लेटफार्म	-10.9257
▁वेरिएंट	-10.9257
▁सम्राट	-10.9257
▁गरबा	-10.926
▁हाथरस	-10.926
खेड़ी	-10.9297
▁जमुई	-10.9321
▁क्‍या	-10.9321
▁महासभा	-10.9386
▁गंदगी	-10.9386
▁रणजीत	-10.9386
▁लकड़ी	-10.9386
▁नौकरिय	-10.9392
▁फौज	-10.9394
शक्ति	-10.9407
पश्चिम	-10.9425
▁न्यायमूर्ति	-10.9451
▁हेक्टेयर	-10.9451
▁सर्वेक्षण	-10.9451
▁समाजसेवी	-10.9451
▁गणपति	-10.9451
▁क्रॉस	-10.9451
▁उत्पन्न	-10.9451
▁प्रकृति	-10.9451
▁फॉलो	-10.9451
▁हज़ार	-10.9451
▁विदाई	-10.9451
▁वक्फ	-10.9451
▁बुलडोजर	-10.9516
▁विजयवर्गीय	-10.9516
▁डोनाल्ड	-10.9516
▁आवाजाही	-10.9516
▁रिकार्ड	-10.9516
▁जेसीबी	-10.9516
▁पथराव	-10.9516
स्‍त	-10.9526
Z	-10.9582
▁अगुवाई	-10.9582
▁डिवाइस	-10.9582
▁पश्चात	-10.9582
▁पाठ्यक्रम	-10.9582
▁म्यूजिक	-10.9582
▁डिफेंस	-10.9582
▁निषाद	-10.9582
▁जीआरपी	-10.9582
▁जोखिम	-10.9582
▁दरोगा	-10.9582
▁मयंक	-10.9582
▁पर्सनल	-10.9582
▁राघव	-10.9582
▁तख्त	-10.9582
▁स्रोत	-10.9582
▁तिराह	-10.9586
▁शेड्यूल	-10.9648
▁सिद्दीकी	-10.9648
▁सर्वाधिक	-10.9648
▁क़रीब	-10.9648
▁प्राइम	-10.9648
▁प्रिंट	-10.9648
▁सैलरी	-10.9648
▁औरंगाबाद	-10.9648
▁बंधन	-10.9657
सफाई	-10.969
▁अविनाश	-10.9715
▁गड्ढे	-10.9715
▁नतीजों	-10.9715
▁संतुलन	-10.9715
▁क्लिक	-10.9715
▁इलाका	-10.9715
▁अवतार	-10.9715
▁स्वतंत्र	-10.9764
▁मंत्रिमंडल	-10.9782
▁रायबरेली	-10.9782
▁सरगुजा	-10.9782
▁भार्गव	-10.9782
▁रामायण	-10.9782
▁झांकी	-10.9782
▁लंदन	-10.9782
▁भिजवा	-10.9787
समृद्धि	-10.9849
▁सिफारिश	-10.9849
▁झामुमो	-10.9849
▁वायनाड	-10.9849
▁हिमांशु	-10.9849
▁अभिनेत्री	-10.9849
▁लिफ्ट	-10.9849
▁खिताब	-10.9849
▁कामकाज	-10.9857
ऋ	-10.9917
▁इकलौत	-10.9917
▁फोगाट	-10.9917
▁बुमराह	-10.9917
▁सेक्रेटरी	-10.9917
▁हिंदुस्तान	-10.9917
▁सेफ्टी	-10.9917
▁वृक्ष	-10.9917
▁नवादा	-10.9918
▁फूट	-10.9927
ाभिषेक	-10.9986
▁NDA	-10.9986
▁आकर्षण	-10.9986
▁इन्हीं	-10.9986
▁चैलेंज	-10.9986
▁एग्जि	-10.9986
▁मिलीमीटर	-10.9986
▁सिल्वर	-10.9986
▁निखिल	-10.9986
▁मछली	-10.9986
▁प्रसन्न	-10.9987
▁कस्टम	-10.9988
कांग्रेस	-11.0029
▁REA	-11.0055
▁क्वार्टर	-11.0055
▁वाल्मीकि	-11.0055
▁प्रैक्टिस	-11.0055
▁थिएटर	-11.0055
▁ऋण	-11.0055
▁कर्तव्य	-11.0055
▁पहिया	-11.0055
▁सर्वोच्च	-11.0124
▁अत्याचार	-11.0124
▁राजमार्ग	-11.0124
▁उद्धव	-11.0124
▁लघु	-11.0124
▁कीर्तन	-11.0124
▁भंवर	-11.0124
▁डंपर	-11.0124
▁गणना	-11.0125
▁एनकाउंटर	-11.0194
▁निशुल्क	-11.0194
▁अड्डे	-11.0194
▁मूवमेंट	-11.0194
▁मेकर्स	-11.0195
प्रदर्शनकारियों	-11.0216
निर्देश	-11.0239
वृत्ति	-11.0264
▁फेसबुक	-11.0265
▁रवींद्र	-11.0265
▁सिसोदिया	-11.0265
▁बच्चियों	-11.0265
▁सत्संग	-11.0265
▁नर्मदापुरम	-11.0265
▁जायेगा	-11.0265
▁खनिज	-11.0265
▁हाजिर	-11.0265
▁फिसल	-11.0268
▁जन्माष्टमी	-11.0335
▁जेवरात	-11.0335
▁जॉइन	-11.0335
▁डिस्प्ले	-11.0335
▁भारद्वाज	-11.0335
▁सेमीफाइनल	-11.0335
▁जलभराव	-11.0335
▁प्रोडक्शन	-11.0335
▁पुतिन	-11.0336
▁शौक	-11.0337
▁क़ानून	-11.0407
▁इलाहाबाद	-11.0407
▁जमशेदपुर	-11.0407
▁त्वरित	-11.0407
▁नायडू	-11.0407
▁मेंटेनेंस	-11.0407
▁वाजपेयी	-11.0407
▁श्रीगंगानगर	-11.0407
▁चूंकि	-11.0407
▁सीएचसी	-11.0407
▁डेयरी	-11.0407
▁क्वालिटी	-11.0479
▁ट्रांसफार्मर	-11.0479
▁बंटवारे	-11.0479
▁सुपरस्टार	-11.0479
▁इशारा	-11.0479
▁पैलेस	-11.0479
▁रनौत	-11.0479
▁इसीलिए	-11.0479
▁गूंज	-11.048
लक्ष्मी	-11.0526
▁आयुर्वेद	-11.0551
▁घोटाला	-11.0551
▁तत्वावधान	-11.0551
▁निदेशालय	-11.0551
▁प्रदर्शित	-11.0551
▁सिलसिले	-11.0551
▁स्ट्राइक	-11.0551
▁कुत्ते	-11.0552
▁पक्क	-11.0608
▁निस्तारण	-11.0624
▁पौधारोपण	-11.0624
▁प्रताड़ित	-11.0624
▁सौभाग्य	-11.0624
▁पुण्य	-11.0625
▁भेदभाव	-11.0698
▁मॉनिटरिंग	-11.0698
▁IAS	-11.0698
▁नर्मदा	-11.0698
▁झगड़े	-11.0698
▁इलेक्शन	-11.0698
▁फैशन	-11.0698
▁कागजात	-11.0698
▁पंचांग	-11.0698
▁दबोच	-11.0698
▁व्यस्त	-11.0698
▁समृद्ध	-11.0698
▁पठान	-11.0698
▁आवेदक	-11.0699
▁मुहै	-11.0752
▁इजाफा	-11.0772
▁कटिहार	-11.0772
▁बैतूल	-11.0772
▁मेहमान	-11.0772
▁कैमरों	-11.0772
▁उलझ	-11.0777
▁दूसर	-11.082
▁आकर्षित	-11.0847
▁गणतंत्र	-11.0847
▁परिचालन	-11.0847
▁प्लाजा	-11.0847
▁महिंद्रा	-11.0847
▁हृदय	-11.0847
▁शिक्षिका	-11.0847
▁अवधेश	-11.0847
▁आमंत्रित	-11.0847
▁भैंस	-11.0847
▁पैकेज	-11.0847
▁बैटिंग	-11.0847
▁शाहिद	-11.0847
▁फुटबॉल	-11.0922
▁बर्दाश्	-11.0922
▁बिट्टू	-11.0922
▁सिद्धांत	-11.0922
▁चचेर	-11.0922
▁विवरण	-11.0922
दौलत	-11.0922
▁फरियाद	-11.0925
▁आंगनबाड़ी	-11.0997
▁एसडीपीओ	-11.0997
▁ठिकानों	-11.0997
▁द्विवेदी	-11.0997
▁प्रदेशाध्यक्ष	-11.0997
▁जेडीयू	-11.0997
▁ड्रॉ	-11.0997
▁आयोजक	-11.0998
▁राज्यमंत्री	-11.0998
▁माहेश्वरी	-11.0998
▁बिल्डर	-11.0999
▁आशुतोष	-11.1074
_	-11.1543
ऐ	-11.1681
औ	-11.2894
^	-11.3392
°	-11.4302
ॐ	-11.4382
०	-11.4624
q	-11.5071
*	-11.5781
}	-11.7519
@	-11.8277
ऱ	-11.8761
ङ	-11.9624
=	-12.1833
&	-12.2292
ऽ	-12.3024
#	-12.4378
া	-12.5943
ञ	-12.74
ে	-12.9106
র	-12.9582
]	-13.0609
ळ	-13.1164
ऩ	-13.1752
🌟	-13.2377
️	-13.2377
॰	-13.3044
ক	-13.3758
२	-13.5361
্	-13.627
\	-13.627
క	-13.727
ি	-13.727
ి	-13.727
{	-13.8355
్	-13.8381
ు	-13.8381
×	-13.8381
ా	-13.8381
ত	-13.8381
ల	-13.9631
●	-14.106
ব	-14.106
ম	-14.106
ট	-14.2726
>	-14.2726
३	-14.2726
४	-14.2726
ర	-14.2726
ো	-14.2726
প	-14.4726
१	-14.4726
ం	-14.4726
[	-14.4726
ল	-14.4726
ু	-14.4726
ీ	-14.7226
९	-14.7226
চ	-14.7226
স	-14.7226
য	-14.7226
గ	-14.7226
ట	-14.7226
ষ	-14.7226
స	-15.056
দ	-15.056
ধ	-15.056
ॊ	-15.056
త	-15.056
న	-15.056
⏱	-15.056
⚠	-15.056
🪐	-15.056
ড	-15.056
డ	-15.556
ూ	-15.556
ె	-15.556
ॆ	-15.556
ঁ	-15.556
আ	-15.556
ও	-15.556
়	-15.556
ী	-15.556
శ	-15.556
⁄	-15.556
☀	-15.556
♑	-15.556
♒	-15.556
🌙	-15.556
🔵	-15.556
♓	-16.5532
♐	-16.5533
♏	-16.5534
ప	-16.5535
খ	-16.5536
ই	-16.5537
ॠ	-16.5538
£	-16.5539
🇳	-16.554
🇮	-16.5541
⭐	-16.5542
♍	-16.5543
వ	-16.5544
ছ	-16.5545
♈	-16.5546
এ	-16.5547
~	-16.5548
🕐	-16.5549
చ	-16.555
জ	-16.5551
­	-16.5552
ন	-16.5553
⁠	-16.5554
➤	-16.5555
̈	-16.5556
🔴	-16.5557
$	-16.5558
❓	-16.5559
🤔	-16.5559
•	-16.5559
ઢ	-16.5559
ొ	-16.5559
	-16.556
·	-16.556
ï	-16.556
ऍ	-16.556
॑	-16.556
५	-16.556
६	-16.556
८	-16.556
অ	-16.556
ঘ	-16.556
ণ	-16.556
ఇ	-16.556
ఛ	-16.556
జ	-16.556
ణ	-16.556
ద	-16.556
ఫ	-16.556
బ	-16.556
భ	-16.556
ే	-16.556
ో	-16.556
‛	-16.556
€	-16.556
⏩	-16.556
▪	-16.556
○	-16.556
♉	-16.556
♊	-16.556
♋	-16.556
♌	-16.556
⚫	-16.556
❗	-16.556
🌅	-16.556
🎉	-16.556
🏅	-16.556
🏹	-16.556
🐉	-16.556
💫	-16.556
🗓	-16.556
😉	-16.556
😎	-16.556
😜	-16.556
😸	-16.556
🤩	-16.556
🦌	-16.556
🧭	-16.556
♦	-16.556
థ	-16.556
(	-16.556
ঠ	-16.556
