<unk>	0
<s>	0
</s>	0
▁क	-0
▁स	-1
▁म	-2
▁प	-3
▁ह	-4
ार	-5
ें	-6
▁ब	-7
▁न	-8
▁के	-9
्र	-10
या	-11
▁ज	-12
▁र	-13
▁द	-14
▁में	-15
▁है	-16
▁ल	-17
▁व	-18
▁अ	-19
▁की	-20
ान	-21
ों	-22
▁ग	-23
▁को	-24
र्	-25
▁से	-26
ने	-27
▁आ	-28
▁कि	-29
ता	-30
▁ने	-31
▁का	-32
▁भ	-33
▁इ	-34
▁कर	-35
▁उ	-36
▁त	-37
▁पर	-38
ाल	-39
▁श	-40
िक	-41
्य	-42
ना	-43
िल	-44
▁च	-45
▁औ	-46
▁और	-47
स्	-48
▁थ	-49
▁ए	-50
▁प्र	-51
क्	-52
ड़	-53
ां	-54
▁इस	-55
ाम	-56
ही	-57
▁हो	-58
िया	-59
ित	-60
▁य	-61
वा	-62
▁बा	-63
हा	-64
ला	-65
▁हैं	-66
के	-67
▁फ	-68
कर	-69
िय	-70
िए	-71
▁ख	-72
िस	-73
ुर	-74
ंग	-75
▁भी	-76
ले	-77
▁वि	-78
▁स्	-79
▁,	-80
ते	-81
▁रा	-82
त्र	-83
ेश	-84
▁जा	-85
▁ट	-86
िन	-87
ारी	-88
▁ड	-89
री	-90
हीं	-91
▁उन	-92
▁सा	-93
ती	-94
▁हु	-95
▁1	-96
रा	-97
ुल	-98
्या	-99
▁किया	-100
▁2	-101
ति	-102
▁लिए	-103
▁ले	-104
वार	-105
नी	-106
▁सं	-107
▁एक	-108
से	-109
सी	-110
गा	-111
▁गया	-112
▁पह	-113
ंद	-114
▁सम	-115
▁घ	-116
क्ष	-117
▁दे	-118
▁नहीं	-119
ोग	-120
▁था	-121
▁रह	-122
ाय	-123
▁कार	-124
▁नि	-125
▁अप	-126
▁मु	-127
िला	-128
▁सि	-129
▁ही	-130
ली	-131
▁बाद	-132
का	-133
्ट	-134
की	-135
ियों	-136
ाने	-137
त्	-138
ास	-139
ंड	-140
्ह	-141
▁पुल	-142
भा	-143
▁साथ	-144
पी	-145
िर	-146
▁यह	-147
▁पुलिस	-148
▁गई	-149
▁पू	-150
मा	-151
▁कु	-152
▁बता	-153
▁कहा	-154
्म	-155
▁सु	-156
▁करने	-157
गी	-158
ढ़	-159
ेट	-160
▁उन्ह	-161
▁सी	-162
▁राज	-163
▁अध	-164
▁दो	-165
▁तो	-166
▁रहे	-167
ंच	-168
दी	-169
▁थी	-170
▁वाल	-171
▁दिया	-172
▁उस	-173
रो	-174
्री	-175
▁लोग	-176
▁छ	-177
टर	-178
ाना	-179
ौर	-180
▁मह	-181
▁अन	-182
रे	-183
ाइ	-184
▁ध	-185
▁तक	-186
▁रहा	-187
▁दी	-188
▁बताया	-189
स्ट	-190
्रे	-191
दा	-192
▁चु	-193
देश	-194
कार	-195
में	-196
्ष	-197
भी	-198
▁मौ	-199
▁हुए	-200
▁मिल	-201
ाज	-202
▁या	-203
पुर	-204
गे	-205
गर	-206
िश	-207
▁20	-208
ाह	-209
ाई	-210
वी	-211
्त	-212
▁सिं	-213
▁रही	-214
▁थे	-215
▁बी	-216
ंत्र	-217
▁बार	-218
ल्	-219
ोज	-220
कि	-221
▁जिस	-222
ानी	-223
▁सिंह	-224
सा	-225
िव	-226
टी	-227
मार	-228
ओं	-229
ोंने	-230
▁3	-231
जा	-232
नों	-233
हर	-234
ेल	-235
बर	-236
ार्	-237
▁सर	-238
शन	-239
जी	-240
वि	-241
▁(	-242
▁गए	-243
▁उन्होंने	-244
▁वह	-245
ड़ी	-246
र्ट	-247
▁जो	-248
मी	-249
▁मो	-250
स्थ	-251
▁जाए	-252
▁ला	-253
▁पहु	-254
▁आरो	-255
पा	-256
▁पहुंच	-257
स्त	-258
िंग	-259
▁लेकर	-260
▁दिन	-261
▁लगा	-262
जे	-263
▁पहले	-264
ुप	-265
▁स्थ	-266
ड़ा	-267
द्र	-268
▁इसके	-269
द्	-270
च्	-271
▁अधिक	-272
▁लोगों	-273
▁माम	-274
▁भार	-275
▁मे	-276
▁कार्य	-277
▁-	-278
▁मै	-279
▁पी	-280
▁अपने	-281
▁हुई	-282
क्र	-283
किन	-284
▁टी	-285
्व	-286
▁लेकिन	-287
▁5	-288
▁बै	-289
▁सो	-290
ंत्री	-291
▁जब	-292
▁परि	-293
▁जी	-294
▁दौर	-295
▁साल	-296
▁4	-297
▁हम	-298
▁इन	-299
र्म	-300
▁गां	-301
▁जान	-302
ोट	-303
▁होने	-304
ोक	-305
▁वाले	-306
र्व	-307
▁ओ	-308
▁सक	-309
▁क्ष	-310
▁दौरान	-311
ांच	-312
▁वर्	-313
▁अब	-314
ंध	-315
खा	-316
ंप	-317
▁बि	-318
ंट	-319
तर	-320
नाव	-321
▁हुआ	-322
▁पा	-323
र्ज	-324
▁ऐ	-325
▁कम	-326
▁कै	-327
▁बना	-328
▁साम	-329
्स	-330
▁पार	-331
▁स्ट	-332
▁घर	-333
ष्ट	-334
▁तर	-335
▁निर्	-336
▁बात	-337
ीन	-338
▁पि	-339
▁मां	-340
▁शिक	-341
ूल	-342
▁यु	-343
ेत्र	-344
धान	-345
्रेस	-346
▁सरकार	-347
▁'	-348
मान	-349
▁उप	-350
▁शुर	-351
▁दू	-352
▁शाम	-353
ाप	-354
न्	-355
▁रुप	-356
कारी	-357
▁करते	-358
▁ऑ	-359
ड़े	-360
ेज	-361
▁हर	-362
▁क्षेत्र	-363
▁आय	-364
च्च	-365
टना	-366
▁कुमार	-367
ेंद्र	-368
▁ये	-369
▁रू	-370
▁चुनाव	-371
ोर	-372
िप	-373
बा	-374
▁आप	-375
▁।	-376
▁अं	-377
▁महिला	-378
एम	-379
▁सू	-380
▁जन	-381
▁डॉ	-382
▁लिया	-383
▁काम	-384
▁सभी	-385
डी	-386
वं	-387
▁कह	-388
00	-389
▁कुछ	-390
▁बन	-391
क्षा	-392
क्ट	-393
ून	-394
्ल	-395
वर	-396
क्त	-397
▁रो	-398
▁दु	-399
▁कई	-400
कों	-401
स्प	-402
िट	-403
▁चल	-404
्टी	-405
वाल	-406
▁202	-407
▁बढ़	-408
▁मुख	-409
वाई	-410
▁मा	-411
जार	-412
▁लग	-413
▁पास	-414
▁सब	-415
▁गांव	-416
क्टर	-417
▁ग्र	-418
▁थाना	-419
▁अनु	-420
वे	-421
▁द्	-422
▁6	-423
▁वे	-424
▁कॉ	-425
▁ता	-426
ोल	-427
सभा	-428
वारा	-429
▁गिर	-430
▁प्रति	-431
▁झ	-432
▁भारत	-433
▁बे	-434
▁"	-435
▁ना	-436
▁टीम	-437
िम	-438
सर	-439
▁उनके	-440
▁जु	-441
जन	-442
भाग	-443
ष्	-444
▁भा	-445
▁मामले	-446
▁कोई	-447
बी	-448
ेंगे	-449
▁चौ	-450
▁बह	-451
चार	-452
▁नाम	-453
▁सह	-454
▁व्य	-455
▁कांग	-456
▁ट्र	-457
एस	-458
▁दर्ज	-459
▁विश	-460
▁द्वारा	-461
▁आरोप	-462
▁हा	-463
ोड़	-464
्यक्ष	-465
बंध	-466
▁देख	-467
▁अपनी	-468
▁कांग्रेस	-469
ीड	-470
▁शुरू	-471
▁बच्च	-472
▁हि	-473
▁समय	-474
िका	-475
▁हाल	-476
शी	-477
▁वहीं	-478
▁उन्हें	-479
▁खिला	-480
▁घटना	-481
▁7	-482
्यू	-483
▁राम	-484
▁गो	-485
द्ध	-486
▁यहां	-487
▁दोनों	-488
▁निक	-489
▁जिल	-490
▁बु	-491
▁विक	-492
▁ठ	-493
णा	-494
▁अभ	-495
ोर्ट	-496
▁चाह	-497
▁स्क	-498
▁जिला	-499
▁एस	-500
▁बजे	-501
ृत	-502
▁जै	-503
▁रुपए	-504
यर	-505
ताल	-506
▁आज	-507
ारा	-508
र्स	-509
▁आई	-510
▁फिल	-511
▁अव	-512
▁अम	-513
▁जांच	-514
▁10	-515
ंबर	-516
▁इं	-517
▁रूप	-518
▁विभाग	-519
▁किसी	-520
ूर	-521
▁देश	-522
▁मुख्य	-523
▁पै	-524
▁रख	-525
ेर	-526
▁तरह	-527
▁नगर	-528
▁आरोपी	-529
फ्त	-530
मंत्री	-531
▁बीच	-532
▁उसके	-533
ायत	-534
▁युव	-535
▁8	-536
्यों	-537
▁जानकारी	-538
▁गु	-539
▁अग	-540
▁प्रदेश	-541
ंक	-542
क्स	-543
▁दि	-544
▁दिल	-545
▁लाख	-546
दार	-547
▁:	-548
्न	-549
▁स्थित	-550
▁शामिल	-551
जू	-552
त्या	-553
▁लोक	-554
..	-555
▁एवं	-556
चना	-557
लय	-558
▁बद	-559
▁दूस	-560
▁भाज	-561
▁पु	-562
▁फिर	-563
▁अस्प	-564
चा	-565
▁बैठ	-566
▁होगा	-567
▁अस्पताल	-568
▁नी	-569
▁करी	-570
▁खु	-571
▁भाजपा	-572
▁जाएगा	-573
▁डि	-574
जर	-575
▁छा	-576
▁9	-577
▁किए	-578
ाली	-579
▁उसे	-580
▁पुर	-581
वन	-582
▁तै	-583
▁इला	-584
र्ड	-585
ेंट	-586
▁रे	-587
▁बेट	-588
ेशन	-589
सान	-590
▁जारी	-591
▁खिलाफ	-592
▁कारण	-593
क्रम	-594
ंस	-595
आई	-596
वासी	-597
▁जिले	-598
▁जाने	-599
▁पार्टी	-600
्यादा	-601
्मी	-602
▁सुर	-603
▁उत्	-604
एं	-605
▁पूर्व	-606
दान	-607
▁अन्य	-608
▁ली	-609
▁डी	-610
▁मान	-611
ांस	-612
पर	-613
▁शु	-614
▁रात	-615
▁याद	-616
▁मैं	-617
▁मंद	-618
धार	-619
ियां	-620
▁मार	-621
▁करीब	-622
हत	-623
▁उनकी	-624
्ला	-625
▁उम	-626
▁वो	-627
▁आयोज	-628
ज्	-629
▁वाली	-630
वान	-631
▁बो	-632
▁ई	-633
▁सद	-634
फी	-635
▁नेता	-636
क्ति	-637
टा	-638
▁ज्यादा	-639
▁अल	-640
▁सीट	-641
▁परिवार	-642
धी	-643
▁गिरफ्त	-644
▁अध्यक्ष	-645
▁मंत्री	-646
र्थ	-647
▁फै	-648
बह	-649
▁मौके	-650
▁आए	-651
▁राज्य	-652
▁वर्ष	-653
▁ओर	-654
▁मंदिर	-655
सार	-656
तीय	-657
▁करना	-658
हार	-659
▁कार्र	-660
त्रा	-661
▁जाता	-662
▁फिल्म	-663
▁लि	-664
्यालय	-665
▁कार्रवाई	-666
▁मौत	-667
▁प्रश	-668
▁शा	-669
▁तीन	-670
▁शहर	-671
ुत	-672
▁हजार	-673
ाला	-674
▁सामने	-675
ामी	-676
▁सुबह	-677
▁कार्यक्रम	-678
पाल	-679
िता	-680
▁गुर	-681
▁स्कूल	-682
्ली	-683
गत	-684
▁श्री	-685
लो	-686
ाया	-687
▁मांग	-688
▁विध	-689
▁जह	-690
्रीय	-691
जय	-692
▁सबसे	-693
▁आद	-694
▁देने	-695
को	-696
▁शिक्ष	-697
▁आर	-698
▁पिछ	-699
▁महा	-700
▁12	-701
नि	-702
▁मार्	-703
▁क्या	-704
▁करोड़	-705
▁निवासी	-706
गढ़	-707
▁यादव	-708
▁इसी	-709
्ड	-710
▁पानी	-711
▁पो	-712
ब्	-713
▁सूचना	-714
▁जग	-715
र्मा	-716
कान	-717
▁युवक	-718
ूम	-719
ियो	-720
▁यू	-721
▁जहां	-722
▁लड़	-723
ायल	-724
वास	-725
▁ऐसे	-726
▁बारिश	-727
जूद	-728
ेत	-729
▁क्र	-730
▁मन	-731
भाव	-732
▁दिए	-733
ेड	-734
ध्य	-735
▁कंप	-736
▁शिकायत	-737
▁जर	-738
▁आने	-739
▁पहुंचे	-740
▁होगी	-741
▁जिसमें	-742
ंत	-743
▁इसमें	-744
ोन	-745
▁आया	-746
▁गिरफ्तार	-747
स्था	-748
तार	-749
ंगल	-750
ूं	-751
ूर्	-752
ारियों	-753
▁अधिकारी	-754
▁सड़	-755
दे	-756
▁ती	-757
▁इससे	-758
▁तैय	-759
ंब	-760
▁दा	-761
▁मिली	-762
र्शन	-763
▁2024	-764
ासन	-765
ोष	-766
▁)	-767
▁मत	-768
ैन	-769
▁19	-770
ंदर	-771
▁भारतीय	-772
▁जय	-773
▁दिल्ली	-774
▁पद	-775
श्	-776
▁मोदी	-777
▁अनुसार	-778
▁रहने	-779
ायर	-780
▁कोर्ट	-781
धिक	-782
▁शर्मा	-783
▁15	-784
ोजना	-785
▁राष्ट	-786
धा	-787
▁शिव	-788
ंज	-789
▁आग	-790
▁सकता	-791
▁प्रा	-792
ायक	-793
▁पढ़	-794
▁बर	-795
▁11	-796
ियर	-797
▁चाहिए	-798
प्	-799
▁लोकसभा	-800
▁रिप	-801
▁जिन	-802
च्छ	-803
वाद	-804
▁बाहर	-805
्रा	-806
ेंस	-807
त्व	-808
▁चला	-809
▁वहां	-810
▁शव	-811
▁गुरु	-812
रण	-813
सम	-814
▁स्व	-815
▁संबंध	-816
▁कप	-817
▁पत्	-818
ये	-819
ंगे	-820
▁मी	-821
▁निय	-822
▁पिछले	-823
▁कर्म	-824
▁किसान	-825
ूट	-826
मेंट	-827
▁मामला	-828
▁पूरी	-829
▁मिले	-830
▁उसकी	-831
ेम	-832
वल	-833
ाइन	-834
▁क्यों	-835
प्र	-836
▁चे	-837
इक	-838
र्फ	-839
▁बंद	-840
▁चार	-841
▁परी	-842
▁वा	-843
सल	-844
▁गा	-845
▁मिला	-846
▁विधान	-847
▁पं	-848
ज्ञ	-849
▁दर	-850
▁मोह	-851
▁प्रधान	-852
▁प्रद	-853
▁इंड	-854
▁ट्रे	-855
▁एम	-856
कर्	-857
▁201	-858
▁जीत	-859
▁ऑफ	-860
▁आगे	-861
▁काफी	-862
▁उठ	-863
स्थान	-864
▁केंद्र	-865
▁रिपोर्ट	-866
द्य	-867
▁सहित	-868
▁रवि	-869
▁बड़ी	-870
▁करें	-871
माण	-872
▁स्वा	-873
आर	-874
▁समाज	-875
▁बस	-876
िज	-877
▁जाएगी	-878
ख्या	-879
चान	-880
▁जबकि	-881
▁घायल	-882
▁मृत	-883
▁प्रत	-884
▁टे	-885
▁रोड	-886
▁एन	-887
▁सड़क	-888
▁बहुत	-889
ेष	-890
▁अला	-891
▁मही	-892
▁हालां	-893
▁विकास	-894
ांड	-895
मु	-896
▁हालांकि	-897
▁पड़	-898
▁S	-899
▁संग	-900
▁सदस	-901
▁अभी	-902
योग	-903
ताब	-904
▁वीड	-905
ोह	-906
था	-907
▁हत्या	-908
▁मुख्यमंत्री	-909
▁घंट	-910
▁होता	-911
▁बां	-912
▁छात्र	-913
त्म	-914
▁अपना	-915
▁सफ	-916
▁बैठक	-917
बाद	-918
ोध	-919
▁मौजूद	-920
▁विधानसभा	-921
▁तहत	-922
राब	-923
▁जिसके	-924
▁बच्चों	-925
▁मीड	-926
ुक्त	-927
जह	-928
ाइल	-929
▁व्यव	-930
▁वीडियो	-931
▁योजना	-932
▁पिता	-933
▁कुल	-934
▁निर्देश	-935
▁उसने	-936
▁बारे	-937
▁स्प	-938
▁सुन	-939
ेंद	-940
दन	-941
ुक	-942
▁बाइक	-943
▁सकते	-944
बू	-945
▁उम्मी	-946
▁उम्मीद	-947
क्षण	-948
▁अलावा	-949
▁विधायक	-950
▁उनका	-951
▁बॉ	-952
▁मीडिया	-953
ग्री	-954
गम	-955
▁भग	-956
▁जगह	-957
▁वै	-958
▁वाह	-959
▁मज	-960
ुआ	-961
▁खा	-962
▁पता	-963
ची	-964
ंगा	-965
▁ब्र	-966
▁पूछ	-967
▁अगर	-968
▁अलग	-969
▁0	-970
▁कंपनी	-971
▁कहना	-972
▁भाग	-973
लों	-974
▁परीक्षा	-975
▁वजह	-976
▁प्रभ	-977
▁पोस्ट	-978
▁इसे	-979
▁संख्या	-980
▁पत्नी	-981
▁आरोपियों	-982
▁शादी	-983
▁सोम	-984
लेज	-985
ोरी	-986
▁सुरक्षा	-987
▁मंगल	-988
▁आम	-989
▁जल	-990
▁शे	-991
▁कृ	-992
▁दूसरे	-993
ष्ठ	-994
▁फी	-995
ार्थ	-996
▁कल	-997
▁पंच	-998
▁आस	-999
तम	-1000
▁दिनों	-1001
▁लाल	-1002
▁रेल	-1003
▁फर	-1004
वरी	-1005
▁हाथ	-1006
▁तब	-1007
ेंड	-1008
▁A	-1009
▁दिख	-1010
▁सांस	-1011
▁अधिकारियों	-1012
▁C	-1013
ामीण	-1014
▁प्रशासन	-1015
▁पक	-1016
▁ग्रामीण	-1017
▁तेज	-1018
▁वोट	-1019
खंड	-1020
झे	-1021
▁तरफ	-1022
▁भाई	-1023
▁लगे	-1024
▁मुताब	-1025
▁व्यक्ति	-1026
शल	-1027
▁हरिया	-1028
▁करता	-1029
ताओं	-1030
▁मुताबिक	-1031
▁पूरा	-1032
▁आधार	-1033
▁करेंगे	-1034
▁ढ	-1035
▁पत्र	-1036
स्ता	-1037
▁होती	-1038
जेपी	-1039
▁मंड	-1040
▁भर	-1041
▁सच	-1042
▁बिज	-1043
▁दुकान	-1044
▁जैसे	-1045
▁महीने	-1046
णी	-1047
चाल	-1048
▁योग	-1049
▁हों	-1050
काल	-1051
▁ों	-1052
▁आयोजन	-1053
▁जे	-1054
▁गं	-1055
▁राय	-1056
क्शन	-1057
▁पहुंची	-1058
▁बनाने	-1059
▁घंटे	-1060
▁नार	-1061
चित	-1062
▁थाने	-1063
▁पे	-1064
▁कान	-1065
▁वाला	-1066
▁ऐसा	-1067
▁25	-1068
▁अर	-1069
▁दिव	-1070
▁प्रो	-1071
an	-1072
▁नंबर	-1073
▁न्या	-1074
▁रन	-1075
▁बीजेपी	-1076
▁विशेष	-1077
िकल	-1078
▁हरियाणा	-1079
र्य	-1080
▁सै	-1081
तन	-1082
▁चंद	-1083
▁नजर	-1084
▁साह	-1085
ुट	-1086
राज	-1087
शा	-1088
▁ऊ	-1089
▁एक्स	-1090
▁पीड़	-1091
▁लगातार	-1092
र्चा	-1093
▁सम्म	-1094
▁पूरे	-1095
▁जिससे	-1096
▁निर्माण	-1097
▁डॉक्टर	-1098
▁सोमवार	-1099
▁माल	-1100
▁कॉलेज	-1101
वेश	-1102
▁खेल	-1103
▁सीएम	-1104
िति	-1105
▁इसकी	-1106
द्यालय	-1107
▁बाल	-1108
▁राह	-1109
िफ	-1110
▁हाई	-1111
▁सांसद	-1112
▁श्र	-1113
लिए	-1114
लाई	-1115
▁जून	-1116
▁इंद	-1117
▁शनि	-1118
ीय	-1119
▁सकती	-1120
▁घोष	-1121
▁तैयार	-1122
▁डे	-1123
तिक	-1124
▁विश्व	-1125
र्क	-1126
▁लगाया	-1127
▁पहली	-1128
▁सेवा	-1129
▁गर्	-1130
▁निगम	-1131
▁हाद	-1132
▁मिलने	-1133
भीर	-1134
िटी	-1135
▁सौ	-1136
रीज	-1137
दीप	-1138
▁कले	-1139
▁30	-1140
जनों	-1141
ार्ड	-1142
▁केस	-1143
▁पट	-1144
▁इसका	-1145
▁बिहार	-1146
▁हूं	-1147
स्ते	-1148
र्ती	-1149
▁भगवान	-1150
▁मंगलवार	-1151
▁गंभीर	-1152
▁आदि	-1153
▁जमी	-1154
▁प्रधानमंत्री	-1155
▁ड्र	-1156
▁कराया	-1157
स्क	-1158
▁बुध	-1159
▁प्रदर्शन	-1160
▁P	-1161
▁14	-1162
र्च	-1163
▁डिग्री	-1164
▁नर	-1165
▁सर्व	-1166
▁पांच	-1167
ियन	-1168
▁13	-1169
▁देते	-1170
▁शुक्र	-1171
▁इसलिए	-1172
▁गांधी	-1173
▁पंजा	-1174
▁मैच	-1175
▁अफ	-1176
▁बड़ा	-1177
▁विरो	-1178
पति	-1179
▁वी	-1180
▁व्या	-1181
टे	-1182
▁समझ	-1183
िस्ट	-1184
▁मुझे	-1185
शत	-1186
ियान	-1187
▁प्रया	-1188
बल	-1189
▁मद	-1190
▁बड़े	-1191
▁हिस्	-1192
▁भे	-1193
▁बनाया	-1194
▁खान	-1195
▁व्यवस्था	-1196
▁पति	-1197
▁सवाल	-1198
▁शनिवार	-1199
▁शिक्षा	-1200
▁नई	-1201
▁देव	-1202
▁नए	-1203
▁करे	-1204
▁हमार	-1205
▁इलाज	-1206
▁रविवार	-1207
वीर	-1208
ग्	-1209
▁ा	-1210
स्तान	-1211
▁जवा	-1212
▁वाप	-1213
▁माह	-1214
▁जल्	-1215
▁लगी	-1216
▁बज	-1217
यान	-1218
▁जाती	-1219
▁राजनी	-1220
▁बुधवार	-1221
्ले	-1222
ात	-1223
▁ट्रेन	-1224
▁संचाल	-1225
▁शुक्रवार	-1226
ष्ण	-1227
ल्ड	-1228
▁ताप	-1229
▁एक्ट	-1230
▁जेल	-1231
...	-1232
▁प्रभारी	-1233
▁नौ	-1234
म्	-1235
स्या	-1236
▁रुपये	-1237
▁खे	-1238
ज़	-1239
▁मेड	-1240
▁18	-1241
▁पूजा	-1242
इन	-1243
षण	-1244
▁आयोजित	-1245
▁अच्छ	-1246
ॉल	-1247
निया	-1248
▁परेश	-1249
पास	-1250
▁राजस्थान	-1251
करण	-1252
▁खुद	-1253
▁पक्ष	-1254
▁तापमान	-1255
▁B	-1256
ैल	-1257
▁पहचान	-1258
▁समेत	-1259
काश	-1260
▁बच	-1261
▁अति	-1262
▁आदेश	-1263
▁सदस्य	-1264
▁बिजली	-1265
▁उसका	-1266
मुख	-1267
▁बल	-1268
▁परिजनों	-1269
▁स्थिति	-1270
▁सामान	-1271
▁भर्ती	-1272
▁16	-1273
▁पाल	-1274
▁हिंद	-1275
▁ी	-1276
▁24	-1277
▁वन	-1278
▁दल	-1279
▁स्थान	-1280
ाप्त	-1281
▁मौसम	-1282
▁पंजाब	-1283
▁लेने	-1284
▁गुरुवार	-1285
िश्	-1286
▁खरी	-1287
▁50	-1288
ांत	-1289
▁दें	-1290
▁सित	-1291
बाज	-1292
ैंड	-1293
बंधन	-1294
▁विभ	-1295
▁शुरुआ	-1296
ुम	-1297
▁वार	-1298
▁देर	-1299
▁जमीन	-1300
▁राहुल	-1301
▁इत	-1302
▁फोन	-1303
▁होते	-1304
▁मध्य	-1305
▁बेह	-1306
▁तस्	-1307
▁यात्रा	-1308
▁बच्चे	-1309
▁सरकारी	-1310
▁दोप	-1311
िन्न	-1312
▁होकर	-1313
▁बनाए	-1314
▁करवा	-1315
▁I	-1316
▁जनता	-1317
▁गै	-1318
▁छोड़	-1319
▁जुलाई	-1320
▁कट	-1321
▁संप	-1322
▁बेटे	-1323
▁बाजार	-1324
र्श	-1325
▁लॉ	-1326
▁गठ	-1327
▁चाल	-1328
दारी	-1329
▁बल्	-1330
▁राष्ट्रीय	-1331
▁चलते	-1332
िरा	-1333
्वर	-1334
▁रोक	-1335
▁चोरी	-1336
न्द्र	-1337
▁रखा	-1338
नाथ	-1339
ारे	-1340
▁जम	-1341
▁17	-1342
▁क्योंकि	-1343
थम	-1344
▁थीं	-1345
▁भेज	-1346
त्री	-1347
▁?	-1348
▁चुके	-1349
▁M	-1350
▁मि	-1351
▁बेटी	-1352
▁हमला	-1353
▁तला	-1354
▁विभिन्न	-1355
▁N	-1356
▁दोपहर	-1357
▁दूसरी	-1358
▁सोशल	-1359
▁अगस्त	-1360
▁मोब	-1361
▁चर्चा	-1362
▁वित	-1363
ेक	-1364
▁प्रतिशत	-1365
▁अभियान	-1366
▁युवा	-1367
स्थ्य	-1368
▁यून	-1369
▁पूर्	-1370
▁पीछ	-1371
▁विरोध	-1372
▁अह	-1373
भग	-1374
▁मदद	-1375
▁महिलाओं	-1376
▁बने	-1377
▁तथा	-1378
फर	-1379
▁बैंक	-1380
▁भो	-1381
▁अमेर	-1382
▁स्वास्थ्य	-1383
शि	-1384
▁समस्या	-1385
▁लाइ	-1386
▁बयान	-1387
▁दीप	-1388
▁ट्रै	-1389
▁अवसर	-1390
ाट	-1391
▁ची	-1392
स्ती	-1393
▁सिर्फ	-1394
▁रेलवे	-1395
ाक	-1396
▁पेश	-1397
▁समिति	-1398
▁होंगे	-1399
्‍	-1400
श्य	-1401
▁ग्राम	-1402
▁सचिव	-1403
▁फैस	-1404
ध्यक्ष	-1405
ुन	-1406
▁प्रयास	-1407
▁चुकी	-1408
▁मोबाइल	-1409
ग्र	-1410
▁अपरा	-1411
करी	-1412
क्षक	-1413
पूर्	-1414
्रम	-1415
▁वाहन	-1416
▁मृतक	-1417
वेदन	-1418
ानीय	-1419
▁जयपुर	-1420
▁देवी	-1421
▁.	-1422
हरा	-1423
▁रिक	-1424
▁स्थानीय	-1425
▁अश	-1426
▁जाते	-1427
▁दुर्	-1428
ॉप	-1429
▁मना	-1430
वाह	-1431
▁विवाद	-1432
▁जवाब	-1433
▁पाकि	-1434
▁सम्मान	-1435
ूप	-1436
▁सके	-1437
पीट	-1438
▁प्रमुख	-1439
चे	-1440
▁मिश	-1441
धि	-1442
ल्प	-1443
▁जल्द	-1444
▁उम्मीदवार	-1445
जीत	-1446
िंद	-1447
▁मिन	-1448
▁शाह	-1449
▁देखा	-1450
▁अभि	-1451
▁इंटर	-1452
▁200	-1453
▁करती	-1454
▁साइ	-1455
न्न	-1456
▁संत	-1457
▁जैन	-1458
▁दिस	-1459
▁लगभग	-1460
▁करा	-1461
ियम	-1462
▁बिल	-1463
▁इलाके	-1464
▁दूर	-1465
▁भूम	-1466
ूबर	-1467
▁अवै	-1468
▁कार्यकर्	-1469
▁गाड़ी	-1470
ar	-1471
▁22	-1472
मत	-1473
▁मेरे	-1474
▁स्तर	-1475
▁सवार	-1476
▁अवैध	-1477
▁माध्य	-1478
▁किसानों	-1479
▁ते	-1480
▁R	-1481
▁माध्यम	-1482
रिक	-1483
▁वापस	-1484
अल	-1485
▁महत्व	-1486
▁पंचायत	-1487
▁संघ	-1488
यू	-1489
▁कौ	-1490
▁मई	-1491
▁उत्तर	-1492
्यान	-1493
▁एड	-1494
ंभ	-1495
धिकारी	-1496
▁पीएम	-1497
▁वालों	-1498
▁लौ	-1499
▁बराम	-1500
▁शराब	-1501
▁शेयर	-1502
▁अंदर	-1503
▁जीवन	-1504
▁इंडिया	-1505
▁मंत्र	-1506
शिश	-1507
शनल	-1508
बे	-1509
▁हॉ	-1510
▁पीड़ित	-1511
▁राष्ट्र	-1512
▁विजय	-1513
▁धर्म	-1514
▁संगठ	-1515
▁वर	-1516
ोद	-1517
जाम	-1518
▁सितंबर	-1519
ूड	-1520
▁कोशिश	-1521
हाय	-1522
चर	-1523
▁बरामद	-1524
▁कहते	-1525
ठी	-1526
▁प्रभाव	-1527
ालय	-1528
केश	-1529
▁शुरुआत	-1530
▁मारपीट	-1531
पक्ष	-1532
▁पुत्र	-1533
▁गल	-1534
▁समर्थ	-1535
डा	-1536
सू	-1537
क्टूबर	-1538
्क	-1539
▁बढ़ा	-1540
हन	-1541
▁आव	-1542
▁इम	-1543
▁तीस	-1544
टल	-1545
पूर्ण	-1546
▁अक्टूबर	-1547
▁जरूर	-1548
▁गण	-1549
▁कलेक्टर	-1550
▁नोट	-1551
▁सें	-1552
▁इंदौर	-1553
▁हमारे	-1554
▁सां	-1555
स्ताव	-1556
▁निकल	-1557
▁मार्ग	-1558
एल	-1559
माश	-1560
क्कर	-1561
▁दिसंबर	-1562
स्टर	-1563
▁एज	-1564
▁टिक	-1565
दि	-1566
▁लक्ष	-1567
▁21	-1568
▁पीछे	-1569
▁लो	-1570
उंड	-1571
श्च	-1572
▁पूछता	-1573
▁हादसे	-1574
ूरी	-1575
▁ब्ल	-1576
कु	-1577
▁देकर	-1578
▁एयर	-1579
▁संभाव	-1580
▁सप	-1581
▁रोज	-1582
▁मेडिकल	-1583
▁लिखा	-1584
▁पूछताछ	-1585
▁हे	-1586
▁शुभ	-1587
▁कार्यालय	-1588
▁धन	-1589
र्जी	-1590
▁कर्	-1591
▁नवं	-1592
▁व्याप	-1593
धरी	-1594
▁नवंबर	-1595
▁बदमाश	-1596
गंज	-1597
िकेट	-1598
▁केंद	-1599
▁माता	-1600
िली	-1601
वीं	-1602
▁आसपास	-1603
▁सहाय	-1604
▁नियम	-1605
षा	-1606
गू	-1607
▁केंद्रीय	-1608
▁रै	-1609
▁पढ़ें	-1610
▁...	-1611
▁चुका	-1612
▁गुप	-1613
▁ज़	-1614
थि	-1615
▁कभी	-1616
प्री	-1617
▁अंतर	-1618
▁एसपी	-1619
रज	-1620
रिया	-1621
▁प्ल	-1622
▁तौर	-1623
▁मतदान	-1624
▁प्राप्त	-1625
ंकर	-1626
20	-1627
▁D	-1628
▁केवल	-1629
यन	-1630
▁शो	-1631
वत	-1632
▁रज	-1633
▁पड़ा	-1634
्ता	-1635
▁जाएंगे	-1636
गल	-1637
लर	-1638
▁आपको	-1639
▁चौधरी	-1640
तृ	-1641
▁बिना	-1642
धर	-1643
ुष	-1644
▁जाना	-1645
▁धम	-1646
▁लख	-1647
खिल	-1648
ॉर्ड	-1649
▁मैंने	-1650
र्ष	-1651
▁स्टेशन	-1652
▁री	-1653
▁संय	-1654
▁देखने	-1655
▁100	-1656
▁अंत	-1657
▁दिखा	-1658
▁भोपाल	-1659
ोस	-1660
साद	-1661
▁रु	-1662
▁मिनट	-1663
▁लाइन	-1664
▁किलो	-1665
▁मरीज	-1666
ंका	-1667
▁जिम	-1668
बार	-1669
▁ज्	-1670
स्थित	-1671
▁आवेदन	-1672
विधा	-1673
ुओं	-1674
चारी	-1675
▁नेताओं	-1676
▁पाकिस्तान	-1677
▁उपल	-1678
▁प्रत्या	-1679
टक	-1680
▁भारी	-1681
िसर	-1682
ौल	-1683
किंग	-1684
एच	-1685
्मे	-1686
▁ध्यान	-1687
▁एक्सप	-1688
साइ	-1689
▁अप्र	-1690
▁खास	-1691
▁नदी	-1692
▁हार	-1693
▁राशि	-1694
in	-1695
भर	-1696
▁मार्च	-1697
त्स	-1698
ल्स	-1699
▁होना	-1700
िटल	-1701
फा	-1702
ांक	-1703
▁निश	-1704
▁पार्	-1705
ुरा	-1706
▁टै	-1707
▁लगाए	-1708
▁तह	-1709
▁निरी	-1710
▁हमें	-1711
▁40	-1712
▁प्ले	-1713
लाल	-1714
▁लिख	-1715
30	-1716
केट	-1717
▁खबर	-1718
▁लाभ	-1719
▁अस	-1720
फ़	-1721
▁सत	-1722
▁तोड़	-1723
▁कैसे	-1724
लाइन	-1725
▁देखते	-1726
▁बोर्ड	-1727
त्ती	-1728
at	-1729
जरा	-1730
▁मुद्	-1731
▁छोट	-1732
▁बदल	-1733
▁डाल	-1734
▁गोली	-1735
▁पेट	-1736
▁बनी	-1737
▁टिकट	-1738
▁निकाल	-1739
▁रि	-1740
▁सुविधा	-1741
्यो	-1742
▁अपराध	-1743
र्या	-1744
▁उठा	-1745
ेस	-1746
ुद	-1747
िशा	-1748
हाल	-1749
▁कराने	-1750
▁विदेश	-1751
▁उद्	-1752
मार्ट	-1753
▁फरार	-1754
▁2023	-1755
अलग	-1756
▁अग्र	-1757
▁छात्रा	-1758
्प	-1759
▁धार	-1760
मन	-1761
त्ता	-1762
▁जिसे	-1763
▁यानी	-1764
▁प्रसाद	-1765
▁संबंधित	-1766
▁ग्रामीणों	-1767
र्न	-1768
▁जनवरी	-1769
एन	-1770
▁आश	-1771
▁संभ	-1772
िग	-1773
▁अहम	-1774
▁वार्ड	-1775
ियार	-1776
▁पदा	-1777
तों	-1778
▁सीटों	-1779
▁कर्मचारी	-1780
▁छात्रों	-1781
▁बदला	-1782
▁नव	-1783
िरी	-1784
क्रिया	-1785
▁विद्य	-1786
▁चि	-1787
▁संभावना	-1788
▁प्रक्रिया	-1789
▁26	-1790
▁अगले	-1791
ॉक	-1792
▁ं	-1793
▁विकेट	-1794
▁रण	-1795
विद्यालय	-1796
दम	-1797
▁उपलब्	-1798
ारोह	-1799
▁समारोह	-1800
▁सफल	-1801
सत	-1802
▁संजय	-1803
माल	-1804
▁ज्ञ	-1805
▁श्रद्ध	-1806
▁आयोग	-1807
▁तय	-1808
तरी	-1809
र्प	-1810
▁पहुंचा	-1811
▁उद	-1812
▁मानस	-1813
▁यूपी	-1814
चारियों	-1815
▁परेशान	-1816
▁भेजा	-1817
▁जिलों	-1818
▁सहयोग	-1819
ंबई	-1820
तृत्व	-1821
▁वायर	-1822
▁्स	-1823
त्तीस	-1824
▁शी	-1825
▁रंग	-1826
मारी	-1827
क्षित	-1828
▁पूर्ण	-1829
▁चंद्र	-1830
▁छत्तीस	-1831
▁फीस	-1832
▁फोट	-1833
▁दावा	-1834
ंडी	-1835
्रोल	-1836
▁पकड़	-1837
▁मंडल	-1838
▁ऐसी	-1839
▁28	-1840
▁क्ल	-1841
▁सुनी	-1842
▁छत्तीसगढ़	-1843
ियल	-1844
ृह	-1845
ेंसी	-1846
▁जमा	-1847
▁नेतृत्व	-1848
ूक	-1849
ड़ियों	-1850
▁चले	-1851
ृति	-1852
▁पश्च	-1853
on	-1854
▁रखने	-1855
जल	-1856
▁न्याय	-1857
ड़ों	-1858
▁चिक	-1859
▁बोले	-1860
▁नरेंद्र	-1861
▁23	-1862
▁गर्मी	-1863
▁ताकि	-1864
▁कर्मचारियों	-1865
एफ	-1866
▁े	-1867
काब	-1868
▁तत्	-1869
▁नागर	-1870
▁नीचे	-1871
▁माना	-1872
▁आख	-1873
▁मुंबई	-1874
देव	-1875
▁हास	-1876
▁उर्फ	-1877
▁तलाश	-1878
दों	-1879
नात	-1880
▁तैयारी	-1881
▁कीमत	-1882
धे	-1883
▁हिस्सा	-1884
.5	-1885
▁डाय	-1886
▁लगाने	-1887
राम	-1888
▁दुनिया	-1889
र्द	-1890
▁अप्रैल	-1891
-1	-1892
▁एल	-1893
▁कब्	-1894
▁कला	-1895
▁टक्कर	-1896
▁बल्कि	-1897
▁इनमें	-1898
ज्ञान	-1899
▁गुप्ता	-1900
असल	-1901
स्ल	-1902
▁ओवर	-1903
▁अद	-1904
▁भाव	-1905
▁प्रत्याशी	-1906
▁गौ	-1907
▁बांग	-1908
▁दरअसल	-1909
▁जाकर	-1910
िड	-1911
चार्य	-1912
▁मॉ	-1913
म्म	-1914
▁ति	-1915
▁सिर	-1916
▁फ़	-1917
▁वृ	-1918
नियर	-1919
▁पटना	-1920
▁बंग	-1921
बाल	-1922
▁चरण	-1923
▁टेस्ट	-1924
▁फैसला	-1925
ंदा	-1926
▁संगठन	-1927
▁जिम्मे	-1928
▁जुड़े	-1929
▁27	-1930
ापन	-1931
▁हासिल	-1932
▁मकान	-1933
धन	-1934
▁राजनीतिक	-1935
ीक	-1936
एसपी	-1937
▁गति	-1938
▁लखन	-1939
ाइम	-1940
▁फायर	-1941
ूब	-1942
ॉर्म	-1943
▁वक्त	-1944
र्ग	-1945
▁भवन	-1946
▁गाय	-1947
▁सदर	-1948
ित्र	-1949
▁वर्ग	-1950
▁अमेरिका	-1951
▁न्यू	-1952
▁तरी	-1953
लोनी	-1954
▁रहते	-1955
▁जन्म	-1956
ड्	-1957
▁साफ	-1958
▁इस्ते	-1959
▁इस्तेमाल	-1960
▁दौ	-1961
चन	-1962
▁क्रिकेट	-1963
▁स्थाप	-1964
ंगी	-1965
▁सजा	-1966
▁पल	-1967
▁हथ	-1968
पू	-1969
▁डिप	-1970
▁ख़	-1971
▁न्याया	-1972
▁प्रकार	-1973
▁रहेगा	-1974
षि	-1975
▁मुक	-1976
ांति	-1977
्लादेश	-1978
▁चिकित	-1979
िकी	-1980
▁झार	-1981
▁दोस्त	-1982
▁बचा	-1983
तीश	-1984
▁हालत	-1985
लू	-1986
▁सीमा	-1987
▁डा	-1988
▁जता	-1989
▁चालक	-1990
▁मजबू	-1991
▁एफ	-1992
▁किस	-1993
▁बाबा	-1994
er	-1995
िक्ष	-1996
▁भीड़	-1997
▁ड्राइ	-1998
त्ति	-1999
▁प्रकाश	-2000
▁उपलब्ध	-2001
फे	-2002
▁आन	-2003
▁मश	-2004
ियोग	-2005
▁तीनों	-2006
चीत	-2007
ामा	-2008
▁बातचीत	-2009
ायण	-2010
▁पैसे	-2011
ेटी	-2012
▁त्र	-2013
▁नया	-2014
स्व	-2015
िनि	-2016
▁चौक	-2017
▁समी	-2018
▁कार्ड	-2019
▁घोषणा	-2020
▁परिसर	-2021
झा	-2022
▁अमित	-2023
▁सिटी	-2024
श्यक	-2025
▁पाए	-2026
▁हमने	-2027
▁प्राथम	-2028
▁बनने	-2029
▁K	-2030
▁31	-2031
▁चा	-2032
रों	-2033
▁मैदान	-2034
यों	-2035
▁ऑन	-2036
▁कैम	-2037
▁झारखंड	-2038
▁महत्वपूर्ण	-2039
ांग	-2040
क्ता	-2041
ेन	-2042
िन्	-2043
▁मूल	-2044
▁विद्यालय	-2045
▁फिलहाल	-2046
▁कराई	-2047
ार्ज	-2048
▁बांग्लादेश	-2049
किल	-2050
▁रोह	-2051
▁खत्म	-2052
▁ट्रांस	-2053
▁रिकॉर्ड	-2054
▁खो	-2055
▁ठीक	-2056
▁पौ	-2057
▁यही	-2058
▁दिवस	-2059
▁E	-2060
जरी	-2061
व्य	-2062
▁निजी	-2063
▁गठबंधन	-2064
▁तस्वीर	-2065
000	-2066
▁चुन	-2067
▁पड़े	-2068
▁स्टूड	-2069
ंडा	-2070
पुरा	-2071
्हें	-2072
कल	-2073
ेय	-2074
▁कहीं	-2075
▁आवश्यक	-2076
▁35	-2077
गार	-2078
▁भू	-2079
▁मोहन	-2080
▁29	-2081
▁चोर	-2082
ील	-2083
राह	-2084
ष्य	-2085
ैनिक	-2086
शे	-2087
तिम	-2088
▁स्वी	-2089
हान	-2090
▁वायरल	-2091
▁लखनऊ	-2092
▁नागरिक	-2093
▁बाव	-2094
▁सेंटर	-2095
तरा	-2096
▁चै	-2097
▁ऊपर	-2098
▁खेत	-2099
▁पहला	-2100
▁आपके	-2101
▁फोटो	-2102
िष्ठ	-2103
▁सीसी	-2104
▁घोषित	-2105
▁सिल	-2106
▁राष्ट्रपति	-2107
इट	-2108
विंद	-2109
मता	-2110
▁गौर	-2111
ड्ड	-2112
▁मेरी	-2113
▁मिलकर	-2114
▁रव	-2115
▁लड़की	-2116
▁अय	-2117
वाही	-2118
▁मुकाब	-2119
▁धारा	-2120
▁पांड	-2121
▁उपस्थित	-2122
▁मं	-2123
पोर्ट	-2124
▁खराब	-2125
▁विचार	-2126
▁गी	-2127
रान	-2128
▁मल	-2129
▁अंक	-2130
▁भु	-2131
द्योग	-2132
▁समा	-2133
▁अंतिम	-2134
▁बोल	-2135
▁आवा	-2136
▁उदय	-2137
▁प्रेम	-2138
रल	-2139
▁सेना	-2140
▁टा	-2141
▁मीटर	-2142
▁खुला	-2143
ित्य	-2144
▁दर्शन	-2145
▁कमी	-2146
▁लौट	-2147
▁सभा	-2148
▁कमेटी	-2149
वाने	-2150
▁चीन	-2151
▁पाया	-2152
बाजी	-2153
▁उच्च	-2154
मे	-2155
षेक	-2156
▁तभी	-2157
▁बू	-2158
▁खरीद	-2159
▁जरिए	-2160
▁चुना	-2161
ंख	-2162
▁घु	-2163
▁धर	-2164
▁गेट	-2165
▁गिरा	-2166
▁धमकी	-2167
▁सुप्री	-2168
▁महारा	-2169
मीटर	-2170
▁वर्षीय	-2171
▁शिक्षक	-2172
▁हमारी	-2173
▁प्रवेश	-2174
al	-2175
▁बुला	-2176
▁हिंदू	-2177
अप	-2178
▁लगाई	-2179
▁सुप्रीम	-2180
▁ट्रक	-2181
▁स्टूडेंट	-2182
▁कित	-2183
▁राज्यों	-2184
▁परिष	-2185
ष्ट्र	-2186
पन	-2187
मेर	-2188
चानक	-2189
द्धि	-2190
स्कार	-2191
▁अचानक	-2192
नेश	-2193
▁अदाल	-2194
वें	-2195
▁मुला	-2196
▁वरिष्ठ	-2197
▁सुनवाई	-2198
▁कानून	-2199
▁अग्रवाल	-2200
वाड़ा	-2201
▁प्रस्ताव	-2202
▁विपक्ष	-2203
▁सही	-2204
तियों	-2205
▁T	-2206
▁समर्थन	-2207
टो	-2208
▁वारदा	-2209
▁लूट	-2210
▁प्रता	-2211
रीर	-2212
▁चाहते	-2213
ंसा	-2214
▁प्रतियोग	-2215
▁कॉलोनी	-2216
▁बहन	-2217
▁प्रस्त	-2218
▁उसी	-2219
हरी	-2220
हास	-2221
▁मनी	-2222
▁परिजन	-2223
▁दक्ष	-2224
▁क्षेत्रों	-2225
डल	-2226
▁लंब	-2227
▁सदस्यों	-2228
▁उत्स	-2229
▁उम्र	-2230
▁देना	-2231
उट	-2232
▁आते	-2233
▁संक	-2234
▁महार	-2235
▁बावजूद	-2236
▁फ्र	-2237
ंता	-2238
ौती	-2239
▁लागू	-2240
ेंडर	-2241
चिका	-2242
▁जित	-2243
ब्ल	-2244
▁नुक	-2245
▁सामान्य	-2246
▁सिव	-2247
▁निवेश	-2248
िशन	-2249
ूस	-2250
बोध	-2251
▁किन	-2252
▁उनसे	-2253
▁निरीक्षण	-2254
िब	-2255
▁इंत	-2256
▁पटेल	-2257
▁होटल	-2258
▁विश्वविद्यालय	-2259
मति	-2260
▁छो	-2261
▁विन	-2262
▁परिषद	-2263
शु	-2264
▁याचिका	-2265
▁अशोक	-2266
▁तैनात	-2267
कत	-2268
तंत्र	-2269
▁ऑफिस	-2270
▁एंड	-2271
▁सिक	-2272
▁बदलाव	-2273
▁कही	-2274
▁सात	-2275
ूह	-2276
ुदाय	-2277
▁हट	-2278
▁हथियार	-2279
▁कृष्ण	-2280
ॉट	-2281
ैया	-2282
▁गृह	-2283
क्ट्र	-2284
▁F	-2285
▁राजनीति	-2286
िश्न	-2287
▁तत्काल	-2288
▁प्रभावित	-2289
▁वर्मा	-2290
वाली	-2291
्याण	-2292
▁कॉल	-2293
▁परिव	-2294
▁नेशनल	-2295
▁बनाकर	-2296
तल	-2297
▁रिज	-2298
▁निर्ण	-2299
जु	-2300
िद	-2301
ुरी	-2302
▁रखी	-2303
ख्त	-2304
▁पाठ	-2305
▁बेहतर	-2306
स्कर	-2307
प्शन	-2308
▁गलत	-2309
▁गेंद	-2310
▁दिखाई	-2311
▁एसडी	-2312
▁जरूरी	-2313
▁नुकसान	-2314
नु	-2315
▁अदालत	-2316
▁कारो	-2317
▁रहता	-2318
▁प्रतियोगिता	-2319
▁ऋ	-2320
▁जरूरत	-2321
ेश्वर	-2322
▁कोच	-2323
यल	-2324
▁फाइन	-2325
स्टम	-2326
▁उससे	-2327
▁सुना	-2328
-2	-2329
वट	-2330
▁अजय	-2331
▁असर	-2332
▁उपयोग	-2333
स्पिटल	-2334
▁पदाधिकारी	-2335
▁करेगी	-2336
▁बनाई	-2337
▁स्थल	-2338
▁संस्थान	-2339
▁तुर	-2340
तिहास	-2341
ेक्ट	-2342
▁अयोध	-2343
चल	-2344
▁मजद	-2345
▁अफसर	-2346
▁भक्त	-2347
खी	-2348
फ्	-2349
▁डिज	-2350
▁राहत	-2351
वाइ	-2352
ध्या	-2353
▁ग्रुप	-2354
▁विद्यार्थ	-2355
टीवी	-2356
▁कब	-2357
▁रास्ते	-2358
सील	-2359
ूर्ति	-2360
▁वारदात	-2361
▁तरीके	-2362
▁हॉस्पिटल	-2363
▁हवा	-2364
▁रिली	-2365
्वाल	-2366
▁लगने	-2367
▁ताला	-2368
▁मिश्रा	-2369
▁महाराष्ट्र	-2370
▁शि	-2371
▁हल्	-2372
▁2019	-2373
▁किश	-2374
▁भूमिका	-2375
▁अयोध्या	-2376
▁प्राथमिक	-2377
▁नम	-2378
▁कौन	-2379
▁सफाई	-2380
िने	-2381
▁कार्यकर्ताओं	-2382
▁सीसीटीवी	-2383
र्गत	-2384
or	-2385
जों	-2386
▁संस	-2387
▁मजबूत	-2388
▁महाराज	-2389
▁जाम	-2390
▁दक्षि	-2391
ंदी	-2392
▁पंड	-2393
▁फुट	-2394
▁विष	-2395
▁मर	-2396
कम	-2397
लिया	-2398
▁तुरंत	-2399
▁स्वागत	-2400
▁सागर	-2401
उंट	-2402
▁इतना	-2403
▁ड्राइवर	-2404
▁रिश्	-2405
▁हमले	-2406
▁शांति	-2407
▁45	-2408
र्डर	-2409
▁मंच	-2410
▁संस्था	-2411
▁कल्याण	-2412
▁वाहनों	-2413
▁घाट	-2414
▁कपूर	-2415
▁जागर	-2416
▁राजेश	-2417
▁सल	-2418
▁इले	-2419
▁लॉन्	-2420
▁अभिषेक	-2421
▁तम	-2422
▁बजट	-2423
▁उपा	-2424
▁लगाकर	-2425
▁फ्ल	-2426
▁हाईक	-2427
▁नौकरी	-2428
▁युवती	-2429
▁प्रचार	-2430
कात	-2431
ॉर्ट	-2432
▁अंब	-2433
▁प्रदान	-2434
ल्ल	-2435
▁मू	-2436
sh	-2437
▁रिलीज	-2438
सों	-2439
न्ना	-2440
ट्ट	-2441
▁जब्त	-2442
▁बीते	-2443
टिंग	-2444
▁G	-2445
▁कृषि	-2446
▁बंगाल	-2447
▁रायपुर	-2448
ज्ज	-2449
▁लगता	-2450
उस	-2451
▁चोट	-2452
▁तेजी	-2453
▁फरवरी	-2454
▁संयुक्त	-2455
ुण	-2456
▁जोर	-2457
▁सुख	-2458
▁नाबाल	-2459
ाफ	-2460
▁(2	-2461
▁लेते	-2462
▁जवान	-2463
▁सीटें	-2464
र्थिक	-2465
▁मिलेगा	-2466
ठा	-2467
िक्र	-2468
▁अली	-2469
▁राव	-2470
▁आत्म	-2471
▁यदि	-2472
▁प्रतिनि	-2473
ॉन	-2474
प्ता	-2475
▁सिविल	-2476
▁कोत	-2477
▁कोल	-2478
▁ो	-2479
वर्	-2480
▁नोटिस	-2481
▁बेच	-2482
▁फीसदी	-2483
▁बताते	-2484
▁छोटे	-2485
▁दीपक	-2486
ंटी	-2487
▁सोन	-2488
▁तहसील	-2489
्यून	-2490
▁रहेगी	-2491
▁नाबालिग	-2492
▁2022	-2493
▁आनंद	-2494
▁संवि	-2495
ारंभ	-2496
▁ऑनलाइन	-2497
्लाई	-2498
▁मालिक	-2499
भव	-2500
▁भास्कर	-2501
▁आर्थिक	-2502
▁जमकर	-2503
▁काट	-2504
▁भवि	-2505
ाले	-2506
▁मुलाकात	-2507
िनी	-2508
▁चढ़	-2509
▁प्री	-2510
▁ऑपर	-2511
▁कदम	-2512
▁ठाक	-2513
▁रोहित	-2514
▁छह	-2515
प्ताह	-2516
▁U	-2517
▁1.	-2518
▁करेगा	-2519
▁नाराज	-2520
▁निर्णय	-2521
म्मद	-2522
▁श्रद्धाल	-2523
▁एक्सप्रेस	-2524
▁L	-2525
▁कॉन्	-2526
▁भविष्य	-2527
▁फा	-2528
▁बेटा	-2529
रासत	-2530
▁प्रशिक्ष	-2531
ंकी	-2532
्रो	-2533
▁/	-2534
▁मनोज	-2535
▁मेरा	-2536
▁हाउस	-2537
डे	-2538
▁आत	-2539
्मिक	-2540
▁गैंग	-2541
▁पर्य	-2542
▁पार्ट	-2543
▁नो	-2544
▁कड़ी	-2545
▁अतिरिक	-2546
▁गिरफ्तारी	-2547
▁धी	-2548
▁धो	-2549
र्जा	-2550
▁रहती	-2551
▁ठाकुर	-2552
▁सामना	-2553
▁गंगा	-2554
▁पर्व	-2555
▁फर्जी	-2556
▁निर्वा	-2557
▁लु	-2558
▁प्रि	-2559
▁दूसरा	-2560
▁संबोध	-2561
▁अंतर्गत	-2562
▁तारी	-2563
▁बांध	-2564
राव	-2565
▁दम	-2566
▁रिट	-2567
▁अतिरिक्त	-2568
िवर्स	-2569
▁प्राइ	-2570
▁अपील	-2571
▁जिसकी	-2572
▁सहायक	-2573
▁हाईकोर्ट	-2574
डीए	-2575
▁तेल	-2576
▁खर्च	-2577
ांव	-2578
त्सव	-2579
▁उदयपुर	-2580
▁व्यक्त	-2581
▁पॉ	-2582
्तान	-2583
हरे	-2584
▁खुल	-2585
▁खड़े	-2586
▁करवाया	-2587
छा	-2588
श्मी	-2589
ांकन	-2590
▁झा	-2591
▁कार्यकर्ता	-2592
▁ठे	-2593
कर्म	-2594
▁मतदा	-2595
ज्ञात	-2596
▁साहू	-2597
▁देशों	-2598
▁सीरीज	-2599
▁संचालन	-2600
▁पीड़िता	-2601
्याम	-2602
▁बदमाशों	-2603
कीय	-2604
▁अज्ञात	-2605
ांसी	-2606
▁सुनील	-2607
▁इलाकों	-2608
▁आंद	-2609
▁कंपन	-2610
▁स्पेश	-2611
▁हनु	-2612
▁पार्ष	-2613
त्रियों	-2614
▁दबा	-2615
▁सत्र	-2616
▁सिस्टम	-2617
▁मोहम्मद	-2618
▁मंत्रालय	-2619
▁हिस	-2620
▁देंगे	-2621
▁रक्षा	-2622
▁अनिल	-2623
▁बैठे	-2624
▁अंजाम	-2625
▁फाय	-2626
▁मिलते	-2627
तमान	-2628
ेंज	-2629
ोलन	-2630
▁अज	-2631
▁चां	-2632
▁संर	-2633
▁जैसी	-2634
▁मुश्	-2635
▁अच्छी	-2636
▁बच्ची	-2637
▁सुधार	-2638
▁प्रोज	-2639
▁मामलों	-2640
▁कोतवाली	-2641
ष्टि	-2642
▁जाल	-2643
▁वीर	-2644
▁जिंद	-2645
▁उत्पा	-2646
▁किलोमीटर	-2647
इल	-2648
स्लिम	-2649
▁पश्चिम	-2650
विध	-2651
▁पर्या	-2652
्टर	-2653
▁दब	-2654
▁हटा	-2655
▁आवास	-2656
▁तुल	-2657
▁पेट्रोल	-2658
ल्ले	-2659
▁भूमि	-2660
ुड	-2661
▁डर	-2662
ेशा	-2663
▁हनुमान	-2664
▁सुपर	-2665
▁गुजरा	-2666
▁नीतीश	-2667
▁सोने	-2668
▁अधी	-2669
▁भोज	-2670
▁युवाओं	-2671
▁कन	-2672
▁फसल	-2673
▁स्पेशल	-2674
▁आशी	-2675
▁परेशानी	-2676
▁V	-2677
▁दश	-2678
ाजिक	-2679
▁निदेश	-2680
ांट	-2681
त्मक	-2682
स्त्र	-2683
टन	-2684
▁डायरे	-2685
खर	-2686
ैक	-2687
जरीवाल	-2688
▁केजरीवाल	-2689
▁प्रोजेक्ट	-2690
वरण	-2691
▁पैर	-2692
बीर	-2693
्राम	-2694
▁आंदोलन	-2695
▁प्रताप	-2696
▁अच्छा	-2697
▁बिक	-2698
▁देखकर	-2699
पथ	-2700
▁कां	-2701
▁जाय	-2702
▁अधिकार	-2703
▁रजिस्ट	-2704
▁एक्ट्रेस	-2705
▁अलर्ट	-2706
▁मौका	-2707
▁विस्त	-2708
ुरु	-2709
▁घरों	-2710
▁मुस्लिम	-2711
प्रदेश	-2712
▁शक्ति	-2713
िक्स	-2714
▁पकड़ा	-2715
ैर	-2716
▁60	-2717
▁कंट	-2718
▁चली	-2719
▁छाप	-2720
िश्चित	-2721
▁अतिथि	-2722
▁अंग	-2723
्होंने	-2724
▁वर्तमान	-2725
▁शिविर	-2726
▁मुश्किल	-2727
ण्ड	-2728
▁साइबर	-2729
▁तिव	-2730
▁बर्	-2731
▁मगर	-2732
▁नामांकन	-2733
▁अखिल	-2734
▁श्रे	-2735
▁तिवारी	-2736
▁यूनिवर्स	-2737
कुमार	-2738
▁दिशा	-2739
▁मीणा	-2740
स्‍	-2741
▁डॉक्टरों	-2742
वारी	-2743
▁यात्रियों	-2744
ोप	-2745
▁शासन	-2746
▁न्यायालय	-2747
▁आयुक्त	-2748
▁इधर	-2749
▁योगी	-2750
▁अधिकतम	-2751
ti	-2752
▁मैने	-2753
▁सालों	-2754
धानी	-2755
▁व्र	-2756
▁कैंप	-2757
▁गढ़	-2758
▁निकाला	-2759
▁रैली	-2760
नगर	-2761
▁मंडी	-2762
▁पढ़ाई	-2763
▁सेक्टर	-2764
▁स्कूलों	-2765
ra	-2766
सि	-2767
▁मुकेश	-2768
▁चुनावी	-2769
्यार	-2770
▁िया	-2771
ोत्सव	-2772
स्ट्री	-2773
▁प्लान	-2774
▁मनाया	-2775
घाट	-2776
▁गईं	-2777
श्मीर	-2778
▁कब्जे	-2779
▁स्पष्ट	-2780
▁आकर	-2781
▁उसमें	-2782
▁सूर्य	-2783
▁ऑटो	-2784
▁हमेशा	-2785
▁सुरक्षित	-2786
तु	-2787
▁;	-2788
▁महिलाएं	-2789
वेट	-2790
▁हड़	-2791
दारों	-2792
▁गणेश	-2793
▁कुमारी	-2794
स्कृत	-2795
्रमण	-2796
▁नारायण	-2797
▁संविधान	-2798
ha	-2799
लाह	-2800
▁सर्वे	-2801
▁बिग	-2802
▁देता	-2803
▁प्लेट	-2804
▁दक्षिण	-2805
▁युवकों	-2806
लपुर	-2807
▁गोल	-2808
▁पारी	-2809
▁दास	-2810
▁जोड़	-2811
▁जागरूक	-2812
▁चलने	-2813
JP	-2814
▁उत	-2815
ेंशन	-2816
▁युद्ध	-2817
▁इंटरने	-2818
▁आल	-2819
▁पूछा	-2820
▁विवाह	-2821
▁सिद्ध	-2822
▁जिम्मेदारी	-2823
▁यूनिवर्सिटी	-2824
▁बढ़ाने	-2825
ोश	-2826
▁चयन	-2827
▁मरीजों	-2828
en	-2829
▁तीसरे	-2830
▁स्टार	-2831
▁सम्मानित	-2832
▁राजा	-2833
मार्टम	-2834
▁लिस्ट	-2835
द्द	-2836
▁अका	-2837
▁सप्ताह	-2838
▁रखे	-2839
▁रम	-2840
▁कमरे	-2841
▁संबोधित	-2842
▁पोस्टमार्टम	-2843
▁पेपर	-2844
▁किनारे	-2845
▁रिश्ते	-2846
नल	-2847
▁खुलासा	-2848
▁एयरपोर्ट	-2849
धिया	-2850
▁आउट	-2851
▁वर्ल्ड	-2852
▁साध	-2853
▁लाया	-2854
वादी	-2855
▁सामाजिक	-2856
स्तव	-2857
सुर	-2858
▁उद्देश	-2859
ोई	-2860
▁पाई	-2861
▁हादसा	-2862
▁शिक्षकों	-2863
▁अभिय	-2864
▁उनको	-2865
▁नक	-2866
▁नाग	-2867
्यु	-2868
▁आंक	-2869
▁स्टूडेंट्स	-2870
उन	-2871
▁पोल	-2872
▁संपर्क	-2873
फ्र	-2874
▁नग	-2875
▁H	-2876
▁रॉ	-2877
▁पुरुष	-2878
▁रहेंगे	-2879
▁प्रबंधन	-2880
▁पस	-2881
▁खाली	-2882
णाम	-2883
▁32	-2884
▁खोल	-2885
▁वित्त	-2886
▁अभ्य	-2887
▁बेहद	-2888
ष्ट्रीय	-2889
▁पहुंचकर	-2890
रीब	-2891
बारी	-2892
▁सपा	-2893
▁जिसका	-2894
▁कार्यों	-2895
वुड	-2896
▁आठ	-2897
▁कौर	-2898
▁अमर	-2899
▁दोष	-2900
▁वही	-2901
▁तकनी	-2902
▁उपचार	-2903
▁गुजरात	-2904
▁टूट	-2905
नीय	-2906
ियस	-2907
▁धार्मिक	-2908
ेस्ट	-2909
▁खंड	-2910
▁भजन	-2911
▁सड़कों	-2912
िएशन	-2913
▁न्यून	-2914
▁राजी	-2915
▁उड़	-2916
▁दृ	-2917
शाला	-2918
▁हल	-2919
▁पड़ी	-2920
▁लंबे	-2921
▁समुदाय	-2922
फिक	-2923
▁न्यूनतम	-2924
▁अर्	-2925
▁आता	-2926
▁बुजु	-2927
▁व्रत	-2928
▁बाकी	-2929
पंच	-2930
्रीन	-2931
्यूटी	-2932
▁चौकी	-2933
▁प्रखंड	-2934
▁बुजुर्ग	-2935
▁क्	-2936
▁घुस	-2937
▁रेप	-2938
▁अधीक्षक	-2939
ew	-2940
le	-2941
▁फॉ	-2942
▁आवाज	-2943
चु	-2944
ंद्र	-2945
▁निर	-2946
▁सर्	-2947
▁निर्धार	-2948
▁खूब	-2949
▁जंगल	-2950
▁ज्यो	-2951
▁पार्क	-2952
लेट	-2953
्ब	-2954
शिप	-2955
▁शंकर	-2956
▁आइ	-2957
▁पैसा	-2958
▁समाधान	-2959
▁अभ्यर्थ	-2960
▁मुख्यालय	-2961
नर	-2962
▁आदमी	-2963
पत	-2964
क्सर	-2965
ुल्क	-2966
▁पहल	-2967
▁मिस	-2968
▁80	-2969
▁फो	-2970
▁33	-2971
▁शरीर	-2972
▁एक्टर	-2973
ंह	-2974
▁डेट	-2975
▁पुरा	-2976
▁चौहान	-2977
ूत	-2978
लीवुड	-2979
▁इनके	-2980
▁सीजन	-2981
▁कहानी	-2982
▁राकेश	-2983
▁70	-2984
▁दिला	-2985
▁आखिरी	-2986
es	-2987
▁खुश	-2988
▁मिलेगी	-2989
ेड़	-2990
▁थो	-2991
▁199	-2992
▁प्रव	-2993
▁बताई	-2994
▁विषय	-2995
▁ब्लॉक	-2996
▁संदीप	-2997
ौन	-2998
▁लं	-2999
▁एसोस	-3000
▁निर्वाचन	-3001
रत	-3002
ंडल	-3003
साय	-3004
▁मजदूर	-3005
▁मारने	-3006
▁ग्वाल	-3007
▁एजेंसी	-3008
▁37	-3009
▁सत्ता	-3010
जीव	-3011
▁चेक	-3012
▁इमेज	-3013
▁लाने	-3014
▁सफलता	-3015
▁वर्षों	-3016
पट	-3017
श्व	-3018
ुति	-3019
▁पूजन	-3020
▁रवाना	-3021
▁उद्देश्य	-3022
ाब	-3023
▁इतनी	-3024
▁मार्केट	-3025
di	-3026
मानत	-3027
▁काल	-3028
▁सेल्स	-3029
▁पहुंचने	-3030
▁प्रेस	-3031
▁उद्योग	-3032
▁प्राइवेट	-3033
▁भुगत	-3034
▁सुनिश्चित	-3035
भार	-3036
▁एग्	-3037
▁फीट	-3038
▁परिणाम	-3039
▁इंतजार	-3040
▁कमिश्न	-3041
ार्म	-3042
▁शुक्	-3043
▁फाइनल	-3044
▁कमिश्नर	-3045
त्रि	-3046
कारों	-3047
▁इंजी	-3048
ग्ध	-3049
र्पित	-3050
▁स्टाफ	-3051
▁l	-3052
साथ	-3053
▁फूल	-3054
▁वकी	-3055
▁पार्षद	-3056
सेना	-3057
फ्तार	-3058
▁तिथि	-3059
▁सौंप	-3060
▁कैप्शन	-3061
▁खिलाड़ी	-3062
▁साब	-3063
▁आदित्य	-3064
▁सूत्र	-3065
▁ऑपरेशन	-3066
ेद	-3067
सित	-3068
▁हरा	-3069
▁छोड़कर	-3070
▁स्थापित	-3071
गीय	-3072
्रेन	-3073
▁बंध	-3074
▁लॉन्च	-3075
50	-3076
▁गोपाल	-3077
▁प्रथम	-3078
कृ	-3079
▁रिस	-3080
▁डीएम	-3081
▁उतर	-3082
▁काउ	-3083
▁लक्ष्य	-3084
ट्	-3085
दमा	-3086
▁विद	-3087
▁शपथ	-3088
▁सूची	-3089
▁प्रिय	-3090
▁संतोष	-3091
▁राजधानी	-3092
▁विद्यार्थियों	-3093
रेन	-3094
▁मुह	-3095
▁प्रेर	-3096
▁इतिहास	-3097
लेश	-3098
▁तुम	-3099
▁शान	-3100
▁परिय	-3101
▁मिलता	-3102
वती	-3103
क्का	-3104
▁ज्योति	-3105
▁निदेशक	-3106
▁लै	-3107
▁अमृत	-3108
▁जाति	-3109
▁स्मार्ट	-3110
▁परियोजना	-3111
▁कमा	-3112
ग्राम	-3113
▁क्ला	-3114
▁ससुर	-3115
▁रोकने	-3116
▁ट्रैफिक	-3117
▁नीति	-3118
▁डिप्टी	-3119
▁अमेरिकी	-3120
िमांड	-3121
▁किमी	-3122
▁जम्म	-3123
▁दबाव	-3124
▁फायदा	-3125
▁अरविंद	-3126
▁माहौल	-3127
▁मानसून	-3128
खे	-3129
▁O	-3130
▁सौं	-3131
▁पेड़	-3132
▁इंस्ट	-3133
▁क़	-3134
▁बत	-3135
क्सी	-3136
▁मेह	-3137
दाबाद	-3138
▁सोनी	-3139
▁टाइ	-3140
फ्ट	-3141
▁बुलाया	-3142
▁रफ्तार	-3143
▁प्रस्तुत	-3144
यात	-3145
▁उक्त	-3146
▁चिकित्	-3147
▁स्थानों	-3148
ंघ	-3149
▁BJP	-3150
▁पुष्	-3151
▁मशीन	-3152
▁चुनावों	-3153
▁प्रशिक्षण	-3154
▁कहां	-3155
▁कक्षा	-3156
▁सहायता	-3157
▁इलेक्ट्र	-3158
▁जुड़ी	-3159
ेबल	-3160
▁साथी	-3161
बीआई	-3162
▁हिरासत	-3163
▁प्रतिष्ठ	-3164
▁टू	-3165
▁समूह	-3166
▁सैनी	-3167
हरण	-3168
▁बचाने	-3169
▁ड्यूटी	-3170
▁रोजगार	-3171
दर	-3172
▁J	-3173
ूनी	-3174
▁गतिविध	-3175
▁कंपनियों	-3176
▁ग्वालियर	-3177
.4	-3178
▁मनीष	-3179
▁अनुमति	-3180
▁मास	-3181
▁रूम	-3182
▁प्रत्य	-3183
क़	-3184
▁हेड	-3185
▁जानते	-3186
▁बाग	-3187
▁इंजीनियर	-3188
ay	-3189
▁धान	-3190
▁मध्यप्रदेश	-3191
त्त	-3192
▁चिकित्सा	-3193
▁हेम	-3194
▁प्रम	-3195
ूषण	-3196
वधान	-3197
वानी	-3198
▁बाढ़	-3199
▁चिंता	-3200
▁संचालक	-3201
वीन	-3202
▁2024:	-3203
▁पोस्टम	-3204
▁मुकाबले	-3205
▁रेड	-3206
▁एसोसिएशन	-3207
▁सेल्सियस	-3208
मै	-3209
नान	-3210
नेस	-3211
ानों	-3212
▁दान	-3213
▁लापर	-3214
▁जम्मू	-3215
▁कर्मियों	-3216
वां	-3217
शील	-3218
लिंग	-3219
▁सेल	-3220
वनी	-3221
▁36	-3222
स्वी	-3223
▁एसी	-3224
क्रिय	-3225
▁विवे	-3226
▁तारीख	-3227
▁सीनियर	-3228
गण	-3229
सन	-3230
िये	-3231
▁अट	-3232
▁शै	-3233
ॉर्टम	-3234
▁मुकदमा	-3235
▁पोस्टमॉर्टम	-3236
रु	-3237
▁बें	-3238
▁प्रिंस	-3239
▁निर्धारित	-3240
कृत	-3241
▁शूट	-3242
▁करनी	-3243
▁क्रम	-3244
▁चेयर	-3245
्रेलिया	-3246
▁आरक्षण	-3247
▁बॉलीवुड	-3248
वाया	-3249
▁फैसले	-3250
स्तावेज	-3251
▁दस्तावेज	-3252
ढ़ी	-3253
▁बूथ	-3254
▁ऑस्ट	-3255
▁निभा	-3256
▁निकले	-3257
▁अक्ष	-3258
▁आरती	-3259
▁दाखिल	-3260
▁टॉ	-3261
▁स्म	-3262
▁मोटर	-3263
थर	-3264
राय	-3265
▁जताई	-3266
▁किशोर	-3267
▁ज्ञापन	-3268
▁34	-3269
▁छुट	-3270
▁वेब	-3271
र्जर	-3272
▁फें	-3273
▁भरा	-3274
▁स्कू	-3275
▁जमानत	-3276
▁टॉप	-3277
▁रखते	-3278
▁फायरिंग	-3279
▁संचालित	-3280
ri	-3281
▁चर	-3282
बीसी	-3283
▁नवा	-3284
▁संपत्ति	-3285
▁रेफर	-3286
▁करवाई	-3287
▁दुर्गा	-3288
ांची	-3289
▁राजीव	-3290
▁स्टेट	-3291
ews	-3292
काता	-3293
▁गौरव	-3294
▁प्ला	-3295
▁वारा	-3296
▁नियंत्र	-3297
▁उज्ज	-3298
▁पालन	-3299
),	-3300
ल्ट	-3301
▁जॉ	-3302
▁चंडी	-3303
▁विश्	-3304
▁सप्लाई	-3305
आईआर	-3306
▁500	-3307
▁त्रि	-3308
▁W	-3309
ंजन	-3310
▁(1	-3311
▁झू	-3312
▁गिरावट	-3313
▁डायरेक्टर	-3314
▁48	-3315
र्तन	-3316
▁डीसी	-3317
▁पुराने	-3318
,000	-3319
▁खड़ा	-3320
▁दैनिक	-3321
▁सरपंच	-3322
▁प्रत्येक	-3323
द्दी	-3324
ौली	-3325
▁एच	-3326
▁जला	-3327
▁पावर	-3328
▁महाम	-3329
▁इस्ती	-3330
▁कोलकाता	-3331
▁ट्रैक्टर	-3332
▁खिलाड़ियों	-3333
▁किर	-3334
▁गोर	-3335
▁2021	-3336
▁लापरवाही	-3337
▁जुट	-3338
्यता	-3339
▁चौथ	-3340
▁पहा	-3341
▁खाते	-3342
▁ज्ञान	-3343
▁ठंड	-3344
▁हरि	-3345
▁िंग	-3346
▁संसद	-3347
▁क्षमता	-3348
▁हिस्से	-3349
▁उम्मीदवारों	-3350
ुक्ति	-3351
▁खाना	-3352
▁तालाब	-3353
▁प्रदीप	-3354
▁सक्रिय	-3355
▁उपाध्यक्ष	-3356
ाजी	-3357
▁ठगी	-3358
पेट	-3359
▁कमल	-3360
▁करियर	-3361
▁प्रतिमा	-3362
▁जिन्होंने	-3363
ित्व	-3364
िलास	-3365
▁अर्ज	-3366
▁रमेश	-3367
▁आगामी	-3368
▁घूम	-3369
्रेशन	-3370
▁पाली	-3371
▁मांगी	-3372
▁विशाल	-3373
▁विश्वास	-3374
व्यू	-3375
▁कथा	-3376
▁डॉलर	-3377
▁हमारा	-3378
▁रेट	-3379
▁स्पी	-3380
▁भावना	-3381
▁वितरण	-3382
▁सलमान	-3383
▁साबित	-3384
▁स्टैंड	-3385
▁अत	-3386
▁मच	-3387
▁जोन	-3388
▁पड़ता	-3389
▁संदेश	-3390
▁साउ	-3391
▁पसंद	-3392
▁पैदा	-3393
▁उठाया	-3394
▁अनुमान	-3395
▁करवाने	-3396
डर	-3397
धपुर	-3398
▁किरा	-3399
▁दवा	-3400
▁नशे	-3401
▁बुल	-3402
▁अकाउंट	-3403
▁90	-3404
ल्ला	-3405
▁अर्थ	-3406
▁उतार	-3407
▁गार्ड	-3408
▁तीसरी	-3409
▁नाथ	-3410
▁माध	-3411
मर	-3412
िनेट	-3413
▁सोच	-3414
▁हिम	-3415
▁विस्तार	-3416
▁एप	-3417
▁दस	-3418
बारा	-3419
▁क्लब	-3420
ेलन	-3421
▁आती	-3422
▁एंट	-3423
▁2025	-3424
िड़	-3425
बादी	-3426
▁आजा	-3427
▁प्रबंध	-3428
▁चंडीगढ़	-3429
▁इंडस्ट्री	-3430
▁CM	-3431
▁गोद	-3432
▁आतंक	-3433
▁सेंट	-3434
ेन्द्र	-3435
▁चुनौती	-3436
गु	-3437
▁कने	-3438
िमा	-3439
▁ओम	-3440
▁वॉ	-3441
िफ्ट	-3442
▁भ्र	-3443
▁श्याम	-3444
▁फिल्मों	-3445
हण	-3446
मैन	-3447
वंत	-3448
▁तिर	-3449
▁वाय	-3450
ड़िया	-3451
▁्	-3452
म्प	-3453
▁आपकी	-3454
▁टाइम	-3455
▁जिनमें	-3456
▁जोधपुर	-3457
▁मुद्दे	-3458
ur	-3459
ंदे	-3460
▁मिट	-3461
▁हंग	-3462
ेक्टर	-3463
▁खाने	-3464
▁चाहता	-3465
▁बढ़ने	-3466
▁भुगतान	-3467
▁इंटरव्यू	-3468
ंडर	-3469
▁शही	-3470
▁हालात	-3471
ेमारी	-3472
▁सलाह	-3473
▁हाईवे	-3474
▁प्रमाण	-3475
▁संघर्ष	-3476
▁छापेमारी	-3477
णसी	-3478
▁टिप	-3479
▁पुन	-3480
▁पॉल	-3481
▁नक्स	-3482
▁विमान	-3483
▁घायलों	-3484
णि	-3485
▁निर्म	-3486
▁वाराणसी	-3487
▁समीक्षा	-3488
▁शेख	-3489
▁इजरा	-3490
▁दूरी	-3491
▁विभा	-3492
वासियों	-3493
▁एफआईआर	-3494
▁कू	-3495
गणना	-3496
▁बिल्ड	-3497
िवार	-3498
▁गुजर	-3499
▁इंस्प	-3500
▁हिंसा	-3501
▁राजस्व	-3502
िमी	-3503
▁चाक	-3504
▁खड़ी	-3505
▁मॉडल	-3506
▁साउथ	-3507
▁प्रभा	-3508
▁वोटिंग	-3509
▁स्वामी	-3510
am	-3511
▁75	-3512
▁टो	-3513
▁प्यार	-3514
▁निशाना	-3515
▁चिकित्स	-3516
▁योजनाओं	-3517
▁कैब	-3518
▁पारा	-3519
▁पुरानी	-3520
ानि	-3521
्वी	-3522
ड्डा	-3523
▁इंच	-3524
दिग्ध	-3525
▁रद्द	-3526
▁फैक्ट	-3527
▁लक्ष्मी	-3528
▁ऑस्ट्रेलिया	-3529
सु	-3530
घाटन	-3531
▁धाम	-3532
▁पोर्ट	-3533
राष्ट्रीय	-3534
ंती	-3535
▁बादल	-3536
▁नियुक्त	-3537
▁संदिग्ध	-3538
.2	-3539
▁रूस	-3540
▁वास	-3541
▁फ्ला	-3542
▁फुटेज	-3543
▁स्थापना	-3544
▁इंटरनेशनल	-3545
ार्व	-3546
▁अच्छे	-3547
▁एसडीएम	-3548
▁खी	-3549
फॉर्म	-3550
▁ईरान	-3551
▁बल्ले	-3552
▁कप्तान	-3553
▁सकेंगे	-3554
घटना	-3555
▁फैल	-3556
▁ठेके	-3557
▁यूनिट	-3558
▁दुर्घटना	-3559
▁दह	-3560
▁सेक	-3561
▁भीतर	-3562
▁समाप्त	-3563
ोजक	-3564
▁कानपुर	-3565
▁भीषण	-3566
▁वृद्धि	-3567
▁विशेषज्ञ	-3568
्रेड	-3569
▁कोटा	-3570
▁रानी	-3571
▁यात्री	-3572
▁सर्विस	-3573
यं	-3574
▁रुक	-3575
▁चेता	-3576
▁नर्स	-3577
▁लेना	-3578
▁विकसित	-3579
▁सम्मेलन	-3580
दल	-3581
▁s	-3582
सीय	-3583
▁ओल	-3584
पीएस	-3585
▁तार	-3586
▁भरो	-3587
▁हित	-3588
▁चलाया	-3589
करा	-3590
▁डेढ़	-3591
▁शिकार	-3592
▁नेट	-3593
▁राठ	-3594
▁रांची	-3595
▁अंतरराष्ट्रीय	-3596
▁जू	-3597
▁स्ट्र	-3598
▁जबर	-3599
▁उपाय	-3600
▁टैक्स	-3601
भाष	-3602
▁लू	-3603
स्तर	-3604
▁स्टेड	-3605
▁गांवों	-3606
▁बम	-3607
▁रहीं	-3608
▁वकील	-3609
▁सत्य	-3610
▁कार्यकाल	-3611
▁अतिक	-3612
▁डाला	-3613
▁सार्व	-3614
▁अध्यक्षता	-3615
स्टल	-3616
िंदर	-3617
▁गठन	-3618
▁गुल	-3619
▁पवन	-3620
▁खुशी	-3621
▁स्वीकार	-3622
मित	-3623
▁संगी	-3624
▁सोना	-3625
▁हटाने	-3626
▁नज	-3627
केशन	-3628
्यास	-3629
▁चार्ज	-3630
दिन	-3631
▁आंख	-3632
▁द्व	-3633
▁होनी	-3634
▁राजेंद्र	-3635
र्जन	-3636
वाला	-3637
▁साज	-3638
▁स्वतंत्र	-3639
लब	-3640
नाम	-3641
▁जस	-3642
धिकार	-3643
▁आक्र	-3644
▁उद्घाटन	-3645
▁स्टेडियम	-3646
द्रा	-3647
पुरी	-3648
▁बजकर	-3649
▁ियों	-3650
▁कैमरे	-3651
▁जुर्म	-3652
नाड	-3653
ंपिक	-3654
▁गरीब	-3655
▁फैंस	-3656
स्टेबल	-3657
▁शहरों	-3658
▁स्वच्छ	-3659
▁अतिक्रमण	-3660
▁कथ	-3661
▁महास	-3662
▁लड़ाई	-3663
▁सुरेश	-3664
▁महोत्सव	-3665
.30	-3666
वेद	-3667
▁ऊंच	-3668
▁दोबारा	-3669
▁बढ़ावा	-3670
▁श्रद्धालुओं	-3671
हाद	-3672
िपल	-3673
▁अरब	-3674
▁2014	-3675
▁आखिर	-3676
▁सूरज	-3677
▁बीमार	-3678
▁सोरेन	-3679
▁मीटिंग	-3680
:30	-3681
न्द	-3682
▁अके	-3683
▁प्रे	-3684
ोग्राम	-3685
▁आशंका	-3686
▁चाहती	-3687
▁पंडित	-3688
▁शानदार	-3689
▁पुरस्कार	-3690
ंदन	-3691
धीश	-3692
त्मा	-3693
▁आंध	-3694
▁एरिया	-3695
▁दिनेश	-3696
▁विष्ण	-3697
▁पदों	-3698
▁सख्त	-3699
पिता	-3700
▁News	-3701
▁जिन्हें	-3702
.6	-3703
्मण	-3704
▁कठ	-3705
▁तु	-3706
▁कराए	-3707
▁दर्द	-3708
▁विज्ञान	-3709
▁नियुक्ति	-3710
वली	-3711
▁नाय	-3712
▁सौर	-3713
▁सिन्	-3714
डेट	-3715
▁डो	-3716
जनिक	-3717
स्थल	-3718
▁सार्वजनिक	-3719
ol	-3720
▁तस्कर	-3721
▁इंस्पेक्टर	-3722
-20	-3723
ंगर	-3724
▁नती	-3725
▁मिशन	-3726
▁मौजू	-3727
▁जगहों	-3728
ाइड	-3729
▁इक	-3730
▁बध	-3731
▁एक्शन	-3732
ंटर	-3733
▁सीता	-3734
▁लाखों	-3735
han	-3736
ष्टा	-3737
▁नारे	-3738
▁अखिलेश	-3739
▁मौजूदा	-3740
ारण	-3741
▁खर	-3742
▁मस्	-3743
▁यश	-3744
▁नियमों	-3745
▁सका	-3746
▁जानिए	-3747
▁लड़के	-3748
▁कैबिनेट	-3749
▁संस्कार	-3750
▁समस्याओं	-3751
▁अपराधियों	-3752
▁गह	-3753
▁कोह	-3754
चुनाव	-3755
▁गौतम	-3756
टका	-3757
▁कुश	-3758
▁सुल	-3759
▁वेतन	-3760
▁कारोबार	-3761
▁प्रारंभ	-3762
ढ़े	-3763
सेज	-3764
काने	-3765
▁नहर	-3766
▁शास	-3767
▁आपका	-3768
▁दरवा	-3769
▁मिलती	-3770
▁संजीव	-3771
▁अफसरों	-3772
▁मेट	-3773
▁क्लास	-3774
▁प्रवक्ता	-3775
▁पंक	-3776
धियाना	-3777
▁चलाने	-3778
▁प्रोफे	-3779
▁सिन्हा	-3780
▁लुधियाना	-3781
▁सांस्कृत	-3782
▁मनो	-3783
▁दिवसीय	-3784
▁पथ	-3785
▁असम	-3786
▁मैन	-3787
प्रीत	-3788
ब्लिक	-3789
▁विनोद	-3790
▁सुंदर	-3791
▁दिव्या	-3792
▁पहुंचाया	-3793
ंसर	-3794
नाटक	-3795
▁विज	-3796
▁2020	-3797
▁फॉर्म	-3798
▁जस्ट	-3799
▁धरना	-3800
▁लाइट	-3801
▁चारों	-3802
▁कर्नाटक	-3803
लान	-3804
▁माय	-3805
▁लिम	-3806
▁अरुण	-3807
▁आबादी	-3808
▁चांदी	-3809
▁बातें	-3810
▁महेंद्र	-3811
▁प्रोफेसर	-3812
▁चपेट	-3813
▁छोटी	-3814
▁चेतावनी	-3815
▁पश्चिमी	-3816
▁सांस्कृतिक	-3817
काम	-3818
ाइट	-3819
ेंगी	-3820
▁दाम	-3821
▁नवीन	-3822
▁मंजू	-3823
▁अनुभव	-3824
▁हल्की	-3825
तक	-3826
यत	-3827
जोर	-3828
▁सन	-3829
कर्मी	-3830
▁दलों	-3831
▁पेंशन	-3832
सीसी	-3833
▁अंडर	-3834
▁अनुप	-3835
▁चोरों	-3836
▁ट्रंप	-3837
▁उत्साह	-3838
▁विदेशी	-3839
▁आदिवासी	-3840
▁मध	-3841
गरानी	-3842
▁एंट्री	-3843
▁शौ	-3844
▁खुले	-3845
▁निकाली	-3846
एक	-3847
ॉम	-3848
▁55	-3849
▁PM	-3850
▁पलट	-3851
▁मुक्त	-3852
बीन	-3853
ानु	-3854
▁डूब	-3855
▁चाकू	-3856
▁पंकज	-3857
▁ऊर्जा	-3858
▁उपचुनाव	-3859
▁ट्रांसफर	-3860
कारा	-3861
तरीय	-3862
▁इसरा	-3863
▁भाषा	-3864
▁निगरानी	-3865
▁व्	-3866
म्बर	-3867
▁इंग	-3868
▁साहिब	-3869
फल	-3870
▁कच	-3871
▁कंग	-3872
▁मेर	-3873
▁गोरख	-3874
▁समझौ	-3875
▁भक्तों	-3876
▁योगदान	-3877
▁विष्णु	-3878
ौड़	-3879
्रह	-3880
फान	-3881
र्ण	-3882
▁बैग	-3883
▁घटनास्थल	-3884
▁गतिविधियों	-3885
.1	-3886
.3	-3887
.7	-3888
.8	-3889
▁घट	-3890
▁बाई	-3891
▁कपड़े	-3892
▁काउंस	-3893
▁रास्ता	-3894
पद	-3895
ेटर	-3896
▁आयु	-3897
▁गैस	-3898
▁बधाई	-3899
▁स्तरीय	-3900
▁बाय	-3901
▁बेस	-3902
ुल्ला	-3903
▁निरा	-3904
▁बोला	-3905
▁राजकुमार	-3906
साइड	-3907
▁गुण	-3908
राबाद	-3909
▁समान	-3910
▁सारे	-3911
▁सुभाष	-3912
नन	-3913
▁गर	-3914
गांव	-3915
ुलेंस	-3916
▁धोखा	-3917
▁भव्य	-3918
▁सैनिक	-3919
▁संकल्प	-3920
▁कंट्रोल	-3921
तो	-3922
▁300	-3923
▁गायब	-3924
▁पंजी	-3925
▁प्रयोग	-3926
इड	-3927
▁घे	-3928
ाराम	-3929
▁झां	-3930
▁मुर	-3931
▁ट्रॉ	-3932
▁बचाव	-3933
▁प्राण	-3934
▁प्रतिनिध	-3935
it	-3936
वासन	-3937
▁सिया	-3938
▁कर्मी	-3939
▁इन्हें	-3940
लीय	-3941
▁तृ	-3942
▁लल	-3943
▁400	-3944
▁आर्ट	-3945
▁मस्ज	-3946
▁टिप्प	-3947
▁प्रोड	-3948
▁क्राइम	-3949
चिव	-3950
▁रोल	-3951
र्में	-3952
स्ट्र	-3953
फ्रेंस	-3954
स्कृति	-3955
▁एनडीए	-3956
▁स्वयं	-3957
▁बिक्री	-3958
▁संस्कृति	-3959
▁नजदी	-3960
▁मेहन	-3961
▁कैप	-3962
▁गैर	-3963
▁परम	-3964
▁मानसिक	-3965
▁हंगामा	-3966
▁!	-3967
▁आना	-3968
▁निकला	-3969
▁निशान	-3970
▁ससुराल	-3971
▁फैक्ट्री	-3972
▁स्‍	-3973
▁देती	-3974
▁फ्री	-3975
ैट	-3976
▁घोट	-3977
▁आकर्	-3978
▁जीतने	-3979
▁पांडे	-3980
▁परिवहन	-3981
▁सुसाइड	-3982
▁झग	-3983
▁कौशल	-3984
▁उत्सव	-3985
▁वर्षा	-3986
▁साढ़े	-3987
▁छठ	-3988
कृति	-3989
हारी	-3990
▁ईडी	-3991
▁मुज	-3992
स्थिति	-3993
▁लगाते	-3994
ंपरा	-3995
साइट	-3996
ृत्य	-3997
▁लिमिट	-3998
क्न	-3999
ेयर	-4000
▁उज्जैन	-4001
▁कश्मीर	-4002
▁पर्यावरण	-4003
ोलॉ	-4004
▁198	-4005
▁खार	-4006
▁भूप	-4007
▁अग्न	-4008
▁लड़क	-4009
▁गोल्ड	-4010
▁चौराह	-4011
▁व्यापारी	-4012
▁i	-4013
्तीय	-4014
▁अपर	-4015
▁एडम	-4016
▁कैला	-4017
▁बोली	-4018
▁ब्रे	-4019
▁सुनाई	-4020
▁श्रीवा	-4021
▁वित्तीय	-4022
▁विभागों	-4023
कू	-4024
▁इन्	-4025
▁भरत	-4026
▁हरी	-4027
▁इंडियन	-4028
▁सूत्रों	-4029
▁38	-4030
▁चतु	-4031
▁श्रीवास्तव	-4032
▁फल	-4033
बद्ध	-4034
▁सब्	-4035
▁होम	-4036
▁वर्क	-4037
▁आएंगे	-4038
▁परंपरा	-4039
ईओ	-4040
▁छूट	-4041
▁रिश	-4042
िनियम	-4043
▁अर्जुन	-4044
▁आचार्य	-4045
▁46	-4046
▁कानूनी	-4047
धिकारियों	-4048
टरी	-4049
सवाल	-4050
▁शोर	-4051
▁इनकी	-4052
▁कहती	-4053
▁महेश	-4054
▁उनमें	-4055
▁हिंदी	-4056
▁हजारों	-4057
▁श्रीराम	-4058
▁शख	-4059
▁काे	-4060
▁खोज	-4061
▁काबू	-4062
▁किशन	-4063
▁कब्जा	-4064
▁पकड़े	-4065
▁चेयरमैन	-4066
as	-4067
▁भारती	-4068
▁वापसी	-4069
▁डीएसपी	-4070
▁अधिनियम	-4071
▁भ्रष्टा	-4072
ोसी	-4073
▁आश्	-4074
▁जाट	-4075
दर्शन	-4076
▁कमाई	-4077
▁दौड़	-4078
▁बताए	-4079
श्त	-4080
्लो	-4081
▁मंज	-4082
▁एमपी	-4083
स्त्री	-4084
▁बॉक्स	-4085
▁मेहनत	-4086
▁वेबसाइट	-4087
▁प्रियंका	-4088
ad	-4089
घा	-4090
▁शहीद	-4091
▁सीधे	-4092
▁अक्सर	-4093
▁कमजोर	-4094
▁केन्द्र	-4095
▁प्रिंसिपल	-4096
पता	-4097
▁लागत	-4098
▁विधाय	-4099
घर	-4100
ंवर	-4101
ंदाज	-4102
▁रोग	-4103
▁खेला	-4104
▁दर्श	-4105
▁विधि	-4106
▁व्यापार	-4107
बन	-4108
सेस	-4109
▁एडी	-4110
▁अनुर	-4111
▁आगरा	-4112
▁हवाई	-4113
▁कोहली	-4114
▁मुकाबला	-4115
▁एडव	-4116
▁तिल	-4117
▁इंग्ल	-4118
▁हाथों	-4119
▁डिजाइन	-4120
▁दिखाया	-4121
▁संरक्षण	-4122
▁मानव	-4123
▁रिया	-4124
un	-4125
▁लें	-4126
विंदर	-4127
▁इतने	-4128
▁चैंप	-4129
▁खाद्य	-4130
▁प्रती	-4131
▁हिसाब	-4132
▁राज्यपाल	-4133
▁पासवान	-4134
▁आवश्यकता	-4135
नाक	-4136
सूस	-4137
स्सा	-4138
▁भंड	-4139
▁जुटी	-4140
▁दुर्ग	-4141
▁पांडेय	-4142
▁मतदाता	-4143
रोज	-4144
▁पुण	-4145
▁जैसा	-4146
▁अपडेट	-4147
▁कैलाश	-4148
▁शूटिंग	-4149
▁आश्वासन	-4150
गन	-4151
रेज	-4152
ूर्त	-4153
▁उचित	-4154
▁दिग्	-4155
▁पदार्थ	-4156
▁पूर्वी	-4157
▁श्रेणी	-4158
▁घरे	-4159
▁गर्म	-4160
▁चक्र	-4161
▁जीता	-4162
▁वेस्ट	-4163
र्त	-4164
▁ऑड	-4165
एसआई	-4166
▁शब्	-4167
▁निष्	-4168
▁रणनी	-4169
▁प्लांट	-4170
▁फ्लाइट	-4171
दिक	-4172
▁ओड	-4173
ड्डी	-4174
▁खून	-4175
▁नित	-4176
▁चौरा	-4177
▁भोजन	-4178
▁दिक	-4179
▁सैक	-4180
तायात	-4181
▁दोषी	-4182
▁प्रस	-4183
▁ममता	-4184
▁सिने	-4185
▁ट्रैक	-4186
▁संयोजक	-4187
▁मुद्दों	-4188
▁प्रतिबंध	-4189
ांश	-4190
▁..	-4191
▁लाश	-4192
▁अवधि	-4193
▁घरेलू	-4194
▁यातायात	-4195
यी	-4196
▁डू	-4197
क्षी	-4198
▁बुरी	-4199
▁तुलना	-4200
▁मतगणना	-4201
▁मस्जिद	-4202
▁लेख	-4203
▁सिम	-4204
▁स्कोर	-4205
▁महासचिव	-4206
▁साथियों	-4207
चंद	-4208
▁42	-4209
▁मुआ	-4210
▁जनरल	-4211
▁बनकर	-4212
▁विवेक	-4213
चक	-4214
स्म	-4215
▁44	-4216
ानगर	-4217
▁करण	-4218
▁लंबी	-4219
▁निकली	-4220
▁राउंड	-4221
▁सीबीआई	-4222
▁प्रतिनिधि	-4223
ौज	-4224
िले	-4225
▁दूध	-4226
▁मेन	-4227
▁बढ़ो	-4228
▁श्रम	-4229
इंट	-4230
▁चीज	-4231
▁जाएं	-4232
▁पायल	-4233
▁गिरने	-4234
ियत	-4235
▁कैद	-4236
▁नशा	-4237
िकेशन	-4238
▁अश्व	-4239
▁टाटा	-4240
▁दुबे	-4241
▁मेला	-4242
▁इनकार	-4243
▁पत्थर	-4244
▁अमन	-4245
▁ध्व	-4246
हत्या	-4247
▁आशीष	-4248
▁दीवार	-4249
▁मुद्दा	-4250
▁आत्महत्या	-4251
ित्त	-4252
▁बॉल	-4253
▁विरा	-4254
▁संभव	-4255
▁जस्टिस	-4256
▁निकलने	-4257
▁पक्षों	-4258
▁ट्रेनिंग	-4259
▁जिलाध्यक्ष	-4260
ाकर	-4261
रेस्ट	-4262
▁दावे	-4263
▁मोर्चा	-4264
▁लिमिटेड	-4265
▁विधायकों	-4266
ग्न	-4267
प्प	-4268
▁ढा	-4269
▁जुल	-4270
▁हर्ष	-4271
▁अजमेर	-4272
▁हेमंत	-4273
▁शुक्ला	-4274
▁सामग्री	-4275
▁भ्रष्टाचार	-4276
ce	-4277
▁ि	-4278
क्‍	-4279
ल्थ	-4280
ट्यू	-4281
▁इस्तीफा	-4282
▁राज्यसभा	-4283
▁(3	-4284
▁चीफ	-4285
▁नील	-4286
▁बड़	-4287
▁बेल	-4288
▁वसू	-4289
कृष्ण	-4290
▁बरसा	-4291
▁शख्स	-4292
▁बढ़ती	-4293
▁ट्रस्ट	-4294
शोध	-4295
वाड़ी	-4296
▁अहमद	-4297
ज्ञानिक	-4298
▁गोरखपुर	-4299
▁उल	-4300
फिया	-4301
▁प्रण	-4302
▁मेडल	-4303
▁जबलपुर	-4304
▁नियमित	-4305
▁निरीक्षक	-4306
दीय	-4307
▁ऑल	-4308
▁ऐलान	-4309
▁कथित	-4310
▁दुष्	-4311
▁मेले	-4312
▁साझा	-4313
▁बढ़कर	-4314
▁महसूस	-4315
ट्र	-4316
▁छत	-4317
िन्द	-4318
्योर	-4319
▁पाने	-4320
▁प्रदर्श	-4321
.0	-4322
hi	-4323
गाह	-4324
दास	-4325
▁ओं	-4326
▁पाइ	-4327
▁आयुष	-4328
▁मुजफ्	-4329
▁प्रशासनिक	-4330
▁गोयल	-4331
▁बीएस	-4332
▁कैंसर	-4333
▁खारिज	-4334
▁कुलदीप	-4335
▁नियंत्रण	-4336
दक	-4337
ब्र	-4338
▁रुख	-4339
▁आकाश	-4340
भो	-4341
ायी	-4342
ेडकर	-4343
▁महतो	-4344
▁दिक्क	-4345
▁बेचने	-4346
▁प्रकरण	-4347
▁दुकानों	-4348
▁तमिल	-4349
▁मारे	-4350
▁न्यायाधीश	-4351
ीप	-4352
िलंब	-4353
▁ताल	-4354
▁मंग	-4355
▁सेट	-4356
▁खेती	-4357
▁पड़ेगा	-4358
▁तेजस्वी	-4359
मोह	-4360
▁एका	-4361
▁2018	-4362
▁महाप	-4363
▁मारा	-4364
▁लापता	-4365
▁शिफ्ट	-4366
▁हड़ताल	-4367
▁छात्राओं	-4368
▁जख	-4369
आईटी	-4370
▁दौरे	-4371
▁डिजिटल	-4372
घु	-4373
har	-4374
▁आरा	-4375
▁छोटा	-4376
▁जाया	-4377
▁होली	-4378
्योहार	-4379
▁विद्या	-4380
ृज	-4381
▁39	-4382
▁माइ	-4383
▁गुना	-4384
ब्ल्यू	-4385
▁ओडिशा	-4386
▁एक्टिव	-4387
▁ज्यादातर	-4388
फ्ते	-4389
▁धूप	-4390
▁पोर्टल	-4391
▁मुजफ्फर	-4392
ंतर	-4393
▁आर्	-4394
▁रूट	-4395
▁मतलब	-4396
रेन्द्र	-4397
▁पब्लिक	-4398
▁बिल्डिंग	-4399
▁एश	-4400
▁यूज	-4401
▁ग्रा	-4402
नामेंट	-4403
▁मैचों	-4404
▁पार्किंग	-4405
▁मतदाताओं	-4406
▁in	-4407
हिता	-4408
▁अधिव	-4409
▁टूर्	-4410
▁लाइस	-4411
ड़ियां	-4412
▁अभिने	-4413
▁विहार	-4414
▁अपराधी	-4415
▁बीमारी	-4416
▁संहिता	-4417
▁नागरिकों	-4418
▁टूर्नामेंट	-4419
चर्स	-4420
▁यूक	-4421
स्थाप	-4422
ाइयों	-4423
▁संकट	-4424
▁ड्रोन	-4425
▁भरोसा	-4426
▁समापन	-4427
▁हफ्ते	-4428
▁आक्रोश	-4429
▁प्रतिभा	-4430
▁प्रार्थ	-4431
el	-4432
मो	-4433
▁आह	-4434
वाड़	-4435
▁डिट	-4436
▁चाहे	-4437
▁जोशी	-4438
▁साजिश	-4439
5)	-4440
श्म	-4441
▁ठग	-4442
▁फते	-4443
▁केरल	-4444
▁बढ़े	-4445
▁मारकर	-4446
▁टिप्पणी	-4447
▁जिम्मेदार	-4448
▁पदाधिकारियों	-4449
रेली	-4450
▁आईपी	-4451
▁रखना	-4452
▁जयंती	-4453
▁एग्जाम	-4454
▁पुष्टि	-4455
▁मास्टर	-4456
▁एक्सपर्ट	-4457
नीत	-4458
रीय	-4459
्रल	-4460
▁65	-4461
▁नक्सल	-4462
▁विराट	-4463
▁मैनेजर	-4464
रीन	-4465
▁आसान	-4466
▁दौरा	-4467
▁ब्रह	-4468
▁राधा	-4469
▁सौंपा	-4470
▁किरदार	-4471
▁गोविंद	-4472
▁सिनेमा	-4473
▁मान्यता	-4474
ंडे	-4475
क्चर	-4476
▁अना	-4477
▁नाल	-4478
▁आर्य	-4479
▁चित्र	-4480
▁गुर्जर	-4481
▁चौराहे	-4482
▁प्रश्न	-4483
▁विद्युत	-4484
पात	-4485
पूत	-4486
▁पीठ	-4487
▁फंस	-4488
▁भरी	-4489
▁सकी	-4490
▁हैद	-4491
ोलॉजी	-4492
▁गिरी	-4493
▁मारी	-4494
▁वोटर	-4495
▁मैसेज	-4496
▁अंग्रे	-4497
▁बढ़ोतरी	-4498
▁प्रावधान	-4499
▁प्रस्तुति	-4500
▁पव	-4501
▁कना	-4502
▁कवि	-4503
▁मूवी	-4504
▁बिलास	-4505
▁पड़ोसी	-4506
▁जागरूकता	-4507
वै	-4508
गेट	-4509
प्त	-4510
▁झु	-4511
▁लीक	-4512
▁उसको	-4513
▁निर्द	-4514
▁तकनीकी	-4515
▁शुरुआती	-4516
गज	-4517
मैं	-4518
ेदी	-4519
▁In	-4520
▁रखें	-4521
▁विजे	-4522
▁हिसार	-4523
▁मूर्ति	-4524
▁परिवारों	-4525
▁बिलासपुर	-4526
▁वैज्ञानिक	-4527
▁थानाध्यक्ष	-4528
जात	-4529
▁गे	-4530
▁शक	-4531
▁इच्छ	-4532
▁तनाव	-4533
▁बदले	-4534
▁लड़ा	-4535
▁लेंगे	-4536
▁कार्यवाही	-4537
▁प्रतिष्ठा	-4538
गीर	-4539
▁शर	-4540
▁गड़	-4541
▁भड़	-4542
▁अल्प	-4543
▁उठाए	-4544
▁कुर्	-4545
▁स्वर	-4546
▁कंगना	-4547
▁जुड़ा	-4548
▁बच्चा	-4549
▁शुल्क	-4550
▁मांगों	-4551
▁दोस्तों	-4552
्वल	-4553
▁जज	-4554
▁सैन	-4555
▁सारी	-4556
▁अक्षय	-4557
▁जिसने	-4558
▁लड़ने	-4559
▁लिखित	-4560
▁रिजर्व	-4561
▁हिस्सों	-4562
▁गज	-4563
▁साव	-4564
▁उपभो	-4565
▁फेंक	-4566
▁साइक	-4567
कर्मियों	-4568
▁त्योहार	-4569
केत	-4570
▁तल	-4571
▁जीते	-4572
▁संभाल	-4573
▁रिजल्ट	-4574
▁47	-4575
▁टोल	-4576
▁लोह	-4577
कर्ता	-4578
▁राजद	-4579
▁उत्तरा	-4580
▁आपूर्ति	-4581
▁संगठनों	-4582
▁तहसीलदार	-4583
ूंगा	-4584
्‍या	-4585
▁कस्	-4586
▁नमः	-4587
▁समन	-4588
▁कहने	-4589
▁नीरज	-4590
▁जिंदगी	-4591
▁अभ्यर्थियों	-4592
ड्ढ	-4593
▁पश	-4594
▁जनपद	-4595
▁दलित	-4596
▁निधन	-4597
▁शांत	-4598
▁सचिन	-4599
▁घटनाओं	-4600
▁कारोबारी	-4601
यक	-4602
फोन	-4603
▁कैंड	-4604
▁खेले	-4605
▁लीटर	-4606
▁सकें	-4607
▁ग्राह	-4608
▁बनाना	-4609
▁शुभारंभ	-4610
ख्	-4611
्द	-4612
▁अक	-4613
▁चलता	-4614
▁जताया	-4615
▁हैदराबाद	-4616
▁पंप	-4617
▁सफर	-4618
र्वाद	-4619
ल्लेख	-4620
▁फाइल	-4621
▁ग्रहण	-4622
▁बेंगल	-4623
▁केंद्रों	-4624
▁कॉन्फ्रेंस	-4625
ंधर	-4626
जलि	-4627
▁फं	-4628
▁गले	-4629
▁गाज	-4630
▁वैसे	-4631
▁टेक्न	-4632
▁दर्जन	-4633
▁अर्पित	-4634
लैंड	-4635
▁पहन	-4636
▁लीड	-4637
▁सना	-4638
▁इस्ल	-4639
▁टीमों	-4640
▁फांसी	-4641
▁मानना	-4642
▁आशीर्वाद	-4643
▁जुर्माना	-4644
id	-4645
िणी	-4646
▁150	-4647
▁बाघ	-4648
▁टीचर	-4649
▁कितनी	-4650
▁जानें	-4651
▁दिलीप	-4652
▁पालिका	-4653
▁प्रयाग	-4654
▁तत्कालीन	-4655
BI	-4656
एचओ	-4657
ितीय	-4658
▁करन	-4659
▁गुम	-4660
▁पिट	-4661
▁बृज	-4662
▁सिख	-4663
▁गीता	-4664
▁उल्लेख	-4665
▁पुराना	-4666
▁क्षेत्रीय	-4667
▁स्वतंत्रता	-4668
ab	-4669
ंधे	-4670
बूर	-4671
वाय	-4672
ार्ट	-4673
▁197	-4674
▁शाखा	-4675
▁पुष्प	-4676
▁पर्यटन	-4677
▁प्राचार्य	-4678
याल	-4679
्की	-4680
▁49	-4681
▁आलम	-4682
▁जुड़	-4683
▁साहब	-4684
▁कितना	-4685
▁नृत्य	-4686
IR	-4687
▁	-4688
ा	-4689
र	-4690
क	-4691
े	-4692
ी	-4693
न	-4694
्	-4695
स	-4696
ि	-4697
ं	-4698
म	-4699
ह	-4700
ल	-4701
त	-4702
ो	-4703
प	-4704
य	-4705
व	-4706
द	-4707
ज	-4708
ग	-4709
ब	-4710
ु	-4711
।	-4712
ै	-4713
ट	-4714
श	-4715
ए	-4716
ड	-4717
च	-4718
भ	-4719
अ	-4720
थ	-4721
ू	-4722
,	-4723
आ	-4724
इ	-4725
ध	-4726
ख	-4727
उ	-4728
ई	-4729
़	-4730
फ	-4731
ष	-4732
औ	-4733
ौ	-4734
ण	-4735
2	-4736
0	-4737
1	-4738
-	-4739
छ	-4740
ॉ	-4741
घ	-4742
.	-4743
ठ	-4744
ओ	-4745
5	-4746
3	-4747
4	-4748
ढ	-4749
ृ	-4750
9	-4751
6	-4752
झ	-4753
a	-4754
7	-4755
8	-4756
:	-4757
)	-4758
(	-4759
'	-4760
ऐ	-4761
e	-4762
i	-4763
"	-4764
ऑ	-4765
n	-4766
r	-4767
o	-4768
t	-4769
S	-4770
P	-4771
h	-4772
C	-4773
s	-4774
A	-4775
‍	-4776
I	-4777
l	-4778
ऊ	-4779
ञ	-4780
?	-4781
M	-4782
d	-4783
D	-4784
B	-4785
u	-4786
R	-4787
N	-4788
m	-4789
c	-4790
T	-4791
E	-4792
p	-4793
y	-4794
G	-4795
O	-4796
L	-4797
k	-4798
F	-4799
g	-4800
J	-4801
K	-4802
V	-4803
U	-4804
w	-4805
%	-4806
/	-4807
v	-4808
ः	-4809
H	-4810
ँ	-4811
b	-4812
ऋ	-4813
W	-4814
;	-4815
f	-4816
j	-4817
!	-4818
X	-4819
x	-4820
ॅ	-4821
ॐ	-4822
॥	-4823
{	-4824
Y	-4825
z	-4826
₹	-4827
Q	-4828
+	-4829
Z	-4830
_	-4831
^	-4832
°	-4833
०	-4834
q	-4835
*	-4836
}	-4837
@	-4838
ऱ	-4839
ङ	-4840
=	-4841
&	-4842
ऽ	-4843
•	-4844
#	-4845
া	-4846
$	-4847
ে	-4848
র	-4849
🔴	-4850
̈	-4851
]	-4852
➤	-4853
ळ	-4854
ऩ	-4855
️	-4856
🌟	-4857
॰	-4858
ক	-4859
⁠	-4860
२	-4861
\	-4862
্	-4863
ন	-4864
ি	-4865
క	-4866
ి	-4867
×	-4868
ত	-4869
ా	-4870
ు	-4871
్	-4872
­	-4873
জ	-4874
ల	-4875
ব	-4876
ম	-4877
చ	-4878
●	-4879
🕐	-4880
>	-4881
३	-4882
४	-4883
ট	-4884
ো	-4885
ర	-4886
[	-4887
१	-4888
প	-4889
ল	-4890
ু	-4891
ం	-4892
~	-4893
९	-4894
এ	-4895
চ	-4896
য	-4897
ষ	-4898
স	-4899
గ	-4900
ట	-4901
ీ	-4902
♈	-4903
ॊ	-4904
ছ	-4905
ড	-4906
দ	-4907
ধ	-4908
త	-4909
న	-4910
వ	-4911
స	-4912
⏱	-4913
♍	-4914
⚠	-4915
⭐	-4916
🇮	-4917
🇳	-4918
🪐	-4919
£	-4920
ॆ	-4921
ॠ	-4922
ঁ	-4923
আ	-4924
ই	-4925
ও	-4926
খ	-4927
়	-4928
ী	-4929
డ	-4930
ప	-4931
శ	-4932
ూ	-4933
ె	-4934
⁄	-4935
☀	-4936
♏	-4937
♐	-4938
♑	-4939
♒	-4940
♓	-4941
🌙	-4942
🔵	-4943
·	-4944
ï	-4945
ऍ	-4946
॑	-4947
५	-4948
६	-4949
८	-4950
অ	-4951
ঘ	-4952
ঠ	-4953
ণ	-4954
ઢ	-4955
ఇ	-4956
ఛ	-4957
జ	-4958
ణ	-4959
థ	-4960
ద	-4961
ఫ	-4962
బ	-4963
భ	-4964
ే	-4965
ొ	-4966
ో	-4967
‛	-4968
€	-4969
⏩	-4970
▪	-4971
○	-4972
♉	-4973
♊	-4974
♋	-4975
♌	-4976
♦	-4977
⚫	-4978
❓	-4979
❗	-4980
	-4981
🌅	-4982
🎉	-4983
🏅	-4984
🏹	-4985
🐉	-4986
💫	-4987
🗓	-4988
😉	-4989
😎	-4990
😜	-4991
😸	-4992
🤔	-4993
🤩	-4994
🦌	-4995
🧭	-4996
