<unk>	0
<s>	0
</s>	0
▁क	-0
▁स	-1
▁म	-2
▁ह	-3
▁प	-4
ार	-5
ें	-6
▁ब	-7
ने	-8
▁के	-9
्र	-10
या	-11
▁ज	-12
▁में	-13
▁द	-14
▁है	-15
▁र	-16
▁ल	-17
▁व	-18
▁अ	-19
▁की	-20
ों	-21
▁ग	-22
▁न	-23
▁को	-24
र्	-25
ान	-26
▁से	-27
▁आ	-28
▁कि	-29
ता	-30
▁ने	-31
▁का	-32
▁भ	-33
▁इ	-34
▁कर	-35
▁उ	-36
▁त	-37
▁पर	-38
ाल	-39
िक	-40
▁श	-41
ना	-42
्य	-43
िल	-44
▁औ	-45
▁च	-46
▁और	-47
स्	-48
क्	-49
▁थ	-50
▁प्र	-51
ड़	-52
▁ए	-53
ां	-54
ाम	-55
ही	-56
▁इस	-57
िया	-58
▁हो	-59
वा	-60
ित	-61
▁य	-62
के	-63
ला	-64
▁बा	-65
हा	-66
कर	-67
▁हैं	-68
िय	-69
▁फ	-70
िए	-71
िस	-72
ुर	-73
ले	-74
▁ख	-75
ंग	-76
▁भी	-77
▁जा	-78
▁वि	-79
▁स्	-80
ते	-81
त्र	-82
ेश	-83
▁रा	-84
िन	-85
री	-86
ारी	-87
▁ट	-88
हीं	-89
▁उन	-90
ती	-91
रा	-92
▁हु	-93
▁ड	-94
▁सा	-95
ुल	-96
्या	-97
▁किया	-98
ति	-99
नी	-100
वार	-101
गा	-102
▁लिए	-103
से	-104
▁1	-105
ंद	-106
सी	-107
▁ले	-108
▁एक	-109
▁2	-110
▁गया	-111
▁पह	-112
▁था	-113
▁सं	-114
▁सम	-115
▁घ	-116
क्ष	-117
ोग	-118
▁नहीं	-119
▁दे	-120
▁रह	-121
ाय	-122
▁कार	-123
▁नि	-124
▁अप	-125
िला	-126
का	-127
▁मु	-128
ली	-129
की	-130
▁ही	-131
टी	-132
▁बाद	-133
▁सि	-134
ियों	-135
त्	-136
ार्	-137
ास	-138
ंड	-139
्ह	-140
भा	-141
पी	-142
▁पुल	-143
▁साथ	-144
िर	-145
मा	-146
▁यह	-147
▁पुलिस	-148
▁गई	-149
▁बता	-150
▁पू	-151
▁कहा	-152
▁कु	-153
गी	-154
▁करने	-155
ढ़	-156
▁सु	-157
टर	-158
▁उन्ह	-159
▁अध	-160
▁दो	-161
ंच	-162
▁रहे	-163
रो	-164
▁तो	-165
▁राज	-166
▁थी	-167
्म	-168
▁दिया	-169
दी	-170
रे	-171
▁सी	-172
्री	-173
▁उस	-174
▁लोग	-175
▁वाल	-176
ाना	-177
▁छ	-178
्रे	-179
▁मह	-180
पुर	-181
सा	-182
▁अन	-183
ौर	-184
▁तक	-185
▁रहा	-186
▁बताया	-187
स्ट	-188
दा	-189
ल्	-190
में	-191
▁दी	-192
गे	-193
कार	-194
▁ध	-195
▁चु	-196
▁ला	-197
भी	-198
जा	-199
▁हुए	-200
▁मौ	-201
जी	-202
▁मिल	-203
िश	-204
वी	-205
ष्	-206
देश	-207
गर	-208
▁या	-209
ंह	-210
्त	-211
▁रही	-212
्ष	-213
▁थे	-214
▁20	-215
ंत्र	-216
कि	-217
ाई	-218
▁बार	-219
ानी	-220
ाह	-221
▁बी	-222
ोज	-223
टे	-224
▁जिस	-225
वि	-226
नों	-227
ओं	-228
ोंने	-229
हर	-230
▁सिंह	-231
बर	-232
िव	-233
ाज	-234
शन	-235
▁लगा	-236
▁(	-237
▁सर	-238
▁गए	-239
▁उन्होंने	-240
▁वह	-241
ड़ी	-242
र्ट	-243
मी	-244
पा	-245
स्थ	-246
▁जो	-247
मार	-248
जे	-249
▁जाए	-250
▁पहु	-251
▁मो	-252
स्त	-253
▁आरो	-254
▁पहुंच	-255
िंग	-256
▁बे	-257
ुप	-258
ड़ा	-259
▁लेकर	-260
▁दिन	-261
▁पहले	-262
▁3	-263
द्	-264
द्र	-265
▁स्थ	-266
▁इसके	-267
च्	-268
ेल	-269
ाइ	-270
▁अधिक	-271
▁बना	-272
▁लोगों	-273
▁मे	-274
▁माम	-275
▁भार	-276
▁कार्य	-277
ैं	-278
▁अपने	-279
▁हुई	-280
वे	-281
किन	-282
▁पी	-283
क्र	-284
ंत्री	-285
▁लेकिन	-286
▁जब	-287
न्	-288
▁टी	-289
▁परि	-290
▁सो	-291
▁साल	-292
▁दौर	-293
▁हम	-294
ोक	-295
र्म	-296
▁जान	-297
वर	-298
▁होने	-299
ंध	-300
खा	-301
▁गां	-302
बा	-303
▁सक	-304
▁जी	-305
▁वाले	-306
▁क्ष	-307
▁दौरान	-308
ांच	-309
तर	-310
▁ओ	-311
▁अब	-312
श्	-313
र्ज	-314
टा	-315
▁इन	-316
▁पा	-317
▁हुआ	-318
वाल	-319
▁बि	-320
▁5	-321
नाव	-322
▁ऐ	-323
▁वर्	-324
▁साम	-325
▁कम	-326
▁निर्	-327
▁तर	-328
▁बात	-329
▁घर	-330
ूल	-331
मान	-332
ीन	-333
▁4	-334
धान	-335
ेत्र	-336
्रेस	-337
▁शिक	-338
▁मां	-339
▁सरकार	-340
▁पि	-341
कारी	-342
▁शुर	-343
▁यु	-344
▁उप	-345
▁बै	-346
डी	-347
ाप	-348
▁शाम	-349
▁रुप	-350
▁दू	-351
▁करते	-352
र्व	-353
ड़े	-354
टना	-355
च्च	-356
वं	-357
ोट	-358
▁क्षेत्र	-359
▁आय	-360
▁ऑ	-361
ेट	-362
एम	-363
ेंद्र	-364
▁कुमार	-365
ष्ट	-366
िप	-367
▁चुनाव	-368
▁हर	-369
ोर	-370
▁अं	-371
▁ये	-372
▁आप	-373
▁रू	-374
00	-375
▁पार्	-376
▁काम	-377
▁महिला	-378
्स	-379
▁डॉ	-380
▁सभी	-381
ंप	-382
कों	-383
▁कह	-384
▁सू	-385
क्षा	-386
ून	-387
▁कुछ	-388
▁जन	-389
क्त	-390
स्प	-391
्ल	-392
ोल	-393
▁लिया	-394
▁द्	-395
▁कई	-396
▁कै	-397
क्ट	-398
वाई	-399
▁दु	-400
▁मा	-401
▁बढ़	-402
जार	-403
क्टर	-404
▁पास	-405
▁मुख	-406
▁सब	-407
▁थाना	-408
▁202	-409
बी	-410
▁अनु	-411
सर	-412
वारा	-413
सभा	-414
िम	-415
▁गांव	-416
जन	-417
▁चल	-418
▁कॉ	-419
▁भारत	-420
▁टीम	-421
▁रो	-422
एस	-423
▁गिर	-424
▁प्रति	-425
भाग	-426
▁ग्र	-427
▁वे	-428
▁उनके	-429
▁झ	-430
▁जु	-431
▁मामले	-432
ेंगे	-433
▁कोई	-434
चार	-435
▁भा	-436
▁चौ	-437
▁सह	-438
▁नाम	-439
िका	-440
▁दर्ज	-441
ोड़	-442
▁व्य	-443
शी	-444
▁आरोप	-445
▁कांग	-446
▁द्वारा	-447
ारा	-448
्यक्ष	-449
▁हा	-450
बंध	-451
▁ट्र	-452
▁हि	-453
▁देख	-454
▁अपनी	-455
▁बह	-456
ीड	-457
▁स्ट	-458
▁शुरू	-459
▁समय	-460
▁बच्च	-461
▁खिला	-462
▁कांग्रेस	-463
▁ता	-464
र्स	-465
ेज	-466
▁हाल	-467
▁उन्हें	-468
▁वहीं	-469
्यू	-470
▁घटना	-471
▁मै	-472
द्ध	-473
▁निक	-474
▁यहां	-475
▁दोनों	-476
▁बु	-477
को	-478
▁जिल	-479
▁लग	-480
णा	-481
▁विक	-482
▁इं	-483
▁चाह	-484
▁अभ	-485
▁गो	-486
िट	-487
▁बजे	-488
ताल	-489
▁स्क	-490
ृत	-491
यर	-492
▁जिला	-493
▁रुपए	-494
▁ठ	-495
▁6	-496
▁ना	-497
▁जै	-498
▁आज	-499
▁अव	-500
ूर	-501
▁जांच	-502
▁फिल	-503
चा	-504
▁अम	-505
▁विभाग	-506
▁किसी	-507
ंबर	-508
▁रूप	-509
▁मुख्य	-510
▁देश	-511
▁रख	-512
▁तरह	-513
▁एस	-514
मंत्री	-515
फ्त	-516
▁आरोपी	-517
्यों	-518
▁'	-519
▁बीच	-520
▁आई	-521
▁राम	-522
▁उसके	-523
▁पै	-524
ायत	-525
▁युव	-526
▁जानकारी	-527
ेर	-528
▁10	-529
▁अग	-530
▁प्रदेश	-531
दार	-532
क्स	-533
िल्	-534
▁गु	-535
▁दि	-536
..	-537
जू	-538
▁लाख	-539
▁शामिल	-540
▁डि	-541
▁स्थित	-542
त्या	-543
▁लोक	-544
ंट	-545
लय	-546
चना	-547
▁एवं	-548
ोर्ट	-549
आई	-550
▁बन	-551
▁बद	-552
वन	-553
▁7	-554
▁दूस	-555
▁नगर	-556
▁फिर	-557
▁भाज	-558
▁अस्प	-559
▁होगा	-560
एं	-561
▁करा	-562
▁बैठ	-563
▁"	-564
जर	-565
▁अस्पताल	-566
▁जाएगा	-567
▁करी	-568
ाली	-569
▁भाजपा	-570
पर	-571
▁पु	-572
▁छा	-573
▁खु	-574
ज्	-575
▁किए	-576
र्ड	-577
वान	-578
▁उसे	-579
वासी	-580
▁तै	-581
▁इला	-582
दान	-583
▁खिलाफ	-584
क्रम	-585
सान	-586
▁जारी	-587
ेशन	-588
▁कारण	-589
्यादा	-590
्मी	-591
▁जाने	-592
▁जिले	-593
प्	-594
ेंट	-595
▁पार्टी	-596
▁अन्य	-597
▁उत्	-598
▁सुर	-599
ांस	-600
ियां	-601
धार	-602
▁पूर्व	-603
▁रात	-604
▁याद	-605
▁मैं	-606
▁शु	-607
▁मान	-608
▁नी	-609
ुरु	-610
फी	-611
हत	-612
▁रे	-613
▁करीब	-614
▁मंद	-615
▁उनकी	-616
▁वो	-617
▁आयोज	-618
▁उम	-619
▁8	-620
्न	-621
▁सद	-622
▁नेता	-623
बह	-624
क्ति	-625
▁ज्यादा	-626
▁सीट	-627
▁परिवार	-628
र्थ	-629
▁गिरफ्त	-630
▁बो	-631
▁अध्यक्ष	-632
धी	-633
सार	-634
▁मार	-635
▁वाली	-636
▁आए	-637
▁मौके	-638
▁मंत्री	-639
तीय	-640
▁ओर	-641
पाल	-642
हार	-643
त्रा	-644
▁वर्ष	-645
▁करना	-646
▁कार्र	-647
▁राज्य	-648
▁मंदिर	-649
ाला	-650
▁जाता	-651
्यालय	-652
▁अल	-653
▁कार्रवाई	-654
▁मौत	-655
▁फिल्म	-656
▁लि	-657
लो	-658
ुत	-659
गढ़	-660
▁ली	-661
ामी	-662
▁शा	-663
▁तीन	-664
▁शहर	-665
िता	-666
▁हजार	-667
▁सामने	-668
▁डी	-669
जय	-670
▁सुबह	-671
▁कार्यक्रम	-672
गत	-673
▁स्कूल	-674
नि	-675
्रीय	-676
हां	-677
▁मांग	-678
▁विध	-679
▁देने	-680
▁सबसे	-681
▁ई	-682
▁आद	-683
▁9	-684
वास	-685
▁श्री	-686
ंस	-687
▁मार्	-688
▁फै	-689
▁शिक्ष	-690
▁पिछ	-691
ब्	-692
र्मा	-693
▁प्रश	-694
▁करोड़	-695
प्र	-696
▁निवासी	-697
▁क्या	-698
▁यादव	-699
कान	-700
▁इसी	-701
▁महा	-702
ूम	-703
▁पो	-704
इन	-705
▁सूचना	-706
▁पानी	-707
▁युवक	-708
▁जग	-709
्ला	-710
दे	-711
भाव	-712
ड़क	-713
ायल	-714
ियो	-715
जूद	-716
▁बारिश	-717
▁जहां	-718
▁ऐसे	-719
ूर्	-720
▁दिए	-721
▁पं	-722
▁12	-723
ेत	-724
ध्य	-725
▁शिकायत	-726
▁चला	-727
▁कंप	-728
ोन	-729
▁आने	-730
तार	-731
▁आर	-732
▁पहुंचे	-733
▁होगी	-734
▁जर	-735
ारियों	-736
▁जिसमें	-737
ूं	-738
▁आया	-739
ंब	-740
ंगल	-741
▁क्र	-742
ैन	-743
स्था	-744
▁इसमें	-745
▁गिरफ्तार	-746
▁तैय	-747
▁अधिकारी	-748
शे	-749
▁इससे	-750
ोष	-751
वल	-752
र्शन	-753
▁मिली	-754
िल्ली	-755
ासन	-756
ंदर	-757
धिक	-758
▁यू	-759
▁भारतीय	-760
ठा	-761
▁मत	-762
▁अनुसार	-763
▁रहने	-764
▁मोदी	-765
इक	-766
▁पद	-767
▁2024	-768
सम	-769
ायर	-770
▁कोर्ट	-771
▁शर्मा	-772
▁दिल्ली	-773
धा	-774
वाद	-775
ोजना	-776
▁दा	-777
▁मन	-778
ये	-779
▁सकता	-780
▁जय	-781
ंत	-782
▁आग	-783
ायक	-784
▁लड़	-785
▁चाहिए	-786
▁पढ़	-787
▁राष्ट	-788
▁शिव	-789
▁रिप	-790
ियर	-791
▁प्रा	-792
श्व	-793
्रा	-794
▁19	-795
▁लोकसभा	-796
च्छ	-797
▁गा	-798
▁बर	-799
मेंट	-800
ंज	-801
▁बाहर	-802
त्व	-803
▁ती	-804
ेंस	-805
▁जिन	-806
आर	-807
मु	-808
▁शव	-809
▁वहां	-810
रण	-811
▁संबंध	-812
कर्	-813
▁गुरु	-814
▁कप	-815
▁मामला	-816
▁पत्	-817
▁11	-818
▁पिछले	-819
▁15	-820
▁मिले	-821
▁किसान	-822
▁निय	-823
▁उसकी	-824
▁पूरी	-825
्ड	-826
ंगे	-827
सल	-828
▁खा	-829
र्फ	-830
▁क्यों	-831
▁स्व	-832
ज्ञ	-833
▁कर्म	-834
ेम	-835
हन	-836
▁चे	-837
▁मी	-838
▁परी	-839
▁बंद	-840
▁मिला	-841
▁विधान	-842
▁शे	-843
ूट	-844
▁प्रद	-845
स्थान	-846
▁ट्रे	-847
▁आगे	-848
▁काफी	-849
▁प्रधान	-850
▁इंड	-851
▁ऑफ	-852
द्य	-853
▁रिपोर्ट	-854
▁चार	-855
▁201	-856
▁करें	-857
▁सहित	-858
माण	-859
▁दर	-860
▁केंद्र	-861
▁बड़ी	-862
ख्या	-863
▁जाएगी	-864
चान	-865
▁प्रत	-866
▁रवि	-867
▁समाज	-868
िज	-869
था	-870
▁घायल	-871
योग	-872
▁स्वा	-873
▁जबकि	-874
▁अपना	-875
बाद	-876
▁मृत	-877
ांड	-878
▁अला	-879
▁मही	-880
ांकि	-881
▁जीत	-882
▁सड़क	-883
▁बस	-884
▁बहुत	-885
▁रोड	-886
ताब	-887
▁पड़	-888
▁हालांकि	-889
▁विकास	-890
ोध	-891
त्म	-892
▁वीड	-893
▁अभी	-894
▁सदस	-895
लाई	-896
▁होता	-897
▁संग	-898
▁मुख्यमंत्री	-899
ट्	-900
▁हत्या	-901
▁छात्र	-902
ुक्त	-903
राब	-904
▁बैठक	-905
लों	-906
▁विधानसभा	-907
▁तहत	-908
▁सफ	-909
▁मौजूद	-910
ुक	-911
▁एम	-912
▁टे	-913
▁बां	-914
वरी	-915
दन	-916
▁बच्चों	-917
▁मीड	-918
▁जिसके	-919
ेंद	-920
बू	-921
राज	-922
▁वीडियो	-923
▁योजना	-924
▁पिता	-925
▁बारे	-926
▁उसने	-927
▁निर्देश	-928
गम	-929
▁एन	-930
▁व्यव	-931
▁सकते	-932
क्षण	-933
ुआ	-934
्मीद	-935
▁बाइक	-936
▁अलावा	-937
▁उम्मीद	-938
ंटे	-939
▁सुन	-940
▁S	-941
ग्री	-942
ची	-943
▁उनका	-944
▁जगह	-945
▁मीडिया	-946
▁विधायक	-947
शा	-948
▁मज	-949
▁कुल	-950
▁वज	-951
ाइल	-952
▁भग	-953
ंक	-954
▁वाह	-955
▁पूछ	-956
▁अगर	-957
▁पता	-958
▁अलग	-959
▁स्प	-960
▁बॉ	-961
ंगा	-962
▁वै	-963
▁कंपनी	-964
▁कहना	-965
तम	-966
ोह	-967
ोरी	-968
▁वजह	-969
▁इसे	-970
▁परीक्षा	-971
▁संख्या	-972
▁पोस्ट	-973
▁आरोपियों	-974
▁सोम	-975
▁प्रभ	-976
▁पुर	-977
लेज	-978
▁पत्नी	-979
▁भाग	-980
▁शादी	-981
▁ब्र	-982
मिक	-983
▁आस	-984
▁मंगल	-985
▁सुरक्षा	-986
▁आम	-987
▁दूसरे	-988
ेंड	-989
▁दिनों	-990
फ्	-991
खंड	-992
ताओं	-993
▁डे	-994
▁पंच	-995
▁फर	-996
▁फी	-997
ामीण	-998
▁हाथ	-999
▁तब	-1000
▁सांस	-1001
▁अधिकारियों	-1002
ार्थ	-1003
काल	-1004
झे	-1005
▁प्रशासन	-1006
▁रेल	-1007
▁पे	-1008
▁पक	-1009
▁वोट	-1010
▁ग्रामीण	-1011
शल	-1012
▁करता	-1013
▁तरफ	-1014
▁लगे	-1015
▁मुताब	-1016
▁मुताबिक	-1017
▁व्यक्ति	-1018
णी	-1019
स्ता	-1020
हम	-1021
▁करेंगे	-1022
शेष	-1023
▁आधार	-1024
▁कृ	-1025
जेपी	-1026
▁पूरा	-1027
▁तेज	-1028
▁होती	-1029
▁हरिया	-1030
चाल	-1031
▁महीने	-1032
▁कल	-1033
चित	-1034
क्शन	-1035
▁दुकान	-1036
▁वा	-1037
▁प्रो	-1038
▁भाई	-1039
▁बढ़ा	-1040
▁बिज	-1041
▁जैसे	-1042
▁हों	-1043
▁आयोजन	-1044
▁पत्र	-1045
▁पहुंची	-1046
तन	-1047
▁बनाने	-1048
an	-1049
▁गं	-1050
▁सच	-1051
▁थाने	-1052
▁घंटे	-1053
▁ढ	-1054
▁भर	-1055
▁करवा	-1056
▁जल	-1057
▁ऐसा	-1058
▁नंबर	-1059
▁योग	-1060
र्य	-1061
▁दिव	-1062
▁मंड	-1063
▁C	-1064
▁कान	-1065
वेश	-1066
▁विशेष	-1067
▁हरियाणा	-1068
▁बीजेपी	-1069
ारे	-1070
▁नजर	-1071
▁न्या	-1072
▁पीड़	-1073
▁लगातार	-1074
र्चा	-1075
▁अर	-1076
▁साह	-1077
▁राय	-1078
▁सम्म	-1079
▁रन	-1080
▁जिससे	-1081
▁पूरे	-1082
▁निर्माण	-1083
िति	-1084
▁डॉक्टर	-1085
ैल	-1086
▁सोमवार	-1087
▁कॉलेज	-1088
▁खेल	-1089
▁दिख	-1090
▁जे	-1091
द्यालय	-1092
▁इसकी	-1093
लिए	-1094
ज़	-1095
▁A	-1096
तिक	-1097
ंद्र	-1098
▁सांसद	-1099
शि	-1100
िश्	-1101
ार्ड	-1102
▁माल	-1103
र्क	-1104
▁हाई	-1105
▁सीएम	-1106
िकल	-1107
▁जून	-1108
▁सकती	-1109
▁शनि	-1110
▁श्र	-1111
जनों	-1112
▁ऊ	-1113
▁तैयार	-1114
▁राह	-1115
▁लगाया	-1116
स्क	-1117
▁घोष	-1118
▁एक्स	-1119
▁मिलने	-1120
▁हाद	-1121
▁निगम	-1122
▁पहली	-1123
भीर	-1124
▁25	-1125
▁विश्व	-1126
▁केस	-1127
▁गर्	-1128
▁लाल	-1129
▁वाला	-1130
र्ती	-1131
▁कले	-1132
▁सौ	-1133
स्ते	-1134
ीय	-1135
▁इसका	-1136
पति	-1137
रीज	-1138
▁सेवा	-1139
▁मंगलवार	-1140
▁हूं	-1141
ैंक	-1142
म्	-1143
▁कराया	-1144
▁गंभीर	-1145
▁जमी	-1146
▁बुध	-1147
▁प्रदर्शन	-1148
बल	-1149
▁भगवान	-1150
र्च	-1151
ार्ट	-1152
▁बिहार	-1153
बे	-1154
▁आदि	-1155
▁देते	-1156
▁पांच	-1157
वीर	-1158
ियन	-1159
▁डिग्री	-1160
▁ड्र	-1161
▁शुक्र	-1162
▁प्रधानमंत्री	-1163
▁इसलिए	-1164
▁मैच	-1165
▁गांधी	-1166
िस्ट	-1167
▁पंजा	-1168
ग्	-1169
▁छो	-1170
इट	-1171
▁नर	-1172
▁अफ	-1173
शत	-1174
▁बाल	-1175
▁उठा	-1176
▁समझ	-1177
▁हिस्	-1178
▁भे	-1179
▁मुझे	-1180
▁बनाया	-1181
▁विरो	-1182
▁बड़ा	-1183
िटी	-1184
▁मद	-1185
▁व्या	-1186
यान	-1187
▁बड़े	-1188
▁शनिवार	-1189
▁करे	-1190
▁प्रया	-1191
-2	-1192
स्तान	-1193
▁खान	-1194
▁इलाज	-1195
▁सवाल	-1196
ल्ड	-1197
▁व्यवस्था	-1198
ात	-1199
कु	-1200
करण	-1201
▁नए	-1202
▁जवा	-1203
▁रविवार	-1204
ष्ण	-1205
▁वाप	-1206
ष्ठ	-1207
▁माह	-1208
▁लगी	-1209
▁जाती	-1210
▁30	-1211
▁हमार	-1212
षण	-1213
मुख	-1214
▁जल्	-1215
नाथ	-1216
▁बुधवार	-1217
निया	-1218
स्या	-1219
▁शिक्षा	-1220
▁शुक्रवार	-1221
▁ताप	-1222
▁नई	-1223
▁ट्रेन	-1224
▁संचाल	-1225
▁राजनी	-1226
पास	-1227
ियान	-1228
▁प्रभारी	-1229
▁जेल	-1230
▁रुपये	-1231
...	-1232
▁एक्ट	-1233
▁P	-1234
▁संद	-1235
▁आयोजित	-1236
▁पूजा	-1237
▁14	-1238
▁मेड	-1239
▁नौ	-1240
▁परेश	-1241
▁-	-1242
▁पहुंचा	-1243
चे	-1244
▁13	-1245
▁पति	-1246
काश	-1247
▁0	-1248
▁अच्छ	-1249
▁खुद	-1250
▁तापमान	-1251
▁पक्ष	-1252
▁राजस्थान	-1253
▁हे	-1254
ैंड	-1255
▁पहचान	-1256
▁समेत	-1257
पूर्	-1258
▁आदेश	-1259
▁बिजली	-1260
▁उसका	-1261
▁भर्ती	-1262
▁परिजनों	-1263
ांत	-1264
▁सदस्य	-1265
▁सामान	-1266
ॉल	-1267
ाप्त	-1268
▁इंद	-1269
▁स्थिति	-1270
टन	-1271
▁लेने	-1272
▁गुरुवार	-1273
▁मौसम	-1274
▁खरी	-1275
▁अति	-1276
▁दें	-1277
▁मना	-1278
िरा	-1279
▁सित	-1280
▁विभ	-1281
▁पंजाब	-1282
▁शुरुआ	-1283
▁स्थान	-1284
बंधन	-1285
▁दल	-1286
▁देर	-1287
▁होते	-1288
▁इत	-1289
दारी	-1290
मत	-1291
▁हिंद	-1292
िन्न	-1293
▁जमीन	-1294
▁दोप	-1295
▁बज	-1296
▁बेह	-1297
▁होकर	-1298
▁बच्चे	-1299
▁तस्	-1300
▁बनाए	-1301
▁फोन	-1302
▁नार	-1303
▁देव	-1304
▁सरकारी	-1305
न्द्र	-1306
▁जुलाई	-1307
▁B	-1308
▁मध्य	-1309
▁छोड़	-1310
▁राहुल	-1311
▁जनता	-1312
▁बेटे	-1313
▁यात्रा	-1314
ग्र	-1315
▁गठ	-1316
▁बल	-1317
हरा	-1318
▁गै	-1319
▁बल्	-1320
िली	-1321
▁चलते	-1322
▁18	-1323
▁मि	-1324
▁बाजार	-1325
▁चाल	-1326
त्री	-1327
▁वन	-1328
▁चोरी	-1329
▁रोक	-1330
▁रखा	-1331
जीत	-1332
▁थीं	-1333
▁राष्ट्रीय	-1334
▁खे	-1335
▁क्योंकि	-1336
यू	-1337
▁भेज	-1338
▁चुके	-1339
▁हमला	-1340
ैक	-1341
र्श	-1342
▁विभिन्न	-1343
भग	-1344
▁करके	-1345
▁दोपहर	-1346
▁दूसरी	-1347
स्ती	-1348
▁चर्चा	-1349
्ले	-1350
▁सोशल	-1351
▁16	-1352
▁बेटी	-1353
▁ज्	-1354
फर	-1355
स्थ्य	-1356
▁अगस्त	-1357
▁अभियान	-1358
▁मोब	-1359
▁प्रतिशत	-1360
▁24	-1361
▁पीछ	-1362
▁तला	-1363
▁यून	-1364
▁मदद	-1365
▁युवा	-1366
ेक	-1367
ध्यक्ष	-1368
▁विरोध	-1369
▁बने	-1370
▁वी	-1371
▁वित	-1372
करी	-1373
▁तथा	-1374
ूप	-1375
▁समस्या	-1376
▁महिलाओं	-1377
षद	-1378
▁पार	-1379
▁बयान	-1380
▁I	-1381
पूर्ण	-1382
मो	-1383
▁संप	-1384
▁बैंक	-1385
▁अवसर	-1386
▁होंगे	-1387
▁स्वास्थ्य	-1388
दीप	-1389
श्य	-1390
▁लॉ	-1391
▁सिर्फ	-1392
नल	-1393
▁जम	-1394
वत	-1395
▁रेलवे	-1396
▁पेश	-1397
▁अमेर	-1398
▁समिति	-1399
-1	-1400
▁फैस	-1401
ुन	-1402
▁चुकी	-1403
▁प्रयास	-1404
▁17	-1405
वाह	-1406
गंज	-1407
ानीय	-1408
▁ची	-1409
▁अपरा	-1410
वेदन	-1411
▁मृतक	-1412
▁भो	-1413
▁पाल	-1414
क्षक	-1415
▁जाते	-1416
▁सचिव	-1417
▁मोबाइल	-1418
▁N	-1419
पीट	-1420
▁वाहन	-1421
▁50	-1422
्रम	-1423
▁जवाब	-1424
▁विवाद	-1425
▁सके	-1426
ाक	-1427
▁स्थानीय	-1428
न्न	-1429
▁रिक	-1430
ल्प	-1431
डा	-1432
ंदा	-1433
▁प्रमुख	-1434
र्ण	-1435
▁सम्मान	-1436
▁उम्मीदवार	-1437
ियम	-1438
▁ग्राम	-1439
▁जल्द	-1440
धि	-1441
▁मिश	-1442
▁दुर्	-1443
▁देखा	-1444
सि	-1445
▁करती	-1446
▁जयपुर	-1447
▁बचा	-1448
▁M	-1449
▁इंटर	-1450
रिक	-1451
▁दिस	-1452
▁लगभग	-1453
▁पाकि	-1454
ar	-1455
▁मिन	-1456
रि	-1457
▁देवी	-1458
▁इलाके	-1459
ठी	-1460
ूबर	-1461
▁जैन	-1462
धिकारी	-1463
ैध	-1464
▁शाह	-1465
टल	-1466
▁कार्यकर्	-1467
▁दिखा	-1468
अल	-1469
एल	-1470
▁मेरे	-1471
▁माध्य	-1472
▁सवार	-1473
▁दूर	-1474
मर	-1475
▁दीप	-1476
▁वापस	-1477
▁अवैध	-1478
▁महत्व	-1479
▁भूम	-1480
▁किसानों	-1481
सू	-1482
▁गाड़ी	-1483
▁संत	-1484
▁पंचायत	-1485
ंभ	-1486
▁स्तर	-1487
▁अभि	-1488
चर	-1489
▁राशि	-1490
▁कौ	-1491
▁संघ	-1492
जाम	-1493
▁मई	-1494
शिश	-1495
▁बराम	-1496
शनल	-1497
▁शराब	-1498
▁एड	-1499
▁अंदर	-1500
▁200	-1501
▁शेयर	-1502
▁लौ	-1503
▁हॉ	-1504
टक	-1505
्यान	-1506
▁पीड़ित	-1507
पुरा	-1508
हाय	-1509
▁उत्तर	-1510
लाल	-1511
▁कोशिश	-1512
पक्ष	-1513
मे	-1514
▁जीवन	-1515
▁संगठ	-1516
▁बरामद	-1517
▁सितंबर	-1518
▁पीएम	-1519
ूड	-1520
ालय	-1521
▁कहते	-1522
▁राष्ट्र	-1523
▁विजय	-1524
▁इंडिया	-1525
▁मंत्र	-1526
▁शुरुआत	-1527
▁प्रभाव	-1528
▁मारपीट	-1529
▁सें	-1530
केश	-1531
▁धर्म	-1532
क्टूबर	-1533
▁समर्थ	-1534
ंका	-1535
▁जरूर	-1536
▁तीस	-1537
▁अक्टूबर	-1538
फ़	-1539
▁वालों	-1540
प्री	-1541
वीं	-1542
स्टर	-1543
▁कलेक्टर	-1544
▁पुत्र	-1545
30	-1546
ूरी	-1547
क्कर	-1548
▁निकल	-1549
▁22	-1550
माश	-1551
▁दौ	-1552
▁सर्	-1553
▁गल	-1554
मन	-1555
▁हमारे	-1556
▁दिसंबर	-1557
ल्स	-1558
हरी	-1559
▁R	-1560
श्च	-1561
उंड	-1562
हित	-1563
▁चुका	-1564
▁पीछे	-1565
▁इंदौर	-1566
▁पूछता	-1567
ॉप	-1568
र्जी	-1569
▁सां	-1570
▁मार्ग	-1571
▁हादसे	-1572
▁रि	-1573
▁टिक	-1574
▁देकर	-1575
▁वार	-1576
एच	-1577
▁संभाव	-1578
रिया	-1579
▁लिखा	-1580
▁पूछताछ	-1581
एन	-1582
बार	-1583
▁कार्यालय	-1584
षा	-1585
वंबर	-1586
गल	-1587
यन	-1588
▁एयर	-1589
▁नोट	-1590
धरी	-1591
गू	-1592
▁कट	-1593
▁शुभ	-1594
▁मेडिकल	-1595
▁आसपास	-1596
▁व्याप	-1597
▁केंद	-1598
▁नवंबर	-1599
▁बदमाश	-1600
इड	-1601
▁एज	-1602
▁लक्ष	-1603
थि	-1604
धर	-1605
ुर्	-1606
▁पढ़ें	-1607
▁ब्ल	-1608
▁शि	-1609
ैंप	-1610
▁केंद्रीय	-1611
▁सहाय	-1612
तृ	-1613
▁गण	-1614
▁अंतर	-1615
ोस	-1616
किंग	-1617
▁प्राप्त	-1618
र्ष	-1619
▁कभी	-1620
▁स्टे	-1621
▁गुप	-1622
ॉर्ड	-1623
▁मतदान	-1624
▁माता	-1625
▁तौर	-1626
▁केवल	-1627
खिल	-1628
▁नियम	-1629
▁चौधरी	-1630
भर	-1631
▁एसपी	-1632
राम	-1633
▁पड़ा	-1634
▁प्ल	-1635
स्थित	-1636
▁जाएंगे	-1637
▁आपको	-1638
▁जाना	-1639
▁मैंने	-1640
▁धम	-1641
▁देखने	-1642
साद	-1643
▁बिना	-1644
▁स्टेशन	-1645
▁शो	-1646
चारी	-1647
▁21	-1648
फा	-1649
▁रज	-1650
ुरा	-1651
▁सर्व	-1652
▁धन	-1653
▁संय	-1654
▁मिनट	-1655
▁अंत	-1656
्‍	-1657
लर	-1658
शु	-1659
▁लख	-1660
▁आवेदन	-1661
▁रु	-1662
▁किलो	-1663
्ता	-1664
▁अप्र	-1665
विधा	-1666
▁रोज	-1667
▁नेताओं	-1668
कत	-1669
▁जिम	-1670
टेल	-1671
in	-1672
▁उपल	-1673
▁प्रत्या	-1674
िसर	-1675
लाइन	-1676
▁मरीज	-1677
▁भारी	-1678
▁एक्सप	-1679
मारी	-1680
▁माध्यम	-1681
▁ध्यान	-1682
▁खास	-1683
▁नदी	-1684
दय	-1685
▁भोपाल	-1686
सव	-1687
ांक	-1688
्मे	-1689
▁अस	-1690
▁होना	-1691
▁मार्च	-1692
50	-1693
▁पाकिस्तान	-1694
हाल	-1695
▁D	-1696
्यो	-1697
▁लगाए	-1698
▁ट्रै	-1699
at	-1700
केट	-1701
▁निरी	-1702
जरा	-1703
िटल	-1704
देव	-1705
▁हमें	-1706
त्ती	-1707
▁।	-1708
ौल	-1709
माल	-1710
▁लाइन	-1711
▁कैसे	-1712
▁देखते	-1713
▁बदल	-1714
▁खबर	-1715
एफ	-1716
िशा	-1717
झा	-1718
▁100	-1719
▁मुद्	-1720
▁ते	-1721
▁डाल	-1722
▁लाभ	-1723
▁तोड़	-1724
▁ज़	-1725
▁निकाल	-1726
पू	-1727
▁लिख	-1728
र्या	-1729
पोर्ट	-1730
▁टिकट	-1731
▁सै	-1732
मार्ट	-1733
▁गोली	-1734
▁प्ले	-1735
▁बनी	-1736
अलग	-1737
िकेट	-1738
▁कराने	-1739
▁अपराध	-1740
त्ता	-1741
▁फरार	-1742
लि	-1743
▁सप्	-1744
▁विदेश	-1745
▁लो	-1746
▁बोर्ड	-1747
▁सुविधा	-1748
▁सत	-1749
▁अग्र	-1750
ियार	-1751
▁संबंधित	-1752
▁उद्	-1753
▁छात्रा	-1754
▁ग्रामीणों	-1755
सत	-1756
▁जिसे	-1757
्व	-1758
▁पदा	-1759
▁संभ	-1760
▁2023	-1761
ंडी	-1762
िग	-1763
विद्यालय	-1764
क्रिया	-1765
▁वार्ड	-1766
▁सीटों	-1767
▁जनवरी	-1768
▁छात्रों	-1769
र्प	-1770
िरी	-1771
▁बदला	-1772
▁प्रक्रिया	-1773
▁कर्मचारी	-1774
▁अहम	-1775
घा	-1776
▁प्रसाद	-1777
▁संभावना	-1778
ॉक	-1779
फ्ट	-1780
▁नव	-1781
▁जमा	-1782
▁यानी	-1783
▁विद्य	-1784
ारोह	-1785
▁उपलब्	-1786
दाय	-1787
तरी	-1788
▁सफल	-1789
ंकर	-1790
▁अगले	-1791
▁समारोह	-1792
▁तय	-1793
▁आयोग	-1794
चारियों	-1795
▁श्रद्ध	-1796
्रोल	-1797
क्षित	-1798
▁विकेट	-1799
▁भेजा	-1800
ूक	-1801
▁जिलों	-1802
▁परेशान	-1803
ंबई	-1804
तृत्व	-1805
▁आव	-1806
ड़ों	-1807
त्तीस	-1808
▁संजय	-1809
िप्	-1810
▁सहयोग	-1811
▁हटा	-1812
ड़ियों	-1813
▁फीस	-1814
त्तीसगढ़	-1815
ेंसी	-1816
▁पकड़	-1817
ृति	-1818
20	-1819
र्न	-1820
▁साइ	-1821
▁दावा	-1822
on	-1823
बाल	-1824
▁चि	-1825
▁फोट	-1826
▁यूपी	-1827
▁वायर	-1828
फे	-1829
▁नेतृत्व	-1830
▁ऐसी	-1831
▁निश	-1832
▁रखने	-1833
ुओं	-1834
▁चले	-1835
▁छत्तीसगढ़	-1836
तों	-1837
▁ज्ञ	-1838
▁सुनी	-1839
धन	-1840
▁रण	-1841
▁लाइ	-1842
),	-1843
ृह	-1844
काब	-1845
▁क्ल	-1846
ांग	-1847
▁बोले	-1848
ज्ञान	-1849
▁नीचे	-1850
▁मानस	-1851
▁चिक	-1852
▁गर्मी	-1853
▁तत्	-1854
▁ताकि	-1855
▁कर्मचारियों	-1856
नात	-1857
▁उर्फ	-1858
▁40	-1859
▁नागर	-1860
▁तैयारी	-1861
▁आख	-1862
▁बच	-1863
▁नरेंद्र	-1864
▁पश्च	-1865
▁चंद्र	-1866
▁हास	-1867
▁हिस्सा	-1868
▁रंग	-1869
▁लगाने	-1870
ियल	-1871
▁न्याय	-1872
धे	-1873
स्व	-1874
▁अद	-1875
▁तलाश	-1876
असल	-1877
▁कब्	-1878
स्ल	-1879
एसपी	-1880
▁कीमत	-1881
▁टक्कर	-1882
▁बल्कि	-1883
टो	-1884
▁कर्	-1885
▁अप्रैल	-1886
▁मंडल	-1887
▁माना	-1888
▁प्रत्याशी	-1889
▁मुंबई	-1890
▁इनमें	-1891
▁जाकर	-1892
▁दरअसल	-1893
▁गुप्ता	-1894
िक्ष	-1895
यों	-1896
▁सजा	-1897
▁बांग	-1898
ूब	-1899
▁26	-1900
▁गौ	-1901
नियर	-1902
चार्य	-1903
▁दुनिया	-1904
▁डाय	-1905
▁फैसला	-1906
▁ओवर	-1907
ुम	-1908
िंद	-1909
▁बंग	-1910
ापन	-1911
▁रिश्	-1912
रज	-1913
▁मकान	-1914
▁हासिल	-1915
▁जिम्मे	-1916
▁टेस्ट	-1917
▁संगठन	-1918
▁मॉ	-1919
ीक	-1920
वित	-1921
▁फाइ	-1922
ील	-1923
▁प्रे	-1924
ॉर्म	-1925
ामा	-1926
ड्	-1927
ष्य	-1928
लोनी	-1929
▁भाव	-1930
▁सिर	-1931
▁पटना	-1932
▁आश	-1933
ोद	-1934
▁गति	-1935
▁जुड़े	-1936
▁पेट	-1937
▁वक्त	-1938
चन	-1939
▁चरण	-1940
▁सदर	-1941
▁रहते	-1942
ाइम	-1943
▁जता	-1944
स्तेमाल	-1945
▁भवन	-1946
▁फायर	-1947
▁दिल	-1948
▁पूर्ण	-1949
▁इस्तेमाल	-1950
▁तरी	-1951
▁राजनीतिक	-1952
▁23	-1953
▁जन्म	-1954
▁गाय	-1955
▁वृ	-1956
▁न्याया	-1957
लू	-1958
▁स्थाप	-1959
▁वर्ग	-1960
▁किस	-1961
er	-1962
▁घु	-1963
▁रहेगा	-1964
रों	-1965
ोत्	-1966
▁हथ	-1967
्लादेश	-1968
ियोग	-1969
▁प्रकार	-1970
▁अमेरिका	-1971
ांति	-1972
▁कला	-1973
तीश	-1974
▁28	-1975
िन्	-1976
▁अश	-1977
▁दोस्त	-1978
षि	-1979
▁लखन	-1980
▁हालत	-1981
▁शी	-1982
▁चिकित	-1983
000	-1984
िनि	-1985
▁साफ	-1986
▁मजबू	-1987
अप	-1988
राह	-1989
त्ति	-1990
चीत	-1991
▁ख़	-1992
▁भीड़	-1993
वाली	-1994
▁झार	-1995
डे	-1996
▁बुला	-1997
▁तीनों	-1998
▁उपलब्ध	-1999
व्य	-2000
क्ता	-2001
▁बातचीत	-2002
▁चालक	-2003
▁मश	-2004
▁पैसे	-2005
टने	-2006
▁परिसर	-2007
वाड़ा	-2008
▁ड्राइ	-2009
ायण	-2010
▁आन	-2011
थमिक	-2012
कल	-2013
▁रै	-2014
▁बनने	-2015
▁सीमा	-2016
▁नया	-2017
▁पाए	-2018
▁घोषणा	-2019
जरी	-2020
▁फ़	-2021
▁समी	-2022
▁मैदान	-2023
▁पल	-2024
▁चौक	-2025
▁न्यू	-2026
▁प्राथमिक	-2027
तरा	-2028
▁महत्वपूर्ण	-2029
वें	-2030
्हें	-2031
गार	-2032
▁हमने	-2033
▁महारा	-2034
दों	-2035
▁ति	-2036
▁हार	-2037
▁बाबा	-2038
.5	-2039
हान	-2040
श्यक	-2041
▁अमित	-2042
ार्ज	-2043
▁खो	-2044
▁कराई	-2045
पन	-2046
▁त्र	-2047
▁खत्म	-2048
▁झारखंड	-2049
▁ऑन	-2050
▁फिलहाल	-2051
▁दिवस	-2052
ांव	-2053
▁चा	-2054
▁कार्ड	-2055
▁रिकॉर्ड	-2056
▁ट्रांस	-2057
▁प्रकाश	-2058
बाजी	-2059
▁विद्यालय	-2060
▁यही	-2061
▁तस्वीर	-2062
▁चुन	-2063
▁ठीक	-2064
दि	-2065
▁मोह	-2066
▁फु	-2067
▁मुक	-2068
▁बांग्लादेश	-2069
ंगी	-2070
▁पौ	-2071
फिक	-2072
▁गठबंधन	-2073
▁मूल	-2074
▁कहीं	-2075
▁निजी	-2076
▁घा	-2077
▁क्	-2078
वाही	-2079
▁गिरा	-2080
▁पड़े	-2081
▁स्टूड	-2082
ैनिक	-2083
तिम	-2084
▁सिटी	-2085
ड्ड	-2086
▁27	-2087
▁एल	-2088
जों	-2089
▁वायरल	-2090
दम	-2091
ेय	-2092
▁बाव	-2093
▁ऊपर	-2094
▁नागरिक	-2095
रल	-2096
▁चोर	-2097
▁आवश्यक	-2098
मेर	-2099
▁आपके	-2100
▁पहला	-2101
ंसा	-2102
ंडा	-2103
ेटी	-2104
▁सेंटर	-2105
मता	-2106
▁भु	-2107
▁आवा	-2108
▁स्वी	-2109
▁घोषित	-2110
▁मिलकर	-2111
▁खेत	-2112
बाज	-2113
▁वरि	-2114
▁फोटो	-2115
▁लड़की	-2116
▁राष्ट्रपति	-2117
द्योग	-2118
▁मोहन	-2119
▁मुकाब	-2120
▁पांड	-2121
▁उपस्थित	-2122
▁री	-2123
▁लखनऊ	-2124
▁मेरी	-2125
ेश्	-2126
▁रव	-2127
▁खराब	-2128
▁विचार	-2129
▁अंतिम	-2130
मीटर	-2131
्रेट	-2132
▁अंक	-2133
ष्ट्र	-2134
▁खुला	-2135
al	-2136
तियों	-2137
ब्ल	-2138
▁समा	-2139
▁कमेटी	-2140
ंख	-2141
▁E	-2142
षेक	-2143
▁कमी	-2144
▁तभी	-2145
ित्य	-2146
▁सीसी	-2147
▁K	-2148
ाने	-2149
▁31	-2150
▁डा	-2151
▁धारा	-2152
नगर	-2153
▁कॉन्	-2154
▁जरिए	-2155
▁पाया	-2156
▁अय	-2157
लिया	-2158
▁तह	-2159
▁खरीद	-2160
▁सेना	-2161
ूस	-2162
▁धमकी	-2163
विंद	-2164
▁चुना	-2165
▁मीटर	-2166
▁उच्च	-2167
▁सुप्री	-2168
▁लगाई	-2169
डल	-2170
▁उदय	-2171
▁गौर	-2172
▁समु	-2173
▁बोल	-2174
▁हमारी	-2175
▁राज्यों	-2176
▁प्रेम	-2177
नु	-2178
चानक	-2179
▁वर्षीय	-2180
▁चीन	-2181
▁सभा	-2182
▁ट्रक	-2183
▁कित	-2184
हास	-2185
स्कार	-2186
▁सुनवाई	-2187
▁अदाल	-2188
▁प्रवेश	-2189
▁स्टूडेंट	-2190
▁अचानक	-2191
▁प्रस्ता	-2192
▁अग्रवाल	-2193
▁भू	-2194
द्धि	-2195
▁दर्शन	-2196
▁वारदा	-2197
▁सही	-2198
▁वरिष्ठ	-2199
▁समर्थन	-2200
▁चाहते	-2201
▁मुला	-2202
▁एफ	-2203
▁टा	-2204
▁कानून	-2205
▁विपक्ष	-2206
ंता	-2207
▁कॉलोनी	-2208
▁प्रस्त	-2209
▁शिक्षक	-2210
▁बू	-2211
▁उसी	-2212
▁प्रतियोग	-2213
▁हिंदू	-2214
▁दिला	-2215
▁परिजन	-2216
▁सदस्यों	-2217
बोध	-2218
▁बहन	-2219
▁देना	-2220
▁क्षेत्रों	-2221
ट्र	-2222
▁लंब	-2223
▁बावजूद	-2224
▁लु	-2225
▁आते	-2226
चिका	-2227
ौती	-2228
▁लागू	-2229
ैया	-2230
▁धर	-2231
▁उम्र	-2232
वर्	-2233
▁टै	-2234
▁मं	-2235
▁गेट	-2236
ंदी	-2237
▁नुक	-2238
तंत्र	-2239
▁दक्ष	-2240
▁क्रिकेट	-2241
▁सामान्य	-2242
▁संक	-2243
▁उनसे	-2244
▁निवेश	-2245
▁निरीक्षण	-2246
ेंडर	-2247
▁किन	-2248
तल	-2249
▁इम	-2250
▁इंत	-2251
खी	-2252
ूह	-2253
▁विश्वविद्यालय	-2254
▁पटेल	-2255
▁तैनात	-2256
▁परिषद	-2257
▁प्रता	-2258
▁होटल	-2259
▁फे	-2260
स्कर	-2261
ुरी	-2262
▁सिव	-2263
श्वास	-2264
उट	-2265
टेड	-2266
▁बदलाव	-2267
▁याचिका	-2268
ॉट	-2269
▁29	-2270
िश्न	-2271
▁कही	-2272
वट	-2273
▁चंद	-2274
▁दर्	-2275
चल	-2276
मति	-2277
िकी	-2278
ंघ	-2279
▁उठ	-2280
▁उल्	-2281
▁सुना	-2282
▁फ्र	-2283
▁ऑफिस	-2284
िने	-2285
▁बनाकर	-2286
▁तत्काल	-2287
्याण	-2288
▁लूट	-2289
▁प्रभावित	-2290
▁अशोक	-2291
▁हथियार	-2292
िद	-2293
▁सात	-2294
▁एंड	-2295
▁कारो	-2296
▁वर्मा	-2297
▁गेंद	-2298
▁राजनीति	-2299
ख्त	-2300
▁सिक	-2301
▁निर्ण	-2302
प्शन	-2303
▁बेहतर	-2304
▁दिखाई	-2305
▁मनी	-2306
▁विन	-2307
▁एसडी	-2308
▁रहता	-2309
▁फा	-2310
▁कोच	-2311
▁अदालत	-2312
▁जित	-2313
▁रखी	-2314
▁जरूरत	-2315
▁जरूरी	-2316
जल	-2317
▁T	-2318
सों	-2319
टीवी	-2320
▁गलत	-2321
▁उससे	-2322
▁नुकसान	-2323
ध्या	-2324
▁परिव	-2325
▁प्रतियोगिता	-2326
▁असर	-2327
▁हॉस्प	-2328
▁पाठ	-2329
▁पदाधिकारी	-2330
उस	-2331
▁नेशनल	-2332
▁बनाई	-2333
▁करेगी	-2334
तिहास	-2335
सील	-2336
▁तुर	-2337
▁अजय	-2338
▁कैम	-2339
▁रिज	-2340
▁उपयोग	-2341
▁सुप्रीम	-2342
▁कॉल	-2343
▁मजद	-2344
▁संस्थान	-2345
खे	-2346
▁राहत	-2347
▁गृह	-2348
▁कृष्ण	-2349
ूर्ति	-2350
▁अफसर	-2351
▁ग्रुप	-2352
▁विद्यार्थ	-2353
▁ऋ	-2354
कर्म	-2355
▁वारदात	-2356
यल	-2357
▁तरीके	-2358
▁रास्ते	-2359
▁रिली	-2360
▁गुर	-2361
▁लगने	-2362
▁मिश्रा	-2363
ोध्या	-2364
▁भूमिका	-2365
ुण	-2366
or	-2367
▁जाम	-2368
▁कब	-2369
▁हॉस्पिटल	-2370
र्गत	-2371
▁बिल्	-2372
▁सीसीटीवी	-2373
राव	-2374
▁गी	-2375
▁कौन	-2376
▁F	-2377
▁सफाई	-2378
▁कार्यकर्ताओं	-2379
▁(2	-2380
▁मजबूत	-2381
▁तुरंत	-2382
नेश	-2383
▁हल्	-2384
sh	-2385
▁पंड	-2386
▁संस	-2387
▁2019	-2388
▁महाराष्ट्र	-2389
▁इतना	-2390
▁महार	-2391
ित्र	-2392
▁हमले	-2393
टिंग	-2394
▁वाहनों	-2395
▁स्वागत	-2396
▁ड्राइवर	-2397
न्ना	-2398
ॉर्ट	-2399
▁विष	-2400
▁हवा	-2401
▁स्थल	-2402
सिंह	-2403
▁कपूर	-2404
▁भक्त	-2405
▁दक्षि	-2406
▁लगाकर	-2407
र्डर	-2408
▁मंच	-2409
▁संस्था	-2410
▁लॉन्	-2411
▁किश	-2412
▁ताला	-2413
▁प्रदान	-2414
▁उपा	-2415
▁बजट	-2416
▁नौकरी	-2417
▁युवती	-2418
छा	-2419
िनी	-2420
▁जब्त	-2421
▁रिलीज	-2422
▁प्रचार	-2423
▁,	-2424
कात	-2425
▁जागर	-2426
▁अयोध्या	-2427
रान	-2428
स्टम	-2429
▁छोटे	-2430
▁तेजी	-2431
▁लगता	-2432
▁फरवरी	-2433
▁शांति	-2434
ाले	-2435
▁बीते	-2436
▁इले	-2437
▁लेते	-2438
ेक्ट	-2439
▁सीटें	-2440
▁कोत	-2441
▁नाबाल	-2442
▁बंगाल	-2443
▁अभिषेक	-2444
▁कल्याण	-2445
▁मिलेगा	-2446
▁चोट	-2447
▁जोर	-2448
र्थिक	-2449
▁संयुक्त	-2450
▁बेच	-2451
िड	-2452
▁जवान	-2453
▁छु	-2454
▁मू	-2455
▁फ्ल	-2456
उंट	-2457
▁कृषि	-2458
▁राजेश	-2459
▁नोटिस	-2460
▁फीसदी	-2461
▁सिविल	-2462
्यून	-2463
▁सिल	-2464
▁मर	-2465
▁दबा	-2466
▁सुख	-2467
िक्र	-2468
▁बताते	-2469
▁रायपुर	-2470
▁रहेगी	-2471
भव	-2472
ंकी	-2473
ारंभ	-2474
▁शरी	-2475
▁आत्म	-2476
▁प्रतिनि	-2477
▁तहसील	-2478
ताह	-2479
▁अली	-2480
▁ऑनलाइन	-2481
.2	-2482
कम	-2483
श्क	-2484
ोप	-2485
हम्म	-2486
▁यदि	-2487
कोर्ट	-2488
▁नाबालिग	-2489
ल्ट	-2490
▁ठे	-2491
▁जमकर	-2492
उन	-2493
▁मालिक	-2494
▁भास्कर	-2495
▁कोल	-2496
▁भवि	-2497
▁करेगा	-2498
▁संवि	-2499
▁नाराज	-2500
.4	-2501
▁तम	-2502
▁सल	-2503
डिंग	-2504
कुमार	-2505
▁श्रद्धाल	-2506
िशन	-2507
▁आनंद	-2508
▁आर्थिक	-2509
▁एक्सप्रेस	-2510
▁ठाक	-2511
▁दीपक	-2512
▁निर्णय	-2513
डीए	-2514
रासत	-2515
▁कदम	-2516
▁मुलाकात	-2517
▁छह	-2518
▁नम	-2519
▁भविष्य	-2520
▁चढ़	-2521
विध	-2522
▁प्रशिक्ष	-2523
▁गिरफ्तारी	-2524
▁गैंग	-2525
वरण	-2526
▁रहती	-2527
▁रोहित	-2528
▁सामना	-2529
हरे	-2530
▁अतिरिक	-2531
▁सोन	-2532
▁अंतर्गत	-2533
▁आत	-2534
्होंने	-2535
▁संबोध	-2536
त्रियों	-2537
कीय	-2538
▁बेटा	-2539
▁फर्जी	-2540
▁दम	-2541
हम्मद	-2542
▁मनोज	-2543
िवर्स	-2544
▁2022	-2545
▁दूसरा	-2546
▁G	-2547
▁लौट	-2548
▁खुल	-2549
▁ठाकुर	-2550
▁निर्वा	-2551
ंटी	-2552
स्‍	-2553
▁तारी	-2554
▁पर्य	-2555
▁मेरा	-2556
▁सागर	-2557
▁जिसकी	-2558
▁अतिरिक्त	-2559
श्मी	-2560
ेश्वर	-2561
.1	-2562
▁खर्च	-2563
▁तेल	-2564
▁अज्ञ	-2565
▁करवाया	-2566
▁व्यक्त	-2567
▁हाईकोर्ट	-2568
▁35	-2569
ांकन	-2570
▁अपील	-2571
ोलन	-2572
्तान	-2573
▁पर्व	-2574
-20	-2575
▁खड़े	-2576
बीर	-2577
▁पट	-2578
▁बांध	-2579
▁अज्ञात	-2580
▁कार्यकर्ता	-2581
▁धो	-2582
▁इलाकों	-2583
▁मुकद	-2584
▁सहायक	-2585
▁पीड़िता	-2586
थम	-2587
ांसी	-2588
▁संचालन	-2589
▁कंपन	-2590
▁साहू	-2591
▁प्राइ	-2592
▁बदमाशों	-2593
▁मतदा	-2594
▁प्रस्ताव	-2595
्याम	-2596
▁अंजाम	-2597
तमान	-2598
▁आंद	-2599
▁हाउस	-2600
▁देशों	-2601
▁मिलते	-2602
▁मंत्रालय	-2603
वाइ	-2604
▁हनु	-2605
▁देंगे	-2606
▁सीरीज	-2607
▁फाय	-2608
▁महाराज	-2609
इल	-2610
ुड	-2611
ेशल	-2612
▁पार्षद	-2613
▁धी	-2614
▁सुनील	-2615
▁सिस्टम	-2616
ेंज	-2617
त्मक	-2618
▁कां	-2619
▁बैठे	-2620
▁सत्र	-2621
▁प्रोज	-2622
▁मोहम्मद	-2623
▁U	-2624
▁उदयपुर	-2625
▁मामलों	-2626
ैंस	-2627
▁पॉ	-2628
▁हिस	-2629
▁कोतवाली	-2630
▁मल	-2631
▁अनिल	-2632
▁जैसी	-2633
▁बच्ची	-2634
▁किलोमीटर	-2635
ेशा	-2636
▁नो	-2637
स्लिम	-2638
▁अच्छी	-2639
पथ	-2640
प्रदेश	-2641
▁संर	-2642
▁उत्पा	-2643
▁जाल	-2644
▁सुधार	-2645
फ्र	-2646
ोत्सव	-2647
▁आवास	-2648
▁प्रि	-2649
▁पर्या	-2650
वारी	-2651
▁राव	-2652
वादी	-2653
ti	-2654
▁अधी	-2655
खर	-2656
ष्टि	-2657
▁पेट्रोल	-2658
▁युवाओं	-2659
▁परेशानी	-2660
▁L	-2661
ाजिक	-2662
्राम	-2663
▁कड़ी	-2664
ैर	-2665
▁फसल	-2666
▁सोने	-2667
िक्स	-2668
▁चां	-2669
श्किल	-2670
स्त्र	-2671
▁रक्षा	-2672
▁अज	-2673
▁तुल	-2674
▁पश्चिम	-2675
ुल्	-2676
जरीवाल	-2677
ज्ज	-2678
▁आशी	-2679
वेट	-2680
दारों	-2681
ंदे	-2682
▁सुपर	-2683
स्ट्री	-2684
▁गुजरा	-2685
▁हनुमान	-2686
ॉन	-2687
▁देखकर	-2688
▁निदेश	-2689
▁प्रोजेक्ट	-2690
▁दश	-2691
▁नीतीश	-2692
▁झा	-2693
▁जाय	-2694
सुर	-2695
▁पैर	-2696
▁आंदोलन	-2697
▁घाट	-2698
िश्चित	-2699
▁विस्त	-2700
▁अधिकार	-2701
ण्ड	-2702
▁मौका	-2703
▁एक्ट्रेस	-2704
▁गंगा	-2705
▁अलर्ट	-2706
▁बिक	-2707
▁केजरीवाल	-2708
▁पकड़ा	-2709
▁स्पेशल	-2710
▁घरों	-2711
टेज	-2712
वाला	-2713
▁छाप	-2714
▁अच्छा	-2715
धानी	-2716
▁एक्	-2717
▁डायरे	-2718
▁रजिस्ट	-2719
▁मुश्किल	-2720
फल	-2721
▁भोज	-2722
▁मगर	-2723
▁चली	-2724
▁मीणा	-2725
्यु	-2726
▁तिव	-2727
▁अतिथि	-2728
▁डॉक्टरों	-2729
दर	-2730
लाह	-2731
▁नामांकन	-2732
es	-2733
▁तिवारी	-2734
▁वर्तमान	-2735
▁शिविर	-2736
▁न्यायालय	-2737
▁यूनिवर्स	-2738
वेज	-2739
▁सड़	-2740
▁सालों	-2741
▁अधिकतम	-2742
▁आयुक्त	-2743
्यार	-2744
▁अंग	-2745
▁इधर	-2746
▁मुस्लिम	-2747
▁बर्	-2748
▁दिशा	-2749
▁श्रे	-2750
▁प्री	-2751
▁साइबर	-2752
▁निकाला	-2753
▁शासन	-2754
▁पढ़ाई	-2755
▁स्कूलों	-2756
▁भूमि	-2757
▁मैने	-2758
▁यात्रियों	-2759
▁बिल	-2760
श्मीर	-2761
▁मनाया	-2762
▁सेक्टर	-2763
ra	-2764
▁आकर	-2765
▁गईं	-2766
▁अखिल	-2767
▁रैली	-2768
▁कब्जे	-2769
▁चुनावी	-2770
ोश	-2771
▁कमा	-2772
ोई	-2773
en	-2774
▁उसमें	-2775
सु	-2776
भार	-2777
▁मुकेश	-2778
ष्ट्रीय	-2779
▁हमेशा	-2780
चु	-2781
स्कृत	-2782
▁प्रताप	-2783
▁महिलाएं	-2784
▁दब	-2785
लपुर	-2786
▁प्लान	-2787
▁सुरक्षित	-2788
गांव	-2789
्रमण	-2790
▁सूर्य	-2791
ुर्ग	-2792
▁देता	-2793
JP	-2794
▁उत	-2795
▁चलने	-2796
▁योगी	-2797
▁युवकों	-2798
्रत	-2799
▁पारी	-2800
▁पूछा	-2801
ांट	-2802
▁विश	-2803
▁जोड़	-2804
मार्टम	-2805
▁इंटरने	-2806
साथ	-2807
▁बढ़ाने	-2808
वां	-2809
▁सर्वे	-2810
▁जिम्मेदारी	-2811
लेट	-2812
▁बिग	-2813
▁मरीजों	-2814
▁सम्मानित	-2815
▁ऑटो	-2816
▁प्लेट	-2817
▁कुमारी	-2818
▁संविधान	-2819
▁अका	-2820
▁गणेश	-2821
कृ	-2822
▁आल	-2823
▁तीसरे	-2824
▁जागरूक	-2825
▁यूनिवर्सिटी	-2826
ha	-2827
बारी	-2828
▁रखे	-2829
▁कैंप	-2830
▁संबोधित	-2831
▁पोस्टमार्टम	-2832
▁चयन	-2833
▁दक्षिण	-2834
स्तव	-2835
▁कमरे	-2836
▁V	-2837
वानी	-2838
▁वीर	-2839
▁किनारे	-2840
▁खुलासा	-2841
▁एयरपोर्ट	-2842
▁नक	-2843
नीय	-2844
बन	-2845
▁डर	-2846
डर	-2847
▁पस	-2848
शाला	-2849
▁रिट	-2850
▁सिद्ध	-2851
▁उद्देश	-2852
▁सप्ताह	-2853
पंच	-2854
शिप	-2855
▁युद्ध	-2856
▁विवाह	-2857
▁सामाजिक	-2858
गण	-2859
ुष	-2860
द्द	-2861
▁पेपर	-2862
▁रिश्ते	-2863
▁वर्ल्ड	-2864
▁शिक्षकों	-2865
वुड	-2866
▁आंक	-2867
▁मंडी	-2868
▁शक्ति	-2869
▁हादसा	-2870
श्वर	-2871
▁गोल	-2872
▁अभिय	-2873
▁उनको	-2874
िफ	-2875
▁खोल	-2876
▁साध	-2877
िब	-2878
▁स्टूडेंट्स	-2879
▁जला	-2880
▁पाई	-2881
▁इलेक्ट	-2882
▁रहेंगे	-2883
▁सेक	-2884
▁खाली	-2885
▁लाया	-2886
▁लिस्ट	-2887
▁संपर्क	-2888
▁पहुंचकर	-2889
▁रम	-2890
णाम	-2891
्यूटी	-2892
▁फॉ	-2893
ार्मिक	-2894
▁प्रबंधन	-2895
ियस	-2896
▁बेहद	-2897
▁उपचार	-2898
पत	-2899
सन	-2900
▁कार्यों	-2901
रीब	-2902
ग्राम	-2903
▁नाग	-2904
▁जिसका	-2905
▁60	-2906
पुरी	-2907
▁अभ्य	-2908
▁तकनी	-2909
▁पुरु	-2910
▁राजा	-2911
▁सड़कों	-2912
ीप	-2913
▁बहा	-2914
ंडल	-2915
वती	-2916
ुति	-2917
▁आठ	-2918
▁कन	-2919
▁रॉ	-2920
िएशन	-2921
.6	-2922
गु	-2923
▁दोष	-2924
▁पुरुष	-2925
▁वित्त	-2926
राय	-2927
ेंशन	-2928
वेद	-2929
कारों	-2930
▁निभा	-2931
▁फ्ला	-2932
▁न्यून	-2933
▁लंबे	-2934
▁गुजरात	-2935
▁समुदाय	-2936
▁ग्	-2937
▁वही	-2938
ew	-2939
▁कौर	-2940
.8	-2941
▁आता	-2942
▁कैं	-2943
▁भजन	-2944
जुर्ग	-2945
▁बाकी	-2946
▁न्यूनतम	-2947
श्न	-2948
भू	-2949
साय	-2950
▁45	-2951
▁टू	-2952
▁सपा	-2953
▁प्रखंड	-2954
िक्	-2955
▁नग	-2956
▁राजी	-2957
▁नारायण	-2958
▁स्टा	-2959
▁अधीक्षक	-2960
रु	-2961
▁खूब	-2962
▁आवाज	-2963
▁धार्मिक	-2964
क़	-2965
जीव	-2966
▁इन्	-2967
▁रेप	-2968
▁अर्	-2969
▁घुस	-2970
▁आदमी	-2971
▁चौकी	-2972
▁पैसा	-2973
▁अभ्यर्थ	-2974
▁बुजुर्ग	-2975
ौन	-2976
लीवुड	-2977
▁पड़ी	-2978
▁अंब	-2979
▁दृ	-2980
▁प्रव	-2981
▁मुख्यालय	-2982
.7	-2983
ुल्क	-2984
्रीन	-2985
▁पहल	-2986
▁इनके	-2987
▁समाधान	-2988
le	-2989
▁जंगल	-2990
▁चौहान	-2991
▁पार्क	-2992
▁निर्धार	-2993
ेड़	-2994
ानों	-2995
▁निर	-2996
▁मिस	-2997
▁बताई	-2998
परेशन	-2999
▁सीजन	-3000
▁एक्टर	-3001
▁राकेश	-3002
▁मिलेगी	-3003
di	-3004
▁व्रत	-3005
▁कहानी	-3006
▁शरीर	-3007
▁आखिरी	-3008
▁मजदूर	-3009
▁निर्वाचन	-3010
▁(1	-3011
र्जा	-3012
सेना	-3013
▁मारने	-3014
▁सफलता	-3015
सित	-3016
▁पोल	-3017
▁वर्षों	-3018
रत	-3019
ाब	-3020
▁खुश	-3021
▁इतनी	-3022
▁एसोस	-3023
▁एजेंसी	-3024
▁उद्देश्य	-3025
मानत	-3026
वाया	-3027
▁खंड	-3028
▁इमेज	-3029
▁ज्यो	-3030
▁विषय	-3031
▁पहुंचने	-3032
ढ़ी	-3033
मैन	-3034
▁लाने	-3035
▁रवाना	-3036
्रेन	-3037
▁चेक	-3038
▁संदीप	-3039
▁सुनिश्चित	-3040
▁सेल्स	-3041
▁प्राइवेट	-3042
▁अमर	-3043
फ्तार	-3044
त्रि	-3045
▁आउट	-3046
▁साब	-3047
▁इंतजार	-3048
▁कमिश्न	-3049
ग्ध	-3050
▁काउ	-3051
र्पित	-3052
▁शुक्	-3053
▁ब्लॉक	-3054
▁परिणाम	-3055
.0	-3056
ैट	-3057
▁थो	-3058
▁फो	-3059
▁लं	-3060
▁सौंप	-3061
▁सत्ता	-3062
▁उद्योग	-3063
▁स्पष्ट	-3064
▁हल	-3065
▁एग्	-3066
.3	-3067
ारण	-3068
▁ग्वाल	-3069
▁स्टाफ	-3070
▁कैप्शन	-3071
रेन	-3072
▁वकी	-3073
▁मार्केट	-3074
गीय	-3075
▁भुगत	-3076
▁फाइनल	-3077
▁खिलाड़ी	-3078
▁फीट	-3079
▁तिथि	-3080
▁पूजन	-3081
▁रिस	-3082
वासियों	-3083
▁छोड़कर	-3084
▁199	-3085
▁स्थापित	-3086
▁परिय	-3087
्मू	-3088
▁इंजी	-3089
▁राजधानी	-3090
िये	-3091
▁उतर	-3092
▁शपथ	-3093
▁इतिहास	-3094
क्सर	-3095
▁लॉन्च	-3096
▁आदित्य	-3097
नर	-3098
कृत	-3099
िट्	-3100
▁मिलता	-3101
▁लक्ष्य	-3102
▁दस्ता	-3103
▁रोकने	-3104
▁परियोजना	-3105
▁विद्यार्थियों	-3106
िप्टी	-3107
िमांड	-3108
▁प्रेर	-3109
▁फायदा	-3110
▁सूत्र	-3111
▁फूल	-3112
दाबाद	-3113
▁दबाव	-3114
▁ससुर	-3115
▁प्रथम	-3116
लिंग	-3117
▁सूची	-3118
▁माहौल	-3119
यात	-3120
बीआई	-3121
▁पार्ट	-3122
▁संतोष	-3123
▁ट्रैफिक	-3124
▁प्रस्तुत	-3125
शील	-3126
ट्टी	-3127
▁किमी	-3128
▁क्ला	-3129
▁बुलाया	-3130
▁स्मार्ट	-3131
हरण	-3132
ूनी	-3133
▁सौं	-3134
▁हरा	-3135
▁ऑपरेशन	-3136
▁डिप्टी	-3137
▁रफ्तार	-3138
▁अमेरिकी	-3139
▁शंकर	-3140
▁मानसून	-3141
र्जन	-3142
▁सोनी	-3143
▁स्थानों	-3144
▁बंध	-3145
▁शान	-3146
▁अरविंद	-3147
▁निदेशक	-3148
▁चुनावों	-3149
▁साथी	-3150
▁जुड़ी	-3151
▁सहायता	-3152
रेट	-3153
▁जाति	-3154
▁हिरासत	-3155
▁उक्त	-3156
▁32	-3157
▁पेड़	-3158
▁प्रशिक्षण	-3159
▁टाइ	-3160
▁मेह	-3161
▁मशीन	-3162
▁गतिविध	-3163
इकिल	-3164
बीसी	-3165
स्वी	-3166
▁H	-3167
ट्ट	-3168
▁कक्षा	-3169
▁कंपनियों	-3170
▁कहां	-3171
▁बचाने	-3172
▁चिकित्	-3173
▁ड्यूटी	-3174
वनी	-3175
▁सप	-3176
▁ज्योति	-3177
▁पुष्	-3178
▁सैनी	-3179
▁तुम	-3180
▁जानते	-3181
▁डीएम	-3182
ay	-3183
वीन	-3184
▁अनुमति	-3185
इस	-3186
टेन	-3187
वधान	-3188
▁रोजगार	-3189
▁BJP	-3190
स्ट्र	-3191
▁पोस्टम	-3192
▁इलेक्ट्र	-3193
पेट	-3194
क्का	-3195
वाने	-3196
▁काट	-3197
▁अमृत	-3198
▁बाढ़	-3199
▁2024:	-3200
▁गोपाल	-3201
▁प्रिय	-3202
▁प्रत्य	-3203
▁समूह	-3204
▁सेल्सियस	-3205
▁हेम	-3206
▁नीति	-3207
▁मनीष	-3208
▁लापर	-3209
▁संचालक	-3210
▁मध्यप्रदेश	-3211
▁मुह	-3212
▁जम्मू	-3213
▁पोस्टमॉर्ट	-3214
त्त	-3215
द्दी	-3216
स्टे	-3217
क्रिय	-3218
▁मुकदमा	-3219
▁पोस्टमॉर्टम	-3220
एंगे	-3221
▁काल	-3222
▁मुकाबले	-3223
▁एसोसिएशन	-3224
थर	-3225
आईआर	-3226
▁चिंता	-3227
्रेलिया	-3228
▁चिकित्सा	-3229
ri	-3230
▁रूम	-3231
▁करनी	-3232
▁तारीख	-3233
नेस	-3234
▁क़	-3235
▁शूट	-3236
▁फैसले	-3237
▁सीनियर	-3238
▁इंजीनियर	-3239
▁ग्वालियर	-3240
▁दास	-3241
▁मास	-3242
▁निकले	-3243
ब्र	-3244
▁किर	-3245
▁प्रिंस	-3246
▁बूथ	-3247
▁जताई	-3248
▁विवे	-3249
▁दाखिल	-3250
▁बॉलीवुड	-3251
▁फें	-3252
▁अक्ष	-3253
ंजन	-3254
▁कंट	-3255
▁वेब	-3256
▁चेयर	-3257
▁रखते	-3258
▁ज्ञापन	-3259
▁फायरिंग	-3260
ौली	-3261
▁एसी	-3262
▁टूट	-3263
▁किरा	-3264
▁आरक्षण	-3265
र्जर	-3266
▁स्कू	-3267
▁निर्धारित	-3268
काता	-3269
▁करवाई	-3270
ांची	-3271
▁प्ला	-3272
▁मोटर	-3273
▁फैक्ट	-3274
ews	-3275
▁रेफर	-3276
▁संचालित	-3277
▁आरती	-3278
▁जमानत	-3279
करा	-3280
▁धान	-3281
▁बें	-3282
जु	-3283
िले	-3284
पीएस	-3285
ेंगी	-3286
▁कमिश्नर	-3287
▁70	-3288
▁जॉ	-3289
▁टॉ	-3290
▁सप्लाई	-3291
एक	-3292
▁उड़	-3293
▁पूर्	-3294
▁गिरावट	-3295
्प	-3296
▁37	-3297
,000	-3298
ेन्द्र	-3299
▁नियंत्र	-3300
▁संपत्ति	-3301
▁जि	-3302
र्तन	-3303
्यता	-3304
▁गौरव	-3305
▁सरपंच	-3306
ाराम	-3307
▁शै	-3308
बारा	-3309
▁रेड	-3310
▁विद	-3311
▁महाम	-3312
▁इस्ती	-3313
ल्ल	-3314
▁अट	-3315
व्यू	-3316
▁राजीव	-3317
▁लापरवाही	-3318
▁O	-3319
िपा	-3320
▁टॉप	-3321
▁भरा	-3322
▁स्टेट	-3323
▁प्रत्येक	-3324
▁हिस्से	-3325
▁80	-3326
▁झू	-3327
ुक्ति	-3328
▁पालन	-3329
▁दुर्गा	-3330
▁डायरेक्टर	-3331
▁खिलाड़ियों	-3332
▁उम्मीदवारों	-3333
प्रीत	-3334
▁लै	-3335
बादी	-3336
▁ठंड	-3337
▁करियर	-3338
▁सक्रिय	-3339
राष्ट्रीय	-3340
',	-3341
▁J	-3342
नाम	-3343
ित्व	-3344
िलास	-3345
▁ठगी	-3346
▁हेड	-3347
▁आगामी	-3348
▁प्रदीप	-3349
▁अत	-3350
▁नवा	-3351
▁खड़ा	-3352
▁किशोर	-3353
▁पुराने	-3354
▁2021	-3355
▁पैदा	-3356
▁दैनिक	-3357
म्प	-3358
ष्ठा	-3359
▁चौथ	-3360
ड़िया	-3361
▁संसद	-3362
▁साबित	-3363
▁ट्रैक्टर	-3364
▁जिन्होंने	-3365
.30	-3366
िवार	-3367
फॉर्म	-3368
▁डॉलर	-3369
दास	-3370
▁स्म	-3371
▁खाते	-3372
▁चंडी	-3373
▁उठाया	-3374
▁पड़ता	-3375
▁मांगी	-3376
▁पसंद	-3377
▁रमेश	-3378
▁करवाने	-3379
▁क्षमता	-3380
▁ऑस्ट	-3381
▁ग्रे	-3382
▁घूम	-3383
▁पावर	-3384
▁मोहल्	-3385
▁कोलकाता	-3386
▁प्रतिमा	-3387
▁उपाध्यक्ष	-3388
▁अनुमान	-3389
दल	-3390
▁उतार	-3391
▁तीसरी	-3392
उथ	-3393
वंत	-3394
▁इमर	-3395
▁पहा	-3396
ियाना	-3397
▁वितरण	-3398
▁संदेश	-3399
▁हमारा	-3400
ईओ	-3401
ेलन	-3402
▁नशे	-3403
▁क्रम	-3404
▁अकाउंट	-3405
▁विस्तार	-3406
दिन	-3407
▁अर्थ	-3408
▁सलमान	-3409
▁विश्वास	-3410
▁क्लब	-3411
▁डीसी	-3412
▁विशाल	-3413
▁चुनौती	-3414
दू	-3415
हण	-3416
▁पुन	-3417
▁इंडस्ट्री	-3418
am	-3419
घटना	-3420
▁आती	-3421
▁कथा	-3422
▁सोच	-3423
▁इसको	-3424
▁भावना	-3425
▁प्रबंध	-3426
▁स्टैंड	-3427
ur	-3428
िनेट	-3429
▁तिर	-3430
▁दवा	-3431
▁हंग	-3432
▁गार्ड	-3433
▁फिल्मों	-3434
वेल	-3435
▁33	-3436
कर्मी	-3437
▁जिनमें	-3438
लेख	-3439
▁वॉ	-3440
गणना	-3441
स्पे	-3442
▁आजा	-3443
▁गोर	-3444
▁हिम	-3445
▁चाहता	-3446
ेमारी	-3447
▁तालाब	-3448
▁बढ़ने	-3449
▁हालात	-3450
▁इंटरव्यू	-3451
्ब	-3452
ंडर	-3453
▁2025	-3454
▁स्पी	-3455
▁हाईवे	-3456
णसी	-3457
मित	-3458
स्तर	-3459
▁कने	-3460
▁आतंक	-3461
▁मुद्दे	-3462
▁छापेमारी	-3463
ेड	-3464
▁आपकी	-3465
▁विमान	-3466
.9	-3467
▁नक्स	-3468
▁घायलों	-3469
▁संघर्ष	-3470
कुल	-3471
ानि	-3472
ड्डा	-3473
▁कमल	-3474
▁गोद	-3475
▁भ्र	-3476
स्थल	-3477
ार्म	-3478
▁शही	-3479
▁दूरी	-3480
▁सलाह	-3481
▁प्रमाण	-3482
▁समीक्षा	-3483
लेश	-3484
▁एंट	-3485
▁एफआईआर	-3486
▁चिकित्स	-3487
▁कर्मियों	-3488
वली	-3489
घाटन	-3490
▁गुजर	-3491
चंद	-3492
्वी	-3493
▁निशाना	-3494
▁वोटिंग	-3495
▁चंडीगढ़	-3496
▁योजनाओं	-3497
िमी	-3498
▁बाग	-3499
▁अर्ज	-3500
▁अह	-3501
िग्ध	-3502
▁जोन	-3503
▁रद्द	-3504
▁भुगतान	-3505
▁ओम	-3506
▁इंच	-3507
▁माध	-3508
▁खाना	-3509
▁हिंसा	-3510
▁l	-3511
▁दस	-3512
▁जोध	-3513
▁माइ	-3514
▁साउथ	-3515
▁नियुक्त	-3516
▁संदिग्ध	-3517
ार्व	-3518
▁वाय	-3519
▁शेख	-3520
तक	-3521
भाष	-3522
▁कैब	-3523
▁डिप	-3524
▁पॉल	-3525
▁भीतर	-3526
▁प्यार	-3527
▁पुरानी	-3528
सीसी	-3529
▁दान	-3530
▁इजरा	-3531
▁निर्म	-3532
▁बल्ले	-3533
▁यूनिट	-3534
▁राजस्व	-3535
▁समाप्त	-3536
तु	-3537
▁W	-3538
▁बादल	-3539
▁सकेंगे	-3540
▁इंटरनेशनल	-3541
सीय	-3542
▁हड़	-3543
चुनाव	-3544
▁खाने	-3545
▁ठेके	-3546
▁फुटेज	-3547
ंती	-3548
▁खड़ी	-3549
▁मॉडल	-3550
▁स्थापना	-3551
▁दुर्घटना	-3552
णि	-3553
यं	-3554
▁CM	-3555
डियम	-3556
▁भीषण	-3557
▁लाइट	-3558
▁जबर	-3559
▁रुक	-3560
▁प्रेस	-3561
▁स्टार	-3562
▁जोधपुर	-3563
▁सम्मेलन	-3564
तो	-3565
काम	-3566
टका	-3567
▁चेता	-3568
▁विभा	-3569
▁चलाया	-3570
▁प्रभा	-3571
▁एसडीएम	-3572
▁विशेषज्ञ	-3573
▁कप्तान	-3574
पु	-3575
।"	-3576
▁चर	-3577
▁भरो	-3578
▁शिकार	-3579
▁ऑस्ट्रेलिया	-3580
लब	-3581
:30	-3582
▁कू	-3583
▁रूस	-3584
▁अच्छे	-3585
ोजक	-3586
▁चाक	-3587
▁राठ	-3588
▁अतिक	-3589
▁लेना	-3590
▁वृद्धि	-3591
पिता	-3592
स्टल	-3593
▁ईरान	-3594
▁महास	-3595
▁यात्री	-3596
▁सर्विस	-3597
▁अंतरराष्ट्रीय	-3598
▁दह	-3599
▁नज	-3600
▁उपाय	-3601
▁सेंट	-3602
▁कार्यकाल	-3603
पद	-3604
केशन	-3605
▁पाली	-3606
▁कानपुर	-3607
▁गांवों	-3608
▁रहीं	-3609
▁वारा	-3610
▁हटाने	-3611
▁खी	-3612
▁रेट	-3613
▁नर्स	-3614
▁वकील	-3615
▁वाराणसी	-3616
▁गठन	-3617
▁होनी	-3618
▁स्वीकार	-3619
्यास	-3620
▁उज्ज	-3621
▁ज्ञान	-3622
▁टैक्स	-3623
▁अध्यक्षता	-3624
नाड	-3625
▁साज	-3626
धिकार	-3627
▁डेढ़	-3628
ol	-3629
▁कथ	-3630
▁पशु	-3631
▁आक्र	-3632
▁बजकर	-3633
▁उद्घाटन	-3634
पल	-3635
▁36	-3636
▁बम	-3637
द्रा	-3638
ानगर	-3639
▁500	-3640
स्टेबल	-3641
▁श्याम	-3642
▁इंस्पे	-3643
▁स्टेडियम	-3644
▁स्वतंत्र	-3645
सेज	-3646
▁खुशी	-3647
▁डाला	-3648
▁फैंस	-3649
▁विकसित	-3650
ोग्राम	-3651
▁कैमरे	-3652
▁शहरों	-3653
-3	-3654
साइड	-3655
▁अके	-3656
▁पवन	-3657
▁संगी	-3658
▁लड़ाई	-3659
▁दोबारा	-3660
▁बढ़ावा	-3661
▁अतिक्रमण	-3662
▁राजेंद्र	-3663
▁आंख	-3664
▁बहु	-3665
▁टाइम	-3666
▁सत्य	-3667
▁चाहती	-3668
▁बीमार	-3669
▁सोरेन	-3670
▁मीटिंग	-3671
▁श्रद्धालुओं	-3672
ंपिक	-3673
▁एरिया	-3674
▁पोर्ट	-3675
▁सार्व	-3676
▁शानदार	-3677
han	-3678
ढ़े	-3679
▁सोना	-3680
▁चार्ज	-3681
▁स्वामी	-3682
घर	-3683
▁ऊंच	-3684
▁आशंका	-3685
▁जू	-3686
▁लू	-3687
जनिक	-3688
▁News	-3689
▁आखिर	-3690
▁पदों	-3691
▁सख्त	-3692
▁महोत्सव	-3693
▁पुरस्कार	-3694
ंदन	-3695
िपल	-3696
▁इक	-3697
▁जस	-3698
त्मा	-3699
ष्टा	-3700
▁अरब	-3701
▁नाय	-3702
▁2014	-3703
▁सिन्	-3704
▁सूरज	-3705
न्द	-3706
ोलॉ	-3707
्मण	-3708
▁हित	-3709
▁पंडित	-3710
▁रांची	-3711
▁जिन्हें	-3712
▁लक्ष्मी	-3713
▁आंध	-3714
▁कोह	-3715
▁गरीब	-3716
▁जगहों	-3717
▁विष्ण	-3718
▁नियुक्ति	-3719
▁नती	-3720
▁वार्	-3721
▁दिनेश	-3722
▁सुरेश	-3723
▁कठ	-3724
▁बध	-3725
जूदा	-3726
▁डिज	-3727
▁नेट	-3728
▁हरि	-3729
▁इंस्पेक्टर	-3730
▁गुल	-3731
▁तार	-3732
▁स्वच्छ	-3733
ंगर	-3734
▁प्रोफे	-3735
▁सौर	-3736
▁दर्द	-3737
▁तस्कर	-3738
▁मौजूदा	-3739
▁विज्ञान	-3740
▁गे	-3741
▁जिंद	-3742
▁एक्शन	-3743
▁नियमों	-3744
▁नारे	-3745
▁समस्याओं	-3746
24	-3747
िड़	-3748
▁48	-3749
कारा	-3750
▁मस्	-3751
▁लड़के	-3752
▁लाखों	-3753
▁कारोबार	-3754
▁कैबिनेट	-3755
हारी	-3756
▁जानिए	-3757
▁मिलती	-3758
▁सार्वजनिक	-3759
पण	-3760
जोर	-3761
डेट	-3762
▁खर	-3763
▁नहर	-3764
▁कोटा	-3765
▁दरवा	-3766
▁अपराधियों	-3767
▁गौतम	-3768
धियाना	-3769
▁चलाने	-3770
▁अफसरों	-3771
▁प्रारंभ	-3772
चिव	-3773
▁यश	-3774
▁सका	-3775
▁सुल	-3776
▁सिन्हा	-3777
गो	-3778
ानु	-3779
▁गह	-3780
▁अखिलेश	-3781
▁संस्कार	-3782
साइट	-3783
ब्लिक	-3784
▁वेतन	-3785
▁उत्सा	-3786
▁स्ट्र	-3787
▁पहुंचाया	-3788
▁34	-3789
▁पंक	-3790
▁आपका	-3791
▁प्रवक्ता	-3792
ेद	-3793
बीन	-3794
▁आइ	-3795
▁जुट	-3796
▁आबादी	-3797
▁चारों	-3798
▁संजीव	-3799
स्कृतिक	-3800
ौड़	-3801
▁90	-3802
नाटक	-3803
▁कुश	-3804
राबाद	-3805
▁चपेट	-3806
यत	-3807
▁मिशन	-3808
▁बातें	-3809
▁मच	-3810
▁लिम	-3811
▁टिप्	-3812
▁दलों	-3813
▁दिव्या	-3814
▁चेतावनी	-3815
▁प्रोफेसर	-3816
नन	-3817
▁असम	-3818
गरानी	-3819
▁अनुभव	-3820
▁हल्की	-3821
▁मध	-3822
▁धरना	-3823
कू	-3824
▁शास	-3825
्रेशन	-3826
▁चोरों	-3827
▁विदेशी	-3828
▁महेंद्र	-3829
▁डूब	-3830
▁नवीन	-3831
▁मंजू	-3832
▁विनोद	-3833
▁लुधियाना	-3834
▁अंडर	-3835
▁क्लास	-3836
▁निकाली	-3837
ांज	-3838
▁माय	-3839
▁छोटी	-3840
▁पेंशन	-3841
▁एंट्री	-3842
▁निगरानी	-3843
▁सांस्कृतिक	-3844
फान	-3845
▁हाइ	-3846
▁इसरा	-3847
▁ऊर्जा	-3848
▁उपचुनाव	-3849
▁कर्नाटक	-3850
▁पश्चिमी	-3851
▁ट्रांसफर	-3852
गन	-3853
टरी	-3854
लान	-3855
▁शौ	-3856
▁दाम	-3857
▁मनो	-3858
▁चांदी	-3859
▁ट्रंप	-3860
▁दिवसीय	-3861
धिकारियों	-3862
it	-3863
▁विज	-3864
ुल्ला	-3865
▁रानी	-3866
काने	-3867
▁परम	-3868
▁2020	-3869
▁अनुप	-3870
▁अरुण	-3871
▁खुले	-3872
▁पंकज	-3873
▁समझौ	-3874
▁सुंदर	-3875
▁योगदान	-3876
▁आदिवासी	-3877
▁काउंस	-3878
▁घटनास्थल	-3879
▁गतिविधियों	-3880
म्बर	-3881
▁ब्रि	-3882
▁रास्ता	-3883
दर्शन	-3884
र्में	-3885
ुलेंस	-3886
▁चाकू	-3887
▁जस्ट	-3888
▁निरा	-3889
▁सीता	-3890
तौर	-3891
िंदर	-3892
▁कपड़े	-3893
लीय	-3894
▁एच	-3895
▁कच	-3896
▁धार	-3897
▁बधाई	-3898
▁विष्णु	-3899
ट्टा	-3900
▁कंग	-3901
▁गायब	-3902
▁साहिब	-3903
धीश	-3904
सेस	-3905
▁पथ	-3906
कृति	-3907
▁इंग	-3908
▁सुभाष	-3909
तरीय	-3910
स्कृति	-3911
▁प्रयोग	-3912
भो	-3913
ंटर	-3914
क्न	-3915
▁झां	-3916
▁मेर	-3917
▁ट्रॉ	-3918
▁धोखा	-3919
▁भव्य	-3920
▁भाषा	-3921
फ्रेंस	-3922
स्थिति	-3923
▁भक्तों	-3924
▁सारे	-3925
▁फॉर्म	-3926
▁बिक्री	-3927
्रह	-3928
▁नजदी	-3929
बद्ध	-3930
▁बैग	-3931
▁मेहन	-3932
▁इन्हें	-3933
▁मस्ज	-3934
▁समान	-3935
▁प्राण	-3936
▁हंगामा	-3937
▁प्रतिनिध	-3938
िमा	-3939
सवाल	-3940
वाड़ी	-3941
▁देती	-3942
▁बचाव	-3943
▁निकला	-3944
▁सैनिक	-3945
▁मानसिक	-3946
▁कंट्रोल	-3947
▁राजकुमार	-3948
ोम	-3949
रोज	-3950
्हा	-3951
▁गैस	-3952
▁जीतने	-3953
▁पांडे	-3954
▁क्राइम	-3955
▁संकल्प	-3956
▁फैक्ट्री	-3957
▁धाम	-3958
▁रोल	-3959
▁आकर्	-3960
▁स्तरीय	-3961
▁75	-3962
▁PM	-3963
▁घे	-3964
▁अना	-3965
▁बेस	-3966
▁उत्सव	-3967
▁निशान	-3968
▁ससुराल	-3969
पट	-3970
▁बाय	-3971
▁भूप	-3972
▁गोरख	-3973
▁पंजी	-3974
▁बोला	-3975
▁लगाते	-3976
▁श्रीवा	-3977
▁सुसाइड	-3978
एसआई	-3979
्तीय	-3980
▁गुण	-3981
▁मुर	-3982
▁एनडीए	-3983
-4	-3984
▁लल	-3985
दो	-3986
पता	-3987
स्सा	-3988
विंदर	-3989
▁ब्रे	-3990
स्त्री	-3991
▁प्रोड	-3992
▁साढ़े	-3993
▁स्वयं	-3994
▁परिवहन	-3995
as	-3996
चक	-3997
▁तृ	-3998
ंपरा	-3999
▁बेट	-4000
िनियम	-4001
▁फ्री	-4002
▁छठ	-4003
▁आना	-4004
हत्या	-4005
▁चौराह	-4006
▁वर्षा	-4007
▁व्यापारी	-4008
▁श्रीवास्तव	-4009
▁एडम	-4010
▁सब्	-4011
▁बैठा	-4012
▁सुनाई	-4013
▁विभागों	-4014
▁सूत्रों	-4015
▁संस्कृति	-4016
▁झग	-4017
ृत्य	-4018
▁घोट	-4019
▁आएंगे	-4020
पे	-4021
ोसी	-4022
जाइन	-4023
▁बोली	-4024
▁लड़क	-4025
▁वित्तीय	-4026
▁पर्यावरण	-4027
लाश	-4028
▁वर	-4029
▁खार	-4030
▁अग्न	-4031
▁गोल्ड	-4032
▁श्रीराम	-4033
दु	-4034
यी	-4035
ॉम	-4036
न्व	-4037
▁टो	-4038
....	-4039
▁मंज	-4040
▁होम	-4041
कृष्ण	-4042
▁कहती	-4043
▁कश्मीर	-4044
▁शख	-4045
कर्ता	-4046
▁आर्ट	-4047
▁काबू	-4048
▁कौशल	-4049
▁उज्जैन	-4050
ad	-4051
▁गैर	-4052
▁इनकी	-4053
▁विधाय	-4054
▁हजारों	-4055
िटेड	-4056
▁एडी	-4057
▁इंडियन	-4058
▁परंपरा	-4059
कर्मियों	-4060
ंवर	-4061
श्त	-4062
▁अनुर	-4063
▁कमाई	-4064
▁पकड़े	-4065
▁आचार्य	-4066
▁अधिनियम	-4067
गेट	-4068
▁(3	-4069
▁काे	-4070
▁सीधे	-4071
▁उनमें	-4072
▁भारती	-4073
▁वेबसाइट	-4074
un	-4075
रेज	-4076
क्सी	-4077
▁अल्	-4078
▁ईडी	-4079
▁लागत	-4080
▁कब्जा	-4081
▁कमजोर	-4082
▁मेहनत	-4083
▁वापसी	-4084
▁198	-4085
▁कानूनी	-4086
▁भ्रष्टा	-4087
▁प्रियंका	-4088
वो	-4089
संग	-4090
▁चेयरमैन	-4091
▁दस्तावेज	-4092
राहा	-4093
▁पारा	-4094
▁प्रमो	-4095
▁मुक्त	-4096
▁दिखाया	-4097
ूर्त	-4098
▁खेला	-4099
▁बरसा	-4100
▁सिंध	-4101
▁हवाई	-4102
▁अक्सर	-4103
▁मुकाबला	-4104
दिक	-4105
▁इतने	-4106
▁दौड़	-4107
▁डीएसपी	-4108
▁भरत	-4109
▁चैंप	-4110
▁हाथों	-4111
▁हिंदी	-4112
ड्डी	-4113
▁जाट	-4114
▁शोर	-4115
▁सैक	-4116
▁जुटी	-4117
▁शहीद	-4118
▁कोहली	-4119
▁आश्वास	-4120
▁पांडेय	-4121
▁पासवान	-4122
▁व्यापार	-4123
▁आवश्यकता	-4124
आईटी	-4125
क्षी	-4126
▁मिट्	-4127
▁जुर्म	-4128
▁हिसाब	-4129
▁संरक्षण	-4130
▁दिग्	-4131
▁केन्द्र	-4132
▁राज्यपाल	-4133
सूस	-4134
▁अपर	-4135
▁उचित	-4136
▁शूटिंग	-4137
▁प्रिंसिपल	-4138
▁घरे	-4139
▁खाद्य	-4140
▁बॉक्स	-4141
▁डिजाइन	-4142
▁मतदाता	-4143
▁श्रेणी	-4144
र्त	-4145
▁मचा	-4146
▁जीता	-4147
▁इंग्ल	-4148
श्री	-4149
तायात	-4150
▁किशन	-4151
▁रणनी	-4152
▁वर्क	-4153
▁मुद्दों	-4154
."	-4155
ूत	-4156
इंट	-4157
▁ऑड	-4158
▁फल	-4159
▁खून	-4160
▁गर्म	-4161
▁दोषी	-4162
▁आश्वासन	-4163
▁प्रतिबंध	-4164
वै	-4165
मेल	-4166
्लो	-4167
▁जैसा	-4168
▁मानव	-4169
▁तुलना	-4170
▁पदार्थ	-4171
गाह	-4172
बाग	-4173
▁रोग	-4174
▁लें	-4175
▁निष्	-4176
▁भोजन	-4177
▁घरेलू	-4178
▁स्कोर	-4179
▁प्लांट	-4180
▁फ्लाइट	-4181
▁भंड	-4182
▁मुआ	-4183
▁मुज	-4184
पूर्व	-4185
रेस्ट	-4186
▁अर्जुन	-4187
फिया	-4188
▁दूध	-4189
▁बुल	-4190
▁शब्	-4191
▁ग्रा	-4192
▁विधि	-4193
▁सिने	-4194
▁दुर्ग	-4195
▁निकली	-4196
▁प्रती	-4197
▁यातायात	-4198
मैं	-4199
▁लाश	-4200
▁बनकर	-4201
▁बुरी	-4202
▁मस्जिद	-4203
▁साथियों	-4204
इज	-4205
नाक	-4206
▁चीज	-4207
▁नित	-4208
▁अवधि	-4209
▁कराए	-4210
▁गिरने	-4211
▁मतगणना	-4212
▁सीबीआई	-4213
▁महासचिव	-4214
ग्न	-4215
▁ओड	-4216
▁कैद	-4217
▁दुबे	-4218
▁लंबी	-4219
▁इनकार	-4220
▁कैलाश	-4221
▁ट्रैक	-4222
▁पूर्वी	-4223
▁संयोजक	-4224
ेन	-4225
र्ग	-4226
▁सेल	-4227
▁मुद्दा	-4228
शोध	-4229
ियत	-4230
ट्यू	-4231
▁ममता	-4232
▁समझा	-4233
▁सिया	-4234
▁निकलने	-4235
▁पक्षों	-4236
▁ट्रेनिंग	-4237
▁हफ्	-4238
▁आगरा	-4239
▁एमपी	-4240
▁लिमिटेड	-4241
▁आत्महत्या	-4242
▁पुण	-4243
▁जाएं	-4244
▁दावे	-4245
▁महेश	-4246
▁अपडेट	-4247
▁राउंड	-4248
▁मोर्चा	-4249
el	-4250
ल्थ	-4251
▁एका	-4252
▁संभव	-4253
जब	-4254
ौज	-4255
▁वसू	-4256
▁शख्स	-4257
▁दीवार	-4258
▁पत्थर	-4259
▁शुक्ला	-4260
▁इस्तीफा	-4261
▁विधायकों	-4262
दीय	-4263
हिता	-4264
▁पायल	-4265
ज्ञानिक	-4266
▁राज्यसभा	-4267
▁प्रतिनिधि	-4268
▁जिलाध्यक्ष	-4269
पत्र	-4270
▁नशा	-4271
▁स्‍	-4272
▁जनरल	-4273
▁टाटा	-4274
▁बढ़ती	-4275
▁सामग्री	-4276
▁सन	-4277
▁अमन	-4278
▁स्न	-4279
▁अहमद	-4280
▁आशीष	-4281
▁कथित	-4282
▁बढ़कर	-4283
▁महसूस	-4284
▁उत्साह	-4285
▁प्रदर्श	-4286
hi	-4287
दक	-4288
har	-4289
▁खोज	-4290
▁बजा	-4291
▁लेख	-4292
▁ऐलान	-4293
▁पाने	-4294
▁प्रण	-4295
▁मेले	-4296
▁विरा	-4297
ड़ियां	-4298
▁विवेक	-4299
▁निरीक्षक	-4300
▁भ्रष्टाचार	-4301
▁घट	-4302
▁चीफ	-4303
▁पाइ	-4304
▁चक्र	-4305
▁साझा	-4306
▁वेस्ट	-4307
ांश	-4308
▁छूट	-4309
स्थाप	-4310
▁दिक्	-4311
▁दुष्	-4312
▁मेडल	-4313
▁हर्ष	-4314
▁खारिज	-4315
▁नियमित	-4316
▁हेमंत	-4317
▁कुलदीप	-4318
रीय	-4319
▁छत	-4320
वाड़	-4321
िलंब	-4322
▁मेला	-4323
▁जस्टिस	-4324
▁प्रशासनिक	-4325
▁जख	-4326
एससी	-4327
▁तिल	-4328
▁गोयल	-4329
▁महतो	-4330
▁बेचने	-4331
▁प्रकरण	-4332
▁नियंत्रण	-4333
चर्स	-4334
ित्त	-4335
▁पड़ेगा	-4336
▁दुकानों	-4337
घु	-4338
लैंड	-4339
▁इंस्ट	-4340
▁कैंसर	-4341
▁शिफ्ट	-4342
रेन्द्र	-4343
पूत	-4344
डेंट	-4345
फ्फर	-4346
▁आर्	-4347
▁रुख	-4348
▁हरी	-4349
▁अश्व	-4350
▁आकाश	-4351
▁खेती	-4352
▁दौरे	-4353
▁होली	-4354
▁लापता	-4355
वाय	-4356
▁डू	-4357
▁पलट	-4358
▁आयुष	-4359
▁महाप	-4360
्योहार	-4361
▁चै	-4362
रेली	-4363
▁जाया	-4364
▁कर्मी	-4365
▁हड़ताल	-4366
▁तेजस्वी	-4367
▁न्यायाधीश	-4368
25	-4369
जात	-4370
▁आह	-4371
▁डो	-4372
्योर	-4373
▁ज्यादातर	-4374
ंतर	-4375
रीन	-4376
▁400	-4377
ोलॉजी	-4378
▁मारे	-4379
नामेंट	-4380
▁छात्राओं	-4381
नीत	-4382
पणी	-4383
श्म	-4384
स्म	-4385
ोतरी	-4386
▁मैचों	-4387
▁ऑल	-4388
▁आरा	-4389
▁नील	-4390
▁2018	-4391
▁टूर्	-4392
▁मतलब	-4393
▁दिक्कत	-4394
▁बीमारी	-4395
▁प्रार्थ	-4396
▁बिल्डिंग	-4397
पो	-4398
ंडे	-4399
क्चर	-4400
▁धूप	-4401
यात्रा	-4402
▁अभिने	-4403
▁हफ्ते	-4404
▁नागरिकों	-4405
गज	-4406
पात	-4407
्मत	-4408
मोहन	-4409
▁भरोसा	-4410
▁संहिता	-4411
▁टूर्नामेंट	-4412
ाइड	-4413
▁रूट	-4414
▁छोटा	-4415
▁तमिल	-4416
▁मारकर	-4417
▁गोरखपुर	-4418
▁टिप्पणी	-4419
▁पार्किंग	-4420
▁मतदाताओं	-4421
▁आईपी	-4422
▁रखना	-4423
▁संकट	-4424
▁अपराधी	-4425
▁आक्रोश	-4426
▁प्रतिभा	-4427
5)	-4428
ृज	-4429
कांत	-4430
▁300	-4431
क्रेन	-4432
दायिक	-4433
ब्ल्यू	-4434
▁पदाधिकारियों	-4435
हल	-4436
दशी	-4437
▁एश	-4438
▁दर्श	-4439
▁बताए	-4440
▁लाइस	-4441
▁ओडिशा	-4442
▁समापन	-4443
▁किरदार	-4444
▁एक्सपर्ट	-4445
ce	-4446
▁आसान	-4447
▁गुना	-4448
▁बढ़े	-4449
▁जयंती	-4450
▁नक्सल	-4451
▁साजिश	-4452
▁सौंपा	-4453
▁डिजिटल	-4454
▁जिम्मेदार	-4455
्रो	-4456
▁जोशी	-4457
प्रकाश	-4458
▁जबलपुर	-4459
▁पोर्टल	-4460
▁सिनेमा	-4461
▁बढ़ोतरी	-4462
▁प्रावधान	-4463
यक	-4464
प्त	-4465
िणी	-4466
▁एप	-4467
▁फते	-4468
▁सकी	-4469
▁सेट	-4470
▁अधिव	-4471
▁केरल	-4472
▁अजमेर	-4473
िलासपुर	-4474
▁पब्लिक	-4475
▁मैनेजर	-4476
सं	-4477
▁पर्	-4478
▁मारा	-4479
▁मूवी	-4480
▁रखें	-4481
▁लड़ा	-4482
▁मैसेज	-4483
▁एग्जाम	-4484
▁चौराहे	-4485
गीर	-4486
नाल	-4487
▁ठग	-4488
वाले	-4489
▁उसको	-4490
▁चाहे	-4491
▁जुड़	-4492
▁पड़ोसी	-4493
▁प्रश्न	-4494
टाई	-4495
लील	-4496
▁55	-4497
▁ढा	-4498
▁जुल	-4499
▁यूज	-4500
▁कुर्	-4501
▁पुष्टि	-4502
▁मान्यता	-4503
▁मुजफ्फर	-4504
id	-4505
फोन	-4506
▁फैल	-4507
▁वोटर	-4508
▁जुड़ा	-4509
▁उत्तरा	-4510
▁तकनीकी	-4511
▁मांगों	-4512
▁शुरुआती	-4513
▁परिवारों	-4514
▁कार्यवाही	-4515
▁प्रस्तुति	-4516
-5	-4517
ंथ	-4518
धाम	-4519
यां	-4520
▁बड़	-4521
▁हैद	-4522
▁आर्य	-4523
▁इच्छ	-4524
▁जीते	-4525
▁विजे	-4526
▁लड़ने	-4527
▁संभाल	-4528
▁हिस्सों	-4529
▁थानाध्यक्ष	-4530
▁अक	-4531
▁चम	-4532
▁तनाव	-4533
▁दौरा	-4534
▁गुर्जर	-4535
▁दोस्तों	-4536
▁वैज्ञानिक	-4537
ख्	-4538
केत	-4539
▁झु	-4540
▁कना	-4541
▁फुट	-4542
▁फैला	-4543
▁जिसने	-4544
▁विहार	-4545
▁त्योहार	-4546
▁विद्युत	-4547
▁जागरूकता	-4548
ज़ा	-4549
▁बॉल	-4550
▁लीक	-4551
▁उपभो	-4552
▁बदले	-4553
▁सकें	-4554
▁रिजल्ट	-4555
ड्ढ	-4556
ूंगा	-4557
▁लोह	-4558
वस्था	-4559
▁कहने	-4560
▁फेंक	-4561
▁कंगना	-4562
▁निर्द	-4563
▁बच्चा	-4564
▁लेंगे	-4565
▁अंग्रे	-4566
▁कलेक्ट	-4567
▁आपूर्ति	-4568
▁अभ्यर्थियों	-4569
जान	-4570
फ्टी	-4571
ल्टी	-4572
▁कवि	-4573
▁नमः	-4574
▁कैंड	-4575
▁निधन	-4576
▁ब्रह	-4577
▁घटनाओं	-4578
▁तहसीलदार	-4579
▁38	-4580
▁42	-4581
▁अक्षय	-4582
▁हिसार	-4583
▁मास्टर	-4584
IR	-4585
ab	-4586
एचओ	-4587
जारी	-4588
▁चलता	-4589
▁नीरज	-4590
▁जताया	-4591
▁ड्रोन	-4592
▁बनाना	-4593
▁लिखित	-4594
▁शुल्क	-4595
▁जिंदगी	-4596
▁सेंट्र	-4597
▁शुभारंभ	-4598
▁संगठनों	-4599
▁कारोबारी	-4600
▁नाल	-4601
र्वाद	-4602
▁शांत	-4603
▁गोविंद	-4604
▁रिजर्व	-4605
▁प्रतिष्ठा	-4606
tion	-4607
▁अल्प	-4608
▁तहरी	-4609
▁ग्राह	-4610
▁विराट	-4611
▁अर्पित	-4612
▁कॉन्फ्रेंस	-4613
▁खेले	-4614
▁दलित	-4615
▁वैसे	-4616
▁चित्र	-4617
▁टीमों	-4618
▁फांसी	-4619
▁केंद्रों	-4620
BI	-4621
ंधर	-4622
▁In	-4623
▁शक	-4624
वरूप	-4625
िलीप	-4626
ैक्ट	-4627
▁पंप	-4628
▁भरी	-4629
▁मैन	-4630
ाइयों	-4631
▁दर्जन	-4632
▁मानना	-4633
▁आशीर्वाद	-4634
▁जुर्माना	-4635
40	-4636
डकर	-4637
याल	-4638
▁46	-4639
▁जज	-4640
▁गंग	-4641
▁टोल	-4642
▁बाघ	-4643
▁लीड	-4644
▁सफर	-4645
▁सैन	-4646
▁सारी	-4647
▁टेक्न	-4648
et	-4649
ंधे	-4650
शाली	-4651
▁कस्	-4652
▁जनपद	-4653
▁टीचर	-4654
▁जानें	-4655
▁उल्लेख	-4656
▁तत्कालीन	-4657
काई	-4658
देन	-4659
बूर	-4660
▁आवं	-4661
▁गले	-4662
▁जाह	-4663
स्तानी	-4664
▁बिलासपुर	-4665
मल	-4666
▁फर्	-4667
▁कितनी	-4668
▁जवानों	-4669
▁स्वतंत्रता	-4670
स्टी	-4671
▁गड़	-4672
▁नही	-4673
▁देखी	-4674
▁क्षति	-4675
▁दिलीप	-4676
▁आधारित	-4677
सारी	-4678
▁पहन	-4679
▁सिम	-4680
वितीय	-4681
▁सचिन	-4682
▁पर्यटन	-4683
▁फं	-4684
ंख्य	-4685
एसटी	-4686
्रेड	-4687
▁	-4688
ा	-4689
र	-4690
क	-4691
े	-4692
ी	-4693
न	-4694
्	-4695
स	-4696
ि	-4697
ं	-4698
म	-4699
ह	-4700
ल	-4701
त	-4702
ो	-4703
प	-4704
य	-4705
व	-4706
द	-4707
ज	-4708
ग	-4709
ब	-4710
ु	-4711
।	-4712
ै	-4713
ट	-4714
श	-4715
ए	-4716
ड	-4717
च	-4718
भ	-4719
अ	-4720
थ	-4721
ू	-4722
,	-4723
आ	-4724
इ	-4725
ध	-4726
ख	-4727
उ	-4728
ई	-4729
़	-4730
फ	-4731
ष	-4732
औ	-4733
ौ	-4734
ण	-4735
2	-4736
0	-4737
1	-4738
-	-4739
छ	-4740
ॉ	-4741
घ	-4742
.	-4743
ठ	-4744
ओ	-4745
5	-4746
3	-4747
4	-4748
ढ	-4749
ृ	-4750
9	-4751
6	-4752
झ	-4753
a	-4754
7	-4755
8	-4756
:	-4757
)	-4758
(	-4759
'	-4760
ऐ	-4761
e	-4762
i	-4763
"	-4764
ऑ	-4765
n	-4766
r	-4767
o	-4768
t	-4769
S	-4770
P	-4771
h	-4772
C	-4773
s	-4774
A	-4775
‍	-4776
I	-4777
l	-4778
ऊ	-4779
ञ	-4780
?	-4781
M	-4782
d	-4783
D	-4784
B	-4785
u	-4786
R	-4787
N	-4788
m	-4789
c	-4790
T	-4791
E	-4792
p	-4793
y	-4794
G	-4795
O	-4796
L	-4797
k	-4798
F	-4799
g	-4800
J	-4801
K	-4802
V	-4803
U	-4804
w	-4805
%	-4806
/	-4807
v	-4808
ः	-4809
H	-4810
ँ	-4811
b	-4812
ऋ	-4813
W	-4814
;	-4815
f	-4816
j	-4817
!	-4818
X	-4819
x	-4820
ॅ	-4821
ॐ	-4822
॥	-4823
{	-4824
Y	-4825
z	-4826
₹	-4827
Q	-4828
+	-4829
Z	-4830
_	-4831
^	-4832
°	-4833
०	-4834
q	-4835
*	-4836
}	-4837
@	-4838
ऱ	-4839
ङ	-4840
=	-4841
&	-4842
ऽ	-4843
•	-4844
#	-4845
া	-4846
$	-4847
ে	-4848
র	-4849
🔴	-4850
̈	-4851
]	-4852
➤	-4853
ळ	-4854
ऩ	-4855
️	-4856
🌟	-4857
॰	-4858
ক	-4859
⁠	-4860
२	-4861
\	-4862
্	-4863
ন	-4864
ি	-4865
క	-4866
ి	-4867
×	-4868
ত	-4869
ా	-4870
ు	-4871
్	-4872
­	-4873
জ	-4874
ల	-4875
ব	-4876
ম	-4877
చ	-4878
●	-4879
🕐	-4880
>	-4881
३	-4882
४	-4883
ট	-4884
ো	-4885
ర	-4886
[	-4887
१	-4888
প	-4889
ল	-4890
ু	-4891
ం	-4892
~	-4893
९	-4894
এ	-4895
চ	-4896
য	-4897
ষ	-4898
স	-4899
గ	-4900
ట	-4901
ీ	-4902
♈	-4903
ॊ	-4904
ছ	-4905
ড	-4906
দ	-4907
ধ	-4908
త	-4909
న	-4910
వ	-4911
స	-4912
⏱	-4913
♍	-4914
⚠	-4915
⭐	-4916
🇮	-4917
🇳	-4918
🪐	-4919
£	-4920
ॆ	-4921
ॠ	-4922
ঁ	-4923
আ	-4924
ই	-4925
ও	-4926
খ	-4927
়	-4928
ী	-4929
డ	-4930
ప	-4931
శ	-4932
ూ	-4933
ె	-4934
⁄	-4935
☀	-4936
♏	-4937
♐	-4938
♑	-4939
♒	-4940
♓	-4941
🌙	-4942
🔵	-4943
·	-4944
ï	-4945
ऍ	-4946
॑	-4947
५	-4948
६	-4949
८	-4950
অ	-4951
ঘ	-4952
ঠ	-4953
ণ	-4954
ઢ	-4955
ఇ	-4956
ఛ	-4957
జ	-4958
ణ	-4959
థ	-4960
ద	-4961
ఫ	-4962
బ	-4963
భ	-4964
ే	-4965
ొ	-4966
ో	-4967
‛	-4968
€	-4969
⏩	-4970
▪	-4971
○	-4972
♉	-4973
♊	-4974
♋	-4975
♌	-4976
♦	-4977
⚫	-4978
❓	-4979
❗	-4980
	-4981
🌅	-4982
🎉	-4983
🏅	-4984
🏹	-4985
🐉	-4986
💫	-4987
🗓	-4988
😉	-4989
😎	-4990
😜	-4991
😸	-4992
🤔	-4993
🤩	-4994
🦌	-4995
🧭	-4996
