<unk>	0
<s>	0
</s>	0
।	-3.14523
▁के	-3.37554
▁में	-3.61659
▁की	-3.83655
▁है	-3.92746
,	-3.93982
▁को	-4.10304
▁से	-4.1444
▁ने	-4.27338
▁का	-4.46035
▁और	-4.50421
▁पर	-4.56111
▁कि	-4.86666
▁हैं	-4.9776
▁भी	-5.10438
▁कर	-5.29609
-	-5.30333
▁किया	-5.30494
▁लिए	-5.35317
▁गया	-5.40466
▁एक	-5.40742
▁इस	-5.44569
ों	-5.48669
▁नहीं	-5.48849
▁था	-5.50561
▁हो	-5.6353
▁ही	-5.66427
▁बाद	-5.67313
ी	-5.70154
▁साथ	-5.81438
▁पुलिस	-5.83422
.	-5.84373
▁कहा	-5.84632
▁गई	-5.85053
▁करने	-5.87761
▁दिया	-5.94273
▁	-6.00351
▁तो	-6.03938
▁रहे	-6.04106
▁थी	-6.05359
▁रहा	-6.06621
▁बताया	-6.06824
▁तक	-6.09245
▁हुए	-6.11271
▁यह	-6.13745
े	-6.1719
▁रही	-6.17595
▁थे	-6.17922
ा	-6.19265
▁जा	-6.21175
▁सिंह	-6.26722
▁गए	-6.30389
▁दी	-6.31356
▁उन्होंने	-6.31419
▁लेकर	-6.38064
▁पहले	-6.38747
:	-6.39863
▁इसके	-6.4076
▁लोगों	-6.43893
▁अपने	-6.4641
▁(	-6.49255
▁व	-6.51303
▁हुई	-6.51518
▁लेकिन	-6.51606
)	-6.52329
▁होने	-6.59527
▁वह	-6.60405
▁वाले	-6.61691
▁साल	-6.62069
▁दिन	-6.62089
▁दौरान	-6.62809
ने	-6.63124
▁हुआ	-6.65954
▁जो	-6.70697
▁अब	-6.71247
न	-6.73244
▁सरकार	-6.74007
▁करते	-6.75107
▁घर	-6.76643
▁कुमार	-6.77636
▁दो	-6.77784
▁ये	-6.80754
▁सभी	-6.81814
र	-6.82332
▁इन	-6.82835
▁कुछ	-6.83319
▁लिया	-6.84784
▁कई	-6.85298
▁चुनाव	-6.85434
▁बार	-6.85726
कर	-6.8697
▁बात	-6.9064
▁काम	-6.90739
▁भारत	-6.92599
▁टीम	-6.93047
▁क्षेत्र	-6.9397
▁उनके	-6.94194
▁मामले	-6.95117
▁पास	-6.95995
▁कोई	-6.96933
▁थाना	-6.98102
▁गांव	-6.98499
▁लोग	-6.98836
▁द्वारा	-6.99807
▁अपनी	-7.01032
▁जब	-7.01291
▁समय	-7.01579
▁कांग्रेस	-7.025
▁उन्हें	-7.02612
▁आ	-7.02714
▁वहीं	-7.02772
▁शुरू	-7.02898
▁यहां	-7.04781
▁दोनों	-7.0484
▁दर्ज	-7.05734
▁बजे	-7.07734
▁रुपए	-7.0837
▁जांच	-7.0999
▁न	-7.10026
▁किसी	-7.12207
ल	-7.13195
▁तरह	-7.13318
▁विभाग	-7.14031
▁आरोपी	-7.14212
▁बीच	-7.14671
▁'	-7.14677
▁उसके	-7.14751
▁जानकारी	-7.15687
▁2	-7.15791
▁रूप	-7.15838
▁घटना	-7.15996
▁आज	-7.18451
▁महिला	-7.18457
▁प्रदेश	-7.18996
▁शामिल	-7.19301
▁जिला	-7.19462
▁नगर	-7.2096
▁एवं	-7.21078
▁नाम	-7.22365
ता	-7.23825
▁होगा	-7.24115
▁भाजपा	-7.24383
▁जाएगा	-7.2448
▁किए	-7.25891
▁"	-7.26513
▁उसे	-7.26576
म	-7.26995
▁लाख	-7.27695
▁खिलाफ	-7.27736
▁जारी	-7.28013
▁5	-7.28309
▁जिले	-7.28436
▁पार्टी	-7.28764
▁जाने	-7.28912
▁3	-7.29125
▁अस्पताल	-7.29476
क	-7.30063
्स	-7.30162
▁फिर	-7.30229
▁अन्य	-7.30497
▁रात	-7.30584
▁10	-7.31524
▁वे	-7.32051
▁करीब	-7.32374
▁देश	-7.32884
▁उनकी	-7.33386
▁कारण	-7.33905
▁ज्यादा	-7.34368
▁या	-7.35625
▁वाली	-7.36039
▁मौके	-7.36591
▁मंत्री	-7.36758
▁ले	-7.37569
▁करना	-7.37588
▁ओर	-7.37651
▁डॉ	-7.38137
▁जाता	-7.38182
▁कार्रवाई	-7.38383
'	-7.38461
▁पूर्व	-7.39032
▁तीन	-7.40072
▁मौत	-7.40126
▁सामने	-7.41237
ं	-7.41626
?	-7.4171
▁वो	-7.4203
▁सुबह	-7.42213
▁हर	-7.43987
▁परिवार	-7.44073
▁मंदिर	-7.4473
▁सबसे	-7.45147
▁देने	-7.45227
▁अध्यक्ष	-7.4635
ना	-7.46547
▁4	-7.46787
▁हम	-7.48493
▁क्या	-7.48701
▁निवासी	-7.48714
▁कार्यक्रम	-7.48779
▁यादव	-7.49257
▁हजार	-7.49646
▁युवक	-7.51014
▁सूचना	-7.51735
▁शहर	-7.52201
▁बारिश	-7.52674
▁ऐसे	-7.52815
▁दिए	-7.53266
▁जहां	-7.54096
▁आने	-7.54997
▁फिल्म	-7.55004
▁होगी	-7.55168
▁पानी	-7.5536
ित	-7.5537
▁मांग	-7.55791
▁जिसमें	-7.56051
▁गिरफ्तार	-7.56158
▁इसी	-7.5638
▁इसमें	-7.56797
▁करोड़	-7.56841
ियों	-7.57162
▁कम	-7.57177
▁6	-7.57483
▁अधिकारी	-7.57691
▁इससे	-7.58076
स	-7.58365
▁लगा	-7.58826
▁आया	-7.59072
▁राज्य	-7.59524
▁भारतीय	-7.60436
▁पहुंचे	-7.60787
▁अनुसार	-7.61123
▁रहने	-7.61369
▁स्कूल	-7.6138
▁मोदी	-7.61454
▁आरोप	-7.6253
▁शर्मा	-7.62599
▁कोर्ट	-7.62628
▁दिल्ली	-7.62655
▁अधिक	-7.62917
▁चल	-7.63011
▁आए	-7.63313
▁सकता	-7.63534
▁चाहिए	-7.64509
▁दे	-7.64733
ओं	-7.64809
▁लोकसभा	-7.65552
▁बाहर	-7.65642
▁स्थित	-7.6615
▁मैं	-7.6653
▁वहां	-7.67059
▁शिकायत	-7.67298
▁1	-7.67667
▁मिली	-7.67716
▁राम	-7.68176
▁मामला	-7.68772
▁पिछले	-7.69216
▁आई	-7.69958
▁उसकी	-7.69963
▁पूरी	-7.70099
▁अ	-7.70749
िंग	-7.71389
▁शव	-7.71418
▁नेता	-7.74836
▁आगे	-7.74909
▁काफी	-7.75031
▁शाम	-7.75424
ते	-7.75686
▁सहित	-7.76342
▁उस	-7.7639
▁वर्ष	-7.76465
▁बड़ी	-7.77055
▁जाएगी	-7.7726
▁जबकि	-7.78019
▁12	-7.7897
▁बहुत	-7.79504
▁7	-7.79619
▁हालांकि	-7.79825
ई	-7.8023
▁अभी	-7.80615
▁बंद	-7.81208
▁मुख्यमंत्री	-7.81373
▁होता	-7.81767
▁ली	-7.81789
▁8	-7.81948
▁वीडियो	-7.82372
▁तहत	-7.82606
▁विधानसभा	-7.82637
ो	-7.82899
▁विकास	-7.82979
▁बाइक	-7.83282
▁बच्चों	-7.83381
▁मुख्य	-7.83548
▁मां	-7.83711
▁बैठक	-7.83793
▁सड़क	-7.84138
▁पिता	-7.84554
▁उसने	-7.84747
▁बारे	-7.84937
▁सकते	-7.85154
▁रिपोर्ट	-7.85228
▁अलावा	-7.85503
▁करें	-7.85586
▁मिल	-7.85761
▁विधायक	-7.85814
▁उनका	-7.85963
पुर	-7.86014
▁अपना	-7.86124
▁रोड	-7.86218
▁मीडिया	-7.8654
▁हत्या	-7.86708
▁मिला	-7.87764
▁जिसक	-7.8794
▁केंद्र	-7.88001
▁2024	-7.88444
▁अलग	-7.88568
▁पता	-7.88765
▁अगर	-7.88996
▁कंपनी	-7.89337
िया	-7.89364
▁कहना	-7.89427
▁वजह	-7.90132
▁संख्या	-7.90856
▁आरोपियों	-7.90997
▁15	-7.91309
▁पत्नी	-7.91314
▁कार	-7.91387
▁20	-7.91485
▁सीट	-7.91511
▁कार्य	-7.91595
▁मौजूद	-7.92175
▁दूसरे	-7.9236
▁चार	-7.92838
▁इसे	-7.93255
▁परीक्षा	-7.9369
▁अधिकारियों	-7.93902
▁11	-7.93923
▁दिनों	-7.94047
▁करता	-7.94409
त	-7.94589
▁शादी	-7.951
▁आयोजन	-7.9514
▁तब	-7.95155
ज	-7.95161
▁करेंगे	-7.95212
▁बना	-7.95297
▁समाज	-7.954
▁पूरा	-7.95524
ट	-7.95544
▁सुरक्षा	-7.9559
ए	-7.95763
▁घायल	-7.96025
▁होती	-7.96101
▁महीने	-7.96777
"	-7.96791
▁जैसे	-7.9746
▁आप	-7.97835
▁बनाने	-7.98129
▁घंटे	-7.98502
▁तरफ	-7.99003
▁नंबर	-7.99059
▁ऐसा	-7.99337
▁लग	-7.99723
▁जिस	-8.00307
में	-8.00326
▁9	-8.00433
▁हरियाणा	-8.00536
▁बीजेपी	-8.00576
▁मुताबिक	-8.00837
▁जी	-8.01015
▁लगातार	-8.0122
▁भाई	-8.01427
▁सोमवार	-8.01707
▁जिससे	-8.01996
▁पूरे	-8.0211
▁निर्माण	-8.02192
▁जीत	-8.023
▁पहुंची	-8.02765
▁थाने	-8.03383
▁इसकी	-8.03445
▁व्यक्ति	-8.04564
▁जगह	-8.04657
▁नजर	-8.04824
▁सकती	-8.05091
▁चला	-8.05456
▁लगाया	-8.0572
▁लगे	-8.062
▁मिलने	-8.06278
▁पहली	-8.06416
के	-8.06773
▁बस	-8.07209
▁वाला	-8.07311
▁निगम	-8.07386
प	-8.07719
▁इसका	-8.08248
▁मंगलवार	-8.08425
▁हूं	-8.0856
ीय	-8.08939
▁जाए	-8.09054
▁कराया	-8.09055
▁योजना	-8.09547
ब	-8.09801
▁प्रशासन	-8.09934
▁बिहार	-8.10475
▁देते	-8.10509
▁भगवान	-8.10531
▁डिग्री	-8.10533
▁प्रधानमंत्री	-8.10893
▁आधार	-8.11035
▁पहुंच	-8.11057
▁इसलिए	-8.11207
▁रन	-8.11311
▁गांधी	-8.11366
▁मैच	-8.11382
▁निर्देश	-8.11607
▁सांसद	-8.12272
▁तेज	-8.12487
▁बड़ा	-8.12982
▁मुझे	-8.13253
▁बनाया	-8.1326
▁बड़े	-8.13907
▁इलाज	-8.13917
▁शनिवार	-8.1392
द	-8.14183
▁कॉलेज	-8.14337
▁प्रति	-8.14382
री	-8.14423
▁केस	-8.14633
▁श्री	-8.14671
▁रविवार	-8.14753
▁नए	-8.14845
िक	-8.14855
▁बुधवार	-8.15212
▁जाती	-8.15246
▁शुक्रवार	-8.15772
▁जमीन	-8.15812
▁शिक्षा	-8.15927
▁सीएम	-8.15978
▁जून	-8.16042
▁नई	-8.1608
▁प्रदर्शन	-8.16282
▁आग	-8.16365
▁खान	-8.16391
▁पहचान	-8.16616
व	-8.16658
▁प्रभारी	-8.16681
▁रुपये	-8.16766
▁तैयार	-8.16922
▁पूजा	-8.17427
▁आयोजित	-8.17518
▁पति	-8.17809
▁जेल	-8.18163
▁मौसम	-8.18424
▁जल	-8.18515
▁राजस्थान	-8.18864
▁तापमान	-8.19049
▁समेत	-8.1929
सी	-8.19788
▁लगी	-8.19835
▁बिजली	-8.20022
▁उसका	-8.20048
▁भर्ती	-8.20411
▁परिजनों	-8.20615
ती	-8.2075
▁स्थिति	-8.20804
▁पांच	-8.21026
▁खुद	-8.21209
▁गुरुवार	-8.21302
▁लेने	-8.21376
▁वोट	-8.21504
▁गंभीर	-8.21523
▁उन	-8.21539
▁पंजाब	-8.21711
नी	-8.22013
▁देर	-8.22059
▁बता	-8.22195
▁शुरुआत	-8.22291
▁बच्चे	-8.2249
▁30	-8.23002
▁होते	-8.23009
▁सवाल	-8.2315
▁बैंक	-8.23254
▁बन	-8.23293
▁फोन	-8.23402
▁आदेश	-8.23655
रा	-8.23703
▁व्यवस्था	-8.23947
▁जुलाई	-8.24103
▁दें	-8.24218
▁राहुल	-8.24416
▁मृतक	-8.24465
▁यात्रा	-8.24466
▁बयान	-8.24468
▁बेटे	-8.24475
▁होकर	-8.246
▁-	-8.24646
▁ट्रेन	-8.25098
▁सरकारी	-8.25306
▁कुल	-8.25695
▁चलते	-8.25719
▁जनता	-8.25731
▁पत्र	-8.25943
▁25	-8.25977
▁विशेष	-8.26138
▁अभियान	-8.26417
▁रखा	-8.26466
▁चोरी	-8.26504
▁राष्ट्रीय	-8.27026
▁क्योंकि	-8.27151
▁थीं	-8.27229
▁मिले	-8.27311
▁चुके	-8.2736
...	-8.27515
ू	-8.27608
▁दोपहर	-8.27937
▁विभिन्न	-8.27937
▁दूसरी	-8.28331
▁करके	-8.28506
▁सोशल	-8.28519
▁बेटी	-8.28703
▁अगस्त	-8.28735
▁भाग	-8.28959
▁प्रतिशत	-8.29058
▁विरोध	-8.29468
▁तथा	-8.30073
जी	-8.30143
▁महिलाओं	-8.3038
▁जवाब	-8.30725
▁चर्चा	-8.30837
▁होंगे	-8.31016
▁सब	-8.31048
▁स्वास्थ्य	-8.31106
▁सिर्फ	-8.31354
▁समिति	-8.31477
▁रेलवे	-8.316
▁चुकी	-8.3209
▁राज	-8.32114
▁मदद	-8.32476
▁विवाद	-8.32479
▁हाल	-8.3284
▁वाहन	-8.32892
▁मोबाइल	-8.32975
▁पद	-8.33651
▁जाते	-8.33668
▁बनाए	-8.34025
▁स्थानीय	-8.34056
▁हाथ	-8.34472
▁प्रमुख	-8.34711
▁सेवा	-8.34905
▁ग्राम	-8.35576
▁देखा	-8.35787
▁जयपुर	-8.35991
▁स	-8.35994
▁आम	-8.36096
▁जैन	-8.36205
▁लगभग	-8.36479
▁करती	-8.3654
▁लाल	-8.36592
▁अवसर	-8.36698
ड	-8.36974
▁इलाके	-8.36997
▁सदस्य	-8.37499
▁24	-8.37507
▁किसान	-8.37604
ला	-8.3761
▁शराब	-8.37695
▁जल्द	-8.37888
▁सवार	-8.37961
▁डॉक्टर	-8.37972
▁मेरे	-8.38061
▁वापस	-8.38118
▁आदि	-8.38141
▁अवैध	-8.38219
या	-8.38723
▁गाड़ी	-8.38873
ि	-8.39129
▁स्तर	-8.39194
▁किसानों	-8.39225
ग	-8.39391
▁बढ़	-8.3965
▁मई	-8.4014
▁बाजार	-8.40241
▁सचिव	-8.40652
▁देवी	-8.4072
▁छात्र	-8.4125
▁13	-8.41608
▁18	-8.41919
▁प्रयास	-8.42047
▁सितंबर	-8.4216
▁14	-8.42417
▁कहते	-8.42485
वा	-8.42496
▁इंडिया	-8.42603
▁दूर	-8.42629
▁19	-8.42637
▁मारपीट	-8.42831
▁अंदर	-8.43016
▁50	-8.43127
▁16	-8.43369
▁जीवन	-8.43437
▁कोशिश	-8.43546
▁अक्टूबर	-8.43879
▁चुका	-8.43881
▁कलेक्टर	-8.43884
▁वालों	-8.44154
▁रह	-8.44254
▁शेयर	-8.44337
▁बरामद	-8.44364
▁उत्तर	-8.44428
▁इंदौर	-8.45198
▁जिन	-8.45248
▁हमारे	-8.45257
▁पुत्र	-8.45307
▁दिसंबर	-8.45439
▁हमला	-8.45488
▁17	-8.45617
▁पीछे	-8.462
ें	-8.46256
▁पीएम	-8.46474
▁हादसे	-8.46906
▁पंचायत	-8.46915
▁ना	-8.47229
▁देकर	-8.47388
▁लिखा	-8.47643
▁पूछताछ	-8.48051
▁जान	-8.48452
▁खेल	-8.48535
▁मेडिकल	-8.48636
▁आवेदन	-8.48764
▁आसपास	-8.48895
▁नवंबर	-8.49157
▁संबंध	-8.49667
▁दुकान	-8.49752
▁मार	-8.50398
▁केंद्रीय	-8.50527
▁बने	-8.50658
▁प्राप्त	-8.50726
▁कभी	-8.50953
▁मतदान	-8.51134
▁टी	-8.51262
▁तौर	-8.51309
▁चौधरी	-8.51734
▁पीड़ित	-8.51784
▁पेश	-8.51893
▁केवल	-8.51922
▁जाएंगे	-8.52024
▁एसपी	-8.52028
▁आपको	-8.52228
▁स्टेशन	-8.52398
▁देखने	-8.52588
▁बिना	-8.52644
▁मैंने	-8.52736
▁पढ़ें	-8.52986
▁जाना	-8.53099
▁भेज	-8.53393
▁मिनट	-8.53424
▁वन	-8.54544
▁नेताओं	-8.54628
▁माता	-8.54642
▁कार्यालय	-8.55076
▁दल	-8.55103
▁क्यों	-8.55486
▁भारी	-8.55658
श	-8.55788
▁पड़ा	-8.55859
▁माध्यम	-8.56158
▁भोपाल	-8.56198
▁ध्यान	-8.56262
▁ब	-8.5687
▁पाकिस्तान	-8.57134
▁मार्च	-8.57248
▁माह	-8.57424
▁पक्ष	-8.57438
्	-8.57655
▁होना	-8.58251
▁शिव	-8.58719
▁हमें	-8.58831
▁कैसे	-8.59247
ु	-8.59337
का	-8.59351
▁देखते	-8.59429
▁फरार	-8.599
▁नदी	-8.60482
▁प्रसाद	-8.60569
▁22	-8.60773
अलग	-8.60965
▁टिकट	-8.60975
▁राशि	-8.61099
▁कराने	-8.61368
▁उप	-8.61392
▁च	-8.61902
वीं	-8.61959
▁बोर्ड	-8.62192
▁सके	-8.62325
▁संबंधित	-8.62609
▁लाइन	-8.6289
▁ग्रामीणों	-8.63107
▁जिसे	-8.63122
▁पोस्ट	-8.63169
▁21	-8.63406
▁म	-8.63815
▁जनवरी	-8.64059
▁ग्रामीण	-8.64327
▁भर	-8.64427
▁कर्मचारी	-8.64444
▁लगाए	-8.64533
▁छात्रों	-8.64576
▁सीटों	-8.64684
▁विजय	-8.6486
▁यानी	-8.64991
▁ऑफ	-8.65143
▁धर्म	-8.65176
▁समारोह	-8.65351
▁अगले	-8.65499
▁तय	-8.6551
▁आयोग	-8.65665
▁मंडल	-8.66278
▁जिलों	-8.66284
▁स्थान	-8.66309
▁भेजा	-8.66433
▁संजय	-8.66513
ह	-8.67194
▁प्रक्रिया	-8.67319
▁देख	-8.67409
▁बनी	-8.67543
▁दावा	-8.67686
की	-8.67976
▁नेतृत्व	-8.68233
▁ऐसी	-8.68316
▁रखने	-8.6854
▁छत्तीसगढ़	-8.68711
▁उर्फ	-8.68721
▁तलाश	-8.6877
▁उम्मीदवार	-8.69187
▁पहुंचा	-8.69227
▁नीचे	-8.6967
▁गोली	-8.69932
▁ताकि	-8.69988
▁कर्मचारियों	-8.69993
▁गर्मी	-8.7003
/	-8.70099
ली	-8.70131
▁क	-8.7029
▁नरेंद्र	-8.70391
▁हिस्सा	-8.70713
▁तैयारी	-8.70881
▁लगाने	-8.71362
▁टक्कर	-8.71526
▁बल्कि	-8.71608
▁माना	-8.71633
▁अप्रैल	-8.71775
▁प्रत्याशी	-8.71935
▁मुंबई	-8.72028
▁संगठन	-8.72095
▁गुप्ता	-8.72151
▁पा	-8.72186
▁दरअसल	-8.72346
▁विकेट	-8.72515
राम	-8.7277
▁दुनिया	-8.72935
▁2023	-8.73344
▁फैसला	-8.73615
▁जाकर	-8.7364
▁जमा	-8.73811
▁समस्या	-8.73945
s	-8.74229
फ	-8.74243
▁जुड़े	-8.74255
▁ई	-8.7437
▁हासिल	-8.7451
▁सदर	-8.74993
▁हार	-8.74998
▁साफ	-8.75225
▁मैदान	-8.75445
▁भवन	-8.75514
▁संभावना	-8.75633
▁रहते	-8.75924
ंग	-8.76195
▁इस्तेमाल	-8.76207
ख	-8.76744
▁राजनीतिक	-8.77036
▁शाह	-8.77471
▁वार्ड	-8.77488
▁वक्त	-8.775
▁रहेगा	-8.77503
▁प्रकार	-8.77592
▁मार्ग	-8.77643
▁अमेरिका	-8.77688
▁राय	-8.77977
▁ऊपर	-8.78022
▁वर्ग	-8.78121
▁हालत	-8.78163
वी	-8.78247
▁बोले	-8.78326
▁40	-8.78412
▁द	-8.78518
़	-8.78569
▁संघ	-8.78571
▁चालक	-8.78679
मा	-8.78805
▁ए	-8.78812
ण	-8.78882
▁खास	-8.78954
ियां	-8.79123
▁मध्य	-8.79134
ड़	-8.79213
▁बातचीत	-8.79248
टी	-8.79478
▁पैसे	-8.79575
▁परिसर	-8.79692
▁बाबा	-8.79728
▁अमित	-8.80058
बी	-8.80113
▁चरण	-8.80243
▁पटना	-8.80336
▁नया	-8.80437
▁वायरल	-8.80446
▁बनने	-8.80457
▁मे	-8.80472
सा	-8.80521
▁परेशान	-8.80536
डी	-8.80598
▁ठीक	-8.8067
▁तीनों	-8.80838
▁महत्वपूर्ण	-8.80941
▁गिर	-8.81073
▁हमने	-8.81268
राज	-8.81358
▁चौक	-8.81358
▁26	-8.81903
▁देव	-8.82016
▁खत्म	-8.82021
▁झारखंड	-8.82027
▁भीड़	-8.8204
▁फिलहाल	-8.82112
▁दिवस	-8.82173
▁कराई	-8.82188
▁पकड़	-8.82191
▁गठबंधन	-8.82477
▁100	-8.82602
भर	-8.82681
▁टेस्ट	-8.82706
▁सेंटर	-8.8271
▁सु	-8.82787
▁रोक	-8.82891
▁युवा	-8.8318
▁कहीं	-8.83371
▁घोषणा	-8.83466
▁चोर	-8.83559
▁जन	-8.83847
▁लाभ	-8.83972
▁खबर	-8.83973
▁मकान	-8.84177
▁मन	-8.84599
▁ट्रक	-8.84883
▁आपके	-8.84949
▁पहला	-8.84959
▁23	-8.85188
▁राष्ट्रपति	-8.85249
▁घोषित	-8.85261
▁बाल	-8.85431
▁प	-8.8549
▁मिलकर	-8.85529
▁सी	-8.8583
▁पड़	-8.85834
एं	-8.85836
▁खराब	-8.85855
▁लड़की	-8.85877
▁यूपी	-8.85959
▁फोटो	-8.8616
▁उपस्थित	-8.86262
▁लखनऊ	-8.86385
▁सामान	-8.86463
▁मेरी	-8.86521
▁निजी	-8.86592
▁अंतिम	-8.86666
▁सिटी	-8.86888
▁इतन	-8.87243
▁कमेटी	-8.87521
▁यही	-8.87629
▁तभी	-8.87906
▁कार्ड	-8.87995
▁सम्मान	-8.88008
▁जरिए	-8.88195
▁पाया	-8.88333
नगर	-8.88377
▁मीटर	-8.88705
▁वर्षीय	-8.88774
▁धमकी	-8.88776
▁दर्शन	-8.89275
▁लगाई	-8.89338
▁चीन	-8.89439
▁रिकॉर्ड	-8.89509
▁उम्मीद	-8.89512
▁हमारी	-8.89569
▁शिक्षक	-8.89634
▁लोक	-8.8966
▁कल	-8.9011
▁सुनवाई	-8.90242
▁प्रवेश	-8.90248
▁अचानक	-8.90438
▁धारा	-8.90521
▁अग्रवाल	-8.90539
▁सिर	-8.90597
▁बांग्लादेश	-8.9061
▁सही	-8.90824
▁वरिष्ठ	-8.90834
▁परिषद	-8.90944
▁समर्थन	-8.90944
▁चाहते	-8.91048
▁राज्यों	-8.91086
▁जरूरत	-8.91149
▁कॉलोनी	-8.9133
्य	-8.91457
▁परिजन	-8.91467
▁होटल	-8.92064
ेश	-8.92238
▁बावजूद	-8.92331
गंज	-8.92393
▁देना	-8.92445
▁शो	-8.9249
▁आते	-8.92613
▁लागू	-8.92633
▁सदस्यों	-8.92646
▁उसी	-8.92703
▁सीमा	-8.93015
▁गेट	-8.93069
ओ	-8.93202
▁कानून	-8.93405
▁27	-8.93536
▁ओवर	-8.9376
▁बल	-8.93769
▁सामान्य	-8.93775
▁उनसे	-8.93868
▁28	-8.93881
▁निरीक्षण	-8.93953
▁पटेल	-8.93954
▁तैनात	-8.94232
▁हिंदू	-8.94329
▁क्रिकेट	-8.94559
▁सेना	-8.94622
लाल	-8.94712
▁बेहतर	-8.94872
पुरा	-8.94951
▁बदल	-8.94959
▁बदलाव	-8.94993
▁मोहन	-8.95016
पी	-8.95237
▁क्षेत्रों	-8.95283
▁कही	-8.95335
▁प्रकाश	-8.95347
▁वारदात	-8.95476
▁अदालत	-8.95495
▁पार	-8.95521
▁राजनीति	-8.95961
▁प्रभावित	-8.96156
▁रंग	-8.96178
▁बनाकर	-8.96207
▁प्रधान	-8.96225
▁वर्मा	-8.96542
▁छोड़	-8.96547
▁निकाल	-8.96649
▁दिखाई	-8.9699
▁ऑफिस	-8.97264
▁रहता	-8.97399
▁मान	-8.97484
▁अशोक	-8.97798
▁जरूरी	-8.9788
▁कॉल	-8.97909
▁नुकसान	-8.97916
▁रखी	-8.97982
▁उससे	-8.98155
▁असर	-8.98231
▁पदाधिकारी	-8.98449
▁नेशनल	-8.98455
▁उच्च	-8.98541
▁विश्व	-8.98803
▁बनाई	-8.98903
▁करेगी	-8.98978
▁सुप्रीम	-8.99055
▁अजय	-8.99099
▁उम्र	-8.99198
ड़ा	-8.99324
▁विद्यालय	-8.99328
▁उपलब्ध	-8.9936
▁लूट	-8.99477
▁राहत	-8.99746
▁कीमत	-8.99816
▁ग्रुप	-9.00063
▁रास्ते	-9.00172
▁हॉस्पिटल	-9.00281
▁तरीके	-9.00514
▁बहन	-9.00526
▁स्थल	-9.00557
▁मिश्रा	-9.00889
▁सजा	-9.00931
▁उपयोग	-9.01019
▁जब्त	-9.01028
▁भूमिका	-9.01169
▁31	-9.01303
▁ड्राइवर	-9.01639
▁सीसीटीवी	-9.01706
▁गलत	-9.01791
▁सात	-9.01842
▁कौन	-9.01851
▁कार्यकर्ताओं	-9.01972
▁मजबूत	-9.01983
▁महाराष्ट्र	-9.02212
▁तुरंत	-9.02705
गढ़	-9.02738
▁स्वागत	-9.02929
▁हाई	-9.03047
▁2019	-9.03049
▁लौट	-9.0305
▁29	-9.03073
▁विश्वविद्यालय	-9.03185
▁हमले	-9.03317
▁रिलीज	-9.03377
▁इतना	-9.034
▁कृष्ण	-9.03763
▁बजट	-9.03855
▁कह	-9.04162
▁वाहनों	-9.04332
▁लगाकर	-9.0451
▁प्रदान	-9.04519
▁विदेश	-9.04536
▁युवती	-9.04634
▁नौकरी	-9.04648
▁अयोध्या	-9.04857
वें	-9.05431
▁फरवरी	-9.05648
▁लगता	-9.05739
▁आनंद	-9.05777
▁बीते	-9.05887
य	-9.05887
▁बंगाल	-9.05892
▁संयुक्त	-9.05994
▁एंड	-9.06048
▁सीटें	-9.06059
▁लेते	-9.06107
▁अभिषेक	-9.06114
▁तेजी	-9.06273
;	-9.0634
▁मिलेगा	-9.06383
▁निर्णय	-9.06571
▁कृषि	-9.06687
▁रायपुर	-9.06809
▁सहयोग	-9.06888
▁राजेश	-9.06949
▁सिविल	-9.07036
▁नोटिस	-9.07158
▁फीसदी	-9.07169
▁किस	-9.07233
▁सफाई	-9.0732
गा	-9.07581
▁बताते	-9.07603
▁नि	-9.07716
▁रहेगी	-9.07818
▁छोटे	-9.07985
▁ग	-9.08049
▁कमी	-9.08185
▁ऑनलाइन	-9.08208
▁नाबालिग	-9.08208
▁बढ़ा	-9.0823
▁कदम	-9.08231
▁यदि	-9.08326
▁जमकर	-9.08581
▁वि	-9.08652
▁दीपक	-9.08741
▁भास्कर	-9.08799
▁मुलाकात	-9.09036
दा	-9.09052
20	-9.0927
▁खर्च	-9.09306
▁आर्थिक	-9.09401
▁करेगा	-9.09407
च	-9.09439
▁छह	-9.10126
जा	-9.105
▁रोहित	-9.10579
▁सागर	-9.10637
र्स	-9.10695
2	-9.1076
ले	-9.10903
▁अपील	-9.10956
▁सामना	-9.10961
▁रहती	-9.11008
6	-9.11061
▁अंतर्गत	-9.11199
▁बी	-9.11376
▁बेटा	-9.11466
▁योग	-9.11468
▁मेरा	-9.11633
▁गुरु	-9.11637
▁सभा	-9.1165
▁मनोज	-9.1169
▁दूसरा	-9.11719
▁सहायक	-9.11935
▁अतिरिक्त	-9.12053
▁गिरफ्तारी	-9.12295
▁सह	-9.123
▁सुविधा	-9.12362
▁हाईकोर्ट	-9.12667
▁मोहम्मद	-9.1267
▁करवाया	-9.12755
पर	-9.12837
▁खड़े	-9.12961
▁कार्यकर्ता	-9.13122
▁अज्ञात	-9.13161
▁इलाकों	-9.13284
▁सुधार	-9.13301
▁विचार	-9.13386
▁जिसकी	-9.13395
▁प्रतियोगिता	-9.13473
▁साहू	-9.13664
▁प्रस्ताव	-9.13729
▁जय	-9.1376
▁पीड़िता	-9.1379
▁प्र	-9.13903
▁अंजाम	-9.13907
▁सीरीज	-9.13912
▁खेत	-9.13943
▁देंगे	-9.13944
▁मंत्रालय	-9.14032
▁बदमाशों	-9.1404
▁तस्वीर	-9.14135
▁मिलते	-9.14184
e	-9.14248
▁अनिल	-9.14294
▁याचिका	-9.14358
▁सुनील	-9.14433
▁बैठे	-9.14453
तर	-9.14516
ान	-9.14518
▁सिस्टम	-9.14662
▁उदयपुर	-9.14679
▁सत्र	-9.14791
दार	-9.14885
▁मामलों	-9.14909
▁कोतवाली	-9.15062
▁बच्ची	-9.15162
▁किलोमीटर	-9.15162
▁जैसी	-9.15179
▁एक्सप्रेस	-9.15278
▁अच्छी	-9.15288
▁कपूर	-9.15292
▁मह	-9.15348
▁मंच	-9.15436
▁ठाकुर	-9.15655
▁प्रचार	-9.15728
▁दोस्त	-9.15866
▁प्रेम	-9.15935
▁एक्ट्रेस	-9.16178
▁आवास	-9.16327
अ	-9.16591
▁देशों	-9.16598
▁संचालन	-9.17073
a	-9.17373
▁युवाओं	-9.174
▁कड़ी	-9.17499
▁कल्याण	-9.17521
▁पश्चिम	-9.17682
▁भविष्य	-9.1772
▁अच्छा	-9.17724
▁हवा	-9.17754
▁महाराज	-9.17775
▁सोने	-9.17789
▁परेशानी	-9.17818
शन	-9.17834
▁बांध	-9.18081
▁अपराध	-9.1828
▁नीतीश	-9.18764
▁देखकर	-9.18807
▁पुल	-9.19066
▁दिख	-9.19137
▁जाम	-9.19268
▁मौका	-9.19304
▁अलर्ट	-9.19422
▁2022	-9.19555
▁केजरीवाल	-9.19556
▁पकड़ा	-9.19739
▁न्याय	-9.19796
▁अंक	-9.19826
▁हथियार	-9.20071
▁गृह	-9.201
▁आयुक्त	-9.20223
▁जन्म	-9.20528
▁पेड़	-9.20664
▁डर	-9.20708
▁अतिथि	-9.20743
▁गंगा	-9.20751
एस	-9.20813
),	-9.20849
▁नामांकन	-9.20881
▁मीणा	-9.20882
▁शिविर	-9.21021
▁ज	-9.21091
▁पी	-9.21093
थ	-9.21118
▁सत्ता	-9.21152
▁शासन	-9.21168
▁दिशा	-9.21191
▁तिवारी	-9.21284
▁वर्तमान	-9.21301
▁न्यायालय	-9.2142
▁चले	-9.21433
▁अधिकतम	-9.21571
▁आंदोलन	-9.21655
▁इधर	-9.21824
▁साइबर	-9.21827
▁डॉक्टरों	-9.21835
▁सेक्टर	-9.21994
▁पढ़ाई	-9.22237
▁निकाला	-9.22358
▁यात्रियों	-9.22367
▁बदमाश	-9.22493
▁फर्जी	-9.22506
▁शांति	-9.22556
ाई	-9.22583
▁मनाया	-9.22661
▁चली	-9.2268
▁कब्जे	-9.22772
▁रैली	-9.2278
▁मरीज	-9.22889
▁महा	-9.22966
वे	-9.22979
▁मालिक	-9.23063
▁मुकेश	-9.23184
पाल	-9.23304
▁र	-9.2331
▁उसमें	-9.23327
आ	-9.23409
▁हमेशा	-9.23456
▁आकर	-9.23663
▁महिलाएं	-9.23704
▁सुरक्षित	-9.23873
▁ला	-9.23976
▁रेल	-9.24039
▁स्कूलों	-9.24319
▁देता	-9.24496
▁गईं	-9.24549
सिंह	-9.24571
▁प्रोजेक्ट	-9.24631
साथ	-9.24747
▁पूछा	-9.24775
▁घरों	-9.24782
▁करा	-9.24802
▁योगी	-9.24823
▁चलने	-9.25086
▁बढ़ाने	-9.25135
▁जिम्मेदारी	-9.25278
▁सम्मानित	-9.25333
▁बिल	-9.25354
▁दिल	-9.25387
▁संविधान	-9.25397
▁व्रत	-9.25551
▁यूनिवर्सिटी	-9.25677
▁तीसरे	-9.25677
▁मरीजों	-9.25682
o	-9.2588
▁पोस्टमार्टम	-9.25958
▁संबोधित	-9.25966
▁सर	-9.26043
▁नियम	-9.26081
▁कमरे	-9.26095
▁सप्ताह	-9.2624
▁किनारे	-9.26241
▁खुलासा	-9.26245
▁मो	-9.26299
▁एयरपोर्ट	-9.26381
▁चुनावी	-9.26428
ंस	-9.26484
▁दक्षिण	-9.2662
▁युवकों	-9.26938
▁स्पेशल	-9.2695
▁पैर	-9.2721
▁सामाजिक	-9.27258
▁उनको	-9.27317
▁सालों	-9.27399
▁हादसा	-9.27401
3	-9.27498
▁ह	-9.2766
▁संपर्क	-9.27805
▁नागरिक	-9.27828
%	-9.27831
▁पार्क	-9.27933
▁एस	-9.27957
▁शिक्षकों	-9.27982
▁रहेंगे	-9.28008
▁उद्देश्य	-9.28236
▁स्टूडेंट्स	-9.28267
▁सो	-9.28396
▁लाया	-9.28551
▁खाली	-9.28553
▁प्रबंधन	-9.28567
▁पेपर	-9.28674
▁रक्षा	-9.28694
▁मुस्लिम	-9.28703
▁पहुंचकर	-9.28862
▁भूमि	-9.28971
▁छात्रा	-9.29061
▁याद	-9.29195
▁बेहद	-9.29249
▁उपचार	-9.29257
D	-9.2938
▁कुमारी	-9.29455
▁कप	-9.29461
▁निकल	-9.29605
▁लक्ष्य	-9.29687
▁अधीक्षक	-9.29694
िका	-9.2973
नाथ	-9.29751
▁मगर	-9.29792
गी	-9.29849
▁हाउस	-9.29949
▁प्रो	-9.30087
▁गुजरात	-9.30092
आर	-9.30125
▁शुभ	-9.30247
▁S	-9.30444
▁सपा	-9.30503
▁घाट	-9.30545
▁जिसका	-9.30606
▁लंबे	-9.30714
▁कौर	-9.30887
▁पाए	-9.30924
▁कार्यों	-9.31052
▁दर	-9.31104
मी	-9.31161
▁मंडी	-9.31243
▁न्यूनतम	-9.31306
▁बाकी	-9.31347
▁प्रखंड	-9.31457
बा	-9.31547
▁रख	-9.31547
▁चोट	-9.31615
▁सड़कों	-9.31627
▁अहम	-9.31656
वाल	-9.31684
▁निवेश	-9.31832
▁करवा	-9.31853
▁आता	-9.31858
▁तिथि	-9.31912
▁किलो	-9.32022
▁पर्व	-9.32155
▁ल	-9.32174
▁बज	-9.32187
▁धार्मिक	-9.32207
▁रेप	-9.3225
▁गणेश	-9.3235
▁मुश्किल	-9.32637
▁आदमी	-9.32652
▁पैसा	-9.32736
▁राजा	-9.32855
▁सफलता	-9.32872
ेशन	-9.3292
▁लिस्ट	-9.33064
▁विपक्ष	-9.33102
रे	-9.33116
▁समाधान	-9.33255
▁मुख्यालय	-9.33264
▁संस्था	-9.33369
▁सर्व	-9.33401
▁चौहान	-9.33407
▁शरीर	-9.33407
▁35	-9.33412
कार	-9.33436
▁पड़ी	-9.33558
ठ	-9.33606
▁पाई	-9.33632
▁जोर	-9.33785
▁बताई	-9.33836
▁राकेश	-9.33863
▁रखे	-9.33878
▁सीजन	-9.33895
▁मिलेगी	-9.33911
▁एक्टर	-9.33966
▁आसान	-9.34127
▁निर्वाचन	-9.34171
▁युद्ध	-9.34174
▁पारी	-9.34199
▁मना	-9.34225
▁आखिरी	-9.34361
▁विषय	-9.34367
▁संस्थान	-9.34493
▁मारने	-9.34627
▁एजेंसी	-9.34781
▁कब	-9.34832
▁कहानी	-9.34914
▁पूजन	-9.34979
▁इमेज	-9.35089
▁संदीप	-9.35092
▁सफल	-9.35175
▁रवाना	-9.35245
▁लाने	-9.3539
▁फाइनल	-9.3541
▁आवाज	-9.35514
▁पहुंचने	-9.35545
▁सुनिश्चित	-9.35552
▁वित्त	-9.35655
▁प्राइवेट	-9.35863
I	-9.35928
▁स्टाफ	-9.36046
▁पेट्रोल	-9.3629
▁इंतजार	-9.3633
▁वही	-9.36459
▁वर्ल्ड	-9.36494
5	-9.36596
▁भाव	-9.36642
▁मानसून	-9.36653
▁अली	-9.36662
को	-9.36673
1	-9.36756
▁कैप्शन	-9.36957
▁ब्लॉक	-9.36963
▁फीट	-9.36968
▁पार्षद	-9.37013
िन	-9.37095
▁60	-9.37127
▁तोड़	-9.37186
▁शक्ति	-9.37216
▁खिलाड़ी	-9.37273
▁त	-9.37513
से	-9.37533
▁लॉन्च	-9.37587
▁एक्स	-9.3761
वार	-9.37692
▁धन	-9.37694
▁छोड़कर	-9.37744
▁स्थापित	-9.37764
▁सा	-9.37783
▁अरविंद	-9.37913
▁रवि	-9.37935
▁राजधानी	-9.38062
िस	-9.38298
▁शपथ	-9.38381
ज़	-9.38509
भ	-9.38583
सर	-9.38661
▁हनुमान	-9.3867
▁विद्यार्थियों	-9.3886
▁सूत्र	-9.38868
▁मिलता	-9.38869
▁प्रथम	-9.39046
▁200	-9.3905
▁उठा	-9.39072
▁दौर	-9.39073
▁रोकने	-9.39091
▁फायदा	-9.3918
▁समझ	-9.39207
ेंद्र	-9.39228
▁दबाव	-9.39352
▁ऑटो	-9.395
▁माहौल	-9.39506
ध	-9.39568
देव	-9.39581
▁ट्रैफिक	-9.39664
▁पसंद	-9.39673
▁ऑपरेशन	-9.39674
▁आवश्यक	-9.39751
▁निदेशक	-9.39825
▁बुलाया	-9.39998
▁डिप्टी	-9.40149
▁रफ्तार	-9.40149
▁अमेरिकी	-9.40185
वि	-9.40485
▁सहायता	-9.40643
▁चंद्र	-9.40788
▁किमी	-9.40839
▁जुड़ी	-9.4091
▁चेक	-9.40921
▁प्रशिक्षण	-9.40963
▁हिरासत	-9.40963
▁उक्त	-9.40966
हा	-9.40982
्र	-9.41025
▁प्रभाव	-9.4119
▁रूम	-9.41267
▁अनुमति	-9.41291
▁स्थानों	-9.41348
ड़ी	-9.41465
▁रि	-9.41588
वर	-9.41658
▁कंपनियों	-9.41784
▁प्राथमिक	-9.41876
▁नारायण	-9.41929
▁ओ	-9.41942
▁परिणाम	-9.41949
▁ड्यूटी	-9.4195
▁बचाने	-9.42033
▁नीति	-9.42135
▁पाल	-9.422
i	-9.42222
▁तत्काल	-9.42275
▁सैनी	-9.42317
ॉ	-9.42555
▁जानते	-9.42556
वां	-9.42714
▁प्रताप	-9.42769
▁रोजगार	-9.4278
▁जमानत	-9.42786
▁दास	-9.42897
ंड	-9.42937
▁क्षमता	-9.42945
एक	-9.43001
▁स्पष्ट	-9.43037
▁टूट	-9.43078
▁सीनियर	-9.43113
▁BJP	-9.43134
▁संचालक	-9.43199
▁पूर्ण	-9.43247
▁बाढ़	-9.43281
▁मनीष	-9.43579
▁सेल्सियस	-9.43615
▁जोन	-9.43754
▁मध्यप्रदेश	-9.43784
▁A	-9.4387
▁पड़े	-9.43926
▁एसोसिएशन	-9.4412
▁कहां	-9.44142
▁2024:	-9.44235
▁पोस्टमॉर्टम	-9.44289
▁रेफर	-9.4429
▁मुकदमा	-9.44303
▁मुकाबले	-9.44308
▁डीएम	-9.44365
पेट	-9.44495
▁चिकित्सा	-9.44593
▁फायर	-9.44768
▁महत्व	-9.44796
▁तारीख	-9.44798
▁आठ	-9.44865
▁डायरेक्टर	-9.4497
▁ग्वालियर	-9.44977
▁फैसले	-9.44996
▁कोच	-9.45114
▁विस्तार	-9.45138
▁इतिहास	-9.45299
▁बॉलीवुड	-9.45479
▁बूथ	-9.45481
▁जताई	-9.4549
▁ज्ञापन	-9.45491
▁संपत्ति	-9.45628
▁कमिश्नर	-9.45645
▁फायरिंग	-9.46039
▁रखते	-9.46043
▁ख	-9.46046
▁चुनावों	-9.46094
▁आरक्षण	-9.46171
▁मूल	-9.46248
▁धान	-9.46279
▁निर्धारित	-9.4635
▁अधिकार	-9.46442
▁करनी	-9.46525
▁डे	-9.46529
▁जंगल	-9.46685
▁करवाई	-9.46732
▁समुदाय	-9.46788
▁संचालित	-9.46857
▁आरती	-9.47058
▁सौंप	-9.47093
ाय	-9.47183
▁जम्मू	-9.47212
▁चौकी	-9.47308
▁एक्ट	-9.47402
▁कला	-9.47443
▁सप्लाई	-9.47554
▁पालन	-9.47573
▁आउट	-9.47577
▁गौरव	-9.47597
▁45	-9.47604
▁गिरावट	-9.47729
R	-9.47745
G	-9.47766
ेश्वर	-9.4784
▁खरीद	-9.47959
▁चिंता	-9.48069
▁B	-9.48182
▁डा	-9.48243
▁सरपंच	-9.48255
▁प्यार	-9.48272
▁राजीव	-9.48307
▁एल	-9.48339
ेड	-9.48534
4	-9.48559
▁किशोर	-9.4873
▁लापरवाही	-9.488
▁सूची	-9.48804
▁प्रत्येक	-9.48961
▁संतोष	-9.49137
▁सुख	-9.49253
▁खिलाड़ियों	-9.49316
▁भरा	-9.49419
▁प्रदीप	-9.49679
▁आर	-9.49759
▁आगामी	-9.49851
▁शिकार	-9.49875
▁खड़ा	-9.49884
▁करियर	-9.49897
▁सर्वे	-9.49928
प्र	-9.49971
9	-9.49986
▁पुराने	-9.50045
▁टॉप	-9.50062
▁ठगी	-9.50111
▁ट्रैक्टर	-9.5021
▁दैनिक	-9.50214
▁उम्मीदवारों	-9.50243
ां	-9.50326
▁मार्केट	-9.50345
▁संसद	-9.50364
▁साबित	-9.50393
▁जिन्होंने	-9.50396
▁डॉलर	-9.50403
▁खाते	-9.50419
▁गो	-9.50434
▁कक्षा	-9.50454
▁उठाया	-9.50776
▁पड़ता	-9.50805
▁भ	-9.50834
▁रमेश	-9.5093
▁बुजुर्ग	-9.51059
▁बे	-9.51095
▁निकले	-9.51105
▁उपाध्यक्ष	-9.51112
▁अनुमान	-9.51112
▁करवाने	-9.51198
ेंगे	-9.51241
▁कोलकाता	-9.51299
▁विश्वास	-9.5148
▁तीसरी	-9.51656
▁हमारा	-9.51684
रिया	-9.51813
▁संत	-9.51834
▁वितरण	-9.51836
एम	-9.5194
▁दाखिल	-9.51996
▁विशाल	-9.52025
▁जाति	-9.52095
▁सलमान	-9.52202
▁नोट	-9.52295
▁क्लब	-9.52385
▁फ	-9.52494
एल	-9.5255
▁चुनौती	-9.52568
▁प्लान	-9.52709
डा	-9.52728
▁मशीन	-9.52868
▁उतार	-9.52947
A	-9.52961
इ	-9.53089
▁आती	-9.53265
▁मुद्दे	-9.53305
▁मृत	-9.53364
▁इसको	-9.53443
▁चाहता	-9.53529
बार	-9.53562
▁नशे	-9.53585
▁साथी	-9.53653
▁इंटरव्यू	-9.53676
▁हालात	-9.53684
▁चयन	-9.53826
▁हाईवे	-9.53878
▁खुल	-9.5397
▁70	-9.54028
▁डी	-9.54048
▁छापेमारी	-9.54048
▁बढ़ने	-9.54089
▁दुर्गा	-9.54228
▁रोज	-9.54229
▁संघर्ष	-9.54236
▁इ	-9.54241
▁विमान	-9.54241
▁आपकी	-9.54317
▁तालाब	-9.54408
स्थल	-9.54486
C	-9.5452
▁एन	-9.54549
▁रद्द	-9.54614
▁समीक्षा	-9.54797
▁एफआईआर	-9.54984
▁कर्मियों	-9.55075
▁पैदा	-9.55169
▁भुगतान	-9.55178
▁2021	-9.55184
▁चंडीगढ़	-9.5537
▁निशाना	-9.55517
▁वोटिंग	-9.55539
▁योजनाओं	-9.55567
मन	-9.55638
▁दूरी	-9.55829
▁गेंद	-9.5587
▁शंकर	-9.55983
▁अंत	-9.56061
▁भीतर	-9.56063
▁कट	-9.56095
▁संदिग्ध	-9.5612
▁सम्मेलन	-9.5612
▁हिंसा	-9.5612
▁फुटेज	-9.56122
▁कथा	-9.56133
▁जवान	-9.56137
▁फिल्मों	-9.5617
7	-9.56183
ै	-9.56308
▁साउथ	-9.56316
▁2025	-9.5633
▁80	-9.56455
▁घायलों	-9.56462
▁सकेंगे	-9.56514
▁पुरानी	-9.56698
▁रेड	-9.56858
▁समाप्त	-9.56861
▁इंटरनेशनल	-9.56884
▁राजस्व	-9.5689
▁दर्जन	-9.56901
▁फैंस	-9.57078
▁विवाह	-9.57216
▁जोधपुर	-9.57282
!	-9.57461
▁स्थापना	-9.57468
▁खड़ी	-9.57493
▁रूस	-9.57565
जीत	-9.57695
▁भीषण	-9.57716
▁अंतर	-9.5772
▁अच्छे	-9.57847
▁कप्तान	-9.57944
▁एसडीएम	-9.58044
▁चलाया	-9.5817
▁खाने	-9.58177
▁घुस	-9.58187
P	-9.58265
▁मत	-9.58267
▁तेल	-9.58317
▁संदेश	-9.58431
गांव	-9.58447
▁उतर	-9.58548
▁नौ	-9.58557
▁वृद्धि	-9.5863
▁पावर	-9.58634
▁ईरान	-9.58686
▁आस	-9.58734
पिता	-9.58755
▁ठंड	-9.58761
▁P	-9.58872
▁राव	-9.58968
▁अंतरराष्ट्रीय	-9.59019
▁यात्री	-9.59027
▁वकील	-9.59189
▁कार्यकाल	-9.59231
▁बादल	-9.59279
▁फसल	-9.59367
▁डाल	-9.59382
▁लेना	-9.5943
▁विज्ञान	-9.59608
▁हटाने	-9.59691
टा	-9.59783
▁कानपुर	-9.59796
▁गठन	-9.59802
▁वाराणसी	-9.59817
-20	-9.5986
▁पवन	-9.6021
▁तहसील	-9.60392
▁गैंग	-9.60402
▁डेढ़	-9.60409
▁एम	-9.60412
▁जरूर	-9.60423
▁प्रेस	-9.60579
▁उद्घाटन	-9.60595
▁प्रस्तुत	-9.60659
▁स्टेडियम	-9.60795
▁कैमरे	-9.60795
▁अध्यक्षता	-9.60805
▁टैक्स	-9.60859
▁सक्रिय	-9.60922
▁सोच	-9.60951
्‍	-9.60958
u	-9.60986
▁विकसित	-9.61008
▁दिखा	-9.61025
▁डाला	-9.61039
▁लड़	-9.61051
▁अतिक्रमण	-9.61194
▁राजेंद्र	-9.61224
बल	-9.61248
▁नहर	-9.61279
▁खुशी	-9.61288
▁दोबारा	-9.61395
▁सोरेन	-9.61396
▁लड़ाई	-9.61427
▁होनी	-9.61431
▁बढ़ावा	-9.61432
▁रहीं	-9.61468
ेज	-9.61572
▁मीटिंग	-9.61606
▁श्रद्धालुओं	-9.61628
▁चाहती	-9.61633
▁अकाउंट	-9.61792
▁शानदार	-9.61798
▁एरिया	-9.61813
ौ	-9.61825
जे	-9.61864
y	-9.6193
▁सख्त	-9.62069
▁खाना	-9.62166
▁आशंका	-9.622
▁l	-9.62239
▁नियुक्ति	-9.62255
▁क्लास	-9.62265
▁सूर्य	-9.62295
▁पुरस्कार	-9.62403
▁News	-9.62404
▁महोत्सव	-9.62406
▁दस	-9.62432
▁मांगी	-9.62651
▁32	-9.62683
S	-9.62693
▁पंडित	-9.62819
▁CM	-9.62836
▁श्याम	-9.62837
▁हेड	-9.63002
▁जिन्हें	-9.63012
▁रांची	-9.63024
▁सुरेश	-9.63046
्ड	-9.63116
▁समूह	-9.6322
▁इंस्पेक्टर	-9.63221
▁स्टार	-9.63249
यू	-9.63381
▁दिनेश	-9.63487
▁प्रतिमा	-9.63539
▁पदों	-9.63917
▁सोनी	-9.64008
▁तस्कर	-9.64099
▁नियुक्त	-9.64203
▁2014	-9.64257
▁मिशन	-9.64263
आई	-9.64415
▁विष्णु	-9.64453
▁अरुण	-9.6446
▁कारोबार	-9.64477
▁एक्शन	-9.64508
▁सं	-9.64584
8	-9.64586
▁शहरों	-9.646
यों	-9.64623
▁स्टैंड	-9.64662
▁राजकुमार	-9.64664
▁सका	-9.64669
▁स्वामी	-9.64693
▁मॉडल	-9.64765
▁समस्याओं	-9.64775
▁बर	-9.648
▁बम	-9.64824
▁कैबिनेट	-9.64864
▁D	-9.64927
▁बैग	-9.64934
▁लड़के	-9.64976
▁कैंप	-9.65017
▁नियमों	-9.6506
▁अनुभव	-9.65071
▁संस्कार	-9.65072
▁दायर	-9.65077
▁सार्वजनिक	-9.65078
▁जानिए	-9.6509
▁500	-9.65192
▁गांवों	-9.65199
▁मिलती	-9.65234
▁जगहों	-9.65261
▁स्वीकार	-9.65267
▁प्रवक्ता	-9.6528
▁प्राण	-9.65324
▁अपराधियों	-9.65363
▁दम	-9.65389
▁नाराज	-9.65421
▁मौजूदा	-9.6545
▁खूब	-9.65474
▁प्रोफेसर	-9.65489
ंत	-9.65578
▁प्रमाण	-9.65696
▁सिन्हा	-9.65699
▁खोल	-9.6577
क्ष	-9.65794
▁अखिलेश	-9.65816
▁अफसरों	-9.65877
▁पशु	-9.65906
▁धरना	-9.66138
▁चलाने	-9.66148
▁पहुंचाया	-9.66194
▁बोल	-9.66207
▁कोटा	-9.66264
▁नवीन	-9.66339
▁अरब	-9.66387
▁आपका	-9.66429
▁आबादी	-9.6654
▁रोल	-9.66827
▁छत	-9.66834
रो	-9.66854
▁भव्य	-9.66985
▁राष्ट्र	-9.67148
▁चेतावनी	-9.67175
▁पंकज	-9.67175
▁विनोद	-9.67181
▁बातें	-9.67297
h	-9.67388
▁हल्की	-9.67388
▁कर्नाटक	-9.67601
▁सुपर	-9.67845
▁पर्यावरण	-9.68033
▁लुधियाना	-9.68035
▁कमल	-9.68084
▁रो	-9.68178
पा	-9.68243
▁विदेशी	-9.68447
▁दलों	-9.68456
▁निगरानी	-9.68459
▁एंट्री	-9.68459
▁सांस्कृतिक	-9.68463
▁छोटी	-9.68484
▁झा	-9.68545
▁ऊर्जा	-9.68674
▁ट्रांसफर	-9.68674
▁उपचुनाव	-9.68676
▁व्यक्त	-9.6868
▁दिवसीय	-9.68755
▁यूनिट	-9.6883
-2	-9.68847
-1	-9.68884
▁ट्रंप	-9.68891
▁चारों	-9.68923
▁निकाली	-9.68984
▁चांदी	-9.69096
▁दान	-9.69134
▁पश्चिमी	-9.69255
▁योगदान	-9.69328
▁आदिवासी	-9.69331
▁गोपाल	-9.69331
▁गैस	-9.69401
▁भाषा	-9.69416
▁लाखों	-9.69422
▁छूट	-9.69452
▁गतिविधियों	-9.69543
▁श	-9.69673
▁गिरा	-9.69677
▁विधि	-9.69745
▁रास्ता	-9.69759
▁गौतम	-9.69819
▁मच	-9.69875
▁ज्ञान	-9.6996
▁कपड़े	-9.69982
B	-9.70087
▁अपर	-9.70118
▁बच	-9.70309
▁पोल	-9.70378
्या	-9.7039
▁बधाई	-9.70415
▁ससुराल	-9.70447
▁स्टेट	-9.7047
▁गर्म	-9.7056
0	-9.70587
ार	-9.70606
▁गायब	-9.7066
हर	-9.70754
▁सुभाष	-9.70857
▁T	-9.70867
▁नव	-9.7097
▁कश्मीर	-9.71126
▁90	-9.71139
▁C	-9.71373
t	-9.71389
▁इन्हें	-9.71519
▁बिक्री	-9.71528
▁सारे	-9.71593
▁इंडस्ट्री	-9.71618
▁भक्तों	-9.71683
▁उत्सव	-9.71788
▁धाम	-9.71854
▁मेहनत	-9.71964
T	-9.72054
▁बोला	-9.72085
▁हंगामा	-9.72187
▁कंट्रोल	-9.72191
▁मस्जिद	-9.72195
▁अफसर	-9.72221
E	-9.72291
▁बचाव	-9.72464
ाना	-9.72576
▁ऑस्ट्रेलिया	-9.72612
▁निकला	-9.72623
▁देती	-9.72626
▁पांडे	-9.72627
▁क्राइम	-9.72635
▁फैक्ट्री	-9.72635
▁संकल्प	-9.7264
िल	-9.72687
▁दुर्घटना	-9.72845
M	-9.72963
▁स्तरीय	-9.73025
▁एनडीए	-9.731
▁खो	-9.73155
▁सुसाइड	-9.73312
▁शहीद	-9.73347
▁जीतने	-9.7342
जन	-9.73526
▁हिस्से	-9.73535
▁लगाते	-9.73675
▁सुंदर	-9.7378
▁लक्ष्मी	-9.7385
▁संस्कृति	-9.73967
▁परिवहन	-9.73991
▁साढ़े	-9.73991
▁संजीव	-9.73996
▁पाली	-9.7409
▁आय	-9.74109
▁खून	-9.74222
▁जिनक	-9.74358
▁वर्षा	-9.74422
▁श्रीवास्तव	-9.74447
▁N	-9.74482
▁खुश	-9.74487
▁सुनाई	-9.74718
▁आवश्यकता	-9.74733
▁व्यापारी	-9.7477
▁रानी	-9.74793
▁बह	-9.74825
▁चाकू	-9.74907
▁आएंगे	-9.74943
छ	-9.75119
▁वित्तीय	-9.75181
▁आना	-9.75316
▁रेट	-9.75465
उ	-9.75517
▁उज्जैन	-9.75611
▁वेतन	-9.75621
▁कहती	-9.75652
▁हरि	-9.75687
▁33	-9.75717
▁ट्रैक	-9.7576
▁साहिब	-9.75814
▁जुट	-9.75851
▁2020	-9.75898
▁PM	-9.75927
▁कब्जा	-9.7606
▁ठग	-9.76145
▁मा	-9.7615
▁गैर	-9.76188
्ल	-9.76265
▁काबू	-9.76291
▁इंडियन	-9.76312
▁दस्तावेज	-9.76327
▁अमर	-9.76331
ंद	-9.76365
p	-9.76463
▁अधिनियम	-9.76526
▁किरदार	-9.76571
ुल	-9.76604
▁कमाई	-9.76622
▁कमजोर	-9.76662
▁माल	-9.76665
▁लाइट	-9.76694
▁प्रिंसिपल	-9.76759
▁वेबसाइट	-9.76759
▁सीधे	-9.76759
▁एयर	-9.76776
▁रे	-9.76866
▁मर	-9.7688
▁चेयरमैन	-9.76994
▁लागत	-9.77001
▁ईडी	-9.77192
▁अक्स	-9.77207
▁प्रियंका	-9.77229
▁अंडर	-9.77236
▁पकड़े	-9.77426
▁भ्रष्टाचार	-9.77464
्ट	-9.77475
▁48	-9.77499
▁श्रीराम	-9.77499
▁संभव	-9.77524
▁नजदीक	-9.77684
सूस	-9.77705
▁खाद्य	-9.7771
▁दिखाया	-9.77733
▁मुकाबला	-9.77957
▁काल	-9.77991
▁कानूनी	-9.78006
▁गुजर	-9.78139
▁जे	-9.7822
▁व्यापार	-9.78266
N	-9.78271
▁दीप	-9.78336
▁वापसी	-9.78347
▁मु	-9.7835
मेंट	-9.78431
▁हिंदी	-9.78499
▁बल्लेबाज	-9.78534
▁वीर	-9.78537
▁अगल	-9.78613
▁दूध	-9.78648
▁पांडेय	-9.78661
▁खेला	-9.78695
▁पासवान	-9.78709
▁भक्त	-9.78716
▁बि	-9.78728
स्ट	-9.78771
▁कोहली	-9.78883
▁हिसाब	-9.78887
▁संरक्षण	-9.78888
▁जुटी	-9.79016
शा	-9.79028
▁पाठ	-9.79107
▁आश्वासन	-9.79126
▁अपडेट	-9.79127
▁अर्जुन	-9.79137
▁राज्यपाल	-9.79214
▁उचित	-9.7937
▁शूटिंग	-9.79383
▁आचार्य	-9.79399
▁ट	-9.79403
बर	-9.79435
ति	-9.7944
▁अहमद	-9.7955
▁मतदाता	-9.79559
ेलू	-9.796
▁श्रेणी	-9.79607
▁अल	-9.79619
▁रुक	-9.79697
▁औसत	-9.79848
▁मुद्दों	-9.80089
▁जैसा	-9.80118
▁हजारों	-9.80128
▁हाथों	-9.80174
▁डीएसपी	-9.80188
गर	-9.80209
▁कु	-9.80266
▁स्व	-9.80297
▁कैलाश	-9.80331
▁सर्विस	-9.80332
▁निरीक्षक	-9.80341
▁भोजन	-9.80392
▁पुरुष	-9.80433
▁दोषी	-9.80434
▁विभागों	-9.80451
▁फूल	-9.80478
▁परियोजना	-9.80512
▁प्लांट	-9.80574
▁संयोजक	-9.8058
▁तुलना	-9.80582
▁डि	-9.80601
▁हवाई	-9.80655
▁सि	-9.80744
▁अवधि	-9.8091
ये	-9.80975
▁सोना	-9.81043
िए	-9.81203
▁यातायात	-9.81306
▁चीफ	-9.81561
▁बुरी	-9.81574
▁उद्योग	-9.81621
▁जीता	-9.81745
▁मतगणना	-9.81796
▁महासचिव	-9.81797
▁प्रयोग	-9.81798
▁सीबीआई	-9.81807
▁बा	-9.81825
▁रिश्तेदार	-9.81827
ेट	-9.82009
▁लंबी	-9.82043
▁ममता	-9.82043
▁संभाग	-9.82044
▁बनकर	-9.8206
▁दुबे	-9.82075
▁गिरने	-9.82158
▁निकली	-9.82176
."	-9.82197
▁मुद्दा	-9.8229
▁इनकार	-9.82292
▁मुक्त	-9.82325
▁अजमेर	-9.82326
▁विवेक	-9.82533
▁भारती	-9.82616
',	-9.82664
▁नशा	-9.82741
▁ट्रेनिंग	-9.82753
▁निकलने	-9.82762
▁आत्महत्या	-9.82786
▁लिमिटेड	-9.82786
्म	-9.82797
▁भू	-9.82803
▁बिगड़	-9.82876
▁दौड़	-9.82951
▁आगरा	-9.82962
▁जितन	-9.82977
▁टाटा	-9.83023
▁प्रतिनिधि	-9.83028
▁राउंड	-9.83037
▁महेश	-9.83059
▁मोर्चा	-9.83076
▁जाएं	-9.83096
,000	-9.83242
▁कौशल	-9.83277
▁अन	-9.83278
▁जनरल	-9.83287
वन	-9.83295
▁शुक्ला	-9.83413
▁खा	-9.83487
▁इस्तीफा	-9.83533
▁समान	-9.83696
▁पलट	-9.83746
▁जिलाध्यक्ष	-9.83793
▁ट्रस्ट	-9.83793
▁राज्यसभा	-9.83796
▁दशक	-9.83807
ेगा	-9.83931
▁पक्षों	-9.83996
▁सामग्री	-9.84035
▁मजदूर	-9.84047
▁डिजिटल	-9.8405
▁लो	-9.84113
स्त	-9.84149
▁ऐलान	-9.84287
▁आशीष	-9.843
▁कथित	-9.84305
▁साथियों	-9.84395
▁बढ़ती	-9.84449
▁मेला	-9.84453
▁पहल	-9.8449
▁साझा	-9.84544
▁भजन	-9.84625
▁मेले	-9.84668
▁पारा	-9.84711
▁बढ़कर	-9.8473
▁हेमंत	-9.84795
▁काट	-9.84837
▁हड़ताल	-9.85047
▁खारिज	-9.85048
▁गोयल	-9.85049
▁प्राचार्य	-9.85051
▁पाने	-9.8508
वल	-9.8511
▁नियमित	-9.85142
▁लें	-9.85176
▁कुलदीप	-9.85325
▁बॉल	-9.85562
▁जस्टिस	-9.85571
▁पत्थर	-9.85573
▁प्रशासनिक	-9.85725
▁सौ	-9.85745
▁नियंत्रण	-9.85812
▁महतो	-9.85815
▁बेचने	-9.85938
▁शक	-9.85939
▁पूर्वी	-9.8594
▁ज्योति	-9.86051
्याप्त	-9.86069
▁पड़ेगा	-9.861
▁पेंशन	-9.86204
खा	-9.86251
▁कैंसर	-9.86325
▁शिफ्ट	-9.86326
▁गति	-9.86338
ानी	-9.86464
▁विधायकों	-9.86572
▁न्यायाधीश	-9.86583
▁छोटा	-9.86584
▁लापता	-9.86584
दी	-9.86611
▁न्यू	-9.86675
▁पल	-9.86733
▁मानसिक	-9.86778
इस	-9.86837
▁अप	-9.86882
▁अर्पित	-9.86897
▁दौरे	-9.86922
▁तेजस्वी	-9.87105
▁खेती	-9.87283
▁फीस	-9.87327
▁कर्मी	-9.874
वास	-9.87407
▁सूरज	-9.87525
▁75	-9.87613
▁बचा	-9.87613
▁दुकानों	-9.87702
ाराम	-9.87709
▁होली	-9.87724
मु	-9.87739
▁छात्राओं	-9.87868
▁ड	-9.87885
▁धूप	-9.87897
▁जाया	-9.88033
▁दाम	-9.88057
▁ओम	-9.88076
▁मतलब	-9.88144
▁बिल्डिंग	-9.88144
▁जनपद	-9.88148
▁सलाह	-9.88155
▁2018	-9.88163
▁36	-9.88299
▁गुर	-9.88397
▁एमपी	-9.88403
▁शब्द	-9.88407
▁हफ्ते	-9.88443
▁बीमारी	-9.88447
▁केरल	-9.88602
ेन	-9.88657
▁टूर्नामेंट	-9.88669
▁संहिता	-9.88669
▁भरोसा	-9.88669
▁गोरखपुर	-9.8869
▁रूट	-9.88701
▁घट	-9.88766
▁बाग	-9.88933
▁टिप्पणी	-9.88933
▁संकट	-9.88943
▁लाश	-9.88953
▁नीरज	-9.88975
▁मतदाताओं	-9.88986
▁पार्किंग	-9.89016
▁सुन	-9.89111
▁फ्लाइट	-9.8913
▁नागरिकों	-9.89169
▁शख्स	-9.89196
▁ड्रोन	-9.89198
▁पुष्टि	-9.89199
▁पोर्टल	-9.89214
▁झ	-9.89216
▁रखना	-9.89299
▁मारकर	-9.89351
▁आखिर	-9.89391
ः	-9.8941
▁मान्यता	-9.89423
▁पदाधिकारियों	-9.89463
▁साजिश	-9.89465
▁तहसीलदार	-9.89477
▁मेडल	-9.89483
▁रखें	-9.89553
ेगी	-9.89618
▁लाइसेंस	-9.89729
▁विद्युत	-9.89729
▁समापन	-9.8973
▁विक्रम	-9.89734
▁ओडिशा	-9.89739
▁मैनेजर	-9.8983
▁उत्साह	-9.89947
▁मारे	-9.90017
▁अपराधी	-9.90043
▁सौंपा	-9.90077
▁प्रस्तुति	-9.90077
▁जयंती	-9.90079
▁400	-9.90246
▁300	-9.90258
▁बढ़ोतरी	-9.90263
▁जबलपुर	-9.90304
▁बेच	-9.90441
▁असम	-9.90458
▁जोशी	-9.90471
▁चौराहे	-9.90531
▁मैसेज	-9.90532
▁पब्लिक	-9.90545
▁यूक्रेन	-9.90555
▁तार	-9.90863
▁मारा	-9.90952
▁दौरा	-9.91062
▁गुर्जर	-9.91069
▁कनाडा	-9.91081
▁फैल	-9.91083
▁उसको	-9.91143
म्	-9.91188
▁पड़ोसी	-9.91315
▁दर्द	-9.91347
▁विहार	-9.91365
▁टोल	-9.91464
▁इंजीनियर	-9.91574
▁कार्यवाही	-9.91611
▁स्कोर	-9.91775
ेस	-9.91804
▁तकनीकी	-9.91842
▁बॉक्स	-9.91856
▁घंट	-9.9187
▁फल	-9.91872
▁हिस्सों	-9.91882
▁थानाध्यक्ष	-9.91895
K	-9.91902
▁निशान	-9.91906
▁छठ	-9.92038
▁लड़ने	-9.92062
▁निभा	-9.92099
▁गोल	-9.92147
एन	-9.92154
▁तनाव	-9.92156
▁विराट	-9.92164
▁जागरूकता	-9.925
▁रिजल्ट	-9.92703
▁बच्चा	-9.92706
▁आपूर्ति	-9.9271
▁शुल्क	-9.92751
▁पेट	-9.92885
▁लीक	-9.92894
ar	-9.92948
▁अभ्यर्थियों	-9.92988
▁कंगना	-9.9299
▁लेंगे	-9.93013
▁दोस्तों	-9.93048
▁अक्षय	-9.93252
▁नमः	-9.93254
▁निधन	-9.93257
▁कहने	-9.93298
▁जिसने	-9.93333
▁रिजर्व	-9.93529
▁हिसार	-9.9353
▁गा	-9.93621
▁सकें	-9.93631
रण	-9.93701
▁सुना	-9.93763
दीप	-9.93767
▁जिंदगी	-9.93806
▁शुभारंभ	-9.93806
▁जताया	-9.93815
▁लिखित	-9.93849
▁प्रतिष्ठा	-9.93899
▁घटनाओं	-9.9402
▁34	-9.94068
▁दवा	-9.94087
▁संभाल	-9.94089
▁छ	-9.9411
▁डिजाइन	-9.94197
▁बनाना	-9.94256
▁कारोबारी	-9.94256
▁आकाश	-9.94339
▁कॉन्फ्रेंस	-9.94362
ही	-9.94457
▁इं	-9.94496
▁चलता	-9.94525
वाला	-9.94568
▁फांसी	-9.94641
▁वैसे	-9.94644
▁डांस	-9.94657
▁सदन	-9.94687
▁री	-9.94819
▁आशीर्वाद	-9.94921
▁सफर	-9.94929
▁पंप	-9.94951
▁जुर्माना	-9.9497
ेंट	-9.95038
▁मानना	-9.95073
▁नृत्य	-9.95202
▁संगठनों	-9.95216
▁मूर्ति	-9.95324
▁सारी	-9.95389
▁टीचर	-9.95432
▁ग्राहक	-9.95484
▁तत्कालीन	-9.95493
दो	-9.95494
▁विजेता	-9.95504
▁पीठ	-9.95571
▁जज	-9.95609
▁स्मार्ट	-9.95767
▁हैदराबाद	-9.95767
▁बिलासपुर	-9.9578
▁गले	-9.95842
▁शेख	-9.95917
▁रुख	-9.96049
▁कितनी	-9.96053
▁शांत	-9.96057
▁स्वतंत्रता	-9.9608
▁पंच	-9.96115
▁गरीब	-9.96188
▁केन्द्र	-9.9621
▁भरी	-9.96211
▁मानव	-9.96324
िम	-9.96327
▁दिलीप	-9.96334
▁नही	-9.96358
▁जानें	-9.96448
्री	-9.96521
▁पर्यटन	-9.96619
▁सेंट्रल	-9.96625
▁सचिन	-9.96635
▁परिवर्तन	-9.96659
▁परिवारों	-9.9666
▁जवानों	-9.9667
▁आधारित	-9.96691
▁चाहे	-9.96728
▁गुना	-9.96939
▁दीवार	-9.97021
▁फाइल	-9.97207
रन	-9.97223
▁ताला	-9.97367
000	-9.97426
▁जितेंद्र	-9.9748
▁पीने	-9.97519
▁कराए	-9.97596
▁खतरा	-9.97655
▁जागरूक	-9.97695
▁उठ	-9.97713
▁शाखा	-9.97769
▁कितना	-9.97771
▁इंजन	-9.97773
▁टीमें	-9.97778
▁देखी	-9.97815
▁पिछली	-9.97822
▁क्षेत्रीय	-9.97831
▁केंद्रों	-9.97971
▁देखें	-9.97974
वीर	-9.97978
▁मंगल	-9.9798
▁प्रेरित	-9.98056
▁एग्जाम	-9.98056
▁पुराना	-9.98071
▁पालिका	-9.98074
▁गार्ड	-9.98111
▁जिम्मेदार	-9.98125
एफ	-9.98134
▁पे	-9.98199
▁साहब	-9.98219
▁तस्करी	-9.98259
▁अमन	-9.9826
▁उ	-9.98265
▁उधर	-9.98409
ेन्द्र	-9.98465
▁हों	-9.9847
▁गोल्ड	-9.9848
ंट	-9.98551
▁बदला	-9.98566
▁बच्चन	-9.98636
▁विपक्षी	-9.9865
▁ग्रहण	-9.98668
▁उत्पादन	-9.98709
▁दिलाने	-9.98717
ीन	-9.9874
▁मोड़	-9.98785
सु	-9.98833
▁सीकर	-9.98866
िट	-9.9891
िव	-9.98923
▁राजपूत	-9.98928
▁लीटर	-9.98986
▁R	-9.9899
▁बदलने	-9.99009
▁बताए	-9.99136
▁टाइम	-9.99172
ास	-9.99184
▁जायसवाल	-9.9922
▁बिजनेस	-9.99223
▁महेंद्र	-9.99227
▁सोनू	-9.99251
▁पौधे	-9.99268
▁कोचिंग	-9.99299
▁रोका	-9.99318
ण्ड	-9.99344
▁मंजूरी	-9.99344
▁ठेकेदार	-9.99399
l	-9.99409
▁महज	-9.99417
▁मुंह	-9.99513
रू	-9.99604
▁बजाय	-9.99647
▁इसराइल	-9.99766
▁चौराहा	-9.99808
▁पैदल	-9.99808
▁सैकड़ों	-9.9981
▁खरीदी	-9.99871
▁सकी	-9.99885
▁लोन	-10.0004
▁हल	-10.0005
▁श्रद्धालु	-10.0006
घ	-10.0007
▁चेहरे	-10.0014
रत	-10.0014
▁आशा	-10.0016
▁पदक	-10.0021
▁रहना	-10.0037
तने	-10.0039
▁तहरीर	-10.004
घर	-10.004
▁प्रभु	-10.0043
▁बढ़त	-10.0057
▁राजू	-10.0062
▁वार	-10.0066
▁संपन्न	-10.0069
▁प्लेटफॉर्म	-10.007
▁जिक्र	-10.0099
▁गाड़ियों	-10.01
▁खेलने	-10.01
▁दुर्ग	-10.0105
दर	-10.0122
▁मजबूर	-10.0125
▁दुष्कर्म	-10.0129
▁सहमति	-10.013
ायब	-10.013
।"	-10.0135
▁गाली	-10.0137
्ब	-10.0143
▁विशेषज्ञ	-10.0149
m	-10.0158
▁चंद	-10.0162
▁देवेंद्र	-10.0162
▁सदस्यता	-10.0166
▁टू	-10.0167
करण	-10.0172
ष	-10.0184
▁पाठक	-10.0202
▁खरीदने	-10.0212
मे	-10.0216
▁बढ़ी	-10.0218
▁मिमी	-10.022
▁बेस्ट	-10.0221
▁महादेव	-10.0221
▁संबंधी	-10.0222
▁महीन	-10.0224
▁सेल	-10.0224
▁फोर्स	-10.0225
▁भेजने	-10.0248
▁तुम	-10.0248
▁टाइगर	-10.025
▁जिनके	-10.0262
▁150	-10.0265
▁लीग	-10.0272
▁सच	-10.0272
▁कैद	-10.0273
▁अंसारी	-10.028
▁रजिस्ट्रेशन	-10.028
▁कनेक्शन	-10.028
▁तमाम	-10.028
▁गिरोह	-10.028
▁आलम	-10.0283
▁वादा	-10.0291
▁बदले	-10.03
▁भरने	-10.0302
▁FIR	-10.031
▁नाराजगी	-10.0311
▁शासकीय	-10.0312
▁पवार	-10.0313
▁जग	-10.0313
▁हटा	-10.032
ुआ	-10.032
▁आइए	-10.0325
▁37	-10.0327
डे	-10.0331
▁उठाए	-10.0333
▁मेरठ	-10.0341
▁महाविद्यालय	-10.0341
▁सतीश	-10.0342
▁खेले	-10.0347
▁पड़ताल	-10.0357
▁नरेश	-10.0368
▁जालंधर	-10.0371
▁रात्रि	-10.0374
▁क्रम	-10.0375
▁मांगा	-10.0378
▁लालू	-10.0378
▁भागने	-10.0386
▁त्योहार	-10.0392
▁जल्दी	-10.0394
▁देरी	-10.0395
▁मूवी	-10.0401
▁विकल्प	-10.0402
▁कैमरा	-10.0402
▁मिट्टी	-10.0403
L	-10.0412
ैया	-10.0414
▁सुनकर	-10.0415
नि	-10.0424
▁किरण	-10.0429
▁मारी	-10.0432
▁ग्रीन	-10.0433
▁मुहूर्त	-10.0433
▁पीट	-10.0439
ाबाद	-10.0483
▁दर्शक	-10.0495
▁रोजाना	-10.0496
▁गीता	-10.05
मान	-10.051
हम	-10.0512
▁त्रिपाठी	-10.0526
▁सौरभ	-10.0526
▁मेट्रो	-10.0526
▁राजकीय	-10.0527
▁42	-10.0529
▁मांगे	-10.0535
▁रु	-10.0536
वानी	-10.0544
▁खुले	-10.0546
▁आदर्श	-10.0557
लिया	-10.0571
▁राधा	-10.0573
▁स्टूडेंट	-10.0582
▁M	-10.0587
-3	-10.0587
▁{	-10.0589
▁बीमार	-10.0591
▁अपहरण	-10.0594
al	-10.0605
▁बरसात	-10.0605
▁मात्रा	-10.0606
▁वसूली	-10.0607
▁गोविंद	-10.0614
▁गहरा	-10.062
▁माने	-10.0624
▁भोग	-10.0626
▁गली	-10.0634
▁होंगी	-10.0647
ौली	-10.065
▁आपराधिक	-10.0651
▁प्रतिक्रिया	-10.0651
▁रिमांड	-10.0651
▁श्रीलंका	-10.0651
▁एएसआई	-10.0651
▁आदित्य	-10.0652
पूर्ण	-10.0654
▁लाइफ	-10.0654
ंच	-10.0654
▁ग्राउंड	-10.0656
▁धार	-10.0668
▁सिख	-10.0668
▁हुईं	-10.0671
▁भरे	-10.0675
▁रहें	-10.068
▁प्रतिभा	-10.0681
गत	-10.0683
▁तीसरा	-10.0683
▁इमरजेंसी	-10.0684
▁निवास	-10.0689
▁गीत	-10.0694
▁फॉर्म	-10.07
▁बचने	-10.0701
धाम	-10.0702
▁पहुंचाने	-10.0703
▁प्राधिकरण	-10.0714
▁यूनियन	-10.0714
▁मंदिरों	-10.0715
▁सकेगा	-10.0719
▁इलेक्ट्रिक	-10.074
▁सांप	-10.0746
▁थोड़ी	-10.0746
▁अधिवक्ता	-10.0746
▁करण	-10.0762
▁छीन	-10.0765
▁राजद	-10.0766
ाल	-10.0769
यिक	-10.0771
▁जबरदस्त	-10.0777
▁संकेत	-10.0777
▁नेहरू	-10.0778
▁द्वितीय	-10.0779
▁आश्रम	-10.0779
▁विरोधी	-10.0788
टे	-10.0789
पति	-10.0794
▁फ्री	-10.0804
▁बिल्कुल	-10.0809
▁रोहतक	-10.0809
▁हेल्थ	-10.0809
▁हिमाचल	-10.081
▁महंत	-10.0811
▁बस्ती	-10.0815
फ़	-10.0835
▁परंपरा	-10.0836
▁टेंडर	-10.0842
▁इंग्लैंड	-10.0842
▁आदित्यनाथ	-10.0842
▁2017	-10.0843
▁प्रयागराज	-10.0843
चार	-10.0849
▁जुड़ा	-10.085
▁बढ़ते	-10.0855
▁हरा	-10.0863
▁रखकर	-10.0864
▁प्रावधान	-10.0864
▁ऐप	-10.0866
▁मास्टर	-10.0874
▁रेंज	-10.0874
▁बहादुर	-10.0875
▁लू	-10.0876
▁बहस	-10.0884
▁डेटा	-10.0885
▁भाषण	-10.0906
ानंद	-10.0908
▁मप्र	-10.0909
मत	-10.0909
▁हमलावर	-10.0911
▁मेन	-10.0916
▁भावना	-10.092
▁फ़	-10.0923
er	-10.0924
मैं	-10.0926
▁दुकानदार	-10.0938
▁बिश्नोई	-10.0938
▁खाद	-10.0939
▁स्वच्छता	-10.0942
▁संसदीय	-10.0944
▁बैटरी	-10.0946
▁झूठ	-10.0949
▁रिसर्च	-10.0971
▁स्वयं	-10.0971
▁खनन	-10.0971
▁अनेक	-10.0971
in	-10.0981
▁होम	-10.0983
▁प्रारंभ	-10.0986
c	-10.0995
▁G	-10.0995
▁जीते	-10.1
▁बॉर्डर	-10.1003
▁विरुद्ध	-10.1003
▁महामंत्री	-10.1006
▁तलाशी	-10.101
▁टीवी	-10.1011
:30	-10.1026
▁उल्लंघन	-10.1036
▁इवेंट	-10.1036
▁55	-10.1047
▁इजराइल	-10.1069
▁समीप	-10.1069
▁हेतु	-10.1069
रि	-10.1076
n	-10.1083
ra	-10.1086
▁बुरा	-10.1099
▁डिमांड	-10.1102
▁अरेस्ट	-10.1102
▁साइकिल	-10.1103
▁गठित	-10.1104
▁एशिया	-10.1105
▁धीरे	-10.111
▁प्रकरण	-10.1127
▁अनु	-10.113
▁आजाद	-10.1134
▁नरेन्द्र	-10.1135
▁सुरेंद्र	-10.1135
▁आरोपों	-10.1137
▁पढ़ने	-10.1141
▁जख्मी	-10.1141
मल	-10.1142
कश्मीर	-10.1143
▁धूम	-10.1149
▁आएगी	-10.1149
▁एक्सपर्ट	-10.1161
णी	-10.1165
▁चुना	-10.1165
▁अभियंता	-10.1168
▁बेंगलुरु	-10.1169
▁एकादशी	-10.1169
▁जूनियर	-10.117
▁मृतका	-10.1187
झ	-10.1197
▁निर्दलीय	-10.1201
▁स्नान	-10.1201
▁नर्सिंग	-10.1203
▁डूब	-10.121
▁फंस	-10.1219
चंद	-10.1221
▁साय	-10.1226
.4	-10.1226
25	-10.1234
▁लोकतंत्र	-10.1235
▁पटवारी	-10.1235
▁ताकत	-10.1235
▁ऑफर	-10.1241
▁रावत	-10.1242
▁पोस्टर	-10.1244
▁हॉल	-10.1251
▁इंदिरा	-10.1268
▁चक्कर	-10.1269
.30	-10.1272
▁तस्वीरें	-10.1273
▁प्राथमिकता	-10.1282
▁किराए	-10.1298
▁धोखाधड़ी	-10.1301
▁वैश्व	-10.1301
▁प्रार्थना	-10.1303
O	-10.1303
▁रोशन	-10.1303
▁पायलट	-10.1304
▁इंच	-10.1308
▁गु	-10.1308
▁मानते	-10.1315
▁प्री	-10.1333
▁सुझाव	-10.1335
▁लि	-10.1336
▁नोएडा	-10.1336
▁भले	-10.1337
▁बाघ	-10.1338
▁अकेले	-10.1341
▁छोड़ने	-10.1344
▁करे	-10.1351
▁बुला	-10.1357
▁तोड़कर	-10.1358
▁F	-10.1364
▁फ्लैट	-10.1369
▁पिटाई	-10.1369
▁पूर्णिमा	-10.1369
▁चुन	-10.137
▁डीजल	-10.1377
िता	-10.1381
▁दलित	-10.1387
▁करोड़ों	-10.1402
▁प्रबंधक	-10.1402
▁मूल्य	-10.1402
▁संग	-10.1402
गो	-10.1403
▁रकम	-10.1403
▁नेपाल	-10.1405
िश	-10.1406
▁नाले	-10.1409
▁रिश्ते	-10.1432
▁फेंक	-10.1433
▁पत्रकार	-10.1435
▁शारीरिक	-10.1437
▁सबूत	-10.1437
▁खन्ना	-10.1437
▁तमिलनाडु	-10.1438
▁कार्यरत	-10.1441
▁बैठा	-10.1444
▁संगीत	-10.1451
▁पुलिसकर्मी	-10.1453
कल	-10.1454
घाट	-10.1455
▁राणा	-10.1474
▁उपस्थिति	-10.1479
▁देगा	-10.1486
▁प्रेमी	-10.1494
▁आधा	-10.1501
▁दुख	-10.1502
▁प्रदूषण	-10.1505
▁चाचा	-10.1505
▁छुट्टी	-10.1506
v	-10.1509
▁आपने	-10.1518
▁38	-10.1522
▁पथ	-10.1527
▁भूल	-10.153
▁कृष्णा	-10.1531
▁सहयोगी	-10.1535
an	-10.1535
▁विद्यार्थी	-10.1539
▁मुखिया	-10.1542
▁रा	-10.1544
▁घूम	-10.1556
▁डीसी	-10.1558
▁रोग	-10.1561
▁बुक	-10.1564
▁कांड	-10.1565
▁रिश्वत	-10.1565
▁उठाने	-10.1568
▁एकड़	-10.1573
बीर	-10.1573
▁ऐतिहासिक	-10.1574
▁सपोर्ट	-10.1574
▁बीकानेर	-10.1575
▁लड़कियों	-10.1577
▁पि	-10.1579
▁एंटी	-10.1582
ेंस	-10.1585
▁जगदीश	-10.1592
▁जाट	-10.1598
▁अमृतसर	-10.1611
▁आभार	-10.162
एच	-10.1623
▁रणनीति	-10.1623
▁अंकित	-10.1636
आधिकारिक	-10.1643
▁सैन्य	-10.1644
▁पीछा	-10.1644
▁अफ्रीका	-10.1644
▁बाड़मेर	-10.1644
▁लव	-10.1654
चा	-10.1662
▁सिम	-10.1667
पन	-10.1669
▁डेट	-10.1671
▁मोटर	-10.1672
्यू	-10.1675
▁मोटरसाइकिल	-10.1678
▁मेयर	-10.168
▁व्यापारियों	-10.1686
▁न्यायिक	-10.1686
बे	-10.1689
▁चुरा	-10.1691
▁व्यक्तियों	-10.1692
▁प्रसिद्ध	-10.1694
▁एक्टिव	-10.1699
▁प्रगति	-10.1713
▁अंदाज	-10.1714
▁भजनलाल	-10.1715
▁प्रशांत	-10.1716
▁कारणों	-10.1717
▁K	-10.1738
▁H	-10.1738
▁अभ्यर्थी	-10.1748
▁सनातन	-10.1748
▁कर्ज	-10.1749
▁मेहता	-10.175
▁प्रतीक	-10.1755
▁ॐ	-10.1756
स्थ	-10.1759
▁बैठकर	-10.1765
f	-10.1769
▁कॉन्स्टेबल	-10.1783
▁रेस्क्यू	-10.1783
▁यू	-10.1785
▁सेट	-10.1788
मो	-10.1793
▁लेवल	-10.1794
▁विधान	-10.1795
▁खेतों	-10.1795
▁देगी	-10.1797
▁मीना	-10.1804
▁मात्र	-10.1813
टर	-10.1815
▁सामुदा	-10.1819
▁ज़्यादा	-10.1819
▁प्रोग्राम	-10.1819
निया	-10.182
▁प्रतिदिन	-10.1821
दास	-10.1826
▁ऑफिसर	-10.1827
▁गये	-10.184
▁जेपी	-10.1842
▁डेंगू	-10.1854
▁स्मृति	-10.1854
▁हुसैन	-10.1854
▁कलेक्शन	-10.1855
▁फूड	-10.1858
▁आलोक	-10.1858
▁बालक	-10.1866
▁सुविधाओं	-10.1868
▁प्रश्न	-10.1883
▁इंस्टाग्राम	-10.189
▁सामूहिक	-10.189
▁जिंदा	-10.189
▁लगते	-10.1892
▁भक्ति	-10.1893
्क	-10.1894
▁इंटर	-10.1895
▁अवॉर्ड	-10.1925
▁जुलूस	-10.1925
▁संशोधन	-10.1927
▁खतर	-10.1928
ृ	-10.194
▁शीर्ष	-10.1957
▁कॉलेजों	-10.1961
▁स्	-10.1963
50	-10.1964
▁इनका	-10.1968
▁सत्य	-10.197
▁माफी	-10.1972
्न	-10.1973
पास	-10.1974
्रा	-10.1974
▁माध्यमिक	-10.1976
▁मिश्र	-10.1984
▁भा	-10.1988
▁प्रवीण	-10.1997
▁मोहल्ले	-10.1997
▁कैश	-10.1998
▁सब्जी	-10.1998
ाव	-10.2
िनी	-10.2001
▁सिपाही	-10.2002
गु	-10.2013
▁पदार्थ	-10.2029
▁स्पीकर	-10.2033
▁तलाक	-10.2034
▁अंबानी	-10.2034
▁लड़ा	-10.2045
हे	-10.2049
चर	-10.2054
F	-10.2063
▁पप्पू	-10.207
▁महापौर	-10.207
▁व्यवहार	-10.207
▁लाठी	-10.207
▁गलती	-10.2071
▁अधिकांश	-10.2071
▁फंड	-10.2073
▁मांगने	-10.2075
▁हराया	-10.2078
▁नाग	-10.2086
▁पिस्टल	-10.2106
▁संध्या	-10.2106
▁कलेक्ट्रेट	-10.2106
▁सुविधाएं	-10.211
▁बैठ	-10.2112
▁चौथे	-10.2114
▁J	-10.2121
▁संस्थानों	-10.2132
रदार	-10.214
▁व्यापक	-10.2142
▁लिंक	-10.2146
▁बसपा	-10.215
▁एप	-10.2151
▁पहाड़	-10.2172
▁उत्तराखंड	-10.2179
▁स्कूटी	-10.2179
▁अमिताभ	-10.2179
▁घोटाले	-10.218
▁मार्गदर्शन	-10.2181
▁धर्मेंद्र	-10.2183
▁मौजूदगी	-10.219
▁वर्क	-10.219
▁L	-10.2195
तम	-10.2208
▁चार्ज	-10.2211
▁सीईओ	-10.2216
▁प्रमोद	-10.2216
▁बीबीसी	-10.2217
▁सिलेंडर	-10.2218
▁स्वरूप	-10.2218
▁रावण	-10.2221
▁कार्यक्रमों	-10.2227
▁चीनी	-10.2232
▁गंभीरता	-10.2232
▁आईं	-10.2243
▁सारा	-10.2246
▁65	-10.2246
▁परीक्षण	-10.2253
▁तबीयत	-10.2253
▁दीपावली	-10.2253
▁आग्रह	-10.2254
▁हसीना	-10.2254
▁शहरी	-10.2256
▁कुलपति	-10.2256
▁ब्रिज	-10.2257
▁विद्या	-10.2257
दूसरे	-10.2265
▁बीमा	-10.228
▁दिक्कत	-10.2283
ाकर	-10.2283
▁समर्पित	-10.229
▁गर्ग	-10.229
▁जिलाधिकारी	-10.2291
▁यूजर्स	-10.2295
▁शास्त्री	-10.2298
वान	-10.2301
फा	-10.2302
▁I	-10.2311
▁आतंकी	-10.2317
▁चेन	-10.2322
▁जोड़	-10.2324
▁बोली	-10.2325
▁इंतजाम	-10.2327
▁भाइयों	-10.2327
▁गोदाम	-10.2327
▁झगड़ा	-10.233
▁चलेगा	-10.2338
▁आएगा	-10.2344
▁44	-10.2346
▁रंजन	-10.235
▁बसों	-10.2352
्‍य	-10.2353
▁कोर्स	-10.2355
ाया	-10.2358
r	-10.2361
▁आयु	-10.2364
▁अनिवार्य	-10.2364
▁एंबुलेंस	-10.2364
▁ट्रॉफी	-10.2364
▁समुद्र	-10.2364
▁फेल	-10.2365
▁मनोहर	-10.2365
▁पवित्र	-10.2366
▁ढाई	-10.2369
▁पड़ोस	-10.237
▁मजदूरी	-10.2377
▁पुलिसकर्मियों	-10.238
▁गुप्त	-10.2381
▁यश	-10.2385
▁कटौती	-10.2402
▁इकाई	-10.2402
▁एसएसपी	-10.2403
▁घ	-10.2424
हन	-10.2429
▁जनसभा	-10.244
▁पूछ	-10.2472
▁चीजों	-10.2473
▁यहीं	-10.2476
▁काशी	-10.2476
▁अस्पतालों	-10.2477
▁गौ	-10.2479
▁वी	-10.2484
▁तैयारियां	-10.2489
▁मनाई	-10.2491
▁डालने	-10.2503
▁रहकर	-10.2503
▁गाने	-10.2507
▁प्रतिपक्ष	-10.2515
▁ऋषि	-10.2517
▁मिलाकर	-10.2517
▁मुक्ति	-10.2518
टो	-10.2537
ोर	-10.2546
▁ओलिंपिक	-10.2553
▁क्षतिग्रस्त	-10.2553
▁इच्छा	-10.2553
▁समक्ष	-10.2554
▁मृत्यु	-10.2554
▁स्टोर	-10.2572
▁अति	-10.2576
▁कृपा	-10.2581
▁ब्रेक	-10.2582
▁पु	-10.259
▁टेक	-10.259
▁आंध्र	-10.2591
▁फाउंडेशन	-10.2591
▁ब्रांच	-10.2591
▁चालू	-10.2592
▁पुणे	-10.2593
▁कन्या	-10.2593
▁संबंधों	-10.2603
इन	-10.2606
▁बाजारों	-10.2627
▁मुजफ्फरपुर	-10.2631
▁नक्सलियों	-10.2631
▁समर्थकों	-10.2632
▁तिरंगा	-10.2633
▁शेष	-10.2635
▁टकरा	-10.2638
▁नाथ	-10.2651
िस्ट	-10.2653
▁भेजे	-10.2654
▁चढ़	-10.2656
▁पाकिस्तानी	-10.2658
श्री	-10.2662
▁हाथी	-10.2666
▁संज्ञान	-10.2668
▁जानी	-10.2677
▁तिलक	-10.2679
काल	-10.268
▁पंत	-10.2683
▁अखिल	-10.2687
ियो	-10.2688
▁मजदूरों	-10.2693
▁छोड़ा	-10.2705
▁आह्वान	-10.2707
▁नाटक	-10.2707
▁राठौड़	-10.2707
▁समस्त	-10.2707
▁राशिफल	-10.2707
▁समाजवादी	-10.2709
▁सुनीता	-10.2712
▁गाय	-10.2715
▁कुशवाहा	-10.2715
▁लुक	-10.2731
▁46	-10.2734
▁लौटा	-10.2743
▁सेवाएं	-10.2755
ौर	-10.2768
▁पिकअप	-10.2784
▁भूपेंद्र	-10.2784
▁प्रणाली	-10.2784
▁कलाकारों	-10.2786
▁समर्थक	-10.2787
▁चंदन	-10.2802
▁बिहारी	-10.2806
▁माला	-10.2815
▁कैंडिडेट	-10.2816
ड़े	-10.2818
▁कार्तिक	-10.2823
▁एडवोकेट	-10.2823
▁शायद	-10.2823
▁सर्च	-10.2824
▁शरद	-10.2827
ाम	-10.2827
▁जाएंगी	-10.2828
g	-10.2833
अपने	-10.2848
▁बाई	-10.2848
▁औद्योगिक	-10.2862
▁अनंत	-10.2864
▁ब्लड	-10.2864
▁कलाकार	-10.2864
▁तकनीक	-10.2866
▁गयी	-10.2868
▁अत्य	-10.2876
्व	-10.2895
शी	-10.2897
▁स्मार्टफोन	-10.2902
▁बालिका	-10.2903
▁अलवर	-10.2903
▁नर	-10.2908
ेर	-10.2911
▁तट	-10.2911
▁सीओ	-10.2916
▁काे	-10.2917
ीकरण	-10.2919
▁बाबू	-10.292
▁शोर	-10.2939
▁पूर्णिया	-10.294
▁यौन	-10.2941
▁मथुरा	-10.2943
▁प्रभावी	-10.2943
▁मर्डर	-10.2944
डीह	-10.2946
▁शतक	-10.2948
▁आईडी	-10.2948
▁चलाई	-10.2955
▁काला	-10.2957
▁39	-10.2957
▁हा	-10.2965
▁वोटर	-10.2969
कि	-10.2974
वाह	-10.2979
▁चलती	-10.298
▁प्रॉपर्टी	-10.2981
▁दिव्यांग	-10.2981
▁दरवाजा	-10.2984
▁पार्ट	-10.2984
▁भगत	-10.2988
क्स	-10.2991
30	-10.2998
▁पीटा	-10.301
▁मचा	-10.3011
▁वैज्ञानिक	-10.3019
▁बतौर	-10.3022
▁2016	-10.3023
▁आसमान	-10.3024
▁उतारा	-10.3026
▁मंजिल	-10.3027
र्ट	-10.3028
यां	-10.3036
▁41	-10.3053
▁टन	-10.3053
▁एड	-10.3054
▁अनुरोध	-10.3061
▁बनर्जी	-10.3061
▁नारेबाजी	-10.3061
▁आमजन	-10.3065
▁मंत्रियों	-10.3066
▁सपना	-10.3067
b	-10.307
ढ	-10.3078
स्	-10.3084
▁सील	-10.3084
▁पाइप	-10.3101
▁धन्यवाद	-10.3101
▁हिंदुओं	-10.3101
▁बेहतरीन	-10.3103
▁भट्ट	-10.3103
▁कपिल	-10.3106
H	-10.3115
ियर	-10.3117
▁स्वर्ण	-10.3137
▁प्रतिबंध	-10.3137
▁गुणवत्ता	-10.3141
▁चौटाला	-10.3141
▁हार्दिक	-10.3141
▁जाहिर	-10.3143
▁स्पोर्ट्स	-10.3143
▁फीचर्स	-10.3145
▁चेहरा	-10.3146
▁टेबल	-10.3146
▁रियल	-10.3148
▁सिक्योरिटी	-10.3153
▁दिखाने	-10.3168
▁एसी	-10.317
▁मानी	-10.3174
▁बीती	-10.3177
▁सिनेमा	-10.3181
▁ब्रिगेड	-10.3182
▁थोड़ा	-10.3182
▁कमलेश	-10.3183
▁राशन	-10.3183
▁51	-10.3189
▁चाय	-10.319
▁रथ	-10.3193
40	-10.3195
छात्राओं	-10.3197
▁मध्यम	-10.3204
▁पढ़िए	-10.3223
▁रीवा	-10.3232
▁खींच	-10.3239
▁खोज	-10.324
▁जंग	-10.3243
धार	-10.3249
▁आंखों	-10.3251
▁प्रबंध	-10.3252
सन	-10.3257
▁उड़	-10.3262
▁श्रद्धांजलि	-10.3263
▁नेटवर्क	-10.3263
▁बनाते	-10.3268
▁बढ़ाया	-10.3274
ंप	-10.3294
▁ऑल	-10.3295
▁आपस	-10.3303
▁अनुराग	-10.3304
▁ख़िलाफ़	-10.3304
▁टेक्नोलॉजी	-10.3304
▁ऑर्डर	-10.3304
▁व्यक्तिगत	-10.3309
▁इंजीनियरिंग	-10.3311
▁साइड	-10.3313
▁शुभम	-10.3315
▁पुष्प	-10.3319
▁आपसी	-10.3326
▁सांस	-10.3345
▁उदाहरण	-10.3345
▁गश्त	-10.3346
U	-10.3347
▁एसआई	-10.3356
धीरे	-10.3362
▁गिल	-10.3364
▁करनाल	-10.3375
▁शोध	-10.3385
▁छेड़छाड़	-10.3387
▁ब्राह्मण	-10.3387
▁उपाय	-10.3394
W	-10.3395
म्प	-10.3404
ंगी	-10.3404
▁मनाने	-10.3423
▁समझौता	-10.3428
▁स्कीम	-10.3428
▁शिवसेना	-10.3429
▁लिये	-10.3429
▁दादा	-10.3433
▁मलिक	-10.3435
V	-10.3437
▁जु	-10.3438
▁चलेगी	-10.3439
▁चेकिंग	-10.344
गे	-10.3442
▁काटने	-10.3452
▁जोड़ी	-10.3455
सं	-10.3467
कु	-10.3467
▁रिपोर्ट्स	-10.3468
▁मशहूर	-10.347
▁अरोड़ा	-10.347
▁महाकाल	-10.347
▁अटल	-10.3473
▁टाउन	-10.3474
▁खासकर	-10.3478
▁शरण	-10.3479
हार	-10.3479
▁गला	-10.3484
लो	-10.3484
▁in	-10.3494
▁फिल्में	-10.3505
▁उपाध्याय	-10.3512
▁टारगेट	-10.3512
▁सर्टिफिकेट	-10.3512
▁रेड्डी	-10.3512
▁आलोचना	-10.3512
▁सैनिक	-10.3513
▁गढ़	-10.3516
d	-10.3518
▁लोकेशन	-10.3522
sh	-10.3533
▁इस्लाम	-10.3552
▁तेलंगाना	-10.3554
▁अर्थव्यवस्था	-10.3554
▁मजिस्ट्रेट	-10.3554
▁मोहल्ला	-10.3554
वाड़ा	-10.3554
▁हुड्डा	-10.3554
▁महावीर	-10.3555
▁अजीत	-10.3564
.1	-10.3569
हरा	-10.3571
▁डालकर	-10.3576
12	-10.3582
▁आंकड़े	-10.3593
▁तुलसी	-10.3595
▁साइंस	-10.3595
▁संभावित	-10.3596
▁सैंपल	-10.3596
▁ब्याज	-10.3596
▁आमिर	-10.3598
▁मोड	-10.36
▁विनय	-10.3602
ंध	-10.3603
▁कलश	-10.3604
र्	-10.3605
▁V	-10.361
▁जोड़ने	-10.3611
▁समझा	-10.3634
▁भेजी	-10.3648
▁झांसी	-10.365
▁थ	-10.3655
▁01	-10.3666
▁उठाकर	-10.3667
▁वजन	-10.3667
▁सास	-10.368
ियन	-10.3685
▁पैस	-10.369
▁कूद	-10.3695
▁सीता	-10.3695
▁शिवराज	-10.3705
k	-10.3711
▁किशोरी	-10.3719
▁मंत्र	-10.3721
▁हरकत	-10.3723
▁गहलोत	-10.3724
▁गारंटी	-10.3724
▁बॉडी	-10.3724
▁सकारात्मक	-10.3724
▁एटीएम	-10.3724
▁संभल	-10.3724
▁बघेल	-10.3724
▁एडमिशन	-10.3724
▁गाड़ियां	-10.3724
▁जगत	-10.3725
▁मानक	-10.3727
▁खेली	-10.3739
▁शुक्ल	-10.3744
▁हित	-10.3746
▁फार्म	-10.3758
▁सावन	-10.3761
▁ब्र	-10.3765
▁मासूम	-10.3767
▁लंबित	-10.3767
▁मैनेजमेंट	-10.3767
▁वार्ता	-10.3767
▁काली	-10.3772
▁सुमन	-10.3776
▁नारे	-10.3778
▁नकली	-10.3782
▁सुनने	-10.3788
ुद्दीन	-10.381
▁सिंचाई	-10.381
▁चेन्नई	-10.3811
10	-10.382
मैन	-10.384
▁गत	-10.3847
पुरी	-10.3849
▁स्वीकृति	-10.3849
ंक	-10.3852
▁नितिन	-10.3853
▁आजादी	-10.3854
▁कविता	-10.3855
▁नीट	-10.3857
▁छा	-10.3865
्प	-10.3873
पूर्वक	-10.3876
▁ग्लोबल	-10.3896
▁निलंबित	-10.3896
▁बहुमत	-10.3897
▁रविंद्र	-10.3897
▁निरस्त	-10.3899
▁मनी	-10.3904
▁किशन	-10.3904
▁नो	-10.3917
ठा	-10.3918
▁पाते	-10.3919
▁आक्रोश	-10.3935
▁आस्था	-10.394
▁फर्स्ट	-10.394
▁श्रीकृष्ण	-10.3941
▁लक्ष्मण	-10.3941
▁गिरी	-10.3948
▁कचरा	-10.3952
▁खुला	-10.3959
▁बिक	-10.3968
▁करंट	-10.3972
▁फुल	-10.3974
▁मुआवजा	-10.3984
▁ड्रेस	-10.3984
▁वीरेंद्र	-10.3986
ूर	-10.3997
▁गेंदबाज	-10.4
र्ड	-10.4
▁बीज	-10.4003
▁घटनाएं	-10.402
▁सुमित	-10.4028
▁इंचार्ज	-10.4028
▁गेहूं	-10.4028
▁गौरतलब	-10.4028
▁क्विंटल	-10.4028
▁आईएएस	-10.4029
▁मणिपुर	-10.403
▁पो	-10.4032
▁खरीदा	-10.4036
▁फैला	-10.4038
ची	-10.4043
▁शेर	-10.4063
▁हर्ष	-10.4065
▁जस	-10.4071
▁नामक	-10.4071
▁ठाकरे	-10.4072
▁मायके	-10.4073
▁थानाधिकारी	-10.4074
▁दिग्गज	-10.4075
▁शुद्ध	-10.4076
वासियों	-10.408
▁एकता	-10.4087
▁निवेशकों	-10.4089
्त	-10.409
▁पड़ने	-10.409
▁47	-10.4097
▁कायम	-10.4102
▁43	-10.4107
▁पं	-10.4107
▁टे	-10.4108
▁हु	-10.411
▁मरम्मत	-10.4117
▁अभियुक्त	-10.4117
▁महात्मा	-10.4117
▁भेंट	-10.4118
▁डिलीवरी	-10.4118
▁खाता	-10.4127
▁हाे	-10.413
▁खोलने	-10.4145
ंडा	-10.4146
▁बाहरी	-10.4152
▁मुठभेड़	-10.4161
▁रामलला	-10.4163
▁गुट	-10.4167
▁मानें	-10.4167
▁दरबार	-10.4168
▁लहर	-10.4168
▁सराहना	-10.417
▁चालान	-10.417
धा	-10.4182
ध्य	-10.4184
▁सरस्वती	-10.4206
▁गुरुग्राम	-10.4207
▁विनेश	-10.4207
▁कार्यशाला	-10.4207
▁व्यास	-10.421
▁खोला	-10.421
‍	-10.4221
डिया	-10.4224
▁गोद	-10.4229
कारी	-10.4233
▁देखना	-10.4239
▁एआई	-10.4246
ाें	-10.4247
▁करेंगी	-10.4247
धर	-10.4251
▁अटैक	-10.4251
▁चिराग	-10.4251
▁प्लास्टिक	-10.4251
▁अवगत	-10.4252
▁तारीफ	-10.4252
▁किताब	-10.4253
▁कस्बे	-10.4253
▁05	-10.4257
▁हैरान	-10.4266
▁जि	-10.4296
▁संवाद	-10.4297
▁ढंग	-10.4297
▁सीधा	-10.4298
▁गड़बड़ी	-10.4305
▁अभि	-10.4305
▁अंग	-10.4307
▁बो	-10.432
▁दिखे	-10.4321
▁सुशील	-10.4322
▁फंसा	-10.4328
कुल	-10.4329
▁जोड़ा	-10.4337
▁फोकस	-10.4343
िर	-10.4343
▁निकट	-10.4344
▁झटका	-10.4344
▁दबा	-10.4345
▁ज़	-10.4351
▁बेल	-10.4359
▁पंडाल	-10.4388
▁सम	-10.4393
▁बुकिंग	-10.4394
▁56	-10.4395
▁आतंक	-10.4401
th	-10.4406
▁एससी	-10.4413
मार	-10.4415
.50	-10.4421
▁तीर्थ	-10.4424
▁उड़ान	-10.4425
▁आधे	-10.4434
▁ईश्वर	-10.4434
▁धनबाद	-10.4434
▁स्वस्थ	-10.4434
▁संसाधन	-10.4438
हट	-10.4439
▁52	-10.4439
▁आचार	-10.4439
▁दु	-10.4442
▁रेखा	-10.4446
▁कर्म	-10.4455
▁आंकड़	-10.4456
▁पै	-10.4458
▁सोम	-10.4473
▁मोह	-10.4475
▁पहाड़ी	-10.4476
▁पार्टिय	-10.4477
▁निकालकर	-10.4479
▁फंदे	-10.448
▁अभिनेता	-10.448
▁ट्रेलर	-10.448
▁आपत्ति	-10.4485
▁फसलों	-10.4485
▁अर्चना	-10.45
हि	-10.4511
िटी	-10.4515
▁क्र	-10.4516
▁उदय	-10.4526
▁अध्ययन	-10.4526
▁सर्जरी	-10.4526
▁समस्तीपुर	-10.4527
▁इजरायल	-10.4527
▁संदेह	-10.4528
▁वार्षिक	-10.4528
▁2015	-10.4529
▁चीज	-10.4529
▁बहाने	-10.4529
▁दफ्तर	-10.453
▁हार्ट	-10.4534
j	-10.454
▁लेन	-10.4544
▁दोस्ती	-10.4555
▁रतन	-10.4563
▁बु	-10.4563
▁तोड़ने	-10.4565
▁सेवाओं	-10.4566
▁बहनों	-10.4568
▁लंबा	-10.4569
▁देसी	-10.4571
ing	-10.4573
▁सिंधिया	-10.4573
▁सक्षम	-10.4574
▁गांजा	-10.4577
▁सर्दी	-10.4583
▁मिलेंगे	-10.4583
▁लगेगा	-10.4591
▁चैनल	-10.4594
▁निर्देशन	-10.4602
▁चालकों	-10.4607
▁असल	-10.461
मर	-10.4611
▁सफेद	-10.4619
▁पेयजल	-10.4619
ैल	-10.462
▁रजत	-10.4621
▁नाव	-10.4622
ेल	-10.4623
▁पेरिस	-10.4625
▁चिकित्सक	-10.4626
▁कमला	-10.4627
▁बहू	-10.463
▁रेत	-10.4631
▁तैनाती	-10.4632
▁आर्मी	-10.4642
▁एमएम	-10.4642
ीर	-10.4644
भारत	-10.4646
75	-10.4649
▁कक्ष	-10.4654
वाली	-10.4657
▁रेस	-10.4657
▁कीमतों	-10.4659
▁ता	-10.4665
▁श्रद्धा	-10.4666
▁प्रेरणा	-10.4666
▁अनुसंधान	-10.4666
▁शिखर	-10.4666
▁शुभकामनाएं	-10.4666
▁बरेली	-10.4666
▁विरासत	-10.4667
▁अनाज	-10.4668
▁मिस	-10.4675
▁काले	-10.4676
▁बारात	-10.4679
▁उत्तरी	-10.4679
▁बनेगा	-10.4679
▁स्टे	-10.4682
▁अधिकतर	-10.4684
ंगा	-10.4686
▁हक	-10.4687
19	-10.4694
▁फंसे	-10.4696
▁फॉर	-10.4696
▁72	-10.4702
▁बोर	-10.4712
▁प्रत्याशियों	-10.4713
▁विशिष्ट	-10.4713
▁रिटर्न	-10.4713
▁अंबेडकर	-10.4715
▁पुजारी	-10.4718
▁250	-10.4719
ढ़	-10.472
यह	-10.4722
▁किये	-10.4722
▁डबल	-10.4723
▁राखी	-10.4735
▁मुकदमे	-10.4736
▁उत्पाद	-10.4742
▁बताने	-10.4744
▁एक्सीडेंट	-10.4761
▁जश्न	-10.4761
▁प्रांत	-10.4761
▁प्राथमिकी	-10.4762
▁देखभाल	-10.4762
माल	-10.4765
▁भरत	-10.4766
▁मि	-10.4768
▁मैन	-10.4772
▁प्रस्तावित	-10.4781
▁आत्म	-10.4785
▁सीन	-10.4788
गल	-10.4796
▁ऐ	-10.4798
तौर	-10.4798
▁छाए	-10.4807
▁इमरान	-10.4808
▁बजरंग	-10.4809
▁लाइव	-10.4809
▁ऑन	-10.4809
▁सौंपी	-10.4812
▁थानों	-10.4815
राष्ट्रीय	-10.4821
ri	-10.4825
▁X	-10.4829
▁पात्र	-10.4829
▁मित्र	-10.4831
जगह	-10.4832
▁कमर	-10.4836
▁पौ	-10.4838
पूर्व	-10.4839
▁आर्य	-10.4843
▁अमृत	-10.4849
लि	-10.4853
▁कार्यकारिणी	-10.4856
▁फर्म	-10.4857
▁शिंदे	-10.4858
▁डीसीपी	-10.4872
▁करीबी	-10.4877
▁49	-10.4883
▁सियास	-10.4886
▁02	-10.4901
▁सैनिकों	-10.4904
▁पूनम	-10.4904
▁सुर्खिय	-10.4904
▁राठौर	-10.4904
▁वाटर	-10.4904
▁उमस	-10.4905
▁करो	-10.4907
am	-10.4907
▁गोलियां	-10.4907
▁हटाया	-10.4908
▁दिला	-10.4909
▁हवाले	-10.4909
▁जहर	-10.4909
▁मास	-10.4911
▁ललित	-10.4921
▁करार	-10.4922
▁हट	-10.4927
▁असली	-10.494
on	-10.4941
▁लिखी	-10.4941
▁कहकर	-10.4949
▁डेब्यू	-10.4952
▁दहेज	-10.4952
▁हमलों	-10.4953
ग्र	-10.4958
▁भरतपुर	-10.4958
▁पैनल	-10.4959
▁अंग्रेजी	-10.4959
▁रुप	-10.4964
तु	-10.4969
हल	-10.4971
▁लाए	-10.4982
▁जीती	-10.4986
गन	-10.4991
▁गूगल	-10.5001
▁मकसद	-10.5001
▁गाजियाबाद	-10.5002
▁जायजा	-10.5004
▁जानने	-10.5004
ोन	-10.5007
▁आसार	-10.5008
▁सोन	-10.5012
▁पीजी	-10.5013
▁एक्टिंग	-10.5014
▁बुलाकर	-10.5016
▁पूछे	-10.5017
24	-10.5017
▁शैक्षणिक	-10.5051
▁बचपन	-10.5051
▁विक्की	-10.5052
▁भागीदारी	-10.5055
▁बेहोश	-10.5065
▁शि	-10.507
▁लड़का	-10.5073
▁वेस्ट	-10.5078
▁हसन	-10.5079
वत	-10.5079
-10	-10.5081
▁लेटर	-10.5096
▁ब्रांड	-10.5098
▁रिटायर्ड	-10.51
▁ओबीसी	-10.5101
▁भागलपुर	-10.5102
▁वनडे	-10.5102
▁मिसाइल	-10.5104
था	-10.5104
▁हथियारों	-10.5105
▁मदन	-10.5107
▁न्यूज	-10.511
▁सख्ती	-10.5131
ोली	-10.5133
▁प्रयासों	-10.5139
▁डिटेल	-10.5141
▁मल	-10.5146
▁प्रोत्साह	-10.5147
▁ट्रायल	-10.5148
▁पारंपरिक	-10.5148
▁दिवाली	-10.5148
▁गुहार	-10.5149
▁अश्लील	-10.5149
▁अनुसूचित	-10.515
▁पाएंगे	-10.515
▁महंगाई	-10.5153
▁झांसा	-10.5155
▁वायु	-10.5163
र्क	-10.5169
▁सेशन	-10.5171
▁लटका	-10.5174
खेड़ा	-10.5179
▁मुझस	-10.5184
▁साह	-10.5188
त्र	-10.5195
▁हि	-10.5197
▁आबकारी	-10.5198
▁दिमाग	-10.5198
▁पीढ़ी	-10.5198
▁सेकंड	-10.5198
▁आजमगढ़	-10.5198
▁हत्याकांड	-10.5199
▁रतलाम	-10.5199
▁बेड	-10.5199
▁जैसलमेर	-10.52
▁घटनाक्रम	-10.52
▁सवाई	-10.5203
▁प्रदर्शनी	-10.5204
▁प्राप्ति	-10.5204
▁सिरसा	-10.5205
▁दिलाई	-10.5205
ed	-10.5209
▁लॉ	-10.5213
▁ति	-10.5215
▁डूबने	-10.5217
▁देखे	-10.5225
▁सिंगल	-10.5237
▁घेर	-10.524
60	-10.5247
▁अभय	-10.5247
▁आधुनिक	-10.5247
▁चंद्रशेखर	-10.5247
▁दबिश	-10.5248
▁चीजें	-10.525
▁2000	-10.5253
▁वेद	-10.5257
ांक	-10.5259
▁खंड	-10.5262
▁UP	-10.5265
▁पहुंचेगी	-10.527
it	-10.5275
▁तृतीय	-10.5277
▁कलर	-10.5282
बाग	-10.5284
भा	-10.5286
्होंने	-10.5292
▁ओलंपिक	-10.5297
-8	-10.5298
▁तैयारियों	-10.5302
▁लिखकर	-10.5308
▁केशव	-10.5308
क्र	-10.5311
▁लाई	-10.5314
▁कपल	-10.532
▁हे	-10.5327
▁बुझा	-10.5332
▁य	-10.5335
▁कांस्टेबल	-10.5348
▁निश्चित	-10.5348
▁समझौते	-10.5348
▁उपायुक्त	-10.5348
▁वरुण	-10.535
▁दरभंगा	-10.5351
यर	-10.5351
14	-10.5353
▁ईयर	-10.5355
▁घूमने	-10.5367
नारायण	-10.5373
▁अंतर्	-10.5374
18	-10.5381
▁सुनी	-10.5394
at	-10.5395
▁दहशत	-10.5398
▁तोड़फोड़	-10.5398
▁जलस्तर	-10.5399
▁अतुल	-10.5399
▁बाधित	-10.54
▁IPL	-10.5401
▁स्पीड	-10.5402
▁सबक	-10.5408
▁स्कूली	-10.5413
जू	-10.5418
▁आईटी	-10.542
▁गुस्सा	-10.5422
िक्स	-10.5422
▁E	-10.5424
▁चि	-10.5424
▁शिवम	-10.5425
▁लगती	-10.5433
▁टा	-10.5439
दान	-10.5442
▁न्यूजीलैंड	-10.5449
▁आयुष	-10.545
▁दि	-10.5456
▁निभाई	-10.5457
अप	-10.5458
जो	-10.5459
▁बीत	-10.5459
वाई	-10.5465
॥	-10.5475
▁तोमर	-10.5476
▁आंकड़ा	-10.5479
▁बोलने	-10.5481
़ी	-10.5482
▁खेलते	-10.5482
▁आईपीएल	-10.55
▁स्थायी	-10.55
▁हड़कंप	-10.55
▁साक्ष्य	-10.55
▁बकाया	-10.55
▁नज़र	-10.55
▁गैंगस्टर	-10.55
▁रिहा	-10.5502
▁अहमदाबाद	-10.5503
▁ईंट	-10.5506
▁मोहित	-10.5508
▁अल्पसंख्यक	-10.551
13	-10.5523
▁चांद	-10.5523
▁चुने	-10.5525
ल्लू	-10.5526
▁गार्डन	-10.5527
▁लिख	-10.5527
▁चावल	-10.5532
िप	-10.554
▁हवाला	-10.5545
▁चिकित्सकों	-10.5545
▁चोपड़ा	-10.5551
▁शशि	-10.5551
▁छिंदवाड़ा	-10.5552
▁ऐश्वर्या	-10.5554
re	-10.5556
▁एजेंट	-10.5561
▁इंसान	-10.5561
▁हमास	-10.5564
▁बंधक	-10.5568
▁मामा	-10.5573
▁काटकर	-10.5574
▁जानकार	-10.5575
▁नकदी	-10.5577
▁गौर	-10.5581
▁अव	-10.5582
▁बिग	-10.5586
▁चढ़ा	-10.559
भूत	-10.5596
त्	-10.5596
ॉन	-10.5598
80	-10.56
▁पहुंचते	-10.56
▁सिलसिला	-10.5603
▁नामजद	-10.5603
▁शोभायात्रा	-10.5603
▁यूजर	-10.5603
▁बेंच	-10.5605
▁दरवाजे	-10.5606
ल्ट	-10.5607
▁भागवत	-10.561
▁डॉक्टर्स	-10.5611
▁सांसदों	-10.5612
▁एफ	-10.562
टू	-10.5622
▁टैंकर	-10.5625
झा	-10.5632
पे	-10.5645
▁एच	-10.5651
▁108	-10.5651
▁घी	-10.5652
▁थीम	-10.5652
▁मालूम	-10.5655
▁मुखबिर	-10.5655
▁हॉस्टल	-10.5655
▁बस्तर	-10.5655
▁आरक्षक	-10.5657
▁गुल	-10.5657
शि	-10.5658
▁सत	-10.5659
▁बेस	-10.5661
▁कमेंट	-10.5669
▁कैच	-10.5671
▁स्टोरी	-10.5682
▁सुर	-10.5682
ावत	-10.5687
▁जुटे	-10.5689
▁इंद्र	-10.569
▁120	-10.5691
धारी	-10.5697
70	-10.5699
▁गंवा	-10.5704
▁कश्यप	-10.5707
▁शॉर्ट	-10.5707
▁जन्मदिन	-10.5707
▁मनमोहन	-10.5707
▁आयुष्म	-10.571
▁इकट्ठा	-10.571
▁लोहे	-10.571
तीन	-10.5712
▁बनना	-10.5714
▁दुकानदारों	-10.5721
धिक	-10.5726
▁03	-10.5728
SO	-10.5736
▁उमेश	-10.5737
▁हां	-10.5744
▁गेम	-10.5752
▁जवाहर	-10.5758
▁सिद्धार्थ	-10.5758
▁बेगूसराय	-10.5759
▁फरीदाबाद	-10.5759
▁फ्रंट	-10.5759
▁दौसा	-10.5759
▁ध	-10.576
▁प्राचीन	-10.5761
▁बैंड	-10.5764
▁04	-10.5772
र्न	-10.5773
▁गवाह	-10.5779
नो	-10.5782
▁राह	-10.579
▁पट	-10.5805
▁112	-10.5808
▁स्क्रीन	-10.581
▁निष्पक्ष	-10.5812
▁सभागार	-10.5812
▁रेस्टोरेंट	-10.5813
▁क्रिकेटर	-10.5816
▁दुल्हन	-10.5818
:00	-10.5819
▁चमक	-10.5819
▁निधि	-10.5822
▁अंबाला	-10.5829
्ता	-10.5844
ड़िया	-10.5847
▁विज	-10.5847
▁लोगो	-10.5848
पत्र	-10.5848
▁पंजाबी	-10.5851
....	-10.5859
स्प	-10.5862
▁ब्रिटेन	-10.5864
▁लेपर्ड	-10.5864
▁शाहरुख	-10.5864
▁पेमेंट	-10.5866
▁विसर्जन	-10.5866
▁बेटियों	-10.5866
▁लैब	-10.5869
▁संस्थाओं	-10.5881
▁मै	-10.5888
▁सड़कें	-10.5897
▁चाह	-10.5898
▁भंडार	-10.5905
▁उत्पीड़न	-10.5918
▁छानबीन	-10.5918
▁ट्रेड	-10.5918
▁जर्जर	-10.5918
▁प्रतिनिधित्व	-10.5918
▁भ्रमण	-10.5919
▁दहन	-10.592
▁ब्लैक	-10.592
▁ED	-10.5926
▁साधा	-10.5935
▁बड़	-10.5936
▁शिकायतों	-10.5939
▁कै	-10.5944
ारा	-10.5962
▁मिलना	-10.5968
▁बोतल	-10.5969
▁कंपनियां	-10.5971
▁मामूली	-10.5971
▁Lok	-10.5971
▁सबको	-10.5972
▁अफगानिस्तान	-10.5972
▁त्रि	-10.5974
▁चा	-10.5992
▁गहन	-10.6006
▁विषयों	-10.601
▁पुलिया	-10.6015
िग	-10.6021
▁उतरे	-10.6024
▁बृज	-10.6024
▁एजुकेशन	-10.6025
▁एजेंसियों	-10.6025
▁मालदीव	-10.6025
▁वातावरण	-10.6025
▁नतीजे	-10.6025
▁धक्का	-10.6025
▁गिनती	-10.6026
▁कैसा	-10.6026
▁ऊंचाई	-10.6027
▁देखिए	-10.6029
▁हरी	-10.6031
▁बैच	-10.6032
▁रजिस्ट्री	-10.6035
▁पत्रकारों	-10.6037
▁दुकानें	-10.6042
▁योगेश	-10.6055
▁करवाए	-10.6057
▁नवरात्रि	-10.6062
▁हरीश	-10.6063
31	-10.6079
▁हस्ताक्षर	-10.6079
▁शौचालय	-10.6079
▁इंटरनेट	-10.6079
▁संरक्षक	-10.6079
▁ईवीएम	-10.6079
▁अब्दुल	-10.608
▁एएसपी	-10.608
▁हिन्दू	-10.608
▁अतिथियों	-10.6082
▁गर्व	-10.6083
▁उपभोक्ताओं	-10.6084
▁विश्वनाथ	-10.6084
▁नष्ट	-10.6087
तन	-10.6088
▁छवि	-10.609
▁टीआई	-10.6091
कम	-10.6114
▁ईरानी	-10.6119
ंब	-10.6121
▁स्थलों	-10.6123
▁06	-10.6129
▁खतरनाक	-10.6133
दु	-10.6134
▁जीव	-10.6137
▁बचे	-10.6139
▁किलोग्राम	-10.6142
▁नायक	-10.6148
▁85	-10.6152
▁तर	-10.6159
्फ	-10.616
ॉल	-10.6165
▁ढूंढ	-10.6173
▁पॉइंट	-10.6183
▁रोशनी	-10.6188
▁नालंदा	-10.6188
▁फैमिली	-10.6188
▁ट्रांसपोर्ट	-10.6188
▁निर्माता	-10.6188
▁अवकाश	-10.6188
11	-10.6189
▁लोड	-10.6196
▁पुरी	-10.6197
▁प्लानिंग	-10.6201
▁स्प	-10.6209
▁कामयाब	-10.6209
ंज	-10.621
▁चौ	-10.6216
शिप	-10.6218
▁जाल	-10.6218
▁लड़क	-10.6221
▁कहता	-10.6223
▁अनुज	-10.6243
▁उजागर	-10.6243
▁एसयूवी	-10.6243
▁कारतूस	-10.6243
▁क्रेडिट	-10.6243
▁झुलस	-10.6243
▁लेबनान	-10.6243
▁लॉरेंस	-10.6243
▁जयशंकर	-10.6244
vs	-10.6245
▁गुरुद्वारा	-10.6248
▁साझेदारी	-10.6249
▁दृष्टि	-10.6261
▁नल	-10.6261
▁विशेषज्ञों	-10.6264
▁मुसलमानों	-10.6271
▁आत्मा	-10.6286
▁इंस्टीट्यूट	-10.6298
▁दृष्टिकोण	-10.6298
▁पॉलिसी	-10.6298
▁बंसल	-10.6298
▁खातों	-10.6298
▁मेल	-10.6303
▁2009	-10.6304
▁सोनिया	-10.6304
▁पकड़कर	-10.6306
मि	-10.6307
▁प्लेट	-10.6308
▁कैंपस	-10.6312
▁सवालों	-10.6313
द्र	-10.6314
▁09	-10.6323
▁मरने	-10.6329
-19	-10.6331
▁अंतरि	-10.6333
पु	-10.6338
▁शिकायतें	-10.6339
▁काउंसिल	-10.6349
▁विवि	-10.6352
रों	-10.6353
▁बाधा	-10.6353
▁माफिया	-10.6353
▁CCTV	-10.6354
▁जगन्नाथ	-10.6354
▁विश्वकर्मा	-10.6354
▁जॉब	-10.6354
▁डीजीपी	-10.6354
▁यज्ञ	-10.6354
▁शा	-10.6355
▁सूचित	-10.6355
▁मोर	-10.6356
▁बैठी	-10.637
▁महान	-10.6374
ाइज	-10.6397
▁उल्लेखन	-10.6399
▁छिपा	-10.6407
▁जानलेवा	-10.641
▁बॉन्ड	-10.641
▁निर्यात	-10.641
▁विधेयक	-10.641
▁प्लॉट	-10.641
▁डिवीजन	-10.6411
▁रोडवेज	-10.6411
▁रत्न	-10.6417
पो	-10.6417
▁बीमारियों	-10.6419
▁लगाना	-10.6427
▁54	-10.6427
▁चौथी	-10.6431
ाब	-10.6433
▁यूरोप	-10.6436
▁सन	-10.6439
ष्ट	-10.6447
▁लाकर	-10.6453
ऊ	-10.6454
▁एकजुट	-10.6459
▁स्वच्छ	-10.6459
▁कोषाध्यक्ष	-10.6466
▁कोरोना	-10.6466
▁परिस्थितियों	-10.6466
▁मद्देनजर	-10.6466
▁सोलर	-10.6466
▁दीपिका	-10.6468
दम	-10.6468
▁निकासी	-10.6469
▁दा	-10.6471
▁78	-10.6487
अर्चना	-10.65
▁ओपन	-10.6508
त्त	-10.6513
▁सां	-10.6515
▁उपभोक्ता	-10.6517
▁ऋषभ	-10.6522
▁विज्ञापन	-10.6522
▁सोलंकी	-10.6522
▁Sabha	-10.6522
▁परिचय	-10.6522
▁सुराग	-10.6522
▁असिस्टेंट	-10.6522
▁ऑप्शन	-10.6522
क्या	-10.6522
▁एसएचओ	-10.6522
▁बलरामपुर	-10.6524
▁वसूल	-10.6525
▁गज	-10.6528
▁परियोजनाओं	-10.6533
st	-10.6539
▁कल्पना	-10.6546
▁दिखाकर	-10.6554
पत्नी	-10.6554
▁लीड	-10.6554
▁लेट	-10.6556
न्त	-10.6556
▁गेंदबाजी	-10.6566
▁सीख	-10.6568
ात्मक	-10.657
▁दावे	-10.6579
▁ट्वीट	-10.6579
▁रिश्ता	-10.6579
▁श्रवण	-10.6579
▁भिवानी	-10.6579
▁शोषण	-10.6579
▁कुर्सी	-10.658
▁सर्जन	-10.658
▁गहरी	-10.658
▁ऑ	-10.6583
▁कस	-10.6583
▁58	-10.6583
▁पैमान	-10.6584
▁कमीशन	-10.6584
▁निर्देशित	-10.6589
▁उल्लेख	-10.659
▁धरने	-10.6591
प्रारंभिक	-10.661
▁सतना	-10.6615
▁द्वार	-10.6618
▁औ	-10.6628
▁कठिन	-10.6635
▁एम्बुलेंस	-10.6636
▁सर्किल	-10.6636
▁सीमित	-10.6636
▁चैंपियनशिप	-10.6636
▁झलक	-10.6637
▁बाबूलाल	-10.6638
▁मांझी	-10.664
▁रायगढ़	-10.6644
▁अपमान	-10.6644
▁चोटें	-10.6644
▁एम्स	-10.6656
▁बढ़ाई	-10.6665
J	-10.6667
▁1000	-10.6668
बो	-10.6669
हत	-10.667
▁पर्यटकों	-10.6671
▁ताल	-10.6673
▁कराना	-10.6678
▁कार्यकार	-10.6679
र्ज	-10.6686
ुन	-10.6686
▁वाद	-10.6692
▁मित्तल	-10.6694
▁वैष्णव	-10.6694
▁सोसाइटी	-10.6694
▁वंचित	-10.6694
▁सुधीर	-10.6694
▁फेज	-10.6697
▁छाया	-10.6697
▁कालेज	-10.67
ुरी	-10.6714
▁अश्विन	-10.6719
▁ब्यूरो	-10.6729
▁चित्र	-10.6733
-4	-10.6734
▁बालू	-10.6735
बू	-10.6745
▁अवस्था	-10.6747
▁शाही	-10.6748
▁पारित	-10.6751
▁CBI	-10.6751
▁आवंटित	-10.6751
▁कैटेगरी	-10.6751
▁पारिवारिक	-10.6751
▁फाजिल्का	-10.6751
▁बरकरार	-10.6751
▁मशक्कत	-10.6751
▁विस्तृत	-10.6751
▁शातिर	-10.6751
▁भीलवाड़ा	-10.6752
▁ठोस	-10.6752
▁रक्तदान	-10.6752
▁स्पॉट	-10.6752
▁जदयू	-10.6752
▁ओमप्रकाश	-10.6752
▁सीधी	-10.6752
▁दमकल	-10.6753
ुम	-10.6753
▁2013	-10.6756
ाइड	-10.6757
▁आरा	-10.6761
▁समस्याएं	-10.6761
▁पीड़ितों	-10.6762
▁निर्मला	-10.6769
▁लेता	-10.6771
▁खेड़ा	-10.6781
X	-10.6785
and	-10.6787
जि	-10.679
ch	-10.6791
▁सेवन	-10.6794
▁हिट	-10.6795
▁जड़	-10.6804
ाली	-10.6806
▁चु	-10.6806
▁जंक्शन	-10.681
▁किशनगंज	-10.6811
▁शीघ्र	-10.6812
▁शिवपुरी	-10.6812
▁अनूप	-10.6813
जब	-10.6815
▁अकाली	-10.6827
▁07	-10.6833
29	-10.6834
▁शोक	-10.6848
▁शिकायतकर्ता	-10.6849
▁डाली	-10.6862
▁डॉग	-10.6862
वाद	-10.6868
▁पृथ्वी	-10.6868
▁अमेठी	-10.6868
▁रणबीर	-10.6868
▁दुबई	-10.687
▁पार्वती	-10.6871
▁शोरूम	-10.6873
▁एलान	-10.6878
▁खरीदारी	-10.6884
▁आपदा	-10.6885
▁खेलों	-10.689
रु	-10.6891
▁हंस	-10.6892
▁जला	-10.6895
ीम	-10.6896
21	-10.6898
▁चक	-10.6899
आउट	-10.6902
▁थम	-10.6908
▁कागज	-10.6912
▁समर	-10.6912
▁तोड़ा	-10.6924
▁अंचल	-10.6927
▁वितरित	-10.6927
▁गहरे	-10.6927
▁बक्सर	-10.6927
▁आंधी	-10.6927
▁गर्भवती	-10.6927
▁रणवीर	-10.6927
▁प्रिंस	-10.6927
▁सर्किट	-10.6929
▁दिलाया	-10.6931
▁मेंबर	-10.6933
▁आधी	-10.6933
28	-10.6937
अर	-10.6938
▁खबरें	-10.694
भाषा	-10.6969
▁W	-10.6973
▁विद्यालयों	-10.6977
x	-10.6984
पत	-10.6985
ad	-10.6986
▁आवागमन	-10.6986
▁कैप्टन	-10.6986
▁सस्पेंड	-10.6986
▁एमडी	-10.6987
▁प्रतिभागियों	-10.6987
▁रूपए	-10.6988
▁संस्थापक	-10.6988
▁2012	-10.6991
▁आंख	-10.7002
▁टैंक	-10.702
नाम	-10.7022
▁आईआईटी	-10.7035
डि	-10.7035
▁छिप	-10.7037
▁चुनौतिय	-10.7045
▁चैंपियन	-10.7045
▁आवंटन	-10.7046
▁डिपार्टमेंट	-10.7046
▁बुनियाद	-10.7046
▁दीक्षित	-10.7046
▁परफॉर्मेंस	-10.7046
▁कॉपी	-10.7047
▁तर्क	-10.7047
▁ट्रेंड	-10.7048
▁जेवर	-10.7049
▁परि	-10.705
▁श्रम	-10.7058
कर्मी	-10.7064
▁जुड़	-10.7065
नपुर	-10.7071
ात	-10.7073
गण	-10.7077
▁बगल	-10.7083
▁पिच	-10.7086
एक्स	-10.709
▁हद	-10.7091
कों	-10.7096
कू	-10.7097
▁निर्भर	-10.7099
णा	-10.7102
▁रैंक	-10.7102
▁ससुर	-10.7102
▁बढ़ाकर	-10.7103
▁सेकेंड	-10.7103
▁O	-10.7105
▁काउंसलिंग	-10.7106
▁स्ट्रीट	-10.7106
▁अपलोड	-10.7106
▁फाइनेंस	-10.7106
▁मिठाई	-10.7106
▁स्टॉक	-10.7107
▁रेवाड़ी	-10.7108
..	-10.711
▁2008	-10.711
▁फील्ड	-10.7111
▁अर्थ	-10.7111
ाचार्य	-10.7112
ोल	-10.7125
▁पाकर	-10.7129
▁जिम	-10.7129
▁रखता	-10.7134
रिक्शा	-10.7141
▁दंड	-10.7144
▁कोरिया	-10.7151
▁मुनि	-10.7163
▁सऊदी	-10.7166
▁अफवाह	-10.7166
▁अभ्यास	-10.7166
▁जीएसटी	-10.7169
▁अंतरिक्ष	-10.7169
▁दोषियों	-10.7169
▁बालाजी	-10.7169
90	-10.7171
▁नागर	-10.7171
▁आवासीय	-10.718
▁लौटे	-10.7183
राव	-10.7198
▁धो	-10.7202
▁कन	-10.7204
▁कुचल	-10.721
▁जेब	-10.7212
▁प्रा	-10.7212
फ़ी	-10.7214
न्द	-10.7215
जाने	-10.722
▁लड्डू	-10.7226
▁आरजेडी	-10.7226
▁जूझ	-10.7227
▁गृहमंत्री	-10.7227
▁प्राकृतिक	-10.7228
▁जनजाति	-10.7233
▁AAP	-10.7234
▁प्रतिबंधित	-10.7234
▁संस्कृत	-10.7236
▁बोलते	-10.7239
प्रीत	-10.7239
ार्थ	-10.7249
नियंत्रित	-10.7262
▁ब्रह्म	-10.7267
27	-10.7273
▁बैनर	-10.7274
ur	-10.7277
जर	-10.7277
▁वर	-10.7284
▁उपमुख्यमंत्री	-10.7288
▁दबंग	-10.7289
▁निर्मित	-10.729
नू	-10.7298
▁बोलीं	-10.7298
▁चतुर्थी	-10.7299
▁खिला	-10.7302
▁मुख	-10.7304
▁फुट	-10.7305
▁जहाज	-10.7307
▁आमने	-10.7307
ेरा	-10.7314
▁गुलाब	-10.7315
▁छू	-10.7318
ाप	-10.7321
▁पार्षदों	-10.7327
▁कवर	-10.7331
▁पुरुषों	-10.7331
▁आकर्षक	-10.7349
▁सत्यापन	-10.7349
▁हल्के	-10.7349
▁भिलाई	-10.7349
▁रंजीत	-10.7349
▁रंजिश	-10.7349
▁निपटने	-10.7351
िंदर	-10.7355
▁सजाया	-10.7362
ड्	-10.7366
▁चयनित	-10.7366
▁आर्ट	-10.7367
▁कामना	-10.7368
▁खंडवा	-10.7372
▁ट्रेनें	-10.7374
▁बराबर	-10.7377
▁बहाल	-10.7382
्वा	-10.7392
▁अस	-10.7393
▁सवारी	-10.7398
▁Election	-10.7409
▁योग्य	-10.741
▁कंप्यूटर	-10.741
▁माधोपुर	-10.741
▁सक्सेना	-10.741
▁झील	-10.741
▁रोड़	-10.7411
कट	-10.7413
त्व	-10.7413
▁बलों	-10.7415
▁स्वीकृत	-10.7416
▁भतीजे	-10.7418
▁दर्जा	-10.7418
▁नाइट	-10.7423
म्ब	-10.7424
▁उन्ही	-10.7429
▁मधु	-10.743
ृत	-10.7432
▁चर्च	-10.7447
▁मौर्य	-10.7452
▁गौरी	-10.746
▁ठ	-10.7467
▁हुड्	-10.7472
▁2024-25	-10.7473
▁देहात	-10.7473
▁कबूल	-10.7474
धन	-10.7475
▁छात्रावास	-10.7475
▁एडिशनल	-10.7476
▁गेस्ट	-10.7478
▁दशहरा	-10.7478
▁ज्योतिष	-10.7479
▁साइन	-10.7481
▁टंकी	-10.7483
▁सरदार	-10.7483
▁आराम	-10.7486
▁लेती	-10.7489
▁ढेर	-10.7491
▁दक्षिणी	-10.7495
▁लॉक	-10.7497
▁नेहा	-10.7499
▁गाना	-10.7501
▁MP	-10.7503
▁पदस्थ	-10.7507
पढ़ें	-10.751
▁साइट	-10.7512
41	-10.7516
▁फूलों	-10.7517
लू	-10.7521
▁99	-10.753
▁गोवा	-10.753
▁थप्पड़	-10.7535
▁रिंकू	-10.7535
▁हिम्मत	-10.7535
▁मालवीय	-10.7535
▁कठोर	-10.7535
▁अनुरूप	-10.7535
▁कारावास	-10.7536
▁स्नातक	-10.7538
▁पानीपत	-10.7541
▁स्टेशनों	-10.7545
▁लीला	-10.7547
▁दाल	-10.7548
▁उपकरण	-10.756
▁साव	-10.756
ारी	-10.7567
▁67	-10.7581
▁लिखे	-10.7582
▁साधन	-10.7584
▁धर	-10.7593
▁सेंसेक्स	-10.7598
▁टोंक	-10.7598
▁शेखावत	-10.7598
▁चित्तौड़गढ़	-10.7599
▁आभूषण	-10.7602
▁जता	-10.7611
▁आरोपित	-10.7612
▁0	-10.7615
सि	-10.7618
▁साधक	-10.7634
▁तल	-10.7637
le	-10.7639
la	-10.7642
▁अदा	-10.7654
रीबन	-10.7654
▁दत्त	-10.7657
ोत्सव	-10.7658
01	-10.7658
▁अमावस्या	-10.7661
▁नोडल	-10.7661
▁मुरैना	-10.7661
▁सच्चाई	-10.7662
▁ओपीडी	-10.7663
▁प्रतिनिधियों	-10.7663
▁आर्यन	-10.7665
▁मिलियन	-10.7667
48	-10.7668
15	-10.7673
▁आलिया	-10.7678
▁रनों	-10.7679
▁नक्सली	-10.768
▁95	-10.7681
▁पुत्री	-10.7682
▁निकाय	-10.7684
▁बैठने	-10.7684
▁अधिकारों	-10.7687
▁मुफ्त	-10.7691
▁फ्लोर	-10.7694
▁प्रीति	-10.7696
तू	-10.7699
रात	-10.7705
▁सिद्ध	-10.771
▁₹	-10.7723
▁सीए	-10.7724
▁घबरा	-10.7725
▁निरंतर	-10.7725
▁वेरिएंट	-10.7725
▁सम्राट	-10.7725
▁परमाणु	-10.7725
▁प्लेटफार्म	-10.7725
▁गरबा	-10.7725
▁अनुमंडल	-10.7725
▁आनन	-10.7726
▁हाथरस	-10.7726
▁देवास	-10.7727
▁सोचा	-10.7729
▁भूषण	-10.7737
ेबल	-10.7739
▁सेवक	-10.774
्ज	-10.775
23	-10.7753
ir	-10.7754
-5	-10.7766
un	-10.7768
मात्र	-10.777
▁संवेदनशील	-10.7785
▁जमुई	-10.7789
▁क्‍या	-10.7789
फानन	-10.779
▁मासिक	-10.7795
▁हायर	-10.7797
▁कुंभ	-10.78
▁उपलब्धि	-10.7802
▁सिल	-10.7802
▁रहमान	-10.7803
्यु	-10.7804
▁तंज	-10.7806
▁पड़ती	-10.7807
ोप	-10.781
▁600	-10.7811
▁गहने	-10.7814
.15	-10.7848
▁गतिविधि	-10.7853
▁गंदगी	-10.7854
▁लकड़ी	-10.7854
▁महासभा	-10.7854
▁चलाते	-10.7854
▁हॉकी	-10.7855
▁रणजीत	-10.7855
▁निंदा	-10.7858
▁बचाया	-10.786
▁लोकल	-10.7863
▁बसंत	-10.7865
टेक	-10.7871
पू	-10.7882
▁बर्बाद	-10.7885
▁बाला	-10.7896
▁खिल	-10.7901
▁लालच	-10.7905
▁उत्पन्न	-10.7918
▁समाजसेवी	-10.7918
▁सर्वेक्षण	-10.7918
▁हज़ार	-10.7918
▁हेक्टेयर	-10.7918
▁वक्फ	-10.7919
▁प्रकृति	-10.7919
▁न्यायमूर्ति	-10.7919
▁धोखा	-10.7919
▁गणपति	-10.7919
▁विदाई	-10.792
▁बिंदु	-10.792
▁मस्क	-10.7922
16	-10.7924
▁शनि	-10.7924
▁महल	-10.793
▁महीना	-10.793
सल	-10.7931
▁जातक	-10.7932
▁दिखाते	-10.7932
समय	-10.7934
▁57	-10.7954
-2024	-10.7958
▁फि	-10.7963
▁वैन	-10.7969
04	-10.7972
▁समझने	-10.7972
शु	-10.7973
▁कैंट	-10.7974
▁समन्वय	-10.7975
राना	-10.7976
वादी	-10.7978
▁रू	-10.7981
▁डोनाल्ड	-10.7984
▁बुलडोजर	-10.7984
▁विजयवर्गीय	-10.7984
ोरा	-10.7984
▁जम	-10.7984
▁जेसीबी	-10.7984
▁रिकार्ड	-10.7984
▁आवाजाही	-10.7984
▁पथराव	-10.7984
▁परिचित	-10.7985
▁पासपोर्ट	-10.7988
▁पिछड़ा	-10.799
▁सिंगर	-10.7991
▁दीं	-10.7993
ीना	-10.7994
ग्	-10.7995
▁चलाए	-10.7997
▁मेगा	-10.8005
▁ताजा	-10.8006
▁शर्त	-10.8006
▁शूट	-10.8012
▁नकद	-10.8016
▁कोड	-10.8017
▁जापान	-10.8022
▁सालाना	-10.8024
▁बहु	-10.803
▁बजा	-10.8036
▁आईजी	-10.8039
कोट	-10.8045
▁अगुवाई	-10.805
▁जोखिम	-10.805
▁डिफेंस	-10.805
▁दरोगा	-10.805
▁निषाद	-10.805
▁पश्चात	-10.805
▁मयंक	-10.805
▁जीआरपी	-10.8051
▁पर्सनल	-10.8052
▁डिवाइस	-10.8054
हो	-10.8057
▁बनेंगे	-10.8061
सान	-10.8065
बाल	-10.8065
▁फैलाने	-10.8069
▁मुताबिक़	-10.8075
वाले	-10.8091
▁SP	-10.8093
▁इनाम	-10.8097
आप	-10.8104
47	-10.8107
▁रॉय	-10.8111
ैन	-10.8112
▁उमर	-10.8115
▁सर्वाधिक	-10.8116
▁सिद्दीकी	-10.8116
▁क़रीब	-10.8116
▁औरंगाबाद	-10.8116
▁प्राइम	-10.8116
▁अग्निवीर	-10.8116
▁वेब	-10.8116
▁सैलरी	-10.8116
▁रोष	-10.8117
▁शेड्यूल	-10.8117
▁सलाहकार	-10.8118
▁राजेन्द्र	-10.8121
z	-10.8123
32	-10.8127
▁पहलवान	-10.8128
▁?	-10.8134
▁ग्रेड	-10.8136
▁नवरात्र	-10.8137
▁62	-10.8141
▁कमाल	-10.8142
▁बलिया	-10.8147
नर	-10.8148
en	-10.8148
▁॥	-10.8149
▁डाक	-10.8154
टन	-10.8158
सफाई	-10.816
जय	-10.8166
लाइन	-10.8168
▁शवों	-10.817
▁नंद	-10.8171
▁चुप	-10.8175
▁उत्कृष्ट	-10.8175
▁रिटायर	-10.8181
▁अविनाश	-10.8182
▁क्लिक	-10.8182
▁नतीजों	-10.8182
▁वंदे	-10.8183
▁इलाका	-10.8183
▁बंधन	-10.8183
▁एसीबी	-10.8184
▁अवतार	-10.8184
▁प्रजापति	-10.8184
▁कुएं	-10.8186
▁चिल्ला	-10.8186
▁संतुलन	-10.8187
▁निकाले	-10.8187
▁अलीगढ़	-10.8188
26	-10.8188
▁स्टेज	-10.8188
▁भिंड	-10.819
▁आक्रोशित	-10.8191
▁जींद	-10.8192
ँ	-10.8193
▁गड्ढे	-10.8195
▁डायल	-10.8195
34	-10.8196
▁कुंड	-10.8199
▁टूटा	-10.82
ोज	-10.8202
कला	-10.8204
▁भूख	-10.8206
▁भीम	-10.8207
-11	-10.8214
कुमार	-10.8219
वासी	-10.8221
लेखक	-10.8224
▁मल्टी	-10.8227
▁ताज	-10.8228
▁सहकार	-10.823
▁53	-10.8235
▁खोले	-10.8237
or	-10.8241
▁स्वतंत्र	-10.8247
▁भार्गव	-10.825
▁लंदन	-10.825
▁सरगुजा	-10.825
▁मंत्रिमंडल	-10.825
▁थर्ड	-10.825
37	-10.8251
यी	-10.8251
▁रायबरेली	-10.8251
▁रामायण	-10.8254
▁झांकी	-10.8258
्च	-10.826
▁रिक्त	-10.8283
बड़े	-10.8307
05	-10.8307
▁ओपी	-10.831
▁पाता	-10.8311
िड	-10.8313
46	-10.8317
▁अभिनेत्री	-10.8317
▁झामुमो	-10.8317
▁वायनाड	-10.8317
▁सिफारिश	-10.8317
▁खिताब	-10.8317
▁हिमांशु	-10.8317
▁लिफ्ट	-10.8317
▁गरज	-10.8317
▁कामकाज	-10.8319
▁वस्त्र	-10.8325
▁पोषण	-10.8326
ीं	-10.833
200	-10.8332
▁पहने	-10.8334
▁लैंड	-10.834
▁फर	-10.8343
सो	-10.8345
▁मजबूती	-10.8351
▁खर	-10.8351
▁रस	-10.8355
पल	-10.8355
▁माधव	-10.8357
▁66	-10.836
▁निर्मल	-10.8365
ेक्स	-10.8367
जीवन	-10.8375
कर्मियों	-10.8376
▁इकलौत	-10.8385
▁फोगाट	-10.8385
▁बुमराह	-10.8385
▁हिंदुस्तान	-10.8385
▁सेक्रेटरी	-10.8385
▁स्टील	-10.8385
▁सेफ्टी	-10.8386
▁नवादा	-10.8386
यल	-10.8388
ti	-10.839
▁जियो	-10.84
▁पारस	-10.84
▁स्वा	-10.8404
▁दब	-10.8415
्‍स	-10.8422
▁बनती	-10.8422
▁बसें	-10.8423
GB	-10.8437
▁डील	-10.8439
▁आकर्षण	-10.8454
▁मछली	-10.8454
▁इन्हीं	-10.8454
▁सिल्वर	-10.8454
▁प्रसन्न	-10.8454
▁निखिल	-10.8454
▁NDA	-10.8454
▁किराया	-10.8454
ूं	-10.8454
▁पापा	-10.8455
▁हैरिस	-10.8455
▁मिलीमीटर	-10.8455
िय	-10.8456
▁अभाव	-10.8456
▁प्रभात	-10.846
ेरी	-10.8463
▁वंदना	-10.8463
▁बवाल	-10.8468
▁नारा	-10.847
▁डोर	-10.8492
▁सैफ	-10.8494
कांग्रेस	-10.8498
▁उतन	-10.8499
▁करवाकर	-10.8503
ून	-10.8507
▁रूसी	-10.8507
▁1.	-10.8511
▁टोला	-10.8516
ल्ला	-10.8516
हु	-10.8517
▁सीपी	-10.8518
▁REA	-10.8523
▁कर्तव्य	-10.8523
▁प्रैक्टिस	-10.8523
▁वाल्मीकि	-10.8523
▁ऋण	-10.8523
▁थिएटर	-10.8523
▁Khan	-10.8523
▁पलवल	-10.8524
▁क्वार्टर	-10.8524
▁रुचि	-10.8528
▁सुनाया	-10.8529
▁धारण	-10.853
▁तंत्र	-10.853
▁शोभा	-10.853
▁केन्द्रीय	-10.853
▁पहिया	-10.8532
छा	-10.8535
ुर	-10.8538
▁याचिकाकर्ता	-10.8541
▁पर्यटक	-10.8551
ya	-10.8553
▁कं	-10.8562
्द	-10.8564
33	-10.8564
43	-10.8572
▁पुष्पा	-10.8573
कांत	-10.8575
▁सेहत	-10.8579
स्व	-10.8581
▁लेख	-10.8584
▁पेज	-10.8586
बंद	-10.8586
▁एडवांस	-10.8591
▁सर्वोच्च	-10.8592
▁लघु	-10.8592
▁अत्याचार	-10.8592
▁ईस्ट	-10.8592
▁राजमार्ग	-10.8593
▁तलवार	-10.8593
▁गणना	-10.8595
▁नीतियों	-10.8595
▁कीर्तन	-10.8595
▁59	-10.8595
▁उद्धव	-10.8596
▁डंपर	-10.8597
▁2007	-10.8598
▁मिलन	-10.8603
▁चन्द्र	-10.8605
il	-10.8612
▁जोड़कर	-10.8612
▁व्यवसाय	-10.8612
▁पट्टी	-10.8613
तोड़	-10.8618
शंकर	-10.862
▁64	-10.8623
▁कुर	-10.8624
डर	-10.8632
▁शूटर	-10.8632
गलौज	-10.8637
▁करूंगा	-10.864
▁प्रज्वल	-10.865
▁प्लेयर	-10.8656
▁800	-10.8658
ालय	-10.8659
▁अड्डे	-10.8662
▁एनकाउंटर	-10.8662
▁मेकर्स	-10.8662
▁मूवमेंट	-10.8662
▁गोवंश	-10.8662
▁निशुल्क	-10.8663
प्रदर्शनकारियों	-10.8665
ज़ा	-10.8666
ha	-10.8673
▁कुशल	-10.8679
▁रच	-10.8679
▁डाले	-10.8681
▁सवा	-10.8687
▁लु	-10.8693
▁एग्जि	-10.8697
सामने	-10.8707
▁दयाल	-10.8708
▁AI	-10.8709
▁उठे	-10.8722
▁बिंद	-10.8723
▁भु	-10.8729
▁शरीफ	-10.8731
▁खनिज	-10.8732
▁बच्चियों	-10.8732
▁रवींद्र	-10.8732
▁सत्संग	-10.8732
▁सिसोदिया	-10.8732
▁फेसबुक	-10.8733
▁बंदूक	-10.8733
▁नर्मदापुरम	-10.8733
▁फिसल	-10.8733
▁जायेगा	-10.8733
▁डैम	-10.8734
▁रीजन	-10.8734
▁सरोज	-10.8734
▁शांतिपूर्ण	-10.8735
35	-10.8739
▁कमान	-10.874
▁बाय	-10.8743
▁मिड	-10.8743
▁वॉक	-10.8743
▁आरके	-10.8745
▁जलाने	-10.8749
दे	-10.8749
▁उठाते	-10.8751
▁जोड़े	-10.8754
पट	-10.8755
ब्र	-10.8759
▁गायक	-10.8766
▁खबरों	-10.8767
चक	-10.8768
्रे	-10.8772
पारा	-10.8772
▁पुर	-10.878
बद्ध	-10.8781
500	-10.8786
टल	-10.8788
ट्	-10.8794
es	-10.88
▁जलभराव	-10.8803
▁पुतिन	-10.8803
▁भारद्वाज	-10.8803
▁सेमीफाइनल	-10.8803
▁जॉइन	-10.8803
▁नींद	-10.8803
▁डिस्प्ले	-10.8804
▁प्रोडक्शन	-10.8804
▁जन्माष्टमी	-10.8804
▁जेवरात	-10.8804
▁लड़कियां	-10.8805
▁गुड	-10.8808
▁समझाया	-10.8809
▁फैन	-10.8819
सार	-10.8833
▁गरीबों	-10.8836
िज	-10.8843
▁बायो	-10.8843
▁ईद	-10.8845
49	-10.8845
▁94	-10.8854
-7	-10.8862
▁इलाहाबाद	-10.8875
▁क़ानून	-10.8875
▁चूंकि	-10.8875
▁त्वरित	-10.8875
▁नायडू	-10.8875
▁मेंटेनेंस	-10.8875
▁वाजपेयी	-10.8875
▁श्रीगंगानगर	-10.8875
▁सीएचसी	-10.8875
▁डेयरी	-10.8875
▁गायत्री	-10.8875
▁जमशेदपुर	-10.8875
▁गोस्वामी	-10.8875
▁सहारा	-10.8877
▁आदिवासियों	-10.8878
57	-10.8886
▁अजित	-10.8887
▁शाला	-10.8894
▁370	-10.8902
▁फ्रांस	-10.8908
▁लगाएं	-10.891
▁फिट	-10.8916
▁ऑपरेटर	-10.8916
पार	-10.8918
▁हैंडल	-10.8919
ेक	-10.8934
ंव	-10.8939
ावर	-10.8945
▁क्वालिटी	-10.8947
▁ट्रांसफार्मर	-10.8947
▁बंटवारे	-10.8947
▁गूंज	-10.8947
▁इशारा	-10.8947
▁पैलेस	-10.8947
▁अनुदान	-10.8947
▁क्रमांक	-10.8947
▁झंडा	-10.8948
▁इसीलिए	-10.8948
▁रनौत	-10.8948
▁वीजा	-10.8949
▁घेराव	-10.895
▁विंग	-10.8952
▁दादी	-10.8953
▁हवाएं	-10.8955
▁तरीका	-10.8957
▁नॉन	-10.8959
ाइन	-10.8959
फी	-10.8959
22	-10.8973
▁उड़ा	-10.8975
▁रामगढ़	-10.8977
▁बांट	-10.8978
ॉर्	-10.8978
▁जीतू	-10.8985
▁ऑडियो	-10.9003
▁सुपरस्टार	-10.9018
▁कुत्ते	-10.9019
▁तत्वावधान	-10.9019
▁सिलसिले	-10.9019
▁अनीता	-10.9019
▁शिशु	-10.902
▁प्रदर्शित	-10.902
▁आयुर्वेद	-10.902
▁निदेशालय	-10.9021
▁घोटाला	-10.9021
▁चिह्नित	-10.9022
▁धरती	-10.9022
▁स्ट्राइक	-10.9024
▁भंग	-10.9035
मंडल	-10.9037
्टी	-10.9056
39	-10.9065
ोक	-10.9079
▁अग्र	-10.9086
ंडी	-10.9087
▁यमुना	-10.9091
▁सूरत	-10.9091
न्	-10.9092
▁सौभाग्य	-10.9092
▁पौधारोपण	-10.9092
▁प्रताड़ित	-10.9092
▁निस्तारण	-10.9093
▁हाइवे	-10.9093
▁खाड़ी	-10.9095
ूंगा	-10.9099
▁बैक	-10.9103
▁विधिक	-10.9103
▁टो	-10.9106
▁ऑफ़	-10.9108
▁मुंडा	-10.9108
▁मंड	-10.9117
▁बचत	-10.9121
▁ध्रुव	-10.9121
▁सहयोगियों	-10.9125
▁नाला	-10.9126
▁आतंकवाद	-10.9127
ीज	-10.9134
▁नाकाम	-10.9139
44	-10.9142
▁राख	-10.9143
▁स्ट	-10.9144
▁संभाला	-10.9147
▁700	-10.9152
09	-10.9154
▁पढ़	-10.9155
▁ब्लू	-10.9162
▁साहित्य	-10.9162
▁आइ	-10.9163
▁नर्मदा	-10.9166
▁भेदभाव	-10.9166
▁भगवंत	-10.9166
▁IAS	-10.9166
▁इलेक्शन	-10.9166
▁कागजात	-10.9166
▁समाचार	-10.9166
▁पंचांग	-10.9166
त्रित	-10.9166
▁फैशन	-10.9166
▁मॉनिटरिंग	-10.9166
▁डेवलपमेंट	-10.9168
▁व्यस्त	-10.9169
▁झगड़े	-10.917
▁विवाहिता	-10.9174
▁टि	-10.9178
▁महंगा	-10.9179
▁अपराधों	-10.918
▁राजगढ़	-10.9182
▁बढ़े	-10.9183
▁तत्वों	-10.9192
▁प्रोसेस	-10.9203
शाली	-10.9206
बाई	-10.921
+	-10.9214
▁कप्तानी	-10.922
▁भटक	-10.9221
▁पहना	-10.9223
र्थ	-10.9233
17	-10.9235
▁पुस्तक	-10.9237
▁इजाफा	-10.924
▁कटिहार	-10.924
▁बैतूल	-10.924
▁मादक	-10.924
▁कैमरों	-10.924
▁मेहमान	-10.924
▁जनप्रतिनिधियों	-10.924
▁समीकरण	-10.924
▁डीजे	-10.9243
▁एसीपी	-10.9243
▁रामपुर	-10.9243
ग्न	-10.9244
▁2011	-10.9245
▁पदार्थों	-10.9251
▁आगमन	-10.9251
खी	-10.9255
▁जावेद	-10.9258
▁खुली	-10.9268
लर	-10.9269
▁वारंट	-10.9282
क़	-10.9283
वेल	-10.9296
खंड	-10.9304
▁सिं	-10.9305
▁देनी	-10.9312
▁मनु	-10.9314
▁आकर्षित	-10.9314
▁आमंत्रित	-10.9314
▁परिचालन	-10.9314
▁प्लाजा	-10.9314
▁महिंद्रा	-10.9314
▁रामलीला	-10.9314
▁कपड़ों	-10.9314
▁गणतंत्र	-10.9314
▁सलीम	-10.9315
▁भैंस	-10.9315
▁अवधेश	-10.9315
▁शाहिद	-10.9316
▁बैटिंग	-10.9316
▁शिक्षिका	-10.9317
▁हृदय	-10.9318
▁पटरी	-10.9319
▁रील	-10.9319
▁प्रतापगढ़	-10.932
चि	-10.932
▁यंत्र	-10.9322
▁जानता	-10.9323
▁स्त्री	-10.9323
▁चार्जिंग	-10.9324
देश	-10.9325
▁पोलिंग	-10.933
ौल	-10.9335
▁चक्र	-10.9341
▁किंग	-10.9346
▁संचालकों	-10.9351
▁खाकर	-10.9353
w	-10.9356
▁परेशानियों	-10.9358
▁भोज	-10.936
▁भय	-10.937
▁हेमा	-10.9372
▁चू	-10.9373
...'	-10.9374
ाँ	-10.9377
.40	-10.9379
▁सतर्क	-10.9383
ौरा	-10.9384
▁कोयला	-10.9386
▁विवरण	-10.939
▁बर्दाश्	-10.939
▁फरियाद	-10.939
▁फुटबॉल	-10.939
▁समृद्धि	-10.939
▁चचेर	-10.939
▁बिट्टू	-10.939
▁दूसर	-10.939
▁अमीर	-10.939
▁गतिविधियां	-10.939
▁बॉस	-10.9391
▁निर्माणाधीन	-10.9392
▁शिवाजी	-10.9393
▁परेड	-10.9393
▁साड़ी	-10.9393
▁रखेंगे	-10.9398
▁2005	-10.9398
▁जर्मनी	-10.9402
्रो	-10.9409
▁एनएच	-10.941
▁गुस्स	-10.941
सम	-10.941
चे	-10.9413
▁नागपुर	-10.9415
▁राजन	-10.942
▁छत्र	-10.942
▁बेन	-10.942
▁प्रकाशित	-10.9428
ूल	-10.9429
ma	-10.9437
िकल	-10.9439
सू	-10.9445
लिंग	-10.9447
▁बांस	-10.9447
▁आर्म	-10.9448
स्ट्र	-10.9461
▁कड़ा	-10.9461
▁ठिकानों	-10.9465
▁द्विवेदी	-10.9465
▁एसडीपीओ	-10.9465
▁आंगनबाड़ी	-10.9465
▁जेडीयू	-10.9466
▁वर्दी	-10.9466
▁बिल्डर	-10.9466
▁माहेश्वरी	-10.9467
▁संचार	-10.9467
▁राज्यमंत्री	-10.9469
▁प्रदेशाध्यक्ष	-10.9469
चल	-10.947
▁सनी	-10.9471
▁सार	-10.9472
▁चे	-10.9472
निक	-10.9479
▁मोती	-10.948
▁उपज	-10.949
67	-10.9494
▁1.5	-10.9495
▁क़	-10.95
▁पंचायतों	-10.9503
▁संगीता	-10.9512
रूप	-10.9512
Y	-10.9516
▁लिहाज	-10.9524
as	-10.9524
▁नर्स	-10.9529
▁इलेक्ट्रॉनिक	-10.9536
▁कन्हैया	-10.954
▁सोसायटी	-10.9542
▁ऑफिशियल	-10.9542
▁पाटीदार	-10.9542
▁बलात्कार	-10.9542
▁आशुतोष	-10.9542
▁मुद्रा	-10.9542
▁ख्याल	-10.9542
▁ऑयल	-10.9542
▁टॉस	-10.9542
▁साक्षी	-10.9542
▁मेघवाल	-10.9542
▁Day	-10.9542
▁स्पेस	-10.9542
▁विचारधारा	-10.9542
MP	-10.9543
नु	-10.9543
▁संपूर्ण	-10.9543
▁बेल्ट	-10.9544
▁रॉयल	-10.9544
▁धूल	-10.9545
▁कड़े	-10.9545
▁राधिका	-10.9547
51	-10.9548
▁कपड़ा	-10.9548
▁2010	-10.9548
▁बढ़ेगी	-10.9549
▁दादरी	-10.9549
▁पौधों	-10.955
▁बुलाई	-10.9552
माता	-10.956
▁ओला	-10.956
▁हीरो	-10.9564
55	-10.9566
▁भरकर	-10.9571
▁पुनर्	-10.9573
▁नम	-10.9578
न्न	-10.9583
▁लाना	-10.9589
▁लता	-10.9589
लैंड	-10.9592
ैट	-10.9601
▁दस्तावेजों	-10.9602
▁वार्डों	-10.9603
▁कोहरा	-10.9606
-12	-10.9607
पीट	-10.9614
45	-10.9615
▁रमन	-10.9615
▁76	-10.9615
▁सेवानिवृत्त	-10.9618
▁गैंगरेप	-10.9619
▁देखरेख	-10.9619
▁ध्वस्त	-10.9619
▁ब्रिटिश	-10.9619
▁ब्लास्ट	-10.9619
▁हस्तक्षेप	-10.9619
▁वैभव	-10.9619
▁विराजमान	-10.9619
▁दांव	-10.9619
▁नौसेना	-10.9619
▁झुंझुनूं	-10.9619
▁सीएमएचओ	-10.9619
▁दृश्य	-10.9621
▁प्रेमिका	-10.9624
ढ़ा	-10.9625
▁पाएगा	-10.9627
र्व	-10.963
शांत	-10.9635
▁पहुंचेंगे	-10.9635
▁डेरा	-10.9637
▁बनेगी	-10.9637
62	-10.9644
धान	-10.9647
▁मद	-10.9648
ोला	-10.9649
ाइट	-10.9656
▁350	-10.9659
ic	-10.9666
वती	-10.9666
▁निकलकर	-10.9674
▁मुहै	-10.9674
▁नशील	-10.9684
▁81	-10.9695
▁दिग्विजय	-10.9696
▁पैसेंजर	-10.9696
▁जेट	-10.9697
▁खां	-10.9698
▁नतीजा	-10.9699
▁प्रसंग	-10.9699
▁सीताराम	-10.9699
▁कट्टा	-10.9701
▁निर्देशक	-10.9701
▁महानगर	-10.9705
▁नील	-10.9705
बि	-10.9706
68	-10.9706
▁आलू	-10.9707
▁खु	-10.9708
▁राजनाथ	-10.9709
▁69	-10.972
▁मेवाड़	-10.972
400	-10.9727
▁दलाल	-10.9727
ाह	-10.973
▁सीने	-10.9735
▁बैन	-10.9736
▁लीडर	-10.9737
▁गोला	-10.9744
▁कारों	-10.9751
वंत	-10.9755
▁पैरा	-10.9765
53	-10.9767
▁कॉरिडोर	-10.9774
▁शिनाख्त	-10.9774
▁सशक्त	-10.9774
▁घनश्याम	-10.9774
▁पंजीयन	-10.9774
▁वाइस	-10.9774
▁बुखार	-10.9774
▁कोविड	-10.9775
▁2023-24	-10.9775
▁पार्टनर	-10.9775
▁68	-10.9775
केश	-10.9775
▁सोनीपत	-10.9775
▁साहिल	-10.9775
▁बठिंडा	-10.9775
▁कोहरे	-10.9776
▁प्रकट	-10.9776
▁पीडब्ल्यूडी	-10.9776
▁फेस्टिवल	-10.9776
▁सचिवालय	-10.9777
▁नहाने	-10.9778
▁ठेका	-10.9779
लोक	-10.978
▁आैर	-10.978
▁सीरिया	-10.978
▁2004	-10.9782
▁रखती	-10.9789
▁हीट	-10.979
▁अर	-10.9792
▁लटक	-10.9793
्ति	-10.9798
▁जया	-10.98
शर	-10.9806
ेंगी	-10.9809
▁जानवरों	-10.9811
▁खंगाल	-10.9811
ta	-10.9816
जल	-10.9817
▁बताती	-10.9817
▁दुश्मन	-10.9819
▁अश्विनी	-10.982
स्‍ट	-10.9824
02	-10.9824
▁भड़क	-10.9825
मुझे	-10.9828
एसटी	-10.9836
ोद	-10.9838
▁म्यूजिक	-10.9839
▁नमाज	-10.985
.25	-10.9851
▁सेंट	-10.9852
▁इरफान	-10.9853
▁द्वीप	-10.9853
▁निचले	-10.9853
▁रिलायंस	-10.9853
▁वॉट्सऐप	-10.9853
▁सितम्बर	-10.9853
▁तख्त	-10.9853
100	-10.9854
▁सिनेमाघर	-10.9854
▁नड्डा	-10.9856
▁धोनी	-10.9856
▁काउंटर	-10.9858
▁फतेहपुर	-10.9859
▁बताकर	-10.9861
▁प्रिंट	-10.9862
▁मॉल	-10.9864
▁शॉट	-10.9866
▁मियां	-10.987
▁सू	-10.9872
▁बाबर	-10.9878
▁योजनाएं	-10.9879
▁प्ले	-10.9879
▁125	-10.9882
▁चौथा	-10.9891
▁गायन	-10.9898
▁दावेदार	-10.99
ईडी	-10.9907
▁फा	-10.9914
▁वास्तविक	-10.9928
▁खोजबीन	-10.9932
▁पिस्तौल	-10.9932
▁वेस्टइंडीज	-10.9932
▁हेरोइन	-10.9932
▁प्रेशर	-10.9932
▁पाप	-10.9933
▁कालोनी	-10.9933
▁पर्ची	-10.9933
▁आईपीएस	-10.9937
▁सीमेंट	-10.9937
▁महेंद्रगढ़	-10.9938
▁वकीलों	-10.9942
▁सकेगी	-10.9942
डो	-10.9942
▁नीलम	-10.9944
▁मजाक	-10.9946
▁शास्त्र	-10.9949
▁बेरोजगारी	-10.9959
▁साधना	-10.9964
▁ढोल	-10.9973
▁स्‍	-10.9973
सिया	-10.9975
▁त्याग	-10.9979
ंश	-10.9986
▁उभर	-10.9988
▁बची	-10.9995
ाजी	-10.9996
▁मंजू	-10.9999
▁बनाता	-11.0003
42	-11.0005
▁अपार्टमेंट	-11.0012
▁प्रतिष्ठित	-11.0012
▁प्रमोशन	-11.0012
▁प्रौद्योगिकी	-11.0012
▁अख्तर	-11.0012
▁एकेडमी	-11.0012
▁पुरोहित	-11.0012
▁मैरिज	-11.0012
▁हेल्पलाइन	-11.0012
▁फ्रॉड	-11.0013
▁स्वाति	-11.0013
▁पाटिल	-11.0013
▁धीरज	-11.0014
▁समीर	-11.0014
▁गाइड	-11.0014
▁प्रसार	-11.0024
बाद	-11.0026
▁जुटा	-11.0028
▁राहगीरों	-11.003
▁नाना	-11.0036
ज्ञान	-11.0037
▁गीतों	-11.0038
▁आयकर	-11.0049
▁बिज	-11.0055
▁दिव्या	-11.0057
▁सिक	-11.0059
▁दिलचस्प	-11.0059
▁दीदी	-11.0069
ानुसार	-11.0071
▁अंधेर	-11.0076
▁साध	-11.0081
लित	-11.0085
▁कोठी	-11.009
▁पटियाला	-11.0093
▁मिथुन	-11.0093
▁विपिन	-11.0093
▁शिक्षण	-11.0093
▁श्रृंगार	-11.0093
▁संदर्भ	-11.0093
▁धौलपुर	-11.0093
▁सोनाक्षी	-11.0093
▁सेगमेंट	-11.0093
▁प्रदोष	-11.0093
▁अधिसूचना	-11.0094
▁गजेंद्र	-11.0094
▁हवन	-11.0096
▁सिद्धू	-11.0096
▁तर्ज	-11.0104
▁बास	-11.0108
94	-11.011
▁खाई	-11.0111
▁फट	-11.0113
▁कराते	-11.0121
98	-11.0125
▁दिखी	-11.0132
जिस	-11.0135
▁जाटव	-11.0145
ासन	-11.0152
600	-11.0153
एगी	-11.0161
ाॅ	-11.0161
▁फीचर	-11.0168
▁61	-11.0174
▁जडेजा	-11.0174
▁पीयूष	-11.0174
▁मूल्यांकन	-11.0174
▁संविदा	-11.0174
▁दायित्व	-11.0174
▁चार्जशीट	-11.0174
▁ओटीटी	-11.0175
▁समग्र	-11.0175
▁पैकेट	-11.0175
▁वृंदावन	-11.0176
▁तीज	-11.0178
▁ध्वज	-11.0179
▁प्रतिबद्धता	-11.0179
▁वृद्ध	-11.0184
77	-11.019
▁जू	-11.02
दि	-11.0203
▁पर्वत	-11.021
▁भिड़	-11.0215
▁मुसलमान	-11.0219
▁तूफान	-11.0224
▁कचर	-11.0226
58	-11.0232
▁जॉन	-11.0232
▁विस्फोट	-11.0244
▁क्रू	-11.0246
▁U	-11.0248
▁मीरा	-11.0253
▁जनगणना	-11.0256
▁तिमाही	-11.0256
▁प्रवर्तन	-11.0256
▁प्रशंसा	-11.0256
▁बाइडन	-11.0256
▁उछाल	-11.0256
▁इलाक़	-11.0256
▁मुरादाबाद	-11.0256
▁इकबाल	-11.0256
▁स्टॉल	-11.0257
▁सरेंडर	-11.0257
▁हिस्सेदारी	-11.0257
▁स्थगित	-11.0257
▁साप्ताहिक	-11.0257
▁अंबिकापुर	-11.0258
▁जालोर	-11.0258
▁रखवाया	-11.0259
▁किस्मत	-11.0259
▁नानक	-11.026
▁फॉलो	-11.026
▁भगा	-11.0261
▁नागौर	-11.0262
▁ड्रग्स	-11.0262
वारा	-11.0266
▁आपातकाल	-11.0271
▁युग	-11.0271
▁पू	-11.0284
▁73	-11.029
▁नियंत्रित	-11.029
▁प्रिय	-11.0292
▁श्वेता	-11.0298
बाज	-11.0303
पुरम	-11.0303
लेट	-11.0306
▁कैप	-11.0309
▁पैन	-11.0309
▁छाप	-11.0315
▁63	-11.0317
▁सद	-11.032
ाइल	-11.0325
▁स्थिर	-11.0332
▁प्रोडक्ट	-11.0332
▁लोकेश	-11.0337
▁जाओ	-11.0337
▁एहसास	-11.0339
▁ग़ज़ा	-11.0339
▁नोटिफिकेशन	-11.0339
▁स्वयंसेवक	-11.0339
▁उपलक्ष्य	-11.0339
▁फेडरेशन	-11.0339
▁Pro	-11.034
▁चिकित्सालय	-11.034
▁ठहराया	-11.034
▁प्रधानाचार्य	-11.0341
▁शिवलिंग	-11.0341
▁दानापुर	-11.0341
▁सुचार	-11.0343
▁गुण	-11.0346
▁छापा	-11.0347
▁पहनकर	-11.0347
▁भाटी	-11.0351
▁सुनते	-11.0352
▁सेल्फी	-11.0354
▁एकत्र	-11.0356
▁हेम	-11.036
▁प्रिया	-11.0363
▁वैध	-11.0364
▁हाउसिंग	-11.0364
▁स्क	-11.037
.45	-11.0376
▁इमारत	-11.0378
माला	-11.0382
▁किन	-11.0384
▁पढ़ा	-11.0385
ट्स	-11.0385
स्टर	-11.0391
65	-11.0395
यान	-11.0395
▁कांवड़	-11.0396
श्रेष्ठ	-11.0397
▁हॉ	-11.0401
▁IND	-11.0408
▁डिपो	-11.0408
▁उत्पादों	-11.0412
वाने	-11.0418
▁इनसे	-11.0419
▁बुलेट	-11.0422
▁पहलुओं	-11.0422
▁स्मारक	-11.0422
▁शेट्टी	-11.0422
▁अधिग्रहण	-11.0423
▁सीवरेज	-11.0423
▁एडीएम	-11.0423
▁टायर	-11.0423
▁आराधना	-11.0423
▁गोलीबारी	-11.0423
▁गणित	-11.0425
▁उद्योगपति	-11.0426
▁साधु	-11.0426
▁धीमी	-11.0428
▁फास्ट	-11.0428
▁इसराइली	-11.0434
▁साधारण	-11.0435
▁अम	-11.0437
▁निशा	-11.044
▁सेक्शन	-11.0443
▁अज	-11.0444
▁पान	-11.0446
▁मणि	-11.0446
▁कवि	-11.0448
▁सल	-11.0452
डीए	-11.0453
300	-11.0455
▁काटा	-11.0469
पीएस	-11.0469
▁बेचा	-11.047
▁92	-11.0477
ाक	-11.048
▁तिल	-11.0485
▁71	-11.0489
▁शारदा	-11.0492
ोरी	-11.0493
▁नगरी	-11.0494
न्ना	-11.0494
el	-11.0496
▁अधीन	-11.0506
▁अरुणाचल	-11.0506
▁चतुर्वेदी	-11.0506
▁परामर्श	-11.0506
▁मवेशी	-11.0506
▁बांसवाड़ा	-11.0507
▁संजू	-11.0507
▁सौर	-11.0509
▁खदान	-11.051
▁डोडा	-11.0512
न्ह	-11.0512
▁कोट	-11.0515
▁83	-11.0515
▁दवाओं	-11.0521
▁बजरी	-11.0524
▁सीएमओ	-11.0531
▁नूर	-11.0534
▁अभिभावकों	-11.0537
▁तु	-11.0537
▁सीज	-11.0554
इंग	-11.0555
▁मार्क	-11.0559
डब्ल्यू	-11.0566
टिया	-11.0566
चांदी	-11.0572
विंदर	-11.0572
vi	-11.0574
▁घुसे	-11.0591
▁गाजीपुर	-11.0591
▁तेंदुए	-11.0591
▁दंपती	-11.0591
▁फाटक	-11.0591
▁मुख्तार	-11.0591
▁मच्छर	-11.0591
▁डाउनलोड	-11.0591
▁परंतु	-11.0591
▁ब्लैकमेल	-11.0591
▁फटकार	-11.0592
▁कोरबा	-11.0592
▁सीतामढ़ी	-11.0592
▁रचना	-11.0593
▁डूंगरपुर	-11.0594
▁आखिरकार	-11.0594
▁ग्रह	-11.0595
▁हांसी	-11.0596
▁ज़रूरत	-11.0596
▁ब्रज	-11.0597
तः	-11.0601
▁समन्वयक	-11.0602
ांग	-11.0603
▁भूत	-11.0607
कर्ता	-11.061
▁पांचवें	-11.0611
▁ख़	-11.0612
वायु	-11.0614
▁74	-11.0614
▁कमरा	-11.0615
चंद्र	-11.0617
च्छ	-11.0619
▁पेन	-11.0634
▁77	-11.0641
ापुर	-11.0643
डोर	-11.0648
▁चौंका	-11.0648
निर्देश	-11.0651
▁चूक	-11.0653
▁08	-11.0658
▁उतरी	-11.066
▁आला	-11.0662
▁अमल	-11.0663
ियत	-11.0663
▁सितार	-11.0664
▁लोकप्रिय	-11.067
▁तप	-11.0675
▁राघव	-11.0676
शिरोमणि	-11.0677
▁अकादमी	-11.0677
▁एनर्जी	-11.0677
▁ग्रंथ	-11.0677
▁निफ्टी	-11.0677
▁बेनीवाल	-11.0677
▁विपरीत	-11.0677
▁सीतारमण	-11.0677
▁वैशाली	-11.0677
▁नवजात	-11.0677
▁नीलामी	-11.0677
▁राजसमंद	-11.0677
▁गोवर्धन	-11.0677
जसप्रीत	-11.0678
▁अथवा	-11.0678
▁1500	-11.0678
▁दीपेंद्र	-11.068
▁सभापति	-11.068
▁धमाके	-11.068
▁बोलेरो	-11.0683
800	-11.0695
▁दिव्य	-11.0695
▁मनीषा	-11.0696
▁लैस	-11.0697
▁परमार	-11.0699
▁बीएसएफ	-11.0701
▁बनता	-11.0713
▁बरस	-11.072
▁इनकम	-11.072
फर	-11.0724
▁आकार	-11.0726
▁रामेश्वर	-11.0727
-6	-11.0734
▁मंजूर	-11.0741
▁सै	-11.0749
्मा	-11.0754
डू	-11.0754
,500	-11.076
▁हितों	-11.076
▁रजिस्टर	-11.0762
▁जनप्रतिनिधि	-11.0762
▁आतिशी	-11.0763
▁कैंसिल	-11.0763
▁फ़िल्म	-11.0763
▁हेलमेट	-11.0763
▁मायावती	-11.0763
▁दर्दनाक	-11.0763
▁नमी	-11.0763
▁ओझा	-11.0764
▁पीपल	-11.0765
▁मीट	-11.0766
▁वैज्ञानिकों	-11.0766
दारी	-11.0767
▁भैया	-11.077
▁तुर्की	-11.0771
▁प्लस	-11.0775
▁भावनाओं	-11.0776
▁घाटी	-11.0786
▁चढ़कर	-11.0795
वाड़	-11.0796
07	-11.08
घा	-11.0806
▁पहुंचीं	-11.0808
▁तथ्य	-11.0808
▁भोजपुर	-11.082
दू	-11.0822
▁अनुपम	-11.0829
▁मार्गों	-11.0831
▁फूट	-11.0833
फे	-11.0844
▁चिन्ह	-11.0845
▁Weather	-11.085
▁नूंह	-11.085
▁पूर्वानुमान	-11.085
▁मल्लिकार्जुन	-11.085
▁राजनांदगांव	-11.085
▁वैदिक	-11.085
▁सब्सिडी	-11.085
▁हिंसक	-11.085
▁रसोई	-11.085
▁उत्तम	-11.085
▁स्नेह	-11.085
▁पीटीआई	-11.085
▁प्रस्थान	-11.085
▁रजिस्टर्ड	-11.085
▁प्वाइंट	-11.0851
▁अफरा	-11.0851
ंतरिक	-11.0851
▁घोष	-11.0852
▁मालिकों	-11.0853
▁चिन्हित	-11.0855
▁वोटरों	-11.0859
▁बजाज	-11.0861
ॅ	-11.0862
▁उन्‍हों	-11.0871
कमिंग	-11.0872
▁जीजा	-11.0874
▁कॉ	-11.0875
is	-11.0883
▁110	-11.0887
▁बैल	-11.089
▁आतंकवादी	-11.089
69	-11.0897
एंगे	-11.0897
स्क	-11.0905
82	-11.0905
▁खैर	-11.0906
▁निकायों	-11.0907
▁चैलेंज	-11.0925
56	-11.0932
▁""	-11.0934
आपत्तिजनक	-11.0935
▁इस्तीफे	-11.0937
▁तृणमूल	-11.0937
▁बर्तन	-11.0937
▁भूपेश	-11.0937
▁आंसू	-11.0937
▁नाकाबंदी	-11.0938
▁फतेहाबाद	-11.0938
▁इंटेलिजेंस	-11.0938
▁टेस्‍ट	-11.0938
▁लक्षण	-11.0938
▁पंजीकरण	-11.0938
▁मोहाली	-11.0938
▁धीरेंद्र	-11.0938
▁निर्वाचित	-11.094
शील	-11.0942
ेटर	-11.0942
▁बीघा	-11.0944
▁सेन	-11.0945
▁88	-11.0951
▁टीचर्स	-11.0959
र्म	-11.0961
▁घंटा	-11.0963
▁दोहरा	-11.0964
पश्चिम	-11.0967
▁लात	-11.097
▁उठाना	-11.0971
▁In	-11.0978
▁हज	-11.0979
38	-11.0981
CB	-11.0982
▁गुड़	-11.0982
▁खूबसूरत	-11.0992
▁हीरा	-11.0999
वाया	-11.1
इंडिया	-11.1002
कभी	-11.1007
▁अपनाने	-11.1009
▁सरल	-11.1012
▁बनते	-11.1012
▁ढा	-11.1025
▁गडकरी	-11.1026
▁हीटवेव	-11.1026
▁गिफ्ट	-11.1026
▁नदियों	-11.1026
▁चुप्पी	-11.1026
▁गिरिडीह	-11.1026
▁लोकार्पण	-11.1026
▁लीजिए	-11.1026
▁धर्मशाला	-11.1027
▁फंदा	-11.1027
▁इंद्रजीत	-11.1027
▁गर्ल्स	-11.1028
▁शेखपुरा	-11.103
▁सेकेंडरी	-11.103
हरी	-11.1031
▁ओपनिंग	-11.1033
▁घेरा	-11.1034
▁शेड	-11.1039
▁सपने	-11.1039
▁बीर	-11.1048
▁समझाने	-11.1054
▁मौ	-11.1055
▁हटाकर	-11.1057
लिन	-11.1061
▁जेई	-11.1062
▁स्रोत	-11.1073
▁सुलझा	-11.1074
िये	-11.1077
▁रिपोर्टर	-11.1077
▁केयर	-11.1086
▁जानवर	-11.1089
सागर	-11.1094
▁सेठ	-11.1095
ख़	-11.1098
▁फ्ल	-11.1099
ंडे	-11.1099
▁पराली	-11.11
▁करीना	-11.11
ाला	-11.1108
▁व्यवस्थाओं	-11.111
▁डायरेक्ट	-11.1114
▁शौक	-11.1115
▁क्रांति	-11.1115
▁जहानाबाद	-11.1115
▁टर्मिनल	-11.1115
▁फडणवीस	-11.1115
▁भरपूर	-11.1115
▁सोयाबीन	-11.1115
▁दीजिए	-11.1115
▁अष्टमी	-11.1116
▁जानबूझ	-11.1116
▁शैलेंद्र	-11.1116
▁संबोध	-11.1116
▁दूंगा	-11.1117
▁फेमस	-11.1118
▁बुआ	-11.112
-9	-11.1121
▁(2)	-11.1129
▁बाप	-11.113
▁मैक	-11.1135
▁आयात	-11.1138
▁रिया	-11.114
▁बुजुर्गों	-11.1142
▁पावन	-11.1155
▁टाल	-11.1156
▁मिलावट	-11.1157
▁मांगें	-11.1161
▁यूज	-11.1163
64	-11.1165
ठी	-11.1171
्टर	-11.1171
▁रहेंगी	-11.1171
ाबड़	-11.1174
▁उद्योगों	-11.1178
▁हिंद	-11.1179
▁नमन	-11.1187
▁टिक	-11.1189
ro	-11.119
▁ठप	-11.1197
ोस	-11.1198
ॉट	-11.1203
▁जिंदल	-11.1205
▁परिक्रमा	-11.1205
▁बहिष्कार	-11.1205
▁भगदड़	-11.1205
▁मुंगेर	-11.1205
▁अंकुश	-11.1205
▁बर्फबारी	-11.1205
▁इनको	-11.1206
▁भैरव	-11.1206
▁जागरण	-11.1206
▁मुन्ना	-11.1206
मित्र	-11.1206
▁आरएसएस	-11.1206
▁एडमिट	-11.1206
▁सहरसा	-11.1208
▁ढाका	-11.1208
▁चालीसा	-11.1209
▁अपेक्षा	-11.1209
▁पुतला	-11.121
एसपी	-11.1211
▁दमदार	-11.1215
▁चाल	-11.1215
▁रज	-11.1217
बिल	-11.1218
▁बाज	-11.1219
यो	-11.1219
▁फेस	-11.122
वर्धन	-11.1224
▁निरा	-11.1226
▁बारीक	-11.1229
▁यहाँ	-11.1233
▁आजम	-11.1238
▁एसटी	-11.1241
इयों	-11.1242
▁तरफ़	-11.1242
▁पुन	-11.1242
▁पद्म	-11.1244
▁सीतापुर	-11.1248
▁कलां	-11.1252
▁गन	-11.1255
▁शेखर	-11.1255
ाएगा	-11.1259
▁छोड़ी	-11.1261
मय	-11.1266
54	-11.1269
▁रुके	-11.1271
▁हरे	-11.1274
धी	-11.1275
▁घाटों	-11.1279
नार	-11.1286
▁आदत	-11.1287
▁यानि	-11.1289
ष्	-11.1294
▁झज्जर	-11.1296
▁डायवर्ट	-11.1296
▁ढांचे	-11.1296
▁फिजिकल	-11.1296
▁सशस्त्र	-11.1296
▁सावित्री	-11.1296
▁स्कॉर्पियो	-11.1296
▁मौलाना	-11.1296
▁पूंजी	-11.1296
▁बदनाम	-11.1296
▁पर्चा	-11.1297
▁रामा	-11.1297
▁शुरु	-11.1297
▁सीवान	-11.13
▁मुनाफा	-11.1302
▁ज्वेलरी	-11.1305
▁बढ़ेगा	-11.1306
्लो	-11.131
▁बुद्ध	-11.132
▁नाबाद	-11.1323
li	-11.1327
पान	-11.1328
म्भ	-11.1332
▁कमाने	-11.1338
▁मकानों	-11.1341
वो	-11.1341
‍ि	-11.1345
▁पाठ्यक्रम	-11.1346
▁लेखक	-11.135
▁मी	-11.1351
▁आपसे	-11.1363
▁Ka	-11.1375
▁बग	-11.138
लय	-11.1381
▁कसा	-11.1381
▁बैज	-11.1382
▁निवारण	-11.1388
▁सहारनपुर	-11.1388
▁कॉलोनियों	-11.1388
▁झड़प	-11.1388
▁टंडन	-11.1388
▁महाकुंभ	-11.1388
▁रामनिवास	-11.1388
▁व्यावसायिक	-11.1388
▁शिलान्यास	-11.1388
▁हेलिकॉप्टर	-11.1388
▁हेलीकॉप्टर	-11.1388
▁दामाद	-11.1388
▁फ्लाईओवर	-11.1388
▁लेटेस्ट	-11.1388
▁अनुकूल	-11.1388
▁अब्दुल्ला	-11.1388
▁बंगले	-11.1389
▁समिट	-11.1389
▁स्टोरेज	-11.139
▁लेफ्ट	-11.1393
▁छपरा	-11.1395
▁91	-11.1396
▁डकैती	-11.1397
▁जीरो	-11.1402
▁लै	-11.1404
यन	-11.1406
▁गवर्नर	-11.1406
36	-11.1407
▁रुपया	-11.141
▁प्रोत्साहन	-11.141
ीआईपी	-11.1422
मेल	-11.1427
▁गंग	-11.1427
▁तिहा	-11.1428
▁एसके	-11.143
रानी	-11.1441
▁डीन	-11.1449
▁प्रभार	-11.1453
▁450	-11.1454
ोड़	-11.1454
▁बिन	-11.1454
▁निशाने	-11.1458
ंभ	-11.1471
▁मात	-11.1475
▁छुट्	-11.1476
▁पैकेज	-11.1477
▁जंगली	-11.1479
▁कीर्ति	-11.148
▁वाणिज्य	-11.1481
▁डीआईजी	-11.1481
▁बेकाबू	-11.1481
▁बेतिया	-11.1481
▁मवेशियों	-11.1481
▁रिश्तों	-11.1481
▁सिग्नल	-11.1481
▁सेरेमनी	-11.1481
▁परीक्षार्थी	-11.1481
▁कहासुनी	-11.1481
▁96	-11.1481
▁फिटनेस	-11.1481
▁बेरहम	-11.1481
▁दरगाह	-11.1481
▁अखबार	-11.1481
▁बगैर	-11.1481
▁गिरिराज	-11.1481
▁रंगदारी	-11.1482
▁कंटेनर	-11.1482
▁एडी	-11.1483
▁त्रिपुरा	-11.1483
▁डाटा	-11.1484
▁प्रोफेशनल	-11.1486
▁बरतने	-11.1488
▁मील	-11.1489
▁घरवालों	-11.149
▁पड़ेगी	-11.1491
▁उपेंद्र	-11.1491
▁बै	-11.1491
▁सौदा	-11.1492
▁किसने	-11.1498
▁टाइम्स	-11.1502
▁गम	-11.1504
▁उठाई	-11.1508
▁विचारों	-11.1513
▁लखन	-11.1515
▁इन्	-11.1516
▁श्रमिकों	-11.1516
▁यूट्यूब	-11.1517
▁चैक	-11.1517
ीकृत	-11.1518
▁बिर	-11.1527
08	-11.1528
▁माली	-11.153
▁दस्तक	-11.1536
▁स्पिनर	-11.155
▁कुशवाह	-11.1554
▁मेरिट	-11.1555
DA	-11.1555
▁डु	-11.1561
▁नेट	-11.1565
▁आतिशबाजी	-11.1574
▁आरक्षित	-11.1574
▁कुत्तों	-11.1574
▁तुम्हें	-11.1574
▁दिसम्बर	-11.1574
▁दुरुपयोग	-11.1574
▁पौधरोपण	-11.1574
▁बूंदाबांदी	-11.1574
▁गरिमा	-11.1574
▁मनुष्य	-11.1574
▁सॉफ्टवेयर	-11.1574
▁मनोरंजन	-11.1574
▁मुर्मू	-11.1574
▁झूम	-11.1574
▁अलमारी	-11.1574
▁अक्षर	-11.1574
▁लूटपाट	-11.1575
▁बलिदान	-11.1575
▁गुरप्रीत	-11.1575
लग्जरी	-11.1575
▁प्राइस	-11.1575
▁क्षण	-11.1575
▁बंगला	-11.1575
▁खुलासे	-11.1576
▁डीलर	-11.1577
59	-11.1578
▁किस्त	-11.158
▁स्थिरता	-11.1582
▁बनाएंगे	-11.1583
▁कोहराम	-11.1583
▁आवारा	-11.1585
▁मं	-11.1586
▁लौटी	-11.1599
▁सावधानी	-11.1601
▁पन्ना	-11.1606
▁रिक्शा	-11.1613
ल्ड	-11.1614
▁ट्रोल	-11.1617
आज	-11.162
हड़	-11.1624
आइ	-11.1627
▁उड़ाने	-11.1629
▁कोल्ड	-11.163
▁जोश	-11.1631
कृष्ण	-11.1635
▁सबका	-11.1645
जान	-11.1662
▁वॉर	-11.1664
▁दलील	-11.1667
▁iPhone	-11.1668
▁बैडमिंटन	-11.1668
▁रिव्यू	-11.1668
▁समझाइश	-11.1668
▁हिदायत	-11.1668
▁गर्लफ्रेंड	-11.1668
▁नॉर्थ	-11.1668
▁कुश्ती	-11.1668
▁सहारे	-11.1668
▁जौनपुर	-11.1668
▁धुआं	-11.1668
▁खड़गे	-11.1669
▁अहिरवार	-11.1669
▁स्कैन	-11.1669
▁केमिकल	-11.1669
▁प्रातः	-11.1669
▁समूहों	-11.1672
▁वृक्ष	-11.1672
▁नवमी	-11.1672
▁मिर्जापुर	-11.1673
▁दिखाए	-11.1676
▁निभाया	-11.1676
▁कानूनों	-11.1677
▁कहे	-11.1678
▁आएं	-11.1678
▁दिलवा	-11.1682
▁हटाए	-11.1685
▁खुदाई	-11.1687
▁बचाई	-11.1687
▁एसडीओ	-11.169
▁रणनीतिक	-11.1694
▁सहज	-11.1695
क्का	-11.1696
▁सिद्धि	-11.1698
▁मिनी	-11.1703
▁सहनी	-11.1705
▁नाली	-11.1707
SP	-11.171
▁नाक	-11.1718
▁काजल	-11.1732
▁पायल	-11.1733
ंगे	-11.1734
▁चर	-11.1736
99	-11.1736
▁मानस	-11.1736
▁मालवा	-11.1736
▁बनाती	-11.1736
▁सीएस	-11.1736
▁प्रॉ	-11.1738
शक्ति	-11.1739
▁खोद	-11.1741
बिहार	-11.1745
बुल	-11.1748
▁चीख	-11.1751
▁बनाम	-11.1753
ांश	-11.1754
▁गिरे	-11.1757
▁स्टाइल	-11.1763
▁आध्यात्मिक	-11.1764
▁कुरुक्षेत्र	-11.1764
▁बहराइच	-11.1764
▁खौफ	-11.1764
▁संलिप्त	-11.1764
▁सटीक	-11.1764
▁पुरुषोत्तम	-11.1764
▁कटारिया	-11.1764
▁जनहित	-11.1765
▁रजिस्ट्रार	-11.1765
▁जन्मोत्सव	-11.1765
▁यूथ	-11.1766
▁पेंटिंग	-11.1767
▁महुआ	-11.1767
▁महाजन	-11.1768
रल	-11.1768
▁उमड़	-11.1769
पोल	-11.1769
▁समितियों	-11.1775
▁शास	-11.1777
700	-11.1778
▁सिरे	-11.178
ेयर	-11.1782
▁मायने	-11.1783
मू	-11.1786
▁लिहाजा	-11.1789
दाय	-11.179
▁84	-11.1791
▁सारण	-11.1792
हान	-11.1796
▁रौंद	-11.1797
78	-11.1798
▁दर्शात	-11.1801
▁शु	-11.1806
▁97	-11.1809
▁82	-11.1811
राय	-11.1812
▁तारा	-11.1814
▁पोस्टिंग	-11.1821
▁वासियों	-11.1822
गम	-11.1826
▁झेल	-11.1828
▁जहरील	-11.1832
▁वासी	-11.1834
▁अल्पसंख्यकों	-11.1842
▁कौ	-11.1842
भाई	-11.1847
कृत	-11.1854
▁पकड़ी	-11.1855
▁ढ	-11.1858
▁चौथ	-11.1859
▁कच्चे	-11.186
▁जनसंपर्क	-11.186
▁त्रिवेदी	-11.186
▁बबलू	-11.186
▁सीहोर	-11.186
▁आकलन	-11.186
▁ऊंची	-11.186
▁पंड्या	-11.186
▁संयोग	-11.186
▁प्रेसिडेंट	-11.1861
▁तड़क	-11.1861
▁भाटिया	-11.1861
▁NEET	-11.1862
ंडर	-11.1862
▁बिरला	-11.1862
वाना	-11.1864
▁कस्बा	-11.1864
▁कबीर	-11.1866
ट्टा	-11.1868
▁नाका	-11.1868
har	-11.1869
▁बनाएं	-11.1872
▁खेर	-11.1878
▁अवसरों	-11.188
र्ण	-11.1883
ोट	-11.1885
▁हिरण	-11.1889
▁छुपा	-11.1895
घात	-11.1897
▁ताले	-11.1898
वै	-11.1905
com	-11.1906
▁2024)	-11.1909
▁भजनों	-11.1922
▁नीम	-11.1931
ॉय	-11.1936
▁दोष	-11.1936
▁भार	-11.1941
▁उद	-11.1944
▁मंग	-11.1946
ाऊ	-11.1946
▁करवाना	-11.1949
ज्ज	-11.195
-14	-11.1954
▁कार्यालयों	-11.1957
▁न्यूयॉर्क	-11.1957
▁मल्होत्रा	-11.1957
▁विश्लेषक	-11.1957
▁गर्दन	-11.1957
▁नींव	-11.1957
▁अफीम	-11.1957
▁गुमशुदगी	-11.1957
▁टास्क	-11.1957
▁एसएमएस	-11.1958
▁गाइडलाइन	-11.1958
▁मिलीं	-11.1958
▁फिरोजपुर	-11.196
▁आवक	-11.1961
▁तान	-11.1961
▁नीमच	-11.1963
▁कमांडर	-11.1967
▁समृद्ध	-11.1968
▁गेम्स	-11.1969
▁डंडे	-11.197
▁अकेला	-11.1974
सूर	-11.1977
▁साई	-11.1979
▁चारा	-11.1982
▁परमिशन	-11.1982
▁समझते	-11.1983
▁पैक	-11.1984
भि	-11.1985
▁संतों	-11.1985
▁निकलते	-11.1985
यु	-11.1986
▁जोकि	-11.1987
▁लगन	-11.1992
▁संगत	-11.1996
81	-11.2
▁विन	-11.2001
नामा	-11.2002
▁संगम	-11.2016
▁फोड़	-11.203
▁दस्त	-11.203
▁प्याज	-11.2036
▁वै	-11.2038
▁विफल	-11.2049
▁निपटा	-11.2049
▁भरोसे	-11.2055
▁खिड़की	-11.2055
▁चरित्र	-11.2055
▁दिवंगत	-11.2055
▁महापर्व	-11.2055
▁मुखर्जी	-11.2055
▁लॉन्‍च	-11.2055
▁इनपुट	-11.2055
▁छलांग	-11.2055
▁गौशाला	-11.2055
▁^	-11.2055
▁लोकतांत्रिक	-11.2055
▁झंडी	-11.2056
▁एसओजी	-11.2056
▁ख़ास	-11.2056
▁गालियां	-11.2056
▁फर्क	-11.2057
▁बांका	-11.2057
▁जुआ	-11.2057
▁चाबी	-11.2058
▁तबादला	-11.2058
▁क्रॉस	-11.2059
▁ठेके	-11.2059
▁मोक्ष	-11.2059
▁पोर्ट	-11.2066
बाड़ी	-11.2067
▁आएंगी	-11.2067
▁डाउन	-11.2068
han	-11.2069
मैंने	-11.207
▁युक्त	-11.2071
▁ट्रॉली	-11.2073
▁बेटों	-11.2076
▁रीना	-11.2077
▁कारोबारियों	-11.2079
सीसी	-11.2082
भाग	-11.209
▁ठंडा	-11.2093
बाजी	-11.2095
▁तले	-11.2097
▁लेगी	-11.21
लानी	-11.2101
▁रोप	-11.2104
ेस्ट	-11.2109
▁गुजरने	-11.211
▁छठे	-11.211
▁नामों	-11.211
▁बहाली	-11.2111
▁कान	-11.2116
85	-11.2122
▁डरा	-11.2124
▁खीर	-11.2126
▁सता	-11.2131
रेखा	-11.2132
गुरु	-11.2142
▁सुल्तान	-11.2142
▁परिवर्त	-11.2147
▁ड्रग	-11.2148
▁(20	-11.2148
ढा	-11.215
▁वास्तव	-11.2152
▁ऑलराउंडर	-11.2154
▁किडनैप	-11.2154
▁कौशिक	-11.2154
▁चंद्रचूड़	-11.2154
▁प्रकोष्ठ	-11.2154
▁महाआरती	-11.2154
▁माथुर	-11.2154
▁मोतिहारी	-11.2154
▁व्हाइट	-11.2154
▁संवैधानिक	-11.2154
▁कॉम्प्लेक्स	-11.2154
▁फ्लैग	-11.2154
▁पंजीकृत	-11.2154
▁विदिशा	-11.2154
▁एंगल	-11.2154
▁बेटियां	-11.2155
▁शुरूआत	-11.2155
▁गिरफ्त	-11.2155
.10	-11.2156
▁गोपालगंज	-11.216
▁खुर्द	-11.2161
▁मंथन	-11.2161
▁सीसी	-11.2161
▁सेंसर	-11.2161
लु	-11.2162
▁नवाब	-11.2173
▁उपवास	-11.2176
▁रंगे	-11.2177
61	-11.2181
▁मकर	-11.2192
▁चौके	-11.2193
▁79	-11.2193
▁समुदायों	-11.2194
्वर	-11.2194
▁कमा	-11.2195
▁सराय	-11.2196
ुख्ता	-11.2197
92	-11.2201
ेश्वरी	-11.2203
mi	-11.2205
किया	-11.2208
▁इंडस्ट्रीज	-11.2209
▁बढ़ाना	-11.2213
▁ड्राइव	-11.2216
▁पॉ	-11.222
▁बर्फ	-11.222
▁बेरोजगार	-11.222
▁हमलोग	-11.2221
▁लख	-11.2223
▁बदली	-11.2225
▁राजे	-11.2225
72	-11.2229
84	-11.2233
ंका	-11.2237
▁सिकंदर	-11.2245
▁परिस्थिति	-11.2253
▁टु	-11.2253
▁अद्भुत	-11.2254
▁अर्घ्य	-11.2254
▁इब्राहिम	-11.2254
▁नारनौल	-11.2254
▁लाइब्रेरी	-11.2254
▁वैक्सीन	-11.2254
▁शंभू	-11.2254
▁सनसनी	-11.2254
▁रास्तों	-11.2254
▁रेवन्ना	-11.2254
▁कुमावत	-11.2254
▁मुजफ्फरनगर	-11.2254
▁पर्दे	-11.2254
▁खरगे	-11.2254
▁झंडे	-11.2254
▁पुनः	-11.2254
▁सूर्यकुमार	-11.2255
▁पूर्वोत्तर	-11.2255
▁हरिद्वार	-11.2255
▁गुलाम	-11.2256
▁दिये	-11.2257
▁मॉर्च्य	-11.2257
▁छक्के	-11.2257
▁पार्टियां	-11.2259
▁पॉइंट्स	-11.2266
▁अंश	-11.227
पद	-11.2272
▁जातीय	-11.228
▁निराक	-11.228
▁छात्राएं	-11.2281
▁ईशा	-11.2284
▁जं	-11.2285
AL	-11.2285
▁बरसा	-11.229
नायक	-11.229
▁कालू	-11.2295
ाज	-11.2297
▁दावेदारी	-11.2297
▁मठ	-11.2308
र्द	-11.231
▁इनामी	-11.2311
▁देवर	-11.2313
क्त	-11.2313
▁महाराजा	-11.2313
▁रोने	-11.2316
▁टैक्सी	-11.2323
तो	-11.2323
▁जेडीए	-11.2325
▁एमएस	-11.2328
▁बाजी	-11.2329
विधान	-11.233
मुक्त	-11.2332
अगर	-11.2334
थर	-11.2337
▁धु	-11.2337
▁s	-11.2347
63	-11.2347
▁उत्	-11.2353
▁अनदेखी	-11.2355
▁अनुच्छेद	-11.2355
▁अनुष्ठान	-11.2355
▁इंग्लिश	-11.2355
▁धनंजय	-11.2355
▁पर्यवेक्षक	-11.2355
▁बटालियन	-11.2355
▁हेरिटेज	-11.2355
▁सैयद	-11.2355
▁(35)	-11.2355
▁चौबे	-11.2356
▁नवाचार	-11.2356
▁यूपीएससी	-11.2356
▁दीवान	-11.2356
▁महाकालेश्वर	-11.2357
▁टीएमसी	-11.2357
▁सुखबीर	-11.2357
नेस	-11.2358
▁टेंट	-11.2358
▁टुकड़े	-11.2358
▁पलटवार	-11.2358
आरएस	-11.2358
▁टावर	-11.2359
▁ड्राइविंग	-11.2359
▁रामचंद्र	-11.236
▁संतान	-11.2361
जिन	-11.2361
▁इंडी	-11.2361
▁हॉट	-11.2362
▁कॉमर्स	-11.2365
इल	-11.2367
▁होश	-11.2367
▁बनवाने	-11.2371
व्य	-11.2375
पानी	-11.238
▁जाप	-11.2381
▁फैली	-11.2381
▁जानकी	-11.2382
▁फोटोज	-11.2393
▁तू	-11.2396
ab	-11.2398
▁वोटर्स	-11.2399
▁बनवा	-11.2399
▁वास	-11.2418
-17	-11.2423
ak	-11.2424
▁व्य	-11.2426
्ज़	-11.2427
▁समर्थ	-11.2431
▁ते	-11.2431
जैसे	-11.2432
▁तंग	-11.2434
पुत्र	-11.244
वाहक	-11.2452
्वे	-11.2452
वट	-11.2453
▁फायदे	-11.2457
▁दुरुस्त	-11.2457
▁पंचकूला	-11.2457
▁बाइडेन	-11.2457
▁महानिदेशक	-11.2457
▁मारुति	-11.2457
▁राजभवन	-11.2457
▁सेमेस्टर	-11.2457
▁नफरत	-11.2457
▁अवश्य	-11.2457
▁जरिये	-11.2457
▁किस्सा	-11.2457
▁गवर्नमेंट	-11.2457
▁ASI	-11.2457
▁प्रतिनिधिमंडल	-11.2458
▁गंदा	-11.2458
▁विधिवत	-11.2458
▁मोनू	-11.2459
▁काउंटिंग	-11.2459
▁फिरौती	-11.246
▁एसआईटी	-11.2461
▁सर्विसेज	-11.2462
▁अनुशासन	-11.2464
▁सटे	-11.2464
▁ख़ान	-11.2465
na	-11.2466
▁हिल	-11.2468
▁कूलर	-11.247
▁अंकों	-11.2471
▁विजिट	-11.2472
▁अंग्रेजों	-11.2475
▁जुड़ने	-11.248
▁तन	-11.2486
▁श्रीनगर	-11.2488
▁पढ़े	-11.2491
▁उमा	-11.2492
मां	-11.25
मिल	-11.2503
अब	-11.2504
▁टीबी	-11.251
▁छि	-11.251
द्ध	-11.2512
ज्ञ	-11.2518
फुल	-11.2521
▁भाग्य	-11.2536
ौद	-11.2536
चू	-11.2538
▁पटाखे	-11.254
▁डो	-11.2541
▁ग्रे	-11.2542
ैक	-11.2545
▁विभाजन	-11.2554
▁कराएं	-11.2555
▁कतार	-11.2559
▁अवार्ड	-11.256
▁कपूरथला	-11.256
▁ख़त्म	-11.256
▁प्रवचन	-11.256
▁फोरेंसिक	-11.256
▁विश्राम	-11.256
▁बोकारो	-11.256
▁चरखी	-11.256
▁लायक	-11.2561
▁लोधी	-11.2561
▁बहुजन	-11.2561
शंस	-11.2562
▁भवानी	-11.2563
▁झटके	-11.2565
▁रेजिडेंट	-11.2565
03	-11.2566
मीत	-11.2567
▁मचाया	-11.2568
▁हल्दी	-11.2571
▁पैरवी	-11.2571
▁सजावट	-11.2572
▁सुल्तानपुर	-11.2572
▁वन्य	-11.2575
▁ईमानदारी	-11.2576
▁एपी	-11.2579
▁चलें	-11.2581
ंदा	-11.2582
नल	-11.2586
▁अनुपमा	-11.2588
▁पहन	-11.259
▁यु	-11.2592
▁बंटी	-11.2593
▁घेराबंद	-11.2597
▁वादे	-11.2598
▁87	-11.2609
▁कृति	-11.2618
▁बनारस	-11.2637
▁बीए	-11.2648
महा	-11.266
▁आडवाणी	-11.2664
▁गोताखोर	-11.2664
▁दुष्यंत	-11.2664
▁पीएचडी	-11.2664
▁फ़ैसला	-11.2664
▁फिफ्टी	-11.2664
▁मुआवजे	-11.2664
▁गणमान्य	-11.2664
▁वैश्य	-11.2664
▁लेनदेन	-11.2664
▁मातृ	-11.2665
▁कूड़ा	-11.2665
▁आरंभ	-11.2665
▁धवन	-11.2665
▁शादीशुदा	-11.2666
▁पाण्डेय	-11.2666
वेद	-11.2669
ोलॉजी	-11.267
▁लिखते	-11.2673
▁पीड़ा	-11.2674
▁गायों	-11.2674
▁पक्का	-11.2678
▁आईसीसी	-11.2678
▁आरजी	-11.2679
लाई	-11.2682
▁डालते	-11.2687
▁ट्रे	-11.2687
▁ट्र	-11.2687
▁एपल	-11.269
▁लेबर	-11.2692
एसआई	-11.2696
गार	-11.2696
▁रक्त	-11.2697
▁त्यागी	-11.2708
▁दिखता	-11.2721
्यो	-11.2725
फल	-11.2728
▁रै	-11.2731
▁उपकरणों	-11.2734
ot	-11.2736
बाबू	-11.2741
ोगे	-11.2744
▁नारी	-11.2744
जुल	-11.2748
बंध	-11.2751
▁अभिन	-11.2756
▁बुध	-11.2756
▁खेलना	-11.2757
▁शीतल	-11.276
▁बड	-11.2761
°	-11.2769
▁अनमोल	-11.2769
▁चित्रकूट	-11.2769
▁दूतावास	-11.2769
▁पाउडर	-11.2769
▁रिएक्शन	-11.2769
▁विश्लेषण	-11.2769
▁सुपुर्द	-11.2769
▁पुष्कर	-11.2769
▁अनुपस्थित	-11.2769
▁डेविड	-11.277
▁Modi	-11.277
▁ऑरेंज	-11.277
▁गर्भगृह	-11.277
▁झालावाड़	-11.277
▁चौरसिया	-11.277
▁अनुबंध	-11.277
▁अग्रिम	-11.277
▁कारगिल	-11.2771
मुखी	-11.2773
▁आईपीओ	-11.2773
▁नम्बर	-11.2774
▁भाभी	-11.2774
▁गिरीश	-11.2775
▁ग्रेटर	-11.2776
▁सियासत	-11.2777
▁रखवा	-11.2779
▁डिब्बे	-11.2779
▁गोंडा	-11.2781
▁नेत्र	-11.2782
▁बताना	-11.2785
se	-11.2788
पि	-11.2788
▁स्थाई	-11.2794
बड़ी	-11.2798
▁बेसिक	-11.2799
िद	-11.2801
▁कांग्रेसी	-11.2803
▁गुम	-11.2804
▁रिंग	-11.2814
▁बताता	-11.2816
▁गान	-11.2817
▁टेस्टिंग	-11.2822
मंत्री	-11.2826
ैद	-11.2826
▁मांस	-11.2827
दहाड़े	-11.2827
▁साद	-11.2833
▁आफ	-11.2836
▁एं	-11.2842
ॐ	-11.2851
▁एव	-11.2854
▁निराश	-11.2857
▁रूक	-11.286
52	-11.2861
धर्म	-11.2862
▁सैम	-11.2868
▁मंचन	-11.2869
▁प्रीमिय	-11.287
मै	-11.287
▁पह	-11.287
्दा	-11.2875
▁स्पर्धा	-11.2876
▁अग्निशमन	-11.2876
▁आश्चर्य	-11.2876
▁इच्छुक	-11.2876
▁ज्‍यादा	-11.2876
▁तेंदुआ	-11.2876
▁निमंत्रण	-11.2876
▁प्रांगण	-11.2876
▁भूकंप	-11.2876
▁सार्थक	-11.2876
▁राधेश्याम	-11.2876
▁उद्यान	-11.2876
▁अभिनंदन	-11.2876
▁कनेक्ट	-11.2876
▁मलेरिया	-11.2876
▁छतरपुर	-11.2876
▁पेशेवर	-11.2876
▁बाईपास	-11.2877
▁ब्ल	-11.2878
▁मेजर	-11.2879
तक	-11.2879
▁1999	-11.2879
▁अमान	-11.2882
▁विकासखंड	-11.2882
▁भि	-11.2884
▁हनुमानगढ़	-11.2884
▁जयंत	-11.2884
ोवा	-11.2887
▁गोलू	-11.2887
सिटी	-11.2888
भी	-11.2888
▁टूर	-11.289
▁घिर	-11.2892
-15	-11.2893
▁सिंधी	-11.2894
न्या	-11.2897
▁मल्ल	-11.2897
▁जिता	-11.2906
त्री	-11.2907
रांत	-11.2908
▁98	-11.291
▁मंडला	-11.2917
▁शत	-11.2917
▁जंगलों	-11.2919
खेड़ी	-11.2929
▁केबल	-11.293
▁किसे	-11.2946
▁अर्	-11.2951
रवा	-11.2954
▁देवता	-11.2955
▁बिखर	-11.2956
91	-11.2958
कप्तान	-11.2958
▁मुल	-11.2959
स्थाई	-11.2961
▁कंप	-11.2967
मोहन	-11.2971
▁अग्नि	-11.2972
क्ट	-11.2973
ग्राम	-11.2974
स्‍त	-11.2976
▁भ्रम	-11.2982
▁अवलोकन	-11.2983
▁आत्मविश्वास	-11.2983
▁खंडेलवाल	-11.2983
▁छोटू	-11.2983
▁जनजातीय	-11.2983
▁मुस्कान	-11.2983
▁समर्पण	-11.2983
▁गंदे	-11.2983
▁यकीन	-11.2983
▁देओल	-11.2983
▁(25)	-11.2983
▁नवम्बर	-11.2984
▁कैडर	-11.2984
▁थ्रो	-11.2984
▁पाइपलाइन	-11.2984
▁उल्टी	-11.2984
▁उत्तरप्रदेश	-11.2984
ठिया	-11.2985
▁कुंवर	-11.2987
▁रैंकिंग	-11.2991
▁माया	-11.2993
▁मुझ	-11.2993
▁सातवें	-11.2995
▁लुटेरों	-11.2998
▁93	-11.3001
▁बिछा	-11.3002
गढ	-11.3004
▁पाती	-11.3019
▁2.5	-11.3019
79	-11.3022
▁दया	-11.3022
▁मातम	-11.3023
ेटेड	-11.3024
ाएंगे	-11.3024
▁मेह	-11.3027
▁पंड	-11.3032
▁चंदा	-11.3033
▁रामनगर	-11.3035
एमसी	-11.3036
▁राशिद	-11.3045
▁कास्ट	-11.305
योग	-11.3051
खे	-11.3052
▁उधार	-11.3055
सुर	-11.306
▁रुपय	-11.306
सभा	-11.307
▁मुन	-11.3074
हित	-11.3076
▁बसे	-11.3078
ष्ठ	-11.308
िमा	-11.3081
▁कैट	-11.3083
▁गोविंदा	-11.3083
▁फु	-11.3084
▁गंज	-11.3085
▁नकल	-11.3085
ेला	-11.3089
०	-11.3092
▁इंजेक्शन	-11.3092
▁इकोनॉमी	-11.3092
▁कॉमेडी	-11.3092
▁तालिबान	-11.3092
▁द्विपक्षीय	-11.3092
▁पांड्या	-11.3092
▁पॉलिटिकल	-11.3092
▁रक्षाबंधन	-11.3092
▁रुझान	-11.3092
▁रोकथाम	-11.3092
▁व्हीकल	-11.3092
▁शिरकत	-11.3092
▁सम्पन्न	-11.3092
▁SUV	-11.3092
▁अडानी	-11.3092
▁चैंबर	-11.3092
▁फ्रेंचाइज	-11.3092
▁कांस्य	-11.3092
▁किडनी	-11.3092
▁शुगर	-11.3093
▁पंवार	-11.3094
▁प्रथा	-11.3095
id	-11.3095
▁5000	-11.3096
▁बोझ	-11.3096
▁पितृ	-11.3097
रूढ़	-11.3097
▁व्हील	-11.3097
▁साकार	-11.3098
▁आर्टिस्ट	-11.3098
▁(22)	-11.3099
▁मधुबनी	-11.31
▁चर्चित	-11.3101
▁आगाज	-11.3102
▁किंग्स	-11.3103
▁जूते	-11.3103
▁अर्जी	-11.3103
▁साहेब	-11.3105
▁जयराम	-11.3106
कड़	-11.311
▁बोल्ड	-11.3111
▁बहाव	-11.3113
कुंड	-11.3113
▁केवी	-11.3116
▁खरीदे	-11.3117
▁लिखने	-11.312
ंटी	-11.312
है	-11.3123
▁लगीं	-11.3124
सरा	-11.3131
▁पिला	-11.3137
▁पाना	-11.315
टीएस	-11.3153
▁प्रचारक	-11.3154
एससी	-11.3158
▁घुसपैठ	-11.3159
ावली	-11.3159
▁कोटे	-11.3159
▁अंकिता	-11.3161
▁धुन	-11.3163
▁श्रमिक	-11.3166
▁पिंक	-11.317
▁बंधु	-11.3171
▁लड़ाक	-11.3171
कॉम	-11.3174
भूमि	-11.3176
▁नगद	-11.3177
दरा	-11.3181
▁अकाल	-11.3181
ुक	-11.3182
▁युव	-11.3188
दत्त	-11.32
जाना	-11.3201
▁माले	-11.3201
▁उरांव	-11.3202
▁क्लिनिक	-11.3202
▁बुरहानपुर	-11.3202
▁सुपौल	-11.3202
▁of	-11.3202
▁मनरेगा	-11.3202
▁झोपड़	-11.3202
▁माइक्रो	-11.3202
▁सिंगापुर	-11.3202
▁मानवाधिकार	-11.3202
▁तरुण	-11.3202
▁आरपीएफ	-11.3202
▁गोशाला	-11.3202
▁एस्टेट	-11.3202
▁बायपास	-11.3203
▁मंशा	-11.3203
▁भावुक	-11.3203
▁अररिया	-11.3203
▁विवेकानंद	-11.3204
▁ईमेल	-11.3204
▁चेतन	-11.3205
▁मोर्चरी	-11.3205
▁पठान	-11.3205
▁शिवकुमार	-11.3205
▁India	-11.3206
▁वस्तुओं	-11.3206
▁उपहार	-11.3207
▁झाड़ियों	-11.3207
▁चना	-11.3209
▁लोहिया	-11.3212
▁फीडर	-11.3212
▁जीवित	-11.3213
▁मंगवा	-11.3215
ेय	-11.3215
▁योग्यता	-11.3215
ोरिया	-11.3216
▁रोटी	-11.3216
▁रोककर	-11.3218
▁मानवीय	-11.3219
▁सितारे	-11.3221
▁दवाई	-11.3222
▁मोटर्स	-11.3224
▁आये	-11.3226
▁पंचायती	-11.3227
▁सीखने	-11.3228
सेंट	-11.3232
▁नगदी	-11.3236
▁समन	-11.3238
शाम	-11.3238
▁गोल्डन	-11.3247
▁इसने	-11.325
900	-11.3253
▁सम्	-11.3256
बहन	-11.3259
▁फाइटर	-11.326
▁प्रोड्यूसर	-11.3261
▁एक्टिवा	-11.3267
सह	-11.3268
▁गनी	-11.3271
▁एज	-11.3272
्सिल	-11.3278
छोटे	-11.3288
खो	-11.3289
▁सराहन	-11.3292
00	-11.3295
▁अवध	-11.3299
हाट	-11.33
और	-11.3302
ेरिया	-11.3303
▁किस्म	-11.3304
डॉ	-11.3306
▁आक्रामक	-11.3306
▁तह	-11.3309
▁Price	-11.3313
▁इंडस्ट्रियल	-11.3313
▁कनेक्टिविटी	-11.3313
▁जनसंख्या	-11.3313
▁ताइवान	-11.3313
▁लैपटॉप	-11.3313
▁शून्य	-11.3313
▁हरियाली	-11.3313
▁अबोहर	-11.3313
▁एक्सचेंज	-11.3313
▁निशानदेही	-11.3313
▁संन्यास	-11.3313
▁बर्थडे	-11.3313
▁धुंध	-11.3313
▁निरंजन	-11.3314
▁डाक्टर	-11.3314
▁जायेगी	-11.3314
▁मम्मी	-11.3314
▁टैग	-11.3315
▁महिमा	-11.3315
▁घातक	-11.3316
▁आरटीओ	-11.3317
▁लड़ेंगे	-11.3317
ेली	-11.3318
जार	-11.3318
▁पाट	-11.3321
▁सीवर	-11.3322
▁Z	-11.3323
▁प्रस्तुतियां	-11.3323
▁कैदी	-11.3326
▁बालिकाओं	-11.3327
षा	-11.3333
▁जादू	-11.3338
बन	-11.3341
95	-11.3345
▁बैठाकर	-11.3349
▁सुप्रीमो	-11.3349
▁हमसे	-11.3353
▁जाय	-11.3354
▁नवाज	-11.3358
▁बादशाह	-11.3358
▁उठने	-11.3365
▁निर	-11.337
▁जनक	-11.3374
▁मेहरा	-11.3381
▁फेंका	-11.3381
▁पेंट	-11.3383
▁इत	-11.3388
्ला	-11.3392
सेन	-11.3396
▁महंग	-11.3396
▁कर्नल	-11.3397
▁जप	-11.3397
▁बॉय	-11.3399
स्म	-11.3401
दन	-11.3407
मेंस	-11.3414
टिक	-11.3417
▁घसीट	-11.3424
▁अस्तित्व	-11.3425
▁कच्ची	-11.3425
▁बर्खास्त	-11.3425
▁शिमला	-11.3425
▁प्रसव	-11.3425
▁उछल	-11.3425
▁गुमराह	-11.3425
▁पंचनामा	-11.3426
▁ख़बर	-11.3426
▁भिड़ंत	-11.3426
▁अभिनय	-11.3427
▁भुवनेश्वर	-11.3427
▁नारियल	-11.3427
▁अय्यर	-11.3427
▁सिरोही	-11.3428
▁घास	-11.3428
▁देवगन	-11.3429
▁वायरस	-11.3429
▁गाजा	-11.343
▁क्षति	-11.343
▁रण	-11.3431
राज्य	-11.3432
▁सुखदेव	-11.3433
▁योगेंद्र	-11.3433
▁प्रात	-11.3434
▁वक्ता	-11.3434
▁पाएगी	-11.3435
▁शॉप	-11.3436
▁चंद्रमा	-11.3436
▁फिरोज	-11.3437
▁मोहनलाल	-11.3438
▁मजबूरी	-11.344
▁मक्का	-11.344
▁सिक्स	-11.3441
्योर	-11.3442
▁बांटने	-11.3446
▁कीमतें	-11.3448
▁टूटे	-11.3451
▁श्रेय	-11.3455
▁माफ	-11.3456
▁बिस्तर	-11.3456
CA	-11.346
▁c	-11.3466
▁प्रतियोगिताओं	-11.3469
▁(1	-11.3475
▁फाड़	-11.3483
▁चरम	-11.3488
▁ढक	-11.3494
ल्स	-11.3497
▁रामदेव	-11.3507
▁यूजी	-11.351
▁p	-11.3512
डीजल	-11.3516
▁शहीदों	-11.3521
▁चो	-11.3522
06	-11.3522
▁सकल	-11.3527
▁SC	-11.3527
▁धमका	-11.3531
▁बौद्ध	-11.3536
▁वरीय	-11.3539
▁इजाजत	-11.3539
▁एसबीआई	-11.3539
▁ट्रांसप्लांट	-11.3539
▁निर्णायक	-11.3539
▁प्रकोप	-11.3539
▁शाजापुर	-11.3539
▁संक्रमण	-11.3539
▁सिक्किम	-11.3539
▁नगरपालिका	-11.3539
▁सेमिनार	-11.3539
▁दावों	-11.3539
▁रिलेशनशिप	-11.3539
▁छिड़काव	-11.3539
▁किरोड़ी	-11.3539
▁यशस्वी	-11.3539
▁ऑक्सीज	-11.3539
▁भोले	-11.354
द्द	-11.354
▁बेसमेंट	-11.3541
▁आरसी	-11.3542
▁अनवर	-11.3543
▁किताबें	-11.3544
▁पौधा	-11.3545
जरी	-11.3547
कोर	-11.3548
▁पटाखा	-11.355
▁बताओ	-11.3551
गेट	-11.3552
▁डीजी	-11.3553
▁मुश्किलें	-11.3555
▁कैथल	-11.3556
िफ	-11.3557
▁समाजजन	-11.3557
▁कैंडिडेट्स	-11.3559
▁गर्भ	-11.356
भाव	-11.3562
▁ऊ	-11.3562
▁साइ	-11.3563
▁बिता	-11.3564
▁प्रकरणों	-11.3569
▁व्यवस्थाएं	-11.3571
तरा	-11.3574
▁160	-11.3574
▁माधवी	-11.3576
▁सुधा	-11.3577
▁मट	-11.3581
▁कंवर	-11.3581
▁b	-11.3586
▁यून	-11.3589
▁विश	-11.3589
रेज	-11.3596
पाली	-11.3603
▁इको	-11.3605
आईसी	-11.3607
▁व्यवसायी	-11.3607
▁अभिभावक	-11.3612
▁भागे	-11.3614
▁नक्सल	-11.3615
▁उपलब्धता	-11.3615
▁बोस	-11.3616
▁ठा	-11.3619
96	-11.362
▁भो	-11.3624
तफरी	-11.3629
भाजपा	-11.3629
मणि	-11.3638
ul	-11.3645
▁180	-11.3646
▁पॉल	-11.3648
धारा	-11.3652
▁आंगन	-11.3654
▁क्लिप	-11.3654
▁नक्षत्र	-11.3654
▁मगरमच्छ	-11.3654
▁लद्दाख	-11.3654
▁विक्षोभ	-11.3654
▁हिस्ट्रीशीटर	-11.3654
▁दशरथ	-11.3654
▁इंडिगो	-11.3654
▁ब्लाक	-11.3654
▁भावनात्मक	-11.3654
खुफिया	-11.3654
▁कैम्प	-11.3655
▁निजात	-11.3655
▁डेमोक्रेटिक	-11.3655
▁खाटू	-11.3655
▁अड्डा	-11.3656
▁एमसी	-11.3658
▁टूटी	-11.3662
▁पैक्स	-11.3664
चढ़ाव	-11.3664
▁पंचमी	-11.3665
▁आड़	-11.367
▁टर्न	-11.367
▁पितर	-11.3671
▁कीमती	-11.3671
▁चौकीदार	-11.3671
▁ऊंचा	-11.3672
चरण	-11.3675
फ्ट	-11.3675
▁लगेंगे	-11.3679
न्यू	-11.3681
▁शैली	-11.3688
▁मुड़	-11.3689
▁लगेगी	-11.3694
▁एसएस	-11.3694
▁फॉर्मेट	-11.3698
▁चिर	-11.37
▁सरकारों	-11.3705
▁घटी	-11.3706
▁देह	-11.371
▁एक्टर्स	-11.3713
वालों	-11.3715
▁वाई	-11.3717
फाई	-11.3717
▁घटक	-11.3719
फ़ा	-11.3719
▁गुरू	-11.373
▁भराव	-11.3733
▁सावधान	-11.3737
▁पक्षियों	-11.3738
ंकर	-11.3739
विकास	-11.3745
▁अनजान	-11.3748
मार्क	-11.3749
प्ले	-11.375
▁श्र	-11.3752
▁पीकर	-11.3752
लपुर	-11.3754
▁भवनों	-11.3758
▁संसाधनों	-11.3759
▁कंस	-11.3763
नीत	-11.3767
hi	-11.3769
▁अर्धशतक	-11.377
अस्थायी	-11.377
▁अदिति	-11.377
▁आरबीआई	-11.377
▁खरगोन	-11.377
▁जनसुनवाई	-11.377
▁तुषार	-11.377
▁दूल्हे	-11.377
▁नाजुक	-11.377
▁पहुँच	-11.377
▁पेरेंट्स	-11.377
▁मधेपुरा	-11.377
▁वेलफेयर	-11.377
▁हकीकत	-11.377
▁सिवनी	-11.377
▁खालिस्तान	-11.377
▁बलौदाबाजार	-11.377
▁कैलेंडर	-11.377
▁ओवैसी	-11.377
▁ICC	-11.3771
▁शस्त्र	-11.3771
▁ढाणी	-11.3771
▁स्टंट	-11.3771
▁पूनिया	-11.3771
▁यादगार	-11.3771
▁ब्रेन	-11.3772
▁पीजीआई	-11.3772
▁बैरवा	-11.3772
▁1996	-11.3773
▁स्पष्टीकरण	-11.3773
▁वल्लभ	-11.3774
▁टीजर	-11.3774
▁आंखें	-11.3774
जनक	-11.3775
▁टच	-11.3776
▁कैसी	-11.3776
▁प्रीमियम	-11.3778
▁कटाई	-11.378
▁वर्जन	-11.3781
▁पोते	-11.3781
▁बाएं	-11.3786
द्	-11.3789
▁प्रशासक	-11.3793
▁तत्व	-11.3794
▁बादलों	-11.3796
▁जलाकर	-11.38
▁निर्देशों	-11.3801
▁नग	-11.3804
▁सम्मि	-11.3807
▁महंगी	-11.3809
र्सल	-11.3813
ेक्ट	-11.3817
▁परफॉर्म	-11.3818
▁यूं	-11.3821
▁कराएंगे	-11.3822
ran	-11.3827
▁उपलब्धियों	-11.3828
स्तरीय	-11.3832
्‍त	-11.3833
▁अटक	-11.384
्रिड	-11.3842
▁कामयाबी	-11.3842
▁रॉड	-11.3844
▁हादस	-11.3845
वारी	-11.385
▁अकेल	-11.3853
बु	-11.3856
▁डू	-11.3859
IC	-11.386
▁बोरी	-11.3864
प्ट	-11.3886
▁आत्मनिर्भर	-11.3888
वैकल्पिक	-11.3888
▁एमओयू	-11.3888
▁ऑडिट	-11.3888
▁क्रिसमस	-11.3888
▁दिगंबर	-11.3888
▁बदायूं	-11.3888
▁भूस्खलन	-11.3888
▁वर्कशॉप	-11.3888
▁डिवाइडर	-11.3888
▁आगजनी	-11.3888
▁ज़मीन	-11.3888
▁चंपारण	-11.3888
▁कारीगर	-11.3888
▁स्टार्टअप	-11.3888
▁विमोचन	-11.3888
▁बिगाड़	-11.3888
▁दवाइयां	-11.3889
▁चूरू	-11.3889
▁महासंघ	-11.3889
▁व्यय	-11.3889
▁तमिल	-11.3889
▁रिजवान	-11.389
▁उपखंड	-11.3891
▁एडीजी	-11.3891
▁आकांक्षा	-11.3892
▁चेंज	-11.3893
सिम	-11.3897
86	-11.3898
AI	-11.3899
▁चंद्राकर	-11.3899
▁डेड	-11.3899
▁निवेशक	-11.3899
ियम	-11.39
▁संपत्तिय	-11.39
▁दीक्षा	-11.3902
▁बूंदी	-11.3906
▁गरीबी	-11.391
▁महू	-11.3914
▁अना	-11.3918
▁थानेदार	-11.3919
▁बंदर	-11.392
▁चैट	-11.3921
▁मेड	-11.3922
आईटीआई	-11.3924
▁निर्व	-11.3928
▁लौटते	-11.3933
▁शैल	-11.3936
श्व	-11.3936
▁लड़े	-11.3937
▁बट	-11.3939
▁बू	-11.3944
▁असद	-11.3951
▁शर्तों	-11.3963
▁मैनेज	-11.3965
▁अपनाया	-11.3966
ंदी	-11.3974
किन	-11.3974
प्रसाद	-11.3981
उधर	-11.3983
▁घुमा	-11.3998
▁प्रार्थ	-11.4004
काम	-11.4005
▁ट्रांस	-11.4007
▁मनोकामना	-11.4007
▁इत्यादि	-11.4007
▁कॉर्पोरेशन	-11.4007
▁द्रौपदी	-11.4007
▁विश्नोई	-11.4007
▁सांप्रदायिक	-11.4007
▁सगाई	-11.4007
▁सस्ते	-11.4007
▁परशुराम	-11.4007
▁श्रावण	-11.4007
▁हजारीबाग	-11.4007
▁मेहंदी	-11.4007
▁नकारात्मक	-11.4007
▁उषा	-11.4007
▁जन्मभूमि	-11.4008
▁ड्रामा	-11.4008
सराय	-11.4008
▁कच्चा	-11.4008
▁फिल	-11.4009
▁भालू	-11.4009
लुहान	-11.4009
wa	-11.401
▁हाजीपुर	-11.401
▁भोला	-11.4011
▁कमलनाथ	-11.4012
▁साहनी	-11.4014
थल	-11.4015
▁सिराज	-11.4016
▁काउंसिलिंग	-11.4017
▁पीस	-11.4019
▁2006	-11.4019
▁पहनने	-11.4022
▁वेडिंग	-11.4027
▁बहला	-11.4033
▁सज	-11.4037
▁उत्पादक	-11.404
▁खरीदना	-11.4046
▁नये	-11.4048
▁छठी	-11.405
▁मूंग	-11.4055
हीन	-11.4061
▁दुआ	-11.407
▁डीपी	-11.4074
▁वॉल	-11.4075
▁एनआईए	-11.4078
मुख	-11.4083
▁खाक	-11.4088
योजित	-11.4089
▁हाजिर	-11.4094
OS	-11.4098
खाना	-11.4099
.00	-11.4101
श्च	-11.4101
▁स्टडी	-11.4102
बेटी	-11.4108
▁पटक	-11.4109
▁बीपी	-11.411
▁विमल	-11.4111
ैत	-11.4118
▁जित	-11.4118
▁लहरा	-11.4121
रेट	-11.4123
▁प्रतिबद्ध	-11.4125
▁रजा	-11.4125
.05	-11.4126
▁अपग्रेड	-11.4127
▁अवस्थी	-11.4127
▁कुणाल	-11.4127
▁खुदकुशी	-11.4127
▁प्रहलाद	-11.4127
▁मलाइका	-11.4127
▁माल्यार्पण	-11.4127
▁लॉन्ड्रिंग	-11.4127
▁विवेचना	-11.4127
▁आंशिक	-11.4127
▁चेयरपर्सन	-11.4127
▁नीतू	-11.4128
▁(30)	-11.4128
▁अवशेष	-11.4128
▁गोपनीय	-11.4128
▁धमकियां	-11.4128
▁पुण्य	-11.4128
▁टूरिस्ट	-11.4128
▁वक़्त	-11.4128
▁जितेन्द्र	-11.4128
▁भत्ता	-11.4128
▁राजनयिक	-11.4128
▁हलचल	-11.4128
▁एक्टिविटी	-11.4128
▁इटली	-11.4129
▁धमकाया	-11.413
▁अमृतपाल	-11.413
▁ईसाई	-11.413
▁नर्सरी	-11.4132
▁कटाव	-11.4132
▁बनवाया	-11.4134
▁लोहा	-11.4134
▁आईएमडी	-11.4134
▁140	-11.4136
▁चंबल	-11.4136
▁न्यास	-11.4137
▁पिछड़े	-11.4139
▁हरप्रीत	-11.4139
्ली	-11.414
्ले	-11.414
▁बलराम	-11.4143
▁लगवाने	-11.4144
संघ	-11.4149
▁पंखे	-11.4151
एनडीपीएस	-11.4152
रार	-11.4156
▁मशीनों	-11.4159
▁केबिन	-11.416
▁पहुंचना	-11.4162
▁रोते	-11.4164
▁Y	-11.4168
▁पांचवीं	-11.4172
▁साईं	-11.4174
▁चावला	-11.4177
▁हैंड	-11.4185
▁साहस	-11.4197
▁पीएस	-11.4201
▁पक्षी	-11.4202
▁सेमी	-11.4208
▁एलन	-11.4209
स्वामी	-11.4212
-16	-11.4214
▁विश्वविद्यालयों	-11.4214
▁बुद्धि	-11.4225
सीएल	-11.4227
▁विनीत	-11.423
मेरे	-11.4237
▁जुर्मान	-11.424
▁ढह	-11.4241
खन	-11.4241
▁मोर्च	-11.4248
्टन	-11.4249
▁कंचन	-11.4249
*	-11.4249
▁जांजगीर	-11.4249
▁ध्वजारोहण	-11.4249
▁मिर्च	-11.4249
▁रणधीर	-11.4249
▁सांगानेर	-11.4249
▁होमगार्ड	-11.4249
▁छावनी	-11.4249
▁शावक	-11.4249
▁बाइपास	-11.425
▁ओवरब्रिज	-11.425
▁बैलेट	-11.425
▁बिजनेसमैन	-11.4251
▁चंपाई	-11.4251
▁तादा	-11.4252
▁चप्पल	-11.4253
▁गलियों	-11.4253
▁खपत	-11.4253
man	-11.4254
बारी	-11.4254
ेंड	-11.4255
▁स्ट्रीम	-11.4256
▁लेखा	-11.4256
िगत	-11.4257
▁स्क्रीनिंग	-11.426
▁नमक	-11.426
▁ज़रूरी	-11.4261
▁मनमानी	-11.4264
▁हब	-11.4271
▁इम	-11.4278
▁कर्ण	-11.4281
▁Sh	-11.4283
▁बंदी	-11.4285
▁देशी	-11.4296
▁अधि	-11.4296
ंजा	-11.4302
रेन	-11.4302
डिंग	-11.4308
▁पूल	-11.431
क्शन	-11.431
ताशा	-11.431
▁सूर्या	-11.4311
▁फैसल	-11.4313
▁कुं	-11.4315
नीयत	-11.4323
डीसी	-11.4323
71	-11.4324
▁नारायणपुर	-11.4326
▁f	-11.433
▁अल्	-11.4333
97	-11.4336
▁2500	-11.4344
▁नैन	-11.4344
▁रेडियो	-11.4349
देय	-11.4354
▁जीप	-11.4355
ियार	-11.4357
ट्रिक	-11.4358
माने	-11.4361
et	-11.4362
▁गड्	-11.4362
▁इलेक्ट	-11.4364
मोदी	-11.4368
▁इटावा	-11.4373
▁उपराष्ट्रपति	-11.4373
▁एयरलाइंस	-11.4373
▁धरोहर	-11.4373
▁मज़बूत	-11.4373
▁मर्चेंट	-11.4373
▁स्कूटर	-11.4373
▁दीनदयाल	-11.4373
विजिलेंस	-11.4373
▁श्रृंखला	-11.4373
▁शिष्य	-11.4373
▁महागठबंधन	-11.4373
▁जालसाज	-11.4373
▁रोहिणी	-11.4373
▁स्टॉप	-11.4373
▁कंटेंट	-11.4373
▁पैटर्न	-11.4373
▁महालक्ष्मी	-11.4373
▁जसवंत	-11.4373
▁रिसीव	-11.4374
▁रस्सी	-11.4374
▁मिडिल	-11.4374
▁चौर	-11.4374
थपथ	-11.4375
▁एसटीएफ	-11.4377
▁निर्देशानुसार	-11.4377
▁उलझ	-11.4381
▁अन्तर्	-11.4382
शे	-11.4385
▁चिप	-11.4391
▁हर्षित	-11.4397
▁पंजी	-11.4397
▁गौड़	-11.4397
89	-11.4402
▁प्ल	-11.4403
▁गुस्साए	-11.4405
▁प्रवासी	-11.4406
▁शह	-11.4409
प्रो	-11.4418
▁89	-11.4419
▁परीक्षाएं	-11.442
▁अन्याय	-11.4421
▁बांग्लादेशी	-11.4422
▁भंडारे	-11.4422
▁Re	-11.4423
▁होस्ट	-11.4427
चित	-11.4438
भान	-11.4443
▁हलक	-11.4449
▁सीआईए	-11.4453
▁उद्	-11.4456
▁1200	-11.4468
▁बनीं	-11.4474
▁निराशा	-11.4478
▁काटे	-11.4482
▁जाग	-11.4488
us	-11.449
वरी	-11.4493
ंबर	-11.4495
▁रश्मि	-11.4496
▁संग्रह	-11.4496
▁बाउंड्री	-11.4497
तृक	-11.4498
▁अडाणी	-11.4498
▁अथॉरिटी	-11.4498
▁कुल्हाड़ी	-11.4498
▁चिंतित	-11.4498
▁धैर्य	-11.4498
▁बिजनौर	-11.4498
▁मराठी	-11.4498
महायुति	-11.4498
▁हल्का	-11.4498
▁सौगात	-11.4498
▁चक्रवर्ती	-11.4498
सीबीएसई	-11.4498
▁रॉकेट	-11.4498
▁ट्रम्प	-11.4498
▁पलायन	-11.4498
▁RSS	-11.4498
▁महाराणा	-11.4498
▁आइडिया	-11.4498
▁सहकारिता	-11.4499
▁अखंड	-11.4499
▁बेस्ड	-11.45
▁गंगाजल	-11.45
▁मालिनी	-11.45
▁जौहर	-11.4501
▁सट्टा	-11.4501
▁रीति	-11.4502
▁चिल	-11.4503
▁इंसाफ	-11.4503
रादित्य	-11.4504
केट	-11.4506
▁हैदर	-11.4509
▁भगवती	-11.4517
ंटा	-11.4517
▁चलिए	-11.4523
पाठ	-11.4524
▁आदेशों	-11.4525
▁हनी	-11.4526
रपुर	-11.4527
सीए	-11.4529
▁मार्केटिंग	-11.4529
▁मानवता	-11.453
▁सरसों	-11.4531
▁राजभर	-11.4532
▁नौकरिय	-11.4534
▁सेवादार	-11.4534
▁काव्य	-11.4537
रस	-11.4538
जहाँ	-11.4547
▁उग	-11.455
▁मिट्	-11.4555
पथ	-11.4557
▁उतनी	-11.4559
▁फ्रीज	-11.4562
▁कबाड़	-11.4563
▁आवेदक	-11.4583
▁भंवर	-11.4586
▁हस	-11.4588
▁फौज	-11.4591
ोलिया	-11.4596
रंग	-11.4596
.75	-11.4597
प्रिय	-11.4602
▁उद्यम	-11.4604
▁ड्रॉ	-11.4605
उप	-11.461
▁आश	-11.461
▁फै	-11.4618
▁निर्धार	-11.462
▁अफेयर	-11.462
ाधीन	-11.4622
▁इमाम	-11.4624
▁news	-11.4624
▁ऋतिक	-11.4624
▁चाइल्ड	-11.4624
▁जाह्नवी	-11.4624
▁डिप्रेशन	-11.4624
▁देशभक्ति	-11.4624
▁पादुकोण	-11.4624
▁बॉबी	-11.4624
▁मन्दिर	-11.4624
▁महामंडलेश्वर	-11.4624
▁मैराथन	-11.4624
▁वाटिका	-11.4624
▁श्राद्ध	-11.4624
▁स्मैक	-11.4624
▁व्हाट्सएप	-11.4624
▁हरिओम	-11.4624
यूनाइटेड	-11.4624
▁एग्रीमेंट	-11.4625
▁टेनिस	-11.4625
▁ग्रैंड	-11.4625
▁भीमराव	-11.4625
रूद्ध	-11.4625
▁डीएवी	-11.4625
▁सत्यनारायण	-11.4625
▁जयप्रकाश	-11.4626
▁जलाभिषेक	-11.4626
▁अभियोजन	-11.4626
▁अभिजीत	-11.4626
▁भिजवाया	-11.4626
74	-11.4626
▁डाय	-11.4627
▁बोनस	-11.4627
▁अमरनाथ	-11.4629
▁बारी	-11.4631
▁बिस	-11.4632
▁(24)	-11.4633
▁मौन	-11.4633
▁अधिकृत	-11.4637
▁अद	-11.4641
▁दाग	-11.4643
▁सोया	-11.4645
▁कोमल	-11.4646
बंदी	-11.4654
एमसीएच	-11.4655
थी	-11.4655
▁जतात	-11.4655
▁इंट	-11.4661
▁लड़ना	-11.4661
▁(1)	-11.4664
▁एकल	-11.4666
हू	-11.4671
mA	-11.4673
▁फेंकने	-11.4674
ST	-11.4677
▁बचाओ	-11.4681
ीदा	-11.4687
▁देवा	-11.4689
श्वस्त	-11.4696
वनीत	-11.4697
▁बोग	-11.4698
▁एट	-11.47
क्षेत्र	-11.4718
▁झाड़	-11.4719
▁शी	-11.4723
प्रकाश	-11.4725
▁प्लेन	-11.4727
पाकिस्तान	-11.4728
▁रईस	-11.4729
आईएस	-11.4733
▁तीख	-11.4742
▁टॉपर	-11.4743
▁जामा	-11.4745
▁घुसा	-11.4746
▁वस्तु	-11.4746
▁सिमट	-11.4751
▁गिन	-11.4752
▁Kapoor	-11.4753
▁उफान	-11.4753
▁कुख्यात	-11.4753
▁डोटासरा	-11.4753
▁निलंबन	-11.4753
▁परीक्षार्थियों	-11.4753
▁मानसरोवर	-11.4753
▁पॉक्सो	-11.4753
▁सिंहभूम	-11.4753
▁अब्बास	-11.4753
▁नितेश	-11.4753
▁फोरलेन	-11.4753
▁ईदगाह	-11.4753
▁ख़ुद	-11.4753
▁बृजभूषण	-11.4753
▁कृत्य	-11.4753
▁गुरमीत	-11.4753
▁दमोह	-11.4754
▁परिहार	-11.4754
▁रायसेन	-11.4754
▁शताब्दी	-11.4756
▁रंगोली	-11.4756
▁महेन्द्र	-11.4757
▁मू	-11.476
▁बजाए	-11.4761
▁रामकुमार	-11.4762
▁बेबी	-11.4764
तला	-11.4765
▁कंधे	-11.4767
▁क्व	-11.4771
▁पहनाकर	-11.4771
▁पीसीसी	-11.4772
▁मेजबानी	-11.4772
▁खेम	-11.4776
▁मूल्यों	-11.4782
▁Vi	-11.4785
▁बिखरा	-11.4785
▁मानती	-11.4786
▁EV	-11.4787
▁येलो	-11.4788
▁2-2	-11.4788
▁स्वाद	-11.479
िशन	-11.4793
▁यूनिट्स	-11.4793
▁मचाने	-11.4796
▁हरदा	-11.4796
▁कस्टमर	-11.4799
रोड	-11.4801
देवी	-11.4804
मह	-11.4807
▁गोर	-11.4815
▁अंबा	-11.4817
ंदर	-11.482
▁Co	-11.4821
राणिक	-11.4823
▁नवल	-11.4827
▁सिंघ	-11.4843
MC	-11.4848
त्रा	-11.4849
▁लेखन	-11.4849
▁मॉ	-11.4855
स्टार	-11.4858
▁अन्न	-11.4858
दिल्ली	-11.4858
▁डिस्क	-11.4867
▁विल	-11.4868
▁प्लाट	-11.4878
▁अनियमितता	-11.488
▁कन्नौज	-11.4882
▁एफएसएल	-11.4883
▁क्रियान्वयन	-11.4883
▁ठिकाने	-11.4883
▁विक्रांत	-11.4883
▁शोएब	-11.4883
▁सर्वसम्मत	-11.4883
▁ऊंचे	-11.4883
▁जहीर	-11.4883
▁फरीदकोट	-11.4883
▁इकाइय	-11.4883
▁रोटरी	-11.4883
▁मसीह	-11.4883
▁संबद्ध	-11.4884
▁सुरजीत	-11.4884
▁परंपरागत	-11.4886
▁चुनी	-11.4888
▁देवघर	-11.4889
▁सगे	-11.489
▁तेज़	-11.489
▁मार्क्स	-11.4893
▁गोग	-11.4894
▁प्लेयर्स	-11.4895
▁अमृता	-11.4897
▁हिना	-11.4897
▁मसल	-11.4898
▁ट्रैवल	-11.4898
▁जोड़ो	-11.49
▁तिराहा	-11.4903
▁पात्रता	-11.4903
▁कैदियों	-11.4905
▁2003	-11.4909
बस	-11.491
▁आहार	-11.491
▁सलामी	-11.4911
te	-11.4912
▁खेप	-11.4914
ah	-11.4923
▁मस्त	-11.4926
▁विजयी	-11.4932
5%	-11.4934
अल	-11.4934
▁शान	-11.4937
▁ठेकेदारों	-11.4938
यत	-11.4938
▁झुक	-11.4941
▁स्वभाव	-11.4956
▁अंज	-11.4956
di	-11.4962
मिन	-11.4963
▁रोकना	-11.4965
▁ताप	-11.4967
▁स्टार्ट	-11.4967
▁एवज	-11.4969
▁वंश	-11.497
▁ग्ल	-11.4971
▁सिद्धांत	-11.4972
▁झेलन	-11.4975
▁विद्रोह	-11.498
श्त	-11.4983
विदेश	-11.4991
ताल	-11.4995
▁रुकवा	-11.4996
▁पैड	-11.4997
▁ज़रि	-11.4997
▁चैन	-11.4997
ac	-11.4999
डेंट	-11.5004
▁उल	-11.5004
शास्त्र	-11.5007
▁औपचारिक	-11.5007
▁जटिल	-11.5007
▁नाच	-11.5011
▁प्रजापत	-11.5012
▁इंश्योरेंस	-11.5014
▁उन्नाव	-11.5014
▁ऋचा	-11.5014
▁एपिसोड	-11.5014
▁टॉयलेट	-11.5014
▁डिंपल	-11.5014
▁तब्दील	-11.5014
▁तेलुगु	-11.5014
▁फ़ीसदी	-11.5014
▁वर्चुअल	-11.5014
▁मराठा	-11.5014
▁मीडियम	-11.5014
▁टूरिज्म	-11.5014
▁बंदरगाह	-11.5014
▁पल्लव	-11.5014
▁बदबू	-11.5014
▁ग्रोथ	-11.5014
▁अग्रसेन	-11.5014
▁संग्राम	-11.5015
उस	-11.5015
▁खत्री	-11.5015
▁निबंध	-11.5015
मेट	-11.5017
▁बीएसई	-11.5017
▁माँ	-11.5018
▁पत्रों	-11.5019
▁झूठी	-11.5019
▁इक	-11.5019
मिया	-11.5019
▁दही	-11.5022
▁900	-11.5025
स्त्र	-11.5029
▁भद	-11.5029
▁जुटाने	-11.5036
▁क्रिया	-11.5038
शो	-11.5039
▁रेटिंग	-11.504
ation	-11.5043
कल्याणकारी	-11.5044
▁बाब	-11.5044
दल	-11.5045
ोत	-11.5047
▁फौजी	-11.5049
▁पत्त	-11.505
▁मुर	-11.5053
▁फ्र	-11.5053
▁वर्	-11.5055
▁रहीम	-11.5058
▁रिकॉर्डिंग	-11.5075
▁खोकर	-11.5076
▁चौंकान	-11.5078
.35	-11.5079
हाल	-11.508
▁बागी	-11.5081
▁साम	-11.5083
▁कान्हा	-11.5086
एमएस	-11.5093
▁कुंज	-11.5098
ण्य	-11.5098
ैर	-11.5099
ूराम	-11.5104
▁चिट	-11.5105
▁ठंडी	-11.511
▁रोमांचक	-11.511
बिन	-11.5112
भूषण	-11.5113
▁प्रवास	-11.5114
▁छप	-11.5117
ुवा	-11.5124
रुक	-11.5126
▁तिराह	-11.5127
क्टर	-11.5129
▁उग्र	-11.5133
▁बैंकिंग	-11.5133
▁सूख	-11.5136
शाह	-11.5137
▁नौकर	-11.5137
▁राइफल	-11.5141
▁विक्रेता	-11.5143
▁माम	-11.5143
▁संतुष्ट	-11.5145
▁सेलेब्	-11.5147
▁SHO	-11.5147
▁तंवर	-11.5147
▁दंतेवाड़ा	-11.5147
▁धनखड़	-11.5147
▁पॉजिटिव	-11.5147
▁वैल्यू	-11.5147
▁सैमसंग	-11.5147
▁सेंचुरी	-11.5147
▁डिस्ट्रिक्ट	-11.5147
▁मसूद	-11.5147
▁सर्राफ	-11.5148
▁वायुसेना	-11.5148
▁निम्न	-11.5148
▁तिरुपति	-11.5148
▁मतभेद	-11.5148
▁आर्टिकल	-11.5148
▁सिंग	-11.5148
▁लहू	-11.5148
▁बड़वानी	-11.5148
▁सीमावर्ती	-11.5149
▁पुनीत	-11.5149
उल	-11.515
▁व्यवस्थित	-11.515
▁सतपाल	-11.515
▁भूखंड	-11.515
▁कैंपेन	-11.5151
▁सन्नी	-11.5151
▁अमरजीत	-11.5151
▁धमाका	-11.5153
▁विभागाध्यक्ष	-11.5155
▁राठी	-11.5156
साई	-11.5159
▁घड़ी	-11.5162
▁जिया	-11.5163
▁बटोर	-11.5165
▁अपार	-11.5166
कुर	-11.5166
▁सूखे	-11.5169
जोत	-11.517
▁बॉलिंग	-11.5171
खार	-11.5174
▁एक्सपर्ट्स	-11.5175
▁एनसीसी	-11.5178
▁on	-11.5179
▁क्लीनिक	-11.5179
▁बंट	-11.5181
▁बक	-11.5182
▁खल	-11.5182
▁AD	-11.5183
▁घने	-11.5183
▁हटने	-11.5184
▁लगवा	-11.5185
▁जीने	-11.5186
ीक	-11.5193
ाधिकारी	-11.5197
87	-11.5197
▁बाड़ी	-11.5198
▁रास	-11.5203
▁जानती	-11.5205
ेंसी	-11.5206
▁कार्	-11.5208
ूंगी	-11.5209
▁घेरे	-11.521
▁रचा	-11.521
▁बहने	-11.521
▁स्पा	-11.5212
▁वेव	-11.5213
प्ल	-11.5214
▁मीन	-11.5228
▁नाते	-11.5238
▁रिक	-11.5243
▁वीसी	-11.5249
▁रची	-11.5249
कौन	-11.5255
▁खे	-11.5256
सुबह	-11.5257
▁पाक	-11.5261
ai	-11.5264
▁सेक्स	-11.5277
कड़ी	-11.5281
▁पुष्य	-11.5283
▁अक्तूबर	-11.5283
▁अरशद	-11.5283
▁ऑडिटोरियम	-11.5283
▁टर्मिनस	-11.5283
▁प्रशिक्षु	-11.5283
▁फैकल्टी	-11.5283
▁महासमुंद	-11.5283
▁मुफस	-11.5283
▁संरक्षित	-11.5283
▁सिगरेट	-11.5283
▁साजिद	-11.5283
▁कुंदन	-11.5283
▁दुर्गेश	-11.5283
▁नालों	-11.5283
▁मलबे	-11.5284
▁मालीवाल	-11.5284
▁रविशंकर	-11.5284
▁अर्जित	-11.5284
वेज	-11.5285
▁आईसीयू	-11.5285
▁ठहराव	-11.5285
▁अंजू	-11.5285
▁बरवाला	-11.5286
▁इंकार	-11.5287
▁जीवंत	-11.529
▁एनटीए	-11.5292
▁रजक	-11.5293
ोम	-11.5294
▁बारह	-11.5295
▁यूके	-11.5295
▁पहलू	-11.5297
▁खाया	-11.5298
▁/	-11.53
▁विविध	-11.53
▁तलब	-11.5301
▁सोहन	-11.5307
▁गि	-11.5314
▁कटरा	-11.5315
▁शर	-11.5315
▁ढूंढने	-11.5316
▁रिज	-11.5317
▁मुंड	-11.5317
▁लोको	-11.5318
▁मनाते	-11.5321
▁लिव	-11.5322
▁करवाते	-11.5322
▁पन	-11.5326
▁विजन	-11.5331
▁समझना	-11.5331
मुक्की	-11.5332
▁कटा	-11.5332
▁श्रेयस	-11.5345
▁धा	-11.5346
जयपुर	-11.5368
लेन	-11.5368
▁हिमालय	-11.5371
66	-11.5372
▁ट्रिप	-11.5373
ाइजेशन	-11.5375
▁उतरा	-11.5377
▁सैक	-11.5377
▁नवा	-11.538
▁मंगला	-11.539
त्ता	-11.5393
शिव	-11.5394
इंदौर	-11.5394
▁दबोच	-11.5399
ंकी	-11.5402
जु	-11.5405
▁रुका	-11.5408
▁Ra	-11.5408
▁रघु	-11.5417
▁छुड़ा	-11.5418
▁निष्ठा	-11.542
▁नॉर्मल	-11.542
▁इंडेक्स	-11.542
▁चिट्ठी	-11.542
▁तुम्हारे	-11.542
▁मुआयना	-11.542
▁लाहौर	-11.542
▁सफारी	-11.542
▁सूचकांक	-11.542
▁एसडीआरएफ	-11.542
▁रिम्स	-11.542
▁हंगामे	-11.542
▁यूनुस	-11.542
▁बंटवारा	-11.542
▁मुहिम	-11.542
▁इन्वेस्टमेंट	-11.542
▁नसीम	-11.542
▁बेचे	-11.542
▁पार्टनरशिप	-11.542
▁महामारी	-11.542
▁डीएपी	-11.542
▁टल	-11.542
▁उमंग	-11.5421
▁पूरन	-11.5421
▁पदयात्रा	-11.5421
▁रोचक	-11.5421
▁यथा	-11.5421
▁खुशबू	-11.5421
▁शंकराचार्य	-11.5421
▁एनसीपी	-11.5421
▁ब्रजेश	-11.5421
▁अत	-11.5422
▁2898	-11.5422
▁राइज	-11.5422
▁प्रसारण	-11.5422
▁बीएसपी	-11.5422
▁निर्	-11.5423
▁सत्येंद्र	-11.5423
▁हंसराज	-11.5423
▁थोक	-11.5423
▁भंडारण	-11.5423
▁सरिता	-11.5423
▁रहवासी	-11.5424
▁शॉपिंग	-11.5425
▁भाद	-11.5427
▁मोटा	-11.5429
▁लंगर	-11.5429
▁एडवाइजरी	-11.5431
▁चौड़ा	-11.5431
▁माफियाओं	-11.5431
▁रिहाई	-11.5432
ेंदु	-11.5433
76	-11.5434
▁बालोद	-11.544
▁Mo	-11.544
▁कद	-11.5442
▁तबाही	-11.5444
▁ईवी	-11.5444
ंजी	-11.5446
सीमा	-11.5452
▁पालकी	-11.5452
▁शे	-11.5453
फिट	-11.5456
▁अमला	-11.5457
मजीत	-11.546
▁बांटा	-11.546
सिंग	-11.5464
▁दरिया	-11.5467
▁टर	-11.5468
▁गलौज	-11.5469
▁भोजपुरी	-11.5474
▁हारे	-11.5474
▁पीर	-11.5475
▁थमा	-11.5482
▁भव	-11.549
▁पुराण	-11.5499
सरकार	-11.5501
▁करौली	-11.5502
▁कटने	-11.5516
▁वीडी	-11.5522
ay	-11.5522
▁जर	-11.5524
▁कॉन्	-11.5525
▁ठोक	-11.5531
सामाजिक	-11.5533
बोर्ड	-11.5534
पुलिस	-11.5534
▁जानना	-11.5544
▁बंगाली	-11.5547
▁भट	-11.5548
▁राजस्थानी	-11.555
▁शुक्र	-11.5554
▁जॉर्ज	-11.5555
▁सूबे	-11.5558
▁Video	-11.5558
▁अंपायर	-11.5558
▁आक्रमण	-11.5558
▁कबड्डी	-11.5558
▁डिस्काउंट	-11.5558
▁पुरस्कृत	-11.5558
▁शहादत	-11.5558
▁हितग्राह	-11.5558
▁करप्शन	-11.5558
▁मोनिका	-11.5558
▁साकेत	-11.5558
▁सुपारी	-11.5558
▁कयास	-11.5558
▁देवांगन	-11.5558
▁खुलेआम	-11.5559
▁ऊँ	-11.5559
▁एयरफोर्स	-11.5559
▁खट्टर	-11.5559
▁जिम्मा	-11.5559
▁लोकायुक्त	-11.5559
▁रौशन	-11.5559
▁मैनपुरी	-11.5559
▁रिटायरमेंट	-11.556
▁सीरियल	-11.556
▁विनायक	-11.556
रिफिकेशन	-11.556
▁चुनौतियां	-11.556
▁बरी	-11.556
▁वैसा	-11.556
▁प्रमंडल	-11.556
▁राइस	-11.5561
▁शटर	-11.5561
▁चैत्र	-11.5561
▁चेयर	-11.5561
▁1984	-11.5561
▁निशांत	-11.5562
▁1998	-11.5562
▁जातियों	-11.5564
▁मिक्स	-11.5564
ोड़ा	-11.5566
▁क्रेन	-11.5568
▁चलना	-11.5568
▁लंबाई	-11.5571
▁श्रीकांत	-11.5572
▁आकाशीय	-11.5574
▁अबतक	-11.5575
्यै	-11.5577
▁विस्फोटक	-11.5579
▁दौलत	-11.558
88	-11.5584
▁प्रि	-11.5586
▁टाइप	-11.5587
▁IT	-11.5591
▁बहनें	-11.5592
▁उठता	-11.5593
▁गोपी	-11.5598
▁पेट्रोलिंग	-11.5599
नेट	-11.5603
93	-11.5607
हिं	-11.5608
ल्ली	-11.5613
▁दौड़ा	-11.5616
स्थान	-11.5616
▁एमबीए	-11.5618
पैर	-11.5623
प्प	-11.5626
▁कैफे	-11.5632
▁डीएन	-11.5634
▁रामजी	-11.5638
▁चलाना	-11.5642
ाजित	-11.5648
▁जरूरतमंद	-11.5658
▁पलक	-11.5663
nd	-11.5671
शुल्क	-11.5673
नीय	-11.5673
कहीं	-11.5674
बुल्लाह	-11.5682
▁मेघ	-11.5687
est	-11.5689
▁होर्डिंग	-11.5692
क्यू	-11.5693
्‍ट	-11.5695
▁अकबर	-11.5695
▁अभद्र	-11.5696
▁कैन	-11.5696
▁जरा	-11.5698
श्मशान	-11.5699
▁अहसास	-11.5699
▁एजेंडे	-11.5699
▁एनओसी	-11.5699
▁एयरक्राफ्ट	-11.5699
▁चड्ढा	-11.5699
▁चैंपियंस	-11.5699
▁प्रशिक्षित	-11.5699
▁फंक्शन	-11.5699
▁वाहिनी	-11.5699
▁सरफराज	-11.5699
▁हिजबुल्लाह	-11.5699
▁टेक्निकल	-11.5699
▁फीडबैक	-11.5699
▁बॉयफ्रेंड	-11.5699
▁उपद्रव	-11.5699
▁आदमपुर	-11.5699
▁उत्थान	-11.5699
▁मिस्त्री	-11.5699
▁रस्म	-11.57
▁बद्री	-11.57
▁किन्नर	-11.57
▁परमिट	-11.57
▁हूँ	-11.57
▁सैलजा	-11.57
▁अलॉट	-11.57
▁चादर	-11.57
▁एयरलाइन	-11.5701
▁माथा	-11.5701
▁स्वीप	-11.5701
▁AQI	-11.5702
▁बॉम्बे	-11.5702
▁प्रतिद्वंद्व	-11.5703
▁जवाहरलाल	-11.5703
▁बापू	-11.5705
▁फोरम	-11.5706
▁दिलजीत	-11.5706
▁ट्रेनर	-11.5711
▁दसवीं	-11.5712
▁4-5	-11.5712
▁रबी	-11.5715
▁मशीनें	-11.5716
▁देवरिया	-11.5716
:15	-11.5722
▁उत्साहित	-11.5727
▁रावल	-11.5728
▁धनु	-11.5731
▁आरएस	-11.5735
▁अं	-11.5736
गड़	-11.5737
मंगल	-11.5738
▁खोजने	-11.5746
▁सीआई	-11.5747
▁स्टार्स	-11.5748
▁वीं	-11.5752
च्च	-11.5755
्ग	-11.5756
▁नं	-11.576
▁सिंघल	-11.5761
.55	-11.5762
▁पच	-11.5763
ng	-11.5769
▁बचें	-11.577
▁जनों	-11.5773
▁121	-11.5775
▁लेगा	-11.5778
यै	-11.5778
CC	-11.5779
▁पीए	-11.5779
▁संभावनाओं	-11.578
ेजा	-11.5781
▁कांच	-11.5784
▁गाया	-11.5791
▁पूर्वक	-11.5792
शियल	-11.5795
▁कावड़	-11.5795
▁बां	-11.5796
▁मानता	-11.5796
▁बीआर	-11.5797
▁मधुर	-11.58
▁कोष	-11.58
कन	-11.5805
तार	-11.5808
▁सपन	-11.581
▁संभवत	-11.5817
▁रेन	-11.5819
पांच	-11.582
pur	-11.5821
किल	-11.5822
ढ़ी	-11.5831
▁बीबी	-11.5835
रोकर	-11.5837
▁वायर	-11.5837
▁मौतें	-11.5837
▁डेवलप	-11.5841
किशोर	-11.5841
संशोधित	-11.5842
▁Singh	-11.5842
▁अत्याधुनिक	-11.5842
▁आषाढ़	-11.5842
▁एजेंडा	-11.5842
▁कुरैशी	-11.5842
▁गुड्डू	-11.5842
▁ट्रीटमेंट	-11.5842
▁फाइनेंशियल	-11.5842
▁ब्रॉन्ज	-11.5842
▁सुपरवाइजर	-11.5842
▁रौनक	-11.5842
▁शहजाद	-11.5842
▁रितेश	-11.5842
▁ट्रूडो	-11.5842
▁भौतिक	-11.5842
▁Vrat	-11.5842
▁लॉटरी	-11.5842
▁शिप्रा	-11.5843
▁फॉरेस्ट	-11.5843
▁विस्थापित	-11.5843
▁बालाघाट	-11.5843
▁उपायों	-11.5843
▁होशियारपुर	-11.5843
▁सुदर्शन	-11.5843
▁मिलीभगत	-11.5844
▁मसाला	-11.5844
▁भिजवा	-11.5844
▁कंस्ट्रक्शन	-11.5844
▁धाकड़	-11.5844
▁स्वर्गीय	-11.5844
▁1989	-11.5845
▁मूर्तियां	-11.5845
मर्ग	-11.5846
▁डमी	-11.5847
▁कार्यपालक	-11.5848
▁विविधता	-11.585
sha	-11.585
िंदा	-11.5854
▁माउंट	-11.5854
▁सद्भाव	-11.5855
मान्य	-11.5856
▁भुगतन	-11.5856
▁शिवानी	-11.5857
▁फूंक	-11.5858
▁मोगा	-11.5861
PS	-11.5861
▁अपनाएं	-11.5867
रह	-11.5868
▁(20)	-11.5869
▁लाइटिंग	-11.587
ैस	-11.5871
ायर	-11.5871
▁शीट	-11.5872
▁हरदीप	-11.5873
ोरल	-11.5875
िच	-11.5875
▁देखेंगे	-11.5877
▁चढ़ाने	-11.5879
▁नशीला	-11.5881
▁पेटी	-11.5882
▁सिया	-11.5885
दिया	-11.589
▁ट्रेस	-11.5894
▁हरेंद्र	-11.5895
▁ड्रा	-11.5896
▁परोस	-11.5897
▁कैल	-11.5902
ंबा	-11.5921
▁किला	-11.593
डु	-11.5938
ग्राफ	-11.594
▁झांस	-11.5941
्लास	-11.5942
▁तरीक	-11.5945
▁कार्मिक	-11.5945
निधि	-11.5952
▁बेला	-11.5957
▁सर्द	-11.5957
▁लीज	-11.5962
प्रतिष्ठा	-11.5962
▁साज	-11.5963
विश	-11.5964
ोई	-11.5964
्‍व	-11.5967
▁वंदन	-11.5967
:45	-11.5968
▁DC	-11.5969
लीन	-11.5975
▁स्टा	-11.5984
▁चिह्न	-11.5985
▁बीएड	-11.5985
▁अनुष्का	-11.5987
▁इंफ्रास्ट्रक्चर	-11.5987
▁एग्रीकल्चर	-11.5987
▁चतुर्दशी	-11.5987
▁चातुर्मास	-11.5987
▁देहरादून	-11.5987
▁पाटलिपुत्र	-11.5987
▁फ़लस्तीन	-11.5987
▁फिलिस्तीन	-11.5987
▁फ्लॉप	-11.5987
▁मास्टरमाइंड	-11.5987
▁वसुंधरा	-11.5987
▁वैरिएंट	-11.5987
▁सहभागिता	-11.5987
▁उखाड़	-11.5987
▁स्ट्रोक	-11.5987
▁कोठारी	-11.5987
▁माधुरी	-11.5987
▁ऑक्शन	-11.5987
▁प्रशिक्षक	-11.5987
▁समुच	-11.5988
▁बोरवेल	-11.5988
▁तैर	-11.5988
▁भोलेनाथ	-11.5988
▁भस्म	-11.5988
▁डेस्क	-11.5988
▁संकाय	-11.5988
▁बलविंदर	-11.5989
▁एमएलसी	-11.5989
▁लायन	-11.5989
▁संसार	-11.5989
▁रिपब्लिकन	-11.599
▁किचन	-11.599
▁सीएसपी	-11.5991
षी	-11.5991
▁संगठित	-11.5993
▁अनिता	-11.5993
▁शक्तियों	-11.5993
▁हाजी	-11.5994
▁युवतिय	-11.5996
▁न्यूज़	-11.5996
▁जिसमे	-11.5997
िनेंट	-11.6001
▁समा	-11.6002
▁चेतना	-11.6006
ुल्लाह	-11.6007
▁बरामदगी	-11.6008
▁जीविका	-11.601
▁केएल	-11.601
▁बॉक्सिंग	-11.6011
▁लड़ते	-11.6018
▁3000	-11.602
▁चेत	-11.6025
▁मैट	-11.6037
▁चढ़ने	-11.6038
▁त्योहारों	-11.604
▁दंग	-11.6041
▁किले	-11.6042
▁खासा	-11.6046
ौना	-11.6047
चाल	-11.6048
▁सत्यम	-11.6048
▁रैक	-11.6054
▁मुक	-11.6062
तरह	-11.6062
.80	-11.6064
▁धारक	-11.6065
हारी	-11.6067
ट्टी	-11.6072
ाचार	-11.6077
क्‍	-11.608
▁कस्टम	-11.6081
बिट	-11.6081
।""	-11.6092
▁नौजवान	-11.6092
▁अनोख	-11.6101
▁सीखा	-11.6101
ow	-11.6105
सहाय	-11.6111
बेटे	-11.6111
▁भंडारी	-11.6111
ैक्स	-11.6112
▁साइज	-11.6114
▁फेक	-11.6116
.24	-11.6118
ाही	-11.6121
▁पेशे	-11.6122
ag	-11.6125
त्या	-11.6126
▁डेम	-11.6126
▁घटा	-11.6127
▁जै	-11.6128
ंबेडकर	-11.613
▁बिठा	-11.6132
ोत्तम	-11.6134
▁अभियोजक	-11.6134
▁ईंधन	-11.6134
▁उज्जवल	-11.6134
▁उत्तीर्ण	-11.6134
▁धनतेरस	-11.6134
▁बालोतरा	-11.6134
▁सशक्तिकरण	-11.6134
▁पॉपुलर	-11.6134
▁मंदसौर	-11.6134
▁जाखड़	-11.6134
▁रघुवंशी	-11.6134
▁रसीद	-11.6134
▁रथयात्रा	-11.6134
▁जिहाद	-11.6134
▁अंजलि	-11.6134
▁बीसीसीआई	-11.6134
▁रविन्द्र	-11.6135
▁पद्मश्री	-11.6135
▁बीजापुर	-11.6135
▁कार्तिकेय	-11.6135
▁वेस्टर्न	-11.6135
▁रुद्र	-11.6135
▁पुनर्वास	-11.6135
▁फतेहगढ़	-11.6135
▁बुलंद	-11.6135
▁डायरिया	-11.6135
▁तेवर	-11.6135
▁ढाबा	-11.6136
▁गुफा	-11.6136
▁लाभुक	-11.6136
्रेस	-11.6136
▁एसडीओपी	-11.6136
ेक्टर	-11.6137
▁लाभार्थियो	-11.6137
▁कंडक्टर	-11.6137
▁पुष्पेंद्र	-11.6137
▁पूर्वांचल	-11.6137
▁ड्राई	-11.6139
▁रहवासियों	-11.6141
▁मॉक	-11.6142
▁आतंकवादियों	-11.6145
▁वेट	-11.6146
▁पूर्ति	-11.6147
▁डिस	-11.6148
▁डंडों	-11.6148
▁फेयर	-11.6149
पाद	-11.6149
▁आठवीं	-11.615
▁धू	-11.6152
▁समाप्ति	-11.6152
da	-11.6153
▁गिराया	-11.6155
▁रोगियों	-11.6156
जात	-11.6159
▁भयान	-11.6159
चांपा	-11.6161
▁ऑस्ट्रेलियाई	-11.6162
बड़	-11.6166
▁घोर	-11.6169
▁बढ़ाए	-11.6174
ांतर	-11.6175
▁बरती	-11.6176
▁हफ्त	-11.6176
73	-11.6183
▁इल	-11.6185
ीश	-11.6189
ड्स	-11.619
एमओ	-11.6191
▁ठहरा	-11.6193
▁माप	-11.6196
▁दुश्मनी	-11.6198
war	-11.6199
▁जीतन	-11.62
▁व्यू	-11.62
▁पड़ते	-11.6201
▁बलि	-11.6213
ौला	-11.6214
ारण	-11.6215
स्सी	-11.6215
▁नाहर	-11.6217
▁लीगल	-11.6223
▁झूठा	-11.6229
▁प्रण	-11.6234
▁आयोजक	-11.6242
▁2002	-11.6243
ोव	-11.6248
iya	-11.6251
छात्राएं	-11.6258
क्रम	-11.6259
पीएम	-11.6259
ाध्यक्ष	-11.6261
अपनी	-11.6266
ाड	-11.627
▁गुटों	-11.6273
▁भगवा	-11.6273
▁माध	-11.6274
▁संरचना	-11.6278
▁Update	-11.6282
q	-11.6283
▁Office	-11.6283
▁इस्माइल	-11.6283
▁जगदलपुर	-11.6283
▁नेतन्याहू	-11.6283
▁प्रचंड	-11.6283
▁श्रीनिवास	-11.6283
▁संगोष्ठी	-11.6283
▁सब्जियों	-11.6283
▁सीआरपीएफ	-11.6283
▁स्क्रिप्ट	-11.6283
▁कचहरी	-11.6283
▁ललन	-11.6283
▁हॉलीवुड	-11.6284
▁पारदर्शिता	-11.6284
▁बिस्वा	-11.6284
▁असीम	-11.6284
▁असुविधा	-11.6284
▁नजरअंदाज	-11.6285
▁मिसाल	-11.6285
▁रजनीश	-11.6285
▁मैहर	-11.6285
▁शीतलहर	-11.6285
▁नीलेश	-11.6286
▁नौकरियां	-11.6286
▁यूजीसी	-11.6287
▁बीएससी	-11.6287
▁स्लीपर	-11.6288
2022-23	-11.6288
▁डूंगर	-11.6288
▁बांगड़	-11.6289
▁पालीवाल	-11.6289
▁वन्यजीव	-11.629
चु	-11.6291
▁एमजी	-11.6291
▁सांग	-11.6295
ौत	-11.6296
▁सती	-11.6299
▁डाइट	-11.63
▁धमकाने	-11.6301
▁डांगी	-11.6302
▁650	-11.6303
मेन	-11.6304
▁चंद्रा	-11.6304
रक्षा	-11.6306
▁होटलों	-11.6307
▁संभावनाएं	-11.6309
▁ट्राली	-11.6311
टीसी	-11.6313
एड	-11.6314
प्पा	-11.6315
▁AL	-11.6325
▁टेली	-11.6326
▁शाहपुर	-11.633
▁जेठ	-11.633
▁गांधीनगर	-11.633
▁क्लेम	-11.6336
▁बताएं	-11.6336
▁बिगड़ी	-11.6339
▁साफ़	-11.6341
▁खरे	-11.6345
ho	-11.6346
▁पालना	-11.6364
▁फलों	-11.6364
▁कैर	-11.6365
एमपी	-11.6374
▁डीके	-11.6374
▁विद	-11.6376
▁विजयपुर	-11.6378
▁बेर	-11.6391
▁जेम	-11.6392
▁धड़	-11.6393
रोल	-11.6395
▁जैक	-11.6397
CP	-11.6405
▁86	-11.6407
ेटिव	-11.6409
प्रथम	-11.641
नियुक्त	-11.641
उन्होंने	-11.641
लेकिन	-11.6411
▁फोर	-11.6425
वाड़ी	-11.6426
▁कैपिटल	-11.6428
धू	-11.643
पेड	-11.6432
▁सलाम	-11.6433
आईटी	-11.6434
▁आसिफ	-11.6434
▁Box	-11.6435
▁आयरलैंड	-11.6435
▁इमोशनल	-11.6435
▁कांफ्रेंस	-11.6435
▁क्लियर	-11.6435
▁तपस्या	-11.6435
▁पद्धति	-11.6435
▁मुद्रास्फीति	-11.6435
▁शृंगार	-11.6435
▁सलूंबर	-11.6435
▁स्टूडियो	-11.6435
▁हिन्दी	-11.6435
▁अखाड़ा	-11.6435
▁जशपुर	-11.6435
▁उर्मिला	-11.6435
▁कत्ल	-11.6435
▁नजारा	-11.6435
रेवेन्यू	-11.6435
▁ताजमहल	-11.6435
▁पार्थिव	-11.6435
▁भनक	-11.6435
▁टोटल	-11.6435
▁जलाशय	-11.6436
▁नियोजन	-11.6436
▁सुषमा	-11.6436
▁अतीत	-11.6436
▁सबकुछ	-11.6437
▁सिंघवी	-11.6437
▁गोकुल	-11.6437
▁धंस	-11.6438
▁कष्ट	-11.6439
▁दोगुना	-11.644
▁2.0	-11.644
▁मंडप	-11.6441
लाइट	-11.6443
▁दवाएं	-11.6443
▁निपटारा	-11.6446
▁अधूरा	-11.6447
▁लोकप्रियता	-11.6448
▁दुखद	-11.6448
▁सतर्कता	-11.6449
▁फिराक	-11.6451
▁सरमा	-11.6452
▁मेंबर्स	-11.6455
▁प्रकाशन	-11.6457
▁अध	-11.6459
▁US	-11.6464
पट्टी	-11.6466
▁रम	-11.6466
एगा	-11.6468
जिला	-11.647
▁निकलवा	-11.647
▁कॉम	-11.647
▁मौज	-11.6474
▁सौंपे	-11.6476
▁टै	-11.6482
द्दी	-11.6486
▁चट	-11.6486
▁दत्ता	-11.6486
च्चा	-11.6487
▁चिन	-11.6488
एसएस	-11.6492
▁कच्छ	-11.6494
प्रभावशाली	-11.6494
▁टोली	-11.6495
ान्त	-11.6495
उन	-11.6495
▁निकलना	-11.6495
▁अस्त	-11.6496
▁भुज	-11.6497
▁दिलचस्पी	-11.6499
ोह	-11.6502
भिन्न	-11.6503
▁सुशीला	-11.6505
▁उलट	-11.6519
▁कू	-11.6523
▁ललिता	-11.6525
▁फेर	-11.6526
वेस्ट	-11.653
▁बैठकें	-11.6531
सेट	-11.6533
▁लम्ब	-11.6537
▁शमी	-11.6541
ज्ञा	-11.6542
▁पहुंचाई	-11.6547
▁अवि	-11.6548
आरसी	-11.6549
▁मची	-11.6551
▁मेहर	-11.6553
▁कमांड	-11.656
ऐ	-11.6561
दूर	-11.6562
प्रति	-11.6563
ग्राउंड	-11.6564
▁चक्रवाती	-11.6579
▁रुकी	-11.6581
▁एनसी	-11.6585
▁प्रत्यक्ष	-11.6589
▁अखाड़े	-11.6589
▁खेलकूद	-11.6589
▁डीईओ	-11.6589
▁तत्पर	-11.6589
▁मरांडी	-11.6589
▁मालगाड़ी	-11.6589
▁रोमांटिक	-11.6589
▁लखीसराय	-11.6589
▁शौर्य	-11.6589
▁सहानुभूति	-11.6589
▁सौहार्द	-11.6589
▁कॉमर्शियल	-11.6589
▁पेशकश	-11.6589
▁वकालत	-11.6589
▁शहडोल	-11.6589
▁साध्वी	-11.6589
▁जाकिर	-11.6589
▁संग्रहालय	-11.6589
▁वासुदेव	-11.6589
▁बरौनी	-11.6589
▁संधू	-11.6589
▁अजगर	-11.659
▁असमर्थ	-11.659
▁...	-11.659
▁शाहजहांपुर	-11.659
▁पगड़ी	-11.659
▁आरिफ	-11.659
▁माइनिंग	-11.6591
▁कन्हैयालाल	-11.6591
▁बुरे	-11.6592
पीएचसी	-11.6592
्ती	-11.6593
▁मण्डल	-11.6593
▁गोप	-11.6596
▁फाउंडर	-11.6596
▁पढ़ते	-11.6598
▁मुहर	-11.6599
▁रेकी	-11.66
▁दाहिन	-11.6601
▁गड्ढा	-11.6603
▁मेष	-11.6605
▁छोर	-11.6606
बॉल	-11.6607
▁दाखिला	-11.6609
▁मर्जी	-11.6611
▁नमूने	-11.6612
▁टेंशन	-11.6613
▁सना	-11.6614
▁देवताओं	-11.6616
▁क्रूज	-11.6617
▁दाे	-11.6617
किंग	-11.6618
▁50%	-11.6618
बान	-11.6622
▁अलाव	-11.6626
पीओ	-11.6627
लेस	-11.6627
युक्त	-11.6627
ct	-11.6628
▁अंधेरा	-11.6629
▁प्रीत	-11.6629
▁डेली	-11.663
▁आयोजकों	-11.6632
▁बराड़	-11.6634
▁डब्ल्यू	-11.6635
▁श्रेष्ठ	-11.6636
जाम	-11.6636
टिंग	-11.6638
मंडी	-11.664
ल्हा	-11.6641
▁तगड़	-11.665
फिल	-11.6656
ऑफ	-11.6658
co	-11.666
ud	-11.6662
▁केन्द्रों	-11.6662
▁जजों	-11.6663
▁इसपर	-11.6664
▁पदोन्नति	-11.6668
▁तोड़ी	-11.6676
▁टीटी	-11.6689
▁मांगते	-11.6692
▁दृष्ट	-11.6694
▁De	-11.6695
साल	-11.6697
▁दाह	-11.6699
मपुर	-11.67
फिले	-11.6702
गोल	-11.6703
दर्शन	-11.6711
-18	-11.6711
संत	-11.6712
▁भागते	-11.6714
▁101	-11.6715
प्रशासन	-11.672
▁अंध	-11.6725
हिया	-11.6725
वियर	-11.6725
▁नंदी	-11.6727
ोले	-11.6727
▁देखता	-11.6732
▁आरोग्य	-11.6745
▁एल्विश	-11.6745
▁कस्टडी	-11.6745
▁ज्वाइन	-11.6745
▁डिप्लोमा	-11.6745
▁दबदबा	-11.6745
▁दिल्‍ली	-11.6745
▁दुर्लभ	-11.6745
▁दूषित	-11.6745
▁प्रताड़ना	-11.6745
▁महाप्रबंधक	-11.6745
▁मुसीबत	-11.6745
▁वॉशिंगटन	-11.6745
▁साक्षात्कार	-11.6745
▁बरनाला	-11.6745
▁ड्रिंक	-11.6745
▁सरगना	-11.6745
▁शत्रुघ्	-11.6745
▁अनुपालन	-11.6745
▁प्रियांशु	-11.6745
▁समागम	-11.6745
▁खटीक	-11.6745
▁रखरखाव	-11.6745
▁अर्शदीप	-11.6745
वाय	-11.6745
▁उस्मान	-11.6745
▁प्लेइंग	-11.6745
▁गलियार	-11.6745
▁अक्षत	-11.6745
▁नस्ल	-11.6746
▁रणदीप	-11.6746
▁हाईकमान	-11.6746
पटना	-11.6746
▁रेशम	-11.6746
▁बांदा	-11.6747
▁कम्पनी	-11.6747
▁सानि	-11.6747
▁गगन	-11.6748
ौनी	-11.6748
▁Delhi	-11.6749
▁कीजिए	-11.6749
▁मार्शल	-11.6749
▁ट्विटर	-11.6749
टाइम	-11.6749
▁फ्रेंड	-11.675
▁गोबर	-11.675
▁130	-11.6752
▁रेव	-11.6752
▁प्रभारियों	-11.6754
▁प्रदर्शनकारी	-11.6755
▁सुरंग	-11.6755
▁अथ	-11.6758
▁जाली	-11.6758
▁IMD	-11.6758
श्वर	-11.6759
▁बेगम	-11.6759
▁जुटाई	-11.676
▁ठे	-11.676
डे़	-11.6763
▁Ram	-11.6765
▁विकेटकीपर	-11.6766
▁to	-11.6766
▁माइक	-11.6771
▁डीपीआर	-11.6773
ेक्शन	-11.6773
▁कतर	-11.6777
▁कांटे	-11.6779
▁Ba	-11.6779
िस्टिक	-11.6781
lo	-11.6782
वर्ष	-11.6782
▁240	-11.6788
मानी	-11.6791
▁सारंग	-11.6792
▁144	-11.6795
मऊ	-11.6797
▁जुटाए	-11.6801
▁चित	-11.6802
▁ढे	-11.6804
काय	-11.6816
-30	-11.6821
पै	-11.6822
▁बसा	-11.6822
▁प्रोजेक्ट्स	-11.6822
▁बिछ	-11.6824
▁शिवा	-11.6832
▁राजी	-11.6832
▁बदलना	-11.6833
▁अंशु	-11.6842
बीसी	-11.6842
गें	-11.6844
ाधि	-11.6845
▁पाय	-11.6846
▁डलवा	-11.6849
▁बाली	-11.685
▁एक्‍स	-11.6851
▁छीना	-11.6854
ुअल	-11.6854
▁बटन	-11.6855
▁St	-11.6862
▁कोतवाल	-11.6871
▁सूट	-11.6872
▁वध	-11.6875
कूल	-11.6876
क्षा	-11.6878
विवाहित	-11.6879
टेंशन	-11.6879
▁प्रतिस्पर्धा	-11.688
RS	-11.6881
ik	-11.6884
SS	-11.6886
▁नपा	-11.6888
▁घु	-11.6889
▁लड़ी	-11.6889
▁जुर्म	-11.689
पोर्ट	-11.6891
सै	-11.6892
▁रौ	-11.6892
▁अधीक्ष	-11.6895
▁डॉक्यूमेंट	-11.6896
▁नैतिक	-11.6896
हिट	-11.6897
▁बांटे	-11.6897
बीच	-11.6899
▁अलायंस	-11.6904
▁एवेन्यू	-11.6904
▁कीटनाशक	-11.6904
▁त्यौहार	-11.6904
▁दूल्हा	-11.6904
▁पीलीभीत	-11.6904
▁पॉलिटेक्निक	-11.6904
▁फुटपाथ	-11.6904
▁भाद्रपद	-11.6904
▁वेशभूषा	-11.6904
▁शिक्षित	-11.6904
▁हाथापाई	-11.6904
▁हौसला	-11.6904
▁आइटम	-11.6904
▁कर्पूरी	-11.6904
▁लाभार्थी	-11.6904
▁सरोवर	-11.6904
▁फ्यूल	-11.6904
▁मिजाज	-11.6904
▁सरेआम	-11.6904
▁फायदेमंद	-11.6904
▁महर्षि	-11.6904
▁मेगावाट	-11.6904
प्पी	-11.6904
▁परिक्षेत्र	-11.6904
▁बृहस्पतिवार	-11.6904
▁सिक्के	-11.6904
व्यापी	-11.6904
▁DSP	-11.6905
▁पेट्रोलियम	-11.6905
▁}	-11.6906
▁आईफोन	-11.6906
▁चतरा	-11.6906
▁नक्शा	-11.6907
▁म्यांमार	-11.6907
▁1991	-11.6907
▁सुप्रिय	-11.6908
▁प्रभास	-11.6908
▁बिलियन	-11.6908
▁दांत	-11.6908
▁दिलावर	-11.6909
▁1980	-11.691
▁कांकेर	-11.6911
बर्ग	-11.6911
मेरा	-11.6912
▁चौराहों	-11.6912
ाउंड	-11.6913
▁लैंडिंग	-11.6914
▁रेंजर	-11.6915
▁कल्कि	-11.6915
▁ख्वा	-11.6918
▁मैक्स	-11.692
▁कड़ाक	-11.6921
पीने	-11.6922
पोस्ट	-11.6924
▁पुरा	-11.6925
▁रामदास	-11.6925
ter	-11.6928
▁दबोचा	-11.6928
▁मौलिक	-11.6929
▁पढ़ाने	-11.6929
बाला	-11.6932
▁3-4	-11.6933
वर्ती	-11.6934
▁सेतु	-11.6934
पल्ली	-11.6937
▁देवीलाल	-11.6939
▁आजकल	-11.694
▁पीक	-11.6942
न्नी	-11.6943
▁अंशुल	-11.6944
de	-11.6945
▁ऑडिय	-11.6946
ड़ियों	-11.695
बली	-11.6951
ईसी	-11.6951
▁प्रावधानों	-11.6951
▁तस	-11.6958
▁सुखविंद	-11.6959
▁105	-11.6968
▁फेरे	-11.6969
ियल	-11.697
▁मूर्तिय	-11.6974
बीएस	-11.6975
▁पिट	-11.6981
▁औषधि	-11.6992
ani	-11.6998
▁सदी	-11.6999
▁बैरा	-11.7
व्यवस्था	-11.7004
▁बाव	-11.7008
▁पढ़ी	-11.701
डीआर	-11.7013
मोर	-11.7014
▁पोष	-11.7022
कांड	-11.7024
▁a	-11.7026
▁प्रज्ञा	-11.7028
▁बाक	-11.7029
निंग	-11.7029
▁गरमा	-11.7029
▁मंगा	-11.7031
▁बैटर	-11.7033
▁अमले	-11.7038
गृह	-11.7039
▁डांट	-11.7042
▁सोर्स	-11.7045
▁आदिल	-11.7045
अन	-11.705
▁यो	-11.7055
▁संवाददाता	-11.706
▁मंत्रों	-11.7061
ेसर	-11.7061
▁फेंकी	-11.7063
्वाइंट	-11.7064
▁Apple	-11.7065
▁Indore	-11.7065
▁इशारे	-11.7065
▁उज्ज्वल	-11.7065
▁गंतव्य	-11.7065
▁चैतन्य	-11.7065
▁ठुकरा	-11.7065
▁डीएफओ	-11.7065
▁पवेलियन	-11.7065
▁पाकिस्‍तान	-11.7065
▁फ़ैसले	-11.7065
▁मेकअप	-11.7065
▁सृजन	-11.7065
▁अफ़ग़ानिस्तान	-11.7065
▁हरदोई	-11.7065
▁जॉइंट	-11.7065
▁सुकमा	-11.7065
▁हलफनाम	-11.7065
▁दतिया	-11.7065
▁एमबीबीएस	-11.7065
▁(45)	-11.7065
▁बुंदेलखंड	-11.7065
▁इनेलो	-11.7065
▁टेलीग्राम	-11.7065
▁एनएचएआई	-11.7065
▁ग्रोवर	-11.7065
▁स्थानांतर	-11.7065
▁मुरली	-11.7065
▁IPS	-11.7066
▁बैलेंस	-11.7066
▁वरदान	-11.7066
▁सचेत	-11.7066
▁कैरेट	-11.7066
▁संवर्धन	-11.7066
▁पेशी	-11.7066
▁अरबाज	-11.7066
▁अरमान	-11.7068
▁महाभारत	-11.7068
▁VIDEO	-11.7069
▁बेदी	-11.707
▁शत्रु	-11.707
ट्री	-11.707
▁कहर	-11.7071
▁115	-11.7071
▁अनशन	-11.7072
▁जाब्त	-11.7072
▁सरयू	-11.7073
▁प्रोफाइल	-11.7075
कर्ताओं	-11.7075
▁कोलार	-11.7077
टर्स	-11.7077
▁बैठाया	-11.7077
फिर	-11.7078
ृति	-11.7078
▁खोली	-11.7078
▁चोटिल	-11.7078
▁पीले	-11.7079
▁प्रतिभागी	-11.7083
▁भला	-11.7083
▁कुंडली	-11.7084
ंडल	-11.7086
▁फंसी	-11.7088
▁नंदन	-11.7088
चौ	-11.7089
▁देवड़ा	-11.709
▁घटिया	-11.7091
▁जगरा	-11.7092
लाना	-11.7092
▁महम	-11.71
▁हैप्पी	-11.7102
▁जीटी	-11.7102
▁दलितों	-11.7103
▁बोट	-11.7105
▁संक	-11.7107
▁खंगाले	-11.7109
▁चलेंगे	-11.711
▁तिर	-11.7111
▁बीएस	-11.7115
▁इज	-11.7119
▁स्वर	-11.712
पुल	-11.712
▁तंगी	-11.7122
▁जुन	-11.7125
▁बकरी	-11.7126
▁डीप	-11.7128
▁पक्की	-11.7133
▁पारीक	-11.7139
बेल	-11.714
▁तथ्यों	-11.7143
मेरी	-11.7145
▁डीडी	-11.7146
▁भौ	-11.7151
▁सायं	-11.7153
▁किट	-11.7154
▁छोड़ना	-11.7154
रियल	-11.7156
▁आदी	-11.7157
▁उर	-11.7166
▁बेसब	-11.7166
▁पाव	-11.7169
▁साधत	-11.7169
▁गवाही	-11.717
्को	-11.7171
▁सुनहर	-11.7172
▁पीसी	-11.7172
▁क्लीन	-11.7177
▁अध्यापक	-11.7187
▁डीग	-11.7188
PC	-11.7192
कॉन	-11.7195
िष्ट	-11.72
सेल	-11.7201
दौलत	-11.7204
श्याम	-11.7204
▁प्रेमचंद	-11.7205
जहां	-11.7206
कुशल	-11.7208
▁हैरानी	-11.7211
पात	-11.7211
▁थाली	-11.7221
▁एडिशन	-11.7221
▁असफल	-11.7222
▁ऋतु	-11.7227
चीन	-11.7228
वाट	-11.7228
▁धांधली	-11.7229
▁निज्जर	-11.7229
▁नियामक	-11.7229
▁प्रधानाध्यापक	-11.7229
▁फर्श	-11.7229
▁भ्रामक	-11.7229
▁माइक्रोसॉफ्ट	-11.7229
▁मुकुट	-11.7229
▁राजपुरोहित	-11.7229
▁लखीमपुर	-11.7229
▁लाभान्वित	-11.7229
▁वाइफ	-11.7229
▁वृषभ	-11.7229
▁श्रॉफ	-11.7229
▁आर्टिफिशिय	-11.7229
▁सस्ता	-11.7229
▁लॉन्ग	-11.7229
▁स्क्वायर	-11.7229
▁(40)	-11.7229
▁अर्बन	-11.7229
गिरी	-11.7229
▁टैगोर	-11.723
▁भविष्यवाणी	-11.723
▁लपटें	-11.723
▁अदाणी	-11.723
▁बैरिकेडिंग	-11.723
▁राइड	-11.7231
▁पाटन	-11.7231
▁जीडीपी	-11.7232
▁ज्वेलर्स	-11.7232
▁रजनी	-11.7232
▁सहमत	-11.7233
▁रविदास	-11.7233
▁दक्षता	-11.7233
▁क्षमा	-11.7236
▁अभद्रता	-11.7237
▁अमीन	-11.7237
▁इरादे	-11.7238
▁व्यक्तित्व	-11.7238
▁शेख़	-11.7238
म्हा	-11.7238
▁ललितपुर	-11.7242
ऑ	-11.7242
▁टाइटल	-11.7242
▁नकार	-11.7244
िटर	-11.7248
हली	-11.725
▁उक	-11.7254
वाणी	-11.7256
▁फटने	-11.7256
बाजार	-11.7257
▁लिंग	-11.7259
▁मऊ	-11.7259
▁एसएन	-11.726
▁गण	-11.7262
कब	-11.7264
▁खामियाज	-11.7265
▁छिपाने	-11.7269
▁मैप	-11.7275
▁टर्म	-11.7275
ेष	-11.7276
▁समानता	-11.7276
वरा	-11.7283
▁दिखाना	-11.7285
.70	-11.7287
दीन	-11.7287
▁सक्रियता	-11.7289
▁फार	-11.729
▁बैर	-11.729
▁प्रेमियों	-11.7296
सेवा	-11.7297
टिव	-11.73
▁भड़का	-11.7301
▁प्रतिष्ठान	-11.7311
▁1995	-11.732
▁सुधर	-11.732
▁खराबी	-11.7323
▁बदर	-11.733
▁हाट	-11.7333
▁ताे	-11.7338
▁Ma	-11.7354
्रिक	-11.7357
▁अर्ध	-11.7357
▁हड़प	-11.7357
▁भड़के	-11.736
▁जख्म	-11.7362
▁बहुल	-11.7362
▁क्ष	-11.7364
▁सरस	-11.7366
▁इट	-11.737
▁थक	-11.737
उत्तर	-11.7371
प्रसार	-11.7373
खेल	-11.7376
▁फतेह	-11.738
▁औच	-11.7381
▁गिरि	-11.7387
▁सोह	-11.7387
हवा	-11.7391
▁वादी	-11.7391
▁नवनिर्वाच	-11.7393
▁माय	-11.7394
▁गोमती	-11.7394
▁प्रवाह	-11.7395
बिलिटी	-11.7395
▁व्यायाम	-11.7396
▁SDM	-11.7396
▁STF	-11.7396
▁अटकलें	-11.7396
▁अनावरण	-11.7396
▁अप्लाई	-11.7396
▁एक्सीलेंस	-11.7396
▁करिश्मा	-11.7396
▁क्लस्टर	-11.7396
▁खंभे	-11.7396
▁चंपई	-11.7396
▁जलमग्न	-11.7396
▁ज्येष्ठ	-11.7396
▁दिनचर्या	-11.7396
▁पॉलिटिक्स	-11.7396
▁फ्लाइंग	-11.7396
▁बाराबंकी	-11.7396
▁भुलैया	-11.7396
▁मलेशिया	-11.7396
▁मुलाक़ात	-11.7396
▁रंगारंग	-11.7396
▁रेखांकित	-11.7396
▁लहसुन	-11.7396
▁व्यावहारिक	-11.7396
▁सन्नाटा	-11.7396
▁निर्विरोध	-11.7396
▁कमिंस	-11.7396
▁सस्ती	-11.7396
▁चांसलर	-11.7396
▁रजनीकांत	-11.7396
▁सिलेक्शन	-11.7396
▁संयम	-11.7396
▁सरहद	-11.7396
▁महिपाल	-11.7396
▁पेटीएम	-11.7396
▁गोदारा	-11.7397
▁यलो	-11.7397
▁रणथ	-11.7397
▁सिंधु	-11.7397
▁बप्पा	-11.7398
▁स्टैंडर्ड	-11.7398
▁तकलीफ	-11.74
▁झोंक	-11.7406
▁स्ट्रा	-11.7406
▁कनक	-11.7406
▁चौपाल	-11.741
▁शिल्पा	-11.7412
▁अंगूठी	-11.7412
▁शीशे	-11.7413
▁फ़ै	-11.7413
▁पुकार	-11.7414
देन	-11.7417
▁पसरा	-11.7417
▁अन्यथा	-11.7419
▁सदमे	-11.743
▁शीतला	-11.743
▁उम्मीदें	-11.7432
▁कार्यपाल	-11.7434
▁जिद	-11.7436
▁बैठकों	-11.7438
▁खंगाला	-11.744
▁घना	-11.7442
▁मानसिकता	-11.7442
▁परिवारवाद	-11.7443
▁नमो	-11.7443
▁आव	-11.7451
▁अगवा	-11.7452
एनएस	-11.7456
▁दिखाता	-11.7456
▁मय	-11.7459
ण्डा	-11.746
▁बेची	-11.7469
▁नीला	-11.747
▁कल्याणपुर	-11.7473
खान	-11.7474
ादेश	-11.7481
▁SI	-11.7484
▁डालें	-11.7485
""	-11.7486
दिल	-11.7487
▁घन	-11.7489
▁गिना	-11.7494
ौरी	-11.7498
▁आरपी	-11.7501
▁दुब	-11.7504
▁वाल	-11.7507
▁उपर	-11.7508
▁धम	-11.7509
▁घुसने	-11.7511
र्ग	-11.7512
▁भतीज	-11.7525
कत	-11.7526
ोदय	-11.7527
▁अवर	-11.7535
िला	-11.7536
▁यूएस	-11.7538
चुनाव	-11.7538
एंड	-11.7538
भोपाल	-11.754
▁220	-11.7543
▁होल्ड	-11.7544
एमएसपी	-11.7545
ुद	-11.7546
▁2001	-11.7549
▁शब	-11.755
▁सीएए	-11.7554
▁103	-11.7558
▁संतुल	-11.756
▁जगन	-11.7561
▁गोष्ठी	-11.7565
▁छुटकारा	-11.7565
▁भदौरिया	-11.7565
▁मेमोरियल	-11.7565
▁रिचार्ज	-11.7565
▁विधवा	-11.7565
▁सृष्टि	-11.7565
▁सेलिब्रेशन	-11.7565
▁जेएमएम	-11.7565
▁डिटेन	-11.7565
▁स्तंभ	-11.7565
▁गन्ने	-11.7565
▁ब्यावर	-11.7565
▁ब्यूटी	-11.7565
▁भागीरथ	-11.7565
▁बबीता	-11.7565
▁सविता	-11.7565
BCCI	-11.7565
▁एनडीआरएफ	-11.7565
▁ज़िले	-11.7565
▁पशुपालक	-11.7565
▁परिदृश्य	-11.7565
▁उर्दू	-11.7565
▁समावेश	-11.7565
▁(28)	-11.7565
▁बृजमोहन	-11.7565
▁टीकाकरण	-11.7566
▁तालमेल	-11.7566
▁लाइंस	-11.7566
▁शैलेश	-11.7567
▁सुगम	-11.7568
▁हासन	-11.7568
▁स्टेटमेंट	-11.757
▁लॉकर	-11.757
▁चौड़ाई	-11.7571
▁समझिए	-11.7571
▁एमएल	-11.7571
▁घूस	-11.7571
▁RBI	-11.7574
▁नवनीत	-11.7577
▁गुजारा	-11.7578
▁घुटने	-11.7579
▁खुर	-11.7579
▁फौर	-11.758
▁वर्कर	-11.758
नौ	-11.758
▁चेज	-11.758
▁आजसू	-11.7582
ांकित	-11.7584
▁दिक्कतों	-11.7587
टेल	-11.759
▁कटनी	-11.759
वेट	-11.759
▁कुट	-11.759
▁शर्ट	-11.7591
▁निक	-11.7591
▁लिपिक	-11.7591
▁गाते	-11.7592
▁परमात्म	-11.7594
▁भेड़	-11.7606
बाप	-11.7608
▁कन्	-11.7609
▁गे	-11.7611
▁हाजिरी	-11.7613
▁कार्मिकों	-11.7614
व्ह	-11.7616
▁पॉवर	-11.762
▁सूरजपुर	-11.7621
▁बूढ़	-11.7622
▁पीके	-11.7629
नुसार	-11.7629
▁खूबसूरती	-11.763
न्ट	-11.7632
▁फैक्टर	-11.7634
सब	-11.7637
▁छीनने	-11.7637
वर्क	-11.7639
▁वर्ण	-11.7639
▁सिंगला	-11.7639
▁अफ़	-11.7642
▁गड़बड़	-11.7644
▁रूल	-11.765
रूम	-11.7652
▁128	-11.7653
ोदा	-11.7654
▁धामी	-11.7655
▁लाइनों	-11.7662
day	-11.7666
ाइकल	-11.7667
▁डिजाइनर	-11.7667
आरपी	-11.7668
▁बारां	-11.7673
▁बहा	-11.7677
्यूम	-11.7679
मारी	-11.7679
स्वी	-11.7684
▁उन्‍ह	-11.7696
▁खरीदार	-11.7699
AC	-11.7701
दपुर	-11.7703
UG	-11.7704
ालियों	-11.7705
▁जमी	-11.7705
▁गोले	-11.7711
श्रम	-11.772
▁डंप	-11.7727
▁पिछल	-11.773
▁कंडीशन	-11.7738
▁कम्युनिस्ट	-11.7738
▁छेड़खानी	-11.7738
▁डायलॉग	-11.7738
▁तेंदुलकर	-11.7738
▁फर्नीचर	-11.7738
▁भयावह	-11.7738
▁मजेदार	-11.7738
▁मिजोरम	-11.7738
▁मुंशी	-11.7738
▁शुष्क	-11.7738
▁सनराइज	-11.7738
▁सिद्धारमैया	-11.7738
▁सुदामा	-11.7738
▁स्विफ्ट	-11.7738
▁खेडकर	-11.7738
▁सीएनजी	-11.7738
▁दखल	-11.7738
▁निर्दोष	-11.7738
▁(26)	-11.7738
▁जलेबी	-11.7738
▁संकीर्तन	-11.7738
▁पारदर्शी	-11.7738
▁मेघालय	-11.7738
▁कूड़े	-11.7738
▁खिलवाड़	-11.7738
▁मैट्रिक	-11.7738
▁पेंडिंग	-11.7738
▁प्रवृत्ति	-11.7738
▁पत्थरबाजी	-11.7738
▁विलंब	-11.7739
▁चिंताजनक	-11.7739
▁सुरेन्द्र	-11.7739
▁ओल्ड	-11.7739
▁साहित्यकार	-11.774
▁बिरसा	-11.7741
▁चंदौली	-11.7741
▁प्रतिवर्ष	-11.7741
▁बर्थ	-11.7742
▁निवेदन	-11.7742
▁व्याख्यान	-11.7743
▁अनन्या	-11.7744
▁बताएंगे	-11.7745
▁उपासन	-11.7745
▁जेईई	-11.7746
▁दरार	-11.7746
▁धनुष	-11.7746
▁देवेन्द्र	-11.7746
▁इरादा	-11.7747
▁2047	-11.7748
▁पाला	-11.775
▁वेटिंग	-11.775
▁मदरसा	-11.7751
िष्क	-11.7752
▁शिवहर	-11.7753
▁i	-11.7754
▁झूले	-11.7755
▁शै	-11.7755
▁मोटी	-11.7756
▁पक्षकार	-11.7759
▁विराम	-11.7761
▁देशवासियों	-11.7763
▁रिकवरी	-11.7763
▁खिलाने	-11.7776
गंगा	-11.7776
▁लेडी	-11.7778
ायत	-11.7781
▁िक	-11.7782
मार्ट	-11.7782
ल्थ	-11.7783
▁पीआर	-11.7783
▁टीका	-11.7784
▁बान	-11.7786
▁बीके	-11.7789
▁Cha	-11.7795
▁माताजी	-11.7801
▁फैले	-11.7802
ैक्ट	-11.7804
▁चाहा	-11.7808
▁AC	-11.7809
ंद्र	-11.781
▁बंग	-11.7813
र्जन	-11.7814
▁लौ	-11.7814
▁टोक	-11.7819
▁एडिट	-11.7821
▁सतनाम	-11.7822
▁राग	-11.7822
▁तुला	-11.7824
सुध	-11.7828
▁डरे	-11.7829
▁निकालना	-11.7833
▁तारों	-11.7836
▁ग्राफ	-11.7839
यूपी	-11.7843
▁हेल्प	-11.7847
▁पराग	-11.7847
▁लगाता	-11.7849
ka	-11.7854
OC	-11.7855
नानी	-11.7862
बेन	-11.7863
यक	-11.7865
ूद	-11.787
-21	-11.7874
▁घाटा	-11.7875
▁सैलान	-11.7875
▁अनूठ	-11.7879
त्थ	-11.7883
पाट	-11.7885
फील्ड	-11.7888
▁साब	-11.7894
ऊंगा	-11.7894
▁डीएस	-11.7894
ुरु	-11.7898
्शन	-11.7898
नंद	-11.7901
▁कल्चर	-11.7906
शीष	-11.7906
▁मनो	-11.7907
वर्ड	-11.7908
▁डीआर	-11.791
टरी	-11.791
वृष्टि	-11.7913
▁World	-11.7913
▁अधिवेशन	-11.7913
▁अनारक्षित	-11.7913
▁अप्रत्याशित	-11.7913
▁अवनीश	-11.7913
▁उर्वरक	-11.7913
▁क्यूसेक	-11.7913
▁खजराना	-11.7913
▁गुरदासपुर	-11.7913
▁ग्रेजुएशन	-11.7913
▁ज्ञानवापी	-11.7913
▁टेस्ला	-11.7913
▁ठिकाना	-11.7913
▁ध्वनि	-11.7913
▁निःशुल्क	-11.7913
▁नियंत्रक	-11.7913
▁प्रज्ज्वल	-11.7913
▁प्रोटोकॉल	-11.7913
▁मापदंड	-11.7913
▁रिमझिम	-11.7913
▁शैक्षिक	-11.7913
▁सुशासन	-11.7913
▁स्टॉफ	-11.7913
▁हिंदुत्व	-11.7913
▁पशुपालन	-11.7913
▁अल्लाह	-11.7913
▁निष्कास	-11.7913
▁बंपर	-11.7913
▁बुनकर	-11.7913
▁ग़लत	-11.7913
▁सदैव	-11.7913
▁मनोनीत	-11.7913
▁आज़ाद	-11.7913
▁अभिभाष	-11.7913
▁कमर्शियल	-11.7913
▁वसीम	-11.7913
▁Share	-11.7913
▁सांगवान	-11.7913
▁समाधि	-11.7913
▁ढिल्लों	-11.7914
▁पूज्य	-11.7914
▁बोहरा	-11.7914
▁ब्रेकअप	-11.7914
▁मऊगंज	-11.7914
▁प्रशस्ति	-11.7915
▁अर्थात	-11.7915
▁हू	-11.7915
▁पटनायक	-11.7915
▁मुगल	-11.7915
▁निष्पादन	-11.7915
▁एसएसबी	-11.7915
▁जैविक	-11.7915
▁ठेला	-11.7916
▁पैरोल	-11.7916
▁अंकुर	-11.7916
▁सिलाई	-11.7916
▁गुलशन	-11.7917
▁गुवाहाटी	-11.7917
▁ऑफलाइन	-11.7918
▁सज़ा	-11.7919
हां	-11.7919
▁हावी	-11.792
▁पुतले	-11.7922
▁2026	-11.7923
▁खुशियां	-11.7925
घट	-11.7926
▁टकराव	-11.7926
▁लालवानी	-11.7926
gov	-11.7927
▁खट्	-11.7928
▁कमांडो	-11.793
▁जुड़ाव	-11.793
क्चर	-11.7931
▁मिलेंगी	-11.7933
▁रक्षक	-11.7933
▁घूमते	-11.7935
▁बीएनएस	-11.7938
▁Ja	-11.7938
▁शारद	-11.7943
▁हस्त	-11.7944
▁राजपाल	-11.7945
▁परिवादी	-11.7946
जॉय	-11.7949
▁संभाली	-11.795
▁एटा	-11.7956
▁अध्यापकों	-11.7958
▁सिद्धांतों	-11.7969
▁एनसीआर	-11.7971
▁आवेदकों	-11.7971
बत	-11.7977
▁कटे	-11.7977
-13	-11.798
▁तम	-11.798
▁रोहन	-11.7981
▁शर्म	-11.7983
▁गल	-11.7984
ांत	-11.7985
▁हाइब	-11.7986
रंजन	-11.7987
▁बीस	-11.7988
▁पड़ाव	-11.7992
▁दीवारों	-11.7995
▁योगा	-11.7995
▁2'	-11.7998
▁हलका	-11.8
5.5	-11.8
▁निकलता	-11.8001
▁सतह	-11.8003
जीविका	-11.8017
▁चरा	-11.8019
प्ति	-11.8021
▁हिज़	-11.8027
up	-11.803
IS	-11.8038
ोहा	-11.8042
▁हिम	-11.8048
▁रमा	-11.8049
▁सदा	-11.8052
▁गिरफ़्तार	-11.8058
▁करवाएं	-11.806
▁नीर	-11.8062
▁भेजना	-11.8063
किशन	-11.8063
साधारण	-11.8067
प्रदर्शन	-11.8067
मरा	-11.8069
विचार	-11.8071
भक्त	-11.8072
▁पक	-11.8072
▁सहाय	-11.8084
▁स्किल	-11.8086
▁कैफ	-11.8087
▁शौच	-11.8091
▁अहिल्या	-11.8091
▁अटैच	-11.8092
▁अलविदा	-11.8092
▁एनजीओ	-11.8092
▁कॉर्पोरेट	-11.8092
▁खगड़िया	-11.8092
▁डिस्चार्ज	-11.8092
▁बाथरूम	-11.8092
▁मर्यादा	-11.8092
▁मिथिलेश	-11.8092
▁मुइज्जू	-11.8092
▁स्ट्रक्चर	-11.8092
▁एथलीट	-11.8092
▁भरपाई	-11.8092
▁विनाश	-11.8092
83	-11.8092
▁Today	-11.8092
▁महमूद	-11.8092
▁(21)	-11.8092
▁मंगलसूत्र	-11.8092
▁कैंडल	-11.8092
▁वचन	-11.8092
▁ड्रेनेज	-11.8092
▁सूर्यवंशी	-11.8092
▁प्रतिनियुक्ति	-11.8092
▁उल्टा	-11.8092
▁भानु	-11.8092
▁कहानियां	-11.8092
▁NCP	-11.8092
▁वीकेंड	-11.8092
▁रिटेल	-11.8093
▁संतोषजनक	-11.8093
▁पूर्वजों	-11.8093
▁प्रश्नपत्र	-11.8093
▁फहरा	-11.8093
हाद	-11.8093
▁प्रतियोगी	-11.8093
▁इस्लामाबाद	-11.8093
▁रविचंद्र	-11.8093
▁सिमरन	-11.8094
▁आईपीसी	-11.8095
ाणा	-11.8096
▁घोषणापत्र	-11.8097
▁रेनू	-11.8097
▁दोपहिया	-11.8097
▁सैन	-11.8097
लॉजिकल	-11.8098
▁व्यवसायिक	-11.8099
▁Indian	-11.8099
▁कैथ	-11.81
▁गाव	-11.81
▁दिक्कतें	-11.8102
▁हावड़ा	-11.8102
▁पोस्त	-11.8102
▁फंसाया	-11.8102
▁अचल	-11.8103
▁एनिमल	-11.8105
▁इलेक्ट्रॉनिक्स	-11.8108
▁आवाज़	-11.811
▁टकराई	-11.8111
▁जाऊंगा	-11.8113
▁विमर्श	-11.8113
▁रियर	-11.8113
▁डिटेल्स	-11.8116
▁टाइमिंग	-11.8119
▁सूखा	-11.8121
▁1-1	-11.8123
▁हथ	-11.8125
▁वीके	-11.8129
▁सोचते	-11.813
खु	-11.8134
▁खंडन	-11.8135
▁पंथ	-11.8138
दाना	-11.8142
▁टकराने	-11.8154
जोर	-11.8155
लोगों	-11.8158
थो	-11.8161
राई	-11.8171
▁नाश	-11.8172
गली	-11.8174
लाज	-11.8174
भू	-11.8175
▁एमए	-11.8177
▁इंद्रा	-11.8178
आरआई	-11.8178
▁भागा	-11.8181
▁बीना	-11.8183
ia	-11.8183
▁चलो	-11.8185
शक्तिशाली	-11.8191
दिन	-11.8194
ान्नि	-11.8194
ath	-11.8196
कई	-11.8198
▁पहुंचती	-11.8202
▁जेन	-11.8214
▁मजा	-11.8214
म्मा	-11.8217
योजना	-11.822
.11	-11.8222
वश	-11.8224
यम	-11.8228
▁मेस	-11.8228
▁शेफ	-11.8236
▁सन्	-11.8237
▁चतुर्थ	-11.824
▁परिवाद	-11.824
▁नेताजी	-11.8242
▁सेल्फ	-11.8243
▁Ch	-11.8243
कर्मचारी	-11.8248
मुंबई	-11.8248
भोग	-11.8249
▁आओ	-11.8251
▁102	-11.8256
बीज	-11.8265
िफाइड	-11.8269
▁राजनेता	-11.8269
▁जस्टि	-11.8269
्डर	-11.8269
▁वीक	-11.827
▁Aaj	-11.8273
▁इन्वेस्टिगेशन	-11.8273
▁द्रविड़	-11.8273
▁नौतपा	-11.8273
▁परिसीमन	-11.8273
▁प्रोफ़ेसर	-11.8273
▁शशांक	-11.8273
▁षड्यंत्र	-11.8273
▁संक्रांति	-11.8273
▁साक्षर	-11.8273
▁सॉन्ग	-11.8273
▁स्ट्रॉन्ग	-11.8273
▁अभिव्यक्ति	-11.8273
▁मुबारक	-11.8273
▁हिंडनबर्ग	-11.8273
▁खदेड़	-11.8273
▁मत्स्य	-11.8273
▁सावरकर	-11.8273
▁मंत्रमुग्ध	-11.8273
▁निकाह	-11.8274
▁इनोवेशन	-11.8274
▁पिंटू	-11.8274
▁कैरियर	-11.8274
▁सम्पूर्ण	-11.8274
▁रवैया	-11.8274
पिक्सल	-11.8274
▁सुरिंदर	-11.8274
▁बीडीओ	-11.8274
▁वास्तु	-11.8274
इए	-11.8275
▁कंबल	-11.8275
▁सूचीबद्ध	-11.8275
▁प्रमाणपत्र	-11.8276
▁लेखपाल	-11.8276
▁हेयर	-11.8276
▁k	-11.8276
▁नीता	-11.8277
▁दानिश	-11.8277
र्डर	-11.8277
▁बांधने	-11.8278
▁अकाउंटेंट	-11.8278
▁प्रहार	-11.8278
▁कमिश्नरेट	-11.8279
▁कटारा	-11.8279
▁सानिया	-11.828
▁पदनाम	-11.8281
▁चक्रवात	-11.8285
▁सराफा	-11.8286
▁कहेंगे	-11.8286
म्मी	-11.8287
▁9:30	-11.8292
▁उद्यमी	-11.8296
टूट	-11.8297
मध्य	-11.8298
▁असा	-11.8301
▁छोड़े	-11.8303
▁छी	-11.8305
▁फाग	-11.8305
हमें	-11.8306
▁ईशान	-11.8307
▁अरे	-11.8307
कड़ा	-11.8308
धीश	-11.8309
▁फरीद	-11.8309
▁सजी	-11.8316
▁नेपाली	-11.8322
▁रेस्ट	-11.8327
▁भाकर	-11.8328
लिटी	-11.8328
▁तुल	-11.8329
▁पनप	-11.8329
खण्ड	-11.833
▁उल्	-11.8331
▁एमआर	-11.8332
ंटू	-11.8332
▁रूपये	-11.8333
▁नदीम	-11.8335
▁जहरीली	-11.8338
एँ	-11.8338
मिला	-11.8339
▁खैरा	-11.8339
▁वसूला	-11.8341
▁करूंगी	-11.8342
शोर	-11.8343
▁पेड	-11.8344
▁टेलर	-11.8351
▁जिम्मेदारों	-11.8355
ुष	-11.8359
▁सीमाओं	-11.8361
im	-11.8361
▁रैन	-11.8364
▁करणी	-11.8375
▁बैट	-11.8378
▁कुम	-11.8379
▁हंसी	-11.8379
ंटर	-11.8384
ang	-11.8386
▁टेल	-11.8399
▁जन्मे	-11.8407
▁ढुल	-11.8409
षण	-11.841
▁एशिय	-11.8412
सीआर	-11.8415
पॉक्स	-11.8416
▁वाया	-11.8417
▁चेहर	-11.8418
▁1100	-11.8422
ashi	-11.8426
विद्या	-11.8428
▁मिसाइलों	-11.843
बांग्लादेश	-11.8433
▁रान	-11.8434
मिनी	-11.8435
शेष	-11.8436
प्रेम	-11.8436
पुरुष	-11.8439
जाल	-11.8439
ub	-11.8444
▁उलझा	-11.8447
गबन	-11.8451
▁रचनात्मक	-11.8451
▁स्पोर्ट	-11.8452
वस्था	-11.8455
टफ्ल	-11.8458
▁सॉफ्ट	-11.8458
▁अनहोनी	-11.8459
▁अयोग्य	-11.8459
▁आउटसोर्स	-11.8459
▁एजेंसियां	-11.8459
▁एसोसिएट	-11.8459
▁कनिष्ठ	-11.8459
▁कुवैत	-11.8459
▁कॉन्सर्ट	-11.8459
▁ट्रांसफॉर्मर	-11.8459
▁त्वचा	-11.8459
▁दूरसंचार	-11.8459
▁पलामू	-11.8459
▁रोहतास	-11.8459
▁वैष्णो	-11.8459
▁सेलिब्रिटी	-11.8459
▁हड्डी	-11.8459
▁नाट्य	-11.8459
▁मिथिला	-11.8459
▁कॉन्क्लेव	-11.8459
▁पुण्यतिथि	-11.8459
▁धरातल	-11.8459
▁(23)	-11.8459
▁(32)	-11.8459
▁कुसुम	-11.8459
▁खंडपीठ	-11.8459
हाई	-11.8459
▁होलिका	-11.8459
▁केदारनाथ	-11.8459
▁प्लेसमेंट	-11.8459
▁कुत्ता	-11.8459
BA	-11.8459
▁खालसा	-11.846
▁ऑलआउट	-11.846
▁बेहाल	-11.846
▁बुल	-11.846
▁रघुनाथ	-11.846
▁रेणुका	-11.846
▁एथलेटिक्स	-11.846
▁सिखाया	-11.8461
भद्र	-11.8461
▁हमीदिया	-11.8461
▁रितु	-11.8462
▁कार्यभार	-11.8462
▁1971	-11.8462
▁अराजकता	-11.8462
▁सुदेश	-11.8462
▁सोमनाथ	-11.8462
▁मददगार	-11.8463
▁जानकारियां	-11.8464
▁2027	-11.847
▁उमरिया	-11.847
▁लुटेरे	-11.8472
▁शैतान	-11.8472
तिगत	-11.8473
रोज	-11.8476
इस्लामिक	-11.8476
all	-11.8479
धेड़	-11.8479
▁लगाएंगे	-11.848
.2024	-11.8481
▁श्रुति	-11.8483
मंत्र	-11.8488
▁कारगर	-11.8488
▁लला	-11.8488
▁गोल्डी	-11.8488
▁दंगे	-11.8489
▁जीतीं	-11.8492
▁छापे	-11.8492
▁सोनकर	-11.8499
▁फेरी	-11.8502
▁नासा	-11.8503
▁लाते	-11.8504
▁सुने	-11.8505
▁प्रतिष्ठानों	-11.8506
▁पिंकी	-11.8517
▁ब्रह्मा	-11.8517
▁Ad	-11.8521
▁हिला	-11.8527
लिख	-11.8528
मांगलिक	-11.8529
▁111	-11.8532
▁लाद	-11.8532
▁अल्प	-11.8535
▁उमड़ी	-11.8537
ाधार	-11.8545
iv	-11.8555
शियन	-11.8555
टीआई	-11.8555
विद	-11.8561
▁बल्लेबाज़	-11.8569
▁लिट	-11.857
▁शील	-11.8571
▁750	-11.8572
▁यूट्यूबर	-11.8574
▁मारते	-11.858
▁महता	-11.8581
▁सिह	-11.8583
▁महि	-11.8585
महल	-11.8586
▁अमेरिक	-11.8593
pa	-11.8593
श्र	-11.8595
ोलिक	-11.8597
एमआर	-11.86
अनु	-11.8602
▁स्वदेशी	-11.8605
▁राहगीर	-11.8606
▁डोल	-11.861
▁अबू	-11.8614
▁विनर	-11.8614
▁प्रमोट	-11.8618
▁मिलान	-11.8619
हमारे	-11.8622
महिला	-11.8622
डाउन	-11.8623
▁मुस्लिमों	-11.8626
▁(19	-11.8629
▁लेक	-11.863
▁मेट	-11.8634
ll	-11.8637
चमक	-11.8642
▁भ्रष्ट	-11.8647
▁सरायकेला	-11.8647
▁कवायद	-11.8647
▁किल्लत	-11.8647
▁खातून	-11.8647
▁तंबाकू	-11.8647
▁धनराशि	-11.8647
▁धमतरी	-11.8647
▁नॉमिनेशन	-11.8647
▁पोशाक	-11.8647
▁फॉरेंसिक	-11.8647
▁भंसाली	-11.8647
▁महायज्ञ	-11.8647
▁मेडिसिन	-11.8647
▁राजनैतिक	-11.8647
▁घोड़े	-11.8647
▁दंपति	-11.8647
▁प्रतिवेदन	-11.8647
▁फ्रेम	-11.8647
▁करुणा	-11.8647
▁कब्रिस्तान	-11.8647
▁अरूण	-11.8647
▁(55)	-11.8647
▁इक्विटी	-11.8647
▁बुलंदशहर	-11.8647
▁उचाना	-11.8647
तैसे	-11.8648
▁एलपीजी	-11.8648
▁अगेन	-11.8648
▁रैंप	-11.8648
▁कैमूर	-11.8648
▁तृप्ति	-11.8648
▁डीआरएम	-11.8648
▁शिबू	-11.8648
▁ज्ञात	-11.8648
▁पिलर	-11.8648
▁एक्सपोर्ट	-11.8649
▁फील	-11.8649
▁निरोधक	-11.8649
▁फेम	-11.8649
▁सहेली	-11.8649
▁सीढ़ी	-11.8649
▁फ्लाई	-11.8649
▁डामर	-11.8651
▁रोगी	-11.8651
▁जगजीत	-11.8652
SC	-11.8652
▁तबादले	-11.8654
▁मिलिट्री	-11.8654
▁1990	-11.8654
▁स्वीट	-11.8654
▁अजीब	-11.8655
▁बैरल	-11.8657
▁रामविलास	-11.8657
▁बनवारी	-11.8657
▁देशमुख	-11.8658
▁सिंघम	-11.8658
गावस्कर	-11.8658
▁बरा	-11.8661
▁सुजीत	-11.8662
▁पट्टे	-11.8662
▁कॉमन	-11.8664
▁कूच	-11.8664
▁निहाल	-11.8665
▁गाल	-11.8665
▁पैट	-11.8666
▁फसलें	-11.8668
सुधांशु	-11.8669
▁बिरादर	-11.8669
▁भतीजा	-11.867
▁वां	-11.8671
नंदन	-11.8674
शाही	-11.8675
▁MM	-11.8676
▁वाणी	-11.8677
▁ड्रॉप	-11.8677
AS	-11.8677
▁पार्ट्स	-11.8679
▁रफीक	-11.8679
▁सेनानी	-11.8682
▁बनाएगी	-11.8687
▁वायद	-11.8687
▁रोबोट	-11.8692
एमटी	-11.8695
▁बोलना	-11.8699
▁मदर	-11.8703
▁गुजराती	-11.8706
▁गाए	-11.8714
▁लंग	-11.8715
▁लालपुर	-11.8716
▁केवट	-11.8729
0%	-11.873
▁प्रोसेसर	-11.8732
▁रामलाल	-11.8734
ity	-11.8734
▁प्	-11.8742
▁एक्सपो	-11.8743
बुक	-11.8744
▁एनएस	-11.8752
▁Rea	-11.8757
द्व	-11.8757
▁खार	-11.8759
▁कंड	-11.876
▁पत	-11.8765
त्मक	-11.8766
▁An	-11.877
▁एआर	-11.8776
2024	-11.8777
▁पट्टा	-11.8784
एआई	-11.8786
▁केसरी	-11.8791
▁सोफ	-11.8791
▁कहें	-11.8809
BJP	-11.8815
वर्तमान	-11.8815
▁पोखर	-11.882
शर्ट	-11.8825
कली	-11.8825
▁फाइन	-11.8826
▁लिखवा	-11.8826
▁इकट्	-11.8826
ess	-11.8827
श्म	-11.8831
▁दीया	-11.8835
▁अन्नपूर्णा	-11.884
▁अमेजन	-11.884
▁जीर्णोद्धार	-11.884
▁पीथमपुर	-11.884
▁फ्यूचर	-11.884
▁बदसलूकी	-11.884
▁भाकपा	-11.884
▁मार्जिन	-11.884
▁रिफंड	-11.884
▁वर्षगांठ	-11.884
▁विकलांग	-11.884
▁वैद्य	-11.884
▁इज्जत	-11.884
▁कन्नड़	-11.884
▁कप्‍तान	-11.884
▁क्लर्क	-11.884
▁गाँव	-11.884
▁न्योता	-11.884
▁सघन	-11.884
▁गंडक	-11.884
▁आमदनी	-11.884
▁श्रीमाली	-11.884
▁चरमपंथ	-11.884
▁सज्जन	-11.884
▁डायमंड	-11.884
▁स्लै	-11.884
▁बदहाल	-11.884
▁(50)	-11.884
▁आंसर	-11.884
▁एवरेज	-11.884
▁थोड़े	-11.884
▁आंध्रप्रदेश	-11.884
▁कार्बन	-11.884
▁फैक्ट्रिय	-11.884
▁धोखे	-11.884
▁कॉफी	-11.884
▁एक्यूआई	-11.884
▁कीचड़	-11.884
▁प्रारूप	-11.884
▁सईद	-11.884
▁चिड़िया	-11.884
▁एएनएम	-11.8841
▁शंका	-11.8841
▁मुकाम	-11.8841
▁टीडीपी	-11.8841
▁अश्वनी	-11.8841
▁पदभार	-11.8842
▁उपयुक्त	-11.8842
▁हटवा	-11.8842
▁एटीएस	-11.8842
▁छेड़	-11.8842
▁खासियत	-11.8843
▁श्रोता	-11.8845
▁एचडी	-11.8845
▁रैम	-11.8845
▁पागल	-11.8846
▁विलय	-11.8847
▁कंध	-11.8847
▁उद्यमियों	-11.8847
▁मिश्रण	-11.8848
▁क्रॉसिंग	-11.8848
▁शॉल	-11.885
▁बलजीत	-11.8853
▁सच्चे	-11.8853
दस्त	-11.8855
4%	-11.8858
▁नायर	-11.8859
▁विस	-11.8863
ियस	-11.8866
▁कदर	-11.8866
▁कसर	-11.8867
▁मनप्रीत	-11.8867
2.5	-11.8869
▁किसकी	-11.887
▁पीला	-11.8874
कमल	-11.8875
्ट्री	-11.8876
ED	-11.8876
▁कमाए	-11.8879
▁आद	-11.888
कैप	-11.8882
जला	-11.8885
▁जैकी	-11.8885
एएस	-11.8885
चित्र	-11.8886
▁104	-11.8887
▁नेताम	-11.8889
▁मस्ती	-11.8889
▁गोह	-11.8893
ल्डिंग	-11.8894
ैग	-11.8895
▁झाला	-11.8896
▁छाने	-11.89
▁स्टै	-11.89
दूत	-11.8901
▁बंधा	-11.8901
▁दिखते	-11.8903
कालीन	-11.8915
▁पेंशनर	-11.8916
▁उम	-11.8921
▁आजमा	-11.8923
केवाईसी	-11.8923
um	-11.8923
▁बनाये	-11.8927
▁भग	-11.8935
दायी	-11.8938
▁बराबरी	-11.8946
▁पोलियो	-11.8947
लाभ	-11.8948
▁किश्त	-11.8953
तल	-11.8953
▁हानि	-11.8958
7.6	-11.896
▁टांग	-11.896
▁सिंध	-11.8963
▁क्रेज	-11.8964
▁दंगा	-11.8965
मेक	-11.8971
▁मग	-11.8973
कृष	-11.8974
8%	-11.8974
▁बूट	-11.8979
पीठ	-11.8985
▁उठी	-11.8986
7%	-11.8986
गुल	-11.8987
▁भरना	-11.8987
ख्त	-11.8988
▁पिपरा	-11.8991
SA	-11.8994
▁सैर	-11.8995
पीआरओ	-11.8997
▁रेज	-11.8997
▁इंसानों	-11.8998
▁चै	-11.9
शू	-11.9001
म्बा	-11.9003
मंदिर	-11.9006
▁पहुंचाना	-11.9008
परिवार	-11.9008
प्त	-11.9008
देवताओं	-11.901
बहुत	-11.9012
▁छुप	-11.9013
डंडे	-11.9015
▁जर्मन	-11.902
ोटा	-11.902
▁अग	-11.9021
▁पट्	-11.9022
ादित्य	-11.9025
कार्ड	-11.9027
रवीना	-11.9028
प्रधानमंत्री	-11.9029
▁अख़बार	-11.9036
▁अभिमन्यु	-11.9036
▁अम्बेडकर	-11.9036
▁एप्लीकेशन	-11.9036
▁कम्युनिटी	-11.9036
▁क्रिमिनल	-11.9036
▁चम्मच	-11.9036
▁छुट्टियों	-11.9036
▁ट्रॉमा	-11.9036
▁तर्पण	-11.9036
▁तुम्हारी	-11.9036
▁पॉडकास्ट	-11.9036
▁बांग्‍लादेश	-11.9036
▁मिचेल	-11.9036
▁मुलाजिम	-11.9036
▁मूंगफली	-11.9036
▁लायंस	-11.9036
▁सिब्बल	-11.9036
▁सेलिब्रेट	-11.9036
▁जामताड़ा	-11.9036
▁प्रशंसक	-11.9036
▁माथे	-11.9036
▁क्षत्रिय	-11.9036
▁थाईलैंड	-11.9036
▁सैटेलाइट	-11.9036
▁शर्मिला	-11.9036
▁यूसुफ	-11.9036
▁उल्लास	-11.9036
▁जलापूर्ति	-11.9036
▁सोनभद्र	-11.9036
▁चौड़ीकरण	-11.9036
▁अमरोहा	-11.9036
▁पनीर	-11.9036
▁फिरोजाबाद	-11.9036
▁ताराचंद	-11.9036
▁EVM	-11.9037
▁यशवंत	-11.9037
8.5	-11.9037
▁ओवरलोड	-11.9037
▁ज़िला	-11.9037
▁हर्षोल	-11.9037
▁एएनआई	-11.9037
▁अनुभवों	-11.9037
▁138	-11.9037
▁माननीय	-11.9038
▁शिखा	-11.9038
▁जफर	-11.9038
▁शायर	-11.9038
ांति	-11.9038
▁डाॅ	-11.9039
▁हीरालाल	-11.9039
▁1997	-11.9039
▁यमुनानगर	-11.9039
▁विक्रय	-11.904
▁हकदार	-11.904
▁अदालतों	-11.904
▁जल्दबाजी	-11.904
▁कुलविंदर	-11.9042
▁बांद्रा	-11.9042
▁चहल	-11.9043
▁मंडरा	-11.9044
▁135	-11.9046
▁चांदनी	-11.9046
▁नार	-11.9047
▁ड्रिल	-11.9047
▁(18)	-11.9048
▁राज्‍य	-11.9049
▁आचरण	-11.9051
▁पन्नू	-11.9052
▁गेमिंग	-11.9053
▁भेद	-11.9053
▁क्रे	-11.9054
▁फर्जीवाड़ा	-11.9055
▁लकी	-11.9059
ck	-11.9059
ill	-11.906
▁हमको	-11.9061
▁डूबे	-11.9064
▁पाबंदी	-11.9065
NA	-11.9068
ंघ	-11.9069
▁Ar	-11.9069
▁खिलाकर	-11.9071
,999	-11.9074
▁शास्त्रीय	-11.9074
▁सेठी	-11.9079
▁e	-11.9079
▁शिया	-11.908
▁स्टेटस	-11.9082
▁सांव	-11.9083
▁हाइ	-11.9091
▁गोविंदपुर	-11.9094
▁कम्प	-11.9095
▁तौ	-11.9096
हमने	-11.9096
▁पीते	-11.9099
▁कटवा	-11.91
मूल्य	-11.9103
▁+	-11.9103
▁रिएक्ट	-11.9106
▁नस	-11.9109
▁विशेषता	-11.9113
णु	-11.9123
▁(4	-11.9124
▁नांद	-11.9131
ara	-11.9138
▁मुफ्ती	-11.9143
▁पदम	-11.9144
▁आगर	-11.9145
ment	-11.916
▁विंडो	-11.9162
भाविक	-11.9167
विन	-11.917
▁कारें	-11.9188
न्ध	-11.9188
▁एमबी	-11.9197
▁1.2	-11.9198
ba	-11.9198
▁बेक	-11.92
▁जोगी	-11.9201
▁नट	-11.9202
▁बेट	-11.9204
मुस्लिम	-11.921
▁नामित	-11.9211
▁नानी	-11.9215
▁एसई	-11.9216
ध्यक्ष	-11.9222
▁शिप	-11.923
▁उन्नत	-11.9233
▁Case	-11.9236
▁आकस्मिक	-11.9236
▁क्रैश	-11.9236
▁झमाझम	-11.9236
▁टीकमगढ़	-11.9236
▁डायरेक्शन	-11.9236
▁धर्मांतरण	-11.9236
▁नसरल्लाह	-11.9236
▁प्रसूता	-11.9236
▁बिहटा	-11.9236
▁मैगजीन	-11.9236
▁मैन्युफैक्चरिंग	-11.9236
▁लर्निंग	-11.9236
▁वाइल्ड	-11.9236
▁सीआईएसएफ	-11.9236
▁सुरजेवाला	-11.9236
▁चाइना	-11.9236
▁पिंजरे	-11.9236
▁प्राध्यापक	-11.9236
▁निचली	-11.9236
▁कवच	-11.9236
▁कोंडागांव	-11.9236
▁लुढ़क	-11.9236
▁वॉटर	-11.9236
▁स्काउट	-11.9236
▁टॉम	-11.9236
▁(27)	-11.9236
▁मॉस्को	-11.9236
▁रिसेप्शन	-11.9236
▁मोहसिन	-11.9236
▁ओंकारेश्वर	-11.9236
▁सौंदर्यीकरण	-11.9236
▁संक्रमित	-11.9236
▁अर्थशास्त्र	-11.9236
▁मूसल	-11.9236
▁महापंचायत	-11.9236
▁दुर्भाग्यपूर्ण	-11.9236
▁रिटेन	-11.9236
▁बगावत	-11.9236
▁सप्तमी	-11.9236
▁खिसक	-11.9236
▁डुअल	-11.9236
▁बावड़ी	-11.9237
▁रणजी	-11.9237
▁सुबोध	-11.9237
▁झांकियां	-11.9237
▁प्रतीक्षा	-11.9237
▁सराहा	-11.9237
▁स्थानांतरण	-11.9237
▁थ्री	-11.9238
▁घाव	-11.9239
▁उत्तराधिकारी	-11.9239
▁ग्रेजुएट	-11.9239
▁अमनदीप	-11.9239
▁स्वामित्व	-11.9239
र्रा	-11.924
▁झाड़ू	-11.924
▁जजपा	-11.924
▁चीज़	-11.924
▁बाघिन	-11.9241
▁खुराना	-11.9241
▁वारिस	-11.9241
▁हस्तियों	-11.9241
▁ओल	-11.9242
▁बानो	-11.9243
▁राउ	-11.9243
▁बंडा	-11.9244
▁कट्टे	-11.9246
▁तमंचा	-11.9246
▁प्रोसेसिंग	-11.9248
▁बहाना	-11.9249
▁फुसला	-11.925
▁यूपीआई	-11.925
▁वर्कर्स	-11.925
▁पढ़ेंः	-11.9251
▁अष्ट	-11.9251
▁चरणजीत	-11.9252
▁ज़िक	-11.9252
▁कक्षाएं	-11.9252
▁बलदेव	-11.9252
3%	-11.9254
▁चंदेल	-11.9255
▁इश	-11.9257
▁ग्रेट	-11.9257
▁खाती	-11.9258
▁जलाया	-11.9259
▁बिछाने	-11.9261
▁शीला	-11.9262
िएशन	-11.9262
बेस	-11.9262
▁बेचते	-11.9268
▁छापामार	-11.927
▁सुरक्षाबल	-11.9271
ce	-11.9271
िथ	-11.9272
यूजी	-11.9272
▁मान्यताओं	-11.9272
रत्न	-11.9273
▁नोटा	-11.9274
काश	-11.9274
▁अड़े	-11.9276
▁भरण	-11.9277
नाक	-11.9277
▁मसा	-11.9278
ायन	-11.9279
सज्ज	-11.9279
▁ओपनर	-11.9284
▁शाहीन	-11.929
बोध	-11.9293
▁फो	-11.9294
टपुट	-11.9296
▁Se	-11.9299
दह	-11.9302
ट्रॉ	-11.9302
▁मझ	-11.9303
▁ठंडक	-11.9305
खाने	-11.9307
▁तोड़े	-11.9309
ala	-11.9309
थु	-11.9314
▁बुच	-11.9317
▁प्रजाति	-11.9318
▁तृतीया	-11.932
▁एबी	-11.932
दायक	-11.932
▁पाले	-11.9322
▁कॉलिंग	-11.9322
▁कांग्रेसियों	-11.9323
गिल	-11.9325
▁आर्	-11.933
ऑर्	-11.9332
▁170	-11.9333
TMC	-11.9335
▁बीसी	-11.9339
▁लाड	-11.934
to	-11.9341
▁रिस	-11.9347
▁AM	-11.9347
▁गुलाबी	-11.9347
▁जीएम	-11.9362
▁लेयर	-11.9364
RA	-11.9366
▁समझकर	-11.9368
▁शॉ	-11.937
लोन	-11.9376
▁कपास	-11.9377
हस	-11.9377
ष्टी	-11.938
▁मिलाया	-11.9387
▁लाता	-11.9389
तोष	-11.9391
6%	-11.9391
▁इंडो	-11.9393
▁रूपेश	-11.9395
▁विद्वान	-11.9398
फिक	-11.94
▁सौरव	-11.9401
सिल	-11.9404
▁बयानबाज	-11.9408
▁मुरार	-11.9408
निर्	-11.9409
ैच	-11.9409
▁मित्रों	-11.9414
बैक	-11.9414
एनसीआर	-11.9416
▁स्वत	-11.9417
पाक	-11.9421
लड़क	-11.9422
उर	-11.9423
▁पोज	-11.9425
▁गढ़ी	-11.943
भव	-11.9431
▁दृढ़	-11.9432
▁सतत	-11.9435
▁मिर्जा	-11.9435
▁दायरा	-11.9439
▁दुर्भाग्य	-11.9439
▁अल्ट्रा	-11.9439
▁फतह	-11.944
▁एक्स्ट्रा	-11.944
▁सीढ़िय	-11.944
▁अहंकार	-11.944
▁इटारसी	-11.944
▁चमत्कार	-11.944
▁टुकड़ों	-11.944
▁डिलीट	-11.944
▁त्रुटि	-11.944
▁थॉमस	-11.944
▁निष्कर्ष	-11.944
▁पीठासीन	-11.944
▁फ्लिपकार्ट	-11.944
▁मंत्रोच्चार	-11.944
▁लाठीचार्ज	-11.944
▁संस्करण	-11.944
▁सूक्ष्म	-11.944
▁हालाँकि	-11.944
▁दुमका	-11.944
▁बच्‍च	-11.944
▁आपबीती	-11.944
▁सक्सेस	-11.944
▁छाबड़ा	-11.944
▁अनुराधा	-11.944
▁प्रतीत	-11.944
BSE	-11.944
▁जेएन	-11.944
▁UPSC	-11.944
▁जुनून	-11.944
▁जेजेपी	-11.944
▁दुर्घटनाग्रस्त	-11.944
▁शहबाज	-11.944
▁मयूर	-11.944
▁मताधिकार	-11.944
▁कमांडेंट	-11.944
▁सैमसन	-11.944
▁रघुवीर	-11.944
▁सूर्योदय	-11.944
▁नौबत	-11.9441
▁कासगंज	-11.9441
▁शिवरात्रि	-11.9441
▁प्रेग्नेंट	-11.9442
▁उन्नति	-11.9442
▁पत्रकारिता	-11.9442
▁एसिड	-11.9443
▁रश्मिका	-11.9443
▁चिपका	-11.9444
▁मीनू	-11.9444
▁1992	-11.9444
▁डायरी	-11.9445
▁अतीक	-11.9445
▁कराची	-11.9445
▁1977	-11.9445
▁अभिलेख	-11.9445
▁इसरो	-11.9445
▁चौबीस	-11.9446
▁यंग	-11.9446
कां	-11.9449
▁निदान	-11.945
ओपी	-11.9451
▁बैड	-11.9451
▁रिवर	-11.9452
▁धर्मवीर	-11.9452
▁मांगीलाल	-11.9453
िजन	-11.9454
▁उड़द	-11.9454
्‍ड	-11.9455
▁निकलेगी	-11.9457
▁तूल	-11.9459
▁सौम्या	-11.9459
▁मंडली	-11.9459
▁क्रमश	-11.9459
▁खुशहाली	-11.946
▁पीएससी	-11.9462
▁कमिटी	-11.9463
▁(19)	-11.9463
▁जेके	-11.9467
क्कड़	-11.9467
▁बिट्	-11.9468
▁डेल	-11.9468
टर्न	-11.9469
▁परवीन	-11.9469
▁अघाड	-11.947
न्नू	-11.9472
▁हनुमानजी	-11.9472
लास्ट	-11.948
▁स्टेप	-11.9481
▁दिखती	-11.9482
▁मॉडलिंग	-11.9485
▁रनवे	-11.9486
ब्रा	-11.9486
▁m	-11.9487
स्‍क	-11.9488
नियम	-11.9494
▁मीठा	-11.9499
कोटा	-11.95
▁सिखों	-11.9506
▁हाफ	-11.9508
िस्तान	-11.951
▁महेश्वर	-11.9512
▁मूड	-11.9513
ढी	-11.952
▁बढ	-11.952
▁स्कोरर	-11.9523
▁राइट	-11.9523
▁खरी	-11.9526
▁Me	-11.9532
▁प्लेस	-11.9533
▁टिकी	-11.9537
▁बोलकर	-11.9543
kar	-11.9543
▁झूल	-11.9544
▁इमारतों	-11.9544
▁एंट	-11.9551
सोन	-11.9552
ate	-11.9556
▁भरवा	-11.9557
ायुक्त	-11.9561
IT	-11.9563
▁जाये	-11.9564
▁चौका	-11.9575
▁मनाए	-11.9576
PA	-11.9577
▁सेल्स	-11.9578
▁मंे	-11.9581
▁190	-11.9589
▁शेयरिंग	-11.959
▁सर्वर	-11.959
dha	-11.9593
▁शीत	-11.9601
▁एकतरफ	-11.9604
इम	-11.9607
▁जैव	-11.9609
▁डीए	-11.9612
मंद	-11.9612
▁मड़	-11.9616
.60	-11.962
मूर्ति	-11.9622
प्रदेश	-11.9622
समृद्धि	-11.9623
AAP	-11.9623
छोटी	-11.9623
▁ईको	-11.9624
▁मंडिय	-11.9625
दुनिया	-11.9625
फाइल	-11.9627
▁कारक	-11.9627
▁हिमंत	-11.9628
▁बल्ले	-11.963
्यूट	-11.9636
▁धारणा	-11.964
▁कुश	-11.9642
धिकृत	-11.9645
स्का	-11.9645
▁रेणु	-11.9647
www	-11.9648
▁Author	-11.9648
▁Collection	-11.9648
▁अविश्वास	-11.9648
▁इंटीरियर	-11.9648
▁उत्कर्ष	-11.9648
▁उपरोक्त	-11.9648
▁एक्सईएन	-11.9648
▁कवर्धा	-11.9648
▁जतिंदर	-11.9648
▁जांगिड़	-11.9648
▁तुम्हारा	-11.9648
▁निषेध	-11.9648
▁न्यायपालिका	-11.9648
▁पर्दाफाश	-11.9648
▁प्रेसवार्ता	-11.9648
▁बीएचयू	-11.9648
▁महाशिवरात्रि	-11.9648
▁मुस्तैद	-11.9648
▁रिफाइनरी	-11.9648
▁रेगुलर	-11.9648
▁लोजपा	-11.9648
▁वियतनाम	-11.9648
▁हानिकारक	-11.9648
▁हुंडई	-11.9648
▁बत्ती	-11.9648
▁अनुयाय	-11.9648
▁हमीरपुर	-11.9648
▁स्नातकोत्तर	-11.9648
▁ड्रीम	-11.9648
▁OBC	-11.9648
▁जागरुक	-11.9648
▁तरक्की	-11.9648
▁बीपीएससी	-11.9648
▁जालौन	-11.9648
▁किस्से	-11.9648
▁पायदान	-11.9648
▁शालिनी	-11.9648
▁प्रयोगशाला	-11.9648
▁हर्षवर्धन	-11.9649
▁एजाज	-11.9649
▁कटाक्ष	-11.9649
▁RCB	-11.9649
▁लाड़ल	-11.9649
▁सिंगरौली	-11.9649
▁प्रयुक्त	-11.9649
▁ब्रिक्स	-11.965
▁चन्द	-11.965
▁अनीस	-11.965
▁निजाम	-11.965
▁गंदी	-11.965
▁चन्नी	-11.965
▁गन्ना	-11.9651
▁ग्रिड	-11.9651
▁डीवाई	-11.9651
▁साउंड	-11.9651
▁दिव्यांगजन	-11.9651
▁नवीनीकरण	-11.9651
▁काबिज	-11.9651
▁मोहब्बत	-11.9651
▁बैंस	-11.9652
▁कगार	-11.9652
▁बीटेक	-11.9652
▁उठाएंगे	-11.9652
▁चाहेंगे	-11.9652
▁पैपर	-11.9653
▁अवाम	-11.9654
▁भलाई	-11.9655
▁शीश	-11.9655
▁विक्रेताओं	-11.9656
▁राजकोट	-11.9656
▁एक्सेस	-11.9656
▁कद्द	-11.9657
▁खिलाया	-11.9657
▁तानाशाही	-11.9661
▁चक्का	-11.9662
▁सकेंगी	-11.9664
▁बागेश्वर	-11.9667
▁अपमानित	-11.9667
रियो	-11.9668
▁चलेंगी	-11.9668
▁खेलेंगे	-11.9673
▁5-6	-11.9673
▁सुध	-11.9673
मनप्रीत	-11.9674
▁तीर	-11.9674
▁भड़की	-11.9675
विजय	-11.9677
डीपी	-11.9678
▁यार्ड	-11.9679
▁बलराज	-11.9679
मति	-11.968
▁आदान	-11.9686
▁हटाना	-11.9691
▁तिरु	-11.9691
▁टनल	-11.9692
▁लॉग	-11.9694
▁अमोल	-11.9701
टेड	-11.9705
ऑल	-11.9705
▁ऑनर	-11.9706
▁ट्यूब	-11.9708
▁सोचना	-11.9709
▁शाहपुरा	-11.9709
इट	-11.9711
▁देंगी	-11.9714
ल्ले	-11.9719
कर्म	-11.9719
पेंड	-11.9719
▁ट्रिपल	-11.972
▁पिन	-11.9727
▁कर्क	-11.9733
▁उतरवा	-11.9738
▁क्री	-11.9738
▁शाल	-11.9738
▁10%	-11.9753
▁रोत	-11.9753
▁107	-11.9757
▁रहो	-11.9758
▁मुर्	-11.9759
फोर्ड	-11.9759
▁ढो	-11.9762
▁मुर्ग	-11.9762
▁भाल	-11.9766
▁संपत	-11.9767
▁ढल	-11.9769
▁डोम	-11.9771
▁कल्प	-11.9777
▁एमआई	-11.9785
ॉन्ट	-11.9785
▁आर्च	-11.9789
▁अख	-11.9794
▁देवरी	-11.9796
पीसीबी	-11.9807
▁कुशा	-11.9811
सामान्य	-11.9811
▁उगा	-11.9813
पाड़ा	-11.9814
एफटी	-11.9815
िणी	-11.9818
-35	-11.9821
▁बेग	-11.9821
शीट	-11.9824
पत्ति	-11.9826
▁हारी	-11.983
▁जापानी	-11.9831
▁टंक	-11.9832
रोग	-11.9833
▁जमात	-11.9834
▁Su	-11.9834
▁मुश	-11.9835
विमर्श	-11.9835
साहेब	-11.9836
हरियाणा	-11.9836
दुर्ग	-11.9836
कुछ	-11.9836
बीजेपी	-11.9837
पहले	-11.9837
▁117	-11.984
▁काउंट	-11.9846
हरि	-11.985
▁थैल	-11.9852
.....	-11.9853
▁रोकी	-11.9854
▁स्वर्ग	-11.9859
▁सुहाग	-11.986
▁अधिशासी	-11.9861
▁इंडियंस	-11.9861
▁एमएसएमई	-11.9861
▁कंटेस्टेंट	-11.9861
▁खजुराहो	-11.9861
▁चिन्मय	-11.9861
▁जनार्दन	-11.9861
▁टॉवर	-11.9861
▁डल्लेवाल	-11.9861
▁त्रिवेणी	-11.9861
▁दुग्ध	-11.9861
▁पंचामृत	-11.9861
▁पतंजलि	-11.9861
▁बाजपेयी	-11.9861
▁योद्धा	-11.9861
▁वर्ल्डवाइड	-11.9861
▁श्योपुर	-11.9861
▁संरेख	-11.9861
▁हरभजन	-11.9861
▁यूएई	-11.9861
▁रशीद	-11.9861
▁ट्रिब्यून	-11.9861
▁प्रोटेक्शन	-11.9861
▁फिंगर	-11.9861
▁डिस्कॉम	-11.9861
▁चिंतन	-11.9861
▁सिंदूर	-11.9861
DGP	-11.9861
▁लीडरशिप	-11.9861
▁एयरटेल	-11.9862
▁दीक्षांत	-11.9862
▁सिक्का	-11.9862
ne	-11.9862
▁SIT	-11.9862
▁बागपत	-11.9863
इसके	-11.9863
▁अपर्ण	-11.9863
▁मूसे	-11.9863
▁पीढ़िय	-11.9863
-2023	-11.9863
▁अंजली	-11.9863
▁राजदूत	-11.9863
▁मैडम	-11.9864
▁मुकुल	-11.9864
▁बीआरएस	-11.9865
▁संकुल	-11.9865
▁एलिवेटेड	-11.9865
▁विलास	-11.9866
▁कोबरा	-11.9866
टेशन	-11.9866
▁लीकेज	-11.9866
▁बुधनी	-11.9866
▁वशिष्ठ	-11.9867
▁फरमान	-11.9867
इस्कॉन	-11.9868
▁सखी	-11.9868
▁देसाई	-11.9868
▁रचनात्मकता	-11.9869
▁ऊंट	-11.9869
▁बलबीर	-11.9869
▁राजिंदर	-11.9869
सेवक	-11.9871
▁वांछित	-11.9871
▁मनदीप	-11.9872
▁मौक	-11.9873
▁सुस्त	-11.9874
▁तकनीकों	-11.9875
▁धुत	-11.9875
▁हिल्स	-11.9876
▁मनजीत	-11.9877
▁गुलाल	-11.9878
▁NH	-11.9879
▁पटाख	-11.9881
▁फैज	-11.9881
▁9.30	-11.9883
▁राहु	-11.9884
pe	-11.9885
थान	-11.9887
▁8.30	-11.9887
▁12:30	-11.9888
▁देवेश	-11.9893
भाऊ	-11.9893
▁सुराज	-11.9896
▁दर्शा	-11.9897
▁गोंड	-11.9898
▁उठाव	-11.9902
जाते	-11.9903
▁10.30	-11.9904
म्बर	-11.9907
▁प्यारे	-11.9907
क्वा	-11.9908
▁106	-11.9914
▁दोहरी	-11.9921
▁बांधा	-11.9924
▁वीव	-11.9925
▁ट्राल	-11.9928
▁निम	-11.9929
तुल	-11.993
सीपी	-11.9932
एनसी	-11.9933
▁खाप	-11.9936
▁लोट	-11.9938
▁वाय	-11.9938
स्थापित	-11.9941
▁राजपुर	-11.9943
▁सभाओं	-11.9946
.09	-11.9949
▁175	-11.995
▁वाक	-11.9952
शहर	-11.9973
▁शास्त्रों	-11.9974
▁बीवी	-11.9984
त्तर	-11.9992
▁पग	-11.9998
▁मोना	-12.0004
▁लत	-12.0004
कार्य	-12.0005
▁जहाजों	-12.0009
▁बेहोशी	-12.001
वेंद्र	-12.0011
mar	-12.0012
▁माताओं	-12.0012
र्ष	-12.0025
▁आइस	-12.0026
si	-12.003
▁गल्ल	-12.003
बहार	-12.0033
दयाल	-12.0035
रुप	-12.0036
.65	-12.0038
हारा	-12.0039
▁ईमानदार	-12.0044
.66	-12.0048
▁खट	-12.0051
भार	-12.0053
पोषण	-12.0053
अजमेर	-12.0053
परिषद	-12.0053
चन्द्र	-12.0053
पूजन	-12.0054
▁गुंज	-12.0055
▁जद	-12.0062
्राफ्ट	-12.0063
▁दशहर	-12.0064
▁विधा	-12.0067
▁पर्दा	-12.0069
रक्षक	-12.0073
▁प्रशस्त	-12.0076
▁संवेदना	-12.0077
▁टिप्पणिय	-12.0077
▁क्रिएट	-12.0078
▁झुग्गी	-12.0078
▁उंगली	-12.0078
▁उपराज्यपाल	-12.0078
▁एक्सपीरियंस	-12.0078
▁कम्युनिकेशन	-12.0078
▁खींवसर	-12.0078
▁गैलेक्सी	-12.0078
▁चॉकलेट	-12.0078
▁झुंड	-12.0078
▁टमाटर	-12.0078
▁दुर्व्यवहार	-12.0078
▁रक्सौल	-12.0078
▁राजस्‍थान	-12.0078
▁विज्ञप्ति	-12.0078
▁वैवाहिक	-12.0078
▁उत्सुक	-12.0078
▁एयरबैग	-12.0078
▁कृत्रिम	-12.0078
▁चैप्टर	-12.0078
▁आश्रित	-12.0078
▁क्रूरता	-12.0078
▁वीडियोग्राफी	-12.0078
▁कमज़ोर	-12.0078
▁जल्‍द	-12.0078
▁कृषक	-12.0078
▁कैरेक्टर	-12.0078
▁आंगनवाड़ी	-12.0078
▁ट्यूबवेल	-12.0078
▁मैथ्यू	-12.0078
▁दिवाकर	-12.0078
▁अनुपात	-12.0079
▁पिंडदान	-12.0079
▁पुस्तकालय	-12.0079
▁गोविल	-12.0079
▁ओटीपी	-12.0079
▁क्रांतिकारी	-12.0079
lme	-12.0079
▁मंझ	-12.0079
▁अधीनस्थ	-12.0079
▁सुहाना	-12.0079
▁टॉर्	-12.0079
▁गुर्ग	-12.008
▁ठेले	-12.008
▁तीस	-12.008
▁नागा	-12.008
▁ख़रीद	-12.008
▁तेरे	-12.008
▁कलक्टर	-12.0081
▁हाइवा	-12.0081
▁एक्साइट	-12.0081
▁ज़ोर	-12.0081
▁दाना	-12.0081
▁विलेन	-12.0081
▁फहराया	-12.0081
▁शनिदेव	-12.0081
▁अमरवाड़ा	-12.0081
ist	-12.0082
▁कठिनाई	-12.0082
▁सीपीआई	-12.0082
▁टोपी	-12.0082
▁जूली	-12.0083
▁उबर	-12.0083
▁बीयर	-12.0083
▁वीवो	-12.0083
▁गायिका	-12.0083
▁बगीचे	-12.0084
▁यशपाल	-12.0084
▁निक्की	-12.0084
▁नाचते	-12.0085
▁लड़ेगी	-12.0086
▁मुक्तसर	-12.0086
▁DM	-12.0086
मरी	-12.0087
▁दोगुनी	-12.009
▁सुरक्षाकर्मी	-12.0091
tion	-12.0092
▁फील्डिंग	-12.0095
▁एक्सप्रेसवे	-12.0096
▁शाक्य	-12.0097
▁खत	-12.0101
▁मूवीज	-12.0104
▁मालती	-12.0104
▁कूल	-12.0104
ांशु	-12.0105
▁एकजुटता	-12.0106
▁पढ़कर	-12.011
ोखर	-12.0111
▁रिस्क	-12.0112
▁नंदा	-12.0112
मुल	-12.0112
▁On	-12.0116
▁Par	-12.0119
▁ठोकर	-12.0122
▁मानो	-12.0127
▁अन्ना	-12.0129
▁w	-12.014
▁श्रेया	-12.0141
▁पड	-12.0143
▁काबिल	-12.0144
▁बद	-12.0145
टोली	-12.0145
▁रिपोर्टिंग	-12.0146
▁डिब्ब	-12.0147
▁पहाड़िया	-12.0147
सिंघ	-12.015
▁मौर्या	-12.0152
▁विवाहित	-12.0153
ord	-12.0156
मोद	-12.0158
वाडा	-12.016
▁अपन	-12.0163
▁148	-12.0167
▁चंदू	-12.0167
▁आईसी	-12.0169
रथ	-12.0175
▁हैट्रिक	-12.0179
▁गुजरत	-12.018
▁मॉड	-12.0182
मं	-12.0186
▁116	-12.0191
▁फाल	-12.0193
CEO	-12.0194
विक	-12.0196
सेना	-12.0197
स्को	-12.0197
भ्य	-12.0206
▁विदा	-12.0207
▁प्रभा	-12.0207
एनआरआई	-12.0208
पूर्वी	-12.0209
स्त्री	-12.021
्ण	-12.0213
शरण	-12.0216
ET	-12.0217
वॉट	-12.0219
▁बीट	-12.0221
▁लगना	-12.0222
▁मानपुर	-12.0222
सीएम	-12.0223
TR	-12.0226
पीसी	-12.0227
▁अफ	-12.023
:40	-12.0244
▁खेमे	-12.0248
▁मैने	-12.0248
▁क्यूआर	-12.0251
ॉस	-12.0255
▁सम्म	-12.0256
▁धरा	-12.0257
मानस	-12.0262
▁भेड़िय	-12.0263
▁जयकार	-12.0264
▁मुस	-12.0265
▁मेजबान	-12.0267
.99	-12.0271
▁स्वराज	-12.0274
विकेटकीपर	-12.0275
बचाव	-12.0275
▁बूंद	-12.0275
प्रतिशत	-12.0275
▁सहन	-12.0277
▁तबाह	-12.0277
▁टाइ	-12.0279
ोदिया	-12.0283
▁जसविंद	-12.0288
अंत	-12.0288
▁श्यामा	-12.0289
पार्क	-12.029
▁नबी	-12.0291
▁यूपीए	-12.0292
न्हा	-12.0293
▁आढ़त	-12.0297
▁Sal	-12.0298
▁सूत्री	-12.03
▁सौंदर्य	-12.03
▁प्रारम्भ	-12.03
▁सामंजस्य	-12.03
▁अनुशंसा	-12.03
▁असंतोष	-12.03
▁उम्रकैद	-12.03
▁एनटीपीसी	-12.03
▁ऑडिशन	-12.03
▁कार्यान्वयन	-12.03
▁कौशांबी	-12.03
▁गुंडागर्दी	-12.03
▁ग्यारह	-12.03
▁टेलीविजन	-12.03
▁डांडिया	-12.03
▁थर्मल	-12.03
▁दीर्घकालिक	-12.03
▁पुरातत्व	-12.03
▁पुस्तिका	-12.03
▁फाल्गुन	-12.03
▁लावारिस	-12.03
▁वर्चस्व	-12.03
▁विदर्भ	-12.03
▁स्वप्न	-12.03
▁हिज्बुल्ला	-12.03
▁अरविन्द	-12.03
▁टिप्स	-12.03
▁रडार	-12.03
▁रैलियों	-12.03
▁सुथार	-12.03
▁स्पीच	-12.03
▁तोहफा	-12.03
एनएसयूआई	-12.03
▁क्‍यों	-12.03
▁सॉल्व	-12.03
▁ब्राउन	-12.03
▁हाइड्र	-12.03
▁ग्रेनेड	-12.0301
▁भूटान	-12.0301
▁रहस्य	-12.0301
▁दयानंद	-12.0301
▁एंटरटेनमेंट	-12.0301
▁बड़ौदा	-12.0301
▁उदासीन	-12.0301
▁बैकग्राउंड	-12.0301
▁कथन	-12.0301
▁फिल्ममेकर	-12.0301
▁अनाउंसमेंट	-12.0301
▁किंतु	-12.0301
▁पठानकोट	-12.0301
▁लिप्त	-12.0301
▁डायलिसि	-12.0301
▁संयंत्र	-12.0301
▁स्टालिन	-12.0301
▁क्वीन	-12.0301
▁शकील	-12.0301
▁नारकोटिक्स	-12.0302
▁नंदिनी	-12.0302
▁पंक्ति	-12.0302
▁मंजीत	-12.0302
▁सेटअप	-12.0302
▁शमशेर	-12.0303
▁महासागर	-12.0303
इंस	-12.0303
▁132	-12.0303
▁झाझा	-12.0303
▁Air	-12.0303
▁संग्रहण	-12.0304
▁असंभव	-12.0304
▁नंदलाल	-12.0305
▁पांव	-12.0305
▁जाधव	-12.0305
▁जसपाल	-12.0305
▁यदु	-12.0305
▁संभालेंगे	-12.0306
▁1962	-12.0307
▁रनोट	-12.0308
▁एडीसी	-12.0309
▁उड़ाया	-12.031
▁घोड़ा	-12.031
▁माहिर	-12.0312
▁कुम्हार	-12.0313
▁जूस	-12.0315
▁पोट	-12.0318
▁पेशेंट	-12.0318
▁पंखा	-12.0318
िंक	-12.0319
▁चूना	-12.0319
▁दिखीं	-12.0321
▁सूद	-12.0322
करीब	-12.0324
च्छा	-12.0324
एनडी	-12.0327
▁अधूरी	-12.033
▁सिकंदरा	-12.0332
▁मर्द	-12.0333
▁परंपराओं	-12.0334
▁वेंडर	-12.0337
▁बोन	-12.0338
▁अतर	-12.0339
वेयर	-12.0342
▁151	-12.0342
▁प्रीतम	-12.0343
▁सड़	-12.0343
वह	-12.0344
ावास	-12.0346
नेंस	-12.0349
▁चर्चाएं	-12.036
बहनों	-12.036
गौर	-12.0361
ant	-12.0361
विंद्र	-12.0363
▁बरत	-12.0364
▁अफजा	-12.0366
▁राउत	-12.0368
▁कांवड़िय	-12.037
▁रामनाथ	-12.0372
▁प्यास	-12.0374
▁रोम	-12.038
▁वेयर	-12.039
▁एफडी	-12.0391
▁दर्शाती	-12.0397
▁कलाम	-12.0397
▁भेल	-12.0398
▁नित्य	-12.0402
▁वारंटी	-12.0404
▁बीएल	-12.0405
▁San	-12.0408
▁पिछड़	-12.0409
िभव	-12.0412
▁प्रभाकर	-12.0415
हद	-12.0417
▁ट्री	-12.0423
▁धुल	-12.0427
▁एजी	-12.0434
▁गॉ	-12.0436
दाह	-12.0436
▁आरओ	-12.0436
हानि	-12.0437
पीआई	-12.0439
▁भेजते	-12.0443
यले	-12.0445
▁विंड	-12.0447
yan	-12.0449
▁कछ	-12.0452
.22	-12.0454
▁क्लासिक	-12.0456
xy	-12.0462
▁खर्चा	-12.0467
रेड	-12.0467
सिर	-12.0469
▁टैलेंट	-12.0471
चुर	-12.0473
रेंस	-12.0473
▁Son	-12.0477
▁सोनम	-12.0479
▁मुकाबल	-12.048
▁पीडीए	-12.0484
▁पावरप्ल	-12.0489
नई	-12.0491
▁प्रत्यक्षदर्श	-12.0494
ऊं	-12.0495
▁रिकवर	-12.0495
▁एम्प	-12.0496
वड़	-12.0496
▁टेंपो	-12.0497
▁नवनिर्म	-12.0498
सचिव	-12.0499
वेडिंग	-12.0504
ट्रॉली	-12.0504
ika	-12.0507
▁उड़ानों	-12.0507
▁मित	-12.051
▁गांज	-12.0511
▁मर्ज	-12.0525
ोक्यो	-12.0527
▁OTT	-12.0528
▁Result	-12.0528
▁इंडोनेशिया	-12.0528
▁ज़िंदगी	-12.0528
▁डायबिटीज	-12.0528
▁नुक्कड़	-12.0528
▁पित्रोदा	-12.0528
▁पीठाधीश	-12.0528
▁प्रदूषित	-12.0528
▁बर्ताव	-12.0528
▁बायोमेट्रिक	-12.0528
▁मनमोहक	-12.0528
▁मुख्‍यमंत्री	-12.0528
▁मुलायम	-12.0528
▁रालोद	-12.0528
▁वर्ल्‍ड	-12.0528
▁सांत्वना	-12.0528
▁हापुड़	-12.0528
▁the	-12.0528
▁अनुमोदन	-12.0528
▁अशरफ	-12.0528
▁कुशीनगर	-12.0528
▁ढांचा	-12.0528
▁बंदोबस्त	-12.0528
▁बांधवगढ़	-12.0528
▁मद्रास	-12.0528
▁मशाल	-12.0528
▁सिकरवार	-12.0528
▁सिलावट	-12.0528
▁सीमांकन	-12.0528
▁हवेली	-12.0528
▁डेंटल	-12.0528
▁फेरबदल	-12.0528
://	-12.0528
▁पुष्पांजलि	-12.0528
▁टेलीकॉम	-12.0528
▁वॉच	-12.0528
▁हजरत	-12.0528
स्कर	-12.0528
▁रसायन	-12.0528
▁माइंड	-12.0528
▁संयोजन	-12.0528
▁सीक्रेट	-12.0529
▁स्विच	-12.0529
▁बदतर	-12.0529
▁जूही	-12.0529
▁जेंडर	-12.053
▁सौतेल	-12.053
ेरियन	-12.053
▁चंद्रकांत	-12.0531
▁चीत	-12.0531
▁एलडीए	-12.0531
▁पेंच	-12.0531
▁प्रचल	-12.0531
▁रामगोपाल	-12.0532
▁सोहेल	-12.0532
▁होडल	-12.0532
▁मृत्युंजय	-12.0533
▁श्रीफल	-12.0534
▁Petrol	-12.0536
▁ठेस	-12.0537
▁कैपिटल्स	-12.0538
▁मादा	-12.0539
▁ऐड	-12.0539
▁मिस्टर	-12.0541
▁डेथ	-12.0542
▁बवानी	-12.0542
▁राजावत	-12.0543
▁स्वार्थ	-12.0543
्फी	-12.0546
▁मारवाड़ी	-12.0547
▁राजवीर	-12.0547
देना	-12.0548
▁उच्चतर	-12.0551
▁ज़िम्मेदारी	-12.0551
▁प्रतियोगिताएं	-12.0554
▁बैठते	-12.0555
▁फेंके	-12.0556
द्दा	-12.0556
UP	-12.0557
▁सीलिंग	-12.0558
सुख	-12.0559
आं	-12.0561
▁पारे	-12.0563
▁अनिश्चितकाली	-12.0566
▁दिलाना	-12.0566
▁प्रतिरोध	-12.0566
वटी	-12.0567
▁रचने	-12.0571
▁एमएलए	-12.0572
▁करोड़पति	-12.0573
▁ट्रैकिंग	-12.0573
डोल	-12.0574
▁वारदातें	-12.0575
▁10:30	-12.0575
▁प्राधिकार	-12.0576
नुमा	-12.0581
▁दवाइय	-12.0581
▁खरीफ	-12.0582
▁Mi	-12.0589
सभी	-12.0591
इया	-12.0596
डान	-12.0601
▁बनें	-12.0604
▁पहनी	-12.0609
गिर्द	-12.0611
धो	-12.0617
:10	-12.0618
▁चिं	-12.0629
क्की	-12.063
▁लोहार	-12.063
ru	-12.0632
▁एचपी	-12.0635
▁दामन	-12.0636
▁3.0	-12.0638
▁गिरते	-12.0638
.49	-12.064
▁SA	-12.0646
▁पहुंचेगा	-12.0652
▁कट्	-12.0654
▁विक्ट	-12.0654
ख्‍या	-12.0664
एफसी	-12.0665
▁शिक	-12.0666
ट्टे	-12.0668
▁सुखद	-12.0672
▁क्यू	-12.0674
▁कृप	-12.0676
ok	-12.0678
▁जानकर	-12.0679
▁अंग्रेज	-12.0685
▁मिस्र	-12.0686
ाहट	-12.0701
▁(2	-12.0702
▁पारण	-12.0708
▁सक	-12.0709
सके	-12.071
एनआई	-12.0721
▁210	-12.0725
ैब	-12.0734
▁छिन	-12.0734
पुष्पा	-12.0735
सम्मान	-12.0735
शीर्ष	-12.0735
▁वृद्धा	-12.0736
फार्म	-12.0736
किसान	-12.0737
राहुल	-12.0737
अभी	-12.0738
▁कलेक्ट	-12.0738
▁पखवाड़	-12.0739
▁समझें	-12.0741
▁आराध्य	-12.0741
▁360	-12.0745
3.8	-12.0746
▁कांटा	-12.0746
▁जीरा	-12.0748
टॉप	-12.0749
क्के	-12.0749
ard	-12.075
▁साख	-12.0751
▁3-3	-12.0752
▁गड्ढ	-12.0754
शाला	-12.0754
▁दीपा	-12.0754
▁वें	-12.0755
mer	-12.0758
▁एसडी	-12.0759
▁New	-12.0759
▁सर्कुल	-12.0759
&	-12.076
▁अल्टीमेटम	-12.076
▁इकोनॉमिक	-12.076
▁एकेडमिक	-12.076
▁ऑटोमैटिक	-12.076
▁कॉन्ट्रैक्ट	-12.076
▁गम्भीर	-12.076
▁टेक्नीशियन	-12.076
▁थरूर	-12.076
▁दारोगा	-12.076
▁पचमढ़ी	-12.076
▁पृष्ठभूमि	-12.076
▁बल्‍लेबाज	-12.076
▁मुस्तफा	-12.076
▁मॉड्यूल	-12.076
▁रिस्पॉन्स	-12.076
▁संगरूर	-12.076
▁सब्जेक्ट	-12.076
▁स्मिथ	-12.076
▁हिरदाराम	-12.076
▁Puja	-12.076
▁अनिरुद्ध	-12.076
▁अहीर	-12.076
▁अंदरूनी	-12.076
▁मीनाक्षी	-12.076
▁रिसॉर्ट	-12.076
▁सज्जा	-12.076
▁कंपाउंड	-12.076
▁गोरखनाथ	-12.0761
▁भर्तिय	-12.0761
▁ह्यूमन	-12.0761
▁उदयभान	-12.0761
▁Date	-12.0761
▁(3)	-12.0761
▁मुल्क	-12.0761
▁सुंदरकांड	-12.0761
▁नवजोत	-12.0761
▁हुनर	-12.0761
▁लकड़ा	-12.0761
▁एग्जीक्यूट	-12.0762
▁फादर	-12.0762
▁निगाहें	-12.0762
▁गुरूवार	-12.0762
▁सूबेदार	-12.0762
▁अवमान	-12.0762
▁गजेन्द्र	-12.0762
▁परमेश्वर	-12.0762
▁बीएमसी	-12.0763
▁स्काई	-12.0763
▁क्रिस	-12.0763
आलमगीर	-12.0763
▁चेकअप	-12.0764
▁राऊ	-12.0764
▁कूटनीतिक	-12.0764
▁वेतनमान	-12.0765
▁एमआईसी	-12.0765
▁यूरिया	-12.0765
▁सावंत	-12.0765
▁पर्थ	-12.0765
▁जनजीवन	-12.0765
▁आयरन	-12.0765
▁बांके	-12.0766
▁आयशा	-12.0766
वाण	-12.0768
▁द्वारका	-12.0768
▁कराटे	-12.0768
▁अनियमितताओं	-12.0769
▁वाघ	-12.0769
▁कल्लू	-12.077
▁क्रिस्ट	-12.077
▁वक्ताओं	-12.0771
▁अन्त	-12.0772
FC	-12.0774
▁सिलेक्ट	-12.0774
▁गुरुदेव	-12.0776
▁राष्ट्रवादी	-12.0779
▁लोडिंग	-12.0781
▁इंदर	-12.0781
▁रॉयल्स	-12.0782
▁संस्थाएं	-12.0782
▁क्षेत्रफल	-12.0783
▁सेलेक्ट	-12.0785
▁गुजरी	-12.0786
▁आर्ट्स	-12.0787
▁कैम	-12.0788
▁झपट	-12.079
▁युगल	-12.0796
▁आबू	-12.0797
▁सरिया	-12.0798
▁पत्रिका	-12.0802
▁करेंसी	-12.0803
ैंक	-12.0805
▁लेंगी	-12.0807
INDIA	-12.0808
▁लवली	-12.0808
▁आरआर	-12.0808
▁गेंदबाज़	-12.0809
▁सुनाए	-12.0812
पकड़	-12.0818
▁फॉ	-12.0819
▁दिव्यांश	-12.0822
ive	-12.0827
▁Ex	-12.0831
हवीं	-12.0836
▁114	-12.0837
4.2	-12.0837
▁कुक	-12.0839
रिटी	-12.0839
▁रोह	-12.0845
▁करीम	-12.0846
▁बछड़	-12.0851
्वी	-12.0857
▁तूफानी	-12.0858
▁गढ़वा	-12.0859
▁केमिस्ट्री	-12.086
▁चार्ट	-12.0861
▁बेरी	-12.0864
▁पाठ्यक्रमों	-12.0868
्टा	-12.0869
मीटर	-12.0871
du	-12.0871
▁पॉली	-12.0871
घरा	-12.0873
्मिता	-12.0876
ॉर्ट	-12.0887
▁ज्ञानी	-12.0889
▁कागजी	-12.0897
▁123	-12.0901
▁लगाये	-12.0901
मीन	-12.0902
तीश	-12.0906
▁आईएमए	-12.0907
आरएफ	-12.0913
ैप	-12.0914
▁पीएचई	-12.0924
श्य	-12.0927
▁जुल	-12.0937
▁बंधे	-12.0937
▁पते	-12.0938
िटेशन	-12.0943
.85	-12.0943
▁विराज	-12.0947
▁550	-12.095
▁उतारे	-12.0958
ुल्ला	-12.0959
▁भट्टी	-12.0963
FI	-12.0967
▁फला	-12.0968
AT	-12.0969
सोल	-12.0969
▁दस्ता	-12.097
▁छिड़	-12.0973
रविवार	-12.0973
हाउस	-12.0975
▁भुगत	-12.0976
बैंक	-12.0976
▁गुरुद्वार	-12.0978
▁अनुच	-12.0979
किनार	-12.0982
▁Ro	-12.0985
सीएस	-12.0986
क्रमशः	-12.0991
▁भयं	-12.0994
▁घुम	-12.0995
▁Chunav	-12.0998
▁Kumar	-12.0998
▁अध्याय	-12.0998
▁एनालिसिस	-12.0998
▁कम्प्यूटर	-12.0998
▁कार्यप्रणाली	-12.0998
▁कुंदरकी	-12.0998
▁कुरूक्षेत्र	-12.0998
▁पुरूष	-12.0998
▁फ़ायदा	-12.0998
▁मानदंड	-12.0998
▁वीरांगना	-12.0998
▁व्लादिम	-12.0998
▁सहूलियत	-12.0998
▁साबरमती	-12.0998
▁स्क्वायड	-12.0998
▁स्विमिंग	-12.0998
▁आश्रय	-12.0998
▁दाऊद	-12.0998
▁फोटोग्राफी	-12.0998
▁रियासत	-12.0998
▁ऐंठ	-12.0998
▁उड़ीसा	-12.0998
▁चस्पा	-12.0998
▁सुन्दर	-12.0998
▁नेगेटिव	-12.0998
▁उखड़	-12.0998
▁निर्जला	-12.0998
▁गर्ल	-12.0998
▁गर्भपात	-12.0998
▁चिपसेट	-12.0998
▁बीसलपुर	-12.0998
▁परिश्रम	-12.0999
▁गौवंश	-12.0999
▁अटेंडेंस	-12.0999
▁फ्रिज	-12.0999
sion	-12.0999
jay	-12.0999
▁जासूसी	-12.0999
▁द्वि	-12.0999
▁निराधार	-12.0999
▁जैकेट	-12.0999
▁रैकेट	-12.0999
▁लक्की	-12.1
▁निवाड़ी	-12.1
▁सूजन	-12.1
▁देवस्थान	-12.1001
▁लुटा	-12.1001
▁ताऊ	-12.1002
▁सजग	-12.1004
▁रूबी	-12.1004
▁स्पेन	-12.1004
▁डीसीएम	-12.1004
▁सिंघार	-12.1005
▁कट्टर	-12.1006
▁अफ्रीकी	-12.1006
▁1947	-12.1006
▁कलाकृति	-12.1006
▁ट्रैप	-12.1008
▁कास्टिंग	-12.1009
▁ट्रफ	-12.1009
हनी	-12.101
▁इतिहासकार	-12.1011
▁नारद	-12.1011
▁कुर्बानी	-12.1013
▁कब्र	-12.1017
▁8-10	-12.1018
▁बोरिंग	-12.1021
▁230	-12.1022
साइड	-12.1024
▁नियत	-12.1027
▁संजीवनी	-12.1027
रिज	-12.1031
▁सेटिंग	-12.1032
एमएल	-12.1033
▁आशु	-12.1035
▁मेघा	-12.1035
▁पन्न	-12.1035
▁जोड़ना	-12.1036
देह	-12.1036
▁पत्ते	-12.1037
JJP	-12.1038
▁किसका	-12.1038
▁परेशानियां	-12.104
लेक्शन	-12.1041
ौती	-12.1044
▁दोनो	-12.1046
▁Man	-12.1046
▁फैक्टरी	-12.1048
▁खण्ड	-12.106
डीएसटी	-12.1063
▁फोर्ट	-12.1064
▁रोमांच	-12.1065
6.8	-12.1066
▁नरसिंहपुर	-12.1072
ियाना	-12.1073
धिकारी	-12.1073
▁ग्रा	-12.1077
ाइटिस	-12.1081
ोग्राफी	-12.1083
शिला	-12.1086
िको	-12.1088
▁माई	-12.1089
ain	-12.109
▁रिट	-12.109
▁पब	-12.1093
िन्द	-12.1095
▁पलटी	-12.1096
▁श्रीमत	-12.1099
▁लूटे	-12.1099
िंद्र	-12.1101
▁मुकदम	-12.1104
▁नैना	-12.1108
▁आंत	-12.1108
9%	-12.111
me	-12.1112
▁जगदीशपुर	-12.1115
शुदा	-12.1117
ठाक	-12.1122
▁पिंड	-12.1122
▁फिना	-12.1125
▁अंजन	-12.1125
▁कश्मीरी	-12.1127
▁माइनर	-12.1128
▁खं	-12.113
▁विष	-12.1131
▁₹1	-12.1134
यंत्र	-12.1134
▁रामपाल	-12.1135
ini	-12.1136
्रु	-12.1137
▁मीर	-12.1145
विंद	-12.1145
.06	-12.1146
▁खींचा	-12.1146
▁MI	-12.115
ड्डा	-12.1153
लिप	-12.1156
इंड	-12.116
एफआई	-12.1163
▁3500	-12.1165
ादि	-12.117
▁145	-12.1177
ind	-12.1178
▁II	-12.1179
सिस	-12.118
▁वाग	-12.1182
▁मंद	-12.1191
ent	-12.1193
▁एजेंटों	-12.1196
▁कोटक	-12.1204
शांति	-12.1207
no	-12.1209
▁1600	-12.1209
▁पाबंद	-12.1214
तंत्र	-12.1215
▁विप्र	-12.1217
▁कानों	-12.1217
प्रताप	-12.1217
पंजाब	-12.1217
युवती	-12.1218
टाउन	-12.1218
▁कटर	-12.1219
▁अड़	-12.1221
बारिश	-12.1223
2025	-12.1224
▁वेंकटेश	-12.1225
▁लॉस	-12.1226
पूरी	-12.1233
▁बढ़ना	-12.1234
▁कतरा	-12.1234
mo	-12.1234
ge	-12.1235
.90	-12.1236
mp	-12.1236
▁किराये	-12.1237
▁दुर्	-12.1241
▁मुस्कुरा	-12.1242
▁CJI	-12.1242
▁Google	-12.1242
▁अंदेशा	-12.1242
▁अवहेलना	-12.1242
▁एक्सरसाइज	-12.1242
▁क्वालिफाई	-12.1242
▁चौमूं	-12.1242
▁जलजमाव	-12.1242
▁डिस्टरबेंस	-12.1242
▁ताल्लुक	-12.1242
▁तिब्बत	-12.1242
▁नामांतरण	-12.1242
▁निंदनीय	-12.1242
▁निविदा	-12.1242
▁पिकनिक	-12.1242
▁प्रलोभन	-12.1242
▁बंजारा	-12.1242
▁बाहुबली	-12.1242
▁मटेरियल	-12.1242
▁महराजगंज	-12.1242
▁मुनव्वर	-12.1242
▁म्यूचुअल	-12.1242
▁रंधावा	-12.1242
▁वानखेड़े	-12.1242
▁वृक्षारोपण	-12.1242
▁श्रेणियों	-12.1242
▁सीक्वल	-12.1242
▁स्कार्पियो	-12.1242
▁हफ़्त	-12.1242
▁माझी	-12.1242
▁संपदा	-12.1242
▁हरजिंदर	-12.1242
▁राधे	-12.1242
▁कट्टरपंथ	-12.1242
▁एचडीएफसी	-12.1242
▁मन्नत	-12.1242
▁इंटर्नशिप	-12.1242
▁वॉश	-12.1242
▁मार्कशीट	-12.1242
▁ज्योतिर्लिंग	-12.1242
▁प्लेऑफ	-12.1242
रुद्ध	-12.1242
▁दोहरे	-12.1243
▁स्लिप	-12.1243
▁दंडाधिकारी	-12.1243
▁विशाख	-12.1243
▁Gala	-12.1243
▁राजगीर	-12.1243
▁बांसुरी	-12.1243
▁शशिकांत	-12.1243
▁स्टंप	-12.1243
▁ओवरफ्ल	-12.1243
▁स्प्रे	-12.1244
एनजीटी	-12.1244
▁पीएमसीएच	-12.1244
▁ट्राई	-12.1244
ब्ध	-12.1244
▁नियमावली	-12.1244
▁गुणवत्तापूर्ण	-12.1245
▁दूं	-12.1246
▁बालकृष्ण	-12.1246
▁फिक्स	-12.1246
▁लल्लू	-12.1247
▁रितिक	-12.1247
▁अस्थिरता	-12.1248
▁अभ्य	-12.1248
▁1952	-12.1249
▁बौद्धिक	-12.1249
ine	-12.125
▁समेट	-12.1251
▁मिटाने	-12.1253
▁स्मरण	-12.1255
▁चढ़ाया	-12.1255
▁मेनका	-12.1257
छुआ	-12.1257
▁भरती	-12.1259
सपुर	-12.1259
▁अलका	-12.1261
.33	-12.1262
▁शुमार	-12.1262
.36	-12.1262
▁प्रोडक्ट्स	-12.1263
ट्ट	-12.1264
▁आराध्या	-12.1264
▁आख़िरी	-12.1267
▁समझाते	-12.1267
▁चढ़ाई	-12.1268
डीआई	-12.1269
▁उड़ानें	-12.127
▁पीवी	-12.1271
▁भांग	-12.1275
▁शू	-12.1277
6.5	-12.1281
दाताओं	-12.1282
ana	-12.1283
भाष	-12.1283
▁कैंटर	-12.1284
वंशी	-12.1287
▁निकलती	-12.1289
जै	-12.1289
▁देवकी	-12.129
▁2.30	-12.1301
▁गरम	-12.1301
▁खेड़ी	-12.1302
▁बनाएगा	-12.1305
▁गैलर	-12.1305
▁चीता	-12.1307
निश	-12.1308
पश्चिमी	-12.1312
▁हिर	-12.1316
▁नहा	-12.1318
MA	-12.1319
▁रेलिंग	-12.1325
▁टिम	-12.1327
विराजित	-12.1328
▁अनाथ	-12.1328
▁कुचला	-12.1329
▁अटेंड	-12.1329
▁तिरंग	-12.1331
▁जयकारे	-12.1335
▁धीर	-12.1337
▁फैजा	-12.134
संध	-12.1342
▁दश	-12.1343
सिन	-12.1346
पता	-12.1346
न्तु	-12.1348
▁To	-12.1351
बदल	-12.1352
▁कमजोरी	-12.1353
▁बुलवा	-12.1355
▁घुल	-12.1369
्चर	-12.1372
▁बिजी	-12.1373
▁सीड	-12.1382
क्‍स	-12.139
▁कॉक	-12.1391
▁बढ़िया	-12.1403
▁मान्य	-12.1404
विद्	-12.1405
चम	-12.1405
ेंडर	-12.1408
▁रॉ	-12.1412
▁स्ट्रे	-12.1413
बॉ	-12.1417
गिर	-12.1417
यं	-12.1421
▁नरसिंह	-12.1421
▁बंब	-12.1423
▁कफ	-12.1432
▁कुर्	-12.1444
तिक	-12.1447
लोग	-12.145
7.5	-12.1452
▁प्रभ	-12.1452
▁134	-12.1454
▁हेल	-12.1455
▁भगवत	-12.1455
▁लगाव	-12.1459
CL	-12.1461
्रेड	-12.1465
राजनीतिक	-12.1467
▁दफ्तरों	-12.1468
▁डीबी	-12.147
र्सेज	-12.1472
▁122	-12.1476
▁दिग्गजों	-12.1478
▁स्थितियों	-12.1481
▁कांके	-12.1487
▁195	-12.1491
▁BSF	-12.1492
▁Gorakhpur	-12.1492
▁Panchang	-12.1492
▁अभिवादन	-12.1492
▁उत्खनन	-12.1492
▁एनटीआर	-12.1492
▁चिंगारी	-12.1492
▁झाबुआ	-12.1492
▁ट्रांजेक्शन	-12.1492
▁तिजोरी	-12.1492
▁प्रह्लाद	-12.1492
▁मलयालम	-12.1492
▁मेलबर्न	-12.1492
▁म्यूजियम	-12.1492
▁रेगिस्तान	-12.1492
▁वैधानिक	-12.1492
▁सम्पर्क	-12.1492
▁सरबजीत	-12.1492
▁सीसामऊ	-12.1492
▁सुजुकी	-12.1492
▁Gandhi	-12.1492
▁आफताब	-12.1492
▁फीमेल	-12.1492
▁मार्टिन	-12.1492
▁मिनिस्टर	-12.1492
▁सप्लायर	-12.1492
▁दामोदर	-12.1492
▁फेफड़	-12.1492
▁हथौड़	-12.1492
▁मिल्कीपुर	-12.1492
▁चक्काजाम	-12.1492
▁दरमियान	-12.1492
▁धंधा	-12.1492
▁ग्रै	-12.1492
▁नाश्ता	-12.1493
▁रुद्राक्ष	-12.1493
▁टपक	-12.1493
▁अंचलाधिकारी	-12.1493
▁संप्रदाय	-12.1493
▁गौरेला	-12.1493
▁प्रणाम	-12.1493
▁निकिता	-12.1493
▁उपनिरीक्षक	-12.1493
▁गोड्डा	-12.1493
▁मनोबल	-12.1493
▁IIT	-12.1493
▁ढाबे	-12.1493
▁शक्तिपीठ	-12.1493
▁संगीतमय	-12.1493
▁ध्रुवीकरण	-12.1493
▁ननद	-12.1493
▁मसाले	-12.1494
▁मरकाम	-12.1494
▁दांगी	-12.1494
▁राइडर्स	-12.1494
▁बिकवाली	-12.1494
▁वेंटिलेटर	-12.1494
▁ऋतुराज	-12.1495
▁पोर्श	-12.1495
▁दर्शाया	-12.1495
▁हुये	-12.1495
▁कैसर	-12.1496
सात	-12.1496
▁1993	-12.1496
▁अंडरपास	-12.1496
▁जमालपुर	-12.1496
▁मीसा	-12.1496
▁मोतीलाल	-12.1497
▁संतुष्टि	-12.1497
▁बस्तियों	-12.1497
▁व्याख्याता	-12.1497
▁कौशल्या	-12.1498
▁दाएं	-12.1499
▁गिरधारी	-12.15
▁मौसी	-12.15
▁टूल	-12.1501
▁गंगवार	-12.1501
▁असेंबली	-12.1501
▁पढ़ती	-12.1502
▁पूर्ववर्ती	-12.1502
▁पिलाई	-12.1503
▁लपेट	-12.1506
▁बर्न	-12.1507
▁दिखेगा	-12.1509
▁सच्चा	-12.151
▁सोनाली	-12.1511
▁चौड़ी	-12.1511
▁एमजीएम	-12.1512
▁वास्तविकता	-12.1515
▁हार्ड	-12.1516
▁भट्टाचार्य	-12.1518
▁कच	-12.1521
▁टाई	-12.1523
▁वर्किंग	-12.1524
▁12.30	-12.1524
▁धर्मपाल	-12.1525
▁छाई	-12.1525
▁अशोकनगर	-12.1526
▁147	-12.1526
▁(4)	-12.1527
लिम	-12.1527
▁दरें	-12.1529
5.8	-12.1529
[...]
