<unk>	0
<s>	0
</s>	0
।	-3.20144
▁के	-3.42869
▁में	-3.67149
▁की	-3.89257
▁है	-3.98051
,	-3.99524
▁को	-4.14851
▁से	-4.18682
▁ने	-4.32362
▁का	-4.48764
▁और	-4.56038
▁पर	-4.60164
▁कि	-4.90533
▁हैं	-5.03382
▁भी	-5.15639
-	-5.32836
▁कर	-5.33163
ी	-5.33253
ों	-5.34745
▁किया	-5.36166
▁लिए	-5.40957
▁एक	-5.45298
▁गया	-5.46109
▁इस	-5.49031
▁नहीं	-5.54489
▁था	-5.55881
▁हो	-5.67168
ा	-5.69598
▁ही	-5.7097
▁बाद	-5.72486
.	-5.7277
े	-5.86251
▁साथ	-5.8691
▁पुलिस	-5.89062
▁कहा	-5.90239
▁गई	-5.90673
▁करने	-5.93489
▁दिया	-5.99917
▁	-6.02474
▁तो	-6.09148
▁रहे	-6.09702
▁थी	-6.09891
न	-6.10744
▁रहा	-6.12105
▁बताया	-6.12467
▁तक	-6.14808
र	-6.15717
▁हुए	-6.16913
▁जा	-6.18921
▁यह	-6.19034
▁रही	-6.22741
▁थे	-6.2334
ल	-6.2401
▁सिंह	-6.32135
ने	-6.33716
▁दी	-6.34295
क	-6.35388
▁गए	-6.36038
▁उन्होंने	-6.37059
▁व	-6.40583
:	-6.42821
▁लेकर	-6.43714
▁पहले	-6.44392
▁(	-6.46423
▁इसके	-6.46438
म	-6.47497
▁लोगों	-6.49568
)	-6.51605
▁अपने	-6.52054
▁हुई	-6.57133
▁लेकिन	-6.57247
ना	-6.63637
▁होने	-6.65295
▁वह	-6.65962
▁साल	-6.67268
▁वाले	-6.6733
▁दिन	-6.67665
▁दौरान	-6.68454
ता	-6.69679
▁हुआ	-6.71594
▁जो	-6.73216
कर	-6.74047
स	-6.74774
▁अब	-6.75042
▁सरकार	-6.78519
▁करते	-6.80877
▁दो	-6.81167
▁घर	-6.82316
▁आ	-6.82476
▁कुमार	-6.82752
▁न	-6.84164
▁ये	-6.84848
▁इन	-6.87232
▁सभी	-6.87454
▁बार	-6.8847
▁कुछ	-6.8896
▁लिया	-6.90445
▁चुनाव	-6.90862
▁कई	-6.90958
▁काम	-6.96165
▁बात	-6.96271
▁भारत	-6.98084
▁टीम	-6.98683
▁क्षेत्र	-6.99079
▁उनके	-6.99837
▁मामले	-7.00757
▁पास	-7.00826
त	-7.01055
ट	-7.013
▁कोई	-7.03069
▁थाना	-7.03517
▁गांव	-7.04079
▁लोग	-7.04381
ं	-7.044
▁द्वारा	-7.05454
▁कांग्रेस	-7.0599
▁अपनी	-7.0667
▁समय	-7.06706
▁जब	-7.06748
्स	-7.07705
द	-7.07936
▁उन्हें	-7.08252
▁वहीं	-7.08418
▁शुरू	-7.08538
िंग	-7.08551
▁दर्ज	-7.08782
▁यहां	-7.10441
▁दोनों	-7.10479
▁बजे	-7.13399
▁रुपए	-7.14011
प	-7.15437
▁2	-7.15562
▁जांच	-7.1565
▁किसी	-7.18191
ो	-7.18516
ब	-7.18672
▁तरह	-7.18958
▁आज	-7.19273
ज	-7.19387
▁विभाग	-7.19609
▁अ	-7.19643
▁रूप	-7.19778
▁आरोपी	-7.19944
▁'	-7.20315
▁बीच	-7.20318
▁उसके	-7.20399
▁जानकारी	-7.21338
▁घटना	-7.21621
▁नाम	-7.23741
व	-7.23869
▁महिला	-7.24075
▁नगर	-7.24516
▁प्रदेश	-7.24637
ते	-7.24946
▁शामिल	-7.24947
▁जिला	-7.25099
ला	-7.25416
▁10	-7.26024
▁एवं	-7.26718
रा	-7.27169
ियों	-7.27684
▁वे	-7.27932
ई	-7.29159
▁होगा	-7.29815
▁भाजपा	-7.30023
▁जाएगा	-7.30123
▁3	-7.30165
▁5	-7.31453
▁किए	-7.31741
▁"	-7.32152
▁उसे	-7.32269
पुर	-7.32329
▁लाख	-7.33283
▁अन्य	-7.33379
▁खिलाफ	-7.33381
▁जारी	-7.33748
▁जिले	-7.34077
▁देश	-7.34252
▁फिर	-7.3432
▁ले	-7.34351
▁पार्टी	-7.34419
ित	-7.34564
▁जाने	-7.34733
▁हर	-7.34842
▁अस्पताल	-7.35052
▁रात	-7.36026
▁करीब	-7.37864
▁या	-7.38877
▁उनकी	-7.3903
▁कारण	-7.39553
▁ज्यादा	-7.40007
ग	-7.40611
▁वाली	-7.41674
▁पूर्व	-7.41785
▁ओर	-7.41943
▁मौके	-7.42237
▁मंत्री	-7.42411
ड	-7.42964
'	-7.43043
▁डॉ	-7.43515
▁करना	-7.4372
▁कार्रवाई	-7.44023
▁जाता	-7.44024
?	-7.44045
िक	-7.44142
▁मौत	-7.44249
सी	-7.45376
▁राम	-7.45445
▁तीन	-7.45652
▁वो	-7.46198
▁सामने	-7.46881
▁परिवार	-7.4769
▁सुबह	-7.47853
री	-7.48047
▁हम	-7.48663
▁मंदिर	-7.50308
▁1	-7.50312
▁सबसे	-7.50791
▁देने	-7.50917
▁4	-7.51134
▁कम	-7.51631
▁अध्यक्ष	-7.51938
ओं	-7.53414
िया	-7.54039
▁क्या	-7.54349
▁कार्यक्रम	-7.54356
▁निवासी	-7.54365
▁यादव	-7.54903
श	-7.55073
▁हजार	-7.55224
▁स	-7.55251
ए	-7.55271
ह	-7.56498
▁सूचना	-7.56553
▁युवक	-7.56594
ू	-7.56612
▁शहर	-7.56821
▁चल	-7.57875
वा	-7.58236
▁बारिश	-7.58324
▁ऐसे	-7.58455
▁दिए	-7.58912
▁लगा	-7.5896
▁मांग	-7.59369
▁जहां	-7.59737
▁फिल्म	-7.60552
▁आने	-7.60802
▁होगी	-7.6087
▁6	-7.60903
▁पानी	-7.61015
▁करोड़	-7.61298
▁गिरफ्तार	-7.61648
▁जिसमें	-7.61691
▁आया	-7.61876
▁इसमें	-7.6244
▁दे	-7.62574
ें	-7.62977
▁इसी	-7.63334
▁अधिकारी	-7.63363
▁इससे	-7.63829
नी	-7.64468
▁राज्य	-7.6511
▁पहुंचे	-7.65536
ली	-7.66015
▁भारतीय	-7.66083
▁ब	-7.66412
▁अनुसार	-7.66763
▁स्कूल	-7.66804
फ	-7.66951
▁रहने	-7.67034
▁मोदी	-7.67093
▁आए	-7.67378
▁आरोप	-7.67928
▁शर्मा	-7.68244
▁दिल्ली	-7.68295
▁कोर्ट	-7.68494
▁अधिक	-7.68548
ती	-7.68815
▁सकता	-7.69174
ि	-7.69535
▁चाहिए	-7.7015
▁आई	-7.70368
के	-7.70452
▁स्थित	-7.70715
▁मिली	-7.70725
▁बाहर	-7.71137
▁लोकसभा	-7.71191
▁मैं	-7.72165
जी	-7.72596
▁शव	-7.72693
▁वहां	-7.7272
▁शिकायत	-7.72808
▁12	-7.72962
▁मामला	-7.74412
▁पिछले	-7.74856
ण	-7.75153
▁म	-7.75405
▁उसकी	-7.75614
▁पूरी	-7.75741
▁क	-7.76716
▁नेता	-7.78879
▁मिल	-7.79755
▁8	-7.80199
▁आगे	-7.8061
▁उस	-7.80629
▁काफी	-7.80809
▁शाम	-7.81085
▁बंद	-7.81647
▁सहित	-7.81995
▁वर्ष	-7.82065
या	-7.82265
▁बड़ी	-7.82732
▁ली	-7.82798
▁अपना	-7.82886
▁जाएगी	-7.8291
च	-7.83026
▁7	-7.83133
▁जबकि	-7.83666
▁ना	-7.83761
▁मां	-7.8449
▁19	-7.84681
ख	-7.84991
▁बहुत	-7.8515
▁बैठक	-7.85184
का	-7.85343
▁20	-7.85424
▁हालांकि	-7.85464
▁रिपोर्ट	-7.85543
▁कार	-7.8597
▁अभी	-7.86257
▁मुख्यमंत्री	-7.8701
ु	-7.87042
▁जी	-7.87189
ड़	-7.87382
▁मुख्य	-7.87542
▁होता	-7.87894
▁वीडियो	-7.88009
▁तहत	-7.88251
▁विधानसभा	-7.88278
▁विकास	-7.88618
▁11	-7.88779
▁बाइक	-7.88917
▁लग	-7.88935
▁बच्चों	-7.8902
▁चार	-7.89625
मा	-7.89682
▁सड़क	-7.89683
▁हत्या	-7.90108
▁कार्य	-7.90163
▁पिता	-7.90227
▁मिला	-7.90227
▁उसने	-7.90439
▁2024	-7.90466
▁करें	-7.90652
▁सकते	-7.90793
▁बारे	-7.90821
▁15	-7.91133
▁अलावा	-7.91146
▁रोड	-7.91149
▁विधायक	-7.91391
▁उनका	-7.91618
▁प	-7.91967
▁मीडिया	-7.92181
▁राज	-7.92282
▁केंद्र	-7.93832
▁ग	-7.93865
▁पता	-7.94104
▁अलग	-7.94215
▁अगर	-7.94217
▁बना	-7.9473
▁जिसक	-7.94881
▁कंपनी	-7.94981
▁कहना	-7.95105
▁वजह	-7.9577
ंग	-7.95999
▁परीक्षा	-7.96351
▁तब	-7.96363
▁संख्या	-7.96496
पी	-7.96627
▁आरोपियों	-7.96661
▁पत्नी	-7.96958
▁सीट	-7.97102
▁च	-7.97483
▁सुरक्षा	-7.97634
▁मौजूद	-7.97664
▁दूसरे	-7.98003
ीय	-7.98327
्	-7.98999
▁अधिकारियों	-7.99548
▁इसे	-7.99828
▁दिनों	-7.99922
▁समाज	-8.00572
▁शादी	-8.00742
में	-8.00747
▁करता	-8.00748
▁आयोजन	-8.00778
▁करेंगे	-8.01004
▁पूरा	-8.01167
▁जिस	-8.01339
▁घायल	-8.01602
▁9	-8.017
▁जीत	-8.01868
▁होती	-8.01948
▁महीने	-8.02428
▁आप	-8.02431
"	-8.02678
▁भाई	-8.02941
▁जैसे	-8.03099
▁बनाने	-8.03829
▁घंटे	-8.04189
▁तरफ	-8.04642
▁नंबर	-8.04706
▁बस	-8.04956
▁ऐसा	-8.04978
टी	-8.05736
▁हरियाणा	-8.06176
▁बीजेपी	-8.06216
▁रन	-8.06416
▁मुताबिक	-8.0647
▁लगातार	-8.06856
▁सोमवार	-8.07348
▁जिससे	-8.0765
य	-8.07652
▁व्यक्ति	-8.07679
▁पूरे	-8.07752
▁निर्माण	-8.07838
▁चला	-8.08465
▁पहुंच	-8.08466
▁पहुंची	-8.08553
एं	-8.08683
▁नजर	-8.08833
▁ए	-8.09008
▁इसकी	-8.09237
▁थाने	-8.09661
▁पा	-8.10014
▁जगह	-8.10248
▁सकती	-8.1073
बी	-8.1087
▁लगाया	-8.11403
▁निगम	-8.11914
▁लगे	-8.11949
▁मिलने	-8.11989
▁प्रति	-8.12064
▁पहली	-8.12102
▁श्री	-8.12119
▁वाला	-8.12942
सा	-8.13059
▁निर्देश	-8.1321
▁बता	-8.13278
▁तेज	-8.13611
▁गांधी	-8.14063
▁मंगलवार	-8.14066
▁इसका	-8.14187
▁हूं	-8.14201
▁जाए	-8.14565
▁भगवान	-8.14587
▁कराया	-8.14841
▁बिहार	-8.15126
▁योजना	-8.15159
▁प्रशासन	-8.15544
▁आधार	-8.15633
▁डिग्री	-8.16171
▁देते	-8.16204
▁सु	-8.16313
▁प्रधानमंत्री	-8.16532
▁इसलिए	-8.16839
▁मैच	-8.16853
डी	-8.17276
थ	-8.1731
▁सांसद	-8.17856
▁बड़ा	-8.18681
▁आग	-8.18701
▁जल	-8.1879
▁प्रदर्शन	-8.18791
▁मुझे	-8.18896
▁बनाया	-8.18932
▁खान	-8.19233
▁प्र	-8.19381
▁इलाज	-8.19556
▁शनिवार	-8.19557
▁बड़े	-8.19573
वी	-8.19639
▁कॉलेज	-8.19919
की	-8.20022
▁जमीन	-8.20058
▁शिक्षा	-8.20155
▁रविवार	-8.20395
▁नए	-8.20592
▁बुधवार	-8.2085
▁जाती	-8.21027
▁राजस्थान	-8.21085
▁शुक्रवार	-8.21413
▁पांच	-8.21503
▁सीएम	-8.21595
▁लगी	-8.21668
▁जून	-8.21801
▁नई	-8.21869
▁30	-8.22075
ध	-8.22238
▁पहचान	-8.22254
▁प्रभारी	-8.22341
▁तैयार	-8.22384
▁रुपये	-8.2241
▁भाग	-8.22827
▁कुल	-8.2289
▁पूजा	-8.23063
▁आयोजित	-8.2316
▁पति	-8.23428
▁वि	-8.23514
▁व्यवस्था	-8.23685
e	-8.2372
हा	-8.23746
▁जेल	-8.23909
▁मौसम	-8.24063
▁पत्र	-8.24219
▁बैंक	-8.24309
▁श	-8.24471
▁केस	-8.2455
▁तापमान	-8.24689
▁समेत	-8.24931
ंड	-8.25143
▁आदेश	-8.25342
▁बन	-8.25625
▁बिजली	-8.25663
▁उसका	-8.25722
▁द	-8.25845
▁भर्ती	-8.26053
▁उन	-8.26183
▁परिजनों	-8.26285
▁स्थिति	-8.26343
▁ल	-8.26501
▁खुद	-8.26828
▁गुरुवार	-8.26943
▁गंभीर	-8.2711
▁वोट	-8.27146
▁लेने	-8.27167
▁ट्रेन	-8.27173
▁पंजाब	-8.272
▁बयान	-8.27637
▁25	-8.27722
▁देर	-8.27775
▁शुरुआत	-8.2793
वि	-8.28119
▁बच्चे	-8.2813
राज	-8.28579
▁बढ़	-8.2865
ले	-8.28762
▁सवाल	-8.28766
▁दें	-8.28853
ियां	-8.28977
▁फोन	-8.29042
▁होते	-8.29052
▁विशेष	-8.29184
▁-	-8.29485
▁जुलाई	-8.29743
...	-8.29864
▁मृतक	-8.30014
▁राहुल	-8.30055
ाई	-8.30066
▁यात्रा	-8.30105
▁बेटे	-8.30119
▁पी	-8.30378
▁होकर	-8.30471
▁पद	-8.31071
▁मिले	-8.31273
▁नि	-8.31326
▁जनता	-8.31425
▁चलते	-8.31428
▁13	-8.31432
्य	-8.31592
▁सरकारी	-8.31655
दा	-8.31971
▁अभियान	-8.32057
▁रखा	-8.32151
▁फ	-8.32205
▁चोरी	-8.32227
▁राष्ट्रीय	-8.32667
▁क्योंकि	-8.32792
▁चुके	-8.33005
▁थीं	-8.3313
▁उप	-8.33356
▁सब	-8.33372
▁लाल	-8.33572
▁दोपहर	-8.33577
▁विभिन्न	-8.33578
▁दूसरी	-8.33981
▁चर्चा	-8.34082
▁सोशल	-8.34159
▁विरोध	-8.3426
▁14	-8.34308
▁बेटी	-8.34357
▁अगस्त	-8.34372
▁करके	-8.34446
▁प्रतिशत	-8.34698
▁बनाए	-8.35177
▁मदद	-8.35182
▁देव	-8.35219
▁समिति	-8.35282
o	-8.35419
▁तथा	-8.35716
▁महिलाओं	-8.36038
▁जवाब	-8.36362
▁अवसर	-8.36528
▁होंगे	-8.36636
▁स्वास्थ्य	-8.36746
▁सिर्फ	-8.36911
▁आम	-8.36951
▁हाल	-8.3706
▁रेलवे	-8.37241
ओ	-8.37497
▁चुकी	-8.37733
▁पंचायत	-8.38059
▁विवाद	-8.38121
जा	-8.3827
▁ज	-8.38419
एस	-8.38441
▁वाहन	-8.3847
▁मोबाइल	-8.38613
▁सेवा	-8.3881
▁मार	-8.3952
▁जाते	-8.39592
▁स्थानीय	-8.39699
़	-8.39728
▁आदि	-8.39745
▁हाथ	-8.39907
ै	-8.40027
▁24	-8.40213
आर	-8.40222
▁18	-8.40321
▁प्रमुख	-8.40354
▁जल्द	-8.40436
▁मु	-8.40537
▁ग्राम	-8.40653
▁50	-8.40796
ड़ा	-8.41026
गा	-8.41195
▁जान	-8.41399
र्स	-8.4156
▁देखा	-8.4159
▁जयपुर	-8.41643
▁जैन	-8.41916
▁लगभग	-8.42117
्र	-8.42184
▁टी	-8.42212
ौ	-8.4232
▁करती	-8.42618
▁इलाके	-8.42636
▁देवी	-8.42988
▁सदस्य	-8.43022
▁किसान	-8.43214
▁शराब	-8.43333
▁सवार	-8.43485
▁डॉक्टर	-8.43535
▁वापस	-8.43607
▁खेल	-8.43691
▁मेरे	-8.43712
▁16	-8.43751
▁शिव	-8.43766
▁रह	-8.43807
▁अवैध	-8.43858
से	-8.44069
▁जिन	-8.44098
▁छात्र	-8.44397
▁17	-8.44453
▁गाड़ी	-8.44514
▁स्तर	-8.4483
▁किसानों	-8.44929
▁बी	-8.45187
▁शेयर	-8.45635
▁ड	-8.45772
▁बरामद	-8.45808
▁बाजार	-8.4582
▁मई	-8.45886
a	-8.45904
▁उत्तर	-8.46005
▁पक्ष	-8.4608
▁दूर	-8.46193
▁सचिव	-8.46295
▁पेश	-8.46531
▁जीवन	-8.4654
मी	-8.47223
ॉ	-8.47366
▁कोशिश	-8.47433
ेश	-8.47496
▁प्रयास	-8.47624
राम	-8.47686
▁सितंबर	-8.47797
▁कहते	-8.48155
▁इंडिया	-8.48244
▁मारपीट	-8.48472
▁ख	-8.48631
▁अंदर	-8.48662
s	-8.48784
अ	-8.48798
▁अक्टूबर	-8.49517
▁कलेक्टर	-8.49518
▁चुका	-8.49529
▁वालों	-8.49766
▁पुत्र	-8.49798
▁बे	-8.49799
▁रि	-8.49959
लाल	-8.5
▁भेज	-8.50389
नगर	-8.50402
वर	-8.50436
▁इंदौर	-8.50837
▁हमारे	-8.50897
वीं	-8.50939
एम	-8.51045
▁दिसंबर	-8.51077
▁हमला	-8.51252
इ	-8.51263
▁पीछे	-8.51835
▁पीएम	-8.52062
टा	-8.52199
▁हादसे	-8.52551
िन	-8.52743
रे	-8.52942
▁देकर	-8.53084
▁लिखा	-8.53333
▁माता	-8.53461
▁बने	-8.53625
▁पूछताछ	-8.53691
▁कार्यालय	-8.53827
▁दल	-8.54
▁मेडिकल	-8.54274
▁आवेदन	-8.54404
▁धर्म	-8.54482
▁आसपास	-8.54535
गंज	-8.54547
ेशन	-8.54793
▁नवंबर	-8.54796
▁संबंध	-8.55081
▁दुकान	-8.55293
▁पढ़ें	-8.55463
▁विजय	-8.55463
▁वन	-8.55481
▁र	-8.55521
▁मे	-8.55685
▁कु	-8.56029
▁भर	-8.56092
▁केंद्रीय	-8.56173
▁प्राप्त	-8.56346
▁कभी	-8.56599
▁मतदान	-8.56776
▁तौर	-8.56969
▁पीड़ित	-8.57227
▁मो	-8.57341
▁चौधरी	-8.57374
▁जाएंगे	-8.57691
आई	-8.57705
▁एसपी	-8.57713
कार	-8.57845
▁आपको	-8.57892
▁मंडल	-8.57981
▁स्टेशन	-8.57982
▁पड़ा	-8.58085
▁केवल	-8.58216
▁देखने	-8.5829
▁बिना	-8.58344
▁मैंने	-8.58483
पाल	-8.58489
▁भ	-8.58563
ठ	-8.58597
▁देख	-8.58696
▁मिनट	-8.59064
▁गिर	-8.59084
▁जन	-8.59136
▁ई	-8.59237
▁लाइन	-8.59659
%	-8.59679
I	-8.59791
▁जाना	-8.59802
▁सर	-8.59917
▁माह	-8.60103
▁राशि	-8.60166
▁नेताओं	-8.60285
▁S	-8.60547
▁क्यों	-8.61123
▁ध्यान	-8.61268
▁भारी	-8.61308
▁सी	-8.61419
▁22	-8.61731
▁माध्यम	-8.61768
C	-8.61781
▁भोपाल	-8.6184
भ	-8.61976
▁नदी	-8.62258
▁मन	-8.62314
▁ला	-8.62381
पा	-8.62461
▁पाकिस्तान	-8.62624
▁मार्च	-8.62889
6	-8.63063
ेंगे	-8.63143
जन	-8.63992
गी	-8.64006
क्ष	-8.64029
▁त	-8.64102
▁मान	-8.64319
▁हमें	-8.64568
हर	-8.64684
वाल	-8.64881
▁कैसे	-8.64899
को	-8.65002
▁देखते	-8.65106
▁ऑफ	-8.65131
स्ट	-8.65238
▁होना	-8.65359
▁बल	-8.65418
▁फरार	-8.65545
▁सके	-8.65671
दार	-8.65925
▁पहुंचा	-8.65951
▁जमा	-8.66015
/	-8.66048
▁प्रसाद	-8.66214
▁21	-8.66398
i	-8.66451
अलग	-8.6661
▁टिकट	-8.66615
▁कराने	-8.67056
▁हार	-8.67263
▁मा	-8.67273
▁ह	-8.67454
पुरा	-8.67813
▁बोर्ड	-8.67836
▁बनी	-8.67841
▁लगाए	-8.68187
ेड	-8.68236
▁संबंधित	-8.68264
▁पोस्ट	-8.68558
ड़ी	-8.68604
िका	-8.68606
▁ग्रामीणों	-8.68809
▁शाह	-8.68837
▁जिसे	-8.68943
▁वार्ड	-8.6947
▁जनवरी	-8.69694
▁ग्रामीण	-8.69901
▁प्रक्रिया	-8.69922
▁कर्मचारी	-8.70084
▁संभावना	-8.70226
▁छात्रों	-8.70309
▁वक्त	-8.70323
▁सीटों	-8.70455
▁रोक	-8.70624
▁यानी	-8.70717
▁समारोह	-8.70991
तर	-8.71031
▁अगले	-8.71161
▁तय	-8.71188
▁आयोग	-8.71326
्ल	-8.71389
▁स्थान	-8.71898
▁जिलों	-8.71917
▁चौक	-8.71982
▁संजय	-8.72153
▁भेजा	-8.7226
ंट	-8.72294
िल	-8.72382
प्र	-8.72432
▁दावा	-8.73354
िस	-8.73561
▁भवन	-8.7368
ां	-8.73692
▁कल	-8.73856
▁नेतृत्व	-8.73873
▁मार्ग	-8.73959
▁ऐसी	-8.7397
▁सं	-8.73982
▁A	-8.74206
▁रखने	-8.74208
▁तलाश	-8.7426
▁उर्फ	-8.74348
▁छत्तीसगढ़	-8.74348
2	-8.74539
D	-8.74752
▁उम्मीदवार	-8.7476
बा	-8.7485
ेट	-8.74932
▁खास	-8.75162
▁नीचे	-8.75305
▁ताकि	-8.75631
▁कर्मचारियों	-8.75633
▁गोली	-8.75708
▁गर्मी	-8.75725
गढ़	-8.75799
रिया	-8.75856
▁साफ	-8.75938
A	-8.7597
▁नरेंद्र	-8.76035
▁एन	-8.76101
सर	-8.76141
▁हिस्सा	-8.76353
▁विकेट	-8.76758
▁तैयारी	-8.76779
▁टक्कर	-8.77167
▁लगाने	-8.77174
▁बल्कि	-8.77248
ेज	-8.77295
▁अप्रैल	-8.77411
▁छोड़	-8.77433
▁बाल	-8.77443
▁प्रत्याशी	-8.77575
▁मुंबई	-8.77668
▁संगठन	-8.77673
▁माना	-8.77683
▁गुप्ता	-8.77817
खा	-8.77897
▁दरअसल	-8.77986
▁40	-8.78126
▁वर्ग	-8.78171
9	-8.7825
▁पकड़	-8.78321
▁उ	-8.78412
ान	-8.78454
▁दुनिया	-8.78568
▁आर	-8.78684
्‍	-8.787
▁कह	-8.78888
▁2023	-8.78989
▁राय	-8.78992
स्त	-8.79024
ंस	-8.79069
3	-8.79183
▁सह	-8.79204
▁फैसला	-8.79266
भर	-8.79499
▁बा	-8.79516
▁समस्या	-8.79562
▁जाकर	-8.79589
▁गो	-8.79753
▁जुड़े	-8.79976
▁टेस्ट	-8.80078
ष	-8.80103
▁हासिल	-8.8015
▁मकान	-8.80151
▁सा	-8.80199
रो	-8.80586
▁सदर	-8.80784
▁इ	-8.80892
▁मैदान	-8.81085
▁घोषणा	-8.81166
▁बदल	-8.81279
▁पड़	-8.81529
▁चरण	-8.81573
▁मह	-8.81582
▁डी	-8.81592
▁रहते	-8.8161
▁रे	-8.81672
▁इस्तेमाल	-8.81847
▁100	-8.8206
▁लौट	-8.82132
▁यूपी	-8.82231
▁परेशान	-8.82325
▁मध्य	-8.82654
▁राजनीतिक	-8.82773
ाय	-8.83086
▁प्रकार	-8.83264
▁रहेगा	-8.83324
▁अमेरिका	-8.83334
ोर	-8.83558
▁ऊपर	-8.83663
▁पार	-8.83819
▁हालत	-8.83891
M	-8.84036
▁एम	-8.8418
▁संघ	-8.84232
▁चालक	-8.84261
▁सिर	-8.84371
S	-8.84433
▁बोले	-8.84453
▁बातचीत	-8.84888
▁उपलब्ध	-8.84983
▁पैसे	-8.85242
▁परिसर	-8.85338
▁रंग	-8.85341
वार	-8.85386
▁बाबा	-8.8539
▁लोक	-8.85409
▁फोटो	-8.857
▁अमित	-8.85705
ंद	-8.85783
▁खराब	-8.85955
▁26	-8.85973
▁पटना	-8.86003
▁कानून	-8.86005
पर	-8.86007
▁भीड़	-8.86021
▁वायरल	-8.86042
▁कट	-8.86051
▁P	-8.86146
▁बनने	-8.8619
▁नया	-8.8626
▁ठीक	-8.86311
▁महत्वपूर्ण	-8.86581
▁लाभ	-8.86608
▁तीनों	-8.86734
उ	-8.86985
▁हमने	-8.87107
▁किस	-8.87235
20	-8.87321
शा	-8.87323
▁खत्म	-8.87661
▁झारखंड	-8.87661
▁23	-8.87715
▁फिलहाल	-8.87753
▁दिवस	-8.87809
▁रिकॉर्ड	-8.88025
▁गठबंधन	-8.88116
▁सेंटर	-8.88225
▁कराई	-8.88386
▁सीमा	-8.88544
▁बांग्लादेश	-8.88585
वे	-8.88673
▁घ	-8.8872
▁युवा	-8.8883
यू	-8.88908
्यू	-8.88913
▁चोर	-8.88957
▁निजी	-8.89023
▁कहीं	-8.89038
ार	-8.8912
R	-8.89155
▁उम्मीद	-8.89477
▁सिटी	-8.89487
▁खबर	-8.89539
▁बि	-8.89721
▁सो	-8.89769
टे	-8.90245
t	-8.90293
▁शो	-8.90413
▁बहन	-8.90505
▁आपके	-8.90624
▁ट्रक	-8.90648
▁पहला	-8.90676
▁इतन	-8.90762
▁छ	-8.9087
▁राष्ट्रपति	-8.90891
▁घोषित	-8.90894
आ	-8.91001
▁होटल	-8.91176
देव	-8.91182
▁मिलकर	-8.91249
▁कार्ड	-8.91259
▁लड़की	-8.91554
▁उपस्थित	-8.91855
▁लखनऊ	-8.92026
1	-8.92043
▁सामान	-8.92105
टर	-8.92172
▁मेरी	-8.92195
▁सम्मान	-8.9225
▁अंतिम	-8.92307
िट	-8.9239
▁M	-8.924
एल	-8.92603
▁दिख	-8.92607
▁दर्शन	-8.92617
नाथ	-8.92835
▁गा	-8.9296
▁डे	-8.93138
▁कमेटी	-8.93162
▁ओवर	-8.93466
▁तभी	-8.9355
▁धारा	-8.93614
▁जय	-8.93681
▁जरिए	-8.93837
▁पाया	-8.94092
्या	-8.94316
▁मीटर	-8.94346
▁प्रकाश	-8.94382
बल	-8.94401
▁धमकी	-8.94418
▁वर्षीय	-8.94426
दी	-8.94652
▁चीन	-8.94939
ंत	-8.95003
▁कॉल	-8.9511
▁लगाई	-8.95142
▁शिक्षक	-8.95207
▁हमारी	-8.95214
ज़	-8.954
छ	-8.95441
▁सुप्रीम	-8.95488
▁यही	-8.95615
▁निकाल	-8.95797
▁इं	-8.95863
▁प्रवेश	-8.95881
▁सुनवाई	-8.95885
▁अदालत	-8.9598
▁अचानक	-8.96078
▁अग्रवाल	-8.9618
▁वरिष्ठ	-8.96474
▁परिषद	-8.96584
▁समर्थन	-8.96595
▁B	-8.96653
▁वारदात	-8.96672
▁बढ़ा	-8.96685
5	-8.96692
▁चाहते	-8.96701
▁जरूरत	-8.96815
▁सही	-8.96816
▁कीमत	-8.96866
नि	-8.96911
▁27	-8.96924
▁राज्यों	-8.9696
▁कॉलोनी	-8.9697
▁परिजन	-8.97
▁28	-8.97023
▁एस	-8.97041
▁हिंदू	-8.97276
एन	-8.97335
T	-8.97492
▁उच्च	-8.9779
▁बावजूद	-8.97971
▁लागू	-8.98273
▁एक्स	-8.9837
▁देना	-8.9838
शन	-8.98383
▁सदस्यों	-8.98395
▁ट	-8.98586
▁आते	-8.98587
ेंट	-8.98727
▁गेट	-8.98754
▁उसी	-8.98905
मे	-8.99174
▁घाट	-8.99271
▁अशोक	-8.99287
▁सामान्य	-8.99417
मान	-8.99531
▁उनसे	-8.99536
▁निरीक्षण	-8.99593
▁पटेल	-8.99599
▁तैनात	-8.99722
▁गलत	-8.99831
▁क्रिकेट	-8.99846
▁हाई	-8.99874
▁विश्वविद्यालय	-9.00002
▁सि	-9.00126
▁महा	-9.00293
जे	-9.00336
▁एल	-9.00462
▁बेहतर	-9.00504
ति	-9.00613
y	-9.00647
▁बदलाव	-9.00656
मेंट	-9.00762
▁डा	-9.0084
▁लूट	-9.00915
▁मोहन	-9.00916
▁सेना	-9.01036
▁कही	-9.01274
वें	-9.01401
▁क्षेत्रों	-9.0141
▁राजनीति	-9.01484
बर	-9.01683
▁बर	-9.01687
▁प्रभावित	-9.01804
▁प्रधान	-9.01869
▁बनाकर	-9.01912
▁विश्व	-9.02118
ेंद्र	-9.02123
▁वर्मा	-9.02188
▁सजा	-9.02379
▁ऑफिस	-9.02513
▁ओ	-9.02556
ाया	-9.02663
▁दिखाई	-9.02676
▁गुरु	-9.02785
▁सभा	-9.02988
▁उम्र	-9.03129
▁रहता	-9.03141
▁नुकसान	-9.03554
▁बंगाल	-9.03554
ेल	-9.03556
्म	-9.03591
▁जरूरी	-9.03601
▁रखी	-9.03767
P	-9.03804
▁उससे	-9.03841
u	-9.03981
▁पदाधिकारी	-9.04087
▁नेशनल	-9.0409
▁असर	-9.04236
▁31	-9.04356
▁जे	-9.04656
▁बनाई	-9.04668
▁प्रेम	-9.04669
▁करेगी	-9.04701
▁उपयोग	-9.04739
▁अजय	-9.04765
▁विद्यालय	-9.04899
र्	-9.05034
▁चंद्र	-9.05045
जीत	-9.05118
भा	-9.05144
▁सात	-9.0531
▁राहत	-9.05405
p	-9.0567
▁ग्रुप	-9.05703
▁विचार	-9.0572
▁रास्ते	-9.05812
▁लड़	-9.05819
▁हॉस्पिटल	-9.05921
▁स्थल	-9.06145
▁तरीके	-9.06171
7	-9.06382
▁निकल	-9.06421
▁अंक	-9.06445
▁मिश्रा	-9.06589
▁कृष्ण	-9.06626
▁जब्त	-9.06747
▁भूमिका	-9.06829
दर	-9.06848
मो	-9.069
▁D	-9.07136
▁ड्राइवर	-9.07308
▁सीसीटीवी	-9.07346
ंच	-9.07363
▁भा	-9.07416
ीन	-9.07435
▁मजबूत	-9.0747
▁कौन	-9.07512
▁सफाई	-9.07614
▁कार्यकर्ताओं	-9.0762
▁समझ	-9.07637
▁एंड	-9.07664
▁महाराज	-9.07706
▁29	-9.07824
▁महाराष्ट्र	-9.07844
▁योग	-9.08061
▁क्र	-9.08097
▁तुरंत	-9.08345
0	-9.08411
▁C	-9.08483
▁स्वागत	-9.0857
▁2019	-9.08695
▁स्व	-9.08723
▁प्रो	-9.08832
▁अन	-9.0892
G	-9.08987
▁रो	-9.08996
▁रिलीज	-9.09017
▁हमले	-9.09032
▁इतना	-9.09199
▁बजट	-9.09539
घ	-9.09647
ar	-9.09783
▁खर्च	-9.09808
▁मंच	-9.09901
शी	-9.09978
▁विदेश	-9.10035
▁वाहनों	-9.10099
▁प्रदान	-9.10164
▁कै	-9.10248
▁लगाकर	-9.10248
▁युवती	-9.10265
▁नौकरी	-9.10333
▁प्रचार	-9.10392
▁अयोध्या	-9.10497
्ट	-9.10683
ास	-9.10696
▁छोटे	-9.10741
h	-9.11112
▁फरवरी	-9.11288
▁बांध	-9.1132
▁पि	-9.11402
▁आनंद	-9.11403
▁खा	-9.11428
ेन	-9.11582
▁लगता	-9.11594
▁बीते	-9.1163
▁संयुक्त	-9.11636
▁अभिषेक	-9.11755
▁सीटें	-9.11787
▁लेते	-9.11939
;	-9.1198
▁डि	-9.11983
▁मिलेगा	-9.12059
▁निर्णय	-9.12211
▁कृषि	-9.12327
▁सहयोग	-9.1236
▁तेजी	-9.12367
▁रायपुर	-9.12473
▁ता	-9.12492
▁राजेश	-9.12511
्रा	-9.12583
▁सिविल	-9.12676
▁फीसदी	-9.12799
▁नोटिस	-9.12804
▁पाल	-9.12913
▁जन्म	-9.13052
▁दर	-9.13124
▁बताते	-9.13337
▁चि	-9.1336
▁यू	-9.13382
),	-9.13441
▁रहेगी	-9.13646
▁प्रतियोगिता	-9.13794
▁नाबालिग	-9.13848
▁ऑनलाइन	-9.13849
▁कदम	-9.13865
8	-9.13875
E	-9.13957
▁यदि	-9.13969
▁मालिक	-9.14147
िए	-9.14186
▁जमकर	-9.14232
ुल	-9.14336
▁भास्कर	-9.14439
▁रोहित	-9.14461
▁गंगा	-9.14474
▁दीपक	-9.14477
डा	-9.1451
मन	-9.14608
▁कमी	-9.14626
▁कल्याण	-9.14664
▁जाम	-9.1467
▁मुलाकात	-9.14676
▁रेल	-9.14722
▁उतर	-9.14833
▁आर्थिक	-9.15033
▁करेगा	-9.1515
▁हा	-9.15215
▁एक्सप्रेस	-9.15272
▁N	-9.15372
▁करा	-9.15585
▁पो	-9.15702
▁छह	-9.15817
m	-9.1595
4	-9.16175
▁सागर	-9.16314
▁याचिका	-9.16415
▁अपील	-9.16598
▁सामना	-9.16621
▁रहती	-9.16692
50	-9.16702
ृ	-9.16719
▁अंतर्गत	-9.1684
▁धन	-9.16995
▁फर्जी	-9.17082
▁बेटा	-9.17121
सिंह	-9.17318
▁मनोज	-9.17351
▁मेरा	-9.17363
▁दूसरा	-9.17381
लो	-9.17461
▁नव	-9.17496
▁ठाकुर	-9.1757
▁सहायक	-9.1757
▁अतिरिक्त	-9.17692
्क	-9.17703
▁सुविधा	-9.17976
▁बह	-9.18249
▁मना	-9.18254
▁डर	-9.18289
▁मोहम्मद	-9.18307
▁हाईकोर्ट	-9.18307
▁मै	-9.18428
▁खरीद	-9.1846
▁करवाया	-9.18494
▁खड़े	-9.18629
▁गिरफ्तारी	-9.18653
▁कार्यकर्ता	-9.18755
▁अज्ञात	-9.18801
▁इलाकों	-9.18925
▁सुधार	-9.18988
हार	-9.19155
▁संचालन	-9.19173
▁साहू	-9.19315
▁खेत	-9.19335
▁प्रस्ताव	-9.19357
ेश्वर	-9.1939
ेस	-9.19437
▁सीरीज	-9.19547
▁अंजाम	-9.19549
▁जिसकी	-9.19578
▁देंगे	-9.19605
▁पुल	-9.19623
▁मंत्रालय	-9.19673
▁पीड़िता	-9.1968
▁बदमाशों	-9.19735
▁तस्वीर	-9.19747
▁अनिल	-9.1994
▁मिलते	-9.19961
▁सुनील	-9.20108
▁बैठे	-9.20187
▁करवा	-9.20293
▁सिस्टम	-9.20298
▁उदयपुर	-9.20323
▁सत्र	-9.20485
▁मामलों	-9.2055
र्ट	-9.20695
▁कोतवाली	-9.20714
▁रा	-9.20783
▁किलोमीटर	-9.20802
▁बच्ची	-9.20802
▁जैसी	-9.20826
▁अच्छी	-9.20928
▁कपूर	-9.20934
िश	-9.21101
▁सर्व	-9.21131
▁दोस्त	-9.21404
O	-9.21652
▁दिल	-9.21656
an	-9.21725
▁चले	-9.21754
▁प्रोजेक्ट	-9.21818
▁एक्ट्रेस	-9.2182
▁आवास	-9.21993
▁भूमि	-9.22074
दीप	-9.22339
▁देशों	-9.22763
ये	-9.22847
▁जंगल	-9.22881
▁आंदोलन	-9.22973
▁युवाओं	-9.23048
▁कड़ी	-9.23175
▁पश्चिम	-9.23184
▁हवा	-9.23345
▁भविष्य	-9.23361
▁अच्छा	-9.23362
▁गृह	-9.23394
▁दिशा	-9.23528
▁न्याय	-9.23558
फ़	-9.23571
▁टूट	-9.23571
▁सोने	-9.23666
▁अपराध	-9.23684
▁परेशानी	-9.23703
ही	-9.23766
▁T	-9.24197
▁नीतीश	-9.24404
▁शांति	-9.24499
▁देखकर	-9.24502
▁स्पेशल	-9.24535
▁गु	-9.24558
er	-9.24906
▁मौका	-9.24988
▁अलर्ट	-9.25068
▁मरीज	-9.25124
▁केजरीवाल	-9.25193
▁2022	-9.25199
N	-9.25344
▁निवेश	-9.25582
▁हथियार	-9.25642
▁आयुक्त	-9.25879
▁पकड़ा	-9.25917
्व	-9.25998
▁नियम	-9.26051
▁झा	-9.26229
▁पेड़	-9.26366
▁अतिथि	-9.26388
▁रुक	-9.26418
▁नामांकन	-9.26522
▁मीणा	-9.26525
▁संत	-9.26611
▁शिविर	-9.2667
ंध	-9.2668
d	-9.26762
▁सत्ता	-9.26816
▁शासन	-9.26913
▁तिवारी	-9.26924
▁मुस्लिम	-9.2694
▁वर्तमान	-9.26941
▁न्यायालय	-9.27062
ंगी	-9.27111
▁अधिकतम	-9.27215
B	-9.27291
ाल	-9.27401
▁साइबर	-9.27465
▁इधर	-9.27471
वां	-9.2759
▁डॉक्टरों	-9.2762
▁सेक्टर	-9.27823
▁पढ़ाई	-9.27907
▁यात्रियों	-9.28004
▁बदमाश	-9.28071
▁ठंड	-9.28174
▁निकाला	-9.28201
▁गुजरात	-9.28278
बार	-9.28311
▁मनाया	-9.28344
▁चोट	-9.28387
▁कब्जे	-9.28412
▁रैली	-9.28438
▁बिल	-9.28735
▁तोड़	-9.28776
▁मुकेश	-9.28827
▁उसमें	-9.28969
यर	-9.29011
▁हमेशा	-9.29097
▁आवाज	-9.2926
▁दक्षिण	-9.29437
▁महिलाएं	-9.29473
▁एक्टर	-9.29476
▁सुरक्षित	-9.29509
▁माल	-9.29552
▁चली	-9.29641
▁याद	-9.29642
▁आकर	-9.29778
▁कला	-9.2982
त्र	-9.29826
▁जग	-9.29921
▁गणेश	-9.29929
▁रवि	-9.30149
▁मि	-9.3026
▁स्कूलों	-9.30282
ंज	-9.30356
▁देता	-9.30447
▁कप	-9.3046
साथ	-9.30466
▁पूछा	-9.30501
▁योगी	-9.30667
▁बढ़ाने	-9.30868
▁खुल	-9.30895
▁सम्मानित	-9.30992
▁गईं	-9.31005
▁संविधान	-9.31039
▁जिम्मेदारी	-9.3105
▁चलने	-9.3106
▁पाए	-9.31088
▁व्रत	-9.31179
▁घरों	-9.3118
ंडा	-9.31214
▁कब	-9.31238
▁शक्ति	-9.31302
▁पेट्रोल	-9.31314
▁तीसरे	-9.31317
▁यूनिवर्सिटी	-9.31317
▁पारी	-9.31324
▁दा	-9.31324
▁पेपर	-9.31329
▁मरीजों	-9.31403
▁पोस्टमार्टम	-9.31598
▁संबोधित	-9.31608
▁कमरे	-9.31837
▁सप्ताह	-9.3188
▁किनारे	-9.31882
▁खुलासा	-9.3189
▁35	-9.31914
▁बज	-9.31931
▁एयरपोर्ट	-9.32022
g	-9.3213
▁200	-9.32559
▁संस्था	-9.32591
▁पैर	-9.32641
▁शुभ	-9.32644
▁सुख	-9.32704
k	-9.328
▁युद्ध	-9.32874
▁सामाजिक	-9.32898
▁अहम	-9.32899
▁युवकों	-9.32942
▁उनको	-9.33035
▁हादसा	-9.33058
▁रखे	-9.33086
▁मंडी	-9.33389
▁नागरिक	-9.33412
▁संपर्क	-9.33445
झ	-9.33506
▁पार्क	-9.33545
▁मशीन	-9.33588
▁रहेंगे	-9.33639
ाना	-9.33649
▁शिक्षकों	-9.33713
▁चुनावी	-9.33765
ंब	-9.33798
गु	-9.33827
▁उद्देश्य	-9.33876
▁स्टूडेंट्स	-9.33915
▁सालों	-9.33962
▁रख	-9.33966
▁अली	-9.34119
▁लिस्ट	-9.34203
▁खाली	-9.34224
▁थ	-9.34235
▁प्रबंधन	-9.34243
▁लाया	-9.34283
▁पाई	-9.34357
▁रक्षा	-9.34363
▁पहुंचकर	-9.34582
▁सूर्य	-9.34743
▁बेहद	-9.34889
▁छात्रा	-9.34908
▁उपचार	-9.34909
▁उठा	-9.34941
▁नारायण	-9.34959
▁जोर	-9.35011
▁मगर	-9.35258
▁लक्ष्य	-9.35326
▁अधीक्षक	-9.35346
िस्ट	-9.35387
रू	-9.35506
▁झ	-9.35552
▁हाउस	-9.35557
▁वी	-9.35565
▁राजा	-9.35904
▁आठ	-9.36001
▁60	-9.36083
▁सपा	-9.36268
▁समुदाय	-9.36354
▁लंबे	-9.36354
▁कौर	-9.36588
▁पर्व	-9.36769
▁हनुमान	-9.36782
▁खो	-9.36832
▁जिसका	-9.36871
▁न्यूनतम	-9.36946
र्ग	-9.36969
▁बाकी	-9.36997
▁कुमारी	-9.37001
▁कार्यों	-9.37084
▁प्रखंड	-9.37103
▁बोल	-9.37325
▁I	-9.37351
ेर	-9.37523
▁सड़कों	-9.37541
▁तिथि	-9.37572
▁सूत्र	-9.37578
▁धार्मिक	-9.37841
वल	-9.38136
▁मुश्किल	-9.38242
▁रेप	-9.38259
▁बुजुर्ग	-9.38291
▁आदमी	-9.38292
बे	-9.38345
▁आता	-9.38379
▁पैसा	-9.38437
▁किलो	-9.38447
▁सफलता	-9.38563
▁विपक्ष	-9.3861
एफ	-9.38638
▁समाधान	-9.38896
▁मुख्यालय	-9.38913
▁शरीर	-9.39047
▁चौहान	-9.39049
▁ऑटो	-9.39052
-20	-9.39131
ल्ड	-9.39242
▁अस	-9.39311
▁राकेश	-9.39505
▁मिलेगी	-9.3959
▁बताई	-9.39593
▁सीजन	-9.39602
▁G	-9.397
्ड	-9.39709
▁पड़ी	-9.39716
▁चेक	-9.39798
▁निर्वाचन	-9.39808
▁आसान	-9.39918
▁विषय	-9.39942
▁वर्ल्ड	-9.39962
▁दिखा	-9.40029
▁आखिरी	-9.40087
▁संस्थान	-9.40185
▁एजेंसी	-9.40421
▁दाखिल	-9.40421
▁मारने	-9.40449
on	-9.40482
▁बेच	-9.40577
▁पूजन	-9.40583
▁घुस	-9.40646
▁इमेज	-9.40734
▁संदीप	-9.40748
▁सफल	-9.40777
▁रवाना	-9.40883
ोन	-9.40909
▁फाइनल	-9.41038
▁सुनिश्चित	-9.41192
▁ध	-9.41262
▁लाने	-9.41277
▁कहानी	-9.4128
▁पहुंचने	-9.41396
▁कं	-9.41434
▁प्राइवेट	-9.41503
गर	-9.41547
▁सौंप	-9.41561
▁ढ	-9.41566
▁नीति	-9.41653
▁अमर	-9.41676
▁ब्र	-9.41696
▁स्टाफ	-9.41747
पेट	-9.4177
▁वित्त	-9.418
▁इंतजार	-9.4197
▁जाति	-9.42208
▁स्पष्ट	-9.42283
▁कमिश्नर	-9.42283
▁मानसून	-9.42284
धार	-9.42584
▁पार्षद	-9.4259
▁कैप्शन	-9.42597
▁फीट	-9.42599
▁प्रताप	-9.42602
▁ब्लॉक	-9.42602
▁मार्केट	-9.42605
▁टॉप	-9.42617
▁सोच	-9.42643
▁आउट	-9.4266
ाव	-9.42662
▁भाव	-9.42792
रि	-9.42898
▁बाग	-9.42907
▁खिलाड़ी	-9.4292
ेंस	-9.43062
▁लॉन्च	-9.43227
ंप	-9.43244
▁चंद	-9.43295
▁पूर्ण	-9.43346
▁स्थापित	-9.43406
▁कॉ	-9.43455
▁छोड़कर	-9.43457
त्त	-9.43493
ाबाद	-9.43514
▁मं	-9.43533
▁अरविंद	-9.43573
ंक	-9.43649
▁राजधानी	-9.43702
ानी	-9.43941
▁R	-9.43977
▁इतिहास	-9.44021
▁शपथ	-9.44021
▁वही	-9.44121
्प	-9.44192
क्स	-9.4421
▁अप	-9.44299
▁तार	-9.44343
▁दौर	-9.44494
▁विद्यार्थियों	-9.445
▁प्रथम	-9.44686
▁फायदा	-9.44821
▁मिलता	-9.44823
▁रोकने	-9.44873
▁स्टार	-9.44952
▁उठ	-9.44959
▁दबाव	-9.45011
ची	-9.45041
▁माहौल	-9.45149
ियर	-9.45211
▁ऑपरेशन	-9.45304
▁ट्रैफिक	-9.45304
▁पसंद	-9.45304
▁आवश्यक	-9.45332
l	-9.45434
▁निदेशक	-9.45465
▁बुलाया	-9.45649
▁डिप्टी	-9.45789
▁रफ्तार	-9.45789
▁अमेरिकी	-9.45831
िम	-9.45857
▁आय	-9.45922
▁प्यार	-9.45953
▁सहायता	-9.46277
▁पालन	-9.46365
▁प्रशिक्षण	-9.46603
▁हिरासत	-9.46603
▁उक्त	-9.4661
▁प्रभाव	-9.46613
ट्	-9.46672
▁जुड़ी	-9.46703
▁नोट	-9.4674
एक	-9.46806
र्ड	-9.46825
इस	-9.46832
▁डाल	-9.46834
▁अनुमति	-9.46932
▁टैक्स	-9.46934
ाह	-9.4699
म्	-9.47057
▁स्	-9.47086
▁स्थानों	-9.4712
लिया	-9.47153
▁रूम	-9.47186
▁प्राथमिक	-9.4731
▁घट	-9.47369
▁मूल	-9.47375
▁कंपनियों	-9.47425
▁45	-9.47476
▁अधिकार	-9.4748
▁कक्षा	-9.4756
▁ड्यूटी	-9.47589
▁परिणाम	-9.47589
वीर	-9.47633
▁किमी	-9.47673
▁बचाने	-9.47733
al	-9.47787
▁ट्र	-9.47814
▁तत्काल	-9.47908
ेगा	-9.47935
▁सैनी	-9.47956
हरा	-9.47957
▁दास	-9.4803
दु	-9.482
्ब	-9.48219
▁जानते	-9.48298
▁संपत्ति	-9.48332
▁जमानत	-9.48421
▁रोजगार	-9.48423
ड़े	-9.48437
फा	-9.48462
▁अनु	-9.48518
▁क्षमता	-9.48585
ेन्द्र	-9.48664
▁जोन	-9.48753
▁सीनियर	-9.48755
▁BJP	-9.48773
▁संचालक	-9.48776
रण	-9.48847
L	-9.48865
▁बाढ़	-9.48931
मु	-9.48932
स्थ	-9.49051
▁मनीष	-9.49088
गत	-9.49212
▁समूह	-9.49255
▁सेल्सियस	-9.49255
▁मध्यप्रदेश	-9.49423
▁पड़े	-9.4974
▁एसोसिएशन	-9.4976
▁जम्मू	-9.4976
▁चिंता	-9.4976
▁बु	-9.49761
▁हेड	-9.49811
00	-9.49835
▁2024:	-9.4988
्री	-9.49915
▁पोस्टमॉर्टम	-9.49929
▁मुकदमा	-9.49929
▁रेफर	-9.49937
▁मुकाबले	-9.49957
v	-9.49983
▁डीएम	-9.50004
▁चिकित्सा	-9.50098
▁फायर	-9.50373
▁समाप्त	-9.5039
▁जु	-9.50417
▁महत्व	-9.50438
▁तारीख	-9.50439
चार	-9.50443
▁ग्वालियर	-9.50608
▁एक्ट	-9.50639
▁फैसले	-9.50647
▁डायरेक्टर	-9.50688
▁फ़	-9.50708
▁विस्तार	-9.50778
▁कहां	-9.50786
सि	-9.50929
▁उतार	-9.50955
ष्ट	-9.5111
▁ज्ञापन	-9.51119
▁बॉलीवुड	-9.51119
▁बूथ	-9.51132
▁जताई	-9.51139
ाम	-9.51251
गांव	-9.51311
▁फायरिंग	-9.51719
▁रखते	-9.51719
निया	-9.51761
▁आरक्षण	-9.51806
▁नौ	-9.51985
▁निर्धारित	-9.51987
गल	-9.52109
▁धान	-9.52146
▁निकले	-9.5216
स्थल	-9.52193
दान	-9.52226
लि	-9.52302
र्ज	-9.5233
▁राव	-9.52335
ौली	-9.52358
▁सर्वे	-9.52487
▁संचालित	-9.52497
-1	-9.52557
▁चुनावों	-9.52599
▁करवाई	-9.52666
▁दान	-9.52682
म्ब	-9.52703
▁आरती	-9.5277
▁आस	-9.52985
▁अल	-9.53032
▁टे	-9.53078
गो	-9.53116
▁सप्लाई	-9.53194
▁गौरव	-9.53265
ra	-9.53361
▁गिरावट	-9.5337
▁चौकी	-9.53403
▁अंत	-9.536
▁करनी	-9.53633
▁बो	-9.53829
▁सरपंच	-9.53895
म्प	-9.54027
▁राजीव	-9.54034
▁फेंक	-9.5408
▁दुर्गा	-9.54091
िटी	-9.54161
▁किशोर	-9.54164
▁मॉडल	-9.54248
स्क	-9.54335
न्द	-9.54396
▁लापरवाही	-9.54424
▁सूची	-9.5443
▁सुपर	-9.54485
▁स्टेट	-9.54545
▁सू	-9.54595
▁प्रत्येक	-9.54601
▁पे	-9.54657
,000	-9.54775
▁खुश	-9.54777
▁संतोष	-9.54778
▁बादल	-9.548
▁श्याम	-9.54805
▁य	-9.54867
▁खिलाड़ियों	-9.54956
यों	-9.54993
▁फसल	-9.55025
▁सक्रिय	-9.55134
नो	-9.5515
▁70	-9.55191
▁प्रदीप	-9.55351
▁लो	-9.55352
▁आगामी	-9.55491
्फ	-9.55544
▁खड़ा	-9.55556
▁शिकार	-9.55571
▁पुराने	-9.55671
▁पशु	-9.55695
▁पैदा	-9.55715
▁पावर	-9.55795
▁फल	-9.55804
▁दैनिक	-9.55849
▁ट्रैक्टर	-9.55852
▁80	-9.55852
▁करियर	-9.55853
▁2021	-9.55872
▁ठगी	-9.55879
▁भरा	-9.55889
▁संसद	-9.55994
▁उम्मीदवारों	-9.56025
▁जिन्होंने	-9.56036
▁साबित	-9.5604
▁कथा	-9.56059
▁डॉलर	-9.5608
-2	-9.56119
्न	-9.56135
▁खाते	-9.5614
▁कोच	-9.56271
यां	-9.5628
.30	-9.56309
▁रोज	-9.56326
▁सुन	-9.5639
▁क्लास	-9.56395
▁भू	-9.56425
▁उठाया	-9.56452
▁पड़ता	-9.56455
▁मत	-9.56503
ौर	-9.56508
▁रमेश	-9.56576
सु	-9.56603
▁प्रतिमा	-9.56623
▁उपाध्यक्ष	-9.5675
▁अनुमान	-9.56763
▁L	-9.56833
▁अकाउंट	-9.56931
▁कोलकाता	-9.56931
▁करवाने	-9.57037
▁चयन	-9.5707
▁विश्वास	-9.57133
▁ठ	-9.57173
ूल	-9.57183
टो	-9.57221
▁छठ	-9.57252
▁तीसरी	-9.57294
▁दौड़	-9.57295
▁हमारा	-9.57296
▁शंकर	-9.57406
▁वितरण	-9.57476
▁विशाल	-9.57667
▁नशे	-9.57712
िक्स	-9.57812
▁सलमान	-9.57847
ेगी	-9.57868
▁F	-9.57892
▁गुजर	-9.57895
▁विवाह	-9.57915
करण	-9.57935
▁राष्ट्र	-9.58015
▁क्लब	-9.58025
▁सम	-9.58095
▁नर	-9.58119
in	-9.58133
▁चुनौती	-9.58208
▁प्लान	-9.58312
ाराम	-9.58328
▁स्टैंड	-9.58581
▁फैल	-9.58632
▁मृत	-9.58833
र्क	-9.58924
▁दु	-9.58932
▁मुद्दे	-9.58946
▁यूनिट	-9.58967
कु	-9.58971
▁री	-9.59023
्‍य	-9.59145
▁चाहता	-9.59223
▁आती	-9.5931
▁इंटरव्यू	-9.59316
▁हालात	-9.59317
r	-9.594
▁हाईवे	-9.59528
▁2025	-9.59537
िव	-9.59578
▁इसको	-9.5965
▁छापेमारी	-9.59688
मार	-9.59689
चा	-9.59714
▁पढ़	-9.59772
▁रेड	-9.598
▁संघर्ष	-9.59879
▁विमान	-9.59923
▁बढ़ने	-9.59972
▁आपकी	-9.60012
▁गुर	-9.60025
▁मांगी	-9.60046
िंदर	-9.60141
▁प्रस्तुत	-9.60208
चंद	-9.60208
▁खोल	-9.60247
▁रद्द	-9.60264
▁प्रमाण	-9.60437
▁समीक्षा	-9.60437
ण्ड	-9.60521
▁एफआईआर	-9.60625
▁अनुभव	-9.60625
▁ज्ञान	-9.60688
▁कर्मियों	-9.6073
▁भुगतान	-9.60813
▁शहीद	-9.60813
वास	-9.60987
▁चंडीगढ़	-9.61002
▁दायर	-9.61038
▁तेल	-9.61089
तु	-9.61196
▁योजनाओं	-9.61232
▁निशाना	-9.61271
▁वोटिंग	-9.61322
▁दीप	-9.61358
▁पोल	-9.61411
▁लाइट	-9.61455
▁फा	-9.61458
▁गेंद	-9.61563
▁एयर	-9.61617
िज	-9.61638
H	-9.61705
▁तालाब	-9.61729
▁पै	-9.61731
▁संदिग्ध	-9.6176
▁सम्मेलन	-9.6176
▁हिंसा	-9.6176
▁फुटेज	-9.61766
▁जवान	-9.61799
हल	-9.61802
▁साउथ	-9.6195
▁दूरी	-9.61966
▁भीतर	-9.62084
▁सकेंगे	-9.62146
▁मच	-9.62179
F	-9.62279
▁फिल्मों	-9.6228
▁मर	-9.62334
▁पुरानी	-9.6234
▁नवीन	-9.62369
वन	-9.62385
▁घायलों	-9.62414
फी	-9.62448
▁इंटरनेशनल	-9.62524
▁दुर्घटना	-9.62524
▁राजस्व	-9.6255
ुआ	-9.6257
सं	-9.62668
▁लि	-9.62718
▁फैंस	-9.62719
ॉल	-9.62859
▁जोधपुर	-9.62909
▁उद्योग	-9.63077
!	-9.63101
▁स्थापना	-9.63101
ियो	-9.63121
▁खड़ी	-9.63155
▁रूस	-9.63165
▁भीषण	-9.63295
▁हरि	-9.6342
▁खाना	-9.63428
▁कप्तान	-9.63433
▁बच	-9.63452
▁अच्छे	-9.63488
पति	-9.63503
▁अरब	-9.63505
ाइट	-9.63541
▁CM	-9.63548
▁हु	-9.63632
▁एसडीएम	-9.63681
▁लक्ष्मी	-9.63708
▁पु	-9.63719
▁दर्जन	-9.6391
▁चलाया	-9.63965
▁संदेश	-9.6408
▁नियुक्त	-9.64163
▁ईरान	-9.6417
णी	-9.64276
▁वृद्धि	-9.64284
▁ऑस्ट्रेलिया	-9.64289
▁खाने	-9.64355
दास	-9.64393
:30	-9.64395
पिता	-9.64444
c	-9.64515
▁अंतरराष्ट्रीय	-9.64659
▁यात्री	-9.64679
▁वकील	-9.64768
▁प्रेस	-9.64777
▁रेट	-9.64835
▁कार्यकाल	-9.64882
▁32	-9.64955
चर	-9.64969
U	-9.65
▁स्वीकार	-9.65248
▁विज्ञान	-9.65252
▁वीर	-9.65266
▁J	-9.65338
▁हटाने	-9.65393
कों	-9.65404
वान	-9.65418
▁वाराणसी	-9.65442
▁गठन	-9.65443
घर	-9.65568
▁कानपुर	-9.65603
दे	-9.65633
▁खूब	-9.6564
▁धाम	-9.65713
▁साथी	-9.65751
ूर	-9.65814
▁जरूर	-9.65862
▁पवन	-9.65879
▁स्वामी	-9.65902
▁लेना	-9.65918
▁तहसील	-9.66019
▁गैंग	-9.66046
▁डेढ़	-9.66048
▁दम	-9.66102
▁सौ	-9.66172
▁नाराज	-9.66173
▁पाली	-9.66174
▁उद्घाटन	-9.66235
▁l	-9.66257
▁H	-9.66292
▁अंतर	-9.66313
▁स्टेडियम	-9.66435
▁कैमरे	-9.66435
or	-9.6646
हि	-9.66481
▁न्यू	-9.66486
शि	-9.66508
▁प्राण	-9.66523
▁नियुक्ति	-9.66578
▁विकसित	-9.66648
हम	-9.6675
▁बम	-9.66797
जि	-9.66823
▁अतिक्रमण	-9.66834
▁अध्यक्षता	-9.66894
▁राजेंद्र	-9.66904
▁डाला	-9.66997
▁दोबारा	-9.67035
▁सोरेन	-9.67039
▁चौ	-9.67067
▁भजन	-9.67067
मत	-9.67091
▁लड़ाई	-9.67117
▁बढ़ावा	-9.67138
▁खुशी	-9.67184
▁मीटिंग	-9.6725
▁गोपाल	-9.67264
▁श्रद्धालुओं	-9.67272
▁चाहती	-9.67273
▁500	-9.67346
▁नहर	-9.67354
वाई	-9.67389
▁सूरज	-9.67437
▁शानदार	-9.6744
▁एरिया	-9.67512
▁सख्त	-9.67557
▁सिम	-9.67567
वानी	-9.67773
▁संभव	-9.67841
▁आशंका	-9.67841
िर	-9.67897
▁रहीं	-9.67983
▁कश्मीर	-9.6799
▁पुरस्कार	-9.68043
▁News	-9.68044
▁महोत्सव	-9.68049
कारी	-9.68093
▁चा	-9.68234
▁होनी	-9.6828
▁कैद	-9.68413
▁स्प	-9.68425
▁गिरा	-9.68436
कि	-9.68439
▁पंडित	-9.6846
▁2014	-9.68477
▁K	-9.68537
▁जिन्हें	-9.68652
▁रांची	-9.68652
हे	-9.68798
▁सुरेश	-9.68799
▁छत	-9.68819
▁दस	-9.68827
▁इंस्पेक्टर	-9.68857
ानंद	-9.689
▁पल	-9.68962
▁गोल्ड	-9.6909
▁दिनेश	-9.69287
▁शि	-9.69321
▁बचा	-9.69353
डे	-9.69522
▁तस्कर	-9.69595
▁सिख	-9.69693
▁पहल	-9.69846
रन	-9.69856
▁मिशन	-9.69926
▁पदों	-9.69938
▁कारोबार	-9.69949
▁सोनी	-9.69986
▁अरुण	-9.7009
▁विष्णु	-9.7009
▁सुंदर	-9.70102
वाड़ा	-9.7014
▁एक्शन	-9.70178
▁राजकुमार	-9.7031
रों	-9.70312
▁समस्याओं	-9.7043
▁गोल	-9.70501
f	-9.70504
▁कैबिनेट	-9.70504
▁संजीव	-9.70556
▁कैंप	-9.70598
▁सका	-9.7066
▁लड़के	-9.70693
▁संस्कार	-9.70712
▁सार्वजनिक	-9.70712
▁जानिए	-9.70752
▁जि	-9.70785
▁शहरों	-9.70807
▁बैग	-9.70829
▁नियमों	-9.70833
▁प्रवक्ता	-9.70921
▁गौतम	-9.70924
n	-9.70931
ल्ला	-9.71003
▁मिलती	-9.71025
▁अपराधियों	-9.71031
ठा	-9.71044
▁प्रोफेसर	-9.71129
▁जगहों	-9.71213
ाइज	-9.71216
स्	-9.71316
25	-9.71332
▁सिन्हा	-9.71338
▁अखिलेश	-9.71444
▁फूल	-9.71519
▁अफसरों	-9.71576
▁सत	-9.71711
▁गांवों	-9.71746
▁वेतन	-9.71813
ाक	-9.71815
▁धरना	-9.71833
स्प	-9.71873
▁मौजूदा	-9.71896
ोट	-9.71916
▁पहुंचाया	-9.71935
▁प्रतिष्ठा	-9.71958
▁पेट	-9.71966
▁ट्रैक	-9.71984
ुर	-9.72016
▁90	-9.72016
▁चलाने	-9.72042
▁बल्लेबाज	-9.7218
▁आबादी	-9.7218
▁आपका	-9.72184
10	-9.72246
नर	-9.72369
▁आवश्यकता	-9.72565
▁साहिब	-9.72603
▁भव्य	-9.72616
▁चेतावनी	-9.72815
▁विनोद	-9.72815
▁पंकज	-9.72816
▁हल्की	-9.73028
▁कर्नाटक	-9.73241
▁कमजोर	-9.73242
▁बातें	-9.73381
ड़िया	-9.73499
▁बिगड़	-9.73513
▁रोल	-9.73545
णा	-9.73633
K	-9.7364
▁पर्यावरण	-9.73669
▁लुधियाना	-9.73669
▁गाय	-9.73687
▁जज	-9.73714
▁बॉल	-9.73792
24	-9.73802
▁अंडर	-9.73928
▁टू	-9.74023
▁निगरानी	-9.74099
▁सांस्कृतिक	-9.74099
▁पेंशन	-9.74099
▁एंट्री	-9.74101
▁छोटी	-9.74124
ढ	-9.7418
▁ऊर्जा	-9.74314
▁ट्रांसफर	-9.74315
▁उपचुनाव	-9.74317
▁व्यक्त	-9.74325
▁विदेशी	-9.74372
▁दिवसीय	-9.74396
▁दलों	-9.74396
▁अपर	-9.74479
▁ट्रंप	-9.74541
▁हि	-9.7459
▁संभाल	-9.74624
▁गैस	-9.74681
▁काल	-9.74712
▁गोविंद	-9.74747
▁चाकू	-9.74752
▁कमल	-9.74874
▁चांदी	-9.74876
सू	-9.74944
▁आदिवासी	-9.74974
▁योगदान	-9.74978
▁रानी	-9.74981
सूस	-9.75002
▁निकाली	-9.75031
▁2020	-9.75057
▁भाषा	-9.75072
▁जुट	-9.75118
▁पश्चिमी	-9.75125
▁आकाश	-9.75181
▁गतिविधियों	-9.75183
▁चारों	-9.75193
द्ध	-9.75221
▁छूट	-9.75229
▁नंद	-9.7527
ल्ट	-9.75296
▁विधि	-9.75329
▁रास्ता	-9.75399
मि	-9.75419
▁कोटा	-9.75425
▁कपड़े	-9.7563
र्न	-9.75664
▁लाखों	-9.75749
▁दस्तावेज	-9.75796
्ता	-9.75933
ग्र	-9.75969
▁समान	-9.75984
▁गर्म	-9.76035
▁बधाई	-9.76055
▁ससुराल	-9.76059
▁हे	-9.76203
्त	-9.76279
b	-9.76327
▁टकरा	-9.76343
▁गायब	-9.76379
▁अर	-9.76489
▁सुभाष	-9.76495
▁इंटर	-9.76532
ंगा	-9.76588
▁डो	-9.76631
▁पाठ	-9.76649
▁झूठ	-9.76938
▁स्ट	-9.76982
मर	-9.77017
मल	-9.77078
▁मुक्त	-9.77091
पत्र	-9.77107
▁इन्हें	-9.77159
▁बिक्री	-9.77164
sh	-9.7717
▁आचार्य	-9.77202
▁इंडस्ट्री	-9.77209
कल	-9.77211
▁33	-9.7728
en	-9.77337
सन	-9.77376
▁नजदीक	-9.77381
▁सारे	-9.77398
▁भक्तों	-9.77412
▁सै	-9.7747
▁उत्सव	-9.77541
▁भक्त	-9.77573
▁मेहनत	-9.77604
ीकरण	-9.77619
▁एनडीए	-9.77639
▁परियोजना	-9.77774
▁सोना	-9.77776
▁अफसर	-9.77797
जल	-9.77802
▁कंट्रोल	-9.77827
▁मस्जिद	-9.77827
▁हंगामा	-9.77827
▁खाद्य	-9.77975
ेक्ट	-9.78003
▁मानसिक	-9.7807
▁बोला	-9.78143
▁बचाव	-9.78163
▁पांडे	-9.78265
j	-9.78275
▁क्राइम	-9.78275
▁फैक्ट्री	-9.78275
▁संकल्प	-9.78275
▁उत्साह	-9.78402
▁लॉ	-9.78408
▁देती	-9.78452
▁स्तरीय	-9.78678
▁निकला	-9.78732
▁गैर	-9.78762
▁एड	-9.78777
दो	-9.78807
▁48	-9.78913
▁सुसाइड	-9.78951
अप	-9.78957
▁शक	-9.79093
▁PM	-9.79134
▁हिस्से	-9.79175
▁जीतने	-9.79347
▁कौशल	-9.79404
▁लगाते	-9.79598
▁साढ़े	-9.79631
▁परिवहन	-9.79631
▁संस्कृति	-9.79676
िनी	-9.79738
लर	-9.79812
▁खून	-9.79876
यो	-9.80058
▁गरीब	-9.80084
▁श्रीवास्तव	-9.80087
▁छीन	-9.8021
▁शा	-9.8028
▁संभाग	-9.80323
▁बॉक्स	-9.80333
▁सुनाई	-9.8041
▁वर्षा	-9.80413
▁पलट	-9.80435
पु	-9.80448
▁व्यापारी	-9.80555
धा	-9.80594
▁आएंगे	-9.80623
▁स्क	-9.80669
▁वित्तीय	-9.80826
ेलू	-9.80964
ढ़	-9.8104
▁मंगल	-9.81054
▁मानव	-9.81074
▁श्रीराम	-9.81121
्रो	-9.81164
ोज	-9.81194
▁जिम्मेदार	-9.81215
▁उज्जैन	-9.81237
बीर	-9.8125
▁पट	-9.81251
कुल	-9.81286
रत	-9.81299
▁कहती	-9.81366
▁E	-9.81696
▁कब्जा	-9.817
▁हल	-9.81756
दू	-9.81828
ः	-9.81879
▁इंडियन	-9.81933
पन	-9.82065
▁किरदार	-9.82154
▁अधिनियम	-9.82166
▁ठग	-9.82218
▁गति	-9.82291
▁प्रिंसिपल	-9.82399
▁वेबसाइट	-9.82399
▁सीधे	-9.824
▁कमाई	-9.82413
▁टोल	-9.82426
▁सत्य	-9.82468
धर	-9.82472
▁काबू	-9.82487
▁अक्स	-9.8251
▁अगल	-9.8255
िता	-9.82571
▁मान्यता	-9.82634
▁चेयरमैन	-9.82634
र्थ	-9.8264
▁लागत	-9.82659
▁आना	-9.82683
▁ईडी	-9.82831
▁पारा	-9.82845
▁जितन	-9.82867
▁प्रियंका	-9.8287
▁टाटा	-9.82884
▁दवा	-9.82952
ब्र	-9.82955
▁मी	-9.83099
▁भ्रष्टाचार	-9.83104
▁रु	-9.83137
▁मजबूर	-9.8334
▁पकड़े	-9.83351
स्ट्र	-9.83366
ऊ	-9.83382
फे	-9.83418
▁दिखाया	-9.83431
▁लें	-9.83523
▁मुकाबला	-9.83611
▁हवाई	-9.83721
▁व्यापार	-9.83734
▁डीएसपी	-9.83818
▁नाग	-9.8384
▁वार	-9.8397
▁फीस	-9.8404
▁दाम	-9.84051
000	-9.84148
▁कानूनी	-9.84153
▁हिंदी	-9.84189
िय	-9.84253
▁दूध	-9.84289
▁कोहली	-9.84305
▁पांडेय	-9.84321
▁हटा	-9.84323
▁पासवान	-9.84399
▁संरक्षण	-9.84527
▁हिसाब	-9.84527
▁वापसी	-9.84597
रु	-9.84647
वाद	-9.84728
▁अर्जुन	-9.84766
▁आश्वासन	-9.84766
▁डिजाइन	-9.84766
▁अपडेट	-9.84767
▁ठेकेदार	-9.84774
▁केन्द्र	-9.84795
▁जुटी	-9.84895
▁राज्यपाल	-9.84935
▁खेला	-9.84966
▁उचित	-9.85014
▁स्कोर	-9.85022
▁शूटिंग	-9.85037
▁मतदाता	-9.85193
▁श्रेणी	-9.85247
▁अहमद	-9.85288
▁सोन	-9.85397
▁शेख	-9.85476
▁औसत	-9.85488
500	-9.85515
▁मुद्दों	-9.85729
▁एच	-9.85737
▁जैसा	-9.85755
▁चुन	-9.85833
▁नशा	-9.85922
▁निरीक्षक	-9.85971
▁कैलाश	-9.85971
▁फ्लाइट	-9.85976
▁सर्विस	-9.85978
▁पुरुष	-9.8598
▁हाथों	-9.86086
▁दोषी	-9.86092
▁भोजन	-9.861
▁रूट	-9.86188
▁प्लांट	-9.86214
▁संयोजक	-9.86214
▁तुलना	-9.86214
▁हजारों	-9.86398
▁प्रश्न	-9.86457
30	-9.86473
▁पंच	-9.86497
▁अवधि	-9.86497
',	-9.86544
ंडी	-9.86598
▁भंडार	-9.86705
▁रू	-9.86839
▁एमपी	-9.86925
▁यातायात	-9.86946
▁धार	-9.86956
▁विभागों	-9.86996
▁भु	-9.87019
▁लाश	-9.8715
▁विल	-9.87154
▁निभा	-9.87175
डि	-9.87211
▁चीफ	-9.87241
ाप	-9.87282
▁बुरी	-9.87309
▁ऑ	-9.87331
ध्य	-9.87367
▁मतगणना	-9.87436
▁सीबीआई	-9.87436
▁महासचिव	-9.87439
▁रोग	-9.8745
▁प्रयोग	-9.87459
▁लीक	-9.87466
▁रिश्तेदार	-9.87471
▁75	-9.875
▁अव	-9.87535
▁लंबी	-9.87683
▁ममता	-9.87685
▁दुबे	-9.87694
▁दीवार	-9.877
▁बनकर	-9.87794
वाला	-9.87797
▁वाद	-9.87803
▁मुद्दा	-9.8793
▁अजमेर	-9.87957
▁जिनक	-9.87964
द्द	-9.87979
ावत	-9.8799
▁गिरने	-9.88079
क्र	-9.88166
▁साय	-9.88176
▁विवेक	-9.88185
▁इनकार	-9.88211
▁महेश	-9.88231
ेयर	-9.88334
▁रै	-9.8835
▁आत्महत्या	-9.88425
▁लिमिटेड	-9.88427
▁निकलने	-9.8858
▁ट्रेनिंग	-9.88597
▁टो	-9.88604
."	-9.8861
▁निकली	-9.88628
▁प्रतिनिधि	-9.88662
▁मेडल	-9.88675
▁राउंड	-9.88697
▁मोर्चा	-9.88743
▁आगरा	-9.88803
it	-9.88815
▁यश	-9.8883
▁जीता	-9.88868
▁चाह	-9.88907
काल	-9.88908
▁जनरल	-9.88925
▁अमन	-9.89012
▁बै	-9.89014
▁एफ	-9.89031
एच	-9.89032
▁शुक्ला	-9.89121
ैया	-9.89156
▁इस्तीफा	-9.89174
▁शख्स	-9.89174
हन	-9.89245
देश	-9.89419
▁दशक	-9.89426
▁राज्यसभा	-9.89438
ियन	-9.89448
▁जिलाध्यक्ष	-9.89452
▁मजदूर	-9.89467
▁ट्रस्ट	-9.89519
जो	-9.89525
ल्स	-9.89576
▁ऐ	-9.89581
▁जाएं	-9.89604
ड्	-9.89667
▁सामग्री	-9.89675
▁डिजिटल	-9.89699
▁टाइम	-9.89739
▁प्रतिभा	-9.89748
▁36	-9.89806
▁आशीष	-9.89927
▁ऐलान	-9.89927
▁कथित	-9.89927
▁मेला	-9.90046
था	-9.90102
▁बांट	-9.90102
▁पक्षों	-9.90172
▁साझा	-9.90192
▁खर	-9.90207
▁बढ़ती	-9.9033
▁बैठ	-9.9039
▁मेले	-9.90415
▁त्योहार	-9.90433
▁हेमंत	-9.9044
▁ओम	-9.90463
▁बढ़कर	-9.90524
▁ज़	-9.90661
▁हड़ताल	-9.90687
▁खारिज	-9.90687
▁गोयल	-9.90695
▁प्राचार्य	-9.90705
▁लू	-9.90753
▁बताए	-9.90765
मू	-9.9077
▁नियमित	-9.90811
▁जोड़	-9.90844
▁कुलदीप	-9.90995
▁साथियों	-9.91041
▁भारती	-9.91057
र्द	-9.91094
▁सुना	-9.91186
▁पत्थर	-9.91192
▁जस्टिस	-9.91213
▁पाने	-9.91253
जू	-9.91359
▁नियंत्रण	-9.91452
▁महतो	-9.91452
▁मेन	-9.91459
▁प्रकरण	-9.91491
बू	-9.91501
▁प्रशासनिक	-9.91537
▁मू	-9.91621
▁शांत	-9.91659
▁बोर	-9.91692
▁ज्योति	-9.91693
श्री	-9.91703
्याप्त	-9.9172
ha	-9.9173
▁बेचने	-9.91749
▁पड़ेगा	-9.91766
▁चाहे	-9.91862
पत	-9.91963
▁कैंसर	-9.91966
▁शिफ्ट	-9.91967
पू	-9.92095
▁डूब	-9.92157
▁न्यायाधीश	-9.92223
▁छोटा	-9.92223
▁लापता	-9.92224
कांत	-9.92239
्रे	-9.92328
▁मूर्ति	-9.92343
▁अर्पित	-9.92595
शु	-9.92678
▁विधायकों	-9.9268
▁दौरे	-9.92684
ैर	-9.92715
▁तेजस्वी	-9.92741
ाकर	-9.92768
▁दिक्कत	-9.93001
▁रुख	-9.93169
▁कर्मी	-9.93197
▁खेती	-9.93233
▁400	-9.93234
डीए	-9.93426
▁पूर्वी	-9.93506
▁छात्राओं	-9.93515
▁धूप	-9.93522
▁काट	-9.9357
▁दुकानों	-9.93591
▁असम	-9.93678
▁सलाह	-9.9377
▁बिल्डिंग	-9.93784
▁मतलब	-9.93784
▁जनपद	-9.93784
▁2018	-9.93817
▁केरल	-9.93942
▁राधा	-9.93987
ँ	-9.93997
▁छा	-9.94027
▁शब्द	-9.94046
▁हफ्ते	-9.94097
ri	-9.94116
▁लीग	-9.94183
▁300	-9.942
▁बीमारी	-9.94231
▁टूर्नामेंट	-9.94309
▁संहिता	-9.94309
▁भरोसा	-9.9431
V	-9.94323
▁गोरखपुर	-9.94327
▁फंस	-9.94329
न्ह	-9.94439
▁टिप्पणी	-9.94573
▁नीरज	-9.94574
▁संकट	-9.94614
▁मतदाताओं	-9.94632
▁जाया	-9.94685
▁पार्किंग	-9.94728
▁पोर्टल	-9.94788
्च	-9.9483
▁पुष्टि	-9.94838
▁ड्रोन	-9.94838
▁गुना	-9.94845
▁आखिर	-9.94865
▁नागरिकों	-9.94925
▁पं	-9.94927
▁सकें	-9.94977
▁रखना	-9.9508
▁एक्सपर्ट	-9.95103
▁पदाधिकारियों	-9.95103
▁साजिश	-9.95103
▁प्रस्तुति	-9.95118
▁फाइल	-9.95125
▁तहसीलदार	-9.95126
▁मारकर	-9.95139
▁एक्टिव	-9.95185
▁घूम	-9.95192
पूर्ण	-9.95358
▁ओडिशा	-9.95369
▁लाइसेंस	-9.95369
▁विद्युत	-9.95369
▁समापन	-9.95372
▁विक्रम	-9.95387
▁अंकित	-9.95388
W	-9.95391
▁जू	-9.95403
▁34	-9.95481
▁रखें	-9.95541
▁होली	-9.95652
▁मौ	-9.95653
▁मैनेजर	-9.95719
▁टेक	-9.95738
▁जयंती	-9.95757
▁प्रावधान	-9.95903
▁बढ़ोतरी	-9.95903
▁जबलपुर	-9.95905
▁रेंज	-9.95933
▁सौंपा	-9.95981
▁अपराधी	-9.95996
र्म	-9.96025
नू	-9.96075
▁तु	-9.96097
▁प्रा	-9.96125
▁बैठा	-9.96154
▁चौराहे	-9.96171
▁मैसेज	-9.96171
▁पब्लिक	-9.96192
▁यूक्रेन	-9.96195
▁जोशी	-9.96205
▁प्री	-9.96219
▁मूल्य	-9.9625
▁मारे	-9.96256
▁क्रम	-9.96367
▁एग्जाम	-9.96441
▁मूवी	-9.9647
▁सकी	-9.96495
लू	-9.9657
at	-9.96679
शिप	-9.96693
▁गुर्जर	-9.9671
▁कनाडा	-9.9671
▁कराए	-9.96736
60	-9.96812
▁तर	-9.9684
▁दौरा	-9.96859
▁उसको	-9.96864
▁दर्द	-9.97016
▁विद्या	-9.97028
▁विहार	-9.97038
इन	-9.97042
▁पड़ोसी	-9.97065
▁इंजीनियर	-9.97167
▁घंट	-9.97193
▁कार्यवाही	-9.97251
▁नृत्य	-9.97251
▁निशान	-9.97408
स्व	-9.97452
▁हिस्सों	-9.97523
▁फॉर्म	-9.97557
▁थानाध्यक्ष	-9.9756
▁मारा	-9.97589
-3	-9.97602
▁गुल	-9.97612
▁बाघ	-9.97626
▁तकनीकी	-9.97649
▁विराट	-9.97795
▁तनाव	-9.97801
▁लड़ने	-9.97968
टन	-9.98007
ियत	-9.98128
▁जागरूकता	-9.98186
▁स्मार्ट	-9.98342
▁रिजल्ट	-9.98344
▁बच्चा	-9.98356
वती	-9.98367
▁आपूर्ति	-9.9838
▁शुल्क	-9.9839
िप	-9.98462
▁अभ्यर्थियों	-9.98617
▁कंगना	-9.98618
▁जुड़ा	-9.98689
▁लेंगे	-9.98725
▁दोस्तों	-9.98825
▁सच	-9.98829
पास	-9.98835
ार्थ	-9.98891
▁अक्षय	-9.98893
▁नमः	-9.98896
ठी	-9.98904
▁निधन	-9.98913
▁संगीत	-9.99104
दि	-9.99149
▁दुर्ग	-9.99162
▁रिजर्व	-9.9917
▁हिसार	-9.99171
▁कहने	-9.99208
ूं	-9.99297
▁चढ़ा	-9.9934
▁जिसने	-9.99343
▁जिंदगी	-9.99446
▁शुभारंभ	-9.99446
▁जताया	-9.99465
▁खुले	-9.9947
75	-9.99474
▁लिखित	-9.99491
▁सां	-9.99682
▁घटनाओं	-9.99753
▁कॉन्फ्रेंस	-10
ीर	-10.0001
धाम	-10.0007
▁कारोबारी	-10.001
▁फ्री	-10.0015
िड	-10.0016
▁फांसी	-10.0028
▁वैसे	-10.003
▁डांस	-10.0032
▁दुख	-10.0035
14	-10.0044
▁सदन	-10.0047
▁एप	-10.0048
▁कन	-10.0049
▁बनाना	-10.0052
दाय	-10.0053
▁परंपरा	-10.0056
▁आशीर्वाद	-10.0056
▁दलित	-10.0056
▁सफर	-10.0061
▁जुर्माना	-10.0064
▁पंप	-10.0071
▁ताला	-10.0074
त्	-10.008
▁रज	-10.0081
▁चलता	-10.0084
▁संगठनों	-10.0107
▁टीचर	-10.0107
▁मानना	-10.0108
▁ग्राहक	-10.0112
▁विजेता	-10.0112
▁तत्कालीन	-10.0115
तन	-10.0119
▁पीठ	-10.0135
▁सारी	-10.0136
▁बिलासपुर	-10.0141
▁हैदराबाद	-10.0141
▁नो	-10.0152
▁गले	-10.0161
▁कितनी	-10.017
40	-10.0173
▁स्वतंत्रता	-10.0174
▁दिलीप	-10.0197
▁नही	-10.0213
▁सेंट्रल	-10.0226
▁पर्यटन	-10.0226
▁जानें	-10.0227
यन	-10.0228
▁सचिन	-10.0228
▁परिवर्तन	-10.0233
▁प्रारंभ	-10.0237
▁सुर	-10.0237
ेस्ट	-10.0238
▁आधारित	-10.0239
▁जवानों	-10.024
▁देखें	-10.0253
▁पीट	-10.0267
▁मचा	-10.027
▁भरी	-10.0288
कू	-10.0295
▁जितेंद्र	-10.0312
▁गढ़	-10.0313
▁चढ़	-10.0319
ैल	-10.0319
▁गार्ड	-10.032
▁परिवारों	-10.0321
▁जागरूक	-10.0328
▁खतरा	-10.034
▁फार्म	-10.0341
▁शाखा	-10.0343
▁कितना	-10.0343
▁इंजन	-10.0346
▁पिछली	-10.0349
▁क्षेत्रीय	-10.0355
पे	-10.0355
▁मोह	-10.0358
▁ते	-10.0364
▁लेख	-10.0366
▁प्रेरित	-10.037
▁पुराना	-10.0371
▁पालिका	-10.0374
▁सांप	-10.0381
▁पीने	-10.0384
▁बदला	-10.0398
▁इलेक्ट्रिक	-10.0399
▁टीमें	-10.0403
▁साहब	-10.0405
▁उधर	-10.0406
▁राजद	-10.0409
▁तस्करी	-10.041
▁केंद्रों	-10.0413
▁मिस	-10.0424
▁बच्चन	-10.0428
▁ग्रहण	-10.043
am	-10.0431
▁37	-10.0437
▁दिलाने	-10.0443
▁देखी	-10.0446
▁उत्पादन	-10.0447
▁बीए	-10.045
▁पत्रकार	-10.045
▁विपक्षी	-10.0454
▁राजपूत	-10.0457
▁इस्लाम	-10.0457
▁गुट	-10.046
ैन	-10.0461
▁गीता	-10.0465
▁लीटर	-10.0469
▁सीकर	-10.047
▁भावना	-10.0478
▁बिजनेस	-10.0486
▁अपहरण	-10.0486
▁जायसवाल	-10.0486
▁पौधे	-10.0486
▁बदलने	-10.0489
▁महेंद्र	-10.0489
▁सिंघ	-10.0493
▁सोनू	-10.0494
चल	-10.0499
।"	-10.0499
▁कोचिंग	-10.0501
li	-10.0502
▁0	-10.0504
▁मंजूरी	-10.0505
▁मोड़	-10.0509
▁खंड	-10.0515
▁मुंह	-10.0515
वाह	-10.0524
▁इसराइल	-10.0526
▁बुरा	-10.0529
80	-10.053
▁पूछ	-10.0541
▁सेट	-10.0542
▁सैकड़ों	-10.0545
▁चौराहा	-10.0545
▁पैदल	-10.0545
▁बजाय	-10.0554
▁वादा	-10.0556
▁बदले	-10.0561
▁भट्ट	-10.0564
19	-10.0567
▁रोका	-10.0568
▁श्रद्धालु	-10.0569
बाजी	-10.057
ायब	-10.0573
▁चेहरे	-10.0574
▁अभि	-10.0579
यिक	-10.058
▁ऐप	-10.0581
ाइल	-10.0582
▁राजू	-10.059
▁महज	-10.0598
▁तहरीर	-10.0604
▁धूम	-10.0604
▁प्रभु	-10.0608
ीं	-10.0609
▁मॉ	-10.0619
▁खरीदी	-10.062
▁मल	-10.0628
तने	-10.0628
▁W	-10.0631
▁संपन्न	-10.0634
▁प्लेटफॉर्म	-10.0634
▁150	-10.0635
▁रहना	-10.0641
▁आशा	-10.0652
▁पदक	-10.0657
▁गाड़ियों	-10.0663
▁ताकत	-10.0663
▁किराए	-10.0664
▁जिक्र	-10.0664
▁लोन	-10.0669
.4	-10.0679
▁हों	-10.0679
▁खेले	-10.0684
गे	-10.0689
▁दुष्कर्म	-10.0693
▁सहमति	-10.0693
▁खेलने	-10.0694
▁बुला	-10.0695
▁विशेषज्ञ	-10.0707
▁गाली	-10.0708
re	-10.0717
▁ललित	-10.0724
▁आलम	-10.0724
▁वर्क	-10.0729
तम	-10.073
▁देवेंद्र	-10.073
ाएंगे	-10.0732
बाग	-10.0736
▁डीसी	-10.0739
शर	-10.0749
झा	-10.0754
▁सदस्यता	-10.0757
्वा	-10.0767
योग	-10.0775
▁मंत्र	-10.0776
प्त	-10.0779
▁महीन	-10.0779
द्र	-10.0781
जय	-10.0783
ारी	-10.0784
▁पाठक	-10.0786
▁महादेव	-10.0787
▁मिमी	-10.0788
▁फोर्स	-10.0788
▁खरीदने	-10.0796
▁बेस्ट	-10.0798
▁स्वयं	-10.0813
▁जगदीश	-10.0813
▁टाइगर	-10.0814
▁आइए	-10.0814
▁तुम	-10.0817
▁मिश्र	-10.083
▁भेजने	-10.0839
▁जिनके	-10.0842
▁अंसारी	-10.0844
▁रजिस्ट्रेशन	-10.0844
▁गिरोह	-10.0844
▁तमाम	-10.0844
▁कनेक्शन	-10.0844
गार	-10.0846
टू	-10.0855
▁संबंधी	-10.0856
21	-10.0873
▁FIR	-10.0874
▁शासकीय	-10.0874
▁तल	-10.0874
▁भड़क	-10.0875
▁नाराजगी	-10.0877
ीम	-10.0883
▁उठाए	-10.0887
▁पवार	-10.0887
न्त	-10.0894
▁भरने	-10.0895
▁डेट	-10.09
▁महाविद्यालय	-10.0905
▁मेरठ	-10.0905
▁सतीश	-10.0905
ोप	-10.0906
▁42	-10.0906
▁बहस	-10.091
वत	-10.0911
पट	-10.0916
▁लव	-10.0916
ून	-10.0927
▁जालंधर	-10.0935
▁रात्रि	-10.0935
▁लालू	-10.0937
▁नरेश	-10.094
▁पड़ताल	-10.094
▁बढ़ी	-10.095
कोट	-10.0953
▁बढ़त	-10.0963
▁विकल्प	-10.0966
▁कैमरा	-10.0966
▁हेल्थ	-10.0966
▁मिट्टी	-10.0967
ृत	-10.098
ुम	-10.0982
▁परि	-10.0982
▁जै	-10.0982
▁सुनकर	-10.0986
ti	-10.0986
▁भागने	-10.0989
▁गौ	-10.0992
▁चु	-10.0993
18	-10.0994
▁मुहूर्त	-10.0997
▁ग्रीन	-10.0997
▁जुटा	-10.0997
ोस	-10.0997
ur	-10.1001
▁करण	-10.1001
ज़ा	-10.101
▁टा	-10.1014
▁शास्त्री	-10.1025
जर	-10.1029
न्ना	-10.103
ग्	-10.1038
▁किरण	-10.1043
▁अंदाज	-10.1045
▁जल्दी	-10.1045
र्व	-10.1048
▁रच	-10.1051
15	-10.1053
वासियों	-10.1058
▁दर्शक	-10.1058
घाट	-10.1059
▁रोजाना	-10.106
▁माने	-10.1063
ाइड	-10.1086
▁देरी	-10.1087
x	-10.109
▁त्रिपाठी	-10.109
▁राजकीय	-10.109
▁सौरभ	-10.1091
▁एं	-10.1097
▁हट	-10.1103
▁मांगा	-10.1105
डो	-10.1111
▁अर्	-10.1114
▁मेट्रो	-10.1118
▁U	-10.1119
▁आदर्श	-10.1121
70	-10.1128
▁पार्ट	-10.1129
▁मारी	-10.1141
▁स्टूडेंट	-10.1143
टेक	-10.1148
▁बीमार	-10.115
▁प्रगति	-10.1152
▁{	-10.1153
▁पहाड़	-10.1167
17	-10.1175
▁मांगे	-10.1176
▁मात्रा	-10.1183
▁वसूली	-10.1187
▁बरसात	-10.1193
▁भोग	-10.1197
▁गहरा	-10.1198
▁हॉल	-10.1199
▁आपराधिक	-10.1215
▁प्रतिक्रिया	-10.1215
▁श्रीलंका	-10.1215
▁रिमांड	-10.1215
▁लाइफ	-10.1215
▁एएसआई	-10.1216
▁आदित्य	-10.1216
▁ग्राउंड	-10.1223
▁गली	-10.1225
ंभ	-10.123
एंगे	-10.1243
▁तीसरा	-10.1246
▁इमरजेंसी	-10.1248
▁बेल	-10.1251
वंत	-10.1255
िग	-10.1263
▁ख़	-10.1265
▁होंगी	-10.1266
▁बचने	-10.1275
▁प्राधिकरण	-10.1278
▁यूनियन	-10.1278
▁सकेगा	-10.1288
▁पहुंचाने	-10.1292
▁V	-10.1296
▁पात्र	-10.1302
▁55	-10.1308
▁अधिवक्ता	-10.131
▁थोड़ी	-10.131
दम	-10.1316
▁भरे	-10.1317
ज्ज	-10.1328
▁हुईं	-10.1331
▁खोज	-10.134
▁जबरदस्त	-10.1341
▁आश्रम	-10.1342
▁द्वितीय	-10.1342
▁संकेत	-10.1342
▁नेहरू	-10.1342
▁गीत	-10.1351
▁ऑफर	-10.1359
16	-10.1363
ालय	-10.1363
▁मंदिरों	-10.1366
▁बालक	-10.1371
▁बिल्कुल	-10.1373
▁हिमाचल	-10.1373
▁रोहतक	-10.1373
▁बस्ती	-10.1375
▁जीते	-10.1377
▁महंत	-10.1378
ंव	-10.1383
▁मैन	-10.1385
मैन	-10.1386
▁खिला	-10.1386
▁घेर	-10.1404
▁इंग्लैंड	-10.1405
▁प्रयागराज	-10.1405
▁टेंडर	-10.1406
▁आदित्यनाथ	-10.1407
▁2017	-10.1409
▁रहें	-10.1415
▁पू	-10.1421
▁उपाय	-10.1421
ुरी	-10.1426
प्रीत	-10.1426
▁रखकर	-10.1432
▁बहादुर	-10.1438
▁व्यवसाय	-10.1438
▁त्रि	-10.144
▁मास्टर	-10.144
▁विरोधी	-10.1442
▁बढ़ते	-10.1449
मैं	-10.1456
▁नेपाल	-10.1467
▁भाषण	-10.147
▁भक्ति	-10.1478
▁हमलावर	-10.1481
▁सद	-10.1484
▁फंड	-10.1486
▁मप्र	-10.1488
क्का	-10.149
▁डेटा	-10.1497
▁दुकानदार	-10.1499
▁अमृत	-10.1499
▁बिश्नोई	-10.1502
बु	-10.1507
▁संसदीय	-10.1508
▁स्वच्छता	-10.1509
▁रणनीति	-10.1514
▁बैटरी	-10.1518
न्न	-10.1518
▁रावत	-10.1528
पुरी	-10.1532
▁रिसर्च	-10.1535
▁शीर्ष	-10.1535
▁खनन	-10.1535
▁अनेक	-10.1537
▁खाद	-10.1552
▁मार्क	-10.1552
ॉट	-10.1564
▁बॉर्डर	-10.1567
▁महामंत्री	-10.1567
▁विरुद्ध	-10.1567
बाल	-10.1568
▁टीवी	-10.1583
▁सोम	-10.1593
▁हित	-10.1598
▁पथ	-10.1599
ुन	-10.16
▁उल्लंघन	-10.16
▁इवेंट	-10.16
▁38	-10.161
▁वै	-10.1623
▁प्ले	-10.1628
▁क्व	-10.1629
▁उड़	-10.1632
▁इजराइल	-10.1633
▁समीप	-10.1633
फर	-10.1633
▁हेतु	-10.1634
▁तलाशी	-10.1636
23	-10.1645
▁कोर्स	-10.1661
▁डिमांड	-10.1666
▁संसाधन	-10.1666
▁साइकिल	-10.1666
▁फ्ल	-10.1666
▁अरेस्ट	-10.1666
▁गठित	-10.1669
ad	-10.1672
▁आजाद	-10.1684
▁धीरे	-10.1691
ाब	-10.1691
ल्लू	-10.1695
12	-10.1698
▁ऋषि	-10.1699
▁रिश्वत	-10.1699
▁सुरेंद्र	-10.17
▁नरेन्द्र	-10.17
et	-10.1701
▁एशिया	-10.1706
कश्मीर	-10.1707
▁जख्मी	-10.1708
▁हक	-10.1709
▁तकनीक	-10.1718
▁आएगी	-10.1727
▁स्‍	-10.1728
▁पढ़ने	-10.173
▁अभियंता	-10.1732
▁एकादशी	-10.1732
▁बेंगलुरु	-10.1732
▁एंटी	-10.1735
▁जूनियर	-10.1737
▁बेस	-10.1742
▁कैश	-10.1747
▁आयु	-10.1752
▁निवास	-10.1765
▁निर्दलीय	-10.1765
▁तुलसी	-10.1765
▁स्नान	-10.1765
▁नर्सिंग	-10.1769
व्य	-10.1769
▁रंजन	-10.177
्ज	-10.1777
▁आरोपों	-10.1778
▁चुना	-10.1779
्द	-10.1782
th	-10.1797
▁पटवारी	-10.1798
▁लोकतंत्र	-10.1799
▁दिव्यांग	-10.18
पात	-10.1803
▁इंदिरा	-10.1832
▁चक्कर	-10.1833
▁जिंदा	-10.1833
▁अंग	-10.1836
ंडे	-10.1843
▁O	-10.1843
शाह	-10.1844
▁तस्वीरें	-10.1845
▁मृतका	-10.1846
गन	-10.1848
▁रोशन	-10.1854
िकल	-10.1854
▁प्राथमिकता	-10.1857
▁चित्र	-10.1858
▁संग	-10.1864
47	-10.1865
▁धोखाधड़ी	-10.1865
▁वैश्व	-10.1866
▁इंच	-10.1868
▁प्रार्थना	-10.1869
▁पायलट	-10.187
चि	-10.1876
▁चू	-10.1887
▁मानते	-10.1899
▁नोएडा	-10.1899
▁सुझाव	-10.1899
▁मिसाइल	-10.19
▁अकेले	-10.1907
▁पोस्टर	-10.1909
▁भले	-10.1912
▁तोड़कर	-10.1929
▁उत्पाद	-10.1931
धन	-10.1932
▁पिटाई	-10.1933
▁पूर्णिमा	-10.1933
▁फ्लैट	-10.1933
▁छोड़ने	-10.1938
श्त	-10.1941
▁डीजल	-10.1942
▁नाथ	-10.1948
▁टन	-10.1959
▁अति	-10.1961
▁रकम	-10.1969
▁ब्रेक	-10.1974
डिया	-10.1977
es	-10.1979
▁प्रबंधक	-10.1982
बो	-10.1989
हाल	-10.1991
्टी	-10.1991
▁नाले	-10.1994
▁जस	-10.1995
▁रिश्ते	-10.1996
▁मोटर	-10.1999
▁ब्रह्म	-10.2001
▁तमिलनाडु	-10.2001
▁शारीरिक	-10.2001
▁सबूत	-10.2001
▁खन्ना	-10.2003
▁कार्यरत	-10.2006
हट	-10.2008
▁क़	-10.2014
▁पुलिसकर्मी	-10.2024
पीएस	-10.203
▁राणा	-10.2037
▁हरा	-10.2038
पो	-10.2047
▁करोड़ों	-10.2056
▁उपस्थिति	-10.206
▁आधा	-10.2064
▁प्रदूषण	-10.2069
▁देगा	-10.207
▁चाचा	-10.207
▁छुट्टी	-10.207
▁स्टे	-10.2071
35	-10.2079
▁कस	-10.2084
▁विद्यार्थी	-10.2103
▁मुखिया	-10.2107
हु	-10.2113
ढ़ा	-10.2114
ांक	-10.2122
▁प्रेमी	-10.2123
▁आपने	-10.2124
▁ऐतिहासिक	-10.2138
▁बीकानेर	-10.2138
▁सपोर्ट	-10.214
▁कृष्णा	-10.2142
▁लड़कियों	-10.2142
▁कन्या	-10.2142
▁सहयोगी	-10.2144
▁उठाने	-10.2146
▁धा	-10.2147
▁दिला	-10.2149
▁गुणवत्ता	-10.2173
▁आभार	-10.2173
▁अमृतसर	-10.2174
▁शरण	-10.2178
वाली	-10.218
छा	-10.2182
▁फर	-10.2185
▁रस	-10.2193
▁भग	-10.2194
आधिकारिक	-10.2207
▁अफ्रीका	-10.2207
▁बाड़मेर	-10.2207
▁सैन्य	-10.2207
▁पीछा	-10.221
▁भूल	-10.2211
वादी	-10.2222
▁बिक	-10.2228
▁एसी	-10.2229
ाइन	-10.2236
यु	-10.2241
▁प्रसिद्ध	-10.2242
▁मोटरसाइकिल	-10.2242
▁खींच	-10.2242
▁लंबा	-10.2245
▁फॉर	-10.2247
▁पौ	-10.225
▁व्यापारियों	-10.2252
▁मेयर	-10.2253
▁चुरा	-10.2254
▁तट	-10.2254
▁निरा	-10.2256
▁न्यायिक	-10.2258
▁व्यक्तियों	-10.226
▁44	-10.2277
▁सुशील	-10.228
हो	-10.2281
▁भजनलाल	-10.2281
ुक	-10.2283
▁प्रशांत	-10.2283
▁शोध	-10.2293
क़	-10.2302
▁प्रतीक	-10.2303
▁उड़ान	-10.2308
मुख	-10.2312
▁अभ्यर्थी	-10.2312
▁सनातन	-10.2312
माल	-10.2316
▁मेहता	-10.2316
▁ॐ	-10.232
▁46	-10.2332
▁65	-10.2333
▁गज	-10.2337
▁बुक	-10.2339
▁बीज	-10.2342
▁कर्ज	-10.2345
▁कॉन्स्टेबल	-10.2347
▁रेस्क्यू	-10.2347
▁होम	-10.2349
ro	-10.235
▁लेवल	-10.2363
▁विधान	-10.2364
▁मात्र	-10.2368
▁मीना	-10.2368
▁खेतों	-10.2377
▁देगी	-10.2377
द्	-10.2378
▁रेस	-10.2379
▁सील	-10.2382
▁ज़्यादा	-10.2383
▁सामुदा	-10.2383
▁प्रतिदिन	-10.2383
▁प्रोग्राम	-10.2383
▁कारणों	-10.2388
▁मुक्ति	-10.2404
▁एकड़	-10.2409
▁स्मृति	-10.2418
▁हुसैन	-10.2418
▁डेंगू	-10.2418
▁फूड	-10.2418
▁लु	-10.2419
▁कलेक्शन	-10.2419
▁गये	-10.2425
▁आलोक	-10.2426
90	-10.2426
▁खतर	-10.2432
▁सुविधाओं	-10.2434
ोली	-10.2441
▁बैठकर	-10.2452
▁इंस्टाग्राम	-10.2454
▁सामूहिक	-10.2454
▁बैर	-10.2457
▁धु	-10.2459
ir	-10.2484
च्छ	-10.2489
▁अवॉर्ड	-10.2489
▁जुलूस	-10.2489
▁संशोधन	-10.2489
▁जाट	-10.2493
▁लगते	-10.2493
ंद्र	-10.25
▁जेपी	-10.2509
प्प	-10.2516
▁ऑफिसर	-10.2528
▁माफी	-10.2529
▁खरीदा	-10.2547
▁माध्यमिक	-10.2555
ॉय	-10.2557
▁प्रवीण	-10.2561
▁सब्जी	-10.2561
▁मोहल्ले	-10.2562
▁चावल	-10.2564
▁अनंत	-10.2566
▁सिपाही	-10.2568
▁कॉलेजों	-10.2574
▁इनका	-10.2584
स्टर	-10.2587
▁पदार्थ	-10.2589
▁स्पीकर	-10.2597
▁ढूंढ	-10.2598
▁तलाक	-10.2599
▁अंबानी	-10.2599
हान	-10.2599
▁द्वार	-10.26
▁फेल	-10.2608
▁चेन	-10.2619
▁कू	-10.2624
▁पप्पू	-10.2634
▁महापौर	-10.2634
▁व्यवहार	-10.2634
▁सिक्योरिटी	-10.2634
▁शर्त	-10.2634
ुद्दीन	-10.2634
▁मधु	-10.2634
▁लाठी	-10.2636
▁अधिकांश	-10.2637
22	-10.264
▁करे	-10.266
▁हराया	-10.266
▁कलेक्ट्रेट	-10.267
▁संध्या	-10.267
▁पिस्टल	-10.267
▁शैल	-10.2673
वाड़ी	-10.2674
ay	-10.2677
▁कुर्	-10.2679
▁सुविधाएं	-10.2679
▁चौथे	-10.2681
सो	-10.2683
▁गिल	-10.2691
▁गलती	-10.2697
▁हर्ष	-10.2697
▁दि	-10.2704
▁व्यापक	-10.2706
▁मांगने	-10.2709
▁लिंक	-10.271
▁संस्थानों	-10.2711
िशन	-10.2716
▁बसपा	-10.2723
▁पहन	-10.2737
▁माला	-10.2742
▁घोटाले	-10.2743
▁स्कूटी	-10.2743
▁उत्तराखंड	-10.2743
▁अमिताभ	-10.2743
un	-10.2743
▁मार्गदर्शन	-10.2747
कम	-10.2747
▁धर्मेंद्र	-10.275
▁मौजूदगी	-10.2761
बंध	-10.2762
लिंग	-10.2765
▁चार्ज	-10.2776
बंदी	-10.2778
▁सिलेंडर	-10.278
▁प्रमोद	-10.278
▁सीईओ	-10.278
▁स्वरूप	-10.2781
न्	-10.2781
▁बीबीसी	-10.2783
▁चे	-10.2788
▁रावण	-10.2793
▁लड़ा	-10.2797
▁समझा	-10.2798
▁गेंदबाज	-10.2806
▁परीक्षण	-10.2817
▁तबीयत	-10.2817
▁हसीना	-10.2817
▁दीपावली	-10.2817
▁ब्रिज	-10.2818
▁रतन	-10.282
▁कुलपति	-10.2823
▁आग्रह	-10.2825
दूसरे	-10.2829
▁गंभीरता	-10.2835
▁कांड	-10.2841
▁बू	-10.2844
ॉर्	-10.2845
▁चांद	-10.2846
▁आईं	-10.2847
नाम	-10.2849
▁बीमा	-10.285
▁भरत	-10.2853
▁चीनी	-10.2853
▁समर्पित	-10.2854
▁इंद्र	-10.286
▁औ	-10.286
▁जिलाधिकारी	-10.2861
▁यूजर्स	-10.2862
▁मंड	-10.2862
▁गर्ग	-10.2863
-5	-10.2874
▁सारा	-10.2877
▁बाज	-10.2884
▁रिहा	-10.2885
▁कार्यक्रमों	-10.2889
▁इंतजाम	-10.2891
▁झगड़ा	-10.2891
▁भाइयों	-10.2892
▁गोदाम	-10.2892
▁आतंकी	-10.2893
ंडर	-10.2895
चक	-10.2899
▁चलेगा	-10.2909
▁जगत	-10.2918
▁पड़ोस	-10.2918
▁आएगा	-10.2922
▁अनिवार्य	-10.2928
▁एंबुलेंस	-10.2928
▁ट्रॉफी	-10.2928
▁समुद्र	-10.2928
▁पवित्र	-10.2928
प्ल	-10.2929
▁हरकत	-10.2929
▁स्वर्ण	-10.2929
▁मनोहर	-10.2929
▁कामयाब	-10.2931
▁चंदन	-10.2932
11	-10.2933
▁गुप्त	-10.2937
विंदर	-10.2938
क्की	-10.2939
▁ढाई	-10.294
▁बोली	-10.2944
▁पुलिसकर्मियों	-10.2945
▁सांस	-10.2946
▁भेजे	-10.2955
▁फुल	-10.2958
ed	-10.296
▁मजदूरी	-10.2963
▁कटौती	-10.2966
ुष	-10.2967
▁इकाई	-10.2967
▁एसएसपी	-10.2968
▁सन	-10.2971
ाऊ	-10.2976
▁आईडी	-10.2978
▁आत्म	-10.2984
▁बैक	-10.2988
▁दिग्गज	-10.3003
▁जनसभा	-10.3004
▁बसों	-10.3006
▁सास	-10.3012
अर	-10.3032
़ी	-10.3036
▁चीजों	-10.3042
▁कुंड	-10.3045
वेल	-10.305
▁जुड़	-10.305
ियम	-10.3051
-4	-10.3055
▁जला	-10.3057
▁शहरी	-10.3061
▁तैयारियां	-10.3061
▁यहीं	-10.3066
▁लौटा	-10.3072
▁मनाई	-10.3076
▁प्रतिपक्ष	-10.3079
▁रहकर	-10.308
▁डालने	-10.3082
र्ण	-10.3083
ोद	-10.3091
27	-10.3092
.1	-10.3097
्लो	-10.3102
▁मिलाकर	-10.3104
श्व	-10.3113
▁गाने	-10.3113
▁धर	-10.3116
डब्ल्यू	-10.3117
▁ओलिंपिक	-10.3117
▁क्षतिग्रस्त	-10.3117
▁इच्छा	-10.3117
▁मृत्यु	-10.3118
पूर्वक	-10.312
▁समक्ष	-10.3121
▁पॉ	-10.3121
il	-10.3128
▁कृपा	-10.3134
्यु	-10.3141
▁सिल	-10.3146
▁स्टोर	-10.3146
क्शन	-10.3147
▁फ्र	-10.315
55	-10.3152
▁फाउंडेशन	-10.3155
▁आंध्र	-10.3155
▁ब्रांच	-10.3155
▁पुणे	-10.3155
▁इंसान	-10.3156
▁चालू	-10.3158
▁सुमित	-10.3161
▁अस्पतालों	-10.3162
13	-10.3179
शील	-10.3182
▁तिरंगा	-10.3194
▁मुजफ्फरपुर	-10.3195
▁नक्सलियों	-10.3196
▁समर्थकों	-10.3202
▁शेष	-10.3203
▁संबंधों	-10.3204
लेट	-10.3212
w	-10.3216
सल	-10.3218
खी	-10.322
▁बाजारों	-10.3232
▁संज्ञान	-10.3233
▁सिंगल	-10.3241
लैंड	-10.3251
▁अखिल	-10.3251
and	-10.3259
▁मजदूरों	-10.3267
▁तिलक	-10.3267
▁आह्वान	-10.3271
▁राठौड़	-10.3271
▁डिटेल	-10.3271
▁नाटक	-10.3271
▁राशिफल	-10.3272
▁समस्त	-10.3274
▁समाजवादी	-10.3274
ाचार्य	-10.3276
▁उदय	-10.3277
▁फंसा	-10.3277
▁सुनीता	-10.328
▁कुशवाहा	-10.3285
▁पंत	-10.3287
▁मित्र	-10.3291
▁41	-10.3301
▁पाकिस्तानी	-10.3304
▁बड़	-10.3308
▁साइंस	-10.3311
▁39	-10.332
ch	-10.3321
▁काशी	-10.3322
▁सेवाएं	-10.3332
▁हाथी	-10.3333
धिकारी	-10.3342
हरी	-10.3343
▁गौर	-10.3348
▁प्रणाली	-10.3348
▁भूपेंद्र	-10.3348
▁पिकअप	-10.3348
▁समर्थक	-10.3349
भी	-10.3352
▁काली	-10.3354
▁छोड़ा	-10.3355
▁कलाकारों	-10.3357
▁सीख	-10.3362
ट्स	-10.3373
ायर	-10.3376
▁कैंडिडेट	-10.3379
▁कार्तिक	-10.3387
▁एडवोकेट	-10.3387
▁दफ्तर	-10.3387
▁शायद	-10.3387
▁शरद	-10.3387
▁सर्च	-10.339
ing	-10.3392
▁सीए	-10.3394
ऑ	-10.3395
▁जाएंगी	-10.3399
▁लुक	-10.34
डीह	-10.3404
बाज	-10.3405
्टर	-10.3411
▁ऑन	-10.3411
पूर्व	-10.3426
▁कलाकार	-10.3426
▁औद्योगिक	-10.3426
▁गयी	-10.3429
▁उपकरण	-10.3432
▁ब्लड	-10.3432
अपने	-10.3433
▁सीओ	-10.344
▁अत्य	-10.3446
▁नम	-10.3463
▁स्मार्टफोन	-10.3466
▁बालिका	-10.3469
▁अलवर	-10.3471
▁बाई	-10.3474
▁बाबू	-10.3478
▁51	-10.3494
▁घु	-10.3496
▁राह	-10.3497
शे	-10.3499
रदार	-10.3504
▁मथुरा	-10.3505
▁बॉडी	-10.3505
▁यौन	-10.3505
▁शतक	-10.3506
▁बिहारी	-10.3507
▁लिख	-10.3507
▁मर्डर	-10.3507
▁हंस	-10.3512
▁पूर्णिया	-10.3512
na	-10.3514
▁जानी	-10.3525
▁हाइ	-10.3526
▁प्रभावी	-10.3544
▁दरवाजा	-10.3545
▁प्रॉपर्टी	-10.3545
शो	-10.3548
▁गवाह	-10.355
▁शशि	-10.355
▁X	-10.3562
▁किशन	-10.3568
▁चलाई	-10.3572
▁भगत	-10.3574
▁मदन	-10.3576
▁वैज्ञानिक	-10.3577
▁चलती	-10.358
▁बेहोश	-10.3585
▁मंजिल	-10.3585
▁आसमान	-10.3588
▁बतौर	-10.3589
▁शोर	-10.3589
▁2016	-10.359
▁कविता	-10.3592
▁दत्त	-10.3601
▁पीटा	-10.3608
▁उतारा	-10.3624
▁अनुरोध	-10.3625
▁तृतीय	-10.3625
▁बनर्जी	-10.3625
▁सपना	-10.3625
▁नारेबाजी	-10.3625
▁वोटर	-10.363
▁इनाम	-10.3633
▁मंत्रियों	-10.3634
▁आमजन	-10.3638
▁शेर	-10.3653
बि	-10.3662
▁पाइप	-10.3665
▁धन्यवाद	-10.3665
▁हिंदुओं	-10.3665
▁खंगाल	-10.3665
▁अटल	-10.3667
-10	-10.3667
्‍स	-10.3668
▁कपिल	-10.367
▁बेहतरीन	-10.367
▁जानकार	-10.3671
▁दादा	-10.3672
▁प्रतिबंध	-10.3702
▁चौटाला	-10.3705
▁हार्दिक	-10.3705
▁जाहिर	-10.3706
▁चेहरा	-10.3706
▁स्पोर्ट्स	-10.3707
▁फीचर्स	-10.371
▁टेबल	-10.371
▁असल	-10.3714
▁रियल	-10.3717
▁आइ	-10.373
िफ	-10.3732
धारी	-10.3734
▁कमलेश	-10.3743
▁सिनेमा	-10.3745
▁ब्रिगेड	-10.3746
▁थोड़ा	-10.3747
▁जंग	-10.3748
▁राशन	-10.375
▁दिखाने	-10.3753
छात्राओं	-10.3762
▁रथ	-10.3764
▁चाय	-10.3771
▁बीती	-10.3775
▁प्रेरणा	-10.3787
▁पढ़िए	-10.3789
▁प्रबंध	-10.379
नु	-10.3797
ूंगा	-10.3797
▁विज	-10.3804
▁रीवा	-10.3806
कर्मी	-10.3817
▁मध्यम	-10.3819
▁आंखों	-10.3819
▁शुभम	-10.382
▁नेटवर्क	-10.3827
▁श्रद्धांजलि	-10.3827
▁अम	-10.3838
भारत	-10.3845
▁in	-10.3849
▁बढ़ाया	-10.3854
चे	-10.3856
बिन	-10.3858
ंका	-10.3865
▁ख़िलाफ़	-10.3868
▁टेक्नोलॉजी	-10.3868
▁अनुराग	-10.3868
▁बनाते	-10.3868
▁ऑर्डर	-10.3869
वाया	-10.3871
▁व्यक्तिगत	-10.3876
▁साइड	-10.3879
▁इंजीनियरिंग	-10.3881
▁43	-10.3881
▁अज	-10.3884
यान	-10.3888
डर	-10.3891
▁गेम	-10.3903
▁पुष्प	-10.3908
z	-10.3909
▁उदाहरण	-10.3909
▁जहाज	-10.3911
▁गश्त	-10.3914
▁आपस	-10.3915
▁मानी	-10.3922
▁एसआई	-10.3925
धीरे	-10.3926
▁अध	-10.3936
▁आपसी	-10.3938
यह	-10.3942
▁छेड़छाड़	-10.3951
▁ब्राह्मण	-10.3951
▁खाता	-10.3954
▁टि	-10.3961
34	-10.3964
▁आईटी	-10.3967
....	-10.3974
स्म	-10.3977
99	-10.3987
ेरा	-10.3987
▁अंज	-10.3991
▁समझौता	-10.3992
▁तीर्थ	-10.3992
▁शिवसेना	-10.3992
▁स्कीम	-10.3993
▁ऑल	-10.3994
▁लिये	-10.3996
▁बिग	-10.3997
▁बहु	-10.4
कॉम	-10.4003
▁मलिक	-10.4009
▁चलेगी	-10.401
▁मनाने	-10.4011
▁चेकिंग	-10.4015
▁काटने	-10.4028
▁मशहूर	-10.4034
▁फैला	-10.4034
▁टाउन	-10.4034
▁अरोड़ा	-10.4034
▁महाकाल	-10.4035
▁ट्रेड	-10.4051
▁खासकर	-10.4054
▁रिपोर्ट्स	-10.4059
शंकर	-10.4062
▁छिपा	-10.4067
▁सैनिक	-10.407
ैक	-10.4073
तू	-10.4074
▁गला	-10.4075
▁उपाध्याय	-10.4076
▁टारगेट	-10.4076
▁सर्टिफिकेट	-10.4076
▁रेड्डी	-10.4076
▁आलोचना	-10.4076
▁पुर	-10.4092
▁लोकेशन	-10.4096
▁जोड़ी	-10.4097
्मा	-10.41
▁फिल्में	-10.4114
▁हाे	-10.4115
▁तेलंगाना	-10.4118
▁मजिस्ट्रेट	-10.4118
▁अर्थव्यवस्था	-10.4118
▁प्रोसेस	-10.4118
▁हुड्डा	-10.4119
▁मोहल्ला	-10.4119
▁महावीर	-10.4121
त्व	-10.4124
▁दबा	-10.4128
▁लाई	-10.4138
▁अजीत	-10.4147
▁डालकर	-10.4149
▁47	-10.4153
▁संभावित	-10.416
▁सैंपल	-10.416
▁ब्याज	-10.416
▁माधव	-10.4161
▁विनय	-10.4161
▁आमिर	-10.4165
▁करनाल	-10.4166
▁जीती	-10.4168
नपुर	-10.4171
▁आंकड़े	-10.4173
▁धो	-10.4182
ाउंड	-10.4185
▁ग्रे	-10.4186
28	-10.4188
▁कलश	-10.4189
▁जोड़ने	-10.419
▁एजेंट	-10.4202
▁झांसी	-10.4202
▁बजरंग	-10.4203
▁शुद्ध	-10.4203
ॉन	-10.4205
▁मोड	-10.4206
▁दिखे	-10.4206
▁आर्य	-10.4213
▁गोद	-10.4222
रूप	-10.4223
▁उठाकर	-10.4239
ट्ट	-10.4261
वाने	-10.4264
48	-10.4268
▁सिं	-10.4271
▁शिवराज	-10.4276
▁पैस	-10.4278
26	-10.4279
▁एडमिशन	-10.4288
▁गहलोत	-10.4288
▁गाड़ियां	-10.4288
▁गारंटी	-10.4288
▁बघेल	-10.4288
▁सकारात्मक	-10.4288
▁संदेह	-10.4288
▁एटीएम	-10.4288
▁ब्रांड	-10.4288
▁संभल	-10.4288
▁हैरान	-10.4289
▁शुक्ल	-10.4297
▁सुमन	-10.4299
▁वजन	-10.4305
हत	-10.4314
▁सीता	-10.4317
▁किशोरी	-10.432
▁01	-10.4328
▁कूद	-10.4328
▁मासूम	-10.4331
▁लंबित	-10.4331
▁मैनेजमेंट	-10.4331
▁वार्ता	-10.4332
▁कर्म	-10.4334
▁कैंट	-10.4337
▁भेजी	-10.4341
गण	-10.4344
▁सावन	-10.4345
ढ़ी	-10.4348
▁नकली	-10.435
▁लहर	-10.4351
▁हसन	-10.4353
▁नारे	-10.4358
सागर	-10.4358
▁अल्	-10.4361
▁कमला	-10.4362
▁जर	-10.4364
लाइन	-10.4369
▁वसूल	-10.437
▁सुनने	-10.4373
▁चेन्नई	-10.4374
▁सिंचाई	-10.4374
▁अमल	-10.4379
▁बचे	-10.4402
65	-10.4403
▁स्वीकृति	-10.4408
05	-10.4417
▁नितिन	-10.4417
▁गुलाब	-10.4419
▁टै	-10.4423
▁फि	-10.4424
▁नीट	-10.4426
मय	-10.4428
ic	-10.4433
कृष्ण	-10.4433
▁आजादी	-10.4437
▁सतना	-10.4441
सूर	-10.4443
▁इम	-10.4455
जान	-10.4456
▁ग्लोबल	-10.446
▁निलंबित	-10.446
▁निरस्त	-10.4461
▁बहुमत	-10.4461
▁रविंद्र	-10.4462
▁खेली	-10.4465
▁करो	-10.4468
▁मानक	-10.447
▁ब्ल	-10.4471
▁ताल	-10.4471
▁आक्रोश	-10.4498
भूत	-10.4503
▁फर्स्ट	-10.4504
▁लक्ष्मण	-10.4504
▁आस्था	-10.4504
▁श्रीकृष्ण	-10.4507
▁ट्रे	-10.4509
कृत	-10.451
▁ति	-10.4517
▁कचरा	-10.4523
रानी	-10.4524
▁पाते	-10.4535
▁ढा	-10.4547
▁मुआवजा	-10.4548
▁अदा	-10.455
▁ड्रेस	-10.455
▁वीरेंद्र	-10.4551
▁05	-10.4551
▁चक	-10.4556
▁गत	-10.456
us	-10.4562
▁करार	-10.4567
▁टु	-10.4582
▁ओपन	-10.4586
▁खुला	-10.4589
▁इंचार्ज	-10.4592
▁क्विंटल	-10.4592
▁गेहूं	-10.4592
▁गौरतलब	-10.4592
▁आईएएस	-10.4592
ख़	-10.4592
▁थम	-10.4594
▁मणिपुर	-10.4596
षा	-10.4605
29	-10.4611
▁मनी	-10.4619
▁घटनाएं	-10.4627
▁ठाकरे	-10.4636
▁मायके	-10.4638
▁निवेशकों	-10.4639
▁कायम	-10.4639
ंटा	-10.4641
▁थानाधिकारी	-10.4646
▁वेद	-10.4651
सिया	-10.4655
▁फेर	-10.4659
सम	-10.4659
▁कंप	-10.4662
▁लोड	-10.4663
▁पहना	-10.4673
▁सीपी	-10.4677
▁बृज	-10.468
▁डिलीवरी	-10.4681
▁मरम्मत	-10.4681
▁महात्मा	-10.4681
▁अभियुक्त	-10.4681
▁पड़ने	-10.4684
▁दंड	-10.4688
▁भेंट	-10.4689
▁गिरी	-10.4701
▁एससी	-10.4707
▁प्लेट	-10.471
ौल	-10.471
▁खोलने	-10.4723
▁एकजुट	-10.4725
▁मुठभेड़	-10.4725
▁रामलला	-10.4726
▁दरबार	-10.4729
▁करंट	-10.4737
▁बेड	-10.4738
▁चालान	-10.4739
▁क्रू	-10.4739
▁सराहना	-10.4739
मिल	-10.4744
.50	-10.4744
▁उतन	-10.4752
▁भि	-10.4757
▁सरस्वती	-10.477
▁कार्यशाला	-10.477
▁विनेश	-10.477
▁गुरुग्राम	-10.4771
▁नील	-10.4775
▁49	-10.4779
▁व्यास	-10.478
▁UP	-10.4782
▁हार्ट	-10.4787
▁मानें	-10.4789
बंद	-10.479
ोड़	-10.479
▁तन	-10.4795
▁हवाला	-10.4798
▁पढ़ा	-10.48
▁उमर	-10.4803
▁टिक	-10.4807
▁कस्बे	-10.4815
▁प्लास्टिक	-10.4815
▁अटैक	-10.4815
▁चिराग	-10.4815
▁बनवा	-10.4816
▁₹	-10.4816
▁बुझा	-10.4817
▁अवगत	-10.4817
▁अपमान	-10.4818
▁किताब	-10.4818
▁तारीफ	-10.4821
भद्र	-10.4821
▁यूज	-10.4825
धिक	-10.4827
▁खोला	-10.483
क्ट	-10.4831
▁करेंगी	-10.4842
श्र	-10.4843
ौरा	-10.4851
▁देखना	-10.4858
▁कठिन	-10.486
▁त्याग	-10.4861
▁नामक	-10.4862
▁संवाद	-10.4864
▁सीधा	-10.4864
सान	-10.4864
▁ढंग	-10.4871
कट	-10.4877
ंदा	-10.4879
▁गड़बड़ी	-10.4881
▁साह	-10.489
▁56	-10.4895
▁साहित्य	-10.4906
▁फोकस	-10.4906
▁झटका	-10.4906
▁सिद्धार्थ	-10.4906
▁निकट	-10.4909
मै	-10.4921
▁250	-10.4922
▁एआई	-10.4922
▁बग	-10.493
ट्री	-10.4941
45	-10.4947
▁आतंक	-10.4948
▁बोतल	-10.4952
▁पंडाल	-10.4952
▁लाए	-10.4957
▁बाहरी	-10.4959
▁बुकिंग	-10.4963
95	-10.4981
▁लैंड	-10.4988
▁जोड़ा	-10.4991
▁आंकड़	-10.4993
▁ईश्वर	-10.4998
▁आधे	-10.4998
▁धनबाद	-10.4999
▁52	-10.5
▁स्वस्थ	-10.5001
le	-10.5007
ल्ली	-10.5009
ष्ठ	-10.5012
▁रेखा	-10.5017
▁आचार	-10.5018
33	-10.5024
वेद	-10.503
▁फंदे	-10.5044
▁अभिनेता	-10.5044
▁सल	-10.5044
▁ट्रेलर	-10.5044
▁गंवा	-10.5047
▁गंग	-10.5053
▁निकालकर	-10.5053
प्ले	-10.5056
▁अर्चना	-10.5064
ढा	-10.5068
▁पहाड़ी	-10.5069
▁फसलों	-10.5075
st	-10.5082
▁चीज	-10.5083
ेटर	-10.5084
िद	-10.5088
▁अध्ययन	-10.509
▁इजरायल	-10.509
▁वार्षिक	-10.509
गलौज	-10.509
▁सर्जरी	-10.509
▁समस्तीपुर	-10.509
▁बहाने	-10.509
▁2015	-10.5096
ोदय	-10.5097
▁आपत्ति	-10.5101
खेड़ा	-10.5112
44	-10.512
ग्रह	-10.5122
▁सेवाओं	-10.5136
▁सिंधिया	-10.5136
▁सक्षम	-10.5136
▁सर्दी	-10.5136
▁गांजा	-10.5137
बिल	-10.5139
is	-10.5144
hi	-10.5146
▁आसार	-10.5146
▁चैनल	-10.5151
▁तोड़ने	-10.5151
▁मिलेंगे	-10.5164
▁लगेगा	-10.5172
▁दोस्ती	-10.5175
ोत्सव	-10.5181
▁चिकित्सक	-10.5182
▁पेयजल	-10.5183
▁सफेद	-10.5183
▁बराबर	-10.5183
▁पेरिस	-10.5183
▁बहनों	-10.5189
▁गड्	-10.519
▁चमक	-10.5194
▁देसी	-10.5195
▁रजत	-10.5198
▁बैच	-10.5203
▁चालकों	-10.5204
▁बहू	-10.5207
▁सम्	-10.5207
▁आर्मी	-10.5216
मंत्र	-10.522
▁एमएम	-10.522
▁कक्ष	-10.5223
▁उत्	-10.5226
▁अनुसंधान	-10.523
▁विरासत	-10.523
▁मुकदमे	-10.523
▁फील्ड	-10.523
▁शिखर	-10.523
▁बरेली	-10.523
ंघ	-10.523
▁अनाज	-10.523
▁शुभकामनाएं	-10.523
▁श्रद्धा	-10.5231
तौर	-10.5234
▁खैर	-10.5236
▁बारात	-10.524
ंबर	-10.5248
▁बनेगा	-10.5254
▁अधिकतर	-10.5259
▁मुख	-10.5262
▁तैनाती	-10.5265
▁कीमतों	-10.527
चित	-10.5273
▁पुजारी	-10.5277
▁प्रत्याशियों	-10.5277
▁रिटर्न	-10.5277
▁विशिष्ट	-10.5277
▁अंबेडकर	-10.528
▁करवाए	-10.5281
▁फंसे	-10.5281
▁निर्देशन	-10.5284
▁डबल	-10.5288
ग्राफ	-10.5298
‍	-10.53
31	-10.5308
▁राखी	-10.531
▁चर	-10.531
▁72	-10.5316
▁सीन	-10.5317
चौ	-10.5318
टिया	-10.5319
▁जश्न	-10.5325
▁एक्सीडेंट	-10.5325
▁देखभाल	-10.5325
▁शॉर्ट	-10.5325
▁प्रांत	-10.5327
▁कागज	-10.5334
▁प्रस्तावित	-10.5349
▁उत्तरी	-10.5367
▁वृद्ध	-10.5368
▁प्राथमिकी	-10.537
▁इमरान	-10.5372
राष्ट्रीय	-10.5373
▁अंचल	-10.5374
▁लाइव	-10.5374
▁बताने	-10.5379
▁आर्ट	-10.538
▁थानों	-10.5388
ष्	-10.5394
जगह	-10.5396
57	-10.5402
as	-10.5403
▁रेत	-10.5403
कला	-10.5407
क्षा	-10.541
▁किये	-10.5414
▁स्क्रीन	-10.5416
ग्न	-10.5417
▁शिंदे	-10.542
▁कार्यकारिणी	-10.542
▁नाव	-10.5421
▁डाय	-10.5423
▁डीसीपी	-10.5426
▁फर्म	-10.5426
खंड	-10.543
up	-10.5431
▁सौंपी	-10.5438
मिन	-10.545
हू	-10.5456
फिल	-10.546
▁एकता	-10.5463
38	-10.5465
▁राठौर	-10.5468
▁सुर्खिय	-10.5468
▁मुफ्त	-10.5468
▁पूनम	-10.5468
▁उमस	-10.5468
▁वाटर	-10.5469
▁श्रेय	-10.5469
▁गोलियां	-10.5474
▁सैनिकों	-10.5475
▁हटाया	-10.5478
▁हवाले	-10.5479
▁शाही	-10.5487
▁जहर	-10.5488
▁क्ष	-10.5488
▁जम	-10.5492
ावली	-10.5506
क्‍	-10.5513
▁पृथ्वी	-10.5516
▁डेब्यू	-10.5517
▁दहेज	-10.5517
▁मौर्य	-10.5517
▁हमलों	-10.5519
ेंगी	-10.5519
▁02	-10.552
▁स्वा	-10.5525
▁भरतपुर	-10.5526
▁महान	-10.5529
▁अंग्रेजी	-10.553
▁पैनल	-10.5533
ावर	-10.5536
▁कहकर	-10.5538
▁लिखी	-10.5539
▁असली	-10.5541
ुअल	-10.5543
ाधि	-10.5551
▁मास	-10.5551
iv	-10.5554
वंश	-10.5562
ैट	-10.5563
▁गाजियाबाद	-10.5565
▁मकसद	-10.5565
▁गूगल	-10.5565
▁टाइ	-10.5567
▁जायजा	-10.5567
▁कुचल	-10.557
▁छाए	-10.5578
क्रम	-10.5578
▁बुलाकर	-10.5584
▁एक्टिंग	-10.5589
▁प्रोत्साह	-10.5592
ैत	-10.5592
ौद	-10.5603
▁पीजी	-10.5606
▁लेन	-10.5613
▁शैक्षणिक	-10.5614
▁भागीदारी	-10.5614
▁आतंकवाद	-10.5615
▁बचपन	-10.5615
▁लॉक	-10.5616
▁विक्की	-10.5617
यल	-10.5617
ll	-10.5622
▁जानने	-10.5623
▁न्यूज	-10.5629
▁रिया	-10.5634
ात्मक	-10.5635
▁वर	-10.5641
पि	-10.5651
▁लेटर	-10.5657
▁लड़का	-10.566
▁रघु	-10.5663
▁पुस्तक	-10.5663
▁भागलपुर	-10.5663
▁पूछे	-10.5663
▁रिटायर्ड	-10.5663
▁ओबीसी	-10.5664
▁वनडे	-10.5668
त्थ	-10.5677
▁फोर	-10.5684
बाद	-10.5684
▁वेस्ट	-10.5688
▁हथियारों	-10.5692
ta	-10.5702
▁नल	-10.5709
▁अनुसूचित	-10.5712
▁अश्लील	-10.5712
▁पारंपरिक	-10.5712
▁ट्रायल	-10.5712
▁झांसा	-10.5712
▁दिवाली	-10.5713
▁फ्रांस	-10.5715
▁बाधा	-10.5715
▁गुहार	-10.5716
भाव	-10.5718
▁महंगाई	-10.5719
पल	-10.5722
▁पाएंगे	-10.5723
ाें	-10.5724
▁वायु	-10.5727
वारा	-10.5727
▁सख्ती	-10.5732
▁सिंगर	-10.5735
CB	-10.5736
▁प्रयासों	-10.5754
▁जैसलमेर	-10.5762
▁रतलाम	-10.5762
▁आबकारी	-10.5762
▁दिमाग	-10.5762
▁हत्याकांड	-10.5762
▁आजमगढ़	-10.5762
▁पीढ़ी	-10.5764
▁सेकंड	-10.5765
ोरा	-10.5766
▁घटनाक्रम	-10.5769
-8	-10.577
▁सिरसा	-10.5779
▁सवाई	-10.578
▁देखे	-10.578
▁दिलाई	-10.5781
▁पार्टिय	-10.5782
▁प्राप्ति	-10.5783
ेबल	-10.5788
▁डूबने	-10.5796
▁बक	-10.5804
▁करीबी	-10.5807
चरण	-10.581
ट्टी	-10.581
▁आधुनिक	-10.5811
▁चंद्रशेखर	-10.5811
▁अभय	-10.5811
▁ब्लैक	-10.5812
▁दबिश	-10.5812
▁2000	-10.5814
▁चीजें	-10.5817
वासी	-10.5819
▁एडी	-10.5831
▁काले	-10.5843
▁लटका	-10.5845
▁पहुंचेगी	-10.5853
्होंने	-10.5857
▁ओलंपिक	-10.5861
▁अनूप	-10.587
▁शनि	-10.5873
▁लिखकर	-10.5876
▁डु	-10.5878
▁सार	-10.588
▁तैयारियों	-10.5885
▁केशव	-10.589
▁सेशन	-10.5896
▁कांस्टेबल	-10.5912
▁दरभंगा	-10.5912
▁निश्चित	-10.5912
▁समझौते	-10.5912
▁वरुण	-10.5912
▁सूख	-10.5913
▁निर्भर	-10.5913
▁उपायुक्त	-10.5913
▁सतर्क	-10.5913
▁अंतर्	-10.5914
▁ईयर	-10.5919
खो	-10.592
न्नी	-10.5921
▁मुझस	-10.5924
फल	-10.5932
▁नशील	-10.5933
बाई	-10.5936
नारायण	-10.5937
▁प्रदर्शनी	-10.5944
▁घूमने	-10.5945
▁Sh	-10.5948
एनएस	-10.5948
भाग	-10.5949
ोला	-10.595
▁पुनर्	-10.595
▁IPL	-10.5962
▁तोड़फोड़	-10.5962
▁दहशत	-10.5962
▁बाधित	-10.5962
▁जलस्तर	-10.5962
▁अतुल	-10.5962
▁स्पीड	-10.5962
भि	-10.5966
ma	-10.5968
▁मुनि	-10.5973
▁रुप	-10.5975
स्‍ट	-10.5975
▁दंग	-10.5975
▁रॉयल	-10.5977
SP	-10.5991
▁गुस्सा	-10.5997
▁गायक	-10.6008
▁आयुष	-10.6009
▁कटा	-10.6009
▁कपल	-10.6009
▁न्यूजीलैंड	-10.6013
▁सुनी	-10.6022
तः	-10.6023
▁निभाई	-10.6028
▁लगती	-10.6032
71	-10.6037
लोक	-10.6038
॥	-10.6039
▁समर	-10.6043
▁हिल	-10.6046
▁आंकड़ा	-10.6053
स्को	-10.6054
ेंसी	-10.6061
▁साक्ष्य	-10.6064
▁स्थायी	-10.6064
▁हड़कंप	-10.6064
▁आईपीएल	-10.6064
▁नज़र	-10.6065
▁गैंगस्टर	-10.6065
▁बकाया	-10.6065
▁अहमदाबाद	-10.6066
▁अल्पसंख्यक	-10.6067
▁तोमर	-10.6069
ाॅ	-10.6073
▁शिवम	-10.6073
▁बोलने	-10.6074
id	-10.6074
▁खेलते	-10.6075
▁मोर	-10.6077
▁मोहित	-10.608
▁ईंट	-10.6085
ौरी	-10.6087
▁जाय	-10.6089
▁कलर	-10.6091
ट्रिक	-10.6096
▁जेब	-10.6099
्यो	-10.611
▁गार्डन	-10.6113
▁ऐश्वर्या	-10.6115
▁चोपड़ा	-10.6115
▁छिंदवाड़ा	-10.6115
▁दुश्मन	-10.6115
▁ब्यूरो	-10.6115
▁बंधक	-10.6116
▁चिकित्सकों	-10.6116
▁चौंका	-10.6118
थल	-10.6119
▁उमेश	-10.6129
गिर	-10.6137
आईसी	-10.6139
▁हमास	-10.6142
▁काटकर	-10.6144
गुरु	-10.6145
▁120	-10.6148
▁जेई	-10.6148
ak	-10.6151
▁मामा	-10.6151
▁नकदी	-10.6153
▁दब	-10.6163
▁दरवाजे	-10.6167
▁विस्फोट	-10.6167
▁शोभायात्रा	-10.6167
▁सिलसिला	-10.6167
▁बस्तर	-10.6167
▁नामजद	-10.6167
▁लैब	-10.6175
▁बेंच	-10.6176
▁भागवत	-10.6181
▁108	-10.6182
▁यूजर	-10.6184
▁डॉक्टर्स	-10.619
▁85	-10.6191
SO	-10.6191
भाषा	-10.6195
▁पहुंचते	-10.6205
▁हेम	-10.6207
ंदर	-10.6207
्योर	-10.6207
यी	-10.6208
▁कवर	-10.6208
▁टैंकर	-10.621
इंस	-10.621
▁मुखबिर	-10.6219
▁संवेदनशील	-10.6219
▁हॉस्टल	-10.6219
▁इमारत	-10.6219
▁मालूम	-10.6219
▁रत्न	-10.6219
▁कमर	-10.6222
▁आरक्षक	-10.6225
▁हां	-10.6232
▁स्टोरी	-10.6233
▁शास्त्र	-10.6233
िंक	-10.6236
J	-10.6246
▁अन्न	-10.6247
▁सांसदों	-10.6249
ab	-10.625
हित	-10.6262
▁स्कूली	-10.6264
▁अंतरि	-10.6269
▁कश्यप	-10.6271
▁जन्मदिन	-10.6271
▁इकट्ठा	-10.6271
▁यूरोप	-10.6271
▁मनमोहन	-10.6272
▁लोहे	-10.6273
▁मैक	-10.6273
▁कमेंट	-10.6274
▁आयुष्म	-10.6279
▁सियास	-10.6279
▁लटक	-10.629
▁कैच	-10.6294
▁दुकानदारों	-10.6295
▁भो	-10.6301
▁जुटे	-10.6305
▁बायो	-10.6309
जाने	-10.6315
▁धारण	-10.632
च्च	-10.632
▁जवाहर	-10.6321
▁प्राचीन	-10.6323
▁बेगूसराय	-10.6323
▁दौसा	-10.6323
▁फरीदाबाद	-10.6323
▁फ्रंट	-10.6325
37	-10.6326
▁बैंड	-10.6334
▁बीत	-10.6347
62	-10.635
जीवन	-10.635
04	-10.6355
32	-10.6357
▁बनना	-10.636
▁शह	-10.637
▁गै	-10.6375
▁Election	-10.6376
▁दिलचस्प	-10.6376
▁दुल्हन	-10.6376
▁निष्पक्ष	-10.6376
▁बर्बाद	-10.6376
▁रेस्टोरेंट	-10.6376
▁निपटा	-10.6376
▁सभागार	-10.6378
▁आनन	-10.6378
▁ऊ	-10.638
▁निधि	-10.6382
▁112	-10.6383
्रेस	-10.6388
▁अंबाला	-10.6391
01	-10.6394
▁चुने	-10.6413
CP	-10.6419
:00	-10.6422
▁ब्रिटेन	-10.6428
▁विसर्जन	-10.6428
▁लेपर्ड	-10.6429
▁शाहरुख	-10.6429
▁बेटियों	-10.6429
▁अंधेर	-10.6429
▁पेमेंट	-10.6432
त्री	-10.6433
92	-10.6439
▁घी	-10.6446
एसएस	-10.6446
▁जापान	-10.6446
▁03	-10.6449
▁संस्थाओं	-10.6449
▁श्र	-10.6451
वाड़	-10.6451
▁हिट	-10.6461
52	-10.648
▁यमुना	-10.6482
▁उत्पीड़न	-10.6482
▁छानबीन	-10.6482
▁जर्जर	-10.6482
▁प्रतिनिधित्व	-10.6482
▁भ्रमण	-10.6484
▁हॉ	-10.6484
▁ED	-10.6485
▁पॉल	-10.6485
▁दहन	-10.6487
रात	-10.6492
▁खिल	-10.6492
फ़ी	-10.6494
▁पिछड़	-10.6501
▁कोरिया	-10.6501
▁श्रम	-10.6504
▁सड़कें	-10.6505
आउट	-10.651
▁साधा	-10.6511
▁फिल	-10.6514
▁भोजपुर	-10.6514
▁मेल	-10.6516
राव	-10.6528
्वे	-10.6533
▁Lok	-10.6535
▁अफगानिस्तान	-10.6535
▁इलेक्ट्रॉनिक	-10.6535
▁मामूली	-10.6535
▁कंपनियां	-10.6535
▁बिर	-10.6538
▁लोगो	-10.6539
▁सबको	-10.6546
पीट	-10.6553
▁04	-10.6554
▁क्रिकेटर	-10.6564
धान	-10.6569
▁गहन	-10.657
मेट	-10.6572
▁मोती	-10.6572
▁पंजाबी	-10.6577
▁(20	-10.6584
+	-10.6589
▁एजुकेशन	-10.6589
▁एजेंसियों	-10.6589
▁मालदीव	-10.6589
▁रजिस्ट्री	-10.6589
▁वातावरण	-10.6589
▁नतीजे	-10.6589
▁उद्यम	-10.6589
ेटिव	-10.659
▁धक्का	-10.659
▁पुलिया	-10.659
▁ऊंचाई	-10.6592
▁गिनती	-10.6592
▁फ्लोर	-10.6595
▁विषयों	-10.6595
▁देखिए	-10.6598
▁हरीश	-10.6598
▁कैसा	-10.6603
▁छवि	-10.6603
इंग	-10.6612
▁एमडी	-10.6613
चाल	-10.662
▁शिकायतों	-10.6621
el	-10.6621
▁योगेश	-10.6622
ोड़ा	-10.6623
▁पत्रकारों	-10.6623
▁नवरात्रि	-10.6626
▁दुकानें	-10.6629
▁बट	-10.6635
▁सिया	-10.6639
▁खट	-10.6639
▁अब्दुल	-10.6643
▁ईवीएम	-10.6643
▁हस्ताक्षर	-10.6643
▁हिन्दू	-10.6643
▁इंटरनेट	-10.6643
▁शौचालय	-10.6643
श्रेष्ठ	-10.6643
▁संरक्षक	-10.6644
▁एएसपी	-10.6645
▁डाक	-10.6645
▁अतिथियों	-10.6646
▁सबक	-10.6646
▁उपभोक्ताओं	-10.6648
▁गर्व	-10.6649
▁विश्वनाथ	-10.665
ासन	-10.665
▁पैरा	-10.6655
▁मिलना	-10.6657
जब	-10.6657
▁जॉन	-10.6658
▁टीआई	-10.6661
▁उल्लेखन	-10.6667
▁नष्ट	-10.6677
स्त्र	-10.668
लु	-10.6681
85	-10.6685
ya	-10.669
▁54	-10.6694
▁खतरनाक	-10.6697
▁किलोग्राम	-10.6698
▁दृष्टि	-10.6699
▁पिला	-10.6706
51	-10.6711
▁नायक	-10.6714
▁हस्त	-10.6718
▁स्थलों	-10.6718
▁ईरानी	-10.6726
▁कॉन्	-10.6727
▁06	-10.6732
vs	-10.6735
त्रा	-10.6737
▁निराश	-10.6742
▁पॉइंट	-10.6744
▁उतरे	-10.6747
▁एडवांस	-10.6752
▁फैमिली	-10.6752
▁नालंदा	-10.6752
▁ट्रांसपोर्ट	-10.6752
▁अवकाश	-10.6752
▁निर्माता	-10.6752
▁लोकप्रिय	-10.6753
▁मद	-10.6758
36	-10.6764
▁समा	-10.6765
उन	-10.6773
▁रोशनी	-10.6776
▁प्लानिंग	-10.6777
▁78	-10.6777
la	-10.6781
▁फुट	-10.6783
77	-10.6788
पोल	-10.6791
▁Ra	-10.6795
▁रम	-10.6795
ल्ले	-10.6797
▁लख	-10.6797
▁उजागर	-10.6807
▁एसयूवी	-10.6807
▁क्रेडिट	-10.6807
▁लेबनान	-10.6807
▁लॉरेंस	-10.6807
▁कारतूस	-10.6807
▁जनजाति	-10.6807
▁झुलस	-10.6807
▁जयशंकर	-10.6809
▁गुरुद्वारा	-10.6815
▁साझेदारी	-10.6815
▁कॉपी	-10.6819
्दा	-10.6824
आरएस	-10.6824
▁पुरी	-10.6828
ांश	-10.6834
▁Re	-10.6834
▁कहता	-10.6834
▁मुसलमानों	-10.6839
▁विशेषज्ञों	-10.684
43	-10.6846
▁तप	-10.6846
तीन	-10.6852
▁युग	-10.6856
-19	-10.6857
▁इंस्टीट्यूट	-10.6862
▁दृष्टिकोण	-10.6862
▁प्रज्वल	-10.6862
▁पॉलिसी	-10.6862
▁बंसल	-10.6862
▁लुटेर	-10.6862
▁खातों	-10.6862
▁आराम	-10.6871
▁2009	-10.6872
ट्टा	-10.6879
▁सोनिया	-10.6879
▁पकड़कर	-10.6887
▁अनुज	-10.6889
▁कैंपस	-10.6893
▁जड़	-10.6898
▁काउंसिल	-10.6909
्ती	-10.6909
▁चिप	-10.6909
▁माफिया	-10.6912
▁मरने	-10.6916
▁CCTV	-10.6918
▁जगन्नाथ	-10.6918
▁ध्रुव	-10.6918
▁विश्वकर्मा	-10.6918
▁जॉब	-10.6918
▁डैम	-10.6918
▁सूचित	-10.6919
▁डीजीपी	-10.6919
▁यज्ञ	-10.6922
▁पच	-10.6926
क्या	-10.6928
▁नगद	-10.693
मह	-10.6934
▁सवालों	-10.6945
▁विवि	-10.6946
▁नैन	-10.6952
▁जं	-10.6954
▁शिकायतें	-10.6957
राना	-10.6961
एक्स	-10.6961
09	-10.6966
▁डिवीजन	-10.6974
▁बॉन्ड	-10.6974
▁विधेयक	-10.6974
▁जानलेवा	-10.6974
▁निर्यात	-10.6974
▁प्लॉट	-10.6974
▁रोडवेज	-10.6976
▁ज्योतिष	-10.6977
▁वारंट	-10.6978
▁लेट	-10.6983
▁बीमारियों	-10.6986
▁लीड	-10.6994
कुमार	-10.6996
▁चौथी	-10.7005
म्भ	-10.7012
▁बैठी	-10.7013
▁स्वच्छ	-10.7019
▁कोषाध्यक्ष	-10.703
▁मद्देनजर	-10.703
▁निकासी	-10.703
▁परिस्थितियों	-10.703
▁कोरोना	-10.7031
▁सोलर	-10.7034
▁दीपिका	-10.7035
डू	-10.7041
PS	-10.7051
अर्चना	-10.7062
▁आत्मा	-10.7071
▁58	-10.7072
▁09	-10.7075
▁लाकर	-10.7075
mi	-10.7076
▁उपभोक्ता	-10.7081
▁असिस्टेंट	-10.7086
▁एसएचओ	-10.7086
▁ऑप्शन	-10.7086
▁परिचय	-10.7086
▁विज्ञापन	-10.7086
▁सोलंकी	-10.7086
▁Sabha	-10.7086
▁ऋषभ	-10.7086
▁तथ्य	-10.7086
▁कल्पना	-10.7086
▁सुराग	-10.7086
पारा	-10.7087
▁घबरा	-10.7087
▁बलरामपुर	-10.7089
▁धमका	-10.7094
▁पैमान	-10.7097
्ति	-10.7099
▁परियोजनाओं	-10.71
ेक्स	-10.7116
पत्नी	-10.7119
▁1000	-10.7121
▁दिखाकर	-10.7134
72	-10.7136
▁नाइट	-10.7141
▁ट्वीट	-10.7143
▁शोषण	-10.7143
▁श्रवण	-10.7143
▁रिश्ता	-10.7143
▁सर्जन	-10.7143
▁भिवानी	-10.7144
टेंशन	-10.7144
▁दावे	-10.7147
टीएस	-10.7148
▁गहरी	-10.7149
▁कमीशन	-10.7149
▁कुर्सी	-10.7152
ot	-10.7155
वो	-10.7156
▁सीज	-10.7156
ेक्शन	-10.7158
▁ताज	-10.716
MC	-10.7162
▁गेंदबाजी	-10.7162
▁बजा	-10.7165
▁धरने	-10.717
▁निर्देशित	-10.7172
▁लगाना	-10.7172
▁फट	-10.7175
▁मनो	-10.7176
▁शोक	-10.7177
▁गि	-10.7177
▁पारित	-10.7186
49	-10.7195
ce	-10.7197
▁उत्कृष्ट	-10.72
▁एम्बुलेंस	-10.72
▁सर्किल	-10.72
▁मांझी	-10.72
▁सीमित	-10.72
▁चैंपियनशिप	-10.7201
100	-10.7201
▁बाबूलाल	-10.7203
▁झलक	-10.7204
▁रायगढ़	-10.7211
राय	-10.7217
▁चोटें	-10.7221
न्या	-10.7222
▁लीडर	-10.7224
▁लीला	-10.7237
▁पर्यटकों	-10.724
▁जीव	-10.7244
▁जिम	-10.7247
▁एम्स	-10.7257
▁वैष्णव	-10.7258
▁सुधीर	-10.7258
▁सोसाइटी	-10.7258
▁मित्तल	-10.7258
▁वंचित	-10.7258
▁प्रभात	-10.7258
▁अवस्था	-10.726
▁साव	-10.7266
▁अश्विन	-10.7267
▁बढ़ाई	-10.7268
▁भय	-10.7269
▁कालेज	-10.7273
▁छाया	-10.7274
▁फेज	-10.7279
एगी	-10.7298
▁जैक	-10.7306
▁आवंटित	-10.7316
▁कैटेगरी	-10.7316
▁पारिवारिक	-10.7316
▁फाजिल्का	-10.7316
▁मशक्कत	-10.7316
▁विस्तृत	-10.7316
▁CBI	-10.7316
▁जदयू	-10.7316
▁बरकरार	-10.7316
▁शातिर	-10.7316
▁सीधी	-10.7316
▁भीलवाड़ा	-10.7316
▁ओमप्रकाश	-10.7316
▁रक्तदान	-10.7316
▁स्पॉट	-10.7317
▁डू	-10.7317
▁ठोस	-10.7317
▁दमकल	-10.7317
▁बालू	-10.7319
▁छाप	-10.7319
कर्ता	-10.7321
▁2013	-10.7321
▁प्रभार	-10.7326
▁समस्याएं	-10.7337
▁निर्मला	-10.7345
▁खेड़ा	-10.7346
X	-10.7349
▁बांस	-10.7349
har	-10.7352
ेष	-10.7356
▁कराना	-10.7357
एसटी	-10.7369
▁अग्र	-10.7371
▁लड़क	-10.7373
▁शीघ्र	-10.7374
▁खूबसूरत	-10.7374
▁सिकंदर	-10.7374
▁जंक्शन	-10.7374
▁किशनगंज	-10.7377
▁शिवपुरी	-10.7378
▁पीड़ितों	-10.7382
▁गुम	-10.7391
▁पेज	-10.7392
▁साइ	-10.7396
▁अकाली	-10.7399
▁कमांड	-10.7404
बोध	-10.7409
▁07	-10.7428
▁तिर	-10.7432
▁अमेठी	-10.7432
▁पार्वती	-10.7432
▁रणबीर	-10.7432
▁दुबई	-10.7432
▁शोरूम	-10.7433
▁बिखर	-10.7435
▁छु	-10.7436
▁खरीदारी	-10.7444
▁एलान	-10.745
▁प्रवास	-10.7455
▁उल्लेख	-10.7464
फॉर्म	-10.7466
▁आपदा	-10.747
▁महंग	-10.7477
धू	-10.7478
▁छापा	-10.7481
दारी	-10.7484
▁सर्किट	-10.7491
▁प्रिंस	-10.7491
▁रणवीर	-10.7491
▁वितरित	-10.7491
▁बक्सर	-10.7491
▁गहरे	-10.7491
▁आंधी	-10.7491
▁गर्भवती	-10.7491
▁आधी	-10.7492
▁शिकायतकर्ता	-10.7493
▁95	-10.7494
▁कुंभ	-10.7495
▁सेवन	-10.7497
97	-10.7503
▁दिलाया	-10.7503
▁लेता	-10.7511
▁जता	-10.7512
▁खबरें	-10.7522
▁डाली	-10.7525
▁साद	-10.7527
▁पुन	-10.753
▁67	-10.7542
▁आवागमन	-10.755
▁कैप्टन	-10.755
▁सस्पेंड	-10.755
▁प्रतिभागियों	-10.755
▁संस्थापक	-10.755
▁2012	-10.7557
▁आंख	-10.7557
▁खेलों	-10.756
▁टैंक	-10.7563
▁विद्यालयों	-10.7576
94	-10.7586
▁आईआईटी	-10.7586
▁चक्र	-10.7588
▁Ka	-10.7592
▁डॉग	-10.7598
▁नागर	-10.7602
डेंट	-10.7605
▁चुनौतिय	-10.7608
▁चैंपियन	-10.7609
▁आवंटन	-10.761
▁डिपार्टमेंट	-10.761
▁परफॉर्मेंस	-10.761
▁बुनियाद	-10.761
▁दीक्षित	-10.761
▁मल्टी	-10.7611
▁रूपए	-10.7617
▁तर्क	-10.7618
▁ट्रेंड	-10.7619
02	-10.7624
▁MP	-10.7635
▁जेवर	-10.7638
▁अधि	-10.7641
▁उड़ा	-10.7642
ate	-10.7655
▁छिप	-10.7658
ॅ	-10.7659
▁सौर	-10.766
▁99	-10.7663
▁तह	-10.7664
▁सेकेंड	-10.7665
▁यून	-10.7666
▁रैंक	-10.7667
▁अपलोड	-10.767
▁काउंसलिंग	-10.767
▁फाइनेंस	-10.767
▁मिठाई	-10.767
▁स्ट्रीट	-10.767
▁रेवाड़ी	-10.7672
▁ससुर	-10.7673
ंकर	-10.7676
▁तोड़ा	-10.7677
▁2008	-10.7678
घा	-10.7679
▁स्टॉक	-10.7681
▁बढ़ाकर	-10.7688
▁अर्थ	-10.7693
▁गम	-10.77
▁निर्	-10.7704
रिक्शा	-10.7705
▁पिच	-10.7715
▁हीरो	-10.7718
▁रखता	-10.7721
▁अभ्यास	-10.773
▁सऊदी	-10.773
▁अफवाह	-10.773
▁आरा	-10.773
▁अंतरिक्ष	-10.7732
केश	-10.7732
▁वास्तविक	-10.7733
▁जीएसटी	-10.7734
▁बालाजी	-10.7734
▁दोषियों	-10.7734
▁शरीफ	-10.7734
▁बेन	-10.7736
▁आवासीय	-10.7746
क्टर	-10.7749
-11	-10.7768
▁अमीर	-10.7771
▁हद	-10.7775
200	-10.7776
▁संस्कृत	-10.7778
हिं	-10.7781
ेक्टर	-10.7783
▁पाकर	-10.7788
▁आरजेडी	-10.779
▁प्राकृतिक	-10.779
▁लड्डू	-10.779
▁गृहमंत्री	-10.779
▁तूफान	-10.779
▁अधीन	-10.7792
▁जूझ	-10.7792
व्ह	-10.7796
▁AAP	-10.7797
▁प्रतिबंधित	-10.78
ंटू	-10.7801
▁बोलते	-10.782
91	-10.7823
नियंत्रित	-10.7827
▁खां	-10.7828
41	-10.7829
युक्त	-10.783
▁सिद्ध	-10.7834
88	-10.7839
▁लौटे	-10.7844
▁उपमुख्यमंत्री	-10.7851
▁निर्मित	-10.7851
क्यू	-10.7853
टिव	-10.7854
▁एनएच	-10.7855
▁दबंग	-10.7856
▁चतुर्थी	-10.7868
▁बोलीं	-10.7868
▁छू	-10.7872
▁बगल	-10.7874
वट	-10.7884
▁छि	-10.7891
▁पुरुषों	-10.7911
▁आकर्षक	-10.7913
▁रंजिश	-10.7913
▁निपटने	-10.7913
▁भिलाई	-10.7913
▁रंजीत	-10.7913
▁सत्यापन	-10.7913
▁हल्के	-10.7913
▁बैनर	-10.7914
▁अंशु	-10.7915
▁पार्षदों	-10.7915
कर्मियों	-10.7922
▁आमने	-10.793
▁दस्त	-10.7932
▁चयनित	-10.7935
▁Vi	-10.7935
▁सजाया	-10.7937
ंजा	-10.7938
▁बहाल	-10.7939
▁खंडवा	-10.7942
▁चै	-10.7946
▁डाले	-10.7947
▁आईजी	-10.7949
▁दलाल	-10.7951
▁57	-10.7959
प्पा	-10.7965
▁उग	-10.7973
▁ट्रेनें	-10.7974
▁कंप्यूटर	-10.7974
▁प्रोडक्ट	-10.7974
▁माधोपुर	-10.7974
▁सक्सेना	-10.7974
▁योग्य	-10.7975
▁झील	-10.7975
67	-10.7985
▁स्वीकृत	-10.7988
डीसी	-10.7991
▁भतीजे	-10.7994
▁चर्च	-10.7997
▁भोज	-10.8025
▁कार्यकार	-10.8032
▁उन्ही	-10.8033
▁पाता	-10.8035
्वर	-10.8035
▁यूट्यूब	-10.8037
▁दशहरा	-10.8037
▁2024-25	-10.8037
▁देहात	-10.8037
▁हुड्	-10.8037
▁टंकी	-10.8038
▁छात्रावास	-10.8039
▁कबूल	-10.8041
▁एडिशनल	-10.8044
▁सलाम	-10.8044
आइ	-10.8044
ऊंगा	-10.8044
▁गेस्ट	-10.8045
▁ढेर	-10.8045
▁सेवानिवृत्त	-10.8057
68	-10.8059
▁सरदार	-10.8063
▁Ma	-10.8066
▁गौरी	-10.8068
पढ़ें	-10.8075
▁बिछा	-10.8076
▁पदस्थ	-10.8081
मंडल	-10.8084
ंकी	-10.8091
ानुसार	-10.8092
▁थप्पड़	-10.8099
▁स्नातक	-10.8099
▁हिम्मत	-10.8099
▁कठोर	-10.8099
▁रिंकू	-10.8099
▁शिल्प	-10.8099
▁मालवीय	-10.8099
▁कारावास	-10.8099
▁Khan	-10.81
▁अनुरूप	-10.81
▁चन्द्र	-10.8106
वर्धन	-10.8109
▁उभर	-10.8111
▁पानीपत	-10.8112
▁डरा	-10.8115
▁फूलों	-10.8116
बाड़ी	-10.8119
▁लेती	-10.8123
▁साइन	-10.8123
▁सवारी	-10.8124
▁चौर	-10.8125
▁दक्षिणी	-10.8132
▁प्रिय	-10.8134
▁गोवा	-10.8136
पार	-10.8137
▁गाना	-10.8139
▁बलों	-10.814
र्ष	-10.8145
▁साइट	-10.8153
▁चित्तौड़गढ़	-10.8162
▁सेंसेक्स	-10.8162
▁शेखावत	-10.8163
▁उमड़	-10.8164
▁टोंक	-10.8165
▁स्टेशनों	-10.8167
▁आभूषण	-10.8168
▁पहने	-10.817
▁जहरील	-10.8171
किन	-10.8171
▁हथ	-10.8186
▁रोह	-10.8187
ैंड	-10.819
▁94	-10.82
▁रोड़	-10.8201
▁आरोपित	-10.8202
▁साधक	-10.8211
रीबन	-10.8213
▁उपलब्धि	-10.8221
▁अमावस्या	-10.8225
▁क्रांति	-10.8225
▁मुरैना	-10.8225
▁सच्चाई	-10.8225
▁नोडल	-10.8225
▁प्रतिनिधियों	-10.8227
▁ओपीडी	-10.8228
▁प्रीति	-10.823
▁दाल	-10.8232
रूम	-10.8232
▁देवास	-10.8233
▁मुन	-10.8234
▁मिलियन	-10.8236
▁निकाय	-10.8243
▁आर्यन	-10.8254
▁600	-10.8254
▁लोकल	-10.826
▁तिल	-10.826
▁नक्सली	-10.826
▁आलिया	-10.8266
ूंगी	-10.8267
▁बैठने	-10.827
▁साधन	-10.8272
दूर	-10.8281
▁अधिकारों	-10.8282
▁निरंतर	-10.8289
▁परमाणु	-10.8289
▁प्लेटफार्म	-10.8289
▁वेरिएंट	-10.8289
▁सम्राट	-10.8289
▁गरबा	-10.8289
▁हाथरस	-10.829
▁कामना	-10.829
▁अनुमंडल	-10.829
▁सूरत	-10.8291
ाएगा	-10.8291
खेड़ी	-10.8295
▁ईशा	-10.8297
्ज़	-10.8298
▁भूषण	-10.8303
▁झाड़	-10.8304
प्रो	-10.8307
ोलॉजी	-10.8307
▁रॉ	-10.8315
56	-10.8317
मां	-10.8324
▁53	-10.8332
ध्यक्ष	-10.8334
▁सेवक	-10.8334
.15	-10.8341
▁जमुई	-10.8353
▁क्‍या	-10.8353
▁वंदे	-10.8353
▁हायर	-10.8361
▁मासिक	-10.8361
मात्र	-10.8361
सीसी	-10.8366
▁रहमान	-10.8367
▁सोचा	-10.8368
फानन	-10.8373
ंश	-10.8386
▁पीएस	-10.8386
▁गहने	-10.8387
▁पड़ती	-10.8388
▁लिखे	-10.8389
▁तंज	-10.839
स्थान	-10.8397
▁पुत्री	-10.8406
डोर	-10.8409
▁दिखी	-10.841
▁शीतल	-10.8415
▁गतिविधि	-10.8416
▁गंदगी	-10.8418
▁रणजीत	-10.8418
▁लकड़ी	-10.8418
▁महासभा	-10.8418
▁फौज	-10.8419
फ़ा	-10.842
▁हॉकी	-10.8421
▁प्रॉ	-10.8425
▁निंदा	-10.8428
▁बचाया	-10.8434
▁सिक	-10.8439
भ्य	-10.8441
▁शूट	-10.8444
▁बसंत	-10.8445
▁भिंड	-10.8448
ॉक्स	-10.8455
▁गुड	-10.8457
पश्चिम	-10.8458
त्रित	-10.8465
▁चलाते	-10.8466
▁लालच	-10.8472
▁हैंडल	-10.848
▁ब्लू	-10.8481
सार	-10.8482
▁सर्वेक्षण	-10.8482
▁क्रॉस	-10.8482
▁गणपति	-10.8482
▁समाजसेवी	-10.8482
▁हेक्टेयर	-10.8482
▁उत्पन्न	-10.8482
▁हज़ार	-10.8483
▁विदाई	-10.8483
▁वक्फ	-10.8483
▁न्यायमूर्ति	-10.8483
हिया	-10.8483
▁प्रकृति	-10.8485
▁धोखा	-10.8485
-2024	-10.8485
▁बिंदु	-10.8486
▁डोर	-10.8487
▁जातक	-10.8488
प्ट	-10.849
▁मस्क	-10.8498
66	-10.85
▁रोप	-10.8501
▁महीना	-10.8505
▁इन्	-10.8506
▁खु	-10.8507
▁दिखाते	-10.8513
पान	-10.8514
46	-10.8517
▁पाप	-10.8519
▁चलाए	-10.8522
▁समन्वय	-10.8526
▁दिव्या	-10.8528
वाय	-10.8531
आप	-10.8533
▁एसएस	-10.8535
▁रॉय	-10.8537
वाले	-10.8537
AL	-10.8539
▁डोनाल्ड	-10.8548
▁बुलडोजर	-10.8548
▁विजयवर्गीय	-10.8548
▁जेसीबी	-10.8548
▁रिकार्ड	-10.8548
▁आवाजाही	-10.8548
▁पथराव	-10.8548
▁परिचित	-10.8548
▁राइट	-10.8555
▁पासपोर्ट	-10.8555
08	-10.8558
▁नकद	-10.8566
▁कड़ा	-10.8567
▁मीरा	-10.8572
▁शोभा	-10.8574
▁De	-10.858
▁समझने	-10.8588
▁मेगा	-10.8588
▁पिछड़ा	-10.859
▁SP	-10.8591
▁ड्रा	-10.8594
42	-10.8598
▁ताजा	-10.86
▁पत्त	-10.8604
▁स्टील	-10.8604
▁लोहा	-10.8604
बान	-10.8606
▁सालाना	-10.8609
आईटी	-10.8612
▁निषाद	-10.8614
▁पाठ्यक्रम	-10.8614
▁अगुवाई	-10.8614
▁डिफेंस	-10.8614
▁डिवाइस	-10.8614
▁दरोगा	-10.8614
▁पश्चात	-10.8614
▁मयंक	-10.8614
▁म्यूजिक	-10.8614
▁जोखिम	-10.8614
▁स्रोत	-10.8614
▁जीआरपी	-10.8614
▁पर्सनल	-10.8614
▁राघव	-10.8614
▁तिराह	-10.8617
▁बाला	-10.8623
▁वैन	-10.8626
द्व	-10.8629
समय	-10.8632
▁बनेंगे	-10.8638
ल्हा	-10.864
▁फैलाने	-10.8642
▁मुताबिक़	-10.8651
▁गुड़	-10.8664
▁64	-10.8672
▁66	-10.8674
▁शेड्यूल	-10.868
▁सिद्दीकी	-10.868
▁सर्वाधिक	-10.868
▁प्राइम	-10.868
▁सैलरी	-10.868
▁क़रीब	-10.868
▁औरंगाबाद	-10.868
▁अग्निवीर	-10.8681
▁बंधन	-10.8682
▁वॉल	-10.8683
▁सलाहकार	-10.8685
न्यू	-10.8685
▁एसीबी	-10.8686
▁प्रिंट	-10.8686
▁रोष	-10.8689
▁इश	-10.8694
▁राजेन्द्र	-10.8694
▁पहलवान	-10.8695
▁ग्रेड	-10.8696
▁चुप	-10.8697
▁अटक	-10.87
▁नवरात्र	-10.87
▁॥	-10.8712
▁कमाल	-10.8718
.25	-10.8726
माता	-10.8727
सफाई	-10.873
▁तंग	-10.8734
▁रिटायर	-10.8744
▁अविनाश	-10.8747
▁नतीजों	-10.8747
▁गड्ढे	-10.8747
▁संतुलन	-10.8747
▁क्लिक	-10.8747
▁इलाका	-10.8747
▁अवतार	-10.8747
▁बलिया	-10.8748
▁प्रजापति	-10.8749
▁चिल्ला	-10.875
▁अलीगढ़	-10.8754
▁आक्रोशित	-10.8756
जरी	-10.8766
▁स्टेज	-10.8766
▁जींद	-10.8776
86	-10.8777
▁नारा	-10.8777
▁कुएं	-10.8778
▁सीने	-10.8784
लेखक	-10.8789
ct	-10.8792
ग्राम	-10.8793
▁डायल	-10.8796
▁स्वतंत्र	-10.8802
▁मंत्रिमंडल	-10.8814
▁रायबरेली	-10.8814
▁सरगुजा	-10.8814
▁भार्गव	-10.8814
▁रामायण	-10.8814
▁लंदन	-10.8814
▁झांकी	-10.8815
▁भटक	-10.8816
▁रिक्त	-10.8817
▁थर्ड	-10.8817
▁रामपुर	-10.8822
▁वॉर	-10.8822
ho	-10.8824
▁दोहरा	-10.8824
▁व्य	-10.8835
▁वेब	-10.8843
▁62	-10.8847
93	-10.885
बीसी	-10.8855
▁टूटा	-10.8862
DA	-10.8864
▁महल	-10.8866
▁साम	-10.8868
‍ि	-10.8873
ul	-10.8877
ठिया	-10.8877
▁अभिनेत्री	-10.8881
▁झामुमो	-10.8881
▁वायनाड	-10.8881
▁सिफारिश	-10.8881
▁हिमांशु	-10.8881
▁खिताब	-10.8881
▁लिफ्ट	-10.8882
▁गरज	-10.8883
▁1.5	-10.8884
▁आदत	-10.8884
▁कामकाज	-10.8886
▁झूल	-10.8886
बड़े	-10.8889
▁कवि	-10.889
▁पोषण	-10.8893
जुल	-10.8899
▁वस्त्र	-10.8902
▁59	-10.8905
▁गुण	-10.8906
▁निर्मल	-10.8916
▁भगा	-10.8926
मोहन	-10.8926
वै	-10.8932
▁निकाले	-10.8949
▁इकलौत	-10.8949
▁फोगाट	-10.8949
▁बुमराह	-10.8949
▁सेक्रेटरी	-10.8949
▁हिंदुस्तान	-10.8949
▁नवादा	-10.8949
▁सेफ्टी	-10.895
▁फूट	-10.8951
शाली	-10.8957
▁खोले	-10.8963
▁नमाज	-10.897
▁शु	-10.8976
▁भूख	-10.8981
76	-10.9006
ंबा	-10.9008
▁मजबूती	-10.9009
▁बनती	-10.9015
GB	-10.9015
▁आकर्षण	-10.9018
▁इन्हीं	-10.9018
▁चैलेंज	-10.9018
▁निखिल	-10.9018
▁मछली	-10.9018
▁मिलीमीटर	-10.9018
74	-10.9018
▁प्रसन्न	-10.9018
▁सिल्वर	-10.9018
▁ओपी	-10.9018
▁NDA	-10.9019
▁किराया	-10.902
▁हैरिस	-10.9022
▁अभाव	-10.9028
▁वंदना	-10.9034
▁बसें	-10.9034
▁जियो	-10.9035
श्च	-10.9036
▁आश	-10.9041
▁घंटा	-10.9045
▁पापा	-10.9045
ैंक	-10.9051
कांग्रेस	-10.9062
▁बवाल	-10.9074
▁बिता	-10.9078
▁करवाकर	-10.9085
▁REA	-10.9087
▁क्वार्टर	-10.9087
▁थिएटर	-10.9087
▁प्रैक्टिस	-10.9087
▁वाल्मीकि	-10.9087
▁कर्तव्य	-10.9087
▁ऋण	-10.9087
▁पलवल	-10.909
▁पुष्पा	-10.9094
▁पहिया	-10.9096
▁रुचि	-10.9096
▁केन्द्रीय	-10.9097
▁तंत्र	-10.9099
▁सुनाया	-10.9102
▁पर्यटक	-10.9108
▁चेतन	-10.9114
▁पारस	-10.9115
▁लात	-10.912
▁मस्त	-10.9123
▁कांवड़	-10.9124
▁रूसी	-10.9139
▁टोला	-10.914
पाली	-10.915
▁एमएस	-10.9153
▁800	-10.9153
▁सर्वोच्च	-10.9156
▁अत्याचार	-10.9156
▁उद्धव	-10.9156
▁राजमार्ग	-10.9156
▁लघु	-10.9156
▁डंपर	-10.9156
▁कीर्तन	-10.9156
▁भंवर	-10.9156
▁गणना	-10.9156
▁नीतियों	-10.9159
▁तलवार	-10.9159
▁पट्टी	-10.9162
▁ईस्ट	-10.9163
▁2007	-10.9165
▁विविध	-10.9166
87	-10.9169
िये	-10.9173
▁बिंद	-10.9173
▁जोड़कर	-10.9189
▁पिंक	-10.919
▁याचिकाकर्ता	-10.9191
▁डील	-10.9194
आरसी	-10.92
हीन	-10.92
▁सेहत	-10.9204
▁नग	-10.9211
तोड़	-10.9218
▁प्लेयर	-10.922
▁इल	-10.9221
▁अड्डे	-10.9226
▁एनकाउंटर	-10.9226
▁मूवमेंट	-10.9226
▁मेकर्स	-10.9226
▁निशुल्क	-10.9227
▁गोवंश	-10.9228
▁ठा	-10.923
प्रदर्शनकारियों	-10.9234
वर्ष	-10.9234
▁कुशल	-10.9237
▁कौ	-10.9237
▁करूंगा	-10.9239
▁सैफ	-10.9247
जोत	-10.9247
▁वर्	-10.9251
ैक्ट	-10.9263
39	-10.9266
निर्देश	-10.9272
सामने	-10.9273
58	-10.9274
▁दयाल	-10.9278
ाँ	-10.9279
▁बिज	-10.928
▁कमान	-10.9284
▁आर्म	-10.9286
त्या	-10.9288
▁ग्ल	-10.9293
▁मंग	-10.9295
▁अग्नि	-10.9296
वृत्ति	-10.9296
▁फेसबुक	-10.9296
▁रवींद्र	-10.9296
▁सिसोदिया	-10.9296
▁बच्चियों	-10.9296
▁सत्संग	-10.9296
▁खनिज	-10.9297
▁नर्मदापुरम	-10.9297
▁हाजिर	-10.9297
▁बंदूक	-10.9297
▁जायेगा	-10.9298
▁फिसल	-10.9298
▁बुलेट	-10.9298
▁शांतिपूर्ण	-10.9299
▁सरोज	-10.9303
▁रीजन	-10.9304
▁वॉक	-10.9308
ik	-10.9309
▁बुध	-10.9309
▁p	-10.931
▁शीश	-10.931
▁रचना	-10.9327
▁शूटर	-10.933
▁उमा	-10.933
▁जलाने	-10.9331
82	-10.9331
▁उठाते	-10.9331
▁आरके	-10.9336
▁सहकार	-10.9339
▁सवा	-10.934
▁मानस	-10.9346
54	-10.9364
IC	-10.9366
▁जलभराव	-10.9367
▁जॉइन	-10.9367
▁डिस्प्ले	-10.9367
▁प्रोडक्शन	-10.9367
▁भारद्वाज	-10.9367
▁सेमीफाइनल	-10.9367
▁पुतिन	-10.9367
▁जेवरात	-10.9368
▁शौक	-10.9368
▁जन्माष्टमी	-10.9368
▁सैम	-10.9368
▁नींद	-10.9368
▁लड़कियां	-10.9371
यंत्र	-10.9371
एमसी	-10.9377
▁खबरों	-10.938
▁समझाया	-10.9383
सुर	-10.9385
▁370	-10.9393
▁एग्जि	-10.9395
▁बाव	-10.9399
▁फैन	-10.9408
53	-10.9411
03	-10.9412
गड़	-10.942
ेश्वरी	-10.9426
-15	-10.9426
▁AI	-10.9432
78	-10.9434
▁क़ानून	-10.9439
▁इलाहाबाद	-10.9439
▁चूंकि	-10.9439
▁जमशेदपुर	-10.9439
▁त्वरित	-10.9439
▁नायडू	-10.9439
▁मेंटेनेंस	-10.9439
▁वाजपेयी	-10.9439
▁श्रीगंगानगर	-10.9439
▁सीएचसी	-10.9439
▁डेयरी	-10.9439
▁सहारा	-10.9439
▁गायत्री	-10.944
▁गोस्वामी	-10.944
▁आदिवासियों	-10.9444
रेन	-10.9444
▁गरीबों	-10.9445
▁दर्शात	-10.9457
▁फिरोज	-10.9457
▁रिज	-10.9457
▁शाला	-10.9462
▁फास्ट	-10.9463
▁अजित	-10.9463
06	-10.9466
घात	-10.9467
▁लगाएं	-10.948
ाइव	-10.9481
▁कृति	-10.9484
▁फेस	-10.949
▁बरस	-10.9499
▁शास	-10.9501
▁बीआर	-10.9506
est	-10.9508
▁क्वालिटी	-10.9511
▁ट्रांसफार्मर	-10.9511
▁बंटवारे	-10.9511
▁पैलेस	-10.9511
▁इशारा	-10.9511
▁रनौत	-10.9511
▁इसीलिए	-10.9511
▁गूंज	-10.9511
▁फिट	-10.9511
▁सुपरस्टार	-10.9511
▁In	-10.9511
▁क्रमांक	-10.9512
▁खुर	-10.9514
▁वास	-10.9514
▁अनुदान	-10.9514
▁झंडा	-10.9515
▁दादी	-10.9518
▁घेराव	-10.9518
▁वीजा	-10.9523
▁हज	-10.9523
ैस	-10.9523
▁हवाएं	-10.9528
▁नॉन	-10.9529
nd	-10.9531
▁ईद	-10.9532
ka	-10.9535
▁तरीका	-10.9536
▁बैज	-10.954
खण्ड	-10.9547
▁खीर	-10.9551
शक्ति	-10.9561
▁रामगढ़	-10.9563
▁ऑडियो	-10.9566
han	-10.9568
▁खेर	-10.9571
▁मिड	-10.9575
▁जोड़े	-10.958
▁उठे	-10.9581
▁सिलसिले	-10.9583
▁आयुर्वेद	-10.9583
▁घोटाला	-10.9583
▁तत्वावधान	-10.9583
▁निदेशालय	-10.9583
▁प्रदर्शित	-10.9583
▁कुत्ते	-10.9583
▁अनीता	-10.9584
▁शिशु	-10.9585
▁चिह्नित	-10.9586
▁स्ट्राइक	-10.9588
क्त	-10.9592
▁धरती	-10.9592
vi	-10.9599
▁जीतू	-10.9601
▁ऑपरेटर	-10.9603
वनीत	-10.9607
▁उपज	-10.9627
▁प्ल	-10.9634
▁76	-10.9646
फुल	-10.9651
▁मनु	-10.9655
▁भंग	-10.9656
▁निस्तारण	-10.9656
▁पौधारोपण	-10.9656
▁प्रताड़ित	-10.9656
▁सौभाग्य	-10.9656
बद्ध	-10.9657
▁बाय	-10.9658
▁हाइवे	-10.9659
▁कोयला	-10.9659
▁पैन	-10.966
▁बां	-10.9666
▁खाड़ी	-10.9667
▁मुंडा	-10.9668
▁नर्स	-10.9669
मान्य	-10.9675
▁ऑफ़	-10.9682
▁700	-10.9687
ज्ञान	-10.969
▁डीपी	-10.9693
▁साध	-10.9699
▁सहयोगियों	-10.97
▁स्टा	-10.97
▁मेघ	-10.9705
▁विधिक	-10.9706
▁राख	-10.972
▁नर्मदा	-10.973
▁IAS	-10.973
▁झगड़े	-10.973
▁भेदभाव	-10.973
▁मॉनिटरिंग	-10.973
▁पंचांग	-10.973
▁कागजात	-10.973
▁आवेदक	-10.973
▁पठान	-10.973
▁दबोच	-10.973
▁इलेक्शन	-10.973
▁भगवंत	-10.9731
▁डेवलपमेंट	-10.9731
▁समाचार	-10.9731
▁फैशन	-10.9731
▁व्यस्त	-10.9731
▁नाकाम	-10.9732
▁विवाहिता	-10.9732
▁इक	-10.9734
▁गाइड	-10.9738
▁मुहै	-10.974
-7	-10.9761
▁राजगढ़	-10.9763
सीएल	-10.9768
.40	-10.9769
▁पह	-10.977
▁महंगा	-10.9771
▁तत्वों	-10.9771
▁संभाला	-10.9772
▁अपराधों	-10.978
बहन	-10.9803
▁इजाफा	-10.9804
▁कटिहार	-10.9804
▁बैतूल	-10.9804
▁कैमरों	-10.9804
▁मादक	-10.9804
▁जनप्रतिनिधियों	-10.9804
▁उलझ	-10.9805
▁मेहमान	-10.9805
▁समीकरण	-10.9806
क्चर	-10.9807
▁एसीपी	-10.9812
▁लै	-10.9812
▁2011	-10.9812
▁डीजे	-10.9815
69	-10.9819
▁मैथ	-10.9821
▁आगमन	-10.9822
▁नाला	-10.9824
▁पदार्थों	-10.9828
▁आरसी	-10.9837
▁जावेद	-10.9837
▁कप्तानी	-10.9842
ायुक्त	-10.9851
प्रकाश	-10.9852
▁पेन	-10.9854
▁निशा	-10.9877
▁आकर्षित	-10.9878
▁गणतंत्र	-10.9878
▁परिचालन	-10.9878
▁भैंस	-10.9878
▁महिंद्रा	-10.9878
▁शिक्षिका	-10.9878
▁हृदय	-10.9878
▁आमंत्रित	-10.9878
▁प्लाजा	-10.9878
▁बैटिंग	-10.9878
▁कपड़ों	-10.9879
▁रामलीला	-10.9879
▁स्त्री	-10.988
▁सलीम	-10.988
▁अवधेश	-10.988
▁पैकेज	-10.988
▁झुक	-10.9881
▁शाहिद	-10.9881
ah	-10.9882
▁प्रतापगढ़	-10.9886
▁राउ	-10.9888
रक्षा	-10.989
▁चार्जिंग	-10.9896
▁पटरी	-10.9897
▁यंत्र	-10.9904
▁खाकर	-10.9907
▁नौकर	-10.991
▁गुस्स	-10.991
बुल	-10.9913
▁पोलिंग	-10.9914
▁तू	-10.9916
▁दूसर	-10.9918
MP	-10.9936
▁परेशानियों	-10.9939
▁संचालकों	-10.9943
...'	-10.9944
▁देनी	-10.9944
▁डीआर	-10.9948
▁बिट्टू	-10.9954
▁सिद्धांत	-10.9954
▁विवरण	-10.9954
▁बर्दाश्	-10.9954
▁शिवाजी	-10.9954
▁फुटबॉल	-10.9954
▁आंगन	-10.9954
▁फरियाद	-10.9954
▁चचेर	-10.9954
▁गतिविधियां	-10.9954
दौलत	-10.9955
▁रक्त	-10.9955
▁निर्माणाधीन	-10.9955
▁चीख	-10.9956
▁समृद्धि	-10.9957
▁विफल	-10.9958
▁रखेंगे	-10.9965
ne	-10.9965
▁2005	-10.9967
▁साड़ी	-10.9969
▁जानता	-10.997
▁जर्मनी	-10.9972
▁विश	-10.9994
▁निर्व	-10.9997
▁खुली	-10.9997
▁नागपुर	-10.9998
▁एसटी	-10.9998
-12	-11
प्रारंभिक	-11.0001
पीओ	-11.0001
▁प्रकाशित	-11.0004
ia	-11.0011
काय	-11.0024
▁एसडीपीओ	-11.0029
▁जेडीयू	-11.0029
▁ठिकानों	-11.0029
▁द्विवेदी	-11.0029
▁आयोजक	-11.0029
▁ड्रॉ	-11.0029
▁प्रदेशाध्यक्ष	-11.0029
▁राज्यमंत्री	-11.0029
▁350	-11.0029
▁आंगनबाड़ी	-11.003
▁बिल्डर	-11.003
▁इलेक्ट	-11.003
▁वर्दी	-11.0031
▁माहेश्वरी	-11.0031
▁हेमा	-11.0032
▁बचत	-11.0032
▁धूल	-11.0033
▁संचार	-11.0037
▁81	-11.004
▁चौड़ा	-11.004
▁छत्र	-11.0042
▁अभद्र	-11.0042
▁निशाने	-11.0051
CA	-11.0053
▁नवाज	-11.0054
सिटी	-11.0057
▁दीक्षा	-11.0058
▁गिन	-11.0064
▁पैक	-11.0067
▁मणि	-11.0067
▁बॉस	-11.007
पानी	-11.007
Y	-11.0081
▁68	-11.0083
▁लिहाज	-11.0084
▁कैप	-11.0089
▁कन्हैया	-11.0104
▁आशुतोष	-11.0106
▁बलात्कार	-11.0106
▁ऑफिशियल	-11.0106
▁सोसायटी	-11.0106
▁पाटीदार	-11.0106
▁राधिका	-11.0106
▁विचारधारा	-11.0106
▁पौधों	-11.0106
▁दादरी	-11.0106
▁साक्षी	-11.0106
▁मुद्रा	-11.0106
▁ख्याल	-11.0106
▁टॉस	-11.0106
▁कीर्ति	-11.0106
▁ऑयल	-11.0107
▁मेघवाल	-11.0108
▁Day	-11.0108
▁स्पेस	-11.0108
▁Pro	-11.0109
▁संपूर्ण	-11.011
▁69	-11.0115
▁बेल्ट	-11.0116
▁बढ़ेगी	-11.0116
▁कपड़ा	-11.0118
▁2010	-11.012
▁बुलाई	-11.0123
▁संगीता	-11.0124
▁कड़े	-11.0125
▁दिव्य	-11.0125
बॉल	-11.0127
स्‍त	-11.0142
81	-11.0158
600	-11.0164
▁बैन	-11.0165
▁भरकर	-11.0168
▁ओला	-11.0181
▁गर्भ	-11.0182
▁झुंझुनूं	-11.0183
▁दृश्य	-11.0183
▁ब्रिटिश	-11.0183
▁वैभव	-11.0183
▁सीएमएचओ	-11.0183
▁हस्तक्षेप	-11.0183
▁गैंगरेप	-11.0183
▁देखरेख	-11.0183
▁ध्वस्त	-11.0183
▁नौसेना	-11.0183
▁विराजमान	-11.0183
▁ब्लास्ट	-11.0183
▁दांव	-11.0185
▁प्रेमिका	-11.0195
▁डिस	-11.0196
▁दस्तावेजों	-11.0197
ेटेड	-11.0199
▁बाबर	-11.0199
▁पाएगा	-11.02
▁सनी	-11.0208
▁61	-11.0215
▁बनेगी	-11.0215
मेल	-11.0216
▁पहुंचेंगे	-11.0217
▁सोह	-11.0219
▁पर्वत	-11.0227
▁डेरा	-11.0243
माला	-11.0247
""	-11.0249
▁गुरू	-11.0259
▁दिग्विजय	-11.026
▁बौद्ध	-11.026
▁रश्मि	-11.026
▁नतीजा	-11.026
▁प्रसंग	-11.026
▁पैसेंजर	-11.026
वर्ड	-11.026
▁मातृ	-11.0262
▁EV	-11.0262
▁सीताराम	-11.0264
▁लाना	-11.0265
▁कट्टा	-11.0266
▁निकलकर	-11.0267
▁बनारस	-11.0275
▁महानगर	-11.0277
▁रील	-11.028
63	-11.029
▁राजनाथ	-11.029
एसपी	-11.0292
▁आलू	-11.0292
▁लिव	-11.0299
▁लता	-11.0302
400	-11.0309
्यूट	-11.0319
▁सीएस	-11.0324
पूर्ति	-11.0327
▁सुधा	-11.0334
▁125	-11.0337
da	-11.0338
Q	-11.0338
▁कॉरिडोर	-11.0338
▁घनश्याम	-11.0338
▁पीडब्ल्यूडी	-11.0338
▁फेस्टिवल	-11.0338
▁बठिंडा	-11.0338
▁शिनाख्त	-11.0338
▁सशक्त	-11.0338
▁2023-24	-11.0338
▁ठेका	-11.0338
▁बुखार	-11.0338
▁कार्मिक	-11.0339
▁वाइस	-11.0339
▁पंजीयन	-11.0339
▁नहाने	-11.0339
▁कोविड	-11.034
▁सोनीपत	-11.034
▁पार्टनर	-11.0341
▁साहिल	-11.0341
▁सचिवालय	-11.0343
▁प्रकट	-11.0344
▁कोहरे	-11.0344
ाबड़	-11.0346
▁2004	-11.035
पोर्ट	-11.0353
▁सीरिया	-11.0356
▁Y	-11.0364
▁रखती	-11.0364
▁रमन	-11.0366
ज्ञ	-11.0369
▁आैर	-11.0371
▁जानवरों	-11.038
07	-11.0388
▁मेवाड़	-11.0388
शांत	-11.0391
मुझे	-11.0393
AI	-11.0397
▁लहरा	-11.04
▁रैक	-11.04
▁अश्विनी	-11.0405
▁घुसपैठ	-11.0417
▁इरफान	-11.0417
▁द्वीप	-11.0417
▁नड्डा	-11.0417
▁रिलायंस	-11.0417
▁वॉट्सऐप	-11.0417
▁व्याख्या	-11.0417
▁व्हील	-11.0417
▁सितम्बर	-11.0417
▁तख्त	-11.0417
▁निचले	-11.0417
▁भरोसे	-11.0417
▁प्लाट	-11.0417
▁सिनेमाघर	-11.0418
▁कतार	-11.0418
गोल	-11.042
मित्र	-11.042
▁बताती	-11.0423
▁फतेहपुर	-11.0424
▁धोनी	-11.0426
▁काउंटर	-11.0426
पंथ	-11.0427
▁दावेदार	-11.045
ala	-11.0454
▁63	-11.0459
61	-11.0464
▁बुद्धि	-11.0469
se	-11.047
▁योजनाएं	-11.0473
▁बताकर	-11.0478
▁शॉट	-11.0479
▁एट	-11.0488
▁मियां	-11.0489
▁गोर	-11.0491
▁पिस्तौल	-11.0496
▁वेस्टइंडीज	-11.0496
▁हेरोइन	-11.0496
▁खोजबीन	-11.0496
▁प्रेशर	-11.0497
▁कालोनी	-11.0497
▁पर्ची	-11.0498
▁दलील	-11.0498
▁महेंद्रगढ़	-11.0501
गेट	-11.0505
▁आईपीएस	-11.0507
▁मजाक	-11.0509
▁सीमेंट	-11.0511
▁चौथा	-11.0513
▁जेट	-11.0514
▁कबीर	-11.0514
▁सकेगी	-11.0516
▁मॉल	-11.0524
▁निर्देशक	-11.0527
▁वकीलों	-11.0531
▁नीलम	-11.0532
▁ढोल	-11.0532
▁फु	-11.0533
▁बेरोजगारी	-11.0535
▁गोला	-11.0541
▁मंजू	-11.0552
▁साधना	-11.0553
बाबू	-11.0557
▁वंश	-11.0561
▁अख्तर	-11.0576
▁अपार्टमेंट	-11.0576
▁पुरोहित	-11.0576
▁प्रतिष्ठित	-11.0576
▁प्रमोशन	-11.0576
▁प्रौद्योगिकी	-11.0576
▁फ्रॉड	-11.0576
▁मैरिज	-11.0576
▁पाटिल	-11.0576
▁एकेडमी	-11.0577
▁हेल्पलाइन	-11.0577
▁स्वाति	-11.0579
▁संग्रह	-11.0579
▁धीरज	-11.058
▁समीर	-11.0582
▁बर्फ	-11.0584
▁जया	-11.0584
▁प्रसार	-11.0587
▁खेम	-11.0591
▁राहगीरों	-11.0597
प्पी	-11.0613
79	-11.0614
▁गीतों	-11.0616
▁आयकर	-11.0636
de	-11.0644
▁कचर	-11.0648
▁अधिसूचना	-11.0657
▁धौलपुर	-11.0657
▁प्रदोष	-11.0657
▁मिथुन	-11.0657
▁शिक्षण	-11.0657
▁श्रृंगार	-11.0657
▁संदर्भ	-11.0657
▁पटियाला	-11.0657
▁सोनाक्षी	-11.0657
▁विपिन	-11.0657
▁गर्दन	-11.0657
▁सेगमेंट	-11.0658
▁आपातकाल	-11.0658
▁स्टाइल	-11.0659
▁गजेंद्र	-11.066
▁उड़ाने	-11.0663
▁सिद्धू	-11.0664
▁हवन	-11.0664
▁डिपो	-11.0669
▁बची	-11.0669
ईडी	-11.0674
▁तर्ज	-11.0684
▁गायन	-11.0685
्‍त	-11.0688
▁बनाता	-11.0696
इयों	-11.0699
▁जाटव	-11.0706
▁कराते	-11.0713
ऐ	-11.0714
83	-11.0724
▁दीदी	-11.0728
.45	-11.0729
▁फीचर	-11.073
ac	-11.0732
वाहक	-11.0733
्रिड	-11.0735
▁खाई	-11.0738
▁चार्जशीट	-11.0738
▁जडेजा	-11.0738
▁दायित्व	-11.0738
▁पीयूष	-11.0738
▁मूल्यांकन	-11.0738
▁विक्रेता	-11.0738
▁वृंदावन	-11.0738
▁ओटीटी	-11.0738
▁संविदा	-11.0738
▁मेजबान	-11.0738
▁ध्वज	-11.0738
▁पैकेट	-11.074
▁समग्र	-11.0741
▁मदरस	-11.0742
▁प्रतिबद्धता	-11.0747
64	-11.0747
▁तीज	-11.0749
▁डीलर	-11.0751
▁73	-11.0759
▁अमान	-11.0764
▁मुसलमान	-11.0772
▁यु	-11.0792
ैद	-11.0794
98	-11.0806
▁वर्कर	-11.0812
▁अंबिकापुर	-11.082
▁इलाक़	-11.082
▁तिमाही	-11.082
▁प्रवर्तन	-11.082
▁फॉलो	-11.082
▁मुरादाबाद	-11.082
▁साप्ताहिक	-11.082
▁स्थगित	-11.082
▁जनगणना	-11.082
▁प्रशंसा	-11.082
▁श्वेता	-11.082
▁सरेंडर	-11.082
▁बाइडन	-11.082
▁उछाल	-11.082
▁किस्मत	-11.082
▁इकबाल	-11.0821
▁जालोर	-11.0821
▁हिस्सेदारी	-11.0821
▁स्टॉल	-11.0823
▁रखवाया	-11.0826
▁हलक	-11.0827
▁ड्रग्स	-11.0827
▁घटा	-11.0831
▁नानक	-11.0832
▁नागौर	-11.0836
▁बरसा	-11.085
▁83	-11.0851
▁नियंत्रित	-11.0853
इए	-11.0855
▁सीसी	-11.086
दर्शन	-11.0868
▁अभिन	-11.0877
900	-11.0879
▁भिड़	-11.0884
▁स्थिर	-11.0891
▁लोकेश	-11.0899
▁उपलक्ष्य	-11.0903
▁एहसास	-11.0903
▁ग़ज़ा	-11.0903
▁नोटिफिकेशन	-11.0903
▁फेडरेशन	-11.0903
▁सेल्फी	-11.0903
▁चिकित्सालय	-11.0903
▁दानापुर	-11.0903
▁स्वयंसेवक	-11.0903
▁ठहराया	-11.0905
▁प्रधानाचार्य	-11.0906
▁ट्रिप	-11.0906
▁शिवलिंग	-11.0908
▁घिर	-11.0912
▁दिलवा	-11.0917
▁सुचार	-11.0919
फिट	-11.0922
▁भाटी	-11.0927
▁पहनकर	-11.093
▁सुनते	-11.0936
▁उद्	-11.0938
▁92	-11.0942
▁जुआ	-11.0942
▁हिंद	-11.0942
▁पद्म	-11.0943
▁77	-11.0944
▁हाउसिंग	-11.0951
▁वैध	-11.0959
▁74	-11.0963
▁इनसे	-11.097
रक्षक	-11.0972
▁नमक	-11.0975
▁IND	-11.0986
▁अनियमितता	-11.0986
▁अधिग्रहण	-11.0986
▁पहलुओं	-11.0986
▁शेट्टी	-11.0986
▁स्मारक	-11.0986
▁गोलीबारी	-11.0986
▁धीमी	-11.0986
▁गणित	-11.0986
▁आराधना	-11.0987
▁चक्रवात	-11.0987
▁सीवरेज	-11.0987
▁एडीएम	-11.099
▁डोडा	-11.099
प्ति	-11.0991
▁साधु	-11.0991
▁टायर	-11.0992
▁वरीय	-11.0994
▁उद्योगपति	-11.0997
▁साधारण	-11.0999
एमसीएच	-11.1007
▁उत्पादों	-11.102
▁इंट	-11.1035
ter	-11.1037
▁इसराइली	-11.1041
▁उद	-11.1046
जीविका	-11.1053
वायु	-11.1063
▁चतुर्वेदी	-11.107
▁परामर्श	-11.107
▁मवेशी	-11.107
▁अरुणाचल	-11.107
▁घसीट	-11.1071
▁साहस	-11.1071
▁बांसवाड़ा	-11.1071
▁संजू	-11.1076
मंद	-11.1076
▁खदान	-11.1081
▁शारदा	-11.1086
▁दवाओं	-11.109
चंद्र	-11.1097
्‍ट	-11.1104
▁अभिभावकों	-11.1105
96	-11.111
▁बजरी	-11.1111
▁सीएमओ	-11.1112
▁नूर	-11.1128
▁मंगवा	-11.1129
चांदी	-11.1131
di	-11.1131
▁बेचा	-11.1137
▁110	-11.1145
लानी	-11.1148
▁बास	-11.1152
योजित	-11.1154
73	-11.1154
▁परिस्थिति	-11.1154
▁अध्यापक	-11.1155
▁ज़रूरत	-11.1155
▁डाउनलोड	-11.1155
▁डूंगरपुर	-11.1155
▁तेंदुए	-11.1155
▁बाउंड्री	-11.1155
▁सीतामढ़ी	-11.1155
▁दंपती	-11.1155
▁मुख्तार	-11.1155
▁गाजीपुर	-11.1155
▁मच्छर	-11.1155
▁फाटक	-11.1155
▁ब्लैकमेल	-11.1155
▁परंतु	-11.1156
300	-11.1157
▁फटकार	-11.1158
▁कोरबा	-11.1159
▁आखिरकार	-11.1161
ग्रस्त	-11.1162
▁ठोक	-11.1164
▁हांसी	-11.1165
▁उक	-11.1165
▁स्टडी	-11.1166
▁पांचवें	-11.1177
▁चाल	-11.1179
पुत्र	-11.1181
▁समन्वयक	-11.1184
▁ग्रह	-11.1194
▁ब्रज	-11.1195
▁प्रिया	-11.1196
▁तत्व	-11.1197
▁सितार	-11.1197
▁भाग्य	-11.1199
ST	-11.1227
▁1500	-11.1229
नायक	-11.1231
▁71	-11.1232
▁घुसे	-11.1233
▁लाड	-11.1233
▁अकादमी	-11.1241
▁ग्रंथ	-11.1241
▁राजसमंद	-11.1241
▁विपरीत	-11.1241
▁सीतारमण	-11.1241
▁निफ्टी	-11.1241
▁नवजात	-11.1241
▁नीलामी	-11.1241
▁पितृ	-11.1241
▁धमाके	-11.1241
▁बेनीवाल	-11.1241
शिरोमणि	-11.1241
▁एनर्जी	-11.1241
▁अथवा	-11.1241
▁वैशाली	-11.1241
▁बीएसएफ	-11.1241
▁गुजार	-11.1242
▁गोवर्धन	-11.1243
▁इमाम	-11.1243
▁दीपेंद्र	-11.1246
तफरी	-11.1246
▁सभापति	-11.1247
▁बोलेरो	-11.1255
▁लैस	-11.1257
▁मोहनलाल	-11.1258
▁विमल	-11.1273
▁फै	-11.128
▁कैट	-11.1283
सभा	-11.13
▁मंजूर	-11.1301
क्षेत्र	-11.1302
▁इनकम	-11.1307
इंट	-11.1307
▁रामेश्वर	-11.1313
▁रजिस्टर	-11.1326
▁जनप्रतिनिधि	-11.1326
▁कैंसिल	-11.1327
▁फ़िल्म	-11.1327
▁हेलमेट	-11.1327
▁आतिशी	-11.1327
▁तुर्की	-11.1327
▁दर्दनाक	-11.1327
ation	-11.1327
▁मायावती	-11.1327
जिस	-11.1327
▁मनीषा	-11.133
▁ओझा	-11.133
पाट	-11.1332
▁भैया	-11.1333
बड़ी	-11.1335
▁पीपल	-11.1336
▁96	-11.1337
▁बॉय	-11.1339
▁08	-11.134
▁भावनाओं	-11.1343
▁वैज्ञानिकों	-11.1344
ब्ज	-11.1346
800	-11.1346
▁सिद्धि	-11.1348
▁प्लस	-11.1348
देवताओं	-11.1351
▁शॉ	-11.1353
▁कमरा	-11.1362
▁भूत	-11.1365
▁हितों	-11.1368
▁चढ़कर	-11.1371
▁बनता	-11.1375
▁अनुपम	-11.138
▁आकार	-11.1381
ंतरिक	-11.1389
▁चिन्ह	-11.1411
▁Weather	-11.1414
▁पूर्वानुमान	-11.1414
▁मल्लिकार्जुन	-11.1414
▁राजनांदगांव	-11.1414
▁संतुष्ट	-11.1414
▁सब्सिडी	-11.1414
▁हिंसक	-11.1414
▁नूंह	-11.1414
▁रसोई	-11.1414
▁वैदिक	-11.1414
▁पीटीआई	-11.1414
▁अफरा	-11.1414
▁उत्तम	-11.1415
▁रजिस्टर्ड	-11.1415
▁स्नेह	-11.1416
▁प्वाइंट	-11.1416
आपत्तिजनक	-11.1416
▁प्रस्थान	-11.1417
▁सूबे	-11.1418
▁चिन्हित	-11.142
सहाय	-11.1421
ant	-11.1422
▁घोष	-11.1427
▁तीख	-11.1431
▁बजाज	-11.1434
▁पहुंचीं	-11.1435
▁उन्‍हों	-11.1438
▁वोटरों	-11.1444
▁नक्सल	-11.1446
▁एसके	-11.1454
िणी	-11.1462
ag	-11.1464
▁88	-11.1471
स्वामी	-11.1476
▁जीजा	-11.1476
▁निकायों	-11.148
जसप्रीत	-11.1484
▁आतंकवादी	-11.1501
▁अनुशासन	-11.1501
▁इंटेलिजेंस	-11.1501
▁इस्तीफे	-11.1501
▁तृणमूल	-11.1501
▁निर्वाचित	-11.1501
▁लक्षण	-11.1501
▁बर्तन	-11.1501
▁भूपेश	-11.1501
▁मेरिट	-11.1501
▁आंसू	-11.1502
▁मोहाली	-11.1502
▁नाकाबंदी	-11.1502
▁फतेहाबाद	-11.1502
▁पंजीकरण	-11.1502
▁टेस्‍ट	-11.1503
▁धीरेंद्र	-11.1503
▁""	-11.1504
▁नमी	-11.1504
▁बीघा	-11.1505
▁अखंड	-11.1515
▁पराली	-11.1516
कमिंग	-11.1523
▁माया	-11.1524
▁टीचर्स	-11.1528
▁चूक	-11.153
कर्ताओं	-11.1557
इंडिया	-11.1565
▁मात	-11.1576
▁उठाना	-11.1587
▁आक्रामक	-11.159
▁गडकरी	-11.159
▁गिरिडीह	-11.159
▁लोकार्पण	-11.159
▁हीटवेव	-11.159
▁धर्मशाला	-11.159
▁सुलझा	-11.159
▁लीजिए	-11.159
▁गिफ्ट	-11.159
▁मुरली	-11.159
▁नदियों	-11.159
▁चुप्पी	-11.159
▁सपने	-11.159
▁इंद्रजीत	-11.1593
▁गर्ल्स	-11.1593
▁फंदा	-11.1595
▁शेखपुरा	-11.1596
▁सेकेंडरी	-11.1598
▁मिलावट	-11.16
कभी	-11.1606
▁ओपनिंग	-11.1607
▁करीना	-11.1613
▁घेरा	-11.1618
▁शेड	-11.1621
▁बारीक	-11.1628
▁बनते	-11.1632
▁समझाने	-11.1633
▁हटाकर	-11.1636
▁डायरेक्ट	-11.1637
▁हनी	-11.1648
PC	-11.1653
प्रसाद	-11.1655
▁भतीज	-11.1655
सोल	-11.1663
ni	-11.1664
▁जानवर	-11.1664
▁संबोध	-11.1675
▁जहानाबाद	-11.1679
▁जानबूझ	-11.1679
▁टर्मिनल	-11.1679
▁फडणवीस	-11.1679
▁सोयाबीन	-11.1679
▁अष्टमी	-11.1679
▁भरपूर	-11.1679
▁दीजिए	-11.1679
▁(2)	-11.168
▁स्थानांतर	-11.1681
▁शैलेंद्र	-11.1682
▁धड़	-11.1683
▁फेमस	-11.1685
▁दूंगा	-11.1685
▁व्यवस्थाओं	-11.169
▁पावन	-11.1695
कृति	-11.17
▁इनको	-11.1723
न्नू	-11.1724
▁An	-11.173
▁मेट	-11.1737
▁धम	-11.1737
▁नमन	-11.1759
▁शुक्र	-11.1769
▁डॉक्यूमेंट	-11.1769
▁बहिष्कार	-11.1769
▁मुंगेर	-11.1769
▁अपेक्षा	-11.1769
▁एडमिट	-11.1769
▁जिंदल	-11.1769
▁परिक्रमा	-11.1769
▁बर्फबारी	-11.1769
▁भगदड़	-11.1769
▁अंकुश	-11.1769
▁चालीसा	-11.1769
▁पुतला	-11.1769
▁सहरसा	-11.1769
▁जागरण	-11.1769
▁भैरव	-11.1769
▁आरएसएस	-11.1772
▁मुन्ना	-11.1776
▁सीतापुर	-11.1777
▁ढाका	-11.1778
▁संक	-11.1779
▁दमदार	-11.1783
▁विनीत	-11.1785
▁राग	-11.1785
क्वा	-11.1786
▁यहाँ	-11.1796
र्डर	-11.1799
▁दया	-11.18
▁97	-11.1802
▁परिवाद	-11.1807
नुमा	-11.1808
▁ठप	-11.1813
ज्ञा	-11.1814
▁प्रभ	-11.1824
▁तरफ़	-11.1825
क्के	-11.183
ग्राउंड	-11.1837
मुक्त	-11.1839
▁रहेंगी	-11.1841
com	-11.1842
▁यानि	-11.1843
▁मांगें	-11.1843
▁कलां	-11.1848
▁बैल	-11.1849
▁वस्तु	-11.1855
▁डायवर्ट	-11.186
▁फिजिकल	-11.186
▁सशस्त्र	-11.186
▁सावित्री	-11.186
▁स्कॉर्पियो	-11.186
▁झज्जर	-11.186
▁ढांचे	-11.186
▁बदनाम	-11.186
▁मुनाफा	-11.186
▁कैपिटल	-11.186
▁मौलाना	-11.186
▁पूंजी	-11.186
▁उद्यान	-11.1861
▁शुरु	-11.1861
▁पर्चा	-11.1862
▁St	-11.1867
शियल	-11.1868
▁तैर	-11.1868
▁शेखर	-11.1868
▁सीवान	-11.1869
▁बढ़ेगा	-11.1874
ीआईपी	-11.1879
▁बुद्ध	-11.1895
▁450	-11.1899
▁ज्वेलरी	-11.19
▁कमाने	-11.19
▁सराय	-11.1911
▁तिहा	-11.1911
▁धुन	-11.1919
▁नाबाद	-11.193
▁84	-11.1943
▁इको	-11.1949
▁गवर्नर	-11.1952
▁डकैती	-11.1952
▁फ्लाईओवर	-11.1952
▁महाकुंभ	-11.1952
▁रामनिवास	-11.1952
▁व्यावसायिक	-11.1952
▁शिलान्यास	-11.1952
▁सहारनपुर	-11.1952
▁हेलिकॉप्टर	-11.1952
▁हेलीकॉप्टर	-11.1952
▁कॉलोनियों	-11.1952
▁निवारण	-11.1952
▁अनुकूल	-11.1952
▁झड़प	-11.1952
▁बंगले	-11.1952
▁टंडन	-11.1952
▁छपरा	-11.1952
▁दामाद	-11.1952
▁अब्दुल्ला	-11.1952
▁स्पिनर	-11.1953
▁लेटेस्ट	-11.1953
विकेटकीपर	-11.1953
बदल	-11.1953
▁स्टोरेज	-11.1956
▁लेफ्ट	-11.1957
▁समिट	-11.1959
▁पाय	-11.1959
संघ	-11.1966
ांतर	-11.1973
▁आपसे	-11.1976
ck	-11.1981
▁रुपया	-11.1988
▁प्रोत्साहन	-11.1994
▁जीरो	-11.1995
रोड	-11.1998
वेज	-11.2006
▁माय	-11.2008
रूढ़	-11.2009
▁लेखक	-11.201
▁ढह	-11.2014
▁मुंड	-11.2019
▁मंगा	-11.2027
▁बाप	-11.2028
▁टाल	-11.2042
▁नौजवान	-11.2045
▁विद्रोह	-11.2045
▁औषध	-11.2045
▁कंटेनर	-11.2045
▁प्रोफेशनल	-11.2045
▁बेकाबू	-11.2045
▁मवेशियों	-11.2045
▁वाणिज्य	-11.2045
▁सेरेमनी	-11.2045
▁डीआईजी	-11.2045
▁दरगाह	-11.2045
▁सिग्नल	-11.2045
▁अखबार	-11.2045
▁गिरिराज	-11.2045
▁बेरहम	-11.2045
▁फिटनेस	-11.2045
▁रिश्तों	-11.2045
▁कहासुनी	-11.2045
▁परीक्षार्थी	-11.2045
▁बेतिया	-11.2045
▁घरवालों	-11.2045
▁बगैर	-11.2046
▁रंगदारी	-11.2047
▁बरतने	-11.2049
▁त्रिपुरा	-11.205
▁छुट्	-11.2051
▁c	-11.2053
▁सांव	-11.2055
ीकृत	-11.2058
▁पड़ेगी	-11.2062
▁डाटा	-11.2063
▁झेल	-11.2066
▁उपेंद्र	-11.2066
▁सौदा	-11.2069
▁हॉट	-11.207
▁टाइम्स	-11.2076
▁डेड	-11.2077
▁चैक	-11.2079
राज्य	-11.2084
▁श्रमिकों	-11.2085
▁कंस	-11.2092
▁91	-11.2102
▁उठाई	-11.2103
▁कुशवाह	-11.2104
▁हस	-11.2108
▁मील	-11.2126
▁दस्तक	-11.2128
▁आतिशबाजी	-11.2138
▁तुम्हें	-11.2138
▁दिसम्बर	-11.2138
▁दुरुपयोग	-11.2138
▁पौधरोपण	-11.2138
▁बूंदाबांदी	-11.2138
▁मनुष्य	-11.2138
▁मुर्मू	-11.2138
▁आरक्षित	-11.2138
▁गरिमा	-11.2138
▁बलिदान	-11.2138
▁अलमारी	-11.2138
▁कुत्तों	-11.2138
▁सॉफ्टवेयर	-11.2138
▁बंगला	-11.2138
▁मनोरंजन	-11.2138
▁झूम	-11.2139
▁लूटपाट	-11.2139
▁जरूरतमंद	-11.2139
▁गुरप्रीत	-11.214
▁अक्षर	-11.2141
▁प्राइस	-11.2141
▁कोहराम	-11.2141
लग्जरी	-11.2141
▁खुलासे	-11.2143
जाना	-11.2146
▁ट्रोल	-11.2146
▁क्षण	-11.2146
▁चेत	-11.215
▁फिन	-11.2151
▁स्थिरता	-11.2152
▁बनाएंगे	-11.2157
▁आवारा	-11.2159
▁रिक्शा	-11.2176
▁सावधानी	-11.2177
▁गोपी	-11.2177
ang	-11.2188
▁रखवा	-11.2188
SS	-11.2204
▁कसा	-11.2207
नियम	-11.221
▁लखन	-11.2213
फाई	-11.2227
▁एसडीओ	-11.2229
▁पन्ना	-11.2229
▁iPhone	-11.2232
▁अहिरवार	-11.2232
▁गर्लफ्रेंड	-11.2232
▁जौनपुर	-11.2232
▁धुआं	-11.2232
▁बैडमिंटन	-11.2232
▁समझाइश	-11.2232
▁हिदायत	-11.2232
▁नॉर्थ	-11.2232
▁रिव्यू	-11.2232
▁कुश्ती	-11.2232
▁वृक्ष	-11.2232
▁सहारे	-11.2233
▁खड़गे	-11.2233
▁प्रातः	-11.2234
▁केमिकल	-11.2234
▁स्कैन	-11.2234
▁मिर्जापुर	-11.2236
▁82	-11.2238
▁निभाया	-11.2248
लाइट	-11.2249
▁नवमी	-11.2249
▁बीपी	-11.2251
▁जमी	-11.2255
▁मालवा	-11.2267
▁सबका	-11.2269
शंस	-11.2273
▁बचाई	-11.2276
▁खुदाई	-11.228
▁मिनी	-11.2284
▁शान	-11.2285
▁सीआई	-11.2287
▁सहनी	-11.2288
है	-11.2294
▁रणनीतिक	-11.2294
विवाहित	-11.2295
भूमि	-11.2302
किशोर	-11.2303
ard	-11.2304
बिहार	-11.2306
▁आध्यात्मिक	-11.2328
▁कुरुक्षेत्र	-11.2328
▁बहराइच	-11.2328
▁रजिस्ट्रार	-11.2328
▁संलिप्त	-11.2328
▁अफेयर	-11.2328
▁जॉर्ज	-11.2328
ment	-11.2328
▁खौफ	-11.2328
▁सटीक	-11.2328
▁पुरुषोत्तम	-11.2328
▁माइक्रो	-11.2328
बिलिटी	-11.2329
▁जन्मोत्सव	-11.233
▁कटारिया	-11.2331
▁जनहित	-11.2331
▁छुपा	-11.2331
▁पायल	-11.2331
▁पेंटिंग	-11.2335
▁महुआ	-11.2335
▁इज	-11.2337
▁चौथ	-11.2338
▁समितियों	-11.2341
च्चा	-11.2343
▁रौंद	-11.2343
▁महाजन	-11.2345
▁मायने	-11.2346
▁यूथ	-11.2351
▁बनाती	-11.2357
एसआई	-11.2357
▁तौ	-11.2367
▁लिहाजा	-11.237
▁नाली	-11.2377
▁सारण	-11.2382
▁फैज	-11.2391
आज	-11.2405
▁कतर	-11.2409
▁वासियों	-11.2413
▁दाग	-11.2415
ऑफ	-11.2416
▁अल्पसंख्यकों	-11.2417
▁दिखाए	-11.242
▁NEET	-11.2424
▁जनसंपर्क	-11.2424
▁त्रिवेदी	-11.2424
▁प्रेसिडेंट	-11.2424
▁ऊंची	-11.2424
▁कस्बा	-11.2424
▁कच्चे	-11.2424
▁जटिल	-11.2424
▁बबलू	-11.2424
▁सीहोर	-11.2424
▁आकलन	-11.2424
▁पंड्या	-11.2425
▁भाटिया	-11.2426
▁हिरण	-11.2427
▁संयोग	-11.2429
▁तड़क	-11.2432
▁हटाए	-11.2433
▁पीए	-11.2433
▁पोस्टिंग	-11.2435
▁बिरला	-11.2436
ani	-11.2441
59	-11.2443
संत	-11.2447
▁वासी	-11.2447
▁नाका	-11.245
िधि	-11.2465
▁मसल	-11.2471
▁तरीक	-11.2474
▁सहज	-11.2476
भाई	-11.2492
िष्क	-11.2507
िस्तान	-11.2509
▁ताले	-11.2509
IS	-11.2519
▁ट्रांस	-11.252
▁विश्लेषक	-11.2521
▁गुमशुदगी	-11.2521
▁न्यूयॉर्क	-11.2521
▁मल्होत्रा	-11.2521
विमर्श	-11.2521
▁प्रशस्त	-11.2521
▁हमलोग	-11.2521
▁अफीम	-11.2521
▁नींव	-11.2521
▁गाइडलाइन	-11.2521
▁परमिशन	-11.2521
▁आवक	-11.2521
▁एसएमएस	-11.2522
▁प्याज	-11.2522
▁टास्क	-11.2523
▁नरसिंह	-11.2527
▁डंडे	-11.2527
▁समृद्ध	-11.2528
▁नीमच	-11.2529
▁करवाना	-11.2529
▁फिरोजपुर	-11.253
um	-11.2533
पत्ति	-11.2534
न्ध	-11.2535
▁गेम्स	-11.2541
▁बनाएं	-11.2542
वर्ती	-11.2546
▁अकेला	-11.255
ुल्लाह	-11.2552
▁कमांडर	-11.2573
▁79	-11.2579
▁जोकि	-11.2579
▁समझते	-11.2584
▁निकलते	-11.2585
▁संगत	-11.2589
गृह	-11.2594
▁नीम	-11.26
▁दोष	-11.2606
ran	-11.2609
▁ठेके	-11.2616
▁खिड़की	-11.2619
▁गौशाला	-11.2619
▁चरित्र	-11.2619
▁तबादला	-11.2619
▁दिवंगत	-11.2619
▁बैरिकेड	-11.2619
▁महापर्व	-11.2619
▁लॉन्‍च	-11.2619
▁एसओजी	-11.2619
▁मुखर्जी	-11.2619
▁छलांग	-11.2619
▁इनपुट	-11.2619
▁ट्रॉली	-11.2619
▁गालियां	-11.2619
▁^	-11.2619
माउंट	-11.262
▁बेटों	-11.262
▁लोकतांत्रिक	-11.262
▁झंडी	-11.2622
▁ख़ास	-11.2624
▁मुरार	-11.2628
▁साई	-11.2628
▁अंश	-11.2629
▁बांका	-11.2629
▁संगम	-11.263
▁चाबी	-11.2634
▁फर्क	-11.2635
शियन	-11.2639
▁डाउन	-11.264
सिम	-11.2643
▁2.5	-11.2644
▁मोक्ष	-11.2645
मैंने	-11.2649
▁कारोबारियों	-11.2652
▁आएंगी	-11.2653
रेखा	-11.2654
▁टच	-11.2658
▁चैट	-11.2658
▁युक्त	-11.2659
▁बीबी	-11.2664
▁फोड़	-11.2664
पेंड	-11.2673
▁पोर्ट	-11.2677
कॉन	-11.2689
im	-11.269
▁रीना	-11.2692
▁बहाली	-11.2697
▁परिवर्त	-11.27
▁बुआ	-11.2701
▁सुल्तान	-11.2705
▁ड्रग	-11.2709
▁वास्तव	-11.2712
▁गुजरने	-11.2715
▁गिरफ्त	-11.2716
▁फ्लैग	-11.2718
▁ऋतु	-11.2718
▁ऑलराउंडर	-11.2718
▁किडनैप	-11.2718
▁कॉम्प्लेक्स	-11.2718
▁कौशिक	-11.2718
▁चंद्रचूड़	-11.2718
▁प्रकोष्ठ	-11.2718
▁माथुर	-11.2718
▁मोतिहारी	-11.2718
▁विदिशा	-11.2718
▁व्हाइट	-11.2718
▁संवैधानिक	-11.2718
▁महाआरती	-11.2718
▁बेटियां	-11.2718
▁मंथन	-11.2718
▁रचनात्मक	-11.2718
▁पंजीकृत	-11.2718
▁फैक्टर	-11.2718
मार्क	-11.2718
▁शुरूआत	-11.2719
▁खुर्द	-11.272
▁मेहर	-11.272
▁एंगल	-11.2721
▁टॉर्	-11.2722
▁नवाब	-11.2723
▁लेगी	-11.2724
▁राइड	-11.2724
▁गोपालगंज	-11.2728
▁गगन	-11.2729
▁रस्म	-11.273
▁Z	-11.273
▁सेंसर	-11.2736
▁चैन	-11.274
▁ड्राइव	-11.2744
84	-11.2744
▁घास	-11.2744
▁खोद	-11.2746
▁उपवास	-11.2749
▁पाटन	-11.2756
▁बेरोजगार	-11.2769
ुख्ता	-11.278
▁शर्म	-11.2794
▁इंडस्ट्रीज	-11.2795
▁तले	-11.2805
▁98	-11.2813
▁अद्भुत	-11.2818
▁अर्घ्य	-11.2818
▁इब्राहिम	-11.2818
▁नारनौल	-11.2818
▁पूर्वोत्तर	-11.2818
▁मुजफ्फरनगर	-11.2818
▁मॉर्च्य	-11.2818
▁राइफल	-11.2818
▁रेवन्ना	-11.2818
▁लाइब्रेरी	-11.2818
▁वैक्सीन	-11.2818
▁शंभू	-11.2818
▁हरिद्वार	-11.2818
▁कुमावत	-11.2818
▁सनसनी	-11.2818
▁रास्तों	-11.2818
▁अकबर	-11.2818
▁पुनः	-11.2819
▁पर्दे	-11.2819
▁छक्के	-11.2819
▁सूर्यकुमार	-11.2819
▁खरगे	-11.282
▁अनोख	-11.282
▁झंडे	-11.2821
▁गुलाम	-11.2822
▁जेडीए	-11.2823
▁दिये	-11.2824
▁पार्टियां	-11.2829
▁पॉइंट्स	-11.2834
▁पन्न	-11.2835
▁पंजी	-11.2845
▁छात्राएं	-11.2856
mp	-11.2862
व्यवस्था	-11.2865
▁87	-11.287
▁दावेदारी	-11.288
▁सोहन	-11.2884
▁जातीय	-11.2885
ब्बा	-11.289
विधान	-11.2898
अगर	-11.2909
▁जिता	-11.2909
प्रति	-11.2913
700	-11.2914
ोगे	-11.2918
▁Update	-11.2919
▁अनदेखी	-11.2919
▁अनुच्छेद	-11.2919
▁अनुष्ठान	-11.2919
▁इंग्लिश	-11.2919
▁औपचारिक	-11.2919
▁टुकड़े	-11.2919
▁धनंजय	-11.2919
▁पर्यवेक्षक	-11.2919
▁बटालियन	-11.2919
▁हेरिटेज	-11.2919
▁यूपीएससी	-11.2919
▁कॉमर्स	-11.2919
▁सैयद	-11.2919
▁नवाचार	-11.2919
▁(35)	-11.2919
▁महाकालेश्वर	-11.2921
▁उन्नत	-11.2922
▁टीएमसी	-11.2922
▁सुखबीर	-11.2923
▁चौबे	-11.2923
▁पलटवार	-11.2925
▁रामचंद्र	-11.2926
▁ड्राइविंग	-11.2927
▁टावर	-11.2929
▁b	-11.293
▁संतान	-11.2932
▁टेंट	-11.2941
▁इंडी	-11.2955
एमएस	-11.2961
▁बनवाने	-11.2966
▁हड़प	-11.297
▁जानकी	-11.2971
▁टीबी	-11.2973
▁समर्थ	-11.2975
▁विभाजन	-11.2984
▁बंट	-11.2985
▁वोटर्स	-11.2987
रांत	-11.2992
▁कराएं	-11.2993
जैसे	-11.2997
▁फोटोज	-11.3005
▁फायदे	-11.3021
▁ASI	-11.3021
▁गवर्नमेंट	-11.3021
▁दुरुस्त	-11.3021
▁पंचकूला	-11.3021
▁बाइडेन	-11.3021
▁महानिदेशक	-11.3021
▁राजभवन	-11.3021
▁मारुति	-11.3021
▁अवश्य	-11.3021
▁फिरौती	-11.3021
▁सेमेस्टर	-11.3021
▁नफरत	-11.3021
IMD	-11.3021
▁जरिये	-11.3021
▁किस्सा	-11.3021
बख्श	-11.3021
▁प्रतिनिधिमंडल	-11.3022
▁कूलर	-11.3023
▁विधिवत	-11.3023
▁विजिट	-11.3025
▁काउंटिंग	-11.3025
▁मोनू	-11.3028
▁टेंप	-11.3029
▁गंदा	-11.3029
▁एसआईटी	-11.3031
▁सर्विसेज	-11.3031
▁मेह	-11.3037
▁ख़ान	-11.3043
▁अंग्रेजों	-11.305
सराय	-11.3064
िंदा	-11.3064
▁जुड़ने	-11.3069
▁श्रीनगर	-11.307
▁ट्रै	-11.307
▁180	-11.3079
▁सटे	-11.3081
▁क्लीन	-11.3083
रियल	-11.3085
▁बैटर	-11.3085
iya	-11.3087
बैक	-11.3116
wa	-11.3123
▁एडवाइजर	-11.3124
▁ख़त्म	-11.3124
▁प्रवचन	-11.3124
▁फोरेंसिक	-11.3124
▁रेजिडेंट	-11.3124
▁विश्राम	-11.3124
▁हल्दी	-11.3124
▁कपूरथला	-11.3124
▁झटके	-11.3124
▁अवार्ड	-11.3124
▁लोधी	-11.3124
▁लायक	-11.3124
▁कर्नल	-11.3125
▁बोकारो	-11.3125
▁चरखी	-11.3125
▁सजावट	-11.3126
▁बहुजन	-11.3128
▁भवानी	-11.3134
▁युवतिय	-11.3136
▁सुल्तानपुर	-11.3138
दहाड़े	-11.3138
▁पटाखे	-11.3144
▁पैरवी	-11.3145
▁मचाया	-11.3145
▁ईमानदारी	-11.3147
▁वन्य	-11.316
▁अनुपमा	-11.3165
▁बंटी	-11.3184
▁मुझ	-11.319
▁दर्शा	-11.3202
घोष	-11.3204
▁घेराबंद	-11.3208
▁डेवलप	-11.3227
▁गोताखोर	-11.3228
▁आडवाणी	-11.3228
▁गणमान्य	-11.3228
▁दुष्यंत	-11.3228
▁पाण्डेय	-11.3228
▁पीएचडी	-11.3228
▁फ़ैसला	-11.3228
▁फिफ्टी	-11.3228
▁मुआवजे	-11.3228
▁लेनदेन	-11.3228
▁शादीशुदा	-11.3228
▁वैश्य	-11.3228
▁रुद्र	-11.323
▁धवन	-11.3233
▁आरंभ	-11.3233
▁कूड़ा	-11.3235
▁आईसीसी	-11.3236
ाइजेशन	-11.3238
▁लिखते	-11.3247
man	-11.3253
▁डालते	-11.3274
▁पीड़ा	-11.3275
sha	-11.3282
धर्म	-11.3282
▁पक्का	-11.3283
▁आरजी	-11.3286
▁लेबर	-11.3295
स्सी	-11.3308
▁एपल	-11.3309
▁मठ	-11.3323
°	-11.3333
▁Modi	-11.3333
▁ऑरेंज	-11.3333
▁गिरफ़्तार	-11.3333
▁चित्रकूट	-11.3333
▁झालावाड़	-11.3333
▁दूतावास	-11.3333
▁पाउडर	-11.3333
▁रिएक्शन	-11.3333
▁विश्लेषण	-11.3333
▁पुष्कर	-11.3333
▁डेविड	-11.3333
▁सुपुर्द	-11.3333
▁अनमोल	-11.3333
▁कारगिल	-11.3333
▁अनुपस्थित	-11.3334
▁अटेंड	-11.3334
▁गर्भगृह	-11.3334
▁चौरसिया	-11.3334
▁नम्बर	-11.3334
▁अग्रिम	-11.3335
▁अनुबंध	-11.3336
▁भाभी	-11.3337
▁ग्रेटर	-11.3337
▁भेड़	-11.3339
▁आईपीओ	-11.3341
▁गोंडा	-11.3345
▁गिरीश	-11.3346
▁डिब्बे	-11.3347
▁93	-11.3349
▁सियासत	-11.3352
▁स्थाई	-11.3358
▁स्वाद	-11.338
▁गड़बड़	-11.3391
ind	-11.341
ॐ	-11.3415
▁बेसिक	-11.342
▁प्रीमिय	-11.3427
▁स्पर्धा	-11.344
▁अग्निशमन	-11.344
▁आश्चर्य	-11.344
▁इच्छुक	-11.344
▁ज्‍यादा	-11.344
▁तेंदुआ	-11.344
▁निमंत्रण	-11.344
▁भूकंप	-11.344
▁प्रांगण	-11.344
▁मलेरिया	-11.344
▁राधेश्याम	-11.344
▁सार्थक	-11.344
▁ट्यूब	-11.344
▁सिंधी	-11.344
▁छतरपुर	-11.344
▁पेशेवर	-11.344
▁डिस्क	-11.344
▁अभिनंदन	-11.344
▁बाईपास	-11.3441
▁कनेक्ट	-11.3442
▁मेजर	-11.3448
▁विकासखंड	-11.3448
▁1999	-11.345
▁हनुमानगढ़	-11.3451
▁जयंत	-11.3472
▁गोलू	-11.3473
▁मिट्	-11.3478
ोरिया	-11.3502
▁मजा	-11.3513
कप्तान	-11.3523
▁साब	-11.3524
जहां	-11.3526
स्थाई	-11.3539
▁भ्रम	-11.3543
▁अवलोकन	-11.3547
▁आत्मविश्वास	-11.3547
▁उत्तरप्रदेश	-11.3547
▁खंडेलवाल	-11.3547
▁छोटू	-11.3547
▁जनजातीय	-11.3547
▁मुस्कान	-11.3547
▁समर्पण	-11.3547
▁नवम्बर	-11.3547
▁उल्टी	-11.3547
▁कुंवर	-11.3547
▁यकीन	-11.3547
▁(25)	-11.3548
▁गंदे	-11.3548
▁होर्डिंग	-11.3548
▁देओल	-11.3548
▁पाइपलाइन	-11.3548
▁कंचन	-11.3549
▁कैडर	-11.355
▁थ्रो	-11.3552
▁सातवें	-11.356
▁रैंकिंग	-11.3563
▁छुड़ा	-11.3563
ऊं	-11.358
▁रुपय	-11.3582
▁एक्सपो	-11.3597
किल	-11.36
्राफ्ट	-11.3606
▁बिछ	-11.3607
▁मातम	-11.3622
०	-11.3656
▁SUV	-11.3656
▁इंजेक्शन	-11.3656
▁इकोनॉमी	-11.3656
▁कॉमेडी	-11.3656
▁तालिबान	-11.3656
▁द्विपक्षीय	-11.3656
▁पॉलिटिकल	-11.3656
▁फ्रेंचाइज	-11.3656
▁रुझान	-11.3656
▁व्हीकल	-11.3656
▁शिरकत	-11.3656
▁सम्पन्न	-11.3656
▁नैतिक	-11.3656
▁पांड्या	-11.3656
▁मधुबनी	-11.3656
▁रक्षाबंधन	-11.3656
▁रोकथाम	-11.3656
▁अडानी	-11.3656
▁(22)	-11.3656
▁कांस्य	-11.3656
▁चैंबर	-11.3657
▁शुगर	-11.3657
▁किडनी	-11.3658
▁असफल	-11.3658
▁आर्टिस्ट	-11.3658
▁किंग्स	-11.3658
कल्कि	-11.3659
▁बंधु	-11.3659
▁पंवार	-11.3662
▁बहाव	-11.3665
▁नकल	-11.3667
▁बोल्ड	-11.3667
▁चर्चित	-11.3668
▁साहेब	-11.3669
▁आगाज	-11.3669
▁बोझ	-11.3669
▁प्रथा	-11.367
▁अर्जी	-11.3672
▁5000	-11.3675
▁जयराम	-11.368
▁साकार	-11.368
▁जूते	-11.3686
pur	-11.3705
▁लिखने	-11.3705
▁शमी	-11.3706
▁संपत्तिय	-11.3715
▁श्रमिक	-11.373
भूषण	-11.373
▁युव	-11.3735
▁अकाल	-11.3751
▁उधार	-11.3755
▁मानवाधिकार	-11.3766
▁आरपीएफ	-11.3766
▁उरांव	-11.3766
▁क्लिनिक	-11.3766
▁बुरहानपुर	-11.3766
▁एस्टेट	-11.3766
▁गोशाला	-11.3766
▁सिंगापुर	-11.3766
▁तरुण	-11.3766
▁of	-11.3766
▁फीडर	-11.3766
▁मनरेगा	-11.3766
▁सुपौल	-11.3766
▁झोपड़	-11.3766
▁फाइटर	-11.3766
▁1.2	-11.3767
▁बायपास	-11.3767
थपथ	-11.3767
▁लोहिया	-11.3767
▁भावुक	-11.3769
▁विवेकानंद	-11.3769
▁ईमेल	-11.3769
▁शिवकुमार	-11.377
▁मोर्चरी	-11.3771
▁वस्तुओं	-11.3772
▁India	-11.3774
▁अररिया	-11.3774
▁मंशा	-11.3777
▁झाड़ियों	-11.3778
▁जीवित	-11.3779
▁मानवीय	-11.3783
▁उपहार	-11.3788
▁योग्यता	-11.379
कुंड	-11.3793
▁मोटर्स	-11.3794
▁रोटी	-11.3797
ud	-11.3804
▁दवाई	-11.3813
▁160	-11.3816
▁सीखने	-11.3817
▁सितारे	-11.3832
▁लड़ाक	-11.3836
▁सराहन	-11.3843
छोटे	-11.3853
दत्त	-11.386
और	-11.386
▁प्रोड्यूसर	-11.386
रिफिकेशन	-11.3877
▁Price	-11.3877
▁इंडस्ट्रियल	-11.3877
▁एक्सचेंज	-11.3877
▁कनेक्टिविटी	-11.3877
▁जनसंख्या	-11.3877
▁निशानदेही	-11.3877
▁प्रतिस्पर्ध	-11.3877
▁बर्थडे	-11.3877
▁मम्मी	-11.3877
▁लैपटॉप	-11.3877
▁शून्य	-11.3877
▁आरटीओ	-11.3877
▁ताइवान	-11.3877
▁संन्यास	-11.3877
▁घातक	-11.3877
▁महिमा	-11.3877
▁अबोहर	-11.3877
▁अंगूठ	-11.3877
▁हरियाली	-11.3877
▁अनूठ	-11.3878
विश्वसनीय	-11.3878
▁निरंजन	-11.3879
▁जायेगी	-11.3879
▁धुंध	-11.388
▁डाक्टर	-11.388
▁मेहरा	-11.3886
▁टीका	-11.3887
▁ओल	-11.3888
▁टैग	-11.3891
▁बालिकाओं	-11.3892
▁प्रस्तुतियां	-11.3895
▁लड़ेंगे	-11.3896
▁स्ट्रे	-11.3908
▁सीवर	-11.3909
▁अवध	-11.3924
▁बैठाकर	-11.3929
▁ज्वेलर	-11.3941
▁रूक	-11.3942
रुप	-11.3956
भक्त	-11.3978
▁अय्यर	-11.3989
▁अस्तित्व	-11.3989
▁बर्खास्त	-11.3989
▁भुवनेश्वर	-11.3989
▁सिरोही	-11.3989
co	-11.3989
▁गुमराह	-11.3989
▁पंचनामा	-11.3989
▁कच्ची	-11.3989
▁वायरस	-11.3989
▁शिमला	-11.399
▁प्रसव	-11.399
▁उछल	-11.399
▁भिड़ंत	-11.3991
▁क्षति	-11.3992
▁अभिनय	-11.3994
▁नारियल	-11.3994
▁ख़बर	-11.3994
▁देवगन	-11.3998
▁झांकिय	-11.3999
▁SC	-11.3999
▁सुखदेव	-11.4
▁यथा	-11.4001
▁जुग	-11.4001
▁योगेंद्र	-11.4002
▁मक्का	-11.4004
▁कैल	-11.4004
मणि	-11.4005
▁पेंट	-11.4007
▁अगवा	-11.4008
▁पाएगी	-11.401
▁गाजा	-11.4018
▁मल्ल	-11.4021
गढ	-11.4022
▁प्रात	-11.4027
▁चंद्रमा	-11.4029
▁प्रतियोगिताओं	-11.4041
्लास	-11.4044
▁कीमतें	-11.4046
▁सिक्स	-11.4046
▁झि	-11.4047
▁शॉप	-11.4049
▁चरम	-11.4049
▁बिस्तर	-11.4052
▁सकल	-11.4064
डीजल	-11.4094
q	-11.4103
▁इजाजत	-11.4103
▁ऑक्सीज	-11.4103
▁छिड़काव	-11.4103
▁ट्रांसप्लांट	-11.4103
▁निर्णायक	-11.4103
▁रिलेशनशिप	-11.4103
▁संक्रमण	-11.4103
▁संरचना	-11.4103
▁सिक्किम	-11.4103
▁एसबीआई	-11.4103
▁यशस्वी	-11.4103
▁शाजापुर	-11.4103
▁नगरपालिका	-11.4103
▁प्रकोप	-11.4103
▁सेमिनार	-11.4103
▁किरोड़ी	-11.4103
▁दावों	-11.4103
▁पौधा	-11.4105
▁कैथल	-11.4106
▁भोले	-11.4107
▁बेसमेंट	-11.4107
ub	-11.4109
▁एडिट	-11.4111
▁किताबें	-11.4115
फिर	-11.4116
▁कंवर	-11.412
▁पटाखा	-11.4121
▁अनवर	-11.4125
▁रुकवा	-11.4128
▁कैंडिडेट्स	-11.4128
SA	-11.4138
▁मुश्किलें	-11.414
▁बताओ	-11.4145
▁समाजजन	-11.4157
▁डीजी	-11.416
▁गोग	-11.4161
टॉक	-11.4167
▁अभिभावक	-11.417
▁मीट	-11.4184
भाजपा	-11.4194
▁अंबा	-11.4202
ट्रॉ	-11.4209
▁अड्डा	-11.4218
▁इंडिगो	-11.4218
▁एमसी	-11.4218
▁क्लिप	-11.4218
▁दशरथ	-11.4218
▁प्रशासक	-11.4218
▁मगरमच्छ	-11.4218
▁लद्दाख	-11.4218
▁विक्षोभ	-11.4218
▁संवाददाता	-11.4218
▁हिस्ट्रीशीटर	-11.4218
▁नक्षत्र	-11.4218
▁फ्रेंड	-11.4218
▁निजात	-11.4218
▁गोमती	-11.4218
▁भावनात्मक	-11.4218
खुफिया	-11.422
▁ब्लाक	-11.422
▁डेमोक्रेटिक	-11.422
▁उलट	-11.4221
▁खाटू	-11.4222
▁टर्न	-11.4225
▁कैम्प	-11.4225
▁पंचमी	-11.4228
▁दफन	-11.4235
▁पैक्स	-11.4236
ोग्राफी	-11.4237
▁चौकीदार	-11.424
▁फाड़	-11.4255
▁फॉर्मेट	-11.4258
▁पितर	-11.4265
्मिता	-11.4283
▁सावधान	-11.4286
▁लगेगी	-11.4291
▁ऊंचा	-11.4299
विकास	-11.431
▁भराव	-11.4322
वेयर	-11.4325
▁घुमा	-11.4327
▁अर्धशतक	-11.4334
▁खालिस्तान	-11.4334
▁ICC	-11.4334
▁अदिति	-11.4334
▁अहिल्या	-11.4334
▁ओवैसी	-11.4334
▁कैलेंडर	-11.4334
▁खरगोन	-11.4334
▁जनसुनवाई	-11.4334
▁तुषार	-11.4334
▁दूल्हे	-11.4334
▁नाजुक	-11.4334
▁पहुँच	-11.4334
▁पेरेंट्स	-11.4334
▁बलौदाबाजार	-11.4334
▁मधेपुरा	-11.4334
▁वल्लभ	-11.4334
▁वेलफेयर	-11.4334
▁हकीकत	-11.4334
अस्थायी	-11.4334
▁आरबीआई	-11.4334
▁सिवनी	-11.4334
▁राजनेता	-11.4335
▁ढाणी	-11.4336
▁वर्जन	-11.4338
▁यादगार	-11.4338
▁स्पष्टीकरण	-11.4339
▁पीजीआई	-11.4339
▁पूनिया	-11.4339
▁1996	-11.434
▁शस्त्र	-11.434
▁ब्रेन	-11.4343
▁स्टंट	-11.4343
▁टीजर	-11.4343
▁आंखें	-11.4344
▁प्रीमियम	-11.4351
▁बैरवा	-11.4351
स्तरीय	-11.4363
▁हिम	-11.4373
कार्य	-11.4374
▁जयकार	-11.4376
▁बाएं	-11.4378
▁कटाई	-11.4383
▁जलाकर	-11.4385
▁अनजान	-11.4386
▁हादस	-11.4389
▁कैसी	-11.4393
▁140	-11.4396
▁अकेल	-11.4419
▁मैनेज	-11.442
▁दुर्	-11.4436
वैकल्पिक	-11.4452
▁आकांक्षा	-11.4452
▁आत्मनिर्भर	-11.4452
▁एमओयू	-11.4452
▁क्रिसमस	-11.4452
▁चंपारण	-11.4452
▁डिवाइडर	-11.4452
▁दिगंबर	-11.4452
▁बदायूं	-11.4452
▁भूस्खलन	-11.4452
▁वर्कशॉप	-11.4452
▁विमोचन	-11.4452
▁ऑडिट	-11.4452
▁बूंदी	-11.4452
▁ज़मीन	-11.4452
▁आगजनी	-11.4452
▁स्टार्टअप	-11.4452
▁कारीगर	-11.4453
▁दवाइयां	-11.4453
▁मैप	-11.4453
▁बिगाड़	-11.4453
▁महासंघ	-11.4454
▁चूरू	-11.4455
▁रिजवान	-11.4456
▁चेंज	-11.4456
▁तमिल	-11.4457
▁व्यय	-11.4457
▁चंद्राकर	-11.4458
▁उपखंड	-11.4458
▁स्किल	-11.4462
▁एडीजी	-11.4463
▁प्रवाह	-11.4465
▁ताप	-11.4466
▁बीएस	-11.4502
▁थानेदार	-11.4503
▁आसिफ	-11.4514
क्कर	-11.4518
▁रॉड	-11.4524
उधर	-11.4554
▁जेठ	-11.4567
▁मनोकामना	-11.4571
▁इत्यादि	-11.4571
▁कॉर्पोरेशन	-11.4571
▁द्रौपदी	-11.4571
▁विश्नोई	-11.4571
▁श्रावण	-11.4571
▁सांप्रदायिक	-11.4571
▁नकारात्मक	-11.4571
▁मेहंदी	-11.4571
▁हाजीपुर	-11.4571
▁परशुराम	-11.4571
▁हजारीबाग	-11.4571
▁सगाई	-11.4571
▁सस्ते	-11.4571
▁एनआईए	-11.4571
▁वेडिंग	-11.4572
▁इकट्	-11.4572
▁आराध्य	-11.4572
▁जन्मभूमि	-11.4572
▁प्रार्थ	-11.4572
▁उषा	-11.4575
▁कच्चा	-11.4576
▁भालू	-11.4576
▁थैल	-11.4576
▁ड्रामा	-11.4578
▁कमलनाथ	-11.4578
▁साहनी	-11.4584
लुहान	-11.4584
▁काउंसिलिंग	-11.4589
▁2006	-11.4593
▁भोला	-11.4593
▁सिराज	-11.4602
शिव	-11.4602
▁न्यूज़	-11.4614
▁कोलार	-11.4618
▁गौड़	-11.4619
रुक	-11.4638
ath	-11.4654
चढ़ाव	-11.4667
▁सारंग	-11.4671
7.5	-11.4675
▁प्रतिबद्ध	-11.4684
▁अपग्रेड	-11.4691
▁खुदकुशी	-11.4691
▁गोपनीय	-11.4691
▁चेयरपर्सन	-11.4691
▁प्रहलाद	-11.4691
▁मलाइका	-11.4691
▁माल्यार्पण	-11.4691
▁लॉन्ड्रिंग	-11.4691
▁वक़्त	-11.4691
▁विवेचना	-11.4691
▁टूरिस्ट	-11.4691
▁धमकियां	-11.4691
▁अवस्थी	-11.4691
▁जितेन्द्र	-11.4691
▁पुण्य	-11.4691
▁आंशिक	-11.4691
▁आईएमडी	-11.4691
▁कुणाल	-11.4691
▁राजनयिक	-11.4691
▁इटली	-11.4692
▁भत्ता	-11.4692
▁ईसाई	-11.4692
▁चंबल	-11.4692
▁कल्चर	-11.4692
▁पंखे	-11.4692
▁(30)	-11.4692
▁नीतू	-11.4692
▁अवशेष	-11.4692
एनडीपीएस	-11.4692
▁भुगतन	-11.4693
▁क्रिएट	-11.4693
शैतान	-11.4693
lo	-11.4694
बेटी	-11.4694
▁हलचल	-11.4694
▁एक्टिविटी	-11.4695
▁सम्मि	-11.4695
▁न्यास	-11.4695
▁अमृतपाल	-11.4699
▁मूंग	-11.4699
▁धमकाया	-11.47
▁रिवर	-11.47
▁नर्सरी	-11.4701
▁दुआ	-11.4702
▁लगवाने	-11.4703
डे़	-11.4707
▁बनवाया	-11.471
▁हरप्रीत	-11.4716
▁कटाव	-11.472
▁बलराम	-11.4721
▁डीडी	-11.4742
▁मोर्च	-11.4775
▁साईं	-11.4779
▁जुर्मान	-11.4797
▁चीत	-11.4805
शेष	-11.4808
तांत्रिक	-11.4812
▁जांजगीर	-11.4813
*	-11.4813
▁ओवरब्रिज	-11.4813
▁ज़रूरी	-11.4813
▁दृढ़	-11.4813
▁ध्वजारोहण	-11.4813
▁बाइपास	-11.4813
▁रणधीर	-11.4813
▁सांगानेर	-11.4813
▁होमगार्ड	-11.4813
▁चंपाई	-11.4813
▁स्ट्रीम	-11.4813
▁चप्पल	-11.4813
▁छावनी	-11.4813
▁मिर्च	-11.4813
▁मनमानी	-11.4814
▁शावक	-11.4814
▁गलियों	-11.4814
▁बिजनेसमैन	-11.4815
▁बगीच	-11.4816
▁बैलेट	-11.4817
▁खपत	-11.4824
मेरे	-11.4827
▁कर्ण	-11.4828
▁मौक	-11.483
स्टार	-11.4833
▁स्क्रीनिंग	-11.4835
▁तादा	-11.4839
▁फैसल	-11.4854
OS	-11.4862
▁AD	-11.4867
नीयत	-11.4911
निर्माण	-11.492
▁हेल्प	-11.4937
▁विद्वान	-11.4937
▁उपराष्ट्रपति	-11.4937
▁एयरलाइंस	-11.4937
▁पैटर्न	-11.4937
▁मज़बूत	-11.4937
▁मर्चेंट	-11.4937
▁महागठबंधन	-11.4937
▁व्यायाम	-11.4937
▁श्रृंखला	-11.4937
▁स्कूटर	-11.4937
▁अन्तर्	-11.4937
▁धरोहर	-11.4937
▁इटावा	-11.4937
▁कंटेंट	-11.4937
▁जालसाज	-11.4937
▁दीनदयाल	-11.4937
▁शिष्य	-11.4937
▁फतह	-11.4937
विजिलेंस	-11.4937
▁रोहिणी	-11.4937
▁स्टॉप	-11.4937
▁महालक्ष्मी	-11.4938
▁पखवाड़	-11.4938
▁जसवंत	-11.4938
▁एसटीएफ	-11.4938
▁रस्सी	-11.4939
▁मिडिल	-11.494
▁रिसीव	-11.494
▁निर्देशानुसार	-11.4943
▁ख्वा	-11.4947
रादित्य	-11.495
6.5	-11.4959
▁पक्क	-11.4959
▁हर्षित	-11.4971
▁मुहर	-11.4976
▁सीआईए	-11.4996
देय	-11.4998
ल्थ	-11.5028
आईटीआई	-11.5035
▁1200	-11.5047
▁गुस्साए	-11.5048
▁प्रेग्नें	-11.5062
सीबीएसई	-11.5062
▁अथॉरिटी	-11.5062
▁कुल्हाड़ी	-11.5062
▁धैर्य	-11.5062
▁बिजनौर	-11.5062
तृक	-11.5062
▁अडाणी	-11.5062
▁चिंतित	-11.5062
▁महाराणा	-11.5062
▁मराठी	-11.5062
▁पलायन	-11.5062
▁रॉकेट	-11.5062
▁जौहर	-11.5062
▁सौगात	-11.5062
▁हल्का	-11.5062
महायुति	-11.5062
▁चक्रवर्ती	-11.5062
▁सहकारिता	-11.5063
▁सरसों	-11.5063
▁RSS	-11.5063
▁आइडिया	-11.5063
▁इंसाफ	-11.5064
जहाँ	-11.5064
▁बेस्ड	-11.5065
▁मालिनी	-11.5067
▁ट्रम्प	-11.5067
▁गंगाजल	-11.5068
कुआं	-11.507
▁सेलेब्	-11.5071
▁Co	-11.5073
▁सट्टा	-11.5074
▁रीति	-11.5075
्शन	-11.5094
▁पंड	-11.5125
▁मझ	-11.5126
ow	-11.514
▁Cha	-11.5146
▁रौ	-11.515
▁फ्रीज	-11.5174
war	-11.5175
रोधी	-11.5177
▁शेफ	-11.5179
▁निर्धार	-11.5184
ाधीन	-11.5187
▁news	-11.5188
▁अभियोजन	-11.5188
▁ऋतिक	-11.5188
▁एग्रीमेंट	-11.5188
▁चाइल्ड	-11.5188
▁जाह्नवी	-11.5188
▁डिप्रेशन	-11.5188
▁देशभक्ति	-11.5188
▁पादुकोण	-11.5188
▁मन्दिर	-11.5188
▁महामंडलेश्वर	-11.5188
▁मैराथन	-11.5188
▁वाटिका	-11.5188
▁व्हाट्सएप	-11.5188
▁श्राद्ध	-11.5188
▁स्मैक	-11.5188
▁हरिओम	-11.5188
▁बॉबी	-11.5188
▁टेनिस	-11.5188
▁डीएवी	-11.5188
यूनाइटेड	-11.5189
▁(24)	-11.5189
▁बोनस	-11.5189
▁भीमराव	-11.5189
▁(1)	-11.5189
▁ग्रैंड	-11.519
▁सत्यनारायण	-11.519
▁जयप्रकाश	-11.5191
▁जलाभिषेक	-11.5191
▁भिजवाया	-11.5192
▁पीसीसी	-11.5194
▁अभिजीत	-11.5194
रूद्ध	-11.5194
▁US	-11.5196
▁रईस	-11.5196
▁अमरनाथ	-11.5199
फ्ट	-11.5204
mA	-11.5205
▁अधिकृत	-11.5208
ess	-11.5216
▁कुंज	-11.5241
▁बचाओ	-11.5251
श्वस्त	-11.5259
▁नित्य	-11.5276
पाठ	-11.5286
पाकिस्तान	-11.5292
डाउन	-11.5295
चित्र	-11.5306
प्रिय	-11.5311
▁Kapoor	-11.5317
▁ईदगाह	-11.5317
▁कुख्यात	-11.5317
▁डोटासरा	-11.5317
▁निलंबन	-11.5317
▁मानसरोवर	-11.5317
▁शताब्दी	-11.5317
▁सिंहभूम	-11.5317
▁गुरमीत	-11.5317
▁परीक्षार्थियों	-11.5317
▁पॉक्सो	-11.5317
▁कृत्य	-11.5317
▁फोरलेन	-11.5317
▁उफान	-11.5317
▁दमोह	-11.5317
▁ख़ुद	-11.5317
▁रायसेन	-11.5317
▁अब्बास	-11.5317
▁कंधे	-11.5317
▁नितेश	-11.5317
▁बृजभूषण	-11.5317
▁हिमंत	-11.5319
▁पोखर	-11.5321
▁परिहार	-11.5322
▁रंगोली	-11.5322
▁टर्म	-11.5323
▁सीढ़िय	-11.5324
▁अजीब	-11.5325
फुसला	-11.5325
ist	-11.5328
▁महेन्द्र	-11.5328
▁रामकुमार	-11.533
▁माइक	-11.5384
▁बजाए	-11.5386
राणिक	-11.5391
▁निकलवा	-11.5403
दिल्ली	-11.5423
▁कबाड़	-11.5424
▁विधा	-11.5432
▁एफएसएल	-11.5447
▁कन्नौज	-11.5447
▁क्रियान्वयन	-11.5447
▁विक्रांत	-11.5447
▁सर्वसम्मत	-11.5447
▁ऊंचे	-11.5447
▁ठिकाने	-11.5447
▁जहीर	-11.5447
▁शोएब	-11.5447
▁निगाह	-11.5447
▁रोटरी	-11.5447
▁फरीदकोट	-11.5447
▁इकाइय	-11.5447
▁प्रमोट	-11.5447
▁ट्रैवल	-11.5448
▁एवज	-11.5449
▁खेप	-11.5449
▁संबद्ध	-11.5449
▁स्वभाव	-11.545
▁परंपरागत	-11.545
धीश	-11.5451
▁मसीह	-11.5451
▁सुरजीत	-11.5452
म्हा	-11.5459
▁प्लेयर्स	-11.5462
▁देवघर	-11.5463
▁दरार	-11.5464
▁2003	-11.5468
▁सगे	-11.5471
▁कस्टमर	-11.5529
निर्	-11.5533
शांति	-11.5543
शास्त्र	-11.5558
▁Ro	-11.5562
विदेश	-11.5567
▁प्रजापत	-11.5574
▁इंश्योरेंस	-11.5578
▁उन्नाव	-11.5578
▁ऋचा	-11.5578
▁एपिसोड	-11.5578
▁टूरिज्म	-11.5578
▁टॉयलेट	-11.5578
▁तब्दील	-11.5578
▁तेलुगु	-11.5578
▁फ़ीसदी	-11.5578
▁बंदरगाह	-11.5578
▁मीडियम	-11.5578
▁वर्चुअल	-11.5578
▁अग्रसेन	-11.5578
▁ग्रोथ	-11.5578
▁डिंपल	-11.5578
▁बदबू	-11.5578
▁रोबोट	-11.5578
▁मराठा	-11.5578
▁पल्लव	-11.5579
▁स्टार्ट	-11.558
▁संग्राम	-11.5581
▁एनसीसी	-11.5581
▁खत्री	-11.5583
▁बीएसई	-11.5586
▁निबंध	-11.5587
▁भर्तिय	-11.5588
▁माँ	-11.5595
▁दही	-11.5606
कौन	-11.5622
MS	-11.5652
मुक्की	-11.5661
तंत्र	-11.5685
▁रोमांचक	-11.5689
▁2.0	-11.5711
▁मतभेद	-11.5711
▁SHO	-11.5711
▁ज़िम्मेदार	-11.5711
▁डिस्ट्रिक्ट	-11.5711
▁तिरुपति	-11.5711
▁दंतेवाड़ा	-11.5711
▁पॉजिटिव	-11.5711
▁व्यवस्थित	-11.5711
▁वायुसेना	-11.5711
▁सैमसंग	-11.5711
▁धनखड़	-11.5711
▁धमाका	-11.5711
▁वैल्यू	-11.5711
▁तंवर	-11.5711
▁विभागाध्यक्ष	-11.5711
▁सेंचुरी	-11.5712
▁निम्न	-11.5712
▁मसूद	-11.5712
▁प्रजाति	-11.5712
▁हिमालय	-11.5712
▁निजाम	-11.5712
▁सर्राफ	-11.5712
▁आर्टिकल	-11.5713
▁सीमावर्ती	-11.5713
▁एमबीए	-11.5714
▁बड़वानी	-11.5714
▁पुनीत	-11.5715
▁राठी	-11.5717
▁भूखंड	-11.5719
▁लहू	-11.5719
▁कैंपेन	-11.5719
▁बटोर	-11.572
▁अमरजीत	-11.5722
▁उन्ह	-11.5723
▁सतपाल	-11.5724
▁सन्नी	-11.5726
▁उग्र	-11.5735
▁घड़ी	-11.5737
कालीन	-11.5748
4.5	-11.5751
लिख	-11.5761
▁क्लीनिक	-11.5765
वुड	-11.5768
▁अपार	-11.5769
▁ज़रि	-11.579
▁हटवा	-11.5806
सुबह	-11.5822
▁रेडियो	-11.5831
▁प्रशिक्षु	-11.5847
▁अक्तूबर	-11.5847
▁ऑडिटोरियम	-11.5847
▁टर्मिनस	-11.5847
▁पुष्य	-11.5847
▁फैकल्टी	-11.5847
▁महासमुंद	-11.5847
▁संरक्षित	-11.5847
▁सम्बन्ध	-11.5847
▁सिगरेट	-11.5847
▁जत्थे	-11.5847
▁अरशद	-11.5847
▁साजिद	-11.5847
▁आईसीयू	-11.5847
▁अर्जित	-11.5847
▁मालीवाल	-11.5847
▁कुंदन	-11.5847
▁मुफस	-11.5847
▁एनटीए	-11.5847
▁रविशंकर	-11.585
▁मलबे	-11.5851
▁दुर्गेश	-11.5851
▁नालों	-11.5851
▁बालोद	-11.5852
▁ठहराव	-11.5853
▁बरवाला	-11.5854
▁जनरेट	-11.586
▁अंजू	-11.5864
▁जीवंत	-11.5866
▁मुर्ग	-11.5868
▁अस्वीक	-11.5879
▁टांक	-11.5888
AT	-11.5915
अनु	-11.5938
कल्याण	-11.5959
इंदौर	-11.5959
▁झेलन	-11.5973
▁टिप्पणिय	-11.5984
▁नॉर्मल	-11.5984
▁अस्थिर	-11.5984
▁इंडेक्स	-11.5984
▁एसडीआरएफ	-11.5984
▁चिट्ठी	-11.5984
▁तुम्हारे	-11.5984
▁पदयात्रा	-11.5984
▁मुआयना	-11.5984
▁सूचकांक	-11.5984
▁अनाउंस	-11.5984
▁खिंच	-11.5984
▁यूनुस	-11.5984
▁निष्ठा	-11.5984
▁मुहिम	-11.5984
▁लाहौर	-11.5984
▁एनसीपी	-11.5984
▁सफारी	-11.5984
▁डीएपी	-11.5984
▁उमंग	-11.5984
▁महामारी	-11.5984
▁थोक	-11.5984
▁हंगामे	-11.5984
▁लंगर	-11.5984
▁रिम्स	-11.5984
▁बंटवारा	-11.5984
▁सुहाग	-11.5984
▁पार्टनरशिप	-11.5984
▁इन्वेस्टमेंट	-11.5985
▁नसीम	-11.5985
▁बोग	-11.5986
▁2898	-11.5986
▁शंकराचार्य	-11.5986
▁ब्रजेश	-11.5986
▁खुशबू	-11.5987
▁पूरन	-11.5988
▁रोचक	-11.5988
▁रहवासी	-11.599
▁सत्येंद्र	-11.5991
▁प्रसारण	-11.5991
▁बीएसपी	-11.5992
▁हंसराज	-11.5992
▁शॉपिंग	-11.5994
▁सरिता	-11.5995
▁राइज	-11.5997
▁माफियाओं	-11.5997
पैड	-11.6003
▁स्टै	-11.6034
▁पुराण	-11.6043
विद्या	-11.6095
सचिव	-11.6097
पोषण	-11.6098
सामाजिक	-11.6098
पुलिस	-11.6098
मंदिर	-11.6099
तिथि	-11.6099
बोर्ड	-11.6101
▁Video	-11.6122
▁अंपायर	-11.6122
▁एयरफोर्स	-11.6122
▁कबड्डी	-11.6122
▁डिस्काउंट	-11.6122
▁पुरस्कृत	-11.6122
▁प्रत्यक्षदर्श	-11.6122
▁शहादत	-11.6122
▁हितग्राह	-11.6122
▁आक्रमण	-11.6122
▁खुलेआम	-11.6122
▁देवांगन	-11.6122
▁करप्शन	-11.6122
▁साकेत	-11.6123
▁सुपारी	-11.6123
▁मोनिका	-11.6123
▁कयास	-11.6123
▁जिम्मा	-11.6123
▁खट्टर	-11.6123
▁ऊँ	-11.6124
▁रौशन	-11.6124
▁मैनपुरी	-11.6124
▁सीरियल	-11.6125
▁रिटायरमेंट	-11.6125
▁लोकायुक्त	-11.6125
▁चुनौतियां	-11.6126
▁विनायक	-11.6127
▁1984	-11.6128
▁प्रमंडल	-11.6129
▁चैत्र	-11.6129
▁1998	-11.6129
▁निशांत	-11.6129
▁जातियों	-11.613
▁यूडीए	-11.6131
▁राइस	-11.6131
▁वैसा	-11.6135
▁क्रेन	-11.6137
▁श्रीकांत	-11.6139
▁दांत	-11.614
▁डीएन	-11.6144
▁चेयर	-11.6144
▁शादिय	-11.6167
शुल्क	-11.6236
कहीं	-11.6239
ऋ	-11.6263
▁प्रतिद्वंद्व	-11.6263
श्मशान	-11.6263
▁AQI	-11.6263
▁अहसास	-11.6263
▁आख़िर	-11.6263
▁उत्थान	-11.6263
▁एजेंडे	-11.6263
▁एयरक्राफ्ट	-11.6263
▁चड्ढा	-11.6263
▁चैंपियंस	-11.6263
▁टेक्निकल	-11.6263
▁प्रशिक्षित	-11.6263
▁फीडबैक	-11.6263
▁बॉम्बे	-11.6263
▁बॉयफ्रेंड	-11.6263
▁हिजबुल्लाह	-11.6263
▁हूँ	-11.6263
▁फंक्शन	-11.6263
▁मिस्त्री	-11.6263
▁एनओसी	-11.6263
▁वाहिनी	-11.6263
▁आदमपुर	-11.6263
▁सरफराज	-11.6263
▁सैलजा	-11.6263
▁बद्री	-11.6263
▁उपद्रव	-11.6263
▁किन्नर	-11.6265
▁एयरलाइन	-11.6265
▁परमिट	-11.6266
▁अलॉट	-11.6267
▁स्वीप	-11.6267
▁जवाहरलाल	-11.6269
▁चीज़	-11.6271
▁चादर	-11.6272
▁माथा	-11.6273
▁दिलजीत	-11.6277
▁दसवीं	-11.6277
▁बापू	-11.628
▁औच	-11.6305
▁कावड़	-11.6316
ब्बू	-11.633
▁छिड़	-11.6345
▁नौकरिय	-11.6357
राष्ट्र	-11.6377
परिवार	-11.6382
कैप	-11.6384
मंगल	-11.6395
▁भिजवा	-11.6402
▁भेड़िय	-11.6406
▁सुपरवाइजर	-11.6406
संशोधित	-11.6406
▁Singh	-11.6406
▁Vrat	-11.6406
▁अत्याधुनिक	-11.6406
▁आषाढ़	-11.6406
▁एजेंडा	-11.6406
▁कंस्ट्रक्शन	-11.6406
▁कुरैशी	-11.6406
▁गुड्डू	-11.6406
▁ट्रीटमेंट	-11.6406
▁ट्रूडो	-11.6406
▁फाइनेंशियल	-11.6406
▁ब्रॉन्ज	-11.6406
▁भौतिक	-11.6406
▁सद्भाव	-11.6406
▁स्वर्गीय	-11.6406
▁होशियारपुर	-11.6406
▁1989	-11.6406
▁मिलीभगत	-11.6406
▁धाकड़	-11.6406
▁रौनक	-11.6406
▁लॉटरी	-11.6406
▁शहजाद	-11.6406
▁मसाला	-11.6406
▁कार्यपालक	-11.6406
▁शिप्रा	-11.6406
▁रितेश	-11.6406
▁जर्नल	-11.6406
▁बालाघाट	-11.6407
▁फूंक	-11.6407
िफाइड	-11.6408
▁फॉरेस्ट	-11.6408
▁विस्थापित	-11.6408
▁सुदर्शन	-11.6411
▁मूर्तियां	-11.6412
ेरियन	-11.6423
▁शिवानी	-11.6431
▁कस्टम	-11.646
▁खामिय	-11.6504
▁वंदन	-11.6518
ाजित	-11.6521
प्रतिष्ठा	-11.6527
3.5	-11.6528
दयाल	-11.6528
▁चिह्न	-11.6545
▁अनुष्का	-11.6551
▁इंफ्रास्ट्रक्चर	-11.6551
▁एग्रीकल्चर	-11.6551
▁कूटनीति	-11.6551
▁चतुर्दशी	-11.6551
▁चातुर्मास	-11.6551
▁तीव्र	-11.6551
▁देहरादून	-11.6551
▁पाटलिपुत्र	-11.6551
▁प्रशिक्षक	-11.6551
▁फ़लस्तीन	-11.6551
▁फिलिस्तीन	-11.6551
▁माधुरी	-11.6551
▁मास्टरमाइंड	-11.6551
▁रिपब्लिकन	-11.6551
▁वसुंधरा	-11.6551
▁वैरिएंट	-11.6551
▁व्यंजन	-11.6551
▁सहभागिता	-11.6551
}	-11.6551
▁अल्ट्रा	-11.6551
▁एमएलसी	-11.6551
▁फ्लॉप	-11.6551
▁स्ट्रोक	-11.6551
▁सर्कुल	-11.6551
लॉजिकल	-11.6551
▁उखाड़	-11.6551
▁कोठारी	-11.6552
▁संगठित	-11.6552
▁भोलेनाथ	-11.6553
▁ऑक्शन	-11.6553
▁बोरवेल	-11.6553
▁समुच	-11.6555
▁संसार	-11.6555
▁भानु	-11.6555
▁बलविंदर	-11.6558
▁अनिता	-11.6559
▁शक्तियों	-11.6559
▁भस्म	-11.6559
▁लायन	-11.6561
▁सीएसपी	-11.6561
▁डेस्क	-11.6562
▁बिठा	-11.6563
▁किचन	-11.6568
▁संकाय	-11.6573
बुल्लाह	-11.6651
▁हफ्त	-11.667
बेटे	-11.6688
ंबेडकर	-11.6691
▁ठहरा	-11.6694
▁अभियोजक	-11.6698
▁उज्जवल	-11.6698
▁उत्तीर्ण	-11.6698
▁कंडक्टर	-11.6698
▁धनतेरस	-11.6698
▁पॉपुलर	-11.6698
▁बालोतरा	-11.6698
▁बीसीसीआई	-11.6698
▁मंदसौर	-11.6698
▁रघुवंशी	-11.6698
▁रथयात्रा	-11.6698
▁रविन्द्र	-11.6698
▁सशक्तिकरण	-11.6698
▁पूर्वांचल	-11.6698
▁बुलंद	-11.6698
▁ईंधन	-11.6698
▁जिहाद	-11.6698
▁बीजापुर	-11.6698
ोत्तम	-11.6698
▁जाखड़	-11.6698
▁रसीद	-11.6699
▁कार्तिकेय	-11.6699
▁पद्मश्री	-11.6699
▁फतेहगढ़	-11.67
▁वेस्टर्न	-11.67
▁पुनर्वास	-11.67
▁अंजलि	-11.6701
▁पुष्पेंद्र	-11.6703
चांपा	-11.6703
▁एसडीओपी	-11.6704
▁ढाबा	-11.6704
▁लाभार्थियो	-11.6704
▁लाभुक	-11.6705
▁डायरिया	-11.6706
▁गुफा	-11.6707
▁रहवासियों	-11.6709
▁तेवर	-11.6709
▁भयान	-11.6739
कल्याणकारी	-11.674
▁गुंज	-11.6745
▁अनिश्चित	-11.6805
छात्राएं	-11.6823
ाभिषेक	-11.6845
▁Office	-11.6847
▁असुविधा	-11.6847
▁जगदलपुर	-11.6847
▁नजरअंदाज	-11.6847
▁नेतन्याहू	-11.6847
▁पारदर्शिता	-11.6847
▁श्रीनिवास	-11.6847
▁संगोष्ठी	-11.6847
▁सीआरपीएफ	-11.6847
▁स्क्रिप्ट	-11.6847
▁हॉलीवुड	-11.6847
▁कचहरी	-11.6847
▁रजनीश	-11.6847
▁सब्जियों	-11.6847
▁स्लीपर	-11.6847
▁इस्माइल	-11.6847
▁प्रचंड	-11.6847
▁बिस्वा	-11.6848
▁रहस्य	-11.6848
▁बांगड़	-11.6848
▁ललन	-11.6849
▁हजरत	-11.6849
मिस्ट्री	-11.6849
▁आढ़त	-11.685
▁वन्यजीव	-11.6852
▁मिसाल	-11.6853
▁असीम	-11.6853
▁शीतलहर	-11.6854
▁नौकरियां	-11.6854
▁नीलेश	-11.6854
▁बीएससी	-11.6855
2022-23	-11.6856
▁हिज़	-11.6856
ग्गा	-11.6866
0.5	-11.691
्टिव	-11.6924
ाइकल	-11.6949
▁फेक	-11.6963
▁जतात	-11.6964
प्रथम	-11.6974
उन्होंने	-11.6975
नियुक्त	-11.6977
गुप्त	-11.6979
लेकिन	-11.6981
▁Box	-11.6999
▁इमोशनल	-11.6999
▁उर्मिला	-11.6999
▁कांफ्रेंस	-11.6999
▁तपस्या	-11.6999
▁ताजमहल	-11.6999
▁पार्थिव	-11.6999
▁मुक़ाबल	-11.6999
▁मुद्रास्फीति	-11.6999
▁शृंगार	-11.6999
▁सबकुछ	-11.6999
▁सलूंबर	-11.6999
▁स्टूडियो	-11.6999
▁आयरलैंड	-11.6999
▁क्लियर	-11.6999
▁नियोजन	-11.6999
▁पद्धति	-11.6999
▁अखाड़ा	-11.6999
▁सुषमा	-11.6999
▁हिन्दी	-11.6999
▁अधूरा	-11.6999
▁जशपुर	-11.6999
▁जलाशय	-11.6999
▁टोटल	-11.6999
▁दोगुना	-11.6999
रेवेन्यू	-11.6999
▁महबूब	-11.6999
▁नजारा	-11.6999
▁कत्ल	-11.6999
▁विशाख	-11.7
▁भनक	-11.7001
▁अतीत	-11.7002
▁जुबान	-11.7002
▁गोकुल	-11.7009
प्रभावशाली	-11.7099
सेवक	-11.7129
टाइम	-11.713
▁कॉमर्शियल	-11.7153
▁तत्पर	-11.7153
▁प्रत्यक्ष	-11.7153
▁मालगाड़ी	-11.7153
▁रोमांटिक	-11.7153
▁लखीसराय	-11.7153
▁वासुदेव	-11.7153
▁शहडोल	-11.7153
▁शाहजहांपुर	-11.7153
▁सहानुभूति	-11.7153
▁सौहार्द	-11.7153
र्डिनेटर	-11.7153
▁अखाड़े	-11.7153
▁खेलकूद	-11.7153
▁शौर्य	-11.7153
▁बरौनी	-11.7153
▁डीईओ	-11.7153
▁मरांडी	-11.7153
▁माइनिंग	-11.7153
▁साध्वी	-11.7153
▁पगड़ी	-11.7153
▁वकालत	-11.7153
▁कैडेट	-11.7153
▁पेशकश	-11.7153
▁जाकिर	-11.7153
▁मण्डल	-11.7153
▁संग्रहालय	-11.7154
▁असमर्थ	-11.7156
▁अजगर	-11.7156
▁दाहिन	-11.7157
▁कन्हैयालाल	-11.7157
▁संधू	-11.7157
▁बराड़	-11.7159
▁आरिफ	-11.716
▁तगड़	-11.7163
पीएचसी	-11.7176
▁अलाव	-11.7198
▁पदोन्नति	-11.721
▁मूर्तिय	-11.7249
▁Ram	-11.7272
प्रशासन	-11.7285
हाउस	-11.7285
▁अर्शदीप	-11.7309
▁आरोग्य	-11.7309
▁एल्विश	-11.7309
▁ज्वाइन	-11.7309
▁ट्विटर	-11.7309
▁डिप्लोमा	-11.7309
▁ड्रिंक	-11.7309
▁दबदबा	-11.7309
▁दुर्लभ	-11.7309
▁दूषित	-11.7309
▁प्रताड़ना	-11.7309
▁महाप्रबंधक	-11.7309
▁मुसीबत	-11.7309
▁रखरखाव	-11.7309
▁वॉशिंगटन	-11.7309
▁साक्षात्कार	-11.7309
▁Delhi	-11.7309
▁दिल्‍ली	-11.7309
▁प्रियांशु	-11.7309
▁संवेदना	-11.7309
@	-11.7309
▁कस्टडी	-11.7309
▁रणदीप	-11.7309
▁समागम	-11.7309
▁हाईकमान	-11.7309
▁बरनाला	-11.7309
▁सरगना	-11.7309
▁शत्रुघ्	-11.7309
▁नस्ल	-11.7309
▁अनुपालन	-11.7309
▁उस्मान	-11.731
▁प्लेइंग	-11.731
▁खटीक	-11.731
▁हाइड्र	-11.731
▁गलियार	-11.7311
▁अक्षत	-11.7311
▁कीजिए	-11.7312
▁रेशम	-11.7316
▁बांदा	-11.732
▁डलवा	-11.7321
▁डीपीआर	-11.7389
स्‍क	-11.7402
पोस्ट	-11.7422
▁कोतवाल	-11.7422
▁अधीक्ष	-11.7446
▁धीर	-11.7448
▁जुर्म	-11.7448
▁अलायंस	-11.7468
▁एवेन्यू	-11.7468
▁कर्पूरी	-11.7468
▁कीटनाशक	-11.7468
▁त्यौहार	-11.7468
▁दूल्हा	-11.7468
▁नक्शा	-11.7468
▁पीलीभीत	-11.7468
▁पॉलिटेक्निक	-11.7468
▁फुटपाथ	-11.7468
▁बृहस्पतिवार	-11.7468
▁भाद्रपद	-11.7468
▁म्यांमार	-11.7468
▁वेशभूषा	-11.7468
▁सरेआम	-11.7468
▁हाथापाई	-11.7468
▁हौसला	-11.7468
▁मेगावाट	-11.7468
▁शिक्षित	-11.7468
▁आईफोन	-11.7468
▁लाभार्थी	-11.7468
▁सरोवर	-11.7468
▁आइटम	-11.7468
▁मिजाज	-11.7468
▁फ्यूल	-11.7468
port	-11.7468
▁माओवाद	-11.7468
▁फारूक	-11.7468
▁फायदेमंद	-11.7468
▁महर्षि	-11.7468
▁परिक्षेत्र	-11.7469
▁किराये	-11.7469
▁प्रभास	-11.747
▁सिक्के	-11.747
▁DSP	-11.7471
▁पेट्रोलियम	-11.7472
व्यापी	-11.7473
▁बिलियन	-11.7474
▁सुप्रिय	-11.748
▁कांटे	-11.7488
▁ऑडिय	-11.7517
ance	-11.7522
▁सुखविंद	-11.7549
▁मौलिक	-11.7553
▁दृष्ट	-11.7624
्वाइंट	-11.7626
▁शत्रु	-11.7629
▁Apple	-11.7629
▁Indore	-11.7629
▁VIDEO	-11.7629
▁अफ़ग़ानिस्तान	-11.7629
▁उज्ज्वल	-11.7629
▁एनएचएआई	-11.7629
▁एमबीबीएस	-11.7629
▁गंतव्य	-11.7629
▁चैतन्य	-11.7629
▁जॉइंट	-11.7629
▁टेलीग्राम	-11.7629
▁ठुकरा	-11.7629
▁डीएफओ	-11.7629
▁पवेलियन	-11.7629
▁पाकिस्‍तान	-11.7629
▁प्रोफाइल	-11.7629
▁फ़ैसले	-11.7629
▁हलफनाम	-11.7629
▁ग्रोवर	-11.7629
▁सृजन	-11.7629
▁इशारे	-11.7629
▁मेकअप	-11.7629
▁हरदोई	-11.7629
▁कैरेट	-11.7629
▁बुंदेलखंड	-11.7629
▁(45)	-11.7629
▁दतिया	-11.7629
▁सुकमा	-11.7629
▁इनेलो	-11.763
▁सचेत	-11.763
▁बैलेंस	-11.7631
▁IPS	-11.7631
▁अरबाज	-11.7632
▁वरदान	-11.7632
▁संवर्धन	-11.7633
▁महाभारत	-11.7634
▁प्रज्ञा	-11.7648
▁जाब्त	-11.7657
भिन्न	-11.7766
कुशल	-11.7768
श्याम	-11.777
▁एडिशन	-11.7776
gov	-11.7793
ऱ	-11.7793
▁आर्टिफिशिय	-11.7793
▁धांधली	-11.7793
▁नवनिर्वाच	-11.7793
▁नियामक	-11.7793
▁प्रधानाध्यापक	-11.7793
▁भविष्यवाणी	-11.7793
▁भ्रामक	-11.7793
▁माइक्रोसॉफ्ट	-11.7793
▁राजपुरोहित	-11.7793
▁लखीमपुर	-11.7793
▁लाभान्वित	-11.7793
▁लॉन्ग	-11.7793
▁वाइफ	-11.7793
▁वृषभ	-11.7793
▁श्रॉफ	-11.7793
▁स्क्वायर	-11.7793
▁इरादे	-11.7793
▁लपटें	-11.7793
▁धंधे	-11.7793
▁मुकुट	-11.7793
▁निज्जर	-11.7793
▁फर्श	-11.7793
▁जीडीपी	-11.7793
▁दक्षता	-11.7793
▁टाइटल	-11.7793
▁(40)	-11.7793
▁अर्बन	-11.7793
▁सस्ता	-11.7793
▁टैगोर	-11.7795
▁अदाणी	-11.7796
▁अमीन	-11.7803
▁On	-11.7809
▁खामियाज	-11.7882
▁जख्म	-11.7911
बाजार	-11.792
5.5	-11.792
उत्तर	-11.7936
प्रसार	-11.794
▁फतेह	-11.7944
▁इन्वेस्ट	-11.7958
▁अनावरण	-11.796
▁एक्सीलेंस	-11.796
▁क्लस्टर	-11.796
▁चांसलर	-11.796
▁ज्येष्ठ	-11.796
▁निर्विरोध	-11.796
▁पॉलिटिक्स	-11.796
▁फ्लाइंग	-11.796
▁बाराबंकी	-11.796
▁मुलाक़ात	-11.796
▁रजनीकांत	-11.796
▁रेखांकित	-11.796
▁लहसुन	-11.796
▁व्यावहारिक	-11.796
▁SDM	-11.796
▁STF	-11.796
▁अप्लाई	-11.796
▁भुलैया	-11.796
▁मलेशिया	-11.796
▁रंगारंग	-11.796
▁सन्नाटा	-11.796
▁सिंधु	-11.796
क्लेव	-11.796
▁करिश्मा	-11.796
▁जलमग्न	-11.796
▁दिनचर्या	-11.796
▁महिपाल	-11.796
▁अटकलें	-11.796
▁खंभे	-11.796
▁चंपई	-11.796
▁श्रीमद्	-11.796
▁कमिंस	-11.796
▁जागृत	-11.796
▁पेटीएम	-11.796
▁रणथ	-11.796
▁आफिस	-11.796
▁संयम	-11.796
▁गोदारा	-11.796
ास्पद	-11.796
▁सस्ती	-11.796
▁पसरा	-11.796
▁सरहद	-11.7961
▁सिलेक्शन	-11.7961
▁तकलीफ	-11.7979
▁झोंक	-11.7979
▁उग्रवाद	-11.7991
रिवाज	-11.8013
बिरंग	-11.8028
▁अंग्रेज	-11.8032
वर्णन	-11.8035
चुनाव	-11.8102
भोपाल	-11.8105
▁एनडीआरएफ	-11.8129
▁छुटकारा	-11.8129
▁परिदृश्य	-11.8129
▁भदौरिया	-11.8129
▁महत्वाकांक्ष	-11.8129
▁मेमोरियल	-11.8129
▁रिचार्ज	-11.8129
▁सेलिब्रेशन	-11.8129
BCCI	-11.8129
▁उर्दू	-11.8129
▁जेएमएम	-11.8129
▁भागीरथ	-11.8129
▁रिपेयर	-11.8129
▁सृष्टि	-11.8129
▁गोष्ठी	-11.8129
▁ब्यावर	-11.8129
▁स्तंभ	-11.8129
▁विधवा	-11.8129
▁डिटेन	-11.8129
▁ब्यूटी	-11.8129
▁गन्ने	-11.8129
▁(28)	-11.8129
▁पशुपालक	-11.8129
▁लिपिक	-11.8129
▁ज़िले	-11.8129
▁बबीता	-11.8129
▁सविता	-11.8129
▁सुगम	-11.8129
▁आईएमए	-11.813
▁समावेश	-11.813
▁तालमेल	-11.813
▁बृजमोहन	-11.813
▁घूस	-11.813
▁टीकाकरण	-11.813
▁परमात्म	-11.8135
नंदन	-11.8144
▁उन्‍ह	-11.8254
wal	-11.8286
रंजन	-11.829
▁पिछल	-11.8299
▁कम्युनिस्ट	-11.8302
▁छेड़खानी	-11.8302
▁डायलॉग	-11.8302
▁तेंदुलकर	-11.8302
▁निर्दोष	-11.8302
▁पारदर्शी	-11.8302
▁फर्नीचर	-11.8302
▁बाउंस	-11.8302
▁भयावह	-11.8302
▁मिजोरम	-11.8302
▁शुष्क	-11.8302
▁संकीर्तन	-11.8302
▁सिद्धारमैया	-11.8302
▁स्विफ्ट	-11.8302
▁कंडीशन	-11.8302
▁मजेदार	-11.8302
▁निवेदन	-11.8302
▁चिंताजनक	-11.8302
▁इरादा	-11.8302
▁तीर्थयात्र	-11.8302
▁सनराइज	-11.8302
▁सुदामा	-11.8302
▁खेडकर	-11.8302
▁पेंडिंग	-11.8302
▁मुंशी	-11.8302
▁सीएनजी	-11.8302
▁(26)	-11.8302
▁दखल	-11.8302
▁जलेबी	-11.8302
▁खिलवाड़	-11.8302
▁मेघालय	-11.8302
▁वेटिंग	-11.8303
▁पत्थरबाजी	-11.8305
▁मैट्रिक	-11.8305
▁अनन्या	-11.8305
▁कूड़े	-11.8305
▁सुरेन्द्र	-11.8306
2.5	-11.8319
▁सैलान	-11.8381
▁ऑपरेट	-11.8384
▁कड़ाक	-11.8397
▁झपट	-11.8409
लक्ष्मी	-11.8451
वृष्टि	-11.8477
▁Share	-11.8477
▁World	-11.8477
▁अधिवेशन	-11.8477
▁अनारक्षित	-11.8477
▁अप्रत्याशित	-11.8477
▁अभिभाष	-11.8477
▁उर्वरक	-11.8477
▁कमर्शियल	-11.8477
▁क्यूसेक	-11.8477
▁गुरदासपुर	-11.8477
▁गुवाहाटी	-11.8477
▁ग्रेजुएशन	-11.8477
▁टेस्ला	-11.8477
▁ढिल्लों	-11.8477
▁निःशुल्क	-11.8477
▁निष्पादन	-11.8477
▁प्रज्ज्वल	-11.8477
▁प्रोटोकॉल	-11.8477
▁मापदंड	-11.8477
▁रिमझिम	-11.8477
▁शैक्षिक	-11.8477
▁हिंदुत्व	-11.8477
▁ग़लत	-11.8477
▁ध्वनि	-11.8477
▁नियंत्रक	-11.8477
▁पूज्य	-11.8477
▁मऊगंज	-11.8477
▁मनोनीत	-11.8477
▁सदैव	-11.8477
▁सांगवान	-11.8477
▁सुशासन	-11.8477
▁स्टॉफ	-11.8477
▁अवनीश	-11.8477
▁खजराना	-11.8477
▁ज्ञानवापी	-11.8477
▁पुतले	-11.8477
▁ठिकाना	-11.8477
▁पशुपालन	-11.8477
▁निष्कास	-11.8477
▁शंख	-11.8477
▁बंपर	-11.8477
▁अल्लाह	-11.8477
▁पैरोल	-11.8477
▁बुनकर	-11.8477
▁आज़ाद	-11.8478
▁पटनायक	-11.8478
▁अर्थात	-11.8479
▁वसीम	-11.8479
▁ब्रेकअप	-11.848
▁समाधि	-11.8481
▁शारद	-11.8517
नुसार	-11.8522
7.6	-11.8544
साधारण	-11.8631
समिति	-11.8636
▁शौच	-11.8655
ङ	-11.8656
▁Today	-11.8656
▁अटैच	-11.8656
▁एथलीट	-11.8656
▁कॉर्पोरेट	-11.8656
▁डिस्चार्ज	-11.8656
▁ड्रेनेज	-11.8656
▁बाथरूम	-11.8656
▁मंगलसूत्र	-11.8656
▁मर्यादा	-11.8656
▁मिथिलेश	-11.8656
▁मुइज्जू	-11.8656
▁विनम्र	-11.8656
▁स्ट्रक्चर	-11.8656
▁अलविदा	-11.8656
▁खगड़िया	-11.8656
▁एनजीओ	-11.8656
▁वीकेंड	-11.8656
▁सूर्यवंशी	-11.8656
▁दोपहिया	-11.8656
▁संतोषजनक	-11.8656
▁महमूद	-11.8656
▁प्रतियोगी	-11.8656
▁भरपाई	-11.8656
▁आईपीसी	-11.8656
▁कैंडल	-11.8656
▁रिटेल	-11.8656
▁(21)	-11.8656
▁विनाश	-11.8656
िजिबिलिटी	-11.8656
▁प्रतिनियुक्ति	-11.8656
▁Indian	-11.8657
▁रविचंद्र	-11.8657
▁वचन	-11.8658
▁कहानियां	-11.8658
▁पूर्वजों	-11.8659
▁चतुर्थ	-11.8789
0.2	-11.8794
कर्मचारी	-11.8813
मुंबई	-11.8813
भोग	-11.8814
ान्नि	-11.882
▁जस्टि	-11.8831
ोलॉजिस्ट	-11.8837
▁Aaj	-11.8837
▁अभिव्यक्ति	-11.8837
▁इनोवेशन	-11.8837
▁इन्वेस्टिगेशन	-11.8837
▁टैलेंट	-11.8837
▁द्रविड़	-11.8837
▁प्रोफ़ेसर	-11.8837
▁मंत्रमुग्ध	-11.8837
▁वास्तु	-11.8837
▁षड्यंत्र	-11.8837
▁संक्रांति	-11.8837
▁सॉन्ग	-11.8837
▁स्ट्रॉन्ग	-11.8837
▁हिंडनबर्ग	-11.8837
▁परिसीमन	-11.8837
▁रवैया	-11.8837
▁शशांक	-11.8837
▁नौतपा	-11.8837
▁बीडीओ	-11.8837
▁कैरियर	-11.8837
▁मुबारक	-11.8837
▁मत्स्य	-11.8837
▁साक्षर	-11.8837
▁सावरकर	-11.8837
▁निकाह	-11.8838
▁खदेड़	-11.8838
▁सूचीबद्ध	-11.8839
▁सम्पूर्ण	-11.8839
▁पनप	-11.8846
▁फरीद	-11.8846
पिक्सल	-11.8851
▁वायद	-11.8865
माजरा	-11.8873
प्रयाग	-11.8904
शक्तिशाली	-11.8913
बांग्लादेश	-11.8998
प्रताप	-11.8998
मूल्य	-11.8998
स्थापित	-11.9006
प्रेम	-11.9008
वस्था	-11.9009
िभव	-11.9016
▁स्पोर्ट	-11.9016
टफ्ल	-11.9022
▁सॉफ्ट	-11.9022
▁अनहोनी	-11.9023
▁आउटसोर्स	-11.9023
▁एजेंसियां	-11.9023
▁एसोसिएट	-11.9023
▁कनिष्ठ	-11.9023
▁कॉन्सर्ट	-11.9023
▁खंडपीठ	-11.9023
▁ट्रांसफॉर्मर	-11.9023
▁दूरसंचार	-11.9023
▁मिथिला	-11.9023
▁वैष्णो	-11.9023
▁श्रुति	-11.9023
▁सेलिब्रिटी	-11.9023
▁हड्डी	-11.9023
▁अयोग्य	-11.9023
▁त्वचा	-11.9023
▁धरातल	-11.9023
▁प्लेसमेंट	-11.9023
▁कुवैत	-11.9023
▁पलामू	-11.9023
▁रोहतास	-11.9023
▁खालसा	-11.9023
▁(32)	-11.9023
▁नाट्य	-11.9023
▁कुत्ता	-11.9023
▁कुसुम	-11.9023
▁पुण्यतिथि	-11.9023
▁(23)	-11.9023
▁कॉन्क्लेव	-11.9023
▁स्वदेशी	-11.9023
क्कड़	-11.9023
▁सुमेर	-11.9023
▁ऑलआउट	-11.9024
▁केदारनाथ	-11.9024
▁होलिका	-11.9024
त्मक	-11.9074
ाष्टमी	-11.9107
▁अमेरिक	-11.9129
पीआरओ	-11.9129
धेड़	-11.9149
▁राहगीर	-11.9163
महिला	-11.9187
हमारे	-11.9187
चमक	-11.919
8.5	-11.9192
ोक्यो	-11.9211
▁भ्रष्ट	-11.9211
Diesel	-11.9211
गावस्कर	-11.9211
▁इक्विटी	-11.9211
▁कब्रिस्तान	-11.9211
▁किल्लत	-11.9211
▁तंबाकू	-11.9211
▁तबादले	-11.9211
▁निरोधक	-11.9211
▁नॉमिनेशन	-11.9211
▁फॉरेंसिक	-11.9211
▁बुलंदशहर	-11.9211
▁भंसाली	-11.9211
▁महायज्ञ	-11.9211
▁मेडिसिन	-11.9211
▁राजनैतिक	-11.9211
▁सरायकेला	-11.9211
▁कवायद	-11.9211
▁धनराशि	-11.9211
▁खातून	-11.9211
▁उचाना	-11.9211
▁एलपीजी	-11.9211
▁प्रतिवेदन	-11.9211
▁कैमूर	-11.9211
▁धमतरी	-11.9211
▁बिरादर	-11.9211
▁दंपति	-11.9211
▁पोशाक	-11.9211
▁घोड़े	-11.9211
▁पट्टे	-11.9211
▁(55)	-11.9211
▁करुणा	-11.9211
▁अगेन	-11.9211
▁रफीक	-11.9211
▁फ्रेम	-11.9211
▁अरूण	-11.9212
सुधांशु	-11.9212
▁ग्वाल	-11.9212
▁ज्ञात	-11.9213
▁जहांगीर	-11.9213
तैसे	-11.9214
▁बंधा	-11.9226
▁फेम	-11.9228
ashi	-11.9237
▁स्वीट	-11.9243
1.8	-11.9256
धिकारियों	-11.9288
4.2	-11.9296
टॉप	-11.9309
▁स्लै	-11.9326
BJP	-11.9379
वर्तमान	-11.9379
मांगलिक	-11.9403
▁आंध्रप्रदेश	-11.9404
▁जीर्णोद्धार	-11.9404
▁पीथमपुर	-11.9404
▁फ्यूचर	-11.9404
▁बदसलूकी	-11.9404
▁वर्षगांठ	-11.9404
▁विकलांग	-11.9404
▁कन्नड़	-11.9404
▁गाँव	-11.9404
▁फैक्ट्रिय	-11.9404
▁मार्जिन	-11.9404
▁अन्नपूर्णा	-11.9404
▁अश्वनी	-11.9404
▁एएनएम	-11.9404
▁एवरेज	-11.9404
▁कप्‍तान	-11.9404
▁क्लर्क	-11.9404
▁डायमंड	-11.9404
▁थोड़े	-11.9404
▁इज्जत	-11.9404
▁बदहाल	-11.9404
▁वैद्य	-11.9404
▁टीडीपी	-11.9404
▁रिफंड	-11.9404
▁धोखे	-11.9404
▁न्योता	-11.9404
▁श्रोता	-11.9404
▁भाकपा	-11.9404
▁अमेजन	-11.9404
▁सच्चे	-11.9404
▁सज्जन	-11.9404
▁कार्बन	-11.9404
▁आमदनी	-11.9404
▁श्रीमाली	-11.9404
▁एक्यूआई	-11.9404
▁सघन	-11.9404
▁मुकाम	-11.9404
▁चरमपंथ	-11.9404
▁गंडक	-11.9404
▁पिपरा	-11.9404
▁(50)	-11.9404
▁आंसर	-11.9404
▁सईद	-11.9407
मरवाही	-11.941
▁छेड़	-11.9417
▁जर्मन	-11.9551
1.7	-11.956
रवीना	-11.9566
Z	-11.9575
प्रधानमंत्री	-11.9575
बहुत	-11.9575
▁अम्बेडकर	-11.96
▁मुलाजिम	-11.96
▁अख़बार	-11.96
▁अभिमन्यु	-11.96
▁एप्लीकेशन	-11.96
▁ऑब्जर्व	-11.96
▁कम्युनिटी	-11.96
▁क्रिमिनल	-11.96
▁चम्मच	-11.96
▁चौड़ीकरण	-11.96
▁तर्पण	-11.96
▁तुम्हारी	-11.96
▁पॉडकास्ट	-11.96
▁बांग्‍लादेश	-11.96
▁मूंगफली	-11.96
▁सिब्बल	-11.96
▁सेलिब्रेट	-11.96
▁सैटेलाइट	-11.96
▁ओवरलोड	-11.96
▁छुट्टियों	-11.96
▁विक्रय	-11.96
▁मिचेल	-11.96
▁लायंस	-11.96
▁शर्मिला	-11.96
▁अमरोहा	-11.96
▁उल्लास	-11.96
▁ट्रॉमा	-11.96
▁क्षत्रिय	-11.96
▁बांद्रा	-11.96
▁जामताड़ा	-11.96
▁ज़िला	-11.96
▁प्रशंसक	-11.96
▁थाईलैंड	-11.96
▁(18)	-11.96
▁माथे	-11.96
▁माननीय	-11.96
▁हर्षोल	-11.96
▁रिएक्ट	-11.96
▁जलापूर्ति	-11.96
▁यूसुफ	-11.9601
▁पनीर	-11.9601
▁साधत	-11.9695
▁3.0	-11.9717
केवाईसी	-11.9744
मुस्लिम	-11.9775
ादित्य	-11.9778
▁Case	-11.98
▁आकस्मिक	-11.98
▁ओंकारेश्वर	-11.98
▁ग्रेजुएट	-11.98
▁झमाझम	-11.98
▁टीकमगढ़	-11.98
▁डायरेक्शन	-11.98
▁तमंचा	-11.98
▁धर्मांतरण	-11.98
▁नसरल्लाह	-11.98
▁पिंजरे	-11.98
▁प्राध्यापक	-11.98
▁महापंचायत	-11.98
▁मैगजीन	-11.98
▁मैन्युफैक्चरिंग	-11.98
▁रिसेप्शन	-11.98
▁संक्रमित	-11.98
▁सीआईएसएफ	-11.98
▁सुरजेवाला	-11.98
▁स्काउट	-11.98
▁स्वामित्व	-11.98
▁वाइल्ड	-11.98
▁हिन्दु	-11.98
▁क्रैश	-11.98
▁लर्निंग	-11.98
▁प्रसूता	-11.98
▁क्यूआर	-11.98
▁मोहसिन	-11.98
▁बिहटा	-11.98
▁चाइना	-11.98
▁कट्टे	-11.98
▁(27)	-11.98
▁निचली	-11.98
▁कोंडागांव	-11.98
▁रिटेन	-11.98
▁लुढ़क	-11.98
▁वॉटर	-11.98
▁अर्थशास्त्र	-11.98
▁प्रतीक्षा	-11.98
▁दुर्भाग्यपूर्ण	-11.98
▁कवच	-11.98
▁सौंदर्यीकरण	-11.98
▁सराहा	-11.98
▁टॉम	-11.9801
▁खिसक	-11.9801
पोषित	-11.9804
पूरक	-11.9833
▁1.3	-11.9851
▁एशिय	-11.9947
▁मिर्जा	-11.9996
▁दुर्भाग्य	-12.0003
▁इटारसी	-12.0004
▁सूक्ष्म	-12.0004
▁UPSC	-12.0004
▁अनुराधा	-12.0004
▁अहंकार	-12.0004
▁एक्स्ट्रा	-12.0004
▁चमत्कार	-12.0004
▁टुकड़ों	-12.0004
▁त्रुटि	-12.0004
▁थॉमस	-12.0004
▁निष्कर्ष	-12.0004
▁पीठासीन	-12.0004
▁फ्लिपकार्ट	-12.0004
▁मंत्रोच्चार	-12.0004
▁मताधिकार	-12.0004
▁लाठीचार्ज	-12.0004
▁शिवरात्रि	-12.0004
▁संस्करण	-12.0004
▁हालाँकि	-12.0004
▁जेजेपी	-12.0004
▁सक्सेस	-12.0004
▁छाबड़ा	-12.0004
▁सौम्या	-12.0004
▁मिठाइय	-12.0004
▁खुशहाली	-12.0004
▁बच्‍च	-12.0004
▁मैकेनिक	-12.0004
▁जुनून	-12.0004
▁आपबीती	-12.0004
▁डिलीट	-12.0004
▁दुमका	-12.0004
▁नौबत	-12.0004
उद्दीन	-12.0004
BSE	-12.0004
▁प्रतीत	-12.0005
▁मयूर	-12.0005
▁अतीक	-12.0018
हीरामंडी	-12.0021
▁कांवरिय	-12.0022
पीसीबी	-12.0023
टपुट	-12.0026
▁चौबीस	-12.0029
विराजित	-12.0036
2.8	-12.004
▁अघाड	-12.0134
6.8	-12.0134
▁एकतरफ	-12.0185
मूर्ति	-12.0187
समृद्धि	-12.0187
AAP	-12.0187
छोटी	-12.0188
www	-12.0212
▁Author	-12.0212
▁Collection	-12.0212
▁OBC	-12.0212
▁अविश्वास	-12.0212
▁इंटीरियर	-12.0212
▁उत्कर्ष	-12.0212
▁उपरोक्त	-12.0212
▁कवर्धा	-12.0212
▁जांगिड़	-12.0212
▁जालौन	-12.0212
▁तुम्हारा	-12.0212
▁पर्दाफाश	-12.0212
▁प्रेसवार्ता	-12.0212
▁महाशिवरात्रि	-12.0212
▁मुस्तैद	-12.0212
▁मोहब्बत	-12.0212
▁रिफाइनरी	-12.0212
▁रेगुलर	-12.0212
▁वियतनाम	-12.0212
▁स्नातकोत्तर	-12.0212
▁हानिकारक	-12.0212
▁निषेध	-12.0212
▁न्यायपालिका	-12.0212
▁प्रयोगशाला	-12.0212
▁बीएचयू	-12.0212
▁बीपीएससी	-12.0212
▁बौछार	-12.0212
▁शालिनी	-12.0212
▁एक्सईएन	-12.0212
▁जतिंदर	-12.0212
▁लोजपा	-12.0212
▁हुंडई	-12.0212
▁जागरुक	-12.0212
▁ड्रीम	-12.0212
▁हास्य	-12.0212
▁हमीरपुर	-12.0212
▁मछलिय	-12.0212
▁अनुयाय	-12.0212
▁बत्ती	-12.0212
▁किस्से	-12.0213
▁एजाज	-12.0213
▁दुपट्	-12.0218
▁काबिज	-12.022
▁अनीस	-12.0221
▁सर्दिय	-12.0223
▁लाड़ल	-12.0224
चन्द्र	-12.0278
▁अमोल	-12.0319
▁पटाख	-12.0349
▁काउंट	-12.0392
िशिय	-12.0397
साहेब	-12.04
बीजेपी	-12.04
हरियाणा	-12.04
पहले	-12.0406
फोर्ड	-12.0419
▁अधिशासी	-12.0425
▁इंडियंस	-12.0425
▁एमएसएमई	-12.0425
▁एलिवेटेड	-12.0425
▁कंटेस्टेंट	-12.0425
▁खजुराहो	-12.0425
▁चिन्मय	-12.0425
▁चिरंजीव	-12.0425
▁जनार्दन	-12.0425
▁ट्रिब्यून	-12.0425
▁डल्लेवाल	-12.0425
▁दुग्ध	-12.0425
▁पंचामृत	-12.0425
▁पतंजलि	-12.0425
▁प्रोटेक्शन	-12.0425
▁बाजपेयी	-12.0425
▁योद्धा	-12.0425
▁वर्ल्डवाइड	-12.0425
▁टॉवर	-12.0425
▁डिस्कॉम	-12.0425
▁त्रिवेणी	-12.0425
▁वशिष्ठ	-12.0425
▁ऑर्गन	-12.0425
▁श्योपुर	-12.0425
▁संरेख	-12.0425
▁हरभजन	-12.0425
▁चिंतन	-12.0425
▁यूएई	-12.0425
▁रशीद	-12.0425
▁फिंगर	-12.0426
DGP	-12.0426
▁पीढ़िय	-12.0434
इस्कॉन	-12.0447
▁ईमानदार	-12.0593
अजमेर	-12.0618
परिषद	-12.0618
▁नवनिर्म	-12.0628
3.8	-12.0638
▁उपराज्यपाल	-12.0642
▁एक्सपीरियंस	-12.0642
▁एयरबैग	-12.0642
▁कम्युनिकेशन	-12.0642
▁कृत्रिम	-12.0642
▁कृषक	-12.0642
▁खींवसर	-12.0642
▁गैलेक्सी	-12.0642
▁चॉकलेट	-12.0642
▁झुग्गी	-12.0642
▁दुर्व्यवहार	-12.0642
▁पिंडदान	-12.0642
▁राजस्‍थान	-12.0642
▁विज्ञप्ति	-12.0642
▁वैवाहिक	-12.0642
▁चैप्टर	-12.0642
▁टमाटर	-12.0642
▁रक्सौल	-12.0642
▁उत्सुक	-12.0642
▁ओटीपी	-12.0642
▁झुंड	-12.0642
▁आश्रित	-12.0642
▁उंगली	-12.0642
▁दिवाकर	-12.0642
▁कमज़ोर	-12.0642
▁वीडियोग्राफी	-12.0642
▁जल्‍द	-12.0642
▁क्रूरता	-12.0642
▁गोविल	-12.0642
▁तड़प	-12.0642
▁सुहाना	-12.0642
CEO	-12.0643
लैंगिक	-12.0643
▁स्ट्रै	-12.0647
▁ख़रीद	-12.0649
lme	-12.066
▁शाक्य	-12.067
▁जसविंद	-12.0673
प्रतिशत	-12.084
बचाव	-12.084
▁सौंदर्य	-12.0864
▁सामंजस्य	-12.0864
एनएसयूआई	-12.0864
▁अरविन्द	-12.0864
▁असंतोष	-12.0864
▁उदासीन	-12.0864
▁एनटीपीसी	-12.0864
▁ऑडिशन	-12.0864
▁कार्यान्वयन	-12.0864
▁कौशांबी	-12.0864
▁गुंडागर्दी	-12.0864
▁ग्यारह	-12.0864
▁टेलीविजन	-12.0864
▁दीर्घकालिक	-12.0864
▁नारकोटिक्स	-12.0864
▁पुरातत्व	-12.0864
=	-12.0865
&	-12.1324
ऽ	-12.2056
#	-12.341
_	-12.341
া	-12.4975
ञ	-12.6432
ে	-12.8138
র	-12.8614
औ	-12.9581
]	-12.9641
ळ	-13.0196
ऩ	-13.0784
️	-13.1409
🌟	-13.1409
॰	-13.2076
ক	-13.279
२	-13.4393
্	-13.5302
\	-13.5302
ি	-13.6302
ి	-13.6302
క	-13.6302
{	-13.7389
ত	-13.7413
ు	-13.7413
×	-13.7413
ా	-13.7413
్	-13.7413
ల	-13.8663
ম	-14.0092
●	-14.0092
ব	-14.0092
₹	-14.1734
३	-14.1758
४	-14.1758
>	-14.1758
ট	-14.1758
ো	-14.1758
ర	-14.1758
ু	-14.3758
প	-14.3758
[	-14.3758
१	-14.3758
ం	-14.3758
ল	-14.3758
ষ	-14.6258
চ	-14.6258
য	-14.6258
ట	-14.6258
ీ	-14.6258
९	-14.6258
স	-14.6258
గ	-14.6258
ড	-14.9592
ॊ	-14.9592
দ	-14.9592
త	-14.9592
న	-14.9592
⏱	-14.9592
⚠	-14.9592
🪐	-14.9592
ধ	-14.9592
స	-14.9592
^	-15.4567
ె	-15.4592
ঁ	-15.4592
ॆ	-15.4592
আ	-15.4592
ও	-15.4592
়	-15.4592
ী	-15.4592
డ	-15.4592
శ	-15.4592
ూ	-15.4592
⁄	-15.4592
☀	-15.4592
♑	-15.4592
♒	-15.4592
🌙	-15.4592
🔵	-15.4592
♓	-16.4564
♐	-16.4565
♏	-16.4566
ప	-16.4567
খ	-16.4568
ই	-16.4569
ॠ	-16.457
£	-16.4571
🇳	-16.4572
🇮	-16.4573
⭐	-16.4574
♍	-16.4575
వ	-16.4576
ছ	-16.4577
♈	-16.4578
এ	-16.4579
~	-16.458
🕐	-16.4581
చ	-16.4582
জ	-16.4583
­	-16.4584
ন	-16.4585
⁠	-16.4586
➤	-16.4587
̈	-16.4588
🔴	-16.4589
$	-16.459
•	-16.4591
ঘ	-16.4592
€	-16.4592
	-16.4592
·	-16.4592
ï	-16.4592
ऍ	-16.4592
॑	-16.4592
५	-16.4592
६	-16.4592
८	-16.4592
অ	-16.4592
ঠ	-16.4592
ণ	-16.4592
ઢ	-16.4592
ఇ	-16.4592
ఛ	-16.4592
జ	-16.4592
ణ	-16.4592
థ	-16.4592
ద	-16.4592
ఫ	-16.4592
బ	-16.4592
భ	-16.4592
ే	-16.4592
ో	-16.4592
‛	-16.4592
⏩	-16.4592
○	-16.4592
♉	-16.4592
♊	-16.4592
♋	-16.4592
♌	-16.4592
⚫	-16.4592
❗	-16.4592
🌅	-16.4592
🎉	-16.4592
🏅	-16.4592
🏹	-16.4592
🐉	-16.4592
💫	-16.4592
🗓	-16.4592
😉	-16.4592
😎	-16.4592
😜	-16.4592
😸	-16.4592
🤩	-16.4592
🦌	-16.4592
🧭	-16.4592
▪	-16.4592
♦	-16.4592
(	-16.4592
ొ	-16.4592
❓	-16.4592
🤔	-16.4592
