<unk>	0
<s>	0
</s>	0
।	-3.22499
▁के	-3.44216
▁में	-3.6944
▁की	-3.91316
▁है	-4.00445
▁को	-4.16203
▁से	-4.2076
▁ने	-4.33489
,	-4.3906
▁का	-4.50768
▁और	-4.58316
▁पर	-4.62349
▁	-4.67912
ों	-4.84105
ी	-4.90927
▁कि	-4.93134
▁हैं	-5.05758
▁भी	-5.16603
▁,	-5.18238
▁कर	-5.24877
ा	-5.31566
े	-5.36711
▁इस	-5.37845
▁किया	-5.38322
▁लिए	-5.43205
ने	-5.45617
▁एक	-5.46701
▁गया	-5.48388
▁नहीं	-5.56794
▁था	-5.57673
-	-5.60886
▁हो	-5.66828
▁ही	-5.72912
▁बाद	-5.74753
▁साथ	-5.88664
▁पुलिस	-5.89929
▁कहा	-5.92533
▁गई	-5.92972
.	-5.95319
▁करने	-5.96398
▁दिया	-6.01703
▁तो	-6.10977
▁रहे	-6.12044
र	-6.12082
न	-6.1211
▁थी	-6.12962
▁रहा	-6.14259
▁बताया	-6.14728
▁तक	-6.17759
▁हुए	-6.19253
▁जा	-6.19863
▁यह	-6.20889
▁रही	-6.24895
▁थे	-6.25804
क	-6.27287
कर	-6.28295
▁सिंह	-6.30363
ल	-6.30384
▁दी	-6.36806
▁व	-6.36947
▁गए	-6.3835
▁उन्होंने	-6.38954
म	-6.40901
▁लेकर	-6.4595
▁पहले	-6.46404
▁इसके	-6.48371
▁लोगों	-6.51876
▁अपने	-6.54156
▁(	-6.55159
▁न	-6.56263
▁लेकिन	-6.5905
▁हुई	-6.59424
▁-	-6.62726
▁वह	-6.68213
▁होने	-6.68312
▁वाले	-6.685
▁दिन	-6.68727
▁साल	-6.6896
▁दौरान	-6.70796
ना	-6.72212
▁जो	-6.7374
▁हुआ	-6.73789
▁अब	-6.76806
ियों	-6.7786
▁आ	-6.78904
▁सरकार	-6.80126
▁'	-6.81206
▁दो	-6.82392
▁घर	-6.83184
▁करते	-6.83349
ि	-6.8405
▁कुमार	-6.84197
▁ये	-6.84832
ता	-6.84991
स	-6.85923
)	-6.86722
ट	-6.87193
▁क्षेत्र	-6.88174
▁लिया	-6.89285
▁सभी	-6.89297
▁बार	-6.89439
▁कुछ	-6.90784
▁चुनाव	-6.92216
▁कई	-6.9287
ं	-6.9372
▁गांव	-6.96054
▁काम	-6.98502
▁बात	-6.98567
▁भारत	-6.99612
ओं	-6.99649
▁टीम	-7.00839
▁उनके	-7.01866
▁थाना	-7.02443
ते	-7.02682
▁पास	-7.028
:	-7.02937
▁मामले	-7.03014
▁"	-7.03708
▁कोई	-7.04717
▁उस	-7.05755
▁लोग	-7.05959
▁कांग्रेस	-7.07071
▁द्वारा	-7.07314
्स	-7.08621
▁जब	-7.08648
▁अपनी	-7.08816
▁समय	-7.08849
▁वहीं	-7.10328
▁उन्हें	-7.10394
▁शुरू	-7.10815
▁दर्ज	-7.11114
▁यहां	-7.12327
▁दोनों	-7.12432
ित	-7.12548
▁बना	-7.13389
▁इन	-7.13759
▁बजे	-7.15582
▁रुपए	-7.16282
▁2	-7.1641
▁नगर	-7.17449
▁घटना	-7.17619
▁जांच	-7.17789
▁अ	-7.18622
▁देश	-7.19911
▁विभाग	-7.1994
▁किसी	-7.20013
त	-7.20191
▁रूप	-7.20921
▁10	-7.21102
▁तरह	-7.21291
▁आरोपी	-7.2205
▁बीच	-7.22409
▁उसके	-7.22539
▁आज	-7.23442
▁जानकारी	-7.23484
िक	-7.23755
▁नाम	-7.24729
▁5	-7.24908
▁महिला	-7.26002
▁प्रदेश	-7.26521
▁जिला	-7.26663
▁ले	-7.26862
▁शामिल	-7.2724
▁वे	-7.27584
▁:	-7.28293
ो	-7.2865
▁एवं	-7.28959
द	-7.29063
▁3	-7.29736
िंग	-7.3002
प	-7.30185
▁या	-7.30303
▁भाजपा	-7.31475
▁अस्पताल	-7.32102
▁होगा	-7.32106
▁जाएगा	-7.32452
▁स	-7.33054
▁किए	-7.33899
▁राज्य	-7.34677
▁लाख	-7.34935
▁उसे	-7.35014
▁हर	-7.35441
▁अन्य	-7.35492
▁खिलाफ	-7.35723
▁राम	-7.35739
▁जारी	-7.35795
▁कारण	-7.3597
▁जिले	-7.36186
▁फिर	-7.36234
से	-7.36444
▁पार्टी	-7.36486
▁रात	-7.37395
ू	-7.3753
▁जाने	-7.37728
ब	-7.38177
▁मैं	-7.38671
▁पूर्व	-7.39712
▁करीब	-7.39782
▁उनकी	-7.40955
▁वाली	-7.41275
▁ज्यादा	-7.42266
▁परिवार	-7.4232
▁युवक	-7.42955
▁मंत्री	-7.43361
▁ओर	-7.44129
▁मौके	-7.44358
▁मंदिर	-7.44653
▁डॉ	-7.45142
▁हम	-7.45504
▁4	-7.45977
▁करना	-7.46171
▁कार्रवाई	-7.4632
▁जाता	-7.4633
▁मौत	-7.46453
▁तीन	-7.46646
ह	-7.46801
ज	-7.46863
▁वो	-7.47361
▁शहर	-7.49109
▁सामने	-7.49166
▁सुबह	-7.49705
श	-7.4981
▁फिल्म	-7.49905
व	-7.50069
▁स्कूल	-7.50296
▁6	-7.50697
ड	-7.51069
▁सबसे	-7.52732
▁देने	-7.53506
▁कम	-7.53774
▁अध्यक्ष	-7.53799
▁कार्यक्रम	-7.55916
▁क्या	-7.55974
▁लगा	-7.56388
▁निवासी	-7.56484
सी	-7.56797
▁यादव	-7.57041
▁हजार	-7.57072
ई	-7.57433
▁पानी	-7.57469
▁चल	-7.57545
▁सूचना	-7.58399
ग	-7.58787
नी	-7.58934
▁मांग	-7.59287
▁जहां	-7.59919
▁ऐसे	-7.60221
▁बारिश	-7.60461
▁दिए	-7.61217
ती	-7.61239
▁आरोप	-7.61988
पुर	-7.62097
▁क	-7.62985
▁होगी	-7.63214
▁करोड़	-7.63277
▁दे	-7.63617
▁गिरफ्तार	-7.63644
▁जिसमें	-7.63685
▁प	-7.63735
▁आने	-7.63742
▁इसी	-7.64178
▁आई	-7.64209
▁इसमें	-7.64223
▁अधिक	-7.65067
▁अधिकारी	-7.65268
▁1	-7.65463
▁राज	-7.66004
▁12	-7.66424
री	-7.66743
▁आया	-7.67058
ु	-7.67102
▁बाहर	-7.67225
▁बन	-7.67639
▁भारतीय	-7.67645
▁पहुंचे	-7.67992
▁दिल्ली	-7.68794
▁जी	-7.68963
▁मोदी	-7.68985
▁अनुसार	-7.69092
▁रहने	-7.69548
▁कोर्ट	-7.7018
▁शर्मा	-7.70226
रा	-7.7078
▁8	-7.70901
▁आए	-7.7117
▁सकता	-7.71556
ए	-7.71589
▁7	-7.71798
▁ली	-7.71848
▁चाहिए	-7.72504
▁स्थित	-7.72572
ला	-7.72868
▁लोकसभा	-7.73124
▁वहां	-7.74672
▁शिकायत	-7.74729
▁शव	-7.7482
▁मिली	-7.75722
▁20	-7.76406
▁पिछले	-7.76588
▁मामला	-7.76707
▁पूरी	-7.77431
▁उसकी	-7.77904
▁)	-7.77922
▁म	-7.7973
्	-7.79856
▁जीत	-7.79959
▁रिपोर्ट	-7.80183
▁नेता	-7.80429
▁विधायक	-7.80607
▁वर्ष	-7.81912
▁ना	-7.82091
▁11	-7.82202
िया	-7.82312
▁बंद	-7.82335
▁काफी	-7.82941
▁शाम	-7.82945
▁आगे	-7.82975
▁लग	-7.8334
ीय	-7.83559
▁मौजूद	-7.83644
▁श	-7.83926
▁कार	-7.84014
▁सहित	-7.84125
फ	-7.84323
▁बड़ी	-7.84361
▁15	-7.84834
▁मां	-7.8491
▁जिसक	-7.85127
▁जाएगी	-7.85184
▁जबकि	-7.85588
▁बता	-7.8619
▁बहुत	-7.86688
▁रोड	-7.86958
▁विकास	-7.87085
▁त	-7.87224
▁हालांकि	-7.87293
▁2024	-7.87329
▁बैठक	-7.87367
▁ब	-7.87475
▁अपना	-7.87648
▁अभी	-7.87977
▁मिल	-7.88048
▁चार	-7.88156
▁आप	-7.88431
▁मुख्यमंत्री	-7.88568
▁9	-7.89166
▁मुख्य	-7.89224
▁होता	-7.89948
▁वीडियो	-7.90091
▁विधानसभा	-7.90393
▁तहत	-7.90465
वा	-7.90824
▁बच्चों	-7.90829
▁बाइक	-7.90938
▁हत्या	-7.91401
▁चला	-7.91594
▁मिला	-7.91789
▁सड़क	-7.92002
▁पिता	-7.92169
▁करें	-7.92802
▁सकते	-7.93108
▁अलावा	-7.93532
▁बारे	-7.9357
▁उनका	-7.93743
ंग	-7.93825
▁बस	-7.9401
ें	-7.94016
ण	-7.9413
▁मीडिया	-7.94193
▁केंद्र	-7.94686
▁देख	-7.94792
▁कार्य	-7.95539
▁पता	-7.95778
▁योजना	-7.96173
▁अगर	-7.9626
▁र	-7.96658
▁अलग	-7.9675
▁कंपनी	-7.97041
▁श्री	-7.97086
▁कहना	-7.97482
▁वजह	-7.98116
?	-7.98529
▁संख्या	-7.98619
▁सीट	-7.98675
▁पत्नी	-7.98788
▁आग	-7.98793
▁शादी	-7.98844
▁आरोपियों	-7.9897
▁तब	-7.99067
▁सुरक्षा	-7.99208
▁दूसरे	-7.99905
▁वाहन	-8.00313
▁परीक्षा	-8.00953
▁अधिकारियों	-8.01535
▁हमार	-8.02225
▁समाज	-8.02559
▁भाई	-8.02615
▁पहुंच	-8.02637
▁तरफ	-8.02641
▁आयोजन	-8.02819
▁पूरा	-8.0287
▁करेंगे	-8.0326
▁जिस	-8.03261
▁करता	-8.03365
टी	-8.03366
▁प्र	-8.0341
▁दिनों	-8.03416
▁घायल	-8.03476
▁होती	-8.04306
च	-8.04526
▁जैसे	-8.04573
▁महीने	-8.04745
▁इसे	-8.05005
▁घंटे	-8.06123
▁रन	-8.0631
▁नंबर	-8.06856
▁ऐसा	-8.06885
▁वाला	-8.06982
▁बीजेपी	-8.07277
▁हरियाणा	-8.07635
▁द	-8.07962
▁नजर	-8.08194
▁मुताबिक	-8.08685
▁लगातार	-8.09158
▁सोमवार	-8.0933
▁बढ़	-8.09461
▁व्यक्ति	-8.09532
▁निर्माण	-8.09668
▁पूरे	-8.09692
▁जिससे	-8.09712
▁कॉलेज	-8.09937
या	-8.10548
▁पहुंची	-8.11164
▁इसकी	-8.11198
▁सांसद	-8.1166
▁निर्देश	-8.11751
▁जगह	-8.12375
▁सकती	-8.12987
▁प्रति	-8.13336
▁पी	-8.13635
▁लगाया	-8.13642
▁पहली	-8.13791
▁निगम	-8.13957
▁ए	-8.14057
▁लगे	-8.14248
़	-8.14342
ख	-8.14573
▁मिलने	-8.14629
ड़	-8.15034
▁थाने	-8.15141
▁बिहार	-8.15158
▁30	-8.15252
▁सु	-8.15267
▁तैयार	-8.15379
जी	-8.15383
▁गांधी	-8.15538
▁हूं	-8.1593
▁इसका	-8.16074
▁खेल	-8.161
▁भगवान	-8.16274
▁मंगलवार	-8.16449
▁प्रधानमंत्री	-8.16664
▁जाए	-8.16968
▁कराया	-8.17047
▁आधार	-8.17375
▁जल	-8.17586
▁प्रशासन	-8.17709
▁मृतक	-8.17928
▁डिग्री	-8.17936
▁पांच	-8.18078
ेंद्र	-8.18324
▁जाती	-8.18339
▁तेज	-8.18439
▁इसलिए	-8.18541
▁देते	-8.18575
▁लाल	-8.18702
▁मैच	-8.18928
▁बड़ा	-8.19403
▁खान	-8.19909
▁मुझे	-8.20729
▁ल	-8.2098
▁बड़े	-8.21057
▁25	-8.21262
▁बनाया	-8.21356
▁पति	-8.21399
▁सीएम	-8.21585
▁इलाज	-8.21618
▁शनिवार	-8.21619
▁नई	-8.21936
▁13	-8.22063
▁उप	-8.22073
▁जमीन	-8.22079
▁रविवार	-8.22128
▁नए	-8.22176
▁राजस्थान	-8.22218
▁कुल	-8.22345
▁14	-8.22562
▁मार	-8.22688
▁शिक्षा	-8.22953
▁बुधवार	-8.23056
▁भाग	-8.23359
▁शुक्रवार	-8.23475
▁जून	-8.2354
पी	-8.2363
▁लगी	-8.23702
▁प्रदर्शन	-8.23768
ली	-8.23914
▁खुद	-8.2395
▁पा	-8.24
▁पत्र	-8.24136
▁प्रभारी	-8.2416
▁पहचान	-8.24496
▁रुपये	-8.24658
▁पूजा	-8.24828
▁च	-8.25021
▁उन	-8.2514
▁आयोजित	-8.25161
▁मान	-8.25329
▁जेल	-8.25409
▁केस	-8.25734
▁बैंक	-8.25778
में	-8.25821
▁मौसम	-8.25972
य	-8.26464
थ	-8.26531
'	-8.26701
▁आम	-8.26784
▁महा	-8.26867
▁तापमान	-8.26878
▁वोट	-8.26882
5	-8.27118
▁समेत	-8.2712
▁रह	-8.27205
▁आदेश	-8.27469
▁बिजली	-8.27607
▁ज	-8.27684
▁उसका	-8.27964
▁स्थिति	-8.28119
▁पंजाब	-8.2818
्र	-8.28299
▁भर्ती	-8.28385
▁परिजनों	-8.28482
▁गंभीर	-8.29065
▁गुरुवार	-8.29081
e	-8.29182
मान	-8.29213
▁व्यवस्था	-8.29304
▁ट्रेन	-8.29358
▁देर	-8.29707
▁18	-8.29775
▁सवाल	-8.2992
▁शुरुआत	-8.29964
▁बच्चे	-8.30063
▁सेवा	-8.30137
▁राहुल	-8.30265
▁लेने	-8.3035
▁विशेष	-8.30411
▁दल	-8.30479
▁फोन	-8.30532
▁50	-8.30863
▁जान	-8.30884
▁नि	-8.30906
▁दें	-8.3093
▁यात्रा	-8.31005
मा	-8.31247
▁ों	-8.3142
▁कह	-8.31457
▁टी	-8.31565
▁जुलाई	-8.31619
▁फ	-8.31628
▁समिति	-8.3171
▁होते	-8.31715
▁ई	-8.31794
▁बेटे	-8.31967
▁बाजार	-8.32029
ेट	-8.32105
▁24	-8.32377
▁हाथ	-8.32696
▁बयान	-8.32736
▁मिले	-8.32772
▁भेज	-8.32965
▁जनता	-8.3299
▁रोक	-8.33162
▁राष्ट्रीय	-8.33438
ंड	-8.33484
▁चलते	-8.33647
▁होकर	-8.33938
▁चोरी	-8.34087
▁रखा	-8.34092
▁अभियान	-8.3414
▁16	-8.34178
▁सरकारी	-8.34264
▁स्थान	-8.34436
▁क्योंकि	-8.34544
▁17	-8.34894
▁चुके	-8.3533
▁बेटी	-8.35474
▁विभिन्न	-8.35486
▁थीं	-8.35593
▁दोपहर	-8.35748
▁दूसरी	-8.35907
▁शिव	-8.35985
▁विरोध	-8.35988
ष	-8.35999
▁अगस्त	-8.36012
▁सोशल	-8.36012
▁चर्चा	-8.36267
▁सवार	-8.36485
▁?	-8.36575
▁प्रतिशत	-8.36667
▁युवा	-8.36782
▁गिर	-8.36951
▁छोड़	-8.37224
▁सब	-8.37225
▁मदद	-8.37511
▁हाल	-8.37542
▁बनाए	-8.37704
▁तथा	-8.37726
▁महिलाओं	-8.37836
▁स्वास्थ्य	-8.37987
▁अवसर	-8.38259
▁सिर्फ	-8.38691
▁रेलवे	-8.3875
▁होंगे	-8.39019
▁जवाब	-8.39071
बी	-8.39121
एं	-8.39547
▁पंचायत	-8.39617
▁ग्राम	-8.39672
▁पद	-8.39803
ाई	-8.39938
▁चुकी	-8.40058
भ	-8.40218
▁मोबाइल	-8.40236
▁उम्मीदवार	-8.40285
▁विवाद	-8.40335
▁जयपुर	-8.40862
▁वि	-8.41015
▁स्थानीय	-8.41094
▁जन	-8.41159
▁पुत्र	-8.41173
▁आदि	-8.41659
▁देवी	-8.41771
▁जाते	-8.41925
▁प्रमुख	-8.42284
▁देव	-8.42794
▁बढ़ा	-8.43336
▁ला	-8.43449
o	-8.43649
▁जैन	-8.43919
▁किसान	-8.43965
▁लगभग	-8.4427
▁देखा	-8.44407
▁पेश	-8.4445
▁सदस्य	-8.44466
▁शिक्षक	-8.4473
▁इलाके	-8.45019
▁करती	-8.45151
▁जल्द	-8.45184
▁गाड़ी	-8.45317
▁डॉक्टर	-8.45369
▁पाकिस्तान	-8.45483
▁शराब	-8.45483
▁वापस	-8.45497
7	-8.45602
▁स्तर	-8.45626
2	-8.45705
▁मेरे	-8.45708
▁छात्र	-8.45717
▁ग	-8.45784
▁अवैध	-8.45947
▁उत्तर	-8.46557
्य	-8.46607
1	-8.4669
▁किसानों	-8.46876
▁मई	-8.47109
लाल	-8.47208
▁दूर	-8.47219
▁पहुंचा	-8.47237
▁पक्ष	-8.47291
▁सचिव	-8.4731
▁वन	-8.47406
▁जीवन	-8.47551
िन	-8.47577
▁शेयर	-8.47834
▁वालों	-8.47855
▁पीड़ित	-8.48296
▁इंडिया	-8.48619
▁19	-8.48716
▁22	-8.49043
▁मे	-8.49486
▁प्रयास	-8.49568
▁स्टेशन	-8.49581
▁सितंबर	-8.49755
▁सा	-8.49792
▁कोशिश	-8.49816
▁सी	-8.49922
राज	-8.49985
▁बल	-8.50226
▁कहते	-8.50349
▁मारपीट	-8.5061
▁इंदौर	-8.50934
▁अंदर	-8.51042
▁कलेक्टर	-8.51159
▁अक्टूबर	-8.5159
ेज	-8.51632
▁उ	-8.51782
▁पीएम	-8.51787
ियां	-8.5182
▁चुका	-8.51903
वी	-8.52125
▁ह	-8.52247
▁बरामद	-8.52256
वीं	-8.52379
▁बी	-8.52736
▁दिसंबर	-8.53146
▁माता	-8.53375
▁हमला	-8.53513
▁जिन	-8.53687
▁तीसर	-8.53843
▁पीछे	-8.53965
▁लोक	-8.54053
▁पड़	-8.5418
सा	-8.54365
▁21	-8.54415
▁हादसे	-8.54752
▁विजय	-8.54755
▁भर	-8.54913
▁ता	-8.5541
▁लिखा	-8.55476
▁देकर	-8.5558
▁मेडिकल	-8.55751
▁पूछताछ	-8.55816
▁कार्यालय	-8.5589
▁धर्म	-8.55987
तर	-8.5602
▁नवंबर	-8.56399
▁आवेदन	-8.56472
▁बने	-8.56535
▁संबंध	-8.56536
▁मंडल	-8.56541
▁आपक	-8.5668
का	-8.56763
▁आसपास	-8.56789
▁दुकान	-8.56852
▁मन	-8.56926
▁लाइन	-8.57073
▁बदल	-8.57342
▁केंद्रीय	-8.57383
▁पढ़ें	-8.57753
▁कभी	-8.58091
▁एसपी	-8.58415
▁प्राप्त	-8.58518
▁मतदान	-8.58627
▁तौर	-8.58776
▁खास	-8.59003
4	-8.59091
ेश	-8.59122
ै	-8.59217
▁जाएंगे	-8.59358
▁उठा	-8.59381
▁आपको	-8.59578
▁चौधरी	-8.59623
▁केवल	-8.59635
▁बिना	-8.59851
▁पड़ा	-8.60044
▁भोपाल	-8.60837
▁मरीज	-8.61111
▁मिनट	-8.61174
▁देखने	-8.61326
▁जाना	-8.61914
%	-8.62061
▁नेताओं	-8.62551
▁ध्यान	-8.62818
ॉ	-8.62956
▁भारी	-8.62967
▁माह	-8.63026
कार	-8.63133
▁क्यों	-8.63166
दार	-8.6378
▁नदी	-8.63875
▁माध्यम	-8.64067
▁पुर	-8.64102
▁मध्य	-8.64217
▁S	-8.64616
▁मार्च	-8.64639
6	-8.65002
▁राय	-8.6531
▁रि	-8.65569
▁हार	-8.65597
▁हमें	-8.65986
▁ऑफ	-8.66005
▁40	-8.66017
▁प्रसाद	-8.66099
▁बाल	-8.66165
▁अपराध	-8.66236
गंज	-8.66384
ेशन	-8.66528
▁...	-8.66662
3	-8.66687
8	-8.66907
जा	-8.67182
▁होना	-8.67326
▁कैसे	-8.67335
▁बोर्ड	-8.67347
▁देखते	-8.67453
9	-8.6772
▁सके	-8.67814
▁फरार	-8.67853
ार	-8.67876
▁टिकट	-8.68161
्ट	-8.68163
▁राशि	-8.68478
▁A	-8.68543
अलग	-8.6882
s	-8.69212
▁कल	-8.69223
▁विदेश	-8.6951
पा	-8.69578
▁कराने	-8.69642
▁2023	-8.69768
जीत	-8.69873
के	-8.69875
▁जमा	-8.69911
▁पोस्ट	-8.69958
▁लगाए	-8.70001
▁बनी	-8.70308
▁यानी	-8.70341
▁संबंधित	-8.70367
▁जनवरी	-8.70498
ले	-8.70994
▁ग्रामीणों	-8.71059
▁जिसे	-8.7106
▁वार्ड	-8.71109
ध	-8.71254
▁ग्रामीण	-8.71435
▁कर्मचारी	-8.71654
▁प्रक्रिया	-8.72229
▁संभावना	-8.72229
▁वक्त	-8.72296
▁सं	-8.72435
▁अगले	-8.72458
i	-8.72477
▁चौक	-8.7248
मेंट	-8.72644
▁छात्रों	-8.72729
▁समारोह	-8.72838
▁तय	-8.73111
डी	-8.73139
▁संजय	-8.73149
▁परेशान	-8.73247
▁सीटों	-8.73277
▁26	-8.73322
▁मा	-8.73328
▁आयोग	-8.73374
▁मार्ग	-8.73768
▁भ	-8.74078
▁जिलों	-8.74222
▁ं	-8.74549
▁भेजा	-8.74813
0	-8.74826
▁इ	-8.75262
▁दावा	-8.75298
▁23	-8.75433
▁ऐसी	-8.75485
▁छत्तीसगढ़	-8.75547
▁भवन	-8.75589
पाल	-8.75812
▁मु	-8.7589
ंस	-8.75929
▁100	-8.75966
▁लड़	-8.75987
▁नेतृत्व	-8.76019
िल	-8.76371
▁तलाश	-8.76385
ंत	-8.76477
इ	-8.76558
▁बे	-8.76582
▁रंग	-8.76622
▁शाह	-8.7668
▁उर्फ	-8.76732
▁कर्मचारिय	-8.76751
▁रखने	-8.76774
▁बोले	-8.76806
▁नियम	-8.77169
बा	-8.7723
▁गोली	-8.77285
▁एक्स	-8.77312
▁ताकि	-8.77368
ौ	-8.77392
▁साफ	-8.77412
▁्स	-8.77555
▁गर्मी	-8.7756
▁नीचे	-8.77608
▁विकेट	-8.77688
ड़ा	-8.77692
▁यही	-8.77729
▁मुंबई	-8.77788
▁बल्क	-8.7794
▁वर्ग	-8.78078
ेंगे	-8.78213
▁निकाल	-8.78435
शन	-8.78513
▁माना	-8.78604
▁हिस्सा	-8.78655
▁गुरु	-8.78706
गा	-8.78827
▁ख	-8.78839
▁दुनिया	-8.78979
▁संगठन	-8.79011
a	-8.79037
▁अप्रैल	-8.7906
▁खबर	-8.79115
▁आर	-8.7919
▁कु	-8.79241
▁टक्कर	-8.79386
▁गुप्ता	-8.7966
िका	-8.79716
▁तैयारी	-8.7973
▁प्रत्याशी	-8.79794
्या	-8.79803
▁दरअसल	-8.79958
▁पकड़	-8.80345
▁लगाने	-8.80373
गी	-8.80397
▁कीमत	-8.80513
▁अंतर	-8.80727
▁गो	-8.80852
हा	-8.81152
दा	-8.8116
▁प्रकाश	-8.81213
▁जय	-8.81355
वर	-8.81382
▁फैसला	-8.81478
▁टेस्ट	-8.81574
▁चरण	-8.8159
▁समस्या	-8.81664
ान	-8.81766
िस	-8.81933
▁जुड़े	-8.82152
ेड	-8.82161
▁यूपी	-8.82272
▁28	-8.8235
▁हासिल	-8.82365
र्स	-8.82412
▁मकान	-8.82449
▁जाकर	-8.82687
▁फोटो	-8.82702
▁बा	-8.82713
▁200	-8.82718
▁सदर	-8.82802
▁27	-8.82875
▁राजनीतिक	-8.83061
िम	-8.83135
ओ	-8.83194
▁मैदान	-8.83297
▁पार	-8.83477
रेंद्र	-8.83495
▁.	-8.83515
▁अमेरिका	-8.83663
▁रहते	-8.83875
▁इस्तेमाल	-8.83974
▁डे	-8.84118
ठ	-8.84206
▁ओ	-8.84346
ीन	-8.84381
▁लौट	-8.8439
▁संघ	-8.84574
▁सिर	-8.84839
▁मह	-8.84897
▁दोस्त	-8.84955
ंक	-8.85127
▁प्रकार	-8.85217
▁कट	-8.85231
▁एम	-8.85271
▁बाबा	-8.85279
▁चालक	-8.85442
▁रहेगा	-8.85508
▁गा	-8.85552
▁P	-8.85767
▁डी	-8.85781
▁ऊपर	-8.85784
▁सभा	-8.85829
▁हालत	-8.86165
यर	-8.86171
नाथ	-8.86339
▁अमित	-8.86394
▁पटना	-8.86428
C	-8.87068
▁बातचीत	-8.87095
▁कानून	-8.87237
▁वित्त	-8.87271
▁शो	-8.87335
▁पैसे	-8.87386
▁घोषणा	-8.87445
▁लाभ	-8.87474
▁B	-8.87516
▁खराब	-8.87539
▁परिसर	-8.87544
▁भीड़	-8.87555
▁नया	-8.87672
▁सिटी	-8.87789
▁ठीक	-8.88158
▁वायरल	-8.88336
▁झारखंड	-8.88693
▁महत्वपूर्ण	-8.88696
▁सीमा	-8.8882
▁31	-8.88839
वें	-8.892
▁घाट	-8.89214
▁सर	-8.89289
▁एन	-8.89362
▁फिलहाल	-8.89412
▁बांग्लादेश	-8.89624
▁खत्म	-8.89772
▁ओवर	-8.89789
▁रिकॉर्ड	-8.89863
▁हमने	-8.89869
▁सेंटर	-8.89875
▁बचा	-8.89966
h	-8.89995
▁समझ	-8.90008
्त	-8.90056
▁दिवस	-8.90106
▁चोर	-8.90184
▁कार्ड	-8.90202
▁तीनों	-8.90279
▁निजी	-8.90285
▁गठबंधन	-8.90297
▁कराई	-8.90427
▁खेत	-8.90488
ां	-8.90521
ुल	-8.90769
क्ष	-8.9083
▁कहीं	-8.90914
▁प्रेम	-8.90949
▁किस	-8.90975
▁सो	-8.9137
▁उम्मीद	-8.91492
I	-8.91508
वार	-8.91893
नगर	-8.91915
00	-8.9196
▁सि	-8.9201
▁लखनऊ	-8.9206
▁नागरिक	-8.92071
▁दर्शन	-8.92152
▁राष्ट्रपति	-8.92226
▁दिखा	-8.92355
▁ट्रक	-8.92412
▁पहला	-8.92435
t	-8.9252
▁29	-8.92553
▁घोषित	-8.92719
▁होटल	-8.92808
▁एस	-8.92886
▁सम्मान	-8.93102
आई	-8.93196
रो	-8.93259
▁मेरी	-8.93345
▁लड़की	-8.93522
▁योग	-8.93551
▁उपस्थित	-8.93633
▁मिलकर	-8.93808
▁करा	-8.93836
▁मो	-8.93864
▁धारा	-8.93966
▁एल	-8.94363
▁अंतिम	-8.94409
▁सामान	-8.94422
इनमें	-8.94424
▁हटा	-8.94433
एस	-8.94737
▁चीन	-8.94886
▁उपलब्ध	-8.94897
▁मीटर	-8.95089
▁ट	-8.95328
▁बेच	-8.95347
▁कमेटी	-8.95354
▁पाया	-8.95694
▁चंद्र	-8.95763
▁वर्षीय	-8.95766
▁तभी	-8.95833
▁ड	-8.96087
▁जरिए	-8.96219
▁सह	-8.9654
▁गेट	-8.96582
▁धमकी	-8.96604
▁C	-8.96671
्ल	-8.96872
▁प्रवेश	-8.96895
▁हिंदू	-8.97
भर	-8.97307
▁कॉल	-8.97467
▁लगाई	-8.97471
▁परिषद	-8.97606
्‍	-8.97663
ेंट	-8.97865
▁अचानक	-8.97871
▁स्व	-8.97892
▁दौर	-8.97898
▁अदालत	-8.97969
▁वा	-8.97976
▁इतन	-8.97985
▁वरिष्ठ	-8.98166
▁सुनवाई	-8.98249
▁अग्रवाल	-8.98266
▁बहन	-8.98401
▁विपक्ष	-8.98463
▁समर्थन	-8.9868
▁सुन	-8.98762
▁वारदात	-8.98857
▁परिजन	-8.98867
▁मोहन	-8.98946
▁सही	-8.98948
राम	-8.98966
▁जरूरत	-8.98992
▁सार	-8.99005
▁चाहते	-8.9909
▁सात	-8.99104
▁सहयोग	-8.99108
▁कॉलोनी	-8.99254
▁जे	-8.99816
वाल	-8.99907
▁अशोक	-8.99952
आर	-9.00009
जन	-9.0004
वि	-9.0008
▁हाई	-9.00215
▁तोड़	-9.00325
▁बावजूद	-9.00354
▁देना	-9.00631
▁लागू	-9.00656
गढ़	-9.00682
एम	-9.00791
स्त	-9.0083
▁गलत	-9.00897
▁सामान्य	-9.00986
▁आते	-9.01072
▁बर	-9.01171
▁सदस्यों	-9.01237
ड़ी	-9.01495
▁निरीक्षण	-9.01568
▁उनसे	-9.01705
▁तैनात	-9.01846
▁पटेल	-9.01888
▁थ	-9.02009
▁क्रिकेट	-9.02071
▁विश्वविद्यालय	-9.02078
टा	-9.02323
▁लूट	-9.02344
▁पाल	-9.02607
▁बेहतर	-9.02677
▁स्थल	-9.02706
▁बदलाव	-9.02826
▁एंड	-9.02913
▁राजनीति	-9.02976
▁हथियार	-9.0321
▁प्रधान	-9.03315
▁डाल	-9.03316
▁तत्काल	-9.03728
▁प्रभावित	-9.0378
▁दीप	-9.03792
▁विश्व	-9.03811
▁वर्मा	-9.03839
▁नेशनल	-9.0394
्यू	-9.03993
▁ऑफिस	-9.04093
▁कही	-9.04344
▁बंगाल	-9.04564
▁इनक	-9.04688
ाबाद	-9.04745
▁उम्र	-9.04777
▁कृष्ण	-9.04787
▁उसी	-9.04815
▁सेना	-9.04895
D	-9.04908
▁दिखाई	-9.04959
▁नुकसान	-9.05089
▁रखी	-9.05208
▁इं	-9.0529
ंट	-9.05293
▁प्रतियोगिता	-9.05407
▁जरूरी	-9.05485
▁धन	-9.05533
▁रहता	-9.05533
▁विद्यालय	-9.05567
ंद	-9.05883
▁उपयोग	-9.06043
▁अजय	-9.06062
▁बढ़त	-9.06063
▁पदाधिकारी	-9.06262
▁सुप्रीम	-9.06294
सर	-9.06336
वे	-9.06336
▁भक्त	-9.06352
▁असर	-9.06392
▁उससे	-9.06411
▁M	-9.06422
▁सजा	-9.06439
स्ट	-9.06464
▁खा	-9.0659
▁बांध	-9.06594
▁पुरा	-9.06755
▁करेगी	-9.06775
▁संस्थान	-9.06899
्व	-9.0702
▁अफसर	-9.07115
▁बनाई	-9.07131
▁विचार	-9.0734
▁राहत	-9.07679
▁ग्रुप	-9.07761
▁शांति	-9.07899
▁रास्ते	-9.08029
ोर	-9.08043
▁महाराष्ट्र	-9.08088
▁हॉस्पिटल	-9.08195
▁तरीके	-9.08248
▁D	-9.08416
▁निकल	-9.08625
▁दिख	-9.087
▁2019	-9.08849
▁मिश्रा	-9.08921
▁ड्राइवर	-9.08953
▁जब्त	-9.08953
▁अयोध्या	-9.09068
▁भूमिका	-9.09086
▁मजबूत	-9.09094
र्ड	-9.0937
▁कौन	-9.09404
▁सफाई	-9.09448
▁सुख	-9.09464
▁कार्यकर्ताओं	-9.09483
▁उच्च	-9.0954
▁सीसीटीवी	-9.09619
▁35	-9.09631
िश	-9.0968
▁महाराज	-9.09887
▁रो	-9.09915
▁सागर	-9.10012
▁संस्था	-9.10273
▁नव	-9.10343
ुरंत	-9.10448
▁प्रो	-9.10512
▁अनु	-9.10535
▁स्वागत	-9.10616
▁दर	-9.11046
▁डा	-9.11115
▁हमले	-9.11145
▁रिलीज	-9.11287
▁खर्च	-9.11292
▁कपूर	-9.11292
▁बजट	-9.11384
▁बोल	-9.11403
▁इतना	-9.11421
ंच	-9.11624
▁अभिषेक	-9.11743
d	-9.11955
S	-9.1198
g	-9.12001
"	-9.12008
u	-9.12102
▁रायपुर	-9.12178
▁नौकरी	-9.1219
▁युवती	-9.12194
▁प्रदान	-9.12321
▁जवान	-9.12337
y	-9.12378
▁गंगा	-9.1243
▁छोटे	-9.12504
वीर	-9.12593
▁आनंद	-9.12643
▁लगाकर	-9.12973
▁कृषि	-9.12984
▁बीते	-9.13028
▁राजेश	-9.13033
▁छ	-9.13074
▁फरवरी	-9.13212
▁संयुक्त	-9.13215
▁लगता	-9.13489
▁रेल	-9.13559
▁डर	-9.13609
▁जन्म	-9.13803
रिया	-9.13844
▁निर्णय	-9.14016
▁सीटें	-9.14131
▁मिलेगा	-9.14421
▁लेते	-9.14483
▁यदि	-9.14594
▁आर्थ	-9.14628
▁सिविल	-9.1471
▁यू	-9.1489
▁नोटिस	-9.1507
▁रोहित	-9.1508
▁तेजी	-9.1516
▁फीसदी	-9.15181
▁कदम	-9.15194
▁दिल	-9.15267
▁दीपक	-9.15508
▁नाबालिग	-9.15643
▁2022	-9.1576
▁अंक	-9.15764
▁ऑनलाइन	-9.15879
▁बिल	-9.15955
▁रहेगी	-9.15977
▁मालिक	-9.16057
▁कल्याण	-9.16109
▁भास्कर	-9.16113
▁जाम	-9.16136
A	-9.16177
▁पढ़	-9.1636
▁जमकर	-9.16422
▁विषय	-9.16467
घ	-9.16531
▁मुलाकात	-9.16585
ेन	-9.16619
▁मना	-9.1662
R	-9.16789
M	-9.16829
▁रवि	-9.16956
▁छह	-9.17119
▁एक्सप्रेस	-9.17416
▁श्रद्धालु	-9.17416
▁उतर	-9.17495
an	-9.17507
▁ढ	-9.17507
▁करेगा	-9.17517
▁पुल	-9.1782
k	-9.17824
▁मेरा	-9.17886
▁बेटा	-9.17902
▁कमी	-9.17943
▁मनोज	-9.18156
m	-9.18159
▁सहायक	-9.18394
▁बज	-9.18535
▁कड़ी	-9.18678
▁/	-9.18741
▁याचिका	-9.18799
▁रख	-9.18799
▁ठाकुर	-9.18979
▁अपील	-9.1898
▁सुविधा	-9.18986
▁सामना	-9.19011
▁रहती	-9.19104
▁फर्जी	-9.19105
▁अंतर्गत	-9.19223
▁दूसरा	-9.19302
▁शक्ति	-9.1935
▁मोहम्मद	-9.19464
▁आवास	-9.19577
▁अतिरिक्त	-9.19586
दी	-9.1973
▁हाईकोर्ट	-9.1983
ति	-9.19853
▁T	-9.19878
िट	-9.20009
▁भूमि	-9.20133
▁उदयपुर	-9.20213
एल	-9.20316
▁कार्यकर्ता	-9.20598
▁करवाया	-9.20611
देव	-9.20709
▁अमर	-9.20737
▁खड़े	-9.208
अज्ञात	-9.20936
▁संचालन	-9.20936
▁सीरीज	-9.20936
▁साहू	-9.20954
▁सुधार	-9.21006
▁अनिल	-9.21102
िता	-9.21236
▁इलाकों	-9.21307
▁सुनील	-9.21352
▁पार्षद	-9.21556
▁प्रस्ताव	-9.21599
▁सिस्टम	-9.2168
▁मंत्रालय	-9.21685
▁सत्र	-9.21749
▁बदमाशों	-9.21786
▁देंगे	-9.21861
▁रक्षा	-9.21909
▁अंजाम	-9.21929
▁पीड़िता	-9.21959
▁गृह	-9.22011
▁तस्वीर	-9.22018
▁मंच	-9.22159
▁गिरफ्तारी	-9.22166
▁हवा	-9.22232
▁करवा	-9.22347
▁मिलते	-9.22395
▁बैठे	-9.22488
▁बच्ची	-9.22681
▁अच्छी	-9.22681
▁जैसी	-9.22698
▁भजन	-9.22701
▁जिसकी	-9.2276
▁सर्व	-9.22842
▁मामलों	-9.22932
▁कला	-9.22944
▁पश्चिम	-9.2297
▁कोतवाली	-9.22992
▁प्रचार	-9.23141
▁किलोमीटर	-9.23186
ास	-9.23211
▁एक्ट्रेस	-9.23564
▁प्रोजेक्ट	-9.23691
ेस	-9.23713
प्र	-9.23795
▁पेट्रोल	-9.23946
▁जंगल	-9.24191
मी	-9.24348
▁अच्छा	-9.24456
उ	-9.24512
▁न्याय	-9.24635
▁आंदोलन	-9.24712
▁नीतीश	-9.24712
▁टूट	-9.24794
▁दिशा	-9.24883
▁रा	-9.24927
▁भविष्य	-9.25097
▁स्पेशल	-9.25098
▁संत	-9.251
▁चले	-9.25387
▁वर्त	-9.2549
ंगी	-9.25496
बल	-9.25626
्म	-9.25699
▁सोने	-9.25754
▁खोल	-9.25803
▁60	-9.2583
ाना	-9.25867
▁अधिकार	-9.26027
▁केजरीवाल	-9.26134
▁मंत्र	-9.26176
ेर	-9.26195
▁रे	-9.26397
▁न्यू	-9.26415
▁परेशानी	-9.2648
▁मुस्लिम	-9.2656
▁ो	-9.26886
▁अलर्ट	-9.26923
▁मौका	-9.27054
▁यात्र	-9.2745
▁सत्ता	-9.27588
की	-9.27621
ेन्द्र	-9.27637
▁अतिथि	-9.2771
▁आयुक्त	-9.27725
▁भाव	-9.27793
▁पकड़ा	-9.27899
▁शिविर	-9.2812
▁शासन	-9.28154
▁साइबर	-9.28239
▁पेड़	-9.2829
ाय	-9.2834
▁नामांकन	-9.28371
ar	-9.28397
▁तिवारी	-9.28504
▁सूर्य	-9.28504
▁मीणा	-9.28639
.5	-9.28655
▁पैर	-9.28669
ेल	-9.28692
ामी	-9.28703
▁45	-9.2873
दीप	-9.2892
▁गुजरात	-9.29041
▁न्यायालय	-9.29044
▁लंब	-9.29274
▁अधिकतम	-9.29441
▁इधर	-9.29449
20	-9.29484
▁दक्षिण	-9.29506
▁मै	-9.29532
▁ऑटो	-9.29848
▁बदमाश	-9.29865
▁सेक्टर	-9.29872
ष्ट	-9.30049
▁रैली	-9.30126
मन	-9.30234
▁ठंड	-9.30287
▁पढ़ाई	-9.30293
▁मुकेश	-9.3039
▁मंडी	-9.30428
▁दास	-9.30475
वास	-9.30495
▁योगी	-9.30509
▁डॉक्टरों	-9.30608
▁कप	-9.30641
▁मनाया	-9.30711
▁खरीद	-9.30785
▁कब्जे	-9.30795
▁संचालक	-9.30795
▁व्रत	-9.30797
▁निकाला	-9.30808
बर	-9.30957
िटी	-9.30986
▁हमेशा	-9.31206
▁सुरक्षित	-9.3121
▁याद	-9.31387
▁गणेश	-9.3149
▁िया	-9.31492
▁रण	-9.31511
▁;	-9.31515
▁महिलाएं	-9.31518
रे	-9.31609
▁आवाज	-9.31634
▁संविधान	-9.31755
▁चली	-9.31932
▁पूर्ण	-9.31967
▁पोल	-9.32029
▁मनीष	-9.32066
हार	-9.32108
▁कब	-9.32171
▁नौ	-9.3222
▁पाए	-9.32448
▁पेपर	-9.3245
▁युद्ध	-9.32584
▁देता	-9.32606
▁डिप्	-9.32628
▁यूनिवर्सिटी	-9.32862
▁पूछा	-9.32957
▁व्यापार	-9.32967
P	-9.33151
▁जिम्मेदारी	-9.33173
ज़	-9.33204
▁काट	-9.3326
▁आकर	-9.33288
▁सम्मानित	-9.334
▁लिस्ट	-9.33453
▁पारी	-9.33542
▁सप्ताह	-9.33559
▁खुल	-9.3366
▁गईं	-9.33671
▁मर	-9.33735
▁हाउस	-9.33818
er	-9.33819
▁पोस्टमार्टम	-9.3384
▁संबोधित	-9.33853
▁जोर	-9.33941
▁किनारे	-9.33982
▁कमरे	-9.3404
यू	-9.34051
▁एयरपोर्ट	-9.34122
▁खुलासा	-9.34128
▁खो	-9.34192
▁शुभ	-9.34232
▁वर्ल्ड	-9.34265
▁अहम	-9.34277
▁लाया	-9.34596
▁सामाजिक	-9.34634
▁घ	-9.34663
▁बाग	-9.34709
को	-9.3473
▁री	-9.34829
▁चलने	-9.34941
▁हादसा	-9.35031
▁पार्क	-9.35084
▁उनको	-9.35139
ियन	-9.35221
▁पाई	-9.35255
बीर	-9.35292
▁जग	-9.35336
▁अप	-9.35351
▁मशीन	-9.35398
▁नर	-9.35541
▁स्टूडेंट्स	-9.3558
▁रखे	-9.35625
▁हा	-9.3566
▁सपा	-9.35672
▁संपर्क	-9.35684
रण	-9.35712
स्	-9.35782
▁लो	-9.35948
▁रहेंगे	-9.36022
▁प्रबंधन	-9.36054
▁उद्देश्य	-9.36115
▁खाली	-9.36263
▁व्यक्त	-9.36274
▁धर	-9.36458
▁बेहद	-9.36547
▁राजा	-9.36574
शिप	-9.36656
▁घरों	-9.36698
राष्ट्रीय	-9.36771
▁बि	-9.36988
हर	-9.36991
र्	-9.37019
▁कौर	-9.37073
▁उपचार	-9.37144
ेश्वर	-9.37163
▁आठ	-9.37172
▁छात्रा	-9.37209
पत	-9.37218
▁पहुंचकर	-9.37265
▁धार्मि	-9.37275
▁लक्ष्य	-9.37275
▁अधीक्षक	-9.37434
▁मगर	-9.37594
▁हनुमान	-9.37844
▁एयर	-9.38048
▁सूत्र	-9.38187
▁अमेरिक	-9.38243
▁य	-9.38384
▁32	-9.38579
▁समुदाय	-9.38589
▁अली	-9.38708
▁किलो	-9.38739
▁दा	-9.38748
▁चुनावी	-9.38753
▁N	-9.38757
▁डि	-9.38778
▁विधि	-9.38825
▁आउट	-9.38865
पुरा	-9.38868
▁न्यूनतम	-9.38884
▁80	-9.38928
▁निवेश	-9.3914
▁जिसका	-9.39188
▁तकनीक	-9.39192
▁बाकी	-9.39199
▁प्रखंड	-9.392
▁बुजुर्ग	-9.39329
▁चोट	-9.39343
▁तिथि	-9.39344
▁70	-9.39381
▁दान	-9.39421
▁झ	-9.39468
▁ब्र	-9.39508
▁गढ़	-9.39594
▁रेप	-9.3979
▁पर्व	-9.39853
यों	-9.3991
▁प्रताप	-9.39913
▁रूस	-9.39996
▁कार्यों	-9.4014
▁शरीर	-9.40374
▁समाधान	-9.40374
▁पड़ी	-9.40398
▁मुख्यालय	-9.40398
▁आता	-9.40476
▁मुश्किल	-9.40512
▁आदमी	-9.40524
▁पैसा	-9.40556
▁कुमारी	-9.40674
▁जाति	-9.40677
▁पूजन	-9.40764
▁33	-9.40775
▁सालों	-9.40913
▁सफलता	-9.4093
▁माल	-9.4111
▁चौहान	-9.41129
▁सड़कों	-9.41163
▁राकेश	-9.4128
▁एक्टर	-9.41281
▁मजदूर	-9.41294
▁सीजन	-9.4138
खा	-9.41447
टर	-9.41526
▁I	-9.41612
▁मिलेगी	-9.41647
▁संदीप	-9.41752
▁आसान	-9.41819
▁निर्वाचन	-9.4193
▁बताई	-9.41977
▁आखिरी	-9.41995
झ	-9.42046
▁घुस	-9.42056
▁फूल	-9.42056
ाया	-9.42077
▁नारायण	-9.42156
▁एजेंसी	-9.42191
▁गुजर	-9.42341
▁दाखिल	-9.42497
▁फाइनल	-9.42497
▁इमेज	-9.42497
▁ध	-9.42528
p	-9.4254
▁फ़	-9.4256
▁सफल	-9.42565
▁टॉप	-9.4265
▁रवाना	-9.42653
▁कितन	-9.42732
▁नीति	-9.42739
▁अन	-9.42749
▁रुक	-9.42817
▁भा	-9.42949
▁ब्लॉक	-9.42959
▁मार्केट	-9.42966
▁कहानी	-9.43014
ंज	-9.43227
▁स्पष्ट	-9.43267
▁प्राइवेट	-9.4342
▁मारने	-9.43468
▁सौंप	-9.43581
▁स्टाफ	-9.4362
▁लाने	-9.43687
▁मानसून	-9.43732
छ	-9.43749
साथ	-9.43795
षण	-9.43828
्क	-9.4384
▁परिणाम	-9.43886
▁फीट	-9.43889
▁चंद	-9.43964
▁इंतजार	-9.44041
▁मि	-9.44044
▁आय	-9.44123
▁कमिश्नर	-9.44197
▁सोच	-9.44275
र्क	-9.44416
▁चेक	-9.44468
▁अरविंद	-9.44541
▁स्	-9.44543
▁स्टार	-9.44546
▁वकील	-9.44666
▁कैप्शन	-9.44823
▁खिलाड़ी	-9.44829
▁पहुंचने	-9.44873
▁झा	-9.44994
al	-9.45044
▁ऑपरेशन	-9.45136
O	-9.45245
▁स्थापित	-9.45294
मो	-9.45303
▁विद्यार्थ	-9.45343
▁मत	-9.45391
▁लॉन्च	-9.45452
दर	-9.45457
▁गोपाल	-9.4564
▁प्रथम	-9.45694
बार	-9.45951
▁नोट	-9.45979
▁वार	-9.45988
▁राजधानी	-9.46085
▁शपथ	-9.46085
▁सूची	-9.4609
▁संतोष	-9.46156
▁V	-9.46239
▁इतिहास	-9.46244
्री	-9.46248
▁प्यार	-9.46404
...	-9.46562
▁निदेशक	-9.46607
▁परियोजना	-9.46723
िए	-9.46839
▁ट्रैफिक	-9.46883
▁मिलता	-9.46923
ल्ड	-9.47008
▁मूल	-9.4707
▁रूम	-9.47071
▁फायदा	-9.47203
▁पालन	-9.47219
▁दबाव	-9.47227
त्र	-9.47287
▁डीएम	-9.47303
▁घट	-9.47364
▁जम्मू	-9.47364
▁माहौल	-9.4737
▁मं	-9.47512
▁पसंद	-9.47686
▁आवश्यक	-9.47731
▁जोन	-9.47802
▁अरुण	-9.47863
G	-9.4789
▁रफ्तार	-9.4801
▁बुलाया	-9.48037
▁प्राथमिक	-9.48134
▁उक्त	-9.48172
▁टैक्स	-9.48175
▁किमी	-9.48217
▁प्रभाव	-9.48244
▁सोनी	-9.48303
▁प्रशिक्षण	-9.48339
▁BJP	-9.48387
▁वी	-9.48439
▁ज्ञान	-9.48476
▁सहायता	-9.48512
E	-9.4853
▁कक्षा	-9.48674
▁वही	-9.48677
शा	-9.4875
▁सम	-9.48766
िस्ट	-9.48872
▁हिरासत	-9.48986
▁अनुमति	-9.48986
▁जुड़ी	-9.4911
▁धान	-9.49145
▁क्षमता	-9.4915
▁समूह	-9.49314
▁दिला	-9.495
फा	-9.49642
▁ड्यूटी	-9.49642
▁सैनी	-9.49658
▁रोजगार	-9.49699
▁कंपनियों	-9.49807
▁ग्वालियर	-9.49808
▁संपत्ति	-9.49909
▁हेड	-9.49971
▁जमानत	-9.49974
िव	-9.50005
▁सीनियर	-9.5014
▁गाय	-9.50193
▁फायर	-9.50412
फ़	-9.50468
▁जानते	-9.5077
▁मध्यप्रदेश	-9.50801
ढ़	-9.50818
▁शंकर	-9.50852
▁फल	-9.50902
▁चिकित्सा	-9.50968
▁खड़	-9.51146
▁सत	-9.51221
▁चिंता	-9.51299
▁बाढ़	-9.51317
▁डायरेक्टर	-9.5133
ानंद	-9.51331
▁कोच	-9.51479
▁मुकाबले	-9.51503
▁पड़े	-9.51525
▁उठ	-9.51565
्ड	-9.51566
▁एसोसिएशन	-9.51638
▁सेल्सियस	-9.51638
▁सत्य	-9.51813
▁हु	-9.51837
▁2024:	-9.51928
▁किशोर	-9.51977
▁कहां	-9.5201
▁श्याम	-9.52143
▁तारीख	-9.52145
▁रेफर	-9.52148
ाइज	-9.52176
▁पोस्टमॉर्टम	-9.52312
▁मुकदमा	-9.52312
▁खुश	-9.52406
▁कर्मियों	-9.5244
▁निर्धारित	-9.52489
ंब	-9.52599
▁डूब	-9.52632
▁आरक्षण	-9.5265
▁समाप्त	-9.52652
▁बॉलीवुड	-9.52655
▁्	-9.52677
्रा	-9.52798
▁महत्व	-9.52819
▁दस्तावेज	-9.5282
▁गरीब	-9.52823
पेट	-9.52859
▁फैसले	-9.52884
▁कारोबार	-9.5293
▁धाम	-9.52931
▁विस्तार	-9.52996
▁बूथ	-9.52999
▁उतार	-9.53011
▁सर्वे	-9.53169
डा	-9.53194
▁आरती	-9.53268
▁निकले	-9.53285
▁ज्ञापन	-9.53513
▁जताई	-9.53521
▁रोज	-9.53539
▁राव	-9.53696
▁दुर्गा	-9.53728
▁F	-9.53853
ाल	-9.53901
▁संचालित	-9.54017
▁फायरिंग	-9.54087
▁रखते	-9.54204
▁अंत	-9.54233
र्ट	-9.54271
▁मॉडल	-9.54361
▁पल	-9.54384
▁पु	-9.54494
▁वीर	-9.54571
▁R	-9.54659
ये	-9.54855
▁राजीव	-9.54881
▁गौरव	-9.54928
▁करवाई	-9.54932
▁चौकी	-9.54998
▁क्र	-9.55046
▁एक्ट	-9.55055
▁पावर	-9.55259
▁सप्लाई	-9.55402
ंध	-9.55445
▁अल	-9.55546
▁भरा	-9.55676
▁गिरावट	-9.55753
ेंस	-9.55767
▁l	-9.55875
▁गुर	-9.55886
▁कमल	-9.55942
▁बादल	-9.56063
▁आस	-9.56096
▁दैनिक	-9.56102
▁प्रत्येक	-9.56102
▁सरपंच	-9.56102
ंडा	-9.56214
▁चौथ	-9.56216
ृत	-9.56385
▁कोलकाता	-9.56454
▁खिलाड़ियों	-9.56454
▁ट्रैक्टर	-9.56457
▁कथा	-9.5649
▁केन्द्र	-9.56542
▁पे	-9.56585
▁2021	-9.5663
▁पुराने	-9.5664
▁रेड	-9.56647
▁खड़ा	-9.56657
▁लापरवाही	-9.56666
▁पो	-9.5673
अ	-9.56736
▁टा	-9.5676
▁48	-9.56767
,000	-9.56804
▁500	-9.5682
▁ओम	-9.56865
▁फसल	-9.569
▁फेंक	-9.56985
वां	-9.57044
n	-9.57114
▁संसद	-9.57121
वाड़ा	-9.57212
सलमान	-9.5731
▁सक्रिय	-9.57339
▁उपाध्यक्ष	-9.57347
वल	-9.57348
▁खाते	-9.57361
▁क्लास	-9.57364
▁प्रदीप	-9.57382
▁34	-9.5755
▁90	-9.57668
▁36	-9.57689
▁जिन्होंने	-9.57701
▁शिकार	-9.57728
लो	-9.57786
▁प्रतिमा	-9.57802
▁रमेश	-9.57877
ढ	-9.5798
▁जोड़	-9.58045
▁दौड़	-9.58053
▁विशाल	-9.58055
▁पैदा	-9.58062
▁ठगी	-9.58104
▁बह	-9.58129
▁करियर	-9.58136
जे	-9.58162
▁छठ	-9.58168
▁डॉलर	-9.58276
▁विश्वास	-9.58348
▁वितरण	-9.58411
▁साबित	-9.58411
▁स्टैंड	-9.58418
▁एड	-9.58485
ड़े	-9.58544
▁भावना	-9.58645
▁पड़ता	-9.58711
▁अनुमान	-9.58812
▁उठाया	-9.58862
▁चयन	-9.58891
ॉल	-9.58963
▁प्लान	-9.5907
▁अकाउंट	-9.59132
▁नशे	-9.59138
▁चुनावों	-9.59143
▁करवाने	-9.59405
.6	-9.59459
▁बैठ	-9.59485
▁खाना	-9.59533
ैंड	-9.59539
▁वाद	-9.59541
▁बतात	-9.59695
▁मृत	-9.59743
▁L	-9.59823
▁तालाब	-9.59982
▁क्लब	-9.60093
▁G	-9.60132
▁2025	-9.60284
▁ि	-9.60321
▁चंडीगढ़	-9.60407
▁लक्ष्मी	-9.60408
भा	-9.6046
T	-9.60547
▁चि	-9.60583
▁चुनौती	-9.60591
▁हमारा	-9.60605
▁CM	-9.60715
▁विवाह	-9.60727
▁बुला	-9.60765
▁नाथ	-9.60815
चा	-9.60942
▁आती	-9.61059
/	-9.61322
▁टाइम	-9.61328
▁मुद्दे	-9.61328
▁जोधपुर	-9.61328
▁स्वामी	-9.61346
▁यूनिट	-9.61358
चर	-9.6136
▁जु	-9.61429
▁कैंप	-9.61438
▁इंटरव्यू	-9.61513
▁भुगतान	-9.61513
▁चाहता	-9.61592
▁शहीद	-9.61699
▁हालात	-9.617
▁सुपर	-9.61729
▁छापेमारी	-9.61885
▁संघर्ष	-9.61885
साउथ	-9.61886
▁हाईवे	-9.61907
▁विमान	-9.62156
▁वाराणसी	-9.62258
▁समीक्षा	-9.62258
▁प्रस्तुत	-9.62259
.30	-9.62294
▁राष्ट्र	-9.62352
पर	-9.62359
▁फैल	-9.62411
▁एफआईआर	-9.62444
▁मानव	-9.62505
.7	-9.62549
▁रद्द	-9.62656
शांत	-9.62683
▁औ	-9.62821
▁राजस्व	-9.62837
▁जला	-9.62928
▁अनुभव	-9.63007
▁तार	-9.63009
in	-9.63017
▁पत्रकार	-9.6308
▁हिंसा	-9.63161
▁दायर	-9.63223
▁वोटिंग	-9.63294
▁ऑ	-9.6331
▁मच	-9.63318
▁पुरानी	-9.63498
▁निशाना	-9.63576
▁गेंद	-9.63582
▁सुनिश्च	-9.63699
▁मांगी	-9.63726
▁ईरान	-9.6378
▁ऑस्ट्रेलिया	-9.63829
▁कप्तान	-9.63926
▁पारा	-9.63941
▁संदिग्ध	-9.63953
▁सम्मेलन	-9.63989
ra	-9.64084
▁इंटरनेशनल	-9.64143
▁स्थापना	-9.64143
▁फुटेज	-9.6415
▁खाने	-9.64227
▁बु	-9.64313
.4	-9.64329
▁एसडीएम	-9.64333
▁अच्छे	-9.64333
▁नवीन	-9.64362
िंदर	-9.6445
ेगा	-9.64496
▁सकेंगे	-9.64527
क्स	-9.64608
क्क	-9.64671
▁दुर्घटना	-9.64715
▁चा	-9.64759
▁दूरी	-9.64817
▁भीतर	-9.64907
▁फैंस	-9.6492
ानी	-9.65054
▁कानपुर	-9.65117
on	-9.65191
▁H	-9.65197
स्थल	-9.65254
▁विशेषज्ञ	-9.65298
गार	-9.65311
▁वृद्धि	-9.6533
▁सर्विस	-9.65507
पूर्ण	-9.65527
▁गु	-9.65603
▁सबक	-9.65624
▁विकसित	-9.65677
▁विज्ञान	-9.65681
▁दर्जन	-9.65768
L	-9.6589
▁समर्थक	-9.65907
▁रानी	-9.65912
▁स्टेट	-9.65936
ाइट	-9.65966
▁जिनक	-9.65974
▁नियुक्त	-9.65996
▁घायलों	-9.66011
▁डेढ़	-9.66081
▁चलाया	-9.6611
▁रांची	-9.66258
▁संदेश	-9.66264
▁अरब	-9.66433
▁सौर	-9.66462
▁रोल	-9.66498
B	-9.66619
▁िंग	-9.66623
▁यात्री	-9.66629
▁प्रेस	-9.66677
▁पवन	-9.66679
▁नी	-9.66701
▁हे	-9.66781
▁पशु	-9.66823
▁प्राण	-9.66893
▁K	-9.67029
▁कार्यकाल	-9.67063
▁लि	-9.67282
▁तेल	-9.6731
▁लेना	-9.67325
▁75	-9.67418
▁स्वीकार	-9.67431
▁पि	-9.67488
▁गठन	-9.67506
▁छत	-9.67536
▁तहसील	-9.6761
▁दम	-9.677
ुक	-9.67702
▁बम	-9.67725
▁एफ	-9.67862
▁अर	-9.67919
एंगे	-9.67941
▁जरूर	-9.68
▁खूब	-9.68023
▁गैंग	-9.6803
दान	-9.68072
विक	-9.68101
▁अध्यक्षता	-9.68138
▁डाला	-9.68253
▁खुशी	-9.68295
▁नियुक्ति	-9.68377
▁उद्घाटन	-9.68419
▁स्टेडियम	-9.68419
▁कोटा	-9.68472
ौर	-9.68529
▁सूरज	-9.68619
▁आखिर	-9.68674
▁कश्मीर	-9.68766
▁कैमरे	-9.68776
ौली	-9.688
▁अतिक्रमण	-9.68818
▁स्वच्छ	-9.68822
स्टर	-9.68848
▁संगीत	-9.68852
▁गौर	-9.68948
▁विवेक	-9.69017
▁महोत्सव	-9.69023
▁सुरेश	-9.69028
दोबारा	-9.69103
▁लड़ाई	-9.69104
▁भू	-9.69105
▁चौ	-9.69121
ूर	-9.69146
▁बॉल	-9.69229
▁मिशन	-9.69256
▁सख्त	-9.69277
▁बढ़ावा	-9.69349
पिता	-9.69366
▁2014	-9.69417
▁सोरेन	-9.69421
▁मीटिंग	-9.69432
▁हरि	-9.69459
▁नहर	-9.69566
▁आशंका	-9.69618
▁पुरस्कार	-9.69618
▁पंडित	-9.69618
▁चाहती	-9.69658
:30	-9.69659
▁एरिया	-9.69874
▁रहीं	-9.70047
▁अवध	-9.70115
▁संभव	-9.70165
▁मुक्त	-9.7017
िय	-9.70195
▁दिनेश	-9.70218
▁जिन्हें	-9.70223
▁News	-9.70224
▁कैद	-9.70231
▁दस	-9.70279
▁तस्कर	-9.70292
▁मल	-9.70364
णी	-9.70379
▁37	-9.704
▁दर्द	-9.70442
▁राजकुमार	-9.70452
ण्ड	-9.70473
िनोद	-9.70496
▁बोर	-9.70539
▁इंटर	-9.70566
तंत्र	-9.70586
▁ग्र	-9.70595
▁आतंक	-9.70622
ाराम	-9.70746
▁सार्वजनिक	-9.70831
पास	-9.70945
▁लाइट	-9.70998
▁इंस्पेक्टर	-9.71035
▁विष्णु	-9.71044
▁कं	-9.71091
-20	-9.71098
िज	-9.7116
ाव	-9.71182
▁दवा	-9.71184
▁अपर	-9.712
ची	-9.71209
▁बैग	-9.7137
▁एक्शन	-9.71459
▁संजीव	-9.71491
ियो	-9.71498
▁इंडिय	-9.71572
▁महीन	-9.71575
▁अखिलेश	-9.71864
▁0	-9.71892
ुआ	-9.719
कैबिनेट	-9.72266
▁पाली	-9.72459
▁बो	-9.72469
▁संस्कार	-9.72473
▁गौतम	-9.72473
▁जज	-9.72491
▁जानिए	-9.72505
▁सका	-9.7253
▁प्रमाण	-9.72677
▁समस्याओं	-9.727
▁लड़के	-9.7272
ीकरण	-9.72759
▁स्प	-9.7283
▁प्रोफेसर	-9.72887
▁वेतन	-9.72923
िर	-9.7296
▁गोल	-9.72965
▁पदों	-9.72978
▁चीज	-9.73099
▁दरवाज	-9.73114
▁नाराज	-9.73137
▁प्रवक्ता	-9.73303
▁सू	-9.73357
▁मिलती	-9.73413
▁फॉर्म	-9.73429
▁लुधियाना	-9.73512
▁गोविंद	-9.73512
▁सिन्हा	-9.73515
▁टोल	-9.73655
▁धरना	-9.7369
▁चढ़	-9.73746
▁ट्रैक	-9.73749
▁ज़	-9.73787
▁बच	-9.73811
▁दिवसीय	-9.73813
.8	-9.73924
▁साहिब	-9.73946
▁रेट	-9.73987
▁तु	-9.74004
▁पहुंचाया	-9.74085
▁बल्लेबाज	-9.74141
▁पंकज	-9.74141
▁2020	-9.74208
▁गैस	-9.74228
यां	-9.74303
▁कर्नाटक	-9.74352
▁भव्य	-9.74376
▁वास	-9.74472
नि	-9.74548
▁पर्यावरण	-9.74563
▁आबादी	-9.74563
▁टीचर	-9.74597
▁महेंद्र	-9.74631
▁सां	-9.74658
▁ते	-9.747
▁आवश्यकता	-9.74716
▁बेस	-9.74719
▁दाम	-9.74765
▁चेतावनी	-9.74774
▁सांस्कृतिक	-9.74774
▁आपका	-9.74819
▁छोटी	-9.74853
▁गतिविधिय	-9.74916
▁भाषा	-9.74923
▁हल्की	-9.74986
▁बातें	-9.75135
सभा	-9.75164
▁जगहों	-9.75194
▁पेंशन	-9.75198
▁चांदी	-9.75223
▁ट्रंप	-9.75411
▁कमजोर	-9.75411
r	-9.75426
▁नाग	-9.75439
▁अंडर	-9.75455
गर	-9.75521
▁लॉ	-9.75604
▁एंट्री	-9.75624
▁आदिवासी	-9.75633
▁बिगड़	-9.75659
▁J	-9.75819
▁खर	-9.75851
▁पाठ	-9.75931
▁पश्चिमी	-9.76027
ियर	-9.76058
▁रू	-9.7609
एक	-9.76095
▁उपचुनाव	-9.76266
▁ऊर्जा	-9.76266
▁आकाश	-9.76267
▁ट्रांसफर	-9.76268
▁चाकू	-9.76271
▁निगरानी	-9.76482
चार	-9.76525
▁पंच	-9.76575
▁परि	-9.7661
▁स्क	-9.76662
▁इन्हे	-9.76706
म्प	-9.76824
▁संभाल	-9.76862
▁योगदान	-9.76928
▁गीत	-9.76928
सूस	-9.76971
▁मंगल	-9.77028
▁ठ	-9.7705
▁55	-9.77093
▁झूठ	-9.7713
▁300	-9.77152
▁जि	-9.772
-1	-9.77308
▁छूट	-9.77444
▁गर्म	-9.77499
▁फा	-9.77517
▁शक	-9.77644
▁क्ल	-9.77667
▁समान	-9.77673
▁रास्ता	-9.77679
▁कपड़े	-9.77712
▁बधाई	-9.77782
▁निकाली	-9.77819
▁400	-9.77862
▁ससुराल	-9.78006
▁स्तरीय	-9.7808
गो	-9.78206
▁सुभाष	-9.78219
▁एनडीए	-9.78226
▁कंट्रोल	-9.78438
▁संकल्प	-9.78443
▁आचार्य	-9.78467
▁टकरा	-9.78478
▁सैनिक	-9.78563
▁बोला	-9.78582
सचिव	-9.78607
▁सुंदर	-9.78665
▁PM	-9.78747
▁गायब	-9.78756
गु	-9.78981
▁खाद्य	-9.78999
▁इंडस्ट्री	-9.79041
▁कॉ	-9.79059
▁गिरा	-9.79075
▁बाबू	-9.79097
▁बचाव	-9.79098
▁स्टे	-9.79114
▁सौ	-9.79173
▁गैर	-9.79178
▁अभि	-9.79187
▁संस्कृति	-9.79261
▁लू	-9.79315
▁क्राइम	-9.7932
▁मस्जिद	-9.7932
ल्ला	-9.79335
▁शेख	-9.79443
ावली	-9.79514
▁उत्सव	-9.79542
▁बिक्री	-9.79547
▁चारों	-9.79589
ग्र	-9.79593
▁नजदीक	-9.79764
▁मेहनत	-9.79764
▁धार	-9.79868
▁कर्मी	-9.79921
▁हंगामा	-9.79987
▁मानसिक	-9.80025
▁फैक्ट्री	-9.8021
▁सोना	-9.80302
▁!	-9.80358
▁लाखों	-9.80466
▁साथी	-9.80528
▁सुसाइड	-9.80658
▁परिवहन	-9.80658
▁काल	-9.80785
▁पांडे	-9.80828
▁पलट	-9.80854
▁देती	-9.80872
▁कौशल	-9.80883
▁साढ़े	-9.80883
▁पेट	-9.80939
ूल	-9.81019
ठा	-9.81053
▁चुन	-9.81215
▁निकला	-9.81233
▁रु	-9.81279
रस	-9.81299
▁ईडी	-9.81401
▁हित	-9.81531
▁हिस्से	-9.8156
▁उज्जैन	-9.8156
▁खून	-9.81571
त्	-9.81647
▁संभाग	-9.81787
िनी	-9.81812
स्थ	-9.81847
▁छीन	-9.81915
▁लगाते	-9.81959
्रो	-9.81996
▁खुले	-9.82081
▁सुनाई	-9.82113
ालय	-9.82199
▁जुट	-9.82345
f	-9.82401
▁जिम्मेदार	-9.82415
▁सोन	-9.82421
▁श्रीवास्तव	-9.8247
▁टाटा	-9.82486
्ता	-9.82665
▁दु	-9.82695
फी	-9.82774
तु	-9.8292
▁व्यापारी	-9.83004
▁आएंगे	-9.83061
▁आना	-9.83077
F	-9.83147
▁अर्जुन	-9.83158
▁वर्षा	-9.8316
▁एमपी	-9.83174
▁ठग	-9.83223
▁अजमेर	-9.83389
▁शि	-9.83457
b	-9.83497
ेलू	-9.8359
▁मान्यता	-9.8362
▁सुर	-9.83676
▁श्रीराम	-9.83701
▁अगल	-9.83719
▁हिंदी	-9.83829
U	-9.83848
▁कब्जा	-9.83851
▁बिजनेस	-9.83852
▁चेयरमैन	-9.83852
नर	-9.83881
ha	-9.83972
▁अधिनियम	-9.84083
▁भ्रष्टाचार	-9.84083
▁डीएसपी	-9.84086
c	-9.84246
▁लें	-9.84312
वेबसाइट	-9.84316
.3	-9.84321
▁हि	-9.84375
▁अक्स	-9.84449
▁किरदार	-9.84505
▁कमाई	-9.84544
▁प्रियंका	-9.84549
▁38	-9.84597
▁प्रिंसिपल	-9.84782
▁सीधे	-9.84783
▁काबू	-9.85023
▁लागत	-9.85037
न्द	-9.85086
▁कहत	-9.85088
▁डो	-9.85117
▁मेन	-9.85182
▁पकड़े	-9.85191
▁मजबूर	-9.85251
▁पुरुष	-9.85327
▁कानूनी	-9.85345
▁कोहली	-9.85497
▁मुकाबला	-9.85536
▁हवाई	-9.85601
▁ट्र	-9.85706
▁फीस	-9.85716
▁डिजाइन	-9.85723
▁संरक्षण	-9.85739
▁मैन	-9.8575
▁आगरा	-9.85778
▁46	-9.85808
▁दिखाया	-9.85818
▁साय	-9.85861
▁वोटर	-9.85868
▁गण	-9.85898
▁रोग	-9.85918
▁दूध	-9.85959
▁फै	-9.86044
ुर	-9.86058
वान	-9.86121
▁करण	-9.86193
▁हिसाब	-9.86196
▁राज्यपाल	-9.86391
▁ठेकेदार	-9.86438
▁पीठ	-9.86508
▁विज	-9.86515
▁पासवान	-9.86522
▁मतदाता	-9.8658
▁आंख	-9.86635
▁पांडेय	-9.867
र्ग	-9.86821
▁आश्वासन	-9.8691
▁अपडेट	-9.8691
▁कैलाश	-9.8691
▁जैसा	-9.86923
▁शूटिंग	-9.86935
▁टे	-9.86953
▁उद्योग	-9.87025
एन	-9.87072
▁वापसी	-9.8709
▁श्रेणी	-9.87149
▁उचित	-9.87149
▁आशी	-9.87158
▁ियों	-9.87336
▁नशा	-9.87363
▁औसत	-9.8739
▁नंद	-9.87428
▁s	-9.87442
▁जुटी	-9.8749
▁गति	-9.875
▁पहल	-9.87554
▁रूट	-9.8761
▁प्लांट	-9.87629
यन	-9.8768
▁फ्लाइट	-9.87694
▁मूर्ति	-9.87746
▁स्कोर	-9.87775
▁भोजन	-9.87952
▁खेला	-9.87955
▁हल	-9.87959
.9	-9.88083
▁मुद्दों	-9.88112
▁ममता	-9.88113
▁संयोजक	-9.88143
▁दोषी	-9.88307
▁निरीक्षक	-9.88311
▁यातायात	-9.88354
en	-9.88398
▁प्रतिनिधि	-9.88405
▁सै	-9.88436
▁एच	-9.88449
▁महेश	-9.88486
▁लाश	-9.88596
▁तुलना	-9.88597
▁मतगणना	-9.88599
▁लीक	-9.88603
▁रिश्तेदार	-9.8861
▁चीफ	-9.88613
▁पिछल	-9.88616
▁बुरी	-9.88679
▁अहमद	-9.88702
▁मोह	-9.88709
ैया	-9.8881
कृष्ण	-9.88884
▁टू	-9.889
v	-9.88905
▁व्याप	-9.88975
ृ	-9.89001
त्री	-9.89019
▁चिकित्सक	-9.89084
▁जनरल	-9.89086
▁42	-9.89163
▁निभा	-9.89287
▁दीवार	-9.89301
▁सीबीआई	-9.89331
▁राउंड	-9.89336
▁हाथों	-9.89446
▁बहु	-9.89516
डे	-9.89603
म्ब	-9.89643
▁डिजिटल	-9.89819
▁प्रयोग	-9.89819
हिर	-9.89886
रन	-9.89898
▁ऐ	-9.8994
▁दुबे	-9.90066
▁उत्साह	-9.90231
घर	-9.9031
▁आत्महत्या	-9.90312
▁मुद्दा	-9.90313
वत	-9.90407
▁अमन	-9.90456
▁मेला	-9.90488
▁इनकार	-9.90543
▁जिलाध्यक्ष	-9.9056
▁मेडल	-9.90561
▁जाएं	-9.90571
▁जस्टिस	-9.90574
▁लंबी	-9.90687
रू	-9.90696
▁राधा	-9.90706
▁लिमिटेड	-9.90808
▁हरा	-9.90826
▁गोल्ड	-9.90869
▁ट्रेनिंग	-9.909
▁मोर्चा	-9.90909
▁एं	-9.9092
▁निकली	-9.91005
ri	-9.9103
▁ज्योति	-9.91034
▁सामग्री	-9.91057
▁हेमंत	-9.91065
पूर्व	-9.91126
▁चाह	-9.91149
▁पहन	-9.91202
▁परम	-9.91257
j	-9.91293
▁प्राचार्य	-9.91326
▁शुक्ला	-9.91344
▁जू	-9.9136
वेल	-9.91392
आ	-9.91465
▁इस्तीफा	-9.91471
▁बांट	-9.91486
▁निकलने	-9.91538
▁हजारों	-9.9155
▁शख्स	-9.91556
▁ट्रस्ट	-9.91569
▁विद्या	-9.91592
▁दशक	-9.91616
▁E	-9.9164
चिंग	-9.91646
▁एप	-9.9165
▁चाहे	-9.9181
▁गोरखपुर	-9.91816
▁फैला	-9.91848
गल	-9.91877
करण	-9.91944
ीज	-9.91945
ानदार	-9.92017
▁जबलपुर	-9.9209
▁आव	-9.921
खंड	-9.92205
▁पत्थर	-9.92308
▁त्योहार	-9.9231
▁ऐलान	-9.9231
▁कथित	-9.9231
▁जनपद	-9.9231
▁नियमित	-9.92313
था	-9.92317
▁साझा	-9.92321
▁कराए	-9.9234
▁जीता	-9.92398
▁मिस	-9.92581
▁मेले	-9.92612
रत	-9.92638
▁हड़ताल	-9.92816
▁नो	-9.92838
▁मास	-9.93065
▁कैंसर	-9.9307
▁खारिज	-9.9307
▁गोयल	-9.93076
▁नियंत्रण	-9.93086
▁कुलदीप	-9.93121
▁प्रशासनिक	-9.93234
▁शांत	-9.93264
▁शा	-9.93312
▁छोटा	-9.93324
▁एक्टिव	-9.93329
▁बढ़कर	-9.93486
▁विभागों	-9.93529
▁लिख	-9.93543
▁छा	-9.93573
▁महतो	-9.93579
▁प्रकरण	-9.93613
टन	-9.93671
▁न्यायाधीश	-9.93835
▁सुना	-9.93836
▁पक्षों	-9.93934
धार	-9.93945
▁तेजस्वी	-9.94091
▁पड़ेगा	-9.94142
▁44	-9.94201
▁रुख	-9.94277
लर	-9.94333
▁2018	-9.94348
▁लापता	-9.94349
▁शिफ्ट	-9.94359
▁समझा	-9.94393
▁लीग	-9.94396
▁गुना	-9.94511
▁टेक	-9.94647
▁ताज	-9.94689
गत	-9.94844
▁शब्द	-9.94864
▁अर्पित	-9.9491
▁केरल	-9.94913
▁विहार	-9.94923
▁तर	-9.95018
▁इंद्र	-9.95034
▁छात्राओं	-9.95098
दु	-9.95112
▁ओडिशा	-9.95124
▁पाने	-9.95166
▁लव	-9.95215
▁साथियों	-9.95274
▁असम	-9.95276
.1	-9.95347
▁दिक्कत	-9.95383
▁धूप	-9.95397
▁फाइल	-9.95399
▁पोर्टल	-9.95436
re	-9.95455
▁सलाह	-9.95626
▁बिल्डिंग	-9.95644
▁विक्रम	-9.95644
▁तमा	-9.95649
▁पब्लिक	-9.95664
▁मतलब	-9.95677
▁आत्म	-9.95757
ैर	-9.95772
▁मी	-9.95798
▁रेंज	-9.95975
नो	-9.95979
्‍य	-9.95996
▁ती	-9.96
▁मतदाताओं	-9.96007
▁पार्किंग	-9.96029
▁199	-9.96111
▁टूर्नामेंट	-9.96167
▁विद्युत	-9.96167
▁संहिता	-9.96167
▁नीरज	-9.96167
▁खेती	-9.96202
▁भल	-9.96237
▁रिया	-9.96274
म्	-9.96345
कांत	-9.9636
▁पूर्वी	-9.96369
▁ड्रोन	-9.96429
▁पुष्टि	-9.96429
▁भरोसा	-9.96429
▁कनाडा	-9.9643
▁समापन	-9.96431
▁यूक्रेन	-9.96432
▁संकट	-9.96464
▁जाया	-9.96466
▁क्रम	-9.96489
▁हफ्ते	-9.96514
▁फंस	-9.96625
▁अंकित	-9.96662
▁लाइसेंस	-9.96692
▁साजिश	-9.96692
▁जोशी	-9.96702
▁दुकानों	-9.96734
-2	-9.9683
मैं	-9.96832
▁होली	-9.9688
▁बीमारी	-9.96903
ॐ	-9.96956
▁टिप्पणी	-9.96956
▁पदाधिकारियों	-9.96956
▁आलम	-9.96971
▁तहसीलदार	-9.9698
▁बीबी	-9.97056
ावत	-9.97125
▁इंजीनियर	-9.97153
▁बताए	-9.97169
▁निर्	-9.97206
▁एग्जाम	-9.97221
▁मारा	-9.97291
प्त	-9.97325
▁जयंती	-9.97412
▁O	-9.97434
▁अस	-9.97456
▁विराट	-9.97486
▁नृत्य	-9.97486
▁रखना	-9.97487
▁मैनेजर	-9.97536
▁मूल्य	-9.97547
▁मारे	-9.97619
▁भारती	-9.97674
▁सकें	-9.97742
जल	-9.97771
▁रखें	-9.97869
िक्स	-9.97926
▁बॉक्स	-9.9795
्ज	-9.9797
▁प्रस्तुति	-9.97981
▁गुर्जर	-9.98018
▁चौराहे	-9.98018
▁प्रावधान	-9.98286
▁बढ़ोतरी	-9.98286
▁मैसेज	-9.98286
एफ	-9.98367
ँ	-9.98375
▁सकी	-9.9844
▁दुर्ग	-9.98491
▁दौरा	-9.98546
it	-9.986
▁सौंपा	-9.98602
▁जागरूकता	-9.98654
▁स्मार्ट	-9.98821
▁निशान	-9.98838
मल	-9.98907
धर	-9.9891
▁अपराधी	-9.98921
▁उसको	-9.98987
or	-9.99036
▁बिलासपुर	-9.99092
▁हिसार	-9.99092
▁थानाध्यक्ष	-9.99093
▁पड़ोसी	-9.99098
▁वैज्ञानिक	-9.99162
कर्मियों	-9.99243
▁प्रतिष्ठा	-9.99291
th	-9.99352
▁रिजर्व	-9.99363
▁तनाव	-9.99367
▁मूवी	-9.99377
▁लेंगे	-9.99466
▁खंड	-9.99499
▁कार्यवाही	-9.99543
▁कंगना	-9.99634
▁बच्चा	-9.99639
▁बाघ	-9.99667
ांक	-9.99701
▁घंट	-9.99784
▁शुल्क	-9.99803
▁हिस्सों	-9.99905
▁अक्षय	-9.99905
▁39	-9.99908
हन	-9.99909
▁65	-9.99953
▁लिखित	-9.9999
▁लोन	-10.0017
▁सच	-10.0041
▁फ्री	-10.0044
▁रिजल्ट	-10.0045
ियत	-10.006
चंद	-10.0068
▁आपूर्ति	-10.0072
▁उपभोक्ता	-10.0072
अभ्यर्थियों	-10.0073
N	-10.0086
▁जुड़	-10.0098
▁जिंदगी	-10.01
▁नमः	-10.01
शियल	-10.0116
▁कै	-10.0117
जू	-10.0119
▁निधन	-10.0129
▁पीट	-10.0129
▁सचिन	-10.013
▁बाई	-10.0136
▁ताला	-10.0144
▁शुभारंभ	-10.0155
▁भरी	-10.0163
▁लीटर	-10.0164
▁जुड़ा	-10.0166
▁डीसी	-10.0169
▁सीख	-10.017
▁दलित	-10.0172
▁बीमार	-10.0174
▁हैदराबाद	-10.0183
▁विजेता	-10.0183
▁जताया	-10.0184
▁डांस	-10.0187
▁150	-10.0188
बू	-10.0194
िड	-10.0194
.2	-10.0209
▁कॉन्फ्रेंस	-10.0211
▁सेंट्रल	-10.0211
▁ग्रहण	-10.0212
▁पंप	-10.0216
▁सफर	-10.0217
▁परिवर्तन	-10.0218
▁चढ़ा	-10.0223
▁सदन	-10.0224
ियम	-10.0227
ॉक	-10.0236
▁दुख	-10.0245
ही	-10.0246
▁कारोबारी	-10.0248
▁वैसे	-10.0255
▁सन	-10.0256
▁गले	-10.0265
▁परंपरा	-10.0266
▁प्रश्न	-10.0266
▁आशीर्वाद	-10.0266
▁फांसी	-10.0266
▁मोड़	-10.027
▁जुर्माना	-10.0278
▁मारी	-10.0289
▁लाइफ	-10.0295
."	-10.0303
▁चलता	-10.0306
हम	-10.0309
▁47	-10.0315
वाई	-10.0317
▁उल्लेख	-10.0323
▁स्वतंत्रता	-10.0327
▁गाड़िय	-10.0333
र्न	-10.0342
▁संगठनों	-10.0343
▁मू	-10.0343
▁ग्राहक	-10.0351
▁पर्यटन	-10.0351
▁शाखा	-10.0352
▁घो	-10.0352
▁इलेक्ट्रिक	-10.0379
▁साहब	-10.0383
▁बनाना	-10.0385
▁गार्ड	-10.0389
▁गुल	-10.0392
▁राख	-10.0392
▁गीता	-10.0395
▁मचा	-10.0407
▁जितेंद्र	-10.0409
▁नही	-10.0414
▁सीकर	-10.0415
▁क्षेत्रीय	-10.0416
▁सांप	-10.0417
द्द	-10.042
र्ज	-10.0425
पु	-10.0432
ुम	-10.0432
▁वर्क	-10.0434
▁जानें	-10.0435
▁सेल	-10.0442
र्म	-10.0465
▁कितना	-10.0472
काल	-10.0472
▁राजू	-10.0477
▁जागरूक	-10.0482
▁भट्ट	-10.0487
ड़िया	-10.0487
▁इंजन	-10.0496
▁आधारित	-10.0496
बन	-10.0497
▁गेम	-10.0501
▁U	-10.0505
▁प्रभु	-10.0521
▁प्रेरित	-10.0521
िलीप	-10.0527
▁खतरा	-10.0533
वानी	-10.0537
▁उधर	-10.0545
▁पालिका	-10.0558
▁वाय	-10.0558
ेगी	-10.0559
चन	-10.0566
ाब	-10.0568
▁तस्करी	-10.0569
▁देखें	-10.0571
▁बच्चन	-10.0579
▁गंज	-10.0584
▁बालिका	-10.0586
▁सोनू	-10.0587
▁ऐप	-10.059
▁भोग	-10.0593
▁W	-10.0595
गांव	-10.0596
▁भंडार	-10.0604
▁टीमें	-10.0613
▁197	-10.0618
निश्चित	-10.0618
▁बदला	-10.0621
),	-10.0623
▁उत्पादन	-10.0629
प्रकाश	-10.0631
▁आशा	-10.0631
▁वादा	-10.0634
पति	-10.0635
▁कैंडिडेट	-10.0637
▁राजपूत	-10.0637
▁इसराइल	-10.065
▁गुट	-10.0652
▁अपहरण	-10.0666
▁टाइगर	-10.0666
▁मुंह	-10.0666
ाऊ	-10.067
▁चेहरे	-10.0674
▁मीना	-10.0687
▁नेपाल	-10.0692
▁चैंपियन	-10.0695
▁पाइप	-10.0695
▁पौधे	-10.0695
▁महज	-10.0704
▁ें	-10.0708
टो	-10.071
▁वर	-10.0712
▁पूछ	-10.0718
▁जायसवाल	-10.0724
▁सैकड़ों	-10.0724
▁49	-10.0733
am	-10.0749
▁मंजूरी	-10.0751
▁चौराहा	-10.0754
▁शासकीय	-10.0754
▁हंस	-10.0762
▁धूम	-10.0763
▁बेस्ट	-10.0764
कुल	-10.0768
▁बहा	-10.0774
▁आपत्ति	-10.0783
▁पैदल	-10.0783
▁सहमति	-10.0785
▁हों	-10.0799
▁जितन	-10.0801
▁बजाय	-10.0801
▁डेट	-10.0807
▁तहरीर	-10.0813
▁प्लेटफॉर्म	-10.0813
ोज	-10.0816
▁खु	-10.0817
▁पै	-10.082
▁हट	-10.082
▁गाली	-10.0824
▁स्वयं	-10.0842
▁संपन्न	-10.0842
▁किराए	-10.0842
▁मिमी	-10.0844
▁बै	-10.0845
l	-10.085
▁रहना	-10.0857
▁गली	-10.0858
▁केंद्रों	-10.0863
▁रच	-10.0867
▁पाठक	-10.0868
▁नवरात्र	-10.0872
▁प्रयागराज	-10.0872
▁ताकत	-10.0872
▁फार्म	-10.0873
▁खरीदी	-10.0885
▁पदक	-10.0885
▁देवेंद्र	-10.0887
▁मिश्र	-10.0889
▁खेले	-10.0891
▁रोका	-10.0895
रेन्द्र	-10.0899
▁दुष्कर्म	-10.0902
▁जिक्र	-10.0902
पो	-10.0902
▁तुम	-10.0902
▁फोर्स	-10.0904
▁बदले	-10.0904
ेक्ट	-10.0907
▁जस	-10.0908
▁निवास	-10.0923
▁जगदीश	-10.0931
▁सतीश	-10.0932
▁विरोधी	-10.0932
▁मिट्टी	-10.0933
▁41	-10.0933
▁महादेव	-10.0938
ज़ा	-10.0939
▁उत्पाद	-10.095
▁सदस्यता	-10.0957
▁स्‍	-10.0961
▁रजिस्ट्रेशन	-10.0961
▁अंदाज	-10.0962
▁पवार	-10.0977
अप	-10.0982
▁सिम	-10.0984
▁सिख	-10.0984
ायब	-10.0986
▁मेरठ	-10.0991
▁ग्रीन	-10.0994
▁पार्ट	-10.0996
▁खेड़ा	-10.1004
▁शास्त्री	-10.1005
▁भूप	-10.1007
▁गि	-10.1013
▁कनेक्शन	-10.1022
जालंधर	-10.1022
▁रात्रि	-10.1022
▁देखी	-10.1026
▁आइए	-10.1026
50	-10.1041
▁जिनके	-10.1043
at	-10.1044
▁गिरोह	-10.1052
▁पट	-10.1052
▁नरेश	-10.1056
▁लालू	-10.1065
▁FIR	-10.1082
▁अंसारी	-10.1082
▁भड़क	-10.1082
▁हेल्थ	-10.1082
▁अव	-10.1083
▁नाराजगी	-10.1084
▁खरीदने	-10.1086
▁51	-10.1089
▁जम	-10.1091
▁संबंधी	-10.1095
▁ग्राउंड	-10.1097
▁बहस	-10.11
▁गौ	-10.1101
▁गज	-10.1107
{	-10.1112
▁पड़ताल	-10.1122
▁पहाड़	-10.113
कल	-10.1133
▁महाविद्यालय	-10.1143
▁कार्तिक	-10.1143
▁फाउंड	-10.1143
▁लाठी	-10.1143
▁टन	-10.1154
▁बुरा	-10.1171
▁बस्ती	-10.1174
▁स्टूडेंट	-10.1196
▁कैमरा	-10.1199
▁मुहूर्त	-10.1204
▁राजकीय	-10.1204
▁विकल्प	-10.1205
▁निर्मल	-10.1206
िग	-10.1207
▁पथ	-10.1208
▁उठाए	-10.1208
▁बैठा	-10.1227
▁जल्दी	-10.1229
्च	-10.123
▁आदित्य	-10.1234
▁दर्शक	-10.1235
▁प्रगति	-10.1235
▁बहादुर	-10.1235
▁श्रीलंका	-10.1235
▁मेट्रो	-10.1235
▁किरण	-10.1239
न्न	-10.1247
▁भरने	-10.1259
▁शैल	-10.1262
▁इंग्ल	-10.1265
▁अधिवक्ता	-10.1266
▁आदर्श	-10.1266
▁लेन	-10.1272
▁द्वितीय	-10.1278
▁साइकिल	-10.1297
▁ऋषि	-10.1297
▁प्रतीक	-10.1297
▁रंजन	-10.1297
▁रोजाना	-10.1299
▁मास्टर	-10.13
-3	-10.1303
▁राजद	-10.1311
िप	-10.1316
ग्राम	-10.1323
▁भक्ति	-10.1323
▁आपराधिक	-10.1328
▁त्रिपाठी	-10.1328
▁पर्यटक	-10.1328
▁हिमाचल	-10.1328
कू	-10.1328
▁बढ़ी	-10.1339
▁टीवी	-10.134
▁खिला	-10.1344
▁43	-10.1347
▁बरसात	-10.1349
▁2017	-10.1361
▁भागने	-10.1366
▁माने	-10.1367
दो	-10.1371
▁मात्रा	-10.1373
▁प्रतिभा	-10.1373
▁एएसआई	-10.139
▁रोहतक	-10.139
▁बिल्क	-10.1396
▁कोर्स	-10.1399
ाजी	-10.1418
▁प्रतिक्रिया	-10.1422
▁यूनियन	-10.1422
▁इमरजेंसी	-10.1427
▁भरे	-10.1443
▁वसूली	-10.1444
▁देरी	-10.1447
▁अमृत	-10.145
▁रिमांड	-10.1453
▁नेहरू	-10.1453
▁टेंडर	-10.1453
▁धीरे	-10.1458
▁महंत	-10.1459
फर	-10.1461
▁खोज	-10.1466
▁स्ट	-10.1481
▁आश्रम	-10.1485
▁जबरदस्त	-10.1485
▁प्राधिकरण	-10.1485
▁राणा	-10.1487
▁थोड़ी	-10.1498
.0	-10.1502
ेस्ट	-10.1506
▁मॉ	-10.1506
▁होंगी	-10.1509
▁बेल	-10.151
▁फंड	-10.1513
▁व्यवसाय	-10.1516
▁बेंगलुरु	-10.1517
▁सकेगा	-10.1523
▁ऑफर	-10.1524
▁कैस	-10.1531
▁मोहल्ल	-10.1539
क्र	-10.154
पे	-10.1543
▁बॉर्डर	-10.1548
▁संकेत	-10.1548
▁भाषण	-10.155
▁बचने	-10.155
▁बनवा	-10.1559
▁चित्र	-10.1562
▁रावत	-10.1567
▁प्रोत्साह	-10.158
▁मृत्यु	-10.158
सु	-10.158
▁पुरी	-10.1588
▁शीर्ष	-10.159
▁हक	-10.1591
▁घेर	-10.1597
▁मांगा	-10.1597
▁हुईं	-10.1602
दास	-10.1609
▁नोएडा	-10.1612
▁मांगे	-10.1614
▁मुसलमान	-10.1615
K	-10.1615
▁यश	-10.1617
▁घूम	-10.1619
▁संसदीय	-10.1619
▁उपाय	-10.1619
▁मप्र	-10.1623
▁डेटा	-10.1624
▁पुष्प	-10.1626
▁अंज	-10.1632
लिया	-10.1632
▁बैटरी	-10.1635
ः	-10.1642
▁मधु	-10.1644
▁आदित्यनाथ	-10.1645
▁हमलावर	-10.1652
▁रखकर	-10.1662
▁i	-10.1664
ैल	-10.1666
▁माला	-10.1669
▁दुकानदार	-10.167
▁धा	-10.1679
▁निवेशक	-10.1685
▁56	-10.169
▁वैश्	-10.1701
▁ठो	-10.1705
▁इजराइल	-10.1708
▁बिश्नोई	-10.1708
▁विरुद्ध	-10.1708
▁अनेक	-10.171
वन	-10.1719
▁बालक	-10.1729
▁आजाद	-10.1732
▁रणनीति	-10.1734
un	-10.1735
▁रिसर्च	-10.1741
▁महामंत्री	-10.1741
नीय	-10.1747
▁खाद	-10.1757
▁मुझ	-10.1762
न्त	-10.1765
वेज	-10.1771
▁अल्पसंख्यक	-10.1773
▁इवेंट	-10.1773
▁खनन	-10.1773
▁एंटी	-10.1778
ंडी	-10.1783
▁उड़	-10.1804
▁संसाधन	-10.1806
▁रिश्वत	-10.1806
▁बिक	-10.1807
▁01	-10.1809
▁जूनियर	-10.181
▁तल	-10.182
▁ऑल	-10.1823
▁अति	-10.1829
टू	-10.1829
▁रहें	-10.1834
▁उल्लंघन	-10.1838
▁समीप	-10.1838
▁हॉल	-10.1841
▁संग	-10.1843
यो	-10.1844
ट्	-10.1845
▁),	-10.1845
▁एशिया	-10.1846
▁प्री	-10.1867
▁इंदिरा	-10.1871
▁डिमांड	-10.1871
▁स्नान	-10.1871
▁आइ	-10.1875
▁चुना	-10.1881
▁ब्रेक	-10.1881
▁अश्विन	-10.1882
स्ट्र	-10.1882
्ण	-10.1885
▁गठित	-10.1885
▁जख्मी	-10.1886
▁रोशन	-10.19
▁तमिलनाडु	-10.1904
▁अरेस्ट	-10.1905
▁अमृतसर	-10.1905
▁दिव्यांग	-10.1905
▁कैश	-10.191
▁सुरेंद्र	-10.1919
▁आएगी	-10.1922
▁एक्सपर्ट	-10.1928
स्म	-10.193
निर्दलीय	-10.1937
▁तुलसी	-10.1937
▁पूर्णिमा	-10.1937
▁एकादशी	-10.1937
सू	-10.1952
▁बुक	-10.1962
▁एसी	-10.1967
▁जीते	-10.1967
▁इस्लाम	-10.1969
▁अभियंता	-10.197
▁पटवारी	-10.197
▁पायलट	-10.1974
▁डीए	-10.198
▁तलाशी	-10.1982
▁कुत्त	-10.1988
▁आयु	-10.1996
▁बीकानेर	-10.2003
▁जिंदा	-10.2005
▁कू	-10.2008
▁नर्सिंग	-10.2008
▁पोस्टर	-10.2018
▁1,	-10.2027
▁लैंड	-10.2029
ायिक	-10.203
तलब	-10.2034
▁धोखाधड़ी	-10.2037
▁मिसाइल	-10.2037
▁मुखिया	-10.204
▁प्रेमी	-10.204
▁चक्कर	-10.2044
ल्लू	-10.2047
बंदी	-10.2049
डिंग	-10.2051
रेख	-10.2053
▁टि	-10.2058
▁कृष्णा	-10.206
▁सील	-10.2075
मेट	-10.2076
▁प्रारंभ	-10.2076
▁तस्वीरें	-10.208
▁रिश्ते	-10.2086
▁मोटर	-10.2088
▁प्राथमिकता	-10.2092
▁कुर	-10.2097
▁बीज	-10.2103
▁सुझाव	-10.2104
▁सबूत	-10.2104
▁प्रार्थना	-10.2107
▁डीजल	-10.2111
▁हस्त	-10.2113
▁प्रा	-10.2115
▁अकेले	-10.2117
▁क़	-10.212
▁इंच	-10.2123
दम	-10.2131
▁फ्लैट	-10.2137
▁पिटाई	-10.2138
▁चाचा	-10.2139
▁बाला	-10.2146
▁प्रबंधक	-10.2153
▁न्यायिक	-10.2156
हिक	-10.2164
▁टो	-10.2165
ट्रिक	-10.2169
▁फुल	-10.2171
▁बाड़मेर	-10.2171
▁शारीर	-10.2171
वाद	-10.2174
▁राह	-10.2182
▁05	-10.2191
ायद	-10.2197
▁पर्याप्	-10.2198
▁तोड़कर	-10.2201
▁ऐतिहास	-10.2205
▁रकम	-10.2205
▁खन्ना	-10.2206
▁रेखा	-10.2208
एच	-10.2209
▁उपस्थिति	-10.221
कश्मीर	-10.2214
▁in	-10.2215
ad	-10.2217
▁लेवल	-10.2218
▁पुलिसकर्मी	-10.2222
▁घोटाल	-10.2224
▁चेन	-10.2231
▁सेट	-10.2234
ol	-10.2235
ॉन	-10.2237
na	-10.224
▁कन्या	-10.2242
▁बाज	-10.2243
▁कार्यरत	-10.2244
▁नाले	-10.2254
्टर	-10.2258
▁आधा	-10.2261
▁देगा	-10.2265
▁अदा	-10.2268
▁प्रदूषण	-10.2273
▁फूड	-10.2273
▁सपोर्ट	-10.2274
▁विधान	-10.2297
▁गहरा	-10.2304
▁सनातन	-10.2307
▁छुट्टी	-10.2309
▁भूल	-10.2312
▁चुरा	-10.2313
▁गर	-10.2321
▁डाय	-10.2322
▁चू	-10.2327
हट	-10.2334
▁गुणवत्ता	-10.2342
▁छोड़ने	-10.2342
प्पू	-10.2346
▁प्रसिद्ध	-10.2348
▁मुक्ति	-10.2369
डो	-10.2374
▁आभार	-10.2376
▁लड़ा	-10.2385
▁अफ्रीका	-10.2385
▁धीर	-10.2388
▁सहयोगी	-10.2392
▁विद्यार्थी	-10.24
▁मेयर	-10.2419
▁आपस	-10.2431
आधिकारिक	-10.2446
▁स्मृति	-10.2446
▁पीछा	-10.2447
▁वेस्ट	-10.2455
▁पुन	-10.2458
▁चु	-10.246
▁हर्ष	-10.2461
▁कांड	-10.2463
▁देगी	-10.247
भाल	-10.2475
़ी	-10.2475
▁रेस	-10.2477
▁अभ्यर्थी	-10.248
▁मोटरसाइकिल	-10.248
▁सामुद	-10.248
▁आलोक	-10.248
▁फॉर	-10.2481
▁चावल	-10.2482
▁खींच	-10.2485
‍	-10.2495
▁खतर	-10.251
▁चांद	-10.2514
▁ज़्यादा	-10.2515
▁ट्रॉफ	-10.2515
▁सुशील	-10.2517
▁मेहता	-10.2519
▁तट	-10.2529
ir	-10.253
▁ेश्वर	-10.253
▁रै	-10.254
▁सुविधाओं	-10.2542
रेशन	-10.2544
▁बृज	-10.255
▁सिलेंडर	-10.255
▁करोड़ों	-10.2551
▁कर्ज	-10.2552
▁अनंत	-10.2554
▁मात्र	-10.2556
▁वाल	-10.2558
▁भरत	-10.2564
▁गिल	-10.2565
▁बीए	-10.2565
▁58	-10.2568
▁जाट	-10.2571
हरे	-10.2583
▁कॉन्स्टेबल	-10.2586
▁रेस्क्यू	-10.2586
▁डेंगू	-10.2586
▁सेकेंड	-10.2586
▁उड़ान	-10.2593
▁वायु	-10.2594
▁सिपाही	-10.2596
ोली	-10.2602
▁आईडी	-10.2611
▁पदार्थ	-10.2614
▁ऑफिसर	-10.2616
▁कलेक्ट्र	-10.2621
▁सिक्योरिटी	-10.2621
▁प्रतिदिन	-10.2621
▁तलाक	-10.2621
▁प्रोग्राम	-10.2622
▁लिंक	-10.2624
▁मित्र	-10.2624
▁गये	-10.2626
▁सामू	-10.2628
कॉम	-10.2629
▁फेल	-10.2631
▁व्यवहार	-10.2636
मर	-10.2646
▁स्वरूप	-10.2647
▁इंस्टाग्राम	-10.2656
▁हुसैन	-10.2656
▁कलेक्शन	-10.2656
▁प्रवीण	-10.2656
▁स्पीकर	-10.2657
▁बड़	-10.2662
▁होम	-10.2668
▁पुनर्	-10.2669
क्षेत्र	-10.267
शरद	-10.2674
▁महापौर	-10.2692
▁संशोधन	-10.2692
▁सब्जी	-10.2692
जनक	-10.2696
▁सुविधाएं	-10.2699
la	-10.27
▁भय	-10.2701
▁रावण	-10.2701
स्क	-10.2718
▁माफी	-10.2719
▁बैठकर	-10.272
▁ललित	-10.2724
▁अज	-10.2725
▁जुलूस	-10.2728
▁संध्या	-10.2728
▁अवॉर्ड	-10.2729
▁माध्यमिक	-10.2729
▁अंबानी	-10.2729
▁जेपी	-10.2737
▁स्कूट	-10.2742
वेयर	-10.2742
▁मौजूदगी	-10.2745
पन	-10.2758
द्र	-10.2765
▁ब्रिज	-10.2765
▁मनोहर	-10.2765
▁अधिकांश	-10.2767
▁टै	-10.2767
▁रतन	-10.2767
दाय	-10.278
ल्ट	-10.2797
▁गलती	-10.2814
▁गुप्त	-10.2823
▁पुणे	-10.2836
▁शर्त	-10.2836
धाम	-10.2843
▁इनका	-10.285
▁हराया	-10.2855
▁बग	-10.286
▁अंग	-10.2868
▁चार्ज	-10.2871
▁मुजफ्फरपुर	-10.2872
▁प्रमोद	-10.2872
▁उत्तराखंड	-10.2872
▁भतीज	-10.2872
▁कुलपति	-10.2879
ून	-10.2879
▁सास	-10.2885
▁सारा	-10.2898
▁सरा	-10.2903
▁पिस्टल	-10.2908
जो	-10.2914
▁खात	-10.2915
▁जिलाधिकारी	-10.2915
▁धर्मेंद्र	-10.2924
▁लाई	-10.2925
िस्तान	-10.2945
▁पवित्र	-10.2945
▁समर्पित	-10.2945
▁समुद्र	-10.2945
▁सीईओ	-10.2945
▁मार्गदर्शन	-10.2948
▁मोन	-10.295
W	-10.2961
▁ति	-10.2963
हत	-10.2972
▁झगड़ा	-10.2981
रिक्शा	-10.2981
▁अमिताभ	-10.2981
H	-10.2982
▁पड़ोस	-10.2982
▁कर्म	-10.2983
कुमार	-10.2991
▁ढाई	-10.2992
▁स्टोर	-10.2996
▁खरीदा	-10.3
▁जगत	-10.3007
▁ताल	-10.3009
▁गत	-10.3014
▁जर	-10.3016
▁परीक्षण	-10.3018
▁आग्रह	-10.3018
▁गंभीरता	-10.3024
▁शेर	-10.3025
▁काली	-10.3029
▁चंदन	-10.3034
वाला	-10.3035
▁बीमा	-10.3043
▁अनिवार्य	-10.3055
▁समन्वय	-10.3055
▁तबीयत	-10.3055
▁हसीना	-10.3055
▁गोदाम	-10.3055
▁गेंदबाज	-10.3055
▁कामयाब	-10.3056
धि	-10.3057
▁यूजर्स	-10.3062
मैन	-10.3062
hi	-10.3064
ur	-10.307
ch	-10.3071
▁शेष	-10.3071
▁काशी	-10.3071
▁कृपा	-10.3072
▁पत	-10.3073
▁दत्त	-10.3083
▁आईं	-10.3084
▁चीनी	-10.3089
मू	-10.3092
▁इंतजाम	-10.3092
▁स्वर्ण	-10.3092
▁भाइयों	-10.3092
्न	-10.3094
▁गर्ग	-10.3096
ंडर	-10.3098
▁जित	-10.31
▁फर	-10.3119
▁आएगा	-10.312
li	-10.3122
▁एंबुलेंस	-10.3129
▁भगत	-10.3132
▁एसएसपी	-10.3132
▁जै	-10.3142
▁चलेगा	-10.3144
कारी	-10.3147
▁57	-10.3148
▁बोली	-10.3151
▁मजदूरी	-10.3163
▁दब	-10.3163
▁हरकत	-10.3167
▁सांस	-10.3168
▁रिहा	-10.3172
▁साक्ष	-10.3173
nd	-10.3182
▁सम्	-10.3184
्थ	-10.3185
▁लौटा	-10.3192
▁कटौती	-10.3204
▁आंध्र	-10.3204
▁प्रतिपक्ष	-10.3205
▁इकाई	-10.3205
▁टेबल	-10.3207
▁किशन	-10.3209
▁सुनीता	-10.3212
et	-10.3212
▁लड़किय	-10.3221
▁लु	-10.3223
▁पंत	-10.3235
▁दिग्गज	-10.3242
▁पैक	-10.3242
▁अड्ड	-10.3242
▁साइंस	-10.3243
▁ठिकान	-10.3243
▁ऑन	-10.3243
▁जनसभा	-10.3246
▁तैयारियां	-10.3259
▁समाजवाद	-10.3265
▁बजा	-10.3274
मेल	-10.3277
विंदर	-10.3279
▁इच्छा	-10.3279
▁कस	-10.3288
▁सुमित	-10.3289
▁ढूंढ	-10.3289
▁काला	-10.3292
▁हाइ	-10.3296
▁़	-10.3298
▁भेजे	-10.3307
▁वेद	-10.3309
▁मनाई	-10.3309
ॅ	-10.3312
ंगल	-10.3314
▁बहाल	-10.3314
▁अखिल	-10.3315
▁मनी	-10.3316
द्योगिक	-10.3317
▁ब्रांच	-10.3317
▁इंसान	-10.3318
डिया	-10.3321
▁52	-10.3321
▁गाने	-10.3336
▁मांगने	-10.3336
▁गिरी	-10.335
धिकारी	-10.3352
▁ओलिंपिक	-10.3355
▁क्षतिग्रस्त	-10.3355
▁चालू	-10.3358
▁दादा	-10.3361
▁सीओ	-10.3365
▁पूर्णिया	-10.3366
▁लुक	-10.3372
्का	-10.3375
▁रथ	-10.3384
▁फंसा	-10.3386
▁मथुरा	-10.3393
▁संज्ञान	-10.3394
▁नक्सलियों	-10.3398
▁ब्लड	-10.3398
▁बिहारी	-10.3405
▁54	-10.341
▁सेवाएं	-10.3411
▁उदय	-10.3413
▁मिलाकर	-10.3415
▁कन	-10.3415
▁78	-10.3417
▁72	-10.3419
▁शोर	-10.342
▁आह्वान	-10.3432
▁राठौड़	-10.3432
▁तिरंगा	-10.3432
▁पिकअप	-10.3432
▁नाटक	-10.3432
▁समस्त	-10.3434
▁अलवर	-10.3435
▁रियल	-10.3436
▁पं	-10.3436
▁डालने	-10.3438
ेटर	-10.3447
ध्य	-10.3449
▁मदन	-10.3451
▁सिंगल	-10.3452
▁तिलक	-10.346
▁शोध	-10.3463
▁डिटेल	-10.3471
▁सर्च	-10.3477
▁कार्यक्रमों	-10.3485
्यु	-10.3489
▁एडवोकेट	-10.3509
▁राशिफल	-10.351
▁शरण	-10.352
▁गड्ढ	-10.352
▁कुशवाहा	-10.3529
▁फिट	-10.3534
▁टाउन	-10.3548
▁2016	-10.3548
▁उपकरण	-10.3552
र्द	-10.356
▁साइड	-10.3562
▁प्रणाली	-10.3563
दूसरे	-10.3571
▁लख	-10.3573
▁तृतीय	-10.3586
▁दफ्तर	-10.3586
▁कलाकार	-10.3591
▁संबंधों	-10.3594
▁पूर	-10.3596
▁भु	-10.3597
ma	-10.3603
▁अत्य	-10.3606
▁शहरी	-10.3612
▁85	-10.3618
z	-10.3626
▁बॉडी	-10.3626
▁यौन	-10.3626
▁तीर्थ	-10.3626
▁अटल	-10.3626
▁कलाकारों	-10.3627
▁ऊ	-10.3627
▁जाएंगी	-10.3637
र्ब	-10.3642
ूंगा	-10.3643
▁196	-10.3648
्‍स	-10.3659
बाग	-10.3659
▁गयी	-10.3665
▁शशि	-10.3665
▁माफिया	-10.3666
▁स्पोर्ट्स	-10.3667
▁एसआई	-10.3667
es	-10.3669
▁असल	-10.3681
▁हाथी	-10.3685
▁प्रभावी	-10.3688
▁प्रतिभाग	-10.3693
AD	-10.3696
▁वै	-10.3702
▁स्मार्टफोन	-10.3704
▁मर्डर	-10.3706
▁वर्	-10.3709
▁आसमान	-10.371
▁कविता	-10.371
▁अपमान	-10.3711
▁शतक	-10.3713
।"	-10.3715
ic	-10.372
मय	-10.3722
▁02	-10.3724
▁अमल	-10.3731
ंबर	-10.3742
ग्	-10.3743
▁लिये	-10.3746
▁मोर	-10.3751
▁टिक	-10.3751
▁एआई	-10.3755
ब्र	-10.3755
▁कुंड	-10.3759
▁चलाई	-10.3762
▁जानी	-10.3762
▁कवर	-10.3772
▁जंग	-10.3778
▁प्रॉपर्टी	-10.3783
हिंदुओं	-10.3784
▁गवाह	-10.3786
▁बतौर	-10.3786
▁पीटा	-10.3787
▁कपिल	-10.3788
ing	-10.379
▁छोड़ा	-10.3792
▁रीवा	-10.3795
▁सपना	-10.3797
टिव	-10.3808
नु	-10.3809
▁मानी	-10.3809
▁ओं	-10.3816
▁धन्यवाद	-10.3823
▁बेहोश	-10.3823
▁नारेबाजी	-10.3823
▁ऑर्डर	-10.3823
▁पढ़िए	-10.3826
▁राशन	-10.3828
ुन	-10.3829
▁आमजन	-10.3834
▁थोड़ा	-10.3835
▁ची	-10.3848
▁धो	-10.3849
▁रस	-10.385
श्री	-10.3855
▁पात्र	-10.3858
▁ख़	-10.3859
▁अनुरोध	-10.3863
▁मंजिल	-10.3863
▁प्रेरणा	-10.3863
▁बनर्जी	-10.3863
▁शिवसेना	-10.3863
▁प्रबंध	-10.3864
▁बेहतरीन	-10.3869
▁दंड	-10.388
▁ब्रह्म	-10.3885
ंतु	-10.389
मूल	-10.3895
ेय	-10.3895
▁प्रतिबंध	-10.3897
▁उतारा	-10.3899
▁सिनेमा	-10.3903
▁चौटाला	-10.3903
▁खंगाल	-10.3903
▁रेड्डी	-10.3903
▁शुद्ध	-10.3903
▁कमान	-10.3912
-4	-10.3915
▁एससी	-10.3926
ाइल	-10.3933
▁लाए	-10.3937
वाह	-10.3938
▁पीढ़	-10.3944
▁ख़िलाफ	-10.3944
▁हार्दिक	-10.3944
▁कमलेश	-10.3947
टीआई	-10.3948
▁फीचर्स	-10.3948
रदार	-10.3949
ya	-10.3953
▁चेहरा	-10.3955
▁चाय	-10.3959
▁X	-10.396
▁गला	-10.3966
▁टेक्नोलॉजी	-10.3984
▁ब्रिगेड	-10.3984
▁अन्न	-10.3994
▁इंजीनियरिंग	-10.3995
▁शुभम	-10.3996
▁लंबा	-10.3996
▁बीती	-10.3997
▁चक	-10.3999
▁बिग	-10.3999
▁नेटवर्क	-10.4025
▁ब्राह्मण	-10.4025
▁अनुराग	-10.4025
is	-10.4028
el	-10.4042
लाइन	-10.4045
▁बढ़ाया	-10.4055
िनेश	-10.4058
▁फतेह	-10.4061
x	-10.4063
▁हैरान	-10.4063
▁ब्रांड	-10.4066
▁श्रद्धांजलि	-10.4066
▁स्कीम	-10.4066
▁250	-10.4076
हरी	-10.4077
▁नील	-10.4077
▁हेल	-10.4079
ैन्य	-10.4082
▁चेकिंग	-10.4083
बसपा	-10.4095
▁लेख	-10.4104
▁छेड़छाड़	-10.4107
▁चे	-10.4109
ेरा	-10.4112
▁67	-10.4115
▁दिखे	-10.4119
▁झांसी	-10.4127
▁आर्य	-10.4128
▁सीए	-10.413
मिर	-10.4135
▁आपसी	-10.4137
छात्राओं	-10.4137
▁उदाहरण	-10.4148
▁चेन्नई	-10.4148
▁बजरंग	-10.4148
▁जहाज	-10.4148
▁गश्त	-10.4149
▁विनय	-10.4154
▁गोद	-10.4157
▁03	-10.4158
▁हाे	-10.4159
धीरे	-10.4162
▁खाता	-10.4163
▁मोड	-10.4169
▁जीती	-10.4171
▁बद	-10.4171
▁मोहल्ला	-10.4171
▁लक्ष्मण	-10.4189
▁सीता	-10.419
ॉर्	-10.4192
▁चलेगी	-10.4202
▁53	-10.4202
▁ट्रेड	-10.4208
▁सोम	-10.4211
▁09	-10.4211
▁लोकेशन	-10.4212
▁गंद	-10.4218
▁माधव	-10.4219
▁छिपा	-10.422
▁ब्ल	-10.4222
गन	-10.4224
▁तेलंगाना	-10.4231
▁मशहूर	-10.4231
▁अरोड़ा	-10.4231
▁समझौता	-10.4231
▁महाकाल	-10.4234
▁हसन	-10.4241
▁जानवर	-10.4243
रिफ	-10.4244
w	-10.4244
▁करनाल	-10.4253
▁घु	-10.4257
▁मलिक	-10.4259
▁बनाते	-10.4263
▁सावन	-10.4265
and	-10.4271
▁टारगेट	-10.4272
▁संभावित	-10.4272
▁सर्टिफिकेट	-10.4272
▁प्रोसेस	-10.4273
ार्थ	-10.4278
इन	-10.4279
ॉय	-10.4293
पात	-10.4294
धा	-10.4297
▁कलश	-10.4304
▁अर्थव्यवस्था	-10.4314
▁आलोचना	-10.4314
▁उपाध्याय	-10.4314
▁हुड्डा	-10.4315
▁एजेंट	-10.4315
▁थम	-10.4315
▁शास्त्र	-10.4337
▁फिल्में	-10.434
ोप	-10.4342
▁मनाने	-10.4343
ाचार्य	-10.4351
▁मजिस्ट्रेट	-10.4356
▁त्रि	-10.4356
▁ब्याज	-10.4356
▁करो	-10.4357
▁वार्ता	-10.4358
हु	-10.4363
▁सुमन	-10.4365
▁जोड़ी	-10.437
▁ट्रे	-10.438
ानुसार	-10.4386
▁सीपी	-10.439
▁द्वार	-10.4391
-25	-10.4398
▁ग्लोबल	-10.4398
▁सिंचाई	-10.4398
▁सैंपल	-10.4398
▁संभल	-10.4398
▁आंकड़े	-10.4399
▁गुलाब	-10.44
le	-10.4401
व्यक्तिगत	-10.4403
▁मानस	-10.4403
▁स्वीकृति	-10.4406
▁भगव	-10.4407
▁दबा	-10.4411
▁करार	-10.4418
▁नीट	-10.4419
िकल	-10.442
11	-10.4425
▁कूद	-10.4426
▁वजन	-10.4432
▁गारंटी	-10.4441
▁संदेह	-10.4441
▁सकारात्मक	-10.4441
णा	-10.4443
▁लकड़	-10.4446
▁बेड	-10.445
ti	-10.4451
▁नारे	-10.4455
ाइन	-10.4467
▁आईटी	-10.4474
▁कड़ा	-10.4476
▁नितिन	-10.4483
▁कैंट	-10.4485
▁गाड़ियां	-10.4485
▁आजादी	-10.4496
▁शिवराज	-10.45
▁साधा	-10.45
▁लोड	-10.4505
▁मनमोह	-10.4506
▁कचरा	-10.4512
▁कमला	-10.4515
il	-10.4515
िशन	-10.4519
र्व	-10.4519
▁सतना	-10.4519
▁शुक्ल	-10.4519
▁एडमिशन	-10.4526
▁गहलोत	-10.4526
▁ड्रेस	-10.4526
▁बघेल	-10.4526
▁एटीएम	-10.4526
▁मैनेजमेंट	-10.4527
क्शन	-10.4529
ce	-10.4538
▁पैस	-10.455
▁नकली	-10.4556
▁मासूम	-10.4569
▁फर्स्ट	-10.457
आईएएस	-10.457
▁04	-10.4572
▁06	-10.4573
▁हार्ट	-10.4581
▁वसूल	-10.4582
▁59	-10.4584
ैन	-10.4584
▁किशोरी	-10.4586
मान्य	-10.4592
▁लंबित	-10.4595
▁धु	-10.4602
▁गन	-10.4606
्वा	-10.4606
▁आस्था	-10.4612
कोट	-10.462
ed	-10.4628
तन	-10.463
▁UP	-10.4636
▁सिद्ध	-10.4639
▁सिया	-10.4639
30	-10.4641
▁साह	-10.4641
द्ध	-10.4646
▁ओपन	-10.465
▁निलंबित	-10.4655
▁बहुमत	-10.4655
▁इंचार्ज	-10.4656
▁मणिपुर	-10.4659
ारी	-10.4665
▁लहर	-10.4677
▁लेट	-10.4678
टेक	-10.4685
▁ियां	-10.4689
▁आक्रोश	-10.4691
▁पाते	-10.4697
st	-10.4698
▁क्विंटल	-10.4699
▁महात्मा	-10.4699
▁निरस्त	-10.47
▁दरबार	-10.4702
▁198	-10.4706
विंद्र	-10.4709
▁ट्रा	-10.4725
▁मुख	-10.4728
पत्र	-10.4737
▁गेहूं	-10.4742
▁मुआवजा	-10.4742
▁फील्ड	-10.4742
ंद्र	-10.4747
▁प्लेट	-10.4752
▁वीरेंद्र	-10.4754
ाधिकारी	-10.4756
▁सुनने	-10.4758
ड्	-10.4763
▁भेजी	-10.4763
▁खुला	-10.4763
▁पू	-10.4769
▁शाही	-10.4774
भारत	-10.4782
▁अंतर्	-10.4784
▁ठाकरे	-10.4786
▁वार्षिक	-10.4786
▁सरस्वती	-10.4786
▁अभियुक्त	-10.4787
▁मद	-10.4796
ाें	-10.4803
सूर	-10.4828
▁ड्रग	-10.483
▁चिराग	-10.483
▁रामलला	-10.483
▁बुझा	-10.4831
▁कायम	-10.4832
▁नर्स	-10.4836
▁सीन	-10.4839
▁संवाद	-10.4847
▁घटनाएं	-10.4848
▁उतन	-10.4849
▁पढ़ा	-10.4849
रूप	-10.4862
नारायण	-10.487
▁एकजुट	-10.4875
▁गुरुद्वार	-10.4875
▁प्लास्टिक	-10.4875
▁मरम्मत	-10.4875
▁2015	-10.4875
▁मायके	-10.4876
▁दावेदार	-10.4876
पहिया	-10.4877
▁बरत	-10.4888
्यो	-10.4892
▁हवाला	-10.4893
▁हां	-10.4893
▁07	-10.4895
्श	-10.4899
▁विध	-10.4911
▁गे	-10.4913
▁सद	-10.4914
▁लगवा	-10.4916
▁डिलीवरी	-10.4919
टेल	-10.492
▁व्यास	-10.492
▁करंट	-10.4921
▁खेली	-10.4922
▁भेंट	-10.4926
▁मोट	-10.4938
ुरी	-10.4941
▁पेरि	-10.4942
▁त्व	-10.4957
▁किताब	-10.4963
▁इजरायल	-10.4964
▁कार्यशाला	-10.4964
▁दरभंगा	-10.4964
▁मुठभेड़	-10.4964
▁एडिशन	-10.4964
ात्मक	-10.4964
र्थ	-10.4966
▁चालान	-10.4971
▁शान	-10.4976
500	-10.4979
▁डबल	-10.498
▁पहाड़ी	-10.4983
▁सराहना	-10.4984
▁अटैक	-10.5008
▁समस्तीपुर	-10.5009
▁सिद्धार्थ	-10.5009
▁प्लेयर	-10.501
▁सीधा	-10.5011
▁॥	-10.5015
▁2000	-10.5017
▁ू	-10.5019
▁मानक	-10.502
न्द्र	-10.5022
▁करेंगी	-10.503
▁कस्बे	-10.5037
ाली	-10.504
हल	-10.5041
▁मानें	-10.5047
▁फोकस	-10.5054
▁सक्षम	-10.5054
▁अवगत	-10.5054
▁धनबाद	-10.5054
▁95	-10.5056
▁स्वस्थ	-10.5056
▁तारीफ	-10.5058
▁हिल	-10.5063
▁बहू	-10.507
▁99	-10.5074
▁मेगा	-10.5075
▁अर्चना	-10.508
▁गी	-10.5095
▁600	-10.5096
▁कठिन	-10.5099
▁ईश्वर	-10.5099
▁विरासत	-10.5099
▁गंवा	-10.51
ro	-10.5116
▁कक्ष	-10.5119
▁नामक	-10.5141
▁मेंबर	-10.5142
▁आधे	-10.5143
▁झटका	-10.5144
▁बोतल	-10.5144
▁निकट	-10.5145
▁ट्रेलर	-10.5145
▁भागलपुर	-10.5146
▁खोला	-10.515
▁गंग	-10.5151
▁एमएम	-10.5151
अपने	-10.5161
▁जुटा	-10.5172
▁करवाए	-10.5175
मार	-10.5179
▁रुप	-10.5185
▁बाय	-10.5187
ोस	-10.5188
▁सफेद	-10.519
▁ओलंपि	-10.519
▁सर्जरी	-10.519
▁पंडाल	-10.519
▁वाटर	-10.5194
▁66	-10.5198
▁बुकिंग	-10.5199
▁सीवर	-10.5202
जीलैंड	-10.5205
नीत	-10.5208
▁बरेली	-10.5212
▁गड़बड़ी	-10.5221
त्व	-10.5226
▁अभिनेता	-10.5236
▁विशिष्ट	-10.5236
हान	-10.5254
▁आचार	-10.5254
▁कागज	-10.5261
डीए	-10.5268
▁ग्	-10.5269
▁पौ	-10.5273
▁चर	-10.5276
▁आर्ट	-10.5276
न्य	-10.528
▁ब्लैक	-10.5282
▁अध्ययन	-10.5282
▁गांजा	-10.5282
▁फंदे	-10.5282
▁बंटवार	-10.5283
▁देसी	-10.5284
▁सिंधिया	-10.5285
▁आर्मी	-10.5286
▁बायो	-10.5289
▁बैर	-10.5292
▁जोड़ा	-10.5293
▁तेंदु	-10.5296
▁सवाई	-10.5296
म्भ	-10.5299
दल	-10.53
▁68	-10.5301
वंत	-10.5302
भूत	-10.5317
▁सर्दी	-10.5319
▁आंकड़	-10.5325
▁पुजारी	-10.5328
▁शिखर	-10.5328
गलौज	-10.5328
माल	-10.5328
▁बहनों	-10.533
▁खैर	-10.5331
▁बैच	-10.5333
▁अंग्रेजी	-10.5336
▁बारात	-10.5337
▁श्रद्धा	-10.5375
▁शुभकामनाएं	-10.5375
▁चमक	-10.5376
▁अंबेडकर	-10.5377
▁निर्देशन	-10.5388
▁रेत	-10.5391
▁एकता	-10.5392
▁मिलेंगे	-10.5397
▁फसलों	-10.5397
▁लगेगा	-10.5401
्दा	-10.5403
▁लेटर	-10.5408
▁""	-10.5411
पू	-10.5413
देन	-10.5414
राना	-10.5418
सिंह	-10.5421
▁अनुसंधान	-10.5421
▁एक्सीडेंट	-10.5421
▁गाजियाबाद	-10.5421
▁पृथ्वी	-10.5421
▁मुफ्त	-10.5421
▁रतलाम	-10.5421
▁रिटर्न	-10.5421
▁अंचल	-10.5421
▁बराबर	-10.5421
▁महंगाई	-10.5426
▁कॉन्	-10.5433
▁सल	-10.5434
▁किये	-10.5436
▁मुनि	-10.5443
झा	-10.545
्हा	-10.5452
▁पीजी	-10.5453
बोध	-10.5465
▁जैसलमेर	-10.5468
▁मुकदमे	-10.5468
▁स्नातक	-10.5468
क्टर	-10.5472
▁साम	-10.5472
▁अनाज	-10.5473
▁भरतपुर	-10.5475
▁चैनल	-10.5478
ग्न	-10.548
वाया	-10.5489
▁बनेगा	-10.5491
▁फंसे	-10.5505
V	-10.5515
▁प्रत्याशियों	-10.5516
▁शैक्षणिक	-10.5516
▁शॉर्ट	-10.5516
▁स्पीड	-10.5516
▁अहमदाबाद	-10.5518
▁प्रांत	-10.5518
▁जहर	-10.552
▁विक्की	-10.5523
▁हरी	-10.5529
▁जापान	-10.5532
▁कमर	-10.5535
न्	-10.5535
▁घेरा	-10.5537
▁खट	-10.5539
▁थानों	-10.5541
▁साव	-10.5542
ट्स	-10.5558
▁अनुसूचित	-10.5563
▁इमरान	-10.5563
▁जश्न	-10.5563
▁भागीदारी	-10.5563
▁दहेज	-10.5563
▁शिंदे	-10.5563
▁कार्यकारिणी	-10.5563
▁बचपन	-10.5564
▁लाइव	-10.5564
▁संतुल	-10.5568
▁काले	-10.557
▁195	-10.5577
ेतु	-10.5589
▁तन	-10.5591
▁विन	-10.5593
▁प्रस्तावित	-10.5594
हरा	-10.5601
ौल	-10.5608
▁पेयजल	-10.5611
▁पूनम	-10.5611
जगह	-10.5613
▁खल	-10.5616
sh	-10.5616
▁चालकों	-10.5617
▁तैनाती	-10.5623
▁फर्म	-10.5627
▁लड़क	-10.5628
▁प्राथमिकी	-10.5638
▁दोस्ती	-10.564
ak	-10.5655
▁अभिभावक	-10.5658
▁गूगल	-10.5658
▁संवेदनशील	-10.5658
▁जायजा	-10.566
ज्ज	-10.566
▁ड्राइव	-10.5661
▁श्रम	-10.5663
▁डीसीपी	-10.5663
▁120	-10.5668
▁लड़का	-10.5672
पल	-10.5673
▁एव	-10.5675
▁सीज	-10.5679
▁आतंकवाद	-10.5681
▁मुन	-10.5684
▁नाव	-10.5693
टिंग	-10.5693
▁लिखी	-10.57
क्यू	-10.57
▁जेब	-10.5701
▁असली	-10.5706
▁पारंपर	-10.5706
▁अश्लील	-10.5706
▁डेब्यू	-10.5706
▁राठौर	-10.5706
▁ओबीसी	-10.5706
▁सुर्खिय	-10.5707
▁चंद्रशेखर	-10.5707
▁रत्न	-10.5707
▁आध	-10.5709
▁गोलियां	-10.5711
▁हवाले	-10.5713
▁उमस	-10.5713
▁Ra	-10.5723
▁उमर	-10.5723
▁हटाया	-10.5723
▁उत्तरी	-10.5737
▁सौंपी	-10.5744
ay	-10.5753
▁छाए	-10.5755
▁विसर्ज	-10.5755
▁वस्तु	-10.5755
▁पॉ	-10.5756
शस्त्र	-10.5756
▁मौर्य	-10.5756
▁(3	-10.5757
▁लै	-10.5758
▁न्यूज	-10.576
▁सूख	-10.5767
▁इश	-10.5768
▁ग्रे	-10.5771
▁आसार	-10.5789
ोई	-10.5792
नाक	-10.5793
ोत्सव	-10.5801
▁आधुनिक	-10.5803
▁मकसद	-10.5803
▁पुस्तक	-10.5803
▁कुचल	-10.5804
▁रिटायर्ड	-10.5804
▁हत्याकांड	-10.5805
▁दार	-10.5812
▁64	-10.5816
▁एक्टिंग	-10.5823
नेस	-10.5829
▁पूछे	-10.5831
▁क्रू	-10.5847
▁दिवाली	-10.5853
▁वात	-10.5856
▁शिवम	-10.5861
प्रीत	-10.5865
रजत	-10.5874
▁m	-10.5888
▁पन	-10.5892
तू	-10.5896
▁IPL	-10.5901
▁आबकारी	-10.5901
▁दिमाग	-10.5901
▁डीज	-10.5901
▁ट्रायल	-10.5901
▁विल	-10.5902
▁बाधा	-10.5903
▁निधि	-10.5904
▁सेकंड	-10.5904
▁केशव	-10.5905
गे	-10.5907
▁अर्थ	-10.5912
▁प्रवास	-10.5914
▁कंप	-10.5919
▁सीएस	-10.592
▁प्राप्ति	-10.5932
्नी	-10.5933
▁फोर	-10.5946
फल	-10.5947
▁पैनल	-10.595
▁ऐश्वर्या	-10.595
▁फ्रांस	-10.595
▁आजमगढ़	-10.5951
ोद	-10.5952
▁गुहार	-10.5953
डीजीपी	-10.5953
▁69	-10.5953
▁बॉय	-10.5955
000	-10.5956
▁पाएंगे	-10.5957
▁वरुण	-10.5961
▁छु	-10.5963
▁झांसा	-10.5967
▁आयुष	-10.5969
▁कलर	-10.5977
▁दुर्	-10.598
टिक	-10.5984
▁सख्ती	-10.5985
▁800	-10.5987
60	-10.5987
▁स्थायी	-10.599
▁साध	-10.5991
वादी	-10.5994
▁दंग	-10.5996
▁अनूप	-10.6
▁घटनाक्रम	-10.6
▁पर्सन	-10.6003
▁बीत	-10.6007
▁सिरसा	-10.6011
▁ईयर	-10.6014
▁डू	-10.6016
▁ड़	-10.602
▁दिलाई	-10.6025
▁द्व	-10.6029
▁रॉयल	-10.6034
▁लिखकर	-10.6036
▁Re	-10.6047
▁62	-10.6049
▁कांस्टेबल	-10.605
छिंदवाड़ा	-10.605
▁समझौते	-10.605
▁अभय	-10.605
▁बाधित	-10.605
वाड़	-10.605
▁दबिश	-10.6051
▁ED	-10.6052
आउट	-10.6056
▁शनि	-10.6058
▁चीजें	-10.6058
ंदा	-10.606
▁बैंड	-10.6064
▁फिल	-10.6071
▁कपल	-10.6072
▁लटका	-10.6075
▁सेशन	-10.6075
▁बंध	-10.6077
▁जड़	-10.608
▁लॉक	-10.6081
▁हमल	-10.6081
▁पारि	-10.6081
▁पहुंचेगी	-10.6084
स्व	-10.6093
▁दुश्मन	-10.61
▁अतुल	-10.61
▁उपायुक्त	-10.6102
▁लैब	-10.6106
▁नशील	-10.6112
तौर	-10.6113
▁1000	-10.612
▁प्रीत	-10.6126
ायुक्त	-10.6126
▁पार्टिय	-10.6131
▁गहर	-10.6133
▁निपट	-10.6134
▁कैप	-10.6135
▁व्य	-10.6147
▁दहशत	-10.615
▁ज्वेलर	-10.615
▁निर्भर	-10.6152
▁मनो	-10.6154
▁श्रमिक	-10.6157
▁अभिन	-10.6159
▁मोहित	-10.6167
▁बचे	-10.6173
▁जवाहर	-10.6178
▁सस्त	-10.6179
ौरा	-10.6183
▁p	-10.6189
.50	-10.6196
▁चोपड़ा	-10.62
▁मुद्रा	-10.62
▁जलस्तर	-10.62
▁गैंगस्टर	-10.6202
▁निभाई	-10.6211
▁ईंट	-10.6212
तेश	-10.6215
▁सियास	-10.6217
कड़	-10.6217
▁घूमने	-10.6218
▁तोमर	-10.6236
धारी	-10.6245
▁गुस्सा	-10.6246
टेड	-10.6247
▁गार्डन	-10.6248
▁संरक्ष	-10.625
▁यूरोप	-10.6251
▁आईपीएल	-10.6251
▁मालूम	-10.6251
▁आंकड़ा	-10.6254
▁प्रयासों	-10.6256
▁हिट	-10.6258
▁बैक	-10.6284
शाली	-10.6286
▁कैच	-10.6286
वती	-10.6292
बाल	-10.6299
▁कश्यप	-10.6302
▁हड़कंप	-10.6302
▁बकाया	-10.6302
▁चौंका	-10.6302
▁साक्ष्य	-10.6305
▁खेलते	-10.6305
▁भागवत	-10.6308
▁स्क्रीन	-10.6311
▁बिर	-10.6314
▁मामा	-10.6319
▁कोरिया	-10.632
▁एमडी	-10.632
▁धारण	-10.6324
▁94	-10.6328
▁पीसी	-10.6332
▁..	-10.6333
▁जाल	-10.6341
प्प	-10.6341
▁हेम	-10.6345
ोरा	-10.6346
▁जानकार	-10.6347
्होंने	-10.6349
▁इंस्टीट्यू	-10.6353
▁दौसा	-10.6353
▁फ्रंट	-10.6353
▁ब्यूरो	-10.6353
▁शोभायात्रा	-10.6353
हिन्दू	-10.6354
▁मराठ	-10.6355
▁MP	-10.6357
SO	-10.636
▁नकदी	-10.636
▁बेंच	-10.6361
▁कमेंट	-10.6365
बद्ध	-10.6365
▁मार्क	-10.6367
▁अंबाला	-10.6369
लेन	-10.6374
▁रेव	-10.6375
▁काटकर	-10.6381
▁आयुष्	-10.6389
यु	-10.6397
▁प्रदर्शनी	-10.6399
▁नायक	-10.6401
ौद	-10.6403
▁तोड़फोड़	-10.6405
▁सिलसिला	-10.6405
▁हॉस्टल	-10.6405
▁नामजद	-10.6405
▁नज़र	-10.6406
ैक्ट	-10.6408
▁यूजर	-10.641
▁स्टोरी	-10.6413
▁गहन	-10.6415
लोहे	-10.6415
▁देखिए	-10.6417
▁जाय	-10.6417
▁घी	-10.6421
▁टैंकर	-10.6425
▁डॉक्टर्स	-10.6428
▁माद	-10.6439
▁फि	-10.644
▁फट	-10.6447
▁इमारत	-10.6457
▁इलेक्ट्रॉनिक	-10.6457
▁प्राचीन	-10.6457
▁मुखबिर	-10.6457
▁बस्तर	-10.6457
▁निराश	-10.6457
▁पिछड़	-10.6459
▁जं	-10.6462
▁बेन	-10.6462
तः	-10.6463
▁आरक्षक	-10.6464
▁इंटरने	-10.6476
▁बंधक	-10.6477
▁भि	-10.648
▁108	-10.6484
▁अक	-10.6486
घाट	-10.649
▁पैमा	-10.6492
▁बू	-10.6501
▁महान	-10.6503
▁ः	-10.6504
अफगानिस्तान	-10.6509
▁निष्पक्ष	-10.6509
▁बेगूसराय	-10.6509
▁मालदीव	-10.6509
▁रेस्टोरेंट	-10.6509
▁जन्मदिन	-10.6509
▁Election	-10.6509
▁इकट्ठा	-10.6509
▁प्रतिनिधित्व	-10.6509
▁जुटे	-10.651
म्बर	-10.6518
बो	-10.652
▁सोनिया	-10.6521
as	-10.6523
▁जीव	-10.6523
चक	-10.6525
▁परिस्थितिय	-10.6527
▁मेल	-10.6534
▁ड़ा	-10.6536
▁मोती	-10.6537
▁देखे	-10.6543
▁अर्	-10.6546
▁नल	-10.6547
up	-10.6547
▁पॉइंट	-10.6555
चेंज	-10.6561
▁उमेश	-10.6561
फ्रेंड	-10.6561
▁दुल्हन	-10.6561
▁फरीदाबाद	-10.6562
▁शाहरुख	-10.6562
▁डिफें	-10.6562
गीर	-10.6564
▁दीपिका	-10.6569
ांश	-10.6577
लेट	-10.6577
▁दुकानदारों	-10.6586
-10	-10.6586
▁फेर	-10.6588
▁लटक	-10.6588
▁भूषण	-10.659
▁चुने	-10.6592
▁मौ	-10.6593
ियल	-10.6596
न्ह	-10.6599
▁स्थलों	-10.66
्‍या	-10.6608
▁गै	-10.6611
id	-10.6612
▁Lok	-10.6614
▁डिवीजन	-10.6614
▁दिलचस्प	-10.6614
▁बर्बाद	-10.6614
▁हस्ताक्षर	-10.6614
▁लेपर्ड	-10.6614
▁क्रेडि	-10.6614
▁भोजपुर	-10.6618
▁जॉन	-10.6618
▁पेमेंट	-10.6619
▁छवि	-10.662
देश	-10.662
▁मज	-10.6626
▁अंधेर	-10.6632
▁फ्ल	-10.6633
▁समर	-10.6635
▁सुनी	-10.6636
▁अनिय	-10.6638
▁क्	-10.6638
▁लोगो	-10.6648
▁पांड	-10.6651
▁नाइट	-10.6653
ब्रिटेन	-10.6658
▁करीबी	-10.6659
▁एडवांस	-10.6667
▁मद्देनज	-10.6667
▁यमुना	-10.6667
▁सड़कें	-10.667
▁क्रिकेटर	-10.667
▁गिनत	-10.6671
स्ता	-10.6672
▁दहन	-10.6673
▁76	-10.6675
▁रायगढ़	-10.6676
ष्ठ	-10.6679
:00	-10.668
▁-2	-10.668
▁फुट	-10.6681
मिली	-10.6681
▁डाक	-10.6682
SP	-10.6683
▁युग	-10.6687
▁दृष्टि	-10.6688
▁112	-10.6689
ion	-10.6693
▁जेसी	-10.6695
▁बनना	-10.6697
▁अह	-10.6698
▁अफ	-10.6698
▁एसएस	-10.6699
▁ओटी	-10.6702
▁कन्	-10.6707
▁वृद्ध	-10.6709
▁मुल	-10.6716
▁क्‍य	-10.6716
▁उत्पीड़न	-10.672
▁छानबीन	-10.672
▁रजिस्ट्री	-10.672
▁कंपनियां	-10.672
▁जर्जर	-10.672
▁कांवड़	-10.672
▁मामूली	-10.672
▁जर्मन	-10.672
▁खतरनाक	-10.672
▁भिवानी	-10.672
▁ईवीएम	-10.672
▁धक्का	-10.6721
▁भ्रमण	-10.6722
▁फ्लोर	-10.6722
▁ऊंचाई	-10.6723
▁गर्व	-10.6725
▁चन्द्र	-10.6729
्ग	-10.6734
स्‍ट	-10.6743
▁पुलिया	-10.6743
▁अब्दुल	-10.6745
mi	-10.6752
ेबल	-10.6752
▁उतरे	-10.6756
▁700	-10.6767
▁....	-10.6771
▁एजेंसिय	-10.6772
▁निर्माता	-10.6774
▁यज्ञ	-10.6774
▁विश्वनाथ	-10.6781
क्का	-10.6783
▁टोला	-10.68
▁दुकानें	-10.6803
▁डोर	-10.6808
▁नम	-10.6815
प्रारंभिक	-10.6817
▁निराक	-10.6823
्बुलेंस	-10.6827
▁एजुकेशन	-10.6827
▁उद्यम	-10.6827
▁डैम	-10.6827
▁ट्रांसपोर्ट	-10.6827
▁नालंदा	-10.6827
▁एएसपी	-10.6829
▁नष्ट	-10.683
ावरण	-10.6832
▁कॉपी	-10.6834
▁हरीश	-10.6835
अर	-10.6842
स्थान	-10.6845
▁मिलना	-10.6852
▁कार्यकार	-10.6865
▁नतीजे	-10.6872
ोत्तर	-10.6881
▁जगन्नाथ	-10.6881
▁लॉरेंस	-10.6881
श्रेष्ठ	-10.6881
▁मांझी	-10.6881
▁शौचालय	-10.6881
▁सिकंदर	-10.6881
▁जयशंकर	-10.6882
▁किलोग्राम	-10.6883
▁अतिथियों	-10.6885
▁अनुज	-10.6887
संस्थापक	-10.6887
▁योगेश	-10.6892
धिक	-10.6903
▁अग्नि	-10.6919
▁रक्तदा	-10.6921
▁अवकाश	-10.6936
▁एसयूवी	-10.6936
▁फाजिल	-10.6936
▁सूचित	-10.6936
▁लेबनान	-10.6936
▁वां	-10.6937
▁77	-10.6939
17	-10.694
निकासी	-10.6942
▁सिल	-10.6944
▁झाड़	-10.6945
र्प	-10.6953
ख़	-10.6957
छा	-10.6959
ज्जर	-10.6961
▁बेट	-10.6968
▁नाल	-10.697
▁गुड़	-10.6975
▁ढा	-10.6983
▁नियंत्र	-10.6988
▁ईरानी	-10.6988
▁ध्रुव	-10.699
▁रेवाड़ी	-10.699
CBI	-10.6991
▁जैक	-10.6994
▁2009	-10.7001
न्हीं	-10.7004
▁रोशनी	-10.7004
▁विवि	-10.7006
▁प्लानिंग	-10.7011
▁खिल	-10.7012
▁प्ल	-10.7017
▁थीम	-10.7022
ंटा	-10.7025
▁लीला	-10.703
▁निर	-10.7039
vs	-10.7039
▁प्रज्वल	-10.7045
▁उजागर	-10.7045
▁लुटेर	-10.7045
▁विश्वकर्मा	-10.7045
▁कारतूस	-10.7045
▁कोषाध्यक्ष	-10.7045
▁झुलस	-10.7045
▁प्रीमिय	-10.7046
▁चक्र	-10.7053
पिन	-10.7057
▁साझेदारी	-10.7059
भाषा	-10.7063
▁आराम	-10.7069
▁अडा	-10.7083
▁CCTV	-10.71
▁असिस्टेंट	-10.71
▁ट्वीट	-10.71
▁दृष्टिकोण	-10.71
▁निर्यात	-10.71
▁सर्जन	-10.71
▁बंसल	-10.7101
▁आईआईटी	-10.7103
us	-10.7104
▁सोलर	-10.7104
ंगत	-10.7104
▁वारंट	-10.7105
▁पॉलिस	-10.7106
▁पेज	-10.7107
▁प्रिय	-10.7108
▁पंजाबी	-10.7111
▁छाया	-10.7111
▁92	-10.712
▁रोड़	-10.7121
मपुर	-10.7137
▁काउंसिल	-10.7149
▁बॉन्ड	-10.7156
▁2013	-10.7156
▁जानलेवा	-10.7156
▁प्लॉट	-10.7156
▁जॉब	-10.7156
▁तुम्हार	-10.7156
▁कल्पना	-10.7156
▁कोरोना	-10.7157
▁श्रव	-10.7161
▁ज्योतिष	-10.7161
▁खां	-10.7167
▁1.5	-10.717
▁शिकायतें	-10.7171
▁पकड़कर	-10.7172
ंबल	-10.7182
न्ना	-10.7183
ैक	-10.7186
▁लीडर	-10.7193
रोवर	-10.7193
प्	-10.7196
▁ऋषभ	-10.7212
▁विधेयक	-10.7212
▁तथ्य	-10.7212
▁घबरा	-10.7212
▁हॉक	-10.7213
▁कैप्ट	-10.7214
▁शोषण	-10.7217
ढ़ी	-10.7218
▁पट्टी	-10.7218
▁साद	-10.7221
▁सज	-10.7237
▁बट	-10.7247
ेक्स	-10.7248
कर्मी	-10.7261
▁अल्	-10.7264
प्राकृतिक	-10.7268
▁Sabha	-10.7268
▁एसएचओ	-10.7268
▁सर्किल	-10.7268
▁सीधी	-10.7268
▁कुर्सी	-10.7268
▁राहगीर	-10.7268
व्यवस्थ	-10.7269
▁बलरामपुर	-10.727
▁स्कूली	-10.7275
▁कमीशन	-10.7276
▁धमका	-10.7283
▁विराज	-10.729
▁प्ले	-10.7311
च्छ	-10.732
▁निर्देशित	-10.7322
▁परिचय	-10.7325
▁विज्ञापन	-10.7325
▁सोलंकी	-10.7325
▁सुराग	-10.7325
▁सीमित	-10.7325
▁भीलवाड़ा	-10.7325
▁ऑप्शन	-10.7325
▁शारद	-10.7327
▁झलक	-10.7327
▁बैठी	-10.7329
▁छाप	-10.733
वारिक	-10.7332
▁वैष्णव	-10.7333
ट्ठ	-10.7334
har	-10.7338
▁बालू	-10.7339
▁नतीज	-10.7343
▁कौ	-10.7343
स्थाई	-10.7344
▁शोक	-10.7345
▁विश	-10.7348
▁आत्मा	-10.7352
▁हद	-10.7352
▁दावे	-10.7358
पीएस	-10.736
शील	-10.7362
▁गुम	-10.7372
ul	-10.7373
पीएससी	-10.738
▁उत्कृष्ट	-10.7381
▁माधोपुर	-10.7381
▁बक्सर	-10.7381
▁आशु	-10.7381
क्षेप	-10.7382
ाणु	-10.7385
▁संस्कृत	-10.7397
▁फेज	-10.7406
▁शिकायतकर्ता	-10.7408
▁पिला	-10.741
▁रिश्ता	-10.7413
▁सिखा	-10.7418
ंघ	-10.7424
▁सेवन	-10.7428
षा	-10.7431
▁एम्स	-10.7438
अमेठी	-10.7439
▁कैटेगरी	-10.7439
▁मित्तल	-10.7439
▁शीघ्र	-10.7439
▁सोसाइटी	-10.7439
▁जदयू	-10.7439
▁पार्वती	-10.7439
▁स्पॉट	-10.7439
▁एसडीओ	-10.7439
▁सऊद	-10.7439
टेंशन	-10.7439
▁गेंदबाजी	-10.7439
▁दिखाकर	-10.744
▁स्ट्री	-10.7442
वट	-10.7452
▁चोटें	-10.7452
वंश	-10.7459
तोष	-10.7472
▁तिर	-10.7475
▁शिकायतों	-10.7478
▁रामपुर	-10.7492
▁निर्मित	-10.7496
▁वंचित	-10.7496
▁कुंभ	-10.7496
▁शिवपुरी	-10.7496
▁प्रिंस	-10.7498
धन	-10.7502
▁विस्त	-10.7506
जीएसटी	-10.7514
मुख	-10.7516
▁बढ़ाई	-10.7523
▁सेवक	-10.7528
45	-10.753
▁टैंक	-10.7534
▁साइट	-10.7542
▁ाय	-10.7544
ैट	-10.755
▁सवालों	-10.7551
▁आवंटित	-10.7554
▁मशक्कत	-10.7554
▁सर्किट	-10.7554
▁उन्‍ह	-10.7554
▁शातिर	-10.7554
▁बरकरार	-10.7554
▁जंक्शन	-10.7554
▁दमकल	-10.7555
▁अवस्था	-10.7556
▁डिपार्टम	-10.7558
▁फाइनेंस	-10.7567
मिट	-10.7568
▁उद्ध	-10.7568
▁कालेज	-10.7569
▁समस्याएं	-10.757
▁उत्	-10.757
▁गहरी	-10.7578
▁आपदा	-10.7581
मती	-10.7582
▁लीड	-10.7586
भद्र	-10.7588
▁दस्त	-10.7595
प्ले	-10.7608
▁नैन	-10.7608
यल	-10.7609
स्ट्रक्चर	-10.7612
▁दुबई	-10.7612
▁खूबसूरत	-10.7612
▁आंधी	-10.7612
ागमन	-10.7612
▁किशनगंज	-10.7615
▁शरीफ	-10.7615
▁जेवर	-10.7621
▁खरीदारी	-10.7621
श्त	-10.7622
▁राइट	-10.7623
▁2008	-10.7624
ab	-10.7624
▁नागर	-10.7628
▁शोरूम	-10.7629
▁डॉग	-10.7631
रानी	-10.7634
धारण	-10.7634
▁बीस	-10.7635
te	-10.7639
▁वक्	-10.7643
▁अकाली	-10.7652
ाइड	-10.7656
▁रैंक	-10.7666
▁वितरित	-10.767
▁दीक्षित	-10.767
आरजेडी	-10.767
रामायण	-10.7671
▁क्ष	-10.7672
▁a	-10.7673
▁व्ह	-10.7677
▁एलान	-10.768
▁दिलाया	-10.7685
▁किंग	-10.7694
▁डाली	-10.7697
अर्चना	-10.7703
▁तोड़ा	-10.771
▁समा	-10.7711
▁महंग	-10.7712
एगा	-10.7713
▁पाव	-10.7723
▁गर्भवती	-10.7729
▁बिखर	-10.773
▁स्टॉक	-10.773
▁लेता	-10.7731
vi	-10.7731
▁उड़ा	-10.7732
▁दबंग	-10.7735
▁सलाम	-10.7751
▁कैमर	-10.7753
▁खबरें	-10.7756
फ़ी	-10.7757
▁सेंट	-10.776
▁वेट	-10.7765
▁छिप	-10.7771
ावर	-10.7775
्रेशर	-10.7777
▁गौरी	-10.7783
▁छि	-10.7783
▁रज	-10.7785
▁बुनियाद	-10.7788
▁लड्डू	-10.7788
▁परफॉर्मेंस	-10.7788
▁मल्टी	-10.7788
▁सस्पेंड	-10.779
▁एनएच	-10.7791
▁पारित	-10.7792
▁आरा	-10.7796
▁तर्क	-10.7805
फॉर्म	-10.7814
▁अग्र	-10.7814
▁तप	-10.7821
▁रूपए	-10.7828
▁पिच	-10.783
-8	-10.7836
▁पत्त	-10.7837
टीएस	-10.7838
ाध्यक्ष	-10.7843
▁डरा	-10.7844
▁चुनौतिय	-10.7847
▁2012	-10.7848
▁आवंटन	-10.7848
▁अफवाह	-10.7848
धान	-10.7851
ंत्रित	-10.7851
▁यूनि	-10.7852
▁ट्रेंड	-10.7854
▁छू	-10.7855
▁आईजी	-10.7856
▁खंडवा	-10.7856
▁मूव	-10.7861
ंजिश	-10.7867
दाद	-10.7878
ओपीडी	-10.7889
▁भो	-10.7893
▁पंज	-10.7902
▁साहित्य	-10.7906
▁ससुर	-10.7906
▁अपलोड	-10.7908
▁काउंसलिंग	-10.7908
▁मिठाई	-10.7908
▁अंतरिक्ष	-10.7908
▁शॉप	-10.7908
▁बां	-10.7908
▁बच्चिय	-10.7908
नाड	-10.791
▁वास्तविक	-10.7912
▁बिज	-10.7912
▁दोषियों	-10.7915
ve	-10.7917
ोदय	-10.7918
▁शाला	-10.7919
▁रखता	-10.7923
▁जनजाति	-10.7931
▁AAP	-10.7934
ेटिव	-10.7935
विश्वास	-10.7935
▁विद्यालयों	-10.7937
▁रहमान	-10.7939
▁नै	-10.7947
▁आकर्ष	-10.7956
▁सीसी	-10.7962
ाचल	-10.7963
▁भिलाई	-10.7968
▁तूफान	-10.7968
▁अभ्यास	-10.7968
▁झील	-10.7969
सत्यापन	-10.7969
जाने	-10.7969
▁सूरत	-10.797
rat	-10.7973
जीवन	-10.798
▁गुण	-10.7983
▁बढ़ाकर	-10.7988
▁पाता	-10.799
▁हीरो	-10.7999
▁तिल	-10.8
▁फो	-10.8003
द्	-10.8008
▁बेटिय	-10.8012
▁बैनर	-10.8022
मोहन	-10.8026
▁सिक	-10.8026
▁दर्शात	-10.8029
▁शिल्प	-10.8029
▁गृहमंत्री	-10.8029
▁जूझ	-10.8031
▁चर्च	-10.8035
▁बगल	-10.8037
▁दलाल	-10.8039
▁प्रतिबंधित	-10.8041
▁बोलीं	-10.8045
▁सजाया	-10.8047
ुअल	-10.8049
▁आलिया	-10.805
हो	-10.8051
▁बं	-10.8057
▁दाल	-10.8063
▁बोलते	-10.8077
▁दिखी	-10.8077
क्ट	-10.8081
▁लौटे	-10.8086
▁उपमुख्यमंत्री	-10.809
▁क्रॉस	-10.809
▁हल्के	-10.809
▁स्टील	-10.809
▁ट्रांस	-10.8091
▁योग्य	-10.8093
▁गाना	-10.8095
▁08	-10.8095
▁73	-10.8099
▁बिछा	-10.8106
▁चतुर्थी	-10.8115
da	-10.8118
▁सुधी	-10.8119
▁देवास	-10.8129
▁मणि	-10.813
▁83	-10.8131
▁स्वीकृत	-10.8141
▁ओपी	-10.8148
▁मुरैना	-10.8151
▁कंप्यूटर	-10.8151
▁प्रोडक्ट	-10.8151
▁प्रिंट	-10.8151
▁सॉफ्ट	-10.8151
▁रंजीत	-10.8151
▁दशहरा	-10.8151
▁टोंक	-10.8155
▁गेस्ट	-10.8157
▁ढेर	-10.8163
▁कृति	-10.8169
▁रोप	-10.8172
▁सरदार	-10.8174
▁पुरुषों	-10.8174
▁गोवा	-10.8176
▁चयनित	-10.8179
हारी	-10.8192
▁ट्रेनें	-10.8196
40	-10.82
▁अंशु	-10.8212
चित्तौड़गढ़	-10.8213
▁थप्पड़	-10.8213
▁सक्सेना	-10.8213
▁जमुई	-10.8213
▁रिंकू	-10.8213
▁सम्राट	-10.8213
▁मालवीय	-10.8213
▁सेवानिवृत्त	-10.8213
▁वंदे	-10.8213
▁लिफ्ट	-10.8215
▁छात्रावास	-10.8217
▁महल	-10.8219
47	-10.8222
▁मिलियन	-10.8229
ेन्यू	-10.8235
▁साधक	-10.8236
ni	-10.824
पत्नी	-10.8245
र्च	-10.8245
▁74	-10.8247
▁RE	-10.8249
▁दयाल	-10.8254
नडे	-10.8265
▁पिछड़ा	-10.8272
▁साइन	-10.8272
▁कठोर	-10.8275
▁यूट्यूब	-10.8275
▁शेड्यूल	-10.8275
▁हिम्मत	-10.8275
▁टंकी	-10.8275
▁हिमांश	-10.8275
▁हुड्	-10.8275
▁देहात	-10.8275
▁कबूल	-10.8278
▁डोनाल्	-10.828
▁ग्रेड	-10.8285
गाह	-10.8286
मंद	-10.8287
▁उभर	-10.8288
▁भिंड	-10.8291
▁पहने	-10.8295
▁दक्षिणी	-10.8307
इंग	-10.8308
▁Ma	-10.831
▁c	-10.8313
▁निकाय	-10.8321
▁71	-10.8322
▁नोडल	-10.8337
▁कारावास	-10.8338
▁वाई	-10.8338
▁Khan	-10.8338
▁ढांच	-10.8339
▁सच्चाई	-10.8339
▁आभूषण	-10.8341
▁पदस्थ	-10.8343
▁प्रीति	-10.8353
▁कामना	-10.8357
▁लोकल	-10.8357
ऊंगा	-10.8365
बरेली	-10.837
पढ़ें	-10.837
▁सेठ	-10.8388
▁ड़ी	-10.8388
स्य	-10.8388
▁लेती	-10.8389
▁नक्सली	-10.8391
-24	-10.8396
▁अमावस्या	-10.84
▁परिचित	-10.84
▁सेंसेक्स	-10.84
▁अनुमंडल	-10.8401
▁गणपति	-10.8401
▁शेखावत	-10.8402
चरण	-10.8402
▁रणजीत	-10.8408
NDA	-10.8409
▁ब्लू	-10.841
▁मीरा	-10.8412
▁भगा	-10.8414
▁पान	-10.8423
▁आर्यन	-10.8434
▁SP	-10.8435
▁(4	-10.8438
▁उपलब्धि	-10.8442
▁आरसी	-10.8442
▁लात	-10.8448
▁तू	-10.8452
▁अंग्रेज	-10.8453
▁वेरिएंट	-10.8463
▁चेतन	-10.8464
▁डाले	-10.8465
▁भोले	-10.8465
▁चेयर	-10.8465
▁आनन	-10.8467
▁जहरील	-10.8469
▁वासी	-10.8475
▁बैड	-10.8475
▁जिम	-10.8476
▁आरोपित	-10.8477
▁आरके	-10.8477
सान	-10.8477
▁उमड़	-10.8484
▁जता	-10.8489
▁350	-10.8494
▁तंत्र	-10.8502
सागर	-10.8504
लैंड	-10.8509
▁बलिया	-10.8514
▁गहने	-10.8521
▁राघव	-10.8527
▁निरंतर	-10.8527
▁प्रकृति	-10.8527
▁प्लेटफार्म	-10.8527
राधिका	-10.8528
टेक्निक	-10.8528
▁निया	-10.8531
▁अखाड़	-10.8532
▁हायर	-10.8534
▁दि	-10.8535
्दे	-10.8543
▁टैग	-10.8544
▁बास	-10.8549
▁हीरा	-10.8556
▁बसंत	-10.8558
▁वंश	-10.8568
▁97	-10.8575
▁81	-10.8576
▁नेहा	-10.8582
▁शीतल	-10.859
▁बुलडोजर	-10.8591
▁सर्वेक्षण	-10.8591
▁हेक्टेय	-10.8591
▁मुराद	-10.8591
▁स्रोत	-10.8591
▁अधूर	-10.8592
▁धोखा	-10.8593
▁अगुवा	-10.8593
▁बिंदु	-10.8596
फानन	-10.8596
▁शोभा	-10.8596
▁निंदा	-10.8603
▁हैंडल	-10.8607
▁सिंगर	-10.8614
▁राजेन्द्र	-10.8614
▁रॉय	-10.8617
▁लता	-10.8623
▁वें	-10.8624
प्रतिनिधियों	-10.8639
▁फेस	-10.8643
▁असा	-10.8644
बिल	-10.8647
▁न्यायमूर्ति	-10.8656
▁प्राइम	-10.8656
▁हज़ार	-10.8656
▁समाजसेवी	-10.8656
▁मयंक	-10.8656
▁यंत्र	-10.8656
▁फौज	-10.8656
▁चिल्ला	-10.8658
▁गंदगी	-10.8658
▁पासपोर्ट	-10.8659
▁महासभा	-10.8664
▁सोचा	-10.8671
ct	-10.8675
्यूज	-10.8678
▁बचाया	-10.868
▁लालच	-10.8686
▁सहकार	-10.8692
▁गुड	-10.8693
▁चलाते	-10.8699
ज्ञ	-10.8711
▁इनाम	-10.8715
▁उत्पन्न	-10.8721
▁पथराव	-10.8721
▁दूल्ह	-10.8721
▁औरंगाबाद	-10.8721
▁डिवाइस	-10.8722
▁अग्निवीर	-10.8722
▁जातक	-10.8722
▁विदाई	-10.8723
▁सलाहकार	-10.8725
▁अलीगढ़	-10.8726
गरबा	-10.8727
▁पहलवान	-10.8727
▁मस्क	-10.8729
▁पश्चात	-10.8738
लिए	-10.8739
▁ेगी	-10.8739
▁तंज	-10.874
▁डु	-10.875
▁हथ	-10.8755
▁मंड	-10.8756
▁88	-10.8762
PS	-10.8766
मात्र	-10.8768
▁पैरा	-10.8774
▁मिलन	-10.8778
▁नकद	-10.8778
▁नारा	-10.8782
फ्टी	-10.8783
▁वैन	-10.8784
▁विजयवर्गीय	-10.8786
▁आवाजाही	-10.8786
▁जीआरपी	-10.8786
▁दरोगा	-10.8786
▁रिकार्ड	-10.8786
▁जोखिम	-10.8786
▁म्यूजिक	-10.8786
▁झूल	-10.879
▁चलाए	-10.8796
▁चुप	-10.8799
▁शूट	-10.88
▁India	-10.8802
▁सवा	-10.8807
-19	-10.8809
मक्ष	-10.8815
स्को	-10.8816
▁कमाल	-10.8817
X	-10.8824
▁पापा	-10.8833
▁साइ	-10.8843
▁पुष्पा	-10.8845
▁अविनाश	-10.8852
▁निषाद	-10.8852
▁पाठ्यक्रम	-10.8852
▁क़रीब	-10.8852
▁तख्त	-10.8852
▁प्रोडक्श	-10.8852
▁एनएस	-10.8853
▁सालाना	-10.8855
▁जियो	-10.8855
▁प्रसन्न	-10.8856
▁लिखे	-10.8856
त्मक	-10.8857
▁प्रजापति	-10.8857
▁रोह	-10.8861
▁नीतिय	-10.8864
▁रोष	-10.8866
टिया	-10.8871
▁क्लिक	-10.8874
एसीबी	-10.8876
han	-10.8878
▁डायल	-10.8878
वो	-10.8878
▁डिस्	-10.8879
नानक	-10.888
▁फास्ट	-10.8882
▁प्रण	-10.8882
▁इन्	-10.8885
▁वेब	-10.8885
▁बनेंगे	-10.889
-6	-10.8892
▁निशा	-10.8898
▁मुताबिक़	-10.89
▁टीका	-10.8905
▁घंटा	-10.8907
▁रिटायर	-10.8916
▁63	-10.8916
▁फेस्टिव	-10.8918
▁सरगुजा	-10.8918
▁सिद्दीकी	-10.8918
▁सर्वाधिक	-10.8918
▁सैलरी	-10.8918
▁अवतार	-10.8918
▁इत	-10.8918
▁तिराह	-10.8919
▁रिक्त	-10.8919
▁पिंक	-10.8923
्‍ट	-10.8929
▁आक्रोशित	-10.893
▁पारस	-10.8936
▁फिरोज	-10.8942
दियों	-10.8942
▁हलक	-10.8946
▁अना	-10.8952
▁टु	-10.8955
सिंघ	-10.8965
्‍त	-10.8968
▁वॉक	-10.8974
▁AI	-10.8982
▁वाल्मीक	-10.8985
▁हिंदुस्तान	-10.8985
▁इलाका	-10.8985
▁लंदन	-10.8985
▁वस्त्र	-10.8985
▁Ka	-10.8988
▁पोषण	-10.899
▁अटक	-10.8994
थन	-10.9
▁कुशल	-10.9001
▁कुएं	-10.9003
▁प्रॉ	-10.9007
▁उल	-10.901
▁जींद	-10.9014
▁ब्रिट	-10.9018
▁मस्त	-10.9019
▁सैफ	-10.9021
▁ठहर	-10.9036
▁एज	-10.9042
▁झांकी	-10.9043
▁स्वतंत्र	-10.9045
▁इक	-10.9046
▁सिंध	-10.9048
ृष्टि	-10.9049
▁भार्गव	-10.9052
▁सिल्वर	-10.9052
▁अभिनेत्री	-10.9052
▁फूट	-10.9053
▁इल	-10.9053
▁आदत	-10.9054
▁370	-10.9057
िमंडल	-10.9059
▁माइन	-10.9061
▁नमाज	-10.9066
▁क्वार्टर	-10.9071
▁बिंद	-10.9072
▁पैन	-10.9073
▁दोहरा	-10.9075
ांव	-10.9078
ho	-10.9083
िफ	-10.9088
ट्टा	-10.9091
▁तंग	-10.9101
ौरी	-10.9102
खण्ड	-10.9105
ia	-10.9114
▁सिफारिश	-10.9119
▁झामुमो	-10.9119
▁बुमराह	-10.9119
▁मछली	-10.9119
▁खिताब	-10.912
▁नवादा	-10.912
▁कामकाज	-10.9121
▁एजेंड	-10.9122
▁बसें	-10.9123
▁मिलीमीटर	-10.9123
▁प्रभात	-10.9125
▁हज	-10.9132
▁चै	-10.9136
कला	-10.9144
▁वंदना	-10.9145
▁गरज	-10.9149
▁दीं	-10.9149
▁निकाले	-10.9156
क्या	-10.9158
J	-10.9162
▁ईस्ट	-10.9162
लेखक	-10.9162
▁भूख	-10.9165
बंद	-10.9165
▁निदेश	-10.9172
▁श्र	-10.9177
▁1.2	-10.9177
▁टूटा	-10.918
▁बाजी	-10.9185
▁उग	-10.9186
▁इकलौत	-10.9187
▁फोगाट	-10.9187
▁सेक्रेटरी	-10.9187
▁हाजिर	-10.9187
▁निखिल	-10.9188
▁कीर्तन	-10.9188
▁रुचि	-10.9188
▁किराया	-10.9189
▁विंग	-10.919
▁79	-10.9194
▁शर्म	-10.9203
▁साधन	-10.9204
▁बिता	-10.921
▁बवाल	-10.9214
▁वॉल	-10.9216
▁याचिकाकर्ता	-10.9221
▁विभ	-10.9231
ियान	-10.9243
▁Go	-10.9251
▁विद	-10.9251
▁कर्तव्य	-10.9256
▁चैलेंज	-10.9256
▁थिएटर	-10.9256
▁श्रीगंगानगर	-10.9256
▁अत्याचार	-10.9256
▁लघु	-10.9256
▁अभाव	-10.9256
▁मेकर्स	-10.9256
▁इन्हीं	-10.9258
▁हैरिस	-10.9259
▁आकर्षण	-10.926
▁तकरी	-10.9264
▁कोठी	-10.9265
▁लिव	-10.9271
बुल	-10.9278
GB	-10.9281
▁कवि	-10.9282
▁आर्म	-10.9286
ऊ	-10.929
पोल	-10.9294
ुद्दीन	-10.9294
▁नाला	-10.9301
▁गणना	-10.9304
सफाई	-10.9307
▁बनती	-10.9317
▁शास	-10.9323
▁ऋण	-10.9325
▁एनकाउंटर	-10.9325
▁क़ानून	-10.9325
▁चूंकि	-10.9325
▁प्रैक्टिस	-10.9325
▁फेसबुक	-10.9325
▁सत्संग	-10.9325
▁इराद	-10.9325
सीएचसी	-10.9325
-2024	-10.9326
पीट	-10.9326
▁तलवार	-10.9328
▁खोले	-10.9331
▁शीश	-10.9332
▁Y	-10.9332
▁सुनाया	-10.9339
▁यु	-10.9341
▁प्रस	-10.9341
▁मिड	-10.9343
▁बुध	-10.9348
▁रचना	-10.9353
▁नॉन	-10.9355
▁भंग	-10.9357
▁भोज	-10.9361
▁98	-10.9361
▁ंगी	-10.9361
▁करवाकर	-10.9362
▁पाप	-10.9364
बर्ग	-10.9371
▁शूटर	-10.9373
▁मजबूती	-10.9378
▁गुरू	-10.938
बाज	-10.938
▁आयुर्वेद	-10.9394
▁रवींद्र	-10.9394
▁राजमार्ग	-10.9394
▁सर्वोच्च	-10.9394
▁ईमानदार	-10.9394
▁पुतिन	-10.9394
▁शौक	-10.9395
▁जेवरात	-10.9395
▁क्रमांक	-10.9396
▁रोमां	-10.9396
▁ऑडियो	-10.9397
▁सरोज	-10.9398
▁जोड़कर	-10.9398
▁सेहत	-10.9399
▁लड़कियां	-10.94
▁उमा	-10.9401
▁डंपर	-10.9404
वर्धन	-10.9405
▁96	-10.9405
▁एसओ	-10.9405
▁व्हील	-10.941
▁गतिविधि	-10.9412
▁डील	-10.9417
▁एमएस	-10.9422
▁बंधन	-10.9426
▁बहरा	-10.943
लपुर	-10.9452
▁61	-10.946
▁इकोनॉम	-10.9464
▁अधिग्रह	-10.9464
▁सिसोदिया	-10.9464
▁नर्मदापुरम	-10.9464
▁बंदूक	-10.9465
▁जायेगा	-10.9465
▁निशुल्क	-10.9465
▁गोवंश	-10.9466
▁स्त्री	-10.9467
्वालिटी	-10.9467
प्रदर्शनकारियों	-10.9468
▁सीने	-10.947
डेयरी	-10.9475
रेन	-10.9475
▁पट्	-10.9481
▁कास्ट	-10.9486
▁रव	-10.9487
▁करूंगा	-10.9488
▁खेर	-10.9489
▁अजित	-10.9489
▁पॉल	-10.9492
▁बढ़े	-10.9497
▁उद्	-10.9503
▁डेरा	-10.9504
▁डीपी	-10.9509
▁पालक	-10.951
▁एमएल	-10.951
▁रमन	-10.9512
लाद	-10.9515
ेंसी	-10.9517
▁जोड़े	-10.9529
▁मऊ	-10.9533
वृत्ति	-10.9535
▁जन्माष्टमी	-10.9535
▁जॉइन	-10.9535
▁शिक्षिका	-10.9535
▁खनिज	-10.9535
टेनेंस	-10.9535
▁फिसल	-10.9535
▁बुलेट	-10.9536
▁नायड	-10.9538
▁विवाहिता	-10.9539
▁नींद	-10.954
▁दादी	-10.9541
▁अंध	-10.9541
▁मीन	-10.9541
▁समझाया	-10.955
तीत	-10.9553
▁खीर	-10.9553
▁बनारस	-10.9579
शंकर	-10.9587
▁सरस	-10.9598
▁87	-10.9601
▁कृ	-10.9601
CB	-10.9604
▁फैन	-10.9605
कल्प	-10.9605
▁गोस्वामी	-10.9606
▁जमशेदपुर	-10.9606
▁जलभराव	-10.9606
▁डिब्ब	-10.9606
▁भारद्वाज	-10.9606
▁सेमीफाइनल	-10.9606
▁सौभाग्य	-10.9606
▁कटिहार	-10.9606
▁शिशु	-10.9606
▁स्ट्राइक	-10.9606
▁स्वात	-10.9608
▁गाइड	-10.9608
▁बेर	-10.9608
▁रीजन	-10.9613
▁आदिवास	-10.9615
चाल	-10.9616
▁मेघ	-10.9616
▁रहवास	-10.9621
▁देवर	-10.9622
सिया	-10.9636
▁सनी	-10.9637
▁ऑफ़	-10.9638
आम	-10.9639
▁दया	-10.9649
▁वाइ	-10.965
▁एग्जि	-10.9651
▁मोति	-10.9656
रक्षित	-10.9659
वेदन	-10.9661
▁बैज	-10.9668
‍ि	-10.967
-0	-10.9673
▁IAS	-10.9677
▁इलाहाबाद	-10.9677
▁वाजपेयी	-10.9677
▁हृदय	-10.9677
▁गूंज	-10.9677
▁पैलेस	-10.9677
▁नारनौ	-10.9677
▁डिस्प्ले	-10.9677
▁सलीम	-10.9677
▁सहारा	-10.9678
▁डेवलपमेंट	-10.9678
▁पहना	-10.9679
▁युक्त	-10.9684
▁वीजा	-10.9686
▁बीमारिय	-10.97
एक्स	-10.9701
▁डब	-10.9705
▁राजगढ़	-10.9711
▁तरीका	-10.9714
शुद	-10.9717
▁जनक	-10.9719
▁रामगढ़	-10.9723
दोष	-10.9733
▁अनीत	-10.9741
▁नवाज	-10.9743
बाजी	-10.9745
ैं	-10.9749
▁ट्रांसफार्मर	-10.9749
▁पुण्य	-10.9749
▁इशारा	-10.9749
▁पठान	-10.9749
▁कीर्ति	-10.9749
▁रनौत	-10.9751
▁झंडा	-10.9753
aj	-10.9753
▁अनुदान	-10.9753
▁चिह्नित	-10.9753
▁घेराव	-10.9759
▁हवाएं	-10.9762
नानी	-10.9769
▁गायक	-10.9773
लिका	-10.9773
जय	-10.9777
श्च	-10.9777
▁लगाएं	-10.9784
▁शह	-10.9789
▁ऑपरेटर	-10.9793
वाइस	-10.9793
▁बचत	-10.9794
▁घटा	-10.9795
▁तेर	-10.9796
भान	-10.9801
▁194	-10.9801
▁सच्च	-10.9804
▁एसटी	-10.9806
IC	-10.9808
▁छत्र	-10.9812
▁मुंडा	-10.9813
▁गल	-10.9814
▁्ड	-10.9816
ार्टमेंट	-10.9818
▁आवेदक	-10.9822
▁सिलसिले	-10.9822
▁जेडीयू	-10.9822
▁झगड़े	-10.9822
▁तत्वावधान	-10.9822
▁प्रदर्शित	-10.9822
▁भेदभाव	-10.9822
▁सुपरस्टार	-10.9822
▁पंचांग	-10.9822
▁दबोच	-10.9822
▁अमीर	-10.9822
▁व्यस्त	-10.9823
▁शाहिद	-10.9824
▁फर्	-10.9829
घात	-10.9831
▁गम	-10.9832
▁कंध	-10.9836
▁नागपुर	-10.9838
लायन	-10.985
▁ईद	-10.985
▁आजम	-10.9851
▁लाना	-10.9852
▁घोटाला	-10.9854
▁डीह	-10.9859
▁भटक	-10.9867
▁125	-10.987
मिंग	-10.9874
सामने	-10.9875
बाद	-10.9877
▁उठे	-10.9881
सराय	-10.9881
ट्टी	-10.9892
▁तत्वों	-10.9894
▁आंगनबाड़ी	-10.9895
▁इलेक्शन	-10.9895
▁नर्मदा	-10.9895
▁निस्तारण	-10.9895
▁पौधारोपण	-10.9895
▁शॉट	-10.9895
▁टॉस	-10.9895
▁समाचार	-10.9895
▁स्टाइल	-10.9896
▁कोयला	-10.9897
▁हाइवे	-10.9897
▁जनप्रतिनिधियों	-10.9898
▁प्रताड़ित	-10.9898
वश्य	-10.9901
▁एसीपी	-10.9901
▁उम	-10.9908
▁अध	-10.9917
▁श्रेय	-10.9918
▁पीएस	-10.9922
्योर	-10.9929
▁टोक	-10.9932
▁पटाख	-10.9944
त्रा	-10.9945
▁मियां	-10.9948
;	-10.9949
▁मंग	-10.9952
रूम	-10.9962
▁राजन	-10.9966
▁82	-10.9967
▁इन्वेस्ट	-10.9968
▁प्रौद्योगिक	-10.9968
▁बिट्टू	-10.9968
▁बैतूल	-10.9968
▁प्लाजा	-10.9968
▁खिड़क	-10.9968
▁कागजात	-10.9968
▁जावेद	-10.9968
▁दानापुर	-10.9968
▁दीक्षा	-10.9969
▁मॉनिटरिंग	-10.9969
▁स्पेस	-10.9969
कॉमर्स	-10.9972
▁डिज	-10.9973
▁राउ	-10.9974
▁मुहै	-10.9977
▁बाबर	-10.9979
▁साड़ी	-10.9983
▁उलझ	-10.999
हाँ	-10.9996
▁कस्ब	-10.9996
▁कट्टा	-11.0014
समय	-11.002
▁दूसर	-11.0021
▁महंगा	-11.0023
▁शु	-11.0028
▁कपड़	-11.0036
झुंझुनूं	-11.0042
▁इजाफा	-11.0042
▁महिंद्रा	-11.0042
▁वैभव	-11.0042
▁सीएमएचओ	-11.0042
▁बर्दाश्	-11.0042
▁इलेक्ट	-11.0043
▁मेहमान	-11.0044
▁समीकरण	-11.0045
▁बटाल	-11.0045
▁टाइट	-11.0048
▁प्रतापगढ़	-11.0048
▁शील	-11.0048
▁लहरा	-11.0052
▁एकेडम	-11.0053
ोड़	-11.0053
▁चार्जिंग	-11.0056
ाइंड	-11.0058
▁ंगे	-11.0058
▁पदार्थों	-11.006
▁आगमन	-11.0062
▁संभाला	-11.0063
ोहर	-11.0065
▁इस्तीफ	-11.0067
▁कुश	-11.0068
▁रिंग	-11.008
ैत	-11.0093
▁मूंग	-11.0094
▁नूर	-11.0103
▁गुस्स	-11.0105
▁कप्तानी	-11.011
▁बांस	-11.0112
बठिंडा	-11.0117
▁दायित्व	-11.0117
▁परिचालन	-11.0117
▁भैंस	-11.0117
▁चचेर	-11.0117
▁दादरी	-11.0117
▁फुटबॉल	-11.0117
आवासीय	-11.0117
▁बैटिंग	-11.0117
▁ड्रि	-11.0118
2010	-11.0118
▁निर्माणाधीन	-11.0119
▁आमंत्रित	-11.012
▁झुक	-11.012
▁कॉलोनिय	-11.0121
▁पैकेज	-11.0121
रामलीला	-11.0122
▁चीख	-11.0123
▁अवधेश	-11.0124
▁बेल्ट	-11.0124
▁आकर्षित	-11.0127
▁रखेंगे	-11.0127
▁कबीर	-11.0128
▁पटरी	-11.0129
डीह	-11.0139
▁b	-11.0143
▁मैथ	-11.0151
▁पेटी	-11.0158
ल्ले	-11.0162
संवैधानिक	-11.0164
केश	-11.0167
▁गवर्न	-11.017
▁निर्वाच	-11.017
▁नाकाम	-11.0174
्‍म	-11.0174
चार्ज	-11.0176
▁सतर्क	-11.0185
िंस	-11.0189
▁कन्हैया	-11.019
▁सिद्धांत	-11.0192
▁विवरण	-11.0192
▁बिल्डर	-11.0192
▁फरियाद	-11.0192
दौलत	-11.0193
▁Day	-11.0194
▁सीताराम	-11.0194
▁लाभार्थ	-11.0194
▁दांव	-11.0195
▁विफल	-11.0196
▁बीएस	-11.0196
▁गतिविधियां	-11.0198
ta	-11.0201
▁जानता	-11.0204
▁कैट	-11.0205
▁कोहरा	-11.0206
▁बरस	-11.0215
▁निशाने	-11.0221
▁बॉस	-11.0222
DA	-11.0223
▁बीआर	-11.0224
▁ऑफि	-11.0225
▁दीदी	-11.0228
▁जेट	-11.0233
▁समृद्धि	-11.0234
▁दृश्य	-11.0242
▁चो	-11.0245
▁उपज	-11.0256
फैशन	-11.0265
▁आयोजक	-11.0268
▁द्विवेदी	-11.0268
▁सोसायटी	-11.0268
▁पौधों	-11.0268
▁विचारधारा	-11.0268
▁ध्वज	-11.0268
▁माहेश्वरी	-11.0268
▁पैसेंजर	-11.0268
▁ब्लास्ट	-11.0268
▁कार्मिक	-11.0268
▁ग़ज़	-11.0268
▁एसडीपीओ	-11.0268
▁कोविड	-11.0269
▁मालवा	-11.0269
▁बलात्कार	-11.0269
▁त्याग	-11.0269
▁इरफ	-11.027
▁Pro	-11.027
▁बूंद	-11.0271
▁राज्यमंत्री	-11.0273
▁वर्द	-11.0273
▁ढाब	-11.0274
▁प्रदेशाध्यक्ष	-11.0277
▁पाएगा	-11.028
ंदर	-11.0286
▁रक्त	-11.0289
▁रील	-11.0297
▁खुली	-11.0298
▁लिहाज	-11.0298
न्नू	-11.0301
लभ	-11.0319
▁84	-11.032
▁संचार	-11.0321
्ज़	-11.0327
दयाल	-11.0327
▁बाड़ी	-11.0335
▁कलां	-11.0342
▁बौद्ध	-11.0344
▁पाटीदार	-11.0344
ादित्य	-11.0344
▁ख्याल	-11.0344
▁कैफ	-11.0345
▁आलू	-11.0345
▁मेघवाल	-11.0345
▁बढ़ेगी	-11.0354
▁ढोल	-11.036
▁बुलाई	-11.0366
तीन	-11.0372
▁एट	-11.038
गोष्ठ	-11.0382
▁-1	-11.0393
▁मंजू	-11.0396
▁बैन	-11.04
▁बेरोजगारी	-11.0401
▁कपड़ा	-11.0404
मास	-11.0404
▁गैंगरेप	-11.0421
▁दिग्विजय	-11.0421
▁ध्वस्त	-11.0421
▁पीडब्ल्यूडी	-11.0421
▁व्याख्या	-11.0421
▁बुखार	-11.0421
▁तिमाह	-11.0421
▁नौसेना	-11.0421
▁मातृ	-11.0422
▁चालीस	-11.0424
▁प्रसंग	-11.0425
▁रजनी	-11.0428
▁दोगुन	-11.0431
▁रैक	-11.0432
▁वर्कर	-11.0436
▁धूल	-11.0438
▁ग्रह	-11.0439
रेंज	-11.044
▁महानगर	-11.0443
▁हेमा	-11.0447
▁बनेगी	-11.0452
▁पहुंचेंगे	-11.0453
▁एकत्र	-11.0454
▁ऑय	-11.0463
▁900	-11.0465
▁मेवाड़	-11.0467
▁द्वीप	-11.047
▁प्रिया	-11.0471
कड़े	-11.0493
▁भरकर	-11.0496
▁माय	-11.0497
▁IND	-11.0498
▁आपातकाल	-11.0498
▁नड्डा	-11.0498
▁शिनाख्त	-11.0498
▁सशक्त	-11.0498
▁मैरिज	-11.0498
▁पंजीयन	-11.0498
▁भरोसे	-11.0499
▁झो	-11.0499
▁नहाने	-11.0499
एडीएम	-11.0504
▁गोर	-11.0504
▁सचिवालय	-11.0506
▁काउंटर	-11.0506
▁डिस	-11.0507
▁फतेहपुर	-11.0508
डोर	-11.0508
स्‍त	-11.0509
▁नीलम	-11.0515
▁450	-11.0519
टेस्ट	-11.0528
धीर	-11.0529
▁चित	-11.0534
▁110	-11.0538
पान	-11.0541
▁निर्देशक	-11.0541
▁राग	-11.0552
▁निकलकर	-11.0555
▁नतीजा	-11.0566
▁उड़ाने	-11.0574
▁साधना	-11.0574
CP	-11.0575
▁कॉरिडोर	-11.0577
▁घनश्याम	-11.0577
▁पुरोहित	-11.0577
▁वेस्टइंडीज	-11.0577
▁वॉट्सऐप	-11.0577
▁पटियाला	-11.0577
▁ठेका	-11.0577
▁प्रकट	-11.0577
▁कतार	-11.0577
▁पार्टनर	-11.0578
▁प्रधानाचार्य	-11.0579
▁सैमस	-11.0584
▁ओला	-11.0586
▁धोनी	-11.0587
-11	-11.0588
▁ठेल	-11.059
रक्षक	-11.0591
▁सीमेंट	-11.0599
त्रित	-11.0601
▁आैर	-11.061
▁फु	-11.0612
▁प्रसार	-11.0614
▁ईशा	-11.0614
▁साई	-11.0616
▁प्लस	-11.0618
▁पर्वत	-11.0618
wa	-11.0624
▁खि	-11.0626
▁गोला	-11.0631
▁गायन	-11.0633
75	-11.0636
▁पद्म	-11.0637
▁खाई	-11.0637
गणना	-11.064
पश्चिम	-11.0641
पुल	-11.0642
बड़े	-11.0648
खड़	-11.0652
▁पारदर्श	-11.0655
▁चार्जशीट	-11.0655
▁धौलपुर	-11.0655
▁पीयूष	-11.0655
▁सितम्बर	-11.0655
▁सोनाक्षी	-11.0655
▁हेल्पलाइन	-11.0656
▁मजाक	-11.0656
▁प्लाट	-11.0656
▁सिनेमाघर	-11.0656
▁रिलायंस	-11.0656
▁ड्रा	-11.0657
▁पर्ची	-11.0657
▁समीर	-11.0658
▁बर्फ	-11.0659
▁लाय	-11.0659
▁हवन	-11.0661
▁बुद्धि	-11.0667
▁जया	-11.067
▁नीम	-11.0672
de	-11.0676
फिक	-11.0677
▁लाड	-11.0679
▁निचले	-11.068
कैंपस	-11.0683
▁...'	-11.0684
▁योजनाएं	-11.0706
▁मॉल	-11.0719
▁पलव	-11.0725
Phone	-11.0735
Q	-11.0735
▁अख्तर	-11.0735
▁पिस्तौल	-11.0735
▁प्रतिष्ठित	-11.0735
▁प्रमोशन	-11.0735
▁प्रवर्तन	-11.0735
▁फेडरेशन	-11.0735
▁मिथुन	-11.0735
▁शिक्षण	-11.0735
▁श्वेता	-11.0735
▁संविदा	-11.0735
▁हेरोइन	-11.0735
▁खोजबीन	-11.0735
▁ग्रंथ	-11.0735
▁मेजबान	-11.0735
▁रिलेशन	-11.0735
▁गर्दन	-11.0735
▁कालोनी	-11.0735
▁खेड़ी	-11.0735
▁पाटिल	-11.0736
▁दलील	-11.0737
▁माया	-11.0738
▁भैया	-11.074
▁तत्व	-11.0742
▁गाज	-11.0744
▁कुरु	-11.0746
▁सकेगी	-11.0752
▁चरित	-11.0754
▁सिद्धि	-11.0755
▁टेली	-11.0757
ीमत	-11.0758
▁सराय	-11.0761
▁माली	-11.0761
िंटू	-11.0768
▁दिव्या	-11.0768
▁चट	-11.0773
गाम	-11.0777
▁1500	-11.0794
▁सीरिया	-11.0797
निर्देश	-11.0802
▁डीलर	-11.0803
▁जुआ	-11.0804
▁मेट	-11.0805
▁रिक	-11.0808
तोड़	-11.081
▁संग्रह	-11.0814
▁अंबिकापुर	-11.0815
▁फ्रॉड	-11.0815
▁वृंदावन	-11.0815
▁साप्ताहिक	-11.0815
▁सीतामढ़ी	-11.0815
▁ट्रिप	-11.0816
▁मदरस	-11.0819
▁कमांड	-11.0821
▁मात	-11.0823
▁सिद्धू	-11.0826
▁नाच	-11.083
▁डिपो	-11.0838
▁वाक	-11.0842
▁दश	-11.0849
▁भूत	-11.085
▁फिज	-11.0854
▁कचर	-11.0854
▁मिनी	-11.0857
▁मनु	-11.0865
गुरु	-11.0882
▁सीआई	-11.0883
॥	-11.0883
ter	-11.0883
आईपीएस	-11.0887
ik	-11.0887
संपूर्ण	-11.0891
क्राफ्ट	-11.0895
▁जडेजा	-11.0895
▁नोटिफिकेशन	-11.0895
▁मूल्यांकन	-11.0895
▁विक्रेता	-11.0895
▁श्रृंगार	-11.0895
▁संदर्भ	-11.0895
▁फॉलो	-11.0895
▁बाइडन	-11.0895
▁शिवलिंग	-11.0896
▁स्टॉल	-11.0897
▁जालोर	-11.0898
▁अधिसूचना	-11.0898
▁कोरबा	-11.0899
▁खदान	-11.0902
▁टायर	-11.0902
▁गजेंद्र	-11.0903
▁जरिय	-11.0904
▁तर्ज	-11.0908
▁खाड़	-11.0908
▁जाटव	-11.0909
▁लैस	-11.0913
▁आयकर	-11.0913
▁नाना	-11.0917
डू	-11.0919
▁गणित	-11.0923
ंद्रा	-11.0933
▁+	-11.0942
▁मुख्त	-11.0945
▁दीवान	-11.095
मिंट	-11.0951
▁बची	-11.0956
▁जेई	-11.0959
▁धड़	-11.0964
जीविका	-11.0967
▁फीचर	-11.0968
आइ	-11.097
▁पाट	-11.0973
▁मनोरंज	-11.0977
▁शेट्टी	-11.0977
▁किस्मत	-11.0977
▁इकबाल	-11.0977
▁खुर्द	-11.0978
▁समग्र	-11.0979
▁लक्षण	-11.098
▁रखवाया	-11.0981
▁खेम	-11.0981
▁हिंद	-11.0982
बहन	-11.0984
▁प्रतिबद्धता	-11.0984
▁हांसी	-11.0986
▁सीएमओ	-11.1003
▁तारा	-11.1011
▁नमक	-11.1016
ूति	-11.1028
▁अमान	-11.1028
▁विस्फोट	-11.104
▁भिड़	-11.1043
गाई	-11.1043
▁स्थिर	-11.1048
▁चिन्ह	-11.1052
▁अध्यापक	-11.1059
▁उपलक्ष्य	-11.1059
▁स्थगित	-11.1059
▁स्मारक	-11.1059
▁प्रशंसा	-11.1059
▁सरेंडर	-11.1059
▁उछाल	-11.1059
▁हिस्सेदारी	-11.1059
▁स्वयंसेवक	-11.1059
▁चक्रवात	-11.1059
▁नूं	-11.1059
▁बांसवाड़ा	-11.1059
▁लोकेश	-11.1064
▁घिर	-11.1064
▁पीपल	-11.1065
▁साधु	-11.1066
▁ज़िल	-11.1067
▁नागौर	-11.1068
▁वृ	-11.1072
▁भुल	-11.1072
▁मोहनलाल	-11.1076
80	-11.1082
▁दिव	-11.1082
▁डेड	-11.1085
वाट	-11.1088
▁ब्रह्मा	-11.1096
▁चौथा	-11.11
▁93	-11.1111
बंध	-11.1115
रुण	-11.1118
99	-11.1119
सिस	-11.1128
▁डायरेक्ट	-11.1128
▁पेन	-11.1138
▁इलाक़	-11.1141
▁एहसास	-11.1141
▁डूंगरपुर	-11.1141
▁अनियमितता	-11.1141
▁चिकित्सालय	-11.1141
▁पितृ	-11.1141
▁फाटक	-11.1141
▁घसीट	-11.1141
▁ठहराया	-11.1142
▁वृक्ष	-11.1143
▁नीलामी	-11.1143
▁डोडा	-11.1144
जब	-11.1144
ाणिक	-11.1145
▁संजू	-11.1146
▁AL	-11.1149
▁संक	-11.1151
▁वरीय	-11.1154
▁Cha	-11.1159
▁भाटी	-11.1159
रात	-11.116
▁बरसा	-11.1172
डीआर	-11.1172
▁हाउसिंग	-11.1181
ठिया	-11.1186
▁इसराइली	-11.1187
▁यूज	-11.1194
हड़	-11.1199
ासन	-11.1208
▁लोकप्रिय	-11.1214
▁मंगवा	-11.1219
▁छापा	-11.1219
▁हनी	-11.1219
▁घोष	-11.1224
▁आराधना	-11.1225
▁परामर्श	-11.1225
▁पहलुओं	-11.1225
▁धीमी	-11.1225
▁गाजीपुर	-11.1225
▁गोलीबारी	-11.1225
▁बीघा	-11.1225
▁विभाजन	-11.1225
▁गुजार	-11.1225
▁स्नेह	-11.1226
▁वैध	-11.1228
▁स्टडी	-11.1229
लीन	-11.123
▁क्षण	-11.1231
एमसीएच	-11.1234
▁सुचार	-11.1237
▁एसके	-11.124
▁उद्योगपति	-11.1242
▁जत	-11.1244
▁निपटा	-11.1246
▁म्यू	-11.1247
▁पाय	-11.1249
ST	-11.1251
CA	-11.1253
ादेश	-11.1256
▁जाओ	-11.1259
se	-11.1259
▁क्री	-11.1262
▁शेड	-11.1268
▁दिव्य	-11.1273
▁n	-11.1278
▁2.5	-11.1287
▁सीतापुर	-11.1291
▁मवेश	-11.1297
Y	-11.13
ैद	-11.1302
▁दिलवा	-11.1304
▁रुके	-11.1305
▁तीज	-11.1306
▁चतुर्वेदी	-11.1309
▁तृण	-11.1309
▁मच्छर	-11.1309
▁इमाम	-11.1309
▁अधीन	-11.131
▁गोवर्धन	-11.131
▁अलमार	-11.1311
▁फटकार	-11.1312
▁स्वर्ग	-11.1313
▁सैन	-11.1318
▁2024)	-11.1327
▁दीपेंद्र	-11.1332
▁हिंस	-11.1332
युवतिय	-11.1334
▁पिंड	-11.1336
▁परमार	-11.1339
▁ब्रज	-11.134
▁रामेश्वर	-11.1346
▁टुकड़	-11.1347
▁भाग्य	-11.1347
कुश	-11.1348
▁सेक्शन	-11.135
▁बाइ	-11.1352
▁सुधा	-11.1361
▁नमी	-11.1363
ऑ	-11.1381
▁आतिशी	-11.1393
▁डाउनलोड	-11.1393
▁दंपती	-11.1393
▁बाउंड्री	-11.1393
▁राजनांदगांव	-11.1393
▁विपरीत	-11.1393
▁नवजात	-11.1393
▁राजसमंद	-11.1393
▁बेनीवाल	-11.1393
▁कंटे	-11.1394
▁ब्लैकमेल	-11.1394
▁टेस्‍ट	-11.1394
▁बीएसएफ	-11.1395
▁प्वाइंट	-11.1396
▁सभापति	-11.1398
▁तबाह	-11.1398
▁पशुपाल	-11.14
▁ज़रूरत	-11.14
.15	-11.1402
▁सोहन	-11.1402
आईसीसी	-11.1404
युक्त	-11.1404
र्मिला	-11.1411
▁विमल	-11.1412
▁अकादमी	-11.1413
▁झांक	-11.1415
थवा	-11.1419
▁अखंड	-11.1419
▁बेचा	-11.142
▁सुज	-11.1425
▁करीना	-11.1429
वाय	-11.1431
▁सितार	-11.1435
▁कच	-11.1443
▁जीजा	-11.1449
▁चौपा	-11.1451
शिरोमणि	-11.1479
▁धमाके	-11.1479
▁फ़िल्म	-11.1479
▁सीतारमण	-11.1479
▁वैदिक	-11.1479
▁एनर्जी	-11.1479
▁लेफ्ट	-11.1479
▁जौन	-11.1479
▁वैशाली	-11.1479
तफरी	-11.1483
▁स्ल	-11.1488
▁मुंड	-11.1494
▁घुसे	-11.1498
ish	-11.1501
▁देह	-11.1505
▁डंड	-11.1514
▁मंजूर	-11.1515
▁अनुपम	-11.1516
▁उद	-11.1519
ाबड़	-11.1521
▁भंवर	-11.1521
थला	-11.1523
ाशी	-11.1528
यह	-11.1528
▁मकर	-11.1532
▁इज	-11.1537
मराव	-11.1554
▁चाल	-11.156
▁कमरा	-11.1563
▁रजिस्टर	-11.1564
इच	-11.1565
▁Weather	-11.1565
▁कैंसिल	-11.1565
▁मल्लिकार्जुन	-11.1565
▁सब्सिडी	-11.1565
▁उत्तम	-11.1565
▁तुर्की	-11.1565
▁मेरिट	-11.1565
▁मुरली	-11.1565
▁सहरसा	-11.1565
▁रसोई	-11.1566
▁जागर	-11.1566
▁बीपी	-11.1566
▁पंजीकरण	-11.1566
▁नक्सल	-11.1566
▁आरएसएस	-11.1568
▁ओझा	-11.1568
▁पीटीआई	-11.1572
▁बिन	-11.1577
▁बजाज	-11.1578
▁In	-11.1583
▁मैक	-11.1585
▁चूक	-11.1588
▁मौल	-11.1593
▁बैल	-11.1601
किन	-11.1618
▁म्	-11.162
▁स्टो	-11.1623
ll	-11.1627
▁प्रतिष्ठान	-11.1636
▁ग्रेजुए	-11.1652
▁चुप्पी	-11.1652
▁जानबूझ	-11.1652
▁तुम्हे	-11.1652
▁पूर्वानुमान	-11.1652
▁हीटवेव	-11.1652
▁सुलझा	-11.1652
▁सूबे	-11.1652
ंतरिक	-11.1652
▁अनुशासन	-11.1652
▁रजिस्टर्ड	-11.1653
▁गिफ्ट	-11.1654
▁छपरा	-11.1655
▁भूपेश	-11.1657
▁अफरा	-11.166
▁चिन्हित	-11.1661
▁वीके	-11.1663
ग्रस्त	-11.1667
▁निफ्ट	-11.1669
PC	-11.1673
▁दाव	-11.1673
▁आला	-11.1698
▁आतंकवादी	-11.1701
▁बुद्ध	-11.1707
▁यों	-11.1711
▁फोड़	-11.1716
▁लिंग	-11.1719
ot	-11.172
तिथि	-11.1727
▁धुन	-11.1735
मुझे	-11.1735
▁अष्टमी	-11.174
▁इंटेलिजेंस	-11.174
▁गडकरी	-11.174
▁धर्मशाला	-11.174
▁लोकार्पण	-11.174
▁सोयाबीन	-11.174
▁बर्फबारी	-11.174
▁बलौदा	-11.174
▁बर्तन	-11.174
▁(25	-11.174
▁आंसू	-11.174
▁नाकाबंदी	-11.174
▁बहिष्क	-11.174
च्छेद	-11.174
▁एडमिट	-11.1741
▁मोहाली	-11.1741
▁यहाँ	-11.1741
▁तह	-11.1741
▁मुन्ना	-11.1742
▁आक्रामक	-11.1743
▁डब्ल्यू	-11.1743
▁मिलावट	-11.1748
▁शेखर	-11.176
▁निकायों	-11.1763
▁सपने	-11.1771
लोकतांत्रिक	-11.1771
▁पहुंचीं	-11.1773
▁मायाव	-11.1774
▁टाल	-11.1777
▁भाभ	-11.1785
प्पा	-11.1795
▁(5	-11.1796
▁तीख	-11.1798
▁परिवर्त	-11.1806
▁160	-11.181
▁अपेक्षा	-11.1828
▁गर्ल्स	-11.1828
▁गिरिडीह	-11.1828
▁टर्मिनल	-11.1828
▁मुंगेर	-11.1828
व्यावसायिक	-11.1828
▁लीजिए	-11.1828
▁पूंजी	-11.1828
▁सावित्र	-11.1829
▁स्थानांतर	-11.183
▁ढाका	-11.1832
▁वॉर	-11.1832
▁फंदा	-11.1833
वायु	-11.1835
बाजार	-11.1838
▁ओपनिंग	-11.1842
mp	-11.1854
▁तौ	-11.1861
▁पराली	-11.1862
▁शत	-11.1862
▁साहि	-11.1871
▁जीरो	-11.1873
▁ढह	-11.1873
▁बारीक	-11.1874
90	-11.1876
िये	-11.1878
▁बाप	-11.1883
▁शेखपुर	-11.1884
मिर्जापुर	-11.1889
न्हा	-11.189
जुल	-11.1897
▁उच्चत	-11.19
एसएस	-11.19
pur	-11.1902
▁सिंग	-11.1904
▁91	-11.191
▁संबोध	-11.1913
▁दाग	-11.1913
डब्ल्यू	-11.1914
▁जनप्रतिनिधि	-11.1917
▁जहानाबाद	-11.1917
▁फडणवीस	-11.1917
▁फेमस	-11.1917
▁सहारनपुर	-11.1917
▁कैपिटल	-11.1917
▁अनुकूल	-11.1918
▁भरपूर	-11.1918
▁दीजिए	-11.1918
▁दामाद	-11.1918
▁फिजिकल	-11.1918
डीआईजी	-11.1918
▁(2)	-11.1918
▁सरल	-11.1919
▁दूंगा	-11.1925
▁तैर	-11.1932
▁टेंट	-11.1935
ंकित	-11.1935
▁मसा	-11.1939
विवाहित	-11.194
▁अग्रस	-11.1943
▁लखन	-11.1947
▁चैक	-11.1947
27	-11.1956
दशी	-11.1958
हीन	-11.1977
▁मंगा	-11.1979
▁w	-11.1981
▁डीन	-11.1982
▁रम	-11.1988
▁लेखक	-11.1992
▁स्टा	-11.1992
▁व्यवस्थाओं	-11.1995
▁ज़रूर	-11.2
आवारा	-11.2002
▁रिश्त	-11.2005
▁परिवाद	-11.2005
फोन	-11.2005
▁शुक्र	-11.2007
▁डायवर्ट	-11.2008
▁डॉक्यूमेंट	-11.2008
▁परिक्रमा	-11.2008
▁प्रोफेशनल	-11.2008
▁भगदड़	-11.2008
▁महाकुंभ	-11.2008
▁रजिस्ट्रार	-11.2008
▁जिंदल	-11.2008
▁भैरव	-11.2008
▁निवारण	-11.2008
▁पुतला	-11.2008
▁मिथिल	-11.2008
▁अंकुश	-11.2008
▁ट्रोल	-11.2008
▁प्राइस	-11.2008
गांठ	-11.2008
▁हॉट	-11.2015
▁दमदार	-11.2016
▁डाटा	-11.2018
est	-11.202
▁समिट	-11.2024
▁बढ़ेगा	-11.2025
▁यो	-11.2027
▁विनीत	-11.2029
▁पोर्ट	-11.2035
इयों	-11.2035
▁नमून	-11.2036
▁अपक	-11.2039
महल	-11.204
▁बनते	-11.2041
IS	-11.2042
ज्जा	-11.2052
▁ट्रै	-11.2056
▁मुनाफा	-11.2061
▁इनकम	-11.2062
▁जनजात	-11.2063
▁कट्ट	-11.2063
▁डाउन	-11.2066
▁मांगें	-11.2068
देवताओं	-11.207
▁रहेंगी	-11.2079
▁नाक	-11.2084
▁आयात	-11.2085
फिट	-11.209
.25	-11.2091
▁नमन	-11.2092
आईटी	-11.2092
इस	-11.2093
निवास	-11.2097
▁वाणिज्य	-11.2098
▁NEET	-11.2098
▁नौजवान	-11.2098
▁शिलान्यास	-11.2098
▁सिग्नल	-11.2098
▁स्कॉर्पियो	-11.2098
▁बदनाम	-11.2099
▁उद्यान	-11.2099
▁स्पिनर	-11.2099
▁शुरु	-11.21
▁पर्चा	-11.21
▁स्टोरेज	-11.2104
▁पेंटिंग	-11.2104
▁सौदा	-11.2105
▁बंट	-11.2105
▁पन्ना	-11.2107
▁चैन	-11.2113
रंगदारी	-11.2116
▁डकैती	-11.2119
▁मौला	-11.2122
▁गवर्नर	-11.2125
▁मर्ज	-11.2126
▁ठप	-11.2126
▁उद्योगों	-11.2128
com	-11.2131
▁सर्द	-11.2132
▁रखवा	-11.2149
ानिया	-11.215
▁89	-11.2152
▁नाली	-11.2156
▁प्रह	-11.2163
▁मील	-11.2168
▁हस	-11.2177
▁फ्लाईओवर	-11.219
▁बलिदान	-11.219
▁बूंदाबांदी	-11.219
▁हेलिकॉप्टर	-11.219
▁हेलीकॉप्टर	-11.219
▁अखबार	-11.219
▁झड़प	-11.219
▁नॉर्थ	-11.219
▁टंडन	-11.219
▁बंगले	-11.219
टीएमसी	-11.2191
▁केमिकल	-11.2191
▁त्रिपुरा	-11.2192
▁मुरार	-11.2193
24	-11.2196
काबू	-11.2196
दहाड़	-11.2199
▁स्थिरता	-11.2202
▁मवेशियों	-11.2203
▁लक्ष	-11.2214
▁प्रभार	-11.2218
▁कैड	-11.2223
▁टच	-11.2223
ac	-11.2226
▁कालू	-11.2227
▁Z	-11.2227
फुल	-11.223
▁संगत	-11.2234
▁रुपया	-11.2239
▁अब्दुल्ला	-11.2239
▁पायल	-11.224
▁शाहपुर	-11.2243
▁यूएस	-11.2243
मीटर	-11.2244
▁An	-11.2246
रूढ़	-11.2255
▁नाका	-11.2262
▁भगवत	-11.2268
▁भट	-11.227
▁रीना	-11.2276
दरगाह	-11.2277
लक्ष्मी	-11.2283
चांदी	-11.2283
▁दुरुपयोग	-11.2283
▁विद्रोह	-11.2283
▁सेरेमनी	-11.2283
▁रिव्यू	-11.2283
▁गरिमा	-11.2283
▁कहासुनी	-11.2283
▁गिरिराज	-11.2283
▁बेतिया	-11.2283
▁नक्श	-11.2283
▁झूम	-11.2283
▁पुरुषोत्तम	-11.2283
▁बेरहम	-11.2284
▁घरवालों	-11.2284
▁अक्षर	-11.2284
▁इको	-11.2284
▁गुरप्रीत	-11.2284
▁जरूरतमंद	-11.2285
प्शन	-11.2287
▁महुआ	-11.2289
▁खेड	-11.2293
▁पड़ेगी	-11.2298
▁Shar	-11.2298
▁भार	-11.2301
माता	-11.2302
▁महाआर	-11.2307
बंधन	-11.2308
▁गोपी	-11.2313
▁खोद	-11.2321
▁रस्स	-11.2321
▁कुशवाह	-11.2327
▁एमसी	-11.2334
▁परीक्षार्थी	-11.2337
MP	-11.2344
▁कैल	-11.2362
▁आरएस	-11.2362
▁चेत	-11.2366
▁सारण	-11.2366
▁उठाई	-11.2368
िणी	-11.2368
जिंदर	-11.2369
्ख	-11.2369
▁आतिशबाजी	-11.2376
▁आध्यात्मिक	-11.2376
▁गर्लफ्रेंड	-11.2376
▁दिसम्बर	-11.2376
▁पौधरोपण	-11.2376
▁मनुष्य	-11.2376
▁लग्जरी	-11.2376
▁लूटपाट	-11.2376
▁कुश्ती	-11.2376
▁अफेयर	-11.2376
▁बंगला	-11.2376
▁मुर्मू	-11.2377
▁सहारे	-11.2377
▁माइक्रो	-11.2377
▁स्कैन	-11.2378
▁खड़गे	-11.2378
▁रौंद	-11.2388
▁खुलासे	-11.239
▁डेवि	-11.2395
▁कोहराम	-11.2398
▁रणनीतिक	-11.2399
▁दस्तक	-11.2407
▁चलें	-11.2408
▁बनाएंगे	-11.2415
.40	-11.2424
▁नवमी	-11.2428
▁कसा	-11.2428
▁सावधानी	-11.2437
▁5000	-11.2442
▁वानी	-11.2443
▁गड्	-11.2449
▁कुक	-11.2459
▁समृद्ध	-11.246
वाणी	-11.2469
ीकृत	-11.2469
▁जॉर्ज	-11.2471
▁अहिरवार	-11.2471
▁धुआं	-11.2471
▁न्यूयॉर्क	-11.2471
▁प्रेसिडेंट	-11.2471
▁महानिदेश	-11.2471
▁संयोग	-11.2471
▁समझाइश	-11.2471
▁हिदायत	-11.2471
हरिद्वार	-11.2471
विकेटकीपर	-11.2471
▁खौफ	-11.2471
▁सटीक	-11.2471
आईएमडी	-11.2471
विदिशा	-11.2472
▁प्रातः	-11.2472
▁नरसिंह	-11.2472
बबलू	-11.2473
▁जन्मोत्सव	-11.2473
ीआईपी	-11.2474
▁बुआ	-11.2474
▁नीमच	-11.2474
▁निभाया	-11.2483
▁घास	-11.2484
साई	-11.2486
26	-11.2487
कालिक	-11.2487
एनआई	-11.2488
▁सीरिय	-11.2513
▁हटाए	-11.2513
चु	-11.2522
▁सहनी	-11.2522
▁डंडे	-11.2523
▁प्रभा	-11.2526
▁दोष	-11.2528
▁गौड़	-11.2533
▁बचाई	-11.2535
एनसीआर	-11.2535
▁छुट्	-11.2538
जोत	-11.2553
▁पोस्टिंग	-11.2558
▁दिखाए	-11.2561
▁नारी	-11.2564
्लाह	-11.2565
▁इब्राह	-11.2566
▁एसएमएस	-11.2566
▁कच्चे	-11.2566
▁संलिप्त	-11.2566
▁कुंवर	-11.2566
▁जटिल	-11.2566
▁कटारिया	-11.2566
▁आकलन	-11.2566
ai	-11.2566
▁तरीक	-11.2566
▁प्याज	-11.2567
▁टास्क	-11.2568
▁जिया	-11.2569
▁तड़क	-11.2569
▁हिरण	-11.257
▁छुपा	-11.257
▁झेल	-11.2571
▁बेटियां	-11.2572
▁सहज	-11.2576
मन्ना	-11.2583
▁महाजन	-11.2591
▁कमांडर	-11.2592
▁संगम	-11.2594
▁सेल्फ	-11.2601
▁टीबी	-11.2611
ran	-11.2616
▁मायने	-11.262
▁लिहाजा	-11.2628
▁परिस्थिति	-11.2629
▁बगै	-11.264
▁पॉलि	-11.2659
^	-11.2662
▁अनुष्ठान	-11.2662
▁जनसंपर्क	-11.2662
▁त्रिवेदी	-11.2662
▁विश्लेषक	-11.2662
▁पंड्या	-11.2662
▁सीहोर	-11.2662
▁हमलोग	-11.2662
▁स्क्वाय	-11.2662
ment	-11.2662
▁पंजीकृत	-11.2662
▁मंथन	-11.2663
▁भाटिया	-11.2663
▁परमिशन	-11.2664
▁अंश	-11.2664
एनएम	-11.2665
वर्ष	-11.2666
▁बांका	-11.2667
▁बिरला	-11.2671
मंडल	-11.2671
टाइल	-11.2673
ईडी	-11.2674
ौत	-11.2675
▁चंदा	-11.2676
िष्क	-11.268
▁देवता	-11.2682
▁जानकी	-11.2683
▁रोटी	-11.2692
▁बाथ	-11.2692
▁ट्रॉली	-11.27
सीवान	-11.2704
ुल्लाह	-11.2704
▁मठ	-11.2715
▁ताले	-11.2717
▁रास	-11.2718
टेशन	-11.2724
▁ऊंची	-11.2725
ag	-11.2751
▁रघु	-11.2757
▁लेगी	-11.2757
▁मेहर	-11.2758
▁गुमशुदगी	-11.2759
▁मल्होत्रा	-11.2759
▁महापर्व	-11.2759
विमर्श	-11.2759
▁प्रशस्त	-11.2759
▁नींव	-11.2759
▁जनहित	-11.2759
▁एग्री	-11.2759
▁अफीम	-11.2759
▁गाइडलाइन	-11.276
▁करवाना	-11.276
भीत	-11.276
▁अकबर	-11.2761
▁झंडी	-11.2762
▁काउंटिंग	-11.2762
▁ख़ास	-11.2762
▁ऋतु	-11.2763
▁सेंसर	-11.2765
▁चैट	-11.2767
शियन	-11.2769
▁रास्त	-11.2772
-15	-11.2779
▁गड़	-11.2781
▁बनाती	-11.2783
▁बनाएं	-11.2786
लेंस	-11.2793
▁तले	-11.28
▁अकेला	-11.28
ोदर	-11.2804
▁180	-11.2811
▁आएं	-11.2813
ड़वा	-11.2818
▁निकलते	-11.2839
मित्र	-11.2846
▁हू	-11.2851
▁सुल्तान	-11.2852
▁ठेके	-11.2855
▁फ्लैग	-11.2857
अद्भुत	-11.2857
पुष्कर	-11.2857
▁ऑलराउंडर	-11.2857
▁गौशाला	-11.2857
▁तबादला	-11.2857
▁माथुर	-11.2857
▁लाइब्रेरी	-11.2857
▁लॉन्‍च	-11.2857
▁कौशिक	-11.2857
▁छलांग	-11.2857
▁मुखर्जी	-11.2857
▁इनपुट	-11.2857
▁गालियां	-11.2857
▁रेवन्ना	-11.2858
एनटीए	-11.2859
▁कूलर	-11.2859
▁रिकवर	-11.2859
▁जेडीए	-11.286
▁स्ट्रीम	-11.286
▁ग्रेटर	-11.286
▁टॉर्	-11.2861
▁गगन	-11.2863
▁नवाब	-11.2863
▁फहरा	-11.2865
▁टावर	-11.2868
pa	-11.2869
▁चाबी	-11.287
▁संतान	-11.287
▁मोक्ष	-11.2871
▁मसल	-11.2871
प्रदाय	-11.2893
▁आएंगी	-11.2894
▁मिलीं	-11.2895
▁फर्क	-11.2901
▁सेमे	-11.2907
▁टुकड़े	-11.2912
SS	-11.2927
▁क्वा	-11.293
▁क्लीन	-11.2934
िफ्ट	-11.294
मंत्री	-11.2948
▁वास्तव	-11.2949
▁गिरफ्त	-11.2954
ाणा	-11.2956
▁टोट	-11.2956
▁किडनैप	-11.2956
▁कॉम्प्लेक्स	-11.2956
▁चंद्रचूड़	-11.2956
▁पर्यवेक्षक	-11.2956
▁प्रकोष्ठ	-11.2956
▁बाइडेन	-11.2956
▁वैक्सीन	-11.2956
▁सैयद	-11.2956
झालावाड़	-11.2956
▁झंडे	-11.2956
ASI	-11.2956
▁रचनात्मक	-11.2956
▁दुरुस्	-11.2956
▁खंभ	-11.2956
▁शुरूआत	-11.2957
▁अनोख	-11.2957
▁उन्नत	-11.2957
▁खरगे	-11.2957
▁फैक्टर	-11.2957
▁यूपीएससी	-11.2958
▁टेंप	-11.2959
▁दिये	-11.2961
▁टर्न	-11.2961
जाना	-11.2964
▁सिंघा	-11.2967
बाबू	-11.2968
▁बेला	-11.2971
ुणाल	-11.2973
▁रस्म	-11.2978
▁बेरोजगार	-11.2982
्‍व	-11.2983
▁अग्निश	-11.2985
▁आरजी	-11.2993
▁घुसपैठ	-11.2999
आरआई	-11.3008
▁एंग	-11.3011
▁गुलाम	-11.3016
▁समर्थ	-11.3018
▁छात्राएं	-11.3034
▁खाल	-11.3034
▁चक्क	-11.305
▁मॉर्च्य	-11.3056
▁अनदेखी	-11.3056
▁अर्घ्य	-11.3056
▁कॉमेडी	-11.3056
▁पंचकूला	-11.3056
▁मुजफ्फरनगर	-11.3056
▁राइफल	-11.3056
▁शंभू	-11.3056
▁कुमावत	-11.3056
▁बोकारो	-11.3056
▁सनसनी	-11.3056
▁छक्के	-11.3056
▁सिंगापुर	-11.3056
▁नवाचार	-11.3056
▁नफरत	-11.3056
▁वायरस	-11.3058
▁महाकालेश्वर	-11.3058
▁सजावट	-11.3058
▁स्वाद	-11.3059
▁केबिन	-11.306
▁इंग्लिश	-11.306
▁सुल्तानपुर	-11.3061
▁थ्रो	-11.3062
▁रामचंद्र	-11.3062
▁कैर	-11.3065
▁पार्टियां	-11.3066
कभी	-11.3066
▁हानि	-11.3068
▁सिलेक्	-11.3071
▁पॉइंट्स	-11.3072
▁हल्दी	-11.308
▁इंडस्ट्रीज	-11.3082
रांत	-11.3096
▁मलब	-11.3102
बाएं	-11.3109
▁मेह	-11.3113
▁सफा	-11.3115
▁क्रांति	-11.3122
▁Ind	-11.3134
किर	-11.314
▁गान	-11.3144
▁बंटी	-11.3144
फिरोजपुर	-11.3145
मऊ	-11.315
▁टूर	-11.3154
▁डेवलप	-11.3156
▁फायदे	-11.3157
▁Update	-11.3157
▁औपचारिक	-11.3157
▁दुष्यंत	-11.3157
▁हेरिटेज	-11.3157
▁हौसल	-11.3157
▁मारुति	-11.3157
▁शाहजहां	-11.3157
▁(35)	-11.3157
▁फिरौती	-11.3157
▁चौबे	-11.3157
▁प्रतिनिधिमंडल	-11.3158
▁धनंजय	-11.3158
▁कनेक्ट	-11.3158
▁ख़ान	-11.3161
▁पलटवार	-11.3163
▁भवानी	-11.3163
नायक	-11.3166
▁एसआईटी	-11.3167
भवन	-11.3173
▁SC	-11.3178
▁इंडी	-11.3178
▁बैटर	-11.319
iya	-11.3198
▁फोरे	-11.3199
्रिंग	-11.3202
ुहान	-11.3209
▁कराएं	-11.3212
▁अनुपमा	-11.3216
फ्लो	-11.3232
▁इनामी	-11.3233
▁गोताखोर	-11.3259
तालिबान	-11.3259
▁बुरहान	-11.3259
▁आडवाणी	-11.3259
▁अवार्ड	-11.3259
▁छतरपुर	-11.3259
▁ट्यूब	-11.3259
▁लोधी	-11.3259
▁कर्नल	-11.326
▁किस्सा	-11.326
ICC	-11.3261
▁सटे	-11.3262
कारगिल	-11.3262
▁विजिट	-11.3264
िपक्षीय	-11.3265
ंसिक	-11.3269
▁अर्श	-11.3272
दूत	-11.3279
त्ता	-11.3292
man	-11.3294
▁ुद्दीन	-11.3296
क्रेन	-11.3302
▁जयंत	-11.3308
▁Su	-11.3311
ुख्ता	-11.3313
एसपी	-11.3319
▁पोष	-11.3319
▁पीली	-11.3327
पार	-11.3332
▁वन्य	-11.3334
tra	-11.3344
आरपीएफ	-11.3344
▁धारक	-11.3348
पीठ	-11.3355
▁एडवाइजर	-11.3362
▁ख़त्म	-11.3362
▁पाण्डेय	-11.3362
▁पीएचडी	-11.3362
▁मुआवजे	-11.3362
▁रेजिडेंट	-11.3362
▁सौंदर्य	-11.3362
▁स्पर्धा	-11.3362
▁अनमोल	-11.3362
▁झटके	-11.3362
▁प्रवचन	-11.3362
▁विश्राम	-11.3362
▁चरखी	-11.3362
▁अनुबंध	-11.3364
▁बाड़	-11.3364
▁कूड़ा	-11.3367
▁एचडी	-11.3369
▁भांज	-11.337
▁हनुमानगढ़	-11.3371
▁पाती	-11.3373
▁मचाया	-11.3378
▁पैरवी	-11.3378
▁गिरीश	-11.3378
▁रफी	-11.338
▁जुग	-11.3381
्बल	-11.3383
▁दक्ष	-11.3398
मेजर	-11.3402
▁गुंड	-11.3405
▁बिश	-11.3416
ल्फी	-11.342
va	-11.3422
र्डर	-11.3424
▁कोटे	-11.3427
▁एपल	-11.3445
▁De	-11.3457
▁त्यागी	-11.3464
▁क्रियान्व	-11.3466
▁आश्चर्य	-11.3466
▁Modi	-11.3466
▁अनुपस्थित	-11.3466
▁अवलोकन	-11.3466
▁चित्रकूट	-11.3466
▁छोटू	-11.3466
▁दूतावास	-11.3466
▁बुंदेल	-11.3466
▁समर्पण	-11.3466
▁सुपुर्द	-11.3466
▁पाउडर	-11.3466
▁ऑक्सी	-11.3466
▁आरंभ	-11.3466
▁मलेरिया	-11.3466
▁गर्भगृह	-11.3467
▁पेशेवर	-11.3467
▁फिफ्टी	-11.3467
▁सूचक	-11.3468
▁मम्मी	-11.3469
▁बाईपास	-11.3469
▁तेलुग	-11.3469
▁धवन	-11.3469
▁आईपीओ	-11.3471
35	-11.3475
▁हड़प	-11.3477
म्मिल	-11.3477
▁Mar	-11.3481
▁मैक्स	-11.3482
▁गोलू	-11.3499
▁140	-11.3501
▁रिज	-11.3503
▁पटाखे	-11.3504
▁फ़ैसला	-11.3504
▁पीड़ा	-11.3506
▁साहेब	-11.3509
म्मा	-11.3517
▁स्प्र	-11.3521
▁ओल	-11.3532
▁प्रोड्यूसर	-11.3535
▁ढक	-11.3537
▁रामनगर	-11.354
न्ध	-11.3544
ru	-11.3548
फोर्स	-11.3551
▁Sha	-11.3552
▁भ्रम	-11.3568
▁दिखता	-11.357
क्लियर	-11.3571
माला	-11.3571
▁गिरफ़्तार	-11.3572
▁चौरसिया	-11.3572
▁मुस्कान	-11.3572
▁राधेश्याम	-11.3572
▁रिएक्शन	-11.3572
▁वल्लभ	-11.3572
▁विश्लेषण	-11.3572
▁फाइटर	-11.3572
▁डिप्लोम	-11.3572
▁गुड्ड	-11.3573
सार्थक	-11.3577
▁अररिया	-11.3578
ज़ोर	-11.358
▁गोशा	-11.3582
ore	-11.3586
▁सियासत	-11.3587
▁जीवित	-11.3589
▁किंग्स	-11.3589
▁बंधु	-11.3599
▁कब्र	-11.3605
▁सरफ	-11.361
▁संपत्तिय	-11.3612
ोगे	-11.3619
शिला	-11.3627
▁युव	-11.3628
फ़्	-11.3628
▁सितारे	-11.363
▁पाटन	-11.3645
▁कैन	-11.3657
pe	-11.3665
पेड	-11.3673
▁ऋत	-11.3673
▁SUV	-11.3678
▁इच्छुक	-11.3678
▁उत्तरप्रदेश	-11.3678
▁खंडेलवाल	-11.3678
▁ज्‍यादा	-11.3678
▁निमंत्रण	-11.3678
▁प्रांगण	-11.3678
▁भूकंप	-11.3678
▁सम्पन्न	-11.3678
▁अभिनंदन	-11.3678
▁व्हीकल	-11.3678
▁of	-11.3678
▁घातक	-11.3678
▁काफिल	-11.3679
▁अस्तित्	-11.3679
रोकथाम	-11.368
मनरेगा	-11.3681
▁सब्जिय	-11.3683
▁जप	-11.3684
▁चांस	-11.3687
▁हरियाल	-11.3688
ज्ञान	-11.3691
शरथ	-11.3702
▁मुड़	-11.3708
▁शमी	-11.3716
▁रुपय	-11.3716
▁शहरवास	-11.3727
▁चिर	-11.3729
▁समन	-11.3733
माड़	-11.3733
▁जिम्	-11.3743
▁86	-11.3747
▁बाव	-11.3749
विन्द	-11.3751
▁St	-11.3761
बड़ी	-11.3763
▁मंचन	-11.3763
▁नैतिक	-11.3765
▁नकल	-11.3767
▁गोल्डन	-11.3773
खाव	-11.3774
▁रवैय	-11.3775
▁पॉलिटिक	-11.3778
▁चश्म	-11.3786
▁बख्श	-11.3786
▁आरटीओ	-11.3786
▁होशियार	-11.3786
▁क्लिनिक	-11.3786
▁मधुबनी	-11.3786
▁यकीन	-11.3786
▁सिवनी	-11.3786
▁देओल	-11.3786
▁रेगुल	-11.3786
▁होर्डिंग	-11.3786
▁शुगर	-11.3787
▁किडनी	-11.3787
▁भेड़	-11.3788
▁नवम्बर	-11.3788
▁कंचन	-11.3789
▁छुड़ा	-11.3789
▁पंवार	-11.379
▁बोझ	-11.379
▁बोल्ड	-11.3797
▁रैंकिंग	-11.3798
टीपी	-11.38
संख्या	-11.3801
▁चौड़ी	-11.3803
▁स्ट्रे	-11.3803
गोंडा	-11.3804
▁योग्यता	-11.3805
▁झि	-11.3808
▁डीडी	-11.3812
im	-11.3817
▁रमा	-11.3818
▁मातम	-11.3825
ईएन	-11.3827
ंस्य	-11.3831
ीरपुर	-11.3833
▁माफ	-11.3835
वर्ती	-11.3835
▁बहाव	-11.385
▁बड	-11.3854
▁उल्टी	-11.3859
िंदा	-11.3873
▁सन्न	-11.3877
▁बिस	-11.3878
ata	-11.3879
▁वैस	-11.3879
ॉइंट	-11.3889
▁चतुर्	-11.3892
▁गर्भ	-11.3894
०	-11.3894
▁(22)	-11.3894
▁इंडस्ट्रियल	-11.3894
▁फ्रेंचाइज	-11.3894
▁रुझान	-11.3894
▁शिरकत	-11.3894
▁संन्यास	-11.3894
▁ताइवान	-11.3894
▁शून्य	-11.3894
▁निरंजन	-11.3894
▁झोपड़	-11.3894
▁मानवाधिकार	-11.3895
▁इंजेक्शन	-11.3895
▁जादू	-11.3895
▁डिवाइड	-11.3895
▁यशस्व	-11.3895
▁असफल	-11.3895
▁आर्टिस्ट	-11.3896
▁पंचनाम	-11.3897
▁अर्जी	-11.3901
▁सिगर	-11.3903
ल्ली	-11.3905
▁आगाज	-11.3905
ाउड	-11.3907
▁प्रथा	-11.3909
▁यथा	-11.3911
▁जयराम	-11.3911
▁मीट	-11.3913
NS	-11.3921
▁एनसी	-11.3928
▁नगद	-11.393
▁उधार	-11.3932
▁जूते	-11.3934
▁उल्ट	-11.3939
▁चर्चित	-11.3939
▁यूजी	-11.3949
▁प्रचारक	-11.3949
▁2500	-11.3957
▁सराहन	-11.3958
▁चिप	-11.396
▁अकाल	-11.3961
बॉल	-11.3972
AT	-11.3978
आप	-11.3985
▁दुआ	-11.3987
▁राशिद	-11.3997
▁पेंट	-11.4001
▁इंफ्रा	-11.4004
▁कनेक्टिविटी	-11.4004
▁प्रतिस्पर्ध	-11.4004
▁फीडर	-11.4004
▁भुवनेश्वर	-11.4004
▁सुपौल	-11.4004
▁उरांव	-11.4004
▁एस्टेट	-11.4004
▁लोहिया	-11.4004
▁नारियल	-11.4004
▁महिमा	-11.4004
थपथ	-11.4004
▁ख़बर	-11.4007
▁मोर्चरी	-11.4009
▁मंशा	-11.4011
▁रुकवा	-11.4012
▁कंवर	-11.4013
▁चैंब	-11.4015
त्थान	-11.4015
मीत	-11.4015
▁रौ	-11.4016
▁कुंज	-11.4017
▁पैं	-11.4023
▁उपहार	-11.4026
वैश्य	-11.4028
▁छाव	-11.4028
▁Ar	-11.4031
▁प्राय	-11.4034
ताशा	-11.4035
▁मोटर्स	-11.4036
▁गड़बड़	-11.4041
▁दवाई	-11.4045
▁कार्यवाह	-11.4051
▁सैम	-11.4052
▁पिल	-11.4055
वाइड	-11.4057
▁दिवा	-11.406
▁लौ	-11.4069
एसटी	-11.4069
▁साहस	-11.4077
▁नगदी	-11.408
▁अनि	-11.4081
▁अश्व	-11.4082
▁अंबा	-11.4083
लानी	-11.4085
ात्मा	-11.4099
ैंडल	-11.4104
टीआर	-11.4104
ard	-11.4109
रक्षा	-11.411
▁आत्मनिर्भर	-11.4115
हिस्ट्रीशीटर	-11.4115
▁अय्यर	-11.4115
▁एसबीआई	-11.4115
▁कच्ची	-11.4115
▁निर्णायक	-11.4115
▁निशानदेही	-11.4115
▁बर्खास्त	-11.4115
▁मधेपुर	-11.4115
▁रिपब्लिक	-11.4115
▁लद्दाख	-11.4115
▁लैपटॉप	-11.4115
▁संरचना	-11.4115
▁सिरोही	-11.4115
▁दीर्घ	-11.4115
▁नक्षत्र	-11.4115
▁Price	-11.4115
▁शिमला	-11.4115
▁उछल	-11.4115
▁अनूठ	-11.4116
▁बर्थडे	-11.4116
▁अदित	-11.4116
विश्वसनीय	-11.4116
▁जायेगी	-11.4116
▁धुंध	-11.4117
▁क्षति	-11.4117
▁डेमोक्रेटिक	-11.4118
▁डाक्टर	-11.4119
▁ड्रामा	-11.4119
▁मार्श	-11.4122
ाइव	-11.4123
▁1996	-11.4123
▁मक्का	-11.4124
व्यय	-11.4127
ap	-11.4127
▁पाएगी	-11.4128
▁प्रस्तुतियां	-11.413
▁लड़ेंगे	-11.4137
अगर	-11.4138
हां	-11.414
▁व्यवस्थाएं	-11.4167
▁सिक्स	-11.4167
▁मैप	-11.4171
▁फाड़	-11.4177
▁भद	-11.4178
खलन	-11.4181
▁बैठाकर	-11.4185
▁सुप्रीमो	-11.4188
मिथ	-11.4188
▁महू	-11.4199
प्रत्यक्ष	-11.4228
▁इंडिग	-11.4228
▁ट्रांसप्लांट	-11.4228
▁फोटोग्राफ	-11.4228
▁सिक्किम	-11.4228
▁गुमराह	-11.4228
▁नगरपालिका	-11.4228
▁अंगूठ	-11.4228
▁किरोड़ी	-11.4228
▁ब्लाक	-11.4228
▁संक्रमण	-11.4229
ोलॉजी	-11.423
▁भिड़ंत	-11.423
आईसीयू	-11.423
▁कैम्प	-11.423
▁कच्चा	-11.423
▁गोमती	-11.4231
▁देवगन	-11.4234
▁शिवकुमार	-11.4235
▁चाइन	-11.4238
▁अगवा	-11.4238
▁अनवर	-11.424
स्सी	-11.4244
-14	-11.4247
निरीक्षक	-11.4248
पर्सन	-11.4248
▁प्रात	-11.4253
esh	-11.4258
▁सकल	-11.4268
▁कीमतें	-11.4278
▁चरम	-11.4282
टेरिय	-11.4283
▁साईं	-11.4291
▁हिम	-11.4291
्‍ड	-11.4293
PO	-11.4298
▁एक्टर्स	-11.4301
▁पूल	-11.4302
बिलिटी	-11.4319
▁ऊंच	-11.4333
रिफिकेशन	-11.4341
▁आकांक्षा	-11.4341
▁इजाजत	-11.4341
▁छिड़काव	-11.4341
▁प्रशासक	-11.4341
▁शाजापुर	-11.4341
▁सेमिनार	-11.4341
▁कल्चर	-11.4341
▁प्रकोप	-11.4341
विमोचन	-11.4341
▁हजारीबाग	-11.4341
▁पौधा	-11.4342
▁बादशाह	-11.4342
▁खुफिय	-11.4343
▁ढाणी	-11.4343
▁फ्लॉ	-11.4345
▁IT	-11.4347
▁हब	-11.4347
um	-11.4347
▁पंचमी	-11.4347
▁कुल्हा	-11.4348
▁बेसमेंट	-11.435
▁किताबें	-11.4351
▁एडिट	-11.4351
▁चौकीदार	-11.4353
▁रोटर	-11.4357
पक्का	-11.4358
▁हार्ड	-11.4363
▁मुश्किलें	-11.4369
▁पैक्स	-11.437
चंद्र	-11.4375
▁समाजजन	-11.4379
▁बताओ	-11.4394
▁गोध	-11.4395
▁डोम	-11.4401
▁अनजान	-11.4411
राज्य	-11.4412
सोल	-11.4418
▁मेहरा	-11.4439
▁जिता	-11.4443
िक्की	-11.4456
▁पदोन्नत	-11.4456
▁परशुराम	-11.4456
▁मगरमच्छ	-11.4456
▁विक्षोभ	-11.4456
▁विवेचन	-11.4456
▁वेलफेयर	-11.4456
▁खरगोन	-11.4456
▁नकारात्मक	-11.4456
▁मेहंदी	-11.4456
▁बिस्तर	-11.4456
▁निजात	-11.4456
▁ज़मीन	-11.4456
▁तमिल	-11.4456
▁आगजनी	-11.4457
▁खालिस्तान	-11.4457
तुषार	-11.4457
▁पोखर	-11.4458
▁पूनिया	-11.4458
▁मिर्च	-11.4458
▁चूरू	-11.4458
▁राजनेता	-11.4458
▁क्लिप	-11.4458
▁पीजीआई	-11.446
▁वर्जन	-11.446
▁स्टंट	-11.4461
▁आसिफ	-11.4462
▁स्किल	-11.4465
▁ब्रेन	-11.4465
▁प्रवाह	-11.4466
▁भूस्	-11.4466
त्या	-11.4467
▁उपलब्धता	-11.4471
▁मल्ल	-11.4472
▁नौकरिय	-11.4478
सुनवाई	-11.4479
नैतिक	-11.4479
▁ऊंचा	-11.4486
▁कटाई	-11.4487
स्थायी	-11.4488
िहाड़	-11.4494
▁सीआईए	-11.4495
▁कंस	-11.4497
▁लोहा	-11.4498
▁सावधान	-11.4498
▁घुमा	-11.4501
▁लगेंगे	-11.4514
▁लगेगी	-11.4515
▁सहाय	-11.4529
खोर	-11.4529
co	-11.453
▁उलट	-11.4532
▁संवाददाता	-11.4534
ाइका	-11.4537
▁पाबंद	-11.4547
्धा	-11.4554
▁मैनेज	-11.4559
शाद	-11.456
र्सल	-11.4562
▁अर्धशतक	-11.4573
▁आरबीआई	-11.4573
▁ओवैसी	-11.4573
▁कैलेंडर	-11.4573
▁चंपारण	-11.4573
▁पहुँच	-11.4573
▁पेरेंट्स	-11.4573
▁लॉन्ड	-11.4573
▁सांप्रदायिक	-11.4573
▁हकीकत	-11.4573
▁नाजुक	-11.4573
▁स्टॉप	-11.4573
▁बदायू	-11.4573
▁दिगंबर	-11.4573
▁टीजर	-11.4573
▁स्टार्टअप	-11.4573
▁कंडक्ट	-11.4574
रमैया	-11.4576
चौ	-11.4576
▁हाजीपुर	-11.4577
▁स्पष्टीकरण	-11.4577
निहाल	-11.4577
▁थैल	-11.4578
▁यादगार	-11.4578
ाधिकार	-11.4579
▁भोला	-11.4582
शीद	-11.4582
▁बैरवा	-11.4582
▁कराएंगे	-11.4582
▁कैथल	-11.4588
▁आंखें	-11.459
▁बलराम	-11.4592
▁हादस	-11.4594
▁श्रावण	-11.4595
▁1200	-11.4595
▁2.0	-11.4602
डीजल	-11.4604
▁पितर	-11.4606
▁न्यूज़	-11.4609
▁पैड	-11.4611
▁भराव	-11.4622
▁चौड़ा	-11.4622
▁पोते	-11.4633
▁सलू	-11.4636
एमएलए	-11.4637
एसटीएफ	-11.465
सप्रीत	-11.4653
्सिल	-11.4665
चढ़ाव	-11.467
▁अपनाया	-11.4683
▁आंशिक	-11.469
▁एमओयू	-11.469
▁क्रिसमस	-11.469
▁गोपनीय	-11.469
▁मनोकामना	-11.469
▁राजनयिक	-11.469
▁वर्कशॉप	-11.469
▁विश्नोई	-11.469
▁ड्रेन	-11.469
▁इटावा	-11.469
वैकल्पिक	-11.469
▁रॉड	-11.469
▁बिगाड़	-11.4691
▁कारीगर	-11.4691
▁आंगन	-11.4691
▁रिजवान	-11.4691
▁दवाइयां	-11.4691
▁आराध्य	-11.4691
▁क्रिएट	-11.4691
एसएफ	-11.4691
▁चंद्राकर	-11.4691
▁नीतू	-11.4692
▁महासंघ	-11.4693
▁इटली	-11.4693
▁ईसाई	-11.4693
▁टर्म	-11.4696
▁छुट्टिय	-11.4699
क्वाड	-11.4704
▁रॉक	-11.4704
▁काउंसिलिंग	-11.4705
िलेंस	-11.4715
छोटे	-11.4716
गठबंधन	-11.4716
▁राइज	-11.4716
▁सिराज	-11.4717
▁असद	-11.4722
▁अकेल	-11.4724
▁बेबी	-11.4725
ck	-11.4726
▁ऑडिट	-11.4727
▁इट	-11.4733
पीओ	-11.4734
▁थानेदार	-11.4742
▁रामदेव	-11.4752
▁उत्पादक	-11.4765
▁दरिया	-11.4766
▁रुद्रा	-11.478
lo	-11.4783
AI	-11.4788
▁रोते	-11.4788
SA	-11.4801
▁कोलार	-11.4804
ांतर	-11.4808
▁हेल्प	-11.4809
▁इत्यादि	-11.4809
▁चंपाई	-11.4809
▁द्रौपदी	-11.4809
▁ध्वजारोहण	-11.4809
▁माउंट	-11.4809
▁माल्यार्पण	-11.4809
▁शताब्द	-11.4809
▁सांगानेर	-11.4809
▁सहभाग	-11.4809
क़्त	-11.4809
प्रोफाइल	-11.4809
▁रोहिणी	-11.4809
▁भालू	-11.481
▁जन्मभूमि	-11.481
▁RSS	-11.481
▁एनआईए	-11.481
▁कॉर्पोरेशन	-11.481
▁कंटेंट	-11.4811
▁हल्का	-11.4811
▁US	-11.4813
▁एक्टिविटी	-11.4814
▁स्वाभ	-11.4814
▁अमृतपाल	-11.4815
NC	-11.4816
ox	-11.4816
▁धमकाया	-11.4816
▁साहनी	-11.4824
▁नंदन	-11.4829
▁पटक	-11.483
▁वसु	-11.4833
▁भत्ता	-11.4835
कप्तान	-11.4836
▁बहला	-11.484
▁रूक	-11.4841
▁रिवर	-11.4844
▁नारायणपुर	-11.4848
बैक	-11.485
एफसी	-11.4854
▁मिट्	-11.4855
▁रजा	-11.4867
▁फार	-11.4879
▁अर्ध	-11.4902
▁सारंग	-11.4906
पुत्र	-11.491
▁खरीदना	-11.4917
▁अस्थ	-11.4922
उषा	-11.4923
▁प्रतिबद्ध	-11.4926
▁प्रार्थ	-11.4928
▁अपग्रेड	-11.493
▁होमगार्ड	-11.493
▁चप्पल	-11.493
▁अवस्थी	-11.493
▁टेनिस	-11.493
▁खुदकुशी	-11.493
▁बॉम्ब	-11.493
▁(30)	-11.493
शैतान	-11.493
क्रांत	-11.493
एनडीपीएस	-11.493
▁अवशेष	-11.493
▁धमकियां	-11.493
▁भुगतन	-11.493
र्टिफि	-11.493
▁टूरिस्ट	-11.4931
▁न्यास	-11.4932
▁लाहौ	-11.4933
▁बैलेट	-11.4934
▁मालिनी	-11.4934
-23	-11.4938
▁कटाव	-11.4939
▁सट्टा	-11.4942
▁खपत	-11.4943
▁मौन	-11.4944
▁हरप्रीत	-11.4946
▁शेफ	-11.4947
▁रीति	-11.4948
▁नजार	-11.4949
▁बनवाया	-11.4953
▁इंसाफ	-11.4957
राष्ट्रपति	-11.4958
लॉग	-11.4965
▁मोग	-11.4966
▁पंखे	-11.4973
▁काव्य	-11.4983
-12	-11.4985
▁मोर्च	-11.5001
फाई	-11.5006
देय	-11.5009
संघ	-11.501
▁बोस	-11.5016
▁प्लेन	-11.5026
▁एयरलाइ	-11.503
▁जुर्मान	-11.5038
▁अवनी	-11.5044
▁रश्मि	-11.505
*	-11.5052
▁ओवरब्रिज	-11.5052
▁दृढ़	-11.5052
▁विद्वान	-11.5052
▁जांजगीर	-11.5052
▁फ़ीसद	-11.5052
▁शिष्य	-11.5052
▁शावक	-11.5052
▁एडीसी	-11.5052
▁मनमानी	-11.5052
▁महायुत	-11.5052
▁आर्टिकल	-11.5052
महाराणा	-11.5053
▁आइडिया	-11.5053
▁धरोहर	-11.5053
▁बगीच	-11.5053
▁रिसीव	-11.5053
▁स्टार्ट	-11.5056
▁शालि	-11.506
ंजलि	-11.5062
एलएन	-11.5062
▁मुहर	-11.5065
▁स्क्रीनिंग	-11.5068
बुद्ध	-11.5081
भक्ति	-11.5082
▁भव	-11.5102
ैलजा	-11.5103
▁3000	-11.5106
▁रैलिय	-11.5111
▁स्कूटर	-11.5127
▁चाइल्	-11.5131
ेकअप	-11.5159
आईटीआई	-11.5162
▁ड्रॉ	-11.5168
▁news	-11.5175
▁टूरिज्म	-11.5175
▁पैटर्न	-11.5175
▁मज़बूत	-11.5175
▁मर्चेंट	-11.5175
▁व्यायाम	-11.5175
▁श्राद्ध	-11.5175
▁श्रृंखला	-11.5175
▁अथॉर	-11.5175
▁हलचल	-11.5175
▁(18	-11.5175
▁स्वभाव	-11.5175
RBI	-11.5175
▁फतह	-11.5175
▁जालसाज	-11.5175
▁पखवाड़	-11.5176
▁जसवंत	-11.5176
स्मैक	-11.5176
▁सहकारिता	-11.5177
▁रॉकेट	-11.5178
▁कबाड़	-11.5178
▁Har	-11.5179
▁एनसीसी	-11.5181
▁डीएवी	-11.5183
▁देवघर	-11.5186
▁दही	-11.5191
NG	-11.5191
थोक	-11.5192
▁कारखान	-11.5193
▁EV	-11.5194
▁धू	-11.5195
▁फ्रीज	-11.5201
▁फैसल	-11.5204
अंदाज	-11.5207
निष्ठ	-11.5208
▁गुस्साए	-11.5209
उधर	-11.5211
िओम	-11.5218
▁चलिए	-11.5221
▁सेवादार	-11.5221
बिंद	-11.5223
र्फ	-11.5224
▁टेक्स	-11.5225
▁नित्य	-11.5231
▁परीक्षाएं	-11.5251
▁लड़ाक	-11.5259
▁हर्षित	-11.5263
कांड	-11.5287
यानि	-11.5288
▁जाह्नवी	-11.53
▁डोटासर	-11.53
▁धैर्य	-11.53
▁निलंबन	-11.53
▁प्रेग्नें	-11.53
▁बिजनौर	-11.53
▁कृत्य	-11.53
▁चिंतित	-11.53
▁सौगात	-11.53
▁अन्तर्	-11.53
▁जौहर	-11.53
▁पॉक्सो	-11.53
▁वाटिका	-11.53
व्हाट्सएप	-11.53
▁बोनस	-11.53
ंस्ट्रक्शन	-11.53
तृक	-11.53
▁बृजभूषण	-11.53
▁चक्रवर्ती	-11.53
▁रायसेन	-11.53
साउंड	-11.53
▁खुशहाल	-11.53
▁एफएसएल	-11.5301
▁स्ट्रो	-11.5303
मुक्की	-11.5303
▁ट्रम्प	-11.5303
▁यूडीए	-11.5304
▁गंगाजल	-11.5305
▁रईस	-11.5306
▁टॉक	-11.5307
▁अभिजीत	-11.531
28	-11.5326
▁लेखन	-11.5327
▁गोह	-11.5327
जेंड	-11.5332
▁ऊँ	-11.5332
शक्ति	-11.5333
▁इम्	-11.5333
भुज	-11.5334
कर्ताओं	-11.5341
▁मैरा	-11.5342
▁सोया	-11.5342
पूरी	-11.535
▁1.8	-11.5355
▁तेज़	-11.5355
मार्क	-11.5356
मिडिल	-11.5358
▁राजभर	-11.5362
▁सूट	-11.5363
एनसीपी	-11.537
▁हॉ	-11.5375
नीयत	-11.5377
▁हरदा	-11.5401
एसडी	-11.5413
▁शमश	-11.5423
यूनाइटेड	-11.5427
▁डिंपल	-11.5427
▁पादुकोण	-11.5427
▁प्रधानाध्याप	-11.5427
▁मन्दिर	-11.5427
▁महामंडलेश्वर	-11.5427
▁सिंहभूम	-11.5427
▁हावड़ा	-11.5427
▁बॉबी	-11.5427
▁(24)	-11.5427
▁दमोह	-11.5427
संस्करण	-11.5427
▁पॉजि	-11.5427
▁पल्लव	-11.5427
्रूट	-11.5427
▁निष्ठा	-11.5427
▁जलाभिषेक	-11.5427
▁(1)	-11.5427
▁हिजबुल	-11.5427
▁गुरमीत	-11.5428
▁मसीह	-11.5428
▁रविशंकर	-11.5429
▁भिजवाया	-11.5429
▁हिमंत	-11.5429
▁अजीब	-11.5432
▁यूके	-11.5446
▁जतात	-11.5452
▁चैत	-11.5454
▁लिट	-11.5455
▁मिल्क	-11.546
▁अधिकृत	-11.5466
रूद्ध	-11.5473
▁मुर्	-11.5475
▁सीबी	-11.5476
▁जही	-11.5477
▁परीक्षार्थ	-11.549
ैटिक	-11.5494
▁कटरा	-11.5494
▁सीढ़	-11.5499
सीबीएसई	-11.5504
▁मीडिय	-11.5506
▁अल्ट्रा	-11.5526
▁अभियोज	-11.5536
▁अधि	-11.5547
▁दंते	-11.5547
ाधीन	-11.5552
▁अफ़ग़ान	-11.5555
श्वस्त	-11.5555
q	-11.5555
▁Kapoor	-11.5555
▁अब्बास	-11.5555
▁इंश्योरें	-11.5555
▁कुख्यात	-11.5555
▁ख़ुद	-11.5555
▁वाहिनी	-11.5555
SHO	-11.5555
▁उफान	-11.5555
▁निम्न	-11.5555
▁ईदगाह	-11.5555
फुसला	-11.5555
स्कृत	-11.5556
▁बड़वानी	-11.5556
▁परंपरागत	-11.5557
▁सेलेब्	-11.5558
राइस	-11.5558
▁वृष	-11.5559
▁संबद्ध	-11.5559
▁परिहार	-11.5561
▁संग्राम	-11.5562
▁पौर	-11.5565
▁130	-11.5566
▁सानि	-11.557
▁डिस्क	-11.5571
▁सगे	-11.5574
▁बचाओ	-11.5576
▁दरार	-11.5576
▁मत्	-11.5581
RT	-11.5581
▁2003	-11.5582
दाताओं	-11.5582
▁सिमट	-11.5589
▁पात्रता	-11.5589
▁पहनाकर	-11.559
▁ज्व	-11.5591
▁डेंट	-11.5591
इंडिया	-11.5591
प्रसाद	-11.5591
▁क्लीनिक	-11.5596
▁वीसी	-11.5605
ud	-11.5606
▁कस्टमर	-11.5619
▁650	-11.5621
▁एबी	-11.5626
▁क्रिया	-11.5645
▁चिट	-11.5663
▁रावल	-11.5669
ग्रेस	-11.567
ायत	-11.5682
▁निबंध	-11.5682
▁ज़रि	-11.5685
▁निकलवा	-11.5685
▁उन्नाव	-11.5685
▁एपिसोड	-11.5685
▁कन्नौज	-11.5685
▁ज़िम्मेदार	-11.5685
▁सर्वसम्मत	-11.5685
▁साजिद	-11.5685
▁सुपरवाइज	-11.5685
एसडीआरएफ	-11.5685
▁वैल्यू	-11.5685
▁रोबोट	-11.5685
▁इकाइय	-11.5685
▁फरीदकोट	-11.5685
▁प्रमोट	-11.5685
▁तिरुपत	-11.5685
▁रोमांचक	-11.5686
▁ट्रैवल	-11.5686
षाढ़	-11.5687
शंस	-11.5687
▁खेप	-11.5687
▁डुमर	-11.5689
898	-11.569
▁पुनीत	-11.5691
▁प्रसारण	-11.5691
▁बीएसपी	-11.5692
▁झेलन	-11.5693
▁खत्री	-11.5693
▁पंख	-11.5705
▁मार्क्स	-11.5706
▁उग्र	-11.5709
▁बोग	-11.5711
मुन	-11.5722
संभव	-11.5723
स्वरूप	-11.5723
▁रेटिंग	-11.573
▁ईवी	-11.5737
▁एवज	-11.5738
खाड़	-11.5739
पक्ष	-11.5758
▁जोड़ो	-11.576
सुध	-11.5769
▁हटवा	-11.5799
▁प्रजापत	-11.5806
▁चिह्न	-11.5808
क्रमण	-11.5814
▁पुष्य	-11.5816
▁जत्थे	-11.5816
▁टॉयलेट	-11.5816
डिस्ट्रिक्ट	-11.5816
▁ग्रोथ	-11.5816
▁फूंक	-11.5816
▁मण्डल	-11.5816
▁सेंचुरी	-11.5816
▁(21	-11.5816
▁सर्राफ	-11.5817
▁पिंजर	-11.5817
▁वर्चुअल	-11.5817
▁बंदरगाह	-11.5817
▁पदस्थाप	-11.5817
▁प्रियांश	-11.5817
▁हूँ	-11.5817
▁हिमालय	-11.5817
▁बदबू	-11.5818
▁स्वदेश	-11.582
▁भूखंड	-11.5824
▁माँ	-11.5824
▁घड़ी	-11.5828
▁राई	-11.5829
▁जनरेट	-11.5831
▁भर्तिय	-11.5837
IPS	-11.5837
ly	-11.5839
▁इकट्	-11.5842
डे़	-11.5844
पुरुष	-11.5856
मेरे	-11.5858
ow	-11.5862
▁पुराण	-11.588
▁लोहार	-11.5885
▁वंदन	-11.5903
▁श्रेयस	-11.591
▁सिह	-11.5923
▁रेडियो	-11.5935
MC	-11.5937
▁मतभेद	-11.595
▁अनुष्का	-11.595
▁ऑडिटोरियम	-11.595
▁धमाका	-11.595
▁नॉर्मल	-11.595
▁महासमुंद	-11.595
▁साकेत	-11.595
▁कुंदन	-11.595
▁तंवर	-11.595
▁मसूद	-11.595
▁राठी	-11.595
▁प्रजाति	-11.595
▁भेड़िय	-11.595
▁एमबीए	-11.5951
▁सीमावर्ती	-11.5951
▁धनखड़	-11.5952
▁बद्री	-11.5952
▁विनायक	-11.5953
▁विविध	-11.5953
▁कॉम्प	-11.5953
▁बटोर	-11.5953
▁प्रशिक्षु	-11.5954
▁बालोद	-11.5955
▁लहू	-11.5955
▁रैन	-11.5957
▁कैंपेन	-11.5958
▁एक्सपो	-11.5958
▁दुर्गेश	-11.5959
▁मिटा	-11.5963
▁श्रीकांत	-11.5968
▁संरक्षित	-11.5974
स्फी	-11.5976
▁मिक्स	-11.5977
▁एक्सपर्ट्स	-11.5984
जैसे	-11.5991
▁खाया	-11.6002
कूद	-11.6021
▁दाह	-11.6036
OS	-11.6052
▁प्रशिक्ष	-11.6058
▁Ran	-11.6075
▁बाण	-11.6077
ba	-11.608
देहरादून	-11.6085
रामविलास	-11.6085
▁अक्तूबर	-11.6085
▁टर्मिनस	-11.6085
▁फैकल्टी	-11.6085
▁यूनुस	-11.6085
▁सम्बन्ध	-11.6085
▁फंक्शन	-11.6085
▁अरशद	-11.6085
▁ज्वैलर	-11.6085
▁अर्जित	-11.6085
▁मुफस	-11.6085
▁सुहाग	-11.6085
इंडेक्स	-11.6085
▁रिम्स	-11.6085
▁अस्थिर	-11.6086
▁ठहराव	-11.6086
▁कम्पन	-11.6087
आरएस	-11.6087
▁मालीवाल	-11.6087
▁शंकराचार्य	-11.6087
▁MM	-11.6087
▁ब्रजेश	-11.6088
▁स्वीप	-11.6088
बीएनएस	-11.609
▁1984	-11.6091
गिर	-11.61
▁भंडारण	-11.6102
▁दांत	-11.6102
▁जीवंत	-11.6103
▁पिट	-11.6103
▁रखत	-11.6106
▁इंकार	-11.6108
▁पहलू	-11.6121
▁अपार	-11.6128
स्तरीय	-11.6128
▁रजक	-11.6129
▁उपास	-11.6144
▁मुर्ग	-11.6148
ंधरा	-11.6155
हानि	-11.6159
बीएसई	-11.617
▁फ़ैसल	-11.6172
्यै	-11.6215
▁उन्ह	-11.6218
▁अनाउंस	-11.6222
▁टिप्पणिय	-11.6222
चैंपियंस	-11.6222
सुदर्शन	-11.6222
▁AQI	-11.6222
▁आख़िर	-11.6222
▁मुआयना	-11.6222
▁हितग्राह	-11.6222
▁चिट्ठी	-11.6222
▁मुहिम	-11.6222
कबड्डी	-11.6222
▁मैनपुरी	-11.6222
▁लंगर	-11.6222
▁मर्याद	-11.6222
▁4-5	-11.6222
▁श्रुत	-11.6223
▁पार्टनरशिप	-11.6223
▁भानु	-11.6225
▁विस्थापित	-11.6225
▁चुनौतियां	-11.6225
▁स्वामि	-11.6225
▁1989	-11.6227
▁डेस्क	-11.6227
▁गुफा	-11.6227
▁अभद्र	-11.6229
नाट्य	-11.6231
▁बापू	-11.6236
एमयू	-11.6243
▁(26	-11.6243
▁बीएड	-11.6244
▁उपाध	-11.6246
▁सहेल	-11.6254
▁देवरिया	-11.6256
▁लाइटिंग	-11.6268
फाइड	-11.6271
▁बहनें	-11.6273
▁एमजी	-11.6277
लायंस	-11.6287
▁पीआर	-11.6288
्‍यू	-11.6291
▁कैथ	-11.6355
त्तीर्ण	-11.6361
बीसीसीआई	-11.6361
▁Video	-11.6361
▁अंपायर	-11.6361
▁डिस्काउंट	-11.6361
▁देवांगन	-11.6361
▁पदयात्रा	-11.6361
▁प्रत्यक्षदर्श	-11.6361
▁फिलिस्तीन	-11.6361
▁शहादत	-11.6361
ैरिएंट	-11.6361
▁हिंडन	-11.6361
▁आदमपुर	-11.6361
▁जर्नल	-11.6361
▁श्मश	-11.6361
▁सुपारी	-11.6361
▁बीजापुर	-11.6361
▁कयास	-11.6361
▁कोठारी	-11.6361
▁खट्टर	-11.6362
▁प्रतिनियुक्त	-11.6363
▁अबतक	-11.6363
ाह्न	-11.6363
▁फॉरेस्ट	-11.6363
▁रौशन	-11.6363
ीक्षक	-11.6364
▁रिटायरमेंट	-11.6364
▁जिम्मा	-11.6365
▁चैत्र	-11.6365
▁प्रमंडल	-11.6365
▁खूं	-11.6365
▁चादर	-11.6367
▁मारवाड़	-11.637
▁चिकन	-11.637
▁बीएससी	-11.637
▁विविधता	-11.6372
▁मंडप	-11.6374
▁दसवीं	-11.6375
▁हाफ	-11.6376
▁डमी	-11.6377
▁लम्ब	-11.6377
▁विस्फोटक	-11.6393
ीएनजी	-11.6394
▁गोरख	-11.6395
▁शटर	-11.6399
▁उत्साहित	-11.6407
▁फोरम	-11.6407
दृश्य	-11.6408
गृह	-11.6408
!	-11.6408
कौन	-11.6409
ोनिया	-11.6411
▁Ja	-11.6425
▁बीट	-11.6426
▁माइक	-11.6428
▁रेस्ट	-11.6431
▁सपन	-11.6433
▁भाद	-11.6442
▁छिड़	-11.6446
ाघाट	-11.6447
▁फाइनें	-11.647
▁फ्लाइ	-11.6472
ash	-11.6478
धाकड़	-11.648
्ट्री	-11.6481
▁औच	-11.6483
▁दिग	-11.6494
ँच	-11.6496
ॉलीवुड	-11.6498
▁सद्भाव	-11.6502
पाटलिपुत्र	-11.6502
▁Singh	-11.6502
▁VIDEO	-11.6502
▁चड्ढा	-11.6502
▁प्रतिद्वंद्व	-11.6502
▁फीडबैक	-11.6502
▁सशक्तिकरण	-11.6502
▁अहसास	-11.6502
▁एनओसी	-11.6502
बालोतरा	-11.6502
▁प्रचंड	-11.6502
▁जिहाद	-11.6502
▁लॉटरी	-11.6502
▁उपद्रव	-11.6502
▁उकसा	-11.6502
▁अलॉट	-11.6502
▁सिंघल	-11.6502
▁किन्नर	-11.6502
प्ट	-11.6502
स्लीपर	-11.6503
▁हजरत	-11.6503
▁हैप्पी	-11.6505
नियामक	-11.6508
▁मसाला	-11.6509
▁ख़तर	-11.651
▁190	-11.6517
तिरोध	-11.6518
▁चीज़	-11.6525
▁Man	-11.6525
▁एयरलाइन	-11.653
▁हाजी	-11.6536
ath	-11.6548
विधान	-11.6552
पद्मश्री	-11.6561
▁DM	-11.6564
▁कुट	-11.6566
▁दृष्ट	-11.6593
तांत्रिक	-11.6593
.05	-11.66
▁गाड	-11.6608
▁कॉस्	-11.6609
ेंदुआ	-11.6617
भिषेक	-11.6636
▁भिजवा	-11.6641
▁अत्याधुनिक	-11.6644
▁एथलेटिक	-11.6644
▁कुरैशी	-11.6644
▁चातुर्	-11.6644
▁ट्रीटमेंट	-11.6644
▁ट्रूडो	-11.6644
▁फ़लस्तीन	-11.6644
▁ब्रॉन्ज	-11.6644
▁भौतिक	-11.6644
▁मंदसौर	-11.6644
▁मास्टरमाइंड	-11.6644
▁समुच	-11.6644
▁हंगामे	-11.6644
▁मिलीभगत	-11.6644
▁शहजाद	-11.6644
▁शिप्रा	-11.6645
संशोधित	-11.6645
▁कार्यपालक	-11.6645
▁(20)	-11.6645
▁रसीद	-11.6645
▁कावड़	-11.6646
▁ऑक्शन	-11.6647
▁मूर्तियां	-11.6649
▁बिठा	-11.6651
▁ओंकार	-11.6653
ब्बू	-11.6653
▁प्रशिक्षक	-11.6665
▁बचें	-11.6668
▁डीके	-11.6674
ग्रिम	-11.668
▁सुहान	-11.6681
▁बॉक्सिंग	-11.6681
▁750	-11.6681
▁वीडी	-11.6693
▁शादिय	-11.6693
डाउन	-11.6696
▁झाड़िय	-11.6702
▁छप	-11.6705
▁सदम	-11.6711
▁माध	-11.6711
्रिड	-11.6738
▁हफ्त	-11.6743
▁शक्तिय	-11.6746
ाइकल	-11.6751
▁1.3	-11.6751
ंजय	-11.6758
1998	-11.6769
ौर्य	-11.6774
▁जिसमे	-11.6783
ात्कार	-11.6787
▁शत्रु	-11.6789
स्क्रिप्ट	-11.6789
▁एग्रीकल्चर	-11.6789
▁कूटनीति	-11.6789
▁नेतन्याहू	-11.6789
▁पूर्वांचल	-11.6789
▁पॉपुलर	-11.6789
▁रघुवंशी	-11.6789
▁रथयात्रा	-11.6789
▁तीव्र	-11.6789
▁बरौनी	-11.6789
▁व्यंजन	-11.6789
▁सर्कुल	-11.6789
▁रौनक	-11.6789
▁फ्यूल	-11.6789
▁संसार	-11.6789
▁मेमोर	-11.679
▁माधुरी	-11.679
▁इक्वि	-11.679
▁संकाय	-11.6791
हानुभ	-11.6791
स्‍थान	-11.6791
▁वॉशिंग	-11.6793
▁साध्व	-11.6793
▁कल्याणकारी	-11.6794
▁हिज़	-11.6795
▁डायरिया	-11.6796
▁प्रज्ञ	-11.6797
▁भस्म	-11.6797
▁बलविंदर	-11.6797
▁ड्राई	-11.6799
▁क्लेम	-11.6801
▁झुं	-11.6803
-16	-11.6809
ंग्‍ल	-11.6811
▁अभियोजक	-11.6811
ख़्त	-11.6823
शुमार	-11.6826
▁बरामदगी	-11.6826
▁2002	-11.6826
▁राइड	-11.6831
निकेत	-11.6834
▁झांस	-11.6841
भूमि	-11.6842
दत्त	-11.6843
ity	-11.6845
▁कस्टम	-11.6864
ुशासन	-11.6868
प्रभावशाली	-11.6877
▁240	-11.6877
▁लिखत	-11.6884
▁संयोज	-11.6889
▁हॉर	-11.6889
▁जेएस	-11.6921
▁बिछ	-11.6934
ललन	-11.6935
▁लॉजिस्ट	-11.6936
▁Appl	-11.6936
▁Office	-11.6936
▁उज्जवल	-11.6936
▁जगदलपुर	-11.6936
▁तानाशाह	-11.6936
▁स्टूडियो	-11.6936
ोभन	-11.6936
▁संवेदना	-11.6936
▁बुलंद	-11.6936
▁महबूब	-11.6937
मिलिट्री	-11.6937
चांपा	-11.6937
हिन्दी	-11.6939
▁सुषम	-11.6941
▁मिसाल	-11.6941
▁स्टै	-11.6942
▁श्रीनिवास	-11.6942
ाहिद	-11.6943
▁नीलेश	-11.6943
▁यूजीसी	-11.6944
▁कॉमन	-11.6944
▁बुरे	-11.6944
▁अंजलि	-11.6946
▁लाभुक	-11.6947
▁ट्राली	-11.6948
▁तेवर	-11.6949
▁कच्छ	-11.695
▁इंदर	-11.6951
िबिलिटी	-11.6967
िनेंट	-11.6969
▁श्राव	-11.6979
▁गिराया	-11.698
▁एआर	-11.698
2006	-11.6988
शुल्क	-11.699
द्वीप	-11.6992
सामाजिक	-11.6992
विदेश	-11.6996
▁घूमत	-11.7001
जवाहरलाल	-11.7002
▁निचल	-11.7043
▁प्लेस	-11.7043
shi	-11.7066
▁गलिय	-11.7068
▁प्रताड़	-11.7078
▁कांफ्रेंस	-11.7086
▁वन्यजीव	-11.7086
▁शहडोल	-11.7086
▁शृंगार	-11.7086
▁सुधांश	-11.7086
▁डीईओ	-11.7086
▁इस्माइल	-11.7086
▁बांगड़	-11.7086
▁जशपुर	-11.7086
▁कत्ल	-11.7086
▁जलाशय	-11.7086
▁to	-11.7086
▁बिस्वा	-11.7086
▁जुबान	-11.7086
तपस्या	-11.7086
आयरलैंड	-11.7087
▁असीम	-11.7087
▁नौकरियां	-11.7088
▁शीतलहर	-11.7088
▁गंड	-11.7089
▁छप्प	-11.7089
▁गोकुल	-11.7093
धीश	-11.7094
▁बांदा	-11.7094
▁पालीवाल	-11.7095
▁मैहर	-11.7095
▁डांगी	-11.7099
▁नियोजन	-11.7099
सीआरपीएफ	-11.7112
ामृत	-11.7122
▁डाइट	-11.7124
▁सरमा	-11.7129
▁फेक	-11.7134
छात्राएं	-11.7143
संचार	-11.7143
मिला	-11.7151
निर्माण	-11.7157
▁जेठ	-11.7169
lus	-11.7222
▁क्रूज	-11.7236
ोग्राफी	-11.7237
गुवाहाटी	-11.7237
▁इमोशनल	-11.7237
▁ट्विटर	-11.7237
▁पार्थिव	-11.7237
▁मुक़ाबल	-11.7237
▁लॉन्ग	-11.7237
▁वासुदेव	-11.7237
▁सबकुछ	-11.7237
▁मिजाज	-11.7237
▁लाइंस	-11.7237
▁पद्धति	-11.7237
▁धनुष	-11.7237
▁सिंघवी	-11.7237
▁माओवाद	-11.7237
▁शत्रुघ्	-11.7237
▁नस्ल	-11.7238
▁अर्बन	-11.7239
▁असमर्थ	-11.7239
▁बैलेंस	-11.7239
जीडीपी	-11.724
▁इंट्र	-11.7241
▁पॉवर	-11.7242
▁अल्प	-11.7243
गावस्	-11.7243
▁स्ट्रा	-11.7243
▁निपटारा	-11.7245
▁कुंडली	-11.7248
▁999	-11.725
▁सरयू	-11.7252
▁दवाएं	-11.7254
▁SI	-11.7255
▁धंस	-11.7256
▁लोकप्रियता	-11.7257
▁सतर्कता	-11.7259
▁सद्	-11.7261
▁सोर्स	-11.7262
मागम	-11.727
ॉइस	-11.727
योजित	-11.7277
कहीं	-11.7298
ऑफ	-11.7305
▁रोच	-11.7309
▁Ke	-11.7321
▁Ram	-11.7353
▁अलाव	-11.7355
▁टेलीग्रा	-11.7368
ंबेडकर	-11.7383
▁बकरी	-11.7384
▁चन्द	-11.7391
▁कीटनाशक	-11.7391
▁कॉमर्शियल	-11.7391
▁तत्पर	-11.7391
▁दिल्‍ली	-11.7391
▁पाकिस्‍तान	-11.7391
▁बाराबंकी	-11.7391
▁भाद्रपद	-11.7391
▁मालगाड़ी	-11.7391
▁म्यांमार	-11.7391
▁सौहार्द	-11.7391
▁मुइज्	-11.7391
▁मरांडी	-11.7391
▁पगड़ी	-11.7391
▁संधू	-11.7391
▁हाईकमान	-11.7391
▁धांधल	-11.7391
▁सुकमा	-11.7391
▁कांकेर	-11.7391
▁उस्मान	-11.7391
डीएफओ	-11.7391
▁चतरा	-11.7391
▁इनेलो	-11.7391
▁मुस्तफ	-11.7392
▁संग्रहालय	-11.7392
▁बराड़	-11.7393
▁मिच	-11.7393
▁रेशम	-11.7394
▁आईएमए	-11.7394
▁एल्वि	-11.7395
▁कन्हैयालाल	-11.7395
▁कांटे	-11.7396
▁कैडेट	-11.7397
रुप	-11.7398
बरनाला	-11.74
▁गुंज	-11.74
अक्षत	-11.7401
▁रेकी	-11.7404
▁जुटाए	-11.7406
ैमूर	-11.7407
▁गोबर	-11.7409
▁अरमान	-11.7412
▁दाहिन	-11.7412
▁डीपीआर	-11.7414
स्वार्थ	-11.7414
▁पसीन	-11.7417
▁मोमेंट	-11.7419
▁अजग	-11.7447
▁चंब	-11.7463
कुआं	-11.747
▁एसएन	-11.7474
▁कोतवाल	-11.7475
▁मौज	-11.7477
▁रीड	-11.7498
▁आरोग्य	-11.7547
▁त्यौहार	-11.7547
▁दूषित	-11.7547
▁फुटपाथ	-11.7547
▁महाप्रबंधक	-11.7547
▁मुसीबत	-11.7547
@	-11.7547
▁कस्टडी	-11.7547
▁सृजन	-11.7547
▁दतिया	-11.7547
▁सरगना	-11.7547
एनएचएआई	-11.7547
▁बेगम	-11.7547
▁ज्वाइन	-11.7548
एमटी	-11.7548
▁प्लेइंग	-11.7548
▁खटीक	-11.7548
▁कीजिए	-11.7548
▁धुर्व	-11.7549
▁सुदाम	-11.755
▁गलियार	-11.755
▁DSP	-11.7551
▁डलवा	-11.7552
▁तगड़	-11.7553
हमार	-11.7553
▁1980	-11.7557
▁प्रदर्शनकारी	-11.7559
▁प्रभारियों	-11.7567
▁ललितपुर	-11.7569
▁सुरंग	-11.7572
▁जुटाई	-11.7581
बृहस्पतिवार	-11.7609
रुख	-11.7622
▁स्लो	-11.7643
चुअल	-11.7649
▁जुर्म	-11.7662
िल्ली	-11.7668
RA	-11.7672
ika	-11.7674
हर्षि	-11.7684
▁अधीक्ष	-11.7687
ातल	-11.7705
ोत्तम	-11.7705
▁उज्ज्वल	-11.7706
▁कॉरपोरे	-11.7706
▁भ्रामक	-11.7706
▁वेशभूषा	-11.7706
▁स्तंभ	-11.7706
▁हलफनाम	-11.7706
▁हाथापाई	-11.7706
▁ठुकरा	-11.7706
एनडीआरएफ	-11.7706
▁धंधे	-11.7706
▁सिक्के	-11.7706
ध्वनि	-11.7706
▁आइटम	-11.7706
▁जागृत	-11.7706
▁संयम	-11.7706
▁प्रोटोक	-11.7706
▁किराये	-11.7706
▁फायदेमंद	-11.7706
▁अमेज	-11.7707
▁सुप्रिय	-11.7709
▁कैरेट	-11.771
▁रविदास	-11.7711
▁खाटू	-11.7712
▁अलायंस	-11.7715
▁चहल	-11.7716
▁सिंधु	-11.7717
एनएस	-11.7718
▁फर्श	-11.772
▁अनशन	-11.7723
▁पंथ	-11.7723
▁प्रभास	-11.7724
▁दिलावर	-11.7724
सेप्ट	-11.7743
+	-11.7773
चित्र	-11.7776
▁मूर्तिय	-11.7784
SD	-11.7796
पोश	-11.7802
0-50	-11.781
बाध	-11.7838
▁डाइ	-11.7839
▁टेस्	-11.7848
शिष्ट	-11.7855
▁व्याव	-11.7859
▁एमबीबीएस	-11.7867
▁गंतव्य	-11.7867
▁पवेलियन	-11.7867
▁मुकुट	-11.7867
▁ब्यावर	-11.7867
▁लखीमपुर	-11.7867
▁इशारे	-11.7867
▁अनन्या	-11.7867
▁(45)	-11.7867
▁फारूक	-11.7867
port	-11.7867
▁सचेत	-11.7868
पूज्य	-11.7868
▁ट्रांसफॉर्म	-11.7868
MLA	-11.7868
▁ग्रोवर	-11.7868
पीएचसी	-11.7868
▁रजनीकांत	-11.7868
▁अल्लाह	-11.7869
▁मलेशिय	-11.7869
▁अरबाज	-11.7869
▁एरि	-11.787
▁वरदान	-11.7871
▁संगठ	-11.7873
▁द्वारका	-11.7875
▁व्यक्तित्व	-11.7878
▁शायर	-11.7879
▁जाब्त	-11.7883
▁लर्न	-11.7884
▁फिक्स	-11.7885
▁चोटिल	-11.7885
िश्म	-11.7885
▁बैठाया	-11.7891
▁डांट	-11.7908
धिकारियों	-11.7909
▁राष्ट्रवाद	-11.7909
▁क्रांतिकार	-11.7924
विरोध	-11.7938
पूजन	-11.7942
विकास	-11.7947
▁इम्प	-11.7951
▁मौस	-11.796
▁ऑपरेट	-11.7965
▁झपट	-11.8006
▁सहमत	-11.8021
▁प्रतियोग	-11.803
▁नवनिर्वाच	-11.8031
राष्‍ट्र	-11.8031
ऱ	-11.8031
▁एंटरटेन	-11.8031
▁चंपई	-11.8031
▁माइक्रोसॉफ्ट	-11.8031
▁राजपुरोहित	-11.8031
▁लपटें	-11.8031
▁लाभान्वित	-11.8031
▁श्रॉफ	-11.8031
▁महिपाल	-11.8031
▁(40)	-11.8031
▁खामियाज	-11.8031
▁विनाश	-11.8032
▁आज़ाद	-11.8032
▁घूस	-11.8032
▁अधिशा	-11.8032
टीडीपी	-11.8033
▁भविष्यवाणी	-11.8033
▁मुख्‍य	-11.8033
▁बैरिकेडिंग	-11.8036
▁टहल	-11.8037
▁ख्वा	-11.8038
▁क्षमा	-11.8039
्बुल्ला	-11.8039
▁क्षत्र	-11.8044
▁अभद्रता	-11.8044
▁पॉलिटिक्स	-11.8044
▁पीडीए	-11.8045
▁उग्रवाद	-11.8046
एमएसपी	-11.8047
▁सीएए	-11.8054
▁औषधि	-11.8065
▁बूढ़	-11.807
IG	-11.8095
▁जख्म	-11.8124
▁अधिव	-11.815
पल्ली	-11.8169
▁डंप	-11.8176
▁अप्लाई	-11.8198
▁ज्येष्ठ	-11.8198
▁महत्वाकांक्ष	-11.8198
▁मुंशी	-11.8198
▁मुलाक़ात	-11.8198
▁मैन्युफैक्चर	-11.8198
▁रिपेयर	-11.8198
▁लहसुन	-11.8198
▁शैक्षिक	-11.8198
▁सेलिब्रेशन	-11.8198
▁SDM	-11.8198
▁STF	-11.8198
▁कंडीशन	-11.8198
▁रंगारंग	-11.8198
▁श्रीमद्	-11.8198
▁सन्नाटा	-11.8198
▁अटकलें	-11.8198
▁जलमग्न	-11.8198
▁मौक़	-11.8198
▁आफिस	-11.8198
▁गन्ने	-11.8198
▁प्‍ले	-11.8198
विक्रय	-11.8198
▁तकलीफ	-11.8198
▁गोदारा	-11.8198
▁सुगम	-11.8198
▁सरहद	-11.8198
▁अमीन	-11.8198
खगड़िया	-11.8198
▁खजरान	-11.8199
▁पसरा	-11.8199
▁पटनायक	-11.8199
▁बोहरा	-11.82
क्लेव	-11.82
▁अनावरण	-11.8201
रिवाज	-11.8201
डीआरएम	-11.8201
▁इंटर्न	-11.8201
▁भयाव	-11.8201
▁सौम्य	-11.8201
वर्णन	-11.8202
▁हासन	-11.8202
आईपीसी	-11.8207
▁शैलेश	-11.8208
▁जेईई	-11.8209
▁झोंक	-11.8209
▁स्टेटमेंट	-11.8212
एनएल	-11.8212
▁बेदी	-11.8221
द्धार	-11.8225
छोर	-11.8258
बिरंग	-11.8267
प्रतिष्ठा	-11.8274
sel	-11.8292
▁झाझ	-11.8299
दशमी	-11.83
▁बंप	-11.8302
एसएल	-11.8362
्वाइंट	-11.8362
▁सुनहर	-11.8363
▁कॉर्पोरे	-11.8366
BCCI	-11.8367
अप्रत्याशित	-11.8367
कम्युनिस्ट	-11.8367
ास्पद	-11.8367
▁World	-11.8367
▁असुविधा	-11.8367
▁छुटकारा	-11.8367
▁जेएमएम	-11.8367
▁भदौरिया	-11.8367
▁भागीरथ	-11.8367
▁बाउंस	-11.8367
▁उर्दू	-11.8367
▁डिटेन	-11.8367
▁ब्यूटी	-11.8367
▁पेंडिंग	-11.8367
शुष्क	-11.8367
▁(28)	-11.8367
▁मजेदार	-11.8367
▁रिमझ	-11.8367
▁शंख	-11.8368
▁समावेश	-11.8368
▁जलेबी	-11.8368
▁भेद	-11.8368
▁समाधि	-11.8368
▁निर्दोष	-11.8368
▁मेघालय	-11.8369
▁तालमेल	-11.8369
प्रूव	-11.8369
▁Ex	-11.837
▁अभ्य	-11.837
▁विलंब	-11.837
▁कॉर्न	-11.8371
ड्रम	-11.8373
▁समझिए	-11.8382
किनार	-11.8395
नुसार	-11.8408
▁थोड़	-11.842
▁जल्दबाज	-11.8429
डीपीओ	-11.8444
सलूक	-11.8471
▁निर्धार	-11.8484
बारूद	-11.8521
▁NH	-11.8534
▁ऑडिय	-11.8535
यलो	-11.8538
▁हनुम	-11.8538
▁सनराइज	-11.854
▁उर्वरक	-11.854
▁क्यूसेक	-11.854
▁गुरदासपुर	-11.854
▁छेड़खानी	-11.854
▁फर्नीचर	-11.854
▁मिजोरम	-11.854
▁मेडिसिन	-11.854
▁संकीर्तन	-11.854
▁स्टॉफ	-11.854
▁ग़लत	-11.854
▁गाँव	-11.854
▁रिफाइन	-11.854
▁अनुमोद	-11.854
▁रिसोर्	-11.854
हिंदुत्व	-11.854
▁निष्कास	-11.854
UPSC	-11.854
▁दखल	-11.854
कमर्शियल	-11.854
▁सभ्य	-11.854
▁डायलॉग	-11.854
▁प्रोफ़े	-11.8541
▁खिलवाड़	-11.8541
एनजीओ	-11.8541
dashi	-11.8541
▁पत्थरबाजी	-11.8541
▁जैविक	-11.8543
▁अर्थात	-11.8543
▁कूड़े	-11.8543
▁चिंताजनक	-11.8543
▁टेम्प	-11.8544
▁साहित्यकार	-11.8545
▁बयानबाज	-11.8545
▁आफत	-11.8546
▁थर्म	-11.8548
▁अंकुर	-11.8549
▁(10	-11.8552
▁मंदा	-11.8554
▁बंसी	-11.8556
▁बर्थ	-11.856
▁गढ़वा	-11.8561
र्जिन	-11.8573
▁सैलान	-11.8576
▁पोस्त	-11.8583
Die	-11.8589
अनारक्षित	-11.859
ुंआ	-11.8598
CH	-11.8615
मुक्त	-11.8622
प्रथम	-11.8622
परिवार	-11.8622
▁चतुर्थ	-11.8645
बीडीओ	-11.8647
स्ट्रॉन्ग	-11.8715
▁Today	-11.8715
▁अहिल्या	-11.8715
▁ढिल्लों	-11.8715
▁दूरदर्श	-11.8715
▁निःशुल्क	-11.8715
▁प्रज्ज्वल	-11.8715
▁मापदंड	-11.8715
▁सदैव	-11.8715
▁एसोसिएट	-11.8715
▁तीर्थयात्र	-11.8715
▁लिपिक	-11.8715
▁भरपाई	-11.8715
▁पैरोल	-11.8715
▁बुनकर	-11.8716
▁सप्तम	-11.8716
▁अभिभाष	-11.8716
▁मनोनीत	-11.8716
▁कार्बन	-11.8716
▁फ्लिप	-11.8717
▁प्लेसमेंट	-11.8717
▁NCP	-11.8718
▁अचल	-11.8718
▁सिमरन	-11.8719
▁ब्रेकअप	-11.8719
ुवैत	-11.872
▁सोमनाथ	-11.8721
▁सिलाई	-11.8723
▁फ्लाई	-11.8723
▁ड्रॉप	-11.8725
ांडव	-11.8726
▁काॅल	-11.8733
ोलिक	-11.8749
न्निध	-11.8771
र्णा	-11.8772
▁गमछ	-11.8777
▁सुखविंद	-11.8779
AP	-11.8781
व्यक्ति	-11.88
प्रशासन	-11.88
कांग्रेस	-11.88
anga	-11.8816
ric	-11.8817
चौड़ाई	-11.8833
▁जाऊं	-11.8838
MA	-11.8854
23)	-11.8861
पराजित	-11.8879
▁स्पोर्ट	-11.8886
▁शौच	-11.8893
ङ	-11.8894
द्रविड़	-11.8894
▁अटैच	-11.8894
▁अलविदा	-11.8894
▁एथलीट	-11.8894
▁कम्युनिकेश	-11.8894
▁कॉन्सर्ट	-11.8894
▁मंगलसूत्र	-11.8894
▁संक्रांति	-11.8894
▁टैलेंट	-11.8894
▁महमूद	-11.8894
▁विनम्र	-11.8894
▁कुसुम	-11.8894
▁नारकोटिक	-11.8894
▁सूर्यवंशी	-11.8894
▁बिहटा	-11.8894
▁बिरादर	-11.8894
▁बेहाल	-11.8894
▁वॉटर	-11.8894
▁रेनू	-11.8894
▁डिस्चार्ज	-11.8894
▁कहानियां	-11.8896
▁प्रश्नपत्र	-11.8896
▁संवर्ध	-11.8896
▁फॉरेंसि	-11.8897
▁फरीद	-11.8897
▁पूर्वजों	-11.8898
▁ह्यूम	-11.8899
▁घोषणापत्र	-11.89
▁इस्लामाबाद	-11.89
▁लेखपाल	-11.8901
▁रिटेल	-11.8901
▁बानो	-11.8904
▁मुगल	-11.8906
▁हेयर	-11.8907
चर्य	-11.8929
हेड़ा	-11.8936
▁रुद्र	-11.8941
▁0.0	-11.8968
▁चेहर	-11.8983
ET	-11.904
▁आउटसोर्स	-11.9076
▁इन्वेस्टिगेशन	-11.9076
▁जलापूर्ति	-11.9076
▁धमतरी	-11.9076
▁मंत्रमुग्ध	-11.9076
▁षड्यंत्र	-11.9076
▁सिब्बल	-11.9076
▁सेलिब्रिटी	-11.9076
▁सॉन्ग	-11.9076
▁ation	-11.9076
▁खदेड़	-11.9076
▁भ्रष्ट	-11.9076
▁मक्ख	-11.9076
▁नौतपा	-11.9076
▁बत्ती	-11.9076
▁रोहतास	-11.9076
▁वास्तु	-11.9076
▁मुबारक	-11.9076
▁कार्यभार	-11.9076
▁करूंगी	-11.9076
▁शंका	-11.9076
▁पदनाम	-11.9076
▁कटारा	-11.9076
▁इनोवेशन	-11.9077
▁वॉर्न	-11.9078
▁एक्सपोर्ट	-11.9078
▁प्रमाणपत्र	-11.9078
▁अमरोह	-11.9079
▁शिबू	-11.9079
▁विलास	-11.908
▁चिड़िया	-11.908
माजरा	-11.9081
▁छेड़	-11.9083
▁क्रिस्ट	-11.9084
▁एचएस	-11.9086
▁रितु	-11.9089
ाइफ	-11.9095
▁डल्ल	-11.9154
भूषण	-11.9157
खंडपीठ	-11.9164
रैंप	-11.917
▁बप्प	-11.9185
राइडर्स	-11.922
▁वैष्ण	-11.9233
EVM	-11.9234
▁जस्टि	-11.9255
▁One	-11.9261
▁अनहोनी	-11.9261
▁अयोग्य	-11.9261
▁तर्पण	-11.9261
▁तृप्ति	-11.9261
▁बुलंदशहर	-11.9261
▁रक्सौल	-11.9261
▁हड्डी	-11.9261
▁हमीदिया	-11.9261
▁(32)	-11.9261
▁जीर्णो	-11.9261
▁सज्जन	-11.9261
▁दंपति	-11.9261
टफ्ल	-11.9261
▁कॉन्क्लेव	-11.9261
▁तंबा	-11.9261
क्रिमिन	-11.9261
जेजेपी	-11.9261
▁बड़ौद	-11.9262
▁रेणुका	-11.9263
▁कमाए	-11.9263
▁रघुनाथ	-11.9264
▁फ़ायद	-11.9266
▁एजेंसियां	-11.9266
uti	-11.9267
▁डामर	-11.9268
▁जानकारियां	-11.9268
▁Dev	-11.9273
day	-11.9287
ग्राउंड	-11.9356
प्रसार	-11.9356
राशि	-11.9356
शोध	-11.938
पीआरओ	-11.9391
NA	-11.9409
▁दुर्भाग्य	-11.9449
DRF	-11.9449
▁कप्‍तान	-11.9449
▁किल्लत	-11.9449
▁धर्मांतरण	-11.9449
▁नॉमिनेशन	-11.9449
▁फ्यूचर	-11.9449
▁महायज्ञ	-11.9449
▁सरायकेला	-11.9449
▁सुरजेवाला	-11.9449
▁सैटेलाइट	-11.9449
डायरेक्शन	-11.945
▁(55)	-11.945
टीकमगढ़	-11.945
▁ज्ञात	-11.945
▁पोशाक	-11.945
▁कवायद	-11.945
▁भाकपा	-11.945
▁कंसल्टें	-11.945
▁अरूण	-11.945
▁अगेन	-11.945
▁आमदनी	-11.945
▁करुणा	-11.945
▁सघन	-11.945
▁फेवर	-11.945
▁यूसुफ	-11.945
▁सईद	-11.9451
लोजपा	-11.9451
▁खातून	-11.9451
▁सॉलि	-11.9452
▁कीचड़	-11.9452
जामताड़ा	-11.9452
▁कौशा	-11.9453
कन्नड़	-11.9453
▁TV	-11.9454
▁पशुपति	-11.9454
▁चंद्रम	-11.9454
सिंगरौली	-11.9455
▁ग्रिड	-11.9457
▁केमिस्ट	-11.9457
हर्ता	-11.9457
▁निशि	-11.9478
▁स्लै	-11.948
▁स्वीट	-11.9489
▁बस्तिय	-11.9506
for	-11.9507
िहाई	-11.9523
पॉक्स	-11.9529
धेड़	-11.9532
▁शिवान	-11.9542
सैनिक	-11.9548
प्रदर्शन	-11.9548
कैप	-11.9549
भुवन	-11.9586
तिगत	-11.959
▁अफ्रीक	-11.9592
▁डिग्	-11.9616
▁आंध्रप्रदेश	-11.9642
▁इटारसी	-11.9642
▁ऑब्जर्व	-11.9642
▁कम्युनिटी	-11.9642
▁चरमपंथ	-11.9642
▁मोहब्बत	-11.9642
▁विकलांग	-11.9642
▁इज्जत	-11.9642
▁प्रशंसक	-11.9642
▁उल्लास	-11.9642
▁एवरेज	-11.9642
▁धोखे	-11.9642
▁पदभार	-11.9642
▁न्योता	-11.9642
▁मुकाम	-11.9642
▁बदहाल	-11.9642
▁सुमेर	-11.9642
▁(50)	-11.9642
▁एक्यूआई	-11.9642
पेंड्रा	-11.9642
▁कवच	-11.9642
▁आंवल	-11.9642
▁पिपरा	-11.9642
▁श्रीमाली	-11.9642
ट्रॉमा	-11.9642
▁आंसर	-11.9643
▁प्रारूप	-11.9643
मरवाही	-11.9644
iwal	-11.9644
गुनिया	-11.9644
▁वांछ	-11.9645
▁डाॅ	-11.9648
कायदा	-11.9648
▁गुढ़	-11.9649
▁बकरिय	-11.9654
▁घोंट	-11.9703
▁मिर्जा	-11.9703
केवाईसी	-11.9707
▁Kar	-11.9709
PG	-11.9726
गंगा	-11.9746
कमांडो	-11.9771
भिन्न	-11.981
वस्था	-11.9819
▁फैक्ट्रिय	-11.9838
▁मुलाजिम	-11.9838
▁वाईएसआर	-11.9838
धीश्वर	-11.9838
▁OBC	-11.9838
▁अम्बेडकर	-11.9838
▁एप्लीकेशन	-11.9838
▁चम्मच	-11.9838
▁तमंचा	-11.9838
▁त्रुटि	-11.9838
▁पॉडकास्ट	-11.9838
▁सेलिब्रेट	-11.9838
▁स्काउट	-11.9838
▁असेंबल	-11.9838
LED	-11.9838
▁चूल्ह	-11.9838
चुरल	-11.9838
▁ताराचंद	-11.9839
▁पनीर	-11.9839
▁यशवंत	-11.984
▁अनुशंस	-11.984
▁बावड़ी	-11.984
फ्फ	-11.984
▁रवीन	-11.9846
▁घाव	-11.9847
▁आढ़त	-11.985
▁ग्वाल	-11.9862
एनडी	-11.987
मुश्त	-11.9876
ैरियर	-11.9879
▁जुल्	-11.9886
म्मी	-11.9923
▁एशिय	-11.9944
सुबह	-11.9944
निहार	-11.9963
TMC	-11.9975
▁ऑडि	-11.9982
▁गायकवाड	-11.9999
मणि	-12.0025
खजुराहो	-12.0038
▁Case	-12.0038
▁अनुराधा	-12.0038
▁अर्थशास्त्र	-12.0038
▁झमाझम	-12.0038
▁नसरल्लाह	-12.0038
▁निषेध	-12.0038
▁पुस्तिका	-12.0038
▁प्राध्यापक	-12.0038
▁बीएचयू	-12.0038
▁महापंचायत	-12.0038
▁महाशिवरात्रि	-12.0038
▁मैगजीन	-12.0038
▁रिसेप्शन	-12.0038
▁वियतनाम	-12.0038
▁संक्रमित	-12.0038
▁हालाँकि	-12.0038
▁क्रैश	-12.0038
▁सक्सेस	-12.0038
▁दुमका	-12.0038
▁(27)	-12.0038
▁रिटेन	-12.0038
▁अहंकार	-12.0038
▁बच्‍च	-12.0038
▁क्यूआर	-12.0038
▁थाईलैंड	-12.0038
:15	-12.0038
▁बलूच	-12.0038
▁बंशी	-12.0038
▁नकाब	-12.0038
फ्रिज	-12.0038
▁दुर्भाग्यपूर्ण	-12.0039
▁रिएक्ट	-12.0039
▁प्रतीक्षा	-12.0039
▁छापामार	-12.0039
▁रश्मिका	-12.0041
▁डुअल	-12.0042
▁मूसल	-12.0044
विभाज	-12.0045
द्रास	-12.0055
्कॉन	-12.0078
पोर्ट	-12.01
▁थॉम	-12.0125
▁समायोज	-12.0156
एफआई	-12.0169
1990	-12.0169
िगत	-12.0171
▁औषध	-12.02
▁सीढ़िय	-12.0211
▁खीं	-12.0217
▁निजाम	-12.0224
▁रेणु	-12.024
ट्सएप	-12.0242
▁अनिश्चितकाल	-12.0242
▁(19)	-12.0242
▁आर्किटेक्	-12.0242
▁उपरोक्त	-12.0242
▁एमएसएमई	-12.0242
▁चमत्कार	-12.0242
▁चिन्मय	-12.0242
▁जवाबदेह	-12.0242
▁निष्कर्ष	-12.0242
▁न्यायपालिका	-12.0242
▁पीठासीन	-12.0242
▁मंत्रोच्चार	-12.0242
▁मिठाइय	-12.0242
▁शिवरात्रि	-12.0242
▁सूक्ष्म	-12.0242
▁जुनून	-12.0242
▁छाबड़ा	-12.0242
▁जालौन	-12.0242
▁विंध्य	-12.0242
▁गैलेक्	-12.0242
▁चिंतन	-12.0242
▁डिलीट	-12.0242
▁यूएई	-12.0242
▁लुढ़क	-12.0242
▁नौबत	-12.0242
▁आपबीती	-12.0242
▁चौबीस	-12.0242
BSE	-12.0242
▁मयूर	-12.0242
▁आंगनवाड़	-12.0242
उद्दीन	-12.0243
▁कांवरिय	-12.0243
▁शहबाज	-12.0243
▁SIT	-12.0243
▁मताधिकार	-12.0243
▁जागरुक	-12.0244
▁शरणार्थ	-12.0244
▁(12	-12.0244
▁अघाड	-12.0244
▁RCB	-12.0244
हीरामंडी	-12.0244
▁रघुवीर	-12.0244
▁हास्य	-12.0245
▁सूर्योदय	-12.0245
क्वीन	-12.0246
▁महकम	-12.0247
▁चिपका	-12.0248
ंगुली	-12.0266
▁मैक्रो	-12.0325
समृद्धि	-12.0356
खुश	-12.0357
नवमी	-12.0358
▁0.2	-12.0368
2-2	-12.0384
धिकृत	-12.0445
▁अटेंडें	-12.0446
▁Author	-12.045
▁Collection	-12.045
▁इंटीरियर	-12.045
▁उत्कर्ष	-12.045
▁जनार्दन	-12.045
▁जांगिड़	-12.045
▁पर्दाफाश	-12.045
▁प्रयोगशाला	-12.045
▁प्रेसवार्ता	-12.045
▁बौछार	-12.045
▁मुस्तैद	-12.045
▁वेंटिलेट	-12.045
▁सिंदूर	-12.045
▁अनुयाय	-12.045
कृत्रिम	-12.045
▁तरक्की	-12.045
▁डायबिट	-12.045
▁मछलिय	-12.045
▁पंक्ति	-12.045
▁ओवरलोड	-12.045
▁कटाक्ष	-12.045
▁चन्नी	-12.045
▁बर्बर	-12.045
▁मलयाल	-12.0451
▁टेलीविज	-12.0451
▁तड़प	-12.0451
▁खिसक	-12.0451
▁फिंगर	-12.0451
▁हर्षवर्धन	-12.0451
▁अतीक	-12.0451
▁किस्से	-12.0452
▁अनीस	-12.0452
▁अमोल	-12.0453
CAA	-12.0453
▁पैपर	-12.0457
▁कंबो	-12.0458
▁चैप्	-12.0467
च्चा	-12.047
▁बैरिय	-12.0501
ill	-12.0518
▁मंडाव	-12.0532
गुलाल	-12.0547
व्यवहार	-12.0569
▁ka	-12.0586
फोर्ड	-12.0588
ल्लु	-12.0616
▁शाकि	-12.0631
▁-2023	-12.0663
▁आश्रित	-12.0663
▁एलिवेटेड	-12.0663
▁कंटेस्टेंट	-12.0663
▁चिरंजीव	-12.0663
▁ट्रिब्यून	-12.0663
▁त्रिवेणी	-12.0663
▁प्रोटेक्शन	-12.0663
▁बाजपेयी	-12.0663
▁ब्राउन	-12.0663
▁योद्धा	-12.0663
▁विज्ञप्ति	-12.0663
▁वैवाहिक	-12.0663
▁सामंजस्य	-12.0663
▁टॉवर	-12.0663
▁दुग्ध	-12.0663
▁प्रारम्भ	-12.0663
▁श्योपुर	-12.0663
▁कुम्हार	-12.0663
DGP	-12.0663
BSF	-12.0663
▁वज्र	-12.0663
संगरूर	-12.0665
▁वाड्र	-12.0665
▁महत्त	-12.0671
▁मटक	-12.0683
लिसिस	-12.0696
बीआरएस	-12.0722
डीएसटी	-12.0746
वैधानिक	-12.0751
गठित	-12.0783
समिति	-12.0787
सेवक	-12.0787
AAP	-12.0788
सहाय	-12.0791
पीसीबी	-12.0813
िभव	-12.0816
गायिका	-12.0828
▁काउंट	-12.0852
▁रिजेक्	-12.0852
▁नवनिर्म	-12.0862
▁इंडोनेशिया	-12.088
▁इन्फ्रा	-12.088
▁उत्सुक	-12.088
▁उदासीन	-12.088
▁उपराज्यपाल	-12.088
▁एक्सपीरियंस	-12.088
▁एनटीपीसी	-12.088
▁एयरबैग	-12.088
▁कम्प्यूट	-12.088
▁गुंडागर्दी	-12.088
▁ग्यारह	-12.088
▁झुग्गी	-12.088
▁वर्चस्व	-12.088
▁विदर्भ	-12.088
▁वीडियोग्राफी	-12.088
▁कृषक	-12.088
▁टमाटर	-12.088
▁सोहेल	-12.088
▁कैरेक्टर	-12.088
▁रसायन	-12.088
▁पुरूष	-12.088
मीडिए	-12.0881
▁गोविल	-12.0881
CSK	-12.0881
▁वाशिंग	-12.0881
▁उंगली	-12.0881
▁नुक्कड	-12.0881
CEO	-12.0881
▁वॉच	-12.0881
▁जाधव	-12.0881
▁अहीर	-12.0881
लावारिस	-12.0881
▁अस्वीकार	-12.0882
▁अधीनस्थ	-12.0882
रालोद	-12.0882
▁ख़रीद	-12.0885
वॉट	-12.0903
lme	-12.0905
स्पीच	-12.0908
▁वैद्य	-12.0915
▁अवाम	-12.0925
aut	-12.0967
shta	-12.0968
किशोर	-12.1001
शेष	-12.1008
ऐ	-12.1009
संतोष	-12.1012
व्याप	-12.1014
▁लाेग	-12.1034
▁पीडि	-12.106
=	-12.1103
▁मुस्कुरा	-12.1103
▁श्रेणिय	-12.1103
कॉन्ट्रैक्ट	-12.1103
▁कार्यान्वयन	-12.1103
▁क्वालिफाई	-12.1103
▁ज्योतिर्लिंग	-12.1103
▁फाल्गुन	-12.1103
▁रिसॉर्ट	-12.1103
▁संयंत्र	-12.1103
▁सीक्रेट	-12.1103
▁हिज्बुल्ला	-12.1103
▁उम्रकैद	-12.1103
▁बर्ताव	-12.1103
▁सॉल्व	-12.1103
▁स्टालिन	-12.1103
▁फिल्ममेकर	-12.1103
▁स्वप्न	-12.1103
OTT	-12.1103
▁शाक्य	-12.1103
▁टिप्स	-12.1103
CJI	-12.1103
▁सुथार	-12.1103
▁तोहफा	-12.1103
▁भूटान	-12.1103
▁बैकग्राउंड	-12.1103
▁प्रचल	-12.1103
▁ग्रेनेड	-12.1103
▁दिव्यांश	-12.1103
▁त्रिशू	-12.1104
▁दारोग	-12.1104
▁मृद	-12.1106
बीईओ	-12.1106
▁नसीर	-12.1113
उड़ीसा	-12.1114
ट्रेस	-12.1131
▁इंफो	-12.1138
एमआईए	-12.1147
टेंडेंट	-12.1169
▁मंडिय	-12.1179
नियुक्त	-12.1235
द्वितीय	-12.1236
कर्मचारी	-12.1236
▁New	-12.1328
▁संप्रभु	-12.133
://	-12.133
आश्रय	-12.133
प्रत्यारोप	-12.133
▁Result	-12.133
▁अशरफ	-12.133
▁एग्जीक्यूट	-12.133
▁ज़िंदगी	-12.133
▁प्रदूषित	-12.133
▁फेरबदल	-12.133
▁बंदोबस्त	-12.133
▁बल्‍लेबाज	-12.133
▁वीरांगना	-12.133
▁सांत्वना	-12.133
▁सिलावट	-12.133
मुंगेली	-12.133
▁सीमांकन	-12.133
▁मशाल	-12.133
SBI	-12.133
Z	-12.1469
&	-12.1562
ऽ	-12.2295
•	-12.3362
_	-12.3648
#	-12.3648
ञ	-12.4245
া	-12.5213
ে	-12.8376
র	-12.8853
🔴	-12.8853
]	-12.9879
ळ	-13.0434
ऩ	-13.1023
️	-13.1648
🌟	-13.1648
॰	-13.2314
ক	-13.3029
२	-13.4631
্	-13.554
ి	-13.654
క	-13.654
ন	-13.654
ি	-13.654
ు	-13.7651
ా	-13.7651
్	-13.7651
×	-13.7651
ত	-13.7651
ల	-13.8901
औ	-14.0236
ব	-14.033
●	-14.033
ম	-14.033
ট	-14.1997
३	-14.1997
४	-14.1997
ర	-14.1997
>	-14.1997
ো	-14.1997
প	-14.3997
ం	-14.3997
१	-14.3997
ল	-14.3997
ু	-14.3997
স	-14.6497
గ	-14.6497
ీ	-14.6497
~	-14.6497
९	-14.6497
চ	-14.6497
য	-14.6497
ষ	-14.6497
♈	-14.6497
ట	-14.6497
స	-14.983
ॊ	-14.983
ড	-14.983
ধ	-14.983
త	-14.983
న	-14.983
⏱	-14.983
♍	-14.983
⚠	-14.983
🪐	-14.983
দ	-14.983
ూ	-15.483
£	-15.483
ॆ	-15.483
আ	-15.483
ও	-15.483
খ	-15.483
়	-15.483
ী	-15.483
శ	-15.483
⁄	-15.483
☀	-15.483
♏	-15.483
♐	-15.483
♑	-15.483
♒	-15.483
🌙	-15.483
🔵	-15.483
ঁ	-15.483
డ	-15.483
ె	-15.483
(	-16.4744
♓	-16.4807
ప	-16.4808
ই	-16.4809
ॠ	-16.481
🇳	-16.4811
🇮	-16.4812
⭐	-16.4813
వ	-16.4814
ছ	-16.4815
এ	-16.4816
[	-16.4817
🕐	-16.4818
చ	-16.4819
জ	-16.482
­	-16.4821
\	-16.4822
⁠	-16.4823
➤	-16.4824
̈	-16.4825
$	-16.4826
}	-16.4827
°	-16.4828
₹	-16.4829
ొ	-16.4829
❓	-16.4829
🤔	-16.4829
ణ	-16.483
ద	-16.483
😜	-16.483
😸	-16.483
·	-16.483
ï	-16.483
ऍ	-16.483
॑	-16.483
५	-16.483
६	-16.483
८	-16.483
অ	-16.483
ঘ	-16.483
ঠ	-16.483
ণ	-16.483
ઢ	-16.483
ఇ	-16.483
ఛ	-16.483
జ	-16.483
థ	-16.483
బ	-16.483
ే	-16.483
ో	-16.483
‛	-16.483
€	-16.483
⏩	-16.483
▪	-16.483
○	-16.483
♉	-16.483
♊	-16.483
♋	-16.483
♌	-16.483
♦	-16.483
⚫	-16.483
❗	-16.483
	-16.483
🌅	-16.483
🎉	-16.483
🏅	-16.483
🏹	-16.483
🐉	-16.483
💫	-16.483
🗓	-16.483
😉	-16.483
😎	-16.483
🤩	-16.483
🦌	-16.483
🧭	-16.483
ఫ	-16.483
ऋ	-16.483
భ	-16.483
