<unk>	0
<s>	0
</s>	0
।	-3.12662
▁के	-3.35791
▁में	-3.59847
▁की	-3.81813
▁है	-3.90954
,	-3.92411
▁को	-4.08675
▁से	-4.12881
▁ने	-4.25641
▁का	-4.44821
▁और	-4.48604
▁पर	-4.54751
▁कि	-4.85127
▁हैं	-4.95869
▁भी	-5.08879
▁कर	-5.2855
▁किया	-5.2862
-	-5.29596
▁लिए	-5.33455
▁गया	-5.38604
▁एक	-5.39111
▁इस	-5.43025
▁नहीं	-5.46987
▁था	-5.4884
ों	-5.52192
▁हो	-5.61995
▁ही	-5.64774
▁बाद	-5.65588
▁साथ	-5.79622
▁पुलिस	-5.81656
▁कहा	-5.82973
▁गई	-5.83203
ी	-5.84592
▁करने	-5.8589
.	-5.87086
▁दिया	-5.92552
▁	-5.99171
▁रहे	-6.02266
▁तो	-6.02564
▁थी	-6.03532
▁रहा	-6.04754
▁बताया	-6.04962
▁तक	-6.07508
▁हुए	-6.09409
▁यह	-6.1193
▁रही	-6.15759
▁थे	-6.16059
▁जा	-6.20541
▁सिंह	-6.2518
▁गए	-6.28526
े	-6.28667
▁उन्होंने	-6.29558
▁दी	-6.30781
▁लेकर	-6.362
▁पहले	-6.36885
▁इसके	-6.38889
:	-6.40744
▁लोगों	-6.42022
▁अपने	-6.44547
ा	-6.4525
▁हुई	-6.49669
▁लेकिन	-6.49744
▁(	-6.51254
)	-6.53422
▁व	-6.54659
▁होने	-6.57653
▁वह	-6.58564
▁वाले	-6.59828
▁दिन	-6.60304
▁साल	-6.60941
▁दौरान	-6.60946
▁हुआ	-6.64092
ने	-6.66325
▁अब	-6.69599
▁जो	-6.69933
▁सरकार	-6.72665
▁करते	-6.73208
▁घर	-6.74975
▁कुमार	-6.75817
▁दो	-6.76535
▁ये	-6.78889
▁सभी	-6.79952
▁कुछ	-6.81458
▁इन	-6.82216
▁लिया	-6.82916
▁कई	-6.83433
▁चुनाव	-6.8363
▁बार	-6.84224
▁काम	-6.88762
▁बात	-6.88782
▁भारत	-6.90783
▁टीम	-6.91186
कर	-6.91837
▁क्षेत्र	-6.92142
▁उनके	-6.92331
▁मामले	-6.93256
▁पास	-6.94385
▁कोई	-6.95059
▁थाना	-6.96292
▁गांव	-6.96648
▁लोग	-6.96996
▁द्वारा	-6.97944
▁अपनी	-6.99169
▁जब	-7.00024
▁समय	-7.00059
▁कांग्रेस	-7.00684
▁उन्हें	-7.0075
▁वहीं	-7.00908
▁शुरू	-7.01037
▁यहां	-7.02915
▁दोनों	-7.02978
▁दर्ज	-7.03974
▁बजे	-7.05869
▁आ	-7.06022
▁रुपए	-7.06508
न	-7.07449
▁जांच	-7.08124
▁किसी	-7.10267
▁तरह	-7.11456
▁विभाग	-7.12183
▁आरोपी	-7.12323
▁बीच	-7.12808
▁'	-7.12814
▁उसके	-7.12888
▁जानकारी	-7.13824
▁घटना	-7.14139
▁रूप	-7.14454
▁महिला	-7.16601
र	-7.16725
▁आज	-7.17229
▁शामिल	-7.17439
▁जिला	-7.17795
▁प्रदेश	-7.17855
▁न	-7.18664
▁एवं	-7.19216
▁नगर	-7.19337
▁नाम	-7.21289
▁होगा	-7.22226
▁जाएगा	-7.22615
▁भाजपा	-7.23035
▁किए	-7.23898
▁"	-7.24648
▁उसे	-7.24699
▁खिलाफ	-7.25873
▁लाख	-7.26076
▁जारी	-7.26124
▁जिले	-7.26575
▁पार्टी	-7.26899
▁जाने	-7.27041
▁2	-7.2749
▁अस्पताल	-7.27628
▁फिर	-7.28367
▁अन्य	-7.28639
▁रात	-7.29249
▁5	-7.29943
▁10	-7.30487
▁करीब	-7.30556
▁उनकी	-7.31523
▁कारण	-7.3204
▁देश	-7.32337
▁ज्यादा	-7.32506
▁वे	-7.32579
▁वाली	-7.34172
▁मौके	-7.34729
▁मंत्री	-7.34894
▁करना	-7.35631
▁या	-7.36049
▁3	-7.36091
▁ओर	-7.36229
▁जाता	-7.36273
▁कार्रवाई	-7.36522
'	-7.37705
▁पूर्व	-7.37937
▁तीन	-7.38224
▁मौत	-7.3827
▁डॉ	-7.38757
▁ले	-7.38955
▁सामने	-7.39375
▁वो	-7.40349
▁सुबह	-7.40351
?	-7.41087
▁परिवार	-7.42289
▁मंदिर	-7.42882
▁सबसे	-7.43284
▁देने	-7.4336
▁अध्यक्ष	-7.45795
▁हर	-7.46538
ता	-7.46822
▁क्या	-7.46837
▁निवासी	-7.4685
▁कार्यक्रम	-7.4693
▁हम	-7.47768
▁हजार	-7.47799
▁यादव	-7.47815
ल	-7.48272
▁युवक	-7.49166
▁सूचना	-7.49877
▁शहर	-7.504
▁बारिश	-7.5081
▁ऐसे	-7.50953
▁4	-7.50962
▁दिए	-7.51402
▁जहां	-7.52234
▁आने	-7.53118
▁होगी	-7.53281
▁पानी	-7.53622
▁फिल्म	-7.53698
▁इसी	-7.54142
▁जिसमें	-7.5419
▁गिरफ्तार	-7.54745
▁इसमें	-7.54935
▁करोड़	-7.54986
▁कम	-7.55868
▁अधिकारी	-7.5616
▁इससे	-7.56199
▁मांग	-7.56841
्स	-7.57124
▁लगा	-7.57466
▁6	-7.58103
▁आया	-7.58255
▁राज्य	-7.58535
▁भारतीय	-7.58569
▁अनुसार	-7.59261
▁रहने	-7.59502
▁स्कूल	-7.59577
▁मोदी	-7.59591
▁पहुंचे	-7.59692
▁कोर्ट	-7.60699
▁शर्मा	-7.60736
▁आरोप	-7.60739
▁दिल्ली	-7.60793
▁अधिक	-7.61012
▁आए	-7.61434
▁सकता	-7.61672
▁चाहिए	-7.62647
▁चल	-7.62696
▁लोकसभा	-7.6369
▁बाहर	-7.63826
▁मैं	-7.6467
▁स्थित	-7.64898
▁वहां	-7.65192
▁शिकायत	-7.65458
ियों	-7.65789
▁मिली	-7.65823
ं	-7.66109
ित	-7.66323
▁दे	-7.66361
▁मामला	-7.6691
▁पिछले	-7.67354
ओं	-7.67992
▁उसकी	-7.68099
▁पूरी	-7.68238
▁शव	-7.69567
▁आई	-7.72478
▁1	-7.72504
क	-7.72535
▁नेता	-7.72611
▁आगे	-7.73031
▁काफी	-7.73147
▁शाम	-7.74212
▁सहित	-7.74476
▁वर्ष	-7.74636
▁बड़ी	-7.7518
▁उस	-7.75196
▁जाएगी	-7.75393
▁जबकि	-7.76156
ना	-7.76283
▁राम	-7.76548
▁12	-7.77231
▁बहुत	-7.77642
▁हालांकि	-7.77963
▁अभी	-7.78755
▁बंद	-7.7944
म	-7.79483
▁मुख्यमंत्री	-7.79511
▁7	-7.79737
▁होता	-7.79777
▁तहत	-7.80743
▁विकास	-7.81118
▁विधानसभा	-7.81343
▁बच्चों	-7.81521
▁वीडियो	-7.81637
▁मुख्य	-7.81686
▁बैठक	-7.81978
▁बाइक	-7.8206
▁सड़क	-7.82295
▁उसने	-7.82881
▁ली	-7.8302
▁बारे	-7.83033
▁पिता	-7.83132
▁सकते	-7.83292
▁मां	-7.83342
▁रिपोर्ट	-7.83422
▁अलावा	-7.8364
▁करें	-7.83657
▁8	-7.83961
▁विधायक	-7.83966
▁उनका	-7.84095
▁रोड	-7.84657
▁मीडिया	-7.84679
▁हत्या	-7.84851
▁मिला	-7.85954
▁जिसक	-7.86126
▁केंद्र	-7.86147
▁2024	-7.86579
▁मिल	-7.86795
▁पता	-7.86902
▁अलग	-7.87114
▁कंपनी	-7.87477
▁अगर	-7.87559
▁कहना	-7.87559
▁अपना	-7.87617
▁वजह	-7.8827
▁संख्या	-7.88995
▁आरोपियों	-7.8913
▁पत्नी	-7.8945
▁मौजूद	-7.90366
▁दूसरे	-7.90497
▁कार्य	-7.91004
िंग	-7.91029
▁इसे	-7.91109
▁परीक्षा	-7.91833
▁कार	-7.91882
▁अधिकारियों	-7.92041
▁दिनों	-7.92131
▁सीट	-7.92405
▁चार	-7.92417
▁15	-7.92777
▁करता	-7.93039
▁शादी	-7.9324
▁11	-7.9328
▁करेंगे	-7.93298
▁तब	-7.933
▁पूरा	-7.93662
▁सुरक्षा	-7.93732
स	-7.93928
▁होती	-7.94147
▁घायल	-7.94178
▁समाज	-7.9459
▁महीने	-7.94913
▁आयोजन	-7.95262
▁अ	-7.95407
▁बना	-7.95467
▁जैसे	-7.95597
▁आप	-7.96135
▁बनाने	-7.96261
▁घंटे	-7.9663
▁20	-7.96798
▁तरफ	-7.97143
▁ऐसा	-7.97475
ते	-7.98433
▁हरियाणा	-7.98674
▁बीजेपी	-7.98714
▁नंबर	-7.98951
▁जिस	-7.98952
▁मुताबिक	-7.98978
▁लग	-7.9922
▁लगातार	-7.99357
▁भाई	-7.99563
"	-7.99824
▁सोमवार	-7.99845
▁9	-7.99853
▁जिससे	-8.00133
▁पूरे	-8.0025
▁निर्माण	-8.00331
में	-8.00531
▁पहुंची	-8.00874
▁इसकी	-8.01547
▁थाने	-8.02122
▁व्यक्ति	-8.027
▁जगह	-8.02808
▁सकती	-8.03229
▁नजर	-8.03482
ो	-8.03659
▁लगाया	-8.03845
▁मिलने	-8.04406
▁जीत	-8.04478
▁पहली	-8.04548
▁लगे	-8.04863
▁वाला	-8.0544
▁निगम	-8.05525
▁चला	-8.05745
▁इसका	-8.06339
▁मंगलवार	-8.06564
▁हूं	-8.06697
▁जाए	-8.07129
▁कराया	-8.07166
▁बस	-8.07453
▁योजना	-8.07691
▁प्रशासन	-8.08081
▁बिहार	-8.08612
▁देते	-8.08632
▁डिग्री	-8.08672
▁जी	-8.08779
ई	-8.08936
▁प्रधानमंत्री	-8.09032
▁आधार	-8.09174
▁इसलिए	-8.09345
▁भगवान	-8.09347
▁गांधी	-8.09508
▁पहुंच	-8.09736
▁मैच	-8.09749
▁निर्देश	-8.09826
▁सांसद	-8.10424
▁रन	-8.10763
▁बड़ा	-8.11306
▁बनाया	-8.11387
▁मुझे	-8.11389
▁केस	-8.11712
▁बड़े	-8.12036
▁इलाज	-8.12055
▁शनिवार	-8.12058
▁कॉलेज	-8.12489
▁तेज	-8.12624
▁रविवार	-8.1289
▁नए	-8.12947
▁जाती	-8.13328
▁बुधवार	-8.13351
▁शुक्रवार	-8.1391
▁जून	-8.1416
िया	-8.1426
▁शिक्षा	-8.14379
▁प्रदर्शन	-8.14466
▁प्रभारी	-8.14817
▁आग	-8.14837
▁रुपये	-8.14903
▁तैयार	-8.15114
▁पूजा	-8.15562
▁आयोजित	-8.15656
▁सीएम	-8.15757
▁जमीन	-8.15861
ीय	-8.15926
▁पति	-8.1593
▁नई	-8.15976
▁खान	-8.15989
▁पहचान	-8.16067
▁प्रति	-8.16495
▁मौसम	-8.16562
▁राजस्थान	-8.17045
▁तापमान	-8.17187
▁समेत	-8.17429
▁जेल	-8.17497
▁लगी	-8.17925
▁बिजली	-8.1816
▁उसका	-8.18177
▁भर्ती	-8.18551
▁परिजनों	-8.18747
के	-8.18843
▁स्थिति	-8.19062
▁खुद	-8.19343
▁गुरुवार	-8.1944
▁लेने	-8.19494
▁श्री	-8.19577
▁वोट	-8.19634
▁गंभीर	-8.19676
▁उन	-8.19875
▁पंजाब	-8.19893
▁देर	-8.20179
▁शुरुआत	-8.20429
▁बच्चे	-8.20632
▁बता	-8.20908
▁होते	-8.21032
▁सवाल	-8.21295
▁बैंक	-8.214
▁फोन	-8.21538
▁आदेश	-8.21803
▁पांच	-8.22064
▁बन	-8.22066
▁व्यवस्था	-8.22091
▁जुलाई	-8.22243
▁दें	-8.22333
▁राहुल	-8.22553
▁बेटे	-8.22612
▁मृतक	-8.22642
▁बयान	-8.22661
▁होकर	-8.22664
▁30	-8.23085
▁सरकारी	-8.23237
▁ट्रेन	-8.23276
▁यात्रा	-8.2353
▁-	-8.2363
▁चलते	-8.23841
▁जनता	-8.23862
▁पत्र	-8.24143
▁अभियान	-8.24555
▁रखा	-8.24589
▁चोरी	-8.24614
▁विशेष	-8.25143
▁राष्ट्रीय	-8.25163
▁थीं	-8.25245
▁क्योंकि	-8.25289
▁कुल	-8.25409
▁चुके	-8.25498
▁जल	-8.25945
▁दोपहर	-8.26076
▁विभिन्न	-8.26076
▁दूसरी	-8.26467
▁करके	-8.26571
▁सोशल	-8.26659
▁25	-8.26666
▁बेटी	-8.26838
▁मिले	-8.26989
...	-8.27148
पुर	-8.27171
▁प्रतिशत	-8.27196
▁विरोध	-8.27651
▁अगस्त	-8.27845
▁तथा	-8.28211
▁महिलाओं	-8.28515
▁चर्चा	-8.28976
▁होंगे	-8.29145
▁स्वास्थ्य	-8.29343
▁जवाब	-8.29407
▁सिर्फ	-8.29474
▁समिति	-8.29617
▁रेलवे	-8.29737
▁मदद	-8.30614
▁विवाद	-8.30616
▁वाहन	-8.31048
▁मोबाइल	-8.31113
▁चुकी	-8.31233
▁जाते	-8.31735
▁हाल	-8.31931
▁पद	-8.32035
▁बनाए	-8.32169
▁स्थानीय	-8.32195
▁भाग	-8.32577
▁हाथ	-8.32667
▁प्रमुख	-8.3285
▁सेवा	-8.33059
▁ग्राम	-8.33713
▁देखा	-8.33882
▁जैन	-8.34333
▁सब	-8.3456
▁लगभग	-8.34617
▁अवसर	-8.3485
▁आम	-8.34933
▁जयपुर	-8.35012
▁इलाके	-8.35135
▁सदस्य	-8.35666
▁किसान	-8.35743
▁करती	-8.36056
ट	-8.36123
▁सवार	-8.36138
▁डॉक्टर	-8.36138
▁मेरे	-8.36197
▁वापस	-8.36302
▁अवैध	-8.36357
▁जल्द	-8.36537
त	-8.36582
▁गाड़ी	-8.3701
▁स्तर	-8.37334
▁किसानों	-8.37351
ए	-8.37586
▁शराब	-8.37896
▁आदि	-8.37972
▁मई	-8.38316
▁बाजार	-8.38391
▁24	-8.38862
▁देवी	-8.39352
▁छात्र	-8.39679
▁बढ़	-8.39903
▁प्रयास	-8.40199
▁सितंबर	-8.40298
▁सचिव	-8.40444
▁कहते	-8.40618
▁13	-8.40657
▁इंडिया	-8.40741
▁मारपीट	-8.4097
▁अंदर	-8.41153
▁14	-8.41218
▁राज	-8.41454
▁लाल	-8.41456
▁जीवन	-8.41565
▁कोशिश	-8.4169
▁अक्टूबर	-8.42017
▁कलेक्टर	-8.42022
▁चुका	-8.42025
▁वालों	-8.42286
▁शेयर	-8.42479
▁बरामद	-8.42506
▁दूर	-8.42721
▁50	-8.43168
▁इंदौर	-8.43336
▁हमारे	-8.43396
▁पुत्र	-8.43494
▁दिसंबर	-8.43577
▁हमला	-8.43607
▁पीछे	-8.44338
▁पीएम	-8.44763
▁उत्तर	-8.44929
▁हादसे	-8.45043
▁जिन	-8.45141
ज	-8.45495
▁देकर	-8.45507
▁18	-8.45545
▁लिखा	-8.45785
▁पूछताछ	-8.46189
▁जान	-8.46347
▁पंचायत	-8.46389
▁मेडिकल	-8.46774
▁आवेदन	-8.46903
▁आसपास	-8.47033
▁नवंबर	-8.47295
▁16	-8.47512
▁संबंध	-8.4787
▁दुकान	-8.47913
▁रह	-8.48325
▁केंद्रीय	-8.48664
▁बने	-8.48767
▁प्राप्त	-8.48873
▁कभी	-8.49091
▁मतदान	-8.49272
▁तौर	-8.49443
▁चौधरी	-8.49872
▁केवल	-8.49962
▁पीड़ित	-8.49985
▁पेश	-8.50096
▁17	-8.50116
▁जाएंगे	-8.50156
▁आपको	-8.50363
िक	-8.50666
▁देखने	-8.50721
▁बिना	-8.5077
▁मैंने	-8.50864
▁जाना	-8.51015
▁पढ़ें	-8.51102
▁एसपी	-8.51197
▁मिनट	-8.51562
▁स्टेशन	-8.51621
री	-8.51659
सी	-8.51758
▁नेताओं	-8.52763
▁कार्यालय	-8.53226
▁क्यों	-8.53625
ू	-8.53698
▁भारी	-8.5379
▁पड़ा	-8.53966
▁माता	-8.54007
▁19	-8.54171
▁माध्यम	-8.54305
▁भोपाल	-8.54336
▁ध्यान	-8.544
▁खेल	-8.54622
▁वन	-8.55128
▁पाकिस्तान	-8.55317
▁मार्च	-8.55385
▁भेज	-8.55599
▁पक्ष	-8.55643
जी	-8.55803
▁होना	-8.56107
▁दल	-8.56108
नी	-8.56482
▁हमें	-8.56948
▁कैसे	-8.57385
▁मार	-8.57523
▁देखते	-8.57561
▁फरार	-8.58037
▁ना	-8.58592
▁नदी	-8.58594
▁माह	-8.58608
▁प्रसाद	-8.58705
अलग	-8.59101
▁राशि	-8.59476
▁कराने	-8.59499
▁बोर्ड	-8.6033
▁सके	-8.60475
▁संबंधित	-8.60741
▁लाइन	-8.61057
▁जिसे	-8.61217
▁ग्रामीणों	-8.61232
वीं	-8.61281
▁टिकट	-8.61411
ती	-8.61561
▁जनवरी	-8.62197
▁22	-8.62415
▁ग्रामीण	-8.62479
▁कर्मचारी	-8.62582
▁छात्रों	-8.62695
▁सीटों	-8.6277
▁यानी	-8.63113
▁ऑफ	-8.63275
▁टी	-8.63348
▁समारोह	-8.6349
▁अगले	-8.6363
▁तय	-8.63651
▁लगाए	-8.63696
▁पोस्ट	-8.63708
▁आयोग	-8.63805
▁शिव	-8.63905
▁21	-8.63934
▁जिलों	-8.64421
▁स्थान	-8.6446
▁मंडल	-8.64484
▁भेजा	-8.6451
▁संजय	-8.64651
▁प्रक्रिया	-8.65458
▁दावा	-8.65823
▁नेतृत्व	-8.66371
▁ऐसी	-8.66454
▁बनी	-8.66557
▁रखने	-8.66675
▁भर	-8.66769
▁छत्तीसगढ़	-8.66849
▁उर्फ	-8.66854
▁तलाश	-8.66954
▁देख	-8.67317
▁नीचे	-8.67807
रा	-8.67816
▁गोली	-8.68049
▁ताकि	-8.68125
▁कर्मचारियों	-8.68134
▁गर्मी	-8.68153
▁नरेंद्र	-8.68532
▁हिस्सा	-8.68851
▁पहुंचा	-8.68882
▁तैयारी	-8.68942
▁उप	-8.69003
▁लगाने	-8.69485
▁विजय	-8.6954
▁टक्कर	-8.69664
▁माना	-8.69695
▁बल्कि	-8.69746
▁अप्रैल	-8.69913
▁प्रत्याशी	-8.70073
▁मुंबई	-8.70167
▁संगठन	-8.70251
व	-8.7026
▁गुप्ता	-8.7028
▁दरअसल	-8.70484
▁उम्मीदवार	-8.70621
▁विकेट	-8.70653
▁दुनिया	-8.71071
▁जाकर	-8.71699
▁फैसला	-8.71751
▁समस्या	-8.72089
ब	-8.72526
▁हासिल	-8.72648
▁सदर	-8.73131
▁धर्म	-8.73196
▁मैदान	-8.73588
▁जुड़े	-8.73641
▁भवन	-8.73674
▁संभावना	-8.73777
▁2023	-8.74011
▁रहते	-8.74048
▁इस्तेमाल	-8.74345
द	-8.7455
प	-8.7478
▁साफ	-8.75504
▁रहेगा	-8.75554
▁मार्ग	-8.75624
▁वार्ड	-8.75676
▁वक्त	-8.75679
▁प्रकार	-8.75727
▁स	-8.75745
▁अमेरिका	-8.75824
▁राजनीतिक	-8.75851
▁ऊपर	-8.7616
▁हालत	-8.76282
▁वर्ग	-8.76311
ें	-8.76627
▁संघ	-8.767
▁बोले	-8.76773
▁चालक	-8.76829
▁खास	-8.77071
▁बातचीत	-8.77386
▁राय	-8.77677
▁पैसे	-8.77709
▁परिसर	-8.77829
▁बाबा	-8.77854
▁हार	-8.78039
ि	-8.78095
▁अमित	-8.78192
▁चरण	-8.78372
▁पटना	-8.78469
▁बनने	-8.78586
▁वायरल	-8.7859
▁परेशान	-8.78729
▁ठीक	-8.78811
▁तीनों	-8.78919
▁महत्वपूर्ण	-8.7908
▁मध्य	-8.79283
▁हमने	-8.79385
▁40	-8.79574
▁भीड़	-8.79863
▁जमा	-8.79963
▁खत्म	-8.8016
▁झारखंड	-8.80165
▁कराई	-8.80189
▁फिलहाल	-8.80252
▁दिवस	-8.80313
या	-8.80491
▁गठबंधन	-8.80615
▁सेंटर	-8.80806
▁टेस्ट	-8.80851
▁100	-8.81091
▁युवा	-8.81317
ला	-8.81396
▁शाह	-8.81488
▁कहीं	-8.81497
▁नया	-8.81585
▁घोषणा	-8.81612
▁चौक	-8.8179
▁खबर	-8.82132
▁मकान	-8.8233
▁लाभ	-8.82469
▁पकड़	-8.8249
▁ट्रक	-8.83015
▁पहला	-8.83077
▁आपके	-8.83081
▁राष्ट्रपति	-8.8339
▁घोषित	-8.83398
▁चोर	-8.83565
▁मिलकर	-8.83646
▁रोक	-8.83657
/	-8.83991
▁लड़की	-8.84008
▁खराब	-8.84038
▁इतन	-8.84095
▁पड़	-8.84243
▁उपस्थित	-8.84408
▁लखनऊ	-8.84524
▁सामान	-8.8461
▁मेरी	-8.84645
▁निजी	-8.84723
▁अंतिम	-8.84805
▁जन	-8.84822
की	-8.84881
▁सिटी	-8.85022
▁यही	-8.851
▁26	-8.85282
▁गिर	-8.85459
▁कमेटी	-8.85661
▁फोटो	-8.8574
▁ब	-8.85828
▁यूपी	-8.85914
▁तभी	-8.86044
▁कार्ड	-8.86054
▁सम्मान	-8.86176
राम	-8.86252
▁जरिए	-8.86333
▁पाया	-8.86452
▁दर्शन	-8.86744
▁मीटर	-8.86838
▁वर्षीय	-8.86908
▁धमकी	-8.86917
भर	-8.86965
▁लगाई	-8.87428
▁चीन	-8.87621
▁उम्मीद	-8.87672
▁हमारी	-8.87705
▁देव	-8.87765
▁शिक्षक	-8.87787
▁पा	-8.88177
▁23	-8.8829
▁सुनवाई	-8.8838
▁प्रवेश	-8.88384
▁अचानक	-8.88578
▁अग्रवाल	-8.88676
▁बांग्लादेश	-8.88793
▁सही	-8.88889
▁समर्थन	-8.89079
▁राज्यों	-8.89159
▁चाहते	-8.89182
▁जरूरत	-8.89282
▁धारा	-8.89336
▁बाल	-8.89366
▁कॉलोनी	-8.89469
▁परिजन	-8.89605
▁मे	-8.89761
▁होटल	-8.90185
▁वरिष्ठ	-8.90245
▁बावजूद	-8.90469
▁देना	-8.90532
▁रिकॉर्ड	-8.90582
▁आते	-8.90687
▁उसी	-8.90688
▁सदस्यों	-8.90759
▁लागू	-8.90771
▁सीमा	-8.91148
▁गेट	-8.91198
▁परिषद	-8.91273
▁ओवर	-8.91561
▁कानून	-8.91603
▁सामान्य	-8.91908
▁उनसे	-8.92002
▁निरीक्षण	-8.92091
▁पटेल	-8.92092
▁सेना	-8.92188
▁तैनात	-8.92415
▁हिंदू	-8.92447
▁लोक	-8.9247
▁सिर	-8.92822
▁बेहतर	-8.93011
▁बदलाव	-8.93125
▁क्षेत्रों	-8.93316
▁कही	-8.93416
▁प्रकाश	-8.9352
▁क्रिकेट	-8.9353
▁वारदात	-8.9362
▁अदालत	-8.93648
▁मन	-8.94046
▁शो	-8.94092
▁प्रभावित	-8.9429
▁बनाकर	-8.94324
▁वर्मा	-8.9468
▁क	-8.94712
▁दिखाई	-8.95119
ड	-8.95417
▁ऑफिस	-8.95449
▁रहता	-8.95507
▁27	-8.95666
▁28	-8.95816
▁प्रधान	-8.95893
▁जरूरी	-8.95996
▁राजनीति	-8.96113
▁उससे	-8.96287
▁कल	-8.96373
▁असर	-8.96387
▁पदाधिकारी	-8.96586
▁नेशनल	-8.96602
▁नुकसान	-8.96908
▁बनाई	-8.97003
▁करेगी	-8.97042
▁सुप्रीम	-8.97203
▁अजय	-8.97236
▁ई	-8.97259
▁उम्र	-8.97338
का	-8.97409
▁विद्यालय	-8.97479
▁उपलब्ध	-8.9753
▁उच्च	-8.9776
▁कीमत	-8.97797
▁रखी	-8.97821
▁राहत	-8.97881
▁ग्रुप	-8.98201
▁रास्ते	-8.9831
▁हॉस्पिटल	-8.98419
▁अशोक	-8.9847
़	-8.98499
▁तरीके	-8.98651
▁स्थल	-8.98711
▁मोहन	-8.98952
▁मिश्रा	-8.99008
▁च	-8.99509
▁निकाल	-8.99569
▁ड्राइवर	-8.9977
▁सीसीटीवी	-8.99844
▁छोड़	-8.99891
▁कौन	-8.99981
▁कार्यकर्ताओं	-9.00109
▁मजबूत	-9.00179
▁गलत	-9.003
▁बदल	-9.00498
▁पार	-9.00512
▁तुरंत	-9.00843
▁स्वागत	-9.01067
▁रंग	-9.01076
▁महाराष्ट्र	-9.01187
▁विश्वविद्यालय	-9.01337
▁बहन	-9.01372
▁हमले	-9.01439
▁31	-9.01458
▁इतना	-9.01481
▁रिलीज	-9.01517
वा	-9.01731
▁सात	-9.01976
▁बजट	-9.01985
▁लौट	-9.02123
▁भूमिका	-9.02267
▁द	-9.0229
▁वाहनों	-9.02441
▁जब्त	-9.02596
▁2019	-9.02613
▁लगाकर	-9.02622
▁प्रदान	-9.02656
▁विदेश	-9.02718
▁कॉल	-9.02759
▁युवती	-9.02771
▁नौकरी	-9.02782
▁अयोध्या	-9.02995
▁बल	-9.0323
श	-9.03281
▁विश्व	-9.0349
▁उपयोग	-9.03588
▁सजा	-9.03716
▁फरवरी	-9.03789
▁लगता	-9.03833
▁बीते	-9.04009
▁बंगाल	-9.04075
▁ए	-9.04084
▁संयुक्त	-9.04134
▁सीटें	-9.04179
▁लेते	-9.04193
▁अभिषेक	-9.04253
▁तेजी	-9.04288
▁मान	-9.04319
;	-9.04478
▁मिलेगा	-9.04501
▁हाई	-9.04539
▁निर्णय	-9.04711
▁कृषि	-9.0483
▁रायपुर	-9.04937
▁कृष्ण	-9.04981
▁सहयोग	-9.05075
▁राजेश	-9.0508
▁सिविल	-9.05175
▁नोटिस	-9.05294
▁फीसदी	-9.05304
▁सफाई	-9.05447
▁बताते	-9.05721
▁सी	-9.05804
▁एंड	-9.05875
▁रहेगी	-9.05876
ु	-9.05979
▁किस	-9.06006
ण	-9.06029
▁लूट	-9.06033
▁प	-9.06082
▁छोटे	-9.06129
▁कमी	-9.06164
वें	-9.06295
▁ऑनलाइन	-9.06346
▁नाबालिग	-9.06347
गंज	-9.06363
▁कदम	-9.06367
▁यदि	-9.06468
्	-9.06488
▁जमकर	-9.06713
s	-9.06838
▁दीपक	-9.06863
▁भास्कर	-9.06939
▁मुलाकात	-9.07175
▁करेगा	-9.07445
▁आर्थिक	-9.0754
ग	-9.07569
▁29	-9.07917
▁छह	-9.08259
▁रोहित	-9.08726
▁म	-9.08882
▁आनंद	-9.09088
▁अपील	-9.09094
▁सामना	-9.09099
▁रहती	-9.09127
▁अंतर्गत	-9.09338
▁बेटा	-9.09599
▁मेरा	-9.0976
▁सभा	-9.09799
▁मनोज	-9.0983
▁दूसरा	-9.09849
ली	-9.09967
▁बढ़ा	-9.1001
▁सहायक	-9.10075
▁अतिरिक्त	-9.10192
▁गिरफ्तारी	-9.10215
▁सुविधा	-9.10512
▁हाईकोर्ट	-9.10807
▁मोहम्मद	-9.1081
▁करवाया	-9.1086
▁गुरु	-9.11057
▁खड़े	-9.11086
▁सागर	-9.11194
▁कार्यकर्ता	-9.11261
▁अज्ञात	-9.11299
▁जिसकी	-9.11364
▁इलाकों	-9.11423
▁सुधार	-9.11438
▁प्रतियोगिता	-9.11617
▁खर्च	-9.11712
▁साहू	-9.118
▁पीड़िता	-9.11841
▁अंजाम	-9.12045
▁सीरीज	-9.1205
▁देंगे	-9.12073
▁खेत	-9.12124
▁बदमाशों	-9.12165
▁तस्वीर	-9.12279
▁मिलते	-9.12288
▁अनिल	-9.12431
▁याचिका	-9.12509
▁सुनील	-9.12565
▁बैठे	-9.12572
▁सिस्टम	-9.12808
▁कह	-9.1282
▁सत्र	-9.12928
▁मामलों	-9.13048
▁कोतवाली	-9.13197
▁किलोमीटर	-9.133
▁बच्ची	-9.13305
▁जैसी	-9.13311
▁योग	-9.13313
▁एक्सप्रेस	-9.13419
▁अच्छी	-9.13429
▁कपूर	-9.13429
▁मंच	-9.13603
▁ठाकुर	-9.13798
▁उदयपुर	-9.13823
▁प्रचार	-9.13928
▁दोस्त	-9.14025
पुरा	-9.14275
▁एक्ट्रेस	-9.14318
▁आवास	-9.14449
▁देशों	-9.14616
▁विचार	-9.1505
▁संचालन	-9.15214
▁युवाओं	-9.15536
▁मंत्रालय	-9.15581
▁कड़ी	-9.15616
▁पश्चिम	-9.15866
▁सोने	-9.15873
▁परेशानी	-9.15891
▁भविष्य	-9.1638
▁अपराध	-9.16518
▁नीतीश	-9.16907
लाल	-9.16933
▁देखकर	-9.16934
▁हवा	-9.17316
▁मौका	-9.17438
ियां	-9.17488
▁2022	-9.17546
▁अलर्ट	-9.17559
मा	-9.17664
▁केजरीवाल	-9.17694
▁अच्छा	-9.17928
▁न्याय	-9.17943
▁हथियार	-9.18223
▁महाराज	-9.18517
▁पेड़	-9.18787
▁जन्म	-9.18803
▁अतिथि	-9.18884
▁मीणा	-9.1902
▁नामांकन	-9.19022
▁शिविर	-9.1916
डी	-9.19229
▁दिशा	-9.19272
▁शासन	-9.19304
▁तिवारी	-9.19422
▁वर्तमान	-9.19439
▁चले	-9.19459
▁प्रस्ताव	-9.19465
नगर	-9.19585
▁प्रेम	-9.19593
▁अधिकतम	-9.19707
▁आयुक्त	-9.1983
▁आंदोलन	-9.19878
▁डॉक्टरों	-9.1994
▁इधर	-9.19961
▁साइबर	-9.19965
▁सेक्टर	-9.20025
▁जाम	-9.2021
वी	-9.20353
▁पढ़ाई	-9.20372
▁निकाला	-9.20426
▁यात्रियों	-9.20506
▁पकड़ा	-9.20528
▁फर्जी	-9.20645
▁बदमाश	-9.20646
▁मनाया	-9.20789
राज	-9.20798
▁गंगा	-9.20803
▁कब्जे	-9.20913
▁रैली	-9.20917
▁पुल	-9.20922
▁मरीज	-9.21043
▁अंक	-9.21165
▁मालिक	-9.21208
▁मुकेश	-9.21321
▁उसमें	-9.21465
▁हमेशा	-9.21596
▁आकर	-9.21706
),	-9.2174
▁महिलाएं	-9.21808
▁सुरक्षित	-9.22011
▁गईं	-9.22293
▁चली	-9.22295
▁स्कूलों	-9.22384
एं	-9.2253
▁देता	-9.22554
▁कल्याण	-9.22611
▁घरों	-9.22745
▁दिख	-9.22788
▁सत्ता	-9.22825
▁न्यायालय	-9.22847
▁पूछा	-9.22883
▁चलने	-9.23204
▁बढ़ाने	-9.23262
▁जिम्मेदारी	-9.23395
▁सम्मानित	-9.23463
▁बांध	-9.23497
▁संविधान	-9.23539
▁मरीजों	-9.23805
▁तीसरे	-9.23815
▁यूनिवर्सिटी	-9.23817
▁चुनावी	-9.24071
▁पोस्टमार्टम	-9.24096
▁संबोधित	-9.24103
▁रेल	-9.2412
▁सु	-9.24127
▁कमरे	-9.24205
▁नियम	-9.24234
▁किनारे	-9.24379
▁सप्ताह	-9.2438
▁खुलासा	-9.24381
▁गृह	-9.24397
▁एयरपोर्ट	-9.2452
ह	-9.24533
▁दक्षिण	-9.24803
▁जय	-9.24841
▁युवकों	-9.24994
▁स्पेशल	-9.25087
▁योगी	-9.25147
▁प्रोजेक्ट	-9.2524
▁सालों	-9.253
▁सामाजिक	-9.25397
▁उनको	-9.25441
▁हादसा	-9.25534
▁सह	-9.25658
▁शांति	-9.25661
▁करा	-9.259
▁संपर्क	-9.25943
▁नागरिक	-9.25979
▁डर	-9.26034
▁दिल	-9.26076
▁शिक्षकों	-9.26099
▁रहेंगे	-9.26121
▁स्टूडेंट्स	-9.26398
टी	-9.26542
▁पैर	-9.26595
▁लाया	-9.26674
▁खाली	-9.26683
▁प्रबंधन	-9.26694
▁पेपर	-9.26814
▁मुस्लिम	-9.26855
▁रक्षा	-9.26882
▁पहुंचकर	-9.26982
▁कुमारी	-9.27045
20	-9.27125
▁याद	-9.27213
▁व्रत	-9.27308
▁पार्क	-9.27365
▁बेहद	-9.27387
▁उपचार	-9.27392
▁लक्ष्य	-9.27825
▁अधीक्षक	-9.2783
▁छात्रा	-9.27853
▁मगर	-9.27918
▁गुजरात	-9.28274
▁जिसका	-9.28525
▁सपा	-9.28618
▁भूमि	-9.28719
▁लंबे	-9.28852
▁कप	-9.28935
▁कौर	-9.29018
▁पाए	-9.29066
▁कार्यों	-9.29115
साथ	-9.29184
▁मंडी	-9.29327
▁न्यूनतम	-9.29444
▁बाकी	-9.29468
▁प्रखंड	-9.29593
▁सड़कों	-9.29703
▁आता	-9.29828
▁अहम	-9.29835
▁निवेश	-9.29995
▁हाउस	-9.30015
▁शुभ	-9.30075
▁रेप	-9.30252
▁पर्व	-9.30282
▁धार्मिक	-9.30346
▁बी	-9.30401
▁गणेश	-9.30471
▁मह	-9.30692
▁बज	-9.30719
▁मुश्किल	-9.30781
▁आदमी	-9.3079
▁निकल	-9.30847
▁पैसा	-9.30858
▁सफलता	-9.30996
गढ़	-9.31075
▁लिस्ट	-9.31213
▁विपक्ष	-9.31281
▁समाधान	-9.31396
▁मुख्यालय	-9.314
बी	-9.31433
▁चौहान	-9.31545
▁शरीर	-9.31548
▁संस्था	-9.31549
▁किलो	-9.3156
▁पाई	-9.31757
▁रख	-9.31932
▁बताई	-9.31942
▁राकेश	-9.32001
▁सीजन	-9.32022
▁मिलेगी	-9.3203
▁एक्टर	-9.32057
▁आसान	-9.32192
शन	-9.32193
▁पारी	-9.32242
▁निर्वाचन	-9.32308
▁आखिरी	-9.32473
▁उद्देश्य	-9.32514
▁रखे	-9.32586
▁संस्थान	-9.32612
▁मारने	-9.32729
▁कहानी	-9.32789
▁एजेंसी	-9.32919
▁राजा	-9.32941
▁पूजन	-9.33103
▁इमेज	-9.33227
▁संदीप	-9.33232
तर	-9.33299
▁सफल	-9.3333
▁रवाना	-9.33382
▁तिथि	-9.33407
सा	-9.3342
▁लाने	-9.33475
सिंह	-9.33518
▁आवाज	-9.33664
▁पहुंचने	-9.33667
▁सुनिश्चित	-9.33691
▁वित्त	-9.33812
▁वही	-9.33994
▁प्राइवेट	-9.34004
▁विषय	-9.34062
▁स्टाफ	-9.34173
▁पेट्रोल	-9.34436
▁इंतजार	-9.34468
▁वर्ल्ड	-9.34632
ेश	-9.34778
▁मानसून	-9.34792
▁35	-9.34899
▁चोट	-9.34942
▁कैप्शन	-9.35095
▁फीट	-9.35108
▁पार्षद	-9.35167
▁तोड़	-9.35244
▁फाइनल	-9.35259
▁खिलाड़ी	-9.3541
▁पड़ी	-9.35698
▁जोर	-9.35793
▁छोड़कर	-9.35867
▁स्थापित	-9.35902
▁अरविंद	-9.36055
ओ	-9.361
▁राजधानी	-9.36201
▁युद्ध	-9.3651
▁कब	-9.36541
▁हनुमान	-9.36798
▁दर	-9.36816
▁मिलता	-9.36934
▁विद्यार्थियों	-9.37
▁प्रो	-9.37018
▁ब्लॉक	-9.37161
▁प्रथम	-9.37185
ंग	-9.37193
▁रोकने	-9.37216
▁दौर	-9.3732
▁फायदा	-9.3732
▁भाव	-9.37449
▁दबाव	-9.37485
▁माहौल	-9.37642
▁60	-9.3776
▁ट्रैफिक	-9.37804
▁पसंद	-9.37807
▁ऑपरेशन	-9.37814
▁करवा	-9.37852
▁आवश्यक	-9.37904
▁निदेशक	-9.37967
▁रवि	-9.38129
▁बुलाया	-9.38132
▁रफ्तार	-9.38287
▁200	-9.38289
▁डिप्टी	-9.3829
▁मना	-9.38307
▁अमेरिकी	-9.38319
▁सर्व	-9.38471
▁घाट	-9.3856
▁किमी	-9.38676
▁अली	-9.38773
र्स	-9.38779
▁सहायता	-9.38785
▁चेक	-9.39006
▁जुड़ी	-9.39022
▁हिरासत	-9.39102
▁उक्त	-9.39103
▁प्रशिक्षण	-9.39103
▁शपथ	-9.39263
य	-9.39374
▁प्रभाव	-9.39427
▁अनुमति	-9.3943
▁स्थानों	-9.39456
▁सूत्र	-9.39611
▁लॉन्च	-9.39721
▁कंपनियों	-9.39923
▁नारायण	-9.4005
▁प्राथमिक	-9.40074
▁परिणाम	-9.40087
▁ड्यूटी	-9.40092
▁शक्ति	-9.40094
▁बचाने	-9.40167
▁नीति	-9.40356
▁तत्काल	-9.40414
▁सैनी	-9.40449
%	-9.4045
▁रूम	-9.40656
▁जानते	-9.40672
▁ऑटो	-9.4074
▁रोजगार	-9.40921
▁स्पष्ट	-9.41194
▁सीनियर	-9.41252
▁BJP	-9.41272
▁संचालक	-9.41351
▁सेल्सियस	-9.41753
▁मनीष	-9.41768
▁कहां	-9.41793
▁बिल	-9.4182
▁मध्यप्रदेश	-9.41924
▁जोन	-9.41992
▁पड़े	-9.42113
एक	-9.42126
▁एसोसिएशन	-9.42258
▁2024:	-9.42366
▁पोस्टमॉर्टम	-9.42427
▁रेफर	-9.42427
▁मुकदमा	-9.42437
▁मुकाबले	-9.42445
▁टूट	-9.42632
▁उठा	-9.42721
▁दास	-9.42749
▁कोच	-9.42847
▁फायर	-9.42909
▁महा	-9.42914
▁महत्व	-9.42933
▁ग्वालियर	-9.43115
▁फैसले	-9.43131
पी	-9.4338
▁इतिहास	-9.43441
▁प्रताप	-9.43571
▁बॉलीवुड	-9.43618
▁बूथ	-9.43618
▁जताई	-9.43624
▁ज्ञापन	-9.43628
▁क्षमता	-9.43778
▁कमिश्नर	-9.43786
▁बाढ़	-9.43953
▁संपत्ति	-9.43968
▁चुनावों	-9.44044
▁करनी	-9.44168
▁फायरिंग	-9.44169
▁रखते	-9.4417
▁आरक्षण	-9.4431
▁निर्धारित	-9.44486
▁जमानत	-9.44537
▁एक्स	-9.44824
▁करवाई	-9.44826
▁आठ	-9.44846
▁जंगल	-9.44869
▁पूर्ण	-9.44874
▁समुदाय	-9.44944
▁संचालित	-9.44999
▁नि	-9.45095
ले	-9.45147
▁चिकित्सा	-9.45176
▁आरती	-9.45191
▁जम्मू	-9.45352
▁चौकी	-9.45355
▁एक्ट	-9.45376
▁चंद्र	-9.45632
▁सप्लाई	-9.45692
▁गौरव	-9.45704
▁पालन	-9.45741
▁गिरावट	-9.45867
▁डीएम	-9.46018
▁चिंता	-9.46214
पेट	-9.46246
▁सरपंच	-9.46393
▁राजीव	-9.46444
2	-9.46447
▁समझ	-9.46579
▁अधिकार	-9.46605
फ	-9.46619
▁मो	-9.46873
▁पाल	-9.46875
▁सूची	-9.46933
▁लापरवाही	-9.46936
▁प्रत्येक	-9.47101
▁भरा	-9.47373
▁डायरेक्टर	-9.47437
▁खिलाड़ियों	-9.47456
ड़ा	-9.47528
▁विस्तार	-9.47725
▁प्रदीप	-9.47813
▁किशोर	-9.47892
▁करियर	-9.47961
▁आगामी	-9.47995
▁खड़ा	-9.48005
▁पुराने	-9.4818
▁ठगी	-9.48186
▁टॉप	-9.48261
दार	-9.48289
▁उम्मीदवारों	-9.48321
्य	-9.48327
▁ट्रैक्टर	-9.48352
▁दैनिक	-9.48352
▁तारीख	-9.48497
▁मार्केट	-9.48497
▁संसद	-9.48503
▁साबित	-9.4853
▁जिन्होंने	-9.48534
▁डॉलर	-9.48534
▁खाते	-9.48545
▁कक्षा	-9.48578
▁एस	-9.48631
▁उठाया	-9.48904
▁त	-9.48926
▁पड़ता	-9.48939
▁बुजुर्ग	-9.49212
▁अनुमान	-9.49249
▁उपाध्यक्ष	-9.49254
▁करवाने	-9.49286
▁सर्वे	-9.49299
▁कोलकाता	-9.49437
▁सौंप	-9.49568
▁तीसरी	-9.49794
▁खरीद	-9.49812
▁हमारा	-9.49817
ड़	-9.49856
▁वितरण	-9.49978
▁संत	-9.50002
▁साथी	-9.50045
▁विशाल	-9.50166
▁दाखिल	-9.50206
▁सो	-9.50231
नाथ	-9.50264
▁सलमान	-9.50346
▁जाति	-9.50403
▁नोट	-9.50461
▁क्लब	-9.50523
▁चुनौती	-9.50706
▁प्लान	-9.50858
▁पी	-9.50993
▁मशीन	-9.51025
▁आती	-9.51283
▁रमेश	-9.51443
▁मुद्दे	-9.51444
▁इसको	-9.5146
▁मृत	-9.51541
▁चाहता	-9.51654
▁इंटरव्यू	-9.51814
▁हालात	-9.51819
▁चयन	-9.51993
▁हाईवे	-9.52012
▁45	-9.52164
▁छापेमारी	-9.52186
▁बढ़ने	-9.52206
▁विमान	-9.52375
▁आपकी	-9.52442
ान	-9.52461
▁विश्वास	-9.52568
▁धान	-9.52594
▁रद्द	-9.52749
▁70	-9.52768
▁समीक्षा	-9.52935
▁संतोष	-9.5302
▁एफआईआर	-9.53123
▁कर्मियों	-9.53203
▁पैदा	-9.53307
▁भुगतान	-9.53316
▁2021	-9.53319
▁कला	-9.53356
वे	-9.53487
▁चंडीगढ़	-9.53508
▁निशाना	-9.53618
स्थल	-9.53627
▁वोटिंग	-9.53645
▁योजनाओं	-9.53699
▁2025	-9.53783
▁दूरी	-9.53812
▁मूल	-9.5388
▁खुल	-9.53984
▁गेंद	-9.54024
▁फिल्मों	-9.54187
▁संदिग्ध	-9.54258
▁सम्मेलन	-9.54258
▁फुटेज	-9.54259
▁हिंसा	-9.54261
▁जवान	-9.54274
▁दर्जन	-9.54348
▁साउथ	-9.54455
▁घायलों	-9.5453
▁सकेंगे	-9.5465
पाल	-9.5474
▁आउट	-9.54826
▁पुरानी	-9.54834
▁समाप्त	-9.55007
▁इंटरनेशनल	-9.55024
▁राजस्व	-9.55032
▁निकले	-9.55146
▁फैंस	-9.55215
▁विवाह	-9.55364
▁जोधपुर	-9.5542
▁स्थापना	-9.55602
▁खड़ी	-9.55617
▁नशे	-9.55652
▁रूस	-9.55733
▁भीषण	-9.5582
▁प्यार	-9.55969
▁अच्छे	-9.55989
D	-9.56053
▁80	-9.56054
▁कप्तान	-9.56121
▁बादल	-9.56126
▁खाने	-9.56171
▁एसडीएम	-9.56186
▁चलाया	-9.56265
▁संदेश	-9.56568
▁भीतर	-9.56745
▁कथा	-9.56761
▁वृद्धि	-9.5677
ेंद्र	-9.56823
▁ईरान	-9.5687
▁संघर्ष	-9.56942
▁शंकर	-9.56977
▁शिकार	-9.57052
▁अंतर	-9.57117
▁राव	-9.57137
▁अंतरराष्ट्रीय	-9.57158
▁यात्री	-9.57167
▁मत	-9.57285
▁वकील	-9.57341
▁कार्यकाल	-9.57364
▁अंत	-9.57399
▁लेना	-9.57402
▁फसल	-9.57524
वां	-9.57702
▁विज्ञान	-9.57749
▁कानपुर	-9.57812
▁हटाने	-9.57825
▁पावर	-9.57828
िन	-9.57843
▁गठन	-9.57945
▁वाराणसी	-9.57955
▁ठंड	-9.58043
पिता	-9.58128
▁तहसील	-9.58533
▁डेढ़	-9.58546
▁जरूर	-9.58618
▁प्रेस	-9.58692
▁उद्घाटन	-9.58733
▁अध्यक्षता	-9.58815
▁दुर्गा	-9.58865
▁स्टेडियम	-9.58933
▁कैमरे	-9.58933
▁टैक्स	-9.59041
▁सक्रिय	-9.59075
▁डाला	-9.59094
▁पवन	-9.5914
▁विकसित	-9.59147
▁होनी	-9.59149
▁रहीं	-9.59192
▁उतर	-9.59205
▁डा	-9.59284
▁राजेंद्र	-9.59355
▁खुशी	-9.59413
▁सोरेन	-9.59534
▁दोबारा	-9.5954
▁बढ़ावा	-9.59553
▁लड़ाई	-9.59553
▁उतार	-9.59744
▁मीटिंग	-9.59745
▁चाहती	-9.59762
▁श्रद्धालुओं	-9.59765
बार	-9.59879
▁अकाउंट	-9.59932
▁शानदार	-9.59936
▁एरिया	-9.59946
▁खाना	-9.6005
▁दस	-9.60231
▁सख्त	-9.60251
▁आशंका	-9.60341
▁मांगी	-9.60352
▁नियुक्ति	-9.60461
▁पुरस्कार	-9.60541
▁News	-9.60542
▁महोत्सव	-9.60547
▁प्रस्तुत	-9.60631
▁सुरेश	-9.61082
!	-9.61139
▁जिन्हें	-9.61152
▁रांची	-9.61163
▁धन	-9.61165
अ	-9.61262
▁इंस्पेक्टर	-9.6136
▁समूह	-9.61372
▁CM	-9.61491
▁दिनेश	-9.6153
▁प्रतिमा	-9.61646
▁तालाब	-9.61802
▁हेड	-9.61928
▁पदों	-9.61998
▁सोनी	-9.62073
▁गैंग	-9.62174
जीत	-9.62233
▁नियुक्त	-9.62269
▁तस्कर	-9.62283
▁2014	-9.62405
▁घुस	-9.62512
थ	-9.62587
▁शहरों	-9.6262
▁एक्शन	-9.62623
▁कारोबार	-9.62664
▁सका	-9.62738
▁स्टैंड	-9.628
▁स्वामी	-9.62825
▁समस्याओं	-9.6291
▁मॉडल	-9.62923
से	-9.6299
▁l	-9.62992
▁कैबिनेट	-9.63002
▁लड़के	-9.63099
▁गांवों	-9.63138
▁अतिक्रमण	-9.6314
▁नियमों	-9.63177
▁कैंप	-9.63191
▁संस्कार	-9.63214
▁सार्वजनिक	-9.63216
▁जानिए	-9.63219
▁अनुभव	-9.63223
▁दायर	-9.6326
▁मौजूदा	-9.63311
▁मिलती	-9.63316
पर	-9.63319
▁जगहों	-9.63328
ंस	-9.63337
▁आस	-9.63391
▁स्वीकार	-9.63411
▁प्रवक्ता	-9.63419
▁प्राण	-9.63451
▁अपराधियों	-9.63494
▁रेड	-9.6357
▁प्रोफेसर	-9.63629
▁कोटा	-9.63687
▁500	-9.63748
▁सिन्हा	-9.63837
▁अखिलेश	-9.63945
▁अफसरों	-9.64002
▁पशु	-9.64061
▁तेल	-9.64074
▁चलाने	-9.64251
▁पहुंचाया	-9.64305
▁ला	-9.64329
▁धरना	-9.6439
▁स्टार	-9.64478
▁प्र	-9.64499
▁आपका	-9.64535
▁नवीन	-9.64604
▁आबादी	-9.64686
▁डे	-9.64686
▁डी	-9.64718
▁मिशन	-9.64885
3	-9.64919
को	-9.64941
▁ग	-9.64964
▁32	-9.65234
▁सुख	-9.65239
▁चेतावनी	-9.65314
▁पंकज	-9.65316
▁विष्णु	-9.65316
▁विनोद	-9.65318
▁सूर्य	-9.65344
▁बातें	-9.6535
▁वि	-9.6541
▁S	-9.65419
च	-9.65436
▁नहर	-9.6553
▁हल्की	-9.65534
▁कर्नाटक	-9.65742
a	-9.65813
▁खूब	-9.65819
▁सर	-9.66129
▁लुधियाना	-9.66173
▁रोज	-9.66182
▁दिखा	-9.66231
▁श्याम	-9.66304
1	-9.66344
जा	-9.66385
▁विदेशी	-9.665
▁दलों	-9.66515
▁निगरानी	-9.66597
▁एंट्री	-9.66597
▁सांस्कृतिक	-9.66601
▁छोटी	-9.66629
दा	-9.66806
▁ट्रांसफर	-9.66813
▁ऊर्जा	-9.66813
▁उपचुनाव	-9.66815
▁नाराज	-9.66831
▁व्यक्त	-9.66842
▁दिवसीय	-9.66888
▁राष्ट्र	-9.66925
▁अरुण	-9.66927
▁चारों	-9.66948
▁यूनिट	-9.66979
▁निकाली	-9.66994
▁बम	-9.67011
▁ट्रंप	-9.67032
▁ज	-9.67183
▁र	-9.67204
▁चांदी	-9.67243
▁पश्चिमी	-9.67318
ख	-9.67353
▁लाखों	-9.67394
▁योगदान	-9.67465
▁आदिवासी	-9.67471
▁गैस	-9.67552
▁भाषा	-9.67568
▁गतिविधियों	-9.67681
▁बैग	-9.67828
▁रास्ता	-9.67897
▁विधि	-9.67914
▁गौतम	-9.6798
▁कपड़े	-9.68118
▁रोल	-9.68134
▁सुपर	-9.68218
▁लड़	-9.68335
▁पंडित	-9.68372
▁मच	-9.68401
▁गोपाल	-9.68535
▁बधाई	-9.68554
▁पर्यावरण	-9.68557
▁नौ	-9.68595
-20	-9.68703
▁गर्म	-9.68726
▁गायब	-9.68787
▁कमल	-9.69017
▁अरब	-9.69141
▁कश्मीर	-9.69311
▁इन्हें	-9.6966
▁बिक्री	-9.69666
▁ह	-9.69676
▁सारे	-9.69715
▁भक्तों	-9.69783
▁पोल	-9.69794
▁इंडस्ट्री	-9.69811
▁उत्सव	-9.69902
▁धाम	-9.70021
▁मेहनत	-9.70102
▁राजकुमार	-9.70267
▁हंगामा	-9.70325
▁अफसर	-9.70375
▁90	-9.704
▁डाल	-9.70438
▁जिनक	-9.70506
▁बोला	-9.70543
▁बचाव	-9.7059
▁प्रमाण	-9.70593
▁निकला	-9.70661
▁देती	-9.70688
▁ऑस्ट्रेलिया	-9.70758
▁फैक्ट्री	-9.70774
▁पांडे	-9.70774
▁क्राइम	-9.70776
▁संकल्प	-9.70781
▁दुर्घटना	-9.70988
▁स्तरीय	-9.71147
▁एनडीए	-9.71299
▁सुसाइड	-9.7145
▁जीतने	-9.71502
▁शहीद	-9.71504
▁सुभाष	-9.71665
▁हिस्से	-9.71674
▁लगाते	-9.71743
▁क्लास	-9.71795
6	-9.71914
▁सुंदर	-9.71918
▁साढ़े	-9.7213
▁परिवहन	-9.72132
▁संजीव	-9.72142
▁संस्कृति	-9.72145
▁पाली	-9.72176
▁बच	-9.72189
5	-9.72292
▁स्टेट	-9.72547
▁श्रीवास्तव	-9.72585
▁गिरा	-9.72633
▁दम	-9.72685
▁सुनाई	-9.72841
▁आवश्यकता	-9.72851
▁व्यापारी	-9.72865
वार	-9.72877
डा	-9.72899
▁रानी	-9.72903
▁चाकू	-9.73044
▁आएंगे	-9.73069
▁आना	-9.73197
वाल	-9.73275
▁वित्तीय	-9.73316
▁ससुराल	-9.7344
मी	-9.73541
▁खोल	-9.7364
▁उज्जैन	-9.73749
ेश्वर	-9.73768
▁कहती	-9.73768
एस	-9.73879
▁वर्षा	-9.73926
▁साहिब	-9.73941
▁आर	-9.74147
▁2020	-9.74149
▁काबू	-9.74238
▁गैर	-9.74341
▁ज्ञान	-9.74447
▁इंडियन	-9.7445
▁दस्तावेज	-9.74482
▁बोल	-9.74555
▁अपर	-9.7456
▁कंट्रोल	-9.74589
▁सा	-9.74659
▁अधिनियम	-9.74664
▁किरदार	-9.7471
▁कमाई	-9.74722
▁कमजोर	-9.74845
ां	-9.74859
▁प्रिंसिपल	-9.74898
▁वेबसाइट	-9.74898
▁सीधे	-9.74902
▁चेयरमैन	-9.75135
▁लागत	-9.75137
▁अक्स	-9.75237
▁प्रियंका	-9.75371
▁ईडी	-9.75395
▁भव्य	-9.75399
▁रेट	-9.75407
▁पकड़े	-9.7552
िका	-9.75603
▁भ्रष्टाचार	-9.75605
▁वेतन	-9.75618
ेड	-9.75627
▁संभव	-9.758
▁ट्रैक	-9.75806
▁नजदीक	-9.75827
▁दिखाया	-9.75858
▁खाद्य	-9.75901
▁लक्ष्मी	-9.75943
▁अगल	-9.75992
▁कानूनी	-9.76039
▁मुकाबला	-9.76091
▁जुट	-9.76138
▁वापसी	-9.76302
▁व्यापार	-9.76454
▁PM	-9.76457
▁कब्जा	-9.7656
▁श्रीराम	-9.76594
▁खेला	-9.76612
▁हिंदी	-9.76615
▁बल्लेबाज	-9.76656
▁दान	-9.76739
▁दूध	-9.76788
▁पांडेय	-9.76795
▁पासवान	-9.76826
▁कोहली	-9.76885
A	-9.77023
▁हिसाब	-9.77025
▁संरक्षण	-9.77029
▁जुटी	-9.77093
e	-9.77226
▁आश्वासन	-9.77266
▁अर्जुन	-9.77275
▁राज्यपाल	-9.77328
▁खुश	-9.7737
▁उचित	-9.77507
▁शूटिंग	-9.77518
▁आचार्य	-9.7753
ेलू	-9.77658
▁मतदाता	-9.77705
ाई	-9.77726
▁एम	-9.77742
▁श्रेणी	-9.77745
▁औसत	-9.77986
C	-9.78084
▁हजारों	-9.78126
▁खून	-9.78174
▁मुद्दों	-9.78228
▁जैसा	-9.78244
▁हाथों	-9.78251
ेशन	-9.78282
▁डीएसपी	-9.78339
▁विभागों	-9.78391
▁कैलाश	-9.78474
▁निरीक्षक	-9.78474
देव	-9.78521
▁दोषी	-9.78544
▁परियोजना	-9.78656
▁छत	-9.78663
▁प्लांट	-9.78712
▁तुलना	-9.78717
▁संयोजक	-9.78718
▁हवाई	-9.78771
▁झा	-9.78817
▁छूट	-9.78878
▁48	-9.7888
-1	-9.7893
▁अवधि	-9.79038
▁मस्जिद	-9.79046
गांव	-9.79333
▁जीता	-9.79385
▁यातायात	-9.79447
वर	-9.79465
▁बुरी	-9.79699
▁चीफ	-9.79746
आ	-9.79763
▁उद्योग	-9.79778
▁प्रयोग	-9.79935
▁महासचिव	-9.79935
▁मतगणना	-9.79937
▁सीबीआई	-9.79946
▁भारती	-9.79977
▁जितन	-9.80128
▁बनकर	-9.8017
▁संभाग	-9.80181
▁लंबी	-9.80182
▁ममता	-9.80189
▁दुबे	-9.80202
गा	-9.80262
▁गिरने	-9.80264
▁इनकार	-9.80332
▁मुद्दा	-9.80428
▁अंडर	-9.80429
."	-9.80463
▁विवेक	-9.80675
▁अहमद	-9.80784
▁ट्रेनिंग	-9.80853
यों	-9.80857
▁निकलने	-9.80886
▁पाठ	-9.80902
▁आत्महत्या	-9.80924
▁लिमिटेड	-9.80924
▁भोजन	-9.80966
▁नशा	-9.80968
▁पुरुष	-9.81031
▁आगरा	-9.81047
▁टाटा	-9.81163
▁प्रतिनिधि	-9.81172
▁राउंड	-9.81174
▁मोर्चा	-9.81205
▁जाएं	-9.81319
▁कौशल	-9.81421
▁एयर	-9.81426
▁जनरल	-9.81431
सूस	-9.81461
▁शुक्ला	-9.81524
▁इस्तीफा	-9.81674
I	-9.81836
▁समान	-9.8188
▁ट्रस्ट	-9.81927
▁जिलाध्यक्ष	-9.81927
▁दशक	-9.8193
▁राज्यसभा	-9.81931
▁एन	-9.82001
▁बे	-9.82052
▁पक्षों	-9.82083
▁सामग्री	-9.82176
आर	-9.82207
▁मजदूर	-9.82245
▁साथियों	-9.82307
▁ऐलान	-9.82425
▁आशीष	-9.82441
▁कथित	-9.82443
▁लाइट	-9.82466
▁बढ़ती	-9.82505
▁आय	-9.82628
▁साझा	-9.82679
▁पहल	-9.82753
▁मेले	-9.82785
▁भजन	-9.82791
▁बढ़कर	-9.82839
▁सर्विस	-9.82932
▁हेमंत	-9.82936
▁दौड़	-9.82971
▁भ	-9.83139
▁हड़ताल	-9.83185
▁खारिज	-9.83185
▁गोयल	-9.83186
▁प्राचार्य	-9.83187
▁मेला	-9.83244
',	-9.83266
▁पारा	-9.83336
▁नव	-9.83426
▁कुलदीप	-9.83464
▁पूर्वी	-9.83531
▁जस्टिस	-9.83707
▁पत्थर	-9.83711
▁सोना	-9.83795
▁33	-9.83797
▁प्रशासनिक	-9.83812
▁माल	-9.83948
▁नियंत्रण	-9.83951
▁महतो	-9.83952
▁भक्त	-9.84013
▁लें	-9.84038
▁बेचने	-9.84061
▁ज्योति	-9.84209
▁पड़ेगा	-9.84224
▁काल	-9.84248
-2	-9.84315
▁अपडेट	-9.84393
▁75	-9.84399
▁मुक्त	-9.84444
▁शिफ्ट	-9.84464
▁कैंसर	-9.84469
▁गति	-9.84532
▁विधायकों	-9.84606
▁न्यायाधीश	-9.84721
▁लापता	-9.84728
▁कट	-9.84842
▁महेश	-9.84898
▁मानसिक	-9.84928
▁सोच	-9.84984
▁दौरे	-9.85022
9	-9.8523
▁एल	-9.85247
▁तेजस्वी	-9.85254
▁अजमेर	-9.85368
▁कर्मी	-9.85415
▁फूल	-9.85436
▁फीस	-9.85482
▁होली	-9.85495
गी	-9.85639
▁दुकानों	-9.85784
▁जाया	-9.85852
▁पाने	-9.85878
▁निकली	-9.85955
▁छात्राओं	-9.86004
▁धूप	-9.86026
▁मतलब	-9.86282
▁बिल्डिंग	-9.86283
▁छोटा	-9.8629
▁पेंशन	-9.86291
▁जनपद	-9.86294
▁2018	-9.86294
▁सलाह	-9.86297
▁केरल	-9.86372
बा	-9.86504
▁बीमारी	-9.86541
▁हफ्ते	-9.86568
▁रिश्तेदार	-9.86785
▁टूर्नामेंट	-9.86808
▁संहिता	-9.86808
▁भरोसा	-9.86808
▁शक	-9.86811
▁डिजिटल	-9.86817
▁रूट	-9.86821
▁गोरखपुर	-9.86827
▁ठग	-9.86991
▁ल	-9.8702
्याप्त	-9.8707
▁टिप्पणी	-9.87072
▁लाश	-9.87073
▁संकट	-9.87077
▁नीरज	-9.87091
▁मतदाताओं	-9.87123
▁पार्किंग	-9.87138
▁नियमित	-9.87157
▁नागरिकों	-9.87281
▁फ्लाइट	-9.87284
▁शख्स	-9.87334
▁पुष्टि	-9.87337
▁ड्रोन	-9.87339
▁गुजर	-9.87345
▁पोर्टल	-9.87389
▁रखना	-9.87409
▁मारकर	-9.87434
▁काट	-9.87512
▁मान्यता	-9.87561
▁आखिर	-9.87578
▁पदाधिकारियों	-9.87601
▁तहसीलदार	-9.87611
▁मेडल	-9.87617
▁रि	-9.8769
▁समापन	-9.87868
▁लाइसेंस	-9.8787
▁विद्युत	-9.87872
▁ओडिशा	-9.87877
▁मैनेजर	-9.87947
▁अपराधी	-9.88075
▁उत्साह	-9.88122
▁सौंपा	-9.88131
▁रुक	-9.88155
▁प्रस्तुति	-9.88194
▁न्यू	-9.88195
▁जयंती	-9.8822
▁बचा	-9.88264
▁मारे	-9.88271
▁बढ़ोतरी	-9.88401
▁रो	-9.88407
▁जबलपुर	-9.88441
▁जोशी	-9.88566
▁पलट	-9.88578
▁चौराहे	-9.88669
▁मैसेज	-9.8867
▁पब्लिक	-9.88681
▁यूक्रेन	-9.88693
▁मारा	-9.88829
▁असम	-9.88842
4	-9.89084
▁दौरा	-9.89098
▁गुर्जर	-9.8921
▁शब्द	-9.89211
▁कनाडा	-9.89219
▁300	-9.89255
▁उसको	-9.89263
▁रखें	-9.89298
▁400	-9.89369
▁सूरज	-9.89391
▁पड़ोसी	-9.89421
▁दर्द	-9.89493
▁विहार	-9.89512
▁खेती	-9.89566
▁टोल	-9.8962
▁दीप	-9.89772
▁कार्यवाही	-9.89783
▁दाम	-9.89801
▁अल	-9.89807
सर	-9.8983
ठ	-9.89866
▁स्कोर	-9.89947
▁तकनीकी	-9.89949
मन	-9.89977
▁हिस्सों	-9.90021
▁थानाध्यक्ष	-9.90028
▁अमर	-9.90043
▁निशान	-9.90087
▁लड़ने	-9.9018
▁छठ	-9.9018
▁तनाव	-9.90294
▁विराट	-9.90303
▁एमपी	-9.90456
कार	-9.90503
▁बॉल	-9.90569
ः	-9.90578
▁जागरूकता	-9.90625
▁फैल	-9.90775
▁लीक	-9.90811
▁साजिश	-9.90832
▁रिजल्ट	-9.90841
▁विक्रम	-9.90847
▁आपूर्ति	-9.90848
▁ओ	-9.90855
▁शुल्क	-9.90889
▁बच्चा	-9.90894
▁अभ्यर्थियों	-9.91126
▁कंगना	-9.91127
▁लेंगे	-9.91132
▁दोस्तों	-9.91156
▁नमः	-9.91392
▁निधन	-9.91393
▁अक्षय	-9.91394
▁कहने	-9.91395
▁जिसने	-9.9144
▁रिजर्व	-9.91667
▁हिसार	-9.91676
▁सकें	-9.91701
▁शुभारंभ	-9.91944
▁जताया	-9.91949
▁जिंदगी	-9.91951
्र	-9.91957
▁लिखित	-9.9198
▁प्रतिष्ठा	-9.92057
▁वीर	-9.92066
▁घटनाओं	-9.92134
▁दवा	-9.92208
▁बनाना	-9.92269
▁कारोबारी	-9.92333
▁अर्पित	-9.92339
रे	-9.92413
▁आकाश	-9.92474
▁कॉन्फ्रेंस	-9.925
▁चलता	-9.92511
▁ओम	-9.92782
▁फांसी	-9.92786
▁वैसे	-9.9279
▁सदन	-9.92811
▁36	-9.92866
िल	-9.92994
▁आशीर्वाद	-9.9306
▁सफर	-9.93071
▁जुर्माना	-9.93097
▁मानना	-9.93162
▁संगठनों	-9.93305
▁नृत्य	-9.93346
▁सारी	-9.93486
▁टीचर	-9.93578
▁ग्राहक	-9.93622
▁तत्कालीन	-9.93629
G	-9.93637
▁विजेता	-9.93642
▁पीठ	-9.93659
▁मूर्ति	-9.93669
ाय	-9.93685
▁गोल	-9.93865
▁हैदराबाद	-9.9391
▁स्मार्ट	-9.93911
▁बिलासपुर	-9.93918
▁गले	-9.93942
▁सेल	-9.9409
▁भरी	-9.94133
▁कितनी	-9.9419
▁स्वतंत्रता	-9.94212
▁फल	-9.94219
▁मानव	-9.94236
▁शांत	-9.94257
▁अन	-9.94348
▁जानें	-9.94369
▁बॉक्स	-9.94374
▁गरीब	-9.94374
▁केन्द्र	-9.94377
▁दिलीप	-9.94475
▁नही	-9.94476
▁सौ	-9.94553
▁परिवारों	-9.94621
▁पर्यटन	-9.94757
▁सेंट्रल	-9.94765
▁A	-9.94765
▁सचिन	-9.94771
▁जवानों	-9.94787
▁आधारित	-9.94794
▁पेट	-9.94902
▁बह	-9.95137
▁हरि	-9.95193
्ड	-9.95277
▁गुना	-9.95282
▁पीने	-9.95575
▁हों	-9.95609
▁जितेंद्र	-9.95618
▁देखी	-9.95734
▁खतरा	-9.95751
▁टीमें	-9.95783
▁इंजीनियर	-9.95821
▁जागरूक	-9.95848
▁शाखा	-9.95906
▁कितना	-9.95912
▁इंजन	-9.95912
▁क्षेत्रीय	-9.95926
▁पिछली	-9.95955
▁केंद्रों	-9.95995
▁शेख	-9.96087
▁देखें	-9.96087
▁गो	-9.96092
▁अमन	-9.9616
▁फ	-9.96185
▁रुख	-9.96186
▁प्रेरित	-9.96194
▁एग्जाम	-9.96198
▁पुराना	-9.96203
▁जिम्मेदार	-9.96327
▁तस्करी	-9.96332
▁साहब	-9.96337
▁कराए	-9.964
▁बदला	-9.96516
▁उधर	-9.96546
▁बिगड़	-9.96641
▁गोल्ड	-9.96699
▁विपक्षी	-9.96712
▁मोड़	-9.96774
▁बच्चन	-9.96778
▁ग्रहण	-9.96797
▁उत्पादन	-9.96826
▁दिलाने	-9.96833
▁परिवर्तन	-9.96937
▁डिजाइन	-9.96954
▁राजपूत	-9.97066
▁लीटर	-9.97109
▁बदलने	-9.9711
▁ताला	-9.9713
▁रोका	-9.97281
िस	-9.97308
▁जायसवाल	-9.97358
▁बिजनेस	-9.97361
▁महेंद्र	-9.97363
▁बताए	-9.97376
▁सोनू	-9.97377
▁पौधे	-9.97404
▁मंजूरी	-9.97463
▁कोचिंग	-9.97537
▁ठेकेदार	-9.97552
रिया	-9.97564
▁खरीदी	-9.97902
▁बेच	-9.97926
▁पैदल	-9.97946
▁चौराहा	-9.97946
▁सैकड़ों	-9.97948
▁इसराइल	-9.97953
▁सकी	-9.97993
दो	-9.98103
▁34	-9.98193
▁श्रद्धालु	-9.98195
▁पदक	-9.98209
▁चेहरे	-9.98274
▁D	-9.98277
▁तार	-9.9829
▁रहना	-9.9843
▁तहरीर	-9.9854
▁राजू	-9.98704
ेज	-9.98773
▁संपन्न	-9.98833
▁प्लेटफॉर्म	-9.98833
।"	-9.98871
▁खेलने	-9.99077
▁बढ़त	-9.99103
▁मुंह	-9.99131
▁जिक्र	-9.99132
▁गाड़ियों	-9.99135
▁पालिका	-9.99147
▁दुर्ग	-9.99264
▁दुष्कर्म	-9.99429
▁सहमति	-9.99434
▁मजबूर	-9.99437
तने	-9.99451
▁गाली	-9.99463
▁लोन	-9.99527
▁विशेषज्ञ	-9.99637
▁सदस्यता	-9.99723
▁देवेंद्र	-9.99756
▁टाइम	-9.9998
▁चाहे	-10.0005
▁पाठक	-10.0012
▁संबंधी	-10.0015
▁खरीदने	-10.0024
ज़	-10.0031
▁मिमी	-10.0033
▁महादेव	-10.0034
▁बेस्ट	-10.0035
▁डांस	-10.0035
▁फोर्स	-10.0037
▁महज	-10.0037
▁महीन	-10.0039
▁भेजने	-10.0057
▁टाइगर	-10.0064
▁लीग	-10.0064
▁दीवार	-10.0065
▁जिनके	-10.0072
वन	-10.0082
ये	-10.0088
▁कैद	-10.0091
▁कनेक्शन	-10.0094
▁तमाम	-10.0094
▁गिरोह	-10.0094
▁रजिस्ट्रेशन	-10.0094
▁अंसारी	-10.0095
▁वादा	-10.0102
▁भरने	-10.0112
▁वार	-10.0115
▁पंप	-10.0116
▁FIR	-10.0124
▁नाराजगी	-10.0125
▁शासकीय	-10.0125
▁पवार	-10.0125
▁आइए	-10.0131
▁मांगा	-10.0133
▁मेरठ	-10.0154
▁सतीश	-10.0155
▁पड़ताल	-10.0167
हा	-10.0168
▁देरी	-10.017
ायब	-10.0173
▁क्रम	-10.0178
▁नरेश	-10.018
▁जल्दी	-10.0184
▁जालंधर	-10.0185
▁अप	-10.0186
▁रात्रि	-10.0186
▁लालू	-10.0187
▁भागने	-10.0193
▁150	-10.0194
▁मारी	-10.0207
▁त्योहार	-10.0208
▁विकल्प	-10.0216
▁मूवी	-10.0216
▁कैमरा	-10.0216
▁मिट्टी	-10.0217
▁सुन	-10.0226
▁सुनकर	-10.0226
एल	-10.0236
▁घट	-10.0242
▁मुहूर्त	-10.0246
▁ग्रीन	-10.0247
▁खेले	-10.0248
▁किरण	-10.0254
▁इ	-10.0262
▁बजाय	-10.0263
i	-10.027
▁उठ	-10.0273
▁जज	-10.0274
ध	-10.0276
▁हटा	-10.0281
h	-10.0308
▁मंगल	-10.0309
▁दर्शक	-10.0309
▁रोजाना	-10.0309
▁सीकर	-10.0326
प्र	-10.0334
▁मांगे	-10.0335
▁गीता	-10.0336
▁त्रिपाठी	-10.0339
▁मेट्रो	-10.0339
▁सौरभ	-10.034
▁राजकीय	-10.0341
इ	-10.0343
▁सुना	-10.0352
▁ख	-10.0358
▁बदले	-10.0366
▁आदर्श	-10.0371
▁निवास	-10.0394
▁स्टूडेंट	-10.0397
▁खुले	-10.04
यू	-10.04
▁बरसात	-10.0402
▁{	-10.0402
▁भोग	-10.0406
▁बीमार	-10.0407
▁अपहरण	-10.0409
ंत	-10.0409
▁मात्रा	-10.0416
▁वसूली	-10.0417
▁रहें	-10.0418
▁गहरा	-10.0433
▁टू	-10.0436
▁गार्ड	-10.0437
▁हुईं	-10.0439
▁गली	-10.044
▁होंगी	-10.0447
▁गुर	-10.0451
▁बढ़ी	-10.0453
▁रिमांड	-10.0465
▁आपराधिक	-10.0465
▁श्रीलंका	-10.0465
▁एएसआई	-10.0465
▁लाइफ	-10.0467
▁ग्राउंड	-10.047
▁घंट	-10.0471
मेंट	-10.0473
▁पल	-10.0491
ड़ी	-10.0495
▁तीसरा	-10.0496
▁इमरजेंसी	-10.0498
▁माने	-10.0503
▁मंदिरों	-10.0509
▁बचने	-10.0514
▁पहुंचाने	-10.0514
▁सं	-10.052
▁भू	-10.0521
▁फॉर्म	-10.0521
▁प्राधिकरण	-10.0528
▁सकेगा	-10.053
-3	-10.0536
▁करण	-10.054
▁सांप	-10.0558
▁इलेक्ट्रिक	-10.0559
▁थोड़ी	-10.056
▁अधिवक्ता	-10.056
पूर्ण	-10.0563
▁विरोधी	-10.0575
▁राजद	-10.0582
▁जबरदस्त	-10.0591
▁नेहरू	-10.0591
▁आश्रम	-10.0593
▁प्रभु	-10.0593
ानी	-10.0608
▁राधा	-10.061
वाला	-10.0615
▁फ्री	-10.0619
▁हेल्थ	-10.0623
▁बिल्कुल	-10.0624
▁रोहतक	-10.0624
▁हिमाचल	-10.0624
▁महंत	-10.0625
▁बस्ती	-10.0627
▁लो	-10.0634
▁परंपरा	-10.065
▁टेंडर	-10.0655
▁भरे	-10.0655
▁इंग्लैंड	-10.0656
▁आदित्यनाथ	-10.0656
एम	-10.0656
▁प्रयागराज	-10.0657
▁2017	-10.0658
▁गोविंद	-10.066
▁जुड़ा	-10.0661
▁बढ़ते	-10.0661
▁रखकर	-10.0676
▁प्रावधान	-10.0679
▁खो	-10.0686
▁रेंज	-10.0693
▁बहस	-10.0693
▁डेटा	-10.0694
▁B	-10.0695
▁मप्र	-10.0721
▁हमलावर	-10.0723
धाम	-10.0725
बल	-10.0735
▁संभाल	-10.0743
▁दुकानदार	-10.0752
▁बिश्नोई	-10.0752
▁स्वच्छता	-10.0756
▁संसदीय	-10.0757
▁बैटरी	-10.0759
घर	-10.0762
▁भावना	-10.0765
▁37	-10.0774
▁धार	-10.0779
▁ऐप	-10.0781
▁रिसर्च	-10.0785
▁खनन	-10.0785
▁तुम	-10.079
▁तलाशी	-10.0806
▁विरुद्ध	-10.0817
▁बॉर्डर	-10.0818
▁महामंत्री	-10.082
▁हरा	-10.0823
▁आशा	-10.0828
▁उल्लंघन	-10.085
▁इवेंट	-10.085
o	-10.0856
रो	-10.0862
मैं	-10.0862
टा	-10.087
▁समीप	-10.0883
▁हेतु	-10.0883
▁इजराइल	-10.0883
ाना	-10.0893
▁एशिया	-10.0903
▁जीते	-10.0911
▁फाइल	-10.0913
▁डिमांड	-10.0915
▁अरेस्ट	-10.0916
▁साइकिल	-10.0917
▁गठित	-10.0918
▁धीरे	-10.092
▁स्व	-10.093
▁आरोपों	-10.0934
▁प्रकरण	-10.0942
▁हल	-10.0943
▁प्रतिक्रिया	-10.0947
▁नरेन्द्र	-10.0949
▁सच	-10.0954
▁जख्मी	-10.0954
▁पढ़ने	-10.0954
▁42	-10.0955
▁आजाद	-10.0955
कश्मीर	-10.0956
▁आएगी	-10.0957
▁चुना	-10.0965
▁मृतका	-10.0969
▁एक्सपर्ट	-10.0976
▁गीत	-10.0977
▁बेंगलुरु	-10.0983
▁एकादशी	-10.0983
▁जूनियर	-10.0983
,000	-10.1009
▁झूठ	-10.101
▁स्नान	-10.1015
▁निर्दलीय	-10.1015
▁नर्सिंग	-10.1016
▁पोस्टर	-10.1035
▁महाविद्यालय	-10.1041
▁फंस	-10.1042
▁55	-10.1044
▁प्रतिभा	-10.1048
▁पटवारी	-10.1048
▁स्वयं	-10.1049
▁लोकतंत्र	-10.1049
▁ऑफर	-10.105
यिक	-10.1061
▁आलम	-10.1066
▁संकेत	-10.1068
▁बर	-10.1069
▁आदित्य	-10.1069
▁चक्कर	-10.1083
▁तस्वीरें	-10.1086
▁किराए	-10.1112
▁वैश्व	-10.1115
▁धोखाधड़ी	-10.1115
▁प्रार्थना	-10.1116
▁सेट	-10.1117
▁पायलट	-10.1118
▁इंच	-10.1119
▁रोशन	-10.1121
▁मानते	-10.1125
▁द्वितीय	-10.1134
▁नेपाल	-10.1135
N	-10.1137
▁यूनियन	-10.1141
▁प्रारंभ	-10.1149
▁सुझाव	-10.1149
▁बाघ	-10.115
▁भले	-10.115
▁नोएडा	-10.115
▁छोड़ने	-10.1154
▁बुरा	-10.1163
▁तोड़कर	-10.117
▁मास्टर	-10.1178
ार	-10.118
▁पिटाई	-10.1183
▁पूर्णिमा	-10.1183
▁खा	-10.1183
▁छीन	-10.1189
▁डीजल	-10.119
▁करोड़ों	-10.1198
▁दलित	-10.1199
▁T	-10.1208
ेन्द्र	-10.121
▁अकेले	-10.1214
▁बहादुर	-10.1215
▁रकम	-10.1217
▁श	-10.1222
▁टीवी	-10.1222
▁नाले	-10.1226
िव	-10.1234
▁पत्रकार	-10.1247
▁मूल्य	-10.1249
▁रिश्ते	-10.125
▁मर	-10.125
▁शारीरिक	-10.1251
▁खन्ना	-10.1251
▁सबूत	-10.1251
▁तमिलनाडु	-10.1251
▁उठाए	-10.1254
▁कार्यरत	-10.1254
▁फेंक	-10.1257
▁पुलिसकर्मी	-10.1261
▁निभा	-10.1277
ीन	-10.1277
▁उपस्थिति	-10.129
▁देगा	-10.1292
▁प्रेमी	-10.1293
▁एकड़	-10.1301
8	-10.1307
▁दुख	-10.1312
▁आधा	-10.1315
▁बाग	-10.1315
▁धूम	-10.1316
▁प्रदूषण	-10.1319
▁चाचा	-10.1319
▁छुट्टी	-10.1319
▁चंद	-10.1325
▁आपने	-10.1328
हम	-10.133
▁सहयोगी	-10.1336
रण	-10.1345
▁प्री	-10.1349
्‍	-10.1353
▁विद्यार्थी	-10.1353
▁मुखिया	-10.1355
▁रोग	-10.1369
▁घूम	-10.1372
रत	-10.1375
▁उठाने	-10.1379
▁रिश्वत	-10.138
▁ऐतिहासिक	-10.1388
▁सपोर्ट	-10.1388
▁बीकानेर	-10.1389
▁लड़कियों	-10.1392
▁38	-10.1394
भ	-10.14
▁करे	-10.1406
▁जगदीश	-10.1407
▁जाट	-10.1409
▁अमृतसर	-10.1425
▁रावत	-10.1435
हर	-10.1436
S	-10.145
▁अंकित	-10.1453
▁इंदिरा	-10.1456
आधिकारिक	-10.1457
▁सैन्य	-10.1457
▁पीछा	-10.1457
▁अफ्रीका	-10.1458
▁बाड़मेर	-10.1458
▁मोटरसाइकिल	-10.1492
▁मेयर	-10.1493
▁न्यायिक	-10.1498
▁व्यापारियों	-10.1499
▁प्रसिद्ध	-10.15
▁प्राथमिकता	-10.1503
▁व्यक्तियों	-10.1504
▁अंदाज	-10.1506
▁कारणों	-10.1507
▁डीसी	-10.1508
▁संगीत	-10.1513
▁पीट	-10.1513
▁प्रगति	-10.1527
▁भजनलाल	-10.1528
▁प्रशांत	-10.153
▁बैठकर	-10.1545
7	-10.1551
आई	-10.1552
▁सुरेंद्र	-10.1555
u	-10.1557
▁अभ्यर्थी	-10.1563
▁सनातन	-10.1563
▁मेहता	-10.1563
▁प्रतीक	-10.1569
▁ॐ	-10.157
▁लू	-10.1581
करण	-10.1589
▁मोटर	-10.1593
▁कॉन्स्टेबल	-10.1597
▁रेस्क्यू	-10.1597
▁लेवल	-10.1602
▁विधान	-10.1604
▁खेतों	-10.1604
▁देगी	-10.1605
▁कांड	-10.1606
▁पंच	-10.1606
▁मीना	-10.1614
▁पथ	-10.1616
ाराम	-10.1624
▁ऑफिसर	-10.1625
▁मात्र	-10.1631
▁सामुदा	-10.1632
▁ज़्यादा	-10.1633
▁प्रोग्राम	-10.1633
▁प्रतिदिन	-10.1634
▁खाद	-10.1641
▁कर्ज	-10.1646
▁गये	-10.1651
:30	-10.1659
▁डेंगू	-10.1668
▁हुसैन	-10.1668
▁कलेक्शन	-10.1668
▁स्मृति	-10.1669
▁आलोक	-10.1671
▁सुविधाओं	-10.1681
▁बैठा	-10.1685
▁होम	-10.169
▁लगते	-10.1698
▁प्रश्न	-10.1698
▁अभियंता	-10.1699
▁सामूहिक	-10.1704
▁जिंदा	-10.1704
▁इंस्टाग्राम	-10.1704
▁खतर	-10.1705
▁राणा	-10.1706
▁भक्ति	-10.1707
▁डेट	-10.1726
गत	-10.1727
▁भाषण	-10.1734
▁बुला	-10.1737
▁जुलूस	-10.1739
▁संशोधन	-10.1741
इस	-10.1761
▁कॉलेजों	-10.1764
▁इनका	-10.1768
▁फ्लैट	-10.177
▁शीर्ष	-10.1773
▁माध्यमिक	-10.1786
▁साय	-10.1791
▁अनेक	-10.1807
▁मोहल्ले	-10.1811
▁प्रवीण	-10.1811
▁सब्जी	-10.1812
▁सिपाही	-10.1816
दीप	-10.1836
रदार	-10.1836
▁पदार्थ	-10.1844
▁स्पीकर	-10.1847
▁अंबानी	-10.1848
▁भूल	-10.1851
▁गलती	-10.187
▁कृष्णा	-10.1877
▁मांगने	-10.1878
▁पप्पू	-10.1883
▁लाठी	-10.1884
▁महापौर	-10.1884
▁अधिकांश	-10.1884
▁फंड	-10.1885
▁हराया	-10.1888
▁चुन	-10.1895
जे	-10.1905
P	-10.1909
ुल	-10.1914
वि	-10.1919
▁पिस्टल	-10.192
▁कलेक्ट्रेट	-10.192
▁सुविधाएं	-10.1923
▁चौथे	-10.1927
▁जेपी	-10.1928
▁एंटी	-10.1938
▁संस्थानों	-10.1942
▁व्यापक	-10.1956
▁लिंक	-10.196
▁बसपा	-10.1961
▁लव	-10.1965
▁रणनीति	-10.1966
▁बुक	-10.1978
▁एक्टिव	-10.1982
▁अमिताभ	-10.1993
▁स्कूटी	-10.1993
▁उत्तराखंड	-10.1994
▁मार्गदर्शन	-10.1994
▁घोटाले	-10.1994
▁धर्मेंद्र	-10.1996
▁पहाड़	-10.2
▁मौजूदगी	-10.2
▁शहरी	-10.2001
▁कार्यक्रमों	-10.202
▁चीनी	-10.2029
▁प्रमोद	-10.203
▁सीईओ	-10.203
▁बीबीसी	-10.203
▁बालक	-10.2031
▁सिलेंडर	-10.2031
▁हॉल	-10.2033
▁गंभीरता	-10.2035
▁रावण	-10.2035
▁आईं	-10.2037
▁सारा	-10.2041
वास	-10.2046
▁री	-10.2066
▁परीक्षण	-10.2067
▁तबीयत	-10.2067
▁दीपावली	-10.2067
▁आग्रह	-10.2067
▁हसीना	-10.2068
▁ब्रिज	-10.2069
▁कुलपति	-10.2069
▁कोर्स	-10.2073
दूसरे	-10.2078
पास	-10.2092
▁N	-10.2097
▁बीमा	-10.2098
▁दिक्कत	-10.2099
▁समर्पित	-10.2104
▁गर्ग	-10.2104
▁जिलाधिकारी	-10.2104
0	-10.2105
▁यूजर्स	-10.2108
▁शास्त्री	-10.2111
▁आतंकी	-10.2127
▁डूब	-10.213
▁बोली	-10.2134
▁इंतजाम	-10.2141
▁भाइयों	-10.2141
▁गोदाम	-10.2142
▁कैश	-10.2142
▁झगड़ा	-10.2143
▁बसों	-10.2146
▁चलेगा	-10.2147
▁आएगा	-10.215
▁चेन	-10.2155
▁रंजन	-10.2166
वीर	-10.2167
▁एंबुलेंस	-10.2178
▁समुद्र	-10.2179
▁ट्रॉफी	-10.2179
▁आयु	-10.2179
▁फेल	-10.2179
▁ढाई	-10.2181
▁मजदूरी	-10.2184
▁पड़ोस	-10.2188
▁65	-10.2189
▁पुलिसकर्मियों	-10.2194
▁गुप्त	-10.2198
▁कटौती	-10.2216
▁इकाई	-10.2216
▁एसएसपी	-10.2217
ेंगे	-10.2222
▁एप	-10.2224
▁मेन	-10.2236
▁काशी	-10.2251
▁माफी	-10.2263
▁अस्पतालों	-10.2264
▁यहीं	-10.2281
▁चीजों	-10.2286
▁प्रबंधक	-10.2298
▁तैयारियां	-10.2299
▁मनाई	-10.23
▁रहकर	-10.231
▁गाने	-10.2311
▁डालने	-10.2313
▁इंटर	-10.2325
▁मिलाकर	-10.2325
▁फूड	-10.2326
▁प्रतिपक्ष	-10.2329
▁तलाक	-10.2331
▁मुक्ति	-10.2335
ानंद	-10.2355
▁ओलिंपिक	-10.2367
▁क्षतिग्रस्त	-10.2367
▁समक्ष	-10.2367
▁मृत्यु	-10.2368
▁इच्छा	-10.2378
▁ब्रेक	-10.2399
▁व्यवहार	-10.2403
▁फाउंडेशन	-10.2405
▁ब्रांच	-10.2405
▁आंध्र	-10.2405
▁चालू	-10.2406
▁पुणे	-10.2406
▁संबंधों	-10.2409
▁नाथ	-10.2414
▁आभार	-10.2416
▁जानी	-10.2428
▁बाजारों	-10.2432
M	-10.2441
▁समर्थकों	-10.2444
▁मुजफ्फरपुर	-10.2445
▁नक्सलियों	-10.2445
▁तिरंगा	-10.2446
▁पाकिस्तानी	-10.2447
▁शेष	-10.2449
▁टकरा	-10.247
▁44	-10.2478
▁संज्ञान	-10.2482
▁पंत	-10.2486
▁छोड़ा	-10.2499
▁अखिल	-10.2502
▁मजदूरों	-10.2505
▁आह्वान	-10.252
▁राठौड़	-10.252
▁समस्त	-10.2521
▁राशिफल	-10.2521
▁समाजवादी	-10.2522
▁सुनीता	-10.2525
▁कुशवाहा	-10.2527
▁संध्या	-10.2531
▁संग	-10.2538
▁गाय	-10.2542
▁काे	-10.255
▁सेवाएं	-10.2566
▁ट	-10.2579
रन	-10.2581
▁अवॉर्ड	-10.2593
▁पिकअप	-10.2598
▁प्रणाली	-10.2598
▁भूपेंद्र	-10.2598
▁कलाकारों	-10.2599
▁स्वरूप	-10.2599
▁विद्या	-10.2601
▁समर्थक	-10.2601
▁चंदन	-10.2603
ाबाद	-10.2605
▁भेजे	-10.2609
▁मनोहर	-10.2612
▁बिहारी	-10.262
▁C	-10.2622
▁कैंडिडेट	-10.2632
▁ताकत	-10.2635
▁काला	-10.2637
▁शायद	-10.2637
▁कार्तिक	-10.2637
▁एडवोकेट	-10.2637
▁सर्च	-10.2639
▁जाएंगी	-10.2639
▁शरद	-10.264
▁बाई	-10.2655
अपने	-10.266
म्	-10.2663
ौ	-10.2673
▁औद्योगिक	-10.2676
▁ब्लड	-10.2677
▁कलाकार	-10.2678
▁अनंत	-10.2678
▁ऋषि	-10.2681
▁गयी	-10.2681
▁तकनीक	-10.2686
ेट	-10.2696
▁स्मार्टफोन	-10.2716
▁अलवर	-10.2718
▁शोर	-10.272
▁अत्य	-10.272
▁रु	-10.2733
▁प्रभावी	-10.2746
▁पूर्णिया	-10.2749
ंड	-10.2749
▁चलाई	-10.2752
▁यौन	-10.2755
▁वोटर	-10.2756
▁मथुरा	-10.2757
▁मर्डर	-10.2758
▁शतक	-10.2761
▁चलती	-10.2781
ेगी	-10.2785
▁प्रॉपर्टी	-10.2795
▁दरवाजा	-10.2796
▁भगत	-10.2802
▁आईडी	-10.2804
ेस	-10.2808
▁पीटा	-10.2814
▁उतारा	-10.2826
▁मिश्र	-10.2832
▁वैज्ञानिक	-10.2835
▁बतौर	-10.2836
▁2016	-10.2837
▁आसमान	-10.2837
▁मंजिल	-10.284
▁सिख	-10.2842
▁पवित्र	-10.286
▁सील	-10.2869
▁अनुरोध	-10.2875
▁बनर्जी	-10.2875
▁नारेबाजी	-10.2875
▁सपना	-10.288
▁मंत्रियों	-10.288
▁आमजन	-10.2884
▁सीओ	-10.289
▁पाइप	-10.2915
▁धन्यवाद	-10.2915
ाें	-10.2915
▁हिंदुओं	-10.2915
ेगा	-10.2916
▁बेहतरीन	-10.2917
▁कन्या	-10.2917
▁कपिल	-10.292
तम	-10.2948
इन	-10.2948
▁स्वर्ण	-10.2951
▁जनसभा	-10.2955
▁गुणवत्ता	-10.2955
▁हार्दिक	-10.2955
▁चौटाला	-10.2955
▁जाहिर	-10.2956
▁स्पोर्ट्स	-10.2957
▁फीचर्स	-10.2958
▁चेहरा	-10.2959
▁मानी	-10.2964
.30	-10.2965
▁सिक्योरिटी	-10.2974
▁39	-10.2978
▁अति	-10.2978
▁दिखाने	-10.2979
▁बीती	-10.2982
▁चार्ज	-10.2983
▁मध्यम	-10.2992
▁सिनेमा	-10.2996
▁ब्रिगेड	-10.2996
▁थोड़ा	-10.2996
▁चाय	-10.3001
▁रथ	-10.3003
▁पे	-10.3004
छात्राओं	-10.3011
▁वर्क	-10.303
▁46	-10.3032
▁जंग	-10.3035
▁पढ़िए	-10.3036
▁कमलेश	-10.3038
पा	-10.3041
▁हाथी	-10.3042
▁रीवा	-10.3048
▁टन	-10.3051
▁प्रबंध	-10.3057
▁आंखों	-10.3064
▁अनिवार्य	-10.3071
▁बनाते	-10.3073
▁श्रद्धांजलि	-10.3077
्या	-10.3083
▁बढ़ाया	-10.3084
▁आपस	-10.3107
▁शुभम	-10.3111
▁ख़िलाफ़	-10.3118
▁अनुराग	-10.3118
▁ऑर्डर	-10.3119
▁साइड	-10.3122
▁व्यक्तिगत	-10.3123
▁तट	-10.3124
▁इंजीनियरिंग	-10.3124
▁आपसी	-10.3127
R	-10.3129
▁माला	-10.3137
l	-10.3139
▁करनाल	-10.3145
▁लड़ा	-10.3153
▁उदाहरण	-10.3159
▁गश्त	-10.3159
▁स्टोर	-10.3163
▁एसआई	-10.3174
धीरे	-10.3175
्री	-10.3181
▁सांस	-10.319
▁बैठ	-10.3201
▁छेड़छाड़	-10.3201
बीर	-10.3201
▁उपाय	-10.3207
▁बाबू	-10.3209
▁51	-10.3233
▁मनाने	-10.3233
▁समझौता	-10.3242
▁स्कीम	-10.3242
▁शिवसेना	-10.3243
▁लिये	-10.3244
▁जोड़ी	-10.3245
▁मलिक	-10.3246
▁चलेगी	-10.3249
▁चेकिंग	-10.3252
▁उ	-10.3254
▁दादा	-10.3255
ौली	-10.3258
t	-10.326
▁रिपोर्ट्स	-10.3263
▁काटने	-10.3263
▁एसी	-10.3279
▁मशहूर	-10.3284
▁अरोड़ा	-10.3284
▁महाकाल	-10.3284
▁अटल	-10.3285
▁तिलक	-10.3288
▁टाउन	-10.3288
▁गला	-10.3288
▁खासकर	-10.3289
▁फिल्में	-10.3309
▁उपाध्याय	-10.3326
▁टारगेट	-10.3326
▁सर्टिफिकेट	-10.3326
▁आलोचना	-10.3326
▁41	-10.3327
▁रेड्डी	-10.3327
▁सैनिक	-10.3329
▁लोकेशन	-10.3334
▁R	-10.334
▁जग	-10.3354
▁अनु	-10.3362
▁मचा	-10.3366
▁बालिका	-10.3367
▁मजिस्ट्रेट	-10.3368
▁अर्थव्यवस्था	-10.3368
▁मोहल्ला	-10.3368
▁हुड्डा	-10.3368
▁तेलंगाना	-10.3368
▁महावीर	-10.3369
▁अजीत	-10.3375
▁डालकर	-10.3386
▁मोड	-10.3395
▁आंकड़े	-10.3404
▁नाटक	-10.3407
▁संभावित	-10.341
▁ब्याज	-10.341
▁सैंपल	-10.341
▁आमिर	-10.3412
▁रियल	-10.3414
▁विनय	-10.3414
▁कलश	-10.3415
▁काली	-10.3415
▁जोड़ने	-10.3423
▁भेजी	-10.3425
▁in	-10.3427
▁राशन	-10.3453
▁झांसी	-10.3462
▁लौटा	-10.3465
▁सास	-10.3465
ही	-10.3467
▁01	-10.347
▁उठाकर	-10.3478
▁शरण	-10.3486
▁ऑल	-10.3497
▁खेली	-10.3501
▁पैस	-10.3506
▁जोड़	-10.3514
▁जगत	-10.3516
▁किशोरी	-10.3526
▁ड	-10.3531
▁हरकत	-10.3537
▁गहलोत	-10.3537
▁सकारात्मक	-10.3537
▁एटीएम	-10.3537
▁गारंटी	-10.3537
▁बघेल	-10.3538
▁एडमिशन	-10.3538
▁गाड़ियां	-10.3538
▁बॉडी	-10.3538
▁संभल	-10.3538
▁मंत्र	-10.3541
▁चुरा	-10.3548
▁शुक्ल	-10.3563
▁सावन	-10.3569
पति	-10.3574
मत	-10.3576
▁मासूम	-10.358
▁लंबित	-10.358
▁मैनेजमेंट	-10.3581
▁नारे	-10.3587
डे	-10.3588
▁मानक	-10.3591
▁नकली	-10.3593
▁सुमन	-10.3595
▁सुनने	-10.3598
▁गत	-10.3613
▁कृपा	-10.3616
▁सिंचाई	-10.3624
▁चेन्नई	-10.3625
शा	-10.3625
▁स्वीकृति	-10.3658
▁आजादी	-10.3661
ुआ	-10.3666
▁नितिन	-10.3667
▁नीट	-10.367
▁गिल	-10.367
▁टेबल	-10.3671
B	-10.3674
खा	-10.3693
▁M	-10.3705
▁पुष्प	-10.3709
▁निलंबित	-10.371
▁बहुमत	-10.371
▁रविंद्र	-10.3711
▁ग्लोबल	-10.3712
▁निरस्त	-10.3712
▁फुल	-10.3722
एन	-10.3722
▁पाते	-10.3726
▁गिरी	-10.3726
छ	-10.3728
▁एकता	-10.3731
▁मा	-10.3742
▁आक्रोश	-10.375
▁आस्था	-10.3754
▁फर्स्ट	-10.3754
▁श्रीकृष्ण	-10.3755
▁बा	-10.3756
▁खुला	-10.3757
▁करंट	-10.3757
▁कचरा	-10.3763
▁मनी	-10.3775
▁टेक्नोलॉजी	-10.3796
▁मुआवजा	-10.3798
▁ड्रेस	-10.3798
▁वीरेंद्र	-10.3799
▁गेंदबाज	-10.3816
▁घटनाएं	-10.3823
▁कु	-10.3823
▁लुक	-10.3823
▁गौरतलब	-10.3842
▁वार्ता	-10.3842
▁क्विंटल	-10.3842
▁इंचार्ज	-10.3842
▁गेहूं	-10.3842
▁सुमित	-10.3842
▁आईएएस	-10.3842
▁मणिपुर	-10.3843
ाकर	-10.3843
▁खरीदा	-10.3851
▁समझा	-10.3866
▁तुलसी	-10.3882
▁ठाकरे	-10.3886
▁मायके	-10.3887
▁थानाधिकारी	-10.3887
▁दिग्गज	-10.389
णी	-10.3891
▁बाहरी	-10.3897
▁निवेशकों	-10.3902
▁पड़ने	-10.3902
▁कायम	-10.3916
▁मरम्मत	-10.3931
▁अभियुक्त	-10.3931
▁भेंट	-10.3931
▁महात्मा	-10.3931
▁डिलीवरी	-10.3932
▁खाता	-10.3936
▁नाग	-10.3936
▁खोलने	-10.3955
▁गुट	-10.397
▁हर्ष	-10.3971
▁मुठभेड़	-10.3975
▁रामलला	-10.3976
▁दरबार	-10.3981
▁सराहना	-10.3982
▁चालान	-10.3982
▁P	-10.3985
▁खींच	-10.3998
K	-10.4005
▁G	-10.4007
▁खोला	-10.4008
▁नेटवर्क	-10.4016
▁विनेश	-10.402
▁गुरुग्राम	-10.402
▁सरस्वती	-10.4021
▁कार्यशाला	-10.4021
▁मानें	-10.4031
▁व्यास	-10.4034
▁देखना	-10.4044
▁शिवराज	-10.4044
▁करेंगी	-10.4048
▁डि	-10.4051
एफ	-10.4061
ेन	-10.4061
▁चिराग	-10.4065
▁प्लास्टिक	-10.4065
▁साइंस	-10.4065
▁अवगत	-10.4065
▁अटैक	-10.4065
▁किताब	-10.4066
▁कस्बे	-10.4067
▁यश	-10.4071
▁लेन	-10.4079
▁पार्टिय	-10.408
▁हैरान	-10.4082
गो	-10.4087
वासियों	-10.4089
▁संवाद	-10.4111
▁ढंग	-10.4111
▁सीधा	-10.4111
▁गड़बड़ी	-10.4118
▁यू	-10.4123
▁फंसा	-10.4139
▁सुशील	-10.414
▁जोड़ा	-10.4149
▁सि	-10.4149
▁फोकस	-10.4156
▁निकट	-10.4157
▁जे	-10.4157
▁झटका	-10.4158
्ल	-10.4193
▁दिव्यांग	-10.4201
▁गढ़	-10.4202
▁पंडाल	-10.4202
बर	-10.4205
▁बुकिंग	-10.4206
▁किशन	-10.4211
▁भट्ट	-10.4212
िम	-10.4214
▁आतंक	-10.4219
▁चढ़	-10.4228
▁उड़ान	-10.4234
चार	-10.4236
वानी	-10.4244
▁तीर्थ	-10.4245
▁आधे	-10.4247
▁स्वस्थ	-10.4247
▁धनबाद	-10.4248
▁ईश्वर	-10.4248
▁प्रतिबंध	-10.4248
▁आचार	-10.4251
▁ब्राह्मण	-10.4253
▁संसाधन	-10.4253
▁शोध	-10.4258
ेंट	-10.4259
▁रेखा	-10.4261
कल	-10.4265
▁आंकड़	-10.4277
िश	-10.4277
▁कूद	-10.428
▁पहाड़ी	-10.4284
▁56	-10.4284
▁हित	-10.4288
▁निकालकर	-10.4289
▁अभिनेता	-10.4293
▁फंदे	-10.4293
▁ट्रेलर	-10.4294
▁फसलों	-10.4295
▁गोद	-10.4306
▁मु	-10.431
▁अर्चना	-10.4314
ाल	-10.4335
▁पार्ट	-10.4337
▁अध्ययन	-10.434
▁सर्जरी	-10.434
▁समस्तीपुर	-10.4341
▁संदेह	-10.4341
▁इजरायल	-10.4341
▁वार्षिक	-10.4342
▁बहाने	-10.4342
▁चीज	-10.4345
▁हार्ट	-10.4345
▁दफ्तर	-10.4346
▁दोस्ती	-10.4354
▁काले	-10.4355
दी	-10.4358
▁रे	-10.4363
▁रेत	-10.4364
▁वजन	-10.4369
▁बहनों	-10.4372
▁देसी	-10.4372
▁रतन	-10.4373
▁तोड़ने	-10.4378
▁सेवाओं	-10.4378
▁निर्देशन	-10.4381
▁लंबा	-10.4383
श्री	-10.4387
▁सिंधिया	-10.4387
▁सक्षम	-10.4387
▁गांजा	-10.439
▁मिलेंगे	-10.4392
▁सीता	-10.4394
▁सर्दी	-10.4395
▁लगेगा	-10.4396
चंद	-10.4402
▁52	-10.4403
रू	-10.4408
▁चालकों	-10.4413
▁चैनल	-10.4414
▁तैनाती	-10.4425
▁पेयजल	-10.4433
▁सफेद	-10.4433
▁रजत	-10.4434
▁बहू	-10.4441
▁कमर	-10.4444
▁कमला	-10.4444
▁आर्मी	-10.4452
▁नामक	-10.4453
▁उत्तरी	-10.4455
▁हक	-10.4456
ंट	-10.4457
▁एमएम	-10.4459
▁कीमतों	-10.4467
▁कक्ष	-10.447
▁शुद्ध	-10.4479
▁श्रद्धा	-10.448
▁प्रेरणा	-10.448
▁शिखर	-10.448
▁शुभकामनाएं	-10.448
▁अनाज	-10.4481
▁विरासत	-10.4481
▁बरेली	-10.4482
▁हाे	-10.4483
▁बनेगा	-10.4487
▁अधिकतर	-10.4495
▁I	-10.4497
▁लहर	-10.4501
▁फंसे	-10.4506
▁किये	-10.4508
▁बारात	-10.4519
▁तारीफ	-10.4526
▁पेरिस	-10.4526
▁प्रत्याशियों	-10.4527
▁रिटर्न	-10.4527
▁विशिष्ट	-10.4528
▁अंबेडकर	-10.4528
in	-10.4531
▁पुजारी	-10.4532
▁डबल	-10.4536
▁राखी	-10.4543
▁वी	-10.4546
▁उत्पाद	-10.4549
ै	-10.4551
▁बताने	-10.4553
मल	-10.4554
▁प्राथमिकी	-10.4563
▁43	-10.4572
▁जश्न	-10.4574
▁एक्सीडेंट	-10.4575
▁देखभाल	-10.4576
ॉ	-10.4579
▁सत्य	-10.4586
▁करीबी	-10.4588
▁प्रस्तावित	-10.4591
▁सियास	-10.4603
▁72	-10.4608
▁सौंपी	-10.4609
▁बीज	-10.4612
▁2015	-10.4615
▁टेक	-10.4617
▁इमरान	-10.4622
▁लक्ष्मण	-10.4623
▁लाइव	-10.4623
▁दिखे	-10.4627
▁थानों	-10.4627
िनी	-10.4645
तौर	-10.4648
यह	-10.465
▁पात्र	-10.4651
▁मास	-10.4653
▁गौ	-10.4667
▁कार्यकारिणी	-10.467
▁फर्म	-10.467
▁करार	-10.467
▁शिंदे	-10.4672
▁अमृत	-10.4673
▁250	-10.4678
▁फॉर	-10.4688
जगह	-10.469
▁ललित	-10.4693
▁डीसीपी	-10.4693
पूर्वक	-10.4694
▁फार्म	-10.4694
▁05	-10.4698
▁02	-10.4704
पन	-10.471
▁कविता	-10.4716
▁सैनिकों	-10.4716
ंद	-10.4718
▁राठौर	-10.4718
▁उमस	-10.4718
▁गोलियां	-10.472
▁वाटर	-10.472
▁हटाया	-10.472
▁जहर	-10.4721
▁हवाले	-10.4722
स्ट	-10.4723
▁जीती	-10.4724
▁F	-10.4733
▁असली	-10.4744
▁लिखी	-10.4746
▁47	-10.4751
दास	-10.4752
▁कहकर	-10.4756
▁अनुसंधान	-10.4758
▁दबा	-10.4758
▁डेब्यू	-10.4766
▁दहेज	-10.4766
▁हमलों	-10.4767
▁K	-10.477
▁भरतपुर	-10.4771
▁अंग्रेजी	-10.4774
▁पैनल	-10.4779
▁छाए	-10.4786
▁जानने	-10.4815
▁गूगल	-10.4815
▁मकसद	-10.4815
▁गाजियाबाद	-10.4816
▁जायजा	-10.4817
▁आसार	-10.4819
▁पीजी	-10.4823
▁एक्टिंग	-10.4825
▁बुलाकर	-10.4828
भारत	-10.4843
▁पूछ	-10.4849
▁भरत	-10.4849
राष्ट्रीय	-10.4853
▁शैक्षणिक	-10.4864
▁बचपन	-10.4865
▁विक्की	-10.4865
▁पूछे	-10.4868
▁भागीदारी	-10.4869
▁लड़का	-10.4881
▁बेहोश	-10.4883
▁हसन	-10.4891
▁जस	-10.4893
▁सेशन	-10.4893
▁लेटर	-10.4899
▁सुर्खिय	-10.4901
▁वेस्ट	-10.4905
▁मदन	-10.4911
▁हथियारों	-10.4914
▁रिटायर्ड	-10.4914
▁वनडे	-10.4915
▁ओबीसी	-10.4915
▁भागलपुर	-10.4916
▁मिसाइल	-10.492
▁न्यूज	-10.492
▁आपत्ति	-10.4923
▁सख्ती	-10.4934
▁प्रयासों	-10.4942
▁ऑन	-10.4948
▁डिटेल	-10.4957
▁मुझस	-10.4957
▁पु	-10.4959
▁प्रोत्साह	-10.4961
▁दिवाली	-10.4962
▁प्रांत	-10.4962
▁पारंपरिक	-10.4962
▁गुहार	-10.4962
▁ट्रायल	-10.4963
▁अश्लील	-10.4963
▁पाएंगे	-10.4963
▁अनुसूचित	-10.4963
▁महंगाई	-10.4966
▁झांसा	-10.4967
▁प्रदर्शनी	-10.497
▁X	-10.4975
n	-10.4976
E	-10.4979
▁इं	-10.498
▁मिस	-10.4983
▁सीन	-10.5
W	-10.5011
▁आबकारी	-10.5011
▁पीढ़ी	-10.5012
▁आजमगढ़	-10.5012
▁प्राप्ति	-10.5012
▁हत्याकांड	-10.5012
▁घटनाक्रम	-10.5013
▁रतलाम	-10.5013
▁जैसलमेर	-10.5013
▁एससी	-10.5014
▁सेकंड	-10.5014
▁सवाई	-10.5015
▁दिलाई	-10.5016
▁सिरसा	-10.5016
▁सबक	-10.5024
▁डूबने	-10.5028
▁खंड	-10.5049
▁सिंगल	-10.505
▁घेर	-10.5053
▁2000	-10.5055
▁अभय	-10.5061
▁दबिश	-10.5062
▁चंद्रशेखर	-10.5062
▁चीजें	-10.5063
m	-10.5066
▁पहुंचेगी	-10.5075
▁तृतीय	-10.5096
p	-10.5102
▁गा	-10.5103
▁सम	-10.5105
्होंने	-10.5106
▁तैयारियों	-10.5111
▁ओलंपिक	-10.5111
▁शिवम	-10.5113
▁केशव	-10.5118
▁लिखकर	-10.5119
वाली	-10.5124
यां	-10.5134
▁अंतर्	-10.5138
▁स्कूली	-10.5145
िए	-10.515
घाट	-10.5153
▁इस्लाम	-10.5155
▁पूनम	-10.5161
▁कांस्टेबल	-10.5161
▁समझौते	-10.5161
▁उपायुक्त	-10.5162
▁निश्चित	-10.5162
▁ईयर	-10.5162
▁दरभंगा	-10.5165
▁घूमने	-10.518
▁नो	-10.5201
▁दहशत	-10.5212
▁तोड़फोड़	-10.5212
▁जलस्तर	-10.5212
▁बाधित	-10.5214
▁IPL	-10.5215
▁स्पीड	-10.5216
ति	-10.5216
मु	-10.5219
मैन	-10.5221
▁अतुल	-10.5222
▁गुस्सा	-10.523
000	-10.5233
▁लगती	-10.5235
▁थीम	-10.5259
▁49	-10.5261
▁न्यूजीलैंड	-10.5264
▁आयुष	-10.5265
▁निभाई	-10.5268
▁तोमर	-10.528
▁एड	-10.5289
▁खेलते	-10.5289
▁आंकड़ा	-10.529
▁बोलने	-10.5291
▁रुप	-10.5292
▁रेस	-10.5296
▁खोज	-10.5307
▁रिहा	-10.531
▁हड़कंप	-10.5314
▁साक्ष्य	-10.5314
▁गैंगस्टर	-10.5314
-10	-10.5314
▁स्थायी	-10.5315
▁आईपीएल	-10.5315
▁अहमदाबाद	-10.5316
▁मोहित	-10.5319
▁बिग	-10.5322
▁देखे	-10.5322
▁अल्पसंख्यक	-10.5326
▁चांद	-10.5336
▁गार्डन	-10.5338
उ	-10.534
दर	-10.5348
▁चावल	-10.5351
▁चिकित्सकों	-10.5354
▁शशि	-10.5365
▁चोपड़ा	-10.5365
▁छिंदवाड़ा	-10.5366
▁ऐश्वर्या	-10.5367
काल	-10.5371
▁हमास	-10.5372
▁चिकित्सक	-10.5375
▁इंसान	-10.5376
▁मामा	-10.538
▁हवाला	-10.5384
▁बंधक	-10.5385
▁काटकर	-10.5385
▁नकदी	-10.5388
▁जानकार	-10.539
▁शेर	-10.5397
▁पहुंचते	-10.5404
▁कलर	-10.5405
पूर्व	-10.5406
▁गौर	-10.541
▁सांसदों	-10.541
▁डॉक्टर्स	-10.5411
▁यूजर	-10.5416
▁सिलसिला	-10.5417
▁नामजद	-10.5417
▁शोभायात्रा	-10.5417
▁बेंच	-10.5417
▁दरवाजे	-10.5419
▁112	-10.5421
‍	-10.5422
▁भागवत	-10.5422
▁पं	-10.5431
▁टैंकर	-10.5434
▁उड़	-10.5436
▁घी	-10.5445
▁नाव	-10.5448
▁108	-10.5458
▁बस्तर	-10.5468
▁हॉस्टल	-10.5468
▁मुखबिर	-10.5468
▁मालूम	-10.5468
▁आरक्षक	-10.547
▁कैच	-10.5476
▁उमेश	-10.5491
लो	-10.5502
▁120	-10.5504
▁बनना	-10.5512
▁मैन	-10.5512
▁सिम	-10.5512
▁करो	-10.5514
T	-10.5515
▁जन्मदिन	-10.5521
▁कश्यप	-10.5521
▁मनमोहन	-10.5521
▁आयुष्म	-10.5522
▁इकट्ठा	-10.5523
▁लोहे	-10.5523
▁दुकानदारों	-10.5533
▁बेड	-10.5535
▁जुटे	-10.5552
▁एआई	-10.5563
िट	-10.5563
▁गेम	-10.5568
▁आत्म	-10.5569
▁सिद्धार्थ	-10.5572
▁मुकदमे	-10.5572
▁फरीदाबाद	-10.5573
▁बेगूसराय	-10.5573
▁फ्रंट	-10.5573
▁दौसा	-10.5574
▁प्राचीन	-10.5575
▁जवाहर	-10.5577
चा	-10.5578
ोर	-10.5581
जन	-10.5589
▁लाए	-10.5592
▁गवाह	-10.5596
▁बीत	-10.5605
▁लॉ	-10.561
▁विज	-10.5613
▁पंजाबी	-10.5617
फ़	-10.5622
▁ब्रांड	-10.5623
▁स्क्रीन	-10.5624
▁निष्पक्ष	-10.5625
▁सभागार	-10.5626
▁रेस्टोरेंट	-10.5626
▁निधि	-10.5629
▁दुल्हन	-10.5631
▁लोगो	-10.5633
▁अंबाला	-10.5637
▁वायु	-10.5641
30	-10.5673
▁लेपर्ड	-10.5678
▁ब्रिटेन	-10.5678
▁शाहरुख	-10.5678
▁विसर्जन	-10.5679
▁बेटियों	-10.5681
▁संस्थाओं	-10.5695
▁ट्रेड	-10.5697
▁लि	-10.5699
▁सड़कें	-10.5703
▁कपल	-10.5704
▁भंडार	-10.572
▁शिकायतों	-10.5727
▁बेल	-10.5728
▁छानबीन	-10.5732
▁जर्जर	-10.5732
▁उत्पीड़न	-10.5732
▁प्रतिनिधित्व	-10.5732
r	-10.5732
▁दहन	-10.5732
▁भ्रमण	-10.5733
▁ब्लैक	-10.5734
▁ED	-10.5739
▁साधा	-10.5742
▁मिलना	-10.5754
▁मित्र	-10.5757
▁बोतल	-10.5783
▁सबको	-10.5784
▁मामूली	-10.5785
▁कंपनियां	-10.5785
▁Lok	-10.5785
▁अफगानिस्तान	-10.5786
▁लैब	-10.5788
▁हरी	-10.579
L	-10.5805
▁विषयों	-10.5816
ियो	-10.582
▁हां	-10.5821
▁03	-10.5823
▁UP	-10.5824
▁गहन	-10.5824
▁पुलिया	-10.5825
वाड़ा	-10.5826
▁राह	-10.5836
▁बृज	-10.5838
प्रारंभिक	-10.5839
▁एजुकेशन	-10.5839
▁एजेंसियों	-10.5839
▁नतीजे	-10.5839
▁वातावरण	-10.5839
▁गिनती	-10.5839
▁कैसा	-10.5839
▁मालदीव	-10.584
▁लाई	-10.584
▁ऊंचाई	-10.584
▁देखिए	-10.5842
▁बैच	-10.5845
▁पत्रकारों	-10.5848
▁रजिस्ट्री	-10.5849
▁दुकानें	-10.5852
फा	-10.5854
्म	-10.586
▁नवरात्रि	-10.5874
▁हरीश	-10.588
▁छवि	-10.5883
तीन	-10.5884
.50	-10.5887
▁शौचालय	-10.5893
▁संरक्षक	-10.5893
▁इंटरनेट	-10.5893
▁ईवीएम	-10.5893
▁आधुनिक	-10.5893
▁एएसपी	-10.5893
▁अब्दुल	-10.5893
▁हस्ताक्षर	-10.5893
▁हिन्दू	-10.5894
▁गर्व	-10.5895
▁अतिथियों	-10.5895
▁विश्वनाथ	-10.5896
▁योगेश	-10.5896
▁उपभोक्ताओं	-10.5897
▁टीआई	-10.5898
▁नष्ट	-10.5916
g	-10.5916
25	-10.5918
▁ईरानी	-10.592
▁मेल	-10.5926
▁अंग	-10.5929
▁स्थलों	-10.593
▁बचे	-10.594
▁खतरनाक	-10.5948
▁06	-10.5949
▁ईंट	-10.595
y	-10.5953
▁सत	-10.5956
▁किलोग्राम	-10.5956
▁नायक	-10.5959
▁आईटी	-10.597
▁फैला	-10.5971
▁85	-10.5984
▁आर्य	-10.5987
▁पुरी	-10.5989
▁रोशनी	-10.5994
▁स्टोरी	-10.5996
▁पॉइंट	-10.5999
▁बैंड	-10.5999
▁बकाया	-10.6001
▁फैमिली	-10.6002
▁नालंदा	-10.6002
▁अवकाश	-10.6002
▁निर्माता	-10.6002
▁नज़र	-10.6003
▁प्लानिंग	-10.6013
▁बजरंग	-10.6022
▁चुने	-10.6024
▁कहता	-10.6027
▁कामयाब	-10.6028
▁लोड	-10.603
▁लड़क	-10.6034
▁अनुज	-10.6034
धारी	-10.6046
▁उजागर	-10.6057
▁कारतूस	-10.6057
▁लेबनान	-10.6057
▁एसयूवी	-10.6057
▁क्रेडिट	-10.6057
▁लॉरेंस	-10.6057
▁जयशंकर	-10.6057
vs	-10.6058
▁गुरुद्वारा	-10.6061
▁साझेदारी	-10.6062
▁कमेंट	-10.6066
▁विशेषज्ञों	-10.6075
▁मुसलमानों	-10.6084
▁दृष्टि	-10.6085
▁अभि	-10.6089
॥	-10.609
भूत	-10.6102
▁क्रिकेटर	-10.6104
▁सवालों	-10.6111
▁शॉर्ट	-10.6112
▁दृष्टिकोण	-10.6112
▁बंसल	-10.6112
▁इंस्टीट्यूट	-10.6112
▁पॉलिसी	-10.6112
▁खातों	-10.6112
▁वरुण	-10.6113
▁पकड़कर	-10.6116
▁सोनिया	-10.6116
▁असल	-10.6119
▁कैंपस	-10.6121
▁नर	-10.6122
▁लटका	-10.6123
घ	-10.613
▁मरने	-10.6133
िस्ट	-10.6134
▁शिकायतें	-10.6142
गे	-10.6149
▁काउंसिल	-10.6164
▁माफिया	-10.6167
▁बाधा	-10.6167
▁बैठी	-10.6167
▁CCTV	-10.6168
▁विश्वकर्मा	-10.6168
नि	-10.6168
▁सूचित	-10.6168
▁जॉब	-10.6168
▁जगन्नाथ	-10.6168
▁डीजीपी	-10.6169
▁यज्ञ	-10.6169
▁2009	-10.6171
▁एजेंट	-10.6178
▁महान	-10.6189
़ी	-10.6201
-19	-10.6203
▁लगाना	-10.6206
▁करवाए	-10.6211
▁उल्लेखन	-10.6214
िता	-10.622
▁जानलेवा	-10.6223
▁बॉन्ड	-10.6223
▁विधेयक	-10.6223
▁प्लॉट	-10.6223
▁रोडवेज	-10.6225
▁डिवीजन	-10.6225
▁बीमारियों	-10.6232
▁बुझा	-10.6232
▁78	-10.6238
▁चौथी	-10.6242
▁दिमाग	-10.625
▁लाकर	-10.625
▁उतरे	-10.6261
▁एकजुट	-10.6274
▁स्वच्छ	-10.6275
▁परिस्थितियों	-10.628
▁मद्देनजर	-10.628
▁कोषाध्यक्ष	-10.6281
▁कोरोना	-10.6281
▁सोलर	-10.6281
▁निकासी	-10.6282
▁दीपिका	-10.6283
▁कार्यकार	-10.6284
▁यूरोप	-10.6304
अर्चना	-10.6313
ैया	-10.632
हरा	-10.6329
▁उपभोक्ता	-10.6331
19	-10.6335
▁परिचय	-10.6336
▁Sabha	-10.6336
▁सुराग	-10.6336
▁सोलंकी	-10.6336
▁ऑप्शन	-10.6336
▁एसएचओ	-10.6336
▁असिस्टेंट	-10.6337
▁बलरामपुर	-10.6337
▁अंतरि	-10.6339
▁परियोजनाओं	-10.6347
▁कल्पना	-10.6355
▁दिखाकर	-10.6364
▁गेंदबाजी	-10.6374
▁उदय	-10.6374
▁पैमान	-10.6378
▁बोर	-10.6384
▁रिश्ता	-10.6393
▁सर्जन	-10.6393
▁कुर्सी	-10.6393
▁ट्वीट	-10.6394
▁श्रवण	-10.6394
▁दावे	-10.6394
▁शोषण	-10.6394
▁भिवानी	-10.6395
▁निर्देशित	-10.6396
▁कमीशन	-10.6397
▁उल्लेख	-10.6402
▁धरने	-10.6404
▁54	-10.6404
अप	-10.6407
▁स्टे	-10.6417
▁गहरी	-10.6428
क्ष	-10.643
H	-10.6431
▁द्वार	-10.6436
▁कराना	-10.6443
▁कठिन	-10.6449
▁एम्बुलेंस	-10.645
▁सर्किल	-10.645
▁सीमित	-10.645
▁चैंपियनशिप	-10.645
▁बाबूलाल	-10.6451
▁मांझी	-10.6454
▁चोटें	-10.6456
▁रायगढ़	-10.6457
▁अपमान	-10.6461
▁एम्स	-10.6465
▁बढ़ाई	-10.647
▁वेद	-10.6477
शिप	-10.6479
▁पर्यटकों	-10.6483
▁फ़	-10.6488
▁लीड	-10.6488
er	-10.6495
▁58	-10.6496
▁मित्तल	-10.6508
▁सोसाइटी	-10.6508
▁वंचित	-10.6508
▁सुधीर	-10.6508
▁वैष्णव	-10.6508
▁फेज	-10.6509
▁अवस्था	-10.652
▁शाही	-10.6521
.4	-10.6526
▁1000	-10.6526
▁आत्मा	-10.6529
▁अश्विन	-10.6537
▁लेता	-10.6541
40	-10.6543
▁ओपन	-10.6555
▁पीड़ितों	-10.6564
▁धक्का	-10.6565
▁ब्यूरो	-10.6565
▁पारिवारिक	-10.6565
▁फाजिल्का	-10.6565
▁मशक्कत	-10.6565
▁विस्तृत	-10.6565
▁शातिर	-10.6565
▁कैटेगरी	-10.6565
▁बरकरार	-10.6565
▁स्पॉट	-10.6565
▁ठोस	-10.6565
▁जदयू	-10.6565
▁ओमप्रकाश	-10.6566
▁आवंटित	-10.6566
▁सीधी	-10.6566
▁भीलवाड़ा	-10.6566
▁रक्तदान	-10.6566
▁CBI	-10.6567
▁विज्ञापन	-10.6567
▁2013	-10.6568
▁डॉग	-10.6568
▁समस्याएं	-10.6572
ात्मक	-10.6578
▁निर्मला	-10.6579
▁खेड़ा	-10.6593
खेड़ा	-10.662
▁जंक्शन	-10.6623
10	-10.6624
▁किशनगंज	-10.6625
▁शीघ्र	-10.6626
▁शिवपुरी	-10.6627
SO	-10.6628
▁अनूप	-10.6633
▁अकाली	-10.6639
al	-10.6654
▁04	-10.6655
▁बिक	-10.6656
टे	-10.6658
▁शिकायतकर्ता	-10.6658
▁डाली	-10.6658
▁चित्र	-10.666
▁खेलों	-10.6666
▁तोड़ा	-10.6669
▁जीव	-10.6676
▁विवि	-10.668
▁पृथ्वी	-10.6682
▁अमेठी	-10.6682
▁रणबीर	-10.6682
▁दुबई	-10.6683
▁पौ	-10.6683
ीकरण	-10.6684
▁पार्वती	-10.6685
▁शोरूम	-10.6687
▁एलान	-10.6688
▁सुनी	-10.6688
िर	-10.6694
▁खरीदारी	-10.6695
▁वाद	-10.673
वान	-10.6731
▁09	-10.6735
▁कागज	-10.6736
▁साह	-10.6739
▁गहरे	-10.6741
▁वितरित	-10.6741
▁आंधी	-10.6741
▁गर्भवती	-10.6741
▁अंचल	-10.6741
..	-10.6742
▁प्रिंस	-10.6742
▁रणवीर	-10.6742
▁बक्सर	-10.6742
▁सर्किट	-10.6743
▁दिलाया	-10.6743
▁आधी	-10.6745
▁खबरें	-10.6751
▁रूपए	-10.676
▁आरा	-10.677
▁थ	-10.6772
भाषा	-10.678
▁कोरिया	-10.6781
▁विद्यालयों	-10.6783
धार	-10.6785
ुद्दीन	-10.6794
▁आवागमन	-10.68
▁कैप्टन	-10.68
▁सस्पेंड	-10.68
▁प्रतिभागियों	-10.6801
▁संस्थापक	-10.6802
▁2012	-10.6803
▁प्लेट	-10.6804
▁बगल	-10.6815
▁पारित	-10.6825
▁टैंक	-10.684
▁मुनि	-10.6847
सन	-10.6848
▁आईआईटी	-10.6854
▁पेमेंट	-10.6855
....	-10.6855
ra	-10.6856
▁चुनौतिय	-10.6859
▁चैंपियन	-10.6859
▁डिपार्टमेंट	-10.6859
▁बुनियाद	-10.6859
▁दीक्षित	-10.6859
▁परफॉर्मेंस	-10.686
▁तर्क	-10.686
▁आवंटन	-10.686
▁जेवर	-10.6861
▁कॉपी	-10.6863
▁ट्रेंड	-10.6863
▁लेट	-10.6865
▁चढ़ा	-10.6877
▁आंख	-10.6878
ियर	-10.6878
▁एमडी	-10.6882
▁ट्रांसपोर्ट	-10.6887
▁छिपा	-10.6889
▁छ	-10.6891
-4	-10.6901
▁औ	-10.6908
▁बढ़ाकर	-10.6911
▁निर्भर	-10.6914
▁रैंक	-10.6915
▁सेकेंड	-10.6918
▁ससुर	-10.6918
▁काउंसलिंग	-10.6919
▁अपलोड	-10.6919
▁मिठाई	-10.692
▁स्ट्रीट	-10.692
▁रेवाड़ी	-10.6922
▁2008	-10.6923
▁स्टॉक	-10.6923
an	-10.6925
▁पाकर	-10.6925
▁फील्ड	-10.6925
▁शोक	-10.6941
▁रखता	-10.6942
▁सन	-10.6945
रिक्शा	-10.6954
▁बालू	-10.6957
▁दु	-10.6962
हट	-10.6967
एक्स	-10.6972
▁थम	-10.6973
-8	-10.6976
▁अफवाह	-10.698
▁अभ्यास	-10.698
▁सऊदी	-10.6981
ौर	-10.6982
▁बालाजी	-10.6982
▁दोषियों	-10.6982
▁अंतरिक्ष	-10.6983
▁जीएसटी	-10.6984
▁नागर	-10.699
▁आवासीय	-10.6993
▁अर्थ	-10.6998
▁गुल	-10.7
▁लौटे	-10.7007
▁हे	-10.7012
ण्ड	-10.7033
प्रीत	-10.7036
▁संस्कृत	-10.7039
▁आरजेडी	-10.704
▁जूझ	-10.704
▁गृहमंत्री	-10.7041
▁लड्डू	-10.7041
▁प्राकृतिक	-10.7042
▁प्रतिबंधित	-10.7046
▁AAP	-10.7048
▁बोलते	-10.7049
▁दर्जा	-10.7051
ed	-10.7052
▁जनजाति	-10.7064
▁बेस	-10.7068
▁हिट	-10.7071
नियंत्रित	-10.7076
जाने	-10.7087
▁नेहा	-10.7097
वाई	-10.7099
▁उपमुख्यमंत्री	-10.7101
▁निर्मित	-10.7104
▁दबंग	-10.7104
कि	-10.7108
▁बोलीं	-10.7109
▁चतुर्थी	-10.7111
चर	-10.7112
▁कामना	-10.7113
गर	-10.7113
क्या	-10.7114
▁आमने	-10.7115
▁जहाज	-10.7122
▁घ	-10.7131
▁पार्षदों	-10.7135
▁पुरुषों	-10.7139
▁लिख	-10.7146
डीह	-10.7151
▁मोह	-10.7154
▁आकर्षक	-10.7163
▁सत्यापन	-10.7163
▁भिलाई	-10.7163
▁रंजीत	-10.7163
▁रंजिश	-10.7163
▁दमकल	-10.7163
▁सवारी	-10.7163
▁हल्के	-10.7164
▁छाया	-10.7164
▁निपटने	-10.7165
▁सोम	-10.7165
▁सजाया	-10.7171
▁V	-10.7172
▁चयनित	-10.7178
▁ट्रेनें	-10.7181
▁खंडवा	-10.7189
▁बलों	-10.7194
▁बराबर	-10.7195
▁झ	-10.7197
पत्नी	-10.7197
▁बहाल	-10.7198
▁मि	-10.7202
▁उन्ही	-10.7211
ास	-10.7211
▁छू	-10.7217
▁07	-10.7218
▁Election	-10.7223
▁योग्य	-10.7223
▁कंप्यूटर	-10.7224
▁सक्सेना	-10.7224
▁माधोपुर	-10.7225
▁नाइट	-10.7232
▁भतीजे	-10.7233
▁स्वीकृत	-10.7237
िक्स	-10.7238
▁कोड	-10.7248
ॉन	-10.7249
12	-10.7258
टू	-10.7259
आउट	-10.726
हार	-10.726
▁साव	-10.7262
▁चर्च	-10.7266
▁मौर्य	-10.727
▁लेती	-10.7275
▁साइन	-10.7281
▁सेवन	-10.7284
▁आराम	-10.7285
▁ऋषभ	-10.7286
▁हुड्	-10.7286
▁2024-25	-10.7287
▁देहात	-10.7287
▁एडिशनल	-10.7288
▁छात्रावास	-10.7289
▁दक्षिणी	-10.7289
▁दशहरा	-10.7291
▁ज्योतिष	-10.7291
ल्लू	-10.7291
▁टंकी	-10.7292
▁H	-10.7297
▁MP	-10.7297
पुरी	-10.7299
▁ढेर	-10.7301
▁गाना	-10.7305
▁साइट	-10.7308
▁गेस्ट	-10.7315
ेंस	-10.7316
▁पदस्थ	-10.7316
▁गोवा	-10.732
▁फूलों	-10.732
पढ़ें	-10.7324
▁साधन	-10.7324
ेर	-10.7324
▁निर्यात	-10.7329
ाया	-10.734
▁स्टेशनों	-10.7341
▁थप्पड़	-10.7349
▁हिम्मत	-10.7349
▁मालवीय	-10.7349
▁कठोर	-10.7349
▁रिंकू	-10.7349
▁अनुरूप	-10.7349
▁कारावास	-10.735
▁स्नातक	-10.735
▁पानीपत	-10.7352
ध्य	-10.7357
सु	-10.7359
र्ड	-10.7359
▁बैनर	-10.7374
▁उपकरण	-10.7374
कुल	-10.7407
▁आरोपित	-10.741
▁सेंसेक्स	-10.7412
▁श्रम	-10.7412
▁टोंक	-10.7412
▁शेखावत	-10.7412
▁चित्तौड़गढ़	-10.7412
▁कवर	-10.7414
▁आभूषण	-10.7415
ing	-10.7425
th	-10.7425
▁फाइनेंस	-10.7426
पत्र	-10.7446
▁समर	-10.7449
▁पुत्री	-10.7451
▁रनों	-10.7466
रीबन	-10.7469
▁दत्त	-10.7474
▁अमावस्या	-10.7475
▁नोडल	-10.7475
▁मुरैना	-10.7476
▁ओपीडी	-10.7476
▁सच्चाई	-10.7476
▁प्रतिनिधियों	-10.7476
▁मिलियन	-10.7478
▁आर्यन	-10.748
▁जाल	-10.7481
कारी	-10.7482
▁आलिया	-10.7483
▁नक्सली	-10.7491
▁अधिकारों	-10.7493
▁दिला	-10.7494
▁बैठने	-10.7495
sh	-10.7495
▁निकाय	-10.7499
▁प्रीति	-10.7502
▁लिखे	-10.7503
▁मुफ्त	-10.751
्ट	-10.7511
▁फ्लोर	-10.7513
▁सोचा	-10.7515
O	-10.7538
▁निरंतर	-10.7539
▁परमाणु	-10.7539
▁प्लेटफार्म	-10.7539
▁वेरिएंट	-10.7539
फ़ी	-10.7539
▁अनुमंडल	-10.7539
▁सम्राट	-10.7539
▁आनन	-10.754
▁हाथरस	-10.754
▁आर्ट	-10.754
▁गरबा	-10.7542
▁हंस	-10.7542
शी	-10.7544
▁आपदा	-10.7544
▁अदा	-10.7545
▁सेवक	-10.7545
▁भूषण	-10.7549
ांक	-10.755
▁झलक	-10.7579
मात्र	-10.7583
▁संवेदनशील	-10.7599
बाग	-10.7602
▁क्‍या	-10.7603
फानन	-10.7603
▁जमुई	-10.7604
ुरी	-10.7606
▁मासिक	-10.7608
▁हायर	-10.7608
▁उपलब्धि	-10.7611
▁रहमान	-10.7614
▁पड़ती	-10.7615
▁जेब	-10.7618
▁मेंबर	-10.7622
▁गहने	-10.7625
्न	-10.7634
▁महल	-10.764
क्स	-10.7655
▁चलाते	-10.7656
▁लोकल	-10.7656
.1	-10.7664
▁सतना	-10.7666
▁गतिविधि	-10.7667
▁गंदगी	-10.7667
▁लकड़ी	-10.7668
▁महासभा	-10.7668
▁रणजीत	-10.7668
▁निंदा	-10.7671
▁बचाया	-10.7672
▁हॉकी	-10.7672
ष	-10.7679
▁हद	-10.768
▁दीं	-10.7685
निया	-10.7693
▁बर्बाद	-10.7703
75	-10.7714
60	-10.7716
टर	-10.7719
समय	-10.7722
जो	-10.7725
▁उत्पन्न	-10.7732
▁समाजसेवी	-10.7732
▁हेक्टेयर	-10.7732
▁हज़ार	-10.7732
▁सर्वेक्षण	-10.7732
▁प्रकृति	-10.7732
▁वक्फ	-10.7732
▁न्यायमूर्ति	-10.7733
▁गणपति	-10.7733
▁बिंदु	-10.7733
▁विदाई	-10.7733
▁L	-10.7738
डिया	-10.7741
▁दिखाते	-10.7743
▁महीना	-10.7744
▁जातक	-10.7744
-2024	-10.7756
▁सिंगर	-10.7768
▁वैन	-10.7774
▁पै	-10.7776
▁समझने	-10.778
▁वसूल	-10.7782
▁कुचल	-10.7783
▁लीला	-10.7791
▁समन्वय	-10.7792
▁कैंट	-10.7793
▁बुलडोजर	-10.7798
▁विजयवर्गीय	-10.7798
▁रिकार्ड	-10.7798
▁जेसीबी	-10.7798
▁आवाजाही	-10.7798
▁पथराव	-10.7798
▁डोनाल्ड	-10.7798
▁पासपोर्ट	-10.78
▁पिछड़ा	-10.7803
▁दाल	-10.7804
▁लालच	-10.7808
▁600	-10.7809
▁ताजा	-10.7811
धिक	-10.7818
▁मेगा	-10.7819
▁शर्त	-10.7823
▁सालाना	-10.7825
▁कालेज	-10.7827
▁नकद	-10.7834
▁गुलाब	-10.7835
▁चमक	-10.7837
▁शूट	-10.7838
▁जापान	-10.784
▁57	-10.7843
▁धर	-10.7862
▁अगुवाई	-10.7863
▁जोखिम	-10.7863
▁निषाद	-10.7863
▁डिफेंस	-10.7863
▁मयंक	-10.7863
▁दरोगा	-10.7864
▁जीआरपी	-10.7864
▁पर्सनल	-10.7865
▁डिवाइस	-10.7866
▁बनेंगे	-10.7869
बाल	-10.7873
▁पश्चात	-10.7873
▁गु	-10.7876
:00	-10.7877
▁फैलाने	-10.7879
▁बि	-10.7881
▁दंड	-10.7882
▁मुताबिक़	-10.7884
▁SP	-10.7891
▁आईजी	-10.7898
▁67	-10.7903
▁इनाम	-10.7903
▁सहकार	-10.7922
24	-10.7926
k	-10.7926
▁रॉय	-10.7929
▁सिद्दीकी	-10.793
▁सर्वाधिक	-10.793
▁सैलरी	-10.793
▁रोष	-10.793
▁प्राइम	-10.793
▁अग्निवीर	-10.793
▁सलाहकार	-10.7931
▁शेड्यूल	-10.7931
▁राजेन्द्र	-10.7934
मार	-10.7936
▁पहलवान	-10.7939
▁औरंगाबाद	-10.7941
▁62	-10.7943
▁कमाल	-10.795
▁नवरात्र	-10.7953
▁शवों	-10.7954
▁बहु	-10.7969
सफाई	-10.7973
ar	-10.7979
स्	-10.7981
▁गौरी	-10.7981
▁उत्कृष्ट	-10.7991
▁टूटा	-10.7993
▁रिटायर	-10.7995
▁नतीजों	-10.7996
▁धोखा	-10.7996
▁इलाका	-10.7996
▁अविनाश	-10.7997
▁अवतार	-10.7997
▁प्रजापति	-10.7997
▁क्लिक	-10.7997
▁कुएं	-10.7998
▁एसीबी	-10.7998
▁स्टेज	-10.7999
▁भिंड	-10.8
▁संतुलन	-10.8
▁?	-10.8
▁डायल	-10.8
▁अलीगढ़	-10.8
▁बंधन	-10.8
▁जींद	-10.8001
▁आक्रोशित	-10.8004
▁मल्टी	-10.8007
▁गड्ढे	-10.8007
▁मल	-10.8018
▁पिच	-10.8018
▁जुड़	-10.8026
लेखक	-10.8038
मो	-10.8046
▁स्वतंत्र	-10.8062
▁भार्गव	-10.8063
▁सरगुजा	-10.8063
▁लंदन	-10.8063
▁मंत्रिमंडल	-10.8063
▁थर्ड	-10.8064
▁रायबरेली	-10.8065
▁रामायण	-10.8068
▁झांकी	-10.807
▁मिलन	-10.8089
U	-10.8092
▁66	-10.8093
▁जियो	-10.8095
▁लॉक	-10.8116
▁रोड़	-10.8122
▁दब	-10.813
▁गंवा	-10.813
▁मजबूती	-10.813
▁अभिनेत्री	-10.8131
▁खिताब	-10.8131
▁वायनाड	-10.8131
▁हिमांशु	-10.8131
▁झामुमो	-10.8132
▁कामकाज	-10.8132
▁लिफ्ट	-10.8134
▁वस्त्र	-10.8134
▁गरज	-10.8135
▁सरदार	-10.8136
f	-10.8138
▁पोषण	-10.8139
▁पहने	-10.8145
▁95	-10.8145
▁लैंड	-10.815
▁डोर	-10.815
ंगा	-10.8164
▁वेब	-10.817
दम	-10.8183
▁निर्मल	-10.8183
▁J	-10.8187
बड़े	-10.8187
▁स्टील	-10.8199
▁इकलौत	-10.8199
▁फोगाट	-10.8199
▁बुमराह	-10.8199
▁सेक्रेटरी	-10.8199
▁सेफ्टी	-10.8199
▁नवादा	-10.8199
▁नल	-10.8201
▁सैफ	-10.8202
▁गज	-10.8207
▁सिद्ध	-10.8209
्रा	-10.8209
GB	-10.8221
▁बनती	-10.8223
▁बसें	-10.8226
मान	-10.823
एच	-10.8235
▁जि	-10.8237
▁53	-10.8255
▁पापा	-10.8258
▁प्रसन्न	-10.8268
▁इन्हीं	-10.8268
▁निखिल	-10.8268
▁आकर्षण	-10.8268
▁किराया	-10.8268
▁सिल्वर	-10.8268
▁हैरिस	-10.8268
▁मिलीमीटर	-10.8268
▁भीम	-10.8269
▁मछली	-10.8269
▁NDA	-10.827
▁प्रभात	-10.827
▁तंज	-10.8272
▁वंदना	-10.8275
▁बवाल	-10.8276
▁चलाए	-10.828
▁सुर	-10.8281
▁0	-10.8281
▁उतन	-10.8286
▁रूसी	-10.8304
11	-10.831
कांग्रेस	-10.8311
ावत	-10.8313
▁टोला	-10.8316
▁जला	-10.8318
▁करवाकर	-10.832
▁जिम	-10.832
रात	-10.8326
हत	-10.8332
▁REA	-10.8336
▁प्रैक्टिस	-10.8336
▁थिएटर	-10.8336
▁पलवल	-10.8337
▁ऋण	-10.8338
▁क्वार्टर	-10.8338
▁कर्तव्य	-10.834
▁तंत्र	-10.834
▁शनि	-10.834
▁सुनाया	-10.834
▁डाक	-10.8341
▁पहिया	-10.8343
▁केन्द्रीय	-10.8344
▁शोभा	-10.8344
▁पुष्पा	-10.8344
▁पेज	-10.8345
▁वाल्मीकि	-10.8346
▁धारण	-10.835
▁याचिकाकर्ता	-10.8351
▁Khan	-10.8353
▁बाला	-10.836
▁सेहत	-10.8361
▁पर्यटक	-10.8366
रि	-10.8376
र्	-10.8384
मि	-10.8391
▁99	-10.8391
▁ईस्ट	-10.8398
▁लघु	-10.8406
▁सर्वोच्च	-10.8406
▁अत्याचार	-10.8406
▁एडवांस	-10.8406
▁तलवार	-10.8406
▁राजमार्ग	-10.8406
▁गणना	-10.8407
दान	-10.8408
▁कीर्तन	-10.8409
▁नीतियों	-10.8409
▁2007	-10.8409
▁उद्धव	-10.841
▁डंपर	-10.841
तोड़	-10.8418
▁जोड़कर	-10.8422
▁पट्टी	-10.8422
▁नारा	-10.8427
▁शूटर	-10.8434
▁मस्क	-10.8437
▁टा	-10.844
▁व्यवसाय	-10.844
▁करूंगा	-10.844
▁॥	-10.8442
गलौज	-10.845
कर्मियों	-10.846
▁प्रज्वल	-10.8467
▁प्लेयर	-10.8471
ोत्सव	-10.8472
▁एनकाउंटर	-10.8476
▁अड्डे	-10.8476
▁मूवमेंट	-10.8476
▁गोवंश	-10.8476
▁निशुल्क	-10.8476
▁मेकर्स	-10.8477
प्रदर्शनकारियों	-10.8477
लिया	-10.8481
त्	-10.8483
▁सवा	-10.8492
▁डाले	-10.8495
ेल	-10.8505
सामने	-10.8521
▁मोर	-10.8527
▁कमान	-10.8528
▁59	-10.8546
▁सत्संग	-10.8546
▁सिसोदिया	-10.8546
▁खनिज	-10.8546
▁शरीफ	-10.8546
▁फेसबुक	-10.8546
▁नर्मदापुरम	-10.8546
▁जायेगा	-10.8547
▁बच्चियों	-10.8547
▁डैम	-10.8547
जब	-10.8548
▁शांतिपूर्ण	-10.8548
▁वंदे	-10.8549
▁चा	-10.8554
राव	-10.8557
▁फ्रांस	-10.8558
▁एच	-10.8559
▁जलाने	-10.856
▁उठाते	-10.8561
▁गायक	-10.857
▁खबरों	-10.857
बे	-10.8579
▁64	-10.8615
▁फुट	-10.8617
▁जलभराव	-10.8617
▁पुतिन	-10.8617
▁भारद्वाज	-10.8617
▁सेमीफाइनल	-10.8617
▁नींद	-10.8617
▁जॉइन	-10.8617
▁प्रोडक्शन	-10.8617
▁जन्माष्टमी	-10.8617
▁डिस्प्ले	-10.8618
▁जेवरात	-10.8618
▁लड़कियां	-10.862
▁समझाया	-10.862
▁सीए	-10.8626
मर	-10.8637
▁बलिया	-10.8644
▁गरीबों	-10.8647
▁कर्म	-10.8671
▁सोन	-10.8684
▁साधक	-10.8685
▁निकाले	-10.8688
▁इलाहाबाद	-10.8689
▁त्वरित	-10.8689
▁नायडू	-10.8689
▁वाजपेयी	-10.8689
▁मेंटेनेंस	-10.8689
▁सीएचसी	-10.8689
▁गायत्री	-10.8689
▁जमशेदपुर	-10.8689
▁गोस्वामी	-10.8689
▁क़ानून	-10.8689
▁चूंकि	-10.8689
▁श्रीगंगानगर	-10.869
▁ईद	-10.869
▁डेयरी	-10.8692
▁हैंडल	-10.8692
▁सहारा	-10.8692
▁आदिवासियों	-10.8692
▁लगाएं	-10.8698
▁अजित	-10.8699
▁शाला	-10.8704
▁चिल्ला	-10.8706
▁370	-10.8709
▁फिट	-10.8713
▁छा	-10.8726
F	-10.8731
ऊ	-10.8743
-11	-10.8743
▁वर	-10.8749
x	-10.8753
▁क्वालिटी	-10.8761
▁ट्रांसफार्मर	-10.8761
▁गूंज	-10.8761
▁इशारा	-10.8761
▁पैलेस	-10.8761
▁झंडा	-10.8761
▁अनुदान	-10.8761
▁क्रमांक	-10.8761
▁बंटवारे	-10.8761
▁94	-10.8761
▁रनौत	-10.8762
▁वीजा	-10.8762
▁इसीलिए	-10.8762
▁घेराव	-10.8762
-5	-10.8765
▁हवाएं	-10.8766
▁कुंभ	-10.8768
▁तरीका	-10.8769
▁दादी	-10.8769
▁नॉन	-10.8771
▁विंग	-10.8779
▁रामगढ़	-10.8781
ारा	-10.8783
and	-10.8784
▁जीतू	-10.8787
▁ऑडियो	-10.8788
्व	-10.8803
▁चाह	-10.8808
▁AI	-10.8827
15	-10.8827
▁देवास	-10.8829
▁सिलसिले	-10.8833
▁कुत्ते	-10.8833
▁तत्वावधान	-10.8833
▁अनीता	-10.8833
▁शिशु	-10.8833
▁प्रदर्शित	-10.8833
▁बो	-10.8834
▁आयुर्वेद	-10.8834
▁निदेशालय	-10.8834
▁अभाव	-10.8835
▁घोटाला	-10.8835
▁धरती	-10.8835
▁चिह्नित	-10.8835
▁स्ट्राइक	-10.8836
▁भंग	-10.8843
▁ओपी	-10.8844
▁मधु	-10.8851
ीर	-10.8852
त्रित	-10.8857
▁अग्र	-10.8858
▁मुंडा	-10.8866
▁खोले	-10.8868
वाद	-10.8875
▁उमर	-10.8876
र्न	-10.8884
▁किन	-10.8893
▁E	-10.89
▁यमुना	-10.8905
▁पौधारोपण	-10.8906
▁प्रताड़ित	-10.8906
▁हाइवे	-10.8906
▁निस्तारण	-10.8906
▁सौभाग्य	-10.8907
▁विधिक	-10.8907
▁खाड़ी	-10.8907
▁सूरत	-10.8909
झ	-10.8909
▁रा	-10.8912
▁कोयला	-10.8912
▁किंग	-10.8915
▁ब्रह्म	-10.8919
▁एफ	-10.8929
▁कस	-10.8933
▁शि	-10.8935
▁सहयोगियों	-10.8936
▁ऑफ़	-10.894
▁संभाला	-10.8942
▁नाला	-10.8944
▁आतंकवाद	-10.8946
क्र	-10.8948
▁ध्रुव	-10.8954
v	-10.896
▁उठे	-10.896
धर	-10.8968
▁डील	-10.8973
्यू	-10.8976
▁लेख	-10.8977
▁साहित्य	-10.8978
▁सिफारिश	-10.8978
▁भगवंत	-10.898
▁भेदभाव	-10.898
▁इलेक्शन	-10.898
▁कागजात	-10.898
▁समाचार	-10.898
▁फैशन	-10.898
▁पंचांग	-10.898
▁नर्मदा	-10.898
▁मॉनिटरिंग	-10.898
▁IAS	-10.8981
▁डेवलपमेंट	-10.8982
▁झगड़े	-10.8983
▁जता	-10.8983
▁अपराधों	-10.8985
▁विवाहिता	-10.8986
▁ग्रेड	-10.8986
▁पि	-10.8989
▁महंगा	-10.899
▁राजगढ़	-10.899
▁तत्वों	-10.9005
▁पढ़	-10.9006
▁कप्तानी	-10.9017
▁प्रोसेस	-10.9019
िटी	-10.902
▁क़रीब	-10.9024
+	-10.9028
▁जोड़े	-10.9028
कम	-10.9029
सान	-10.9033
80	-10.9037
ृ	-10.9037
▁रामपुर	-10.9051
▁रील	-10.9053
▁इजाफा	-10.9054
▁बैतूल	-10.9054
▁मादक	-10.9054
▁कैमरों	-10.9054
▁मेहमान	-10.9054
▁समीकरण	-10.9054
▁जनप्रतिनिधियों	-10.9054
▁कटिहार	-10.9055
▁डीजे	-10.9055
▁एसीपी	-10.9055
▁खुली	-10.9056
▁2011	-10.9057
▁आगमन	-10.9062
▁पदार्थों	-10.9062
▁झुलस	-10.9062
धन	-10.9065
▁जावेद	-10.9066
▁परेड	-10.9077
▁टे	-10.9079
▁छिप	-10.9079
▁800	-10.9081
ियन	-10.9085
90	-10.9091
▁वारंट	-10.91
▁700	-10.9109
▁देनी	-10.9112
▁जानता	-10.912
▁आकर्षित	-10.9128
▁आमंत्रित	-10.9128
▁परिचालन	-10.9128
▁महिंद्रा	-10.9128
▁रामलीला	-10.9128
▁गणतंत्र	-10.9128
▁एग्जि	-10.9128
▁सलीम	-10.9128
▁कपड़ों	-10.9129
▁अवधेश	-10.9129
▁प्लाजा	-10.9129
▁बैटिंग	-10.9129
▁शाहिद	-10.913
▁पटरी	-10.913
▁शिक्षिका	-10.9131
▁हृदय	-10.9131
▁यंत्र	-10.9132
▁प्रतापगढ़	-10.9133
बाई	-10.9135
▁चार्जिंग	-10.9135
▁स्त्री	-10.9137
▁पोलिंग	-10.9141
जीवन	-10.9143
▁हेमा	-10.9145
▁खाकर	-10.9155
▁संचालकों	-10.9158
▁झील	-10.9163
▁परेशानियों	-10.9168
था	-10.9175
ाब	-10.9179
▁सतर्क	-10.9198
▁रत्न	-10.9199
▁बर्दाश्	-10.9203
▁विवरण	-10.9203
▁फरियाद	-10.9204
▁फुटबॉल	-10.9204
▁बिट्टू	-10.9204
▁गतिविधियां	-10.9204
▁समृद्धि	-10.9204
▁निर्माणाधीन	-10.9205
▁शिवाजी	-10.9206
▁2005	-10.9209
▁साड़ी	-10.9209
▁अमीर	-10.921
▁रखेंगे	-10.921
▁चचेर	-10.921
▁रुचि	-10.9212
▁जर्मनी	-10.9215
▁दूसर	-10.9215
▁बायो	-10.9217
▁नागपुर	-10.9219
कांत	-10.9221
▁एनएच	-10.9226
▁भय	-10.9227
▁राजन	-10.9237
▁प्रकाशित	-10.9238
▁चक्र	-10.9238
▁गुस्स	-10.9246
▁आर्म	-10.9257
▁चुप	-10.9258
▁सनी	-10.9261
▁मुहै	-10.9262
▁नर्स	-10.9269
िग	-10.927
▁ठिकानों	-10.9279
▁द्विवेदी	-10.9279
▁एसडीपीओ	-10.9279
▁आंगनबाड़ी	-10.9279
▁जेडीयू	-10.9279
▁वर्दी	-10.9279
.15	-10.928
▁माहेश्वरी	-10.928
▁संचार	-10.928
▁प्रदेशाध्यक्ष	-10.9281
▁राज्यमंत्री	-10.9283
भा	-10.929
▁पंचायतों	-10.9295
am	-10.9298
▁76	-10.9303
▁संगीता	-10.9315
▁परिचित	-10.9316
ri	-10.9339
▁बंदूक	-10.934
▁हीरो	-10.9344
▁कोहरा	-10.9345
▁धूल	-10.9349
हन	-10.935
▁इलेक्ट्रॉनिक	-10.9351
▁कन्हैया	-10.9355
वाले	-10.9355
▁सोसायटी	-10.9356
▁पाटीदार	-10.9356
▁ख्याल	-10.9356
▁ऑयल	-10.9356
▁मेघवाल	-10.9356
▁ऑफिशियल	-10.9356
▁साक्षी	-10.9356
▁स्पेस	-10.9356
▁बढ़े	-10.9356
▁विचारधारा	-10.9356
▁आशुतोष	-10.9356
▁बेल्ट	-10.9356
▁Day	-10.9356
▁संपूर्ण	-10.9357
▁बलात्कार	-10.9357
▁रॉयल	-10.9357
▁कड़े	-10.9357
▁इंद्र	-10.9359
▁कपड़ा	-10.936
▁2010	-10.936
▁बढ़ेगी	-10.936
▁राधिका	-10.9361
▁दादरी	-10.9362
▁बुलाई	-10.9362
▁ओला	-10.9363
▁पौधों	-10.9364
▁मै	-10.9367
▁बचत	-10.9369
ोरा	-10.9373
▁अव	-10.9375
▁भरकर	-10.9375
▁ऐ	-10.9377
▁टॉस	-10.9379
▁लाना	-10.9384
▁वार्डों	-10.9404
▁दस्तावेजों	-10.9411
ठा	-10.9411
▁खां	-10.9412
▁मुद्रा	-10.9414
▁रीजन	-10.9429
▁गैंगरेप	-10.9432
▁ध्वस्त	-10.9432
▁ब्रिटिश	-10.9432
▁ब्लास्ट	-10.9432
▁हस्तक्षेप	-10.9432
▁विराजमान	-10.9433
▁नौसेना	-10.9433
▁देखरेख	-10.9433
▁दांव	-10.9433
▁सेवानिवृत्त	-10.9433
▁सीएमएचओ	-10.9433
▁झुंझुनूं	-10.9434
▁वैभव	-10.9434
▁दृश्य	-10.9435
▁पाएगा	-10.9436
▁मीट	-10.9437
▁प्रेमिका	-10.9438
▁पहुंचेंगे	-10.9441
▁बनेगी	-10.9444
18	-10.9444
▁डेरा	-10.9445
16	-10.9446
▁कारों	-10.945
▁शॉट	-10.9456
तू	-10.9457
▁निर्देशक	-10.9462
▁350	-10.9468
▁निकलकर	-10.9484
▁68	-10.9494
▁खर	-10.9494
▁1.5	-10.9499
▁नशील	-10.9499
▁चन्द्र	-10.9508
▁दिग्विजय	-10.951
▁पैसेंजर	-10.951
▁दयाल	-10.951
▁फैन	-10.9511
▁सीताराम	-10.9512
▁नतीजा	-10.9513
▁कट्टा	-10.9513
▁दलाल	-10.9517
▁आलू	-10.9518
्क	-10.9518
▁राजनाथ	-10.9519
▁125	-10.9528
▁उड़ा	-10.953
▁मिड	-10.953
MP	-10.9541
57	-10.9541
▁पाता	-10.9548
▁पो	-10.9552
-12	-10.9568
ेरा	-10.957
ड़े	-10.957
धा	-10.9572
▁कबूल	-10.9573
.40	-10.9574
▁सीपी	-10.9582
▁कॉरिडोर	-10.9588
▁शिनाख्त	-10.9588
▁घनश्याम	-10.9588
▁पंजीयन	-10.9588
▁बुखार	-10.9588
▁सशक्त	-10.9588
▁सोनीपत	-10.9589
▁साहिल	-10.9589
▁कोहरे	-10.9589
▁2023-24	-10.9589
▁बठिंडा	-10.9589
▁हु	-10.9589
▁सचिवालय	-10.9589
▁फेस्टिवल	-10.959
▁पीडब्ल्यूडी	-10.959
▁ठेका	-10.9591
▁वाइस	-10.9591
▁सीरिया	-10.9591
▁आैर	-10.9592
▁नहाने	-10.9592
▁2004	-10.9594
▁रखती	-10.9597
▁हीट	-10.9603
▁कोविड	-10.9609
▁बताती	-10.9616
70	-10.9619
▁सीने	-10.9623
▁जानवरों	-10.9623
▁अश्विनी	-10.9628
▁भटक	-10.9636
▁हिंदुस्तान	-10.9638
▁दुश्मन	-10.9639
मुझे	-10.9644
▁बसंत	-10.9646
▁ताज	-10.965
▁कड़ा	-10.9652
▁म्यूजिक	-10.9655
▁नंद	-10.9658
▁भड़क	-10.9659
▁नमाज	-10.9663
▁बताकर	-10.9666
▁बॉस	-10.9666
▁इरफान	-10.9667
▁द्वीप	-10.9667
▁निचले	-10.9667
▁रिलायंस	-10.9667
▁वॉट्सऐप	-10.9667
▁सितम्बर	-10.9667
▁तख्त	-10.9667
▁भैंस	-10.9667
▁धोनी	-10.9668
▁सिनेमाघर	-10.9668
▁नड्डा	-10.9669
▁काउंटर	-10.9671
▁महानगर	-10.9672
▁वॉक	-10.9672
▁फतेहपुर	-10.9673
▁81	-10.9675
▁रिक्त	-10.9678
▁चौथा	-10.9683
▁योजनाएं	-10.9685
▁गायन	-10.9685
▁मियां	-10.9687
नो	-10.9692
▁सिं	-10.9712
नारायण	-10.9714
▁दावेदार	-10.9718
शाली	-10.972
स्त	-10.9724
▁रमन	-10.9729
▁वास्तविक	-10.9742
21	-10.9745
▁सरोज	-10.9745
▁सार	-10.9745
▁रवींद्र	-10.9745
▁खोजबीन	-10.9746
▁पिस्तौल	-10.9746
▁वेस्टइंडीज	-10.9746
▁हेरोइन	-10.9746
▁पर्ची	-10.9746
▁कालोनी	-10.9747
▁बैन	-10.9747
▁प्रेशर	-10.9748
▁सीमेंट	-10.9749
▁वकीलों	-10.975
▁महेंद्रगढ़	-10.9751
▁आईपीएस	-10.9751
▁घबरा	-10.9752
▁सकेगी	-10.9752
▁मजाक	-10.9762
▁शास्त्र	-10.9763
▁साधना	-10.977
▁बेरोजगारी	-10.977
वल	-10.9783
▁बची	-10.9784
▁बनाता	-10.9784
मे	-10.9785
b	-10.9791
▁बैक	-10.9792
▁त्याग	-10.9799
...'	-10.98
▁बजा	-10.9803
▁प्रतिष्ठित	-10.9826
▁प्रमोशन	-10.9826
▁प्रौद्योगिकी	-10.9826
▁अपार्टमेंट	-10.9826
▁एकेडमी	-10.9826
▁पुरोहित	-10.9826
▁हेल्पलाइन	-10.9826
▁फ्रॉड	-10.9826
▁स्वाति	-10.9826
▁पाटिल	-10.9827
▁मैरिज	-10.9827
▁धीरज	-10.9827
▁नीलम	-10.9827
▁समीर	-10.983
▁जुटा	-10.9831
▁प्रसार	-10.9838
▁फिसल	-10.9841
▁राहगीरों	-10.9843
▁गीतों	-10.9843
ोली	-10.9855
▁आयकर	-10.9858
▁य	-10.9859
▁दीदी	-10.986
▁ति	-10.9869
J	-10.9869
▁सुपरस्टार	-10.9876
▁कोठी	-10.9877
▁दिलचस्प	-10.9878
ाचार्य	-10.9891
▁मिथुन	-10.9907
▁संदर्भ	-10.9907
▁शिक्षण	-10.9907
▁श्रृंगार	-10.9907
▁सोनाक्षी	-10.9907
▁प्रदोष	-10.9907
▁सेगमेंट	-10.9907
▁गजेंद्र	-10.9908
▁पटियाला	-10.9908
▁अधिसूचना	-10.9908
▁69	-10.9908
▁विपिन	-10.9908
▁उपज	-10.9908
▁धौलपुर	-10.9908
▁हवन	-10.9909
▁दिखी	-10.991
▁मॉल	-10.991
▁सिद्धू	-10.9912
▁तर्ज	-10.9913
▁खाई	-10.9916
▁कुशल	-10.9918
▁अंधेर	-10.9921
▁सेन	-10.9932
▁63	-10.9947
पे	-10.9948
▁कचर	-10.995
▁कराते	-10.9953
▁जाटव	-10.996
ानुसार	-10.9963
▁फर	-10.9965
▁भूख	-10.9968
▁फीचर	-10.9983
▁दि	-10.9984
▁जडेजा	-10.9988
▁पीयूष	-10.9988
▁चार्जशीट	-10.9988
▁दायित्व	-10.9988
▁समग्र	-10.9988
▁ओटीटी	-10.9988
▁पैकेट	-10.9988
▁वृंदावन	-10.999
▁तीज	-10.999
▁मूल्यांकन	-10.999
V	-10.9991
▁प्रतिबद्धता	-10.9992
▁वृद्ध	-10.9995
ारी	-11.0012
▁ताल	-11.0012
णा	-11.0014
▁पारस	-11.0029
ूर	-11.0031
▁मुसलमान	-11.0034
▁तूफान	-11.0043
▁मोती	-11.0043
▁जया	-11.0044
▁जॉन	-11.005
्त	-11.0053
गु	-11.0055
▁मीरा	-11.0061
▁₹	-11.0061
▁विस्फोट	-11.0062
सं	-11.0063
▁अख्तर	-11.007
▁उछाल	-11.007
▁जनगणना	-11.007
▁बाइडन	-11.007
▁इलाक़	-11.007
▁इकबाल	-11.007
▁मुरादाबाद	-11.007
▁सरेंडर	-11.007
▁हिस्सेदारी	-11.0071
▁जालोर	-11.0071
▁प्रवर्तन	-11.0071
▁स्थगित	-11.0071
▁तिमाही	-11.0071
▁साप्ताहिक	-11.0071
▁अंबिकापुर	-11.0072
▁प्रशंसा	-11.0072
▁स्टॉल	-11.0072
▁रखवाया	-11.0072
▁किस्मत	-11.0072
▁नानक	-11.0073
▁ड्रग्स	-11.0074
▁काटा	-11.0076
▁नागौर	-11.0078
▁बड़	-11.0083
गन	-11.0084
▁युग	-11.0085
विंदर	-11.0089
▁पहना	-11.009
▁छाप	-11.009
▁नियंत्रित	-11.0104
▁आपातकाल	-11.0109
ंच	-11.0113
c	-11.0118
ईडी	-11.0122
▁श्वेता	-11.0123
▁सद	-11.0129
ैल	-11.0131
नाम	-11.0134
म्प	-11.0134
▁नगरी	-11.0146
▁लोकेश	-11.0147
▁प्रोडक्ट	-11.0148
▁स्थिर	-11.0148
▁व्यस्त	-11.0151
▁एहसास	-11.0153
▁ग़ज़ा	-11.0153
▁स्वयंसेवक	-11.0153
▁नोटिफिकेशन	-11.0153
▁उपलक्ष्य	-11.0153
▁फेडरेशन	-11.0153
▁वैध	-11.0153
▁चिकित्सालय	-11.0153
▁ठहराया	-11.0154
▁शिवलिंग	-11.0154
▁सुचार	-11.0155
▁प्रधानाचार्य	-11.0155
▁छापा	-11.0156
▁दानापुर	-11.0157
▁पहनकर	-11.0161
▁भाटी	-11.0161
▁सुनते	-11.0162
▁सेल्फी	-11.0166
▁आरके	-11.0167
▁हाउसिंग	-11.0173
▁खिला	-11.0175
ेबल	-11.0175
▁73	-11.0175
ंगी	-11.0179
▁मनु	-11.0184
▁ढूंढ	-11.0192
▁इमारत	-11.0194
27	-11.02
▁सेक्शन	-11.0202
▁सौर	-11.0208
▁डिपो	-11.0209
श्रेष्ठ	-11.0211
▁पट	-11.0216
▁इनसे	-11.0223
▁उत्पादों	-11.0223
▁पान	-11.0229
▁तल	-11.0235
▁इसराइली	-11.0235
▁बुलेट	-11.0236
▁पहलुओं	-11.0236
▁अधिग्रहण	-11.0236
▁प्रकट	-11.0236
▁सीवरेज	-11.0236
▁एडीएम	-11.0237
▁गोलीबारी	-11.0237
▁आराधना	-11.0238
▁शेट्टी	-11.0238
▁उद्योगपति	-11.0239
▁डोडा	-11.0239
▁साधु	-11.0239
▁61	-11.0239
▁धीमी	-11.0241
▁फास्ट	-11.0241
▁स्मारक	-11.0246
▁कांवड़	-11.0247
▁टायर	-11.0248
▁साधारण	-11.0249
▁सीज	-11.0253
िय	-11.0271
▁बेचा	-11.0272
▁कवि	-11.0275
▁एकत्र	-11.0275
▁लिहाज	-11.0293
▁शारदा	-11.0307
▁माधव	-11.031
▁सीख	-11.031
▁83	-11.0315
▁ऑपरेटर	-11.0317
▁दिव्या	-11.0317
टेक	-11.032
▁चतुर्वेदी	-11.032
▁परामर्श	-11.032
▁मवेशी	-11.032
▁संजू	-11.032
▁अधीन	-11.0321
▁अरुणाचल	-11.0321
▁बांसवाड़ा	-11.0321
▁सेंट	-11.0322
▁खदान	-11.0322
आप	-11.0324
कला	-11.0328
01	-11.0331
▁बजरी	-11.0332
▁दवाओं	-11.0334
ाँ	-11.0334
▁सीएमओ	-11.0336
▁92	-11.0339
▁रच	-11.034
▁अभिभावकों	-11.035
37	-11.0351
त्व	-11.0355
गण	-11.0356
तन	-11.0368
▁नेट	-11.0374
▁परमार	-11.0384
चांदी	-11.0385
▁राख	-11.0386
▁घुसे	-11.0388
वायु	-11.0389
▁नाना	-11.039
▁ब्लू	-11.0398
्‍य	-11.04
▁रचना	-11.0404
▁दंपती	-11.0405
▁मुख्तार	-11.0405
▁डाउनलोड	-11.0405
▁फाटक	-11.0405
▁परंतु	-11.0405
▁ब्लैकमेल	-11.0405
▁गाजीपुर	-11.0405
▁तेंदुए	-11.0405
▁कोरबा	-11.0405
▁फटकार	-11.0406
▁डूंगरपुर	-11.0406
▁सीतामढ़ी	-11.0406
▁आखिरकार	-11.0406
▁मच्छर	-11.0407
▁हांसी	-11.0408
▁ज़रूरत	-11.0409
▁ग्रह	-11.0409
▁पुनर्	-11.0411
▁समन्वयक	-11.0412
शांत	-11.0417
पू	-11.0417
50	-11.0421
▁पांचवें	-11.0425
लित	-11.0429
वत	-11.0437
▁उतरी	-11.044
▁हट	-11.0443
▁मुख	-11.0448
▁लता	-11.0455
09	-11.0462
▁08	-11.0463
माल	-11.0465
▁कमरा	-11.0468
टो	-11.0472
▁1500	-11.0476
▁लोकप्रिय	-11.0485
▁मनीषा	-11.0486
48	-11.0487
शिरोमणि	-11.049
▁अकादमी	-11.049
▁एनर्जी	-11.049
▁निफ्टी	-11.049
▁विपरीत	-11.049
▁सीतारमण	-11.049
जर	-11.049
▁राघव	-11.049
▁वैशाली	-11.049
▁बेनीवाल	-11.0491
▁नवजात	-11.0491
▁गोवर्धन	-11.0491
▁राजसमंद	-11.0491
▁अथवा	-11.0491
▁ग्रंथ	-11.0492
▁भोज	-11.0492
▁दीपेंद्र	-11.0493
▁धमाके	-11.0494
कोट	-11.0494
▁बोलेरो	-11.0494
▁नीलामी	-11.0495
▁सभापति	-11.0495
▁सेठ	-11.0496
▁बनता	-11.0501
▁लैस	-11.0503
▁जेट	-11.0505
जसप्रीत	-11.0507
▁बीएसएफ	-11.0509
▁आकार	-11.0517
▁इनकम	-11.0524
33	-11.0541
▁संविदा	-11.0543
▁गन	-11.0544
14	-11.0547
▁नमी	-11.0548
▁मंजूर	-11.0555
▁घाटी	-11.0563
▁हितों	-11.0565
यल	-11.0567
,500	-11.0573
▁रजिस्टर	-11.0576
▁जनप्रतिनिधि	-11.0576
▁कैंसिल	-11.0577
▁हेलमेट	-11.0577
▁मायावती	-11.0577
▁दर्दनाक	-11.0577
▁ओझा	-11.0577
▁वैज्ञानिकों	-11.0577
शंकर	-11.0579
▁आतिशी	-11.0579
▁भैया	-11.0582
▁तुर्की	-11.0584
▁प्लस	-11.0584
▁भावनाओं	-11.0589
▁पहुंचीं	-11.0592
▁चढ़कर	-11.0604
सो	-11.0611
ियत	-11.0613
▁केयर	-11.062
▁तथ्य	-11.0623
वादी	-11.0628
▁बुआ	-11.0631
▁मार्गों	-11.0632
िज	-11.0632
▁भोजपुर	-11.0644
▁अनुपम	-11.0648
▁74	-11.0649
▁71	-11.065
▁मंजू	-11.0653
▁मालिकों	-11.0658
▁पार्टनर	-11.0658
▁चिन्ह	-11.0661
▁Weather	-11.0664
▁नूंह	-11.0664
▁पूर्वानुमान	-11.0664
▁मल्लिकार्जुन	-11.0664
▁हिंसक	-11.0664
▁रसोई	-11.0664
▁प्रस्थान	-11.0664
▁वैदिक	-11.0664
▁रजिस्टर्ड	-11.0664
▁उत्तम	-11.0664
▁अफरा	-11.0664
▁राजनांदगांव	-11.0664
▁सब्सिडी	-11.0666
▁पीटीआई	-11.0667
▁वोटरों	-11.0668
▁चिन्हित	-11.0668
▁77	-11.067
▁बजाज	-11.067
कमिंग	-11.0674
▁जीजा	-11.0676
▁मद	-11.0677
▁उन्‍हों	-11.0684
ंतरिक	-11.0686
▁गाइड	-11.0694
▁आतंकवादी	-11.0698
लैंड	-11.0714
लोक	-11.0716
▁निकायों	-11.0719
▁नम	-11.0727
▁खैर	-11.0737
आपत्तिजनक	-11.0739
▁""	-11.0743
▁घंटा	-11.0744
▁बर्तन	-11.0751
▁नाकाबंदी	-11.0751
▁टेस्‍ट	-11.0751
▁इंटेलिजेंस	-11.0751
▁फतेहाबाद	-11.0751
▁मोहाली	-11.0751
▁भूपेश	-11.0751
▁पंजीकरण	-11.0752
▁धीरेंद्र	-11.0752
▁तृणमूल	-11.0752
▁इस्तीफे	-11.0752
▁आंसू	-11.0752
▁निर्वाचित	-11.0754
▁110	-11.0756
▁बीघा	-11.0758
▁टीचर्स	-11.0767
▁उठाना	-11.0775
ाबड़	-11.0776
पश्चिम	-11.0785
▁88	-11.0789
▁चैलेंज	-11.08
▁अपनाने	-11.0801
67	-11.0802
▁रिपोर्टर	-11.0808
▁गुड	-11.0809
▁बनते	-11.0811
▁खूबसूरत	-11.0811
इंडिया	-11.0816
कभी	-11.0817
▁हा	-11.0817
▁जड़	-11.0822
▁तर	-11.0823
ाव	-11.0828
▁बिल्डर	-11.0836
▁भा	-11.0839
▁गडकरी	-11.084
▁हीटवेव	-11.084
▁चुप्पी	-11.084
▁नदियों	-11.084
▁गिफ्ट	-11.084
▁गिरिडीह	-11.084
▁लीजिए	-11.084
▁लोकार्पण	-11.084
▁फंदा	-11.084
▁धर्मशाला	-11.084
▁इंद्रजीत	-11.0841
▁गर्ल्स	-11.0842
▁गणित	-11.0842
▁सेकेंडरी	-11.0843
▁शेखपुरा	-11.0843
▁पराली	-11.0843
▁ओपनिंग	-11.0845
▁घेरा	-11.0846
▁सपने	-11.0853
▁बाप	-11.086
▁त्रि	-11.0861
59	-11.0864
▁समझाने	-11.0866
▁छत्र	-11.0867
▁हटाकर	-11.0869
▁रस	-11.0876
▁ठप	-11.0879
▁स्रोत	-11.0889
▁करीना	-11.0891
or	-11.0894
▁जानवर	-11.0899
रों	-11.0909
▁आयात	-11.0912
▁व्यवस्थाओं	-11.0921
▁प्ले	-11.0922
▁फडणवीस	-11.0929
▁सोयाबीन	-11.0929
▁टर्मिनल	-11.0929
▁जहानाबाद	-11.0929
▁दीजिए	-11.0929
▁भरपूर	-11.0929
▁संबोध	-11.093
▁शैलेंद्र	-11.093
▁जानबूझ	-11.093
▁दूंगा	-11.093
▁फेमस	-11.0931
▁अष्टमी	-11.0931
▁शेड	-11.0935
▁पैन	-11.0937
▁स्वा	-11.0946
▁बुजुर्गों	-11.0949
▁पावन	-11.0955
नू	-11.0956
▁रहेंगी	-11.0958
▁अमल	-11.096
▁Pro	-11.0962
पीट	-11.097
▁इनको	-11.0976
▁मांगें	-11.0979
▁प्रसंग	-11.0981
▁टाल	-11.0983
▁उद्योगों	-11.0986
▁बांट	-11.1002
13	-11.1004
▁पाप	-11.101
▁छोड़ी	-11.1019
▁जिंदल	-11.1019
▁परिक्रमा	-11.1019
▁बहिष्कार	-11.1019
▁भगदड़	-11.1019
▁मुंगेर	-11.1019
▁अंकुश	-11.1019
▁मुन्ना	-11.1019
▁एडमिट	-11.102
▁बर्फबारी	-11.102
▁हज	-11.102
▁पेन	-11.1021
▁जागरण	-11.1021
▁भैरव	-11.1021
▁चालीसा	-11.1022
▁सहरसा	-11.1022
▁अपेक्षा	-11.1022
▁आरएसएस	-11.1023
▁पुतला	-11.1023
▁दमदार	-11.1027
▁गुण	-11.1027
▁ढाका	-11.1029
हे	-11.1038
▁बांस	-11.104
ड़िया	-11.1042
▁नमन	-11.1043
▁यहाँ	-11.1043
▁तरफ़	-11.1049
ti	-11.1053
▁शेखर	-11.1053
▁कलां	-11.1054
▁सीतापुर	-11.1055
▁घाटों	-11.1062
▁प्रिया	-11.1078
▁नाकाम	-11.1086
d	-11.1089
▁कसा	-11.1092
▁बास	-11.1093
-7	-11.11
▁यानि	-11.1105
▁झज्जर	-11.111
▁डायवर्ट	-11.111
▁ढांचे	-11.111
▁फिजिकल	-11.111
▁सावित्री	-11.111
▁स्कॉर्पियो	-11.111
▁मौलाना	-11.111
▁पर्चा	-11.111
▁सशस्त्र	-11.111
▁ब्रज	-11.111
▁सीवान	-11.1112
▁बदनाम	-11.1112
▁आला	-11.1113
▁मुनाफा	-11.1115
▁बढ़ेगा	-11.1116
▁ज्वेलरी	-11.1117
▁गोला	-11.1118
▁लीडर	-11.1121
▁शुरु	-11.1124
▁मणि	-11.1129
▁नाबाद	-11.113
ेक्स	-11.113
▁पर्वत	-11.1131
.25	-11.1134
▁जाओ	-11.1135
▁मकानों	-11.1141
▁कमाने	-11.1146
▁एसटी	-11.1156
बो	-11.1158
▁पाठ्यक्रम	-11.1161
नपुर	-11.1162
45	-11.1165
▁आपसे	-11.1167
▁स्	-11.1174
X	-11.1174
मित्र	-11.1198
▁टंडन	-11.1202
▁रामनिवास	-11.1202
▁शिलान्यास	-11.1202
▁हेलिकॉप्टर	-11.1202
▁हेलीकॉप्टर	-11.1202
▁सहारनपुर	-11.1202
▁कॉलोनियों	-11.1202
▁फ्लाईओवर	-11.1202
▁महाकुंभ	-11.1202
▁निवारण	-11.1202
▁लेटेस्ट	-11.1202
▁अनुकूल	-11.1202
▁समिट	-11.1203
▁व्यावसायिक	-11.1203
▁स्टोरेज	-11.1203
▁दामाद	-11.1203
▁मेवाड़	-11.1204
▁बंगले	-11.1204
▁लेफ्ट	-11.1205
▁छपरा	-11.1207
▁डकैती	-11.121
▁गवर्नर	-11.121
▁जीरो	-11.1211
ीकृत	-11.1213
▁ढोल	-11.1214
▁प्रोत्साहन	-11.1218
▁रुपया	-11.1218
▁पैरा	-11.1222
पार	-11.123
▁निरा	-11.1231
▁96	-11.1232
▁450	-11.1238
▁डीन	-11.124
ुर	-11.1241
▁तिहा	-11.1241
▁पुस्तक	-11.1252
ोल	-11.1253
▁निशाने	-11.1263
एसटी	-11.1264
सिया	-11.1267
▁जंगली	-11.1267
▁प्रभार	-11.1268
.45	-11.1275
▁किस्त	-11.1279
▁छुट्	-11.1282
बंद	-11.1287
▁पैकेज	-11.1291
▁वाणिज्य	-11.1294
▁बेकाबू	-11.1294
▁बेतिया	-11.1294
▁मवेशियों	-11.1294
▁रिश्तों	-11.1294
▁सेरेमनी	-11.1294
▁रू	-11.1294
▁डीआईजी	-11.1294
▁फिटनेस	-11.1295
▁बेरहम	-11.1295
▁अखबार	-11.1295
▁दरगाह	-11.1295
▁बगैर	-11.1295
▁गिरिराज	-11.1295
▁परीक्षार्थी	-11.1295
▁रंगदारी	-11.1295
▁त्रिपुरा	-11.1296
▁कंटेनर	-11.1296
▁कीर्ति	-11.1296
▁डाटा	-11.1296
▁मील	-11.1299
▁फेस	-11.1299
▁कहासुनी	-11.13
▁पड़ेगी	-11.1301
▁बरतने	-11.1302
▁एसके	-11.1302
▁उपेंद्र	-11.1302
▁घरवालों	-11.1303
▁किसने	-11.1306
▁विचारों	-11.1306
▁उठाई	-11.1313
▁टाइम्स	-11.1313
34	-11.132
▁खंगाल	-11.1323
▁चैक	-11.1323
▁श्रमिकों	-11.1328
▁यूट्यूब	-11.1335
▁माली	-11.1337
▁दस्तक	-11.1337
ीआईपी	-11.1352
▁स्पिनर	-11.1358
▁कोल्ड	-11.136
j	-11.1363
▁मेरिट	-11.1363
▁नूर	-11.1367
▁कुशवाह	-11.1372
पारा	-11.1378
▁जोश	-11.1381
▁बिज	-11.1384
▁IND	-11.1387
▁कुत्तों	-11.1388
▁दुरुपयोग	-11.1388
▁पौधरोपण	-11.1388
▁मनुष्य	-11.1388
▁आतिशबाजी	-11.1388
▁दिसम्बर	-11.1388
▁मनोरंजन	-11.1388
▁सॉफ्टवेयर	-11.1388
▁मुर्मू	-11.1388
▁अलमारी	-11.1388
▁लूटपाट	-11.1388
लग्जरी	-11.1388
▁प्राइस	-11.1388
▁बूंदाबांदी	-11.1388
▁गुरप्रीत	-11.1388
▁बलिदान	-11.1389
▁क्षण	-11.1389
▁तुम्हें	-11.1389
▁आरक्षित	-11.1389
▁खुलासे	-11.1389
▁बेन	-11.1391
▁कोहराम	-11.1393
▁बनाएंगे	-11.1394
▁स्थिरता	-11.1394
ल्ट	-11.1395
▁आवारा	-11.1396
▁कै	-11.14
04	-11.1402
▁चौ	-11.1404
ंध	-11.1405
▁सावधानी	-11.1407
र्ट	-11.1408
▁बंगला	-11.1417
▁आएं	-11.1417
बद्ध	-11.1418
▁निशा	-11.1418
▁पन्ना	-11.1421
▁दिव्य	-11.1427
▁रिक्शा	-11.1427
▁91	-11.1432
ंडा	-11.1433
▁प्रिंट	-11.1437
▁उड़ाने	-11.1437
▁सबका	-11.1441
▁84	-11.1448
-6	-11.1452
▁लखन	-11.1454
लू	-11.1454
ात	-11.1455
जय	-11.1455
▁परि	-11.1457
▁बाय	-11.1471
▁सिद्धि	-11.1475
▁कानूनों	-11.1477
▁समूहों	-11.1479
▁हरे	-11.1481
▁दलील	-11.1481
▁iPhone	-11.1482
▁गर्लफ्रेंड	-11.1482
▁बैडमिंटन	-11.1482
▁हिदायत	-11.1482
▁कुश्ती	-11.1482
▁धुआं	-11.1482
▁नॉर्थ	-11.1482
▁जौनपुर	-11.1482
▁रिव्यू	-11.1482
▁समझाइश	-11.1482
▁खड़गे	-11.1482
▁अहिरवार	-11.1482
▁केमिकल	-11.1482
▁प्रातः	-11.1483
▁नवमी	-11.1484
▁सहारे	-11.1485
▁मिर्जापुर	-11.1486
▁निभाया	-11.1486
▁बनाम	-11.1491
▁खुदाई	-11.1493
ढ़	-11.1494
कों	-11.1495
▁बचाई	-11.1495
कर्मी	-11.1499
▁मिनी	-11.1502
▁एसडीओ	-11.1502
▁सहनी	-11.1506
▁मालवा	-11.1514
▁पायल	-11.1515
▁नाली	-11.1517
▁चूक	-11.152
ंक	-11.1527
▁बनाती	-11.1527
▁जम	-11.1528
▁काजल	-11.1532
▁मानस	-11.1541
▁मिलावट	-11.155
सागर	-11.1552
▁चौंका	-11.1552
▁लात	-11.1553
▁भगा	-11.1554
कु	-11.1561
त्र	-11.1565
▁चीख	-11.1568
▁रुके	-11.1573
कू	-11.1576
▁खौफ	-11.1577
▁बहराइच	-11.1577
▁संलिप्त	-11.1577
▁कुरुक्षेत्र	-11.1577
▁कटारिया	-11.1578
▁पुरुषोत्तम	-11.1578
▁आध्यात्मिक	-11.1578
▁जनहित	-11.1578
▁यूथ	-11.1579
▁रजिस्ट्रार	-11.1579
▁जन्मोत्सव	-11.1579
▁महाजन	-11.1579
▁महुआ	-11.158
▁पेंटिंग	-11.1583
▁बैज	-11.1585
▁समितियों	-11.1587
▁मायने	-11.1595
▁लिहाजा	-11.1596
रु	-11.1597
▁भार	-11.16
▁कैप	-11.1604
▁पकड़ी	-11.1611
▁हटाए	-11.1612
िड	-11.1613
िंदर	-11.1621
▁पोस्टिंग	-11.1623
▁वासी	-11.1625
ावर	-11.1627
▁खेर	-11.1634
▁वासियों	-11.1635
▁जहरील	-11.1648
▁अल्पसंख्यकों	-11.1653
▁बनाएं	-11.1655
▁जेई	-11.1656
तः	-11.1664
▁अवसरों	-11.167
▁कच्चे	-11.1674
▁जनसंपर्क	-11.1674
▁त्रिवेदी	-11.1674
▁सीहोर	-11.1674
▁आकलन	-11.1674
▁पंड्या	-11.1674
▁बबलू	-11.1674
▁तड़क	-11.1674
▁प्रेसिडेंट	-11.1674
▁घोष	-11.1674
▁फॉलो	-11.1675
▁बिरला	-11.1675
▁भाटिया	-11.1675
▁लटक	-11.1675
▁NEET	-11.1675
▁ऊंची	-11.1675
▁कबीर	-11.1678
▁कस्बा	-11.1678
23	-11.169
ज्ञान	-11.1691
▁सुलझा	-11.1696
▁छुपा	-11.1697
▁चारा	-11.17
▁चौथ	-11.1705
58	-11.1706
▁ताले	-11.1707
▁कुंड	-11.1711
पु	-11.1717
▁मिलीं	-11.1724
▁प्रिय	-11.1725
▁2024)	-11.1728
▁करवाना	-11.1729
वती	-11.173
▁भजनों	-11.1731
▁भिड़	-11.1731
▁कार्यालयों	-11.1751
▁विश्लेषक	-11.1771
▁गर्दन	-11.1771
▁नींव	-11.1771
▁न्यूयॉर्क	-11.1771
▁अफीम	-11.1771
▁मल्होत्रा	-11.1771
▁गुमशुदगी	-11.1771
▁टास्क	-11.1771
▁एसएमएस	-11.1771
▁गाइडलाइन	-11.1772
▁आवक	-11.1772
▁निराक	-11.1773
▁फिरोजपुर	-11.1774
▁नीमच	-11.1775
▁जुआ	-11.1775
▁कमांडर	-11.1777
▁गेम्स	-11.178
▁संगत	-11.1782
▁समृद्ध	-11.1783
▁डंडे	-11.1783
▁अकेला	-11.1784
▁समझते	-11.1789
▁जोकि	-11.179
▁महाराजा	-11.179
▁निकलते	-11.1793
▁संतों	-11.1795
लि	-11.1796
▁परमिशन	-11.1797
▁संगम	-11.1798
भाई	-11.1813
32	-11.1813
47	-11.1818
ची	-11.1822
▁प्याज	-11.1825
on	-11.1826
.10	-11.1831
35	-11.1832
कुमार	-11.1835
98	-11.1836
▁शा	-11.1837
▁नामों	-11.1837
▁मार्क	-11.1846
▁बु	-11.1849
लाइन	-11.185
28	-11.1859
▁विफल	-11.1863
▁भरोसे	-11.1869
▁खिड़की	-11.1869
▁दिवंगत	-11.1869
▁मुखर्जी	-11.1869
▁लॉन्‍च	-11.1869
▁छलांग	-11.1869
▁गौशाला	-11.1869
▁महापर्व	-11.1869
▁ख़ास	-11.1869
▁झंडी	-11.1869
▁गालियां	-11.1869
▁एसओजी	-11.1869
▁^	-11.1869
▁लोकतांत्रिक	-11.1869
▁फर्क	-11.1869
▁बांका	-11.187
▁चरित्र	-11.187
▁क्रॉस	-11.187
▁चाबी	-11.187
▁चक	-11.187
▁ठेके	-11.187
▁इनपुट	-11.1871
▁तबादला	-11.1871
▁आएंगी	-11.1875
▁पुर	-11.1879
▁रणनीतिक	-11.188
▁डाउन	-11.188
▁हि	-11.1881
▁रीना	-11.1881
मैंने	-11.1882
ुम	-11.1885
▁सरल	-11.1885
लिंग	-11.1885
▁ट्रॉली	-11.1886
▁कहे	-11.1889
▁बेटों	-11.1889
▁कारोबारियों	-11.1891
▁तले	-11.1896
▁लेगी	-11.1903
▁रामेश्वर	-11.1908
▁यूज	-11.1908
▁छठे	-11.1909
▁ज़	-11.1911
अर	-11.1913
्प	-11.1913
ूल	-11.1915
▁बहाली	-11.1916
▁गुजरने	-11.1916
▁मात	-11.1925
बू	-11.1934
▁अस	-11.1939
रेखा	-11.1945
▁खीर	-11.1955
▁दा	-11.1956
▁सुल्तान	-11.1957
▁परिवर्त	-11.196
▁97	-11.196
▁ड्रग	-11.1964
▁वास्तव	-11.1966
▁कौशिक	-11.1968
▁चंद्रचूड़	-11.1968
▁प्रकोष्ठ	-11.1968
▁माथुर	-11.1968
▁कॉम्प्लेक्स	-11.1968
▁मोतिहारी	-11.1968
▁व्हाइट	-11.1968
▁फ्लैग	-11.1968
▁एंगल	-11.1968
▁विदिशा	-11.1968
▁पंजीकृत	-11.1968
▁महाआरती	-11.1968
▁शुरूआत	-11.1968
▁बेटियां	-11.1968
▁संवैधानिक	-11.1968
▁बदली	-11.1969
▁गिरफ्त	-11.1969
ंडी	-11.197
▁सेंसर	-11.1972
▁गोपालगंज	-11.1973
▁मंथन	-11.1973
▁चौके	-11.1974
▁खुर्द	-11.1974
▁सहज	-11.1976
▁डरा	-11.1977
▁सता	-11.1978
ीना	-11.1979
▁उपवास	-11.1982
माता	-11.1983
▁खिल	-11.1988
ुख्ता	-11.1989
it	-11.1991
▁होश	-11.1991
▁इंडस्ट्रीज	-11.1998
▁समुदायों	-11.1999
राना	-11.2007
▁बढ़ाना	-11.2009
▁शास	-11.201
▁डायरेक्ट	-11.2013
▁जाप	-11.2014
इयों	-11.2014
रूप	-11.2029
▁एपी	-11.2031
▁ड्राइव	-11.2036
▁बेरोजगार	-11.2039
▁बिन	-11.2039
तु	-11.2042
▁हमलोग	-11.2046
▁सिरे	-11.2052
▁राजे	-11.2054
▁क्रू	-11.2058
▁आदत	-11.2059
▁कन	-11.206
्ज	-11.206
▁अद्भुत	-11.2068
▁इब्राहिम	-11.2068
▁नारनौल	-11.2068
▁रास्तों	-11.2068
▁लाइब्रेरी	-11.2068
▁वैक्सीन	-11.2068
▁रेवन्ना	-11.2068
▁शंभू	-11.2068
▁सनसनी	-11.2068
▁अर्घ्य	-11.2068
▁कुमावत	-11.2068
▁मुजफ्फरनगर	-11.2068
▁खरगे	-11.2068
▁पुनः	-11.2068
▁झंडे	-11.2068
▁सूर्यकुमार	-11.2068
▁पूर्वोत्तर	-11.2069
▁मॉर्च्य	-11.207
▁हरिद्वार	-11.2071
▁छक्के	-11.2071
▁पार्टियां	-11.2071
▁दिये	-11.2071
▁साध	-11.2073
▁पॉइंट्स	-11.2077
▁सराय	-11.2081
्ब	-11.2082
▁जातीय	-11.209
▁छात्राएं	-11.2092
▁82	-11.2096
▁पर्दे	-11.2096
▁ईशा	-11.2101
▁दावेदारी	-11.2105
▁पढ़ा	-11.2108
▁टैक्सी	-11.2114
▁रोने	-11.2116
▁बाजी	-11.2121
▁79	-11.2122
▁इनामी	-11.2125
▁चाल	-11.2131
ोन	-11.214
अगर	-11.2145
▁तन	-11.2145
▁केबल	-11.2146
▁लगन	-11.2147
-14	-11.2164
▁फ़िल्म	-11.2167
▁अनदेखी	-11.2169
▁अनुच्छेद	-11.2169
▁इंग्लिश	-11.2169
▁बटालियन	-11.2169
▁सैयद	-11.2169
▁हेरिटेज	-11.2169
▁(35)	-11.2169
▁धनंजय	-11.2169
▁चौबे	-11.2169
▁नवाचार	-11.2169
▁पर्यवेक्षक	-11.2169
▁महाकालेश्वर	-11.217
▁अनुष्ठान	-11.217
▁सुखबीर	-11.217
▁टावर	-11.217
▁टेंट	-11.2171
▁पलटवार	-11.2171
▁यूपीएससी	-11.2172
▁टुकड़े	-11.2172
▁ड्राइविंग	-11.2172
▁टीएमसी	-11.2173
▁रामचंद्र	-11.2173
▁संतान	-11.2173
▁इंडी	-11.2174
▁कॉमर्स	-11.2179
▁बनवाने	-11.218
वारा	-11.2181
▁बैल	-11.2183
▁फैली	-11.2188
▁फोटोज	-11.2191
ीं	-11.2195
▁फूट	-11.2197
com	-11.2201
▁वोटर्स	-11.2202
कट	-11.2204
49	-11.2206
केश	-11.2212
मेल	-11.2215
41	-11.2216
टन	-11.222
▁लौटी	-11.2222
▁स्टाइल	-11.2232
जैसे	-11.2246
46	-11.225
▁समर्थ	-11.2252
▁ध्वज	-11.226
▁तंग	-11.226
▁अंकों	-11.2265
अब	-11.2265
▁हिल	-11.2269
▁झड़प	-11.2269
▁पूंजी	-11.227
▁अक्षर	-11.227
▁दुरुस्त	-11.2271
▁पंचकूला	-11.2271
▁सेमेस्टर	-11.2271
▁बाइडेन	-11.2271
▁नफरत	-11.2271
▁अवश्य	-11.2271
▁जरिये	-11.2271
▁महानिदेशक	-11.2271
▁किस्सा	-11.2271
▁ASI	-11.2271
▁राजभवन	-11.2271
▁मारुति	-11.2271
▁प्रतिनिधिमंडल	-11.2271
▁गवर्नमेंट	-11.2271
▁गंदा	-11.2271
▁विधिवत	-11.2272
▁मोनू	-11.2272
▁फायदे	-11.2272
सिटी	-11.2272
▁फिरौती	-11.2273
▁ख़ान	-11.2274
▁सर्विसेज	-11.2274
यो	-11.2275
▁अनुशासन	-11.2276
▁एसआईटी	-11.2276
-17	-11.2277
▁सटे	-11.2278
▁काउंटिंग	-11.2279
▁कूलर	-11.2281
▁अंग्रेजों	-11.2288
▁जुड़ने	-11.229
▁श्रीनगर	-11.2292
29	-11.2294
वो	-11.2297
▁आजम	-11.2302
▁एमएस	-11.2303
z	-11.2306
ौरा	-11.231
ूंगा	-11.2317
चंद्र	-11.2318
▁पढ़े	-11.2318
▁झेल	-11.2323
re	-11.2329
▁कांग्रेसी	-11.233
‍ि	-11.2335
▁नाक	-11.2348
▁भाग्य	-11.2349
▁पुन	-11.2349
▁पटाखे	-11.235
▁ठंडा	-11.2351
▁चलें	-11.2364
44	-11.2371
▁कतार	-11.2373
▁कराएं	-11.2374
▁कपूरथला	-11.2374
▁ख़त्म	-11.2374
▁प्रवचन	-11.2374
▁फोरेंसिक	-11.2374
▁विश्राम	-11.2374
▁चरखी	-11.2374
▁बोकारो	-11.2374
▁लायक	-11.2374
▁लोधी	-11.2374
▁अवार्ड	-11.2374
▁बहुजन	-11.2375
▁रेजिडेंट	-11.2375
पानी	-11.2376
▁झटके	-11.2378
▁मचाया	-11.2379
▁पैरवी	-11.2381
▁ऑ	-11.2381
▁सुल्तानपुर	-11.2385
▁सजावट	-11.2386
▁हेम	-11.2386
▁आइ	-11.2387
▁ईमानदारी	-11.2388
▁हल्दी	-11.2389
▁बंटी	-11.2393
▁अनुपमा	-11.2396
▁विभाजन	-11.2399
बाद	-11.2402
▁घेराबंद	-11.2404
मू	-11.2405
▁वादे	-11.2407
▁उमा	-11.2417
▁टीबी	-11.2427
▁लड़ाक	-11.2438
कृष्ण	-11.2447
▁बनारस	-11.2454
▁कृति	-11.2464
देश	-11.2466
्वा	-11.2469
ाजी	-11.247
▁क्रांति	-11.2477
▁आडवाणी	-11.2478
▁फिफ्टी	-11.2478
▁मुआवजे	-11.2478
▁वैश्य	-11.2478
▁गणमान्य	-11.2478
▁गोताखोर	-11.2478
▁मातृ	-11.2478
▁लेनदेन	-11.2478
▁आरंभ	-11.2478
▁कूड़ा	-11.2478
▁धवन	-11.2478
▁दुष्यंत	-11.2479
▁शादीशुदा	-11.2479
▁पीएचडी	-11.248
▁फ़ैसला	-11.248
▁नाका	-11.248
▁पाण्डेय	-11.2481
▁पीड़ा	-11.2482
▁गायों	-11.2483
▁लिखते	-11.2484
▁आरजी	-11.2487
▁पक्का	-11.2489
85	-11.249
▁आईसीसी	-11.249
▁लेबर	-11.2492
▁डालते	-11.2494
▁एपल	-11.2495
रांत	-11.2511
▁बारीक	-11.2512
▁त्यागी	-11.2516
▁दिखता	-11.2521
▁रक्त	-11.2523
▁नारी	-11.2527
ाली	-11.2527
▁बुध	-11.2531
ढ	-11.2534
▁सैम	-11.2536
▁खेलना	-11.2541
▁उपकरणों	-11.2545
▁गिरे	-11.2546
SP	-11.2549
बाबू	-11.2555
▁शीतल	-11.2556
▁बताना	-11.2567
-9	-11.2568
08	-11.2568
▁पहन	-11.2575
ॉल	-11.2577
▁अभिन	-11.2579
▁परिस्थिति	-11.2583
▁पाउडर	-11.2583
▁रिएक्शन	-11.2583
▁विश्लेषण	-11.2583
°	-11.2583
▁सुपुर्द	-11.2583
▁दूतावास	-11.2583
▁चित्रकूट	-11.2583
▁अनुपस्थित	-11.2583
▁ऑरेंज	-11.2583
▁गर्भगृह	-11.2583
▁Modi	-11.2583
▁अनमोल	-11.2583
▁अनुबंध	-11.2583
▁डेविड	-11.2583
▁चौरसिया	-11.2584
▁अग्रिम	-11.2584
▁कारगिल	-11.2584
▁झालावाड़	-11.2585
▁पुष्कर	-11.2585
▁ग्रेटर	-11.2587
▁नम्बर	-11.2588
▁बीर	-11.2588
▁सियासत	-11.2588
▁मांस	-11.2589
मंडल	-11.2589
▁गोंडा	-11.2592
▁भाभी	-11.2592
▁गान	-11.2592
▁डिब्बे	-11.2594
▁डीलर	-11.2598
▁बताता	-11.2598
▁युक्त	-11.2601
500	-11.2602
▁बुद्ध	-11.2603
▁स्थाई	-11.2608
▁बेसिक	-11.2609
▁आईपीओ	-11.2609
▁(20	-11.2618
▁दोहरा	-11.262
▁रिंग	-11.2622
▁किसे	-11.2625
▁टेस्टिंग	-11.2626
रानी	-11.2627
as	-11.2628
▁98	-11.2647
दारी	-11.2648
वेल	-11.265
खी	-11.2653
▁मंचन	-11.2654
ेक	-11.2658
▁अब्दुल्ला	-11.266
ॐ	-11.2664
▁आड़	-11.2665
▁मंडला	-11.2667
43	-11.267
▁निराश	-11.2675
72	-11.2678
▁93	-11.268
पान	-11.2681
▁जयंत	-11.2682
▁प्वाइंट	-11.2685
▁प्रीमिय	-11.2686
▁गरिमा	-11.269
▁आश्चर्य	-11.269
▁अग्निशमन	-11.269
▁ज्‍यादा	-11.269
▁निमंत्रण	-11.269
▁प्रांगण	-11.269
▁भूकंप	-11.269
▁सार्थक	-11.269
▁स्पर्धा	-11.269
▁इच्छुक	-11.269
▁राधेश्याम	-11.269
▁संयोग	-11.269
▁उद्यान	-11.269
▁तेंदुआ	-11.269
▁मलेरिया	-11.269
▁अभिनंदन	-11.269
▁पेशेवर	-11.269
▁बाईपास	-11.2691
▁टूर	-11.2691
▁छतरपुर	-11.2691
▁मेजर	-11.2691
▁कनेक्ट	-11.2692
▁1999	-11.2693
▁विकासखंड	-11.2693
▁लेखक	-11.2695
▁पीपल	-11.2696
▁गोलू	-11.2698
▁शौक	-11.2698
▁सौदा	-11.2701
▁सीसी	-11.2706
▁हनुमानगढ़	-11.2709
▁सिंधी	-11.271
▁कैट	-11.2712
31	-11.2714
▁जंगलों	-11.2724
▁कास्ट	-11.2729
शि	-11.2745
▁देवता	-11.2751
ंश	-11.2753
डो	-11.2754
▁शत	-11.2755
ग्न	-11.276
▁रखवा	-11.2767
▁माया	-11.2778
▁हिरण	-11.278
▁चंदा	-11.2782
ठी	-11.2782
▁प्रा	-11.2789
▁भ्रम	-11.2796
▁अवलोकन	-11.2797
▁खंडेलवाल	-11.2797
▁मुस्कान	-11.2797
▁यकीन	-11.2797
▁देओल	-11.2797
▁आत्मविश्वास	-11.2797
▁कैडर	-11.2797
▁गंदे	-11.2797
▁जनजातीय	-11.2797
▁नवम्बर	-11.2797
▁पाइपलाइन	-11.2798
▁समर्पण	-11.2798
▁उत्तरप्रदेश	-11.2798
▁थ्रो	-11.2799
▁कुंवर	-11.2801
▁(25)	-11.2802
▁उल्टी	-11.2802
▁छोटू	-11.2804
▁लुटेरों	-11.2805
▁रैंकिंग	-11.2806
▁सातवें	-11.2808
▁अग्नि	-11.2812
▁पाती	-11.2818
▁तू	-11.2822
▁मातम	-11.2823
55	-11.2824
▁रुपय	-11.2824
▁नेत्र	-11.2829
▁राशिद	-11.2834
92	-11.2841
▁देवर	-11.2844
▁रामनगर	-11.2851
▁उधार	-11.2852
▁गंज	-11.2868
्‍स	-11.287
▁गोविंदा	-11.2881
जल	-11.2881
▁रंगे	-11.2892
यर	-11.2892
▁नकल	-11.2895
le	-11.2898
र्क	-11.2901
Y	-11.2901
▁सिग्नल	-11.2902
▁प्रोफेशनल	-11.2902
▁इसने	-11.2903
▁द्विपक्षीय	-11.2906
▁रक्षाबंधन	-11.2906
▁रोकथाम	-11.2906
▁व्हीकल	-11.2906
▁शिरकत	-11.2906
▁सम्पन्न	-11.2906
▁इंजेक्शन	-11.2906
▁फ्रेंचाइज	-11.2906
▁चैंबर	-11.2906
▁कांस्य	-11.2906
▁पांड्या	-11.2906
▁अडानी	-11.2906
▁किडनी	-11.2906
▁शुगर	-11.2906
▁इकोनॉमी	-11.2906
▁लगीं	-11.2906
▁प्रथा	-11.2907
▁पंवार	-11.2907
ब्र	-11.2907
▁बोझ	-11.2907
▁पॉलिटिकल	-11.2908
रूढ़	-11.2908
▁तालिबान	-11.2908
▁कॉमेडी	-11.2908
▁साकार	-11.2908
कुंड	-11.291
▁आगाज	-11.2911
▁मधुबनी	-11.2912
▁प्रचारक	-11.2912
▁(22)	-11.2913
▁आर्टिस्ट	-11.2913
▁जूते	-11.2913
▁चर्चित	-11.2914
▁किंग्स	-11.2914
▁अर्जी	-11.2915
▁जयराम	-11.2917
▁बोल्ड	-11.2923
▁बहाव	-11.2925
पल	-11.2927
▁पाना	-11.2929
▁लिखने	-11.2929
आईटीआई	-11.2931
▁5000	-11.2934
▁जानकी	-11.2935
▁Ka	-11.2935
▁फट	-11.295
ंप	-11.2953
▁धुन	-11.2956
▁अंकिता	-11.2958
▁पंचायती	-11.2959
54	-11.2962
▁महंग	-11.2964
▁चना	-11.297
▁ध	-11.2975
▁श्रमिक	-11.2979
▁O	-11.2982
ोद	-11.2986
▁पिंक	-11.2989
मेंस	-11.2989
▁नगद	-11.2991
51	-11.2995
▁माले	-11.2995
▁अकाल	-11.2996
ha	-11.2996
ma	-11.2998
दत्त	-11.2998
हि	-11.2999
हल	-11.3004
▁बंधु	-11.3004
▁युव	-11.3005
▁सितारे	-11.3007
स्थाई	-11.3007
▁सितार	-11.3009
▁साई	-11.301
▁of	-11.3016
▁क्लिनिक	-11.3016
▁मनरेगा	-11.3016
▁माइक्रो	-11.3016
▁उरांव	-11.3016
▁बुरहानपुर	-11.3016
▁तरुण	-11.3016
▁गोशाला	-11.3016
▁सुपौल	-11.3016
▁एस्टेट	-11.3016
▁आरपीएफ	-11.3016
▁मंशा	-11.3016
▁अररिया	-11.3016
▁बायपास	-11.3016
▁भावुक	-11.3016
यी	-11.3016
▁ईमेल	-11.3017
▁विवेकानंद	-11.3017
▁मोर्चरी	-11.3018
▁शिवकुमार	-11.3018
▁सिंगापुर	-11.3018
▁पठान	-11.3019
▁उपहार	-11.3019
▁चेतन	-11.3019
▁India	-11.302
▁झाड़ियों	-11.302
▁वस्तुओं	-11.302
▁समन	-11.302
▁झोपड़	-11.302
▁रोककर	-11.3022
▁लोहिया	-11.3023
▁फीडर	-11.3025
▁आये	-11.3026
▁योग्यता	-11.3026
द्र	-11.303
▁मानवीय	-11.3032
▁मोटर्स	-11.3032
▁सीखने	-11.3033
▁बाज	-11.3033
▁रोटी	-11.3034
झा	-11.3035
▁87	-11.3039
▁नगदी	-11.3045
न्त	-11.3047
▁गोल्डन	-11.3048
ुन	-11.3056
निर्देश	-11.306
ेंगी	-11.3061
▁एक्टिवा	-11.3064
एंगे	-11.3065
जू	-11.3065
बहन	-11.3066
▁गनी	-11.3068
▁किस्म	-11.3069
800	-11.307
99	-11.307
▁फाइटर	-11.3072
▁प्रोड्यूसर	-11.3072
▁रामा	-11.3073
मंत्री	-11.3081
िकल	-11.3086
▁लक्षण	-11.3086
ग्राम	-11.3089
मोहन	-11.3094
▁जीवित	-11.31
छोटे	-11.3102
दाय	-11.3103
▁जप	-11.3104
▁मकर	-11.3107
और	-11.3107
▁मेहरा	-11.3108
▁सराहन	-11.3112
▁आक्रामक	-11.3121
▁माफ	-11.3122
▁कैदी	-11.3123
▁जेडीए	-11.3124
▁इंडस्ट्रियल	-11.3127
▁ताइवान	-11.3127
▁अबोहर	-11.3127
▁लैपटॉप	-11.3127
▁कनेक्टिविटी	-11.3127
▁संन्यास	-11.3127
▁हरियाली	-11.3127
▁निशानदेही	-11.3127
▁धुंध	-11.3127
▁एक्सचेंज	-11.3127
▁जनसंख्या	-11.3127
▁बर्थडे	-11.3127
▁डाक्टर	-11.3127
▁मम्मी	-11.3127
▁निरंजन	-11.3127
▁जायेगी	-11.3127
▁शून्य	-11.3128
▁घातक	-11.3129
▁लड़ेंगे	-11.3129
▁टैग	-11.313
▁आरटीओ	-11.3131
▁सीवर	-11.3132
▁प्रस्तुतियां	-11.3134
▁व्हील	-11.3135
▁बालिकाओं	-11.3139
36	-11.3141
▁बीए	-11.3143
एगी	-11.3143
-15	-11.3144
▁सुप्रीमो	-11.3156
▁हमसे	-11.3158
▁बैठाकर	-11.3159
▁तिल	-11.317
ya	-11.3172
नर	-11.3172
▁उठने	-11.3173
डब्ल्यू	-11.3178
▁फेंका	-11.3179
▁धु	-11.3179
▁रज	-11.3188
▁वक्ता	-11.3189
▁अंश	-11.319
▁टिक	-11.3193
▁सारण	-11.32
राज्य	-11.3215
पुरम	-11.3216
▁ठ	-11.3223
▁सटीक	-11.3234
▁मजबूरी	-11.3236
▁उछल	-11.3239
▁कच्ची	-11.3239
▁प्रसव	-11.3239
▁बर्खास्त	-11.3239
▁गुमराह	-11.3239
▁पंचनामा	-11.3239
▁ख़बर	-11.3239
▁भिड़ंत	-11.324
▁अस्तित्व	-11.324
▁नारियल	-11.324
▁अय्यर	-11.324
▁अभिनय	-11.324
▁घास	-11.324
▁भुवनेश्वर	-11.324
▁देवगन	-11.3241
▁सिरोही	-11.3242
▁प्रात	-11.3242
▁गाजा	-11.3243
▁शॉप	-11.3244
▁वायरस	-11.3244
▁सुखदेव	-11.3244
▁क्षति	-11.3244
▁फिरोज	-11.3244
▁पाएगी	-11.3245
▁पॉ	-11.3245
▁योगेंद्र	-11.3246
▁सिक्स	-11.3246
▁चंद्रमा	-11.3246
न्	-11.3248
▁दोष	-11.3249
▁मोहनलाल	-11.3249
▁मक्का	-11.325
▁बिस्तर	-11.3251
▁बांटने	-11.3255
▁कीमतें	-11.3256
▁भूत	-11.3258
▁180	-11.3265
▁फाड़	-11.3271
▁तारा	-11.3274
ांग	-11.3275
▁कर्नल	-11.3276
69	-11.3276
▁प्रतियोगिताओं	-11.3282
डोर	-11.329
ur	-11.3301
▁यूजी	-11.3313
कर्ता	-11.3321
▁2.5	-11.3321
81	-11.3327
▁शहीदों	-11.3328
स्थ	-11.333
डीजल	-11.333
▁कमा	-11.3334
▁बोस	-11.3339
▁बौद्ध	-11.3351
▁वरीय	-11.3352
०	-11.3353
▁इजाजत	-11.3353
▁ट्रांसप्लांट	-11.3353
▁निर्णायक	-11.3353
▁प्रकोप	-11.3353
▁सेमिनार	-11.3353
▁संक्रमण	-11.3353
▁सिक्किम	-11.3353
▁छिड़काव	-11.3353
▁यशस्वी	-11.3353
▁रिलेशनशिप	-11.3353
▁एसबीआई	-11.3353
▁किरोड़ी	-11.3354
▁नगरपालिका	-11.3354
▁बेसमेंट	-11.3354
▁शाजापुर	-11.3354
▁अनवर	-11.3355
▁भागे	-11.3356
▁भोले	-11.3356
▁ऑक्सीज	-11.3357
▁किताबें	-11.3357
▁पौधा	-11.3357
▁बताओ	-11.3358
▁वन्य	-11.3359
▁दावों	-11.336
▁पटाखा	-11.3361
▁गुलाम	-11.3361
ंदा	-11.3363
▁कैथल	-11.3365
▁मुश्किलें	-11.3365
▁कैंडिडेट्स	-11.3368
रवा	-11.3371
▁माधवी	-11.3373
▁व्यवस्थाएं	-11.3375
▁160	-11.3377
▁प्रकरणों	-11.3378
ad	-11.3379
39	-11.3379
▁सरकारों	-11.3383
▁मोक्ष	-11.3386
▁कंवर	-11.3387
▁SC	-11.3388
वासी	-11.3389
पत	-11.3397
▁ता	-11.34
▁व्यवसायी	-11.3402
▁गुड़	-11.3409
▁उपलब्धता	-11.3414
▁हीरा	-11.3414
खेड़ी	-11.3422
▁बिर	-11.3424
un	-11.3427
▁नक्सल	-11.3427
▁अभिभावक	-11.3428
▁वृक्ष	-11.3431
▁दिखाए	-11.3437
▁समाजजन	-11.3438
▁टूटी	-11.3439
तफरी	-11.3442
भाजपा	-11.3443
▁स्नेह	-11.3453
▁मगरमच्छ	-11.3468
▁विक्षोभ	-11.3468
▁क्लिप	-11.3468
▁दशरथ	-11.3468
▁ब्लाक	-11.3468
खुफिया	-11.3468
▁इंडिगो	-11.3468
▁भावनात्मक	-11.3468
▁निजात	-11.3468
▁हिस्ट्रीशीटर	-11.3469
▁नक्षत्र	-11.3469
▁डेमोक्रेटिक	-11.3469
▁अड्डा	-11.3469
▁लद्दाख	-11.3469
▁हॉट	-11.3471
▁आंगन	-11.3471
▁पैक्स	-11.3474
▁वाई	-11.3475
▁घटी	-11.3475
▁ऊंचा	-11.3476
94	-11.3477
▁छि	-11.3477
▁लगेंगे	-11.3481
▁टर्न	-11.3481
▁चौकीदार	-11.3483
▁पंचमी	-11.3486
22	-11.3487
▁पितर	-11.349
▁लगेगी	-11.3492
पुत्र	-11.3493
▁शैली	-11.3497
▁बसे	-11.3497
03	-11.3498
त्त	-11.3498
्ता	-11.3499
▁फॉर्मेट	-11.35
आज	-11.3506
▁खरीदे	-11.3507
▁टूटे	-11.351
▁एक्टर्स	-11.3513
▁प्रशासक	-11.3518
न्ना	-11.3521
▁गुरू	-11.3524
▁सिल	-11.3533
▁रिया	-11.3536
▁पीकर	-11.3536
▁बंदर	-11.3537
▁कीमती	-11.3541
▁भराव	-11.3542
AL	-11.3544
▁पक्षियों	-11.3545
▁भवनों	-11.3553
शक्ति	-11.3558
र्सल	-11.3559
विकास	-11.356
▁अनजान	-11.3562
▁धमका	-11.3563
es	-11.3569
▁संसाधनों	-11.3569
नार	-11.3571
▁मठ	-11.3573
▁बाबर	-11.3576
▁संपत्तिय	-11.3578
किया	-11.3583
▁अदिति	-11.3584
▁अर्धशतक	-11.3584
▁खरगोन	-11.3584
▁जनसुनवाई	-11.3584
▁तुषार	-11.3584
▁मधेपुरा	-11.3584
▁हकीकत	-11.3584
▁खालिस्तान	-11.3584
▁बलौदाबाजार	-11.3584
▁कैलेंडर	-11.3584
▁नाजुक	-11.3584
▁वेलफेयर	-11.3584
▁ओवैसी	-11.3584
▁आरबीआई	-11.3584
▁ढाणी	-11.3584
▁ब्रेन	-11.3584
▁पेरेंट्स	-11.3585
▁सिवनी	-11.3585
▁यादगार	-11.3585
▁बैरवा	-11.3585
▁पीजीआई	-11.3585
▁स्पष्टीकरण	-11.3586
▁सेमी	-11.3586
▁टच	-11.3586
▁1996	-11.3586
▁दूल्हे	-11.3586
▁कैसी	-11.3587
▁टीजर	-11.3587
▁निर्देशों	-11.3587
▁आंखें	-11.3587
▁शस्त्र	-11.3587
▁ICC	-11.3588
▁वल्लभ	-11.3588
▁प्रीमियम	-11.3589
▁कटाई	-11.3589
▁पूनिया	-11.3589
▁वर्जन	-11.359
200	-11.3592
▁पोते	-11.3593
▁बाएं	-11.3596
▁ट्रोल	-11.3596
▁बादलों	-11.36
▁जलाकर	-11.3608
▁सम्मि	-11.3609
▁परफॉर्म	-11.3611
▁फोड़	-11.3616
▁कराएंगे	-11.3616
▁महंगी	-11.3616
▁यूं	-11.3623
ंब	-11.3625
बाड़ी	-11.3626
▁तत्व	-11.3629
▁रॉड	-11.3631
▁उपलब्धियों	-11.3637
▁कामयाबी	-11.3646
सरा	-11.3647
▁बोरी	-11.3648
नायक	-11.3655
ापुर	-11.3658
▁भवानी	-11.3661
56	-11.3663
▁हादस	-11.3666
नल	-11.3674
▁हिंद	-11.3674
▁अकेल	-11.3674
77	-11.3681
▁डु	-11.3688
▁प्रॉ	-11.3689
▁पैक	-11.3694
▁निवेशक	-11.3696
वैकल्पिक	-11.3702
▁एमओयू	-11.3702
▁बदायूं	-11.3702
▁भूस्खलन	-11.3702
▁वर्कशॉप	-11.3702
▁ऑडिट	-11.3702
▁क्रिसमस	-11.3702
▁दिगंबर	-11.3702
▁आगजनी	-11.3702
▁ज़मीन	-11.3702
▁चंपारण	-11.3702
▁स्टार्टअप	-11.3702
▁विमोचन	-11.3702
▁कारीगर	-11.3702
▁चूरू	-11.3702
▁दवाइयां	-11.3702
▁महासंघ	-11.3702
▁डिवाइडर	-11.3702
▁रिजवान	-11.3703
▁उपखंड	-11.3703
▁गरीबी	-11.3705
अस्थायी	-11.3705
▁जं	-11.3705
▁व्यय	-11.3705
▁आकांक्षा	-11.3706
17	-11.3707
▁पितृ	-11.3707
▁चंद्राकर	-11.3711
▁बिगाड़	-11.3711
▁दीक्षा	-11.3713
▁बूंदी	-11.3717
▁महू	-11.3718
▁शैल	-11.3722
▁थानेदार	-11.3724
62	-11.3732
▁असद	-11.3735
▁लौटते	-11.3738
▁दर्शात	-11.3748
▁अपनाया	-11.3752
▁सज	-11.3769
▁शर्तों	-11.3774
▁जू	-11.3778
शील	-11.3779
▁केबिन	-11.378
▁मैनेज	-11.3787
िगत	-11.3792
्सिल	-11.3796
उधर	-11.3796
▁जतात	-11.3802
▁पीस	-11.3803
्वर	-11.3806
फुल	-11.3812
▁नीम	-11.3812
मय	-11.3813
▁s	-11.3814
▁इत्यादि	-11.3821
▁कॉर्पोरेशन	-11.3821
▁द्रौपदी	-11.3821
▁मनोकामना	-11.3821
▁विश्नोई	-11.3821
▁सगाई	-11.3821
▁सांप्रदायिक	-11.3821
▁परशुराम	-11.3821
▁श्रावण	-11.3821
▁मेहंदी	-11.3821
▁नकारात्मक	-11.3821
▁उषा	-11.3821
▁नवाब	-11.3821
▁सस्ते	-11.3821
▁हजारीबाग	-11.3822
▁जन्मभूमि	-11.3822
लुहान	-11.3822
▁भोला	-11.3822
▁भालू	-11.3822
▁ड्रामा	-11.3823
▁हाजीपुर	-11.3823
▁घटक	-11.3825
▁कोटे	-11.3825
▁कमलनाथ	-11.3825
▁साहनी	-11.3825
▁2006	-11.3828
▁काउंसिलिंग	-11.3829
▁देशी	-11.3834
▁मौ	-11.3834
▁पहनने	-11.3835
▁वेडिंग	-11.3837
▁श्रेय	-11.3838
▁बहला	-11.3839
▁छठी	-11.3842
at	-11.3844
▁खरीदना	-11.3849
▁नये	-11.3851
▁मूंग	-11.3861
▁दुआ	-11.3861
▁देह	-11.3864
la	-11.3869
रेज	-11.3876
▁उत्पादक	-11.3883
▁एनआईए	-11.3889
जिस	-11.389
▁दवाई	-11.3892
64	-11.3894
ग्	-11.3904
▁हाजिर	-11.3912
बेटी	-11.3925
▁हलक	-11.3926
▁विमल	-11.3927
▁वास	-11.393
▁बंदी	-11.3932
▁पहुंचना	-11.3935
▁प्रार्थ	-11.3936
▁प्रतिबद्ध	-11.3939
▁कुणाल	-11.3941
▁खुदकुशी	-11.3941
▁प्रहलाद	-11.3941
▁मलाइका	-11.3941
▁माल्यार्पण	-11.3941
▁लॉन्ड्रिंग	-11.3941
▁चेयरपर्सन	-11.3941
▁अवशेष	-11.3941
▁गोपनीय	-11.3941
▁वक़्त	-11.3942
▁टूरिस्ट	-11.3942
▁जितेन्द्र	-11.3942
▁धमकियां	-11.3942
▁भत्ता	-11.3942
▁हलचल	-11.3942
▁इटली	-11.3942
▁नीतू	-11.3942
▁विवेचना	-11.3942
▁आंशिक	-11.3942
▁कान	-11.3942
▁धमकाया	-11.3943
▁पक्षी	-11.3943
▁अमृतपाल	-11.3943
▁ईसाई	-11.3943
▁कटाव	-11.3943
▁नर्सरी	-11.3945
▁बनवाया	-11.3945
▁अवस्थी	-11.3945
▁(30)	-11.3946
▁आईएमडी	-11.3948
▁चंबल	-11.395
▁हरप्रीत	-11.3953
▁बलराम	-11.3954
▁लगवाने	-11.3954
्द	-11.3955
एनडीपीएस	-11.3955
▁पंखे	-11.396
▁मुड़	-11.3961
▁मशीनों	-11.3964
▁न्यास	-11.3964
▁रोते	-11.3965
न्द	-11.3965
▁स्टडी	-11.3966
▁हैदर	-11.3967
वाने	-11.3967
▁पिछड़े	-11.3969
▁चावला	-11.3979
▁एलन	-11.3981
600	-11.3982
म्ब	-11.3986
▁पांचवीं	-11.3987
▁तप	-11.3989
▁साईं	-11.3991
.00	-11.3992
95	-11.4003
▁विश्वविद्यालयों	-11.4013
▁लु	-11.402
▁जिता	-11.4023
दहाड़े	-11.4037
▁सूर्या	-11.404
▁बिछा	-11.4043
▁विनीत	-11.4047
▁जुर्मान	-11.4056
▁मोर्च	-11.4056
▁मुझ	-11.4057
▁ऑलराउंडर	-11.4058
▁ढह	-11.4062
गल	-11.4062
▁SUV	-11.4062
▁c	-11.4063
▁छावनी	-11.4063
▁जांजगीर	-11.4063
▁रणधीर	-11.4063
▁शावक	-11.4063
▁ध्वजारोहण	-11.4063
▁सांगानेर	-11.4063
▁होमगार्ड	-11.4063
▁बाइपास	-11.4063
▁ओवरब्रिज	-11.4064
▁बैलेट	-11.4064
▁तादा	-11.4064
▁बिजनेसमैन	-11.4064
▁महिमा	-11.4064
▁चंपाई	-11.4065
▁गलियों	-11.4065
▁खपत	-11.4065
▁हब	-11.4066
▁चप्पल	-11.4066
▁गिरीश	-11.4067
53	-11.4067
▁नमक	-11.4069
.05	-11.407
▁स्क्रीनिंग	-11.4072
▁ज़रूरी	-11.4073
मेरे	-11.4075
▁मनमानी	-11.4076
▁कर्ण	-11.408
▁140	-11.408
▁जादू	-11.4083
ैन	-11.4087
ाम	-11.4089
▁पूल	-11.4091
▁काटे	-11.4093
टिया	-11.4093
▁अज	-11.4097
हान	-11.4098
ियम	-11.4099
▁टु	-11.4101
धान	-11.4104
्रिड	-11.4104
▁लहरा	-11.4108
ेय	-11.4112
बाजी	-11.4112
▁मेड	-11.4122
en	-11.4122
नीयत	-11.4129
▁नारायणपुर	-11.413
▁फैसल	-11.4133
▁बारी	-11.4135
माला	-11.415
्टी	-11.4151
ीदा	-11.416
▁लड़े	-11.4163
▁1200	-11.4165
il	-11.4166
▁एडी	-11.4168
▁रौंद	-11.4171
▁सिकंदर	-11.4171
▁विजिट	-11.4172
लपुर	-11.4173
मोदी	-11.4173
▁बांग्लादेशी	-11.418
▁किडनैप	-11.4183
▁धरोहर	-11.4187
▁मज़बूत	-11.4187
▁मर्चेंट	-11.4187
▁श्रृंखला	-11.4187
▁दीनदयाल	-11.4187
विजिलेंस	-11.4187
▁महागठबंधन	-11.4187
▁एयरलाइंस	-11.4187
▁रोहिणी	-11.4187
▁कंटेंट	-11.4187
▁पैटर्न	-11.4187
▁जसवंत	-11.4187
▁उपराष्ट्रपति	-11.4187
▁रिसीव	-11.4187
▁रस्सी	-11.4187
▁मिडिल	-11.4187
▁तमिल	-11.4188
▁महालक्ष्मी	-11.4188
थपथ	-11.4188
्यु	-11.4188
▁इटावा	-11.4188
▁शिष्य	-11.4189
▁स्कूटर	-11.4189
▁एसटीएफ	-11.4189
▁अन्तर्	-11.419
▁निर्देशानुसार	-11.4191
▁तु	-11.4194
▁गुस्साए	-11.4197
ाप	-11.4208
▁केवी	-11.4212
▁प्रवासी	-11.4214
▁उलझ	-11.4216
▁अन्याय	-11.4218
▁परीक्षाएं	-11.422
▁गड्	-11.4222
▁कालू	-11.4225
▁इलेक्ट	-11.4227
▁तान	-11.4229
▁लै	-11.4229
▁भंडारे	-11.4231
▁बड	-11.4238
िये	-11.424
▁सकल	-11.4256
ताशा	-11.4262
▁बनीं	-11.4265
मणि	-11.4265
▁सीआईए	-11.4269
▁कोमल	-11.4273
▁क़	-11.4275
इंग	-11.4281
▁मौन	-11.4282
▁निराशा	-11.4289
ाला	-11.4291
▁नौकरिय	-11.4293
▁गम	-11.4298
96	-11.4304
▁आदेशों	-11.4305
▁अखंड	-11.4309
▁रश्मि	-11.431
▁संग्रह	-11.4311
▁बाउंड्री	-11.4311
तृक	-11.4312
महायुति	-11.4312
▁कुल्हाड़ी	-11.4312
▁धैर्य	-11.4312
▁बिजनौर	-11.4312
▁अडाणी	-11.4312
▁अथॉरिटी	-11.4312
▁ट्रम्प	-11.4312
▁चक्रवर्ती	-11.4312
▁रॉकेट	-11.4312
▁पलायन	-11.4312
▁आइडिया	-11.4312
▁महाराणा	-11.4312
▁सहकारिता	-11.4312
▁चिंतित	-11.4312
▁बेस्ड	-11.4313
▁गंगाजल	-11.4313
▁सौगात	-11.4313
▁मालिनी	-11.4313
▁सट्टा	-11.4313
▁अर	-11.4315
▁मिट्	-11.4316
▁मराठी	-11.4316
रादित्य	-11.4316
किन	-11.4319
▁हल्का	-11.4321
▁चलिए	-11.4324
▁89	-11.4327
▁बोग	-11.4329
▁खोद	-11.4332
▁मं	-11.4332
▁RSS	-11.4335
▁भगवती	-11.4336
▁मानवता	-11.4337
▁मार्केटिंग	-11.4338
▁सेवादार	-11.434
▁राजभर	-11.4341
जहाँ	-11.4341
▁कबाड़	-11.4342
▁सरसों	-11.4342
▁फ्रीज	-11.4344
78	-11.4353
बिहार	-11.4353
▁उतनी	-11.4365
जाना	-11.4365
▁खु	-11.4374
थर	-11.4374
97	-11.4383
ir	-11.4388
▁पोर्ट	-11.4394
डि	-11.4396
▁आवेदक	-11.4398
▁हनी	-11.4399
ालय	-11.4401
▁W	-11.4406
▁दया	-11.4408
▁मी	-11.4409
▁फौज	-11.4409
▁हस	-11.4411
कप्तान	-11.4411
चढ़ाव	-11.4413
जनक	-11.4417
▁उमड़	-11.4427
ic	-11.443
man	-11.443
▁निर्धार	-11.4434
▁2500	-11.4435
▁अफेयर	-11.4435
▁भंवर	-11.4437
▁पुण्य	-11.4437
▁इमाम	-11.4437
▁चाइल्ड	-11.4438
▁जाह्नवी	-11.4438
▁पादुकोण	-11.4438
▁मन्दिर	-11.4438
▁मैराथन	-11.4438
▁वाटिका	-11.4438
▁श्राद्ध	-11.4438
▁स्मैक	-11.4438
▁ऋतिक	-11.4438
▁डिप्रेशन	-11.4438
▁व्हाट्सएप	-11.4438
▁एग्रीमेंट	-11.4438
▁महामंडलेश्वर	-11.4438
▁हरिओम	-11.4438
▁ग्रैंड	-11.4438
▁टेनिस	-11.4438
▁भीमराव	-11.4439
▁सत्यनारायण	-11.4439
▁स्टंट	-11.4439
▁जलाभिषेक	-11.4439
▁ड्रॉ	-11.4439
यूनाइटेड	-11.4439
▁जयप्रकाश	-11.4439
▁news	-11.4439
▁भिजवाया	-11.4439
▁देशभक्ति	-11.4439
▁अभियोजन	-11.444
▁अभिजीत	-11.444
▁बोनस	-11.444
▁अमरनाथ	-11.4442
▁बॉबी	-11.4442
▁अधिकृत	-11.4443
▁(24)	-11.4447
मिल	-11.4447
▁साहेब	-11.4452
▁सोया	-11.4457
▁मैक	-11.4458
▁लड़ना	-11.4463
रूद्ध	-11.4464
▁बट	-11.4465
श्वस्त	-11.4469
▁रहीम	-11.4476
जुल	-11.4483
▁रईस	-11.4484
▁फेंकने	-11.4486
▁लोहा	-11.4487
दे	-11.4489
▁जामा	-11.4492
सीबीएसई	-11.4496
▁बचाओ	-11.4503
▁सिमट	-11.4504
▁घुसा	-11.4509
▁टॉपर	-11.4512
st	-11.4512
ीज	-11.453
▁कोट	-11.4534
पाकिस्तान	-11.4541
कल्याणकारी	-11.4545
▁तीख	-11.4554
▁ढ	-11.4554
▁वस्तु	-11.4563
▁बजाए	-11.4565
▁शिमला	-11.4566
▁Kapoor	-11.4566
▁उफान	-11.4566
▁कुख्यात	-11.4566
▁डोटासरा	-11.4566
▁निलंबन	-11.4566
▁परीक्षार्थियों	-11.4566
▁मानसरोवर	-11.4566
▁सिंहभूम	-11.4566
▁अब्बास	-11.4566
▁ख़ुद	-11.4566
▁फोरलेन	-11.4567
▁ईदगाह	-11.4567
▁बृजभूषण	-11.4567
▁कृत्य	-11.4567
▁गुरमीत	-11.4567
▁नितेश	-11.4567
▁पॉक्सो	-11.4567
▁दमोह	-11.4567
▁परिहार	-11.4567
▁रायसेन	-11.4568
▁रंगोली	-11.4568
▁शताब्दी	-11.457
▁महेन्द्र	-11.457
▁बेबी	-11.4571
धी	-11.4572
▁रामकुमार	-11.4572
▁कंधे	-11.4576
▁हरदा	-11.4577
▁पहनाकर	-11.4582
▁मेजबानी	-11.4583
वनीत	-11.4584
▁मानती	-11.4587
चे	-11.4588
▁2-2	-11.4588
▁रूक	-11.4589
स्प	-11.4589
▁मूल्यों	-11.459
िमा	-11.4592
▁येलो	-11.4595
▁सुधा	-11.4596
▁यूनिट्स	-11.4598
पट	-11.4601
▁EV	-11.4604
▁पीसीसी	-11.4605
▁मचाने	-11.4606
्ज़	-11.4614
नेस	-11.4615
भूमि	-11.4616
राणिक	-11.4631
▁लेखन	-11.4639
▁विजयी	-11.464
▁एकल	-11.465
ढ़ा	-11.4658
▁बरस	-11.4669
दु	-11.467
दिल्ली	-11.4672
▁चुनी	-11.4672
▁स्वाद	-11.4674
्रिक	-11.4683
▁अमृता	-11.4686
▁प्लाट	-11.4693
▁अनियमितता	-11.4694
▁देवा	-11.4694
▁एफएसएल	-11.4696
▁क्रियान्वयन	-11.4696
▁ठिकाने	-11.4696
▁विक्रांत	-11.4696
▁शोएब	-11.4696
▁सर्वसम्मत	-11.4696
▁फरीदकोट	-11.4696
▁जहीर	-11.4696
▁इकाइय	-11.4697
▁संबद्ध	-11.4697
▁रोटरी	-11.4697
▁सुरजीत	-11.4698
▁ऊंचे	-11.4698
मुक्त	-11.4699
▁परंपरागत	-11.47
▁सगे	-11.47
▁देवघर	-11.4702
▁हिना	-11.4702
▁प्लेयर्स	-11.4706
▁ट्रैवल	-11.4707
बन	-11.4707
▁In	-11.4707
ैद	-11.4711
▁तिराहा	-11.4712
▁पात्रता	-11.4713
▁खेप	-11.4713
▁आहार	-11.4715
▁नाच	-11.4715
इल	-11.4716
▁कैदियों	-11.4717
▁2003	-11.472
▁सलामी	-11.4721
▁दिलवा	-11.4723
स्क	-11.4725
▁तेज़	-11.4731
फाई	-11.4738
▁जोड़ो	-11.4739
▁दस्त	-11.4743
▁अवध	-11.4744
▁ठेकेदारों	-11.4745
ँ	-11.4747
▁एवज	-11.4751
▁स्ट	-11.4755
▁रोकना	-11.4756
▁स्टार्ट	-11.4756
रुक	-11.4764
ch	-11.4769
▁चैन	-11.4773
▁स्वभाव	-11.4775
▁रामदेव	-11.478
▁कॉ	-11.4786
▁सिद्धांत	-11.4788
▁चौंकान	-11.4793
▁पत्रों	-11.4797
▁विद्रोह	-11.4799
विदेश	-11.4804
सराय	-11.4807
▁झूठी	-11.4811
▁धा	-11.4815
▁ढक	-11.4817
▁औपचारिक	-11.4822
▁जटिल	-11.4822
▁प्रजापत	-11.4826
AI	-11.4827
▁उन्नाव	-11.4828
▁एपिसोड	-11.4828
▁डिंपल	-11.4828
▁तब्दील	-11.4828
▁तेलुगु	-11.4828
▁वर्चुअल	-11.4828
▁टॉयलेट	-11.4828
▁इंश्योरेंस	-11.4828
▁मीडियम	-11.4828
▁ऋचा	-11.4828
▁बदबू	-11.4828
▁ग्रोथ	-11.4828
▁अग्रसेन	-11.4828
▁खत्री	-11.4828
▁संग्राम	-11.4828
▁टूरिज्म	-11.483
▁फ़ीसदी	-11.483
▁बीएसई	-11.483
▁सिराज	-11.4832
▁दही	-11.4832
▁स्‍	-11.4833
.75	-11.4833
▁मराठा	-11.4835
▁बागी	-11.4835
▁जुटाने	-11.4849
चल	-11.4854
▁फौजी	-11.4858
▁टल	-11.4862
▁केएल	-11.4863
07	-11.4868
▁खोकर	-11.4869
▁रेटिंग	-11.4874
▁रिकॉर्डिंग	-11.4877
▁पल्लव	-11.4882
79	-11.4887
▁पिला	-11.4888
▁कान्हा	-11.4889
▁ठंडी	-11.4891
▁U	-11.4903
बुल्लाह	-11.4909
▁पॉल	-11.491
▁रोमांचक	-11.4917
▁भु	-11.4919
कृत	-11.4923
▁बैंकिंग	-11.4926
▁बरसा	-11.4927
▁नग	-11.4929
▁प्रवास	-11.493
▁बीपी	-11.4936
ंज	-11.4939
▁वेव	-11.4942
▁वॉर	-11.4943
▁सूख	-11.4943
▁तिराह	-11.4945
▁जीने	-11.4947
बिल	-11.4955
▁राइफल	-11.4956
▁विक्रेता	-11.4957
चक	-11.4959
▁संतुष्ट	-11.496
▁दंतेवाड़ा	-11.4961
▁पॉजिटिव	-11.4961
▁सैमसंग	-11.4961
▁SHO	-11.4961
▁डिस्ट्रिक्ट	-11.4961
▁मसूद	-11.4961
▁सर्राफ	-11.4961
▁वायुसेना	-11.4961
▁तंवर	-11.4961
▁तिरुपति	-11.4961
▁धनखड़	-11.4961
▁मतभेद	-11.4961
▁बड़वानी	-11.4962
▁भूखंड	-11.4962
▁सीमावर्ती	-11.4962
▁लहू	-11.4962
▁पुनीत	-11.4962
▁सतपाल	-11.4963
▁कैंपेन	-11.4963
▁व्यवस्थित	-11.4964
▁आर्टिकल	-11.4964
▁कैम्प	-11.4964
▁सेंचुरी	-11.4964
▁अमरजीत	-11.4965
▁घने	-11.4965
▁विभागाध्यक्ष	-11.4965
▁धमाका	-11.4965
बड़ी	-11.4965
▁बग	-11.4966
▁राठी	-11.4968
▁सन्नी	-11.4968
▁घड़ी	-11.4969
▁Z	-11.497
▁डीजी	-11.497
▁मीन	-11.4972
▁बहने	-11.4973
▁सेलेब्	-11.4975
▁झूम	-11.4979
▁बॉलिंग	-11.4979
ेश्वरी	-11.4979
राय	-11.498
▁सूखे	-11.498
▁हटने	-11.4982
▁एक्सपर्ट्स	-11.4982
OS	-11.4988
▁भील	-11.499
▁क्लीनिक	-11.4991
देय	-11.4999
▁जानती	-11.4999
▁बाड़ी	-11.5002
▁नौकर	-11.5004
▁एनसीसी	-11.5008
▁900	-11.5009
▁शान	-11.5021
न्यू	-11.5026
▁नाते	-11.5031
▁वीसी	-11.5039
▁रची	-11.504
▁बारह	-11.5041
26	-11.5042
▁घेरे	-11.5042
सह	-11.5049
▁मंगवा	-11.5053
कॉम	-11.5058
▁इंसाफ	-11.5062
कौन	-11.5066
घात	-11.5069
सुबह	-11.5071
▁p	-11.5084
▁फा	-11.5085
▁दुर्गेश	-11.5095
▁मुफस	-11.5096
▁अक्तूबर	-11.5096
▁अरशद	-11.5096
▁ऑडिटोरियम	-11.5096
▁टर्मिनस	-11.5096
▁पुष्य	-11.5096
▁प्रशिक्षु	-11.5096
▁फैकल्टी	-11.5096
▁महासमुंद	-11.5096
▁संरक्षित	-11.5096
▁साजिद	-11.5097
▁मलबे	-11.5097
▁मालीवाल	-11.5097
▁अंजू	-11.5097
▁इंकार	-11.5098
▁ठहराव	-11.5098
▁अर्जित	-11.5098
▁आईसीयू	-11.5098
▁सिगरेट	-11.5098
▁बरवाला	-11.5098
▁रविशंकर	-11.5099
▁जीवंत	-11.51
▁कुंदन	-11.5101
▁रजक	-11.5102
▁यूके	-11.5105
▁तलब	-11.5106
▁खाया	-11.5106
▁पहलू	-11.5107
▁घुसपैठ	-11.5108
▁विविध	-11.5108
▁टो	-11.511
71	-11.5111
यन	-11.5113
ज़ा	-11.5113
▁कटरा	-11.5116
▁लख	-11.5117
फर	-11.5117
▁ढूंढने	-11.5117
.35	-11.5122
74	-11.5123
▁नालों	-11.5123
▁कद	-11.5123
▁करवाते	-11.5125
▁मनाते	-11.5126
▁विजन	-11.5127
▁समझना	-11.5129
▁निबंध	-11.513
धारा	-11.513
छा	-11.513
वालों	-11.5132
न्न	-11.5133
▁होस्ट	-11.5145
▁श्रेयस	-11.5145
निक	-11.5148
▁किला	-11.515
▁लिव	-11.5155
▁एनटीए	-11.516
▁डीएवी	-11.517
मेट	-11.5178
जयपुर	-11.518
▁रुका	-11.5182
योजित	-11.5184
han	-11.5189
स्ट्र	-11.5193
▁फ्ल	-11.5196
▁बेचे	-11.5201
68	-11.5202
इंदौर	-11.5208
▁ट्रिप	-11.5216
▁दबोच	-11.5217
▁हिमालय	-11.5219
▁हैंड	-11.522
06	-11.5224
▁कंचन	-11.523
्फ	-11.5231
▁छुड़ा	-11.5232
▁Price	-11.5232
▁निष्ठा	-11.5233
▁यूनुस	-11.5233
▁सफारी	-11.5233
▁सूचकांक	-11.5233
▁हंगामे	-11.5233
▁मुहिम	-11.5234
▁इन्वेस्टमेंट	-11.5234
▁बंटवारा	-11.5234
▁उमंग	-11.5234
▁नसीम	-11.5234
▁पार्टनरशिप	-11.5234
▁रोचक	-11.5234
▁महामारी	-11.5234
▁यथा	-11.5234
▁डीएपी	-11.5234
▁खुशबू	-11.5234
▁तुम्हारे	-11.5234
▁ब्रजेश	-11.5234
▁पदयात्रा	-11.5234
▁शंकराचार्य	-11.5235
▁मुआयना	-11.5235
▁एसडीआरएफ	-11.5235
▁लाहौर	-11.5235
▁सरिता	-11.5235
▁रिम्स	-11.5235
▁2898	-11.5235
▁प्रसारण	-11.5235
▁सत्येंद्र	-11.5235
▁हंसराज	-11.5236
▁डीपी	-11.5236
▁थोक	-11.5236
▁नॉर्मल	-11.5236
▁रहवासी	-11.5236
▁भंडारण	-11.5236
▁हारे	-11.5237
▁एनसीपी	-11.5237
▁बीएसपी	-11.5238
▁राजस्थानी	-11.5238
▁चिट्ठी	-11.5238
▁शॉपिंग	-11.5239
▁लंगर	-11.524
▁रिहाई	-11.5242
▁चौड़ा	-11.5243
▁एडवाइजरी	-11.5243
▁बरी	-11.5243
▁on	-11.5244
▁ढा	-11.5244
▁माफियाओं	-11.5245
▁भव	-11.5245
फी	-11.5246
▁बालोद	-11.5249
डॉ	-11.5252
▁तबाही	-11.5253
▁डू	-11.5258
▁बांटा	-11.5258
▁पूरन	-11.5259
▁अमला	-11.5259
▁राइज	-11.526
▁पालकी	-11.526
▁बनवा	-11.5266
▁करौली	-11.5269
▁जिया	-11.5273
▁भोजपुरी	-11.528
▁गलौज	-11.5284
▁बिता	-11.5285
ार्थ	-11.529
.55	-11.529
हु	-11.5292
▁जाय	-11.5292
▁बादशाह	-11.5294
वर्धन	-11.5296
▁ईवी	-11.5298
▁कटने	-11.5302
▁बंगाली	-11.5307
ाॅ	-11.5307
w	-11.5312
▁चलना	-11.5313
जिन	-11.5315
▁/	-11.5319
▁पुराण	-11.5319
▁निपटा	-11.5321
▁जानना	-11.5325
फिट	-11.5327
पि	-11.5329
▁उतरा	-11.533
मजीत	-11.5332
यै	-11.5336
गुरु	-11.5343
▁चरम	-11.5346
सामाजिक	-11.5347
पुलिस	-11.5347
बोर्ड	-11.5347
सभा	-11.5353
त्री	-11.5357
▁स्कैन	-11.5359
▁कुर	-11.536
▁इन्	-11.5365
ूराम	-11.5366
सि	-11.5367
▁खाक	-11.5367
गढ	-11.5369
▁शुक्र	-11.5369
▁जॉर्ज	-11.5369
▁सूबे	-11.5372
▁अपग्रेड	-11.5372
▁Video	-11.5372
▁अंपायर	-11.5372
▁करप्शन	-11.5372
▁डिस्काउंट	-11.5372
▁पुरस्कृत	-11.5372
▁शहादत	-11.5372
▁साकेत	-11.5372
▁कयास	-11.5372
▁देवांगन	-11.5372
▁सुपारी	-11.5372
▁एयरफोर्स	-11.5372
▁खट्टर	-11.5372
▁खुलेआम	-11.5372
▁कबड्डी	-11.5373
▁मोनिका	-11.5373
▁रौशन	-11.5373
▁लोकायुक्त	-11.5373
▁सीरियल	-11.5373
▁वैसा	-11.5373
▁मैनपुरी	-11.5373
▁प्रमंडल	-11.5373
▁रिटायरमेंट	-11.5373
▁आक्रमण	-11.5373
रिफिकेशन	-11.5373
▁राइस	-11.5374
▁चुनौतियां	-11.5374
▁निशांत	-11.5374
▁चैत्र	-11.5374
▁जिम्मा	-11.5374
▁1984	-11.5375
▁ऊँ	-11.5375
▁1998	-11.5375
फल	-11.5375
▁विनायक	-11.5377
▁क्रेन	-11.5377
▁जातियों	-11.5379
86	-11.5381
▁लंबाई	-11.5382
▁अबतक	-11.5383
▁श्रीकांत	-11.5385
▁विस्फोटक	-11.5386
▁आकाशीय	-11.5387
-16	-11.5388
ोप	-11.5388
▁चलाना	-11.5392
61	-11.5396
▁बहनें	-11.5397
▁उठता	-11.5398
पैर	-11.5398
▁गुम	-11.5398
▁ट्रेनर	-11.5405
▁पेट्रोलिंग	-11.5405
▁नील	-11.541
▁गोपी	-11.5421
▁1.	-11.5425
▁जरा	-11.5427
▁पलक	-11.5428
▁चेंज	-11.5445
शंस	-11.5449
हाट	-11.545
▁रावल	-11.545
▁बिखर	-11.5452
र्ज	-11.5462
▁(2)	-11.5462
▁उग्र	-11.5466
▁रुझान	-11.5472
तो	-11.5473
▁जरूरतमंद	-11.5473
प्रिय	-11.5481
▁बिंद	-11.5485
शुल्क	-11.5487
कहीं	-11.5488
li	-11.5494
र्थ	-11.55
63	-11.5501
▁सू	-11.5501
▁होर्डिंग	-11.5508
▁अभद्र	-11.551
65	-11.551
▁अकबर	-11.5511
▁रस्म	-11.5512
▁अहसास	-11.5513
▁एजेंडे	-11.5513
▁फंक्शन	-11.5513
▁सरफराज	-11.5513
▁हिजबुल्लाह	-11.5513
▁उपद्रव	-11.5513
▁चड्ढा	-11.5513
▁टेक्निकल	-11.5513
▁बॉयफ्रेंड	-11.5513
श्मशान	-11.5513
▁फीडबैक	-11.5513
▁आदमपुर	-11.5513
▁प्रशिक्षित	-11.5513
▁एयरक्राफ्ट	-11.5513
▁किन्नर	-11.5513
▁उत्थान	-11.5513
▁मिस्त्री	-11.5513
▁सैलजा	-11.5513
▁हूँ	-11.5513
▁अलॉट	-11.5514
▁चैंपियंस	-11.5514
▁माथा	-11.5514
▁स्वीप	-11.5514
▁एनओसी	-11.5515
▁वाहिनी	-11.5516
▁AQI	-11.5516
▁एयरलाइन	-11.5516
▁बॉम्बे	-11.5516
▁जवाहरलाल	-11.5516
▁बापू	-11.5517
▁फोरम	-11.5517
▁दिलजीत	-11.552
वंत	-11.552
ट्	-11.5523
▁4-5	-11.5524
▁मशीनें	-11.5525
▁देवरिया	-11.5525
▁वीं	-11.5526
▁दसवीं	-11.5526
▁प्लेन	-11.5526
▁रबी	-11.5527
▁बचें	-11.5529
डू	-11.5529
▁धनु	-11.553
91	-11.5532
▁पंजी	-11.5532
▁जीप	-11.5533
ट्टा	-11.5536
▁उत्साहित	-11.5538
:15	-11.5539
▁परमिट	-11.5542
▁सिंघल	-11.5542
वाया	-11.5543
ष्ट	-11.5543
रोकर	-11.5544
▁एज	-11.5546
▁संभवत	-11.5547
▁स्टार्स	-11.5549
▁खोजने	-11.5549
तार	-11.5556
▁जनों	-11.5557
▁लेगा	-11.5558
▁एक्टिविटी	-11.5559
िंदा	-11.5572
पीएस	-11.5574
गम	-11.5575
▁गाया	-11.5577
na	-11.558
▁मानता	-11.5584
स्तरीय	-11.5585
▁किले	-11.5587
▁संभावनाओं	-11.5591
▁गौड़	-11.5599
▁भुगतन	-11.56
▁मधुर	-11.5608
थल	-11.5612
▁इंडेक्स	-11.5615
▁मौतें	-11.5615
▁वा	-11.562
02	-11.5624
▁सावधान	-11.5626
▁सपन	-11.5628
पांच	-11.5631
▁साहस	-11.5633
स्टर	-11.5634
73	-11.5636
▁पद्म	-11.5642
मान्य	-11.5644
▁झाड़	-11.565
▁उपायों	-11.5652
संशोधित	-11.5656
▁Singh	-11.5656
▁अत्याधुनिक	-11.5656
▁आषाढ़	-11.5656
▁एजेंडा	-11.5656
▁कुरैशी	-11.5656
▁फाइनेंशियल	-11.5656
▁ब्रॉन्ज	-11.5656
▁रितेश	-11.5656
▁सुपरवाइजर	-11.5656
▁गुड्डू	-11.5656
▁भौतिक	-11.5656
▁ट्रूडो	-11.5656
▁Vrat	-11.5656
▁ट्रीटमेंट	-11.5656
▁शिप्रा	-11.5656
▁फॉरेस्ट	-11.5656
▁लॉटरी	-11.5656
▁विस्थापित	-11.5656
▁बालाघाट	-11.5657
▁मसाला	-11.5657
▁सुदर्शन	-11.5657
▁होशियारपुर	-11.5657
▁धाकड़	-11.5657
▁मिलीभगत	-11.5657
▁1989	-11.5658
▁कार्यपालक	-11.5658
▁शहजाद	-11.5658
▁स्वर्गीय	-11.5658
▁कंस्ट्रक्शन	-11.5658
▁डमी	-11.5658
▁मूर्तियां	-11.5658
▁रौनक	-11.5658
▁बै	-11.5661
▁विविधता	-11.5662
▁पेटी	-11.5663
▁शिवानी	-11.5666
▁मोगा	-11.5667
▁सद्भाव	-11.5668
▁वंश	-11.567
▁शीट	-11.5674
्च	-11.5675
▁लाइटिंग	-11.5677
▁हरदीप	-11.5679
▁(20)	-11.5681
▁अपनाएं	-11.5683
▁ट्रेस	-11.5684
▁नशीला	-11.5686
▁देखेंगे	-11.5686
▁चढ़ाने	-11.5687
गेट	-11.5693
ग्र	-11.5693
▁बीबी	-11.5696
▁हरेंद्र	-11.5699
देवी	-11.5704
ोज	-11.5705
ोरल	-11.5707
▁लेखा	-11.5714
ta	-11.5716
05	-11.5719
.80	-11.5722
▁जनक	-11.5722
लिन	-11.5724
▁डेड	-11.5724
▁पूर्वक	-11.5733
सेन	-11.5734
▁तरीक	-11.5745
रल	-11.5752
वाह	-11.5755
:45	-11.5758
▁रण	-11.5759
ढा	-11.576
▁मानवाधिकार	-11.576
▁कार्मिक	-11.5761
▁झांस	-11.5761
खो	-11.5764
खंड	-11.5767
एसपी	-11.577
प्रतिष्ठा	-11.5776
▁खासा	-11.5777
▁उद्यम	-11.5778
▁भो	-11.5781
▁जीतन	-11.5783
88	-11.5784
▁वंदन	-11.5788
▁समा	-11.5789
नीय	-11.5791
▁बीएड	-11.5798
▁इंफ्रास्ट्रक्चर	-11.5801
▁चतुर्दशी	-11.5801
▁चातुर्मास	-11.5801
▁पाटलिपुत्र	-11.5801
▁फ़लस्तीन	-11.5801
▁फ्लॉप	-11.5801
▁मास्टरमाइंड	-11.5801
▁वसुंधरा	-11.5801
▁वैरिएंट	-11.5801
▁उखाड़	-11.5801
▁एग्रीकल्चर	-11.5801
▁स्ट्रोक	-11.5801
▁सहभागिता	-11.5801
▁ऑक्शन	-11.5801
▁माधुरी	-11.5801
▁बोरवेल	-11.5801
▁समुच	-11.5801
▁संकाय	-11.5802
▁फिलिस्तीन	-11.5802
▁भोलेनाथ	-11.5802
▁लायन	-11.5802
▁संसार	-11.5802
▁एडीजी	-11.5802
▁जिसमे	-11.5802
▁देहरादून	-11.5803
▁एमएलसी	-11.5803
▁सीएसपी	-11.5803
▁अनुष्का	-11.5803
▁बलविंदर	-11.5803
▁रिपब्लिकन	-11.5803
▁कोठारी	-11.5804
▁डेस्क	-11.5804
▁अनिता	-11.5804
▁शक्तियों	-11.5806
▁संगठित	-11.5807
▁न्यूज़	-11.5807
▁युवतिय	-11.5807
▁वीडी	-11.5807
▁अपार	-11.5809
▁रास	-11.581
▁चेतना	-11.5811
▁हाजी	-11.5812
▁बरामदगी	-11.5813
▁बॉक्सिंग	-11.582
00	-11.5821
▁लड़ते	-11.5824
▁जीविका	-11.5824
▁सर्द	-11.5838
▁चढ़ने	-11.5842
▁त्योहारों	-11.5847
▁नवाज	-11.5849
महा	-11.5852
सू	-11.5861
रेन	-11.5863
▁बेला	-11.5863
▁पाट	-11.5865
▁सीखा	-11.5868
▁पेशे	-11.5869
▁सीएस	-11.5869
▁परम	-11.5872
▁दंग	-11.5873
▁धारक	-11.5874
66	-11.5877
▁DC	-11.5889
▁अन्न	-11.5892
भी	-11.5892
▁साइज	-11.5895
सीसी	-11.5897
भाव	-11.5902
▁अनोख	-11.5904
।""	-11.5906
▁नौजवान	-11.5908
स्वामी	-11.5911
क्षेत्र	-11.5912
▁आफ	-11.5913
तरह	-11.5914
▁फेक	-11.5922
बेटे	-11.5928
▁भंडारी	-11.5929
ोस	-11.5931
▁निर्व	-11.5936
पाठ	-11.5941
िफ	-11.5944
▁आत्मनिर्भर	-11.5944
ंबेडकर	-11.5944
▁क्र	-11.5946
▁अभियोजक	-11.5948
▁ईंधन	-11.5948
▁उत्तीर्ण	-11.5948
▁धनतेरस	-11.5948
▁बालोतरा	-11.5948
▁सशक्तिकरण	-11.5948
▁पॉपुलर	-11.5948
▁मंदसौर	-11.5948
▁रसीद	-11.5948
▁रघुवंशी	-11.5948
▁अंजलि	-11.5948
▁रथयात्रा	-11.5948
▁बीसीसीआई	-11.5948
▁पद्मश्री	-11.5948
▁बीजापुर	-11.5948
▁डायरिया	-11.5948
▁उज्जवल	-11.5948
▁रविन्द्र	-11.5948
▁गुफा	-11.5949
▁वेस्टर्न	-11.5949
▁तेवर	-11.5949
▁पुनर्वास	-11.5949
▁बुलंद	-11.5949
▁कार्तिकेय	-11.5949
▁फतेहगढ़	-11.5949
▁लाभुक	-11.5949
▁एसडीओपी	-11.5949
मीत	-11.595
▁ड्राई	-11.595
▁पूर्वांचल	-11.595
▁पुष्पेंद्र	-11.595
▁मॉक	-11.5951
▁ढाबा	-11.5951
▁कंडक्टर	-11.5952
▁चैट	-11.5952
ाधीन	-11.5952
▁जाखड़	-11.5954
▁रहवासियों	-11.5955
▁आतंकवादियों	-11.5958
▁समाप्ति	-11.596
▁पूर्ति	-11.5961
▁गिराया	-11.5961
▁डंडों	-11.5962
▁आठवीं	-11.5964
▁रोगियों	-11.5968
▁ऑस्ट्रेलियाई	-11.5969
▁3000	-11.5971
▁बरती	-11.5971
▁पाक	-11.5973
▁भयान	-11.5973
▁लोको	-11.5976
▁किचन	-11.5986
सम	-11.5988
▁f	-11.5992
बु	-11.5997
▁सेक्स	-11.5998
▁पड़ते	-11.6002
▁दुश्मनी	-11.6003
माने	-11.6005
▁लीगल	-11.6015
▁ठहरा	-11.6017
▁झूठा	-11.6019
▁बर्फ	-11.6026
▁ग्रे	-11.6032
▁अम	-11.6038
▁किट	-11.6043
▁माँ	-11.6045
▁2002	-11.6046
शो	-11.6054
▁सती	-11.6057
▁आयोजक	-11.6058
▁शह	-11.6063
▁121	-11.6067
प्रसाद	-11.6067
▁अमान	-11.607
छात्राएं	-11.6072
द्	-11.6076
▁i	-11.6077
अपनी	-11.6077
▁जुन	-11.6077
वेज	-11.6082
▁गुटों	-11.6082
▁घोर	-11.6085
पथ	-11.6086
▁भगवा	-11.6088
हो	-11.609
आइ	-11.609
▁संरचना	-11.6092
▁कन्नौज	-11.6094
▁Update	-11.6096
▁Office	-11.6097
▁इस्माइल	-11.6097
▁जगदलपुर	-11.6097
▁नेतन्याहू	-11.6097
▁संगोष्ठी	-11.6097
▁सब्जियों	-11.6097
▁स्क्रिप्ट	-11.6097
▁सीआरपीएफ	-11.6097
▁हॉलीवुड	-11.6097
▁असीम	-11.6097
▁पारदर्शिता	-11.6097
▁नजरअंदाज	-11.6098
▁असुविधा	-11.6098
▁मैहर	-11.6098
▁बिगड़ी	-11.6098
▁रजनीश	-11.6098
▁मिसाल	-11.6098
▁शीतलहर	-11.6098
▁कचहरी	-11.6099
▁नीलेश	-11.6099
▁नौकरियां	-11.6099
▁प्रचंड	-11.61
पेड	-11.61
▁यूजीसी	-11.61
▁डाइट	-11.61
▁बीएससी	-11.61
▁होटलों	-11.61
सार	-11.61
▁बांगड़	-11.61
▁ललन	-11.6101
▁पालीवाल	-11.6101
▁स्लीपर	-11.6102
▁बताएं	-11.6102
▁बलि	-11.6104
▁वन्यजीव	-11.6106
क़	-11.6106
संघ	-11.6108
▁बिस्वा	-11.6109
▁स्टॉप	-11.6111
▁ट्राली	-11.6111
▁डांगी	-11.6112
▁धमकाने	-11.6114
▁संभावनाएं	-11.6115
लर	-11.6118
▁ब्र	-11.612
▁पालना	-11.6121
ोवा	-11.6121
▁कं	-11.6121
▁क्लेम	-11.6123
▁शाहपुर	-11.6123
▁कच्चा	-11.6129
52	-11.613
▁AL	-11.6131
▁गांधीनगर	-11.6132
हीन	-11.6135
▁नवा	-11.6142
▁साफ़	-11.6146
ट्स	-11.6149
▁एमजी	-11.6159
▁फलों	-11.6161
▁विजयपुर	-11.6162
▁कांच	-11.6168
▁टर	-11.6169
▁डीएन	-11.6171
76	-11.6171
▁खरे	-11.6173
▁डीके	-11.6185
▁रजा	-11.6187
▁86	-11.6204
93	-11.6209
▁विश	-11.621
र्म	-11.6212
▁US	-11.6217
▁जौहर	-11.6219
▁प्रकाशन	-11.6221
वारी	-11.6223
प्रथम	-11.6223
उन्होंने	-11.6224
लेकिन	-11.6224
▁ट्रे	-11.6225
▁साधत	-11.6236
▁कस्टम	-11.6239
▁सत्यम	-11.6239
▁मेहर	-11.624
▁कैपिटल	-11.6243
▁आसिफ	-11.6245
84	-11.6246
हरी	-11.6246
▁निम्न	-11.6249
▁Box	-11.6249
▁आयरलैंड	-11.6249
▁कांफ्रेंस	-11.6249
▁पद्धति	-11.6249
▁मुद्रास्फीति	-11.6249
▁शृंगार	-11.6249
▁सलूंबर	-11.6249
▁स्टूडियो	-11.6249
▁क्लियर	-11.6249
▁जशपुर	-11.6249
▁अखाड़ा	-11.6249
▁उर्मिला	-11.6249
▁कत्ल	-11.6249
▁तपस्या	-11.6249
रेवेन्यू	-11.6249
▁ताजमहल	-11.6249
▁भनक	-11.6249
▁पार्थिव	-11.6249
▁नियोजन	-11.6249
▁सुषमा	-11.6249
▁जलाशय	-11.6249
▁सिंघवी	-11.6249
▁रीति	-11.6249
▁टोटल	-11.6249
▁गोकुल	-11.625
▁कष्ट	-11.625
87	-11.625
▁सबकुछ	-11.625
▁अतीत	-11.6251
▁इमोशनल	-11.6251
▁650	-11.6253
▁नजारा	-11.6253
▁दवाएं	-11.6254
▁हिन्दी	-11.6254
▁बॉय	-11.6255
▁दोगुना	-11.6256
▁सरमा	-11.6256
▁निपटारा	-11.6256
▁दुखद	-11.6256
▁फिराक	-11.6257
▁अधूरा	-11.6258
▁रेन	-11.6259
▁लोकप्रियता	-11.6259
▁सतर्कता	-11.626
प्रभावशाली	-11.6261
▁मेंबर्स	-11.6262
▁रुकवा	-11.6262
सल	-11.6264
▁कैफे	-11.6265
▁इसपर	-11.6267
▁साइ	-11.6267
त्रा	-11.6267
▁क्रूज	-11.627
▁टोली	-11.628
िद	-11.6282
2022-23	-11.6284
▁पीर	-11.6286
▁एसएस	-11.6287
▁दत्ता	-11.6288
लेट	-11.6288
▁उलट	-11.6289
▁शु	-11.6289
▁निकलना	-11.6292
▁मंगा	-11.6294
पीएम	-11.6296
▁स्क	-11.63
▁गोप	-11.63
▁सुशीला	-11.6302
▁दिलचस्पी	-11.6304
▁सलाम	-11.6307
क्का	-11.6319
▁बैठकें	-11.632
.24	-11.6325
▁मची	-11.6326
▁पहुंचाई	-11.6327
ताल	-11.6328
▁रुकी	-11.6332
सीमा	-11.634
यु	-11.6341
▁तोड़ी	-11.6344
▁जित	-11.6345
▁शमी	-11.6359
शाह	-11.6365
भूषण	-11.6367
ंदर	-11.6369
विधान	-11.6376
ग्राउंड	-11.6377
▁ते	-11.6378
▁कमांड	-11.6381
▁दाखिला	-11.6383
▁2.0	-11.6386
▁प्रीत	-11.6387
ेरी	-11.6391
ाक	-11.6393
400	-11.6399
ूं	-11.6401
ोत्तम	-11.6402
▁अखाड़े	-11.6403
▁तत्पर	-11.6403
▁रोमांटिक	-11.6403
▁लखीसराय	-11.6403
▁शौर्य	-11.6403
▁सहानुभूति	-11.6403
▁सौहार्द	-11.6403
▁पेशकश	-11.6403
▁कॉमर्शियल	-11.6403
▁जाग	-11.6403
▁वकालत	-11.6403
▁मरांडी	-11.6403
▁शहडोल	-11.6403
▁जाकिर	-11.6403
▁साध्वी	-11.6403
▁संग्रहालय	-11.6403
▁मालगाड़ी	-11.6403
▁वासुदेव	-11.6403
▁संधू	-11.6403
▁अजगर	-11.6403
▁खेलकूद	-11.6403
▁असमर्थ	-11.6403
▁आरिफ	-11.6403
▁बुरे	-11.6403
▁पगड़ी	-11.6403
▁शाहजहांपुर	-11.6403
▁माइनिंग	-11.6404
▁प्रत्यक्ष	-11.6404
▁कन्हैयालाल	-11.6405
▁मिक्स	-11.6406
▁डीईओ	-11.6406
▁मुहर	-11.6407
▁बरौनी	-11.6408
लु	-11.6408
▁पढ़ते	-11.641
▁फाउंडर	-11.641
▁मेष	-11.6411
▁दाहिन	-11.6413
▁गड्ढा	-11.6413
▁मर्जी	-11.6416
▁रेकी	-11.6417
▁छोर	-11.6418
ेस्ट	-11.6419
▁जाली	-11.6423
▁नमूने	-11.6424
▁चक्रवाती	-11.6425
▁टेंशन	-11.6427
▁50%	-11.6429
▁देवताओं	-11.6429
जान	-11.6432
▁अंधेरा	-11.6434
▁बिखरा	-11.6438
▁माम	-11.6439
▁अलाव	-11.644
▁बराड़	-11.6441
लेन	-11.6444
▁आयोजकों	-11.6444
▁मांगते	-11.6448
▁शी	-11.6448
पाली	-11.6448
▁श्रेष्ठ	-11.645
▁जजों	-11.645
ख़	-11.6451
▁नवल	-11.6458
▁फोर	-11.6459
शाम	-11.6459
ून	-11.6462
▁पदोन्नति	-11.6466
मर्ग	-11.6467
▁केन्द्रों	-11.6468
▁बीआर	-11.647
▁ज़रि	-11.6473
▁ललिता	-11.6478
▁दृष्ट	-11.6483
फिले	-11.6487
▁अधि	-11.6491
▁101	-11.6492
जोत	-11.6494
▁सेतु	-11.6495
▁भागते	-11.6497
▁थमा	-11.6501
▁साम	-11.6504
घा	-11.6506
वाहक	-11.6512
▁देखता	-11.6515
▁वायर	-11.6515
▁वॉल	-11.6518
38	-11.6524
पटना	-11.6525
▁चंद्रा	-11.6526
▁नंदी	-11.6526
एमएस	-11.6532
▁तगड़	-11.6533
प्रशासन	-11.6534
▁राजी	-11.6538
▁गर्भ	-11.6552
▁आरोग्य	-11.6559
▁एल्विश	-11.6559
▁कस्टडी	-11.6559
▁डिप्लोमा	-11.6559
▁दबदबा	-11.6559
▁दिल्‍ली	-11.6559
▁दुर्लभ	-11.6559
▁प्रताड़ना	-11.6559
▁बरनाला	-11.6559
▁महाप्रबंधक	-11.6559
▁मुसीबत	-11.6559
▁वॉशिंगटन	-11.6559
▁साक्षात्कार	-11.6559
▁दूषित	-11.6559
▁ज्वाइन	-11.6559
▁बद्री	-11.6559
▁गलियार	-11.6559
▁समागम	-11.6559
▁खटीक	-11.6559
▁अक्षत	-11.6559
▁प्लेइंग	-11.6559
▁अर्शदीप	-11.6559
▁रखरखाव	-11.6559
▁अनुपालन	-11.6559
▁प्रियांशु	-11.6559
▁रणदीप	-11.6559
▁चादर	-11.6559
▁हाईकमान	-11.656
▁सरगना	-11.656
▁कम्पनी	-11.656
▁चेयर	-11.656
▁कतर	-11.656
▁कीजिए	-11.656
▁ड्रिंक	-11.6561
▁रेडियो	-11.6561
▁गगन	-11.6561
▁मार्शल	-11.6562
▁बाली	-11.6562
▁प्रतिद्वंद्व	-11.6563
▁Delhi	-11.6563
▁बांदा	-11.6563
▁ट्विटर	-11.6563
▁स्ट्रीम	-11.6563
▁सुरंग	-11.6563
▁प्रदर्शनकारी	-11.6566
▁बेगम	-11.6566
▁सानि	-11.6567
▁प्रभारियों	-11.6567
▁मार्क्स	-11.6567
▁जुटाई	-11.6569
▁गोबर	-11.6571
▁IMD	-11.6572
▁शत्रुघ्	-11.6573
योग	-11.6575
तक	-11.6579
▁विकेटकीपर	-11.6579
100	-11.6581
▁144	-11.6582
▁कांटे	-11.6583
▁130	-11.6583
▁पू	-11.6591
रोल	-11.6598
एमसी	-11.6603
▁जेठ	-11.6605
-18	-11.6609
▁लड़ी	-11.6612
▁कड़ाक	-11.6613
▁रचा	-11.6615
▁प्रोजेक्ट्स	-11.6617
ौद	-11.6618
▁बदलना	-11.6619
ंडे	-11.6627
एससी	-11.6629
▁सौंपे	-11.6634
▁छीना	-11.6636
▁जुटाए	-11.6645
▁सूट	-11.6646
ॉट	-11.6649
पीने	-11.6653
▁मूर्तिय	-11.6656
▁अना	-11.6657
▁बटन	-11.6658
खार	-11.666
▁बांटे	-11.666
▁उर	-11.6667
रक्षा	-11.6668
ल्स	-11.6669
▁उद	-11.6673
▁डीपीआर	-11.6674
ंटा	-11.6677
प्रकाश	-11.6685
हिट	-11.6686
▁कोतवाल	-11.6689
▁प्रतिस्पर्धा	-11.669
शु	-11.669
टेंशन	-11.6693
बीच	-11.6699
▁रेंजर	-11.6704
▁जुर्म	-11.6706
▁अधीक्ष	-11.6711
▁नैतिक	-11.6712
▁डॉक्यूमेंट	-11.6712
सीए	-11.6712
डर	-11.6714
▁दौड़ा	-11.6716
जि	-11.6716
▁अलायंस	-11.6718
▁आइटम	-11.6718
▁एवेन्यू	-11.6718
▁कीटनाशक	-11.6718
▁त्यौहार	-11.6718
▁पीलीभीत	-11.6718
▁पॉलिटेक्निक	-11.6718
▁भाद्रपद	-11.6718
▁वेशभूषा	-11.6718
▁सरोवर	-11.6718
▁हाथापाई	-11.6718
▁हौसला	-11.6718
▁मिजाज	-11.6718
▁फ्यूल	-11.6718
▁सरेआम	-11.6718
▁फायदेमंद	-11.6718
▁मेगावाट	-11.6718
▁परिक्षेत्र	-11.6718
▁बृहस्पतिवार	-11.6718
▁महर्षि	-11.6718
▁लाभार्थी	-11.6718
▁DSP	-11.6718
▁दूल्हा	-11.6718
▁फुटपाथ	-11.6719
▁पेट्रोलियम	-11.6719
▁चतरा	-11.6719
▁कर्पूरी	-11.6719
▁खाटू	-11.6719
▁नक्शा	-11.672
▁बिलियन	-11.672
▁}	-11.672
▁प्रभास	-11.672
▁आईफोन	-11.672
▁1991	-11.672
▁दांत	-11.672
▁दिलावर	-11.6721
▁म्यांमार	-11.6721
▁शिक्षित	-11.6721
▁सिक्के	-11.6721
▁1980	-11.6722
▁कांकेर	-11.6722
▁चौराहों	-11.6725
▁लैंडिंग	-11.6726
व्यापी	-11.6728
▁कल्कि	-11.6729
▁रामदास	-11.6732
▁मौलिक	-11.6735
मेरा	-11.6736
▁चिर	-11.6736
▁पढ़ाने	-11.6738
साल	-11.6738
▁दबोचा	-11.6739
▁टेली	-11.674
ाजित	-11.6741
▁to	-11.6743
▁3-4	-11.6744
▁आजकल	-11.6745
▁अंशुल	-11.6745
▁देवीलाल	-11.6746
ंकी	-11.6751
▁प्रावधानों	-11.6758
▁फेरे	-11.6767
▁व्य	-11.6768
▁नंदन	-11.6769
▁पेशी	-11.6773
आरसी	-11.6781
▁105	-11.6781
▁रिक	-11.6783
▁थाली	-11.6783
▁ठा	-11.6783
▁औषधि	-11.6785
▁AD	-11.6785
इस्लामिक	-11.6793
▁इको	-11.6797
▁आदिल	-11.6804
ाइड	-11.6806
▁कौ	-11.6806
सेवा	-11.6807
▁प्रज्ञा	-11.6809
▁पढ़ी	-11.6809
id	-11.6818
82	-11.6818
▁खोली	-11.6818
▁डीप	-11.6823
व्यवस्था	-11.6823
▁ऑडिय	-11.6832
▁कंस	-11.6834
▁बोट	-11.6836
▁अमले	-11.6844
▁मिर्च	-11.6849
गृह	-11.6852
पीएचसी	-11.6852
▁कहर	-11.6853
▁बैटर	-11.6855
नेट	-11.6855
▁फेंकी	-11.6855
ाइज	-11.6856
▁सेफ	-11.6856
▁सुप्रिय	-11.6858
दूर	-11.6858
▁मसीह	-11.6862
ाइन	-11.6864
▁शत्रु	-11.6868
▁सदी	-11.6869
▁मंत्रों	-11.6869
▁संवाददाता	-11.6874
▁फंसी	-11.6878
▁Indore	-11.6879
▁उज्ज्वल	-11.6879
▁गंतव्य	-11.6879
▁चैतन्य	-11.6879
▁डीएफओ	-11.6879
▁पवेलियन	-11.6879
▁जॉइंट	-11.6879
▁पाकिस्‍तान	-11.6879
▁सुकमा	-11.6879
▁हरदोई	-11.6879
▁हलफनाम	-11.6879
▁इशारे	-11.6879
▁दतिया	-11.6879
▁एमबीबीएस	-11.6879
▁(45)	-11.6879
▁इनेलो	-11.6879
▁मेकअप	-11.6879
▁टेलीग्राम	-11.6879
▁ग्रोवर	-11.6879
▁एनएचएआई	-11.6879
▁बैलेंस	-11.6879
▁कैरेट	-11.6879
▁वरदान	-11.6879
▁संवर्धन	-11.6879
▁स्थानांतर	-11.6879
▁अरबाज	-11.6879
▁अफ़ग़ानिस्तान	-11.6879
▁सचेत	-11.688
▁अरमान	-11.688
▁Apple	-11.688
▁बुंदेलखंड	-11.688
▁बेदी	-11.6881
िनेंट	-11.6881
▁जाब्त	-11.6881
▁महाभारत	-11.6882
▁सृजन	-11.6882
▁फ़ैसले	-11.6882
▁सरयू	-11.6882
▁VIDEO	-11.6882
▁कस्टमर	-11.6883
▁माउंट	-11.6884
▁अनशन	-11.6884
▁टाइप	-11.6884
▁कोलार	-11.6885
▁IPS	-11.6885
▁भला	-11.6886
▁पीले	-11.6886
वेद	-11.6886
▁बैठाया	-11.6887
ोलिया	-11.6887
▁लीज	-11.6889
▁प्रोफाइल	-11.6889
दरा	-11.689
.70	-11.6891
▁चोटिल	-11.6891
▁मुरली	-11.6891
▁बीएस	-11.6891
▁रै	-11.6891
▁प्रतिभागी	-11.6893
▁कुंडली	-11.6893
▁115	-11.6893
▁देवड़ा	-11.6894
▁घटिया	-11.6895
▁डीडी	-11.69
एमसीएच	-11.6901
▁अत	-11.6901
▁चलेंगे	-11.6901
एमएसपी	-11.6902
हाल	-11.6903
▁पाटन	-11.6905
▁स्वर	-11.6909
▁दलितों	-11.691
प्पा	-11.6911
▁खंगाले	-11.6912
-30	-11.6913
el	-11.6916
▁जीटी	-11.692
▁स्प	-11.6927
▁तंगी	-11.6927
▁पारीक	-11.6927
ीम	-11.6934
चरण	-11.6936
▁मू	-11.6937
▁पक्की	-11.6938
▁आदी	-11.694
ावली	-11.694
मेरी	-11.6941
▁छोड़ना	-11.6942
▁पीक	-11.6952
▁तथ्यों	-11.6954
83	-11.6957
▁कटा	-11.697
▁गवाही	-11.697
▁हैरानी	-11.697
▁कैर	-11.6981
▁डिस्क	-11.6988
▁डीग	-11.6989
▁हाट	-11.6995
आरएस	-11.6995
▁चे	-11.6997
▁क्लीन	-11.7002
300	-11.7003
▁नस्ल	-11.7003
लय	-11.7003
▁अध्यापक	-11.7004
्वाइंट	-11.7008
ाते	-11.7011
दौलत	-11.7017
बारी	-11.7018
जहां	-11.7018
▁240	-11.7019
कुशल	-11.7022
▁लिंग	-11.7024
▁घटा	-11.7025
▁धड़	-11.7026
▁औच	-11.7032
गिरी	-11.7032
ांतर	-11.7034
▁असफल	-11.7037
ंगे	-11.7038
▁एडिशन	-11.7038
दीन	-11.704
▁बाब	-11.7041
▁ऋतु	-11.7042
pur	-11.7042
▁धांधली	-11.7043
▁निज्जर	-11.7043
▁प्रधानाध्यापक	-11.7043
▁फर्श	-11.7043
▁माइक्रोसॉफ्ट	-11.7043
▁राजपुरोहित	-11.7043
▁लखीमपुर	-11.7043
▁वाइफ	-11.7043
▁श्रॉफ	-11.7043
▁सस्ता	-11.7043
▁आर्टिफिशिय	-11.7043
▁लॉन्ग	-11.7043
▁मुकुट	-11.7043
▁(40)	-11.7043
▁लाभान्वित	-11.7043
▁टैगोर	-11.7043
▁लपटें	-11.7044
▁अदाणी	-11.7044
▁भविष्यवाणी	-11.7044
▁भ्रामक	-11.7044
▁खामियाज	-11.7044
▁हर्षित	-11.7044
▁बैरिकेडिंग	-11.7044
▁वृषभ	-11.7044
▁रजनी	-11.7044
▁स्क्वायर	-11.7044
▁जीडीपी	-11.7045
▁अर्बन	-11.7045
▁ज्वेलर्स	-11.7045
▁रविदास	-11.7046
▁दक्षता	-11.7046
▁नियामक	-11.7047
▁मसल	-11.7048
▁टाइटल	-11.7048
▁क्षमा	-11.7049
▁व्यक्तित्व	-11.7049
▁अभद्रता	-11.7049
▁शेख़	-11.705
▁इरादे	-11.705
▁ललितपुर	-11.7052
▁प्रेमचंद	-11.7055
▁लगवा	-11.7056
▁मऊ	-11.7059
▁खराबी	-11.7059
▁सहमत	-11.7059
▁फटने	-11.7062
▁अमीन	-11.7063
▁घसीट	-11.7064
▁सुधर	-11.7068
▁बदर	-11.7073
▁पीएस	-11.7074
पोल	-11.7077
▁संक	-11.7078
▁छिपाने	-11.7078
▁समानता	-11.7081
▁दिखाना	-11.7081
▁जगरा	-11.7081
▁चिह्न	-11.7087
▁सक्रियता	-11.709
▁भड़का	-11.7094
▁प्रतिष्ठान	-11.7099
कड़	-11.7101
▁प्रेमियों	-11.7101
मुक्की	-11.7105
▁बेसब	-11.7106
▁क्रिया	-11.7108
▁जेम	-11.7114
लानी	-11.7121
▁ताे	-11.7127
▁सुखविंद	-11.7131
▁घुमा	-11.7132
रोड	-11.714
्मा	-11.7146
▁1995	-11.7151
तरा	-11.7156
वाना	-11.716
▁एसएन	-11.7161
▁बहुल	-11.7165
▁वर्	-11.7167
▁बंदरगाह	-11.7168
▁जिद	-11.7174
▁वादी	-11.7174
ैट	-11.7174
▁भड़के	-11.7177
बाज	-11.7177
▁दौलत	-11.7178
▁जख्म	-11.718
▁मंगला	-11.7184
प्रसार	-11.7185
धर्म	-11.7185
▁बैठकों	-11.7186
▁माइक	-11.7189
▁दीवान	-11.7197
▁फतेह	-11.7199
ाइजेशन	-11.72
▁सल	-11.7202
▁चेज	-11.7202
▁नवनिर्वाच	-11.7203
▁प्रवाह	-11.7207
▁गोमती	-11.7209
▁व्यायाम	-11.7209
▁SDM	-11.7209
▁अटकलें	-11.7209
▁अनावरण	-11.7209
▁एक्सीलेंस	-11.7209
▁करिश्मा	-11.7209
▁क्लस्टर	-11.7209
▁खंभे	-11.7209
▁जलमग्न	-11.7209
▁ज्येष्ठ	-11.7209
▁पॉलिटिक्स	-11.7209
▁मलेशिया	-11.7209
▁मुलाक़ात	-11.7209
▁व्यावहारिक	-11.7209
▁सन्नाटा	-11.7209
▁अप्लाई	-11.7209
▁कमिंस	-11.7209
▁दिनचर्या	-11.7209
▁निर्विरोध	-11.7209
▁लहसुन	-11.7209
▁रेखांकित	-11.7209
▁रंगारंग	-11.7209
▁फ्लाइंग	-11.7209
मुखी	-11.721
▁STF	-11.721
▁रजनीकांत	-11.721
▁सिलेक्शन	-11.721
▁महिपाल	-11.721
▁सरहद	-11.721
▁संयम	-11.721
▁पेटीएम	-11.721
▁सस्ती	-11.721
▁यलो	-11.721
▁चंपई	-11.721
▁गोदारा	-11.721
लाना	-11.721
▁बप्पा	-11.7211
▁भस्म	-11.7211
▁भुलैया	-11.7211
▁चांसलर	-11.7211
▁स्टैंडर्ड	-11.7211
▁बाराबंकी	-11.7211
▁तकलीफ	-11.7212
▁जु	-11.7213
▁अंगूठी	-11.7213
▁चौपाल	-11.7217
▁शिल्पा	-11.7218
▁झोंक	-11.722
िस्टिक	-11.722
▁ट्रांस	-11.7221
▁मय	-11.7223
▁गिरि	-11.7224
▁शीशे	-11.7225
",	-11.7225
▁अन्यथा	-11.7225
▁सोर्स	-11.7227
▁पसरा	-11.7227
▁बेची	-11.7232
▁घना	-11.7234
▁जगन	-11.7234
सूर	-11.7236
▁उम्मीदें	-11.7237
▁पुकार	-11.7237
▁चु	-11.7238
▁खंगाला	-11.7238
▁नमो	-11.7244
▁मानसिकता	-11.7247
▁दिखाता	-11.7255
▁अगवा	-11.7256
ुवा	-11.7257
मां	-11.7261
ेंदु	-11.7263
▁विन	-11.7266
▁कल्याणपुर	-11.7266
▁काव्य	-11.7269
▁शीतला	-11.7279
▁ढे	-11.7282
▁नं	-11.7282
▁एमबीए	-11.7286
▁सरस	-11.7287
▁परिवारवाद	-11.7289
▁झुक	-11.729
▁डालें	-11.7293
▁अवर	-11.7294
▁सदमे	-11.7302
▁वध	-11.7302
▁सीएए	-11.7306
▁शिवा	-11.7309
लेस	-11.7313
सेल	-11.7315
▁घुसने	-11.7315
रार	-11.732
बाप	-11.7326
िटर	-11.7331
▁भतीज	-11.7345
▁कोसी	-11.7347
▁बकरी	-11.7347
▁103	-11.7349
ST	-11.7349
▁सीआई	-11.7351
चुनाव	-11.7352
▁2001	-11.7353
र्व	-11.7354
भोपाल	-11.7354
mA	-11.7355
▁बुद्धि	-11.736
▁लॉकर	-11.7361
▁Ram	-11.7373
लीन	-11.7373
▁संतुल	-11.7375
▁वर्कर	-11.7376
▁वैल्यू	-11.7377
▁शटर	-11.7378
BCCI	-11.7379
▁गन्ने	-11.7379
▁गोष्ठी	-11.7379
▁भदौरिया	-11.7379
▁मेमोरियल	-11.7379
▁सृष्टि	-11.7379
▁सेलिब्रेशन	-11.7379
▁छुटकारा	-11.7379
▁बबीता	-11.7379
▁विधवा	-11.7379
▁उर्दू	-11.7379
▁पशुपालक	-11.7379
▁रिचार्ज	-11.7379
▁एनडीआरएफ	-11.7379
▁परिदृश्य	-11.7379
▁जेएमएम	-11.7379
▁सविता	-11.7379
▁डिटेन	-11.7379
▁तालमेल	-11.7379
▁टीकाकरण	-11.7379
▁बृजमोहन	-11.7379
▁सुगम	-11.738
▁शैलेश	-11.738
उल	-11.7382
▁समझिए	-11.7382
▁हासन	-11.7382
▁स्टेटमेंट	-11.7382
▁चौड़ाई	-11.7383
▁स्ट्रा	-11.7383
▁लाइंस	-11.7384
▁मोटा	-11.7384
▁(28)	-11.7385
्लास	-11.7386
▁फौर	-11.7387
▁आजसू	-11.7388
▁एमएल	-11.7388
▁RBI	-11.7388
▁गुजारा	-11.7389
▁नवनीत	-11.7389
▁कटनी	-11.7392
▁घुटने	-11.7393
▁दिक्कतों	-11.7394
▁शर्ट	-11.7396
▁गाते	-11.7398
▁ज़िले	-11.7406
▁लिपिक	-11.7406
बर्ग	-11.7408
यम	-11.7411
बि	-11.7414
▁चिल	-11.7415
▁परमात्म	-11.742
▁हाजिरी	-11.742
▁पॉवर	-11.7422
▁डिजाइनर	-11.7422
▁कार्मिकों	-11.7426
▁केसर	-11.7429
▁सूरजपुर	-11.7429
▁हड़प	-11.7431
▁मनो	-11.7432
▁धामी	-11.7433
▁सिंगला	-11.7435
▁खूबसूरती	-11.7435
▁छीनने	-11.7444
▁लाइनों	-11.7444
▁फैक्टर	-11.7452
भि	-11.746
▁झेलन	-11.7462
▁खरीदार	-11.7462
▁बारां	-11.7462
""	-11.7463
▁पाला	-11.7465
▁िक	-11.748
▁राग	-11.7497
▁गोले	-11.7498
ay	-11.7502
▁सैन	-11.7506
हू	-11.751
▁उन्‍ह	-11.7511
▁मंडिय	-11.7512
▁गड़बड़	-11.7529
ोहा	-11.7534
▁कोष	-11.7538
▁डंप	-11.7543
फिर	-11.7543
▁(1)	-11.7546
चित	-11.7548
▁कंडीशन	-11.7551
▁खेडकर	-11.7551
▁छेड़खानी	-11.7551
▁फर्नीचर	-11.7551
▁भयावह	-11.7551
▁मिजोरम	-11.7551
▁मुंशी	-11.7551
▁शुष्क	-11.7551
▁सिद्धारमैया	-11.7551
▁सुदामा	-11.7551
▁तेंदुलकर	-11.7551
▁सीएनजी	-11.7551
▁कम्युनिस्ट	-11.7551
▁निर्दोष	-11.7551
▁स्विफ्ट	-11.7551
▁सनराइज	-11.7551
▁कूड़े	-11.7551
▁खिलवाड़	-11.7551
▁मेघालय	-11.7551
▁संकीर्तन	-11.7551
▁मजेदार	-11.7552
▁पारदर्शी	-11.7552
▁प्रवृत्ति	-11.7552
▁पेंडिंग	-11.7552
▁विलंब	-11.7552
▁दखल	-11.7552
▁ओल्ड	-11.7552
▁पत्थरबाजी	-11.7552
▁जलेबी	-11.7552
▁सुरेन्द्र	-11.7552
▁चिंताजनक	-11.7552
▁साहित्यकार	-11.7553
▁प्रतिवर्ष	-11.7553
ro	-11.7553
▁बर्थ	-11.7553
▁चंदौली	-11.7553
▁निवेदन	-11.7555
▁मैट्रिक	-11.7555
▁(26)	-11.7555
▁उपासन	-11.7556
▁व्याख्यान	-11.7556
▁अनन्या	-11.7556
▁बताएंगे	-11.7556
▁इरादा	-11.7558
▁देवेन्द्र	-11.7559
▁दरार	-11.7559
▁धनुष	-11.7559
▁वेटिंग	-11.7559
▁जेईई	-11.756
▁मदरसा	-11.7562
▁झूले	-11.7562
▁बिरसा	-11.7563
▁विराम	-11.7563
▁पक्षकार	-11.7564
▁मोटी	-11.7566
▁लेडी	-11.757
▁वेट	-11.757
▁लगाता	-11.7571
▁रिकवरी	-11.7574
▁देशवासियों	-11.7577
जु	-11.7578
▁खिलाने	-11.7578
▁टीका	-11.7578
प्ले	-11.7584
▁बीके	-11.7588
▁चाहा	-11.7591
▁2047	-11.7591
▁डरे	-11.7596
▁माताजी	-11.76
▁अस्त	-11.7606
▁एशिय	-11.7608
▁फैले	-11.7612
ॅ	-11.7613
▁कैफ	-11.7613
▁तारों	-11.7616
▁निकालना	-11.7619
▁घाटा	-11.762
89	-11.762
▁128	-11.7622
ासन	-11.7626
्टन	-11.7629
ंदी	-11.7632
▁(1	-11.7632
▁पराग	-11.7635
ंडर	-11.7641
▁बिठा	-11.7648
▁चि	-11.7658
▁हेल्प	-11.767
पद	-11.7671
कर्ताओं	-11.7674
▁पीके	-11.7675
जोर	-11.7675
पो	-11.7683
▁डेम	-11.7687
▁AC	-11.7691
▁एव	-11.7694
▁गंग	-11.7699
*	-11.7701
फील्ड	-11.7702
काम	-11.7705
▁संभाली	-11.7709
▁...	-11.7711
▁2'	-11.7719
ैर	-11.772
▁रघु	-11.7725
वृष्टि	-11.7727
▁अनारक्षित	-11.7727
▁क्यूसेक	-11.7727
▁ग्रेजुएशन	-11.7727
▁ज्ञानवापी	-11.7727
▁टेस्ला	-11.7727
▁ठिकाना	-11.7727
▁निःशुल्क	-11.7727
▁नियंत्रक	-11.7727
▁प्रज्ज्वल	-11.7727
▁प्रोटोकॉल	-11.7727
▁रिमझिम	-11.7727
▁अधिवेशन	-11.7727
▁ध्वनि	-11.7727
▁बंपर	-11.7727
▁ग़लत	-11.7727
▁मापदंड	-11.7727
▁खजराना	-11.7727
▁हिंदुत्व	-11.7727
▁मनोनीत	-11.7727
▁सदैव	-11.7727
▁स्टॉफ	-11.7727
▁सांगवान	-11.7727
▁वसीम	-11.7727
▁सुशासन	-11.7727
▁Share	-11.7727
▁कमर्शियल	-11.7727
▁समाधि	-11.7727
▁अवनीश	-11.7727
▁पशुपालन	-11.7727
▁कल्चर	-11.7727
▁गुरदासपुर	-11.7727
▁ढिल्लों	-11.7727
▁अप्रत्याशित	-11.7727
▁World	-11.7727
▁अल्लाह	-11.7728
▁उर्वरक	-11.7728
▁एसएसबी	-11.7728
▁सिलाई	-11.7728
▁ब्रेकअप	-11.7728
▁शैक्षिक	-11.7728
▁प्रशस्ति	-11.7728
▁मऊगंज	-11.7728
▁जैविक	-11.7728
▁अर्थात	-11.7728
▁निष्पादन	-11.7728
▁पटनायक	-11.7728
▁आज़ाद	-11.7728
▁पैरोल	-11.7729
▁हावी	-11.7729
▁सज़ा	-11.7729
▁अंकुर	-11.7729
▁पूज्य	-11.7729
▁गुलशन	-11.7729
▁बुनकर	-11.7729
▁बोहरा	-11.7729
श्रम	-11.773
▁ऑफलाइन	-11.773
▁2:	-11.773
▁गुवाहाटी	-11.7731
▁2026	-11.7732
▁निष्कास	-11.7734
▁ठेला	-11.7734
▁टकराव	-11.7734
▁खुशियां	-11.7734
▁पुतले	-11.7735
▁लालवानी	-11.7735
▁जुड़ाव	-11.7737
▁मिलेंगी	-11.7739
▁कमांडो	-11.774
▁मुल	-11.7743
▁घूमते	-11.7744
▁रक्षक	-11.7745
▁सोहन	-11.7745
▁एटा	-11.7746
▁राजपाल	-11.7747
▁थक	-11.7749
gov	-11.7749
▁बीस	-11.7754
▁परिवादी	-11.7755
मै	-11.7764
▁102	-11.7766
▁अध्यापकों	-11.777
▁पड़ाव	-11.7774
▁220	-11.7776
्यो	-11.7779
▁सना	-11.778
ौल	-11.7781
▁सिद्धांतों	-11.7781
▁एनसीआर	-11.7782
▁आवेदकों	-11.7783
▁दीवारों	-11.7787
CP	-11.7787
▁सतह	-11.7792
▁रोहन	-11.7794
▁निकलता	-11.7795
▁टि	-11.7797
est	-11.78
▁हलका	-11.7802
▁एक्‍स	-11.7806
▁हाइब	-11.7807
▁शारद	-11.7813
▁बीएनएस	-11.7823
▁बिस	-11.7826
▁डो	-11.7827
ाऊ	-11.783
▁भिजवा	-11.783
▁भेजना	-11.7833
▁स्पा	-11.7834
0%	-11.7834
▁करवाएं	-11.7839
जिला	-11.7847
▁सदा	-11.785
▁भागा	-11.785
▁बढ़ाए	-11.7854
ौला	-11.7859
वै	-11.7861
जीविका	-11.7862
▁जेन	-11.7863
▁रोप	-11.7865
शे	-11.7869
▁जालसाज	-11.7876
▁गिरफ़्तार	-11.7876
साधारण	-11.788
प्रदर्शन	-11.788
ॉर्	-11.7881
विचार	-11.7882
वाड़ी	-11.7884
गबन	-11.7886
▁प्रि	-11.7888
▁सहाय	-11.789
▁मेस	-11.7895
▁स्किल	-11.7901
▁अहिल्या	-11.7905
▁अलविदा	-11.7905
▁एनजीओ	-11.7905
▁डिस्चार्ज	-11.7905
▁मर्यादा	-11.7905
▁मिथिलेश	-11.7905
▁मुइज्जू	-11.7905
▁Today	-11.7905
▁बाथरूम	-11.7905
▁महमूद	-11.7905
▁शौच	-11.7905
▁कैंडल	-11.7905
▁खगड़िया	-11.7905
▁मंगलसूत्र	-11.7905
▁फहरा	-11.7905
▁ड्रेनेज	-11.7906
▁वीकेंड	-11.7906
▁सूर्यवंशी	-11.7906
▁रिटेल	-11.7906
▁भरपाई	-11.7906
▁भानु	-11.7906
▁संतोषजनक	-11.7906
▁प्रश्नपत्र	-11.7906
▁एथलीट	-11.7906
▁कॉर्पोरेट	-11.7906
▁इस्लामाबाद	-11.7907
▁रविचंद्र	-11.7907
▁प्रतियोगी	-11.7907
▁फ्रेंड	-11.7907
▁रेनू	-11.7908
▁आईपीसी	-11.7909
▁विनाश	-11.791
▁दोपहिया	-11.791
▁घोषणापत्र	-11.791
▁स्ट्रक्चर	-11.791
▁उल्टा	-11.791
▁होल्ड	-11.7911
▁व्यवसायिक	-11.7911
▁पोस्त	-11.7911
▁फंसाया	-11.7913
▁(21)	-11.7913
▁पटक	-11.7913
▁Indian	-11.7913
▁दिक्कतें	-11.7913
शक्तिशाली	-11.7914
वर्ती	-11.7914
▁सिमरन	-11.7915
▁वचन	-11.7915
▁हावड़ा	-11.7916
▁इलेक्ट्रॉनिक्स	-11.7918
▁एनिमल	-11.7918
▁जाऊंगा	-11.7919
त्मक	-11.792
▁कहानियां	-11.792
▁टकराई	-11.792
▁आवाज़	-11.792
▁रियर	-11.792
वाणी	-11.7921
▁पूर्वजों	-11.7922
▁डिटेल्स	-11.7924
▁विमर्श	-11.7927
▁1-1	-11.7927
▁सूखा	-11.7927
▁टाइमिंग	-11.7928
▁सोचते	-11.7929
▁खंडन	-11.7936
▁पंथ	-11.7937
▁वीके	-11.7938
▁चलो	-11.7939
-21	-11.7945
म्बर	-11.7946
लोगों	-11.795
▁माय	-11.7956
हित	-11.7959
▁टकराने	-11.7966
▁अचल	-11.7967
चि	-11.7967
फे	-11.7968
▁गि	-11.7972
▁बीना	-11.7973
▁पिछल	-11.7976
MC	-11.7979
▁पहुंचती	-11.7979
भाग	-11.798
ेयर	-11.7987
▁हैप्पी	-11.7994
प्रो	-11.7998
▁आओ	-11.8004
ठिया	-11.8006
दिन	-11.8007
गें	-11.801
▁खट्	-11.8017
▁नेताजी	-11.8021
▁मजा	-11.8023
▁लेक	-11.8025
▁गे	-11.8031
▁जन्मे	-11.8031
▁स्टा	-11.8036
ोम	-11.8038
▁प्रतिनियुक्ति	-11.8038
▁गुजरत	-11.8049
म्भ	-11.8052
▁नेपाली	-11.8053
▁जिहाद	-11.8057
▁चतुर्थ	-11.8058
▁सेल्फ	-11.8059
▁चक्रवात	-11.8061
मुंबई	-11.8062
कर्मचारी	-11.8062
बंदी	-11.8064
िप	-11.8065
▁मुर	-11.8067
▁जैक	-11.807
▁बांधने	-11.8073
▁परिवाद	-11.8076
ान्नि	-11.8081
▁राजनेता	-11.8083
्‍व	-11.8084
▁निक	-11.8084
▁चेत	-11.8086
▁तैर	-11.8087
▁Aaj	-11.8087
▁अभिव्यक्ति	-11.8087
▁द्रविड़	-11.8087
▁नौतपा	-11.8087
▁परिसीमन	-11.8087
▁प्रोफ़ेसर	-11.8087
▁मत्स्य	-11.8087
▁शशांक	-11.8087
▁षड्यंत्र	-11.8087
▁संक्रांति	-11.8087
▁साक्षर	-11.8087
▁सॉन्ग	-11.8087
▁स्ट्रॉन्ग	-11.8087
▁इन्वेस्टिगेशन	-11.8087
▁सावरकर	-11.8087
▁मंत्रमुग्ध	-11.8087
▁निकाह	-11.8087
▁पिंटू	-11.8087
▁इनोवेशन	-11.8087
▁सम्पूर्ण	-11.8087
▁कैरियर	-11.8087
▁सुरिंदर	-11.8088
▁बीडीओ	-11.8088
▁रवैया	-11.8088
▁हिंडनबर्ग	-11.8088
हमें	-11.8088
▁सूचीबद्ध	-11.8089
5%	-11.8089
▁प्रमाणपत्र	-11.8089
▁लेखपाल	-11.8089
▁प्रहार	-11.8089
द्ध	-11.8089
▁दानिश	-11.809
▁कंबल	-11.809
▁अकाउंटेंट	-11.809
▁कटारा	-11.809
▁कमिश्नरेट	-11.8091
▁पदनाम	-11.8093
▁कहेंगे	-11.8093
▁सानिया	-11.8093
▁करणी	-11.8093
▁उद्यमी	-11.8093
▁अध्यक्षों	-11.8094
▁छोड़े	-11.8095
▁सराफा	-11.8097
▁नीता	-11.8098
▁पेंट	-11.8099
ंजा	-11.8103
▁9:30	-11.8105
नु	-11.8105
▁लाद	-11.8106
▁भाकर	-11.8109
ैस	-11.8112
▁पनप	-11.8113
िफाइड	-11.8117
▁फाग	-11.8118
▁सिया	-11.8125
जरी	-11.8127
▁करूंगी	-11.8128
किंग	-11.813
▁वसूला	-11.8132
▁रूपये	-11.8135
▁यूएस	-11.8136
ac	-11.8138
▁रैन	-11.8139
vi	-11.814
दि	-11.8141
▁जहरीली	-11.8143
▁ईशान	-11.8146
बाला	-11.8148
▁खैरा	-11.8151
▁सिह	-11.8152
▁टेलर	-11.8154
देन	-11.8157
▁जिम्मेदारों	-11.8159
▁रामजी	-11.816
▁हॉ	-11.8163
▁उत्	-11.8169
्ला	-11.817
▁हंसी	-11.8171
काय	-11.8171
▁नाश	-11.8172
▁सीमाओं	-11.8172
तिगत	-11.8172
▁वाया	-11.8173
▁सेबी	-11.8174
ाधार	-11.8176
स्टार	-11.818
इए	-11.8181
▁सोह	-11.8185
▁नदीम	-11.8187
बस	-11.8189
ul	-11.82
▁केवट	-11.8201
):	-11.8204
▁पुरा	-11.8212
ोरिया	-11.8213
▁आरसी	-11.8223
चीन	-11.8223
-13	-11.8225
खन	-11.8226
▁माप	-11.8229
▁1100	-11.8231
▁फेयर	-11.8232
▁राजनयिक	-11.8233
द्द	-11.8233
▁उलझा	-11.8234
▁चेहर	-11.8238
▁मिसाइलों	-11.8239
▁एं	-11.8244
mi	-11.8245
बांग्लादेश	-11.8247
▁मिलान	-11.8248
शेष	-11.8248
पुरुष	-11.8248
टूट	-11.8249
▁आरएस	-11.8249
र्द	-11.8249
ॉय	-11.8253
वाड़	-11.8257
▁जस्टि	-11.8258
▁लाते	-11.8261
▁उभर	-11.8267
▁रचनात्मक	-11.8267
▁स्पोर्ट	-11.8267
▁अनहोनी	-11.8272
▁एजेंसियां	-11.8272
▁कुवैत	-11.8272
▁त्वचा	-11.8272
▁दूरसंचार	-11.8272
▁नाट्य	-11.8272
▁पलामू	-11.8272
▁मिथिला	-11.8272
▁रोहतास	-11.8272
▁वैष्णो	-11.8272
▁सेलिब्रिटी	-11.8272
▁कॉन्सर्ट	-11.8272
▁कॉन्क्लेव	-11.8272
▁धरातल	-11.8272
▁पुण्यतिथि	-11.8272
▁(32)	-11.8272
▁(23)	-11.8272
▁होलिका	-11.8273
▁कनिष्ठ	-11.8273
▁कुसुम	-11.8273
▁खंडपीठ	-11.8273
▁हड्डी	-11.8273
▁कुत्ता	-11.8273
▁प्लेसमेंट	-11.8273
▁अयोग्य	-11.8273
▁खालसा	-11.8273
▁टर्म	-11.8273
▁गोल्डी	-11.8273
▁ऑलआउट	-11.8273
▁केदारनाथ	-11.8273
▁रेणुका	-11.8273
▁एसोसिएट	-11.8274
▁रितु	-11.8274
▁बेहाल	-11.8274
▁एथलेटिक्स	-11.8274
▁ट्रांसफॉर्मर	-11.8274
▁कटे	-11.8274
▁सिखाया	-11.8274
▁सुदेश	-11.8274
▁हमीदिया	-11.8274
▁सोमनाथ	-11.8275
▁अराजकता	-11.8275
▁मददगार	-11.8275
▁1971	-11.8275
▁कार्यभार	-11.8276
▁जानकारियां	-11.8276
खे	-11.8277
▁लुटेरे	-11.8279
▁उमरिया	-11.828
▁2027	-11.828
▁कारगर	-11.8284
▁फि	-11.8284
टफ्ल	-11.8284
▁शैतान	-11.8286
हां	-11.8287
▁लगाएंगे	-11.8287
▁श्रुति	-11.8295
▁विनर	-11.8296
▁जीतीं	-11.8297
▁छापे	-11.8298
▁दंगे	-11.8298
▁सोनकर	-11.8298
▁फेरी	-11.8302
मांगलिक	-11.8305
▁दरिया	-11.8312
▁फिल	-11.8316
▁प्रतिष्ठानों	-11.8318
▁पिंकी	-11.8322
▁उमड़ी	-11.8323
▁वायद	-11.8328
ाइट	-11.8332
▁लला	-11.8335
et	-11.8342
ाद	-11.8348
धेड़	-11.8349
ांकित	-11.8354
्ट्री	-11.8356
्रो	-11.8357
▁अबू	-11.8357
एनएस	-11.8359
▁कावड़	-11.8361
▁मारते	-11.8361
रस	-11.8369
ाणा	-11.837
▁यूट्यूबर	-11.8379
▁बसा	-11.8395
▁बल्लेबाज़	-11.8396
▁स्वदेशी	-11.8396
▁पैड	-11.8397
▁MM	-11.8403
रपुर	-11.8405
ाइल	-11.8406
▁उग	-11.841
ED	-11.8411
▁पीसी	-11.8414
▁गाए	-11.8414
▁अमेरिक	-11.8416
▁अटक	-11.8417
कब	-11.8419
▁राहगीर	-11.8421
▁मुस्लिमों	-11.8421
बिट	-11.8421
न्या	-11.8422
ोड़	-11.8423
▁ठोक	-11.8426
▁सेनानी	-11.8431
योजना	-11.8432
उत्तर	-11.8436
हमारे	-11.8436
▁रोगी	-11.8436
▁गरमा	-11.8438
▁IT	-11.8439
विवाहित	-11.8441
▁प्रमोट	-11.8442
कन	-11.8444
▁डेवलप	-11.845
चमक	-11.8451
▁दीया	-11.8454
▁सायं	-11.8456
▁ठुकरा	-11.8459
▁फेम	-11.8461
▁गुजराती	-11.8461
▁कवायद	-11.8461
▁खातून	-11.8461
▁तंबाकू	-11.8461
▁दंपति	-11.8461
▁धनराशि	-11.8461
▁धमतरी	-11.8461
▁नॉमिनेशन	-11.8461
▁पोशाक	-11.8461
▁प्रतिवेदन	-11.8461
▁फॉरेंसिक	-11.8461
▁भंसाली	-11.8461
▁सरायकेला	-11.8461
▁अरूण	-11.8461
▁इक्विटी	-11.8461
▁कब्रिस्तान	-11.8461
▁(55)	-11.8461
▁बुलंदशहर	-11.8461
▁महायज्ञ	-11.8461
▁उचाना	-11.8461
▁किल्लत	-11.8461
▁रैंप	-11.8461
▁अगेन	-11.8461
▁डीआरएम	-11.8461
▁एलपीजी	-11.8461
▁शिबू	-11.8461
▁कैमूर	-11.8461
▁NCP	-11.8461
▁तृप्ति	-11.8461
▁एक्सपोर्ट	-11.8462
▁ज्ञात	-11.8462
▁सहेली	-11.8462
▁सीढ़ी	-11.8462
ामी	-11.8462
▁निरोधक	-11.8462
▁भ्रष्ट	-11.8463
▁मेडिसिन	-11.8463
▁घोड़े	-11.8463
▁फ्लाई	-11.8463
▁जगजीत	-11.8464
▁राजनैतिक	-11.8464
▁लाभार्थियो	-11.8464
▁बैरल	-11.8466
▁देशमुख	-11.8466
▁तबादले	-11.8467
▁अजीब	-11.8468
▁चिन	-11.8468
▁मिलिट्री	-11.8468
▁सुजीत	-11.847
▁पिलर	-11.8471
▁रामविलास	-11.8471
▁पट्टे	-11.8474
▁सिंघम	-11.8474
है	-11.8475
▁कन्	-11.8475
▁फसलें	-11.8476
▁निहाल	-11.8478
▁बिरादर	-11.8479
▁भतीजा	-11.8479
▁लालपुर	-11.848
▁कॉमन	-11.8481
▁1990	-11.8482
▁पार्ट्स	-11.8482
▁ड्रॉप	-11.8485
▁बनाएगी	-11.8485
▁रफीक	-11.8495
▁बोलना	-11.8496
▁वाणी	-11.8497
▁मैक्स	-11.8498
▁कॉम	-11.8506
▁मदर	-11.8516
नुसार	-11.8522
बुक	-11.8523
▁रामलाल	-11.8523
ष्	-11.8528
▁नेताम	-11.8528
▁प्रोसेसर	-11.8542
ाह	-11.8547
उप	-11.8552
▁2.	-11.8553
ीपुर	-11.8554
▁चिप	-11.8555
ीश	-11.856
ेला	-11.8564
▁एक्सपो	-11.8567
▁मंग	-11.857
ीरा	-11.8571
पुल	-11.8579
▁पर्स	-11.8582
▁बूट	-11.8586
यान	-11.8587
▁अंशु	-11.8597
सुधांशु	-11.8599
स्‍ट	-11.86
▁भट	-11.86
▁फ्रेम	-11.8607
▁स्लै	-11.8609
▁कहें	-11.8611
▁कुंज	-11.8614
स्‍त	-11.8614
टिक	-11.8616
ंबर	-11.8618
▁111	-11.8625
BJP	-11.8628
वर्तमान	-11.8628
▁डोल	-11.8631
▁केदार	-11.8635
कमल	-11.8638
▁पेंशनर	-11.8638
▁इकट्	-11.864
▁फाइन	-11.8642
▁पोखर	-11.8642
▁खेम	-11.8643
▁चिट	-11.8649
▁रोबोट	-11.8651
▁अन्नपूर्णा	-11.8653
▁इज्जत	-11.8653
▁कन्नड़	-11.8653
▁क्लर्क	-11.8653
▁जीर्णोद्धार	-11.8653
▁न्योता	-11.8653
▁पीथमपुर	-11.8653
▁बदसलूकी	-11.8653
▁मार्जिन	-11.8653
▁विकलांग	-11.8653
▁गंडक	-11.8653
▁सघन	-11.8653
▁डायमंड	-11.8653
▁चरमपंथ	-11.8653
▁सज्जन	-11.8653
▁(50)	-11.8653
▁बदहाल	-11.8653
▁आंसर	-11.8653
▁थोड़े	-11.8653
▁एवरेज	-11.8653
▁कॉफी	-11.8653
▁कीचड़	-11.8653
▁आंध्रप्रदेश	-11.8654
▁प्रारूप	-11.8654
▁रिफंड	-11.8654
▁मुकाम	-11.8654
▁वर्षगांठ	-11.8654
▁आमदनी	-11.8654
▁एटीएस	-11.8654
▁अश्वनी	-11.8654
▁एएनएम	-11.8654
▁श्रीमाली	-11.8655
▁उपयुक्त	-11.8655
▁अमेजन	-11.8655
▁कप्‍तान	-11.8655
एआई	-11.8655
▁पागल	-11.8656
▁भाकपा	-11.8656
▁पदभार	-11.8656
▁कार्बन	-11.8656
▁एक्यूआई	-11.8656
▁गाँव	-11.8656
▁एचडी	-11.8656
▁घूस	-11.8657
▁खासियत	-11.8657
▁श्रोता	-11.8658
▁विलय	-11.8658
▁टीडीपी	-11.8659
▁मिश्रण	-11.8659
▁शॉल	-11.8659
▁उद्यमियों	-11.866
▁क्रॉसिंग	-11.8661
▁नायर	-11.8661
▁शंका	-11.8661
▁104	-11.8661
▁चिड़िया	-11.8662
ादेश	-11.8663
▁बलजीत	-11.8665
▁सईद	-11.8665
▁सच्चे	-11.8666
▁रैक	-11.8669
▁कदर	-11.8669
▁पीला	-11.867
्टर	-11.8671
लाभ	-11.8673
▁कमाए	-11.8674
▁किसकी	-11.8678
▁मनप्रीत	-11.868
▁मस्ती	-11.8682
गार	-11.8685
▁जैकी	-11.8685
सुध	-11.8686
ंद्र	-11.8689
ैक्स	-11.8693
▁छाने	-11.8694
▁दिखते	-11.8701
उस	-11.8704
्ले	-11.8705
▁उठी	-11.871
▁क्रेज	-11.8714
▁सैर	-11.8716
▁महम	-11.8717
ाएंगे	-11.8721
ho	-11.8725
▁सिक	-11.8725
▁टांग	-11.8728
▁आयोजनों	-11.8731
▁फेर	-11.8734
ंटी	-11.8738
42	-11.8741
▁वर्ण	-11.8745
▁बराबरी	-11.8746
एंड	-11.8747
▁नाहर	-11.875
▁अद	-11.875
ांति	-11.8752
▁दंगा	-11.8755
▁भरना	-11.8758
गंगा	-11.8761
दल	-11.8764
▁पट्	-11.8765
िला	-11.8766
सिंग	-11.8768
▁पोलियो	-11.8772
यत	-11.8773
▁पहुंचाना	-11.8774
ter	-11.8782
रूम	-11.8784
▁सिंध	-11.8787
▁जर	-11.8788
शोर	-11.8789
▁कनक	-11.8789
▁आगर	-11.879
▁मुक	-11.8798
▁इंसानों	-11.8807
▁पिपरा	-11.8808
▁पहुँच	-11.8808
▁बेट	-11.8813
कूल	-11.8817
▁उस्मान	-11.8819
▁पैट	-11.8819
मंदिर	-11.882
परिवार	-11.8823
बहुत	-11.8825
देवताओं	-11.8825
डंडे	-11.8826
▁अदालतों	-11.8828
▁छुप	-11.8829
त्ता	-11.8831
▁पट्टा	-11.8834
▁138	-11.8834
ौना	-11.8836
रवीना	-11.8837
▁अनुभवों	-11.8838
▁सेठी	-11.8838
▁जर्मन	-11.8839
प्रधानमंत्री	-11.8841
ादित्य	-11.8842
▁ब्यूटी	-11.8849
▁अख़बार	-11.8849
▁अभिमन्यु	-11.8849
▁एप्लीकेशन	-11.8849
▁क्रिमिनल	-11.8849
▁चम्मच	-11.8849
▁छुट्टियों	-11.8849
▁तर्पण	-11.8849
▁पॉडकास्ट	-11.8849
▁बांग्‍लादेश	-11.8849
▁मुलाजिम	-11.8849
▁मूंगफली	-11.8849
▁लायंस	-11.8849
▁सेलिब्रेट	-11.8849
▁क्षत्रिय	-11.8849
▁जामताड़ा	-11.8849
▁सैटेलाइट	-11.8849
▁तुम्हारी	-11.8849
▁थाईलैंड	-11.8849
्सी	-11.8849
▁मिचेल	-11.8849
▁शर्मिला	-11.8849
▁उल्लास	-11.8849
▁डूबे	-11.885
▁जलापूर्ति	-11.885
▁माथे	-11.885
▁सोनभद्र	-11.885
▁कम्युनिटी	-11.885
▁पनीर	-11.885
▁चौड़ीकरण	-11.885
▁यशवंत	-11.885
▁ट्रॉमा	-11.885
▁ताराचंद	-11.885
▁एएनआई	-11.885
▁EVM	-11.885
▁अमरोहा	-11.885
▁फिरोजाबाद	-11.885
▁ओवरलोड	-11.885
▁जफर	-11.885
▁हमको	-11.8851
▁माननीय	-11.8851
▁सिब्बल	-11.8851
▁हीरालाल	-11.8851
▁यमुनानगर	-11.8852
▁हकदार	-11.8853
▁1997	-11.8853
▁जल्दबाजी	-11.8853
▁मंडरा	-11.8853
▁विक्रय	-11.8854
▁चहल	-11.8854
▁शिखा	-11.8854
▁कुलविंदर	-11.8856
▁बांद्रा	-11.8856
▁चांदनी	-11.8857
▁रम	-11.8859
▁आचरण	-11.886
▁पन्नू	-11.886
▁ड्रिल	-11.886
▁(18)	-11.8861
▁भेद	-11.8862
▁गेमिंग	-11.8863
▁प्रशंसक	-11.8864
▁फर्जीवाड़ा	-11.8864
▁पाबंदी	-11.8869
ेंसी	-11.8869
लास्ट	-11.8872
▁हिज़	-11.8873
▁खिलाकर	-11.8874
▁लकी	-11.888
▁स्टेटस	-11.8881
▁750	-11.8881
▁शास्त्रीय	-11.8884
▁शिया	-11.8885
▁पीते	-11.8886
▁हर्षोल	-11.8894
मध्य	-11.8894
▁हस्त	-11.8898
▁SI	-11.8898
हमने	-11.8899
▁बनाये	-11.8905
स्व	-11.8905
▁बंट	-11.8905
ियार	-11.8907
▁रेस्ट	-11.8907
▁खुर	-11.8909
▁+	-11.8918
▁सांव	-11.8925
▁पोज	-11.8925
यूपी	-11.8926
▁विंडो	-11.8929
भाविक	-11.893
▁135	-11.8931
ीक	-11.8935
बीसी	-11.8939
▁मुफ्ती	-11.8943
▁क्ष	-11.8943
▁जोगी	-11.8948
प्रति	-11.8948
मंडी	-11.8951
षा	-11.8953
▁ब्रह्मा	-11.8953
▁मस्त	-11.8957
बॉल	-11.8959
ाचार	-11.896
▁कारें	-11.896
▁नामित	-11.8961
▁नानी	-11.8971
ष्टी	-11.8972
▁तिर	-11.8972
▁जले	-11.8978
बान	-11.8979
TMC	-11.8987
एँ	-11.899
ांश	-11.8992
रत्न	-11.8994
▁सां	-11.8997
▁गाव	-11.9002
▁बयानबाज	-11.9003
▁चित	-11.9004
▁शिप	-11.9008
▁भेड़	-11.9008
▁गण	-11.9008
▁प्रशिक्षक	-11.9009
ाज	-11.9013
▁ख़	-11.9015
▁आश	-11.9017
सरकार	-11.9019
,999	-11.9021
ow	-11.9023
मुस्लिम	-11.9024
भद्र	-11.9026
▁डूंगर	-11.9029
▁नोटा	-11.9032
ak	-11.9046
har	-11.9048
▁उन्नत	-11.9048
▁भागीरथ	-11.9048
▁Case	-11.9049
▁आकस्मिक	-11.9049
▁चाइना	-11.9049
▁झमाझम	-11.9049
▁डायरेक्शन	-11.9049
▁धर्मांतरण	-11.9049
▁नसरल्लाह	-11.9049
▁निचली	-11.9049
▁पिंजरे	-11.9049
▁प्राध्यापक	-11.9049
▁मैगजीन	-11.9049
▁मैन्युफैक्चरिंग	-11.9049
▁सीआईएसएफ	-11.9049
▁सुरजेवाला	-11.9049
▁कोंडागांव	-11.9049
▁स्काउट	-11.9049
▁(27)	-11.9049
▁मोहसिन	-11.905
▁क्रैश	-11.905
▁रिसेप्शन	-11.905
▁संक्रमित	-11.905
▁सौंदर्यीकरण	-11.905
▁ओंकारेश्वर	-11.905
▁मॉस्को	-11.905
▁टीकमगढ़	-11.905
▁बावड़ी	-11.905
▁महापंचायत	-11.905
▁सप्तमी	-11.905
▁दुर्भाग्यपूर्ण	-11.905
▁डुअल	-11.905
▁खिसक	-11.905
▁सुबोध	-11.905
▁रिटेन	-11.905
▁रणजी	-11.905
▁लर्निंग	-11.905
▁प्रसूता	-11.905
▁मूसल	-11.905
▁सराहा	-11.905
▁घाव	-11.905
▁झांकियां	-11.9051
▁थ्री	-11.9051
▁बगावत	-11.9051
▁स्थानांतरण	-11.9051
▁वॉटर	-11.9051
▁भरण	-11.9052
▁बानो	-11.9052
▁झाड़ू	-11.9052
▁कवच	-11.9052
▁खुराना	-11.9053
▁वारिस	-11.9053
▁ग्रेजुएट	-11.9053
▁अमनदीप	-11.9053
▁स्वामित्व	-11.9053
▁सिंधु	-11.9053
▁बिहटा	-11.9053
▁बाघिन	-11.9054
▁हस्तियों	-11.9054
▁जजपा	-11.9054
▁चीज़	-11.9055
▁ज़िक	-11.9055
▁इंद्रा	-11.9057
▁तोड़े	-11.9057
▁बहाना	-11.9058
▁तमंचा	-11.9058
▁यूपीआई	-11.9058
▁कट्टे	-11.9058
▁उत्तराधिकारी	-11.9058
▁बलदेव	-11.906
▁प्रोसेसिंग	-11.906
▁वर्कर्स	-11.906
▁कक्षाएं	-11.9061
▁जलाया	-11.9062
▁शीला	-11.9063
▁बंडा	-11.9064
▁फुसला	-11.9064
▁पढ़ेंः	-11.9064
▁चरणजीत	-11.9065
▁ग्रेट	-11.9065
▁दाे	-11.9068
▁बिछाने	-11.9071
▁सुरक्षाबल	-11.9072
▁बेचते	-11.9073
मार्क	-11.9074
▁अड़े	-11.9075
▁बुच	-11.9075
▁इल	-11.9075
मारी	-11.9075
▁भागों	-11.9081
▁छापामार	-11.9082
िभव	-11.9082
▁कांग्रेसियों	-11.9083
बुल	-11.9083
यक	-11.9083
CC	-11.9083
्यै	-11.9084
पट्टी	-11.9085
▁मान्यताओं	-11.9085
श्वर	-11.9085
▁शाहीन	-11.9089
▁टॉम	-11.9089
▁कपास	-11.9091
▁ठंडक	-11.9095
▁Y	-11.9096
▁निर	-11.9098
यूजी	-11.9103
▁तृतीया	-11.9114
▁कॉलिंग	-11.9116
▁नपा	-11.9118
▁इसरो	-11.9121
ट्टी	-11.9122
पीआरओ	-11.9123
एमपी	-11.9123
जला	-11.9127
ोगे	-11.9127
▁पाले	-11.9131
पल्ली	-11.9133
ाधिकारी	-11.9133
▁चंदेल	-11.9137
▁प्रजाति	-11.9137
▁गल्ल	-11.9138
▁लाता	-11.9139
▁गुलाबी	-11.914
▁बिट्	-11.9141
▁एमए	-11.9145
▁मिलाया	-11.9149
▁रूपेश	-11.9153
▁ढो	-11.9159
▁(4	-11.9162
▁समझकर	-11.9165
▁लेयर	-11.9165
▁मंडली	-11.9166
▁जीएम	-11.9175
▁Rea	-11.9178
नंद	-11.9182
दू	-11.9183
▁विस	-11.9189
वस्था	-11.919
आईटी	-11.9192
श्च	-11.9201
▁मित्रों	-11.9203
▁दायरा	-11.9206
सेट	-11.9207
ोट	-11.9208
is	-11.9209
▁विद्वान	-11.9213
▁सौरव	-11.9214
मति	-11.9214
▁b	-11.9215
▁कसर	-11.9219
▁हितग्राह	-11.9224
मपुर	-11.9224
▁मुरार	-11.9225
नियुक्त	-11.9226
एनसीआर	-11.9229
ियल	-11.9232
▁ढल	-11.9233
ika	-11.9238
शास्त्र	-11.9244
.60	-11.9245
शीष	-11.9245
▁गढ़ी	-11.9246
▁रैम	-11.9247
▁दृढ़	-11.9248
▁मिर्जा	-11.925
तला	-11.9253
▁सीढ़िय	-11.9253
▁अल्ट्रा	-11.9253
▁अहंकार	-11.9253
▁एक्स्ट्रा	-11.9253
▁चमत्कार	-11.9253
▁टुकड़ों	-11.9253
▁डिलीट	-11.9253
▁थॉमस	-11.9253
▁दुमका	-11.9253
▁निष्कर्ष	-11.9253
▁फ्लिपकार्ट	-11.9253
▁बच्‍च	-11.9253
▁लाठीचार्ज	-11.9253
▁संस्करण	-11.9253
▁हालाँकि	-11.9253
▁आपबीती	-11.9254
▁मंत्रोच्चार	-11.9254
▁सक्सेस	-11.9254
▁पीठासीन	-11.9254
▁जुनून	-11.9254
▁शहबाज	-11.9254
▁अनुराधा	-11.9254
▁मताधिकार	-11.9254
▁जेजेपी	-11.9254
▁कमांडेंट	-11.9254
▁दुर्घटनाग्रस्त	-11.9254
▁प्रतीत	-11.9254
▁रघुवीर	-11.9254
▁सैमसन	-11.9254
▁सूर्योदय	-11.9254
▁शिवरात्रि	-11.9254
▁कासगंज	-11.9254
▁हेयर	-11.9255
▁चौका	-11.9255
बेल	-11.9255
▁महेश्वर	-11.9255
▁प्रेग्नेंट	-11.9255
▁पत्रकारिता	-11.9255
▁उन्नति	-11.9255
▁डायरी	-11.9255
▁एसिड	-11.9255
▁इटारसी	-11.9255
▁रश्मिका	-11.9256
▁यंग	-11.9256
▁कराची	-11.9256
▁अतीक	-11.9256
▁सिखों	-11.9256
▁छाबड़ा	-11.9256
शियल	-11.9257
▁मीनू	-11.9257
▁पीएससी	-11.9257
▁1977	-11.9257
एगा	-11.9257
▁1992	-11.9258
▁रिवर	-11.9258
▁UPSC	-11.9258
▁आद	-11.9259
▁अभिलेख	-11.9259
▁मण्डल	-11.926
▁उड़द	-11.926
▁निदान	-11.926
▁अघाड	-11.9261
▁धर्मवीर	-11.9262
▁बैड	-11.9263
▁निकलेगी	-11.9264
▁सुने	-11.9265
▁योगा	-11.9266
▁तूल	-11.9266
▁सतत	-11.9266
▁जेके	-11.9266
▁मांगीलाल	-11.9269
▁खुशहाली	-11.9271
▁क्रमश	-11.9273
▁कारक	-11.9274
▁(19)	-11.9274
▁एकतरफ	-11.9274
▁निर्	-11.9275
▁कमिटी	-11.9275
▁परवीन	-11.9277
▁हनुमानजी	-11.9279
▁दिखती	-11.9281
वर्क	-11.9282
▁स्टेप	-11.9283
▁बां	-11.9285
▁रनवे	-11.9287
▁अल्प	-11.9287
कत	-11.9287
▁मैप	-11.9288
▁मॉडलिंग	-11.9291
ोव	-11.9291
▁डोम	-11.9291
▁सेल्स	-11.9299
▁मीठा	-11.9304
▁खरी	-11.9308
▁स्कोरर	-11.9313
▁नाल	-11.9315
▁तुला	-11.9316
▁टिकी	-11.9319
▁अथ	-11.932
▁चरा	-11.9323
डीए	-11.933
▁उल	-11.9333
▁बोलकर	-11.9343
▁राइट	-11.9344
▁170	-11.9345
▁नौबत	-11.9345
all	-11.9349
▁भीख	-11.9352
▁सर्वर	-11.9353
▁इमारतों	-11.9354
▁मंे	-11.9359
▁ज़िला	-11.936
▁सौम्या	-11.936
▁बटोर	-11.9364
ka	-11.9366
▁शेयरिंग	-11.9377
ियस	-11.9382
▁एमआर	-11.9392
▁कर्क	-11.9393
▁मंडप	-11.9402
▁शीत	-11.9405
▁बैरा	-11.9412
▁जाये	-11.9415
▁107	-11.9416
ोलॉजी	-11.9423
▁हफ्त	-11.9427
us	-11.9427
चांपा	-11.9436
AAP	-11.9437
छोटी	-11.9437
समृद्धि	-11.9437
▁धारणा	-11.9438
▁हारी	-11.9439
3%	-11.9442
▁ईको	-11.9443
ऑल	-11.9443
▁बल्ले	-11.9444
▁हिमंत	-11.9446
700	-11.9447
डु	-11.9447
▁अक	-11.9447
▁मूड	-11.9449
पोस्ट	-11.945
▁क्री	-11.9451
धिकृत	-11.9459
▁भड़की	-11.946
▁रेणु	-11.9461
▁Author	-11.9462
▁Collection	-11.9462
▁इंटीरियर	-11.9462
▁उत्कर्ष	-11.9462
▁उपरोक्त	-11.9462
▁एक्सईएन	-11.9462
▁कवर्धा	-11.9462
▁जतिंदर	-11.9462
▁जांगिड़	-11.9462
▁न्यायपालिका	-11.9462
▁पर्दाफाश	-11.9462
▁प्रेसवार्ता	-11.9462
▁बीएचयू	-11.9462
▁महाशिवरात्रि	-11.9462
▁रेगुलर	-11.9462
▁वियतनाम	-11.9462
▁हानिकारक	-11.9462
▁हुंडई	-11.9462
www	-11.9462
▁अनुयाय	-11.9462
▁तुम्हारा	-11.9462
▁सॉफ्ट	-11.9462
▁हमीरपुर	-11.9462
▁ड्रीम	-11.9462
▁स्नातकोत्तर	-11.9462
▁तरक्की	-11.9462
▁बीपीएससी	-11.9462
▁जागरुक	-11.9462
▁जालौन	-11.9462
▁पायदान	-11.9462
▁किस्से	-11.9462
▁शालिनी	-11.9462
▁कटाक्ष	-11.9462
▁रिफाइनरी	-11.9462
▁ब्रिक्स	-11.9462
▁हर्षवर्धन	-11.9462
▁प्रयोगशाला	-11.9462
▁एजाज	-11.9462
▁प्रयुक्त	-11.9462
▁अविश्वास	-11.9463
▁साउंड	-11.9463
▁गंदी	-11.9463
▁चन्नी	-11.9463
▁अनीस	-11.9463
▁काबिज	-11.9463
▁गन्ना	-11.9463
▁कगार	-11.9463
4%	-11.9463
▁निजाम	-11.9463
▁बैंस	-11.9463
▁ग्रिड	-11.9463
▁चाहेंगे	-11.9464
▁डीवाई	-11.9464
▁नवीनीकरण	-11.9464
▁लोजपा	-11.9464
▁बीटेक	-11.9464
▁उठाएंगे	-11.9464
▁मोहब्बत	-11.9465
▁बत्ती	-11.9465
▁OBC	-11.9465
▁सिंगरौली	-11.9466
▁खिलाया	-11.9466
▁भलाई	-11.9466
▁पैपर	-11.9466
▁शीश	-11.9466
▁एक्सेस	-11.9467
▁राजकोट	-11.9467
▁डीए	-11.9467
▁RCB	-11.9468
▁विक्रेताओं	-11.9469
▁चक्का	-11.947
▁सकेंगी	-11.9471
ार्थियों	-11.9473
▁तानाशाही	-11.9473
▁खेलेंगे	-11.9473
▁प्लेस	-11.9474
▁बागेश्वर	-11.9474
▁चलेंगी	-11.9475
▁(19	-11.9476
▁अमोल	-11.9479
▁अपमानित	-11.9479
थी	-11.948
▁बलराज	-11.9481
▁5-6	-11.9483
▁यार्ड	-11.9484
IC	-11.9486
▁दर्शा	-11.9487
▁आदान	-11.9489
▁दिव्यांगजन	-11.949
▁टनल	-11.9492
▁हटाना	-11.9492
फाइल	-11.9492
▁सोचना	-11.9497
.11	-11.9497
▁देंगी	-11.9498
ल्हा	-11.9507
▁शाहपुरा	-11.9509
▁फ्यूचर	-11.951
्‍ट	-11.951
▁नट	-11.9511
▁नासा	-11.9512
युक्त	-11.9516
▁अवाम	-11.9517
▁रोकी	-11.9521
NA	-11.9522
▁ट्रिपल	-11.9522
▁रहो	-11.9522
सामान्य	-11.9525
▁मौक	-11.9528
शहर	-11.9534
दिया	-11.9536
▁हाफ	-11.9541
▁लत	-11.9543
ंकर	-11.9552
ेद	-11.9552
▁10%	-11.9553
▁विर	-11.9553
▁जमात	-11.9553
▁दाग	-11.9555
ैक	-11.9556
-35	-11.9564
▁नेशन	-11.9567
अल	-11.957
▁एट	-11.957
▁रणथ	-11.9571
लॉजिकल	-11.9572
डीआर	-11.9572
▁लाड़ल	-11.9573
▁धुत	-11.9575
स्थापित	-11.9576
ोक्यो	-11.9576
पाक	-11.9576
▁m	-11.958
▁रमा	-11.9582
वेयर	-11.9584
▁बुल	-11.959
▁पेड	-11.9593
कालीन	-11.9594
▁भद	-11.9595
▁उक	-11.9598
मं	-11.96
▁खाप	-11.9606
फ़ा	-11.9609
▁106	-11.9612
भार	-11.9613
ोत	-11.9613
▁जापानी	-11.9627
▁निकलवा	-11.9636
▁आइस	-11.9638
▁चो	-11.9644
कुछ	-11.9648
विमर्श	-11.9649
साहेब	-11.9649
हरियाणा	-11.9649
बीजेपी	-11.965
नई	-11.965
▁कैन	-11.9655
▁बांधा	-11.9655
पहले	-11.9656
▁बैर	-11.9658
▁उद्	-11.9661
▁धो	-11.9662
जाते	-11.9663
▁काउंट	-11.9663
da	-11.9665
▁श्रीनिवास	-11.9666
इसके	-11.9667
▁स्वर्ग	-11.9672
▁1.2	-11.9673
▁इट	-11.9674
▁साज	-11.9674
▁इंडियंस	-11.9675
▁एमएसएमई	-11.9675
▁कंटेस्टेंट	-11.9675
▁चिन्मय	-11.9675
▁जनार्दन	-11.9675
▁ट्रिब्यून	-11.9675
▁डल्लेवाल	-11.9675
▁त्रिवेणी	-11.9675
▁दुग्ध	-11.9675
▁पतंजलि	-11.9675
▁बाजपेयी	-11.9675
▁रशीद	-11.9675
▁प्रोटेक्शन	-11.9675
▁फिंगर	-11.9675
▁डिस्कॉम	-11.9675
▁पंचामृत	-11.9675
▁टॉवर	-11.9675
▁संरेख	-11.9675
▁वर्ल्डवाइड	-11.9675
▁सिंदूर	-11.9675
▁एयरटेल	-11.9675
▁अंजली	-11.9675
▁लीडरशिप	-11.9675
▁अधिशासी	-11.9675
▁घन	-11.9675
▁पीढ़िय	-11.9675
▁बागपत	-11.9675
▁दीक्षांत	-11.9675
▁हरभजन	-11.9676
▁राजदूत	-11.9676
▁खजुराहो	-11.9676
▁मुकुल	-11.9676
▁मूसे	-11.9676
▁अपर्ण	-11.9676
▁इज	-11.9676
शिव	-11.9676
▁संकुल	-11.9677
▁बीआरएस	-11.9677
▁मैडम	-11.9677
इस्कॉन	-11.9677
▁विलास	-11.9678
▁यूएई	-11.9678
▁लीकेज	-11.9678
▁बुधनी	-11.9679
▁ऊंट	-11.9679
▁सिक्का	-11.9679
▁देसाई	-11.9679
▁फरमान	-11.9679
▁एलिवेटेड	-11.9679
▁चिंतन	-11.9679
▁राजिंदर	-11.968
्दा	-11.968
▁वशिष्ठ	-11.968
▁SIT	-11.968
▁तकनीकों	-11.9681
▁बलबीर	-11.9681
▁रचनात्मकता	-11.9681
▁श्योपुर	-11.9682
▁वांछित	-11.9685
▁हिल्स	-11.9686
टल	-11.9688
▁मनजीत	-11.9688
▁सखी	-11.969
▁सुराज	-11.969
▁मनदीप	-11.969
▁गुलाल	-11.9691
▁सुस्त	-11.9692
▁9.30	-11.9693
-2023	-11.9695
▁8.30	-11.9696
▁उठाव	-11.9697
▁देवेश	-11.9698
▁12:30	-11.97
▁पटाख	-11.9711
▁10.30	-11.9711
▁जद	-11.9711
▁देवरी	-11.9715
▁वै	-11.972
.66	-11.9728
▁आरपी	-11.9736
मनप्रीत	-11.9738
▁a	-11.9743
▁प्	-11.9744
▁दाना	-11.9746
▁तम	-11.9751
दिल	-11.9755
▁सभाओं	-11.9757
▁175	-11.9758
▁NH	-11.9759
्वे	-11.976
▁एसई	-11.9763
.09	-11.9763
आईसी	-11.978
▁शास्त्रों	-11.9784
वेट	-11.9785
▁नस	-11.9786
▁लंग	-11.9787
▁नागा	-11.9788
▁ऊ	-11.9788
▁बहा	-11.9794
▁खल	-11.9794
▁बीवी	-11.9798
▁कोबरा	-11.9803
▁बेहोशी	-11.9804
▁जहाजों	-11.9817
.65	-11.9819
▁माताओं	-11.982
रह	-11.9825
सीएम	-11.9834
▁विल	-11.9841
▁प्यारे	-11.9846
▁हैट्रिक	-11.9849
विद	-11.9856
उन	-11.9861
▁चौर	-11.9861
▁फार	-11.9861
▁काबिल	-11.9862
्रे	-11.9862
▁ईमानदार	-11.9863
पोषण	-11.9866
डाउन	-11.9867
अजमेर	-11.9867
ुल्लाह	-11.9869
▁हू	-11.9869
▁सूक्ष्म	-11.9874
▁भेड़िय	-11.9877
एनआरआई	-11.9878
▁दशहर	-11.9879
7%	-11.9882
ूद	-11.9884
▁फूंक	-11.9885
▁अवि	-11.9887
▁148	-11.9888
▁मुबारक	-11.9889
▁प्रशस्त	-11.989
▁घिर	-11.9891
▁टिप्पणिय	-11.9891
▁अटैच	-11.9892
टीसी	-11.9892
▁आश्रित	-11.9892
▁उंगली	-11.9892
▁उपराज्यपाल	-11.9892
▁कृत्रिम	-11.9892
▁खींवसर	-11.9892
▁गैलेक्सी	-11.9892
▁चॉकलेट	-11.9892
▁टमाटर	-11.9892
▁राजस्‍थान	-11.9892
▁विज्ञप्ति	-11.9892
▁वैवाहिक	-11.9892
▁कमज़ोर	-11.9892
▁जल्‍द	-11.9892
▁दुर्व्यवहार	-11.9892
▁वीडियोग्राफी	-11.9892
▁चैप्टर	-11.9892
▁झुग्गी	-11.9892
▁कैरेक्टर	-11.9892
▁एक्सपीरियंस	-11.9892
▁एयरबैग	-11.9892
▁झुंड	-11.9892
▁आंगनवाड़ी	-11.9892
▁ट्यूबवेल	-11.9892
▁तीस	-11.9892
lme	-11.9892
▁पुस्तकालय	-11.9892
▁अधीनस्थ	-11.9892
▁ओटीपी	-11.9892
▁मोना	-11.9892
▁गोविल	-11.9892
▁पिंडदान	-11.9893
▁तेरे	-11.9893
▁कलक्टर	-11.9893
▁सुहाना	-11.9893
▁हाइवा	-11.9893
▁ज़ोर	-11.9893
▁संवेदना	-11.9893
▁एक्साइट	-11.9893
▁कम्युनिकेशन	-11.9893
▁अनुपात	-11.9893
▁विलेन	-11.9893
▁शनिदेव	-11.9894
▁फहराया	-11.9894
▁बीयर	-11.9894
▁जूली	-11.9894
▁अमरवाड़ा	-11.9894
▁क्रूरता	-11.9894
▁कठिनाई	-11.9894
▁वीवो	-11.9894
रथ	-11.9895
▁दिवाकर	-11.9895
िको	-11.9895
▁यशपाल	-11.9895
▁रक्सौल	-11.9896
▁मुक्तसर	-11.9896
▁लड़ेगी	-11.9896
▁निक्की	-11.9896
▁DM	-11.9897
▁बगीचे	-11.9897
▁कृषक	-11.9897
▁नाचते	-11.9898
▁टोपी	-11.9899
▁नंदा	-11.99
▁गायिका	-11.99
▁सुरक्षाकर्मी	-11.99
▁उबर	-11.9901
▁शाल	-11.9902
▁करुणा	-11.9902
▁कूच	-11.9902
▁क्रांतिकारी	-11.9902
▁दोगुनी	-11.9903
▁एक्सप्रेसवे	-11.9905
▁शाक्य	-11.9906
▁पहाड़िया	-11.9906
▁फील्डिंग	-11.9906
▁मूवीज	-11.9907
▁मालती	-11.9908
▁मानो	-11.9908
ल्ला	-11.9908
▁रिपोर्टिंग	-11.9909
▁ख्वा	-11.9909
▁Ja	-11.9913
▁ठोकर	-11.9914
▁एकजुटता	-11.9914
▁अन्ना	-11.9915
▁रिस्क	-11.9915
DGP	-11.9916
कार्य	-11.9918
▁बोन	-11.9919
▁सिकंदरा	-11.9921
▁पढ़कर	-11.9922
▁मेट	-11.9925
▁On	-11.9925
▁डेली	-11.9929
▁ठेले	-11.993
मानी	-11.993
▁मौज	-11.9937
▁लगना	-11.9939
ab	-11.9941
▁अर्	-11.9943
di	-11.9944
▁अपन	-11.9946
▁मौर्या	-11.9949
▁ग्राफ	-11.995
CEO	-11.9956
▁डब्ल्यू	-11.996
▁विवाहित	-11.996
▁टॉर्	-11.9966
▁साद	-11.9971
▁लॉग	-11.9972
▁मैने	-11.9983
▁विद	-11.9987
खाना	-11.999
पूर्वी	-11.9992
खेल	-11.9992
वरा	-11.9992
▁मानपुर	-11.9998
कड़ा	-11.9999
ंका	-12.0005
▁190	-12.0006
▁नबी	-12.0007
▁दाह	-12.0011
ौरी	-12.0012
▁शॉ	-12.0013
:40	-12.0015
रेट	-12.0016
SS	-12.0017
▁खेमे	-12.0022
▁117	-12.0022
ेटिव	-12.0024
ज्ञ	-12.0031
▁नैन	-12.0036
▁श्यामा	-12.0041
साई	-12.0046
ुक	-12.0047
▁132	-12.0049
▁यून	-12.0053
टर्स	-12.0056
कई	-12.006
▁इम	-12.0072
टोली	-12.0075
षी	-12.0075
▁स्तंभ	-12.0078
विन	-12.0083
▁अंबा	-12.0084
▁मेजबान	-12.0085
▁कांवड़िय	-12.0086
विकेटकीपर	-12.0089
बचाव	-12.0089
प्रतिशत	-12.0089
स्त्री	-12.0089
▁तबाह	-12.0089
▁सै	-12.009
▁बूंद	-12.0092
▁सूत्री	-12.0097
▁116	-12.0098
▁डांट	-12.0101
नमेंट	-12.0105
ायन	-12.0108
ज्ञा	-12.0109
▁आढ़त	-12.011
▁सौंदर्य	-12.0114
एनएसयूआई	-12.0114
▁अनुशंसा	-12.0114
▁उम्रकैद	-12.0114
▁ऑडिशन	-12.0114
▁कार्यान्वयन	-12.0114
▁कौशांबी	-12.0114
▁टिप्स	-12.0114
▁टेलीविजन	-12.0114
▁डांडिया	-12.0114
▁थर्मल	-12.0114
▁दीर्घकालिक	-12.0114
▁पुरातत्व	-12.0114
▁प्रारम्भ	-12.0114
▁रैलियों	-12.0114
▁लावारिस	-12.0114
▁वर्चस्व	-12.0114
▁वाइल्ड	-12.0114
▁विदर्भ	-12.0114
▁सुथार	-12.0114
▁स्पीच	-12.0114
▁स्वप्न	-12.0114
▁क्‍यों	-12.0114
▁गुंडागर्दी	-12.0114
▁तोहफा	-12.0114
▁रडार	-12.0114
▁सामंजस्य	-12.0114
▁एनटीपीसी	-12.0114
▁ब्राउन	-12.0114
▁पुस्तिका	-12.0114
▁भूटान	-12.0114
▁ग्रेनेड	-12.0114
▁कथन	-12.0114
▁दयानंद	-12.0114
▁बड़ौदा	-12.0114
▁किंतु	-12.0114
▁एंटरटेनमेंट	-12.0114
▁क्वीन	-12.0114
▁संयंत्र	-12.0114
▁उदासीन	-12.0114
▁लिप्त	-12.0114
▁बैकग्राउंड	-12.0114
▁डायलिसि	-12.0114
▁पठानकोट	-12.0115
▁स्टालिन	-12.0115
▁अनाउंसमेंट	-12.0115
▁शकील	-12.0115
▁असंतोष	-12.0115
▁नंदिनी	-12.0115
▁शमशेर	-12.0115
▁झाझा	-12.0115
▁रहस्य	-12.0115
▁मंजीत	-12.0115
▁सेटअप	-12.0116
▁महासागर	-12.0116
▁जाधव	-12.0116
▁संग्रहण	-12.0117
▁नारकोटिक्स	-12.0117
न्ट	-12.0117
▁संभालेंगे	-12.0117
▁असंभव	-12.0117
▁नंदलाल	-12.0117
▁यदु	-12.0117
▁जसपाल	-12.0118
▁रनोट	-12.0118
▁एडीसी	-12.0118
▁1962	-12.0118
▁उड़ाया	-12.012
▁सूद	-12.012
▁जूस	-12.0121
▁पांव	-12.0121
बीज	-12.0123
▁जयकार	-12.0125
▁अरविन्द	-12.0125
▁पंखा	-12.0126
▁ठे	-12.0127
करीब	-12.0127
▁Sal	-12.0128
भान	-12.0129
▁दिखीं	-12.013
▁माहिर	-12.0134
वाट	-12.0135
▁वेंडर	-12.0137
्ति	-12.0139
▁अधूरी	-12.014
▁पेशेंट	-12.014
टाइम	-12.0144
▁स्वराज	-12.0144
▁पावरप्ल	-12.0145
▁परंपराओं	-12.0147
▁प्रीतम	-12.015
▁चर्चाएं	-12.0155
▁अंजन	-12.0156
हाद	-12.0156
▁अफजा	-12.0157
▁डीएस	-12.0165
▁रामनाथ	-12.0167
.....	-12.017
बहनों	-12.0171
▁वेयर	-12.0173
▁प्यास	-12.0175
ोला	-12.0177
▁खर्चा	-12.0179
ज्ज	-12.0181
टेशन	-12.0182
▁हिज्बुल्ला	-12.0182
▁दर्शाती	-12.0183
एमआर	-12.0186
▁An	-12.0189
ष्ठ	-12.0191
टेल	-12.0193
ुरु	-12.0197
▁बीएल	-12.0202
▁पिछड़	-12.0203
▁वारंटी	-12.0203
▁चै	-12.0205
▁आरओ	-12.021
▁प्रभाकर	-12.0218
▁जीरा	-12.0222
▁दुब	-12.0223
▁भेजते	-12.0223
xy	-12.0225
▁प्राधिकार	-12.0232
▁सीटी	-12.0233
पीठ	-12.0234
▁राउत	-12.0239
▁क्यूआर	-12.0239
केट	-12.0249
▁सोनम	-12.027
▁व्यू	-12.0271
▁कलाम	-12.0273
वर्णन	-12.0281
चू	-12.0284
दर्शन	-12.0286
मनी	-12.0288
ूंगी	-12.0295
हानि	-12.0298
▁केसरी	-12.0299
▁मुकाबल	-12.0301
▁नवनिर्म	-12.0306
वटी	-12.0312
▁साब	-12.0312
▁प्रत्यक्षदर्श	-12.0312
सचिव	-12.0313
▁रिकवर	-12.0313
▁उड़ानों	-12.0314
▁टेंपो	-12.0315
▁सुनहर	-12.0316
▁विदा	-12.0316
ट्रॉली	-12.0316
वेडिंग	-12.0317
यले	-12.0319
मीन	-12.032
प्प	-12.0324
▁अनुच	-12.0326
डीएसटी	-12.0333
▁गोह	-12.0341
▁कच्छ	-12.0341
▁OTT	-12.0341
▁Result	-12.0341
▁इंडोनेशिया	-12.0341
▁कुशीनगर	-12.0341
▁ज़िंदगी	-12.0341
▁डायबिटीज	-12.0341
▁नुक्कड़	-12.0341
▁पित्रोदा	-12.0341
▁प्रदूषित	-12.0341
▁बर्ताव	-12.0341
▁बांधवगढ़	-12.0341
▁बायोमेट्रिक	-12.0341
▁मनमोहक	-12.0341
▁वर्ल्‍ड	-12.0341
▁सांत्वना	-12.0341
▁सिकरवार	-12.0341
▁सीमांकन	-12.0341
▁हवेली	-12.0341
▁the	-12.0341
▁डेंटल	-12.0341
▁बंदोबस्त	-12.0341
▁मद्रास	-12.0341
▁सिलावट	-12.0341
▁हजरत	-12.0342
▁फेरबदल	-12.0342
▁मुलायम	-12.0342
://	-12.0342
▁ढांचा	-12.0342
▁रालोद	-12.0342
▁संयोजन	-12.0342
▁टेलीकॉम	-12.0342
▁पत	-12.0342
▁मशाल	-12.0342
▁पुष्पांजलि	-12.0342
▁रसायन	-12.0342
▁माइंड	-12.0342
▁स्विच	-12.0342
▁जूही	-12.0342
▁सीक्रेट	-12.0342
▁बदतर	-12.0342
▁जेंडर	-12.0342
▁प्रचल	-12.0343
▁डाॅ	-12.0343
▁अशरफ	-12.0344
▁मुख्‍यमंत्री	-12.0344
▁तह	-12.0344
▁चंद्रकांत	-12.0344
देना	-12.0344
▁हापुड़	-12.0344
▁सोहेल	-12.0345
▁पेंच	-12.0345
▁रामगोपाल	-12.0345
▁मादा	-12.0345
▁ठेस	-12.0346
▁श्रीफल	-12.0346
बेस	-12.0346
▁ऐड	-12.0347
▁मृत्युंजय	-12.0347
टपुट	-12.0347
▁वॉच	-12.0347
▁बनें	-12.0347
▁नंबरों	-12.0348
▁बवानी	-12.0349
▁डेथ	-12.0349
▁कैपिटल्स	-12.0349
▁Petrol	-12.0349
▁राजावत	-12.0351
▁टैलेंट	-12.0352
▁मिस्टर	-12.0354
▁एमएलए	-12.0354
▁पीठाधीश	-12.0354
▁राजवीर	-12.0355
▁मारवाड़ी	-12.0358
▁प्रतियोगिताएं	-12.036
▁अनुमोदन	-12.036
▁बैठते	-12.036
▁उच्चतर	-12.0361
▁ज़िम्मेदारी	-12.0362
▁दिलाना	-12.0364
▁सीलिंग	-12.0366
▁एकसाथ	-12.0368
▁होडल	-12.0368
▁फेंके	-12.0369
▁मनाए	-12.0371
▁स्वार्थ	-12.0373
▁करोड़पति	-12.0374
▁मुन	-12.0374
▁वारदातें	-12.0377
▁रचने	-12.0377
900	-12.0377
▁ट्रैकिंग	-12.0378
▁दवाइय	-12.0384
▁क्यू	-12.0384
▁प्रतिरोध	-12.0384
▁खरीफ	-12.0385
▁10:30	-12.0386
सभी	-12.0387
गिर्द	-12.0388
▁अनिश्चितकाली	-12.0391
▁टेल	-12.0393
▁e	-12.0396
▁वीक	-12.0398
जात	-12.0399
▁गांज	-12.0399
िच	-12.04
▁त्रुटि	-12.0402
▁पहुंचेगा	-12.0407
▁नित्य	-12.0407
▁पहनी	-12.0408
▁कार्यवाह	-12.0409
▁जसविंद	-12.0412
▁साख	-12.0414
▁दामन	-12.0415
ेटेड	-12.0419
▁गिरते	-12.0424
nd	-12.0427
▁सरिया	-12.0428
DA	-12.043
▁उपर	-12.0432
▁एचपी	-12.0436
▁सक	-12.0446
:10	-12.0453
िथ	-12.0455
मोर	-12.0456
▁इक	-12.0457
ंबा	-12.0462
▁सुध	-12.0462
▁मिस्र	-12.0462
▁मंझ	-12.0464
▁सुखद	-12.0471
▁जानकर	-12.0472
▁पारण	-12.0477
.22	-12.0477
▁साले	-12.0477
▁एडिट	-12.0478
ाड	-12.0479
श्त	-12.048
न्स	-12.0482
ियान	-12.0489
शर	-12.049
2025	-12.0493
▁तुल	-12.0494
▁पाव	-12.0497
▁गुजरी	-12.0499
▁रिज	-12.0501
▁अंग्रेज	-12.0504
▁करीम	-12.0507
▁कांटा	-12.0512
चु	-12.0512
▁रघुनाथ	-12.0514
▁कट्	-12.0516
▁समझें	-12.0517
ल्ली	-12.0523
ट्रिक	-12.0524
्डर	-12.0525
▁डॉन	-12.0527
▁वृद्धा	-12.0532
▁करेंसी	-12.0536
▁उभरत	-12.0536
▁टै	-12.0536
▁एमबी	-12.0537
▁360	-12.054
प्ति	-12.0546
▁गड्ढ	-12.0547
शीर्ष	-12.0549
सम्मान	-12.0549
अभी	-12.055
राहुल	-12.055
शाला	-12.0551
सुख	-12.0551
▁210	-12.0552
पुष्पा	-12.0554
्को	-12.0555
मिया	-12.0556
▁बाक	-12.0557
▁दीपा	-12.0557
▁शेफ	-12.0558
▁आराध्य	-12.0559
धीश	-12.0565
▁शिवहर	-12.0567
क्रूड	-12.0568
▁डायलॉग	-12.0569
▁पखवाड़	-12.057
▁फैजा	-12.0571
ंव	-12.0572
पालन	-12.0573
▁New	-12.0573
▁अल्टीमेटम	-12.0574
▁एकेडमिक	-12.0574
▁गम्भीर	-12.0574
▁टेक्नीशियन	-12.0574
▁थरूर	-12.0574
▁पचमढ़ी	-12.0574
▁पृष्ठभूमि	-12.0574
▁बल्‍लेबाज	-12.0574
▁मॉड्यूल	-12.0574
▁सब्जेक्ट	-12.0574
▁स्मिथ	-12.0574
▁हिरदाराम	-12.0574
▁दारोगा	-12.0574
▁रिस्पॉन्स	-12.0574
▁अंदरूनी	-12.0574
▁अनिरुद्ध	-12.0574
▁रिसॉर्ट	-12.0574
▁Puja	-12.0574
▁मीनाक्षी	-12.0574
▁ऑटोमैटिक	-12.0574
▁ह्यूमन	-12.0574
▁मुल्क	-12.0574
▁उदयभान	-12.0574
▁Date	-12.0574
▁गोरखनाथ	-12.0574
▁मयूर	-12.0574
▁हुनर	-12.0574
▁फादर	-12.0575
▁सुंदरकांड	-12.0575
▁अवमान	-12.0575
▁अहीर	-12.0575
▁नवजोत	-12.0575
▁लकड़ा	-12.0575
▁एग्जीक्यूट	-12.0575
आलमगीर	-12.0575
▁गुरूवार	-12.0575
▁निगाहें	-12.0575
▁सूबेदार	-12.0575
▁गजेन्द्र	-12.0575
▁बीएमसी	-12.0575
▁3-3	-12.0576
▁भरवा	-12.0576
▁वेतनमान	-12.0576
▁संगरूर	-12.0576
▁कॉन्ट्रैक्ट	-12.0576
▁एमआईसी	-12.0576
▁यूरिया	-12.0576
▁कूटनीतिक	-12.0577
ख्‍या	-12.0577
▁आयशा	-12.0577
▁बांके	-12.0577
▁आयरन	-12.0577
▁चेकअप	-12.0578
▁परमेश्वर	-12.0578
▁कराटे	-12.0578
▁जनजीवन	-12.0579
▁द्वारका	-12.0579
▁सावंत	-12.0579
▁कल्लू	-12.058
ोड़ा	-12.058
▁बनवारी	-12.0581
सेंट	-12.0582
▁इंदर	-12.0582
▁अनियमितताओं	-12.0582
▁सज्जा	-12.0583
▁राऊ	-12.0583
ौत	-12.0584
▁वक्ताओं	-12.0584
ेक्ट	-12.0585
▁गुरुदेव	-12.0585
▁संस्थाएं	-12.059
▁राष्ट्रवादी	-12.059
▁Ma	-12.059
▁रेशम	-12.059
▁लोडिंग	-12.059
▁रॉयल्स	-12.059
▁क्षेत्रफल	-12.0591
पकड़	-12.0592
▁आर्ट्स	-12.0593
0,000	-12.0594
▁लेंगी	-12.0598
घरा	-12.0599
संध	-12.06
▁(3)	-12.06
▁ओपनर	-12.06
़ा	-12.0601
▁अड़	-12.0601
▁पत्रिका	-12.0601
दन	-12.0601
▁युगल	-12.0602
्योर	-12.0607
ल्ड	-12.0612
▁श्रेया	-12.0615
▁गेंदबाज़	-12.0615
सहाय	-12.0615
▁फै	-12.0618
कैप	-12.0618
हवीं	-12.0619
▁बछड़	-12.062
▁पर्थ	-12.0621
▁सिंघ	-12.0622
▁सिलेक्ट	-12.0623
▁लवली	-12.0623
नीत	-12.0629
ity	-12.0634
▁ज्ञानी	-12.0635
ोटा	-12.0637
▁छिन	-12.064
ik	-12.0645
▁झपट	-12.0649
INDIA	-12.0653
▁किश्त	-12.0654
ot	-12.0656
▁तूफानी	-12.0658
▁माही	-12.066
▁राउ	-12.0669
▁गढ़वा	-12.067
▁भयं	-12.067
▁केमिस्ट्री	-12.0677
▁पाठ्यक्रमों	-12.0678
▁दिव्यांश	-12.0681
▁रान	-12.0684
▁संपत	-12.0685
▁यान	-12.0686
रुप	-12.069
▁बंधा	-12.0692
मुख	-12.0692
▁कागजी	-12.0692
दायी	-12.0697
▁बेक	-12.0701
▁ताप	-12.0701
▁खार	-12.0707
▁स्टै	-12.0711
्सिस	-12.0714
▁लगाये	-12.0717
▁हिला	-12.0718
▁उतारे	-12.072
▁प्ल	-12.0722
विराजित	-12.0724
▁रूल	-12.0724
up	-12.0725
▁कटर	-12.0725
.49	-12.0728
▁दस्ता	-12.0728
▁पते	-12.0734
▁बीट	-12.0736
प्रद	-12.0736
▁बद	-12.0742
▁बंधे	-12.0746
▁क्रिस	-12.0747
ुद	-12.075
▁डिस	-12.0761
ोदय	-12.0763
▁एआर	-12.077
न्ह	-12.0772
▁भट्टी	-12.078
रविवार	-12.0787
किनार	-12.0787
पॉक्स	-12.0788
.36	-12.0788
बैंक	-12.079
▁श्र	-12.079
निंग	-12.079
▁ग्ल	-12.0791
▁वें	-12.0791
आरपी	-12.0792
▁₹1	-12.0796
▁गुरुद्वार	-12.0797
एसएस	-12.0798
क्रमशः	-12.0799
ोक	-12.08
▁लूटे	-12.0801
नंदन	-12.0802
▁डाय	-12.0803
क्त	-12.0806
▁धोखे	-12.0808
▁गर्ल	-12.081
▁यूसुफ	-12.0811
▁प्रतीक्षा	-12.0812
▁Kumar	-12.0812
▁आश्रय	-12.0812
▁एनालिसिस	-12.0812
▁कार्यप्रणाली	-12.0812
▁कुंदरकी	-12.0812
▁कुरूक्षेत्र	-12.0812
▁व्लादिम	-12.0812
▁सहूलियत	-12.0812
▁स्क्वायड	-12.0812
▁स्विमिंग	-12.0812
▁उड़ीसा	-12.0812
▁कम्प्यूटर	-12.0812
▁चस्पा	-12.0812
▁वीरांगना	-12.0812
▁Chunav	-12.0812
▁गर्भपात	-12.0812
▁फ़ायदा	-12.0812
▁रियासत	-12.0812
▁निर्जला	-12.0812
▁फ्रिज	-12.0812
▁चिपसेट	-12.0812
▁अटेंडेंस	-12.0812
▁बीसलपुर	-12.0812
▁उखड़	-12.0812
▁परिश्रम	-12.0812
▁अध्याय	-12.0812
▁गौवंश	-12.0812
▁सुन्दर	-12.0812
▁सूजन	-12.0813
▁द्वि	-12.0813
▁नेगेटिव	-12.0813
▁जैकेट	-12.0813
▁रैकेट	-12.0813
▁निराधार	-12.0813
▁लक्की	-12.0813
▁मानदंड	-12.0813
▁निवाड़ी	-12.0813
▁स्पेन	-12.0814
▁साबरमती	-12.0815
▁पुरूष	-12.0815
▁ऐंठ	-12.0815
▁ट्रफ	-12.0815
▁डीसीएम	-12.0816
▁सजग	-12.0816
▁पिट	-12.0816
▁कट्टर	-12.0817
▁1947	-12.0817
▁नारद	-12.0817
▁दाऊद	-12.0818
▁सेटिंग	-12.0818
▁अफ्रीकी	-12.0819
▁इतिहासकार	-12.0819
▁ट्रैप	-12.082
BA	-12.0822
▁फोटोग्राफी	-12.0823
JJP	-12.0824
▁आंत	-12.0824
▁कुर्बानी	-12.0825
▁पत्ते	-12.0825
▁कास्टिंग	-12.0827
▁आशु	-12.0827
▁रूबी	-12.0828
▁बोरिंग	-12.0828
▁जासूसी	-12.0828
▁8-10	-12.0831
.85	-12.0832
▁संजीवनी	-12.0833
▁114	-12.0834
▁नियत	-12.0836
सात	-12.0836
▁जोड़ना	-12.0836
नाक	-12.0836
ेरिया	-12.0838
▁किसका	-12.0839
▁परेशानियां	-12.084
▁पलटी	-12.0842
dha	-12.0842
▁नैना	-12.0843
▁मेघा	-12.0843
▁दोनो	-12.0844
▁सिंघार	-12.0846
▁खण्ड	-12.0846
ावास	-12.0847
▁पड	-12.0847
▁फैक्ट्रिय	-12.0849
▁सोफ	-12.0854
▁फैक्टरी	-12.0855
▁माई	-12.086
हाना	-12.0861
▁फु	-12.0866
▁आईएमए	-12.0867
ia	-12.0869
▁पिंड	-12.0869
▁123	-12.0875
▁3.0	-12.0876
्मिता	-12.0879
▁गैलर	-12.0881
▁नरसिंहपुर	-12.0889
▁माइनर	-12.089
▁कश्मीरी	-12.0891
▁रोमांच	-12.0891
ोदा	-12.0898
▁खींचा	-12.0899
▁SA	-12.0902
▁यूपीए	-12.0903
▁भुगत	-12.0907
दायक	-12.0907
▁स्वत	-12.0907
▁भर्तिय	-12.0907
▁रामपाल	-12.0911
▁यु	-12.0915
▁कूल	-12.0917
िंद्र	-12.0919
▁पीएचई	-12.092
▁जगदीशपुर	-12.092
▁उतरवा	-12.0922
एनएसई	-12.0925
▁सिंग	-12.0927
रंग	-12.0929
▁मिलर	-12.0942
1994	-12.0942
ेली	-12.0942
▁कब्र	-12.0947
▁आजमा	-12.0951
धू	-12.0955
ोह	-12.0955
स्थान	-12.0955
▁नामी	-12.0958
▁कुशा	-12.0962
▁कंप	-12.0964
▁उद्देश्यों	-12.0968
▁कानों	-12.097
▁मॉ	-12.0971
▁230	-12.0981
▁बढ़ना	-12.0983
शाही	-12.0985
▁एजेंटों	-12.0989
▁चर	-12.099
▁3500	-12.0991
▁मान्य	-12.1002
▁कालिया	-12.1002
▁1600	-12.1007
ुअल	-12.101
लेक्शन	-12.1014
▁भरती	-12.1014
शांति	-12.1019
▁पह	-12.102
ेरियन	-12.1024
टर्न	-12.1029
मरा	-12.1029
प्रताप	-12.1031
पंजाब	-12.1031
युवती	-12.1031
टाउन	-12.1031
▁पन्न	-12.1032
फार्म	-12.1034
बारिश	-12.1034
▁लॉस	-12.1037
▁खदेड़	-12.104
.33	-12.104
SA	-12.104
▁सतनाम	-12.1043
नौ	-12.1044
▁एमसी	-12.105
▁किराये	-12.1052
im	-12.1054
▁राधे	-12.1056
▁CJI	-12.1056
▁अंदेशा	-12.1056
▁अवहेलना	-12.1056
▁एक्सरसाइज	-12.1056
▁चौमूं	-12.1056
▁जलजमाव	-12.1056
▁डिस्टरबेंस	-12.1056
▁ताल्लुक	-12.1056
▁तिब्बत	-12.1056
▁नामांतरण	-12.1056
▁निंदनीय	-12.1056
▁प्रलोभन	-12.1056
▁बंजारा	-12.1056
▁महराजगंज	-12.1056
▁मुनव्वर	-12.1056
▁म्यूचुअल	-12.1056
▁रंधावा	-12.1056
▁वानखेड़े	-12.1056
▁वृक्षारोपण	-12.1056
▁श्रेणियों	-12.1056
▁सीक्वल	-12.1056
▁स्कार्पियो	-12.1056
▁हफ़्त	-12.1056
▁निविदा	-12.1056
▁कट्टरपंथ	-12.1056
▁मन्नत	-12.1056
▁एचडीएफसी	-12.1056
▁पिकनिक	-12.1056
▁स्लिप	-12.1056
▁मार्कशीट	-12.1056
▁इंटर्नशिप	-12.1056
▁प्लेऑफ	-12.1056
▁माझी	-12.1056
▁दोहरे	-12.1056
▁ज्योतिर्लिंग	-12.1056
▁मटेरियल	-12.1056
▁Gala	-12.1056
▁स्टंप	-12.1056
▁दंडाधिकारी	-12.1056
▁स्प्रे	-12.1056
▁बांसुरी	-12.1057
एनजीटी	-12.1057
▁शशिकांत	-12.1057
▁पीएमसीएच	-12.1057
▁नियमावली	-12.1058
▁बिट	-12.1058
▁Google	-12.1058
▁फिक्स	-12.1058
▁दुर्भाग्य	-12.1058
▁ट्राई	-12.1058
▁लल्लू	-12.1058
▁रितिक	-12.1058
▁हरजिंदर	-12.1058
▁गुणवत्तापूर्ण	-12.1059
▁वैद्य	-12.1059
▁संपदा	-12.1059
▁बालकृष्ण	-12.1059
▁क्वालिफाई	-12.106
▁1952	-12.106
▁दूं	-12.106
▁बौद्धिक	-12.106
▁अस्थिरता	-12.1061
▁राजगीर	-12.1061
▁समेट	-12.1061
▁बाहुबली	-12.1061
▁वॉश	-12.1062
▁चढ़ाया	-12.1063
▁तीर	-12.1064
▁मेनका	-12.1064
▁मिटाने	-12.1066
▁अलका	-12.1067
▁आख़िरी	-12.1069
▁स्मरण	-12.1069
लता	-12.1069
▁प्रोडक्ट्स	-12.1072
▁चढ़ाई	-12.1072
▁आराध्या	-12.1073
▁शुमार	-12.1075
▁एबी	-12.1076
▁समझाते	-12.1076
▁उड़ानें	-12.1077
लाइट	-12.1078
रियों	-12.1081
▁घुल	-12.1083
किशोर	-12.1083
▁फिना	-12.1084
▁सेंध	-12.1085
▁कैंटर	-12.1086
▁निकलती	-12.1086
▁बनाएगा	-12.1087
▁पच	-12.109
AT	-12.1093
RS	-12.1096
▁चीता	-12.1097
▁तिरंग	-12.1097
se	-12.1097
▁अर्ध	-12.1099
▁2.30	-12.11
▁कोटक	-12.11
▁पन	-12.11
▁धू	-12.111
पश्चिमी	-12.1113
▁122	-12.1115
▁कुचला	-12.1118
▁कमजोरी	-12.1119
▁खेड़ी	-12.1121
▁रेलिंग	-12.1122
कोटा	-12.1122
▁हेल	-12.1131
र्डर	-12.1131
▁बंब	-12.1132
▁अग	-12.1132
▁लगाव	-12.1133
▁सैलान	-12.1134
ैत	-12.1135
▁कुस	-12.1139
▁बिजी	-12.1141
▁जयकारे	-12.1144
▁राजपुर	-12.1144
▁शर	-12.1145
▁नहा	-12.1147
co	-12.1155
▁तस	-12.1156
▁(2),	-12.1161
▁तुर	-12.1164
▁पीवी	-12.1166
▁कफ	-12.1167
▁151	-12.1169
ंजी	-12.1171
▁जमीनों	-12.1177
▁बढ़िया	-12.1177
▁145	-12.1178
▁बेर	-12.1185
▁155	-12.1187
.2024	-12.1189
वाय	-12.119
▁उम्मीदवारी	-12.1195
▁प्रदेशों	-12.12
▁वीरवा	-12.1209
▁पोष	-12.1211
▁विराज	-12.1215
▁यो	-12.1216
मेक	-12.1217
वेंद्र	-12.1219
नए	-12.122
पाड़ा	-12.122
वेश	-12.122
▁कैथ	-12.1221
▁नरसिंह	-12.123
ीराम	-12.1237
▁रंगा	-12.1239
दुनिया	-12.124
दह	-12.1245
मंद	-12.125
▁स्थितियों	-12.1251
कोर	-12.1255
नम	-12.1256
▁भगवत	-12.1258
स्म	-12.1267
▁मुकदम	-12.127
▁झाला	-12.1271
▁दफ्तरों	-12.1274
महिला	-12.1276
▁Ra	-12.1281
राजनीतिक	-12.1282
▁दिग्गजों	-12.1284
कार्ड	-12.129
▁कांके	-12.1302
▁फतह	-12.1305
आरएफ	-12.1305
▁सुहाग	-12.1305
▁Gandhi	-12.1306
▁Gorakhpur	-12.1306
▁Panchang	-12.1306
▁अभिवादन	-12.1306
▁उत्खनन	-12.1306
▁चिंगारी	-12.1306
▁ट्रांजेक्शन	-12.1306
▁तिजोरी	-12.1306
▁प्रह्लाद	-12.1306
▁मिनिस्टर	-12.1306
▁मेलबर्न	-12.1306
▁म्यूजियम	-12.1306
▁रेगिस्तान	-12.1306
▁सरबजीत	-12.1306
▁सीसामऊ	-12.1306
▁सुजुकी	-12.1306
▁दामोदर	-12.1306
▁चक्काजाम	-12.1306
▁दरमियान	-12.1306
▁वैधानिक	-12.1306
▁आफताब	-12.1306
▁धंधा	-12.1306
▁फीमेल	-12.1306
▁टपक	-12.1306
▁संप्रदाय	-12.1306
▁अंचलाधिकारी	-12.1306
▁उपनिरीक्षक	-12.1306
एमटी	-12.1306
▁निकिता	-12.1306
▁मार्टिन	-12.1306
▁गौरेला	-12.1306
▁रुद्राक्ष	-12.1306
▁IIT	-12.1306
▁गोड्डा	-12.1306
▁दांगी	-12.1306
▁मसाले	-12.1307
▁एनटीआर	-12.1307
▁मनोबल	-12.1307
▁मरकाम	-12.1307
▁मलयालम	-12.1307
▁मिल्कीपुर	-12.1307
▁ध्रुवीकरण	-12.1307
▁संगीतमय	-12.1307
▁शक्तिपीठ	-12.1307
▁प्रणाम	-12.1307
▁बिकवाली	-12.1307
▁वेंटिलेटर	-12.1307
▁कैसर	-12.1307
▁हुये	-12.1307
▁ऋतुराज	-12.1308
▁नाश्ता	-12.1308
▁दर्शाया	-12.1308
▁मीसा	-12.1308
▁प्रस्तावों	-12.1308
▁झाबुआ	-12.1308
▁राइडर्स	-12.1309
▁बस्तियों	-12.1309
न्नी	-12.1309
▁मोतीलाल	-12.1309
6.5	-12.1309
▁कौशल्या	-12.1309
▁1993	-12.131
▁अंडरपास	-12.131
▁व्याख्याता	-12.131
▁BSF	-12.131
▁चूना	-12.1311
▁सम्पर्क	-12.1311
▁ढाबे	-12.1311
▁ननद	-12.1311
▁गंगवार	-12.1312
▁पढ़ती	-12.1312
▁पिलाई	-12.1312
▁गिरधारी	-12.1313
▁बू	-12.1313
▁लपेट	-12.1314
▁असेंबली	-12.1314
▁मौसी	-12.1314
▁पूर्ववर्ती	-12.1315
▁दिखेगा	-12.1315
▁उगल	-12.1316
▁दाएं	-12.1318
▁सच्चा	-12.1318
▁सोनाली	-12.1318
मूल्य	-12.1319
▁छाई	-12.1319
▁पोर्श	-12.1319
▁हार्ड	-12.1321
▁टाई	-12.1321
▁चौड़ी	-12.1321
▁वास्तविकता	-12.1324
▁जमालपुर	-12.1325
▁धर्मपाल	-12.1328
▁भट्टाचार्य	-12.1328
▁एमजीएम	-12.1329
▁वर्किंग	-12.1329
▁अशोकनगर	-12.133
▁संतुष्टि	-12.1331
▁विशेषता	-12.1331
▁दरें	-12.1331
▁फूलपुर	-12.1331
▁12.30	-12.1333
टोला	-12.1334
िष्क	-12.1338
▁देवली	-12.1339
▁दौड़ते	-12.134
▁ग्रै	-12.1346
परा	-12.1347
▁(4)	-12.1348
▁420	-12.1351
ियाना	-12.1353
वरी	-12.1354
रियो	-12.1359
▁नेवी	-12.1361
▁सप्लायर	-12.1362
▁लाला	-12.1364
▁आयाम	-12.1365
▁मास्क	-12.1367
kar	-12.1367
▁बोलता	-12.1369
क्षा	-12.1374
ड़ों	-12.1376
▁नौजवानों	-12.1376
▁सजाई	-12.1376
▁हरित	-12.1377
ran	-12.1378
▁टांके	-12.1379
▁ताऊ	-12.1379
▁वाचन	-12.1382
यशी	-12.1386
▁देवराज	-12.1387
▁गरम	-12.139
▁स्पष्टता	-12.1394
▁नजरें	-12.1402
्फी	-12.1404
▁चंदू	-12.1406
▁एफडी	-12.1406
आईएस	-12.141
mar	-12.1414
बली	-12.1421
▁स्रोतों	-12.1421
▁रियान	-12.1424
ोलिक	-12.1428
▁बीसी	-12.143
▁चलन	-12.1431
▁पर्दा	-12.1432
▁अं	-12.1438
▁137	-12.144
खाने	-12.1443
▁राइटर	-12.1446
▁रामपुरा	-12.1447
▁शै	-12.1448
▁उपयोगी	-12.1449
▁सजी	-12.1449
्यूम	-12.145
्‍त	-12.1453
ैक्ट	-12.1456
▁प्रक्रियाओं	-12.1459
▁चू	-12.1466
ाध	-12.1468
बेन	-12.1468
चाप	-12.1473
त्या	-12.1474
▁अंगद	-12.1475
.95	-12.1476
▁महता	-12.1476
▁कांति	-12.1478
▁बर्न	-12.1478
बंध	-12.1479
▁टीटी	-12.1479
कुर	-12.148
कक्ष	-12.148
▁गिना	-12.148
ियारी	-12.148
▁134	-12.1482
▁लगाती	-12.1484
पोषित	-12.1493
लाई	-12.1495
वंश	-12.1495
▁वनवास	-12.1496
▁शर्म	-12.1496
ट्री	-12.1497
▁पालक	-12.1503
▁ब्रि	-12.1505
मिन	-12.1505
▁रॉक	-12.1506
▁मेंटल	-12.1509
▁श्रीमत	-12.1509
▁भरते	-12.151
PS	-12.1514
▁सहन	-12.1518
.17	-12.1521
▁व्यंजन	-12.1522
▁जतिन	-12.1523
▁अधूर	-12.1525
व्य	-12.1526
डे़	-12.1527
▁सिपाह	-12.1533
नानी	-12.1535
वाडा	-12.1536
▁परवेज	-12.1537
टॉप	-12.1539
बहू	-12.154
प्रदान	-12.154
▁Man	-12.154
IT	-12.154
चढ़कर	-12.1541
क्ट	-12.1541
्ली	-12.1544
▁ख़रीद	-12.1545
वरना	-12.1545
गवां	-12.1548
▁ब्यावर	-12.1549
▁प्राची	-12.1554
▁वार्डन	-12.1557
ीलाल	-12.1558
▁होड़	-12.1559
ेप	-12.156
▁दबे	-12.1561
▁लिमिट	-12.1562
▁धंधे	-12.1562
▁Ekadashi	-12.1562
▁hindi	-12.1562
▁अंडमान	-12.1562
▁उद्बोधन	-12.1562
▁गोगुंदा	-12.1562
▁त्रयोदशी	-12.1562
▁नारनौंद	-12.1562
▁नुक़सान	-12.1562
▁पैरेंट्स	-12.1562
▁फर्रुखाबाद	-12.1562
▁बाजपेई	-12.1562
▁रेस्तरां	-12.1562
▁रोमांस	-12.1562
▁लक्षद्वीप	-12.1562
▁वातानुकूल	-12.1562
▁श्रावस्ती	-12.1562
▁हताहत	-12.1562
▁लिफाफ	-12.1562
▁बिखेर	-12.1562
▁परवरिश	-12.1562
▁सैलून	-12.1562
▁पचौरी	-12.1563
▁भिवाड़ी	-12.1563
▁(34)	-12.1563
▁गुणगान	-12.1563
▁दलीप	-12.1563
▁Politics	-12.1563
▁Cup	-12.1563
▁मैसूर	-12.1563
▁GST	-12.1563
▁चौपाटी	-12.1563
▁ढेबर	-12.1563
▁त्रिलोक	-12.1563
▁आनन्द	-12.1563
▁राष्ट्रगान	-12.1563
▁मेधावी	-12.1563
▁ज़मानत	-12.1563
▁नमकीन	-12.1563
▁एनआईटी	-12.1564
▁बहनोई	-12.1564
▁वर्गमीटर	-12.1564
▁इमली	-12.1564
▁एक्सटेंशन	-12.1564
▁क्रय	-12.1564
▁छात्रवृत्ति	-12.1564
▁कैंटीन	-12.1564
▁पिपरिया	-12.1564
▁डामर	-12.1565
▁रेवती	-12.1565
▁स्तोत्र	-12.1565
▁वाकई	-12.1565
एसआई	-12.1565
▁चकमा	-12.1565
▁अव्वल	-12.1566
▁बृजेंद्र	-12.1566
▁मोस्ट	-12.1567
▁बब्बर	-12.1567
▁पार्थ	-12.1567
▁शुक्रिया	-12.1568
लकत्ता	-12.1568
▁MLA	-12.1568
▁ऋषिकेश	-12.1568
▁CAA	-12.1568
▁चश्मा	-12.1568
▁एडवांस्ड	-12.1569
▁शर्तें	-12.1569
▁विजिबिलिटी	-12.1569
▁पासवर्ड	-12.157
▁मिसाइलें	-12.1571
हवा	-12.1571
▁जवाबदेही	-12.1571
▁स्टोन	-12.1571
▁वोल्टे	-12.1571
▁Diesel	-12.1571
ACB	-12.1572
▁मैया	-12.1573
▁बबली	-12.1574
▁दंत	-12.1574
▁काजू	-12.1575
्नी	-12.1575
▁चुनरी	-12.1577
▁वेंकटेश	-12.1577
▁तेरी	-12.1578
▁बैरक	-12.1579
▁डेल	-12.1579
▁पूछते	-12.1581
स्का	-12.1583
▁उर्स	-12.1584
▁पाम	-12.1585
लोग	-12.1586
▁प्रियजन	-12.1587
रोज	-12.1589
▁जयपाल	-12.1589
▁यादें	-12.1591
▁जाइए	-12.1591
▁हमीद	-12.1592
ेक्शन	-12.1593
▁मिल्क	-12.1596
▁दहला	-12.1598
▁महबूब	-12.16
▁जुड़वा	-12.1601
▁गुमट	-12.1603
रोधी	-12.1604
▁गिरफ़्तारी	-12.1605
टिंग	-12.1609
▁सोहना	-12.1609
चाल	-12.161
▁मट	-12.161
▁चिपका	-12.1612
▁एनसी	-12.1612
पोर्ट	-12.1613
▁गोविन्द	-12.1614
▁खसरा	-12.1617
▁अंशुमा	-12.1618
▁आनी	-12.1619
▁मित	-12.162
वेलकम	-12.162
▁लाईन	-12.162
अन	-12.1622
▁भग	-12.1632
्वी	-12.1636
न्ध	-12.1638
▁To	-12.1643
▁बांटी	-12.1649
▁करूं	-12.1649
वश	-12.165
▁आयी	-12.1651
▁मोहर	-12.1652
▁बेरी	-12.1654
▁सड़	-12.1655
hra	-12.1658
सीएल	-12.1659
▁पाय	-12.1663
सिल	-12.1663
▁करारी	-12.1664
▁बचाकर	-12.1664
सके	-12.1665
▁घुटन	-12.1666
▁जिप	-12.1668
▁ऑनर	-12.1668
▁होंडा	-12.1668
▁सुनाए	-12.1669
▁अरे	-12.1671
▁दफना	-12.1671
▁खेलकर	-12.1674
▁डूबा	-12.1676
कमान	-12.1676
्लो	-12.1681
wa	-12.1688
▁बेड़	-12.1694
▁पंज	-12.1696
▁पीडीए	-12.1703
▁कुम	-12.1703
▁गोल्फ	-12.1709
▁हटवा	-12.171
.90	-12.1711
▁रेज	-12.1711
▁सर्दिय	-12.1711
▁रामू	-12.1711
▁Da	-12.1713
मुल	-12.1714
▁मोटे	-12.1715
▁पिन	-12.172
▁ऑस्	-12.1721
RA	-12.1721
.67	-12.1723
▁रिट	-12.1725
▁3.5	-12.1725
▁सीपीआई	-12.173
▁अनूठ	-12.1733
णु	-12.1734
▁119	-12.1735
▁कंध	-12.1745
हाई	-12.1746
▁सिन	-12.1746
घट	-12.1747
▁परवाह	-12.1753
▁मुगल	-12.1755
▁नकार	-12.1756
त्तर	-12.1762
रंजन	-12.1768
.99	-12.1771
च्च	-12.1771
बाजार	-12.1772
▁इंद	-12.1772
कांड	-12.1775
▁धंस	-12.1784
▁कुश	-12.1786
स्की	-12.1786
.23	-12.1787
▁दाखिले	-12.1788
▁कर्व	-12.179
▁मंद	-12.1791
िशन	-12.1792
डीसी	-12.1792
कां	-12.1794
टक	-12.1796
तैसे	-12.1799
वह	-12.1799
▁वाल	-12.18
▁मेवा	-12.18
शर्ट	-12.1802
ऊंगा	-12.1804
▁उन्ह	-12.1812
वेस्ट	-12.1813
▁अभिभाष	-12.1814
▁गुजार	-12.1817
▁विला	-12.1818
▁तालाबों	-12.1819
बरा	-12.1819
▁परोस	-12.1819
इंड	-12.182
▁सम्बन्ध	-12.1821
द्दी	-12.1823
.88	-12.1824
▁अम्बेडकर	-12.1825
▁असंतुल	-12.1826
▁एप्लिकेशन	-12.1826
▁ऑस्‍ट्रेलिया	-12.1826
▁कन्फर्म	-12.1826
▁कार्यशैली	-12.1826
▁कोटपूतली	-12.1826
▁क्रिश्चियन	-12.1826
▁चाइनीज	-12.1826
▁चिकनगुनिया	-12.1826
▁ट्रांसजेंडर	-12.1826
▁थ्रिलर	-12.1826
▁दोसांझ	-12.1826
▁नेटवर्थ	-12.1826
▁बेबुनियाद	-12.1826
▁ब्राजील	-12.1826
▁मुमताज	-12.1826
▁मौखिक	-12.1826
▁रकबा	-12.1826
▁रिफ्रेश	-12.1826
▁वेणुगोपाल	-12.1826
witter	-12.1826
▁नकाबपोश	-12.1826
▁मछुआर	-12.1826
▁शंख	-12.1826
▁बाणगंगा	-12.1826
▁वांटेड	-12.1826
▁शर्मनाक	-12.1826
The	-12.1826
▁आत्मसमर्पण	-12.1826
▁Live	-12.1826
▁नरसंहार	-12.1826
▁सर्कल	-12.1826
▁स्कॉलरशिप	-12.1826
▁Sharma	-12.1826
▁रवैये	-12.1826
▁टैटू	-12.1826
▁नेचुरल	-12.1826
▁अचेत	-12.1826
▁खराड़ी	-12.1826
▁क्वाड	-12.1826
बेतवा	-12.1826
संदेशखाली	-12.1826
▁इर्द	-12.1826
▁चंचल	-12.1826
▁संपादक	-12.1827
▁कठिनाइय	-12.1827
▁जायेंगे	-12.1827
▁इंटरनल	-12.1827
▁पीपुल	-12.1827
▁आरसीबी	-12.1827
▁अद्वितीय	-12.1827
▁हरिशंकर	-12.1827
▁रेलसेवा	-12.1827
▁नासिर	-12.1827
▁जेबी	-12.1827
▁डैमेज	-12.1827
▁जमावड़ा	-12.1828
▁महारानी	-12.1828
▁सहगल	-12.1828
▁खंडहर	-12.1828
▁लंच	-12.1828
▁माइल	-12.1828
▁दीर्घा	-12.1828
▁किनारा	-12.1828
श्र	-12.1829
▁ब्रह्मांड	-12.1829
▁SBI	-12.1829
▁मुंगेली	-12.1829
▁अनिश्चितता	-12.183
▁कारखाना	-12.183
विल	-12.1831
▁मंकी	-12.1831
▁नीतियां	-12.1831
▁नसीब	-12.1831
च्छ	-12.1832
▁राइट्स	-12.1832
▁छाती	-12.1833
▁गजब	-12.1834
▁कन्वें	-12.1835
ord	-12.1836
▁for	-12.184
▁बाड़े	-12.184
्ग	-12.184
ाइज्ड	-12.1843
▁आमेर	-12.1843
▁थानाक्षेत्र	-12.1843
अनु	-12.1844
▁नॉट	-12.1844
▁पखवाड़ा	-12.1844
▁हड़पने	-12.1846
▁मानसिंह	-12.1846
▁आदतन	-12.1848
▁तांत्रिक	-12.1849
▁किराएदार	-12.185
▁जीएसएस	-12.185
▁ढुल	-12.1851
▁इंट	-12.1852
▁बेकार	-12.1852
्राफ्ट	-12.1853
ंटू	-12.1855
.04	-12.1855
▁नवाजा	-12.1856
▁Su	-12.1857
▁प्रज्वलन	-12.1858
डीपी	-12.1859
▁गद्दी	-12.186
▁प्रणव	-12.186
▁100%	-12.186
▁ढहा	-12.1861
▁प्रश्नों	-12.1862
▁हत्यारे	-12.1864
▁कृतिका	-12.1867
▁टॉक	-12.187
▁मजार	-12.1877
.38	-12.1878
बास	-12.1878
▁तिरु	-12.1878
▁सुष	-12.1884
दानी	-12.1885
▁मोनो	-12.1886
पीसी	-12.189
▁आटा	-12.1895
▁टोकन	-12.1901
▁घोड़ा	-12.1903
▁खीरी	-12.1905
▁गोर	-12.1907
▁छोड़ते	-12.1909
▁जेएस	-12.191
मंगल	-12.1911
▁दोप	-12.1912
बहार	-12.1914
▁आफिस	-12.1916
▁एजी	-12.1916
िलेश	-12.1916
▁1400	-12.1917
हत्या	-12.1926
9%	-12.1926
▁लेडीज	-12.1926
▁इत	-12.1927
वट	-12.1932
▁यूडीए	-12.1934
▁सेविका	-12.1935
▁गलतियों	-12.1941
▁MI	-12.1946
▁अड़ा	-12.1948
▁गैप	-12.1949
▁बुलाए	-12.1953
मिला	-12.1963
गुल	-12.1964
ढ़ी	-12.1964
▁147	-12.1971
▁टेकर	-12.1972
▁चौंक	-12.1973
▁मेवात	-12.1974
सिस	-12.1975
वासा	-12.1976
▁यूएन	-12.1981
ेंड	-12.1984
ाड़ा	-12.1987
क्शन	-12.1987
▁टीना	-12.1992
▁अंदाज़	-12.1992
पूरा	-12.1993
▁संवार	-12.1994
▁पुरवा	-12.1994
बाबा	-12.1999
▁लुढ़क	-12.2001
▁मस्जिदों	-12.2004
त्थ	-12.2006
▁जेडी	-12.2007
▁गोंड	-12.2008
▁हिर	-12.2019
▁बरा	-12.202
▁जमी	-12.202
्शन	-12.2024
▁550	-12.2027
▁पारे	-12.2029
रवाई	-12.2031
▁चाहत	-12.2038
▁गोट	-12.2038
▁127	-12.2039
विंद्र	-12.204
▁भाद	-12.2044
नियम	-12.2044
राई	-12.2052
िजन	-12.2055
▁बाव	-12.2058
▁मंथ	-12.2064
क्रम	-12.2067
खण्ड	-12.2067
▁चित्रा	-12.2068
मूर्ति	-12.2069
▁प्रभा	-12.207
धमका	-12.207
डंडों	-12.207
प्रिंट	-12.2071
दुर्ग	-12.2071
श्याम	-12.2071
कॉलेज	-12.2071
कॉमर्स	-12.2072
ऊं	-12.2074
सोन	-12.2075
▁वाय	-12.2076
▁फील	-12.2078
▁नाप	-12.2082
▁छेड़	-12.2083
▁113	-12.2083
▁4000	-12.2087
पूरी	-12.2089
डोल	-12.209
▁कालीन	-12.209
▁औरैया	-12.2094
फूल	-12.2095
▁एग्जीबिशन	-12.2096
▁गरियाबंद	-12.2096
▁ग्रसित	-12.2096
▁चटर्जी	-12.2096
▁ट्रांजैक्शन	-12.2096
▁डायवर्जन	-12.2096
▁पीरियड	-12.2096
▁प्रजनन	-12.2096
▁फिलीपींस	-12.2096
▁बेखौफ	-12.2096
▁बैकुंठ	-12.2096
▁भदोही	-12.2096
▁भयभीत	-12.2096
▁रैलियां	-12.2096
▁लोहरदगा	-12.2096
▁शतरंज	-12.2096
▁सर्वांगीण	-12.2096
▁सर्विलांस	-12.2096
▁साम्राज्य	-12.2096
▁सिंडिकेट	-12.2096
▁सीक्वेंस	-12.2096
▁स्वायत्त	-12.2096
▁उन्होने	-12.2096
▁मुकुंद	-12.2096
मॉर्निंग	-12.2096
▁कोडरमा	-12.2096
▁तुझे	-12.2096
▁धुर्वे	-12.2096
▁सुलभ	-12.2096
मोहर्रम	-12.2096
▁इंटरमीडिएट	-12.2096
▁तिर्की	-12.2096
▁फेवरेट	-12.2096
▁डिबेट	-12.2096
▁अन्वेषण	-12.2096
▁नागालैंड	-12.2096
▁शक्कर	-12.2096
▁चुंगी	-12.2096
▁डिमरी	-12.2096
▁ढांडा	-12.2096
▁बेशक	-12.2096
▁विग्रह	-12.2096
▁परिणामस्वरूप	-12.2096
▁ब्रीफ	-12.2097
▁मोबिलिटी	-12.2097
▁गगनदीप	-12.2097
▁शांतनु	-12.2097
▁चित्रकला	-12.2097
▁संजना	-12.2097
सीजेआई	-12.2097
▁रेवंत	-12.2097
▁गणगौर	-12.2097
▁खर्रा	-12.2097
इन्फ्रास्ट्रक्चर	-12.2097
▁उपाधि	-12.2097
▁मैक्रों	-12.2097
▁महापुरुष	-12.2097
▁दहिया	-12.2097
▁विद्याधर	-12.2097
▁शादिय	-12.2097
▁अन्‍य	-12.2097
▁एग्रो	-12.2097
▁स्किन	-12.2097
▁लंका	-12.2098
▁Maruti	-12.2098
▁डार्क	-12.2098
▁भंवरलाल	-12.2098
▁रूफ	-12.2098
▁मावली	-12.2098
▁रामानुज	-12.2098
▁रमजान	-12.2099
▁बत्रा	-12.2099
रिक	-12.2099
▁शील	-12.2099
▁नगला	-12.2099
▁यूनिक	-12.2099
गरीब	-12.2099
▁ज्वैलरी	-12.21
▁साहसिक	-12.21
▁दोहराया	-12.21
▁सिमरिया	-12.21
▁ओवरटेक	-12.21
▁शक्तियां	-12.21
▁इशारों	-12.2101
▁1972	-12.2101
▁राजग	-12.2102
▁फांद	-12.2102
▁संजीत	-12.2102
▁CSK	-12.2102
▁माघ	-12.2105
▁डंडा	-12.2105
▁रसेल	-12.2105
▁खुलेगी	-12.2106
▁वां	-12.2109
▁खलील	-12.211
▁रामबाग	-12.2114
▁चौकसे	-12.2116
व्हीलर	-12.2117
▁पढ़ता	-12.2117
▁सभाएं	-12.2118
वित्तमंत्री	-12.212
▁संवेदनशीलता	-12.2121
▁बुराई	-12.2121
ोई	-12.2127
▁पम्प	-12.2128
▁195	-12.2134
▁वादन	-12.2136
▁तीखे	-12.2136
रेड	-12.2137
▁लाइक	-12.2139
▁किग्रा	-12.2142
▁घात	-12.2144
▁सोई	-12.2144
पीसीबी	-12.2147
NC	-12.2157
▁10,000	-12.2158
फेयर	-12.2162
▁मर्द	-12.2163
▁मानसा	-12.2163
▁महकमे	-12.2169
क्‍स	-12.2175
डिनर	-12.2184
▁पब	-12.219
ेष	-12.2196
.32	-12.2198
▁जप्त	-12.2198
▁k	-12.2208
▁गुजरा	-12.2208
▁मेटा	-12.221
ारण	-12.2211
▁खट	-12.2215
प्रबल	-12.2218
एनसी	-12.2224
pa	-12.2224
गोल	-12.2224
▁मेघ	-12.2229
▁सजे	-12.2231
चन	-12.2233
▁बोरे	-12.2234
▁नीर	-12.2238
▁(2	-12.2244
टरी	-12.2247
▁ढाल	-12.2247
▁वास्तु	-12.2248
.71	-12.2249
▁फाइट	-12.225
▁फार्मा	-12.2254
ेक्टर	-12.2254
▁नाके	-12.2254
ाइटिस	-12.2256
▁नांद	-12.2257
फिल	-12.2257
▁रॉ	-12.226
.16	-12.226
इया	-12.2262
ोरी	-12.2264
▁ब्ल	-12.2265
[...]
