{
  "version": "1.0",
  "truncation": null,
  "padding": null,
  "added_tokens": [
    {
      "id": 0,
      "content": "[UNK]",
      "single_word": false,
      "lstrip": false,
      "rstrip": false,
      "normalized": false,
      "special": true
    },
    {
      "id": 1,
      "content": "[CLS]",
      "single_word": false,
      "lstrip": false,
      "rstrip": false,
      "normalized": false,
      "special": true
    },
    {
      "id": 2,
      "content": "[SEP]",
      "single_word": false,
      "lstrip": false,
      "rstrip": false,
      "normalized": false,
      "special": true
    },
    {
      "id": 3,
      "content": "[PAD]",
      "single_word": false,
      "lstrip": false,
      "rstrip": false,
      "normalized": false,
      "special": true
    },
    {
      "id": 4,
      "content": "[MASK]",
      "single_word": false,
      "lstrip": false,
      "rstrip": false,
      "normalized": false,
      "special": true
    }
  ],
  "normalizer": {
    "type": "Sequence",
    "normalizers": [
      {
        "type": "NFKC"
      },
      {
        "type": "Lowercase"
      }
    ]
  },
  "pre_tokenizer": {
    "type": "Whitespace"
  },
  "post_processor": null,
  "decoder": {
    "type": "WordPiece",
    "prefix": "##",
    "cleanup": true
  },
  "model": {
    "type": "WordPiece",
    "unk_token": "[UNK]",
    "continuing_subword_prefix": "##",
    "max_input_chars_per_word": 100,
    "vocab": {
      "[UNK]": 0,
      "[CLS]": 1,
      "[SEP]": 2,
      "[PAD]": 3,
      "[MASK]": 4,
      "!": 5,
      "\"": 6,
      "#": 7,
      "$": 8,
      "%": 9,
      "&": 10,
      "'": 11,
      "(": 12,
      ")": 13,
      "*": 14,
      "+": 15,
      ",": 16,
      "-": 17,
      ".": 18,
      "/": 19,
      "0": 20,
      "1": 21,
      "2": 22,
      "3": 23,
      "4": 24,
      "5": 25,
      "6": 26,
      "7": 27,
      "8": 28,
      "9": 29,
      ":": 30,
      ";": 31,
      "=": 32,
      ">": 33,
      "?": 34,
      "@": 35,
      "[": 36,
      "\\": 37,
      "]": 38,
      "^": 39,
      "_": 40,
      "a": 41,
      "b": 42,
      "c": 43,
      "d": 44,
      "e": 45,
      "f": 46,
      "g": 47,
      "h": 48,
      "i": 49,
      "j": 50,
      "k": 51,
      "l": 52,
      "m": 53,
      "n": 54,
      "o": 55,
      "p": 56,
      "q": 57,
      "r": 58,
      "s": 59,
      "t": 60,
      "u": 61,
      "v": 62,
      "w": 63,
      "x": 64,
      "y": 65,
      "z": 66,
      "{": 67,
      "}": 68,
      "~": 69,
      "£": 70,
      "­": 71,
      "°": 72,
      "·": 73,
      "×": 74,
      "ï": 75,
      "̈": 76,
      "ँ": 77,
      "ं": 78,
      "ः": 79,
      "अ": 80,
      "आ": 81,
      "इ": 82,
      "ई": 83,
      "उ": 84,
      "ऊ": 85,
      "ऋ": 86,
      "ऍ": 87,
      "ए": 88,
      "ऐ": 89,
      "ऑ": 90,
      "ओ": 91,
      "औ": 92,
      "क": 93,
      "ख": 94,
      "ग": 95,
      "घ": 96,
      "ङ": 97,
      "च": 98,
      "छ": 99,
      "ज": 100,
      "झ": 101,
      "ञ": 102,
      "ट": 103,
      "ठ": 104,
      "ड": 105,
      "ढ": 106,
      "ण": 107,
      "त": 108,
      "थ": 109,
      "द": 110,
      "ध": 111,
      "न": 112,
      "ऩ": 113,
      "प": 114,
      "फ": 115,
      "ब": 116,
      "भ": 117,
      "म": 118,
      "य": 119,
      "र": 120,
      "ऱ": 121,
      "ल": 122,
      "ळ": 123,
      "व": 124,
      "श": 125,
      "ष": 126,
      "स": 127,
      "ह": 128,
      "़": 129,
      "ऽ": 130,
      "ा": 131,
      "ि": 132,
      "ी": 133,
      "ु": 134,
      "ू": 135,
      "ृ": 136,
      "ॅ": 137,
      "ॆ": 138,
      "े": 139,
      "ै": 140,
      "ॉ": 141,
      "ॊ": 142,
      "ो": 143,
      "ौ": 144,
      "्": 145,
      "ॐ": 146,
      "॑": 147,
      "ॠ": 148,
      "।": 149,
      "॥": 150,
      "०": 151,
      "१": 152,
      "२": 153,
      "३": 154,
      "४": 155,
      "५": 156,
      "६": 157,
      "८": 158,
      "९": 159,
      "॰": 160,
      "ঁ": 161,
      "অ": 162,
      "আ": 163,
      "ই": 164,
      "এ": 165,
      "ও": 166,
      "ক": 167,
      "খ": 168,
      "ঘ": 169,
      "চ": 170,
      "ছ": 171,
      "জ": 172,
      "ট": 173,
      "ঠ": 174,
      "ড": 175,
      "ণ": 176,
      "ত": 177,
      "দ": 178,
      "ধ": 179,
      "ন": 180,
      "প": 181,
      "ব": 182,
      "ম": 183,
      "য": 184,
      "র": 185,
      "ল": 186,
      "ষ": 187,
      "স": 188,
      "়": 189,
      "া": 190,
      "ি": 191,
      "ী": 192,
      "ু": 193,
      "ে": 194,
      "ো": 195,
      "্": 196,
      "ઢ": 197,
      "ం": 198,
      "ఇ": 199,
      "క": 200,
      "గ": 201,
      "చ": 202,
      "ఛ": 203,
      "జ": 204,
      "ట": 205,
      "డ": 206,
      "ణ": 207,
      "త": 208,
      "థ": 209,
      "ద": 210,
      "న": 211,
      "ప": 212,
      "ఫ": 213,
      "బ": 214,
      "భ": 215,
      "ర": 216,
      "ల": 217,
      "వ": 218,
      "శ": 219,
      "స": 220,
      "ా": 221,
      "ి": 222,
      "ీ": 223,
      "ు": 224,
      "ూ": 225,
      "ె": 226,
      "ే": 227,
      "ొ": 228,
      "ో": 229,
      "్": 230,
      "‌": 231,
      "‍": 232,
      "‎": 233,
      "‛": 234,
      "•": 235,
      "⁄": 236,
      "⁠": 237,
      "€": 238,
      "₹": 239,
      "⏩": 240,
      "⏱": 241,
      "▪": 242,
      "○": 243,
      "●": 244,
      "☀": 245,
      "♈": 246,
      "♉": 247,
      "♊": 248,
      "♋": 249,
      "♌": 250,
      "♍": 251,
      "♏": 252,
      "♐": 253,
      "♑": 254,
      "♒": 255,
      "♓": 256,
      "♦": 257,
      "⚠": 258,
      "⚫": 259,
      "❓": 260,
      "❗": 261,
      "➤": 262,
      "⭐": 263,
      "": 264,
      "️": 265,
      "🇮": 266,
      "🇳": 267,
      "🌅": 268,
      "🌙": 269,
      "🌟": 270,
      "🎉": 271,
      "🏅": 272,
      "🏹": 273,
      "🐉": 274,
      "💫": 275,
      "🔴": 276,
      "🔵": 277,
      "🕐": 278,
      "🗓": 279,
      "😉": 280,
      "😎": 281,
      "😜": 282,
      "😸": 283,
      "🤔": 284,
      "🤩": 285,
      "🦌": 286,
      "🧭": 287,
      "🪐": 288,
      "##ृ": 289,
      "##त": 290,
      "##क": 291,
      "##ा": 292,
      "##ब": 293,
      "##्": 294,
      "##ज": 295,
      "##ो": 296,
      "##ं": 297,
      "##य": 298,
      "##ध": 299,
      "##ु": 300,
      "##द": 301,
      "##ी": 302,
      "##म": 303,
      "##ल": 304,
      "##ि": 305,
      "##स": 306,
      "##च": 307,
      "##र": 308,
      "##व": 309,
      "##े": 310,
      "##श": 311,
      "##ौ": 312,
      "##ऊ": 313,
      "##ड": 314,
      "##़": 315,
      "##ठ": 316,
      "##न": 317,
      "##ट": 318,
      "##ष": 319,
      "##प": 320,
      "##ग": 321,
      "##भ": 322,
      "##ू": 323,
      "##थ": 324,
      "##ॉ": 325,
      "##ै": 326,
      "##ओ": 327,
      "##फ": 328,
      "##ए": 329,
      "##d": 330,
      "##p": 331,
      "##ण": 332,
      "##r": 333,
      "##l": 334,
      "##इ": 335,
      "##ి": 336,
      "##క": 337,
      "##ె": 338,
      "##ట": 339,
      "##్": 340,
      "##ढ": 341,
      "##ँ": 342,
      "##ह": 343,
      "##o": 344,
      "##n": 345,
      "##e": 346,
      "##m": 347,
      "##i": 348,
      "##ख": 349,
      "##y": 350,
      "##a": 351,
      "##h": 352,
      "##‌": 353,
      "##आ": 354,
      "##6": 355,
      "##9": 356,
      "##k": 357,
      "##v": 358,
      "##s": 359,
      "##f": 360,
      "##u": 361,
      "##ई": 362,
      "##t": 363,
      "##‍": 364,
      "##g": 365,
      "##अ": 366,
      "##c": 367,
      "##घ": 368,
      "##5": 369,
      "##7": 370,
      "##3": 371,
      "##4": 372,
      "##2": 373,
      "##0": 374,
      "##झ": 375,
      "##उ": 376,
      "##8": 377,
      "##1": 378,
      "##ञ": 379,
      "##w": 380,
      "##ॅ": 381,
      "##छ": 382,
      "##x": 383,
      "##z": 384,
      "##ः": 385,
      "##j": 386,
      "##b": 387,
      "##०": 388,
      "##q": 389,
      "##ি": 390,
      "##চ": 391,
      "##া": 392,
      "##র": 393,
      "##*": 394,
      "##!": 395,
      "##.": 396,
      "##'": 397,
      "##:": 398,
      "##_": 399,
      "##३": 400,
      "##ळ": 401,
      "##ऱ": 402,
      "##ऑ": 403,
      "##)": 404,
      "##?": 405,
      "##ধ": 406,
      "##ণ": 407,
      "##ङ": 408,
      "##ऽ": 409,
      "##@": 410,
      "###": 411,
      "##ॆ": 412,
      "##ऐ": 413,
      "##্": 414,
      "##য": 415,
      "##ম": 416,
      "##औ": 417,
      "##=": 418,
      "##१": 419,
      "##ॠ": 420,
      "##९": 421,
      "##\"": 422,
      "##,": 423,
      "##ా": 424,
      "##న": 425,
      "##ీ": 426,
      "##-": 427,
      "##॑": 428,
      "##+": 429,
      "##দ": 430,
      "##প": 431,
      "##ে": 432,
      "##ক": 433,
      "##ষ": 434,
      "##়": 435,
      "##খ": 436,
      "##ন": 437,
      "##ర": 438,
      "##జ": 439,
      "##।": 440,
      "##ত": 441,
      "##ল": 442,
      "##ো": 443,
      "##ऩ": 444,
      "##ই": 445,
      "##ছ": 446,
      "##🤔": 447,
      "##স": 448,
      "##ট": 449,
      "##ల": 450,
      "##ు": 451,
      "##😸": 452,
      "##😎": 453,
      "##🤩": 454,
      "##ే": 455,
      "##శ": 456,
      "##८": 457,
      "##জ": 458,
      "##/": 459,
      "##­": 460,
      "##స": 461,
      "##ూ": 462,
      "##२": 463,
      "##ব": 464,
      "##‎": 465,
      "##ऋ": 466,
      "##॰": 467,
      "##🇳": 468,
      "##॥": 469,
      "##ী": 470,
      "##६": 471,
      "##ం": 472,
      "##ॊ": 473,
      "##$": 474,
      "##ু": 475,
      "##५": 476,
      "##": 477,
      "##ొ": 478,
      "##చ": 479,
      "##ద": 480,
      "##ঁ": 481,
      "##ড": 482,
      "##త": 483,
      "##డ": 484,
      "##४": 485,
      "##గ": 486,
      "##థ": 487,
      "##ో": 488,
      "##(": 489,
      "##;": 490,
      "##ణ": 491,
      "##ঠ": 492,
      "##ार": 493,
      "##ें": 494,
      "के": 495,
      "##्र": 496,
      "##या": 497,
      "में": 498,
      "है": 499,
      "की": 500,
      "##ान": 501,
      "##ों": 502,
      "को": 503,
      "##र्": 504,
      "से": 505,
      "##ने": 506,
      "कि": 507,
      "ने": 508,
      "का": 509,
      "कर": 510,
      "##ता": 511,
      "##ाल": 512,
      "पर": 513,
      "##िक": 514,
      "##्य": 515,
      "##ना": 516,
      "##िल": 517,
      "और": 518,
      "##स्": 519,
      "प्र": 520,
      "##क्": 521,
      "##ड़": 522,
      "##ां": 523,
      "इस": 524,
      "##ाम": 525,
      "##ही": 526,
      "हो": 527,
      "##िया": 528,
      "##ित": 529,
      "##वा": 530,
      "बा": 531,
      "##हा": 532,
      "हैं": 533,
      "##के": 534,
      "##ला": 535,
      "##कर": 536,
      "##िए": 537,
      "##िय": 538,
      "##िस": 539,
      "##ुर": 540,
      "##ंग": 541,
      "भी": 542,
      "##ले": 543,
      "वि": 544,
      "स्": 545,
      "रा": 546,
      "##ते": 547,
      "##त्र": 548,
      "##ेश": 549,
      "जा": 550,
      "##िन": 551,
      "##ारी": 552,
      "##री": 553,
      "##हीं": 554,
      "सा": 555,
      "उन": 556,
      "हु": 557,
      "##ती": 558,
      "##रा": 559,
      "##्या": 560,
      "##ुल": 561,
      "किया": 562,
      "##ति": 563,
      "लिए": 564,
      "ले": 565,
      "सं": 566,
      "एक": 567,
      "##वार": 568,
      "##से": 569,
      "##नी": 570,
      "##गा": 571,
      "गया": 572,
      "##सी": 573,
      "पह": 574,
      "##ंद": 575,
      "सम": 576,
      "##क्ष": 577,
      "दे": 578,
      "नहीं": 579,
      "##ोग": 580,
      "था": 581,
      "रह": 582,
      "कार": 583,
      "नि": 584,
      "##ाय": 585,
      "अप": 586,
      "मु": 587,
      "##िला": 588,
      "सि": 589,
      "ही": 590,
      "##ली": 591,
      "बाद": 592,
      "##का": 593,
      "##टी": 594,
      "##की": 595,
      "##ाने": 596,
      "##ियों": 597,
      "##त्": 598,
      "##ार्": 599,
      "##ास": 600,
      "##ंड": 601,
      "साथ": 602,
      "##्ह": 603,
      "पुल": 604,
      "##भा": 605,
      "##िर": 606,
      "यह": 607,
      "##पी": 608,
      "पुलिस": 609,
      "गई": 610,
      "पू": 611,
      "कु": 612,
      "##मा": 613,
      "बता": 614,
      "कहा": 615,
      "##ाद": 616,
      "सु": 617,
      "##गी": 618,
      "करने": 619,
      "##ढ़": 620,
      "सी": 621,
      "##टर": 622,
      "राज": 623,
      "उन्ह": 624,
      "दो": 625,
      "अध": 626,
      "तो": 627,
      "रहे": 628,
      "##ंच": 629,
      "वाल": 630,
      "थी": 631,
      "दिया": 632,
      "##्म": 633,
      "उस": 634,
      "##रो": 635,
      "##्री": 636,
      "##रे": 637,
      "लोग": 638,
      "##ाना": 639,
      "मह": 640,
      "##्रे": 641,
      "अन": 642,
      "##ौर": 643,
      "##ाइ": 644,
      "तक": 645,
      "रहा": 646,
      "दी": 647,
      "बताया": 648,
      "20": 649,
      "##ाज": 650,
      "चु": 651,
      "##स्ट": 652,
      "##ल्": 653,
      "##देश": 654,
      "##गे": 655,
      "##भी": 656,
      "##में": 657,
      "मौ": 658,
      "हुए": 659,
      "मिल": 660,
      "##कार": 661,
      "##ाह": 662,
      "##ष्": 663,
      "##पुर": 664,
      "##ाई": 665,
      "##ानी": 666,
      "##गर": 667,
      "##िश": 668,
      "##वी": 669,
      "सिं": 670,
      "##्त": 671,
      "##दी": 672,
      "बार": 673,
      "बी": 674,
      "रही": 675,
      "##्ष": 676,
      "थे": 677,
      "##ंत्र": 678,
      "##दा": 679,
      "##ोज": 680,
      "##कि": 681,
      "जिस": 682,
      "सिंह": 683,
      "##टे": 684,
      "##िव": 685,
      "##ोंने": 686,
      "##नों": 687,
      "##बर": 688,
      "##ओं": 689,
      "##शन": 690,
      "##हर": 691,
      "सर": 692,
      "##जी": 693,
      "गए": 694,
      "उन्होंने": 695,
      "वह": 696,
      "##वि": 697,
      "##जा": 698,
      "##र्ट": 699,
      "जो": 700,
      "##ड़ी": 701,
      "मो": 702,
      "हम": 703,
      "बे": 704,
      "##स्थ": 705,
      "##र्म": 706,
      "जाए": 707,
      "ला": 708,
      "पहु": 709,
      "आरो": 710,
      "पहुंच": 711,
      "##ुप": 712,
      "##स्त": 713,
      "मे": 714,
      "लेकर": 715,
      "##जे": 716,
      "दिन": 717,
      "लगा": 718,
      "पहले": 719,
      "स्थ": 720,
      "##सा": 721,
      "इसके": 722,
      "##ड़ा": 723,
      "##च्": 724,
      "##द्र": 725,
      "##द्": 726,
      "अधिक": 727,
      "मै": 728,
      "##िंग": 729,
      "पी": 730,
      "लोगों": 731,
      "भार": 732,
      "##ेल": 733,
      "अपने": 734,
      "माम": 735,
      "कार्य": 736,
      "##पा": 737,
      "##ीन": 738,
      "हुई": 739,
      "##किन": 740,
      "##ाप": 741,
      "##्व": 742,
      "जब": 743,
      "बै": 744,
      "सो": 745,
      "लेकिन": 746,
      "##ंत्री": 747,
      "टी": 748,
      "परि": 749,
      "##क्र": 750,
      "जी": 751,
      "साल": 752,
      "##मार": 753,
      "कम": 754,
      "इन": 755,
      "दौर": 756,
      "##ोक": 757,
      "गां": 758,
      "जान": 759,
      "होने": 760,
      "वाले": 761,
      "##र्व": 762,
      "सक": 763,
      "क्ष": 764,
      "दौरान": 765,
      "अब": 766,
      "वर्": 767,
      "##ांच": 768,
      "बि": 769,
      "##ंध": 770,
      "या": 771,
      "##ेट": 772,
      "##ंप": 773,
      "##खा": 774,
      "##तर": 775,
      "##नाव": 776,
      "हुआ": 777,
      "##र्ज": 778,
      "साम": 779,
      "कै": 780,
      "पि": 781,
      "पा": 782,
      "##न्": 783,
      "बना": 784,
      "घर": 785,
      "दू": 786,
      "निर्": 787,
      "तर": 788,
      "बात": 789,
      "##ोट": 790,
      "मां": 791,
      "यु": 792,
      "शिक": 793,
      "##ष्ट": 794,
      "##ेत्र": 795,
      "##्रेस": 796,
      "##धान": 797,
      "सरकार": 798,
      "उप": 799,
      "##मान": 800,
      "##ूल": 801,
      "शाम": 802,
      "शुर": 803,
      "रुप": 804,
      "##कारी": 805,
      "करते": 806,
      "हर": 807,
      "आय": 808,
      "क्षेत्र": 809,
      "##टना": 810,
      "##च्च": 811,
      "##ड़े": 812,
      "ये": 813,
      "कुमार": 814,
      "रू": 815,
      "चुनाव": 816,
      "##वं": 817,
      "##ेंद्र": 818,
      "आप": 819,
      "##िप": 820,
      "अं": 821,
      "जन": 822,
      "पार्": 823,
      "महिला": 824,
      "डॉ": 825,
      "सू": 826,
      "##ोर": 827,
      "लिया": 828,
      "काम": 829,
      "सभी": 830,
      "##वे": 831,
      "##िम": 832,
      "कह": 833,
      "##एम": 834,
      "रो": 835,
      "कुछ": 836,
      "बन": 837,
      "##क्षा": 838,
      "##्ल": 839,
      "##ून": 840,
      "202": 841,
      "##डी": 842,
      "##वर": 843,
      "##क्त": 844,
      "दु": 845,
      "10": 846,
      "कई": 847,
      "पास": 848,
      "चल": 849,
      "##कों": 850,
      "##स्प": 851,
      "##क्ट": 852,
      "वे": 853,
      "##वाल": 854,
      "बढ़": 855,
      "मुख": 856,
      "##वाई": 857,
      "सब": 858,
      "##जार": 859,
      "गांव": 860,
      "लग": 861,
      "##्स": 862,
      "स्ट": 863,
      "##क्टर": 864,
      "थाना": 865,
      "मा": 866,
      "अनु": 867,
      "कॉ": 868,
      "द्": 869,
      "भारत": 870,
      "ग्र": 871,
      "प्रति": 872,
      "##सभा": 873,
      "##ारा": 874,
      "गिर": 875,
      "##वारा": 876,
      "टीम": 877,
      "ना": 878,
      "##ोल": 879,
      "##सर": 880,
      "जु": 881,
      "उनके": 882,
      "##जन": 883,
      "भा": 884,
      "बह": 885,
      "##भाग": 886,
      "मामले": 887,
      "कोई": 888,
      "चौ": 889,
      "सह": 890,
      "व्य": 891,
      "नाम": 892,
      "कांग": 893,
      "ट्र": 894,
      "##ेंगे": 895,
      "हि": 896,
      "दर्ज": 897,
      "विश": 898,
      "आज": 899,
      "द्वारा": 900,
      "आरोप": 901,
      "##बी": 902,
      "समय": 903,
      "##ीड": 904,
      "कांग्रेस": 905,
      "अपनी": 906,
      "##्यक्ष": 907,
      "##ोड़": 908,
      "##चार": 909,
      "देख": 910,
      "##टा": 911,
      "##बंध": 912,
      "शुरू": 913,
      "बच्च": 914,
      "निक": 915,
      "##ेज": 916,
      "हाल": 917,
      "##शी": 918,
      "राम": 919,
      "वहीं": 920,
      "उन्हें": 921,
      "खिला": 922,
      "एस": 923,
      "घटना": 924,
      "##एस": 925,
      "##्यू": 926,
      "गो": 927,
      "विक": 928,
      "यहां": 929,
      "दोनों": 930,
      "अम": 931,
      "बु": 932,
      "जिल": 933,
      "इं": 934,
      "##द्ध": 935,
      "##िका": 936,
      "स्क": 937,
      "अभ": 938,
      "जै": 939,
      "चाह": 940,
      "##ोर्ट": 941,
      "आई": 942,
      "जिला": 943,
      "##णा": 944,
      "##ृत": 945,
      "बजे": 946,
      "##यर": 947,
      "रुपए": 948,
      "##िट": 949,
      "##ताल": 950,
      "##र्स": 951,
      "फिल": 952,
      "अव": 953,
      "जांच": 954,
      "##ंबर": 955,
      "पै": 956,
      "रूप": 957,
      "विभाग": 958,
      "किसी": 959,
      "देश": 960,
      "मुख्य": 961,
      "तरह": 962,
      "अल": 963,
      "##ूर": 964,
      "रख": 965,
      "##मी": 966,
      "नगर": 967,
      "आरोपी": 968,
      "बीच": 969,
      "युव": 970,
      "##फ्त": 971,
      "##मंत्री": 972,
      "उसके": 973,
      "##्यों": 974,
      "##ायत": 975,
      "गु": 976,
      "जानकारी": 977,
      "अग": 978,
      "प्रदेश": 979,
      "##ंक": 980,
      "##ंट": 981,
      "##क्स": 982,
      "##ेर": 983,
      "दूस": 984,
      "दिल": 985,
      "डि": 986,
      "दि": 987,
      "लोक": 988,
      "लाख": 989,
      "स्थित": 990,
      "शामिल": 991,
      "छा": 992,
      "##दार": 993,
      "##00": 994,
      "##्न": 995,
      "##जू": 996,
      "पु": 997,
      "##त्या": 998,
      "एवं": 999,
      "##चना": 1000,
      "##लय": 1001,
      "बद": 1002,
      "भाज": 1003,
      "##ाला": 1004,
      "फिर": 1005,
      "करी": 1006,
      "बैठ": 1007,
      "नी": 1008,
      "अस्प": 1009,
      "भाजपा": 1010,
      "खु": 1011,
      "मैं": 1012,
      "होगा": 1013,
      "अस्पताल": 1014,
      "##चा": 1015,
      "जाएगा": 1016,
      "##जर": 1017,
      "##ाली": 1018,
      "किए": 1019,
      "जाने": 1020,
      "डी": 1021,
      "पुर": 1022,
      "तै": 1023,
      "रे": 1024,
      "उसे": 1025,
      "इला": 1026,
      "##र्ड": 1027,
      "पूर्व": 1028,
      "##सान": 1029,
      "जारी": 1030,
      "##वन": 1031,
      "खिलाफ": 1032,
      "##ंस": 1033,
      "कारण": 1034,
      "##क्रम": 1035,
      "उत्": 1036,
      "##वासी": 1037,
      "जिले": 1038,
      "##्यादा": 1039,
      "पार्टी": 1040,
      "सुर": 1041,
      "##्मी": 1042,
      "##एं": 1043,
      "रात": 1044,
      "##ेंट": 1045,
      "अन्य": 1046,
      "##दान": 1047,
      "मान": 1048,
      "ली": 1049,
      "##ेशन": 1050,
      "शु": 1051,
      "##ांस": 1052,
      "##आई": 1053,
      "याद": 1054,
      "वो": 1055,
      "करीब": 1056,
      "मंद": 1057,
      "##धार": 1058,
      "बो": 1059,
      "##प्": 1060,
      "##हत": 1061,
      "उम": 1062,
      "उनकी": 1063,
      "वाली": 1064,
      "आयोज": 1065,
      "##वान": 1066,
      "सद": 1067,
      "##ज्": 1068,
      "नेता": 1069,
      "##फी": 1070,
      "##क्ति": 1071,
      "मार": 1072,
      "परिवार": 1073,
      "ज्यादा": 1074,
      "##र्थ": 1075,
      "सीट": 1076,
      "गिरफ्त": 1077,
      "अध्यक्ष": 1078,
      "##पर": 1079,
      "मंत्री": 1080,
      "फै": 1081,
      "##बा": 1082,
      "मौके": 1083,
      "आए": 1084,
      "राज्य": 1085,
      "वर्ष": 1086,
      "ओर": 1087,
      "तीन": 1088,
      "मंदिर": 1089,
      "लि": 1090,
      "##सार": 1091,
      "##तीय": 1092,
      "##ियां": 1093,
      "करना": 1094,
      "##हार": 1095,
      "प्रश": 1096,
      "छात्र": 1097,
      "कार्र": 1098,
      "जाता": 1099,
      "फिल्म": 1100,
      "सुब": 1101,
      "##्यालय": 1102,
      "सामने": 1103,
      "कार्रवाई": 1104,
      "मौत": 1105,
      "##धी": 1106,
      "जग": 1107,
      "शहर": 1108,
      "##ुत": 1109,
      "हजार": 1110,
      "##ामी": 1111,
      "सुबह": 1112,
      "हा": 1113,
      "कार्यक्रम": 1114,
      "गुर": 1115,
      "श्री": 1116,
      "##पाल": 1117,
      "स्कूल": 1118,
      "##लो": 1119,
      "12": 1120,
      "विध": 1121,
      "जह": 1122,
      "मांग": 1123,
      "आर": 1124,
      "आद": 1125,
      "##्रीय": 1126,
      "##ाया": 1127,
      "सबसे": 1128,
      "क्या": 1129,
      "मार्": 1130,
      "देने": 1131,
      "##्ली": 1132,
      "##जय": 1133,
      "##को": 1134,
      "शिक्ष": 1135,
      "यू": 1136,
      "महा": 1137,
      "पिछ": 1138,
      "पो": 1139,
      "करोड़": 1140,
      "निवासी": 1141,
      "##्ला": 1142,
      "जम": 1143,
      "##ारे": 1144,
      "##गढ़": 1145,
      "यादव": 1146,
      "पानी": 1147,
      "इसी": 1148,
      "अलग": 1149,
      "##गत": 1150,
      "सूचना": 1151,
      "##ब्": 1152,
      "मन": 1153,
      "##र्मा": 1154,
      "##ूम": 1155,
      "लड़": 1156,
      "युवक": 1157,
      "जहां": 1158,
      "##कान": 1159,
      "बारिश": 1160,
      "##ायल": 1161,
      "##वास": 1162,
      "ऐसे": 1163,
      "##जूद": 1164,
      "##ेत": 1165,
      "क्र": 1166,
      "##ियो": 1167,
      "##भाव": 1168,
      "19": 1169,
      "दिए": 1170,
      "##नि": 1171,
      "कंप": 1172,
      "##ध्य": 1173,
      "शिकायत": 1174,
      "##ादी": 1175,
      "15": 1176,
      "कर्म": 1177,
      "2024": 1178,
      "आने": 1179,
      "जर": 1180,
      "##्ड": 1181,
      "पहुंचे": 1182,
      "होगी": 1183,
      "##िता": 1184,
      "जिसमें": 1185,
      "##ारियों": 1186,
      "इसमें": 1187,
      "आया": 1188,
      "गिरफ्तार": 1189,
      "##स्था": 1190,
      "##ंगल": 1191,
      "##ंत": 1192,
      "सड़": 1193,
      "अधिकारी": 1194,
      "तैय": 1195,
      "ती": 1196,
      "##ूं": 1197,
      "इससे": 1198,
      "##ोन": 1199,
      "##ूर्": 1200,
      "##तार": 1201,
      "मिली": 1202,
      "##र्शन": 1203,
      "जय": 1204,
      "##ंब": 1205,
      "11": 1206,
      "मत": 1207,
      "मोदी": 1208,
      "##ासन": 1209,
      "##ंदर": 1210,
      "भारतीय": 1211,
      "पढ़": 1212,
      "##ोष": 1213,
      "##ैन": 1214,
      "##रण": 1215,
      "##श्": 1216,
      "दिल्ली": 1217,
      "पद": 1218,
      "अनुसार": 1219,
      "रहने": 1220,
      "##ायर": 1221,
      "कोर्ट": 1222,
      "##धिक": 1223,
      "शर्मा": 1224,
      "##ोजना": 1225,
      "शिव": 1226,
      "पत्": 1227,
      "राष्ट": 1228,
      "##धा": 1229,
      "प्रा": 1230,
      "आग": 1231,
      "सकता": 1232,
      "बर": 1233,
      "##ायक": 1234,
      "चाहिए": 1235,
      "जिन": 1236,
      "##ंज": 1237,
      "##ियर": 1238,
      "लोकसभा": 1239,
      "रिप": 1240,
      "बाहर": 1241,
      "कप": 1242,
      "##दे": 1243,
      "##च्छ": 1244,
      "##वाद": 1245,
      "30": 1246,
      "चला": 1247,
      "गुरु": 1248,
      "##त्व": 1249,
      "वहां": 1250,
      "शव": 1251,
      "स्व": 1252,
      "संबंध": 1253,
      "##ेंस": 1254,
      "मी": 1255,
      "निय": 1256,
      "##राब": 1257,
      "पिछले": 1258,
      "किसान": 1259,
      "मामला": 1260,
      "##ंगे": 1261,
      "##मेंट": 1262,
      "पूरी": 1263,
      "पिता": 1264,
      "मिले": 1265,
      "एम": 1266,
      "##वल": 1267,
      "उसकी": 1268,
      "##्रा": 1269,
      "चे": 1270,
      "##ये": 1271,
      "क्यों": 1272,
      "इंड": 1273,
      "##ाइन": 1274,
      "##इक": 1275,
      "एन": 1276,
      "##र्फ": 1277,
      "बंद": 1278,
      "चार": 1279,
      "विधान": 1280,
      "##ेम": 1281,
      "गा": 1282,
      "प्रद": 1283,
      "शे": 1284,
      "परी": 1285,
      "पं": 1286,
      "मोह": 1287,
      "मिला": 1288,
      "दर": 1289,
      "##सल": 1290,
      "##ज्ञ": 1291,
      "##सम": 1292,
      "यात्र": 1293,
      "201": 1294,
      "प्रधान": 1295,
      "ट्रे": 1296,
      "जीत": 1297,
      "आगे": 1298,
      "दा": 1299,
      "ऑफ": 1300,
      "##ूट": 1301,
      "बड़ी": 1302,
      "काफी": 1303,
      "विद": 1304,
      "उठ": 1305,
      "##स्थान": 1306,
      "रवि": 1307,
      "केंद्र": 1308,
      "रिपोर्ट": 1309,
      "सहित": 1310,
      "बस": 1311,
      "करें": 1312,
      "##माण": 1313,
      "स्वा": 1314,
      "समाज": 1315,
      "सफ": 1316,
      "जाएगी": 1317,
      "प्रत": 1318,
      "##ख्या": 1319,
      "मृत": 1320,
      "##चान": 1321,
      "जबकि": 1322,
      "घायल": 1323,
      "बहुत": 1324,
      "पड़": 1325,
      "रोड": 1326,
      "##ांड": 1327,
      "टे": 1328,
      "सड़क": 1329,
      "##िज": 1330,
      "अला": 1331,
      "मही": 1332,
      "हालां": 1333,
      "विकास": 1334,
      "संग": 1335,
      "अभी": 1336,
      "हालांकि": 1337,
      "जगह": 1338,
      "वीड": 1339,
      "बां": 1340,
      "सदस": 1341,
      "##ताब": 1342,
      "##योग": 1343,
      "##था": 1344,
      "25": 1345,
      "हत्या": 1346,
      "मुख्यमंत्री": 1347,
      "निर्देश": 1348,
      "होता": 1349,
      "##आर": 1350,
      "अपना": 1351,
      "##त्म": 1352,
      "##ोह": 1353,
      "बैठक": 1354,
      "स्प": 1355,
      "व्यव": 1356,
      "##ोध": 1357,
      "##ुक्त": 1358,
      "मौजूद": 1359,
      "विधानसभा": 1360,
      "तहत": 1361,
      "##लाई": 1362,
      "जिसके": 1363,
      "बच्चों": 1364,
      "दूसरे": 1365,
      "वीडियो": 1366,
      "मीड": 1367,
      "##..": 1368,
      "##ुक": 1369,
      "##ाइल": 1370,
      "कुल": 1371,
      "##ट्": 1372,
      "योजना": 1373,
      "##जह": 1374,
      "उसने": 1375,
      "बारे": 1376,
      "सुन": 1377,
      "बाइक": 1378,
      "अगर": 1379,
      "सकते": 1380,
      "उम्मी": 1381,
      "विधायक": 1382,
      "उम्मीद": 1383,
      "##क्षण": 1384,
      "बॉ": 1385,
      "##ेंद": 1386,
      "अलावा": 1387,
      "पत्नी": 1388,
      "वै": 1389,
      "##ंटे": 1390,
      "उनका": 1391,
      "##गम": 1392,
      "##बू": 1393,
      "मीडिया": 1394,
      "भग": 1395,
      "##ग्री": 1396,
      "मज": 1397,
      "वाह": 1398,
      "तब": 1399,
      "पता": 1400,
      "##प्र": 1401,
      "##ुआ": 1402,
      "ब्र": 1403,
      "पूछ": 1404,
      "##ची": 1405,
      "##ेष": 1406,
      "कंपनी": 1407,
      "ता": 1408,
      "##लों": 1409,
      "##ंगा": 1410,
      "भाग": 1411,
      "कहना": 1412,
      "पे": 1413,
      "##कर्": 1414,
      "प्रभ": 1415,
      "सोम": 1416,
      "परीक्षा": 1417,
      "वजह": 1418,
      "##ुख": 1419,
      "पोस्ट": 1420,
      "इसे": 1421,
      "संख्या": 1422,
      "जल": 1423,
      "कृ": 1424,
      "मंगल": 1425,
      "पत्र": 1426,
      "आरोपियों": 1427,
      "शादी": 1428,
      "##लेज": 1429,
      "सुरक्षा": 1430,
      "##ोरी": 1431,
      "आम": 1432,
      "##वरी": 1433,
      "प्रशासन": 1434,
      "पंच": 1435,
      "फी": 1436,
      "##तम": 1437,
      "##ष्ठ": 1438,
      "कल": 1439,
      "आस": 1440,
      "लाल": 1441,
      "##मिक": 1442,
      "दिनों": 1443,
      "रेल": 1444,
      "जे": 1445,
      "फर": 1446,
      "हाथ": 1447,
      "##ेंड": 1448,
      "सांस": 1449,
      "अधिकारियों": 1450,
      "दिख": 1451,
      "पक": 1452,
      "ग्रामी": 1453,
      "ग्रामीण": 1454,
      "हरिया": 1455,
      "जैसे": 1456,
      "आधार": 1457,
      "तेज": 1458,
      "वोट": 1459,
      "##फ्": 1460,
      "भाई": 1461,
      "प्रो": 1462,
      "##झे": 1463,
      "##खंड": 1464,
      "तरफ": 1465,
      "##शल": 1466,
      "व्यक्ति": 1467,
      "लगे": 1468,
      "मुताब": 1469,
      "पूरा": 1470,
      "करता": 1471,
      "##ताओं": 1472,
      "मुताबिक": 1473,
      "भर": 1474,
      "करेंगे": 1475,
      "##स्ता": 1476,
      "मंड": 1477,
      "होती": 1478,
      "##जेपी": 1479,
      "डे": 1480,
      "सच": 1481,
      "बिज": 1482,
      "एक्स": 1483,
      "दुकान": 1484,
      "महीने": 1485,
      "योग": 1486,
      "हों": 1487,
      "##ार्थ": 1488,
      "ों": 1489,
      "आयोजन": 1490,
      "##काल": 1491,
      "राय": 1492,
      "गं": 1493,
      "##चाल": 1494,
      "##क्शन": 1495,
      "पहुंची": 1496,
      "बनाने": 1497,
      "घंटे": 1498,
      "थाने": 1499,
      "##ात": 1500,
      "##णी": 1501,
      "ऐसा": 1502,
      "कान": 1503,
      "##चित": 1504,
      "अर": 1505,
      "हरियाणा": 1506,
      "बीजेपी": 1507,
      "वाला": 1508,
      "न्या": 1509,
      "दिव": 1510,
      "रन": 1511,
      "नंबर": 1512,
      "विशेष": 1513,
      "बाल": 1514,
      "##र्य": 1515,
      "सै": 1516,
      "चंद": 1517,
      "साह": 1518,
      "नजर": 1519,
      "##तन": 1520,
      "श्र": 1521,
      "माल": 1522,
      "सम्म": 1523,
      "कॉलेज": 1524,
      "सोमवार": 1525,
      "खेल": 1526,
      "पीड़": 1527,
      "लगातार": 1528,
      "##र्चा": 1529,
      "मद": 1530,
      "पूरे": 1531,
      "जिससे": 1532,
      "निर्माण": 1533,
      "डॉक्टर": 1534,
      "##वेश": 1535,
      "सीएम": 1536,
      "इंद": 1537,
      "##िति": 1538,
      "##an": 1539,
      "इसकी": 1540,
      "##वेद": 1541,
      "14": 1542,
      "राह": 1543,
      "हाई": 1544,
      "जून": 1545,
      "सांसद": 1546,
      "शनि": 1547,
      "##लिए": 1548,
      "##राज": 1549,
      "उद": 1550,
      "##शा": 1551,
      "##िकल": 1552,
      "सकती": 1553,
      "घोष": 1554,
      "50": 1555,
      "प्रम": 1556,
      "तैयार": 1557,
      "##र्क": 1558,
      "विश्व": 1559,
      "##तिक": 1560,
      "लगाया": 1561,
      "24": 1562,
      "सेवा": 1563,
      "पहली": 1564,
      "##बाद": 1565,
      "##ार्ड": 1566,
      "...": 1567,
      "निगम": 1568,
      "हाद": 1569,
      "मिलने": 1570,
      "बिहार": 1571,
      "##भीर": 1572,
      "सौ": 1573,
      "प्रदर्शन": 1574,
      "##रीज": 1575,
      "कले": 1576,
      "##दीप": 1577,
      "13": 1578,
      "##जनों": 1579,
      "##स्ते": 1580,
      "पांच": 1581,
      "बड़े": 1582,
      "केस": 1583,
      "वा": 1584,
      "मुझे": 1585,
      "इसका": 1586,
      "मंगलवार": 1587,
      "बुध": 1588,
      "हूं": 1589,
      "##र्ती": 1590,
      "भगवान": 1591,
      "##िटी": 1592,
      "आदि": 1593,
      "गंभीर": 1594,
      "ड्र": 1595,
      "प्रधानमंत्री": 1596,
      "कराया": 1597,
      "##स्क": 1598,
      "##र्च": 1599,
      "शुक्र": 1600,
      "डिग्री": 1601,
      "पंजा": 1602,
      "वी": 1603,
      "सर्व": 1604,
      "नर": 1605,
      "##ीय": 1606,
      "देते": 1607,
      "गांधी": 1608,
      "इसलिए": 1609,
      "देव": 1610,
      "18": 1611,
      "मैच": 1612,
      "अफ": 1613,
      "समझ": 1614,
      "बड़ा": 1615,
      "व्यवस्था": 1616,
      "व्या": 1617,
      "विरो": 1618,
      "##पति": 1619,
      "##ियन": 1620,
      "##ार्ट": 1621,
      "शनिवार": 1622,
      "प्रया": 1623,
      "नए": 1624,
      "##शत": 1625,
      "खे": 1626,
      "भे": 1627,
      "रविवार": 1628,
      "हिस्": 1629,
      "##ियान": 1630,
      "बनाया": 1631,
      "खुद": 1632,
      "खान": 1633,
      "पति": 1634,
      "##बल": 1635,
      "प्रस": 1636,
      "नई": 1637,
      "शिक्षा": 1638,
      "जवा": 1639,
      "सवाल": 1640,
      "हे": 1641,
      "करे": 1642,
      "इलाज": 1643,
      "16": 1644,
      "जल्": 1645,
      "बुधवार": 1646,
      "##स्तान": 1647,
      "राजनी": 1648,
      "वाप": 1649,
      "##यान": 1650,
      "##ग्": 1651,
      "माह": 1652,
      "शुक्रवार": 1653,
      "लगी": 1654,
      "बज": 1655,
      "##वीर": 1656,
      "जाती": 1657,
      "##ष्ण": 1658,
      "ताप": 1659,
      "संचाल": 1660,
      "ट्रेन": 1661,
      "##ज़": 1662,
      "##षण": 1663,
      "##ल्ड": 1664,
      "एक्ट": 1665,
      "जेल": 1666,
      "प्रभारी": 1667,
      "नौ": 1668,
      "##म्": 1669,
      "##्ले": 1670,
      "मेड": 1671,
      "पूजा": 1672,
      "##स्या": 1673,
      "##िस्ट": 1674,
      "रुपये": 1675,
      "##शि": 1676,
      "आयोजित": 1677,
      "अच्छ": 1678,
      "राजस्थान": 1679,
      "##निया": 1680,
      "परेश": 1681,
      "पक्ष": 1682,
      "वन": 1683,
      "पहचान": 1684,
      "##करण": 1685,
      "तापमान": 1686,
      "17": 1687,
      "समेत": 1688,
      "##काश": 1689,
      "##ैल": 1690,
      "बच": 1691,
      "अति": 1692,
      "आदेश": 1693,
      "सदस्य": 1694,
      "##श्व": 1695,
      "बिजली": 1696,
      "नार": 1697,
      "बल": 1698,
      "सामान": 1699,
      "हिंद": 1700,
      "पाल": 1701,
      "उसका": 1702,
      "पंजाब": 1703,
      "परिजनों": 1704,
      "स्थिति": 1705,
      "गुरुवार": 1706,
      "भर्ती": 1707,
      "दल": 1708,
      "##र्मी": 1709,
      "स्थान": 1710,
      "संप": 1711,
      "सित": 1712,
      "##ाप्त": 1713,
      "मौसम": 1714,
      "खरी": 1715,
      "लेने": 1716,
      "बेटे": 1717,
      "##िश्": 1718,
      "होते": 1719,
      "##इन": 1720,
      "दें": 1721,
      "##ैंड": 1722,
      "विभ": 1723,
      "मध्य": 1724,
      "##ांत": 1725,
      "शुरुआ": 1726,
      "##बंधन": 1727,
      "##ुम": 1728,
      "देर": 1729,
      "इत": 1730,
      "जमीन": 1731,
      "राहुल": 1732,
      "फोन": 1733,
      "सरकारी": 1734,
      "बेह": 1735,
      "तस्": 1736,
      "गै": 1737,
      "यात्रा": 1738,
      "बच्चे": 1739,
      "##बाज": 1740,
      "दोप": 1741,
      "हॉ": 1742,
      "##िन्न": 1743,
      "होकर": 1744,
      "छो": 1745,
      "जुलाई": 1746,
      "बनाए": 1747,
      "करवा": 1748,
      "जनता": 1749,
      "छोड़": 1750,
      "##ाक": 1751,
      "लॉ": 1752,
      "बाजार": 1753,
      "चाल": 1754,
      "##टन": 1755,
      "बल्": 1756,
      "बेटी": 1757,
      "रिक": 1758,
      "गठ": 1759,
      "##र्श": 1760,
      "रखा": 1761,
      "चलते": 1762,
      "राष्ट्रीय": 1763,
      "##बे": 1764,
      "रोक": 1765,
      "चोरी": 1766,
      "##न्द्र": 1767,
      "##नाथ": 1768,
      "##िरा": 1769,
      "पार": 1770,
      "क्योंकि": 1771,
      "थीं": 1772,
      "प्रतिशत": 1773,
      "भेज": 1774,
      "22": 1775,
      "पूर्": 1776,
      "##र्ग": 1777,
      "चुके": 1778,
      "तला": 1779,
      "हमला": 1780,
      "विभिन्न": 1781,
      "अगस्त": 1782,
      "दोपहर": 1783,
      "पीछ": 1784,
      "दूसरी": 1785,
      "सोशल": 1786,
      "मोब": 1787,
      "चर्चा": 1788,
      "वित": 1789,
      "##ुन": 1790,
      "अभियान": 1791,
      "भो": 1792,
      "##डा": 1793,
      "युवा": 1794,
      "यून": 1795,
      "##स्थ्य": 1796,
      "अमेर": 1797,
      "लाइ": 1798,
      "मदद": 1799,
      "विरोध": 1800,
      "अह": 1801,
      "##पास": 1802,
      "महिलाओं": 1803,
      "बने": 1804,
      "##भग": 1805,
      "तथा": 1806,
      "बैंक": 1807,
      "ची": 1808,
      "स्वास्थ्य": 1809,
      "समस्या": 1810,
      "बयान": 1811,
      "दीप": 1812,
      "##फर": 1813,
      "##षद": 1814,
      "ट्रै": 1815,
      "अवसर": 1816,
      "##स्ती": 1817,
      "पुत्र": 1818,
      "सिर्फ": 1819,
      "रेलवे": 1820,
      "पेश": 1821,
      "जाते": 1822,
      "समिति": 1823,
      "होंगे": 1824,
      "##दारी": 1825,
      "##ेक": 1826,
      "ग्राम": 1827,
      "सचिव": 1828,
      "##श्य": 1829,
      "फैस": 1830,
      "##ध्यक्ष": 1831,
      "पाकि": 1832,
      "जयपुर": 1833,
      "प्रयास": 1834,
      "चुकी": 1835,
      "मोबाइल": 1836,
      "##्रम": 1837,
      "अपरा": 1838,
      "##क्षक": 1839,
      "मृतक": 1840,
      "वाहन": 1841,
      "जवाब": 1842,
      "##ानीय": 1843,
      "##वेदन": 1844,
      "विवाद": 1845,
      "देवी": 1846,
      "सम्मान": 1847,
      "##हरा": 1848,
      "स्थानीय": 1849,
      "मना": 1850,
      "मिश": 1851,
      "##वाह": 1852,
      "200": 1853,
      "मेरे": 1854,
      "सके": 1855,
      "संत": 1856,
      "खा": 1857,
      "गल": 1858,
      "##ूप": 1859,
      "##करी": 1860,
      "प्रमुख": 1861,
      "जल्द": 1862,
      "##पूर्": 1863,
      "##धि": 1864,
      "##चे": 1865,
      "##ल्प": 1866,
      "दूर": 1867,
      "उम्मीदवार": 1868,
      "कौ": 1869,
      "मिन": 1870,
      "शाह": 1871,
      "##ग्र": 1872,
      "रि": 1873,
      "देखा": 1874,
      "साइ": 1875,
      "लगभग": 1876,
      "अभि": 1877,
      "##जीत": 1878,
      "इंटर": 1879,
      "बिल": 1880,
      "करती": 1881,
      "इंडिया": 1882,
      "दिस": 1883,
      "जैन": 1884,
      "##न्न": 1885,
      "ते": 1886,
      "करा": 1887,
      "##िंद": 1888,
      "वार": 1889,
      "भूम": 1890,
      "कार्यकर्": 1891,
      "इलाके": 1892,
      "21": 1893,
      "##ियम": 1894,
      "##ूबर": 1895,
      "गाड़ी": 1896,
      "अवै": 1897,
      "##टल": 1898,
      "स्तर": 1899,
      "सवार": 1900,
      "उत्तर": 1901,
      "##मत": 1902,
      "माध्य": 1903,
      "अवैध": 1904,
      "किसानों": 1905,
      "पंचायत": 1906,
      "वापस": 1907,
      "महत्व": 1908,
      "मई": 1909,
      "पीएम": 1910,
      "संघ": 1911,
      "##ar": 1912,
      "शा": 1913,
      "एड": 1914,
      "##्यान": 1915,
      "##ोद": 1916,
      "राशि": 1917,
      "##धिकारी": 1918,
      "वालों": 1919,
      "मंत्र": 1920,
      "लौ": 1921,
      "पढ़ें": 1922,
      "##ंभ": 1923,
      "शराब": 1924,
      "##ॉल": 1925,
      "##पीट": 1926,
      "बराम": 1927,
      "##यों": 1928,
      "जीवन": 1929,
      "##शनल": 1930,
      "धर्म": 1931,
      "शेयर": 1932,
      "अंदर": 1933,
      "##टक": 1934,
      "##शिश": 1935,
      "राष्ट्र": 1936,
      "##रि": 1937,
      "पीड़ित": 1938,
      "विजय": 1939,
      "छात्रा": 1940,
      "##ठी": 1941,
      "संगठ": 1942,
      "सितंबर": 1943,
      "##्‍": 1944,
      "##जाम": 1945,
      "कोशिश": 1946,
      "दौ": 1947,
      "इंदौर": 1948,
      "##हाय": 1949,
      "हमारे": 1950,
      "बरामद": 1951,
      "##चर": 1952,
      "कहते": 1953,
      "प्रभाव": 1954,
      "40": 1955,
      "इम": 1956,
      "मारपीट": 1957,
      "शुरुआत": 1958,
      "##ूड": 1959,
      "अक्ट": 1960,
      "समर्थ": 1961,
      "मि": 1962,
      "सां": 1963,
      "अक्टूबर": 1964,
      "बढ़ा": 1965,
      "##पक्ष": 1966,
      "तीस": 1967,
      "जरूर": 1968,
      "सें": 1969,
      "##पूर्ण": 1970,
      "कभी": 1971,
      "मार्ग": 1972,
      "गण": 1973,
      "नोट": 1974,
      "कलेक्टर": 1975,
      "पीछे": 1976,
      "निकल": 1977,
      "कट": 1978,
      "दिसंबर": 1979,
      "##माश": 1980,
      "टिक": 1981,
      "##क्कर": 1982,
      "##केश": 1983,
      "##स्टर": 1984,
      "एज": 1985,
      "लक्ष": 1986,
      "##हन": 1987,
      "##उंड": 1988,
      "मैंने": 1989,
      "##कु": 1990,
      "##ूरी": 1991,
      "ब्ल": 1992,
      "##श्च": 1993,
      "पूछता": 1994,
      "धन": 1995,
      "हादसे": 1996,
      "##ालय": 1997,
      "##ॉप": 1998,
      "देकर": 1999,
      "रोज": 2000,
      "जाना": 2001,
      "लिखा": 2002,
      "एयर": 2003,
      "संभाव": 2004,
      "##रिक": 2005,
      "मेडिकल": 2006,
      "शुभ": 2007,
      "पूछताछ": 2008,
      "स्टे": 2009,
      "कार्यालय": 2010,
      "एसपी": 2011,
      "##यन": 2012,
      "##सू": 2013,
      "बदमाश": 2014,
      "व्याप": 2015,
      "नवं": 2016,
      "##र्जी": 2017,
      "माता": 2018,
      "##धरी": 2019,
      "नवंबर": 2020,
      "##रिया": 2021,
      "##गंज": 2022,
      "केंद": 2023,
      "##िली": 2024,
      "##वीं": 2025,
      "सहाय": 2026,
      "##दि": 2027,
      "आसपास": 2028,
      "##एल": 2029,
      "ज़": 2030,
      "नियम": 2031,
      "##्क": 2032,
      "रै": 2033,
      "##गू": 2034,
      "केंद्रीय": 2035,
      "धम": 2036,
      "चुका": 2037,
      "गुप": 2038,
      "शो": 2039,
      "##थि": 2040,
      "##यू": 2041,
      "प्ल": 2042,
      "अंतर": 2043,
      "##प्री": 2044,
      "##रज": 2045,
      "रज": 2046,
      "तौर": 2047,
      "प्राप्त": 2048,
      "मतदान": 2049,
      "##ंकर": 2050,
      "केवल": 2051,
      "पड़ा": 2052,
      "लख": 2053,
      "जाएंगे": 2054,
      "री": 2055,
      "आपको": 2056,
      "बिना": 2057,
      "##र्ष": 2058,
      "चौधरी": 2059,
      "##तृ": 2060,
      "स्टेशन": 2061,
      "##ुष": 2062,
      "##धर": 2063,
      "##ॉर्ड": 2064,
      "पाकिस्तान": 2065,
      "##खिल": 2066,
      "##लर": 2067,
      "भोपाल": 2068,
      "संय": 2069,
      "देखने": 2070,
      "जिम": 2071,
      "अंत": 2072,
      "किलो": 2073,
      "दिखा": 2074,
      "मिनट": 2075,
      "23": 2076,
      "##टेल": 2077,
      "लो": 2078,
      "##ंका": 2079,
      "मरीज": 2080,
      "##स्थित": 2081,
      "आवेदन": 2082,
      "ज्": 2083,
      "##वत": 2084,
      "लाइन": 2085,
      "अप्र": 2086,
      "##विधा": 2087,
      "##ुओं": 2088,
      "##चारी": 2089,
      "ध्यान": 2090,
      "नेताओं": 2091,
      "##ोस": 2092,
      "उपल": 2093,
      "प्रत्या": 2094,
      "एक्सप": 2095,
      "भारी": 2096,
      "हमें": 2097,
      "##फ़": 2098,
      "खास": 2099,
      "निश": 2100,
      "##किंग": 2101,
      "##िसर": 2102,
      "##्ता": 2103,
      "##र्न": 2104,
      "नदी": 2105,
      "##साइ": 2106,
      "26": 2107,
      "मार्च": 2108,
      "माध्यम": 2109,
      "तह": 2110,
      "विदेश": 2111,
      "##त्स": 2112,
      "##ल्स": 2113,
      "लाभ": 2114,
      "अस": 2115,
      "लिख": 2116,
      "टै": 2117,
      "होना": 2118,
      "##िटल": 2119,
      "##एच": 2120,
      "निरी": 2121,
      "लगाए": 2122,
      "##र्द": 2123,
      "प्ले": 2124,
      "##्मे": 2125,
      "अश": 2126,
      "##भर": 2127,
      "2023": 2128,
      "सत": 2129,
      "खबर": 2130,
      "तोड़": 2131,
      "देखते": 2132,
      "बदल": 2133,
      "पश्च": 2134,
      "##लाल": 2135,
      "बोर्ड": 2136,
      "कैसे": 2137,
      "पश्चिम": 2138,
      "##फा": 2139,
      "##ांक": 2140,
      "मुद्": 2141,
      "##त्ती": 2142,
      "टिकट": 2143,
      "##जरा": 2144,
      "जनवरी": 2145,
      "##केट": 2146,
      "##लाइन": 2147,
      "डाल": 2148,
      "गोली": 2149,
      "##विद": 2150,
      "##ुद": 2151,
      "बनी": 2152,
      "##र्प": 2153,
      "निकाल": 2154,
      "कर्मचारी": 2155,
      "सुविधा": 2156,
      "शि": 2157,
      "अपराध": 2158,
      "28": 2159,
      "##्यो": 2160,
      "##र्या": 2161,
      "उठा": 2162,
      "विकेट": 2163,
      "कराने": 2164,
      "सप्": 2165,
      "##ौल": 2166,
      "##हाल": 2167,
      "उद्": 2168,
      "जिसे": 2169,
      "फरार": 2170,
      "प्रसाद": 2171,
      "अग्र": 2172,
      "##पोर्ट": 2173,
      "##मार्ट": 2174,
      "##िशा": 2175,
      "दुर्": 2176,
      "यानी": 2177,
      "##त्ता": 2178,
      "संबंधित": 2179,
      "ग्रामीणों": 2180,
      "बदला": 2181,
      "##षा": 2182,
      "संभ": 2183,
      "वार्ड": 2184,
      "यूपी": 2185,
      "अहम": 2186,
      "##गल": 2187,
      "पदा": 2188,
      "नव": 2189,
      "सीटों": 2190,
      "छात्रों": 2191,
      "चि": 2192,
      "##फिक": 2193,
      "विद्य": 2194,
      "##at": 2195,
      "##क्रिया": 2196,
      "प्रक्रिया": 2197,
      "मानस": 2198,
      "संभावना": 2199,
      "##ियार": 2200,
      "अगले": 2201,
      "रण": 2202,
      "##विद्यालय": 2203,
      "उपलब्": 2204,
      "##ॉक": 2205,
      "##ारोह": 2206,
      "समारोह": 2207,
      "##िरी": 2208,
      "सफल": 2209,
      "##सत": 2210,
      "संजय": 2211,
      "ज्ञ": 2212,
      "##फ्ट": 2213,
      "श्रद्ध": 2214,
      "##तरी": 2215,
      "तय": 2216,
      "##मन": 2217,
      "आयोग": 2218,
      "पहुंचा": 2219,
      "##ेस": 2220,
      "##चारियों": 2221,
      "परेशान": 2222,
      "शी": 2223,
      "सहयोग": 2224,
      "भेजा": 2225,
      "एल": 2226,
      "वायर": 2227,
      "जिलों": 2228,
      "35": 2229,
      "##ंबई": 2230,
      "##तृत्व": 2231,
      "100": 2232,
      "रंग": 2233,
      "फोट": 2234,
      "चंद्र": 2235,
      "##त्तीस": 2236,
      "मंडल": 2237,
      "पूर्ण": 2238,
      "##क्षित": 2239,
      "छत्तीस": 2240,
      "्स": 2241,
      "फीस": 2242,
      "27": 2243,
      "सुनी": 2244,
      "दावा": 2245,
      "कर्मचारियों": 2246,
      "पकड़": 2247,
      "##्रोल": 2248,
      "ऐसी": 2249,
      "##िप्": 2250,
      "क्ल": 2251,
      "छत्तीसगढ़": 2252,
      "आव": 2253,
      "जमा": 2254,
      "##माल": 2255,
      "मुंबई": 2256,
      "##ृह": 2257,
      "##ेंसी": 2258,
      "नेतृत्व": 2259,
      "##मारी": 2260,
      "न्याय": 2261,
      "गौ": 2262,
      "##ंडी": 2263,
      "चले": 2264,
      "##ालि": 2265,
      "##ृति": 2266,
      "##दम": 2267,
      "रखने": 2268,
      "बांग": 2269,
      "##ूक": 2270,
      "चिक": 2271,
      "माना": 2272,
      "बोले": 2273,
      "##ुरा": 2274,
      "नरेंद्र": 2275,
      "दुनिया": 2276,
      "गर्मी": 2277,
      "अप्रैल": 2278,
      "##जल": 2279,
      "ताकि": 2280,
      "नीचे": 2281,
      "नागर": 2282,
      "आख": 2283,
      "तत्": 2284,
      "##काब": 2285,
      "अद": 2286,
      "##राम": 2287,
      "##ियल": 2288,
      "पटना": 2289,
      "उर्फ": 2290,
      "हास": 2291,
      "##ड़ियों": 2292,
      "डाय": 2293,
      "तलाश": 2294,
      "कीमत": 2295,
      "##नात": 2296,
      "तैयारी": 2297,
      "ति": 2298,
      "##ूत": 2299,
      "##धे": 2300,
      "##ड़ों": 2301,
      "कब्": 2302,
      "हिस्सा": 2303,
      "लगाने": 2304,
      "घा": 2305,
      "कला": 2306,
      "भाव": 2307,
      "पेट": 2308,
      "फ़": 2309,
      "##त्री": 2310,
      "टक्कर": 2311,
      "बल्कि": 2312,
      "आश": 2313,
      "इनमें": 2314,
      "गुप्ता": 2315,
      "ओवर": 2316,
      "##असल": 2317,
      "##ज्ञान": 2318,
      "प्रत्याशी": 2319,
      "##स्ल": 2320,
      "दरअसल": 2321,
      "##ापन": 2322,
      "जाकर": 2323,
      "मॉ": 2324,
      "##एफ": 2325,
      "वृ": 2326,
      "##चार्य": 2327,
      "##ोब": 2328,
      "राजनीतिक": 2329,
      "##म्म": 2330,
      "बंग": 2331,
      "##नियर": 2332,
      "##ूब": 2333,
      "चरण": 2334,
      "सिर": 2335,
      "टेस्ट": 2336,
      "फैसला": 2337,
      "संगठन": 2338,
      "हार": 2339,
      "जिम्मे": 2340,
      "जुड़े": 2341,
      "लखन": 2342,
      "हासिल": 2343,
      "मकान": 2344,
      "##लोनी": 2345,
      "क्रिक": 2346,
      "बचा": 2347,
      "न्यू": 2348,
      "##ीक": 2349,
      "गति": 2350,
      "गाय": 2351,
      "वक्त": 2352,
      "फायर": 2353,
      "##ाइम": 2354,
      "बांग्ला": 2355,
      "##ॉर्म": 2356,
      "##ंदा": 2357,
      "भवन": 2358,
      "पल": 2359,
      "सदर": 2360,
      "तरी": 2361,
      "अमेरिका": 2362,
      "एफ": 2363,
      "##on": 2364,
      "वर्ग": 2365,
      "##रों": 2366,
      "##ित्र": 2367,
      "##घा": 2368,
      "##ड्": 2369,
      "रहते": 2370,
      "इस्ते": 2371,
      "जन्म": 2372,
      "सीमा": 2373,
      "##देव": 2374,
      "इस्तेमाल": 2375,
      "##जु": 2376,
      "##धन": 2377,
      "साफ": 2378,
      "31": 2379,
      "स्थाप": 2380,
      "ख़": 2381,
      "झार": 2382,
      "सजा": 2383,
      "हथ": 2384,
      "किस": 2385,
      "कहीं": 2386,
      "आन": 2387,
      "हमने": 2388,
      "न्याया": 2389,
      "##चन": 2390,
      "प्रकार": 2391,
      "रहेगा": 2392,
      "##ांति": 2393,
      "##षि": 2394,
      "##फे": 2395,
      "चिकित": 2396,
      "दोस्त": 2397,
      "##एसपी": 2398,
      "##तीश": 2399,
      "बांग्लादेश": 2400,
      "हालत": 2401,
      "जता": 2402,
      "मजबू": 2403,
      "ड्राइ": 2404,
      "चालक": 2405,
      "##लू": 2406,
      "##टो": 2407,
      "बाबा": 2408,
      "भीड़": 2409,
      "29": 2410,
      "फु": 2411,
      "##त्ति": 2412,
      "त्र": 2413,
      "प्रकाश": 2414,
      "घु": 2415,
      "उपलब्ध": 2416,
      "नया": 2417,
      "मश": 2418,
      "##ियोग": 2419,
      "तीनों": 2420,
      "खो": 2421,
      "बातची": 2422,
      "बातचीत": 2423,
      "##er": 2424,
      "##ायण": 2425,
      "पैसे": 2426,
      "पौ": 2427,
      "समी": 2428,
      "कार्ड": 2429,
      "मैदान": 2430,
      "चौक": 2431,
      "घोषणा": 2432,
      "परिसर": 2433,
      "प्राथ": 2434,
      "सिटी": 2435,
      "अमित": 2436,
      "झारखंड": 2437,
      "##श्यक": 2438,
      "##िनि": 2439,
      "ऑन": 2440,
      "पाए": 2441,
      "प्राथमिक": 2442,
      "##स्व": 2443,
      "बनने": 2444,
      "##झा": 2445,
      "##िन्": 2446,
      "महत्वपूर्ण": 2447,
      "##क्ता": 2448,
      "मूल": 2449,
      "45": 2450,
      "##िक्ष": 2451,
      "##शे": 2452,
      "मेरी": 2453,
      "विद्यालय": 2454,
      "रोह": 2455,
      "फिलहाल": 2456,
      "कराई": 2457,
      "##ार्ज": 2458,
      "कैम": 2459,
      "खत्म": 2460,
      "ट्रांस": 2461,
      "रिकॉर्ड": 2462,
      "ठीक": 2463,
      "मोहन": 2464,
      "यही": 2465,
      "दिवस": 2466,
      "निजी": 2467,
      "गठबंधन": 2468,
      "in": 2469,
      "##जरी": 2470,
      "तस्वीर": 2471,
      "पड़े": 2472,
      "चुन": 2473,
      "स्टूड": 2474,
      "##किल": 2475,
      "##्हें": 2476,
      "##्वर": 2477,
      "##पुरा": 2478,
      "##ेय": 2479,
      "चा": 2480,
      "मुक": 2481,
      "आवश्यक": 2482,
      "चोर": 2483,
      "रु": 2484,
      "##टने": 2485,
      "बहन": 2486,
      "लखनऊ": 2487,
      "मं": 2488,
      "##ील": 2489,
      "##ष्य": 2490,
      "##एन": 2491,
      "##राह": 2492,
      "##ंडा": 2493,
      "##ैनिक": 2494,
      "अंक": 2495,
      "##तिम": 2496,
      "वायरल": 2497,
      "स्वी": 2498,
      "सिल": 2499,
      "फोटो": 2500,
      "नागरिक": 2501,
      "खेत": 2502,
      "चै": 2503,
      "भु": 2504,
      "##गार": 2505,
      "बाव": 2506,
      "सीसी": 2507,
      "सेंटर": 2508,
      "ऊपर": 2509,
      "##तरा": 2510,
      "पहला": 2511,
      "##रान": 2512,
      "##हान": 2513,
      "आपके": 2514,
      "लड़की": 2515,
      "घोषित": 2516,
      "##ड्ड": 2517,
      "राष्ट्रपति": 2518,
      "वरि": 2519,
      "##विंद": 2520,
      "अय": 2521,
      "##मता": 2522,
      "धी": 2523,
      "मिलकर": 2524,
      "रव": 2525,
      "##रल": 2526,
      "##वाही": 2527,
      "मुकाब": 2528,
      "पांड": 2529,
      "##तों": 2530,
      "प्रेम": 2531,
      "धारा": 2532,
      "उपस्थित": 2533,
      "##्योग": 2534,
      "खराब": 2535,
      "अंतिम": 2536,
      "गी": 2537,
      "##ेटी": 2538,
      "चीन": 2539,
      "उदय": 2540,
      "आवा": 2541,
      "बू": 2542,
      "सफाई": 2543,
      "सेना": 2544,
      "खुला": 2545,
      "मीटर": 2546,
      "##ित्य": 2547,
      "दर्शन": 2548,
      "समा": 2549,
      "कमी": 2550,
      "पाया": 2551,
      "सभा": 2552,
      "##्रेट": 2553,
      "कमेटी": 2554,
      "लु": 2555,
      "##वाने": 2556,
      "हमारी": 2557,
      "उच्च": 2558,
      "महारा": 2559,
      "तभी": 2560,
      "##जों": 2561,
      "##षेक": 2562,
      "##िड": 2563,
      "देना": 2564,
      "खरीद": 2565,
      "##बाजी": 2566,
      "##मे": 2567,
      "गिरा": 2568,
      "जरिए": 2569,
      "##व्य": 2570,
      "चुना": 2571,
      "गेट": 2572,
      "शिक्षक": 2573,
      "धर": 2574,
      "सुप्री": 2575,
      "धमकी": 2576,
      "टा": 2577,
      "##मीटर": 2578,
      "वर्षीय": 2579,
      "गौर": 2580,
      "बोल": 2581,
      "##ंख": 2582,
      "प्रवेश": 2583,
      "हिंदू": 2584,
      "##डल": 2585,
      "बुला": 2586,
      "ट्रक": 2587,
      "##ामा": 2588,
      "लगाई": 2589,
      "सुप्रीम": 2590,
      "स्टूडेंट": 2591,
      "कित": 2592,
      "राज्यों": 2593,
      "संक": 2594,
      "##al": 2595,
      "##ांग": 2596,
      "विपक्ष": 2597,
      "##ष्ट्र": 2598,
      "अचान": 2599,
      "##द्धि": 2600,
      "##स्ताव": 2601,
      "अचानक": 2602,
      "अदाल": 2603,
      "##तियों": 2604,
      "##वें": 2605,
      "##स्कार": 2606,
      "मुला": 2607,
      "नम": 2608,
      "विचार": 2609,
      "कॉन्": 2610,
      "सुनवाई": 2611,
      "वरिष्ठ": 2612,
      "प्रस्ताव": 2613,
      "कानून": 2614,
      "अग्रवाल": 2615,
      "##वाड़ा": 2616,
      "सही": 2617,
      "प्रता": 2618,
      "समर्थन": 2619,
      "आते": 2620,
      "वारदा": 2621,
      "##मेर": 2622,
      "##रीर": 2623,
      "चाहते": 2624,
      "दक्ष": 2625,
      "##पन": 2626,
      "महार": 2627,
      "प्रतियोग": 2628,
      "##नु": 2629,
      "कॉलोनी": 2630,
      "प्रस्त": 2631,
      "उसी": 2632,
      "पाठ": 2633,
      "मनी": 2634,
      "##हरी": 2635,
      "##हास": 2636,
      "परिजन": 2637,
      "क्षेत्रों": 2638,
      "लंब": 2639,
      "उत्स": 2640,
      "सदस्यों": 2641,
      "किन": 2642,
      "##ंगी": 2643,
      "उम्र": 2644,
      "क्रिकेट": 2645,
      "##ंसा": 2646,
      "बावजूद": 2647,
      "सिक": 2648,
      "##तंत्र": 2649,
      "सामान्य": 2650,
      "फ्र": 2651,
      "लागू": 2652,
      "जित": 2653,
      "नुक": 2654,
      "##ेंडर": 2655,
      "##चिका": 2656,
      "सिव": 2657,
      "परिषद": 2658,
      "कृष्ण": 2659,
      "##ौती": 2660,
      "निवेश": 2661,
      "एंड": 2662,
      "##ब्ल": 2663,
      "उनसे": 2664,
      "निरीक्षण": 2665,
      "पटेल": 2666,
      "िया": 2667,
      "सात": 2668,
      "होटल": 2669,
      "इंत": 2670,
      "भू": 2671,
      "कौन": 2672,
      "##इट": 2673,
      "विश्वविद्यालय": 2674,
      "उल्": 2675,
      "##मति": 2676,
      "##उट": 2677,
      "परिव": 2678,
      "याचिका": 2679,
      "तैनात": 2680,
      "अशोक": 2681,
      "##कत": 2682,
      "ऑफिस": 2683,
      "बदलाव": 2684,
      "कही": 2685,
      "##डे": 2686,
      "##ुदाय": 2687,
      "##ूह": 2688,
      "##कल": 2689,
      "हथियार": 2690,
      "लूट": 2691,
      "गृह": 2692,
      "##िशन": 2693,
      "##ंता": 2694,
      "विन": 2695,
      "##िश्न": 2696,
      "राजनीति": 2697,
      "चढ़": 2698,
      "डा": 2699,
      "प्रभावित": 2700,
      "तत्काल": 2701,
      "वर्मा": 2702,
      "एसडी": 2703,
      "नेशनल": 2704,
      "##्याण": 2705,
      "बनाकर": 2706,
      "##वाली": 2707,
      "कॉल": 2708,
      "फा": 2709,
      "##ॉट": 2710,
      "निर्ण": 2711,
      "रिज": 2712,
      "रखी": 2713,
      "चां": 2714,
      "##त्रा": 2715,
      "संब": 2716,
      "बेहतर": 2717,
      "गेंद": 2718,
      "##ख्त": 2719,
      "##स्कर": 2720,
      "##तल": 2721,
      "##in": 2722,
      "##ाले": 2723,
      "##प्शन": 2724,
      "दिखाई": 2725,
      "गलत": 2726,
      "कब": 2727,
      "नुकसान": 2728,
      "जरूरी": 2729,
      "##ुरी": 2730,
      "उत्प": 2731,
      "अदालत": 2732,
      "##शु": 2733,
      "रहता": 2734,
      "कारोब": 2735,
      "##स्टम": 2736,
      "जरूरत": 2737,
      "प्रतियोगिता": 2738,
      "सुना": 2739,
      "फाइन": 2740,
      "कोच": 2741,
      "असर": 2742,
      "उससे": 2743,
      "छोटे": 2744,
      "अजय": 2745,
      "उपयोग": 2746,
      "##वट": 2747,
      "##िकी": 2748,
      "##स्पिटल": 2749,
      "पदाधिकारी": 2750,
      "मजद": 2751,
      "बनाई": 2752,
      "करेगी": 2753,
      "तुर": 2754,
      "##िद": 2755,
      "रास्ते": 2756,
      "संस्थान": 2757,
      "स्थल": 2758,
      "##तिहास": 2759,
      "मू": 2760,
      "अयोध": 2761,
      "भक्त": 2762,
      "अफसर": 2763,
      "डिज": 2764,
      "हल्": 2765,
      "राहत": 2766,
      "),": 2767,
      "##टिंग": 2768,
      "ग्रुप": 2769,
      "विद्यार्थ": 2770,
      "कर्": 2771,
      "मर": 2772,
      "रिली": 2773,
      "महाराष्ट्र": 2774,
      "##चल": 2775,
      "##टीवी": 2776,
      "##सील": 2777,
      "युवती": 2778,
      "##ूर्ति": 2779,
      "वारदात": 2780,
      "हवा": 2781,
      "##ध्या": 2782,
      "प्रदान": 2783,
      "हॉस्पिटल": 2784,
      "तरीके": 2785,
      "शांति": 2786,
      "ताला": 2787,
      "##वाइ": 2788,
      "##as": 2789,
      "महाराज": 2790,
      "##ैया": 2791,
      "सुख": 2792,
      "लगने": 2793,
      "मिश्रा": 2794,
      "2019": 2795,
      "##यल": 2796,
      "##िने": 2797,
      "किश": 2798,
      "भूमिका": 2799,
      "अयोध्या": 2800,
      "राजेश": 2801,
      "दक्षि": 2802,
      "##लिया": 2803,
      "कार्यकर्ताओं": 2804,
      "सीसीटीवी": 2805,
      "##र्गत": 2806,
      "जाम": 2807,
      "##सों": 2808,
      "##ठा": 2809,
      "संस": 2810,
      "मजबूत": 2811,
      "पंड": 2812,
      "विष": 2813,
      "##ंदी": 2814,
      "स्वागत": 2815,
      "तुरंत": 2816,
      "सागर": 2817,
      "जोर": 2818,
      "इतना": 2819,
      "ड्राइवर": 2820,
      "इले": 2821,
      "रिश्": 2822,
      "हमले": 2823,
      "मंच": 2824,
      "संस्था": 2825,
      "##र्डर": 2826,
      "##टेड": 2827,
      "वाहनों": 2828,
      "कल्याण": 2829,
      "##नेश": 2830,
      "##ज्ज": 2831,
      "कपूर": 2832,
      "जागर": 2833,
      "तम": 2834,
      "लॉन्": 2835,
      "अभिषेक": 2836,
      "रिलीज": 2837,
      "बजट": 2838,
      "उपा": 2839,
      "फ्ल": 2840,
      "##or": 2841,
      "लगाकर": 2842,
      "नौकरी": 2843,
      "घाट": 2844,
      "सल": 2845,
      "प्रचार": 2846,
      "हाईक": 2847,
      "##कात": 2848,
      "##ल्ट": 2849,
      "हट": 2850,
      "फरवरी": 2851,
      "रायपुर": 2852,
      "मल": 2853,
      "आर्थ": 2854,
      "##ॉर्ट": 2855,
      "बीते": 2856,
      "जब्त": 2857,
      "##ैक": 2858,
      "##न्ना": 2859,
      "नाब": 2860,
      "कृषि": 2861,
      "बंगाल": 2862,
      "जवान": 2863,
      "लगता": 2864,
      "लौट": 2865,
      "##उस": 2866,
      "तेजी": 2867,
      "संयुक्त": 2868,
      "##ेक्ट": 2869,
      "60": 2870,
      "ठाक": 2871,
      "मेरा": 2872,
      "आनंद": 2873,
      "लेते": 2874,
      "सीटें": 2875,
      "चोट": 2876,
      "आत्म": 2877,
      "राव": 2878,
      "मिलेगा": 2879,
      "सिविल": 2880,
      "आर्थिक": 2881,
      "अली": 2882,
      "यदि": 2883,
      "बेच": 2884,
      "सोन": 2885,
      "प्रतिनि": 2886,
      "##उंट": 2887,
      "कोत": 2888,
      "तहसील": 2889,
      "##ुण": 2890,
      "कोल": 2891,
      "नोटिस": 2892,
      "बताते": 2893,
      "फीसदी": 2894,
      "##ालिग": 2895,
      "छह": 2896,
      "दीपक": 2897,
      "##ंटी": 2898,
      "नाबालिग": 2899,
      "##्यून": 2900,
      "संवि": 2901,
      "रहेगी": 2902,
      "2022": 2903,
      "##ारंभ": 2904,
      "ऑनलाइन": 2905,
      "मालिक": 2906,
      "अर्": 2907,
      "भास्कर": 2908,
      "ne": 2909,
      "##भव": 2910,
      "प्री": 2911,
      "एक्सप्रेस": 2912,
      "##ताह": 2913,
      "जमकर": 2914,
      "भवि": 2915,
      "कदम": 2916,
      "मुलाकात": 2917,
      "बेटा": 2918,
      "रोहित": 2919,
      "##िक्र": 2920,
      "करेगा": 2921,
      "नाराज": 2922,
      "निर्णय": 2923,
      "##म्मद": 2924,
      "श्रद्धाल": 2925,
      "हाउस": 2926,
      "भविष्य": 2927,
      "गैंग": 2928,
      "##रासत": 2929,
      "प्रशिक्ष": 2930,
      "आत": 2931,
      "##्वाल": 2932,
      "मनोज": 2933,
      "दम": 2934,
      "##ंकी": 2935,
      "सामना": 2936,
      "अज": 2937,
      "पर्य": 2938,
      "पट": 2939,
      "निर्वा": 2940,
      "कड़ी": 2941,
      "गिरफ्तारी": 2942,
      "अतिरिक": 2943,
      "पैर": 2944,
      "##र्जा": 2945,
      "प्रि": 2946,
      "ठाकुर": 2947,
      "फर्जी": 2948,
      "हनु": 2949,
      "##वर्": 2950,
      "रहती": 2951,
      "गंगा": 2952,
      "पर्व": 2953,
      "##ha": 2954,
      "पॉ": 2955,
      "##िब": 2956,
      "##्रो": 2957,
      "प्राइ": 2958,
      "दूसरा": 2959,
      "अंतर्गत": 2960,
      "संबोध": 2961,
      "तारी": 2962,
      "बांध": 2963,
      "धो": 2964,
      "##खी": 2965,
      "अतिरिक्त": 2966,
      "तेल": 2967,
      "##राव": 2968,
      "##ादा": 2969,
      "झा": 2970,
      "अपील": 2971,
      "जिसकी": 2972,
      "सहायक": 2973,
      "उदयपुर": 2974,
      "हाईकोर्ट": 2975,
      "सीरीज": 2976,
      "##िवर्स": 2977,
      "खड़े": 2978,
      "खर्च": 2979,
      "कार्यकर्ता": 2980,
      "खुल": 2981,
      "##ti": 2982,
      "व्यक्त": 2983,
      "##त्सव": 2984,
      "500": 2985,
      "##्तान": 2986,
      "करवाया": 2987,
      "32": 2988,
      "##श्मी": 2989,
      "##हरे": 2990,
      "##िनी": 2991,
      "##डीए": 2992,
      "बदमाशों": 2993,
      "कां": 2994,
      "मतदा": 2995,
      "नो": 2996,
      "बैठे": 2997,
      "##श्वर": 2998,
      "अज्ञ": 2999,
      "##्याम": 3000,
      "देशों": 3001,
      "साहू": 3002,
      "पीड़िता": 3003,
      "संचालन": 3004,
      "अज्ञात": 3005,
      "सिस्टम": 3006,
      "##कीय": 3007,
      "स्पेश": 3008,
      "हिस": 3009,
      "##ांसी": 3010,
      "इलाकों": 3011,
      "सुनील": 3012,
      "आंद": 3013,
      "कंपन": 3014,
      "मोहम्मद": 3015,
      "दबा": 3016,
      "सत्र": 3017,
      "पार्षद": 3018,
      "##ांकन": 3019,
      "देंगे": 3020,
      "रक्षा": 3021,
      "अनिल": 3022,
      "अंजाम": 3023,
      "फाय": 3024,
      "मिलते": 3025,
      "वीर": 3026,
      "जाल": 3027,
      "##तमान": 3028,
      "सुपर": 3029,
      "##ोलन": 3030,
      "अच्छी": 3031,
      "कश्मी": 3032,
      "मुश्": 3033,
      "मुस्ल": 3034,
      "सुधार": 3035,
      "ठे": 3036,
      "##इल": 3037,
      "##ेंज": 3038,
      "संर": 3039,
      "बच्ची": 3040,
      "जैसी": 3041,
      "मुस्लिम": 3042,
      "प्रोज": 3043,
      "मामलों": 3044,
      "##ष्टि": 3045,
      "कोतवाली": 3046,
      "दब": 3047,
      "##ेड": 3048,
      "##थम": 3049,
      "जिंद": 3050,
      "किलोमीटर": 3051,
      "पेट्रोल": 3052,
      "तुल": 3053,
      "हनुमान": 3054,
      "पर्या": 3055,
      "हटा": 3056,
      "गुजरा": 3057,
      "आवास": 3058,
      "डर": 3059,
      "भूमि": 3060,
      "##दों": 3061,
      "##ाजिक": 3062,
      "भोज": 3063,
      "##ेशा": 3064,
      "सोने": 3065,
      "नीतीश": 3066,
      "स्पेशल": 3067,
      "फसल": 3068,
      "बिक": 3069,
      "अधी": 3070,
      "युवाओं": 3071,
      "छु": 3072,
      "आशी": 3073,
      "##विध": 3074,
      "परेशानी": 3075,
      "उत": 3076,
      "मंत्रालय": 3077,
      "डायरे": 3078,
      "दश": 3079,
      "निदेश": 3080,
      "##स्त्र": 3081,
      "##त्मक": 3082,
      "##es": 3083,
      "##ांव": 3084,
      "##ुड": 3085,
      "केजरी": 3086,
      "प्रताप": 3087,
      "प्रोजेक्ट": 3088,
      "केजरीवाल": 3089,
      "##वरण": 3090,
      "##्राम": 3091,
      "##बीर": 3092,
      "आंदोलन": 3093,
      "विस्त": 3094,
      "अच्छा": 3095,
      "शक्ति": 3096,
      "जाय": 3097,
      "देखकर": 3098,
      "रजिस्ट": 3099,
      "अधिकार": 3100,
      "एक्ट्रेस": 3101,
      "उत्पाद": 3102,
      "##पथ": 3103,
      "अलर्ट": 3104,
      "कन": 3105,
      "मौका": 3106,
      "अंग": 3107,
      "घरों": 3108,
      "##नगर": 3109,
      "##लाह": 3110,
      "##टेज": 3111,
      "पकड़ा": 3112,
      "चली": 3113,
      "छाप": 3114,
      "##ंद्र": 3115,
      "अतिथि": 3116,
      "##िश्चित": 3117,
      "##्होंने": 3118,
      "वर्तमान": 3119,
      "##प्रदेश": 3120,
      "मुश्किल": 3121,
      "श्रे": 3122,
      "शिविर": 3123,
      "दिशा": 3124,
      "मगर": 3125,
      "##खर": 3126,
      "साइबर": 3127,
      "अखिल": 3128,
      "तिव": 3129,
      "बिग": 3130,
      "नामांकन": 3131,
      "80": 3132,
      "यूनिवर्स": 3133,
      "तिवारी": 3134,
      "मीणा": 3135,
      "योगी": 3136,
      "##कुमार": 3137,
      "यात्रियों": 3138,
      "डॉक्टरों": 3139,
      "##वारी": 3140,
      "##स्‍": 3141,
      "शासन": 3142,
      "##कम": 3143,
      "न्यायालय": 3144,
      "बर्": 3145,
      "##ण्ड": 3146,
      "आयुक्त": 3147,
      "##ोप": 3148,
      "इधर": 3149,
      "##ुरु": 3150,
      "अधिकतम": 3151,
      "मैने": 3152,
      "सालों": 3153,
      "गढ़": 3154,
      "कैंप": 3155,
      "व्र": 3156,
      "##धानी": 3157,
      "70": 3158,
      "सेक्टर": 3159,
      "निकाला": 3160,
      "##कर्म": 3161,
      "पढ़ाई": 3162,
      "मंडी": 3163,
      "रैली": 3164,
      "टू": 3165,
      "##स्ट्री": 3166,
      "स्कूलों": 3167,
      "मुकेश": 3168,
      "सुरक्षित": 3169,
      "चुनावी": 3170,
      "खाद": 3171,
      "##ोत्सव": 3172,
      "##्यार": 3173,
      "प्लान": 3174,
      "सूर्य": 3175,
      "मनाया": 3176,
      "##फ्र": 3177,
      "गईं": 3178,
      "हमेशा": 3179,
      "चलने": 3180,
      "पुरुष": 3181,
      "कब्जे": 3182,
      "कश्मीर": 3183,
      "आकर": 3184,
      "जॉ": 3185,
      "उसमें": 3186,
      "आब": 3187,
      "ऑटो": 3188,
      "महिलाएं": 3189,
      "हड़": 3190,
      "##लपुर": 3191,
      "कुमारी": 3192,
      "##दारों": 3193,
      "गणेश": 3194,
      "##स्कृत": 3195,
      "दक्षिण": 3196,
      "गोल": 3197,
      "सर्वे": 3198,
      "नारायण": 3199,
      "##्रमण": 3200,
      "संविधान": 3201,
      "विवाह": 3202,
      "##ांट": 3203,
      "देता": 3204,
      "युवकों": 3205,
      "प्लेट": 3206,
      "पारी": 3207,
      "जोड़": 3208,
      "आल": 3209,
      "दास": 3210,
      "जागरूक": 3211,
      "##तु": 3212,
      "##ir": 3213,
      "युद्ध": 3214,
      "इंटरने": 3215,
      "##फल": 3216,
      "सिद्ध": 3217,
      "##द्द": 3218,
      "पूछा": 3219,
      "जिम्मेदारी": 3220,
      "##jp": 3221,
      "राजा": 3222,
      "इलेक्ट": 3223,
      "यूनिवर्सिटी": 3224,
      "क्": 3225,
      "बढ़ाने": 3226,
      "चयन": 3227,
      "##वेट": 3228,
      "मरीजों": 3229,
      "##ोश": 3230,
      "##ेंशन": 3231,
      "##्रिक": 3232,
      "सम्मानित": 3233,
      "तीसरे": 3234,
      "33": 3235,
      "ड़": 3236,
      "लिस्ट": 3237,
      "##मार्टम": 3238,
      "अका": 3239,
      "रम": 3240,
      "सप्ताह": 3241,
      "रिट": 3242,
      "##धिया": 3243,
      "रखे": 3244,
      "##en": 3245,
      "कमरे": 3246,
      "पेपर": 3247,
      "पोस्टमार्टम": 3248,
      "संबोधित": 3249,
      "किनारे": 3250,
      "रिश्ते": 3251,
      "रॉ": 3252,
      "एयरपोर्ट": 3253,
      "खुलासा": 3254,
      "साध": 3255,
      "वर्ल्ड": 3256,
      "गर्": 3257,
      "लाया": 3258,
      "पाई": 3259,
      "##वादी": 3260,
      "सामाजिक": 3261,
      "##्यु": 3262,
      "##स्तव": 3263,
      "सपा": 3264,
      "उद्देश": 3265,
      "नाग": 3266,
      "शिक्षकों": 3267,
      "हादसा": 3268,
      "फॉ": 3269,
      "उनको": 3270,
      "अभिय": 3271,
      "नक": 3272,
      "##वेज": 3273,
      "आंक": 3274,
      "##ार्म": 3275,
      "स्टूडेंट्स": 3276,
      "नग": 3277,
      "##ad": 3278,
      "संपर्क": 3279,
      "आठ": 3280,
      "आउट": 3281,
      "##ोई": 3282,
      "वित्त": 3283,
      "##सुर": 3284,
      "प्रबंधन": 3285,
      "रहेंगे": 3286,
      "गुजरात": 3287,
      "37": 3288,
      "खोल": 3289,
      "खाली": 3290,
      "पस": 3291,
      "##णाम": 3292,
      "दोष": 3293,
      "##प्प": 3294,
      "खंड": 3295,
      "फ्ला": 3296,
      "##िक्स": 3297,
      "पहुंचकर": 3298,
      "अभ्य": 3299,
      "बेहद": 3300,
      "##अप": 3301,
      "##रीब": 3302,
      "जिसका": 3303,
      "कार्यों": 3304,
      "##ष्ट्रीय": 3305,
      "अंब": 3306,
      "कौर": 3307,
      "पोल": 3308,
      "##वुड": 3309,
      "वही": 3310,
      "तकनी": 3311,
      "##्प": 3312,
      "धार्": 3313,
      "##नीय": 3314,
      "सड़कों": 3315,
      "धार्मिक": 3316,
      "भजन": 3317,
      "##ाफ": 3318,
      "सेक": 3319,
      "आइ": 3320,
      "न्यून": 3321,
      "##िएशन": 3322,
      "राजी": 3323,
      "उड़": 3324,
      "सर्": 3325,
      "दृ": 3326,
      "हल": 3327,
      "##्रीन": 3328,
      "पड़ी": 3329,
      "समुदाय": 3330,
      "लंबे": 3331,
      "##ियस": 3332,
      "##शाला": 3333,
      "उपचार": 3334,
      "चौकी": 3335,
      "न्यूनतम": 3336,
      "आता": 3337,
      "बुजु": 3338,
      "घुस": 3339,
      "व्रत": 3340,
      "बाकी": 3341,
      "प्रखंड": 3342,
      "##ेश्वर": 3343,
      "##्यूटी": 3344,
      "रेप": 3345,
      "बुजुर्ग": 3346,
      "अधीक्षक": 3347,
      "आवाज": 3348,
      "75": 3349,
      "मिस": 3350,
      "निर्धार": 3351,
      "प्रतिष्ठ": 3352,
      "खूब": 3353,
      "जंगल": 3354,
      "ज्यो": 3355,
      "पहल": 3356,
      "निर": 3357,
      "पार्क": 3358,
      "शंकर": 3359,
      "##रत": 3360,
      "##उन": 3361,
      "पूजन": 3362,
      "##शिप": 3363,
      "##लेट": 3364,
      "मुख्यालय": 3365,
      "पैसा": 3366,
      "समाधान": 3367,
      "अभ्यर्थ": 3368,
      "##पंच": 3369,
      "आदमी": 3370,
      "लं": 3371,
      "##पत": 3372,
      "##क्सर": 3373,
      "##ुल्क": 3374,
      "199": 3375,
      "एक्टर": 3376,
      "थो": 3377,
      "धार": 3378,
      "शरीर": 3379,
      "चौहान": 3380,
      "##ंह": 3381,
      "ब्लॉक": 3382,
      "राकेश": 3383,
      "##लीवुड": 3384,
      "सीजन": 3385,
      "इनके": 3386,
      "कहानी": 3387,
      "अमर": 3388,
      "दिला": 3389,
      "खुश": 3390,
      "##परेशन": 3391,
      "मिलेगी": 3392,
      "आखिरी": 3393,
      "मजदूर": 3394,
      "ग्वाल": 3395,
      "प्रव": 3396,
      "संदीप": 3397,
      "बताई": 3398,
      "विषय": 3399,
      "डेट": 3400,
      "फो": 3401,
      "##ैर": 3402,
      "एसोस": 3403,
      "निर्वाचन": 3404,
      "bjp": 3405,
      "##साय": 3406,
      "काल": 3407,
      "पुष्": 3408,
      "मारने": 3409,
      "एजेंसी": 3410,
      "##ेड़": 3411,
      "सत्ता": 3412,
      "##le": 3413,
      "सफलता": 3414,
      "फूल": 3415,
      "लाने": 3416,
      "##ुति": 3417,
      "अमृत": 3418,
      "पुरा": 3419,
      "वर्षों": 3420,
      "चेक": 3421,
      "इमेज": 3422,
      "##जीव": 3423,
      "रवाना": 3424,
      "उद्देश्य": 3425,
      "##ाब": 3426,
      "प्रेस": 3427,
      "इतनी": 3428,
      "प्राइवेट": 3429,
      "मार्केट": 3430,
      "ससुर": 3431,
      "##ेद": 3432,
      "सेल्स": 3433,
      "पहुंचने": 3434,
      "##मानत": 3435,
      "स्पष्ट": 3436,
      "उद्योग": 3437,
      "ऑपरेशन": 3438,
      "एग्": 3439,
      "सुनिश्चित": 3440,
      "भुगत": 3441,
      "##बन": 3442,
      "##ानि": 3443,
      "परिणाम": 3444,
      "फीट": 3445,
      "36": 3446,
      "34": 3447,
      "कमिश्न": 3448,
      "शुक्": 3449,
      "मानसून": 3450,
      "इंतजार": 3451,
      "फाइनल": 3452,
      "##चु": 3453,
      "आदित्य": 3454,
      "##र्पित": 3455,
      "##ंडल": 3456,
      "##कारों": 3457,
      "इंजी": 3458,
      "तुम": 3459,
      "##ूस": 3460,
      "##त्रि": 3461,
      "कहां": 3462,
      "स्टाफ": 3463,
      "##ग्ध": 3464,
      "वकी": 3465,
      "प्रथम": 3466,
      "##सेना": 3467,
      "कैप्शन": 3468,
      "खिलाड़ी": 3469,
      "##फ्तार": 3470,
      "सौंप": 3471,
      "तिथि": 3472,
      "काउ": 3473,
      "साब": 3474,
      "रिस": 3475,
      "सूत्र": 3476,
      "उतर": 3477,
      "हरा": 3478,
      "छोड़कर": 3479,
      "अमेरिकी": 3480,
      "स्थापित": 3481,
      "बंध": 3482,
      "##गीय": 3483,
      "लॉन्च": 3484,
      "गोपाल": 3485,
      "लक्ष्य": 3486,
      "डीएम": 3487,
      "शपथ": 3488,
      "प्रिय": 3489,
      "संतोष": 3490,
      "डिप्": 3491,
      "लै": 3492,
      "सप": 3493,
      "##it": 3494,
      "मुह": 3495,
      "राजधानी": 3496,
      "##्रेन": 3497,
      "पार्ट": 3498,
      "सूची": 3499,
      "छात्राओं": 3500,
      "विद्यार्थियों": 3501,
      "इतिहास": 3502,
      "कमा": 3503,
      "शान": 3504,
      "प्रेर": 3505,
      "क़": 3506,
      "क्ला": 3507,
      "दस्ता": 3508,
      "##दमा": 3509,
      "परिय": 3510,
      "##रेन": 3511,
      "मिलता": 3512,
      "टाइ": 3513,
      "##क्का": 3514,
      "जाति": 3515,
      "new": 3516,
      "निदेशक": 3517,
      "ज्योति": 3518,
      "स्मार्ट": 3519,
      "परियोजना": 3520,
      "##सित": 3521,
      "जोन": 3522,
      "जम्म": 3523,
      "रोकने": 3524,
      "ट्रैफिक": 3525,
      "##ग्राम": 3526,
      "नीति": 3527,
      "डिप्टी": 3528,
      "शै": 3529,
      "किमी": 3530,
      "##िमांड": 3531,
      "अरविंद": 3532,
      "दबाव": 3533,
      "फायदा": 3534,
      "मेह": 3535,
      "माहौल": 3536,
      "बत": 3537,
      "पेड़": 3538,
      "सौं": 3539,
      "##क्सी": 3540,
      "सोनी": 3541,
      "सहायता": 3542,
      "##सन": 3543,
      "##िट्": 3544,
      "रफ्तार": 3545,
      "बुलाया": 3546,
      "प्रस्तुत": 3547,
      "उक्त": 3548,
      "##यात": 3549,
      "स्थानों": 3550,
      "चिकित्": 3551,
      "प्रशिक्षण": 3552,
      "चुनावों": 3553,
      "मशीन": 3554,
      "कक्षा": 3555,
      "जुड़ी": 3556,
      "##ट्टी": 3557,
      "साथी": 3558,
      "हिरासत": 3559,
      "##बीआई": 3560,
      "मुर": 3561,
      "समूह": 3562,
      "##न्द": 3563,
      "रूम": 3564,
      "ग्वालियर": 3565,
      "सैनी": 3566,
      "55": 3567,
      "ड्यूटी": 3568,
      "##कृ": 3569,
      "##वीन": 3570,
      "बचाने": 3571,
      "रोजगार": 3572,
      "90": 3573,
      "##ूनी": 3574,
      "भाषा": 3575,
      "गतिविध": 3576,
      "कंपनियों": 3577,
      "धान": 3578,
      "अनुमति": 3579,
      "मनीष": 3580,
      "मास": 3581,
      "प्रत्य": 3582,
      "##ेस्ट": 3583,
      "##खे": 3584,
      "काट": 3585,
      "बाग": 3586,
      "जानते": 3587,
      "एसी": 3588,
      "##क़": 3589,
      "इंजीनियर": 3590,
      "टॉ": 3591,
      "##वां": 3592,
      "मध्यप्रदेश": 3593,
      "दान": 3594,
      "##त्त": 3595,
      "चिकित्सा": 3596,
      "हेम": 3597,
      "##ूषण": 3598,
      "##िये": 3599,
      "रेड": 3600,
      "भरा": 3601,
      "##वानी": 3602,
      "##वधान": 3603,
      "बाढ़": 3604,
      "संचालक": 3605,
      "चिंता": 3606,
      "48": 3607,
      "लापर": 3608,
      "पोस्टम": 3609,
      "मुकाबले": 3610,
      "एसोसिएशन": 3611,
      "सेल्सियस": 3612,
      "जम्मू": 3613,
      "##लिंग": 3614,
      "##ानों": 3615,
      "##ाजी": 3616,
      "कर्मियों": 3617,
      "##शील": 3618,
      "प्ला": 3619,
      "##वनी": 3620,
      "##स्वी": 3621,
      "विवे": 3622,
      "सीनियर": 3623,
      "##रेट": 3624,
      "##्रेलिया": 3625,
      "##क्रिय": 3626,
      "##ट्ट": 3627,
      "तारीख": 3628,
      "उज्ज": 3629,
      "एच": 3630,
      "चेयर": 3631,
      "मुकदमा": 3632,
      "##ॉर्टम": 3633,
      "प्रिंस": 3634,
      "पोस्टमॉर्टम": 3635,
      "ऑस्ट": 3636,
      "नवा": 3637,
      "बें": 3638,
      "शूट": 3639,
      "##कृत": 3640,
      "##गण": 3641,
      "निर्धारित": 3642,
      "अक्ष": 3643,
      "कंट": 3644,
      "दाम": 3645,
      "##वती": 3646,
      "करनी": 3647,
      "स्म": 3648,
      "आरक्षण": 3649,
      "बॉलीवुड": 3650,
      "000": 3651,
      "##is": 3652,
      "स्कू": 3653,
      "कप्तान": 3654,
      "फैसले": 3655,
      "टूट": 3656,
      "##ur": 3657,
      "सेल": 3658,
      "निभा": 3659,
      "##टेन": 3660,
      "निकले": 3661,
      "क्रम": 3662,
      "बूथ": 3663,
      "वेब": 3664,
      "आरती": 3665,
      "दाखिल": 3666,
      "कमिश्नर": 3667,
      "मोटर": 3668,
      "ग्रे": 3669,
      "##ंघ": 3670,
      "##वाया": 3671,
      "संचालित": 3672,
      "ज्ञापन": 3673,
      "जताई": 3674,
      "किशोर": 3675,
      "##ौन": 3676,
      "जमानत": 3677,
      "फें": 3678,
      "##थर": 3679,
      "##र्जर": 3680,
      "पालन": 3681,
      "टॉप": 3682,
      "2021": 3683,
      "रखते": 3684,
      "फायरिंग": 3685,
      "##्ब": 3686,
      "##राय": 3687,
      "फैक्ट": 3688,
      "चांदी": 3689,
      "घूम": 3690,
      "वॉ": 3691,
      "2025": 3692,
      "संपत्ति": 3693,
      "दुर्गा": 3694,
      "करवाई": 3695,
      "रेफर": 3696,
      "मोहल्": 3697,
      "news": 3698,
      "##ांची": 3699,
      "डीसी": 3700,
      "हेड": 3701,
      "स्टेट": 3702,
      "त्रि": 3703,
      "गौरव": 3704,
      "राजीव": 3705,
      "गोर": 3706,
      "वारा": 3707,
      "##काता": 3708,
      "नियंत्र": 3709,
      "चंडी": 3710,
      "वर": 3711,
      "##्यता": 3712,
      "##ढ़ी": 3713,
      "विश्": 3714,
      "स्पी": 3715,
      "झू": 3716,
      "##ay": 3717,
      "सप्लाई": 3718,
      "अर्ज": 3719,
      "चर": 3720,
      "सरपंच": 3721,
      "##ंजन": 3722,
      "हमारा": 3723,
      "गिरावट": 3724,
      "डायरेक्टर": 3725,
      "##di": 3726,
      "##र्तन": 3727,
      "पुराने": 3728,
      "अट": 3729,
      "खड़ा": 3730,
      "दैनिक": 3731,
      "रुक": 3732,
      "महाम": 3733,
      "कोलकाता": 3734,
      "प्रत्येक": 3735,
      "जला": 3736,
      "##द्दी": 3737,
      "हरि": 3738,
      "इस्ती": 3739,
      "##ॉन": 3740,
      "##फॉर्म": 3741,
      "पावर": 3742,
      "खिलाड़ियों": 3743,
      "ट्रैक्टर": 3744,
      "किर": 3745,
      "##बीसी": 3746,
      "##आईआर": 3747,
      "ज्ञान": 3748,
      "लापरवाही": 3749,
      "तालाब": 3750,
      "पहा": 3751,
      "##नेस": 3752,
      "कमल": 3753,
      "चौथ": 3754,
      "खाते": 3755,
      "उपाध्यक्ष": 3756,
      "ठंड": 3757,
      "लू": 3758,
      "िंग": 3759,
      "##ुक्ति": 3760,
      "क्षमता": 3761,
      "स्टार": 3762,
      "हिस्से": 3763,
      "उम्मीदवारों": 3764,
      "धीरे": 3765,
      "संसद": 3766,
      "खाना": 3767,
      "दस": 3768,
      "सलाह": 3769,
      "सक्रिय": 3770,
      "प्रदीप": 3771,
      "ठगी": 3772,
      "##नर": 3773,
      "##am": 3774,
      "पाली": 3775,
      "##धपुर": 3776,
      "करियर": 3777,
      "साउ": 3778,
      "प्रतिमा": 3779,
      "जिन्होंने": 3780,
      "##िलास": 3781,
      "आगामी": 3782,
      "रमेश": 3783,
      "हिम": 3784,
      "मांगी": 3785,
      "विशाल": 3786,
      "विश्वास": 3787,
      "कथा": 3788,
      "##व्यू": 3789,
      "डॉलर": 3790,
      "भावना": 3791,
      "अत": 3792,
      "इंच": 3793,
      "स्टैंड": 3794,
      "वितरण": 3795,
      "सलमान": 3796,
      "साबित": 3797,
      "मच": 3798,
      "##ित्व": 3799,
      "संदेश": 3800,
      "पड़ता": 3801,
      "नशे": 3802,
      "बुल": 3803,
      "करवाने": 3804,
      "अनुमान": 3805,
      "पैदा": 3806,
      "उठाया": 3807,
      "पसंद": 3808,
      "किरा": 3809,
      "कू": 3810,
      "दवा": 3811,
      "अकाउंट": 3812,
      "रेट": 3813,
      "विस्तार": 3814,
      "cm": 3815,
      "अर्थ": 3816,
      "ओम": 3817,
      "गार्ड": 3818,
      "तीसरी": 3819,
      "##पेट": 3820,
      "सोच": 3821,
      "माध": 3822,
      "नाथ": 3823,
      "##ic": 3824,
      "टाइम": 3825,
      "पॉल": 3826,
      "जोधपुर": 3827,
      "क्लब": 3828,
      "आती": 3829,
      "कने": 3830,
      "##बारा": 3831,
      "जुट": 3832,
      "आतंक": 3833,
      "चंडीगढ़": 3834,
      "##लब": 3835,
      "##ेन्द्र": 3836,
      "##20": 3837,
      "प्रबंध": 3838,
      "गोद": 3839,
      "इंडस्ट्री": 3840,
      "300": 3841,
      "##ेलन": 3842,
      "चुनौती": 3843,
      "भ्र": 3844,
      "श्याम": 3845,
      "##डर": 3846,
      "तिर": 3847,
      "वाय": 3848,
      "फिल्मों": 3849,
      "##हण": 3850,
      "##वंत": 3851,
      "इंस्प": 3852,
      "सेंट": 3853,
      "हंग": 3854,
      "##्रेशन": 3855,
      "आपकी": 3856,
      "जिनमें": 3857,
      "मुद्दे": 3858,
      "खाने": 3859,
      "##स्टे": 3860,
      "बढ़ने": 3861,
      "चाहता": 3862,
      "इंटरव्यू": 3863,
      "##िनेट": 3864,
      "भुगतान": 3865,
      "एंट": 3866,
      "टो": 3867,
      "नक्स": 3868,
      "शही": 3869,
      "##जिद": 3870,
      "प्रमाण": 3871,
      "##ंडर": 3872,
      "रूस": 3873,
      "हालात": 3874,
      "पुन": 3875,
      "संघर्ष": 3876,
      "##िड़": 3877,
      "निर्म": 3878,
      "राजस्व": 3879,
      "##ेमारी": 3880,
      "हाईवे": 3881,
      "##म्प": 3882,
      "छापेमारी": 3883,
      "साउथ": 3884,
      "इजरा": 3885,
      "##णसी": 3886,
      "विमान": 3887,
      "घायलों": 3888,
      "समीक्षा": 3889,
      "वाराणसी": 3890,
      "##णि": 3891,
      "विभा": 3892,
      "दूरी": 3893,
      "##वासियों": 3894,
      "शेख": 3895,
      "बिल्ड": 3896,
      "एफआईआर": 3897,
      "##मैन": 3898,
      "##ईओ": 3899,
      "##गणना": 3900,
      "प्यार": 3901,
      "रानी": 3902,
      "प्रभा": 3903,
      "हिंसा": 3904,
      "गुजर": 3905,
      "बल्ले": 3906,
      "खी": 3907,
      "खड़ी": 3908,
      "चाक": 3909,
      "स्वामी": 3910,
      "वोटिंग": 3911,
      "निशाना": 3912,
      "मॉडल": 3913,
      "ऑस्ट्रेलिया": 3914,
      "तार": 3915,
      "##गु": 3916,
      "कैब": 3917,
      "योजनाओं": 3918,
      "##घाटन": 3919,
      "चिकित्स": 3920,
      "डिप": 3921,
      "धाम": 3922,
      "पारा": 3923,
      "संदि": 3924,
      "विकसित": 3925,
      "पुरानी": 3926,
      "लक्ष्मी": 3927,
      "गुल": 3928,
      "बम": 3929,
      "रद्द": 3930,
      "##्वी": 3931,
      "नेट": 3932,
      "##ड्डा": 3933,
      "##राष्ट्रीय": 3934,
      "संदिग्ध": 3935,
      "बादल": 3936,
      "स्वतंत्र": 3937,
      "नियुक्त": 3938,
      "वास": 3939,
      "##मर": 3940,
      "अनुप": 3941,
      "स्थापना": 3942,
      "फुटेज": 3943,
      "एसडीएम": 3944,
      "इंटरनेशनल": 3945,
      "##ेक्टर": 3946,
      "##ार्व": 3947,
      "अच्छे": 3948,
      "ईरान": 3949,
      "कोटा": 3950,
      "सकेंगे": 3951,
      "आईपी": 3952,
      "डेढ़": 3953,
      "दह": 3954,
      "##घटना": 3955,
      "##लेख": 3956,
      "##ंदे": 3957,
      "फैल": 3958,
      "यूनिट": 3959,
      "दुर्घटना": 3960,
      "ठेके": 3961,
      "##भार": 3962,
      "भीतर": 3963,
      "समाप्त": 3964,
      "संगी": 3965,
      "##यं": 3966,
      "##ोजक": 3967,
      "कानपुर": 3968,
      "भीषण": 3969,
      "##ल्ल": 3970,
      "यात्री": 3971,
      "विशेषज्ञ": 3972,
      "वृद्धि": 3973,
      "400": 3974,
      "##यत": 3975,
      "शिकार": 3976,
      "खुशी": 3977,
      "सर्विस": 3978,
      "नर्स": 3979,
      "पोर्ट": 3980,
      "भरो": 3981,
      "हित": 3982,
      "लेना": 3983,
      "चेता": 3984,
      "सम्मेलन": 3985,
      "ओल": 3986,
      "##डियम": 3987,
      "चलाया": 3988,
      "##करा": 3989,
      "सत्य": 3990,
      "रांची": 3991,
      "राठ": 3992,
      "अंतरराष्ट्रीय": 3993,
      "##लेश": 3994,
      "pr": 3995,
      "जबर": 3996,
      "द्व": 3997,
      "##ंती": 3998,
      "उपाय": 3999,
      "छोटी": 4000,
      "टैक्स": 4001,
      "##िले": 4002,
      "##भाष": 4003,
      "##स्तर": 4004,
      "गांवों": 4005,
      "रहीं": 4006,
      "##ैट": 4007,
      "कार्यकाल": 4008,
      "वकील": 4009,
      "अतिक": 4010,
      "गरीब": 4011,
      "जू": 4012,
      "डाला": 4013,
      "सार्व": 4014,
      "अध्यक्षता": 4015,
      "पवन": 4016,
      "##han": 4017,
      "##्यास": 4018,
      "##स्टल": 4019,
      "##द्रा": 4020,
      "##ोटा": 4021,
      "गठन": 4022,
      "स्वीकार": 4023,
      "प्रे": 4024,
      "सोना": 4025,
      "हटाने": 4026,
      "चार्ज": 4027,
      "नज": 4028,
      "##मित": 4029,
      "##केशन": 4030,
      "आंख": 4031,
      "होनी": 4032,
      "राजेंद्र": 4033,
      "##ap": 4034,
      "##वाला": 4035,
      "65": 4036,
      "आक्र": 4037,
      "वार्": 4038,
      "##धिकार": 4039,
      "2014": 4040,
      "स्टेडियम": 4041,
      "उद्घाटन": 4042,
      "ऊंच": 4043,
      "खर": 4044,
      "जस": 4045,
      "ियों": 4046,
      "##पुरी": 4047,
      "जुर्म": 4048,
      "बजकर": 4049,
      "कैमरे": 4050,
      "कथ": 4051,
      "##नाड": 4052,
      "बेस": 4053,
      "##ंपिक": 4054,
      "ट्रॉ": 4055,
      "फैंस": 4056,
      "शहरों": 4057,
      "लड़ाई": 4058,
      "स्वच्छ": 4059,
      "मिशन": 4060,
      "##स्टेबल": 4061,
      "अतिक्रमण": 4062,
      "उतार": 4063,
      "##दल": 4064,
      "दोबारा": 4065,
      "महोत्सव": 4066,
      "बीमार": 4067,
      "सुरेश": 4068,
      "महास": 4069,
      "तु": 4070,
      "##हाद": 4071,
      "बढ़ावा": 4072,
      "श्रद्धालुओं": 4073,
      "इंस्पेक्टर": 4074,
      "अके": 4075,
      "##दिन": 4076,
      "सोरेन": 4077,
      "##िपल": 4078,
      "सूरज": 4079,
      "मीटिंग": 4080,
      "अरब": 4081,
      "आखिर": 4082,
      "##ोग्राम": 4083,
      "चाहती": 4084,
      "पुरस्कार": 4085,
      "पश्चिमी": 4086,
      "आशंका": 4087,
      "पंडित": 4088,
      "शानदार": 4089,
      "आंध": 4090,
      "एरिया": 4091,
      "दर्द": 4092,
      "बध": 4093,
      "##िवार": 4094,
      "विष्ण": 4095,
      "##ंदन": 4096,
      "##त्मा": 4097,
      "दिनेश": 4098,
      "मस्": 4099,
      "सख्त": 4100,
      "पदों": 4101,
      "कठ": 4102,
      "नाय": 4103,
      "##नाम": 4104,
      "##सीय": 4105,
      "##र्जन": 4106,
      "जिन्हें": 4107,
      "सौर": 4108,
      "सिन्": 4109,
      "##वली": 4110,
      "विज्ञान": 4111,
      "##्मण": 4112,
      "##दाबाद": 4113,
      "नियुक्ति": 4114,
      "कराए": 4115,
      "ip": 4116,
      "डो": 4117,
      "##नल": 4118,
      "##स्थल": 4119,
      "##जनिक": 4120,
      "बचाव": 4121,
      "सार्वजनिक": 4122,
      "##ंगर": 4123,
      "सीता": 4124,
      "स्ट्र": 4125,
      "तस्कर": 4126,
      "इक": 4127,
      "नती": 4128,
      "व्": 4129,
      "##ol": 4130,
      "##छा": 4131,
      "मौजू": 4132,
      "जगहों": 4133,
      "एक्शन": 4134,
      "शोर": 4135,
      "##ौली": 4136,
      "संस्कार": 4137,
      "38": 4138,
      "नारे": 4139,
      "सुल": 4140,
      "##ंटर": 4141,
      "कुश": 4142,
      "लाखों": 4143,
      "अखिलेश": 4144,
      "यश": 4145,
      "##ष्टा": 4146,
      "लड़के": 4147,
      "मौजूदा": 4148,
      "गह": 4149,
      "गौतम": 4150,
      "##ारण": 4151,
      "कोह": 4152,
      "प्रारंभ": 4153,
      "मैन": 4154,
      "वेतन": 4155,
      "नियमों": 4156,
      "कैबिनेट": 4157,
      "up": 4158,
      "सका": 4159,
      "##ाइड": 4160,
      "जानिए": 4161,
      "समस्याओं": 4162,
      "अपराधियों": 4163,
      "एप": 4164,
      "##टका": 4165,
      "विज": 4166,
      "लुधिया": 4167,
      "लुधियाना": 4168,
      "pm": 4169,
      "##िफिक": 4170,
      "संजीव": 4171,
      "दरवा": 4172,
      "कारोबार": 4173,
      "असम": 4174,
      "नहर": 4175,
      "माय": 4176,
      "शास": 4177,
      "##काने": 4178,
      "##बार": 4179,
      "##सेज": 4180,
      "महेंद्र": 4181,
      "मिलती": 4182,
      "आपका": 4183,
      "अफसरों": 4184,
      "2020": 4185,
      "प्रोफे": 4186,
      "प्रवक्ता": 4187,
      "क्लास": 4188,
      "पथ": 4189,
      "पंक": 4190,
      "चलाने": 4191,
      "मनो": 4192,
      "सांस्कृत": 4193,
      "विदेशी": 4194,
      "सिन्हा": 4195,
      "लिम": 4196,
      "##पण": 4197,
      "##hi": 4198,
      "दिव्या": 4199,
      "दिवसीय": 4200,
      "##प्रीत": 4201,
      "##ुद्ध": 4202,
      "सुंदर": 4203,
      "पहुंचाया": 4204,
      "##ब्लिक": 4205,
      "विनोद": 4206,
      "फॉर्म": 4207,
      "##ंसर": 4208,
      "##लान": 4209,
      "##ढ़े": 4210,
      "हल्की": 4211,
      "जस्ट": 4212,
      "##काम": 4213,
      "##नाटक": 4214,
      "मुक्त": 4215,
      "चारों": 4216,
      "लाइट": 4217,
      "धरना": 4218,
      "कर्नाटक": 4219,
      "प्रोफेसर": 4220,
      "re": 4221,
      "##डेट": 4222,
      "बातें": 4223,
      "अरुण": 4224,
      "आबादी": 4225,
      "चपेट": 4226,
      "##म्बर": 4227,
      "चेतावनी": 4228,
      "सांस्कृतिक": 4229,
      "नवीन": 4230,
      "पेंशन": 4231,
      "मध": 4232,
      "##ेंगी": 4233,
      "अनुभव": 4234,
      "##तरीय": 4235,
      "मंजू": 4236,
      "गोरख": 4237,
      "ईडी": 4238,
      "टिप्": 4239,
      "दलों": 4240,
      "सन": 4241,
      "##कर्मी": 4242,
      "कमज": 4243,
      "नमः": 4244,
      "उत्साह": 4245,
      "अंडर": 4246,
      "ट्रंप": 4247,
      "आदिवासी": 4248,
      "चोरों": 4249,
      "कंग": 4250,
      "शौ": 4251,
      "##id": 4252,
      "##ड़िया": 4253,
      "बाय": 4254,
      "##गरानी": 4255,
      "एंट्री": 4256,
      "कच": 4257,
      "वाद": 4258,
      "##सीसी": 4259,
      "निकाली": 4260,
      "खुले": 4261,
      "इंग": 4262,
      "ऊर्जा": 4263,
      "डूब": 4264,
      "##बीन": 4265,
      "स्तरीय": 4266,
      "उपचु": 4267,
      "ट्रांसफर": 4268,
      "चाकू": 4269,
      "पंकज": 4270,
      "उपचुनाव": 4271,
      "इसरा": 4272,
      "निगरानी": 4273,
      "##कारा": 4274,
      "प्राण": 4275,
      "साहिब": 4276,
      "समझौ": 4277,
      "बिक्री": 4278,
      "##ानगर": 4279,
      "इंडियन": 4280,
      "योगदान": 4281,
      "भक्तों": 4282,
      "विष्णु": 4283,
      "##ौड़": 4284,
      "मेर": 4285,
      "बैग": 4286,
      "मस्जिद": 4287,
      "46": 4288,
      "##तक": 4289,
      "##ra": 4290,
      "##र्ण": 4291,
      "निरा": 4292,
      "घटनास्थल": 4293,
      "##एससी": 4294,
      "##ट्टा": 4295,
      "ब्रि": 4296,
      "गतिविधियों": 4297,
      "फ्री": 4298,
      "##पद": 4299,
      "बाई": 4300,
      "रास्ता": 4301,
      "कपड़े": 4302,
      "एमपी": 4303,
      "काउंस": 4304,
      "##नन": 4305,
      "राजकुमार": 4306,
      "आयु": 4307,
      "एनडीए": 4308,
      "गैस": 4309,
      "बधाई": 4310,
      "ब्रे": 4311,
      "##्रह": 4312,
      "चौराह": 4313,
      "गुण": 4314,
      "बोला": 4315,
      "धोखा": 4316,
      "उज्जैन": 4317,
      "सारे": 4318,
      "##et": 4319,
      "समान": 4320,
      "सुभाष": 4321,
      "##राबाद": 4322,
      "##साइड": 4323,
      "गायब": 4324,
      "झां": 4325,
      "भव्य": 4326,
      "सैनिक": 4327,
      "##ुलेंस": 4328,
      "संकल्प": 4329,
      "कंट्रोल": 4330,
      "झग": 4331,
      "प्रयोग": 4332,
      "बेट": 4333,
      "लड़क": 4334,
      "पंजी": 4335,
      "घे": 4336,
      "##तो": 4337,
      "परम": 4338,
      "गैर": 4339,
      "प्रतिनिध": 4340,
      "लल": 4341,
      "सिया": 4342,
      "इन्हें": 4343,
      "##वासन": 4344,
      "कर्मी": 4345,
      "आर्ट": 4346,
      "तृ": 4347,
      "##लीय": 4348,
      "क्राइम": 4349,
      "पूर्वी": 4350,
      "##िंदर": 4351,
      "##र्में": 4352,
      "संस्क": 4353,
      "रोल": 4354,
      "स्वयं": 4355,
      "##फ्रेंस": 4356,
      "संस्कृति": 4357,
      "हैद": 4358,
      "मेहन": 4359,
      "सब्": 4360,
      "नजदी": 4361,
      "44": 4362,
      "##चिव": 4363,
      "मानसिक": 4364,
      "फैक्ट्री": 4365,
      "हंगामा": 4366,
      "आना": 4367,
      "स्‍": 4368,
      "निकला": 4369,
      "निशान": 4370,
      "ससुराल": 4371,
      "देती": 4372,
      "वर्षा": 4373,
      "##धीश": 4374,
      "प्रोड": 4375,
      "भरत": 4376,
      "आकर्": 4377,
      "##टरी": 4378,
      "सुसाइड": 4379,
      "इन्": 4380,
      "जीतने": 4381,
      "पांडे": 4382,
      "परिवहन": 4383,
      "साढ़े": 4384,
      "कौशल": 4385,
      "उत्सव": 4386,
      "खार": 4387,
      "घोट": 4388,
      "छठ": 4389,
      "##कृति": 4390,
      "##हारी": 4391,
      "मुज": 4392,
      "##ाजा": 4393,
      "##स्थिति": 4394,
      "लगाते": 4395,
      "##ंपरा": 4396,
      "##ृत्य": 4397,
      "##साइट": 4398,
      "भूप": 4399,
      "##क्न": 4400,
      "अग्न": 4401,
      "एडम": 4402,
      "पर्यावरण": 4403,
      "फल": 4404,
      "गोल्ड": 4405,
      "198": 4406,
      "व्यापारी": 4407,
      "##्तीय": 4408,
      "कैला": 4409,
      "विभागों": 4410,
      "बोली": 4411,
      "श्रीवा": 4412,
      "वित्तीय": 4413,
      "सुनाई": 4414,
      "हरी": 4415,
      "राइ": 4416,
      "सूत्रों": 4417,
      "चतु": 4418,
      "रिश": 4419,
      "होम": 4420,
      "दुर्ग": 4421,
      "डीएसपी": 4422,
      "कब्जा": 4423,
      "श्रीवास्तव": 4424,
      "##पट": 4425,
      "खोज": 4426,
      "परंपरा": 4427,
      "सीधे": 4428,
      "वर्क": 4429,
      "आएंगे": 4430,
      "##ट्‌": 4431,
      "अर्जुन": 4432,
      "आचार्य": 4433,
      "मिट्": 4434,
      "शुल्क": 4435,
      "##िनियम": 4436,
      "जुल": 4437,
      "रोग": 4438,
      "##धिकारियों": 4439,
      "कानूनी": 4440,
      "हिंदी": 4441,
      "42": 4442,
      "घट": 4443,
      "##सवाल": 4444,
      "उनमें": 4445,
      "महेश": 4446,
      "इनकी": 4447,
      "कहती": 4448,
      "हजारों": 4449,
      "श्रीराम": 4450,
      "वापसी": 4451,
      "तिल": 4452,
      "शख": 4453,
      "##िमा": 4454,
      "##गन": 4455,
      "किशन": 4456,
      "काे": 4457,
      "काबू": 4458,
      "वेस्ट": 4459,
      "पकड़े": 4460,
      "चेयरमैन": 4461,
      "एडी": 4462,
      "मंज": 4463,
      "जाट": 4464,
      "अधिनियम": 4465,
      "भारती": 4466,
      "बॉक्स": 4467,
      "भ्रष्टा": 4468,
      "आश्": 4469,
      "हवाई": 4470,
      "##ोसी": 4471,
      "साज": 4472,
      "बताए": 4473,
      "ग्रा": 4474,
      "खेला": 4475,
      "दौड़": 4476,
      "कमाई": 4477,
      "दस्तावेज": 4478,
      "वेबसाइट": 4479,
      "उधर": 4480,
      "##श्त": 4481,
      "पुण": 4482,
      "पत्थर": 4483,
      "प्रियंका": 4484,
      "प्रिंसिपल": 4485,
      "कमजोर": 4486,
      "मेहनत": 4487,
      "अक्सर": 4488,
      "##्ट": 4489,
      "केन्द्र": 4490,
      "##ानु": 4491,
      "प्रतिष्ठा": 4492,
      "शहीद": 4493,
      "##र्त": 4494,
      "अपर": 4495,
      "लागत": 4496,
      "विधाय": 4497,
      "इंग्ल": 4498,
      "दर्श": 4499,
      "##ंवर": 4500,
      "##िटेड": 4501,
      "विधि": 4502,
      "व्यापार": 4503,
      "##सेस": 4504,
      "अनुर": 4505,
      "आगरा": 4506,
      "मुकाबला": 4507,
      "कोहली": 4508,
      "रिया": 4509,
      "सीबीआई": 4510,
      "हाथों": 4511,
      "दिखाया": 4512,
      "डिजाइन": 4513,
      "संरक्षण": 4514,
      "लें": 4515,
      "##कू": 4516,
      "प्रती": 4517,
      "विर": 4518,
      "##ोलॉ": 4519,
      "मानव": 4520,
      "चैंप": 4521,
      "भंड": 4522,
      "##विंदर": 4523,
      "राज्यपाल": 4524,
      "इतने": 4525,
      "हिसाब": 4526,
      "खाद्य": 4527,
      "ओड": 4528,
      "##सि": 4529,
      "##ाइट": 4530,
      "पासवान": 4531,
      "आवश्यकता": 4532,
      "मतदाता": 4533,
      "##स्सा": 4534,
      "जुटी": 4535,
      "##सूस": 4536,
      "पांडेय": 4537,
      "शूटिंग": 4538,
      "उचित": 4539,
      "चक्र": 4540,
      "##नाक": 4541,
      "इंस्ट": 4542,
      "जैसा": 4543,
      "दिग्": 4544,
      "##ूर्त": 4545,
      "अजमेर": 4546,
      "कैलाश": 4547,
      "आश्वासन": 4548,
      "लेख": 4549,
      "##रेज": 4550,
      "पदार्थ": 4551,
      "एडव": 4552,
      "##ड्डी": 4553,
      "श्रेणी": 4554,
      "',": 4555,
      "गर्म": 4556,
      "घरे": 4557,
      "सिम": 4558,
      "जीता": 4559,
      "सैक": 4560,
      "लंबी": 4561,
      "ऑड": 4562,
      "नित": 4563,
      "शब्": 4564,
      "##गो": 4565,
      "##गांव": 4566,
      "निष्": 4567,
      "प्लांट": 4568,
      "संयोजक": 4569,
      "रणनी": 4570,
      "फ्लाइट": 4571,
      "खून": 4572,
      "दिक": 4573,
      "चौरा": 4574,
      "भोजन": 4575,
      "ममता": 4576,
      "##तायात": 4577,
      "मुआ": 4578,
      "सिने": 4579,
      "यातायात": 4580,
      "प्रतिबंध": 4581,
      "ट्रैक": 4582,
      "मुद्दों": 4583,
      "दोषी": 4584,
      "##क्षी": 4585,
      "##रोज": 4586,
      "लाश": 4587,
      "अवधि": 4588,
      "घरेलू": 4589,
      "47": 4590,
      "पायल": 4591,
      "बुरी": 4592,
      "##यी": 4593,
      "##दिक": 4594,
      "करण": 4595,
      "पीने": 4596,
      "जनरल": 4597,
      "मतगणना": 4598,
      "अहमद": 4599,
      "तुलना": 4600,
      "अश्व": 4601,
      "##ुल्ला": 4602,
      "साथियों": 4603,
      "स्कोर": 4604,
      "महासचिव": 4605,
      "हर्ष": 4606,
      "बनकर": 4607,
      "विवेक": 4608,
      "##un": 4609,
      "राउंड": 4610,
      "बढ़ो": 4611,
      "निकली": 4612,
      "यूक": 4613,
      "प्रतिनिधि": 4614,
      "##चक": 4615,
      "##ौज": 4616,
      "विरा": 4617,
      "दूध": 4618,
      "बॉल": 4619,
      "गोरखपुर": 4620,
      "39": 4621,
      "ध्व": 4622,
      "##पता": 4623,
      "जाएं": 4624,
      "कैद": 4625,
      "गिरने": 4626,
      "चीज": 4627,
      "नशा": 4628,
      "##इंट": 4629,
      "दीवार": 4630,
      "मेला": 4631,
      "इनकार": 4632,
      "दुबे": 4633,
      "अमन": 4634,
      "मनम": 4635,
      "टाटा": 4636,
      "##ाकर": 4637,
      "##सु": 4638,
      "##हत्या": 4639,
      "चीफ": 4640,
      "मुद्दा": 4641,
      "आत्महत्या": 4642,
      "आशीष": 4643,
      "फे": 4644,
      "##ल्टी": 4645,
      "##िमी": 4646,
      "जिलाध्यक्ष": 4647,
      "ट्रेनिंग": 4648,
      "पक्षों": 4649,
      "निकलने": 4650,
      "निरीक्षक": 4651,
      "संभव": 4652,
      "जस्टिस": 4653,
      "ऑल": 4654,
      "##ग्न": 4655,
      "##ित्त": 4656,
      "अपडेट": 4657,
      "मोर्चा": 4658,
      "जबलपुर": 4659,
      "लिमिटेड": 4660,
      "विधायकों": 4661,
      "05": 4662,
      "बड़": 4663,
      "हफ्": 4664,
      "##चंद": 4665,
      "स्न": 4666,
      "सामग्री": 4667,
      "नील": 4668,
      "शुक्ला": 4669,
      "हेमंत": 4670,
      "भ्रष्टाचार": 4671,
      "डू": 4672,
      "##क्‍": 4673,
      "##ल्थ": 4674,
      "राज्यसभा": 4675,
      "बरसा": 4676,
      "पलट": 4677,
      "इस्तीफा": 4678,
      "छूट": 4679,
      "वसू": 4680,
      "##द्योग": 4681,
      "बढ़ती": 4682,
      "शख्स": 4683,
      "गे": 4684,
      "फाइल": 4685,
      "प्रण": 4686,
      "##वाड़ी": 4687,
      "साझा": 4688,
      "नियमित": 4689,
      "##ज्ञानिक": 4690,
      "आरा": 4691,
      "##्द": 4692,
      "##फिया": 4693,
      "##har": 4694,
      "##्लो": 4695,
      "दुष्": 4696,
      "मेडल": 4697,
      "##tion": 4698,
      "कथित": 4699,
      "ऐलान": 4700,
      "##शोध": 4701,
      "##रेस्ट": 4702,
      "महसूस": 4703,
      "##दीय": 4704,
      "मेले": 4705,
      "बढ़कर": 4706,
      "##आईटी": 4707,
      "प्रदर्श": 4708,
      "छत": 4709,
      "पाने": 4710,
      "लापता": 4711,
      "##िन्द": 4712,
      "खारिज": 4713,
      "पाइ": 4714,
      "##ियत": 4715,
      "##गाह": 4716,
      "आयुष": 4717,
      "प्रशासनिक": 4718,
      "मुजफ्": 4719,
      "बाइ": 4720,
      "कैंसर": 4721,
      "गोयल": 4722,
      "कुलदीप": 4723,
      "तेजस्वी": 4724,
      "नियंत्रण": 4725,
      "आकाश": 4726,
      "रुख": 4727,
      "शर": 4728,
      "##स्त्री": 4729,
      "##ांश": 4730,
      "प्रकरण": 4731,
      "##ायी": 4732,
      "महतो": 4733,
      "2018": 4734,
      "दुकानों": 4735,
      "तमिल": 4736,
      "बेचने": 4737,
      "अर्चना": 4738,
      "दिक्क": 4739,
      "##ट्यू": 4740,
      "##्रल": 4741,
      "##गेट": 4742,
      "मेट": 4743,
      "##एसआई": 4744,
      "मारे": 4745,
      "न्यायाधीश": 4746,
      "ओडिशा": 4747,
      "त्यो": 4748,
      "माइ": 4749,
      "##दास": 4750,
      "सेट": 4751,
      "##िलंब": 4752,
      "विद्या": 4753,
      "खेती": 4754,
      "पड़ेगा": 4755,
      "डिजिटल": 4756,
      "मारा": 4757,
      "गुना": 4758,
      "महाप": 4759,
      "शिफ्ट": 4760,
      "हड़ताल": 4761,
      "जख": 4762,
      "मंग": 4763,
      "केरल": 4764,
      "दौरे": 4765,
      "छोटा": 4766,
      "नाल": 4767,
      "##ीप": 4768,
      "होली": 4769,
      "जाया": 4770,
      "त्योहार": 4771,
      "माने": 4772,
      "##ृज": 4773,
      "##पूत": 4774,
      "##घु": 4775,
      "##्योर": 4776,
      "ज्यादातर": 4777,
      "एक्टिव": 4778,
      "##ब्ल्यू": 4779,
      "ओं": 4780,
      "धूप": 4781,
      "##el": 4782,
      "पोर्टल": 4783,
      "मुजफ्फर": 4784,
      "अंद": 4785,
      "एश": 4786,
      "पब्लिक": 4787,
      "रूट": 4788,
      "डीजल": 4789,
      "मारकर": 4790,
      "मतलब": 4791,
      "बिल्डिंग": 4792,
      "गर": 4793,
      "फते": 4794,
      "##नामेंट": 4795,
      "अधिव": 4796,
      "पार्किंग": 4797,
      "यूज": 4798,
      "मैचों": 4799,
      "मतदाताओं": 4800,
      "49": 4801,
      "टूर्": 4802,
      "##पणी": 4803,
      "##हिता": 4804,
      "विहार": 4805,
      "संहिता": 4806,
      "बीमारी": 4807,
      "मेन": 4808,
      "बढ़े": 4809,
      "आधारित": 4810,
      "लाइस": 4811,
      "अपराधी": 4812,
      "अभिने": 4813,
      "नागरिकों": 4814,
      "भरोसा": 4815,
      "साजिश": 4816,
      "टूर्नामेंट": 4817,
      "##चर्स": 4818,
      "प्रार्थ": 4819,
      "समापन": 4820,
      "##ाइयों": 4821,
      "##स्थाप": 4822,
      "प्रतिभा": 4823,
      "ब्रह": 4824,
      "संकट": 4825,
      "आक्रोश": 4826,
      "विराट": 4827,
      "हफ्ते": 4828,
      "आह": 4829,
      "कना": 4830,
      "ढा": 4831,
      "##वाड़": 4832,
      "जोशी": 4833,
      "उपभ": 4834,
      "बच्चा": 4835,
      "चाहे": 4836,
      "चम": 4837,
      "##श्म": 4838,
      "##रीन": 4839,
      "वोटर": 4840,
      "पदाधिकारियों": 4841,
      "जिम्मेदार": 4842,
      "फुट": 4843,
      "टिप्पणी": 4844,
      "झु": 4845,
      "##ाराम": 4846,
      "##रेली": 4847,
      "मास्टर": 4848,
      "रखना": 4849,
      "पुष्टि": 4850,
      "लीटर": 4851,
      "जयंती": 4852,
      "एक्सपर्ट": 4853,
      "एग्जाम": 4854,
      "##कृष्ण": 4855,
      "नक्सल": 4856,
      "41": 4857,
      "चित्र": 4858,
      "##दर्शन": 4859,
      "##डिंग": 4860,
      "##नीत": 4861,
      "विद्युत": 4862,
      "मैनेजर": 4863,
      "अना": 4864,
      "आसान": 4865,
      "मारी": 4866,
      "##ंतर": 4867,
      "राधा": 4868,
      "राजद": 4869,
      "गोविंद": 4870,
      "मान्यता": 4871,
      "दौरा": 4872,
      "अंग्रे": 4873,
      "सौंपा": 4874,
      "किरदार": 4875,
      "सिनेमा": 4876,
      "आर्य": 4877,
      "ठग": 4878,
      "पर्": 4879,
      "बिलास": 4880,
      "##bi": 4881,
      "##क्चर": 4882,
      "गुर्जर": 4883,
      "प्रश्न": 4884,
      "हिसार": 4885,
      "चौराहे": 4886,
      "यूक्रेन": 4887,
      "कवि": 4888,
      "गिरी": 4889,
      "पव": 4890,
      "फंस": 4891,
      "भरी": 4892,
      "सकी": 4893,
      "मैसेज": 4894,
      "पीठ": 4895,
      "प्रावधान": 4896,
      "प्रस्तुति": 4897,
      "बढ़ोतरी": 4898,
      "इच्छ": 4899,
      "निर्द": 4900,
      "लीक": 4901,
      "पड़ोसी": 4902,
      "मूवी": 4903,
      "जागरूकता": 4904,
      "बिलासपुर": 4905,
      "##प्त": 4906,
      "##da": 4907,
      "उसको": 4908,
      "वैसे": 4909,
      "शुरुआती": 4910,
      "तकनीकी": 4911,
      "अल्प": 4912,
      "मूर्ति": 4913,
      "शक": 4914,
      "##ेदी": 4915,
      "विजे": 4916,
      "थानाध्यक्ष": 4917,
      "रखें": 4918,
      "परिवारों": 4919,
      "वैज्ञानिक": 4920,
      "##जलि": 4921,
      "गड़": 4922,
      "तनाव": 4923,
      "लड़ा": 4924,
      "लेंगे": 4925,
      "##गज": 4926,
      "##रीय": 4927,
      "संशोध": 4928,
      "##जात": 4929,
      "कार्यवाही": 4930,
      "बदले": 4931,
      "##ड्‌": 4932,
      "इस्ल": 4933,
      "भड़": 4934,
      "##ड़ियां": 4935,
      "स्वर": 4936,
      "साव": 4937,
      "##गीर": 4938,
      "##स्ट्र": 4939,
      "जुड़ा": 4940,
      "उत्तरा": 4941,
      "मांगों": 4942,
      "ड्रोन": 4943,
      "उठाए": 4944,
      "संभाल": 4945,
      "दोस्तों": 4946,
      "अक्षय": 4947,
      "कंगना": 4948,
      "जज": 4949,
      "सारी": 4950,
      "जिसने": 4951,
      "##्वल": 4952,
      "लड़ने": 4953,
      "हिस्सों": 4954,
      "लिखित": 4955,
      "रिजर्व": 4956,
      "टोल": 4957,
      "सैन": 4958,
      "##पु": 4959,
      "##ct": 4960,
      "साइक": 4961,
      "बालिका": 4962,
      "##कर्मियों": 4963,
      "फेंक": 4964,
      "उपभो": 4965,
      "तल": 4966,
      "लोह": 4967,
      "##िफ": 4968,
      "##केत": 4969,
      "जीते": 4970,
      "रिजल्ट": 4971,
      "समन": 4972,
      "##हरण": 4973,
      "आपूर्ति": 4974,
      "संगठनों": 4975,
      "तहसीलदार": 4976,
      "अक": 4977,
      "कस्": 4978,
      "गज": 4979,
      "पश": 4980,
      "शांत": 4981,
      "##लैंड": 4982,
      "##ंडे": 4983,
      "कहने": 4984,
      "नीरज": 4985,
      "दलित": 4986,
      "जिंदगी": 4987,
      "अभ्यर्थियों": 4988,
      "fir": 4989,
      "##ॉम": 4990,
      "निधन": 4991,
      "जनपद": 4992,
      "घटनाओं": 4993,
      "##फ्टी": 4994,
      "सचिन": 4995,
      "##ड्ढ": 4996,
      "कारोबारी": 4997,
      "##यक": 4998,
      "##us": 4999
    }
  }
}