[UNK]	0
[CLS]	1
[SEP]	2
[PAD]	3
[MASK]	4
!	5
"	6
#	7
$	8
%	9
&	10
'	11
(	12
)	13
*	14
+	15
,	16
-	17
.	18
/	19
0	20
1	21
2	22
3	23
4	24
5	25
6	26
7	27
8	28
9	29
:	30
;	31
=	32
>	33
?	34
@	35
[	36
\	37
]	38
^	39
_	40
a	41
b	42
c	43
d	44
e	45
f	46
g	47
h	48
i	49
j	50
k	51
l	52
m	53
n	54
o	55
p	56
q	57
r	58
s	59
t	60
u	61
v	62
w	63
x	64
y	65
z	66
{	67
}	68
~	69
£	70
­	71
°	72
·	73
×	74
ï	75
̈	76
ँ	77
ं	78
ः	79
अ	80
आ	81
इ	82
ई	83
उ	84
ऊ	85
ऋ	86
ऍ	87
ए	88
ऐ	89
ऑ	90
ओ	91
औ	92
क	93
ख	94
ग	95
घ	96
ङ	97
च	98
छ	99
ज	100
झ	101
ञ	102
ट	103
ठ	104
ड	105
ढ	106
ण	107
त	108
थ	109
द	110
ध	111
न	112
ऩ	113
प	114
फ	115
ब	116
भ	117
म	118
य	119
र	120
ऱ	121
ल	122
ळ	123
व	124
श	125
ष	126
स	127
ह	128
़	129
ऽ	130
ा	131
ि	132
ी	133
ु	134
ू	135
ृ	136
ॅ	137
ॆ	138
े	139
ै	140
ॉ	141
ॊ	142
ो	143
ौ	144
्	145
ॐ	146
॑	147
ॠ	148
।	149
॥	150
०	151
१	152
२	153
३	154
४	155
५	156
६	157
८	158
९	159
॰	160
ঁ	161
অ	162
আ	163
ই	164
এ	165
ও	166
ক	167
খ	168
ঘ	169
চ	170
ছ	171
জ	172
ট	173
ঠ	174
ড	175
ণ	176
ত	177
দ	178
ধ	179
ন	180
প	181
ব	182
ম	183
য	184
র	185
ল	186
ষ	187
স	188
়	189
া	190
ি	191
ী	192
ু	193
ে	194
ো	195
্	196
ઢ	197
ం	198
ఇ	199
క	200
గ	201
చ	202
ఛ	203
జ	204
ట	205
డ	206
ణ	207
త	208
థ	209
ద	210
న	211
ప	212
ఫ	213
బ	214
భ	215
ర	216
ల	217
వ	218
శ	219
స	220
ా	221
ి	222
ీ	223
ు	224
ూ	225
ె	226
ే	227
ొ	228
ో	229
్	230
‌	231
‍	232
‎	233
‛	234
•	235
⁄	236
⁠	237
€	238
₹	239
⏩	240
⏱	241
▪	242
○	243
●	244
☀	245
♈	246
♉	247
♊	248
♋	249
♌	250
♍	251
♏	252
♐	253
♑	254
♒	255
♓	256
♦	257
⚠	258
⚫	259
❓	260
❗	261
➤	262
⭐	263
	264
️	265
🇮	266
🇳	267
🌅	268
🌙	269
🌟	270
🎉	271
🏅	272
🏹	273
🐉	274
💫	275
🔴	276
🔵	277
🕐	278
🗓	279
😉	280
😎	281
😜	282
😸	283
🤔	284
🤩	285
🦌	286
🧭	287
🪐	288
##ग	289
##ा	290
##र	291
##ो	292
##ट	293
##ल	294
##ी	295
##ज	296
##ब	297
##ू	298
##त	299
##ह	300
##े	301
##ड	302
##ध	303
##ि	304
##क	305
##ख	306
##न	307
##व	308
##5	309
##2	310
##्	311
##ु	312
##ं	313
##स	314
##म	315
##़	316
##य	317
##फ	318
##श	319
##द	320
##3	321
##6	322
##1	323
##ए	324
##ओ	325
##ष	326
##ण	327
##0	328
##k	329
##प	330
##भ	331
##ै	332
##इ	333
##च	334
##उ	335
##ऊ	336
##e	337
##a	338
##d	339
##r	340
##s	341
##ई	342
##8	343
##9	344
##7	345
##4	346
##ॉ	347
##h	348
##t	349
##p	350
##w	351
##n	352
##झ	353
##o	354
##i	355
##ढ	356
##ौ	357
##थ	358
##v	359
##u	360
##ञ	361
##ः	362
##f	363
##c	364
##b	365
##घ	366
##‌	367
##g	368
##y	369
##आ	370
##अ	371
##j	372
##‍	373
##ठ	374
##m	375
##.	376
##ृ	377
##x	378
##l	379
##ँ	380
##z	381
##,	382
##छ	383
##।	384
##ॅ	385
##'	386
##ऽ	387
##ऑ	388
##q	389
##ङ	390
##ా	391
##గ	392
##ం	393
##:	394
##०	395
##প	396
##ে	397
##ক	398
##্	399
##ষ	400
##া	401
##য	402
##়	403
##ধ	404
##ম	405
##_	406
##औ	407
##ळ	408
##­	409
##খ	410
##ন	411
##ऱ	412
##"	413
##ï	414
##ऐ	415
##‎	416
##{	417
##?	418
##)	419
##র	420
##ণ	421
##ऋ	422
##ऩ	423
##ি	424
##চ	425
##😜	426
##😸	427
##😎	428
##🤩	429
##ॠ	430
##న	431
##ీ	432
##@	433
##డ	434
##క	435
##్	436
##ట	437
##ర	438
##ো	439
##ী	440
##१	441
##-	442
##}	443
##^	444
###	445
##*	446
##ল	447
##ব	448
##জ	449
##ু	450
##দ	451
##ॊ	452
##!	453
##८	454
##ত	455
##ঁ	456
##ট	457
##ి	458
##/	459
##ॆ	460
##ే	461
##శ	462
##ు	463
##=	464
##;	465
##ই	466
##२	467
##$	468
##॥	469
##९	470
##🇳	471
##థ	472
##ల	473
##ో	474
##ছ	475
##+	476
##३	477
##🤔	478
##₹	479
##ె	480
##(	481
##స	482
##ూ	483
##ঠ	484
##ড	485
##४	486
##॑	487
##\	488
##%	489
##५	490
##ణ	491
##త	492
##६	493
##স	494
##>	495
##జ	496
##	497
##ొ	498
##చ	499
##ద	500
##॰	501
##ও	502
##ार	503
##ें	504
के	505
##्र	506
##या	507
में	508
है	509
##ान	510
की	511
##ों	512
को	513
##र्	514
से	515
##ने	516
कि	517
ने	518
का	519
##ता	520
कर	521
##ाल	522
पर	523
##िक	524
##ना	525
##्य	526
##िल	527
और	528
##स्	529
##क्	530
प्र	531
##ड़	532
##ां	533
##ाम	534
इस	535
##ही	536
##िया	537
हो	538
##वा	539
##ित	540
##के	541
बा	542
##हा	543
##कर	544
हैं	545
##ला	546
##िय	547
##िए	548
##िस	549
##ुर	550
##ंग	551
##ले	552
भी	553
वि	554
स्	555
##ते	556
##त्र	557
रा	558
##ेश	559
जा	560
##िन	561
##री	562
##ारी	563
##हीं	564
उन	565
सा	566
##ती	567
हु	568
##रा	569
##ुल	570
##्या	571
किया	572
##ति	573
##वार	574
लिए	575
एक	576
##से	577
सं	578
ले	579
##सी	580
##नी	581
##गा	582
गया	583
पह	584
##ंद	585
सम	586
##क्ष	587
##ोग	588
नहीं	589
दे	590
रह	591
था	592
##ाय	593
नि	594
कार	595
अप	596
मु	597
##िला	598
##ली	599
##का	600
##टी	601
##की	602
ही	603
बाद	604
सि	605
##ाने	606
##ियों	607
##त्	608
##ार्	609
##ास	610
##ंड	611
##्ह	612
साथ	613
पुल	614
##भा	615
##िर	616
##पी	617
यह	618
पुलिस	619
गई	620
##मा	621
पू	622
बता	623
कु	624
कहा	625
##ाद	626
##गी	627
करने	628
सु	629
##ढ़	630
##टर	631
उन्ह	632
दो	633
अध	634
सी	635
राज	636
##ंच	637
रहे	638
तो	639
थी	640
##्म	641
दिया	642
##रो	643
उस	644
##्री	645
##रे	646
लोग	647
वाल	648
##ाना	649
##्रे	650
मह	651
अन	652
##पुर	653
##ौर	654
##ाइ	655
तक	656
रहा	657
बताया	658
##ाज	659
##स्ट	660
##ल्	661
दी	662
20	663
##में	664
चु	665
##देश	666
##गे	667
##कार	668
##भी	669
मौ	670
हुए	671
मिल	672
##ाह	673
##ानी	674
##ष्	675
##ाई	676
##िश	677
##वी	678
##दी	679
##गर	680
##्त	681
##ंह	682
बार	683
रही	684
##दा	685
##्ष	686
थे	687
बी	688
##ंत्र	689
##कि	690
##ोज	691
जिस	692
##टे	693
##िव	694
##नों	695
##जी	696
##ोंने	697
##ओं	698
सिंह	699
##बर	700
##हर	701
##शन	702
सर	703
##वि	704
##जा	705
गए	706
उन्होंने	707
वह	708
##ड़ी	709
##र्ट	710
##मी	711
जो	712
##स्थ	713
मो	714
बे	715
हम	716
जाए	717
पहु	718
##जे	719
आरो	720
##ुप	721
##स्त	722
पहुंच	723
##ाप	724
##िंग	725
लेकर	726
##सा	727
लगा	728
पहले	729
दिन	730
मे	731
##ड़ा	732
स्थ	733
इसके	734
##द्र	735
##द्	736
##च्	737
अधिक	738
मै	739
लोगों	740
##ेल	741
भार	742
अपने	743
माम	744
पी	745
कार्य	746
ला	747
##पा	748
हुई	749
##किन	750
##्व	751
लेकिन	752
जब	753
##ंत्री	754
बै	755
##क्र	756
सो	757
परि	758
साल	759
टी	760
##मार	761
दौर	762
##र्म	763
इन	764
##ोक	765
जान	766
##वे	767
होने	768
##ंध	769
जी	770
गां	771
सक	772
वाले	773
क्ष	774
दौरान	775
अब	776
##ांच	777
##ंप	778
##र्ज	779
बि	780
##तर	781
##खा	782
##न्	783
##नाव	784
हुआ	785
साम	786
वर्	787
कै	788
कम	789
पि	790
बना	791
निर्	792
या	793
घर	794
दू	795
##ोट	796
##ीन	797
तर	798
बात	799
पा	800
##ष्ट	801
शिक	802
##धान	803
##ेट	804
##्रेस	805
##ेत्र	806
मां	807
##मान	808
सरकार	809
यु	810
##ूल	811
उप	812
##र्व	813
##कारी	814
शाम	815
शुर	816
रुप	817
करते	818
##ड़े	819
##टना	820
##च्च	821
आय	822
क्षेत्र	823
हर	824
##वं	825
##ेंद्र	826
##डी	827
##िप	828
कुमार	829
##वाल	830
चुनाव	831
आप	832
ये	833
##एम	834
अं	835
रू	836
##ोर	837
पार्	838
महिला	839
काम	840
डॉ	841
##्स	842
सभी	843
कह	844
जन	845
सू	846
##कों	847
##वर	848
##्ल	849
कुछ	850
##क्षा	851
##ून	852
बन	853
202	854
##क्त	855
लिया	856
##ोल	857
##स्प	858
दु	859
कई	860
पास	861
चल	862
##क्ट	863
##वाई	864
बढ़	865
10	866
सब	867
##जार	868
लग	869
मुख	870
##क्टर	871
थाना	872
अनु	873
वे	874
स्ट	875
भारत	876
कॉ	877
##सभा	878
गांव	879
##वारा	880
रो	881
द्	882
हि	883
प्रति	884
##ारा	885
##सर	886
गिर	887
मा	888
टीम	889
ग्र	890
##जन	891
उनके	892
जु	893
##भाग	894
बह	895
##बी	896
मामले	897
##ेंगे	898
कोई	899
भा	900
चौ	901
सह	902
कांग	903
व्य	904
नाम	905
##एस	906
ट्र	907
आज	908
दर्ज	909
विश	910
##ोड़	911
आरोप	912
##चार	913
##िम	914
द्वारा	915
##शी	916
##िका	917
समय	918
कांग्रेस	919
अपनी	920
##्यक्ष	921
##बंध	922
देख	923
##ीड	924
##टा	925
शुरू	926
बच्च	927
##ेज	928
##र्स	929
हाल	930
वहीं	931
उन्हें	932
खिला	933
घटना	934
##्यू	935
यहां	936
दोनों	937
विक	938
निक	939
जिल	940
##द्ध	941
बु	942
इं	943
अभ	944
गो	945
##णा	946
स्क	947
जै	948
एस	949
चाह	950
##ोर्ट	951
##िट	952
जिला	953
##ृत	954
बजे	955
##ताल	956
##यर	957
रुपए	958
अम	959
ना	960
अव	961
फिल	962
जांच	963
##ंबर	964
##ूर	965
पै	966
विभाग	967
आई	968
किसी	969
रूप	970
अल	971
राम	972
तरह	973
मुख्य	974
देश	975
रख	976
आरोपी	977
##मंत्री	978
बीच	979
युव	980
##फ्त	981
##्यों	982
उसके	983
##ायत	984
जानकारी	985
अग	986
##ंट	987
##00	988
##ंक	989
##ेर	990
##क्स	991
प्रदेश	992
गु	993
##दार	994
दूस	995
दिल	996
दि	997
लोक	998
लाख	999
डि	1000
शामिल	1001
##जू	1002
स्थित	1003
##्न	1004
##त्या	1005
##लय	1006
##चना	1007
एवं	1008
पु	1009
बद	1010
भाज	1011
छा	1012
##ाला	1013
नगर	1014
फिर	1015
##को	1016
बैठ	1017
अस्प	1018
##ाली	1019
भाजपा	1020
करी	1021
होगा	1022
##चा	1023
मैं	1024
अस्पताल	1025
##एं	1026
जाएगा	1027
##जर	1028
खु	1029
##वन	1030
##आई	1031
किए	1032
जाने	1033
##र्ड	1034
तै	1035
##म्म	1036
उसे	1037
##वासी	1038
इला	1039
##सान	1040
##ंस	1041
खिलाफ	1042
##दान	1043
जारी	1044
##क्रम	1045
कारण	1046
##ेशन	1047
उत्	1048
##्यादा	1049
जिले	1050
पार्टी	1051
पूर्व	1052
##ेंट	1053
सुर	1054
अन्य	1055
रात	1056
##ांस	1057
रे	1058
नी	1059
मान	1060
##ियां	1061
##प्	1062
शु	1063
##धार	1064
##बा	1065
याद	1066
##ुरु	1067
##वान	1068
करीब	1069
##ज्	1070
वो	1071
##फी	1072
##हत	1073
मंद	1074
उनकी	1075
आयोज	1076
सद	1077
नेता	1078
##क्ति	1079
ज्यादा	1080
परिवार	1081
सीट	1082
बो	1083
##र्थ	1084
गिरफ्त	1085
अध्यक्ष	1086
डी	1087
मार	1088
फै	1089
वाली	1090
##सार	1091
फिल्म	1092
मौके	1093
मंत्री	1094
आए	1095
ओर	1096
##तीय	1097
राज्य	1098
तीन	1099
वर्ष	1100
##हार	1101
##त्रा	1102
प्रश	1103
करना	1104
मंदिर	1105
कार्र	1106
जाता	1107
##पाल	1108
##्यालय	1109
सुब	1110
सामने	1111
कार्रवाई	1112
मौत	1113
लि	1114
ली	1115
##पर	1116
जग	1117
##ामी	1118
##ुत	1119
##गढ़	1120
शहर	1121
##लो	1122
हजार	1123
##धी	1124
सुबह	1125
कार्यक्रम	1126
स्कूल	1127
जह	1128
विध	1129
##ाया	1130
##्रीय	1131
मांग	1132
आद	1133
श्री	1134
सबसे	1135
हा	1136
देने	1137
क्या	1138
##्ली	1139
##जय	1140
12	1141
मार्	1142
##वास	1143
शिक्ष	1144
पिछ	1145
##्ला	1146
##ारे	1147
करोड़	1148
निवासी	1149
महा	1150
पो	1151
##गत	1152
यादव	1153
अलग	1154
इसी	1155
आर	1156
##नि	1157
पानी	1158
##ूम	1159
##ब्	1160
##र्मा	1161
सूचना	1162
यू	1163
##कान	1164
लड़	1165
जहां	1166
युवक	1167
बारिश	1168
##ायल	1169
ऐसे	1170
##भाव	1171
##ियो	1172
##जूद	1173
##ेत	1174
दिए	1175
##िता	1176
##ध्य	1177
कंप	1178
शिकायत	1179
मन	1180
##्ड	1181
क्र	1182
2024	1183
आने	1184
##ादी	1185
19	1186
##ूर्	1187
जर	1188
पहुंचे	1189
होगी	1190
जिसमें	1191
##ारियों	1192
##ोन	1193
इसमें	1194
आया	1195
##ंगल	1196
15	1197
##स्था	1198
गिरफ्तार	1199
##तार	1200
##ंब	1201
##दे	1202
सड़	1203
अधिकारी	1204
##ैन	1205
तैय	1206
इससे	1207
##ंत	1208
मिली	1209
##र्शन	1210
##ासन	1211
##ंदर	1212
मोदी	1213
जय	1214
##ोष	1215
भारतीय	1216
11	1217
पढ़	1218
##रण	1219
##ूं	1220
##श्	1221
##धिक	1222
दिल्ली	1223
मत	1224
अनुसार	1225
रहने	1226
पद	1227
##ायर	1228
कोर्ट	1229
शर्मा	1230
##ोजना	1231
##वाद	1232
शिव	1233
##धा	1234
आग	1235
राष्ट	1236
सकता	1237
पत्	1238
##ंज	1239
##ायक	1240
चाहिए	1241
बर	1242
प्रा	1243
रिप	1244
लोकसभा	1245
##ियर	1246
जिन	1247
##च्छ	1248
बाहर	1249
##मेंट	1250
ती	1251
कप	1252
##त्व	1253
वहां	1254
##ेंस	1255
चला	1256
##ये	1257
शव	1258
गुरु	1259
##राब	1260
संबंध	1261
##्रा	1262
##वल	1263
30	1264
##कर्	1265
स्व	1266
पिछले	1267
मामला	1268
किसान	1269
पूरी	1270
कर्म	1271
पिता	1272
निय	1273
मिले	1274
उसकी	1275
##ंगे	1276
क्यों	1277
इंड	1278
##र्फ	1279
##इक	1280
##ेम	1281
##सल	1282
मी	1283
विधान	1284
चे	1285
##ज्ञ	1286
##ाइन	1287
प्रद	1288
परी	1289
चार	1290
बंद	1291
शे	1292
पं	1293
##आर	1294
201	1295
मोह	1296
##प्र	1297
प्रधान	1298
ट्रे	1299
मिला	1300
एन	1301
##सम	1302
आगे	1303
##ूट	1304
##स्थान	1305
दर	1306
उठ	1307
ऑफ	1308
काफी	1309
बड़ी	1310
रिपोर्ट	1311
प्रत	1312
सहित	1313
केंद्र	1314
करें	1315
एम	1316
बस	1317
रवि	1318
##माण	1319
##िज	1320
स्वा	1321
विद	1322
समाज	1323
##ख्या	1324
जाएगी	1325
##चान	1326
जबकि	1327
सफ	1328
मृत	1329
घायल	1330
##ांड	1331
##..	1332
बहुत	1333
##था	1334
जीत	1335
पड़	1336
अला	1337
मही	1338
सड़क	1339
##योग	1340
##ोह	1341
हालां	1342
रोड	1343
अभी	1344
हालांकि	1345
जगह	1346
वीड	1347
विकास	1348
##ताब	1349
संग	1350
##ुक्त	1351
बां	1352
सदस	1353
##त्म	1354
दा	1355
मुख्यमंत्री	1356
##म्मी	1357
हत्या	1358
निर्देश	1359
होता	1360
##ोध	1361
##लाई	1362
अपना	1363
छात्र	1364
गा	1365
##ट्	1366
बैठक	1367
##ुक	1368
##लों	1369
विधानसभा	1370
मौजूद	1371
जिसके	1372
तहत	1373
व्यव	1374
दूसरे	1375
बच्चों	1376
वीडियो	1377
मीड	1378
25	1379
टे	1380
##ेंद	1381
##जह	1382
योजना	1383
उसने	1384
बारे	1385
स्प	1386
##ुआ	1387
सुन	1388
##गम	1389
बाइक	1390
##क्षण	1391
सकते	1392
अगर	1393
उम्मी	1394
##ंटे	1395
##बू	1396
उम्मीद	1397
अलावा	1398
पत्नी	1399
विधायक	1400
उनका	1401
कुल	1402
भग	1403
##ग्री	1404
मीडिया	1405
##ची	1406
मज	1407
##मु	1408
तब	1409
वै	1410
##ाइल	1411
बॉ	1412
वाह	1413
पता	1414
पूछ	1415
##ेष	1416
ब्र	1417
कंपनी	1418
कहना	1419
पुर	1420
सोम	1421
वजह	1422
##वरी	1423
##ोरी	1424
##तम	1425
भाग	1426
प्रभ	1427
इसे	1428
परीक्षा	1429
##ंगा	1430
पोस्ट	1431
संख्या	1432
आरोपियों	1433
शादी	1434
##लेज	1435
मंगल	1436
आम	1437
आस	1438
सुरक्षा	1439
प्रशासन	1440
##मिक	1441
##ष्ठ	1442
पंच	1443
जल	1444
पे	1445
##ेंड	1446
दिनों	1447
##ताओं	1448
फर	1449
हाथ	1450
कृ	1451
फी	1452
दिख	1453
रेल	1454
##फ्	1455
##खंड	1456
##राज	1457
सांस	1458
अधिकारियों	1459
ग्रामी	1460
पक	1461
जैसे	1462
ग्रामीण	1463
वोट	1464
##ार्थ	1465
आधार	1466
##झे	1467
हरिया	1468
तेज	1469
पत्र	1470
##शल	1471
लगे	1472
करता	1473
व्यक्ति	1474
मुताब	1475
तरफ	1476
##काल	1477
मुताबिक	1478
प्रो	1479
##णी	1480
कल	1481
पूरा	1482
##स्ता	1483
करेंगे	1484
होती	1485
##जेपी	1486
भाई	1487
बिज	1488
##वेद	1489
दुकान	1490
सच	1491
##ाक	1492
महीने	1493
भर	1494
##चाल	1495
##क्शन	1496
एक्स	1497
जे	1498
##चित	1499
##ात	1500
हों	1501
आयोजन	1502
गं	1503
पहुंची	1504
बनाने	1505
ऐसा	1506
थाने	1507
घंटे	1508
योग	1509
बीजेपी	1510
हरियाणा	1511
##an	1512
कान	1513
##तन	1514
मंड	1515
अर	1516
दिव	1517
नंबर	1518
विशेष	1519
न्या	1520
##र्य	1521
राय	1522
बाल	1523
सै	1524
नजर	1525
सम्म	1526
पीड़	1527
खेल	1528
साह	1529
सोमवार	1530
लगातार	1531
कॉलेज	1532
श्र	1533
डे	1534
##र्चा	1535
रन	1536
##वेश	1537
जिससे	1538
पूरे	1539
मद	1540
निर्माण	1541
डॉक्टर	1542
माल	1543
##बाद	1544
##दीप	1545
##िति	1546
इंद	1547
##लिए	1548
इसकी	1549
सीएम	1550
सांसद	1551
जून	1552
राह	1553
शनि	1554
हाई	1555
##तिक	1556
##ार्ड	1557
उद	1558
##शा	1559
##र्क	1560
##िकल	1561
सकती	1562
##िटी	1563
##जनों	1564
तैयार	1565
लाल	1566
पहली	1567
लगाया	1568
विश्व	1569
घोष	1570
##रीज	1571
हाद	1572
मिलने	1573
निगम	1574
##म्	1575
गर्	1576
14	1577
##भीर	1578
बिहार	1579
प्रदर्शन	1580
केस	1581
चंद	1582
कले	1583
वाला	1584
पांच	1585
##स्ते	1586
सौ	1587
सेवा	1588
##र्ती	1589
मुझे	1590
##स्क	1591
इसका	1592
बड़े	1593
मंगलवार	1594
बुध	1595
##ीय	1596
24	1597
##ज़	1598
हूं	1599
भगवान	1600
गंभीर	1601
जमी	1602
प्रधानमंत्री	1603
कराया	1604
ड्र	1605
##पति	1606
...	1607
शुक्र	1608
आदि	1609
13	1610
##र्च	1611
पंजा	1612
डिग्री	1613
देते	1614
नर	1615
इसलिए	1616
##ियन	1617
##ार्ट	1618
गांधी	1619
अफ	1620
मैच	1621
##वीर	1622
50	1623
समझ	1624
##बल	1625
##िस्ट	1626
##ियान	1627
व्यवस्था	1628
विरो	1629
##शत	1630
शनिवार	1631
प्रया	1632
हिस्	1633
रविवार	1634
नए	1635
व्या	1636
बड़ा	1637
भे	1638
बनाया	1639
खुद	1640
18	1641
जवा	1642
##ग्	1643
##यान	1644
करे	1645
नई	1646
जल्	1647
सवाल	1648
##निया	1649
##स्तान	1650
खान	1651
राजनी	1652
इलाज	1653
बज	1654
वाप	1655
##ल्ड	1656
##ष्ण	1657
शुक्रवार	1658
बुधवार	1659
प्रस	1660
माह	1661
जाती	1662
ताप	1663
##करण	1664
शिक्षा	1665
लगी	1666
संचाल	1667
##नाथ	1668
ट्रेन	1669
##षण	1670
##स्या	1671
##शि	1672
##बाज	1673
प्रभारी	1674
जेल	1675
एक्ट	1676
##इन	1677
##ीर	1678
रुपये	1679
मेड	1680
नौ	1681
पूजा	1682
##्ले	1683
पति	1684
##ैल	1685
अच्छ	1686
हे	1687
##ाट	1688
आयोजित	1689
16	1690
राजस्थान	1691
परेश	1692
##मुख	1693
पहचान	1694
पक्ष	1695
##काश	1696
##ांत	1697
देव	1698
तापमान	1699
बच	1700
समेत	1701
आदेश	1702
##ुम	1703
बिजली	1704
उसका	1705
सामान	1706
हिंद	1707
पंजाब	1708
परिजनों	1709
सदस्य	1710
गुरुवार	1711
भर्ती	1712
##बे	1713
संप	1714
अति	1715
स्थिति	1716
सित	1717
##ैंड	1718
##ाप्त	1719
लेने	1720
मौसम	1721
बेटे	1722
17	1723
खरी	1724
होते	1725
##िश्	1726
दें	1727
विभ	1728
दल	1729
शुरुआ	1730
स्थान	1731
##ॉल	1732
मध्य	1733
##बंधन	1734
राहुल	1735
देर	1736
इत	1737
बेह	1738
जमीन	1739
वन	1740
##िन्न	1741
दोप	1742
सरकारी	1743
नार	1744
बच्चे	1745
गै	1746
तस्	1747
होकर	1748
छो	1749
बनाए	1750
जुलाई	1751
फोन	1752
करवा	1753
बल	1754
जनता	1755
छोड़	1756
यात्रा	1757
बल्	1758
##र्श	1759
बेटी	1760
गठ	1761
रिक	1762
##िरा	1763
चाल	1764
चलते	1765
##न्द्र	1766
##डा	1767
रखा	1768
बाजार	1769
राष्ट्रीय	1770
चोरी	1771
##त्री	1772
रोक	1773
खे	1774
##ग्र	1775
क्योंकि	1776
थीं	1777
प्रतिशत	1778
##्वर	1779
भेज	1780
चुके	1781
हमला	1782
22	1783
उम	1784
विभिन्न	1785
दूसरी	1786
पीछ	1787
दोपहर	1788
सोशल	1789
अगस्त	1790
करके	1791
मि	1792
चर्चा	1793
##पास	1794
##स्ती	1795
मोब	1796
##जीत	1797
पार	1798
##दारी	1799
अभियान	1800
यून	1801
##स्थ्य	1802
तला	1803
अह	1804
वित	1805
##भग	1806
युवा	1807
अमेर	1808
##पूर्	1809
मदद	1810
##फर	1811
महिलाओं	1812
विरोध	1813
भो	1814
##ेक	1815
बने	1816
लॉ	1817
तथा	1818
समस्या	1819
##ूप	1820
##षद	1821
बयान	1822
स्वास्थ्य	1823
##हरा	1824
बैंक	1825
##्रम	1826
##ध्यक्ष	1827
सिर्फ	1828
अवसर	1829
रेलवे	1830
##चे	1831
जाते	1832
होंगे	1833
ट्रै	1834
पेश	1835
##ुन	1836
##श्य	1837
समिति	1838
##वाह	1839
पाकि	1840
अश	1841
लाइ	1842
फैस	1843
जयपुर	1844
चुकी	1845
प्रयास	1846
पाल	1847
अपरा	1848
सचिव	1849
##कु	1850
मृतक	1851
##गंज	1852
##ानीय	1853
मोबाइल	1854
जवाब	1855
##करी	1856
पूर्	1857
विवाद	1858
##वेदन	1859
स्थानीय	1860
सम्मान	1861
ची	1862
##क्षक	1863
वाहन	1864
दुर्	1865
सके	1866
मेरे	1867
##ल्प	1868
मिश	1869
##िंद	1870
मना	1871
जल्द	1872
प्रमुख	1873
ग्राम	1874
उम्मीदवार	1875
गल	1876
##न्न	1877
कौ	1878
##मत	1879
##ियम	1880
21	1881
##ोद	1882
दूर	1883
संत	1884
देखा	1885
##धि	1886
लगभग	1887
200	1888
दिस	1889
करती	1890
इंटर	1891
##ar	1892
##टल	1893
दीप	1894
शाह	1895
मिन	1896
इंडिया	1897
देवी	1898
जैन	1899
कार्यकर्	1900
अवै	1901
इलाके	1902
##ूबर	1903
बिल	1904
भूम	1905
अवैध	1906
##्यान	1907
माध्य	1908
साइ	1909
किसानों	1910
पंचायत	1911
##धिकारी	1912
गाड़ी	1913
सवार	1914
वापस	1915
अभि	1916
महत्व	1917
ता	1918
उत्तर	1919
##पूर्ण	1920
करा	1921
एड	1922
स्तर	1923
##केश	1924
##ठी	1925
मई	1926
##ंभ	1927
हॉ	1928
##पीट	1929
संघ	1930
राशि	1931
शराब	1932
पीएम	1933
पढ़ें	1934
##चर	1935
बराम	1936
कोश	1937
##शनल	1938
##रि	1939
अंदर	1940
##जाम	1941
शेयर	1942
लौ	1943
पीड़ित	1944
छात्रा	1945
जीवन	1946
सितंबर	1947
संगठ	1948
विजय	1949
राष्ट्र	1950
मंत्र	1951
धर्म	1952
##लाल	1953
##हाय	1954
पुत्र	1955
कोशिश	1956
##्‍	1957
इंदौर	1958
बरामद	1959
##ूड	1960
##पुरा	1961
कहते	1962
इम	1963
सें	1964
हमारे	1965
##ालय	1966
शुरुआत	1967
प्रभाव	1968
##यू	1969
मारपीट	1970
##पक्ष	1971
समर्थ	1972
अक्ट	1973
अक्टूबर	1974
##रिया	1975
दौ	1976
जरूर	1977
तीस	1978
कभी	1979
##हन	1980
##एल	1981
बढ़ा	1982
कलेक्टर	1983
रि	1984
सां	1985
वालों	1986
##सू	1987
##वीं	1988
##प्री	1989
##स्टर	1990
नोट	1991
पीछे	1992
निकल	1993
##क्कर	1994
खा	1995
##माश	1996
दिसंबर	1997
कट	1998
##फ़	1999
एज	2000
##उंड	2001
##ल्स	2002
##दि	2003
मैंने	2004
मार्ग	2005
##श्च	2006
टिक	2007
40	2008
पूछता	2009
वार	2010
##ूरी	2011
हादसे	2012
सर्	2013
##र्जी	2014
##ॉप	2015
##रिक	2016
##िली	2017
देकर	2018
ब्ल	2019
संभाव	2020
एयर	2021
##टक	2022
पूछताछ	2023
जाना	2024
लक्ष	2025
शा	2026
लिखा	2027
कार्यालय	2028
नवं	2029
##धरी	2030
केंद	2031
शुभ	2032
मेडिकल	2033
बदमाश	2034
नवंबर	2035
व्याप	2036
एसपी	2037
आसपास	2038
##यन	2039
##गू	2040
सर्व	2041
##्क	2042
रोज	2043
सहाय	2044
धन	2045
गण	2046
केंद्रीय	2047
##थि	2048
##र्ष	2049
चुका	2050
##ोस	2051
स्टे	2052
अंतर	2053
##धर	2054
माता	2055
##ंकर	2056
धम	2057
रज	2058
नियम	2059
गुप	2060
##एच	2061
रै	2062
प्राप्त	2063
प्ल	2064
केवल	2065
मतदान	2066
वा	2067
शो	2068
लख	2069
तौर	2070
##तृ	2071
##किंग	2072
आपको	2073
##ॉर्ड	2074
चौधरी	2075
बिना	2076
##खिल	2077
पड़ा	2078
स्टेशन	2079
अप्र	2080
पाकिस्तान	2081
##ंका	2082
##स्थित	2083
##ुर्	2084
जाएंगे	2085
देखने	2086
संय	2087
भोपाल	2088
अस	2089
##टन	2090
23	2091
##साइ	2092
##चारी	2093
##वत	2094
अंत	2095
मिनट	2096
##लर	2097
##ुओं	2098
दिखा	2099
मरीज	2100
किलो	2101
आवेदन	2102
एक्सप	2103
##्ता	2104
जिम	2105
##र्न	2106
नेताओं	2107
प्रत्या	2108
##विधा	2109
उपल	2110
निश	2111
##विद	2112
ध्यान	2113
##िसर	2114
##टेल	2115
हमें	2116
##भर	2117
भारी	2118
खास	2119
##लाइन	2120
##त्स	2121
नदी	2122
##at	2123
मार्च	2124
तह	2125
माध्यम	2126
रु	2127
विदेश	2128
ज्	2129
होना	2130
##मन	2131
लिख	2132
निरी	2133
##ांक	2134
लगाए	2135
लाभ	2136
##मे	2137
##केट	2138
##फा	2139
टै	2140
##िटल	2141
बदल	2142
ज़	2143
##जरा	2144
लाइन	2145
ते	2146
2023	2147
26	2148
##रज	2149
देखते	2150
##्यो	2151
##त्ती	2152
कैसे	2153
##माल	2154
सत	2155
खबर	2156
पश्च	2157
##ौल	2158
तोड़	2159
##हाल	2160
टिकट	2161
प्ले	2162
मुद्	2163
##ुद	2164
डाल	2165
##गल	2166
जनवरी	2167
निकाल	2168
##र्या	2169
गोली	2170
कर्मचारी	2171
##िशा	2172
अपराध	2173
बनी	2174
##पोर्ट	2175
बोर्ड	2176
##मार्ट	2177
कराने	2178
उठा	2179
##्मे	2180
सप्	2181
##त्ता	2182
विकेट	2183
जिसे	2184
आश	2185
##षा	2186
सुविधा	2187
फरार	2188
लो	2189
अग्र	2190
संबंधित	2191
ग्रामीणों	2192
##ीक	2193
बदला	2194
##ियार	2195
संभ	2196
उद्	2197
पदा	2198
##फिक	2199
##िरी	2200
यूपी	2201
अहम	2202
वार्ड	2203
##राम	2204
##एफ	2205
सीटों	2206
छात्रों	2207
##विद्यालय	2208
नव	2209
##र्प	2210
##क्रिया	2211
##सि	2212
##ंडी	2213
प्रसाद	2214
प्रक्रिया	2215
अगले	2216
संभावना	2217
यानी	2218
विद्य	2219
##सत	2220
##ारोह	2221
##फ्ट	2222
उपलब्	2223
##तरी	2224
शि	2225
सफल	2226
28	2227
समारोह	2228
संजय	2229
आयोग	2230
श्रद्ध	2231
तय	2232
##ॉक	2233
##िग	2234
##्रोल	2235
##चारियों	2236
##रों	2237
##देव	2238
पहुंचा	2239
##क्षित	2240
परेशान	2241
भेजा	2242
जिलों	2243
##ूक	2244
##ंबई	2245
##तृत्व	2246
आव	2247
##मारी	2248
सहयोग	2249
##त्तीस	2250
##ड़ों	2251
फोट	2252
चि	2253
छत्तीस	2254
##जल	2255
सुनी	2256
रण	2257
##िप्	2258
फीस	2259
पकड़	2260
##ड़ियों	2261
कर्मचारियों	2262
मानस	2263
दावा	2264
ऐसी	2265
##ेंसी	2266
छत्तीसगढ़	2267
वायर	2268
नेतृत्व	2269
मुंबई	2270
ज्ञ	2271
##ृति	2272
बांग	2273
अद	2274
रखने	2275
चले	2276
##ृह	2277
क्ल	2278
100	2279
न्याय	2280
27	2281
##काब	2282
जमा	2283
##ुरा	2284
बोले	2285
नरेंद्र	2286
##ोब	2287
##ूत	2288
आख	2289
चिक	2290
अप्रैल	2291
नीचे	2292
ताकि	2293
),	2294
गर्मी	2295
रंग	2296
नागर	2297
35	2298
तत्	2299
उर्फ	2300
##नात	2301
तलाश	2302
##ज्ञान	2303
दुनिया	2304
तैयारी	2305
पटना	2306
कब्	2307
कीमत	2308
हास	2309
##फे	2310
हिस्सा	2311
मंडल	2312
लगाने	2313
##ियल	2314
##धे	2315
माना	2316
गौ	2317
डाय	2318
टक्कर	2319
बल्कि	2320
##ील	2321
##स्ल	2322
##ीत	2323
इनमें	2324
##एन	2325
##असल	2326
प्रत्याशी	2327
##ूब	2328
##ापन	2329
दरअसल	2330
##्मी	2331
एल	2332
जम	2333
##धन	2334
जाकर	2335
गुप्ता	2336
कर्	2337
##यों	2338
##टो	2339
चंद्र	2340
बंग	2341
##नियर	2342
##चार्य	2343
ओवर	2344
राजनीतिक	2345
मॉ	2346
पेट	2347
##on	2348
फैसला	2349
संगठन	2350
##ंदा	2351
भाव	2352
##लोनी	2353
जिम्मे	2354
टेस्ट	2355
मकान	2356
##er	2357
क्रिक	2358
हासिल	2359
लखन	2360
बांग्ला	2361
##ाइम	2362
बचा	2363
पूर्ण	2364
##ॉर्म	2365
##ष्य	2366
किस	2367
##ड्	2368
अमेरिका	2369
गति	2370
वक्त	2371
सिर	2372
##एसपी	2373
तरी	2374
सदर	2375
फायर	2376
जुड़े	2377
चरण	2378
वृ	2379
रहते	2380
भवन	2381
##चन	2382
गाय	2383
##ित्र	2384
##स्तेमाल	2385
31	2386
इस्तेमाल	2387
##स्व	2388
हथ	2389
न्यू	2390
जन्म	2391
न्याया	2392
हमने	2393
स्थाप	2394
आन	2395
सीमा	2396
प्रे	2397
साफ	2398
वर्ग	2399
कहीं	2400
झार	2401
कला	2402
रहेगा	2403
फ़	2404
प्रकार	2405
##ियोग	2406
दोस्त	2407
सजा	2408
पल	2409
##ांति	2410
##तीश	2411
बांग्लादेश	2412
##लू	2413
##वाने	2414
##िन्	2415
ख़	2416
हालत	2417
चिकित	2418
##षि	2419
मजबू	2420
##िक्ष	2421
घु	2422
भीड़	2423
ड्राइ	2424
जता	2425
##बाल	2426
##िनि	2427
##त्ति	2428
##शे	2429
##चीत	2430
फु	2431
तीनों	2432
बातचीत	2433
उपलब्ध	2434
ति	2435
नया	2436
##क्ता	2437
पैसे	2438
मश	2439
##डे	2440
मैदान	2441
चालक	2442
हार	2443
पौ	2444
परिसर	2445
त्र	2446
##टने	2447
##वाड़ा	2448
प्राथ	2449
##श्यक	2450
##ायण	2451
अमित	2452
झारखंड	2453
बनने	2454
घोषणा	2455
##किल	2456
प्राथमिक	2457
ऑन	2458
पाए	2459
चौक	2460
##श्म	2461
बाबा	2462
महत्वपूर्ण	2463
##जरी	2464
##झा	2465
##गार	2466
##तरा	2467
फिलहाल	2468
कार्ड	2469
##in	2470
##ार्ज	2471
रोह	2472
खत्म	2473
कराई	2474
रिकॉर्ड	2475
ट्रांस	2476
यही	2477
प्रकाश	2478
##राह	2479
##्हें	2480
कैम	2481
ठीक	2482
मूल	2483
निजी	2484
मेरी	2485
दिवस	2486
विद्यालय	2487
29	2488
खो	2489
चुन	2490
स्टूड	2491
##बाजी	2492
तस्वीर	2493
##नगर	2494
मुक	2495
सिटी	2496
गठबंधन	2497
##वाली	2498
आवश्यक	2499
पड़े	2500
##विंद	2501
वी	2502
##वाही	2503
लखनऊ	2504
##कल	2505
बहन	2506
##ैनिक	2507
##रान	2508
##तिम	2509
चोर	2510
##ड्ड	2511
आपके	2512
वायरल	2513
##वें	2514
नागरिक	2515
##रल	2516
सिल	2517
बाव	2518
पहला	2519
ऊपर	2520
रव	2521
##ेय	2522
फोटो	2523
सेंटर	2524
45	2525
चै	2526
##हान	2527
स्वी	2528
लड़की	2529
अय	2530
##ंडा	2531
राष्ट्रपति	2532
खेत	2533
वरि	2534
##मता	2535
भु	2536
मिलकर	2537
मोहन	2538
घोषित	2539
##ेटी	2540
##्योग	2541
##ंगी	2542
##दम	2543
पांड	2544
एफ	2545
मुकाब	2546
खराब	2547
उपस्थित	2548
री	2549
##हरी	2550
##al	2551
अंतिम	2552
##जों	2553
अंक	2554
आवा	2555
##ांग	2556
उदय	2557
##नेश	2558
सफाई	2559
खुला	2560
सीसी	2561
##्रेट	2562
##मीटर	2563
चीन	2564
##ांव	2565
प्रेम	2566
##ित्य	2567
कमी	2568
हमारी	2569
कमेटी	2570
##इट	2571
तभी	2572
##व्य	2573
##षेक	2574
पाया	2575
उच्च	2576
धारा	2577
##डल	2578
सेना	2579
देना	2580
महारा	2581
##ंख	2582
जरिए	2583
खरीद	2584
##तियों	2585
गौर	2586
##ामा	2587
समा	2588
सुप्री	2589
बू	2590
धमकी	2591
##लिया	2592
चुना	2593
मीटर	2594
गिरा	2595
##ष्ट्र	2596
कित	2597
बोल	2598
लगाई	2599
हिंदू	2600
बुला	2601
सुप्रीम	2602
राज्यों	2603
स्टूडेंट	2604
प्रवेश	2605
वर्षीय	2606
विपक्ष	2607
दर्शन	2608
लु	2609
सभा	2610
##पन	2611
ट्रक	2612
##चानक	2613
शिक्षक	2614
##स्ताव	2615
अचानक	2616
मं	2617
##मेर	2618
##दात	2619
सुनवाई	2620
वरिष्ठ	2621
##ालत	2622
##स्कार	2623
महार	2624
कानून	2625
प्रस्ताव	2626
नम	2627
सही	2628
अग्रवाल	2629
विचार	2630
कॉन्	2631
##हास	2632
मुला	2633
##रीर	2634
सात	2635
समर्थन	2636
जरूरत	2637
आते	2638
वारदात	2639
चाहते	2640
प्रतियोग	2641
दक्ष	2642
प्रस्त	2643
कॉलोनी	2644
उसी	2645
##तंत्र	2646
समी	2647
परिजन	2648
धर	2649
लाप	2650
##द्धि	2651
उत्स	2652
अदालत	2653
##नु	2654
किन	2655
सदस्यों	2656
##ब्ल	2657
क्षेत्रों	2658
लंब	2659
सिक	2660
##ंघ	2661
##िशन	2662
उम्र	2663
फे	2664
क्रिकेट	2665
बावजूद	2666
##चिका	2667
##ौती	2668
लागू	2669
सामान्य	2670
गेट	2671
नुक	2672
चा	2673
##ैया	2674
पाठ	2675
##ंसा	2676
##मति	2677
जित	2678
##िद	2679
##शु	2680
प्रता	2681
संक	2682
##टिंग	2683
उनसे	2684
निवेश	2685
निरीक्षण	2686
फ्र	2687
होटल	2688
एंड	2689
सिव	2690
इंत	2691
##ेंडर	2692
विश्वविद्यालय	2693
कौन	2694
पटेल	2695
##ंता	2696
परिषद	2697
##ूह	2698
तैनात	2699
परिव	2700
याचिका	2701
अशोक	2702
##ाले	2703
ऑफिस	2704
बदलाव	2705
कही	2706
in	2707
##स्कर	2708
##टेड	2709
##ुदाय	2710
##िश्न	2711
एसडी	2712
##उट	2713
हथियार	2714
उल्	2715
लूट	2716
छोटे	2717
##िकी	2718
मनी	2719
##िब	2720
##ंदी	2721
राजनीति	2722
तत्काल	2723
बनाकर	2724
प्रभावित	2725
##खी	2726
कृष्ण	2727
##्याण	2728
##वाइ	2729
वर्मा	2730
निर्ण	2731
गेंद	2732
चढ़	2733
संब	2734
उत्प	2735
##ख्त	2736
##वट	2737
##वर्	2738
नेशनल	2739
बेहतर	2740
##ॉट	2741
##ुरी	2742
##प्शन	2743
कोच	2744
##र्द	2745
विन	2746
दिखाई	2747
गलत	2748
##as	2749
कारोब	2750
चां	2751
##चल	2752
रहता	2753
जरूरी	2754
##िने	2755
##सों	2756
##स्टम	2757
नुकसान	2758
रिज	2759
सुना	2760
कब	2761
रखी	2762
प्रतियोगिता	2763
उससे	2764
कॉल	2765
अजय	2766
असर	2767
##कम	2768
मजद	2769
हॉस्प	2770
गृह	2771
पदाधिकारी	2772
##टीवी	2773
उपयोग	2774
तुर	2775
फाइन	2776
बनाई	2777
करेगी	2778
##तिहास	2779
संस्थान	2780
##ध्या	2781
रास्ते	2782
##सील	2783
अयोध	2784
गुर	2785
राहत	2786
अफसर	2787
रिली	2788
ग्रुप	2789
विद्यार्थ	2790
डिज	2791
महाराष्ट्र	2792
भू	2793
##ूर्ति	2794
युवती	2795
तरीके	2796
हल्	2797
प्रदान	2798
##्वाल	2799
महाराज	2800
लगने	2801
मू	2802
##ठा	2803
जाम	2804
2019	2805
मिश्रा	2806
##es	2807
##or	2808
भूमिका	2809
दक्षि	2810
टा	2811
कार्यकर्ताओं	2812
सीसीटीवी	2813
हॉस्पिटल	2814
अयोध्या	2815
शांति	2816
##र्गत	2817
पंड	2818
राजेश	2819
मजबूत	2820
##िड	2821
##यल	2822
संस	2823
##ज्ज	2824
तुरंत	2825
##राव	2826
इतना	2827
हवा	2828
##खे	2829
ड्राइवर	2830
विष	2831
हमले	2832
स्वागत	2833
रिश्	2834
वाहनों	2835
भक्त	2836
किश	2837
##र्डर	2838
इले	2839
उपा	2840
##ट्र	2841
मर	2842
##ॉर्ट	2843
संस्था	2844
स्थल	2845
जोर	2846
लॉन्	2847
ताला	2848
मंच	2849
कपूर	2850
रिलीज	2851
##उस	2852
##कात	2853
लगाकर	2854
बजट	2855
हाईक	2856
नौकरी	2857
##ुण	2858
##न्ना	2859
अभिषेक	2860
आर्थ	2861
प्रचार	2862
छाप	2863
जागर	2864
पश्चिम	2865
बीते	2866
रायपुर	2867
जब्त	2868
फरवरी	2869
बंगाल	2870
लगता	2871
लौट	2872
कल्याण	2873
कृषि	2874
तेजी	2875
##सिंह	2876
सुख	2877
नाबाल	2878
जवान	2879
कोल	2880
फ्ल	2881
ठाक	2882
कोत	2883
लेते	2884
बेच	2885
संयुक्त	2886
##ेक्ट	2887
सीटें	2888
आत्म	2889
मिलेगा	2890
आनंद	2891
चोट	2892
सिविल	2893
##ंटी	2894
##िनी	2895
सोन	2896
आर्थिक	2897
तम	2898
यदि	2899
हट	2900
##उंट	2901
अली	2902
##घाट	2903
मेरा	2904
2022	2905
तहसील	2906
नोटिस	2907
फीसदी	2908
सल	2909
##्यून	2910
बताते	2911
छह	2912
##ताह	2913
संवि	2914
प्रतिनि	2915
##ंकी	2916
रहेगी	2917
नाबालिग	2918
##ारंभ	2919
ऑनलाइन	2920
##ोप	2921
एक्सप्रेस	2922
दीपक	2923
भवि	2924
मालिक	2925
##भव	2926
##ल्ट	2927
भास्कर	2928
जमकर	2929
##िक्र	2930
बेटा	2931
मुलाकात	2932
डा	2933
शी	2934
नाराज	2935
करेगा	2936
रोहित	2937
श्रद्धाल	2938
##म्मद	2939
कदम	2940
##कुमार	2941
गैंग	2942
निर्णय	2943
भविष्य	2944
अर्	2945
ठे	2946
अज	2947
##रासत	2948
प्रशिक्ष	2949
आत	2950
सामना	2951
मनोज	2952
ne	2953
दम	2954
पट	2955
##र्जा	2956
गिरफ्तारी	2957
पर्य	2958
##ha	2959
अतिरिक	2960
सागर	2961
पैर	2962
फर्जी	2963
##हरे	2964
रहती	2965
60	2966
निर्वा	2967
##डीए	2968
ठाकुर	2969
दूसरा	2970
अंतर्गत	2971
##त्रियों	2972
##ेश्वर	2973
##कीय	2974
संबोध	2975
खुल	2976
##कर्म	2977
तारी	2978
तेल	2979
##ादा	2980
##ti	2981
##िवर्स	2982
जिसकी	2983
अतिरिक्त	2984
सहायक	2985
खर्च	2986
##त्सव	2987
उदयपुर	2988
हाईकोर्ट	2989
सीरीज	2990
कार्यकर्ता	2991
हनु	2992
अज्ञ	2993
प्राइ	2994
व्यक्त	2995
खड़े	2996
करवाया	2997
बदमाशों	2998
32	2999
##दों	3000
##स्‍	3001
अपील	3002
हाउस	3003
##ांकन	3004
पॉ	3005
पर्व	3006
##ांसी	3007
##्तान	3008
##ोलन	3009
पीड़िता	3010
अज्ञात	3011
बांध	3012
संचालन	3013
फा	3014
##थम	3015
##्याम	3016
##बीर	3017
इलाकों	3018
सत्र	3019
हिस	3020
कंपन	3021
मुकद	3022
आंद	3023
दबा	3024
धो	3025
मल	3026
बैठे	3027
साहू	3028
सिस्टम	3029
स्पेश	3030
सुनील	3031
कां	3032
मोहम्मद	3033
अंजाम	3034
पार्षद	3035
देशों	3036
मंत्रालय	3037
##तल	3038
##तमान	3039
अनिल	3040
मिलते	3041
देंगे	3042
फाय	3043
प्रोज	3044
मतदा	3045
जाल	3046
मुस्ल	3047
अच्छी	3048
##ेंज	3049
मुश्	3050
बच्ची	3051
##त्मक	3052
संर	3053
जैसी	3054
सुपर	3055
##विध	3056
मामलों	3057
कोतवाली	3058
दब	3059
##वारी	3060
##इल	3061
##ेशा	3062
किलोमीटर	3063
पेट्रोल	3064
मुस्लिम	3065
पर्या	3066
राव	3067
जिंद	3068
सुधार	3069
प्रि	3070
##ोत्सव	3071
गुजरा	3072
आवास	3073
##पथ	3074
##ुड	3075
##ाजिक	3076
रक्षा	3077
##चंद	3078
सोने	3079
हनुमान	3080
##ृष्ट	3081
नीतीश	3082
##वादी	3083
##ैक	3084
युवाओं	3085
आशी	3086
बिक	3087
##्राम	3088
तुल	3089
फसल	3090
परेशानी	3091
कड़ी	3092
हटा	3093
उत	3094
झा	3095
निदेश	3096
प्रताप	3097
500	3098
केजरी	3099
##स्त्र	3100
दश	3101
भोज	3102
##िक्स	3103
डायरे	3104
केजरीवाल	3105
छु	3106
##स्ट्री	3107
स्पेशल	3108
प्रोजेक्ट	3109
घाट	3110
##प्रदेश	3111
विस्त	3112
##वरण	3113
आंदोलन	3114
जाय	3115
देखकर	3116
##दारों	3117
गंगा	3118
##वेट	3119
एक्ट्रेस	3120
रजिस्ट	3121
उत्पाद	3122
##फ्र	3123
अधिकार	3124
अच्छा	3125
कन	3126
मौका	3127
अलर्ट	3128
अंग	3129
धी	3130
##लपुर	3131
##ण्ड	3132
##्होंने	3133
##िश्चित	3134
##पू	3135
##ॉन	3136
वर्तमान	3137
घरों	3138
##खर	3139
##टेज	3140
पकड़ा	3141
मुश्किल	3142
##धानी	3143
मगर	3144
##तों	3145
अधी	3146
यूनिवर्स	3147
भूमि	3148
डर	3149
अखिल	3150
चली	3151
श्रे	3152
##en	3153
##िवारी	3154
साइबर	3155
बर्	3156
नामांकन	3157
शिविर	3158
मीणा	3159
डॉक्टरों	3160
अतिथि	3161
न्यायालय	3162
तिवारी	3163
दिशा	3164
##लाह	3165
आयुक्त	3166
इधर	3167
##फल	3168
वीर	3169
शासन	3170
##ir	3171
अधिकतम	3172
सालों	3173
बिग	3174
##्यार	3175
मैने	3176
निकाला	3177
सेक्टर	3178
यात्रियों	3179
पढ़ाई	3180
आब	3181
कैंप	3182
स्कूलों	3183
खाद	3184
मुकेश	3185
सुरक्षित	3186
योगी	3187
कश्म	3188
##ोश	3189
मनाया	3190
रैली	3191
चुनावी	3192
आकर	3193
गईं	3194
हमेशा	3195
चलने	3196
कब्जे	3197
कश्मीर	3198
नो	3199
उसमें	3200
##अप	3201
महिलाएं	3202
##्रमण	3203
प्लान	3204
पुरु	3205
सूर्य	3206
आल	3207
##डर	3208
##स्कृत	3209
दक्षिण	3210
संविधान	3211
पुरुष	3212
##ोई	3213
ऑटो	3214
##्यु	3215
देता	3216
जोड़	3217
इंटरने	3218
सर्वे	3219
गणेश	3220
##वां	3221
##ad	3222
##द्द	3223
युवकों	3224
पारी	3225
व्र	3226
हड़	3227
##jp	3228
##ेंशन	3229
विवाह	3230
पूछा	3231
शक्ति	3232
##मर	3233
प्लेट	3234
##मार्टम	3235
जिम्मेदारी	3236
यूनिवर्सिटी	3237
बढ़ाने	3238
##ांट	3239
अका	3240
सिद्ध	3241
सम्मानित	3242
तीसरे	3243
मरीजों	3244
जागरूक	3245
##वानी	3246
##सुर	3247
कुमारी	3248
इलेक्ट	3249
रिट	3250
सप्ताह	3251
गोल	3252
चयन	3253
रखे	3254
पोस्टमार्टम	3255
संबोधित	3256
नक	3257
##लेट	3258
कमरे	3259
एयरपोर्ट	3260
किनारे	3261
##स्तव	3262
सेक	3263
##वेज	3264
वर्ल्ड	3265
युद्ध	3266
पेपर	3267
मंडी	3268
खुलासा	3269
रिश्ते	3270
सामाजिक	3271
साध	3272
##नीय	3273
##ुर्ग	3274
##ष्ट्रीय	3275
##वाला	3276
नाग	3277
पस	3278
शिक्षकों	3279
उद्देश	3280
टू	3281
अभिय	3282
आंक	3283
हादसा	3284
##शाला	3285
##वुड	3286
##शिप	3287
रम	3288
उनको	3289
आठ	3290
खोल	3291
फॉ	3292
स्टूडेंट्स	3293
पाई	3294
##रीब	3295
खाली	3296
सपा	3297
गुजरात	3298
##लेश	3299
रहेंगे	3300
लिस्ट	3301
संपर्क	3302
रॉ	3303
पहुंचकर	3304
लाया	3305
अंब	3306
बेहद	3307
वित्त	3308
##णाम	3309
प्रबंधन	3310
जिसका	3311
##्यूटी	3312
अभ्य	3313
प्री	3314
राजा	3315
##्प	3316
दोष	3317
तकनी	3318
##ियस	3319
कार्यों	3320
70	3321
धार्	3322
फ्ला	3323
##उन	3324
सड़कों	3325
आइ	3326
वही	3327
##ुति	3328
80	3329
उड़	3330
##गण	3331
धार्मिक	3332
##िएशन	3333
बुज	3334
न्यून	3335
आयु	3336
भजन	3337
राजी	3338
##पुरी	3339
##ग्राम	3340
37	3341
##20	3342
समुदाय	3343
##कारों	3344
लंबे	3345
एक्	3346
##पत	3347
नारायण	3348
##ाफ	3349
33	3350
आता	3351
कौर	3352
न्यूनतम	3353
##बन	3354
##पंच	3355
बाकी	3356
##ंडल	3357
##ैर	3358
उपचार	3359
बुजुर्ग	3360
नग	3361
प्रखंड	3362
घुस	3363
##्रीन	3364
चौकी	3365
##सन	3366
##साय	3367
अधीक्षक	3368
##कत	3369
निर	3370
खूब	3371
##50	3372
पहल	3373
रेप	3374
आवाज	3375
खंड	3376
मुख्यालय	3377
प्रतिष्ठ	3378
पैसा	3379
जंगल	3380
##रत	3381
आदमी	3382
समाधान	3383
अभ्यर्थ	3384
मिस	3385
##गांव	3386
निर्धार	3387
पड़ी	3388
##लीवुड	3389
एक्टर	3390
प्रव	3391
पूजन	3392
इनके	3393
राकेश	3394
##जीव	3395
चौहान	3396
पोल	3397
##ाब	3398
##ुल्क	3399
पार्क	3400
कहानी	3401
199	3402
आखिरी	3403
सीजन	3404
मजदूर	3405
आउट	3406
ग्वाल	3407
शरीर	3408
##चु	3409
##le	3410
बताई	3411
मिलेगी	3412
ज्यो	3413
दिला	3414
खुश	3415
##परेशन	3416
व्रत	3417
##ेड़	3418
##di	3419
संदीप	3420
अमर	3421
मारने	3422
एजेंसी	3423
निर्वाचन	3424
##श्व	3425
एसोस	3426
ब्लॉक	3427
सफलता	3428
##ूस	3429
पुष्	3430
bjp	3431
वर्षों	3432
विषय	3433
##ानों	3434
इतनी	3435
इमेज	3436
प्राइवेट	3437
उद्देश्य	3438
##ानि	3439
लं	3440
लाने	3441
##सेना	3442
पहुंचने	3443
##मानत	3444
चेक	3445
थो	3446
ससुर	3447
##वाया	3448
रवाना	3449
उद्योग	3450
एग्	3451
अमृत	3452
स्पष्ट	3453
सुनिश्चित	3454
डेट	3455
फूल	3456
सेल्स	3457
रिस	3458
सत्ता	3459
हल	3460
काउ	3461
साब	3462
कमिश्न	3463
##वती	3464
##ढ़ी	3465
शुक्	3466
मानसून	3467
इंतजार	3468
परिणाम	3469
##फ्तार	3470
##ग्ध	3471
##र्पित	3472
वकी	3473
काल	3474
इंजी	3475
मार्केट	3476
सौंप	3477
फो	3478
##्रेन	3479
कैप्शन	3480
कहां	3481
स्टाफ	3482
खिलाड़ी	3483
आदित्य	3484
फाइनल	3485
ऑपरेशन	3486
सप	3487
##ेड	3488
##ारण	3489
##त्रि	3490
तुम	3491
प्रथम	3492
##वासियों	3493
भुगत	3494
##राय	3495
##गीय	3496
##रेन	3497
अमेरिकी	3498
उतर	3499
##ाजी	3500
फीट	3501
छोड़कर	3502
तिथि	3503
##ूषण	3504
##रु	3505
स्थापित	3506
##लिंग	3507
परिय	3508
मुह	3509
लक्ष्य	3510
शपथ	3511
राजधानी	3512
टाइ	3513
डिप्	3514
संतोष	3515
छात्राओं	3516
इतिहास	3517
##िये	3518
लॉन्च	3519
कमा	3520
##सित	3521
मिलता	3522
##क्सर	3523
प्रेर	3524
क्ला	3525
जम्म	3526
सूची	3527
रोकने	3528
ट्रैफिक	3529
विद्यार्थियों	3530
new	3531
परियोजना	3532
स्मार्ट	3533
सूत्र	3534
##कृत	3535
पार्ट	3536
##िमांड	3537
##िट्	3538
दबाव	3539
फायदा	3540
डिप्टी	3541
दस्ता	3542
##मैन	3543
किमी	3544
अरविंद	3545
माहौल	3546
जाति	3547
##ट्टी	3548
शंकर	3549
मेह	3550
प्रस्तुत	3551
निदेशक	3552
शै	3553
##यात	3554
सोनी	3555
##बीआई	3556
सहायता	3557
##ूनी	3558
##शील	3559
बुलाया	3560
इलेक्ट्र	3561
रफ्तार	3562
सौं	3563
उक्त	3564
शान	3565
बंध	3566
##ri	3567
##र्जन	3568
चुनावों	3569
डीएम	3570
स्थानों	3571
प्रशिक्षण	3572
कक्षा	3573
36	3574
साथी	3575
##वीन	3576
जोन	3577
हिरासत	3578
जुड़ी	3579
ज्योति	3580
क़	3581
पेड़	3582
मशीन	3583
##त्त	3584
##ट्ट	3585
34	3586
किर	3587
गतिविध	3588
चिकित्	3589
ग्वालियर	3590
ड्यूटी	3591
##रेट	3592
गोपाल	3593
कंपनियों	3594
बचाने	3595
मनीष	3596
बत	3597
मुर	3598
लै	3599
##वनी	3600
रोजगार	3601
हेम	3602
##गु	3603
समूह	3604
सैनी	3605
प्रिय	3606
##टेन	3607
जानते	3608
##न्द	3609
अनुमति	3610
##स्वी	3611
एसी	3612
##वधान	3613
प्रत्य	3614
महाम	3615
मध्यप्रदेश	3616
काट	3617
प्रम	3618
नीति	3619
पोस्टम	3620
बाढ़	3621
##क्का	3622
भाषा	3623
लापर	3624
रूम	3625
संचालक	3626
सेल्सियस	3627
इंजीनियर	3628
जम्मू	3629
##it	3630
चिंता	3631
सीनियर	3632
##्रेलिया	3633
##बीसी	3634
तारीख	3635
चिकित्सा	3636
पोस्टमॉर्ट	3637
अक्ष	3638
उज्ज	3639
विवे	3640
##क्रिय	3641
मुकदमा	3642
एसोसिएशन	3643
पोस्टमॉर्टम	3644
ऑस्ट	3645
टॉ	3646
बें	3647
##एंगे	3648
##द्दी	3649
स्कू	3650
मुकाबले	3651
मास	3652
शूट	3653
##am	3654
आरक्षण	3655
बॉलीवुड	3656
प्रिंस	3657
क्	3658
##ौन	3659
##थर	3660
##नेस	3661
करनी	3662
कप्तान	3663
चेयर	3664
फैसले	3665
कंट	3666
##्ब	3667
वेब	3668
निकले	3669
दास	3670
दाखिल	3671
बूथ	3672
##फॉर्म	3673
2021	3674
निर्धारित	3675
##क़	3676
संचालित	3677
जताई	3678
टूट	3679
निभा	3680
दाम	3681
फें	3682
##ay	3683
स्म	3684
रेड	3685
आरती	3686
ज्ञापन	3687
प्ला	3688
##ेन्द्र	3689
रखते	3690
फायरिंग	3691
जॉ	3692
जमानत	3693
धान	3694
##ौली	3695
##आईआर	3696
चांदी	3697
48	3698
##ंजन	3699
सेल	3700
##र्जर	3701
2025	3702
फैक्ट	3703
करवाई	3704
##्यता	3705
##काता	3706
000	3707
ग्रे	3708
मोटर	3709
##ांची	3710
रेफर	3711
क्रम	3712
##पेट	3713
##ur	3714
##ाराम	3715
विश्	3716
कमिश्नर	3717
news	3718
झू	3719
भरा	3720
संपत्ति	3721
गौरव	3722
डायरेक्टर	3723
घूम	3724
चंडी	3725
##ेंगी	3726
नियंत्र	3727
मोहल्	3728
सप्लाई	3729
राजीव	3730
75	3731
नवा	3732
##स्टे	3733
पालन	3734
अट	3735
सरपंच	3736
दुर्गा	3737
गिरावट	3738
टॉप	3739
हमारा	3740
पुराने	3741
स्टेट	3742
गोर	3743
दैनिक	3744
##स्ट्र	3745
कोलकाता	3746
रुक	3747
हरा	3748
##र्तन	3749
प्रत्येक	3750
स्पी	3751
इस्ती	3752
##व्यू	3753
लापरवाही	3754
अत	3755
खिलाड़ियों	3756
हिस्से	3757
उम्मीदवारों	3758
संसद	3759
किशोर	3760
दस	3761
चौथ	3762
हेड	3763
उपाध्यक्ष	3764
धीरे	3765
ठगी	3766
##ुक्ति	3767
किरा	3768
प्रदीप	3769
साउ	3770
##प्रीत	3771
ठंड	3772
सलाह	3773
सक्रिय	3774
करियर	3775
जिन्होंने	3776
55	3777
##ित्व	3778
##िलास	3779
आगामी	3780
ट्रैक्टर	3781
90	3782
खड़ा	3783
##ड़िया	3784
इंच	3785
वॉ	3786
##बारा	3787
रमेश	3788
पावर	3789
प्रतिमा	3790
डीसी	3791
साबित	3792
डॉलर	3793
सलमान	3794
क्षमता	3795
मांगी	3796
पुन	3797
उठाया	3798
पड़ता	3799
खाते	3800
जला	3801
नशे	3802
पहा	3803
करवाने	3804
जोध	3805
पैदा	3806
पसंद	3807
##लब	3808
संदेश	3809
अनुमान	3810
##म्प	3811
##ियाना	3812
विशाल	3813
चर	3814
तीसरी	3815
विस्तार	3816
अर्थ	3817
##is	3818
##पीएस	3819
स्टार	3820
जुट	3821
वितरण	3822
भावना	3823
विश्वास	3824
तिर	3825
मच	3826
##वंत	3827
##ेलन	3828
कमल	3829
स्टैंड	3830
अकाउंट	3831
##नाम	3832
ज्ञान	3833
आतंक	3834
चंडीगढ़	3835
अर्ज	3836
ओम	3837
##िमी	3838
##्रह	3839
प्रबंध	3840
इसको	3841
सोच	3842
इंडस्ट्री	3843
क्लब	3844
जोधपुर	3845
आती	3846
चुनौती	3847
हंग	3848
##ार्म	3849
आपकी	3850
तालाब	3851
कथा	3852
दवा	3853
भ्र	3854
फिल्मों	3855
कने	3856
गार्ड	3857
गोद	3858
##िनेट	3859
बुल	3860
इंस्प	3861
जिनमें	3862
नक्स	3863
##ाराण	3864
चाहता	3865
इंटरव्यू	3866
शही	3867
##्रेशन	3868
बढ़ने	3869
हालात	3870
##कर्मी	3871
##ेमारी	3872
##गणना	3873
cm	3874
एंट	3875
##नर	3876
##ंडर	3877
हाईवे	3878
छापेमारी	3879
साउथ	3880
इजरा	3881
पॉल	3882
##ईओ	3883
राजस्व	3884
महास	3885
घायलों	3886
संघर्ष	3887
मुद्दे	3888
वाराण	3889
विमान	3890
##राष्ट्रीय	3891
रूस	3892
वाराणसी	3893
##जिद	3894
##िड़	3895
##भार	3896
प्रमाण	3897
##ंदे	3898
##स्तर	3899
कर्मियों	3900
एफआईआर	3901
वाय	3902
##ेद	3903
##िले	3904
दूरी	3905
##ड्डा	3906
##घाटन	3907
कू	3908
प्यार	3909
##लेख	3910
निर्म	3911
##स्थल	3912
बिल्ड	3913
समीक्षा	3914
चाक	3915
हिंसा	3916
गुजर	3917
वोटिंग	3918
बल्ले	3919
निशाना	3920
चिकित्स	3921
##वली	3922
##्वी	3923
##ल्ल	3924
माध	3925
शेख	3926
योजनाओं	3927
ऑस्ट्रेलिया	3928
दान	3929
##सु	3930
##करा	3931
पुरानी	3932
टाइम	3933
बाग	3934
संदि	3935
खाना	3936
डिप	3937
भुगतान	3938
रद्द	3939
##ap	3940
कैब	3941
संदिग्ध	3942
खाने	3943
##ेक्टर	3944
##ुट	3945
##ैट	3946
बादल	3947
अनुप	3948
स्वतंत्र	3949
नियुक्त	3950
विभा	3951
ईरान	3952
##बार	3953
डेढ़	3954
दुर्घ	3955
स्थापना	3956
इंटरनेशनल	3957
##han	3958
भीतर	3959
##ार्व	3960
मॉडल	3961
एसडीएम	3962
प्रभा	3963
समाप्त	3964
##ोटा	3965
विकसित	3966
फैल	3967
यूनिट	3968
ठेके	3969
जबर	3970
सेंट	3971
##यं	3972
सकेंगे	3973
##सीय	3974
कानपुर	3975
विशेषज्ञ	3976
अच्छे	3977
फुटेज	3978
खड़ी	3979
##दल	3980
भीषण	3981
प्रेस	3982
दुर्घटना	3983
ओल	3984
पाली	3985
##डियम	3986
##मित	3987
##दिन	3988
शिकार	3989
सम्मेलन	3990
सर्विस	3991
##भाष	3992
गुल	3993
भरो	3994
##सीसी	3995
चलाया	3996
चेता	3997
दह	3998
राठ	3999
अंतरराष्ट्रीय	4000
अतिक	4001
रेट	4002
श्याम	4003
खुशी	4004
सत्य	4005
##ंती	4006
यात्री	4007
रांची	4008
।"	4009
##णि	4010
लेना	4011
##ोजक	4012
छोटी	4013
वृद्धि	4014
नज	4015
##काम	4016
##स्टल	4017
उपाय	4018
गांवों	4019
नर्स	4020
##दास	4021
कार्यकाल	4022
वकील	4023
तार	4024
बम	4025
##ol	4026
##केशन	4027
##हाद	4028
रहीं	4029
सार्व	4030
नेट	4031
अध्यक्षता	4032
टैक्स	4033
हटाने	4034
पवन	4035
##िवार	4036
##ानगर	4037
स्वीकार	4038
गरीब	4039
लू	4040
होनी	4041
गठन	4042
आक्र	4043
कथ	4044
द्व	4045
##पद	4046
##नाड	4047
##्यास	4048
##धीश	4049
स्वामी	4050
आंख	4051
उतार	4052
##तक	4053
राजेंद्र	4054
2014	4055
ऊंच	4056
##िपा	4057
##छा	4058
कोटा	4059
##द्रा	4060
बजकर	4061
स्टेडियम	4062
पश्चिमी	4063
उद्घाटन	4064
डाला	4065
पोर्ट	4066
##तु	4067
शहरों	4068
लड़ाई	4069
##धिकार	4070
##स्टेबल	4071
अके	4072
खर	4073
चार्ज	4074
##सेज	4075
दोबारा	4076
बीमार	4077
सोना	4078
जुर्म	4079
फैंस	4080
कैमरे	4081
अतिक्रमण	4082
300	4083
एच	4084
विज	4085
##ोग्राम	4086
सुरेश	4087
स्वच्छ	4088
बध	4089
मीटिंग	4090
बढ़ावा	4091
आखिर	4092
श्रद्धालुओं	4093
सोरेन	4094
हरि	4095
ट्रॉ	4096
चाहती	4097
आशंका	4098
आंध	4099
एरिया	4100
##हण	4101
कोह	4102
##ंपिक	4103
सूरज	4104
अरब	4105
शानदार	4106
इंस्पेक्टर	4107
जस	4108
नाय	4109
मस्	4110
##तो	4111
##काने	4112
##दाबाद	4113
दिनेश	4114
पुरस्कार	4115
पंडित	4116
इक	4117
##नल	4118
##hi	4119
विष्ण	4120
जिन्हें	4121
ip	4122
सुल	4123
सख्त	4124
महोत्सव	4125
##जनिक	4126
पदों	4127
सौर	4128
हित	4129
##ंदन	4130
##िपल	4131
कठ	4132
दर्द	4133
सिन्	4134
##त्मा	4135
सार्वजनिक	4136
##ंगर	4137
##ोलॉ	4138
नियुक्ति	4139
नती	4140
वार्	4141
##टका	4142
जगहों	4143
प्रोफे	4144
एक्शन	4145
##ढ़े	4146
मौजू	4147
मिशन	4148
गे	4149
विज्ञान	4150
##ाइड	4151
लाखों	4152
अखिलेश	4153
##ीता	4154
##ंटर	4155
##ra	4156
कुश	4157
##्मण	4158
स्ट्र	4159
लड़के	4160
तस्कर	4161
बचाव	4162
भ्रष्ट	4163
38	4164
यश	4165
लुध	4166
मौजूदा	4167
नारे	4168
नियमों	4169
गह	4170
जू	4171
##लान	4172
##et	4173
प्रारंभ	4174
सीता	4175
जानिए	4176
2020	4177
अपराधियों	4178
गौतम	4179
कैबिनेट	4180
##डेट	4181
संस्कार	4182
दरवा	4183
समस्याओं	4184
लुधियाना	4185
',	4186
रानी	4187
संजीव	4188
कारोबार	4189
एप	4190
नहर	4191
महेंद्र	4192
मिलती	4193
आपका	4194
वेतन	4195
अफसरों	4196
up	4197
असम	4198
पंक	4199
##कारा	4200
शोर	4201
##पण	4202
चलाने	4203
विदेशी	4204
मध	4205
सका	4206
##ंसर	4207
सिन्हा	4208
##गन	4209
पहुंचाया	4210
दिव्या	4211
400	4212
शास	4213
##id	4214
##ब्लिक	4215
हल्की	4216
##्वे	4217
प्रवक्ता	4218
प्रोफेसर	4219
व्	4220
##बीन	4221
चारों	4222
सांस्कृत	4223
कर्ना	4224
आबादी	4225
चपेट	4226
बातें	4227
##राबाद	4228
लक्ष्मी	4229
टिप्	4230
##यत	4231
अरुण	4232
विनोद	4233
चेतावनी	4234
कच	4235
जस्ट	4236
दलों	4237
पेंशन	4238
माय	4239
लिम	4240
कमज	4241
मंजू	4242
धरना	4243
गोरख	4244
सांस्कृतिक	4245
42	4246
अंडर	4247
नवीन	4248
##ानु	4249
##गरानी	4250
अनुभव	4251
ट्रंप	4252
मनो	4253
आदिवासी	4254
चोरों	4255
नमः	4256
उत्साह	4257
क्लास	4258
शौ	4259
##कृ	4260
इसरा	4261
एंट्री	4262
कर्नाटक	4263
इंग	4264
कंग	4265
##ौड़	4266
परम	4267
दिवसीय	4268
##चुनाव	4269
डूब	4270
##पट	4271
सुंदर	4272
pm	4273
ऊर्जा	4274
##हारी	4275
उपचुनाव	4276
निकाली	4277
##तरीय	4278
ट्रांसफर	4279
चाकू	4280
निगरानी	4281
##साइड	4282
पंकज	4283
ईडी	4284
##नन	4285
निरा	4286
समझौ	4287
बिक्री	4288
धार	4289
##र्ण	4290
इंडियन	4291
खुले	4292
चौराह	4293
घटनास्थल	4294
##वासन	4295
ब्रि	4296
योगदान	4297
काउंस	4298
मस्जिद	4299
##चिव	4300
बाय	4301
प्राण	4302
गतिविधियों	4303
re	4304
रास्ता	4305
राजकुमार	4306
कपड़े	4307
साहिब	4308
##म्बर	4309
बधाई	4310
##िंदर	4311
##र्में	4312
स्तरीय	4313
##ुल्ला	4314
##ुलेंस	4315
लड़क	4316
धोखा	4317
पथ	4318
##िफ	4319
सुभाष	4320
बेस	4321
मेर	4322
गायब	4323
उज्जैन	4324
44	4325
फ्री	4326
फॉर्म	4327
सारे	4328
##लीय	4329
बेट	4330
##धिकारियों	4331
एनडीए	4332
##ट्टा	4333
झग	4334
झां	4335
##सेस	4336
इन्	4337
लल	4338
प्रयोग	4339
समान	4340
सब्	4341
##स्कृति	4342
भक्तों	4343
भव्य	4344
रोल	4345
##क्न	4346
##ाजा	4347
बैग	4348
क्राइम	4349
प्रोड	4350
##फ्रेंस	4351
तृ	4352
इन्हें	4353
गैस	4354
धाम	4355
हैद	4356
मेहन	4357
नजदी	4358
सैनिक	4359
पूर्वी	4360
##साइट	4361
मानसिक	4362
संकल्प	4363
प्रतिनिध	4364
कंट्रोल	4365
हंगामा	4366
ब्रे	4367
##स्थिति	4368
फैक्ट्री	4369
डो	4370
भूप	4371
##टरी	4372
##वाड़ी	4373
संस्कृति	4374
देती	4375
##ष्टि	4376
पंजी	4377
आर्ट	4378
घे	4379
##कृति	4380
मुज	4381
सुसाइड	4382
निकला	4383
स्वयं	4384
जीतने	4385
##ट्‌	4386
निशान	4387
पांडे	4388
परिवहन	4389
ससुराल	4390
आकर्	4391
##िमा	4392
गुण	4393
विष्णु	4394
साढ़े	4395
गैर	4396
लाइट	4397
छठ	4398
लगाते	4399
बोला	4400
श्रीवा	4401
भरत	4402
उत्सव	4403
घोट	4404
रिश	4405
##्तीय	4406
##सवाल	4407
होम	4408
पर्यावरण	4409
टो	4410
वर	4411
अग्न	4412
मुक्त	4413
##विंदर	4414
वर्षा	4415
वित्तीय	4416
एडम	4417
व्यापारी	4418
सुनाई	4419
आना	4420
##ंपरा	4421
गोल्ड	4422
विभागों	4423
एडी	4424
खार	4425
कैला	4426
198	4427
सूत्रों	4428
श्रीवास्तव	4429
##चक	4430
##िनियम	4431
साज	4432
बोली	4433
विधाय	4434
श्रीराम	4435
खोज	4436
सीधे	4437
##ृत्य	4438
आएंगे	4439
कौशल	4440
46	4441
अल्	4442
गीत	4443
मंज	4444
मिट्	4445
##यी	4446
तिल	4447
इनकी	4448
डीएसपी	4449
हिंदी	4450
##कू	4451
उनमें	4452
##रोज	4453
कहती	4454
हजारों	4455
कानूनी	4456
खी	4457
जुल	4458
शख	4459
काबू	4460
दौड़	4461
भ्रष्टा	4462
आचार्य	4463
परंपरा	4464
अधिनियम	4465
पकड़े	4466
वापसी	4467
कब्जा	4468
आश्	4469
दर्श	4470
##ोसी	4471
##िटेड	4472
अनुर	4473
उधर	4474
दृष्ट	4475
हवाई	4476
##श्त	4477
सिंध	4478
भारती	4479
कमाई	4480
वेबसाइट	4481
कमजोर	4482
अक्सर	4483
घट	4484
##र्त	4485
महेश	4486
एमपी	4487
प्रियंका	4488
चेयरमैन	4489
अर्जुन	4490
इंग्ल	4491
मेहनत	4492
शुल्क	4493
##ंवर	4494
जाट	4495
##रेज	4496
लागत	4497
पुण	4498
खेला	4499
दस्तावेज	4500
काे	4501
अपर	4502
दुर्ग	4503
##un	4504
##ंद्र	4505
आगरा	4506
##कर्मियों	4507
शहीद	4508
कोहली	4509
##क्सी	4510
सीबीआई	4511
##गेट	4512
##ूर्त	4513
##कर्ता	4514
दिखाया	4515
संरक्षण	4516
##ाकर	4517
प्रती	4518
##राहा	4519
पत्थर	4520
चैंप	4521
मुकाबला	4522
ओड	4523
राज्यपाल	4524
हाथों	4525
इतने	4526
पारा	4527
फल	4528
##िफिक	4529
वेस्ट	4530
##एसआई	4531
व्यापार	4532
केन्द्र	4533
##नाक	4534
##स्सा	4535
राइ	4536
वर्क	4537
पासवान	4538
जुटी	4539
बॉक्स	4540
सैक	4541
##ड्डी	4542
आवश्यकता	4543
पांडेय	4544
खाद्य	4545
प्रतिष्ठा	4546
उचित	4547
तु	4548
रोग	4549
दिग्	4550
मानव	4551
डिजाइन	4552
हिसाब	4553
शूटिंग	4554
घरे	4555
##दिक	4556
किशन	4557
##क्षी	4558
मतदाता	4559
प्रिंसिपल	4560
65	4561
भंड	4562
##घा	4563
जैसा	4564
##सूस	4565
अजमेर	4566
श्रेणी	4567
लंबी	4568
ऑड	4569
मुआ	4570
रणनी	4571
##हत्या	4572
निष्	4573
##प्प	4574
एडव	4575
41	4576
खून	4577
शब्	4578
##तायात	4579
प्रतिबंध	4580
मुद्दों	4581
दोषी	4582
गर्म	4583
ताल	4584
बढ़ो	4585
पदार्थ	4586
भोजन	4587
फ्लाइट	4588
आश्वासन	4589
घरेलू	4590
लें	4591
सिया	4592
लेख	4593
सिने	4594
पीने	4595
जीता	4596
यातायात	4597
दूध	4598
प्लांट	4599
अहमद	4600
तुलना	4601
."	4602
नित	4603
ममता	4604
##ब्र	4605
##गाह	4606
स्कोर	4607
##आईटी	4608
कैलाश	4609
##ce	4610
विरा	4611
##ायी	4612
##बाग	4613
विधि	4614
मतगणना	4615
संयोजक	4616
##िन्द	4617
महासचिव	4618
47	4619
दिक	4620
पायल	4621
बुरी	4622
##फिया	4623
साथियों	4624
जनरल	4625
निकली	4626
##र्ग	4627
लाश	4628
बनकर	4629
यूक	4630
##इंट	4631
##har	4632
कैद	4633
गिरने	4634
अवधि	4635
अश्व	4636
चीज	4637
कराए	4638
गोरखपुर	4639
इनकार	4640
दुबे	4641
चक्र	4642
##डिंग	4643
मुद्दा	4644
आत्महत्या	4645
विधायकों	4646
39	4647
सन	4648
##ियत	4649
स्‍	4650
ट्रेनिंग	4651
पक्षों	4652
निकलने	4653
आशीष	4654
हाइ	4655
हर्ष	4656
##द्योग	4657
निरीक्षक	4658
संभव	4659
जस्टिस	4660
लिमिटेड	4661
हफ्	4662
बाइ	4663
राउंड	4664
अपडेट	4665
##रेस्ट	4666
दीवार	4667
मोर्चा	4668
जाएं	4669
जबलपुर	4670
सामग्री	4671
##्लो	4672
जिलाध्यक्ष	4673
अमन	4674
प्रतिनिधि	4675
शुक्ला	4676
भ्रष्टाचार	4677
##ित्त	4678
##ल्थ	4679
राज्यसभा	4680
ट्रैक	4681
चीफ	4682
वसू	4683
##शोध	4684
##ौज	4685
##स्त्री	4686
स्न	4687
बढ़ती	4688
टाटा	4689
हेमंत	4690
विवेक	4691
इस्तीफा	4692
##कृष्ण	4693
शख्स	4694
नशा	4695
##ग्न	4696
##दीय	4697
बरसा	4698
प्रदर्श	4699
##ज्ञानिक	4700
ऑल	4701
##गो	4702
प्रण	4703
साझा	4704
नियमित	4705
कथित	4706
आरा	4707
ध्व	4708
महसूस	4709
मेले	4710
बढ़कर	4711
नील	4712
पलट	4713
आर्	4714
ऐलान	4715
छूट	4716
पाने	4717
दुष्	4718
लापता	4719
खारिज	4720
##ांश	4721
आईपी	4722
प्रशासनिक	4723
मेडल	4724
मुजफ्	4725
51	4726
पाइ	4727
कैंसर	4728
कुलदीप	4729
तेजस्वी	4730
आयुष	4731
आकाश	4732
जख	4733
##ड़ियां	4734
इंस्ट	4735
अर्चना	4736
नियंत्रण	4737
छत	4738
##्ट	4739
##िलंब	4740
प्रकरण	4741
##वाड़	4742
महतो	4743
मेला	4744
2018	4745
दुकानों	4746
बेचने	4747
तमिल	4748
दिक्क	4749
बड़	4750
##लैंड	4751
##डेंट	4752
##दर्शन	4753
गोयल	4754
महाप	4755
ओडिशा	4756
ताक	4757
हरी	4758
##चर्स	4759
##ाइयों	4760
खेती	4761
पड़ेगा	4762
माइ	4763
##ट्यू	4764
##ीप	4765
##्द	4766
होली	4767
##स्थाप	4768
हिम	4769
शिफ्ट	4770
न्यायाधीश	4771
केरल	4772
##्रो	4773
##लाइ	4774
ग्रा	4775
दौरे	4776
रुख	4777
कर्मी	4778
आह	4779
त्यो	4780
##रीन	4781
संह	4782
बीएस	4783
जाया	4784
सिम	4785
##रेली	4786
ज्यादातर	4787
हड़ताल	4788
त्योहार	4789
अना	4790
मंग	4791
##पूत	4792
##्योर	4793
मारे	4794
डिजिटल	4795
मुजफ्फर	4796
टूर्	4797
##नामेंट	4798
##जात	4799
मारकर	4800
##ोलॉजी	4801
धूप	4802
पब्लिक	4803
##पणी	4804
पार्किंग	4805
गुना	4806
मैचों	4807
अभिने	4808
बिल्डिंग	4809
एश	4810
कना	4811
##ॉम	4812
##bi	4813
प्रार्थ	4814
बीमारी	4815
डीजल	4816
मतलब	4817
आधारित	4818
नागरिकों	4819
टूर्नामेंट	4820
अंद	4821
चम	4822
छोटा	4823
फते	4824
##मोह	4825
##क्चर	4826
उपभ	4827
अपराधी	4828
भरोसा	4829
हफ्ते	4830
संहिता	4831
पश	4832
माने	4833
##us	4834
##ृज	4835
##रीय	4836
राजद	4837
रूट	4838
प्रतिभा	4839
##म्मत	4840
साजिश	4841
शर	4842
##कोट	4843
बढ़े	4844
संकट	4845
मतदाताओं	4846
आक्रोश	4847
पोर्टल	4848
टिप्पणी	4849
05	4850
नाल	4851
##ंथ	4852
##नीत	4853
समापन	4854
बच्चा	4855
रखना	4856
लाइस	4857
नक्सल	4858
43	4859
##वै	4860
##el	4861
##ंडे	4862
अधिव	4863
जनस	4864
उत्तरा	4865
एक्सपर्ट	4866
पदाधिकारियों	4867
##ब्ल्यू	4868
एग्जाम	4869
आसान	4870
##da	4871
##घु	4872
##वाय	4873
बताए	4874
जोशी	4875
चाहे	4876
मान्यता	4877
जयंती	4878
बॉल	4879
ब्रह	4880
जिम्मेदार	4881
अंग्रे	4882
किरदार	4883
पर्	4884
बिलास	4885
##गज	4886
सेट	4887
##स्म	4888
मैन	4889
वोटर	4890
हिसार	4891
मैनेजर	4892
सौंपा	4893
सिनेमा	4894
पव	4895
##यात्रा	4896
प्रावधान	4897
एक्टिव	4898
फुट	4899
चौराहे	4900
बढ़ोतरी	4901
यूक्रेन	4902
अल्प	4903
आर्य	4904
इच्छ	4905
गंग	4906
ठग	4907
फंस	4908
सकी	4909
##प्त	4910
कुर्	4911
##हरण	4912
मैसेज	4913
निर्द	4914
प्रश्न	4915
पड़ोसी	4916
##जलि	4917
मूवी	4918
विराट	4919
बिलासपुर	4920
मारा	4921
##बद्ध	4922
विजे	4923
उसको	4924
जुड़	4925
रखें	4926
यूज	4927
वैसे	4928
शुरुआती	4929
##ड्‌	4930
तकनीकी	4931
झु	4932
डू	4933
##गीर	4934
##्वल	4935
##वाले	4936
थानाध्यक्ष	4937
संभाल	4938
अक	4939
तनाव	4940
##िणी	4941
##ro	4942
##घर	4943
संशोध	4944
कार्यवाही	4945
पुष्टि	4946
परिवारों	4947
##प्रकाश	4948
सेंट्र	4949
इस्ल	4950
##ंतर	4951
जीते	4952
जुड़ा	4953
गुर्जर	4954
मांगों	4955
वैज्ञानिक	4956
दोस्तों	4957
प्रस्तुति	4958
कंगना	4959
भड़	4960
जिसने	4961
मास्टर	4962
लड़ने	4963
हिस्सों	4964
##्‍या	4965
दौरा	4966
विद्युत	4967
जागरूकता	4968
अक्षय	4969
उपभो	4970
##यक	4971
विहार	4972
##रेन्द्र	4973
गोविंद	4974
लीटर	4975
फाइल	4976
लोह	4977
शक	4978
##फोन	4979
लीक	4980
रिजल्ट	4981
##केत	4982
राधा	4983
सकें	4984
बदले	4985
ड्रोन	4986
52	4987
जज	4988
लेंगे	4989
##ूंगा	4990
##हल	4991
##यां	4992
साव	4993
पहन	4994
कैंड	4995
आपूर्ति	4996
कहने	4997
नीरज	4998
बालिका	4999
कलेक्ट	5000
दलित	5001
##ड्ढ	5002
तहसीलदार	5003
जिंदगी	5004
अभ्यर्थियों	5005
फेंक	5006
49	5007
fir	5008
कस्	5009
चित्र	5010
वाद	5011
##धाम	5012
समन	5013
निधन	5014
सिंघ	5015
##ल्टी	5016
घटनाओं	5017
##फ्टी	5018
सचिन	5019
संगठनों	5020
कारोबारी	5021
शांत	5022
##ct	5023
##िवे	5024
रिजर्व	5025
जनपद	5026
बनाना	5027
चलता	5028
शुभारंभ	5029
लिखित	5030
जताया	5031
##tion	5032
कवि	5033
##जारी	5034
##ख्	5035
##र्वाद	5036
पड़ताल	5037
टेक्न	5038
##एचओ	5039
कॉन्फ्रेंस	5040
पुष्प	5041
बेंगल	5042
अर्पित	5043
##डकर	5044
ग्राह	5045
टोल	5046
पंप	5047
फांसी	5048
बिर	5049
भरी	5050
लीड	5051
सारी	5052
सैन	5053
##्की	5054
टीमों	5055
केंद्रों	5056
सफर	5057
खेले	5058
सांप	5059
आशीर्वाद	5060
जंग	5061
बाघ	5062
जाह	5063
जानें	5064
##ंधर	5065
##वरूप	5066
दर्जन	5067
दिलीप	5068
मानना	5069
150	5070
कितनी	5071
तत्कालीन	5072
जुर्माना	5073
हैदराबाद	5074
गले	5075
##ितीय	5076
टीचर	5077
उल्लेख	5078
पिक	5079
##बूर	5080
##नाल	5081
##ैक्ट	5082
##ंधे	5083
पर्यटन	5084
स्वतंत्रता	5085
आवं	5086
##याल	5087
बाई	5088
साइक	5089
##काई	5090
##स्तानी	5091
क्षेत्रीय	5092
कितना	5093
कनाडा	5094
गड़	5095
ढा	5096
देखी	5097
गुम	5098
विद्या	5099
पुराना	5100
जवानों	5101
नही	5102
नृत्य	5103
फं	5104
क्षति	5105
पिछली	5106
197	5107
प्राचार्य	5108
प्रयाग	5109
जितेंद्र	5110
गेम	5111
सिख	5112
पीठ	5113
ट्रस्ट	5114
पौधे	5115
बृज	5116
##कांत	5117
##सारी	5118
##मल	5119
पिट	5120
आलम	5121
56	5122
खतरा	5123
गज	5124
गीता	5125
चिन	5126
लड़ा	5127
##वाना	5128
##शाली	5129
##ab	5130
##स्टी	5131
टीमें	5132
बिजनेस	5133
##ग्रस्त	5134
लाइफ	5135
विपक्षी	5136
##िडेट	5137
मेन	5138
देखें	5139
अफ्री	5140
तस्करी	5141
##ंख्य	5142
इश	5143
तल	5144
##ेन	5145
##वाहा	5146
बच्चन	5147
पालिका	5148
फाउंड	5149
बिगड़	5150
ओपन	5151
##सराय	5152
कोर	5153
इंजन	5154
शाखा	5155
बदलने	5156
परिवर्तन	5157
उत्पादन	5158
प्रेरित	5159
लाइसेंस	5160
रोका	5161
सदन	5162
कोचिंग	5163
सोनू	5164
सेंट्रल	5165
पेर	5166
सश	5167
अपहरण	5168
हिमा	5169
##ंटों	5170
श्रील	5171
चेहरे	5172
पत्रकार	5173
साहब	5174
कैंडिडेट	5175
फर्	5176
मूर्ति	5177
##फान	5178
##्याज	5179
सीकर	5180
##पात	5181
दिलाने	5182
जल्दी	5183
तहरीर	5184
##रजेंसी	5185
गर	5186
वादा	5187
##क्‍	5188
राजपूत	5189
##दीश	5190
मांगे	5191
बढ़ी	5192
पैदल	5193
खरीदी	5194
जायसवाल	5195
##द्दीन	5196
मंजूरी	5197
इसराइल	5198
चैंपियन	5199
पाइप	5200
नै	5201
सना	5202
##रस	5203
##डीह	5204
चौराहा	5205
मिट्टी	5206
सैकड़ों	5207
छीन	5208
रहना	5209
मुंह	5210
बेस्ट	5211
ग्रहण	5212
संबंधी	5213
संगीत	5214
विरोधी	5215
ऐप	5216
##गति	5217
##वक	5218
राजकीय	5219
##्रेड	5220
##ाइट	5221
विक्रम	5222
आईटी	5223
खेलने	5224
श्रद्धालु	5225
प्लेटफॉर्म	5226
मचा	5227
##संख्य	5228
पुत	5229
##लोड	5230
किराए	5231
गाली	5232
जहा	5233
##ho	5234
मंदिरों	5235
गाड़ियों	5236
देवेंद्र	5237
संपन्न	5238
इमरजेंसी	5239
नवरा	5240
प्रयागराज	5241
जिक्र	5242
सहमति	5243
जिनके	5244
सदस्यता	5245
सिलस	5246
शासकीय	5247
डांस	5248
देरी	5249
मांगा	5250
##000	5251
जगदीश	5252
ट्रेनों	5253
मिमी	5254
राजू	5255
पदक	5256
मजबूर	5257
मेरठ	5258
मुआव	5259
00	5260
पवार	5261
भरे	5262
मारी	5263
सतीश	5264
नेपाल	5265
महज	5266
खरीदने	5267
गली	5268
दायर	5269
सॉ	5270
##ोली	5271
##अल	5272
टी20	5273
गिरोह	5274
##ट्रो	5275
जालंधर	5276
रजिस्ट्रेशन	5277
दुष्कर्म	5278
एटी	5279
गिरी	5280
रहें	5281
अंसारी	5282
##वरों	5283
गुट	5284
##धिकरण	5285
भरने	5286
भेजने	5287
शोभा	5288
##वर्धन	5289
तमाम	5290
ग्राउंड	5291
99	5292
छेड़	5293
किरण	5294
काली	5295
मोड़	5296
महाकाल	5297
हेल्थ	5298
निकालने	5299
नाराजगी	5300
अमृतसर	5301
ग़	5302
पाप	5303
फरी	5304
नेहर	5305
मुसल	5306
##काया	5307
रोहत	5308
भागने	5309
लालू	5310
नरेश	5311
इलेक्ट्रिक	5312
ग्रीन	5313
दाय	5314
पर्स	5315
भोग	5316
##्तिक	5317
लाठी	5318
महाविद्यालय	5319
सुनकर	5320
टाइगर	5321
सौरभ	5322
श्रीलंका	5323
एएसआई	5324
लीग	5325
आइए	5326
फोर्स	5327
ठेकेदार	5328
58	5329
##्ति	5330
कार्तिक	5331
##ंपल	5332
बहस	5333
विकल्प	5334
12वीं	5335
##त्साह	5336
##ing	5337
नजदीक	5338
इव	5339
चैन	5340
प्रजा	5341
##न्स	5342
महादेव	5343
मुहूर्त	5344
मुसलमान	5345
धूम	5346
##रिए	5347
##कट	5348
करण	5349
प्रगति	5350
हुईं	5351
सैल	5352
बजाय	5353
##्‍य	5354
इंग्लैंड	5355
01	5356
बोर	5357
##मेट	5358
नाथ	5359
महीनों	5360
रोजाना	5361
##कारात्मक	5362
अने	5363
औसत	5364
पशु	5365
मस	5366
रेंज	5367
##राधिक	5368
निर्मा	5369
आपराधिक	5370
आदर्श	5371
उठाए	5372
त्रिपा	5373
थोड़ी	5374
दिक्कत	5375
त्रिपाठी	5376
उल	5377
सेन	5378
##्यूल	5379
बाड़	5380
##ार्ग	5381
अब्द	5382
2017	5383
बिल्क	5384
##मोहन	5385
गड़ब	5386
मप्र	5387
लोन	5388
##बारी	5389
##ak	5390
महंत	5391
##ष्टमी	5392
मात्रा	5393
आजम	5394
प्रतिक्र	5395
वसूली	5396
हिमाचल	5397
रोहतक	5398
घा	5399
बहाद	5400
रस	5401
##डिया	5402
##श्री	5403
##भूषण	5404
##र्टी	5405
रात्रि	5406
##जनक	5407
होंगी	5408
इंद्र	5409
पकड़ने	5410
मैनेज	5411
जबरद	5412
प्रतिक्रिया	5413
रिमांड	5414
##ंश	5415
##शंकर	5416
किताब	5417
##वार्	5418
##सीना	5419
पहुंचाने	5420
आरोपों	5421
कैमरा	5422
उल्ल	5423
आंध्र	5424
अस्थ	5425
एंब	5426
बस्ती	5427
भक्ति	5428
रथ	5429
सराह	5430
##पे	5431
प्राधिकरण	5432
व्यवसाय	5433
तीसरा	5434
आश्रम	5435
कनेक्शन	5436
बिल्कुल	5437
ज्व	5438
टेंडर	5439
करोड़ों	5440
बचने	5441
##ुनिक	5442
सकेगा	5443
पाठक	5444
स्वच्छता	5445
नायब	5446
बेंगलुरु	5447
नेहरू	5448
54	5449
आशा	5450
तेंद	5451
वाइ	5452
हेत	5453
जाप	5454
एकाद	5455
संभाग	5456
बढ़ते	5457
मीना	5458
प्रोत्साह	5459
##एडा	5460
बाब	5461
पीट	5462
##ज़ा	5463
कितने	5464
##ंघन	5465
डेटा	5466
झूठ	5467
72	5468
फंड	5469
बिश्न	5470
##il	5471
दीपा	5472
बॉर्डर	5473
एशिया	5474
रक्त	5475
##िद्ध	5476
##वस्था	5477
##पत्र	5478
##झी	5479
##ction	5480
बैटरी	5481
जीव	5482
रखकर	5483
आदित्यनाथ	5484
##रुद्ध	5485
टकरा	5486
निलंब	5487
फोर	5488
सुझा	5489
आपत्ति	5490
वोटों	5491
तलाशी	5492
द्वितीय	5493
##तिया	5494
अनुरा	5495
पीजी	5496
टीवी	5497
भाषण	5498
इंस्टा	5499
बिश्नोई	5500
गहरा	5501
नंद	5502
शीत	5503
##डन	5504
##भूम	5505
संसा	5506
मेट्रो	5507
संसदीय	5508
शीर्ष	5509
रिसर्च	5510
महामंत्री	5511
##नाडु	5512
रिश्व	5513
अल्पसंख्य	5514
साइकिल	5515
एंटी	5516
खनन	5517
##ोत्	5518
##धड़ी	5519
##यम	5520
लोकतंत्र	5521
##आरपी	5522
मृत्यु	5523
##ार्टमेंट	5524
नोएडा	5525
गढ़	5526
नाले	5527
केश	5528
##ोंक	5529
विरुद्ध	5530
रावत	5531
संवाद	5532
आजाद	5533
पोस्टर	5534
##av	5535
बीकाने	5536
कारणों	5537
तीर्थ	5538
पायलट	5539
इवेंट	5540
डिमांड	5541
सार	5542
मुझ	5543
##ोजन	5544
कैश	5545
देशभर	5546
मृतका	5547
प्रभु	5548
तुलसी	5549
बल्लेबाज	5550
जख्मी	5551
हेतु	5552
रिश्वत	5553
04	5554
अरेस्ट	5555
नरेन्द्र	5556
मक	5557
हार्	5558
दुख	5559
सुरेंद्र	5560
पढ़ने	5561
गठित	5562
समीप	5563
तमिलनाडु	5564
बीकानेर	5565
ओपी	5566
भती	5567
##मती	5568
विप	5569
एनसी	5570
दुकानदार	5571
जूनियर	5572
दिव्यांग	5573
##ांजलि	5574
##ंत्रित	5575
आएगी	5576
दावे	5577
वैश्व	5578
लड़कियों	5579
धोखाधड़ी	5580
ताकत	5581
एकादशी	5582
वैश्विक	5583
सर्क	5584
##धीन	5585
##कांड	5586
##िलाई	5587
##एसएस	5588
ऑफर	5589
##तिहासिक	5590
पटवारी	5591
नर्सिंग	5592
गुणव	5593
उल्लंघन	5594
गार	5595
भि	5596
शह	5597
##एमसी	5598
अभिन	5599
##देन	5600
स्नान	5601
02	5602
st	5603
घंटों	5604
डें	5605
पृ	5606
विस	5607
सच्च	5608
लेन	5609
मिश्र	5610
##साइकिल	5611
सहयोगी	5612
तस्वीरें	5613
जिंदा	5614
अकेले	5615
आकर्ष	5616
आधा	5617
चक्कर	5618
हॉल	5619
##डब्ल्यू	5620
##दर	5621
##परा	5622
काला	5623
##क्की	5624
बातों	5625
आपने	5626
सबूत	5627
प्रतिदिन	5628
मानते	5629
छोड़ने	5630
चाचा	5631
##ुल्लाह	5632
प्रार्थना	5633
बाड़मेर	5634
सुझाव	5635
बुरा	5636
भले	5637
शहरी	5638
##एएस	5639
##ic	5640
लेवल	5641
स्क्रीन	5642
प्रशांत	5643
कृष्	5644
तोड़कर	5645
पूर्णिमा	5646
प्रेमी	5647
ब्रेक	5648
पिटाई	5649
53	5650
मथ	5651
शारी	5652
##सला	5653
निर्दलीय	5654
अफ्रीका	5655
खन्ना	5656
दुल	5657
रकम	5658
शिल	5659
##धित	5660
##िको	5661
एकड़	5662
पुलिसकर्मी	5663
एसटी	5664
बालक	5665
न्यायिक	5666
शारीरिक	5667
मणि	5668
साय	5669
##क्ष्य	5670
कार्यरत	5671
उपस्थिति	5672
रोशन	5673
गिरि	5674
जिनकी	5675
कॉलेजों	5676
इंदिरा	5677
यूनियन	5678
विद्यार्थी	5679
फ्लैट	5680
57	5681
लव	5682
##जिए	5683
देगा	5684
##्रीट	5685
मेघ	5686
प्रदूषण	5687
रिक्	5688
पर्याप्त	5689
छुट्टी	5690
##्योरिटी	5691
ऐतिहासिक	5692
पप्	5693
बांस	5694
##गरी	5695
##जान	5696
##im	5697
##क्ताओं	5698
जनजा	5699
मुखिया	5700
कार्यक्रमों	5701
बसपा	5702
स्पोर्ट	5703
मूल्य	5704
अंकित	5705
मधु	5706
खत	5707
शाय	5708
शोध	5709
##ंगन	5710
उठाने	5711
कन्या	5712
गुणवत्ता	5713
09	5714
ईश	5715
नर्म	5716
बट	5717
##वर्क	5718
कांड	5719
##िसी	5720
##प्टर	5721
सब्जी	5722
सैन्य	5723
आधिकार	5724
फूड	5725
##रानी	5726
हुस	5727
अमिता	5728
ज़्यादा	5729
03	5730
85	5731
बंट	5732
##th	5733
##नाएं	5734
समृ	5735
राजन	5736
बैठकर	5737
रेस्क	5738
खेतों	5739
भजनलाल	5740
संशोधन	5741
बहादुर	5742
आधिकारिक	5743
##ैम	5744
जाये	5745
##कीम	5746
##स्टिक	5747
पात्र	5748
मिथ	5749
व्यापारियों	5750
जोरदार	5751
व्यक्तियों	5752
पॉइंट	5753
आलोक	5754
मोटरसाइकिल	5755
खींच	5756
कच्च	5757
डिली	5758
सपोर्ट	5759
संकेत	5760
सिपा	5761
सुप	5762
##वीय	5763
अस्पतालों	5764
##पूर्व	5765
अभ्यर्थी	5766
##cc	5767
राणा	5768
मुक्ति	5769
मात्र	5770
बैठा	5771
पीछा	5772
अरो	5773
देगी	5774
##वीण	5775
इनका	5776
##्यूज	5777
आसानी	5778
सुविधाओं	5779
##ध्याय	5780
मोहल्ले	5781
इंस्टाग्राम	5782
डेंगू	5783
रेस्क्यू	5784
सिपाही	5785
गये	5786
वास	5787
शरण	5788
प्रोग्राम	5789
मेयर	5790
सामुदाय	5791
गलती	5792
कॉन्स्टेबल	5793
सेकेंड	5794
ब्रह्म	5795
सामुदायिक	5796
भूल	5797
##वण	5798
सामूह	5799
लगते	5800
द्वार	5801
कलेक्शन	5802
प्राथमिकता	5803
प्रतीक	5804
कृष्णा	5805
सामूहिक	5806
तू	5807
धीर	5808
##हाबाद	5809
माफी	5810
मांगने	5811
पड़ोस	5812
अभियंता	5813
शरद	5814
नर्मदा	5815
कुर	5816
जश	5817
ढाई	5818
फेल	5819
मित्र	5820
कोर्स	5821
##पुरम	5822
##विड	5823
कमांड	5824
बसों	5825
मौजूदगी	5826
माध्यमिक	5827
सिक्योरिटी	5828
दशक	5829
अंबानी	5830
उत्तराखंड	5831
78	5832
ढूं	5833
धर्में	5834
##िंपिक	5835
संध्या	5836
##ाप्ति	5837
एसएसपी	5838
##वलप	5839
सुविधाएं	5840
कर्ज	5841
बरा	5842
##बॉल	5843
प्रवीण	5844
भील	5845
निप	5846
भेजे	5847
प्रसिद्ध	5848
सिलेंडर	5849
क्वि	5850
स्पीकर	5851
बरसात	5852
समन्व	5853
67	5854
##ुए	5855
अनंत	5856
##स्तक	5857
अवॉर्ड	5858
अगली	5859
डीजी	5860
जेपी	5861
संस्थानों	5862
मेहता	5863
पुणे	5864
महापौर	5865
सर्ट	5866
##निक	5867
सीईओ	5868
अधिकांश	5869
व्यवहार	5870
चीनी	5871
पौध	5872
चढ़ा	5873
मजदूरी	5874
##lection	5875
प्रमोद	5876
स्कूटी	5877
हराया	5878
चौथे	5879
मनोहर	5880
घोटाले	5881
मुजफ्फरपुर	5882
पप्पू	5883
धर्मेंद्र	5884
##ाग	5885
##om	5886
स्टी	5887
उन्	5888
##ाहरण	5889
##्वान	5890
पिस्टल	5891
शास्त्री	5892
रावण	5893
फॉर	5894
झगड़ा	5895
कलेक्ट्रेट	5896
सनातन	5897
अनेक	5898
06	5899
अवि	5900
आंगन	5901
रिल	5902
सीओ	5903
बीबीसी	5904
बिंद	5905
जिलाधिकारी	5906
गंभीरता	5907
नौकर	5908
तलाक	5909
मार्गदर्शन	5910
व्यापक	5911
स्मृति	5912
ललित	5913
जुलूस	5914
an	5915
अथ	5916
जि	5917
ताज	5918
तबी	5919
।'	5920
सेमी	5921
##्वरी	5922
भागी	5923
निकाय	5924
आईं	5925
चंदन	5926
विजेता	5927
बग	5928
हसीना	5929
##sp	5930
##ानंद	5931
रहकर	5932
196	5933
आग्रह	5934
परीक्षण	5935
ब्रिज	5936
चांद	5937
गोदाम	5938
##छाड़	5939
दीपावली	5940
अमिताभ	5941
हंस	5942
##कां	5943
काशी	5944
समर्पित	5945
बीमा	5946
बहु	5947
गेंदबाज	5948
आतंकी	5949
##स्‍ट	5950
##द्योगिक	5951
यूजर्स	5952
तबीयत	5953
95	5954
अमी	5955
आलो	5956
ईवी	5957
कं	5958
गाज	5959
ठिक	5960
भाइयों	5961
मर्डर	5962
##ारायण	5963
आएगा	5964
लिंक	5965
ऑफिसर	5966
गर्ग	5967
##बेडकर	5968
एंबुलेंस	5969
रिक्शा	5970
ra	5971
एआई	5972
गाने	5973
जानी	5974
टर्म	5975
बजर	5976
रतन	5977
##जिट	5978
##डू	5979
##नपुर	5980
##सूर	5981
##षिक	5982
##सीबी	5983
पुलिसकर्मियों	5984
अनिवार	5985
जीती	5986
##एसटी	5987
गुस्सा	5988
धन्य	5989
चलेगा	5990
इंतजाम	5991
ट्रॉफी	5992
गव	5993
बघ	5994
मानी	5995
सारा	5996
##eo	5997
स्वरूप	5998
बेहत	5999
कामया	6000
माफिया	6001
गुला	6002
संबंधों	6003
शेष	6004
##प्रत	6005
##म्ब	6006
बाजारों	6007
पाकिस्तानी	6008
वास्तव	6009
##चंद्र	6010
आति	6011
इकाई	6012
चिल	6013
बौ	6014
रंजन	6015
##ंजी	6016
शेड	6017
मिलाकर	6018
दिखे	6019
कटौती	6020
सुनीता	6021
64	6022
vs	6023
यहीं	6024
##ट्स	6025
##ed	6026
जनसभा	6027
चलाई	6028
स्वर्ण	6029
चीजों	6030
वायु	6031
##वरा	6032
##पो	6033
सीख	6034
बिहारी	6035
##न्नी	6036
प्रतिपक्ष	6037
##एससी	6038
कुलपति	6039
तैयारियां	6040
बलराम	6041
मनाई	6042
डालने	6043
धाराओं	6044
काउंसिल	6045
रणनीति	6046
62	6047
खिल	6048
भीम	6049
पीएच	6050
बहुम	6051
अलवर	6052
रेस्ट	6053
चेन	6054
फार्म	6055
##पक	6056
##ch	6057
##ांतर	6058
राध	6059
##क्षर	6060
बहनों	6061
##धीर	6062
जवाहर	6063
समर्थकों	6064
रीवा	6065
विभागीय	6066
नक्सलियों	6067
अधिवक्ता	6068
आभार	6069
गि	6070
##दाय	6071
##भाल	6072
कोट	6073
समक्ष	6074
##किट	6075
कमलेश	6076
ब्रांच	6077
चालू	6078
गुप्त	6079
प्रबंधक	6080
क्षतिग्रस्त	6081
फाउंडेशन	6082
##प्रतिनि	6083
मछ	6084
##ोकेट	6085
##वेल	6086
प्रॉप	6087
बढ़त	6088
समाजवादी	6089
छोड़ा	6090
पूर्णिया	6091
मजदूरों	6092
तिरंगा	6093
ओलिंपिक	6094
अग्नि	6095
पिकअप	6096
हुसैन	6097
कल्	6098
पंत	6099
##ोम	6100
किंग	6101
समस्त	6102
एससी	6103
2016	6104
ब्लड	6105
व्ही	6106
आह्वान	6107
एके	6108
मय	6109
माला	6110
##धुनिक	6111
##ार्क	6112
सुमित	6113
बुक	6114
आईडी	6115
राशिफल	6116
कुशवाहा	6117
भूपेंद्र	6118
इच्छा	6119
इस्लाम	6120
सर्टिफिक	6121
टूर	6122
ब्ला	6123
हिन्द	6124
##तान	6125
पीटा	6126
उपकरण	6127
सेवाएं	6128
कलाकारों	6129
##ानिस्तान	6130
राठौड़	6131
एडवोकेट	6132
प्रणाली	6133
मथुरा	6134
शायद	6135
औद्योगिक	6136
खंग	6137
गड्ढ	6138
दफ्त	6139
लक	6140
सर्च	6141
हेल	6142
##टिल	6143
##नम	6144
##दर्	6145
##ok	6146
प्रसार	6147
संज्ञान	6148
##िस्ट्रेट	6149
ज़र	6150
ढूंढ	6151
अटल	6152
फुल	6153
बं	6154
भगत	6155
हस्त	6156
##डम	6157
##्का	6158
जाएंगी	6159
जनप्रतिनि	6160
एसआई	6161
मंत्रियों	6162
उड़ान	6163
प्रभावी	6164
66	6165
अदा	6166
गयी	6167
विल	6168
##वर्ती	6169
##लेस	6170
कुत्	6171
बॉडी	6172
समर्थक	6173
रिश्तेदार	6174
इजराइल	6175
पवित्र	6176
59	6177
खात	6178
यौन	6179
##बंदी	6180
##कै	6181
काग	6182
विम	6183
##राइ	6184
अपमान	6185
##त्कार	6186
सीपी	6187
हाे	6188
हाथी	6189
##ार्थी	6190
फेस	6191
सपना	6192
स्पोर्ट्स	6193
डायल	6194
दर्	6195
सर्ज	6196
##टाला	6197
##ब्यू	6198
##धारी	6199
##वाज	6200
##ियंस	6201
एकत्र	6202
अध्य	6203
##ंचाई	6204
कैप	6205
चलती	6206
##र्पण	6207
कलाकार	6208
तकनीक	6209
दरवाजा	6210
07	6211
टन	6212
##ya	6213
विज्ञ	6214
हीट	6215
##क्टर्स	6216
कॉम	6217
हिंदुओं	6218
उतारा	6219
प्रॉपर्टी	6220
ऑर्डर	6221
चंप	6222
लैंड	6223
सीतार	6224
महान	6225
इंसान	6226
##बाड़ी	6227
पढ़िए	6228
मध्यम	6229
शास्त्र	6230
बतौर	6231
गेह	6232
नारेबाजी	6233
झांसी	6234
##जद	6235
##ॉड	6236
##ौत	6237
राशन	6238
बनर्जी	6239
फिरोज	6240
शिवसेना	6241
ब्राह	6242
व्यक्तिगत	6243
अनुरोध	6244
al	6245
ed	6246
असल	6247
लह	6248
हक	6249
##ंव	6250
##ारों	6251
करनाल	6252
एकता	6253
बीती	6254
बनाते	6255
चौटाला	6256
##ड्डू	6257
थोड़ा	6258
आंखों	6259
जाहिर	6260
हार्दिक	6261
बेहतरीन	6262
पटा	6263
##बत	6264
##क्यू	6265
##षभ	6266
##भि	6267
##सेन	6268
##पीओ	6269
##द्वारा	6270
चेहरा	6271
फीचर्स	6272
दिखाने	6273
ख़िला	6274
indi	6275
फतेह	6276
इको	6277
##बरा	6278
##ह्न	6279
##शियों	6280
##चि	6281
##नामा	6282
##क्षेत्र	6283
##गेड	6284
आपसी	6285
डिवाइ	6286
##ेंट्स	6287
##न्नई	6288
पार्टियों	6289
अत्य	6290
अनिवार्य	6291
अख	6292
गिल	6293
चाय	6294
फोक	6295
सीआई	6296
बढ़ाया	6297
रोम	6298
पेय	6299
तेलंग	6300
इंजीनियरिंग	6301
ब्रिगेड	6302
टेक्नोलॉजी	6303
पृथ	6304
धन्यवाद	6305
गवर्न	6306
फाइ	6307
##इंग	6308
मनु	6309
कपिल	6310
##ज़र	6311
श्रद्धांजलि	6312
##स्वामी	6313
##व्यवस्था	6314
स्मार्टफोन	6315
अनुराग	6316
एव	6317
चिरा	6318
धु	6319
फिट	6320
रौ	6321
रचना	6322
##सिया	6323
स्कीम	6324
आपस	6325
##भाग्य	6326
##िमंडल	6327
आसमान	6328
समझा	6329
एजेंस	6330
शुभकाम	6331
टाउन	6332
छेड़छाड़	6333
ख़िलाफ़	6334
तेलंगाना	6335
##िष्ट	6336
##दन	6337
बाबू	6338
##टेक	6339
##लोत	6340
चेकिंग	6341
जीतकर	6342
उदाहरण	6343
मिठ	6344
खाता	6345
क्विंट	6346
गला	6347
बारी	6348
रिव	6349
काटने	6350
जिसको	6351
जोड़ी	6352
स्टोर	6353
डिफ	6354
मनाने	6355
रिपोर्ट्स	6356
आमिर	6357
भेजी	6358
मिसाइल	6359
आचार	6360
ऋषि	6361
टार	6362
मरा	6363
लिये	6364
##हूर	6365
##सद	6366
##मपुर	6367
##re	6368
##ul	6369
##नाइ	6370
##ुलर	6371
सील	6372
##ूलाल	6373
250	6374
साइड	6375
खासकर	6376
चलेगी	6377
समझौता	6378
अरोड़ा	6379
ma	6380
टुक	6381
लाई	6382
##os	6383
रामल	6384
रेड्डी	6385
फिल्में	6386
जगत	6387
खेली	6388
संभावित	6389
मशहूर	6390
##्हा	6391
##क्के	6392
बाहरी	6393
हुड्डा	6394
मोड	6395
##ट्ठा	6396
##कालीन	6397
हिंदु	6398
लोकेशन	6399
उपाध्याय	6400
मोहल्ला	6401
अर्थव्यवस्था	6402
आलोचना	6403
सर्टिफिकेट	6404
su	6405
अजीत	6406
आसार	6407
खतर	6408
दृ	6409
##ोपुर	6410
##ॉय	6411
निम	6412
सुमन	6413
नीट	6414
यूरो	6415
चेन्नई	6416
टेली	6417
कलश	6418
डालकर	6419
##िवेदी	6420
ब्राह्मण	6421
टारगेट	6422
71	6423
गाइड	6424
घेर	6425
ठहरा	6426
डेम	6427
करो	6428
कारा	6429
सिंचाई	6430
कमला	6431
आजादी	6432
अमे	6433
ब्रांड	6434
किशोरी	6435
मलिक	6436
जोड़ने	6437
गारंटी	6438
जं	6439
शिर	6440
सेल्	6441
##ांशु	6442
सास	6443
मेक	6444
अनुसू	6445
लिहा	6446
महावीर	6447
शिवराज	6448
##ार्थियों	6449
उठाकर	6450
##शेखर	6451
विनय	6452
आंकड़े	6453
दर्शकों	6454
खतरे	6455
रियल	6456
सकारात्मक	6457
संदे	6458
अध्या	6459
बहू	6460
एनएच	6461
मजिस्ट्रेट	6462
लक्ष्मण	6463
कचरा	6464
सत्या	6465
##मेल	6466
##ॉस	6467
##ौदा	6468
##नाश	6469
लाए	6470
हरकत	6471
माया	6472
गाड़ियां	6473
##and	6474
शुक्ल	6475
गहलोत	6476
एडमिशन	6477
नितिन	6478
एटीएम	6479
बघेल	6480
अनी	6481
ब्याज	6482
शेर	6483
##जो	6484
##्रु	6485
##सीडेंट	6486
बेल	6487
आईएएस	6488
सुनने	6489
##िंदे	6490
लंबित	6491
नकली	6492
मासूम	6493
मैनेजमेंट	6494
94	6495
क्वाल	6496
चू	6497
छू	6498
##धारा	6499
##ंचल	6500
श्रीकृष्ण	6501
रविंद्र	6502
संभल	6503
##तलब	6504
61	6505
आस्था	6506
गू	6507
चत	6508
हसन	6509
##साई	6510
बेरोज	6511
स्थिर	6512
बैं	6513
शुद्ध	6514
वैष्ण	6515
साइंस	6516
शाही	6517
स्वीकृति	6518
तिलक	6519
फर्स्ट	6520
निलंबित	6521
मणिपुर	6522
गेहूं	6523
गिन	6524
ग्लो	6525
जद	6526
ठाकर	6527
दाद	6528
रवी	6529
सक्	6530
##पल	6531
करंट	6532
होश	6533
सावन	6534
मुठ	6535
##ल्ला	6536
मेल	6537
महात्मा	6538
इंचार्ज	6539
कविता	6540
चिन्ह	6541
##रिएंट	6542
बहुमत	6543
..	6544
81	6545
चतु	6546
रघु	6547
##स्फ	6548
साझे	6549
समु	6550
पाते	6551
##वंशी	6552
नामक	6553
नाटक	6554
कृपा	6555
##स्वती	6556
वीरेंद्र	6557
मुआवजा	6558
क्विंटल	6559
76	6560
कल्प	6561
मवेश	6562
##iv	6563
विनेश	6564
वेद	6565
घटनाएं	6566
आमजन	6567
गौरतलब	6568
अभियुक्त	6569
वार्ता	6570
मुठभ	6571
गत	6572
छिप	6573
हार्ट	6574
##जुट	6575
##हित	6576
##माने	6577
पैसों	6578
112	6579
पड़ने	6580
ड्रग	6581
अफग	6582
खरीदा	6583
निवेशकों	6584
चिराग	6585
ठाकरे	6586
68	6587
अत्या	6588
आवेद	6589
ऑप	6590
त्या	6591
बुर	6592
शिंदे	6593
##फोड़	6594
##ैना	6595
##थल	6596
काले	6597
##वारे	6598
सीधा	6599
कैप्	6600
थानाधिकारी	6601
करीबी	6602
2015	6603
खोलने	6604
रॉय	6605
मायके	6606
अंदाज	6607
रामलला	6608
63	6609
बजा	6610
भेंट	6611
##लक	6612
##बंद	6613
##ेस	6614
एकजुट	6615
सरस्वती	6616
देखना	6617
देखभाल	6618
बुकिंग	6619
अभय	6620
अवध	6621
टेबल	6622
डाउन	6623
दिग्गज	6624
डिलीवरी	6625
73	6626
77	6627
election	6628
ओबीसी	6629
हस्ता	6630
##टर्स	6631
##भंगा	6632
##वाकर	6633
समस्ती	6634
कार्यशाला	6635
बैक	6636
देखे	6637
श्रृ	6638
मदन	6639
एडिशन	6640
खोला	6641
निरस्त	6642
सराहना	6643
समस्तीपुर	6644
क्ली	6645
शतक	6646
सक्ष	6647
सवाई	6648
##पै	6649
##ियाबाद	6650
मोन	6651
उत्तरी	6652
मानें	6653
##ोषण	6654
गुरुग्राम	6655
दरभंगा	6656
करेंगी	6657
साहित्य	6658
सिद्धार्थ	6659
प्लास्टिक	6660
नेटवर्क	6661
तस्करों	6662
##ख्ती	6663
ढंग	6664
दादा	6665
पित	6666
लुक	6667
##बो	6668
##थियों	6669
##आउट	6670
हैरान	6671
अवगत	6672
निर्देशन	6673
डेवलप	6674
व्यास	6675
धनबाद	6676
पहाड़ी	6677
कस्बे	6678
गड़बड़ी	6679
ग्लोबल	6680
आधे	6681
##ंटा	6682
##थे	6683
##नाती	6684
##ायर्ड	6685
##माव	6686
##जीलैंड	6687
मेगा	6688
##वंश	6689
अनुस	6690
ट्रेलर	6691
भागलपुर	6692
एजेंट	6693
चतुर्थ	6694
69	6695
ch	6696
ईद	6697
तत्व	6698
बरेली	6699
##ड्र	6700
कायम	6701
##वाए	6702
विरासत	6703
सुशील	6704
##कारिणी	6705
अनुम	6706
निकट	6707
रेखा	6708
##सलमेर	6709
रिटायर	6710
भरतपुर	6711
फोकस	6712
92	6713
झटका	6714
##ॉप्टर	6715
पहना	6716
दोस्ती	6717
सोल	6718
##वेयर	6719
चालकों	6720
पंडाल	6721
फसलों	6722
##ent	6723
ipl	6724
##ौरा	6725
##ेंजर	6726
किल	6727
##ंडन	6728
सुर्	6729
महंग	6730
जोड़ा	6731
जैसलमेर	6732
##प्ले	6733
सैम	6734
सैंपल	6735
सेवाओं	6736
निकालकर	6737
आर्मी	6738
मुठभेड़	6739
sp	6740
ऐश्व	6741
ड्रेस	6742
फंदे	6743
भट्ट	6744
लहर	6745
##जब	6746
##तः	6747
##वड़	6748
##्यम	6749
देसी	6750
सीए	6751
गांजा	6752
विशिष्ट	6753
पुजारी	6754
तैनाती	6755
शिवम	6756
प्रोफ	6757
सर्दी	6758
अंतरिम	6759
तोड़ने	6760
कीमतों	6761
डीसीपी	6762
##्वेस्ट	6763
सिंधिया	6764
अंग्रेजी	6765
##भूमि	6766
संसाधन	6767
दुल्ह	6768
##पूर्वक	6769
सर्जरी	6770
कक्ष	6771
खाल	6772
फिज	6773
##हे	6774
##दियों	6775
##चीन	6776
##वाणी	6777
स्वि	6778
स्नात	6779
राखी	6780
बहाने	6781
##्यूटर	6782
##प्पी	6783
एमएम	6784
##....	6785
रजत	6786
अटैक	6787
स्पीड	6788
वार्षिक	6789
दफ्तर	6790
छिंद	6791
रिया	6792
रतल	6793
वजन	6794
सेशन	6795
किये	6796
##सीम	6797
मिलेंगे	6798
हमास	6799
अंबेडकर	6800
नीम	6801
लगेगा	6802
बचे	6803
लौटा	6804
##ate	6805
मरम्मत	6806
लंबा	6807
कूद	6808
शब्द	6809
गाजियाबाद	6810
रतलाम	6811
aap	6812
##धाना	6813
##कंप	6814
##ss	6815
##mp	6816
सफेद	6817
एक्सीडेंट	6818
बताने	6819
सियासी	6820
फंसे	6821
पृथ्वी	6822
अनुसंध	6823
महंगाई	6824
##ोर्स	6825
##फाइन	6826
2000	6827
##वीप	6828
##्तार	6829
अधिकतर	6830
फैला	6831
##श्चित	6832
दरबार	6833
फील्ड	6834
बनेगा	6835
वृद्ध	6836
प्राथमिकी	6837
आंकड़ों	6838
शुभकामनाएं	6839
सुर्ख	6840
उछ	6841
तट	6842
धमा	6843
##ig	6844
##ma	6845
प्रज	6846
##ासा	6847
अन्न	6848
विक्की	6849
195	6850
स्वस्थ	6851
##क्षणिक	6852
चालान	6853
रिहा	6854
असली	6855
प्रत्याशियों	6856
अहमदाबाद	6857
सौंपी	6858
पेरिस	6859
अनुसंधान	6860
83	6861
mo	6862
थानों	6863
सभाग	6864
##ौरी	6865
##ांगी	6866
##करार	6867
##ायती	6868
##ंडों	6869
मौल	6870
##जारा	6871
##ंबल	6872
##वेदनशील	6873
इमरान	6874
वाटर	6875
प्रस्तावित	6876
ind	6877
##खेड़ा	6878
स्कूली	6879
अनुसूचित	6880
चेत	6881
चोप	6882
जहर	6883
रंज	6884
शार	6885
##रेंस	6886
##सास	6887
##ion	6888
##ंगार	6889
कार्यकारिणी	6890
108	6891
##बीएस	6892
लड़का	6893
बचपन	6894
उमस	6895
अश्ली	6896
प्रयासों	6897
गलौज	6898
संतुल	6899
लिखी	6900
कन्ह	6901
रिटायर्ड	6902
दहेज	6903
सैनिकों	6904
प्रदर्शनी	6905
अनाज	6906
मुझसे	6907
बजरंग	6908
पेयजल	6909
74	6910
क्यू	6911
चुरा	6912
##्मा	6913
##दपुर	6914
##पाई	6915
कोरिया	6916
परफ	6917
थीम	6918
##िशियल	6919
##सागर	6920
परिच	6921
जानने	6922
##ंसल	6923
बोतल	6924
120	6925
खेलते	6926
प्रेरणा	6927
शैक्षणिक	6928
प्रारंभिक	6929
गूगल	6930
अश्लील	6931
फर्म	6932
शॉर्ट	6933
हवाले	6934
##डोर	6935
##ुद्दीन	6936
##ैग	6937
सेवान	6938
##टरिंग	6939
कहकर	6940
##ंकू	6941
##ंतु	6942
जेई	6943
वनडे	6944
पारंप	6945
##श्यप	6946
अभिभाव	6947
हथियारों	6948
हटाया	6949
गोलियां	6950
राठौर	6951
अध्ययन	6952
चतुर्	6953
vid	6954
द्र	6955
वस्त	6956
सस्प	6957
।।	6958
##बली	6959
##बुक	6960
##युक्त	6961
##शनी	6962
##ैप	6963
##थन	6964
##ार्पण	6965
पूनम	6966
##ाइक	6967
हमलों	6968
परिस्थित	6969
जुटा	6970
डीए	6971
##प्रिय	6972
दिवाली	6973
डेब्यू	6974
चंद्रशेखर	6975
##ाजीपुर	6976
आतंकवाद	6977
व्हा	6978
तृतीय	6979
पारंपरिक	6980
इरा	6981
डबल	6982
##ेब	6983
##़ी	6984
##ia	6985
प्रतिबद्ध	6986
डिस्प	6987
मनोर	6988
हत्याकांड	6989
एक्टिंग	6990
बुलाकर	6991
जायजा	6992
रिटर्न	6993
मकसद	6994
जश्न	6995
सेवानिव	6996
उजा	6997
यो	6998
सख्ती	6999
##ग्रा	7000
##टिव	7001
##तौर	7002
##खल	7003
बाज	7004
लेटर	7005
##्रीम	7006
बीए	7007
इंस्टी	7008
छाए	7009
लाइव	7010
##ोदय	7011
न्यूजीलैंड	7012
प्रताड़	7013
##ट्रिक	7014
##स्थापक	7015
अभिनेता	7016
प्रोत्साहित	7017
भागीदारी	7018
रेस्टोर	7019
चित्त	7020
नशी	7021
पन	7022
पच	7023
हवाला	7024
##दर्श	7025
प्रधाना	7026
अधि	7027
##न्ड	7028
बढ़ता	7029
नाव	7030
दिमा	7031
पूछे	7032
सांसदों	7033
बेहोश	7034
असिस्ट	7035
शिखर	7036
तारीफ	7037
आबकारी	7038
गों	7039
छान	7040
फंसा	7041
मद्	7042
##ोला	7043
##क्टे	7044
राघ	7045
निवास	7046
निश्चित	7047
बीज	7048
पीढ़ी	7049
बैच	7050
##ंपर	7051
गुहार	7052
रेत	7053
चावल	7054
##फ्रेंड	7055
सेकंड	7056
झांसा	7057
आजमगढ़	7058
ज्वेल	7059
88	7060
इट	7061
ब्यू	7062
वेल	7063
हां	7064
##झाने	7065
कोय	7066
प्राप्ति	7067
बाधा	7068
निष	7069
सीन	7070
अनूप	7071
बारात	7072
##शीट	7073
घटनाक्रम	7074
शिकायतों	7075
लिखकर	7076
न्यूज	7077
पाएंगे	7078
दिलाई	7079
डूबने	7080
समझौते	7081
आईपीएल	7082
##abha	7083
ऐश्वर्या	7084
ईयर	7085
जमु	7086
म्यूज	7087
यमु	7088
रत्	7089
##ोच्च	7090
##ूली	7091
##भू	7092
##sc	7093
कोरो	7094
##सीन	7095
स्थायी	7096
पार्टन	7097
दुब	7098
दुश्म	7099
यूजी	7100
पहुंचेगी	7101
तैयारियों	7102
एनटी	7103
सतर्क	7104
फ़ै	7105
दबिश	7106
शोरूम	7107
चीजें	7108
अल्पसंख्यक	7109
छिंदवाड़ा	7110
08	7111
91	7112
mp	7113
##पर्ड	7114
##so	7115
##िलिटी	7116
##जेडी	7117
ट्रायल	7118
टेक	7119
मिड	7120
सर्वा	7121
सिरसा	7122
##ोपण	7123
संदेह	7124
सक्षम	7125
ओटी	7126
रिम	7127
##टिया	7128
##टकों	7129
##खड़	7130
##चरण	7131
हैंड	7132
कुंड	7133
निर्भर	7134
पैनल	7135
आईएम	7136
डिटेल	7137
श्रमिक	7138
....	7139
##ath	7140
बोलने	7141
उतरे	7142
घूमने	7143
दहशत	7144
बेटियों	7145
ईश्वर	7146
कन्हैया	7147
600	7148
lok	7149
##तू	7150
##पेय	7151
##स्ड	7152
बाधित	7153
##ेश्वरी	7154
देवर	7155
तोमर	7156
##्मान	7157
##रेटर	7158
बेर	7159
लगती	7160
विश्ले	7161
डिवी	7162
मनमोहन	7163
जलस्तर	7164
दौसा	7165
तोड़फोड़	7166
आंकड़ा	7167
घुसकर	7168
निभाई	7169
अतुल	7170
ओलंपिक	7171
उपायुक्त	7172
अंधे	7173
क्रेड	7174
भिव	7175
शरी	7176
##ेटर	7177
##शाह	7178
करार	7179
सिंगर	7180
##वालों	7181
मुखब	7182
दिलच	7183
##धारण	7184
श्रम	7185
##्‍ह	7186
ब्लैक	7187
खुलकर	7188
सिलसिला	7189
चोपड़ा	7190
जोग	7191
बकाया	7192
##खार	7193
विराज	7194
संवेदनशील	7195
##पीड़	7196
बेगू	7197
पहुंचते	7198
मोहित	7199
कलर	7200
पंजाबी	7201
गैंगस्टर	7202
कांस्टेबल	7203
हड़कंप	7204
नकदी	7205
चिकित्सकों	7206
दरवाजे	7207
##ड्‌डा	7208
इंस्टीट्यू	7209
आफ	7210
घी	7211
तप	7212
फट	7213
बर्फ	7214
बस्तर	7215
भय	7216
हिर	7217
कोषा	7218
विस्फ	7219
स्ल	7220
##ोग्रा	7221
लोगो	7222
##कारियों	7223
##दीव	7224
बीत	7225
इन्होंने	7226
डॉक्टर्स	7227
##ज़ार	7228
##यूवी	7229
चिह्न	7230
काटकर	7231
शोभायात्रा	7232
विस्फोट	7233
ट्यू	7234
स्क्	7235
चुने	7236
मामा	7237
स्टोरी	7238
देखिए	7239
यूजर	7240
जिनका	7241
परीक्ष	7242
एमडी	7243
##ोहित	7244
मालूम	7245
आयुष्मान	7246
ब्यूरो	7247
बेगूसराय	7248
ai	7249
इमार	7250
गश्त	7251
शर्म	7252
शशि	7253
##रियर	7254
##नीश	7255
सोया	7256
बिछ	7257
बनना	7258
अनुश	7259
प्रतिभाग	7260
नामजद	7261
उत्पीड़	7262
दुकानदारों	7263
मालदीव	7264
टैंकर	7265
शिवा	7266
श्रद्धा	7267
चमक	7268
लोहे	7269
हिन्दू	7270
रेस्टोरेंट	7271
उद्ध	7272
कश्यप	7273
फीड	7274
भै	7275
लटका	7276
##्टी	7277
##ंझ	7278
##स्को	7279
मोती	7280
बैंड	7281
जुटे	7282
प्राचीन	7283
एमएल	7284
##ंगाबाद	7285
करवाए	7286
एजु	7287
जन्मदिन	7288
##रुख	7289
इलेक्ट्रॉन	7290
चिकित्सक	7291
इकट्ठा	7292
निष्पक्ष	7293
डाक	7294
बाला	7295
सिस	7296
##नियों	7297
##नामी	7298
मुद्रा	7299
पार्वती	7300
इंफ	7301
डीपी	7302
जेडी	7303
दीपिका	7304
शाहरुख	7305
डायव	7306
फ्रंट	7307
मुकदमे	7308
बेंच	7309
सुल्तान	7310
फरीदाबाद	7311
केशव	7312
ईवीएम	7313
97	7314
कटा	7315
गवाह	7316
जर्म	7317
##इली	7318
##थी	7319
##ानन	7320
##स्से	7321
प्रको	7322
##िनल	7323
साई	7324
लेपर्ड	7325
अगु	7326
एनडी	7327
सड़कें	7328
उमेश	7329
हॉस्टल	7330
अंबाला	7331
ब्रिटेन	7332
##िकोण	7333
अफगानिस्तान	7334
दुल्हन	7335
सभागार	7336
मद्देन	7337
##क्टेयर	7338
on	7339
खाम	7340
डोन	7341
दहन	7342
##िंट	7343
##ुणा	7344
##घ्र	7345
पुलिया	7346
मिलना	7347
कार्यकारी	7348
टीआई	7349
एम्स	7350
पुरी	7351
पेमेंट	7352
भेद	7353
सवालों	7354
सांग	7355
##िनेशन	7356
विषयों	7357
संस्थाओं	7358
रजिस्ट्री	7359
लैब	7360
विसर्जन	7361
खतरनाक	7362
आधुनिक	7363
एएसपी	7364
जर्जर	7365
दंप	7366
भ्रमण	7367
वस	7368
शैल	7369
##वमेंट	7370
##ॉन्	7371
##ter	7372
##ारिया	7373
##केज	7374
साधा	7375
##तिर	7376
##ंचित	7377
##ोजर	7378
बेड	7379
स्थलों	7380
मामूली	7381
##िप्त	7382
1000	7383
फैम	7384
शेखा	7385
ब्रज	7386
भागवत	7387
कंपनियां	7388
तुम्ह	7389
ऊंचाई	7390
प्रतिनिधित्व	7391
छानबीन	7392
##पेयी	7393
भिवानी	7394
87	7395
ईरानी	7396
शर्त	7397
##कर्मा	7398
##ॉफ	7399
##र्धा	7400
कैसा	7401
सबको	7402
##श्चा	7403
पत्रकारों	7404
दुकानें	7405
विश्वनाथ	7406
हेल्प	7407
वाता	7408
जबरन	7409
पशुओं	7410
नालंदा	7411
उपभोक्ताओं	7412
मुसलमानों	7413
डीजीपी	7414
एजेंसियों	7415
उत्पीड़न	7416
96	7417
तथ	7418
दाना	7419
मजा	7420
यज्ञ	7421
##कृष्ट	7422
निच	7423
##टीआई	7424
सोनिया	7425
कैच	7426
एसयूवी	7427
एम्ब	7428
लॉरेंस	7429
चरणों	7430
##ॉट्स	7431
इंटरनेट	7432
प्रीम	7433
विशेषज्ञों	7434
हरीश	7435
ग्राहकों	7436
गिनती	7437
हस्ताक्षर	7438
परफॉ	7439
क्रेडिट	7440
वातावरण	7441
sabha	7442
कमेंट	7443
फाज	7444
##मूर्ति	7445
##ृद	7446
लेबन	7447
निधि	7448
##न्नाथ	7449
रोशनी	7450
अवकाश	7451
जयशंकर	7452
कपल	7453
संग्रह	7454
बॉय	7455
योगेश	7456
अतिथियों	7457
##ोदिया	7458
गार्डन	7459
शौचाल	7460
नवरात्रि	7461
चैनल	7462
जबरदस्त	7463
82	7464
cbi	7465
पठ	7466
वाज	7467
सज	7468
##फार्म	7469
##30	7470
प्रैक्ट	7471
##लेवा	7472
##टीक	7473
सिंगल	7474
##जीब	7475
इन्वेस्ट	7476
कैटे	7477
कॉपी	7478
##िकासी	7479
रेवाड़ी	7480
##ज्जर	7481
आराम	7482
गुरुद्वारा	7483
##फ़ी	7484
लुटे	7485
हवाओं	7486
संरक्षक	7487
पुष्पा	7488
वरुण	7489
दृष्टि	7490
उल्लेखनीय	7491
किलोग्राम	7492
प्रज्वल	7493
पार्टनर	7494
डिवीजन	7495
फाजिल	7496
de	7497
कस	7498
गर्व	7499
चक	7500
छवि	7501
माली	7502
##ोड	7503
##तूस	7504
##ेंच	7505
कोड	7506
कारतूस	7507
कहता	7508
लोकप्रिय	7509
शिवपुरी	7510
प्रोसेस	7511
रायगढ़	7512
2009	7513
प्लानिंग	7514
पुनर्	7515
पॉलिसी	7516
नतीजे	7517
अब्दुल	7518
मुखबिर	7519
कोषाध्यक्ष	7520
फैमिली	7521
cct	7522
go	7523
झुल	7524
##विक	7525
राजम	7526
जानलेवा	7527
अंज	7528
2013	7529
सर्किट	7530
शुभम	7531
पकड़कर	7532
##one	7533
क्रिकेटर	7534
मरने	7535
कैंपस	7536
आवंट	7537
कामयाब	7538
साझेदारी	7539
उजागर	7540
cctv	7541
चिप	7542
ध्रु	7543
नष्ट	7544
बंसल	7545
##नस	7546
##सेवी	7547
##रेख	7548
##जीवन	7549
निर्यात	7550
10वीं	7551
लगाना	7552
बैठी	7553
जगन्नाथ	7554
शिकायतें	7555
रोडवेज	7556
##ट्टे	7557
##ुमो	7558
त्रि	7559
चौथी	7560
दृष्टिकोण	7561
सशक्त	7562
धूमधाम	7563
गुलाब	7564
खातों	7565
असिस्टेंट	7566
of	7567
डैम	7568
##िस्तान	7569
सेवन	7570
##ाल्ड	7571
##स्सी	7572
##क्क	7573
मुना	7574
##धानिक	7575
सूचित	7576
विक्र	7577
एसएचओ	7578
आईसी	7579
पोषण	7580
आरक्षक	7581
पीड़ितों	7582
फेस्ट	7583
##कृतिक	7584
800	7585
am	7586
ऋषभ	7587
कव	7588
नज़र	7589
पेज	7590
मल्ल	7591
रित	7592
##रित	7593
##ेप	7594
##ुद्ध	7595
##ta	7596
##थान	7597
##ायंस	7598
##कीन	7599
मोर	7600
लाकर	7601
सोलर	7602
##एमएस	7603
विधेय	7604
निर्देशित	7605
##गमन	7606
विश्वकर्मा	7607
##र्नल	7608
कमीशन	7609
फ्लोर	7610
जॉब	7611
बीमारियों	7612
##वार्टर	7613
बलरामपुर	7614
कल्पना	7615
दिमाग	7616
कोरोना	7617
to	7618
खड़	7619
नॉ	7620
निकासी	7621
रं	7622
श्रा	7623
##ोर्	7624
सम्प	7625
सीधी	7626
सीमित	7627
##वासीय	7628
रणवीर	7629
निर्मला	7630
कुर्सी	7631
उपभोक्ता	7632
बाबूलाल	7633
जदयू	7634
परिस्थितियों	7635
इंस्टीट्यूट	7636
मद्देनजर	7637
उड़ा	7638
गहरी	7639
ट्वी	7640
नल	7641
रेज	7642
शू	7643
##धना	7644
##नक	7645
##पुट	7646
##चार्ज	7647
मेंबर	7648
कराना	7649
संस्थापक	7650
दीन	7651
उपमुख	7652
परीक्षाओं	7653
खेलों	7654
दिखाकर	7655
रणबीर	7656
गेंदबाजी	7657
परियोजनाओं	7658
समृद्धि	7659
भीलवाड़ा	7660
सोलंकी	7661
##श्चात	7662
इर	7663
धक्का	7664
नाज	7665
बक्सर	7666
मित्त	7667
हाज	7668
##हो	7669
##पंथ	7670
##लाइट	7671
##िसू	7672
लेता	7673
सुधीर	7674
मांझी	7675
##ोरेशन	7676
अनुज	7677
उत्कृष्ट	7678
सुराग	7679
केंद्रित	7680
बालू	7681
श्रवण	7682
पारित	7683
पाठ्य	7684
##वाइंट	7685
रिश्ता	7686
अश्विन	7687
रक्तदान	7688
सर्किल	7689
79	7690
ठोस	7691
दर्जा	7692
शोषण	7693
सऊ	7694
सर्जन	7695
##बिन	7696
##िंक	7697
##शिक	7698
कालेज	7699
##क्कत	7700
##ेशनों	7701
सोसाइ	7702
कैल	7703
बढ़ाई	7704
आईआईटी	7705
छाया	7706
धरने	7707
चोटें	7708
पर्यटकों	7709
पुरुषों	7710
ओमप्रकाश	7711
कठिन	7712
निराकरण	7713
चैंपियनशिप	7714
अमेठी	7715
परिचय	7716
एम्बुलेंस	7717
फाजिल्का	7718
मित्तल	7719
सोसाइटी	7720
इज	7721
घन	7722
डाली	7723
नह	7724
फेज	7725
##रन	7726
##मू	7727
स्त्री	7728
तोड़ा	7729
चौंक	7730
रेस	7731
व्याव	7732
पारिवार	7733
एसडीओ	7734
बल्लेबाजी	7735
##र्मेंस	7736
दुबई	7737
पारिवारिक	7738
84	7739
आधी	7740
कंटे	7741
छिपा	7742
जन्	7743
भिड़	7744
वंचित	7745
##cb	7746
हीरो	7747
मोर्च	7748
आयुर्	7749
आपदा	7750
अवस्था	7751
##आईसी	7752
लीला	7753
लड़कों	7754
194	7755
पदस्थ	7756
बरकरार	7757
समस्याएं	7758
2008	7759
लौटे	7760
मशक्कत	7761
विद्यालयों	7762
विस्तृत	7763
खंडवा	7764
बुलड	7765
पॉलिट	7766
प्रभात	7767
भतीजे	7768
दर्शा	7769
जंक्शन	7770
video	7771
चित्तौड़	7772
आवंटित	7773
ट्वीट	7774
अड्ड	7775
एग्री	7776
गायक	7777
गहरे	7778
बगल	7779
रच	7780
##कुम	7781
##श्याम	7782
##अर	7783
उन्‍ह	7784
##ोगु	7785
देहा	7786
##्हे	7787
जीएसटी	7788
दर्जनों	7789
2012	7790
तबाद	7791
मदर	7792
ट्रांसपोर्ट	7793
खूबसूर	7794
आंधी	7795
मंजिल	7796
किशनगंज	7797
पशुप	7798
अकाली	7799
कड़ा	7800
वाई	7801
##गारी	7802
##न्यू	7803
##नारायण	7804
##णु	7805
##la	7806
जाद	7807
संस्कृत	7808
दीक्षित	7809
बीआर	7810
रूपए	7811
आरजेडी	7812
स्पॉट	7813
दिखी	7814
खरीदारी	7815
शीघ्र	7816
कैप्टन	7817
सेवानिवृ	7818
कैटेगरी	7819
आत्मा	7820
ऑप्शन	7821
चाइ	7822
डोर	7823
नायक	7824
भां	7825
नेहा	7826
विवि	7827
##लीम	7828
##द्दा	7829
अंश	7830
पैमाने	7831
आईजी	7832
गर्भव	7833
चंद्रा	7834
वितरित	7835
लौटने	7836
प्लॉट	7837
खबरें	7838
तत्वा	7839
गौरी	7840
एलान	7841
दबंग	7842
दिलाया	7843
डिपार्टमेंट	7844
डूंगर	7845
गर्भवती	7846
700	7847
नू	7848
नाइट	7849
मल्टी	7850
लड्डू	7851
सरा	7852
##बां	7853
##मढ़ी	7854
मेंटेन	7855
##पीठ	7856
##डीपी	7857
सब्स	7858
हिट	7859
बुनिया	7860
पुत्री	7861
बढ़ाकर	7862
लिखे	7863
आवागमन	7864
माइक्र	7865
जनजाति	7866
एकेड	7867
सस्पेंड	7868
प्रतिभागियों	7869
आवासीय	7870
झलक	7871
फेम	7872
बंदर	7873
सवारी	7874
##ानिया	7875
##ादक	7876
पाकर	7877
स्ट्रीट	7878
योग्य	7879
आवंटन	7880
मिठाई	7881
सुर्खियों	7882
परफॉर्मेंस	7883
नान	7884
फि	7885
बया	7886
भैर	7887
रनों	7888
निस्त	7889
मैर	7890
स्टेशनों	7891
रखता	7892
प्राकृतिक	7893
आमने	7894
अफवाह	7895
भोले	7896
पेशे	7897
छात्राएं	7898
अंतरिक्ष	7899
चुनौ	7900
फ्रांस	7901
दोषियों	7902
##ट्टू	7903
सेलिब	7904
कनेक्ट	7905
निर्मित	7906
काउंसलिंग	7907
पापा	7908
बराबर	7909
वास्तविक	7910
लेबनान	7911
उपमुख्य	7912
सऊदी	7913
ख्या	7914
गाना	7915
दली	7916
बलों	7917
भिलाई	7918
हिल	7919
##रिस	7920
##वों	7921
सेले	7922
अपलोड	7923
सिंग	7924
##ंधा	7925
एमबी	7926
बॉन्ड	7927
बालाजी	7928
दक्षिणी	7929
पार्षदों	7930
इजरायल	7931
93	7932
khan	7933
आलिया	7934
शॉप	7935
हद	7936
##िहार	7937
##कुल	7938
##फार	7939
अधीन	7940
अनिय	7941
##विंग	7942
कम्प	7943
कामना	7944
रामायण	7945
##ब्दी	7946
शवों	7947
##आरएफ	7948
वन्य	7949
बोलते	7950
सिक्	7951
गृहमंत्री	7952
दमकल	7953
नगरीय	7954
बोलीं	7955
प्रतिबंधित	7956
स्नातक	7957
ईंट	7958
झाम	7959
दंड	7960
दादी	7961
नवन	7962
भव	7963
##हाँ	7964
##ेशर	7965
सिद्दी	7966
पिच	7967
स्टो	7968
##क्रमण	7969
शिकायतकर्ता	7970
पद्म	7971
बरत	7972
##्राट	7973
##ष्ठी	7974
सजाया	7975
हल्के	7976
दस्तावे	7977
सत्यापन	7978
चतुर्थी	7979
विधेयक	7980
उपमुख्यमंत्री	7981
अमाव	7982
चर्च	7983
चन्द्र	7984
तड़	7985
थप्प	7986
हमी	7987
##ंजय	7988
##rat	7989
##se	7990
##ष्टी	7991
##जेक्शन	7992
क्रू	7993
चलाए	7994
##ट्टर	7995
जेब	7996
##म्भ	7997
ट्रेनें	7998
हेली	7999
छात्रावास	8000
रैंक	8001
स्वीकृत	8002
दशहरा	8003
चयनित	8004
मुरैना	8005
जूझ	8006
सॉफ्ट	8007
आकर्षक	8008
निपटने	8009
जमुई	8010
उद्धव	8011
चित्तौड़गढ़	8012
टंकी	8013
टोंक	8014
तर्क	8015
वंदे	8016
शिश	8017
##रक	8018
##शर	8019
##दिया	8020
##णिक	8021
लेती	8022
जोख	8023
बैल	8024
डॉग	8025
सूरत	8026
बहाल	8027
यूट्यू	8028
मिर्जा	8029
सेंसे	8030
रिंकू	8031
##वर्गीय	8032
फायदे	8033
फूलों	8034
प्रोडक्ट	8035
जापान	8036
ओपीडी	8037
उन्हीं	8038
सक्सेना	8039
एजुकेशन	8040
शौचालय	8041
अनियंत्रित	8042
गम	8043
बला	8044
भौ	8045
##ेयर	8046
##ऊंगा	8047
##ai	8048
सम्राट	8049
##लीला	8050
सीने	8051
दीं	8052
मौर्य	8053
ट्रेंड	8054
##श्ती	8055
हमलावर	8056
टैंक	8057
गेंदों	8058
##ash	8059
फाइनेंस	8060
अधिकारों	8061
माधोपुर	8062
कठोर	8063
एडिशनल	8064
रंजिश	8065
चुनौतियों	8066
आभूषण	8067
गंद	8068
ढांच	8069
दाल	8070
प्	8071
##शान	8072
##ठे	8073
##लेन	8074
मुफ्त	8075
कुंभ	8076
कुचल	8077
##ढ़ा	8078
सीएच	8079
मिलियन	8080
सरदार	8081
##विजय	8082
बैनर	8083
कैंट	8084
आरोपित	8085
बुद्ध	8086
अभ्यास	8087
लोकल	8088
जहरी	8089
आरपी	8090
पानीपत	8091
मृतकों	8092
जेवर	8093
##िश्वास	8094
जितना	8095
श्रेय	8096
नोडल	8097
ज्योतिष	8098
एसीबी	8099
नक्सली	8100
##ानुसार	8101
जहाज	8102
सच्चाई	8103
कारावास	8104
अमावस्या	8105
ad	8106
nda	8107
अद्	8108
वक्	8109
वंद	8110
कीर्तन	8111
बाप	8112
हुड्‌डा	8113
सुश	8114
बैठने	8115
##प्रदाय	8116
##समंद	8117
रायब	8118
ब्लै	8119
बंधक	8120
प्रतिनिधियों	8121
अनुरूप	8122
शब्दों	8123
आर्यन	8124
ग्राहक	8125
वैष्णव	8126
शेखावत	8127
थप्पड़	8128
सेंसेक्स	8129
im	8130
अखा	8131
ईस्ट	8132
ढेर	8133
##रियल	8134
##िस्टर	8135
##वड़ा	8136
##ut	8137
परमाण	8138
स्ने	8139
##रोल	8140
##स्टार	8141
सोचा	8142
परिचाल	8143
वेरिएंट	8144
स्टार्ट	8145
कॉर्प	8146
श्रीग	8147
ट्रेड	8148
बलि	8149
लॉक	8150
फ़िल	8151
प्रीति	8152
मासिक	8153
गेस्ट	8154
शीतल	8155
रायबरेली	8156
परमाणु	8157
pro	8158
दत्त	8159
पेंट	8160
वेट	8161
सराय	8162
##लांग	8163
##वकों	8164
##ुष	8165
रहमान	8166
जीआरपी	8167
स्टॉक	8168
हिम्मत	8169
गोवा	8170
##प्ति	8171
पिछड़ा	8172
##निवास	8173
क्रॉस	8174
खेड़ा	8175
हॉकी	8176
सतना	8177
उपलब्धि	8178
मॉनि	8179
आनन	8180
प्लेटफार्म	8181
निरंतर	8182
गहने	8183
गरबा	8184
##ांतरण	8185
लकड़ी	8186
""	8187
क्‍या	8188
पान	8189
##साद	8190
##ारस	8191
##ंगत	8192
##गाट	8193
समित	8194
निपट	8195
राजेन्द्र	8196
##रोध	8197
##ष्‍	8198
परिचित	8199
चलाते	8200
समाजसेवी	8201
पड़ती	8202
महीना	8203
जेसीबी	8204
समझने	8205
बलिया	8206
शेयरों	8207
सर्वेक्षण	8208
फॉलो	8209
झुंझ	8210
राधिका	8211
विज्ञापन	8212
5g	8213
ar	8214
कवर	8215
ताजा	8216
दरो	8217
नु	8218
फानन	8219
रिए	8220
वें	8221
हायर	8222
##कता	8223
औरंगाबाद	8224
प्राइम	8225
प्रकृति	8226
मुनि	8227
सुद	8228
कमाल	8229
पासपोर्ट	8230
महासभा	8231
##ूर्ण	8232
##्राष्ट्रीय	8233
हाथरस	8234
हेक्टेयर	8235
दलाल	8236
गणपति	8237
रणजीत	8238
न्यायमूर्ति	8239
बचाया	8240
भूषण	8241
सेक्रेट	8242
समन्वय	8243
शेड्यूल	8244
मछली	8245
मयंक	8246
डिफेंस	8247
गंदगी	8248
वक्फ	8249
as	8250
अंचल	8251
आपात	8252
ईमान	8253
चिर	8254
डंडे	8255
भद	8256
##लोग	8257
##धियों	8258
##फरी	8259
##षित	8260
जावेद	8261
##क्षेप	8262
अपन	8263
##जाही	8264
##मान्य	8265
कॉलो	8266
कंप्यूटर	8267
##ेंसिक	8268
विदाई	8269
अफ़	8270
कराकर	8271
दिखाते	8272
जमशे	8273
अलीगढ़	8274
बर्बाद	8275
क्वार्टर	8276
पथराव	8277
लीडर	8278
डोनाल्ड	8279
चूं	8280
झेल	8281
तिरा	8282
नमा	8283
बहा	8284
मस्क	8285
लंदन	8286
##रू	8287
##खोर	8288
##ालाल	8289
साक्ष्य	8290
##रेप	8291
चुप	8292
##मीत	8293
सालाना	8294
अवतार	8295
रेव	8296
##देही	8297
रिकार्ड	8298
##ग्रह	8299
विजयवर्गीय	8300
मजबूती	8301
आवाजाही	8302
अग्निवीर	8303
इकोन	8304
बुलडोजर	8305
बुनियादी	8306
जोखिम	8307
दरोगा	8308
इनाम	8309
छुप	8310
थिए	8311
पत	8312
स्रो	8313
##गुरु	8314
##िडी	8315
##िंडा	8316
##ार्मर	8317
##मात्र	8318
सरगु	8319
##पाट	8320
बनेंगे	8321
व्यस्त	8322
##ंसिल	8323
##प्पा	8324
डीआर	8325
मुताबिक़	8326
शातिर	8327
टैग	8328
खोले	8329
नकद	8330
370	8331
प्रमो	8332
फैलाने	8333
बायो	8334
##भिषेक	8335
निषाद	8336
अगुवाई	8337
पाठ्यक्रम	8338
झामुमो	8339
सरगुजा	8340
98	8341
कूल	8342
घंटा	8343
थर्ड	8344
पिल	8345
##टू	8346
##टके	8347
##टर्न	8348
##बैक	8349
##प्ल	8350
स्क्र	8351
अधिसू	8352
बिख	8353
रोष	8354
स्कॉ	8355
##आईजी	8356
लालच	8357
स्टेज	8358
निकाले	8359
चढ़कर	8360
मल्ह	8361
टूटा	8362
read	8363
हिमांशु	8364
प्रजापति	8365
सैलरी	8366
सर्वाधिक	8367
वसूल	8368
फेस्टिव	8369
रंजीत	8370
सिद्दीकी	8371
89	8372
day	8373
जां	8374
धा	8375
बवाल	8376
भिज	8377
संभा	8378
निंदा	8379
##काउ	8380
सिफार	8381
##माइ	8382
कुएं	8383
जींद	8384
##ंटू	8385
##वानों	8386
डील	8387
##ग्रहण	8388
डाले	8389
क्लिक	8390
वायनाड	8391
नतीजों	8392
झांकी	8393
आक्रोशित	8394
पर्सनल	8395
##ोत्तम	8396
अविनाश	8397
समुद्र	8398
संतुलन	8399
ev	8400
इकल	8401
उर	8402
गाल	8403
तकरी	8404
दुर	8405
भाद	8406
भार्ग	8407
लड़े	8408
##ोच	8409
##ोरा	8410
##ूनों	8411
##मंद	8412
##cp	8413
लेट	8414
देवास	8415
सिखा	8416
वाल्मी	8417
##्रेसी	8418
पीयू	8419
पाटी	8420
रूसी	8421
ग्रो	8422
सहकारी	8423
बुम	8424
इलाका	8425
##आरसी	8426
बसें	8427
##ुआं	8428
जलकर	8429
मालवीय	8430
गर्ल	8431
हमलावरों	8432
साइट	8433
कर्त	8434
सिल्वर	8435
अजित	8436
अकाद	8437
ऑडिट	8438
अभिनेत्री	8439
देहात	8440
अस्त	8441
खिता	8442
चैल	8443
टकर	8444
बर्थ	8445
##बड़	8446
##णम	8447
सेहत	8448
सेफ्टी	8449
अनियम	8450
##दाता	8451
जानकार	8452
कामका	8453
डिस्	8454
##ंसक	8455
##पालिका	8456
125	8457
आरके	8458
आरटी	8459
मिलीमीटर	8460
उठे	8461
एजेंड	8462
##ंडीज	8463
350	8464
वृक्ष	8465
पलवल	8466
##शुदा	8467
नवादा	8468
लड़कियां	8469
दायरे	8470
स्टील	8471
गड्ढे	8472
जन्मा	8473
वंदना	8474
झुंझुन	8475
सिफारिश	8476
तकरीबन	8477
कन्न	8478
छी	8479
तंत्र	8480
पट्टी	8481
फार	8482
लिव	8483
##ंकार	8484
##मण	8485
केन्द	8486
हैरिस	8487
विंग	8488
निखिल	8489
बेनी	8490
बनती	8491
सबके	8492
कॉमे	8493
लिफ्ट	8494
एमएस	8495
अर्ध	8496
फोगाट	8497
किराया	8498
ठगों	8499
फेसबुक	8500
india	8501
श्रीगंग	8502
बुमराह	8503
केन्द्रीय	8504
एथ	8505
वैन	8506
वस्त्र	8507
सत्स	8508
##तूल	8509
##सले	8510
##ॉग	8511
##‍च	8512
##ऐप	8513
पहने	8514
पहिया	8515
समर	8516
##माही	8517
##ंत्रिक	8518
पहलेलेख	8519
पीडब्ल्यू	8520
एसओ	8521
जेवरा	8522
करवाकर	8523
##कुश	8524
2007	8525
मंत्रिमंडल	8526
खबरों	8527
##ार्जुन	8528
अंबिका	8529
गरीबों	8530
ट्रॉली	8531
इन्हीं	8532
प्रोडक्शन	8533
आकर्षण	8534
टोला	8535
एडवांस	8536
ज़रूर	8537
एकत्रित	8538
also	8539
डिवाइस	8540
##फाइनल	8541
डिस्प्ले	8542
सेक्रेटरी	8543
भार्गव	8544
श्रीगंगानगर	8545
पहलेलेखक	8546
ias	8547
गूं	8548
नॉन	8549
पला	8550
लटक	8551
वॉट्स	8552
##हमी	8553
##ख़	8554
##ंसी	8555
##यरी	8556
##ियाला	8557
देह	8558
##्तानी	8559
एनकाउ	8560
स्पिन	8561
अरुणा	8562
गणना	8563
प्लेयर	8564
वृंदा	8565
सुनाया	8566
##ृष्टि	8567
नवरात्र	8568
प्रैक्टिस	8569
चौंकाने	8570
सीएचसी	8571
चूंकि	8572
आर्म	8573
एह	8574
खनि	8575
तन	8576
धारण	8577
फिस	8578
शोक	8579
सहर	8580
हृद	8581
##बाई	8582
##25	8583
##98	8584
##up	8585
करूंगा	8586
##नायक	8587
साइन	8588
बीएन	8589
##विधि	8590
अनुक	8591
नीतियों	8592
शिक्षिका	8593
ब्रिट	8594
नारन	8595
सर्वोच्च	8596
लोड	8597
चिंत	8598
वीजा	8599
जितने	8600
पर्यटक	8601
जोड़कर	8602
क़ान	8603
क्रमांक	8604
##िफिकेशन	8605
मेकर्स	8606
रवींद्र	8607
राजमार्ग	8608
एनकाउंटर	8609
86	8610
अटक	8611
जॉन	8612
तारा	8613
पश्चात	8614
बसे	8615
शाल	8616
शाला	8617
हेर	8618
##gb	8619
##आम	8620
##me	8621
हैंडल	8622
कार्	8623
##ल्‍	8624
कामों	8625
##सरों	8626
गिरकर	8627
रामगढ़	8628
जीतू	8629
डेयरी	8630
प्रदर्शनकारियों	8631
प्रसंग	8632
निशुल्क	8633
मूवमेंट	8634
शांतिपूर्ण	8635
बंटवारे	8636
अत्याचार	8637
डेवलपमेंट	8638
सिसोदिया	8639
आयुर्वेद	8640
अड्डे	8641
सत्संग	8642
sc	8643
कंस	8644
चौर	8645
डु	8646
डकै	8647
माइन	8648
लघु	8649
##हिया	8650
##पारा	8651
##भराव	8652
##ik	8653
सेठ	8654
##स्पी	8655
प्रवर्	8656
##ोगी	8657
कारों	8658
कार्म	8659
अपे	8660
##द्वाज	8661
युग	8662
बच्चियों	8663
बुलेट	8664
नींद	8665
जलाने	8666
##ana	8667
डेड	8668
कटिहार	8669
उठाते	8670
धरती	8671
सलाहकार	8672
पुण्य	8673
तलवार	8674
पुतिन	8675
जायेगा	8676
सेमीफाइनल	8677
क्वालिटी	8678
यमुना	8679
जमशेदपुर	8680
अनियमित	8681
जन्माष्टमी	8682
आध्या	8683
खज	8684
खरा	8685
तंज	8686
लिप	8687
##मानी	8688
##भु	8689
##इंडीज	8690
##ौफ	8691
##र्ति	8692
कास्ट	8693
विविध	8694
कुशल	8695
##रोवर	8696
##टेस्ट	8697
भारद्वाज	8698
##ोकन	8699
गोस्वामी	8700
##ंकन	8701
डिब्	8702
जलभराव	8703
समझाया	8704
रीजन	8705
प्रेमिका	8706
##डरेशन	8707
झगड़े	8708
नर्मदापुरम	8709
पौधों	8710
पठान	8711
मेंटेनेंस	8712
sd	8713
गहन	8714
गरज	8715
घो	8716
छिड़	8717
त्वर	8718
शक्त	8719
किस्	8720
सीव	8721
महिंद	8722
##ंत्रण	8723
लगाएं	8724
सोसाय	8725
##चारिक	8726
पैलेस	8727
विधिक	8728
महाय	8729
इसीलिए	8730
प्रत्यक्ष	8731
आदिवासियों	8732
रुके	8733
तरीका	8734
ट्रांसफ	8735
उत्पन्न	8736
विवाहिता	8737
साधक	8738
जॉइन	8739
चरम	8740
नायडू	8741
निराश	8742
घोटाला	8743
ऑडियो	8744
भिंड	8745
वाजपेयी	8746
बयानों	8747
इकोनॉ	8748
क्व	8749
डंपर	8750
नारा	8751
भंग	8752
सवा	8753
सरोज	8754
##गिल	8755
##डु	8756
##ालन	8757
प्रौ	8758
##राद	8759
##ाइश	8760
जोड़े	8761
दिनभर	8762
अनुदान	8763
सहारा	8764
गोप	8765
पैस	8766
2011	8767
ऑफ़	8768
पेन	8769
रनौत	8770
सौभाग्य	8771
अपराधों	8772
गतिविधि	8773
गायत्री	8774
हवाएं	8775
पटरी	8776
ग्रेड	8777
घेराव	8778
इशारा	8779
कुत्ते	8780
अनीता	8781
शरीफ	8782
चिह्नित	8783
इमारत	8784
वाल्मीकि	8785
pri	8786
अभाव	8787
खिड़	8788
चाली	8789
झाला	8790
थम	8791
धौल	8792
पाद	8793
बठ	8794
##पिंग	8795
केवी	8796
परेड	8797
जाग	8798
राजगढ़	8799
##दाश्त	8800
बैतूल	8801
गोवंश	8802
फैशन	8803
एनएस	8804
##बूझ	8805
##ang	8806
पंचायतों	8807
खाड़ी	8808
निदेशालय	8809
प्रदर्शित	8810
सिलसिले	8811
प्रताड़ित	8812
जेडीयू	8813
भेदभाव	8814
सेवानिवृत्त	8815
तत्वावधान	8816
त्वरित	8817
shar	8818
इजा	8819
कस्टम	8820
गी	8821
जियो	8822
दयाल	8823
वाट	8824
सनी	8825
##पु	8826
##st	8827
##ip	8828
##आइ	8829
##ृत्ति	8830
केयर	8831
प्रांत	8832
##हीर	8833
##हीन	8834
##रेगा	8835
मांस	8836
रोड़	8837
एसएस	8838
रामपुर	8839
इलाहाबाद	8840
##धारोपण	8841
डीजे	8842
श्रीम	8843
कप्तानी	8844
संभाला	8845
सहयोगियों	8846
पौधारोपण	8847
इलेक्शन	8848
खुली	8849
खुलने	8850
##लेश्वर	8851
क़रीब	8852
हाइवे	8853
निर्माता	8854
जर्मनी	8855
निस्तारण	8856
मॉनिटरिंग	8857
पीडब्ल्यूडी	8858
खुर	8859
फू	8860
भंवर	8861
सत्	8862
##ाध्यक्ष	8863
##हाना	8864
##नो	8865
##दयाल	8866
##hone	8867
##ौनी	8868
राउ	8869
महल	8870
##ल्ले	8871
##स्तों	8872
बिट्टू	8873
कमान	8874
##ुतोष	8875
मीरा	8876
संगीता	8877
पंचांग	8878
पेटी	8879
प्रसन्न	8880
संचालकों	8881
##र्शियल	8882
रिक्त	8883
भेजकर	8884
गणतंत्र	8885
लखी	8886
##र्निंग	8887
वार्डों	8888
समाचार	8889
फास्ट	8890
कांवड़	8891
झाड़	8892
नगरी	8893
प्लाजा	8894
महेंद्रगढ़	8895
पदार्थों	8896
आंगनबाड़ी	8897
जनप्रतिनिधियों	8898
कॉमर्स	8899
##जोत	8900
तत्वों	8901
दानापुर	8902
जेवरात	8903
pr	8904
अड	8905
उग्र	8906
झंडा	8907
मूर्	8908
मादक	8909
शेट	8910
##षक	8911
##um	8912
सेम	8913
इसने	8914
##त्रु	8915
साड़ी	8916
एकमात्र	8917
महंगा	8918
##देशक	8919
जानता	8920
##णाधीन	8921
रामलीला	8922
आगमन	8923
चलाकर	8924
वैभव	8925
##ष्ठा	8926
भरकर	8927
खाकर	8928
निशाने	8929
आशुतोष	8930
##ियारपुर	8931
कैमरों	8932
##कलन	8933
समीकरण	8934
प्रतापगढ़	8935
मुहैया	8936
एसीपी	8937
स्ट्राइक	8938
नीलम	8939
##वैधानिक	8940
चैलेंज	8941
झुंझुनूं	8942
महिंद्रा	8943
इजाफा	8944
we	8945
कबीर	8946
गड	8947
डरा	8948
नाला	8949
लता	8950
##गित	8951
##जनी	8952
##कल्प	8953
कोहरा	8954
##ित्री	8955
##्यांकन	8956
देनी	8957
निवार	8958
##्तों	8959
बैटिंग	8960
उपर	8961
अभद्र	8962
कपड़ों	8963
2010	8964
आमंत्रित	8965
2005	8966
शाहिद	8967
परेशानियों	8968
परिवर्त	8969
पोलिंग	8970
मेहमान	8971
निर्मल	8972
चार्जिंग	8973
फुटबॉल	8974
आकर्षित	8975
दादरी	8976
इलेक्ट्रॉनिक	8977
परिचालन	8978
खिताब	8979
अख्त	8980
चचे	8981
तां	8982
रश्म	8983
सलीम	8984
##लत	8985
##कूट	8986
##कॉम	8987
##मो	8988
##भूत	8989
##ोंग	8990
विफल	8991
दीदी	8992
वर्दी	8993
##ूराम	8994
आईपीएस	8995
110	8996
बंदूक	8997
भगवंत	8998
फरिया	8999
##णीय	9000
मंडला	9001
सैफ	9002
पारस	9003
शिना	9004
मॉड	9005
प्रकाशित	9006
एसडीपीओ	9007
बर्दाश्त	9008
घुसपै	9009
एग्जिट	9010
गतिविधियां	9011
निर्माणाधीन	9012
वाइस	9013
झूठे	9014
शिवाजी	9015
बठिंडा	9016
घुसपैठ	9017
घबरा	9018
झील	9019
दाह	9020
दोगु	9021
पेंड	9022
मीन	9023
हत	9024
##हू	9025
##दु	9026
##एप	9027
##चू	9028
##aj	9029
##याम	9030
कोविड	9031
होल	9032
साक्षी	9033
संल	9034
दोहरा	9035
रखेंगे	9036
पुस्तक	9037
राज्यमंत्री	9038
सीएमएचओ	9039
माहेश्वरी	9040
वारंट	9041
अंतर्राष्ट्रीय	9042
##फिकेशन	9043
विचारधारा	9044
सिद्धांत	9045
द्विवेदी	9046
जबरदस्ती	9047
ठिकानों	9048
डेमोक	9049
बैंकों	9050
मजाक	9051
दस्तावेजों	9052
बलात्कार	9053
कंड	9054
कड़े	9055
खट	9056
ताइ	9057
दांव	9058
दवाइ	9059
मऊ	9060
लाना	9061
शिप	9062
##ब्रे	9063
##तोड़	9064
##डनी	9065
##खों	9066
##ैच	9067
##िकरण	9068
सम्	9069
##क्ष्मी	9070
सीरिया	9071
##ष्कार	9072
बेल्ट	9073
पाता	9074
बुलाई	9075
बुझाने	9076
प्रदेशाध्यक्ष	9077
##ंसू	9078
कपड़ा	9079
मज़	9080
बॉस	9081
संपूर्ण	9082
गैंगरेप	9083
टूटने	9084
##ट्‌टी	9085
दिग्विजय	9086
बढ़ेगी	9087
मेघवाल	9088
सीताराम	9089
बेरोजगारी	9090
झुलस	9091
मल्लिक	9092
फिसल	9093
सोसायटी	9094
धौलपुर	9095
ap	9096
ऑयल	9097
ओला	9098
कट्टा	9099
घात	9100
चारा	9101
भटक	9102
भैया	9103
##वला	9104
##10	9105
##घरों	9106
##्रार	9107
कोठी	9108
स्मार	9109
निभ	9110
##त्तियों	9111
महानगर	9112
##हराम	9113
पहुंचेंगे	9114
##वेन्यू	9115
##डीसी	9116
देखरेख	9117
रामा	9118
मानक	9119
##प्ट	9120
स्पेस	9121
आमतौर	9122
उद्यम	9123
व्याख्या	9124
नौसेना	9125
बनेगी	9126
चीख	9127
2004	9128
निकलकर	9129
पाएगा	9130
##नेश्वर	9131
मूंग	9132
##esh	9133
साधना	9134
सोनीपत	9135
प्रोड्यू	9136
वेस्टइंडीज	9137
पर्ची	9138
बौद्ध	9139
हस्तक्षेप	9140
हिंदुस्तान	9141
अवधेश	9142
विराजमान	9143
ब्रिटिश	9144
कार्मिक	9145
ट्रांसफार्मर	9146
आलू	9147
चप्प	9148
धूल	9149
नड्डा	9150
मच्छ	9151
मिज	9152
##ख्ता	9153
##मनी	9154
कोहरे	9155
सेग	9156
##नाई	9157
राख	9158
मुंडा	9159
बताकर	9160
बताती	9161
राजनाथ	9162
##ल्ली	9163
पीटीआई	9164
बैज	9165
स्टाइल	9166
कॉरि	9167
##कर्ताओं	9168
हेरो	9169
सचिवालय	9170
दुनियाभर	9171
##est	9172
##ताहिक	9173
रिश्तेदारों	9174
रॉयल	9175
काउंटर	9176
नतीजा	9177
धारदार	9178
पंजीयन	9179
घटकर	9180
##द्योगिकी	9181
तूफान	9182
फतेहपुर	9183
कोयला	9184
म्यूजिक	9185
##िंटन	9186
नहाने	9187
वृंदावन	9188
se	9189
आैर	9190
जया	9191
टु	9192
शंभ	9193
##लि	9194
##जुए	9195
##ंबा	9196
##एगा	9197
##पूर	9198
##tt	9199
प्रह	9200
विवरण	9201
साप्	9202
एकल	9203
सुध	9204
अनदे	9205
##मीन	9206
जानवरों	9207
##ांचल	9208
कमर	9209
##डीओ	9210
कहे	9211
वेडिंग	9212
कॉम्	9213
रखती	9214
गुड	9215
बसंत	9216
##ांडा	9217
पुरोहित	9218
साहिल	9219
...'	9220
जितनी	9221
ठेका	9222
पटियाला	9223
धोनी	9224
वकीलों	9225
बूथों	9226
भरोसे	9227
अश्विनी	9228
ग़ज़ा	9229
इरफान	9230
घनश्याम	9231
वॉट्सऐप	9232
हृदय	9233
मियां	9234
शत	9235
हू	9236
हरे	9237
##होर	9238
##वर्ष	9239
##्वि	9240
##ंठ	9241
##पाली	9242
##िएट	9243
##रात्रि	9244
मुन	9245
##पीसी	9246
##िशंकर	9247
##स्तौल	9248
##द्वार	9249
कार्यपाल	9250
बनाता	9251
सहार	9252
पढ़ा	9253
स्वाति	9254
योजनाएं	9255
राहगी	9256
सितम्बर	9257
##डेजा	9258
संविदा	9259
बंधन	9260
टॉस	9261
सोनाक्षी	9262
रिलायंस	9263
अनुमंडल	9264
प्रोफेशन	9265
निचले	9266
ध्रुव	9267
मैरिज	9268
कॉरिडोर	9269
हेरोइन	9270
साप्ताहिक	9271
co	9272
ऋण	9273
कतार	9274
खैर	9275
छपरा	9276
तुर्	9277
बची	9278
हौ	9279
हवन	9280
##हट	9281
##ुसार	9282
##़ा	9283
##शिंग	9284
##47	9285
##ॉर	9286
##ढे	9287
केदार	9288
कालोनी	9289
##ामे	9290
##ायन	9291
मुर्म	9292
मेजब	9293
बैन	9294
पिस्तौल	9295
इंटेल	9296
##क्सो	9297
गुस्से	9298
डिस्क	9299
शिक्षण	9300
क्रिस	9301
बांट	9302
निर्देशक	9303
पुरा	9304
सकेगी	9305
विकेटकी	9306
लोकेश	9307
##ादाबाद	9308
##्युनि	9309
नागपुर	9310
प्रतिष्ठित	9311
खोजबीन	9312
गीतों	9313
भंडार	9314
आराधना	9315
विपिन	9316
सेल्फी	9317
त्याग	9318
हेल्पलाइन	9319
पीयूष	9320
पाटीदार	9321
प्रवर्तन	9322
खां	9323
खाई	9324
जले	9325
मॉल	9326
रमन	9327
शत्रु	9328
##उंस	9329
##ud	9330
कीर्ति	9331
काटा	9332
प्रेशर	9333
##गाई	9334
अपार्टमेंट	9335
बेन	9336
दूसरों	9337
आयकर	9338
##एसएल	9339
फैन	9340
मार्क	9341
##ख्यात	9342
डेरा	9343
संतों	9344
धमक	9345
तिमाही	9346
नागरिकता	9347
फ्रॉड	9348
प्रिंट	9349
सिद्धू	9350
मुरादाबाद	9351
सीतामढ़ी	9352
भड़क	9353
धीरज	9354
ब्लास्ट	9355
कागजात	9356
अत्यंत	9357
शूटर	9358
एकेडमी	9359
फेस्टिवल	9360
खनिज	9361
सहरसा	9362
सीवरेज	9363
प्रौद्योगिकी	9364
राहगीरों	9365
चूर	9366
जडेजा	9367
तर्ज	9368
श्वे	9369
##भान	9370
##he	9371
##ामक	9372
बाउंड	9373
जाओ	9374
संदर्	9375
##मावत	9376
##ाइजी	9377
##ल्व	9378
##ुपयोग	9379
##वेदी	9380
निर्व	9381
द्वि	9382
द्वीप	9383
नामों	9384
विक्रे	9385
शिवलिंग	9386
प्रदोष	9387
हाथियों	9388
कराते	9389
रजनी	9390
##ind	9391
जालोर	9392
सुपरस्टार	9393
बाइडन	9394
##स्थापित	9395
गजेंद्र	9396
दायित्व	9397
मिथुन	9398
रिलेशन	9399
##दर्शी	9400
ड्रग्स	9401
श्रृंगार	9402
राघव	9403
ओटीटी	9404
दिलचस्प	9405
अधिसूचना	9406
सेगमेंट	9407
खि	9408
घसी	9409
जेट	9410
लाह	9411
वां	9412
##लें	9413
कास	9414
##तिथि	9415
##सेवक	9416
समग्र	9417
समुद	9418
सीमेंट	9419
##्वयन	9420
सोह	9421
पाटिल	9422
सरकारों	9423
सूर्या	9424
पैकेट	9425
पैकेज	9426
जगद	9427
आरएसएस	9428
##ष्ठान	9429
फीचर	9430
सीएमओ	9431
रिफ	9432
धमका	9433
प्लस	9434
##ुर्द	9435
याचिकाकर्ता	9436
कबूल	9437
पर्यवे	9438
उतरने	9439
नियंत्रित	9440
##पीएससी	9441
चार्जशीट	9442
इकबाल	9443
इसराइली	9444
नजदीकी	9445
चक्रवा	9446
योगा	9447
नमाज	9448
थिएटर	9449
अरुणाचल	9450
श्वेता	9451
संदर्भ	9452
समुद्री	9453
कुरु	9454
खेर	9455
पाय	9456
बिन	9457
हांसी	9458
हज़ार	9459
##न्या	9460
##यर्स	9461
##श्रे	9462
##दड़	9463
##णवी	9464
##ck	9465
##र्चित	9466
सेक्शन	9467
काफ़ी	9468
##स्स	9469
##लेव	9470
##लेशन	9471
##रीत	9472
उन्न	9473
संचार	9474
संजू	9475
मुस्त	9476
सीएस	9477
##ल्हा	9478
##स्थी	9479
स्थगित	9480
इनसे	9481
उपज	9482
जनगणना	9483
बुखार	9484
रखवाया	9485
पुस्त	9486
इलाक़	9487
प्रशंसा	9488
उमर	9489
विवादों	9490
संतु	9491
नोटिफिकेशन	9492
रुचि	9493
मूल्यांकन	9494
तस्वीरों	9495
मोहनलाल	9496
गुरू	9497
बांधकर	9498
##चुअल	9499
हिस्सेदारी	9500
एडीएम	9501
रणनीतिक	9502
कोरबा	9503
बांसवाड़ा	9504
यूरोप	9505
##ather	9506
भैंस	9507
डूंगरपुर	9508
किस्मत	9509
अख्तर	9510
is	9511
एएन	9512
झड़	9513
मकर	9514
##बर्ग	9515
##ूंगी	9516
काब	9517
पराम	9518
समीर	9519
##ायुक्त	9520
##ादर	9521
राजसमंद	9522
मिलन	9523
सरेंडर	9524
##स्पति	9525
मुख्तार	9526
हिस्ट्री	9527
ग्रह	9528
भाटी	9529
चौथा	9530
कांग्रेसी	9531
1500	9532
सुनते	9533
पेड़ों	9534
दिखने	9535
सैय	9536
जमीनी	9537
##ाटक	9538
उपलक्ष्य	9539
फेडरेशन	9540
छापा	9541
निर्वाचित	9542
हाउसिंग	9543
उत्पादों	9544
खोलकर	9545
चिकित्सालय	9546
##सुनी	9547
जाटव	9548
नीलामी	9549
पहनकर	9550
अमीर	9551
ठहराया	9552
अधिग्रहण	9553
रत्न	9554
##ोर्टर	9555
ब्लैकम	9556
एहसास	9557
पैसेंजर	9558
weather	9559
डेमोक्रेट	9560
उतरी	9561
गाजीपुर	9562
लहरा	9563
वरीय	9564
##ाफ्ट	9565
##तियां	9566
##एगी	9567
##ष्म	9568
सेरे	9569
कागज	9570
##तांत्रिक	9571
परमार	9572
##लाद	9573
##ुराम	9574
साधारण	9575
##ंदगांव	9576
##माता	9577
सुचार	9578
बैर	9579
टीका	9580
पाउ	9581
विक्ष	9582
##आईपी	9583
रेन	9584
##बाबू	9585
महाकु	9586
निर्देशों	9587
वैध	9588
##तमंद	9589
बजरी	9590
मार्गों	9591
ब्लू	9592
गोलीबारी	9593
घुसे	9594
##िक्रमा	9595
धीमी	9596
पहलुओं	9597
बुलंद	9598
पड़ोसियों	9599
अभिभावकों	9600
नवनि	9601
अंबिकापुर	9602
शेट्टी	9603
परिवर्तित	9604
शिनाख्त	9605
इंटेलिज	9606
com	9607
mar	9608
आड	9609
आला	9610
आकार	9611
क्रे	9612
##बानी	9613
##धू	9614
##सनी	9615
##णिज	9616
##ॉर्क	9617
##ड़ने	9618
होल्ड	9619
राइट	9620
निफ्टी	9621
मुंग	9622
##काव	9623
राजना	9624
##ानाबाद	9625
##ोजित	9626
मैथ	9627
स्टडी	9628
##र्सन	9629
गोवर्धन	9630
पैन	9631
ऑफिशियल	9632
हेमा	9633
दीपेंद्र	9634
बदलकर	9635
##फेयर	9636
मॉर्च	9637
प्रेसि	9638
मनीषा	9639
दवाओं	9640
डोडा	9641
##कांक्षा	9642
मवेशी	9643
ऑपरेटर	9644
चतुर्वेदी	9645
दंपती	9646
प्रमोशन	9647
अती	9648
खै	9649
खदान	9650
चिट्	9651
टें	9652
नाना	9653
वॉक	9654
##ब्स	9655
##खाना	9656
##स्य	9657
##णाल	9658
परंतु	9659
##क्व	9660
प्रिया	9661
##वायर	9662
कुम	9663
##वेव	9664
कमरा	9665
बनता	9666
लग्	9667
भाग्य	9668
##मिकल	9669
पंचायती	9670
पांचवें	9671
##बाजार	9672
सदस्यीय	9673
गणित	9674
बोलेरो	9675
फ्रेंच	9676
##ase	9677
मालिकों	9678
दशकों	9679
भोजपुर	9680
बुजुर्गों	9681
आतंकवादी	9682
डिपो	9683
आखिरकार	9684
जसप्रीत	9685
हितों	9686
कचरे	9687
तृणम	9688
सिनेमाघरों	9689
घाटी	9690
तेंदुए	9691
विपरीत	9692
आतिशी	9693
अत्यधिक	9694
लिहाज	9695
डाउनलोड	9696
शिशु	9697
अकादमी	9698
कामकाज	9699
गूंज	9700
बाउंड्री	9701
ब्लैकमेल	9702
तृणमूल	9703
अखंड	9704
छोट	9705
जत्	9706
झांक	9707
टायर	9708
नमी	9709
बान	9710
मुल	9711
वीक	9712
##ोव	9713
##बान	9714
##शय	9715
##शियल	9716
##ैक्चर	9717
##ईडी	9718
कोठ	9719
प्रकट	9720
स्त	9721
लेफ्ट	9722
टीचर्स	9723
##न्ने	9724
सबका	9725
बहि	9726
एसके	9727
करीना	9728
एनर्जी	9729
##समैन	9730
##िज्म	9731
पहुंचीं	9732
इमाम	9733
रजिस्टर	9734
न्यूय	9735
##डेन	9736
##िडेंट	9737
लैस	9738
पहाड़	9739
भावनाओं	9740
आतंकियों	9741
विभाजन	9742
दर्दनाक	9743
वैज्ञानिकों	9744
अथवा	9745
##ोमणि	9746
सीतारमण	9747
रोमांच	9748
मायावती	9749
धमाके	9750
शारदा	9751
##कुमारी	9752
अपनाने	9753
बेनीवाल	9754
मल्लिकार्जुन	9755
राजनांदगांव	9756
ट्वि	9757
थै	9758
पॉप	9759
फिन	9760
भगा	9761
मन्न	9762
हजारी	9763
##जेशन	9764
##बु	9765
##fi	9766
सेवक	9767
##क्ख	9768
प्रस्थान	9769
##वाड	9770
बाएं	9771
##तेश	9772
##सीए	9773
सुक	9774
बारह	9775
कैंसिल	9776
बनते	9777
रामेश्वर	9778
उत्तम	9779
भारतीयों	9780
रिपोर्टर	9781
वैदिक	9782
वैशाली	9783
बजाज	9784
##रिकेड	9785
गायन	9786
बूंदा	9787
सभापति	9788
सिकंदर	9789
##खेड़ी	9790
अनुपम	9791
##ानुमान	9792
पंजीकरण	9793
मंजूर	9794
वोटरों	9795
आतिश	9796
हेलमेट	9797
हीटवेव	9798
प्रतिबद्धता	9799
उन्‍होंने	9800
नूंह	9801
सब्सिडी	9802
इकलौ	9803
तुर्की	9804
##णिज्य	9805
आंतर	9806
ओझा	9807
तख्त	9808
नसी	9809
फूट	9810
लक्षण	9811
वंश	9812
शर्	9813
हज	9814
##गना	9815
##ोभ	9816
##ोन्न	9817
##जिस्ट	9818
##पचारिक	9819
##चुरी	9820
केक	9821
केसर	9822
परा	9823
पराली	9824
##रीबी	9825
##कास्ट	9826
महानि	9827
जानबूझ	9828
जीजा	9829
पाण्ड	9830
सूबे	9831
हिंसक	9832
गोला	9833
नाकाब	9834
लोकार्पण	9835
पूर्वानुमान	9836
आयात	9837
##्रास्ट्र	9838
मोहाली	9839
देवताओं	9840
अहिर	9841
लाइब्रे	9842
##कमिंग	9843
रजिस्टर्ड	9844
नागौर	9845
दामाद	9846
शेखपुरा	9847
टाइम्स	9848
उतारने	9849
upd	9850
भूपेश	9851
फतेहाबाद	9852
रसोई	9853
आपत्तिजनक	9854
and	9855
निकायों	9856
चिन्हित	9857
##प्लेक्स	9858
उछाल	9859
ख्याल	9860
प्वाइंट	9861
गडकरी	9862
##श्रेष्ठ	9863
परामर्श	9864
आंतरिक	9865
आंसू	9866
चो	9867
चित	9868
छत्र	9869
नदियों	9870
फड	9871
फाटक	9872
बबल	9873
यहाँ	9874
शिम	9875
शॉट	9876
##रपुर	9877
##ूण	9878
काउंट	9879
##लेरिया	9880
निवासियों	9881
अन्त	9882
चुप्पी	9883
बीघा	9884
##किम	9885
जीरो	9886
कम्युनि	9887
ग्रंथ	9888
उठाना	9889
कलां	9890
अफरा	9891
समझाने	9892
छोड़ी	9893
बलौदा	9894
विवादित	9895
मकानों	9896
ड्राइव	9897
450	9898
##सायिक	9899
सपने	9900
मुरली	9901
हराकर	9902
इस्तीफे	9903
घेरा	9904
एडमिट	9905
बीएसएफ	9906
गहराई	9907
धीरेंद्र	9908
समन्वयक	9909
गिफ्ट	9910
दृश्य	9911
शिरोमणि	9912
फटकार	9913
बर्फबारी	9914
सोयाबीन	9915
मिर्जापुर	9916
आध्यात्म	9917
इंटेलिजेंस	9918
नाकाबंदी	9919
अष्टमी	9920
कटे	9921
छतर	9922
जौन	9923
ढोल	9924
नमन	9925
फाल	9926
फंदा	9927
वॉल	9928
शम	9929
सद्	9930
हनी	9931
##गड़ी	9932
##व्र	9933
##थुर	9934
प्राय	9935
अधू	9936
सीवान	9937
##ष्क	9938
इनको	9939
गोता	9940
डीलर	9941
लीजिए	9942
आरक्षित	9943
वैल	9944
गर्ल्स	9945
व्यवस्थाओं	9946
धर्मशाला	9947
नवजात	9948
##िगो	9949
हटाकर	9950
घाटों	9951
उद्योगों	9952
मेरिट	9953
##वायु	9954
ओपनिंग	9955
इंद्रजीत	9956
गिरिडीह	9957
सेकेंडरी	9958
पितृ	9959
व्यावसायिक	9960
खूबसूरत	9961
फेमस	9962
नानक	9963
##णवीस	9964
एंटर	9965
क्ले	9966
चंबल	9967
दस्त	9968
##गार्ड	9969
##णे	9970
##hp	9971
##og	9972
##ँच	9973
कीं	9974
##क्लेव	9975
रहेंगी	9976
अपकमिंग	9977
दीजिए	9978
मोति	9979
बेचा	9980
##द्व	9981
लाड	9982
दूंगा	9983
भाभी	9984
नाट	9985
अगला	9986
दिग	9987
डीआईजी	9988
जहानाबाद	9989
मांगें	9990
तीज	9991
##आरती	9992
टेस्‍ट	9993
जलवायु	9994
भरपूर	9995
लौटी	9996
आश्व	9997
##र्पियो	9998
जागरण	9999
neet	10000
तुम्हें	10001
माधव	10002
ध्वस्त	10003
जंगली	10004
सशस्त्र	10005
##ोत्तर	10006
##क्यूमेंट	10007
##ोग्राफी	10008
शैलेंद्र	10009
फ़िल्म	10010
स्रोत	10011
अपेक्षा	10012
चालीसा	10013
सहारनपुर	10014
फडणवीस	10015
pol	10016
आवारा	10017
कों	10018
कारी	10019
नन	10020
भाल	10021
##गठ	10022
##बनी	10023
##कॉप्टर	10024
##विश्वास	10025
##फुल	10026
##ैश	10027
##na	10028
##नेट	10029
नेत्र	10030
##हाग	10031
##ियर्स	10032
##राउंड	10033
समिट	10034
पूंजी	10035
सुधा	10036
अनिश्चित	10037
##जेक्ट	10038
कमाने	10039
अंकुश	10040
डॉक्यूमेंट	10041
गिरे	10042
नाक	10043
गुड़	10044
बदली	10045
मानने	10046
भगदड़	10047
तरफ़	10048
अवसरों	10049
##वाहक	10050
ताबड़	10051
##ांकित	10052
विचारों	10053
भूख	10054
जिंदल	10055
रजिस्ट्रार	10056
ग्रेजुए	10057
बढ़ेगा	10058
संभालने	10059
ढाका	10060
पुतला	10061
व्हील	10062
जनप्रतिनिधि	10063
टुकड़े	10064
प्रधानाचार्य	10065
मुनाफा	10066
प्राइमरी	10067
ज़रूरत	10068
अनुकूल	10069
डकैती	10070
निवारण	10071
महाकुंभ	10072
बहिष्कार	10073
ताबड़तोड़	10074
900	10075
औष	10076
कृत	10077
घटा	10078
झज्जर	10079
टेल	10080
डीन	10081
माप	10082
यानि	10083
##कला	10084
##वर्ड	10085
##्वा	10086
##शेष	10087
केबल	10088
##ान्यास	10089
परिक्रमा	10090
सिग्न	10091
जानवर	10092
उपेंद्र	10093
आपसे	10094
मातृ	10095
नाबाद	10096
नाकाम	10097
मतों	10098
##च्छेद	10099
शेखर	10100
दरों	10101
##ank	10102
कानूनों	10103
मालवा	10104
नौज	10105
मिनी	10106
कार्यालयों	10107
वाणिज्य	10108
##ation	10109
रंगदारी	10110
किसने	10111
महाराजा	10112
अर्घ	10113
विमानों	10114
इन्फ	10115
सावित्री	10116
शिलान्यास	10117
समृद्ध	10118
मौलाना	10119
ज्वेलरी	10120
स्टोरेज	10121
##ष्टीकरण	10122
यूट्यूब	10123
ढांचे	10124
कॉलोनियों	10125
बूंदाबां	10126
##्रास्ट्रक्चर	10127
at	10128
आएं	10129
जौ	10130
जड़	10131
टंडन	10132
ठप	10133
नाह	10134
नवी	10135
नाली	10136
पर्चा	10137
भूत	10138
रोट	10139
##रथ	10140
##ोत्रा	10141
##ोरेट	10142
##िटे	10143
##काय	10144
##ंकिंग	10145
##ओयू	10146
##पोल	10147
लेटेस्ट	10148
बीपी	10149
जोश	10150
बेका	10151
बैडम	10152
टीएमसी	10153
इनकम	10154
बिता	10155
पिंड	10156
पावन	10157
रुपया	10158
रोटी	10159
जुन	10160
रामनिवास	10161
रेग	10162
महाप्र	10163
एनजी	10164
दरगाह	10165
एमजी	10166
##कालिक	10167
साहस	10168
असाम	10169
बंगले	10170
##ala	10171
प्राइस	10172
साधु	10173
फ्लाईओ	10174
बुलाने	10175
अनुपमा	10176
हेलिक	10177
स्थिरता	10178
मवेशियों	10179
डायवर्ट	10180
नॉर्थ	10181
##पंथी	10182
कंटेनर	10183
दुरुपयोग	10184
स्मारक	10185
विकेटकीपर	10186
मुंगेर	10187
जौनपुर	10188
बूंदाबांदी	10189
फ्लाईओवर	10190
एस्ट	10191
खेम	10192
दार	10193
नक्	10194
##किश	10195
##ण्	10196
##भुत	10197
##थला	10198
##mc	10199
##ment	10200
कोल्ड	10201
कोहराम	10202
कांस	10203
काजल	10204
##्यर	10205
विद्र	10206
सिद्धि	10207
कुश्ती	10208
कहासुनी	10209
##रोपण	10210
बेतिया	10211
पीर	10212
घरवालों	10213
बनारस	10214
गोपी	10215
यूथ	10216
बरस	10217
उठाई	10218
प्रभार	10219
पोस्टिंग	10220
##राज्य	10221
पकड़ी	10222
160	10223
नवमी	10224
तिहा	10225
पड़ेगी	10226
आत्मनि	10227
डाटा	10228
दमदार	10229
संबोधन	10230
डायरेक्ट	10231
उड़ाने	10232
समूहों	10233
रिश्तों	10234
तालिब	10235
प्रोत्साहन	10236
गिरिराज	10237
बगैर	10238
टर्मिनल	10239
कुत्तों	10240
अखबार	10241
फिटनेस	10242
श्रमिकों	10243
बरतने	10244
हेलीकॉप्टर	10245
पेंटिंग	10246
झड़प	10247
सेरेमनी	10248
बेकाबू	10249
हेलिकॉप्टर	10250
उमा	10251
दस्तक	10252
प्याज	10253
सटीक	10254
##ीकरण	10255
##ेली	10256
##ुस	10257
##दायत	10258
##ies	10259
##वाड़े	10260
मुर्	10261
सिरो	10262
सिरे	10263
राजभ	10264
जानकी	10265
बनाम	10266
गिरफ़	10267
एसआईटी	10268
नाच	10269
अलमारी	10270
##देवी	10271
एनआई	10272
दिव्य	10273
##शाही	10274
गर्भ	10275
देवता	10276
बनाएंगे	10277
दिसम्बर	10278
जरूरतमंद	10279
##एफओ	10280
बंगला	10281
##रलैंड	10282
खुलासे	10283
लूटपाट	10284
गुरप्रीत	10285
5000	10286
पुरुषोत्तम	10287
ऊंची	10288
कुशवाह	10289
सावधानी	10290
बृजेश	10291
अल्पसंख्यकों	10292
पौधरोपण	10293
खंगाल	10294
फिरोजपुर	10295
वस्तु	10296
मनोरंजन	10297
परीक्षार्थी	10298
इजाज	10299
सॉफ्टवेयर	10300
गर्लफ्रेंड	10301
कर्तव्य	10302
मुर्मू	10303
आतिशबाजी	10304
आध्यात्मिक	10305
बैडमिंटन	10306
इस्	10307
ग्ल	10308
डब	10309
भजनों	10310
रील	10311
##हु	10312
##यिक	10313
##ओसी	10314
##्यै	10315
जातक	10316
सम्ब	10317
##ोगे	10318
टीबी	10319
बनाती	10320
शुरु	10321
हिदायत	10322
सहनी	10323
सहारे	10324
प्रातः	10325
विदिशा	10326
पूछने	10327
उद्यान	10328
सौदा	10329
नरसिंह	10330
समझाइश	10331
खुदाई	10332
बचाई	10333
एडवाइ	10334
यूपीएससी	10335
मुक़	10336
##ंखला	10337
निभाया	10338
हरिद्वार	10339
##ब्राह	10340
वासियों	10341
गवर्नर	10342
आईएमडी	10343
खड़गे	10344
कुरुक्षेत्र	10345
प्रेसिडेंट	10346
न्यूयॉर्क	10347
बबलू	10348
",	10349
अफी	10350
आगा	10351
आकलन	10352
ऑर	10353
खौफ	10354
छक्के	10355
जटिल	10356
टच	10357
डंडों	10358
##ेंशियल	10359
बाजी	10360
##राष्ट्र	10361
##िविटी	10362
हमलोग	10363
##ेलवाल	10364
बनाएं	10365
पार्थ	10366
जनहित	10367
वेरि	10368
जुआ	10369
बहराइ	10370
स्कैन	10371
लोकतांत्रिक	10372
मिलीं	10373
ट्रेनी	10374
गर्दन	10375
बचत	10376
##पूर्ति	10377
कटारिया	10378
सर्वश्रेष्ठ	10379
वासी	10380
जन्मोत्सव	10381
कांके	10382
जॉर्ज	10383
##भारत	10384
बेटियां	10385
##गोपाल	10386
जनसंप	10387
कस्बा	10388
बिगड़ने	10389
फरीद	10390
कच्चे	10391
लिहाजा	10392
समितियों	10393
एसओजी	10394
लग्जरी	10395
अहिरवार	10396
बहराइच	10397
खाट	10398
ताले	10399
धरा	10400
फेर	10401
##24	10402
##मोल	10403
##if	10404
##gp	10405
करवाना	10406
संयोग	10407
संवैधानिक	10408
##पीय	10409
सीज	10410
सीम	10411
सीहोर	10412
##कारो	10413
##दाताओं	10414
सरल	10415
बैरिकेड	10416
बिस्	10417
उपवास	10418
स्टॉल	10419
एसएमएस	10420
नींव	10421
विधिव	10422
मील	10423
माले	10424
समझते	10425
प्लेस	10426
त्रिवेदी	10427
पंड्या	10428
उतना	10429
चरित्र	10430
##ist	10431
iphone	10432
मायने	10433
परमिशन	10434
बेटों	10435
##ब्रिज	10436
अंदाजा	10437
##ड्ढा	10438
बिरला	10439
गुमश	10440
एनसीआर	10441
फाइटर	10442
नीमच	10443
सत्तार	10444
अफीम	10445
जनसंपर्क	10446
no	10447
ro	10448
अंध	10449
इब्राह	10450
छलांग	10451
झंडी	10452
झोप	10453
धुआं	10454
रंगे	10455
सरे	10456
##ोही	10457
##ोदा	10458
##एआई	10459
##ep	10460
##ईसी	10461
किडन	10462
##्युरी	10463
प्रार	10464
##ड़ाई	10465
##वाट	10466
##िनार	10467
##्याय	10468
एकनाथ	10469
देन	10470
राजपुर	10471
महुआ	10472
##भीत	10473
जोकि	10474
भाटिया	10475
चौके	10476
पैरा	10477
##जहां	10478
दिवंगत	10479
दुर्भाग्य	10480
हॉट	10481
निकलते	10482
असद	10483
##ुदगी	10484
आवक	10485
ड्राइविंग	10486
सिक्स	10487
चाबी	10488
टास्क	10489
समुदायों	10490
सप्त	10491
अकेला	10492
अग्निश	10493
ऑलराउंड	10494
महापर्व	10495
गेम्स	10496
विमर्श	10497
रिव्यू	10498
##ग्राउंड	10499
बेरहमी	10500
अंधेरे	10501
तथ्य	10502
मल्होत्रा	10503
खिड़की	10504
##चूड़	10505
संलिप्त	10506
गुमशुदगी	10507
for	10508
ka	10509
एंगल	10510
दुरु	10511
निया	10512
नारी	10513
फर्क	10514
मर्च	10515
##ग़	10516
##लभ	10517
##जु	10518
##बोध	10519
##ेक्स	10520
किस्सा	10521
काफ	10522
##ालियन	10523
##िक्	10524
बाबर	10525
लेगी	10526
सिंगा	10527
##त्‍	10528
##ार्स	10529
बीबी	10530
##्वित	10531
इनपुट	10532
मुखर्जी	10533
बहाली	10534
ट्रां	10535
नाका	10536
आएंगी	10537
वोटर्स	10538
गौशाला	10539
जताते	10540
रीना	10541
मंथन	10542
कारोबारियों	10543
लॉन्‍च	10544
फ्लैग	10545
टूटे	10546
ग्रेटर	10547
गुजरने	10548
सीतापुर	10549
अल्लू	10550
पीएचडी	10551
व्हाइट	10552
दुश्मन	10553
तबादला	10554
अद्भुत	10555
बलिदान	10556
asi	10557
रेवन्ना	10558
स्कॉर्पियो	10559
गालियां	10560
फरियादी	10561
लाइब्रेरी	10562
मोतिहारी	10563
ba	10564
गगन	10565
चुर	10566
डिस	10567
बृह	10568
बंटी	10569
भुल	10570
वक़	10571
##गान	10572
##शक्ति	10573
##परी	10574
##ैद	10575
##40	10576
किसे	10577
करन	10578
##स्की	10579
##क्षकों	10580
निशा	10581
सिग	10582
अनो	10583
##ाइज	10584
##मेंस	10585
मोक्ष	10586
##क्राफ्ट	10587
अंकों	10588
##वरिया	10589
बढ़ाना	10590
रोने	10591
मात	10592
माथुर	10593
शुरूआ	10594
अमल	10595
आईसीसी	10596
डिटे	10597
खुर्द	10598
श्रीनगर	10599
महाजन	10600
महाआरती	10601
##वादियों	10602
##ज्ञा	10603
##बूत	10604
वैक्सी	10605
कौशिक	10606
टैक्सी	10607
चंद्रचूड़	10608
फ़ी	10609
हटाए	10610
सूर्यकुमार	10611
गोपालगंज	10612
रुकने	10613
खरगे	10614
सब्ज	10615
पंजीकृत	10616
##कूला	10617
बाइडेन	10618
पलटवार	10619
पर्दे	10620
अकबर	10621
पॉइंट्स	10622
गवर्नमेंट	10623
रचनात्मक	10624
गाइडलाइन	10625
प्रकोष्ठ	10626
त्रिपुरा	10627
दर्शाता	10628
imd	10629
कूलर	10630
क़ानून	10631
झालावाड़	10632
कॉम्प्लेक्स	10633
जानबूझकर	10634
अर्घ्य	10635
इब्राहिम	10636
bo	10637
इनामी	10638
क्री	10639
टोट	10640
दिये	10641
नफर	10642
##टकर	10643
##िटर	10644
##खाने	10645
##निस	10646
##न्त	10647
##एसी	10648
##भद्र	10649
केके	10650
केमिकल	10651
रास्तों	10652
जातीय	10653
##ुली	10654
##सेवा	10655
मुकु	10656
##त्तर	10657
कुमावत	10658
राजे	10659
अनार	10660
##विदा	10661
क्षण	10662
दुष्य	10663
कॉम्प	10664
ट्रोल	10665
इंटी	10666
रामचंद्र	10667
पूर्वोत्तर	10668
रेणु	10669
फैली	10670
पढ़े	10671
इंडी	10672
एनिम	10673
बांका	10674
दावेद	10675
पंचकूला	10676
सिर्फ़	10677
रुका	10678
##मेस्टर	10679
भुव	10680
पर्वत	10681
पार्टियां	10682
पुनः	10683
इंडस्ट्रीज	10684
सर्विसेज	10685
##पटॉप	10686
छठे	10687
इंग्लिश	10688
सनसनी	10689
ध्वज	10690
मुजफ्फरनगर	10691
बेरोजगार	10692
फिजिकल	10693
##भूति	10694
कॉमेडी	10695
नारनौल	10696
शंभू	10697
अनदेखी	10698
दावेदारी	10699
औपचारिक	10700
चट	10701
झंडे	10702
नूर	10703
भवानी	10704
मठ	10705
##टकी	10706
##जिंदर	10707
##बरी	10708
##िटेज	10709
##दानी	10710
सेमेस्टर	10711
होट	10712
##सेट	10713
मुन्ना	10714
पूज	10715
##किता	10716
पीठा	10717
##ोरिया	10718
बनवाने	10719
##बीटी	10720
देशी	10721
फिरौती	10722
बोकारो	10723
मारुति	10724
आरजी	10725
शाहजहां	10726
सेंसर	10727
धनंजय	10728
फोटोज	10729
बिल्डर	10730
##ल्लभ	10731
##क्सीजन	10732
अंग्रेजों	10733
महाकालेश्वर	10734
जायेगी	10735
मोनू	10736
modi	10737
गोंडा	10738
हिरण	10739
अनुशासन	10740
भैरव	10741
हेरिटेज	10742
काउंटिंग	10743
ऑरेंज	10744
सिंगापुर	10745
दुष्यंत	10746
kar	10747
अर्श	10748
कूट	10749
कर्नल	10750
गंदा	10751
टाल	10752
टेंट	10753
त्य	10754
तले	10755
तफरी	10756
दया	10757
भूक	10758
रिंग	10759
वाक	10760
सटे	10761
सज्	10762
##ूठी	10763
##मक	10764
##ैनी	10765
##चेंज	10766
##od	10767
##तावास	10768
कारगिल	10769
मुस्	10770
मेवाड़	10771
स्थाई	10772
पीली	10773
लात	10774
चलें	10775
अनुच्छेद	10776
चौबे	10777
अवल	10778
जरिये	10779
वैश्य	10780
अररिया	10781
सौंद	10782
180	10783
लिखते	10784
लोधी	10785
हल्दी	10786
सुखबीर	10787
##end	10788
नवाब	10789
आईपीओ	10790
जुड़ने	10791
फोरेंसिक	10792
चिल्ला	10793
बुरहान	10794
सुल्तानपुर	10795
पॉलिटिकल	10796
ईमानदारी	10797
आडवाणी	10798
मॉर्च्युरी	10799
छतरपुर	10800
राजभवन	10801
sh	10802
उभर	10803
कसा	10804
कन्	10805
झटके	10806
ठंडा	10807
तंग	10808
लायक	10809
वसु	10810
सार्थ	10811
##ोहर	10812
##ंख्या	10813
##सरा	10814
##सतन	10815
##ps	10816
##घन	10817
कोटे	10818
##ांडी	10819
##वार्ड	10820
लेबर	10821
लेडी	10822
सीआरपी	10823
अनमोल	10824
##ीनगर	10825
पाक	10826
अनुबंध	10827
विश्राम	10828
अवश्य	10829
पुख्ता	10830
क्रियान	10831
##कर्ष	10832
विकासखंड	10833
संगत	10834
शादीशुदा	10835
डेविड	10836
##म्बे	10837
जवाबी	10838
कराएं	10839
##पक्षीय	10840
गायों	10841
ख़त्म	10842
कपूरथला	10843
पैरवी	10844
हनुमानगढ़	10845
प्लाट	10846
चरखी	10847
एपल	10848
प्रतिनिधिमंडल	10849
घेराब	10850
लेखक	10851
##लाइंस	10852
वादे	10853
आईटीआई	10854
मचाया	10855
मुआवजे	10856
गिरीश	10857
##वार्थ	10858
बटालियन	10859
कमांडर	10860
उपकरणों	10861
सैयद	10862
पाण्डेय	10863
##किशोर	10864
सिरोही	10865
विधिवत	10866
आश्च	10867
एपी	10868
औसतन	10869
गरि	10870
चूक	10871
झूम	10872
पक्का	10873
फत	10874
मम्मी	10875
मलेरिया	10876
वेश	10877
शर्ट	10878
शून	10879
##न्यास	10880
##57	10881
##द्य	10882
##ओल	10883
##उड	10884
##थाम	10885
##र्वा	10886
##हाड़े	10887
विद्	10888
स्वाद	10889
समर्पण	10890
हीरा	10891
बताता	10892
महाल	10893
##साफ	10894
मेहर	10895
पीआर	10896
वर्कर	10897
युक्त	10898
चलकर	10899
अनुष्ठान	10900
रामव	10901
प्रशास	10902
क्रांति	10903
स्पर्धा	10904
कृति	10905
दिखता	10906
खेलना	10907
गर्भग	10908
पांचों	10909
डालते	10910
क्लिन	10911
##िन्द्र	10912
ख़ान	10913
कब्र	10914
तेलु	10915
जंगलों	10916
1999	10917
पुष्कर	10918
बताना	10919
खरग	10920
जूते	10921
बालिकाओं	10922
चित्रकूट	10923
बाईपास	10924
लेनदेन	10925
##ive	10926
त्यागी	10927
फ़ैसला	10928
ट्यूब	10929
फिफ्टी	10930
अडानी	10931
निभाने	10932
दुरुस्त	10933
नफरत	10934
मुस्कान	10935
घेराबंदी	10936
आश्चर्य	10937
गर्भगृह	10938
icc	10939
उर्व	10940
कंच	10941
टेम	10942
दफ	10943
धड़	10944
धवन	10945
बकर	10946
बकरी	10947
रफी	10948
हकी	10949
##ोचन	10950
##ूद	10951
##डोल	10952
##िवा	10953
##मस	10954
##मिया	10955
##दंड	10956
##इयों	10957
##घ्न	10958
##‍स	10959
##ृता	10960
स्ली	10961
##ेश्याम	10962
##ंदाज	10963
मेजर	10964
पीपी	10965
दूतावास	10966
आये	10967
सूचक	10968
गोल्	10969
##यराम	10970
##र्डिंग	10971
रेख	10972
140	10973
##ग्गी	10974
पक्षियों	10975
अग्रिम	10976
टेस्टिंग	10977
फ्रेंड	10978
##ध्यापक	10979
मंचन	10980
स्टारर	10981
कूड़ा	10982
डिप्लो	10983
एचडी	10984
सियासत	10985
पर्दा	10986
नैतिक	10987
तेंदुआ	10988
जनजातीय	10989
बहुजन	10990
##........	10991
एनटीए	10992
आरपीएफ	10993
रिएक्शन	10994
आर्म्स	10995
चौरसिया	10996
डिब्बे	10997
पाउडर	10998
महानिदेशक	10999
गोताखोर	11000
तालिबान	11001
शून्य	11002
rss	11003
अनाव	11004
आंश	11005
आजीवन	11006
गंदे	11007
ज्‍या	11008
तौ	11009
नास	11010
पिला	11011
भ्रम	11012
सान	11013
िक	11014
##ोड़ा	11015
##बेर	11016
##व्या	11017
##यना	11018
##ॉक्स	11019
##ld	11020
किरो	11021
प्रच	11022
प्रांग	11023
##ायूं	11024
मुइ	11025
बीर	11026
बेला	11027
पीप	11028
पीसी	11029
परिस्थिति	11030
भागे	11031
चौड़ी	11032
गोवि	11033
मान्य	11034
आरंभ	11035
मनरेगा	11036
जयंत	11037
इंडस्ट्र	11038
संगम	11039
जेठ	11040
गंवा	11041
साहेब	11042
खरीदे	11043
रोकथाम	11044
संतान	11045
उत्तरप्रदेश	11046
##सूद	11047
सर्वस	11048
लिखने	11049
सातवें	11050
गोलू	11051
विवेकान	11052
पहाड़ों	11053
शासित	11054
गोल्डन	11055
सिंधी	11056
इच्छुक	11057
अब्दुल्ला	11058
मधुबनी	11059
सुपुर्द	11060
राधेश्याम	11061
suv	11062
निमंत्रण	11063
प्रीमियर	11064
संभागीय	11065
इकोनॉमी	11066
किडनैप	11067
अग्निशमन	11068
सौंदर्य	11069
गरिमा	11070
ज्‍यादा	11071
प्रांगण	11072
ex	11073
us	11074
अमान	11075
इटा	11076
चर्चित	11077
ताना	11078
दत्ता	11079
धाक	11080
नम्बर	11081
प्य	11082
फोड़	11083
लद्दा	11084
शमी	11085
शाजा	11086
##ुंद	11087
##फोर्स	11088
##cs	11089
##घोष	11090
केएल	11091
किडनी	11092
##िक्ट	11093
होर्डिंग	11094
##गाड़ी	11095
##काशी	11096
कुंवर	11097
सीवर	11098
सीएन	11099
सरफ	11100
पीड़ा	11101
पाती	11102
अंकिता	11103
प्रतिस्प	11104
सहज	11105
इंजेक्शन	11106
पैरों	11107
डिस्ट्र	11108
शुगर	11109
फिल्मी	11110
यूएस	11111
पंवार	11112
पत्रों	11113
लगीं	11114
संपत्तियों	11115
रैंकिंग	11116
नवम्बर	11117
वर्गों	11118
सजावट	11119
उल्टी	11120
रक्षाबंधन	11121
छुट्‌टी	11122
बर्तन	11123
खंडेलवाल	11124
वॉर	11125
बायपास	11126
बेसिक	11127
वर्कश	11128
दावेदार	11129
अभिनंदन	11130
सीखने	11131
पटाखे	11132
मनुष्य	11133
विश्लेषण	11134
लुटेरों	11135
##क्कड़	11136
सम्पन्न	11137
##प्रदायिक	11138
आरटीओ	11139
घातक	11140
अवलोकन	11141
शाजापुर	11142
wor	11143
अच	11144
अर्जी	11145
ईशा	11146
गनी	11147
गोक	11148
चांस	11149
जांग	11150
जयराम	11151
नकल	11152
पख	11153
पाना	11154
पन्ना	11155
यंत्र	11156
वक्ता	11157
##ंते	11158
##पाद	11159
##पर्सन	11160
##इस	11161
##__	11162
##िल्ल	11163
प्रज्ज	11164
##वाधिकार	11165
##केल	11166
विगत	11167
राग	11168
साकार	11169
कुं	11170
##ष्का	11171
जनक	11172
##शीटर	11173
गोशाला	11174
एसबीआई	11175
मानवाधिकार	11176
##ज्जू	11177
बोल्ड	11178
लीज	11179
श्रीकांत	11180
चलाता	11181
बंदी	11182
जेडीए	11183
##म्‍	11184
सितारे	11185
रोककर	11186
राशिद	11187
गणमान्य	11188
असफल	11189
रुझ	11190
संभवत	11191
##ers	11192
पांड्या	11193
छुट	11194
ऑटोम	11195
क्रमश	11196
आर्टिस्ट	11197
जनसंख्या	11198
वासु	11199
शिरकत	11200
चेतन	11201
वस्तुओं	11202
जादू	11203
कनेक्टिविटी	11204
तड़के	11205
##प्लांट	11206
अस्तित्व	11207
##शिंगटन	11208
द्विपक्षीय	11209
कांस्य	11210
बुरहानपुर	11211
गोविंदा	11212
इंडस्ट्रियल	11213
अकाल	11214
ईमेल	11215
ऑर्	11216
गन	11217
गाजा	11218
चार्	11219
दवाई	11220
नैन	11221
फौ	11222
वाम	11223
##गां	11224
##रूर	11225
##्ध	11226
##ंशी	11227
##़त	11228
##यंस	11229
##ारसी	11230
कीमती	11231
परश	11232
##लास	11233
##िसिस	11234
साधन	11235
देओल	11236
महंगे	11237
बीसीसी	11238
मोटर्स	11239
हमसे	11240
##ेलो	11241
अबोहर	11242
कैदी	11243
कैडर	11244
कमरों	11245
दूल	11246
##मानंद	11247
उपहार	11248
रुपयों	11249
सहकार	11250
व्यय	11251
बुआ	11252
मानवीय	11253
बोझ	11254
पोते	11255
##ोहण	11256
हरियाली	11257
प्रसव	11258
एक्टिवा	11259
##ूडो	11260
##िप्ट	11261
भावुक	11262
हारने	11263
##ast	11264
झाड़ियों	11265
नगदी	11266
शहीदों	11267
जीवित	11268
अभिनव	11269
शिल्	11270
सुपौल	11271
किंग्स	11272
मोर्चरी	11273
भवनों	11274
उरांव	11275
प्रोफेशनल	11276
सिग्नल	11277
एस्टेट	11278
बृहस्पति	11279
सार्थक	11280
लद्दाख	11281
अवार्ड	11282
मधे	11283
शृ	11284
सारण	11285
##ूढ़	11286
##विन्द	11287
##्ना	11288
##सनीय	11289
##मंड	11290
##11	11291
##80	11292
##wal	11293
##ानियां	11294
##र्भर	11295
बाड़ी	11296
##क्षत्र	11297
##ार्द	11298
कुच	11299
सीबीएस	11300
बीएच	11301
सरह	11302
##खास्त	11303
वर्ण	11304
तरुण	11305
अंशु	11306
##ोरियम	11307
रोते	11308
नगरपालिका	11309
बैठाकर	11310
##प्‍	11311
एनाल	11312
उठने	11313
चंदा	11314
ड्रामा	11315
##िस्ट्री	11316
पक्षी	11317
नारियल	11318
आश्र	11319
वायरस	11320
चंद्रमा	11321
ख़ास	11322
मजबूरी	11323
चैंबर	11324
अय्यर	11325
सुप्रीमो	11326
प्रतियोगिताओं	11327
टावर	11328
आत्मविश्वास	11329
बर्खास्त	11330
नगद	11331
1996	11332
प्रस्तुतियां	11333
लैपटॉप	11334
फेंका	11335
गुलाम	11336
आक्रामक	11337
बेसमेंट	11338
निशानदेही	11339
गुमराह	11340
अस्थाई	11341
सराहनीय	11342
कच्ची	11343
बिंदु	11344
कल्कि	11345
धुंध	11346
##ड्रिंग	11347
रेजिडेंट	11348
बर्थडे	11349
पादु	11350
चूरू	11351
रिलेशनशिप	11352
हिस्ट्रीशीटर	11353
डेमोक्रेटिक	11354
शिमला	11355
आत्मनिर्भर	11356
आगाज	11357
विवेकानंद	11358
en	11359
pan	11360
sho	11361
अवर	11362
नां	11363
नक्षत्र	11364
##कन	11365
##पतियों	11366
##ैतिक	11367
##‌टी	11368
##ताशा	11369
##िलेश	11370
##िल्या	11371
प्रॉ	11372
प्रथा	11373
##ांतिक	11374
##वाइन	11375
##केला	11376
विंड	11377
एका	11378
बादलों	11379
##ासना	11380
अनवर	11381
दीर्	11382
दीक्षा	11383
##्यूशन	11384
गोमती	11385
पैक्स	11386
रामनगर	11387
महासम	11388
लड़ेंगे	11389
115	11390
शिवकुमार	11391
प्रात	11392
रिपब्लिक	11393
बांटने	11394
पंचनामा	11395
##ातु	11396
योगेंद्र	11397
एक्टर्स	11398
देवगन	11399
कीमतें	11400
पाएगी	11401
ट्रांसप्लांट	11402
बूंदी	11403
नमू	11404
वारदातों	11405
सलाम	11406
संरचना	11407
टूटी	11408
नवाचार	11409
माधवी	11410
विजिट	11411
यशस्वी	11412
प्रकरणों	11413
कैंडिडेट्स	11414
पाइपलाइन	11415
संसाध	11416
अभिनय	11417
चढ़ाव	11418
व्हाट्स	11419
##खलन	11420
भिड़ंत	11421
सिक्किम	11422
चचेरे	11423
किरोड़ी	11424
8वीं	11425
अड्डा	11426
ओवै	11427
कश	11428
खग	11429
घटी	11430
नॉम	11431
मशी	11432
##ग्रेड	11433
##खिला	11434
##मोर	11435
##मच्छ	11436
##मैया	11437
##महल	11438
##दनी	11439
##em	11440
##ag	11441
##70	11442
##ौड़ा	11443
##uk	11444
##ताब्दी	11445
प्रां	11446
बागी	11447
##ियारा	11448
जात	11449
##िनस	11450
संक्रमण	11451
बादशाह	11452
बताओ	11453
सुप्र	11454
##ुपति	11455
पीकर	11456
##वेन्द्र	11457
##न्ग	11458
सबकी	11459
प्रतिद्व	11460
विश्न	11461
देशभ	11462
आदत	11463
आरबीआई	11464
एमओयू	11465
दावों	11466
गाव	11467
2500	11468
पंचमी	11469
एक्सचेंज	11470
व्यवस्थाएं	11471
आदेशों	11472
##कुशी	11473
2006	11474
##ary	11475
धमकाया	11476
दिखाए	11477
विदेशों	11478
ख़बर	11479
उपलब्धता	11480
पौधा	11481
##ore	11482
मुश्किलें	11483
मगरमच्छ	11484
शैली	11485
विजिल	11486
ढाणी	11487
किताबें	11488
कच्चा	11489
पटाखा	11490
अभिभावक	11491
प्रकोप	11492
छिड़काव	11493
सेमिनार	11494
हजारीबाग	11495
बलौदाबाजार	11496
इजाजत	11497
खाटू	11498
भूकंप	11499
खरगोन	11500
cr	11501
man	11502
कंवर	11503
गरीबी	11504
घों	11505
चना	11506
चक्का	11507
डाम	11508
थ्रो	11509
नवल	11510
नकारात्मक	11511
पोज	11512
ब्रेन	11513
बख्	11514
हाजीपुर	11515
##खला	11516
##संग	11517
##सौर	11518
##60	11519
##पान	11520
##इए	11521
##चाना	11522
##ौप	11523
##ेंग	11524
केबिन	11525
सेव	11526
##क्ल	11527
##ामु	11528
संवेद	11529
निजात	11530
##टीन	11531
##ढ़ियों	11532
महू	11533
मैक्स	11534
कैथल	11535
लगेंगे	11536
स्टंट	11537
इंट	11538
दिना	11539
खुफिया	11540
बोरी	11541
पदोन्न	11542
आगजनी	11543
इंडिगो	11544
लगेगी	11545
योग्यता	11546
##िटीज	11547
##श्योर	11548
कटाई	11549
##र्नर	11550
क्लिप	11551
सिवनी	11552
विश्वविद्यालयों	11553
दशरथ	11554
प्रवचन	11555
टॉय	11556
जलाकर	11557
##ish	11558
भावनात्मक	11559
शौक	11560
फॉर्मेट	11561
तुष	11562
जनसुन	11563
लोहिया	11564
व्यवसायी	11565
नौकरियों	11566
वेलफेयर	11567
सुशांत	11568
बहाव	11569
उपरांत	11570
विक्षोभ	11571
फ्रेंचाइजी	11572
वक़्त	11573
परशुराम	11574
मधेपुरा	11575
संसाधनों	11576
ओवैसी	11577
kap	11578
अडा	11579
आकांक्षा	11580
इत्या	11581
उग	11582
एबी	11583
ग्री	11584
दंते	11585
नट	11586
नये	11587
प्‍	11588
बिस	11589
भराव	11590
मक्का	11591
रेश	11592
वर्जन	11593
सभ	11594
##धु	11595
##चारा	11596
##sha	11597
कोष	11598
काटे	11599
परफॉर्म	11600
##स्वरूप	11601
##स्खलन	11602
सावधान	11603
संक्र	11604
##काउंट	11605
राजने	11606
महंगी	11607
##ाहियों	11608
##दीन	11609
टीजर	11610
रामदेव	11611
युवतियों	11612
121	11613
महागठ	11614
स्पष्टीकरण	11615
अहिल्या	11616
कराएंगे	11617
सांप्रदायिक	11618
व्याप्त	11619
असह	11620
##ata	11621
उपलब्धियों	11622
उच्चतम	11623
जितेन्द्र	11624
रिसी	11625
मेहंदी	11626
विवेचना	11627
स्कूटर	11628
कमलनाथ	11629
आंखें	11630
एडीजी	11631
विजेताओं	11632
पेरेंट्स	11633
अस्थायी	11634
पीजीआई	11635
कामयाबी	11636
चंपारण	11637
क्लीन	11638
प्रीमियम	11639
नाजुक	11640
कैलेंडर	11641
स्टार्टअप	11642
अर्धशत	11643
ताइवान	11644
##ॉरिटी	11645
क्रिसमस	11646
बैरवा	11647
छोटू	11648
इटावा	11649
जनसुनवाई	11650
ab	11651
case	11652
अराज	11653
ईसाई	11654
ऑब्	11655
ऑक्सीजन	11656
कट्टर	11657
छठी	11658
जत	11659
डुम	11660
ब्या	11661
मन्द	11662
मूर्त	11663
सगाई	11664
##गर्	11665
##ोकर	11666
##टेंशन	11667
##जिन	11668
##िं	11669
##ुश	11670
##75	11671
##pf	11672
##chan	11673
केसी	11674
##यास	11675
कोसी	11676
##र्ता	11677
किस्म	11678
##ताप	11679
##ंगिक	11680
स्वर	11681
सिराज	11682
##जीर	11683
##विजन	11684
##ोकाम	11685
बिगा	11686
बिजन	11687
कैसी	11688
कैम्प	11689
उपखंड	11690
105	11691
101	11692
रोकर	11693
स्किल	11694
बदायूं	11695
नीतू	11696
##ब्ब	11697
यूं	11698
मनोकाम	11699
स्वर्	11700
मीट	11701
अपनाया	11702
वैकल्प	11703
##ard	11704
अदिति	11705
बांग्लादेशी	11706
निवेशक	11707
निर्णायक	11708
भूस्खलन	11709
लौटते	11710
डाक्टर	11711
हड़प	11712
अक्षर	11713
चेयरपर्सन	11714
अटेंड	11715
महासंघ	11716
ब्रह्मा	11717
राजनयिक	11718
काउंसिलिंग	11719
विमोचन	11720
इटली	11721
हाजिर	11722
चंद्राकर	11723
गोपनीय	11724
दवाइयां	11725
प्रोड्यूसर	11726
शर्तों	11727
सत्तारूढ़	11728
शुरूआत	11729
वैक्सीन	11730
हकीकत	11731
आंशिक	11732
वर्कशॉप	11733
दूल्हे	11734
मशीनों	11735
विश्नोई	11736
वैकल्पिक	11737
):	11738
,"	11739
pl	11740
ram	11741
un	11742
असा	11743
उषा	11744
खंभ	11745
भत्ता	11746
येलो	11747
रैल	11748
लपट	11749
सस्ते	11750
##जाद	11751
##बोट	11752
##ूकी	11753
##सर्स	11754
##सिटी	11755
##एब	11756
##ैत	11757
##ca	11758
##घात	11759
##्यार्पण	11760
##िलित	11761
प्रवाह	11762
एकदम	11763
##ासरा	11764
##ौरिया	11765
बेबी	11766
बेस्ड	11767
पहुंचना	11768
##िपु	11769
##जारोहण	11770
माफ	11771
मातम	11772
इंसाफ	11773
1200	11774
आरओ	11775
##ब्बत	11776
यूके	11777
बरन	11778
पंखे	11779
बॉबी	11780
सम्मिलित	11781
साहनी	11782
पांचवीं	11783
दौड़ा	11784
असंत	11785
न्यूज़	11786
जन्मभूमि	11787
##ियोग्रा	11788
रोहिणी	11789
खरीदना	11790
चावला	11791
लूटने	11792
लॉन्ड्रिंग	11793
पॉक्सो	11794
सुधारने	11795
छुट्ट	11796
पहलवान	11797
कंटेंट	11798
नर्सरी	11799
अकेली	11800
कठि	11801
होमगार्ड	11802
दर्शक	11803
पहनने	11804
कल्चर	11805
व्हीकल	11806
चंपाई	11807
द्रौप	11808
फीडर	11809
सांगाने	11810
श्राव	11811
दलील	11812
कॉर्पोरेशन	11813
app	11814
प्रहलाद	11815
पर्यवेक्षक	11816
भुवनेश्वर	11817
तुषार	11818
इत्यादि	11819
महागठबंधन	11820
द्रौपदी	11821
इंप	11822
खीर	11823
जप	11824
धरो	11825
पल्ल	11826
फार्	11827
बड	11828
बगी	11829
म्या	11830
मण्ड	11831
मलाइ	11832
वान	11833
शाद	11834
शस्त्र	11835
##गाम	11836
##बिया	11837
##ूला	11838
##कपा	11839
##ुहान	11840
##सो	11841
##फैक्चर	11842
##शहर	11843
##ैली	11844
##oor	11845
कोमल	11846
##सेल	11847
मुफ	11848
कुणाल	11849
महिमा	11850
अन्याय	11851
##जीन	11852
##जापुर	11853
बैलेट	11854
पाट	11855
हरप्रीत	11856
बनवाया	11857
दुआ	11858
लगवाने	11859
स्ट्रीम	11860
आज़	11861
##िम्मे	11862
##्यूट	11863
अवस्थी	11864
अवशेष	11865
छावनी	11866
##कोण	11867
मानकों	11868
यादगार	11869
पिछड़े	11870
##्लाई	11871
मनमानी	11872
जिनको	11873
##आरआई	11874
मिलावट	11875
निर्देशानुसार	11876
बिजने	11877
रायसेन	11878
माल्यार्पण	11879
हादसों	11880
खुदकुशी	11881
रुद्रा	11882
बदलते	11883
##िगेशन	11884
रणधीर	11885
एलन	11886
वीआईपी	11887
नमक	11888
##ashi	11889
रिजवान	11890
अमृतपाल	11891
हलचल	11892
सौंपने	11893
चौराहों	11894
बाइपास	11895
ध्वजारोहण	11896
हिमालय	11897
पीटकर	11898
एसटीएफ	11899
टूरिस्ट	11900
डिवाइडर	11901
##दर्शिता	11902
कटाव	11903
दीनदयाल	11904
जांज	11905
धमकियां	11906
भालू	11907
ऑलराउंडर	11908
महालक्ष्मी	11909
टेम्प	11910
##श्योरेंस	11911
अडाणी	11912
धरोहर	11913
मलाइका	11914
'।	11915
ac	11916
आहत	11917
कद	11918
जिया	11919
जामा	11920
ट्रीट	11921
डल	11922
ताम	11923
ताद	11924
मसी	11925
रस्सी	11926
वल्लभ	11927
सलू	11928
सट्टा	11929
हारे	11930
##ाव	11931
##किर	11932
##ओम	11933
##du	11934
##90	11935
##ow	11936
किला	11937
करत	11938
विनीत	11939
##राई	11940
संन्यास	11941
##टीएस	11942
##्रेम	11943
##ाजल	11944
##ल्चर	11945
चुनी	11946
##िवि	11947
जानकारों	11948
उपराष्ट्र	11949
##डीएस	11950
वेव	11951
बहला	11952
यूनाइ	11953
##मेंट्स	11954
##आरएस	11955
उठकर	11956
टेनिस	11957
कुल्हा	11958
प्रोटे	11959
गलियों	11960
एयरलाइंस	11961
ओवरब्रिज	11962
##डे़	11963
चैट	11964
महाराणा	11965
रॉड	11966
आइडिया	11967
नारायणपुर	11968
##रेटिव	11969
##स्ट्रक्शन	11970
जुर्माने	11971
एपिस	11972
स्क्रीनिंग	11973
टूरिज्म	11974
ब्लाक	11975
ज़रूरी	11976
दृढ़	11977
मिडिल	11978
एनडीपीएस	11979
रोटरी	11980
जांजगीर	11981
उपराष्ट्रपति	11982
aq	11983
rbi	11984
कत्	11985
कनि	11986
कंज	11987
क्‍	11988
खपत	11989
डोट	11990
नॉर्म	11991
मृ	11992
रौन	11993
हब	11994
हार्ड	11995
##कश	11996
##वटी	11997
##मंडल	11998
##पकों	11999
##भेद	12000
##ee	12001
##oc	12002
##ौद	12003
##bc	12004
कोने	12005
##्ये	12006
प्रवासी	12007
लेखा	12008
देवा	12009
##िराम	12010
##ाद्ध	12011
राजस्थ	12012
महेन्द्र	12013
दिनद	12014
पीस	12015
##न्‍	12016
पिंज	12017
##िपाल	12018
चलिए	12019
अमृता	12020
##्नवी	12021
फैसल	12022
जयप्रकाश	12023
11वीं	12024
भगवती	12025
परीक्षाएं	12026
अफेयर	12027
व्यायाम	12028
##स्तीन	12029
विजयी	12030
##फ़ा	12031
बनीं	12032
मूल्यों	12033
मंशा	12034
हल्का	12035
सुखदेव	12036
##स्‍तान	12037
जालस	12038
दबद	12039
रॉकेट	12040
हलके	12041
महामंड	12042
स्मैक	12043
जसवंत	12044
मानवता	12045
भंडारे	12046
जाह्नवी	12047
फाउंडर	12048
भीमराव	12049
रौंद	12050
आवेदक	12051
श्रृंखला	12052
डीएवी	12053
कड़ाके	12054
रीजनल	12055
एनआईए	12056
फ़ीस	12057
सहकारिता	12058
विजिलेंस	12059
बिजनेसमैन	12060
कुल्हाड़ी	12061
राजस्थानी	12062
con	12063
the	12064
इक्	12065
जहीर	12066
टोक	12067
ठहर	12068
ढह	12069
दंग	12070
धै	12071
मझ	12072
यकीन	12073
रीड	12074
लथ	12075
##बादी	12076
##कली	12077
##मै	12078
##day	12079
##अंदाज	12080
किट	12081
##स्ति	12082
साद	12083
मुहर	12084
राजभर	12085
##ल्लाह	12086
बीएसपी	12087
सरसों	12088
पीसीसी	12089
टीटी	12090
##्लू	12091
##ोलिया	12092
ट्रम्प	12093
##जरत	12094
बोनस	12095
मार्क्स	12096
190	12097
स्वभाव	12098
इंडो	12099
श्राद्ध	12100
मालिनी	12101
सौगा	12102
ड्रॉ	12103
130	12104
##ैलरी	12105
देवघर	12106
##िंदगी	12107
##न्नू	12108
अभिजीत	12109
प्रेग्न	12110
सिकंद	12111
##ess	12112
##ort	12113
दमोह	12114
सुपरवाइ	12115
उतनी	12116
साधते	12117
मार्केटिंग	12118
शैतान	12119
ज्योतिराद	12120
सत्यनारायण	12121
3000	12122
हरिओम	12123
निराशा	12124
आर्टिकल	12125
एडीसी	12126
चक्रवर्ती	12127
गंगाजल	12128
बृजभूषण	12129
999	12130
मराठी	12131
gov	12132
स्नेह	12133
पलायन	12134
चिंतित	12135
महायुति	12136
वाटिका	12137
चप्पल	12138
मेजबानी	12139
संतुष्ट	12140
दिगंबर	12141
मर्चेंट	12142
सिगरेट	12143
एनिमल	12144
क्लिनिक	12145
गनीमत	12146
सीबीएसई	12147
बिजनौर	12148
दिनदहाड़े	12149
महामंडलेश्वर	12150
धैर्य	12151
लथपथ	12152
ज्योतिरादित्य	12153
sha	12154
इका	12155
ऋतिक	12156
कंक	12157
गोग	12158
ग्यार	12159
जर्	12160
जना	12161
थार	12162
दही	12163
शां	12164
शताब्दी	12165
##ेक्शन	12166
##खन	12167
##ंताओं	12168
##समी	12169
##भगत	12170
##नेज	12171
कालू	12172
करौली	12173
##स्करण	12174
साक्षा	12175
##राथन	12176
देहरा	12177
निजाम	12178
पूनिया	12179
सीजी	12180
सीबी	12181
सिंहभूम	12182
अधिकृत	12183
मैराथन	12184
लाते	12185
पिंक	12186
रोबोट	12187
हिजब	12188
ग्रैंड	12189
चौड़ा	12190
##शीद	12191
हालिया	12192
बुद्धि	12193
पैतृ	12194
पैटर्न	12195
डिंपल	12196
##आईएम	12197
नीयत	12198
हावड़ा	12199
लड़ना	12200
एनसीसी	12201
##ुमन	12202
2003	12203
ज़िम्मे	12204
घुसा	12205
वीसी	12206
रविशंकर	12207
एंड्र	12208
गुरमीत	12209
अमरनाथ	12210
झूठी	12211
जलाभिषेक	12212
डिप्रेशन	12213
ऊंचा	12214
ऊंचे	12215
नालों	12216
फेंकने	12217
निलंबन	12218
अथॉरिटी	12219
आवेदनों	12220
उछल	12221
चाइल्ड	12222
आपातकालीन	12223
भिजवाया	12224
price	12225
सुचारू	12226
खैरा	12227
कारीगर	12228
कंचन	12229
पादुकोण	12230
देशभक्ति	12231
मन्दिर	12232
यूनाइटेड	12233
aqi	12234
डोटासरा	12235
पैतृक	12236
bs	12237
अस्वी	12238
उफान	12239
कंधे	12240
नताशा	12241
पटक	12242
सता	12243
सगे	12244
##गढ	12245
##गें	12246
##ाचार्य	12247
##ूफ	12248
##िथ	12249
##मय	12250
##iti	12251
##ठिया	12252
किस्त	12253
कांच	12254
##ुरू	12255
##िनिय	12256
अपग्रेड	12257
पूल	12258
कुख्यात	12259
सर्रा	12260
कार्यवाहक	12261
साले	12262
##वेली	12263
जीने	12264
हरद	12265
हरदा	12266
हिना	12267
फिलि	12268
पैक	12269
##म्मति	12270
मानती	12271
आरसी	12272
##देय	12273
बरौनी	12274
थानेदार	12275
सितारों	12276
भोला	12277
रिस्प	12278
##फ़े	12279
मानसरोवर	12280
रंगोली	12281
बचाओ	12282
##कल्याण	12283
एफएसएल	12284
अभियोजन	12285
##urt	12286
मचाने	12287
यूनिट्स	12288
ठेकेदारों	12289
विष्णुदेव	12290
मंजिला	12291
नितेश	12292
बड़वानी	12293
बीएसई	12294
लड़ाकू	12295
फोरलेन	12296
उन्नाव	12297
##जिटिव	12298
चिल्ल	12299
बैंकिंग	12300
ईदगाह	12301
पहनाकर	12302
परीक्षार्थियों	12303
विक्रांत	12304
एग्रीमेंट	12305
वाईएस	12306
##रोधक	12307
अफ़ग़	12308
रश्मि	12309
आश्वस्त	12310
फरीदकोट	12311
क्रियान्वयन	12312
व्हाट्सएप	12313
kapoor	12314
bh	12315
res	12316
आहार	12317
खत्री	12318
घड़ी	12319
टर्न	12320
ठंडी	12321
थमा	12322
बख	12323
सॉल	12324
ह्यू	12325
##बर्स	12326
##ेरी	12327
##वो	12328
##पार	12329
##mm	12330
काॅ	12331
प्रियां	12332
साग	12333
##राणिक	12334
निगाह	12335
महत्	12336
रहीम	12337
बेचे	12338
परिहार	12339
बिस्तर	12340
##खाव	12341
##मानुसार	12342
सूखे	12343
सबक	12344
हिज़	12345
बहने	12346
नामी	12347
ट्राली	12348
इंश्योरेंस	12349
रामकुमार	12350
पुकार	12351
पूर्वक	12352
सुरजीत	12353
128	12354
##र्माण	12355
जिनसे	12356
देवांग	12357
रोकना	12358
खेप	12359
शोएब	12360
प्लेयर्स	12361
कर्ण	12362
बंगाली	12363
फुसला	12364
रोहता	12365
रिकॉर्डिंग	12366
एसडीआरएफ	12367
संबद्ध	12368
तमंच	12369
सलामी	12370
जोड़ो	12371
निरंजन	12372
निर्धारण	12373
सौंपे	12374
##हादत	12375
##क्निक	12376
स्वयंसेवक	12377
परंपरागत	12378
कैदियों	12379
वादों	12380
जहाँ	12381
उलझ	12382
एनसीपी	12383
ठिकाने	12384
गुस्साए	12385
इस्लामिक	12386
प्रसारण	12387
सीआईए	12388
mah	12389
निम्न	12390
बजाए	12391
सैमसंग	12392
नशीली	12393
साईं	12394
तिराहा	12395
अनियमितता	12396
prad	12397
update	12398
टॉयलेट	12399
सांगानेर	12400
एपिसोड	12401
सौगात	12402
650	12403
it	12404
op	12405
t20	12406
उज	12407
ऋचा	12408
गड्‌	12409
घने	12410
तब्दी	12411
षड	12412
सन्नी	12413
##हटा	12414
##किया	12415
##विल	12416
##माला	12417
##शद	12418
##शाद	12419
##भवी	12420
##ैव	12421
##aa	12422
##ौला	12423
##vi	12424
केन	12425
सेक्स	12426
##नीर	12427
##गाध्यक्ष	12428
मुंड	12429
##माइल	12430
मेहरा	12431
सकल	12432
बनवा	12433
माँ	12434
ट्रिप	12435
नाते	12436
पुष्य	12437
बदबू	12438
बरवाला	12439
स्वाम	12440
स्वदेश	12441
शेफ	12442
एनओसी	12443
व्यवस्थित	12444
मीडियम	12445
बॉलिंग	12446
##ंभव	12447
सेंध	12448
सेंचुरी	12449
कटरा	12450
शुभमन	12451
##र्षि	12452
अग्रसेन	12453
2898	12454
आख़	12455
पौराणिक	12456
खोकर	12457
चुनौत	12458
भूखंड	12459
1998	12460
जुटाने	12461
तिरुपति	12462
रेटिंग	12463
ips	12464
मुआयना	12465
प्रजापत	12466
एशियाई	12467
हंसराज	12468
माफियाओं	12469
वायुसेना	12470
indian	12471
बालाघाट	12472
गवाहों	12473
तुम्हारे	12474
बंदरगाह	12475
पेशेवर	12476
शॉपिंग	12477
ग्रोथ	12478
कन्नौज	12479
विक्रेता	12480
जत्थे	12481
विद्रोह	12482
तेलुगु	12483
डिस्ट्रिक्ट	12484
फौजी	12485
दंतेवाड़ा	12486
अर्धशतक	12487
फ़ीसदी	12488
del	12489
live	12490
nav	12491
उक	12492
उतरा	12493
गंज	12494
जनों	12495
ड्रे	12496
तंवर	12497
थ्र	12498
बरी	12499
हटने	12500
##गुन	12501
##खण्ड	12502
##संघ	12503
##यु	12504
##शिव	12505
##दून	12506
##ैशी	12507
##ac	12508
##छी	12509
##छित	12510
किले	12511
##ांध	12512
##ुराज	12513
राठी	12514
साकेत	12515
कुंदन	12516
बीएल	12517
##ुप्त	12518
जानती	12519
##ंधरा	12520
अंजू	12521
103	12522
अनुष्का	12523
विशा	12524
##दाराम	12525
##बाही	12526
बोस	12527
नियमानुसार	12528
एमसी	12529
संग्राम	12530
##ani	12531
144	12532
समझना	12533
भेड़	12534
इमो	12535
धनखड़	12536
शोभ	12537
खासा	12538
ज़मीन	12539
सतपाल	12540
सीमावर्ती	12541
ख़ुद	12542
##indi	12543
##िनेटर	12544
पॉजिटिव	12545
संरक्षित	12546
चौकीदार	12547
अमरजीत	12548
##ैटिक	12549
विभागाध्यक्ष	12550
दुर्गेश	12551
राइज	12552
भंडारण	12553
लेखन	12554
एक्सपर्ट्स	12555
गेंदबाजों	12556
मराठा	12557
धमाका	12558
रिम्स	12559
आईसीयू	12560
ऑडिटोरियम	12561
ट्विटर	12562
वैल्यू	12563
महासमुंद	12564
delhi	12565
sing	12566
अक्त	12567
इने	12568
ऑक्शन	12569
कस्ट	12570
खाया	12571
घिर	12572
झप	12573
डाइ	12574
डायर	12575
थोक	12576
धुन	12577
फौज	12578
यूर	12579
सई	12580
हन	12581
##कल्टी	12582
##्बा	12583
##फाई	12584
##दशी	12585
##mi	12586
##ऑफ	12587
किन्न	12588
##ालिया	12589
विजन	12590
रास	12591
जातियों	12592
लेनी	12593
पहलू	12594
##टीय	12595
सिमर	12596
##रेपी	12597
##स्तरीय	12598
##माराम	12599
जीवंत	12600
अबू	12601
चलना	12602
चलाना	12603
स्टॉप	12604
##बंधक	12605
इंकार	12606
गुंज	12607
बदनाम	12608
##ज्ड	12609
डीएन	12610
फैकल्टी	12611
##ोनिया	12612
इंडेक्स	12613
प्रतिनिय	12614
जेएम	12615
कान्हा	12616
अरशद	12617
240	12618
करवाते	12619
यूनुस	12620
##कुंड	12621
मनाते	12622
नोटों	12623
रजक	12624
प्लेन	12625
फ़ल	12626
वीं	12627
बहनें	12628
पॉली	12629
मलबे	12630
भोजपुरी	12631
कैंपेन	12632
##ांटिक	12633
सफलतापूर्वक	12634
उद्योगपति	12635
जोनल	12636
दसवीं	12637
अर्जित	12638
सत्येंद्र	12639
##िफाई	12640
1984	12641
स्‍ट	12642
त्योहारों	12643
अस्थिर	12644
फोरम	12645
बंटवारा	12646
पात्रता	12647
टर्मिनस	12648
ढूंढने	12649
यूरोपीय	12650
ठहराव	12651
मोनिका	12652
ब्रजेश	12653
इन्वेस्टमेंट	12654
मालीवाल	12655
रितेश	12656
सेलेब्स	12657
तिराहे	12658
लाहौर	12659
सम्बन्	12660
रामविलास	12661
प्रचंड	12662
##गांठ	12663
प्रतिद्वंद	12664
तादाद	12665
देहरादून	12666
तब्दील	12667
अक्तूबर	12668
5वीं	12669
sit	12670
आकाशी	12671
ऊपरी	12672
एप्	12673
एंज	12674
क्रेन	12675
घास	12676
तलब	12677
तबाही	12678
रची	12679
##21	12680
##्ती	12681
##65	12682
##ढा	12683
##ृश्य	12684
##याव	12685
##ानिक	12686
करप्शन	12687
##ितर	12688
साफ़	12689
साजिद	12690
##रात	12691
रहवासी	12692
##लीफ	12693
##रेखा	12694
महक	12695
बीजापुर	12696
सरिता	12697
जानना	12698
कैफे	12699
##ूलुहान	12700
रोचक	12701
##िमन	12702
अमला	12703
रामजी	12704
युवराज	12705
##क्रमित	12706
डीईओ	12707
193	12708
111	12709
पदयात्रा	12710
सफारी	12711
बांटा	12712
गाते	12713
बालो	12714
सौम	12715
उमड़	12716
उमंग	12717
पालकी	12718
कटने	12719
एयरक्राफ्ट	12720
कबड्डी	12721
पेट्रोलिंग	12722
मुहिम	12723
महामारी	12724
नवाज	12725
टिप्पण	12726
चैंपियंस	12727
राइफल	12728
अनाउंस	12729
मैनपुरी	12730
सैलजा	12731
मसाला	12732
कंस्ट्रक्शन	12733
raj	12734
लहूलुहान	12735
पितरों	12736
रिहाई	12737
डीएपी	12738
देवरिया	12739
पार्टनरशिप	12740
##माइंड	12741
कंडक्टर	12742
चिट्ठी	12743
रोमांचक	12744
एडवाइजरी	12745
फतह	12746
चुनौतियां	12747
au	12748
vrat	12749
अंप	12750
अजीब	12751
आंब	12752
आषा	12753
आक्रमण	12754
उखा	12755
ऊँ	12756
खल	12757
खट्टर	12758
गाया	12759
तान	12760
नसीम	12761
ब्रा	12762
मिट	12763
मर्या	12764
रसी	12765
लंगर	12766
श्म	12767
शहादत	12768
सियार	12769
##गिरी	12770
##जित	12771
##जिम	12772
##जिकल	12773
##ंपा	12774
##मास	12775
##18	12776
##इड	12777
##चिंग	12778
##ौना	12779
कोस	12780
सेफ	12781
परिक्ष	12782
##िकांत	12783
प्रोट	12784
बाण	12785
##त्ते	12786
सुस	12787
सोहन	12788
##र्मास	12789
##ंधन	12790
जीप	12791
अब्ब	12792
अबतक	12793
पाटल	12794
उपद्र	12795
उपनि	12796
स्टार्स	12797
हिंडन	12798
माओ	12799
गुड्डू	12800
लोको	12801
लोकायुक्त	12802
बैठकों	12803
अध्यक्षों	12804
आदमपुर	12805
आरएस	12806
यूए	12807
क्रिया	12808
दरिया	12809
उठता	12810
वैसा	12811
बॉम्बे	12812
ब्रॉन्	12813
पुरस्कृत	12814
डेस्क	12815
##शास्त्र	12816
ट्रैवल	12817
लाइटिंग	12818
##कुछ	12819
एयरफोर्स	12820
धमकाने	12821
जिम्मा	12822
निशांत	12823
##एफसी	12824
रवनीत	12825
चैक	12826
लंबाई	12827
गुरदास	12828
##स्‍त	12829
दबो	12830
एक्‍स	12831
खुशबू	12832
उत्साहित	12833
खुलेआम	12834
घेरे	12835
1989	12836
मिट्‌टी	12837
राइस	12838
मंगला	12839
एक्टिविटी	12840
फंसाने	12841
सिंघम	12842
शिल्प	12843
सुपारी	12844
##ांतरित	12845
जवाहरलाल	12846
एवज	12847
रिटायरमेंट	12848
यूजीसी	12849
बॉयफ्रेंड	12850
डिस्काउंट	12851
##स्सिल	12852
अधूरा	12853
प्रशासक	12854
सरफराज	12855
बीसीसीआई	12856
दिनांक	12857
म्यां	12858
मुफस्सिल	12859
हिजबुल्लाह	12860
आकाशीय	12861
pak	12862
खोद	12863
चेंज	12864
चड्ढा	12865
जमाल	12866
डमी	12867
फहरा	12868
मजे	12869
रमा	12870
रबी	12871
रस्म	12872
श्या	12873
शाक	12874
हाजी	12875
##बड़ा	12876
##ेला	12877
##ub	12878
##्राज	12879
हैप्पी	12880
परस	12881
प्रवास	12882
इसपर	12883
##हाट	12884
विस्थापित	12885
एक्यू	12886
लेगा	12887
अपार	12888
##लीट	12889
##भाई	12890
अनिता	12891
पीपल	12892
##ोरम	12893
स्टाल	12894
रोप	12895
##बीएम	12896
##शीला	12897
##िकाओं	12898
बुंद	12899
रखवा	12900
दिलजीत	12901
उत्थान	12902
मानता	12903
मानदेय	12904
मौतें	12905
लीगल	12906
मार्ट	12907
शिवानी	12908
वैरिएंट	12909
वाहिनी	12910
मिस्त्री	12911
अहसास	12912
लॉटरी	12913
चीज़	12914
संगठित	12915
संभावनाओं	12916
##टोली	12917
तरीकों	12918
सुनाते	12919
प्रशिक्षित	12920
छुड़	12921
मशीनें	12922
झूठा	12923
।""	12924
उपायों	12925
कचहरी	12926
परमिट	12927
##ट्‌टा	12928
खोजने	12929
प्रार्थी	12930
फंक्शन	12931
सारंग	12932
##धीनगर	12933
विलियम	12934
फीडबैक	12935
एग्रीक	12936
पद्मश्री	12937
एजेंडे	12938
बीएनएस	12939
मज़बूत	12940
हूँ	12941
पुराण	12942
कोठारी	12943
सद्भाव	12944
वेरिफिकेशन	12945
होटलों	12946
सर्वसम्मति	12947
रुझान	12948
रिपब्लिकन	12949
ट्रीटमेंट	12950
बालोतरा	12951
पाटलिपु	12952
"।	12953
dm	12954
he	12955
उधार	12956
चादर	12957
चातु	12958
जरा	12959
दंडा	12960
फिरा	12961
मग	12962
##गिंग	12963
##ंजा	12964
##सिन	12965
##शिला	12966
##णियों	12967
##dp	12968
परे	12969
बास	12970
##लाब	12971
##तेरस	12972
##गाव	12973
##कील	12974
सुष	12975
सुथ	12976
सीएसपी	12977
दीवान	12978
बीसी	12979
जिसमे	12980
मोगा	12981
मोटी	12982
पीएस	12983
लाठ	12984
गांधीनगर	12985
आयरलैंड	12986
हरेंद्र	12987
हरदीप	12988
सहभाग	12989
ट्रूडो	12990
##िट्री	12991
पुनीत	12992
तैर	12993
मानकर	12994
मंदसौर	12995
लड़ते	12996
मिलीभगत	12997
पड़ते	12998
संगो	12999
गाँ	13000
##ant	13001
न्यास	13002
बचें	13003
बरामदगी	13004
प्रभावशाली	13005
गौड़	13006
चंद्रबाबू	13007
पलटने	13008
रविन्द्र	13009
चैत्र	13010
चढ़ाने	13011
फ्लॉप	13012
दबाकर	13013
दबोच	13014
टॉपर	13015
हंगामे	13016
ऑस्ट्रेलियाई	13017
स्ट्रोक	13018
ललिता	13019
हैदर	13020
भंडारी	13021
मैन्यु	13022
संशोधित	13023
मास्टरमाइंड	13024
टेक्निकल	13025
जीविका	13026
कुरैशी	13027
होशियारपुर	13028
अत्याधुनिक	13029
वृद्धा	13030
चेतना	13031
आतंकवादियों	13032
बीएड	13033
नशीला	13034
एमएलसी	13035
सशक्तिकरण	13036
भौतिक	13037
एजेंडा	13038
एथलेट	13039
कार्यपालक	13040
सब्जियों	13041
वसुंधरा	13042
धाकड़	13043
मूर्तियां	13044
स्वर्गीय	13045
##फैक्चरिंग	13046
देवांगन	13047
आषाढ़	13048
म्यांमार	13049
nc	13050
अल्ट	13051
आक	13052
आढ़	13053
इल	13054
उर्म	13055
कंब	13056
खाक	13057
जेम	13058
ट्रेस	13059
त्व	13060
भान	13061
भ्राम	13062
रिन	13063
सती	13064
##जिक	13065
##ेड़ा	13066
##िंस	13067
##23	13068
##संच	13069
##ईटी	13070
##ईएन	13071
##te	13072
नेतन	13073
##ामऊ	13074
बापू	13075
बाथर	13076
##िनेंट	13077
##्याहू	13078
सुदर्शन	13079
अनजान	13080
##टेलाइट	13081
##विता	13082
##ेलखंड	13083
टीकम	13084
##एमयू	13085
##ोरल	13086
वेयर	13087
गुफा	13088
हाफ	13089
तीव्र	13090
बालोद	13091
विश्वसनीय	13092
ड्राई	13093
ट्रेनर	13094
बलविंदर	13095
##डाउन	13096
पूर्ति	13097
2002	13098
##art	13099
धनतेरस	13100
असु	13101
##हानि	13102
चढ़ने	13103
प्रचारक	13104
बेचकर	13105
फाड़	13106
आठवीं	13107
भाषाओं	13108
##्बुल्लाह	13109
माधुरी	13110
मधुर	13111
ललन	13112
वेस्टर्न	13113
राइड	13114
बॉक्सिंग	13115
निष्पाद	13116
बीएससी	13117
उलट	13118
रथयात्रा	13119
रघुवंशी	13120
बुरे	13121
प्रोफाइल	13122
कूदकर	13123
##igh	13124
चतुर्दशी	13125
इंफ्रास्ट्रक्चर	13126
मोर्चे	13127
भोलेनाथ	13128
शक्तियों	13129
पॉपुलर	13130
कूटनी	13131
स्लीपर	13132
सूचकांक	13133
प्रतिस्पर्धा	13134
दीर्घ	13135
रौनक	13136
सुपरवाइजर	13137
हिज़्बुल्लाह	13138
श्मशान	13139
ब्रॉन्ज	13140
एग्रीकल्चर	13141
चातुर्मास	13142
सहभागिता	13143
नेतन्याहू	13144
cs	13145
cha	13146
अरे	13147
आड़	13148
ईंधन	13149
जाली	13150
डब्ल्यू	13151
नहा	13152
न्यो	13153
फ्यू	13154
फलों	13155
बसा	13156
बचना	13157
बाली	13158
मॉक	13159
शॉ	13160
हिन्	13161
हाइड	13162
##गोल	13163
##िना	13164
##खानी	13165
##मिंग	13166
##फिट	13167
##शक	13168
##19	13169
##षी	13170
##चड़	13171
##ja	13172
किचन	13173
काज	13174
##िकेशन	13175
##स्फी	13176
जाखड़	13177
##तीर्ण	13178
संकी	13179
संसार	13180
समाप्ति	13181
रहवासियों	13182
निः	13183
सुग	13184
सीखा	13185
तोड़ी	13186
महबू	13187
सरब	13188
मोहर	13189
कैट	13190
अंजलि	13191
चौप	13192
देखेंगे	13193
पैड	13194
प्रदेशभर	13195
उत्तीर्ण	13196
नीलेश	13197
डीके	13198
महाभारत	13199
बरती	13200
दरार	13201
अपनाएं	13202
भगवा	13203
श्रो	13204
##ज़ी	13205
220	13206
शाहपुर	13207
हॉलीवुड	13208
##्‍ली	13209
खासी	13210
रजनीश	13211
तेली	13212
गिराया	13213
फेयर	13214
चांपा	13215
फाइनेंशियल	13216
शीट	13217
बिगड़ी	13218
मिसाल	13219
सत्यम	13220
झांसे	13221
##कूद	13222
रोगियों	13223
सिमट	13224
पुष्पेंद्र	13225
गुटों	13226
बोरवेल	13227
शहडोल	13228
ताजमहल	13229
दर्जे	13230
फतेहगढ़	13231
समुचित	13232
दुश्मनी	13233
सतर्कता	13234
डीपीआर	13235
पुनर्वास	13236
एसडीओपी	13237
माइक्रो	13238
श्रेयस	13239
जगदलपुर	13240
कुम्ह	13241
नौजवान	13242
box	13243
इक्वि	13244
अब्बास	13245
दबोचा	13246
अल्ट्रा	13247
हिन्दी	13248
750	13249
9वीं	13250
dsp	13251
sam	13252
उभ	13253
ओंकार	13254
कर्प	13255
घू	13256
जजों	13257
ठु	13258
डांगी	13259
ढक	13260
धांध	13261
नंदी	13262
बछ	13263
मित	13264
मची	13265
लायन	13266
शश	13267
सरो	13268
हजरत	13269
##गंगा	13270
##बर्ट	13271
##ुअल	13272
##फ्ल	13273
##ऊं	13274
##ru	13275
मेंबर्स	13276
कीटना	13277
सेबी	13278
नेम	13279
कांटे	13280
मुबार	13281
मुक्की	13282
सिंद	13283
##िरोध	13284
कुस	13285
सीरियल	13286
##ल्लू	13287
बीना	13288
##मीर	13289
##च्‍	13290
मैहर	13291
##पाथ	13292
पिपर	13293
माथा	13294
व्यू	13295
बुन	13296
अलॉट	13297
पूर्वांचल	13298
आयोजक	13299
##निर्माण	13300
पढ़ी	13301
##ंजलि	13302
प्रतिक	13303
बांदा	13304
विधानसभाओं	13305
भागते	13306
मंडप	13307
खेलकूद	13308
##स्तीनी	13309
पारदर्शिता	13310
पेशी	13311
पालना	13312
कौश	13313
##ोदर	13314
विजयपुर	13315
##सूत्र	13316
कटनी	13317
रुकी	13318
लाभार्थियों	13319
##मेन	13320
संभावनाएं	13321
रणदीप	13322
##फेरी	13323
किसके	13324
रीता	13325
रीति	13326
नमो	13327
संकाय	13328
कल्याणकारी	13329
सुखविंदर	13330
कांफ्रेंस	13331
वीरवार	13332
##टेनमेंट	13333
पालीवाल	13334
##ानुभूति	13335
शौर्य	13336
फ्रीज	13337
टोली	13338
सिंघल	13339
ढाबा	13340
##वाहाटी	13341
छीनकर	13342
जशपुर	13343
नौकरियां	13344
##ult	13345
पनडु	13346
तपस्या	13347
अखाड़ा	13348
शीतलहर	13349
मूर्तियों	13350
मच्छर	13351
घसीट	13352
अतीत	13353
##ोवेशन	13354
असामाजिक	13355
शाहजहांपुर	13356
सलूंबर	13357
पाटलिपुत्र	13358
सुषमा	13359
संगोष्ठी	13360
उर्मिला	13361
me	13362
sa	13363
अजी	13364
इंदर	13365
कष्ट	13366
कबा	13367
कच्छ	13368
खूं	13369
चार्ट	13370
जर्नल	13371
टेंशन	13372
डां	13373
थाली	13374
नस	13375
नजारा	13376
पद्ध	13377
पगड़ी	13378
भयान	13379
मर्जी	13380
राल	13381
रजा	13382
लड़ी	13383
##लता	13384
##बला	13385
##हाली	13386
##कक्ष	13387
##ओवर	13388
##चुर	13389
प्रका	13390
विमल	13391
##ोग्य	13392
निष्ठा	13393
मुड़	13394
##ंडई	13395
बताएं	13396
सुशीला	13397
सीर	13398
##रेला	13399
##ाइलों	13400
##स्ट्रा	13401
##टेबल	13402
##िव्य	13403
सरमा	13404
सरयू	13405
##स्तु	13406
पहुंचाई	13407
मेधा	13408
पीले	13409
जीडीपी	13410
##िप्स	13411
दुखी	13412
सबकुछ	13413
##सरत	13414
सहानुभूति	13415
आजकल	13416
बुझ	13417
एसएन	13418
रामभ	13419
गुंडा	13420
गुवाहाटी	13421
बद्री	13422
रेवेन्यू	13423
डीडी	13424
मांगते	13425
पढ़ाने	13426
तीर	13427
नियोजन	13428
बंदियों	13429
ट्रेडिंग	13430
दाखिला	13431
बैठकें	13432
टेक्	13433
जलम	13434
नजरअंदाज	13435
सौह	13436
मेडिस	13437
मिच	13438
निकलना	13439
असुर	13440
लाभार्थी	13441
क्लियर	13442
अजगर	13443
पेट्रोलियम	13444
कन्व	13445
इलेक्टोरल	13446
शंकराचार्य	13447
रेडियो	13448
दवाएं	13449
असमर्थ	13450
आर्टिफ	13451
केन्द्रों	13452
सिंघवी	13453
दुखद	13454
भतीजा	13455
कॉमर्शियल	13456
छिपे	13457
प्रताड़ना	13458
अंधेरा	13459
दिलचस्पी	13460
मुद्रास्फी	13461
लोकप्रियता	13462
offi	13463
माइक्रोस	13464
निपटारा	13465
स्क्रिप्ट	13466
लखीसराय	13467
दोगुना	13468
जौहर	13469
तिहाड़	13470
मुक़ाब	13471
पार्थिव	13472
टोटल	13473
सीआरपीएफ	13474
डिप्लोमा	13475
शृंगार	13476
प्रांतीय	13477
apple	13478
चिल्लाने	13479
विशाख	13480
अंपायर	13481
बुंदेलखंड	13482
भयानक	13483
मुद्रास्फीति	13484
office	13485
air	13486
pet	13487
एआर	13488
एल्व	13489
औचक	13490
खली	13491
खटीक	13492
टि	13493
डिम	13494
ढिल्ल	13495
निस	13496
ब्री	13497
भट्टा	13498
भनक	13499
मलेश	13500
वकाल	13501
सन्ना	13502
##ोगा	13503
##बै	13504
##28	13505
##फर्म	13506
##शित	13507
##चर्या	13508
##45	13509
##cl	13510
##man	13511
##‎‎	13512
काद	13513
परमा	13514
विरू	13515
जाकिर	13516
संवर्धन	13517
संधू	13518
##क्षिक	13519
मुसी	13520
हीर	13521
##माड़	13522
मिलनी	13523
बाराब	13524
मेष	13525
जीटी	13526
कैडेट	13527
##िपू	13528
106	13529
107	13530
लगवा	13531
देखता	13532
अभिया	13533
नाके	13534
नाश्	13535
दिल्‍ली	13536
रेकी	13537
आयोजकों	13538
##हारिक	13539
आरिफ	13540
क्रा	13541
क्रूर	13542
पढ़ते	13543
एमएसपी	13544
डेली	13545
मालगाड़ी	13546
प्रसू	13547
छोड़े	13548
पेशकश	13549
साइज	13550
धनु	13551
धनुष	13552
बांगड़	13553
तत्पर	13554
पलक	13555
ट्रांसफॉर्म	13556
##िबिलिटी	13557
##ंदीदा	13558
##र्दू	13559
मरांडी	13560
हाईकमान	13561
प्रशिक्षु	13562
साध्वी	13563
पसंदीदा	13564
##ेडकर	13565
उतरकर	13566
दामों	13567
वॉशिंगटन	13568
उतारकर	13569
##क्‍स	13570
बिंदुओं	13571
##राइज	13572
रोमांटिक	13573
अभियुक्तों	13574
जेईई	13575
कन्हैयालाल	13576
विस्फोटक	13577
संग्रहालय	13578
वन्यजीव	13579
अखाड़े	13580
स्पिनर	13581
माइनिंग	13582
खराबी	13583
विविधता	13584
हत्यार	13585
चक्रवाती	13586
इलाक़े	13587
सुकमा	13588
क्लेम	13589
नाहर	13590
##िटेक्निक	13591
इस्माइल	13592
कांकेर	13593
बरनाला	13594
दबदबा	13595
इनेलो	13596
आंबेडकर	13597
रसीद	13598
फिराक	13599
कर्पूरी	13600
वकालत	13601
बाराबंकी	13602
col	13603
कंडी	13604
कृत्य	13605
कयास	13606
ग्ले	13607
गानों	13608
चतरा	13609
छि	13610
छिन	13611
छप्	13612
दतिया	13613
धर्मा	13614
नसर	13615
पक्की	13616
फ्यूल	13617
यान	13618
यथा	13619
रघ	13620
लिंग	13621
सले	13622
सदा	13623
सानि	13624
##ाबाद	13625
##रखाव	13626
##ोने	13627
##ूष	13628
##तिल	13629
##हारा	13630
##ुकों	13631
##यली	13632
##दायक	13633
##चौ	13634
##rf	13635
##rol	13636
##ॉफ्ट	13637
##ेंस्की	13638
हैक	13639
हैरानी	13640
कीजिए	13641
##नामे	13642
विनायक	13643
मुफ्	13644
##्मय	13645
सरगना	13646
बेगम	13647
##द्दार	13648
मैके	13649
लाड़	13650
##तराम	13651
दूषित	13652
104	13653
रखरखाव	13654
डीएफओ	13655
समाजजन	13656
जीतन	13657
बांद्रा	13658
प्रभारियों	13659
अरमान	13660
प्रदर्शनकारी	13661
नरस	13662
लाइनों	13663
दुर्लभ	13664
मंत्रों	13665
रैक	13666
ज्वाइन	13667
बदलना	13668
ज़रिए	13669
प्लेइंग	13670
##ीकृत	13671
शिष्य	13672
जमाने	13673
त्रिश	13674
खोली	13675
स्टूडियो	13676
समागम	13677
जरूरतों	13678
##वाइड	13679
कोतवाल	13680
प्रोजेक्ट्स	13681
फॉरेस्ट	13682
पहलवानों	13683
1991	13684
सपनों	13685
टाइप	13686
जातिगत	13687
जुटाई	13688
अनुपस्थित	13689
समानता	13690
1980	13691
##ब्रिड	13692
##वैत	13693
प्रावधानों	13694
फुटपाथ	13695
दलितों	13696
फंसी	13697
ललितपुर	13698
गड्ढा	13699
अख़	13700
टेलीग्राम	13701
एनएचएआई	13702
क्लीनिक	13703
पॉलिटिक्स	13704
कम्पनी	13705
बिखरा	13706
भाद्र	13707
छीना	13708
इकलौता	13709
नक्शा	13710
काफिले	13711
अर्शदीप	13712
त्यौ	13713
पीलीभीत	13714
world	13715
बृहस्पतिवार	13716
नमूने	13717
कश्मी	13718
कत्ल	13719
अफ़ग़ानिस्तान	13720
प्रियांशु	13721
कस्टडी	13722
एल्विश	13723
te	13724
अटे	13725
आइट	13726
एवेन्यू	13727
कड़	13728
कहर	13729
खरे	13730
घोर	13731
चिट	13732
चहल	13733
डों	13734
डाइट	13735
तटीय	13736
धू	13737
धंधे	13738
नं	13739
फर्श	13740
बटन	13741
भला	13742
मर्ग	13743
मसूद	13744
वंदन	13745
सदी	13746
##रेशन	13747
##बिंद	13748
##बिलिटी	13749
##ड्स	13750
##नियां	13751
##शेर	13752
##ैब	13753
##war	13754
##ot	13755
##ृजन	13756
कोऑ	13757
##नेर	13758
##ालैंड	13759
परिस	13760
##स्ला	13761
##ियारी	13762
##ुलकर	13763
##टीसी	13764
##ासर	13765
##पीजी	13766
##माद	13767
सीजे	13768
राजग	13769
तोह	13770
अनशन	13771
2047	13772
बारां	13773
बेव	13774
##ापाई	13775
मेमोर	13776
##ेलियन	13777
पीके	13778
बैटर	13779
टीन	13780
बिछा	13781
दूल्हा	13782
रूक	13783
कॉर	13784
कॉमन	13785
गोध	13786
अम्	13787
रामदास	13788
प्रदेशों	13789
सुरंग	13790
डीग	13791
मार्शल	13792
शिक्षित	13793
क्रिए	13794
114	13795
मतभेद	13796
अलायंस	13797
प्रभास	13798
पोस्टल	13799
हाथापाई	13800
##तन्य	13801
मिर्च	13802
मिस्टर	13803
देवीलाल	13804
दौलत	13805
बढ़ाते	13806
लाभान	13807
तेवर	13808
रंगों	13809
चुनने	13810
डिजिट	13811
दिलावर	13812
हलफ	13813
##ami	13814
फेंकी	13815
जॉइंट	13816
किराये	13817
अनुमानित	13818
पॉलिटेक्निक	13819
stf	13820
लैंडिंग	13821
लहस	13822
अध्यापक	13823
मेगावाट	13824
indore	13825
##भूषा	13826
##ॉन्ग	13827
तथ्यों	13828
दबंगों	13829
सिक्के	13830
फायदेमंद	13831
##asht	13832
वेंकट	13833
पेटीएम	13834
हौसला	13835
शत्रुघ्न	13836
सरेआम	13837
वेशभूषा	13838
गोकुल	13839
पदोन्नति	13840
इमोशनल	13841
singh	13842
परिक्षेत्र	13843
प्रोटोक	13844
भ्रामक	13845
असुविधा	13846
प्रकाशन	13847
मलेशिया	13848
सानिध्य	13849
आइटम	13850
ic	13851
ssp	13852
yo	13853
आदी	13854
इश्	13855
उदा	13856
एन्	13857
कछ	13858
गंत	13859
गवाही	13860
घुम	13861
जिता	13862
डंप	13863
तंगी	13864
धुर्	13865
फेक	13866
बबी	13867
यलो	13868
श्यो	13869
##ोशी	13870
##बुद्ध	13871
##12	13872
##षकों	13873
##ारंग	13874
मेंस	13875
काय	13876
करिश्	13877
जाब्	13878
सावर	13879
##राओं	13880
##सेक	13881
थाई	13882
निज्जर	13883
कुआ	13884
अधिशा	13885
महर्षि	13886
अनन्या	13887
##ाजनक	13888
बेदी	13889
पीक	13890
जीर्ण	13891
कैरेट	13892
चलो	13893
चलेंगे	13894
102	13895
भागीर	13896
स्कॉल	13897
जैक	13898
अमले	13899
बैठाया	13900
आयोजनों	13901
फैले	13902
पोस्त	13903
क्रांतिक	13904
116	13905
अरबाज	13906
देवड़ा	13907
स्थानांतरित	13908
छोड़ना	13909
अग्रणी	13910
चिकन	13911
##फेक्शन	13912
##ine	13913
मूलभूत	13914
चैतन्य	13915
स्वीप	13916
फेरे	13917
लॉन्ग	13918
कोलार	13919
अर्बन	13920
व्यक्तित्व	13921
श्रेष्ठ	13922
पारीक	13923
अभियोजक	13924
एक्सेस	13925
प्रतिष्ठान	13926
1995	13927
अक्षत	13928
स्टैंडर्ड	13929
अनुपालन	13930
परमजीत	13931
वरना	13932
वरदान	13933
घटिया	13934
प्रतिभागी	13935
पवेलियन	13936
भड़के	13937
इशारे	13938
कार्तिकेय	13939
शीतला	13940
संवाददाता	13941
खंगाले	13942
कैपिटल	13943
मेकअप	13944
सीएए	13945
मौलिक	13946
फ़ैसले	13947
कुंडली	13948
खामिया	13949
एमबीबीएस	13950
ग्रोवर	13951
शिप्रा	13952
मिजाज	13953
...',	13954
रजनीकांत	13955
भुलैया	13956
चांसलर	13957
इकाइयों	13958
साक्षात्कार	13959
हरदोई	13960
डायरिया	13961
निःश	13962
आर्टिफिशियल	13963
भाद्रपद	13964
dies	13965
ww	13966
आत्	13967
कबू	13968
छोर	13969
ज्ये	13970
नोक	13971
फटने	13972
बब्	13973
ब्यूटी	13974
भेल	13975
मस्ती	13976
रेंजर	13977
वादी	13978
शरा	13979
शंख	13980
सस्ता	13981
##बेट	13982
##हेल	13983
##धक	13984
##वियों	13985
##वर्स	13986
##सर्ट	13987
##दायी	13988
##13	13989
##ly	13990
##ानियों	13991
##रीना	13992
एकीकृत	13993
पूर	13994
सुखा	13995
सुगम	13996
सुहाग	13997
महिपाल	13998
अनू	13999
##गेन	14000
मौन	14001
मौक़	14002
मोटे	14003
बेची	14004
मेवा	14005
मैदानी	14006
पीए	14007
बैराज	14008
टीडीपी	14009
सकु	14010
क्षमा	14011
कमिंस	14012
उपासना	14013
##एमई	14014
सूट	14015
##जारे	14016
भाट	14017
चौड़ाई	14018
आजसू	14019
गोबर	14020
##र्डिनेटर	14021
अन्यथा	14022
रातभर	14023
मानिक	14024
डीप	14025
शहरवासियों	14026
रविदास	14027
सफ़	14028
##ांडे	14029
बांटे	14030
भागकर	14031
आसिफ	14032
दिखाना	14033
सचेत	14034
एक्सपी	14035
##चित्र	14036
श्रॉफ	14037
138	14038
बिलियन	14039
सर्द	14040
##फेक्ट	14041
प्रेमियों	14042
मुलाक़	14043
सिकर	14044
चोटिल	14045
भविष्यवाणी	14046
आइस	14047
एक्सील	14048
सक्रियता	14049
शेख़	14050
विजया	14051
upsc	14052
##िफाइड	14053
हर्षित	14054
वाइफ	14055
द्वारका	14056
अदाणी	14057
चंपई	14058
छिपाने	14059
इरादे	14060
ज्वेलर्स	14061
स्क्वायर	14062
एनडीआरएफ	14063
today	14064
हाजिरी	14065
अंशुल	14066
बैलेंस	14067
टैगोर	14068
अटकलें	14069
sdm	14070
अभद्रता	14071
निर्विरोध	14072
खिंच	14073
नवनिर्वा	14074
छत्रपति	14075
गिरफ़्तार	14076
बैरिकेडिंग	14077
राजपुरोहित	14078
मुकुट	14079
शिल्पा	14080
मनोकामना	14081
लपटें	14082
हनुम	14083
जेएमएम	14084
धांधली	14085
पद्धति	14086
माइक्रोसॉफ्ट	14087
petrol	14088
लाभान्वित	14089
करिश्मा	14090
dr	14091
ns	14092
nh	14093
ncp	14094
sm	14095
ऋतु	14096
खजर	14097
गन्ने	14098
घना	14099
चेज	14100
धामी	14101
नानी	14102
बप्पा	14103
भट	14104
मता	14105
मंस	14106
रक	14107
रचा	14108
लाद	14109
सस्ती	14110
##रियन	14111
##बों	14112
##्ञ	14113
##‍ला	14114
केम	14115
##्रिया	14116
सेतु	14117
प्रीत	14118
प्रज्ञा	14119
##ामू	14120
##लेन्द्र	14121
स्का	14122
##त्रिक	14123
##सेसर	14124
##सेवकों	14125
अप्लाई	14126
सीटी	14127
##रोड	14128
##ौरन	14129
मौसमी	14130
बीस	14131
##जीक्यू	14132
##हरों	14133
##साथ	14134
लगाता	14135
दिनचर्या	14136
मैप	14137
सोर्स	14138
##तरफा	14139
##स्पद	14140
अनुभवी	14141
गिराने	14142
बहुल	14143
भागा	14144
##टाया	14145
##द्धा	14146
अभिले	14147
अमरी	14148
आईफोन	14149
जगदीप	14150
क्रिम	14151
##ंबू	14152
##ेंदु	14153
सुनसान	14154
उम्मीदें	14155
जेएन	14156
##ज़्	14157
170	14158
चर्चाओं	14159
2001	14160
ताे	14161
माताजी	14162
दिखाता	14163
लोहा	14164
रणथ	14165
रंगारंग	14166
वृषभ	14167
सिलेक्शन	14168
प्रेमचंद	14169
शीशे	14170
अंगूठी	14171
शक्तिशाली	14172
साधने	14173
पसरा	14174
फ्लाइंग	14175
घुसने	14176
टाइटल	14177
शैलेश	14178
शैक्षिक	14179
गोदारा	14180
तारों	14181
सुलझाने	14182
मानसिकता	14183
अल्लाह	14184
आईपीसी	14185
जख्म	14186
दिक्कतों	14187
##hop	14188
##cci	14189
खंगाला	14190
रौशन	14191
##mah	14192
संतुलित	14193
##विकास	14194
विक्रय	14195
श्रावण	14196
व्यावहारिक	14197
पशुपाल	14198
सेलिब्रेशन	14199
सिंगला	14200
सुशासन	14201
कस्टमर	14202
एसएसबी	14203
श्रीमद्	14204
लखीमपुर	14205
हत्य	14206
कार्मिकों	14207
जलेबी	14208
टीकाकरण	14209
महाप्रबंधक	14210
रेखांकित	14211
अनावरण	14212
खगड़िया	14213
खंभे	14214
जलमग्न	14215
सौहार्द	14216
सन्नाटा	14217
विरूद्ध	14218
कंडीशन	14219
लहसुन	14220
बबीता	14221
मुलाक़ात	14222
नवनिर्वाचित	14223
:-	14224
ag	14225
aaj	14226
bcci	14227
hindi	14228
rcb	14229
ug	14230
अंच	14231
असीम	14232
आओ	14233
उर्दू	14234
ख्वा	14235
जिद	14236
झाल	14237
झूल	14238
टां	14239
टैल	14240
डरे	14241
थान	14242
नपा	14243
पाला	14244
बाम	14245
बोट	14246
भस्म	14247
म्यू	14248
विलंब	14249
शटर	14250
सरोवर	14251
सविता	14252
सृजन	14253
हासन	14254
##रूप	14255
##ेध	14256
##वृत्ति	14257
##णाप	14258
##ran	14259
##झिम	14260
##ji	14261
##‍ि	14262
केपी	14263
कोर्	14264
होस्ट	14265
##वापी	14266
##करम	14267
विराम	14268
संज	14269
##नीचर	14270
मुंशी	14271
बीके	14272
##ापारा	14273
मैग	14274
बैरा	14275
परिद	14276
##वेस्ट	14277
वर्चुअल	14278
सूद	14279
माउंट	14280
चौरा	14281
चौपाल	14282
सहमत	14283
##द्धार	14284
अभिव्य	14285
गोले	14286
गोष्ठी	14287
गुजारा	14288
डिटेन	14289
##त्याशित	14290
बदौल	14291
डीएल	14292
##परि	14293
विधवा	14294
आदिल	14295
रिपेयर	14296
ऑफलाइन	14297
दाे	14298
दाऊ	14299
##मुग्ध	14300
जलदाय	14301
##ज़न	14302
समझिए	14303
लाइंस	14304
बढ़ाए	14305
रिफाइन	14306
एयरलाइन	14307
लक्ष्म	14308
अप्रत्याशित	14309
खासतौर	14310
ज्वाइंट	14311
डालें	14312
नवनीत	14313
क्लस्टर	14314
घुटने	14315
कार्डिय	14316
वीके	14317
##चलन	14318
कांव	14319
सिद्धार	14320
परिणामों	14321
किराना	14322
इजरायली	14323
फैलने	14324
तालमेल	14325
चक्रधर	14326
हाइब्रिड	14327
निर्दोष	14328
बृजमोहन	14329
छीनने	14330
##एमसीएच	14331
मेघालय	14332
राजनैतिक	14333
बराड़	14334
पीएचसी	14335
अध्यापकों	14336
स्विफ्ट	14337
जुटाए	14338
मदरसा	14339
खूबसूरती	14340
पशुपालन	14341
सुदामा	14342
भदौरिया	14343
share	14344
स्तंभ	14345
कम्युनिस्ट	14346
बिस्वा	14347
सीएनजी	14348
छुटकारा	14349
वर्णन	14350
रिसीव	14351
सर्राफा	14352
महत्वा	14353
मजेदार	14354
परमात्मा	14355
त्यौहार	14356
मेमोरियल	14357
बदौलत	14358
एट	14359
एटा	14360
ओल्ड	14361
टल	14362
दांत	14363
दखल	14364
पाम	14365
बस्त	14366
भयाव	14367
मत्स	14368
लां	14369
लंग	14370
वध	14371
वसीम	14372
सिला	14373
हता	14374
##लिक	14375
##जर्व	14376
##ब्री	14377
##डो	14378
##डि	14379
##वश	14380
##ुड़	14381
##ुवा	14382
##सैनिक	14383
##म्र	14384
##शैली	14385
##15	14386
##ty	14387
##्रिक	14388
##र्भ	14389
किय	14390
नेशन	14391
नेपाली	14392
पराग	14393
##ामृत	14394
विनाश	14395
##राशि	14396
##तिंदर	14397
संप्र	14398
देवन	14399
देवेन्द्र	14400
##ाये	14401
##ार्प	14402
बताएंगे	14403
सुभ	14404
सुने	14405
##्रेचर	14406
तकलीफ	14407
##ाहिर	14408
##वीपी	14409
बीडीओ	14410
बेअ	14411
##द्वीप	14412
बैड	14413
##र्मित	14414
बिहटा	14415
वर्गी	14416
कैरे	14417
प्रतिवर्ष	14418
हाला	14419
देशवासियों	14420
##ेरिया	14421
सुरेन्द्र	14422
शुष्क	14423
##धारकों	14424
नेताजी	14425
##साराम	14426
जगन	14427
123	14428
आरोग्य	14429
117	14430
##श्‍	14431
##प्रो	14432
टेस्ला	14433
मंगलसूत्र	14434
चंदौली	14435
ड्रिंक	14436
135	14437
समझकर	14438
##ग्गा	14439
##बेस	14440
175	14441
रिकवरी	14442
खेडकर	14443
पारदर्शी	14444
लॉकर	14445
रिचार्ज	14446
एयरब	14447
निकालना	14448
संभाली	14449
चिंताओं	14450
वीडी	14451
अंकुर	14452
खरीदकर	14453
दक्षता	14454
चाहा	14455
ठेला	14456
गुजराती	14457
छुड़ा	14458
प्रवृत्ति	14459
चिंताजनक	14460
झूले	14461
घूमते	14462
ज्ञानवापी	14463
सोचते	14464
कूड़े	14465
गुलाल	14466
स्ट्रक्चर	14467
##गेटिव	14468
पत्थरबाजी	14469
ऑडियंस	14470
दीवारों	14471
एशियन	14472
भड़का	14473
फर्नीचर	14474
छेड़खानी	14475
घाटा	14476
व्यवसायिक	14477
तेंदुलकर	14478
खिलाने	14479
खिलवाड़	14480
बंसी	14481
डायलॉग	14482
बारीकी	14483
हिंदुत्व	14484
सेल्फ	14485
द्रवि	14486
इरादा	14487
रिमझिम	14488
विश्लेषक	14489
##ratri	14490
कॉर्पोरेट	14491
वेटिंग	14492
कंसल्ट	14493
पेंडिंग	14494
मिजोरम	14495
वीकेंड	14496
कोंडा	14497
ग्रेजुएशन	14498
एनजीओ	14499
नियामक	14500
अनारक्षित	14501
मुइज्जू	14502
##चाराधीन	14503
पल्लवी	14504
हिंडनबर्ग	14505
गुरदासपुर	14506
संकीर्तन	14507
कीटनाशक	14508
खामियाजा	14509
diesel	14510
खजराना	14511
सिद्धारमैया	14512
भयावह	14513
mm	14514
si	14515
इम्प	14516
उड़ी	14517
कंध	14518
कतर	14519
कंबल	14520
गंड	14521
टहल	14522
ठा	14523
डेंट	14524
ड्रा	14525
दुप	14526
पर्च	14527
बिश	14528
बंपर	14529
माई	14530
मिक्स	14531
वड	14532
वेंट	14533
सिलाई	14534
सृष्टि	14535
##बि	14536
##बलों	14537
##तपा	14538
##क्रेट	14539
##सोर्स	14540
##sh	14541
##psc	14542
करणी	14543
##्यव	14544
##्युनिक	14545
##ियाें	14546
##ुराह	14547
राई	14548
समाय	14549
निवेदन	14550
कुट	14551
राजपाल	14552
दीया	14553
मिलेंगी	14554
बेत	14555
##जेन्द्र	14556
##जेवाला	14557
पीटने	14558
परिवादी	14559
क्षत्र	14560
पिंटू	14561
सूखा	14562
2026	14563
स्टॉफ	14564
भाकपा	14565
##एसएफ	14566
ट्रिब	14567
अवनीश	14568
पैरोल	14569
##फील्ड	14570
सदमे	14571
सदैव	14572
बोहरा	14573
प्रशस्ति	14574
हाट	14575
हावी	14576
##ब्बल	14577
1100	14578
एमए	14579
स्पाइ	14580
पुरात	14581
भागों	14582
जेन	14583
लालवानी	14584
...।	14585
भेजना	14586
पाकिस्‍तान	14587
निकलता	14588
लक्ष्यों	14589
ज़िले	14590
##सिफिक	14591
पटनायक	14592
एलईडी	14593
##विंद्र	14594
##ामाबाद	14595
याचिकाओं	14596
लौटाने	14597
कल्याणपुर	14598
फ्लिप	14599
मुस्लिमों	14600
1990	14601
खुशियां	14602
सत्ताधारी	14603
संतोषजनक	14604
ठंडे	14605
मधुम	14606
व्यापारिक	14607
निष्का	14608
##िवेटेड	14609
गरमा	14610
पुतले	14611
##पेक्ष	14612
टकराव	14613
बल्लेबाजों	14614
ब्रेकअप	14615
कमांडो	14616
जिहाद	14617
आवेदकों	14618
##बोर्ड	14619
अनुमोद	14620
खालसा	14621
क्यूसेक	14622
प्रधानाध्यापक	14623
एमएलए	14624
इलेक्ट्रॉनिक्स	14625
सांगवान	14626
एमबीए	14627
झेलनी	14628
थमने	14629
सिद्धांतों	14630
मऊगंज	14631
अन्तर्गत	14632
औषधि	14633
पूज्य	14634
प्रज्ज्वल	14635
वासुदेव	14636
नॉर्मल	14637
ड्रेनेज	14638
मर्यादा	14639
एक्यूआई	14640
निष्पादन	14641
बुनकर	14642
विशाखाप	14643
ढिल्लों	14644
मुसीबत	14645
प्रोटोकॉल	14646
निःशुल्क	14647
एक्सीलेंस	14648
##जीक्यूटिव	14649
परिदृश्य	14650
sal	14651
अड़	14652
अयोग	14653
अचल	14654
आउ	14655
कप्‍	14656
खण्ड	14657
ढी	14658
ढे	14659
थर्म	14660
नाद	14661
नज़	14662
फौरन	14663
मंगा	14664
रियर	14665
वाया	14666
सानिया	14667
##हिट	14668
##शमी	14669
##शियन	14670
##66	14671
##der	14672
##sl	14673
##99	14674
##िकेट	14675
##्यमी	14676
स्प्र	14677
जाऊंगा	14678
साबर	14679
##क्ष्म	14680
सिप	14681
##माझ	14682
पूरन	14683
सुले	14684
सुजीत	14685
महमू	14686
मोट	14687
पहुंचती	14688
मैट्रिक	14689
इनोवेशन	14690
अबकी	14691
कमर्शियल	14692
पाटन	14693
कहानियां	14694
कॉन	14695
सहन	14696
बुझा	14697
जैविक	14698
अमरो	14699
पैट	14700
अलविदा	14701
##्नि	14702
पूर्वजों	14703
नीता	14704
##ज्जा	14705
परिवारवाद	14706
जगराओं	14707
रविचंद्र	14708
टेक्स	14709
सोमनाथ	14710
भरपाई	14711
उद्यमी	14712
घोषणाप	14713
दोपहिया	14714
नारकोट	14715
समर्थित	14716
पड़ाव	14717
निकालते	14718
एलिवेटेड	14719
जिम्मेदारों	14720
सीमाओं	14721
पलामू	14722
##डेड	14723
आवाज़	14724
कॉन्सर्ट	14725
प्रतियोगी	14726
विनम्र	14727
पॉड	14728
पॉवर	14729
बांधने	14730
सूर्यवंशी	14731
खंडन	14732
आउटसोर्स	14733
भुगतना	14734
सूचीबद्ध	14735
नियंत्रक	14736
अटैच	14737
तिरु	14738
इजराइली	14739
दानिश	14740
टाइमिंग	14741
गुलशन	14742
सूरजपुर	14743
मनोनीत	14744
शौच	14745
भंडारा	14746
लेखपाल	14747
अधिवेशन	14748
अधिवक्ताओं	14749
प्रश्नपत्र	14750
इस्लामाबाद	14751
जुड़ाव	14752
जजपा	14753
##क्‍टर	14754
दिक्कतें	14755
ठिकाना	14756
फंसाया	14757
लुटेरे	14758
सेलिब्र	14759
टकराने	14760
टकराई	14761
डिस्चार्ज	14762
##ल्‍ड	14763
लिपिक	14764
घोड़े	14765
व्याख्यान	14766
लेफ्टिनेंट	14767
झोपड़ी	14768
डिटेल्स	14769
##व्यापी	14770
##ियोग्राफी	14771
जालसाज	14772
स्वामित्व	14773
सिमरन	14774
बाथरूम	14775
##फ्लिक्स	14776
स्कॉलर	14777
द्रविड़	14778
घोषणापत्र	14779
ak	14780
obc	14781
इज्ज	14782
एल्	14783
खदे	14784
गंदी	14785
गबन	14786
झुक	14787
धमत	14788
नृ	14789
नाप	14790
नासा	14791
ब्ले	14792
सज़ा	14793
हड्डी	14794
हंसी	14795
##ेगा	14796
##कार्ट	14797
##पेड	14798
केवाई	14799
केवट	14800
##ान्त	14801
किल्ल	14802
करूंगी	14803
परिसी	14804
##्यंत्र	14805
प्रहार	14806
##ियाँ	14807
बाउ	14808
##ंगली	14809
साक्षर	14810
##सीएच	14811
##नीकरण	14812
##लीन	14813
सिब्बल	14814
तोड़े	14815
##ाइयां	14816
##ल्टर	14817
मिलान	14818
मिलिट्री	14819
मैक	14820
कार्यभार	14821
कैंडल	14822
पाव	14823
हरस	14824
डॉन	14825
कहेंगे	14826
2027	14827
मुख्‍य	14828
नामित	14829
निकाह	14830
रूपये	14831
रामन	14832
गुज	14833
##ंसाली	14834
सुरिंदर	14835
नीना	14836
मारते	14837
पदनाम	14838
चेहरों	14839
मोहब्बत	14840
गाकर	14841
जलने	14842
प्रोफ़े	14843
##ance	14844
##म्बा	14845
148	14846
प्रसादी	14847
नौतपा	14848
हेयर	14849
गैले	14850
करवाएं	14851
##ग्रेशन	14852
उमरिया	14853
अमेरिक	14854
##पूर्णा	14855
बयानबाजी	14856
##वाहित	14857
मंत्रमुग्ध	14858
कटारा	14859
अंतराल	14860
नदीम	14861
रुद्र	14862
शिबू	14863
एलएल	14864
रवै	14865
रवैया	14866
अदालतों	14867
फेरी	14868
उल्टा	14869
छापे	14870
सुपरहिट	14871
##िक्सल	14872
##ण्डा	14873
अधीक्षण	14874
फ्लाई	14875
खंडपीठ	14876
प्रतिष्ठानों	14877
मिसाइलों	14878
कमिश्नरेट	14879
किरदारों	14880
##न्दर	14881
प्रमंडल	14882
##ity	14883
उज्जवल	14884
टॉर्च	14885
प्रमाणपत्र	14886
स्ट्रॉन्ग	14887
##घाड़ी	14888
वसूला	14889
1971	14890
सॉन्ग	14891
शहजाद	14892
ईशान	14893
मिथिलेश	14894
एजेंसियां	14895
बारीक	14896
वैष्णो	14897
इन्वेस्टिगेशन	14898
dev	14899
सराफा	14900
जहरीली	14901
डीआरएम	14902
evm	14903
सिखाया	14904
मेहमानों	14905
खटख	14906
सम्पूर्ण	14907
##तेश्वर	14908
धरातल	14909
गोल्डी	14910
सान्नि	14911
संक्रांति	14912
राजनेता	14913
फुसलाकर	14914
रोहतास	14915
षड्यंत्र	14916
प्रतिनियुक्ति	14917
उखाड़	14918
एथलेटिक्स	14919
त्वचा	14920
शशांक	14921
सावरकर	14922
अभिव्यक्ति	14923
मत्स्य	14924
रविचंद्रन	14925
धमतरी	14926
परिसीमन	14927
प्रोफ़ेसर	14928
सान्निध्य	14929
jan	14930
आजीव	14931
घटक	14932
चिंग	14933
जगा	14934
जमान	14935
तर्पण	14936
तंबा	14937
थ्री	14938
दंगे	14939
पट्टा	14940
फिंग	14941
बेश	14942
भानु	14943
रक्स	14944
लला	14945
शब	14946
हारी	14947
##गिर	14948
##ोवाल	14949
##ोद्धार	14950
##बड़ी	14951
##बदल	14952
##बुल्लाह	14953
##शाम	14954
##दू	14955
##णक	14956
##ईस	14957
##op	14958
##ve	14959
##li	14960
##ारक	14961
##ताड़ा	14962
इसरो	14963
बाहु	14964
##हाउस	14965
##सेप्ट	14966
निरोधक	14967
कारगर	14968
सिं	14969
कुत्ता	14970
सुदेश	14971
अनहो	14972
चुकाने	14973
जीएम	14974
##र्जित	14975
कैरियर	14976
पिंकी	14977
दुम	14978
कॉफी	14979
भाकर	14980
इंटर्न	14981
नेताम	14982
पिछला	14983
आरएल	14984
113	14985
##वलिया	14986
मीट्रिक	14987
उठी	14988
##ेंडेंट	14989
जेजेपी	14990
नंबरों	14991
सेवादार	14992
खुदरा	14993
##यानंद	14994
बेहाल	14995
उमड़ी	14996
मददगार	14997
##वाहिक	14998
प्रमुखता	14999
210	15000
दूरसंच	15001
खाती	15002
रोज़	15003
वाणी	15004
खासियत	15005
लगाएंगे	15006
तेरे	15007
लोहार	15008
तलाशने	15009
फ़ाय	15010
पौने	15011
कैमूर	15012
कॉन्क्लेव	15013
सोनकर	15014
दबाने	15015
1997	15016
थोड़े	15017
रिसे	15018
हलका	15019
स्टेटमेंट	15020
नेटफ्लिक्स	15021
तृप्ति	15022
डोम	15023
##ट्‌टर	15024
रोगी	15025
ऑलआउट	15026
इस्लामी	15027
बिरसा	15028
सिखों	15029
सेनानी	15030
जीतीं	15031
रघुनाथ	15032
सिंगरौली	15033
तुम्हारी	15034
उन्‍हें	15035
अफवाहों	15036
हमीदिया	15037
क्रूज	15038
जानकारियां	15039
पुण्यतिथि	15040
होलिका	15041
केदारनाथ	15042
निर्वहन	15043
रेनू	15044
बुलंदशहर	15045
संलिप्तता	15046
रेणुका	15047
अराजकता	15048
असाधारण	15049
डीएनए	15050
प्रतिद्वंद्वी	15051
यूएई	15052
श्यामा	15053
सकुशल	15054
रक्सौल	15055
अनहोनी	15056
दूरसंचार	15057
ke	15058
par	15059
अगेन	15060
आगर	15061
उचाना	15062
ऋषिक	15063
कवाय	15064
खिस	15065
जिग	15066
झर	15067
पांव	15068
पट्टे	15069
फ्रेम	15070
भर्	15071
भंसाली	15072
रान	15073
वचन	15074
शिया	15075
हाप	15076
##गड़ा	15077
##ोका	15078
##ोबा	15079
##जाल	15080
##िह	15081
##व्	15082
##व्यों	15083
##वृष्टि	15084
##फिल	15085
##शाक	15086
##48	15087
##ॉन्स	15088
##थरों	15089
##ber	15090
##mu	15091
##ारू	15092
कीचड़	15093
##र्णा	15094
##र्ची	15095
##नेड	15096
##ालों	15097
##नाद	15098
##वाते	15099
##केशनल	15100
##ियुक्त	15101
##लेटर	15102
भीख	15103
##तिमा	15104
लेक	15105
##गावत	15106
निहाल	15107
##लीकेशन	15108
सिंड	15109
##ंडलीय	15110
कुप	15111
कुवैत	15112
##ंहार	15113
बारूद	15114
##ोजपा	15115
##टेरियल	15116
पीथम	15117
लास्ट	15118
बैरल	15119
बिराद	15120
हरमन	15121
##एमओ	15122
जन्मे	15123
बनवारी	15124
सहेली	15125
आजमा	15126
कांग्रेसियों	15127
जैकी	15128
अमूल	15129
अम्ब	15130
रामलाल	15131
देशमुख	15132
अगवा	15133
बदसल	15134
तैसे	15135
सुरजेवाला	15136
माननीय	15137
महाशिव	15138
यूसु	15139
##च्छा	15140
##सलपुर	15141
##प्रथम	15142
दाएं	15143
आमदनी	15144
मंडली	15145
सैटेलाइट	15146
श्रुति	15147
लालपुर	15148
##िस्टिक	15149
##बेन	15150
बनाएगी	15151
बलू	15152
कराची	15153
एडवां	15154
धर्मांतरण	15155
रिटेल	15156
नोटा	15157
धनराशि	15158
रैंप	15159
तेरी	15160
चिड़िया	15161
##एनएल	15162
एलपीजी	15163
बोलना	15164
जामताड़ा	15165
फसलें	15166
डायरेक्शन	15167
पार्ट्स	15168
मुरारी	15169
वॉटर	15170
पहाड़ियों	15171
कूच	15172
गुजरते	15173
अनुभवों	15174
बेसब्री	15175
ध्वनि	15176
डूबे	15177
वाइल्ड	15178
भतीजी	15179
सच्चे	15180
फॉरेंसिक	15181
गुलाबी	15182
खातून	15183
शास्त्रीय	15184
फिरोजाबाद	15185
अन्नपूर्णा	15186
रिटर्निंग	15187
नशीले	15188
इटारसी	15189
कवच	15190
तबादले	15191
पशुपति	15192
सरायकेला	15193
क्रॉसिंग	15194
कन्नड़	15195
कार्बन	15196
महायज्ञ	15197
सुधांशु	15198
चक्रवात	15199
नाट्य	15200
प्लेसमेंट	15201
कब्रिस्तान	15202
बीएचयू	15203
नॉमिनेशन	15204
गावस्कर	15205
##गर्दी	15206
मसीह	15207
कनिष्ठ	15208
टीकमगढ़	15209
इक्विटी	15210
मुबारक	15211
कुसुम	15212
अमरोहा	15213
किल्लत	15214
आजीविका	15215
तंबाकू	15216
कवायद	15217
पीथमपुर	15218
बिरादरी	15219
बदसलूकी	15220
%,	15221
acc	15222
pu	15223
vi	15224
आंसर	15225
आचरण	15226
ईसी	15227
कदर	15228
चम्म	15229
छाने	15230
जली	15231
पां	15232
पोर	15233
पारियों	15234
बक्	15235
बराब	15236
लकी	15237
लायंस	15238
वज	15239
वशि	15240
शशिक	15241
सिन	15242
सघन	15243
##ोल्ला	15244
##जै	15245
##बिट	15246
##डार	15247
##िस्तानी	15248
##नान	15249
##वई	15250
##फो	15251
##फली	15252
##इया	15253
##ौंद	15254
##ba	15255
##bh	15256
##gr	15257
##lo	15258
##ँकि	15259
##्रेंस	15260
हैड	15261
किम	15262
कावड़	15263
##ताव	15264
परो	15265
परख	15266
##स्का	15267
विह	15268
##तीया	15269
##वार्ता	15270
समाह	15271
हीराम	15272
##्हान	15273
सुमेर	15274
सीस	15275
सीढ़ी	15276
##हरिया	15277
##विज्ञान	15278
##जाब	15279
हमको	15280
पहुंचाना	15281
पीओ	15282
पीला	15283
##पाउंड	15284
कम्युनिक	15285
उपयुक्त	15286
कहें	15287
सूख	15288
अनुचित	15289
रोकी	15290
प्रतिवेदन	15291
ट्रकों	15292
विकलांग	15293
##िटेशन	15294
फैक्टर	15295
वर्षगांठ	15296
सुबोध	15297
मौतों	15298
जगजीत	15299
मांगलिक	15300
126	15301
मार्जिन	15302
मनप्रीत	15303
155	15304
पदभार	15305
तीखी	15306
##ोहन	15307
गाए	15308
दिखते	15309
प्रोसेसर	15310
भरना	15311
जेएस	15312
मंडियों	15313
केसरी	15314
ड्रिल	15315
ड्रॉप	15316
बलजीत	15317
जल्दबाजी	15318
##टलर	15319
एडिट	15320
धर्मवीर	15321
##यूआई	15322
वारिस	15323
सर्वर	15324
स्टेन	15325
स्टेप	15326
##फाश	15327
टैब	15328
##एफएस	15329
क्लर्क	15330
डायमंड	15331
किसकी	15332
मुकाम	15333
##all	15334
उल्लास	15335
मरवाही	15336
सोनभद्र	15337
डाॅ	15338
धोखे	15339
उत्पादक	15340
मुश्किलों	15341
गोलियों	15342
##पंचायत	15343
1992	15344
बंधु	15345
फैक्ट्र	15346
ट्रॉमा	15347
इकट्‌	15348
स्ट्रांग	15349
अश्वनी	15350
आर्कि	15351
नालियों	15352
आंध्रप्रदेश	15353
मिश्रण	15354
चांदनी	15355
हाेने	15356
इंसानों	15357
एवरेज	15358
अमेजन	15359
पंडालों	15360
यूट्यूबर	15361
जहरीला	15362
श्रीमाली	15363
##umar	15364
उद्यमियों	15365
मच्छरों	15366
उन्नत	15367
एएनएम	15368
बानो	15369
कम्युनिटी	15370
politi	15371
टेलर	15372
प्रारूप	15373
सज्जन	15374
उर्वरक	15375
रफीक	15376
सुप्रिया	15377
result	15378
न्योता	15379
फ्यूचर	15380
मेडिसिन	15381
मिचेल	15382
ट्रांसफॉर्मर	15383
मुफ्ती	15384
श्योपुर	15385
थाईलैंड	15386
जीर्णोद्धार	15387
गंडक	15388
बराबरी	15389
bud	15390
cp	15391
tv	15392
tmc	15393
अष्ट	15394
आंव	15395
उस्	15396
कट्टे	15397
खट्‌टर	15398
झोंक	15399
फ्ले	15400
भरण	15401
यदु	15402
रैन	15403
लार्	15404
लर्निंग	15405
शंका	15406
##धव	15407
##कानी	15408
##निंग	15409
##नानगर	15410
##वगढ़	15411
##22	15412
##शंस	15413
##भन	15414
##भ्यास	15415
##43	15416
केर	15417
##्राह	15418
सेठी	15419
नेवी	15420
काव्य	15421
पराज	15422
##नाय	15423
##स्पा	15424
##स्मिक	15425
सायं	15426
लेयर	15427
राजस्‍	15428
दीक्ष	15429
दीवाली	15430
##कार्य	15431
बीटेक	15432
पीते	15433
पीएससी	15434
कैफ	15435
पाबंदी	15436
उपरो	15437
हरभ	15438
हराने	15439
##डीएफ	15440
रोहन	15441
हिज्	15442
माथे	15443
खिलाकर	15444
अभिमन	15445
##परिवार	15446
आरआर	15447
पत्थरों	15448
बांग्	15449
कुलविंदर	15450
वैद्य	15451
ब्राज	15452
राहगीर	15453
हेल्	15454
स्थानांतरण	15455
विरोधियों	15456
बिलख	15457
शेयरिंग	15458
सर्वप्रथम	15459
असें	15460
230	15461
एक्सपोर्ट	15462
##ates	15463
ज़िला	15464
तेरा	15465
यूपीआई	15466
शिखा	15467
मॉस्को	15468
त्रुट	15469
समावेश	15470
समाधि	15471
लुढ़	15472
मुलाजिम	15473
प्रशिक्षक	15474
फर्जीवाड़ा	15475
##ence	15476
सूर्योदय	15477
पोलियो	15478
कमाए	15479
प्रमोट	15480
तारीखों	15481
स्टेटस	15482
प्रतिमाओं	15483
जलापूर्ति	15484
##धीश्वर	15485
##ोलॉजिकल	15486
दौड़कर	15487
वर्कर्स	15488
सनराइज	15489
अमनदीप	15490
##ॉमस	15491
राधाकृष्ण	15492
बाघिन	15493
गेमिंग	15494
एटीएस	15495
निपटा	15496
विलय	15497
हकदार	15498
टुकड़ों	15499
रवीना	15500
chat	15501
सैमसन	15502
क्यूआर	15503
यमुनानगर	15504
शर्मिला	15505
जर्मन	15506
प्रोसेसिंग	15507
चाइना	15508
जहरीले	15509
ताराचंद	15510
खजुराह	15511
मूंगफली	15512
रिफंड	15513
एएनआई	15514
इकलौते	15515
विद्वान	15516
गोताखोरों	15517
चौड़ीकरण	15518
छुट्टियों	15519
तमंचा	15520
स्वदेशी	15521
एप्लीकेशन	15522
मैन्युफैक्चरिंग	15523
ओंकारेश्वर	15524
कबाड़	15525
हीरालाल	15526
अख़बार	15527
अम्बेडकर	15528
गंतव्य	15529
भागीरथ	15530
##‍लादेश	15531
कोंडागांव	15532
चम्मच	15533
##ोल्लास	15534
अभिमन्यु	15535
बांग्‍लादेश	15536
dc	15537
ek	15538
mand	15539
tra	15540
आभ	15541
कर्क	15542
कवर्	15543
खाप	15544
गढ़ी	15545
गश्ती	15546
छल	15547
झमाझ	15548
टनल	15549
तनु	15550
नायर	15551
पों	15552
पनीर	15553
माज	15554
लोजपा	15555
विलास	15556
सराहा	15557
हस	15558
##खत	15559
##मित्र	15560
##दत्त	15561
##पानी	15562
##छे	15563
##qu	15564
##नेशन	15565
कांत	15566
बाह	15567
विंध	15568
उनपर	15569
संस्करण	15570
संक्रमित	15571
कारें	15572
कार्यान	15573
महम	15574
अनिर	15575
##स्टो	15576
##ोजिट	15577
जोड़ों	15578
पीएन	15579
लाता	15580
लावार	15581
परिवाद	15582
क्षम	15583
बिठ	15584
##न्ट	15585
बनाये	15586
वेटर	15587
बहाना	15588
चौका	15589
चौंका	15590
##चार्या	15591
##शीष	15592
##िटल्स	15593
नागा	15594
फिली	15595
रूपेश	15596
रूपरेखा	15597
##कोत्तर	15598
रेसल	15599
महापंचायत	15600
पोशाक	15601
##ब्बी	15602
##ब्बू	15603
क्रैश	15604
मोहसिन	15605
##प्राइ	15606
मिलाया	15607
जीतना	15608
जेके	15609
मंडा	15610
नौबत	15611
सामानों	15612
दलजीत	15613
बल्‍	15614
लॉग	15615
पढ़ेंः	15616
रिह	15617
रिटेन	15618
संयम	15619
एक्सपो	15620
##मेकर	15621
##ौलिया	15622
रणजी	15623
चरणजीत	15624
बावड़ी	15625
कॉन्ट	15626
कॉलिंग	15627
छापाम	15628
बेचते	15629
शीला	15630
जालौन	15631
खुशहाली	15632
कक्षाएं	15633
मुरार	15634
अटूट	15635
ठंडक	15636
जलाया	15637
अर्थात	15638
##ोलॉजिस्ट	15639
यशवंत	15640
जस्टिन	15641
धारणा	15642
तृतीया	15643
सिंधु	15644
हर्षोल्लास	15645
माइंड	15646
प्रतिभाओं	15647
उत्तराधिकारी	15648
1977	15649
पत्रकारिता	15650
##क्‍ट	15651
दायरा	15652
लाठीचार्ज	15653
किताबों	15654
अनुराधा	15655
पृष्ठ	15656
मिथिला	15657
मित्रों	15658
##कांक्षी	15659
हस्तियों	15660
sup	15661
शाहीन	15662
आईएमए	15663
बिछाने	15664
तुम्हारा	15665
निचली	15666
रितु	15667
बीआरएस	15668
छुपा	15669
पिलर	15670
डुअल	15671
खुराना	15672
झाड़ू	15673
रश्मिका	15674
मीनू	15675
झांकियां	15676
फाल्	15677
जुनैद	15678
दुर्भाग्यपूर्ण	15679
सप्तमी	15680
मान्यताओं	15681
सौंदर्यीकरण	15682
फैसलों	15683
राइजिंग	15684
किन्नर	15685
आकस्मिक	15686
नसरल्लाह	15687
जाब्ता	15688
ज्येष्ठ	15689
हालाँकि	15690
पॉडकास्ट	15691
दुमका	15692
रिसेप्शन	15693
महाशिवरात्रि	15694
आर्किटे	15695
कवर्धा	15696
झमाझम	15697
550	15698
अड़े	15699
एनी	15700
कगार	15701
चॉक	15702
जफर	15703
डांड	15704
ड्रीम	15705
तूल	15706
धारी	15707
नकाब	15708
यार्ड	15709
वियत	15710
श्व	15711
हानिक	15712
##गड़	15713
##रियंस	15714
##बेंस	15715
##ूबी	15716
##कने	15717
##खरा	15718
##नरी	15719
##55	15720
##सां	15721
##सिस	15722
##दह	15723
##68	15724
##पोश	15725
##इयां	15726
##97	15727
##ॉजी	15728
##घरा	15729
##--	15730
##र्लिंग	15731
करम	15732
परवीन	15733
##नाया	15734
प्रेज	15735
##ियोज	15736
विमेंस	15737
साउंड	15738
हुंडई	15739
##नीज	15740
निंद	15741
मुंगे	15742
अधेड़	15743
सीडी	15744
राजकोट	15745
##स्टाइल	15746
##ल्टेज	15747
##काराम	15748
##िशियन	15749
बीपीएससी	15750
##विचार	15751
मैक्र	15752
मैडम	15753
सोते	15754
वर्च	15755
कमिटी	15756
कमज़	15757
पागल	15758
##ष्टा	15759
शिकायती	15760
उपक	15761
##र्व्यव	15762
आपबी	15763
पार्सल	15764
सूर	15765
सूक्ष्म	15766
अनुया	15767
##शीर	15768
एसिड	15769
##यरिंग	15770
नाख	15771
छाबड़ा	15772
रातों	15773
मानपुर	15774
डीवाई	15775
127	15776
महाविकास	15777
##भाविक	15778
मनमोह	15779
शिवरात्रि	15780
##प्रसाद	15781
एमवी	15782
बांधा	15783
स्पे	15784
पेड	15785
दिखती	15786
तेजधार	15787
सैर	15788
रनवे	15789
जमीनों	15790
##मुखी	15791
बलदेव	15792
##ग्राहियों	15793
अशर	15794
पाले	15795
##केश्वर	15796
मंत्रोच्च	15797
टिकी	15798
##ोसिस	15799
रैम	15800
सतह	15801
न्यायपालिका	15802
एलएन	15803
त्रिल	15804
बोलकर	15805
कॉन्फ	15806
बांधों	15807
हनुमानजी	15808
विवाहित	15809
उड़द	15810
प्रखंडों	15811
टाइट	15812
##त्तियां	15813
उज्ज्वल	15814
क्वीन	15815
निकलेगी	15816
मांगीलाल	15817
##िलेन	15818
मॉडलिंग	15819
दुर्घटनाग्रस्त	15820
सौरव	15821
##ident	15822
दृष्टया	15823
डिजाइनर	15824
स्कोरर	15825
हिमंत	15826
भड़की	15827
##पेई	15828
जापानी	15829
शहबाज	15830
डिलीट	15831
कमांडेंट	15832
शास्त्रों	15833
खतरों	15834
साहित्यकार	15835
स्नातकोत्तर	15836
योद्धा	15837
इमारतों	15838
कटाक्ष	15839
छिपाकर	15840
सेलिब्रेट	15841
आपातकाल	15842
एमएसएमई	15843
दाहिने	15844
कासगंज	15845
उन्नति	15846
बारहवीं	15847
पीठासीन	15848
तानाशाही	15849
प्‍ले	15850
ऑब्जर्व	15851
पिंजरे	15852
टोक्यो	15853
प्रेग्नेंट	15854
सौम्या	15855
गाँव	15856
अभियानों	15857
collection	15858
मताधिकार	15859
फ्लिपकार्ट	15860
केवाईसी	15861
हापुड़	15862
हीरामंडी	15863
उस्मान	15864
उपरोक्त	15865
##र्व्यवहार	15866
आपबीती	15867
by	15868
ban	15869
cb	15870
id	15871
ji	15872
mi	15873
mla	15874
sk	15875
son	15876
tw	15877
आदान	15878
इस्क	15879
उम्म	15880
ऋत	15881
एजी	15882
ऐश	15883
ग्रेट	15884
घूस	15885
चन्नी	15886
जतिंदर	15887
नस्ल	15888
नंदन	15889
पत्रा	15890
पन्नू	15891
भूट	15892
भलाई	15893
रुम	15894
शॉल	15895
हफ्त	15896
हज़	15897
##ोले	15898
##बुआ	15899
##27	15900
##सचिव	15901
##मंत्र	15902
##दौर	15903
##14	15904
##प्रा	15905
##पल्ली	15906
##49	15907
##uti	15908
हैट्रिक	15909
##नेई	15910
किस्से	15911
नेक	15912
##नाबाद	15913
##स्केट	15914
प्रयुक्त	15915
बाजे	15916
##लाज	15917
##लेक्स	15918
##त्रिम	15919
देवरी	15920
देवेश	15921
रहो	15922
निदान	15923
दोहरी	15924
अधूरी	15925
महराज	15926
बीडी	15927
##जेज	15928
सोचना	15929
जीन	15930
सकेंगी	15931
तरक्की	15932
##िप्र	15933
चलेंगी	15934
ग्रिड	15935
ट्रिपल	15936
खिलाया	15937
अभिर	15938
एसजी	15939
चाहेंगे	15940
अविश्वास	15941
अलगाव	15942
##आईएस	15943
उत्कर्ष	15944
##ेंटेशन	15945
सदियों	15946
श्रीफल	15947
मनजीत	15948
क्रूड	15949
##धिकृत	15950
प्रदू	15951
स्वाभाविक	15952
उम्मीदों	15953
ब्रिक्स	15954
पंचामृत	15955
एक्सईएन	15956
खेलेंगे	15957
चंदू	15958
बुधनी	15959
50mp	15960
देंगी	15961
बलराज	15962
पूर्वा	15963
शाहपुरा	15964
लौटना	15965
एजाज	15966
सर्दियों	15967
##ॉर्डन	15968
उठाएंगे	15969
त्रय	15970
एफडी	15971
मंे	15972
धरम	15973
फेफ	15974
बदलावों	15975
विनर	15976
जागरुक	15977
हटाना	15978
##वेटिव	15979
तकनीकों	15980
एक्स्ट्रा	15981
1994	15982
कक्षाओं	15983
360	15984
मशीनरी	15985
##न्दन	15986
बागपत	15987
प्रेसवार्ता	15988
विजेंद्र	15989
प्रयोगशाला	15990
प्रतीत	15991
निष्कर्ष	15992
हर्षवर्धन	15993
##ima	15994
##thor	15995
बौछ	15996
पीएचई	15997
मछल	15998
अपमानित	15999
सीआईएसएफ	16000
रिवर	16001
खालिस्तान	16002
पनप	16003
रत्ना	16004
विराजित	16005
##ोग्राफर	16006
दंपति	16007
प्रज्वलित	16008
कंटेस्ट	16009
हमीरपुर	16010
लीडरशिप	16011
शालिनी	16012
##ल्लेवाल	16013
पेंड्रा	16014
विक्रेताओं	16015
पायदान	16016
इलाक़ों	16017
काबिज	16018
नवीनीकरण	16019
नाचते	16020
पर्दाफाश	16021
जांगिड़	16022
जातकों	16023
संवेदना	16024
author	16025
अधिशासी	16026
स्काउट	16027
##ज़्ज़	16028
मैगजीन	16029
रिफाइनरी	16030
नारकोटिक्स	16031
गैलेक्सी	16032
फिंगर	16033
वशिष्ठ	16034
दीक्षांत	16035
खजुराहो	16036
हानिकारक	16037
car	16038
ceo	16039
caa	16040
date	16041
htt	16042
nar	16043
अघाड़ी	16044
उगा	16045
कस्त	16046
कसर	16047
गन्ना	16048
डेल	16049
डंडा	16050
डल्लेवाल	16051
ढ़	16052
दशा	16053
पाह	16054
बत्ती	16055
बगावत	16056
मजी	16057
मद्र	16058
यंग	16059
रक्षक	16060
रसू	16061
लाज	16062
वहाँ	16063
सखी	16064
हिला	16065
##जेंडर	16066
##िमेंट	16067
##वमी	16068
##वड़े	16069
##्नों	16070
##्बर	16071
##श्रम	16072
##दो	16073
##एँ	16074
##पट्टी	16075
##ौदी	16076
##va	16077
##घी	16078
कोबरा	16079
##िलर	16080
##िलाल	16081
##क्लो	16082
##ांता	16083
##ांबी	16084
स्वे	16085
राऊ	16086
जासू	16087
##रीदी	16088
##वाराम	16089
एकसाथ	16090
एकतरफा	16091
संरेख	16092
देसाई	16093
##टीओ	16094
##भाषा	16095
##पींस	16096
##माटर	16097
सुहाना	16098
सीढ़ियों	16099
अन्ना	16100
##कारे	16101
बीवी	16102
बीयर	16103
##किब	16104
##मीड	16105
मोटा	16106
बिखर	16107
सामंज	16108
कैथ	16109
कम्	16110
मांड	16111
दुर्व्यवहार	16112
लगना	16113
माताओं	16114
ट्रस्टी	16115
नाश	16116
पैपरा	16117
गुजार	16118
दिलों	16119
##दानंद	16120
सुराज	16121
रेह	16122
डीएसटी	16123
लीकेज	16124
मनदीप	16125
119	16126
इंडियंस	16127
एनआरआई	16128
रिपोर्टिंग	16129
एम्प	16130
संगरूर	16131
दाग	16132
वैवाहिक	16133
कृत्रिम	16134
##राजपुर	16135
कलक्टर	16136
गंवाने	16137
मालती	16138
इंद्रा	16139
147	16140
चंदेल	16141
137	16142
जल्‍	16143
##िश्च	16144
बेहोशी	16145
बलबीर	16146
##फ़्	16147
एयरटेल	16148
##ati	16149
लाभुकों	16150
उठाव	16151
सप्ला	16152
ज्ञात	16153
गायिका	16154
त्रिवे	16155
##ini	16156
मुकुल	16157
वीवो	16158
##alme	16159
##नेशिया	16160
सभाओं	16161
सिक्का	16162
संकुल	16163
मूसे	16164
##ट्रैक्ट	16165
सोनम	16166
नाराज़	16167
उतारे	16168
कनक	16169
वर्ल्डवाइड	16170
अमरवाड़ा	16171
तुमने	16172
निभाते	16173
फेंके	16174
रेफरल	16175
अकाउंटेंट	16176
वायदा	16177
##old	16178
हितग्राहियों	16179
जूली	16180
##ट्‌टे	16181
मुक्तसर	16182
राजदूत	16183
कॉन्फ्रेंसिंग	16184
जहाजों	16185
निर्माताओं	16186
अमीन	16187
कागजों	16188
विज्ञप्ति	16189
शारदीय	16190
बाजपेयी	16191
ओटीपी	16192
अंजली	16193
हिल्स	16194
पतंजलि	16195
दोगुनी	16196
कार्यपालन	16197
डिस्कॉम	16198
वांछित	16199
पुस्तकाल	16200
क्रेज	16201
प्रारम्भ	16202
रचनात्मकता	16203
आश्रित	16204
प्रोटेक्शन	16205
bsf	16206
सईद	16207
सिंदूर	16208
लाड़ली	16209
www	16210
क्रिमिनल	16211
वेंटिले	16212
क्षत्रिय	16213
ट्रिब्यून	16214
थर्मल	16215
साबरमती	16216
साक्षरता	16217
ऋषिकेश	16218
हरभजन	16219
इस्कॉन	16220
हफ्तों	16221
सामंजस्य	16222
पैपराजी	16223
5वें	16224
kg	16225
mu	16226
ईको	16227
उंगली	16228
खर्चा	16229
जुर	16230
जूस	16231
टमाटर	16232
ठोक	16233
ठोकर	16234
डिक	16235
डिन	16236
थॉमस	16237
दयानंद	16238
धंस	16239
पग	16240
पड	16241
प्या	16242
पारे	16243
फां	16244
बोग	16245
बहर	16246
मादा	16247
रसाय	16248
वड़	16249
विलेन	16250
##रर	16251
##ूजा	16252
##तई	16253
##ेग	16254
##नार	16255
##वित	16256
##ंर	16257
##यंत्र	16258
##35	16259
##31	16260
##चाप	16261
##hul	16262
परच	16263
##क्म	16264
##क्टेड	16265
विदा	16266
विचाराधीन	16267
साक्ष	16268
निर्ज	16269
अपर्णा	16270
मुस्क	16271
##टीमेट	16272
##ासाह	16273
कुंज	16274
मौर्या	16275
मेट	16276
बैंस	16277
इनो	16278
तरन	16279
##ेटिक	16280
उपराज्य	16281
आयरन	16282
सूत्री	16283
109	16284
चौबी	16285
निक्की	16286
गोविल	16287
दिवाकर	16288
मानद	16289
डीएस	16290
श्रीनिवास	16291
क्रिट	16292
पढ़कर	16293
पिताजी	16294
नियमा	16295
##प्रण	16296
एमआर	16297
विदर्भ	16298
वीडियोग्राफी	16299
संगी	16300
सुरक्षाकर्मी	16301
सुरक्षाकर्मियों	16302
कलाम	16303
शनिदेव	16304
134	16305
1800	16306
##ोदरा	16307
वारंटी	16308
ज़िक्र	16309
3500	16310
डायरी	16311
##ांगना	16312
उत्सुक	16313
ड्राइवरों	16314
एक्सप्रेसवे	16315
झाझा	16316
बर्फी	16317
शिविरों	16318
##lect	16319
उद्योगपतियों	16320
टॉर्क	16321
स्पीच	16322
पावरप्ले	16323
जलाशय	16324
##्रहमान	16325
बागेश्वर	16326
अनुपात	16327
कुशीनगर	16328
यशपाल	16329
वेतनमान	16330
realme	16331
टोपी	16332
खींव	16333
##ung	16334
##unav	16335
स्‍क	16336
हाइवा	16337
मूवीज	16338
झुग्गी	16339
मसले	16340
नंदलाल	16341
तूफ	16342
आंगनवाड़ी	16343
1962	16344
बंशी	16345
पटाखों	16346
##ॉयड	16347
एकजुटता	16348
chunav	16349
फील्डिंग	16350
निषेध	16351
एनटीपीसी	16352
अधीनस्थ	16353
ईमानदार	16354
लड़ेगी	16355
चिंतन	16356
पठानकोट	16357
गहनता	16358
वाट्स	16359
गुरूवार	16360
नवनिर्मित	16361
ग्रेजुएट	16362
जुनून	16363
रेगुलर	16364
गिरफ़्त	16365
##बोधन	16366
इंटीरियर	16367
ट्यूबवेल	16368
कठिनाई	16369
बगीचे	16370
मण्डल	16371
इंडोनेशिया	16372
ग्यारह	16373
उकसा	16374
फहराया	16375
दीर्घकालिक	16376
csk	16377
रालोद	16378
गुंडागर्दी	16379
क्रूरता	16380
इश्क	16381
उदासीन	16382
क्रांतिकारी	16383
एक्सपीरियंस	16384
एयरबैग	16385
डेंटल	16386
एडवांस्ड	16387
वज्र	16388
कम्युनिकेशन	16389
राजस्‍थान	16390
लावारिस	16391
बल्‍ले	16392
चॉकलेट	16393
वर्चस्व	16394
त्रिवेणी	16395
पुस्तकालय	16396
उपराज्यपाल	16397
खींवसर	16398
.)	16399
cji	16400
har	16401
le	16402
nia	16403
ott	16404
sr	16405
अंड	16406
अहीर	16407
आली	16408
इम्	16409
गें	16410
गम्	16411
छिट	16412
टाट	16413
टिप्स	16414
डीड	16415
थक	16416
थिर	16417
दय	16418
धंधा	16419
पते	16420
पित्र	16421
पेंच	16422
रशीद	16423
रडार	16424
लिप्त	16425
वय	16426
हर्	16427
##गेशन	16428
##गवां	16429
##राल	16430
##राना	16431
##ोता	16432
##बम	16433
##बिल	16434
##िडे	16435
##व्वर	16436
##्दा	16437
##फ्लो	16438
##दरा	16439
##37	16440
##एंड	16441
##hat	16442
##jd	16443
##//	16444
##ारोपण	16445
केजी	16446
किंतु	16447
काका	16448
काजी	16449
परत	16450
विट	16451
विड	16452
##राजन	16453
मुगल	16454
##मास्टर	16455
सुम	16456
सीलिंग	16457
सीक्रेट	16458
##रेड	16459
##ानाथ	16460
##पुरुष	16461
##हरि	16462
##हराने	16463
सरिया	16464
##स्थापन	16465
पहुँ	16466
##ुप्र	16467
##्वॉय	16468
कहला	16469
बनें	16470
सबम	16471
लगन	16472
कॉम्ब	16473
गिरते	16474
माही	16475
एसई	16476
रामनाथ	16477
गुजरी	16478
खुर्	16479
रेगु	16480
मारवाड़ी	16481
##्लाद	16482
##निंदा	16483
स्वत	16484
मीठा	16485
बंदोब	16486
पंथ	16487
##ट्ठी	16488
स्पेन	16489
तबाह	16490
पुरूष	16491
जलज	16492
जेएल	16493
अरूण	16494
अरविन्द	16495
रनोट	16496
##स्कूल	16497
हेरा	16498
संपदा	16499
भेजते	16500
चर्चाएं	16501
मनाए	16502
ताऊ	16503
संयंत्र	16504
असंभव	16505
##साइज	16506
ज़ोर	16507
लोडिंग	16508
##ियारों	16509
ज्ञानी	16510
जमात	16511
सेंटरों	16512
चैप्टर	16513
भुज	16514
##दमों	16515
उच्चतर	16516
मंजीत	16517
उम्रकै	16518
ठेले	16519
कांटा	16520
श्रेया	16521
बर्ताव	16522
##adashi	16523
उड़ानों	16524
रिसॉर्ट	16525
##गुड़ी	16526
##urn	16527
गुजरना	16528
##hand	16529
लूटे	16530
जसपाल	16531
rep	16532
अल्टीमेट	16533
परंपराओं	16534
रोगों	16535
गर्मियों	16536
चमकी	16537
सेटअप	16538
झुंड	16539
संभालेंगे	16540
इशारों	16541
नंदिनी	16542
तीर्थया	16543
खींचकर	16544
अविवाहित	16545
टेलीविजन	16546
बैकग्राउंड	16547
##दर्शक	16548
विश्लेषकों	16549
बीतने	16550
अनुशंसा	16551
उड़ाया	16552
दर्शाती	16553
दिखीं	16554
तड़प	16555
नुक्कड़	16556
वसूलने	16557
एथलीट	16558
कास्टिंग	16559
इकोनॉमिक	16560
एनएसयूआई	16561
फूंक	16562
टेंपो	16563
शमशेर	16564
एंटरटेनमेंट	16565
##ogle	16566
पिंडदान	16567
खेमे	16568
रैलियों	16569
असंतोष	16570
क्‍यों	16571
ज़िम्मेदारी	16572
फिलिस्तीन	16573
ह्यूमन	16574
अनाउंसमेंट	16575
ब्राउन	16576
स्टालिन	16577
सुथार	16578
कौशांबी	16579
तोहफा	16580
उड़ीसा	16581
पुरातत्व	16582
निष्कासित	16583
महमूद	16584
इज्जत	16585
बाहुबली	16586
puja	16587
सनराइजर्स	16588
कार्यान्वयन	16589
डांडिया	16590
उम्रकैद	16591
420	16592
://	16593
di	16594
iit	16595
sbi	16596
ईपी	16597
जेंडर	16598
टिम	16599
टिका	16600
धुल	16601
धुत	16602
नद	16603
नंदा	16604
पछ	16605
पें	16606
बवानी	16607
भट्टी	16608
मट	16609
मण	16610
रफ़	16611
लत	16612
लक्	16613
लाला	16614
लवली	16615
शकील	16616
सेंस	16617
हवेली	16618
##गृह	16619
##ोत	16620
##बाला	16621
##बिटीज	16622
##हद	16623
##डियन	16624
##खम	16625
##वर्थ	16626
##मिल	16627
##मला	16628
##फेर	16629
##67	16630
##पोरेशन	16631
##ैस	16632
##to	16633
##pur	16634
##ढी	16635
##vp	16636
##xy	16637
##za	16638
सेटिंग	16639
कालिया	16640
##ताई	16641
प्रबल	16642
होन	16643
स्काई	16644
जाधव	16645
हुनर	16646
पहनी	16647
निवाड़ी	16648
##ार्दन	16649
##पीए	16650
राजवीर	16651
राजगीर	16652
अन्व	16653
चुनिंदा	16654
##ाहट	16655
बीएमसी	16656
##ोज़	16657
मोमेंट	16658
पहुंचता	16659
##िंग्स	16660
मेद	16661
##पाटी	16662
जीरा	16663
गांजे	16664
बिच	16665
वर्ल्‍ड	16666
घरौ	16667
दुग्ध	16668
ट्राई	16669
##्यूम	16670
इंस	16671
अभूत	16672
जैत	16673
अव्वल	16674
रामगोपाल	16675
अगल	16676
दिलाना	16677
दिलवाने	16678
बदतर	16679
बैठते	16680
जिलेभर	16681
मानो	16682
प्रशस्त	16683
122	16684
पहुंचेगा	16685
118	16686
##त्वना	16687
पंखा	16688
प्रत्यार	16689
करेंसी	16690
##ट्ठ	16691
##ट्टन	16692
##ुकूल	16693
उम्मीदवारी	16694
सुरक्षाबलों	16695
फरमान	16696
फीमेल	16697
तेज़	16698
##anj	16699
मंडरा	16700
विशेषकर	16701
डेथ	16702
सौते	16703
132	16704
रिकवर	16705
पारि	16706
पारदी	16707
ट्रैकिंग	16708
##टलैंड	16709
राष्ट्रवादी	16710
रिवाज	16711
सांत्वना	16712
रैप	16713
ज़िंदगी	16714
सतत	16715
मशाल	16716
चैम्प	16717
मुलायम	16718
वारदातें	16719
प्रतियोगिताएं	16720
शीश	16721
ठेस	16722
बांधवगढ़	16723
झाबुआ	16724
वीरांगना	16725
उद्देश्यों	16726
प्रीतम	16727
राजावत	16728
टॉवर	16729
दामन	16730
स्मिथ	16731
मोहल्लों	16732
सरपंचों	16733
एचपी	16734
जूही	16735
संजीवनी	16736
अंडरग्राउंड	16737
सुंदरकांड	16738
निराधार	16739
स्वयंसेवकों	16740
एडमिन	16741
ऑडिशन	16742
##स्थापना	16743
कुर्बानी	16744
पुष्पांजलि	16745
ओपनर	16746
##मेट्रिक	16747
मीनाक्षी	16748
मृत्युंजय	16749
##सलाधार	16750
##ims	16751
rahul	16752
मयूर	16753
प्रसारित	16754
कागजी	16755
डायलिसिस	16756
कैपिटल्स	16757
टेलीकॉम	16758
पचमढ़ी	16759
##दर्शियों	16760
गोंड	16761
संग्रहण	16762
google	16763
रचने	16764
एकेडमिक	16765
नवनियुक्त	16766
ढांचा	16767
अनियमितताओं	16768
प्रत्यक्षदर्शियों	16769
एनएसई	16770
court	16771
##ढे़	16772
सोहेल	16773
काबिल	16774
अतीक	16775
##hpur	16776
##कायदा	16777
दारोगा	16778
##ण्डी	16779
फेरबदल	16780
सीमांकन	16781
##endra	16782
##____	16783
ऑटोमैटिक	16784
ऑर्गे	16785
उछलकर	16786
शाक्य	16787
कश्मीरी	16788
डोंगर	16789
सिकरवार	16790
केमिस्ट्री	16791
कांवड़ियों	16792
अयोग्य	16793
मुख्‍यमंत्री	16794
ekadashi	16795
क्षमताओं	16796
मुंगेली	16797
मनमोहक	16798
अशरफ	16799
प्रदूषित	16800
मद्रास	16801
जल्‍द	16802
गम्भीर	16803
पित्रोदा	16804
अभूतपूर्व	16805
cup	16806
dcp	16807
gst	16808
ii	16809
sw	16810
आबू	16811
ईओ	16812
ओवल	16813
गिनी	16814
गजेन्द्र	16815
झी	16816
टर्	16817
तस	16818
थरूर	16819
पर्थ	16820
मूड	16821
मर्द	16822
यंत्री	16823
रूल	16824
लेंगी	16825
वक्ताओं	16826
##बुल	16827
##बेल	16828
##त्य	16829
##हिर	16830
##ेह	16831
##डिस	16832
##कड़ी	16833
##खड़ा	16834
##खाली	16835
##खोरी	16836
##ुका	16837
##ंजे	16838
##17	16839
##एड	16840
##प्न	16841
##चन्द्र	16842
##ऊंगी	16843
##sg	16844
केला	16845
##र्की	16846
नेवि	16847
काठ	16848
होडल	16849
बास्केट	16850
##करणीय	16851
##लाधिकारी	16852
##ंगस	16853
रावल	16854
##ुल्स	16855
यहू	16856
कुंदर	16857
दोहरे	16858
##रोड़	16859
##स्टन	16860
दीप्ति	16861
मौकों	16862
बीसलपुर	16863
सरस	16864
मोई	16865
बेम	16866
बेरी	16867
मैसूर	16868
सालभर	16869
कमियों	16870
पिपरा	16871
आयशा	16872
क्षेत्रफल	16873
रूबी	16874
जनजीवन	16875
जनकल्याण	16876
जनार्दन	16877
चलन	16878
लगाम	16879
वेणु	16880
##सरसाइज	16881
गिरधारी	16882
चौम	16883
सहूल	16884
बुढ़	16885
गोड्डा	16886
अवमान	16887
##ंट्स	16888
महासागर	16889
पदम	16890
शिवहर	16891
स्वराज	16892
एनआईटी	16893
एमआईसी	16894
##...	16895
बांके	16896
145	16897
चंद्रम	16898
समझें	16899
1600	16900
देवस्थान	16901
खरीफ	16902
##चेरी	16903
पेशाब	16904
##्यानंद	16905
कराटे	16906
पीएमएल	16907
अंदरूनी	16908
##्‍त	16909
##्‍स	16910
##माशंकर	16911
शावक	16912
संयोजन	16913
पलटी	16914
मुकाबलों	16915
उदयभान	16916
प्रस्तावों	16917
फ्रिज	16918
मूसलाधार	16919
संस्थाएं	16920
सुखद	16921
उतने	16922
बर्बर	16923
नकुल	16924
1993	16925
खुशियों	16926
चेकअप	16927
शैलेन्द्र	16928
टॉम	16929
पहाड़िया	16930
प्रभाकर	16931
बीमारियां	16932
जसविंदर	16933
गोरखनाथ	16934
नवीनतम	16935
धारक	16936
सब्जेक्ट	16937
आर्ट्स	16938
अग्निक	16939
आराध्य	16940
बड़ौदा	16941
##लाइड	16942
##वायड	16943
ग़लत	16944
प्रजाति	16945
उलझा	16946
घाव	16947
बांसुरी	16948
बहादुरगढ़	16949
कुरू	16950
कंपाउंड	16951
लकड़ा	16952
सर्चिंग	16953
चूरा	16954
रघुवीर	16955
रॉयल्स	16956
elections	16957
भयंकर	16958
हिरदाराम	16959
##नीशियन	16960
##ॉफिट	16961
सजग	16962
##जीबिशन	16963
1947	16964
बायोमेट्रिक	16965
पाठ्यक्रमों	16966
मॉड्यूल	16967
दवाइयों	16968
मुस्तफा	16969
सूबेदार	16970
अनिश्चितकालीन	16971
पीठाधीश्वर	16972
पखवाड़े	16973
क्रमशः	16974
##chang	16975
फार्मा	16976
वानखे	16977
निगाहें	16978
navratri	16979
यूरिया	16980
टिप्पणियों	16981
##्राज्य	16982
कूटनीतिक	16983
टेक्नीशियन	16984
बस्तियों	16985
संप्रभु	16986
कुटु	16987
अनुमोदन	16988
भर्तियों	16989
यूसुफ	16990
हिज्बुल्लाह	16991
mandir	16992
अनिरुद्ध	16993
पृष्ठभूमि	16994
वियतनाम	16995
कमज़ोर	16996
जासूसी	16997
साक्ष्यों	16998
तूफानी	16999
गिरफ़्तारी	17000
अल्टीमेटम	17001
अन्वेष	17002
.,	17003
cn	17004
gand	17005
gala	17006
jjp	17007
kumar	17008
nta	17009
shi	17010
viv	17011
आंत	17012
उध	17013
उबर	17014
एप्र	17015
कटर	17016
गरिया	17017
जिप	17018
ज्यू	17019
तिज	17020
दिश	17021
दमन	17022
नित्य	17023
पसी	17024
फिक्स	17025
बर्म	17026
लक्की	17027
व्ला	17028
।‎	17029
##गजों	17030
##गुप्त	17031
##धर्म	17032
##िफ़	17033
##्टर	17034
##ुला	17035
##सोस	17036
##33	17037
##एक्स	17038
##पित	17039
##ns	17040
##fc	17041
##यानी	17042
नेगेटिव	17043
करों	17044
परिश	17045
##नाग	17046
##नाइट	17047
##क्वल	17048
प्रप	17049
प्रॉफिट	17050
##वाडा	17051
##लावत	17052
##ंगला	17053
विर	17054
स्पा	17055
उन्म	17056
सावंत	17057
##सेफ	17058
##ोगन	17059
निविदा	17060
अपनों	17061
##कीज	17062
##त्न	17063
दोनो	17064
तोप	17065
##्रेटेड	17066
मौसी	17067
मिलर	17068
मिल्की	17069
##वीकरण	17070
##दीक	17071
जिसपर	17072
जोस	17073
बेख	17074
लगाये	17075
कार्यप्रण	17076
बिजी	17077
वर्किंग	17078
कैन	17079
उपे	17080
हरित	17081
##एमआर	17082
अंबा	17083
सूजन	17084
##्लिकेशन	17085
बढ़ना	17086
माझी	17087
##शीर्ष	17088
निकिता	17089
बुच	17090
स्कार्प	17091
जैकेट	17092
रामपाल	17093
स्थितियों	17094
बोन	17095
विधा	17096
करोड़पति	17097
क्रिश्च	17098
151	17099
##वादन	17100
पत्ते	17101
बरसे	17102
गुरुदेव	17103
स्वर्ग	17104
मीसा	17105
उठानी	17106
टेकर	17107
फर्रु	17108
भरती	17109
कानों	17110
डेन	17111
अहंकार	17112
##कुंठ	17113
##िंद्र	17114
साइंट	17115
##दिमीर	17116
रैकेट	17117
वास्तु	17118
लोहर	17119
यूपीए	17120
नवजोत	17121
परेशानियां	17122
फोटोग्राफी	17123
डायबिटीज	17124
ओवरों	17125
किसका	17126
ख़ु	17127
उपयोगी	17128
संस्थागत	17129
##ंटीन	17130
जोड़ना	17131
एक्सरसाइज	17132
एग्जीक्यूटिव	17133
सौंपकर	17134
##िट्टी	17135
##गुनिया	17136
फैक्टरी	17137
वॉच	17138
डीसीएम	17139
सोचने	17140
विमानन	17141
नियुक्तियों	17142
कमजोरी	17143
परमेश्वर	17144
मस्जिदों	17145
अल्ट्र	17146
दौड़ते	17147
प्रदर्शनों	17148
आराध्या	17149
आलमगीर	17150
गजब	17151
अफ्रीकी	17152
बोरिंग	17153
जीवों	17154
गढ़वा	17155
द्वारिका	17156
कल्लू	17157
mahar	17158
रियलमी	17159
सक्सेस	17160
ऑपरेट	17161
बजाते	17162
एजेंटों	17163
स्विच	17164
स्विमिंग	17165
रियासत	17166
1952	17167
कोयले	17168
जोगी	17169
स्लिप	17170
स्क्वायड	17171
चिपसेट	17172
कम्प्यूटर	17173
##ष्‍ट्र	17174
सुदृ	17175
राउत	17176
मुनव्वर	17177
मेजबान	17178
मन्नत	17179
ननद	17180
एमजीएम	17181
तिहाई	17182
गर्भपात	17183
सज्जा	17184
##म्‍मी	17185
एनालिसिस	17186
आश्रय	17187
अटेंडेंस	17188
गोपनीयता	17189
कारीगरों	17190
नाश्ता	17191
सिलावट	17192
वर्गीकरण	17193
फ़ायदा	17194
शशिकांत	17195
politics	17196
निंदनीय	17197
बौछार	17198
##मीडिएट	17199
निर्जला	17200
##ासाहेब	17201
चैम्पियन	17202
कुंदरकी	17203
चौमूं	17204
सहूलियत	17205
कुरूक्षेत्र	17206
gandhi	17207
कार्यप्रणाली	17208
ec	17209
fa	17210
gor	17211
अतर	17212
आइक	17213
ऊंट	17214
एस्ट्र	17215
कनाड	17216
गर्मा	17217
गैलरी	17218
चस्पा	17219
छंट	17220
टाई	17221
दंगा	17222
पोट	17223
पधार	17224
पब्ल	17225
ब्य	17226
बित	17227
ब्यो	17228
बयां	17229
भांति	17230
भांग	17231
मक्ख	17232
रंधा	17233
रईस	17234
व्ह	17235
वात	17236
वृह	17237
##ोहा	17238
##हड़	17239
##ेफ	17240
##ेरा	17241
##ुग	17242
##मंडी	17243
##़ों	17244
##पेश	17245
##पिका	17246
##tc	17247
सेवकों	17248
किफ	17249
कांट	17250
प्रलो	17251
##ांगे	17252
होड़	17253
##वासा	17254
स्तो	17255
रहित	17256
निबंध	17257
निश्च	17258
निवर्	17259
कार्ट	17260
##भाषण	17261
##िरपेक्ष	17262
अन्	17263
##ल्वर	17264
##जीरा	17265
मोना	17266
पहुँच	17267
##ापू	17268
लगाव	17269
मैया	17270
मैनु	17271
पीवी	17272
बैट	17273
टीसी	17274
जानकर	17275
##खाबाद	17276
कैंटर	17277
दूं	17278
पाबंद	17279
आयी	17280
हरक	17281
हरजिंदर	17282
बढ़िया	17283
10वें	17284
स्टंप	17285
नामांतरण	17286
ट्रफ	17287
अवहेल	17288
आईएन	17289
अलका	17290
डिस्टर	17291
तैरा	17292
रेजी	17293
रेस्तर	17294
फैजान	17295
प्रशंस	17296
##लोई	17297
महाअ	17298
यूडीए	17299
आयाम	17300
जयसिंह	17301
स्वप्न	17302
मीर	17303
256	17304
स्प्रे	17305
जलाल	17306
रेलिंग	17307
तेज़ी	17308
विशेषता	17309
बालकृष्ण	17310
नजरें	17311
1400	17312
##नियाद	17313
जेलों	17314
देवली	17315
नारद	17316
बनाएगा	17317
खेड़ी	17318
लॉस	17319
ट्रैप	17320
चीता	17321
सवारों	17322
पीएमसीएच	17323
धर्मों	17324
दौड़े	17325
निकलती	17326
असं	17327
##मेसी	17328
सतनाम	17329
आशु	17330
##िरीक्षक	17331
गौरेला	17332
ओवरलोड	17333
ख़री	17334
बहनोई	17335
महारानी	17336
कॉन्ट्रैक्ट	17337
फेड	17338
चढ़ाई	17339
चढ़ाया	17340
आत्मसम	17341
पैराल	17342
मलयाल	17343
दशहरे	17344
श्रेणियों	17345
बंधे	17346
ज्योतिर्लिंग	17347
क्वाड	17348
स्मरण	17349
ग्रेनेड	17350
##iss	17351
तिरंगे	17352
तालाबों	17353
एचएस	17354
सुलझा	17355
खीरी	17356
तुला	17357
दिग्गजों	17358
ताल्ल	17359
##पूतली	17360
अंदेशा	17361
बाघों	17362
पिकनिक	17363
ढाबे	17364
विद्याधर	17365
चिन्मय	17366
मेनका	17367
##क्‍त	17368
नैना	17369
जगदीशपुर	17370
मसाले	17371
गड़बड़	17372
##akhpur	17373
गुणवत्तापूर्ण	17374
दफ्तरों	17375
उड़ानें	17376
समझाते	17377
अध्याय	17378
अनीस	17379
क्वालिफाई	17380
एनटीआर	17381
सब्सक्र	17382
प्रोडक्ट्स	17383
चिरंजी	17384
मल्हार	17385
भिजवा	17386
वृक्षारोपण	17387
##ख़्त	17388
चैलेंजर्स	17389
ओलावृष्टि	17390
बौद्धिक	17391
सोहना	17392
सुचारु	17393
अधूरे	17394
नौजवानों	17395
एनजीटी	17396
दफन	17397
एचडीएफसी	17398
कुचला	17399
सरहद	17400
panchang	17401
ब्यावर	17402
आख़िरी	17403
थ्रिलर	17404
अस्थिरता	17405
मिटाने	17406
उपनिरी	17407
दंडाधिकारी	17408
प्रसूता	17409
म्यूचुअल	17410
इंटर्नशिप	17411
सीसामऊ	17412
महराजगंज	17413
अभिरक्षा	17414
वेंटिलेटर	17415
नियमावली	17416
जलजमाव	17417
वानखेड़े	17418
गरियाबंद	17419
व्लादिमीर	17420
परिश्रम	17421
gorakhpur	17422
रंधावा	17423
स्तोत्र	17424
निवर्तमान	17425
अवहेलना	17426
डिस्टरबेंस	17427
रेस्तरां	17428
मलयालम	17429
.'	17430
asp	17431
ass	17432
acb	17433
be	17434
bi	17435
do	17436
dgp	17437
elect	17438
gold	17439
hy	17440
kal	17441
vir	17442
who	17443
अनाथ	17444
आनी	17445
आड़े	17446
इज़	17447
एग्र	17448
ओएस	17449
कफ	17450
खसरा	17451
गोगु	17452
घटे	17453
चश्	17454
छाई	17455
डस्ट	17456
डिव	17457
थाम	17458
दबे	17459
दांगी	17460
नगा	17461
पंज	17462
प्यास	17463
पिलाई	17464
पक्के	17465
बढ	17466
बबली	17467
ब्वॉय	17468
भोल	17469
मड़	17470
मटेरियल	17471
लल्लू	17472
व्‍य	17473
शतर	17474
##जला	17475
##बस	17476
##बन्	17477
##ेस्ट	17478
##डान	17479
##धिप	17480
##खनन	17481
##वृ	17482
##26	17483
##यै	17484
##योजना	17485
##दाद	17486
##ka	17487
##ैक्स	17488
##उद्दीन	17489
##ानुकूल	17490
कोटक	17491
कांप	17492
काजू	17493
करारी	17494
करारा	17495
करुणा	17496
##ालियों	17497
परवर	17498
##लेरा	17499
स्वार्थ	17500
जाइए	17501
हुये	17502
संख	17503
संप्रदाय	17504
समद	17505
##ायै	17506
सुजु	17507
सुन्दर	17508
##ढ़ाई	17509
सीक्वल	17510
##ाइंड	17511
##दीवारी	17512
##ोजी	17513
##बरू	17514
मोस्ट	17515
मोटिव	17516
बेग	17517
बेद	17518
##ापा	17519
लगाती	17520
मेलब	17521
बिठा	17522
कैसर	17523
कैंटीन	17524
युगल	17525
जननायक	17526
वेज	17527
स्टॉ	17528
चौपाटी	17529
अव्य	17530
पैराम	17531
रामक	17532
रामपुरा	17533
रामानु	17534
गुन	17535
बदहाल	17536
उत्खनन	17537
पूर्ववर्ती	17538
शुमार	17539
डीवी	17540
आरसीबी	17541
यूएन	17542
क्रय	17543
##देवा	17544
जयकारे	17545
पढ़ती	17546
##त्विक	17547
दरें	17548
एम्	17549
##ट्टो	17550
वैधानिक	17551
पूछते	17552
कृप	17553
भरते	17554
एक्सटेंशन	17555
खेलकर	17556
डेव	17557
[...]
