<unk>	0
<s>	0
</s>	0
▁क	-0
▁स	-1
▁म	-2
▁ह	-3
▁प	-4
ार	-5
ें	-6
▁ब	-7
ने	-8
▁के	-9
्र	-10
या	-11
▁ज	-12
▁में	-13
▁द	-14
▁है	-15
▁र	-16
▁ल	-17
▁व	-18
▁अ	-19
▁की	-20
ों	-21
▁ग	-22
▁न	-23
▁को	-24
र्	-25
ान	-26
▁से	-27
▁आ	-28
▁कि	-29
ता	-30
▁ने	-31
▁का	-32
▁भ	-33
▁इ	-34
▁कर	-35
▁उ	-36
▁त	-37
▁पर	-38
ाल	-39
िक	-40
▁श	-41
ना	-42
्य	-43
िल	-44
▁औ	-45
▁च	-46
▁और	-47
स्	-48
क्	-49
▁थ	-50
▁प्र	-51
ड़	-52
▁ए	-53
ां	-54
ाम	-55
ही	-56
▁इस	-57
िया	-58
▁हो	-59
वा	-60
ित	-61
▁य	-62
के	-63
ला	-64
▁बा	-65
हा	-66
कर	-67
▁हैं	-68
िय	-69
▁फ	-70
िए	-71
िस	-72
ुर	-73
ले	-74
▁ख	-75
ंग	-76
▁भी	-77
▁जा	-78
▁वि	-79
▁स्	-80
ते	-81
त्र	-82
ेश	-83
▁रा	-84
िन	-85
री	-86
ारी	-87
▁ट	-88
हीं	-89
▁उन	-90
ती	-91
रा	-92
▁हु	-93
▁ड	-94
▁सा	-95
ुल	-96
्या	-97
▁किया	-98
ति	-99
नी	-100
वार	-101
गा	-102
▁लिए	-103
से	-104
▁1	-105
ंद	-106
सी	-107
▁ले	-108
▁एक	-109
▁2	-110
▁गया	-111
▁पह	-112
▁था	-113
▁सं	-114
▁सम	-115
▁घ	-116
क्ष	-117
ोग	-118
▁नहीं	-119
▁दे	-120
▁रह	-121
ाय	-122
▁कार	-123
▁नि	-124
▁अप	-125
िला	-126
का	-127
▁मु	-128
ली	-129
की	-130
▁ही	-131
टी	-132
▁बाद	-133
▁सि	-134
ियों	-135
त्	-136
ार्	-137
ास	-138
ंड	-139
्ह	-140
भा	-141
पी	-142
▁पुल	-143
▁साथ	-144
िर	-145
मा	-146
▁यह	-147
▁पुलिस	-148
▁गई	-149
▁बता	-150
▁पू	-151
▁कहा	-152
▁कु	-153
गी	-154
▁करने	-155
ढ़	-156
▁सु	-157
टर	-158
▁उन्ह	-159
▁अध	-160
▁दो	-161
ंच	-162
▁रहे	-163
रो	-164
▁तो	-165
▁राज	-166
▁थी	-167
्म	-168
▁दिया	-169
दी	-170
रे	-171
▁सी	-172
्री	-173
▁उस	-174
▁लोग	-175
▁वाल	-176
ाना	-177
▁छ	-178
्रे	-179
▁मह	-180
पुर	-181
सा	-182
▁अन	-183
ौर	-184
▁तक	-185
▁रहा	-186
▁बताया	-187
स्ट	-188
दा	-189
ल्	-190
में	-191
▁दी	-192
गे	-193
कार	-194
▁ध	-195
▁चु	-196
▁ला	-197
भी	-198
जा	-199
▁हुए	-200
▁मौ	-201
जी	-202
▁मिल	-203
िश	-204
वी	-205
ष्	-206
देश	-207
गर	-208
▁या	-209
ंह	-210
्त	-211
▁रही	-212
्ष	-213
▁थे	-214
▁20	-215
ंत्र	-216
कि	-217
ाई	-218
▁बार	-219
ानी	-220
ाह	-221
▁बी	-222
ोज	-223
टे	-224
▁जिस	-225
वि	-226
नों	-227
ओं	-228
ोंने	-229
हर	-230
▁सिंह	-231
बर	-232
िव	-233
ाज	-234
शन	-235
▁लगा	-236
▁(	-237
▁सर	-238
▁गए	-239
▁उन्होंने	-240
▁वह	-241
ड़ी	-242
र्ट	-243
मी	-244
पा	-245
स्थ	-246
▁जो	-247
मार	-248
जे	-249
▁जाए	-250
▁पहु	-251
▁मो	-252
स्त	-253
▁आरो	-254
▁पहुंच	-255
िंग	-256
▁बे	-257
ुप	-258
ड़ा	-259
▁लेकर	-260
▁दिन	-261
▁पहले	-262
▁3	-263
द्	-264
द्र	-265
▁स्थ	-266
▁इसके	-267
च्	-268
ेल	-269
ाइ	-270
▁अधिक	-271
▁बना	-272
▁लोगों	-273
▁मे	-274
▁माम	-275
▁भार	-276
▁कार्य	-277
ैं	-278
▁अपने	-279
▁हुई	-280
वे	-281
किन	-282
▁पी	-283
क्र	-284
ंत्री	-285
▁लेकिन	-286
▁जब	-287
न्	-288
▁टी	-289
▁परि	-290
▁सो	-291
▁साल	-292
▁दौर	-293
▁हम	-294
ोक	-295
र्म	-296
▁जान	-297
वर	-298
▁होने	-299
ंध	-300
खा	-301
▁गां	-302
बा	-303
▁सक	-304
▁जी	-305
▁वाले	-306
▁क्ष	-307
▁दौरान	-308
ांच	-309
तर	-310
▁ओ	-311
▁अब	-312
श्	-313
र्ज	-314
टा	-315
▁इन	-316
▁पा	-317
▁हुआ	-318
वाल	-319
▁बि	-320
▁5	-321
नाव	-322
▁ऐ	-323
▁वर्	-324
▁साम	-325
▁कम	-326
▁निर्	-327
▁तर	-328
▁बात	-329
▁घर	-330
ूल	-331
मान	-332
ीन	-333
▁4	-334
धान	-335
ेत्र	-336
्रेस	-337
▁शिक	-338
▁मां	-339
▁सरकार	-340
▁पि	-341
कारी	-342
▁शुर	-343
▁यु	-344
▁उप	-345
▁बै	-346
डी	-347
ाप	-348
▁शाम	-349
▁रुप	-350
▁दू	-351
▁करते	-352
र्व	-353
ड़े	-354
टना	-355
च्च	-356
वं	-357
ोट	-358
▁क्षेत्र	-359
▁आय	-360
▁ऑ	-361
ेट	-362
एम	-363
ेंद्र	-364
▁कुमार	-365
ष्ट	-366
िप	-367
▁चुनाव	-368
▁हर	-369
ोर	-370
▁अं	-371
▁ये	-372
▁आप	-373
▁रू	-374
00	-375
▁पार्	-376
▁काम	-377
▁महिला	-378
्स	-379
▁डॉ	-380
▁सभी	-381
ंप	-382
कों	-383
▁कह	-384
▁सू	-385
क्षा	-386
ून	-387
▁कुछ	-388
▁जन	-389
क्त	-390
स्प	-391
्ल	-392
ोल	-393
▁लिया	-394
▁द्	-395
▁कई	-396
▁कै	-397
क्ट	-398
वाई	-399
▁दु	-400
▁मा	-401
▁बढ़	-402
जार	-403
क्टर	-404
▁पास	-405
▁मुख	-406
▁सब	-407
▁थाना	-408
▁202	-409
बी	-410
▁अनु	-411
सर	-412
वारा	-413
सभा	-414
िम	-415
▁गांव	-416
जन	-417
▁चल	-418
▁कॉ	-419
▁भारत	-420
▁टीम	-421
▁रो	-422
एस	-423
▁गिर	-424
▁प्रति	-425
भाग	-426
▁ग्र	-427
▁वे	-428
▁उनके	-429
▁झ	-430
▁जु	-431
▁मामले	-432
ेंगे	-433
▁कोई	-434
चार	-435
▁भा	-436
▁चौ	-437
▁सह	-438
▁नाम	-439
िका	-440
▁दर्ज	-441
ोड़	-442
▁व्य	-443
शी	-444
▁आरोप	-445
▁कांग	-446
▁द्वारा	-447
ारा	-448
्यक्ष	-449
▁हा	-450
बंध	-451
▁ट्र	-452
▁हि	-453
▁देख	-454
▁अपनी	-455
▁बह	-456
ीड	-457
▁स्ट	-458
▁शुरू	-459
▁समय	-460
▁बच्च	-461
▁खिला	-462
▁कांग्रेस	-463
▁ता	-464
र्स	-465
ेज	-466
▁हाल	-467
▁उन्हें	-468
▁वहीं	-469
्यू	-470
▁घटना	-471
▁मै	-472
द्ध	-473
▁निक	-474
▁यहां	-475
▁दोनों	-476
▁बु	-477
को	-478
▁जिल	-479
▁लग	-480
णा	-481
▁विक	-482
▁इं	-483
▁चाह	-484
▁अभ	-485
▁गो	-486
िट	-487
▁बजे	-488
ताल	-489
▁स्क	-490
ृत	-491
यर	-492
▁जिला	-493
▁रुपए	-494
▁ठ	-495
▁6	-496
▁ना	-497
▁जै	-498
▁आज	-499
▁अव	-500
ूर	-501
▁जांच	-502
▁फिल	-503
चा	-504
▁अम	-505
▁विभाग	-506
▁किसी	-507
ंबर	-508
▁रूप	-509
▁मुख्य	-510
▁देश	-511
▁रख	-512
▁तरह	-513
▁एस	-514
मंत्री	-515
फ्त	-516
▁आरोपी	-517
्यों	-518
▁'	-519
▁बीच	-520
▁आई	-521
▁राम	-522
▁उसके	-523
▁पै	-524
ायत	-525
▁युव	-526
▁जानकारी	-527
ेर	-528
▁10	-529
▁अग	-530
▁प्रदेश	-531
दार	-532
क्स	-533
िल्	-534
▁गु	-535
▁दि	-536
..	-537
जू	-538
▁लाख	-539
▁शामिल	-540
▁डि	-541
▁स्थित	-542
त्या	-543
▁लोक	-544
ंट	-545
लय	-546
चना	-547
▁एवं	-548
ोर्ट	-549
आई	-550
▁बन	-551
▁बद	-552
वन	-553
▁7	-554
▁दूस	-555
▁नगर	-556
▁फिर	-557
▁भाज	-558
▁अस्प	-559
▁होगा	-560
एं	-561
▁करा	-562
▁बैठ	-563
▁"	-564
जर	-565
▁अस्पताल	-566
▁जाएगा	-567
▁करी	-568
ाली	-569
▁भाजपा	-570
पर	-571
▁पु	-572
▁छा	-573
▁खु	-574
ज्	-575
▁किए	-576
र्ड	-577
वान	-578
▁उसे	-579
वासी	-580
▁तै	-581
▁इला	-582
दान	-583
▁खिलाफ	-584
क्रम	-585
सान	-586
▁जारी	-587
ेशन	-588
▁कारण	-589
्यादा	-590
्मी	-591
▁जाने	-592
▁जिले	-593
प्	-594
ेंट	-595
▁पार्टी	-596
▁अन्य	-597
▁उत्	-598
▁सुर	-599
ांस	-600
ियां	-601
धार	-602
▁पूर्व	-603
▁रात	-604
▁याद	-605
▁मैं	-606
▁शु	-607
▁मान	-608
▁नी	-609
ुरु	-610
फी	-611
हत	-612
▁रे	-613
▁करीब	-614
▁मंद	-615
▁उनकी	-616
▁वो	-617
▁आयोज	-618
▁उम	-619
▁8	-620
्न	-621
▁सद	-622
▁नेता	-623
बह	-624
क्ति	-625
▁ज्यादा	-626
▁सीट	-627
▁परिवार	-628
र्थ	-629
▁गिरफ्त	-630
▁बो	-631
▁अध्यक्ष	-632
धी	-633
सार	-634
▁मार	-635
▁वाली	-636
▁आए	-637
▁मौके	-638
▁मंत्री	-639
तीय	-640
▁ओर	-641
पाल	-642
हार	-643
त्रा	-644
▁वर्ष	-645
▁करना	-646
▁कार्र	-647
▁राज्य	-648
▁मंदिर	-649
ाला	-650
▁जाता	-651
्यालय	-652
▁अल	-653
▁कार्रवाई	-654
▁मौत	-655
▁फिल्म	-656
▁लि	-657
लो	-658
ुत	-659
गढ़	-660
▁ली	-661
ामी	-662
▁शा	-663
▁तीन	-664
▁शहर	-665
िता	-666
▁हजार	-667
▁सामने	-668
▁डी	-669
जय	-670
▁सुबह	-671
▁कार्यक्रम	-672
गत	-673
▁स्कूल	-674
नि	-675
्रीय	-676
हां	-677
▁मांग	-678
▁विध	-679
▁देने	-680
▁सबसे	-681
▁ई	-682
▁आद	-683
▁9	-684
वास	-685
▁श्री	-686
ंस	-687
▁मार्	-688
▁फै	-689
▁शिक्ष	-690
▁पिछ	-691
ब्	-692
र्मा	-693
▁प्रश	-694
▁करोड़	-695
प्र	-696
▁निवासी	-697
▁क्या	-698
▁यादव	-699
कान	-700
▁इसी	-701
▁महा	-702
ूम	-703
▁पो	-704
इन	-705
▁सूचना	-706
▁पानी	-707
▁युवक	-708
▁जग	-709
्ला	-710
दे	-711
भाव	-712
ड़क	-713
ायल	-714
ियो	-715
जूद	-716
▁बारिश	-717
▁जहां	-718
▁ऐसे	-719
ूर्	-720
▁दिए	-721
▁पं	-722
▁12	-723
ेत	-724
ध्य	-725
▁शिकायत	-726
▁चला	-727
▁कंप	-728
ोन	-729
▁आने	-730
तार	-731
▁आर	-732
▁पहुंचे	-733
▁होगी	-734
▁जर	-735
ारियों	-736
▁जिसमें	-737
ूं	-738
▁आया	-739
ंब	-740
ंगल	-741
▁क्र	-742
ैन	-743
स्था	-744
▁इसमें	-745
▁गिरफ्तार	-746
▁तैय	-747
▁अधिकारी	-748
शे	-749
▁इससे	-750
ोष	-751
वल	-752
र्शन	-753
▁मिली	-754
िल्ली	-755
ासन	-756
ंदर	-757
धिक	-758
▁यू	-759
▁भारतीय	-760
ठा	-761
▁मत	-762
▁अनुसार	-763
▁रहने	-764
▁मोदी	-765
इक	-766
▁पद	-767
▁2024	-768
सम	-769
ायर	-770
▁कोर्ट	-771
▁शर्मा	-772
▁दिल्ली	-773
धा	-774
वाद	-775
ोजना	-776
▁दा	-777
▁मन	-778
ये	-779
▁सकता	-780
▁जय	-781
ंत	-782
▁आग	-783
ायक	-784
▁लड़	-785
▁चाहिए	-786
▁पढ़	-787
▁राष्ट	-788
▁शिव	-789
▁रिप	-790
ियर	-791
▁प्रा	-792
श्व	-793
्रा	-794
▁19	-795
▁लोकसभा	-796
च्छ	-797
▁गा	-798
▁बर	-799
मेंट	-800
ंज	-801
▁बाहर	-802
त्व	-803
▁ती	-804
ेंस	-805
▁जिन	-806
आर	-807
मु	-808
▁शव	-809
▁वहां	-810
रण	-811
▁संबंध	-812
कर्	-813
▁गुरु	-814
▁कप	-815
▁मामला	-816
▁पत्	-817
▁11	-818
▁पिछले	-819
▁15	-820
▁मिले	-821
▁किसान	-822
▁निय	-823
▁उसकी	-824
▁पूरी	-825
्ड	-826
ंगे	-827
सल	-828
▁खा	-829
र्फ	-830
▁क्यों	-831
▁स्व	-832
ज्ञ	-833
▁कर्म	-834
ेम	-835
हन	-836
▁चे	-837
▁मी	-838
▁परी	-839
▁बंद	-840
▁मिला	-841
▁विधान	-842
▁शे	-843
ूट	-844
▁प्रद	-845
स्थान	-846
▁ट्रे	-847
▁आगे	-848
▁काफी	-849
▁प्रधान	-850
▁इंड	-851
▁ऑफ	-852
द्य	-853
▁रिपोर्ट	-854
▁चार	-855
▁201	-856
▁करें	-857
▁सहित	-858
माण	-859
▁दर	-860
▁केंद्र	-861
▁बड़ी	-862
ख्या	-863
▁जाएगी	-864
चान	-865
▁प्रत	-866
▁रवि	-867
▁समाज	-868
िज	-869
था	-870
▁घायल	-871
योग	-872
▁स्वा	-873
▁जबकि	-874
▁अपना	-875
बाद	-876
▁मृत	-877
ांड	-878
▁अला	-879
▁मही	-880
ांकि	-881
▁जीत	-882
▁सड़क	-883
▁बस	-884
▁बहुत	-885
▁रोड	-886
ताब	-887
▁पड़	-888
▁हालांकि	-889
▁विकास	-890
ोध	-891
त्म	-892
▁वीड	-893
▁अभी	-894
▁सदस	-895
लाई	-896
▁होता	-897
▁संग	-898
▁मुख्यमंत्री	-899
ट्	-900
▁हत्या	-901
▁छात्र	-902
ुक्त	-903
राब	-904
▁बैठक	-905
लों	-906
▁विधानसभा	-907
▁तहत	-908
▁सफ	-909
▁मौजूद	-910
ुक	-911
▁एम	-912
▁टे	-913
▁बां	-914
वरी	-915
दन	-916
▁बच्चों	-917
▁मीड	-918
▁जिसके	-919
ेंद	-920
बू	-921
राज	-922
▁वीडियो	-923
▁योजना	-924
▁पिता	-925
▁बारे	-926
▁उसने	-927
▁निर्देश	-928
गम	-929
▁एन	-930
▁व्यव	-931
▁सकते	-932
क्षण	-933
ुआ	-934
्मीद	-935
▁बाइक	-936
▁अलावा	-937
▁उम्मीद	-938
ंटे	-939
▁सुन	-940
▁S	-941
ग्री	-942
ची	-943
▁उनका	-944
▁जगह	-945
▁मीडिया	-946
▁विधायक	-947
शा	-948
▁मज	-949
▁कुल	-950
▁वज	-951
ाइल	-952
▁भग	-953
ंक	-954
▁वाह	-955
▁पूछ	-956
▁अगर	-957
▁पता	-958
▁अलग	-959
▁स्प	-960
▁बॉ	-961
ंगा	-962
▁वै	-963
▁कंपनी	-964
▁कहना	-965
तम	-966
ोह	-967
ोरी	-968
▁वजह	-969
▁इसे	-970
▁परीक्षा	-971
▁संख्या	-972
▁पोस्ट	-973
▁आरोपियों	-974
▁सोम	-975
▁प्रभ	-976
▁पुर	-977
लेज	-978
▁पत्नी	-979
▁भाग	-980
▁शादी	-981
▁ब्र	-982
मिक	-983
▁आस	-984
▁मंगल	-985
▁सुरक्षा	-986
▁आम	-987
▁दूसरे	-988
ेंड	-989
▁दिनों	-990
फ्	-991
खंड	-992
ताओं	-993
▁डे	-994
▁पंच	-995
▁फर	-996
▁फी	-997
ामीण	-998
▁हाथ	-999
▁तब	-1000
▁सांस	-1001
▁अधिकारियों	-1002
ार्थ	-1003
काल	-1004
झे	-1005
▁प्रशासन	-1006
▁रेल	-1007
▁पे	-1008
▁पक	-1009
▁वोट	-1010
▁ग्रामीण	-1011
शल	-1012
▁करता	-1013
▁तरफ	-1014
▁लगे	-1015
▁मुताब	-1016
▁मुताबिक	-1017
▁व्यक्ति	-1018
णी	-1019
स्ता	-1020
हम	-1021
▁करेंगे	-1022
शेष	-1023
▁आधार	-1024
▁कृ	-1025
जेपी	-1026
▁पूरा	-1027
▁तेज	-1028
▁होती	-1029
▁हरिया	-1030
चाल	-1031
▁महीने	-1032
▁कल	-1033
चित	-1034
क्शन	-1035
▁दुकान	-1036
▁वा	-1037
▁प्रो	-1038
▁भाई	-1039
▁बढ़ा	-1040
▁बिज	-1041
▁जैसे	-1042
▁हों	-1043
▁आयोजन	-1044
▁पत्र	-1045
▁पहुंची	-1046
तन	-1047
▁बनाने	-1048
an	-1049
▁गं	-1050
▁सच	-1051
▁थाने	-1052
▁घंटे	-1053
▁ढ	-1054
▁भर	-1055
▁करवा	-1056
▁जल	-1057
▁ऐसा	-1058
▁नंबर	-1059
▁योग	-1060
र्य	-1061
▁दिव	-1062
▁मंड	-1063
▁C	-1064
▁कान	-1065
वेश	-1066
▁विशेष	-1067
▁हरियाणा	-1068
▁बीजेपी	-1069
ारे	-1070
▁नजर	-1071
▁न्या	-1072
▁पीड़	-1073
▁लगातार	-1074
र्चा	-1075
▁अर	-1076
▁साह	-1077
▁राय	-1078
▁सम्म	-1079
▁रन	-1080
▁जिससे	-1081
▁पूरे	-1082
▁निर्माण	-1083
िति	-1084
▁डॉक्टर	-1085
ैल	-1086
▁सोमवार	-1087
▁कॉलेज	-1088
▁खेल	-1089
▁दिख	-1090
▁जे	-1091
द्यालय	-1092
▁इसकी	-1093
लिए	-1094
ज़	-1095
▁A	-1096
तिक	-1097
ंद्र	-1098
▁सांसद	-1099
शि	-1100
िश्	-1101
ार्ड	-1102
▁माल	-1103
र्क	-1104
▁हाई	-1105
▁सीएम	-1106
िकल	-1107
▁जून	-1108
▁सकती	-1109
▁शनि	-1110
▁श्र	-1111
जनों	-1112
▁ऊ	-1113
▁तैयार	-1114
▁राह	-1115
▁लगाया	-1116
स्क	-1117
▁घोष	-1118
▁एक्स	-1119
▁मिलने	-1120
▁हाद	-1121
▁निगम	-1122
▁पहली	-1123
भीर	-1124
▁25	-1125
▁विश्व	-1126
▁केस	-1127
▁गर्	-1128
▁लाल	-1129
▁वाला	-1130
र्ती	-1131
▁कले	-1132
▁सौ	-1133
स्ते	-1134
ीय	-1135
▁इसका	-1136
पति	-1137
रीज	-1138
▁सेवा	-1139
▁मंगलवार	-1140
▁हूं	-1141
ैंक	-1142
म्	-1143
▁कराया	-1144
▁गंभीर	-1145
▁जमी	-1146
▁बुध	-1147
▁प्रदर्शन	-1148
बल	-1149
▁भगवान	-1150
र्च	-1151
ार्ट	-1152
▁बिहार	-1153
बे	-1154
▁आदि	-1155
▁देते	-1156
▁पांच	-1157
वीर	-1158
ियन	-1159
▁डिग्री	-1160
▁ड्र	-1161
▁शुक्र	-1162
▁प्रधानमंत्री	-1163
▁इसलिए	-1164
▁मैच	-1165
▁गांधी	-1166
िस्ट	-1167
▁पंजा	-1168
ग्	-1169
▁छो	-1170
इट	-1171
▁नर	-1172
▁अफ	-1173
शत	-1174
▁बाल	-1175
▁उठा	-1176
▁समझ	-1177
▁हिस्	-1178
▁भे	-1179
▁मुझे	-1180
▁बनाया	-1181
▁विरो	-1182
▁बड़ा	-1183
िटी	-1184
▁मद	-1185
▁व्या	-1186
यान	-1187
▁बड़े	-1188
▁शनिवार	-1189
▁करे	-1190
▁प्रया	-1191
-2	-1192
स्तान	-1193
▁खान	-1194
▁इलाज	-1195
▁सवाल	-1196
ल्ड	-1197
▁व्यवस्था	-1198
ात	-1199
कु	-1200
करण	-1201
▁नए	-1202
▁जवा	-1203
▁रविवार	-1204
ष्ण	-1205
▁वाप	-1206
ष्ठ	-1207
▁माह	-1208
▁लगी	-1209
▁जाती	-1210
▁30	-1211
▁हमार	-1212
षण	-1213
मुख	-1214
▁जल्	-1215
नाथ	-1216
▁बुधवार	-1217
निया	-1218
स्या	-1219
▁शिक्षा	-1220
▁शुक्रवार	-1221
▁ताप	-1222
▁नई	-1223
▁ट्रेन	-1224
▁संचाल	-1225
▁राजनी	-1226
पास	-1227
ियान	-1228
▁प्रभारी	-1229
▁जेल	-1230
▁रुपये	-1231
...	-1232
▁एक्ट	-1233
▁P	-1234
▁संद	-1235
▁आयोजित	-1236
▁पूजा	-1237
▁14	-1238
▁मेड	-1239
▁नौ	-1240
▁परेश	-1241
▁-	-1242
▁पहुंचा	-1243
चे	-1244
▁13	-1245
▁पति	-1246
काश	-1247
▁0	-1248
▁अच्छ	-1249
▁खुद	-1250
▁तापमान	-1251
▁पक्ष	-1252
▁राजस्थान	-1253
▁हे	-1254
ैंड	-1255
▁पहचान	-1256
▁समेत	-1257
पूर्	-1258
▁आदेश	-1259
▁बिजली	-1260
▁उसका	-1261
▁भर्ती	-1262
▁परिजनों	-1263
ांत	-1264
▁सदस्य	-1265
▁सामान	-1266
ॉल	-1267
ाप्त	-1268
▁इंद	-1269
▁स्थिति	-1270
टन	-1271
▁लेने	-1272
▁गुरुवार	-1273
▁मौसम	-1274
▁खरी	-1275
▁अति	-1276
▁दें	-1277
▁मना	-1278
िरा	-1279
▁सित	-1280
▁विभ	-1281
▁पंजाब	-1282
▁शुरुआ	-1283
▁स्थान	-1284
बंधन	-1285
▁दल	-1286
▁देर	-1287
▁होते	-1288
▁इत	-1289
दारी	-1290
मत	-1291
▁हिंद	-1292
िन्न	-1293
▁जमीन	-1294
▁दोप	-1295
▁बज	-1296
▁बेह	-1297
▁होकर	-1298
▁बच्चे	-1299
▁तस्	-1300
▁बनाए	-1301
▁फोन	-1302
▁नार	-1303
▁देव	-1304
▁सरकारी	-1305
न्द्र	-1306
▁जुलाई	-1307
▁B	-1308
▁मध्य	-1309
▁छोड़	-1310
▁राहुल	-1311
▁जनता	-1312
▁बेटे	-1313
▁यात्रा	-1314
ग्र	-1315
▁गठ	-1316
▁बल	-1317
हरा	-1318
▁गै	-1319
▁बल्	-1320
िली	-1321
▁चलते	-1322
▁18	-1323
▁मि	-1324
▁बाजार	-1325
▁चाल	-1326
त्री	-1327
▁वन	-1328
▁चोरी	-1329
▁रोक	-1330
▁रखा	-1331
जीत	-1332
▁थीं	-1333
▁राष्ट्रीय	-1334
▁खे	-1335
▁क्योंकि	-1336
यू	-1337
▁भेज	-1338
▁चुके	-1339
▁हमला	-1340
ैक	-1341
र्श	-1342
▁विभिन्न	-1343
भग	-1344
▁करके	-1345
▁दोपहर	-1346
▁दूसरी	-1347
स्ती	-1348
▁चर्चा	-1349
्ले	-1350
▁सोशल	-1351
▁16	-1352
▁बेटी	-1353
▁ज्	-1354
फर	-1355
स्थ्य	-1356
▁अगस्त	-1357
▁अभियान	-1358
▁मोब	-1359
▁प्रतिशत	-1360
▁24	-1361
▁पीछ	-1362
▁तला	-1363
▁यून	-1364
▁मदद	-1365
▁युवा	-1366
ेक	-1367
ध्यक्ष	-1368
▁विरोध	-1369
▁बने	-1370
▁वी	-1371
▁वित	-1372
करी	-1373
▁तथा	-1374
ूप	-1375
▁समस्या	-1376
▁महिलाओं	-1377
षद	-1378
▁पार	-1379
▁बयान	-1380
▁I	-1381
पूर्ण	-1382
मो	-1383
▁संप	-1384
▁बैंक	-1385
▁अवसर	-1386
▁होंगे	-1387
▁स्वास्थ्य	-1388
दीप	-1389
श्य	-1390
▁लॉ	-1391
▁सिर्फ	-1392
नल	-1393
▁जम	-1394
वत	-1395
▁रेलवे	-1396
▁पेश	-1397
▁अमेर	-1398
▁समिति	-1399
-1	-1400
▁फैस	-1401
ुन	-1402
▁चुकी	-1403
▁प्रयास	-1404
▁17	-1405
वाह	-1406
गंज	-1407
ानीय	-1408
▁ची	-1409
▁अपरा	-1410
वेदन	-1411
▁मृतक	-1412
▁भो	-1413
▁पाल	-1414
क्षक	-1415
▁जाते	-1416
▁सचिव	-1417
▁मोबाइल	-1418
▁N	-1419
पीट	-1420
▁वाहन	-1421
▁50	-1422
्रम	-1423
▁जवाब	-1424
▁विवाद	-1425
▁सके	-1426
ाक	-1427
▁स्थानीय	-1428
न्न	-1429
▁रिक	-1430
ल्प	-1431
डा	-1432
ंदा	-1433
▁प्रमुख	-1434
र्ण	-1435
▁सम्मान	-1436
▁उम्मीदवार	-1437
ियम	-1438
▁ग्राम	-1439
▁जल्द	-1440
धि	-1441
▁मिश	-1442
▁दुर्	-1443
▁देखा	-1444
सि	-1445
▁करती	-1446
▁जयपुर	-1447
▁बचा	-1448
▁M	-1449
▁इंटर	-1450
रिक	-1451
▁दिस	-1452
▁लगभग	-1453
▁पाकि	-1454
ar	-1455
▁मिन	-1456
रि	-1457
▁देवी	-1458
▁इलाके	-1459
ठी	-1460
ूबर	-1461
▁जैन	-1462
धिकारी	-1463
ैध	-1464
▁शाह	-1465
टल	-1466
▁कार्यकर्	-1467
▁दिखा	-1468
अल	-1469
एल	-1470
▁मेरे	-1471
▁माध्य	-1472
▁सवार	-1473
▁दूर	-1474
मर	-1475
▁दीप	-1476
▁वापस	-1477
▁अवैध	-1478
▁महत्व	-1479
▁भूम	-1480
▁किसानों	-1481
सू	-1482
▁गाड़ी	-1483
▁संत	-1484
▁पंचायत	-1485
ंभ	-1486
▁स्तर	-1487
▁अभि	-1488
चर	-1489
▁राशि	-1490
▁कौ	-1491
▁संघ	-1492
जाम	-1493
▁मई	-1494
शिश	-1495
▁बराम	-1496
शनल	-1497
▁शराब	-1498
▁एड	-1499
▁अंदर	-1500
▁200	-1501
▁शेयर	-1502
▁लौ	-1503
▁हॉ	-1504
टक	-1505
्यान	-1506
▁पीड़ित	-1507
पुरा	-1508
हाय	-1509
▁उत्तर	-1510
लाल	-1511
▁कोशिश	-1512
पक्ष	-1513
मे	-1514
▁जीवन	-1515
▁संगठ	-1516
▁बरामद	-1517
▁सितंबर	-1518
▁पीएम	-1519
ूड	-1520
ालय	-1521
▁कहते	-1522
▁राष्ट्र	-1523
▁विजय	-1524
▁इंडिया	-1525
▁मंत्र	-1526
▁शुरुआत	-1527
▁प्रभाव	-1528
▁मारपीट	-1529
▁सें	-1530
केश	-1531
▁धर्म	-1532
क्टूबर	-1533
▁समर्थ	-1534
ंका	-1535
▁जरूर	-1536
▁तीस	-1537
▁अक्टूबर	-1538
फ़	-1539
▁वालों	-1540
प्री	-1541
वीं	-1542
स्टर	-1543
▁कलेक्टर	-1544
▁पुत्र	-1545
30	-1546
ूरी	-1547
क्कर	-1548
▁निकल	-1549
▁22	-1550
माश	-1551
▁दौ	-1552
▁सर्	-1553
▁गल	-1554
मन	-1555
▁हमारे	-1556
▁दिसंबर	-1557
ल्स	-1558
हरी	-1559
▁R	-1560
श्च	-1561
उंड	-1562
हित	-1563
▁चुका	-1564
▁पीछे	-1565
▁इंदौर	-1566
▁पूछता	-1567
ॉप	-1568
र्जी	-1569
▁सां	-1570
▁मार्ग	-1571
▁हादसे	-1572
▁रि	-1573
▁टिक	-1574
▁देकर	-1575
▁वार	-1576
एच	-1577
▁संभाव	-1578
रिया	-1579
▁लिखा	-1580
▁पूछताछ	-1581
एन	-1582
बार	-1583
▁कार्यालय	-1584
षा	-1585
वंबर	-1586
गल	-1587
यन	-1588
▁एयर	-1589
▁नोट	-1590
धरी	-1591
गू	-1592
▁कट	-1593
▁शुभ	-1594
▁मेडिकल	-1595
▁आसपास	-1596
▁व्याप	-1597
▁केंद	-1598
▁नवंबर	-1599
▁बदमाश	-1600
इड	-1601
▁एज	-1602
▁लक्ष	-1603
थि	-1604
धर	-1605
ुर्	-1606
▁पढ़ें	-1607
▁ब्ल	-1608
▁शि	-1609
ैंप	-1610
▁केंद्रीय	-1611
▁सहाय	-1612
तृ	-1613
▁गण	-1614
▁अंतर	-1615
ोस	-1616
किंग	-1617
▁प्राप्त	-1618
र्ष	-1619
▁कभी	-1620
▁स्टे	-1621
▁गुप	-1622
ॉर्ड	-1623
▁मतदान	-1624
▁माता	-1625
▁तौर	-1626
▁केवल	-1627
खिल	-1628
▁नियम	-1629
▁चौधरी	-1630
भर	-1631
▁एसपी	-1632
राम	-1633
▁पड़ा	-1634
▁प्ल	-1635
स्थित	-1636
▁जाएंगे	-1637
▁आपको	-1638
▁जाना	-1639
▁मैंने	-1640
▁धम	-1641
▁देखने	-1642
साद	-1643
▁बिना	-1644
▁स्टेशन	-1645
▁शो	-1646
चारी	-1647
▁21	-1648
फा	-1649
▁रज	-1650
ुरा	-1651
▁सर्व	-1652
▁धन	-1653
▁संय	-1654
▁मिनट	-1655
▁अंत	-1656
्‍	-1657
लर	-1658
शु	-1659
▁लख	-1660
▁आवेदन	-1661
▁रु	-1662
▁किलो	-1663
्ता	-1664
▁अप्र	-1665
विधा	-1666
▁रोज	-1667
▁नेताओं	-1668
कत	-1669
▁जिम	-1670
टेल	-1671
in	-1672
▁उपल	-1673
▁प्रत्या	-1674
िसर	-1675
लाइन	-1676
▁मरीज	-1677
▁भारी	-1678
▁एक्सप	-1679
मारी	-1680
▁माध्यम	-1681
▁ध्यान	-1682
▁खास	-1683
▁नदी	-1684
दय	-1685
▁भोपाल	-1686
सव	-1687
ांक	-1688
्मे	-1689
▁अस	-1690
▁होना	-1691
▁मार्च	-1692
50	-1693
▁पाकिस्तान	-1694
हाल	-1695
▁D	-1696
्यो	-1697
▁लगाए	-1698
▁ट्रै	-1699
at	-1700
केट	-1701
▁निरी	-1702
जरा	-1703
िटल	-1704
देव	-1705
▁हमें	-1706
त्ती	-1707
▁।	-1708
ौल	-1709
माल	-1710
▁लाइन	-1711
▁कैसे	-1712
▁देखते	-1713
▁बदल	-1714
▁खबर	-1715
एफ	-1716
िशा	-1717
झा	-1718
▁100	-1719
▁मुद्	-1720
▁ते	-1721
▁डाल	-1722
▁लाभ	-1723
▁तोड़	-1724
▁ज़	-1725
▁निकाल	-1726
पू	-1727
▁लिख	-1728
र्या	-1729
पोर्ट	-1730
▁टिकट	-1731
▁सै	-1732
मार्ट	-1733
▁गोली	-1734
▁प्ले	-1735
▁बनी	-1736
अलग	-1737
िकेट	-1738
▁कराने	-1739
▁अपराध	-1740
त्ता	-1741
▁फरार	-1742
लि	-1743
▁सप्	-1744
▁विदेश	-1745
▁लो	-1746
▁बोर्ड	-1747
▁सुविधा	-1748
▁सत	-1749
▁अग्र	-1750
ियार	-1751
▁संबंधित	-1752
▁उद्	-1753
▁छात्रा	-1754
▁ग्रामीणों	-1755
सत	-1756
▁जिसे	-1757
्व	-1758
▁पदा	-1759
▁संभ	-1760
▁2023	-1761
ंडी	-1762
िग	-1763
विद्यालय	-1764
क्रिया	-1765
▁वार्ड	-1766
▁सीटों	-1767
▁जनवरी	-1768
▁छात्रों	-1769
र्प	-1770
िरी	-1771
▁बदला	-1772
▁प्रक्रिया	-1773
▁कर्मचारी	-1774
▁अहम	-1775
घा	-1776
▁प्रसाद	-1777
▁संभावना	-1778
ॉक	-1779
फ्ट	-1780
▁नव	-1781
▁जमा	-1782
▁यानी	-1783
▁विद्य	-1784
ारोह	-1785
▁उपलब्	-1786
दाय	-1787
तरी	-1788
▁सफल	-1789
ंकर	-1790
▁अगले	-1791
▁समारोह	-1792
▁तय	-1793
▁आयोग	-1794
चारियों	-1795
▁श्रद्ध	-1796
्रोल	-1797
क्षित	-1798
▁विकेट	-1799
▁भेजा	-1800
ूक	-1801
▁जिलों	-1802
▁परेशान	-1803
ंबई	-1804
तृत्व	-1805
▁आव	-1806
ड़ों	-1807
त्तीस	-1808
▁संजय	-1809
िप्	-1810
▁सहयोग	-1811
▁हटा	-1812
ड़ियों	-1813
▁फीस	-1814
त्तीसगढ़	-1815
ेंसी	-1816
▁पकड़	-1817
ृति	-1818
20	-1819
र्न	-1820
▁साइ	-1821
▁दावा	-1822
on	-1823
बाल	-1824
▁चि	-1825
▁फोट	-1826
▁यूपी	-1827
▁वायर	-1828
फे	-1829
▁नेतृत्व	-1830
▁ऐसी	-1831
▁निश	-1832
▁रखने	-1833
ुओं	-1834
▁चले	-1835
▁छत्तीसगढ़	-1836
तों	-1837
▁ज्ञ	-1838
▁सुनी	-1839
धन	-1840
▁रण	-1841
▁लाइ	-1842
),	-1843
ृह	-1844
काब	-1845
▁क्ल	-1846
ांग	-1847
▁बोले	-1848
ज्ञान	-1849
▁नीचे	-1850
▁मानस	-1851
▁चिक	-1852
▁गर्मी	-1853
▁तत्	-1854
▁ताकि	-1855
▁कर्मचारियों	-1856
नात	-1857
▁उर्फ	-1858
▁40	-1859
▁नागर	-1860
▁तैयारी	-1861
▁आख	-1862
▁बच	-1863
▁नरेंद्र	-1864
▁पश्च	-1865
▁चंद्र	-1866
▁हास	-1867
▁हिस्सा	-1868
▁रंग	-1869
▁लगाने	-1870
ियल	-1871
▁न्याय	-1872
धे	-1873
स्व	-1874
▁अद	-1875
▁तलाश	-1876
असल	-1877
▁कब्	-1878
स्ल	-1879
एसपी	-1880
▁कीमत	-1881
▁टक्कर	-1882
▁बल्कि	-1883
टो	-1884
▁कर्	-1885
▁अप्रैल	-1886
▁मंडल	-1887
▁माना	-1888
▁प्रत्याशी	-1889
▁मुंबई	-1890
▁इनमें	-1891
▁जाकर	-1892
▁दरअसल	-1893
▁गुप्ता	-1894
िक्ष	-1895
यों	-1896
▁सजा	-1897
▁बांग	-1898
ूब	-1899
▁26	-1900
▁गौ	-1901
नियर	-1902
चार्य	-1903
▁दुनिया	-1904
▁डाय	-1905
▁फैसला	-1906
▁ओवर	-1907
ुम	-1908
िंद	-1909
▁बंग	-1910
ापन	-1911
▁रिश्	-1912
रज	-1913
▁मकान	-1914
▁हासिल	-1915
▁जिम्मे	-1916
▁टेस्ट	-1917
▁संगठन	-1918
▁मॉ	-1919
ीक	-1920
वित	-1921
▁फाइ	-1922
ील	-1923
▁प्रे	-1924
ॉर्म	-1925
ामा	-1926
ड्	-1927
ष्य	-1928
लोनी	-1929
▁भाव	-1930
▁सिर	-1931
▁पटना	-1932
▁आश	-1933
ोद	-1934
▁गति	-1935
▁जुड़े	-1936
▁पेट	-1937
▁वक्त	-1938
चन	-1939
▁चरण	-1940
▁सदर	-1941
▁रहते	-1942
ाइम	-1943
▁जता	-1944
स्तेमाल	-1945
▁भवन	-1946
▁फायर	-1947
▁दिल	-1948
▁पूर्ण	-1949
▁इस्तेमाल	-1950
▁तरी	-1951
▁राजनीतिक	-1952
▁23	-1953
▁जन्म	-1954
▁गाय	-1955
▁वृ	-1956
▁न्याया	-1957
लू	-1958
▁स्थाप	-1959
▁वर्ग	-1960
▁किस	-1961
er	-1962
▁घु	-1963
▁रहेगा	-1964
रों	-1965
ोत्	-1966
▁हथ	-1967
्लादेश	-1968
ियोग	-1969
▁प्रकार	-1970
▁अमेरिका	-1971
ांति	-1972
▁कला	-1973
तीश	-1974
▁28	-1975
िन्	-1976
▁अश	-1977
▁दोस्त	-1978
षि	-1979
▁लखन	-1980
▁हालत	-1981
▁शी	-1982
▁चिकित	-1983
000	-1984
िनि	-1985
▁साफ	-1986
▁मजबू	-1987
अप	-1988
राह	-1989
त्ति	-1990
चीत	-1991
▁ख़	-1992
▁भीड़	-1993
वाली	-1994
▁झार	-1995
डे	-1996
▁बुला	-1997
▁तीनों	-1998
▁उपलब्ध	-1999
व्य	-2000
क्ता	-2001
▁बातचीत	-2002
▁चालक	-2003
▁मश	-2004
▁पैसे	-2005
टने	-2006
▁परिसर	-2007
वाड़ा	-2008
▁ड्राइ	-2009
ायण	-2010
▁आन	-2011
थमिक	-2012
कल	-2013
▁रै	-2014
▁बनने	-2015
▁सीमा	-2016
▁नया	-2017
▁पाए	-2018
▁घोषणा	-2019
जरी	-2020
▁फ़	-2021
▁समी	-2022
▁मैदान	-2023
▁पल	-2024
▁चौक	-2025
▁न्यू	-2026
▁प्राथमिक	-2027
तरा	-2028
▁महत्वपूर्ण	-2029
वें	-2030
्हें	-2031
गार	-2032
▁हमने	-2033
▁महारा	-2034
दों	-2035
▁ति	-2036
▁हार	-2037
▁बाबा	-2038
.5	-2039
हान	-2040
श्यक	-2041
▁अमित	-2042
ार्ज	-2043
▁खो	-2044
▁कराई	-2045
पन	-2046
▁त्र	-2047
▁खत्म	-2048
▁झारखंड	-2049
▁ऑन	-2050
▁फिलहाल	-2051
▁दिवस	-2052
ांव	-2053
▁चा	-2054
▁कार्ड	-2055
▁रिकॉर्ड	-2056
▁ट्रांस	-2057
▁प्रकाश	-2058
बाजी	-2059
▁विद्यालय	-2060
▁यही	-2061
▁तस्वीर	-2062
▁चुन	-2063
▁ठीक	-2064
दि	-2065
▁मोह	-2066
▁फु	-2067
▁मुक	-2068
▁बांग्लादेश	-2069
ंगी	-2070
▁पौ	-2071
फिक	-2072
▁गठबंधन	-2073
▁मूल	-2074
▁कहीं	-2075
▁निजी	-2076
▁घा	-2077
▁क्	-2078
वाही	-2079
▁गिरा	-2080
▁पड़े	-2081
▁स्टूड	-2082
ैनिक	-2083
तिम	-2084
▁सिटी	-2085
ड्ड	-2086
▁27	-2087
▁एल	-2088
जों	-2089
▁वायरल	-2090
दम	-2091
ेय	-2092
▁बाव	-2093
▁ऊपर	-2094
▁नागरिक	-2095
रल	-2096
▁चोर	-2097
▁आवश्यक	-2098
मेर	-2099
▁आपके	-2100
▁पहला	-2101
ंसा	-2102
ंडा	-2103
ेटी	-2104
▁सेंटर	-2105
मता	-2106
▁भु	-2107
▁आवा	-2108
▁स्वी	-2109
▁घोषित	-2110
▁मिलकर	-2111
▁खेत	-2112
बाज	-2113
▁वरि	-2114
▁फोटो	-2115
▁लड़की	-2116
▁राष्ट्रपति	-2117
द्योग	-2118
▁मोहन	-2119
▁मुकाब	-2120
▁पांड	-2121
▁उपस्थित	-2122
▁री	-2123
▁लखनऊ	-2124
▁मेरी	-2125
ेश्	-2126
▁रव	-2127
▁खराब	-2128
▁विचार	-2129
▁अंतिम	-2130
मीटर	-2131
्रेट	-2132
▁अंक	-2133
ष्ट्र	-2134
▁खुला	-2135
al	-2136
तियों	-2137
ब्ल	-2138
▁समा	-2139
▁कमेटी	-2140
ंख	-2141
▁E	-2142
षेक	-2143
▁कमी	-2144
▁तभी	-2145
ित्य	-2146
▁सीसी	-2147
▁K	-2148
ाने	-2149
▁31	-2150
▁डा	-2151
▁धारा	-2152
नगर	-2153
▁कॉन्	-2154
▁जरिए	-2155
▁पाया	-2156
▁अय	-2157
लिया	-2158
▁तह	-2159
▁खरीद	-2160
▁सेना	-2161
ूस	-2162
▁धमकी	-2163
विंद	-2164
▁चुना	-2165
▁मीटर	-2166
▁उच्च	-2167
▁सुप्री	-2168
▁लगाई	-2169
डल	-2170
▁उदय	-2171
▁गौर	-2172
▁समु	-2173
▁बोल	-2174
▁हमारी	-2175
▁राज्यों	-2176
▁प्रेम	-2177
नु	-2178
चानक	-2179
▁वर्षीय	-2180
▁चीन	-2181
▁सभा	-2182
▁ट्रक	-2183
▁कित	-2184
हास	-2185
स्कार	-2186
▁सुनवाई	-2187
▁अदाल	-2188
▁प्रवेश	-2189
▁स्टूडेंट	-2190
▁अचानक	-2191
▁प्रस्ता	-2192
▁अग्रवाल	-2193
▁भू	-2194
द्धि	-2195
▁दर्शन	-2196
▁वारदा	-2197
▁सही	-2198
▁वरिष्ठ	-2199
▁समर्थन	-2200
▁चाहते	-2201
▁मुला	-2202
▁एफ	-2203
▁टा	-2204
▁कानून	-2205
▁विपक्ष	-2206
ंता	-2207
▁कॉलोनी	-2208
▁प्रस्त	-2209
▁शिक्षक	-2210
▁बू	-2211
▁उसी	-2212
▁प्रतियोग	-2213
▁हिंदू	-2214
▁दिला	-2215
▁परिजन	-2216
▁सदस्यों	-2217
बोध	-2218
▁बहन	-2219
▁देना	-2220
▁क्षेत्रों	-2221
ट्र	-2222
▁लंब	-2223
▁बावजूद	-2224
▁लु	-2225
▁आते	-2226
चिका	-2227
ौती	-2228
▁लागू	-2229
ैया	-2230
▁धर	-2231
▁उम्र	-2232
वर्	-2233
▁टै	-2234
▁मं	-2235
▁गेट	-2236
ंदी	-2237
▁नुक	-2238
तंत्र	-2239
▁दक्ष	-2240
▁क्रिकेट	-2241
▁सामान्य	-2242
▁संक	-2243
▁उनसे	-2244
▁निवेश	-2245
▁निरीक्षण	-2246
ेंडर	-2247
▁किन	-2248
तल	-2249
▁इम	-2250
▁इंत	-2251
खी	-2252
ूह	-2253
▁विश्वविद्यालय	-2254
▁पटेल	-2255
▁तैनात	-2256
▁परिषद	-2257
▁प्रता	-2258
▁होटल	-2259
▁फे	-2260
स्कर	-2261
ुरी	-2262
▁सिव	-2263
श्वास	-2264
उट	-2265
टेड	-2266
▁बदलाव	-2267
▁याचिका	-2268
ॉट	-2269
▁29	-2270
िश्न	-2271
▁कही	-2272
वट	-2273
▁चंद	-2274
▁दर्	-2275
चल	-2276
मति	-2277
िकी	-2278
ंघ	-2279
▁उठ	-2280
▁उल्	-2281
▁सुना	-2282
▁फ्र	-2283
▁ऑफिस	-2284
िने	-2285
▁बनाकर	-2286
▁तत्काल	-2287
्याण	-2288
▁लूट	-2289
▁प्रभावित	-2290
▁अशोक	-2291
▁हथियार	-2292
िद	-2293
▁सात	-2294
▁एंड	-2295
▁कारो	-2296
▁वर्मा	-2297
▁गेंद	-2298
▁राजनीति	-2299
ख्त	-2300
▁सिक	-2301
▁निर्ण	-2302
प्शन	-2303
▁बेहतर	-2304
▁दिखाई	-2305
▁मनी	-2306
▁विन	-2307
▁एसडी	-2308
▁रहता	-2309
▁फा	-2310
▁कोच	-2311
▁अदालत	-2312
▁जित	-2313
▁रखी	-2314
▁जरूरत	-2315
▁जरूरी	-2316
जल	-2317
▁T	-2318
सों	-2319
टीवी	-2320
▁गलत	-2321
▁उससे	-2322
▁नुकसान	-2323
ध्या	-2324
▁परिव	-2325
▁प्रतियोगिता	-2326
▁असर	-2327
▁हॉस्प	-2328
▁पाठ	-2329
▁पदाधिकारी	-2330
उस	-2331
▁नेशनल	-2332
▁बनाई	-2333
▁करेगी	-2334
तिहास	-2335
सील	-2336
▁तुर	-2337
▁अजय	-2338
▁कैम	-2339
▁रिज	-2340
▁उपयोग	-2341
▁सुप्रीम	-2342
▁कॉल	-2343
▁मजद	-2344
▁संस्थान	-2345
खे	-2346
▁राहत	-2347
▁गृह	-2348
▁कृष्ण	-2349
ूर्ति	-2350
▁अफसर	-2351
▁ग्रुप	-2352
▁विद्यार्थ	-2353
▁ऋ	-2354
कर्म	-2355
▁वारदात	-2356
यल	-2357
▁तरीके	-2358
▁रास्ते	-2359
▁रिली	-2360
▁गुर	-2361
▁लगने	-2362
▁मिश्रा	-2363
ोध्या	-2364
▁भूमिका	-2365
ुण	-2366
or	-2367
▁जाम	-2368
▁कब	-2369
▁हॉस्पिटल	-2370
र्गत	-2371
▁बिल्	-2372
▁सीसीटीवी	-2373
राव	-2374
▁गी	-2375
▁कौन	-2376
▁F	-2377
▁सफाई	-2378
▁कार्यकर्ताओं	-2379
▁(2	-2380
▁मजबूत	-2381
▁तुरंत	-2382
नेश	-2383
▁हल्	-2384
sh	-2385
▁पंड	-2386
▁संस	-2387
▁2019	-2388
▁महाराष्ट्र	-2389
▁इतना	-2390
▁महार	-2391
ित्र	-2392
▁हमले	-2393
टिंग	-2394
▁वाहनों	-2395
▁स्वागत	-2396
▁ड्राइवर	-2397
न्ना	-2398
ॉर्ट	-2399
▁विष	-2400
▁हवा	-2401
▁स्थल	-2402
सिंह	-2403
▁कपूर	-2404
▁भक्त	-2405
▁दक्षि	-2406
▁लगाकर	-2407
र्डर	-2408
▁मंच	-2409
▁संस्था	-2410
▁लॉन्	-2411
▁किश	-2412
▁ताला	-2413
▁प्रदान	-2414
▁उपा	-2415
▁बजट	-2416
▁नौकरी	-2417
▁युवती	-2418
छा	-2419
िनी	-2420
▁जब्त	-2421
▁रिलीज	-2422
▁प्रचार	-2423
▁,	-2424
कात	-2425
▁जागर	-2426
▁अयोध्या	-2427
रान	-2428
स्टम	-2429
▁छोटे	-2430
▁तेजी	-2431
▁लगता	-2432
▁फरवरी	-2433
▁शांति	-2434
ाले	-2435
▁बीते	-2436
▁इले	-2437
▁लेते	-2438
ेक्ट	-2439
▁सीटें	-2440
▁कोत	-2441
▁नाबाल	-2442
▁बंगाल	-2443
▁अभिषेक	-2444
▁कल्याण	-2445
▁मिलेगा	-2446
▁चोट	-2447
▁जोर	-2448
र्थिक	-2449
▁संयुक्त	-2450
▁बेच	-2451
िड	-2452
▁जवान	-2453
▁छु	-2454
▁मू	-2455
▁फ्ल	-2456
उंट	-2457
▁कृषि	-2458
▁राजेश	-2459
▁नोटिस	-2460
▁फीसदी	-2461
▁सिविल	-2462
्यून	-2463
▁सिल	-2464
▁मर	-2465
▁दबा	-2466
▁सुख	-2467
िक्र	-2468
▁बताते	-2469
▁रायपुर	-2470
▁रहेगी	-2471
भव	-2472
ंकी	-2473
ारंभ	-2474
▁शरी	-2475
▁आत्म	-2476
▁प्रतिनि	-2477
▁तहसील	-2478
ताह	-2479
▁अली	-2480
▁ऑनलाइन	-2481
.2	-2482
कम	-2483
श्क	-2484
ोप	-2485
हम्म	-2486
▁यदि	-2487
कोर्ट	-2488
▁नाबालिग	-2489
ल्ट	-2490
▁ठे	-2491
▁जमकर	-2492
उन	-2493
▁मालिक	-2494
▁भास्कर	-2495
▁कोल	-2496
▁भवि	-2497
▁करेगा	-2498
▁संवि	-2499
▁नाराज	-2500
.4	-2501
▁तम	-2502
▁सल	-2503
डिंग	-2504
कुमार	-2505
▁श्रद्धाल	-2506
िशन	-2507
▁आनंद	-2508
▁आर्थिक	-2509
▁एक्सप्रेस	-2510
▁ठाक	-2511
▁दीपक	-2512
▁निर्णय	-2513
डीए	-2514
रासत	-2515
▁कदम	-2516
▁मुलाकात	-2517
▁छह	-2518
▁नम	-2519
▁भविष्य	-2520
▁चढ़	-2521
विध	-2522
▁प्रशिक्ष	-2523
▁गिरफ्तारी	-2524
▁गैंग	-2525
वरण	-2526
▁रहती	-2527
▁रोहित	-2528
▁सामना	-2529
हरे	-2530
▁अतिरिक	-2531
▁सोन	-2532
▁अंतर्गत	-2533
▁आत	-2534
्होंने	-2535
▁संबोध	-2536
त्रियों	-2537
कीय	-2538
▁बेटा	-2539
▁फर्जी	-2540
▁दम	-2541
हम्मद	-2542
▁मनोज	-2543
िवर्स	-2544
▁2022	-2545
▁दूसरा	-2546
▁G	-2547
▁लौट	-2548
▁खुल	-2549
▁ठाकुर	-2550
▁निर्वा	-2551
ंटी	-2552
स्‍	-2553
▁तारी	-2554
▁पर्य	-2555
▁मेरा	-2556
▁सागर	-2557
▁जिसकी	-2558
▁अतिरिक्त	-2559
श्मी	-2560
ेश्वर	-2561
.1	-2562
▁खर्च	-2563
▁तेल	-2564
▁अज्ञ	-2565
▁करवाया	-2566
▁व्यक्त	-2567
▁हाईकोर्ट	-2568
▁35	-2569
ांकन	-2570
▁अपील	-2571
ोलन	-2572
्तान	-2573
▁पर्व	-2574
-20	-2575
▁खड़े	-2576
बीर	-2577
▁पट	-2578
▁बांध	-2579
▁अज्ञात	-2580
▁कार्यकर्ता	-2581
▁धो	-2582
▁इलाकों	-2583
▁मुकद	-2584
▁सहायक	-2585
▁पीड़िता	-2586
थम	-2587
ांसी	-2588
▁संचालन	-2589
▁कंपन	-2590
▁साहू	-2591
▁प्राइ	-2592
▁बदमाशों	-2593
▁मतदा	-2594
▁प्रस्ताव	-2595
्याम	-2596
▁अंजाम	-2597
तमान	-2598
▁आंद	-2599
▁हाउस	-2600
▁देशों	-2601
▁मिलते	-2602
▁मंत्रालय	-2603
वाइ	-2604
▁हनु	-2605
▁देंगे	-2606
▁सीरीज	-2607
▁फाय	-2608
▁महाराज	-2609
इल	-2610
ुड	-2611
ेशल	-2612
▁पार्षद	-2613
▁धी	-2614
▁सुनील	-2615
▁सिस्टम	-2616
ेंज	-2617
त्मक	-2618
▁कां	-2619
▁बैठे	-2620
▁सत्र	-2621
▁प्रोज	-2622
▁मोहम्मद	-2623
▁U	-2624
▁उदयपुर	-2625
▁मामलों	-2626
ैंस	-2627
▁पॉ	-2628
▁हिस	-2629
▁कोतवाली	-2630
▁मल	-2631
▁अनिल	-2632
▁जैसी	-2633
▁बच्ची	-2634
▁किलोमीटर	-2635
ेशा	-2636
▁नो	-2637
स्लिम	-2638
▁अच्छी	-2639
पथ	-2640
प्रदेश	-2641
▁संर	-2642
▁उत्पा	-2643
▁जाल	-2644
▁सुधार	-2645
फ्र	-2646
ोत्सव	-2647
▁आवास	-2648
▁प्रि	-2649
▁पर्या	-2650
वारी	-2651
▁राव	-2652
वादी	-2653
ti	-2654
▁अधी	-2655
खर	-2656
ष्टि	-2657
▁पेट्रोल	-2658
▁युवाओं	-2659
▁परेशानी	-2660
▁L	-2661
ाजिक	-2662
्राम	-2663
▁कड़ी	-2664
ैर	-2665
▁फसल	-2666
▁सोने	-2667
िक्स	-2668
▁चां	-2669
श्किल	-2670
स्त्र	-2671
▁रक्षा	-2672
▁अज	-2673
▁तुल	-2674
▁पश्चिम	-2675
ुल्	-2676
जरीवाल	-2677
ज्ज	-2678
▁आशी	-2679
वेट	-2680
दारों	-2681
ंदे	-2682
▁सुपर	-2683
स्ट्री	-2684
▁गुजरा	-2685
▁हनुमान	-2686
ॉन	-2687
▁देखकर	-2688
▁निदेश	-2689
▁प्रोजेक्ट	-2690
▁दश	-2691
▁नीतीश	-2692
▁झा	-2693
▁जाय	-2694
सुर	-2695
▁पैर	-2696
▁आंदोलन	-2697
▁घाट	-2698
िश्चित	-2699
▁विस्त	-2700
▁अधिकार	-2701
ण्ड	-2702
▁मौका	-2703
▁एक्ट्रेस	-2704
▁गंगा	-2705
▁अलर्ट	-2706
▁बिक	-2707
▁केजरीवाल	-2708
▁पकड़ा	-2709
▁स्पेशल	-2710
▁घरों	-2711
टेज	-2712
वाला	-2713
▁छाप	-2714
▁अच्छा	-2715
धानी	-2716
▁एक्	-2717
▁डायरे	-2718
▁रजिस्ट	-2719
▁मुश्किल	-2720
फल	-2721
▁भोज	-2722
▁मगर	-2723
▁चली	-2724
▁मीणा	-2725
्यु	-2726
▁तिव	-2727
▁अतिथि	-2728
▁डॉक्टरों	-2729
दर	-2730
लाह	-2731
▁नामांकन	-2732
es	-2733
▁तिवारी	-2734
▁वर्तमान	-2735
▁शिविर	-2736
▁न्यायालय	-2737
▁यूनिवर्स	-2738
वेज	-2739
▁सड़	-2740
▁सालों	-2741
▁अधिकतम	-2742
▁आयुक्त	-2743
्यार	-2744
▁अंग	-2745
▁इधर	-2746
▁मुस्लिम	-2747
▁बर्	-2748
▁दिशा	-2749
▁श्रे	-2750
▁प्री	-2751
▁साइबर	-2752
▁निकाला	-2753
▁शासन	-2754
▁पढ़ाई	-2755
▁स्कूलों	-2756
▁भूमि	-2757
▁मैने	-2758
▁यात्रियों	-2759
▁बिल	-2760
श्मीर	-2761
▁मनाया	-2762
▁सेक्टर	-2763
ra	-2764
▁आकर	-2765
▁गईं	-2766
▁अखिल	-2767
▁रैली	-2768
▁कब्जे	-2769
▁चुनावी	-2770
ोश	-2771
▁कमा	-2772
ोई	-2773
en	-2774
▁उसमें	-2775
सु	-2776
भार	-2777
▁मुकेश	-2778
ष्ट्रीय	-2779
▁हमेशा	-2780
चु	-2781
स्कृत	-2782
▁प्रताप	-2783
▁महिलाएं	-2784
▁दब	-2785
लपुर	-2786
▁प्लान	-2787
▁सुरक्षित	-2788
गांव	-2789
्रमण	-2790
▁सूर्य	-2791
ुर्ग	-2792
▁देता	-2793
JP	-2794
▁उत	-2795
▁चलने	-2796
▁योगी	-2797
▁युवकों	-2798
्रत	-2799
▁पारी	-2800
▁पूछा	-2801
ांट	-2802
▁विश	-2803
▁जोड़	-2804
मार्टम	-2805
▁इंटरने	-2806
साथ	-2807
▁बढ़ाने	-2808
वां	-2809
▁सर्वे	-2810
▁जिम्मेदारी	-2811
लेट	-2812
▁बिग	-2813
▁मरीजों	-2814
▁सम्मानित	-2815
▁ऑटो	-2816
▁प्लेट	-2817
▁कुमारी	-2818
▁संविधान	-2819
▁अका	-2820
▁गणेश	-2821
कृ	-2822
▁आल	-2823
▁तीसरे	-2824
▁जागरूक	-2825
▁यूनिवर्सिटी	-2826
ha	-2827
बारी	-2828
▁रखे	-2829
▁कैंप	-2830
▁संबोधित	-2831
▁पोस्टमार्टम	-2832
▁चयन	-2833
▁दक्षिण	-2834
स्तव	-2835
▁कमरे	-2836
▁V	-2837
वानी	-2838
▁वीर	-2839
▁किनारे	-2840
▁खुलासा	-2841
▁एयरपोर्ट	-2842
▁नक	-2843
नीय	-2844
बन	-2845
▁डर	-2846
डर	-2847
▁पस	-2848
शाला	-2849
▁रिट	-2850
▁सिद्ध	-2851
▁उद्देश	-2852
▁सप्ताह	-2853
पंच	-2854
शिप	-2855
▁युद्ध	-2856
▁विवाह	-2857
▁सामाजिक	-2858
गण	-2859
ुष	-2860
द्द	-2861
▁पेपर	-2862
▁रिश्ते	-2863
▁वर्ल्ड	-2864
▁शिक्षकों	-2865
वुड	-2866
▁आंक	-2867
▁मंडी	-2868
▁शक्ति	-2869
▁हादसा	-2870
श्वर	-2871
▁गोल	-2872
▁अभिय	-2873
▁उनको	-2874
िफ	-2875
▁खोल	-2876
▁साध	-2877
िब	-2878
▁स्टूडेंट्स	-2879
▁जला	-2880
▁पाई	-2881
▁इलेक्ट	-2882
▁रहेंगे	-2883
▁सेक	-2884
▁खाली	-2885
▁लाया	-2886
▁लिस्ट	-2887
▁संपर्क	-2888
▁पहुंचकर	-2889
▁रम	-2890
णाम	-2891
्यूटी	-2892
▁फॉ	-2893
ार्मिक	-2894
▁प्रबंधन	-2895
ियस	-2896
▁बेहद	-2897
▁उपचार	-2898
पत	-2899
सन	-2900
▁कार्यों	-2901
रीब	-2902
ग्राम	-2903
▁नाग	-2904
▁जिसका	-2905
▁60	-2906
पुरी	-2907
▁अभ्य	-2908
▁तकनी	-2909
▁पुरु	-2910
▁राजा	-2911
▁सड़कों	-2912
ीप	-2913
▁बहा	-2914
ंडल	-2915
वती	-2916
ुति	-2917
▁आठ	-2918
▁कन	-2919
▁रॉ	-2920
िएशन	-2921
.6	-2922
गु	-2923
▁दोष	-2924
▁पुरुष	-2925
▁वित्त	-2926
राय	-2927
ेंशन	-2928
वेद	-2929
कारों	-2930
▁निभा	-2931
▁फ्ला	-2932
▁न्यून	-2933
▁लंबे	-2934
▁गुजरात	-2935
▁समुदाय	-2936
▁ग्	-2937
▁वही	-2938
ew	-2939
▁कौर	-2940
.8	-2941
▁आता	-2942
▁कैं	-2943
▁भजन	-2944
जुर्ग	-2945
▁बाकी	-2946
▁न्यूनतम	-2947
श्न	-2948
भू	-2949
साय	-2950
▁45	-2951
▁टू	-2952
▁सपा	-2953
▁प्रखंड	-2954
िक्	-2955
▁नग	-2956
▁राजी	-2957
▁नारायण	-2958
▁स्टा	-2959
▁अधीक्षक	-2960
रु	-2961
▁खूब	-2962
▁आवाज	-2963
▁धार्मिक	-2964
क़	-2965
जीव	-2966
▁इन्	-2967
▁रेप	-2968
▁अर्	-2969
▁घुस	-2970
▁आदमी	-2971
▁चौकी	-2972
▁पैसा	-2973
▁अभ्यर्थ	-2974
▁बुजुर्ग	-2975
ौन	-2976
लीवुड	-2977
▁पड़ी	-2978
▁अंब	-2979
▁दृ	-2980
▁प्रव	-2981
▁मुख्यालय	-2982
.7	-2983
ुल्क	-2984
्रीन	-2985
▁पहल	-2986
▁इनके	-2987
▁समाधान	-2988
le	-2989
▁जंगल	-2990
▁चौहान	-2991
▁पार्क	-2992
▁निर्धार	-2993
ेड़	-2994
ानों	-2995
▁निर	-2996
▁मिस	-2997
▁बताई	-2998
परेशन	-2999
▁सीजन	-3000
▁एक्टर	-3001
▁राकेश	-3002
▁मिलेगी	-3003
di	-3004
▁व्रत	-3005
▁कहानी	-3006
▁शरीर	-3007
▁आखिरी	-3008
▁मजदूर	-3009
▁निर्वाचन	-3010
▁(1	-3011
र्जा	-3012
सेना	-3013
▁मारने	-3014
▁सफलता	-3015
सित	-3016
▁पोल	-3017
▁वर्षों	-3018
रत	-3019
ाब	-3020
▁खुश	-3021
▁इतनी	-3022
▁एसोस	-3023
▁एजेंसी	-3024
▁उद्देश्य	-3025
मानत	-3026
वाया	-3027
▁खंड	-3028
▁इमेज	-3029
▁ज्यो	-3030
▁विषय	-3031
▁पहुंचने	-3032
ढ़ी	-3033
मैन	-3034
▁लाने	-3035
▁रवाना	-3036
्रेन	-3037
▁चेक	-3038
▁संदीप	-3039
▁सुनिश्चित	-3040
▁सेल्स	-3041
▁प्राइवेट	-3042
▁अमर	-3043
फ्तार	-3044
त्रि	-3045
▁आउट	-3046
▁साब	-3047
▁इंतजार	-3048
▁कमिश्न	-3049
ग्ध	-3050
▁काउ	-3051
र्पित	-3052
▁शुक्	-3053
▁ब्लॉक	-3054
▁परिणाम	-3055
.0	-3056
ैट	-3057
▁थो	-3058
▁फो	-3059
▁लं	-3060
▁सौंप	-3061
▁सत्ता	-3062
▁उद्योग	-3063
▁स्पष्ट	-3064
▁हल	-3065
▁एग्	-3066
.3	-3067
ारण	-3068
▁ग्वाल	-3069
▁स्टाफ	-3070
▁कैप्शन	-3071
रेन	-3072
▁वकी	-3073
▁मार्केट	-3074
गीय	-3075
▁भुगत	-3076
▁फाइनल	-3077
▁खिलाड़ी	-3078
▁फीट	-3079
▁तिथि	-3080
▁पूजन	-3081
▁रिस	-3082
वासियों	-3083
▁छोड़कर	-3084
▁199	-3085
▁स्थापित	-3086
▁परिय	-3087
्मू	-3088
▁इंजी	-3089
▁राजधानी	-3090
िये	-3091
▁उतर	-3092
▁शपथ	-3093
▁इतिहास	-3094
क्सर	-3095
▁लॉन्च	-3096
▁आदित्य	-3097
नर	-3098
कृत	-3099
िट्	-3100
▁मिलता	-3101
▁लक्ष्य	-3102
▁दस्ता	-3103
▁रोकने	-3104
▁परियोजना	-3105
▁विद्यार्थियों	-3106
िप्टी	-3107
िमांड	-3108
▁प्रेर	-3109
▁फायदा	-3110
▁सूत्र	-3111
▁फूल	-3112
दाबाद	-3113
▁दबाव	-3114
▁ससुर	-3115
▁प्रथम	-3116
लिंग	-3117
▁सूची	-3118
▁माहौल	-3119
यात	-3120
बीआई	-3121
▁पार्ट	-3122
▁संतोष	-3123
▁ट्रैफिक	-3124
▁प्रस्तुत	-3125
शील	-3126
ट्टी	-3127
▁किमी	-3128
▁क्ला	-3129
▁बुलाया	-3130
▁स्मार्ट	-3131
हरण	-3132
ूनी	-3133
▁सौं	-3134
▁हरा	-3135
▁ऑपरेशन	-3136
▁डिप्टी	-3137
▁रफ्तार	-3138
▁अमेरिकी	-3139
▁शंकर	-3140
▁मानसून	-3141
र्जन	-3142
▁सोनी	-3143
▁स्थानों	-3144
▁बंध	-3145
▁शान	-3146
▁अरविंद	-3147
▁निदेशक	-3148
▁चुनावों	-3149
▁साथी	-3150
▁जुड़ी	-3151
▁सहायता	-3152
रेट	-3153
▁जाति	-3154
▁हिरासत	-3155
▁उक्त	-3156
▁32	-3157
▁पेड़	-3158
▁प्रशिक्षण	-3159
▁टाइ	-3160
▁मेह	-3161
▁मशीन	-3162
▁गतिविध	-3163
इकिल	-3164
बीसी	-3165
स्वी	-3166
▁H	-3167
ट्ट	-3168
▁कक्षा	-3169
▁कंपनियों	-3170
▁कहां	-3171
▁बचाने	-3172
▁चिकित्	-3173
▁ड्यूटी	-3174
वनी	-3175
▁सप	-3176
▁ज्योति	-3177
▁पुष्	-3178
▁सैनी	-3179
▁तुम	-3180
▁जानते	-3181
▁डीएम	-3182
ay	-3183
वीन	-3184
▁अनुमति	-3185
इस	-3186
टेन	-3187
वधान	-3188
▁रोजगार	-3189
▁BJP	-3190
स्ट्र	-3191
▁पोस्टम	-3192
▁इलेक्ट्र	-3193
पेट	-3194
क्का	-3195
वाने	-3196
▁काट	-3197
▁अमृत	-3198
▁बाढ़	-3199
▁2024:	-3200
▁गोपाल	-3201
▁प्रिय	-3202
▁प्रत्य	-3203
▁समूह	-3204
▁सेल्सियस	-3205
▁हेम	-3206
▁नीति	-3207
▁मनीष	-3208
▁लापर	-3209
▁संचालक	-3210
▁मध्यप्रदेश	-3211
▁मुह	-3212
▁जम्मू	-3213
▁पोस्टमॉर्ट	-3214
त्त	-3215
द्दी	-3216
स्टे	-3217
क्रिय	-3218
▁मुकदमा	-3219
▁पोस्टमॉर्टम	-3220
एंगे	-3221
▁काल	-3222
▁मुकाबले	-3223
▁एसोसिएशन	-3224
थर	-3225
आईआर	-3226
▁चिंता	-3227
्रेलिया	-3228
▁चिकित्सा	-3229
ri	-3230
▁रूम	-3231
▁करनी	-3232
▁तारीख	-3233
नेस	-3234
▁क़	-3235
▁शूट	-3236
▁फैसले	-3237
▁सीनियर	-3238
▁इंजीनियर	-3239
▁ग्वालियर	-3240
▁दास	-3241
▁मास	-3242
▁निकले	-3243
ब्र	-3244
▁किर	-3245
▁प्रिंस	-3246
▁बूथ	-3247
▁जताई	-3248
▁विवे	-3249
▁दाखिल	-3250
▁बॉलीवुड	-3251
▁फें	-3252
▁अक्ष	-3253
ंजन	-3254
▁कंट	-3255
▁वेब	-3256
▁चेयर	-3257
▁रखते	-3258
▁ज्ञापन	-3259
▁फायरिंग	-3260
ौली	-3261
▁एसी	-3262
▁टूट	-3263
▁किरा	-3264
▁आरक्षण	-3265
र्जर	-3266
▁स्कू	-3267
▁निर्धारित	-3268
काता	-3269
▁करवाई	-3270
ांची	-3271
▁प्ला	-3272
▁मोटर	-3273
▁फैक्ट	-3274
ews	-3275
▁रेफर	-3276
▁संचालित	-3277
▁आरती	-3278
▁जमानत	-3279
करा	-3280
▁धान	-3281
▁बें	-3282
जु	-3283
िले	-3284
पीएस	-3285
ेंगी	-3286
▁कमिश्नर	-3287
▁70	-3288
▁जॉ	-3289
▁टॉ	-3290
▁सप्लाई	-3291
एक	-3292
▁उड़	-3293
▁पूर्	-3294
▁गिरावट	-3295
्प	-3296
▁37	-3297
,000	-3298
ेन्द्र	-3299
▁नियंत्र	-3300
▁संपत्ति	-3301
▁जि	-3302
र्तन	-3303
्यता	-3304
▁गौरव	-3305
▁सरपंच	-3306
ाराम	-3307
▁शै	-3308
बारा	-3309
▁रेड	-3310
▁विद	-3311
▁महाम	-3312
▁इस्ती	-3313
ल्ल	-3314
▁अट	-3315
व्यू	-3316
▁राजीव	-3317
▁लापरवाही	-3318
▁O	-3319
िपा	-3320
▁टॉप	-3321
▁भरा	-3322
▁स्टेट	-3323
▁प्रत्येक	-3324
▁हिस्से	-3325
▁80	-3326
▁झू	-3327
ुक्ति	-3328
▁पालन	-3329
▁दुर्गा	-3330
▁डायरेक्टर	-3331
▁खिलाड़ियों	-3332
▁उम्मीदवारों	-3333
प्रीत	-3334
▁लै	-3335
बादी	-3336
▁ठंड	-3337
▁करियर	-3338
▁सक्रिय	-3339
राष्ट्रीय	-3340
',	-3341
▁J	-3342
नाम	-3343
ित्व	-3344
िलास	-3345
▁ठगी	-3346
▁हेड	-3347
▁आगामी	-3348
▁प्रदीप	-3349
▁अत	-3350
▁नवा	-3351
▁खड़ा	-3352
▁किशोर	-3353
▁पुराने	-3354
▁2021	-3355
▁पैदा	-3356
▁दैनिक	-3357
म्प	-3358
ष्ठा	-3359
▁चौथ	-3360
ड़िया	-3361
▁संसद	-3362
▁साबित	-3363
▁ट्रैक्टर	-3364
▁जिन्होंने	-3365
.30	-3366
िवार	-3367
फॉर्म	-3368
▁डॉलर	-3369
दास	-3370
▁स्म	-3371
▁खाते	-3372
▁चंडी	-3373
▁उठाया	-3374
▁पड़ता	-3375
▁मांगी	-3376
▁पसंद	-3377
▁रमेश	-3378
▁करवाने	-3379
▁क्षमता	-3380
▁ऑस्ट	-3381
▁ग्रे	-3382
▁घूम	-3383
▁पावर	-3384
▁मोहल्	-3385
▁कोलकाता	-3386
▁प्रतिमा	-3387
▁उपाध्यक्ष	-3388
▁अनुमान	-3389
दल	-3390
▁उतार	-3391
▁तीसरी	-3392
उथ	-3393
वंत	-3394
▁इमर	-3395
▁पहा	-3396
ियाना	-3397
▁वितरण	-3398
▁संदेश	-3399
▁हमारा	-3400
ईओ	-3401
ेलन	-3402
▁नशे	-3403
▁क्रम	-3404
▁अकाउंट	-3405
▁विस्तार	-3406
दिन	-3407
▁अर्थ	-3408
▁सलमान	-3409
▁विश्वास	-3410
▁क्लब	-3411
▁डीसी	-3412
▁विशाल	-3413
▁चुनौती	-3414
दू	-3415
हण	-3416
▁पुन	-3417
▁इंडस्ट्री	-3418
am	-3419
घटना	-3420
▁आती	-3421
▁कथा	-3422
▁सोच	-3423
▁इसको	-3424
▁भावना	-3425
▁प्रबंध	-3426
▁स्टैंड	-3427
ur	-3428
िनेट	-3429
▁तिर	-3430
▁दवा	-3431
▁हंग	-3432
▁गार्ड	-3433
▁फिल्मों	-3434
वेल	-3435
▁33	-3436
कर्मी	-3437
▁जिनमें	-3438
लेख	-3439
▁वॉ	-3440
गणना	-3441
स्पे	-3442
▁आजा	-3443
▁गोर	-3444
▁हिम	-3445
▁चाहता	-3446
ेमारी	-3447
▁तालाब	-3448
▁बढ़ने	-3449
▁हालात	-3450
▁इंटरव्यू	-3451
्ब	-3452
ंडर	-3453
▁2025	-3454
▁स्पी	-3455
▁हाईवे	-3456
णसी	-3457
मित	-3458
स्तर	-3459
▁कने	-3460
▁आतंक	-3461
▁मुद्दे	-3462
▁छापेमारी	-3463
ेड	-3464
▁आपकी	-3465
▁विमान	-3466
.9	-3467
▁नक्स	-3468
▁घायलों	-3469
▁संघर्ष	-3470
कुल	-3471
ानि	-3472
ड्डा	-3473
▁कमल	-3474
▁गोद	-3475
▁भ्र	-3476
स्थल	-3477
ार्म	-3478
▁शही	-3479
▁दूरी	-3480
▁सलाह	-3481
▁प्रमाण	-3482
▁समीक्षा	-3483
लेश	-3484
▁एंट	-3485
▁एफआईआर	-3486
▁चिकित्स	-3487
▁कर्मियों	-3488
वली	-3489
घाटन	-3490
▁गुजर	-3491
चंद	-3492
्वी	-3493
▁निशाना	-3494
▁वोटिंग	-3495
▁चंडीगढ़	-3496
▁योजनाओं	-3497
िमी	-3498
▁बाग	-3499
▁अर्ज	-3500
▁अह	-3501
िग्ध	-3502
▁जोन	-3503
▁रद्द	-3504
▁भुगतान	-3505
▁ओम	-3506
▁इंच	-3507
▁माध	-3508
▁खाना	-3509
▁हिंसा	-3510
▁l	-3511
▁दस	-3512
▁जोध	-3513
▁माइ	-3514
▁साउथ	-3515
▁नियुक्त	-3516
▁संदिग्ध	-3517
ार्व	-3518
▁वाय	-3519
▁शेख	-3520
तक	-3521
भाष	-3522
▁कैब	-3523
▁डिप	-3524
▁पॉल	-3525
▁भीतर	-3526
▁प्यार	-3527
▁पुरानी	-3528
सीसी	-3529
▁दान	-3530
▁इजरा	-3531
▁निर्म	-3532
▁बल्ले	-3533
▁यूनिट	-3534
▁राजस्व	-3535
▁समाप्त	-3536
तु	-3537
▁W	-3538
▁बादल	-3539
▁सकेंगे	-3540
▁इंटरनेशनल	-3541
सीय	-3542
▁हड़	-3543
चुनाव	-3544
▁खाने	-3545
▁ठेके	-3546
▁फुटेज	-3547
ंती	-3548
▁खड़ी	-3549
▁मॉडल	-3550
▁स्थापना	-3551
▁दुर्घटना	-3552
णि	-3553
यं	-3554
▁CM	-3555
डियम	-3556
▁भीषण	-3557
▁लाइट	-3558
▁जबर	-3559
▁रुक	-3560
▁प्रेस	-3561
▁स्टार	-3562
▁जोधपुर	-3563
▁सम्मेलन	-3564
तो	-3565
काम	-3566
टका	-3567
▁चेता	-3568
▁विभा	-3569
▁चलाया	-3570
▁प्रभा	-3571
▁एसडीएम	-3572
▁विशेषज्ञ	-3573
▁कप्तान	-3574
पु	-3575
।"	-3576
▁चर	-3577
▁भरो	-3578
▁शिकार	-3579
▁ऑस्ट्रेलिया	-3580
लब	-3581
:30	-3582
▁कू	-3583
▁रूस	-3584
▁अच्छे	-3585
ोजक	-3586
▁चाक	-3587
▁राठ	-3588
▁अतिक	-3589
▁लेना	-3590
▁वृद्धि	-3591
पिता	-3592
स्टल	-3593
▁ईरान	-3594
▁महास	-3595
▁यात्री	-3596
▁सर्विस	-3597
▁अंतरराष्ट्रीय	-3598
▁दह	-3599
▁नज	-3600
▁उपाय	-3601
▁सेंट	-3602
▁कार्यकाल	-3603
पद	-3604
केशन	-3605
▁पाली	-3606
▁कानपुर	-3607
▁गांवों	-3608
▁रहीं	-3609
▁वारा	-3610
▁हटाने	-3611
▁खी	-3612
▁रेट	-3613
▁नर्स	-3614
▁वकील	-3615
▁वाराणसी	-3616
▁गठन	-3617
▁होनी	-3618
▁स्वीकार	-3619
्यास	-3620
▁उज्ज	-3621
▁ज्ञान	-3622
▁टैक्स	-3623
▁अध्यक्षता	-3624
नाड	-3625
▁साज	-3626
धिकार	-3627
▁डेढ़	-3628
ol	-3629
▁कथ	-3630
▁पशु	-3631
▁आक्र	-3632
▁बजकर	-3633
▁उद्घाटन	-3634
पल	-3635
▁36	-3636
▁बम	-3637
द्रा	-3638
ानगर	-3639
▁500	-3640
स्टेबल	-3641
▁श्याम	-3642
▁इंस्पे	-3643
▁स्टेडियम	-3644
▁स्वतंत्र	-3645
सेज	-3646
▁खुशी	-3647
▁डाला	-3648
▁फैंस	-3649
▁विकसित	-3650
ोग्राम	-3651
▁कैमरे	-3652
▁शहरों	-3653
-3	-3654
साइड	-3655
▁अके	-3656
▁पवन	-3657
▁संगी	-3658
▁लड़ाई	-3659
▁दोबारा	-3660
▁बढ़ावा	-3661
▁अतिक्रमण	-3662
▁राजेंद्र	-3663
▁आंख	-3664
▁बहु	-3665
▁टाइम	-3666
▁सत्य	-3667
▁चाहती	-3668
▁बीमार	-3669
▁सोरेन	-3670
▁मीटिंग	-3671
▁श्रद्धालुओं	-3672
ंपिक	-3673
▁एरिया	-3674
▁पोर्ट	-3675
▁सार्व	-3676
▁शानदार	-3677
han	-3678
ढ़े	-3679
▁सोना	-3680
▁चार्ज	-3681
▁स्वामी	-3682
घर	-3683
▁ऊंच	-3684
▁आशंका	-3685
▁जू	-3686
▁लू	-3687
जनिक	-3688
▁News	-3689
▁आखिर	-3690
▁पदों	-3691
▁सख्त	-3692
▁महोत्सव	-3693
▁पुरस्कार	-3694
ंदन	-3695
िपल	-3696
▁इक	-3697
▁जस	-3698
त्मा	-3699
ष्टा	-3700
▁अरब	-3701
▁नाय	-3702
▁2014	-3703
▁सिन्	-3704
▁सूरज	-3705
न्द	-3706
ोलॉ	-3707
्मण	-3708
▁हित	-3709
▁पंडित	-3710
▁रांची	-3711
▁जिन्हें	-3712
▁लक्ष्मी	-3713
▁आंध	-3714
▁कोह	-3715
▁गरीब	-3716
▁जगहों	-3717
▁विष्ण	-3718
▁नियुक्ति	-3719
▁नती	-3720
▁वार्	-3721
▁दिनेश	-3722
▁सुरेश	-3723
▁कठ	-3724
▁बध	-3725
जूदा	-3726
▁डिज	-3727
▁नेट	-3728
▁हरि	-3729
▁इंस्पेक्टर	-3730
▁गुल	-3731
▁तार	-3732
▁स्वच्छ	-3733
ंगर	-3734
▁प्रोफे	-3735
▁सौर	-3736
▁दर्द	-3737
▁तस्कर	-3738
▁मौजूदा	-3739
▁विज्ञान	-3740
▁गे	-3741
▁जिंद	-3742
▁एक्शन	-3743
▁नियमों	-3744
▁नारे	-3745
▁समस्याओं	-3746
24	-3747
िड़	-3748
▁48	-3749
कारा	-3750
▁मस्	-3751
▁लड़के	-3752
▁लाखों	-3753
▁कारोबार	-3754
▁कैबिनेट	-3755
हारी	-3756
▁जानिए	-3757
▁मिलती	-3758
▁सार्वजनिक	-3759
पण	-3760
जोर	-3761
डेट	-3762
▁खर	-3763
▁नहर	-3764
▁कोटा	-3765
▁दरवा	-3766
▁अपराधियों	-3767
▁गौतम	-3768
धियाना	-3769
▁चलाने	-3770
▁अफसरों	-3771
▁प्रारंभ	-3772
चिव	-3773
▁यश	-3774
▁सका	-3775
▁सुल	-3776
▁सिन्हा	-3777
गो	-3778
ानु	-3779
▁गह	-3780
▁अखिलेश	-3781
▁संस्कार	-3782
साइट	-3783
ब्लिक	-3784
▁वेतन	-3785
▁उत्सा	-3786
▁स्ट्र	-3787
▁पहुंचाया	-3788
▁34	-3789
▁पंक	-3790
▁आपका	-3791
▁प्रवक्ता	-3792
ेद	-3793
बीन	-3794
▁आइ	-3795
▁जुट	-3796
▁आबादी	-3797
▁चारों	-3798
▁संजीव	-3799
स्कृतिक	-3800
ौड़	-3801
▁90	-3802
नाटक	-3803
▁कुश	-3804
राबाद	-3805
▁चपेट	-3806
यत	-3807
▁मिशन	-3808
▁बातें	-3809
▁मच	-3810
▁लिम	-3811
▁टिप्	-3812
▁दलों	-3813
▁दिव्या	-3814
▁चेतावनी	-3815
▁प्रोफेसर	-3816
नन	-3817
▁असम	-3818
गरानी	-3819
▁अनुभव	-3820
▁हल्की	-3821
▁मध	-3822
▁धरना	-3823
कू	-3824
▁शास	-3825
्रेशन	-3826
▁चोरों	-3827
▁विदेशी	-3828
▁महेंद्र	-3829
▁डूब	-3830
▁नवीन	-3831
▁मंजू	-3832
▁विनोद	-3833
▁लुधियाना	-3834
▁अंडर	-3835
▁क्लास	-3836
▁निकाली	-3837
ांज	-3838
▁माय	-3839
▁छोटी	-3840
▁पेंशन	-3841
▁एंट्री	-3842
▁निगरानी	-3843
▁सांस्कृतिक	-3844
फान	-3845
▁हाइ	-3846
▁इसरा	-3847
▁ऊर्जा	-3848
▁उपचुनाव	-3849
▁कर्नाटक	-3850
▁पश्चिमी	-3851
▁ट्रांसफर	-3852
गन	-3853
टरी	-3854
लान	-3855
▁शौ	-3856
▁दाम	-3857
▁मनो	-3858
▁चांदी	-3859
▁ट्रंप	-3860
▁दिवसीय	-3861
धिकारियों	-3862
it	-3863
▁विज	-3864
ुल्ला	-3865
▁रानी	-3866
काने	-3867
▁परम	-3868
▁2020	-3869
▁अनुप	-3870
▁अरुण	-3871
▁खुले	-3872
▁पंकज	-3873
▁समझौ	-3874
▁सुंदर	-3875
▁योगदान	-3876
▁आदिवासी	-3877
▁काउंस	-3878
▁घटनास्थल	-3879
▁गतिविधियों	-3880
म्बर	-3881
▁ब्रि	-3882
▁रास्ता	-3883
दर्शन	-3884
र्में	-3885
ुलेंस	-3886
▁चाकू	-3887
▁जस्ट	-3888
▁निरा	-3889
▁सीता	-3890
तौर	-3891
िंदर	-3892
▁कपड़े	-3893
लीय	-3894
▁एच	-3895
▁कच	-3896
▁धार	-3897
▁बधाई	-3898
▁विष्णु	-3899
ट्टा	-3900
▁कंग	-3901
▁गायब	-3902
▁साहिब	-3903
धीश	-3904
सेस	-3905
▁पथ	-3906
कृति	-3907
▁इंग	-3908
▁सुभाष	-3909
तरीय	-3910
स्कृति	-3911
▁प्रयोग	-3912
भो	-3913
ंटर	-3914
क्न	-3915
▁झां	-3916
▁मेर	-3917
▁ट्रॉ	-3918
▁धोखा	-3919
▁भव्य	-3920
▁भाषा	-3921
फ्रेंस	-3922
स्थिति	-3923
▁भक्तों	-3924
▁सारे	-3925
▁फॉर्म	-3926
▁बिक्री	-3927
्रह	-3928
▁नजदी	-3929
बद्ध	-3930
▁बैग	-3931
▁मेहन	-3932
▁इन्हें	-3933
▁मस्ज	-3934
▁समान	-3935
▁प्राण	-3936
▁हंगामा	-3937
▁प्रतिनिध	-3938
िमा	-3939
सवाल	-3940
वाड़ी	-3941
▁देती	-3942
▁बचाव	-3943
▁निकला	-3944
▁सैनिक	-3945
▁मानसिक	-3946
▁कंट्रोल	-3947
▁राजकुमार	-3948
ोम	-3949
रोज	-3950
्हा	-3951
▁गैस	-3952
▁जीतने	-3953
▁पांडे	-3954
▁क्राइम	-3955
▁संकल्प	-3956
▁फैक्ट्री	-3957
▁धाम	-3958
▁रोल	-3959
▁आकर्	-3960
▁स्तरीय	-3961
▁75	-3962
▁PM	-3963
▁घे	-3964
▁अना	-3965
▁बेस	-3966
▁उत्सव	-3967
▁निशान	-3968
▁ससुराल	-3969
पट	-3970
▁बाय	-3971
▁भूप	-3972
▁गोरख	-3973
▁पंजी	-3974
▁बोला	-3975
▁लगाते	-3976
▁श्रीवा	-3977
▁सुसाइड	-3978
एसआई	-3979
्तीय	-3980
▁गुण	-3981
▁मुर	-3982
▁एनडीए	-3983
-4	-3984
▁लल	-3985
दो	-3986
पता	-3987
स्सा	-3988
विंदर	-3989
▁ब्रे	-3990
स्त्री	-3991
▁प्रोड	-3992
▁साढ़े	-3993
▁स्वयं	-3994
▁परिवहन	-3995
as	-3996
चक	-3997
▁तृ	-3998
ंपरा	-3999
▁बेट	-4000
िनियम	-4001
▁फ्री	-4002
▁छठ	-4003
▁आना	-4004
हत्या	-4005
▁चौराह	-4006
▁वर्षा	-4007
▁व्यापारी	-4008
▁श्रीवास्तव	-4009
▁एडम	-4010
▁सब्	-4011
▁बैठा	-4012
▁सुनाई	-4013
▁विभागों	-4014
▁सूत्रों	-4015
▁संस्कृति	-4016
▁झग	-4017
ृत्य	-4018
▁घोट	-4019
▁आएंगे	-4020
पे	-4021
ोसी	-4022
जाइन	-4023
▁बोली	-4024
▁लड़क	-4025
▁वित्तीय	-4026
▁पर्यावरण	-4027
लाश	-4028
▁वर	-4029
▁खार	-4030
▁अग्न	-4031
▁गोल्ड	-4032
▁श्रीराम	-4033
दु	-4034
यी	-4035
ॉम	-4036
न्व	-4037
▁टो	-4038
....	-4039
▁मंज	-4040
▁होम	-4041
कृष्ण	-4042
▁कहती	-4043
▁कश्मीर	-4044
▁शख	-4045
कर्ता	-4046
▁आर्ट	-4047
▁काबू	-4048
▁कौशल	-4049
▁उज्जैन	-4050
ad	-4051
▁गैर	-4052
▁इनकी	-4053
▁विधाय	-4054
▁हजारों	-4055
िटेड	-4056
▁एडी	-4057
▁इंडियन	-4058
▁परंपरा	-4059
कर्मियों	-4060
ंवर	-4061
श्त	-4062
▁अनुर	-4063
▁कमाई	-4064
▁पकड़े	-4065
▁आचार्य	-4066
▁अधिनियम	-4067
गेट	-4068
▁(3	-4069
▁काे	-4070
▁सीधे	-4071
▁उनमें	-4072
▁भारती	-4073
▁वेबसाइट	-4074
un	-4075
रेज	-4076
क्सी	-4077
▁अल्	-4078
▁ईडी	-4079
▁लागत	-4080
▁कब्जा	-4081
▁कमजोर	-4082
▁मेहनत	-4083
▁वापसी	-4084
▁198	-4085
▁कानूनी	-4086
▁भ्रष्टा	-4087
▁प्रियंका	-4088
वो	-4089
संग	-4090
▁चेयरमैन	-4091
▁दस्तावेज	-4092
राहा	-4093
▁पारा	-4094
▁प्रमो	-4095
▁मुक्त	-4096
▁दिखाया	-4097
ूर्त	-4098
▁खेला	-4099
▁बरसा	-4100
▁सिंध	-4101
▁हवाई	-4102
▁अक्सर	-4103
▁मुकाबला	-4104
दिक	-4105
▁इतने	-4106
▁दौड़	-4107
▁डीएसपी	-4108
▁भरत	-4109
▁चैंप	-4110
▁हाथों	-4111
▁हिंदी	-4112
ड्डी	-4113
▁जाट	-4114
▁शोर	-4115
▁सैक	-4116
▁जुटी	-4117
▁शहीद	-4118
▁कोहली	-4119
▁आश्वास	-4120
▁पांडेय	-4121
▁पासवान	-4122
▁व्यापार	-4123
▁आवश्यकता	-4124
आईटी	-4125
क्षी	-4126
▁मिट्	-4127
▁जुर्म	-4128
▁हिसाब	-4129
▁संरक्षण	-4130
▁दिग्	-4131
▁केन्द्र	-4132
▁राज्यपाल	-4133
सूस	-4134
▁अपर	-4135
▁उचित	-4136
▁शूटिंग	-4137
▁प्रिंसिपल	-4138
▁घरे	-4139
▁खाद्य	-4140
▁बॉक्स	-4141
▁डिजाइन	-4142
▁मतदाता	-4143
▁श्रेणी	-4144
र्त	-4145
▁मचा	-4146
▁जीता	-4147
▁इंग्ल	-4148
श्री	-4149
तायात	-4150
▁किशन	-4151
▁रणनी	-4152
▁वर्क	-4153
▁मुद्दों	-4154
."	-4155
ूत	-4156
इंट	-4157
▁ऑड	-4158
▁फल	-4159
▁खून	-4160
▁गर्म	-4161
▁दोषी	-4162
▁आश्वासन	-4163
▁प्रतिबंध	-4164
वै	-4165
मेल	-4166
्लो	-4167
▁जैसा	-4168
▁मानव	-4169
▁तुलना	-4170
▁पदार्थ	-4171
गाह	-4172
बाग	-4173
▁रोग	-4174
▁लें	-4175
▁निष्	-4176
▁भोजन	-4177
▁घरेलू	-4178
▁स्कोर	-4179
▁प्लांट	-4180
▁फ्लाइट	-4181
▁भंड	-4182
▁मुआ	-4183
▁मुज	-4184
पूर्व	-4185
रेस्ट	-4186
▁अर्जुन	-4187
फिया	-4188
▁दूध	-4189
▁बुल	-4190
▁शब्	-4191
▁ग्रा	-4192
▁विधि	-4193
▁सिने	-4194
▁दुर्ग	-4195
▁निकली	-4196
▁प्रती	-4197
▁यातायात	-4198
मैं	-4199
▁लाश	-4200
▁बनकर	-4201
▁बुरी	-4202
▁मस्जिद	-4203
▁साथियों	-4204
इज	-4205
नाक	-4206
▁चीज	-4207
▁नित	-4208
▁अवधि	-4209
▁कराए	-4210
▁गिरने	-4211
▁मतगणना	-4212
▁सीबीआई	-4213
▁महासचिव	-4214
ग्न	-4215
▁ओड	-4216
▁कैद	-4217
▁दुबे	-4218
▁लंबी	-4219
▁इनकार	-4220
▁कैलाश	-4221
▁ट्रैक	-4222
▁पूर्वी	-4223
▁संयोजक	-4224
ेन	-4225
र्ग	-4226
▁सेल	-4227
▁मुद्दा	-4228
शोध	-4229
ियत	-4230
ट्यू	-4231
▁ममता	-4232
▁समझा	-4233
▁सिया	-4234
▁निकलने	-4235
▁पक्षों	-4236
▁ट्रेनिंग	-4237
▁हफ्	-4238
▁आगरा	-4239
▁एमपी	-4240
▁लिमिटेड	-4241
▁आत्महत्या	-4242
▁पुण	-4243
▁जाएं	-4244
▁दावे	-4245
▁महेश	-4246
▁अपडेट	-4247
▁राउंड	-4248
▁मोर्चा	-4249
el	-4250
ल्थ	-4251
▁एका	-4252
▁संभव	-4253
जब	-4254
ौज	-4255
▁वसू	-4256
▁शख्स	-4257
▁दीवार	-4258
▁पत्थर	-4259
▁शुक्ला	-4260
▁इस्तीफा	-4261
▁विधायकों	-4262
दीय	-4263
हिता	-4264
▁पायल	-4265
ज्ञानिक	-4266
▁राज्यसभा	-4267
▁प्रतिनिधि	-4268
▁जिलाध्यक्ष	-4269
पत्र	-4270
▁नशा	-4271
▁स्‍	-4272
▁जनरल	-4273
▁टाटा	-4274
▁बढ़ती	-4275
▁सामग्री	-4276
▁सन	-4277
▁अमन	-4278
▁स्न	-4279
▁अहमद	-4280
▁आशीष	-4281
▁कथित	-4282
▁बढ़कर	-4283
▁महसूस	-4284
▁उत्साह	-4285
▁प्रदर्श	-4286
hi	-4287
दक	-4288
har	-4289
▁खोज	-4290
▁बजा	-4291
▁लेख	-4292
▁ऐलान	-4293
▁पाने	-4294
▁प्रण	-4295
▁मेले	-4296
▁विरा	-4297
ड़ियां	-4298
▁विवेक	-4299
▁निरीक्षक	-4300
▁भ्रष्टाचार	-4301
▁घट	-4302
▁चीफ	-4303
▁पाइ	-4304
▁चक्र	-4305
▁साझा	-4306
▁वेस्ट	-4307
ांश	-4308
▁छूट	-4309
स्थाप	-4310
▁दिक्	-4311
▁दुष्	-4312
▁मेडल	-4313
▁हर्ष	-4314
▁खारिज	-4315
▁नियमित	-4316
▁हेमंत	-4317
▁कुलदीप	-4318
रीय	-4319
▁छत	-4320
वाड़	-4321
िलंब	-4322
▁मेला	-4323
▁जस्टिस	-4324
▁प्रशासनिक	-4325
▁जख	-4326
एससी	-4327
▁तिल	-4328
▁गोयल	-4329
▁महतो	-4330
▁बेचने	-4331
▁प्रकरण	-4332
▁नियंत्रण	-4333
चर्स	-4334
ित्त	-4335
▁पड़ेगा	-4336
▁दुकानों	-4337
घु	-4338
लैंड	-4339
▁इंस्ट	-4340
▁कैंसर	-4341
▁शिफ्ट	-4342
रेन्द्र	-4343
पूत	-4344
डेंट	-4345
फ्फर	-4346
▁आर्	-4347
▁रुख	-4348
▁हरी	-4349
▁अश्व	-4350
▁आकाश	-4351
▁खेती	-4352
▁दौरे	-4353
▁होली	-4354
▁लापता	-4355
वाय	-4356
▁डू	-4357
▁पलट	-4358
▁आयुष	-4359
▁महाप	-4360
्योहार	-4361
▁चै	-4362
रेली	-4363
▁जाया	-4364
▁कर्मी	-4365
▁हड़ताल	-4366
▁तेजस्वी	-4367
▁न्यायाधीश	-4368
25	-4369
जात	-4370
▁आह	-4371
▁डो	-4372
्योर	-4373
▁ज्यादातर	-4374
ंतर	-4375
रीन	-4376
▁400	-4377
ोलॉजी	-4378
▁मारे	-4379
नामेंट	-4380
▁छात्राओं	-4381
नीत	-4382
पणी	-4383
श्म	-4384
स्म	-4385
ोतरी	-4386
▁मैचों	-4387
▁ऑल	-4388
▁आरा	-4389
▁नील	-4390
▁2018	-4391
▁टूर्	-4392
▁मतलब	-4393
▁दिक्कत	-4394
▁बीमारी	-4395
▁प्रार्थ	-4396
▁बिल्डिंग	-4397
पो	-4398
ंडे	-4399
क्चर	-4400
▁धूप	-4401
यात्रा	-4402
▁अभिने	-4403
▁हफ्ते	-4404
▁नागरिकों	-4405
गज	-4406
पात	-4407
्मत	-4408
मोहन	-4409
▁भरोसा	-4410
▁संहिता	-4411
▁टूर्नामेंट	-4412
ाइड	-4413
▁रूट	-4414
▁छोटा	-4415
▁तमिल	-4416
▁मारकर	-4417
▁गोरखपुर	-4418
▁टिप्पणी	-4419
▁पार्किंग	-4420
▁मतदाताओं	-4421
▁आईपी	-4422
▁रखना	-4423
▁संकट	-4424
▁अपराधी	-4425
▁आक्रोश	-4426
▁प्रतिभा	-4427
5)	-4428
ृज	-4429
कांत	-4430
▁300	-4431
क्रेन	-4432
दायिक	-4433
ब्ल्यू	-4434
▁पदाधिकारियों	-4435
हल	-4436
दशी	-4437
▁एश	-4438
▁दर्श	-4439
▁बताए	-4440
▁लाइस	-4441
▁ओडिशा	-4442
▁समापन	-4443
▁किरदार	-4444
▁एक्सपर्ट	-4445
ce	-4446
▁आसान	-4447
▁गुना	-4448
▁बढ़े	-4449
▁जयंती	-4450
▁नक्सल	-4451
▁साजिश	-4452
▁सौंपा	-4453
▁डिजिटल	-4454
▁जिम्मेदार	-4455
्रो	-4456
▁जोशी	-4457
प्रकाश	-4458
▁जबलपुर	-4459
▁पोर्टल	-4460
▁सिनेमा	-4461
▁बढ़ोतरी	-4462
▁प्रावधान	-4463
यक	-4464
प्त	-4465
िणी	-4466
▁एप	-4467
▁फते	-4468
▁सकी	-4469
▁सेट	-4470
▁अधिव	-4471
▁केरल	-4472
▁अजमेर	-4473
िलासपुर	-4474
▁पब्लिक	-4475
▁मैनेजर	-4476
सं	-4477
▁पर्	-4478
▁मारा	-4479
▁मूवी	-4480
▁रखें	-4481
▁लड़ा	-4482
▁मैसेज	-4483
▁एग्जाम	-4484
▁चौराहे	-4485
गीर	-4486
नाल	-4487
▁ठग	-4488
वाले	-4489
▁उसको	-4490
▁चाहे	-4491
▁जुड़	-4492
▁पड़ोसी	-4493
▁प्रश्न	-4494
टाई	-4495
लील	-4496
▁55	-4497
▁ढा	-4498
▁जुल	-4499
▁यूज	-4500
▁कुर्	-4501
▁पुष्टि	-4502
▁मान्यता	-4503
▁मुजफ्फर	-4504
id	-4505
फोन	-4506
▁फैल	-4507
▁वोटर	-4508
▁जुड़ा	-4509
▁उत्तरा	-4510
▁तकनीकी	-4511
▁मांगों	-4512
▁शुरुआती	-4513
▁परिवारों	-4514
▁कार्यवाही	-4515
▁प्रस्तुति	-4516
-5	-4517
ंथ	-4518
धाम	-4519
यां	-4520
▁बड़	-4521
▁हैद	-4522
▁आर्य	-4523
▁इच्छ	-4524
▁जीते	-4525
▁विजे	-4526
▁लड़ने	-4527
▁संभाल	-4528
▁हिस्सों	-4529
▁थानाध्यक्ष	-4530
▁अक	-4531
▁चम	-4532
▁तनाव	-4533
▁दौरा	-4534
▁गुर्जर	-4535
▁दोस्तों	-4536
▁वैज्ञानिक	-4537
ख्	-4538
केत	-4539
▁झु	-4540
▁कना	-4541
▁फुट	-4542
▁फैला	-4543
▁जिसने	-4544
▁विहार	-4545
▁त्योहार	-4546
▁विद्युत	-4547
▁जागरूकता	-4548
ज़ा	-4549
▁बॉल	-4550
▁लीक	-4551
▁उपभो	-4552
▁बदले	-4553
▁सकें	-4554
▁रिजल्ट	-4555
ड्ढ	-4556
ूंगा	-4557
▁लोह	-4558
वस्था	-4559
▁कहने	-4560
▁फेंक	-4561
▁कंगना	-4562
▁निर्द	-4563
▁बच्चा	-4564
▁लेंगे	-4565
▁अंग्रे	-4566
▁कलेक्ट	-4567
▁आपूर्ति	-4568
▁अभ्यर्थियों	-4569
जान	-4570
फ्टी	-4571
ल्टी	-4572
▁कवि	-4573
▁नमः	-4574
▁कैंड	-4575
▁निधन	-4576
▁ब्रह	-4577
▁घटनाओं	-4578
▁तहसीलदार	-4579
▁38	-4580
▁42	-4581
▁अक्षय	-4582
▁हिसार	-4583
▁मास्टर	-4584
IR	-4585
ab	-4586
एचओ	-4587
जारी	-4588
▁चलता	-4589
▁नीरज	-4590
▁जताया	-4591
▁ड्रोन	-4592
▁बनाना	-4593
▁लिखित	-4594
▁शुल्क	-4595
▁जिंदगी	-4596
▁सेंट्र	-4597
▁शुभारंभ	-4598
▁संगठनों	-4599
▁कारोबारी	-4600
▁नाल	-4601
र्वाद	-4602
▁शांत	-4603
▁गोविंद	-4604
▁रिजर्व	-4605
▁प्रतिष्ठा	-4606
tion	-4607
▁अल्प	-4608
▁तहरी	-4609
▁ग्राह	-4610
▁विराट	-4611
▁अर्पित	-4612
▁कॉन्फ्रेंस	-4613
▁खेले	-4614
▁दलित	-4615
▁वैसे	-4616
▁चित्र	-4617
▁टीमों	-4618
▁फांसी	-4619
▁केंद्रों	-4620
BI	-4621
ंधर	-4622
▁In	-4623
▁शक	-4624
वरूप	-4625
िलीप	-4626
ैक्ट	-4627
▁पंप	-4628
▁भरी	-4629
▁मैन	-4630
ाइयों	-4631
▁दर्जन	-4632
▁मानना	-4633
▁आशीर्वाद	-4634
▁जुर्माना	-4635
40	-4636
डकर	-4637
याल	-4638
▁46	-4639
▁जज	-4640
▁गंग	-4641
▁टोल	-4642
▁बाघ	-4643
▁लीड	-4644
▁सफर	-4645
▁सैन	-4646
▁सारी	-4647
▁टेक्न	-4648
et	-4649
ंधे	-4650
शाली	-4651
▁कस्	-4652
▁जनपद	-4653
▁टीचर	-4654
▁जानें	-4655
▁उल्लेख	-4656
▁तत्कालीन	-4657
काई	-4658
देन	-4659
बूर	-4660
▁आवं	-4661
▁गले	-4662
▁जाह	-4663
स्तानी	-4664
▁बिलासपुर	-4665
मल	-4666
▁फर्	-4667
▁कितनी	-4668
▁जवानों	-4669
▁स्वतंत्रता	-4670
स्टी	-4671
▁गड़	-4672
▁नही	-4673
▁देखी	-4674
▁क्षति	-4675
▁दिलीप	-4676
▁आधारित	-4677
सारी	-4678
▁पहन	-4679
▁सिम	-4680
वितीय	-4681
▁सचिन	-4682
▁पर्यटन	-4683
▁फं	-4684
ंख्य	-4685
एसटी	-4686
्रेड	-4687
▁गुम	-4688
▁जंग	-4689
▁पीठ	-4690
▁बाई	-4691
▁मंग	-4692
▁राधा	-4693
▁हैदराबाद	-4694
is	-4695
ायी	-4696
िडेट	-4697
▁पीने	-4698
▁बाला	-4699
ग्रस्त	-4700
▁टीमें	-4701
▁ट्रस्ट	-4702
▁क्षेत्रीय	-4703
▁प्राचार्य	-4704
वाना	-4705
सराय	-4706
जेंसी	-4707
▁खतरा	-4708
▁देखें	-4709
▁जितेंद्र	-4710
गराज	-4711
वाहा	-4712
▁मेन	-4713
▁शाखा	-4714
▁कितना	-4715
▁पिछली	-4716
▁बिगड़	-4717
▁संशोध	-4718
▁शर	-4719
▁सांप	-4720
▁नृत्य	-4721
▁पुष्प	-4722
▁तस्करी	-4723
▁पालिका	-4724
▁पुराना	-4725
▁प्रेरित	-4726
▁विपक्षी	-4727
क्‍	-4728
▁आलम	-4729
▁उधर	-4730
▁गेम	-4731
▁सदन	-4732
▁सैल	-4733
▁लाइफ	-4734
▁विद्या	-4735
ंटों	-4736
▁150	-4737
▁चिन	-4738
▁बृज	-4739
▁रोका	-4740
▁बच्चन	-4741
▁बदलने	-4742
▁बेंगल	-4743
▁उत्पादन	-4744
▁लाइसेंस	-4745
कट	-4746
▁तल	-4747
वेंट	-4748
्याज	-4749
▁इंजन	-4750
▁इस्ल	-4751
▁गीता	-4752
▁लीटर	-4753
▁साहब	-4754
▁दिलाने	-4755
▁बालिका	-4756
▁कैंडिडेट	-4757
दीश	-4758
द्दीन	-4759
▁पाइप	-4760
▁अपहरण	-4761
▁खरीदी	-4762
▁मांगे	-4763
▁कोचिंग	-4764
▁मंजूरी	-4765
▁चैंपियन	-4766
▁जायसवाल	-4767
▁पत्रकार	-4768
▁यूक्रेन	-4769
99	-4770
रस	-4771
वक	-4772
गति	-4773
डीह	-4774
▁अब्	-4775
▁वादा	-4776
▁प्रदू	-4777
▁मूर्ति	-4778
▁ओपन	-4779
▁छीन	-4780
▁पेर	-4781
संख्य	-4782
▁पैदल	-4783
▁बढ़ी	-4784
▁सोनू	-4785
▁अफ्री	-4786
▁ग्रहण	-4787
▁चौराहा	-4788
▁बिजनेस	-4789
▁सैकड़ों	-4790
▁परिवर्तन	-4791
ro	-4792
जो	-4793
लोड	-4794
▁सश	-4795
▁रहना	-4796
▁चेहरे	-4797
▁इसराइल	-4798
▁श्रद्धालु	-4799
▁पौधे	-4800
▁मुंह	-4801
▁कनाडा	-4802
▁खेलने	-4803
▁तहरीर	-4804
▁197	-4805
▁टकरा	-4806
▁संबंधी	-4807
▁सेंट्रल	-4808
▁प्लेटफॉर्म	-4809
▁जहा	-4810
▁पुत	-4811
▁नवरा	-4812
▁हिमा	-4813
▁किराए	-4814
▁जिक्र	-4815
▁मांगा	-4816
▁संपन्न	-4817
▁गाड़ियों	-4818
th	-4819
र्द	-4820
▁IP	-4821
▁ध्व	-4822
▁गाली	-4823
▁ताकत	-4824
▁सहमति	-4825
▁विक्रम	-4826
▁ट्रेनों	-4827
▁सदस्यता	-4828
▁पदक	-4829
▁सना	-4830
सलमान	-4831
▁डांस	-4832
▁देरी	-4833
▁माने	-4834
▁श्रील	-4835
▁मंदिरों	-4836
▁देवेंद्र	-4837
▁गर	-4838
वरों	-4839
▁सिलस	-4840
▁मजबूर	-4841
▁खरीदने	-4842
टीएम	-4843
ट्रो	-4844
▁महज	-4845
▁दायर	-4846
▁मिमी	-4847
▁मुआव	-4848
▁जल्दी	-4849
▁जिनके	-4850
कै	-4851
▁ऐप	-4852
बड़ी	-4853
धिकरण	-4854
▁भरने	-4855
▁मारी	-4856
▁रहें	-4857
▁बेस्ट	-4858
▁भेजने	-4859
▁दुष्कर्म	-4860
▁ठा	-4861
▁गुट	-4862
▁तमाम	-4863
▁गिरोह	-4864
▁जगदीश	-4865
▁अंसारी	-4866
▁निकालने	-4867
▁रजिस्ट्रेशन	-4868
दुर	-4869
▁41	-4870
काया	-4871
▁FIR	-4872
▁डेट	-4873
वर्धन	-4874
▁गिरी	-4875
▁पवार	-4876
▁भागने	-4877
▁महाकाल	-4878
▁शासकीय	-4879
▁नाराजगी	-4880
▁44	-4881
▁वाइ	-4882
▁मेरठ	-4883
▁राजू	-4884
▁शोभा	-4885
▁फाउंड	-4886
▁पड़ताल	-4887
▁महाविद्यालय	-4888
वार्	-4889
▁लीग	-4890
▁किरण	-4891
▁मोड़	-4892
▁सतीश	-4893
छात्रा	-4894
▁फोर्स	-4895
▁जालंधर	-4896
▁राजपूत	-4897
ing	-4898
न्स	-4899
रात	-4900
रिए	-4901
▁इश	-4902
▁सॉ	-4903
ार्ग	-4904
्तिक	-4905
▁कोर	-4906
▁दाय	-4907
▁फरी	-4908
▁छेड़	-4909
▁नरेश	-4910
▁नजदीक	-4911
▁सुनकर	-4912
▁हेल्थ	-4913
▁मिट्टी	-4914
▁विकल्प	-4915
▁ठेकेदार	-4916
घाट	-4917
▁बहस	-4918
▁नेहर	-4919
▁लाठी	-4920
▁लालू	-4921
▁मुहूर्त	-4922
▁भरे	-4923
▁भोग	-4924
▁बजाय	-4925
▁हुईं	-4926
▁कार्तिक	-4927
lec	-4928
भूम	-4929
्ति	-4930
▁51	-4931
▁त्रिपा	-4932
▁महादेव	-4933
▁रोजाना	-4934
कारात्मक	-4935
िसी	-4936
▁आइए	-4937
राधिक	-4938
▁उठाए	-4939
▁इंद्र	-4940
▁प्रजा	-4941
▁महीनों	-4942
▁राजकीय	-4943
▁त्रिपाठी	-4944
जनक	-4945
ंदाज	-4946
शंकर	-4947
्यूल	-4948
▁नाथ	-4949
▁पिक	-4950
▁सेन	-4951
▁फाइल	-4952
▁रोहत	-4953
▁सीकर	-4954
▁सौरभ	-4955
▁निर्मा	-4956
झी	-4957
▁{	-4958
ट्स	-4959
▁ग़	-4960
▁तु	-4961
र्टी	-4962
▁अने	-4963
▁औसत	-4964
▁धूम	-4965
▁बोर	-4966
रुद्ध	-4967
ष्टमी	-4968
▁प्रभु	-4969
▁वसूली	-4970
▁संगीत	-4971
▁प्रगति	-4972
▁मात्रा	-4973
▁विरोधी	-4974
ंघन	-4975
आरपी	-4976
त्सा	-4977
माने	-4978
▁करण	-4979
▁गली	-4980
▁मैनेज	-4981
▁होंगी	-4982
▁पकड़ने	-4983
▁प्रतिक्र	-4984
षित	-4985
्‍य	-4986
भूषण	-4987
सीना	-4988
▁पर्स	-4989
▁एएसआई	-4990
▁कैमरा	-4991
▁आरोपों	-4992
▁रात्रि	-4993
▁रिमांड	-4994
▁आपराधिक	-4995
▁ग्राउंड	-4996
▁पहुंचाने	-4997
▁श्रीलंका	-4998
▁प्रतिक्रिया	-4999
▁नै	-5000
तिया	-5001
▁आईटी	-5002
▁सराह	-5003
▁आदर्श	-5004
▁तीसरा	-5005
▁इमरजेंसी	-5006
▁इलेक्ट्रिक	-5007
ुनिक	-5008
▁गहरा	-5009
▁जबरद	-5010
▁पाठक	-5011
▁बचने	-5012
▁ग्रीन	-5013
▁सकेगा	-5014
▁प्राधिकरण	-5015
▁65	-5016
▁चैन	-5017
सिद्ध	-5018
▁नायब	-5019
▁टाइगर	-5020
▁थोड़ी	-5021
▁कनेक्शन	-5022
एडा	-5023
▁रस	-5024
लंघन	-5025
▁एंब	-5026
▁लोन	-5027
▁हेत	-5028
▁रेंज	-5029
▁सिंघ	-5030
▁सुझा	-5031
▁हिन्	-5032
▁आश्रम	-5033
▁ब्लैक	-5034
डब्ल्यू	-5035
▁प्रोत्सा	-5036
▁अस्थ	-5037
▁काली	-5038
▁तेंद	-5039
▁राजद	-5040
▁आंध्र	-5041
▁कितने	-5042
▁बढ़ते	-5043
▁बस्ती	-5044
▁रोहतक	-5045
▁संभाग	-5046
▁बिल्कुल	-5047
▁रथ	-5048
▁आशा	-5049
▁2017	-5050
▁दीपा	-5051
▁महंत	-5052
▁मीना	-5053
▁रखकर	-5054
▁नेहरू	-5055
▁बिश्न	-5056
▁हिमाचल	-5057
▁इंग्लैंड	-5058
▁आदित्यनाथ	-5059
▁प्रयागराज	-5060
कोट	-5061
▁हट	-5062
▁डेटा	-5063
▁तलाशी	-5064
▁वोटों	-5065
▁करोड़ों	-5066
▁व्यवसाय	-5067
ोली	-5068
▁भाषण	-5069
▁मप्र	-5070
▁टेंडर	-5071
▁भक्ति	-5072
ंश	-5073
्की	-5074
▁39	-5075
नाडु	-5076
रानी	-5077
▁फंड	-5078
▁बाड़	-5079
▁संसा	-5080
▁निलंब	-5081
▁संसदीय	-5082
▁बिश्नोई	-5083
▁स्वच्छता	-5084
परा	-5085
ोजन	-5086
धड़ी	-5087
▁खनन	-5088
▁बैटरी	-5089
▁शीर्ष	-5090
▁रिसर्च	-5091
ार्टमेंट	-5092
il	-5093
सूर	-5094
सीबी	-5095
▁खाद	-5096
▁झूठ	-5097
▁सिख	-5098
▁टीवी	-5099
▁अनुरा	-5100
▁एशिया	-5101
▁इंस्टा	-5102
▁विरुद्ध	-5103
▁महामंत्री	-5104
िको	-5105
▁इवेंट	-5106
▁किताब	-5107
▁कारणों	-5108
▁मेट्रो	-5109
ढ़ा	-5110
मती	-5111
▁उदा	-5112
▁बाब	-5113
▁रक्त	-5114
▁हेतु	-5115
▁मृतका	-5116
▁संवाद	-5117
▁बॉर्डर	-5118
▁मृत्यु	-5119
विड	-5120
ोंक	-5121
▁47	-5122
प्रत	-5123
▁नंद	-5124
▁मधु	-5125
कानेर	-5126
▁गठित	-5127
▁रावत	-5128
▁समीप	-5129
साइकिल	-5130
▁देशभर	-5131
▁नेपाल	-5132
▁अरेस्ट	-5133
▁डिमांड	-5134
▁साइकिल	-5135
▁मुसलमान	-5136
धीन	-5137
कांड	-5138
▁केश	-5139
▁फोर	-5140
▁बिर	-5141
▁बीएस	-5142
▁हार्	-5143
ंत्रित	-5144
▁जख्मी	-5145
▁पढ़ने	-5146
▁रिश्वत	-5147
▁दुकानदार	-5148
▁नरेन्द्र	-5149
▁सुरेंद्र	-5150
▁जाप	-5151
श्विक	-5152
ांजलि	-5153
▁अब्द	-5154
▁आएगी	-5155
▁एंटी	-5156
▁आपत्ति	-5157
▁एकादशी	-5158
▁बेंगलुरु	-5159
यम	-5160
जिए	-5161
िलाई	-5162
▁ऑफर	-5163
▁गीत	-5164
▁फंस	-5165
कश्मीर	-5166
▁तुलसी	-5167
तिहासिक	-5168
▁उल्लंघन	-5169
▁नर्सिंग	-5170
▁बल्लेबाज	-5171
▁अल्पसंख्य	-5172
एएस	-5173
▁कैश	-5174
▁पटवारी	-5175
10	-5176
ड्र	-5177
तान	-5178
▁मक	-5179
▁विप	-5180
▁विस	-5181
▁गुणव	-5182
▁धीरे	-5183
▁घंटों	-5184
▁जिंदा	-5185
▁तीर्थ	-5186
▁मिश्र	-5187
▁तस्वीरें	-5188
▁दिव्यांग	-5189
षक	-5190
▁1,	-5191
क्की	-5192
क्ष्य	-5193
वेस्ट	-5194
▁आजाद	-5195
▁चक्कर	-5196
▁बातों	-5197
▁मानते	-5198
▁छोड़ने	-5199
▁जूनियर	-5200
▁धोखाधड़ी	-5201
▁लोकतंत्र	-5202
▁प्रार्थना	-5203
▁आजम	-5204
▁गार	-5205
▁निप	-5206
▁भले	-5207
▁सत्	-5208
ुल्लाह	-5209
▁अकेले	-5210
▁नोएडा	-5211
▁सुझाव	-5212
▁तोड़कर	-5213
▁पोस्टर	-5214
व्यवस्था	-5215
▁द्वितीय	-5216
▁वैश्विक	-5217
60	-5218
वर्क	-5219
▁ओपी	-5220
▁हॉल	-5221
▁काला	-5222
▁डीजल	-5223
▁सच्च	-5224
▁पिटाई	-5225
▁पूर्णिमा	-5226
ak	-5227
धित	-5228
एमसी	-5229
ष्णा	-5230
▁डें	-5231
▁मुझ	-5232
▁सार	-5233
▁आपने	-5234
▁एकड़	-5235
▁शारी	-5236
▁सर्क	-5237
फिकेशन	-5238
▁प्रेमी	-5239
DA	-5240
av	-5241
ir	-5242
ैम	-5243
▁पप्	-5244
▁रकम	-5245
▁गिरि	-5246
▁नाले	-5247
▁फाइन	-5248
▁खन्ना	-5249
▁पायलट	-5250
▁फ्लैट	-5251
▁ब्रेक	-5252
▁स्नान	-5253
▁यूनियन	-5254
▁सहयोगी	-5255
▁कार्यरत	-5256
▁शारीरिक	-5257
▁तमिलनाडु	-5258
▁निर्दलीय	-5259
▁पुलिसकर्मी	-5260
गरी	-5261
▁भि	-5262
▁देगा	-5263
्योरिटी	-5264
▁पृ	-5265
्रीट	-5266
▁आधा	-5267
▁चाचा	-5268
▁पीजी	-5269
क्ताओं	-5270
▁छुट्टी	-5271
▁प्रदूषण	-5272
▁उपस्थिति	-5273
▁पर्याप्त	-5274
टू	-5275
ंगन	-5276
ज्वल	-5277
▁बुरा	-5278
▁सामु	-5279
▁उठाने	-5280
▁मूल्य	-5281
▁विद्यार्थी	-5282
▁खत	-5283
प्टर	-5284
▁लेन	-5285
▁कन्या	-5286
▁जिनकी	-5287
▁ऐतिहासिक	-5288
▁लड़कियों	-5289
वण	-5290
▁शह	-5291
टाला	-5292
▁दुख	-5293
▁मणि	-5294
▁मेघ	-5295
▁कांड	-5296
▁रोशन	-5297
▁शहरी	-5298
▁अमिता	-5299
धिकारिक	-5300
▁अमृतसर	-5301
▁मुखिया	-5302
▁गुणवत्ता	-5303
▁कार्यक्रमों	-5304
करे	-5305
सला	-5306
नाएं	-5307
▁शाय	-5308
▁साय	-5309
▁हुस	-5310
स्टिक	-5311
▁पीछा	-5312
▁अंकित	-5313
▁बैठकर	-5314
▁रेस्क	-5315
▁सैन्य	-5316
▁इंदिरा	-5317
▁अफ्रीका	-5318
▁कॉलेजों	-5319
▁बाड़मेर	-5320
▁बीकानेर	-5321
कीम	-5322
▁शोध	-5323
चंद्र	-5324
▁खींच	-5325
▁बालक	-5326
▁राणा	-5327
▁खेतों	-5328
▁जोरदार	-5329
▁न्यायिक	-5330
▁स्क्रीन	-5331
▁आधिकारिक	-5332
▁मोटरसाइकिल	-5333
▁व्यक्तियों	-5334
▁व्यापारियों	-5335
्यूज	-5336
▁आयु	-5337
▁अभिन	-5338
▁डिली	-5339
▁पात्र	-5340
▁भजनलाल	-5341
▁सपोर्ट	-5342
▁अस्पतालों	-5343
▁ॐ	-5344
दाई	-5345
वीय	-5346
▁मथ	-5347
ध्याय	-5348
▁नर्म	-5349
▁संकेत	-5350
▁बहादुर	-5351
▁प्रशांत	-5352
▁स्पोर्ट	-5353
▁अभ्यर्थी	-5354
बो	-5355
निक	-5356
फाइ	-5357
वीण	-5358
पाही	-5359
▁उड़ा	-5360
▁देगी	-5361
▁लेवल	-5362
▁आसानी	-5363
▁रेस्क्यू	-5364
बु	-5365
दूस	-5366
पड़	-5367
्ही	-5368
▁लव	-5369
▁अरो	-5370
▁गये	-5371
▁मिथ	-5372
▁जुटा	-5373
▁बांस	-5374
▁पॉइंट	-5375
▁मात्र	-5376
▁ज़्यादा	-5377
▁प्रतिदिन	-5378
▁प्रोग्राम	-5379
▁कॉन्स्टेबल	-5380
पक	-5381
ंजी	-5382
ूहिक	-5383
▁आलोक	-5384
▁मेयर	-5385
▁लगते	-5386
▁डेंगू	-5387
▁कलेक्शन	-5388
▁सुविधाओं	-5389
▁सामुदायिक	-5390
▁प्राथमिकता	-5391
कां	-5392
बॉल	-5393
▁43	-5394
▁फूड	-5395
▁वास	-5396
▁शरण	-5397
हाबाद	-5398
▁जनजा	-5399
▁कृष्णा	-5400
▁मांगने	-5401
▁मुक्ति	-5402
▁अभियंता	-5403
▁सामूहिक	-5404
▁इंस्टाग्राम	-5405
।'	-5406
and	-5407
पुरम	-5408
▁दशक	-5409
▁इनका	-5410
▁कोर्स	-5411
▁जुलूस	-5412
▁प्रतीक	-5413
▁सेकेंड	-5414
जग	-5415
वलप	-5416
एसएस	-5417
▁गढ़	-5418
▁सुप	-5419
ाप्ति	-5420
▁कच्च	-5421
▁गलती	-5422
▁माफी	-5423
▁गुस्सा	-5424
▁माध्यमिक	-5425
भि	-5426
▁उल	-5427
स्तक	-5428
▁ढूं	-5429
▁जाये	-5430
▁बसों	-5431
▁भेजे	-5432
▁राजन	-5433
▁सब्जी	-5434
▁ब्रह्म	-5435
▁सिपाही	-5436
▁मोहल्ले	-5437
हे	-5438
बरा	-5439
्शा	-5440
्वान	-5441
▁जनस	-5442
▁फेल	-5443
ारायण	-5444
▁मेहता	-5445
▁अंबानी	-5446
▁अवॉर्ड	-5447
▁नर्मदा	-5448
र्मेंद्र	-5449
▁संस्थानों	-5450
▁अवि	-5451
▁इकट्	-5452
▁द्वार	-5453
▁हराया	-5454
lection	-5455
▁महापौर	-5456
▁व्यवहार	-5457
▁प्रसिद्ध	-5458
▁सिक्योरिटी	-5459
मेट	-5460
जीपी	-5461
▁दुल	-5462
▁भती	-5463
▁कर्ज	-5464
▁चीनी	-5465
▁चौथे	-5466
▁पप्पू	-5467
▁बरसात	-5468
▁पिस्टल	-5469
▁प्रवीण	-5470
▁संध्या	-5471
▁सुविधाएं	-5472
▁कलेक्ट्रेट	-5473
▁UP	-5474
▁कं	-5475
▁क्वि	-5476
▁फंसा	-5477
▁बसपा	-5478
▁सर्ट	-5479
▁कमांड	-5480
▁व्यापक	-5481
▁स्पीकर	-5482
मंडल	-5483
▁आईं	-5484
▁तबी	-5485
▁अगली	-5486
▁अनेक	-5487
▁भागी	-5488
▁घोटाले	-5489
▁स्कूटी	-5490
▁अधिकांश	-5491
▁गंभीरता	-5492
▁मौजूदगी	-5493
▁उत्तराखंड	-5494
▁धर्मेंद्र	-5495
▁मार्गदर्शन	-5496
सद	-5497
छाड़	-5498
▁ओलि	-5499
▁फॉर	-5500
▁जेपी	-5501
▁सीईओ	-5502
▁स्टी	-5503
▁निकाय	-5504
▁अमिताभ	-5505
▁प्रमोद	-5506
▁बीबीसी	-5507
ac	-5508
षिक	-5509
▁अथ	-5510
स्‍ट	-5511
▁भील	-5512
▁रिल	-5513
▁नौकर	-5514
▁बिंद	-5515
▁लौटा	-5516
▁आग्रह	-5517
▁तबीयत	-5518
▁समन्व	-5519
▁हसीना	-5520
▁एक्टिव	-5521
▁दीपावली	-5522
▁परीक्षण	-5523
▁शास्त्री	-5524
ाग	-5525
लाइ	-5526
्‍या	-5527
▁आलो	-5528
▁बंट	-5529
दूसरे	-5530
▁अनंत	-5531
▁गर्ग	-5532
▁पवित	-5533
▁बीमा	-5534
▁आतंकी	-5535
द्योगिक	-5536
▁यूजर्स	-5537
▁विजेता	-5538
▁स्मृति	-5539
▁गेंदबाज	-5540
▁समर्पित	-5541
▁जिलाधिकारी	-5542
AP	-5543
▁बरा	-5544
▁आएगा	-5545
▁जानी	-5546
▁जीती	-5547
▁रावण	-5548
▁ऑफिसर	-5549
▁गोदाम	-5550
▁चलेगा	-5551
▁ब्रिज	-5552
▁सनातन	-5553
▁इंतजाम	-5554
▁भाइयों	-5555
▁मजदूरी	-5556
om	-5557
चि	-5558
जद	-5559
दरी	-5560
विटी	-5561
▁ढाई	-5562
▁काशी	-5563
▁बेहत	-5564
▁कामया	-5565
▁मनोहर	-5566
▁अनिवार	-5567
▁ट्रॉफी	-5568
▁संशोधन	-5569
▁बाजारों	-5570
▁संबंधों	-5571
▁एंबुलेंस	-5572
▁पुलिसकर्मियों	-5573
▁बघ	-5574
▁रतन	-5575
बेडकर	-5576
▁इकाई	-5577
▁चंदन	-5578
▁तलाक	-5579
▁दिखे	-5580
▁धन्य	-5581
▁रंजन	-5582
▁ललित	-5583
▁सेमी	-5584
▁कटौती	-5585
▁पड़ोस	-5586
▁एसएसपी	-5587
▁मिलाकर	-5588
▁वास्तव	-5589
▁स्वरूप	-5590
ामु	-5591
▁(4	-5592
▁बग	-5593
बाड़ी	-5594
▁यहीं	-5595
▁रहकर	-5596
▁सारा	-5597
▁हरकत	-5598
▁चीजों	-5599
▁जनसभा	-5600
प्रतिनि	-5601
नम	-5602
न्नी	-5603
▁आति	-5604
दियों	-5605
▁आंगन	-5606
▁मनाई	-5607
▁झगड़ा	-5608
▁डालने	-5609
▁धाराओं	-5610
▁रणनीति	-5611
▁तैयारियां	-5612
▁पाकिस्तानी	-5613
SP	-5614
re	-5615
धीर	-5616
▁बौ	-5617
क्षर	-5618
भारत	-5619
ांतर	-5620
▁अमी	-5621
▁नाइ	-5622
▁पौध	-5623
▁भूल	-5624
▁गाने	-5625
▁टर्म	-5626
▁बिहारी	-5627
▁स्वर्ण	-5628
▁काउंसिल	-5629
▁प्रतिपक्ष	-5630
पै	-5631
इंड	-5632
लाब	-5633
▁गज	-5634
▁गि	-5635
▁कुर	-5636
▁बजर	-5637
▁निशा	-5638
▁वायु	-5639
▁फार्म	-5640
डम	-5641
किट	-5642
भाल	-5643
साइ	-5644
▁चढ़ा	-5645
▁चालू	-5646
▁पुणे	-5647
▁लिंक	-5648
▁समक्ष	-5649
▁ब्रांच	-5650
▁प्रबंधक	-5651
▁फाउंडेशन	-5652
▁समर्थकों	-5653
▁क्षतिग्रस्त	-5654
सब	-5655
ार्क	-5656
▁चेन	-5657
▁सीख	-5658
▁आभार	-5659
▁बढ़त	-5660
▁छोड़ा	-5661
▁प्रॉप	-5662
▁हुसैन	-5663
▁तिरंगा	-5664
▁ओलिंपिक	-5665
▁मजदूरों	-5666
▁नक्सलियों	-5667
▁मुजफ्फरपुर	-5668
-8	-5669
▁49	-5670
▁शेड	-5671
▁द्वि	-5672
▁जवाहर	-5673
▁बलराम	-5674
▁कुलपति	-5675
▁विभागीय	-5676
▁सिलेंडर	-5677
us	-5678
ौत	-5679
पीओ	-5680
▁गव	-5681
▁तू	-5682
धुनिक	-5683
वोकेट	-5684
▁सबूत	-5685
▁समस्त	-5686
क्षेत्र	-5687
▁आह्वान	-5688
▁राशिफल	-5689
▁सुनीता	-5690
▁कुशवाहा	-5691
▁अधिवक्ता	-5692
▁समाजवादी	-5693
15	-5694
टिल	-5695
लेस	-5696
▁ईवी	-5697
▁एके	-5698
▁भीम	-5699
▁चुरा	-5700
▁ठहरा	-5701
▁अग्नि	-5702
▁गुप्त	-5703
▁सेवाएं	-5704
ानिस्तान	-5705
▁कलाकारों	-5706
टेक	-5707
वाज	-5708
▁आब	-5709
वेदी	-5710
सिया	-5711
▁खंग	-5712
ार्थी	-5713
▁गड्ढ	-5714
▁ढूंढ	-5715
▁पिकअप	-5716
▁राठौड़	-5717
िस्ट्रेट	-5718
▁प्रणाली	-5719
▁संज्ञान	-5720
▁भूपेंद्र	-5721
इंग	-5722
ोषण	-5723
▁उन्	-5724
▁गाज	-5725
▁ज़र	-5726
▁शरद	-5727
▁आईडी	-5728
▁कुत्	-5729
▁दफ्त	-5730
▁ब्ला	-5731
▁शायद	-5732
▁सर्च	-5733
▁हस्त	-5734
▁रेस्ट	-5735
▁सुमित	-5736
▁जाएंगी	-5737
▁एडवोकेट	-5738
जिट	-5739
ंचाई	-5740
अपने	-5741
क्यू	-5742
ब्यू	-5743
ल्ला	-5744
▁गयी	-5745
▁जगत	-5746
▁सीओ	-5747
▁हेल	-5748
वर्ती	-5749
▁महान	-5750
▁उपकरण	-5751
▁समर्थक	-5752
▁प्रभावी	-5753
▁जनप्रतिनि	-5754
ya	-5755
▁मय	-5756
▁लक	-5757
▁अदा	-5758
▁शेष	-5759
▁हाे	-5760
▁अलवर	-5761
▁चलाई	-5762
▁चांद	-5763
▁ब्लड	-5764
▁विश्	-5765
क्टर्स	-5766
स्वामी	-5767
▁इच्छा	-5768
▁औद्योगिक	-5769
डू	-5770
फो	-5771
ॉय	-5772
धारी	-5773
र्पण	-5774
हाना	-5775
ियंस	-5776
▁बुक	-5777
▁हंस	-5778
▁अध्य	-5779
▁चलती	-5780
▁बॉडी	-5781
▁उड़ान	-5782
▁एकत्र	-5783
▁माफिया	-5784
▁X	-5785
▁56	-5786
▁बं	-5787
▁काग	-5788
▁टूर	-5789
▁पटा	-5790
▁बैं	-5791
▁डायल	-5792
▁पीटा	-5793
▁सर्ज	-5794
▁उतारा	-5795
▁कलाकार	-5796
▁दरवाजा	-5797
▁पूर्णिया	-5798
▁प्रॉपर्टी	-5799
▁रिश्तेदार	-5800
ed	-5801
▁मछ	-5802
टर्स	-5803
▁पंत	-5804
▁यौन	-5805
▁2016	-5806
▁बतौर	-5807
▁मानी	-5808
▁अपमान	-5809
▁तकनीक	-5810
▁मित्र	-5811
▁विज्ञ	-5812
▁इजराइल	-5813
ंव	-5814
ॉड	-5815
गेड	-5816
सेन	-5817
▁in	-5818
▁एआई	-5819
▁कोट	-5820
▁माला	-5821
▁सपना	-5822
▁हाथी	-5823
▁अनुरोध	-5824
▁बनर्जी	-5825
▁नारेबाजी	-5826
▁मंत्रियों	-5827
ह्न	-5828
▁मस	-5829
ड्डू	-5830
▁अटल	-5831
▁ताल	-5832
▁विल	-5833
शिष्ट	-5834
▁ग्लो	-5835
द्वारा	-5836
▁इंसान	-5837
▁मथुरा	-5838
▁सीतार	-5839
▁सर्टिफ	-5840
▁बेहतरीन	-5841
▁हिंदुओं	-5842
बत	-5843
फाई	-5844
बिर	-5845
नामा	-5846
▁इजा	-5847
शियों	-5848
ेंट्स	-5849
▁किंग	-5850
▁बीती	-5851
▁ख़िला	-5852
▁चेहरा	-5853
▁जाहिर	-5854
▁मर्डर	-5855
▁चौटाला	-5856
▁दिखाने	-5857
▁पवित्र	-5858
▁फीचर्स	-5859
▁हार्दिक	-5860
▁स्पोर्ट्स	-5861
्ट	-5862
-10	-5863
म्ब	-5864
ुलर	-5865
▁टन	-5866
न्नई	-5867
ारों	-5868
▁चंप	-5869
▁राशन	-5870
▁ब्राह	-5871
47	-5872
ok	-5873
षभ	-5874
ज़र	-5875
▁हक	-5876
ानंद	-5877
▁गेह	-5878
▁पेय	-5879
▁साव	-5880
▁अत्य	-5881
▁एकता	-5882
▁आंखों	-5883
▁करनाल	-5884
▁थोड़ा	-5885
▁पढ़िए	-5886
▁बनाते	-5887
▁इस्लाम	-5888
छात्राओं	-5889
▁ब्रिगेड	-5890
▁अनिवार्य	-5891
▁v	-5892
हूर	-5893
डिया	-5894
▁चाय	-5895
▁फोक	-5896
▁हीट	-5897
भाग्य	-5898
▁आपसी	-5899
▁श्रा	-5900
▁सैंप	-5901
▁कमलेश	-5902
▁मध्यम	-5903
▁बढ़ाया	-5904
▁शास्त्र	-5905
▁पार्टियों	-5906
▁स्मार्टफोन	-5907
▁श्रद्धांजलि	-5908
लोत	-5909
▁रौ	-5910
▁असल	-5911
▁आपस	-5912
ंगाना	-5913
िमंडल	-5914
▁रीवा	-5915
▁लैंड	-5916
▁साइड	-5917
▁ऑर्डर	-5918
▁शुभकाम	-5919
▁ख़िलाफ़	-5920
▁धन्यवाद	-5921
▁व्यक्तिगत	-5922
▁टेक्नोलॉजी	-5923
▁इंजीनियरिंग	-5924
-25	-5925
चीन	-5926
▁52	-5927
▁ओल	-5928
▁धु	-5929
▁बट	-5930
्मान	-5931
▁इको	-5932
▁फिट	-5933
▁भगत	-5934
▁मदन	-5935
▁रोम	-5936
कालीन	-5937
▁एसआई	-5938
▁खाता	-5939
▁रचना	-5940
▁जीतकर	-5941
▁अनुराग	-5942
▁उदाहरण	-5943
ॉस	-5944
धीरे	-5945
नपुर	-5946
▁भड़	-5947
▁मिठ	-5948
▁मेल	-5949
▁कपिल	-5950
▁एजेंस	-5951
▁जोड़ी	-5952
▁मनाने	-5953
▁छेड़छाड़	-5954
▁प्रतिष्ठ	-5955
▁रिपोर्ट्स	-5956
आउट	-5957
साम	-5958
▁अख	-5959
ूलाल	-5960
▁टार	-5961
▁फतेह	-5962
▁बाबू	-5963
▁भेजी	-5964
▁लिये	-5965
▁आसमान	-5966
▁काटने	-5967
▁खासकर	-5968
▁चलेगी	-5969
▁दृष्ट	-5970
▁स्कीम	-5971
▁चेकिंग	-5972
▁मिसाइल	-5973
▁समझौता	-5974
▁प्रेरणा	-5975
▁शिवसेना	-5976
फॉ	-5977
▁एव	-5978
▁गला	-5979
▁रिव	-5980
▁सील	-5981
▁आचार	-5982
▁खेली	-5983
▁टाउन	-5984
▁दादा	-5985
▁पीएच	-5986
▁मशहूर	-5987
▁स्टोर	-5988
▁अरोड़ा	-5989
▁फिल्में	-5990
क्के	-5991
िहार	-5992
ोपुर	-5993
▁मरा	-5994
▁लाई	-5995
▁आलोचना	-5996
▁क्विंट	-5997
▁रेड्डी	-5998
▁उपाध्याय	-5999
▁सर्टिफिकेट	-6000
डोर	-6001
फोड़	-6002
मपुर	-6003
▁पृथ	-6004
▁चिरा	-6005
▁रामल	-6006
▁गवर्न	-6007
▁डालकर	-6008
▁टारगेट	-6009
▁हुड्डा	-6010
▁मोहल्ला	-6011
▁तेलंगाना	-6012
▁अर्थव्यवस्था	-6013
ul	-6014
विक	-6015
▁ऋषि	-6016
▁राध	-6017
▁आमिर	-6018
▁आसार	-6019
▁मलिक	-6020
▁सीआई	-6021
▁सीपी	-6022
▁जोड़ने	-6023
▁लोकेशन	-6024
▁संभावित	-6025
थल	-6026
▁लह	-6027
विंग	-6028
शेखर	-6029
ांशु	-6030
▁करो	-6031
▁कलश	-6032
▁समृ	-6033
त्कार	-6034
▁अजीत	-6035
▁कारा	-6036
▁लिहा	-6037
▁उठाकर	-6038
▁जिसको	-6039
▁झांसी	-6040
▁बाहरी	-6041
▁आंकड़े	-6042
▁किशोरी	-6043
ार्थियों	-6044
ic	-6045
बंद	-6046
्वे	-6047
▁घेर	-6048
▁मोड	-6049
▁खतरे	-6050
▁टेली	-6051
▁संदे	-6052
▁शिवराज	-6053
▁दर्शकों	-6054
▁ब्राह्मण	-6055
▁मजिस्ट्रेट	-6056
नाश	-6057
ौदा	-6058
्रु	-6059
ांदी	-6060
▁कैप	-6061
▁गिल	-6062
▁लाए	-6063
▁शिर	-6064
▁बघेल	-6065
▁रियल	-6066
▁विनय	-6067
▁एटीएम	-6068
▁गहलोत	-6069
▁हिंदु	-6070
▁एडमिशन	-6071
▁गारंटी	-6072
▁ब्रांड	-6073
▁गाड़ियां	-6074
▁सकारात्मक	-6075
-6	-6076
तू	-6077
धारा	-6078
निर्	-6079
▁अमे	-6080
▁डेम	-6081
▁कमला	-6082
▁गाइड	-6083
▁छिपा	-6084
▁नकली	-6085
▁मासूम	-6086
▁लंबित	-6087
▁शुक्ल	-6088
▁सुनने	-6089
▁मैनेजमेंट	-6090
12	-6091
कॉ	-6092
.50	-6093
ंचल	-6094
िके	-6095
्वर	-6096
शासन	-6097
▁निम	-6098
▁पहना	-6099
▁सुमन	-6100
▁आजादी	-6101
▁ब्याज	-6102
▁चेन्नई	-6103
▁महावीर	-6104
▁सिंचाई	-6105
तलब	-6106
▁01	-6107
▁72	-6108
▁जं	-6109
▁बेल	-6110
▁सास	-6111
▁नितिन	-6112
▁सत्या	-6113
बान	-6114
लोग	-6115
▁छू	-6116
वंशी	-6117
▁अनी	-6118
▁किड	-6119
▁खतर	-6120
▁मुठ	-6121
▁रोह	-6122
रिएंट	-6123
▁करंट	-6124
▁यूरो	-6125
सीडेंट	-6126
▁बहुमत	-6127
▁निलंबित	-6128
▁रविंद्र	-6129
▁स्वीकृति	-6130
हो	-6131
पत्	-6132
वों	-6133
साई	-6134
▁चत	-6135
भूमि	-6136
▁सक्	-6137
स्वती	-6138
▁कृपा	-6139
▁पाते	-6140
▁आस्था	-6141
▁फर्स्ट	-6142
2)	-6143
ap	-6144
वंश	-6145
स्फ	-6146
▁58	-6147
▁गू	-6148
दपुर	-6149
बंदी	-6150
सीपी	-6151
▁हसन	-6152
▁कचरा	-6153
▁मुठभ	-6154
▁श्रृ	-6155
▁साझे	-6156
▁अनुसू	-6157
▁कविता	-6158
▁क्वाल	-6159
▁चिन्ह	-6160
▁वैष्ण	-6161
▁स्थिर	-6162
▁घटनाएं	-6163
▁मुआवजा	-6164
▁वीरेंद्र	-6165
जुट	-6166
▁05	-6167
▁उद	-6168
▁गत	-6169
प्ले	-6170
▁चतु	-6171
▁मरम	-6172
▁रघु	-6173
▁होश	-6174
▁आमजन	-6175
▁तिलक	-6176
▁मवेश	-6177
▁माया	-6178
▁शाही	-6179
▁संभल	-6180
ेश्वरी	-6181
▁आईएएस	-6182
▁खरीदा	-6183
▁गेहूं	-6184
▁पड़ने	-6185
▁वार्ता	-6186
लक	-6187
िवे	-6188
ैना	-6189
▁54	-6190
वारे	-6191
वेयर	-6192
▁मनु	-6193
▁रवी	-6194
▁एनएच	-6195
▁नाटक	-6196
▁सेल्	-6197
▁ठाकरे	-6198
▁दर्शा	-6199
▁बेरोज	-6200
▁मायके	-6201
▁गौरतलब	-6202
▁मणिपुर	-6203
▁इंचार्ज	-6204
▁क्विंटल	-6205
▁निवेशकों	-6206
▁श्रीकृष्ण	-6207
▁थानाधिकारी	-6208
संध	-6209
▁196	-6210
▁अभय	-6211
▁मेक	-6212
▁काले	-6213
▁भेंट	-6214
▁सावन	-6215
▁करीबी	-6216
▁खोलने	-6217
▁पैसों	-6218
▁दिग्गज	-6219
▁डिलीवरी	-6220
▁अभियुक्त	-6221
भंगा	-6222
वाकर	-6223
▁अश्	-6224
▁गिन	-6225
▁टुक	-6226
▁खोला	-6227
▁देखे	-6228
▁एकजुट	-6229
स्तीपुर	-6230
▁निरस्त	-6231
▁रामलला	-6232
▁सराहना	-6233
▁महात्मा	-6234
▁लक्ष्मण	-6235
CC	-6236
ash	-6237
माव	-6238
ख्ती	-6239
▁अवध	-6240
▁शतक	-6241
▁आवेद	-6242
▁एससी	-6243
▁कल्प	-6244
▁टेबल	-6245
▁ड्रग	-6246
▁व्ही	-6247
ियाबाद	-6248
▁अत्या	-6249
▁अध्या	-6250
▁देखना	-6251
▁मानें	-6252
▁विनेश	-6253
▁शुद्ध	-6254
▁करेंगी	-6255
▁सरस्वती	-6256
▁कार्यशाला	-6257
▁गुरुग्राम	-6258
,5	-6259
अर	-6260
थे	-6261
▁₹	-6262
नाती	-6263
▁अफग	-6264
▁मोन	-6265
▁शेर	-6266
▁अवगत	-6267
▁कैप्	-6268
▁कस्बे	-6269
▁व्यास	-6270
▁साइंस	-6271
▁तस्करों	-6272
▁नेटवर्क	-6273
▁प्लास्टिक	-6274
बली	-6275
ौरी	-6276
▁चू	-6277
टिया	-6278
▁ढंग	-6279
▁रॉय	-6280
थियों	-6281
ायर्ड	-6282
▁त्या	-6283
▁सीधा	-6284
▁चिराग	-6285
▁हस्ता	-6286
▁हैरान	-6287
▁गड़बड़ी	-6288
वाए	-6289
ौरा	-6290
सागर	-6291
ेंजर	-6292
▁ताज	-6293
▁नीट	-6294
▁बुर	-6295
सलमेर	-6296
▁कायम	-6297
▁तत्व	-6298
▁निकट	-6299
▁फोकस	-6300
▁बाइड	-6301
कारिणी	-6302
▁एजेंट	-6303
▁सुशील	-6304
▁उत्पाद	-6305
▁साहित्य	-6306
▁सिद्धार्थ	-6307
ंटा	-6308
शान	-6309
शाह	-6310
सीम	-6311
▁अंज	-6312
▁लुक	-6313
▁क्ली	-6314
▁झटका	-6315
जीलैंड	-6316
पूर्वक	-6317
▁अंदाज	-6318
▁जोड़ा	-6319
▁पंडाल	-6320
▁फसलों	-6321
▁बहनों	-6322
▁हार्ट	-6323
▁चतुर्थ	-6324
▁चालकों	-6325
▁बुकिंग	-6326
▁रिटायर	-6327
ent	-6328
ंडन	-6329
सास	-6330
वाणी	-6331
▁आधे	-6332
▁पित	-6333
▁रेखा	-6334
▁सुर्	-6335
▁धनबाद	-6336
▁उत्तरी	-6337
▁दोस्ती	-6338
▁पहाड़ी	-6339
▁निकालकर	-6340
▁मुठभेड़	-6341
70	-6342
यु	-6343
ासा	-6344
ंगाई	-6345
▁250	-6346
▁फुल	-6347
▁बैक	-6348
▁फंदे	-6349
▁सैंपल	-6350
▁अंतरिम	-6351
▁अर्चना	-6352
▁कीमतों	-6353
▁ग्लोबल	-6354
▁ट्रेलर	-6355
▁तैनाती	-6356
▁संसाधन	-6357
▁निर्देशन	-6358
तः	-6359
ैग	-6360
▁जद	-6361
प्पी	-6362
बीएस	-6363
▁पीट	-6364
▁वेद	-6365
्यूटर	-6366
▁2015	-6367
▁डाउन	-6368
▁देसी	-6369
▁बारी	-6370
▁भट्ट	-6371
▁सक्ष	-6372
▁बहाने	-6373
▁तोड़ने	-6374
▁सर्जरी	-6375
▁सेवाओं	-6376
▁वार्षिक	-6377
▁समस्तीपुर	-6378
▁ईद	-6379
तलाम	-6380
▁वजन	-6381
युक्त	-6382
▁किये	-6383
▁नामक	-6384
▁लंबा	-6385
▁सेशन	-6386
▁गांजा	-6387
▁दफ्तर	-6388
▁लगेगा	-6389
▁सर्दी	-6390
▁मिलेंगे	-6391
▁सिंधिया	-6392
23	-6393
वड़	-6394
▁85	-6395
जारा	-6396
धाना	-6397
▁बचे	-6398
▁रजत	-6399
▁सोल	-6400
▁अटैक	-6401
▁एसटी	-6402
▁आर्मी	-6403
▁डेवलप	-6404
▁ड्रेस	-6405
▁मरम्मत	-6406
▁सियासी	-6407
वीप	-6408
▁कल्	-6409
▁टैं	-6410
▁द्र	-6411
▁बहू	-6412
▁कक्ष	-6413
▁फंसे	-6414
▁रिया	-6415
▁शब्द	-6416
▁सवाई	-6417
▁फील्ड	-6418
▁बताने	-6419
▁बनेगा	-6420
▁बरेली	-6421
▁सुर्ख	-6422
▁अधिकतर	-6423
▁अनुसंध	-6424
▁आंकड़ों	-6425
▁प्राथमिकी	-6426
▁शुभकामनाएं	-6427
98	-6428
पाई	-6429
▁78	-6430
▁तट	-6431
ंडों	-6432
दर्श	-6433
▁किल	-6434
▁धमा	-6435
▁फिज	-6436
खेड़ा	-6437
प्रिय	-6438
▁एमएम	-6439
▁मेगा	-6440
▁राखी	-6441
क्षणिक	-6442
▁पेरिस	-6443
▁सौंपी	-6444
▁पुजारी	-6445
▁विरासत	-6446
▁अंबेडकर	-6447
▁विशिष्ट	-6448
▁प्रत्याशियों	-6449
up	-6450
ंबल	-6451
▁उछ	-6452
▁ऑप	-6453
करार	-6454
जेडी	-6455
रेंस	-6456
ायती	-6457
▁रिहा	-6458
▁शिवम	-6459
▁सभाग	-6460
▁सिक्	-6461
फ्रेंड	-6462
▁दरबार	-6463
▁वृद्ध	-6464
वेदनशील	-6465
▁देखभाल	-6466
▁अनुसंधान	-6467
▁एक्सीडेंट	-6468
▁प्रस्तावित	-6469
ate	-6470
ंतु	-6471
ंगार	-6472
ग्रा	-6473
न्यू	-6474
ांगी	-6475
्रीम	-6476
▁नीम	-6477
▁मौल	-6478
▁अनाज	-6479
▁ऐश्व	-6480
▁इमरान	-6481
▁थानों	-6482
▁पेयजल	-6483
▁स्कूली	-6484
▁प्रयासों	-6485
8)	-6486
AS	-6487
aj	-6488
▁खाल	-6489
▁सैम	-6490
जीपुर	-6491
टरिंग	-6492
मुख्य	-6493
श्चित	-6494
िशियल	-6495
▁सफेद	-6496
▁शिंदे	-6497
▁संतुल	-6498
▁डीसीपी	-6499
▁सैनिकों	-6500
▁प्रदर्शनी	-6501
▁कार्यकारिणी	-6502
ion	-6503
जगह	-6504
श्यप	-6505
▁उमस	-6506
▁डिफ	-6507
▁शार	-6508
▁असली	-6509
▁कहकर	-6510
▁परिच	-6511
▁फर्म	-6512
▁बोतल	-6513
▁लिखी	-6514
▁जानने	-6515
▁राठौर	-6516
▁स्नात	-6517
▁हटाया	-6518
▁हवाले	-6519
▁अध्ययन	-6520
▁स्वस्थ	-6521
▁गोलियां	-6522
शनी	-6523
▁चोप	-6524
▁रंज	-6525
ंपरिक	-6526
वानिव	-6527
ार्पण	-6528
▁कन्ह	-6529
▁दहेज	-6530
▁चतुर्	-6531
▁बजरंग	-6532
▁शॉर्ट	-6533
▁हमलों	-6534
▁कोरिया	-6535
▁डेब्यू	-6536
▁पृथ्वी	-6537
▁अंग्रेजी	-6538
▁परिस्थित	-6539
▁हथियारों	-6540
ैप	-6541
र्भ	-6542
्मा	-6543
▁भय	-6544
▁कूद	-6545
▁जहर	-6546
▁थीम	-6547
▁अन्न	-6548
▁गूगल	-6549
▁जश्न	-6550
▁मकसद	-6551
▁वाटर	-6552
▁सस्प	-6553
▁चालान	-6554
▁जायजा	-6555
▁अभिभाव	-6556
▁बुलाकर	-6557
▁भरतपुर	-6558
▁एक्टिंग	-6559
▁गाजियाबाद	-6560
▁प्रतिबद्ध	-6561
CT	-6562
SC	-6563
थन	-6564
शर	-6565
▁AI	-6566
▁108	-6567
▁उजा	-6568
▁चेत	-6569
▁छाए	-6570
▁पूनम	-6571
▁मनोर	-6572
▁लाइव	-6573
स्थापक	-6574
▁मुझसे	-6575
▁लड़का	-6576
▁सख्ती	-6577
▁विक्की	-6578
▁भागीदारी	-6579
▁शैक्षणिक	-6580
▁प्रारंभिक	-6581
ंकू	-6582
न्ड	-6583
▁53	-6584
▁मद्	-6585
ट्रिक	-6586
▁छिंद	-6587
▁पूछे	-6588
▁बचपन	-6589
▁लटका	-6590
▁वनडे	-6591
▁वस्त	-6592
▁शिखर	-6593
▁स्पे	-6594
▁ओबीसी	-6595
▁तारीफ	-6596
▁बढ़ता	-6597
▁बेहोश	-6598
▁इंस्टी	-6599
▁रिटर्न	-6600
▁अभिनेता	-6601
▁आतंकवाद	-6602
▁भागलपुर	-6603
▁रिटायर्ड	-6604
▁प्रोत्साहित	-6605
़ी	-6606
सीन	-6607
स्य	-6608
ूली	-6609
क्टे	-6610
टकों	-6611
्तार	-6612
▁अधि	-6613
▁छान	-6614
▁बैच	-6615
िविटी	-6616
▁क्यू	-6617
▁गुहार	-6618
▁ज्वेल	-6619
▁झांसा	-6620
▁अश्लील	-6621
▁दिवाली	-6622
▁महंगाई	-6623
▁सांसदों	-6624
▁अनुसूचित	-6625
▁पारंपरिक	-6626
ंसल	-6627
शीट	-6628
abha	-6629
झाने	-6630
पीड़	-6631
▁इरा	-6632
▁नशी	-6633
▁रेत	-6634
▁दिमा	-6635
▁बाधा	-6636
▁लेटर	-6637
▁डूबने	-6638
▁दिलाई	-6639
▁दुल्ह	-6640
▁निवास	-6641
▁पीढ़ी	-6642
▁रतलाम	-6643
▁आजमगढ़	-6644
▁आबकारी	-6645
▁पाएंगे	-6646
▁जैसलमेर	-6647
▁प्रताड़	-6648
▁घटनाक्रम	-6649
▁प्राप्ति	-6650
▁शिकायतों	-6651
▁हत्याकांड	-6652
सो	-6653
ंपर	-6654
चरण	-6655
बड़	-6656
▁यो	-6657
ोच्च	-6658
▁कॉम	-6659
▁सीए	-6660
▁2000	-6661
▁दबिश	-6662
▁ब्यू	-6663
▁चीजें	-6664
▁प्रोफ	-6665
▁बारात	-6666
▁सेकंड	-6667
▁हवाला	-6668
▁पार्टन	-6669
▁प्रधाना	-6670
▁पहुंचेगी	-6671
▁चंद्रशेखर	-6672
▁तैयारियों	-6673
खल	-6674
खड़	-6675
खार	-6676
ोपण	-6677
पर्ड	-6678
▁120	-6679
▁बाज	-6680
िलिटी	-6681
▁हड़क	-6682
▁तृतीय	-6683
▁न्यूज	-6684
▁लिखकर	-6685
▁संदेह	-6686
▁सिरसा	-6687
यह	-6688
▁95	-6689
▁पच	-6690
▁ईयर	-6691
▁कोय	-6692
▁डीए	-6693
▁रत्	-6694
▁राघ	-6695
▁सीन	-6696
ोरेंट	-6697
▁अनूप	-6698
▁उतरे	-6699
▁कुंड	-6700
▁पैनल	-6701
▁व्हा	-6702
▁घूमने	-6703
▁चित्त	-6704
▁डिस्प	-6705
▁म्यूज	-6706
▁सतर्क	-6707
▁सर्वा	-6708
▁असिस्ट	-6709
▁ट्रायल	-6710
▁दरभंगा	-6711
▁निर्भर	-6712
▁श्रमिक	-6713
▁समझौते	-6714
▁निश्चित	-6715
75	-6716
ho	-6717
ath	-6718
पेय	-6719
स्ड	-6720
▁02	-6721
रेटर	-6722
▁195	-6723
▁IPL	-6724
▁जमु	-6725
वालों	-6726
▁दहशत	-6727
▁लगती	-6728
▁डिटेल	-6729
▁बाधित	-6730
▁जलस्तर	-6731
▁प्रसार	-6732
▁विश्ले	-6733
▁उपायुक्त	-6734
▁तोड़फोड़	-6735
थी	-6736
जीवन	-6737
ोहित	-6738
▁फ़ै	-6739
▁बेर	-6740
▁मिड	-6741
ोग्रा	-6742
▁करार	-6743
▁कोरो	-6744
▁तोमर	-6745
▁दिलच	-6746
ंत्रिक	-6747
▁खुलकर	-6748
▁खेलते	-6749
▁घुसकर	-6750
▁निभाई	-6751
▁बोलने	-6752
▁आंकड़ा	-6753
▁न्यूजीलैंड	-6754
-0	-6755
▁i	-6756
.20	-6757
इली	-6758
दीव	-6759
ोगी	-6760
जाने	-6761
धारण	-6762
▁नहा	-6763
▁यमु	-6764
▁अतुल	-6765
▁ईश्वर	-6766
▁बकाया	-6767
▁विराज	-6768
▁आईपीएल	-6769
▁ओलंपिक	-6770
▁पंजाबी	-6771
▁स्थायी	-6772
▁हड़कंप	-6773
▁कन्हैया	-6774
▁सेवानिव	-6775
▁अहमदाबाद	-6776
▁कांस्टेबल	-6777
▁चिकित्सकों	-6778
ज़ार	-6779
यूवी	-6780
वीजन	-6781
▁ओटी	-6782
▁खिल	-6783
▁गों	-6784
▁जेई	-6785
▁डबल	-6786
▁दुब	-6787
▁लहर	-6788
स्फोट	-6789
▁अंधे	-6790
▁नकदी	-6791
▁हमास	-6792
▁काटकर	-6793
▁दुश्म	-6794
कारियों	-6795
▁चोपड़ा	-6796
▁पहुंचते	-6797
▁इन्होंने	-6798
▁ऐश्वर्या	-6799
▁डॉक्टर्स	-6800
▁छिंदवाड़ा	-6801
▁अल्पसंख्यक	-6802
▁इंस्टीट्यू	-6803
1,	-6804
▁c	-6805
ter	-6806
रेख	-6807
िंट	-6808
स्को	-6809
▁कलर	-6810
▁बीए	-6811
▁बीत	-6812
▁रिम	-6813
▁चावल	-6814
▁मामा	-6815
▁यूजर	-6816
गूसराय	-6817
▁चिह्न	-6818
▁चौंका	-6819
▁मोहित	-6820
▁स्पीड	-6821
▁दरवाजे	-6822
▁परीक्ष	-6823
▁ब्यूरो	-6824
▁स्टोरी	-6825
▁विस्फोट	-6826
▁सिलसिला	-6827
▁शोभायात्रा	-6828
ेब	-6829
नीश	-6830
▁घी	-6831
▁पन	-6832
गुरु	-6833
पारा	-6834
▁कट्	-6835
▁हिर	-6836
▁इमार	-6837
▁गश्त	-6838
▁बनना	-6839
▁स्क्	-6840
▁टैंकर	-6841
▁नामजद	-6842
▁बस्तर	-6843
▁मालूम	-6844
▁सक्षम	-6845
▁उत्पीड़	-6846
▁प्रतिभाग	-6847
▁संवेदनशील	-6848
▁दुकानदारों	-6849
18	-6850
19	-6851
45	-6852
ंझ	-6853
मह	-6854
तिर	-6855
रुख	-6856
्टी	-6857
▁03	-6858
▁आफ	-6859
▁इट	-6860
▁फट	-6861
भाषा	-6862
रियर	-6863
▁एजु	-6864
▁ठिक	-6865
▁फीड	-6866
▁शशि	-6867
▁जुटे	-6868
▁देवर	-6869
▁बर्फ	-6870
▁लोगो	-6871
▁लोहे	-6872
▁हैंड	-6873
ंगाबाद	-6874
▁करवाए	-6875
▁कश्यप	-6876
▁क्रेड	-6877
▁जिनका	-6878
▁इकट्ठा	-6879
▁मनमोहन	-6880
▁जन्मदिन	-6881
▁श्रद्धा	-6882
▁गैंगस्टर	-6883
▁चिकित्सक	-6884
टिव	-6885
टीआई	-6886
नामी	-6887
मिली	-6888
▁112	-6889
▁बीज	-6890
स्टार	-6891
▁दौसा	-6892
▁बेंच	-6893
▁सोया	-6894
▁फ्रंट	-6895
▁मुकदमे	-6896
▁मुद्रा	-6897
▁प्राचीन	-6898
▁आयुष्मान	-6899
▁फरीदाबाद	-6900
▁बेगूसराय	-6901
iv	-6902
:00	-6903
िनल	-6904
स्से	-6905
िकोण	-6906
▁अगु	-6907
▁कटा	-6908
▁हां	-6909
▁कोषा	-6910
▁गवाह	-6911
▁शिवा	-6912
क्टेयर	-6913
▁प्रको	-6914
▁मद्देन	-6915
▁सभागार	-6916
▁Election	-6917
▁निष्पक्ष	-6918
घ्र	-6919
बिन	-6920
शिक	-6921
▁तप	-6922
आईसी	-6923
एमएस	-6924
▁वेल	-6925
▁सिस	-6926
कर्मा	-6927
िकेटर	-6928
िनेशन	-6929
िवानी	-6930
▁मिलना	-6931
▁पेमेंट	-6932
▁लेपर्ड	-6933
▁विषयों	-6934
▁शाहरुख	-6935
▁सड़कें	-6936
▁सवालों	-6937
▁हॉस्टल	-6938
▁बेटियों	-6939
▁विसर्जन	-6940
▁संस्थाओं	-6941
मुख्यमंत्री	-6942
नो	-6943
अर्	-6944
केज	-6945
वनि	-6946
ोजर	-6947
▁ED	-6948
ंचित	-6949
पेयी	-6950
िप्त	-6951
▁खाम	-6952
▁डोन	-6953
▁दहन	-6954
▁बेड	-6955
नियों	-6956
वमेंट	-6957
▁उमेश	-6958
▁केशव	-6959
▁बैंड	-6960
▁राजम	-6961
▁शेखा	-6962
▁जर्जर	-6963
▁भागवत	-6964
▁भ्रमण	-6965
▁सिंगर	-6966
▁छानबीन	-6967
▁स्थलों	-6968
▁ब्रिटेन	-6969
▁प्रतिनिधित्व	-6970
ॉफ	-6971
ाइक	-6972
ुणा	-6973
▁Mo	-6974
र्धा	-6975
श्चा	-6976
▁Lok	-6977
▁दंप	-6978
▁शैल	-6979
िल्ला	-6980
▁उत्प	-6981
▁मोती	-6982
▁वाता	-6983
▁शर्त	-6984
▁श्रम	-6985
▁सबको	-6986
▁साधा	-6987
▁पशुओं	-6988
▁मामूली	-6989
▁उत्पीड़न	-6990
▁कंपनियां	-6991
▁कार्यकारी	-6992
▁पत्रकारों	-6993
▁इलेक्ट्रॉन	-6994
ॉन्	-6995
▁IN	-6996
डीपी	-6997
ॉट्स	-6998
▁टेक	-6999
▁निच	-7000
▁लैब	-7001
▁साई	-7002
कृष्ट	-7003
ारिया	-7004
▁उद्य	-7005
▁कैसा	-7006
▁चुने	-7007
▁जबरन	-7008
▁डायव	-7009
▁ब्रज	-7010
▁शर्म	-7011
▁स्वि	-7012
मूर्ति	-7013
▁ईरानी	-7014
▁ऊंचाई	-7015
▁गिनती	-7016
▁चरणों	-7017
▁देखिए	-7018
▁फिरोज	-7019
▁मालदीव	-7020
▁दुकानें	-7021
▁वातावरण	-7022
▁ग्राहकों	-7023
▁एजेंसियों	-7024
▁रजिस्ट्री	-7025
-24	-7026
तीन	-7027
रित	-7028
▁कपल	-7029
न्नाथ	-7030
▁एम्ब	-7031
▁जर्म	-7032
▁टीआई	-7033
▁निधि	-7034
▁परफॉ	-7035
▁हरीश	-7036
▁ईवीएम	-7037
▁एएसपी	-7038
▁प्रीम	-7039
▁योगेश	-7040
▁शौचाल	-7041
▁अंबाला	-7042
▁गार्डन	-7043
▁हिन्दू	-7044
▁इंटरनेट	-7045
▁अतिथियों	-7046
▁नवरात्रि	-7047
▁विश्वनाथ	-7048
▁उपभोक्ताओं	-7049
▁रेस्टोरेंट	-7050
▁अफगानिस्तान	-7051
CB	-7052
one	-7053
कॉम	-7054
जीब	-7055
टीक	-7056
तूस	-7057
फ़ी	-7058
ेंच	-7059
ोदय	-7060
्‍ह	-7061
▁06	-7062
▁67	-7063
▁डु	-7064
▁तथ	-7065
▁वस	-7066
ज्जर	-7067
लेवा	-7068
िकासी	-7069
▁पुरी	-7070
▁सिखा	-7071
▁सिल्	-7072
▁रोशनी	-7073
▁हवाओं	-7074
▁आधुनिक	-7075
▁खतरनाक	-7076
▁पुलिया	-7077
▁जबरदस्त	-7078
▁पार्टनर	-7079
▁प्रैक्ट	-7080
▁सुल्तान	-7081
▁किलोग्राम	-7082
वृ	-7083
लाइट	-7084
▁कैच	-7085
▁फाज	-7086
▁वाज	-7087
▁आराम	-7088
▁कहता	-7089
▁माली	-7090
▁अवकाश	-7091
▁नतीजे	-7092
▁हेल्प	-7093
▁दृष्टि	-7094
▁नालंदा	-7095
▁फैमिली	-7096
▁संरक्षक	-7097
▁प्लानिंग	-7098
▁लोकप्रिय	-7099
▁उल्लेखनीय	-7100
▁हस्ताक्षर	-7101
▁विशेषज्ञों	-7102
AD	-7103
नस	-7104
क्क	-7105
लीम	-7106
कांग	-7107
क्या	-7108
द्दा	-7109
▁छवि	-7110
▁झुल	-7111
▁डाक	-7112
▁बॉय	-7113
चार्ज	-7114
ोरेशन	-7115
▁आवंट	-7116
▁कैटे	-7117
▁कॉपी	-7118
▁डीपी	-7119
▁लेबन	-7120
▁स्टो	-7121
▁उजागर	-7122
▁कमेंट	-7123
▁एसयूवी	-7124
▁कामयाब	-7125
▁कारतूस	-7126
▁जयशंकर	-7127
▁पकड़कर	-7128
▁मुखबिर	-7129
▁लॉरेंस	-7130
▁क्रेडिट	-7131
▁प्रोसेस	-7132
▁क्रिकेटर	-7133
▁साझेदारी	-7134
▁मुसलमानों	-7135
▁गुरुद्वारा	-7136
धना	-7137
▁09	-7138
▁चक	-7139
▁प्	-7140
सेवी	-7141
स्सी	-7142
िशनल	-7143
▁मजा	-7144
▁2009	-7145
▁नष्ट	-7146
▁बंसल	-7147
▁बैठी	-7148
▁मरने	-7149
▁लुटे	-7150
▁वरुण	-7151
▁शुभम	-7152
▁कैंपस	-7153
▁खातों	-7154
▁लगाना	-7155
▁अब्दुल	-7156
▁धूमधाम	-7157
▁पॉलिसी	-7158
▁सोनिया	-7159
▁प्रज्वल	-7160
▁इन्वेस्ट	-7161
▁शिकायतें	-7162
▁दृष्टिकोण	-7163
ोड	-7164
CTV	-7165
लोक	-7166
▁57	-7167
▁Re	-7168
▁vs	-7169
दिया	-7170
ाल्ड	-7171
▁कोड	-7172
▁डैम	-7173
धानिक	-7174
फार्म	-7175
श्याम	-7176
ोदिया	-7177
▁CCTV	-7178
▁गर्व	-7179
▁जेडी	-7180
▁ध्रु	-7181
▁फेस्ट	-7182
▁सिंगल	-7183
▁सूचित	-7184
▁डीजीपी	-7185
,3	-7186
SO	-7187
नक	-7188
ेप	-7189
कीन	-7190
गमन	-7191
पंथ	-7192
हाद	-7193
▁कस	-7194
▁चिप	-7195
▁जॉब	-7196
▁मोर	-7197
प्रति	-7198
▁एमडी	-7199
▁चौथी	-7200
▁नज़र	-7201
▁मुना	-7202
▁यज्ञ	-7203
▁लाकर	-7204
▁सेवन	-7205
वार्टर	-7206
▁गुलाब	-7207
▁तुम्ह	-7208
▁प्लॉट	-7209
▁विधेय	-7210
▁सशक्त	-7211
▁रोडवेज	-7212
▁जगन्नाथ	-7213
▁जानलेवा	-7214
▁निर्यात	-7215
▁पीड़ितों	-7216
▁बीमारियों	-7217
-7	-7218
-19	-7219
थान	-7220
पुट	-7221
गाने	-7222
विजय	-7223
ायंस	-7224
वासीय	-7225
िस्टर	-7226
▁चैनल	-7227
▁त्रि	-7228
नारायण	-7229
▁दिमाग	-7230
▁आरक्षक	-7231
▁दीपिका	-7232
▁निकासी	-7233
▁मद्देनजर	-7234
▁कोषाध्यक्ष	-7235
▁विश्वकर्मा	-7236
▁इंस्टीट्यूट	-7237
▁परिस्थितियों	-7238
मू	-7239
▁रं	-7240
▁ऋषभ	-7241
▁पेज	-7242
▁रेज	-7243
कृतिक	-7244
जापुर	-7245
निवास	-7246
श्चात	-7247
▁1000	-7248
▁ट्यू	-7249
▁ट्वी	-7250
▁सोलर	-7251
अर्चना	-7252
िस्तान	-7253
्यक्रम	-7254
▁एसएचओ	-7255
▁कराना	-7256
▁खेलों	-7257
▁कोरोना	-7258
▁दिखाकर	-7259
▁सोलंकी	-7260
▁उपभोक्ता	-7261
▁गेंदबाजी	-7262
▁बलरामपुर	-7263
▁असिस्टेंट	-7264
▁निर्देशित	-7265
▁परियोजनाओं	-7266
पढ़	-7267
िसू	-7268
▁नल	-7269
▁पश	-7270
▁शू	-7271
▁भेद	-7272
वाइंट	-7273
िल्का	-7274
▁एनडी	-7275
▁गहरी	-7276
▁लेता	-7277
▁Sabha	-7278
▁कमीशन	-7279
▁पारित	-7280
▁फ्लोर	-7281
▁मेंबर	-7282
▁सुराग	-7283
▁कुर्सी	-7284
▁डिवीजन	-7285
▁भिवानी	-7286
▁रिश्ता	-7287
▁परीक्षाओं	-7288
्हे	-7289
▁इर	-7290
क्कत	-7291
साइटी	-7292
ित्तल	-7293
▁कठिन	-7294
▁धरने	-7295
▁शोषण	-7296
▁चोटें	-7297
▁दर्जा	-7298
▁परिचय	-7299
▁बढ़ाई	-7300
▁मांझी	-7301
▁श्रवण	-7302
▁सर्जन	-7303
▁सीमित	-7304
▁कल्पना	-7305
▁दुल्हन	-7306
▁रायगढ़	-7307
▁सर्किल	-7308
▁निराकरण	-7309
▁बाबूलाल	-7310
▁उत्कृष्ट	-7311
▁पर्यटकों	-7312
▁एम्बुलेंस	-7313
▁चैंपियनशिप	-7314
,6	-7315
।।	-7316
नाइ	-7317
रिस	-7318
▁59	-7319
▁66	-7320
▁नॉ	-7321
▁सऊ	-7322
▁(20	-7323
▁फेज	-7324
ेशनों	-7325
▁एम्स	-7326
र्मेंस	-7327
िवारिक	-7328
▁कालेज	-7329
▁सुधीर	-7330
▁मित्तल	-7331
▁सोसाइटी	-7332
ig	-7333
od	-7334
ोगु	-7335
▁पठ	-7336
टर्न	-7337
वाइड	-7338
सीआर	-7339
▁CBI	-7340
▁ठोस	-7341
▁नाज	-7342
▁रित	-7343
▁2013	-7344
▁छाया	-7345
▁जदयू	-7346
▁डाली	-7347
▁भिड़	-7348
▁लौटे	-7349
▁सीधी	-7350
▁एसडीओ	-7351
▁ट्वीट	-7352
▁तोड़ा	-7353
▁धक्का	-7354
▁पदस्थ	-7355
▁मोर्च	-7356
▁वंचित	-7357
▁अवस्था	-7358
▁अश्विन	-7359
▁आवंटित	-7360
▁बरकरार	-7361
▁मशक्कत	-7362
▁निर्मला	-7363
▁रक्तदान	-7364
▁ओमप्रकाश	-7365
▁फाजिल्का	-7366
▁भीलवाड़ा	-7367
▁समस्याएं	-7368
▁पारिवारिक	-7369
▁बल्लेबाजी	-7370
▁विद्यालयों	-7371
21	-7372
6)	-7373
रन	-7374
रू	-7375
▁घन	-7376
वाइस	-7377
▁जन्	-7378
▁बाइ	-7379
▁हाज	-7380
पत्नी	-7381
▁अड्ड	-7382
▁अनुज	-7383
▁उद्ध	-7384
▁एनटी	-7385
▁एमएल	-7386
▁गायक	-7387
▁तबाद	-7388
▁बालू	-7389
▁अकाली	-7390
▁एग्री	-7391
▁मंजिल	-7392
▁विक्र	-7393
▁खूबसूर	-7394
▁जंक्शन	-7395
▁लड़कों	-7396
▁किशनगंज	-7397
▁दर्जनों	-7398
▁विस्तृत	-7399
▁शिवपुरी	-7400
णु	-7401
▁Y	-7402
प्ल	-7403
फार	-7404
मंद	-7405
ष्‍	-7406
▁(5	-7407
एक्स	-7408
गारी	-7409
▁आपदा	-7410
▁कड़ा	-7411
▁दिखी	-7412
▁दुबई	-7413
▁मल्ल	-7414
▁रूपए	-7415
ौड़गढ़	-7416
▁अमेठी	-7417
▁खेड़ा	-7418
▁पुनर्	-7419
▁रणबीर	-7420
▁शोरूम	-7421
▁खरीदारी	-7422
पीठ	-7423
▁MP	-7424
भवती	-7425
▁आधी	-7426
▁दीन	-7427
▁रेस	-7428
▁आंधी	-7429
▁एलान	-7430
▁गहरे	-7431
▁नायक	-7432
▁विवि	-7433
▁ऑप्शन	-7434
▁खबरें	-7435
▁तत्वा	-7436
▁बक्सर	-7437
▁रणवीर	-7438
▁लौटने	-7439
▁व्याव	-7440
▁शीघ्र	-7441
▁दिलाया	-7442
▁पैमाने	-7443
▁प्रभात	-7444
▁वितरित	-7445
▁सर्किट	-7446
▁गर्भवती	-7447
▁पार्वती	-7448
▁99	-7449
▁कव	-7450
मढ़ी	-7451
▁2012	-7452
▁कैमर	-7453
▁पशुप	-7454
▁उन्‍ह	-7455
▁आईआईटी	-7456
▁आवागमन	-7457
▁कैप्टन	-7458
▁चंद्रा	-7459
▁कैटेगरी	-7460
▁सस्पेंड	-7461
▁केंद्रित	-7462
▁ट्रांसपोर्ट	-7463
▁प्रतिभागियों	-7464
आम	-7465
▁04	-7466
▁07	-7467
▁94	-7468
▁फि	-7469
र्शी	-7470
▁खड़	-7471
▁चाइ	-7472
▁जीव	-7473
▁डरा	-7474
▁राइ	-7475
भिषेक	-7476
▁एकेड	-7477
▁देहा	-7478
▁नेहा	-7479
▁पढ़ा	-7480
▁पाकर	-7481
▁बंदर	-7482
▁लीला	-7483
▁सब्स	-7484
▁सेलि	-7485
▁आत्मा	-7486
▁आवंटन	-7487
▁मल्टी	-7488
▁सवारी	-7489
▁स्पॉट	-7490
▁क्रिया	-7491
▁बढ़ाकर	-7492
▁बुनिया	-7493
▁दीक्षित	-7494
▁सुर्खियों	-7495
▁डिपार्टमेंट	-7496
4)	-7497
ोला	-7498
▁64	-7499
▁नू	-7500
▁बिछ	-7501
▁सरा	-7502
▁2008	-7503
▁चुनौ	-7504
▁दाना	-7505
▁रखता	-7506
▁रनों	-7507
िश्वास	-7508
▁आयुर्	-7509
▁निस्त	-7510
▁मिठाई	-7511
▁योग्य	-7512
▁फ्रांस	-7513
▁माइक्र	-7514
▁रेवाड़ी	-7515
▁स्ट्रीट	-7516
▁काउंसलिंग	-7517
▁परफॉर्मेंस	-7518
rat	-7519
▁62	-7520
▁रच	-7521
आरएफ	-7522
▁बया	-7523
▁मदर	-7524
▁आमने	-7525
▁ख्या	-7526
▁बलों	-7527
▁सऊदी	-7528
▁अपलोड	-7529
▁अफवाह	-7530
▁बॉन्ड	-7531
▁आवासीय	-7532
▁जीएसटी	-7533
▁बालाजी	-7534
▁मेंटेन	-7535
▁दोषियों	-7536
▁संस्कृत	-7537
▁अंतरिक्ष	-7538
▁पार्षदों	-7539
▁वास्तविक	-7540
▁स्टेशनों	-7541
ET	-7542
MC	-7543
ठे	-7544
ंधा	-7545
हाँ	-7546
▁68	-7547
एचसी	-7548
ब्दी	-7549
▁AAP	-7550
▁झलक	-7551
▁नाव	-7552
▁फेम	-7553
बरेली	-7554
▁अधीन	-7555
▁अनिय	-7556
▁कंटे	-7557
▁दमकल	-7558
▁पेशे	-7559
▁बुलड	-7560
▁हीरो	-7561
रेंद्र	-7562
▁बोलते	-7563
▁लड्डू	-7564
▁आरजेडी	-7565
▁पुरुषों	-7566
▁गृहमंत्री	-7567
▁प्राकृतिक	-7568
▁प्रतिबंधित	-7569
13	-7570
SI	-7571
um	-7572
ेशर	-7573
ट्टू	-7574
लीला	-7575
ष्ठी	-7576
▁बरत	-7577
▁भैर	-7578
▁हिट	-7579
क्रमण	-7580
▁दबंग	-7581
▁वन्य	-7582
▁शवों	-7583
▁सम्प	-7584
▁सेले	-7585
▁डूंगर	-7586
▁बोलीं	-7587
▁कनेक्ट	-7588
▁लेबनान	-7589
▁विधेयक	-7590
▁सिद्दी	-7591
▁चतुर्थी	-7592
▁दस्तावे	-7593
▁निर्मित	-7594
▁उपमुख्यमंत्री	-7595
ai	-7596
ष्टी	-7597
्राट	-7598
▁ईंट	-7599
▁जूझ	-7600
▁बगल	-7601
▁चलाए	-7602
▁रैंक	-7603
▁हेली	-7604
जेक्शन	-7605
रिक्शा	-7606
▁कामना	-7607
▁चयनित	-7608
▁नगरीय	-7609
▁पॉलिट	-7610
▁भिलाई	-7611
▁सजाया	-7612
▁हल्के	-7613
िफिकेशन	-7614
▁आकर्षक	-7615
▁निपटने	-7616
▁पुत्री	-7617
▁ट्रेनें	-7618
▁दक्षिणी	-7619
▁सत्यापन	-7620
▁स्वीकृत	-7621
▁संस्थापक	-7622
IM	-7623
▁?	-7624
बैक	-7625
म्भ	-7626
▁63	-7627
▁डॉग	-7628
▁थप्	-7629
▁पिच	-7630
सेक्स	-7631
ानिया	-7632
ार्मर	-7633
▁एमबी	-7634
▁तर्क	-7635
▁बहाल	-7636
▁लेती	-7637
▁सिंग	-7638
वर्गीय	-7639
▁फूलों	-7640
▁बराबर	-7641
▁भतीजे	-7642
▁उन्हीं	-7643
▁शौचालय	-7644
▁एजुकेशन	-7645
▁सक्सेना	-7646
▁प्रोडक्ट	-7647
▁सेवानिवृ	-7648
▁अनियंत्रित	-7649
ंजय	-7650
▁Ch	-7651
▁हद	-7652
ऊंगा	-7653
वड़ा	-7654
श्ती	-7655
▁जोख	-7656
▁दीं	-7657
▁नान	-7658
▁मैर	-7659
▁वक्	-7660
▁शॉप	-7661
▁अमाव	-7662
▁आईजी	-7663
▁गाना	-7664
▁चर्च	-7665
▁टंकी	-7666
▁बीआर	-7667
▁शिल्	-7668
▁साइट	-7669
▁हुड्	-7670
▁खंडवा	-7671
▁दशहरा	-7672
▁फायदे	-7673
▁मौर्य	-7674
▁रंजिश	-7675
▁सॉफ्ट	-7676
▁एडिशनल	-7677
▁गेंदों	-7678
▁ट्रेंड	-7679
▁यूट्यू	-7680
▁चुनौतियों	-7681
▁छात्रावास	-7682
▁शिकायतकर्ता	-7683
नॉ	-7684
▁गम	-7685
▁भौ	-7686
▁बलि	-7687
▁हमी	-7688
पढ़ें	-7689
▁Khan	-7690
▁आईसी	-7691
▁कठोर	-7692
▁कुंभ	-7693
▁कुचल	-7694
▁गौरी	-7695
▁जहरी	-7696
▁जहाज	-7697
▁ढांच	-7698
▁प्रस	-7699
▁लोकल	-7700
▁शीतल	-7701
ानुसार	-7702
▁रिंकू	-7703
▁अभ्यास	-7704
▁आरोपित	-7705
▁चन्द्र	-7706
▁जनजाति	-7707
▁पानीपत	-7708
▁कारावास	-7709
▁ज्योतिष	-7710
▁फाइनेंस	-7711
▁अधिकारों	-7712
ईडी	-7713
णिक	-7714
पाट	-7715
ारस	-7716
▁RE	-7717
▁भव	-7718
रियल	-7719
समंद	-7720
▁अखा	-7721
▁गंद	-7722
▁जेब	-7723
▁दंड	-7724
▁दाल	-7725
▁बैल	-7726
▁शिश	-7727
धियों	-7728
▁आईएम	-7729
▁कम्प	-7730
▁नाइट	-7731
▁पद्म	-7732
▁बंधक	-7733
▁सीने	-7734
▁आभूषण	-7735
▁सरदार	-7736
▁अनुरूप	-7737
▁ग्राहक	-7738
▁शेखावत	-7739
▁हमलावर	-7740
▁2024-25	-7741
▁माधोपुर	-7742
▁सेंसेक्स	-7743
▁चित्तौड़गढ़	-7744
फरी	-7745
जहां	-7746
देही	-7747
माणु	-7748
▁जेव	-7749
▁हिल	-7750
▁जेवर	-7751
▁टोंक	-7752
▁नोडल	-7753
▁सोचा	-7754
▁ओपीडी	-7755
▁जितना	-7756
▁बैठने	-7757
▁इजरायल	-7758
▁नक्सली	-7759
▁मुरैना	-7760
▁मृतकों	-7761
▁वैष्णव	-7762
▁सच्चाई	-7763
▁स्नातक	-7764
▁अमावस्या	-7765
▁प्रतिनिधियों	-7766
14	-7767
आइ	-7768
.15	-7769
गंग	-7770
रोल	-7771
प्ति	-7772
मानी	-7773
लांग	-7774
वकों	-7775
▁600	-7776
▁अद्	-7777
▁ढेर	-7778
▁तड़	-7779
▁भां	-7780
▁वंद	-7781
▁सम्	-7782
ांतरण	-7783
▁टैंक	-7784
▁दत्त	-7785
▁फ़िल	-7786
▁भोले	-7787
▁आर्यन	-7788
▁आलिया	-7789
▁गेस्ट	-7790
▁मुफ्त	-7791
▁स्टॉक	-7792
▁थप्पड़	-7793
▁निरंतर	-7794
▁परमाणु	-7795
▁सम्राट	-7796
▁वेरिएंट	-7797
▁प्लेटफार्म	-7798
-9	-7799
CP	-7800
ah	-7801
em	-7802
मक	-7803
कुश	-7804
गाट	-7805
हमी	-7806
आईजी	-7807
ल्ले	-7808
▁IND	-7809
▁आनन	-7810
▁कार्	-7811
▁गहने	-7812
▁जमुई	-7813
▁मॉनि	-7814
▁यूजी	-7815
▁वंदे	-7816
▁समित	-7817
▁सूरत	-7818
▁स्ने	-7819
▁चलाते	-7820
▁ट्रेड	-7821
▁पड़ती	-7822
▁मासिक	-7823
▁श्रेय	-7824
▁प्रीति	-7825
▁मिलियन	-7826
▁शब्दों	-7827
▁शेयरों	-7828
▁हिम्मत	-7829
▁उपलब्धि	-7830
▁विज्ञापन	-7831
7)	-7832
SS	-7833
.25	-7834
राइ	-7835
रेप	-7836
▁76	-7837
स्पी	-7838
▁अंश	-7839
▁इंफ	-7840
▁कवर	-7841
▁बला	-7842
▁रिए	-7843
मान्य	-7844
▁गरबा	-7845
▁बैनर	-7846
▁भूषण	-7847
▁सतना	-7848
▁सराय	-7849
▁हॉकी	-7850
▁क्‍या	-7851
▁गंदगी	-7852
▁बचाया	-7853
▁महीना	-7854
▁रणजीत	-7855
▁लकड़ी	-7856
▁हाथरस	-7857
▁परिचाल	-7858
▁महासभा	-7859
▁सेक्रेट	-7860
्राष्ट्रीय	-7861
ख़	-7862
माज	-7863
लेन	-7864
षाद	-7865
▁73	-7866
जाही	-7867
पश्च	-7868
रोगा	-7869
सरों	-7870
▁छिप	-7871
▁बैर	-7872
-2024	-7873
क्षेप	-7874
मात्र	-7875
ेंसिक	-7876
▁Indi	-7877
▁तकरी	-7878
▁फॉलो	-7879
▁हायर	-7880
▁कराकर	-7881
▁कॉर्प	-7882
▁क्रॉस	-7883
▁गणपति	-7884
▁बुद्ध	-7885
▁विदाई	-7886
▁समझने	-7887
▁दिखाते	-7888
▁बर्बाद	-7889
▁समन्वय	-7890
▁स्टार्ट	-7891
▁कंप्यूटर	-7892
▁समाजसेवी	-7893
▁हेक्टेयर	-7894
▁सर्वेक्षण	-7895
▁न्यायमूर्ति	-7896
भु	-7897
ंकन	-7898
काउ	-7899
खोर	-7900
मीत	-7901
रोध	-7902
▁SP	-7903
▁खि	-7904
▁नु	-7905
न्या	-7906
प्पा	-7907
▁झेल	-7908
▁लॉक	-7909
▁वेट	-7910
▁स्ल	-7911
▁ईमान	-7912
▁क्रू	-7913
▁गोवा	-7914
▁घबरा	-7915
▁ताजा	-7916
▁दलाल	-7917
▁पेंट	-7918
▁मुनि	-7919
▁मुरा	-7920
▁लिखे	-7921
▁लीडर	-7922
▁पथराव	-7923
▁जेसीबी	-7924
▁परिचित	-7925
▁पिछड़ा	-7926
▁मजबूती	-7927
▁मिर्जा	-7928
▁सालाना	-7929
▁आवाजाही	-7930
▁डोनाल्ड	-7931
▁रिकार्ड	-7932
▁साक्ष्य	-7933
▁पासपोर्ट	-7934
▁बुनियादी	-7935
▁विजयवर्गीय	-7936
EO	-7937
टके	-7938
िडी	-7939
गुजा	-7940
ग्रह	-7941
ालाल	-7942
▁एडव	-7943
▁नकद	-7944
ामुमो	-7945
▁कॉलो	-7946
▁खोले	-7947
▁जमशे	-7948
▁तिरा	-7949
▁मस्क	-7950
▁वक्फ	-7951
▁स्रो	-7952
▁जापान	-7953
▁जोखिम	-7954
▁दरोगा	-7955
▁निषाद	-7956
▁शातिर	-7957
▁अगुवाई	-7958
▁जीआरपी	-7959
▁डिफेंस	-7960
▁फैलाने	-7961
▁बनेंगे	-7962
▁प्रकृति	-7963
▁मुताबिक़	-7964
▁पाठ्यक्रम	-7965
to	-7966
आप	-7967
▁॥	-7968
ुआं	-7969
ेयर	-7970
‍या	-7971
द्री	-7972
▁टैग	-7973
▁थिए	-7974
▁बिख	-7975
▁रोष	-7976
▁वाई	-7977
▁वें	-7978
ियमित	-7979
▁अंचल	-7980
▁इनाम	-7981
▁कमाल	-7982
▁टूटा	-7983
▁मयंक	-7984
▁लालच	-7985
▁वसूल	-7986
▁श्वे	-7987
▁अधिसू	-7988
▁एसीबी	-7989
▁निंदा	-7990
▁रंजीत	-7991
▁सैलरी	-7992
▁त्रिवे	-7993
▁निकाले	-7994
▁प्राइम	-7995
▁फेस्टिव	-7996
▁शेड्यूल	-7997
▁अग्निवीर	-7998
▁औरंगाबाद	-7999
▁सर्वाधिक	-8000
▁सिद्दीकी	-8001
▁राजेन्द्र	-8002
दगी	-8003
पुल	-8004
ामक	-8005
▁पत	-8006
दाता	-8007
पीएफ	-8008
सबुक	-8009
िंडा	-8010
▁भिज	-8011
ग्रहण	-8012
वानों	-8013
ोत्तम	-8014
▁कुएं	-8015
▁जींद	-8016
▁डाले	-8017
▁क्लिक	-8018
▁रहमान	-8019
▁सिफार	-8020
▁स्क्र	-8021
▁स्टेज	-8022
▁अलीगढ़	-8023
▁नतीजों	-8024
▁वाल्मी	-8025
▁संतुलन	-8026
▁बुलडोजर	-8027
▁आक्रोशित	-8028
▁प्रजापति	-8029
़ा	-8030
ॉग	-8031
▁s	-8032
कूल	-8033
बूझ	-8034
मंड	-8035
दयाल	-8036
लेखक	-8037
सफाई	-8038
ूनों	-8039
▁अफ़	-8040
▁इकल	-8041
▁डील	-8042
▁रेव	-8043
▁सुद	-8044
्रेसी	-8045
▁आपात	-8046
▁कैंट	-8047
▁ग्रो	-8048
▁जलकर	-8049
▁थर्ड	-8050
▁पाटी	-8051
▁मल्ह	-8052
▁लंदन	-8053
▁लड़े	-8054
पालिका	-8055
▁झांकी	-8056
▁बलिया	-8057
▁भार्ग	-8058
▁मालवीय	-8059
▁सरगुजा	-8060
▁रायबरेली	-8061
▁हमलावरों	-8062
ऐप	-8063
ंटू	-8064
टीओ	-8065
बाई	-8066
▁69	-8067
▁छी	-8068
ंझुन	-8069
टीएस	-8070
विधि	-8071
शुदा	-8072
▁उठे	-8073
▁गाल	-8074
▁चुप	-8075
▁चैल	-8076
▁बुम	-8077
▁ऑडिट	-8078
▁कर्त	-8079
▁खिता	-8080
▁गर्ल	-8081
▁डिस्	-8082
▁बर्थ	-8083
▁संभा	-8084
▁अवतार	-8085
▁इलाका	-8086
▁कामका	-8087
▁गड्ढे	-8088
▁दायरे	-8089
▁अविनाश	-8090
▁जानकार	-8091
▁झामुमो	-8092
▁तकरीबन	-8093
▁पर्सनल	-8094
▁वायनाड	-8095
▁सिफारिश	-8096
▁हिमांशु	-8097
▁अभिनेत्री	-8098
मण	-8099
ंजा	-8100
समय	-8101
▁धा	-8102
▁चूं	-8103
▁दुर	-8104
▁लेट	-8105
▁अकाद	-8106
▁पोषण	-8107
▁बनती	-8108
▁बसें	-8109
▁रूसी	-8110
▁सेहत	-8111
▁एजेंड	-8112
▁जन्मा	-8113
▁नवादा	-8114
▁फोगाट	-8115
न्द्रीय	-8116
▁समुद्र	-8117
▁सेफ्टी	-8118
जै	-8119
‍च	-8120
▁p	-8121
तूल	-8122
मनी	-8123
सले	-8124
ोरा	-8125
▁हू	-8126
माही	-8127
▁1.5	-8128
▁800	-8129
▁NDA	-8130
▁जर्	-8131
▁वैन	-8132
फाइनल	-8133
▁अर्ध	-8134
▁कन्न	-8135
▁टोला	-8136
▁ठगों	-8137
▁पहने	-8138
▁मछली	-8139
▁सबके	-8140
▁स्कॉ	-8141
काउंटर	-8142
ार्जुन	-8143
▁खबरों	-8144
▁ज़रूर	-8145
▁दोहरा	-8146
▁निखिल	-8147
▁वंदना	-8148
▁स्टील	-8149
▁हैरिस	-8150
गंगानगर	-8151
▁आकर्षण	-8152
▁इन्हीं	-8153
▁करवाकर	-8154
▁किराया	-8155
▁पुष्पा	-8156
▁बुमराह	-8157
▁भार्गव	-8158
▁सहकारी	-8159
▁सिल्वर	-8160
▁एकत्रित	-8161
▁पहलेलेखक	-8162
▁मिलीमीटर	-8163
▁सेक्रेटरी	-8164
▁मंत्रिमंडल	-8165
ुए	-8166
यरी	-8167
ल्‍	-8168
वला	-8169
ंडीज	-8170
त्तर	-8171
सुनी	-8172
हिया	-8173
ियाला	-8174
्तानी	-8175
▁घंटा	-8176
▁पलवल	-8177
▁बवाल	-8178
▁बेनी	-8179
▁तंत्र	-8180
▁देहात	-8181
▁पहिया	-8182
▁लिफ्ट	-8183
▁वृक्ष	-8184
▁रामायण	-8185
▁वस्त्र	-8186
▁सुनाया	-8187
▁केन्द्रीय	-8188
▁प्रैक्टिस	-8189
,4	-8190
11	-8191
णम	-8192
▁ष	-8193
LSO	-8194
ोर्	-8195
▁हृ	-8196
नायक	-8197
बड़े	-8198
▁खनि	-8199
▁गूं	-8200
▁डाइ	-8201
▁फिस	-8202
▁शोक	-8203
▁READ	-8204
▁अस्त	-8205
▁गणना	-8206
▁तारा	-8207
▁धारण	-8208
▁पीयू	-8209
फार्मर	-8210
▁उद्धव	-8211
▁पट्टी	-8212
▁ब्रिट	-8213
▁वॉट्स	-8214
▁करूंगा	-8215
▁जोड़कर	-8216
▁डिवाइस	-8217
▁चौंकाने	-8218
▁नवरात्र	-8219
▁नीतियों	-8220
▁राजमार्ग	-8221
▁सर्वोच्च	-8222
छो	-8223
डु	-8224
-15	-8225
खों	-8226
ालन	-8227
गलौज	-8228
देशक	-8229
भराव	-8230
▁कन्	-8231
▁कूल	-8232
▁लोड	-8233
▁शाल	-8234
▁शीत	-8235
▁समर	-8236
▁हेर	-8237
दित्य	-8238
▁2007	-8239
▁चिंत	-8240
▁नारन	-8241
▁विंग	-8242
▁साइन	-8243
लेश्वर	-8244
▁अड्डे	-8245
▁कामों	-8246
▁गिरकर	-8247
▁हैंडल	-8248
▁कीर्तन	-8249
▁पश्चात	-8250
▁प्लेयर	-8251
▁मेकर्स	-8252
▁निशुल्क	-8253
▁मूवमेंट	-8254
▁क्वार्टर	-8255
GB	-8256
चू	-8257
चौ	-8258
हट	-8259
ana	-8260
मीन	-8261
▁83	-8262
▁एथ	-8263
▁एह	-8264
निंग	-8265
ब्रे	-8266
▁चमक	-8267
▁जोग	-8268
ंत्रण	-8269
टेस्ट	-8270
द्वाज	-8271
▁आरके	-8272
▁आर्म	-8273
▁पापा	-8274
▁लहरा	-8275
▁उठाते	-8276
▁कारों	-8277
▁जलाने	-8278
▁जितने	-8279
▁बुलेट	-8280
▁स्पिन	-8281
▁अंबिका	-8282
▁एडवांस	-8283
▁गरीबों	-8284
▁जायेगा	-8285
▁फेसबुक	-8286
▁रवींद्र	-8287
▁एनकाउंटर	-8288
▁बच्चियों	-8289
▁सिसोदिया	-8290
▁शांतिपूर्ण	-8291
▁प्रदर्शनकारियों	-8292
ोच	-8293
ौफ	-8294
ंबा	-8295
ंसक	-8296
गिल	-8297
विश	-8298
िंक	-8299
िएट	-8300
▁88	-8301
▁De	-8302
▁उर	-8303
रोवर	-8304
र्ति	-8305
▁अटक	-8306
▁उर्	-8307
▁कंस	-8308
▁जॉन	-8309
▁तंज	-8310
▁फार	-8311
▁बसे	-8312
डरेशन	-8313
राज्य	-8314
सामने	-8315
ेक्षा	-8316
▁जियो	-8317
▁डिब्	-8318
▁नींद	-8319
▁रीजन	-8320
▁अरुणा	-8321
▁तलवार	-8322
▁जलभराव	-8323
▁झुंझुन	-8324
▁पर्यटक	-8325
▁समझाया	-8326
कांग्रेस	-8327
▁अनियमित	-8328
डब्ल्यूडी	-8329
▁अत्याचार	-8330
▁डिस्प्ले	-8331
▁भारद्वाज	-8332
▁लड़कियां	-8333
▁प्रोडक्शन	-8334
▁जन्माष्टमी	-8335
me	-8336
ov	-8337
खन	-8338
धू	-8339
तोड़	-8340
▁370	-8341
▁चरम	-8342
▁चौर	-8343
▁डकै	-8344
▁डोर	-8345
▁लघु	-8346
चारिक	-8347
▁एमएस	-8348
▁क़ान	-8349
▁किस्	-8350
▁कुशल	-8351
▁जीतू	-8352
▁जॉइन	-8353
▁त्वर	-8354
▁रुके	-8355
▁चूंकि	-8356
▁डेयरी	-8357
▁नायडू	-8358
▁पुतिन	-8359
▁लगाएं	-8360
▁सोसाय	-8361
▁बयानों	-8362
▁सत्संग	-8363
▁सीएचसी	-8364
▁उत्पन्न	-8365
▁वाजपेयी	-8366
▁सलाहकार	-8367
▁गोस्वामी	-8368
▁जमशेदपुर	-8369
▁मेंटेनेंस	-8370
▁सेमीफाइनल	-8371
▁आदिवासियों	-8372
▁श्रीगंगानगर	-8373
90	-8374
ैच	-8375
पाली	-8376
▁खरा	-8377
▁गरज	-8378
▁चिर	-8379
▁नॉन	-8380
▁युग	-8381
▁लिप	-8382
▁डंपर	-8383
▁दादी	-8384
▁प्रौ	-8385
▁रनौत	-8386
▁वीजा	-8387
▁शरीफ	-8388
▁शाला	-8389
▁साधक	-8390
▁आध्या	-8391
▁इमारत	-8392
▁इशारा	-8393
▁घेराव	-8394
▁जोड़े	-8395
▁तरीका	-8396
▁दिनभर	-8397
▁देवास	-8398
▁पैलेस	-8399
▁विविध	-8400
▁सहारा	-8401
▁हवाएं	-8402
▁अनुदान	-8403
▁इसीलिए	-8404
▁रामगढ़	-8405
▁अपराधों	-8406
▁क्रमांक	-8407
▁गतिविधि	-8408
▁बंटवारे	-8409
▁क्वालिटी	-8410
▁नर्मदापुरम	-8411
▁ट्रांसफार्मर	-8412
ang	-8413
ide	-8414
▁Up	-8415
▁थम	-8416
▁हत	-8417
कल्प	-8418
पिंग	-8419
▁एसओ	-8420
▁गहन	-8421
▁सेठ	-8422
इंडीज	-8423
दाश्त	-8424
स्तों	-8425
▁अभाव	-8426
▁ईस्ट	-8427
▁धरती	-8428
▁नारा	-8429
▁शक्त	-8430
▁सरोज	-8431
िंद्रा	-8432
▁अनीता	-8433
▁ऑडियो	-8434
▁कार्म	-8435
▁गोवंश	-8436
▁विधिक	-8437
▁वृंदा	-8438
▁कुत्ते	-8439
▁घोटाला	-8440
▁त्वरित	-8441
▁प्रवर्	-8442
▁गायत्री	-8443
▁चिह्नित	-8444
▁सिलसिले	-8445
▁निदेशालय	-8446
▁पंचायतों	-8447
▁वाल्मीकि	-8448
▁तत्वावधान	-8449
▁प्रदर्शित	-8450
16	-8451
.40	-8452
हीन	-8453
हीर	-8454
▁An	-8455
▁तन	-8456
त्रु	-8457
रेगा	-8458
▁700	-8459
▁ऑफ़	-8460
▁डेड	-8461
▁सवा	-8462
▁खुली	-8463
▁चाली	-8464
▁परेड	-8465
▁रोड़	-8466
क्ष्मी	-8467
धारोपण	-8468
▁कास्ट	-8469
▁खाड़ी	-8470
▁खुलने	-8471
▁यमुना	-8472
▁हाइवे	-8473
▁प्रांत	-8474
▁संभाला	-8475
▁कप्तानी	-8476
▁सौभाग्य	-8477
▁आयुर्वेद	-8478
▁इलाहाबाद	-8479
▁निस्तारण	-8480
▁पौधारोपण	-8481
▁प्रताड़ित	-8482
▁प्रत्यक्ष	-8483
▁सहयोगियों	-8484
जोत	-8485
▁77	-8486
▁बत	-8487
वरेज	-8488
ुतोष	-8489
▁IAS	-8490
▁महल	-8491
द्वार	-8492
▁कस्ट	-8493
▁कॉमे	-8494
▁नगरी	-8495
▁भंवर	-8496
▁मीरा	-8497
र्शियल	-8498
▁इकोनॉ	-8499
▁झगड़े	-8500
▁निराश	-8501
▁भेजकर	-8502
▁रिक्त	-8503
ाध्यक्ष	-8504
▁तत्वों	-8505
▁पंचांग	-8506
▁भेदभाव	-8507
▁राजगढ़	-8508
▁रामपुर	-8509
▁व्यस्त	-8510
▁समाचार	-8511
▁इलेक्शन	-8512
▁प्रसन्न	-8513
▁निर्माता	-8514
▁पदार्थों	-8515
▁विवाहिता	-8516
▁संचालकों	-8517
▁डेवलपमेंट	-8518
▁मॉनिटरिंग	-8519
एप	-8520
गित	-8521
भूत	-8522
ौनी	-8523
hone	-8524
▁घटा	-8525
▁पैस	-8526
▁भंग	-8527
▁लखी	-8528
▁शेट	-8529
णाधीन	-8530
▁आगमन	-8531
▁केयर	-8532
▁खाकर	-8533
▁झंडा	-8534
▁डीजे	-8535
▁दयाल	-8536
▁निपट	-8537
▁फैशन	-8538
▁भिंड	-8539
▁मादक	-8540
र्निंग	-8541
▁इजाफा	-8542
▁एसीपी	-8543
▁क़रीब	-8544
▁जानता	-8545
▁जावेद	-8546
▁बैतूल	-8547
▁महंगा	-8548
वैधानिक	-8549
ियारपुर	-8550
▁कटिहार	-8551
▁कैमरों	-8552
▁चैलेंज	-8553
▁मुहैया	-8554
▁समीकरण	-8555
▁एकमात्र	-8556
▁वार्डों	-8557
▁जनप्रतिनिधियों	-8558
1)	-8559
ch	-8560
ik	-8561
ma	-8562
कलन	-8563
कूट	-8564
▁74	-8565
▁SD	-8566
▁घो	-8567
आईपी	-8568
माता	-8569
ुसार	-8570
्तों	-8571
▁उपर	-8572
▁कैल	-8573
▁ख़ु	-8574
▁खुर	-8575
▁जाग	-8576
▁पेन	-8577
▁राउ	-8578
ठिंडा	-8579
▁अजित	-8580
▁कमान	-8581
▁देनी	-8582
▁पटरी	-8583
्यांकन	-8584
▁कोहरा	-8585
▁खिताब	-8586
▁चलाकर	-8587
कर्ताओं	-8588
▁कपड़ों	-8589
▁चिल्ला	-8590
▁पोलिंग	-8591
▁प्लाजा	-8592
▁बैटिंग	-8593
▁स्त्री	-8594
▁आकर्षित	-8595
▁गणतंत्र	-8596
▁रामलीला	-8597
▁आमंत्रित	-8598
▁चार्जिंग	-8599
▁महिंद्रा	-8600
▁शिक्षिका	-8601
▁स्ट्राइक	-8602
▁प्रतापगढ़	-8603
▁परेशानियों	-8604
3)	-8605
जिन	-8606
डीओ	-8607
णीय	-8608
नाई	-8609
नेट	-8610
पैठ	-8611
विर	-8612
ूराम	-8613
▁125	-8614
▁पाप	-8615
▁लटक	-8616
▁सनी	-8617
▁2005	-8618
▁इसने	-8619
▁नाला	-8620
▁महाय	-8621
▁मूर्	-8622
▁विफल	-8623
▁शिना	-8624
▁फरिया	-8625
▁भगवंत	-8626
▁साड़ी	-8627
▁कांवड़	-8628
▁जर्मनी	-8629
▁जेवरात	-8630
▁निशाने	-8631
▁फुटबॉल	-8632
▁बिट्टू	-8633
▁मेहमान	-8634
▁शिवाजी	-8635
▁संग्रह	-8636
▁परिचालन	-8637
▁प्रकाशित	-8638
▁गतिविधियां	-8639
▁निर्माणाधीन	-8640
2,	-8641
IA	-8642
esh	-8643
ंसू	-8644
हला	-8645
▁गड	-8646
▁350	-8647
▁गोप	-8648
▁चचे	-8649
▁झील	-8650
▁मॉड	-8651
▁संल	-8652
प्ताह	-8653
▁2011	-8654
▁अख्त	-8655
▁उग्र	-8656
▁केवी	-8657
▁झाड़	-8658
▁डीआर	-8659
▁पुरा	-8660
▁भरकर	-8661
▁अभद्र	-8662
▁निवार	-8663
▁पुण्य	-8664
▁फास्ट	-8665
▁बंदूक	-8666
▁वर्दी	-8667
▁वारंट	-8668
▁शाहिद	-8669
▁एग्जिट	-8670
▁जेडीयू	-8671
▁निर्मल	-8672
▁बैंकों	-8673
▁रखेंगे	-8674
▁संगीता	-8675
▁एसडीपीओ	-8676
▁ठिकानों	-8677
▁द्विवेदी	-8678
▁सिद्धांत	-8679
▁आंगनबाड़ी	-8680
▁माहेश्वरी	-8681
▁दस्तावेजों	-8682
▁राज्यमंत्री	-8683
MP	-8684
लत	-8685
पान	-8686
याम	-8687
एनएस	-8688
घरों	-8689
ट्टे	-8690
रोइन	-8691
▁Day	-8692
▁Pro	-8693
▁लता	-8694
ष्कार	-8695
ौलपुर	-8696
▁2010	-8697
▁एसएस	-8698
▁झाला	-8699
▁दवाइ	-8700
▁दोगु	-8701
▁नीलम	-8702
▁पाता	-8703
▁फिसल	-8704
▁लाना	-8705
पीएससी	-8706
▁कपड़ा	-8707
▁ग्रेड	-8708
▁टूटने	-8709
▁दादरी	-8710
▁पौधों	-8711
▁बुलाई	-8712
▁मंडला	-8713
▁श्रीम	-8714
▁आशुतोष	-8715
▁पुस्तक	-8716
▁बढ़ेगी	-8717
▁मेघवाल	-8718
▁साक्षी	-8719
▁संपूर्ण	-8720
▁सोसायटी	-8721
▁बर्दाश्त	-8722
▁विचारधारा	-8723
▁प्रदेशाध्यक्ष	-8724
कप	-8725
▁n	-8726
ind	-8727
प्ट	-8728
सिल	-8729
ोंग	-8730
▁96	-8731
▁अड	-8732
ल्ली	-8733
िकरण	-8734
्रार	-8735
▁ओला	-8736
▁दाह	-8737
▁पला	-8738
▁रिश	-8739
▁सहर	-8740
▁सैफ	-8741
▁कड़े	-8742
▁कॉम्	-8743
▁दांव	-8744
▁पठान	-8745
▁बिता	-8746
▁मूंग	-8747
▁रश्म	-8748
▁रामा	-8749
▁सलीम	-8750
नेश्वर	-8751
वेन्यू	-8752
▁अवधेश	-8753
▁उद्यम	-8754
▁पाएगा	-8755
▁बनेगी	-8756
▁बेल्ट	-8757
▁स्मार	-8758
▁देखरेख	-8759
▁निकलकर	-8760
▁नौसेना	-8761
▁राधिका	-8762
▁गैंगरेप	-8763
▁ब्रिटिश	-8764
▁सीएमएचओ	-8765
▁जबरदस्ती	-8766
▁झुंझुनूं	-8767
▁प्रेमिका	-8768
▁विराजमान	-8769
▁पहुंचेंगे	-8770
▁हस्तक्षेप	-8771
▁इलेक्ट्रॉनिक	-8772
▁अंतर्राष्ट्रीय	-8773
एगा	-8774
▁EV	-8775
▁ऋण	-8776
ख्ता	-8777
डीसी	-8778
हराम	-8779
ांडा	-8780
▁ऑयल	-8781
▁धूल	-8782
▁मीन	-8783
▁राख	-8784
▁शिप	-8785
▁शिल	-8786
▁सेग	-8787
▁कॉरि	-8788
▁घटकर	-8789
▁पारस	-8790
▁वैभव	-8791
▁आमतौर	-8792
▁कट्टा	-8793
▁कोयला	-8794
▁डेमोक	-8795
▁नतीजा	-8796
▁बताकर	-8797
▁बौद्ध	-8798
▁प्रसंग	-8799
▁मल्लिक	-8800
▁राजनाथ	-8801
द्योगिकी	-8802
▁समृद्धि	-8803
▁सीताराम	-8804
▁दिग्विजय	-8805
▁दुनियाभर	-8806
▁सेवानिवृत्त	-8807
,0	-8808
80	-8809
HO	-8810
IT	-8811
हू	-8812
जुए	-8813
टीन	-8814
इयों	-8815
श्रे	-8816
ांचल	-8817
िंटन	-8818
▁आैर	-8819
▁कमर	-8820
▁ताइ	-8821
▁मुन	-8822
▁सेम	-8823
▁2004	-8824
▁झूठे	-8825
▁ठेका	-8826
▁मानक	-8827
▁रखती	-8828
▁रॉयल	-8829
▁वाइस	-8830
रात्रि	-8831
▁कोविड	-8832
▁कोहरे	-8833
▁नहाने	-8834
▁बताती	-8835
▁बूथों	-8836
▁मुंडा	-8837
▁विवरण	-8838
▁साहिल	-8839
▁स्पेस	-8840
▁धारदार	-8841
▁पंजीयन	-8842
▁बठिंडा	-8843
▁बुझाने	-8844
▁महानगर	-8845
▁वकीलों	-8846
▁सीरिया	-8847
▁सोनीपत	-8848
▁2023-24	-8849
▁अश्विनी	-8850
▁घनश्याम	-8851
▁जानवरों	-8852
▁म्यूजिक	-8853
▁सचिवालय	-8854
▁पीडब्ल्यूडी	-8855
ंठ	-8856
शिव	-8857
ामे	-8858
▁92	-8859
▁मऊ	-8860
डेजा	-8861
मुझे	-8862
▁आलू	-8863
▁कहे	-8864
▁घात	-8865
▁मज़	-8866
▁शंभ	-8867
▁सुध	-8868
स्तौल	-8869
▁अनदे	-8870
▁कतार	-8871
▁धोनी	-8872
▁बंधन	-8873
▁मच्छ	-8874
▁इरफान	-8875
▁जितनी	-8876
▁नड्डा	-8877
▁निचले	-8878
▁बनाता	-8879
▁भरोसे	-8880
▁राहगी	-8881
प्ताहिक	-8882
▁काउंटर	-8883
▁घुसपैठ	-8884
▁कॉरिडोर	-8885
▁योजनाएं	-8886
▁रिलायंस	-8887
▁वॉट्सऐप	-8888
▁सितम्बर	-8889
▁बलात्कार	-8890
▁व्याख्या	-8891
▁हिंदुस्तान	-8892
▁रिश्तेदारों	-8893
मस	-8894
▁m	-8895
ायन	-8896
▁61	-8897
▁हौ	-8898
क्सो	-8899
शिंग	-8900
▁110	-8901
▁कंड	-8902
▁खट्	-8903
▁चीख	-8904
▁बची	-8905
▁हरे	-8906
▁होल	-8907
्युनि	-8908
▁कबीर	-8909
▁कोठी	-8910
▁चारा	-8911
▁तुर्	-8912
▁बसंत	-8913
▁मजाक	-8914
▁इंटेल	-8915
▁गीतों	-8916
▁डिस्क	-8917
▁ध्रुव	-8918
▁पर्ची	-8919
▁मुर्म	-8920
▁सकेगी	-8921
▁साधना	-8922
▁आईपीएस	-8923
▁कालोनी	-8924
▁खोजबीन	-8925
▁गुस्से	-8926
▁हेरोइन	-8927
▁कार्मिक	-8928
▁पाटीदार	-8929
▁पिस्तौल	-8930
▁प्रोफेशन	-8931
▁बेरोजगारी	-8932
▁महेंद्रगढ़	-8933
ut	-8934
उंस	-8935
गाई	-8936
भान	-8937
वेव	-8938
▁97	-8939
पर्स	-8940
प्पल	-8941
विजन	-8942
▁एकल	-8943
▁खां	-8944
▁टॉस	-8945
▁बेन	-8946
▁बैन	-8947
▁बॉस	-8948
▁मॉल	-8949
ख्यात	-8950
शुल्क	-8951
ष्ठान	-8952
▁आयकर	-8953
▁काटा	-8954
▁खनिज	-8955
▁झुलस	-8956
▁दीदी	-8957
▁धीरज	-8958
▁बांट	-8959
▁भड़क	-8960
▁शूटर	-8961
▁हृदय	-8962
▁केदार	-8963
▁फ्रॉड	-8964
▁भंडार	-8965
▁मियां	-8966
त्तियों	-8967
▁अत्यंत	-8968
▁एकेडमी	-8969
▁कागजात	-8970
▁स्वाति	-8971
▁अनुमंडल	-8972
▁पुरोहित	-8973
▁फतेहपुर	-8974
▁फेस्टिवल	-8975
▁राहगीरों	-8976
▁हेल्पलाइन	-8977
▁अपार्टमेंट	-8978
▁प्रतिष्ठित	-8979
▁वेस्टइंडीज	-8980
▁प्रौद्योगिकी	-8981
",	-8982
ud	-8983
ुट	-8984
-11	-8985
.45	-8986
पूर	-8987
सनी	-8988
▁We	-8989
▁खट	-8990
▁शत	-8991
तिथि	-8992
मावत	-8993
सेवक	-8994
▁खाई	-8995
▁हवन	-8996
दर्शी	-8997
ुपयोग	-8998
▁डेरा	-8999
▁तर्ज	-9000
▁सहार	-9001
▁कराते	-9002
▁क्रिस	-9003
▁द्वीप	-9004
▁नामों	-9005
▁बाउंड	-9006
▁मार्क	-9007
▁मैरिज	-9008
▁विपिन	-9009
स्थापित	-9010
▁दूसरों	-9011
▁प्रदोष	-9012
▁शिक्षण	-9013
▁सिद्धू	-9014
▁स्टाइल	-9015
▁गजेंद्र	-9016
▁दिलचस्प	-9017
▁पटियाला	-9018
▁ब्लास्ट	-9019
▁सेगमेंट	-9020
▁अधिसूचना	-9021
▁कार्यपाल	-9022
▁नागरिकता	-9023
▁निर्देशक	-9024
▁श्रृंगार	-9025
▁सोनाक्षी	-9026
▁सुपरस्टार	-9027
ia	-9028
गठ	-9029
मै	-9030
est	-9031
ंगत	-9032
एआई	-9033
कीपर	-9034
फेयर	-9035
बानी	-9036
वायर	-9037
सेवा	-9038
▁खैर	-9039
▁जया	-9040
▁जाओ	-9041
▁धमक	-9042
▁फैन	-9043
▁वां	-9044
न्वयन	-9045
▁कबूल	-9046
▁नमाज	-9047
▁पिला	-9048
▁फीचर	-9049
▁मेजब	-9050
▁ओटीटी	-9051
▁जडेजा	-9052
▁पाटिल	-9053
▁पीयूष	-9054
▁पैकेज	-9055
▁पैकेट	-9056
▁लोकेश	-9057
▁समग्र	-9058
▁धौलपुर	-9059
▁नजदीकी	-9060
▁प्रिंट	-9061
▁प्रेशर	-9062
▁विक्रे	-9063
▁संदर्भ	-9064
▁संविदा	-9065
▁दायित्व	-9066
▁सरकारों	-9067
▁हाथियों	-9068
▁प्रोड्यू	-9069
9)	-9070
UV	-9071
णवी	-9072
दड़	-9073
रीत	-9074
लेव	-9075
▁81	-9076
▁टु	-9077
चुअल	-9078
बाबू	-9079
यर्स	-9080
लेशन	-9081
ल्हा	-9082
स्थी	-9083
▁खेर	-9084
▁जले	-9085
▁जेट	-9086
▁टकर	-9087
▁पान	-9088
ather	-9089
बाजार	-9090
र्चित	-9091
िशंकर	-9092
▁इनसे	-9093
▁एनएस	-9094
▁योगा	-9095
▁रुचि	-9096
▁इकबाल	-9097
▁इलाक़	-9098
▁उतरने	-9099
▁काफ़ी	-9100
▁त्याग	-9101
▁थिएटर	-9102
▁बाइडन	-9103
▁मिथुन	-9104
▁किस्मत	-9105
▁कीर्ति	-9106
▁जनगणना	-9107
▁ड्रग्स	-9108
▁तिमाही	-9109
▁बांधकर	-9110
▁रखवाया	-9111
▁रिलेशन	-9112
▁श्वेता	-9113
▁सीमेंट	-9114
▁स्थगित	-9115
▁प्रशंसा	-9116
▁विवादों	-9117
▁वृंदावन	-9118
▁तस्वीरों	-9119
▁प्रवर्तन	-9120
▁नियंत्रित	-9121
▁मुरादाबाद	-9122
▁मूल्यांकन	-9123
▁साप्ताहिक	-9124
▁हिस्सेदारी	-9125
ॉर	-9126
▁f	-9127
सीए	-9128
▁St	-9129
▁शम	-9130
खाना	-9131
देवी	-9132
बर्ग	-9133
ुर्द	-9134
ूंगी	-9135
▁उपज	-9136
▁घसी	-9137
▁जगद	-9138
▁झड़	-9139
स्पति	-9140
ोर्टर	-9141
▁कुरु	-9142
▁छापा	-9143
▁भाटी	-9144
▁मिलन	-9145
▁रजनी	-9146
▁राघव	-9147
िक्रमा	-9148
▁अख्तर	-9149
▁एहसास	-9150
▁खोलकर	-9151
▁ग़ज़ा	-9152
▁जालोर	-9153
▁तूफान	-9154
▁दिखने	-9155
▁पहनकर	-9156
▁पुस्त	-9157
▁बुखार	-9158
▁मुस्त	-9159
▁शत्रु	-9160
▁संचार	-9161
▁सुनते	-9162
▁हज़ार	-9163
राष्ट्र	-9164
▁ठहराया	-9165
▁नागपुर	-9166
▁सरेंडर	-9167
▁सेक्शन	-9168
▁सेल्फी	-9169
▁इसराइली	-9170
▁दानापुर	-9171
▁शिवलिंग	-9172
▁समुद्री	-9173
▁हाउसिंग	-9174
▁उत्पादों	-9175
▁उपलक्ष्य	-9176
▁चिकित्सालय	-9177
▁याचिकाकर्ता	-9178
▁b	-9179
-12	-9180
एगी	-9181
गां	-9182
ष्म	-9183
▁84	-9184
उंडर	-9185
तमंद	-9186
फानन	-9187
ाफ्ट	-9188
िन्द	-9189
▁एल्	-9190
▁पाउ	-9191
▁फाल	-9192
▁बैज	-9193
▁रमन	-9194
▁वैध	-9195
गोपाल	-9196
शक्ति	-9197
▁उतरी	-9198
▁उन्न	-9199
▁गणित	-9200
▁चौथा	-9201
▁धीमी	-9202
▁नवनि	-9203
▁पराम	-9204
▁रत्न	-9205
▁संतु	-9206
▁सेरे	-9207
ंदगांव	-9208
ायुक्त	-9209
▁एडीएम	-9210
▁जमीनी	-9211
▁सुचार	-9212
▁चक्रवा	-9213
▁पहलुओं	-9214
▁पेड़ों	-9215
▁शेट्टी	-9216
▁साधारण	-9217
▁सीवरेज	-9218
▁सूर्या	-9219
तांत्रिक	-9220
▁इंटेलिज	-9221
▁फेडरेशन	-9222
▁मार्गों	-9223
▁रणनीतिक	-9224
▁शिनाख्त	-9225
▁अधिग्रहण	-9226
▁गोलीबारी	-9227
▁पड़ोसियों	-9228
▁नोटिफिकेशन	-9229
,7	-9230
▁w	-9231
जाज	-9232
णिज	-9233
ब्स	-9234
▁08	-9235
▁NE	-9236
▁सृ	-9237
आरती	-9238
ड़ने	-9239
ॉर्क	-9240
ोजित	-9241
▁उमर	-9242
▁एएन	-9243
▁काब	-9244
▁सैय	-9245
कास्ट	-9246
जिस्ट	-9247
▁क्रे	-9248
▁ग्रह	-9249
▁घुसे	-9250
▁जाटव	-9251
▁बजरी	-9252
▁वरीय	-9253
▁संजू	-9254
▁दवाओं	-9255
▁परमार	-9256
▁बुलंद	-9257
▁मवेशी	-9258
▁मॉर्च	-9259
▁सीएमओ	-9260
कांक्षा	-9261
▁आराधना	-9262
▁ऑपरेटर	-9263
▁पर्यवे	-9264
▁अरुणाचल	-9265
▁ऑफिशियल	-9266
▁चार्जशीट	-9267
▁अभिभावकों	-9268
▁चतुर्वेदी	-9269
▁बांसवाड़ा	-9270
:3	-9271
ag	-9272
of	-9273
काव	-9274
क्व	-9275
णाल	-9276
पोल	-9277
▁87	-9278
▁फड	-9279
णमूल	-9280
मिकल	-9281
वायु	-9282
ुराम	-9283
▁आला	-9284
▁बिन	-9285
▁मकर	-9286
▁मैथ	-9287
▁लग्	-9288
चांदी	-9289
िडेंट	-9290
ैंसिल	-9291
▁कमरा	-9292
▁गूंज	-9293
▁घाटी	-9294
▁डिपो	-9295
▁बनता	-9296
▁हेमा	-9297
▁कोरबा	-9298
▁दंपती	-9299
▁परंतु	-9300
▁मनीषा	-9301
▁महाकु	-9302
▁लिहाज	-9303
▁स्टडी	-9304
▁हांसी	-9305
विश्वास	-9306
▁कामकाज	-9307
▁तेंदुए	-9308
नांदगांव	-9309
▁आखिरकार	-9310
▁गाजीपुर	-9311
▁जसप्रीत	-9312
▁डाउनलोड	-9313
▁पंचायती	-9314
▁पांचवें	-9315
▁पैसेंजर	-9316
▁प्रमोशन	-9317
▁मालिकों	-9318
▁मुख्तार	-9319
▁बाउंड्री	-9320
▁ब्लैकमेल	-9321
▁सीतामढ़ी	-9322
▁हिस्ट्री	-9323
▁डेमोक्रेट	-9324
▁सिनेमाघरों	-9325
हु	-9326
ोभ	-9327
किश	-9328
जनी	-9329
जिस	-9330
वाड	-9331
▁79	-9332
▁93	-9333
▁आड	-9334
खाने	-9335
वर्ष	-9336
शांत	-9337
शियल	-9338
समैन	-9339
िज्म	-9340
ोमणि	-9341
▁Pri	-9342
▁चूर	-9343
▁नमी	-9344
▁पाय	-9345
▁बहि	-9346
▁भटक	-9347
▁लैस	-9348
▁स्त	-9349
तियां	-9350
ैक्चर	-9351
▁1500	-9352
▁Shar	-9353
▁अथवा	-9354
▁अमीर	-9355
▁आकार	-9356
▁कागज	-9357
▁खदान	-9358
▁गिरे	-9359
▁छिड़	-9360
▁झांक	-9361
▁टायर	-9362
▁टीका	-9363
▁डोडा	-9364
▁नाना	-9365
▁पितृ	-9366
▁मांस	-9367
कुमारी	-9368
▁दशकों	-9369
▁धमाके	-9370
▁प्रकट	-9371
▁बदलकर	-9372
▁हितों	-9373
श्रेष्ठ	-9374
▁अकादमी	-9375
▁अपनाने	-9376
▁एनर्जी	-9377
▁निफ्टी	-9378
▁नीलामी	-9379
▁बोलेरो	-9380
▁रोमांच	-9381
▁विपरीत	-9382
▁अत्यधिक	-9383
▁पहुंचीं	-9384
▁मोहनलाल	-9385
▁राजसमंद	-9386
▁सदस्यीय	-9387
▁सीतारमण	-9388
▁डूंगरपुर	-9389
▁दीपेंद्र	-9390
▁अंबिकापुर	-9391
▁कांग्रेसी	-9392
▁वैज्ञानिकों	-9393
ED	-9394
ani	-9395
कला	-9396
किम	-9397
फुल	-9398
्वि	-9399
▁""	-9400
▁खै	-9401
▁अती	-9402
▁कास	-9403
▁पैन	-9404
▁भगा	-9405
खेड़ी	-9406
णिज्य	-9407
ब्रिज	-9408
सायिक	-9409
▁आतिश	-9410
▁इकलौ	-9411
▁ब्लू	-9412
▁मुंग	-9413
▁राइट	-9414
▁समीर	-9415
ानुमान	-9416
▁आतिशी	-9417
▁चढ़कर	-9418
▁मंजूर	-9419
▁शारदा	-9420
▁होल्ड	-9421
▁कैंसिल	-9422
▁तुर्की	-9423
▁प्रेसि	-9424
▁वोटरों	-9425
▁हेलमेट	-9426
▁गोवर्धन	-9427
▁दर्दनाक	-9428
▁बेनीवाल	-9429
▁भावनाओं	-9430
▁मायावती	-9431
▁रजिस्टर	-9432
▁प्रतिबद्धता	-9433
48	-9434
AI	-9435
शय	-9436
काय	-9437
गना	-9438
परी	-9439
बूत	-9440
▁iP	-9441
▁मम	-9442
टिका	-9443
न्ने	-9444
ामाद	-9445
िल्ल	-9446
▁अन्	-9447
▁ओझा	-9448
▁कोठ	-9449
▁जत्	-9450
▁टें	-9451
▁रेन	-9452
ंतरिक	-9453
कमिंग	-9454
▁अहिर	-9455
▁उछाल	-9456
▁एसके	-9457
▁कचरे	-9458
▁गुरू	-9459
▁जीजा	-9460
▁नूंह	-9461
▁प्लस	-9462
▁भैया	-9463
▁रसोई	-9464
▁शिशु	-9465
▁सूबे	-9466
▁सेवक	-9467
पचारिक	-9468
▁अनुपम	-9469
▁उत्तम	-9470
▁ख्याल	-9471
▁जहाना	-9472
▁नाकाब	-9473
▁महानि	-9474
▁वैदिक	-9475
▁हिंसक	-9476
प्लेक्स	-9477
▁उतारने	-9478
▁पीटीआई	-9479
▁भोजपुर	-9480
▁वैशाली	-9481
▁सभापति	-9482
्रास्ट्र	-9483
▁Weather	-9484
▁चिन्हित	-9485
▁निकायों	-9486
▁सब्सिडी	-9487
▁आतंकवादी	-9488
▁प्रस्थान	-9489
▁भारतीयों	-9490
▁रजिस्टर्ड	-9491
▁पूर्वानुमान	-9492
▁राजनांदगांव	-9493
▁मल्लिकार्जुन	-9494
हि	-9495
ूण	-9496
दाद	-9497
यिक	-9498
ष्क	-9499
▁82	-9500
▁98	-9501
आईएम	-9502
गड़ी	-9503
चुरी	-9504
ज्जा	-9505
रीबी	-9506
▁केक	-9507
▁गुड	-9508
▁लाड	-9509
बांदी	-9510
ूल्हे	-9511
▁अखंड	-9512
▁आंसू	-9513
▁इमाम	-9514
▁चिट्	-9515
▁तख्त	-9516
▁फाटक	-9517
▁बजाज	-9518
▁बनते	-9519
▁बीघा	-9520
लेरिया	-9521
▁उठाना	-9522
▁गहराई	-9523
▁ग्रंथ	-9524
▁छोड़ी	-9525
▁न्यूय	-9526
▁पराली	-9527
▁पाण्ड	-9528
▁बूंदा	-9529
▁भूपेश	-9530
▁यूरोप	-9531
▁लक्षण	-9532
▁हराकर	-9533
ोग्राफी	-9534
▁टीचर्स	-9535
▁तृणमूल	-9536
▁फ्रेंच	-9537
▁मकानों	-9538
▁मोहाली	-9539
▁इस्तीफे	-9540
▁पंजीकरण	-9541
▁परामर्श	-9542
▁विवादित	-9543
▁शिरोमणि	-9544
▁समन्वयक	-9545
▁आतंकियों	-9546
▁धीरेंद्र	-9547
▁नाकाबंदी	-9548
▁फतेहाबाद	-9549
▁रामेश्वर	-9550
▁रिपोर्टर	-9551
▁उन्‍होंने	-9552
▁निर्वाचित	-9553
▁निवासियों	-9554
▁बुजुर्गों	-9555
▁इंटेलिजेंस	-9556
6,	-9557
रथ	-9558
कुछ	-9559
थुर	-9560
होर	-9561
िकॉ	-9562
िगो	-9563
▁Ar	-9564
▁हज	-9565
णवीस	-9566
मिया	-9567
व्या	-9568
▁चित	-9569
▁पॉप	-9570
▁फिन	-9571
▁विम	-9572
▁वीक	-9573
▁वॉक	-9574
▁शिम	-9575
र्तित	-9576
स्टेट	-9577
▁अन्त	-9578
▁केसर	-9579
▁गायन	-9580
▁गोला	-9581
▁घेरा	-9582
▁फंदा	-9583
▁सपने	-9584
पश्चिम	-9585
वित्री	-9586
▁करीना	-9587
▁काउंट	-9588
▁गडकरी	-9589
▁गिफ्ट	-9590
▁घाटों	-9591
▁नागौर	-9592
▁पहाड़	-9593
▁फटकार	-9594
▁बैरिक	-9595
▁भाग्य	-9596
▁मुरली	-9597
▁मेरिट	-9598
▁लीजिए	-9599
▁हटाकर	-9600
निर्देश	-9601
▁आंतरिक	-9602
▁ओपनिंग	-9603
▁गर्ल्स	-9604
▁चुप्पी	-9605
▁नदियों	-9606
▁विभाजन	-9607
▁समझाने	-9608
▁हीटवेव	-9609
▁आक्रामक	-9610
▁खूबसूरत	-9611
▁गिरिडीह	-9612
▁प्वाइंट	-9613
▁शेखपुरा	-9614
▁सेलिब्र	-9615
▁इंद्रजीत	-9616
▁उद्योगों	-9617
▁धर्मशाला	-9618
▁लोकार्पण	-9619
▁सेकेंडरी	-9620
▁आपत्तिजनक	-9621
▁व्यवस्थाओं	-9622
5,	-9623
ोव	-9624
कभी	-9625
बरी	-9626
एसएल	-9627
वाहक	-9628
▁कीं	-9629
▁छोट	-9630
▁नमन	-9631
▁परा	-9632
▁पीर	-9633
▁बबल	-9634
▁शर्	-9635
▁शॉट	-9636
▁सद्	-9637
▁सुक	-9638
क्लेव	-9639
गार्ड	-9640
ोत्तर	-9641
▁अगला	-9642
▁आयात	-9643
▁आश्व	-9644
▁डीलर	-9645
▁नानक	-9646
▁फेमस	-9647
▁बेचा	-9648
▁लौटी	-9649
▁सीएस	-9650
इंडिया	-9651
र्पियो	-9652
▁दीजिए	-9653
▁दूंगा	-9654
▁बलौदा	-9655
▁भरपूर	-9656
▁स्रोत	-9657
▁हजारी	-9658
▁अष्टमी	-9659
▁जानबूझ	-9660
▁टेस्‍ट	-9661
▁ध्वस्त	-9662
▁फडणवीस	-9663
▁बीएसएफ	-9664
▁मांगें	-9665
▁रहेंगी	-9666
क्यूमेंट	-9667
▁अपकमिंग	-9668
▁कम्युनि	-9669
▁लाइब्रे	-9670
▁सोयाबीन	-9671
▁आध्यात्म	-9672
▁जहानाबाद	-9673
▁शैलेंद्र	-9674
22	-9675
:5	-9676
ot	-9677
pp	-9678
ग़	-9679
बि	-9680
बै	-9681
ैश	-9682
ase	-9683
क्य	-9684
बनी	-9685
हाग	-9686
▁चो	-9687
▁मृ	-9688
वर्ड	-9689
शाही	-9690
▁टोक	-9691
▁तीज	-9692
▁नसी	-9693
▁भाल	-9694
▁वॉल	-9695
▁सोह	-9696
ट्सएप	-9697
ांकित	-9698
ियर्स	-9699
▁एंटर	-9700
▁कलां	-9701
▁गोता	-9702
▁छत्र	-9703
▁तरफ़	-9704
▁मोति	-9705
▁यहाँ	-9706
▁सिमर	-9707
कॉप्टर	-9708
▁अंकुश	-9709
▁एडमिट	-9710
▁जागरण	-9711
▁जिंदल	-9712
▁ताबड़	-9713
▁दृश्य	-9714
▁नवजात	-9715
▁पुतला	-9716
▁भगदड़	-9717
▁मानने	-9718
▁समझाइ	-9719
▁सहरसा	-9720
▁अवसरों	-9721
▁आरएसएस	-9722
▁चालीसा	-9723
▁जलवायु	-9724
▁ज़रूरत	-9725
▁प्रिया	-9726
▁फ़िल्म	-9727
▁सिद्धि	-9728
▁अपेक्षा	-9729
▁विचारों	-9730
▁संभालने	-9731
▁अनिश्चित	-9732
▁बर्फबारी	-9733
▁बहिष्कार	-9734
▁ताबड़तोड़	-9735
▁डॉक्यूमेंट	-9736
▁जनप्रतिनिधि	-9737
डि	-9738
ank	-9739
पार	-9740
वरा	-9741
▁भद	-9742
पानी	-9743
रपुर	-9744
स्वा	-9745
▁नवी	-9746
▁भूख	-9747
▁हनी	-9748
ation	-9749
जेक्ट	-9750
▁आपसे	-9751
▁इनको	-9752
▁कारी	-9753
▁क्ले	-9754
▁दरों	-9755
▁पेंड	-9756
▁बारह	-9757
▁मतों	-9758
▁मन्न	-9759
▁माधव	-9760
▁यानि	-9761
▁शेखर	-9762
▁सुधा	-9763
ान्यास	-9764
▁कमाने	-9765
▁जंगली	-9766
▁जानवर	-9767
▁झज्जर	-9768
▁ढांचे	-9769
▁दिव्य	-9770
▁नाकाम	-9771
▁नाबाद	-9772
▁पर्चा	-9773
▁पूंजी	-9774
▁सीवान	-9775
ष्टीकरण	-9776
▁बढ़ेगा	-9777
▁मुनाफा	-9778
▁मौलाना	-9779
▁कानूनों	-9780
▁ज्वेलरी	-9781
▁विमानों	-9782
▁सशस्त्र	-9783
▁परिक्रमा	-9784
▁सावित्री	-9785
्रास्ट्रक्चर	-9786
17	-9787
GP	-9788
णे	-9789
▁.	-9790
द्व	-9791
▁औष	-9792
▁ठप	-9793
ईओवर	-9794
पंथी	-9795
ोरेट	-9796
▁450	-9797
▁आइड	-9798
▁आएं	-9799
▁कटे	-9800
▁कों	-9801
▁छतर	-9802
▁जौन	-9803
▁लिव	-9804
कालिक	-9805
ब्राह	-9806
ोत्रा	-9807
▁अर्घ	-9808
▁असाम	-9809
▁केबल	-9810
▁छपरा	-9811
▁जीरो	-9812
▁टंडन	-9813
▁पावन	-9814
▁बेका	-9815
▁मातृ	-9816
▁समिट	-9817
डमिंटन	-9818
▁किसने	-9819
▁डकैती	-9820
▁दामाद	-9821
▁बंगले	-9822
▁महासम	-9823
▁रुपया	-9824
▁लेफ्ट	-9825
▁सिग्न	-9826
▁ड्राइव	-9827
▁निवारण	-9828
▁बुलाने	-9829
▁महाप्र	-9830
▁स्मारक	-9831
▁हेलिकॉ	-9832
▁महाकुंभ	-9833
▁यूट्यूब	-9834
▁लेटेस्ट	-9835
▁स्टोरेज	-9836
▁फ्लाईओवर	-9837
▁रामनिवास	-9838
▁सहारनपुर	-9839
▁कॉलोनियों	-9840
▁शिलान्यास	-9841
▁कार्यालयों	-9842
▁व्यावसायिक	-9843
:0	-9844
rad	-9845
ईसी	-9846
एसी	-9847
थला	-9848
भवन	-9849
भुत	-9850
ोगे	-9851
्यर	-9852
▁Bo	-9853
▁खज	-9854
आरसी	-9855
पीसी	-9856
रेंज	-9857
रोपण	-9858
▁खेम	-9859
▁जड़	-9860
▁टेल	-9861
▁डीन	-9862
▁ढोल	-9863
▁दिग	-9864
▁नाक	-9865
▁नौज	-9866
▁वंश	-9867
▁इनकम	-9868
▁उठाई	-9869
▁कांस	-9870
▁झड़प	-9871
▁डाटा	-9872
▁बायो	-9873
▁ब्रा	-9874
▁साधु	-9875
▁दमदार	-9876
▁दरगाह	-9877
▁पकड़ी	-9878
▁बरतने	-9879
▁विद्र	-9880
▁अनुकूल	-9881
▁टाइम्स	-9882
▁डीआईजी	-9883
▁पड़ेगी	-9884
▁प्रभार	-9885
▁फिटनेस	-9886
▁बेकाबू	-9887
▁बेतिया	-9888
▁संबोधन	-9889
▁समूहों	-9890
▁उपेंद्र	-9891
▁कहासुनी	-9892
▁गिरिराज	-9893
▁घरवालों	-9894
▁टर्मिनल	-9895
▁डायवर्ट	-9896
▁रंगदारी	-9897
▁रिश्तों	-9898
▁वाणिज्य	-9899
▁सेरेमनी	-9900
▁डायरेक्ट	-9901
▁प्राइमरी	-9902
▁मवेशियों	-9903
▁श्रमिकों	-9904
▁प्रोत्साहन	-9905
▁हेलिकॉप्टर	-9906
▁हेलीकॉप्टर	-9907
▁प्रधानाचार्य	-9908
ँच	-9909
खु	-9910
ala	-9911
pur	-9912
ओसी	-9913
जित	-9914
दंड	-9915
मोल	-9916
▁जौ	-9917
कारो	-9918
दायत	-9919
ीकरण	-9920
▁उमा	-9921
▁कुम	-9922
▁कृत	-9923
▁जोश	-9924
▁नक्	-9925
▁नाह	-9926
▁बान	-9927
▁रेग	-9928
च्छेद	-9929
वाड़े	-9930
▁एमजी	-9931
▁गुड़	-9932
▁गोपी	-9933
▁ढाका	-9934
▁बगैर	-9935
▁बनाम	-9936
▁साहस	-9937
▁सिरे	-9938
▁अखबार	-9939
▁आवारा	-9940
▁कोल्ड	-9941
▁खंगाल	-9942
▁दस्तक	-9943
▁नेत्र	-9944
▁प्राय	-9945
▁बंगला	-9946
▁अलमारी	-9947
▁उड़ाने	-9948
▁कुशवाह	-9949
▁कोहराम	-9950
▁खुलासे	-9951
▁प्राइस	-9952
▁मुर्मू	-9953
▁रिक्शा	-9954
▁लूटपाट	-9955
▁समृद्ध	-9956
▁आरक्षित	-9957
▁कुत्तों	-9958
▁ग्रेजुए	-9959
▁तुम्हें	-9960
▁दिसम्बर	-9961
▁पौधरोपण	-9962
▁बनाएंगे	-9963
▁मनोरंजन	-9964
▁सावधानी	-9965
▁स्थिरता	-9966
▁आतिशबाजी	-9967
▁गुरप्रीत	-9968
▁जरूरतमंद	-9969
▁दुरुपयोग	-9970
▁बूंदाबांदी	-9971
▁परीक्षार्थी	-9972
ST	-9973
ंपल	-9974
ंसी	-9975
ओयू	-9976
ाइन	-9977
ेली	-9978
▁IM	-9979
ंखला	-9980
विदा	-9981
▁इस्	-9982
▁दार	-9983
▁रील	-9984
▁जातक	-9985
▁तालि	-9986
▁नवमी	-9987
▁नाली	-9988
▁बचाई	-9989
▁मिनी	-9990
▁मुक़	-9991
▁मुर्	-9992
▁शुरु	-9993
▁सबका	-9994
▁सहनी	-9995
▁सौदा	-9996
ज्ज्वल	-9997
पूर्ति	-9998
▁एक्टि	-9999
▁खुदाई	-10000
▁गुमशु	-10001
▁नॉर्थ	-10002
▁बनाती	-10003
▁बृजेश	-10004
▁सहारे	-10005
ग्राउंड	-10006
▁कुश्ती	-10007
▁जौनपुर	-10008
▁निभाया	-10009
▁प्रातः	-10010
▁मुंगेर	-10011
▁समझाइश	-10012
▁हिदायत	-10013
▁कर्तव्य	-10014
▁बैडमिंटन	-10015
▁गर्लफ्रेंड	-10016
-14	-10017
गाव	-10018
▁Ma	-10019
▁नन	-10020
ड़ाई	-10021
दानी	-10022
राइच	-10023
▁अधू	-10024
▁आगा	-10025
▁जुआ	-10026
▁बचत	-10027
▁यूथ	-10028
ंपर्क	-10029
ेलवाल	-10030
▁अंदा	-10031
▁काजल	-10032
▁ट्वि	-10033
▁वासी	-10034
▁सटीक	-10035
ेंशियल	-10036
▁2024)	-10037
▁खड़गे	-10038
▁जनहित	-10039
▁पूछने	-10040
▁बनाएं	-10041
▁भजनों	-10042
▁मिलीं	-10043
▁वस्तु	-10044
▁संतों	-10045
▁स्कैन	-10046
▁उद्यान	-10047
▁गवर्नर	-10048
▁ट्रेनी	-10049
▁बहराइच	-10050
▁लग्जरी	-10051
▁लिहाजा	-10052
▁सिकंदर	-10053
▁अहिरवार	-10054
▁कटारिया	-10055
▁पेंटिंग	-10056
▁बिगड़ने	-10057
▁वासियों	-10058
▁पोस्टिंग	-10059
▁समितियों	-10060
▁जन्मोत्सव	-10061
▁मिर्जापुर	-10062
▁सॉफ्टवेयर	-10063
▁आध्यात्मिक	-10064
▁पुरुषोत्तम	-10065
▁रजिस्ट्रार	-10066
▁कुरुक्षेत्र	-10067
▁अल्पसंख्यकों	-10068
,8	-10069
27	-10070
ैद	-10071
▁h	-10072
.10	-10073
गान	-10074
पीय	-10075
फीम	-10076
भाई	-10077
▁(6	-10078
ड्ढा	-10079
्रेम	-10080
▁खौफ	-10081
▁जुन	-10082
▁रोट	-10083
िड़की	-10084
▁NEET	-10085
▁अंशु	-10086
▁आकलन	-10087
▁उतना	-10088
▁ऊंची	-10089
▁जटिल	-10090
▁ताले	-10091
▁दलील	-10092
▁पिंड	-10093
▁बदली	-10094
▁बबलू	-10095
▁वेरि	-10096
▁स्पा	-10097
दाताओं	-10098
▁एडवाइ	-10099
▁कच्चे	-10100
▁कस्बा	-10101
▁जॉर्ज	-10102
▁पार्थ	-10103
▁बिरला	-10104
▁मायने	-10105
▁संयोग	-10106
▁स्टॉल	-10107
▁अंदाजा	-10108
▁करवाना	-10109
▁पंड्या	-10110
▁सत्तार	-10111
▁महाराजा	-10112
▁जनसंपर्क	-10113
▁त्रिवेदी	-10114
▁प्रेसिडेंट	-10115
▁सर्वश्रेष्ठ	-10116
ff	-10117
किर	-10118
भीत	-10119
शाम	-10120
सरा	-10121
ुली	-10122
ोहर	-10123
चूड़	-10124
डीएफ	-10125
्रता	-10126
▁आवक	-10127
▁नाच	-10128
▁बाप	-10129
▁मील	-10130
▁सीज	-10131
रलैंड	-10132
वरिया	-10133
वार्ड	-10134
्युरी	-10135
▁अफीम	-10136
▁किडन	-10137
▁चौके	-10138
▁जोकि	-10139
▁डंडे	-10140
▁तथ्य	-10141
▁नींव	-10142
▁भैंस	-10143
▁रंगे	-10144
▁सप्त	-10145
ुद्दीन	-10146
▁अकेला	-10147
▁कांके	-10148
▁गर्दन	-10149
▁गेम्स	-10150
▁प्लेस	-10151
▁समझते	-10152
▁हमलोग	-10153
बारियों	-10154
वादियों	-10155
▁अंधेरे	-10156
▁अग्निश	-10157
▁एसएमएस	-10158
▁नरसिंह	-10159
▁निकलते	-10160
▁परमिशन	-10161
▁बेरहमी	-10162
▁भाटिया	-10163
▁रिव्यू	-10164
▁संलिप्त	-10165
▁गुमशुदगी	-10166
▁फिरोजपुर	-10167
▁समुदायों	-10168
▁न्यूयॉर्क	-10169
▁मल्होत्रा	-10170
ec	-10171
ऑफ	-10172
लभ	-10173
शै	-10174
▁^	-10175
कल्	-10176
वाट	-10177
साफ	-10178
िटे	-10179
ुरू	-10180
▁टच	-10181
ideo	-10182
भद्र	-10183
मेंस	-10184
स्की	-10185
हिंद	-10186
िनार	-10187
▁माप	-10188
▁हॉट	-10189
किशोर	-10190
फोर्स	-10191
मैंने	-10192
विधान	-10193
ालियन	-10194
▁एनजी	-10195
▁ऑलरा	-10196
▁चाबी	-10197
▁झंडी	-10198
▁टूटे	-10199
▁नाका	-10200
▁पैरा	-10201
▁फर्क	-10202
▁मर्च	-10203
▁महुआ	-10204
▁मुकु	-10205
▁रीना	-10206
▁लेगी	-10207
▁अल्लू	-10208
▁आएंगी	-10209
▁इनपुट	-10210
▁एसओजी	-10211
▁छलांग	-10212
▁जताते	-10213
▁टास्क	-10214
▁बहाली	-10215
▁बेटों	-10216
▁मालवा	-10217
▁विक्ष	-10218
▁सीहोर	-10219
किस्तान	-10220
ब्राहिम	-10221
▁iPhone	-10222
▁खिड़की	-10223
▁गुजरने	-10224
▁गौशाला	-10225
▁चरित्र	-10226
▁ट्रॉली	-10227
▁तबादला	-10228
▁दिवंगत	-10229
▁राजपुर	-10230
▁लॉन्‍च	-10231
▁गालियां	-10232
▁फरियादी	-10233
▁महापर्व	-10234
▁मुखर्जी	-10235
▁स्कॉर्पियो	-10236
▁कारोबारियों	-10237
▁लोकतांत्रिक	-10238
आत	-10239
खो	-10240
ण्	-10241
बस	-10242
▁Z	-10243
▁k	-10244
-23	-10245
आईए	-10246
कता	-10247
सेट	-10248
,500	-10249
कमान	-10250
कूला	-10251
ज्ञा	-10252
▁(30	-10253
▁2.5	-10254
▁काफ	-10255
▁गगन	-10256
▁धरा	-10257
▁फ़ी	-10258
▁सरल	-10259
▁सरे	-10260
गाड़ी	-10261
▁एंगल	-10262
▁गर्भ	-10263
▁छुट्	-10264
▁निया	-10265
▁नीमच	-10266
▁हटाए	-10267
क्षकों	-10268
▁अंकों	-10269
▁कौशिक	-10270
▁प्रार	-10271
▁फ्लैग	-10272
▁महाजन	-10273
▁माथुर	-10274
▁रुकने	-10275
क्राफ्ट	-10276
▁कंटेनर	-10277
▁क़ानून	-10278
▁टैक्सी	-10279
▁बढ़ाना	-10280
▁बलिदान	-10281
▁विदिशा	-10282
▁वैक्सी	-10283
▁व्हाइट	-10284
........	-10285
▁दर्शाता	-10286
▁पंजीकृत	-10287
▁बेटियां	-10288
▁महाआरती	-10289
▁गाइडलाइन	-10290
▁गोपालगंज	-10291
▁प्रकोष्ठ	-10292
▁मोतिहारी	-10293
▁चंद्रचूड़	-10294
▁संवैधानिक	-10295
▁कॉम्प्लेक्स	-10296
धु	-10297
ant	-10298
टकर	-10299
निस	-10300
फ्ल	-10301
ूठी	-10302
▁71	-10303
▁डब	-10304
पटॉप	-10305
बिया	-10306
भूति	-10307
▁अनो	-10308
▁अमल	-10309
▁छठे	-10310
▁पिल	-10311
हरिया	-10312
ोरिया	-10313
▁किसे	-10314
▁क्षण	-10315
▁खरगे	-10316
▁छुपा	-10317
▁तिहा	-10318
▁दिये	-10319
▁दुरु	-10320
▁धुआं	-10321
▁पुनः	-10322
▁फैली	-10323
▁बाजी	-10324
▁मंथन	-10325
▁राजे	-10326
▁रुका	-10327
▁रोने	-10328
मेस्टर	-10329
संख्या	-10330
▁इनामी	-10331
▁छक्के	-10332
▁जातीय	-10333
▁ट्रोल	-10334
▁पर्दे	-10335
▁पर्वत	-10336
▁मोक्ष	-10337
▁सनसनी	-10338
▁अद्भुत	-10339
▁अर्घ्य	-10340
▁कुमावत	-10341
▁केमिकल	-10342
▁नारनौल	-10343
▁फिजिकल	-10344
▁पॉइंट्स	-10345
▁रास्तों	-10346
▁रेवन्ना	-10347
▁छात्राएं	-10348
▁त्रिपुरा	-10349
▁दावेदारी	-10350
▁बेरोजगार	-10351
▁रचनात्मक	-10352
▁पार्टियां	-10353
▁लाइब्रेरी	-10354
▁इंडस्ट्रीज	-10355
▁पूर्वोत्तर	-10356
▁मुजफ्फरनगर	-10357
▁सूर्यकुमार	-10358
ID	-10359
SE	-10360
st	-10361
घन	-10362
अगर	-10363
जपा	-10364
टकी	-10365
नरी	-10366
लास	-10367
लीट	-10368
लें	-10369
शहर	-10370
ोदा	-10371
▁On	-10372
किता	-10373
दायक	-10374
म्बे	-10375
ल्लभ	-10376
िटेज	-10377
▁Upd	-10378
ष्यंत	-10379
▁इंडी	-10380
▁केके	-10381
▁टीबी	-10382
▁डिटे	-10383
▁पढ़े	-10384
▁बाबर	-10385
▁बीपी	-10386
▁बीबी	-10387
▁भैरव	-10388
▁मुस्	-10389
▁रेणु	-10390
▁शंभू	-10391
▁सिरो	-10392
क्सीजन	-10393
▁उपवास	-10394
▁एकनाथ	-10395
▁कॉम्प	-10396
▁खुर्द	-10397
▁जानकी	-10398
▁देवता	-10399
▁धनंजय	-10400
▁फोटोज	-10401
▁विधिव	-10402
▁अनदेखी	-10403
▁कॉमर्स	-10404
▁टीएमसी	-10405
▁पलटवार	-10406
▁बनवाने	-10407
▁वोटर्स	-10408
▁सिर्फ़	-10409
▁इंग्लिश	-10410
▁औपचारिक	-10411
▁हेरिटेज	-10412
▁इब्राहिम	-10413
▁जानबूझकर	-10414
▁यूपीएससी	-10415
▁रामचंद्र	-10416
▁हरिद्वार	-10417
▁ड्राइविंग	-10418
▁दुर्भाग्य	-10419
▁महाकालेश्वर	-10420
28	-10421
ओल	-10422
मय	-10423
ist	-10424
फना	-10425
बेर	-10426
मोह	-10427
▁89	-10428
▁Am	-10429
▁ढे	-10430
ment	-10431
चेंज	-10432
जैसे	-10433
▁ASI	-10434
▁अंध	-10435
▁करन	-10436
▁झोप	-10437
▁टाल	-10438
▁डिस	-10439
▁तले	-10440
▁नफर	-10441
▁बृह	-10442
▁भुल	-10443
▁भुव	-10444
▁मुल	-10445
▁रैं	-10446
▁सटे	-10447
▁सता	-10448
▁होट	-10449
जिंदर	-10450
तावास	-10451
▁अकबर	-10452
▁इंटी	-10453
▁क्री	-10454
▁गंदा	-10455
▁चलें	-10456
▁चौबे	-10457
▁झंडे	-10458
▁टेंट	-10459
▁देशी	-10460
▁पीठा	-10461
▁मोनू	-10462
▁राइड	-10463
▁सब्ज	-10464
▁हिरण	-10465
पक्षीय	-10466
▁जरिये	-10467
▁व्हील	-10468
▁एसआईटी	-10469
▁किस्सा	-10470
▁जुड़ने	-10471
▁टुकड़े	-10472
▁दुश्मन	-10473
▁फिरौती	-10474
▁बाइडेन	-10475
▁बिल्डर	-10476
▁मारुति	-10477
▁राजभवन	-10478
▁सुखबीर	-10479
▁अनुशासन	-10480
▁पंचकूला	-10481
▁श्रीनगर	-10482
▁काउंटिंग	-10483
▁सर्विसेज	-10484
▁सेमेस्टर	-10485
▁अंग्रेजों	-10486
▁गवर्नमेंट	-10487
▁परिवर्तित	-10488
▁मॉर्च्युरी	-10489
अन	-10490
ुस	-10491
end	-10492
फिल	-10493
सतन	-10494
▁मठ	-10495
कर्ष	-10496
ार्स	-10497
▁कूट	-10498
▁टोट	-10499
▁नूर	-10500
▁भूक	-10501
▁मात	-10502
▁लात	-10503
▁वेश	-10504
▁सिग	-10505
▁सीम	-10506
लाइंस	-10507
वार्थ	-10508
▁अर्श	-10509
▁चरखी	-10510
▁झटके	-10511
▁ठंडा	-10512
▁धमका	-10513
▁ध्वज	-10514
▁बंटी	-10515
▁लायक	-10516
▁लोधी	-10517
▁वादे	-10518
▁सांग	-10519
▁सौंद	-10520
ध्यापक	-10521
र्डिंग	-10522
▁2024,	-10523
▁अवश्य	-10524
▁कराएं	-10525
▁कर्नल	-10526
▁ख़त्म	-10527
▁गायों	-10528
▁गिरफ़	-10529
▁घेराब	-10530
▁पैरवी	-10531
▁प्लाट	-10532
▁बांका	-10533
▁भवानी	-10534
▁मचाया	-10535
▁सेंसर	-10536
िस्ट्री	-10537
▁अनुपमा	-10538
▁पुख्ता	-10539
▁बुरहान	-10540
▁मुन्ना	-10541
▁मेवाड़	-10542
▁कपूरथला	-10543
▁विश्राम	-10544
▁शाहजहां	-10545
▁ईमानदारी	-10546
▁फोरेंसिक	-10547
▁प्रतिनिधिमंडल	-10548
आज	-10549
ओम	-10550
यो	-10551
00,	-10552
ish	-10553
ंते	-10554
घोष	-10555
डोल	-10556
थाम	-10557
िटर	-10558
ेलो	-10559
▁गन	-10560
काशी	-10561
प्रो	-10562
भगृह	-10563
ीनगर	-10564
ॉक्स	-10565
▁उभर	-10566
▁एपल	-10567
▁कसा	-10568
▁चूक	-10569
▁तंग	-10570
▁त्य	-10571
▁फेस	-10572
ग्रेड	-10573
न्यास	-10574
हाड़े	-10575
▁अनार	-10576
▁अफरा	-10577
▁कूलर	-10578
▁कोटे	-10579
▁ख़ान	-10580
▁चलकर	-10581
▁तेलु	-10582
▁नवाब	-10583
▁नारी	-10584
▁प्रम	-10585
▁मेहर	-10586
▁लेडी	-10587
▁लेबर	-10588
▁हीरा	-10589
श्चर्य	-10590
िन्द्र	-10591
▁कूड़ा	-10592
▁क्लिन	-10593
▁खेलना	-10594
▁जवाबी	-10595
▁डालते	-10596
▁दिखता	-10597
▁पीड़ा	-10598
▁प्याज	-10599
▁बताता	-10600
▁बताना	-10601
▁बनारस	-10602
▁युक्त	-10603
▁लिखते	-10604
▁सार्थ	-10605
▁स्वाद	-10606
▁आईसीसी	-10607
▁आडवाणी	-10608
▁जंगलों	-10609
▁त्यागी	-10610
▁निभाने	-10611
▁पांचों	-10612
▁पीएचडी	-10613
▁प्रशास	-10614
▁फ़ैसला	-10615
▁फिफ्टी	-10616
▁बोकारो	-10617
▁मुआवजे	-10618
▁लेनदेन	-10619
▁उपकरणों	-10620
▁दुष्यंत	-10621
▁पाण्डेय	-10622
▁बटालियन	-10623
▁अनुच्छेद	-10624
▁घेराबंदी	-10625
▁शादीशुदा	-10626
उड	-10627
-17	-10628
com	-10629
ice	-10630
घ्न	-10631
दीन	-10632
सां	-10633
▁फत	-10634
▁िक	-10635
ग्गी	-10636
यराम	-10637
र्वा	-10638
सिटी	-10639
ून्य	-10640
ौड़ा	-10641
्याय	-10642
▁आये	-10643
▁कंच	-10644
▁गरि	-10645
▁झूम	-10646
▁दया	-10647
▁धवन	-10648
▁फूट	-10649
▁फेर	-10650
▁बसा	-10651
▁रफी	-10652
▁सान	-10653
▁हकी	-10654
पर्सन	-10655
वाइडर	-10656
▁Modi	-10657
▁औसतन	-10658
▁कब्र	-10659
▁गोल्	-10660
▁पीली	-10661
▁फहरा	-10662
▁भाभी	-10663
▁मंचन	-10664
▁रिंग	-10665
▁संगत	-10666
▁सूचक	-10667
▁सैयद	-10668
ेश्याम	-10669
▁अनमोल	-10670
▁ऑरेंज	-10671
▁गिरीश	-10672
▁गोंडा	-10673
▁डेविड	-10674
▁पक्का	-10675
▁पर्दा	-10676
▁पाउडर	-10677
▁वर्कर	-10678
▁वैश्य	-10679
▁सिंगा	-10680
▁स्थाई	-10681
▁हल्दी	-10682
▁अग्रिम	-10683
▁अनुबंध	-10684
▁आईटीआई	-10685
▁आर्म्स	-10686
▁कमांडर	-10687
▁कारगिल	-10688
▁ग्रेटर	-10689
▁डिब्बे	-10690
▁विधिवत	-10691
▁सियासत	-10692
▁स्टारर	-10693
▁क्रांति	-10694
▁गर्भगृह	-10695
▁चौरसिया	-10696
▁दूतावास	-10697
▁रिएक्शन	-10698
▁चित्रकूट	-10699
▁झालावाड़	-10700
▁टेस्टिंग	-10701
▁निर्देशों	-10702
▁महानिदेशक	-10703
__	-10704
tt	-10705
हद	-10706
ूद	-10707
खाव	-10708
गोल	-10709
जीर	-10710
यना	-10711
सौर	-10712
जाना	-10713
ल्यू	-10714
ांगण	-10715
ायूं	-10716
िक्ट	-10717
▁Pol	-10718
▁खरग	-10719
▁चैं	-10720
▁टेम	-10721
▁वक़	-10722
भक्ति	-10723
रोड़ी	-10724
‍यादा	-10725
▁अनुश	-10726
▁आरंभ	-10727
▁एक्‍	-10728
▁गंवा	-10729
▁गोलू	-10730
▁गोवि	-10731
▁नफरत	-10732
▁लेखक	-10733
▁विद्	-10734
▁आईपीओ	-10735
▁खरीदे	-10736
▁संतान	-10737
▁इच्छुक	-10738
▁किडनैप	-10739
▁छतरपुर	-10740
▁तेंदुआ	-10741
▁बाईपास	-10742
▁आश्चर्य	-10743
▁ज्‍यादा	-10744
▁दुरुस्त	-10745
▁प्रांगण	-10746
▁मलेरिया	-10747
▁विवेकान	-10748
▁स्पर्धा	-10749
▁अग्निशमन	-10750
▁निमंत्रण	-10751
▁प्रीमियर	-10752
▁विकासखंड	-10753
▁अब्दुल्ला	-10754
▁परिस्थिति	-10755
▁राधेश्याम	-10756
▁हनुमानगढ़	-10757
▁सुल्तानपुर	-10758
3,	-10759
ee	-10760
अब	-10761
केल	-10762
ृता	-10763
▁थै	-10764
खिला	-10765
बीटी	-10766
लोकन	-10767
ांडी	-10768
▁160	-10769
▁ईशा	-10770
▁प्य	-10771
इजेशन	-10772
क्कड़	-10773
▁1999	-10774
▁अमान	-10775
▁पाती	-10776
▁पीआर	-10777
▁भागे	-10778
▁भ्रम	-10779
▁महाल	-10780
▁लगीं	-10781
प्लांट	-10782
▁आजीवन	-10783
▁उल्टी	-10784
▁कुंवर	-10785
▁गरिमा	-10786
▁छुड़ा	-10787
▁दत्ता	-10788
▁नम्बर	-10789
▁पटाखे	-10790
▁बर्तन	-10791
▁मान्य	-10792
▁वर्कश	-10793
▁शासित	-10794
▁सिंधी	-10795
▁अवलोकन	-10796
▁नवम्बर	-10797
▁पुष्कर	-10798
▁फिल्मी	-10799
▁मनुष्य	-10800
▁समर्पण	-10801
▁सातवें	-10802
प्रदायिक	-10803
स्ट्रियल	-10804
▁अभिनंदन	-10805
▁गोताखोर	-10806
▁जनजातीय	-10807
▁दावेदार	-10808
▁पहाड़ों	-10809
▁मुस्कान	-10810
▁रैंकिंग	-10811
▁लुटेरों	-10812
▁सीतापुर	-10813
▁सौंदर्य	-10814
▁खंडेलवाल	-10815
▁विश्लेषण	-10816
▁होर्डिंग	-10817
राष्ट्रपति	-10818
▁संपत्तियों	-10819
▁उत्तरप्रदेश	-10820
26	-10821
7,	-10822
og	-10823
दनी	-10824
फ़ा	-10825
भगत	-10826
यंस	-10827
विद	-10828
िमल	-10829
▁अच	-10830
▁छि	-10831
▁पख	-10832
ज्जू	-10833
मोचन	-10834
शीटर	-10835
ष्का	-10836
ाइजी	-10837
ैतिक	-10838
▁SUV	-10839
▁गोक	-10840
▁छुट	-10841
▁बरस	-10842
▁रुझ	-10843
▁शमी	-10844
▁सहज	-10845
न्नति	-10846
▁5000	-10847
▁असफल	-10848
▁गंदे	-10849
▁जयंत	-10850
▁जांग	-10851
▁जिता	-10852
▁जूते	-10853
▁थ्रो	-10854
▁पाना	-10855
▁बंदी	-10856
▁मेजर	-10857
▁विगत	-10858
▁शुगर	-10859
▁संगम	-10860
शिंगटन	-10861
▁अडानी	-10862
▁अर्जी	-10863
▁किडनी	-10864
▁चलाता	-10865
▁जयराम	-10866
▁तड़के	-10867
▁नैतिक	-10868
▁पंवार	-10869
▁पैरों	-10870
▁बहुजन	-10871
▁बेसिक	-10872
▁बोल्ड	-10873
▁यंत्र	-10874
▁राशिद	-10875
▁रोककर	-10876
▁लिखने	-10877
▁वक्ता	-10878
▁शिरकत	-10879
▁संप्र	-10880
▁संभवत	-10881
▁साकार	-10882
▁साहेब	-10883
वाधिकार	-10884
▁अंकिता	-10885
▁कांस्य	-10886
▁कॉमेडी	-10887
▁चर्चित	-10888
▁मधुबनी	-10889
▁रोकथाम	-10890
▁वर्गों	-10891
▁इकोनॉमी	-10892
▁गणमान्य	-10893
▁गोविंदा	-10894
▁पांड्या	-10895
▁संभागीय	-10896
▁सम्पन्न	-10897
▁आर्टिस्ट	-10898
▁इंजेक्शन	-10899
▁पॉलिटिकल	-10900
▁प्रतिस्प	-10901
▁रक्षाबंधन	-10902
▁द्विपक्षीय	-10903
LA	-10904
जत	-10905
ोब	-10906
ard	-10907
ers	-10908
ies	-10909
ore	-10910
प्‍	-10911
सूद	-10912
ूडो	-10913
ैनी	-10914
ोहण	-10915
्वा	-10916
▁of	-10917
▁फौ	-10918
एनजी	-10919
केला	-10920
बड़ा	-10921
स्ला	-10922
ारसी	-10923
िसिस	-10924
▁180	-10925
▁आंश	-10926
▁इमो	-10927
▁गनी	-10928
▁धाक	-10929
▁नकल	-10930
▁पूज	-10931
▁बुआ	-10932
▁बोझ	-10933
▁मुइ	-10934
▁वसु	-10935
द्दाख	-10936
पुरुष	-10937
मानंद	-10938
▁अकाल	-10939
▁आरजी	-10940
▁ईमेल	-10941
▁कैडर	-10942
▁कैदी	-10943
▁चार्	-10944
▁चेतन	-10945
▁दवाई	-10946
▁देओल	-10947
▁नगदी	-10948
▁बेला	-10949
▁माले	-10950
▁रोटी	-10951
▁वासु	-10952
▁साधन	-10953
क्षत्र	-10954
▁India	-10955
▁उपहार	-10956
▁उरांव	-10957
▁कमरों	-10958
▁चौड़ी	-10959
▁जीवित	-10960
▁भवनों	-10961
▁भावुक	-10962
▁महंगे	-10963
▁सजावट	-10964
▁सीखने	-10965
▁हारने	-10966
▁अररिया	-10967
▁आरपीएफ	-10968
▁एस्टेट	-10969
▁किंग्स	-10970
▁गोल्डन	-10971
▁गोशाला	-10972
▁बायपास	-10973
▁मनरेगा	-10974
▁मानवीय	-10975
▁मोटर्स	-10976
▁रुपयों	-10977
▁एक्टिवा	-10978
▁डिस्ट्र	-10979
▁मोर्चरी	-10980
▁वस्तुओं	-10981
▁झाड़ियों	-10982
▁बुरहानपुर	-10983
▁मानवाधिकार	-10984
46	-10985
IC	-10986
IP	-10987
im	-10988
uk	-10989
इए	-10990
पह	-10991
ंशी	-10992
इंद	-10993
न्ग	-10994
वैल	-10995
ूढ़	-10996
▁शृ	-10997
छोटे	-10998
टावा	-10999
मच्छ	-11000
मैया	-11001
र्ता	-11002
वाइन	-11003
सनीय	-11004
िप्ट	-11005
ेक्स	-11006
▁Ind	-11007
▁असा	-11008
▁नगद	-11009
▁पूर	-11010
▁लाह	-11011
▁लीज	-11012
खास्त	-11013
प्राइ	-11014
ोरियम	-11015
▁आगाज	-11016
▁उठने	-11017
▁एनाल	-11018
▁ग्री	-11019
▁घातक	-11020
▁जादू	-11021
▁धुंध	-11022
▁पादु	-11023
▁मंगा	-11024
▁स्ली	-11025
▁हमसे	-11026
ड्रिंग	-11027
निर्भर	-11028
▁अबोहर	-11029
▁आरटीओ	-11030
▁कीमती	-11031
▁क्रमश	-11032
▁चैंबर	-11033
▁जेडीए	-11034
▁फेंका	-11035
▁मम्मी	-11036
▁सहकार	-11037
▁सुपौल	-11038
वेन्द्र	-11039
▁जायेगी	-11040
▁बर्थडे	-11041
▁बैठाकर	-11042
▁मजबूरी	-11043
▁लैपटॉप	-11044
▁शहीदों	-11045
▁सार्थक	-11046
▁सिग्नल	-11047
▁तालिबान	-11048
▁सराहनीय	-11049
▁हरियाली	-11050
▁अनुष्ठान	-11051
▁जनसंख्या	-11052
▁बालिकाओं	-11053
▁रेजिडेंट	-11054
▁सिंगापुर	-11055
▁सुप्रीमो	-11056
▁निशानदेही	-11057
▁प्रोफेशनल	-11058
▁विवेकानंद	-11059
▁इंडस्ट्रियल	-11060
▁कनेक्टिविटी	-11061
▁प्रस्तुतियां	-11062
4,	-11063
wal	-11064
क्ल	-11065
खलन	-11066
खला	-11067
बहन	-11068
महल	-11069
ातु	-11070
▁Go	-11071
▁तौ	-11072
टाने	-11073
ताशा	-11074
िलेश	-11075
ुपति	-11076
▁जनक	-11077
▁नमू	-11078
▁नैन	-11079
▁मधे	-11080
विलास	-11081
ांतिक	-11082
ियारा	-11083
िल्या	-11084
▁गाजा	-11085
▁चंदा	-11086
▁टावर	-11087
▁टूटी	-11088
▁ताना	-11089
▁वर्ण	-11090
▁विंड	-11091
▁सारण	-11092
▁सीवर	-11093
पतियों	-11094
ानियां	-11095
▁अभिनय	-11096
▁अभिनव	-11097
▁अय्यर	-11098
▁कच्ची	-11099
▁देवगन	-11100
▁पाएगी	-11101
▁प्रथा	-11102
▁प्रसव	-11103
▁प्रात	-11104
▁विजिट	-11105
▁शिमला	-11106
▁शून्य	-11107
▁संसाध	-11108
▁सिक्स	-11109
▁अवार्ड	-11110
▁अस्थाई	-11111
▁कीमतें	-11112
▁गुमराह	-11113
▁नवाचार	-11114
▁बांटने	-11115
▁भिड़ंत	-11116
▁सितारे	-11117
▁सिरोही	-11118
▁सीआरपी	-11119
▁चंद्रमा	-11120
▁पंचनामा	-11121
▁लड़ेंगे	-11122
▁अस्तित्व	-11123
▁पाइपलाइन	-11124
▁प्रकरणों	-11125
▁बर्खास्त	-11126
▁योगेंद्र	-11127
▁वारदातों	-11128
▁प्रतियोगिताओं	-11129
ub	-11130
वह	-11131
ush	-11132
दित	-11133
न्त	-11134
मोर	-11135
रूर	-11136
ूला	-11137
▁SC	-11138
आरआई	-11139
कुशी	-11140
डीजल	-11141
र्नर	-11142
वैसी	-11143
▁Mar	-11144
▁आदत	-11145
▁गोव	-11146
▁घटी	-11147
▁नास	-11148
▁परश	-11149
▁बख्	-11150
▁मशी	-11151
▁राग	-11152
▁वाम	-11153
्यूशन	-11154
▁अनवर	-11155
▁आश्र	-11156
▁कृति	-11157
▁ख़बर	-11158
▁ख़ास	-11159
▁चांस	-11160
▁डीजी	-11161
▁तरुण	-11162
▁दीर्	-11163
▁पौधा	-11164
▁बताओ	-11165
▁लेखा	-11166
▁सबकी	-11167
कल्याण	-11168
ताब्दी	-11169
▁इजाजत	-11170
▁चचेरे	-11171
▁दावों	-11172
▁दिखाए	-11173
▁पटाखा	-11174
▁पन्ना	-11175
▁प्रां	-11176
▁बिंदु	-11177
▁भूकंप	-11178
▁माधवी	-11179
▁वायरस	-11180
▁आदेशों	-11181
▁एसबीआई	-11182
▁नारियल	-11183
▁प्रकोप	-11184
▁बादलों	-11185
▁बादशाह	-11186
▁यशस्वी	-11187
▁रामनगर	-11188
▁संरचना	-11189
▁किताबें	-11190
▁किरोड़ी	-11191
▁बेसमेंट	-11192
▁शाजापुर	-11193
▁संक्रमण	-11194
▁सिक्किम	-11195
▁सेमिनार	-11196
▁उपलब्धता	-11197
▁प्रतिद्व	-11198
▁बृहस्पति	-11199
▁शिवकुमार	-11200
▁नगरपालिका	-11201
▁मुश्किलें	-11202
▁रिलेशनशिप	-11203
▁कैंडिडेट्स	-11204
▁व्यवस्थाएं	-11205
▁आत्मविश्वास	-11206
▁ट्रांसप्लांट	-11207
se	-11208
ौप	-11209
ast	-11210
घात	-11211
ेंग	-11212
▁3,	-11213
चाना	-11214
ोड़ा	-11215
▁अवर	-11216
▁इंट	-11217
▁घों	-11218
▁चना	-11219
▁जात	-11220
▁तुष	-11221
▁नॉम	-11222
▁पदो	-11223
▁वॉर	-11224
अंदाज	-11225
काउंट	-11226
नीतिक	-11227
भाजपा	-11228
श्योर	-11229
स्खलन	-11230
ुनवाई	-11231
▁कंवर	-11232
▁केएल	-11233
▁कैथल	-11234
▁दिना	-11235
▁पीकर	-11236
▁प्रच	-11237
▁बकरी	-11238
▁शैली	-11239
कप्तान	-11240
गठबंधन	-11241
ढ़ियों	-11242
स्तरीय	-11243
स्वरूप	-11244
▁अड्डा	-11245
▁क्लिप	-11246
▁गोमती	-11247
▁चक्का	-11248
▁निजात	-11249
▁पंचमी	-11250
▁पक्षी	-11251
▁पैक्स	-11252
▁मैक्स	-11253
▁लगेगी	-11254
▁विश्न	-11255
▁सुप्र	-11256
▁इंडिगो	-11257
▁उपरांत	-11258
▁प्रवचन	-11259
▁फ्रेंड	-11260
▁लगेंगे	-11261
▁लोहिया	-11262
▁अभिभावक	-11263
▁एक्टर्स	-11264
▁छिड़काव	-11265
▁नक्षत्र	-11266
▁मगरमच्छ	-11267
▁विक्षोभ	-11268
▁विदेशों	-11269
▁सुपुर्द	-11270
▁एक्सचेंज	-11271
▁नौकरियों	-11272
▁पक्षियों	-11273
▁रिपब्लिक	-11274
▁व्यवसायी	-11275
▁संसाधनों	-11276
▁भावनात्मक	-11277
▁फ्रेंचाइजी	-11278
▁डेमोक्रेटिक	-11279
▁हिस्ट्रीशीटर	-11280
29	-11281
ढे	-11282
.05	-11283
ary	-11284
बोट	-11285
मेन	-11286
राई	-11287
सेल	-11288
िनस	-11289
▁2,	-11290
▁नट	-11291
▁सभ	-11292
गंगा	-11293
्वित	-11294
▁ICC	-11295
▁एपी	-11296
▁कुं	-11297
▁कोष	-11298
▁टॉय	-11299
▁डाम	-11300
▁देह	-11301
▁पैं	-11302
▁प्‍	-11303
▁शौक	-11304
टेंशन	-11305
िम्मे	-11306
▁कटाई	-11307
▁काटे	-11308
▁खाटू	-11309
▁टीजर	-11310
▁ढाणी	-11311
▁दंते	-11312
▁पोते	-11313
▁बहाव	-11314
▁बाएं	-11315
▁बागी	-11316
▁बिछा	-11317
▁बोरी	-11318
▁यूएस	-11319
▁सम्ब	-11320
ाहियों	-11321
▁आंखें	-11322
▁इत्या	-11323
▁ओवैसी	-11324
▁खरगोन	-11325
▁गरीबी	-11326
▁जलाकर	-11327
▁ट्यूब	-11328
▁नाजुक	-11329
▁बैरवा	-11330
▁ब्रेन	-11331
▁महंगी	-11332
▁राजने	-11333
▁वर्जन	-11334
▁संक्र	-11335
▁सिवनी	-11336
▁स्टंट	-11337
▁हकीकत	-11338
▁अर्धशत	-11339
▁आरबीआई	-11340
▁उच्चतम	-11341
▁पीजीआई	-11342
▁बीसीसी	-11343
▁सावधान	-11344
▁सुशांत	-11345
▁कराएंगे	-11346
▁कामयाबी	-11347
▁कैलेंडर	-11348
▁फॉर्मेट	-11349
▁मधेपुरा	-11350
▁योग्यता	-11351
▁वेलफेयर	-11352
▁व्याप्त	-11353
▁जनसुनवाई	-11354
▁पेरेंट्स	-11355
▁उपलब्धियों	-11356
▁बलौदाबाजार	-11357
▁स्पष्टीकरण	-11358
▁विश्वविद्यालयों	-11359
PF	-11360
▁e	-11361
ain	-11362
गर्	-11363
बां	-11364
ब्ब	-11365
chan	-11366
ंगिक	-11367
आरएस	-11368
देशी	-11369
माला	-11370
ासना	-11371
ोकाम	-11372
्लाई	-11373
▁140	-11374
▁Kap	-11375
▁ऑर्	-11376
▁छठी	-11377
▁यूं	-11378
▁वाद	-11379
▁समन	-11380
िलेंस	-11381
▁चूरू	-11382
▁दशरथ	-11383
▁दस्त	-11384
▁बिगा	-11385
▁बिजन	-11386
▁भराव	-11387
▁मन्द	-11388
▁व्यय	-11389
▁हड़प	-11390
▁अटेंड	-11391
▁अदिति	-11392
▁आगजनी	-11393
▁उपखंड	-11394
▁एमओयू	-11395
▁किस्म	-11396
▁केबिन	-11397
▁बूंदी	-11398
▁मक्का	-11399
▁मूर्त	-11400
▁लौटते	-11401
▁संवेद	-11402
▁अपनाया	-11403
▁खुफिया	-11404
▁चंपारण	-11405
▁डाक्टर	-11406
▁दूल्हे	-11407
▁निवेशक	-11408
▁बदायूं	-11409
▁मशीनों	-11410
▁महासंघ	-11411
▁रामदेव	-11412
▁लद्दाख	-11413
▁विमोचन	-11414
▁शर्तों	-11415
▁शुरूआत	-11416
▁सीबीएस	-11417
▁अहिल्या	-11418
▁ऑक्सीजन	-11419
▁क्रिसमस	-11420
▁दवाइयां	-11421
▁परफॉर्म	-11422
▁भूस्खलन	-11423
▁वर्कशॉप	-11424
▁वैक्सीन	-11425
▁आकांक्षा	-11426
▁चंद्राकर	-11427
▁प्रीमियम	-11428
▁विजेताओं	-11429
▁सत्तारूढ़	-11430
▁स्टार्टअप	-11431
▁आत्मनिर्भर	-11432
DP	-11433
if	-11434
एब	-11435
कई	-11436
ata	-11437
oor	-11438
उधर	-11439
कपा	-11440
जीन	-11441
िपु	-11442
ूकी	-11443
▁86	-11444
चढ़ा	-11445
डाणी	-11446
ब्बत	-11447
सर्स	-11448
हलाद	-11449
ार्द	-11450
िलित	-11451
ौपदी	-11452
्यां	-11453
▁ऑब्	-11454
▁कठि	-11455
▁चैट	-11456
▁नये	-11457
▁बिस	-11458
▁महू	-11459
▁रैल	-11460
▁लपट	-11461
बिहार	-11462
मित्र	-11463
ौरिया	-11464
▁(22)	-11465
▁(25)	-11466
▁अराज	-11467
▁असंत	-11468
▁उत्स	-11469
▁एकदम	-11470
▁छोटू	-11471
▁प्रॉ	-11472
▁फीडर	-11473
▁बहला	-11474
▁बीएच	-11475
▁महत्	-11476
▁मातम	-11477
▁रिसी	-11478
▁सगाई	-11479
▁स्वर	-11480
कल्पिक	-11481
जारोहण	-11482
ाचार्य	-11483
▁अकेली	-11484
▁अक्षर	-11485
▁छुट्ट	-11486
▁तुषार	-11487
▁दर्शक	-11488
▁पहनने	-11489
▁फाइटर	-11490
▁बिजने	-11491
▁माल्य	-11492
▁लूटने	-11493
▁सस्ते	-11494
▁साहनी	-11495
▁स्वर्	-11496
ियोग्रा	-11497
▁कमलनाथ	-11498
▁खरीदना	-11499
▁ड्रामा	-11500
▁ताइवान	-11501
▁दीक्षा	-11502
▁पत्रों	-11503
▁पहलवान	-11504
▁प्रवाह	-11505
▁मनोकाम	-11506
▁मेहंदी	-11507
▁वेडिंग	-11508
▁अस्थायी	-11509
▁इत्यादि	-11510
▁द्रौपदी	-11511
▁परशुराम	-11512
▁पहुंचना	-11513
▁प्रियां	-11514
▁विश्नोई	-11515
▁हाजीपुर	-11516
▁जन्मभूमि	-11517
▁निर्णायक	-11518
▁वैकल्पिक	-11519
▁सम्मिलित	-11520
▁हजारीबाग	-11521
▁नकारात्मक	-11522
▁काउंसिलिंग	-11523
▁कॉर्पोरेशन	-11524
▁बांग्लादेशी	-11525
▁सांप्रदायिक	-11526
BC	-11527
SF	-11528
और	-11529
डो	-11530
ेष	-11531
.00	-11532
ort	-11533
कोण	-11534
दूर	-11535
संच	-11536
▁91	-11537
▁ओं	-11538
▁चट	-11539
बेटी	-11540
राने	-11541
रोहर	-11542
विका	-11543
ासरा	-11544
ुहान	-11545
्यूट	-11546
▁इंप	-11547
▁खंभ	-11548
▁नवल	-11549
▁नां	-11550
▁बगी	-11551
▁बरन	-11552
▁माफ	-11553
▁रेश	-11554
▁सरफ	-11555
लाइका	-11556
ल्लाह	-11557
िगेशन	-11558
▁(35)	-11559
▁इटली	-11560
▁ईसाई	-11561
▁कटाव	-11562
▁कोसी	-11563
▁गुला	-11564
▁चंबल	-11565
▁जांज	-11566
▁नीतू	-11567
▁भालू	-11568
▁रोते	-11569
▁समाह	-11570
▁सलाम	-11571
▁हलचल	-11572
फैक्चर	-11573
▁अवशेष	-11574
▁कच्चा	-11575
▁कट्टर	-11576
▁कुणाल	-11577
▁कैम्प	-11578
▁चावला	-11579
▁जिनको	-11580
▁टेम्प	-11581
▁भत्ता	-11582
▁रिफाइ	-11583
▁वक़्त	-11584
▁सिराज	-11585
▁स्किल	-11586
▁हाजिर	-11587
दर्शिता	-11588
▁अवस्थी	-11589
▁आईएमडी	-11590
▁गोपनीय	-11591
▁जुर्मा	-11592
▁धमकाया	-11593
▁नर्सरी	-11594
▁न्यूज़	-11595
▁पिछड़े	-11596
▁बनवाया	-11597
▁मलाइका	-11598
▁मानकों	-11599
▁यादगार	-11600
▁रिजवान	-11601
▁रुद्रा	-11602
▁लगवाने	-11603
▁सौंपने	-11604
▁हादसों	-11605
श्योरेंस	-11606
▁अमृतपाल	-11607
▁खुदकुशी	-11608
▁टूरिस्ट	-11609
▁डिवाइडर	-11610
▁धमकियां	-11611
▁पांचवीं	-11612
▁प्रहलाद	-11613
▁राजनयिक	-11614
▁विवेचना	-11615
▁सुधारने	-11616
▁हरप्रीत	-11617
▁एक्टिविटी	-11618
▁चेयरपर्सन	-11619
▁जितेन्द्र	-11620
▁माल्यार्पण	-11621
▁लॉन्ड्रिंग	-11622
'।	-11623
,"	-11624
OS	-11625
कश	-11626
.75	-11627
गाम	-11628
डे़	-11629
वटी	-11630
ाजल	-11631
▁7,	-11632
▁डल	-11633
डीएस	-11634
न्नू	-11635
▁आहत	-11636
▁एलन	-11637
▁करत	-11638
▁कुच	-11639
▁जेठ	-11640
▁दुआ	-11641
▁नमक	-11642
▁मीट	-11643
▁रॉड	-11644
▁वान	-11645
रेटिव	-11646
र्माण	-11647
िंदगी	-11648
ॉरिटी	-11649
▁उठकर	-11650
▁एनसी	-11651
▁कोमल	-11652
▁दृढ़	-11653
▁पंखे	-11654
▁पल्ल	-11655
▁फोड़	-11656
▁मण्ड	-11657
दहाड़े	-11658
मेंट्स	-11659
ानियों	-11660
▁आंशिक	-11661
▁कल्चर	-11662
▁चंपाई	-11663
▁छावनी	-11664
▁दौड़ा	-11665
▁बदलते	-11666
▁बैलेट	-11667
▁महिमा	-11668
▁रणधीर	-11669
▁वल्लभ	-11670
▁विनीत	-11671
▁गलियों	-11672
▁ज़रूरी	-11673
▁बाइपास	-11674
▁बुद्धि	-11675
▁मनमानी	-11676
▁व्हीकल	-11677
▁जांजगीर	-11678
▁ब्रह्मा	-11679
▁सांगाने	-11680
▁स्ट्रीम	-11681
स्ट्रक्शन	-11682
▁ऑलराउंडर	-11683
▁ओवरब्रिज	-11684
▁जानकारों	-11685
▁जुर्माने	-11686
▁होमगार्ड	-11687
▁ध्वजारोहण	-11688
▁भुवनेश्वर	-11689
▁पर्यवेक्षक	-11690
▁स्क्रीनिंग	-11691
QI	-11692
छे	-11693
पि	-11694
ौद	-11695
-50	-11696
200	-11697
समी	-11698
ोकर	-11699
्ये	-11700
▁AD	-11701
▁जप	-11702
पकों	-11703
मेरा	-11704
मोदी	-11705
िपाल	-11706
▁Wor	-11707
▁उषा	-11708
▁खपत	-11709
▁खीर	-11710
▁जना	-11711
▁भूत	-11712
▁रौन	-11713
▁सलू	-11714
जाबाद	-11715
स्तीन	-11716
▁1996	-11717
▁एपिस	-11718
▁किला	-11719
▁कैसी	-11720
▁जामा	-11721
▁पिंज	-11722
▁फ़ीस	-11723
▁फैसल	-11724
▁बनीं	-11725
▁मंशा	-11726
▁रौंद	-11727
▁हलके	-11728
▁हारे	-11729
स्थानी	-11730
स्‍तान	-11731
्हाड़ी	-11732
▁इटावा	-11733
▁जसवंत	-11734
▁जालसा	-11735
▁ट्रीट	-11736
▁धरोहर	-11737
▁नॉर्म	-11738
▁ब्लाक	-11739
▁मिडिल	-11740
▁रस्सी	-11741
▁रीजनल	-11742
▁विजयी	-11743
▁हार्ड	-11744
▁अन्याय	-11745
▁कंटेंट	-11746
▁कड़ाके	-11747
▁भंडारे	-11748
▁रोहिणी	-11749
▁वीआईपी	-11750
▁सुखदेव	-11751
▁प्रवासी	-11752
▁व्यायाम	-11753
▁संन्यास	-11754
▁एयरलाइंस	-11755
▁श्रृंखला	-11756
▁परीक्षाएं	-11757
▁बिजनेसमैन	-11758
▁महागठबंधन	-11759
▁प्रोड्यूसर	-11760
▁महालक्ष्मी	-11761
▁उपराष्ट्रपति	-11762
▁निर्देशानुसार	-11763
33	-11764
tor	-11765
कली	-11766
जरत	-11767
थपथ	-11768
नाग	-11769
बला	-11770
▁कद	-11771
▁धै	-11772
▁मझ	-11773
▁हब	-11774
ALSO	-11775
ंकार	-11776
खण्ड	-11777
पीजी	-11778
मेरे	-11779
रखाव	-11780
स्ति	-11781
▁RSS	-11782
▁इक्	-11783
▁कत्	-11784
▁कया	-11785
▁किट	-11786
▁क्‍	-11787
▁गड्	-11788
▁डोट	-11789
▁दबद	-11790
▁पीस	-11791
▁मसी	-11792
▁मुफ	-11793
▁रेख	-11794
िकाने	-11795
▁2500	-11796
▁उतनी	-11797
▁ऊंचा	-11798
▁कर्ण	-11799
▁चलिए	-11800
▁जिया	-11801
▁ड्रॉ	-11802
▁यकीन	-11803
▁लथपथ	-11804
▁सौगा	-11805
नाइटेड	-11806
▁अडाणी	-11807
▁गनीमत	-11808
▁धैर्य	-11809
▁पलायन	-11810
▁बेस्ड	-11811
▁भगवती	-11812
▁मराठी	-11813
▁राजभर	-11814
▁रॉकेट	-11815
▁सट्टा	-11816
▁सरसों	-11817
▁साधते	-11818
रादित्य	-11819
▁आइडिया	-11820
▁गंगाजल	-11821
▁चिंतित	-11822
▁ट्रम्प	-11823
▁दिगंबर	-11824
▁निराशा	-11825
▁प्रोटे	-11826
▁बिजनौर	-11827
▁महामंड	-11828
▁मानवता	-11829
▁मालिनी	-11830
▁मिलावट	-11831
▁अथॉरिटी	-11832
▁क्लिनिक	-11833
▁दीनदयाल	-11834
▁प्रेग्न	-11835
▁मर्चेंट	-11836
▁महाराणा	-11837
▁सुपरवाइ	-11838
▁सहकारिता	-11839
▁कुल्हाड़ी	-11840
▁चक्रवर्ती	-11841
▁दिनदहाड़े	-11842
▁नारायणपुर	-11843
▁मार्केटिंग	-11844
▁ज्योतिरादित्य	-11845
CA	-11846
खू	-11847
ess	-11848
तिल	-11849
तृक	-11850
देय	-11851
नेज	-11852
फ़े	-11853
संघ	-11854
गांठ	-11855
च्छा	-11856
दकोट	-11857
बर्स	-11858
राथन	-11859
ुप्त	-11860
्नवी	-11861
्मति	-11862
▁2-2	-11863
▁आरओ	-11864
▁इका	-11865
▁ग्ल	-11866
▁थार	-11867
▁नाट	-11868
▁रीड	-11869
ंताओं	-11870
चढ़ाव	-11871
स्करण	-11872
ोनिया	-11873
ोलिया	-11874
▁1200	-11875
▁2006	-11876
▁news	-11877
▁कंचन	-11878
▁कालू	-11879
▁देवा	-11880
▁नीयत	-11881
▁फार्	-11882
▁बॉबी	-11883
▁बोनस	-11884
▁मुहर	-11885
▁अफेयर	-11886
▁अमृता	-11887
▁आवेदक	-11888
▁टेनिस	-11889
▁डीएवी	-11890
▁पैतृक	-11891
▁लड़ना	-11892
▁स्मैक	-11893
▁हरिओम	-11894
▁अधिकृत	-11895
▁अभिजीत	-11896
▁अमरनाथ	-11897
▁कारीगर	-11898
▁ग्रैंड	-11899
▁चाइल्ड	-11900
▁पीसीसी	-11901
▁पूनिया	-11902
▁पैटर्न	-11903
▁फेंकने	-11904
▁भीमराव	-11905
▁मन्दिर	-11906
▁मैराथन	-11907
▁वाटिका	-11908
▁सुचारू	-11909
▁स्कूटर	-11910
▁हालिया	-11911
▁जाह्नवी	-11912
▁पादुकोण	-11913
▁भिजवाया	-11914
▁मूल्यों	-11915
▁श्राद्ध	-11916
▁संतुष्ट	-11917
▁एनडीपीएस	-11918
▁जयप्रकाश	-11919
▁जलाभिषेक	-11920
▁डिप्रेशन	-11921
▁देशभक्ति	-11922
▁विजिलेंस	-11923
▁राजस्थानी	-11924
▁सत्यनारायण	-11925
▁महामंडलेश्वर	-11926
95	-11927
na	-11928
कन	-11929
गढ	-11930
ूफ	-11931
ach	-11932
गें	-11933
दरा	-11934
बेट	-11935
हटा	-11936
ुंद	-11937
▁Ro	-11938
▁Sh	-11939
ठिया	-11940
डाउन	-11941
वेली	-11942
साइज	-11943
िनिय	-11944
▁उछल	-11945
▁कनि	-11946
▁गोग	-11947
▁दंग	-11948
▁शां	-11949
जिटिव	-11950
पुत्र	-11951
भावना	-11952
▁उफान	-11953
▁ऋतिक	-11954
▁कंधे	-11955
▁घुसा	-11956
▁चुनी	-11957
▁जीने	-11958
▁दमोह	-11959
▁पिंक	-11960
▁बचाओ	-11961
▁येलो	-11962
▁लाते	-11963
▁सिले	-11964
▁ईदगाह	-11965
▁एंड्र	-11966
▁एनआईए	-11967
▁किस्त	-11968
▁क्लीन	-11969
▁ग्यार	-11970
▁नितेश	-11971
▁मचाने	-11972
▁मानती	-11973
▁रिस्प	-11974
शास्त्र	-11975
▁Kapoor	-11976
▁एसटीएफ	-11977
▁गुरमीत	-11978
▁निलंबन	-11979
▁पहनाकर	-11980
▁पॉक्सो	-11981
▁फोरलेन	-11982
▁मंजिला	-11983
▁रंगोली	-11984
▁रायसेन	-11985
▁सर्वसम	-11986
▁साक्षा	-11987
▁अपग्रेड	-11988
▁अभियोजन	-11989
▁आवेदनों	-11990
▁आश्वस्त	-11991
▁कुख्यात	-11992
▁डोटासरा	-11993
▁थानेदार	-11994
▁बृजभूषण	-11995
▁मेजबानी	-11996
▁यूनिट्स	-11997
▁शताब्दी	-11998
▁सिंहभूम	-11999
▁सितारों	-12000
▁महेन्द्र	-12001
▁मानसरोवर	-12002
▁एग्रीमेंट	-12003
▁कार्यवाहक	-12004
▁ठेकेदारों	-12005
▁विष्णुदेव	-12006
▁परीक्षार्थियों	-12007
55	-12008
9,	-12009
दृ	-12010
शद	-12011
िथ	-12012
ैत	-12013
▁/	-12014
.80	-12015
iti	-12016
urt	-12017
ंभव	-12018
एफओ	-12019
कूद	-12020
दून	-12021
मका	-12022
ौला	-12023
▁फू	-12024
रेखा	-12025
रोधक	-12026
श्ता	-12027
हादत	-12028
▁105	-12029
▁कंज	-12030
▁काॅ	-12031
▁खेप	-12032
▁थमा	-12033
▁पूल	-12034
▁पैक	-12035
▁रजा	-12036
▁सगे	-12037
▁सिं	-12038
▁सॉल	-12039
क्निक	-12040
राणिक	-12041
▁आहार	-12042
▁इंडो	-12043
▁ऊंचे	-12044
▁झूठी	-12045
▁ठंडी	-12046
▁नामी	-12047
▁बजाए	-12048
▁बहने	-12049
▁बेचे	-12050
▁बेबी	-12051
▁शोएब	-12052
▁हिजब	-12053
▁हिना	-12054
दिल्ली	-12055
▁जिनसे	-12056
▁निगाह	-12057
▁रश्मि	-12058
▁रोकना	-12059
▁रोटरी	-12060
▁वादों	-12061
▁सर्रा	-12062
▁सलामी	-12063
▁सीआईए	-12064
▁सौंपे	-12065
▁सौगात	-12066
▁हल्का	-12067
मानुसार	-12068
▁एफएसएल	-12069
▁ठिकाने	-12070
▁तिराहा	-12071
▁देवांग	-12072
▁निरंजन	-12073
▁परिहार	-12074
▁बिस्तर	-12075
▁लड़ाकू	-12076
▁शस्त्र	-12077
▁संबद्ध	-12078
▁सुरजीत	-12079
▁स्वभाव	-12080
▁कैदियों	-12081
▁गुस्साए	-12082
▁ज़िम्मे	-12083
▁फरीदकोट	-12084
▁महायुति	-12085
▁मार्क्स	-12086
▁निर्धारण	-12087
▁परंपरागत	-12088
▁प्लेयर्स	-12089
▁रामकुमार	-12090
▁विक्रांत	-12091
▁अनियमितता	-12092
▁व्हाट्सएप	-12093
▁स्वयंसेवक	-12094
▁क्रियान्वयन	-12095
Ah	-12096
ैव	-12097
-16	-12098
.35	-12099
999	-12100
ंचा	-12101
गुन	-12102
ज़ी	-12103
दूत	-12104
नीर	-12105
भवी	-12106
शाद	-12107
हाट	-12108
हिर	-12109
▁US	-12110
▁षड	-12111
किया	-12112
चिंग	-12113
बिंद	-12114
बीएम	-12115
माइल	-12116
र्षि	-12117
▁Off	-12118
▁ऋचा	-12119
▁एबी	-12120
▁कंक	-12121
▁दही	-12122
▁मतभ	-12123
▁माँ	-12124
▁शेफ	-12125
दियां	-12126
▁3000	-12127
▁खैरा	-12128
▁खोकर	-12129
▁जहाँ	-12130
▁जहीर	-12131
▁ड्रे	-12132
▁फौजी	-12133
▁बदबू	-12134
▁बनवा	-12135
▁भोला	-12136
▁सेंध	-12137
▁हरदा	-12138
कीर्तन	-12139
▁अफ़ग़	-12140
▁खत्री	-12141
▁ग्रोथ	-12142
▁चप्पल	-12143
▁ट्रिप	-12144
▁डिंपल	-12145
▁तब्दी	-12146
▁देवघर	-12147
▁नशीली	-12148
▁बीएसई	-12149
▁रोबोट	-12150
▁उन्नाव	-12151
▁एनसीसी	-12152
▁एपिसोड	-12153
▁कन्नौज	-12154
▁गवाहों	-12155
▁जुटाने	-12156
▁टॉयलेट	-12157
▁तेलुगु	-12158
▁फ़ीसदी	-12159
▁मीडियम	-12160
▁रेटिंग	-12161
गाध्यक्ष	-12162
▁अग्रसेन	-12163
▁अर्धशतक	-12164
▁टूरिज्म	-12165
▁पौराणिक	-12166
▁प्रजापत	-12167
▁बंदरगाह	-12168
▁बैंकिंग	-12169
▁विद्रोह	-12170
▁आपातकालीन	-12171
▁इंश्योरेंस	-12172
▁रिकॉर्डिंग	-12173
43	-12174
छी	-12175
डन	-12176
एलए	-12177
कुम	-12178
छित	-12179
ैशी	-12180
▁ST	-12181
▁on	-12182
▁सज	-12183
elhi	-12184
ंधरा	-12185
त्ते	-12186
बाही	-12187
हमार	-12188
ैटिक	-12189
▁SHO	-12190
▁and	-12191
▁एप्	-12192
▁केन	-12193
▁गंज	-12194
▁घने	-12195
▁पाट	-12196
▁बोस	-12197
▁मत्	-12198
▁सकल	-12199
▁हरद	-12200
दाराम	-12201
िनेटर	-12202
▁2003	-12203
▁उतरा	-12204
▁किले	-12205
▁ख़ुद	-12206
▁घड़ी	-12207
▁जनों	-12208
▁तंवर	-12209
▁नाते	-12210
▁फिलि	-12211
▁मुंड	-12212
▁रहीम	-12213
▁राठी	-12214
▁साले	-12215
▁सूखे	-12216
▁हटने	-12217
▁कस्टम	-12218
▁चुनौत	-12219
▁जानती	-12220
▁जोड़ो	-12221
▁धनखड़	-12222
▁धमाका	-12223
▁बाड़ी	-12224
▁भूखंड	-12225
▁मराठा	-12226
▁मेहरा	-12227
▁रोहता	-12228
▁शुभमन	-12229
▁सतपाल	-12230
▁सन्नी	-12231
▁सेक्स	-12232
▁स्नेह	-12233
▁अमरजीत	-12234
▁एशियाई	-12235
▁प्रवास	-12236
▁बंगाली	-12237
▁बॉलिंग	-12238
▁सैमसंग	-12239
▁तिरुपति	-12240
▁बड़वानी	-12241
▁संग्राम	-12242
▁सीबीएसई	-12243
▁सेंचुरी	-12244
पाकिस्तान	-12245
▁वायुसेना	-12246
▁विक्रेता	-12247
▁सांगानेर	-12248
▁गेंदबाजों	-12249
▁दंतेवाड़ा	-12250
▁व्यवस्थित	-12251
▁सीमावर्ती	-12252
▁एक्सपर्ट्स	-12253
▁नियमानुसार	-12254
▁डिस्ट्रिक्ट	-12255
▁विभागाध्यक्ष	-12256
8,	-12257
ंसर	-12258
एनए	-12259
कसा	-12260
कौन	-12261
जिम	-12262
ज्ड	-12263
टीय	-12264
शेर	-12265
शोर	-12266
िंस	-12267
ोरम	-12268
▁Al	-12269
▁IT	-12270
▁NH	-12271
एमयू	-12272
कुंड	-12273
बंधक	-12274
रेपी	-12275
सुबह	-12276
िटीज	-12277
▁900	-12278
▁अम्	-12279
▁आइस	-12280
▁धुन	-12281
▁फैक	-12282
▁बरी	-12283
▁भट्	-12284
▁यूर	-12285
▁रजक	-12286
▁वीं	-12287
▁वेव	-12288
माइंड	-12289
माराम	-12290
विकास	-12291
ांटिक	-12292
ालिया	-12293
▁अंजू	-12294
▁अक्त	-12295
▁अरशद	-12296
▁इन्फ	-12297
▁एमसी	-12298
▁कटरा	-12299
▁कांच	-12300
▁खाया	-12301
▁चलना	-12302
▁टीटी	-12303
▁पहलू	-12304
▁भेड़	-12305
▁मलबे	-12306
▁लेखन	-12307
▁लेनी	-12308
▁विजन	-12309
▁साईं	-12310
▁स्‍ट	-12311
▁हैदर	-12312
हरादून	-12313
▁अस्वी	-12314
▁इंकार	-12315
▁करौली	-12316
▁किन्न	-12317
▁कुंदन	-12318
▁गुलाम	-12319
▁जत्थे	-12320
▁जीवंत	-12321
▁ज्वैल	-12322
▁ठहराव	-12323
▁तादाद	-12324
▁नालों	-12325
▁निम्न	-12326
▁पुष्य	-12327
▁बदनाम	-12328
▁मनाते	-12329
▁समझना	-12330
▁अर्जित	-12331
▁आईसीयू	-12332
▁करवाते	-12333
▁कैंपेन	-12334
▁ढूंढने	-12335
▁तब्दील	-12336
▁तिराहे	-12337
▁पूर्वक	-12338
▁पेशेवर	-12339
▁बरवाला	-12340
▁वैल्यू	-12341
▁सम्बन्	-12342
▁सिगरेट	-12343
▁हिमालय	-12344
▁अक्तूबर	-12345
▁उत्पादक	-12346
▁चौकीदार	-12347
▁टर्मिनस	-12348
▁दुर्गेश	-12349
▁पात्रता	-12350
▁पॉजिटिव	-12351
▁फैकल्टी	-12352
▁मालीवाल	-12353
▁यूरोपीय	-12354
▁रविशंकर	-12355
▁प्रतिनिय	-12356
▁महासमुंद	-12357
▁संरक्षित	-12358
▁उद्योगपति	-12359
▁ऑडिटोरियम	-12360
▁प्रतिद्वंद	-12361
▁सफलतापूर्वक	-12362
35	-12363
49	-12364
ईद	-12365
वई	-12366
कील	-12367
जाल	-12368
तिन	-12369
न्‍	-12370
बेल	-12371
मीर	-12372
रोड	-12373
लीफ	-12374
सिन	-12375
ांध	-12376
ितर	-12377
ौना	-12378
▁Au	-12379
▁आक	-12380
indi	-12381
एसआर	-12382
ानिक	-12383
िफाई	-12384
▁2-3	-12385
▁Kar	-12386
▁अबू	-12387
▁आख़	-12388
▁घिर	-12389
▁तलब	-12390
▁थोक	-12391
▁महक	-12392
▁रची	-12393
▁सबक	-12394
इंदौर	-12395
जयपुर	-12396
▁2898	-12397
▁Sing	-12398
▁अमला	-12399
▁उमंग	-12400
▁उमड़	-12401
▁कटने	-12402
▁गलौज	-12403
▁जोनल	-12404
▁डायर	-12405
▁पीपी	-12406
▁ब्या	-12407
▁यूके	-12408
▁रोचक	-12409
▁लहूल	-12410
क्रमित	-12411
▁Price	-12412
▁चलाना	-12413
▁चौड़ा	-12414
▁ज़मीन	-12415
▁जानना	-12416
▁डीएपी	-12417
▁तबाही	-12418
▁नोटों	-12419
▁पालकी	-12420
▁बांटा	-12421
▁मंगला	-12422
▁मुहिम	-12423
▁यूनुस	-12424
▁राइफल	-12425
▁रिम्स	-12426
▁रिहाई	-12427
▁सफारी	-12428
▁सरिता	-12429
▁अनाउंस	-12430
▁अस्थिर	-12431
▁एनसीपी	-12432
▁कान्हा	-12433
▁चिट्ठी	-12434
▁टिप्पण	-12435
▁पितरों	-12436
▁बीएसपी	-12437
▁ब्रजेश	-12438
▁भंडारण	-12439
▁युवराज	-12440
▁रहवासी	-12441
▁शॉपिंग	-12442
▁हंसराज	-12443
▁आर्टिकल	-12444
▁इंडेक्स	-12445
▁प्रसारण	-12446
▁बंटवारा	-12447
▁भोजपुरी	-12448
▁महामारी	-12449
▁रोमांचक	-12450
▁सेलेब्स	-12451
▁एडवाइजरी	-12452
▁एसडीआरएफ	-12453
▁तुम्हारे	-12454
▁पदयात्रा	-12455
▁माफियाओं	-12456
▁लहूलुहान	-12457
▁सत्येंद्र	-12458
▁पार्टनरशिप	-12459
▁इन्वेस्टमेंट	-12460
ld	-12461
षी	-12462
und	-12463
ंधन	-12464
ंपा	-12465
ओवर	-12466
परि	-12467
मास	-12468
▁Ka	-12469
▁Ra	-12470
▁उग	-12471
▁खग	-12472
▁जश	-12473
▁ढह	-12474
जिकल	-12475
टीसी	-12476
टोली	-12477
प्रा	-12478
स्‍त	-12479
हानि	-12480
िल्‍	-12481
ुराज	-12482
्रिक	-12483
▁1.2	-12484
▁115	-12485
▁अंप	-12486
▁एवज	-12487
▁कोस	-12488
▁तान	-12489
▁फतह	-12490
▁फ़ल	-12491
▁फौज	-12492
▁रिफ	-12493
▁साग	-12494
कल्चर	-12495
काशीय	-12496
र्मास	-12497
स्सिल	-12498
िकांत	-12499
▁(30)	-12500
▁अबतक	-12501
▁अब्ब	-12502
▁उठता	-12503
▁कैफे	-12504
▁गाया	-12505
▁घेरे	-12506
▁नसीम	-12507
▁राइस	-12508
▁लंगर	-12509
▁वैसा	-12510
ांतरित	-12511
▁Video	-12512
▁इंसाफ	-12513
▁उपद्र	-12514
▁एनटीए	-12515
▁क्रेन	-12516
▁खट्टर	-12517
▁खुशबू	-12518
▁दरिया	-12519
▁निजाम	-12520
▁बहनें	-12521
▁रवनीत	-12522
▁रामजी	-12523
▁लंबाई	-12524
▁शहादत	-12525
▁साकेत	-12526
▁साजिद	-12527
▁स्टॉप	-12528
▁आक्रमण	-12529
▁कबड्डी	-12530
▁करप्शन	-12531
▁खुलेआम	-12532
▁जिम्मा	-12533
▁ट्रैवल	-12534
▁दिनांक	-12535
▁निशांत	-12536
▁परिक्ष	-12537
▁बैठकों	-12538
▁ब्रॉन्	-12539
▁मुआयना	-12540
▁मोनिका	-12541
▁सुपारी	-12542
▁जातियों	-12543
▁प्रशासक	-12544
▁माइक्रो	-12545
▁मैनपुरी	-12546
▁इस्लामिक	-12547
▁एयरफोर्स	-12548
▁पुरस्कृत	-12549
▁मुफस्सिल	-12550
▁श्रीकांत	-12551
▁अध्यक्षों	-12552
▁चुनौतियां	-12553
▁डिस्काउंट	-12554
▁लोकायुक्त	-12555
▁पेट्रोलिंग	-12556
▁रिटायरमेंट	-12557
"।	-12558
44	-12559
:15	-12560
ईएन	-12561
किस	-12562
दुल	-12563
बदल	-12564
लता	-12565
सुम	-12566
िमन	-12567
ेला	-12568
▁मग	-12569
IDEO	-12570
कहीं	-12571
पादन	-12572
विता	-12573
शीला	-12574
स्तु	-12575
स्फी	-12576
िव्य	-12577
ोग्य	-12578
ोतरा	-12579
▁4-5	-12580
▁AQI	-12581
▁आषा	-12582
▁उखा	-12583
▁घास	-12584
▁चैक	-12585
▁जीप	-12586
▁परे	-12587
▁फूं	-12588
▁रबी	-12589
▁रसी	-12590
▁श्म	-12591
▁हूँ	-12592
टलिपु	-12593
धीनगर	-12594
पुलिस	-12595
श्वरी	-12596
▁1984	-12597
▁अजीब	-12598
▁उपनि	-12599
▁ऊपरी	-12600
▁खासा	-12601
▁चीज़	-12602
▁चेंज	-12603
▁जमाल	-12604
▁पेटी	-12605
▁फोरम	-12606
▁रखवा	-12607
▁रस्म	-12608
▁राइज	-12609
▁लेगा	-12610
▁वीसी	-12611
▁सोहन	-12612
▁ह्यू	-12613
▁अहसास	-12614
▁एक्‍स	-12615
▁एनओसी	-12616
▁खोजने	-12617
▁चड्ढा	-12618
▁दसवीं	-12619
▁नताशा	-12620
▁परमिट	-12621
▁प्लेन	-12622
▁मर्या	-12623
▁मानता	-12624
▁मौतें	-12625
▁रुझान	-12626
▁सियार	-12627
▁सैलजा	-12628
▁स्टाल	-12629
निर्माण	-12630
▁आकाशीय	-12631
▁आदमपुर	-12632
▁उत्थान	-12633
▁उपायों	-12634
▁गुरदास	-12635
▁दिलजीत	-12636
▁फंक्शन	-12637
▁फंसाने	-12638
▁फीडबैक	-12639
▁बॉम्बे	-12640
▁मज़बूत	-12641
▁मशीनें	-12642
▁मानदेय	-12643
▁वाहिनी	-12644
▁सरफराज	-12645
▁सुनाते	-12646
▁होटलों	-12647
▁देवरिया	-12648
▁स्टार्स	-12649
▁उत्साहित	-12650
▁चैंपियंस	-12651
▁जवाहरलाल	-12652
▁प्रार्थी	-12653
▁मिस्त्री	-12654
▁बॉयफ्रेंड	-12655
▁संभावनाओं	-12656
▁एयरक्राफ्ट	-12657
▁प्रशिक्षित	-12658
▁सर्वसम्मति	-12659
▁हिजबुल्लाह	-12660
इश	-12661
ढा	-12662
शक	-12663
िं	-12664
-21	-12665
.55	-12666
:45	-12667
ईटी	-12668
कने	-12669
चां	-12670
बेस	-12671
म्म	-12672
▁Pl	-12673
▁खल	-12674
▁झप	-12675
गिंग	-12676
तेरस	-12677
पांच	-12678
फाइल	-12679
शिला	-12680
सीमा	-12681
ुद्ध	-12682
▁(2)	-12683
▁190	-12684
▁2.0	-12685
▁आंब	-12686
▁डमी	-12687
▁पोज	-12688
▁मजे	-12689
▁रमा	-12690
▁सेफ	-12691
णियों	-12692
बोर्ड	-12693
शिक्ष	-12694
िट्री	-12695
ृत्ति	-12696
▁(24)	-12697
▁Vrat	-12698
▁उधार	-12699
▁केसी	-12700
▁गौड़	-12701
▁चातु	-12702
▁जेएस	-12703
▁टॉपर	-12704
▁दंडा	-12705
▁दबोच	-12706
▁पॉली	-12707
▁फिरा	-12708
▁बचें	-12709
▁मोगा	-12710
▁शहजा	-12711
▁संगो	-12712
▁सीबी	-12713
परिवार	-12714
प्रधान	-12715
▁चैत्र	-12716
▁जर्नल	-12717
▁दबाकर	-12718
▁दीवान	-12719
▁नशीला	-12720
▁पलटने	-12721
▁प्रोट	-12722
▁भौतिक	-12723
▁मसाला	-12724
▁मानकर	-12725
▁रितेश	-12726
▁लाहौर	-12727
▁लॉटरी	-12728
▁सहभाग	-12729
▁सारंग	-12730
▁हरदीप	-12731
्यांमार	-12732
▁एजेंडा	-12733
▁एजेंडे	-12734
▁कुरैशी	-12735
▁चढ़ाने	-12736
▁ट्रूडो	-12737
▁विलियम	-12738
▁शिवानी	-12739
▁हंगामे	-12740
▁देवांगन	-12741
▁बालाघाट	-12742
▁मिलीभगत	-12743
▁लाइटिंग	-12744
▁हरेंद्र	-12745
फैक्चरिंग	-12746
▁स्वर्गीय	-12747
▁कार्यपालक	-12748
▁ट्रीटमेंट	-12749
▁त्योहारों	-12750
▁मूर्तियां	-12751
▁विस्थापित	-12752
▁अत्याधुनिक	-12753
▁वेरिफिकेशन	-12754
▁होशियारपुर	-12755
▁कंस्ट्रक्शन	-12756
97	-12757
ps	-12758
vi	-12759
मि	-12760
एंड	-12761
पाठ	-12762
फिट	-12763
शाक	-12764
षमा	-12765
ोरल	-12766
ोही	-12767
।""	-12768
ंदेल	-12769
कक्ष	-12770
खानी	-12771
फेरी	-12772
मानस	-12773
रोकर	-12774
▁App	-12775
▁Pan	-12776
▁असु	-12777
▁इने	-12778
▁उलट	-12779
▁एंज	-12780
▁कंब	-12781
▁गाँ	-12782
▁तीव	-12783
▁तैर	-12784
▁बकर	-12785
▁भया	-12786
▁माओ	-12787
▁रिन	-12788
▁लाठ	-12789
▁सती	-12790
चित्र	-12791
तन्या	-12792
द्रपद	-12793
स्कूल	-12794
िनेंट	-12795
▁1989	-12796
▁1998	-12797
▁अपार	-12798
▁चादर	-12799
▁जेएम	-12800
▁तेजा	-12801
▁पीपल	-12802
▁फाड़	-12803
▁बाथर	-12804
▁बीएड	-12805
▁मधुर	-12806
▁रौनक	-12807
▁लोको	-12808
▁हाजी	-12809
टेलाइट	-12810
पंचायत	-12811
▁अनजान	-12812
▁अनिता	-12813
▁आषाढ़	-12814
▁एडीजी	-12815
▁एथलेट	-12816
▁ऑक्शन	-12817
▁कूदकर	-12818
▁चढ़ने	-12819
▁चेतना	-12820
▁जिसमे	-12821
▁ट्रेस	-12822
▁डेस्क	-12823
▁न्यास	-12824
▁पुनीत	-12825
▁फ्लॉप	-12826
▁लड़ते	-12827
▁शिल्प	-12828
▁हिंडन	-12829
तन्याहू	-12830
▁एमएलसी	-12831
▁कोठारी	-12832
▁गुड्डू	-12833
▁जीविका	-12834
▁डिप्लो	-12835
▁भंडारी	-12836
▁भाषाओं	-12837
▁माधुरी	-12838
▁मोर्चे	-12839
▁वृद्धा	-12840
▁संगठित	-12841
▁सीएसपी	-12842
▁अनुष्का	-12843
▁पाटलिपु	-12844
▁प्रचारक	-12845
▁बरामदगी	-12846
▁बलविंदर	-12847
▁ब्रॉन्ज	-12848
▁भोलेनाथ	-12849
▁वसुंधरा	-12850
▁वैरिएंट	-12851
▁सूचकांक	-12852
▁स्ट्रोक	-12853
▁चतुर्दशी	-12854
▁टेक्निकल	-12855
▁देहरादून	-12856
▁बॉक्सिंग	-12857
▁शक्तियों	-12858
▁सहभागिता	-12859
▁चातुर्मास	-12860
▁रिपब्लिकन	-12861
▁सुपरवाइजर	-12862
▁एग्रीकल्चर	-12863
▁प्रभावशाली	-12864
▁मास्टरमाइंड	-12865
▁प्रतिस्पर्धा	-12866
▁इंफ्रास्ट्रक्चर	-12867
ss	-12868
बद	-12869
art	-12870
एमई	-12871
चड़	-12872
पाथ	-12873
म्र	-12874
सेक	-12875
▁ऊँ	-12876
टेबल	-12877
तफरी	-12878
पोषण	-12879
बर्ट	-12880
बेटे	-12881
मिंग	-12882
राइज	-12883
हाली	-12884
िप्स	-12885
ेडकर	-12886
ेड़ा	-12887
ॉफ्ट	-12888
्राज	-12889
▁(40	-12890
▁103	-12891
▁130	-12892
▁आड़	-12893
▁आढ़	-12894
▁जेम	-12895
▁निः	-12896
▁पटक	-12897
▁भान	-12898
▁मॉक	-12899
▁शीट	-12900
▁शोभ	-12901
तीर्ण	-12902
वियों	-12903
सूत्र	-12904
िकेशन	-12905
ेडिंग	-12906
▁Prad	-12907
▁अल्ट	-12908
▁इसपर	-12909
▁उकसा	-12910
▁उर्म	-12911
▁गुफा	-12912
▁झूठा	-12913
▁न्यो	-12914
▁फलों	-12915
▁बचना	-12916
▁बरती	-12917
▁बीएल	-12918
▁सिमट	-12919
▁सीखा	-12920
िल्‍ली	-12921
▁अंजलि	-12922
▁आठवीं	-12923
▁गुटों	-12924
▁जाखड़	-12925
▁झांसे	-12926
▁डंडों	-12927
▁ड्राई	-12928
▁तोड़ी	-12929
▁दर्जे	-12930
▁दीर्घ	-12931
▁धाकड़	-12932
▁पड़ते	-12933
▁पुराण	-12934
▁बालोद	-12935
▁बेचकर	-12936
▁संग्र	-12937
▁संसार	-12938
▁सिकंद	-12939
▁स्वाम	-12940
▁अपनाएं	-12941
▁अब्बास	-12942
▁गिराया	-12943
▁धनतेरस	-12944
▁पूर्ति	-12945
▁पॉपुलर	-12946
▁बिगड़ी	-12947
▁बोरवेल	-12948
▁मंदसौर	-12949
▁मैन्यु	-12950
▁श्मशान	-12951
▁समुचित	-12952
▁एसडीओपी	-12953
▁कंडक्टर	-12954
▁दुश्मनी	-12955
▁देखेंगे	-12956
▁फतेहगढ़	-12957
▁बालोतरा	-12958
▁बीजापुर	-12959
▁रघुवंशी	-12960
▁रोगियों	-12961
▁समाप्ति	-12962
▁सुदर्शन	-12963
▁उत्तीर्ण	-12964
▁पद्मश्री	-12965
▁पुनर्वास	-12966
▁प्रदेशभर	-12967
▁बीसीसीआई	-12968
▁युवतियों	-12969
▁यूनाइटेड	-12970
▁रथयात्रा	-12971
▁रविन्द्र	-12972
▁वेस्टर्न	-12973
▁रहवासियों	-12974
▁विश्वसनीय	-12975
▁सशक्तिकरण	-12976
▁पुष्पेंद्र	-12977
▁आतंकवादियों	-12978
▁ऑस्ट्रेलियाई	-12979
):	-12980
42	-12981
mp	-12982
आन	-12983
ऊं	-12984
गि	-12985
ेस	-12986
ैब	-12987
ran	-12988
rol	-12989
च्‍	-12990
तरह	-12991
ताप	-12992
पैर	-12993
सिम	-12994
सुन	-12995
ोदर	-12996
्लू	-12997
▁उज	-12998
▁उभ	-12999
ंजलि	-13000
अपनी	-13001
धर्म	-13002
मेरी	-13003
ल्लू	-13004
हरों	-13005
▁Cha	-13006
▁खात	-13007
▁जरा	-13008
▁दबो	-13009
▁परस	-13010
▁पाक	-13011
▁बुन	-13012
▁मची	-13013
▁रास	-13014
▁ललन	-13015
▁सरब	-13016
▁सरो	-13017
▁सुग	-13018
▁हाफ	-13019
कार्य	-13020
मुक्त	-13021
ोवेशन	-13022
▁2002	-13023
▁अलॉट	-13024
▁किचन	-13025
▁जाली	-13026
▁टोली	-13027
▁ढाबा	-13028
▁तेली	-13029
▁दरार	-13030
▁धांध	-13031
▁पेशी	-13032
▁बाली	-13033
▁बुझा	-13034
▁माथा	-13035
▁मैहर	-13036
▁रीता	-13037
▁रुकी	-13038
▁लीगल	-13039
▁वेयर	-13040
▁व्यू	-13041
▁श्या	-13042
▁श्रो	-13043
▁हिज़	-13044
वाहाटी	-13045
वृत्ति	-13046
स्तीनी	-13047
▁आयोजक	-13048
▁कचहरी	-13049
▁छीनकर	-13050
▁डांगी	-13051
▁नीलेश	-13052
▁पालना	-13053
▁मिसाल	-13054
▁मुबार	-13055
▁रजनीश	-13056
▁ललिता	-13057
▁संकाय	-13058
▁सिंघल	-13059
टेनमेंट	-13060
▁Update	-13061
▁ट्राली	-13062
▁ट्रेनर	-13063
▁तरीकों	-13064
▁धमकाने	-13065
▁नौजवान	-13066
▁प्रचंड	-13067
▁प्रतिक	-13068
▁बीएससी	-13069
▁यूजीसी	-13070
▁वीरवार	-13071
▁शाहपुर	-13072
▁श्रेयस	-13073
▁सीरियल	-13074
छात्राएं	-13075
▁अल्ट्रा	-13076
▁जगदलपुर	-13077
▁पालीवाल	-13078
▁संशोधित	-13079
▁हॉलीवुड	-13080
▁असामाजिक	-13081
▁गांधीनगर	-13082
▁नौकरियां	-13083
▁संगोष्ठी	-13084
▁सब्जियों	-13085
▁सुखविंदर	-13086
▁चंद्रबाबू	-13087
▁नेतन्याहू	-13088
▁मूर्तियों	-13089
▁संभावनाएं	-13090
▁कल्याणकारी	-13091
▁पारदर्शिता	-13092
▁फाइनेंशियल	-13093
▁विधानसभाओं	-13094
▁लाभार्थियों	-13095
96	-13096
az	-13097
उल	-13098
फन	-13099
man	-13100
ult	-13101
ंडई	-13102
चुर	-13103
नेर	-13104
शित	-13105
संत	-13106
सरत	-13107
▁ठु	-13108
...'	-13109
ashi	-13110
एमपी	-13111
दत्त	-13112
यानक	-13113
रेला	-13114
सचिव	-13115
ुलकर	-13116
▁240	-13117
▁650	-13118
▁Box	-13119
▁खोद	-13120
▁छप्	-13121
▁जलम	-13122
▁डां	-13123
▁नमो	-13124
▁बाण	-13125
▁मित	-13126
▁सीर	-13127
▁सौह	-13128
प्रथम	-13129
लेकिन	-13130
शिष्ठ	-13131
▁इंदर	-13132
▁ईंधन	-13133
▁कष्ट	-13134
▁घसीट	-13135
▁जजों	-13136
▁टेक्	-13137
▁टोटल	-13138
▁डीके	-13139
▁थाली	-13140
▁दुखी	-13141
▁पद्ध	-13142
▁पनडु	-13143
▁पिपर	-13144
▁फेयर	-13145
▁फ्यू	-13146
▁मंडप	-13147
▁महबू	-13148
▁मुफ्	-13149
▁मेधा	-13150
▁रीति	-13151
▁लड़ी	-13152
▁लायन	-13153
▁विमल	-13154
▁विशा	-13155
▁सरमा	-13156
▁साफ़	-13157
वेलियन	-13158
स्ट्रा	-13159
स्फीति	-13160
▁अधूरा	-13161
▁एक्यू	-13162
▁जशपुर	-13163
▁दवाएं	-13164
▁नजारा	-13165
▁प्रका	-13166
▁प्रसू	-13167
▁फ्रीज	-13168
▁बायोम	-13169
▁भ्राम	-13170
▁मच्छर	-13171
▁मेडिस	-13172
▁यूनिफ	-13173
▁सत्यम	-13174
▁सबकुछ	-13175
▁सुषमा	-13176
ंदेलखंड	-13177
ानुभूति	-13178
▁अंपायर	-13179
▁अखाड़ा	-13180
▁क्लियर	-13181
▁डीपीआर	-13182
▁तपस्या	-13183
▁ताजमहल	-13184
▁तिहाड़	-13185
▁दाखिला	-13186
▁दोगुना	-13187
▁निकलना	-13188
▁नियोजन	-13189
▁बैठकें	-13190
▁मांगते	-13191
▁मुक़ाब	-13192
▁शृंगार	-13193
▁सलूंबर	-13194
▁सिंघवी	-13195
▁सुशीला	-13196
▁स्लीपर	-13197
▁हिन्दी	-13198
उन्होंने	-13199
▁आयरलैंड	-13200
▁उर्मिला	-13201
▁निपटारा	-13202
▁पहुंचाई	-13203
▁पार्थिव	-13204
▁बंदियों	-13205
▁मेंबर्स	-13206
▁विजयपुर	-13207
▁सतर्कता	-13208
▁ट्रेडिंग	-13209
▁दिलचस्पी	-13210
▁नजरअंदाज	-13211
▁प्रांतीय	-13212
▁कांफ्रेंस	-13213
▁केन्द्रों	-13214
▁पूर्वांचल	-13215
▁लोकप्रियता	-13216
▁मुद्रास्फीति	-13217
OC	-13218
RF	-13219
TA	-13220
कब	-13221
डॉ	-13222
-30	-13223
.70	-13224
जिक	-13225
वैत	-13226
श्‍	-13227
िपू	-13228
▁Co	-13229
▁PA	-13230
▁शश	-13231
कालत	-13232
गड़ा	-13233
फर्म	-13234
बाड़	-13235
ब्बू	-13236
भक्त	-13237
भूषा	-13238
माड़	-13239
वर्स	-13240
▁50%	-13241
▁Ram	-13242
▁आत्	-13243
▁औचक	-13244
▁जां	-13245
▁डिम	-13246
▁डों	-13247
▁तीर	-13248
▁त्व	-13249
▁धनु	-13250
▁भनक	-13251
▁मिज	-13252
▁रचा	-13253
▁सौम	-13254
▁हीर	-13255
ंदीदा	-13256
क्षिक	-13257
चर्या	-13258
बुद्ध	-13259
मंत्र	-13260
विकेट	-13261
विदेश	-13262
हारिक	-13263
▁(20)	-13264
▁अजगर	-13265
▁अतीत	-13266
▁जौहर	-13267
▁टीकम	-13268
▁डीईओ	-13269
▁डेली	-13270
▁नंदी	-13271
▁नाके	-13272
▁नाहर	-13273
▁पीसी	-13274
▁बापू	-13275
▁बुरे	-13276
▁ब्री	-13277
▁भगवा	-13278
▁मुसी	-13279
▁मोहर	-13280
▁रसीद	-13281
▁रेकी	-13282
▁लगवा	-13283
▁विरू	-13284
▁संधू	-13285
▁सिंद	-13286
▁सेबी	-13287
▁अभिया	-13288
▁उतरकर	-13289
▁ओंकार	-13290
▁किसके	-13291
▁कीटना	-13292
▁कैडेट	-13293
▁चार्ट	-13294
▁छोड़े	-13295
▁जाकिर	-13296
▁टेंशन	-13297
▁ढिल्ल	-13298
▁तत्पर	-13299
▁दामों	-13300
▁देखता	-13301
▁पगड़ी	-13302
▁पढ़ते	-13303
▁पेशकश	-13304
▁फिराक	-13305
▁बताएं	-13306
▁बरौनी	-13307
▁भागते	-13308
▁मर्जी	-13309
▁मिलनी	-13310
▁वकालत	-13311
▁शहडोल	-13312
▁शौर्य	-13313
▁सन्ना	-13314
िबिलिटी	-13315
▁Office	-13316
▁अंधेरा	-13317
▁अखाड़े	-13318
▁असमर्थ	-13319
▁इलाक़े	-13320
▁उतारकर	-13321
▁खेलकूद	-13322
▁निष्ठा	-13323
▁बांगड़	-13324
▁मरांडी	-13325
▁रेडियो	-13326
▁स्पिनर	-13327
िटेक्निक	-13328
▁आयोजकों	-13329
▁इस्माइल	-13330
▁देवताओं	-13331
▁पसंदीदा	-13332
▁बिंदुओं	-13333
▁माइनिंग	-13334
▁लखीसराय	-13335
▁वन्यजीव	-13336
प्रतिष्ठा	-13337
▁मालगाड़ी	-13338
▁रेवेन्यू	-13339
▁रोमांटिक	-13340
▁विस्फोटक	-13341
▁कॉमर्शियल	-13342
▁संग्रहालय	-13343
▁सहानुभूति	-13344
▁स्क्रिप्ट	-13345
▁कन्हैयालाल	-13346
▁पाटलिपुत्र	-13347
▁शंकराचार्य	-13348
▁शाहजहांपुर	-13349
▁ट्रांसफॉर्म	-13350
uj	-13351
यली	-13352
ेरी	-13353
ोने	-13354
्मय	-13355
▁टि	-13356
▁बड	-13357
andi	-13358
asht	-13359
oday	-13360
एनसी	-13361
तराम	-13362
दायी	-13363
द्धा	-13364
पीने	-13365
षकों	-13366
हाउस	-13367
हारा	-13368
ुकों	-13369
▁128	-13370
▁IMD	-13371
▁अजी	-13372
▁अटे	-13373
▁आइट	-13374
▁उलझ	-13375
▁क्व	-13376
▁थ्र	-13377
▁बास	-13378
▁मेष	-13379
▁सले	-13380
▁हैक	-13381
द्दार	-13382
नियां	-13383
ब्रिड	-13384
भद्रा	-13385
विरोध	-13386
▁ALSO	-13387
▁असुर	-13388
▁कयास	-13389
▁कर्प	-13390
▁क्रा	-13391
▁खोली	-13392
▁ग्ले	-13393
▁छीना	-13394
▁जीतन	-13395
▁दुखद	-13396
▁पीएस	-13397
▁बारा	-13398
▁बेगम	-13399
▁मोटा	-13400
▁साइज	-13401
▁हजरत	-13402
ेंस्की	-13403
▁Delhi	-13404
▁कांटे	-13405
▁कीजिए	-13406
▁कुम्ह	-13407
▁कृत्य	-13408
▁क्लेम	-13409
▁खराबी	-13410
▁गड्ढा	-13411
▁गानों	-13412
▁जमाने	-13413
▁ज़रिए	-13414
▁जुटाई	-13415
▁दबदबा	-13416
▁दूषित	-13417
▁नमूने	-13418
▁बदलना	-13419
▁बद्री	-13420
▁बांदा	-13421
▁बिखरा	-13422
▁भट्टा	-13423
▁भयानक	-13424
▁मार्ट	-13425
▁रणदीप	-13426
▁सपनों	-13427
▁समागम	-13428
▁सरगना	-13429
प्रशासन	-13430
▁इकलौता	-13431
▁एल्विश	-13432
▁कम्पनी	-13433
▁कस्टडी	-13434
▁काफिले	-13435
▁ज्वाइन	-13436
▁ट्विटर	-13437
▁दुर्लभ	-13438
▁बरनाला	-13439
▁रखरखाव	-13440
▁लाइनों	-13441
▁समाजजन	-13442
▁साध्वी	-13443
▁हत्यार	-13444
▁हैरानी	-13445
▁2022-23	-13446
▁अर्शदीप	-13447
▁आंबेडकर	-13448
▁क्लीनिक	-13449
▁जरूरतों	-13450
▁दिल्‍ली	-13451
▁प्लेइंग	-13452
▁हाईकमान	-13453
▁चक्रवाती	-13454
▁डिप्लोमा	-13455
▁वॉशिंगटन	-13456
▁सीआरपीएफ	-13457
▁अनुपस्थित	-13458
▁इलेक्टोरल	-13459
▁प्रताड़ना	-13460
▁प्रशिक्षु	-13461
▁प्रियांशु	-13462
▁विकेटकीपर	-13463
▁श्रीनिवास	-13464
▁अभियुक्तों	-13465
▁प्रभारियों	-13466
▁प्रावधानों	-13467
▁प्रोजेक्ट्स	-13468
▁प्रदर्शनकारी	-13469
41	-13470
NG	-13471
ूष	-13472
▁}	-13473
-18	-13474
.24	-13475
ami	-13476
igh	-13477
कोर	-13478
बीच	-13479
हिट	-13480
▁CA	-13481
▁इज	-13482
▁टर	-13483
▁बछ	-13484
▁शॉ	-13485
आईएस	-13486
क्‍स	-13487
ढ़ाई	-13488
तन्य	-13489
दाना	-13490
पटना	-13491
रेशन	-13492
सादी	-13493
ापाई	-13494
िंगर	-13495
ॉन्ग	-13496
▁(10	-13497
▁101	-13498
▁3-4	-13499
▁DSP	-13500
▁कॉर	-13501
▁कोऑ	-13502
▁खरे	-13503
▁खूं	-13504
▁घोर	-13505
▁छिन	-13506
▁नसर	-13507
▁पलक	-13508
▁राल	-13509
▁सदी	-13510
ाइलों	-13511
ालैंड	-13512
ियारी	-13513
▁1980	-13514
▁1991	-13515
▁आइटम	-13516
▁आजकल	-13517
▁आरिफ	-13518
▁कत्ल	-13519
▁कॉमन	-13520
▁खटीक	-13521
▁चतरा	-13522
▁तटीय	-13523
▁तेवर	-13524
▁त्यौ	-13525
▁पढ़ी	-13526
▁परमा	-13527
▁फंसी	-13528
▁मर्ग	-13529
▁मसूद	-13530
▁मैके	-13531
▁सानि	-13532
बिलिटी	-13533
▁Singh	-13534
▁कल्कि	-13535
▁कश्मी	-13536
▁क्रूर	-13537
▁गोकुल	-13538
▁चुनने	-13539
▁दबोचा	-13540
▁नक्शा	-13541
▁फेंकी	-13542
▁मेमोर	-13543
▁रंगों	-13544
▁लाभान	-13545
▁श्राव	-13546
▁सरेआम	-13547
▁सुरंग	-13548
▁हौसला	-13549
बुल्लाह	-13550
िफिशियल	-13551
▁अलायंस	-13552
▁इमोशनल	-13553
▁कांकेर	-13554
▁किराये	-13555
▁कोतवाल	-13556
▁जातिगत	-13557
▁दबंगों	-13558
▁दलितों	-13559
▁दिलावर	-13560
▁दूल्हा	-13561
▁पढ़ाने	-13562
▁पोस्टल	-13563
▁प्रभास	-13564
▁बढ़ाते	-13565
▁मार्शल	-13566
▁विनायक	-13567
▁सिक्के	-13568
▁हैप्पी	-13569
▁असुविधा	-13570
▁एवेन्यू	-13571
▁कर्पूरी	-13572
▁चौराहों	-13573
▁देवीलाल	-13574
▁पीलीभीत	-13575
▁प्रकाशन	-13576
▁फॉरेस्ट	-13577
▁मंत्रों	-13578
▁मेगावाट	-13579
▁लैंडिंग	-13580
▁विविधता	-13581
▁वेशभूषा	-13582
▁शिक्षित	-13583
▁हाथापाई	-13584
▁पदोन्नति	-13585
▁प्रदेशों	-13586
▁फायदेमंद	-13587
▁माइक्रोस	-13588
▁लाभार्थी	-13589
▁परिक्षेत्र	-13590
▁पेट्रोलियम	-13591
▁पॉलिटेक्निक	-13592
▁बृहस्पतिवार	-13593
/0	-13594
37	-13595
TT	-13596
ru	-13597
वॉ	-13598
‍ि	-13599
CCI	-13600
PSC	-13601
hat	-13602
ive	-13603
बुक	-13604
मां	-13605
रेड	-13606
वहन	-13607
हेल	-13608
ामू	-13609
ोशी	-13610
▁रघ	-13611
इयां	-13612
टाया	-13613
माया	-13614
राओं	-13615
ाजनक	-13616
ारंग	-13617
▁(50	-13618
▁144	-13619
▁220	-13620
▁IPS	-13621
▁Res	-13622
▁Sha	-13623
▁अख़	-13624
▁कहर	-13625
▁खाक	-13626
▁गंत	-13627
▁चहल	-13628
▁चिट	-13629
▁टीन	-13630
▁डंप	-13631
▁तोह	-13632
▁निस	-13633
▁फेक	-13634
▁बटन	-13635
▁यथा	-13636
▁रैक	-13637
▁व्र	-13638
...',	-13639
ंडीशन	-13640
▁अनशन	-13641
▁अमले	-13642
▁आरसी	-13643
▁जाब्	-13644
▁डाइट	-13645
▁तंगी	-13646
▁धुर्	-13647
▁परिस	-13648
▁पीले	-13649
▁फेरे	-13650
▁फैले	-13651
▁बिठा	-13652
▁बीएन	-13653
▁बेदी	-13654
▁बैटर	-13655
▁मलेश	-13656
▁लिंग	-13657
▁वंदन	-13658
▁सरयू	-13659
▁सावर	-13660
▁सीजी	-13661
फेक्शन	-13662
सेवकों	-13663
▁Apple	-13664
▁VIDEO	-13665
▁अरबाज	-13666
▁इनेलो	-13667
▁इशारे	-13668
▁कैरेट	-13669
▁गवाही	-13670
▁गुंडा	-13671
▁घटिया	-13672
▁जीर्ण	-13673
▁जॉइंट	-13674
▁डिजिट	-13675
▁डीएफओ	-13676
▁त्रिश	-13677
▁धर्मा	-13678
▁पक्की	-13679
▁पारीक	-13680
▁फ्यूल	-13681
▁मेकअप	-13682
▁मौलिक	-13683
▁वरदान	-13684
▁शीतला	-13685
▁सुकमा	-13686
▁स्कॉल	-13687
▁हरदोई	-13688
जेन्द्र	-13689
▁Indore	-13690
▁आरोग्य	-13691
▁एक्सेस	-13692
▁कस्टमर	-13693
▁कार्या	-13694
▁कुंडली	-13695
▁खंगाले	-13696
▁खामिया	-13697
▁ग्रोवर	-13698
▁चलेंगे	-13699
▁चैतन्य	-13700
▁छोड़ना	-13701
▁तथ्यों	-13702
▁देवड़ा	-13703
▁परमजीत	-13704
▁फ़ैसले	-13705
▁फाउंडर	-13706
▁बैठाया	-13707
▁महर्षि	-13708
▁मूलभूत	-13709
▁रामदास	-13710
▁शिप्रा	-13711
▁आयोजनों	-13712
▁इकाइयों	-13713
▁एनएचएआई	-13714
▁पवेलियन	-13715
▁भाद्रपद	-13716
▁महाभारत	-13717
▁संवर्धन	-13718
▁सानिध्य	-13719
▁एमबीबीएस	-13720
▁क्रांतिक	-13721
▁पहलवानों	-13722
▁म्यांमार	-13723
▁स्टूडियो	-13724
▁कार्तिकेय	-13725
▁टेलीग्राम	-13726
▁प्रतिभागी	-13727
▁बुंदेलखंड	-13728
▁संवाददाता	-13729
▁स्थानांतरित	-13730
▁अफ़ग़ानिस्तान	-13731
lo	-13732
दश	-13733
धक	-13734
सह	-13735
gov	-13736
ine	-13737
करम	-13738
गिर	-13739
गेन	-13740
छार	-13741
जुल	-13742
बों	-13743
लिक	-13744
शंस	-13745
ासर	-13746
ॉली	-13747
ौलत	-13748
▁1.	-13749
▁4,	-13750
▁DM	-13751
एसएफ	-13752
जारे	-13753
रीना	-13754
सर्ट	-13755
ांडे	-13756
ीकृत	-13757
▁Raj	-13758
▁SSP	-13759
▁अनू	-13760
▁आदी	-13761
▁एन्	-13762
▁दली	-13763
▁नोक	-13764
▁पीक	-13765
▁बबी	-13766
▁भेल	-13767
▁मिच	-13768
▁यूए	-13769
▁सदा	-13770
.2024	-13771
etrol	-13772
दृश्य	-13773
फेक्ट	-13774
र्मित	-13775
िश्मा	-13776
▁ज्ये	-13777
▁दौलत	-13778
▁धंधे	-13779
▁फटने	-13780
▁फर्श	-13781
▁बेची	-13782
▁मेवा	-13783
▁वरना	-13784
▁वाइफ	-13785
▁वादी	-13786
▁शेख़	-13787
▁सचेत	-13788
▁सिकर	-13789
▁अंशुल	-13790
▁अक्षत	-13791
▁अदाणी	-13792
▁अधिशा	-13793
▁अरमान	-13794
▁इरादे	-13795
▁उर्वर	-13796
▁एडिशन	-13797
▁कोलार	-13798
▁चोटिल	-13799
▁टैगोर	-13800
▁दतिया	-13801
▁बांटे	-13802
▁बैराज	-13803
▁भड़के	-13804
▁भागकर	-13805
▁मतभेद	-13806
▁मिजाज	-13807
▁मिर्च	-13808
▁मुकुट	-13809
▁लपटें	-13810
▁श्रॉफ	-13811
▁सस्ता	-13812
▁सुहाग	-13813
▁अग्रणी	-13814
▁एक्सपी	-13815
▁एक्सील	-13816
▁कैपिटल	-13817
▁जीडीपी	-13818
▁दिखाना	-13819
▁धांधली	-13820
▁निज्जर	-13821
▁पद्धति	-13822
▁फुटपाथ	-13823
▁बिलियन	-13824
▁बैलेंस	-13825
▁मुलाक़	-13826
▁मैदानी	-13827
▁रविदास	-13828
▁समानता	-13829
▁हर्षित	-13830
र्डिनेटर	-13831
्बुल्लाह	-13832
▁अध्यापक	-13833
▁अभद्रता	-13834
▁अभियोजक	-13835
▁डायरिया	-13836
▁प्रोटोक	-13837
▁ललितपुर	-13838
▁अनुमानित	-13839
▁ज्वेलर्स	-13840
▁नवनिर्वा	-13841
▁शत्रुघ्न	-13842
▁सक्रियता	-13843
▁प्रेमियों	-13844
▁लाभान्वित	-13845
▁बैरिकेडिंग	-13846
▁भविष्यवाणी	-13847
▁राजपुरोहित	-13848
▁व्यक्तित्व	-13849
▁शहरवासियों	-13850
▁साक्षात्कार	-13851
▁माइक्रोसॉफ्ट	-13852
32	-13853
65	-13854
la	-13855
अभ	-13856
नव	-13857
षे	-13858
▁Q	-13859
▁d	-13860
-22	-13861
.11	-13862
50,	-13863
hop	-13864
war	-13865
एमओ	-13866
चलन	-13867
नाय	-13868
लीन	-13869
साल	-13870
हाई	-13871
ौरन	-13872
‍ला	-13873
▁5,	-13874
▁हन	-13875
गीरथ	-13876
तरफा	-13877
न्दर	-13878
राशि	-13879
वापी	-13880
सेसर	-13881
ेंदु	-13882
▁121	-13883
▁Nav	-13884
▁SDM	-13885
▁STF	-13886
▁ऋतु	-13887
▁कबू	-13888
▁काज	-13889
▁गैल	-13890
▁घना	-13891
▁छोर	-13892
▁ताे	-13893
▁थाई	-13894
▁देन	-13895
▁पैड	-13896
▁बेव	-13897
▁भला	-13898
▁मता	-13899
▁यलो	-13900
▁रणथ	-13901
▁सकु	-13902
कार्ट	-13903
जराना	-13904
द्धार	-13905
सैनिक	-13906
ाबंकी	-13907
▁आसिफ	-13908
▁ऑटोम	-13909
▁खंभे	-13910
▁गोबर	-13911
▁चंपई	-13912
▁चिकन	-13913
▁जख्म	-13914
▁जीटी	-13915
▁डीडी	-13916
▁धामी	-13917
▁पसरा	-13918
▁फिरो	-13919
▁बिरा	-13920
▁बीसी	-13921
▁भागा	-13922
▁मुड़	-13923
▁मेंस	-13924
▁मौक़	-13925
▁रौशन	-13926
▁वृषभ	-13927
▁शीशे	-13928
▁सुखा	-13929
▁स्का	-13930
जीक्यू	-13931
▁आईफोन	-13932
▁कमिंस	-13933
▁क्रिम	-13934
▁घुसने	-13935
▁चौपाल	-13936
▁जगदीप	-13937
▁टाइटल	-13938
▁बप्पा	-13939
▁मानिक	-13940
▁मौसमी	-13941
▁रेंजर	-13942
▁लगाता	-13943
▁लहसुन	-13944
▁लॉन्ग	-13945
▁विजया	-13946
▁सस्ती	-13947
▁साधने	-13948
▁सिंधु	-13949
▁स्वीप	-13950
लेन्द्र	-13951
▁अंगूठी	-13952
▁अटकलें	-13953
▁अनावरण	-13954
▁अनुभवी	-13955
▁अन्यथा	-13956
▁अप्लाई	-13957
▁खंगाला	-13958
▁गिराने	-13959
▁गोदारा	-13960
▁छिपाने	-13961
▁जलमग्न	-13962
▁दिखाता	-13963
▁पशुपाल	-13964
▁पेटीएम	-13965
▁भुलैया	-13966
▁भ्रामक	-13967
▁महिपाल	-13968
▁शीतलहर	-13969
▁श्रावण	-13970
▁सुनसान	-13971
▁अनुपालन	-13972
▁करिश्मा	-13973
▁चर्चाओं	-13974
▁फ्लाइंग	-13975
▁मलेशिया	-13976
▁रंगारंग	-13977
▁विरूद्ध	-13978
▁श्रीमद्	-13979
▁श्रेष्ठ	-13980
▁सन्नाटा	-13981
▁सुलझाने	-13982
▁सौहार्द	-13983
▁उम्मीदें	-13984
▁चिल्लाने	-13985
▁दिक्कतों	-13986
▁दिनचर्या	-13987
▁प्रेमचंद	-13988
▁बाराबंकी	-13989
▁मनोकामना	-13990
▁मानसिकता	-13991
▁मुलाक़ात	-13992
▁रजनीकांत	-13993
▁रेखांकित	-13994
▁सिलेक्शन	-13995
▁स्क्वायर	-13996
▁निर्विरोध	-13997
▁पॉलिटिक्स	-13998
▁स्टैंडर्ड	-13999
▁प्रतिष्ठान	-14000
▁महाप्रबंधक	-14001
▁व्यावहारिक	-14002
▁आर्टिफिशियल	-14003
▁नवनिर्वाचित	-14004
31	-14005
ep	-14006
ly	-14007
mi	-14008
ty	-14009
मौ	-14010
वश	-14011
ाव	-14012
mAh	-14013
झिम	-14014
डेड	-14015
त्स	-14016
पेड	-14017
फिर	-14018
रूप	-14019
्यव	-14020
ग्गा	-14021
नीचर	-14022
वीपी	-14023
शैली	-14024
स्पद	-14025
▁185	-14026
▁RBI	-14027
▁अंच	-14028
▁एआर	-14029
▁गोध	-14030
▁चेज	-14031
▁झूल	-14032
▁टां	-14033
▁धड़	-14034
▁नपा	-14035
▁बाम	-14036
▁मैप	-14037
▁मौन	-14038
▁यान	-14039
▁शटर	-14040
▁संज	-14041
▁सफ़	-14042
▁सूट	-14043
भोपाल	-14044
मुग्ध	-14045
सोर्स	-14046
▁अमरी	-14047
▁असीम	-14048
▁आजसू	-14049
▁आदिल	-14050
▁कटनी	-14051
▁कांव	-14052
▁खासी	-14053
▁ख्वा	-14054
▁गाते	-14055
▁गोले	-14056
▁चौरा	-14057
▁टाइप	-14058
▁नवाज	-14059
▁पाला	-14060
▁पीके	-14061
▁भस्म	-14062
▁लोहा	-14063
▁शर्ट	-14064
▁सर्द	-14065
▁सहमत	-14066
▁सुगम	-14067
▁हासन	-14068
एमसीएच	-14069
प्रसार	-14070
रेक्टर	-14071
▁अर्बन	-14072
▁उर्दू	-14073
▁क्षमा	-14074
▁गन्ने	-14075
▁घुटने	-14076
▁छीनने	-14077
▁जलदाय	-14078
▁जुटाए	-14079
▁डालें	-14080
▁डिटेन	-14081
▁तारों	-14082
▁नवनीत	-14083
▁फैलने	-14084
▁बढ़ाए	-14085
▁बदौलत	-14086
▁बबीता	-14087
▁बराड़	-14088
▁बारां	-14089
▁रिसीव	-14090
▁लाइंस	-14091
▁वर्णन	-14092
▁विधवा	-14093
▁वेंकट	-14094
▁शैलेश	-14095
▁समझिए	-14096
▁सरोवर	-14097
▁स्तंभ	-14098
▁होस्ट	-14099
त्याशित	-14100
▁एमएसपी	-14101
▁किराना	-14102
▁खासतौर	-14103
▁गुजारा	-14104
▁गोष्ठी	-14105
▁चौड़ाई	-14106
▁जेएमएम	-14107
▁तालमेल	-14108
▁बिस्वा	-14109
▁ब्यूटी	-14110
▁महत्वा	-14111
▁रिपेयर	-14112
▁शिल्पा	-14113
▁सिंगला	-14114
▁हाजिरी	-14115
▁एयरलाइन	-14116
▁क्लस्टर	-14117
▁छुटकारा	-14118
▁ज्वाइंट	-14119
▁टीकाकरण	-14120
▁बृजमोहन	-14121
▁भदौरिया	-14122
▁वर्चुअल	-14123
▁संतुलित	-14124
▁सिद्धार	-14125
▁खूबसूरती	-14126
▁परिणामों	-14127
▁मेमोरियल	-14128
▁कार्मिकों	-14129
▁शक्तिशाली	-14130
▁सेलिब्रेशन	-14131
▁हिज़्बुल्लाह	-14132
85	-14133
:-	-14134
MM	-14135
sha	-14136
ंबू	-14137
णाप	-14138
तपा	-14139
त्‍	-14140
मणि	-14141
ाये	-14142
▁Ex	-14143
▁to	-14144
▁एट	-14145
▁टल	-14146
▁ढक	-14147
▁ध्	-14148
▁रक	-14149
एनटी	-14150
गिरी	-14151
ग्रे	-14152
ब्बल	-14153
श्रम	-14154
ाधीन	-14155
ामृत	-14156
ार्प	-14157
▁10,	-14158
▁जगन	-14159
▁जिद	-14160
▁ठहर	-14161
▁डरे	-14162
▁डीग	-14163
▁डीप	-14164
▁दखल	-14165
▁दाऊ	-14166
▁दाे	-14167
▁मक्	-14168
▁रोप	-14169
▁सूद	-14170
▁हता	-14171
ratri	-14172
गेटिव	-14173
तिंदर	-14174
द्वीप	-14175
पीटकर	-14176
मंदिर	-14177
साराम	-14178
िट्टी	-14179
ियाें	-14180
्रेचर	-14181
▁1995	-14182
▁2047	-14183
▁कोने	-14184
▁कोर्	-14185
▁घाटा	-14186
▁चाहा	-14187
▁जेईई	-14188
▁झूले	-14189
▁टर्न	-14190
▁धनुष	-14191
▁नेशन	-14192
▁बहुल	-14193
▁बीके	-14194
▁मोटी	-14195
▁म्यू	-14196
▁लाड़	-14197
▁लॉकर	-14198
▁श्यो	-14199
▁सेतु	-14200
▁हत्य	-14201
▁हिज्	-14202
जेवाला	-14203
धारकों	-14204
व्यापी	-14205
िवेटेड	-14206
▁इरादा	-14207
▁एशियन	-14208
▁कूड़े	-14209
▁खेडकर	-14210
▁जलेबी	-14211
▁तकलीफ	-14212
▁प्रीत	-14213
▁भड़का	-14214
▁भयावह	-14215
▁मदरसा	-14216
▁मुंशी	-14217
▁रातभर	-14218
▁विराम	-14219
▁विलंब	-14220
▁शिष्य	-14221
▁शुष्क	-14222
▁सविता	-14223
▁सोर्स	-14224
▁अनन्या	-14225
▁अभिव्य	-14226
▁एकीकृत	-14227
▁ऑडियंस	-14228
▁कंडीशन	-14229
▁कंसल्ट	-14230
▁खरीदकर	-14231
▁खिलाने	-14232
▁चंदौली	-14233
▁चांसलर	-14234
▁डायलॉग	-14235
▁ड्रिंक	-14236
▁दक्षता	-14237
▁बारीकी	-14238
▁मजेदार	-14239
▁माताजी	-14240
▁मिजोरम	-14241
▁मेघालय	-14242
▁रिकवरी	-14243
▁वेटिंग	-14244
▁संभाली	-14245
▁सीएनजी	-14246
▁इजरायली	-14247
▁कार्डिय	-14248
▁खिलवाड़	-14249
▁चिंताओं	-14250
▁छत्रपति	-14251
▁त्यौहार	-14252
▁दीवारों	-14253
▁द्वारका	-14254
▁निकालना	-14255
▁निर्दोष	-14256
▁पेंडिंग	-14257
▁फर्नीचर	-14258
▁बताएंगे	-14259
▁रिचार्ज	-14260
▁लखीमपुर	-14261
▁सर्राफा	-14262
▁स्विफ्ट	-14263
▁खामियाजा	-14264
▁चिंताजनक	-14265
▁छेड़खानी	-14266
▁तेंदुलकर	-14267
▁पारदर्शी	-14268
▁प्रोफाइल	-14269
▁विश्लेषक	-14270
▁संकीर्तन	-14271
▁देवेन्द्र	-14272
▁पत्थरबाजी	-14273
▁प्रतिवर्ष	-14274
▁सुरेन्द्र	-14275
▁कम्युनिस्ट	-14276
▁देशवासियों	-14277
▁सिद्धारमैया	-14278
उप	-14279
जम	-14280
टु	-14281
ैस	-14282
्ञ	-14283
100	-14284
500	-14285
ack	-14286
भजन	-14287
मिल	-14288
मेड	-14289
शीष	-14290
हरि	-14291
▁(7	-14292
▁2'	-14293
▁नं	-14294
▁वध	-14295
ंगली	-14296
एसडी	-14297
ज्जन	-14298
डियो	-14299
बलों	-14300
ब्री	-14301
भारी	-14302
रीज़	-14303
र्ची	-14304
ियाँ	-14305
ुराह	-14306
▁(1)	-14307
▁...	-14308
▁Col	-14309
▁Sam	-14310
▁अरे	-14311
▁एटा	-14312
▁कंध	-14313
▁कुआ	-14314
▁केम	-14315
▁कैट	-14316
▁कौश	-14317
▁झाल	-14318
▁टैल	-14319
▁दुप	-14320
▁पाम	-14321
▁पॉड	-14322
▁बेअ	-14323
▁मंस	-14324
▁लंग	-14325
▁शंख	-14326
क्रेट	-14327
पेक्ष	-14328
फील्ड	-14329
वाहित	-14330
सिफिक	-14331
िक्सल	-14332
ेरिया	-14333
▁2001	-14334
▁2026	-14335
▁BCCI	-14336
▁आज़ा	-14337
▁ओल्ड	-14338
▁औषधि	-14339
▁कच्छ	-14340
▁करणी	-14341
▁केपी	-14342
▁ठंडे	-14343
▁ड्रा	-14344
▁थमने	-14345
▁दांत	-14346
▁देवन	-14347
▁बंपर	-14348
▁बैरा	-14349
▁वसीम	-14350
▁वीडी	-14351
▁सज़ा	-14352
▁सदमे	-14353
▁सदैव	-14354
▁सीजे	-14355
▁सुने	-14356
▁हाला	-14357
▁हावी	-14358
ामाबाद	-14359
ियुक्त	-14360
्युनिक	-14361
▁11:30	-14362
▁Share	-14363
▁World	-14364
▁अंकुर	-14365
▁अनुमो	-14366
▁अवनीश	-14367
▁कोंडा	-14368
▁घूमते	-14369
▁ज़िले	-14370
▁झेलनी	-14371
▁टकराव	-14372
▁ट्रिब	-14373
▁पुतले	-14374
▁पैरोल	-14375
▁फ्लिप	-14376
▁बुनकर	-14377
▁बोहरा	-14378
▁भागों	-14379
▁भेजना	-14380
▁मऊगंज	-14381
▁माउंट	-14382
▁मिक्स	-14383
▁सिलाई	-14384
▁स्टॉफ	-14385
▁अल्लाह	-14386
▁एसएसबी	-14387
▁ऑफलाइन	-14388
▁खजराना	-14389
▁टेस्ला	-14390
▁ट्रांज	-14391
▁निकलता	-14392
▁नियामक	-14393
▁निवेदन	-14394
▁निष्का	-14395
▁नेपाली	-14396
▁नॉर्मल	-14397
▁पल्लवी	-14398
▁मुसीबत	-14399
▁राजपाल	-14400
▁रिमझिम	-14401
▁लौटाने	-14402
▁विशाखा	-14403
▁सुशासन	-14404
▁सृष्टि	-14405
▁आवेदकों	-14406
▁क्यूसेक	-14407
▁खुशियां	-14408
▁ढिल्लों	-14409
▁परिवादी	-14410
▁पशुपालन	-14411
▁प्रज्ञा	-14412
▁ब्रेकअप	-14413
▁मिलेंगी	-14414
▁लालवानी	-14415
▁शैक्षिक	-14416
▁सांगवान	-14417
जीक्यूटिव	-14418
▁अन्तर्गत	-14419
▁एनडीआरएफ	-14420
▁गुवाहाटी	-14421
▁निःशुल्क	-14422
▁निष्पादन	-14423
▁परमात्मा	-14424
▁परिदृश्य	-14425
▁प्रशस्ति	-14426
▁लक्ष्यों	-14427
▁हिंदुत्व	-14428
▁अध्यापकों	-14429
▁अनारक्षित	-14430
▁एक्सीलेंस	-14431
▁गुरदासपुर	-14432
▁ग्रेजुएशन	-14433
▁ज्ञानवापी	-14434
▁प्रज्ज्वल	-14435
▁प्रवृत्ति	-14436
▁व्यापारिक	-14437
▁सत्ताधारी	-14438
▁बल्लेबाजों	-14439
▁सिद्धांतों	-14440
▁अप्रत्याशित	-14441
▁प्रधानाध्यापक	-14442
36	-14443
ईस	-14444
all	-14445
गृह	-14446
बाप	-14447
बिल	-14448
मृत	-14449
ेगा	-14450
्नि	-14451
▁AT	-14452
▁CS	-14453
▁En	-14454
▁आओ	-14455
▁ढी	-14456
▁भट	-14457
hand	-14458
ण्डा	-14459
ब्बर	-14460
लेटर	-14461
ल्‍ड	-14462
विड़	-14463
▁1-1	-14464
▁138	-14465
▁NCP	-14466
▁अड़	-14467
▁एमए	-14468
▁काय	-14469
▁गंड	-14470
▁चलो	-14471
▁जेन	-14472
▁थान	-14473
▁बिश	-14474
▁बीर	-14475
▁लां	-14476
▁शौच	-14477
क्ष्म	-14478
क्‍टर	-14479
घाड़ी	-14480
िकाओं	-14481
▁अयोग	-14482
▁इम्प	-14483
▁खंडन	-14484
▁ठेला	-14485
▁दफना	-14486
▁पराग	-14487
▁पॉवर	-14488
▁फाल्	-14489
▁फौरन	-14490
▁बीना	-14491
▁महमू	-14492
▁रियर	-14493
▁रोहन	-14494
▁वीके	-14495
▁सिला	-14496
▁सीएए	-14497
▁सूखा	-14498
▁सृजन	-14499
चंद्रन	-14500
जीविका	-14501
णापत्र	-14502
प्रसाद	-14503
▁Today	-14504
▁आवाज़	-14505
▁उल्टा	-14506
▁एनजीओ	-14507
▁एमबीए	-14508
▁एलईडी	-14509
▁गुलशन	-14510
▁टकराई	-14511
▁टेक्स	-14512
▁पड़ाव	-14513
▁पूज्य	-14514
▁भरपाई	-14515
▁लिपिक	-14516
▁विनाश	-14517
▁सिमरन	-14518
▁सोचते	-14519
▁स्प्र	-14520
फ्लिक्स	-14521
▁Indian	-14522
▁अलविदा	-14523
▁आईपीसी	-14524
▁उद्यमी	-14525
▁उपासना	-14526
▁एनसीआर	-14527
▁क्षत्र	-14528
▁जगराओं	-14529
▁जाऊंगा	-14530
▁जुड़ाव	-14531
▁टकराने	-14532
▁ठिकाना	-14533
▁नेताजी	-14534
▁पटनायक	-14535
▁फंसाया	-14536
▁बांधने	-14537
▁बाथरूम	-14538
▁भुगतना	-14539
▁मनोनीत	-14540
▁विमर्श	-14541
▁वीकेंड	-14542
▁सुदामा	-14543
▁स्कॉलर	-14544
▁हावड़ा	-14545
प्रदर्शन	-14546
▁अधिवेशन	-14547
▁कीटनाशक	-14548
▁खगड़िया	-14549
▁टाइमिंग	-14550
▁डिटेल्स	-14551
▁ड्रेनेज	-14552
▁दोपहिया	-14553
▁निकालते	-14554
▁पहुंचती	-14555
▁मर्यादा	-14556
▁मुइज्जू	-14557
▁वासुदेव	-14558
▁सूरजपुर	-14559
ियोग्राफी	-14560
▁कहानियां	-14561
▁दिक्कतें	-14562
▁नियंत्रक	-14563
▁पूर्वजों	-14564
▁संतोषजनक	-14565
▁कल्याणपुर	-14566
▁घोषणापत्र	-14567
▁डिस्चार्ज	-14568
▁प्रतियोगी	-14569
▁प्रोटोकॉल	-14570
▁मंगलसूत्र	-14571
▁मुस्लिमों	-14572
▁व्यवसायिक	-14573
▁सूर्यवंशी	-14574
▁अधिवक्ताओं	-14575
▁इस्लामाबाद	-14576
▁प्रश्नपत्र	-14577
▁जिम्मेदारों	-14578
▁इलेक्ट्रॉनिक्स	-14579
34	-14580
AN	-14581
DU	-14582
cc	-14583
ww	-14584
अज	-14585
बॉ	-14586
-40	-14587
गया	-14588
तेश	-14589
नार	-14590
फ़्	-14591
बिट	-14592
माई	-14593
माझ	-14594
लीज	-14595
षेध	-14596
्यम	-14597
्यै	-14598
▁2.	-14599
▁2:	-14600
▁th	-14601
▁नृ	-14602
एनएल	-14603
टाइम	-14604
दड़ी	-14605
न्नत	-14606
बांग	-14607
मतरी	-14608
योगी	-14609
राजन	-14610
रियन	-14611
ल्टर	-14612
वड़े	-14613
स्पा	-14614
हमें	-14615
ान्त	-14616
▁102	-14617
▁106	-14618
▁107	-14619
▁135	-14620
▁Aaj	-14621
▁खटख	-14622
▁खदे	-14623
▁गबन	-14624
▁जाद	-14625
▁टहल	-14626
▁नज़	-14627
▁पैट	-14628
▁बोट	-14629
▁रवै	-14630
▁सुथ	-14631
ंसाली	-14632
नीकरण	-14633
फ़ेसर	-14634
विचार	-14635
संचार	-14636
सलाकर	-14637
िसीमन	-14638
▁(26)	-14639
▁9:30	-14640
▁अटैच	-14641
▁इज्ज	-14642
▁कंपा	-14643
▁केवट	-14644
▁डेंट	-14645
▁दीया	-14646
▁नीता	-14647
▁पर्च	-14648
▁पूरन	-14649
▁बस्त	-14650
▁ब्ले	-14651
▁वाया	-14652
▁वेंट	-14653
▁षड्य	-14654
▁समाय	-14655
▁हंसी	-14656
ग्रेशन	-14657
पूर्णा	-14658
्निध्य	-14659
▁कटारा	-14660
▁किल्ल	-14661
▁कैंडल	-14662
▁जैविक	-14663
▁टॉर्च	-14664
▁तोड़े	-14665
▁दानिश	-14666
▁निकाह	-14667
▁नौतपा	-14668
▁पदनाम	-14669
▁पिंटू	-14670
▁बीडीओ	-14671
▁मिलान	-14672
▁रवैया	-14673
▁रूपये	-14674
▁वसूला	-14675
▁शशांक	-14676
▁सराफा	-14677
▁सॉन्ग	-14678
विज्ञान	-14679
▁अंतराल	-14680
▁उज्जवल	-14681
▁करवाएं	-14682
▁करूंगी	-14683
▁कहेंगे	-14684
▁गोल्डी	-14685
▁जहरीली	-14686
▁प्रहार	-14687
▁बीएनएस	-14688
▁भाईचार	-14689
▁मुख्‍य	-14690
▁लेखपाल	-14691
▁साक्षर	-14692
▁सानिया	-14693
▁सावरकर	-14694
▁सीमाओं	-14695
कर्मचारी	-14696
▁अदालतों	-14697
▁अधीक्षण	-14698
▁गुजराती	-14699
▁द्रविड़	-14700
▁परिसीमन	-14701
▁प्रमंडल	-14702
▁प्रसादी	-14703
▁मिथिलेश	-14704
▁राजनेता	-14705
▁समर्थित	-14706
▁सुपरहिट	-14707
▁सुरिंदर	-14708
▁कमर्शियल	-14709
▁किरदारों	-14710
▁बयानबाजी	-14711
▁मिसाइलों	-14712
▁मेहमानों	-14713
▁याचिकाओं	-14714
▁षड्यंत्र	-14715
▁सूचीबद्ध	-14716
▁हाइब्रिड	-14717
▁कमिश्नरेट	-14718
▁कॉर्पोरेट	-14719
▁गिरफ़्तार	-14720
▁प्रोफ़ेसर	-14721
▁रविचंद्रन	-14722
▁संक्रांति	-14723
▁सान्निध्य	-14724
▁स्ट्रक्चर	-14725
▁हिंडनबर्ग	-14726
▁प्रमाणपत्र	-14727
▁मंत्रमुग्ध	-14728
▁इन्वेस्टिगेशन	-14729
▁प्रतिनियुक्ति	-14730
--	-14731
he	-14732
qu	-14733
लु	-14734
▁ि	-14735
इकल	-14736
ज़न	-14737
न्ट	-14738
बुल	-14739
बैग	-14740
रेल	-14741
सात	-14742
ारक	-14743
ुड़	-14744
्वल	-14745
▁re	-14746
▁झी	-14747
आरटी	-14748
गावत	-14749
तपुर	-14750
थरों	-14751
बाला	-14752
मंडी	-14753
यूआई	-14754
सीएच	-14755
होनी	-14756
िराम	-14757
▁116	-14758
▁उठी	-14759
▁घटक	-14760
▁घूस	-14761
▁डोम	-14762
▁नेम	-14763
▁बीस	-14764
▁बेश	-14765
▁भर्	-14766
▁मैग	-14767
▁राई	-14768
▁रूक	-14769
▁लला	-14770
क्सौल	-14771
ताड़ा	-14772
ब्रेट	-14773
यानंद	-14774
र्जित	-14775
वलिया	-14776
वाईसी	-14777
वाहिक	-14778
सेप्ट	-14779
▁1971	-14780
▁2027	-14781
▁अमरो	-14782
▁आरपी	-14783
▁उड़ी	-14784
▁ऑब्ज	-14785
▁छापे	-14786
▁छिपे	-14787
▁जलने	-14788
▁तंबा	-14789
▁थर्म	-14790
▁दंगे	-14791
▁नदीम	-14792
▁नासा	-14793
▁फ़ाय	-14794
▁बंसी	-14795
▁भाकर	-14796
▁भानु	-14797
▁रेनू	-14798
▁रोगी	-14799
▁हलका	-14800
▁हारी	-14801
▁हेयर	-14802
लीकेशन	-14803
स्टाइल	-14804
ेंडेंट	-14805
ोद्धार	-14806
▁उखाड़	-14807
▁उमड़ी	-14808
▁ऑलआउट	-14809
▁कारगर	-14810
▁खालसा	-14811
▁खुदरा	-14812
▁जीतीं	-14813
▁डीएनए	-14814
▁त्वचा	-14815
▁नेताम	-14816
▁पलामू	-14817
▁पिंकी	-14818
▁पिछला	-14819
▁पीटने	-14820
▁मारते	-14821
▁सुदेश	-14822
▁सेल्फ	-14823
▁सोनकर	-14824
▁हड्डी	-14825
▁अनहोनी	-14826
▁इंटर्न	-14827
▁उमरिया	-14828
▁कमांडो	-14829
▁कुत्ता	-14830
▁खंडपीठ	-14831
▁चक्रधर	-14832
▁चुकाने	-14833
▁चेहरों	-14834
▁झोपड़ी	-14835
▁तलाशने	-14836
▁नंबरों	-14837
▁पीएचसी	-14838
▁मददगार	-14839
▁रघुनाथ	-14840
▁रेणुका	-14841
▁रोहतास	-14842
▁लुटेरे	-14843
▁सिखाया	-14844
▁सेनानी	-14845
▁सोमनाथ	-14846
▁होलिका	-14847
▁अफवाहों	-14848
▁अराजकता	-14849
▁इजराइली	-14850
▁इनोवेशन	-14851
▁उन्‍हें	-14852
▁निर्वहन	-14853
▁मीट्रिक	-14854
▁लगाएंगे	-14855
▁हमीदिया	-14856
▁आउटसोर्स	-14857
▁कार्यभार	-14858
▁केदारनाथ	-14859
▁कॉन्सर्ट	-14860
▁दूरसंचार	-14861
▁प्रमुखता	-14862
▁सम्पूर्ण	-14863
बांग्लादेश	-14864
▁एजेंसियां	-14865
▁एथलेटिक्स	-14866
▁कॉन्क्लेव	-14867
▁परिवारवाद	-14868
▁पुण्यतिथि	-14869
▁व्याख्यान	-14870
▁संलिप्तता	-14871
▁स्टेटमेंट	-14872
▁स्ट्रॉन्ग	-14873
▁अभिव्यक्ति	-14874
▁जानकारियां	-14875
▁पाकिस्‍तान	-14876
▁प्रतिष्ठानों	-14877
▁प्रतिद्वंद्वी	-14878
ow	-14879
तै	-14880
दह	-14881
नई	-14882
akh	-14883
ber	-14884
ity	-14885
ric	-14886
नेड	-14887
फेर	-14888
बेन	-14889
लाज	-14890
ानन	-14891
ारू	-14892
िना	-14893
ोबा	-14894
ौंद	-14895
▁AC	-14896
▁MM	-14897
▁आउ	-14898
▁झर	-14899
,999	-14900
port	-14901
umar	-14902
ंहार	-14903
जिला	-14904
पार्	-14905
पुष्	-14906
मिशन	-14907
र्णा	-14908
वाते	-14909
वायद	-14910
स्का	-14911
ोजपा	-14912
▁Con	-14913
▁One	-14914
▁आगर	-14915
▁खिस	-14916
▁जगा	-14917
▁पट्	-14918
▁पाव	-14919
▁पीए	-14920
▁मैक	-14921
▁रान	-14922
▁लेक	-14923
▁वचन	-14924
iesel	-14925
केशनल	-14926
गर्दी	-14927
थमपुर	-14928
बलपुर	-14929
ल्लास	-14930
व्यों	-14931
सलपुर	-14932
सलूकी	-14933
हमारे	-14934
ृद्धि	-14935
▁1100	-14936
▁1990	-14937
▁अगवा	-14938
▁अगेन	-14939
▁अबकी	-14940
▁गैले	-14941
▁चिंग	-14942
▁डूबे	-14943
▁तिरु	-14944
▁फेरी	-14945
▁बैरल	-14946
▁रिसे	-14947
▁रैंप	-14948
▁वाणी	-14949
▁शिबू	-14950
▁सुले	-14951
टेरियल	-14952
वार्ता	-14953
विंद्र	-14954
वृष्टि	-14955
ोत्तरी	-14956
▁उचाना	-14957
▁कवायद	-14958
▁कैमूर	-14959
▁क्रूज	-14960
▁खातून	-14961
▁जन्मे	-14962
▁दबाने	-14963
▁धमतरी	-14964
▁धरातल	-14965
▁ध्वनि	-14966
▁नशीले	-14967
▁नाट्य	-14968
▁नामित	-14969
▁निहाल	-14970
▁पट्टा	-14971
▁पट्टे	-14972
▁फसलें	-14973
▁फ्लाई	-14974
▁बिरसा	-14975
▁बोलना	-14976
▁भतीजा	-14977
▁मंडली	-14978
▁रहस्य	-14979
▁रिटेल	-14980
▁रुद्र	-14981
▁सकुशल	-14982
▁सहेली	-14983
▁सिंघम	-14984
▁सुजीत	-14985
▁अमेरिक	-14986
▁एलपीजी	-14987
▁कनिष्ठ	-14988
▁किल्लत	-14989
▁कैरियर	-14990
▁गुजरते	-14991
▁डीआरएम	-14992
▁तंबाकू	-14993
▁तबादले	-14994
▁तृप्ति	-14995
▁देशमुख	-14996
▁धनराशि	-14997
▁नारकोट	-14998
▁निरोधक	-14999
▁बनवारी	-15000
▁बनाएगी	-15001
▁भंडारा	-15002
▁भंसाली	-15003
▁मत्स्य	-15004
▁मुबारक	-15005
▁मुरारी	-15006
▁रामलाल	-15007
▁लालपुर	-15008
▁वैष्णो	-15009
▁श्रुति	-15010
▁अनुभवों	-15011
▁आजीविका	-15012
▁इक्विटी	-15013
▁डब्ल्यू	-15014
▁पार्ट्स	-15015
▁फैक्ट्र	-15016
▁बेसब्री	-15017
▁महायज्ञ	-15018
▁सेवादार	-15019
▁नॉमिनेशन	-15020
▁फॉरेंसिक	-15021
▁बुलंदशहर	-15022
▁मिलिट्री	-15023
▁राजनैतिक	-15024
▁रामविलास	-15025
▁सरायकेला	-15026
▁पहाड़ियों	-15027
▁कब्रिस्तान	-15028
▁नेटफ्लिक्स	-15029
▁लेफ्टिनेंट	-15030
▁कांग्रेसियों	-15031
SR	-15032
li	-15033
धव	-15034
फु	-15035
भन	-15036
BJP	-15037
ँकि	-15038
इया	-15039
खेल	-15040
गोर	-15041
ज़्	-15042
डार	-15043
फली	-15044
फाश	-15045
रुक	-15046
सिक	-15047
सुफ	-15048
्मच	-15049
्ली	-15050
▁वु	-15051
ence	-15052
itic	-15053
एलबी	-15054
तिमा	-15055
तीया	-15056
ब्बी	-15057
म्बा	-15058
वतार	-15059
शर्ट	-15060
स्टो	-15061
ेटिक	-15062
्हान	-15063
▁170	-15064
▁750	-15065
▁कतर	-15066
▁कदर	-15067
▁कूच	-15068
▁गाए	-15069
▁चिल	-15070
▁परो	-15071
▁भीख	-15072
▁सघन	-15073
▁सला	-15074
▁सिन	-15075
▁सूख	-15076
▁हाट	-15077
▁हैड	-15078
पट्टी	-15079
महिला	-15080
यरिंग	-15081
राबरी	-15082
रियंस	-15083
लोगों	-15084
विन्द	-15085
िटेशन	-15086
▁(40)	-15087
▁(45)	-15088
▁अमूल	-15089
▁ईशान	-15090
▁एचडी	-15091
▁एडिट	-15092
▁कंबल	-15093
▁कप्‍	-15094
▁कहें	-15095
▁कॉफी	-15096
▁खिंच	-15097
▁छाने	-15098
▁जैकी	-15099
▁टेलर	-15100
▁तीखी	-15101
▁धोखे	-15102
▁पाटन	-15103
▁भरना	-15104
▁मसीह	-15105
▁रफीक	-15106
▁रोकी	-15107
▁सिंड	-15108
▁सेठी	-15109
▁हरमन	-15110
तेश्वर	-15111
▁अमेजन	-15112
▁आमदनी	-15113
▁आर्कि	-15114
▁एएनएम	-15115
▁एनिमल	-15116
▁एवरेज	-15117
▁कावड़	-15118
▁किसकी	-15119
▁कीचड़	-15120
▁कुवैत	-15121
▁कुसुम	-15122
▁केसरी	-15123
▁घोड़े	-15124
▁जगजीत	-15125
▁ड्रॉप	-15126
▁थोड़े	-15127
▁दिखते	-15128
▁पदभार	-15129
▁पोस्त	-15130
▁फ्रेम	-15131
▁बलजीत	-15132
▁बारीक	-15133
▁बेहाल	-15134
▁भाकपा	-15135
▁मस्ती	-15136
▁मुकाम	-15137
▁मौतों	-15138
▁लोहार	-15139
▁सच्चे	-15140
▁सर्वर	-15141
▁सीढ़ी	-15142
▁सुमेर	-15143
▁स्टेन	-15144
▁हाेने	-15145
वर्तमान	-15146
▁अश्वनी	-15147
▁आत्मसम	-15148
▁उर्वरक	-15149
▁कन्नड़	-15150
▁कार्बन	-15151
▁क्लर्क	-15152
▁जहरीला	-15153
▁टीडीपी	-15154
▁ट्रकों	-15155
▁डायमंड	-15156
▁न्योता	-15157
▁पशुपति	-15158
▁फैक्टर	-15159
▁बराबरी	-15160
▁भ्रष्ट	-15161
▁मिश्रण	-15162
▁असाधारण	-15163
▁इंसानों	-15164
▁उपयुक्त	-15165
▁पंडालों	-15166
▁पारियों	-15167
▁पीथमपुर	-15168
▁प्रारूप	-15169
▁बदसलूकी	-15170
▁मंडियों	-15171
▁मनप्रीत	-15172
▁मार्जिन	-15173
▁मेडिसिन	-15174
▁मैट्रिक	-15175
▁विकलांग	-15176
▁सुधांशु	-15177
▁कम्युनिक	-15178
▁क्रॉसिंग	-15179
▁पहुंचाना	-15180
▁प्रोसेसर	-15181
▁यूट्यूबर	-15182
▁वर्षगांठ	-15183
▁श्रीमाली	-15184
▁सुप्रिया	-15185
▁स्ट्रांग	-15186
▁उद्यमियों	-15187
▁प्रतिवेदन	-15188
▁प्लेसमेंट	-15189
▁मुश्किलों	-15190
▁अन्नपूर्णा	-15191
▁आंध्रप्रदेश	-15192
▁जीर्णोद्धार	-15193
▁ट्रांसफॉर्मर	-15194
pa	-15195
बम	-15196
▁+	-15197
.60	-15198
खरा	-15199
गड़	-15200
चमक	-15201
टलर	-15202
ताव	-15203
नान	-15204
ॉमस	-15205
ोले	-15206
▁वड	-15207
...।	-15208
ance	-15209
कानी	-15210
डंडे	-15211
थाना	-15212
बहुत	-15213
बाना	-15214
वगढ़	-15215
शियन	-15216
हमने	-15217
▁104	-15218
▁111	-15219
▁117	-15220
▁12,	-15221
▁175	-15222
▁EVM	-15223
▁असह	-15224
▁आंव	-15225
▁झुक	-15226
▁टैब	-15227
▁डाॅ	-15228
▁बक्	-15229
▁बलू	-15230
▁बाउ	-15231
▁भरण	-15232
▁यदु	-15233
▁रैन	-15234
▁लकी	-15235
ग्‍ला	-15236
नानगर	-15237
भ्यास	-15238
मुंबई	-15239
स्मान	-15240
स्मिक	-15241
▁1997	-15242
▁असें	-15243
▁आंसर	-15244
▁आचरण	-15245
▁आरएस	-15246
▁इसरो	-15247
▁कमाए	-15248
▁कहला	-15249
▁खण्ड	-15250
▁गंडक	-15251
▁गाकर	-15252
▁जोगी	-15253
▁नानी	-15254
▁नोटा	-15255
▁पीते	-15256
▁फ्ले	-15257
▁बंधु	-15258
▁रोज़	-15259
▁लुढ़	-15260
▁विलय	-15261
▁शंका	-15262
▁शशिक	-15263
▁शिखा	-15264
▁शिया	-15265
▁साबर	-15266
▁सायं	-15267
▁हमको	-15268
धीश्वर	-15269
मास्टर	-15270
िमन्यु	-15271
ोल्लास	-15272
▁एएनआई	-15273
▁चम्मच	-15274
▁ज़िला	-15275
▁ड्रिल	-15276
▁तर्पण	-15277
▁निपटा	-15278
▁बिल्ड	-15279
▁मिचेल	-15280
▁लायंस	-15281
▁वैद्य	-15282
▁शैतान	-15283
▁समाधि	-15284
▁हकदार	-15285
▁हराने	-15286
देवताओं	-15287
िस्तानी	-15288
ोलॉजिकल	-15289
▁अख़बार	-15290
▁अमरोहा	-15291
▁इकलौते	-15292
▁उल्लास	-15293
▁खिलाकर	-15294
▁गंतव्य	-15295
▁गेमिंग	-15296
▁चांदनी	-15297
▁जहरीले	-15298
▁ट्रॉमा	-15299
▁दीवाली	-15300
▁दौड़कर	-15301
▁पाबंदी	-15302
▁पोलियो	-15303
▁प्रमोट	-15304
▁फ्यूचर	-15305
▁महाशिव	-15306
▁मुफ्ती	-15307
▁राजस्‍	-15308
▁राहगीर	-15309
▁विक्रय	-15310
▁सनराइज	-15311
▁समावेश	-15312
▁सिब्बल	-15313
▁स्टेटस	-15314
▁एक्यूआई	-15315
▁चक्रवात	-15316
▁चिड़िया	-15317
▁ताराचंद	-15318
▁तारीखों	-15319
▁बांद्रा	-15320
▁मच्छरों	-15321
▁मांगलिक	-15322
▁मुलाजिम	-15323
▁मूंगफली	-15324
▁शर्मिला	-15325
▁सोनभद्र	-15326
▁स्वदेशी	-15327
▁हीरालाल	-15328
▁अभिमन्यु	-15329
▁अम्बेडकर	-15330
▁कुलविंदर	-15331
▁चौड़ीकरण	-15332
▁जल्दबाजी	-15333
▁जामताड़ा	-15334
▁तुम्हारी	-15335
▁बांग्‍ला	-15336
▁यमुनानगर	-15337
▁सैटेलाइट	-15338
▁एप्लीकेशन	-15339
▁कम्युनिटी	-15340
▁गोताखोरों	-15341
▁छुट्टियों	-15342
▁जलापूर्ति	-15343
▁प्रतिमाओं	-15344
▁फिरोजाबाद	-15345
▁रिटर्निंग	-15346
▁विरोधियों	-15347
▁सर्वप्रथम	-15348
▁फर्जीवाड़ा	-15349
प्रधानमंत्री	-15350
%,	-15351
CR	-15352
MU	-15353
▁t	-15354
-13	-15355
महा	-15356
सिस	-15357
िलर	-15358
ुवा	-15359
ोगा	-15360
▁(0	-15361
▁छल	-15362
▁धू	-15363
एलपी	-15364
क्‍ट	-15365
टीपी	-15366
डीआर	-15367
नीति	-15368
नेशन	-15369
बीती	-15370
माझम	-15371
मेकर	-15372
यूपी	-15373
स्वत	-15374
ालों	-15375
ॉन्स	-15376
ोजिट	-15377
▁126	-15378
▁230	-15379
▁अंद	-15380
▁कड़	-15381
▁गुज	-15382
▁पीप	-15383
▁माई	-15384
▁माज	-15385
▁लक्	-15386
धारित	-15387
वर्धा	-15388
िटल्स	-15389
ैक्शन	-15390
ौलिया	-15391
्रेंस	-15392
▁Case	-15393
▁अटूट	-15394
▁अनिर	-15395
▁क्षम	-15396
▁खाती	-15397
▁गढ़ी	-15398
▁जजपा	-15399
▁ठंडक	-15400
▁डुअल	-15401
▁थ्री	-15402
▁नागा	-15403
▁नायर	-15404
▁नीना	-15405
▁नेवी	-15406
▁पनीर	-15407
▁पराज	-15408
▁पहुँ	-15409
▁बानो	-15410
▁बाहु	-15411
▁मंडा	-15412
▁माथे	-15413
▁रिक्	-15414
▁रितु	-15415
▁रेसल	-15416
▁लाता	-15417
▁लार्	-15418
▁विंध	-15419
▁वेटर	-15420
▁वॉटर	-15421
▁वोल्	-15422
▁हिला	-15423
केंद्र	-15424
केश्वर	-15425
कोत्तर	-15426
चार्या	-15427
र्निया	-15428
▁उन्नत	-15429
▁एटीएस	-15430
▁कट्टे	-15431
▁कबाड़	-15432
▁कारें	-15433
▁काव्य	-15434
▁कॉन्ट	-15435
▁क्रैश	-15436
▁गश्ती	-15437
▁चाइना	-15438
▁छापाम	-15439
▁जर्मन	-15440
▁जलाया	-15441
▁जिहाद	-15442
▁जीतना	-15443
▁झमाझम	-15444
▁झाड़ू	-15445
▁तमंचा	-15446
▁दलजीत	-15447
▁दायरा	-15448
▁निचली	-15449
▁पुकार	-15450
▁पृष्ठ	-15451
▁पोशाक	-15452
▁बनाये	-15453
▁बहाना	-15454
▁बाघिन	-15455
▁बिहटा	-15456
▁बेचते	-15457
▁यशवंत	-15458
▁रिफंड	-15459
▁रूपेश	-15460
▁लास्ट	-15461
▁वारिस	-15462
▁शाहीन	-15463
▁सज्जन	-15464
▁समझकर	-15465
▁सराहा	-15466
▁सिखों	-15467
▁सुबोध	-15468
▁सुलझा	-15469
कांक्षी	-15470
▁अमनदीप	-15471
▁किन्नर	-15472
▁कॉलिंग	-15473
▁खुराना	-15474
▁गुलाबी	-15475
▁चरणजीत	-15476
▁जस्टिन	-15477
▁जाब्ता	-15478
▁जोड़ों	-15479
▁तृतीया	-15480
▁पढ़ेंः	-15481
▁परिवाद	-15482
▁फैसलों	-15483
▁बावड़ी	-15484
▁बिछाने	-15485
▁मिथिला	-15486
▁मिलाया	-15487
▁मॉस्को	-15488
▁मोहसिन	-15489
▁यूपीआई	-15490
▁वाइल्ड	-15491
▁सप्तमी	-15492
राज्यपाल	-15493
ोलॉजिस्ट	-15494
▁आकस्मिक	-15495
▁आर्किटे	-15496
▁कक्षाएं	-15497
▁ज्येष्ठ	-15498
▁टीकमगढ़	-15499
▁थाईलैंड	-15500
▁बिरादरी	-15501
▁मित्रों	-15502
▁रूपरेखा	-15503
▁लर्निंग	-15504
▁वर्कर्स	-15505
▁सामानों	-15506
▁झांकियां	-15507
▁नसरल्लाह	-15508
▁पॉडकास्ट	-15509
▁रिसेप्शन	-15510
▁संक्रमित	-15511
▁हस्तियों	-15512
▁एक्सपोर्ट	-15513
▁कोंडागांव	-15514
▁डायरेक्शन	-15515
▁धर्मांतरण	-15516
▁प्रतिभाओं	-15517
▁प्रशिक्षक	-15518
▁महापंचायत	-15519
▁मान्यताओं	-15520
▁राधाकृष्ण	-15521
▁शास्त्रीय	-15522
▁सुरजेवाला	-15523
▁स्वामित्व	-15524
▁ओंकारेश्वर	-15525
▁प्रोसेसिंग	-15526
▁स्थानांतरण	-15527
▁हर्षोल्लास	-15528
▁बांग्‍लादेश	-15529
▁सौंदर्यीकरण	-15530
▁उत्तराधिकारी	-15531
▁दुर्भाग्यपूर्ण	-15532
▁मैन्युफैक्चरिंग	-15533
ni	-15534
घी	-15535
लॉ	-15536
है	-15537
der	-15538
uja	-15539
क़त	-15540
कुर	-15541
खान	-15542
घरा	-15543
पेई	-15544
पोश	-15545
बचा	-15546
मीड	-15547
म्‍	-15548
विन	-15549
शीर	-15550
ाइज	-15551
ोका	-15552
ोटो	-15553
‍ले	-15554
▁NS	-15555
▁To	-15556
ates	-15557
एफएस	-15558
बेंस	-15559
बोधन	-15560
मुखी	-15561
यूजी	-15562
व्ही	-15563
ान्य	-15564
िप्र	-15565
िलेन	-15566
ोसिस	-15567
▁Dev	-15568
▁अचल	-15569
▁एनी	-15570
▁किम	-15571
▁कैफ	-15572
▁जफर	-15573
▁डॉन	-15574
▁तूल	-15575
▁पिट	-15576
▁पोर	-15577
▁बाह	-15578
▁महम	-15579
▁मूस	-15580
▁रैम	-15581
▁सुब	-15582
▁सैर	-15583
ident	-15584
काराम	-15585
पल्ली	-15586
भाविक	-15587
रोक्त	-15588
सरकार	-15589
ार्दन	-15590
िशियन	-15591
▁(21)	-15592
▁(23)	-15593
▁(28)	-15594
▁1992	-15595
▁UPSC	-15596
▁अड़े	-15597
▁उड़द	-15598
▁उनपर	-15599
▁एसिड	-15600
▁कर्क	-15601
▁गिना	-15602
▁जीएम	-15603
▁जेएन	-15604
▁जेके	-15605
▁टिकी	-15606
▁डांड	-15607
▁धारी	-15608
▁नौबत	-15609
▁पागल	-15610
▁पिलर	-15611
▁पीला	-15612
▁पौने	-15613
▁मीनू	-15614
▁रणजी	-15615
▁रनवे	-15616
▁लेयर	-15617
▁शीला	-15618
▁संपा	-15619
▁संयम	-15620
▁सोते	-15621
▁सौरव	-15622
▁हेल्	-15623
एनसीआर	-15624
मंडलीय	-15625
रामंडी	-15626
र्लिंग	-15627
्यवहार	-15628
▁अधेड़	-15629
▁अनुया	-15630
▁अभिले	-15631
▁कमिटी	-15632
▁कराची	-15633
▁क्रिए	-15634
▁डिलीट	-15635
▁दिखती	-15636
▁दुमका	-15637
▁धारणा	-15638
▁प्‍ले	-15639
▁बलदेव	-15640
▁बांधा	-15641
▁बोलकर	-15642
▁भड़की	-15643
▁भतीजी	-15644
▁माइंड	-15645
▁रवीना	-15646
▁रिटेन	-15647
▁लावार	-15648
▁शहबाज	-15649
▁सैमसन	-15650
▁हानिक	-15651
त्तियां	-15652
मुस्लिम	-15653
स्थापना	-15654
▁अर्थात	-15655
▁आपबीती	-15656
▁इटारसी	-15657
▁उन्नति	-15658
▁एक्सपो	-15659
▁कासगंज	-15660
▁खासियत	-15661
▁छाबड़ा	-15662
▁छिपाकर	-15663
▁जमीनों	-15664
▁जेजेपी	-15665
▁टोक्यो	-15666
▁तेजधार	-15667
▁दाहिने	-15668
▁पार्सल	-15669
▁पिंजरे	-15670
▁पीएससी	-15671
▁पूर्वा	-15672
▁बांधों	-15673
▁भागीरथ	-15674
▁माननीय	-15675
▁सौम्या	-15676
▁स्कोरर	-15677
▁हितग्र	-15678
▁Politic	-15679
▁अनुराधा	-15680
▁इमारतों	-15681
▁उज्ज्वल	-15682
▁खुशहाली	-15683
▁गोलियों	-15684
▁टुकड़ों	-15685
▁डिजाइनर	-15686
▁दृष्टया	-15687
▁धर्मवीर	-15688
▁निकलेगी	-15689
▁पत्थरों	-15690
▁पीठासीन	-15691
▁मॉडलिंग	-15692
▁रश्मिका	-15693
▁विद्वान	-15694
▁शिकायती	-15695
▁शेयरिंग	-15696
▁संस्करण	-15697
▁सूक्ष्म	-15698
▁हालाँकि	-15699
▁अभियानों	-15700
▁कमांडेंट	-15701
▁प्रखंडों	-15702
▁मताधिकार	-15703
▁मांगीलाल	-15704
▁सूर्योदय	-15705
▁हनुमानजी	-15706
▁मंत्रोच्च	-15707
▁लाठीचार्ज	-15708
▁शिवरात्रि	-15709
▁सेलिब्रेट	-15710
▁पत्रकारिता	-15711
▁प्रेग्नेंट	-15712
▁फ्लिपकार्ट	-15713
▁साहित्यकार	-15714
▁दुर्घटनाग्रस्त	-15715
38	-15716
In	-15717
oc	-15718
रर	-15719
.65	-15720
AAP	-15721
old	-15722
uti	-15723
कोल	-15724
गरा	-15725
जेज	-15726
दिव	-15727
नेई	-15728
पिछ	-15729
बुआ	-15730
राल	-15731
विम	-15732
शीद	-15733
सोन	-15734
▁SI	-15735
▁इल	-15736
▁ऋत	-15737
▁ऐश	-15738
ress	-15739
thor	-15740
च्चा	-15741
छोटी	-15742
नाइट	-15743
न्दन	-15744
प्रण	-15745
प्लस	-15746
मार्	-15747
सिंघ	-15748
िलाल	-15749
▁3.5	-15750
▁5-6	-15751
▁For	-15752
▁OBC	-15753
▁RCB	-15754
▁केर	-15755
▁चॉक	-15756
▁टनल	-15757
▁पों	-15758
▁भूट	-15759
▁मंे	-15760
▁रहो	-15761
▁रिह	-15762
▁विह	-15763
▁शरा	-15764
▁शॉल	-15765
▁हज़	-15766
▁हाप	-15767
चांपा	-15768
त्रिम	-15769
धिकृत	-15770
नाबाद	-15771
लेक्स	-15772
वेटिव	-15773
स्केट	-15774
स्कॉन	-15775
ुराहो	-15776
ॉर्डन	-15777
▁(32)	-15778
▁अभिर	-15779
▁आदान	-15780
▁उलझा	-15781
▁एजाज	-15782
▁कगार	-15783
▁कांत	-15784
▁गंदी	-15785
▁गाँव	-15786
▁नंदन	-15787
▁नकाब	-15788
▁पाले	-15789
▁फिली	-15790
▁बीडी	-15791
▁भलाई	-15792
▁रिवर	-15793
▁वर्च	-15794
▁विनर	-15795
▁वियत	-15796
▁हफ्त	-15797
क्षांत	-15798
राजगंज	-15799
ेंटेशन	-15800
▁11.30	-15801
▁काबिज	-15802
▁क्रूड	-15803
▁ग्रिड	-15804
▁चन्नी	-15805
▁जालौन	-15806
▁डीवाई	-15807
▁ड्रीम	-15808
▁त्रिल	-15809
▁त्रुट	-15810
▁दंपति	-15811
▁दुर्व	-15812
▁देंगी	-15813
▁देवरी	-15814
▁निदान	-15815
▁पत्रा	-15816
▁परवीन	-15817
▁प्रेज	-15818
▁बलराज	-15819
▁बीटेक	-15820
▁मनमोह	-15821
▁मुरार	-15822
▁यार्ड	-15823
▁रातों	-15824
▁लोजपा	-15825
▁लौटना	-15826
▁साउंड	-15827
▁सोचना	-15828
▁स्टेप	-15829
▁हटाना	-15830
▁हिमंत	-15831
▁हुंडई	-15832
ल्लेवाल	-15833
समृद्धि	-15834
ोग्राफर	-15835
▁Author	-15836
▁अनुचित	-15837
▁उस्मान	-15838
▁कटाक्ष	-15839
▁कवर्धा	-15840
▁किस्से	-15841
▁खिलाया	-15842
▁चलेंगी	-15843
▁जतिंदर	-15844
▁जागरुक	-15845
▁जातकों	-15846
▁जापानी	-15847
▁तरक्की	-15848
▁पायदान	-15849
▁प्रतीत	-15850
▁बीएचयू	-15851
▁मशीनरी	-15852
▁मैगजीन	-15853
▁राजकोट	-15854
▁विमेंस	-15855
▁शालिनी	-15856
▁सकेंगी	-15857
▁सदियों	-15858
▁स्काउट	-15859
[...]
