<unk>	0
<s>	0
</s>	0
।	-3.18315
▁के	-3.40296
▁में	-3.65294
▁की	-3.87123
▁है	-3.96506
▁को	-4.12807
▁से	-4.17379
▁ने	-4.29653
,	-4.35267
▁का	-4.48061
▁और	-4.5413
▁पर	-4.59127
▁	-4.67946
ों	-4.81928
▁कि	-4.89833
▁हैं	-5.01558
ी	-5.04697
▁भी	-5.12974
▁,	-5.14041
▁कर	-5.22667
▁इस	-5.34004
▁किया	-5.34114
▁लिए	-5.3902
▁एक	-5.43222
▁गया	-5.44203
ने	-5.4479
▁नहीं	-5.52609
▁था	-5.5371
े	-5.56663
-	-5.58224
▁हो	-5.64403
ा	-5.66307
▁ही	-5.69225
▁बाद	-5.7077
▁साथ	-5.84581
▁पुलिस	-5.85745
▁कहा	-5.88387
▁गई	-5.88835
▁करने	-5.922
.	-5.95995
▁दिया	-5.97516
▁तो	-6.07229
▁रहे	-6.07923
▁थी	-6.08904
▁रहा	-6.10051
▁बताया	-6.10541
▁तक	-6.13533
▁हुए	-6.15067
▁यह	-6.15964
▁जा	-6.19256
▁रही	-6.21252
▁थे	-6.21545
▁सिंह	-6.26369
कर	-6.33593
▁दी	-6.33963
▁गए	-6.34161
▁उन्होंने	-6.34769
▁व	-6.4
▁लेकर	-6.41755
▁पहले	-6.42217
▁इसके	-6.44163
▁लोगों	-6.47702
▁अपने	-6.49967
▁लेकिन	-6.54865
▁(	-6.54881
▁हुई	-6.55288
न	-6.56761
▁-	-6.60535
र	-6.63401
▁वह	-6.63885
▁होने	-6.64112
▁वाले	-6.64312
▁दिन	-6.64529
▁साल	-6.65003
▁दौरान	-6.66608
▁हुआ	-6.69605
▁जो	-6.72292
▁अब	-6.73535
▁सरकार	-6.76388
▁न	-6.76991
▁'	-6.77012
ियों	-6.78237
▁घर	-6.78953
▁करते	-6.79087
▁दो	-6.80088
▁कुमार	-6.80103
▁ये	-6.80598
▁क्षेत्र	-6.84663
▁लिया	-6.85065
▁सभी	-6.85113
▁कुछ	-6.86598
▁बार	-6.88095
▁चुनाव	-6.88115
)	-6.8848
▁कई	-6.88672
▁आ	-6.90524
क	-6.91013
▁गांव	-6.91864
▁काम	-6.94357
▁बात	-6.94387
▁भारत	-6.95529
ओं	-6.95745
ल	-6.96194
▁टीम	-6.9664
▁उनके	-6.97679
▁थाना	-6.9861
▁मामले	-6.98829
ना	-6.99472
▁"	-6.99516
▁पास	-6.99804
▁कोई	-7.00313
▁लोग	-7.01788
▁उस	-7.02619
▁द्वारा	-7.03126
▁अपनी	-7.04641
▁समय	-7.04661
▁कांग्रेस	-7.04681
▁जब	-7.0501
▁वहीं	-7.06144
▁उन्हें	-7.06209
ता	-7.06565
▁शुरू	-7.06631
▁यहां	-7.08131
▁दोनों	-7.08247
▁दर्ज	-7.09352
▁बना	-7.11233
▁बजे	-7.11382
▁इन	-7.11407
▁रुपए	-7.12096
:	-7.1225
▁घटना	-7.1344
▁जांच	-7.13579
▁नगर	-7.15239
▁किसी	-7.15534
▁विभाग	-7.15741
▁तरह	-7.17113
▁रूप	-7.17663
▁आरोपी	-7.178
▁बीच	-7.18224
▁उसके	-7.18346
ते	-7.18884
▁देश	-7.18936
▁जानकारी	-7.19295
▁आज	-7.2013
▁नाम	-7.21056
▁महिला	-7.21828
▁प्रदेश	-7.22338
▁जिला	-7.22477
▁शामिल	-7.23049
▁:	-7.23959
्स	-7.24513
▁एवं	-7.24772
▁10	-7.25267
▁2	-7.25569
ित	-7.27093
▁5	-7.27134
▁भाजपा	-7.2729
▁होगा	-7.27866
▁अस्पताल	-7.27917
▁जाएगा	-7.28259
▁किए	-7.29473
▁राज्य	-7.30483
▁या	-7.30617
▁उसे	-7.30703
▁लाख	-7.30724
▁अन्य	-7.31316
▁वे	-7.31339
▁खिलाफ	-7.31536
▁जारी	-7.31548
▁ले	-7.31611
▁कारण	-7.31712
▁जिले	-7.32002
▁फिर	-7.32047
▁पार्टी	-7.32282
▁जाने	-7.3327
▁रात	-7.33436
▁मैं	-7.34461
▁करीब	-7.35702
म	-7.36061
▁पूर्व	-7.36063
ि	-7.36609
▁उनकी	-7.36767
▁वाली	-7.37093
▁ज्यादा	-7.38083
▁युवक	-7.3877
▁मंत्री	-7.39147
▁परिवार	-7.39278
▁राम	-7.40038
▁हर	-7.40122
▁मौके	-7.40176
▁मंदिर	-7.40472
▁3	-7.40509
▁ओर	-7.40682
▁करना	-7.41781
▁जाता	-7.4207
▁कार्रवाई	-7.42135
▁तीन	-7.4243
▁डॉ	-7.42681
▁हम	-7.429
से	-7.42991
▁मौत	-7.43789
▁वो	-7.44593
▁सामने	-7.44965
▁शहर	-7.45029
▁सुबह	-7.4552
▁फिल्म	-7.45736
िंग	-7.46063
▁स्कूल	-7.46221
▁सबसे	-7.48544
▁देने	-7.49312
▁4	-7.49451
▁अध्यक्ष	-7.49636
▁कार्यक्रम	-7.51715
▁क्या	-7.51775
▁अ	-7.52156
▁निवासी	-7.52291
▁यादव	-7.52843
▁हजार	-7.52869
▁पानी	-7.53277
▁6	-7.54303
▁सूचना	-7.55034
▁कम	-7.55659
स	-7.55728
▁लगा	-7.55836
▁मांग	-7.5595
▁ऐसे	-7.56033
▁बारिश	-7.56272
▁स	-7.56888
▁दिए	-7.57028
▁जहां	-7.5713
▁आरोप	-7.57912
िक	-7.58217
▁होगी	-7.58959
▁इसी	-7.59013
▁चल	-7.5932
▁आने	-7.59415
▁जिसमें	-7.59499
▁गिरफ्तार	-7.59558
▁इसमें	-7.60036
▁करोड़	-7.60146
▁अधिक	-7.60876
▁अधिकारी	-7.61057
▁बाहर	-7.63038
▁भारतीय	-7.63454
▁दे	-7.63617
▁आया	-7.63861
▁दिल्ली	-7.64609
▁पहुंचे	-7.64663
▁बन	-7.6467
▁मोदी	-7.64814
▁अनुसार	-7.64907
▁रहने	-7.65339
▁कोर्ट	-7.65809
ं	-7.65853
▁शर्मा	-7.66032
▁आए	-7.67057
▁आई	-7.67307
▁सकता	-7.67373
ट	-7.67532
▁चाहिए	-7.68319
▁लोकसभा	-7.68939
▁स्थित	-7.68989
▁12	-7.70372
▁वहां	-7.70471
▁शिकायत	-7.70572
▁मिली	-7.71475
▁पिछले	-7.72393
▁मामला	-7.72522
▁ली	-7.73056
▁पूरी	-7.73205
▁उसकी	-7.73705
▁)	-7.74546
▁शव	-7.74623
▁8	-7.75246
▁20	-7.75729
▁विधायक	-7.76426
▁वर्ष	-7.77816
▁जी	-7.77962
▁राज	-7.78061
▁काफी	-7.78631
▁आगे	-7.7871
▁शाम	-7.78777
▁नेता	-7.78895
▁मौजूद	-7.79469
नी	-7.79471
▁रिपोर्ट	-7.79476
▁सहित	-7.79931
▁बड़ी	-7.80145
▁जिसक	-7.80401
▁जीत	-7.80688
▁जाएगी	-7.80993
▁7	-7.81331
▁जबकि	-7.81404
▁1	-7.81745
▁बहुत	-7.82504
▁विकास	-7.829
▁रोड	-7.83076
▁हालांकि	-7.83108
▁2024	-7.83153
▁बैठक	-7.83254
ई	-7.83337
▁बंद	-7.83738
▁अभी	-7.83801
▁मुख्यमंत्री	-7.84388
▁आप	-7.8528
▁कार	-7.8533
▁होता	-7.85553
▁मुख्य	-7.85701
▁वीडियो	-7.85928
▁15	-7.86038
▁मां	-7.86057
▁तहत	-7.86276
▁अपना	-7.86526
▁बच्चों	-7.86649
▁विधानसभा	-7.86806
▁बाइक	-7.8739
▁बता	-7.87793
▁सड़क	-7.87818
ीय	-7.87918
▁मिल	-7.87959
▁पिता	-7.87965
▁करें	-7.8851
▁चला	-7.88543
▁सकते	-7.88924
▁बारे	-7.89116
▁अलावा	-7.89344
पुर	-7.89448
▁हत्या	-7.8947
▁उनका	-7.89549
▁मीडिया	-7.90004
▁लग	-7.90181
▁केंद्र	-7.90338
▁मिला	-7.9102
▁पता	-7.91881
▁योजना	-7.92
▁अगर	-7.92069
▁अलग	-7.92556
▁कार्य	-7.92734
▁चार	-7.92838
▁कंपनी	-7.92853
▁कहना	-7.93262
ती	-7.9336
▁11	-7.93368
▁वजह	-7.93941
?	-7.94346
▁संख्या	-7.94434
▁सीट	-7.94456
ू	-7.94548
▁पत्नी	-7.94607
▁शादी	-7.94666
▁आरोपियों	-7.94786
▁देख	-7.951
▁दूसरे	-7.95716
▁वाहन	-7.96129
▁परीक्षा	-7.9619
▁9	-7.96668
▁सुरक्षा	-7.96724
▁आग	-7.96815
ो	-7.96982
▁अधिकारियों	-7.97348
▁हमार	-7.98064
▁बस	-7.98321
▁तरफ	-7.98335
▁आयोजन	-7.98635
▁पूरा	-7.98653
▁तब	-7.98656
▁करेंगे	-7.98869
▁घायल	-7.99274
▁दिनों	-7.99297
▁करता	-7.99372
▁समाज	-7.99385
▁इसे	-7.9958
▁होती	-7.99963
▁श्री	-8.00109
▁जिस	-8.0011
▁पहुंच	-8.00152
▁जैसे	-8.00388
▁महीने	-8.00544
▁भाई	-8.01495
▁घंटे	-8.01926
▁नंबर	-8.02666
▁ऐसा	-8.02702
▁वाला	-8.0274
▁बीजेपी	-8.03098
▁हरियाणा	-8.03459
▁क	-8.03769
▁मुताबिक	-8.04509
▁लगातार	-8.04976
▁सोमवार	-8.05145
▁पूरे	-8.05473
▁निर्माण	-8.05483
▁जिससे	-8.05522
▁नजर	-8.05642
▁कॉलेज	-8.05759
▁व्यक्ति	-8.05824
त	-8.05967
▁बढ़	-8.06902
▁पहुंची	-8.06913
▁इसकी	-8.06913
▁ना	-8.07372
▁सांसद	-8.0747
▁जगह	-8.08159
▁त	-8.08265
▁सकती	-8.08803
▁लगाया	-8.09422
▁पहली	-8.09589
▁मिलने	-8.1042
▁लगे	-8.10777
▁निगम	-8.1088
▁थाने	-8.10978
▁बिहार	-8.11071
▁निर्देश	-8.11077
▁तैयार	-8.11301
▁गांधी	-8.11353
▁प्रति	-8.11359
▁इसका	-8.11687
▁हूं	-8.11743
▁भगवान	-8.12093
▁मंगलवार	-8.12268
▁रन	-8.12336
▁प्रधानमंत्री	-8.12479
▁कराया	-8.12739
▁जाए	-8.1292
▁प्रशासन	-8.13545
▁मृतक	-8.13662
▁डिग्री	-8.13756
▁आधार	-8.14233
▁इसलिए	-8.14356
▁देते	-8.1436
री	-8.14428
▁जाती	-8.14872
▁बड़ा	-8.15177
▁मैच	-8.15256
▁पांच	-8.16325
▁मुझे	-8.16533
▁बड़े	-8.1685
▁तेज	-8.17004
▁पति	-8.17111
▁बनाया	-8.17119
▁इलाज	-8.17433
▁शनिवार	-8.17444
▁खान	-8.1749
▁नई	-8.17642
▁30	-8.17651
▁नए	-8.1785
▁जमीन	-8.17904
▁रविवार	-8.17952
िया	-8.18128
▁सीएम	-8.18286
▁शिक्षा	-8.1878
▁लाल	-8.1878
▁बुधवार	-8.1887
▁25	-8.19057
▁केस	-8.19268
▁जून	-8.1927
▁शुक्रवार	-8.19289
ज	-8.19505
▁प्रदर्शन	-8.19686
▁खुद	-8.19758
▁प्रभारी	-8.19971
▁पहचान	-8.20319
▁रुपये	-8.2047
▁पूजा	-8.20648
▁जल	-8.20709
▁आयोजित	-8.20975
▁जेल	-8.21142
▁खेल	-8.21153
▁राजस्थान	-8.21186
▁कुल	-8.21432
▁मौसम	-8.21784
▁पत्र	-8.22505
▁तापमान	-8.22694
▁समेत	-8.22935
ेंद्र	-8.22999
▁आदेश	-8.2328
▁बिजली	-8.23421
▁वोट	-8.23455
▁लगी	-8.23637
▁उसका	-8.23737
▁उन	-8.23895
▁स्थिति	-8.24046
▁पंजाब	-8.24103
▁भर्ती	-8.242
▁प	-8.24239
▁परिजनों	-8.24306
▁सेवा	-8.24469
▁गुरुवार	-8.24899
▁गंभीर	-8.24901
▁मार	-8.25138
▁बैंक	-8.25385
▁देर	-8.25432
▁सवाल	-8.25713
▁शुरुआत	-8.25779
▁बच्चे	-8.25885
▁लेने	-8.26052
▁राहुल	-8.26081
▁फोन	-8.26319
▁ों	-8.26489
▁यात्रा	-8.26762
▁व्यवस्था	-8.26806
में	-8.26898
'	-8.27008
▁भाग	-8.27276
▁होते	-8.27319
▁जुलाई	-8.27434
▁समिति	-8.27515
सी	-8.27685
▁दें	-8.27696
▁आम	-8.27753
▁बेटे	-8.27802
▁13	-8.27838
▁बाजार	-8.27843
▁बयान	-8.28314
▁हाथ	-8.28593
▁विशेष	-8.28773
▁जनता	-8.28776
▁24	-8.28849
▁ट्रेन	-8.28876
▁उप	-8.28901
▁रोक	-8.29137
▁राष्ट्रीय	-8.29252
▁चलते	-8.29422
▁होकर	-8.29562
▁सरकारी	-8.29608
▁जान	-8.29641
▁रखा	-8.2983
▁चोरी	-8.29838
▁अभियान	-8.29956
▁स्थान	-8.30232
▁क्योंकि	-8.30359
▁म	-8.30704
▁दल	-8.30718
▁थीं	-8.30944
▁50	-8.31003
▁महा	-8.31104
▁चुके	-8.31148
▁बेटी	-8.31296
▁विभिन्न	-8.31301
▁मिले	-8.31455
▁भेज	-8.31513
▁दोपहर	-8.31564
▁दूसरी	-8.31715
▁सोशल	-8.31828
▁अगस्त	-8.31832
▁र	-8.31853
▁सवार	-8.32281
▁?	-8.32388
▁प्रतिशत	-8.32482
▁युवा	-8.32588
▁विरोध	-8.32596
▁18	-8.32912
ु	-8.33036
▁ब	-8.33072
▁14	-8.33215
▁तथा	-8.33536
▁महिलाओं	-8.33663
व	-8.33791
▁स्वास्थ्य	-8.33807
▁हाल	-8.33858
▁रह	-8.34039
▁चर्चा	-8.34483
▁सिर्फ	-8.34535
▁रेलवे	-8.34563
▁होंगे	-8.34848
▁जवाब	-8.34878
ए	-8.35236
▁ए	-8.35394
ड	-8.35801
▁चुकी	-8.3588
▁मोबाइल	-8.36052
▁उम्मीदवार	-8.36097
▁विवाद	-8.36158
▁मदद	-8.36256
▁ग्राम	-8.36632
▁जयपुर	-8.36674
▁स्थानीय	-8.36907
▁पुत्र	-8.36972
▁मान	-8.37008
▁जाते	-8.37633
▁16	-8.37657
▁बनाए	-8.37896
▁प्रमुख	-8.38097
▁पद	-8.38612
▁सब	-8.38689
▁अवसर	-8.39445
▁जैन	-8.39696
▁किसान	-8.3973
▁देखा	-8.39949
▁लगभग	-8.4009
▁सदस्य	-8.40285
▁शिक्षक	-8.40549
▁जल्द	-8.40662
▁इलाके	-8.40834
▁देवी	-8.40917
▁गाड़ी	-8.41138
▁डॉक्टर	-8.41175
▁शराब	-8.41304
▁पाकिस्तान	-8.41315
▁17	-8.4139
▁वापस	-8.41412
▁स्तर	-8.41442
▁आदि	-8.41443
द	-8.41486
▁मेरे	-8.41516
▁पंचायत	-8.4153
▁छात्र	-8.41614
▁अवैध	-8.41763
▁द	-8.42087
▁करती	-8.4218
▁किसानों	-8.42709
▁पा	-8.42819
▁छोड़	-8.42837
▁मई	-8.42866
▁दूर	-8.43118
▁सचिव	-8.43125
▁वालों	-8.43644
▁पीड़ित	-8.44255
▁ई	-8.44353
▁19	-8.44386
▁इंडिया	-8.44391
▁शेयर	-8.44543
▁टी	-8.4457
▁बढ़ा	-8.44966
▁पहुंचा	-8.45259
▁प्रयास	-8.45366
▁स्टेशन	-8.45404
▁सितंबर	-8.45576
▁कोशिश	-8.45657
▁शिव	-8.45747
▁जीवन	-8.45848
▁कहते	-8.46116
▁श	-8.46347
▁मारपीट	-8.46424
▁उत्तर	-8.46467
▁इंदौर	-8.46749
▁अंदर	-8.46854
▁कलेक्टर	-8.46978
▁अक्टूबर	-8.47409
▁चुका	-8.47723
▁पीएम	-8.47778
▁गिर	-8.4808
▁बरामद	-8.48081
वीं	-8.48245
▁वन	-8.4829
▁दिसंबर	-8.48961
▁जन	-8.49176
▁हमला	-8.49242
▁प्र	-8.49313
ण	-8.49496
▁तीसर	-8.49741
▁पीछे	-8.49795
़	-8.49923
▁ज	-8.49999
▁22	-8.50299
▁पेश	-8.50353
▁कह	-8.50406
टी	-8.50518
▁हादसे	-8.50563
▁आपक	-8.50616
▁लिखा	-8.51221
▁देकर	-8.5135
ें	-8.51489
▁मेडिकल	-8.51567
▁पूछताछ	-8.51631
▁कार्यालय	-8.51703
▁नवंबर	-8.52213
▁आवेदन	-8.52282
▁संबंध	-8.52444
▁आसपास	-8.52604
▁दुकान	-8.52675
▁लाइन	-8.52861
लाल	-8.53153
ब	-8.53167
▁केंद्रीय	-8.53195
▁जिन	-8.53282
▁पक्ष	-8.5356
▁कभी	-8.53908
▁माता	-8.54059
▁एसपी	-8.54222
▁लोक	-8.54328
▁प्राप्त	-8.54376
▁मतदान	-8.54441
▁केवल	-8.54506
▁तौर	-8.54572
▁21	-8.54716
▁धर्म	-8.5489
▁जाएंगे	-8.55117
▁बने	-8.55289
▁आपको	-8.55351
मान	-8.55379
▁चौधरी	-8.55438
▁बिना	-8.55616
▁भोपाल	-8.56657
▁पढ़ें	-8.56895
▁मिनट	-8.5699
▁देखने	-8.57109
▁जाना	-8.57129
▁देव	-8.57779
▁नेताओं	-8.58368
▁ध्यान	-8.58645
▁मरीज	-8.58683
▁भारी	-8.58759
▁क्यों	-8.58981
▁उठा	-8.58986
▁पड़ा	-8.59163
▁मन	-8.59665
▁माध्यम	-8.59904
▁सु	-8.59961
▁मार्च	-8.60447
ला	-8.60635
▁माह	-8.60806
▁भर	-8.60815
प	-8.61502
▁हमें	-8.61763
▁प्रसाद	-8.61896
▁अपराध	-8.6215
▁होना	-8.62501
▁विजय	-8.62503
▁खास	-8.6268
▁ऑफ	-8.62942
▁पड़	-8.63021
▁कैसे	-8.63085
▁बोर्ड	-8.63181
▁देखते	-8.63231
▁राय	-8.63465
▁नदी	-8.63469
▁सी	-8.6361
▁फरार	-8.63665
▁...	-8.64017
▁राशि	-8.64334
▁टिकट	-8.64614
अलग	-8.64637
जी	-8.64681
श	-8.64973
▁विदेश	-8.65322
▁कराने	-8.65376
▁40	-8.65514
▁2023	-8.65584
▁मंडल	-8.65692
▁पोस्ट	-8.65984
▁यानी	-8.66135
▁पी	-8.66139
▁संबंधित	-8.66169
▁सके	-8.66173
▁जनवरी	-8.66314
ंग	-8.66622
▁जिसे	-8.66696
▁ग्रामीणों	-8.66891
▁वार्ड	-8.66921
ह	-8.67083
▁ग्रामीण	-8.67233
▁कर्मचारी	-8.67469
▁बदल	-8.67912
▁प्रक्रिया	-8.68049
▁अगले	-8.68246
▁बाल	-8.68343
▁छात्रों	-8.68566
▁समारोह	-8.68653
▁तय	-8.68864
▁संजय	-8.68963
▁सीटों	-8.69128
▁आयोग	-8.69191
▁लगाए	-8.69203
या	-8.69388
▁जिलों	-8.70057
▁भेजा	-8.70395
▁पुर	-8.70881
▁दावा	-8.71087
▁बल	-8.71272
▁ऐसी	-8.71287
▁छत्तीसगढ़	-8.71362
▁भवन	-8.71432
▁ं	-8.7177
▁नेतृत्व	-8.71834
▁बनी	-8.71915
▁बोले	-8.72162
▁तलाश	-8.723
▁26	-8.72324
▁्स	-8.724
▁परेशान	-8.72447
▁उर्फ	-8.72552
▁कर्मचारिय	-8.72567
▁रखने	-8.72579
▁नियम	-8.72977
▁गोली	-8.72998
गंज	-8.73039
▁शाह	-8.73088
▁ताकि	-8.73184
▁संभावना	-8.73252
▁गर्मी	-8.73339
▁नीचे	-8.7343
▁मे	-8.7353
▁मुंबई	-8.73603
▁बल्क	-8.7379
▁वर्ग	-8.73877
▁माना	-8.73974
▁.	-8.74183
▁हिस्सा	-8.7447
▁संगठन	-8.74806
राज	-8.74809
▁दुनिया	-8.74812
▁विकेट	-8.74876
▁अप्रैल	-8.74882
▁हार	-8.74917
▁खबर	-8.74939
रेंद्र	-8.7502
▁टक्कर	-8.75201
▁तैयारी	-8.75358
▁गुप्ता	-8.75443
▁23	-8.75487
▁प्रत्याशी	-8.75609
▁दरअसल	-8.75773
▁लगाने	-8.76139
▁कीमत	-8.76161
5	-8.76374
▁पकड़	-8.76481
▁अंतर	-8.76542
▁मध्य	-8.76718
▁प्रकाश	-8.77015
▁100	-8.77026
▁गुरु	-8.77144
▁फैसला	-8.77284
▁चरण	-8.7735
▁टेस्ट	-8.77358
▁समस्या	-8.77493
जीत	-8.77669
▁निकाल	-8.77679
▁जुड़े	-8.77973
▁हासिल	-8.7818
्	-8.78231
▁मकान	-8.78265
▁जाकर	-8.78272
▁मार्ग	-8.78337
ेट	-8.78442
▁सदर	-8.78518
▁फोटो	-8.78523
▁राजनीतिक	-8.78923
▁साफ	-8.79121
▁मैदान	-8.79125
▁अमेरिका	-8.79395
▁रहते	-8.79651
▁इस्तेमाल	-8.79789
▁चौक	-8.80048
▁जमा	-8.80202
▁संघ	-8.80362
▁वक्त	-8.80655
▁च	-8.80775
▁दोस्त	-8.80788
▁प्रकार	-8.81003
▁28	-8.81045
▁बाबा	-8.81098
▁रहेगा	-8.8115
▁चालक	-8.8123
1	-8.81359
▁27	-8.8147
▁ऊपर	-8.81598
रा	-8.8178
▁हालत	-8.81909
▁वि	-8.82039
▁अमित	-8.82215
▁पटना	-8.8225
▁भीड़	-8.82679
▁बातचीत	-8.8291
▁वित्त	-8.83086
▁कानून	-8.8315
▁पैसे	-8.83176
▁नया	-8.83321
▁परिसर	-8.8336
▁सिटी	-8.83631
वा	-8.83639
▁यही	-8.83767
▁ठीक	-8.83978
▁वायरल	-8.84191
▁लाभ	-8.84434
▁महत्वपूर्ण	-8.84511
▁झारखंड	-8.84517
▁सीमा	-8.84654
▁यूपी	-8.84997
▁फिलहाल	-8.85227
▁बांग्लादेश	-8.8544
▁खत्म	-8.85588
▁रंग	-8.85605
▁हमने	-8.85689
▁सेंटर	-8.85692
▁कराई	-8.85745
▁दिवस	-8.8593
▁गठबंधन	-8.86112
▁तीनों	-8.86167
▁निजी	-8.86178
▁सभा	-8.86343
▁घोषणा	-8.86392
▁खेत	-8.86411
▁कहीं	-8.8669
▁प्रेम	-8.86864
▁शो	-8.87741
▁ओवर	-8.8781
▁लखनऊ	-8.87875
▁नागरिक	-8.87883
▁चोर	-8.87999
▁राष्ट्रपति	-8.8804
▁ट्रक	-8.88165
▁पहला	-8.88196
▁कार्ड	-8.88546
▁घोषित	-8.88559
▁होटल	-8.88619
▁खराब	-8.88627
▁ला	-8.89043
▁मेरी	-8.89166
▁लड़की	-8.89309
▁200	-8.89379
मेंट	-8.89478
▁31	-8.89487
▁उपस्थित	-8.89491
▁बचा	-8.89541
▁मिलकर	-8.89574
▁ल	-8.89724
ेश	-8.89725
इनमें	-8.8989
▁दर्शन	-8.89944
▁हटा	-8.90057
▁अंतिम	-8.90221
▁सामान	-8.90231
▁सा	-8.90329
▁सम्मान	-8.90382
▁कल	-8.90742
▁चीन	-8.90784
▁मीटर	-8.90854
▁लड़	-8.91041
▁कमेटी	-8.91169
▁पाया	-8.91424
▁वर्षीय	-8.91575
▁29	-8.91629
▁तभी	-8.9165
▁जरिए	-8.92033
▁धारा	-8.92311
▁गेट	-8.92398
▁धमकी	-8.92419
▁प्रवेश	-8.92724
▁हिंदू	-8.9281
▁उम्मीद	-8.92972
▁लगाई	-8.93189
▁बी	-8.93294
▁इतन	-8.93298
▁अचानक	-8.93686
▁सिर	-8.93734
नाथ	-8.93736
▁अदालत	-8.93784
▁दौर	-8.93916
▁वरिष्ठ	-8.93981
▁उपलब्ध	-8.94
▁सुनवाई	-8.94062
▁अग्रवाल	-8.9408
▁ता	-8.94085
7	-8.94091
▁विपक्ष	-8.9428
▁एक्स	-8.9436
भर	-8.94412
▁समर्थन	-8.94488
▁सही	-8.94493
▁इनक	-8.94593
▁परिजन	-8.9466
वें	-8.94671
▁मोहन	-8.9468
▁जरूरत	-8.94787
▁सात	-8.94843
▁चाहते	-8.94899
▁सहयोग	-8.9503
▁कॉलोनी	-8.95084
▁परिषद	-8.95482
▁रिकॉर्ड	-8.95737
▁अशोक	-8.95768
▁जय	-8.96041
▁बावजूद	-8.96169
▁पार	-8.96202
▁ह	-8.96253
▁देना	-8.96374
▁हाई	-8.96386
▁लागू	-8.96471
▁आते	-8.96653
▁सामान्य	-8.96821
▁लौट	-8.97081
▁सदस्यों	-8.97083
▁निरीक्षण	-8.97398
▁उनसे	-8.97507
▁सार	-8.9764
▁पटेल	-8.97691
▁तैनात	-8.9776
▁विश्वविद्यालय	-8.97893
▁किस	-8.97933
▁लूट	-8.98079
▁क्रिकेट	-8.98227
शन	-8.9825
▁योग	-8.98399
▁बेहतर	-8.98496
▁स्थल	-8.98499
▁बदलाव	-8.98622
▁राजनीति	-8.9875
▁बहन	-8.98892
▁हथियार	-8.99028
▁वारदात	-8.99108
▁प्रधान	-8.99137
▁तत्काल	-8.99544
▁प्रभावित	-8.99588
▁विश्व	-8.99631
▁वर्मा	-8.99648
▁कही	-8.99719
▁नेशनल	-8.99759
▁उसी	-8.99799
▁तोड़	-8.99902
ीन	-8.99941
▁गलत	-9.00086
▁ऑफिस	-9.00295
▁बंगाल	-9.00381
▁उम्र	-9.0059
▁कृष्ण	-9.00694
▁दिखाई	-9.00739
▁सेना	-9.00745
▁नुकसान	-9.00905
▁रखी	-9.01027
▁बढ़त	-9.01132
▁प्रतियोगिता	-9.01222
▁जरूरी	-9.01248
▁रहता	-9.01283
▁विद्यालय	-9.01366
▁पुरा	-9.01617
▁अजय	-9.01864
▁असर	-9.02036
▁पदाधिकारी	-9.02074
▁सुप्रीम	-9.02144
▁उससे	-9.02189
पाल	-9.02433
▁करेगी	-9.0246
▁समझ	-9.0258
▁संस्थान	-9.02635
6	-9.02719
▁बनाई	-9.02809
ग	-9.02863
▁अफसर	-9.02929
▁विचार	-9.03193
ियां	-9.03239
▁राहत	-9.03477
▁ग्रुप	-9.03576
▁एंड	-9.03793
▁रास्ते	-9.03836
▁महाराष्ट्र	-9.03925
▁सजा	-9.03945
▁हॉस्पिटल	-9.04012
▁तरीके	-9.04039
तर	-9.04304
▁2019	-9.04666
▁मिश्रा	-9.04672
▁जब्त	-9.04725
▁ड्राइवर	-9.04727
▁अयोध्या	-9.04884
▁भूमिका	-9.0489
▁मजबूत	-9.05009
▁कौन	-9.05185
▁कार्यकर्ताओं	-9.053
ड़	-9.05346
▁उच्च	-9.05351
▁सीसीटीवी	-9.05434
▁उ	-9.05435
▁घाट	-9.05692
▁सागर	-9.05814
ेशन	-9.05866
▁संस्था	-9.06148
▁स्वागत	-9.06432
ेज	-9.06532
▁कॉल	-9.06621
गढ़	-9.06879
▁हमले	-9.06885
▁भक्त	-9.06919
▁इतना	-9.07075
▁कपूर	-9.07104
▁रिलीज	-9.07108
▁बजट	-9.07144
ुरंत	-9.07494
▁अभिषेक	-9.07556
▁पाल	-9.07933
▁रायपुर	-9.07972
▁युवती	-9.08046
▁नौकरी	-9.08063
▁जवान	-9.08141
▁प्रदान	-9.08162
▁छोटे	-9.08319
▁उपयोग	-9.08451
▁लगाकर	-9.08707
▁बीते	-9.08748
▁कृषि	-9.08801
राम	-9.08804
▁डाल	-9.0882
▁सफाई	-9.08846
▁राजेश	-9.08853
य	-9.08979
▁शांति	-9.08996
▁फरवरी	-9.09028
▁संयुक्त	-9.09029
▁बेच	-9.09109
▁करा	-9.09171
▁लगता	-9.09266
फ	-9.09291
▁निर्णय	-9.09831
▁सीटें	-9.09895
▁जाम	-9.09947
▁ओ	-9.1008
वीर	-9.10118
▁लेते	-9.10161
▁मिलेगा	-9.10194
▁सुन	-9.10363
▁यदि	-9.10409
▁आर्थ	-9.10437
▁डी	-9.10518
▁सिविल	-9.10526
▁तेजी	-9.10662
▁आनंद	-9.10738
▁खर्च	-9.10837
▁नोटिस	-9.10878
▁कदम	-9.1101
▁फीसदी	-9.11019
▁दीप	-9.11114
▁रेल	-9.11202
▁दीपक	-9.11213
s	-9.11253
▁नाबालिग	-9.11459
▁2022	-9.11576
▁रहेगी	-9.11581
▁ऑनलाइन	-9.11694
▁मालिक	-9.1184
▁35	-9.11921
▁भास्कर	-9.11928
▁दिख	-9.12121
▁जमकर	-9.12191
▁विषय	-9.12292
▁मुलाकात	-9.124
▁चंद्र	-9.12434
▁दिखा	-9.12487
▁निकल	-9.12576
▁रोहित	-9.1273
▁छह	-9.12897
▁रि	-9.12945
e	-9.12948
▁करेगा	-9.13085
▁बांध	-9.13115
▁कमी	-9.13159
▁श्रद्धालु	-9.13231
▁एक्सप्रेस	-9.13232
ली	-9.13415
9	-9.1342
"	-9.13459
▁बेटा	-9.13672
▁मेरा	-9.13711
बी	-9.13773
▁मनोज	-9.13956
एं	-9.14054
▁सहायक	-9.14201
▁कड़ी	-9.14449
▁नि	-9.14606
▁ठाकुर	-9.14794
▁अपील	-9.14795
▁सामना	-9.148
▁सुविधा	-9.14809
▁रहती	-9.14874
भ	-9.14908
▁अंतर्गत	-9.15038
▁दूसरा	-9.15094
▁मोहम्मद	-9.1528
▁अतिरिक्त	-9.15402
▁कल्याण	-9.15444
ाई	-9.15467
▁शक्ति	-9.1549
▁आवास	-9.1553
▁हाईकोर्ट	-9.15646
▁बे	-9.16006
2	-9.16061
▁करवाया	-9.16325
▁रवि	-9.16356
▁सुख	-9.164
▁कार्यकर्ता	-9.16415
▁खड़े	-9.16531
4	-9.16673
▁दिल	-9.16709
अज्ञात	-9.16751
▁सीरीज	-9.1676
▁साहू	-9.1676
▁सुधार	-9.16793
ंस	-9.16835
▁अनिल	-9.16897
▁उदयपुर	-9.17011
ंड	-9.17099
▁इलाकों	-9.17123
▁सुनील	-9.17143
▁बोल	-9.17165
▁पार्षद	-9.17371
▁प्रस्ताव	-9.17425
▁पीड़िता	-9.17474
▁मंत्रालय	-9.17499
▁गिरफ्तारी	-9.175
▁सत्र	-9.17506
▁सिस्टम	-9.17527
▁बदमाशों	-9.17622
▁देंगे	-9.17633
▁रक्षा	-9.17736
▁अंजाम	-9.17745
▁एस	-9.17835
▁तस्वीर	-9.1785
▁मंच	-9.18016
▁हवा	-9.18048
▁जन्म	-9.18065
▁याचिका	-9.18134
▁मिलते	-9.18143
▁पुल	-9.18148
▁जिसकी	-9.18166
▁बैठे	-9.1827
▁बज	-9.1828
▁गंगा	-9.18474
▁अच्छी	-9.18496
▁बच्ची	-9.1851
▁जैसी	-9.18523
▁ग	-9.18651
▁रख	-9.18665
▁मामलों	-9.18748
▁कोतवाली	-9.18799
▁पश्चिम	-9.18854
▁मह	-9.18937
▁किलोमीटर	-9.19001
▁प्रचार	-9.19031
▁एक्ट्रेस	-9.1938
▁प्रोजेक्ट	-9.19507
▁महाराज	-9.19888
3	-9.20216
▁संचालन	-9.20267
▁अच्छा	-9.20275
▁न्याय	-9.20478
▁नीतीश	-9.20528
▁सर	-9.20684
▁भविष्य	-9.20912
नगर	-9.21192
▁सोने	-9.21264
▁वर्त	-9.21559
मा	-9.21784
▁केजरीवाल	-9.21949
▁परेशानी	-9.22092
▁मुस्लिम	-9.22375
▁सह	-9.2251
▁गृह	-9.22555
▁अलर्ट	-9.22734
▁मौका	-9.22886
्य	-9.22925
▁डर	-9.2301
पी	-9.23129
▁/	-9.23157
▁एम	-9.23328
▁भूमि	-9.23334
▁सत्ता	-9.23421
▁यात्र	-9.23466
▁अतिथि	-9.23524
▁आयुक्त	-9.23539
▁भाव	-9.23549
▁कला	-9.23607
▁शिविर	-9.23924
▁शासन	-9.23944
▁दिशा	-9.23974
▁साइबर	-9.24053
▁पेड़	-9.24067
दार	-9.24075
▁नामांकन	-9.24186
▁तिवारी	-9.24319
▁करवा	-9.24444
▁मीणा	-9.24453
▁स्पेशल	-9.24718
▁न्यायालय	-9.24858
▁गुजरात	-9.24894
▁अधिकतम	-9.25256
▁इधर	-9.25258
▁आंदोलन	-9.2527
▁सेक्टर	-9.25435
▁अधिकार	-9.25445
▁बदमाश	-9.25663
वी	-9.25833
▁चले	-9.25877
▁रैली	-9.25948
▁फर्जी	-9.25949
िका	-9.2596
▁पढ़ाई	-9.26085
▁योगी	-9.26101
▁मंडी	-9.26139
▁पकड़ा	-9.26192
▁मुकेश	-9.26204
ाबाद	-9.26277
▁दर	-9.26283
▁निकाला	-9.26363
▁डॉक्टरों	-9.26464
▁मनाया	-9.26494
▁अंक	-9.26586
▁कब्जे	-9.26625
▁संचालक	-9.26625
▁व्रत	-9.26634
▁लंब	-9.26714
ष	-9.26741
▁याद	-9.26893
▁हमेशा	-9.2702
▁सुरक्षित	-9.27024
▁महिलाएं	-9.27241
▁मना	-9.27255
▁गणेश	-9.27325
▁;	-9.2733
ां	-9.27399
▁चली	-9.27512
▁45	-9.27542
▁संविधान	-9.2757
िम	-9.27669
▁दास	-9.27845
▁मनीष	-9.27865
▁मो	-9.2787
▁गईं	-9.27982
▁अमर	-9.28099
▁देता	-9.28287
▁डिप्	-9.28409
▁60	-9.28411
▁दक्षिण	-9.28449
▁आकर	-9.28502
▁यूनिवर्सिटी	-9.28677
▁बिल	-9.28681
▁पूछा	-9.28693
▁जिम्मेदारी	-9.28881
▁व्यापार	-9.28906
▁सर्व	-9.29113
▁सम्मानित	-9.29198
▁सप्ताह	-9.29375
▁पेट्रोल	-9.29606
▁हाउस	-9.29643
▁पोस्टमार्टम	-9.29656
▁संबोधित	-9.29666
▁कमरे	-9.29793
▁किनारे	-9.29797
▁एयरपोर्ट	-9.29937
▁खुलासा	-9.29939
▁अहम	-9.30079
▁वर्ल्ड	-9.30095
▁लाया	-9.30305
▁शुभ	-9.30391
▁सामाजिक	-9.30449
▁चलने	-9.30639
▁धन	-9.30664
▁अनु	-9.30702
▁व्यक्त	-9.30785
▁हादसा	-9.30828
▁कप	-9.30832
▁पार्क	-9.30927
▁उनको	-9.30943
▁मशीन	-9.31215
▁पैर	-9.31235
▁पेपर	-9.31358
▁पूर्ण	-9.31362
▁स्टूडेंट्स	-9.3139
▁सपा	-9.31462
▁संपर्क	-9.31499
▁लिस्ट	-9.31649
▁रहेंगे	-9.31822
▁प्रबंधन	-9.31852
▁उद्देश्य	-9.3193
▁युद्ध	-9.31944
▁खाली	-9.32034
▁भजन	-9.32056
▁राजा	-9.32064
▁खोल	-9.32157
▁बेहद	-9.32364
▁िया	-9.32435
▁पोल	-9.32569
राष्ट्रीय	-9.3257
▁घरों	-9.32731
▁छात्रा	-9.32797
▁कौर	-9.32819
▁सो	-9.32829
▁आठ	-9.32838
▁उपचार	-9.32948
▁पहुंचकर	-9.3303
ार	-9.33076
▁लक्ष्य	-9.33088
▁पढ़	-9.33156
▁धार्मि	-9.33204
▁अधीक्षक	-9.33241
▁चुनावी	-9.33397
▁मगर	-9.33411
▁हनुमान	-9.3366
▁प्रो	-9.34022
▁सं	-9.3411
▁अमेरिक	-9.34218
▁किलो	-9.34224
▁अली	-9.34253
▁जिसका	-9.34285
▁जंगल	-9.34391
▁पाए	-9.34402
▁समुदाय	-9.34414
के	-9.34452
▁पर्व	-9.34542
▁न्यूनतम	-9.347
▁तकनीक	-9.35
▁प्रखंड	-9.35007
▁रूस	-9.35018
▁बाकी	-9.35033
▁निवेश	-9.35052
▁न्यू	-9.35115
▁चोट	-9.35142
▁बुजुर्ग	-9.35144
▁कुमारी	-9.3529
▁मंत्र	-9.35507
ामी	-9.35813
▁आता	-9.35833
▁कार्यों	-9.35981
▁पाई	-9.3604
▁रेप	-9.36132
▁शरीर	-9.36189
▁समाधान	-9.36189
▁मुख्यालय	-9.36208
▁पैसा	-9.36313
▁मुश्किल	-9.36344
▁आदमी	-9.36385
▁S	-9.36434
दीप	-9.36477
▁पूजन	-9.36598
▁कट	-9.36684
▁सफलता	-9.36724
▁एन	-9.3685
▁एक्टर	-9.36932
▁चौहान	-9.36942
▁सालों	-9.36956
देव	-9.37038
▁कितन	-9.37053
▁सड़कों	-9.37055
▁राकेश	-9.37094
▁सीजन	-9.37143
▁मजदूर	-9.37208
▁A	-9.37356
▁जोर	-9.37374
▁आसान	-9.37398
▁मिलेगी	-9.3742
▁ो	-9.37436
ुल	-9.37442
▁संत	-9.37471
▁ऑटो	-9.37481
्र	-9.37502
▁संदीप	-9.37557
▁बताई	-9.37725
▁निर्वाचन	-9.37729
▁आखिरी	-9.37735
▁पारी	-9.37893
▁नारायण	-9.37983
▁एजेंसी	-9.38006
▁कब	-9.38168
▁इमेज	-9.38312
▁फाइनल	-9.38321
कार	-9.38339
▁सफल	-9.38388
▁रखे	-9.38411
▁रवाना	-9.38468
▁तिथि	-9.38471
▁कहानी	-9.38486
▁ब्लॉक	-9.38773
▁मार्केट	-9.38775
▁काट	-9.38997
▁लाने	-9.39024
▁स्पष्ट	-9.39093
▁मारने	-9.39192
▁आउट	-9.39213
▁प्राइवेट	-9.39237
▁पड़ी	-9.39343
▁आवाज	-9.39349
▁स्टाफ	-9.394
साथ	-9.39555
▁मानसून	-9.39576
▁परिणाम	-9.39713
▁फीट	-9.39737
▁इंतजार	-9.39856
▁कमिश्नर	-9.40012
▁चेक	-9.40056
▁रो	-9.40132
▁रण	-9.40212
▁स्व	-9.40222
▁अरविंद	-9.40347
▁वकील	-9.40491
▁कैप्शन	-9.40638
▁खिलाड़ी	-9.40639
▁पहुंचने	-9.40666
▁80	-9.40898
▁ऑपरेशन	-9.40969
▁स्थापित	-9.41109
▁प्रथम	-9.41509
▁प्रताप	-9.4159
▁विद्यार्थ	-9.41591
▁राजधानी	-9.419
▁शपथ	-9.41903
▁सूची	-9.41918
▁संतोष	-9.41969
▁70	-9.42269
▁नीति	-9.42355
▁निदेशक	-9.42449
▁जोन	-9.42472
▁रूम	-9.42607
▁मिलता	-9.42618
▁ट्रैफिक	-9.42698
▁डा	-9.42888
▁सूत्र	-9.42988
▁फायदा	-9.43019
▁दबाव	-9.43028
▁जम्मू	-9.43179
▁माहौल	-9.43183
▁डे	-9.43403
▁किमी	-9.43404
▁आर	-9.43504
▁पसंद	-9.43537
▁वही	-9.43562
▁आवश्यक	-9.43573
▁अरुण	-9.43674
▁नोट	-9.43778
▁रफ्तार	-9.43825
▁बुलाया	-9.43839
▁विधि	-9.43865
▁सोनी	-9.43917
▁एयर	-9.43959
▁उक्त	-9.43989
▁टैक्स	-9.44002
बीर	-9.44037
▁प्राथमिक	-9.4407
थ	-9.44122
▁फूल	-9.44145
▁प्रशिक्षण	-9.44152
▁ज्ञान	-9.44198
▁BJP	-9.44202
▁प्रभाव	-9.44206
▁सहायता	-9.44324
▁एल	-9.44547
▁हिरासत	-9.44801
▁अनुमति	-9.44802
▁कोच	-9.44813
▁सोच	-9.4483
▁जुड़ी	-9.44833
▁समूह	-9.45141
▁नव	-9.45178
▁लॉन्च	-9.45234
▁सैनी	-9.45372
▁ड्यूटी	-9.45459
▁खरीद	-9.45486
▁रोजगार	-9.4551
सा	-9.4553
▁कंपनियों	-9.45622
▁ग्वालियर	-9.45623
▁बा	-9.45655
▁जमानत	-9.45896
▁दिला	-9.45908
जन	-9.45918
▁सीनियर	-9.45954
▁कहां	-9.46024
▁गो	-9.46163
▁संपत्ति	-9.462
▁फायर	-9.46256
▁टूट	-9.463
▁जानते	-9.46527
▁सूर्य	-9.46541
▁शंकर	-9.46601
▁मध्यप्रदेश	-9.46617
▁चिकित्सा	-9.46814
▁धर	-9.46826
▁डीएम	-9.46987
▁पड़े	-9.46996
▁डायरेक्टर	-9.47046
▁बाढ़	-9.4712
▁गढ़	-9.47183
%	-9.47221
▁मुकाबले	-9.47313
▁सेल्सियस	-9.47453
▁एसोसिएशन	-9.47453
ेन्द्र	-9.47602
▁क्षमता	-9.4761
ंत	-9.47636
▁2024:	-9.47703
▁किशोर	-9.47917
▁रेफर	-9.47959
वे	-9.48017
▁पोस्टमॉर्टम	-9.48127
▁मुकदमा	-9.48149
ड़ा	-9.48155
▁कर्मियों	-9.48228
▁गा	-9.4829
▁निर्धारित	-9.48301
▁32	-9.48306
▁गोपाल	-9.48323
8	-9.48412
▁B	-9.48428
▁परियोजना	-9.48455
▁आरक्षण	-9.48466
▁बॉलीवुड	-9.48469
▁समाप्त	-9.48491
▁ठंड	-9.48529
र्ड	-9.48607
▁महत्व	-9.48633
▁दस्तावेज	-9.48636
ाना	-9.48638
▁गरीब	-9.48676
▁फैसले	-9.48687
▁बूथ	-9.48806
▁विस्तार	-9.48816
▁कारोबार	-9.48843
▁इतिहास	-9.48967
▁आरती	-9.49014
▁बतात	-9.49195
▁ज्ञापन	-9.49325
▁जताई	-9.49328
...	-9.4944
▁33	-9.49766
▁संचालित	-9.49833
▁नौ	-9.49833
▁फायरिंग	-9.49892
▁प्यार	-9.49984
▁रखते	-9.4999
▁राव	-9.50054
▁हेड	-9.50063
▁D	-9.50126
▁एक्ट	-9.50155
▁घुस	-9.50333
▁री	-9.50333
▁चौकी	-9.50428
▁धान	-9.50568
▁करवाई	-9.50626
▁भरा	-9.50635
▁राजीव	-9.50688
▁गौरव	-9.50713
▁अंत	-9.50721
▁जाति	-9.50818
▁पावर	-9.50848
▁तारीख	-9.50849
▁सौंप	-9.50976
▁पालन	-9.50977
▁चिंता	-9.51037
▁सुनिश्च	-9.51071
▁खड़	-9.5115
▁सप्लाई	-9.51217
▁कमल	-9.51223
▁गिरावट	-9.51569
▁सर्वे	-9.51639
▁मत	-9.51652
▁टॉप	-9.51739
▁दैनिक	-9.51917
▁प्रत्येक	-9.51917
▁सरपंच	-9.51951
▁केन्द्र	-9.51972
▁ड	-9.52119
▁उतर	-9.52167
▁खिलाड़ियों	-9.52269
▁कोलकाता	-9.52269
▁ट्रैक्टर	-9.5227
▁खड़ा	-9.52278
▁खा	-9.52314
▁चौथ	-9.52395
▁पुराने	-9.52454
▁2021	-9.52471
▁लापरवाही	-9.52477
▁श्याम	-9.52602
▁फसल	-9.52697
▁मर	-9.52746
▁ओम	-9.52769
▁कक्षा	-9.52924
▁संसद	-9.52939
षण	-9.52942
▁मूल	-9.5307
▁उपाध्यक्ष	-9.53159
▁प्रदीप	-9.53178
▁l	-9.53248
च	-9.53399
▁यू	-9.53412
▁जिन्होंने	-9.53517
▁प्रतिमा	-9.53551
▁फल	-9.53566
▁रमेश	-9.5369
▁करियर	-9.53753
▁ठगी	-9.538
▁विशाल	-9.53868
▁पैदा	-9.53869
▁जोड़	-9.53891
▁48	-9.54005
▁डॉलर	-9.54072
का	-9.54095
▁दान	-9.54139
▁वितरण	-9.54226
▁स्टैंड	-9.54229
▁साबित	-9.54232
▁पड़ता	-9.54575
a	-9.54606
▁अनुमान	-9.54611
▁उठाया	-9.54631
▁प्लान	-9.54907
सलमान	-9.54908
▁दाखिल	-9.55115
▁करवाने	-9.55177
▁चुनावों	-9.55193
▁कथा	-9.55215
▁500	-9.55506
यों	-9.55548
▁खाते	-9.5564
▁हमारा	-9.55736
▁तालाब	-9.55838
▁मृत	-9.55864
▁क्लब	-9.55865
▁वीर	-9.5591
▁2025	-9.56106
▁चंडीगढ़	-9.56223
▁चुनौती	-9.56406
▁आती	-9.56549
▁यूनिट	-9.57069
▁जोधपुर	-9.57143
▁मुद्दे	-9.57144
▁गाय	-9.57305
▁इंटरव्यू	-9.57329
▁भुगतान	-9.57329
▁शिकार	-9.57351
▁विश्वास	-9.57356
▁चाहता	-9.57384
▁शहीद	-9.57514
▁हालात	-9.57517
▁इ	-9.57629
▁छापेमारी	-9.577
▁संघर्ष	-9.57701
▁हाईवे	-9.57714
▁दुर्गा	-9.57764
साउथ	-9.57794
▁विमान	-9.57928
▁चयन	-9.57985
▁वाराणसी	-9.58073
▁समीक्षा	-9.58078
▁खुल	-9.58103
▁आस	-9.58148
▁राष्ट्र	-9.58208
▁एफआईआर	-9.5826
▁रद्द	-9.58451
▁धाम	-9.58457
▁खुश	-9.58461
▁राजस्व	-9.5864
▁मांगी	-9.58657
▁मानव	-9.58718
▁अनुभव	-9.58823
▁पत्रकार	-9.58856
▁स्टार	-9.58876
▁जिनक	-9.58914
▁हिंसा	-9.58988
▁वोटिंग	-9.5905
▁विवाह	-9.59129
▁नशे	-9.59216
्ड	-9.59266
▁निशाना	-9.59277
▁पुरानी	-9.59281
र्स	-9.5932
▁खाने	-9.59354
▁गेंद	-9.59363
▁सबक	-9.59453
▁खाना	-9.5948
▁ऑस्ट्रेलिया	-9.59542
▁ईरान	-9.59693
▁संदिग्ध	-9.59768
▁सम्मेलन	-9.59804
▁कप्तान	-9.5981
▁स्वामी	-9.59841
▁इंटरनेशनल	-9.59958
▁स्थापना	-9.59958
▁फुटेज	-9.59962
शिप	-9.59975
▁भीतर	-9.60049
▁मॉडल	-9.60096
▁अच्छे	-9.60148
▁एसडीएम	-9.60149
▁सुपर	-9.60157
▁भ	-9.60253
▁दूरी	-9.60317
▁सकेंगे	-9.60343
▁भावना	-9.60506
▁निकले	-9.60508
▁दर्जन	-9.6053
▁अप	-9.6058
▁िंग	-9.60616
▁फैंस	-9.60729
▁34	-9.60819
▁36	-9.60868
▁C	-9.6099
▁मा	-9.60993
▁90	-9.61036
▁औ	-9.61086
▁कानपुर	-9.61102
▁विशेषज्ञ	-9.6111
▁वृद्धि	-9.61135
▁गुजर	-9.61165
▁सर्विस	-9.61307
▁रोज	-9.61355
▁वार	-9.61503
▁विकसित	-9.61513
▁विज्ञान	-9.61534
िता	-9.61535
▁क्लास	-9.61543
▁ख	-9.61558
▁पशु	-9.61703
▁बैठ	-9.61704
▁समर्थक	-9.61705
▁चलाया	-9.61794
▁डेढ़	-9.61882
▁घायलों	-9.61914
▁रोल	-9.6196
▁रांची	-9.62074
▁संदेश	-9.62075
▁CM	-9.62265
▁यात्री	-9.62273
▁कोटा	-9.62335
▁तेल	-9.62427
▁पवन	-9.62475
▁लेना	-9.62629
▁प्राण	-9.6271
पत	-9.6281
िन	-9.62829
▁कार्यकाल	-9.62866
▁उठ	-9.62953
▁कैंप	-9.63005
▁रेड	-9.63079
▁गठन	-9.63333
▁उतार	-9.63436
▁तहसील	-9.63444
▁बादल	-9.63615
▁डाला	-9.63675
स्थल	-9.63721
▁अध्यक्षता	-9.63773
▁नाथ	-9.63818
▁गैंग	-9.63837
▁खुशी	-9.63924
▁जरूर	-9.63955
▁प्रेस	-9.63957
ख	-9.64087
▁उद्घाटन	-9.64235
▁स्टेडियम	-9.64235
▁प्रस्तुत	-9.64242
▁रहीं	-9.64295
20	-9.6439
▁सूरज	-9.64436
▁डूब	-9.6452
▁सक्रिय	-9.64547
▁बुला	-9.64562
▁कैमरे	-9.64562
▁कश्मीर	-9.6458
▁आखिर	-9.64588
▁स्वच्छ	-9.64633
▁अवध	-9.64668
▁संगीत	-9.64684
सर	-9.64722
▁सौर	-9.64832
▁विवेक	-9.64832
▁महोत्सव	-9.64835
▁सुरेश	-9.64841
दोबारा	-9.64875
▁लड़ाई	-9.64877
▁बॉल	-9.64973
▁बाग	-9.65027
▁नहर	-9.65057
▁बढ़ावा	-9.65086
▁सि	-9.65115
पिता	-9.65123
▁मिशन	-9.65128
▁दस	-9.65148
▁सख्त	-9.65191
▁सोरेन	-9.65234
▁मीटिंग	-9.65244
▁अकाउंट	-9.65427
वार	-9.65428
▁पंडित	-9.65433
▁पुरस्कार	-9.65433
▁आशंका	-9.65434
▁कु	-9.65436
▁चाहती	-9.65497
वां	-9.65572
▁लक्ष्मी	-9.6561
▁एरिया	-9.65655
िनोद	-9.65668
▁नियुक्ति	-9.65784
▁फ	-9.65916
▁दिनेश	-9.65927
ेंट	-9.65971
▁दुर्घटना	-9.66027
▁जिन्हें	-9.66038
▁News	-9.66039
▁मुक्त	-9.66053
▁तस्कर	-9.66217
▁दर्द	-9.66243
▁राजकुमार	-9.6632
▁आतंक	-9.6644
ान	-9.66459
▁75	-9.665
▁रानी	-9.66564
▁सार्वजनिक	-9.66647
▁विष्णु	-9.66859
▁इंस्पेक्टर	-9.66867
▁पारा	-9.66873
▁दवा	-9.66884
बार	-9.66908
▁2014	-9.6696
▁बैग	-9.67085
▁नियुक्त	-9.67178
▁एक्शन	-9.673
▁महीन	-9.67399
▁ट	-9.67593
▁अखिलेश	-9.67677
▁पाली	-9.67863
▁इंडिय	-9.68012
▁गुर	-9.68024
▁टाइम	-9.68086
▁अरब	-9.68094
कैबिनेट	-9.6812
▁गैस	-9.68218
▁गौतम	-9.68288
▁संस्कार	-9.68288
▁सका	-9.68303
▁जानिए	-9.68305
▁लड़के	-9.68474
▁प्रमाण	-9.68493
▁समस्याओं	-9.68524
▁अतिक्रमण	-9.68547
▁दायर	-9.6856
▁प्रोफेसर	-9.68702
▁वेतन	-9.68724
▁पदों	-9.68763
▁चीज	-9.68888
▁स्वीकार	-9.68901
▁दरवाज	-9.68913
▁नवीन	-9.69047
▁प्रवक्ता	-9.69119
▁मिलती	-9.69129
▁सत्य	-9.69171
▁खूब	-9.69315
▁लुधियाना	-9.69327
▁सिन्हा	-9.69329
,000	-9.69507
▁धरना	-9.69612
▁दिवसीय	-9.69625
▁साहिब	-9.69752
▁पहुंचाया	-9.69815
▁बम	-9.69894
▁पंकज	-9.69956
▁2020	-9.70002
▁आपका	-9.70099
▁रेट	-9.70135
▁कर्नाटक	-9.70167
▁भव्य	-9.70175
वाड़ा	-9.70307
▁आबादी	-9.70378
▁टीचर	-9.70389
▁महेंद्र	-9.70422
▁आवश्यकता	-9.70495
▁चेतावनी	-9.70589
▁सांस्कृतिक	-9.70589
-20	-9.70648
▁छोटी	-9.70668
▁बातें	-9.70697
▁भाषा	-9.70726
▁गतिविधिय	-9.70777
▁हल्की	-9.70801
सभा	-9.70877
▁चांदी	-9.7092
▁जगहों	-9.71098
▁कहत	-9.7113
▁ट्रंप	-9.71226
▁कमजोर	-9.71231
▁साथी	-9.71259
▁तार	-9.71283
▁आदिवासी	-9.71419
▁एंट्री	-9.7144
▁37	-9.71475
▁थ	-9.71599
▁पश्चिमी	-9.71723
शांत	-9.71743
ियन	-9.71877
एक	-9.7189
▁ऊर्जा	-9.72082
▁ट्रांसफर	-9.72083
▁उपचुनाव	-9.72083
▁आकाश	-9.72085
▁नाराज	-9.72149
▁निगरानी	-9.72297
▁इन्हे	-9.72519
ओ	-9.72579
▁P	-9.72583
▁पर्यावरण	-9.72728
▁योगदान	-9.72735
तंत्र	-9.72833
▁दाम	-9.72876
▁झा	-9.72946
ले	-9.72971
पास	-9.73252
▁निकाली	-9.73314
ास	-9.73396
पेट	-9.73398
▁गर्म	-9.73406
▁रास्ता	-9.73458
▁चढ़	-9.7348
▁कपड़े	-9.73494
▁M	-9.73549
जा	-9.73588
▁बधाई	-9.73597
▁छठ	-9.73619
ेश्वर	-9.7362
रो	-9.73643
▁ससुराल	-9.73819
▁अंडर	-9.73832
/	-9.73873
▁स्तरीय	-9.73889
गी	-9.73931
▁सुभाष	-9.74035
▁बोला	-9.7406
▁रा	-9.74096
▁गिरा	-9.74156
पुरा	-9.74172
▁300	-9.74188
▁मच	-9.74189
▁लाइट	-9.74201
िस	-9.74204
▁कंट्रोल	-9.74253
▁संकल्प	-9.74264
▁आचार्य	-9.74264
ानंद	-9.74313
▁सैनिक	-9.74367
सचिव	-9.74424
▁सुंदर	-9.74496
▁गायब	-9.74504
▁PM	-9.74679
▁खाद्य	-9.74702
▁गैर	-9.74807
▁बचाव	-9.74829
▁इंडस्ट्री	-9.74887
▁बाबू	-9.74907
▁एनडीए	-9.75005
▁चारों	-9.7505
▁संस्कृति	-9.75106
▁क्राइम	-9.75135
▁मस्जिद	-9.75155
वास	-9.75295
▁कर्मी	-9.75333
▁उत्सव	-9.75357
▁बिक्री	-9.75385
▁मेहनत	-9.75579
▁अन	-9.75732
▁हंगामा	-9.75802
▁मानसिक	-9.75831
▁छत	-9.7599
▁फैक्ट्री	-9.76026
▁स्टेट	-9.76213
0	-9.76267
▁लो	-9.76419
िश	-9.76421
▁संजीव	-9.76461
▁जज	-9.76461
▁परिवहन	-9.76474
▁सुसाइड	-9.76475
▁लाखों	-9.76541
▁पांडे	-9.76547
▁देती	-9.7655
▁गीत	-9.76641
▁निकला	-9.76692
▁साढ़े	-9.76698
▁बच	-9.76705
▁कौशल	-9.76718
▁बह	-9.76766
डी	-9.76881
▁400	-9.7699
▁वास	-9.77019
▁ईडी	-9.77164
▁पाठ	-9.77185
▁ट्रैक	-9.77271
▁हिस्से	-9.77374
▁उज्जैन	-9.77408
▁खून	-9.77429
▁लगाते	-9.7762
▁माल	-9.77632
▁चंद	-9.7765
▁काल	-9.7767
▁चाकू	-9.77834
▁सुनाई	-9.7788
▁आना	-9.7796
पूर्ण	-9.78069
▁श्रीवास्तव	-9.78285
▁टाटा	-9.78287
▁वर्षा	-9.78324
िटी	-9.78389
▁अल	-9.78483
▁व्यापारी	-9.78655
▁वोटर	-9.78718
▁आएंगे	-9.78771
▁55	-9.78812
▁अर्जुन	-9.78973
▁अजमेर	-9.79241
▁फैल	-9.79281
▁!	-9.79325
▁मान्यता	-9.79444
▁जुट	-9.7954
▁दम	-9.7955
▁हिंदी	-9.79563
▁हरि	-9.79573
▁भू	-9.79649
▁बिजनेस	-9.79667
▁चेयरमैन	-9.79667
▁संभव	-9.79692
▁कब्जा	-9.79734
▁जे	-9.79809
▁फॉर्म	-9.79839
▁अधिनियम	-9.79898
▁भ्रष्टाचार	-9.79898
▁बर	-9.79965
▁अगल	-9.79979
▁एमपी	-9.7998
▁करण	-9.80013
▁छूट	-9.80109
वेबसाइट	-9.80131
▁कमाई	-9.80243
▁काबू	-9.80262
▁किरदार	-9.8036
▁प्रियंका	-9.80373
▁अक्स	-9.8053
▁प्रिंसिपल	-9.80597
▁सीधे	-9.80614
▁पकड़े	-9.80758
▁लागत	-9.80841
▁कानूनी	-9.80898
▁अपर	-9.81003
▁पुरुष	-9.81043
▁s	-9.81058
▁खो	-9.81253
▁रोग	-9.81256
▁कोहली	-9.81304
▁मुकाबला	-9.81337
C	-9.81344
हा	-9.81346
▁हवाई	-9.81385
▁गौर	-9.81431
▁आगरा	-9.81446
▁नजदीक	-9.81525
▁संरक्षण	-9.81547
▁श्रीराम	-9.81554
▁दिखाया	-9.81575
▁रुक	-9.81581
▁दूध	-9.81775
▁शेख	-9.81835
▁नी	-9.81841
▁डीएसपी	-9.81948
▁हिसाब	-9.82011
▁बल्लेबाज	-9.82086
▁राज्यपाल	-9.8216
▁ठेकेदार	-9.82252
▁पासवान	-9.82285
▁मतदाता	-9.82391
▁ियों	-9.824
▁पांडेय	-9.82499
▁वापसी	-9.82501
▁आश्वासन	-9.82725
▁कैलाश	-9.82727
▁शूटिंग	-9.82746
▁जैसा	-9.82752
▁हित	-9.82774
▁खेला	-9.82811
▁उद्योग	-9.82828
▁पेट	-9.82938
▁आंख	-9.82944
▁श्रेणी	-9.82965
▁उचित	-9.82966
▁नशा	-9.83003
▁आशी	-9.83091
▁जुटी	-9.83159
▁औसत	-9.83205
▁स्कोर	-9.83206
▁रूट	-9.83258
▁पल	-9.83395
▁प्लांट	-9.83463
▁फ्लाइट	-9.83483
▁लीक	-9.83561
▁परम	-9.83566
ड़ी	-9.83592
▁पहल	-9.83724
▁भोजन	-9.83736
u	-9.8382
▁मुद्दों	-9.83927
▁ममता	-9.83927
▁संयोजक	-9.83956
▁चीफ	-9.84015
ेलू	-9.84071
▁दोषी	-9.8409
▁निरीक्षक	-9.84126
▁यातायात	-9.84169
▁सौ	-9.84261
ैंड	-9.84324
▁प्रतिनिधि	-9.84378
▁मतगणना	-9.84414
▁रिश्तेदार	-9.84425
▁तुलना	-9.84426
▁बुरी	-9.84437
▁महेश	-9.84439
▁अहमद	-9.8444
▁हरा	-9.84567
▁पिछल	-9.84599
▁जला	-9.84666
ानदार	-9.84792
▁संभाग	-9.84898
▁जनरल	-9.84903
▁चिकित्सक	-9.84903
वाल	-9.85012
▁राउंड	-9.85146
▁सीबीआई	-9.85178
▁कैद	-9.85311
▁हाथों	-9.8534
▁फैला	-9.85435
▁जाएं	-9.8562
▁डिजिटल	-9.85644
▁ठग	-9.85646
▁प्रयोग	-9.85656
▁दुबे	-9.85928
▁उत्साह	-9.86058
▁आय	-9.86079
▁मेला	-9.86103
▁इनकार	-9.86126
▁आत्महत्या	-9.86128
▁मुद्दा	-9.86128
▁इंटर	-9.86174
▁अमन	-9.86235
▁लंबी	-9.86306
▁पंच	-9.86371
.30	-9.86378
▁जिलाध्यक्ष	-9.86381
▁जस्टिस	-9.86382
▁मेडल	-9.86389
▁गोल	-9.86419
बर	-9.86486
▁जीता	-9.86578
▁्	-9.86602
▁पेंशन	-9.86603
▁ट्रेनिंग	-9.86654
▁लिमिटेड	-9.86655
▁मोर्चा	-9.86694
▁गोल्ड	-9.86742
▁सामग्री	-9.86872
▁हेमंत	-9.86876
▁ताज	-9.86924
▁शुक्ला	-9.87075
▁प्राचार्य	-9.87129
सूस	-9.87201
▁इस्तीफा	-9.87226
▁निकलने	-9.87281
▁ट्रस्ट	-9.87372
▁दशक	-9.87382
▁हजारों	-9.87546
रण	-9.87552
▁गोरखपुर	-9.87648
दा	-9.87709
▁ढ	-9.87799
▁जबलपुर	-9.87901
▁दौड़	-9.88066
▁नियमित	-9.88094
▁ऐलान	-9.88126
▁जनपद	-9.88127
▁साझा	-9.88128
▁लें	-9.88162
▁पत्थर	-9.88178
▁कथित	-9.88199
▁42	-9.88235
▁समान	-9.88237
▁मेले	-9.88326
रिया	-9.88331
ये	-9.88356
▁खुले	-9.88381
▁गति	-9.88425
▁हड़ताल	-9.88631
णी	-9.88673
▁सोना	-9.88828
▁कैंसर	-9.88885
▁खारिज	-9.88885
▁नियंत्रण	-9.88892
▁गोयल	-9.88893
▁प्रशासनिक	-9.88925
▁कुलदीप	-9.88931
▁शक	-9.89113
▁छोटा	-9.89139
▁शांत	-9.89166
▁38	-9.8917
बा	-9.892
▁बढ़कर	-9.89217
वर	-9.89253
ावली	-9.89292
▁मु	-9.89295
▁महतो	-9.89394
▁प्रकरण	-9.89412
▁पक्षों	-9.89475
▁समझा	-9.89602
▁विभागों	-9.89611
▁न्यायाधीश	-9.8965
▁दीवार	-9.89734
▁गण	-9.89829
▁व्याप	-9.89886
एस	-9.8989
▁जग	-9.89892
▁तेजस्वी	-9.89907
▁पड़ेगा	-9.8992
▁लापता	-9.90164
▁2018	-9.90166
▁शिफ्ट	-9.90167
▁फीस	-9.9046
▁पाने	-9.90473
▁शब्द	-9.90681
▁विहार	-9.90698
▁केरल	-9.90888
▁छात्राओं	-9.90918
▁पूर्वी	-9.90926
▁ओडिशा	-9.9095
▁साथियों	-9.91078
▁T	-9.91091
▁धूप	-9.91201
▁पोर्टल	-9.91226
▁जिम्मेदार	-9.91303
▁फाइल	-9.91315
▁अपडेट	-9.9143
▁जाया	-9.91457
▁बिल्डिंग	-9.91462
▁पब्लिक	-9.9147
▁होली	-9.91473
▁मतलब	-9.91474
▁सलाह	-9.91512
▁भारती	-9.91538
▁खेती	-9.91738
ीकरण	-9.91741
▁लाश	-9.91749
▁मतदाताओं	-9.91825
▁पार्किंग	-9.91826
▁टोल	-9.91871
▁पलट	-9.91927
▁टूर्नामेंट	-9.91982
▁विद्युत	-9.91982
▁संहिता	-9.91982
▁नीरज	-9.91992
▁मारा	-9.92089
▁मूर्ति	-9.92139
▁आत्म	-9.92206
▁अंकित	-9.92211
▁ड्रोन	-9.92244
▁पुष्टि	-9.92244
▁भरोसा	-9.92244
▁समापन	-9.92245
▁कनाडा	-9.92247
▁संकट	-9.92288
▁हफ्ते	-9.92293
▁यूक्रेन	-9.92314
▁लाइसेंस	-9.92507
ेन	-9.92556
▁निकली	-9.92575
▁बीमारी	-9.92616
▁दुकानों	-9.92618
▁मारे	-9.9272
मैं	-9.92759
ॐ	-9.92771
▁टिप्पणी	-9.92772
▁पदाधिकारियों	-9.92773
▁तहसीलदार	-9.92784
▁जोशी	-9.92792
▁इंजीनियर	-9.92978
▁निभा	-9.92985
▁शख्स	-9.93038
▁जयंती	-9.93202
चिंग	-9.93219
▁रखना	-9.93227
▁छीन	-9.93249
▁विराट	-9.93301
▁नृत्य	-9.93309
▁मैनेजर	-9.93331
▁मूल्य	-9.93407
▁बॉक्स	-9.93817
▁गुर्जर	-9.93834
▁चौराहे	-9.93902
▁पीठ	-9.94005
▁दौरा	-9.94007
▁बढ़ोतरी	-9.94101
▁मैसेज	-9.94102
▁सौंपा	-9.94103
▁असम	-9.94166
▁प्रस्तुति	-9.94176
▁आलम	-9.94342
▁अपराधी	-9.94365
▁विक्रम	-9.9437
▁ते	-9.9442
▁पहन	-9.94442
▁जागरूकता	-9.94449
▁V	-9.9457
▁फेंक	-9.94599
▁स्मार्ट	-9.94637
o	-9.94708
▁घट	-9.94729
▁उसको	-9.94732
ै	-9.94765
▁निशान	-9.94824
▁लू	-9.94833
▁पड़ोसी	-9.94841
▁बिलासपुर	-9.94908
▁हिसार	-9.94908
▁थानाध्यक्ष	-9.94915
▁वैज्ञानिक	-9.94977
▁रखें	-9.95026
▁मास	-9.95041
विक	-9.95054
▁तनाव	-9.95179
▁रिजर्व	-9.9518
▁प्रतिष्ठा	-9.95186
▁लेंगे	-9.95202
▁कार्यवाही	-9.95335
को	-9.95357
▁टू	-9.95375
▁फ़	-9.95383
▁साजिश	-9.9545
▁कंगना	-9.95471
▁बच्चा	-9.95493
▁वाद	-9.95584
▁शुल्क	-9.95618
▁हिस्सों	-9.95721
▁अक्षय	-9.95726
▁घंट	-9.95815
▁लिखित	-9.95817
मन	-9.95923
▁44	-9.96218
▁रिजल्ट	-9.96266
▁फ्री	-9.96282
▁ताला	-9.96402
▁R	-9.96464
▁उपभोक्ता	-9.9654
▁ि	-9.96542
▁आपूर्ति	-9.96546
▁धार	-9.9662
▁भरी	-9.96627
▁डिजाइन	-9.96705
▁46	-9.96749
▁दुर्ग	-9.96796
▁जिंदगी	-9.96815
▁नमः	-9.96816
▁बाई	-9.96991
▁निधन	-9.97093
▁सचिन	-9.97101
▁मेन	-9.97193
▁सकें	-9.97326
▁मैन	-9.97363
▁शुभारंभ	-9.97367
▁तमा	-9.97373
▁लीटर	-9.97442
▁दलित	-9.9746
खंड	-9.97497
▁लोन	-9.97623
▁हैदराबाद	-9.97646
▁जताया	-9.9765
▁मंगल	-9.97693
▁विजेता	-9.977
कर्मियों	-9.97781
▁विद्या	-9.97786
▁अर्पित	-9.97845
▁कॉन्फ्रेंस	-9.97922
▁सेंट्रल	-9.97925
▁सफर	-9.97948
▁सदन	-9.97965
▁परिवर्तन	-9.97965
▁गुना	-9.97967
▁ग्रहण	-9.9797
▁पंप	-9.98001
▁बीमार	-9.98055
▁कारोबारी	-9.98138
▁मारी	-9.98192
▁बेस	-9.982
▁गले	-9.98308
▁मोड़	-9.98351
▁वैसे	-9.98384
▁65	-9.98449
कृष्ण	-9.98466
▁परंपरा	-9.98476
▁आशीर्वाद	-9.98479
▁फांसी	-9.98479
िलीप	-9.98526
▁जुर्माना	-9.98561
▁चलता	-9.98573
ेड	-9.98709
ध	-9.98733
▁लाइफ	-9.98773
▁स्	-9.99027
▁उल्लेख	-9.9904
▁बनाना	-9.99054
▁स्वतंत्रता	-9.99076
▁रुख	-9.99177
▁सोन	-9.99215
."	-9.99234
▁जानें	-9.99257
S	-9.99269
गा	-9.99281
▁संगठनों	-9.9931
▁पर्यटन	-9.99322
▁शाखा	-9.99324
▁ग्राहक	-9.99326
A	-9.99461
▁150	-9.99487
▁साहब	-9.99616
▁हों	-9.99708
▁सीकर	-9.99753
▁गार्ड	-9.99779
▁नही	-9.99887
▁जितेंद्र	-9.99909
▁क्षेत्रीय	-9.99928
रेन्द्र	-10.0004
h	-10.0008
▁रे	-10.0014
▁नाग	-10.0016
▁रिया	-10.0017
ाय	-10.0021
▁राजू	-10.0022
▁कितना	-10.0027
▁गाड़िय	-10.0037
▁राधा	-10.005
िंदर	-10.0053
शियल	-10.0057
▁गेम	-10.0066
▁जागरूक	-10.0066
▁आधारित	-10.007
▁इंजन	-10.0076
▁चाहे	-10.0091
▁नर	-10.0095
▁कराए	-10.0098
▁प्रेरित	-10.0103
▁खतरा	-10.0103
▁प्रभु	-10.0107
▁गंज	-10.0123
▁उधर	-10.0126
▁महज	-10.013
▁तस्करी	-10.0137
▁वर्क	-10.0152
▁39	-10.0154
▁टीमें	-10.0158
▁वा	-10.0159
▁बच्चन	-10.0161
▁पालिका	-10.0163
▁सोनू	-10.0164
▁ऐप	-10.0165
▁वादा	-10.0169
▁बालिका	-10.017
▁भोग	-10.0173
▁देखें	-10.0179
▁एग्जाम	-10.0186
▁बदला	-10.0195
▁उत्पादन	-10.0203
▁सुर	-10.0206
▁कैंडिडेट	-10.0218
▁राजपूत	-10.0218
▁आशा	-10.0228
▁बिगड़	-10.024
▁इसराइल	-10.0241
पूर्व	-10.0241
▁टाइगर	-10.0247
▁मुंह	-10.0249
▁मीना	-10.0251
▁चेहरे	-10.0254
▁लव	-10.0257
▁पाइप	-10.0277
▁चैंपियन	-10.0277
▁बोर	-10.0277
i	-10.028
▁पौधे	-10.0283
▁संभाल	-10.0286
▁विज	-10.0287
▁जायसवाल	-10.0306
▁सैकड़ों	-10.0308
▁हल	-10.032
▁बताए	-10.0326
बल	-10.0327
▁मंजूरी	-10.0329
▁बेस्ट	-10.0337
▁शासकीय	-10.0339
▁चौराहा	-10.0342
▁सकी	-10.036
▁बजाय	-10.0362
▁पैदल	-10.0365
▁सहमति	-10.0366
▁रोका	-10.0389
▁तहरीर	-10.0394
▁प्लेटफॉर्म	-10.0394
▁गाली	-10.0407
▁गली	-10.0413
▁रहना	-10.0414
▁पदक	-10.0416
करण	-10.0418
▁मजबूर	-10.0418
▁खरीदी	-10.0421
▁संपन्न	-10.0424
हिर	-10.0426
▁मिमी	-10.0427
▁पाठक	-10.0437
▁तुम	-10.0445
▁प्रयागराज	-10.0453
▁गीता	-10.0454
▁विरोधी	-10.0456
▁केंद्रों	-10.0459
▁भल	-10.046
▁मचा	-10.0462
▁देवेंद्र	-10.0465
▁सुना	-10.047
▁दुष्कर्म	-10.0483
▁जिक्र	-10.0483
▁फोर्स	-10.0484
▁डि	-10.0489
▁N	-10.049
▁राख	-10.0505
▁नवरात्र	-10.0508
▁निवास	-10.051
▁जगदीश	-10.0513
▁मिट्टी	-10.0513
▁सतीश	-10.0514
्त	-10.0517
▁महादेव	-10.0518
▁क्रम	-10.0522
▁सदस्यता	-10.0527
▁सत	-10.0529
▁डांस	-10.0538
▁रजिस्ट्रेशन	-10.0543
अभ्यर्थियों	-10.0543
▁पवार	-10.0547
▁उत्पाद	-10.0549
▁देखी	-10.0557
▁मेरठ	-10.0573
▁ग्रीन	-10.0575
▁ें	-10.0584
▁खेड़ा	-10.0587
▁कनेक्शन	-10.0603
जालंधर	-10.0605
▁आइए	-10.0608
▁जिनके	-10.0608
▁लीग	-10.061
▁लेन	-10.0611
▁रात्रि	-10.0615
▁टन	-10.0619
▁एप	-10.0623
▁लालू	-10.0626
▁संबंधी	-10.063
▁गिरोह	-10.0633
▁नरेश	-10.0635
▁डीसी	-10.0642
G	-10.0648
▁जितन	-10.0649
▁खेले	-10.0651
▁खरीदने	-10.0652
▁वी	-10.0656
▁स्टे	-10.0659
▁डेट	-10.0663
▁FIR	-10.0664
▁हेल्थ	-10.0664
▁नाराजगी	-10.0664
▁अंसारी	-10.0666
▁ग्राउंड	-10.0679
▁त्योहार	-10.0679
▁गोविंद	-10.0684
▁पड़ताल	-10.0689
▁दिक्कत	-10.0692
{	-10.0694
▁सच	-10.0694
▁बहु	-10.0704
▁कार्तिक	-10.0724
▁महाविद्यालय	-10.0724
▁लाठी	-10.0728
▁फाउंड	-10.0731
प्रकाश	-10.0732
▁गुट	-10.0733
एल	-10.0738
▁किरण	-10.0755
▁जल्दी	-10.0759
▁बस्ती	-10.0764
▁कैमरा	-10.0773
▁स्टूडेंट	-10.0779
▁बैठा	-10.0782
▁मूवी	-10.0785
▁आपत्ति	-10.0786
▁मुहूर्त	-10.0786
▁विकल्प	-10.0786
▁राजकीय	-10.079
▁इलेक्ट्रिक	-10.0809
▁आदित्य	-10.0816
▁प्रगति	-10.0816
▁बहादुर	-10.0816
▁श्रीलंका	-10.0816
▁मेट्रो	-10.0817
▁दर्शक	-10.082
▁भरने	-10.0821
▁इंद्र	-10.083
ायब	-10.084
आई	-10.0842
▁इंग्ल	-10.0847
▁अधिवक्ता	-10.0847
▁आदर्श	-10.0847
▁द्वितीय	-10.086
ाराम	-10.0877
▁ऋषि	-10.0878
▁साइकिल	-10.0878
▁प्रतीक	-10.0878
▁रोजाना	-10.0881
▁रंजन	-10.0885
▁बुरा	-10.0886
▁मास्टर	-10.089
▁ज्योति	-10.0895
▁G	-10.0907
ालय	-10.0907
▁आपराधिक	-10.0909
▁त्रिपाठी	-10.0909
▁पर्यटक	-10.0909
▁हिमाचल	-10.0909
▁टीवी	-10.0914
▁बरसात	-10.0915
▁जस	-10.0924
▁भागने	-10.0926
▁सांप	-10.0939
▁मात्रा	-10.0941
▁2017	-10.0942
▁बदले	-10.0942
▁देरी	-10.0944
▁41	-10.0948
▁अपहरण	-10.0951
नीय	-10.0953
▁पूछ	-10.0958
▁चुन	-10.0959
▁रोहतक	-10.0972
▁एएसआई	-10.0972
▁बिल्क	-10.0973
▁खोज	-10.0975
▁मांगा	-10.0978
▁मल	-10.0984
I	-10.099
▁रेंज	-10.0994
▁प्रतिभा	-10.1002
▁यूनियन	-10.1003
▁वसूली	-10.1006
▁हुईं	-10.1008
▁इमरजेंसी	-10.1008
▁होंगी	-10.1021
▁सेल	-10.1025
▁रिमांड	-10.1035
▁नेहरू	-10.1035
▁टेंडर	-10.1035
▁बाघ	-10.1036
▁महंत	-10.1037
पा	-10.1037
▁राजद	-10.1055
▁पीट	-10.1062
▁जबरदस्त	-10.1066
▁प्राधिकरण	-10.1066
▁आश्रम	-10.1067
▁धूम	-10.107
▁49	-10.1073
▁थोड़ी	-10.1078
▁सिख	-10.1078
▁मांगे	-10.1083
िए	-10.1086
▁फंड	-10.1089
▁आव	-10.1093
▁बेंगलुरु	-10.1098
▁लिख	-10.1099
▁सकेगा	-10.11
▁मोहल्ल	-10.1107
▁भरे	-10.1109
▁पुरी	-10.1111
:30	-10.1112
▁रहें	-10.1117
▁झूठ	-10.1125
▁बचने	-10.1127
▁43	-10.1127
▁बॉर्डर	-10.1129
▁संकेत	-10.113
▁भाषण	-10.113
▁डेटा	-10.1135
▁माने	-10.1136
▁रावत	-10.1141
्री	-10.1159
▁यश	-10.1165
▁मृत्यु	-10.1166
▁झ	-10.1167
▁शीर्ष	-10.1172
▁वर	-10.1172
चंद	-10.1175
▁प्रोत्साह	-10.1186
▁नोएडा	-10.1193
▁मप्र	-10.1195
▁उपाय	-10.1197
▁मुसलमान	-10.1198
▁संसदीय	-10.12
▁बैटरी	-10.1207
▁प्रावधान	-10.1208
ाजी	-10.1209
▁निर्	-10.122
▁पुष्प	-10.1222
▁आदित्यनाथ	-10.1227
▁हमलावर	-10.1228
▁बहस	-10.1233
▁रखकर	-10.1238
▁दुकानदार	-10.1246
▁निवेशक	-10.1247
▁घूम	-10.1248
ुआ	-10.1248
▁जुड़ा	-10.1258
▁अभि	-10.1268
▁51	-10.1274
▁इजराइल	-10.129
▁बिश्नोई	-10.129
▁विरुद्ध	-10.129
▁अनेक	-10.129
n	-10.1291
▁होम	-10.1294
▁खाद	-10.13
ग्राम	-10.1307
),	-10.1317
▁पथ	-10.1321
▁रिसर्च	-10.1322
▁आजाद	-10.1327
▁महामंत्री	-10.1327
▁शैल	-10.1333
▁मुझ	-10.1349
▁एशिया	-10.1352
▁ध	-10.1353
▁अल्पसंख्यक	-10.1355
▁इवेंट	-10.1355
▁खनन	-10.1356
▁छ	-10.1358
▁रणनीति	-10.1361
▁एंटी	-10.1363
▁धीरे	-10.1366
▁बढ़ी	-10.1369
▁परि	-10.1374
गांव	-10.1378
▁मिश्र	-10.1385
▁संसाधन	-10.1387
▁जूनियर	-10.1389
t	-10.1391
▁ती	-10.1406
▁चुना	-10.1412
▁01	-10.1412
▁स्वयं	-10.142
▁उल्लंघन	-10.142
▁समीप	-10.142
▁वैश्	-10.1434
▁जुड़	-10.1452
▁डिमांड	-10.1453
▁इंदिरा	-10.1453
▁स्नान	-10.1453
▁राणा	-10.1453
▁बुक	-10.1453
▁),	-10.1457
▁अश्विन	-10.1458
▁जख्मी	-10.1465
▁गठित	-10.1466
▁बालक	-10.1484
▁प्रतिक्रिया	-10.1484
▁तमिलनाडु	-10.1485
▁कैश	-10.1486
▁अरेस्ट	-10.1486
▁अमृतसर	-10.1489
▁रोशन	-10.149
▁आएगी	-10.1492
▁सुरेंद्र	-10.1496
▁एक्सपर्ट	-10.1511
-1	-10.1518
▁पूर्णिमा	-10.1519
▁एकादशी	-10.1521
निर्दलीय	-10.1521
▁तलाशी	-10.1522
▁पोस्टर	-10.1523
▁गहरा	-10.1536
▁अभियंता	-10.1552
▁पायलट	-10.1553
▁इस्लाम	-10.1554
▁फंस	-10.1559
▁पटवारी	-10.1559
टा	-10.1573
मी	-10.1579
▁ताकत	-10.1584
▁जिंदा	-10.1585
▁प्रेमी	-10.1585
▁बीकानेर	-10.1586
▁नर्सिंग	-10.1589
▁कृष्णा	-10.1596
▁प्रश्न	-10.1603
▁टकरा	-10.1605
रस	-10.1615
ंद	-10.1617
▁धोखाधड़ी	-10.1618
▁मुखिया	-10.1619
▁चक्कर	-10.1621
हिक	-10.1636
▁उठाए	-10.1648
▁संग	-10.1651
▁किराए	-10.1651
▁तस्वीरें	-10.1657
▁रिश्ते	-10.1664
▁सीख	-10.1666
▁प्राथमिकता	-10.1669
▁ऑफर	-10.1672
ैया	-10.1677
▁गौ	-10.1681
▁I	-10.1683
▁डीजल	-10.1683
▁सुझाव	-10.1685
▁सबूत	-10.1686
▁प्रार्थना	-10.1688
▁साय	-10.1688
▁इंच	-10.1695
▁प्री	-10.1709
▁कांड	-10.1714
▁47	-10.1717
▁पिटाई	-10.1719
▁फ्लैट	-10.172
▁चाचा	-10.1723
▁प्रबंधक	-10.1727
▁शास्त्री	-10.1728
▁न्यायिक	-10.1732
ठ	-10.174
▁ऑल	-10.174
▁बाड़मेर	-10.1753
▁शारीर	-10.1753
▁ब्रेक	-10.1755
▁पर्याप्	-10.1758
D	-10.1766
▁उपस्थिति	-10.1776
▁तोड़कर	-10.1777
▁चेन	-10.1784
▁ऐतिहास	-10.1786
▁खन्ना	-10.1787
▁रकम	-10.1787
▁गुल	-10.1788
▁पुलिसकर्मी	-10.1791
▁दुख	-10.1792
▁लेवल	-10.1795
कश्मीर	-10.1795
▁जाट	-10.1797
▁जीते	-10.1804
m	-10.1806
▁अकेले	-10.1812
▁नेपाल	-10.1813
▁माला	-10.1816
▁नाले	-10.1816
▁मोटर	-10.1819
▁घोटाल	-10.182
▁रिश्वत	-10.1821
▁रेखा	-10.1823
▁कार्यरत	-10.1824
▁देगा	-10.1827
▁भक्ति	-10.1831
▁आधा	-10.1832
▁in	-10.1835
▁भूल	-10.1848
▁भूप	-10.185
▁प्रदूषण	-10.1855
▁फूड	-10.1855
▁सपोर्ट	-10.1855
▁56	-10.1869
रत	-10.1874
▁अंदाज	-10.1878
▁विधान	-10.1879
▁सनातन	-10.1889
▁छुट्टी	-10.189
▁फुल	-10.1892
▁छोड़ने	-10.1899
▁प्रारंभ	-10.1901
▁गुणवत्ता	-10.1923
▁नो	-10.1926
ायिक	-10.1935
▁प्रसिद्ध	-10.1936
▁हॉल	-10.1939
▁सहयोगी	-10.1939
एम	-10.1951
▁पि	-10.1958
▁एक्टिव	-10.1959
▁विद्यार्थी	-10.196
बन	-10.1962
▁अफ्रीका	-10.1964
▁आभार	-10.1966
ौली	-10.1985
▁मेयर	-10.1993
ेर	-10.1995
er	-10.1998
y	-10.2
▁छा	-10.2004
▁भरत	-10.2006
▁वेस्ट	-10.2009
गत	-10.201
आधिकारिक	-10.2027
▁स्मृति	-10.2027
▁पीछा	-10.2028
▁तट	-10.2033
▁देगी	-10.2035
▁अति	-10.2048
▁हर्ष	-10.2049
▁ऑफिसर	-10.2061
▁अभ्यर्थी	-10.2062
▁आलोक	-10.2062
▁मोटरसाइकिल	-10.2062
▁सामुद	-10.2062
▁कर्ज	-10.2091
▁आपस	-10.2091
▁ज़्यादा	-10.2097
▁ट्रॉफ	-10.2097
▁सुशील	-10.2098
▁मेहता	-10.2099
▁पहाड़	-10.2106
▁उड़ान	-10.2115
▁खतर	-10.2117
▁सुविधाओं	-10.2125
▁सिलेंडर	-10.2132
▁वेद	-10.2135
▁करोड़ों	-10.2144
▁चढ़ा	-10.2147
▁लड़ा	-10.2147
▁मात्र	-10.2148
▁सेट	-10.2153
ायद	-10.2153
▁05	-10.2154
▁उड़	-10.2159
▁डेंगू	-10.2167
▁रेस्क्यू	-10.2167
▁कॉन्स्टेबल	-10.2167
▁सेकेंड	-10.2168
▁वायु	-10.2171
▁सिपाही	-10.2176
▁भट्ट	-10.2186
▁पदार्थ	-10.2193
▁मित्र	-10.2201
▁बैठकर	-10.2201
▁सिक्योरिटी	-10.2203
▁प्रोग्राम	-10.2203
▁तलाक	-10.2205
▁सामू	-10.2205
▁हस्त	-10.2206
▁प्रतिदिन	-10.2207
▁गये	-10.2208
ीं	-10.2209
▁लिंक	-10.2211
▁व्यवहार	-10.222
▁कलेक्ट्र	-10.2224
▁स्वरूप	-10.2228
▁हुसैन	-10.2238
▁इंस्टाग्राम	-10.2238
▁प्रवीण	-10.2238
बसपा	-10.2238
▁कलेक्शन	-10.2239
▁स्पीकर	-10.2246
▁रु	-10.2246
▁महापौर	-10.2274
▁कन्या	-10.2275
▁सब्जी	-10.2276
▁सुविधाएं	-10.2277
▁रावण	-10.2279
▁संशोधन	-10.228
घर	-10.2286
शरद	-10.2289
▁घ	-10.229
ल्लू	-10.229
▁ेश्वर	-10.2294
▁माध्यमिक	-10.23
िल	-10.2306
▁जुलूस	-10.2309
▁संध्या	-10.2309
▁अवॉर्ड	-10.231
▁अंबानी	-10.2311
▁ललित	-10.2311
विंदर	-10.2314
▁बहा	-10.2319
▁मौजूदगी	-10.2319
▁कोर्स	-10.2327
वेज	-10.2344
▁मनोहर	-10.2346
▁अधिकांश	-10.2347
▁स्कूट	-10.2349
▁ब्रिज	-10.235
▁गलती	-10.2352
▁भा	-10.2361
▁इनका	-10.2366
▁सारा	-10.2369
▁धीर	-10.2371
ैन्य	-10.2384
▁भंडार	-10.2387
टर	-10.2389
al	-10.2393
▁सास	-10.2402
▁पुणे	-10.2417
▁जित	-10.2418
▁हराया	-10.2423
▁गुप्त	-10.2427
ज़	-10.2438
▁बि	-10.2442
▁बीज	-10.245
की	-10.2452
▁उत्तराखंड	-10.2453
▁मुजफ्फरपुर	-10.2454
▁प्रमोद	-10.2454
▁कुलपति	-10.2459
▁भतीज	-10.2462
▁जगत	-10.2467
▁गत	-10.2471
▁लाई	-10.2473
.5	-10.2474
▁चुरा	-10.2482
▁पिस्टल	-10.249
▁जिलाधिकारी	-10.2497
▁धर्मेंद्र	-10.2504
निश्चित	-10.252
▁समर्पित	-10.2526
▁समुद्र	-10.2526
▁मार्गदर्शन	-10.2528
▁पवित्र	-10.253
▁सीईओ	-10.253
▁स्टोर	-10.2532
िव	-10.2541
▁अमिताभ	-10.2563
▁झगड़ा	-10.2567
वत	-10.2567
▁ढाई	-10.2571
▁पड़ोस	-10.2577
▁शेर	-10.258
भाल	-10.2588
▁आईं	-10.2588
▁गंभीरता	-10.259
ीज	-10.2592
▁परीक्षण	-10.26
▁आग्रह	-10.2601
ः	-10.2604
▁सम	-10.2617
▁मुक्ति	-10.2619
▁बीमा	-10.2624
▁चीनी	-10.263
▁अनिवार्य	-10.2637
▁समन्वय	-10.2637
▁तबीयत	-10.2637
▁हसीना	-10.2639
▁यूजर्स	-10.2642
▁गोदाम	-10.2642
▁शेष	-10.2652
रिक्शा	-10.2665
्या	-10.2667
▁फार्म	-10.2667
धिकारी	-10.2671
▁इंतजाम	-10.2674
▁स्वर्ण	-10.2674
▁भाइयों	-10.2674
▁गर्ग	-10.2674
▁बोली	-10.2679
▁आएगा	-10.2682
क्ष	-10.2685
▁काशी	-10.2691
▁एंबुलेंस	-10.2711
▁एसएसपी	-10.2712
▁भगत	-10.2712
▁चलेगा	-10.2715
▁आयु	-10.2716
▁मजदूरी	-10.272
▁किशन	-10.2738
▁i	-10.2744
▁बांट	-10.2744
्ल	-10.2767
▁बहाल	-10.2769
▁माफी	-10.277
▁लड़किय	-10.2771
▁बेल	-10.2771
ृत	-10.2784
▁आंध्र	-10.2786
▁कटौती	-10.2786
▁इकाई	-10.2786
▁प्रतिपक्ष	-10.2786
▁एसी	-10.2788
▁सुनीता	-10.2791
▁हक	-10.2792
▁पंत	-10.2794
▁़	-10.2802
जनक	-10.2804
▁ऑ	-10.2807
▁गाने	-10.282
▁दिग्गज	-10.2823
▁साइंस	-10.2824
▁58	-10.2826
▁समाजवाद	-10.2827
▁तैयारियां	-10.2834
ति	-10.2837
▁मनी	-10.2844
▁टेक	-10.2845
▁लुक	-10.2849
▁रिहा	-10.286
▁इच्छा	-10.2862
▁सुमित	-10.2873
▁मनाई	-10.2878
▁काला	-10.2881
▁अखिल	-10.2897
रे	-10.2897
▁बिहारी	-10.2898
द्योगिक	-10.2899
▁ब्रांच	-10.2899
▁इंसान	-10.2899
▁F	-10.2912
▁य	-10.2914
▁मांगने	-10.2914
▁गिरी	-10.2918
▁काली	-10.2922
l	-10.2927
▁जेपी	-10.2933
▁ओलिंपिक	-10.2937
▁क्षतिग्रस्त	-10.2937
▁चालू	-10.2938
▁दादा	-10.2938
▁सीओ	-10.294
▁पूर्णिया	-10.2944
▁रथ	-10.2945
रदार	-10.2953
▁शोर	-10.2957
▁आईडी	-10.2958
▁संज्ञान	-10.2975
▁फेल	-10.2975
▁ब्लड	-10.2976
▁मिलाकर	-10.2978
▁मथुरा	-10.2978
दान	-10.298
▁नक्सलियों	-10.298
▁सेवाएं	-10.2983
▁उदय	-10.2984
ंट	-10.2985
▁डालने	-10.3005
डा	-10.3006
▁शहरी	-10.3012
▁आह्वान	-10.3013
▁पिकअप	-10.3013
▁समस्त	-10.3013
▁नाटक	-10.3013
▁राठौड़	-10.3013
पर	-10.3014
▁अलवर	-10.3015
▁अनंत	-10.3015
▁तिरंगा	-10.3019
ेस	-10.3021
▁मिस	-10.3027
▁तिलक	-10.3032
ांक	-10.3043
.6	-10.3049
▁मिसाइल	-10.305
▁सर्च	-10.3053
ण्ड	-10.3067
▁वाय	-10.3078
▁व्यवसाय	-10.3085
▁फिट	-10.3089
▁एडवोकेट	-10.309
▁राशिफल	-10.3091
▁कार्यक्रमों	-10.3095
▁गज	-10.3097
▁शरण	-10.3104
▁कुशवाहा	-10.3105
▁नंद	-10.3109
▁एफ	-10.3113
▁चंदन	-10.3114
▁खंड	-10.3116
ौ	-10.3118
▁बाला	-10.3129
▁2016	-10.3129
▁उपकरण	-10.3132
▁लंबा	-10.3135
▁टाउन	-10.3137
▁फै	-10.3144
▁प्रणाली	-10.3144
▁साइड	-10.3146
दूसरे	-10.3153
▁भेजे	-10.3154
▁गड्ढ	-10.3155
▁पुनर्	-10.316
▁कलाकार	-10.3168
▁तृतीय	-10.3168
▁जानी	-10.3173
▁अत्य	-10.3176
्‍	-10.318
▁57	-10.318
▁संबंधों	-10.3186
▁हाथी	-10.319
▁मानी	-10.3195
▁78	-10.32
▁यौन	-10.3207
▁बॉडी	-10.3207
▁तीर्थ	-10.3207
▁जाएंगी	-10.321
▁कलाकारों	-10.321
▁सील	-10.3215
▁छोड़ा	-10.3243
▁बजा	-10.3245
▁प्रभावी	-10.3245
यां	-10.3246
▁शशि	-10.3246
▁दिव्यांग	-10.3246
▁स्पोर्ट्स	-10.3248
▁माफिया	-10.3252
▁एसआई	-10.3255
कांत	-10.3255
▁गयी	-10.3257
▁बड़	-10.3258
कल	-10.3259
▁L	-10.3259
▁अदा	-10.3262
▁दा	-10.3268
धाम	-10.327
आर	-10.3272
▁हंस	-10.3272
▁स्मार्टफोन	-10.3286
▁आसमान	-10.329
▁शतक	-10.329
▁कविता	-10.3291
▁मर्डर	-10.3294
▁02	-10.3298
▁फॉर	-10.3305
▁एं	-10.3306
▁चलाई	-10.3308
▁लि	-10.3326
▁लिये	-10.3326
▁ओं	-10.3327
▁पीटा	-10.3332
▁जंग	-10.3334
▁72	-10.3336
ाें	-10.335
र्क	-10.3352
▁पीढ़	-10.3361
▁प्रॉपर्टी	-10.3365
▁बतौर	-10.3367
▁कपिल	-10.3367
▁रीवा	-10.3368
ियर	-10.3372
िस्ट	-10.3373
▁सपना	-10.3375
▁चा	-10.3399
▁बेहोश	-10.3405
▁धन्यवाद	-10.3405
▁ऑर्डर	-10.3405
▁नारेबाजी	-10.3405
▁पढ़िए	-10.3406
▁199	-10.3407
▁राशन	-10.3407
▁आमजन	-10.3411
▁थोड़ा	-10.3413
▁पात्र	-10.342
▁उतारा	-10.3436
▁शास्त्र	-10.3441
▁अनुरोध	-10.3445
▁मंजिल	-10.3445
▁बनर्जी	-10.3445
▁शिवसेना	-10.3446
▁सिम	-10.3447
▁बेहतरीन	-10.345
रन	-10.3451
▁टेबल	-10.3452
▁रियल	-10.3456
▁प्रबंध	-10.3461
मक्ष	-10.3464
▁चार्ज	-10.3466
▁प्रतिबंध	-10.3479
▁एड	-10.3482
▁सिनेमा	-10.3485
▁चौटाला	-10.3485
▁रेड्डी	-10.3485
▁शुभम	-10.3486
▁कुत्त	-10.349
▁मानस	-10.3494
▁पे	-10.3497
स्टर	-10.3499
▁गला	-10.3504
▁सन	-10.352
▁ख़िलाफ	-10.3525
▁हार्दिक	-10.3525
हिंदुओं	-10.3527
▁जनसभा	-10.3528
▁कमलेश	-10.3528
▁फीचर्स	-10.3529
▁चाय	-10.3529
B	-10.353
▁चेहरा	-10.3533
▁गिल	-10.3539
▁ति	-10.3541
▁बीती	-10.3553
विंद्र	-10.3565
▁ब्रिगेड	-10.3566
▁टेक्नोलॉजी	-10.3566
▁इंजीनियरिंग	-10.3575
टन	-10.3586
▁85	-10.3594
चा	-10.36
दो	-10.3601
▁बृज	-10.3604
▁अनुराग	-10.3606
▁ब्राह्मण	-10.3606
▁नेटवर्क	-10.3606
ाल	-10.3612
▁बढ़ाया	-10.362
क्षेत्र	-10.3626
▁भय	-10.3639
हम	-10.3642
▁फतेह	-10.3644
▁स्कीम	-10.3647
▁श्रद्धांजलि	-10.3647
▁ब्रांड	-10.3647
▁अटल	-10.3649
K	-10.3657
▁रतन	-10.3658
▁चेकिंग	-10.3662
ंडा	-10.3664
▁करनाल	-10.3665
▁आपसी	-10.3672
▁बिग	-10.3682
▁छेड़छाड़	-10.3688
▁लौटा	-10.3693
▁झांसी	-10.3706
▁चांद	-10.3713
छात्राओं	-10.3719
▁52	-10.3721
बंदी	-10.3728
▁पो	-10.3729
▁उदाहरण	-10.3729
▁चेन्नई	-10.3729
▁गश्त	-10.3729
▁विनय	-10.3731
▁मोहल्ला	-10.3734
▁सांस	-10.3738
धीरे	-10.374
वि	-10.3743
▁सीता	-10.3747
▁जहाज	-10.3757
▁250	-10.3769
ंक	-10.3771
▁लक्ष्मण	-10.3771
▁54	-10.3773
▁चलेगी	-10.3775
▁लोकेशन	-10.3785
▁बिक	-10.3798
▁दबा	-10.3803
▁बनाते	-10.3804
▁इं	-10.3807
चर	-10.3811
▁तेलंगाना	-10.3812
▁मशहूर	-10.3812
▁अरोड़ा	-10.3812
िनी	-10.3812
▁महाकाल	-10.3813
▁समझौता	-10.3815
▁जानवर	-10.3816
▁मलिक	-10.3827
▁हसन	-10.3829
▁सावन	-10.3834
वाई	-10.3835
▁पु	-10.3845
ियो	-10.3845
यू	-10.3851
▁टारगेट	-10.3854
▁संभावित	-10.3854
▁सर्टिफिकेट	-10.3854
▁कलश	-10.3861
व्यक्तिगत	-10.3874
▁करार	-10.3881
▁फिल्में	-10.3892
▁कृपा	-10.3894
▁अर्थव्यवस्था	-10.3896
▁आलोचना	-10.3896
▁एजेंट	-10.3896
▁हुड्डा	-10.3896
▁उपाध्याय	-10.3896
▁जोड़ी	-10.39
▁अमृत	-10.3901
▁लोड	-10.3901
▁मनाने	-10.3903
▁बो	-10.3909
▁गन	-10.3922
िस्तान	-10.3933
▁तुलसी	-10.3937
▁ब्याज	-10.3938
▁मजिस्ट्रेट	-10.3938
▁सुमन	-10.394
▁एआई	-10.3948
▁O	-10.395
ानुसार	-10.3962
ॉ	-10.3964
▁घेर	-10.3968
▁नीट	-10.397
▁दु	-10.3971
▁कूद	-10.3972
▁आंकड़े	-10.3972
▁ियां	-10.3979
▁संभल	-10.398
▁सिंचाई	-10.398
▁सैंपल	-10.398
▁वजन	-10.3981
▁ग्लोबल	-10.3981
▁शर्त	-10.3983
▁गुलाब	-10.3983
▁स्वीकृति	-10.3984
.8	-10.4008
▁कमला	-10.4011
▁सकारात्मक	-10.4022
▁गारंटी	-10.4022
▁संदेह	-10.4023
▁बेड	-10.4024
▁04	-10.4024
मिर	-10.4044
▁नारे	-10.4045
-25	-10.4047
▁67	-10.4055
▁मदन	-10.4057
▁खिला	-10.4058
▁करे	-10.4058
▁आजादी	-10.4064
▁नितिन	-10.4065
▁गाड़ियां	-10.4066
▁कवर	-10.4069
▁कैंट	-10.4073
▁शिवराज	-10.4076
गार	-10.4077
्ट	-10.4079
▁कचरा	-10.4084
डे	-10.4091
▁हट	-10.4091
लर	-10.4095
त्री	-10.4096
▁हा	-10.4104
▁हरकत	-10.4105
▁गहलोत	-10.4107
▁ड्रेस	-10.4107
▁एटीएम	-10.4108
▁बघेल	-10.4108
▁एडमिशन	-10.4108
▁मैनेजमेंट	-10.4108
▁शुक्ल	-10.4115
▁क्ल	-10.413
▁नकली	-10.4133
तलब	-10.414
▁किशोरी	-10.4143
▁मासूम	-10.415
▁फर्स्ट	-10.4151
आईएएस	-10.4151
▁हार्ट	-10.4153
▁मोह	-10.4156
िनेश	-10.4165
▁पैस	-10.4167
▁लंबित	-10.4172
▁वाल	-10.4179
▁शोध	-10.4186
▁आस्था	-10.4194
▁वार्ता	-10.4194
▁अंतर्	-10.4203
ोर	-10.4209
मैन	-10.4217
ियम	-10.4232
▁निलंबित	-10.4237
▁बहुमत	-10.4237
▁इंचार्ज	-10.4237
▁मणिपुर	-10.4239
▁मोड	-10.4243
▁भेजी	-10.4246
▁पार्ट	-10.4247
▁पाते	-10.425
वेल	-10.4252
उ	-10.4253
▁लैंड	-10.4268
▁खुला	-10.4269
▁आक्रोश	-10.4273
▁छिपा	-10.4274
इ	-10.4274
▁निरस्त	-10.428
▁महात्मा	-10.4281
▁क्विंटल	-10.4281
▁दरबार	-10.4283
P	-10.4286
▁हाे	-10.4287
.4	-10.4295
▁निर्मल	-10.4307
▁सुनने	-10.4312
स्ट	-10.4318
▁गेहूं	-10.4324
▁मुआवजा	-10.4324
▁वीरेंद्र	-10.4333
▁करंट	-10.434
▁फील्ड	-10.4347
।"	-10.4353
भारत	-10.4367
▁सरस्वती	-10.4368
▁ठाकरे	-10.4368
▁अभियुक्त	-10.4368
▁एच	-10.4371
▁वार्षिक	-10.4371
▁गेंदबाज	-10.4374
▁मनमोह	-10.4374
▁घटनाएं	-10.4397
ाइट	-10.4403
▁ड्रग	-10.4412
▁चिराग	-10.4412
▁रामलला	-10.4415
▁रेस	-10.4422
ेल	-10.4434
▁खेली	-10.4438
▁शाही	-10.4443
O	-10.4444
▁संवाद	-10.4444
▁बीबी	-10.4449
▁लहर	-10.445
नारायण	-10.4452
▁एकजुट	-10.4456
▁मरम्मत	-10.4456
▁2015	-10.4456
▁प्लास्टिक	-10.4456
▁मायके	-10.446
▁दावेदार	-10.4461
▁खाता	-10.4463
मेल	-10.4466
▁कायम	-10.4471
▁गोद	-10.4477
▁X	-10.4482
▁साधा	-10.4489
▁खरीदा	-10.449
in	-10.45
▁भेंट	-10.4502
▁डिलीवरी	-10.4504
▁व्यास	-10.4505
▁गुरुद्वार	-10.4506
g	-10.4513
▁कर्म	-10.452
▁शुद्ध	-10.4532
वन	-10.4537
▁पहाड़ी	-10.4538
मल	-10.4542
▁किताब	-10.4544
▁इजरायल	-10.4545
▁दरभंगा	-10.4545
▁मुठभेड़	-10.4545
▁एडिशन	-10.4545
▁खींच	-10.4546
▁कार्यशाला	-10.4547
▁चालान	-10.4548
▁डबल	-10.4549
▁1,	-10.4552
▁जुटा	-10.4555
▁सराहना	-10.4559
▁हैरान	-10.4572
▁मानें	-10.4579
▁2000	-10.458
▁मानक	-10.4581
▁एससी	-10.4586
▁सिद्धार्थ	-10.459
▁समस्तीपुर	-10.459
▁प्लेयर	-10.459
▁सीधा	-10.4591
▁53	-10.4592
▁अटैक	-10.4593
an	-10.4596
▁करेंगी	-10.4598
▁आईटी	-10.4601
▁नर्स	-10.4602
-3	-10.4603
▁कस्बे	-10.4613
M	-10.4617
▁फंसा	-10.4621
▁शा	-10.4625
▁एकता	-10.4629
▁सक्षम	-10.4635
▁अवगत	-10.4635
▁धनबाद	-10.4636
▁फोकस	-10.4636
▁तारीफ	-10.4636
▁03	-10.4637
▁मेगा	-10.4639
▁बाय	-10.4639
▁स्वस्थ	-10.4643
्म	-10.4647
▁खर	-10.4649
▁बहू	-10.4655
▁खोला	-10.4658
▁अर्चना	-10.4661
▁करो	-10.4667
▁विरासत	-10.468
▁काले	-10.468
▁ईश्वर	-10.4681
▁माधव	-10.4684
▁09	-10.4702
लो	-10.4705
▁कक्ष	-10.4705
▁आधे	-10.4711
अपने	-10.4715
िट	-10.4722
▁बोतल	-10.4726
▁ट्रेलर	-10.4726
▁हरी	-10.4726
▁भागलपुर	-10.4727
▁झटका	-10.4729
▁रुप	-10.4743
▁पुन	-10.4746
▁लेट	-10.4749
जे	-10.4749
▁600	-10.4758
ोली	-10.476
▁सफेद	-10.4771
▁वाटर	-10.4772
▁पंडाल	-10.4772
▁पेरि	-10.4773
▁सर्जरी	-10.4774
▁एमएम	-10.4775
▁सीन	-10.4777
▁ओलंपि	-10.4778
▁बुकिंग	-10.478
▁लॉ	-10.4784
r	-10.479
▁गड़बड़ी	-10.4792
▁बरेली	-10.4793
▁ज़	-10.4794
▁K	-10.4797
▁जोड़ा	-10.4802
▁59	-10.4814
▁देसी	-10.4815
▁अभिनेता	-10.4817
▁विशिष्ट	-10.4818
▁कागज	-10.4821
▁आचार	-10.4823
ात्मक	-10.4827
▁दफ्तर	-10.4828
▁रू	-10.4839
-2	-10.4846
स्	-10.4853
▁आर्मी	-10.486
▁आर्य	-10.4863
▁रेत	-10.4863
▁ब्लैक	-10.4863
▁प्रेरणा	-10.4863
▁फंदे	-10.4863
▁बजरंग	-10.4863
▁अध्ययन	-10.4863
▁सिंधिया	-10.4865
▁गांजा	-10.4871
▁निर्देशन	-10.4875
▁टा	-10.4883
▁सर्दी	-10.4896
▁अंग्रेजी	-10.4905
नाक	-10.4909
▁बैच	-10.4911
▁शिखर	-10.4914
▁पुजारी	-10.4919
ar	-10.4919
▁बहनों	-10.4919
▁H	-10.4927
▁कमर	-10.4928
▁आंकड़	-10.493
कोट	-10.4931
▁J	-10.4931
्का	-10.4942
▁बारात	-10.4944
▁किये	-10.4956
▁श्रद्धा	-10.4956
▁शुभकामनाएं	-10.4956
रजत	-10.4957
▁अंबेडकर	-10.4958
▁मिलेंगे	-10.496
▁लगेगा	-10.4964
▁बनवा	-10.4967
▁बु	-10.4972
▁फसलों	-10.4983
▁लेटर	-10.4985
▁पार्टिय	-10.4988
▁॥	-10.4992
▁""	-10.4992
▁अनुसंधान	-10.5003
▁गाजियाबाद	-10.5003
▁पृथ्वी	-10.5003
▁रतलाम	-10.5003
▁एक्सीडेंट	-10.5003
▁रिटर्न	-10.5003
▁अंचल	-10.5004
▁मुफ्त	-10.5005
▁महंगाई	-10.5006
▁पीजी	-10.5014
प्रीत	-10.5039
टीआई	-10.5048
▁स्नातक	-10.505
▁अनाज	-10.5051
▁जैसलमेर	-10.5052
▁चैनल	-10.5053
▁भरतपुर	-10.5055
▁बनेगा	-10.5056
▁फंसे	-10.5057
▁नामक	-10.5059
ौर	-10.5067
▁आर्ट	-10.5072
▁घेरा	-10.5087
▁प्रत्याशियों	-10.5097
▁शैक्षणिक	-10.5097
▁जहर	-10.5097
▁प्रांत	-10.5098
▁अहमदाबाद	-10.5099
▁विक्की	-10.51
▁पैक	-10.5102
▁स्पीड	-10.5103
▁ऑन	-10.5107
ट्रिक	-10.5109
▁थानों	-10.5113
▁चित्र	-10.512
▁मधु	-10.5128
वाला	-10.5143
▁राह	-10.5144
▁जश्न	-10.5144
▁इमरान	-10.5145
▁कार्यकारिणी	-10.5145
▁दहेज	-10.5145
▁बचपन	-10.5145
▁लाइव	-10.5145
▁अनुसूचित	-10.5145
▁संतुल	-10.5147
▁शिंदे	-10.5152
▁भागीदारी	-10.5154
▁साह	-10.5157
▁तैनाती	-10.5159
▁दोस्ती	-10.517
▁अंग	-10.517
00	-10.5171
▁प्रस्तावित	-10.5171
▁कड़ा	-10.5178
▁प्राथमिकी	-10.519
▁पूनम	-10.5192
▁पेयजल	-10.5192
जगह	-10.5195
▁फर्म	-10.5195
▁साध	-10.52
वानी	-10.5205
▁चालकों	-10.5209
▁उत्तरी	-10.5217
▁लड़का	-10.5231
▁आसार	-10.5236
▁संवेदनशील	-10.524
▁अभिभावक	-10.524
▁गूगल	-10.524
▁लिखी	-10.5241
▁जायजा	-10.5244
▁श्रम	-10.525
▁सूख	-10.5251
▁मि	-10.5252
▁असली	-10.5253
▁डीसीपी	-10.5253
▁लड़क	-10.5263
▁ड्राइव	-10.5264
▁जापान	-10.5267
▁E	-10.527
▁पं	-10.5271
यन	-10.5271
▁आतंकवाद	-10.5272
प्र	-10.5272
▁सियास	-10.5273
▁सौंपी	-10.5274
▁वात	-10.5276
रूप	-10.5281
▁शिवम	-10.5285
▁अश्लील	-10.5288
▁डेब्यू	-10.5288
▁पारंपर	-10.5288
▁सुर्खिय	-10.5288
▁राठौर	-10.5288
▁चंद्रशेखर	-10.5288
▁गोलियां	-10.529
▁हवाले	-10.5291
▁उमस	-10.5291
▁ओबीसी	-10.5295
▁हटाया	-10.5297
्रा	-10.5302
▁120	-10.5312
▁न्यूज	-10.533
▁दिखे	-10.5333
▁वस्तु	-10.5338
▁पूछे	-10.5339
▁छाए	-10.5339
N	-10.534
▁विसर्ज	-10.5342
▁कलर	-10.5351
▁अपमान	-10.5383
T	-10.5384
▁मकसद	-10.5385
▁हत्याकांड	-10.5386
▁रिटायर्ड	-10.5387
▁पुस्तक	-10.5389
▁एक्टिंग	-10.5401
-4	-10.5404
0%	-10.5416
▁कमान	-10.5426
लाइन	-10.5427
▁दिवाली	-10.5434
▁सवाई	-10.5443
आ	-10.5444
▁तेंदु	-10.5445
▁99	-10.5447
▁सेशन	-10.5454
▁हमल	-10.5475
▁डिटेल	-10.5476
▁आबकारी	-10.5483
▁दिमाग	-10.5483
▁केशव	-10.5483
▁प्राप्ति	-10.5483
▁ट्रायल	-10.5483
▁सेकंड	-10.5483
▁अर	-10.5487
▁IPL	-10.5489
▁बीत	-10.549
जीलैंड	-10.5491
▁चावल	-10.5499
▁सिंगल	-10.5502
▁निधि	-10.5504
▁संरक्ष	-10.5517
▁गुहार	-10.5532
▁आजमगढ़	-10.5532
▁पाएंगे	-10.5533
▁ऐश्वर्या	-10.5534
▁हां	-10.5537
▁वरुण	-10.5542
▁सख्ती	-10.5542
▁झांसा	-10.5544
▁पैनल	-10.5561
▁ठो	-10.5563
▁आयुष	-10.5566
▁मोर	-10.5566
▁आइ	-10.5567
▁स्थायी	-10.5572
▁लटका	-10.5577
▁पर्सन	-10.558
▁अनूप	-10.5581
▁घटनाक्रम	-10.5583
▁हे	-10.5583
▁सिरसा	-10.5586
▁ईयर	-10.559
▁दिलाई	-10.5597
▁68	-10.5607
▁लिखकर	-10.5609
हरे	-10.5609
▁कपल	-10.5616
▁त्रि	-10.5622
▁कैस	-10.5623
▁अभय	-10.5631
▁कांस्टेबल	-10.5631
छिंदवाड़ा	-10.5631
▁दबिश	-10.5632
▁बाधित	-10.5632
▁समझौते	-10.5635
▁चीजें	-10.5636
▁बैंड	-10.5637
▁198	-10.5638
आउट	-10.5638
▁पहुंचेगी	-10.5644
▁ED	-10.5649
L	-10.5669
डीजीपी	-10.5671
▁थीम	-10.5678
गो	-10.5679
▁अतुल	-10.5681
▁पारि	-10.5682
▁उपायुक्त	-10.5683
गर	-10.5684
▁1000	-10.5687
▁मं	-10.5691
▁प्रीत	-10.5702
▁ज्वेलर	-10.5731
▁दहशत	-10.5731
▁श्रमिक	-10.5737
तौर	-10.5738
▁मोहित	-10.574
▁जवाहर	-10.5773
प्पू	-10.5775
▁गुस्सा	-10.5776
▁जलस्तर	-10.5782
▁चोपड़ा	-10.5782
▁मुद्रा	-10.5782
▁गैंगस्टर	-10.5783
▁साक्ष	-10.5784
▁ईंट	-10.5785
▁निभाई	-10.579
b	-10.579
▁ड़ा	-10.579
▁तोमर	-10.5797
▁घूमने	-10.5799
हर	-10.5802
▁07	-10.5808
▁पत	-10.5812
▁हवाला	-10.5812
▁जीव	-10.5813
▁गार्डन	-10.5819
था	-10.582
▁आंकड़ा	-10.582
▁घी	-10.5821
▁हिट	-10.5822
▁मालूम	-10.5833
▁यूरोप	-10.5833
▁आईपीएल	-10.5835
▁नाव	-10.5836
वेयर	-10.5836
▁कैच	-10.5839
▁प्रयासों	-10.5852
▁निपट	-10.5856
▁निकट	-10.586
▁खेलते	-10.5862
▁खात	-10.587
▁प्रदर्शनी	-10.587
िड	-10.5871
▁हड़कंप	-10.5884
▁बकाया	-10.5884
▁कश्यप	-10.5884
▁साक्ष्य	-10.5885
▁स्क्रीन	-10.5886
श्री	-10.5888
▁चाह	-10.589
बद्ध	-10.5891
▁भागवत	-10.5898
▁चौंका	-10.5898
▁मामा	-10.5898
▁UP	-10.592
▁प्रतिभाग	-10.5924
▁गंद	-10.5924
▁ड़	-10.5927
▁जानकार	-10.5929
्होंने	-10.593
▁ू	-10.5932
▁नकदी	-10.5934
▁इंस्टीट्यू	-10.5935
▁फ्रंट	-10.5935
▁शोभायात्रा	-10.5935
▁दौसा	-10.5935
▁शॉर्ट	-10.5935
▁बेंच	-10.5936
खा	-10.5938
▁लाए	-10.5942
▁काटकर	-10.5947
▁द्वार	-10.5951
▁आयुष्	-10.5953
▁MP	-10.5954
▁गहर	-10.5955
▁अंबाला	-10.5958
▁06	-10.5961
▁196	-10.5962
पति	-10.5973
▁करीबी	-10.5974
▁नायक	-10.5976
ेंगे	-10.5986
▁सिलसिला	-10.5987
▁हॉस्टल	-10.5987
▁तोड़फोड़	-10.5987
▁नज़र	-10.5987
▁यूजर	-10.5987
▁नामजद	-10.5987
R	-10.5988
▁देखिए	-10.5992
▁हि	-10.5993
▁टैंकर	-10.5998
▁डॉक्टर्स	-10.5999
▁गहन	-10.6
▁स्टोरी	-10.6003
▁लकड़	-10.6004
▁जीती	-10.6006
▁जुटे	-10.6009
▁197	-10.6011
हिन्दू	-10.6011
ri	-10.6015
प्रारंभिक	-10.602
▁64	-10.6023
▁डोर	-10.6026
el	-10.6029
▁108	-10.6034
▁मुखबिर	-10.6038
▁इमारत	-10.6038
▁लैब	-10.604
▁आरक्षक	-10.6041
▁बस्तर	-10.6041
▁प्राचीन	-10.6041
▁बंधक	-10.6045
▁..	-10.6048
▁शान	-10.6059
▁66	-10.6059
ाब	-10.6066
▁ः	-10.6066
▁पैमा	-10.6071
▁800	-10.6071
▁परिस्थितिय	-10.6073
▁देखे	-10.6076
▁क्रिकेटर	-10.6077
र्न	-10.6081
▁जन्मदिन	-10.609
▁निष्पक्ष	-10.609
▁मालदीव	-10.609
▁बेगूसराय	-10.609
▁प्रतिनिधित्व	-10.6091
▁रेस्टोरेंट	-10.6093
▁इकट्ठा	-10.6096
अफगानिस्तान	-10.6096
▁सोनिया	-10.6097
ढ	-10.6101
▁मोती	-10.6104
ॉल	-10.6105
▁लोगो	-10.6106
म्ब	-10.6108
धारण	-10.612
▁मोन	-10.6127
अ	-10.6129
नर	-10.613
▁गवाह	-10.6131
कारी	-10.6134
▁असल	-10.6135
▁-2	-10.6135
▁पॉइंट	-10.6137
▁ट्रेड	-10.6137
▁फरीदाबाद	-10.6143
▁शाहरुख	-10.6143
▁उमेश	-10.6143
▁मुकदमे	-10.6146
▁दीपिका	-10.6147
▁दुल्हन	-10.6151
▁76	-10.616
▁दुकानदारों	-10.617
▁भूषण	-10.6171
▁ओटी	-10.6185
ब्रिटेन	-10.6186
▁ब्रह्म	-10.6188
▁स्थलों	-10.619
▁आधुनिक	-10.6195
▁डिवीजन	-10.6195
▁लेपर्ड	-10.6195
▁बर्बाद	-10.6195
▁हस्ताक्षर	-10.6195
▁Lok	-10.6195
▁क्रेडि	-10.6196
▁छवि	-10.6196
▁पेमेंट	-10.6197
▁तर	-10.62
▁करवाए	-10.62
▁अंधेर	-10.6203
▁भोजपुर	-10.6204
▁पै	-10.6209
th	-10.6211
▁बनना	-10.6215
▁नाइट	-10.6224
▁सड़कें	-10.6227
म्	-10.6233
▁62	-10.6241
कुमार	-10.6243
▁युग	-10.6243
▁जि	-10.6244
▁एडवांस	-10.6248
▁मद्देनज	-10.6248
▁यमुना	-10.6248
▁शनि	-10.6249
▁दहन	-10.625
▁लटक	-10.6253
▁69	-10.6254
ंतु	-10.6255
▁112	-10.6256
▁रायगढ़	-10.6257
▁फुट	-10.6258
मिली	-10.6264
▁महान	-10.6267
▁चमक	-10.6273
▁अब्दुल	-10.6278
▁जेसी	-10.6288
▁कंपनियां	-10.6301
▁छानबीन	-10.6301
▁जर्जर	-10.6301
▁मामूली	-10.6301
▁कांवड़	-10.6302
▁जर्मन	-10.6302
▁ईवीएम	-10.6302
▁भिवानी	-10.6302
▁उत्पीड़न	-10.6302
▁खतरनाक	-10.6302
▁गर्व	-10.6303
▁ऊंचाई	-10.6304
▁भ्रमण	-10.6306
▁रजिस्ट्री	-10.6306
▁जॉन	-10.6307
▁फ्लोर	-10.6309
000	-10.6309
▁चन्द्र	-10.6315
▁पुलिया	-10.6318
▁टोला	-10.6321
▁कार्यकार	-10.6321
छ	-10.633
अप	-10.6333
▁दृष्टि	-10.6335
▁प्रोसेस	-10.6342
▁नाल	-10.6347
▁बचे	-10.635
▁एजेंसिय	-10.6354
▁निर्माता	-10.6355
▁यज्ञ	-10.6355
▁नष्ट	-10.6362
▁विश्वनाथ	-10.6362
▁बै	-10.6364
▁मिलना	-10.6367
▁दुकानें	-10.6372
▁चक	-10.6388
▁अनुज	-10.6399
दास	-10.64
▁सोम	-10.6406
▁गिनत	-10.6407
▁एजुकेशन	-10.6409
▁ट्रांसपोर्ट	-10.6409
▁उद्यम	-10.6409
▁नालंदा	-10.6409
▁डैम	-10.6409
ावरण	-10.641
▁बेट	-10.641
▁एएसपी	-10.641
▁डाक	-10.6411
नडे	-10.6411
▁हरीश	-10.6414
▁त्व	-10.6417
▁शि	-10.6421
▁कॉपी	-10.6425
ाक	-10.643
▁मेल	-10.6444
▁नतीजे	-10.6445
▁कमेंट	-10.6453
▁अभिन	-10.6457
श्रेष्ठ	-10.6463
▁जगन्नाथ	-10.6463
▁लॉरेंस	-10.6463
▁शौचालय	-10.6463
▁जयशंकर	-10.6463
▁अतिथियों	-10.6466
▁प्लेट	-10.6468
▁योगेश	-10.647
:00	-10.647
▁मांझी	-10.6472
▁किलोग्राम	-10.6472
संस्थापक	-10.6479
हार	-10.6494
▁पॉलिस	-10.6502
▁कामयाब	-10.6508
▁मानत	-10.6514
▁फाजिल	-10.6517
▁लेबनान	-10.6517
▁अवकाश	-10.6517
▁एसयूवी	-10.6517
▁सूचित	-10.6518
▁मी	-10.6521
▁बुझा	-10.6522
रू	-10.6525
▁ईरानी	-10.654
▁दंड	-10.6554
रेशन	-10.6557
-10	-10.6558
▁700	-10.656
▁चुने	-10.6565
▁रोशनी	-10.6569
CBI	-10.6572
▁रेवाड़ी	-10.6572
▁ध्रुव	-10.6572
▁2009	-10.6578
▁पंजाबी	-10.658
▁विवि	-10.658
▁किंग	-10.6588
▁प्लानिंग	-10.6589
▁िक	-10.6598
▁स्कूली	-10.6604
▁कारतूस	-10.6627
▁विश्वकर्मा	-10.6627
▁उजागर	-10.6627
▁कोषाध्यक्ष	-10.6627
▁प्रीमिय	-10.6627
▁लुटेर	-10.6628
स्थाई	-10.6631
▁साझेदारी	-10.6638
▁साव	-10.6642
▁अडा	-10.6644
vs	-10.6655
मध्यम	-10.6668
▁ओपन	-10.6678
टो	-10.6681
यर	-10.6681
▁CCTV	-10.6682
▁ट्वीट	-10.6682
▁दृष्टिकोण	-10.6682
▁बंसल	-10.6682
▁असिस्टेंट	-10.6682
▁फ्रांस	-10.6683
▁आईआईटी	-10.6684
▁छाया	-10.6685
▁सर्जन	-10.6685
▁बाधा	-10.6686
▁सोलर	-10.6686
▁बॉय	-10.6689
▁लीडर	-10.6689
▁वारंट	-10.6691
▁अमल	-10.6694
ंबर	-10.6694
▁दब	-10.6698
▁उतरे	-10.6708
▁मुनि	-10.6715
▁प्ले	-10.6718
▁शिकायतें	-10.6721
▁काउंसिल	-10.6732
ानी	-10.6735
▁जानलेवा	-10.6738
▁प्लॉट	-10.6738
▁बॉन्ड	-10.6738
▁दत्त	-10.6738
▁2013	-10.6738
▁कोरोना	-10.6738
▁श्रव	-10.6738
▁ज्योतिष	-10.6739
▁जॉब	-10.6739
c	-10.6743
▁पकड़कर	-10.6746
▁कल्पना	-10.6751
▁अड्ड	-10.6766
रेख	-10.6768
▁हॉक	-10.6772
ेय	-10.6776
फर	-10.6784
▁तथ्य	-10.6793
▁विधेयक	-10.6793
▁शोषण	-10.6798
ेतु	-10.6798
▁थम	-10.6807
▁एमडी	-10.682
▁पट्टी	-10.6824
▁कैप्ट	-10.6834
50	-10.6835
▁दार	-10.685
▁फट	-10.685
▁एसएचओ	-10.685
▁सर्किल	-10.685
▁Sabha	-10.685
▁राहगीर	-10.685
▁सीधी	-10.685
▁बलरामपुर	-10.6851
▁कमीशन	-10.6856
▁आत्मा	-10.6856
▁रॉयल	-10.6858
▁कुर्सी	-10.6863
▁धमका	-10.6866
तोष	-10.6872
प्राकृतिक	-10.6878
▁अग्नि	-10.6881
▁निर्देशित	-10.6885
▁बालू	-10.6888
▁लगत	-10.6893
▁परिचय	-10.6906
▁विज्ञापन	-10.6906
▁सोलंकी	-10.6906
▁सुराग	-10.6906
▁सीमित	-10.6906
▁ऑप्शन	-10.6906
▁भीलवाड़ा	-10.6906
▁शारद	-10.6906
लोहे	-10.6908
▁वैष्णव	-10.6911
नीत	-10.6913
क्स	-10.6914
▁दावे	-10.6927
▁शिकायतकर्ता	-10.6931
वारिक	-10.6936
or	-10.6942
▁नतीज	-10.6949
नेस	-10.695
▁बैठी	-10.6952
▁सतना	-10.6957
म्प	-10.696
▁उत्कृष्ट	-10.6963
▁माधोपुर	-10.6963
F	-10.6963
ाणु	-10.6964
▁बक्सर	-10.6965
▁आशु	-10.6966
▁संस्कृत	-10.6971
SO	-10.6972
▁डॉग	-10.6972
▁हद	-10.6973
▁फेज	-10.6976
▁रक्तदा	-10.698
▁1.5	-10.6985
▁रिश्ता	-10.6985
▁विराज	-10.6986
झ	-10.6987
▁गेंदबाजी	-10.699
▁दिखाकर	-10.6991
▁एम्स	-10.6995
म्बर	-10.7007
▁कठिन	-10.7019
्बुलेंस	-10.702
अमेठी	-10.702
▁धक्का	-10.702
▁सऊद	-10.702
▁मित्तल	-10.702
▁जदयू	-10.702
▁कैटेगरी	-10.702
▁एसडीओ	-10.702
▁सोसाइटी	-10.7022
▁स्पॉट	-10.7026
▁शीघ्र	-10.7027
▁चोटें	-10.7028
▁पार्वती	-10.7029
्व	-10.7032
काल	-10.7035
11	-10.7038
▁लीला	-10.7059
ल्ड	-10.7067
▁बढ़ाई	-10.7073
▁विस्त	-10.7075
▁निर्मित	-10.7078
▁वंचित	-10.7078
▁कुंभ	-10.7079
▁प्रिंस	-10.7079
▁शिवपुरी	-10.7083
ेंस	-10.7087
▁साइट	-10.7092
▁शिकायतों	-10.7093
E	-10.7096
▁स्ट्री	-10.7101
▁जेब	-10.7102
जीएसटी	-10.7113
▁तोड़ा	-10.712
▁टैंक	-10.7122
▁सुनी	-10.7125
▁लीड	-10.7125
▁वक्	-10.7126
त्व	-10.7133
▁ब्यूरो	-10.7135
▁बरकरार	-10.7135
▁मशक्कत	-10.7135
▁शातिर	-10.7135
▁उन्‍ह	-10.7135
▁जंक्शन	-10.7135
▁आवंटित	-10.7136
▁डिपार्टम	-10.7137
ज्जर	-10.7139
▁अवस्था	-10.7139
▁स्‍	-10.714
▁सर्किट	-10.7141
▁कालेज	-10.7143
▁समस्याएं	-10.7143
▁उद्ध	-10.7144
and	-10.7145
▁फाइनेंस	-10.7145
▁आपदा	-10.7146
▁गहरी	-10.7148
▁सेवक	-10.7151
मेट	-10.7152
▁सवालों	-10.7152
▁इंटरने	-10.7159
▁डाली	-10.7177
▁आंधी	-10.7193
ागमन	-10.7195
▁दुबई	-10.7195
▁जेवर	-10.7196
▁किशनगंज	-10.7196
▁2008	-10.7198
न्हीं	-10.7202
▁मेंबर	-10.7208
▁शोरूम	-10.721
मोहन	-10.721
▁अन्न	-10.7214
▁लेता	-10.7217
▁खरीदारी	-10.722
▁अकाली	-10.7228
▁दुर्	-10.7231
▁आध	-10.7233
.2	-10.7237
▁प्रा	-10.7246
ोई	-10.7246
▁रैंक	-10.7246
k	-10.7249
आरजेडी	-10.7252
▁वितरित	-10.7252
▁दीक्षित	-10.7252
▁एलान	-10.7254
▁दिलाया	-10.7259
▁कोरिया	-10.7273
भूत	-10.7274
▁ताल	-10.7276
▁कुंड	-10.7282
अर्चना	-10.7282
▁गौरी	-10.7307
▁गर्भवती	-10.7311
▁स्टॉक	-10.7311
▁दबंग	-10.7313
धिक	-10.7316
▁खबरें	-10.7325
चार	-10.7329
▁रूपए	-10.7333
▁तल	-10.7339
रामायण	-10.7339
▁नल	-10.734
▁बिछा	-10.7351
▁ऐ	-10.7356
▁पारित	-10.7357
ओपीडी	-10.7365
▁बुनियाद	-10.737
▁लड्डू	-10.737
▁सीए	-10.737
▁परफॉर्मेंस	-10.737
▁सस्पेंड	-10.737
▁92	-10.7373
▁तर्क	-10.7375
कॉम	-10.7383
▁कैमर	-10.7392
▁पिच	-10.7397
▁एसएस	-10.7411
पन	-10.7418
▁छू	-10.7421
▁फिल	-10.7428
▁चुनौतिय	-10.7429
▁अफवाह	-10.743
ंत्रित	-10.743
▁2012	-10.743
▁आवंटन	-10.743
▁खंडवा	-10.7432
▁ट्रेंड	-10.7432
▁नागर	-10.7442
▁टे	-10.7445
ुरी	-10.7462
▁बगल	-10.7462
धर	-10.7464
▁जु	-10.7465
▁बाज	-10.7468
रोवर	-10.7468
्न	-10.7475
▁निर्भर	-10.7483
▁रखता	-10.7488
▁साहित्य	-10.7488
▁अंतरिक्ष	-10.7489
▁काउंसलिंग	-10.7489
▁अपलोड	-10.7489
▁मिठाई	-10.749
▁शॉप	-10.749
▁वास्तविक	-10.7492
▁लगवा	-10.7496
▁दोषियों	-10.7496
ूर	-10.7499
▁ससुर	-10.7502
500	-10.7502
▁77	-10.7508
▁रहमान	-10.7511
▁सेवन	-10.7515
▁AAP	-10.7515
▁महल	-10.7516
▁पान	-10.7522
▁विद्यालयों	-10.7528
▁जनजाति	-10.753
नाड	-10.7531
▁नेहा	-10.7532
हट	-10.7545
न्त	-10.7546
▁मूव	-10.7546
▁बढ़ाकर	-10.7547
▁लौटे	-10.7547
▁भिलाई	-10.755
▁अभ्यास	-10.755
▁सूरत	-10.7551
▁शाला	-10.7554
वान	-10.7555
▁हेल	-10.7555
▁झील	-10.7558
ेन्यू	-10.7565
▁95	-10.7568
▁दाल	-10.757
▁कुचल	-10.7578
▁बेटिय	-10.7581
▁आरा	-10.7583
▁सेंट	-10.7589
▁दलाल	-10.7597
▁आकर्ष	-10.7603
▁गाना	-10.7607
▁जूझ	-10.761
▁गृहमंत्री	-10.7611
▁अनिय	-10.7611
▁ड़ी	-10.7616
▁आलिया	-10.7616
▁सजाया	-10.762
▁बोलीं	-10.762
▁प्रतिबंधित	-10.7621
़ी	-10.7629
▁चर्च	-10.763
ाली	-10.7643
मान्य	-10.7647
▁बोलते	-10.7647
▁हीरा	-10.7649
▁योग्य	-10.7668
▁उपमुख्यमंत्री	-10.7671
▁हल्के	-10.7671
▁08	-10.7672
गल	-10.7675
▁स्टील	-10.7675
▁क्रॉस	-10.7675
ोत्तर	-10.7676
H	-10.7677
▁बैक	-10.7685
▁लॉक	-10.7687
▁चतुर्थी	-10.7694
्ता	-10.7695
▁ाय	-10.7695
▁देवास	-10.7714
▁स्वीकृत	-10.7727
▁बराबर	-10.7729
▁Election	-10.7731
ंजिश	-10.7732
▁रंजीत	-10.7733
▁सॉफ्ट	-10.7733
▁मुरैना	-10.7733
▁टोंक	-10.7733
▁कंप्यूटर	-10.7733
▁दमकल	-10.7733
▁गेस्ट	-10.7734
▁गोवा	-10.7735
▁दशहरा	-10.7742
▁सरदार	-10.7746
ाचल	-10.7747
▁सिद्ध	-10.7749
▁ढेर	-10.7749
▁प्रिंट	-10.7749
▁अग्र	-10.7752
▁चयनित	-10.7756
▁ट्रेनें	-10.7757
▁रोड़	-10.7759
▁पुरुषों	-10.776
.50	-10.7764
पहिया	-10.7767
ियत	-10.7768
▁दि	-10.7772
▁जाल	-10.7777
▁निर्यात	-10.7784
▁कामना	-10.7786
सत्यापन	-10.7788
▁साइन	-10.779
▁हु	-10.779
▁ऋषभ	-10.7793
▁थप्पड़	-10.7794
▁सक्सेना	-10.7794
▁सम्राट	-10.7794
▁जमुई	-10.7794
▁मालवीय	-10.7794
▁वंदे	-10.7794
▁गंवा	-10.7794
▁रिंकू	-10.7795
▁चक्र	-10.7796
▁छात्रावास	-10.7797
▁मिलियन	-10.7806
▁साधक	-10.7807
चित्तौड़गढ़	-10.7809
▁ढूंढ	-10.7814
▁लिफ्ट	-10.7814
▁सुधी	-10.7816
ुक	-10.782
▁मौर्य	-10.7822
पत्नी	-10.7826
▁अंशु	-10.7829
▁पिछड़ा	-10.7832
कू	-10.7833
▁दक्षिणी	-10.7834
▁चेतन	-10.7842
▁ग्रेड	-10.7843
सू	-10.7843
▁बैनर	-10.7847
▁आराम	-10.7856
▁शेड्यूल	-10.7856
▁हिम्मत	-10.7856
▁कठोर	-10.7856
▁यूट्यूब	-10.7856
▁हुड्	-10.7856
▁डोनाल्	-10.7857
▁देहात	-10.7857
▁भिंड	-10.7861
तः	-10.7862
▁समर	-10.787
▁RE	-10.7874
▁टंकी	-10.7877
▁पिछड़	-10.7883
▁हिमांश	-10.7886
AD	-10.7887
्ज	-10.7893
▁निकाय	-10.7901
▁Ka	-10.7909
▁लेती	-10.791
▁ओपी	-10.7911
▁नोडल	-10.7919
▁ढांच	-10.7919
▁अर्थ	-10.7919
▁कारावास	-10.792
▁पदस्थ	-10.792
▁सच्चाई	-10.792
▁आभूषण	-10.7922
▁प्रीति	-10.7928
जू	-10.7934
ाऊ	-10.7937
NDA	-10.7939
▁शोक	-10.7951
बरेली	-10.7952
पढ़ें	-10.7952
▁73	-10.7956
d	-10.7961
▁घबरा	-10.7962
▁कोड	-10.7964
▁SP	-10.7965
▁नक्सली	-10.7966
त्मक	-10.7971
वादी	-10.7973
-24	-10.7978
▁अंज	-10.7981
▁वासी	-10.7981
▁झलक	-10.7982
▁अमावस्या	-10.7982
▁सेंसेक्स	-10.7982
▁परिचित	-10.7982
▁अनुमंडल	-10.7982
▁शेखावत	-10.7983
▁गणपति	-10.7984
▁रणजीत	-10.7989
ॉय	-10.7993
▁आर्यन	-10.8001
▁हेम	-10.8004
▁W	-10.8004
mi	-10.8004
▁गु	-10.8008
▁बिज	-10.8009
▁ब्लू	-10.801
टिव	-10.802
▁पाव	-10.8021
▁मीरा	-10.8022
िज	-10.8023
▁आरोपित	-10.803
▁दर्शात	-10.8035
▁वेरिएंट	-10.8045
▁आईजी	-10.8047
▁जहरील	-10.8048
▁आरके	-10.8049
▁आनन	-10.8049
▁भोले	-10.8051
ॅ	-10.8054
देन	-10.8059
शाली	-10.8059
▁चेयर	-10.8062
▁बैड	-10.8063
p	-10.8064
▁तंत्र	-10.8064
▁झुलस	-10.807
▁बलिया	-10.807
िक्स	-10.8071
▁छिप	-10.8079
भाषा	-10.8083
▁माद	-10.809
▁गहने	-10.8092
▁उपलब्धि	-10.8097
▁मिलन	-10.8104
दी	-10.8106
▁निरंतर	-10.8109
▁प्रकृति	-10.8109
▁प्लेटफार्म	-10.8109
राधिका	-10.8109
▁टैग	-10.8111
▁अखाड़	-10.8111
▁डिफें	-10.8115
▁हायर	-10.8117
▁बसंत	-10.8124
कैंपस	-10.8124
ढ़	-10.8126
▁सीवर	-10.8137
▁मै	-10.8148
▁बरत	-10.8149
on	-10.8152
▁फोर	-10.8157
▁सहकार	-10.8158
▁सर्वेक्षण	-10.8173
▁स्रोत	-10.8173
▁मुराद	-10.8173
▁हेक्टेय	-10.8173
▁धोखा	-10.8173
एसीबी	-10.8173
फानन	-10.8174
▁बुलडोजर	-10.8174
▁रत्न	-10.8174
▁बिंदु	-10.8175
▁ेगी	-10.8178
▁निंदा	-10.8178
प्रतिनिधियों	-10.818
▁सिंगर	-10.8181
▁सोचा	-10.8182
एच	-10.8185
▁राजेन्द्र	-10.8189
▁जिम	-10.8206
▁शोभा	-10.8216
▁74	-10.8229
▁उमर	-10.823
▁न्यायमूर्ति	-10.8237
▁प्राइम	-10.8237
▁मयंक	-10.8238
▁हज़ार	-10.8238
▁गंदगी	-10.8238
▁यंत्र	-10.824
▁पासपोर्ट	-10.824
एन	-10.8241
▁समाजसेवी	-10.8242
न्द्र	-10.8243
▁महासभा	-10.8245
▁शीतल	-10.8247
▁चिल्ला	-10.8248
िकल	-10.8249
▁बचाया	-10.8249
▁चलाते	-10.8254
र्म	-10.8254
▁लोकल	-10.8263
▁दीं	-10.8265
पत्र	-10.8274
तन	-10.8277
त्	-10.8279
दियों	-10.8281
्रेशर	-10.8298
▁उत्पन्न	-10.8302
▁पथराव	-10.8302
▁वेब	-10.8303
▁डिवाइस	-10.8303
▁मस्क	-10.8303
▁अग्निवीर	-10.8304
▁जड़	-10.8304
▁विदाई	-10.8304
▁सलाहकार	-10.8304
▁तंज	-10.8305
▁पहलवान	-10.8306
▁अलीगढ़	-10.8307
▁इनाम	-10.831
▁जातक	-10.8311
रित	-10.8316
▁लालच	-10.8317
▁पश्चात	-10.8319
▁वैन	-10.8324
ुर	-10.8324
▁औरंगाबाद	-10.8334
▁सवा	-10.8335
▁क्‍य	-10.8337
मात्र	-10.8341
▁पापा	-10.8345
फा	-10.8348
▁अगुवा	-10.8353
▁वसूल	-10.836
फ़ी	-10.8361
▁आवाजाही	-10.8368
▁जोखिम	-10.8368
▁दरोगा	-10.8368
▁विजयवर्गीय	-10.8368
▁रिकार्ड	-10.8368
▁जीआरपी	-10.8368
▁नकद	-10.8369
▁भगव	-10.8369
▁India	-10.8383
47	-10.8383
▁कमाल	-10.8388
▁दर्जा	-10.8393
▁पुष्पा	-10.8397
▁लिखे	-10.8405
▁लेख	-10.842
▁सालाना	-10.8422
▁जियो	-10.8427
▁रॉय	-10.8427
-19	-10.8433
▁अविनाश	-10.8433
▁निषाद	-10.8433
▁पाठ्यक्रम	-10.8433
▁पेज	-10.8434
▁क़रीब	-10.8434
▁प्रसन्न	-10.8435
▁डायल	-10.8435
▁प्रजापति	-10.8437
▁रोष	-10.8437
▁फास्ट	-10.8439
▁बनेंगे	-10.8441
▁क्लिक	-10.8441
hi	-10.8443
▁350	-10.8446
▁टीका	-10.8451
▁कस	-10.8458
▁भड़क	-10.846
▁नारा	-10.8461
▁मणि	-10.8464
▁मुताबिक़	-10.8467
▁चुप	-10.8473
निकासी	-10.8474
गरबा	-10.8479
▁ठ	-10.8488
ंगी	-10.8492
▁प्रोडक्श	-10.8493
▁रिटायर	-10.8498
▁सरगुजा	-10.85
▁सर्वाधिक	-10.85
▁सिद्दीकी	-10.85
▁फेस्टिव	-10.85
▁सैलरी	-10.85
▁पारस	-10.8501
▁शूट	-10.8504
▁अवतार	-10.8507
▁आक्रोशित	-10.851
▁नील	-10.8513
▁0	-10.8516
▁पिंक	-10.8518
▁रिक्त	-10.8519
‍	-10.852
▁व्ह	-10.8522
▁63	-10.8526
ाया	-10.853
▁रनों	-10.8545
फ्टी	-10.8552
▁सैफ	-10.8556
▁एव	-10.8559
▁ंगी	-10.8561
▁शरीफ	-10.8565
▁लंदन	-10.8566
▁वाल्मीक	-10.8566
▁हिंदुस्तान	-10.8566
▁इलाका	-10.8566
▁कुएं	-10.857
▁वस्त्र	-10.8573
▁जींद	-10.8575
▁झांकी	-10.8596
ाचार्य	-10.8599
▁पोषण	-10.8601
▁कुशल	-10.8606
न्य	-10.8612
▁मल्टी	-10.8629
डिंग	-10.8631
▁अभिनेत्री	-10.8633
▁भार्गव	-10.8633
▁सिल्वर	-10.8635
▁नमाज	-10.8637
▁स्वतंत्र	-10.8641
▁टूटा	-10.8642
▁370	-10.8642
▁फिरोज	-10.8647
▁फूट	-10.8649
▁क्वार्टर	-10.8652
▁ब्रिट	-10.8652
▁आदत	-10.8654
▁तकरी	-10.8663
-8	-10.8665
▁हैंडल	-10.8669
▁पहने	-10.8671
▁बसें	-10.8672
ोत्सव	-10.8673
▁अव	-10.8675
▁....	-10.8678
ऊ	-10.8696
▁सिया	-10.8696
▁चलाए	-10.87
▁भूख	-10.8701
▁झामुमो	-10.8701
▁बुमराह	-10.8701
▁सिफारिश	-10.8701
▁खिताब	-10.8701
▁नवादा	-10.8701
▁कामकाज	-10.8702
▁प्रभात	-10.8703
▁मिलीमीटर	-10.8704
▁गरज	-10.8704
▁मछली	-10.8705
▁सिंध	-10.8714
▁उतन	-10.8715
▁वंदना	-10.8719
▁ईस्ट	-10.8721
▁धारण	-10.8724
▁फेस	-10.873
▁विंग	-10.873
▁AI	-10.8734
लेखक	-10.8745
शील	-10.8751
▁याचिकाकर्ता	-10.8755
▁निदेश	-10.876
▁इकलौत	-10.8769
▁फोगाट	-10.8769
▁किराया	-10.8769
▁सेक्रेटरी	-10.8769
▁निखिल	-10.877
▁भीम	-10.8772
▁बवाल	-10.8776
▁रुचि	-10.8777
▁कीर्तन	-10.8778
▁वॉक	-10.8781
▁पालक	-10.8786
▁नाला	-10.88
▁दयाल	-10.8801
▁खोले	-10.8804
कुल	-10.8806
▁घटा	-10.8815
▁दीन	-10.8816
क्या	-10.8829
ेगा	-10.883
▁कर्तव्य	-10.8838
▁थिएटर	-10.8838
▁लघु	-10.8838
▁श्रीगंगानगर	-10.8838
▁अत्याचार	-10.8838
▁हैरिस	-10.8838
▁इन्हीं	-10.8838
▁मेकर्स	-10.8839
▁निया	-10.884
▁आकर्षण	-10.8841
GB	-10.8845
▁हेत	-10.8847
▁बायो	-10.8849
▁शूटर	-10.885
▁सेहत	-10.8851
▁आर्म	-10.8854
चन	-10.8854
लिए	-10.8856
▁बनती	-10.886
▁गणना	-10.8874
ंगल	-10.8883
सागर	-10.8884
सफाई	-10.8885
▁भोज	-10.8886
▁वाई	-10.8887
ॉन	-10.8888
▁गुड	-10.8895
▁मजबूती	-10.8897
िमंडल	-10.8898
▁गे	-10.8899
▁71	-10.8902
▁ऋण	-10.8906
▁एनकाउंटर	-10.8906
▁क़ानून	-10.8906
▁चूंकि	-10.8906
▁प्रैक्टिस	-10.8906
▁सत्संग	-10.8906
▁Khan	-10.8907
▁फेसबुक	-10.8907
सीएचसी	-10.8907
-2024	-10.8907
▁ट्रांस	-10.8907
▁तलवार	-10.8907
शा	-10.8908
▁सरस	-10.8908
▁सुनाया	-10.8912
▁कोठी	-10.8913
▁रचना	-10.8915
▁नॉन	-10.8918
▁बट	-10.8923
▁रामपुर	-10.8924
▁करवाकर	-10.893
▁बिंद	-10.8939
▁इत	-10.894
लेट	-10.8951
▁प्रज्वल	-10.8962
तीत	-10.8974
▁जोड़कर	-10.8976
▁राजमार्ग	-10.8976
▁सर्वोच्च	-10.8976
▁आयुर्वेद	-10.8976
▁ईमानदार	-10.8976
▁शौक	-10.8976
▁पुतिन	-10.8976
▁क्रमांक	-10.8977
▁जेवरात	-10.8977
▁सरोज	-10.8977
▁ऑडियो	-10.8977
▁एसओ	-10.8979
▁लड़कियां	-10.8979
▁गतिविधि	-10.898
▁डंपर	-10.8981
▁बंधन	-10.8982
▁करूंगा	-10.899
▁व्हील	-10.8991
▁बहरा	-10.8994
▁डील	-10.8997
▁बंटवार	-10.9011
▁भंग	-10.9017
गलौज	-10.9023
▁पढ़ा	-10.9037
▁रमन	-10.9039
▁निकाले	-10.9043
▁96	-10.9044
▁लता	-10.9046
▁सिसोदिया	-10.9046
▁नर्मदापुरम	-10.9046
▁जायेगा	-10.9046
▁बंदूक	-10.9046
▁गोवंश	-10.9046
▁निशुल्क	-10.9046
प्रदर्शनकारियों	-10.9047
▁जोड़े	-10.9051
▁साधन	-10.9056
▁अजित	-10.9058
▁डेरा	-10.9065
घाट	-10.9067
ठा	-10.9067
▁सनी	-10.9069
▁स्त्री	-10.9074
▁क्रू	-10.9074
घ	-10.9087
▁बाजी	-10.9089
▁अधिग्रह	-10.9089
्दे	-10.9093
▁गी	-10.9106
▁मऊ	-10.911
जाने	-10.9113
कड़े	-10.9114
▁खनिज	-10.9116
▁जन्माष्टमी	-10.9116
▁फिसल	-10.9116
▁जॉइन	-10.9117
▁शिक्षिका	-10.9117
▁बुलेट	-10.9117
▁नींद	-10.9118
▁खीर	-10.9121
▁समझाया	-10.9122
टेनेंस	-10.9123
▁कमा	-10.9127
▁88	-10.9128
▁विवाहिता	-10.9131
▁पलव	-10.9131
▁दादी	-10.9133
ंडी	-10.9134
▁81	-10.9138
▁बनारस	-10.914
▁एमएल	-10.9142
नानक	-10.9146
ेरा	-10.9148
▁फैन	-10.9156
▁नायड	-10.9157
▁बीमारिय	-10.9157
र्ग	-10.9159
▁अंग्रेज	-10.9162
▁मीन	-10.9165
ुअल	-10.9168
क्षेप	-10.917
ंच	-10.9172
आम	-10.9176
▁कटिहार	-10.9187
▁जलभराव	-10.9187
▁भारद्वाज	-10.9187
▁सेमीफाइनल	-10.9187
▁सौभाग्य	-10.9187
▁शिशु	-10.9187
▁गोस्वामी	-10.9187
▁डिब्ब	-10.9187
▁जमशेदपुर	-10.9188
▁डाले	-10.9188
▁फौज	-10.9192
▁रहवास	-10.9195
▁भगा	-10.9197
▁आदिवास	-10.9201
▁स्ट्राइक	-10.9204
▁म्यूजिक	-10.9216
हत	-10.922
ch	-10.9226
स्थान	-10.9233
▁ऑफ़	-10.9233
am	-10.9244
▁उड़ा	-10.9252
राना	-10.9253
▁डीज	-10.9257
▁IAS	-10.9259
▁वाजपेयी	-10.9259
▁इलाहाबाद	-10.9259
▁सलीम	-10.9259
▁पैलेस	-10.9259
▁गूंज	-10.9259
▁हृदय	-10.9259
▁वीजा	-10.926
▁तन	-10.9262
▁डिस्प्ले	-10.9262
▁डेवलपमेंट	-10.9263
रक्षित	-10.9267
▁बास	-10.9269
्वालिटी	-10.9274
▁अनीत	-10.9274
▁तरीका	-10.9276
▁सहारा	-10.9279
.0	-10.9284
▁राजगढ़	-10.9286
ed	-10.9291
▁बच्चिय	-10.9292
▁डीह	-10.9294
▁छत्र	-10.9296
▁राजन	-10.9297
▁रामगढ़	-10.9298
गीर	-10.9311
दोष	-10.9311
वृत्ति	-10.9312
▁सीपी	-10.9316
ँ	-10.9318
▁बचत	-10.9321
▁ऑपरेटर	-10.9324
▁रीजन	-10.9324
▁ट्रांसफार्मर	-10.9331
▁इशारा	-10.9331
▁रनौत	-10.9332
▁अनुदान	-10.9332
▁लगाएं	-10.9334
▁चिह्नित	-10.9334
▁घेराव	-10.9334
▁अस	-10.9335
▁झंडा	-10.9336
▁पठान	-10.9336
▁हवाएं	-10.9337
▁पुण्य	-10.9337
▁कन	-10.9342
तेश	-10.9348
▁टोक	-10.9355
▁ईद	-10.9358
हारी	-10.9361
▁लाना	-10.9362
बाग	-10.9366
▁डीए	-10.9381
▁a	-10.9386
र्ट	-10.9394
▁अभाव	-10.9398
▁एनएच	-10.9399
▁लात	-10.94
W	-10.94
ार्टमेंट	-10.9402
▁आवेदक	-10.9403
▁तत्वावधान	-10.9403
▁सिलसिले	-10.9403
▁पंचांग	-10.9403
▁भेदभाव	-10.9403
▁जेडीयू	-10.9403
▁सुपरस्टार	-10.9403
▁प्रदर्शित	-10.9403
▁शाहिद	-10.9403
▁घोटाला	-10.9405
▁अमीर	-10.9409
▁झगड़े	-10.9411
it	-10.9412
▁व्यस्त	-10.9414
▁शवों	-10.9416
▁एमएस	-10.9417
▁नागपुर	-10.9417
▁मुंडा	-10.942
▁मालवा	-10.9422
एफ	-10.9429
▁मद	-10.943
लेन	-10.943
na	-10.9432
▁चौ	-10.944
▁खां	-10.9444
सामने	-10.9456
समय	-10.9461
दर	-10.9463
्टर	-10.9467
ाद	-10.9467
▁टि	-10.9469
▁द्व	-10.947
▁नर्मदा	-10.9476
▁पौधारोपण	-10.9476
▁आंगनबाड़ी	-10.9476
▁इलेक्शन	-10.9476
▁समाचार	-10.9476
▁निस्तारण	-10.9476
▁तत्वों	-10.9477
▁एसीपी	-10.9478
▁जनप्रतिनिधियों	-10.9479
▁प्रताड़ित	-10.9479
▁हाइवे	-10.9489
लायन	-10.9491
▁मियां	-10.9495
▁जता	-10.9501
▁वर्कर	-10.9504
दम	-10.9508
▁सिकंदर	-10.9509
▁कबूल	-10.9515
बू	-10.9523
▁पटाख	-10.9527
▁टॉस	-10.953
;	-10.953
▁्ड	-10.9536
▁82	-10.954
▁इलेक्ट्रॉनिक	-10.9542
▁टिक	-10.9543
▁स्वात	-10.9549
▁खिड़क	-10.955
▁प्रौद्योगिक	-10.955
▁बैतूल	-10.955
▁बिट्टू	-10.955
▁कागजात	-10.955
▁प्लाजा	-10.955
▁मॉनिटरिंग	-10.955
▁मुहै	-10.9551
▁दीक्षा	-10.9551
▁दानापुर	-10.9552
▁साड़ी	-10.9554
▁स्पेस	-10.9559
▁जावेद	-10.9562
ृ	-10.9563
▁संभाला	-10.9564
इन	-10.9566
▁धो	-10.9566
▁महंगा	-10.9569
▁कट्टा	-10.957
▁रिंग	-10.9571
मार	-10.9571
हरा	-10.9581
फैशन	-10.9583
कॉमर्स	-10.9583
▁कोयला	-10.9585
▁कस्ब	-10.9585
आवासीय	-10.9585
U	-10.9591
▁परेड	-10.9598
▁पौ	-10.9601
▁पन	-10.9605
भद्र	-10.9608
▁जेट	-10.9609
नू	-10.9614
la	-10.9618
▁61	-10.9621
▁कोट	-10.9623
▁इजाफा	-10.9624
▁बर्दाश्	-10.9624
▁वैभव	-10.9624
▁सीएमएचओ	-10.9624
▁महिंद्रा	-10.9624
▁समीकरण	-10.9625
▁मेहमान	-10.9625
▁गायक	-10.9625
▁प्रतापगढ़	-10.9629
▁मूंग	-10.963
▁कपड़	-10.9631
▁बटाल	-10.9632
▁आगमन	-10.9633
▁चार्जिंग	-10.9634
▁दूसर	-10.9635
ग्न	-10.9639
▁खाड़	-10.9643
▁पदार्थों	-10.9645
▁वर्द	-10.9648
v	-10.9652
▁कप्तानी	-10.9653
▁एग्जि	-10.9656
्क	-10.9658
मर	-10.9658
झुंझुनूं	-10.9667
▁ग्रे	-10.9669
▁रच	-10.9674
▁125	-10.9676
ुद्दीन	-10.9676
▁ढाब	-10.9676
▁नूर	-10.9682
▁बाबर	-10.9683
▁कबीर	-10.9687
▁उठे	-10.9688
▁79	-10.9693
▁ट्र	-10.9697
बठिंडा	-10.9698
▁चचेर	-10.9698
▁दायित्व	-10.9698
▁फुटबॉल	-10.9698
▁भैंस	-10.9698
मूल	-10.9699
रामलीला	-10.9699
▁बेल्ट	-10.9699
▁पैकेज	-10.97
▁निर्माणाधीन	-10.97
▁रखेंगे	-10.9701
▁परिचालन	-10.9701
▁बैटिंग	-10.9701
▁आमंत्रित	-10.9701
▁अवधेश	-10.9703
▁आकर्षित	-10.9707
▁कोहरा	-10.9708
▁पटरी	-10.9711
▁दादरी	-10.9714
▁दीदी	-10.9721
तीन	-10.9723
▁ंगे	-10.9724
▁कृति	-10.9725
▁घन	-10.974
टेक	-10.9746
▁सीसी	-10.9747
फ़	-10.9747
▁दस्त	-10.9747
▁हीरो	-10.9748
▁जानता	-10.9749
▁उपज	-10.976
▁ऑफि	-10.9761
▁गवर्न	-10.9762
▁निर्वाच	-10.9763
▁गुस्स	-10.9765
▁सतर्क	-10.9766
▁कन्हैया	-10.9771
▁विवरण	-10.9773
▁फरियाद	-10.9774
▁Day	-10.9774
▁सिद्धांत	-10.9774
▁दांव	-10.9775
▁ठिकान	-10.9775
▁लाभार्थ	-10.9775
▁सीताराम	-10.9776
▁गतिविधियां	-10.9777
▁दुश्मन	-10.9784
▁वां	-10.9791
ेबल	-10.9802
17	-10.9811
▁समृद्धि	-10.9812
▁मिड	-10.9813
▁पैन	-10.9814
▁ऑय	-10.9817
▁रील	-10.9817
▁खुली	-10.9822
डीह	-10.9823
▁दृश्य	-10.9824
▁सम्	-10.984
िर	-10.9845
वाइस	-10.9847
▁द्विवेदी	-10.9849
▁ग़ज़	-10.9849
▁ब्लास्ट	-10.9849
▁कोविड	-10.9849
▁Pro	-10.985
▁पैसेंजर	-10.985
▁एसडीपीओ	-10.985
▁विचारधारा	-10.985
▁कार्मिक	-10.985
▁माहेश्वरी	-10.985
▁आयोजक	-10.985
▁बलात्कार	-10.985
▁बूंद	-10.985
▁84	-10.9853
▁पाएगा	-10.9853
▁सोसायटी	-10.9853
▁राज्यमंत्री	-10.9854
▁प्रदेशाध्यक्ष	-10.9856
▁शॉट	-10.9858
▁त्याग	-10.9861
सन	-10.9861
▁एकेडम	-10.9862
▁राइट	-10.9866
▁पौधों	-10.9869
▁कं	-10.9873
्‍य	-10.9876
▁जम	-10.9877
▁देवर	-10.9881
▁गोला	-10.9884
▁कलां	-10.9884
रूम	-10.9888
▁लिहाज	-10.9891
▁हेमा	-10.9897
▁संचार	-10.9898
▁दंग	-10.99
▁प्रिया	-10.9901
▁इरफ	-10.9903
दयाल	-10.9909
वल	-10.9911
▁पट	-10.9918
▁गुड़	-10.9918
नो	-10.9919
▁बाड़ी	-10.9921
▁सेवानिवृत्त	-10.9925
▁पाटीदार	-10.9926
▁बौद्ध	-10.9926
▁ख्याल	-10.9926
▁मेघवाल	-10.9926
ादित्य	-10.9926
▁बढ़ेगी	-10.9929
▁आलू	-10.9932
-6	-10.9937
▁बुलाई	-10.9941
▁बॉस	-10.9945
र्	-10.9946
▁यूनि	-10.9948
▁ढोल	-10.9949
▁निर्देशक	-10.995
धीर	-10.9959
▁प्रिय	-10.996
बड़े	-10.9963
▁ओला	-10.9965
▁कपड़ा	-10.9966
▁तुम्हार	-10.9967
2010	-10.9974
▁ब्र	-10.9975
▁बेरोजगारी	-10.9975
्थ	-10.9978
▁नशील	-10.9981
▁होश	-10.9984
▁मंजू	-10.9987
▁कैप	-10.9991
▁गुण	-10.9993
▁गैंगरेप	-11.0002
▁दिग्विजय	-11.0002
▁ध्वस्त	-11.0002
▁बुखार	-11.0003
▁नौसेना	-11.0003
▁गाइड	-11.0003
▁चालीस	-11.0004
▁दोगुन	-11.0005
▁रजनी	-11.0006
▁पीडब्ल्यूडी	-11.0007
▁धूल	-11.0009
▁तिमाह	-11.001
▁पहुंचेंगे	-11.0011
▁c	-11.0011
ैल	-11.0012
▁डो	-11.0013
▁बनेगी	-11.0013
▁प्रसंग	-11.0014
ारा	-11.0015
▁महानगर	-11.0018
सु	-11.0018
▁जया	-11.0025
▁ग्रह	-11.0026
▁पाता	-11.0028
हरी	-11.0029
▁पहना	-11.0032
▁पैरा	-11.0032
ही	-11.0032
▁द्वीप	-11.0039
▁भरकर	-11.0044
▁बढ़े	-11.0045
▁कंध	-11.0049
▁नीतिय	-11.0054
▁सीरिया	-11.0065
▁बैज	-11.0076
▁नीलम	-11.0078
▁सशक्त	-11.008
▁शिनाख्त	-11.008
▁भरोसे	-11.008
▁आपातकाल	-11.008
▁मैरिज	-11.008
▁नड्डा	-11.0082
▁पंजीयन	-11.0083
▁काउंटर	-11.0085
▁सचिवालय	-11.0085
▁फतेहपुर	-11.0087
▁नीम	-11.0089
संपूर्ण	-11.0089
▁साई	-11.0091
▁-1	-11.0095
जब	-11.0098
▁तू	-11.0103
▁नहाने	-11.0103
▁बिर	-11.0115
▁निकलकर	-11.0119
एडीएम	-11.0121
▁बैन	-11.0125
ंबल	-11.0131
▁97	-11.0132
▁450	-11.0133
▁साधना	-11.0134
▁नतीजा	-11.0139
एक्स	-11.0142
त्र	-11.0147
▁हीट	-11.0149
▁गायन	-11.0151
▁सीएस	-11.0152
▁माली	-11.0152
▁रवींद्र	-11.0157
▁कॉरिडोर	-11.0158
▁घनश्याम	-11.0158
▁पुरोहित	-11.0158
▁वेस्टइंडीज	-11.0158
▁वॉट्सऐप	-11.0158
▁पार्टनर	-11.0158
▁पटियाला	-11.0158
▁प्रधानाचार्य	-11.016
▁प्रकट	-11.016
▁आैर	-11.0162
▁धोनी	-11.0163
▁खंगाल	-11.0163
▁ठेका	-11.0165
▁सीमेंट	-11.0173
rat	-11.0175
गन	-11.0176
▁पीसी	-11.0178
▁खाई	-11.018
▁बंध	-11.0184
▁एकत्र	-11.0185
▁प्लस	-11.0187
▁रेव	-11.0189
▁वृद्ध	-11.0194
▁प्रसार	-11.0197
▁98	-11.0198
▁83	-11.0199
▁सैमस	-11.0199
आईपीएस	-11.0201
▁चि	-11.0205
▁समा	-11.0216
▁बेन	-11.0219
गणना	-11.0224
▁वै	-11.0236
▁कॉलोनिय	-11.0237
▁पारदर्श	-11.0237
▁सितम्बर	-11.0237
▁चार्जशीट	-11.0237
▁पीयूष	-11.0237
▁हेल्पलाइन	-11.0237
▁पर्ची	-11.0237
▁सोनाक्षी	-11.0237
▁धौलपुर	-11.0237
▁समीर	-11.0237
▁रिलायंस	-11.0237
▁सिनेमाघर	-11.0238
▁हवन	-11.0244
▁900	-11.0245
▁मजाक	-11.0248
▁मॉल	-11.0248
▁सराय	-11.0248
.3	-11.0249
ियल	-11.0257
▁निचले	-11.0257
▁योजनाएं	-11.0261
▁उड़ाने	-11.0261
▁...'	-11.0265
▁टो	-11.0283
▁टु	-11.029
▁नेत्र	-11.0294
▁नाक	-11.0301
▁उभर	-11.0306
▁ची	-11.0312
▁कचर	-11.0313
त्रित	-11.0315
▁अख्तर	-11.0316
▁खोजबीन	-11.0316
▁प्रतिष्ठित	-11.0316
▁प्रमोशन	-11.0316
▁प्रवर्तन	-11.0316
▁मिथुन	-11.0316
▁मेजबान	-11.0316
▁संविदा	-11.0316
▁हेरोइन	-11.0316
▁ग्रंथ	-11.0316
▁पिस्तौल	-11.0316
Phone	-11.0316
▁कालोनी	-11.0316
▁फेडरेशन	-11.0317
▁पाटिल	-11.0317
▁रिलेशन	-11.0317
▁शिक्षण	-11.0317
▁भैया	-11.0318
▁कुरु	-11.0319
▁गर्दन	-11.0319
▁सकेगी	-11.0322
▁चरित	-11.0324
▁श्वेता	-11.0325
▁गाज	-11.0325
▁फर	-11.033
पिन	-11.033
▁केयर	-11.0331
▁खेड़ी	-11.0335
▁सिद्धि	-11.0337
▁पॉ	-11.0343
▁नाना	-11.0352
▁चारा	-11.0353
▁तत्व	-11.0355
▁फेर	-11.0378
तोड़	-11.0385
▁कवि	-11.0388
▁निशा	-11.0395
▁साप्ताहिक	-11.0396
▁सीतामढ़ी	-11.0396
▁फ्रॉड	-11.0397
▁अंबिकापुर	-11.0397
▁वृंदावन	-11.04
▁सिद्धू	-11.0401
▁1500	-11.0403
▁माया	-11.0411
▁दिलचस्प	-11.0412
▁मुख्त	-11.0414
▁सीज	-11.0417
▁मिनी	-11.0428
▁110	-11.043
नि	-11.0432
ra	-11.0444
▁सीने	-11.0448
▁नगरी	-11.045
▁उमा	-11.045
▁आयकर	-11.0454
▁हैंड	-11.046
चार्ज	-11.0465
▁डिपो	-11.0465
▁बची	-11.0467
▁साहि	-11.0474
▁जडेजा	-11.0477
▁विक्रेता	-11.0477
▁संदर्भ	-11.0477
▁नोटिफिकेशन	-11.0477
▁श्रृंगार	-11.0477
▁बाइडन	-11.0477
▁स्टॉल	-11.0477
▁जालोर	-11.0477
▁कोरबा	-11.0478
▁शिवलिंग	-11.0478
▁खदान	-11.0478
▁तर्ज	-11.0478
▁अधिसूचना	-11.0479
▁टायर	-11.0479
शुद	-11.0479
▁लैस	-11.0481
▁दिव्या	-11.0482
▁गजेंद्र	-11.0482
▁जाटव	-11.0483
▁मूल्यांकन	-11.0484
ौरा	-11.0486
ंद्रा	-11.0497
जीविका	-11.0497
▁गणित	-11.0499
▁तूफान	-11.0499
िय	-11.0507
▁चौथा	-11.0511
▁छाप	-11.0514
▁पेन	-11.0515
▁भूत	-11.052
लपुर	-11.0522
▁तु	-11.0526
▁पीएस	-11.053
▁94	-11.0538
रुण	-11.0541
▁नियंत्र	-11.0547
f	-11.0547
▁ेश	-11.055
▁फीचर	-11.0551
▁गम	-11.0557
▁शेट्टी	-11.0558
▁इकबाल	-11.0558
▁समग्र	-11.0558
▁खुर्द	-11.0559
▁लक्षण	-11.0559
▁रखवाया	-11.056
▁किस्मत	-11.056
▁क्र	-11.0561
▁हांसी	-11.0562
धार	-11.0562
▁प्रतिबद्धता	-11.0564
पोल	-11.0565
ंदा	-11.0567
▁नमक	-11.057
▁डाय	-11.057
▁जात	-11.057
▁मनोरंज	-11.0576
▁सीएमओ	-11.0576
▁स्ट	-11.058
▁खेम	-11.0583
▁संग्रह	-11.0587
मिंग	-11.0598
ंगत	-11.06
▁काटा	-11.0614
ेटिव	-11.0615
▁रस	-11.0622
▁विस्फोट	-11.063
ya	-11.0631
▁स्थिर	-11.0632
▁प्रोडक्ट	-11.0633
▁चिन्ह	-11.0634
ैक्ट	-11.0639
▁उछाल	-11.064
▁स्मारक	-11.064
▁अध्यापक	-11.064
▁उपलक्ष्य	-11.064
▁हिस्सेदारी	-11.064
▁युक्त	-11.064
▁बांसवाड़ा	-11.0641
▁सरेंडर	-11.0641
▁स्थगित	-11.0641
▁र्स	-11.0641
▁स्वयंसेवक	-11.0642
▁नूं	-11.0643
▁तख्त	-11.0643
▁प्रशंसा	-11.0643
▁साधु	-11.0645
▁मनु	-11.0645
▁लोकेश	-11.0645
▁बाइ	-11.0646
▁मुख	-11.0647
▁नागौर	-11.0648
ोरा	-11.0656
▁मदरस	-11.0656
▁मोहनलाल	-11.0657
ंकर	-11.0657
▁दाव	-11.0659
वाद	-11.0661
▁दिव्य	-11.0663
▁U	-11.0673
वर्धन	-11.0676
ादेश	-11.068
टू	-11.0683
.1	-11.0685
▁दिव	-11.0692
्यो	-11.0692
▁एसटी	-11.0704
▁इन्	-11.0711
पीने	-11.0714
मास	-11.072
at	-11.0722
▁इलाक़	-11.0723
▁वृक्ष	-11.0723
▁चिकित्सालय	-11.0723
▁एहसास	-11.0723
▁ठहराया	-11.0724
▁फाटक	-11.0724
▁राघव	-11.0724
▁अनियमितता	-11.0725
▁डूंगरपुर	-11.0725
▁संजू	-11.0726
▁सेक्शन	-11.0727
मू	-11.0727
जीवन	-11.0727
▁डोडा	-11.0731
▁पितृ	-11.0733
▁नीलामी	-11.0733
▁वरीय	-11.0733
▁पाप	-11.0735
ंब	-11.0736
▁इसराइली	-11.0741
▁इस्तीफ	-11.0745
▁भाटी	-11.0747
▁AL	-11.0747
▁छापा	-11.0748
▁दिखी	-11.0756
▁हाउसिंग	-11.0757
▁प्रवास	-11.0764
ौल	-11.077
डिया	-11.0772
▁ु	-11.0775
▁कमांड	-11.0784
▁लोकप्रिय	-11.0798
▁1.	-11.0799
▁हरे	-11.0803
ाबड़	-11.0805
▁परामर्श	-11.0806
▁पहलुओं	-11.0806
▁आराधना	-11.0806
▁गाजीपुर	-11.0806
▁वैध	-11.0807
▁गोलीबारी	-11.0807
▁हनी	-11.0807
▁क्षण	-11.0809
▁सुचार	-11.0809
▁विभाजन	-11.0811
हाँ	-11.0811
▁शी	-11.0813
▁घोष	-11.0813
▁घाटी	-11.0814
▁धीमी	-11.0815
▁नमी	-11.0819
▁बीघा	-11.0821
▁उद्योगपति	-11.0821
▁सुधा	-11.0834
▁तारा	-11.0837
एमसीएच	-11.0837
▁तीज	-11.0841
▁परमार	-11.0844
खड़	-11.0851
▁मकर	-11.0853
▁सीतापुर	-11.087
▁डंड	-11.0876
इच	-11.0878
▁ब्रह्मा	-11.0878
▁शेड	-11.0878
▁नम	-11.0879
▁मवेश	-11.0879
ुम	-11.088
शस्त्र	-11.0881
ृष्टि	-11.0886
▁चतुर्वेदी	-11.089
▁मच्छर	-11.089
▁तृण	-11.089
▁गोवर्धन	-11.0891
▁स्वर्ग	-11.0891
▁अधीन	-11.0891
▁फटकार	-11.0891
▁ब्रज	-11.0892
▁पत्त	-11.0898
पीट	-11.0904
▁2024)	-11.0904
▁दीपेंद्र	-11.091
मती	-11.091
▁रामेश्वर	-11.0914
▁पिंड	-11.0916
ing	-11.0918
▁पर्वत	-11.0923
▁घंटा	-11.0925
यह	-11.0926
▁बेचा	-11.0928
क्राफ्ट	-11.0929
▁हिंस	-11.093
ट्स	-11.0934
w	-11.094
▁टाल	-11.0947
टिक	-11.0953
▁कद	-11.0953
▁अलमार	-11.0955
सराय	-11.0955
▁मनो	-11.0959
विश्वास	-11.0961
▁2.5	-11.0962
▁निराक	-11.0963
मो	-11.0965
▁दंपती	-11.0975
▁राजनांदगांव	-11.0975
▁विपरीत	-11.0975
▁डाउनलोड	-11.0975
▁बेनीवाल	-11.0975
▁टेस्‍ट	-11.0975
▁नवजात	-11.0975
▁ब्लैकमेल	-11.0975
▁तिल	-11.0976
▁राजसमंद	-11.0976
▁यों	-11.0977
▁सभापति	-11.0977
▁लाय	-11.0977
▁ज़रूरत	-11.0978
▁(3	-11.0979
▁ब्ल	-11.0979
▁आतिशी	-11.098
▁विमल	-11.098
▁नेट	-11.0983
ाम	-11.0984
▁बीएसएफ	-11.0984
ग्रस्त	-11.099
▁उम	-11.099
▁मोति	-11.0991
▁जीजा	-11.0991
▁अकादमी	-11.0992
▁अखंड	-11.0992
▁घुसे	-11.0997
▁करीना	-11.0997
▁सिल	-11.0998
▁कंटे	-11.1001
युक्त	-11.1005
▁कमरा	-11.1007
▁स्टाइल	-11.1007
डेयरी	-11.1008
▁चूक	-11.1009
▁निफ्ट	-11.1019
▁सरल	-11.1026
▁भटक	-11.1046
▁बिन	-11.1052
▁भंवर	-11.1053
शिरोमणि	-11.106
▁फ़िल्म	-11.106
▁सीतारमण	-11.106
▁एनर्जी	-11.1061
▁वैशाली	-11.1061
▁वैदिक	-11.1061
तफरी	-11.1061
▁लेफ्ट	-11.1062
▁धमाके	-11.1067
▁सेठ	-11.1069
▁नार	-11.1072
▁बुआ	-11.1081
▁बैल	-11.1083
▁मुंड	-11.1089
▁मार्क	-11.1093
▁सीआई	-11.1093
यम	-11.1093
▁मंजूर	-11.1097
▁क्	-11.1101
▁लख	-11.1105
▁अनुपम	-11.1111
ाते	-11.1119
ोस	-11.1123
▁चु	-11.1131
▁जौन	-11.1131
ड़े	-11.1132
▁+	-11.1133
गाई	-11.114
▁रजिस्टर	-11.1146
▁Weather	-11.1147
▁उत्तम	-11.1147
▁मल्लिकार्जुन	-11.1147
▁कैंसिल	-11.1147
▁रसोई	-11.1147
▁पंजीकरण	-11.1147
▁ओझा	-11.1147
▁आरएसएस	-11.1147
▁सब्सिडी	-11.115
▁सहरसा	-11.1152
▁बजाज	-11.1154
▁नक्सल	-11.1157
▁ईशा	-11.1158
वाली	-11.1158
▁तुर्की	-11.116
▁पीटीआई	-11.116
▁भाग्य	-11.1172
▁मराठ	-11.1182
▁ख़	-11.1188
▁प्रतिष्ठान	-11.1192
▁शु	-11.1196
▁लु	-11.1199
भा	-11.1201
थला	-11.1203
ासन	-11.1208
▁ट्रा	-11.1217
▁नवाज	-11.1219
▁IND	-11.1233
ून	-11.1233
▁चुप्पी	-11.1234
▁पूर्वानुमान	-11.1234
▁हीटवेव	-11.1234
▁तुम्हे	-11.1234
▁जानबूझ	-11.1234
▁गिफ्ट	-11.1234
▁रजिस्टर्ड	-11.1234
▁अफरा	-11.1235
▁भूपेश	-11.1237
ंतरिक	-11.1237
▁कीर्ति	-11.1239
दाद	-11.124
▁मात	-11.124
▁चिन्हित	-11.1241
▁छपरा	-11.1246
▁लिंग	-11.1252
रेंज	-11.1253
बाल	-11.1254
▁पहुंचीं	-11.1254
▁वीके	-11.1259
▁सुलझा	-11.126
ायुक्त	-11.1262
▁आतंकवादी	-11.1264
▁फोड़	-11.1265
▁अटक	-11.1265
▁असा	-11.1277
बाएं	-11.1283
ाध्यक्ष	-11.1283
लोकतांत्रिक	-11.1285
▁आला	-11.1294
▁किन	-11.1297
▁तीख	-11.1299
थन	-11.1299
▁हज	-11.13
▁खैर	-11.1303
▁शेखर	-11.1303
▁कॉन्	-11.1303
तिथि	-11.1311
▁बाप	-11.1313
ाइज	-11.1316
मुझे	-11.1316
▁सोयाबीन	-11.1321
▁गडकरी	-11.1321
▁आंसू	-11.1321
▁बर्फबारी	-11.1321
▁बर्तन	-11.1321
▁लोकार्पण	-11.1321
▁इंटेलिजेंस	-11.1321
▁बहिष्क	-11.1321
▁नाकाबंदी	-11.1322
▁बलौदा	-11.1322
▁मोहाली	-11.1322
▁धर्मशाला	-11.1323
▁एडमिट	-11.1323
धा	-11.1325
▁मुन्ना	-11.1327
▁अष्टमी	-11.1328
▁(25	-11.1331
▁शील	-11.1335
▁यहाँ	-11.1336
▁उतरी	-11.1336
▁मायाव	-11.1337
ेस्ट	-11.1342
चक	-11.1344
▁खूबसूरत	-11.1345
▁सपने	-11.1346
▁निकायों	-11.1348
सिंह	-11.1352
▁भगवत	-11.1357
▁भाभ	-11.137
▁डीपी	-11.1371
▁सोहन	-11.1374
यान	-11.1375
▁निराश	-11.1376
▁मिलावट	-11.1379
▁पराली	-11.1386
च्छेद	-11.1388
▁यूज	-11.139
▁परिवर्त	-11.14
▁बिल्डर	-11.1405
▁रिपोर्टर	-11.1406
.7	-11.1406
▁टर्मिनल	-11.141
व्यावसायिक	-11.141
▁पूंजी	-11.141
▁गिरिडीह	-11.141
▁सावित्र	-11.141
▁मुंगेर	-11.141
मिर्जापुर	-11.141
▁लीजिए	-11.141
बाजार	-11.141
▁ढाका	-11.141
▁फंदा	-11.141
▁शेखपुर	-11.1411
▁स्थानांतर	-11.1411
लभ	-11.1412
▁गर्ल्स	-11.1413
स्थ	-11.1413
▁अपेक्षा	-11.1416
▁ओपनिंग	-11.1419
▁बांस	-11.1421
▁बुद्ध	-11.1423
▁सेग	-11.1427
▁जीरो	-11.1427
ाव	-11.1432
▁अनि	-11.1432
▁डीन	-11.1435
▁इन्वेस्ट	-11.1444
▁2,	-11.1445
▁भार	-11.1446
30	-11.1457
मराव	-11.146
▁बद	-11.1461
ोन	-11.1469
दशी	-11.1471
▁93	-11.1472
▁उच्चत	-11.1477
मिंट	-11.1488
ेगी	-11.1489
ैट	-11.149
▁91	-11.1491
▁संबोध	-11.1493
▁दीवान	-11.1494
लाद	-11.1496
▁जनप्रतिनिधि	-11.1498
▁फडणवीस	-11.1499
▁भरपूर	-11.1499
▁सहारनपुर	-11.1499
▁दीजिए	-11.1499
▁जहानाबाद	-11.1499
डीआईजी	-11.1499
▁फिजिकल	-11.1499
▁अनुकूल	-11.1499
▁दामाद	-11.15
▁दूंगा	-11.15
▁फेमस	-11.1501
▁चैक	-11.1503
▁टेंट	-11.1504
▁(2)	-11.1507
▁सै	-11.1512
▁दोहरा	-11.1512
टेस्ट	-11.1513
वायु	-11.1514
▁आयात	-11.1515
ti	-11.1524
▁रहेंगी	-11.1533
▁मौला	-11.1534
पीएस	-11.1544
▁लेखक	-11.1546
▁शर्म	-11.1547
▁परिवाद	-11.1552
▁अग्रस	-11.1558
▁इनकम	-11.1559
देश	-11.1559
▁अपक	-11.1561
▁बनते	-11.1569
▁एसके	-11.157
z	-11.1577
▁नमन	-11.1578
▁व्यवस्थाओं	-11.158
▁पाट	-11.1583
▁ज़रूर	-11.1586
▁मांगें	-11.1588
▁जिंदल	-11.1589
▁डायवर्ट	-11.1589
▁परिक्रमा	-11.1589
▁भगदड़	-11.1589
▁महाकुंभ	-11.1589
▁रजिस्ट्रार	-11.1589
▁प्राइस	-11.1589
▁निवारण	-11.159
▁अंकुश	-11.159
▁प्रोफेशनल	-11.1591
महल	-11.1591
ion	-11.1592
▁दमदार	-11.1593
▁भैरव	-11.1593
▁बढ़ेगा	-11.1594
▁समिट	-11.1594
▁पुतला	-11.1597
▁मुनाफा	-11.1599
▁विनीत	-11.1601
ेवाल	-11.1601
▁डाटा	-11.1602
▁रिश्त	-11.1607
▁पोर्ट	-11.1618
▁खिल	-11.1619
▁बारह	-11.1621
▁जनजात	-11.1625
▁डाउन	-11.1627
▁गुम	-11.1637
जोत	-11.1645
▁मेवाड़	-11.1646
▁मार्गों	-11.1647
▁शीश	-11.1649
▁नाली	-11.1651
केश	-11.1658
▁प्रस	-11.1661
▁3,	-11.167
देवताओं	-11.1673
निवास	-11.1676
▁NEET	-11.168
▁नौजवान	-11.168
▁शिलान्यास	-11.168
▁स्कॉर्पियो	-11.168
▁पर्चा	-11.168
▁उद्यान	-11.168
▁खोद	-11.168
▁शुरु	-11.1682
▁स्टोरेज	-11.1683
▁सौदा	-11.1683
▁पेंटिंग	-11.1684
▁वाणिज्य	-11.1685
▁सिग्नल	-11.1687
▁जेई	-11.1692
▁बदनाम	-11.1693
▁गवर्नर	-11.1696
सीवान	-11.1696
▁कच	-11.1697
▁मील	-11.1697
▁डकैती	-11.1698
▁194	-11.1698
▁पन्ना	-11.1706
▁सर्द	-11.171
▁खेर	-11.171
शी	-11.1711
▁उद्योगों	-11.1716
▁बगै	-11.1716
▁रस्स	-11.172
संवैधानिक	-11.1724
ियान	-11.1739
वाट	-11.1739
▁160	-11.1741
दरगाह	-11.1741
वाणी	-11.1742
हन	-11.1742
▁लखन	-11.1746
॥	-11.1747
▁किस्त	-11.1755
▁पप्प	-11.1755
▁बीर	-11.1756
▁शास	-11.176
▁जाओ	-11.1765
▁मेरिट	-11.1765
रंगदारी	-11.1772
▁टंडन	-11.1772
▁बूंदाबांदी	-11.1772
▁हेलिकॉप्टर	-11.1772
▁हेलीकॉप्टर	-11.1772
▁फ्लाईओवर	-11.1772
▁अखबार	-11.1772
▁बलिदान	-11.1772
▁झड़प	-11.1772
▁नॉर्थ	-11.1772
▁ठप	-11.1773
▁त्रिपुरा	-11.1773
▁संगत	-11.1774
काबू	-11.1774
▁स्पिनर	-11.1777
▁बंगले	-11.1778
▁केमिकल	-11.1779
▁स्थिरता	-11.1781
▁मवेशियों	-11.1784
णा	-11.1795
▁शाहपुर	-11.1799
▁प्रभार	-11.18
▁रुपया	-11.1805
▁मर्ज	-11.1806
▁पायल	-11.1816
▁नाका	-11.1823
▁रीना	-11.1824
▁चाल	-11.1824
ोहर	-11.1825
पान	-11.1827
चरण	-11.1828
en	-11.184
▁ेंगे	-11.1841
टीएमसी	-11.1848
▁वानी	-11.1852
▁बीआर	-11.1852
▁डीलर	-11.1853
▁कालू	-11.1857
▁जोश	-11.1858
्यू	-11.1863
चेंज	-11.1864
▁खु	-11.1864
▁सेरेमनी	-11.1864
▁कहासुनी	-11.1864
▁दुरुपयोग	-11.1864
चांदी	-11.1864
लक्ष्मी	-11.1864
▁अक्षर	-11.1864
▁रिव्यू	-11.1865
▁बेरहम	-11.1865
▁झूम	-11.1865
▁पुरुषोत्तम	-11.1865
▁विद्रोह	-11.1865
▁घरवालों	-11.1865
▁बेतिया	-11.1865
▁गुरप्रीत	-11.1866
इंग	-11.1866
▁गिरिराज	-11.1866
▁महुआ	-11.1868
▁मठ	-11.1868
▁पंचायती	-11.1869
▁पड़ेगी	-11.187
▁महाआर	-11.187
ष्ट	-11.1873
▁माइन	-11.1877
▁चैलेंज	-11.1897
▁नाकाम	-11.1899
▁1.2	-11.19
▁परीक्षार्थी	-11.1901
तू	-11.1904
▁अब्दुल्ला	-11.1909
▁गोपी	-11.1909
▁सू	-11.1911
मपुर	-11.1911
बाद	-11.1912
▁सारण	-11.1917
V	-11.192
▁डू	-11.192
▁ध्वज	-11.1922
▁उठाई	-11.1923
▁कुशवाह	-11.1923
▁रुके	-11.1926
▁रणनीतिक	-11.1929
ारी	-11.1933
▁शिवा	-11.1935
X	-11.1938
▁डिस्	-11.1941
▁निशाने	-11.1949
▁वॉल	-11.1951
▁काजल	-11.1952
▁आध्यात्मिक	-11.1958
▁दिसम्बर	-11.1958
▁पौधरोपण	-11.1958
▁मनुष्य	-11.1958
▁लग्जरी	-11.1958
▁आतिशबाजी	-11.1958
▁गर्लफ्रेंड	-11.1958
▁कुश्ती	-11.1958
▁लूटपाट	-11.1958
▁सहारे	-11.1958
स्ट्रक्चर	-11.1958
▁मुर्मू	-11.1958
▁अफेयर	-11.1959
▁बनाएंगे	-11.1966
▁कोहराम	-11.1966
▁दस्तक	-11.197
▁खुलासे	-11.1971
▁बंगला	-11.1971
▁खड़गे	-11.1972
ce	-11.1978
तु	-11.1983
रात	-11.1983
सान	-11.1987
▁मुन	-11.1989
▁जंगली	-11.1996
▁नवमी	-11.1996
▁म्	-11.1996
स्‍त	-11.1997
्‍म	-11.1998
▁हटाए	-11.1999
एब	-11.2001
▁सावधानी	-11.201
le	-11.2014
▁नैन	-11.2014
▁5000	-11.2015
▁जू	-11.2016
▁कोल्ड	-11.2032
▁डरा	-11.2036
ंज	-11.2041
▁समृद्ध	-11.2046
▁दलील	-11.2051
▁छुट्	-11.2052
▁खौफ	-11.2052
हरिद्वार	-11.2052
▁अहिरवार	-11.2052
▁धुआं	-11.2052
▁न्यूयॉर्क	-11.2052
▁हिदायत	-11.2052
▁जॉर्ज	-11.2052
आईएमडी	-11.2052
▁सटीक	-11.2052
विदिशा	-11.2052
▁संयोग	-11.2052
▁समझाइश	-11.2052
▁प्रेसिडेंट	-11.2052
▁नीमच	-11.2053
▁जन्मोत्सव	-11.2054
ीआईपी	-11.2054
ir	-11.2055
▁हिल	-11.2055
▁निभाया	-11.2058
▁दया	-11.2063
▁सहज	-11.2071
ma	-11.2072
▁वें	-11.2076
as	-11.2079
▁सद	-11.208
st	-11.2084
ीकृत	-11.2085
धारी	-11.2087
▁मोट	-11.2096
▁बचाई	-11.2097
▁जिया	-11.2099
▁आएं	-11.2101
▁दिलवा	-11.2101
▁चीख	-11.2105
▁कैड	-11.2105
बोध	-11.2108
सीम	-11.2108
▁सहनी	-11.2109
▁नारी	-11.2112
▁संगम	-11.2118
▁उमड़	-11.2118
▁विन	-11.212
पात	-11.2123
▁पोस्टिंग	-11.2126
▁झेल	-11.2128
▁डब्ल्यू	-11.2132
इयों	-11.2132
ाइन	-11.2135
▁डंडे	-11.2138
▁पीपल	-11.2145
▁कसा	-11.2147
▁इब्राह	-11.2147
▁आकलन	-11.2147
▁कच्चे	-11.2147
▁टास्क	-11.2148
▁कुंवर	-11.2148
▁संलिप्त	-11.2148
▁एसएमएस	-11.2148
▁कटारिया	-11.2148
▁तड़क	-11.2148
टेंशन	-11.215
▁बेटियां	-11.2151
▁बीस	-11.2152
04	-11.2152
▁महाजन	-11.2162
▁सिंग	-11.2163
▁कमांडर	-11.2163
▁टेली	-11.2164
▁टीबी	-11.2165
▁देवता	-11.2179
ोदय	-11.218
▁मायने	-11.2183
▁प्याज	-11.2185
▁डायरेक्ट	-11.2188
ईडी	-11.2189
ेक्स	-11.2191
▁लिहाजा	-11.2191
▁बनाएं	-11.2196
▁बीएस	-11.2197
▁राजे	-11.2206
गु	-11.2214
▁ताले	-11.2217
▁शत	-11.2221
▁अंश	-11.2226
▁तले	-11.2227
MP	-11.2237
^	-11.2244
▁अनुष्ठान	-11.2244
▁जनसंपर्क	-11.2244
▁त्रिवेदी	-11.2244
▁विश्लेषक	-11.2244
▁पंजीकृत	-11.2244
▁सीहोर	-11.2244
▁भाटिया	-11.2245
▁बिरला	-11.2246
▁छुपा	-11.2246
▁पंड्या	-11.2246
फल	-11.2247
▁मंथन	-11.2249
▁87	-11.225
बबलू	-11.2251
▁प्लाट	-11.2255
▁रोटी	-11.2256
▁जानकी	-11.226
▁क्ष	-11.2262
▁डेवि	-11.2264
आवारा	-11.2269
▁जाप	-11.2269
.9	-11.2273
▁बनाती	-11.2274
▁परिस्थिति	-11.2277
▁बाथ	-11.2282
▁परमिशन	-11.2287
▁कटा	-11.2289
ुल्लाह	-11.2291
▁ट्रॉली	-11.2292
ीबीसी	-11.2295
▁लेगी	-11.2297
▁ऊंची	-11.2298
▁हमलोग	-11.2301
▁ट्रे	-11.2313
▁ढे	-11.2313
▁मिलीं	-11.2315
▁एट	-11.2316
ाधिकारी	-11.2317
▁टोट	-11.2318
िंटू	-11.2329
▁कास्ट	-11.233
▁ऊ	-11.2331
▁छोड़ी	-11.2332
▁दिखात	-11.2332
▁कहे	-11.2332
▁करवाना	-11.2334
▁लौटी	-11.2339
ुन	-11.2339
▁महापर्व	-11.2341
▁एग्री	-11.2341
▁अफीम	-11.2341
▁प्रशस्त	-11.2341
▁मल्होत्रा	-11.2341
▁गुमशुदगी	-11.2341
▁अकबर	-11.2341
▁नींव	-11.2341
▁ख़ास	-11.2341
▁जनहित	-11.2341
▁गाइडलाइन	-11.2342
▁सेंसर	-11.2343
▁ऋतु	-11.2343
▁काउंटिंग	-11.2343
▁झंडी	-11.2352
▁बांका	-11.236
▁रास्त	-11.2367
▁पेटी	-11.2368
▁अकेला	-11.2371
▁ेगा	-11.2371
▁दोष	-11.2372
▁जुआ	-11.2375
▁मलब	-11.2375
▁सरा	-11.2377
पश्चिम	-11.2379
▁बेला	-11.2385
90	-11.2386
▁बर्फ	-11.239
▁केदार	-11.2393
न्हा	-11.2395
▁फॉलो	-11.2399
▁निकलते	-11.2403
▁जरिय	-11.2417
.15	-11.2422
▁स्ट्रीम	-11.243
▁विफल	-11.2432
ध्य	-11.2432
▁सुल्तान	-11.2435
अद्भुत	-11.2439
पुष्कर	-11.2439
▁ऑलराउंडर	-11.2439
▁कौशिक	-11.2439
▁छलांग	-11.2439
▁लॉन्‍च	-11.2439
▁मुखर्जी	-11.2439
▁माथुर	-11.2439
▁रेवन्ना	-11.2439
▁फ्लैग	-11.2439
▁गौशाला	-11.2439
वश्य	-11.2439
▁गालियां	-11.2439
▁टावर	-11.244
▁बनाम	-11.2441
▁चाबी	-11.2441
▁इनपुट	-11.2441
▁रिकवर	-11.2443
▁संतान	-11.2443
▁तबादला	-11.2444
▁कूलर	-11.2445
▁लाइब्रेरी	-11.2446
▁ग्रेटर	-11.2446
▁आएंगी	-11.2446
▁ठेके	-11.2447
▁नवाब	-11.2449
▁फर्क	-11.2449
ha	-11.2452
▁खाल	-11.2457
गे	-11.2463
मि	-11.2465
▁रक्त	-11.2465
ावा	-11.2467
▁केबल	-11.2468
▁मुड़	-11.2472
न्	-11.2478
▁89	-11.2478
ad	-11.248
▁गुरू	-11.2483
▁टुकड़े	-11.2483
वाह	-11.2496
‍ि	-11.2498
▁क्लीन	-11.2504
▁निक	-11.2509
▁वैस	-11.2513
ल्फी	-11.2514
▁क़	-11.2516
com	-11.2518
27	-11.2522
फिरोजपुर	-11.2524
▁मसल	-11.2526
▁e	-11.2529
▁तप	-11.2531
▁जेडीए	-11.2532
▁वास्तव	-11.2533
▁गिरफ्त	-11.2537
▁किडनैप	-11.2538
▁कॉम्प्लेक्स	-11.2538
▁चंद्रचूड़	-11.2538
▁प्रकोष्ठ	-11.2538
▁बाइडेन	-11.2538
▁सैयद	-11.2538
▁शुरूआत	-11.2538
▁वैक्सीन	-11.2538
▁खरगे	-11.2538
▁रचनात्मक	-11.2538
मंत्री	-11.2538
▁यूपीएससी	-11.2539
▁पर्यवेक्षक	-11.254
▁दिये	-11.254
▁गिरे	-11.254
▁खंभ	-11.254
झालावाड़	-11.2541
▁झंडे	-11.2544
बाबू	-11.2545
▁भि	-11.2548
▁आरजी	-11.2549
▁अनोख	-11.255
ASI	-11.2551
माल	-11.2567
▁एंग	-11.2568
▁हलक	-11.2572
▁बेरोजगार	-11.2573
▁टर्न	-11.2574
थवा	-11.2577
धन	-11.2585
आईसीसी	-11.2585
▁पाय	-11.2589
▁गुलाम	-11.2594
▁मांस	-11.2598
▁चप	-11.2602
▁भजनों	-11.2602
▁छात्राएं	-11.2607
▁समर्थ	-11.2614
▁गान	-11.2616
▁पिला	-11.2619
मित्र	-11.262
▁m	-11.2622
लीन	-11.2623
▁फैक्टर	-11.2623
▁2.	-11.2624
ार्थ	-11.2625
▁चे	-11.2628
▁अनदेखी	-11.2638
▁पंचकूला	-11.2638
▁बोकारो	-11.2638
▁नारनौ	-11.2638
▁सनसनी	-11.2638
▁राइफल	-11.2638
▁कुमावत	-11.2638
▁नफरत	-11.2638
▁अर्घ्य	-11.2638
▁सिंगापुर	-11.2638
▁मुजफ्फरनगर	-11.2638
▁थ्रो	-11.2638
▁नवाचार	-11.2638
▁शंभू	-11.2639
▁मॉर्च्य	-11.2639
▁महाकालेश्वर	-11.2639
▁इंग्लिश	-11.264
▁सुल्तानपुर	-11.2641
▁स्वाद	-11.2642
▁वायरस	-11.2642
▁सजावट	-11.2642
▁पार्टियां	-11.2643
▁रामचंद्र	-11.2644
▁छठे	-11.2645
▁छक्के	-11.2645
▁ठंडा	-11.2649
▁तंग	-11.2649
▁वंश	-11.2649
▁इंडस्ट्रीज	-11.265
▁पॉइंट्स	-11.2651
स्त	-11.2654
भान	-11.2654
कभी	-11.2654
88	-11.2655
ावर	-11.2655
▁कन्	-11.2656
▁हल्दी	-11.2658
▁कॉमेडी	-11.2659
ंसिक	-11.266
▁रंगे	-11.2666
कट	-11.2667
रानी	-11.2671
▁कराएं	-11.2684
▁रव	-11.2689
▁राग	-11.269
▁बंटी	-11.2691
▁दुरुस्	-11.2693
▁फोरे	-11.2695
▁नग	-11.2695
▁स्नेह	-11.2703
▁क्रांति	-11.271
▁महाराजा	-11.2713
▁रखवा	-11.2724
▁टूर	-11.2726
▁धा	-11.2737
▁फायदे	-11.2739
▁दुष्यंत	-11.2739
▁मारुति	-11.2739
▁चौबे	-11.2739
▁हेरिटेज	-11.2739
▁(35)	-11.2739
▁हौसल	-11.2739
▁शाहजहां	-11.2739
▁प्रतिनिधिमंडल	-11.2739
▁धनंजय	-11.2739
▁भवानी	-11.274
▁अनुशासन	-11.2741
▁फिरौती	-11.2741
▁पलटवार	-11.2741
▁ख़ान	-11.2742
ेंसी	-11.2744
75	-11.2745
▁कनेक्ट	-11.2749
भवन	-11.275
▁चलें	-11.2752
▁एसआईटी	-11.2757
यानि	-11.2759
▁SC	-11.276
▁आड़	-11.2762
ur	-11.2764
▁इंडी	-11.2766
▁b	-11.2767
▁सिं	-11.2768
कला	-11.2769
▁सच्च	-11.2771
यल	-11.2771
▁सेमे	-11.2773
▁Z	-11.2774
▁जाग	-11.2774
▁घिर	-11.2776
▁कुश	-11.2777
निर्मला	-11.278
▁महानिदेश	-11.2782
▁पॉलि	-11.2785
▁180	-11.2785
▁अनुपमा	-11.2789
▁चौके	-11.2791
▁इनामी	-11.2794
पालन	-11.2804
▁टोली	-11.282
▁सिरे	-11.2824
▁मैक	-11.2829
▁बंदी	-11.2832
▁चंदा	-11.2832
पीठ	-11.2837
▁समन	-11.2837
▁फा	-11.2837
चंद्र	-11.2839
▁कतार	-11.2839
▁आडवाणी	-11.2841
▁गोताखोर	-11.2841
▁अवार्ड	-11.2841
▁बुरहान	-11.2841
▁कर्नल	-11.2841
▁मातृ	-11.2841
▁किस्सा	-11.2841
▁छतरपुर	-11.2842
▁अर्श	-11.2842
▁सटे	-11.2846
तालिबान	-11.2848
छा	-11.2848
▁लोधी	-11.2849
▁धड़	-11.2852
ICC	-11.2855
▁पीली	-11.2856
▁सेल्फ	-11.2858
▁मय	-11.2865
▁ुद्दीन	-11.2866
▁ट्यूब	-11.2869
िपक्षीय	-11.287
▁जाय	-11.2871
un	-11.2873
▁इकोनॉम	-11.2873
▁धारक	-11.2878
▁वन्य	-11.2883
▁अग्निश	-11.2885
▁जयंत	-11.2887
▁बारीक	-11.2892
▁पढ़े	-11.2903
▁पाती	-11.2906
ुख्ता	-11.2909
हीन	-11.2909
▁ीय	-11.2924
▁सैम	-11.2924
▁फैली	-11.2925
एनटीए	-11.2931
▁अनमोल	-11.2944
▁ख़त्म	-11.2944
▁प्रवचन	-11.2944
▁मुआवजे	-11.2944
▁सौंदर्य	-11.2944
▁स्पर्धा	-11.2944
▁चरखी	-11.2944
▁पाण्डेय	-11.2944
▁विश्राम	-11.2944
▁अनुबंध	-11.2944
▁कूड़ा	-11.2945
▁एचडी	-11.2945
▁हॉट	-11.2947
▁रेजिडेंट	-11.2947
▁पीएचडी	-11.2948
▁दक्ष	-11.295
▁मचाया	-11.2951
▁गिरीश	-11.2951
▁पैरवी	-11.2951
▁यो	-11.2952
▁ानी	-11.2952
▁हनुमानगढ़	-11.2952
मेजर	-11.2952
▁झटके	-11.2953
▁सरे	-11.2953
▁ेड	-11.2956
▁देह	-11.2956
पुल	-11.2959
▁अवसरों	-11.2968
▁संपत्तिय	-11.2969
▁भिड़	-11.2972
▁माले	-11.2972
▁बीए	-11.2974
▁एपल	-11.2979
ाप	-11.2987
आरपीएफ	-11.2991
मारी	-11.2995
कारगिल	-11.3007
▁Y	-11.3008
▁एपी	-11.3012
बंधन	-11.3018
▁n	-11.3024
▁त्यागी	-11.3032
वंत	-11.3036
एनएम	-11.3036
▁विध	-11.3039
▁स्वा	-11.3046
▁कटे	-11.3048
▁Modi	-11.3048
▁अवलोकन	-11.3048
▁आरंभ	-11.3048
▁आश्चर्य	-11.3048
▁क्रियान्व	-11.3048
▁छोटू	-11.3048
▁पाउडर	-11.3048
▁बुंदेल	-11.3048
▁समर्पण	-11.3048
▁सुपुर्द	-11.3048
▁दूतावास	-11.3048
▁मलेरिया	-11.3048
▁अनुपस्थित	-11.3048
▁माइक्रो	-11.3048
▁गर्भगृह	-11.3048
▁चित्रकूट	-11.3048
▁फिफ्टी	-11.3048
▁पेशेवर	-11.3048
▁प्रातः	-11.3048
▁तेलुग	-11.3049
▁धवन	-11.3049
▁मम्मी	-11.3049
▁सूचक	-11.305
▁बाईपास	-11.305
िग	-11.3051
▁आईपीओ	-11.3051
▁दिखाए	-11.3051
▁पीड़ा	-11.3059
बर्ग	-11.3062
▁गोलू	-11.3064
▁ऑक्सी	-11.3066
▁कू	-11.3068
▁ढक	-11.3074
▁फ़ैसला	-11.3075
▁कुर	-11.3083
▁निर	-11.3083
पो	-11.3084
▁प्रोड्यूसर	-11.3087
▁साहेब	-11.309
▁वादे	-11.3091
▁पटाखे	-11.3092
▁आये	-11.3096
▁रामनगर	-11.3098
▁बदली	-11.3101
वती	-11.3105
वैश्य	-11.3107
▁रास	-11.3114
▁कृत	-11.3118
▁दिखता	-11.3124
▁कर्ता	-11.313
▁अमान	-11.3139
टे	-11.3139
▁कोटे	-11.3142
▁प्वाइंट	-11.3148
फोर्स	-11.3148
▁अंकों	-11.3149
रांत	-11.3149
▁भ्रम	-11.3151
▁गरिमा	-11.3153
▁मुस्कान	-11.3153
▁राधेश्याम	-11.3153
▁रिएक्शन	-11.3153
▁विश्लेषण	-11.3153
▁चौरसिया	-11.3153
▁हड़प	-11.3154
सार्थक	-11.3154
▁अररिया	-11.3154
स्य	-11.3156
▁वल्लभ	-11.3158
▁सियासत	-11.316
▁कब्र	-11.3161
कालिक	-11.3164
▁चैट	-11.3164
▁धुन	-11.3167
▁जीवित	-11.3168
▁उर	-11.3171
क्क	-11.3178
▁किंग्स	-11.3182
▁हानि	-11.3184
▁गुड्ड	-11.3186
ौद	-11.3188
▁बंधु	-11.3189
▁सितारे	-11.3191
न्ना	-11.3205
म्मिल	-11.3205
ंद्र	-11.3207
शंकर	-11.3208
▁फाइटर	-11.321
▁बुध	-11.3211
▁मोग	-11.3213
मऊ	-11.3216
ंड्या	-11.322
वरेज	-11.3225
▁आजम	-11.3229
केट	-11.324
▁चना	-11.3245
मय	-11.3249
▁खेलना	-11.3251
न्ह	-11.3253
व्यय	-11.3256
▁ऋत	-11.3257
्ज़	-11.3259
▁SUV	-11.326
▁खंडेलवाल	-11.326
▁ज्‍यादा	-11.326
▁निमंत्रण	-11.326
▁प्रांगण	-11.326
▁व्हीकल	-11.326
▁इच्छुक	-11.326
▁भूकंप	-11.326
▁सम्पन्न	-11.326
▁अभिनंदन	-11.326
▁उत्तरप्रदेश	-11.326
रोकथाम	-11.326
▁सब्जिय	-11.3262
▁हरियाल	-11.3263
▁वेट	-11.3263
शरथ	-11.3263
▁चांस	-11.3264
▁घातक	-11.3265
▁शमी	-11.3267
▁रज	-11.3268
▁मंचन	-11.3273
▁रुपय	-11.3276
ूल	-11.3276
फिट	-11.3276
खाव	-11.3279
िफ	-11.3282
▁खेड	-11.3284
▁शहरवास	-11.3289
▁टुकड़	-11.3293
हे	-11.3297
ोज	-11.3305
मनरेगा	-11.3314
▁ढा	-11.3318
▁गोल्डन	-11.332
बंद	-11.3321
▁नकल	-11.3336
▁मंडला	-11.3338
▁86	-11.3341
▁140	-11.3345
▁कैट	-11.3346
▁नैतिक	-11.3346
▁अस्तित्	-11.3359
कश	-11.3363
ीपुर	-11.3365
▁इमाम	-11.3367
▁क्लिनिक	-11.3367
▁यकीन	-11.3367
▁देओल	-11.3367
▁सिवनी	-11.3367
▁होशियार	-11.3367
▁हिरण	-11.3367
▁शुगर	-11.3367
▁बोझ	-11.3368
▁आरटीओ	-11.3368
▁किडनी	-11.3368
▁पंवार	-11.3369
▁नवम्बर	-11.3369
▁मंगवा	-11.337
▁टच	-11.3371
▁रैंकिंग	-11.3378
▁इको	-11.3379
ंस्य	-11.338
▁स्क	-11.3382
▁मातम	-11.3382
▁मधुबनी	-11.3382
▁योग्यता	-11.3382
▁जागर	-11.3385
संख्या	-11.3386
▁बोल्ड	-11.3395
▁पॉलिटिक	-11.3396
मंडल	-11.3398
प्शन	-11.3399
▁मीट	-11.3402
▁बहाव	-11.3402
x	-11.3407
ंश	-11.3408
ran	-11.3411
वर्ती	-11.3411
▁लेखा	-11.3414
प्ले	-11.3416
▁उधार	-11.3422
▁बरसा	-11.3429
J	-11.3431
▁उल्टी	-11.3431
सेना	-11.3443
▁चैंब	-11.3444
पुरी	-11.3445
यी	-11.3445
▁ठा	-11.3445
▁माफ	-11.3448
▁जप	-11.345
पल	-11.3451
▁प्रचारक	-11.3453
▁बिखर	-11.3457
▁फि	-11.3457
ेटर	-11.3464
▁इलेक्ट	-11.3471
▁of	-11.3475
▁चतुर्	-11.3475
०	-11.3476
▁इंडस्ट्रियल	-11.3476
▁ताइवान	-11.3476
▁रुझान	-11.3476
▁शिरकत	-11.3476
▁संन्यास	-11.3476
▁फ्रेंचाइज	-11.3476
▁शून्य	-11.3476
▁जादू	-11.3476
▁मानवाधिकार	-11.3476
▁निरंजन	-11.3476
▁यशस्व	-11.3476
▁इंजेक्शन	-11.3476
▁डिवाइड	-11.3477
▁आर्टिस्ट	-11.3477
▁झोपड़	-11.3477
▁यथा	-11.3477
▁(22)	-11.3479
▁आगाज	-11.348
▁प्रथा	-11.348
▁लगीं	-11.3484
▁बरस	-11.3486
▁जयराम	-11.3488
▁सिगर	-11.3489
फ्रेंड	-11.3492
्यु	-11.3492
▁गोविंदा	-11.3493
▁जूते	-11.3493
▁अर्जी	-11.3494
ीमत	-11.35
ore	-11.3501
▁दुआ	-11.3505
▁राशिद	-11.3509
aj	-11.3509
▁सितार	-11.3512
▁ग्र	-11.3513
क्टर	-11.3517
▁चर्चित	-11.3519
▁नगद	-11.3523
ic	-11.3524
▁उद्	-11.3524
्बल	-11.3527
▁पद्म	-11.3528
डब्ल्यू	-11.353
▁अकाल	-11.3532
▁आरएस	-11.3532
▁कर्	-11.3538
▁युव	-11.3545
जो	-11.3545
▁उल्ट	-11.3546
▁जिता	-11.3548
लिका	-11.3549
▁ाइज	-11.3551
▁सराहन	-11.3551
ाइड	-11.3552
▁यूजी	-11.3553
ैन	-11.3555
▁टल	-11.356
▁छाव	-11.3565
▁पंचनाम	-11.3567
र्सल	-11.357
pa	-11.3574
ोम	-11.3578
▁इंफ्रा	-11.3586
▁कनेक्टिविटी	-11.3586
▁सुपौल	-11.3586
▁एस्टेट	-11.3586
▁उरांव	-11.3586
▁भुवनेश्वर	-11.3586
ment	-11.3586
▁ख़बर	-11.3586
▁मंशा	-11.3586
▁कंवर	-11.3586
▁नारियल	-11.3587
▁लोहिया	-11.3587
▁महिमा	-11.3587
▁मोर्चरी	-11.3588
्वा	-11.359
▁फीडर	-11.359
▁उपहार	-11.3591
त्थान	-11.3592
▁2500	-11.3595
शाला	-11.3605
▁सन्न	-11.3607
▁मोटर्स	-11.361
▁दवाई	-11.3613
▁झाड़	-11.3614
ेरी	-11.3617
इस	-11.3625
्रिंग	-11.3628
▁नित	-11.3631
▁किस्म	-11.3632
▁कार्यवाह	-11.3637
ro	-11.3644
▁टूटे	-11.3647
▁कुंज	-11.365
▁नगदी	-11.3651
▁दूल्ह	-11.3662
▁प्रण	-11.3675
▁हरद	-11.3677
टीआर	-11.3684
▁195	-11.3685
▁आक्रामक	-11.3691
▁प्रॉ	-11.3694
हिस्ट्रीशीटर	-11.3697
▁आत्मनिर्भर	-11.3697
▁एसबीआई	-11.3697
▁कच्ची	-11.3697
▁नक्षत्र	-11.3697
▁निर्णायक	-11.3697
▁बर्खास्त	-11.3697
▁रिपब्लिक	-11.3697
▁लद्दाख	-11.3697
▁लैपटॉप	-11.3697
▁शिमला	-11.3697
▁उछल	-11.3697
▁निशानदेही	-11.3697
▁मधेपुर	-11.3697
▁बर्थडे	-11.3697
▁जायेगी	-11.3697
▁डाक्टर	-11.3698
▁मार्श	-11.3698
▁एक्टिवा	-11.3699
▁डेमोक्रेटिक	-11.3699
▁क्षति	-11.3699
▁अय्यर	-11.3699
▁लड़ेंगे	-11.37
▁1996	-11.37
▁अदित	-11.3701
▁खरीदे	-11.3701
▁पाएगी	-11.3701
▁बंदर	-11.3703
▁ड्रामा	-11.3704
▁सिरोही	-11.3705
▁प्रस्तुतियां	-11.3705
▁संरचना	-11.3706
▁फाड़	-11.3706
▁मक्का	-11.371
▁वक्ता	-11.3711
▁अंबा	-11.3712
▁जं	-11.3713
▁सिक्स	-11.3713
▁मैप	-11.3715
अगर	-11.3716
▁निरा	-11.3716
▁व्यवस्थाएं	-11.3721
▁धुंध	-11.3723
खलन	-11.3725
▁महू	-11.3728
▁सता	-11.3729
▁सुप्रीमो	-11.3733
▁केवी	-11.3735
▁ूंगा	-11.3735
▁धारी	-11.3739
ंडर	-11.3739
▁महंग	-11.3743
▁गर	-11.375
▁गिरि	-11.3752
▁साहस	-11.3762
▁बैठाकर	-11.3762
ापुर	-11.3774
▁प्रह	-11.3784
-14	-11.3786
▁स्कैन	-11.3796
▁प्रभा	-11.3796
▁श्रेय	-11.3803
जय	-11.3805
▁गुमराह	-11.3809
▁किरोड़ी	-11.3809
▁नगरपालिका	-11.3809
▁ट्रांसप्लांट	-11.3809
▁सिक्किम	-11.3809
▁ब्लाक	-11.381
रूढ़	-11.381
▁कच्चा	-11.381
▁संक्रमण	-11.381
▁भिड़ंत	-11.381
▁कैम्प	-11.3811
▁चाइन	-11.3812
▁देवगन	-11.3812
▁अनवर	-11.3812
▁शिवकुमार	-11.3814
खण्ड	-11.3814
रिफ	-11.3815
▁प्रात	-11.3817
▁पूल	-11.382
पर्सन	-11.3829
निरीक्षक	-11.383
नु	-11.3833
▁हब	-11.3833
▁कीमतें	-11.3837
िंस	-11.3837
▁डु	-11.3842
▁फेंका	-11.3843
▁डेड	-11.3844
▁कैसी	-11.3848
pur	-11.3852
▁Ind	-11.3857
▁सल	-11.3861
▁साईं	-11.3865
▁एक्टर्स	-11.3868
▁ेन्द्र	-11.3873
▁कैदी	-11.3881
▁एडी	-11.3882
▁बिता	-11.3885
सार	-11.3889
वो	-11.3901
▁शिप	-11.3917
▁2:	-11.3917
▁इजाजत	-11.3923
▁प्रकोप	-11.3923
▁शाजापुर	-11.3923
▁सेमिनार	-11.3923
▁छिड़काव	-11.3923
▁ढाणी	-11.3923
▁हजारीबाग	-11.3925
▁कल्चर	-11.3928
▁किताबें	-11.3928
▁बेसमेंट	-11.3929
▁चौकीदार	-11.3929
▁आकांक्षा	-11.393
▁विल	-11.393
▁बड	-11.393
▁खुफिय	-11.3931
▁कुल्हा	-11.3932
▁पौधा	-11.3933
▁फर्	-11.3934
डोर	-11.3934
▁हार्ड	-11.3935
▁शस्त्र	-11.3935
आप	-11.3936
शियन	-11.3937
▁ऊंच	-11.3937
माला	-11.3937
▁मुश्किलें	-11.3938
▁पैक्स	-11.3941
▁बताओ	-11.3942
▁मजबूरी	-11.3943
▁आरसी	-11.3945
▁व्य	-11.3946
▁समाजजन	-11.3946
राज्य	-11.3964
▁पंचमी	-11.3969
35	-11.3971
विमोचन	-11.3971
▁पाबंद	-11.3973
▁अनजान	-11.3974
▁मोक्ष	-11.3978
▁केबिन	-11.399
▁गंग	-11.3991
▁रोटर	-11.3994
नानी	-11.3995
एसएफ	-11.4007
▁US	-11.4007
▁अगवा	-11.4012
▁f	-11.4015
▁परफॉर्म	-11.4016
ata	-11.402
▁कर्ण	-11.402
▁पूर	-11.4021
▁रजा	-11.4021
▁उपलब्धता	-11.4023
▁सिलेक्	-11.4026
▁मेहरा	-11.4026
▁भान	-11.403
▁संक	-11.403
ुहान	-11.4033
▁जनक	-11.4033
▁जनों	-11.4036
रार	-11.4037
▁खरगोन	-11.4038
▁बिस्तर	-11.4038
▁मगरमच्छ	-11.4038
▁मेहंदी	-11.4038
▁विक्षोभ	-11.4038
▁विवेचन	-11.4038
▁ज़मीन	-11.4038
▁परशुराम	-11.4038
▁वेलफेयर	-11.4038
तुषार	-11.4038
▁नकारात्मक	-11.4038
▁आगजनी	-11.4038
▁मिर्च	-11.4038
▁पदोन्नत	-11.4038
▁खालिस्तान	-11.4038
▁पूनिया	-11.4038
▁स्टंट	-11.4038
▁निजात	-11.4038
▁पोखर	-11.4038
▁पीजीआई	-11.4039
▁राजनेता	-11.4039
▁प्रशासक	-11.4039
▁क्लिप	-11.404
▁चूरू	-11.404
▁भूस्	-11.404
▁प्रवाह	-11.404
▁स्किल	-11.4043
▁वर्जन	-11.4044
▁ट्रोल	-11.4044
▁लगेंगे	-11.4049
▁ब्रेन	-11.405
▁कटाई	-11.4051
▁ऊंचा	-11.4054
▁यु	-11.4056
आईसीयू	-11.4057
▁लगेगी	-11.4058
▁कामयाबी	-11.4059
नैतिक	-11.4061
सुनवाई	-11.4062
स्थायी	-11.4065
▁संवाददाता	-11.407
्सिल	-11.4073
▁सीआईए	-11.4076
ाइका	-11.4078
▁तेर	-11.4078
▁बरी	-11.408
चढ़ाव	-11.408
▁पितर	-11.408
▁हिंद	-11.4085
▁इंडिग	-11.4088
▁सावधान	-11.4089
sh	-11.409
्लाह	-11.4091
▁अफ	-11.4103
किर	-11.4103
जाना	-11.4103
▁हाजिर	-11.4105
्ण	-11.4107
▁सहाय	-11.4107
▁अड्डा	-11.4124
दाय	-11.4132
es	-11.4133
लिक	-11.4141
▁मैनेज	-11.4146
उषा	-11.4149
▁टूटी	-11.415
धी	-11.4154
▁सांप्रदायिक	-11.4154
▁अर्धशतक	-11.4154
▁ओवैसी	-11.4154
▁पेरेंट्स	-11.4154
▁हकीकत	-11.4154
▁कैलेंडर	-11.4154
▁नाजुक	-11.4154
▁टीजर	-11.4154
रमैया	-11.4154
▁दिगंबर	-11.4154
▁आरबीआई	-11.4154
▁चंपारण	-11.4154
▁स्टार्टअप	-11.4154
▁लॉन्ड	-11.4155
▁बदायू	-11.4155
▁भोला	-11.4156
▁बैरवा	-11.4156
▁कराएंगे	-11.4156
▁यादगार	-11.4157
▁हाजीपुर	-11.4157
▁स्पष्टीकरण	-11.4158
▁चर	-11.4159
▁गल	-11.416
▁कैथल	-11.4162
▁आंखें	-11.4164
▁श्रावण	-11.4166
▁2.0	-11.4166
▁बलराम	-11.4167
रवा	-11.4171
▁भराव	-11.4173
ची	-11.4177
▁डीजी	-11.4177
शीद	-11.4179
डीजल	-11.4179
मिट	-11.4185
▁कंडक्ट	-11.4185
▁अम	-11.4191
▁डिया	-11.4192
▁बादलों	-11.4193
▁न्यूज़	-11.4195
▁नंदन	-11.4196
▁हादस	-11.4198
▁पोते	-11.4199
▁7,	-11.42
▁1200	-11.4205
▁घटी	-11.4206
▁एनएस	-11.4208
▁उल	-11.4209
इल	-11.421
आईटीआई	-11.421
▁पीकर	-11.4211
▁अपनाया	-11.4212
ढ़ी	-11.4215
▁बसे	-11.4215
▁महंगी	-11.4224
एसटीएफ	-11.4226
▁ेशन	-11.4228
ैंडल	-11.4231
राव	-11.4235
▁अक	-11.4239
▁रैन	-11.4239
▁हैदर	-11.4239
▁Mar	-11.424
-5	-11.4246
▁भु	-11.4248
il	-11.4255
▁साद	-11.4256
▁रखत	-11.4261
▁आंगन	-11.4263
▁मनोकामना	-11.4272
वैकल्पिक	-11.4272
▁एमओयू	-11.4272
▁क्रिसमस	-11.4272
▁ड्रेन	-11.4272
▁राजनयिक	-11.4272
▁वर्कशॉप	-11.4272
▁विश्नोई	-11.4272
▁आंशिक	-11.4272
▁इटावा	-11.4272
▁कारीगर	-11.4272
▁रिजवान	-11.4272
▁बिगाड़	-11.4272
▁आराध्य	-11.4272
▁दवाइयां	-11.4272
▁गोपनीय	-11.4272
▁इटली	-11.4272
▁Har	-11.4273
▁रॉड	-11.4273
▁महासंघ	-11.4274
▁ईसाई	-11.4276
▁नीतू	-11.4276
▁राइज	-11.4276
▁स्प	-11.428
िलेंस	-11.4281
▁सिराज	-11.4281
▁बेबी	-11.4282
▁काउंसिलिंग	-11.4284
▁चंद्राकर	-11.4286
▁सलू	-11.4287
▁रैक	-11.4297
▁ऑडिट	-11.4297
▁फ्लॉ	-11.4297
छोटे	-11.4297
गठबंधन	-11.4297
▁असद	-11.4298
एसटी	-11.4299
▁थानेदार	-11.43
▁रमा	-11.4306
▁रॉक	-11.4306
▁सां	-11.4306
▁बोरी	-11.4306
▁बैर	-11.4308
▁लहरा	-11.4309
▁फे	-11.431
▁उत्पादक	-11.4311
▁कांत	-11.4312
▁नै	-11.4315
▁अकेल	-11.432
क्र	-11.4324
▁कै	-11.4335
▁मौन	-11.4336
ात्मा	-11.4345
▁रोते	-11.4345
ौरी	-11.4354
र्थ	-11.4354
▁चौड़ा	-11.4361
▁भला	-11.4362
▁मौल	-11.4362
श्च	-11.4367
▁लोहा	-11.4371
▁स्टडी	-11.4375
रेखा	-11.4378
▁लै	-11.4378
▁बोस	-11.4381
साई	-11.4382
भी	-11.4384
वर्ष	-11.4385
▁इत्यादि	-11.4391
▁द्रौपदी	-11.4391
▁माल्यार्पण	-11.4391
▁सांगानेर	-11.4391
▁ध्वजारोहण	-11.4391
▁माउंट	-11.4391
▁रोहिणी	-11.4391
▁RSS	-11.4391
▁सहभाग	-11.4391
▁कंटेंट	-11.4391
▁कॉर्पोरेशन	-11.4392
▁हल्का	-11.4392
▁चंपाई	-11.4392
▁एक्टिविटी	-11.4393
▁ाराम	-11.4393
▁भालू	-11.4394
▁अमृतपाल	-11.4394
▁धमकाया	-11.4394
▁वसु	-11.4395
▁इराद	-11.4395
▁शताब्द	-11.4396
▁चेंज	-11.4397
▁रिवर	-11.4397
इड	-11.4401
▁पीस	-11.4401
▁साहनी	-11.4401
देय	-11.4403
▁रुद्रा	-11.4406
▁जन्मभूमि	-11.4407
▁भत्ता	-11.4408
▁ठहर	-11.441
▁बहला	-11.4411
▁हेल्प	-11.4417
▁एनआईए	-11.4418
▁नारायणपुर	-11.442
्रो	-11.4421
▁कैर	-11.4422
प्रोफाइल	-11.4425
ड्	-11.4425
पुत्र	-11.4428
बैक	-11.4429
आरआई	-11.4451
▁वाइ	-11.4457
▁्ट	-11.4457
▁खरीदना	-11.4457
कोर	-11.4459
बहन	-11.446
▁घास	-11.4463
सिस	-11.4468
▁टेक्निक	-11.4473
नाबाद	-11.4474
▁चावला	-11.4477
लिया	-11.4477
नपुर	-11.4479
पे	-11.448
▁प्रवासी	-11.4484
ज्ञ	-11.4496
ta	-11.4499
ुणाल	-11.45
▁भन	-11.4506
▁प्रतिबद्ध	-11.451
स्‍ट	-11.451
▁खुदकुशी	-11.4511
क्रांत	-11.4511
▁(30)	-11.4511
▁अवशेष	-11.4511
▁होमगार्ड	-11.4511
▁अपग्रेड	-11.4511
▁धमकियां	-11.4512
▁टेनिस	-11.4512
▁तमिल	-11.4512
▁टूरिस्ट	-11.4512
▁मालिनी	-11.4513
▁बैलेट	-11.4514
▁बॉम्ब	-11.4514
-23	-11.4514
▁इज	-11.4514
▁प्रार्थ	-11.4515
▁कटाव	-11.4515
▁खपत	-11.4515
▁सट्टा	-11.4515
ल्ला	-11.4517
▁शेफ	-11.4519
▁बनवाया	-11.452
▁अवस्थी	-11.452
▁सज	-11.4523
▁चप्पल	-11.4523
ni	-11.4524
▁इंसाफ	-11.4526
▁हरप्रीत	-11.4527
▁वॉर	-11.4534
▁जतात	-11.4535
लिन	-11.4536
▁न्यास	-11.4538
▁झाड़िय	-11.4538
राष्ट्रपति	-11.454
एनडीपीएस	-11.4541
▁पंखे	-11.4548
चाल	-11.4552
▁लाहौ	-11.4557
▁पिट	-11.4561
▁तिर	-11.4569
▁प्लेन	-11.4577
▁सूर्या	-11.4582
▁भागे	-11.4587
लैंड	-11.4587
▁भव	-11.4597
▁रौंद	-11.4598
▁लड़े	-11.4605
▁अवनी	-11.4607
▁स्टार्ट	-11.4608
ेंदुआ	-11.4612
▁एयरलाइ	-11.4612
▁विद	-11.4613
▁3000	-11.4614
्रिड	-11.4618
▁रामा	-11.4619
▁गड़	-11.4625
क्षी	-11.4625
▁मोर्च	-11.4628
▁पंजी	-11.4629
▁जुर्मान	-11.4629
▁रश्मि	-11.4632
▁कंचन	-11.4633
▁दृढ़	-11.4633
▁जांजगीर	-11.4633
▁फ़ीसद	-11.4633
▁महायुत	-11.4633
▁विद्वान	-11.4633
▁बगीच	-11.4633
▁शावक	-11.4633
▁ओवरब्रिज	-11.4633
महाराणा	-11.4634
▁मुरली	-11.4634
▁चाइल्	-11.4634
▁धरोहर	-11.4634
▁आर्टिकल	-11.4637
▁आइडिया	-11.4638
▁शिष्य	-11.464
रेज	-11.4646
दु	-11.4646
▁स्क्रीनिंग	-11.4647
▁कॉ	-11.465
▁मनमानी	-11.4663
भक्ति	-11.4663
नायक	-11.4668
▁डिप्लोम	-11.4671
▁खैरा	-11.4683
▁स्कूटर	-11.4685
▁ष	-11.4693
मिडिल	-11.4697
▁उलझ	-11.4698
क़्त	-11.47
▁प्	-11.4702
-15	-11.4703
▁तेज़	-11.471
▁नवा	-11.4722
मेंस	-11.4739
▁on	-11.4742
▁व्यवस्थ	-11.4745
प्पा	-11.4745
▁(4	-11.4751
एनसीपी	-11.4753
▁ड्रॉ	-11.4755
har	-11.4756
RBI	-11.4757
▁news	-11.4757
▁फतह	-11.4757
▁मज़बूत	-11.4757
▁मर्चेंट	-11.4757
▁श्राद्ध	-11.4757
▁श्रृंखला	-11.4757
▁टूरिज्म	-11.4757
स्मैक	-11.4757
▁अथॉर	-11.4757
▁हलचल	-11.4757
▁पैटर्न	-11.4757
▁स्वभाव	-11.4757
▁जसवंत	-11.4757
थपथ	-11.4757
▁सहकारिता	-11.4758
▁रॉकेट	-11.4758
▁दही	-11.476
▁(18	-11.4761
SP	-11.4762
▁देवघर	-11.4763
▁पखवाड़	-11.4765
▁जरा	-11.4766
▁फ्रीज	-11.4769
▁ढह	-11.4772
▁ing	-11.4773
▁अथ	-11.4774
▁चलिए	-11.478
▁सेवादार	-11.4782
▁एज	-11.4782
▁टर	-11.4782
▁गुस्साए	-11.4784
▁रुका	-11.4785
दहाड़	-11.4787
अंदाज	-11.4788
उधर	-11.4789
▁परीक्षाएं	-11.4793
▁टॉपर	-11.4795
▁कॉम	-11.4797
बाज	-11.4798
कांड	-11.4801
▁फैसल	-11.4808
▁पड़त	-11.4808
फॉर्म	-11.4811
▁सलामी	-11.4815
▁काटे	-11.4815
ेकअप	-11.4816
दील	-11.4821
▁घटक	-11.4821
▁चैन	-11.4824
ंधन	-11.4824
.25	-11.4828
▁हर्षित	-11.483
▁सस्त	-11.484
▁लेखन	-11.484
▁ग्रै	-11.484
▁ड़िया	-11.484
ैत	-11.4843
▁एनसीसी	-11.4845
▁चिल	-11.4847
▁बनीं	-11.4849
▁रेन	-11.485
▁कबाड़	-11.4852
▁सकल	-11.4855
▁पीर	-11.4862
▁EV	-11.4865
▁सेमी	-11.487
▁बोग	-11.4874
▁रहीम	-11.4874
▁गड्	-11.4876
ताशा	-11.4877
▁बाउंड्री	-11.4879
▁उग	-11.4879
धि	-11.4879
▁जाह्नवी	-11.4882
▁डोटासर	-11.4882
▁धैर्य	-11.4882
▁निलंबन	-11.4882
▁सौगात	-11.4882
तृक	-11.4882
▁वाटिका	-11.4882
▁खुशहाल	-11.4882
▁पॉक्सो	-11.4882
▁बिजनौर	-11.4882
▁रायसेन	-11.4882
▁बृजभूषण	-11.4882
▁चक्रवर्ती	-11.4882
▁एफएसएल	-11.4882
▁ट्रम्प	-11.4882
▁जै	-11.4882
▁गंगाजल	-11.4883
▁चिंतित	-11.4883
▁अन्तर्	-11.4883
▁स्ट्रो	-11.4883
▁जौहर	-11.4883
▁रईस	-11.4883
▁कृत्य	-11.4884
▁बोनस	-11.4885
▁नौकर	-11.4886
▁मैरा	-11.4886
▁अभिजीत	-11.4888
▁सूट	-11.4888
व्हाट्सएप	-11.489
▁सफा	-11.4891
एंगे	-11.4892
▁खल	-11.4894
▁निराशा	-11.4895
ंस्ट्रक्शन	-11.4895
▁सोया	-11.4896
▁सीढ़	-11.4913
भि	-11.4914
▁‍	-11.4914
▁ऊँ	-11.4915
▁बग	-11.4916
▁शालि	-11.4917
पूरी	-11.4918
▁चैत	-11.492
▁मस्त	-11.4931
▁उत्	-11.4933
्दा	-11.4935
▁बान	-11.4935
▁ज्योतिर	-11.4935
▁राजभर	-11.4936
ंघ	-11.4938
ल्ट	-11.494
नीयत	-11.4948
▁उद	-11.4949
▁हरदा	-11.4952
▁ड्रि	-11.4955
▁नीत	-11.4955
▁हाट	-11.4956
हल	-11.4957
▁नाच	-11.4959
ीश	-11.496
▁Ar	-11.4961
▁टेक्स	-11.4965
्‍ड	-11.4969
▁विश	-11.4975
▁मराठी	-11.4976
▁गौड़	-11.4977
▁छि	-11.498
▁अमृता	-11.4987
▁सेक्स	-11.4988
जल	-11.4996
फी	-11.5
▁विजिट	-11.5002
▁उतनी	-11.5002
ाणिक	-11.5003
▁पादुकोण	-11.5008
▁मन्दिर	-11.5008
▁हावड़ा	-11.5008
▁प्रधानाध्याप	-11.5008
▁पल्लव	-11.5008
यूनाइटेड	-11.5008
▁पॉजि	-11.5008
▁महामंडलेश्वर	-11.5008
▁निष्ठा	-11.5009
▁मसीह	-11.5009
▁(1)	-11.5009
▁हिजबुल	-11.5009
▁जलाभिषेक	-11.5009
▁गुरमीत	-11.5009
▁दमोह	-11.5009
▁हिमंत	-11.5009
▁रविशंकर	-11.501
▁भिजवाया	-11.501
▁डिंपल	-11.5011
▁सिंहभूम	-11.5011
▁(24)	-11.5014
▁सरफ	-11.5014
▁यूके	-11.5015
▁मिल्क	-11.5015
विधिक	-11.5016
▁बॉबी	-11.5017
गाम	-11.5017
किन	-11.502
▁निर्देशों	-11.5026
▁अधिकृत	-11.5029
▁कस्टमर	-11.5039
ावत	-11.5039
▁कटरा	-11.504
▁लिव	-11.5042
▁अर्	-11.505
▁जही	-11.5052
रूद्ध	-11.5052
▁कंप	-11.5061
सीबीएसई	-11.5063
▁बंट	-11.5067
▁निबंध	-11.5067
▁पौर	-11.5067
▁बीट	-11.5069
ेडिंग	-11.507
▁हू	-11.5071
▁धु	-11.5076
us	-11.5082
िओम	-11.5082
▁सिमट	-11.5082
▁पंख	-11.509
▁मेहर	-11.5098
▁यूडीए	-11.51
▁एजेंड	-11.5103
फोन	-11.5107
▁अग	-11.5113
ांश	-11.5123
▁सिखा	-11.5127
▁अभियोज	-11.5127
ग्	-11.5128
▁Ma	-11.5128
▁हस	-11.513
is	-11.5134
ोट	-11.5136
▁सदा	-11.5136
स्कृत	-11.5136
▁Kapoor	-11.5136
▁अफ़ग़ान	-11.5136
▁इंश्योरें	-11.5136
▁उफान	-11.5136
▁कुख्यात	-11.5136
▁ख़ुद	-11.5136
श्वस्त	-11.5137
SHO	-11.5137
▁ईदगाह	-11.5137
▁निम्न	-11.5137
▁वाहिनी	-11.5137
▁बड़वानी	-11.5137
▁झूल	-11.5138
▁संबद्ध	-11.5139
▁गलिय	-11.5139
▁संग्राम	-11.514
▁घुसा	-11.514
▁रावल	-11.5141
▁अब्बास	-11.5141
ंध	-11.5143
▁सगे	-11.5143
▁डेंट	-11.5144
▁बचाओ	-11.5145
▁परंपरागत	-11.5145
▁दंते	-11.5148
▁परिहार	-11.5153
▁-3	-11.5154
▁बैंकिंग	-11.5158
▁पूर्ति	-11.516
▁पात्रता	-11.5164
▁बिखरा	-11.5166
▁पहनाकर	-11.5166
▁वेव	-11.5169
▁बीपी	-11.5169
▁12:	-11.5172
▁मेह	-11.5175
दरा	-11.5179
▁शीट	-11.5184
इंडिया	-11.5184
▁क्लीनिक	-11.5185
▁भट	-11.5187
ाधीन	-11.5188
▁िन	-11.5189
▁2003	-11.5197
▁लोको	-11.5204
▁मीडिय	-11.5208
▁करौली	-11.521
▁650	-11.5222
▁पक्षी	-11.5222
▁रघु	-11.5226
▁लखी	-11.5235
पु	-11.5237
द्द	-11.5241
▁आसिफ	-11.5244
▁लिखत	-11.5245
▁उग्र	-11.5255
▁1.8	-11.5256
▁वेयर	-11.526
▁इक	-11.5265
ंव	-11.5266
▁एपिसोड	-11.5266
▁ज़िम्मेदार	-11.5266
▁सर्वसम्मत	-11.5266
▁कन्नौज	-11.5266
▁इकाइय	-11.5266
▁उन्नाव	-11.5266
▁सुपरवाइज	-11.5266
▁फरीदकोट	-11.5267
▁प्रमोट	-11.5267
▁साजिद	-11.5268
▁खत्री	-11.5269
एसडीआरएफ	-11.5269
मत	-11.5269
▁जर	-11.5269
▁पुनीत	-11.527
▁प्रसारण	-11.527
▁बीएसपी	-11.527
▁झूठी	-11.5271
▁कांग्रेसी	-11.5272
▁130	-11.5275
▁ट्रैवल	-11.5275
▁खेप	-11.5275
▁हारे	-11.5275
▁ग्राफ	-11.5278
▁आफ	-11.5279
ज़ा	-11.5281
सप्रीत	-11.5281
▁टाइप	-11.5283
ानक	-11.5286
▁ईवी	-11.5287
▁आहार	-11.5291
▁वीसी	-11.5291
▁एवज	-11.5292
IPS	-11.5292
▁पुरम	-11.5295
60	-11.5296
▁खाक	-11.5299
▁तिराहा	-11.53
▁बागी	-11.53
▁रेटिंग	-11.5303
गांठ	-11.5304
स्वरूप	-11.5305
▁दरिया	-11.5305
▁झेलन	-11.5306
थोक	-11.5314
▁राई	-11.5318
▁तब्	-11.5321
ावती	-11.5327
▁ठिकाने	-11.5333
28	-11.5335
▁रिकॉर्डिंग	-11.5342
▁डीडी	-11.5351
निर्देश	-11.5355
▁Shar	-11.5359
▁ौली	-11.536
टेल	-11.536
पक्ष	-11.5363
et	-11.5365
▁विजन	-11.5366
▁क्री	-11.5369
▁जोड़ो	-11.5372
प्रदाय	-11.5383
बीएसई	-11.5387
▁िय	-11.5389
▁p	-11.5389
▁जटिल	-11.5389
▁औपचारिक	-11.5389
ग्रिम	-11.5391
▁चिह्न	-11.5391
▁प्रजापत	-11.5392
▁वर्	-11.5396
▁छुड़ा	-11.5397
क्रमण	-11.5397
▁पुष्य	-11.5398
▁टॉयलेट	-11.5398
▁सर्राफ	-11.5398
▁वर्चुअल	-11.5398
▁पिंजर	-11.5398
▁ग्रोथ	-11.5398
▁हूँ	-11.5398
▁बंदरगाह	-11.5398
▁बदबू	-11.5398
▁(21	-11.5399
▁स्वदेश	-11.5399
▁माँ	-11.5402
डिस्ट्रिक्ट	-11.5402
▁मण्डल	-11.5403
▁भूखंड	-11.5403
▁भर्तिय	-11.5403
2006	-11.5404
▁सेंचुरी	-11.5404
▁जनरेट	-11.5409
पथ	-11.5412
पक्का	-11.5412
DA	-11.5412
▁झुक	-11.5413
▁हिमालय	-11.5414
▁चुनी	-11.5414
▁घड़ी	-11.5415
सिन	-11.5423
▁कैम	-11.5424
▁रूक	-11.5425
ाला	-11.543
▁श्रेयस	-11.5433
▁बेचे	-11.5443
डू	-11.5444
▁किला	-11.5447
मेरे	-11.5453
▁नौकरिय	-11.5458
▁जगा	-11.5459
▁घेरे	-11.546
▁चंद्रम	-11.5462
▁जीतन	-11.5463
▁पुराण	-11.5464
▁स्टा	-11.5465
▁साइज	-11.5472
ंगे	-11.5482
▁बू	-11.5496
▁वंदन	-11.5497
▁एकल	-11.55
ोद	-11.5503
वेदन	-11.5515
▁रची	-11.5516
▁रोमांचक	-11.5517
▁ण	-11.552
▁मू	-11.5521
▁ट्रिप	-11.5522
▁तिरुपत	-11.5523
▁लाड	-11.5531
▁विविध	-11.5531
▁अनुष्का	-11.5531
▁मसूद	-11.5531
▁महासमुंद	-11.5531
▁साकेत	-11.5531
▁तंवर	-11.5531
▁ऑडिटोरियम	-11.5531
▁नॉर्मल	-11.5531
▁मतभेद	-11.5531
▁बद्री	-11.5532
▁धनखड़	-11.5533
▁विनायक	-11.5533
▁बालोद	-11.5533
▁सीमावर्ती	-11.5533
▁रेडियो	-11.5533
▁कुंदन	-11.5533
▁प्रशिक्षु	-11.5534
▁कैंपेन	-11.5535
▁स्त	-11.5536
▁बटोर	-11.5537
▁मिक्स	-11.5537
▁दुर्गेश	-11.5538
▁धमाका	-11.554
▁दाह	-11.5543
▁घोर	-11.5543
▁खाया	-11.5545
▁संतुष्ट	-11.5546
▁राठी	-11.5549
▁संरक्षित	-11.5552
गोंडा	-11.5554
4)	-11.556
▁एक्सपर्ट्स	-11.5561
राइस	-11.5561
▁मुर्ग	-11.5564
▁श्रीकांत	-11.5565
▁मिटा	-11.5566
डन	-11.5567
▁पेंट	-11.5571
जैसे	-11.5575
▁भुल	-11.5575
कूद	-11.5578
▁बाण	-11.5581
टेशन	-11.5581
▁सानि	-11.5585
▁लहू	-11.5591
ैकेट	-11.5594
▁रान	-11.5598
एफसी	-11.5603
OS	-11.5608
यु	-11.5615
बीएनएस	-11.5622
आईटी	-11.5625
▁पाक	-11.5626
ST	-11.5628
ैद	-11.5631
▁तिराह	-11.5631
▁खोकर	-11.5633
▁समझना	-11.5646
▁प्रियांश	-11.5647
▁प्रशिक्ष	-11.5652
वारा	-11.5653
▁ट्रेनर	-11.5656
▁डोल	-11.5656
-0	-11.5664
देहरादून	-11.5666
▁अक्तूबर	-11.5666
▁अरशद	-11.5666
▁ज्वैलर	-11.5666
▁टर्मिनस	-11.5666
▁फंक्शन	-11.5666
▁फैकल्टी	-11.5666
▁यूनुस	-11.5666
▁मुफस	-11.5666
▁सुहाग	-11.5666
▁रिम्स	-11.5666
रामविलास	-11.5666
▁सम्बन्ध	-11.5666
▁अस्थिर	-11.5667
▁स्वीप	-11.5668
▁हटने	-11.5668
▁शंकराचार्य	-11.5668
▁मालीवाल	-11.5668
▁अर्जित	-11.5668
▁ब्रजेश	-11.5669
▁ठहराव	-11.5669
▁इंकार	-11.5669
▁1984	-11.567
इंडेक्स	-11.5674
▁जीवंत	-11.5674
▁भंडारण	-11.5674
हानि	-11.5674
ेक्ट	-11.5675
▁सेलेब्	-11.5679
▁रजक	-11.5679
ंधरा	-11.568
ूति	-11.5682
यूं	-11.5685
▁पहलू	-11.5686
▁अपार	-11.5687
घात	-11.5689
▁चिप	-11.5689
▁पू	-11.5691
ाँ	-11.5696
▁घुसपैठ	-11.5701
ox	-11.5703
▁उपास	-11.5705
▁रामदेव	-11.5706
▁ज़िल	-11.5709
टेक्निक	-11.5709
▁तलब	-11.571
▁डीएवी	-11.571
स्तरीय	-11.571
दूत	-11.5715
▁लीगल	-11.5719
▁पेट्रोलिंग	-11.5723
ul	-11.5726
षा	-11.5729
▁पॉली	-11.573
▁अत	-11.5734
▁बंटवारा	-11.5735
स्व	-11.5735
ाघाट	-11.5741
▁मिट्	-11.5757
वाया	-11.5758
▁ढूंढने	-11.5762
▁डेम	-11.5763
▁4,	-11.5764
▁साइ	-11.5765
ंकित	-11.5766
▁दबोच	-11.5768
▁फ़ैसल	-11.5768
▁निपटा	-11.5774
▁वड़	-11.5788
▁एमबीए	-11.579
▁पिल	-11.5793
▁अधि	-11.5794
लकर	-11.5795
▁गोंड	-11.5796
▁MM	-11.58
▁कट्ट	-11.58
▁Price	-11.5802
कबड्डी	-11.5803
▁मुआयना	-11.5803
▁मुहिम	-11.5803
▁हितग्राह	-11.5803
▁चिट्ठी	-11.5803
▁श्रुत	-11.5803
▁अनाउंस	-11.5803
चैंपियंस	-11.5804
▁डेस्क	-11.5804
▁मैनपुरी	-11.5804
▁पार्टनरशिप	-11.5805
▁रफी	-11.5805
नाट्य	-11.5805
▁अभद्र	-11.5805
▁चुनौतियां	-11.5806
▁विस्थापित	-11.5806
▁भानु	-11.5807
स्फी	-11.5807
▁बीएड	-11.5807
▁1989	-11.5807
▁चौरा	-11.5808
▁गुफा	-11.5809
▁बापू	-11.581
1998	-11.581
▁4-5	-11.581
▁AQI	-11.5811
▁जीप	-11.5811
▁लंगर	-11.5813
▁उपाध	-11.5813
▁मर्याद	-11.5813
▁वान	-11.5814
क्शन	-11.5817
-12	-11.5818
▁सिकर	-11.5819
▁देवरिया	-11.582
▁कम्पन	-11.5823
रक्षा	-11.5823
▁एडवाइजरी	-11.5824
हान	-11.583
▁डीएन	-11.5833
सुदर्शन	-11.5835
▁बहनें	-11.5835
▁कैफे	-11.5838
▁दिवा	-11.5839
▁लाइटिंग	-11.584
▁तबाही	-11.5843
▁ेस	-11.5848
▁गलौज	-11.585
▁क्रिया	-11.5851
▁Go	-11.5853
वरा	-11.5853
▁(26	-11.5855
बिलिटी	-11.5861
▁जरूरतमंद	-11.5861
ेंडर	-11.5874
▁चौड़ी	-11.5877
▁तम	-11.5877
▁रिक	-11.5879
▁उतरा	-11.5884
ोदर	-11.5886
▁अमला	-11.5893
▁ां	-11.5894
▁पूरन	-11.5894
बो	-11.5901
▁डॉक्यूमेंट	-11.5902
▁तौ	-11.5908
िगत	-11.5908
▁वीडी	-11.591
▁शक्तिय	-11.5911
पू	-11.5912
▁सहेल	-11.5913
फ़ा	-11.5918
▁रामजी	-11.592
झा	-11.5921
▁ब्रे	-11.5923
ीदा	-11.5924
99	-11.5929
▁रै	-11.5931
ोप	-11.5933
▁कैथ	-11.5934
▁बांटा	-11.5935
▁विजयी	-11.5937
▁शुक्र	-11.5939
▁स्टॉप	-11.5941
▁मेट	-11.5942
त्तीर्ण	-11.5942
▁Video	-11.5942
▁डिस्काउंट	-11.5942
▁देवांगन	-11.5942
▁पदयात्रा	-11.5942
▁फिलिस्तीन	-11.5942
▁शहादत	-11.5942
▁सुपारी	-11.5942
▁कयास	-11.5942
▁कोठारी	-11.5942
▁अबतक	-11.5943
▁अंपायर	-11.5943
▁खट्टर	-11.5943
▁लड़ाक	-11.5943
▁बीजापुर	-11.5943
▁रौशन	-11.5943
▁फॉरेस्ट	-11.5943
▁चैत्र	-11.5943
▁जिम्मा	-11.5943
▁प्रतिनियुक्त	-11.5944
▁आदमपुर	-11.5945
▁प्रमंडल	-11.5945
▁चिकन	-11.5945
▁हिंडन	-11.5945
▁रिटायरमेंट	-11.5945
▁श्मश	-11.5945
▁नवल	-11.5945
▁लम्ब	-11.5946
▁डमी	-11.5946
▁बीएससी	-11.5947
▁सूबे	-11.5947
▁चरम	-11.5948
ैरिएंट	-11.5949
▁शटर	-11.5951
▁विविधता	-11.5951
बीसीसीआई	-11.5951
धाकड़	-11.5954
▁फोरम	-11.5956
▁दसवीं	-11.5957
▁सलाम	-11.5958
▁विस्फोटक	-11.5959
26	-11.596
▁जैक	-11.5961
लायंस	-11.5967
▁रबी	-11.5972
▁उत्साहित	-11.5982
▁सत्यम	-11.5985
पीआई	-11.5985
दृश्य	-11.5989
गृह	-11.599
्नी	-11.5993
▁लेगा	-11.5996
-7	-11.5999
फुल	-11.6
▁चौर	-11.6004
▁थमा	-11.6013
▁स्थ	-11.6016
▁कोष	-11.602
▁सपन	-11.6022
▁बाड़	-11.6023
▁सती	-11.6027
898	-11.6027
▁मुला	-11.6028
▁बहने	-11.6029
▁सेतु	-11.6033
▁फ्ल	-11.6036
▁दृष्ट	-11.6037
▁सदम	-11.6045
ँच	-11.605
▁सैन	-11.6059
सिया	-11.6059
▁फाइनें	-11.606
▁फ्लाइ	-11.6063
वीन	-11.6068
▁फार	-11.6073
▁दांत	-11.6075
▁होर्डिंग	-11.6076
▁DC	-11.6078
▁नजार	-11.6082
▁रस्म	-11.6083
पाटलिपुत्र	-11.6083
बालोतरा	-11.6083
▁Singh	-11.6083
▁VIDEO	-11.6083
▁उपद्रव	-11.6083
▁एनओसी	-11.6083
▁प्रचंड	-11.6083
▁अलॉट	-11.6083
▁सद्भाव	-11.6083
▁प्रतिद्वंद्व	-11.6083
▁फीडबैक	-11.6083
▁सशक्तिकरण	-11.6083
▁किन्नर	-11.6083
▁जिहाद	-11.6083
▁लॉटरी	-11.6083
षाढ़	-11.6083
▁चड्ढा	-11.6083
▁हजरत	-11.6084
▁गाया	-11.6084
▁अहसास	-11.6084
▁हैप्पी	-11.6084
नियामक	-11.6084
रिफिकेशन	-11.6085
▁ख़तर	-11.6085
▁सिंघल	-11.609
▁हाजी	-11.6092
▁बादशाह	-11.6093
▁मसाला	-11.6096
▁चीज़	-11.6098
▁गर्भ	-11.6099
न्न	-11.61
▁अजग	-11.6102
▁डूंगर	-11.6104
▁फु	-11.6104
25	-11.6109
▁एयरलाइन	-11.611
▁कल्कि	-11.6111
▁माथा	-11.6113
▁मारवाड़	-11.6113
ly	-11.6115
▁मंगला	-11.6115
▁माप	-11.6118
पद्मश्री	-11.6118
j	-11.6119
▁एडीजी	-11.612
▁कांच	-11.6124
ॉलीवुड	-11.6127
खाड़	-11.6129
पेड	-11.6132
विधान	-11.6132
▁मधुर	-11.6135
डो	-11.6137
रोकर	-11.6137
ाणा	-11.614
▁भड़का	-11.614
▁स्टार्स	-11.614
ंजलि	-11.6141
▁पलक	-11.6142
▁औच	-11.6148
▁बेर	-11.6153
एगा	-11.6154
▁पॉल	-11.6158
िमा	-11.6159
चर्य	-11.6161
▁कॉम्प	-11.6171
▁ट्री	-11.6174
▁बचें	-11.6175
▁वृष	-11.6182
▁चलना	-11.6182
▁अश्व	-11.6185
▁मिस्त्	-11.6187
▁डीप	-11.6189
़े	-11.6198
िहाड़	-11.6199
खी	-11.6201
ंदर	-11.6201
▁105	-11.6205
Y	-11.6206
ट्रेस	-11.6207
▁Ja	-11.6209
वारी	-11.6211
▁व्याख्या	-11.6212
▁मौतें	-11.6215
भिषेक	-11.622
▁चेत	-11.6221
▁टेंशन	-11.6223
▁भिजवा	-11.6224
▁अत्याधुनिक	-11.6226
▁कुरैशी	-11.6226
▁चातुर्	-11.6226
▁ट्रीटमेंट	-11.6226
▁फ़लस्तीन	-11.6226
▁ब्रॉन्ज	-11.6226
▁भौतिक	-11.6226
▁मास्टरमाइंड	-11.6226
▁मिलीभगत	-11.6226
▁हंगामे	-11.6226
संशोधित	-11.6226
▁एथलेटिक	-11.6226
▁मंदसौर	-11.6226
▁शहजाद	-11.6226
▁ट्रूडो	-11.6226
▁रसीद	-11.6226
▁ऑक्शन	-11.6226
▁कावड़	-11.6226
▁शिप्रा	-11.6227
▁रिसीव	-11.6227
▁समुच	-11.6227
▁मूर्तियां	-11.6229
▁ओंकार	-11.623
▁रीड	-11.6231
▁(20)	-11.6231
▁कार्यपालक	-11.6231
्‍व	-11.6231
▁घुमा	-11.6235
▁देखेंगे	-11.6236
▁प्रशिक्षक	-11.6237
▁डीके	-11.6238
▁झूठा	-11.6241
जुल	-11.6243
▁परोस	-11.6252
▁बॉक्सिंग	-11.6257
▁IT	-11.6257
▁युवतिय	-11.6257
ंजय	-11.626
▁साफ़	-11.6264
▁मत्	-11.6264
कौन	-11.6265
▁एजेंडा	-11.6265
ौर्य	-11.6266
▁आद	-11.6268
यो	-11.627
▁गंड	-11.6271
▁(5	-11.6272
गान	-11.6279
▁तरीक	-11.6281
▁टॉक	-11.6281
▁नशीला	-11.6292
ॉइंट	-11.6293
िणी	-11.6295
▁धनते	-11.6303
▁गड़बड़	-11.6305
▁बिठा	-11.6306
▁मॉ	-11.6308
man	-11.6309
▁माम	-11.6315
▁बं	-11.6318
सिटी	-11.6319
न्द	-11.6323
-16	-11.6334
▁5%	-11.6338
▁t	-11.634
▁शिक्ष	-11.6348
▁खरे	-11.635
ैलजा	-11.6351
वंश	-11.6356
छोर	-11.6358
▁रोच	-11.6358
▁डिस्क	-11.6361
▁रेज	-11.6362
▁11:	-11.6363
▁बाव	-11.6364
▁जिसमे	-11.6367
▁निका	-11.6369
▁व्यंजन	-11.6371
स्क्रिप्ट	-11.6371
▁नेतन्याहू	-11.6371
▁रथयात्रा	-11.6371
▁एग्रीकल्चर	-11.6371
▁कूटनीति	-11.6371
▁रघुवंशी	-11.6371
▁माधुरी	-11.6371
▁भस्म	-11.6371
▁बरौनी	-11.6371
▁साध्व	-11.6372
▁सर्कुल	-11.6372
▁हिज़	-11.6372
▁संकाय	-11.6372
▁मेमोर	-11.6372
▁फ्यूल	-11.6372
▁संसार	-11.6372
स्लीपर	-11.6373
▁ड्राई	-11.6373
▁पूर्वांचल	-11.6373
▁रौनक	-11.6373
▁वॉशिंग	-11.6374
▁बीना	-11.6375
▁पॉपुलर	-11.6375
कड़	-11.6375
▁प्रि	-11.6376
▁रीति	-11.6377
▁बलविंदर	-11.6378
▁क्लेम	-11.6379
est	-11.638
▁अभियोजक	-11.6382
▁मैक्स	-11.6382
▁बरामदगी	-11.6384
▁सुज	-11.6385
▁2002	-11.6387
▁कल्याणकारी	-11.6389
6)	-11.6393
माता	-11.6394
▁झांक	-11.6394
▁घूमत	-11.6395
़र	-11.6397
ट्टा	-11.6399
्ला	-11.6401
▁मौ	-11.6407
▁टेकर	-11.6407
▁कार्	-11.6414
प्रभावशाली	-11.642
▁देशी	-11.6421
▁पड़ते	-11.6423
दत्त	-11.6425
निकेत	-11.6429
▁झांस	-11.6431
▁AD	-11.6431
▁भगवा	-11.6432
▁नहा	-11.6433
▁वायर	-11.6434
सेफ	-11.6436
▁चंब	-11.6436
ोगे	-11.6437
▁हाइ	-11.6439
▁जूल	-11.6448
वाइड	-11.6448
ol	-11.6448
घा	-11.645
▁सिद्धा	-11.6453
बाजी	-11.6455
▁पीएससी	-11.6461
▁सना	-11.6462
▁वाक	-11.6462
▁एमजी	-11.6462
पीएससी	-11.6465
▁240	-11.647
▁सौंपे	-11.6471
▁बलि	-11.6473
▁r	-11.6474
ात	-11.6481
बीसी	-11.6486
▁750	-11.6486
ुशासन	-11.6487
▁भंडारी	-11.6487
▁भो	-11.6491
▁फ्रेंड	-11.6496
लेंस	-11.6496
एसपी	-11.6498
▁Su	-11.6505
▁कैपिटल	-11.6511
▁बोट	-11.6511
ेला	-11.6514
▁धनु	-11.6515
▁वेल	-11.6516
▁संवेदना	-11.6518
▁Office	-11.6518
▁उज्जवल	-11.6518
▁स्टूडियो	-11.6518
मिलिट्री	-11.6518
▁जगदलपुर	-11.6518
▁महबूब	-11.6518
▁बुलंद	-11.6518
▁बुरे	-11.6519
▁मिसाल	-11.652
▁तानाशाह	-11.652
▁पीआर	-11.6521
▁तेवर	-11.6521
▁यूजीसी	-11.6521
▁लाभुक	-11.6521
▁नीलेश	-11.6522
चांपा	-11.6523
▁श्रीनिवास	-11.6523
▁सुहान	-11.6526
▁अंजलि	-11.6528
▁मंग	-11.6529
▁सीखा	-11.653
▁पेंशनर	-11.653
▁मॉक	-11.653
▁स्टी	-11.6531
▁क्रूज	-11.6532
▁गिराया	-11.6534
िबिलिटी	-11.6534
▁इंदर	-11.6537
ात्कार	-11.654
▁चेज	-11.6541
▁अपनाएं	-11.6542
जवाहरलाल	-11.6543
▁कॉमन	-11.6544
▁प्रत्यक्ष	-11.6547
.05	-11.6548
▁नंदी	-11.655
▁रूल	-11.6552
▁एक्‍स	-11.6552
▁उगा	-11.6554
▁ट्राली	-11.6554
▁डायरिया	-11.6554
▁देन	-11.6556
▁हत	-11.6557
▁क्लियर	-11.6559
▁फी	-11.6559
▁बताएं	-11.656
▁ठेल	-11.6561
re	-11.6562
▁चिट	-11.6563
▁190	-11.6569
बेल	-11.6569
.40	-11.6573
शुल्क	-11.6573
▁स्पा	-11.6573
सामाजिक	-11.6574
विदेश	-11.6574
गोष्ठ	-11.6574
▁दौड़ा	-11.6575
▁रिज	-11.6579
▁रक्षक	-11.6586
▁रचा	-11.6593
▁राजस्थानी	-11.66
▁भुगतन	-11.6601
न्नू	-11.6605
एनआई	-11.6605
▁बारी	-11.6607
▁ीकरण	-11.6608
ढ़ा	-11.6609
ीमन	-11.6611
▁भेड़	-11.6616
▁त्योहारों	-11.6619
▁नाश	-11.662
▁पटक	-11.6622
▁वध	-11.6624
▁Appl	-11.6627
▁निचल	-11.663
▁नू	-11.6631
▁लक्ष	-11.6632
संत	-11.6637
co	-11.6638
फाई	-11.6639
▁3.5	-11.664
▁दुश्मनी	-11.6646
सीआरपीएफ	-11.6646
र्व	-11.6652
▁गढ़ी	-11.6656
ोरल	-11.6656
▁प्रताड़	-11.666
▁कंस	-11.6661
िलियन	-11.6664
▁Update	-11.6666
▁वन्यजीव	-11.6667
▁शृंगार	-11.6667
▁जशपुर	-11.6667
▁शहडोल	-11.6667
▁कांफ्रेंस	-11.6667
तपस्या	-11.6667
▁बिस्वा	-11.6667
▁इस्माइल	-11.6667
▁बांगड़	-11.6667
▁कत्ल	-11.6668
▁शीतलहर	-11.6668
▁मैहर	-11.6668
▁जलाशय	-11.6668
▁गोकुल	-11.6669
▁बांदा	-11.6669
▁नौकरियां	-11.667
▁रुकवा	-11.6671
▁पालीवाल	-11.6672
▁प्रतिस्पर्धा	-11.6674
▁टर्म	-11.6676
▁असीम	-11.6676
▁जेठ	-11.6677
▁नियोजन	-11.6678
▁डीईओ	-11.6678
▁to	-11.6678
▁सरमा	-11.6679
▁डाइट	-11.6679
कप्तान	-11.668
▁सुषम	-11.6682
▁एमए	-11.6683
▁In	-11.6683
धीश	-11.6684
फंड	-11.6685
▁केसर	-11.6685
▁संभावनाएं	-11.6687
आयरलैंड	-11.6689
हानुभ	-11.669
▁बांक	-11.669
▁बरती	-11.669
▁ठहरा	-11.6692
▁गोध	-11.6692
▁नमो	-11.6698
▁बुद्धि	-11.6701
▁डांगी	-11.6702
▁सिंघा	-11.6705
अर	-11.6708
कुमारी	-11.6709
र्च	-11.6711
▁सड़	-11.6712
साल	-11.6714
▁मंगा	-11.6718
▁जिम्	-11.6719
छात्राएं	-11.6725
▁7.5	-11.6725
संचार	-11.6725
▁मेष	-11.6728
निर्माण	-11.6733
संघ	-11.6733
▁अंजन	-11.6737
▁g	-11.6748
▁115	-11.6751
▁मुनी	-11.6752
ाती	-11.6753
▁अं	-11.6754
wa	-11.6754
▁डीग	-11.6755
क्रेन	-11.6756
कम	-11.6762
तरह	-11.6764
▁चौराह	-11.6771
मीत	-11.6776
▁चौपा	-11.6778
ांतर	-11.6778
▁1.3	-11.6779
▁रुकी	-11.6783
▁गि	-11.679
CP	-11.6793
▁हाफ	-11.68
▁खासा	-11.6805
▁मुहर	-11.6809
मंद	-11.681
▁देवा	-11.681
▁मची	-11.6814
▁प्रज्ञ	-11.6815
लू	-11.6816
गुवाहाटी	-11.6819
▁इमोशनल	-11.6819
▁मुक़ाबल	-11.6819
▁सबकुछ	-11.6819
▁पद्धति	-11.6819
▁माओवाद	-11.6819
▁पार्थिव	-11.6819
▁मिजाज	-11.6819
▁लॉन्ग	-11.6819
▁वासुदेव	-11.6819
▁अर्बन	-11.6819
▁असमर्थ	-11.6819
▁बैलेंस	-11.6819
▁लाइंस	-11.6819
▁सिंघवी	-11.6819
▁पॉवर	-11.682
▁माय	-11.6821
▁मिच	-11.6821
▁सरयू	-11.6822
▁धंस	-11.6824
▁कष्ट	-11.6824
▁स्ट्रा	-11.6826
▁दवाएं	-11.6827
▁Ke	-11.6829
▁धनुष	-11.6831
▁ट्विटर	-11.6831
▁निपटारा	-11.6834
▁लोकप्रियता	-11.6834
▁सतर्कता	-11.6836
▁नं	-11.6838
बड़ी	-11.6839
▁गोप	-11.684
लेयर	-11.6841
▁हारी	-11.6842
▁संगठ	-11.6845
द्र	-11.6845
▁कौ	-11.6848
▁कुंडली	-11.6848
▁अधूरा	-11.6849
▁बिगड़ी	-11.6853
जीडीपी	-11.6859
ातल	-11.6862
▁उलट	-11.6863
▁मुल	-11.6866
▁कांटे	-11.6866
▁3:	-11.6866
ac	-11.687
▁चक्रवाती	-11.6871
▁अस्थ	-11.6876
कहीं	-11.6879
गाह	-11.6881
द्धार	-11.6884
ठिया	-11.6885
आइ	-11.6889
▁आरपी	-11.6895
▁सुधांश	-11.6908
पैर	-11.6911
▁टै	-11.6912
▁पढ़ाने	-11.6914
▁999	-11.6914
▁दत्ता	-11.6918
▁आश	-11.6926
AI	-11.6928
▁रोमां	-11.6939
▁फो	-11.6939
▁अलाव	-11.6942
▁दिलचस्पी	-11.6942
▁फेक	-11.6946
▁पालना	-11.6947
▁जाली	-11.6948
▁प्लेस	-11.6949
र्मिला	-11.6957
▁पेशे	-11.696
▁पहुंचाई	-11.6962
रेन	-11.6965
ंबेडकर	-11.6967
▁भांज	-11.6968
ak	-11.6969
han	-11.697
▁कतर	-11.6972
▁स्ट्रक्चर	-11.6972
▁कीटनाशक	-11.6973
▁दिल्‍ली	-11.6973
▁धांधल	-11.6973
▁बाराबंकी	-11.6973
▁भाद्रपद	-11.6973
▁मालगाड़ी	-11.6973
▁सौहार्द	-11.6973
▁कॉमर्शियल	-11.6973
▁पाकिस्‍तान	-11.6973
▁सुकमा	-11.6973
▁उस्मान	-11.6973
▁रेगुल	-11.6973
▁चतरा	-11.6973
▁मरांडी	-11.6973
▁इनेलो	-11.6973
▁तत्पर	-11.6973
▁चादर	-11.6973
▁हाईकमान	-11.6973
अक्षत	-11.6973
▁संग्रहालय	-11.6973
▁पगड़ी	-11.6973
▁एल्वि	-11.6974
▁संधू	-11.6975
▁मीर	-11.6976
▁कैडेट	-11.6976
भीत	-11.6976
▁कन्हैयालाल	-11.6977
▁गोबर	-11.6977
बरनाला	-11.6978
▁गगन	-11.6978
▁चन्द	-11.6979
▁अरमान	-11.6979
ललन	-11.6981
▁म्यांमार	-11.6981
▁कांकेर	-11.6981
▁जुटाए	-11.6981
कालत	-11.6981
ai	-11.6981
▁दबदबा	-11.6981
▁बराड़	-11.6981
शाम	-11.6983
डीएफओ	-11.6984
▁विजया	-11.6985
▁नमूने	-11.6986
्योर	-11.6989
▁ओल	-11.6993
▁लाड़	-11.6995
▁नुमा	-11.6998
▁रेकी	-11.6999
▁स्वर	-11.7
▁दाहिन	-11.7001
▁क्रूर	-11.7005
▁रेशम	-11.7008
▁खार	-11.7009
▁गोह	-11.7018
▁दबोचा	-11.7019
हिना	-11.7019
▁IMD	-11.702
▁देशवास	-11.7026
ाइफ	-11.7027
क्त	-11.703
▁विकेटकीपर	-11.7036
▁व्यू	-11.7039
▁शर	-11.7039
अब	-11.7041
न्यु	-11.7053
▁An	-11.7057
▁लगन	-11.706
ट्ठ	-11.7061
मागम	-11.7063
▁कोतवाल	-11.7065
▁होल्ड	-11.7068
▁गोष्ठ	-11.7071
प्	-11.7075
▁अंध	-11.7081
ामू	-11.7086
कुआं	-11.7087
ीक्षक	-11.7099
24	-11.7099
▁सारंग	-11.7099
▁जासूस	-11.7103
्‍त	-11.7106
▁सोर्स	-11.711
सली	-11.7113
▁गुंज	-11.7115
▁दाखिला	-11.7119
एमएसपी	-11.7121
▁मार्क्स	-11.7123
वापी	-11.7128
▁काफिल	-11.7129
▁आरोग्य	-11.7129
▁कस्टडी	-11.7129
▁त्यौहार	-11.7129
▁फुटपाथ	-11.7129
▁महाप्रबंधक	-11.7129
▁मुसीबत	-11.7129
▁दूषित	-11.7129
▁खटीक	-11.7129
▁ज्वाइन	-11.7129
▁कीजिए	-11.7129
▁प्लेइंग	-11.7129
▁सरगना	-11.7129
▁DSP	-11.713
▁दतिया	-11.713
▁सुदाम	-11.7131
▁1980	-11.7132
▁बेगम	-11.7134
डे़	-11.7134
▁सृजन	-11.7134
▁प्रदर्शनकारी	-11.7137
▁सुरंग	-11.7138
एनएचएआई	-11.7139
▁नाहर	-11.7139
▁दुखद	-11.7139
▁गलियार	-11.7139
▁सक	-11.714
▁ललितपुर	-11.7145
▁घटिया	-11.7146
▁एडीसी	-11.7146
▁प्रभारियों	-11.7148
▁जुटाई	-11.715
▁नक्शा	-11.7153
▁शमश	-11.7157
▁संभवत	-11.7157
बृहस्पतिवार	-11.7158
▁नेशन	-11.7158
▁लीज	-11.7159
ावल	-11.7161
▁स्लो	-11.7162
▁हॉ	-11.717
▁कोलार	-11.7177
▁दूल्हा	-11.7179
▁छीना	-11.718
▁समानता	-11.7183
▁रेंजर	-11.7184
मीटर	-11.7184
▁प्ल	-11.7187
-11	-11.7189
▁मूर्तिय	-11.719
▁ाचार्य	-11.7192
▁चंद्रा	-11.7193
▁रम	-11.7195
▁डीपीआर	-11.7197
▁पाला	-11.72
▁फेरे	-11.7206
▁खोली	-11.7214
र्टिफि	-11.7215
▁पैड	-11.7215
िशन	-11.7216
▁103	-11.7216
ab	-11.722
▁इल	-11.7223
धारा	-11.723
▁बैटर	-11.723
मोदी	-11.723
▁पला	-11.7231
हमार	-11.7232
▁धू	-11.7238
निया	-11.7242
▁144	-11.7243
▁अज	-11.7245
▁00	-11.7247
▁जुर्म	-11.7247
▁यान	-11.7252
▁एसएन	-11.7253
▁भुज	-11.7253
▁घसीट	-11.726
▁खत	-11.7265
स्को	-11.7265
यलो	-11.7269
िफ्ट	-11.7273
▁अधीक्ष	-11.7278
▁चरा	-11.728
िंदा	-11.7281
ोत्तम	-11.7287
पल्ली	-11.7287
▁शत्रु	-11.7287
ध्वनि	-11.7288
▁उज्ज्वल	-11.7288
▁धंधे	-11.7288
▁भ्रामक	-11.7288
▁वेशभूषा	-11.7288
▁ठुकरा	-11.7288
▁हलफनाम	-11.7288
▁हाथापाई	-11.7288
▁आइटम	-11.7288
▁फायदेमंद	-11.7288
▁प्रोटोक	-11.7288
▁कॉरपोरे	-11.7288
▁जागृत	-11.7288
▁खाटू	-11.7289
▁सुप्रिय	-11.7289
▁संयम	-11.7289
▁Ran	-11.7289
▁कैरेट	-11.729
▁फर्श	-11.729
एनडीआरएफ	-11.7291
▁रविदास	-11.7291
▁शत्रुघ्	-11.7291
▁चहल	-11.7292
▁सिंधु	-11.7293
▁अलायंस	-11.7294
▁दिलावर	-11.7294
▁सिक्के	-11.7294
▁यूएस	-11.7295
▁प्रभास	-11.7295
▁स्तंभ	-11.7296
▁अनशन	-11.7297
▁डब	-11.7297
▁ंग	-11.7298
र्रा	-11.7298
बर्स	-11.7299
मेश्वर	-11.73
▁लैंडिंग	-11.7309
ter	-11.7313
▁शिल्पा	-11.7315
▁पंथ	-11.7319
▁बदलना	-11.7321
▁अमेज	-11.7324
▁पिन	-11.7328
lus	-11.733
दल	-11.7334
टीएस	-11.7338
▁वीक	-11.7342
▁देवीलाल	-11.7343
▁तला	-11.7343
▁रेस्ट	-11.7344
▁डिज	-11.7345
विता	-11.7346
▁थाली	-11.7347
हड़	-11.7353
▁डांट	-11.7354
▁सदी	-11.7357
▁220	-11.7359
▁बंप	-11.7365
▁मुस्तफ	-11.7365
▁तुल	-11.737
▁तगड़	-11.737
ॉक	-11.7385
▁बांटे	-11.7387
टिया	-11.7391
▁जत	-11.7392
95	-11.7392
▁AC	-11.7396
ोग्राफी	-11.7397
▁तंगी	-11.7399
▁स्टो	-11.7407
▁बारां	-11.7411
▁पेड	-11.7413
्धा	-11.7413
▁परीक्षार्थ	-11.7416
▁एआर	-11.7418
▁नस्ल	-11.7429
्‍या	-11.7431
▁पाटन	-11.7435
ैक	-11.7438
ब्र	-11.7439
▁टेस्	-11.744
▁फंसी	-11.7441
▁बहुल	-11.7448
▁इशारे	-11.7449
▁गंतव्य	-11.7449
▁पवेलियन	-11.7449
▁फारूक	-11.7449
▁ब्यावर	-11.7449
▁(45)	-11.7449
▁एमबीबीएस	-11.7449
▁मुकुट	-11.7449
▁सचेत	-11.7449
▁लखीमपुर	-11.7449
▁ट्रांसफॉर्म	-11.7449
▁ग्रोवर	-11.7449
▁अरबाज	-11.7449
▁रजनीकांत	-11.745
▁मलेशिय	-11.745
▁वरदान	-11.7451
दारी	-11.7451
▁िल	-11.7451
▁अल्लाह	-11.7451
▁द्वारका	-11.7451
▁जाब्त	-11.7451
▁चोटिल	-11.7453
▁फिक्स	-11.7453
▁लर्न	-11.7453
▁बकरी	-11.7454
▁सिक	-11.7454
▁गरमा	-11.7456
▁टाइटल	-11.7457
▁व्यक्तित्व	-11.7458
▁स्क्वायर	-11.7459
▁एलपी	-11.7459
▁अनन्या	-11.7459
▁बैठाया	-11.7459
मुक्की	-11.7461
▁जुन	-11.7463
▁व्याव	-11.7465
▁लड़ी	-11.7467
▁देवड़ा	-11.7467
▁पच	-11.7469
▁सायं	-11.7474
▁स्वामि	-11.7475
▁नरम	-11.748
▁राष्ट्रवाद	-11.7481
▁एनिमल	-11.7486
▁निम	-11.7488
स्क	-11.749
ot	-11.7495
▁क्रांतिकार	-11.7496
▁सीएए	-11.7498
▁पुकार	-11.7501
▁म्यू	-11.7501
▁सावर	-11.7505
▁कहर	-11.7505
▁पक्की	-11.7506
▁बदर	-11.7513
▁अवर	-11.7514
एमयू	-11.7518
पूज्य	-11.7519
विरोध	-11.7519
पूजन	-11.752
▁बढ़ाए	-11.7523
विकास	-11.7523
▁फेयर	-11.7525
पाठ	-11.7526
▁खंगाले	-11.7529
▁दाग	-11.753
▁जलाल	-11.7532
▁प्रावधानों	-11.7537
▁आल	-11.7542
▁भड़के	-11.7546
▁आदिल	-11.7556
▁पारीक	-11.7557
▁एमआर	-11.7559
▁गिना	-11.7569
▁स्टै	-11.7572
हद	-11.7572
हाट	-11.7578
▁गुजार	-11.7579
िश्म	-11.758
2-2	-11.758
▁टेलीग्रा	-11.7581
निष्ठ	-11.7584
▁कुक	-11.7586
मिथ	-11.7588
वहन	-11.7589
▁1-1	-11.759
▁झाझ	-11.7596
▁टीटी	-11.76
▁मौज	-11.7601
▁असफल	-11.7604
▁एमसी	-11.7605
सीसी	-11.7606
▁सहमत	-11.761
▁जेएस	-11.7613
ऱ	-11.7613
▁चंपई	-11.7613
▁माइक्रोसॉफ्ट	-11.7613
▁राजपुरोहित	-11.7613
▁लाभान्वित	-11.7613
▁श्रॉफ	-11.7613
▁आज़ाद	-11.7613
▁विनाश	-11.7613
▁(40)	-11.7613
▁नवनिर्वाच	-11.7613
टीडीपी	-11.7613
▁अधिशा	-11.7613
▁मुख्‍य	-11.7613
▁प्रतियोग	-11.7613
▁महिपाल	-11.7614
▁टहल	-11.7614
▁लपटें	-11.7614
▁ख्वा	-11.7614
▁क्षमा	-11.7615
▁भविष्यवाणी	-11.7615
▁गोमती	-11.7615
िनेंट	-11.7616
्बुल्ला	-11.7616
▁बैरिकेडिंग	-11.7617
▁जिद	-11.762
▁गोरख	-11.762
ct	-11.7623
▁अभद्रता	-11.7623
▁पॉलिटिक्स	-11.7624
▁खामियाज	-11.7624
▁राउ	-11.7629
▁चलेंगे	-11.763
▁घूस	-11.7631
▁बूढ़	-11.7632
▁कैफ	-11.7632
▁हिला	-11.7633
▁तोड़ी	-11.7637
▁बैट	-11.7639
▁चो	-11.7644
▁*	-11.7645
▁बुल	-11.7645
▁घु	-11.7645
▁गवाही	-11.7652
ाची	-11.7652
रुक	-11.7653
▁ऑपरेट	-11.7656
न्दर	-11.7658
▁प्रतिभागी	-11.7659
▁सस्ता	-11.7662
▁हैरानी	-11.7664
कार्ट	-11.7664
डीए	-11.7666
▁इरादे	-11.7666
▁विराम	-11.7668
▁औषधि	-11.7669
▁पीके	-11.7673
▁रियर	-11.7676
ासिक	-11.7677
▁फेंकी	-11.768
▁सक्रियता	-11.7684
▁सुनहर	-11.7685
▁गाते	-11.7688
▁एंटरटेन	-11.7695
ाध	-11.7697
▁हाजिरी	-11.7705
▁लॉकर	-11.7713
▁जख्म	-11.7715
मुखी	-11.772
घरा	-11.7731
▁पीक	-11.7731
li	-11.7732
▁1.4	-11.7732
▁होस्ट	-11.7733
▁अधिव	-11.7734
ैमूर	-11.7735
डम	-11.7741
▁h	-11.7751
▁तुला	-11.7752
▁दिखाना	-11.7752
▁छप	-11.7753
ौला	-11.7759
▁बत	-11.7761
ंधा	-11.7763
▁दाना	-11.7764
▁डंप	-11.7766
▁वैल्यू	-11.7766
▁जत्थे	-11.7767
▁योगा	-11.7769
हारिक	-11.7772
▁मग	-11.7775
पीएचसी	-11.7777
▁व्यायाम	-11.7779
खगड़िया	-11.7779
▁अप्लाई	-11.7779
▁जलमग्न	-11.7779
▁ज्येष्ठ	-11.7779
▁मुलाक़ात	-11.7779
▁रंगारंग	-11.7779
▁लहसुन	-11.7779
▁शैक्षिक	-11.7779
▁सन्नाटा	-11.7779
▁सेलिब्रेशन	-11.7779
▁कंडीशन	-11.7779
विक्रय	-11.7779
▁मैन्युफैक्चर	-11.7779
▁तकलीफ	-11.7779
▁गन्ने	-11.7779
▁मुंशी	-11.7779
▁खजरान	-11.778
▁STF	-11.778
▁SDM	-11.778
▁सौम्य	-11.778
▁रिपेयर	-11.778
▁भयाव	-11.778
▁बोहरा	-11.778
▁आफिस	-11.778
▁अटकलें	-11.7781
▁पटनायक	-11.7781
▁गोदारा	-11.7781
▁सुगम	-11.7781
▁अनावरण	-11.7781
▁इंटर्न	-11.7781
▁हाइब	-11.7782
▁बेदी	-11.7782
▁हासन	-11.7783
▁झोंक	-11.7783
▁शैलेश	-11.7787
▁जेईई	-11.7787
▁स्टेटमेंट	-11.779
▁खुलवा	-11.7791
▁चौपाल	-11.7793
लय	-11.7794
▁पसरा	-11.7795
▁व्याख्यान	-11.7796
ख़	-11.7796
▁सरहद	-11.7799
▁नियंत्रक	-11.78
▁्य	-11.7802
▁अस्त	-11.7805
डीआरएम	-11.7805
▁मैट्रिक	-11.7808
▁दौलत	-11.7808
▁पराग	-11.781
ंका	-11.781
▁अंगूठी	-11.7811
ैटिक	-11.7812
▁उम्मीदें	-11.7815
▁जॉ	-11.7819
▁ठेला	-11.7821
▁जीन	-11.7823
सके	-11.7823
▁रोप	-11.7825
ho	-11.7833
धान	-11.7835
▁गढ	-11.7835
▁अर्ध	-11.7836
▁डरे	-11.784
▁बख्श	-11.7842
▁डल्ल	-11.7844
▁डिजाइनर	-11.7847
▁वर्ल	-11.7848
▁2'	-11.785
िये	-11.785
▁पोट	-11.7851
▁एनसीआर	-11.7853
▁खंगाला	-11.7855
दौलत	-11.7855
प्रतिष्ठा	-11.7855
▁आओ	-11.7856
पांच	-11.7856
▁मदर	-11.7857
लिंग	-11.7859
▁ज़रि	-11.7862
▁डेल	-11.7863
▁तह	-11.7864
▁सद्	-11.7865
▁शर्ट	-11.7867
ंटा	-11.7868
▁चिन	-11.787
▁12.	-11.787
▁सस्ती	-11.7872
▁आईसी	-11.7873
▁क्यू	-11.7875
रुख	-11.7877
▁1.7	-11.7879
▁ऑटोम	-11.7885
▁भं	-11.7886
▁अमीन	-11.7887
फिक	-11.7889
▁मुक	-11.789
▁मेघ	-11.7894
ाइकल	-11.7895
▁सिंगला	-11.7903
आईपीसी	-11.7904
पीले	-11.791
▁170	-11.7912
▁काव्य	-11.7913
ानिया	-11.7921
यै	-11.7935
▁जगन	-11.7936
सलूक	-11.7938
▁मौस	-11.7942
त्ता	-11.7945
▁खरीदार	-11.7946
्वाइंट	-11.7946
शांति	-11.7947
▁कॉर्पोरे	-11.7948
▁रिमझ	-11.7949
BCCI	-11.7949
अप्रत्याशित	-11.7949
कम्युनिस्ट	-11.7949
शुष्क	-11.7949
▁World	-11.7949
▁असुविधा	-11.7949
▁छुटकारा	-11.7949
▁जेएमएम	-11.7949
▁डिटेन	-11.7949
▁मजेदार	-11.7949
▁भदौरिया	-11.7949
▁उर्दू	-11.7949
▁मुइज्	-11.7949
▁(28)	-11.7949
▁समाधि	-11.7949
▁मेघालय	-11.7949
-9	-11.7949
▁पेंडिंग	-11.795
▁तालमेल	-11.795
▁निर्दोष	-11.795
▁जलेबी	-11.795
▁अभिम	-11.7952
▁कोंडा	-11.7952
999	-11.7954
▁ब्यूटी	-11.7955
▁समझिए	-11.7956
▁नपा	-11.7957
▁पशुपालक	-11.7958
▁जगरा	-11.7963
स्ती	-11.7963
▁राजपुर	-11.7967
▁र्	-11.7968
ay	-11.7971
▁बेसब	-11.7972
▁घुटने	-11.7975
MC	-11.7976
िस्टिक	-11.7977
▁2001	-11.7978
▁विलंब	-11.7979
▁बां	-11.7979
▁साबर	-11.798
▁सतह	-11.7984
▁थक	-11.7985
▁टांग	-11.7985
▁गुजारा	-11.7986
▁1%	-11.7989
▁भेद	-11.799
▁डालें	-11.7991
ेंदु	-11.7992
▁संवर्ध	-11.7993
▁जीटी	-11.7995
▁ताप	-11.7995
▁लेडी	-11.7997
▁128	-11.8
ईएन	-11.8004
शिया	-11.8004
▁फौर	-11.8011
▁लाते	-11.8012
▁कॉर्न	-11.8016
▁माई	-11.8021
▁सतनाम	-11.8022
टाइल	-11.8023
▁मंत्रों	-11.8029
नुसार	-11.8034
ंबी	-11.8034
▁थोड़	-11.805
▁गोले	-11.8051
▁1.6	-11.8054
▁रोहन	-11.8061
▁पट्	-11.8063
▁क्रे	-11.8065
डीपीओ	-11.807
▁चाहा	-11.807
▁महम	-11.8071
ीरपुर	-11.8075
▁खूबसूरती	-11.8075
▁मंदा	-11.8077
▁सरिया	-11.8079
▁कस्टम	-11.8079
▁मिथिल	-11.8087
▁हथ	-11.809
▁शह	-11.8091
बेटी	-11.8092
▁कैन	-11.8094
▁ग्रेजुए	-11.8095
▁गै	-11.8096
▁इंटरन	-11.8105
▁फोटोग्राफ	-11.8109
▁खराबी	-11.8109
गेट	-11.8112
▁उर्वरक	-11.8121
▁ग़लत	-11.8121
▁छेड़खानी	-11.8121
▁फर्नीचर	-11.8121
▁मिजोरम	-11.8121
▁सनराइज	-11.8121
▁स्टॉफ	-11.8121
▁क्यूसेक	-11.8121
▁निष्कास	-11.8121
▁सभ्य	-11.8121
▁दखल	-11.8121
▁रिफाइन	-11.8121
▁मेडिसिन	-11.8121
▁खिलवाड़	-11.8121
एनजीओ	-11.8121
dashi	-11.8121
▁कूड़े	-11.8122
▁प्रोफ़े	-11.8122
▁संकीर्तन	-11.8122
▁उकसा	-11.8122
▁अनुमोद	-11.8122
▁पत्थरबाजी	-11.8122
▁गाँव	-11.8122
▁गुरदासपुर	-11.8122
▁थर्म	-11.8123
▁अर्थात	-11.8123
▁साहित्यकार	-11.8124
▁अंकुर	-11.8124
▁बंसी	-11.8124
▁चिंताजनक	-11.8125
ौत	-11.8125
▁बर्थ	-11.8126
▁जैविक	-11.8126
▁बताएंगे	-11.8127
▁निवेदन	-11.8128
UPSC	-11.8134
▁दरार	-11.8135
▁वेटिंग	-11.8136
हिंदुत्व	-11.8138
ोदा	-11.8139
अनारक्षित	-11.814
▁Ram	-11.8142
कि	-11.8142
र्जिन	-11.8143
▁पक्षकार	-11.8144
▁पेशी	-11.8147
बॉल	-11.8149
शांक	-11.8152
▁अल्	-11.8152
▁बीके	-11.8152
▁पोस्त	-11.8153
▁वसीम	-11.8153
▁गोविंदपुर	-11.8155
▁चिर	-11.8161
बीडीओ	-11.8163
शंस	-11.8164
▁कोयल	-11.8168
डार	-11.8171
ाशी	-11.8173
▁झूले	-11.8174
▁13.	-11.8175
रल	-11.8175
▁शिवान	-11.8178
▁आफत	-11.8184
▁पड़ाव	-11.8185
▁यम	-11.8186
▁चलो	-11.8187
कमर्शियल	-11.8187
▁ोत्सव	-11.8189
▁सैलान	-11.8191
▁साज	-11.8193
द्ध	-11.8193
ौनी	-11.8193
ik	-11.8194
ामृत	-11.8201
!	-11.8203
प्रथम	-11.8203
परिवार	-11.8203
ियस	-11.8204
ika	-11.8209
▁सन्	-11.8211
▁मज	-11.8213
▁6.5	-11.8214
▁मेड	-11.8215
ांकित	-11.8221
▁नेताजी	-11.8224
▁वर्ण	-11.8226
आज	-11.8228
ल्ले	-11.823
▁बप्प	-11.8231
▁खट्	-11.8231
▁अनूठ	-11.8231
▁सुधर	-11.8232
▁चतुर्थ	-11.8233
▁एनसी	-11.8235
▁िका	-11.8239
ग्रेस	-11.824
बेटे	-11.8242
▁बसा	-11.8244
▁श्र	-11.8245
लि	-11.8246
▁107	-11.825
▁ऑडिय	-11.8255
एमएलए	-11.8259
ard	-11.8263
ड्स	-11.8278
▁बरवा	-11.8279
▁1.1	-11.8282
▁लोहार	-11.8284
चौड़ाई	-11.8287
तिगत	-11.8292
▁5:	-11.8294
▁डेवलप	-11.8295
▁अहिल्या	-11.8297
▁निःशुल्क	-11.8297
▁मापदंड	-11.8297
▁एसोसिएट	-11.8297
▁तीर्थयात्र	-11.8297
स्ट्रॉन्ग	-11.8297
▁Today	-11.8297
▁प्रज्ज्वल	-11.8297
▁सदैव	-11.8297
▁पैरोल	-11.8297
▁अभिभाष	-11.8297
▁मनोनीत	-11.8297
▁फ्लिप	-11.8297
▁कार्बन	-11.8297
ुवैत	-11.8297
एसएस	-11.8298
▁फ्लाई	-11.8298
▁ब्रेकअप	-11.8298
▁भरपाई	-11.8298
▁प्लेसमेंट	-11.8298
हाना	-11.8299
▁सिलाई	-11.8299
▁ड्रॉप	-11.83
▁निष्पादन	-11.83
▁अचल	-11.8301
▁हावी	-11.8301
▁सोमनाथ	-11.8301
टेरियल	-11.8302
▁मंडिय	-11.8303
▁मिलेंगी	-11.8304
▁सज़ा	-11.8304
▁लिपिक	-11.8304
▁बुनकर	-11.8305
▁लालवानी	-11.8307
▁खुशियां	-11.8308
▁टकराव	-11.831
र्डर	-11.831
▁जुड़ाव	-11.8311
▁पुतले	-11.8314
▁चू	-11.8314
▁इलेक्ट्रॉनिक्स	-11.8314
▁बाब	-11.8315
▁ताे	-11.8319
▁ढिल्लों	-11.8319
▁व्यवसायिक	-11.832
▁हलका	-11.8321
▁SI	-11.8324
▁ग्रेजुएट	-11.8324
▁सिमरन	-11.8325
▁घाटा	-11.8329
न्निध	-11.8331
▁नासा	-11.8332
▁जेम	-11.8336
▁गमछ	-11.8338
▁वचन	-11.8341
▁उचा	-11.8343
▁सप्तम	-11.8353
▁अड़	-11.8353
▁तान	-11.8355
▁घोड़े	-11.8361
▁खंडन	-11.8362
▁कसर	-11.8363
▁लगाता	-11.8368
पोश	-11.8379
▁ठिकाना	-11.838
▁1100	-11.8381
▁सेफ	-11.8381
बेट	-11.8381
व्यक्ति	-11.8382
कांग्रेस	-11.8382
प्रशासन	-11.8382
100	-11.8383
▁धामी	-11.8385
nd	-11.8386
▁चट	-11.8392
▁सोह	-11.8395
ोड़	-11.8397
▁DM	-11.8397
▁2.4	-11.8402
▁दूरदर्श	-11.8408
ाचार	-11.8408
▁जालसाज	-11.841
▁गिरफ़्तार	-11.841
▁चक्रवात	-11.8413
बुल	-11.8424
▁क्षत्र	-11.8431
▁7:	-11.8433
▁बूट	-11.8434
▁0.0	-11.8441
▁माथ	-11.8448
▁पक्क	-11.845
बाप	-11.8452
ोलॉजी	-11.8452
खार	-11.8453
▁रुद्र	-11.8453
▁डाब	-11.8454
ोनिया	-11.8454
नाम	-11.8458
▁इंस	-11.8458
▁खे	-11.8458
त्या	-11.8462
ड़िया	-11.8465
एनएल	-11.8467
ोलिक	-11.8467
▁स्पोर्ट	-11.8469
▁(10	-11.847
23)	-11.8472
टेड	-11.8474
▁शौच	-11.8475
▁फहरा	-11.8475
द्रविड़	-11.8475
▁अलविदा	-11.8475
▁एथलीट	-11.8475
▁कम्युनिकेश	-11.8475
▁कॉन्सर्ट	-11.8475
▁मंगलसूत्र	-11.8475
▁महमूद	-11.8475
▁विनम्र	-11.8475
▁संक्रांति	-11.8475
▁नारकोटिक	-11.8475
▁अटैच	-11.8475
▁कुसुम	-11.8475
▁बेहाल	-11.8475
▁डिस्चार्ज	-11.8476
▁वॉटर	-11.8476
▁बिहटा	-11.8476
▁कहानियां	-11.8476
▁सूर्यवंशी	-11.8476
▁हेयर	-11.8476
▁प्रश्नपत्र	-11.8476
▁रिटेल	-11.8477
▁पूर्वजों	-11.8477
▁बबल	-11.8478
▁फॉरेंसि	-11.8478
▁लेखपाल	-11.8479
▁घोषणापत्र	-11.8479
▁भद	-11.848
नामा	-11.848
▁इस्लामाबाद	-11.8481
णे	-11.8481
▁एबी	-11.8481
▁दानिश	-11.8481
कृत	-11.8482
▁रेनू	-11.8482
▁बानो	-11.8482
▁फंसाया	-11.8483
▁बिरादर	-11.8483
▁जाऊंगा	-11.8486
▁दिक्कतें	-11.8487
द्	-11.8488
▁जहांगीर	-11.8488
▁मैथ	-11.8489
um	-11.849
▁फरीद	-11.849
▁टकराई	-11.8497
▁गोर	-11.8498
▁कॉफ	-11.8499
▁आवाज़	-11.85
▁रवैया	-11.85
▁डिटेल्स	-11.8502
▁रिट	-11.8506
▁दोपहिया	-11.8508
▁अख़	-11.8509
▁सिंघम	-11.851
▁संभाली	-11.8512
▁सुजीत	-11.8516
▁गाव	-11.8517
लेक्शन	-11.8519
पूर्णा	-11.8525
▁टाइमिंग	-11.8526
डीसी	-11.8527
मिला	-11.8527
▁साक्षर	-11.8529
▁इट	-11.853
▁खजा	-11.8531
▁खि	-11.8535
▁संज	-11.8536
▁बंधा	-11.8537
▁फाग	-11.854
200	-11.855
▁विमर्श	-11.8555
▁पीथ	-11.8557
▁सोफ	-11.8562
ऑफ	-11.8564
हिट	-11.8573
▁शिवहर	-11.8578
▁बाली	-11.8579
▁चेहर	-11.8584
▁केवट	-11.8592
▁नस	-11.8593
▁बेची	-11.8594
▁डायर	-11.8597
▁एडिट	-11.86
▁शिख	-11.8602
▁लोट	-11.8608
▁ढो	-11.8608
▁चक्क	-11.8612
▁गोशा	-11.8613
vi	-11.8614
0-50	-11.8617
▁ान	-11.8629
▁दीपा	-11.8629
▁मुर	-11.8629
▁डिस	-11.8634
▁टाइट	-11.8639
चित्र	-11.8641
esh	-11.8641
▁इम्प	-11.8644
▁भागा	-11.8644
▁वाह	-11.8646
▁एक्सपो	-11.8656
ग्र	-11.8657
▁भ्रष्ट	-11.8657
▁आउटसोर्स	-11.8657
▁खदेड़	-11.8657
▁नौतपा	-11.8657
▁मक्ख	-11.8657
▁मुबारक	-11.8657
▁षड्यंत्र	-11.8657
▁सिब्बल	-11.8657
▁सेलिब्रिटी	-11.8657
▁धमतरी	-11.8657
▁इन्वेस्टिगेशन	-11.8657
▁मंत्रमुग्ध	-11.8657
▁जलापूर्ति	-11.8657
माजरा	-11.8657
▁भरण	-11.8658
▁करूंगी	-11.8658
▁शिबू	-11.8658
▁वॉर्न	-11.8658
▁चिड़िया	-11.8658
▁इनोवेशन	-11.8658
▁सॉन्ग	-11.8658
▁एक्सपोर्ट	-11.8658
रैंप	-11.8659
▁छेड़	-11.8659
▁वास्तु	-11.8659
▁प्रमाणपत्र	-11.8659
▁रोहतास	-11.8659
▁रितु	-11.8659
▁फ्रेम	-11.8659
▁शंका	-11.866
▁पदनाम	-11.866
▁कार्यभार	-11.8661
ash	-11.8662
▁विलास	-11.8662
▁कटारा	-11.8662
▁अकाउंटेंट	-11.8663
▁कहेंगे	-11.8665
▁Cha	-11.8665
▁प्रहार	-11.8666
▁लकी	-11.8666
▁उमरिया	-11.8666
▁कूच	-11.867
▁टेलर	-11.867
▁भाल	-11.867
▁परिवारवाद	-11.8671
▁मजा	-11.8674
▁ुल	-11.8675
▁बत्ती	-11.8677
▁ation	-11.8677
▁9:30	-11.8678
▁सराफा	-11.868
▁बिरस	-11.8688
▁करवाएं	-11.8688
ाइल	-11.8691
▁हेली	-11.8695
72	-11.8699
EVM	-11.87
▁विनर	-11.8702
▁De	-11.8704
गावत	-11.8705
वई	-11.8706
▁वृ	-11.8707
▁मॉडलिंग	-11.8713
▁रूपये	-11.8714
▁एसई	-11.8716
▁मुरारी	-11.8722
खंडपीठ	-11.8722
▁सामर	-11.8723
पोषण	-11.8725
▁आजमा	-11.8726
▁जन्मे	-11.8727
ज्ञा	-11.8728
ोभन	-11.8729
+	-11.873
▁श्रीमद्	-11.873
▁क्रिस्ट	-11.873
▁पैट	-11.8733
भूषण	-11.8739
▁दंगा	-11.8742
▁उलझा	-11.8745
▁छापे	-11.8746
बत	-11.875
हेड़ा	-11.875
सेवा	-11.8751
▁म्यूज	-11.8753
▁गायकवाड	-11.8754
▁टोप	-11.8755
▁वसूला	-11.8756
▁अवि	-11.8757
कुशल	-11.8757
▁खुर	-11.8762
▁सेठी	-11.8765
ीएम	-11.8772
▁झाला	-11.8777
▁हंसी	-11.8778
▁मुरार	-11.8779
:45	-11.878
▁एक्सी	-11.8784
परा	-11.8785
स्ट्र	-11.8785
सरा	-11.879
▁बल्लेबाज़	-11.8791
1990	-11.8796
पीओ	-11.8801
हर्षि	-11.8801
लानी	-11.8803
उन	-11.8805
▁गाल	-11.8807
▁चश्म	-11.8808
▁डांड	-11.8808
▁पशुपाल	-11.8815
▁नदीम	-11.8818
ांव	-11.8825
मार्क	-11.8826
▁वैष्ण	-11.8828
▁एंगे	-11.8829
कमांडो	-11.883
गुलाल	-11.8838
क्रिमिन	-11.8842
▁अनहोनी	-11.8842
▁अयोग्य	-11.8842
▁तर्पण	-11.8842
▁तृप्ति	-11.8842
▁रक्सौल	-11.8842
▁हड्डी	-11.8842
▁जीर्णो	-11.8842
▁(32)	-11.8842
▁दंपति	-11.8842
टफ्ल	-11.8842
▁बुलंदशहर	-11.8842
▁सज्जन	-11.8842
▁कॉन्क्लेव	-11.8842
▁NCP	-11.8843
▁अजीब	-11.8843
्रोच	-11.8844
▁One	-11.8844
▁रघुनाथ	-11.8844
▁हमीदिया	-11.8844
▁डामर	-11.8845
▁फ़ायद	-11.8845
▁निरोधक	-11.8845
▁एजेंसियां	-11.8846
▁रेणुका	-11.8846
▁सांग	-11.8846
▁सिखाया	-11.8846
▁थ्री	-11.8846
▁तंबा	-11.8846
▁अराजकता	-11.8846
▁जीएम	-11.8847
▁जानकारियां	-11.8847
▁सर्प	-11.8847
▁कमाए	-11.8849
▁हवेल	-11.8849
▁k	-11.8849
▁कटवा	-11.885
▁टॉम	-11.885
▁हटवा	-11.885
▁मददगार	-11.8853
▁लगाएंगे	-11.8853
▁हुंड	-11.8855
जरी	-11.8856
▁कारगर	-11.8858
▁पट्टा	-11.8859
▁गाए	-11.8861
▁टैब	-11.8868
▁कनक	-11.8869
▁पनप	-11.8869
यूआई	-11.8869
▁पट्टे	-11.887
▁पार्ट्स	-11.8874
्च	-11.8877
ंटी	-11.8878
ान्त	-11.8879
▁ियो	-11.888
▁पाम	-11.888
▁जीतीं	-11.8883
▁बड़ौद	-11.8883
▁अमरोह	-11.8884
sel	-11.8885
▁बरग	-11.8887
▁केसरी	-11.8887
जेजेपी	-11.8888
▁शैतान	-11.8893
▁6%	-11.89
न्या	-11.8911
▁ब्रा	-11.8913
च्छा	-11.8916
▁तेरा	-11.8921
▁डायम	-11.8928
▁लला	-11.8931
ाधार	-11.8932
▁10%	-11.8936
▁एक्सर	-11.8937
ग्राउंड	-11.8937
राशि	-11.8938
प्रसार	-11.8938
पीआरओ	-11.8939
▁मस्ती	-11.8942
▁छोड़े	-11.8945
▁102	-11.8949
उल	-11.8949
▁ढ़	-11.8958
सिंगरौली	-11.8959
▁मल्ल	-11.8961
▁4.5	-11.8971
▁उमड़ी	-11.8971
▁महता	-11.8974
▁बयानबाज	-11.8975
▁जस्टि	-11.8981
▁घो	-11.8981
ैर	-11.8988
ंठ	-11.8993
▁कुत्ता	-11.9008
▁डीएस	-11.9013
गें	-11.9022
चुअल	-11.9024
▁नेपाली	-11.9029
▁दुर्भाग्य	-11.903
▁लंग	-11.9031
▁(55)	-11.9031
▁कप्‍तान	-11.9031
▁कवायद	-11.9031
▁धर्मांतरण	-11.9031
▁नॉमिनेशन	-11.9031
▁पोशाक	-11.9031
▁भाकपा	-11.9031
▁महायज्ञ	-11.9031
▁सुरजेवाला	-11.9031
▁यूसुफ	-11.9031
▁सघन	-11.9031
डायरेक्शन	-11.9031
▁आमदनी	-11.9031
▁सरायकेला	-11.9031
▁सैटेलाइट	-11.9031
▁करुणा	-11.9031
▁फ्यूचर	-11.9031
लोजपा	-11.9031
▁कौशा	-11.9031
▁कीचड़	-11.9031
▁किल्लत	-11.9031
▁सईद	-11.9031
कन्नड़	-11.9031
▁खातून	-11.9032
▁अगेन	-11.9032
▁फेवर	-11.9032
▁104	-11.9032
▁सॉलि	-11.9032
▁TV	-11.9032
जामताड़ा	-11.9032
▁ग्रेट	-11.9033
▁अरूण	-11.9033
▁ग्रिड	-11.9033
▁ज्ञात	-11.9033
▁पशुपति	-11.9033
▁देशमुख	-11.9036
▁कच्छ	-11.9037
हर्ता	-11.9038
▁भरवा	-11.9038
▁श्रोता	-11.904
▁तबादले	-11.9043
▁निशि	-11.9044
▁पन्नू	-11.9045
धेड़	-11.9045
▁बैरल	-11.9046
पॉक्स	-11.9048
▁w	-11.905
▁बनवारी	-11.905
▁बनाएगी	-11.9051
▁छुप	-11.9053
▁जिम्मेदारों	-11.9056
▁सर्क	-11.9058
▁झु	-11.9061
▁138	-11.9062
कारक	-11.9062
्‍द	-11.9063
▁210	-11.9065
दराज	-11.9065
▁कारा	-11.9068
टीकमगढ़	-11.907
▁मिथिला	-11.9072
▁सीबी	-11.9075
▁प्रोसेसर	-11.9078
ज़ार	-11.9087
आरएस	-11.9088
▁निहाल	-11.909
▁महेश्वर	-11.909
▁सेल्स	-11.9091
tra	-11.9092
▁4%	-11.9093
▁बिस	-11.9097
RS	-11.9098
▁मंडप	-11.9098
▁सिन	-11.9101
▁d	-11.9104
▁रोबोट	-11.9107
▁स्टेप	-11.9109
▁Re	-11.9115
▁सैर	-11.9118
▁जैकी	-11.9119
▁3.	-11.9122
वाड़	-11.9124
सैनिक	-11.913
प्रदर्शन	-11.913
▁खाती	-11.9131
िष्ट	-11.9135
▁खाम	-11.9136
बिज	-11.9138
बंध	-11.9138
▁सेबी	-11.9138
PO	-11.9149
▁बक	-11.9156
सूर	-11.9156
▁नट	-11.9157
▁आयश	-11.9161
चम	-11.9166
ag	-11.9166
▁9:	-11.9166
▁सप्त	-11.9166
▁रामू	-11.9167
रिंदर	-11.9168
गुरु	-11.9172
57	-11.9173
▁राजी	-11.9182
▁दीर्घ	-11.9183
te	-11.9187
▁अफ्रीक	-11.9188
▁खरी	-11.9189
्ट्रा	-11.9189
▁इंद्रा	-11.9189
▁गुंड	-11.9195
वक	-11.9199
▁स्लै	-11.9201
▁फूंक	-11.9201
थर	-11.9203
▁विस	-11.9204
▁निक्क	-11.9206
ric	-11.921
▁मुगल	-11.921
▁उन्नत	-11.9219
▁उपर	-11.9221
▁पोज	-11.9222
ट्रॉमा	-11.9223
▁इज्जत	-11.9223
▁इटारसी	-11.9223
▁ऑब्जर्व	-11.9223
▁कम्युनिटी	-11.9223
▁विकलांग	-11.9223
▁कवच	-11.9223
▁बदहाल	-11.9223
▁धोखे	-11.9223
▁न्योता	-11.9223
▁चरमपंथ	-11.9223
▁श्रीमाली	-11.9223
▁(50)	-11.9223
▁आंध्रप्रदेश	-11.9223
▁मोहब्बत	-11.9223
▁आंसर	-11.9224
▁आंवल	-11.9224
▁मुकाम	-11.9224
▁प्रारूप	-11.9224
▁सिद्द	-11.9224
▁सुमेर	-11.9224
▁सेनानी	-11.9224
जाज	-11.9225
▁पदभार	-11.9226
▁प्रशंसक	-11.9226
▁डाॅ	-11.9226
▁शै	-11.9226
▁उल्लास	-11.9226
▁एटीएस	-11.9226
▁विलय	-11.9227
गिर	-11.9227
▁घोंट	-11.9228
▁एवरेज	-11.9228
▁धुत	-11.9228
▁खासियत	-11.9229
▁बुच	-11.923
ल्लास	-11.923
-21	-11.923
▁वारिस	-11.923
▁पागल	-11.923
▁हिम	-11.9231
▁एक्यूआई	-11.9232
▁वोल्ट	-11.9233
▁अष्ट	-11.9234
▁राज्‍य	-11.9234
▁ग्रां	-11.9236
▁नेताम	-11.9238
▁कांति	-11.9238
▁नायर	-11.9239
▁शॉल	-11.924
▁स्टोन	-11.9241
▁बायोम	-11.9241
▁मीठा	-11.9243
▁एगी	-11.9244
▁पैग	-11.9244
▁सम्प	-11.9245
▁3.0	-11.9246
ैं	-11.9249
▁230	-11.9251
▁वांछ	-11.9253
बिया	-11.9262
▁बलजीत	-11.9262
गुनिया	-11.9265
▁गुढ़	-11.9266
▁अल्प	-11.9268
▁गील	-11.927
▁अद	-11.927
▁कंसल्टें	-11.9271
for	-11.9273
वर्णन	-11.9273
र्थियों	-11.9277
▁पोत	-11.9279
▁कल्प	-11.9281
▁बोध	-11.9281
▁लॉग	-11.9284
▁अबू	-11.9286
▁(6	-11.9288
▁कहें	-11.9295
हो	-11.9296
च्छ	-11.9297
▁सिंघ	-11.9302
्टन	-11.9302
▁मिलान	-11.9304
्श	-11.9309
ah	-11.931
▁ेज	-11.9313
▁साम्	-11.9315
▁डलवा	-11.9316
▁मोटा	-11.9317
फली	-11.9319
▁्‍स	-11.9322
द्वीप	-11.9326
गंगा	-11.9326
िभव	-11.9328
गम	-11.933
शर्ट	-11.933
अपनी	-11.9342
▁डीएल	-11.9344
▁पिपरा	-11.9347
्‍स	-11.9354
विन्द	-11.9358
▁वायद	-11.9363
▁रत	-11.9365
▁साम	-11.9365
▁लत	-11.9382
ठी	-11.9384
र्ज	-11.9385
ोरिया	-11.9386
▁चं	-11.9386
▁जोगी	-11.9389
▁जल्दबाज	-11.9392
पांव	-11.9393
▁फाइन	-11.9395
▁खण्ड	-11.9397
▁360	-11.9405
▁डूबे	-11.9407
▁शीत	-11.9407
▁ार्थ	-11.941
वस्था	-11.9414
▁इकट्	-11.9416
▁आढ़त	-11.9418
▁मिर्जा	-11.9419
q	-11.9419
▁OBC	-11.9419
▁अम्बेडकर	-11.9419
▁असेंबल	-11.9419
▁एप्लीकेशन	-11.9419
▁चम्मच	-11.9419
▁पॉडकास्ट	-11.9419
▁मुलाजिम	-11.9419
▁सेलिब्रेट	-11.9419
▁स्काउट	-11.9419
धीश्वर	-11.9419
▁फैक्ट्रिय	-11.942
▁छुट्टिय	-11.942
▁पनीर	-11.942
▁बावड़ी	-11.942
▁यशवंत	-11.942
▁ताराचंद	-11.942
▁अनुशंस	-11.942
ल्हा	-11.9421
▁मंडरा	-11.9421
ंग्‍ल	-11.9421
▁शर्मिला	-11.9422
▁घाव	-11.9422
▁बाघिन	-11.9424
▁एचपी	-11.9424
▁ड्री	-11.9424
▁ग्वाल	-11.9425
▁जेके	-11.9428
▁बराबरी	-11.943
सीएस	-11.9431
▁इक्वि	-11.9432
▁बंडा	-11.9432
▁तमंचा	-11.9437
कस्म	-11.9437
टरी	-11.9438
LED	-11.9438
सीमा	-11.9438
▁बैंस	-11.9438
ोलिया	-11.9438
▁रणजी	-11.9439
ष्ठ	-11.944
▁मैया	-11.944
▁भील	-11.944
▁ज़मान	-11.9444
▁महराज	-11.9445
▁बीएल	-11.9446
▁दाे	-11.9446
▁क्रेज	-11.9448
टीओ	-11.9451
▁विदा	-11.9452
▁फर्जीवाड़ा	-11.9453
▁8.30	-11.9455
▁निकलवा	-11.946
▁स्टेटस	-11.9466
▁बिश	-11.9469
कूल	-11.9469
▁फुसला	-11.9469
TMC	-11.9469
भार	-11.947
▁mA	-11.9472
▁Am	-11.9482
▁अना	-11.9489
लास्ट	-11.949
हि	-11.9493
▁स्प्र	-11.9493
▁संयोज	-11.9495
▁पैं	-11.9496
सिव	-11.9505
7)	-11.9506
▁तीर	-11.9511
32	-11.9517
▁विंडो	-11.9522
▁इश	-11.9525
सुबह	-11.9526
ज़ोर	-11.9527
▁िव	-11.953
चमक	-11.9536
▁दुब	-11.9536
टूट	-11.954
▁हाइट	-11.9544
me	-11.9544
कंठ	-11.9545
▁परिस	-11.9545
ण्डा	-11.9546
रेंट	-11.9549
▁Me	-11.9551
▁धुल	-11.956
▁चित	-11.956
▁मड़	-11.9563
्टी	-11.9564
▁भागीरथ	-11.9564
▁ावत	-11.9566
▁्या	-11.9566
▁ड़े	-11.9568
▁धाग	-11.9569
▁फ़ै	-11.9569
र्णा	-11.9583
▁बरा	-11.9587
▁ह्यूम	-11.9588
प्ति	-11.9595
▁4000	-11.9595
.70	-11.9598
साउंड	-11.9603
▁इमल	-11.9604
▁बांधा	-11.9608
45	-11.9608
▁व्यव	-11.9614
ूस	-11.9617
गायिका	-11.9617
खजुराहो	-11.9619
▁अनुराधा	-11.9619
▁क्रैश	-11.9619
▁झमाझम	-11.9619
▁दुमका	-11.9619
▁नसरल्लाह	-11.9619
▁पुस्तिका	-11.9619
▁प्राध्यापक	-11.9619
▁महाशिवरात्रि	-11.9619
▁मैगजीन	-11.9619
▁रिसेप्शन	-11.9619
▁हालाँकि	-11.9619
▁अहंकार	-11.9619
▁वियतनाम	-11.9619
▁सक्सेस	-11.9619
▁बलूच	-11.9619
▁थाईलैंड	-11.9619
▁(27)	-11.9619
▁अर्थशास्त्र	-11.9619
▁निषेध	-11.962
▁रिएक्ट	-11.962
▁बीएचयू	-11.962
▁महापंचायत	-11.962
▁बंशी	-11.962
▁जैव	-11.962
▁Case	-11.962
▁संक्रमित	-11.962
:15	-11.962
▁रिटेन	-11.962
▁दुर्भाग्यपूर्ण	-11.962
▁बच्‍च	-11.962
▁टेम्प	-11.962
▁Rea	-11.9621
▁सराहा	-11.9621
▁रश्मिका	-11.9621
▁मूसल	-11.9621
्कॉन	-11.9621
▁चॉक	-11.9621
▁डुअल	-11.9622
▁पीडीए	-11.9623
जिंदर	-11.9624
▁1977	-11.9625
▁मूड	-11.9625
▁बाह	-11.9625
द्रास	-11.9625
▁झाड़ू	-11.9626
▁ओपनर	-11.9626
▁खुराना	-11.9628
▁प्रसूता	-11.9628
▁यंग	-11.9629
्रिंक	-11.963
▁पढ़ेंः	-11.963
▁कक्षाएं	-11.9632
▁0.5	-11.9632
▁ट्रिपल	-11.9634
▁3.6	-11.9635
▁भीख	-11.9637
दायी	-11.9638
▁उत्तराधिकारी	-11.9638
▁अभिलेख	-11.9638
▁प्रतीक्षा	-11.964
▁जलाया	-11.9642
न्स	-11.9645
▁छापामार	-11.9647
▁स्पे	-11.9647
▁नकाब	-11.9651
▁खोर	-11.9652
▁राइड	-11.9653
ीएनजी	-11.9655
िएशन	-11.9656
▁आरओ	-11.9656
▁थॉम	-11.9658
▁निकास	-11.9661
▁चक्का	-11.9661
▁नान	-11.9662
▁सखी	-11.9662
▁7%	-11.9667
▁नृ	-11.967
▁राऊ	-11.967
▁िद	-11.9672
▁Man	-11.9673
▁संस्करण	-11.9674
▁1.9	-11.9675
▁अड़े	-11.9676
▁बहाना	-11.9682
▁रैम	-11.9682
▁सीढ़िय	-11.9687
▁शादिय	-11.9688
एनएस	-11.9689
▁पीठा	-11.9689
▁तिरु	-11.9689
पार	-11.9689
म्भ	-11.9694
्यास	-11.9697
▁पेर	-11.9698
सात	-11.97
ंगवान	-11.9703
▁वर्ध	-11.9707
▁लिखवा	-11.9708
▁डेली	-11.9708
▁पहुँच	-11.9709
▁तुम्हारा	-11.9712
▁कपास	-11.972
▁स्वाभ	-11.9722
मेरी	-11.9723
फे	-11.9723
▁कॉलिंग	-11.9725
प्रसाद	-11.9728
▁मिलाया	-11.9728
बिरंग	-11.9729
▁3500	-11.9729
▁मनाए	-11.9732
▁आगर	-11.9734
दूर	-11.9735
मेरा	-11.9737
▁ठंडक	-11.9739
▁कृ	-11.9743
र्द	-11.9745
▁ब्	-11.9747
▁कारें	-11.9749
▁202	-11.975
▁विभ	-11.9751
▁औषध	-11.9754
▁.9	-11.9757
1992	-11.9759
शहर	-11.9761
ल्लु	-11.9764
किशन	-11.9775
▁लेक	-11.9783
▁No	-11.9785
वद	-11.9787
▁कोसी	-11.9788
the	-11.9789
▁कर्क	-11.9792
▁कूल	-11.9793
बीटेक	-11.9796
▁जले	-11.9797
ख़्त	-11.9798
वंशी	-11.9798
▁टेल	-11.9798
▁Kh	-11.9798
uti	-11.9799
्ती	-11.9803
▁बीसी	-11.9803
▁निजाम	-11.9811
▁अल्ट्रा	-11.9814
ारण	-11.9815
▁रेणु	-11.982
▁उन्ह	-11.9821
▁गल्ल	-11.9822
▁आर्किटेक्	-11.9823
▁उपरोक्त	-11.9823
▁एमएसएमई	-11.9823
▁चमत्कार	-11.9823
▁छाबड़ा	-11.9823
▁डिलीट	-11.9823
▁निष्कर्ष	-11.9823
▁न्यायपालिका	-11.9823
▁लुढ़क	-11.9823
▁सूक्ष्म	-11.9823
▁मंत्रोच्चार	-11.9823
▁यूएई	-11.9823
▁विंध्य	-11.9823
▁चौबीस	-11.9824
▁आपबीती	-11.9824
▁पीठासीन	-11.9824
▁चिन्मय	-11.9824
▁जालौन	-11.9824
▁अनिश्चितकाल	-11.9824
▁शहबाज	-11.9824
▁जुनून	-11.9824
▁मताधिकार	-11.9824
▁मयूर	-11.9824
▁जागरुक	-11.9824
▁ब्रिक्स	-11.9824
▁SIT	-11.9824
▁शिवरात्रि	-11.9825
▁शरणार्थ	-11.9825
▁सूर्योदय	-11.9825
▁चिपका	-11.9825
▁रघुवीर	-11.9825
▁खीं	-11.9826
▁मुकुल	-11.9826
▁प्रेग्नेंट	-11.9826
▁मिठाइय	-11.9826
▁(19)	-11.9827
▁ऊंट	-11.9827
▁चिंतन	-11.9827
▁दिव्यांगजन	-11.9828
▁गैलेक्	-11.9829
फ़र	-11.9829
▁मैडम	-11.983
▁उन्नति	-11.9831
▁मर्द	-11.9831
▁निकलेगी	-11.9832
▁इंडो	-11.9834
▁फेम	-11.9834
▁(12	-11.9836
▁2)	-11.9837
्ग	-11.9839
▁आंगनवाड़	-11.984
▁रोह	-11.9841
▁ईको	-11.9841
▁अघाड	-11.9841
▁RCB	-11.9842
▁गिन	-11.9846
▁114	-11.9846
क्वीन	-11.9847
डीआर	-11.9849
▁छिड़	-11.9849
▁ज़िक	-11.985
दायक	-11.9851
▁6.7	-11.9851
▁तूल	-11.9852
▁मैक्रो	-11.9853
▁मिस्टर	-11.9854
▁रोम	-11.986
▁घा	-11.9863
▁महकम	-11.9864
र्सी	-11.987
▁हरमन	-11.9871
▁ऑडि	-11.9872
बीआरएस	-11.9874
ंगुली	-11.9876
▁घोड़ा	-11.9878
▁फॉल	-11.9882
्यूम	-11.9884
▁सान	-11.9887
ोरी	-11.9891
▁मोहि	-11.9897
▁कम्	-11.9899
▁तैर	-11.9901
▁सर्वर	-11.9903
▁डोम	-11.9905
सिल	-11.9908
▁जवाबदेह	-11.9909
▁लेंस	-11.991
▁झांकिय	-11.991
▁उतरवा	-11.9916
▁सतत	-11.9916
▁जेन	-11.992
▁बुधन	-11.992
▁पढ़त	-11.9921
ाटे	-11.9921
▁लाद	-11.9924
खोर	-11.9924
▁अटेंडें	-11.9928
▁एलएल	-11.993
▁सहम	-11.9933
▁धारणा	-11.9933
▁नयन	-11.9934
▁जमी	-11.9937
समृद्धि	-11.9938
न्ट	-11.9939
▁पीए	-11.994
वश	-11.994
खुश	-11.9941
गोपाल	-11.9945
▁िश	-11.9947
40	-11.9948
▁दाता	-11.9952
▁संपत	-11.9953
▁सिकंदरा	-11.9956
▁हफ्त	-11.9957
id	-11.9959
▁ग्	-11.9961
▁शिल्प	-11.9965
▁दायरा	-11.9968
▁नियोज	-11.9969
▁ज़िला	-11.9969
▁प्रजाति	-11.997
TM	-11.9973
डंडे	-11.9974
ैरियर	-11.9975
▁सांच	-11.9984
▁जमात	-11.9989
बाड़ी	-11.9994
MLA	-12
▁NH	-12.0001
▁टिकी	-12.0011
▁एमबी	-12.0012
▁सीसा	-12.0014
वसर	-12.0014
▁टोन	-12.0019
▁उतारे	-12.0024
▁-7	-12.0026
▁पचा	-12.0027
धिकृत	-12.0028
▁एचएस	-12.0031
▁Author	-12.0032
▁Collection	-12.0032
▁उत्कर्ष	-12.0032
▁जनार्दन	-12.0032
▁जांगिड़	-12.0032
▁तरक्की	-12.0032
▁पर्दाफाश	-12.0032
▁प्रेसवार्ता	-12.0032
▁वेंटिलेट	-12.0032
▁मछलिय	-12.0032
कृत्रिम	-12.0032
▁अनुयाय	-12.0032
▁तड़प	-12.0032
▁मुस्तैद	-12.0032
▁इंटीरियर	-12.0032
▁फिंगर	-12.0032
▁डायबिट	-12.0032
▁सिंदूर	-12.0032
▁अतीक	-12.0032
▁ओवरलोड	-12.0032
▁हापु	-12.0032
▁अनीस	-12.0032
▁बर्बर	-12.0032
▁कटाक्ष	-12.0033
▁किस्से	-12.0033
▁हर्षवर्धन	-12.0033
▁On	-12.0033
▁प्रयोगशाला	-12.0033
gle	-12.0033
▁पंक्ति	-12.0033
▁एक्सेस	-12.0033
▁रिस्क	-12.0033
▁नंदिनी	-12.0034
▁राहु	-12.0034
▁चाहेंगे	-12.0034
▁चैप्	-12.0034
▁मलयाल	-12.0034
▁पैपर	-12.0034
▁उठाएंगे	-12.0036
▁खिसक	-12.0036
▁चलेंगी	-12.0036
▁अमोल	-12.0037
▁वशिष्ठ	-12.0038
▁ऐश	-12.0038
▁तत्	-12.0039
▁खिलाया	-12.0041
▁पंडर	-12.0041
▁सिक्का	-12.0041
▁जोग	-12.0041
▁सकेंगी	-12.0042
▁बल्ले	-12.0043
▁खेलेंगे	-12.0043
ाविक	-12.0044
▁अविश्वास	-12.0045
▁जूस	-12.0046
▁सिह	-12.0046
▁चन्नी	-12.0047
▁शांतिपूर्	-12.0049
▁Petrol	-12.0051
▁कंबो	-12.0052
▁Kar	-12.0052
▁बीवी	-12.0053
▁6:	-12.0053
▁चौका	-12.0054
CAA	-12.0058
▁कथ	-12.0059
▁तरन	-12.0059
फोर्ड	-12.006
▁(7	-12.0061
▁अपमानित	-12.0062
ैग	-12.0065
▁चंदू	-12.0065
▁टेलीविज	-12.007
▁थल	-12.0071
▁बलराज	-12.0075
▁सोनम	-12.0079
▁गंदी	-12.0088
▁आदान	-12.0089
▁अधूरी	-12.0089
▁कुन	-12.0102
▁गम्	-12.0105
वाड़ी	-12.0115
▁94.	-12.0121
-30	-12.0122
▁बोलकर	-12.0126
▁सीजी	-12.0129
कुश	-12.013
▁ज़ोर	-12.0133
▁111	-12.0135
▁सुस्त	-12.014
शिष्ट	-12.0147
विमर्श	-12.015
▁माइक	-12.0151
व्यवहार	-12.0151
शक्ति	-12.0152
विचार	-12.0153
▁अवाम	-12.0154
▁शॉ	-12.0155
ब्स	-12.0161
▁मानो	-12.0161
▁विंड	-12.0164
▁विवाहित	-12.0165
भजन	-12.0165
चित	-12.0169
▁अन्ना	-12.017
ाड़िया	-12.0175
▁बेरी	-12.018
▁शाकि	-12.0183
▁ज़ा	-12.0187
▁वुम	-12.0188
▁सीरिय	-12.0189
▁साग	-12.019
▁राहा	-12.0194
्ट्री	-12.0198
टीसी	-12.0199
▁श्रेया	-12.0201
तत्व	-12.0208
कर्मी	-12.0211
▁भट्टी	-12.0212
वरी	-12.0213
▁जीरा	-12.0216
▁आदम	-12.0216
इया	-12.0218
▁क्रमश	-12.022
▁मौक	-12.0227
िप	-12.0231
▁कांवरिय	-12.0236
▁छिन	-12.024
िहाई	-12.0241
▁आश्रित	-12.0245
▁-2023	-12.0245
▁त्रिवेणी	-12.0245
▁बाजपेयी	-12.0245
▁योद्धा	-12.0245
▁विज्ञप्ति	-12.0245
▁वैवाहिक	-12.0245
▁सामंजस्य	-12.0245
▁ट्रिब्यून	-12.0245
▁कंटेस्टेंट	-12.0245
▁ब्राउन	-12.0245
▁वज्र	-12.0245
▁प्रारम्भ	-12.0245
BSF	-12.0245
▁प्रोटेक्शन	-12.0245
▁टॉवर	-12.0245
संगरूर	-12.0245
▁दुग्ध	-12.0245
▁अपन	-12.0246
▁सुनक	-12.0247
▁माइंड	-12.0247
▁टेंपो	-12.0247
▁संरेख	-12.0248
▁कुम्हार	-12.025
▁बीयर	-12.025
▁कोबरा	-12.025
ाइजर	-12.0251
DGP	-12.0253
सकी	-12.0253
▁गढ़वा	-12.0253
▁फरमान	-12.0254
गन्ना	-12.0255
▁मूसे	-12.0255
▁श्योपुर	-12.0256
▁नंदा	-12.0256
▁नाचते	-12.0257
▁हिल्स	-12.0261
▁एलिवेटेड	-12.0262
▁चिरंजीव	-12.0264
▁क्रिएट	-12.0264
लिसिस	-12.0265
िको	-12.0265
▁St	-12.0269
स्सी	-12.0269
52	-12.027
▁12:30	-12.0276
▁राजिंदर	-12.0277
▁मालती	-12.0279
dha	-12.028
जूर	-12.028
▁175	-12.0285
▁क्वा	-12.0285
▁देंगी	-12.0285
▁कॉक	-12.0287
▁कास्टिंग	-12.0291
▁पदस्थाप	-12.0298
▁प्यारे	-12.03
▁सुखविंद	-12.0302
ia	-12.0305
▁तुर	-12.0305
-22	-12.0306
.20	-12.0308
पाई	-12.0309
▁थैल	-12.0311
्टा	-12.0312
▁बरह	-12.032
किया	-12.032
ोहा	-12.032
वाय	-12.0324
▁Sal	-12.0328
▁आंक	-12.0328
▁उठी	-12.0329
▁फार्मा	-12.0334
▁कथन	-12.0335
▁117	-12.0335
▁नित्य	-12.0339
▁3.4	-12.0341
▁मेंटल	-12.0341
▁विप्र	-12.0344
▁काबिल	-12.0345
जिन	-12.0345
▁इम्	-12.0348
▁Q	-12.0352
सीए	-12.0354
▁अनुच	-12.0356
रक्षक	-12.0358
80	-12.0363
▁फैज	-12.0365
ांति	-12.0367
एनसीआर	-12.0368
AAP	-12.0369
समिति	-12.0369
▁जेडी	-12.0369
सहाय	-12.0369
बेन	-12.037
▁मटक	-12.037
्यै	-12.0372
▁टेन	-12.0372
वैधानिक	-12.0373
▁रॉ	-12.0378
▁कारक	-12.0379
स्‍थान	-12.038
▁भड़की	-12.0381
बीच	-12.0382
िश्रम	-12.0391
▁1600	-12.0397
▁झपट	-12.0398
▁gov	-12.0401
▁फला	-12.0405
▁कांटा	-12.0417
▁ेल	-12.0423
सज्ज	-12.0423
▁धुर	-12.0424
ow	-12.0428
de	-12.0433
▁पीत	-12.0434
ैसे	-12.0437
▁जद	-12.044
▁काउंट	-12.0443
▁एनआर	-12.0444
▁फिज	-12.0447
▁नाई	-12.0448
▁Di	-12.0448
▁नवनिर्म	-12.0451
▁Goo	-12.0452
▁टिप्पणिय	-12.0461
▁इंडोनेशिया	-12.0462
▁इन्फ्रा	-12.0462
▁उपराज्यपाल	-12.0462
▁एनटीपीसी	-12.0462
▁एयरबैग	-12.0462
▁गुंडागर्दी	-12.0462
▁झुग्गी	-12.0462
▁टमाटर	-12.0462
▁वर्चस्व	-12.0462
▁वाशिंग	-12.0462
▁ग्यारह	-12.0462
▁पुरूष	-12.0462
CSK	-12.0462
▁वीडियोग्राफी	-12.0462
▁उंगली	-12.0462
▁जाधव	-12.0462
▁कैरेक्टर	-12.0462
लावारिस	-12.0462
▁रसायन	-12.0462
▁एक्सपीरियंस	-12.0462
रालोद	-12.0462
▁विदर्भ	-12.0462
▁अधीनस्थ	-12.0462
▁सोहेल	-12.0462
▁गोविल	-12.0462
▁उदासीन	-12.0463
lme	-12.0463
स्पीच	-12.0463
▁पेंच	-12.0463
▁संभालेंगे	-12.0464
▁Air	-12.0464
▁फहराया	-12.0464
▁कलक्टर	-12.0465
▁अहीर	-12.0465
▁ख़रीद	-12.0465
▁आयरन	-12.0465
▁सुरक्षाकर्मी	-12.0466
▁कठिनाई	-12.0466
▁कृषक	-12.0466
▁सीपीआई	-12.0466
▁लड़ेगी	-12.0467
-40	-12.0467
▁विलेन	-12.0468
▁पारण	-12.0468
▁ठे	-12.0468
▁कम्प्यूट	-12.0469
▁चंदेल	-12.0471
▁उबर	-12.0472
▁माहिर	-12.0474
▁चूना	-12.0475
▁लाेग	-12.0475
जारा	-12.0475
▁पैरेंट	-12.0477
▁ताऊ	-12.0478
CEO	-12.0478
मीडिए	-12.0481
▁मूवीज	-12.0483
▁मैड	-12.0484
▁वॉच	-12.0484
▁मैथ्यू	-12.0487
▁मिलर	-12.0489
▁दशहर	-12.0489
▁2.7	-12.0489
डीएसटी	-12.0495
▁बिट्	-12.05
प्प	-12.0505
▁वेंडर	-12.0506
▁1,000	-12.0507
▁पत्रिका	-12.0507
ाटी	-12.0508
▁चाक	-12.0515
▁टॉर्	-12.0518
▁सायर	-12.0518
▁धम	-12.052
पानी	-12.0527
▁श्वर	-12.0531
▁मंद	-12.0531
▁शब	-12.0535
पोर्ट	-12.0536
▁कतरा	-12.054
▁थो	-12.0543
▁बोन	-12.0544
बन्ध	-12.0551
▁ठोकर	-12.0556
▁Son	-12.0557
▁माताओं	-12.0563
ana	-12.0564
▁इंफो	-12.0565
नुपात	-12.0568
ायत	-12.0569
▁अंजल	-12.0569
▁समद	-12.0571
▁प्यास	-12.0577
▁िस्ट	-12.058
▁बल्	-12.058
▁दू	-12.0581
▁नुक्कड	-12.0585
माड़	-12.0586
▁कैल	-12.0586
▁मौर्या	-12.0588
▁शाल	-12.0588
विवाहित	-12.0589
▁मादा	-12.059
किल	-12.0593
यत	-12.0593
बाध	-12.0596
▁धरम	-12.0596
शेष	-12.0601
▁रहो	-12.0606
▁घात	-12.0608
र्डन	-12.061
नेंस	-12.061
ंगाबाद	-12.0611
▁इकोनॉमिक	-12.0613
वॉट	-12.0615
▁तबाह	-12.062
म्मा	-12.0629
▁कांग्रेसियों	-12.0632
▁ैया	-12.0634
ियार	-12.0638
▁रामपुरा	-12.0639
▁त्रुटि	-12.0643
thi	-12.0644
▁क्लासिक	-12.0647
गध	-12.0647
▁एशिय	-12.0647
▁बिह	-12.065
▁लगना	-12.065
टर्स	-12.066
लेस	-12.066
लिप्त	-12.0663
▁मैने	-12.0668
▁ठोक	-12.0681
्चे	-12.0681
▁पचम	-12.0682
▁क्रिस	-12.0683
पोस्ट	-12.0683
CJI	-12.0684
OTT	-12.0684
▁उम्रकैद	-12.0684
▁कार्यान्वयन	-12.0684
▁ज्योतिर्लिंग	-12.0684
▁फाल्गुन	-12.0684
▁बर्ताव	-12.0684
▁श्रेणिय	-12.0684
▁संयंत्र	-12.0684
▁सीक्रेट	-12.0684
▁तोहफा	-12.0684
▁शाक्य	-12.0684
▁स्वप्न	-12.0684
▁सुथार	-12.0684
▁रिसॉर्ट	-12.0684
▁हिज्बुल्ला	-12.0684
▁भूटान	-12.0684
▁त्रिशू	-12.0684
▁फिल्ममेकर	-12.0684
▁ग्रेनेड	-12.0684
▁दारोग	-12.0684
▁बैकग्राउंड	-12.0684
▁फादर	-12.0685
▁स्टालिन	-12.0685
बीईओ	-12.0685
▁तुष्ट	-12.0685
▁मंझ	-12.0685
▁प्रतिरोध	-12.0685
PC	-12.0686
▁प्रचल	-12.0686
▁सेटअप	-12.0686
▁स्काई	-12.0686
▁रैलिय	-12.0686
▁टिप्स	-12.0687
▁रवी	-12.0687
उड़ीसा	-12.0688
▁असंभव	-12.0688
▁नबी	-12.0688
▁राउत	-12.0688
▁रहस्य	-12.0689
▁रनोट	-12.069
कॉन्ट्रैक्ट	-12.069
▁बिट	-12.069
▁उड़ाया	-12.0691
▁मंजीत	-12.0691
▁श्रीफल	-12.0692
▁/0	-12.0694
▁रिसा	-12.0694
▁कुरू	-12.0694
▁क्वालिफाई	-12.0696
▁बांधव	-12.0698
▁आईएस	-12.0699
वाना	-12.07
▁भट्ठ	-12.07
बहार	-12.0701
ज्ज	-12.0701
▁हड़	-12.0701
▁दिखीं	-12.0705
शान	-12.0705
▁पीएल	-12.0707
सुध	-12.0708
▁लॉस	-12.0711
▁माव	-12.0712
▁नसीर	-12.0715
▁आबू	-12.0715
▁सीलिंग	-12.072
▁विक्ट	-12.0721
▁स्ल	-12.0723
▁चर्चाएं	-12.0729
▁स्वार्थ	-12.0732
▁ka	-12.0735
्टे	-12.0738
▁पेशेंट	-12.074
▁%	-12.074
संतोष	-12.074
▁8%	-12.074
बीज	-12.0742
छुआ	-12.0746
▁नागा	-12.0747
ud	-12.075
▁जूह	-12.0751
▁कुं	-12.0753
ity	-12.0754
िख	-12.0756
पाक	-12.076
▁मुखी	-12.0762
▁अह	-12.0764
▁.00	-12.0769
▁एसडी	-12.077
▁पह	-12.0771
▁सॉ	-12.0772
▁मान्य	-12.0772
48	-12.0773
▁डॉन	-12.0775
▁निर्जल	-12.0777
▁भुगत	-12.0784
▁गिनी	-12.0785
ीरियल	-12.0788
▁चुंग	-12.079
▁मंडली	-12.0793
लेक्स	-12.0799
वेंशन	-12.0802
▁नवीनत	-12.0802
▁सूद	-12.0803
▁MI	-12.0807
जीज	-12.0807
नियुक्त	-12.0815
फ्लो	-12.0817
▁खाप	-12.0817
कर्मचारी	-12.0818
▁वट	-12.0818
डाउन	-12.0818
द्वितीय	-12.0819
भाड़	-12.0821
शु	-12.0825
यूजी	-12.0827
▁गुजरत	-12.0833
▁Do	-12.0834
▁कद्द	-12.0844
▁रौ	-12.0845
▁प्रत्यक्षदर्श	-12.0846
▁दिव्यांश	-12.0847
जीब	-12.0857
िला	-12.0858
▁अरि	-12.086
▁सीड	-12.0861
▁टैलेंट	-12.0864
▁550	-12.0869
वर्ग	-12.087
्रयो	-12.0871
▁आरएल	-12.0873
▁तस	-12.0874
▁नक्श	-12.0876
▁गांज	-12.0879
▁खट	-12.0882
र्प	-12.0885
रोल	-12.0887
▁निर्धार	-12.0891
▁आईएमए	-12.0897
ुवा	-12.0898
▁ट्रो	-12.09
▁1:	-12.0902
डंड	-12.0906
NA	-12.0906
शोर	-12.0907
राष्‍ट्र	-12.0908
▁मंड	-12.0909
▁गर्ल	-12.0909
▁New	-12.091
▁वैद्य	-12.0911
▁बंग	-12.0911
▁Result	-12.0911
▁एग्जीक्यूट	-12.0911
▁प्रदूषित	-12.0911
▁बंदोबस्त	-12.0911
▁बल्‍लेबाज	-12.0911
▁सांत्वना	-12.0911
▁मशाल	-12.0911
▁सीमांकन	-12.0911
आश्रय	-12.0911
://	-12.0911
▁फेरबदल	-12.0912
▁सिलावट	-12.0912
मुंगेली	-12.0912
▁ज़िंदगी	-12.0912
▁वीरांगना	-12.0912
SBI	-12.0912
▁संप्रभु	-12.0912
▁पुष्पांजलि	-12.0912
▁हिरदा	-12.0912
▁तुझ	-12.0912
▁हुनर	-12.0912
गिर्द	-12.0913
▁सुंदरकांड	-12.0913
▁होडल	-12.0913
▁सौतेल	-12.0913
▁सजग	-12.0915
▁काॅल	-12.0915
जोर	-12.0915
▁तहखान	-12.0916
▁दिग	-12.0916
▁निवाड़ी	-12.0917
▁चंद्रकांत	-12.0918
▁घोस	-12.0918
▁ठेस	-12.0918
▁अशरफ	-12.0919
▁अर्थद	-12.092
▁कैपिटल्स	-12.0923
▁डेथ	-12.0923
▁टीपी	-12.0924
▁कर्व	-12.0926
वट	-12.0927
▁स्पेन	-12.0927
▁सुने	-12.0928
▁मोमेंट	-12.0928
▁खरीफ	-12.0934
▁ट्रैप	-12.0936
▁Ra	-12.0938
िष्क	-12.0939
ित्रो	-12.0939
▁विप	-12.094
भीर	-12.094
▁लेंगी	-12.0941
़त	-12.0942
▁क्यूआर	-12.0942
▁टाई	-12.0944
▁नु	-12.0949
xy	-12.0951
▁करीम	-12.0951
डॉ	-12.0952
▁ोर	-12.0955
मिशन	-12.0956
▁वारदातें	-12.0957
▁10:	-12.0958
▁कोटक	-12.0958
▁पहुंचेगा	-12.0962
फीमेल	-12.0963
अध्याय	-12.0963
समंद	-12.0963
▁10:30	-12.0964
क्ट	-12.0964
▁मिस्र	-12.0967
स्लाइड	-12.0971
▁ट्रैकिंग	-12.0971
▁क्‍यों	-12.0971
खेड़ा	-12.0972
लोचन	-12.0972
▁भेड़िय	-12.0978
▁2.30	-12.0979
▁थि	-12.098
▁मेधाव	-12.0982
▁420	-12.0982
क्‍	-12.0983
▁(8	-12.0983
GST	-12.0984
▁दश	-12.0987
▁द्वि	-12.0988
नन	-12.0992
▁3%	-12.0993
▁सहन	-12.0994
▁बर्न	-12.1003
▁झर	-12.1004
शाद	-12.1004
क्वाड	-12.1007
▁गद्दी	-12.1008
जार	-12.101
▁माध	-12.101
▁सुन्न	-12.1011
▁हाइव	-12.1012
▁फेंके	-12.1013
▁नौबत	-12.1017
ाहत	-12.1017
हक	-12.1019
▁3.3	-12.1023
ताल	-12.1034
निधि	-12.1039
▁रचने	-12.1047
▁वाड़	-12.1048
साहेब	-12.105
योजना	-12.1051
▁चीत	-12.1051
व्याप	-12.1051
फ्रिज	-12.1052
पोलो	-12.1053
▁आंत	-12.1056
▁वाच	-12.1057
▁एमआई	-12.1059
िंद्र	-12.106
▁अध्य	-12.1063
▁स्ट्रे	-12.1064
94	-12.1066
मणि	-12.1069
▁मुकाबल	-12.107
▁गोंद	-12.1071
▁ठान	-12.1071
खेल	-12.1073
▁वाचन	-12.1074
माने	-12.1079
▁v	-12.1081
स्‍था	-12.1092
▁वारा	-12.1097
जेंड	-12.1099
ीनगर	-12.1105
पुरवा	-12.1109
▁कृप	-12.1111
▁कटर	-12.1111
कुर	-12.1112
▁स्पर्	-12.1113
ष्टी	-12.1115
कर्ताओं	-12.1116
▁नय	-12.1117
फाइड	-12.1122
▁कारखान	-12.1123
बिट	-12.1124
▁जयकार	-12.1125
▁स्टेन	-12.1126
दाम	-12.1128
SS	-12.1129
▁मास्क	-12.113
ौना	-12.1133
तिया	-12.1133
▁डायलॉग	-12.1137
्रूट	-12.1138
▁बैरिकेड	-12.1138
▁प्रभ	-12.1141
▁प्ला	-12.1142
▁निकित	-12.1142
ास्पद	-12.1144
▁अल्टीमेटम	-12.1144
▁टेक्नीशियन	-12.1144
▁तिब्बत	-12.1144
▁थ्रिल	-12.1144
▁रिस्पॉन्स	-12.1144
▁रेस्तरा	-12.1144
▁सब्जेक्ट	-12.1144
▁स्तोत्र	-12.1144
▁थरूर	-12.1144
▁पृष्ठभूमि	-12.1144
▁कट्टरपंथ	-12.1144
▁वानखेड	-12.1144
▁मॉड्यूल	-12.1144
▁अंदरूनी	-12.1144
▁कंपाउंड	-12.1144
▁फिलीपी	-12.1144
▁Puja	-12.1144
▁INDIA	-12.1144
▁मुल्क	-12.1144
▁Date	-12.1144
▁अन्वेष	-12.1144
▁निराधार	-12.1145
▁संपदा	-12.1145
▁साइंटि	-12.1145
▁अनिरुद्ध	-12.1145
▁गुरूवार	-12.1146
▁निगाहें	-12.1146
▁सूबेदार	-12.1146
▁सेलेक्ट	-12.1146
▁ौ	-12.1146
▁दाऊद	-12.1146
▁बीएमसी	-12.1146
▁एमआईसी	-12.1147
▁समझें	-12.1149
▁गिरधारी	-12.1149
▁रूबी	-12.115
▁1993	-12.115
▁जनजीवन	-12.115
▁देवस्थान	-12.115
▁अवमान	-12.1151
▁यहूद	-12.1153
▁लवली	-12.1154
▁संतुष्टि	-12.1155
▁बाहुबली	-12.1156
▁रितिक	-12.1157
▁राजावत	-12.1158
▁प्रूफ	-12.1159
ोश	-12.1159
▁इनोव	-12.1163
ख्‍या	-12.1165
▁वक्ताओं	-12.1165
लबर्न	-12.1167
हिन्दी	-12.1167
▁नरसिंहपुर	-12.1167
▁पड	-12.1168
▁मावली	-12.1169
▁लक्क	-12.1169
▁कट्टर	-12.117
▁सुखद	-12.1173
बेंस	-12.1178
ावट	-12.118
देना	-12.1183
क्रमशः	-12.1185
▁8:	-12.1188
▁पका	-12.1188
▁संजीवनी	-12.1189
▁नियत	-12.1191
▁एडि	-12.1192
▁भाद	-12.1192
▁सूत्री	-12.1192
NC	-12.1196
▁अट	-12.1204
्राफ्ट	-12.1205
ara	-12.1206
▁किश्त	-12.1211
रविन्द	-12.1213
▁-5	-12.1214
CB	-12.1214
▁गरम	-12.1217
▁(3)	-12.1218
▁स्वत	-12.1218
▁रोज़	-12.1218
ियारा	-12.1218
क्का	-12.1219
▁सेंध	-12.122
▁मॉस्	-12.122
▁मोई	-12.1222
▁5,000	-12.1224
▁कट्	-12.1225
▁साख	-12.1227
गठित	-12.1229
▁जिप	-12.1231
▁चूर	-12.1237
रोधी	-12.124
ायन	-12.1246
▁वृद्धा	-12.1246
▁हनुम	-12.1248
शिर	-12.1251
▁बनें	-12.1252
▁पूज	-12.1253
▁यां	-12.1254
▁प्राधिकार	-12.1254
▁एफडी	-12.1262
▁गठ	-12.1264
दीद	-12.1266
काय	-12.1268
▁महोब	-12.1272
▁बस्तिय	-12.1273
▁तीस	-12.1274
▁गेंदबाज़	-12.1278
रीन	-12.1282
▁अधूर	-12.1282
▁बसेर	-12.1288
ट्रॉली	-12.1288
प्रणाली	-12.1289
बिहार	-12.1289
se	-12.1291
मुंडा	-12.1292
िवेश	-12.1297
व्यवस्था	-12.13
▁फैजा	-12.1304
▁लाज	-12.1304
▁लकड़ा	-12.1306
▁मेघा	-12.1309
साइज	-12.1309
▁145	-12.1319
ेश्वरी	-12.1324
ंट्स	-12.1325
कर्ण	-12.1328
बिल	-12.1332
▁Co	-12.1334
▁तूफानी	-12.1334
श्त	-12.1335
▁पन्न	-12.1339
▁दवाइय	-12.1341
▁डीआर	-12.1343
▁टिम	-12.1343
ुरु	-12.1343
▁सेटिंग	-12.1343
सका	-12.1345
emb	-12.1346
कास्ट	-12.1352
एड	-12.1359
▁नरसिंह	-12.1359
▁रंगा	-12.1362
▁पहाड़िया	-12.1362
▁चांदन	-12.1362
ेह	-12.1365
▁स्क्वाय	-12.1369
▁जीएस	-12.1369
▁पब्लि	-12.1372
▁यदु	-12.1375
▁प्रल	-12.1375
▁फ्लो	-12.1378
▁खरा	-12.1382
▁क्रिश्च	-12.1382
JJP	-12.1382
▁Kumar	-12.1382
▁www	-12.1382
▁कस्तूर	-12.1382
▁कुंदरकी	-12.1382
▁निविदा	-12.1382
▁मल्हार	-12.1382
▁मुनव्वर	-12.1382
▁सहूलियत	-12.1382
▁एनालिसिस	-12.1382
▁चिपसेट	-12.1382
▁रियासत	-12.1382
▁स्विमिंग	-12.1382
चौमूं	-12.1382
▁व्लादिम	-12.1382
▁हाइड्रो	-12.1382
▁रॉबर्ट	-12.1382
▁Chunav	-12.1382
▁अव्वल	-12.1382
▁गर्भपात	-12.1382
▁Ex	-12.1382
▁गोड्डा	-12.1383
▁चस्पा	-12.1383
▁मैसूर	-12.1383
▁ऐंठ	-12.1383
ह्लाद	-12.1383
हमें	-12.1383
▁धंधा	-12.1383
▁बांसुरी	-12.1383
▁उपेक्ष	-12.1383
▁मानदंड	-12.1383
▁डेवलपर	-12.1383
▁कन्फ	-12.1384
▁रिंक	-12.1385
▁ट्रफ	-12.1386
▁मीसा	-12.1386
▁्‍	-12.1386
▁दूं	-12.1386
▁द्वारिका	-12.1387
▁रूफ	-12.1388
▁सूजन	-12.1388
▁यार	-12.1388
▁दाएं	-12.1389
3)	-12.1389
▁जघ	-12.1389
▁पधार	-12.139
▁कुट	-12.139
▁रैकेट	-12.1391
▁Die	-12.1394
▁इतिहासकार	-12.1394
जाते	-12.1394
▁अंदाज़	-12.1397
▁माझी	-12.1398
▁कली	-12.1399
▁डल	-12.1401
im	-12.1403
▁जुल	-12.1403
ung	-12.1405
▁करोड़पति	-12.1406
▁फिना	-12.1409
पुरम	-12.1409
▁कुर्बानी	-12.141
▁नॉट	-12.141
▁बछड़	-12.1412
▁दोनो	-12.1413
▁हरित	-12.1414
▁मुस	-12.1415
▁सांड	-12.1415
▁इंड	-12.1419
▁परेशानियां	-12.1419
ल्डिंग	-12.142
तरफ	-12.1421
▁रंध	-12.1422
▁हेर	-12.1422
▁पेय	-12.1423
जात	-12.1427
▁स्मरण	-12.1427
▁गैलर	-12.1428
▁दस्ता	-12.1428
ck	-12.143
▁ऐड	-12.143
▁बोरिंग	-12.143
▁@	-12.1431
स्त्री	-12.1432
▁हॉर	-12.1436
टिंग	-12.1437
्विच	-12.1438
▁मोना	-12.1439
▁यूपीए	-12.144
▁बर्ग	-12.1443
एमजीएम	-12.1444
▁अतर	-12.1447
kar	-12.1447
ट्टी	-12.1448
▁ट्रेक	-12.1453
▁रोमांच	-12.1455
▁दौड़ते	-12.1455
▁Fa	-12.1455
▁Nar	-12.1455
टीपी	-12.1456
va	-12.1459
▁बेकर	-12.1461
▁गुजरी	-12.1463
▁चै	-12.1466
▁गोपालपुर	-12.147
यरिंग	-12.147
ंजा	-12.1472
▁टीन	-12.1473
सीन	-12.1475
lay	-12.1476
भूमि	-12.1476
▁कुशा	-12.1476
ज्जा	-12.1481
▁17.	-12.1483
▁हिन्द	-12.1483
▁तांब	-12.1486
्डर	-12.1487
ंघा	-12.1489
▁पत्ते	-12.1493
▁विष	-12.1496
....	-12.1497
▁जानकर	-12.1507
DP	-12.1508
फ़्	-12.1511
▁बाड़ा	-12.1513
पारा	-12.1519
▁मस	-12.1519
mp	-12.152
▁रामपाल	-12.1522
टूर	-12.1524
▁नॉर्	-12.1527
विकेटकीपर	-12.1532
नवाज	-12.1532
फील्ड	-12.1533
स्टाइल	-12.1533
नवमी	-12.1533
▁अरे	-12.1535
चढ़	-12.1546
गठन	-12.1547
▁निदा	-12.1553
खो	-12.1555
▁ईसी	-12.1556
PG	-12.1557
▁डुब	-12.1559
▁नैनी	-12.156
सेवक	-12.1562
▁j	-12.1563
CH	-12.1564
ट्	-12.1568
▁गाड	-12.1568
्रेड	-12.1572
▁बुलाए	-12.1572
rakh	-12.1573
ेटेड	-12.1574
वादन	-12.1574
▁खींचा	-12.1576
▁पदम	-12.1579
ap	-12.1585
▁पीएचई	-12.1586
यक	-12.1587
▁0.2	-12.1592
मेक	-12.1606
▁Tra	-12.1609
▁माइनर	-12.1611
▁नथ	-12.1625
▁किराये	-12.1625
चुरल	-12.1626
▁रिन्यू	-12.1626
▁Gala	-12.1626
▁अंदेशा	-12.1626
▁अवहेलना	-12.1626
▁जलजमाव	-12.1626
▁नामांतरण	-12.1626
▁निंदनीय	-12.1626
▁ब्वॉय	-12.1626
▁रामानुज	-12.1626
▁रेगिस्तान	-12.1626
▁वृक्षारोपण	-12.1626
▁सीक्वल	-12.1626
▁स्कार्पियो	-12.1626
▁Panchang	-12.1626
▁पिकनिक	-12.1626
▁फेफड़	-12.1626
▁मरकाम	-12.1626
▁सरबजीत	-12.1626
▁हथौड़	-12.1626
गरियाबंद	-12.1626
ुकी	-12.1626
▁स्टंप	-12.1626
▁राधे	-12.1626
▁पोर्श	-12.1626
▁संदेशखाल	-12.1626
▁Navrat	-12.1626
▁मार्कशीट	-12.1626
▁हफ़्त	-12.1626
लैंप	-12.1626
एनजीटी	-12.1627
▁गौरेला	-12.1627
▁मन्नत	-12.1627
▁नासिर	-12.1627
▁फ़ोन	-12.1627
ंजेक्शन	-12.1627
▁दांगी	-12.1628
▁(16	-12.1629
▁क्रय	-12.1629
▁बब्बर	-12.1629
▁बेचैन	-12.163
▁डिस्टर	-12.163
▁लगाव	-12.163
▁मध्यस्थ	-12.163
▁सेविका	-12.1632
रमजान	-12.1632
▁रिजेक्	-12.1632
▁मौख	-12.1633
▁नारद	-12.1633
एनएसई	-12.1633
▁हरजिंदर	-12.1634
▁एँ	-12.1634
▁अध	-12.1635
▁दंत	-12.1637
▁अलका	-12.1639
ंबू	-12.1639
▁बंजारा	-12.164
खरी	-12.1641
▁नाश्ता	-12.1643
▁दंडाधिकारी	-12.1646
▁प्रोडक्ट्स	-12.1648
▁मसाले	-12.1649
▁तिरंग	-12.165
बेस	-12.165
▁वनवास	-12.165
▁Dev	-12.1653
▁मैट	-12.1657
▁पीवी	-12.1658
▁समेट	-12.1659
एमसी	-12.1664
▁बनाएगा	-12.1664
▁देवली	-12.1667
▁जयकारे	-12.1667
▁चढ़ाई	-12.1667
▁इंट	-12.167
▁घुल	-12.1674
▁आख़िरी	-12.1677
▁134	-12.1677
सह	-12.1682
ंचल	-12.1683
▁अफजा	-12.1683
▁गोट	-12.1684
▁बचाए	-12.1685
▁भांग	-12.1686
▁वाइज	-12.1687
▁भग	-12.1687
दलीप	-12.1689
▁ऑनर	-12.169
▁कफ	-12.1691
▁शुमार	-12.1691
▁चीता	-12.1692
▁एमटी	-12.1692
ॉइस	-12.1694
कगार	-12.1697
▁मेटा	-12.1701
▁फिन	-12.171
फाइल	-12.1712
▁14.	-12.1715
▁प्रद	-12.1716
▁चेता	-12.1722
लाज	-12.1726
हित	-12.1728
▁बकर	-12.1734
पटना	-12.1736
▁ट्रै	-12.1737
आचरण	-12.1739
▁सुध	-12.1742
ेटिक	-12.1743
न्तु	-12.1746
▁नजरें	-12.175
्लिप	-12.1751
▁ड्रा	-12.1756
▁-4	-12.1763
प्त	-12.1764
▁अनाथ	-12.1767
▁पलटी	-12.1767
▁यूएसए	-12.1769
मंत	-12.1769
▁लोह	-12.1771
▁कुचला	-12.1772
▁जेबी	-12.1773
ाधान	-12.1774
कराल	-12.1776
मुक्त	-12.1776
▁प्राइज	-12.1777
ath	-12.1778
▁दशा	-12.1782
छोटी	-12.1783
▁डेयर	-12.1783
िप्त	-12.1784
▁मोहर	-12.1784
एमपी	-12.179
सीआईडी	-12.1791
▁छाता	-12.1795
▁हमीद	-12.18
▁एजी	-12.1804
▁ढल	-12.1807
्मिता	-12.1807
▁सिपाह	-12.1811
▁कॉन्ट	-12.1815
▁अटेंड	-12.1818
▁मिनिस्ट	-12.1821
▁1400	-12.1828
400	-12.1832
बारी	-12.184
गरा	-12.1841
▁भत्त	-12.1841
▁उस्त	-12.1842
▁हिंदु	-12.1845
▁बेग	-12.1849
▁बीड़	-12.1852
चंदानी	-12.1853
स्ते	-12.1854
▁सांवल	-12.1861
म्मी	-12.1862
्‍न	-12.1862
▁मिन	-12.1863
▁कांके	-12.1866
▁वेंकटेश	-12.1875
▁उत्खनन	-12.1876
▁चक्काजाम	-12.1876
▁तिजोरी	-12.1876
▁त्रिलोक	-12.1876
▁दरमियान	-12.1876
▁सप्लायर	-12.1876
▁Gandhi	-12.1876
▁चिंगारी	-12.1876
▁झाबुआ	-12.1876
▁मानिकपुर	-12.1876
▁वांटेड	-12.1876
▁Politics	-12.1876
▁शंख	-12.1876
▁लिमिट	-12.1876
▁भिवाड़ी	-12.1876
▁टपक	-12.1877
▁IIT	-12.1877
▁मार्टिन	-12.1877
▁ननद	-12.1877
िज्म	-12.1877
▁बिकवाली	-12.1877
▁नारनौंद	-12.1877
▁खसरा	-12.1877
▁अंडमान	-12.1877
▁Pre	-12.1877
▁लाउड	-12.1877
▁विग्रह	-12.1877
▁दर्शाया	-12.1878
ईशान	-12.1878
कुर्मी	-12.1878
▁मंकी	-12.1878
▁अभ्यर्थिय	-12.1879
▁गोगु	-12.1879
ोड़ा	-12.1882
▁दिखेगा	-12.1882
▁पोषित	-12.1883
▁हुय	-12.1884
▁गंगवार	-12.1886
MA	-12.1886
▁बस्त	-12.1887
▁बीएच	-12.1887
जमालपुर	-12.1888
▁पिलाई	-12.1888
▁शर्तें	-12.1888
▁सोनाली	-12.1889
▁मिसाइलें	-12.1889
▁दहला	-12.1894
▁लपेट	-12.1894
97	-12.1896
▁रामबाग	-12.1898
▁राइट्स	-12.19
फिर	-12.1904
ंगड़ा	-12.1907
▁द्र	-12.1907
▁टांके	-12.1909
▁छाई	-12.1913
▁दरें	-12.1914
▁राइडर्स	-12.1915
िस्ट्री	-12.1915
▁चूरा	-12.1916
▁नीला	-12.1916
▁भोर	-12.1917
▁ईट	-12.1924
टपुट	-12.1926
▁ग्ला	-12.1927
▁चौड़	-12.1929
▁खुरा	-12.1931
▁फूलपुर	-12.1935
▁मेडि	-12.1935
▁छड़	-12.1936
▁झो	-12.1936
▁st	-12.1938
▁(4)	-12.1939
▁मरा	-12.1939
▁Ne	-12.1941
▁कैसर	-12.1945
▁सीर	-12.1948
वाले	-12.1949
क्कन	-12.1951
▁शयन	-12.1951
▁मुज	-12.1951
बहनों	-12.1954
▁147	-12.1954
ंढ	-12.1955
धना	-12.196
वधू	-12.196
▁भाड़	-12.1961
▁सच्चा	-12.1963
लोअर	-12.1967
▁प्राय	-12.1967
चु	-12.1977
▁कंड	-12.1978
▁क्रेट	-12.1979
NG	-12.198
ठाक	-12.1981
▁.....	-12.1983
▁4.8	-12.1985
▁वली	-12.1987
▁एनआई	-12.1989
▁टांड	-12.199
एलएन	-12.1994
▁नाथू	-12.1995
रुप	-12.2
▁सूर	-12.2001
ACB	-12.2004
hra	-12.2007
▁लाडल	-12.2008
रवरी	-12.2011
▁कटरी	-12.2011
▁पांड	-12.2013
▁छलक	-12.2018
pe	-12.2019
कुंड	-12.2019
हरिशंकर	-12.2022
योजित	-12.2032
▁सुनाए	-12.2034
ंची	-12.2035
इश	-12.2036
बांग्लादेश	-12.2039
▁मट	-12.2041
▁पंज	-12.2043
▁SA	-12.2045
▁श्राव	-12.2046
▁भैर	-12.2047
▁विशेषता	-12.2049
किनार	-12.2051
▁रवीन	-12.2052
▁खुर्	-12.2058
बाब्	-12.2059
▁Viv	-12.2059
▁1800	-12.2061
▁एनडी	-12.2062
ट्राई	-12.2062
▁पर्दा	-12.2068
▁पोष	-12.2068
▁दफ्तरों	-12.2075
▁मंथ	-12.209
मरी	-12.2092
▁होल्डर	-12.2094
▁सुन्द	-12.2094
मोट	-12.2094
▁घुटन	-12.2095
▁वृह	-12.2095
▁ांश	-12.2098
▁हव	-12.2102
▁वादन	-12.2106
▁धुर्व	-12.2111
ary	-12.2113
▁5.5	-12.2116
बीएपी	-12.2117
▁प्राची	-12.2122
हल्ला	-12.2123
▁डिजिट	-12.2124
प्ट	-12.2125
▁बेक	-12.2126
▁th	-12.2127
mar	-12.2131
▁जर्नल	-12.2132
▁hindi	-12.2132
▁कोटपूतली	-12.2132
▁डायवर्जन	-12.2132
▁नुक़सान	-12.2132
▁ब्राजील	-12.2132
▁मुमताज	-12.2132
▁लिफाफ	-12.2132
▁सुदृढ़	-12.2132
▁स्कैम	-12.2132
▁Chatur	-12.2132
▁बिखेर	-12.2132
▁दहिया	-12.2132
▁वातानुकूल	-12.2132
NTA	-12.2132
▁आनन्द	-12.2132
▁Prad	-12.2133
▁पोजिशन	-12.2133
▁सैलून	-12.2133
▁पचौरी	-12.2133
▁स्पाइस	-12.2133
▁सौदे	-12.2133
▁गुणगान	-12.2133
▁स्क्वाड	-12.2133
▁बाजपेई	-12.2133
▁Cup	-12.2133
▁करूं	-12.2133
▁अंजुम	-12.2133
▁रसूल	-12.2133
▁नसीब	-12.2133
सिटर	-12.2133
▁रिस	-12.2134
▁पिपरिया	-12.2134
▁खंडहर	-12.2134
▁चक्रधरपुर	-12.2134
▁Hy	-12.2135
पराजित	-12.2135
▁प्रियजन	-12.2135
▁सलेम	-12.2135
▁लंका	-12.2135
▁कौंस	-12.2136
रकबा	-12.2136
▁ियाँ	-12.2136
▁चकमा	-12.2137
▁शुक्रिया	-12.2138
▁लंच	-12.2138
▁किराएदार	-12.214
▁रोमांस	-12.2141
▁यूएन	-12.2142
▁जाइए	-12.2143
ंबा	-12.2144
▁रेवती	-12.2146
▁मख	-12.2147
▁पार्थ	-12.2148
▁बृजेंद्र	-12.215
रीदी	-12.2152
▁बैरक	-12.2154
▁दफना	-12.2154
जनल	-12.2155
जोल	-12.2155
▁ढहा	-12.2156
▁कैप्स	-12.2157
गिल	-12.2161
▁सुष	-12.2164
्चर	-12.2165
िल्ली	-12.2166
▁डिज़	-12.2168
िचड़	-12.217
▁जोगा	-12.2172
युग	-12.2172
यानंद	-12.2174
▁िस	-12.2176
्शन	-12.2179
▁थैले	-12.218
▁चश्मा	-12.2182
▁(17	-12.2185
▁हांग	-12.2185
▁घरौंड	-12.2186
▁होड़	-12.2189
▁सीएल	-12.219
▁चाई	-12.2191
ki	-12.2193
▁पट्ट	-12.2193
डीएस	-12.2195
▁देवराज	-12.2196
ैना	-12.2198
एमआईए	-12.22
▁4:	-12.22
▁256	-12.22
नौर	-12.2202
बीएनपी	-12.2205
▁तांत्रिक	-12.2207
्ख	-12.2209
▁गंगापुर	-12.2211
RI	-12.2211
▁शकी	-12.222
.75	-12.2222
ब्ज	-12.2227
▁गिरफ़्तारी	-12.2227
लदार	-12.223
▁गोल्फ	-12.2233
▁महि	-12.2236
▁संवार	-12.2237
▁कुस	-12.2244
ihar	-12.2244
▁आयाम	-12.2248
▁गुड़ा	-12.2255
▁रिह	-12.2263
▁मेसर	-12.2266
▁2.6	-12.2276
▁चाहत	-12.2276
बस	-12.2278
थल	-12.2281
ED	-12.2283
▁अंगद	-12.2285
▁मोनो	-12.2295
▁मैस	-12.2298
पुरुष	-12.23
▁गिट्	-12.2301
▁185	-12.2301
हु	-12.2302
पुष्पा	-12.2302
▁पिया	-12.2302
बचाव	-12.2302
▁चैलेंजर	-12.2303
दौर	-12.2308
जीरा	-12.2308
यशी	-12.2309
मास्टर	-12.2309
ओडी	-12.2312
गोल	-12.2312
स्टार	-12.2313
ru	-12.2315
प्रिय	-12.2317
▁उपयोगी	-12.2317
ूंगा	-12.232
▁मुकदम	-12.232
एमटी	-12.2322
da	-12.2324
त्तर	-12.2326
▁चार्ट	-12.2328
▁चित्रा	-12.2328
▁विला	-12.233
az	-12.2331
▁घोड़	-12.2335
▁फाइट	-12.2336
IC	-12.2337
▁मनमान	-12.2342
▁पुलक	-12.2344
▁चलन	-12.2344
कात	-12.2347
ोव	-12.2348
लाना	-12.235
▁काजू	-12.235
▁स्कि	-12.235
▁सीडी	-12.2351
▁कॉस्ट	-12.2352
एकेडमिक	-12.2353
क्लेव	-12.2355
पिक्स	-12.2356
▁िग	-12.2358
▁कुर्स	-12.2358
▁झुं	-12.2371
ाइंड	-12.2378
▁(2	-12.2381
▁पंचक	-12.2382
▁हन	-12.2383
▁वीरा	-12.2388
▁ईओ	-12.2394
▁असंतुल	-12.2396
▁अचेत	-12.2396
▁आत्मसमर्पण	-12.2396
▁एप्लिकेशन	-12.2396
▁ऑस्‍ट्रेलिया	-12.2396
▁कार्यशैली	-12.2396
▁दोसांझ	-12.2396
▁नेटवर्थ	-12.2396
▁प्रासंगिक	-12.2396
▁बेबुनियाद	-12.2396
▁मुक़दम	-12.2396
▁रिफ्रेश	-12.2396
▁वेणुगोपाल	-12.2396
▁संपादक	-12.2396
▁सर्वांगीण	-12.2396
▁सिंडिकेट	-12.2396
▁स्वायत्त	-12.2396
ajasthan	-12.2396
▁ख़ुश	-12.2396
भदोही	-12.2396
सक्रीम	-12.2396
▁तिर्की	-12.2396
▁मछुआर	-12.2396
▁ब्रीफ	-12.2396
witter	-12.2396
▁हबीब	-12.2396
▁चौपड़	-12.2396
The	-12.2396
▁नागालैंड	-12.2396
▁Gold	-12.2396
▁Live	-12.2396
▁डिविजन	-12.2396
▁कठिनाइय	-12.2396
▁टैटू	-12.2396
भाव	-12.2396
▁Sharma	-12.2396
▁नरसंहार	-12.2396
▁स्कॉलरशिप	-12.2396
▁रैप	-12.2396
▁क्रिएटिव	-12.2396
हाइड्रे	-12.2396
▁भयभीत	-12.2396
▁खराड़ी	-12.2396
बेतवा	-12.2396
▁जमावड़ा	-12.2396
▁Sams	-12.2396
▁जायेंगे	-12.2396
▁इर्द	-12.2397
▁आरओबी	-12.2397
▁चंचल	-12.2397
▁हिन्दु	-12.2398
▁आरसीबी	-12.2398
▁गैप	-12.2398
▁बाध्य	-12.2398
▁बत्रा	-12.2398
▁लाएगी	-12.2399
▁गणगौर	-12.2399
तरंज	-12.2399
▁किनारा	-12.2399
▁0.1	-12.2399
▁आरएए	-12.24
▁लेडीज	-12.24
▁सहगल	-12.24
प्रजनन	-12.2401
▁अनिश्चितता	-12.2401
▁सिमरिया	-12.2402
▁डार्क	-12.2402
रिटी	-12.2404
▁शक्कर	-12.2405
▁रसेल	-12.2405
▁एसएम	-12.2407
▁अमरीक	-12.2407
▁पम्प	-12.2408
▁फील	-12.2409
▁चाट	-12.2409
ीति	-12.2411
▁1,0	-12.2412
▁प्रतापनगर	-12.2413
ीवो	-12.2413
रोज़गार	-12.2414
▁बेकार	-12.2415
▁दुपट्ट	-12.2419
▁तै	-12.2419
▁मजार	-12.2419
▁गोबिंद	-12.242
▁समरस	-12.2421
कील	-12.2423
्रीट	-12.2424
▁इंफा	-12.2424
▁हत्यारे	-12.2425
▁आमेर	-12.2425
खेज	-12.2426
▁एरो	-12.2426
▁रवैय	-12.2427
▁दीपेश	-12.2428
▁विशाखा	-12.2434
उद्दीन	-12.2435
डिनर	-12.2436
▁सैल	-12.2438
▁लाइक	-12.2439
▁Elect	-12.2439
▁कारखाना	-12.2439
▁अलंक	-12.2441
▁लिट	-12.2442
रसन	-12.2448
▁तोप	-12.2448
▁प्रज्वलन	-12.245
▁दीर्घा	-12.2452
▁सियार	-12.2454
▁118	-12.2455
▁आरडी	-12.2457
▁खड़ग	-12.2459
▁सूफ	-12.2463
▁गुमट	-12.2463
▁Sa	-12.2464
▁अंधा	-12.2465
▁सोल	-12.2467
▁भद्रा	-12.2467
▁शू	-12.2471
नका	-12.2475
▁गाडी	-12.2475
▁आनी	-12.2476
▁आटा	-12.2478
▁जति	-12.248
वेंचर	-12.2491
▁कलकत	-12.2494
▁ठी	-12.2497
▁प्रणा	-12.2498
▁प्रोट	-12.2504
▁गोरा	-12.2505
▁डंक	-12.2509
ख्तियार	-12.2511
▁उक	-12.2526
▁मेवात	-12.2532
▁वॉ	-12.2536
▁पोर	-12.2543
क्सी	-12.2545
▁आरआर	-12.2549
▁सिवान	-12.2555
्वचा	-12.2558
5-5	-12.2565
▁बॉ	-12.2566
▁2.8	-12.2566
▁नकार	-12.2566
PI	-12.2567
▁प्रहर	-12.2568
ीएसपी	-12.2569
▁नीर	-12.2569
▁यी	-12.2571
प्रतिशत	-12.2573
भाजपा	-12.2573
युवती	-12.2573
स्कूल	-12.2573
प्रदान	-12.2575
all	-12.2576
वालिया	-12.2579
बासा	-12.2581
ऑल	-12.2581
▁छु	-12.2585
▁मित	-12.2586
ne	-12.2587
टर्न	-12.2591
▁To	-12.2593
साद	-12.2593
थरा	-12.2595
▁डूबा	-12.2603
▁9.4	-12.2604
चल	-12.2607
्रेशन	-12.261
▁छल	-12.2613
्हा	-12.2613
▁अहल	-12.2614
ूमेंट	-12.2617
कांग	-12.2618
▁भट्	-12.262
▁वेदांत	-12.2622
▁कूप	-12.2627
हां	-12.2627
▁मला	-12.263
ीडीओ	-12.2631
▁इंस्ट्र	-12.2639
कोल	-12.2641
टीएफ	-12.2642
▁टीएस	-12.2646
गना	-12.2646
▁कैला	-12.2649
▁ऑस्	-12.265
▁परवेज	-12.2651
▁सजी	-12.2654
्‍ट	-12.2655
कंट	-12.2657
एसडी	-12.266
ोइंग	-12.2661
▁नाती	-12.2662
हाद	-12.2663
AIIMS	-12.2666
ahindra	-12.2666
▁इंस्टॉल	-12.2666
▁एग्जीबिशन	-12.2666
▁ट्रांजैक्शन	-12.2666
▁पीरियड	-12.2666
▁पोद्दार	-12.2666
▁बेखौफ	-12.2666
▁भाटापारा	-12.2666
▁मुकुंद	-12.2666
▁लोहरदगा	-12.2666
▁सर्विलांस	-12.2666
▁कोडरमा	-12.2666
▁ग्रसित	-12.2666
▁द्रोण	-12.2666
▁मैजिक	-12.2666
▁उन्होने	-12.2666
▁चटर्जी	-12.2666
▁ज्वाला	-12.2666
▁दर्शा	-12.2666
▁खलील	-12.2666
▁टैरिफ	-12.2666
▁समकक्ष	-12.2666
▁शिक्षाविद	-12.2666
▁शरारत	-12.2666
▁बैकुंठ	-12.2666
▁थिंक	-12.2666
▁एड्रे	-12.2666
▁किग्रा	-12.2666
▁डिमरी	-12.2666
▁बेशक	-12.2666
सीजेआई	-12.2666
मॉर्निंग	-12.2666
▁लखपति	-12.2667
▁ढांडा	-12.2667
▁फांद	-12.2667
▁रैलियां	-12.2667
▁गगनदीप	-12.2667
▁वुड	-12.2668
▁And	-12.2668
▁Red	-12.2668
सुभद्रा	-12.2668
▁परसेंट	-12.2668
▁महापुरुष	-12.2668
▁माघ	-12.2669
▁ख़ार	-12.2669
▁हरिहर	-12.2669
▁क्लोज	-12.2669
▁गृहस्थ	-12.2669
▁जप्त	-12.2669
▁वैकें	-12.2669
▁रेवंत	-12.267
▁भुट्ट	-12.267
▁सियाराम	-12.2671
▁दोहराया	-12.2671
▁एग्रो	-12.2671
▁नगला	-12.2671
▁MG	-12.2671
▁उइ	-12.2673
▁पासव	-12.2673
▁दूज	-12.2674
▁खुलेगी	-12.2674
▁वॉश	-12.2676
▁कुंवार	-12.2677
▁न्यूरो	-12.2677
▁वीव	-12.2681
▁Rahu	-12.2683
▁कार्यपाल	-12.2684
मरा	-12.2684
▁आयी	-12.2685
गोड़ा	-12.2685
▁इशारों	-12.2685
▁रुख़	-12.2687
▁बाक	-12.2688
▁एफ़	-12.2689
▁क्रास	-12.269
मजद	-12.2691
▁खूंटी	-12.2691
▁उग्रवाद	-12.2692
▁निहित	-12.2697
▁लिवर	-12.2698
▁सभाएं	-12.2699
मंदर	-12.27
वटी	-12.2701
▁गार	-12.2702
▁यूनिक	-12.2702
▁पाताल	-12.2703
स्टन	-12.2704
▁अरबपति	-12.2704
▁दाखिले	-12.2705
▁155	-12.2707
मोहर्रम	-12.2708
▁रिसोर्	-12.2709
चीन	-12.2709
प्रबल	-12.2711
▁1.30	-12.2713
▁नारंग	-12.2714
▁कत	-12.272
ine	-12.2724
▁-6	-12.2725
▁146	-12.2728
▁बर्ड	-12.2729
▁लेग	-12.273
यशोदा	-12.2732
▁कुकी	-12.2733
▁णी	-12.2737
▁109	-12.2737
▁प्रेष	-12.2737
ल्ली	-12.2738
बूल	-12.2739
▁रिच	-12.2744
रोड	-12.2746
▁बीसीए	-12.2748
AT	-12.2751
▁Vi	-12.2751
▁रत्ना	-12.2751
Kia	-12.2756
▁एडीज	-12.2762
▁रोत	-12.2762
700	-12.2763
ांत	-12.2773
आरएफ	-12.2773
▁2.3	-12.2774
▁Bo	-12.2774
up	-12.2777
▁अगु	-12.2784
स्म	-12.2786
जला	-12.2786
▁डेन	-12.2786
एसएल	-12.2786
▁ढुल	-12.2787
▁193	-12.279
▁प्रश्नों	-12.2791
▁गंध	-12.2794
▁पाएं	-12.2804
▁पब	-12.2805
मूल्य	-12.2809
ba	-12.281
▁केमिस्ट	-12.2812
ey	-12.2814
▁दौड़े	-12.2815
सामान्य	-12.2817
▁ब्रु	-12.2818
▁खेलो	-12.2818
कल्प	-12.2821
▁विधा	-12.2822
▁पीपी	-12.2824
▁क़ा	-12.2824
▁320	-12.2827
जोड़	-12.283
▁ट्यू	-12.2833
▁मार्गदर्श	-12.2835
ैच	-12.2835
ुस	-12.2842
र्सेज	-12.2842
▁ेन	-12.2847
▁माइल	-12.2847
प्लस	-12.285
शीर्ष	-12.285
इंदौर	-12.285
पकड़	-12.2854
चूर	-12.2855
▁बन्द	-12.2857
▁गुजरा	-12.2858
AF	-12.2864
▁ढला	-12.2869
स्टल	-12.2874
.00	-12.2875
▁शायर	-12.288
▁पाद	-12.288
07	-12.2881
▁जेनरेश	-12.2884
विराजित	-12.2884
▁बदत	-12.2887
लका	-12.2888
सेप्ट	-12.2897
▁फीसद	-12.2903
▁मीत	-12.2903
▁सजे	-12.2903
▁950	-12.2904
पद	-12.2904
▁-11	-12.2905
▁पहर	-12.2908
्वे	-12.2912
▁हेमल	-12.2913
▁4.3	-12.2914
▁आंदोलनकार	-12.2914
रेंस	-12.2918
▁जसविंद	-12.2918
बोर	-12.2918
▁कमिट	-12.292
तिन	-12.2922
आईआर	-12.2928
▁एसआर	-12.2928
▁स्पिन	-12.293
▁डिग्	-12.293
▁सिहा	-12.2931
फेर	-12.2934
▁एक्का	-12.2936
हाबाद	-12.2939
▁चंपा	-12.294
▁सेवानिवृत	-12.2943
BHU	-12.2944
•	-12.2944
▁Court	-12.2944
▁Mandir	-12.2944
▁अब्राहम	-12.2944
▁ख़राब	-12.2944
▁घमासान	-12.2944
▁चट्टान	-12.2944
▁जिज्ञास	-12.2944
▁डिब्रूगढ़	-12.2944
▁पनडुब्बिय	-12.2944
▁बखूबी	-12.2944
▁मॉनसून	-12.2944
▁विटामि	-12.2944
▁शकुंतला	-12.2944
▁स्टांप	-12.2944
▁अलगाववाद	-12.2944
▁ब्योरा	-12.2944
▁लार्वा	-12.2944
▁.09	-12.2944
▁कॉम्पिटि	-12.2944
▁(60)	-12.2944
▁फार्मेसी	-12.2944
▁Pradesh	-12.2944
▁मेकिंग	-12.2944
ब्ध	-12.2944
▁क्रोध	-12.2944
▁धातु	-12.2944
▁NIA	-12.2944
▁ट्रेवल	-12.2944
▁इश्यू	-12.2944
▁मिथल	-12.2944
▁सेल्समैन	-12.2944
▁अमीरात	-12.2944
▁परिधान	-12.2944
▁उथल	-12.2945
Bhopal	-12.2945
▁ट्यूशन	-12.2945
▁धमाल	-12.2945
▁कुबेर	-12.2945
▁वीणा	-12.2946
▁ाया	-12.2946
▁रोपण	-12.2947
▁भौग	-12.2947
▁ताकतवर	-12.2948
ve	-12.2949
▁खलास	-12.2949
▁जनसु	-12.2949
▁बस्सी	-12.295
▁गियर	-12.2951
▁लांच	-12.2952
▁स्क्रू	-12.2952
▁धकेल	-12.2952
▁राघवेंद्र	-12.2953
▁ढील	-12.2954
▁क‍ि	-12.2957
▁re	-12.2957
▁जूट	-12.2958
▁दुलार	-12.2959
▁परियोजनाएं	-12.2962
▁चाहें	-12.2962
▁जुलान	-12.2962
▁खोया	-12.2964
port	-12.2964
▁जीतेंगे	-12.2966
▁यति	-12.2968
▁विभाज	-12.2968
▁शासक	-12.2971
▁इश्क	-12.2975
▁मसा	-12.2976
▁ग्राफिक	-12.298
मेटिक	-12.298
पीसीबी	-12.2981
▁स्टडीज	-12.2983
▁विश्वसनीय	-12.299
▁विभा	-12.2991
osh	-12.2995
एमएससी	-12.2995
▁बिल्ली	-12.2997
▁बंब	-12.2998
▁वीपी	-12.2999
काट	-12.3002
▁सला	-12.3003
▁ड्रम	-12.3004
▁थानाक्षेत्र	-12.3009
▁302	-12.3009
शो	-12.3011
▁पीएफ	-12.3013
र्फ	-12.3014
▁Chi	-12.3015
▁तारिक	-12.3015
▁अमूल	-12.3015
्ले	-12.3018
ेचर	-12.3019
▁ed	-12.3022
ll	-12.3023
▁मरीन	-12.3024
▁रामानंद	-12.3024
▁हाड़	-12.3025
86	-12.3028
▁बोरा	-12.3028
चाप	-12.3034
▁HD	-12.3035
▁फोर्ट	-12.3036
▁5.8	-12.3037
▁खिर	-12.3037
▁अश	-12.3039
पैड	-12.3041
▁ज़र	-12.3045
▁फड़	-12.3048
ल्हान	-12.305
▁विद्याध	-12.3055
▁बौं	-12.3058
▁कैटर	-12.3059
▁शबा	-12.3062
▁बनवाए	-12.3064
ग्रह	-12.3066
▁अटेल	-12.3067
▁शाद	-12.3068
लिफ्ट	-12.307
▁लिपट	-12.3072
▁7.8	-12.3073
▁कुड़	-12.3075
▁Ek	-12.3075
▁कोठ	-12.3076
▁डराने	-12.3078
लकम	-12.3078
रवाल	-12.308
▁समायोज	-12.308
▁बीडी	-12.3081
▁मार्ट	-12.3081
▁पारे	-12.3084
▁तरस	-12.3088
सोट	-12.3088
रत्न	-12.3091
▁सामं	-12.3093
ासिया	-12.3101
▁छात	-12.3103
▁दोप	-12.3104
▁साब	-12.3104
▁बीपीए	-12.3108
▁जरूरतमंदों	-12.3111
▁चारण	-12.3114
▁सत्त	-12.3114
▁06:	-12.3117
▁डोने	-12.312
ॉस	-12.3123
▁अजा	-12.313
▁नंदकिशो	-12.3131
गावस्	-12.3134
धमका	-12.3136
▁उर्	-12.3136
BJP	-12.3136
हाउस	-12.3136
FI	-12.3138
▁सहा	-12.314
ौं	-12.3145
IS	-12.3146
हेज	-12.3153
कूट	-12.3156
▁संस	-12.3157
ग्रेशन	-12.3159
▁भाट	-12.3164
गढ	-12.3165
▁शाली	-12.3167
▁लह	-12.3167
मां	-12.3168
टनी	-12.3171
▁डेज	-12.3173
▁113	-12.3174
मानस	-12.3175
एंड	-12.3178
▁ईई	-12.3181
वेट	-12.3181
DC	-12.3194
▁आसन	-12.3195
▁फर्जीवाड़	-12.3196
▁अफगान	-12.3197
2025	-12.3202
▁परवर	-12.3207
▁II	-12.3208
▁ऐन	-12.3213
प्स	-12.3216
▁सिस	-12.3219
▁देखो	-12.3219
▁तीव्र	-12.3221
▁एनपी	-12.3221
▁डाइ	-12.3221
▁ढाल	-12.3224
▁इंज	-12.3224
▁सर्ज	-12.3225
▁बेंगलुर	-12.3227
▁बांग्ला	-12.3229
▁अपशब्द	-12.3229
▁असमंजस	-12.3229
▁एक्सपायर	-12.3229
▁किफायती	-12.3229
▁गैरकानूनी	-12.3229
▁भामाशाह	-12.3229
▁भ्रूण	-12.3229
▁वयस्क	-12.3229
▁अवधारणा	-12.3229
▁इम्तियाज	-12.3229
▁पिघल	-12.3229
▁स्लॉट	-12.3229
udget	-12.3229
▁कॉन्फिडें	-12.3229
▁प्रज्जवल	-12.3229
_	-12.3229
ईडब्ल्यूएस	-12.3229
▁वामपंथ	-12.3229
▁जिनपिंग	-12.3229
▁स्कॉटलैंड	-12.3229
▁समूच	-12.3229
▁(38)	-12.323
ैशाख	-12.323
avas	-12.323
▁श्रीदेवी	-12.323
▁धर्मनिरपेक्ष	-12.323
▁हैसियत	-12.323
endra	-12.323
▁नरवाना	-12.323
▁माइंस	-12.323
▁खटखटाया	-12.323
क्टेय	-12.323
▁पाराशर	-12.323
▁वेंकट	-12.3231
▁अभियोग	-12.3231
▁लैंग्	-12.3231
▁खामियां	-12.3232
ावश्यक	-12.3232
▁चंद्रयान	-12.3233
▁कंकाल	-12.3233
▁मंगेश	-12.3233
▁मसूर	-12.3234
▁कैब	-12.3234
▁CO	-12.3234
▁निखार	-12.3234
▁भैरू	-12.3234
▁धावा	-12.3235
▁नागदा	-12.3235
▁अजहर	-12.3235
▁तालियां	-12.3235
▁अव्यवस्था	-12.3236
▁सरवन	-12.3236
▁https	-12.3237
▁यूरो	-12.3237
▁शिकंजा	-12.3239
▁आशिक	-12.3239
▁स्वीट	-12.3243
▁फॉर्मूला	-12.3243
▁बैटर्स	-12.3244
▁शॉक	-12.3247
▁लीन	-12.3251
▁बर्	-12.3251
▁नियुक्तियां	-12.3251
▁खानदान	-12.3252
▁गंगानगर	-12.3253
ET	-12.3253
िलेश	-12.3253
▁शूर	-12.3254
▁Ba	-12.3254
▁बावल	-12.3255
▁लिविंग	-12.3257
लदे	-12.3257
▁मरे	-12.3259
▁अटकल	-12.326
▁ग्री	-12.326
▁डरी	-12.3262
ीशान	-12.3263
▁तरीक़	-12.3263
▁घोषणाएं	-12.3264
▁असलम	-12.3264
▁ईसा	-12.3265
▁मिर	-12.3265
क्यू	-12.3266
▁उपलब्धियां	-12.3267
▁निर्वाण	-12.3269
▁सांझ	-12.327
▁कुर्की	-12.3276
▁मुखर	-12.3277
▁उन्हे	-12.3277
भूति	-12.3278
▁6:30	-12.3279
▁इरा	-12.328
▁गुलश	-12.328
▁छप्प	-12.328
▁आकृति	-12.3281
▁मण्ड	-12.3284
पाध्याय	-12.3285
▁कॉलर	-12.3286
▁जमाया	-12.3288
▁गुणा	-12.3289
▁मदार	-12.3289
सरिया	-12.329
▁पैंथ	-12.3295
▁उभरत	-12.3302
▁दुर	-12.3303
पीएचईडी	-12.3305
▁सुखी	-12.3305
▁रमण	-12.3305
▁शिला	-12.3321
▁पाईं	-12.3321
करीब	-12.3325
▁लाइट्स	-12.3326
▁बिगड़े	-12.3326
ंटर	-12.3334
गुरुकुल	-12.3335
▁नन्द	-12.3337
▁आरबीए	-12.3337
▁कोऑर्डिने	-12.3339
▁शीशा	-12.3343
ाहट	-12.3344
▁बोनी	-12.3345
▁खिंचवा	-12.3353
यूसीसी	-12.3353
▁नोक	-12.3354
▁ियन	-12.3362
▁डग	-12.3362
ाएगा	-12.3362
▁जरिया	-12.3365
▁न्	-12.3366
▁ID	-12.3368
▁खम	-12.337
▁लॉय	-12.3376
▁is	-12.3384
▁मेवा	-12.3386
भिमान	-12.339
▁गौरा	-12.3392
▁एंटर	-12.3393
▁सॉल्व	-12.3395
ांडो	-12.3395
र्टर	-12.3397
▁हलवा	-12.34
िडा	-12.3407
▁दमन	-12.3408
▁प्रोड्यूस	-12.3414
तमान	-12.3418
तारन	-12.3419
▁थेरेप	-12.3422
▁हुड	-12.343
▁सीएन	-12.3431
ब्लू	-12.3432
पार्क	-12.3435
▁सूत	-12.3437
▁गांठ	-12.3441
वियर	-12.3442
▁गुं	-12.3446
ॉर्	-12.3447
▁8.5	-12.3451
▁मुकर	-12.3453
ूलन	-12.3454
नीतियां	-12.3455
▁लौटकर	-12.3456
▁समावेश	-12.3458
▁कौल	-12.3468
▁दोहरी	-12.3469
▁पटवार	-12.3471
हंस	-12.3471
▁रोजा	-12.3473
▁6.3	-12.3476
▁रतनपुर	-12.3481
▁डांग	-12.3492
▁जस्स	-12.3494
▁डिफेंड	-12.3494
-13	-12.3499
▁5.3	-12.3502
▁Par	-12.3503
▁घसीटत	-12.3509
ाधिकारियों	-12.351
▁9.5	-12.3512
▁टांक	-12.3513
▁चेस	-12.3513
क़ी	-12.3514
▁धोर	-12.3515
़िया	-12.3515
▁बच्चो	-12.3521
पलट	-12.3521
▁क्लॉ	-12.3523
शीतकालीन	-12.3523
▁अफसोस	-12.3523
▁आहूजा	-12.3523
▁इंतज़ार	-12.3523
▁कलेक्टोरेट	-12.3523
▁ताक़त	-12.3523
▁त्रासदी	-12.3523
▁पोसवाल	-12.3523
▁ब्लॉकबस्टर	-12.3523
▁मृणाल	-12.3523
▁रिजिजू	-12.3523
▁वडोदरा	-12.3523
▁सरप्राइज	-12.3523
▁स्त्रोत	-12.3523
फैक्चर	-12.3523
▁बशीर	-12.3523
प्रूव	-12.3523
▁अभिलाष	-12.3523
▁रींगस	-12.3523
▁निगाह	-12.3524
▁करतूत	-12.3524
विहिप	-12.3524
असुरक्षित	-12.3524
▁(15	-12.3524
▁खालिद	-12.3524
▁परम्परा	-12.3524
▁बढ़ोत्तरी	-12.3524
मीकंडक	-12.3524
▁case	-12.3524
▁रैयत	-12.3524
▁प्रैक्टिक	-12.3524
▁स्क्रै	-12.3524
▁जर्नी	-12.3524
▁क़ीमत	-12.3524
▁रैफर	-12.3524
▁क़दम	-12.3524
▁मुरलीधर	-12.3524
▁लेजर	-12.3524
▁फिनिश	-12.3524
▁हीरोइन	-12.3524
▁नित्यानंद	-12.3524
▁कंपोज	-12.3524
▁सूर्यास्त	-12.3525
▁ब्रह्मचार	-12.3525
▁मुनिश्री	-12.3525
▁पर्सेंट	-12.3525
▁छुट्टियां	-12.3525
▁लूंगा	-12.3525
▁तुलसीदास	-12.3525
थम्भ	-12.3525
▁मूंद	-12.3526
च्यू	-12.3526
▁एचआर	-12.3526
▁नवोदय	-12.3526
▁ग्रेवाल	-12.3526
▁सीपीएम	-12.3526
एबीवीपी	-12.3527
▁RR	-12.3527
▁इंजरी	-12.3527
wali	-12.3527
▁प्लास्टर	-12.3528
▁गदर	-12.3528
▁मजीठ	-12.3528
▁वैली	-12.3528
▁बलवंत	-12.3528
▁हुमा	-12.3528
▁भूमिहार	-12.3529
▁ढि	-12.3531
▁फ्लू	-12.3531
▁दलहन	-12.3532
▁टॉर्चर	-12.3532
स्ता	-12.3532
▁तीव्रता	-12.3532
लुप्त	-12.3534
▁इराक	-12.3534
यूबीटी	-12.3535
▁फ्रैक्	-12.3536
▁हरकतें	-12.3538
▁कातिल	-12.3538
▁आहुति	-12.3538
▁1.25	-12.3539
▁विभूति	-12.354
ांडव	-12.3541
▁पटरिय	-12.3542
▁जिनालय	-12.3543
▁जुल्	-12.3543
▁मर्	-12.3545
लवा	-12.3545
ोदी	-12.3547
िकरण	-12.3548
▁लोढ़	-12.355
▁ढंक	-12.355
▁भूरा	-12.3553
▁फोल्ड	-12.3553
▁Sha	-12.3554
▁जयनगर	-12.3554
▁बाजरा	-12.3554
▁डोज	-12.3554
▁सहेज	-12.3556
▁डायन	-12.3557
▁कसते	-12.3558
रूत	-12.3559
▁जलवा	-12.356
▁आंचल	-12.3561
▁ऊंचाइय	-12.3562
▁हीरामंडी	-12.3565
एबल	-12.3565
क्षय	-12.3566
-18	-12.3568
▁पक	-12.357
aut	-12.3573
TDP	-12.3574
▁इंट्री	-12.3575
▁man	-12.3578
▁KM	-12.3579
ज्जो	-12.3579
कमान	-12.358
क्‍शन	-12.358
▁धनिया	-12.3585
▁जुबानी	-12.3587
निका	-12.3589
▁कुम	-12.3589
12	-12.3592
▁दागे	-12.3596
▁मंदी	-12.3598
माताजी	-12.3599
43	-12.3603
▁सरीन	-12.3604
बकरीद	-12.3604
▁1950	-12.3606
‍त	-12.3608
▁ठाण	-12.3608
एससी	-12.3609
दाह	-12.3611
▁वाम	-12.3615
[...]
