<unk>	0
<s>	0
</s>	0
।	-3.30966
▁के	-3.52495
▁में	-3.7788
▁की	-3.99805
▁है	-4.08724
▁को	-4.22867
▁से	-4.27324
▁ने	-4.41558
,	-4.46695
▁का	-4.55719
ी	-4.58478
▁और	-4.66863
▁पर	-4.6936
▁	-4.73262
ों	-4.83405
ा	-4.98082
▁कि	-4.98444
े	-5.13604
▁हैं	-5.14416
▁भी	-5.25163
▁,	-5.26716
▁कर	-5.29601
न	-5.31484
ने	-5.39633
▁इस	-5.45791
▁किया	-5.46912
ल	-5.49101
▁लिए	-5.5175
र	-5.52496
▁एक	-5.54038
▁गया	-5.56941
क	-5.58364
म	-5.6518
▁था	-5.65333
▁नहीं	-5.65341
-	-5.67039
▁हो	-5.70286
▁ही	-5.80274
▁बाद	-5.80796
▁साथ	-5.93577
▁पुलिस	-5.98475
▁कहा	-6.00305
▁गई	-6.01463
.	-6.0161
▁करने	-6.05038
ट	-6.06069
▁दिया	-6.1027
▁जा	-6.15915
कर	-6.1765
▁रहे	-6.18355
▁तो	-6.18746
▁थी	-6.20466
त	-6.20595
▁रहा	-6.22854
▁बताया	-6.23279
स	-6.23492
▁व	-6.25149
▁तक	-6.25199
▁हुए	-6.27799
▁यह	-6.28186
▁न	-6.31254
▁रही	-6.33431
▁थे	-6.34114
ि	-6.35226
ं	-6.36604
ना	-6.37829
▁सिंह	-6.38382
▁दी	-6.40429
द	-6.4136
प	-6.44377
▁(	-6.46897
▁गए	-6.46921
▁उन्होंने	-6.47499
ू	-6.49399
व	-6.49808
ता	-6.49891
▁आ	-6.53007
▁लेकर	-6.54528
ज	-6.54585
ह	-6.5493
▁पहले	-6.54965
ब	-6.56658
ो	-6.56883
▁इसके	-6.56969
▁लोगों	-6.60436
▁अ	-6.61026
▁अपने	-6.627
▁हुई	-6.65179
ित	-6.66441
ियों	-6.66744
▁लेकिन	-6.67595
▁-	-6.69236
▁वह	-6.70739
▁स	-6.7153
श	-6.72377
िक	-6.75182
▁साल	-6.76197
▁होने	-6.76999
▁वाले	-6.77043
▁दिन	-6.77284
)	-6.77872
▁दौरान	-6.79353
▁जो	-6.79736
ला	-6.8058
ते	-6.81733
▁हुआ	-6.8234
ड	-6.82994
फ	-6.83705
▁अब	-6.84267
रा	-6.86696
िंग	-6.87258
▁दो	-6.87716
ु	-6.88154
▁सरकार	-6.88399
▁क	-6.88935
▁'	-6.89756
▁घर	-6.90113
▁करते	-6.92024
▁कुमार	-6.92108
▁ये	-6.93097
सी	-6.93116
्स	-6.93691
ग	-6.93987
▁बार	-6.95794
▁क्षेत्र	-6.96721
च	-6.97293
▁लिया	-6.97829
▁सभी	-6.97844
▁म	-6.98502
▁कुछ	-6.99334
ओं	-6.99449
▁चुनाव	-7.0048
▁कई	-7.01477
्	-7.01844
▁ब	-7.03138
▁भारत	-7.032
▁गांव	-7.04598
▁बात	-7.07172
▁काम	-7.07236
िया	-7.0746
:	-7.07636
▁बना	-7.08336
▁"	-7.09336
▁टीम	-7.09426
▁उनके	-7.10417
▁थाना	-7.11197
▁पास	-7.11498
▁मामले	-7.1156
▁लोग	-7.11837
नी	-7.1231
▁इन	-7.13014
▁उस	-7.13089
▁कोई	-7.13756
ंग	-7.14013
ड़	-7.14293
▁ले	-7.15547
▁कांग्रेस	-7.1561
▁द्वारा	-7.15873
▁जब	-7.17351
▁अपनी	-7.1737
▁समय	-7.17392
ें	-7.17533
▁शुरू	-7.17846
ई	-7.18725
▁5	-7.18837
▁वहीं	-7.18866
▁उन्हें	-7.18939
▁दर्ज	-7.19406
री	-7.19558
ती	-7.2045
ंड	-7.20605
▁यहां	-7.20906
वा	-7.20947
▁दोनों	-7.20981
▁श	-7.21131
▁द	-7.21457
▁र	-7.21754
▁विभाग	-7.22196
▁घटना	-7.22575
▁ग	-7.22688
▁प	-7.2316
▁2	-7.23248
▁10	-7.24076
पुर	-7.24161
▁बजे	-7.24184
▁वे	-7.24271
▁त	-7.24276
▁प्र	-7.24537
▁नगर	-7.24631
▁रुपए	-7.24826
▁6	-7.25287
ली	-7.25902
▁जांच	-7.26355
▁रूप	-7.26731
ए	-7.2837
▁आज	-7.28489
▁देश	-7.28623
▁किसी	-7.29107
▁नाम	-7.29223
▁तरह	-7.29848
▁राम	-7.29861
▁ज	-7.30628
▁आरोपी	-7.30812
▁बीच	-7.3099
▁उसके	-7.31106
▁जानकारी	-7.32051
से	-7.32401
▁प्रदेश	-7.32769
▁हर	-7.32803
ण	-7.33556
▁महिला	-7.34533
▁जिला	-7.35224
▁लाख	-7.35263
मा	-7.35344
▁शामिल	-7.358
▁मांग	-7.36487
ै	-7.36528
ख	-7.36673
य	-7.36784
▁:	-7.36803
▁या	-7.37297
▁एवं	-7.37501
▁पूर्व	-7.38531
▁3	-7.39027
▁भाजपा	-7.40014
▁फिर	-7.40251
▁ना	-7.4051
▁अस्पताल	-7.40648
▁राज्य	-7.40732
▁होगा	-7.4078
▁जाएगा	-7.41001
▁कम	-7.41475
टी	-7.41818
▁किए	-7.42756
▁उसे	-7.43771
▁अन्य	-7.44056
▁खिलाफ	-7.44274
▁जारी	-7.44471
▁करीब	-7.44601
▁जिले	-7.44739
▁कारण	-7.44749
▁फ	-7.4477
▁पार्टी	-7.45065
▁8	-7.45145
▁आई	-7.45305
▁रात	-7.46025
▁जाने	-7.46543
▁हम	-7.46684
▁7	-7.46849
▁मैं	-7.47266
पी	-7.4788
▁च	-7.48154
थ	-7.49204
▁उनकी	-7.49505
▁डॉ	-7.49686
▁वाली	-7.49805
▁करना	-7.50202
▁शहर	-7.50211
▁ह	-7.50275
्य	-7.50697
▁ज्यादा	-7.50811
▁परिवार	-7.50856
▁युवक	-7.51497
जी	-7.51811
▁मंत्री	-7.51977
▁फिल्म	-7.52313
▁ओर	-7.52646
▁मौके	-7.52908
ष	-7.53084
▁मंदिर	-7.53199
▁4	-7.53649
इ	-7.53916
▁पा	-7.54008
्र	-7.54009
▁हजार	-7.54543
▁1	-7.54712
ध	-7.54859
▁कार्रवाई	-7.54866
▁स्कूल	-7.54931
▁जी	-7.54956
▁मौत	-7.55025
▁जाता	-7.55112
▁तीन	-7.5525
▁बन	-7.55399
▁वो	-7.56051
▁दे	-7.56247
5	-7.57563
▁सामने	-7.57664
▁9	-7.57666
▁सुबह	-7.58241
▁कार्यक्रम	-7.58486
2	-7.58847
▁चल	-7.59652
▁राज	-7.59964
▁वि	-7.60011
▁सबसे	-7.6128
▁देने	-7.6215
▁अध्यक्ष	-7.62299
▁उ	-7.6305
▁ख	-7.63232
का	-7.63845
▁लगा	-7.63874
▁क्या	-7.64542
▁करोड़	-7.64781
▁निवासी	-7.65052
▁12	-7.65073
ाई	-7.65471
▁यादव	-7.65602
▁पानी	-7.66065
▁आरोप	-7.66306
सा	-7.6683
▁सूचना	-7.66945
▁जीत	-7.67161
e	-7.67432
▁ली	-7.67591
▁सी	-7.6799
या	-7.68329
▁जहां	-7.68464
▁ऐसे	-7.68768
ौ	-7.68883
▁बारिश	-7.69027
जा	-7.69052
▁मु	-7.69696
▁भ	-7.69773
▁दिए	-7.69785
▁ए	-7.70035
▁मिल	-7.70705
▁अधिक	-7.71585
▁सा	-7.71652
▁होगी	-7.71891
▁नि	-7.71897
▁गिरफ्तार	-7.71911
▁जिसमें	-7.72229
▁पहुंचे	-7.72358
▁आप	-7.72553
भ	-7.72555
ले	-7.72719
▁इसमें	-7.72752
▁आने	-7.72786
▁आया	-7.72863
▁शिकायत	-7.73683
▁अधिकारी	-7.73876
▁ल	-7.743
वर	-7.74993
▁आए	-7.75463
▁इसी	-7.75505
ंद	-7.75684
क्ष	-7.75747
▁बाहर	-7.75787
▁बा	-7.75885
़	-7.75951
4	-7.75977
ेट	-7.76041
▁भारतीय	-7.76185
▁बता	-7.76621
▁दिल्ली	-7.77339
▁मोदी	-7.77546
0	-7.77611
▁अनुसार	-7.77636
▁)	-7.78024
ंट	-7.78028
▁रहने	-7.78153
▁शर्मा	-7.78752
ॉ	-7.78785
▁कोर्ट	-7.78919
▁लग	-7.78981
▁मिली	-7.79936
▁सकता	-7.80103
▁सु	-7.80321
▁इ	-7.80331
▁देख	-7.80472
▁चाहिए	-7.81051
▁स्थित	-7.81083
▁20	-7.8114
▁11	-7.81298
▁लोकसभा	-7.81671
a	-7.81739
▁रि	-7.8291
▁बंद	-7.83003
▁वहां	-7.83255
▁पी	-7.83409
▁शव	-7.83598
▁खेल	-7.83645
िल	-7.84041
▁मार	-7.85054
▁पिछले	-7.85148
▁मामला	-7.85253
हा	-7.85484
▁मा	-7.85851
▁पूरी	-7.85915
▁बढ़	-7.8615
▁चला	-7.86318
▁उसकी	-7.86472
डी	-7.88173
▁बैठक	-7.88208
▁कार्य	-7.88278
▁मान	-7.88646
▁रिपोर्ट	-7.88729
▁मिला	-7.88937
▁विधायक	-7.89153
पा	-7.89649
बी	-7.89857
गा	-7.90237
▁वर्ष	-7.90245
i	-7.90264
▁15	-7.90273
▁नेता	-7.90474
▁बस	-7.90518
एं	-7.90694
एस	-7.91012
▁कार	-7.91051
▁शाम	-7.9159
ीय	-7.91609
▁काफी	-7.91635
▁आगे	-7.91676
▁2024	-7.92089
▁मौजूद	-7.92172
्व	-7.92209
▁केंद्र	-7.92336
▁महा	-7.92582
▁सहित	-7.92729
▁ट	-7.92748
▁रोड	-7.92774
▁बड़ी	-7.93011
▁मां	-7.93062
▁अपना	-7.93495
▁जाएगी	-7.93742
▁जबकि	-7.94134
ंस	-7.94213
▁सड़क	-7.94265
▁करें	-7.94525
▁गो	-7.94826
▁जिसक	-7.94947
▁ई	-7.95177
▁बहुत	-7.9525
▁विकास	-7.95612
स्त	-7.95658
▁हालांकि	-7.95839
8	-7.96095
▁भर	-7.96408
ड़ा	-7.96429
▁अभी	-7.96524
00	-7.96564
दा	-7.9661
▁आग	-7.96672
▁श्री	-7.96854
▁वीडियो	-7.97113
▁मुख्यमंत्री	-7.97115
▁चार	-7.97543
▁ड	-7.97759
▁मुख्य	-7.97776
7	-7.97971
मान	-7.98045
1	-7.98408
▁विधानसभा	-7.98938
▁होता	-7.98994
▁तहत	-7.99017
ंक	-7.99233
िन	-7.99259
▁बच्चों	-7.99374
▁बाइक	-7.99475
▁ला	-7.99771
▁हत्या	-7.99947
▁परीक्षा	-8.00049
▁योजना	-8.0032
3	-8.00331
▁निर्देश	-8.00768
▁पिता	-8.00793
ओ	-8.01251
▁तब	-8.01604
▁सकते	-8.01654
o	-8.01693
▁अलावा	-8.02067
▁उनका	-8.02312
▁बारे	-8.02525
▁मीडिया	-8.02727
▁बे	-8.03259
▁मो	-8.03401
के	-8.03498
▁पहुंच	-8.0403
▁अलग	-8.04051
▁पता	-8.04477
6	-8.04597
▁अगर	-8.04843
▁मे	-8.05137
गी	-8.05501
▁कंपनी	-8.0559
▁कहना	-8.06067
ेश	-8.06234
▁वजह	-8.06663
ार	-8.06724
र्स	-8.06971
?	-8.07114
▁जिस	-8.0714
▁संख्या	-8.07163
9	-8.07166
▁पत्नी	-8.07279
ड़ी	-8.07363
▁शादी	-8.07399
▁सीट	-8.07468
▁उप	-8.07482
▁आरोपियों	-8.07544
बा	-8.07611
▁सुरक्षा	-8.07753
ंत	-8.08166
▁समाज	-8.08176
▁दूसरे	-8.08453
्त	-8.08484
▁एस	-8.08652
▁वाहन	-8.08858
ेज	-8.08954
्या	-8.09217
t	-8.09685
▁हाथ	-8.09741
▁बी	-8.09822
▁प्रति	-8.09892
▁अधिकारियों	-8.10083
▁सं	-8.10153
▁हमार	-8.10373
्यू	-8.10522
ियां	-8.10825
▁भाग	-8.11231
▁S	-8.11247
▁भाई	-8.11257
▁मुताबिक	-8.11327
▁तरफ	-8.1133
▁आयोजन	-8.11365
▁पूरा	-8.11396
▁आर	-8.11758
▁करेंगे	-8.11947
▁दिनों	-8.11982
▁घायल	-8.12017
▁कु	-8.12516
▁करता	-8.12757
▁बि	-8.1289
▁निर्माण	-8.12893
▁बिहार	-8.13065
▁जैसे	-8.13099
▁होती	-8.13185
▁महीने	-8.13317
▁व्यक्ति	-8.13382
▁टी	-8.13552
▁लगे	-8.14615
▁घंटे	-8.14721
िट	-8.1522
▁इसे	-8.15401
▁नंबर	-8.15413
▁ऐसा	-8.15436
▁वाला	-8.15469
▁पहुंची	-8.155
▁रन	-8.15627
▁बीजेपी	-8.15823
ेंद्र	-8.16111
▁हरियाणा	-8.1618
▁गिर	-8.16591
▁नजर	-8.16744
ति	-8.16893
ठ	-8.16955
▁डी	-8.17016
▁एन	-8.17695
▁लगातार	-8.17705
▁सोमवार	-8.17865
्‍	-8.17969
▁पूरे	-8.18197
▁पद	-8.18229
▁जिससे	-8.18264
▁वा	-8.18432
▁कॉलेज	-8.18487
जन	-8.18594
▁भेज	-8.18744
C	-8.18758
▁आम	-8.1936
▁देव	-8.19619
▁जल	-8.1965
कार	-8.19821
▁इसकी	-8.19909
▁रह	-8.20183
▁सांसद	-8.20217
▁छोड़	-8.20283
▁थाने	-8.20514
ान	-8.20525
मी	-8.20682
▁शिव	-8.20776
▁30	-8.20808
▁प्रदर्शन	-8.20901
▁जगह	-8.20943
I	-8.21183
▁लाल	-8.21216
▁सर	-8.21233
▁सकती	-8.21534
▁लगाया	-8.2224
S	-8.22361
▁पहली	-8.22486
▁निगम	-8.22504
▁जान	-8.23162
▁मह	-8.2323
▁मिलने	-8.23355
▁तैयार	-8.23636
▁तेज	-8.23776
वि	-8.23857
मेंट	-8.23874
▁झ	-8.2392
▁गांधी	-8.24084
आर	-8.24439
▁हूं	-8.24472
▁सीएम	-8.2475
▁भगवान	-8.24823
▁मंगलवार	-8.24997
▁गंभीर	-8.25035
▁इसका	-8.25134
▁प्रधानमंत्री	-8.2521
ेशन	-8.25537
▁जाए	-8.25622
शन	-8.25794
▁देर	-8.25841
▁कराया	-8.25878
▁आधार	-8.2592
राज	-8.26158
▁प्रशासन	-8.26187
पाल	-8.26196
वी	-8.2627
ां	-8.26351
वाल	-8.26426
▁डिग्री	-8.2648
हर	-8.26586
ाय	-8.26611
▁मृतक	-8.26624
▁पांच	-8.26647
▁25	-8.26682
शा	-8.26957
▁इसलिए	-8.27056
▁रोक	-8.27078
▁14	-8.271
▁जाती	-8.27163
▁देते	-8.27194
▁13	-8.27493
▁कुल	-8.27525
▁मैच	-8.2753
्ट	-8.27701
▁अन	-8.28018
▁बड़ा	-8.28118
▁A	-8.28156
▁विरोध	-8.28215
▁पंजाब	-8.2826
▁व्यवस्था	-8.28395
▁कै	-8.28397
▁सि	-8.28422
▁खान	-8.28522
▁जे	-8.28557
त्र	-8.28654
▁एम	-8.28694
दार	-8.28733
▁खुद	-8.28754
यर	-8.28922
ंज	-8.28933
▁मुझे	-8.2929
'	-8.29314
▁बड़े	-8.29642
रो	-8.2971
▁शिक्षा	-8.29798
टा	-8.29852
▁बनाया	-8.30004
▁पति	-8.30004
▁ट्रेन	-8.30081
▁शनिवार	-8.30163
▁इलाज	-8.30164
▁बदल	-8.3022
▁सवाल	-8.30295
▁छ	-8.30468
▁जमीन	-8.30623
▁रविवार	-8.30678
▁राजस्थान	-8.3076
▁नई	-8.30789
▁नए	-8.30996
▁दल	-8.31329
ेड	-8.31371
▁बुधवार	-8.31592
▁शुक्रवार	-8.32011
▁जून	-8.32244
▁जन	-8.32268
▁वापस	-8.32295
आई	-8.32432
▁प्रभारी	-8.32685
▁उन	-8.3276
▁संबंध	-8.32779
▁पत्र	-8.32789
▁जेल	-8.32805
▁लगी	-8.32916
▁पहचान	-8.33041
▁रुपये	-8.33239
▁पूजा	-8.33389
▁18	-8.33401
▁जल्द	-8.33656
▁लड़	-8.33667
▁आयोजित	-8.33703
▁दुकान	-8.3401
▁हा	-8.34109
▁बैंक	-8.34353
▁सह	-8.34421
्म	-8.34485
▁मौसम	-8.34512
▁50	-8.34529
▁वोट	-8.34725
में	-8.3474
▁गु	-8.3508
▁पक्ष	-8.35124
▁तापमान	-8.35424
▁समेत	-8.35667
लाल	-8.35801
▁19	-8.35869
▁आदेश	-8.36055
▁बिजली	-8.3615
▁रो	-8.36246
ोर	-8.363
▁स्व	-8.36313
िस	-8.36474
▁उसका	-8.36619
▁स्थिति	-8.36726
ेंगे	-8.36835
▁सेवा	-8.36855
▁भर्ती	-8.36931
▁परिजनों	-8.3703
▁16	-8.37053
s	-8.37302
▁गुरुवार	-8.37631
▁ऑ	-8.3769
▁बै	-8.37865
▁गा	-8.37924
▁24	-8.3804
गढ़	-8.38202
ेंट	-8.38356
▁बयान	-8.38362
▁मन	-8.38419
▁शुरुआत	-8.3851
▁बच्चे	-8.38609
▁कह	-8.38679
▁राहुल	-8.38812
▁विशेष	-8.38951
▁फोन	-8.3901
▁बढ़ा	-8.39046
▁लेने	-8.39188
▁बल	-8.39207
ास	-8.39496
A	-8.39512
▁ता	-8.39553
▁यात्रा	-8.39622
नि	-8.39684
▁दें	-8.40022
्ल	-8.4011
▁जुलाई	-8.40165
▁समिति	-8.40269
▁जनता	-8.40285
ाया	-8.40327
िका	-8.40441
▁कल	-8.40444
▁बेटे	-8.40471
िम	-8.40489
▁बाजार	-8.40528
ीन	-8.40557
▁होते	-8.40654
▁वन	-8.40827
▁ऑफ	-8.41189
▁ों	-8.41431
▁यू	-8.41711
रे	-8.4179
▁राष्ट्रीय	-8.4197
▁मिले	-8.42045
▁सब	-8.42212
▁चलते	-8.42256
उ	-8.42288
▁बनाए	-8.42615
▁अभियान	-8.42674
▁आदि	-8.42682
▁चोरी	-8.4279
▁स्थान	-8.42896
▁होकर	-8.42978
▁रखा	-8.42994
▁क्योंकि	-8.4309
▁17	-8.43121
▁डॉक्टर	-8.43193
▁सो	-8.43222
▁ढ	-8.43413
र्म	-8.43544
▁उत्तर	-8.43618
▁चुके	-8.43885
▁बेटी	-8.44022
▁विभिन्न	-8.44031
▁सरकारी	-8.44125
▁हाल	-8.44193
▁शो	-8.44283
▁दोपहर	-8.44294
▁दूसरी	-8.44472
▁अगस्त	-8.44558
▁सोशल	-8.44558
▁थीं	-8.44841
▁चर्चा	-8.44863
▁जवाब	-8.44982
▁सवार	-8.45055
▁?	-8.45063
▁प्रतिशत	-8.45194
▁युवा	-8.45301
▁डे	-8.45423
▁केस	-8.45423
रण	-8.45707
दी	-8.45735
▁दा	-8.45898
तर	-8.45963
▁ओ	-8.46028
वार	-8.4603
▁मदद	-8.4605
▁तथा	-8.46294
▁महिलाओं	-8.46383
ुल	-8.46444
▁स्वास्थ्य	-8.46532
▁अवसर	-8.46808
▁प्रयास	-8.46857
स्ट	-8.46862
▁लोक	-8.46952
▁सिर्फ	-8.47237
▁रेलवे	-8.47299
h	-8.47446
▁200	-8.47514
▁अनु	-8.47557
▁होंगे	-8.47569
रिया	-8.47743
▁बाल	-8.47802
▁पेश	-8.47827
▁पंचायत	-8.48162
▁ग्राम	-8.48285
र्	-8.48345
प्र	-8.48485
▁सचिव	-8.48502
ंगी	-8.48539
▁चुकी	-8.4861
एम	-8.48762
▁मोबाइल	-8.48767
▁उम्मीदवार	-8.48835
▁विवाद	-8.48901
▁सम	-8.49012
▁ध	-8.49107
▁जयपुर	-8.49437
िश	-8.49454
▁डि	-8.49457
▁स्थानीय	-8.49637
▁खा	-8.49711
▁पुत्र	-8.49714
▁थ	-8.49755
▁M	-8.49879
ेन	-8.50526
▁जाते	-8.50813
▁प्रमुख	-8.50834
▁देवी	-8.51003
▁ट्र	-8.51028
▁अपराध	-8.51222
P	-8.51868
▁दूर	-8.52194
▁पुर	-8.52277
▁पोस्ट	-8.52399
▁किसान	-8.52458
▁चि	-8.52568
▁जैन	-8.52585
▁लगभग	-8.52816
▁पार	-8.52835
▁सदस्य	-8.52959
▁स्ट	-8.53146
▁हि	-8.5315
▁शिक्षक	-8.53276
▁शाह	-8.53432
▁बर	-8.53511
▁इलाके	-8.53565
▁देखा	-8.53587
d	-8.53656
an	-8.53688
▁...	-8.53703
▁गाड़ी	-8.53893
ाल	-8.53897
▁पाकिस्तान	-8.54028
▁शराब	-8.54029
▁छात्र	-8.54121
▁स्तर	-8.54191
▁अवैध	-8.54203
▁मेरे	-8.54242
▁करती	-8.54439
▁प्राप्त	-8.54439
स्	-8.54577
गंज	-8.54808
▁डा	-8.55023
▁किसानों	-8.55428
वास	-8.55609
टर	-8.55718
▁इं	-8.55723
▁बने	-8.55838
्रा	-8.55887
▁मई	-8.55934
▁कट	-8.56
▁जीवन	-8.56015
▁22	-8.56053
▁वालों	-8.56277
▁भा	-8.56345
▁शेयर	-8.5638
त्	-8.56463
▁राय	-8.56529
▁पहुंचा	-8.56549
▁बरामद	-8.56618
▁पीड़ित	-8.56647
▁पि	-8.56837
▁अंदर	-8.56978
ृ	-8.57121
▁इंडिया	-8.57181
वीं	-8.57432
m	-8.57885
षण	-8.57904
राम	-8.57981
▁स्टेशन	-8.58153
▁सितंबर	-8.58301
▁P	-8.58315
▁कोशिश	-8.58363
▁रा	-8.58654
▁पीएम	-8.58766
▁कहते	-8.58947
धा	-8.58987
▁धर्म	-8.59037
▁मारपीट	-8.59153
u	-8.59231
▁C	-8.59282
▁पड़	-8.59398
▁इंदौर	-8.59459
▁जिन	-8.59518
वे	-8.59667
▁कलेक्टर	-8.59705
▁मि	-8.59839
जीत	-8.59984
▁अक्टूबर	-8.60136
भा	-8.60345
▁चुका	-8.60467
िव	-8.6058
िर	-8.61193
▁खरीद	-8.61288
▁लौट	-8.61443
▁दिसंबर	-8.61692
िए	-8.6182
▁माता	-8.62016
▁हमला	-8.62193
▁संगठन	-8.62195
▁तीसर	-8.62398
▁पीछे	-8.62511
M	-8.62658
ग्र	-8.62664
छ	-8.62692
▁21	-8.62742
▁उठा	-8.6286
▁हादसे	-8.63272
▁विजय	-8.63333
▁तलाश	-8.63528
लो	-8.63733
ौर	-8.64059
▁देकर	-8.64279
▁मेडिकल	-8.64297
▁पूछताछ	-8.64361
▁कार्यालय	-8.64445
▁लिखा	-8.64453
गर	-8.64602
▁बोल	-8.64661
▁जय	-8.64719
▁नवंबर	-8.64946
स्थ	-8.64996
▁आवेदन	-8.65027
p	-8.65183
वन	-8.65308
▁आसपास	-8.65335
▁मंडल	-8.65336
▁मै	-8.65527
▁बु	-8.65564
▁घ	-8.65588
▁लाइन	-8.65762
▁डाल	-8.65771
▁केंद्रीय	-8.65932
▁पढ़ें	-8.66329
क्स	-8.66404
▁कभी	-8.66578
▁सुन	-8.67036
▁एसपी	-8.67074
▁मतदान	-8.67175
▁तौर	-8.67246
यों	-8.67259
की	-8.67614
▁सके	-8.67657
▁बच	-8.67661
्ड	-8.67776
▁जाएंगे	-8.67964
▁D	-8.68106
▁चौधरी	-8.68169
▁आपको	-8.6821
▁खास	-8.68344
क्क	-8.68412
▁पड़ा	-8.68537
▁बिना	-8.68611
ेस	-8.6864
▁खेत	-8.69216
▁भोपाल	-8.69391
▁रे	-8.69498
हार	-8.69551
▁केवल	-8.69642
▁मरीज	-8.6966
▁मिनट	-8.69721
▁एक्स	-8.70075
▁देखने	-8.70153
नाथ	-8.70268
▁रख	-8.70299
▁राशि	-8.70559
%	-8.70607
▁आपक	-8.70646
ंच	-8.70746
झ	-8.70894
खा	-8.70962
▁नेताओं	-8.71098
▁ध्यान	-8.71364
▁B	-8.71476
▁भारी	-8.71528
▁क्यों	-8.71719
▁जाना	-8.71738
▁माह	-8.71806
▁लगाए	-8.72109
▁पो	-8.7226
c	-8.72366
ज़	-8.72494
▁40	-8.72543
▁माध्यम	-8.72568
▁नदी	-8.72598
▁जमा	-8.72789
▁मध्य	-8.72791
▁हार	-8.72882
ढ़	-8.7293
▁स्	-8.72932
▁दिख	-8.72952
▁मार्च	-8.7323
▁सिर	-8.73541
ुक	-8.73732
फा	-8.73888
ाइट	-8.73953
▁एल	-8.74123
पर	-8.7426
▁प्रसाद	-8.74594
▁पकड़	-8.74601
▁हमें	-8.74741
▁खबर	-8.74787
ेर	-8.74799
▁निकाल	-8.75141
▁प्रेम	-8.75265
▁लाभ	-8.75299
▁अंतर	-8.75366
बर	-8.75598
▁लो	-8.7574
▁बोर्ड	-8.75903
▁कैसे	-8.75955
▁देखते	-8.76103
▁फरार	-8.76396
▁टिकट	-8.76685
▁समस्या	-8.76738
▁दोस्त	-8.77066
▁होना	-8.77118
▁हवा	-8.77254
▁चालक	-8.77271
अलग	-8.77405
▁पै	-8.77499
"	-8.77512
▁विदेश	-8.78031
D	-8.78047
▁दिखा	-8.78193
▁2023	-8.783
▁कराने	-8.78305
▁वै	-8.78422
ृत	-8.7864
▁.	-8.78814
▁संबंधित	-8.79023
▁यानी	-8.79035
▁जनवरी	-8.79045
▁बचा	-8.7908
▁हटा	-8.79377
▁मार्ग	-8.79443
T	-8.79575
▁ग्रामीणों	-8.7961
बल	-8.79643
िय	-8.7965
▁वार्ड	-8.7968
▁जिसे	-8.79923
-1	-8.79948
▁ग्रामीण	-8.79976
▁कर्मचारी	-8.80169
▁कीमत	-8.80317
▁माल	-8.80637
▁चीन	-8.80638
▁बनी	-8.8065
▁संभावना	-8.80774
▁प्रक्रिया	-8.80774
▁100	-8.80829
▁वक्त	-8.80873
▁रंग	-8.80984
▁26	-8.81007
▁अगले	-8.81044
्च	-8.81051
▁छात्रों	-8.81284
मन	-8.81332
▁समारोह	-8.81383
▁चौक	-8.8148
▁परेशान	-8.81514
▁संजय	-8.8169
▁सीटों	-8.81839
▁आयोग	-8.81919
▁तय	-8.81953
नगर	-8.82214
ॉल	-8.82263
न्द	-8.82267
ूर	-8.82352
▁सहयोग	-8.82381
▁झा	-8.82401
▁उपलब्ध	-8.82458
वल	-8.82615
▁गलत	-8.82663
▁बहन	-8.82755
▁जिलों	-8.82771
ेश्वर	-8.82942
▁I	-8.82942
▁23	-8.8317
k	-8.83277
▁सार	-8.83415
ाना	-8.8364
▁भवन	-8.83824
g	-8.83847
▁दावा	-8.83893
▁भेजा	-8.83923
ड़े	-8.83955
▁ऐसी	-8.84049
▁छत्तीसगढ़	-8.84092
को	-8.84137
▁28	-8.84268
▁नेतृत्व	-8.84564
एल	-8.847
▁ब्र	-8.84755
▁सभा	-8.84829
▁नव	-8.85112
▁कर्मचारिय	-8.85276
▁उर्फ	-8.85277
▁दीप	-8.85278
▁रखने	-8.8557
ar	-8.8557
▁योग	-8.85636
▁नियम	-8.85703
▁ताकि	-8.85915
ंडा	-8.85946
▁बोले	-8.85965
▁कृष्ण	-8.85967
▁करवा	-8.86013
ेल	-8.86089
▁नीचे	-8.86154
▁गर्मी	-8.8621
▁विकेट	-8.86235
▁गोली	-8.86261
▁मुंबई	-8.86314
▁निकल	-8.8632
▁बल्क	-8.86494
▁समझ	-8.86528
▁जोड़	-8.8672
▁ऑफिस	-8.86755
▁वर्ग	-8.86763
र्ड	-8.8695
भर	-8.87123
▁हिस्सा	-8.872
मो	-8.8734
▁गुरु	-8.87357
▁्स	-8.87376
▁सीमा	-8.87424
▁दुनिया	-8.87525
▁शा	-8.87558
▁अप्रैल	-8.87606
▁ं	-8.87613
▁लंब	-8.87621
▁साफ	-8.87662
▁क्र	-8.87764
▁टक्कर	-8.87932
▁गुप्ता	-8.8825
▁प्रत्याशी	-8.8834
▁दरअसल	-8.88504
▁माना	-8.88578
▁पु	-8.88719
▁तैयारी	-8.88809
▁लगाने	-8.89036
▁इनक	-8.89086
▁चौ	-8.89147
न्न	-8.89368
▁दिल	-8.89384
▁सै	-8.89437
▁प्रकाश	-8.89748
▁फैसला	-8.89991
▁टेस्ट	-8.90039
▁यही	-8.90039
▁चरण	-8.90106
▁सजा	-8.90178
▁करा	-8.90246
यू	-8.9031
र्द	-8.90337
▁री	-8.90482
▁जुड़े	-8.90686
▁हासिल	-8.90911
▁तैनात	-8.90995
▁मकान	-8.90997
▁27	-8.91011
▁यूपी	-8.91057
▁घोषणा	-8.91163
▁सू	-8.91247
▁फोटो	-8.91247
▁राजनीतिक	-8.91388
▁भू	-8.91494
ेंस	-8.91535
▁सदर	-8.91568
▁मैदान	-8.91852
▁जाकर	-8.91951
▁नी	-8.91967
O	-8.92057
▁चंद्र	-8.92061
▁अमेरिका	-8.92322
रेंद्र	-8.92442
▁रहते	-8.92493
▁इस्तेमाल	-8.92519
जे	-8.92588
▁पे	-8.92853
▁क्रिकेट	-8.92947
ंध	-8.93002
▁संघ	-8.93099
ऊ	-8.93201
▁खुल	-8.93225
ंब	-8.93225
v	-8.93251
▁धन	-8.93256
▁स्थल	-8.93348
ियन	-8.93377
दर	-8.93456
▁बेच	-8.93775
▁प्रकार	-8.93872
▁बाबा	-8.93913
▁दर	-8.94098
▁ओवर	-8.9414
▁टे	-8.94283
▁बह	-8.94292
▁ऊपर	-8.94328
▁रहेगा	-8.94428
▁विश्व	-8.94564
िता	-8.94633
▁पटना	-8.94712
▁हालत	-8.94919
▁अमित	-8.94944
▁N	-8.95461
▁कानून	-8.95503
रू	-8.95623
▁बातचीत	-8.95641
▁वित्त	-8.95818
▁पैसे	-8.95895
▁किस	-8.959
म्प	-8.95997
चार	-8.96045
▁खराब	-8.96085
▁परिसर	-8.96097
स्क	-8.96165
▁मोहन	-8.96442
▁सिटी	-8.96496
ॉक	-8.96541
▁नया	-8.96585
▁ठीक	-8.96706
▁वायरल	-8.96882
फ़	-8.96921
▁31	-8.97048
वें	-8.97157
▁कार्ड	-8.97209
▁झारखंड	-8.97238
▁महत्वपूर्ण	-8.97242
▁जरूरत	-8.97419
ष्ट	-8.97519
पत	-8.97644
▁कॉ	-8.97669
▁घाट	-8.97819
▁विद्यालय	-8.97867
घ	-8.97877
▁फिलहाल	-8.97957
▁क्ल	-8.98085
▁बांग्लादेश	-8.98137
▁भीड़	-8.98158
▁खत्म	-8.98319
र्ज	-8.98365
▁सेंटर	-8.98376
▁रिकॉर्ड	-8.98409
▁चोर	-8.98495
▁दिवस	-8.98643
▁हमने	-8.98686
▁खोल	-8.98702
▁गठबंधन	-8.9884
▁तीनों	-8.98847
▁मं	-8.99044
ेगा	-8.99347
▁बज	-8.99389
▁प्रधान	-8.99407
▁कहीं	-8.9947
n	-8.99632
▁निजी	-8.99755
G	-8.99804
▁कराई	-8.99987
▁उम्मीद	-9.0003
आ	-9.00033
बू	-9.00042
▁लूट	-9.00556
▁लखनऊ	-9.00605
▁नागरिक	-9.00606
▁अस	-9.00608
▁29	-9.00694
▁दर्शन	-9.00698
▁राष्ट्रपति	-9.00773
▁इतन	-9.00892
वीर	-9.00938
▁पाल	-9.01017
▁वी	-9.01084
▁पढ़	-9.01118
क्र	-9.01145
▁पहला	-9.01204
▁य	-9.01245
▁न्यू	-9.0125
▁घोषित	-9.01255
y	-9.01295
र्ट	-9.01303
▁होटल	-9.01375
▁मना	-9.01389
▁ट्रक	-9.01494
▁सम्मान	-9.01606
▁चा	-9.01632
▁तोड़	-9.01887
▁बो	-9.01927
.5	-9.0194
▁लड़की	-9.01952
▁मेरी	-9.02026
▁उपस्थित	-9.02111
सर	-9.02293
▁प्रो	-9.02563
ही	-9.02581
▁मिलकर	-9.02599
▁जन्म	-9.02619
▁धारा	-9.02723
▁हाई	-9.02728
R	-9.02798
▁मजबूत	-9.02946
▁अंतिम	-9.0296
▁सामान	-9.03021
▁मीटर	-9.03536
E	-9.0387
▁कमेटी	-9.03902
▁R	-9.04135
▁उच्च	-9.04282
्ता	-9.04304
▁वर्षीय	-9.04305
▁तभी	-9.04381
▁पाया	-9.04437
▁अप	-9.04562
इनमें	-9.04641
▁जरिए	-9.04763
चर	-9.04896
ाबाद	-9.05026
ँ	-9.05053
▁धमकी	-9.0515
▁हे	-9.05153
▁गेट	-9.05317
णी	-9.05363
एन	-9.05391
▁प्रवेश	-9.05441
▁लिख	-9.05528
▁हिंदू	-9.05538
अ	-9.05547
▁पैर	-9.05567
▁जु	-9.05583
▁सुप्रीम	-9.05732
िटी	-9.05927
▁उतर	-9.05945
रस	-9.06052
▁परिषद	-9.06123
▁लगाई	-9.06218
▁दौर	-9.06303
िस्ट	-9.06349
▁अचानक	-9.06417
▁सात	-9.06487
▁अदालत	-9.06515
▁पुल	-9.06539
▁कॉल	-9.06667
वान	-9.06688
▁वरिष्ठ	-9.06711
▁सुनवाई	-9.06727
▁अग्रवाल	-9.0681
▁प्रस्ताव	-9.06908
देव	-9.06952
▁विपक्ष	-9.07007
ामी	-9.07068
▁चंद	-9.07108
▁समर्थन	-9.07205
पति	-9.07342
▁वारदात	-9.07402
▁परिजन	-9.07424
कल	-9.07441
▁टा	-9.07588
▁चाहते	-9.07644
▁फा	-9.07709
▁कॉलोनी	-9.07799
लर	-9.07866
▁साध	-9.08222
▁पुरा	-9.08456
्री	-9.08461
▁अशोक	-9.08498
▁उम्र	-9.08699
▁35	-9.0884
ेगी	-9.0886
▁बावजूद	-9.08899
पो	-9.08908
▁सही	-9.08965
▁लागू	-9.09202
▁देना	-9.09507
▁कमी	-9.09513
▁स्प	-9.09521
▁सामान्य	-9.09563
र्क	-9.09626
▁कप	-9.09679
▁सदस्यों	-9.09793
▁शुभ	-9.09809
ुआ	-9.09892
er	-9.09934
▁रवि	-9.0994
▁निरीक्षण	-9.10113
▁आते	-9.10238
▁उनसे	-9.10261
▁अंक	-9.10425
50	-9.10432
▁पटेल	-9.10456
िप	-9.10578
्क	-9.10602
एफ	-9.10611
▁विश्वविद्यालय	-9.10624
म्ब	-9.10972
▁जुट	-9.11069
▁बेहतर	-9.11212
पुरा	-9.11341
▁बदलाव	-9.11345
B	-9.11419
▁डर	-9.11572
▁एंड	-9.11729
▁हथियार	-9.11755
▁गंगा	-9.11763
▁राजनीति	-9.11789
▁लॉ	-9.11791
▁सुख	-9.11801
▁तत्काल	-9.12274
▁प्रभावित	-9.1239
▁वर्मा	-9.12424
▁नेशनल	-9.12496
ियो	-9.12609
ॉन	-9.12945
▁बंगाल	-9.1311
▁कही	-9.13527
▁दिखाई	-9.13604
▁नुकसान	-9.13635
वाई	-9.13719
▁कं	-9.13819
▁प्रतियोगिता	-9.13952
▁गाय	-9.14143
▁जरूरी	-9.14181
▁रहता	-9.14237
▁T	-9.14258
▁भक्त	-9.14341
▁अतिथि	-9.14402
▁नर	-9.14406
▁उपयोग	-9.14589
▁अजय	-9.14622
▁पाए	-9.14656
▁रखी	-9.14687
ये	-9.1479
▁पदाधिकारी	-9.14802
्रो	-9.14844
▁पं	-9.14853
ाइज	-9.14862
▁उससे	-9.14989
सु	-9.15022
ra	-9.15061
▁जि	-9.15076
▁बांध	-9.1518
▁असर	-9.15483
▁अफसर	-9.15659
▁करेगी	-9.15683
▁संस्थान	-9.15702
्वा	-9.15762
▁मजदूर	-9.15766
▁एड	-9.15825
▁उसी	-9.1583
ाइड	-9.15832
▁विचार	-9.15935
ेन्द्र	-9.16061
▁बनाई	-9.16077
▁राहत	-9.16272
ीकरण	-9.16294
▁ग्रुप	-9.16306
▁सेना	-9.1631
▁विद्यार्थ	-9.16311
▁शांति	-9.16459
▁रास्ते	-9.16523
▁टूट	-9.16618
▁महाराष्ट्र	-9.16714
▁हॉस्पिटल	-9.1674
▁तरीके	-9.16741
▁डो	-9.16798
▁कल्याण	-9.16849
▁ठ	-9.16961
ज्ज	-9.17032
ावत	-9.17078
b	-9.17176
▁2019	-9.17395
▁मिश्रा	-9.17539
ंदा	-9.17565
▁ड्राइवर	-9.17572
▁अयोध्या	-9.17614
▁जब्त	-9.17623
▁भूमिका	-9.1766
▁चोट	-9.17727
हरा	-9.17833
क्शन	-9.17833
▁कौन	-9.17836
▁ख़	-9.17925
एंगे	-9.17945
▁सफाई	-9.17977
▁ग्र	-9.17985
▁कार्यकर्ताओं	-9.18026
▁सीसीटीवी	-9.18164
▁सागर	-9.18468
▁महाराज	-9.1848
▁दक्षिण	-9.18496
▁संस्था	-9.18501
▁गुर	-9.18509
al	-9.18587
▁रु	-9.18737
▁अध	-9.18859
in	-9.1892
▁हल	-9.18968
▁मी	-9.18999
ुरंत	-9.19072
र्थ	-9.19105
चा	-9.19143
▁स्वागत	-9.19162
▁शक्ति	-9.19734
▁हमले	-9.1975
▁रिलीज	-9.19835
▁कपूर	-9.1985
डा	-9.19873
▁खर्च	-9.19879
▁मंच	-9.19887
▁स्क	-9.19906
▁अभि	-9.20032
▁बजट	-9.20127
▁इतना	-9.20217
र्ग	-9.20292
▁अभिषेक	-9.20305
ेस्ट	-9.20372
▁ज़	-9.20386
र्न	-9.2052
डे	-9.20639
▁दिला	-9.20659
▁संत	-9.20729
w	-9.20734
▁युवती	-9.20734
▁नौकरी	-9.20737
▁रायपुर	-9.20785
▁प्रचार	-9.20824
▁प्रदान	-9.20918
▁छोटे	-9.20961
▁जवान	-9.21003
▁K	-9.21163
▁आनंद	-9.21191
ग्	-9.21376
▁कृषि	-9.2153
▁नाग	-9.21582
▁राजेश	-9.21631
▁लगाकर	-9.21644
▁बीते	-9.21653
▁फै	-9.21664
▁रण	-9.21742
▁फरवरी	-9.21758
▁संयुक्त	-9.21778
20	-9.21832
▁लगता	-9.2228
▁प्रभाव	-9.2246
▁अमर	-9.22534
▁निर्णय	-9.22562
▁G	-9.22642
▁छात्रा	-9.22646
▁रेल	-9.22806
▁सीटें	-9.22808
▁सर्व	-9.22838
बार	-9.23033
▁मिलेगा	-9.23049
▁यदि	-9.2314
▁जाम	-9.23157
▁सिविल	-9.23256
▁मर	-9.23264
▁आर्थ	-9.23289
▁लेते	-9.23338
▁कला	-9.23377
▁खो	-9.23577
▁रोहित	-9.23605
▁नोटिस	-9.23622
म्	-9.23674
▁फीसदी	-9.23733
▁कदम	-9.23788
at	-9.23836
▁टै	-9.23904
▁सूर्य	-9.2396
▁सौंप	-9.23972
▁बढ़त	-9.24016
▁नाबालिग	-9.24189
▁सौ	-9.24205
▁2022	-9.24306
▁फंस	-9.24346
▁दीपक	-9.24396
▁ऑनलाइन	-9.24424
▁अल	-9.24467
▁तेजी	-9.24561
▁भास्कर	-9.24659
▁मालिक	-9.24742
ट्	-9.24782
▁नौ	-9.24854
▁जमकर	-9.24899
▁रहेगी	-9.24912
▁विषय	-9.25014
▁अली	-9.25075
▁रुक	-9.25125
▁मुलाकात	-9.25131
▁छा	-9.25168
यो	-9.25187
▁पल	-9.25209
द्ध	-9.25255
दान	-9.25333
▁तस्कर	-9.25608
▁एक्सप्रेस	-9.25962
▁श्रद्धालु	-9.25962
▁छह	-9.25972
▁भविष्य	-9.26081
▁फ़	-9.26092
▁शेख	-9.26207
▁उतार	-9.26244
▁करेगा	-9.26366
▁बेटा	-9.26415
वाद	-9.26431
▁मेरा	-9.2667
▁हाउस	-9.2668
▁मनोज	-9.26749
्ज	-9.26784
▁भाव	-9.2679
▁सहायक	-9.26921
▁न्याय	-9.27038
▁/	-9.27356
▁प्राथमिक	-9.27372
▁किशोर	-9.27406
▁60	-9.2746
▁कड़ी	-9.27504
▁सुविधा	-9.27517
▁ठाकुर	-9.27524
▁याचिका	-9.27524
▁सामना	-9.27528
▁अपील	-9.27533
▁फर्जी	-9.27677
▁रहती	-9.27751
▁अंतर्गत	-9.27767
्‍य	-9.27843
▁दूसरा	-9.2788
▁मोहम्मद	-9.2801
विक	-9.28027
गत	-9.28094
▁अतिरिक्त	-9.28132
▁हाईकोर्ट	-9.28376
▁आवास	-9.2839
फी	-9.28629
▁बिल	-9.2863
▁दम	-9.28727
▁उदयपुर	-9.28766
▁भूमि	-9.28784
▁45	-9.29077
▁कार्यकर्ता	-9.29143
▁स्टार	-9.29189
-2	-9.29337
▁याद	-9.29353
▁करवाया	-9.29372
▁कब	-9.29448
▁संचालन	-9.29482
अज्ञात	-9.29482
▁सीरीज	-9.29482
▁सुधार	-9.29519
▁खड़े	-9.29535
▁साहू	-9.29584
ल्ट	-9.29613
▁अनिल	-9.2972
तु	-9.29759
▁डिप्	-9.29793
▁इलाकों	-9.29853
▁सुनील	-9.29862
▁ो	-9.3007
▁चुन	-9.30094
▁पार्षद	-9.30101
▁प्रताप	-9.30103
▁चले	-9.30217
▁प्रा	-9.30217
▁सिस्टम	-9.30226
▁मंत्रालय	-9.30234
ानी	-9.3024
▁बदमाशों	-9.30337
▁एक्ट	-9.30377
ालय	-9.30398
बीर	-9.30425
▁गृह	-9.30472
▁अंजाम	-9.30476
▁तस्वीर	-9.30522
▁देंगे	-9.3054
▁मोह	-9.30618
▁सत्र	-9.3062
ैर	-9.30682
▁गण	-9.3069
तंत्र	-9.30737
▁पीड़िता	-9.30914
▁रक्षा	-9.30965
▁पर्व	-9.31061
▁कू	-9.31126
▁मिलते	-9.3115
▁बच्ची	-9.31227
▁अच्छी	-9.31227
▁नीति	-9.31228
▁पश्चिम	-9.31229
▁मत	-9.31249
▁जैसी	-9.31292
▁बैठे	-9.31357
▁भजन	-9.3137
▁बैठ	-9.31459
▁काट	-9.31471
▁कोतवाली	-9.31478
▁मामलों	-9.31478
▁किलोमीटर	-9.3173
सू	-9.3174
▁सत	-9.31806
▁लि	-9.31891
▁सोच	-9.32026
▁गिरफ्तारी	-9.32076
▁एक्ट्रेस	-9.3211
▁पॉ	-9.32152
▁पू	-9.3222
▁प्रोजेक्ट	-9.32237
▁जिसकी	-9.32402
कारी	-9.32443
▁मल	-9.32474
▁पेट्रोल	-9.32491
▁जंगल	-9.32541
शिप	-9.32741
▁अच्छा	-9.33003
▁हनुमान	-9.3313
▁आंदोलन	-9.33258
▁नीतीश	-9.33258
▁फसल	-9.33264
▁अर	-9.33281
▁दिशा	-9.33389
अप	-9.33483
▁पहन	-9.33521
▁स्पेशल	-9.33644
L	-9.33653
▁जग	-9.3379
्श	-9.33864
ियर	-9.34064
ोज	-9.34124
▁वार	-9.34245
▁वर्त	-9.34351
▁अधिकार	-9.34366
▁मगर	-9.3437
▁मंत्र	-9.34469
▁केजरीवाल	-9.34679
▁आय	-9.34745
▁सोने	-9.35044
▁मुस्लिम	-9.3507
था	-9.35122
▁घुस	-9.35242
न्ना	-9.35282
▁चै	-9.35394
▁दु	-9.35466
▁अलर्ट	-9.35478
▁परेशानी	-9.35503
▁मौका	-9.35641
▁यात्र	-9.35652
्न	-9.36056
▁सत्ता	-9.36135
▁उठ	-9.36162
▁आयुक्त	-9.36364
ल्ला	-9.36426
▁मुश्किल	-9.3665
▁शासन	-9.36654
▁शिविर	-9.3671
▁साइबर	-9.36793
▁नामांकन	-9.36916
▁पेड़	-9.37
▁पकड़ा	-9.37014
▁चीज	-9.37029
▁तिवारी	-9.3705
▁0	-9.37145
▁मीणा	-9.37183
▁घट	-9.37566
▁गुजरात	-9.37588
▁न्यायालय	-9.37594
गु	-9.37759
ाइन	-9.37812
▁इंटर	-9.37832
▁अधिकतम	-9.3799
▁इधर	-9.38014
दीप	-9.38139
▁कैंप	-9.38392
▁बदमाश	-9.38405
▁ऑटो	-9.38412
गो	-9.38541
▁नारायण	-9.38663
▁रैली	-9.38727
प्रीत	-9.38828
▁पढ़ाई	-9.38864
▁मंडी	-9.38864
▁सेक्टर	-9.38867
▁मुकेश	-9.38933
▁ति	-9.38944
िड	-9.38988
▁प्लान	-9.39087
▁ठंड	-9.39097
▁मनाया	-9.39336
▁संचालक	-9.39341
▁कब्जे	-9.39341
▁व्रत	-9.39348
▁स्पष्ट	-9.39358
▁डॉक्टरों	-9.39378
...	-9.39446
िकल	-9.39514
▁आउट	-9.39586
▁एयर	-9.39661
▁योगी	-9.39712
▁हमेशा	-9.39753
▁सुरक्षित	-9.39764
▁निकाला	-9.39829
▁पट	-9.39902
ुर	-9.39943
▁दास	-9.39998
▁;	-9.40053
वाड़ा	-9.40059
▁गणेश	-9.4006
▁महिलाएं	-9.40176
▁शि	-9.402
▁आवाज	-9.40213
▁संविधान	-9.403
▁पूर्ण	-9.40513
▁मनीष	-9.40577
िनी	-9.4068
▁एक्टर	-9.40692
▁सच	-9.4073
▁डाय	-9.40893
▁पेपर	-9.41019
▁गढ़	-9.41113
▁अव	-9.41114
▁दवा	-9.41122
▁युद्ध	-9.41129
▁80	-9.41134
▁व्यापार	-9.41242
▁70	-9.41405
▁यूनिवर्सिटी	-9.41407
ण्ड	-9.41474
▁देता	-9.41549
▁चयन	-9.41736
▁पूछा	-9.41793
▁जिम्मेदारी	-9.41891
▁सम्मानित	-9.42017
▁धर	-9.42024
▁लिस्ट	-9.42057
▁सप्ताह	-9.42105
▁पोस्टमार्टम	-9.42386
▁संबोधित	-9.42386
▁निभा	-9.42406
▁िया	-9.42459
▁किनारे	-9.4253
▁ईरान	-9.42543
▁कमरे	-9.42562
▁एयरपोर्ट	-9.42667
▁खुलासा	-9.42668
▁अहम	-9.4275
▁वर्ल्ड	-9.42815
▁चली	-9.4285
देश	-9.42979
▁विधि	-9.43053
▁सामाजिक	-9.43091
यां	-9.43143
or	-9.43162
▁आकर	-9.43212
ाइल	-9.4325
▁लाया	-9.43281
▁32	-9.43418
▁हादसा	-9.43517
▁पार्क	-9.43661
▁उनको	-9.43704
▁पारी	-9.43713
▁जाति	-9.43718
▁सख्त	-9.43802
▁चलने	-9.4383
▁संपत्ति	-9.43944
▁मशीन	-9.43944
पु	-9.43973
▁टो	-9.44108
▁स्टूडेंट्स	-9.44133
▁संपर्क	-9.4423
▁मू	-9.44237
▁E	-9.44257
ठा	-9.44378
▁गईं	-9.44446
▁पाई	-9.44458
▁पुरुष	-9.44517
▁रहेंगे	-9.4461
▁खुश	-9.44652
▁पोल	-9.44652
▁उद्देश्य	-9.4466
ष्ठ	-9.44662
▁सपा	-9.44683
▁प्रबंधन	-9.44692
▁खाली	-9.44858
▁बेहद	-9.45094
▁H	-9.45242
राष्ट्रीय	-9.4525
वाह	-9.45359
▁घरों	-9.4547
▁रखे	-9.45621
▁उपचार	-9.45723
▁कौर	-9.45762
▁लक्ष्य	-9.45817
▁धार्मि	-9.45828
▁चौथ	-9.45864
▁बाग	-9.4591
▁पहुंचकर	-9.45959
▁अधीक्षक	-9.45963
▁वास	-9.45987
धार	-9.46023
▁आठ	-9.46055
▁जोर	-9.46219
▁ब्लॉक	-9.4641
▁ते	-9.4643
▁विवाह	-9.465
▁ती	-9.4652
F	-9.46534
▁पशु	-9.46548
स्ट्र	-9.46571
▁अमेरिक	-9.46593
▁मौ	-9.46608
▁सूत्र	-9.46824
▁गोल	-9.47078
▁समुदाय	-9.47135
▁न्यूनतम	-9.4743
▁निवेश	-9.47499
▁राजा	-9.47596
▁तिथि	-9.47749
▁तकनीक	-9.47755
▁प्रखंड	-9.47784
ल्ड	-9.47821
▁बाकी	-9.47847
▁बुजुर्ग	-9.47875
▁शंकर	-9.47927
लैंड	-9.47939
▁बहा	-9.48024
▁बुला	-9.48066
▁गौर	-9.48205
ॉय	-9.48213
▁किलो	-9.48345
.2	-9.48423
▁33	-9.4858
N	-9.48626
वां	-9.4866
▁जिसका	-9.48739
▁आस	-9.48753
▁समाधान	-9.48919
▁शरीर	-9.48923
▁रेप	-9.48927
ha	-9.48959
▁मुख्यालय	-9.48961
▁पैसा	-9.49015
▁आदमी	-9.49072
मंडल	-9.49082
ार्थ	-9.49172
j	-9.4922
▁पूजन	-9.49254
▁कार्यों	-9.49278
प्	-9.49473
▁सफलता	-9.4952
▁घेर	-9.49526
▁रूस	-9.49571
▁कमल	-9.49618
▁चौहान	-9.49673
▁कप्तान	-9.49673
▁सालों	-9.49706
▁चेक	-9.49756
▁राकेश	-9.49824
िंदर	-9.49906
▁चौकी	-9.49913
▁पड़ी	-9.49925
▁सड़कों	-9.49961
▁सीजन	-9.50004
▁रै	-9.50177
▁मिलेगी	-9.50293
▁संदीप	-9.50314
काल	-9.50388
▁खर	-9.5045
▁आसान	-9.50486
▁आता	-9.50498
▁निर्वाचन	-9.5053
टो	-9.50548
▁चुनावी	-9.50562
▁चिंता	-9.50585
▁फूल	-9.50593
▁संग	-9.5062
बाज	-9.50692
▁बताई	-9.50723
▁एजेंसी	-9.50736
▁आखिरी	-9.50756
▁व्यक्त	-9.50782
▁जू	-9.5086
▁गुजर	-9.50892
नु	-9.50964
▁दाखिल	-9.51042
▁फाइनल	-9.51043
▁इमेज	-9.51043
▁सफल	-9.51054
▁जला	-9.51071
▁37	-9.51176
▁टॉप	-9.51197
▁रवाना	-9.51198
▁पहल	-9.51227
जू	-9.5123
▁फि	-9.51288
▁पड़े	-9.51375
▁राव	-9.51451
▁आंकड़	-9.5152
▁मार्केट	-9.51524
▁उद्योग	-9.51812
वानी	-9.51812
स्म	-9.51828
▁प्राइवेट	-9.51966
त्री	-9.52011
▁स्टाफ	-9.52128
िज	-9.52158
▁मानसून	-9.52276
▁सुपर	-9.52371
▁परिणाम	-9.52431
▁फीट	-9.52453
▁तार	-9.52542
▁इंतजार	-9.52587
साथ	-9.52677
▁कहानी	-9.52713
▁कमिश्नर	-9.52742
▁पंच	-9.52783
▁कुमारी	-9.52883
▁L	-9.52887
▁मारने	-9.52989
▁भरा	-9.53011
▁अरविंद	-9.53098
r	-9.53168
sh	-9.5318
▁लाने	-9.53212
▁वकील	-9.53214
▁रेड	-9.53223
▁कैप्शन	-9.53368
▁खिलाड़ी	-9.53385
▁छत	-9.53389
▁रू	-9.53403
▁दान	-9.53449
▁आवश्यक	-9.53537
र्च	-9.53617
▁पहुंचने	-9.5367
▁प्ले	-9.53673
▁ऑपरेशन	-9.53682
गार	-9.53705
▁स्थापित	-9.5384
ैंड	-9.53844
▁खड़	-9.53859
ः	-9.53956
▁लॉन्च	-9.53997
▁तेल	-9.54082
▁बद	-9.54089
▁परि	-9.5411
▁प्रथम	-9.54157
▁गोपाल	-9.54284
ढ	-9.54329
▁सोन	-9.54368
▁टोल	-9.54604
▁राजधानी	-9.54631
▁शपथ	-9.54632
▁सूची	-9.54633
▁संतोष	-9.54642
▁नोट	-9.54685
/	-9.54693
▁इतिहास	-9.5479
▁बंध	-9.54835
▁भि	-9.54848
▁प्यार	-9.54954
▁अंत	-9.55101
f	-9.55109
▁ज्योति	-9.55109
▁निदेशक	-9.55109
▁F	-9.55123
▁V	-9.5516
▁कितन	-9.55223
▁परियोजना	-9.55268
▁199	-9.55326
▁ट्रैफिक	-9.55428
▁रूम	-9.55472
सभा	-9.55475
▁वर्	-9.55497
श्त	-9.55566
ानंद	-9.55705
द्र	-9.55707
▁अवध	-9.55721
▁फायदा	-9.55749
▁दबाव	-9.5575
▁मानव	-9.55905
▁जम्मू	-9.5591
▁माहौल	-9.5591
▁मिलता	-9.55913
▁डीएम	-9.56083
▁पसंद	-9.56233
▁मूल	-9.56312
ैया	-9.56378
ेक्ट	-9.56413
.4	-9.56446
▁अरुण	-9.56477
▁रफ्तार	-9.56555
▁बुलाया	-9.56607
▁पालन	-9.56653
पास	-9.56675
▁उक्त	-9.56718
▁टैक्स	-9.56742
▁J	-9.5686
िक्स	-9.5687
▁BJP	-9.5688
▁ज्ञान	-9.56881
▁प्रशिक्षण	-9.56903
▁सहायता	-9.57043
▁कक्षा	-9.57047
मार	-9.57303
▁प्रस्तुत	-9.57527
▁सोनी	-9.57529
▁हिरासत	-9.57532
▁अनुमति	-9.57532
▁एफ	-9.57679
▁क्षमता	-9.57696
▁जुड़ी	-9.57859
▁समूह	-9.5786
▁धान	-9.57866
▁वीर	-9.57949
▁ड्यूटी	-9.58188
▁सैनी	-9.58195
▁रोजगार	-9.58195
▁ग्वालियर	-9.58353
▁कंपनियों	-9.58353
▁हरि	-9.58373
प्त	-9.58378
घर	-9.58427
▁जमानत	-9.58525
प्प	-9.58554
▁औ	-9.58632
▁सीनियर	-9.58684
▁किमी	-9.58734
▁चु	-9.58787
▁फायर	-9.58955
न्ह	-9.59236
▁मध्यप्रदेश	-9.59347
▁हेड	-9.59382
▁जानते	-9.59469
यु	-9.59489
यन	-9.59491
▁चिकित्सा	-9.59513
▁आत्म	-9.59527
▁धार	-9.5977
▁संभाल	-9.59852
वंश	-9.59919
▁बाढ़	-9.59951
▁राष्ट्र	-9.59966
▁500	-9.59966
▁मुकाबले	-9.60015
▁डायरेक्टर	-9.60031
नीय	-9.60107
▁एसोसिएशन	-9.60183
▁सेल्सियस	-9.60183
▁गतिविधिय	-9.60457
▁2024:	-9.6047
▁सत्य	-9.60502
▁तारीख	-9.60689
▁रेफर	-9.6069
▁श्याम	-9.60692
▁90	-9.60746
▁जोन	-9.60748
.8	-9.60791
▁पोस्टमॉर्टम	-9.60857
▁मुकदमा	-9.60857
▁कर्मियों	-9.6091
▁36	-9.60985
▁निर्धारित	-9.61026
▁डूब	-9.61032
दो	-9.61038
▁गौरव	-9.61117
▁आरक्षण	-9.61196
▁कारोबार	-9.61196
▁समाप्त	-9.61203
▁बॉलीवुड	-9.61206
▁धो	-9.61357
▁दस्तावेज	-9.61366
▁फैसले	-9.61366
▁गरीब	-9.61371
▁महत्व	-9.61379
▁विस्तार	-9.61536
▁बूथ	-9.61538
▁धाम	-9.61586
▁l	-9.61712
▁खंड	-9.61766
▁सर्वे	-9.618
ज्ञ	-9.6184
▁ज्ञापन	-9.62048
▁जताई	-9.6205
▁आरती	-9.62058
▁संचालित	-9.62562
एच	-9.62603
.6	-9.62664
▁फायरिंग	-9.6267
▁बेस	-9.62704
पेट	-9.62801
▁रखते	-9.62843
पूर्ण	-9.62897
▁मॉडल	-9.62907
▁रच	-9.62917
कू	-9.63055
▁रस	-9.63105
▁एप	-9.63169
▁छु	-9.63207
▁घूम	-9.63255
▁भो	-9.63279
▁कहां	-9.63325
▁स्टोर	-9.6334
▁पावर	-9.63453
▁राजीव	-9.63485
▁हु	-9.63542
▁स्टेट	-9.63546
▁सबक	-9.63664
▁वाद	-9.63669
युक्त	-9.63891
डो	-9.63902
▁केन्द्र	-9.63941
▁सप्लाई	-9.63948
ौली	-9.64055
▁करवाई	-9.64063
▁भु	-9.64099
▁निकले	-9.6412
▁रोज	-9.64218
▁गिरावट	-9.64297
ेटर	-9.64312
▁34	-9.64345
▁तर	-9.64594
▁दैनिक	-9.64647
▁प्रत्येक	-9.64647
▁सरपंच	-9.64648
,000	-9.64652
▁खु	-9.64666
▁48	-9.64762
▁दुर्गा	-9.64778
ur	-9.64874
▁लै	-9.64914
▁कोलकाता	-9.64999
▁खिलाड़ियों	-9.64999
▁ट्रैक्टर	-9.65004
▁टू	-9.65027
▁लु	-9.65034
सलमान	-9.65073
▁कथा	-9.65143
▁लापरवाही	-9.65176
▁2021	-9.65176
▁मच	-9.65189
.7	-9.65293
▁पुराने	-9.65294
H	-9.65347
▁मैन	-9.65479
▁फेंक	-9.65546
▁संसद	-9.65672
▁खड़ा	-9.65695
▁लाइट	-9.65826
▁सक्रिय	-9.65884
▁क्रम	-9.65885
▁उपाध्यक्ष	-9.65901
▁क्लास	-9.65934
▁समा	-9.65941
hi	-9.65956
▁प्रदीप	-9.65979
▁पीट	-9.66111
▁जिन्होंने	-9.66247
▁शिकार	-9.66341
▁खाते	-9.66358
▁ओम	-9.664
▁रमेश	-9.6642
▁जस	-9.66431
▁पेट	-9.66518
▁प्रतिमा	-9.66557
▁एच	-9.66564
▁विशाल	-9.66599
▁दौड़	-9.66603
▁पैदा	-9.66682
▁डॉलर	-9.66892
▁ठगी	-9.66905
▁चर	-9.66912
▁विश्वास	-9.66914
▁छठ	-9.66937
▁करियर	-9.66954
▁वितरण	-9.66958
▁साबित	-9.66958
it	-9.66978
▁स्टैंड	-9.66981
▁संदेश	-9.67176
▁पड़ता	-9.67177
▁्	-9.67243
स्व	-9.67282
-20	-9.67292
U	-9.67327
▁प्रेस	-9.67346
▁अनुमान	-9.67432
▁निर्	-9.67469
▁उठाया	-9.67481
▁फल	-9.67501
जल	-9.67542
▁दस	-9.67622
▁मोहल्ल	-9.67667
▁अकाउंट	-9.67678
▁इंडस्ट्री	-9.67678
▁नशे	-9.67699
▁चुनावों	-9.67773
▁मृत	-9.67859
▁पहाड़	-9.67868
▁तु	-9.68043
▁वसूल	-9.68059
▁गार्ड	-9.68096
▁रेट	-9.68203
▁तालाब	-9.68261
▁नील	-9.68262
▁पूछ	-9.6829
▁करवाने	-9.68378
.0	-9.68392
on	-9.68425
▁मूर्ति	-9.68587
▁75	-9.68653
▁2025	-9.6877
▁क्लब	-9.68871
▁लक्ष्मी	-9.68946
▁चंडीगढ़	-9.68953
▁साह	-9.69023
्का	-9.69041
शांत	-9.69132
▁चुनौती	-9.69137
▁CM	-9.69191
▁उत्	-9.69259
▁पाली	-9.69266
▁खाना	-9.69339
▁बग	-9.69361
▁आजाद	-9.69415
एक	-9.69487
▁O	-9.69585
▁यूनिट	-9.69691
▁मुद्दे	-9.69874
▁टाइम	-9.69874
▁जोधपुर	-9.69875
▁स्वामी	-9.69919
▁पलट	-9.69923
▁अर्	-9.69952
▁भुगतान	-9.70059
▁इंटरव्यू	-9.70059
वाड़	-9.70072
▁नाथ	-9.70076
खंड	-9.70117
▁हमारा	-9.70118
▁चाहता	-9.70171
▁शहीद	-9.70245
▁हालात	-9.7025
▁छापेमारी	-9.7043
▁संघर्ष	-9.7043
▁प्रमाण	-9.70431
▁सलाह	-9.70434
साउथ	-9.7044
▁हाईवे	-9.70468
▁दाम	-9.70564
▁आती	-9.70586
.30	-9.70623
गल	-9.70638
▁वाराणसी	-9.70803
▁समीक्षा	-9.70803
▁चू	-9.70877
▁विमान	-9.70902
▁एफआईआर	-9.7099
द्द	-9.71174
▁रद्द	-9.71253
▁राजस्व	-9.7142
▁अनुभव	-9.71554
▁पत्रकार	-9.71665
ड़िया	-9.71722
▁सुर	-9.71765
चक	-9.71778
▁एं	-9.71794
nd	-9.71821
▁दायर	-9.71866
▁वोटिंग	-9.71964
▁गेंद	-9.72118
▁ऑस्ट्रेलिया	-9.72119
▁पुरानी	-9.72129
▁हिंसा	-9.72255
नीत	-9.72259
▁निशाना	-9.724
▁अपर	-9.72445
▁संदिग्ध	-9.72498
▁सम्मेलन	-9.72498
▁इंटरनेशनल	-9.72688
▁स्थापना	-9.72688
▁फुटेज	-9.72704
पीएस	-9.72794
▁एसडीएम	-9.72879
▁अच्छे	-9.7288
.3	-9.72927
▁नवीन	-9.72953
▁अरब	-9.73043
▁सकेंगे	-9.73073
▁धु	-9.73082
▁फैल	-9.73116
▁दुर्घटना	-9.73261
ुम	-9.73457
▁प्रभा	-9.73475
▁फैंस	-9.73514
▁जै	-9.73557
ात्मक	-9.73578
▁नंद	-9.7369
▁कानपुर	-9.73707
ब्र	-9.73746
▁भीतर	-9.73759
▁घंट	-9.73764
▁विशेषज्ञ	-9.73862
▁वृद्धि	-9.73908
▁बीए	-9.7397
▁सर्विस	-9.74069
▁खाने	-9.74136
▁विकसित	-9.74222
▁विज्ञान	-9.74222
मेल	-9.74361
▁क्	-9.74371
▁दूरी	-9.74386
▁समर्थक	-9.74416
▁रानी	-9.74451
▁घायलों	-9.74582
▁पारा	-9.74589
▁फ्ल	-9.74658
▁डेढ़	-9.74669
▁नियुक्त	-9.74775
▁रांची	-9.74804
▁चलाया	-9.74916
▁प्रतिनिधि	-9.74977
.1	-9.74984
ूंगा	-9.75094
▁घो	-9.75154
▁कलाकार	-9.75242
▁सां	-9.75372
▁पवन	-9.75426
ियम	-9.75444
स्थल	-9.7557
▁प्राण	-9.75599
▁यात्री	-9.75616
▁कार्यकाल	-9.75636
डीए	-9.75727
▁मंगल	-9.75748
▁नाराज	-9.75874
▁सौर	-9.75908
▁पुष्प	-9.75977
▁स्वीकार	-9.75978
▁गठन	-9.75979
▁जरूर	-9.7614
▁तहसील	-9.76148
▁निशान	-9.76322
ध्य	-9.7643
▁त्रि	-9.76485
▁गैंग	-9.76564
▁खूब	-9.76571
▁आंख	-9.76571
▁लेना	-9.76576
▁नियुक्ति	-9.76649
िशन	-9.767
ay	-9.76706
as	-9.76848
▁आखिर	-9.7694
▁गैर	-9.76964
▁उद्घाटन	-9.76965
▁स्टेडियम	-9.76965
▁अध्यक्षता	-9.77077
▁सूरज	-9.77166
▁रोल	-9.77248
▁कश्मीर	-9.77288
en	-9.7732
▁कैमरे	-9.77363
▁अतिक्रमण	-9.77363
▁खुशी	-9.77381
▁स्वच्छ	-9.77384
ाराम	-9.77401
▁दुकानदार	-9.77471
▁संगीत	-9.7748
्यो	-9.77519
▁विवेक	-9.77563
▁मॉ	-9.77574
▁महोत्सव	-9.77579
▁विज	-9.77585
▁सुरेश	-9.77585
▁सिम	-9.77625
am	-9.77743
▁दर्जन	-9.77757
▁लड़ाई	-9.77758
▁ऊंच	-9.77763
दोबारा	-9.7777
▁बॉल	-9.77798
▁मिशन	-9.77948
▁2014	-9.77963
▁मीटिंग	-9.77963
▁सोरेन	-9.77964
▁सुंदर	-9.77965
िनोद	-9.78005
▁बढ़ावा	-9.78068
▁आशंका	-9.78164
▁पुरस्कार	-9.78164
▁पंडित	-9.78165
पिता	-9.78199
:30	-9.7822
▁चाहती	-9.78225
▁डाला	-9.78261
▁नहर	-9.78435
▁यश	-9.78479
▁मुक्त	-9.78509
▁एरिया	-9.78534
▁संभव	-9.78567
▁गोल्ड	-9.7864
▁जिनक	-9.78713
ानदार	-9.78724
▁सिख	-9.78765
▁News	-9.78769
▁जिन्हें	-9.78769
▁बम	-9.78801
es	-9.78822
▁राजकुमार	-9.79008
▁दिनेश	-9.79078
▁दर्द	-9.79147
कांत	-9.79163
▁आतंक	-9.79165
▁सार्वजनिक	-9.79377
▁सुनिश्च	-9.7952
▁विष्णु	-9.79581
▁इंस्पेक्टर	-9.79581
▁नतीज	-9.79858
ri	-9.79902
▁इंडिय	-9.79939
th	-9.79943
वाया	-9.79954
▁सीता	-9.7999
▁संजीव	-9.7999
हम	-9.80015
▁ब्ल	-9.80034
▁एक्शन	-9.80079
▁ट्रैक	-9.8016
▁महीन	-9.80345
▁अखिलेश	-9.80417
चंद	-9.80418
▁चढ़	-9.80453
▁रोशन	-9.80529
▁प्रतिष्ठा	-9.80606
▁कैद	-9.80681
▁कोटा	-9.80745
V	-9.80745
▁असम	-9.80754
कैबिनेट	-9.80812
▁गैस	-9.80923
▁रहीं	-9.80927
▁संस्कार	-9.81018
▁गौतम	-9.81019
िग	-9.81045
▁बैग	-9.81068
▁जानिए	-9.81111
▁लड़के	-9.81168
धारण	-9.81255
▁समस्याओं	-9.81279
▁प्रोफेसर	-9.81433
▁वेतन	-9.81446
▁सिद्ध	-9.81468
▁दरवाज	-9.81678
्ण	-9.8179
▁प्रवक्ता	-9.81849
▁सका	-9.82017
▁लुधियाना	-9.82058
▁सिन्हा	-9.82058
▁गोविंद	-9.82058
▁फॉर्म	-9.82093
▁शक	-9.82096
लाइन	-9.8211
▁मिलती	-9.82276
▁धरना	-9.82324
▁दिवसीय	-9.82353
▁उत्साह	-9.82477
▁साहिब	-9.82477
▁एक्टिव	-9.82513
▁पदों	-9.82591
धि	-9.82598
▁अज	-9.82638
▁बल्लेबाज	-9.82687
▁पंकज	-9.8269
बंध	-9.82724
▁2020	-9.82763
▁पहुंचाया	-9.82774
▁कर्नाटक	-9.82897
▁भव्य	-9.829
▁टेक	-9.82908
▁प्ल	-9.82945
दम	-9.83092
▁डिस्	-9.83096
▁आबादी	-9.83108
▁पर्यावरण	-9.83108
दास	-9.83176
▁टीचर	-9.83219
▁महेंद्र	-9.83251
▁55	-9.83269
▁चेतावनी	-9.8332
▁सांस्कृतिक	-9.8332
▁छोटी	-9.8332
▁भाषा	-9.83454
▁हल्की	-9.83532
▁चांदी	-9.83727
▁पेंशन	-9.83744
▁जगहों	-9.83766
जो	-9.83794
धर	-9.83953
▁आदिवासी	-9.83958
▁कमजोर	-9.83958
▁ट्रंप	-9.83958
▁अंडर	-9.83964
▁जज	-9.84014
▁बोर	-9.84018
निश्चित	-9.8402
▁300	-9.84046
▁भावना	-9.84122
▁एंट्री	-9.8417
▁आपका	-9.8419
▁बातें	-9.84337
ट्टा	-9.84411
▁बिगड़	-9.84508
▁पाठ	-9.84509
▁पीठ	-9.84543
▁कुर	-9.84547
▁PM	-9.84662
▁उपचुनाव	-9.84812
▁ऊर्जा	-9.84812
▁ट्रांसफर	-9.84812
▁आकाश	-9.84814
शील	-9.84816
▁चाकू	-9.8483
▁गिरा	-9.84847
ंगल	-9.84848
▁कराए	-9.8494
ग्राम	-9.84973
l	-9.84985
▁निगरानी	-9.85027
▁इसराइल	-9.8503
▁पश्चिमी	-9.8505
हत	-9.85098
▁गीत	-9.85235
▁400	-9.85247
▁इन्हे	-9.85267
▁फर्	-9.8528
▁योगदान	-9.85486
ज़ा	-9.85554
▁दुर्ग	-9.85591
▁उड़	-9.85662
▁झूठ	-9.85677
स्टर	-9.85712
▁U	-9.85748
▁वर्क	-9.85782
▁छूट	-9.85895
▁गर्म	-9.8603
ंद्र	-9.86085
▁रास्ता	-9.86111
▁मुख	-9.86143
कुल	-9.86325
▁बधाई	-9.86328
▁कपड़े	-9.86455
▁स्तरीय	-9.86468
▁साइ	-9.86509
▁ससुराल	-9.86554
ियत	-9.86589
re	-9.86617
क्टर	-9.86673
सूस	-9.86748
▁सुभाष	-9.86765
▁एनडीए	-9.86797
▁आवश्यकता	-9.86968
▁कंट्रोल	-9.86984
▁आचार्य	-9.86984
▁सैनिक	-9.86985
▁समान	-9.86988
▁संकल्प	-9.86993
▁टकरा	-9.87146
सचिव	-9.87193
▁पत्थर	-9.87204
▁प्रयोग	-9.87204
▁निकाली	-9.87462
▁पैक	-9.87482
▁बाई	-9.87516
▁बाबू	-9.87535
ावली	-9.87544
▁गायब	-9.87548
▁ग्रे	-9.87609
▁खाद्य	-9.87619
▁संस्कृति	-9.87631
▁बाज	-9.87652
▁क्राइम	-9.87866
▁मस्जिद	-9.87866
▁बचाव	-9.87881
▁खात	-9.87988
▁कर्मी	-9.88026
्टर	-9.88055
▁उत्सव	-9.88088
▁बिक्री	-9.88089
▁चारों	-9.88153
▁नजदीक	-9.8831
▁मेहनत	-9.8831
▁ऐ	-9.88469
▁हंगामा	-9.88532
▁मानसिक	-9.88534
झा	-9.88606
▁समझा	-9.88697
▁बोला	-9.88725
▁फैक्ट्री	-9.88756
ुरी	-9.88767
▁लू	-9.88778
▁सोना	-9.88897
▁!	-9.88898
नायक	-9.89012
्हा	-9.8906
▁फ्री	-9.8912
▁पांडे	-9.89146
च्छ	-9.89176
▁परिवहन	-9.89204
▁सुसाइड	-9.89204
▁गेंदबाज	-9.89215
▁आकर्ष	-9.89217
▁बैठा	-9.89224
▁आइ	-9.89239
र्ब	-9.89284
▁भूप	-9.89298
▁कौशल	-9.89428
▁बॉक्स	-9.89429
▁साढ़े	-9.89429
▁धा	-9.8959
▁हट	-9.89594
▁ताल	-9.89619
▁देती	-9.89777
ायद	-9.89887
चिंग	-9.89924
▁ईडी	-9.8993
▁रिया	-9.90013
▁हिस्से	-9.90105
▁उज्जैन	-9.90106
▁बैर	-9.90106
▁खून	-9.9012
▁गज	-9.90123
ॉर्	-9.90228
▁संभाग	-9.90333
▁सुना	-9.90378
ाचार्य	-9.90495
▁198	-9.90496
▁जिम्मेदार	-9.90681
▁निकला	-9.90697
▁लगाते	-9.90731
▁छीन	-9.90774
▁अग्नि	-9.90788
▁सुनाई	-9.908
टीआई	-9.90858
▁सीए	-9.9094
.9	-9.90949
▁श्रीवास्तव	-9.91016
▁गौ	-9.91053
▁टाटा	-9.91081
▁लड़किय	-9.91177
▁गुल	-9.91186
वंत	-9.91217
शियल	-9.91306
▁s	-9.91366
▁गति	-9.91416
▁38	-9.91452
▁परंपरा	-9.91474
‍	-9.91576
▁नो	-9.91636
▁अर्जुन	-9.91704
▁हित	-9.91774
▁आएंगे	-9.91782
विंदर	-9.91902
▁अजमेर	-9.91934
▁व्यापारी	-9.9201
▁ठग	-9.92054
ेलू	-9.92103
▁हिंदी	-9.92167
▁मधु	-9.92173
▁एमपी	-9.92264
▁46	-9.92286
▁श्रीराम	-9.92301
▁चेयरमैन	-9.92397
▁बिजनेस	-9.92397
▁कब्जा	-9.92397
▁घोटाल	-9.924
▁डीए	-9.92413
▁अगल	-9.92452
▁अधिनियम	-9.92629
▁भ्रष्टाचार	-9.92629
▁डीएसपी	-9.92629
▁जितन	-9.92738
वेबसाइट	-9.92861
▁धीर	-9.92966
▁वाय	-9.93002
▁मान्यता	-9.93055
▁प्रियंका	-9.93095
▁लख	-9.9316
▁वर्षा	-9.93167
ad	-9.93186
▁किरदार	-9.93198
▁प्रिंसिपल	-9.93328
▁सीधे	-9.93331
▁अक्स	-9.93337
▁असल	-9.93384
▁खुले	-9.93434
▁कमाई	-9.93438
▁लागत	-9.93635
▁लेख	-9.93649
▁मजबूर	-9.93797
▁आना	-9.93828
▁मुकाबला	-9.94032
▁कोहली	-9.94064
X	-9.94268
▁डिजाइन	-9.94268
▁फीस	-9.94273
▁इंग्ल	-9.94298
▁संरक्षण	-9.9431
▁पकड़े	-9.94325
st	-9.94356
▁हवाई	-9.94404
ro	-9.94485
▁दिखाया	-9.94493
▁दूध	-9.94506
K	-9.94557
▁कानूनी	-9.94639
▁हिसाब	-9.94742
पू	-9.94761
▁लें	-9.94771
▁आगरा	-9.94804
▁मिस	-9.94951
▁ठेकेदार	-9.94979
वेल	-9.95036
हिर	-9.95072
▁राज्यपाल	-9.95073
धीरे	-9.95079
▁मतदाता	-9.95125
▁पासवान	-9.95177
▁उत्पाद	-9.95206
▁भंडार	-9.95231
▁काबू	-9.95257
▁पांडेय	-9.95283
▁42	-9.9537
▁आश्वासन	-9.95456
▁अपडेट	-9.95456
▁कैलाश	-9.95456
▁जैसा	-9.95516
▁शूटिंग	-9.95529
▁श्रेणी	-9.95695
▁उचित	-9.95696
▁आशी	-9.95732
▁पदार्थ	-9.95741
▁टि	-9.95794
x	-9.95935
▁औसत	-9.95935
▁रोग	-9.96035
▁स्कोर	-9.96131
▁प्लांट	-9.96175
▁हर्ष	-9.96182
▁रणनीति	-9.96182
▁फ्लाइट	-9.96195
▁रूट	-9.96434
▁फॉर	-9.96448
▁भोजन	-9.96457
▁फोर	-9.96625
▁संयोजक	-9.96658
▁प्रश्न	-9.96658
▁मुद्दों	-9.96658
▁ममता	-9.96668
▁दोषी	-9.9667
▁बड़	-9.9667
▁प्रतिबंध	-9.96692
▁नशा	-9.96739
▁चीफ	-9.96788
▁निरीक्षक	-9.96848
▁यातायात	-9.969
▁पिछल	-9.97046
▁मतगणना	-9.97148
▁महेश	-9.97148
▁गुस्स	-9.97151
▁रिश्तेदार	-9.97161
▁उड़ान	-9.97167
डिंग	-9.97168
▁गहर	-9.97199
▁अहमद	-9.97413
▁चार्ज	-9.97414
▁व्याप	-9.97417
कृष्ण	-9.97466
दु	-9.97469
▁बुरी	-9.97525
▁मेन	-9.97605
▁चिकित्सक	-9.9763
▁जनरल	-9.97638
▁जुटी	-9.97735
▁मचा	-9.97784
▁लाश	-9.97793
▁पार्ट	-9.97805
▁बीएस	-9.97825
▁राउंड	-9.97874
▁सीबीआई	-9.97874
▁तुलना	-9.97969
▁आव	-9.98006
▁श्रम	-9.98123
▁माय	-9.98157
▁दीवार	-9.98168
▁डिजिटल	-9.98365
▁कहत	-9.98514
▁दुबे	-9.98613
▁करण	-9.98701
▁आत्महत्या	-9.98858
▁मुद्दा	-9.98859
▁बहु	-9.99036
▁जस्टिस	-9.99106
▁जिलाध्यक्ष	-9.99106
▁मेडल	-9.99111
▁इनकार	-9.99201
▁वोटर	-9.99298
▁लिमिटेड	-9.99354
▁मोर्चा	-9.99354
▁अमन	-9.99355
▁मेला	-9.99409
▁लीक	-9.99412
▁राधा	-9.99491
▁अमृत	-9.99591
▁सामग्री	-9.99603
िस्तान	-9.99606
▁हेमंत	-9.99627
▁ट्रेनिंग	-9.99671
▁कॉन्	-9.99677
पूर्व	-9.99716
▁बांट	-9.99778
▁प्राचार्य	-9.9993
▁बाला	-9.99994
▁शुक्ला	-10
▁विद्या	-10.0009
▁शख्स	-10.001
▁दशक	-10.0011
▁इस्तीफा	-10.0014
▁ट्रस्ट	-10.002
▁जाएं	-10.0032
▁गोरखपुर	-10.0035
पत्र	-10.0041
▁साय	-10.0044
▁चाहे	-10.0047
▁निकलने	-10.0053
▁जबलपुर	-10.0061
▁आर्य	-10.0075
▁44	-10.0085
▁त्योहार	-10.0086
▁ऐलान	-10.0086
▁जनपद	-10.0086
▁कथित	-10.0086
▁आयुष	-10.009
▁साझा	-10.0091
▁लंबी	-10.0096
▁नियमित	-10.0101
▁निकली	-10.0104
▁मेले	-10.0119
▁हड़ताल	-10.0136
▁W	-10.016
ॅ	-10.0162
▁खारिज	-10.0162
▁कैंसर	-10.0162
▁गोयल	-10.0162
▁नियंत्रण	-10.0165
▁फैला	-10.0166
▁कुलदीप	-10.0166
▁शांत	-10.0185
▁छोटा	-10.0187
▁शैल	-10.0189
▁मास्टर	-10.0193
SP	-10.0193
▁रुख	-10.0202
▁प्रशासनिक	-10.0204
▁चाह	-10.0207
▁महतो	-10.0213
▁प्रकरण	-10.0213
िफ्ट	-10.0216
▁बेल	-10.0217
अर्चना	-10.0217
रुण	-10.0223
▁बताए	-10.0231
जनक	-10.0233
▁लीग	-10.0234
▁न्यायाधीश	-10.0238
धिकारी	-10.0244
▁लटक	-10.0248
भूत	-10.0255
▁तेजस्वी	-10.0264
▁बढ़कर	-10.0267
▁आर्ट	-10.0272
्यु	-10.0275
▁पड़ेगा	-10.0275
▁स्टे	-10.0281
त्व	-10.0282
▁2018	-10.0289
▁लापता	-10.029
▁प्रस्तुति	-10.029
▁मोटर	-10.0291
▁शिफ्ट	-10.0297
▁65	-10.0313
▁शब्द	-10.0341
▁अर्पित	-10.035
▁इंद्र	-10.035
दाय	-10.0353
▁विहार	-10.036
▁छात्राओं	-10.0366
▁ओडिशा	-10.0367
▁गुना	-10.0382
▁दिक्कत	-10.0393
▁पोर्टल	-10.0393
▁धूप	-10.0393
▁निपट	-10.0396
▁150	-10.0399
▁सम्	-10.0402
▁फाइल	-10.0404
▁पब्लिक	-10.0419
▁बिल्डिंग	-10.0419
▁विक्रम	-10.0419
▁मतलब	-10.0427
▁रेंज	-10.0429
▁तमा	-10.044
▁मतदाताओं	-10.0455
▁पार्किंग	-10.0464
▁टूर्नामेंट	-10.0471
▁विद्युत	-10.0471
▁संहिता	-10.0471
▁नीरज	-10.0472
▁केरल	-10.0473
सिंघ	-10.0489
▁आक्रोश	-10.0497
▁यूक्रेन	-10.0497
▁हफ्ते	-10.0497
▁पुष्टि	-10.0497
▁ड्रोन	-10.0498
▁कनाडा	-10.0498
▁भरोसा	-10.0498
▁समापन	-10.0498
▁संकट	-10.0498
▁लाइसेंस	-10.0524
▁साजिश	-10.0524
▁जोशी	-10.0527
मैं	-10.0538
र्प	-10.054
▁अंकित	-10.0542
ॐ	-10.055
▁टिप्पणी	-10.055
▁पदाधिकारियों	-10.055
▁पौ	-10.0553
▁तहसीलदार	-10.0554
▁आलम	-10.0563
▁इंजीनियर	-10.0566
▁बीमारी	-10.0575
▁एग्जाम	-10.0577
▁एक्सपर्ट	-10.0577
▁जयंती	-10.0577
▁बीबी	-10.0579
बरेली	-10.0597
▁मैनेजर	-10.0603
▁नृत्य	-10.0603
▁विराट	-10.0603
िलीप	-10.0604
▁जाया	-10.0604
▁39	-10.0608
▁मूल्य	-10.0616
▁सिनेमा	-10.063
▁रखना	-10.0644
▁चौराहे	-10.0656
▁गुर्जर	-10.0656
▁रखें	-10.0659
▁अंग्रेज	-10.0683
▁प्रावधान	-10.0683
▁बढ़ोतरी	-10.0683
▁मैसेज	-10.0683
▁फतेह	-10.0683
99	-10.0692
ैक्ट	-10.07
▁सकें	-10.071
ाधिकार	-10.0711
el	-10.0713
▁मूवी	-10.0715
▁मास	-10.0716
▁फार्म	-10.0716
▁जागरूकता	-10.0724
▁स्मार्ट	-10.0737
▁दौरा	-10.0744
▁सकी	-10.0745
▁बिलासपुर	-10.0764
▁वैज्ञानिक	-10.0764
▁ब्रह्म	-10.0764
▁हिसार	-10.0764
▁थानाध्यक्ष	-10.0764
▁उसको	-10.0765
▁स्‍	-10.0777
▁मंग	-10.0781
कर्मियों	-10.0783
▁पड़ोसी	-10.0785
▁सौंपा	-10.0787
▁रिजर्व	-10.0791
▁कार्यवाही	-10.0791
▁तनाव	-10.0791
▁Ra	-10.0799
▁लव	-10.0811
▁लेंगे	-10.0818
▁शुल्क	-10.0818
▁बच्चा	-10.0818
▁कंगना	-10.0818
▁बाघ	-10.0831
▁हिस्सों	-10.0845
▁अक्षय	-10.0845
▁लिखित	-10.0881
स्‍ट	-10.0881
▁जुड़ा	-10.0895
▁रिजल्ट	-10.09
▁कुशवाह	-10.09
ांश	-10.0902
▁बीमार	-10.0909
ch	-10.0921
अभ्यर्थियों	-10.0927
▁आपूर्ति	-10.0927
▁उपभोक्ता	-10.0927
▁बृज	-10.0927
▁राजद	-10.0931
40	-10.0937
▁जिंदगी	-10.0955
▁नमः	-10.0955
वर्धन	-10.0955
▁47	-10.0972
▁निधन	-10.0982
har	-10.0985
▁सचिन	-10.0989
कुमार	-10.0998
▁शुभारंभ	-10.101
▁छि	-10.1015
▁ताज	-10.1018
▁ब्रेक	-10.1022
and	-10.1022
▁लीटर	-10.1033
▁हैदराबाद	-10.1037
▁विजेता	-10.1038
▁जताया	-10.1038
▁स्कूट	-10.104
▁जुड़	-10.1051
▁डांस	-10.1055
▁दलित	-10.106
▁कॉन्फ्रेंस	-10.1065
▁सेंट्रल	-10.1065
▁ग्रहण	-10.1065
▁सफर	-10.1066
▁ताला	-10.1073
▁डीसी	-10.1074
▁परिवर्तन	-10.1081
▁पंप	-10.1108
▁दुख	-10.1114
▁सदन	-10.1117
ol	-10.1119
▁वैसे	-10.1119
▁आशीर्वाद	-10.1121
▁जुर्माना	-10.1121
▁फांसी	-10.1121
▁इस्लाम	-10.1121
▁कस्ब	-10.1122
▁कारोबारी	-10.1149
▁लाइफ	-10.1149
▁गले	-10.1171
▁उल्लेख	-10.1177
▁स्वतंत्रता	-10.1177
▁लोन	-10.1192
▁गाड़िय	-10.12
▁ग्राहक	-10.1205
▁पर्यटन	-10.1205
▁शाखा	-10.1211
ti	-10.1213
▁मोड़	-10.1221
▁197	-10.1225
▁चलता	-10.1226
▁इलेक्ट्रिक	-10.1234
▁पिछड़	-10.1234
ुअल	-10.1234
भद्र	-10.1239
रूप	-10.1246
िष्क	-10.1246
▁एसआई	-10.1252
ंघ	-10.1252
▁साहब	-10.1255
ya	-10.1258
▁जितेंद्र	-10.1262
▁क्षेत्रीय	-10.1265
▁राख	-10.1265
▁गीता	-10.1272
."	-10.1279
▁सांप	-10.1286
▁चढ़ा	-10.1288
रदार	-10.1298
▁नही	-10.1306
प्ले	-10.1309
बद्ध	-10.1318
▁गेम	-10.1322
▁जागरूक	-10.1332
▁घु	-10.1342
फ्टी	-10.135
▁सद	-10.1354
▁इंजन	-10.1362
▁कितना	-10.1364
▁सीख	-10.1367
▁आधारित	-10.1374
गांव	-10.1376
▁प्रेरित	-10.1376
▁प्रभु	-10.1376
▁भट्ट	-10.1382
▁उधर	-10.1383
▁पालिका	-10.1394
▁खतरा	-10.1404
▁गहन	-10.1409
▁लहर	-10.141
▁नकद	-10.1428
▁सीकर	-10.1429
॥	-10.1434
▁बच्चन	-10.1434
▁बालिका	-10.1446
▁जानें	-10.1449
▁ऐप	-10.1454
▁राजू	-10.1456
▁शास्त्री	-10.1461
▁सोनू	-10.1461
बाग	-10.1482
प्रकाश	-10.1489
▁बुरा	-10.1491
▁कैंडिडेट	-10.1491
▁राजपूत	-10.1491
▁भगव	-10.1498
▁देखें	-10.1509
▁चेहरे	-10.152
▁टाइगर	-10.152
▁अपहरण	-10.152
▁ओपन	-10.1521
▁मुंह	-10.1521
▁उत्पादन	-10.1522
▁ललित	-10.1523
▁मीना	-10.1544
▁वादा	-10.1547
▁चैंपियन	-10.155
▁पौधे	-10.155
▁पाइप	-10.155
▁भोग	-10.1553
▁टीमें	-10.1558
▁आशा	-10.1567
▁41	-10.1577
▁जायसवाल	-10.1579
▁मंजूरी	-10.1579
▁सैकड़ों	-10.1579
िनेश	-10.1601
▁49	-10.1604
बंदी	-10.1605
▁शासकीय	-10.1608
▁चौराहा	-10.1608
▁धूम	-10.1609
▁महाकाल	-10.1616
▁गुट	-10.163
▁ठहर	-10.1634
▁सहमति	-10.1638
▁आपत्ति	-10.1638
▁पैदल	-10.1638
▁बनवा	-10.164
▁डेट	-10.1653
▁बेस्ट	-10.1653
▁हंस	-10.1664
▁तहरीर	-10.1667
▁प्लेटफॉर्म	-10.1667
ृष्टि	-10.1667
▁बजाय	-10.1668
▁हां	-10.1687
▁संपन्न	-10.1697
▁स्वयं	-10.1697
▁किराए	-10.1698
▁मिमी	-10.1712
▁गाली	-10.1713
▁प्रयागराज	-10.1726
▁नवरात्र	-10.1726
▁ताकत	-10.1727
▁मिश्र	-10.1729
et	-10.173
▁निवास	-10.1736
▁बीज	-10.1738
▁फोर्स	-10.1739
11	-10.1743
▁देवेंद्र	-10.1747
▁पाठक	-10.1749
-3	-10.1754
▁दुष्कर्म	-10.1756
▁जिक्र	-10.176
▁रहना	-10.1762
कॉम	-10.1763
▁महज	-10.1771
▁ग्	-10.1781
▁मिट्टी	-10.1786
▁जगदीश	-10.1786
▁ब्लैक	-10.1786
▁सतीश	-10.1787
ir	-10.1792
▁महादेव	-10.1797
▁गली	-10.1803
▁आइए	-10.1805
▁तुम	-10.1805
un	-10.1814
▁रजिस्ट्रेशन	-10.1816
▁अंदाज	-10.1826
▁खिला	-10.1834
▁सदस्यता	-10.1835
▁मेरठ	-10.1846
▁खेड़ा	-10.1846
▁ग्रीन	-10.1854
▁पवार	-10.1858
ायब	-10.1868
▁कनेक्शन	-10.1876
जालंधर	-10.1876
▁रात्रि	-10.1876
▁गिरोह	-10.1906
न्हीं	-10.1907
▁नरेश	-10.1917
रेन्द्र	-10.1917
▁मेघ	-10.1917
▁जिनके	-10.1921
▁उठाए	-10.1931
▁FIR	-10.1937
▁अंसारी	-10.1937
▁हेल्थ	-10.1937
▁भड़क	-10.194
▁नाराजगी	-10.1942
▁ग्राउंड	-10.1963
{	-10.1967
W	-10.1969
▁51	-10.1976
▁विवि	-10.1986
▁लालू	-10.1986
▁फाउंड	-10.1997
▁महाविद्यालय	-10.1997
▁कार्तिक	-10.1997
▁लाठी	-10.1998
▁पात्र	-10.2005
▁बहस	-10.2005
▁पड़ताल	-10.2006
▁हॉल	-10.2021
▁बस्ती	-10.2029
▁प्रतीक	-10.2045
▁स्टूडेंट	-10.2049
ic	-10.2053
ंबर	-10.2056
▁मुहूर्त	-10.2059
▁छाप	-10.2059
▁राजकीय	-10.2059
▁विकल्प	-10.2061
▁56	-10.2063
▁कैमरा	-10.2064
▁खरीदने	-10.2065
▁निर्मल	-10.2067
▁आदित्य	-10.2088
▁श्रीलंका	-10.2089
▁दर्शक	-10.2089
▁बहादुर	-10.209
▁मेट्रो	-10.209
▁प्रगति	-10.209
▁अधिवक्ता	-10.212
▁द्वितीय	-10.212
▁आदर्श	-10.212
ing	-10.2124
ायिक	-10.213
▁43	-10.2138
▁पथ	-10.2139
▁वैश्	-10.2149
▁ऋषि	-10.2151
▁साइकिल	-10.2151
▁बरसात	-10.2152
▁आतंकवाद	-10.2153
▁रंजन	-10.2153
▁रोजाना	-10.2154
J	-10.2155
डिया	-10.2176
30	-10.2177
ma	-10.2181
▁आपराधिक	-10.2182
▁त्रिपाठी	-10.2182
▁पर्यटक	-10.2182
▁हिमाचल	-10.2182
▁टीवी	-10.2205
▁प्रतिभा	-10.2209
▁2017	-10.2214
सिंह	-10.2218
▁मात्रा	-10.2244
▁एएसआई	-10.2245
▁रोहतक	-10.2245
बोध	-10.2252
▁बिल्क	-10.2253
▁क़	-10.2271
▁इमरजेंसी	-10.2276
▁प्रतिक्रिया	-10.2276
▁आंध्र	-10.2276
▁यूनियन	-10.2276
na	-10.2288
▁रिमांड	-10.2308
▁टेंडर	-10.2308
▁नेहरू	-10.231
▁महंत	-10.2331
▁आश्रम	-10.2339
▁जबरदस्त	-10.2339
▁प्राधिकरण	-10.2339
▁थोड़ी	-10.2339
▁भक्ति	-10.2341
▁बेंगलुरु	-10.2371
▁व्यवसाय	-10.2371
▁राणा	-10.2383
▁चित्र	-10.2387
▁कुंड	-10.2389
▁सकेगा	-10.2389
▁बॉर्डर	-10.2402
▁संकेत	-10.2403
▁ठो	-10.2404
▁भाषण	-10.2413
▁हस्त	-10.2426
▁प्रिय	-10.243
▁प्रारंभ	-10.2432
शाली	-10.2434
▁प्रोत्साह	-10.2434
▁शीर्ष	-10.2434
▁मृत्यु	-10.2435
▁खोज	-10.245
▁डेटा	-10.2462
▁रावत	-10.2465
▁नोएडा	-10.2466
▁बैटरी	-10.2467
▁तीर्थ	-10.2469
▁संसदीय	-10.2473
▁मुसलमान	-10.2475
▁संवाद	-10.2475
टेल	-10.2477
le	-10.2478
▁मार्क	-10.248
▁उपाय	-10.2492
ोत्सव	-10.2496
▁आदित्यनाथ	-10.25
▁फंड	-10.2502
▁किताब	-10.2504
▁हमलावर	-10.2521
▁मप्र	-10.2522
▁एशिया	-10.2531
▁अंज	-10.2555
▁इजराइल	-10.2563
▁बिश्नोई	-10.2563
▁विरुद्ध	-10.2563
▁रखकर	-10.2566
▁अनेक	-10.2572
▁निवेशक	-10.258
▁अर्थ	-10.2588
▁गड़बड़	-10.2595
▁रिसर्च	-10.2595
▁महामंत्री	-10.2598
▁सियास	-10.2618
▁मुझ	-10.2623
▁अल्पसंख्यक	-10.2628
▁इवेंट	-10.2628
▁खनन	-10.2631
वाइस	-10.2634
▁एंटी	-10.264
▁रिश्वत	-10.266
▁संसाधन	-10.266
▁जूनियर	-10.2666
▁01	-10.2669
▁शरण	-10.2671
▁उल्लंघन	-10.2693
▁समीप	-10.2694
ion	-10.2705
तलब	-10.271
▁अश्विन	-10.2726
▁इंदिरा	-10.2726
▁जख्मी	-10.2726
▁डिमांड	-10.2726
▁गठित	-10.2726
▁स्नान	-10.2727
▁खाद	-10.2754
▁तमिलनाडु	-10.2759
▁दिव्यांग	-10.2759
▁भय	-10.2759
▁अमृतसर	-10.276
▁अरेस्ट	-10.2761
▁सुरेंद्र	-10.278
▁अति	-10.2783
▁एकादशी	-10.2792
निर्दलीय	-10.2792
▁पूर्णिमा	-10.2792
▁तुलसी	-10.2792
▁आएगी	-10.2799
▁रेस	-10.28
ंत्रित	-10.2822
▁अभियंता	-10.2825
▁पायलट	-10.2825
Y	-10.2825
▁पटवारी	-10.2825
▁कुत्त	-10.2827
▁कैश	-10.2845
▁बीकानेर	-10.2858
▁नर्सिंग	-10.2858
▁पुनर्	-10.286
▁फुल	-10.2878
▁चक्र	-10.2879
▁द्वार	-10.2889
▁धोखाधड़ी	-10.2891
▁चक्कर	-10.2891
▁मिसाइल	-10.2892
▁आयु	-10.2895
▁58	-10.2902
▁मुखिया	-10.2904
ाध्यक्ष	-10.2915
▁रिश्ते	-10.2922
ल्लू	-10.2924
▁पीजी	-10.2925
▁डीजल	-10.2931
▁तस्वीरें	-10.2945
▁सुझाव	-10.2958
▁प्रार्थना	-10.2958
▁सबूत	-10.2958
▁रेव	-10.2962
तः	-10.2967
▁प्राथमिकता	-10.2967
▁शूट	-10.2989
▁फ्लैट	-10.2992
▁स्क्रीन	-10.2992
▁पिटाई	-10.2992
▁अकेले	-10.2995
▁चाचा	-10.2996
▁जिंदा	-10.3011
▁प्रबंधक	-10.3023
▁न्यायिक	-10.3025
▁बाड़मेर	-10.3026
▁शारीर	-10.3026
▁इंच	-10.3032
▁हेम	-10.3043
▁पर्याप्	-10.3055
▁चेन	-10.3057
▁ऐतिहास	-10.306
▁रकम	-10.3062
▁रेखा	-10.3069
▁तोड़कर	-10.3069
ैन्य	-10.307
▁खन्ना	-10.3072
कश्मीर	-10.3072
▁पुलिसकर्मी	-10.3075
▁बिग	-10.3086
▁उपस्थिति	-10.3089
▁कार्यरत	-10.3094
▁लेवल	-10.3096
▁कन्या	-10.3098
▁विधान	-10.3127
▁05	-10.3127
▁प्रदूषण	-10.3128
▁सपोर्ट	-10.3128
▁फूड	-10.3128
▁आधा	-10.3132
▁नाले	-10.3145
दयाल	-10.3156
▁बेटिय	-10.3157
▁छुट्टी	-10.3162
▁सनातन	-10.3162
▁राह	-10.3163
▁शोध	-10.3163
इंग	-10.3164
ट्रिक	-10.3176
▁देगा	-10.3179
li	-10.3191
▁चुरा	-10.3192
▁गुणवत्ता	-10.3196
▁प्रसिद्ध	-10.3196
▁पॉइंट	-10.3196
प्पू	-10.3229
▁अफ्रीका	-10.3231
▁दिव्य	-10.3231
▁आभार	-10.3232
▁मुक्ति	-10.3241
il	-10.3246
▁मेयर	-10.3291
आधिकारिक	-10.33
▁स्मृति	-10.33
▁पीछा	-10.33
▁गिल	-10.3323
▁Re	-10.3327
कुश	-10.3332
▁अभ्यर्थी	-10.3335
▁मोटरसाइकिल	-10.3335
▁सामुद	-10.3335
▁खींच	-10.3335
▁आलोक	-10.3335
▁चावल	-10.3344
▁चांद	-10.3355
▁अल्	-10.3366
▁मात्र	-10.3366
▁ज़्यादा	-10.337
▁मेहता	-10.337
▁ट्रॉफ	-10.337
▁वेस्ट	-10.3374
▁सुशील	-10.3377
▁देगी	-10.3378
▁खतर	-10.3378
▁सुविधाओं	-10.3397
▁ड्रा	-10.34
▁सिलेंडर	-10.3405
▁तेंदु	-10.3409
▁वायु	-10.3427
▁अनंत	-10.343
▁कॉन्स्टेबल	-10.344
▁रेस्क्यू	-10.344
▁सिपाही	-10.344
▁डेंगू	-10.344
▁सेकेंड	-10.3441
ट्ठ	-10.3443
ak	-10.3456
▁मित्र	-10.3456
▁कलेक्ट्र	-10.3476
▁व्यवहार	-10.3476
▁सिक्योरिटी	-10.3476
▁प्रतिदिन	-10.3476
▁सामू	-10.3476
▁तलाक	-10.3476
▁प्रोग्राम	-10.3478
▁स्वरूप	-10.3479
▁लिंक	-10.3485
रेख	-10.3489
▁गये	-10.35
▁इंस्टाग्राम	-10.3511
▁हुसैन	-10.3511
▁प्रवीण	-10.3511
▁कलेक्शन	-10.3511
▁स्पीकर	-10.3512
▁फेल	-10.3516
क्षेत्र	-10.3529
▁हैरान	-10.3536
▁संशोधन	-10.3547
▁महापौर	-10.3547
▁सब्जी	-10.3547
▁सुविधाएं	-10.3558
▁माफी	-10.3559
▁रावण	-10.3562
▁अवॉर्ड	-10.3582
▁जुलूस	-10.3582
▁अंबानी	-10.3582
▁संध्या	-10.3582
▁माध्यमिक	-10.3606
▁दस्त	-10.3613
▁मौजूदगी	-10.3619
▁रतन	-10.362
▁मनोहर	-10.3621
▁ब्रिज	-10.3622
▁अधिकांश	-10.3624
AD	-10.3627
पीएससी	-10.3628
▁जेपी	-10.3629
सराय	-10.3649
▁कमांड	-10.3656
टेक	-10.366
▁गुप्त	-10.3663
शरद	-10.3666
▁आईडी	-10.3684
▁ढूंढ	-10.369
▁पुणे	-10.369
▁शर्त	-10.3691
▁जनजात	-10.3694
▁स्ट्री	-10.37
्लाह	-10.372
मैन	-10.372
▁मुजफ्फरपुर	-10.3726
z	-10.3726
▁उत्तराखंड	-10.3726
ुद्दीन	-10.3726
▁प्रमोद	-10.3727
▁भतीज	-10.3731
▁हराया	-10.3737
▁कुलपति	-10.3739
▁UP	-10.3748
▁नक्सल	-10.3754
▁रघु	-10.3763
▁पिस्टल	-10.3763
▁जिलाधिकारी	-10.3772
▁रिहा	-10.3779
▁धर्मेंद्र	-10.378
▁मार्गदर्शन	-10.3799
▁समर्पित	-10.3799
▁समुद्र	-10.3799
▁पवित्र	-10.3799
▁सीईओ	-10.3799
▁निकाय	-10.3802
▁पड़ोस	-10.3807
▁57	-10.381
▁समाजवाद	-10.3811
▁एमएस	-10.3829
रिक्शा	-10.3836
▁झगड़ा	-10.3836
▁अमिताभ	-10.3836
▁दत्त	-10.3842
▁ढाई	-10.3868
▁परीक्षण	-10.3873
▁आग्रह	-10.3873
▁कृपा	-10.3873
▁लाई	-10.3882
▁शेर	-10.3893
▁196	-10.3897
▁अनिवार्य	-10.391
▁समन्वय	-10.391
▁तबीयत	-10.391
▁गोदाम	-10.391
▁हसीना	-10.391
▁शेष	-10.391
▁कामयाब	-10.3911
▁यूजर्स	-10.3917
▁मनो	-10.3924
▁बीमा	-10.3929
▁इंतजाम	-10.3947
▁भाइयों	-10.3947
▁स्वर्ण	-10.3947
▁जगत	-10.395
▁काशी	-10.3951
▁गर्ग	-10.397
▁एंबुलेंस	-10.3984
▁एसएसपी	-10.3984
id	-10.3989
▁भगत	-10.3999
▁आएगा	-10.4
▁संरक्ष	-10.4002
▁चलेगा	-10.4015
▁हरकत	-10.4023
▁सांस	-10.4033
▁कटौती	-10.4059
▁प्रतिपक्ष	-10.4059
▁इकाई	-10.4059
▁सुनीता	-10.406
वेयर	-10.4061
▁टेबल	-10.4066
▁साक्ष	-10.4078
▁दिग्गज	-10.4096
▁अड्ड	-10.4096
▁ठिकान	-10.4099
▁जनसभा	-10.4102
▁साइंस	-10.4102
▁तैयारियां	-10.4123
▁काउंसिल	-10.4134
▁इच्छा	-10.4134
▁जवाहर	-10.4134
▁सुमित	-10.4135
▁250	-10.415
▁क्रू	-10.4158
▁व्ह	-10.416
घाट	-10.4161
▁अखिल	-10.4169
द्योगिक	-10.4172
▁ब्रांच	-10.4172
▁इंसान	-10.4172
लायंस	-10.4174
▁रैंक	-10.418
▁मनाई	-10.4202
▁पंत	-10.4207
▁ओलिंपिक	-10.421
▁क्षतिग्रस्त	-10.421
▁चालू	-10.421
▁तत्व	-10.4224
▁पूर्णिया	-10.4233
▁सिंगल	-10.4234
▁दादा	-10.4236
▁उदय	-10.4242
▁मथुरा	-10.4248
▁संज्ञान	-10.4248
▁धमका	-10.4248
▁मदन	-10.4253
▁नक्सलियों	-10.4261
▁सीओ	-10.4263
▁ब्लड	-10.4269
▁सेवाएं	-10.4278
डब्ल्यू	-10.4286
▁आह्वान	-10.4286
▁तिरंगा	-10.4286
▁राठौड़	-10.4286
▁पिकअप	-10.4286
▁नाटक	-10.4288
▁तिलक	-10.4288
▁रियल	-10.4288
us	-10.4289
▁अलवर	-10.4302
▁गहरा	-10.4304
▁समस्त	-10.4311
▁78	-10.4315
शंकर	-10.4317
▁डिटेल	-10.4327
▁एडवोकेट	-10.4363
▁गड्ढ	-10.4363
▁कठिन	-10.4363
▁राशिफल	-10.4364
▁सर्च	-10.4371
ानुसार	-10.4372
मूल	-10.438
▁प्रणाली	-10.4402
▁2016	-10.4402
▁टाउन	-10.4402
▁उपकरण	-10.4402
म्भ	-10.4407
▁चर्च	-10.4429
दूसरे	-10.443
▁दफ्तर	-10.4441
▁तृतीय	-10.4441
▁अत्य	-10.4443
▁फिट	-10.4454
▁योग्य	-10.4468
▁बॉडी	-10.448
▁यौन	-10.448
▁साइड	-10.4484
▁अटल	-10.449
▁जाएंगी	-10.4505
▁स्पोर्ट्स	-10.4519
▁माफिया	-10.4519
▁गयी	-10.4521
▁शशि	-10.4524
▁अन्न	-10.4547
▁स्मार्टफोन	-10.4559
▁कविता	-10.4559
▁मर्डर	-10.4559
▁शतक	-10.4561
la	-10.4566
▁आसमान	-10.4568
▁अपमान	-10.4573
▁02	-10.4574
▁पीढ़	-10.4582
▁प्रतिभाग	-10.4584
▁फुट	-10.4596
▁लिये	-10.4602
▁एआई	-10.4635
हिंदुओं	-10.4638
▁प्रॉपर्टी	-10.4638
▁बतौर	-10.4638
▁सपना	-10.4639
▁कपिल	-10.4654
▁गवाह	-10.4658
ऑ	-10.4667
▁अमल	-10.4675
▁धन्यवाद	-10.4678
▁नारेबाजी	-10.4678
▁बेहोश	-10.4678
▁थोड़ा	-10.4678
▁ऑर्डर	-10.4678
▁रीवा	-10.4678
▁प्रबंध	-10.4685
▁पढ़िए	-10.4686
▁राशन	-10.4697
▁आमजन	-10.4706
प्रतिनिधियों	-10.4711
▁प्रेरणा	-10.4718
▁अनुरोध	-10.4718
▁मंजिल	-10.4718
▁शिवसेना	-10.4718
▁बनर्जी	-10.4718
▁जानकार	-10.4723
▁बेहतरीन	-10.4728
▁चौटाला	-10.4758
▁शुद्ध	-10.4758
▁रेड्डी	-10.4758
▁खंगाल	-10.4758
श्री	-10.4769
वर्ती	-10.4778
▁फीचर्स	-10.4798
▁हार्दिक	-10.4798
▁ख़िलाफ	-10.4798
▁चेहरा	-10.4798
▁कमलेश	-10.4805
▁कंटे	-10.4831
▁टेक्नोलॉजी	-10.4839
▁ब्रिगेड	-10.4839
▁बायो	-10.4852
▁इंजीनियरिंग	-10.4855
▁चाय	-10.4879
▁नेटवर्क	-10.4879
▁ब्राह्मण	-10.4879
▁अनुराग	-10.4879
▁सीआई	-10.488
▁छिपा	-10.4887
PS	-10.4887
रक्षित	-10.4911
▁श्रद्धांजलि	-10.492
▁ब्रांड	-10.4921
▁स्कीम	-10.4922
▁ट्रेड	-10.4943
▁चेकिंग	-10.4948
▁बढ़ाया	-10.4949
▁छेड़छाड़	-10.4961
▁झांसी	-10.4961
▁09	-10.4971
छात्राओं	-10.4996
▁कपड़	-10.5002
▁उदाहरण	-10.5002
▁चेन्नई	-10.5002
▁गवर्न	-10.5002
▁बजरंग	-10.5003
▁विनय	-10.5004
ावरण	-10.5004
▁03	-10.5004
▁माधव	-10.5004
▁जहाज	-10.5007
▁गश्त	-10.5021
▁लक्ष्मण	-10.5044
▁लोकेशन	-10.5064
▁चलेगी	-10.5076
▁चुनौतिय	-10.5085
▁तेलंगाना	-10.5085
▁मशहूर	-10.5085
▁एजेंसिय	-10.5085
▁समझौता	-10.5085
▁अरोड़ा	-10.5085
▁हसन	-10.5087
▁टारगेट	-10.5127
▁संभावित	-10.5127
▁सर्टिफिकेट	-10.5127
▁प्रोसेस	-10.5127
▁जानवर	-10.513
▁मनमोह	-10.5136
▁मलिक	-10.5139
▁कंप	-10.5168
▁अर्थव्यवस्था	-10.5169
▁उपाध्याय	-10.5169
▁एजेंट	-10.5169
▁आलोचना	-10.5169
▁हुड्डा	-10.5169
▁मजिस्ट्रेट	-10.5211
▁ब्याज	-10.5212
▁वार्ता	-10.5215
▁सुमन	-10.5237
▁ग्लोबल	-10.5253
▁सैंपल	-10.5253
▁सिंचाई	-10.5253
▁संभल	-10.5253
▁गुलाब	-10.5255
▁स्वीकृति	-10.5265
-25	-10.5291
▁गारंटी	-10.5295
▁सकारात्मक	-10.5295
▁संदेह	-10.5295
▁लिहाज	-10.5299
▁पदस्थ	-10.5314
▁लकड़	-10.5315
▁नितिन	-10.5338
▁कचरा	-10.5338
▁गाड़ियां	-10.5342
▁शुक्ल	-10.5354
▁शिवराज	-10.5364
▁04	-10.5367
मंत्री	-10.5368
▁कैंट	-10.5379
▁गहलोत	-10.5381
▁मैनेजमेंट	-10.5381
▁एडमिशन	-10.5381
▁ड्रेस	-10.5381
▁बघेल	-10.5381
▁एटीएम	-10.5381
▁नकली	-10.5383
▁फेर	-10.5384
▁मासूम	-10.5424
▁फर्स्ट	-10.5428
आईएएस	-10.543
▁06	-10.5434
▁हार्ट	-10.5452
▁आस्था	-10.5467
▁पटाख	-10.5469
फॉर्म	-10.5507
▁निलंबित	-10.551
▁बेरोजगार	-10.551
▁रजिस्टर	-10.551
▁स्थिर	-10.551
▁बहुमत	-10.551
▁इंचार्ज	-10.5511
विंद्र	-10.5513
▁मणिपुर	-10.5515
घात	-10.5529
▁क्विंटल	-10.5553
▁महात्मा	-10.5553
▁गर्भ	-10.5553
▁निरस्त	-10.5554
▁दरबार	-10.5559
▁गेहूं	-10.5597
▁मुआवजा	-10.5597
▁ज़रूर	-10.5597
▁फील्ड	-10.5597
ul	-10.5603
▁वीरेंद्र	-10.5612
▁वार्षिक	-10.5641
▁ठाकरे	-10.5641
▁सरस्वती	-10.5641
भारत	-10.5641
▁मवेश	-10.5641
▁त्याग	-10.5642
▁अभय	-10.5643
▁अभियुक्त	-10.5643
▁उमर	-10.5656
रोवर	-10.5671
▁चिराग	-10.5685
▁ड्रग	-10.5685
▁रामलला	-10.5686
▁बुझा	-10.5689
▁कायम	-10.5694
▁इनाम	-10.5724
नारायण	-10.5729
▁एकजुट	-10.5729
▁गुरुद्वार	-10.5729
▁दावेदार	-10.5729
▁प्लास्टिक	-10.5729
▁मरम्मत	-10.5729
▁2015	-10.5729
▁ट्रांस	-10.5729
▁मायके	-10.5735
▁07	-10.5741
पहिया	-10.5755
▁डिलीवरी	-10.5774
▁साहित्य	-10.5774
▁व्यास	-10.5774
▁शास्त्र	-10.5776
▁उतन	-10.5793
▁इजरायल	-10.5818
▁दरभंगा	-10.5818
▁मुठभेड़	-10.5818
▁सराहना	-10.5818
▁कार्यशाला	-10.5818
▁चालान	-10.5819
▁एडिशन	-10.5821
▁पेरि	-10.5821
▁पार्टिय	-10.5824
▁डबल	-10.584
▁रिटायर	-10.5861
▁अटैक	-10.5863
▁समस्तीपुर	-10.5863
▁शीतल	-10.5863
▁सिद्धार्थ	-10.5865
▁प्लेयर	-10.5872
▁सीधा	-10.5896
▁कन्	-10.5905
▁फोकस	-10.5908
▁धनबाद	-10.5908
▁सक्षम	-10.5909
▁अवगत	-10.5912
▁तारीफ	-10.5917
▁स्वस्थ	-10.5925
▁मुनि	-10.5925
▁ईश्वर	-10.5953
▁विरासत	-10.5953
व्यक्तिगत	-10.5955
▁रोमां	-10.5961
▁गंवा	-10.5965
▁ट्रेलर	-10.5999
▁झटका	-10.5999
▁भागलपुर	-10.5999
▁बोतल	-10.5999
▁टुकड़	-10.5999
▁निकट	-10.6002
▁एमएम	-10.602
▁प्रशिक्ष	-10.6038
▁ओलंपि	-10.6044
▁सफेद	-10.6044
ोत्तर	-10.6045
▁सर्जरी	-10.6045
▁पंडाल	-10.6045
जीलैंड	-10.6062
▁वाटर	-10.6068
▁विशिष्ट	-10.609
▁अभिनेता	-10.6091
▁निराश	-10.6094
ल्ली	-10.6107
तोष	-10.6125
▁अध्ययन	-10.6136
▁बंटवार	-10.6136
▁गांजा	-10.6137
▁फंदे	-10.6137
▁सिंधिया	-10.6145
▁कागज	-10.6159
ोदय	-10.6179
▁पुजारी	-10.6183
गलौज	-10.6183
▁शिखर	-10.6183
रजत	-10.6187
▁बारात	-10.62
▁खैर	-10.6209
ल्ले	-10.6225
▁श्रद्धा	-10.6229
▁अंबेडकर	-10.6229
▁शुभकामनाएं	-10.6229
▁चिह्न	-10.6229
▁अनुपम	-10.6235
▁चमक	-10.6241
▁वृद्ध	-10.6259
▁अनुसंधान	-10.6276
▁एक्सीडेंट	-10.6276
▁गाजियाबाद	-10.6276
▁पृथ्वी	-10.6276
▁रतलाम	-10.6276
▁महंगाई	-10.6276
▁रिटर्न	-10.6276
▁मुफ्त	-10.6276
▁बराबर	-10.6276
▁अंचल	-10.6277
▁जैसलमेर	-10.6323
▁स्नातक	-10.6323
▁मुकदमे	-10.6323
▁भरतपुर	-10.6323
▁चैनल	-10.6324
▁अनाज	-10.6325
गणना	-10.633
▁उद्	-10.633
▁प्रत्याशियों	-10.637
▁शैक्षणिक	-10.637
▁श्रेय	-10.637
▁शॉर्ट	-10.637
▁विक्की	-10.637
▁स्पीड	-10.6371
▁अहमदाबाद	-10.6372
▁सिंध	-10.6376
▁सितार	-10.6379
▁जापान	-10.6381
▁प्रांत	-10.6383
▁अनुसूचित	-10.6417
▁इमरान	-10.6417
▁कार्यकारिणी	-10.6417
▁भागीदारी	-10.6417
▁जश्न	-10.6418
▁शिंदे	-10.6418
▁लाइव	-10.6418
▁दहेज	-10.6418
▁बचपन	-10.6418
▁संतुल	-10.6427
▁पेयजल	-10.6465
▁पूनम	-10.6466
जगह	-10.6472
वेदन	-10.648
▁ड्राइव	-10.6483
CB	-10.6493
▁अटक	-10.6506
▁अभिभावक	-10.6513
▁संवेदनशील	-10.6513
▁गूगल	-10.6513
▁जायजा	-10.6513
▁डीसीपी	-10.6523
▁सिंगर	-10.6525
up	-10.6527
▁आसार	-10.6556
▁अश्लील	-10.6561
▁चंद्रशेखर	-10.6561
▁राठौर	-10.6561
▁सुर्खिय	-10.6561
▁पारंपर	-10.6561
▁ओबीसी	-10.6561
▁डेब्यू	-10.6561
▁उमस	-10.6562
▁रत्न	-10.6565
▁गोलियां	-10.6571
vi	-10.6583
लेखक	-10.6593
▁विसर्ज	-10.6609
▁वस्तु	-10.661
▁मौर्य	-10.6612
शस्त्र	-10.6626
▁आधुनिक	-10.6658
▁मकसद	-10.6658
▁हत्याकांड	-10.6658
▁पुस्तक	-10.6658
▁रिटायर्ड	-10.666
▁कुचल	-10.6662
▁रुपय	-10.67
▁दिवाली	-10.6707
▁रॉयल	-10.6708
▁कैस	-10.6734
दृश्य	-10.6756
▁IPL	-10.6756
▁दिमाग	-10.6756
▁आबकारी	-10.6756
▁ट्रायल	-10.6756
▁पैनल	-10.676
▁निधि	-10.6767
▁सेकंड	-10.6772
▁ऐश्वर्या	-10.6805
▁फ्रांस	-10.6805
▁झांसा	-10.6805
▁आजमगढ़	-10.6805
डीजीपी	-10.6809
▁गुहार	-10.6822
▁सुल्तान	-10.6854
▁घटनाक्रम	-10.6855
▁अनूप	-10.6855
▁कांस्टेबल	-10.6904
▁रक्तदा	-10.6904
▁समझौते	-10.6904
छिंदवाड़ा	-10.6904
▁दबिश	-10.6904
▁बाधित	-10.6904
▁पार्टनर	-10.6907
▁ED	-10.691
आउट	-10.6915
▁भूख	-10.6919
▁दुश्मन	-10.6954
▁सशक्त	-10.6954
▁उपायुक्त	-10.6954
▁अतुल	-10.6955
▁दुर्	-10.6959
▁दहशत	-10.7004
Q	-10.7004
▁ज्वेलर	-10.7004
▁निर्भर	-10.7009
▁सतर्क	-10.7009
▁कन्हैया	-10.7055
▁चोपड़ा	-10.7055
▁जलस्तर	-10.7055
▁मुद्रा	-10.7055
▁गैंगस्टर	-10.7056
▁तोमर	-10.7067
▁आईपीएल	-10.7106
▁यूरोप	-10.7106
द्वीप	-10.7106
▁मालूम	-10.7106
भूमि	-10.7119
▁कश्यप	-10.7157
▁हड़कंप	-10.7157
▁भागवत	-10.7157
▁बकाया	-10.7157
▁चौंका	-10.7158
▁साक्ष्य	-10.7164
्होंने	-10.7204
▁अंबाला	-10.7208
▁इंस्टीट्यू	-10.7208
▁शोभायात्रा	-10.7208
▁ब्यूरो	-10.7208
▁फ्रंट	-10.7208
▁दौसा	-10.7208
हिन्दू	-10.721
▁मराठ	-10.7212
▁यूजर	-10.725
▁तोड़फोड़	-10.726
▁विस्फोट	-10.726
▁सिलसिला	-10.726
▁हॉस्टल	-10.726
▁नामजद	-10.726
▁नज़र	-10.7261
ंजलि	-10.7294
▁इलेक्ट्रॉनिक	-10.7311
▁प्राचीन	-10.7311
▁मुखबिर	-10.7311
▁सावधान	-10.7311
▁इमारत	-10.7311
▁बस्तर	-10.7312
लोहे	-10.7327
▁निष्पक्ष	-10.7363
अफगानिस्तान	-10.7363
▁Election	-10.7363
▁इकट्ठा	-10.7363
▁बेगूसराय	-10.7363
▁रेस्टोरेंट	-10.7363
▁मालदीव	-10.7363
▁जन्मदिन	-10.7363
▁प्रतिनिधित्व	-10.7365
▁उमेश	-10.7374
चेंज	-10.7397
▁परिस्थितिय	-10.7399
▁दुल्हन	-10.7416
▁फरीदाबाद	-10.7416
▁शाहरुख	-10.7416
▁इन्वेस्ट	-10.7416
फ्रेंड	-10.7416
ब्रिटेन	-10.7416
▁डिफें	-10.7422
▁Lok	-10.7468
▁दिलचस्प	-10.7468
▁बर्बाद	-10.7468
▁हस्ताक्षर	-10.7468
▁डिवीजन	-10.7468
▁अंधेर	-10.7468
▁भोजपुर	-10.7468
▁संग्रह	-10.7469
▁लेपर्ड	-10.7469
▁क्रेडि	-10.7471
▁युग	-10.7472
चार्ज	-10.7495
▁मद्देनज	-10.7521
▁यमुना	-10.7521
▁एडवांस	-10.7521
▁दहन	-10.7524
▁गिनत	-10.753
मिली	-10.7547
▁उत्पीड़न	-10.7575
▁छानबीन	-10.7575
▁भ्रमण	-10.7575
▁रजिस्ट्री	-10.7575
▁ईवीएम	-10.7575
▁कंपनियां	-10.7575
▁कांवड़	-10.7575
▁मामूली	-10.7575
▁खतरनाक	-10.7575
▁पॉलिस	-10.7575
▁धक्का	-10.7575
▁जर्जर	-10.7575
▁भिवानी	-10.7577
▁जर्मन	-10.7579
▁फ्लोर	-10.7581
▁अकेल	-10.7596
▁अब्दुल	-10.76
▁निर्माता	-10.7628
▁निराक	-10.7632
▁यज्ञ	-10.7632
▁सीरिय	-10.7645
+	-10.7682
्बुलेंस	-10.7682
▁एजुकेशन	-10.7682
▁ट्रांसपोर्ट	-10.7682
▁लोकप्रिय	-10.7682
▁एएसपी	-10.7682
▁उद्यम	-10.7682
▁नालंदा	-10.7682
▁डैम	-10.7682
▁हरीश	-10.7686
ुख्ता	-10.772
बुद्ध	-10.7727
श्रेष्ठ	-10.7736
▁जगन्नाथ	-10.7736
▁शौचालय	-10.7736
▁सिकंदर	-10.7736
▁लॉरेंस	-10.7736
▁मांझी	-10.7736
▁किलोग्राम	-10.7738
▁जयशंकर	-10.7738
ेतु	-10.7742
संस्थापक	-10.7766
▁एसयूवी	-10.779
▁लेबनान	-10.779
▁अवकाश	-10.779
▁फाजिल	-10.779
▁सूचित	-10.779
ुशासन	-10.7791
निकासी	-10.7825
▁नियंत्र	-10.7843
▁ध्रुव	-10.7845
▁रेवाड़ी	-10.7845
CBI	-10.7848
▁कारतूस	-10.79
▁प्रज्वल	-10.79
▁विश्वकर्मा	-10.79
▁उजागर	-10.79
▁लुटेर	-10.79
▁कोषाध्यक्ष	-10.79
▁प्रीमिय	-10.79
▁झुलस	-10.7901
▁नगद	-10.791
भाषा	-10.7921
▁CCTV	-10.7955
▁असिस्टेंट	-10.7955
▁ट्वीट	-10.7955
▁दृष्टिकोण	-10.7955
▁निर्यात	-10.7955
▁आईआईटी	-10.7955
▁सर्जन	-10.7956
▁बंसल	-10.7956
▁जिम्	-10.7964
▁बॉन्ड	-10.8011
▁2013	-10.8011
▁प्लॉट	-10.8011
▁जानलेवा	-10.8011
▁तुम्हार	-10.8011
▁कल्पना	-10.8011
नैतिक	-10.8011
▁जॉब	-10.8011
▁श्रव	-10.8011
▁सुधी	-10.8012
▁कोरोना	-10.8014
▁विधेयक	-10.8066
▁ऋषभ	-10.8066
▁कैप्ट	-10.8067
▁तथ्य	-10.8067
▁पट्टी	-10.8067
▁घबरा	-10.8067
व्यवस्थ	-10.8122
प्राकृतिक	-10.8123
▁Sabha	-10.8123
▁एसएचओ	-10.8123
▁बलरामपुर	-10.8123
▁राहगीर	-10.8123
▁सर्किल	-10.8123
▁शिकायतकर्ता	-10.8123
▁कुर्सी	-10.8123
▁सीधी	-10.8124
कर्मी	-10.8128
जीएसटी	-10.8129
▁ऑप्शन	-10.8179
▁विज्ञापन	-10.8179
▁वैष्णव	-10.8179
▁सोलंकी	-10.8179
▁परिचय	-10.8179
▁सुराग	-10.818
▁भीलवाड़ा	-10.818
▁सीमित	-10.818
▁शारद	-10.8194
ll	-10.8217
▁उत्कृष्ट	-10.8236
▁माधोपुर	-10.8236
▁बक्सर	-10.8236
▁आशु	-10.8237
क्षेप	-10.8238
▁वॉर	-10.8238
अमेठी	-10.8293
▁कैटेगरी	-10.8293
▁मित्तल	-10.8293
▁शीघ्र	-10.8293
▁सोसाइटी	-10.8293
▁एसडीओ	-10.8293
▁पार्वती	-10.8293
▁स्पॉट	-10.8293
▁जदयू	-10.8293
▁सऊद	-10.8295
▁संस्कृत	-10.8297
टेंशन	-10.8298
ाणु	-10.83
संचार	-10.8302
▁झलक	-10.8306
बसपा	-10.8333
▁वंचित	-10.8351
▁निर्मित	-10.8351
▁प्रिंस	-10.8351
▁कुंभ	-10.8351
▁शिवपुरी	-10.8352
▁अमीर	-10.8358
मुख	-10.8381
▁फाइनेंस	-10.8408
▁मशक्कत	-10.8408
▁आवंटित	-10.8408
▁सर्किट	-10.8408
▁अवस्था	-10.8408
▁उन्‍ह	-10.8408
▁जंक्शन	-10.8408
▁बरकरार	-10.8408
▁शातिर	-10.8408
▁डिपार्टम	-10.8421
▁वक्	-10.8434
स्ट्रक्चर	-10.8466
▁IND	-10.8466
▁खूबसूरत	-10.8466
▁दुबई	-10.8467
▁शोरूम	-10.8467
▁किशनगंज	-10.8467
▁अकाली	-10.8467
▁आंधी	-10.8468
ागमन	-10.8469
▁शरीफ	-10.848
▁पत्त	-10.8481
ोत्तम	-10.8525
▁वितरित	-10.8525
▁दीक्षित	-10.8525
आरजेडी	-10.8526
प्रारंभिक	-10.8528
▁बिछा	-10.853
रामायण	-10.8531
▁सलाम	-10.855
▁कैमर	-10.8582
▁गर्भवती	-10.8584
ओपीडी	-10.8587
▁बिखर	-10.8592
▁फ़ैसल	-10.8643
▁लड्डू	-10.8643
▁सस्पेंड	-10.8643
▁बुनियाद	-10.8643
▁परफॉर्मेंस	-10.8643
▁चेतन	-10.8643
▁मल्टी	-10.8644
▁इस्तीफ	-10.8694
▁2012	-10.8703
▁अफवाह	-10.8703
▁आवंटन	-10.8703
▁ट्रेंड	-10.8703
▁एकेडम	-10.8714
▁ससुर	-10.876
▁काउंसलिंग	-10.8762
▁AAP	-10.8762
▁अपलोड	-10.8762
▁मिठाई	-10.8762
▁अंतरिक्ष	-10.8762
▁शॉप	-10.8763
▁दोषियों	-10.8763
▁बच्चिय	-10.8766
विश्वास	-10.8794
▁अभ्यास	-10.8823
▁तूफान	-10.8823
▁इलेक्ट	-10.8823
▁भिलाई	-10.8823
सत्यापन	-10.8823
▁झील	-10.8828
▁दर्शात	-10.8883
▁शिल्प	-10.8883
▁अंशु	-10.8883
▁गृहमंत्री	-10.8885
समृद्धि	-10.8911
▁उपमुख्यमंत्री	-10.8944
▁चतुर्थी	-10.8944
▁क्रॉस	-10.8944
▁हल्के	-10.8944
आरपीएफ	-10.8945
▁स्टील	-10.8949
▁मणि	-10.8974
▁स्वीकृत	-10.8988
▁सॉफ्ट	-10.9006
▁मुरैना	-10.9006
▁कंप्यूटर	-10.9006
▁प्रोडक्ट	-10.9006
बिलिटी	-10.9006
▁दशहरा	-10.9006
▁रंजीत	-10.9006
▁प्रिंट	-10.9006
्रेशर	-10.9041
▁कृति	-10.9046
चित्तौड़गढ़	-10.9067
▁जमुई	-10.9067
▁सक्सेना	-10.9067
▁थप्पड़	-10.9067
▁सेवानिवृत्त	-10.9067
▁वृक्ष	-10.9067
▁फायदे	-10.9067
▁सम्राट	-10.9067
▁रिंकू	-10.9067
▁मालवीय	-10.9067
▁वंदे	-10.907
▁हुड्	-10.9128
▁यूट्यूब	-10.9129
▁शेड्यूल	-10.9129
▁हिम्मत	-10.9129
▁क्रांति	-10.9129
▁हिमांश	-10.9129
▁कठोर	-10.9129
ऊंगा	-10.913
▁टंकी	-10.913
▁देहात	-10.913
▁कबूल	-10.9135
▁डोनाल्	-10.9136
▁Khan	-10.9192
▁नोडल	-10.9192
NDA	-10.9192
▁ढांच	-10.9192
▁कारावास	-10.9193
मोहन	-10.9214
पढ़ें	-10.9229
▁अमावस्या	-10.9255
▁सेंसेक्स	-10.9255
▁परिचित	-10.9255
▁उमड़	-10.9271
▁गलिय	-10.9316
▁वेरिएंट	-10.9318
▁जहरील	-10.9318
एसीबी	-10.9338
▁निरंतर	-10.9382
▁प्रकृति	-10.9382
▁प्लेटफार्म	-10.9382
▁राघव	-10.9382
राधिका	-10.9383
टेक्निक	-10.9385
▁अखाड़	-10.9386
▁बुलडोजर	-10.9446
▁हेक्टेय	-10.9446
▁सर्वेक्षण	-10.9446
▁बिंदु	-10.9446
▁फॉलो	-10.9446
▁स्रोत	-10.9446
▁मुराद	-10.9446
▁अगुवा	-10.9454
फानन	-10.9498
▁न्यायमूर्ति	-10.951
▁पासपोर्ट	-10.951
▁समाजसेवी	-10.951
▁हज़ार	-10.951
▁प्राइम	-10.951
▁मयंक	-10.951
▁यंत्र	-10.9511
▁फौज	-10.9515
▁गतिविधि	-10.9534
▁पश्चात	-10.9575
▁पॉलिटिक	-10.9575
▁दूल्ह	-10.9575
▁पथराव	-10.9575
▁उत्पन्न	-10.9575
▁विदाई	-10.9576
▁औरंगाबाद	-10.9576
▁India	-10.9641
▁म्यूजिक	-10.9641
▁विजयवर्गीय	-10.9641
▁रिकार्ड	-10.9641
▁आवाजाही	-10.9641
▁जीआरपी	-10.9641
▁दरोगा	-10.9641
▁जोखिम	-10.9641
▁नौकरिय	-10.9644
▁झूल	-10.9655
गुरु	-10.9683
▁पाठ्यक्रम	-10.9706
Z	-10.9706
▁अविनाश	-10.9706
▁निषाद	-10.9706
▁क़रीब	-10.9707
▁प्रसन्न	-10.9707
▁तख्त	-10.9707
▁प्रोडक्श	-10.9708
▁जनप्रतिनिधि	-10.9724
शुद	-10.9724
▁फेस्टिव	-10.9773
▁सर्वाधिक	-10.9773
▁सिद्दीकी	-10.9773
▁सरगुजा	-10.9773
▁अवतार	-10.9773
▁सैलरी	-10.9773
▁रिक्त	-10.9773
▁तिराह	-10.9774
▁वाल्मीक	-10.9839
▁हिंदुस्तान	-10.9839
▁इलाका	-10.9839
▁वस्त्र	-10.984
▁लंदन	-10.984
▁कुशल	-10.9841
▁एयरलाइ	-10.9885
भिषेक	-10.9893
▁क्वार्टर	-10.9906
▁सिल्वर	-10.9906
▁अभिनेत्री	-10.9906
▁भार्गव	-10.9906
▁चतुर्	-10.991
▁भिजवा	-10.9912
▁फूट	-10.9915
▁नमाज	-10.9946
▁झामुमो	-10.9974
▁बुमराह	-10.9974
▁याचिकाकर्ता	-10.9974
▁सिफारिश	-10.9974
▁मिलीमीटर	-10.9974
▁मछली	-10.9974
▁खिताब	-10.9974
▁एजेंड	-10.9974
▁नवादा	-10.9975
ोलॉजी	-10.9977
▁कामकाज	-10.9977
छात्राएं	-11.0001
▁इकलौत	-11.0042
▁फोगाट	-11.0042
▁सेक्रेटरी	-11.0042
▁हाजिर	-11.0042
▁निखिल	-11.0042
▁कीर्तन	-11.0042
▁अभियोज	-11.0042
▁रुचि	-11.0044
▁कर्तव्य	-11.0111
▁चैलेंज	-11.0111
▁थिएटर	-11.0111
▁श्रीगंगानगर	-11.0111
▁अत्याचार	-11.0111
▁लघु	-11.0111
▁अभाव	-11.0111
▁कस्टम	-11.0111
▁मेकर्स	-11.0111
ट्रॉली	-11.0128
सफाई	-11.016
▁एनकाउंटर	-11.018
▁क़ानून	-11.018
▁प्रैक्टिस	-11.018
▁फेसबुक	-11.018
-2024	-11.018
▁चूंकि	-11.018
▁सत्संग	-11.018
सीएचसी	-11.0185
▁इराद	-11.0185
▁आयुर्वेद	-11.0249
▁एग्जि	-11.0249
▁जेवरात	-11.0249
▁सर्वोच्च	-11.0249
▁ऑडियो	-11.0249
▁रवींद्र	-11.0249
▁राजमार्ग	-11.0249
▁ईमानदार	-11.0249
▁पुतिन	-11.0249
▁भंवर	-11.0249
▁शौक	-11.025
▁व्हील	-11.0251
बीएसई	-11.0297
▁अधिग्रह	-11.0319
▁इकोनॉम	-11.0319
▁कॉर्पोरे	-11.0319
▁निशुल्क	-11.0319
▁सिसोदिया	-11.0319
▁नर्मदापुरम	-11.0319
▁जायेगा	-11.0319
्वालिटी	-11.032
प्रदर्शनकारियों	-11.0326
डेयरी	-11.0364
वृत्ति	-11.0389
▁जन्माष्टमी	-11.0389
▁जॉइन	-11.0389
▁शिक्षिका	-11.0389
▁खनिज	-11.039
टेनेंस	-11.039
▁बुलेट	-11.039
▁नायड	-11.039
▁फिसल	-11.0392
▁गोस्वामी	-11.046
▁जमशेदपुर	-11.046
▁जलभराव	-11.046
▁डिब्ब	-11.046
▁भारद्वाज	-11.046
▁सेमीफाइनल	-11.046
▁सौभाग्य	-11.046
▁स्ट्राइक	-11.046
▁कटिहार	-11.046
▁शिशु	-11.046
ल्फी	-11.0463
कल्प	-11.0471
▁इलाहाबाद	-11.0532
▁नारनौ	-11.0532
▁वाजपेयी	-11.0532
▁हृदय	-11.0532
▁IAS	-11.0532
▁पैलेस	-11.0532
▁गूंज	-11.0532
▁ट्रांसफार्मर	-11.0604
▁इशारा	-11.0604
▁पुण्य	-11.0604
▁रनौत	-11.0604
▁पठान	-11.0604
▁कीर्ति	-11.0604
साहेब	-11.0629
स्‍त	-11.0644
ार्टमेंट	-11.0661
▁आवेदक	-11.0676
▁तत्वावधान	-11.0676
▁प्रदर्शित	-11.0676
▁भेदभाव	-11.0676
▁सिलसिले	-11.0676
▁सुपरस्टार	-11.0676
▁जेडीयू	-11.0676
▁दबोच	-11.0676
▁झगड़े	-11.0676
▁ड्रॉ	-11.0676
▁व्यस्त	-11.0676
▁पंचांग	-11.0676
▁आंगनबाड़ी	-11.0749
▁निस्तारण	-11.0749
▁पौधारोपण	-11.0749
▁इलेक्शन	-11.0749
▁नर्मदा	-11.0749
▁शॉट	-11.075
▁टॉस	-11.0755
वश्य	-11.0778
;	-11.0807
▁दूसर	-11.0815
▁बिट्टू	-11.0823
▁बैतूल	-11.0823
▁मॉनिटरिंग	-11.0823
▁खिड़क	-11.0823
▁प्रौद्योगिक	-11.0823
▁प्लाजा	-11.0823
▁कागजात	-11.0823
▁जावेद	-11.0823
▁दानापुर	-11.0823
▁उलझ	-11.0826
▁बीमारिय	-11.084
▁मुहै	-11.0886
झुंझुनूं	-11.0897
▁महिंद्रा	-11.0897
▁सीएमएचओ	-11.0897
▁इजाफा	-11.0897
▁बर्दाश्	-11.0897
▁वैभव	-11.0897
▁मेहमान	-11.0897
आवासीय	-11.0929
बठिंडा	-11.0971
संवैधानिक	-11.0971
▁दायित्व	-11.0971
▁परिचालन	-11.0971
▁फुटबॉल	-11.0971
▁भैंस	-11.0971
▁कॉलोनिय	-11.0971
▁चचेर	-11.0971
▁बैटिंग	-11.0972
▁दादरी	-11.0972
2010	-11.0976
▁ड्रि	-11.0977
▁बॉस	-11.0981
▁निर्वाच	-11.0998
रामलीला	-11.1012
▁सिद्धांत	-11.1047
दौलत	-11.1047
▁विवरण	-11.1047
▁दांव	-11.1047
▁बिल्डर	-11.1048
▁फरियाद	-11.1048
▁एसडीपीओ	-11.1122
▁द्विवेदी	-11.1122
▁बलात्कार	-11.1122
▁सोसायटी	-11.1122
▁आयोजक	-11.1122
_	-11.1669
^	-11.3517
०	-11.4749
q	-11.5196
*	-11.5906
!	-11.7267
@	-11.8402
ऱ	-11.8886
ङ	-11.9748
ऐ	-12.1868
=	-12.1958
&	-12.2417
ऽ	-12.3149
•	-12.4217
#	-12.4502
ञ	-12.5099
া	-12.6068
ে	-12.9231
র	-12.9707
🔴	-12.9707
]	-13.0733
ळ	-13.1289
ऩ	-13.1877
️	-13.2502
🌟	-13.2502
॰	-13.3169
ক	-13.3883
२	-13.5486
্	-13.6395
ి	-13.7395
ন	-13.7395
ি	-13.7395
క	-13.7395
ত	-13.8506
్	-13.8506
×	-13.8506
ా	-13.8506
ు	-13.8506
ల	-13.9756
औ	-14.1095
ম	-14.1184
●	-14.1184
ব	-14.1185
>	-14.2851
३	-14.2851
ট	-14.2851
ো	-14.2851
ర	-14.2851
४	-14.2851
প	-14.4851
१	-14.4851
ু	-14.4851
ল	-14.4851
ం	-14.4851
గ	-14.7351
~	-14.7351
९	-14.7351
চ	-14.7351
য	-14.7351
ষ	-14.7351
ట	-14.7351
ీ	-14.7351
♈	-14.7351
স	-14.7351
స	-15.0684
ॊ	-15.0684
ড	-15.0684
ধ	-15.0684
న	-15.0684
⏱	-15.0684
♍	-15.0684
⚠	-15.0684
🪐	-15.0684
দ	-15.0685
త	-15.0685
£	-15.5684
ॆ	-15.5684
আ	-15.5684
ও	-15.5684
খ	-15.5684
়	-15.5684
ী	-15.5684
డ	-15.5684
శ	-15.5684
ూ	-15.5684
⁄	-15.5684
☀	-15.5684
♏	-15.5684
♐	-15.5684
♑	-15.5684
♒	-15.5684
🌙	-15.5684
🔵	-15.5684
ঁ	-15.5685
ె	-15.5685
(	-16.5602
♓	-16.5662
ప	-16.5663
ই	-16.5664
ॠ	-16.5665
🇳	-16.5666
🇮	-16.5667
⭐	-16.5668
వ	-16.5669
ছ	-16.567
এ	-16.5671
[	-16.5672
🕐	-16.5673
చ	-16.5674
জ	-16.5675
­	-16.5676
\	-16.5677
⁠	-16.5678
➤	-16.5679
̈	-16.568
$	-16.5681
}	-16.5682
°	-16.5683
ణ	-16.5684
অ	-16.5684
ఇ	-16.5684
₹	-16.5684
·	-16.5684
ï	-16.5684
ऍ	-16.5684
॑	-16.5684
५	-16.5684
६	-16.5684
८	-16.5684
ঘ	-16.5684
ঠ	-16.5684
ণ	-16.5684
ઢ	-16.5684
ఛ	-16.5684
జ	-16.5684
థ	-16.5684
ద	-16.5684
ఫ	-16.5684
బ	-16.5684
భ	-16.5684
ే	-16.5684
ో	-16.5684
‛	-16.5684
€	-16.5684
⏩	-16.5684
▪	-16.5684
○	-16.5684
♉	-16.5684
♊	-16.5684
♋	-16.5684
♌	-16.5684
♦	-16.5684
⚫	-16.5684
❗	-16.5684
	-16.5684
🌅	-16.5684
🎉	-16.5684
🏅	-16.5684
🏹	-16.5684
🐉	-16.5684
💫	-16.5684
🗓	-16.5684
😉	-16.5684
😎	-16.5684
😜	-16.5684
😸	-16.5684
🤩	-16.5684
🦌	-16.5684
🧭	-16.5684
ొ	-16.5685
ऋ	-16.5685
❓	-16.5685
🤔	-16.5685
