[UNK]	0
[CLS]	1
[SEP]	2
[PAD]	3
[MASK]	4
!	5
"	6
#	7
$	8
%	9
&	10
'	11
(	12
)	13
*	14
+	15
,	16
-	17
.	18
/	19
0	20
1	21
2	22
3	23
4	24
5	25
6	26
7	27
8	28
9	29
:	30
;	31
=	32
>	33
?	34
@	35
[	36
\	37
]	38
^	39
_	40
a	41
b	42
c	43
d	44
e	45
f	46
g	47
h	48
i	49
j	50
k	51
l	52
m	53
n	54
o	55
p	56
q	57
r	58
s	59
t	60
u	61
v	62
w	63
x	64
y	65
z	66
{	67
}	68
~	69
£	70
­	71
°	72
·	73
×	74
ï	75
̈	76
ँ	77
ं	78
ः	79
अ	80
आ	81
इ	82
ई	83
उ	84
ऊ	85
ऋ	86
ऍ	87
ए	88
ऐ	89
ऑ	90
ओ	91
औ	92
क	93
ख	94
ग	95
घ	96
ङ	97
च	98
छ	99
ज	100
झ	101
ञ	102
ट	103
ठ	104
ड	105
ढ	106
ण	107
त	108
थ	109
द	110
ध	111
न	112
ऩ	113
प	114
फ	115
ब	116
भ	117
म	118
य	119
र	120
ऱ	121
ल	122
ळ	123
व	124
श	125
ष	126
स	127
ह	128
़	129
ऽ	130
ा	131
ि	132
ी	133
ु	134
ू	135
ृ	136
ॅ	137
ॆ	138
े	139
ै	140
ॉ	141
ॊ	142
ो	143
ौ	144
्	145
ॐ	146
॑	147
ॠ	148
।	149
॥	150
०	151
१	152
२	153
३	154
४	155
५	156
६	157
८	158
९	159
॰	160
ঁ	161
অ	162
আ	163
ই	164
এ	165
ও	166
ক	167
খ	168
ঘ	169
চ	170
ছ	171
জ	172
ট	173
ঠ	174
ড	175
ণ	176
ত	177
দ	178
ধ	179
ন	180
প	181
ব	182
ম	183
য	184
র	185
ল	186
ষ	187
স	188
়	189
া	190
ি	191
ী	192
ু	193
ে	194
ো	195
্	196
ઢ	197
ం	198
ఇ	199
క	200
గ	201
చ	202
ఛ	203
జ	204
ట	205
డ	206
ణ	207
త	208
థ	209
ద	210
న	211
ప	212
ఫ	213
బ	214
భ	215
ర	216
ల	217
వ	218
శ	219
స	220
ా	221
ి	222
ీ	223
ు	224
ూ	225
ె	226
ే	227
ొ	228
ో	229
్	230
‌	231
‍	232
‎	233
‛	234
•	235
⁄	236
⁠	237
€	238
₹	239
⏩	240
⏱	241
▪	242
○	243
●	244
☀	245
♈	246
♉	247
♊	248
♋	249
♌	250
♍	251
♏	252
♐	253
♑	254
♒	255
♓	256
♦	257
⚠	258
⚫	259
❓	260
❗	261
➤	262
⭐	263
	264
️	265
🇮	266
🇳	267
🌅	268
🌙	269
🌟	270
🎉	271
🏅	272
🏹	273
🐉	274
💫	275
🔴	276
🔵	277
🕐	278
🗓	279
😉	280
😎	281
😜	282
😸	283
🤔	284
🤩	285
🦌	286
🧭	287
🪐	288
##3	289
##5	290
##4	291
##9	292
##च	293
##ए	294
##ल	295
##्	296
##र	297
##ं	298
##थ	299
##ी	300
##ि	301
##ज	302
##ै	303
##न	304
##े	305
##स	306
##ट	307
##ग	308
##ा	309
##ह	310
##ो	311
##त	312
##ब	313
##ू	314
##म	315
##ई	316
##p	317
##u	318
##ध	319
##ड	320
##़	321
##क	322
##व	323
##इ	324
##फ	325
##ौ	326
##ु	327
##भ	328
##a	329
##श	330
##ँ	331
##n	332
##r	333
##i	334
##प	335
##ऊ	336
##ठ	337
##य	338
##t	339
##घ	340
##m	341
##c	342
##0	343
##1	344
##b	345
##e	346
##s	347
##आ	348
##ण	349
##l	350
##h	351
##o	352
##द	353
##ख	354
##ত	355
##6	356
##ॉ	357
##7	358
##8	359
##ढ	360
##ष	361
##া	362
##ন	363
##ু	364
##ষ	365
##ে	366
##র	367
##झ	368
##‍	369
##d	370
##उ	371
##g	372
##v	373
##j	374
##ः	375
##ळ	376
##छ	377
##k	378
##y	379
##w	380
##2	381
##ृ	382
##f	383
##)	384
##z	385
##‌	386
##अ	387
##ञ	388
##ओ	389
##ङ	390
##ॅ	391
##०	392
##.	393
##"	394
##'	395
##q	396
##ऽ	397
##।	398
##?	399
##ऐ	400
##x	401
##:	402
##,	403
##औ	404
##ऱ	405
##*	406
##_	407
##ऋ	408
##చ	409
##్	410
##ా	411
##డ	412
##ు	413
##స	414
##ూ	415
##ల	416
##-	417
##ऩ	418
##‎	419
##॥	420
##/	421
##గ	422
##ం	423
##ऑ	424
##ড	425
##়	426
##ি	427
##্	428
##२	429
##४	430
##१	431
##@	432
##=	433
##দ	434
##}	435
##న	436
##ీ	437
##ॊ	438
##জ	439
##য	440
##!	441
##ী	442
##ï	443
##{	444
###	445
##८	446
##ো	447
##স	448
##ট	449
##ె	450
##ట	451
##ঠ	452
##চ	453
##ছ	454
##(	455
##ই	456
##ి	457
##క	458
##	459
##ল	460
##ব	461
##^	462
##ধ	463
##ম	464
##₹	465
##ర	466
##­	467
##३	468
##;	469
##😜	470
##😸	471
##😎	472
##🤩	473
##ঁ	474
##५	475
##\	476
##$	477
##९	478
##ণ	479
##খ	480
##প	481
##ক	482
##॑	483
##త	484
##🇳	485
##ే	486
##శ	487
##ॠ	488
##+	489
##ও	490
##జ	491
##६	492
##>	493
##ॆ	494
##%	495
##॰	496
##ణ	497
##థ	498
##ో	499
##🤔	500
##ొ	501
##ద	502
##ार	503
##ें	504
के	505
##्र	506
##या	507
में	508
है	509
##ान	510
की	511
##ों	512
को	513
##र्	514
से	515
##ने	516
कि	517
ने	518
का	519
##ता	520
कर	521
##ाल	522
पर	523
##िक	524
##ना	525
##्य	526
##िल	527
और	528
##स्	529
##क्	530
प्र	531
##ड़	532
##ां	533
##ाम	534
इस	535
##ही	536
##िया	537
हो	538
##वा	539
##ित	540
##के	541
बा	542
##हा	543
##कर	544
हैं	545
##ला	546
##िय	547
##िए	548
##िस	549
##ुर	550
##ंग	551
##ले	552
भी	553
वि	554
स्	555
##ते	556
##त्र	557
रा	558
##ेश	559
जा	560
##िन	561
##री	562
##ारी	563
##हीं	564
उन	565
सा	566
##ती	567
हु	568
##रा	569
##ुल	570
##्या	571
किया	572
##ति	573
##वार	574
लिए	575
एक	576
##से	577
सं	578
ले	579
##सी	580
##नी	581
##गा	582
गया	583
पह	584
##ंद	585
सम	586
##क्ष	587
##ोग	588
नहीं	589
दे	590
रह	591
था	592
##ाय	593
नि	594
कार	595
अप	596
मु	597
##िला	598
##ली	599
##का	600
##टी	601
##की	602
ही	603
बाद	604
सि	605
##ाने	606
##ियों	607
##त्	608
##ार्	609
##ास	610
##ंड	611
##्ह	612
साथ	613
पुल	614
##भा	615
##िर	616
##पी	617
यह	618
पुलिस	619
गई	620
##मा	621
पू	622
बता	623
कु	624
कहा	625
##ाद	626
##गी	627
करने	628
सु	629
##ढ़	630
##टर	631
उन्ह	632
दो	633
अध	634
सी	635
राज	636
##ंच	637
रहे	638
तो	639
थी	640
##्म	641
दिया	642
##रो	643
उस	644
##्री	645
##रे	646
लोग	647
वाल	648
##ाना	649
##्रे	650
मह	651
अन	652
##पुर	653
##ौर	654
##ाइ	655
तक	656
रहा	657
बताया	658
##ाज	659
##स्ट	660
##ल्	661
दी	662
20	663
##में	664
चु	665
##देश	666
##गे	667
##कार	668
##भी	669
मौ	670
हुए	671
मिल	672
##ाह	673
##ानी	674
##ष्	675
##ाई	676
##िश	677
##वी	678
##दी	679
##गर	680
##्त	681
##ंह	682
बार	683
रही	684
##दा	685
##्ष	686
थे	687
बी	688
##ंत्र	689
##कि	690
##ोज	691
जिस	692
##टे	693
##िव	694
##नों	695
##जी	696
##ोंने	697
##ओं	698
सिंह	699
##बर	700
##हर	701
##शन	702
सर	703
##वि	704
##जा	705
गए	706
उन्होंने	707
वह	708
##ड़ी	709
##र्ट	710
##मी	711
जो	712
##स्थ	713
मो	714
बे	715
हम	716
जाए	717
पहु	718
##जे	719
आरो	720
##ुप	721
##स्त	722
पहुंच	723
##ाप	724
##िंग	725
लेकर	726
##सा	727
लगा	728
पहले	729
दिन	730
मे	731
##ड़ा	732
स्थ	733
इसके	734
##द्र	735
##द्	736
##च्	737
अधिक	738
मै	739
लोगों	740
##ेल	741
भार	742
अपने	743
माम	744
पी	745
कार्य	746
ला	747
##पा	748
हुई	749
##किन	750
##्व	751
लेकिन	752
जब	753
##ंत्री	754
बै	755
##क्र	756
सो	757
परि	758
साल	759
टी	760
##मार	761
दौर	762
##र्म	763
इन	764
##ोक	765
जान	766
##वे	767
होने	768
##ंध	769
जी	770
गां	771
सक	772
वाले	773
क्ष	774
दौरान	775
अब	776
##ांच	777
##ंप	778
##र्ज	779
बि	780
##तर	781
##खा	782
##न्	783
##नाव	784
हुआ	785
साम	786
वर्	787
कै	788
कम	789
पि	790
बना	791
निर्	792
या	793
घर	794
दू	795
##ोट	796
##ीन	797
तर	798
बात	799
पा	800
##ष्ट	801
शिक	802
##धान	803
##ेट	804
##्रेस	805
##ेत्र	806
मां	807
##मान	808
सरकार	809
यु	810
##ूल	811
उप	812
##र्व	813
##कारी	814
शाम	815
शुर	816
रुप	817
करते	818
##ड़े	819
##टना	820
##च्च	821
आय	822
क्षेत्र	823
हर	824
##वं	825
##ेंद्र	826
##डी	827
##िप	828
कुमार	829
##वाल	830
चुनाव	831
आप	832
ये	833
##एम	834
अं	835
रू	836
##ोर	837
पार्	838
महिला	839
काम	840
डॉ	841
##्स	842
सभी	843
कह	844
जन	845
सू	846
##कों	847
##वर	848
##्ल	849
कुछ	850
##क्षा	851
##ून	852
बन	853
202	854
##क्त	855
लिया	856
##ोल	857
##स्प	858
दु	859
कई	860
पास	861
चल	862
##क्ट	863
##वाई	864
बढ़	865
10	866
सब	867
##जार	868
लग	869
मुख	870
##क्टर	871
थाना	872
अनु	873
वे	874
स्ट	875
भारत	876
कॉ	877
##सभा	878
गांव	879
##वारा	880
रो	881
द्	882
हि	883
प्रति	884
##ारा	885
##सर	886
गिर	887
मा	888
टीम	889
ग्र	890
##जन	891
उनके	892
जु	893
##भाग	894
बह	895
##बी	896
मामले	897
##ेंगे	898
कोई	899
भा	900
चौ	901
सह	902
कांग	903
व्य	904
नाम	905
##एस	906
ट्र	907
आज	908
दर्ज	909
विश	910
##ोड़	911
आरोप	912
##चार	913
##िम	914
द्वारा	915
##शी	916
##िका	917
समय	918
कांग्रेस	919
अपनी	920
##्यक्ष	921
##बंध	922
देख	923
##ीड	924
##टा	925
शुरू	926
बच्च	927
##ेज	928
##र्स	929
हाल	930
वहीं	931
उन्हें	932
खिला	933
घटना	934
##्यू	935
यहां	936
दोनों	937
विक	938
निक	939
जिल	940
##द्ध	941
बु	942
इं	943
अभ	944
गो	945
##णा	946
स्क	947
जै	948
एस	949
चाह	950
##ोर्ट	951
##िट	952
जिला	953
##ृत	954
बजे	955
##ताल	956
##यर	957
रुपए	958
अम	959
ना	960
अव	961
फिल	962
जांच	963
##ंबर	964
##ूर	965
पै	966
विभाग	967
आई	968
किसी	969
रूप	970
अल	971
राम	972
तरह	973
मुख्य	974
देश	975
रख	976
आरोपी	977
##मंत्री	978
बीच	979
युव	980
##फ्त	981
##्यों	982
उसके	983
##ायत	984
जानकारी	985
अग	986
##ंट	987
##00	988
##ंक	989
##ेर	990
##क्स	991
प्रदेश	992
गु	993
##दार	994
दूस	995
दिल	996
दि	997
लोक	998
लाख	999
डि	1000
शामिल	1001
##जू	1002
स्थित	1003
##्न	1004
##त्या	1005
##लय	1006
##चना	1007
एवं	1008
पु	1009
बद	1010
भाज	1011
छा	1012
##ाला	1013
नगर	1014
फिर	1015
##को	1016
बैठ	1017
अस्प	1018
##ाली	1019
भाजपा	1020
करी	1021
होगा	1022
##चा	1023
मैं	1024
अस्पताल	1025
##एं	1026
जाएगा	1027
##जर	1028
खु	1029
##वन	1030
##आई	1031
किए	1032
जाने	1033
##र्ड	1034
तै	1035
##म्म	1036
उसे	1037
##वासी	1038
इला	1039
##सान	1040
##ंस	1041
खिलाफ	1042
##दान	1043
जारी	1044
##क्रम	1045
कारण	1046
##ेशन	1047
उत्	1048
##्यादा	1049
जिले	1050
पार्टी	1051
पूर्व	1052
##ेंट	1053
सुर	1054
अन्य	1055
रात	1056
##ांस	1057
रे	1058
नी	1059
मान	1060
##ियां	1061
##प्	1062
शु	1063
##धार	1064
##बा	1065
याद	1066
##ुरु	1067
##वान	1068
करीब	1069
##ज्	1070
वो	1071
##फी	1072
##हत	1073
मंद	1074
उनकी	1075
आयोज	1076
सद	1077
नेता	1078
##क्ति	1079
ज्यादा	1080
परिवार	1081
सीट	1082
बो	1083
##र्थ	1084
गिरफ्त	1085
अध्यक्ष	1086
डी	1087
मार	1088
फै	1089
वाली	1090
##सार	1091
फिल्म	1092
मौके	1093
मंत्री	1094
आए	1095
ओर	1096
##तीय	1097
राज्य	1098
तीन	1099
वर्ष	1100
##हार	1101
##त्रा	1102
प्रश	1103
करना	1104
मंदिर	1105
कार्र	1106
जाता	1107
##पाल	1108
##्यालय	1109
सुब	1110
सामने	1111
कार्रवाई	1112
मौत	1113
लि	1114
ली	1115
##पर	1116
जग	1117
##ामी	1118
##ुत	1119
##गढ़	1120
शहर	1121
##लो	1122
हजार	1123
##धी	1124
सुबह	1125
कार्यक्रम	1126
स्कूल	1127
जह	1128
विध	1129
##ाया	1130
##्रीय	1131
मांग	1132
आद	1133
श्री	1134
सबसे	1135
हा	1136
देने	1137
क्या	1138
##्ली	1139
##जय	1140
12	1141
मार्	1142
##वास	1143
शिक्ष	1144
पिछ	1145
##्ला	1146
##ारे	1147
करोड़	1148
निवासी	1149
महा	1150
पो	1151
##गत	1152
यादव	1153
अलग	1154
इसी	1155
आर	1156
##नि	1157
पानी	1158
##ूम	1159
##ब्	1160
##र्मा	1161
सूचना	1162
यू	1163
##कान	1164
लड़	1165
जहां	1166
युवक	1167
बारिश	1168
##ायल	1169
ऐसे	1170
##भाव	1171
##ियो	1172
##जूद	1173
##ेत	1174
दिए	1175
##िता	1176
##ध्य	1177
कंप	1178
शिकायत	1179
मन	1180
##्ड	1181
क्र	1182
2024	1183
आने	1184
##ादी	1185
19	1186
##ूर्	1187
जर	1188
पहुंचे	1189
होगी	1190
जिसमें	1191
##ारियों	1192
##ोन	1193
इसमें	1194
आया	1195
##ंगल	1196
15	1197
##स्था	1198
गिरफ्तार	1199
##तार	1200
##ंब	1201
##दे	1202
सड़	1203
अधिकारी	1204
##ैन	1205
तैय	1206
इससे	1207
##ंत	1208
मिली	1209
##र्शन	1210
##ासन	1211
##ंदर	1212
मोदी	1213
जय	1214
##ोष	1215
भारतीय	1216
11	1217
पढ़	1218
##रण	1219
##ूं	1220
##श्	1221
##धिक	1222
दिल्ली	1223
मत	1224
अनुसार	1225
रहने	1226
पद	1227
##ायर	1228
कोर्ट	1229
शर्मा	1230
##ोजना	1231
##वाद	1232
शिव	1233
##धा	1234
आग	1235
राष्ट	1236
सकता	1237
पत्	1238
##ंज	1239
##ायक	1240
चाहिए	1241
बर	1242
प्रा	1243
रिप	1244
लोकसभा	1245
##ियर	1246
जिन	1247
##च्छ	1248
बाहर	1249
##मेंट	1250
ती	1251
कप	1252
##त्व	1253
वहां	1254
##ेंस	1255
चला	1256
##ये	1257
शव	1258
गुरु	1259
##राब	1260
संबंध	1261
##्रा	1262
##वल	1263
30	1264
##कर्	1265
स्व	1266
पिछले	1267
मामला	1268
किसान	1269
पूरी	1270
कर्म	1271
पिता	1272
निय	1273
मिले	1274
उसकी	1275
##ंगे	1276
क्यों	1277
इंड	1278
##र्फ	1279
##इक	1280
##ेम	1281
##सल	1282
मी	1283
विधान	1284
चे	1285
##ज्ञ	1286
##ाइन	1287
प्रद	1288
परी	1289
चार	1290
बंद	1291
शे	1292
पं	1293
##आर	1294
201	1295
मोह	1296
##प्र	1297
प्रधान	1298
ट्रे	1299
मिला	1300
एन	1301
##सम	1302
आगे	1303
##ूट	1304
##स्थान	1305
दर	1306
उठ	1307
ऑफ	1308
काफी	1309
बड़ी	1310
रिपोर्ट	1311
प्रत	1312
सहित	1313
केंद्र	1314
करें	1315
एम	1316
बस	1317
रवि	1318
##माण	1319
##िज	1320
स्वा	1321
विद	1322
समाज	1323
##ख्या	1324
जाएगी	1325
##चान	1326
जबकि	1327
सफ	1328
मृत	1329
घायल	1330
##ांड	1331
##..	1332
बहुत	1333
##था	1334
जीत	1335
पड़	1336
अला	1337
मही	1338
सड़क	1339
##योग	1340
##ोह	1341
हालां	1342
रोड	1343
अभी	1344
हालांकि	1345
जगह	1346
वीड	1347
विकास	1348
##ताब	1349
संग	1350
##ुक्त	1351
बां	1352
सदस	1353
##त्म	1354
दा	1355
मुख्यमंत्री	1356
##म्मी	1357
हत्या	1358
निर्देश	1359
होता	1360
##ोध	1361
##लाई	1362
अपना	1363
छात्र	1364
गा	1365
##ट्	1366
बैठक	1367
##ुक	1368
##लों	1369
विधानसभा	1370
मौजूद	1371
जिसके	1372
तहत	1373
व्यव	1374
दूसरे	1375
बच्चों	1376
वीडियो	1377
मीड	1378
25	1379
टे	1380
##ेंद	1381
##जह	1382
योजना	1383
उसने	1384
बारे	1385
स्प	1386
##ुआ	1387
सुन	1388
##गम	1389
बाइक	1390
##क्षण	1391
सकते	1392
अगर	1393
उम्मी	1394
##ंटे	1395
##बू	1396
उम्मीद	1397
अलावा	1398
पत्नी	1399
विधायक	1400
उनका	1401
कुल	1402
भग	1403
##ग्री	1404
मीडिया	1405
##ची	1406
मज	1407
##मु	1408
तब	1409
वै	1410
##ाइल	1411
बॉ	1412
वाह	1413
पता	1414
पूछ	1415
##ेष	1416
ब्र	1417
कंपनी	1418
कहना	1419
पुर	1420
सोम	1421
वजह	1422
##वरी	1423
##ोरी	1424
##तम	1425
भाग	1426
प्रभ	1427
इसे	1428
परीक्षा	1429
##ंगा	1430
पोस्ट	1431
संख्या	1432
आरोपियों	1433
शादी	1434
##लेज	1435
मंगल	1436
आम	1437
आस	1438
सुरक्षा	1439
प्रशासन	1440
##मिक	1441
##ष्ठ	1442
पंच	1443
जल	1444
पे	1445
##ेंड	1446
दिनों	1447
##ताओं	1448
फर	1449
हाथ	1450
कृ	1451
फी	1452
दिख	1453
रेल	1454
##फ्	1455
##खंड	1456
##राज	1457
सांस	1458
अधिकारियों	1459
ग्रामी	1460
पक	1461
जैसे	1462
ग्रामीण	1463
वोट	1464
##ार्थ	1465
आधार	1466
##झे	1467
हरिया	1468
तेज	1469
पत्र	1470
##शल	1471
लगे	1472
करता	1473
व्यक्ति	1474
मुताब	1475
तरफ	1476
##काल	1477
मुताबिक	1478
प्रो	1479
##णी	1480
कल	1481
पूरा	1482
##स्ता	1483
करेंगे	1484
होती	1485
##जेपी	1486
भाई	1487
बिज	1488
##वेद	1489
दुकान	1490
सच	1491
##ाक	1492
महीने	1493
भर	1494
##चाल	1495
##क्शन	1496
एक्स	1497
जे	1498
##चित	1499
##ात	1500
हों	1501
आयोजन	1502
गं	1503
पहुंची	1504
बनाने	1505
ऐसा	1506
थाने	1507
घंटे	1508
योग	1509
बीजेपी	1510
हरियाणा	1511
##an	1512
कान	1513
##तन	1514
मंड	1515
अर	1516
दिव	1517
नंबर	1518
विशेष	1519
न्या	1520
##र्य	1521
राय	1522
बाल	1523
सै	1524
नजर	1525
सम्म	1526
पीड़	1527
खेल	1528
साह	1529
सोमवार	1530
लगातार	1531
कॉलेज	1532
श्र	1533
डे	1534
##र्चा	1535
रन	1536
##वेश	1537
जिससे	1538
पूरे	1539
मद	1540
निर्माण	1541
डॉक्टर	1542
माल	1543
##बाद	1544
##दीप	1545
##िति	1546
इंद	1547
##लिए	1548
इसकी	1549
सीएम	1550
सांसद	1551
जून	1552
राह	1553
शनि	1554
हाई	1555
##तिक	1556
##ार्ड	1557
उद	1558
##शा	1559
##र्क	1560
##िकल	1561
सकती	1562
##िटी	1563
##जनों	1564
तैयार	1565
लाल	1566
पहली	1567
लगाया	1568
विश्व	1569
घोष	1570
##रीज	1571
हाद	1572
मिलने	1573
निगम	1574
##म्	1575
गर्	1576
14	1577
##भीर	1578
बिहार	1579
प्रदर्शन	1580
केस	1581
चंद	1582
कले	1583
वाला	1584
पांच	1585
##स्ते	1586
सौ	1587
सेवा	1588
##र्ती	1589
मुझे	1590
##स्क	1591
इसका	1592
बड़े	1593
मंगलवार	1594
बुध	1595
##ीय	1596
24	1597
##ज़	1598
हूं	1599
भगवान	1600
गंभीर	1601
जमी	1602
प्रधानमंत्री	1603
कराया	1604
ड्र	1605
##पति	1606
...	1607
शुक्र	1608
आदि	1609
13	1610
##र्च	1611
पंजा	1612
डिग्री	1613
देते	1614
नर	1615
इसलिए	1616
##ियन	1617
##ार्ट	1618
गांधी	1619
अफ	1620
मैच	1621
##वीर	1622
50	1623
समझ	1624
##बल	1625
##िस्ट	1626
##ियान	1627
व्यवस्था	1628
विरो	1629
##शत	1630
शनिवार	1631
प्रया	1632
हिस्	1633
रविवार	1634
नए	1635
व्या	1636
बड़ा	1637
भे	1638
बनाया	1639
खुद	1640
18	1641
जवा	1642
##ग्	1643
##यान	1644
करे	1645
नई	1646
जल्	1647
सवाल	1648
##निया	1649
##स्तान	1650
खान	1651
राजनी	1652
इलाज	1653
बज	1654
वाप	1655
##ल्ड	1656
##ष्ण	1657
शुक्रवार	1658
बुधवार	1659
प्रस	1660
माह	1661
जाती	1662
ताप	1663
##करण	1664
शिक्षा	1665
लगी	1666
संचाल	1667
##नाथ	1668
ट्रेन	1669
##षण	1670
##स्या	1671
##शि	1672
##बाज	1673
प्रभारी	1674
जेल	1675
एक्ट	1676
##इन	1677
##ीर	1678
रुपये	1679
मेड	1680
नौ	1681
पूजा	1682
##्ले	1683
पति	1684
##ैल	1685
अच्छ	1686
हे	1687
##ाट	1688
आयोजित	1689
16	1690
राजस्थान	1691
परेश	1692
##मुख	1693
पहचान	1694
पक्ष	1695
##काश	1696
##ांत	1697
देव	1698
तापमान	1699
बच	1700
समेत	1701
आदेश	1702
##ुम	1703
बिजली	1704
उसका	1705
सामान	1706
हिंद	1707
पंजाब	1708
परिजनों	1709
सदस्य	1710
गुरुवार	1711
भर्ती	1712
##बे	1713
संप	1714
अति	1715
स्थिति	1716
सित	1717
##ैंड	1718
##ाप्त	1719
लेने	1720
मौसम	1721
बेटे	1722
17	1723
खरी	1724
होते	1725
##िश्	1726
दें	1727
विभ	1728
दल	1729
शुरुआ	1730
स्थान	1731
##ॉल	1732
मध्य	1733
##बंधन	1734
राहुल	1735
देर	1736
इत	1737
बेह	1738
जमीन	1739
वन	1740
##िन्न	1741
दोप	1742
सरकारी	1743
नार	1744
बच्चे	1745
गै	1746
तस्	1747
होकर	1748
छो	1749
बनाए	1750
जुलाई	1751
फोन	1752
करवा	1753
बल	1754
जनता	1755
छोड़	1756
यात्रा	1757
बल्	1758
##र्श	1759
बेटी	1760
गठ	1761
रिक	1762
##िरा	1763
चाल	1764
चलते	1765
##न्द्र	1766
##डा	1767
रखा	1768
बाजार	1769
राष्ट्रीय	1770
चोरी	1771
##त्री	1772
रोक	1773
खे	1774
##ग्र	1775
क्योंकि	1776
थीं	1777
प्रतिशत	1778
##्वर	1779
भेज	1780
चुके	1781
हमला	1782
22	1783
उम	1784
विभिन्न	1785
दूसरी	1786
पीछ	1787
दोपहर	1788
सोशल	1789
अगस्त	1790
करके	1791
मि	1792
चर्चा	1793
##पास	1794
##स्ती	1795
मोब	1796
##जीत	1797
पार	1798
##दारी	1799
अभियान	1800
यून	1801
##स्थ्य	1802
तला	1803
अह	1804
वित	1805
##भग	1806
युवा	1807
अमेर	1808
##पूर्	1809
मदद	1810
##फर	1811
महिलाओं	1812
विरोध	1813
भो	1814
##ेक	1815
बने	1816
लॉ	1817
तथा	1818
समस्या	1819
##ूप	1820
##षद	1821
बयान	1822
स्वास्थ्य	1823
##हरा	1824
बैंक	1825
##्रम	1826
##ध्यक्ष	1827
सिर्फ	1828
अवसर	1829
रेलवे	1830
##चे	1831
जाते	1832
होंगे	1833
ट्रै	1834
पेश	1835
##ुन	1836
##श्य	1837
समिति	1838
##वाह	1839
पाकि	1840
अश	1841
लाइ	1842
फैस	1843
जयपुर	1844
चुकी	1845
प्रयास	1846
पाल	1847
अपरा	1848
सचिव	1849
##कु	1850
मृतक	1851
##गंज	1852
##ानीय	1853
मोबाइल	1854
जवाब	1855
##करी	1856
पूर्	1857
विवाद	1858
##वेदन	1859
स्थानीय	1860
सम्मान	1861
ची	1862
##क्षक	1863
वाहन	1864
दुर्	1865
सके	1866
मेरे	1867
##ल्प	1868
मिश	1869
##िंद	1870
मना	1871
जल्द	1872
प्रमुख	1873
ग्राम	1874
उम्मीदवार	1875
गल	1876
##न्न	1877
कौ	1878
##मत	1879
##ियम	1880
21	1881
##ोद	1882
दूर	1883
संत	1884
देखा	1885
##धि	1886
लगभग	1887
200	1888
दिस	1889
करती	1890
इंटर	1891
##ar	1892
##टल	1893
दीप	1894
शाह	1895
मिन	1896
इंडिया	1897
देवी	1898
जैन	1899
कार्यकर्	1900
अवै	1901
इलाके	1902
##ूबर	1903
बिल	1904
भूम	1905
अवैध	1906
##्यान	1907
माध्य	1908
साइ	1909
किसानों	1910
पंचायत	1911
##धिकारी	1912
गाड़ी	1913
सवार	1914
वापस	1915
अभि	1916
महत्व	1917
ता	1918
उत्तर	1919
##पूर्ण	1920
करा	1921
एड	1922
स्तर	1923
##केश	1924
##ठी	1925
मई	1926
##ंभ	1927
हॉ	1928
##पीट	1929
संघ	1930
राशि	1931
शराब	1932
पीएम	1933
पढ़ें	1934
##चर	1935
बराम	1936
कोश	1937
##शनल	1938
##रि	1939
अंदर	1940
##जाम	1941
शेयर	1942
लौ	1943
पीड़ित	1944
छात्रा	1945
जीवन	1946
सितंबर	1947
संगठ	1948
विजय	1949
राष्ट्र	1950
मंत्र	1951
धर्म	1952
##लाल	1953
##हाय	1954
पुत्र	1955
कोशिश	1956
##्‍	1957
इंदौर	1958
बरामद	1959
##ूड	1960
##पुरा	1961
कहते	1962
इम	1963
सें	1964
हमारे	1965
##ालय	1966
शुरुआत	1967
प्रभाव	1968
##यू	1969
मारपीट	1970
##पक्ष	1971
समर्थ	1972
अक्ट	1973
अक्टूबर	1974
##रिया	1975
दौ	1976
जरूर	1977
तीस	1978
कभी	1979
##एल	1980
##हन	1981
बढ़ा	1982
कलेक्टर	1983
रि	1984
सां	1985
वालों	1986
##सू	1987
##वीं	1988
##प्री	1989
##स्टर	1990
नोट	1991
पीछे	1992
निकल	1993
##क्कर	1994
खा	1995
##माश	1996
दिसंबर	1997
कट	1998
##फ़	1999
एज	2000
##उंड	2001
##ल्स	2002
##दि	2003
मैंने	2004
मार्ग	2005
##श्च	2006
टिक	2007
40	2008
पूछता	2009
वार	2010
##ूरी	2011
हादसे	2012
सर्	2013
##र्जी	2014
##ॉप	2015
##रिक	2016
##िली	2017
देकर	2018
ब्ल	2019
संभाव	2020
एयर	2021
##टक	2022
पूछताछ	2023
जाना	2024
लक्ष	2025
शा	2026
लिखा	2027
कार्यालय	2028
नवं	2029
##धरी	2030
केंद	2031
शुभ	2032
मेडिकल	2033
बदमाश	2034
नवंबर	2035
व्याप	2036
एसपी	2037
आसपास	2038
##यन	2039
##गू	2040
सर्व	2041
##्क	2042
रोज	2043
सहाय	2044
धन	2045
गण	2046
केंद्रीय	2047
##थि	2048
##र्ष	2049
चुका	2050
##ोस	2051
स्टे	2052
अंतर	2053
##धर	2054
माता	2055
##ंकर	2056
धम	2057
रज	2058
नियम	2059
गुप	2060
##एच	2061
रै	2062
प्राप्त	2063
प्ल	2064
केवल	2065
मतदान	2066
वा	2067
शो	2068
लख	2069
तौर	2070
##तृ	2071
##किंग	2072
आपको	2073
##ॉर्ड	2074
चौधरी	2075
बिना	2076
##खिल	2077
पड़ा	2078
स्टेशन	2079
अप्र	2080
पाकिस्तान	2081
##ंका	2082
##स्थित	2083
##ुर्	2084
जाएंगे	2085
देखने	2086
संय	2087
भोपाल	2088
अस	2089
##टन	2090
23	2091
##साइ	2092
##चारी	2093
##वत	2094
अंत	2095
मिनट	2096
##लर	2097
##ुओं	2098
दिखा	2099
मरीज	2100
किलो	2101
आवेदन	2102
एक्सप	2103
##्ता	2104
जिम	2105
##र्न	2106
नेताओं	2107
प्रत्या	2108
##विधा	2109
उपल	2110
निश	2111
##विद	2112
ध्यान	2113
##िसर	2114
##टेल	2115
हमें	2116
##भर	2117
भारी	2118
खास	2119
##लाइन	2120
##त्स	2121
नदी	2122
##at	2123
मार्च	2124
तह	2125
माध्यम	2126
रु	2127
विदेश	2128
ज्	2129
होना	2130
##मन	2131
लिख	2132
निरी	2133
##ांक	2134
लगाए	2135
लाभ	2136
##मे	2137
##केट	2138
##फा	2139
टै	2140
##िटल	2141
बदल	2142
ज़	2143
##जरा	2144
लाइन	2145
ते	2146
2023	2147
26	2148
##रज	2149
देखते	2150
##्यो	2151
##त्ती	2152
कैसे	2153
##माल	2154
सत	2155
खबर	2156
पश्च	2157
##ौल	2158
तोड़	2159
##हाल	2160
टिकट	2161
प्ले	2162
मुद्	2163
##ुद	2164
डाल	2165
##गल	2166
जनवरी	2167
निकाल	2168
##र्या	2169
गोली	2170
कर्मचारी	2171
##िशा	2172
अपराध	2173
बनी	2174
##पोर्ट	2175
बोर्ड	2176
##मार्ट	2177
कराने	2178
उठा	2179
##्मे	2180
सप्	2181
##त्ता	2182
विकेट	2183
जिसे	2184
आश	2185
##षा	2186
सुविधा	2187
फरार	2188
लो	2189
अग्र	2190
संबंधित	2191
ग्रामीणों	2192
##ीक	2193
बदला	2194
##ियार	2195
संभ	2196
उद्	2197
पदा	2198
##फिक	2199
##िरी	2200
यूपी	2201
अहम	2202
वार्ड	2203
##एफ	2204
##राम	2205
सीटों	2206
छात्रों	2207
##विद्यालय	2208
नव	2209
##र्प	2210
##क्रिया	2211
##सि	2212
##ंडी	2213
प्रसाद	2214
प्रक्रिया	2215
अगले	2216
संभावना	2217
यानी	2218
विद्य	2219
##सत	2220
##ारोह	2221
##फ्ट	2222
उपलब्	2223
##तरी	2224
शि	2225
सफल	2226
28	2227
समारोह	2228
संजय	2229
आयोग	2230
श्रद्ध	2231
तय	2232
##ॉक	2233
##िग	2234
##्रोल	2235
##चारियों	2236
##रों	2237
##देव	2238
पहुंचा	2239
##क्षित	2240
परेशान	2241
भेजा	2242
जिलों	2243
##ूक	2244
##ंबई	2245
##तृत्व	2246
आव	2247
##मारी	2248
सहयोग	2249
##त्तीस	2250
##ड़ों	2251
फोट	2252
चि	2253
छत्तीस	2254
##जल	2255
सुनी	2256
रण	2257
##िप्	2258
फीस	2259
पकड़	2260
##ड़ियों	2261
कर्मचारियों	2262
मानस	2263
दावा	2264
ऐसी	2265
##ेंसी	2266
छत्तीसगढ़	2267
वायर	2268
नेतृत्व	2269
मुंबई	2270
ज्ञ	2271
##ृति	2272
बांग	2273
अद	2274
रखने	2275
चले	2276
##ृह	2277
क्ल	2278
100	2279
न्याय	2280
27	2281
##काब	2282
जमा	2283
##ुरा	2284
बोले	2285
नरेंद्र	2286
##ोब	2287
##ूत	2288
आख	2289
चिक	2290
अप्रैल	2291
नीचे	2292
ताकि	2293
),	2294
गर्मी	2295
रंग	2296
नागर	2297
35	2298
तत्	2299
उर्फ	2300
##नात	2301
तलाश	2302
##ज्ञान	2303
दुनिया	2304
तैयारी	2305
पटना	2306
कब्	2307
कीमत	2308
हास	2309
##फे	2310
हिस्सा	2311
मंडल	2312
लगाने	2313
##ियल	2314
##धे	2315
माना	2316
गौ	2317
डाय	2318
टक्कर	2319
बल्कि	2320
##ील	2321
##स्ल	2322
##ीत	2323
इनमें	2324
##एन	2325
##असल	2326
प्रत्याशी	2327
##ूब	2328
##ापन	2329
दरअसल	2330
##्मी	2331
एल	2332
जम	2333
##धन	2334
जाकर	2335
गुप्ता	2336
कर्	2337
##यों	2338
##टो	2339
चंद्र	2340
बंग	2341
##नियर	2342
##चार्य	2343
ओवर	2344
राजनीतिक	2345
मॉ	2346
पेट	2347
##on	2348
फैसला	2349
संगठन	2350
##ंदा	2351
भाव	2352
##लोनी	2353
जिम्मे	2354
टेस्ट	2355
मकान	2356
##er	2357
क्रिक	2358
हासिल	2359
लखन	2360
बांग्ला	2361
##ाइम	2362
बचा	2363
पूर्ण	2364
##ॉर्म	2365
##ष्य	2366
किस	2367
##ड्	2368
अमेरिका	2369
गति	2370
वक्त	2371
सिर	2372
##एसपी	2373
तरी	2374
सदर	2375
फायर	2376
जुड़े	2377
चरण	2378
वृ	2379
रहते	2380
भवन	2381
##चन	2382
गाय	2383
##ित्र	2384
##स्तेमाल	2385
31	2386
इस्तेमाल	2387
##स्व	2388
हथ	2389
न्यू	2390
जन्म	2391
न्याया	2392
हमने	2393
स्थाप	2394
आन	2395
सीमा	2396
प्रे	2397
साफ	2398
वर्ग	2399
कहीं	2400
झार	2401
कला	2402
रहेगा	2403
फ़	2404
प्रकार	2405
##ियोग	2406
दोस्त	2407
सजा	2408
पल	2409
##ांति	2410
##तीश	2411
बांग्लादेश	2412
##लू	2413
##वाने	2414
##िन्	2415
ख़	2416
हालत	2417
चिकित	2418
##षि	2419
मजबू	2420
##िक्ष	2421
घु	2422
भीड़	2423
ड्राइ	2424
जता	2425
##बाल	2426
##िनि	2427
##त्ति	2428
##शे	2429
##चीत	2430
फु	2431
तीनों	2432
बातचीत	2433
उपलब्ध	2434
ति	2435
नया	2436
##क्ता	2437
पैसे	2438
मश	2439
##डे	2440
मैदान	2441
चालक	2442
हार	2443
पौ	2444
परिसर	2445
त्र	2446
##टने	2447
##वाड़ा	2448
प्राथ	2449
##श्यक	2450
##ायण	2451
अमित	2452
झारखंड	2453
बनने	2454
घोषणा	2455
##किल	2456
प्राथमिक	2457
ऑन	2458
पाए	2459
चौक	2460
##श्म	2461
बाबा	2462
महत्वपूर्ण	2463
##जरी	2464
##झा	2465
##गार	2466
##तरा	2467
फिलहाल	2468
कार्ड	2469
##in	2470
##ार्ज	2471
रोह	2472
खत्म	2473
कराई	2474
रिकॉर्ड	2475
ट्रांस	2476
यही	2477
प्रकाश	2478
##राह	2479
##्हें	2480
कैम	2481
ठीक	2482
मूल	2483
निजी	2484
मेरी	2485
दिवस	2486
विद्यालय	2487
29	2488
खो	2489
चुन	2490
स्टूड	2491
##बाजी	2492
तस्वीर	2493
##नगर	2494
मुक	2495
सिटी	2496
गठबंधन	2497
##वाली	2498
आवश्यक	2499
पड़े	2500
##विंद	2501
वी	2502
##वाही	2503
लखनऊ	2504
##कल	2505
बहन	2506
##ैनिक	2507
##रान	2508
##तिम	2509
चोर	2510
##ड्ड	2511
आपके	2512
वायरल	2513
##वें	2514
नागरिक	2515
##रल	2516
सिल	2517
बाव	2518
पहला	2519
ऊपर	2520
रव	2521
##ेय	2522
फोटो	2523
सेंटर	2524
45	2525
चै	2526
##हान	2527
स्वी	2528
लड़की	2529
अय	2530
##ंडा	2531
राष्ट्रपति	2532
खेत	2533
वरि	2534
##मता	2535
भु	2536
मिलकर	2537
मोहन	2538
घोषित	2539
##ेटी	2540
##्योग	2541
##ंगी	2542
##दम	2543
पांड	2544
एफ	2545
मुकाब	2546
खराब	2547
उपस्थित	2548
री	2549
##हरी	2550
##al	2551
अंतिम	2552
##जों	2553
अंक	2554
आवा	2555
##ांग	2556
उदय	2557
##नेश	2558
सफाई	2559
खुला	2560
सीसी	2561
##्रेट	2562
##मीटर	2563
चीन	2564
##ांव	2565
प्रेम	2566
##ित्य	2567
कमी	2568
हमारी	2569
कमेटी	2570
##इट	2571
तभी	2572
##व्य	2573
##षेक	2574
पाया	2575
उच्च	2576
धारा	2577
##डल	2578
सेना	2579
देना	2580
महारा	2581
##ंख	2582
जरिए	2583
खरीद	2584
##तियों	2585
गौर	2586
##ामा	2587
समा	2588
सुप्री	2589
बू	2590
धमकी	2591
##लिया	2592
चुना	2593
मीटर	2594
गिरा	2595
##ष्ट्र	2596
कित	2597
बोल	2598
लगाई	2599
हिंदू	2600
बुला	2601
सुप्रीम	2602
राज्यों	2603
स्टूडेंट	2604
प्रवेश	2605
वर्षीय	2606
विपक्ष	2607
दर्शन	2608
लु	2609
सभा	2610
##पन	2611
ट्रक	2612
##चानक	2613
शिक्षक	2614
##स्ताव	2615
अचानक	2616
मं	2617
##मेर	2618
##दात	2619
सुनवाई	2620
वरिष्ठ	2621
##ालत	2622
##स्कार	2623
महार	2624
कानून	2625
प्रस्ताव	2626
नम	2627
सही	2628
अग्रवाल	2629
विचार	2630
कॉन्	2631
##हास	2632
मुला	2633
##रीर	2634
सात	2635
समर्थन	2636
जरूरत	2637
आते	2638
वारदात	2639
चाहते	2640
प्रतियोग	2641
दक्ष	2642
प्रस्त	2643
कॉलोनी	2644
उसी	2645
##तंत्र	2646
समी	2647
परिजन	2648
धर	2649
लाप	2650
##द्धि	2651
उत्स	2652
अदालत	2653
##नु	2654
किन	2655
सदस्यों	2656
##ब्ल	2657
क्षेत्रों	2658
लंब	2659
सिक	2660
##ंघ	2661
##िशन	2662
उम्र	2663
फे	2664
क्रिकेट	2665
बावजूद	2666
##चिका	2667
##ौती	2668
लागू	2669
सामान्य	2670
गेट	2671
नुक	2672
चा	2673
##ैया	2674
पाठ	2675
##ंसा	2676
##मति	2677
जित	2678
##िद	2679
##शु	2680
प्रता	2681
संक	2682
##टिंग	2683
उनसे	2684
निवेश	2685
निरीक्षण	2686
फ्र	2687
होटल	2688
एंड	2689
सिव	2690
इंत	2691
##ेंडर	2692
विश्वविद्यालय	2693
कौन	2694
पटेल	2695
##ंता	2696
परिषद	2697
##ूह	2698
तैनात	2699
परिव	2700
याचिका	2701
अशोक	2702
##ाले	2703
ऑफिस	2704
बदलाव	2705
कही	2706
in	2707
##स्कर	2708
##टेड	2709
##ुदाय	2710
##िश्न	2711
एसडी	2712
##उट	2713
हथियार	2714
उल्	2715
लूट	2716
छोटे	2717
##िकी	2718
मनी	2719
##िब	2720
##ंदी	2721
राजनीति	2722
तत्काल	2723
बनाकर	2724
प्रभावित	2725
##खी	2726
कृष्ण	2727
##्याण	2728
##वाइ	2729
वर्मा	2730
निर्ण	2731
गेंद	2732
चढ़	2733
संब	2734
उत्प	2735
##वट	2736
##वर्	2737
##ख्त	2738
नेशनल	2739
बेहतर	2740
##ॉट	2741
##ुरी	2742
##प्शन	2743
कोच	2744
##र्द	2745
विन	2746
दिखाई	2747
गलत	2748
##as	2749
कारोब	2750
चां	2751
##चल	2752
रहता	2753
जरूरी	2754
##िने	2755
##सों	2756
##स्टम	2757
नुकसान	2758
रिज	2759
सुना	2760
कब	2761
रखी	2762
प्रतियोगिता	2763
उससे	2764
कॉल	2765
अजय	2766
असर	2767
##कम	2768
मजद	2769
हॉस्प	2770
गृह	2771
पदाधिकारी	2772
##टीवी	2773
उपयोग	2774
तुर	2775
फाइन	2776
बनाई	2777
करेगी	2778
##तिहास	2779
संस्थान	2780
##ध्या	2781
रास्ते	2782
##सील	2783
अयोध	2784
गुर	2785
राहत	2786
अफसर	2787
रिली	2788
ग्रुप	2789
विद्यार्थ	2790
डिज	2791
महाराष्ट्र	2792
भू	2793
##ूर्ति	2794
युवती	2795
तरीके	2796
हल्	2797
प्रदान	2798
##्वाल	2799
महाराज	2800
लगने	2801
मू	2802
##ठा	2803
जाम	2804
2019	2805
मिश्रा	2806
##es	2807
##or	2808
भूमिका	2809
दक्षि	2810
टा	2811
कार्यकर्ताओं	2812
सीसीटीवी	2813
हॉस्पिटल	2814
अयोध्या	2815
शांति	2816
##र्गत	2817
पंड	2818
राजेश	2819
मजबूत	2820
##िड	2821
##यल	2822
संस	2823
##ज्ज	2824
तुरंत	2825
##राव	2826
इतना	2827
हवा	2828
##खे	2829
ड्राइवर	2830
विष	2831
हमले	2832
स्वागत	2833
रिश्	2834
वाहनों	2835
भक्त	2836
किश	2837
##र्डर	2838
इले	2839
उपा	2840
##ट्र	2841
मर	2842
##ॉर्ट	2843
संस्था	2844
स्थल	2845
जोर	2846
लॉन्	2847
ताला	2848
मंच	2849
कपूर	2850
रिलीज	2851
##उस	2852
##कात	2853
लगाकर	2854
बजट	2855
हाईक	2856
नौकरी	2857
##ुण	2858
##न्ना	2859
अभिषेक	2860
आर्थ	2861
प्रचार	2862
छाप	2863
जागर	2864
पश्चिम	2865
बीते	2866
रायपुर	2867
जब्त	2868
फरवरी	2869
बंगाल	2870
लगता	2871
लौट	2872
कल्याण	2873
कृषि	2874
तेजी	2875
##सिंह	2876
सुख	2877
नाबाल	2878
जवान	2879
कोल	2880
फ्ल	2881
ठाक	2882
कोत	2883
लेते	2884
बेच	2885
संयुक्त	2886
##ेक्ट	2887
सीटें	2888
आत्म	2889
मिलेगा	2890
आनंद	2891
चोट	2892
सिविल	2893
##ंटी	2894
##िनी	2895
सोन	2896
आर्थिक	2897
तम	2898
यदि	2899
हट	2900
##उंट	2901
अली	2902
##घाट	2903
मेरा	2904
2022	2905
तहसील	2906
नोटिस	2907
फीसदी	2908
सल	2909
##्यून	2910
बताते	2911
छह	2912
##ताह	2913
संवि	2914
प्रतिनि	2915
##ंकी	2916
रहेगी	2917
नाबालिग	2918
##ारंभ	2919
ऑनलाइन	2920
##ोप	2921
एक्सप्रेस	2922
दीपक	2923
भवि	2924
मालिक	2925
##भव	2926
##ल्ट	2927
भास्कर	2928
जमकर	2929
##िक्र	2930
बेटा	2931
मुलाकात	2932
डा	2933
शी	2934
नाराज	2935
करेगा	2936
रोहित	2937
श्रद्धाल	2938
##म्मद	2939
कदम	2940
##कुमार	2941
गैंग	2942
निर्णय	2943
भविष्य	2944
अर्	2945
ठे	2946
अज	2947
##रासत	2948
प्रशिक्ष	2949
आत	2950
सामना	2951
मनोज	2952
ne	2953
दम	2954
पट	2955
##र्जा	2956
गिरफ्तारी	2957
पर्य	2958
##ha	2959
अतिरिक	2960
सागर	2961
पैर	2962
फर्जी	2963
##हरे	2964
रहती	2965
60	2966
निर्वा	2967
##डीए	2968
ठाकुर	2969
दूसरा	2970
अंतर्गत	2971
##त्रियों	2972
##ेश्वर	2973
##कीय	2974
संबोध	2975
खुल	2976
##कर्म	2977
तारी	2978
तेल	2979
##ादा	2980
##ti	2981
##िवर्स	2982
जिसकी	2983
अतिरिक्त	2984
सहायक	2985
खर्च	2986
##त्सव	2987
उदयपुर	2988
हाईकोर्ट	2989
सीरीज	2990
कार्यकर्ता	2991
हनु	2992
अज्ञ	2993
प्राइ	2994
व्यक्त	2995
खड़े	2996
करवाया	2997
बदमाशों	2998
32	2999
##दों	3000
##स्‍	3001
अपील	3002
हाउस	3003
##ांकन	3004
पॉ	3005
पर्व	3006
##ांसी	3007
##्तान	3008
##ोलन	3009
पीड़िता	3010
अज्ञात	3011
बांध	3012
संचालन	3013
फा	3014
##थम	3015
##्याम	3016
##बीर	3017
इलाकों	3018
सत्र	3019
हिस	3020
कंपन	3021
मुकद	3022
आंद	3023
दबा	3024
धो	3025
मल	3026
बैठे	3027
साहू	3028
सिस्टम	3029
स्पेश	3030
सुनील	3031
कां	3032
मोहम्मद	3033
अंजाम	3034
पार्षद	3035
देशों	3036
मंत्रालय	3037
##तल	3038
##तमान	3039
अनिल	3040
मिलते	3041
देंगे	3042
फाय	3043
प्रोज	3044
मतदा	3045
जाल	3046
मुस्ल	3047
अच्छी	3048
##ेंज	3049
मुश्	3050
बच्ची	3051
##त्मक	3052
संर	3053
जैसी	3054
सुपर	3055
##विध	3056
मामलों	3057
कोतवाली	3058
दब	3059
##वारी	3060
##इल	3061
##ेशा	3062
किलोमीटर	3063
पेट्रोल	3064
मुस्लिम	3065
पर्या	3066
राव	3067
जिंद	3068
सुधार	3069
प्रि	3070
##ोत्सव	3071
गुजरा	3072
आवास	3073
##पथ	3074
##ुड	3075
##ाजिक	3076
रक्षा	3077
##चंद	3078
सोने	3079
हनुमान	3080
##ृष्ट	3081
नीतीश	3082
##वादी	3083
##ैक	3084
युवाओं	3085
आशी	3086
बिक	3087
##्राम	3088
तुल	3089
फसल	3090
परेशानी	3091
कड़ी	3092
हटा	3093
उत	3094
झा	3095
निदेश	3096
प्रताप	3097
500	3098
केजरी	3099
##स्त्र	3100
दश	3101
भोज	3102
##िक्स	3103
डायरे	3104
केजरीवाल	3105
छु	3106
##स्ट्री	3107
स्पेशल	3108
प्रोजेक्ट	3109
घाट	3110
##प्रदेश	3111
विस्त	3112
##वरण	3113
आंदोलन	3114
जाय	3115
देखकर	3116
##दारों	3117
गंगा	3118
##वेट	3119
एक्ट्रेस	3120
रजिस्ट	3121
उत्पाद	3122
##फ्र	3123
अधिकार	3124
अच्छा	3125
कन	3126
मौका	3127
अलर्ट	3128
अंग	3129
धी	3130
##लपुर	3131
##ण्ड	3132
##्होंने	3133
##िश्चित	3134
##पू	3135
##ॉन	3136
वर्तमान	3137
घरों	3138
##खर	3139
##टेज	3140
पकड़ा	3141
मुश्किल	3142
##धानी	3143
मगर	3144
##तों	3145
अधी	3146
यूनिवर्स	3147
भूमि	3148
डर	3149
अखिल	3150
चली	3151
श्रे	3152
##en	3153
##िवारी	3154
साइबर	3155
बर्	3156
नामांकन	3157
शिविर	3158
मीणा	3159
डॉक्टरों	3160
अतिथि	3161
न्यायालय	3162
तिवारी	3163
दिशा	3164
##लाह	3165
आयुक्त	3166
इधर	3167
##फल	3168
वीर	3169
शासन	3170
##ir	3171
अधिकतम	3172
सालों	3173
बिग	3174
##्यार	3175
मैने	3176
निकाला	3177
सेक्टर	3178
यात्रियों	3179
पढ़ाई	3180
आब	3181
कैंप	3182
स्कूलों	3183
खाद	3184
मुकेश	3185
सुरक्षित	3186
योगी	3187
कश्म	3188
##ोश	3189
मनाया	3190
रैली	3191
चुनावी	3192
आकर	3193
गईं	3194
हमेशा	3195
चलने	3196
कब्जे	3197
कश्मीर	3198
नो	3199
उसमें	3200
##अप	3201
महिलाएं	3202
##्रमण	3203
प्लान	3204
पुरु	3205
सूर्य	3206
आल	3207
##डर	3208
##स्कृत	3209
दक्षिण	3210
संविधान	3211
पुरुष	3212
##ोई	3213
ऑटो	3214
##्यु	3215
देता	3216
जोड़	3217
इंटरने	3218
सर्वे	3219
गणेश	3220
##वां	3221
##ad	3222
##द्द	3223
युवकों	3224
पारी	3225
व्र	3226
हड़	3227
##jp	3228
##ेंशन	3229
विवाह	3230
पूछा	3231
शक्ति	3232
##मर	3233
प्लेट	3234
##मार्टम	3235
जिम्मेदारी	3236
यूनिवर्सिटी	3237
बढ़ाने	3238
##ांट	3239
अका	3240
सिद्ध	3241
सम्मानित	3242
तीसरे	3243
मरीजों	3244
जागरूक	3245
##सुर	3246
##वानी	3247
कुमारी	3248
इलेक्ट	3249
रिट	3250
सप्ताह	3251
गोल	3252
चयन	3253
रखे	3254
पोस्टमार्टम	3255
संबोधित	3256
नक	3257
##लेट	3258
कमरे	3259
एयरपोर्ट	3260
किनारे	3261
##स्तव	3262
सेक	3263
##वेज	3264
वर्ल्ड	3265
युद्ध	3266
पेपर	3267
मंडी	3268
खुलासा	3269
रिश्ते	3270
सामाजिक	3271
साध	3272
##नीय	3273
##ुर्ग	3274
##ष्ट्रीय	3275
##वाला	3276
नाग	3277
पस	3278
शिक्षकों	3279
उद्देश	3280
टू	3281
अभिय	3282
आंक	3283
हादसा	3284
##शाला	3285
##वुड	3286
##शिप	3287
रम	3288
उनको	3289
आठ	3290
खोल	3291
फॉ	3292
स्टूडेंट्स	3293
पाई	3294
##रीब	3295
खाली	3296
सपा	3297
गुजरात	3298
##लेश	3299
रहेंगे	3300
लिस्ट	3301
संपर्क	3302
रॉ	3303
पहुंचकर	3304
लाया	3305
अंब	3306
बेहद	3307
वित्त	3308
##णाम	3309
प्रबंधन	3310
जिसका	3311
##्यूटी	3312
अभ्य	3313
प्री	3314
राजा	3315
##्प	3316
दोष	3317
तकनी	3318
##ियस	3319
कार्यों	3320
70	3321
धार्	3322
फ्ला	3323
##उन	3324
सड़कों	3325
आइ	3326
वही	3327
##ुति	3328
80	3329
उड़	3330
##गण	3331
धार्मिक	3332
##िएशन	3333
बुज	3334
न्यून	3335
आयु	3336
भजन	3337
राजी	3338
##पुरी	3339
##ग्राम	3340
37	3341
##20	3342
समुदाय	3343
##कारों	3344
लंबे	3345
एक्	3346
##पत	3347
नारायण	3348
##ाफ	3349
33	3350
आता	3351
कौर	3352
न्यूनतम	3353
##बन	3354
##पंच	3355
बाकी	3356
##ंडल	3357
##ैर	3358
उपचार	3359
बुजुर्ग	3360
नग	3361
प्रखंड	3362
घुस	3363
##्रीन	3364
चौकी	3365
##सन	3366
##साय	3367
अधीक्षक	3368
##कत	3369
निर	3370
खूब	3371
##50	3372
पहल	3373
रेप	3374
आवाज	3375
खंड	3376
मुख्यालय	3377
प्रतिष्ठ	3378
पैसा	3379
जंगल	3380
##रत	3381
आदमी	3382
समाधान	3383
अभ्यर्थ	3384
मिस	3385
##गांव	3386
निर्धार	3387
पड़ी	3388
##लीवुड	3389
एक्टर	3390
प्रव	3391
पूजन	3392
इनके	3393
राकेश	3394
##जीव	3395
चौहान	3396
पोल	3397
##ाब	3398
##ुल्क	3399
पार्क	3400
कहानी	3401
199	3402
आखिरी	3403
सीजन	3404
मजदूर	3405
आउट	3406
ग्वाल	3407
शरीर	3408
##चु	3409
##le	3410
बताई	3411
मिलेगी	3412
ज्यो	3413
दिला	3414
खुश	3415
##परेशन	3416
व्रत	3417
##ेड़	3418
##it	3419
संदीप	3420
अमर	3421
मारने	3422
एजेंसी	3423
निर्वाचन	3424
##श्व	3425
एसोस	3426
ब्लॉक	3427
सफलता	3428
##ूस	3429
पुष्	3430
bjp	3431
वर्षों	3432
विषय	3433
##ानों	3434
इतनी	3435
इमेज	3436
प्राइवेट	3437
उद्देश्य	3438
##ानि	3439
लं	3440
लाने	3441
##सेना	3442
पहुंचने	3443
##मानत	3444
चेक	3445
थो	3446
ससुर	3447
##वाया	3448
रवाना	3449
उद्योग	3450
एग्	3451
अमृत	3452
स्पष्ट	3453
सुनिश्चित	3454
डेट	3455
फूल	3456
सेल्स	3457
रिस	3458
सत्ता	3459
हल	3460
काउ	3461
साब	3462
कमिश्न	3463
##वती	3464
##ढ़ी	3465
शुक्	3466
मानसून	3467
इंतजार	3468
परिणाम	3469
##फ्तार	3470
##ग्ध	3471
##र्पित	3472
वकी	3473
काल	3474
इंजी	3475
मार्केट	3476
सौंप	3477
फो	3478
##्रेन	3479
कैप्शन	3480
कहां	3481
स्टाफ	3482
खिलाड़ी	3483
आदित्य	3484
फाइनल	3485
ऑपरेशन	3486
सप	3487
##ेड	3488
##ारण	3489
##त्रि	3490
तुम	3491
प्रथम	3492
##वासियों	3493
भुगत	3494
##राय	3495
##गीय	3496
##रेन	3497
अमेरिकी	3498
उतर	3499
##ाजी	3500
फीट	3501
छोड़कर	3502
तिथि	3503
##ूषण	3504
##रु	3505
स्थापित	3506
##लिंग	3507
परिय	3508
मुह	3509
लक्ष्य	3510
शपथ	3511
राजधानी	3512
टाइ	3513
डिप्	3514
संतोष	3515
छात्राओं	3516
इतिहास	3517
##िये	3518
लॉन्च	3519
कमा	3520
##सित	3521
मिलता	3522
##क्सर	3523
प्रेर	3524
क्ला	3525
जम्म	3526
सूची	3527
रोकने	3528
ट्रैफिक	3529
विद्यार्थियों	3530
new	3531
परियोजना	3532
स्मार्ट	3533
सूत्र	3534
##कृत	3535
पार्ट	3536
##िमांड	3537
##िट्	3538
दबाव	3539
फायदा	3540
डिप्टी	3541
दस्ता	3542
##मैन	3543
##is	3544
किमी	3545
अरविंद	3546
माहौल	3547
जाति	3548
##ट्टी	3549
शंकर	3550
मेह	3551
प्रस्तुत	3552
निदेशक	3553
शै	3554
##यात	3555
सोनी	3556
##बीआई	3557
सहायता	3558
##ूनी	3559
##शील	3560
बुलाया	3561
इलेक्ट्र	3562
रफ्तार	3563
सौं	3564
उक्त	3565
शान	3566
बंध	3567
##र्जन	3568
चुनावों	3569
डीएम	3570
स्थानों	3571
प्रशिक्षण	3572
कक्षा	3573
36	3574
साथी	3575
##वीन	3576
जोन	3577
हिरासत	3578
जुड़ी	3579
ज्योति	3580
क़	3581
पेड़	3582
मशीन	3583
##त्त	3584
##ट्ट	3585
34	3586
किर	3587
गतिविध	3588
चिकित्	3589
ग्वालियर	3590
ड्यूटी	3591
##रेट	3592
गोपाल	3593
कंपनियों	3594
##ur	3595
बचाने	3596
मनीष	3597
बत	3598
मुर	3599
लै	3600
##वनी	3601
रोजगार	3602
हेम	3603
##गु	3604
समूह	3605
सैनी	3606
प्रिय	3607
##टेन	3608
जानते	3609
##न्द	3610
अनुमति	3611
##स्वी	3612
एसी	3613
##वधान	3614
प्रत्य	3615
महाम	3616
मध्यप्रदेश	3617
##di	3618
काट	3619
प्रम	3620
नीति	3621
पोस्टम	3622
बाढ़	3623
##क्का	3624
भाषा	3625
लापर	3626
रूम	3627
संचालक	3628
सेल्सियस	3629
इंजीनियर	3630
जम्मू	3631
चिंता	3632
सीनियर	3633
##्रेलिया	3634
##बीसी	3635
तारीख	3636
चिकित्सा	3637
पोस्टमॉर्ट	3638
अक्ष	3639
उज्ज	3640
विवे	3641
##क्रिय	3642
मुकदमा	3643
एसोसिएशन	3644
पोस्टमॉर्टम	3645
ऑस्ट	3646
टॉ	3647
बें	3648
##एंगे	3649
##द्दी	3650
स्कू	3651
मुकाबले	3652
मास	3653
शूट	3654
##am	3655
आरक्षण	3656
बॉलीवुड	3657
प्रिंस	3658
क्	3659
##थर	3660
##ौन	3661
##नेस	3662
करनी	3663
कप्तान	3664
चेयर	3665
फैसले	3666
कंट	3667
##्ब	3668
वेब	3669
निकले	3670
दास	3671
दाखिल	3672
बूथ	3673
##फॉर्म	3674
2021	3675
निर्धारित	3676
##क़	3677
संचालित	3678
जताई	3679
टूट	3680
निभा	3681
दाम	3682
फें	3683
##ay	3684
स्म	3685
रेड	3686
आरती	3687
ज्ञापन	3688
प्ला	3689
##ेन्द्र	3690
रखते	3691
फायरिंग	3692
जॉ	3693
जमानत	3694
धान	3695
##ौली	3696
##आईआर	3697
चांदी	3698
48	3699
##ंजन	3700
सेल	3701
##र्जर	3702
2025	3703
फैक्ट	3704
करवाई	3705
##्यता	3706
##काता	3707
000	3708
ग्रे	3709
मोटर	3710
##ांची	3711
रेफर	3712
क्रम	3713
##पेट	3714
##ाराम	3715
विश्	3716
कमिश्नर	3717
news	3718
झू	3719
भरा	3720
संपत्ति	3721
गौरव	3722
डायरेक्टर	3723
घूम	3724
चंडी	3725
##ेंगी	3726
नियंत्र	3727
मोहल्	3728
सप्लाई	3729
राजीव	3730
75	3731
नवा	3732
##स्टे	3733
पालन	3734
अट	3735
##ic	3736
सरपंच	3737
दुर्गा	3738
गिरावट	3739
टॉप	3740
हमारा	3741
पुराने	3742
स्टेट	3743
गोर	3744
दैनिक	3745
##स्ट्र	3746
कोलकाता	3747
रुक	3748
हरा	3749
##र्तन	3750
प्रत्येक	3751
स्पी	3752
इस्ती	3753
##व्यू	3754
लापरवाही	3755
अत	3756
खिलाड़ियों	3757
हिस्से	3758
उम्मीदवारों	3759
संसद	3760
किशोर	3761
दस	3762
चौथ	3763
हेड	3764
उपाध्यक्ष	3765
धीरे	3766
ठगी	3767
##ुक्ति	3768
किरा	3769
प्रदीप	3770
साउ	3771
##प्रीत	3772
ठंड	3773
सलाह	3774
सक्रिय	3775
करियर	3776
जिन्होंने	3777
55	3778
##ित्व	3779
##िलास	3780
आगामी	3781
ट्रैक्टर	3782
90	3783
खड़ा	3784
##ड़िया	3785
इंच	3786
वॉ	3787
##बारा	3788
रमेश	3789
पावर	3790
प्रतिमा	3791
डीसी	3792
साबित	3793
डॉलर	3794
सलमान	3795
क्षमता	3796
मांगी	3797
पुन	3798
उठाया	3799
पड़ता	3800
खाते	3801
जला	3802
नशे	3803
पहा	3804
करवाने	3805
जोध	3806
पैदा	3807
पसंद	3808
##लब	3809
संदेश	3810
अनुमान	3811
##म्प	3812
##ियाना	3813
विशाल	3814
चर	3815
तीसरी	3816
विस्तार	3817
अर्थ	3818
##पीएस	3819
स्टार	3820
जुट	3821
वितरण	3822
भावना	3823
विश्वास	3824
तिर	3825
मच	3826
##वंत	3827
##ेलन	3828
कमल	3829
स्टैंड	3830
अकाउंट	3831
##नाम	3832
ज्ञान	3833
आतंक	3834
चंडीगढ़	3835
अर्ज	3836
ओम	3837
##िमी	3838
##्रह	3839
प्रबंध	3840
इसको	3841
सोच	3842
इंडस्ट्री	3843
क्लब	3844
जोधपुर	3845
आती	3846
चुनौती	3847
हंग	3848
##ार्म	3849
आपकी	3850
तालाब	3851
कथा	3852
दवा	3853
भ्र	3854
फिल्मों	3855
कने	3856
गार्ड	3857
गोद	3858
##िनेट	3859
बुल	3860
इंस्प	3861
जिनमें	3862
नक्स	3863
##ाराण	3864
चाहता	3865
इंटरव्यू	3866
शही	3867
##्रेशन	3868
बढ़ने	3869
हालात	3870
##कर्मी	3871
##ेमारी	3872
##गणना	3873
cm	3874
एंट	3875
##नर	3876
##ंडर	3877
हाईवे	3878
छापेमारी	3879
साउथ	3880
इजरा	3881
पॉल	3882
##ईओ	3883
राजस्व	3884
महास	3885
घायलों	3886
संघर्ष	3887
मुद्दे	3888
वाराण	3889
विमान	3890
##राष्ट्रीय	3891
रूस	3892
वाराणसी	3893
##िड़	3894
##जिद	3895
##भार	3896
प्रमाण	3897
##ंदे	3898
##स्तर	3899
कर्मियों	3900
एफआईआर	3901
वाय	3902
##ेद	3903
##िले	3904
दूरी	3905
##ड्डा	3906
##घाटन	3907
कू	3908
प्यार	3909
##लेख	3910
निर्म	3911
##स्थल	3912
बिल्ड	3913
समीक्षा	3914
चाक	3915
हिंसा	3916
गुजर	3917
वोटिंग	3918
बल्ले	3919
निशाना	3920
चिकित्स	3921
##्वी	3922
##वली	3923
##ल्ल	3924
माध	3925
शेख	3926
योजनाओं	3927
ऑस्ट्रेलिया	3928
दान	3929
##सु	3930
##करा	3931
पुरानी	3932
टाइम	3933
बाग	3934
संदि	3935
खाना	3936
डिप	3937
भुगतान	3938
रद्द	3939
##ap	3940
कैब	3941
संदिग्ध	3942
खाने	3943
##ैट	3944
##ेक्टर	3945
##ुट	3946
बादल	3947
अनुप	3948
स्वतंत्र	3949
नियुक्त	3950
विभा	3951
ईरान	3952
##बार	3953
डेढ़	3954
दुर्घ	3955
स्थापना	3956
इंटरनेशनल	3957
##han	3958
भीतर	3959
##ार्व	3960
मॉडल	3961
एसडीएम	3962
प्रभा	3963
समाप्त	3964
##ोटा	3965
विकसित	3966
फैल	3967
यूनिट	3968
ठेके	3969
जबर	3970
सेंट	3971
##यं	3972
सकेंगे	3973
##सीय	3974
कानपुर	3975
विशेषज्ञ	3976
अच्छे	3977
फुटेज	3978
खड़ी	3979
##दल	3980
भीषण	3981
प्रेस	3982
दुर्घटना	3983
ओल	3984
पाली	3985
##मित	3986
##डियम	3987
##दिन	3988
शिकार	3989
सम्मेलन	3990
सर्विस	3991
##भाष	3992
गुल	3993
भरो	3994
##सीसी	3995
चलाया	3996
चेता	3997
दह	3998
राठ	3999
अंतरराष्ट्रीय	4000
अतिक	4001
रेट	4002
श्याम	4003
खुशी	4004
सत्य	4005
##ंती	4006
यात्री	4007
रांची	4008
।"	4009
##णि	4010
लेना	4011
##ोजक	4012
छोटी	4013
वृद्धि	4014
नज	4015
##काम	4016
##स्टल	4017
उपाय	4018
गांवों	4019
नर्स	4020
##दास	4021
कार्यकाल	4022
वकील	4023
तार	4024
बम	4025
##ol	4026
##केशन	4027
##हाद	4028
रहीं	4029
सार्व	4030
नेट	4031
अध्यक्षता	4032
टैक्स	4033
हटाने	4034
पवन	4035
##िवार	4036
##ानगर	4037
स्वीकार	4038
गरीब	4039
लू	4040
होनी	4041
गठन	4042
आक्र	4043
कथ	4044
द्व	4045
##पद	4046
##नाड	4047
##्यास	4048
##धीश	4049
स्वामी	4050
आंख	4051
उतार	4052
##तक	4053
राजेंद्र	4054
2014	4055
ऊंच	4056
##िपा	4057
##छा	4058
कोटा	4059
##द्रा	4060
बजकर	4061
स्टेडियम	4062
पश्चिमी	4063
उद्घाटन	4064
डाला	4065
पोर्ट	4066
##तु	4067
शहरों	4068
लड़ाई	4069
##धिकार	4070
##स्टेबल	4071
अके	4072
खर	4073
चार्ज	4074
##id	4075
##सेज	4076
दोबारा	4077
बीमार	4078
सोना	4079
जुर्म	4080
फैंस	4081
कैमरे	4082
अतिक्रमण	4083
300	4084
pr	4085
एच	4086
विज	4087
##ोग्राम	4088
सुरेश	4089
स्वच्छ	4090
बध	4091
मीटिंग	4092
बढ़ावा	4093
आखिर	4094
श्रद्धालुओं	4095
सोरेन	4096
हरि	4097
ट्रॉ	4098
चाहती	4099
आशंका	4100
आंध	4101
एरिया	4102
##हण	4103
कोह	4104
##ंपिक	4105
सूरज	4106
अरब	4107
शानदार	4108
इंस्पेक्टर	4109
जस	4110
नाय	4111
मस्	4112
##तो	4113
##काने	4114
##दाबाद	4115
दिनेश	4116
पुरस्कार	4117
पंडित	4118
इक	4119
##नल	4120
विष्ण	4121
जिन्हें	4122
ip	4123
सुल	4124
सख्त	4125
महोत्सव	4126
##जनिक	4127
पदों	4128
सौर	4129
हित	4130
##ंदन	4131
##िपल	4132
कठ	4133
दर्द	4134
सिन्	4135
##त्मा	4136
सार्वजनिक	4137
##ंगर	4138
##ोलॉ	4139
नियुक्ति	4140
नती	4141
वार्	4142
##टका	4143
जगहों	4144
प्रोफे	4145
एक्शन	4146
##ढ़े	4147
मौजू	4148
मिशन	4149
गे	4150
विज्ञान	4151
##ाइड	4152
लाखों	4153
अखिलेश	4154
##ंटर	4155
##ीता	4156
कुश	4157
##्मण	4158
स्ट्र	4159
लड़के	4160
तस्कर	4161
बचाव	4162
भ्रष्ट	4163
38	4164
यश	4165
लुध	4166
मौजूदा	4167
नारे	4168
नियमों	4169
गह	4170
जू	4171
##लान	4172
##et	4173
प्रारंभ	4174
सीता	4175
जानिए	4176
2020	4177
अपराधियों	4178
गौतम	4179
कैबिनेट	4180
##डेट	4181
संस्कार	4182
दरवा	4183
समस्याओं	4184
लुधियाना	4185
',	4186
रानी	4187
संजीव	4188
कारोबार	4189
एप	4190
नहर	4191
##hi	4192
महेंद्र	4193
मिलती	4194
आपका	4195
वेतन	4196
अफसरों	4197
up	4198
असम	4199
पंक	4200
##कारा	4201
शोर	4202
##पण	4203
चलाने	4204
विदेशी	4205
मध	4206
सका	4207
##ंसर	4208
सिन्हा	4209
##गन	4210
पहुंचाया	4211
दिव्या	4212
400	4213
शास	4214
##ब्लिक	4215
हल्की	4216
##्वे	4217
प्रवक्ता	4218
प्रोफेसर	4219
व्	4220
##बीन	4221
चारों	4222
सांस्कृत	4223
कर्ना	4224
आबादी	4225
चपेट	4226
बातें	4227
##राबाद	4228
लक्ष्मी	4229
टिप्	4230
##यत	4231
अरुण	4232
विनोद	4233
चेतावनी	4234
कच	4235
जस्ट	4236
दलों	4237
पेंशन	4238
माय	4239
लिम	4240
कमज	4241
मंजू	4242
धरना	4243
गोरख	4244
सांस्कृतिक	4245
42	4246
अंडर	4247
नवीन	4248
##ानु	4249
##गरानी	4250
अनुभव	4251
ट्रंप	4252
मनो	4253
आदिवासी	4254
चोरों	4255
नमः	4256
उत्साह	4257
क्लास	4258
शौ	4259
##कृ	4260
इसरा	4261
एंट्री	4262
कर्नाटक	4263
इंग	4264
कंग	4265
##ौड़	4266
परम	4267
दिवसीय	4268
##चुनाव	4269
डूब	4270
##पट	4271
सुंदर	4272
pm	4273
ऊर्जा	4274
##हारी	4275
उपचुनाव	4276
निकाली	4277
##तरीय	4278
ट्रांसफर	4279
चाकू	4280
निगरानी	4281
##साइड	4282
पंकज	4283
ईडी	4284
##नन	4285
निरा	4286
समझौ	4287
बिक्री	4288
धार	4289
##ra	4290
##र्ण	4291
इंडियन	4292
खुले	4293
चौराह	4294
घटनास्थल	4295
##वासन	4296
ब्रि	4297
योगदान	4298
काउंस	4299
मस्जिद	4300
##चिव	4301
बाय	4302
प्राण	4303
गतिविधियों	4304
re	4305
रास्ता	4306
राजकुमार	4307
कपड़े	4308
साहिब	4309
##म्बर	4310
बधाई	4311
##िंदर	4312
##र्में	4313
स्तरीय	4314
##ुल्ला	4315
##ुलेंस	4316
लड़क	4317
धोखा	4318
पथ	4319
##िफ	4320
सुभाष	4321
बेस	4322
मेर	4323
गायब	4324
उज्जैन	4325
44	4326
फ्री	4327
फॉर्म	4328
सारे	4329
##लीय	4330
बेट	4331
##धिकारियों	4332
एनडीए	4333
##ट्टा	4334
झग	4335
झां	4336
##सेस	4337
इन्	4338
लल	4339
प्रयोग	4340
समान	4341
सब्	4342
##स्कृति	4343
भक्तों	4344
भव्य	4345
रोल	4346
##क्न	4347
##ाजा	4348
बैग	4349
क्राइम	4350
प्रोड	4351
##फ्रेंस	4352
तृ	4353
इन्हें	4354
गैस	4355
धाम	4356
हैद	4357
मेहन	4358
नजदी	4359
सैनिक	4360
पूर्वी	4361
##साइट	4362
मानसिक	4363
संकल्प	4364
प्रतिनिध	4365
कंट्रोल	4366
हंगामा	4367
ब्रे	4368
##स्थिति	4369
फैक्ट्री	4370
डो	4371
भूप	4372
##टरी	4373
##वाड़ी	4374
संस्कृति	4375
देती	4376
##ष्टि	4377
पंजी	4378
आर्ट	4379
घे	4380
##कृति	4381
मुज	4382
सुसाइड	4383
निकला	4384
स्वयं	4385
जीतने	4386
##ट्‌	4387
निशान	4388
पांडे	4389
परिवहन	4390
ससुराल	4391
आकर्	4392
##िमा	4393
गुण	4394
विष्णु	4395
साढ़े	4396
गैर	4397
लाइट	4398
छठ	4399
लगाते	4400
बोला	4401
श्रीवा	4402
भरत	4403
उत्सव	4404
घोट	4405
रिश	4406
##्तीय	4407
##सवाल	4408
होम	4409
पर्यावरण	4410
टो	4411
वर	4412
अग्न	4413
मुक्त	4414
##विंदर	4415
वर्षा	4416
वित्तीय	4417
एडम	4418
व्यापारी	4419
सुनाई	4420
आना	4421
##ंपरा	4422
गोल्ड	4423
विभागों	4424
एडी	4425
खार	4426
कैला	4427
198	4428
सूत्रों	4429
श्रीवास्तव	4430
##चक	4431
##िनियम	4432
साज	4433
बोली	4434
विधाय	4435
श्रीराम	4436
खोज	4437
सीधे	4438
##ृत्य	4439
आएंगे	4440
कौशल	4441
46	4442
अल्	4443
गीत	4444
मंज	4445
मिट्	4446
##यी	4447
तिल	4448
इनकी	4449
डीएसपी	4450
हिंदी	4451
##कू	4452
उनमें	4453
##रोज	4454
कहती	4455
हजारों	4456
कानूनी	4457
खी	4458
जुल	4459
शख	4460
काबू	4461
दौड़	4462
भ्रष्टा	4463
आचार्य	4464
परंपरा	4465
अधिनियम	4466
पकड़े	4467
वापसी	4468
कब्जा	4469
आश्	4470
दर्श	4471
##िटेड	4472
##ोसी	4473
अनुर	4474
उधर	4475
दृष्ट	4476
हवाई	4477
##श्त	4478
सिंध	4479
भारती	4480
कमाई	4481
वेबसाइट	4482
कमजोर	4483
अक्सर	4484
घट	4485
##र्त	4486
महेश	4487
एमपी	4488
प्रियंका	4489
चेयरमैन	4490
अर्जुन	4491
इंग्ल	4492
मेहनत	4493
शुल्क	4494
##ंवर	4495
जाट	4496
##रेज	4497
लागत	4498
पुण	4499
खेला	4500
दस्तावेज	4501
काे	4502
अपर	4503
दुर्ग	4504
##un	4505
##ंद्र	4506
आगरा	4507
##कर्मियों	4508
शहीद	4509
कोहली	4510
##क्सी	4511
सीबीआई	4512
##गेट	4513
##ूर्त	4514
##कर्ता	4515
दिखाया	4516
संरक्षण	4517
##ाकर	4518
प्रती	4519
##राहा	4520
पत्थर	4521
चैंप	4522
मुकाबला	4523
ओड	4524
राज्यपाल	4525
हाथों	4526
इतने	4527
पारा	4528
फल	4529
##िफिक	4530
वेस्ट	4531
##एसआई	4532
व्यापार	4533
केन्द्र	4534
##नाक	4535
##स्सा	4536
राइ	4537
वर्क	4538
पासवान	4539
जुटी	4540
बॉक्स	4541
सैक	4542
##ड्डी	4543
आवश्यकता	4544
पांडेय	4545
खाद्य	4546
प्रतिष्ठा	4547
उचित	4548
तु	4549
रोग	4550
दिग्	4551
मानव	4552
डिजाइन	4553
हिसाब	4554
शूटिंग	4555
घरे	4556
##दिक	4557
किशन	4558
##क्षी	4559
मतदाता	4560
प्रिंसिपल	4561
65	4562
भंड	4563
##घा	4564
जैसा	4565
##सूस	4566
अजमेर	4567
श्रेणी	4568
लंबी	4569
ऑड	4570
मुआ	4571
रणनी	4572
##हत्या	4573
निष्	4574
##प्प	4575
एडव	4576
41	4577
खून	4578
शब्	4579
##तायात	4580
प्रतिबंध	4581
मुद्दों	4582
दोषी	4583
गर्म	4584
ताल	4585
बढ़ो	4586
पदार्थ	4587
भोजन	4588
फ्लाइट	4589
आश्वासन	4590
घरेलू	4591
लें	4592
सिया	4593
लेख	4594
सिने	4595
पीने	4596
जीता	4597
यातायात	4598
दूध	4599
प्लांट	4600
अहमद	4601
तुलना	4602
."	4603
नित	4604
ममता	4605
##ब्र	4606
##गाह	4607
स्कोर	4608
##आईटी	4609
कैलाश	4610
विरा	4611
##ायी	4612
##बाग	4613
विधि	4614
मतगणना	4615
संयोजक	4616
##िन्द	4617
महासचिव	4618
47	4619
दिक	4620
पायल	4621
बुरी	4622
##फिया	4623
साथियों	4624
जनरल	4625
निकली	4626
##र्ग	4627
लाश	4628
बनकर	4629
यूक	4630
##इंट	4631
##har	4632
कैद	4633
गिरने	4634
अवधि	4635
अश्व	4636
चीज	4637
कराए	4638
गोरखपुर	4639
इनकार	4640
दुबे	4641
चक्र	4642
##डिंग	4643
मुद्दा	4644
आत्महत्या	4645
विधायकों	4646
39	4647
सन	4648
##ियत	4649
स्‍	4650
ट्रेनिंग	4651
पक्षों	4652
निकलने	4653
आशीष	4654
हाइ	4655
हर्ष	4656
##द्योग	4657
निरीक्षक	4658
संभव	4659
जस्टिस	4660
लिमिटेड	4661
हफ्	4662
बाइ	4663
राउंड	4664
अपडेट	4665
##रेस्ट	4666
दीवार	4667
मोर्चा	4668
जाएं	4669
जबलपुर	4670
सामग्री	4671
##्लो	4672
जिलाध्यक्ष	4673
अमन	4674
प्रतिनिधि	4675
शुक्ला	4676
भ्रष्टाचार	4677
##ित्त	4678
##ल्थ	4679
राज्यसभा	4680
ट्रैक	4681
चीफ	4682
वसू	4683
##ौज	4684
##शोध	4685
##स्त्री	4686
स्न	4687
बढ़ती	4688
टाटा	4689
हेमंत	4690
विवेक	4691
इस्तीफा	4692
##कृष्ण	4693
शख्स	4694
नशा	4695
##ग्न	4696
##दीय	4697
बरसा	4698
प्रदर्श	4699
##ज्ञानिक	4700
ऑल	4701
##गो	4702
प्रण	4703
साझा	4704
नियमित	4705
कथित	4706
आरा	4707
ध्व	4708
महसूस	4709
मेले	4710
बढ़कर	4711
नील	4712
पलट	4713
आर्	4714
ऐलान	4715
छूट	4716
पाने	4717
##el	4718
दुष्	4719
लापता	4720
खारिज	4721
##ांश	4722
आईपी	4723
प्रशासनिक	4724
मेडल	4725
मुजफ्	4726
51	4727
पाइ	4728
कैंसर	4729
कुलदीप	4730
तेजस्वी	4731
आयुष	4732
आकाश	4733
जख	4734
##ड़ियां	4735
इंस्ट	4736
अर्चना	4737
नियंत्रण	4738
छत	4739
##्ट	4740
##िलंब	4741
प्रकरण	4742
##वाड़	4743
महतो	4744
मेला	4745
2018	4746
दुकानों	4747
बेचने	4748
तमिल	4749
दिक्क	4750
बड़	4751
##लैंड	4752
##डेंट	4753
##दर्शन	4754
गोयल	4755
महाप	4756
ओडिशा	4757
ताक	4758
हरी	4759
##चर्स	4760
##ाइयों	4761
खेती	4762
पड़ेगा	4763
माइ	4764
##्द	4765
##ीप	4766
##ट्यू	4767
होली	4768
##स्थाप	4769
हिम	4770
शिफ्ट	4771
न्यायाधीश	4772
केरल	4773
##्रो	4774
##लाइ	4775
ग्रा	4776
दौरे	4777
रुख	4778
कर्मी	4779
आह	4780
त्यो	4781
##रीन	4782
संह	4783
बीएस	4784
जाया	4785
सिम	4786
##रेली	4787
ज्यादातर	4788
हड़ताल	4789
त्योहार	4790
अना	4791
मंग	4792
##पूत	4793
##्योर	4794
मारे	4795
डिजिटल	4796
मुजफ्फर	4797
टूर्	4798
##नामेंट	4799
##जात	4800
मारकर	4801
##ोलॉजी	4802
धूप	4803
पब्लिक	4804
##पणी	4805
पार्किंग	4806
गुना	4807
मैचों	4808
अभिने	4809
बिल्डिंग	4810
एश	4811
कना	4812
##ॉम	4813
प्रार्थ	4814
बीमारी	4815
डीजल	4816
मतलब	4817
आधारित	4818
नागरिकों	4819
टूर्नामेंट	4820
अंद	4821
चम	4822
छोटा	4823
फते	4824
##मोह	4825
##bi	4826
##क्चर	4827
उपभ	4828
अपराधी	4829
भरोसा	4830
हफ्ते	4831
संहिता	4832
पश	4833
माने	4834
##us	4835
##ृज	4836
##रीय	4837
राजद	4838
रूट	4839
प्रतिभा	4840
##म्मत	4841
साजिश	4842
शर	4843
##कोट	4844
बढ़े	4845
संकट	4846
मतदाताओं	4847
आक्रोश	4848
पोर्टल	4849
टिप्पणी	4850
05	4851
नाल	4852
##ंथ	4853
##नीत	4854
समापन	4855
बच्चा	4856
रखना	4857
लाइस	4858
नक्सल	4859
43	4860
##वै	4861
##ंडे	4862
अधिव	4863
जनस	4864
उत्तरा	4865
एक्सपर्ट	4866
पदाधिकारियों	4867
##ब्ल्यू	4868
एग्जाम	4869
आसान	4870
##घु	4871
##वाय	4872
बताए	4873
जोशी	4874
चाहे	4875
मान्यता	4876
जयंती	4877
बॉल	4878
ब्रह	4879
जिम्मेदार	4880
अंग्रे	4881
किरदार	4882
पर्	4883
बिलास	4884
##गज	4885
##da	4886
सेट	4887
##स्म	4888
मैन	4889
वोटर	4890
हिसार	4891
मैनेजर	4892
सौंपा	4893
सिनेमा	4894
पव	4895
##यात्रा	4896
प्रावधान	4897
एक्टिव	4898
फुट	4899
चौराहे	4900
बढ़ोतरी	4901
यूक्रेन	4902
अल्प	4903
आर्य	4904
इच्छ	4905
गंग	4906
ठग	4907
फंस	4908
सकी	4909
##प्त	4910
कुर्	4911
##हरण	4912
मैसेज	4913
निर्द	4914
प्रश्न	4915
पड़ोसी	4916
##जलि	4917
मूवी	4918
विराट	4919
बिलासपुर	4920
मारा	4921
##बद्ध	4922
विजे	4923
उसको	4924
जुड़	4925
रखें	4926
यूज	4927
वैसे	4928
शुरुआती	4929
##ड्‌	4930
तकनीकी	4931
झु	4932
डू	4933
##गीर	4934
##्वल	4935
##वाले	4936
थानाध्यक्ष	4937
संभाल	4938
अक	4939
तनाव	4940
##िणी	4941
##घर	4942
संशोध	4943
कार्यवाही	4944
पुष्टि	4945
परिवारों	4946
##प्रकाश	4947
सेंट्र	4948
इस्ल	4949
##ंतर	4950
जीते	4951
जुड़ा	4952
गुर्जर	4953
मांगों	4954
वैज्ञानिक	4955
दोस्तों	4956
प्रस्तुति	4957
कंगना	4958
भड़	4959
जिसने	4960
मास्टर	4961
लड़ने	4962
हिस्सों	4963
##्‍या	4964
दौरा	4965
विद्युत	4966
जागरूकता	4967
अक्षय	4968
उपभो	4969
##यक	4970
विहार	4971
##रेन्द्र	4972
गोविंद	4973
लीटर	4974
फाइल	4975
लोह	4976
शक	4977
##फोन	4978
लीक	4979
रिजल्ट	4980
##केत	4981
राधा	4982
सकें	4983
बदले	4984
ड्रोन	4985
52	4986
जज	4987
लेंगे	4988
##हल	4989
##ूंगा	4990
##यां	4991
साव	4992
पहन	4993
कैंड	4994
आपूर्ति	4995
कहने	4996
नीरज	4997
बालिका	4998
कलेक्ट	4999
दलित	5000
##ड्ढ	5001
तहसीलदार	5002
जिंदगी	5003
अभ्यर्थियों	5004
फेंक	5005
49	5006
fir	5007
कस्	5008
चित्र	5009
वाद	5010
##धाम	5011
समन	5012
निधन	5013
सिंघ	5014
##ल्टी	5015
घटनाओं	5016
##फ्टी	5017
सचिन	5018
संगठनों	5019
कारोबारी	5020
शांत	5021
##िवे	5022
रिजर्व	5023
जनपद	5024
बनाना	5025
चलता	5026
शुभारंभ	5027
लिखित	5028
जताया	5029
##tion	5030
कवि	5031
##जारी	5032
##ख्	5033
##र्वाद	5034
पड़ताल	5035
टेक्न	5036
##एचओ	5037
कॉन्फ्रेंस	5038
पुष्प	5039
बेंगल	5040
अर्पित	5041
##डकर	5042
ग्राह	5043
टोल	5044
पंप	5045
फांसी	5046
बिर	5047
भरी	5048
लीड	5049
सारी	5050
सैन	5051
##्की	5052
##ab	5053
टीमों	5054
केंद्रों	5055
सफर	5056
खेले	5057
सांप	5058
आशीर्वाद	5059
जंग	5060
बाघ	5061
जाह	5062
जानें	5063
##ंधर	5064
##वरूप	5065
दर्जन	5066
दिलीप	5067
मानना	5068
150	5069
कितनी	5070
तत्कालीन	5071
जुर्माना	5072
हैदराबाद	5073
गले	5074
##ct	5075
##ितीय	5076
टीचर	5077
उल्लेख	5078
पिक	5079
##ैक्ट	5080
##नाल	5081
##बूर	5082
##ंधे	5083
पर्यटन	5084
स्वतंत्रता	5085
आवं	5086
##याल	5087
बाई	5088
साइक	5089
##काई	5090
##स्तानी	5091
क्षेत्रीय	5092
कितना	5093
कनाडा	5094
गड़	5095
ढा	5096
देखी	5097
गुम	5098
विद्या	5099
पुराना	5100
जवानों	5101
नही	5102
नृत्य	5103
फं	5104
क्षति	5105
पिछली	5106
197	5107
प्राचार्य	5108
प्रयाग	5109
जितेंद्र	5110
गेम	5111
सिख	5112
पीठ	5113
ट्रस्ट	5114
पौधे	5115
बृज	5116
##सारी	5117
##मल	5118
##कांत	5119
पिट	5120
आलम	5121
56	5122
खतरा	5123
गज	5124
गीता	5125
चिन	5126
लड़ा	5127
##वाना	5128
##शाली	5129
##स्टी	5130
टीमें	5131
बिजनेस	5132
##ग्रस्त	5133
लाइफ	5134
विपक्षी	5135
##िडेट	5136
मेन	5137
देखें	5138
अफ्री	5139
तस्करी	5140
##ंख्य	5141
इश	5142
तल	5143
##ेन	5144
##वाहा	5145
बच्चन	5146
पालिका	5147
फाउंड	5148
बिगड़	5149
ओपन	5150
##सराय	5151
कोर	5152
इंजन	5153
शाखा	5154
बदलने	5155
परिवर्तन	5156
उत्पादन	5157
प्रेरित	5158
लाइसेंस	5159
रोका	5160
सदन	5161
कोचिंग	5162
सोनू	5163
सेंट्रल	5164
पेर	5165
सश	5166
अपहरण	5167
हिमा	5168
##ंटों	5169
श्रील	5170
चेहरे	5171
पत्रकार	5172
साहब	5173
कैंडिडेट	5174
फर्	5175
मूर्ति	5176
##फान	5177
##्याज	5178
सीकर	5179
##पात	5180
दिलाने	5181
जल्दी	5182
तहरीर	5183
##रजेंसी	5184
गर	5185
वादा	5186
##क्‍	5187
राजपूत	5188
##दीश	5189
मांगे	5190
बढ़ी	5191
पैदल	5192
खरीदी	5193
जायसवाल	5194
##द्दीन	5195
मंजूरी	5196
इसराइल	5197
चैंपियन	5198
पाइप	5199
नै	5200
सना	5201
##रस	5202
##डीह	5203
चौराहा	5204
मिट्टी	5205
सैकड़ों	5206
छीन	5207
रहना	5208
मुंह	5209
बेस्ट	5210
ग्रहण	5211
संबंधी	5212
संगीत	5213
विरोधी	5214
ऐप	5215
##गति	5216
##वक	5217
राजकीय	5218
##्रेड	5219
##ाइट	5220
विक्रम	5221
आईटी	5222
खेलने	5223
श्रद्धालु	5224
प्लेटफॉर्म	5225
मचा	5226
##संख्य	5227
पुत	5228
##लोड	5229
किराए	5230
गाली	5231
जहा	5232
##ho	5233
मंदिरों	5234
गाड़ियों	5235
देवेंद्र	5236
संपन्न	5237
इमरजेंसी	5238
नवरा	5239
प्रयागराज	5240
जिक्र	5241
सहमति	5242
जिनके	5243
सदस्यता	5244
सिलस	5245
शासकीय	5246
डांस	5247
देरी	5248
मांगा	5249
##000	5250
जगदीश	5251
ट्रेनों	5252
मिमी	5253
राजू	5254
पदक	5255
मजबूर	5256
मेरठ	5257
मुआव	5258
00	5259
पवार	5260
भरे	5261
मारी	5262
सतीश	5263
नेपाल	5264
महज	5265
खरीदने	5266
गली	5267
दायर	5268
सॉ	5269
##ोली	5270
##अल	5271
टी20	5272
गिरोह	5273
##ट्रो	5274
जालंधर	5275
रजिस्ट्रेशन	5276
दुष्कर्म	5277
एटी	5278
गिरी	5279
##il	5280
रहें	5281
अंसारी	5282
##वरों	5283
गुट	5284
##धिकरण	5285
भरने	5286
भेजने	5287
शोभा	5288
##वर्धन	5289
तमाम	5290
ग्राउंड	5291
99	5292
छेड़	5293
किरण	5294
काली	5295
मोड़	5296
महाकाल	5297
हेल्थ	5298
निकालने	5299
नाराजगी	5300
अमृतसर	5301
ग़	5302
पाप	5303
फरी	5304
नेहर	5305
मुसल	5306
##काया	5307
रोहत	5308
भागने	5309
लालू	5310
नरेश	5311
इलेक्ट्रिक	5312
ग्रीन	5313
दाय	5314
पर्स	5315
भोग	5316
##्तिक	5317
लाठी	5318
महाविद्यालय	5319
सुनकर	5320
टाइगर	5321
सौरभ	5322
श्रीलंका	5323
एएसआई	5324
लीग	5325
आइए	5326
फोर्स	5327
ठेकेदार	5328
58	5329
##्ति	5330
कार्तिक	5331
##ंपल	5332
बहस	5333
विकल्प	5334
12वीं	5335
##त्साह	5336
##ing	5337
नजदीक	5338
इव	5339
चैन	5340
##im	5341
प्रजा	5342
##न्स	5343
महादेव	5344
मुहूर्त	5345
मुसलमान	5346
धूम	5347
##रिए	5348
##कट	5349
करण	5350
प्रगति	5351
हुईं	5352
सैल	5353
बजाय	5354
##्‍य	5355
इंग्लैंड	5356
01	5357
बोर	5358
##मेट	5359
नाथ	5360
महीनों	5361
रोजाना	5362
##कारात्मक	5363
अने	5364
औसत	5365
पशु	5366
मस	5367
रेंज	5368
##राधिक	5369
निर्मा	5370
आपराधिक	5371
आदर्श	5372
उठाए	5373
त्रिपा	5374
थोड़ी	5375
दिक्कत	5376
त्रिपाठी	5377
उल	5378
##ak	5379
सेन	5380
##्यूल	5381
बाड़	5382
##ार्ग	5383
अब्द	5384
2017	5385
बिल्क	5386
##मोहन	5387
गड़ब	5388
मप्र	5389
लोन	5390
##बारी	5391
महंत	5392
##ष्टमी	5393
मात्रा	5394
आजम	5395
प्रतिक्र	5396
वसूली	5397
हिमाचल	5398
रोहतक	5399
घा	5400
बहाद	5401
रस	5402
##डिया	5403
##भूषण	5404
##श्री	5405
##र्टी	5406
रात्रि	5407
##जनक	5408
होंगी	5409
इंद्र	5410
पकड़ने	5411
मैनेज	5412
जबरद	5413
प्रतिक्रिया	5414
रिमांड	5415
##ंश	5416
##शंकर	5417
किताब	5418
##वार्	5419
##सीना	5420
पहुंचाने	5421
आरोपों	5422
कैमरा	5423
उल्ल	5424
आंध्र	5425
अस्थ	5426
एंब	5427
बस्ती	5428
भक्ति	5429
रथ	5430
सराह	5431
##पे	5432
प्राधिकरण	5433
व्यवसाय	5434
तीसरा	5435
आश्रम	5436
कनेक्शन	5437
बिल्कुल	5438
ज्व	5439
टेंडर	5440
करोड़ों	5441
बचने	5442
##ुनिक	5443
सकेगा	5444
पाठक	5445
स्वच्छता	5446
नायब	5447
बेंगलुरु	5448
नेहरू	5449
54	5450
आशा	5451
तेंद	5452
वाइ	5453
हेत	5454
जाप	5455
एकाद	5456
संभाग	5457
बढ़ते	5458
मीना	5459
प्रोत्साह	5460
##एडा	5461
बाब	5462
पीट	5463
##ज़ा	5464
कितने	5465
##ंघन	5466
डेटा	5467
झूठ	5468
72	5469
फंड	5470
बिश्न	5471
दीपा	5472
बॉर्डर	5473
एशिया	5474
रक्त	5475
##िद्ध	5476
##वस्था	5477
##पत्र	5478
##झी	5479
बैटरी	5480
जीव	5481
रखकर	5482
आदित्यनाथ	5483
##रुद्ध	5484
टकरा	5485
निलंब	5486
फोर	5487
##ction	5488
सुझा	5489
आपत्ति	5490
वोटों	5491
तलाशी	5492
द्वितीय	5493
##तिया	5494
अनुरा	5495
पीजी	5496
टीवी	5497
भाषण	5498
इंस्टा	5499
बिश्नोई	5500
गहरा	5501
नंद	5502
शीत	5503
##डन	5504
##भूम	5505
संसा	5506
मेट्रो	5507
संसदीय	5508
शीर्ष	5509
रिसर्च	5510
महामंत्री	5511
##नाडु	5512
रिश्व	5513
अल्पसंख्य	5514
साइकिल	5515
एंटी	5516
खनन	5517
##ोत्	5518
##धड़ी	5519
##यम	5520
लोकतंत्र	5521
##आरपी	5522
मृत्यु	5523
##ार्टमेंट	5524
नोएडा	5525
गढ़	5526
नाले	5527
##av	5528
केश	5529
##ोंक	5530
विरुद्ध	5531
रावत	5532
संवाद	5533
आजाद	5534
पोस्टर	5535
बीकाने	5536
कारणों	5537
तीर्थ	5538
पायलट	5539
इवेंट	5540
डिमांड	5541
सार	5542
मुझ	5543
##ोजन	5544
कैश	5545
देशभर	5546
मृतका	5547
प्रभु	5548
तुलसी	5549
बल्लेबाज	5550
जख्मी	5551
हेतु	5552
रिश्वत	5553
04	5554
अरेस्ट	5555
नरेन्द्र	5556
मक	5557
हार्	5558
दुख	5559
सुरेंद्र	5560
पढ़ने	5561
गठित	5562
समीप	5563
तमिलनाडु	5564
बीकानेर	5565
ओपी	5566
भती	5567
##मती	5568
विप	5569
एनसी	5570
दुकानदार	5571
जूनियर	5572
दिव्यांग	5573
##ांजलि	5574
##ंत्रित	5575
आएगी	5576
दावे	5577
वैश्व	5578
लड़कियों	5579
धोखाधड़ी	5580
ताकत	5581
एकादशी	5582
वैश्विक	5583
सर्क	5584
##धीन	5585
##कांड	5586
##िलाई	5587
##एसएस	5588
ऑफर	5589
##तिहासिक	5590
पटवारी	5591
नर्सिंग	5592
गुणव	5593
उल्लंघन	5594
गार	5595
भि	5596
शह	5597
##एमसी	5598
अभिन	5599
##देन	5600
स्नान	5601
02	5602
st	5603
घंटों	5604
डें	5605
पृ	5606
विस	5607
सच्च	5608
लेन	5609
मिश्र	5610
##साइकिल	5611
सहयोगी	5612
तस्वीरें	5613
जिंदा	5614
अकेले	5615
आकर्ष	5616
आधा	5617
चक्कर	5618
हॉल	5619
##डब्ल्यू	5620
##परा	5621
##दर	5622
काला	5623
##क्की	5624
बातों	5625
आपने	5626
सबूत	5627
प्रतिदिन	5628
मानते	5629
छोड़ने	5630
चाचा	5631
##ुल्लाह	5632
प्रार्थना	5633
बाड़मेर	5634
सुझाव	5635
बुरा	5636
भले	5637
शहरी	5638
##एएस	5639
##om	5640
लेवल	5641
स्क्रीन	5642
प्रशांत	5643
कृष्	5644
तोड़कर	5645
पूर्णिमा	5646
प्रेमी	5647
ब्रेक	5648
पिटाई	5649
53	5650
मथ	5651
शारी	5652
##सला	5653
निर्दलीय	5654
अफ्रीका	5655
खन्ना	5656
दुल	5657
रकम	5658
शिल	5659
##धित	5660
##िको	5661
एकड़	5662
पुलिसकर्मी	5663
एसटी	5664
बालक	5665
न्यायिक	5666
शारीरिक	5667
मणि	5668
साय	5669
##क्ष्य	5670
कार्यरत	5671
उपस्थिति	5672
रोशन	5673
गिरि	5674
जिनकी	5675
कॉलेजों	5676
इंदिरा	5677
यूनियन	5678
विद्यार्थी	5679
फ्लैट	5680
57	5681
लव	5682
##जिए	5683
देगा	5684
##्रीट	5685
मेघ	5686
प्रदूषण	5687
रिक्	5688
पर्याप्त	5689
छुट्टी	5690
##्योरिटी	5691
ऐतिहासिक	5692
पप्	5693
बांस	5694
##जान	5695
##गरी	5696
##ed	5697
##क्ताओं	5698
जनजा	5699
मुखिया	5700
कार्यक्रमों	5701
बसपा	5702
स्पोर्ट	5703
मूल्य	5704
अंकित	5705
मधु	5706
खत	5707
शाय	5708
शोध	5709
##ंगन	5710
उठाने	5711
कन्या	5712
गुणवत्ता	5713
09	5714
ईश	5715
नर्म	5716
बट	5717
##वर्क	5718
कांड	5719
##िसी	5720
##प्टर	5721
सब्जी	5722
सैन्य	5723
आधिकार	5724
फूड	5725
##रानी	5726
हुस	5727
अमिता	5728
ज़्यादा	5729
03	5730
85	5731
बंट	5732
##th	5733
##नाएं	5734
समृ	5735
राजन	5736
बैठकर	5737
रेस्क	5738
खेतों	5739
भजनलाल	5740
संशोधन	5741
बहादुर	5742
आधिकारिक	5743
##ैम	5744
जाये	5745
##कीम	5746
##स्टिक	5747
पात्र	5748
मिथ	5749
व्यापारियों	5750
जोरदार	5751
व्यक्तियों	5752
पॉइंट	5753
आलोक	5754
मोटरसाइकिल	5755
खींच	5756
कच्च	5757
डिली	5758
सपोर्ट	5759
##cc	5760
संकेत	5761
सिपा	5762
सुप	5763
##वीय	5764
अस्पतालों	5765
##पूर्व	5766
अभ्यर्थी	5767
राणा	5768
मुक्ति	5769
मात्र	5770
बैठा	5771
पीछा	5772
अरो	5773
देगी	5774
##वीण	5775
इनका	5776
##्यूज	5777
आसानी	5778
सुविधाओं	5779
##ध्याय	5780
मोहल्ले	5781
इंस्टाग्राम	5782
डेंगू	5783
रेस्क्यू	5784
सिपाही	5785
गये	5786
वास	5787
शरण	5788
प्रोग्राम	5789
मेयर	5790
सामुदाय	5791
गलती	5792
कॉन्स्टेबल	5793
सेकेंड	5794
ब्रह्म	5795
सामुदायिक	5796
भूल	5797
##वण	5798
सामूह	5799
लगते	5800
द्वार	5801
कलेक्शन	5802
प्राथमिकता	5803
प्रतीक	5804
कृष्णा	5805
सामूहिक	5806
तू	5807
धीर	5808
##हाबाद	5809
माफी	5810
मांगने	5811
पड़ोस	5812
अभियंता	5813
शरद	5814
नर्मदा	5815
कुर	5816
जश	5817
ढाई	5818
फेल	5819
मित्र	5820
कोर्स	5821
##पुरम	5822
##विड	5823
कमांड	5824
बसों	5825
मौजूदगी	5826
माध्यमिक	5827
सिक्योरिटी	5828
दशक	5829
अंबानी	5830
उत्तराखंड	5831
78	5832
ढूं	5833
धर्में	5834
##िंपिक	5835
संध्या	5836
##ाप्ति	5837
एसएसपी	5838
##वलप	5839
सुविधाएं	5840
कर्ज	5841
बरा	5842
##बॉल	5843
प्रवीण	5844
भील	5845
निप	5846
भेजे	5847
प्रसिद्ध	5848
सिलेंडर	5849
क्वि	5850
स्पीकर	5851
बरसात	5852
समन्व	5853
67	5854
##ुए	5855
##os	5856
अनंत	5857
##स्तक	5858
अवॉर्ड	5859
अगली	5860
डीजी	5861
जेपी	5862
संस्थानों	5863
मेहता	5864
पुणे	5865
महापौर	5866
सर्ट	5867
##निक	5868
सीईओ	5869
अधिकांश	5870
व्यवहार	5871
चीनी	5872
पौध	5873
चढ़ा	5874
मजदूरी	5875
##lection	5876
प्रमोद	5877
स्कूटी	5878
हराया	5879
चौथे	5880
मनोहर	5881
घोटाले	5882
मुजफ्फरपुर	5883
पप्पू	5884
धर्मेंद्र	5885
##ाग	5886
स्टी	5887
उन्	5888
##ाहरण	5889
##्वान	5890
पिस्टल	5891
शास्त्री	5892
रावण	5893
फॉर	5894
झगड़ा	5895
कलेक्ट्रेट	5896
सनातन	5897
अनेक	5898
06	5899
अवि	5900
आंगन	5901
रिल	5902
सीओ	5903
बीबीसी	5904
बिंद	5905
जिलाधिकारी	5906
गंभीरता	5907
नौकर	5908
तलाक	5909
मार्गदर्शन	5910
व्यापक	5911
स्मृति	5912
ललित	5913
जुलूस	5914
an	5915
अथ	5916
जि	5917
ताज	5918
तबी	5919
।'	5920
##ac	5921
सेमी	5922
##्वरी	5923
भागी	5924
निकाय	5925
आईं	5926
चंदन	5927
विजेता	5928
बग	5929
हसीना	5930
##ानंद	5931
रहकर	5932
196	5933
आग्रह	5934
परीक्षण	5935
ब्रिज	5936
चांद	5937
गोदाम	5938
##छाड़	5939
दीपावली	5940
अमिताभ	5941
ed	5942
हंस	5943
##कां	5944
काशी	5945
समर्पित	5946
बीमा	5947
बहु	5948
गेंदबाज	5949
आतंकी	5950
##स्‍ट	5951
##द्योगिक	5952
यूजर्स	5953
तबीयत	5954
95	5955
अमी	5956
आलो	5957
ईवी	5958
कं	5959
गाज	5960
ठिक	5961
भाइयों	5962
मर्डर	5963
##ri	5964
##ारायण	5965
आएगा	5966
लिंक	5967
ऑफिसर	5968
गर्ग	5969
##बेडकर	5970
एंबुलेंस	5971
रिक्शा	5972
एआई	5973
गाने	5974
जानी	5975
टर्म	5976
बजर	5977
रतन	5978
##जिट	5979
##नपुर	5980
##सूर	5981
##डू	5982
##षिक	5983
##सीबी	5984
पुलिसकर्मियों	5985
अनिवार	5986
जीती	5987
##एसटी	5988
गुस्सा	5989
धन्य	5990
चलेगा	5991
इंतजाम	5992
ट्रॉफी	5993
गव	5994
बघ	5995
मानी	5996
सारा	5997
स्वरूप	5998
बेहत	5999
कामया	6000
माफिया	6001
गुला	6002
संबंधों	6003
शेष	6004
##प्रत	6005
##म्ब	6006
बाजारों	6007
पाकिस्तानी	6008
वास्तव	6009
##चंद्र	6010
आति	6011
इकाई	6012
चिल	6013
बौ	6014
रंजन	6015
##ंजी	6016
शेड	6017
मिलाकर	6018
दिखे	6019
कटौती	6020
सुनीता	6021
64	6022
vs	6023
यहीं	6024
##ट्स	6025
##sp	6026
जनसभा	6027
चलाई	6028
स्वर्ण	6029
चीजों	6030
वायु	6031
##वरा	6032
##पो	6033
##eo	6034
सीख	6035
बिहारी	6036
##न्नी	6037
प्रतिपक्ष	6038
##एससी	6039
कुलपति	6040
तैयारियां	6041
बलराम	6042
मनाई	6043
डालने	6044
धाराओं	6045
काउंसिल	6046
रणनीति	6047
62	6048
खिल	6049
भीम	6050
पीएच	6051
बहुम	6052
अलवर	6053
रेस्ट	6054
चेन	6055
फार्म	6056
##पक	6057
##ांतर	6058
राध	6059
##क्षर	6060
बहनों	6061
##धीर	6062
जवाहर	6063
समर्थकों	6064
रीवा	6065
विभागीय	6066
नक्सलियों	6067
अधिवक्ता	6068
आभार	6069
गि	6070
##भाल	6071
##दाय	6072
कोट	6073
समक्ष	6074
##किट	6075
कमलेश	6076
ब्रांच	6077
चालू	6078
गुप्त	6079
प्रबंधक	6080
क्षतिग्रस्त	6081
फाउंडेशन	6082
##प्रतिनि	6083
ra	6084
मछ	6085
##ोकेट	6086
##वेल	6087
प्रॉप	6088
बढ़त	6089
समाजवादी	6090
छोड़ा	6091
पूर्णिया	6092
मजदूरों	6093
तिरंगा	6094
ओलिंपिक	6095
अग्नि	6096
पिकअप	6097
हुसैन	6098
कल्	6099
पंत	6100
##ोम	6101
किंग	6102
समस्त	6103
एससी	6104
2016	6105
ब्लड	6106
व्ही	6107
आह्वान	6108
एके	6109
मय	6110
माला	6111
##धुनिक	6112
##ok	6113
##ार्क	6114
सुमित	6115
बुक	6116
आईडी	6117
राशिफल	6118
कुशवाहा	6119
भूपेंद्र	6120
इच्छा	6121
इस्लाम	6122
सर्टिफिक	6123
टूर	6124
ब्ला	6125
हिन्द	6126
##तान	6127
पीटा	6128
उपकरण	6129
सेवाएं	6130
कलाकारों	6131
##ानिस्तान	6132
राठौड़	6133
एडवोकेट	6134
प्रणाली	6135
मथुरा	6136
शायद	6137
औद्योगिक	6138
खंग	6139
गड्ढ	6140
दफ्त	6141
लक	6142
सर्च	6143
हेल	6144
##नम	6145
##टिल	6146
##दर्	6147
प्रसार	6148
संज्ञान	6149
##िस्ट्रेट	6150
ज़र	6151
ढूंढ	6152
अटल	6153
फुल	6154
बं	6155
भगत	6156
हस्त	6157
##्का	6158
##डम	6159
जाएंगी	6160
जनप्रतिनि	6161
एसआई	6162
मंत्रियों	6163
उड़ान	6164
प्रभावी	6165
66	6166
अदा	6167
गयी	6168
विल	6169
##वर्ती	6170
##लेस	6171
कुत्	6172
बॉडी	6173
समर्थक	6174
रिश्तेदार	6175
इजराइल	6176
पवित्र	6177
59	6178
खात	6179
यौन	6180
##बंदी	6181
##कै	6182
काग	6183
विम	6184
##राइ	6185
अपमान	6186
##त्कार	6187
सीपी	6188
हाे	6189
हाथी	6190
##ार्थी	6191
फेस	6192
सपना	6193
स्पोर्ट्स	6194
डायल	6195
दर्	6196
सर्ज	6197
##टाला	6198
##ब्यू	6199
##धारी	6200
##वाज	6201
##ियंस	6202
एकत्र	6203
अध्य	6204
##ंचाई	6205
कैप	6206
चलती	6207
##र्पण	6208
कलाकार	6209
तकनीक	6210
दरवाजा	6211
07	6212
टन	6213
##ya	6214
विज्ञ	6215
हीट	6216
##क्टर्स	6217
कॉम	6218
हिंदुओं	6219
उतारा	6220
प्रॉपर्टी	6221
ऑर्डर	6222
चंप	6223
लैंड	6224
सीतार	6225
महान	6226
इंसान	6227
##बाड़ी	6228
पढ़िए	6229
मध्यम	6230
शास्त्र	6231
बतौर	6232
गेह	6233
नारेबाजी	6234
झांसी	6235
##जद	6236
##ौत	6237
##ॉड	6238
राशन	6239
बनर्जी	6240
फिरोज	6241
शिवसेना	6242
ब्राह	6243
व्यक्तिगत	6244
अनुरोध	6245
al	6246
असल	6247
लह	6248
हक	6249
##ंव	6250
##ारों	6251
करनाल	6252
एकता	6253
बीती	6254
बनाते	6255
चौटाला	6256
##ड्डू	6257
थोड़ा	6258
आंखों	6259
जाहिर	6260
हार्दिक	6261
बेहतरीन	6262
पटा	6263
##बत	6264
##क्यू	6265
##भि	6266
##षभ	6267
##सेन	6268
##पीओ	6269
##द्वारा	6270
चेहरा	6271
फीचर्स	6272
दिखाने	6273
ख़िला	6274
indi	6275
फतेह	6276
इको	6277
##चि	6278
##ह्न	6279
##बरा	6280
##शियों	6281
##नामा	6282
##क्षेत्र	6283
##गेड	6284
आपसी	6285
डिवाइ	6286
##ेंट्स	6287
##न्नई	6288
पार्टियों	6289
अत्य	6290
अनिवार्य	6291
अख	6292
गिल	6293
चाय	6294
फोक	6295
सीआई	6296
बढ़ाया	6297
रोम	6298
पेय	6299
तेलंग	6300
इंजीनियरिंग	6301
ब्रिगेड	6302
टेक्नोलॉजी	6303
पृथ	6304
धन्यवाद	6305
गवर्न	6306
फाइ	6307
##इंग	6308
मनु	6309
कपिल	6310
##ज़र	6311
श्रद्धांजलि	6312
##स्वामी	6313
##व्यवस्था	6314
स्मार्टफोन	6315
अनुराग	6316
एव	6317
चिरा	6318
धु	6319
फिट	6320
रौ	6321
रचना	6322
##सिया	6323
स्कीम	6324
आपस	6325
##भाग्य	6326
##िमंडल	6327
आसमान	6328
समझा	6329
एजेंस	6330
शुभकाम	6331
टाउन	6332
छेड़छाड़	6333
ख़िलाफ़	6334
तेलंगाना	6335
##िष्ट	6336
##दन	6337
बाबू	6338
##टेक	6339
##लोत	6340
चेकिंग	6341
जीतकर	6342
उदाहरण	6343
मिठ	6344
खाता	6345
क्विंट	6346
गला	6347
बारी	6348
रिव	6349
काटने	6350
जिसको	6351
जोड़ी	6352
स्टोर	6353
डिफ	6354
मनाने	6355
रिपोर्ट्स	6356
आमिर	6357
भेजी	6358
मिसाइल	6359
आचार	6360
ऋषि	6361
टार	6362
मरा	6363
लिये	6364
##सद	6365
##हूर	6366
##मपुर	6367
##ul	6368
##नाइ	6369
##ुलर	6370
सील	6371
##ूलाल	6372
250	6373
साइड	6374
खासकर	6375
चलेगी	6376
समझौता	6377
अरोड़ा	6378
टुक	6379
लाई	6380
रामल	6381
रेड्डी	6382
फिल्में	6383
जगत	6384
खेली	6385
संभावित	6386
मशहूर	6387
##्हा	6388
##क्के	6389
बाहरी	6390
हुड्डा	6391
मोड	6392
##ट्ठा	6393
##कालीन	6394
हिंदु	6395
लोकेशन	6396
उपाध्याय	6397
मोहल्ला	6398
अर्थव्यवस्था	6399
आलोचना	6400
सर्टिफिकेट	6401
su	6402
अजीत	6403
आसार	6404
खतर	6405
दृ	6406
##ोपुर	6407
##ॉय	6408
निम	6409
सुमन	6410
नीट	6411
यूरो	6412
चेन्नई	6413
टेली	6414
कलश	6415
डालकर	6416
##िवेदी	6417
ब्राह्मण	6418
टारगेट	6419
71	6420
गाइड	6421
घेर	6422
ठहरा	6423
डेम	6424
करो	6425
कारा	6426
सिंचाई	6427
कमला	6428
आजादी	6429
अमे	6430
ब्रांड	6431
किशोरी	6432
मलिक	6433
जोड़ने	6434
गारंटी	6435
जं	6436
शिर	6437
सेल्	6438
##ांशु	6439
सास	6440
मेक	6441
अनुसू	6442
लिहा	6443
महावीर	6444
शिवराज	6445
##ार्थियों	6446
उठाकर	6447
##शेखर	6448
विनय	6449
आंकड़े	6450
दर्शकों	6451
खतरे	6452
रियल	6453
सकारात्मक	6454
संदे	6455
अध्या	6456
बहू	6457
एनएच	6458
मजिस्ट्रेट	6459
##and	6460
लक्ष्मण	6461
कचरा	6462
सत्या	6463
##मेल	6464
##ौदा	6465
##em	6466
##ॉस	6467
##नाश	6468
लाए	6469
हरकत	6470
माया	6471
गाड़ियां	6472
शुक्ल	6473
गहलोत	6474
एडमिशन	6475
नितिन	6476
एटीएम	6477
बघेल	6478
अनी	6479
ब्याज	6480
शेर	6481
##जो	6482
##्रु	6483
##सीडेंट	6484
बेल	6485
आईएएस	6486
सुनने	6487
##िंदे	6488
लंबित	6489
नकली	6490
मासूम	6491
मैनेजमेंट	6492
94	6493
क्वाल	6494
चू	6495
छू	6496
##धारा	6497
##iv	6498
##ंचल	6499
श्रीकृष्ण	6500
रविंद्र	6501
संभल	6502
##तलब	6503
61	6504
आस्था	6505
गू	6506
चत	6507
हसन	6508
##साई	6509
बेरोज	6510
स्थिर	6511
बैं	6512
शुद्ध	6513
वैष्ण	6514
साइंस	6515
शाही	6516
स्वीकृति	6517
तिलक	6518
फर्स्ट	6519
निलंबित	6520
मणिपुर	6521
गेहूं	6522
गिन	6523
ग्लो	6524
जद	6525
ठाकर	6526
दाद	6527
रवी	6528
सक्	6529
##पल	6530
करंट	6531
होश	6532
सावन	6533
मुठ	6534
##ल्ला	6535
मेल	6536
महात्मा	6537
इंचार्ज	6538
कविता	6539
चिन्ह	6540
##रिएंट	6541
बहुमत	6542
..	6543
81	6544
चतु	6545
रघु	6546
##स्फ	6547
साझे	6548
समु	6549
पाते	6550
##वंशी	6551
नामक	6552
नाटक	6553
कृपा	6554
##स्वती	6555
वीरेंद्र	6556
मुआवजा	6557
क्विंटल	6558
76	6559
कल्प	6560
मवेश	6561
विनेश	6562
वेद	6563
घटनाएं	6564
आमजन	6565
गौरतलब	6566
अभियुक्त	6567
वार्ता	6568
मुठभ	6569
गत	6570
छिप	6571
हार्ट	6572
##जुट	6573
##हित	6574
##माने	6575
पैसों	6576
112	6577
पड़ने	6578
ड्रग	6579
अफग	6580
खरीदा	6581
निवेशकों	6582
चिराग	6583
ठाकरे	6584
68	6585
अत्या	6586
आवेद	6587
ऑप	6588
त्या	6589
बुर	6590
शिंदे	6591
##थल	6592
##ैना	6593
##फोड़	6594
काले	6595
##वारे	6596
सीधा	6597
कैप्	6598
थानाधिकारी	6599
करीबी	6600
2015	6601
खोलने	6602
रॉय	6603
मायके	6604
अंदाज	6605
रामलला	6606
63	6607
ma	6608
बजा	6609
भेंट	6610
##लक	6611
##ेस	6612
##बंद	6613
एकजुट	6614
सरस्वती	6615
देखना	6616
देखभाल	6617
बुकिंग	6618
अभय	6619
अवध	6620
टेबल	6621
डाउन	6622
दिग्गज	6623
डिलीवरी	6624
73	6625
77	6626
election	6627
ओबीसी	6628
हस्ता	6629
##टर्स	6630
##भंगा	6631
##वाकर	6632
समस्ती	6633
कार्यशाला	6634
बैक	6635
देखे	6636
श्रृ	6637
मदन	6638
एडिशन	6639
खोला	6640
निरस्त	6641
सराहना	6642
समस्तीपुर	6643
क्ली	6644
शतक	6645
सक्ष	6646
सवाई	6647
##पै	6648
##ियाबाद	6649
मोन	6650
उत्तरी	6651
मानें	6652
##ोषण	6653
गुरुग्राम	6654
दरभंगा	6655
करेंगी	6656
साहित्य	6657
सिद्धार्थ	6658
प्लास्टिक	6659
नेटवर्क	6660
तस्करों	6661
##ख्ती	6662
ढंग	6663
दादा	6664
पित	6665
लुक	6666
##थियों	6667
##बो	6668
##आउट	6669
हैरान	6670
अवगत	6671
निर्देशन	6672
डेवलप	6673
व्यास	6674
धनबाद	6675
पहाड़ी	6676
कस्बे	6677
गड़बड़ी	6678
ग्लोबल	6679
आधे	6680
##ंटा	6681
##थे	6682
##नाती	6683
##ायर्ड	6684
##माव	6685
##जीलैंड	6686
मेगा	6687
##वंश	6688
अनुस	6689
ट्रेलर	6690
भागलपुर	6691
एजेंट	6692
चतुर्थ	6693
69	6694
ch	6695
ईद	6696
तत्व	6697
बरेली	6698
##ड्र	6699
##sc	6700
कायम	6701
##वाए	6702
विरासत	6703
सुशील	6704
##कारिणी	6705
अनुम	6706
निकट	6707
रेखा	6708
##सलमेर	6709
रिटायर	6710
भरतपुर	6711
फोकस	6712
92	6713
झटका	6714
##ॉप्टर	6715
पहना	6716
दोस्ती	6717
सोल	6718
##वेयर	6719
चालकों	6720
पंडाल	6721
फसलों	6722
##ent	6723
ipl	6724
##ौरा	6725
##ेंजर	6726
किल	6727
##ंडन	6728
सुर्	6729
महंग	6730
जोड़ा	6731
जैसलमेर	6732
##प्ले	6733
सैम	6734
सैंपल	6735
सेवाओं	6736
निकालकर	6737
आर्मी	6738
मुठभेड़	6739
sp	6740
ऐश्व	6741
ड्रेस	6742
फंदे	6743
भट्ट	6744
लहर	6745
##जब	6746
##तः	6747
##वड़	6748
##्यम	6749
देसी	6750
सीए	6751
गांजा	6752
विशिष्ट	6753
पुजारी	6754
तैनाती	6755
शिवम	6756
प्रोफ	6757
सर्दी	6758
अंतरिम	6759
तोड़ने	6760
कीमतों	6761
डीसीपी	6762
##्वेस्ट	6763
सिंधिया	6764
अंग्रेजी	6765
##भूमि	6766
संसाधन	6767
दुल्ह	6768
##पूर्वक	6769
सर्जरी	6770
कक्ष	6771
खाल	6772
फिज	6773
##चीन	6774
##हे	6775
##दियों	6776
##वाणी	6777
स्वि	6778
स्नात	6779
राखी	6780
बहाने	6781
##्यूटर	6782
##प्पी	6783
एमएम	6784
##....	6785
रजत	6786
अटैक	6787
स्पीड	6788
वार्षिक	6789
दफ्तर	6790
छिंद	6791
रिया	6792
रतल	6793
वजन	6794
सेशन	6795
किये	6796
##सीम	6797
मिलेंगे	6798
हमास	6799
अंबेडकर	6800
नीम	6801
लगेगा	6802
बचे	6803
लौटा	6804
मरम्मत	6805
लंबा	6806
कूद	6807
शब्द	6808
गाजियाबाद	6809
रतलाम	6810
aap	6811
##धाना	6812
##कंप	6813
सफेद	6814
एक्सीडेंट	6815
बताने	6816
सियासी	6817
फंसे	6818
पृथ्वी	6819
अनुसंध	6820
महंगाई	6821
##ोर्स	6822
##फाइन	6823
2000	6824
##वीप	6825
##्तार	6826
अधिकतर	6827
फैला	6828
##श्चित	6829
दरबार	6830
फील्ड	6831
बनेगा	6832
वृद्ध	6833
प्राथमिकी	6834
आंकड़ों	6835
शुभकामनाएं	6836
सुर्ख	6837
उछ	6838
तट	6839
धमा	6840
##ig	6841
प्रज	6842
##ासा	6843
अन्न	6844
विक्की	6845
195	6846
स्वस्थ	6847
##क्षणिक	6848
चालान	6849
रिहा	6850
असली	6851
प्रत्याशियों	6852
अहमदाबाद	6853
सौंपी	6854
पेरिस	6855
अनुसंधान	6856
83	6857
थानों	6858
सभाग	6859
##ौरी	6860
##ांगी	6861
##करार	6862
##ायती	6863
##ंडों	6864
मौल	6865
##जारा	6866
##ंबल	6867
##वेदनशील	6868
इमरान	6869
वाटर	6870
प्रस्तावित	6871
ind	6872
##खेड़ा	6873
स्कूली	6874
अनुसूचित	6875
mo	6876
चेत	6877
चोप	6878
जहर	6879
रंज	6880
शार	6881
##रेंस	6882
##सास	6883
##ion	6884
##ंगार	6885
कार्यकारिणी	6886
108	6887
##बीएस	6888
लड़का	6889
बचपन	6890
उमस	6891
अश्ली	6892
प्रयासों	6893
गलौज	6894
संतुल	6895
लिखी	6896
कन्ह	6897
रिटायर्ड	6898
दहेज	6899
सैनिकों	6900
प्रदर्शनी	6901
अनाज	6902
मुझसे	6903
बजरंग	6904
पेयजल	6905
74	6906
क्यू	6907
चुरा	6908
##्मा	6909
##पाई	6910
##दपुर	6911
कोरिया	6912
परफ	6913
थीम	6914
##िशियल	6915
##सागर	6916
परिच	6917
जानने	6918
##ंसल	6919
बोतल	6920
120	6921
खेलते	6922
प्रेरणा	6923
शैक्षणिक	6924
प्रारंभिक	6925
गूगल	6926
अश्लील	6927
vid	6928
फर्म	6929
शॉर्ट	6930
हवाले	6931
##ैग	6932
##डोर	6933
##ुद्दीन	6934
सेवान	6935
##टरिंग	6936
कहकर	6937
##ंकू	6938
##ंतु	6939
जेई	6940
वनडे	6941
पारंप	6942
##श्यप	6943
अभिभाव	6944
हथियारों	6945
हटाया	6946
गोलियां	6947
राठौर	6948
अध्ययन	6949
चतुर्	6950
द्र	6951
वस्त	6952
सस्प	6953
।।	6954
##थन	6955
##ैप	6956
##बली	6957
##बुक	6958
##शनी	6959
##ia	6960
##युक्त	6961
##ार्पण	6962
पूनम	6963
##ाइक	6964
हमलों	6965
परिस्थित	6966
जुटा	6967
डीए	6968
##प्रिय	6969
दिवाली	6970
डेब्यू	6971
चंद्रशेखर	6972
##ाजीपुर	6973
आतंकवाद	6974
व्हा	6975
तृतीय	6976
पारंपरिक	6977
इरा	6978
डबल	6979
##ेब	6980
##़ी	6981
प्रतिबद्ध	6982
डिस्प	6983
मनोर	6984
हत्याकांड	6985
एक्टिंग	6986
बुलाकर	6987
जायजा	6988
रिटर्न	6989
मकसद	6990
जश्न	6991
सेवानिव	6992
उजा	6993
यो	6994
सख्ती	6995
##टिव	6996
##ग्रा	6997
##तौर	6998
##खल	6999
बाज	7000
लेटर	7001
##्रीम	7002
बीए	7003
इंस्टी	7004
छाए	7005
लाइव	7006
##ोदय	7007
न्यूजीलैंड	7008
प्रताड़	7009
##ट्रिक	7010
##स्थापक	7011
अभिनेता	7012
प्रोत्साहित	7013
भागीदारी	7014
रेस्टोर	7015
चित्त	7016
नशी	7017
पच	7018
पन	7019
हवाला	7020
##दर्श	7021
प्रधाना	7022
अधि	7023
##न्ड	7024
बढ़ता	7025
नाव	7026
दिमा	7027
पूछे	7028
सांसदों	7029
बेहोश	7030
असिस्ट	7031
शिखर	7032
तारीफ	7033
आबकारी	7034
am	7035
गों	7036
छान	7037
फंसा	7038
मद्	7039
##ोला	7040
##क्टे	7041
राघ	7042
निवास	7043
निश्चित	7044
बीज	7045
पीढ़ी	7046
बैच	7047
##ंपर	7048
गुहार	7049
रेत	7050
चावल	7051
##फ्रेंड	7052
सेकंड	7053
झांसा	7054
आजमगढ़	7055
ज्वेल	7056
88	7057
इट	7058
ब्यू	7059
वेल	7060
हां	7061
##झाने	7062
कोय	7063
प्राप्ति	7064
बाधा	7065
निष	7066
सीन	7067
अनूप	7068
बारात	7069
##शीट	7070
घटनाक्रम	7071
शिकायतों	7072
लिखकर	7073
न्यूज	7074
पाएंगे	7075
दिलाई	7076
डूबने	7077
समझौते	7078
आईपीएल	7079
##abha	7080
ऐश्वर्या	7081
ईयर	7082
जमु	7083
म्यूज	7084
यमु	7085
रत्	7086
##ोच्च	7087
##ूली	7088
##भू	7089
कोरो	7090
##सीन	7091
स्थायी	7092
पार्टन	7093
दुब	7094
दुश्म	7095
यूजी	7096
पहुंचेगी	7097
तैयारियों	7098
एनटी	7099
सतर्क	7100
फ़ै	7101
दबिश	7102
शोरूम	7103
चीजें	7104
अल्पसंख्यक	7105
छिंदवाड़ा	7106
08	7107
91	7108
mp	7109
##पर्ड	7110
##िलिटी	7111
##जेडी	7112
ट्रायल	7113
टेक	7114
मिड	7115
सर्वा	7116
सिरसा	7117
##ोपण	7118
संदेह	7119
सक्षम	7120
ओटी	7121
रिम	7122
##चरण	7123
##टिया	7124
##टकों	7125
##खड़	7126
हैंड	7127
कुंड	7128
निर्भर	7129
पैनल	7130
आईएम	7131
डिटेल	7132
श्रमिक	7133
....	7134
##ath	7135
बोलने	7136
उतरे	7137
घूमने	7138
दहशत	7139
बेटियों	7140
ईश्वर	7141
कन्हैया	7142
600	7143
lok	7144
##तू	7145
##पेय	7146
##स्ड	7147
बाधित	7148
##ेश्वरी	7149
देवर	7150
तोमर	7151
##्मान	7152
##रेटर	7153
बेर	7154
लगती	7155
विश्ले	7156
डिवी	7157
मनमोहन	7158
जलस्तर	7159
दौसा	7160
तोड़फोड़	7161
आंकड़ा	7162
घुसकर	7163
निभाई	7164
अतुल	7165
ओलंपिक	7166
उपायुक्त	7167
अंधे	7168
क्रेड	7169
भिव	7170
शरी	7171
##ेटर	7172
##शाह	7173
करार	7174
सिंगर	7175
##वालों	7176
मुखब	7177
दिलच	7178
##धारण	7179
श्रम	7180
##्‍ह	7181
ब्लैक	7182
खुलकर	7183
सिलसिला	7184
चोपड़ा	7185
as	7186
जोग	7187
बकाया	7188
##खार	7189
विराज	7190
संवेदनशील	7191
##पीड़	7192
बेगू	7193
पहुंचते	7194
मोहित	7195
कलर	7196
पंजाबी	7197
गैंगस्टर	7198
कांस्टेबल	7199
हड़कंप	7200
नकदी	7201
चिकित्सकों	7202
दरवाजे	7203
##ड्‌डा	7204
इंस्टीट्यू	7205
आफ	7206
घी	7207
तप	7208
फट	7209
बर्फ	7210
बस्तर	7211
भय	7212
हिर	7213
कोषा	7214
विस्फ	7215
स्ल	7216
##ोग्रा	7217
लोगो	7218
##कारियों	7219
##दीव	7220
बीत	7221
इन्होंने	7222
डॉक्टर्स	7223
##ज़ार	7224
##यूवी	7225
चिह्न	7226
काटकर	7227
शोभायात्रा	7228
विस्फोट	7229
ट्यू	7230
स्क्	7231
चुने	7232
मामा	7233
स्टोरी	7234
देखिए	7235
यूजर	7236
जिनका	7237
परीक्ष	7238
एमडी	7239
##ोहित	7240
मालूम	7241
##ate	7242
आयुष्मान	7243
ब्यूरो	7244
बेगूसराय	7245
ai	7246
इमार	7247
गश्त	7248
शर्म	7249
शशि	7250
##रियर	7251
##नीश	7252
सोया	7253
बिछ	7254
बनना	7255
अनुश	7256
प्रतिभाग	7257
नामजद	7258
उत्पीड़	7259
दुकानदारों	7260
मालदीव	7261
टैंकर	7262
शिवा	7263
श्रद्धा	7264
चमक	7265
लोहे	7266
हिन्दू	7267
रेस्टोरेंट	7268
उद्ध	7269
कश्यप	7270
फीड	7271
भै	7272
लटका	7273
##्टी	7274
##ंझ	7275
##स्को	7276
मोती	7277
बैंड	7278
जुटे	7279
प्राचीन	7280
एमएल	7281
##ंगाबाद	7282
करवाए	7283
एजु	7284
जन्मदिन	7285
##रुख	7286
इलेक्ट्रॉन	7287
चिकित्सक	7288
इकट्ठा	7289
निष्पक्ष	7290
डाक	7291
बाला	7292
सिस	7293
##नियों	7294
##नामी	7295
मुद्रा	7296
पार्वती	7297
इंफ	7298
डीपी	7299
जेडी	7300
दीपिका	7301
शाहरुख	7302
डायव	7303
फ्रंट	7304
मुकदमे	7305
बेंच	7306
सुल्तान	7307
फरीदाबाद	7308
केशव	7309
ईवीएम	7310
97	7311
कटा	7312
गवाह	7313
जर्म	7314
##थी	7315
##इली	7316
##ानन	7317
##स्से	7318
प्रको	7319
##िनल	7320
साई	7321
लेपर्ड	7322
अगु	7323
एनडी	7324
सड़कें	7325
उमेश	7326
हॉस्टल	7327
अंबाला	7328
ब्रिटेन	7329
##िकोण	7330
अफगानिस्तान	7331
दुल्हन	7332
सभागार	7333
मद्देन	7334
##क्टेयर	7335
on	7336
खाम	7337
डोन	7338
दहन	7339
##िंट	7340
##ुणा	7341
##घ्र	7342
पुलिया	7343
मिलना	7344
कार्यकारी	7345
टीआई	7346
एम्स	7347
पुरी	7348
पेमेंट	7349
भेद	7350
सवालों	7351
सांग	7352
##िनेशन	7353
विषयों	7354
संस्थाओं	7355
रजिस्ट्री	7356
लैब	7357
विसर्जन	7358
खतरनाक	7359
आधुनिक	7360
एएसपी	7361
जर्जर	7362
दंप	7363
भ्रमण	7364
वस	7365
शैल	7366
##वमेंट	7367
##ॉन्	7368
##ारिया	7369
##केज	7370
साधा	7371
##तिर	7372
##ंचित	7373
##ोजर	7374
बेड	7375
स्थलों	7376
मामूली	7377
##िप्त	7378
1000	7379
फैम	7380
शेखा	7381
ब्रज	7382
भागवत	7383
कंपनियां	7384
तुम्ह	7385
ऊंचाई	7386
प्रतिनिधित्व	7387
छानबीन	7388
##पेयी	7389
भिवानी	7390
87	7391
im	7392
ईरानी	7393
शर्त	7394
##कर्मा	7395
##ter	7396
##so	7397
##ॉफ	7398
##र्धा	7399
कैसा	7400
सबको	7401
##श्चा	7402
पत्रकारों	7403
दुकानें	7404
विश्वनाथ	7405
हेल्प	7406
वाता	7407
जबरन	7408
पशुओं	7409
नालंदा	7410
उपभोक्ताओं	7411
मुसलमानों	7412
डीजीपी	7413
एजेंसियों	7414
उत्पीड़न	7415
96	7416
तथ	7417
दाना	7418
मजा	7419
यज्ञ	7420
##कृष्ट	7421
निच	7422
##टीआई	7423
सोनिया	7424
कैच	7425
एसयूवी	7426
एम्ब	7427
लॉरेंस	7428
चरणों	7429
##ॉट्स	7430
इंटरनेट	7431
प्रीम	7432
विशेषज्ञों	7433
हरीश	7434
ग्राहकों	7435
गिनती	7436
हस्ताक्षर	7437
परफॉ	7438
क्रेडिट	7439
वातावरण	7440
sabha	7441
कमेंट	7442
फाज	7443
##मूर्ति	7444
##ृद	7445
लेबन	7446
निधि	7447
##न्नाथ	7448
रोशनी	7449
अवकाश	7450
जयशंकर	7451
कपल	7452
संग्रह	7453
बॉय	7454
योगेश	7455
अतिथियों	7456
##ोदिया	7457
गार्डन	7458
शौचाल	7459
नवरात्रि	7460
चैनल	7461
जबरदस्त	7462
82	7463
cbi	7464
पठ	7465
वाज	7466
सज	7467
##30	7468
##फार्म	7469
प्रैक्ट	7470
##लेवा	7471
##टीक	7472
सिंगल	7473
##जीब	7474
इन्वेस्ट	7475
कैटे	7476
कॉपी	7477
##िकासी	7478
रेवाड़ी	7479
##ज्जर	7480
आराम	7481
गुरुद्वारा	7482
##फ़ी	7483
लुटे	7484
हवाओं	7485
संरक्षक	7486
पुष्पा	7487
वरुण	7488
दृष्टि	7489
उल्लेखनीय	7490
किलोग्राम	7491
प्रज्वल	7492
पार्टनर	7493
डिवीजन	7494
फाजिल	7495
कस	7496
गर्व	7497
चक	7498
छवि	7499
माली	7500
##ोड	7501
##तूस	7502
##ेंच	7503
कोड	7504
कारतूस	7505
कहता	7506
लोकप्रिय	7507
शिवपुरी	7508
प्रोसेस	7509
रायगढ़	7510
2009	7511
प्लानिंग	7512
पुनर्	7513
पॉलिसी	7514
नतीजे	7515
अब्दुल	7516
मुखबिर	7517
कोषाध्यक्ष	7518
फैमिली	7519
cct	7520
go	7521
झुल	7522
##विक	7523
राजम	7524
जानलेवा	7525
अंज	7526
2013	7527
सर्किट	7528
शुभम	7529
पकड़कर	7530
##one	7531
क्रिकेटर	7532
मरने	7533
कैंपस	7534
आवंट	7535
कामयाब	7536
साझेदारी	7537
उजागर	7538
cctv	7539
चिप	7540
ध्रु	7541
नष्ट	7542
बंसल	7543
##नस	7544
##सेवी	7545
##रेख	7546
##जीवन	7547
निर्यात	7548
10वीं	7549
लगाना	7550
बैठी	7551
जगन्नाथ	7552
शिकायतें	7553
रोडवेज	7554
##ट्टे	7555
##ुमो	7556
त्रि	7557
##ice	7558
चौथी	7559
दृष्टिकोण	7560
सशक्त	7561
धूमधाम	7562
गुलाब	7563
खातों	7564
असिस्टेंट	7565
of	7566
डैम	7567
##िस्तान	7568
सेवन	7569
##ाल्ड	7570
##स्सी	7571
##क्क	7572
मुना	7573
##धानिक	7574
सूचित	7575
विक्र	7576
एसएचओ	7577
आईसी	7578
पोषण	7579
आरक्षक	7580
पीड़ितों	7581
फेस्ट	7582
##कृतिक	7583
800	7584
ऋषभ	7585
कव	7586
नज़र	7587
पेज	7588
मल्ल	7589
रित	7590
##रित	7591
##थान	7592
##ेप	7593
##ुद्ध	7594
##ायंस	7595
##कीन	7596
मोर	7597
लाकर	7598
सोलर	7599
##एमएस	7600
विधेय	7601
निर्देशित	7602
##गमन	7603
विश्वकर्मा	7604
##र्नल	7605
कमीशन	7606
फ्लोर	7607
जॉब	7608
बीमारियों	7609
##वार्टर	7610
बलरामपुर	7611
कल्पना	7612
दिमाग	7613
कोरोना	7614
to	7615
खड़	7616
नॉ	7617
निकासी	7618
रं	7619
श्रा	7620
##ोर्	7621
##ch	7622
सम्प	7623
सीधी	7624
सीमित	7625
##वासीय	7626
रणवीर	7627
निर्मला	7628
कुर्सी	7629
उपभोक्ता	7630
बाबूलाल	7631
जदयू	7632
परिस्थितियों	7633
इंस्टीट्यूट	7634
मद्देनजर	7635
उड़ा	7636
गहरी	7637
ट्वी	7638
नल	7639
रेज	7640
शू	7641
##चार्ज	7642
##नक	7643
##धना	7644
##पुट	7645
मेंबर	7646
कराना	7647
संस्थापक	7648
दीन	7649
उपमुख	7650
परीक्षाओं	7651
खेलों	7652
दिखाकर	7653
रणबीर	7654
गेंदबाजी	7655
परियोजनाओं	7656
समृद्धि	7657
भीलवाड़ा	7658
सोलंकी	7659
##श्चात	7660
इर	7661
धक्का	7662
नाज	7663
बक्सर	7664
मित्त	7665
हाज	7666
##हो	7667
##पंथ	7668
##mp	7669
##लाइट	7670
##िसू	7671
लेता	7672
सुधीर	7673
मांझी	7674
##ोरेशन	7675
अनुज	7676
उत्कृष्ट	7677
सुराग	7678
केंद्रित	7679
बालू	7680
श्रवण	7681
पारित	7682
पाठ्य	7683
##वाइंट	7684
रिश्ता	7685
अश्विन	7686
रक्तदान	7687
सर्किल	7688
79	7689
ठोस	7690
दर्जा	7691
शोषण	7692
सऊ	7693
सर्जन	7694
##िंक	7695
##बिन	7696
##शिक	7697
कालेज	7698
##क्कत	7699
##ेशनों	7700
सोसाइ	7701
कैल	7702
बढ़ाई	7703
आईआईटी	7704
छाया	7705
धरने	7706
चोटें	7707
पर्यटकों	7708
पुरुषों	7709
ओमप्रकाश	7710
कठिन	7711
निराकरण	7712
चैंपियनशिप	7713
अमेठी	7714
परिचय	7715
एम्बुलेंस	7716
फाजिल्का	7717
मित्तल	7718
सोसाइटी	7719
इज	7720
घन	7721
डाली	7722
नह	7723
फेज	7724
##रन	7725
##मू	7726
स्त्री	7727
तोड़ा	7728
चौंक	7729
रेस	7730
व्याव	7731
पारिवार	7732
एसडीओ	7733
बल्लेबाजी	7734
##र्मेंस	7735
दुबई	7736
पारिवारिक	7737
84	7738
आधी	7739
कंटे	7740
छिपा	7741
जन्	7742
भिड़	7743
वंचित	7744
हीरो	7745
मोर्च	7746
आयुर्	7747
आपदा	7748
अवस्था	7749
##आईसी	7750
लीला	7751
लड़कों	7752
194	7753
पदस्थ	7754
बरकरार	7755
समस्याएं	7756
2008	7757
लौटे	7758
मशक्कत	7759
विद्यालयों	7760
विस्तृत	7761
खंडवा	7762
बुलड	7763
पॉलिट	7764
प्रभात	7765
भतीजे	7766
दर्शा	7767
जंक्शन	7768
चित्तौड़	7769
आवंटित	7770
ट्वीट	7771
अड्ड	7772
एग्री	7773
गायक	7774
गहरे	7775
बगल	7776
रच	7777
##कुम	7778
##श्याम	7779
##ee	7780
##अर	7781
उन्‍ह	7782
##ोगु	7783
देहा	7784
##्हे	7785
जीएसटी	7786
दर्जनों	7787
2012	7788
तबाद	7789
मदर	7790
ट्रांसपोर्ट	7791
खूबसूर	7792
आंधी	7793
मंजिल	7794
किशनगंज	7795
पशुप	7796
अकाली	7797
कड़ा	7798
वाई	7799
##न्यू	7800
##नारायण	7801
##गारी	7802
##णु	7803
जाद	7804
संस्कृत	7805
दीक्षित	7806
बीआर	7807
रूपए	7808
आरजेडी	7809
स्पॉट	7810
दिखी	7811
खरीदारी	7812
शीघ्र	7813
कैप्टन	7814
सेवानिवृ	7815
कैटेगरी	7816
आत्मा	7817
ऑप्शन	7818
चाइ	7819
डोर	7820
नायक	7821
भां	7822
##tt	7823
नेहा	7824
विवि	7825
##लीम	7826
##द्दा	7827
अंश	7828
पैमाने	7829
आईजी	7830
गर्भव	7831
चंद्रा	7832
वितरित	7833
लौटने	7834
प्लॉट	7835
खबरें	7836
तत्वा	7837
गौरी	7838
एलान	7839
दबंग	7840
दिलाया	7841
डिपार्टमेंट	7842
डूंगर	7843
video	7844
गर्भवती	7845
700	7846
नू	7847
नाइट	7848
मल्टी	7849
लड्डू	7850
सरा	7851
##बां	7852
##मढ़ी	7853
##cb	7854
मेंटेन	7855
##पीठ	7856
##डीपी	7857
सब्स	7858
हिट	7859
बुनिया	7860
पुत्री	7861
बढ़ाकर	7862
लिखे	7863
आवागमन	7864
माइक्र	7865
जनजाति	7866
एकेड	7867
सस्पेंड	7868
प्रतिभागियों	7869
ad	7870
आवासीय	7871
झलक	7872
फेम	7873
बंदर	7874
सवारी	7875
##ानिया	7876
##ादक	7877
पाकर	7878
स्ट्रीट	7879
योग्य	7880
आवंटन	7881
मिठाई	7882
सुर्खियों	7883
परफॉर्मेंस	7884
ar	7885
नान	7886
फि	7887
बया	7888
भैर	7889
रनों	7890
निस्त	7891
मैर	7892
स्टेशनों	7893
रखता	7894
प्राकृतिक	7895
आमने	7896
अफवाह	7897
भोले	7898
पेशे	7899
छात्राएं	7900
अंतरिक्ष	7901
चुनौ	7902
फ्रांस	7903
दोषियों	7904
##ट्टू	7905
सेलिब	7906
कनेक्ट	7907
निर्मित	7908
काउंसलिंग	7909
पापा	7910
बराबर	7911
वास्तविक	7912
लेबनान	7913
उपमुख्य	7914
सऊदी	7915
ख्या	7916
गाना	7917
दली	7918
बलों	7919
भिलाई	7920
हिल	7921
##रिस	7922
##वों	7923
##ce	7924
सेले	7925
अपलोड	7926
सिंग	7927
##ंधा	7928
एमबी	7929
बॉन्ड	7930
बालाजी	7931
दक्षिणी	7932
पार्षदों	7933
इजरायल	7934
93	7935
khan	7936
आलिया	7937
शॉप	7938
हद	7939
##िहार	7940
##कुल	7941
##फार	7942
अधीन	7943
अनिय	7944
##विंग	7945
कम्प	7946
कामना	7947
रामायण	7948
##ब्दी	7949
शवों	7950
##आरएफ	7951
वन्य	7952
बोलते	7953
सिक्	7954
गृहमंत्री	7955
दमकल	7956
नगरीय	7957
बोलीं	7958
प्रतिबंधित	7959
स्नातक	7960
ईंट	7961
झाम	7962
दंड	7963
दादी	7964
नवन	7965
भव	7966
##हाँ	7967
##ेशर	7968
सिद्दी	7969
पिच	7970
स्टो	7971
##क्रमण	7972
शिकायतकर्ता	7973
पद्म	7974
बरत	7975
##्राट	7976
##ष्ठी	7977
सजाया	7978
##ash	7979
हल्के	7980
दस्तावे	7981
सत्यापन	7982
चतुर्थी	7983
विधेयक	7984
उपमुख्यमंत्री	7985
अमाव	7986
चर्च	7987
चन्द्र	7988
तड़	7989
थप्प	7990
हमी	7991
##ंजय	7992
##ष्टी	7993
##जेक्शन	7994
क्रू	7995
चलाए	7996
##ट्टर	7997
जेब	7998
##म्भ	7999
ट्रेनें	8000
हेली	8001
छात्रावास	8002
रैंक	8003
स्वीकृत	8004
दशहरा	8005
चयनित	8006
मुरैना	8007
जूझ	8008
सॉफ्ट	8009
आकर्षक	8010
निपटने	8011
जमुई	8012
उद्धव	8013
चित्तौड़गढ़	8014
टंकी	8015
टोंक	8016
तर्क	8017
वंदे	8018
शिश	8019
##रक	8020
##ai	8021
##शर	8022
##णिक	8023
##दिया	8024
लेती	8025
जोख	8026
बैल	8027
डॉग	8028
सूरत	8029
बहाल	8030
यूट्यू	8031
मिर्जा	8032
सेंसे	8033
रिंकू	8034
##वर्गीय	8035
फायदे	8036
फूलों	8037
प्रोडक्ट	8038
जापान	8039
ओपीडी	8040
उन्हीं	8041
सक्सेना	8042
एजुकेशन	8043
शौचालय	8044
अनियंत्रित	8045
गम	8046
बला	8047
भौ	8048
##ेयर	8049
##ऊंगा	8050
सम्राट	8051
##लीला	8052
सीने	8053
दीं	8054
मौर्य	8055
ट्रेंड	8056
##श्ती	8057
हमलावर	8058
टैंक	8059
गेंदों	8060
फाइनेंस	8061
अधिकारों	8062
माधोपुर	8063
कठोर	8064
एडिशनल	8065
रंजिश	8066
चुनौतियों	8067
आभूषण	8068
गंद	8069
ढांच	8070
दाल	8071
प्	8072
##शान	8073
##ठे	8074
##लेन	8075
मुफ्त	8076
कुंभ	8077
कुचल	8078
##ढ़ा	8079
सीएच	8080
मिलियन	8081
सरदार	8082
##विजय	8083
बैनर	8084
कैंट	8085
आरोपित	8086
बुद्ध	8087
अभ्यास	8088
लोकल	8089
जहरी	8090
आरपी	8091
पानीपत	8092
मृतकों	8093
जेवर	8094
##िश्वास	8095
जितना	8096
श्रेय	8097
नोडल	8098
ज्योतिष	8099
एसीबी	8100
नक्सली	8101
##ानुसार	8102
जहाज	8103
सच्चाई	8104
कारावास	8105
अमावस्या	8106
nda	8107
अद्	8108
वक्	8109
वंद	8110
##la	8111
कीर्तन	8112
बाप	8113
हुड्‌डा	8114
सुश	8115
बैठने	8116
##प्रदाय	8117
##समंद	8118
रायब	8119
ब्लै	8120
बंधक	8121
प्रतिनिधियों	8122
अनुरूप	8123
शब्दों	8124
आर्यन	8125
ग्राहक	8126
वैष्णव	8127
शेखावत	8128
थप्पड़	8129
सेंसेक्स	8130
अखा	8131
ईस्ट	8132
ढेर	8133
##रियल	8134
##िस्टर	8135
##वड़ा	8136
परमाण	8137
स्ने	8138
##रोल	8139
##स्टार	8140
सोचा	8141
परिचाल	8142
वेरिएंट	8143
स्टार्ट	8144
कॉर्प	8145
श्रीग	8146
ट्रेड	8147
बलि	8148
लॉक	8149
फ़िल	8150
प्रीति	8151
मासिक	8152
गेस्ट	8153
शीतल	8154
रायबरेली	8155
परमाणु	8156
दत्त	8157
पेंट	8158
वेट	8159
सराय	8160
##लांग	8161
##वकों	8162
##ुष	8163
##ro	8164
रहमान	8165
जीआरपी	8166
स्टॉक	8167
हिम्मत	8168
गोवा	8169
##प्ति	8170
पिछड़ा	8171
##निवास	8172
क्रॉस	8173
खेड़ा	8174
हॉकी	8175
सतना	8176
उपलब्धि	8177
मॉनि	8178
आनन	8179
प्लेटफार्म	8180
निरंतर	8181
गहने	8182
गरबा	8183
##ांतरण	8184
लकड़ी	8185
""	8186
क्‍या	8187
पान	8188
##साद	8189
##ारस	8190
##ंगत	8191
##गाट	8192
समित	8193
निपट	8194
राजेन्द्र	8195
##रोध	8196
##ष्‍	8197
परिचित	8198
चलाते	8199
समाजसेवी	8200
पड़ती	8201
महीना	8202
जेसीबी	8203
समझने	8204
बलिया	8205
शेयरों	8206
सर्वेक्षण	8207
फॉलो	8208
झुंझ	8209
राधिका	8210
विज्ञापन	8211
5g	8212
कवर	8213
ताजा	8214
दरो	8215
नु	8216
फानन	8217
रिए	8218
वें	8219
हायर	8220
##कता	8221
औरंगाबाद	8222
प्राइम	8223
प्रकृति	8224
मुनि	8225
सुद	8226
कमाल	8227
पासपोर्ट	8228
महासभा	8229
##ूर्ण	8230
##्राष्ट्रीय	8231
हाथरस	8232
हेक्टेयर	8233
दलाल	8234
गणपति	8235
रणजीत	8236
न्यायमूर्ति	8237
बचाया	8238
भूषण	8239
सेक्रेट	8240
समन्वय	8241
शेड्यूल	8242
मछली	8243
मयंक	8244
डिफेंस	8245
गंदगी	8246
वक्फ	8247
अंचल	8248
आपात	8249
ईमान	8250
चिर	8251
डंडे	8252
भद	8253
##लोग	8254
##धियों	8255
##फरी	8256
##ma	8257
##षित	8258
जावेद	8259
##क्षेप	8260
अपन	8261
##जाही	8262
##मान्य	8263
कॉलो	8264
कंप्यूटर	8265
##ेंसिक	8266
विदाई	8267
अफ़	8268
कराकर	8269
दिखाते	8270
जमशे	8271
अलीगढ़	8272
बर्बाद	8273
क्वार्टर	8274
pro	8275
पथराव	8276
लीडर	8277
डोनाल्ड	8278
चूं	8279
झेल	8280
तिरा	8281
नमा	8282
बहा	8283
मस्क	8284
लंदन	8285
##रू	8286
##ss	8287
##खोर	8288
##ालाल	8289
साक्ष्य	8290
##रेप	8291
चुप	8292
##मीत	8293
सालाना	8294
अवतार	8295
रेव	8296
##देही	8297
रिकार्ड	8298
##ग्रह	8299
विजयवर्गीय	8300
मजबूती	8301
आवाजाही	8302
अग्निवीर	8303
इकोन	8304
बुलडोजर	8305
बुनियादी	8306
जोखिम	8307
दरोगा	8308
इनाम	8309
छुप	8310
थिए	8311
पत	8312
स्रो	8313
##िडी	8314
##िंडा	8315
##गुरु	8316
##se	8317
##ार्मर	8318
##मात्र	8319
सरगु	8320
##पाट	8321
बनेंगे	8322
व्यस्त	8323
##ंसिल	8324
##प्पा	8325
डीआर	8326
मुताबिक़	8327
शातिर	8328
टैग	8329
खोले	8330
नकद	8331
370	8332
प्रमो	8333
फैलाने	8334
बायो	8335
##भिषेक	8336
निषाद	8337
अगुवाई	8338
पाठ्यक्रम	8339
झामुमो	8340
सरगुजा	8341
98	8342
कूल	8343
घंटा	8344
थर्ड	8345
पिल	8346
##टू	8347
##टके	8348
##टर्न	8349
##बैक	8350
##प्ल	8351
स्क्र	8352
अधिसू	8353
बिख	8354
रोष	8355
स्कॉ	8356
##आईजी	8357
लालच	8358
स्टेज	8359
निकाले	8360
चढ़कर	8361
मल्ह	8362
टूटा	8363
read	8364
हिमांशु	8365
प्रजापति	8366
सैलरी	8367
सर्वाधिक	8368
वसूल	8369
फेस्टिव	8370
रंजीत	8371
सिद्दीकी	8372
89	8373
day	8374
जां	8375
धा	8376
बवाल	8377
भिज	8378
##rat	8379
संभा	8380
निंदा	8381
##काउ	8382
सिफार	8383
##माइ	8384
कुएं	8385
जींद	8386
##ंटू	8387
##वानों	8388
डील	8389
##ग्रहण	8390
डाले	8391
क्लिक	8392
वायनाड	8393
नतीजों	8394
झांकी	8395
आक्रोशित	8396
पर्सनल	8397
##ोत्तम	8398
अविनाश	8399
समुद्र	8400
संतुलन	8401
ev	8402
इकल	8403
उर	8404
गाल	8405
तकरी	8406
दुर	8407
भाद	8408
भार्ग	8409
लड़े	8410
##ोच	8411
##ोरा	8412
##ूनों	8413
##मंद	8414
##ut	8415
लेट	8416
देवास	8417
सिखा	8418
वाल्मी	8419
##्रेसी	8420
पीयू	8421
पाटी	8422
रूसी	8423
ग्रो	8424
सहकारी	8425
बुम	8426
इलाका	8427
##आरसी	8428
बसें	8429
##ुआं	8430
जलकर	8431
मालवीय	8432
गर्ल	8433
हमलावरों	8434
साइट	8435
कर्त	8436
सिल्वर	8437
अजित	8438
अकाद	8439
ऑडिट	8440
अभिनेत्री	8441
देहात	8442
अस्त	8443
खिता	8444
चैल	8445
टकर	8446
बर्थ	8447
##बड़	8448
##णम	8449
सेहत	8450
सेफ्टी	8451
अनियम	8452
##दाता	8453
जानकार	8454
कामका	8455
डिस्	8456
##ंसक	8457
##पालिका	8458
125	8459
आरके	8460
आरटी	8461
मिलीमीटर	8462
उठे	8463
एजेंड	8464
##ंडीज	8465
350	8466
वृक्ष	8467
पलवल	8468
##शुदा	8469
नवादा	8470
लड़कियां	8471
दायरे	8472
स्टील	8473
गड्ढे	8474
जन्मा	8475
वंदना	8476
झुंझुन	8477
सिफारिश	8478
तकरीबन	8479
कन्न	8480
छी	8481
तंत्र	8482
पट्टी	8483
फार	8484
लिव	8485
##ंकार	8486
##मण	8487
##cp	8488
केन्द	8489
हैरिस	8490
विंग	8491
निखिल	8492
बेनी	8493
बनती	8494
सबके	8495
कॉमे	8496
लिफ्ट	8497
एमएस	8498
अर्ध	8499
फोगाट	8500
किराया	8501
ठगों	8502
फेसबुक	8503
india	8504
श्रीगंग	8505
बुमराह	8506
केन्द्रीय	8507
एथ	8508
वैन	8509
वस्त्र	8510
सत्स	8511
##सले	8512
##तूल	8513
##ॉग	8514
##‍च	8515
##ऐप	8516
पहने	8517
पहिया	8518
समर	8519
##माही	8520
##ंत्रिक	8521
पहलेलेख	8522
पीडब्ल्यू	8523
एसओ	8524
जेवरा	8525
करवाकर	8526
##कुश	8527
2007	8528
मंत्रिमंडल	8529
खबरों	8530
##ार्जुन	8531
अंबिका	8532
गरीबों	8533
ट्रॉली	8534
इन्हीं	8535
प्रोडक्शन	8536
आकर्षण	8537
टोला	8538
एडवांस	8539
ज़रूर	8540
एकत्रित	8541
also	8542
डिवाइस	8543
##फाइनल	8544
डिस्प्ले	8545
सेक्रेटरी	8546
भार्गव	8547
श्रीगंगानगर	8548
पहलेलेखक	8549
ias	8550
गूं	8551
नॉन	8552
पला	8553
लटक	8554
वॉट्स	8555
##ंसी	8556
##हमी	8557
##यरी	8558
##ख़	8559
##ियाला	8560
देह	8561
##्तानी	8562
एनकाउ	8563
स्पिन	8564
अरुणा	8565
गणना	8566
प्लेयर	8567
वृंदा	8568
सुनाया	8569
##ृष्टि	8570
नवरात्र	8571
प्रैक्टिस	8572
चौंकाने	8573
सीएचसी	8574
चूंकि	8575
de	8576
आर्म	8577
एह	8578
खनि	8579
तन	8580
धारण	8581
फिस	8582
शोक	8583
सहर	8584
हृद	8585
##98	8586
##बाई	8587
##up	8588
##25	8589
करूंगा	8590
##नायक	8591
साइन	8592
बीएन	8593
##विधि	8594
अनुक	8595
नीतियों	8596
शिक्षिका	8597
ब्रिट	8598
नारन	8599
सर्वोच्च	8600
लोड	8601
चिंत	8602
वीजा	8603
जितने	8604
पर्यटक	8605
जोड़कर	8606
क़ान	8607
क्रमांक	8608
##िफिकेशन	8609
मेकर्स	8610
रवींद्र	8611
राजमार्ग	8612
एनकाउंटर	8613
86	8614
अटक	8615
जॉन	8616
तारा	8617
पश्चात	8618
बसे	8619
शाल	8620
शाला	8621
हेर	8622
##आम	8623
##gb	8624
हैंडल	8625
कार्	8626
##ल्‍	8627
कामों	8628
##सरों	8629
गिरकर	8630
रामगढ़	8631
जीतू	8632
डेयरी	8633
प्रदर्शनकारियों	8634
प्रसंग	8635
निशुल्क	8636
मूवमेंट	8637
शांतिपूर्ण	8638
बंटवारे	8639
अत्याचार	8640
डेवलपमेंट	8641
सिसोदिया	8642
आयुर्वेद	8643
अड्डे	8644
सत्संग	8645
sc	8646
कंस	8647
चौर	8648
डु	8649
डकै	8650
माइन	8651
लघु	8652
##हिया	8653
##भराव	8654
##ik	8655
##पारा	8656
सेठ	8657
##स्पी	8658
प्रवर्	8659
##ोगी	8660
कारों	8661
कार्म	8662
अपे	8663
##द्वाज	8664
युग	8665
बच्चियों	8666
बुलेट	8667
नींद	8668
जलाने	8669
डेड	8670
कटिहार	8671
उठाते	8672
धरती	8673
सलाहकार	8674
पुण्य	8675
तलवार	8676
पुतिन	8677
जायेगा	8678
सेमीफाइनल	8679
क्वालिटी	8680
यमुना	8681
जमशेदपुर	8682
अनियमित	8683
जन्माष्टमी	8684
cr	8685
आध्या	8686
खज	8687
खरा	8688
तंज	8689
लिप	8690
##मानी	8691
##इंडीज	8692
##ौफ	8693
##भु	8694
##ta	8695
##र्ति	8696
कास्ट	8697
विविध	8698
कुशल	8699
##रोवर	8700
##टेस्ट	8701
भारद्वाज	8702
##ोकन	8703
गोस्वामी	8704
##ंकन	8705
डिब्	8706
जलभराव	8707
##ana	8708
समझाया	8709
रीजन	8710
प्रेमिका	8711
##डरेशन	8712
झगड़े	8713
नर्मदापुरम	8714
पौधों	8715
पठान	8716
मेंटेनेंस	8717
sd	8718
गहन	8719
गरज	8720
घो	8721
छिड़	8722
त्वर	8723
शक्त	8724
किस्	8725
सीव	8726
महिंद	8727
##ंत्रण	8728
लगाएं	8729
सोसाय	8730
##चारिक	8731
पैलेस	8732
विधिक	8733
महाय	8734
इसीलिए	8735
प्रत्यक्ष	8736
आदिवासियों	8737
रुके	8738
तरीका	8739
ट्रांसफ	8740
उत्पन्न	8741
विवाहिता	8742
साधक	8743
जॉइन	8744
चरम	8745
नायडू	8746
निराश	8747
घोटाला	8748
ऑडियो	8749
भिंड	8750
वाजपेयी	8751
बयानों	8752
इकोनॉ	8753
क्व	8754
डंपर	8755
नारा	8756
भंग	8757
सवा	8758
सरोज	8759
##गिल	8760
##डु	8761
##aj	8762
##ालन	8763
प्रौ	8764
##राद	8765
##ाइश	8766
जोड़े	8767
दिनभर	8768
अनुदान	8769
सहारा	8770
गोप	8771
पैस	8772
2011	8773
ऑफ़	8774
पेन	8775
रनौत	8776
सौभाग्य	8777
अपराधों	8778
गतिविधि	8779
गायत्री	8780
हवाएं	8781
पटरी	8782
ग्रेड	8783
घेराव	8784
इशारा	8785
कुत्ते	8786
अनीता	8787
शरीफ	8788
चिह्नित	8789
इमारत	8790
वाल्मीकि	8791
अभाव	8792
खिड़	8793
चाली	8794
झाला	8795
थम	8796
धौल	8797
पाद	8798
बठ	8799
##पिंग	8800
केवी	8801
परेड	8802
जाग	8803
राजगढ़	8804
##दाश्त	8805
बैतूल	8806
गोवंश	8807
फैशन	8808
एनएस	8809
##बूझ	8810
##ang	8811
पंचायतों	8812
खाड़ी	8813
निदेशालय	8814
प्रदर्शित	8815
सिलसिले	8816
प्रताड़ित	8817
जेडीयू	8818
भेदभाव	8819
सेवानिवृत्त	8820
तत्वावधान	8821
त्वरित	8822
shar	8823
इजा	8824
कस्टम	8825
गी	8826
जियो	8827
दयाल	8828
वाट	8829
सनी	8830
##ip	8831
##पु	8832
##आइ	8833
##ृत्ति	8834
केयर	8835
प्रांत	8836
##हीर	8837
##हीन	8838
##रेगा	8839
मांस	8840
रोड़	8841
एसएस	8842
रामपुर	8843
इलाहाबाद	8844
##धारोपण	8845
डीजे	8846
श्रीम	8847
कप्तानी	8848
संभाला	8849
सहयोगियों	8850
पौधारोपण	8851
इलेक्शन	8852
खुली	8853
खुलने	8854
##लेश्वर	8855
क़रीब	8856
हाइवे	8857
निर्माता	8858
जर्मनी	8859
निस्तारण	8860
मॉनिटरिंग	8861
पीडब्ल्यूडी	8862
खुर	8863
फू	8864
भंवर	8865
सत्	8866
##नो	8867
##ाध्यक्ष	8868
##हाना	8869
##ौनी	8870
##hone	8871
##दयाल	8872
राउ	8873
महल	8874
##ल्ले	8875
##स्तों	8876
बिट्टू	8877
कमान	8878
##ुतोष	8879
मीरा	8880
संगीता	8881
पंचांग	8882
पेटी	8883
प्रसन्न	8884
संचालकों	8885
##र्शियल	8886
रिक्त	8887
भेजकर	8888
गणतंत्र	8889
लखी	8890
##र्निंग	8891
वार्डों	8892
समाचार	8893
फास्ट	8894
कांवड़	8895
झाड़	8896
नगरी	8897
प्लाजा	8898
महेंद्रगढ़	8899
पदार्थों	8900
आंगनबाड़ी	8901
जनप्रतिनिधियों	8902
कॉमर्स	8903
##जोत	8904
तत्वों	8905
दानापुर	8906
जेवरात	8907
अड	8908
उग्र	8909
झंडा	8910
मूर्	8911
मादक	8912
शेट	8913
##um	8914
##षक	8915
सेम	8916
इसने	8917
##त्रु	8918
साड़ी	8919
एकमात्र	8920
महंगा	8921
##देशक	8922
जानता	8923
##णाधीन	8924
रामलीला	8925
आगमन	8926
चलाकर	8927
वैभव	8928
##ष्ठा	8929
भरकर	8930
खाकर	8931
निशाने	8932
आशुतोष	8933
##ियारपुर	8934
कैमरों	8935
##कलन	8936
समीकरण	8937
प्रतापगढ़	8938
मुहैया	8939
एसीपी	8940
स्ट्राइक	8941
नीलम	8942
##वैधानिक	8943
चैलेंज	8944
झुंझुनूं	8945
महिंद्रा	8946
इजाफा	8947
कबीर	8948
गड	8949
डरा	8950
नाला	8951
लता	8952
##जनी	8953
##गित	8954
##कल्प	8955
कोहरा	8956
##ित्री	8957
##्यांकन	8958
देनी	8959
निवार	8960
##्तों	8961
बैटिंग	8962
उपर	8963
अभद्र	8964
कपड़ों	8965
2010	8966
आमंत्रित	8967
2005	8968
शाहिद	8969
परेशानियों	8970
परिवर्त	8971
पोलिंग	8972
मेहमान	8973
निर्मल	8974
चार्जिंग	8975
फुटबॉल	8976
आकर्षित	8977
दादरी	8978
इलेक्ट्रॉनिक	8979
परिचालन	8980
खिताब	8981
अख्त	8982
चचे	8983
तां	8984
रश्म	8985
सलीम	8986
##लत	8987
##मो	8988
##कूट	8989
##कॉम	8990
##भूत	8991
##st	8992
##ोंग	8993
विफल	8994
दीदी	8995
वर्दी	8996
##ूराम	8997
आईपीएस	8998
110	8999
बंदूक	9000
भगवंत	9001
फरिया	9002
##णीय	9003
मंडला	9004
सैफ	9005
पारस	9006
शिना	9007
मॉड	9008
प्रकाशित	9009
एसडीपीओ	9010
बर्दाश्त	9011
घुसपै	9012
एग्जिट	9013
गतिविधियां	9014
निर्माणाधीन	9015
वाइस	9016
झूठे	9017
शिवाजी	9018
बठिंडा	9019
घुसपैठ	9020
घबरा	9021
झील	9022
दाह	9023
दोगु	9024
पेंड	9025
मीन	9026
हत	9027
##चू	9028
##एप	9029
##हू	9030
##दु	9031
##याम	9032
कोविड	9033
होल	9034
साक्षी	9035
संल	9036
दोहरा	9037
रखेंगे	9038
पुस्तक	9039
राज्यमंत्री	9040
सीएमएचओ	9041
माहेश्वरी	9042
वारंट	9043
अंतर्राष्ट्रीय	9044
##फिकेशन	9045
विचारधारा	9046
सिद्धांत	9047
द्विवेदी	9048
जबरदस्ती	9049
ठिकानों	9050
डेमोक	9051
बैंकों	9052
मजाक	9053
दस्तावेजों	9054
बलात्कार	9055
कंड	9056
कड़े	9057
खट	9058
ताइ	9059
दांव	9060
दवाइ	9061
मऊ	9062
लाना	9063
शिप	9064
##ैच	9065
##तोड़	9066
##ब्रे	9067
##डनी	9068
##he	9069
##खों	9070
##िकरण	9071
सम्	9072
##क्ष्मी	9073
सीरिया	9074
##ष्कार	9075
बेल्ट	9076
पाता	9077
बुलाई	9078
बुझाने	9079
प्रदेशाध्यक्ष	9080
##ंसू	9081
कपड़ा	9082
मज़	9083
बॉस	9084
संपूर्ण	9085
गैंगरेप	9086
टूटने	9087
##ट्‌टी	9088
दिग्विजय	9089
बढ़ेगी	9090
मेघवाल	9091
सीताराम	9092
बेरोजगारी	9093
झुलस	9094
मल्लिक	9095
फिसल	9096
सोसायटी	9097
धौलपुर	9098
ap	9099
ऑयल	9100
ओला	9101
कट्टा	9102
घात	9103
चारा	9104
भटक	9105
भैया	9106
##वला	9107
##घरों	9108
##10	9109
##्रार	9110
कोठी	9111
स्मार	9112
निभ	9113
##त्तियों	9114
महानगर	9115
##हराम	9116
पहुंचेंगे	9117
##वेन्यू	9118
##डीसी	9119
देखरेख	9120
रामा	9121
मानक	9122
##प्ट	9123
स्पेस	9124
आमतौर	9125
उद्यम	9126
व्याख्या	9127
नौसेना	9128
बनेगी	9129
चीख	9130
2004	9131
निकलकर	9132
पाएगा	9133
##नेश्वर	9134
मूंग	9135
##esh	9136
साधना	9137
सोनीपत	9138
प्रोड्यू	9139
वेस्टइंडीज	9140
पर्ची	9141
बौद्ध	9142
हस्तक्षेप	9143
हिंदुस्तान	9144
अवधेश	9145
विराजमान	9146
ब्रिटिश	9147
कार्मिक	9148
ट्रांसफार्मर	9149
आलू	9150
चप्प	9151
धूल	9152
नड्डा	9153
मच्छ	9154
मिज	9155
##मनी	9156
##ख्ता	9157
कोहरे	9158
सेग	9159
##नाई	9160
राख	9161
मुंडा	9162
बताकर	9163
बताती	9164
राजनाथ	9165
##ल्ली	9166
पीटीआई	9167
बैज	9168
स्टाइल	9169
कॉरि	9170
##कर्ताओं	9171
हेरो	9172
सचिवालय	9173
दुनियाभर	9174
##est	9175
##ताहिक	9176
रिश्तेदारों	9177
रॉयल	9178
काउंटर	9179
नतीजा	9180
धारदार	9181
पंजीयन	9182
घटकर	9183
##द्योगिकी	9184
तूफान	9185
फतेहपुर	9186
कोयला	9187
म्यूजिक	9188
##िंटन	9189
नहाने	9190
वृंदावन	9191
आैर	9192
जया	9193
टु	9194
शंभ	9195
##एगा	9196
##लि	9197
##ंबा	9198
##जुए	9199
##पूर	9200
प्रह	9201
विवरण	9202
साप्	9203
एकल	9204
सुध	9205
अनदे	9206
##मीन	9207
जानवरों	9208
##ांचल	9209
कमर	9210
##डीओ	9211
कहे	9212
वेडिंग	9213
कॉम्	9214
रखती	9215
गुड	9216
बसंत	9217
##ांडा	9218
पुरोहित	9219
साहिल	9220
...'	9221
जितनी	9222
ठेका	9223
पटियाला	9224
धोनी	9225
वकीलों	9226
बूथों	9227
भरोसे	9228
अश्विनी	9229
ग़ज़ा	9230
इरफान	9231
घनश्याम	9232
वॉट्सऐप	9233
हृदय	9234
मियां	9235
शत	9236
हू	9237
हरे	9238
##्वि	9239
##ंठ	9240
##होर	9241
##वर्ष	9242
##पाली	9243
##िएट	9244
##रात्रि	9245
मुन	9246
##पीसी	9247
##िशंकर	9248
##स्तौल	9249
##द्वार	9250
कार्यपाल	9251
बनाता	9252
सहार	9253
पढ़ा	9254
स्वाति	9255
योजनाएं	9256
राहगी	9257
सितम्बर	9258
##डेजा	9259
संविदा	9260
बंधन	9261
टॉस	9262
सोनाक्षी	9263
रिलायंस	9264
अनुमंडल	9265
प्रोफेशन	9266
निचले	9267
ध्रुव	9268
मैरिज	9269
कॉरिडोर	9270
हेरोइन	9271
साप्ताहिक	9272
co	9273
se	9274
we	9275
ऋण	9276
कतार	9277
खैर	9278
छपरा	9279
तुर्	9280
बची	9281
हौ	9282
हवन	9283
##47	9284
##हट	9285
##़ा	9286
##ुसार	9287
##शिंग	9288
##ॉर	9289
##ढे	9290
केदार	9291
कालोनी	9292
##ामे	9293
##ायन	9294
मुर्म	9295
मेजब	9296
बैन	9297
पिस्तौल	9298
इंटेल	9299
##क्सो	9300
गुस्से	9301
डिस्क	9302
शिक्षण	9303
क्रिस	9304
बांट	9305
निर्देशक	9306
पुरा	9307
सकेगी	9308
विकेटकी	9309
लोकेश	9310
##ादाबाद	9311
##्युनि	9312
नागपुर	9313
प्रतिष्ठित	9314
खोजबीन	9315
गीतों	9316
भंडार	9317
आराधना	9318
विपिन	9319
सेल्फी	9320
त्याग	9321
हेल्पलाइन	9322
पीयूष	9323
पाटीदार	9324
प्रवर्तन	9325
खां	9326
खाई	9327
जले	9328
मॉल	9329
रमन	9330
शत्रु	9331
##ud	9332
##उंस	9333
कीर्ति	9334
काटा	9335
प्रेशर	9336
##गाई	9337
अपार्टमेंट	9338
बेन	9339
दूसरों	9340
आयकर	9341
##एसएल	9342
फैन	9343
मार्क	9344
##ख्यात	9345
डेरा	9346
संतों	9347
धमक	9348
तिमाही	9349
नागरिकता	9350
फ्रॉड	9351
प्रिंट	9352
सिद्धू	9353
मुरादाबाद	9354
सीतामढ़ी	9355
भड़क	9356
धीरज	9357
ब्लास्ट	9358
कागजात	9359
अत्यंत	9360
शूटर	9361
एकेडमी	9362
फेस्टिवल	9363
खनिज	9364
सहरसा	9365
सीवरेज	9366
प्रौद्योगिकी	9367
राहगीरों	9368
चूर	9369
जडेजा	9370
तर्ज	9371
श्वे	9372
##भान	9373
##ामक	9374
बाउंड	9375
जाओ	9376
संदर्	9377
##मावत	9378
##ाइजी	9379
##ल्व	9380
##ुपयोग	9381
##वेदी	9382
निर्व	9383
द्वि	9384
द्वीप	9385
नामों	9386
विक्रे	9387
शिवलिंग	9388
प्रदोष	9389
हाथियों	9390
कराते	9391
रजनी	9392
##ind	9393
जालोर	9394
सुपरस्टार	9395
बाइडन	9396
##स्थापित	9397
गजेंद्र	9398
दायित्व	9399
मिथुन	9400
रिलेशन	9401
##दर्शी	9402
ड्रग्स	9403
श्रृंगार	9404
राघव	9405
ओटीटी	9406
दिलचस्प	9407
अधिसूचना	9408
सेगमेंट	9409
खि	9410
घसी	9411
जेट	9412
लाह	9413
वां	9414
##लें	9415
कास	9416
##तिथि	9417
##सेवक	9418
समग्र	9419
समुद	9420
सीमेंट	9421
##्वयन	9422
सोह	9423
पाटिल	9424
सरकारों	9425
सूर्या	9426
पैकेट	9427
पैकेज	9428
जगद	9429
आरएसएस	9430
##ष्ठान	9431
फीचर	9432
सीएमओ	9433
रिफ	9434
धमका	9435
प्लस	9436
##ुर्द	9437
याचिकाकर्ता	9438
कबूल	9439
पर्यवे	9440
उतरने	9441
नियंत्रित	9442
##पीएससी	9443
चार्जशीट	9444
इकबाल	9445
इसराइली	9446
नजदीकी	9447
चक्रवा	9448
योगा	9449
नमाज	9450
थिएटर	9451
अरुणाचल	9452
श्वेता	9453
संदर्भ	9454
समुद्री	9455
कुरु	9456
खेर	9457
पाय	9458
बिन	9459
हांसी	9460
हज़ार	9461
##न्या	9462
##श्रे	9463
##यर्स	9464
##णवी	9465
##दड़	9466
##र्चित	9467
सेक्शन	9468
काफ़ी	9469
##स्स	9470
##लेव	9471
##लेशन	9472
##रीत	9473
उन्न	9474
संचार	9475
संजू	9476
मुस्त	9477
सीएस	9478
##ल्हा	9479
##स्थी	9480
स्थगित	9481
इनसे	9482
उपज	9483
जनगणना	9484
बुखार	9485
रखवाया	9486
पुस्त	9487
इलाक़	9488
प्रशंसा	9489
उमर	9490
विवादों	9491
संतु	9492
नोटिफिकेशन	9493
रुचि	9494
मूल्यांकन	9495
तस्वीरों	9496
मोहनलाल	9497
गुरू	9498
बांधकर	9499
##चुअल	9500
हिस्सेदारी	9501
एडीएम	9502
रणनीतिक	9503
कोरबा	9504
बांसवाड़ा	9505
यूरोप	9506
##ather	9507
भैंस	9508
डूंगरपुर	9509
किस्मत	9510
अख्तर	9511
is	9512
एएन	9513
झड़	9514
मकर	9515
##बर्ग	9516
##ूंगी	9517
काब	9518
पराम	9519
समीर	9520
##ायुक्त	9521
##ादर	9522
राजसमंद	9523
मिलन	9524
सरेंडर	9525
##स्पति	9526
मुख्तार	9527
हिस्ट्री	9528
ग्रह	9529
भाटी	9530
चौथा	9531
कांग्रेसी	9532
1500	9533
सुनते	9534
पेड़ों	9535
दिखने	9536
सैय	9537
जमीनी	9538
##ाटक	9539
उपलक्ष्य	9540
फेडरेशन	9541
छापा	9542
निर्वाचित	9543
हाउसिंग	9544
उत्पादों	9545
खोलकर	9546
चिकित्सालय	9547
##सुनी	9548
जाटव	9549
नीलामी	9550
पहनकर	9551
अमीर	9552
ठहराया	9553
अधिग्रहण	9554
रत्न	9555
##ोर्टर	9556
ब्लैकम	9557
एहसास	9558
पैसेंजर	9559
डेमोक्रेट	9560
weather	9561
उतरी	9562
गाजीपुर	9563
लहरा	9564
वरीय	9565
##एगी	9566
##ाफ्ट	9567
##तियां	9568
##ष्म	9569
सेरे	9570
कागज	9571
##तांत्रिक	9572
परमार	9573
##लाद	9574
##ुराम	9575
साधारण	9576
##ंदगांव	9577
##माता	9578
सुचार	9579
बैर	9580
टीका	9581
पाउ	9582
विक्ष	9583
##आईपी	9584
रेन	9585
##बाबू	9586
महाकु	9587
निर्देशों	9588
वैध	9589
##तमंद	9590
बजरी	9591
मार्गों	9592
ब्लू	9593
गोलीबारी	9594
घुसे	9595
##िक्रमा	9596
धीमी	9597
पहलुओं	9598
बुलंद	9599
पड़ोसियों	9600
अभिभावकों	9601
नवनि	9602
अंबिकापुर	9603
शेट्टी	9604
परिवर्तित	9605
शिनाख्त	9606
इंटेलिज	9607
com	9608
mar	9609
आड	9610
आला	9611
आकार	9612
क्रे	9613
##सनी	9614
##बानी	9615
##धू	9616
##णिज	9617
##oc	9618
##ॉर्क	9619
##ड़ने	9620
होल्ड	9621
राइट	9622
निफ्टी	9623
मुंग	9624
##काव	9625
राजना	9626
##ानाबाद	9627
##ोजित	9628
मैथ	9629
स्टडी	9630
##र्सन	9631
गोवर्धन	9632
पैन	9633
ऑफिशियल	9634
हेमा	9635
दीपेंद्र	9636
बदलकर	9637
##फेयर	9638
मॉर्च	9639
प्रेसि	9640
मनीषा	9641
दवाओं	9642
डोडा	9643
##कांक्षा	9644
मवेशी	9645
ऑपरेटर	9646
चतुर्वेदी	9647
दंपती	9648
प्रमोशन	9649
अती	9650
खै	9651
खदान	9652
चिट्	9653
टें	9654
नाना	9655
वॉक	9656
##स्य	9657
##ब्स	9658
##णाल	9659
##खाना	9660
परंतु	9661
##क्व	9662
प्रिया	9663
##वायर	9664
कुम	9665
##वेव	9666
कमरा	9667
बनता	9668
लग्	9669
भाग्य	9670
##मिकल	9671
पंचायती	9672
पांचवें	9673
##बाजार	9674
सदस्यीय	9675
गणित	9676
बोलेरो	9677
फ्रेंच	9678
मालिकों	9679
दशकों	9680
भोजपुर	9681
बुजुर्गों	9682
आतंकवादी	9683
डिपो	9684
आखिरकार	9685
जसप्रीत	9686
हितों	9687
कचरे	9688
तृणम	9689
सिनेमाघरों	9690
घाटी	9691
तेंदुए	9692
विपरीत	9693
आतिशी	9694
अत्यधिक	9695
लिहाज	9696
डाउनलोड	9697
शिशु	9698
अकादमी	9699
कामकाज	9700
गूंज	9701
बाउंड्री	9702
ब्लैकमेल	9703
तृणमूल	9704
अखंड	9705
छोट	9706
जत्	9707
झांक	9708
टायर	9709
नमी	9710
बान	9711
मुल	9712
वीक	9713
##ैक्चर	9714
##ोव	9715
##बान	9716
##ईडी	9717
##शय	9718
##शियल	9719
कोठ	9720
प्रकट	9721
स्त	9722
लेफ्ट	9723
टीचर्स	9724
##न्ने	9725
सबका	9726
बहि	9727
एसके	9728
करीना	9729
एनर्जी	9730
##समैन	9731
##िज्म	9732
पहुंचीं	9733
इमाम	9734
रजिस्टर	9735
न्यूय	9736
##डेन	9737
##िडेंट	9738
लैस	9739
पहाड़	9740
भावनाओं	9741
आतंकियों	9742
विभाजन	9743
दर्दनाक	9744
वैज्ञानिकों	9745
अथवा	9746
##ोमणि	9747
सीतारमण	9748
रोमांच	9749
मायावती	9750
धमाके	9751
शारदा	9752
##कुमारी	9753
अपनाने	9754
बेनीवाल	9755
मल्लिकार्जुन	9756
राजनांदगांव	9757
ट्वि	9758
थै	9759
पॉप	9760
फिन	9761
भगा	9762
मन्न	9763
हजारी	9764
##जेशन	9765
##बु	9766
सेवक	9767
##क्ख	9768
प्रस्थान	9769
##वाड	9770
बाएं	9771
##तेश	9772
##सीए	9773
सुक	9774
बारह	9775
कैंसिल	9776
बनते	9777
रामेश्वर	9778
उत्तम	9779
भारतीयों	9780
रिपोर्टर	9781
वैदिक	9782
वैशाली	9783
बजाज	9784
##रिकेड	9785
गायन	9786
बूंदा	9787
सभापति	9788
सिकंदर	9789
##खेड़ी	9790
अनुपम	9791
##ानुमान	9792
पंजीकरण	9793
मंजूर	9794
वोटरों	9795
आतिश	9796
हेलमेट	9797
हीटवेव	9798
प्रतिबद्धता	9799
उन्‍होंने	9800
नूंह	9801
सब्सिडी	9802
इकलौ	9803
तुर्की	9804
##णिज्य	9805
आंतर	9806
ओझा	9807
तख्त	9808
नसी	9809
फूट	9810
लक्षण	9811
वंश	9812
शर्	9813
हज	9814
##चुरी	9815
##जिस्ट	9816
##गना	9817
##ोभ	9818
##ोन्न	9819
##पचारिक	9820
केक	9821
केसर	9822
परा	9823
पराली	9824
##रीबी	9825
##कास्ट	9826
महानि	9827
जानबूझ	9828
जीजा	9829
पाण्ड	9830
सूबे	9831
हिंसक	9832
गोला	9833
नाकाब	9834
लोकार्पण	9835
पूर्वानुमान	9836
आयात	9837
##्रास्ट्र	9838
मोहाली	9839
देवताओं	9840
अहिर	9841
लाइब्रे	9842
##कमिंग	9843
रजिस्टर्ड	9844
नागौर	9845
दामाद	9846
शेखपुरा	9847
टाइम्स	9848
उतारने	9849
upd	9850
भूपेश	9851
फतेहाबाद	9852
रसोई	9853
आपत्तिजनक	9854
and	9855
निकायों	9856
चिन्हित	9857
##प्लेक्स	9858
उछाल	9859
ख्याल	9860
प्वाइंट	9861
गडकरी	9862
##श्रेष्ठ	9863
परामर्श	9864
आंतरिक	9865
आंसू	9866
चो	9867
चित	9868
छत्र	9869
नदियों	9870
फड	9871
फाटक	9872
बबल	9873
यहाँ	9874
शिम	9875
शॉट	9876
##रपुर	9877
##ूण	9878
##re	9879
काउंट	9880
##लेरिया	9881
निवासियों	9882
अन्त	9883
चुप्पी	9884
बीघा	9885
##किम	9886
जीरो	9887
कम्युनि	9888
ग्रंथ	9889
उठाना	9890
कलां	9891
अफरा	9892
समझाने	9893
छोड़ी	9894
बलौदा	9895
विवादित	9896
मकानों	9897
ड्राइव	9898
450	9899
##ase	9900
##सायिक	9901
सपने	9902
मुरली	9903
हराकर	9904
इस्तीफे	9905
घेरा	9906
एडमिट	9907
बीएसएफ	9908
गहराई	9909
धीरेंद्र	9910
समन्वयक	9911
गिफ्ट	9912
दृश्य	9913
शिरोमणि	9914
फटकार	9915
बर्फबारी	9916
सोयाबीन	9917
मिर्जापुर	9918
आध्यात्म	9919
इंटेलिजेंस	9920
नाकाबंदी	9921
अष्टमी	9922
कटे	9923
छतर	9924
जौन	9925
ढोल	9926
नमन	9927
फाल	9928
फंदा	9929
वॉल	9930
शम	9931
सद्	9932
हनी	9933
##थुर	9934
##गड़ी	9935
##व्र	9936
प्राय	9937
अधू	9938
सीवान	9939
##ष्क	9940
इनको	9941
गोता	9942
डीलर	9943
लीजिए	9944
आरक्षित	9945
वैल	9946
गर्ल्स	9947
व्यवस्थाओं	9948
धर्मशाला	9949
नवजात	9950
##िगो	9951
हटाकर	9952
घाटों	9953
उद्योगों	9954
मेरिट	9955
##वायु	9956
ओपनिंग	9957
इंद्रजीत	9958
गिरिडीह	9959
सेकेंडरी	9960
पितृ	9961
व्यावसायिक	9962
खूबसूरत	9963
फेमस	9964
नानक	9965
##णवीस	9966
एंटर	9967
क्ले	9968
चंबल	9969
दस्त	9970
##गार्ड	9971
##ँच	9972
##णे	9973
##hp	9974
##og	9975
कीं	9976
##क्लेव	9977
रहेंगी	9978
अपकमिंग	9979
दीजिए	9980
मोति	9981
बेचा	9982
##द्व	9983
लाड	9984
दूंगा	9985
भाभी	9986
नाट	9987
अगला	9988
दिग	9989
डीआईजी	9990
जहानाबाद	9991
मांगें	9992
तीज	9993
##आरती	9994
टेस्‍ट	9995
जलवायु	9996
भरपूर	9997
लौटी	9998
आश्व	9999
##र्पियो	10000
जागरण	10001
neet	10002
तुम्हें	10003
माधव	10004
ध्वस्त	10005
जंगली	10006
सशस्त्र	10007
##ोत्तर	10008
##क्यूमेंट	10009
##ोग्राफी	10010
शैलेंद्र	10011
फ़िल्म	10012
स्रोत	10013
अपेक्षा	10014
चालीसा	10015
सहारनपुर	10016
फडणवीस	10017
pol	10018
आवारा	10019
कों	10020
कारी	10021
नन	10022
भाल	10023
##ैश	10024
##गठ	10025
##बनी	10026
##कॉप्टर	10027
##विश्वास	10028
##फुल	10029
##नेट	10030
नेत्र	10031
##हाग	10032
##ियर्स	10033
##राउंड	10034
समिट	10035
पूंजी	10036
सुधा	10037
अनिश्चित	10038
##जेक्ट	10039
कमाने	10040
अंकुश	10041
डॉक्यूमेंट	10042
गिरे	10043
नाक	10044
गुड़	10045
बदली	10046
मानने	10047
भगदड़	10048
तरफ़	10049
अवसरों	10050
##वाहक	10051
ताबड़	10052
##ांकित	10053
विचारों	10054
भूख	10055
जिंदल	10056
रजिस्ट्रार	10057
ग्रेजुए	10058
बढ़ेगा	10059
संभालने	10060
ढाका	10061
पुतला	10062
व्हील	10063
जनप्रतिनिधि	10064
टुकड़े	10065
प्रधानाचार्य	10066
मुनाफा	10067
प्राइमरी	10068
ज़रूरत	10069
अनुकूल	10070
डकैती	10071
निवारण	10072
महाकुंभ	10073
बहिष्कार	10074
ताबड़तोड़	10075
900	10076
औष	10077
कृत	10078
घटा	10079
झज्जर	10080
टेल	10081
डीन	10082
माप	10083
यानि	10084
##्वा	10085
##कला	10086
##वर्ड	10087
##शेष	10088
##na	10089
केबल	10090
##ान्यास	10091
परिक्रमा	10092
सिग्न	10093
जानवर	10094
उपेंद्र	10095
आपसे	10096
मातृ	10097
नाबाद	10098
नाकाम	10099
मतों	10100
##च्छेद	10101
शेखर	10102
दरों	10103
##ank	10104
कानूनों	10105
मालवा	10106
नौज	10107
मिनी	10108
कार्यालयों	10109
वाणिज्य	10110
##ation	10111
रंगदारी	10112
किसने	10113
महाराजा	10114
अर्घ	10115
विमानों	10116
इन्फ	10117
सावित्री	10118
शिलान्यास	10119
समृद्ध	10120
मौलाना	10121
ज्वेलरी	10122
स्टोरेज	10123
##ष्टीकरण	10124
यूट्यूब	10125
ढांचे	10126
कॉलोनियों	10127
बूंदाबां	10128
##्रास्ट्रक्चर	10129
आएं	10130
जौ	10131
जड़	10132
टंडन	10133
ठप	10134
नाह	10135
नवी	10136
नाली	10137
पर्चा	10138
भूत	10139
रोट	10140
##रथ	10141
##ंकिंग	10142
##िटे	10143
##ोत्रा	10144
##ोरेट	10145
##काय	10146
##if	10147
##पोल	10148
##ओयू	10149
लेटेस्ट	10150
बीपी	10151
जोश	10152
बेका	10153
बैडम	10154
टीएमसी	10155
इनकम	10156
बिता	10157
पिंड	10158
पावन	10159
रुपया	10160
रोटी	10161
जुन	10162
रामनिवास	10163
रेग	10164
महाप्र	10165
एनजी	10166
दरगाह	10167
एमजी	10168
##कालिक	10169
साहस	10170
असाम	10171
बंगले	10172
प्राइस	10173
साधु	10174
फ्लाईओ	10175
##ist	10176
बुलाने	10177
अनुपमा	10178
हेलिक	10179
स्थिरता	10180
मवेशियों	10181
डायवर्ट	10182
नॉर्थ	10183
##पंथी	10184
कंटेनर	10185
दुरुपयोग	10186
स्मारक	10187
विकेटकीपर	10188
मुंगेर	10189
जौनपुर	10190
बूंदाबांदी	10191
फ्लाईओवर	10192
एस्ट	10193
खेम	10194
दार	10195
नक्	10196
##थला	10197
##किश	10198
##भुत	10199
##mc	10200
##ण्	10201
कोल्ड	10202
कोहराम	10203
कांस	10204
काजल	10205
##्यर	10206
विद्र	10207
सिद्धि	10208
कुश्ती	10209
कहासुनी	10210
##रोपण	10211
बेतिया	10212
पीर	10213
घरवालों	10214
बनारस	10215
गोपी	10216
यूथ	10217
बरस	10218
उठाई	10219
प्रभार	10220
पोस्टिंग	10221
##राज्य	10222
पकड़ी	10223
160	10224
नवमी	10225
तिहा	10226
पड़ेगी	10227
आत्मनि	10228
डाटा	10229
दमदार	10230
संबोधन	10231
डायरेक्ट	10232
उड़ाने	10233
समूहों	10234
रिश्तों	10235
तालिब	10236
प्रोत्साहन	10237
गिरिराज	10238
बगैर	10239
टर्मिनल	10240
कुत्तों	10241
अखबार	10242
फिटनेस	10243
श्रमिकों	10244
बरतने	10245
हेलीकॉप्टर	10246
पेंटिंग	10247
झड़प	10248
सेरेमनी	10249
बेकाबू	10250
हेलिकॉप्टर	10251
उमा	10252
दस्तक	10253
प्याज	10254
सटीक	10255
##ीकरण	10256
##ेली	10257
##ुस	10258
##ies	10259
##दायत	10260
##वाड़े	10261
मुर्	10262
सिरो	10263
सिरे	10264
राजभ	10265
जानकी	10266
बनाम	10267
गिरफ़	10268
एसआईटी	10269
नाच	10270
अलमारी	10271
##देवी	10272
एनआई	10273
दिव्य	10274
##शाही	10275
गर्भ	10276
देवता	10277
बनाएंगे	10278
दिसम्बर	10279
जरूरतमंद	10280
##एफओ	10281
बंगला	10282
##रलैंड	10283
##ala	10284
खुलासे	10285
लूटपाट	10286
गुरप्रीत	10287
5000	10288
पुरुषोत्तम	10289
ऊंची	10290
कुशवाह	10291
सावधानी	10292
बृजेश	10293
अल्पसंख्यकों	10294
पौधरोपण	10295
खंगाल	10296
फिरोजपुर	10297
वस्तु	10298
मनोरंजन	10299
परीक्षार्थी	10300
इजाज	10301
सॉफ्टवेयर	10302
गर्लफ्रेंड	10303
कर्तव्य	10304
मुर्मू	10305
आतिशबाजी	10306
आध्यात्मिक	10307
बैडमिंटन	10308
इस्	10309
ग्ल	10310
डब	10311
भजनों	10312
रील	10313
##हु	10314
##यिक	10315
##ओसी	10316
##्यै	10317
जातक	10318
सम्ब	10319
##ोगे	10320
टीबी	10321
बनाती	10322
शुरु	10323
हिदायत	10324
सहनी	10325
सहारे	10326
प्रातः	10327
विदिशा	10328
पूछने	10329
उद्यान	10330
सौदा	10331
नरसिंह	10332
समझाइश	10333
खुदाई	10334
बचाई	10335
एडवाइ	10336
यूपीएससी	10337
मुक़	10338
##ंखला	10339
निभाया	10340
हरिद्वार	10341
##ब्राह	10342
वासियों	10343
गवर्नर	10344
आईएमडी	10345
खड़गे	10346
कुरुक्षेत्र	10347
प्रेसिडेंट	10348
न्यूयॉर्क	10349
बबलू	10350
",	10351
अफी	10352
आगा	10353
आकलन	10354
ऑर	10355
खौफ	10356
छक्के	10357
जटिल	10358
टच	10359
डंडों	10360
##ेंशियल	10361
बाजी	10362
##राष्ट्र	10363
##िविटी	10364
हमलोग	10365
##ेलवाल	10366
बनाएं	10367
पार्थ	10368
जनहित	10369
वेरि	10370
जुआ	10371
बहराइ	10372
स्कैन	10373
लोकतांत्रिक	10374
मिलीं	10375
ट्रेनी	10376
गर्दन	10377
बचत	10378
##पूर्ति	10379
कटारिया	10380
सर्वश्रेष्ठ	10381
वासी	10382
जन्मोत्सव	10383
कांके	10384
जॉर्ज	10385
##भारत	10386
बेटियां	10387
##गोपाल	10388
जनसंप	10389
कस्बा	10390
बिगड़ने	10391
फरीद	10392
कच्चे	10393
लिहाजा	10394
समितियों	10395
एसओजी	10396
लग्जरी	10397
अहिरवार	10398
बहराइच	10399
खाट	10400
ताले	10401
धरा	10402
फेर	10403
##मोल	10404
##gp	10405
##24	10406
करवाना	10407
संयोग	10408
संवैधानिक	10409
##पीय	10410
सीज	10411
सीम	10412
सीहोर	10413
##कारो	10414
##दाताओं	10415
सरल	10416
बैरिकेड	10417
बिस्	10418
उपवास	10419
स्टॉल	10420
एसएमएस	10421
नींव	10422
विधिव	10423
मील	10424
माले	10425
समझते	10426
प्लेस	10427
त्रिवेदी	10428
पंड्या	10429
उतना	10430
##ish	10431
चरित्र	10432
iphone	10433
मायने	10434
परमिशन	10435
बेटों	10436
##ब्रिज	10437
अंदाजा	10438
##ड्ढा	10439
बिरला	10440
गुमश	10441
एनसीआर	10442
फाइटर	10443
नीमच	10444
सत्तार	10445
अफीम	10446
जनसंपर्क	10447
अंध	10448
इब्राह	10449
छलांग	10450
झंडी	10451
झोप	10452
धुआं	10453
रंगे	10454
सरे	10455
##एआई	10456
##ोही	10457
##ोदा	10458
##ईसी	10459
किडन	10460
##्युरी	10461
प्रार	10462
##ड़ाई	10463
##वाट	10464
##िनार	10465
##्याय	10466
एकनाथ	10467
देन	10468
राजपुर	10469
महुआ	10470
##भीत	10471
जोकि	10472
भाटिया	10473
चौके	10474
पैरा	10475
##जहां	10476
दिवंगत	10477
दुर्भाग्य	10478
हॉट	10479
निकलते	10480
असद	10481
##ुदगी	10482
आवक	10483
ड्राइविंग	10484
सिक्स	10485
चाबी	10486
टास्क	10487
समुदायों	10488
सप्त	10489
अकेला	10490
अग्निश	10491
ऑलराउंड	10492
महापर्व	10493
गेम्स	10494
विमर्श	10495
रिव्यू	10496
##ग्राउंड	10497
बेरहमी	10498
अंधेरे	10499
तथ्य	10500
मल्होत्रा	10501
खिड़की	10502
##चूड़	10503
संलिप्त	10504
गुमशुदगी	10505
for	10506
ka	10507
ro	10508
एंगल	10509
दुरु	10510
निया	10511
नारी	10512
फर्क	10513
मर्च	10514
##लभ	10515
##जु	10516
##ेक्स	10517
##ग़	10518
##बोध	10519
किस्सा	10520
काफ	10521
##ालियन	10522
##िक्	10523
बाबर	10524
लेगी	10525
सिंगा	10526
##त्‍	10527
##ार्स	10528
बीबी	10529
##्वित	10530
इनपुट	10531
मुखर्जी	10532
बहाली	10533
ट्रां	10534
नाका	10535
आएंगी	10536
वोटर्स	10537
गौशाला	10538
जताते	10539
रीना	10540
मंथन	10541
कारोबारियों	10542
लॉन्‍च	10543
फ्लैग	10544
टूटे	10545
ग्रेटर	10546
गुजरने	10547
सीतापुर	10548
अल्लू	10549
पीएचडी	10550
व्हाइट	10551
दुश्मन	10552
asi	10553
तबादला	10554
अद्भुत	10555
बलिदान	10556
रेवन्ना	10557
स्कॉर्पियो	10558
गालियां	10559
फरियादी	10560
लाइब्रेरी	10561
मोतिहारी	10562
गगन	10563
चुर	10564
डिस	10565
बृह	10566
बंटी	10567
भुल	10568
वक़	10569
##40	10570
##ैद	10571
##गान	10572
##शक्ति	10573
##परी	10574
किसे	10575
करन	10576
##स्की	10577
##क्षकों	10578
निशा	10579
सिग	10580
अनो	10581
##ाइज	10582
##मेंस	10583
मोक्ष	10584
##क्राफ्ट	10585
अंकों	10586
##वरिया	10587
बढ़ाना	10588
रोने	10589
मात	10590
माथुर	10591
शुरूआ	10592
अमल	10593
आईसीसी	10594
डिटे	10595
खुर्द	10596
श्रीनगर	10597
महाजन	10598
महाआरती	10599
##वादियों	10600
##ज्ञा	10601
##बूत	10602
वैक्सी	10603
कौशिक	10604
टैक्सी	10605
चंद्रचूड़	10606
फ़ी	10607
हटाए	10608
सूर्यकुमार	10609
गोपालगंज	10610
रुकने	10611
खरगे	10612
सब्ज	10613
पंजीकृत	10614
##कूला	10615
बाइडेन	10616
पलटवार	10617
पर्दे	10618
अकबर	10619
पॉइंट्स	10620
गवर्नमेंट	10621
रचनात्मक	10622
गाइडलाइन	10623
प्रकोष्ठ	10624
imd	10625
त्रिपुरा	10626
दर्शाता	10627
कूलर	10628
क़ानून	10629
झालावाड़	10630
कॉम्प्लेक्स	10631
जानबूझकर	10632
अर्घ्य	10633
इब्राहिम	10634
bo	10635
इनामी	10636
क्री	10637
टोट	10638
दिये	10639
नफर	10640
##एसी	10641
##िटर	10642
##निस	10643
##न्त	10644
##टकर	10645
##भद्र	10646
##खाने	10647
केके	10648
केमिकल	10649
रास्तों	10650
जातीय	10651
##ुली	10652
##सेवा	10653
मुकु	10654
##त्तर	10655
कुमावत	10656
राजे	10657
अनार	10658
##विदा	10659
क्षण	10660
दुष्य	10661
कॉम्प	10662
ट्रोल	10663
इंटी	10664
रामचंद्र	10665
पूर्वोत्तर	10666
रेणु	10667
फैली	10668
पढ़े	10669
इंडी	10670
एनिम	10671
बांका	10672
दावेद	10673
पंचकूला	10674
सिर्फ़	10675
रुका	10676
##मेस्टर	10677
भुव	10678
पर्वत	10679
पार्टियां	10680
पुनः	10681
इंडस्ट्रीज	10682
सर्विसेज	10683
##पटॉप	10684
छठे	10685
इंग्लिश	10686
सनसनी	10687
ध्वज	10688
मुजफ्फरनगर	10689
बेरोजगार	10690
फिजिकल	10691
##भूति	10692
कॉमेडी	10693
नारनौल	10694
शंभू	10695
अनदेखी	10696
दावेदारी	10697
औपचारिक	10698
चट	10699
झंडे	10700
नूर	10701
भवानी	10702
मठ	10703
##िटेज	10704
##जिंदर	10705
##टकी	10706
##बरी	10707
##ps	10708
##दानी	10709
सेमेस्टर	10710
होट	10711
##सेट	10712
मुन्ना	10713
पूज	10714
##किता	10715
पीठा	10716
##ोरिया	10717
बनवाने	10718
##बीटी	10719
देशी	10720
फिरौती	10721
बोकारो	10722
मारुति	10723
आरजी	10724
शाहजहां	10725
सेंसर	10726
धनंजय	10727
फोटोज	10728
बिल्डर	10729
##ल्लभ	10730
##क्सीजन	10731
अंग्रेजों	10732
महाकालेश्वर	10733
जायेगी	10734
मोनू	10735
गोंडा	10736
हिरण	10737
अनुशासन	10738
भैरव	10739
हेरिटेज	10740
काउंटिंग	10741
ऑरेंज	10742
सिंगापुर	10743
दुष्यंत	10744
kar	10745
अर्श	10746
कूट	10747
कर्नल	10748
गंदा	10749
टाल	10750
टेंट	10751
त्य	10752
तले	10753
तफरी	10754
दया	10755
भूक	10756
रिंग	10757
वाक	10758
सटे	10759
सज्	10760
##चेंज	10761
##ैनी	10762
##ूठी	10763
##मक	10764
##ag	10765
##od	10766
##तावास	10767
कारगिल	10768
मुस्	10769
मेवाड़	10770
स्थाई	10771
पीली	10772
लात	10773
चलें	10774
अनुच्छेद	10775
चौबे	10776
अवल	10777
जरिये	10778
वैश्य	10779
अररिया	10780
सौंद	10781
180	10782
लिखते	10783
लोधी	10784
हल्दी	10785
सुखबीर	10786
##end	10787
नवाब	10788
आईपीओ	10789
जुड़ने	10790
फोरेंसिक	10791
चिल्ला	10792
बुरहान	10793
modi	10794
सुल्तानपुर	10795
पॉलिटिकल	10796
ईमानदारी	10797
आडवाणी	10798
मॉर्च्युरी	10799
छतरपुर	10800
राजभवन	10801
sh	10802
उभर	10803
कसा	10804
कन्	10805
झटके	10806
ठंडा	10807
तंग	10808
लायक	10809
वसु	10810
सार्थ	10811
##ंख्या	10812
##सरा	10813
##सतन	10814
##ोहर	10815
##ple	10816
##घन	10817
कोटे	10818
##ांडी	10819
##वार्ड	10820
लेबर	10821
लेडी	10822
सीआरपी	10823
अनमोल	10824
##ीनगर	10825
पाक	10826
अनुबंध	10827
विश्राम	10828
अवश्य	10829
पुख्ता	10830
क्रियान	10831
##कर्ष	10832
विकासखंड	10833
संगत	10834
शादीशुदा	10835
डेविड	10836
##म्बे	10837
जवाबी	10838
कराएं	10839
##पक्षीय	10840
गायों	10841
ख़त्म	10842
कपूरथला	10843
पैरवी	10844
हनुमानगढ़	10845
प्लाट	10846
चरखी	10847
एपल	10848
प्रतिनिधिमंडल	10849
घेराब	10850
लेखक	10851
##लाइंस	10852
वादे	10853
आईटीआई	10854
मचाया	10855
मुआवजे	10856
गिरीश	10857
##वार्थ	10858
बटालियन	10859
कमांडर	10860
उपकरणों	10861
सैयद	10862
पाण्डेय	10863
##किशोर	10864
सिरोही	10865
विधिवत	10866
आश्च	10867
एपी	10868
औसतन	10869
गरि	10870
चूक	10871
झूम	10872
पक्का	10873
फत	10874
मम्मी	10875
मलेरिया	10876
वेश	10877
शर्ट	10878
शून	10879
##57	10880
##थाम	10881
##न्यास	10882
##ot	10883
##द्य	10884
##उड	10885
##ओल	10886
##र्वा	10887
##हाड़े	10888
विद्	10889
स्वाद	10890
समर्पण	10891
हीरा	10892
बताता	10893
महाल	10894
##साफ	10895
मेहर	10896
पीआर	10897
वर्कर	10898
युक्त	10899
चलकर	10900
अनुष्ठान	10901
रामव	10902
प्रशास	10903
क्रांति	10904
स्पर्धा	10905
कृति	10906
दिखता	10907
खेलना	10908
गर्भग	10909
पांचों	10910
डालते	10911
क्लिन	10912
##िन्द्र	10913
ख़ान	10914
कब्र	10915
तेलु	10916
जंगलों	10917
1999	10918
पुष्कर	10919
बताना	10920
खरग	10921
जूते	10922
बालिकाओं	10923
चित्रकूट	10924
बाईपास	10925
लेनदेन	10926
##ive	10927
त्यागी	10928
फ़ैसला	10929
ट्यूब	10930
फिफ्टी	10931
अडानी	10932
निभाने	10933
दुरुस्त	10934
नफरत	10935
मुस्कान	10936
घेराबंदी	10937
आश्चर्य	10938
गर्भगृह	10939
icc	10940
उर्व	10941
कंच	10942
टेम	10943
दफ	10944
धड़	10945
धवन	10946
बकर	10947
बकरी	10948
रफी	10949
हकी	10950
##िवा	10951
##ोचन	10952
##ूद	10953
##मस	10954
##मिया	10955
##डोल	10956
##इयों	10957
##घ्न	10958
##दंड	10959
##‍स	10960
##ृता	10961
स्ली	10962
##ेश्याम	10963
##ंदाज	10964
मेजर	10965
पीपी	10966
दूतावास	10967
आये	10968
सूचक	10969
गोल्	10970
##यराम	10971
##र्डिंग	10972
रेख	10973
140	10974
##ग्गी	10975
पक्षियों	10976
अग्रिम	10977
टेस्टिंग	10978
फ्रेंड	10979
##ध्यापक	10980
मंचन	10981
स्टारर	10982
कूड़ा	10983
डिप्लो	10984
एचडी	10985
सियासत	10986
पर्दा	10987
नैतिक	10988
तेंदुआ	10989
जनजातीय	10990
बहुजन	10991
##........	10992
एनटीए	10993
आरपीएफ	10994
रिएक्शन	10995
आर्म्स	10996
चौरसिया	10997
डिब्बे	10998
पाउडर	10999
महानिदेशक	11000
गोताखोर	11001
तालिबान	11002
शून्य	11003
अनाव	11004
आंश	11005
आजीवन	11006
गंदे	11007
ज्‍या	11008
तौ	11009
नास	11010
पिला	11011
भ्रम	11012
सान	11013
िक	11014
##ोड़ा	11015
##बेर	11016
##व्या	11017
##यना	11018
##ld	11019
##ॉक्स	11020
किरो	11021
प्रच	11022
प्रांग	11023
##ायूं	11024
मुइ	11025
बीर	11026
बेला	11027
पीप	11028
पीसी	11029
परिस्थिति	11030
भागे	11031
चौड़ी	11032
गोवि	11033
मान्य	11034
आरंभ	11035
मनरेगा	11036
जयंत	11037
इंडस्ट्र	11038
संगम	11039
जेठ	11040
गंवा	11041
साहेब	11042
खरीदे	11043
रोकथाम	11044
संतान	11045
उत्तरप्रदेश	11046
##सूद	11047
सर्वस	11048
लिखने	11049
सातवें	11050
गोलू	11051
विवेकान	11052
पहाड़ों	11053
शासित	11054
गोल्डन	11055
सिंधी	11056
इच्छुक	11057
अब्दुल्ला	11058
मधुबनी	11059
सुपुर्द	11060
राधेश्याम	11061
suv	11062
निमंत्रण	11063
प्रीमियर	11064
संभागीय	11065
इकोनॉमी	11066
किडनैप	11067
अग्निशमन	11068
सौंदर्य	11069
गरिमा	11070
ज्‍यादा	11071
प्रांगण	11072
ac	11073
ex	11074
rss	11075
us	11076
अमान	11077
इटा	11078
चर्चित	11079
ताना	11080
दत्ता	11081
धाक	11082
नम्बर	11083
प्य	11084
फोड़	11085
लद्दा	11086
शमी	11087
शाजा	11088
##फोर्स	11089
##ुंद	11090
##घोष	11091
केएल	11092
किडनी	11093
##िक्ट	11094
होर्डिंग	11095
##गाड़ी	11096
##काशी	11097
कुंवर	11098
सीवर	11099
सीएन	11100
सरफ	11101
पीड़ा	11102
पाती	11103
अंकिता	11104
प्रतिस्प	11105
सहज	11106
इंजेक्शन	11107
पैरों	11108
डिस्ट्र	11109
शुगर	11110
फिल्मी	11111
यूएस	11112
पंवार	11113
पत्रों	11114
लगीं	11115
संपत्तियों	11116
रैंकिंग	11117
नवम्बर	11118
वर्गों	11119
सजावट	11120
उल्टी	11121
रक्षाबंधन	11122
छुट्‌टी	11123
बर्तन	11124
खंडेलवाल	11125
वॉर	11126
बायपास	11127
बेसिक	11128
वर्कश	11129
दावेदार	11130
अभिनंदन	11131
सीखने	11132
पटाखे	11133
मनुष्य	11134
विश्लेषण	11135
लुटेरों	11136
##क्कड़	11137
सम्पन्न	11138
##प्रदायिक	11139
आरटीओ	11140
घातक	11141
अवलोकन	11142
शाजापुर	11143
wor	11144
अच	11145
अर्जी	11146
ईशा	11147
गनी	11148
गोक	11149
चांस	11150
जांग	11151
जयराम	11152
नकल	11153
पख	11154
पाना	11155
पन्ना	11156
यंत्र	11157
वक्ता	11158
##ंते	11159
##इस	11160
##पाद	11161
##पर्सन	11162
##__	11163
##िल्ल	11164
प्रज्ज	11165
##वाधिकार	11166
##केल	11167
विगत	11168
राग	11169
साकार	11170
कुं	11171
##ष्का	11172
जनक	11173
##शीटर	11174
गोशाला	11175
एसबीआई	11176
मानवाधिकार	11177
##ज्जू	11178
बोल्ड	11179
लीज	11180
श्रीकांत	11181
चलाता	11182
बंदी	11183
जेडीए	11184
##म्‍	11185
सितारे	11186
रोककर	11187
राशिद	11188
गणमान्य	11189
असफल	11190
रुझ	11191
संभवत	11192
##ers	11193
पांड्या	11194
छुट	11195
ऑटोम	11196
क्रमश	11197
आर्टिस्ट	11198
जनसंख्या	11199
वासु	11200
शिरकत	11201
चेतन	11202
वस्तुओं	11203
जादू	11204
कनेक्टिविटी	11205
तड़के	11206
##प्लांट	11207
अस्तित्व	11208
##शिंगटन	11209
द्विपक्षीय	11210
कांस्य	11211
बुरहानपुर	11212
गोविंदा	11213
इंडस्ट्रियल	11214
अकाल	11215
ईमेल	11216
ऑर्	11217
गन	11218
गाजा	11219
चार्	11220
दवाई	11221
नैन	11222
फौ	11223
वाम	11224
##्ध	11225
##रूर	11226
##ंशी	11227
##गां	11228
##़त	11229
##यंस	11230
##ारसी	11231
कीमती	11232
परश	11233
##लास	11234
##िसिस	11235
साधन	11236
देओल	11237
महंगे	11238
बीसीसी	11239
मोटर्स	11240
हमसे	11241
##ेलो	11242
अबोहर	11243
कैदी	11244
कैडर	11245
कमरों	11246
दूल	11247
##मानंद	11248
उपहार	11249
रुपयों	11250
सहकार	11251
व्यय	11252
बुआ	11253
मानवीय	11254
बोझ	11255
पोते	11256
##ोहण	11257
हरियाली	11258
प्रसव	11259
एक्टिवा	11260
##ूडो	11261
##िप्ट	11262
भावुक	11263
हारने	11264
##ast	11265
झाड़ियों	11266
नगदी	11267
शहीदों	11268
जीवित	11269
अभिनव	11270
शिल्	11271
सुपौल	11272
किंग्स	11273
मोर्चरी	11274
भवनों	11275
उरांव	11276
प्रोफेशनल	11277
सिग्नल	11278
एस्टेट	11279
बृहस्पति	11280
सार्थक	11281
लद्दाख	11282
अवार्ड	11283
मधे	11284
शृ	11285
सारण	11286
##्ना	11287
##सनीय	11288
##ूढ़	11289
##मंड	11290
##विन्द	11291
##11	11292
##80	11293
##wal	11294
##ानियां	11295
##र्भर	11296
बाड़ी	11297
##क्षत्र	11298
##ार्द	11299
कुच	11300
सीबीएस	11301
बीएच	11302
सरह	11303
##खास्त	11304
वर्ण	11305
तरुण	11306
अंशु	11307
##ोरियम	11308
रोते	11309
नगरपालिका	11310
बैठाकर	11311
##प्‍	11312
एनाल	11313
उठने	11314
चंदा	11315
ड्रामा	11316
##िस्ट्री	11317
पक्षी	11318
नारियल	11319
आश्र	11320
वायरस	11321
चंद्रमा	11322
ख़ास	11323
मजबूरी	11324
चैंबर	11325
अय्यर	11326
##alm	11327
सुप्रीमो	11328
प्रतियोगिताओं	11329
टावर	11330
आत्मविश्वास	11331
बर्खास्त	11332
नगद	11333
1996	11334
प्रस्तुतियां	11335
लैपटॉप	11336
फेंका	11337
गुलाम	11338
आक्रामक	11339
बेसमेंट	11340
निशानदेही	11341
गुमराह	11342
अस्थाई	11343
सराहनीय	11344
कच्ची	11345
बिंदु	11346
कल्कि	11347
धुंध	11348
##ड्रिंग	11349
रेजिडेंट	11350
बर्थडे	11351
पादु	11352
चूरू	11353
रिलेशनशिप	11354
हिस्ट्रीशीटर	11355
डेमोक्रेटिक	11356
शिमला	11357
आत्मनिर्भर	11358
आगाज	11359
विवेकानंद	11360
en	11361
pan	11362
sho	11363
अवर	11364
नां	11365
नक्षत्र	11366
##ैतिक	11367
##pf	11368
##कन	11369
##पतियों	11370
##‌टी	11371
##ताशा	11372
##िलेश	11373
##िल्या	11374
प्रॉ	11375
प्रथा	11376
##ांतिक	11377
##वाइन	11378
##केला	11379
विंड	11380
एका	11381
बादलों	11382
##ासना	11383
अनवर	11384
दीर्	11385
दीक्षा	11386
##्यूशन	11387
गोमती	11388
पैक्स	11389
रामनगर	11390
महासम	11391
लड़ेंगे	11392
115	11393
शिवकुमार	11394
प्रात	11395
रिपब्लिक	11396
बांटने	11397
पंचनामा	11398
##ातु	11399
योगेंद्र	11400
एक्टर्स	11401
देवगन	11402
कीमतें	11403
पाएगी	11404
ट्रांसप्लांट	11405
बूंदी	11406
नमू	11407
वारदातों	11408
सलाम	11409
संरचना	11410
टूटी	11411
नवाचार	11412
माधवी	11413
विजिट	11414
यशस्वी	11415
प्रकरणों	11416
कैंडिडेट्स	11417
पाइपलाइन	11418
संसाध	11419
अभिनय	11420
चढ़ाव	11421
व्हाट्स	11422
##खलन	11423
भिड़ंत	11424
सिक्किम	11425
चचेरे	11426
किरोड़ी	11427
8वीं	11428
अड्डा	11429
ओवै	11430
कश	11431
खग	11432
घटी	11433
नॉम	11434
मशी	11435
##ग्रेड	11436
##मोर	11437
##मच्छ	11438
##मैया	11439
##महल	11440
##uk	11441
##ौड़ा	11442
##दनी	11443
##खिला	11444
##70	11445
##ताब्दी	11446
प्रां	11447
बागी	11448
##ियारा	11449
जात	11450
##िनस	11451
संक्रमण	11452
बादशाह	11453
बताओ	11454
सुप्र	11455
##ुपति	11456
पीकर	11457
##वेन्द्र	11458
##न्ग	11459
सबकी	11460
प्रतिद्व	11461
विश्न	11462
देशभ	11463
आदत	11464
आरबीआई	11465
एमओयू	11466
दावों	11467
गाव	11468
2500	11469
पंचमी	11470
एक्सचेंज	11471
व्यवस्थाएं	11472
आदेशों	11473
##कुशी	11474
2006	11475
##ary	11476
धमकाया	11477
दिखाए	11478
विदेशों	11479
ख़बर	11480
उपलब्धता	11481
पौधा	11482
##ore	11483
मुश्किलें	11484
मगरमच्छ	11485
शैली	11486
विजिल	11487
ढाणी	11488
किताबें	11489
कच्चा	11490
पटाखा	11491
अभिभावक	11492
प्रकोप	11493
छिड़काव	11494
सेमिनार	11495
हजारीबाग	11496
बलौदाबाजार	11497
इजाजत	11498
खाटू	11499
भूकंप	11500
खरगोन	11501
man	11502
कंवर	11503
गरीबी	11504
घों	11505
चना	11506
चक्का	11507
डाम	11508
थ्रो	11509
नवल	11510
नकारात्मक	11511
पोज	11512
ब्रेन	11513
बख्	11514
हाजीपुर	11515
##चाना	11516
##संग	11517
##सौर	11518
##इए	11519
##ौप	11520
##पान	11521
##खला	11522
##60	11523
##ेंग	11524
केबिन	11525
सेव	11526
##क्ल	11527
##ामु	11528
संवेद	11529
निजात	11530
##टीन	11531
##ढ़ियों	11532
महू	11533
मैक्स	11534
कैथल	11535
लगेंगे	11536
स्टंट	11537
इंट	11538
दिना	11539
खुफिया	11540
बोरी	11541
पदोन्न	11542
आगजनी	11543
इंडिगो	11544
लगेगी	11545
योग्यता	11546
##िटीज	11547
##श्योर	11548
कटाई	11549
##र्नर	11550
क्लिप	11551
सिवनी	11552
विश्वविद्यालयों	11553
दशरथ	11554
प्रवचन	11555
टॉय	11556
जलाकर	11557
भावनात्मक	11558
शौक	11559
फॉर्मेट	11560
तुष	11561
जनसुन	11562
लोहिया	11563
व्यवसायी	11564
नौकरियों	11565
वेलफेयर	11566
सुशांत	11567
बहाव	11568
उपरांत	11569
विक्षोभ	11570
फ्रेंचाइजी	11571
वक़्त	11572
परशुराम	11573
मधेपुरा	11574
संसाधनों	11575
ओवैसी	11576
kap	11577
pl	11578
अडा	11579
आकांक्षा	11580
इत्या	11581
उग	11582
एबी	11583
ग्री	11584
दंते	11585
नट	11586
नये	11587
प्‍	11588
बिस	11589
भराव	11590
मक्का	11591
रेश	11592
वर्जन	11593
सभ	11594
##चारा	11595
##धु	11596
कोष	11597
काटे	11598
परफॉर्म	11599
##स्वरूप	11600
##स्खलन	11601
सावधान	11602
संक्र	11603
##काउंट	11604
राजने	11605
महंगी	11606
##ाहियों	11607
##दीन	11608
टीजर	11609
रामदेव	11610
युवतियों	11611
121	11612
महागठ	11613
स्पष्टीकरण	11614
अहिल्या	11615
कराएंगे	11616
सांप्रदायिक	11617
व्याप्त	11618
असह	11619
##ata	11620
उपलब्धियों	11621
उच्चतम	11622
जितेन्द्र	11623
रिसी	11624
मेहंदी	11625
विवेचना	11626
स्कूटर	11627
कमलनाथ	11628
आंखें	11629
एडीजी	11630
विजेताओं	11631
पेरेंट्स	11632
अस्थायी	11633
पीजीआई	11634
कामयाबी	11635
चंपारण	11636
क्लीन	11637
प्रीमियम	11638
नाजुक	11639
कैलेंडर	11640
स्टार्टअप	11641
अर्धशत	11642
ताइवान	11643
##ॉरिटी	11644
क्रिसमस	11645
बैरवा	11646
छोटू	11647
इटावा	11648
जनसुनवाई	11649
ab	11650
case	11651
un	11652
अराज	11653
ईसाई	11654
ऑब्	11655
ऑक्सीजन	11656
कट्टर	11657
छठी	11658
जत	11659
डुम	11660
ब्या	11661
मन्द	11662
मूर्त	11663
सगाई	11664
##िं	11665
##जिन	11666
##टेंशन	11667
##गर्	11668
##ोकर	11669
##ुश	11670
##ow	11671
##75	11672
केसी	11673
##यास	11674
कोसी	11675
##र्ता	11676
किस्म	11677
##ताप	11678
##ंगिक	11679
स्वर	11680
सिराज	11681
##जीर	11682
##विजन	11683
##ोकाम	11684
बिगा	11685
बिजन	11686
कैसी	11687
कैम्प	11688
उपखंड	11689
105	11690
101	11691
रोकर	11692
स्किल	11693
बदायूं	11694
नीतू	11695
##ब्ब	11696
यूं	11697
मनोकाम	11698
स्वर्	11699
मीट	11700
अपनाया	11701
वैकल्प	11702
##ard	11703
अदिति	11704
बांग्लादेशी	11705
निवेशक	11706
निर्णायक	11707
भूस्खलन	11708
लौटते	11709
डाक्टर	11710
हड़प	11711
अक्षर	11712
चेयरपर्सन	11713
अटेंड	11714
महासंघ	11715
ब्रह्मा	11716
राजनयिक	11717
काउंसिलिंग	11718
विमोचन	11719
इटली	11720
हाजिर	11721
चंद्राकर	11722
गोपनीय	11723
दवाइयां	11724
प्रोड्यूसर	11725
शर्तों	11726
सत्तारूढ़	11727
शुरूआत	11728
वैक्सीन	11729
हकीकत	11730
आंशिक	11731
वर्कशॉप	11732
दूल्हे	11733
मशीनों	11734
विश्नोई	11735
वैकल्पिक	11736
):	11737
,"	11738
ram	11739
असा	11740
उषा	11741
खंभ	11742
भत्ता	11743
येलो	11744
रैल	11745
लपट	11746
सस्ते	11747
##एब	11748
##जाद	11749
##ैत	11750
##सर्स	11751
##सिटी	11752
##बोट	11753
##ूकी	11754
##az	11755
##घात	11756
##्यार्पण	11757
##िलित	11758
प्रवाह	11759
एकदम	11760
##ासरा	11761
##ौरिया	11762
बेबी	11763
बेस्ड	11764
पहुंचना	11765
##िपु	11766
##जारोहण	11767
माफ	11768
मातम	11769
इंसाफ	11770
1200	11771
आरओ	11772
##ब्बत	11773
यूके	11774
बरन	11775
पंखे	11776
बॉबी	11777
सम्मिलित	11778
साहनी	11779
पांचवीं	11780
दौड़ा	11781
असंत	11782
न्यूज़	11783
जन्मभूमि	11784
##ियोग्रा	11785
रोहिणी	11786
खरीदना	11787
चावला	11788
लूटने	11789
लॉन्ड्रिंग	11790
पॉक्सो	11791
सुधारने	11792
छुट्ट	11793
पहलवान	11794
कंटेंट	11795
नर्सरी	11796
अकेली	11797
कठि	11798
होमगार्ड	11799
दर्शक	11800
पहनने	11801
कल्चर	11802
व्हीकल	11803
चंपाई	11804
द्रौप	11805
फीडर	11806
सांगाने	11807
श्राव	11808
दलील	11809
कॉर्पोरेशन	11810
प्रहलाद	11811
पर्यवेक्षक	11812
भुवनेश्वर	11813
तुषार	11814
इत्यादि	11815
महागठबंधन	11816
द्रौपदी	11817
इंप	11818
खीर	11819
जप	11820
धरो	11821
पल्ल	11822
फार्	11823
बड	11824
बगी	11825
म्या	11826
मण्ड	11827
मलाइ	11828
वान	11829
शाद	11830
शस्त्र	11831
##ैली	11832
##सो	11833
##गाम	11834
##बिया	11835
##ूला	11836
##कपा	11837
##फैक्चर	11838
##ुहान	11839
##शहर	11840
##oor	11841
##du	11842
कोमल	11843
##सेल	11844
मुफ	11845
कुणाल	11846
महिमा	11847
अन्याय	11848
##जीन	11849
##जापुर	11850
बैलेट	11851
पाट	11852
हरप्रीत	11853
बनवाया	11854
दुआ	11855
लगवाने	11856
स्ट्रीम	11857
आज़	11858
##िम्मे	11859
##्यूट	11860
अवस्थी	11861
अवशेष	11862
छावनी	11863
##कोण	11864
मानकों	11865
यादगार	11866
पिछड़े	11867
##्लाई	11868
मनमानी	11869
जिनको	11870
##आरआई	11871
मिलावट	11872
निर्देशानुसार	11873
बिजने	11874
रायसेन	11875
माल्यार्पण	11876
हादसों	11877
खुदकुशी	11878
रुद्रा	11879
बदलते	11880
##िगेशन	11881
रणधीर	11882
एलन	11883
वीआईपी	11884
नमक	11885
रिजवान	11886
अमृतपाल	11887
हलचल	11888
सौंपने	11889
चौराहों	11890
बाइपास	11891
ध्वजारोहण	11892
हिमालय	11893
पीटकर	11894
एसटीएफ	11895
टूरिस्ट	11896
डिवाइडर	11897
##दर्शिता	11898
कटाव	11899
दीनदयाल	11900
जांज	11901
धमकियां	11902
भालू	11903
ऑलराउंडर	11904
महालक्ष्मी	11905
टेम्प	11906
##श्योरेंस	11907
अडाणी	11908
धरोहर	11909
मलाइका	11910
'।	11911
nc	11912
आहत	11913
कद	11914
जिया	11915
जामा	11916
ट्रीट	11917
डल	11918
ताम	11919
ताद	11920
मसी	11921
रस्सी	11922
वल्लभ	11923
सलू	11924
सट्टा	11925
हारे	11926
##90	11927
##ाव	11928
##किर	11929
##chan	11930
##bc	11931
##ओम	11932
किला	11933
करत	11934
विनीत	11935
##राई	11936
संन्यास	11937
##टीएस	11938
##्रेम	11939
##ाजल	11940
##ल्चर	11941
चुनी	11942
##िवि	11943
जानकारों	11944
उपराष्ट्र	11945
##डीएस	11946
वेव	11947
बहला	11948
यूनाइ	11949
##मेंट्स	11950
##आरएस	11951
उठकर	11952
टेनिस	11953
कुल्हा	11954
प्रोटे	11955
गलियों	11956
एयरलाइंस	11957
ओवरब्रिज	11958
##डे़	11959
चैट	11960
महाराणा	11961
रॉड	11962
आइडिया	11963
नारायणपुर	11964
##रेटिव	11965
##स्ट्रक्शन	11966
जुर्माने	11967
एपिस	11968
स्क्रीनिंग	11969
टूरिज्म	11970
ब्लाक	11971
ज़रूरी	11972
दृढ़	11973
मिडिल	11974
एनडीपीएस	11975
रोटरी	11976
जांजगीर	11977
उपराष्ट्रपति	11978
aq	11979
rbi	11980
कत्	11981
कनि	11982
कंज	11983
क्‍	11984
खपत	11985
डोट	11986
नॉर्म	11987
मृ	11988
रौन	11989
हब	11990
हार्ड	11991
##मंडल	11992
##कश	11993
##वटी	11994
##ौद	11995
##भेद	11996
##पकों	11997
कोने	11998
##्ये	11999
प्रवासी	12000
लेखा	12001
देवा	12002
##िराम	12003
##ाद्ध	12004
राजस्थ	12005
महेन्द्र	12006
दिनद	12007
पीस	12008
##न्‍	12009
पिंज	12010
##िपाल	12011
चलिए	12012
अमृता	12013
##्नवी	12014
फैसल	12015
जयप्रकाश	12016
11वीं	12017
भगवती	12018
परीक्षाएं	12019
अफेयर	12020
व्यायाम	12021
##स्तीन	12022
विजयी	12023
##फ़ा	12024
बनीं	12025
मूल्यों	12026
मंशा	12027
हल्का	12028
सुखदेव	12029
##स्‍तान	12030
जालस	12031
दबद	12032
रॉकेट	12033
हलके	12034
महामंड	12035
स्मैक	12036
जसवंत	12037
मानवता	12038
भंडारे	12039
जाह्नवी	12040
फाउंडर	12041
भीमराव	12042
रौंद	12043
आवेदक	12044
श्रृंखला	12045
डीएवी	12046
off	12047
कड़ाके	12048
रीजनल	12049
एनआईए	12050
फ़ीस	12051
सहकारिता	12052
विजिलेंस	12053
बिजनेसमैन	12054
कुल्हाड़ी	12055
राजस्थानी	12056
at	12057
con	12058
इक्	12059
जहीर	12060
टोक	12061
ठहर	12062
ढह	12063
दंग	12064
धै	12065
मझ	12066
यकीन	12067
रीड	12068
लथ	12069
##बादी	12070
##मै	12071
##कली	12072
##day	12073
##अंदाज	12074
किट	12075
##स्ति	12076
साद	12077
मुहर	12078
राजभर	12079
##ल्लाह	12080
बीएसपी	12081
सरसों	12082
पीसीसी	12083
टीटी	12084
##्लू	12085
##ोलिया	12086
ट्रम्प	12087
##जरत	12088
बोनस	12089
मार्क्स	12090
190	12091
स्वभाव	12092
इंडो	12093
श्राद्ध	12094
मालिनी	12095
सौगा	12096
ड्रॉ	12097
130	12098
##ैलरी	12099
देवघर	12100
##िंदगी	12101
##न्नू	12102
अभिजीत	12103
प्रेग्न	12104
सिकंद	12105
##ashi	12106
##ess	12107
##ort	12108
दमोह	12109
सुपरवाइ	12110
उतनी	12111
साधते	12112
मार्केटिंग	12113
शैतान	12114
ज्योतिराद	12115
सत्यनारायण	12116
3000	12117
हरिओम	12118
निराशा	12119
आर्टिकल	12120
एडीसी	12121
चक्रवर्ती	12122
गंगाजल	12123
बृजभूषण	12124
999	12125
मराठी	12126
gov	12127
स्नेह	12128
पलायन	12129
चिंतित	12130
महायुति	12131
वाटिका	12132
चप्पल	12133
मेजबानी	12134
संतुष्ट	12135
दिगंबर	12136
मर्चेंट	12137
सिगरेट	12138
एनिमल	12139
क्लिनिक	12140
गनीमत	12141
सीबीएसई	12142
बिजनौर	12143
दिनदहाड़े	12144
महामंडलेश्वर	12145
धैर्य	12146
लथपथ	12147
ज्योतिरादित्य	12148
bs	12149
sha	12150
the	12151
इका	12152
ऋतिक	12153
कंक	12154
गोग	12155
ग्यार	12156
जर्	12157
जना	12158
थार	12159
दही	12160
शां	12161
शताब्दी	12162
##ंताओं	12163
##ेक्शन	12164
##समी	12165
##भगत	12166
##iti	12167
##खन	12168
##नेज	12169
कालू	12170
करौली	12171
##स्करण	12172
साक्षा	12173
##राथन	12174
देहरा	12175
निजाम	12176
पूनिया	12177
सीजी	12178
सीबी	12179
सिंहभूम	12180
अधिकृत	12181
मैराथन	12182
लाते	12183
पिंक	12184
रोबोट	12185
हिजब	12186
ग्रैंड	12187
चौड़ा	12188
##शीद	12189
हालिया	12190
बुद्धि	12191
पैतृ	12192
पैटर्न	12193
डिंपल	12194
##आईएम	12195
नीयत	12196
हावड़ा	12197
लड़ना	12198
एनसीसी	12199
##ुमन	12200
2003	12201
ज़िम्मे	12202
घुसा	12203
वीसी	12204
रविशंकर	12205
एंड्र	12206
गुरमीत	12207
अमरनाथ	12208
झूठी	12209
जलाभिषेक	12210
डिप्रेशन	12211
ऊंचे	12212
ऊंचा	12213
price	12214
नालों	12215
फेंकने	12216
निलंबन	12217
अथॉरिटी	12218
आवेदनों	12219
उछल	12220
चाइल्ड	12221
आपातकालीन	12222
भिजवाया	12223
सुचारू	12224
खैरा	12225
कारीगर	12226
कंचन	12227
पादुकोण	12228
देशभक्ति	12229
मन्दिर	12230
यूनाइटेड	12231
aqi	12232
डोटासरा	12233
पैतृक	12234
अस्वी	12235
उफान	12236
कंधे	12237
नताशा	12238
पटक	12239
सता	12240
सगे	12241
##िथ	12242
##गढ	12243
##गें	12244
##ाचार्य	12245
##ूफ	12246
##मय	12247
##ठिया	12248
किस्त	12249
कांच	12250
##ुरू	12251
##िनिय	12252
अपग्रेड	12253
पूल	12254
कुख्यात	12255
सर्रा	12256
कार्यवाहक	12257
साले	12258
##वेली	12259
जीने	12260
हरद	12261
हरदा	12262
हिना	12263
फिलि	12264
पैक	12265
##म्मति	12266
मानती	12267
आरसी	12268
##देय	12269
बरौनी	12270
थानेदार	12271
सितारों	12272
भोला	12273
रिस्प	12274
##फ़े	12275
मानसरोवर	12276
रंगोली	12277
बचाओ	12278
##कल्याण	12279
एफएसएल	12280
अभियोजन	12281
##urt	12282
मचाने	12283
यूनिट्स	12284
ठेकेदारों	12285
विष्णुदेव	12286
मंजिला	12287
नितेश	12288
बड़वानी	12289
बीएसई	12290
लड़ाकू	12291
फोरलेन	12292
उन्नाव	12293
##जिटिव	12294
चिल्ल	12295
बैंकिंग	12296
ईदगाह	12297
पहनाकर	12298
परीक्षार्थियों	12299
विक्रांत	12300
एग्रीमेंट	12301
वाईएस	12302
##रोधक	12303
अफ़ग़	12304
रश्मि	12305
आश्वस्त	12306
फरीदकोट	12307
क्रियान्वयन	12308
व्हाट्सएप	12309
kapoor	12310
bh	12311
res	12312
आहार	12313
खत्री	12314
घड़ी	12315
टर्न	12316
ठंडी	12317
थमा	12318
बख	12319
सॉल	12320
ह्यू	12321
##ेरी	12322
##बर्स	12323
##वो	12324
##पार	12325
##mm	12326
काॅ	12327
प्रियां	12328
साग	12329
##राणिक	12330
निगाह	12331
महत्	12332
रहीम	12333
बेचे	12334
परिहार	12335
बिस्तर	12336
##खाव	12337
##मानुसार	12338
सूखे	12339
सबक	12340
हिज़	12341
बहने	12342
नामी	12343
ट्राली	12344
इंश्योरेंस	12345
रामकुमार	12346
पुकार	12347
पूर्वक	12348
सुरजीत	12349
128	12350
##र्माण	12351
जिनसे	12352
देवांग	12353
रोकना	12354
खेप	12355
शोएब	12356
प्लेयर्स	12357
कर्ण	12358
बंगाली	12359
फुसला	12360
रोहता	12361
रिकॉर्डिंग	12362
एसडीआरएफ	12363
संबद्ध	12364
तमंच	12365
सलामी	12366
जोड़ो	12367
निरंजन	12368
निर्धारण	12369
सौंपे	12370
##हादत	12371
prad	12372
##क्निक	12373
स्वयंसेवक	12374
परंपरागत	12375
कैदियों	12376
वादों	12377
जहाँ	12378
उलझ	12379
एनसीपी	12380
ठिकाने	12381
गुस्साए	12382
इस्लामिक	12383
प्रसारण	12384
सीआईए	12385
निम्न	12386
mah	12387
बजाए	12388
सैमसंग	12389
नशीली	12390
साईं	12391
तिराहा	12392
अनियमितता	12393
update	12394
टॉयलेट	12395
सांगानेर	12396
एपिसोड	12397
सौगात	12398
650	12399
it	12400
op	12401
t20	12402
उज	12403
ऋचा	12404
गड्‌	12405
घने	12406
तब्दी	12407
षड	12408
सन्नी	12409
##ैव	12410
##हटा	12411
##माला	12412
##किया	12413
##विल	12414
##ौला	12415
##भवी	12416
##शद	12417
##शाद	12418
केन	12419
सेक्स	12420
##नीर	12421
##गाध्यक्ष	12422
मुंड	12423
##माइल	12424
मेहरा	12425
सकल	12426
बनवा	12427
माँ	12428
ट्रिप	12429
नाते	12430
पुष्य	12431
बदबू	12432
बरवाला	12433
स्वाम	12434
स्वदेश	12435
शेफ	12436
एनओसी	12437
व्यवस्थित	12438
मीडियम	12439
बॉलिंग	12440
##ंभव	12441
सेंध	12442
सेंचुरी	12443
कटरा	12444
शुभमन	12445
##र्षि	12446
अग्रसेन	12447
2898	12448
आख़	12449
पौराणिक	12450
खोकर	12451
चुनौत	12452
भूखंड	12453
1998	12454
जुटाने	12455
तिरुपति	12456
रेटिंग	12457
ips	12458
मुआयना	12459
प्रजापत	12460
एशियाई	12461
हंसराज	12462
माफियाओं	12463
वायुसेना	12464
indian	12465
बालाघाट	12466
गवाहों	12467
तुम्हारे	12468
बंदरगाह	12469
पेशेवर	12470
शॉपिंग	12471
ग्रोथ	12472
कन्नौज	12473
विक्रेता	12474
जत्थे	12475
विद्रोह	12476
तेलुगु	12477
डिस्ट्रिक्ट	12478
फौजी	12479
दंतेवाड़ा	12480
अर्धशतक	12481
फ़ीसदी	12482
del	12483
live	12484
nav	12485
उक	12486
उतरा	12487
गंज	12488
जनों	12489
ड्रे	12490
तंवर	12491
थ्र	12492
बरी	12493
हटने	12494
##ैशी	12495
##संघ	12496
##गुन	12497
##शिव	12498
##यु	12499
##दून	12500
##खण्ड	12501
##छी	12502
##छित	12503
किले	12504
##ांध	12505
##ुराज	12506
राठी	12507
साकेत	12508
कुंदन	12509
बीएल	12510
##ुप्त	12511
जानती	12512
##ंधरा	12513
अंजू	12514
103	12515
अनुष्का	12516
विशा	12517
##दाराम	12518
##बाही	12519
बोस	12520
नियमानुसार	12521
एमसी	12522
संग्राम	12523
##ani	12524
144	12525
समझना	12526
भेड़	12527
इमो	12528
धनखड़	12529
शोभ	12530
खासा	12531
ज़मीन	12532
सतपाल	12533
सीमावर्ती	12534
ख़ुद	12535
##indi	12536
##िनेटर	12537
पॉजिटिव	12538
संरक्षित	12539
चौकीदार	12540
अमरजीत	12541
##ैटिक	12542
विभागाध्यक्ष	12543
दुर्गेश	12544
राइज	12545
भंडारण	12546
लेखन	12547
एक्सपर्ट्स	12548
##ach	12549
गेंदबाजों	12550
मराठा	12551
धमाका	12552
रिम्स	12553
आईसीयू	12554
ऑडिटोरियम	12555
ट्विटर	12556
वैल्यू	12557
महासमुंद	12558
delhi	12559
sing	12560
अक्त	12561
इने	12562
ऑक्शन	12563
कस्ट	12564
खाया	12565
घिर	12566
झप	12567
डाइ	12568
डायर	12569
थोक	12570
धुन	12571
फौज	12572
यूर	12573
सई	12574
हन	12575
##्बा	12576
##कल्टी	12577
##फाई	12578
##sha	12579
##दशी	12580
##ऑफ	12581
किन्न	12582
##ालिया	12583
विजन	12584
रास	12585
जातियों	12586
लेनी	12587
पहलू	12588
##टीय	12589
सिमर	12590
##रेपी	12591
##स्तरीय	12592
##माराम	12593
जीवंत	12594
अबू	12595
चलना	12596
चलाना	12597
स्टॉप	12598
##बंधक	12599
इंकार	12600
गुंज	12601
बदनाम	12602
##ज्ड	12603
डीएन	12604
फैकल्टी	12605
##ोनिया	12606
इंडेक्स	12607
प्रतिनिय	12608
जेएम	12609
कान्हा	12610
अरशद	12611
240	12612
करवाते	12613
यूनुस	12614
##कुंड	12615
मनाते	12616
नोटों	12617
रजक	12618
प्लेन	12619
फ़ल	12620
वीं	12621
बहनें	12622
पॉली	12623
मलबे	12624
भोजपुरी	12625
कैंपेन	12626
##ांटिक	12627
सफलतापूर्वक	12628
उद्योगपति	12629
जोनल	12630
दसवीं	12631
अर्जित	12632
सत्येंद्र	12633
##िफाई	12634
1984	12635
स्‍ट	12636
त्योहारों	12637
अस्थिर	12638
फोरम	12639
बंटवारा	12640
पात्रता	12641
टर्मिनस	12642
ढूंढने	12643
यूरोपीय	12644
ठहराव	12645
मोनिका	12646
ब्रजेश	12647
इन्वेस्टमेंट	12648
मालीवाल	12649
रितेश	12650
सेलेब्स	12651
तिराहे	12652
लाहौर	12653
सम्बन्	12654
रामविलास	12655
प्रचंड	12656
##गांठ	12657
प्रतिद्वंद	12658
तादाद	12659
देहरादून	12660
तब्दील	12661
अक्तूबर	12662
5वीं	12663
sit	12664
आकाशी	12665
ऊपरी	12666
एप्	12667
एंज	12668
क्रेन	12669
घास	12670
तलब	12671
तबाही	12672
रची	12673
##्ती	12674
##18	12675
##12	12676
##65	12677
##ढा	12678
##ृश्य	12679
##याव	12680
##ानिक	12681
करप्शन	12682
##ितर	12683
साफ़	12684
साजिद	12685
##रात	12686
रहवासी	12687
##लीफ	12688
##रेखा	12689
महक	12690
बीजापुर	12691
सरिता	12692
जानना	12693
कैफे	12694
##ूलुहान	12695
रोचक	12696
##िमन	12697
अमला	12698
रामजी	12699
युवराज	12700
##क्रमित	12701
डीईओ	12702
193	12703
पदयात्रा	12704
सफारी	12705
बांटा	12706
गाते	12707
बालो	12708
सौम	12709
उमड़	12710
उमंग	12711
पालकी	12712
कटने	12713
एयरक्राफ्ट	12714
कबड्डी	12715
पेट्रोलिंग	12716
मुहिम	12717
महामारी	12718
नवाज	12719
टिप्पण	12720
चैंपियंस	12721
राइफल	12722
अनाउंस	12723
मैनपुरी	12724
सैलजा	12725
मसाला	12726
कंस्ट्रक्शन	12727
raj	12728
लहूलुहान	12729
पितरों	12730
रिहाई	12731
डीएपी	12732
देवरिया	12733
पार्टनरशिप	12734
##माइंड	12735
कंडक्टर	12736
चिट्ठी	12737
रोमांचक	12738
एडवाइजरी	12739
फतह	12740
चुनौतियां	12741
au	12742
ca	12743
vrat	12744
अंप	12745
अजीब	12746
आंब	12747
आषा	12748
आक्रमण	12749
उखा	12750
ऊँ	12751
खल	12752
खट्टर	12753
गाया	12754
तान	12755
नसीम	12756
ब्रा	12757
मिट	12758
मर्या	12759
रसी	12760
लंगर	12761
श्म	12762
शहादत	12763
सियार	12764
##चिंग	12765
##ंपा	12766
##जित	12767
##जिम	12768
##जिकल	12769
##गिरी	12770
##मास	12771
##pl	12772
##इड	12773
##ौना	12774
##mi	12775
##ment	12776
##cs	12777
कोस	12778
सेफ	12779
परिक्ष	12780
##िकांत	12781
प्रोट	12782
बाण	12783
##त्ते	12784
सुस	12785
सोहन	12786
##र्मास	12787
##ंधन	12788
जीप	12789
अब्ब	12790
अबतक	12791
पाटल	12792
उपद्र	12793
उपनि	12794
स्टार्स	12795
हिंडन	12796
माओ	12797
गुड्डू	12798
लोको	12799
लोकायुक्त	12800
बैठकों	12801
अध्यक्षों	12802
आदमपुर	12803
आरएस	12804
यूए	12805
क्रिया	12806
दरिया	12807
उठता	12808
वैसा	12809
बॉम्बे	12810
ब्रॉन्	12811
पुरस्कृत	12812
डेस्क	12813
##शास्त्र	12814
ट्रैवल	12815
लाइटिंग	12816
##कुछ	12817
एयरफोर्स	12818
धमकाने	12819
जिम्मा	12820
निशांत	12821
##एफसी	12822
रवनीत	12823
चैक	12824
लंबाई	12825
गुरदास	12826
##स्‍त	12827
दबो	12828
एक्‍स	12829
खुशबू	12830
उत्साहित	12831
खुलेआम	12832
घेरे	12833
1989	12834
मिट्‌टी	12835
राइस	12836
मंगला	12837
एक्टिविटी	12838
फंसाने	12839
सिंघम	12840
शिल्प	12841
सुपारी	12842
##ांतरित	12843
जवाहरलाल	12844
एवज	12845
रिटायरमेंट	12846
यूजीसी	12847
बॉयफ्रेंड	12848
डिस्काउंट	12849
##स्सिल	12850
अधूरा	12851
प्रशासक	12852
सरफराज	12853
बीसीसीआई	12854
दिनांक	12855
म्यां	12856
मुफस्सिल	12857
हिजबुल्लाह	12858
आकाशीय	12859
pak	12860
खोद	12861
चेंज	12862
चड्ढा	12863
जमाल	12864
डमी	12865
फहरा	12866
मजे	12867
रमा	12868
रबी	12869
रस्म	12870
श्या	12871
शाक	12872
हाजी	12873
##ेला	12874
##बड़ा	12875
##ub	12876
##्राज	12877
हैप्पी	12878
परस	12879
प्रवास	12880
इसपर	12881
##हाट	12882
विस्थापित	12883
एक्यू	12884
लेगा	12885
अपार	12886
##लीट	12887
##भाई	12888
अनिता	12889
पीपल	12890
##ोरम	12891
स्टाल	12892
रोप	12893
##बीएम	12894
##शीला	12895
##िकाओं	12896
बुंद	12897
रखवा	12898
दिलजीत	12899
उत्थान	12900
मानता	12901
मानदेय	12902
मौतें	12903
लीगल	12904
मार्ट	12905
शिवानी	12906
वैरिएंट	12907
वाहिनी	12908
मिस्त्री	12909
अहसास	12910
लॉटरी	12911
चीज़	12912
संगठित	12913
संभावनाओं	12914
##टोली	12915
तरीकों	12916
सुनाते	12917
प्रशिक्षित	12918
छुड़	12919
मशीनें	12920
झूठा	12921
।""	12922
उपायों	12923
कचहरी	12924
परमिट	12925
##ट्‌टा	12926
खोजने	12927
प्रार्थी	12928
फंक्शन	12929
सारंग	12930
##धीनगर	12931
विलियम	12932
फीडबैक	12933
एग्रीक	12934
पद्मश्री	12935
एजेंडे	12936
बीएनएस	12937
मज़बूत	12938
हूँ	12939
पुराण	12940
कोठारी	12941
सद्भाव	12942
वेरिफिकेशन	12943
होटलों	12944
सर्वसम्मति	12945
रुझान	12946
रिपब्लिकन	12947
ट्रीटमेंट	12948
बालोतरा	12949
पाटलिपु	12950
"।	12951
dm	12952
उधार	12953
चादर	12954
चातु	12955
जरा	12956
दंडा	12957
फिरा	12958
मग	12959
##ंजा	12960
##सिन	12961
##गिंग	12962
##pr	12963
##शिला	12964
##19	12965
##णियों	12966
##dp	12967
परे	12968
बास	12969
##लाब	12970
##तेरस	12971
##गाव	12972
##कील	12973
सुथ	12974
सुष	12975
सीएसपी	12976
दीवान	12977
बीसी	12978
जिसमे	12979
मोगा	12980
मोटी	12981
पीएस	12982
लाठ	12983
गांधीनगर	12984
आयरलैंड	12985
हरेंद्र	12986
हरदीप	12987
सहभाग	12988
ट्रूडो	12989
##िट्री	12990
पुनीत	12991
तैर	12992
मानकर	12993
मंदसौर	12994
लड़ते	12995
मिलीभगत	12996
पड़ते	12997
संगो	12998
गाँ	12999
##ant	13000
न्यास	13001
बचें	13002
बरामदगी	13003
प्रभावशाली	13004
गौड़	13005
चंद्रबाबू	13006
पलटने	13007
रविन्द्र	13008
चैत्र	13009
चढ़ाने	13010
फ्लॉप	13011
दबाकर	13012
दबोच	13013
टॉपर	13014
हंगामे	13015
ऑस्ट्रेलियाई	13016
स्ट्रोक	13017
ललिता	13018
हैदर	13019
भंडारी	13020
मैन्यु	13021
संशोधित	13022
मास्टरमाइंड	13023
टेक्निकल	13024
जीविका	13025
कुरैशी	13026
होशियारपुर	13027
अत्याधुनिक	13028
वृद्धा	13029
चेतना	13030
आतंकवादियों	13031
बीएड	13032
नशीला	13033
एमएलसी	13034
सशक्तिकरण	13035
भौतिक	13036
एजेंडा	13037
एथलेट	13038
कार्यपालक	13039
सब्जियों	13040
वसुंधरा	13041
धाकड़	13042
मूर्तियां	13043
स्वर्गीय	13044
##फैक्चरिंग	13045
देवांगन	13046
आषाढ़	13047
म्यांमार	13048
अल्ट	13049
आक	13050
आढ़	13051
इल	13052
उर्म	13053
कंब	13054
खाक	13055
जेम	13056
ट्रेस	13057
त्व	13058
भान	13059
भ्राम	13060
रिन	13061
सती	13062
##िंस	13063
##जिक	13064
##ेड़ा	13065
##संच	13066
##ईटी	13067
##ईएन	13068
नेतन	13069
##ामऊ	13070
बापू	13071
बाथर	13072
##िनेंट	13073
##्याहू	13074
सुदर्शन	13075
अनजान	13076
##टेलाइट	13077
##विता	13078
##ेलखंड	13079
टीकम	13080
##एमयू	13081
##ोरल	13082
वेयर	13083
गुफा	13084
हाफ	13085
111	13086
तीव्र	13087
बालोद	13088
विश्वसनीय	13089
ड्राई	13090
ट्रेनर	13091
बलविंदर	13092
##डाउन	13093
पूर्ति	13094
2002	13095
##art	13096
धनतेरस	13097
असु	13098
##हानि	13099
चढ़ने	13100
प्रचारक	13101
बेचकर	13102
फाड़	13103
आठवीं	13104
भाषाओं	13105
##्बुल्लाह	13106
माधुरी	13107
मधुर	13108
ललन	13109
वेस्टर्न	13110
राइड	13111
बॉक्सिंग	13112
निष्पाद	13113
बीएससी	13114
उलट	13115
रथयात्रा	13116
रघुवंशी	13117
बुरे	13118
प्रोफाइल	13119
कूदकर	13120
##igh	13121
चतुर्दशी	13122
इंफ्रास्ट्रक्चर	13123
मोर्चे	13124
भोलेनाथ	13125
शक्तियों	13126
पॉपुलर	13127
कूटनी	13128
स्लीपर	13129
सूचकांक	13130
प्रतिस्पर्धा	13131
दीर्घ	13132
रौनक	13133
सुपरवाइजर	13134
हिज़्बुल्लाह	13135
श्मशान	13136
ब्रॉन्ज	13137
एग्रीकल्चर	13138
चातुर्मास	13139
सहभागिता	13140
नेतन्याहू	13141
cs	13142
cha	13143
अरे	13144
आड़	13145
ईंधन	13146
जाली	13147
डब्ल्यू	13148
नहा	13149
न्यो	13150
फ्यू	13151
फलों	13152
बसा	13153
बचना	13154
बाली	13155
मॉक	13156
शॉ	13157
हिन्	13158
हाइड	13159
##चड़	13160
##िना	13161
##गोल	13162
##मिंग	13163
##फिट	13164
##शक	13165
##ca	13166
##खानी	13167
##षी	13168
##vi	13169
##ja	13170
##21	13171
किचन	13172
काज	13173
##िकेशन	13174
##स्फी	13175
जाखड़	13176
##तीर्ण	13177
संकी	13178
संसार	13179
समाप्ति	13180
रहवासियों	13181
निः	13182
सुग	13183
सीखा	13184
तोड़ी	13185
महबू	13186
सरब	13187
मोहर	13188
कैट	13189
अंजलि	13190
चौप	13191
देखेंगे	13192
पैड	13193
प्रदेशभर	13194
उत्तीर्ण	13195
नीलेश	13196
डीके	13197
महाभारत	13198
बरती	13199
दरार	13200
अपनाएं	13201
भगवा	13202
श्रो	13203
##ज़ी	13204
220	13205
शाहपुर	13206
हॉलीवुड	13207
##्‍ली	13208
खासी	13209
रजनीश	13210
तेली	13211
गिराया	13212
फेयर	13213
चांपा	13214
फाइनेंशियल	13215
शीट	13216
बिगड़ी	13217
मिसाल	13218
सत्यम	13219
झांसे	13220
##कूद	13221
रोगियों	13222
सिमट	13223
पुष्पेंद्र	13224
गुटों	13225
बोरवेल	13226
शहडोल	13227
ताजमहल	13228
दर्जे	13229
फतेहगढ़	13230
समुचित	13231
दुश्मनी	13232
सतर्कता	13233
डीपीआर	13234
पुनर्वास	13235
एसडीओपी	13236
माइक्रो	13237
श्रेयस	13238
जगदलपुर	13239
कुम्ह	13240
नौजवान	13241
box	13242
इक्वि	13243
अब्बास	13244
दबोचा	13245
अल्ट्रा	13246
हिन्दी	13247
750	13248
9वीं	13249
dsp	13250
sam	13251
उभ	13252
ओंकार	13253
कर्प	13254
घू	13255
जजों	13256
ठु	13257
डांगी	13258
ढक	13259
धांध	13260
नंदी	13261
बछ	13262
मित	13263
मची	13264
लायन	13265
शश	13266
सरो	13267
हजरत	13268
##गंगा	13269
##बर्ट	13270
##फ्ल	13271
##ुअल	13272
##ru	13273
##ऊं	13274
##23	13275
मेंबर्स	13276
कीटना	13277
सेबी	13278
नेम	13279
कांटे	13280
मुबार	13281
मुक्की	13282
सिंद	13283
##िरोध	13284
कुस	13285
सीरियल	13286
##ल्लू	13287
बीना	13288
##मीर	13289
##च्‍	13290
मैहर	13291
##पाथ	13292
पिपर	13293
माथा	13294
व्यू	13295
बुन	13296
अलॉट	13297
पूर्वांचल	13298
आयोजक	13299
##निर्माण	13300
पढ़ी	13301
##ंजलि	13302
प्रतिक	13303
बांदा	13304
विधानसभाओं	13305
भागते	13306
मंडप	13307
खेलकूद	13308
##स्तीनी	13309
पारदर्शिता	13310
पेशी	13311
पालना	13312
कौश	13313
##ोदर	13314
विजयपुर	13315
##सूत्र	13316
कटनी	13317
रुकी	13318
लाभार्थियों	13319
##मेन	13320
संभावनाएं	13321
रणदीप	13322
##फेरी	13323
किसके	13324
रीता	13325
रीति	13326
नमो	13327
संकाय	13328
कल्याणकारी	13329
सुखविंदर	13330
कांफ्रेंस	13331
वीरवार	13332
##ity	13333
##टेनमेंट	13334
पालीवाल	13335
##ानुभूति	13336
शौर्य	13337
फ्रीज	13338
टोली	13339
सिंघल	13340
ढाबा	13341
##वाहाटी	13342
छीनकर	13343
जशपुर	13344
नौकरियां	13345
##ult	13346
पनडु	13347
तपस्या	13348
अखाड़ा	13349
शीतलहर	13350
मूर्तियों	13351
मच्छर	13352
घसीट	13353
अतीत	13354
##ोवेशन	13355
असामाजिक	13356
शाहजहांपुर	13357
सलूंबर	13358
पाटलिपुत्र	13359
सुषमा	13360
संगोष्ठी	13361
उर्मिला	13362
me	13363
अजी	13364
इंदर	13365
कष्ट	13366
कबा	13367
कच्छ	13368
खूं	13369
चार्ट	13370
जर्नल	13371
टेंशन	13372
डां	13373
थाली	13374
नस	13375
नजारा	13376
पद्ध	13377
पगड़ी	13378
भयान	13379
मर्जी	13380
राल	13381
रजा	13382
लड़ी	13383
##चुर	13384
##लता	13385
##हाली	13386
##बला	13387
##कक्ष	13388
##ओवर	13389
प्रका	13390
विमल	13391
##ोग्य	13392
निष्ठा	13393
मुड़	13394
##ंडई	13395
बताएं	13396
सुशीला	13397
सीर	13398
##रेला	13399
##ाइलों	13400
##स्ट्रा	13401
##टेबल	13402
##िव्य	13403
सरमा	13404
सरयू	13405
##स्तु	13406
पहुंचाई	13407
मेधा	13408
पीले	13409
जीडीपी	13410
##िप्स	13411
दुखी	13412
सबकुछ	13413
##सरत	13414
सहानुभूति	13415
आजकल	13416
बुझ	13417
एसएन	13418
रामभ	13419
गुंडा	13420
गुवाहाटी	13421
बद्री	13422
रेवेन्यू	13423
डीडी	13424
मांगते	13425
पढ़ाने	13426
तीर	13427
नियोजन	13428
बंदियों	13429
ट्रेडिंग	13430
दाखिला	13431
बैठकें	13432
टेक्	13433
जलम	13434
नजरअंदाज	13435
सौह	13436
मेडिस	13437
मिच	13438
निकलना	13439
असुर	13440
लाभार्थी	13441
क्लियर	13442
अजगर	13443
पेट्रोलियम	13444
कन्व	13445
इलेक्टोरल	13446
शंकराचार्य	13447
रेडियो	13448
दवाएं	13449
असमर्थ	13450
आर्टिफ	13451
केन्द्रों	13452
सिंघवी	13453
दुखद	13454
भतीजा	13455
कॉमर्शियल	13456
छिपे	13457
प्रताड़ना	13458
अंधेरा	13459
दिलचस्पी	13460
मुद्रास्फी	13461
लोकप्रियता	13462
माइक्रोस	13463
निपटारा	13464
स्क्रिप्ट	13465
लखीसराय	13466
दोगुना	13467
apple	13468
जौहर	13469
तिहाड़	13470
मुक़ाब	13471
पार्थिव	13472
टोटल	13473
सीआरपीएफ	13474
डिप्लोमा	13475
शृंगार	13476
प्रांतीय	13477
office	13478
चिल्लाने	13479
विशाख	13480
अंपायर	13481
बुंदेलखंड	13482
भयानक	13483
मुद्रास्फीति	13484
air	13485
pet	13486
एआर	13487
एल्व	13488
औचक	13489
खली	13490
खटीक	13491
टि	13492
डिम	13493
ढिल्ल	13494
निस	13495
ब्री	13496
भट्टा	13497
भनक	13498
मलेश	13499
वकाल	13500
सन्ना	13501
##45	13502
##चर्या	13503
##ोगा	13504
##बै	13505
##फर्म	13506
##शित	13507
##rf	13508
##‎‎	13509
काद	13510
परमा	13511
विरू	13512
जाकिर	13513
संवर्धन	13514
संधू	13515
##क्षिक	13516
मुसी	13517
हीर	13518
##माड़	13519
मिलनी	13520
बाराब	13521
मेष	13522
जीटी	13523
कैडेट	13524
##िपू	13525
106	13526
107	13527
लगवा	13528
देखता	13529
अभिया	13530
नाके	13531
नाश्	13532
दिल्‍ली	13533
रेकी	13534
आयोजकों	13535
##हारिक	13536
आरिफ	13537
क्रा	13538
क्रूर	13539
पढ़ते	13540
एमएसपी	13541
डेली	13542
मालगाड़ी	13543
प्रसू	13544
छोड़े	13545
पेशकश	13546
साइज	13547
धनु	13548
धनुष	13549
बांगड़	13550
तत्पर	13551
पलक	13552
ट्रांसफॉर्म	13553
##िबिलिटी	13554
##ंदीदा	13555
##र्दू	13556
मरांडी	13557
हाईकमान	13558
प्रशिक्षु	13559
साध्वी	13560
पसंदीदा	13561
##ेडकर	13562
उतरकर	13563
दामों	13564
वॉशिंगटन	13565
उतारकर	13566
##क्‍स	13567
बिंदुओं	13568
##राइज	13569
रोमांटिक	13570
अभियुक्तों	13571
जेईई	13572
कन्हैयालाल	13573
विस्फोटक	13574
संग्रहालय	13575
वन्यजीव	13576
अखाड़े	13577
स्पिनर	13578
माइनिंग	13579
खराबी	13580
विविधता	13581
हत्यार	13582
चक्रवाती	13583
इलाक़े	13584
सुकमा	13585
क्लेम	13586
नाहर	13587
##िटेक्निक	13588
इस्माइल	13589
कांकेर	13590
बरनाला	13591
दबदबा	13592
इनेलो	13593
आंबेडकर	13594
रसीद	13595
फिराक	13596
कर्पूरी	13597
वकालत	13598
बाराबंकी	13599
col	13600
sa	13601
कंडी	13602
कृत्य	13603
कयास	13604
ग्ले	13605
गानों	13606
चतरा	13607
छि	13608
छिन	13609
छप्	13610
दतिया	13611
धर्मा	13612
नसर	13613
पक्की	13614
फ्यूल	13615
यान	13616
यथा	13617
रघ	13618
लिंग	13619
सले	13620
सदा	13621
सानि	13622
##चौ	13623
##रखाव	13624
##ाबाद	13625
##हारा	13626
##ोने	13627
##तिल	13628
##ूष	13629
##ुकों	13630
##rol	13631
##यली	13632
##दायक	13633
##ॉफ्ट	13634
##ेंस्की	13635
हैक	13636
हैरानी	13637
कीजिए	13638
##नामे	13639
विनायक	13640
मुफ्	13641
##्मय	13642
सरगना	13643
बेगम	13644
##द्दार	13645
मैके	13646
लाड़	13647
##तराम	13648
दूषित	13649
104	13650
रखरखाव	13651
डीएफओ	13652
समाजजन	13653
जीतन	13654
बांद्रा	13655
प्रभारियों	13656
अरमान	13657
प्रदर्शनकारी	13658
नरस	13659
लाइनों	13660
दुर्लभ	13661
मंत्रों	13662
रैक	13663
ज्वाइन	13664
बदलना	13665
ज़रिए	13666
प्लेइंग	13667
##ीकृत	13668
शिष्य	13669
जमाने	13670
त्रिश	13671
खोली	13672
स्टूडियो	13673
समागम	13674
जरूरतों	13675
##वाइड	13676
कोतवाल	13677
प्रोजेक्ट्स	13678
फॉरेस्ट	13679
पहलवानों	13680
1991	13681
सपनों	13682
टाइप	13683
जातिगत	13684
जुटाई	13685
अनुपस्थित	13686
समानता	13687
1980	13688
##ब्रिड	13689
##वैत	13690
प्रावधानों	13691
फुटपाथ	13692
दलितों	13693
फंसी	13694
ललितपुर	13695
गड्ढा	13696
अख़	13697
टेलीग्राम	13698
एनएचएआई	13699
क्लीनिक	13700
पॉलिटिक्स	13701
कम्पनी	13702
बिखरा	13703
भाद्र	13704
छीना	13705
इकलौता	13706
नक्शा	13707
काफिले	13708
अर्शदीप	13709
त्यौ	13710
पीलीभीत	13711
world	13712
बृहस्पतिवार	13713
नमूने	13714
कश्मी	13715
कत्ल	13716
अफ़ग़ानिस्तान	13717
प्रियांशु	13718
कस्टडी	13719
एल्विश	13720
he	13721
sm	13722
अटे	13723
आइट	13724
एवेन्यू	13725
कड़	13726
कहर	13727
खरे	13728
घोर	13729
चिट	13730
चहल	13731
डों	13732
डाइट	13733
तटीय	13734
धू	13735
धंधे	13736
नं	13737
फर्श	13738
बटन	13739
भला	13740
मर्ग	13741
मसूद	13742
वंदन	13743
सदी	13744
##रेशन	13745
##ैब	13746
##नियां	13747
##बिंद	13748
##बिलिटी	13749
##ड्स	13750
##शेर	13751
##war	13752
##ृजन	13753
कोऑ	13754
##नेर	13755
##ालैंड	13756
परिस	13757
##स्ला	13758
##ियारी	13759
##ुलकर	13760
##टीसी	13761
##ासर	13762
##पीजी	13763
##माद	13764
सीजे	13765
राजग	13766
तोह	13767
अनशन	13768
2047	13769
बारां	13770
बेव	13771
##ापाई	13772
मेमोर	13773
##ेलियन	13774
पीके	13775
बैटर	13776
टीन	13777
बिछा	13778
दूल्हा	13779
रूक	13780
कॉर	13781
कॉमन	13782
गोध	13783
अम्	13784
रामदास	13785
प्रदेशों	13786
सुरंग	13787
डीग	13788
मार्शल	13789
शिक्षित	13790
क्रिए	13791
114	13792
मतभेद	13793
अलायंस	13794
प्रभास	13795
पोस्टल	13796
हाथापाई	13797
##तन्य	13798
मिर्च	13799
मिस्टर	13800
देवीलाल	13801
दौलत	13802
बढ़ाते	13803
लाभान	13804
तेवर	13805
रंगों	13806
चुनने	13807
डिजिट	13808
दिलावर	13809
हलफ	13810
##ami	13811
फेंकी	13812
जॉइंट	13813
किराये	13814
अनुमानित	13815
पॉलिटेक्निक	13816
stf	13817
लैंडिंग	13818
लहस	13819
अध्यापक	13820
मेगावाट	13821
indore	13822
##भूषा	13823
one	13824
##ॉन्ग	13825
तथ्यों	13826
दबंगों	13827
सिक्के	13828
##asht	13829
फायदेमंद	13830
वेंकट	13831
पेटीएम	13832
हौसला	13833
शत्रुघ्न	13834
सरेआम	13835
वेशभूषा	13836
गोकुल	13837
पदोन्नति	13838
इमोशनल	13839
singh	13840
परिक्षेत्र	13841
प्रोटोक	13842
भ्रामक	13843
असुविधा	13844
प्रकाशन	13845
मलेशिया	13846
सानिध्य	13847
आइटम	13848
ic	13849
ssp	13850
yo	13851
आदी	13852
इश्	13853
उदा	13854
एन्	13855
कछ	13856
गंत	13857
गवाही	13858
घुम	13859
जिता	13860
डंप	13861
तंगी	13862
धुर्	13863
फेक	13864
बबी	13865
यलो	13866
श्यो	13867
##ोशी	13868
##बुद्ध	13869
##षकों	13870
##28	13871
##ारंग	13872
मेंस	13873
काय	13874
करिश्	13875
जाब्	13876
सावर	13877
##राओं	13878
##सेक	13879
थाई	13880
निज्जर	13881
कुआ	13882
अधिशा	13883
महर्षि	13884
अनन्या	13885
##ाजनक	13886
बेदी	13887
पीक	13888
जीर्ण	13889
कैरेट	13890
चलो	13891
चलेंगे	13892
102	13893
भागीर	13894
स्कॉल	13895
जैक	13896
अमले	13897
बैठाया	13898
आयोजनों	13899
फैले	13900
पोस्त	13901
क्रांतिक	13902
116	13903
अरबाज	13904
देवड़ा	13905
स्थानांतरित	13906
छोड़ना	13907
अग्रणी	13908
चिकन	13909
##फेक्शन	13910
मूलभूत	13911
चैतन्य	13912
स्वीप	13913
फेरे	13914
लॉन्ग	13915
कोलार	13916
अर्बन	13917
व्यक्तित्व	13918
श्रेष्ठ	13919
पारीक	13920
अभियोजक	13921
एक्सेस	13922
प्रतिष्ठान	13923
1995	13924
अक्षत	13925
स्टैंडर्ड	13926
अनुपालन	13927
परमजीत	13928
वरना	13929
वरदान	13930
घटिया	13931
प्रतिभागी	13932
पवेलियन	13933
भड़के	13934
इशारे	13935
कार्तिकेय	13936
शीतला	13937
संवाददाता	13938
खंगाले	13939
कैपिटल	13940
मेकअप	13941
सीएए	13942
मौलिक	13943
फ़ैसले	13944
कुंडली	13945
खामिया	13946
एमबीबीएस	13947
ग्रोवर	13948
शिप्रा	13949
मिजाज	13950
...',	13951
रजनीकांत	13952
भुलैया	13953
चांसलर	13954
इकाइयों	13955
साक्षात्कार	13956
हरदोई	13957
डायरिया	13958
निःश	13959
आर्टिफिशियल	13960
भाद्रपद	13961
dr	13962
dies	13963
ww	13964
आत्	13965
कबू	13966
छोर	13967
ज्ये	13968
नोक	13969
फटने	13970
बब्	13971
ब्यूटी	13972
भेल	13973
मस्ती	13974
रेंजर	13975
वादी	13976
शरा	13977
शंख	13978
सस्ता	13979
##सर्ट	13980
##हेल	13981
##बेट	13982
##धक	13983
##वियों	13984
##वर्स	13985
##cl	13986
##13	13987
##दायी	13988
##ानियों	13989
##रीना	13990
एकीकृत	13991
पूर	13992
सुखा	13993
सुगम	13994
सुहाग	13995
महिपाल	13996
अनू	13997
##गेन	13998
मौन	13999
मौक़	14000
मोटे	14001
बेची	14002
मेवा	14003
मैदानी	14004
पीए	14005
बैराज	14006
टीडीपी	14007
सकु	14008
क्षमा	14009
कमिंस	14010
उपासना	14011
##एमई	14012
सूट	14013
##जारे	14014
भाट	14015
चौड़ाई	14016
आजसू	14017
गोबर	14018
##र्डिनेटर	14019
अन्यथा	14020
रातभर	14021
मानिक	14022
डीप	14023
शहरवासियों	14024
रविदास	14025
सफ़	14026
##ांडे	14027
बांटे	14028
भागकर	14029
आसिफ	14030
दिखाना	14031
सचेत	14032
एक्सपी	14033
##चित्र	14034
श्रॉफ	14035
138	14036
बिलियन	14037
सर्द	14038
##फेक्ट	14039
प्रेमियों	14040
मुलाक़	14041
सिकर	14042
चोटिल	14043
भविष्यवाणी	14044
आइस	14045
एक्सील	14046
सक्रियता	14047
शेख़	14048
विजया	14049
upsc	14050
##िफाइड	14051
हर्षित	14052
वाइफ	14053
द्वारका	14054
अदाणी	14055
चंपई	14056
छिपाने	14057
इरादे	14058
ज्वेलर्स	14059
स्क्वायर	14060
एनडीआरएफ	14061
today	14062
हाजिरी	14063
अंशुल	14064
बैलेंस	14065
टैगोर	14066
अटकलें	14067
sdm	14068
अभद्रता	14069
निर्विरोध	14070
खिंच	14071
नवनिर्वा	14072
छत्रपति	14073
गिरफ़्तार	14074
बैरिकेडिंग	14075
राजपुरोहित	14076
मुकुट	14077
शिल्पा	14078
मनोकामना	14079
लपटें	14080
हनुम	14081
जेएमएम	14082
धांधली	14083
पद्धति	14084
माइक्रोसॉफ्ट	14085
petrol	14086
लाभान्वित	14087
करिश्मा	14088
ns	14089
nh	14090
ncp	14091
ऋतु	14092
खजर	14093
गन्ने	14094
घना	14095
चेज	14096
धामी	14097
नानी	14098
बप्पा	14099
भट	14100
मता	14101
मंस	14102
रक	14103
रचा	14104
लाद	14105
सस्ती	14106
##्ञ	14107
##रियन	14108
##बों	14109
##‍ला	14110
केम	14111
##्रिया	14112
सेतु	14113
प्रीत	14114
प्रज्ञा	14115
##ामू	14116
##लेन्द्र	14117
स्का	14118
##त्रिक	14119
##सेसर	14120
##सेवकों	14121
अप्लाई	14122
सीटी	14123
##रोड	14124
##ौरन	14125
मौसमी	14126
बीस	14127
##जीक्यू	14128
##हरों	14129
##साथ	14130
लगाता	14131
दिनचर्या	14132
मैप	14133
सोर्स	14134
##तरफा	14135
##स्पद	14136
अनुभवी	14137
गिराने	14138
बहुल	14139
भागा	14140
##टाया	14141
##द्धा	14142
अभिले	14143
अमरी	14144
आईफोन	14145
जगदीप	14146
क्रिम	14147
##ंबू	14148
##ेंदु	14149
सुनसान	14150
उम्मीदें	14151
जेएन	14152
##ज़्	14153
170	14154
चर्चाओं	14155
2001	14156
ताे	14157
माताजी	14158
दिखाता	14159
लोहा	14160
रणथ	14161
रंगारंग	14162
वृषभ	14163
##ine	14164
सिलेक्शन	14165
प्रेमचंद	14166
शीशे	14167
अंगूठी	14168
शक्तिशाली	14169
साधने	14170
पसरा	14171
फ्लाइंग	14172
घुसने	14173
टाइटल	14174
शैलेश	14175
शैक्षिक	14176
गोदारा	14177
तारों	14178
सुलझाने	14179
मानसिकता	14180
अल्लाह	14181
आईपीसी	14182
जख्म	14183
दिक्कतों	14184
##hop	14185
##cci	14186
खंगाला	14187
रौशन	14188
संतुलित	14189
##विकास	14190
विक्रय	14191
श्रावण	14192
व्यावहारिक	14193
पशुपाल	14194
सेलिब्रेशन	14195
सिंगला	14196
सुशासन	14197
##mah	14198
कस्टमर	14199
एसएसबी	14200
श्रीमद्	14201
लखीमपुर	14202
हत्य	14203
कार्मिकों	14204
जलेबी	14205
टीकाकरण	14206
महाप्रबंधक	14207
रेखांकित	14208
अनावरण	14209
खगड़िया	14210
खंभे	14211
जलमग्न	14212
सौहार्द	14213
सन्नाटा	14214
विरूद्ध	14215
कंडीशन	14216
लहसुन	14217
बबीता	14218
मुलाक़ात	14219
नवनिर्वाचित	14220
:-	14221
ag	14222
aaj	14223
bcci	14224
hindi	14225
rcb	14226
ug	14227
अंच	14228
असीम	14229
आओ	14230
उर्दू	14231
ख्वा	14232
जिद	14233
झाल	14234
झूल	14235
टां	14236
टैल	14237
डरे	14238
थान	14239
नपा	14240
पाला	14241
बाम	14242
बोट	14243
भस्म	14244
म्यू	14245
विलंब	14246
शटर	14247
सरोवर	14248
सविता	14249
सृजन	14250
हासन	14251
##रूप	14252
##ेध	14253
##वृत्ति	14254
##ran	14255
##णाप	14256
##झिम	14257
##‍ि	14258
##ji	14259
केपी	14260
कोर्	14261
होस्ट	14262
##वापी	14263
##करम	14264
विराम	14265
संज	14266
##नीचर	14267
मुंशी	14268
बीके	14269
##ापारा	14270
मैग	14271
बैरा	14272
परिद	14273
##वेस्ट	14274
वर्चुअल	14275
सूद	14276
माउंट	14277
चौरा	14278
चौपाल	14279
सहमत	14280
##द्धार	14281
अभिव्य	14282
गोले	14283
गोष्ठी	14284
गुजारा	14285
डिटेन	14286
##त्याशित	14287
बदौल	14288
डीएल	14289
##परि	14290
विधवा	14291
आदिल	14292
रिपेयर	14293
ऑफलाइन	14294
दाे	14295
दाऊ	14296
##मुग्ध	14297
जलदाय	14298
##ज़न	14299
समझिए	14300
लाइंस	14301
बढ़ाए	14302
रिफाइन	14303
एयरलाइन	14304
लक्ष्म	14305
अप्रत्याशित	14306
खासतौर	14307
ज्वाइंट	14308
डालें	14309
नवनीत	14310
क्लस्टर	14311
घुटने	14312
कार्डिय	14313
वीके	14314
##चलन	14315
कांव	14316
सिद्धार	14317
परिणामों	14318
किराना	14319
इजरायली	14320
फैलने	14321
तालमेल	14322
चक्रधर	14323
हाइब्रिड	14324
निर्दोष	14325
बृजमोहन	14326
छीनने	14327
##एमसीएच	14328
मेघालय	14329
राजनैतिक	14330
बराड़	14331
पीएचसी	14332
अध्यापकों	14333
स्विफ्ट	14334
जुटाए	14335
मदरसा	14336
खूबसूरती	14337
पशुपालन	14338
सुदामा	14339
भदौरिया	14340
share	14341
स्तंभ	14342
कम्युनिस्ट	14343
बिस्वा	14344
सीएनजी	14345
छुटकारा	14346
वर्णन	14347
रिसीव	14348
सर्राफा	14349
महत्वा	14350
मजेदार	14351
परमात्मा	14352
त्यौहार	14353
मेमोरियल	14354
बदौलत	14355
एट	14356
एटा	14357
ओल्ड	14358
टल	14359
दांत	14360
दखल	14361
पाम	14362
बस्त	14363
भयाव	14364
मत्स	14365
लां	14366
लंग	14367
वध	14368
वसीम	14369
सिला	14370
हता	14371
##लिक	14372
##जर्व	14373
##सैनिक	14374
##ब्री	14375
##म्र	14376
##डि	14377
##डो	14378
##वश	14379
##ुड़	14380
##ुवा	14381
##शैली	14382
##15	14383
##्रिक	14384
##र्भ	14385
किय	14386
नेशन	14387
नेपाली	14388
पराग	14389
##ामृत	14390
विनाश	14391
##राशि	14392
##तिंदर	14393
संप्र	14394
देवन	14395
देवेन्द्र	14396
##ाये	14397
##ार्प	14398
बताएंगे	14399
सुभ	14400
सुने	14401
##्रेचर	14402
तकलीफ	14403
##ाहिर	14404
##वीपी	14405
बीडीओ	14406
बेअ	14407
##द्वीप	14408
बैड	14409
##र्मित	14410
बिहटा	14411
वर्गी	14412
कैरे	14413
प्रतिवर्ष	14414
हाला	14415
देशवासियों	14416
##ेरिया	14417
सुरेन्द्र	14418
शुष्क	14419
##धारकों	14420
नेताजी	14421
##साराम	14422
जगन	14423
123	14424
आरोग्य	14425
117	14426
##श्‍	14427
##प्रो	14428
टेस्ला	14429
मंगलसूत्र	14430
चंदौली	14431
ड्रिंक	14432
135	14433
समझकर	14434
##ग्गा	14435
##बेस	14436
175	14437
रिकवरी	14438
खेडकर	14439
पारदर्शी	14440
लॉकर	14441
रिचार्ज	14442
एयरब	14443
निकालना	14444
संभाली	14445
चिंताओं	14446
वीडी	14447
अंकुर	14448
खरीदकर	14449
दक्षता	14450
चाहा	14451
ठेला	14452
गुजराती	14453
छुड़ा	14454
प्रवृत्ति	14455
चिंताजनक	14456
झूले	14457
घूमते	14458
ज्ञानवापी	14459
सोचते	14460
कूड़े	14461
गुलाल	14462
स्ट्रक्चर	14463
##गेटिव	14464
पत्थरबाजी	14465
ऑडियंस	14466
दीवारों	14467
एशियन	14468
भड़का	14469
फर्नीचर	14470
छेड़खानी	14471
घाटा	14472
व्यवसायिक	14473
तेंदुलकर	14474
खिलाने	14475
खिलवाड़	14476
बंसी	14477
डायलॉग	14478
बारीकी	14479
हिंदुत्व	14480
सेल्फ	14481
द्रवि	14482
इरादा	14483
रिमझिम	14484
विश्लेषक	14485
कॉर्पोरेट	14486
वेटिंग	14487
##ratri	14488
कंसल्ट	14489
पेंडिंग	14490
मिजोरम	14491
वीकेंड	14492
कोंडा	14493
ग्रेजुएशन	14494
एनजीओ	14495
नियामक	14496
अनारक्षित	14497
मुइज्जू	14498
##चाराधीन	14499
पल्लवी	14500
हिंडनबर्ग	14501
गुरदासपुर	14502
संकीर्तन	14503
कीटनाशक	14504
खामियाजा	14505
diesel	14506
खजराना	14507
सिद्धारमैया	14508
भयावह	14509
mm	14510
no	14511
si	14512
इम्प	14513
उड़ी	14514
कंध	14515
कतर	14516
कंबल	14517
गंड	14518
टहल	14519
ठा	14520
डेंट	14521
ड्रा	14522
दुप	14523
पर्च	14524
बिश	14525
बंपर	14526
माई	14527
मिक्स	14528
वड	14529
वेंट	14530
सिलाई	14531
सृष्टि	14532
##सोर्स	14533
##तपा	14534
##बि	14535
##बलों	14536
##psc	14537
##क्रेट	14538
करणी	14539
##्यव	14540
##्युनिक	14541
##ियाें	14542
##ुराह	14543
राई	14544
समाय	14545
निवेदन	14546
कुट	14547
राजपाल	14548
दीया	14549
मिलेंगी	14550
बेत	14551
##जेन्द्र	14552
##जेवाला	14553
पीटने	14554
परिवादी	14555
क्षत्र	14556
पिंटू	14557
सूखा	14558
2026	14559
स्टॉफ	14560
भाकपा	14561
##एसएफ	14562
ट्रिब	14563
अवनीश	14564
पैरोल	14565
##फील्ड	14566
सदमे	14567
सदैव	14568
बोहरा	14569
प्रशस्ति	14570
हाट	14571
हावी	14572
##ब्बल	14573
1100	14574
एमए	14575
स्पाइ	14576
पुरात	14577
भागों	14578
जेन	14579
लालवानी	14580
...।	14581
भेजना	14582
पाकिस्‍तान	14583
निकलता	14584
लक्ष्यों	14585
ज़िले	14586
##सिफिक	14587
पटनायक	14588
एलईडी	14589
##विंद्र	14590
##ामाबाद	14591
याचिकाओं	14592
लौटाने	14593
कल्याणपुर	14594
फ्लिप	14595
मुस्लिमों	14596
1990	14597
खुशियां	14598
सत्ताधारी	14599
संतोषजनक	14600
ठंडे	14601
मधुम	14602
व्यापारिक	14603
निष्का	14604
##िवेटेड	14605
गरमा	14606
पुतले	14607
##पेक्ष	14608
टकराव	14609
बल्लेबाजों	14610
ब्रेकअप	14611
कमांडो	14612
जिहाद	14613
##ack	14614
आवेदकों	14615
##बोर्ड	14616
अनुमोद	14617
खालसा	14618
क्यूसेक	14619
प्रधानाध्यापक	14620
एमएलए	14621
इलेक्ट्रॉनिक्स	14622
सांगवान	14623
एमबीए	14624
झेलनी	14625
dev	14626
थमने	14627
सिद्धांतों	14628
मऊगंज	14629
अन्तर्गत	14630
औषधि	14631
##ift	14632
पूज्य	14633
प्रज्ज्वल	14634
वासुदेव	14635
नॉर्मल	14636
ड्रेनेज	14637
मर्यादा	14638
एक्यूआई	14639
निष्पादन	14640
बुनकर	14641
विशाखाप	14642
ढिल्लों	14643
मुसीबत	14644
प्रोटोकॉल	14645
निःशुल्क	14646
एक्सीलेंस	14647
##जीक्यूटिव	14648
परिदृश्य	14649
अड़	14650
अयोग	14651
अचल	14652
आउ	14653
कप्‍	14654
खण्ड	14655
ढी	14656
ढे	14657
थर्म	14658
नाद	14659
नज़	14660
फौरन	14661
मंगा	14662
रियर	14663
वाया	14664
सानिया	14665
##99	14666
##हिट	14667
##शमी	14668
##शियन	14669
##iy	14670
##sl	14671
##66	14672
##der	14673
##िकेट	14674
##्यमी	14675
स्प्र	14676
जाऊंगा	14677
साबर	14678
##क्ष्म	14679
सिप	14680
##माझ	14681
पूरन	14682
सुले	14683
सुजीत	14684
महमू	14685
मोट	14686
पहुंचती	14687
मैट्रिक	14688
इनोवेशन	14689
अबकी	14690
कमर्शियल	14691
पाटन	14692
कहानियां	14693
कॉन	14694
सहन	14695
बुझा	14696
जैविक	14697
अमरो	14698
पैट	14699
अलविदा	14700
##्नि	14701
पूर्वजों	14702
नीता	14703
##ज्जा	14704
परिवारवाद	14705
जगराओं	14706
रविचंद्र	14707
टेक्स	14708
सोमनाथ	14709
भरपाई	14710
उद्यमी	14711
घोषणाप	14712
दोपहिया	14713
नारकोट	14714
समर्थित	14715
पड़ाव	14716
निकालते	14717
एलिवेटेड	14718
जिम्मेदारों	14719
सीमाओं	14720
पलामू	14721
##डेड	14722
आवाज़	14723
कॉन्सर्ट	14724
प्रतियोगी	14725
विनम्र	14726
पॉड	14727
पॉवर	14728
बांधने	14729
सूर्यवंशी	14730
खंडन	14731
आउटसोर्स	14732
भुगतना	14733
सूचीबद्ध	14734
नियंत्रक	14735
अटैच	14736
तिरु	14737
इजराइली	14738
दानिश	14739
टाइमिंग	14740
गुलशन	14741
सूरजपुर	14742
मनोनीत	14743
शौच	14744
भंडारा	14745
लेखपाल	14746
अधिवेशन	14747
अधिवक्ताओं	14748
प्रश्नपत्र	14749
इस्लामाबाद	14750
जुड़ाव	14751
जजपा	14752
##क्‍टर	14753
दिक्कतें	14754
ठिकाना	14755
फंसाया	14756
लुटेरे	14757
सेलिब्र	14758
टकराने	14759
टकराई	14760
डिस्चार्ज	14761
##ल्‍ड	14762
लिपिक	14763
घोड़े	14764
व्याख्यान	14765
लेफ्टिनेंट	14766
झोपड़ी	14767
डिटेल्स	14768
##व्यापी	14769
##ियोग्राफी	14770
जालसाज	14771
स्वामित्व	14772
सिमरन	14773
बाथरूम	14774
##फ्लिक्स	14775
स्कॉलर	14776
द्रविड़	14777
घोषणापत्र	14778
ak	14779
obc	14780
इज्ज	14781
एल्	14782
खदे	14783
गंदी	14784
गबन	14785
झुक	14786
धमत	14787
नृ	14788
नाप	14789
नासा	14790
ब्ले	14791
सज़ा	14792
हड्डी	14793
हंसी	14794
##ेगा	14795
##कार्ट	14796
##ric	14797
##पेड	14798
केवाई	14799
केवट	14800
##ान्त	14801
किल्ल	14802
करूंगी	14803
परिसी	14804
##्यंत्र	14805
प्रहार	14806
##ियाँ	14807
बाउ	14808
##ंगली	14809
साक्षर	14810
##सीएच	14811
##नीकरण	14812
##लीन	14813
सिब्बल	14814
तोड़े	14815
##ाइयां	14816
##ल्टर	14817
मिलान	14818
मिलिट्री	14819
मैक	14820
कार्यभार	14821
कैंडल	14822
पाव	14823
हरस	14824
डॉन	14825
कहेंगे	14826
2027	14827
मुख्‍य	14828
नामित	14829
निकाह	14830
रूपये	14831
रामन	14832
गुज	14833
##ंसाली	14834
सुरिंदर	14835
नीना	14836
मारते	14837
पदनाम	14838
चेहरों	14839
मोहब्बत	14840
गाकर	14841
जलने	14842
प्रोफ़े	14843
##म्बा	14844
148	14845
प्रसादी	14846
नौतपा	14847
हेयर	14848
गैले	14849
करवाएं	14850
##ग्रेशन	14851
उमरिया	14852
अमेरिक	14853
##पूर्णा	14854
बयानबाजी	14855
##वाहित	14856
मंत्रमुग्ध	14857
कटारा	14858
अंतराल	14859
नदीम	14860
रुद्र	14861
शिबू	14862
एलएल	14863
रवै	14864
रवैया	14865
##all	14866
अदालतों	14867
फेरी	14868
उल्टा	14869
छापे	14870
सुपरहिट	14871
##िक्सल	14872
##ण्डा	14873
अधीक्षण	14874
फ्लाई	14875
खंडपीठ	14876
प्रतिष्ठानों	14877
मिसाइलों	14878
कमिश्नरेट	14879
किरदारों	14880
##न्दर	14881
प्रमंडल	14882
उज्जवल	14883
टॉर्च	14884
प्रमाणपत्र	14885
स्ट्रॉन्ग	14886
##घाड़ी	14887
वसूला	14888
1971	14889
सॉन्ग	14890
शहजाद	14891
ईशान	14892
मिथिलेश	14893
एजेंसियां	14894
बारीक	14895
वैष्णो	14896
इन्वेस्टिगेशन	14897
सराफा	14898
जहरीली	14899
डीआरएम	14900
evm	14901
सिखाया	14902
मेहमानों	14903
खटख	14904
सम्पूर्ण	14905
##तेश्वर	14906
धरातल	14907
गोल्डी	14908
सान्नि	14909
संक्रांति	14910
राजनेता	14911
फुसलाकर	14912
रोहतास	14913
षड्यंत्र	14914
प्रतिनियुक्ति	14915
उखाड़	14916
एथलेटिक्स	14917
त्वचा	14918
शशांक	14919
सावरकर	14920
अभिव्यक्ति	14921
मत्स्य	14922
रविचंद्रन	14923
धमतरी	14924
परिसीमन	14925
प्रोफ़ेसर	14926
सान्निध्य	14927
jan	14928
आजीव	14929
घटक	14930
चिंग	14931
जगा	14932
जमान	14933
तर्पण	14934
तंबा	14935
थ्री	14936
दंगे	14937
पट्टा	14938
फिंग	14939
बेश	14940
भानु	14941
रक्स	14942
लला	14943
शब	14944
हारी	14945
##गिर	14946
##ोवाल	14947
##ोद्धार	14948
##बड़ी	14949
##बदल	14950
##बुल्लाह	14951
##ईस	14952
##शाम	14953
##ba	14954
##णक	14955
##op	14956
##दू	14957
##ारक	14958
##ताड़ा	14959
इसरो	14960
बाहु	14961
##हाउस	14962
##सेप्ट	14963
निरोधक	14964
कारगर	14965
सिं	14966
कुत्ता	14967
सुदेश	14968
अनहो	14969
चुकाने	14970
जीएम	14971
##र्जित	14972
कैरियर	14973
पिंकी	14974
दुम	14975
कॉफी	14976
भाकर	14977
इंटर्न	14978
नेताम	14979
पिछला	14980
आरएल	14981
113	14982
##वलिया	14983
मीट्रिक	14984
उठी	14985
##ेंडेंट	14986
जेजेपी	14987
नंबरों	14988
सेवादार	14989
खुदरा	14990
##यानंद	14991
बेहाल	14992
उमड़ी	14993
मददगार	14994
##वाहिक	14995
प्रमुखता	14996
210	14997
दूरसंच	14998
खाती	14999
रोज़	15000
वाणी	15001
खासियत	15002
लगाएंगे	15003
तेरे	15004
लोहार	15005
तलाशने	15006
फ़ाय	15007
पौने	15008
कैमूर	15009
कॉन्क्लेव	15010
सोनकर	15011
दबाने	15012
1997	15013
थोड़े	15014
रिसे	15015
हलका	15016
स्टेटमेंट	15017
नेटफ्लिक्स	15018
तृप्ति	15019
डोम	15020
##ट्‌टर	15021
रोगी	15022
ऑलआउट	15023
इस्लामी	15024
बिरसा	15025
सिखों	15026
सेनानी	15027
जीतीं	15028
रघुनाथ	15029
सिंगरौली	15030
तुम्हारी	15031
उन्‍हें	15032
अफवाहों	15033
हमीदिया	15034
क्रूज	15035
जानकारियां	15036
पुण्यतिथि	15037
होलिका	15038
केदारनाथ	15039
निर्वहन	15040
रेनू	15041
बुलंदशहर	15042
संलिप्तता	15043
रेणुका	15044
अराजकता	15045
असाधारण	15046
डीएनए	15047
प्रतिद्वंद्वी	15048
यूएई	15049
श्यामा	15050
सकुशल	15051
रक्सौल	15052
अनहोनी	15053
दूरसंचार	15054
ke	15055
par	15056
अगेन	15057
आगर	15058
उचाना	15059
ऋषिक	15060
कवाय	15061
खिस	15062
जिग	15063
झर	15064
पांव	15065
पट्टे	15066
फ्रेम	15067
भर्	15068
भंसाली	15069
रान	15070
वचन	15071
शिया	15072
हाप	15073
##48	15074
##थरों	15075
##िह	15076
##जाल	15077
##गड़ा	15078
##ोका	15079
##ोबा	15080
##व्	15081
##व्यों	15082
##वृष्टि	15083
##फिल	15084
##शाक	15085
##mu	15086
##ber	15087
##ॉन्स	15088
##gr	15089
##ve	15090
##ारू	15091
कीचड़	15092
##र्णा	15093
##र्ची	15094
##नेड	15095
##ालों	15096
##नाद	15097
##वाते	15098
##केशनल	15099
##ियुक्त	15100
##लेटर	15101
भीख	15102
##तिमा	15103
लेक	15104
##गावत	15105
निहाल	15106
##लीकेशन	15107
सिंड	15108
##ंडलीय	15109
कुप	15110
कुवैत	15111
##ंहार	15112
बारूद	15113
##ोजपा	15114
##टेरियल	15115
पीथम	15116
लास्ट	15117
बैरल	15118
बिराद	15119
हरमन	15120
##एमओ	15121
जन्मे	15122
बनवारी	15123
सहेली	15124
आजमा	15125
कांग्रेसियों	15126
जैकी	15127
अमूल	15128
अम्ब	15129
रामलाल	15130
देशमुख	15131
अगवा	15132
बदसल	15133
तैसे	15134
सुरजेवाला	15135
माननीय	15136
महाशिव	15137
यूसु	15138
##च्छा	15139
##सलपुर	15140
##प्रथम	15141
दाएं	15142
आमदनी	15143
मंडली	15144
सैटेलाइट	15145
श्रुति	15146
लालपुर	15147
##िस्टिक	15148
##बेन	15149
बनाएगी	15150
बलू	15151
कराची	15152
एडवां	15153
धर्मांतरण	15154
रिटेल	15155
नोटा	15156
धनराशि	15157
रैंप	15158
तेरी	15159
चिड़िया	15160
##एनएल	15161
एलपीजी	15162
बोलना	15163
जामताड़ा	15164
फसलें	15165
डायरेक्शन	15166
पार्ट्स	15167
मुरारी	15168
वॉटर	15169
पहाड़ियों	15170
कूच	15171
गुजरते	15172
अनुभवों	15173
बेसब्री	15174
ध्वनि	15175
डूबे	15176
वाइल्ड	15177
भतीजी	15178
सच्चे	15179
फॉरेंसिक	15180
गुलाबी	15181
खातून	15182
शास्त्रीय	15183
फिरोजाबाद	15184
अन्नपूर्णा	15185
रिटर्निंग	15186
नशीले	15187
इटारसी	15188
कवच	15189
तबादले	15190
पशुपति	15191
सरायकेला	15192
क्रॉसिंग	15193
कन्नड़	15194
कार्बन	15195
महायज्ञ	15196
सुधांशु	15197
चक्रवात	15198
नाट्य	15199
प्लेसमेंट	15200
कब्रिस्तान	15201
बीएचयू	15202
नॉमिनेशन	15203
गावस्कर	15204
##गर्दी	15205
मसीह	15206
कनिष्ठ	15207
टीकमगढ़	15208
इक्विटी	15209
मुबारक	15210
कुसुम	15211
अमरोहा	15212
किल्लत	15213
आजीविका	15214
तंबाकू	15215
कवायद	15216
पीथमपुर	15217
बिरादरी	15218
बदसलूकी	15219
%,	15220
acc	15221
आंसर	15222
आचरण	15223
ईसी	15224
कदर	15225
चम्म	15226
छाने	15227
जली	15228
पां	15229
पोर	15230
पारियों	15231
बक्	15232
बराब	15233
लकी	15234
लायंस	15235
वज	15236
वशि	15237
शशिक	15238
सिन	15239
सघन	15240
##िस्तानी	15241
##जै	15242
##नान	15243
##ोल्ला	15244
##बिट	15245
##डार	15246
##वई	15247
##इया	15248
##फो	15249
##फली	15250
##ौंद	15251
##ँकि	15252
##्रेंस	15253
हैड	15254
किम	15255
कावड़	15256
##ताव	15257
परो	15258
परख	15259
##स्का	15260
विह	15261
##तीया	15262
##वार्ता	15263
समाह	15264
हीराम	15265
##्हान	15266
सुमेर	15267
सीस	15268
सीढ़ी	15269
##हरिया	15270
##विज्ञान	15271
##जाब	15272
हमको	15273
पहुंचाना	15274
पीओ	15275
पीला	15276
##पाउंड	15277
कम्युनिक	15278
उपयुक्त	15279
कहें	15280
सूख	15281
अनुचित	15282
रोकी	15283
प्रतिवेदन	15284
ट्रकों	15285
विकलांग	15286
##िटेशन	15287
फैक्टर	15288
वर्षगांठ	15289
सुबोध	15290
मौतों	15291
जगजीत	15292
मांगलिक	15293
126	15294
मार्जिन	15295
मनप्रीत	15296
155	15297
पदभार	15298
तीखी	15299
##ोहन	15300
गाए	15301
दिखते	15302
प्रोसेसर	15303
भरना	15304
जेएस	15305
मंडियों	15306
केसरी	15307
ड्रिल	15308
ड्रॉप	15309
बलजीत	15310
जल्दबाजी	15311
##टलर	15312
एडिट	15313
धर्मवीर	15314
##यूआई	15315
वारिस	15316
सर्वर	15317
स्टेन	15318
स्टेप	15319
##फाश	15320
टैब	15321
##एफएस	15322
क्लर्क	15323
डायमंड	15324
किसकी	15325
मुकाम	15326
उल्लास	15327
मरवाही	15328
सोनभद्र	15329
डाॅ	15330
धोखे	15331
उत्पादक	15332
मुश्किलों	15333
गोलियों	15334
##पंचायत	15335
1992	15336
बंधु	15337
फैक्ट्र	15338
ट्रॉमा	15339
इकट्‌	15340
स्ट्रांग	15341
अश्वनी	15342
आर्कि	15343
नालियों	15344
आंध्रप्रदेश	15345
मिश्रण	15346
चांदनी	15347
हाेने	15348
इंसानों	15349
एवरेज	15350
अमेजन	15351
पंडालों	15352
यूट्यूबर	15353
जहरीला	15354
श्रीमाली	15355
##umar	15356
उद्यमियों	15357
मच्छरों	15358
उन्नत	15359
एएनएम	15360
बानो	15361
कम्युनिटी	15362
politi	15363
टेलर	15364
प्रारूप	15365
सज्जन	15366
उर्वरक	15367
रफीक	15368
सुप्रिया	15369
result	15370
न्योता	15371
फ्यूचर	15372
मेडिसिन	15373
मिचेल	15374
ट्रांसफॉर्मर	15375
मुफ्ती	15376
श्योपुर	15377
थाईलैंड	15378
जीर्णोद्धार	15379
गंडक	15380
बराबरी	15381
bud	15382
tv	15383
tmc	15384
अष्ट	15385
आंव	15386
उस्	15387
कट्टे	15388
खट्‌टर	15389
झोंक	15390
फ्ले	15391
भरण	15392
यदु	15393
रैन	15394
लार्	15395
लर्निंग	15396
शंका	15397
##43	15398
##निंग	15399
##नानगर	15400
##port	15401
##धव	15402
##कानी	15403
##वगढ़	15404
##भन	15405
##भ्यास	15406
##शंस	15407
##ly	15408
##22	15409
केर	15410
##्राह	15411
सेठी	15412
नेवी	15413
काव्य	15414
पराज	15415
##नाय	15416
##स्पा	15417
##स्मिक	15418
सायं	15419
लेयर	15420
राजस्‍	15421
दीक्ष	15422
दीवाली	15423
##कार्य	15424
बीटेक	15425
पीते	15426
पीएससी	15427
कैफ	15428
पाबंदी	15429
उपरो	15430
हरभ	15431
हराने	15432
##डीएफ	15433
रोहन	15434
हिज्	15435
माथे	15436
खिलाकर	15437
अभिमन	15438
##परिवार	15439
आरआर	15440
पत्थरों	15441
बांग्	15442
कुलविंदर	15443
वैद्य	15444
ब्राज	15445
##ance	15446
राहगीर	15447
हेल्	15448
स्थानांतरण	15449
विरोधियों	15450
बिलख	15451
शेयरिंग	15452
सर्वप्रथम	15453
असें	15454
230	15455
एक्सपोर्ट	15456
##ates	15457
ज़िला	15458
तेरा	15459
यूपीआई	15460
शिखा	15461
मॉस्को	15462
त्रुट	15463
समावेश	15464
समाधि	15465
लुढ़	15466
मुलाजिम	15467
प्रशिक्षक	15468
फर्जीवाड़ा	15469
सूर्योदय	15470
पोलियो	15471
कमाए	15472
प्रमोट	15473
तारीखों	15474
स्टेटस	15475
प्रतिमाओं	15476
जलापूर्ति	15477
##धीश्वर	15478
##ोलॉजिकल	15479
दौड़कर	15480
वर्कर्स	15481
सनराइज	15482
अमनदीप	15483
##ॉमस	15484
राधाकृष्ण	15485
बाघिन	15486
गेमिंग	15487
एटीएस	15488
निपटा	15489
विलय	15490
हकदार	15491
टुकड़ों	15492
रवीना	15493
chat	15494
सैमसन	15495
क्यूआर	15496
यमुनानगर	15497
शर्मिला	15498
जर्मन	15499
प्रोसेसिंग	15500
चाइना	15501
जहरीले	15502
ताराचंद	15503
खजुराह	15504
मूंगफली	15505
रिफंड	15506
एएनआई	15507
इकलौते	15508
विद्वान	15509
गोताखोरों	15510
चौड़ीकरण	15511
छुट्टियों	15512
तमंचा	15513
स्वदेशी	15514
एप्लीकेशन	15515
मैन्युफैक्चरिंग	15516
ओंकारेश्वर	15517
कबाड़	15518
हीरालाल	15519
अख़बार	15520
अम्बेडकर	15521
गंतव्य	15522
भागीरथ	15523
##‍लादेश	15524
कोंडागांव	15525
चम्मच	15526
##ोल्लास	15527
अभिमन्यु	15528
बांग्‍लादेश	15529
dc	15530
ek	15531
mand	15532
tra	15533
vi	15534
आभ	15535
कर्क	15536
कवर्	15537
खाप	15538
गढ़ी	15539
गश्ती	15540
छल	15541
झमाझ	15542
टनल	15543
तनु	15544
नायर	15545
पों	15546
पनीर	15547
माज	15548
लोजपा	15549
विलास	15550
सराहा	15551
हस	15552
##मित्र	15553
##पानी	15554
##ec	15555
##li	15556
##दत्त	15557
##खत	15558
##छे	15559
##qu	15560
##नेशन	15561
कांत	15562
बाह	15563
विंध	15564
उनपर	15565
संस्करण	15566
संक्रमित	15567
कारें	15568
कार्यान	15569
महम	15570
अनिर	15571
##स्टो	15572
##ोजिट	15573
जोड़ों	15574
पीएन	15575
लाता	15576
लावार	15577
परिवाद	15578
क्षम	15579
बिठ	15580
##न्ट	15581
बनाये	15582
वेटर	15583
बहाना	15584
चौका	15585
चौंका	15586
##चार्या	15587
##शीष	15588
##िटल्स	15589
नागा	15590
फिली	15591
रूपेश	15592
रूपरेखा	15593
##कोत्तर	15594
रेसल	15595
महापंचायत	15596
पोशाक	15597
##ब्बी	15598
##ब्बू	15599
क्रैश	15600
मोहसिन	15601
##प्राइ	15602
मिलाया	15603
जीतना	15604
जेके	15605
मंडा	15606
नौबत	15607
सामानों	15608
दलजीत	15609
बल्‍	15610
लॉग	15611
पढ़ेंः	15612
रिह	15613
रिटेन	15614
संयम	15615
एक्सपो	15616
##मेकर	15617
##ौलिया	15618
रणजी	15619
चरणजीत	15620
बावड़ी	15621
कॉन्ट	15622
कॉलिंग	15623
छापाम	15624
बेचते	15625
शीला	15626
जालौन	15627
##ence	15628
खुशहाली	15629
कक्षाएं	15630
मुरार	15631
अटूट	15632
ठंडक	15633
जलाया	15634
अर्थात	15635
##ोलॉजिस्ट	15636
यशवंत	15637
जस्टिन	15638
धारणा	15639
तृतीया	15640
सिंधु	15641
हर्षोल्लास	15642
माइंड	15643
प्रतिभाओं	15644
उत्तराधिकारी	15645
1977	15646
पत्रकारिता	15647
##क्‍ट	15648
दायरा	15649
लाठीचार्ज	15650
किताबों	15651
अनुराधा	15652
पृष्ठ	15653
मिथिला	15654
मित्रों	15655
##कांक्षी	15656
हस्तियों	15657
शाहीन	15658
आईएमए	15659
बिछाने	15660
तुम्हारा	15661
निचली	15662
रितु	15663
बीआरएस	15664
छुपा	15665
पिलर	15666
डुअल	15667
खुराना	15668
झाड़ू	15669
रश्मिका	15670
मीनू	15671
झांकियां	15672
फाल्	15673
जुनैद	15674
दुर्भाग्यपूर्ण	15675
सप्तमी	15676
मान्यताओं	15677
सौंदर्यीकरण	15678
फैसलों	15679
राइजिंग	15680
किन्नर	15681
आकस्मिक	15682
नसरल्लाह	15683
जाब्ता	15684
ज्येष्ठ	15685
हालाँकि	15686
पॉडकास्ट	15687
दुमका	15688
रिसेप्शन	15689
महाशिवरात्रि	15690
आर्किटे	15691
कवर्धा	15692
झमाझम	15693
550	15694
pu	15695
sr	15696
अड़े	15697
एनी	15698
कगार	15699
चॉक	15700
जफर	15701
डांड	15702
ड्रीम	15703
तूल	15704
धारी	15705
नकाब	15706
यार्ड	15707
वियत	15708
श्व	15709
हानिक	15710
##55	15711
##97	15712
##रियंस	15713
##नरी	15714
##सां	15715
##सिस	15716
##गड़	15717
##बेंस	15718
##ूबी	15719
##कने	15720
##इयां	15721
##पोश	15722
##घरा	15723
##दह	15724
##खरा	15725
##68	15726
##ॉजी	15727
##km	15728
##--	15729
##र्लिंग	15730
करम	15731
परवीन	15732
##नाया	15733
प्रेज	15734
##ियोज	15735
विमेंस	15736
साउंड	15737
हुंडई	15738
##नीज	15739
निंद	15740
मुंगे	15741
अधेड़	15742
सीडी	15743
राजकोट	15744
##स्टाइल	15745
##ल्टेज	15746
##काराम	15747
##िशियन	15748
बीपीएससी	15749
##विचार	15750
मैक्र	15751
मैडम	15752
सोते	15753
वर्च	15754
कमिटी	15755
कमज़	15756
पागल	15757
##ष्टा	15758
शिकायती	15759
उपक	15760
##र्व्यव	15761
आपबी	15762
पार्सल	15763
सूर	15764
सूक्ष्म	15765
अनुया	15766
##शीर	15767
एसिड	15768
##यरिंग	15769
नाख	15770
छाबड़ा	15771
रातों	15772
मानपुर	15773
डीवाई	15774
127	15775
महाविकास	15776
##भाविक	15777
मनमोह	15778
शिवरात्रि	15779
##प्रसाद	15780
एमवी	15781
बांधा	15782
स्पे	15783
पेड	15784
दिखती	15785
तेजधार	15786
सैर	15787
रनवे	15788
जमीनों	15789
##मुखी	15790
बलदेव	15791
##ग्राहियों	15792
अशर	15793
पाले	15794
##केश्वर	15795
मंत्रोच्च	15796
टिकी	15797
##ोसिस	15798
रैम	15799
सतह	15800
न्यायपालिका	15801
एलएन	15802
त्रिल	15803
बोलकर	15804
कॉन्फ	15805
बांधों	15806
हनुमानजी	15807
विवाहित	15808
उड़द	15809
प्रखंडों	15810
टाइट	15811
##त्तियां	15812
उज्ज्वल	15813
क्वीन	15814
निकलेगी	15815
मांगीलाल	15816
##िलेन	15817
मॉडलिंग	15818
दुर्घटनाग्रस्त	15819
##ident	15820
सौरव	15821
दृष्टया	15822
डिजाइनर	15823
स्कोरर	15824
हिमंत	15825
भड़की	15826
##पेई	15827
जापानी	15828
शहबाज	15829
डिलीट	15830
कमांडेंट	15831
शास्त्रों	15832
खतरों	15833
साहित्यकार	15834
स्नातकोत्तर	15835
योद्धा	15836
इमारतों	15837
कटाक्ष	15838
छिपाकर	15839
सेलिब्रेट	15840
आपातकाल	15841
एमएसएमई	15842
दाहिने	15843
कासगंज	15844
उन्नति	15845
बारहवीं	15846
पीठासीन	15847
तानाशाही	15848
प्‍ले	15849
ऑब्जर्व	15850
पिंजरे	15851
टोक्यो	15852
प्रेग्नेंट	15853
सौम्या	15854
गाँव	15855
अभियानों	15856
collection	15857
मताधिकार	15858
फ्लिपकार्ट	15859
केवाईसी	15860
हापुड़	15861
हीरामंडी	15862
उस्मान	15863
उपरोक्त	15864
##र्व्यवहार	15865
आपबीती	15866
by	15867
ban	15868
id	15869
ji	15870
mla	15871
son	15872
tw	15873
आदान	15874
इस्क	15875
उम्म	15876
ऋत	15877
एजी	15878
ऐश	15879
ग्रेट	15880
घूस	15881
चन्नी	15882
जतिंदर	15883
नस्ल	15884
नंदन	15885
पत्रा	15886
पन्नू	15887
भूट	15888
भलाई	15889
रुम	15890
शॉल	15891
हफ्त	15892
हज़	15893
##49	15894
##सचिव	15895
##ोले	15896
##बुआ	15897
##मंत्र	15898
##uti	15899
##प्रा	15900
##पल्ली	15901
##14	15902
##lo	15903
##दौर	15904
##27	15905
हैट्रिक	15906
##नेई	15907
किस्से	15908
नेक	15909
##नाबाद	15910
##स्केट	15911
प्रयुक्त	15912
बाजे	15913
##लाज	15914
##लेक्स	15915
##त्रिम	15916
देवरी	15917
देवेश	15918
रहो	15919
निदान	15920
दोहरी	15921
अधूरी	15922
महराज	15923
बीडी	15924
##जेज	15925
सोचना	15926
जीन	15927
सकेंगी	15928
तरक्की	15929
##िप्र	15930
चलेंगी	15931
ग्रिड	15932
ट्रिपल	15933
खिलाया	15934
अभिर	15935
एसजी	15936
चाहेंगे	15937
अविश्वास	15938
अलगाव	15939
##आईएस	15940
उत्कर्ष	15941
##ेंटेशन	15942
सदियों	15943
श्रीफल	15944
मनजीत	15945
क्रूड	15946
##धिकृत	15947
प्रदू	15948
स्वाभाविक	15949
उम्मीदों	15950
ब्रिक्स	15951
पंचामृत	15952
एक्सईएन	15953
खेलेंगे	15954
चंदू	15955
बुधनी	15956
50mp	15957
देंगी	15958
बलराज	15959
पूर्वा	15960
शाहपुरा	15961
लौटना	15962
एजाज	15963
सर्दियों	15964
##ॉर्डन	15965
##ati	15966
उठाएंगे	15967
त्रय	15968
एफडी	15969
मंे	15970
धरम	15971
फेफ	15972
बदलावों	15973
विनर	15974
जागरुक	15975
हटाना	15976
##वेटिव	15977
तकनीकों	15978
एक्स्ट्रा	15979
1994	15980
कक्षाओं	15981
360	15982
मशीनरी	15983
##न्दन	15984
बागपत	15985
प्रेसवार्ता	15986
विजेंद्र	15987
प्रयोगशाला	15988
प्रतीत	15989
निष्कर्ष	15990
हर्षवर्धन	15991
##thor	15992
बौछ	15993
पीएचई	15994
मछल	15995
अपमानित	15996
सीआईएसएफ	15997
रिवर	15998
खालिस्तान	15999
पनप	16000
रत्ना	16001
विराजित	16002
##ोग्राफर	16003
दंपति	16004
प्रज्वलित	16005
कंटेस्ट	16006
हमीरपुर	16007
लीडरशिप	16008
शालिनी	16009
##ल्लेवाल	16010
पेंड्रा	16011
विक्रेताओं	16012
पायदान	16013
इलाक़ों	16014
काबिज	16015
नवीनीकरण	16016
नाचते	16017
पर्दाफाश	16018
जांगिड़	16019
जातकों	16020
संवेदना	16021
author	16022
अधिशासी	16023
स्काउट	16024
##ज़्ज़	16025
मैगजीन	16026
रिफाइनरी	16027
नारकोटिक्स	16028
गैलेक्सी	16029
फिंगर	16030
वशिष्ठ	16031
दीक्षांत	16032
खजुराहो	16033
हानिकारक	16034
cb	16035
car	16036
ceo	16037
date	16038
htt	16039
nar	16040
अघाड़ी	16041
उगा	16042
कस्त	16043
कसर	16044
गन्ना	16045
डेल	16046
डंडा	16047
डल्लेवाल	16048
ढ़	16049
दशा	16050
पाह	16051
बत्ती	16052
बगावत	16053
मजी	16054
मद्र	16055
यंग	16056
रक्षक	16057
रसू	16058
लाज	16059
वहाँ	16060
सखी	16061
हिला	16062
##एँ	16063
##्नों	16064
##्बर	16065
##िमेंट	16066
##जेंडर	16067
##वमी	16068
##वड़े	16069
##ौदी	16070
##श्रम	16071
##पट्टी	16072
##घी	16073
##hat	16074
##दो	16075
##va	16076
कोबरा	16077
##िलर	16078
##िलाल	16079
##क्लो	16080
##ांता	16081
##ांबी	16082
स्वे	16083
राऊ	16084
जासू	16085
##रीदी	16086
##वाराम	16087
एकसाथ	16088
एकतरफा	16089
संरेख	16090
देसाई	16091
##टीओ	16092
##भाषा	16093
##पींस	16094
##माटर	16095
सुहाना	16096
सीढ़ियों	16097
अन्ना	16098
##कारे	16099
बीवी	16100
बीयर	16101
##किब	16102
##मीड	16103
मोटा	16104
बिखर	16105
सामंज	16106
कैथ	16107
कम्	16108
मांड	16109
दुर्व्यवहार	16110
लगना	16111
माताओं	16112
ट्रस्टी	16113
नाश	16114
पैपरा	16115
गुजार	16116
दिलों	16117
##दानंद	16118
सुराज	16119
रेह	16120
डीएसटी	16121
लीकेज	16122
मनदीप	16123
119	16124
इंडियंस	16125
एनआरआई	16126
रिपोर्टिंग	16127
एम्प	16128
संगरूर	16129
दाग	16130
वैवाहिक	16131
कृत्रिम	16132
##राजपुर	16133
कलक्टर	16134
गंवाने	16135
मालती	16136
इंद्रा	16137
147	16138
चंदेल	16139
137	16140
जल्‍	16141
##िश्च	16142
बेहोशी	16143
बलबीर	16144
##फ़्	16145
एयरटेल	16146
लाभुकों	16147
उठाव	16148
सप्ला	16149
ज्ञात	16150
गायिका	16151
त्रिवे	16152
##ini	16153
मुकुल	16154
वीवो	16155
##नेशिया	16156
सभाओं	16157
सिक्का	16158
संकुल	16159
मूसे	16160
##ट्रैक्ट	16161
सोनम	16162
नाराज़	16163
उतारे	16164
कनक	16165
वर्ल्डवाइड	16166
अमरवाड़ा	16167
तुमने	16168
निभाते	16169
फेंके	16170
रेफरल	16171
अकाउंटेंट	16172
वायदा	16173
##old	16174
हितग्राहियों	16175
जूली	16176
##ट्‌टे	16177
मुक्तसर	16178
राजदूत	16179
कॉन्फ्रेंसिंग	16180
जहाजों	16181
##hot	16182
निर्माताओं	16183
अमीन	16184
कागजों	16185
विज्ञप्ति	16186
शारदीय	16187
बाजपेयी	16188
ओटीपी	16189
अंजली	16190
हिल्स	16191
पतंजलि	16192
दोगुनी	16193
कार्यपालन	16194
डिस्कॉम	16195
वांछित	16196
पुस्तकाल	16197
क्रेज	16198
प्रारम्भ	16199
रचनात्मकता	16200
आश्रित	16201
##alme	16202
प्रोटेक्शन	16203
bsf	16204
सईद	16205
caa	16206
सिंदूर	16207
लाड़ली	16208
www	16209
क्रिमिनल	16210
वेंटिले	16211
क्षत्रिय	16212
ट्रिब्यून	16213
थर्मल	16214
साबरमती	16215
साक्षरता	16216
ऋषिकेश	16217
हरभजन	16218
इस्कॉन	16219
हफ्तों	16220
सामंजस्य	16221
पैपराजी	16222
5वें	16223
kg	16224
mu	16225
ईको	16226
उंगली	16227
खर्चा	16228
जुर	16229
जूस	16230
टमाटर	16231
ठोक	16232
ठोकर	16233
डिक	16234
डिन	16235
थॉमस	16236
दयानंद	16237
धंस	16238
पग	16239
पड	16240
प्या	16241
पारे	16242
फां	16243
बोग	16244
बहर	16245
मादा	16246
रसाय	16247
वड़	16248
विलेन	16249
##35	16250
##31	16251
##चाप	16252
##रर	16253
##ंर	16254
##नार	16255
##ेग	16256
##तई	16257
##ूजा	16258
##वित	16259
##यंत्र	16260
##hul	16261
परच	16262
##क्म	16263
##क्टेड	16264
विदा	16265
विचाराधीन	16266
साक्ष	16267
निर्ज	16268
अपर्णा	16269
मुस्क	16270
##टीमेट	16271
##ासाह	16272
कुंज	16273
मौर्या	16274
मेट	16275
बैंस	16276
इनो	16277
तरन	16278
##ेटिक	16279
उपराज्य	16280
आयरन	16281
सूत्री	16282
109	16283
चौबी	16284
निक्की	16285
गोविल	16286
दिवाकर	16287
मानद	16288
डीएस	16289
श्रीनिवास	16290
क्रिट	16291
पढ़कर	16292
पिताजी	16293
नियमा	16294
##प्रण	16295
एमआर	16296
विदर्भ	16297
वीडियोग्राफी	16298
संगी	16299
सुरक्षाकर्मी	16300
सुरक्षाकर्मियों	16301
कलाम	16302
शनिदेव	16303
134	16304
1800	16305
##ोदरा	16306
वारंटी	16307
ज़िक्र	16308
3500	16309
डायरी	16310
##ांगना	16311
उत्सुक	16312
ड्राइवरों	16313
एक्सप्रेसवे	16314
झाझा	16315
बर्फी	16316
शिविरों	16317
##lect	16318
उद्योगपतियों	16319
टॉर्क	16320
स्पीच	16321
पावरप्ले	16322
जलाशय	16323
##्रहमान	16324
बागेश्वर	16325
अनुपात	16326
##hand	16327
कुशीनगर	16328
यशपाल	16329
वेतनमान	16330
realme	16331
टोपी	16332
खींव	16333
##ung	16334
##unav	16335
स्‍क	16336
हाइवा	16337
मूवीज	16338
झुग्गी	16339
मसले	16340
नंदलाल	16341
तूफ	16342
आंगनवाड़ी	16343
1962	16344
बंशी	16345
पटाखों	16346
##ॉयड	16347
एकजुटता	16348
chunav	16349
फील्डिंग	16350
निषेध	16351
एनटीपीसी	16352
अधीनस्थ	16353
ईमानदार	16354
लड़ेगी	16355
चिंतन	16356
पठानकोट	16357
गहनता	16358
वाट्स	16359
गुरूवार	16360
नवनिर्मित	16361
ग्रेजुएट	16362
जुनून	16363
रेगुलर	16364
गिरफ़्त	16365
##बोधन	16366
इंटीरियर	16367
ट्यूबवेल	16368
कठिनाई	16369
बगीचे	16370
मण्डल	16371
इंडोनेशिया	16372
ग्यारह	16373
उकसा	16374
फहराया	16375
दीर्घकालिक	16376
csk	16377
रालोद	16378
गुंडागर्दी	16379
क्रूरता	16380
इश्क	16381
उदासीन	16382
क्रांतिकारी	16383
एक्सपीरियंस	16384
एयरबैग	16385
डेंटल	16386
एडवांस्ड	16387
वज्र	16388
कम्युनिकेशन	16389
राजस्‍थान	16390
लावारिस	16391
बल्‍ले	16392
चॉकलेट	16393
वर्चस्व	16394
त्रिवेणी	16395
पुस्तकालय	16396
उपराज्यपाल	16397
खींवसर	16398
.)	16399
cji	16400
har	16401
le	16402
nia	16403
ott	16404
अंड	16405
अहीर	16406
आली	16407
इम्	16408
गें	16409
गम्	16410
छिट	16411
टाट	16412
टिप्स	16413
डीड	16414
थक	16415
थिर	16416
दय	16417
धंधा	16418
पते	16419
पित्र	16420
पेंच	16421
रशीद	16422
रडार	16423
लिप्त	16424
वय	16425
हर्	16426
##37	16427
##एंड	16428
##्दा	16429
##राल	16430
##राना	16431
##िडे	16432
##गेशन	16433
##गवां	16434
##ोता	16435
##बम	16436
##बिल	16437
##pur	16438
##व्वर	16439
##फ्लो	16440
##ah	16441
##ew	16442
##दरा	16443
##jd	16444
##//	16445
##ारोपण	16446
केजी	16447
किंतु	16448
काका	16449
काजी	16450
परत	16451
विट	16452
विड	16453
##राजन	16454
मुगल	16455
##मास्टर	16456
सुम	16457
सीलिंग	16458
सीक्रेट	16459
##रेड	16460
##ानाथ	16461
##पुरुष	16462
##हरि	16463
##हराने	16464
सरिया	16465
##स्थापन	16466
पहुँ	16467
##ुप्र	16468
##्वॉय	16469
कहला	16470
बनें	16471
सबम	16472
लगन	16473
कॉम्ब	16474
गिरते	16475
माही	16476
एसई	16477
रामनाथ	16478
गुजरी	16479
खुर्	16480
रेगु	16481
मारवाड़ी	16482
##्लाद	16483
##निंदा	16484
स्वत	16485
मीठा	16486
बंदोब	16487
पंथ	16488
##ट्ठी	16489
स्पेन	16490
तबाह	16491
पुरूष	16492
जलज	16493
जेएल	16494
अरूण	16495
अरविन्द	16496
रनोट	16497
##स्कूल	16498
हेरा	16499
संपदा	16500
भेजते	16501
चर्चाएं	16502
मनाए	16503
ताऊ	16504
संयंत्र	16505
असंभव	16506
##साइज	16507
ज़ोर	16508
लोडिंग	16509
##ियारों	16510
ज्ञानी	16511
जमात	16512
सेंटरों	16513
चैप्टर	16514
भुज	16515
##दमों	16516
उच्चतर	16517
मंजीत	16518
उम्रकै	16519
ठेले	16520
कांटा	16521
श्रेया	16522
बर्ताव	16523
##adashi	16524
उड़ानों	16525
रिसॉर्ट	16526
##urn	16527
##गुड़ी	16528
गुजरना	16529
लूटे	16530
जसपाल	16531
अल्टीमेट	16532
परंपराओं	16533
रोगों	16534
गर्मियों	16535
चमकी	16536
सेटअप	16537
झुंड	16538
संभालेंगे	16539
इशारों	16540
##ims	16541
नंदिनी	16542
तीर्थया	16543
खींचकर	16544
अविवाहित	16545
टेलीविजन	16546
बैकग्राउंड	16547
##दर्शक	16548
विश्लेषकों	16549
बीतने	16550
अनुशंसा	16551
उड़ाया	16552
दर्शाती	16553
दिखीं	16554
तड़प	16555
नुक्कड़	16556
वसूलने	16557
एथलीट	16558
कास्टिंग	16559
इकोनॉमिक	16560
एनएसयूआई	16561
फूंक	16562
टेंपो	16563
शमशेर	16564
एंटरटेनमेंट	16565
##ogle	16566
पिंडदान	16567
खेमे	16568
रैलियों	16569
असंतोष	16570
क्‍यों	16571
ज़िम्मेदारी	16572
फिलिस्तीन	16573
ह्यूमन	16574
अनाउंसमेंट	16575
ब्राउन	16576
स्टालिन	16577
सुथार	16578
कौशांबी	16579
तोहफा	16580
उड़ीसा	16581
पुरातत्व	16582
निष्कासित	16583
महमूद	16584
इज्जत	16585
बाहुबली	16586
सनराइजर्स	16587
कार्यान्वयन	16588
puja	16589
डांडिया	16590
उम्रकैद	16591
420	16592
://	16593
iit	16594
sbi	16595
ईपी	16596
जेंडर	16597
टिम	16598
टिका	16599
धुल	16600
धुत	16601
नद	16602
नंदा	16603
पछ	16604
पें	16605
बवानी	16606
भट्टी	16607
मट	16608
मण	16609
रफ़	16610
लत	16611
लक्	16612
लाला	16613
लवली	16614
शकील	16615
सेंस	16616
हवेली	16617
##ैस	16618
##गृह	16619
##हद	16620
##ोत	16621
##बाला	16622
##बिटीज	16623
##मिल	16624
##मला	16625
##डियन	16626
##वर्थ	16627
##फेर	16628
##पोरेशन	16629
##खम	16630
##67	16631
##ढी	16632
##fi	16633
##xy	16634
सेटिंग	16635
कालिया	16636
##ताई	16637
प्रबल	16638
होन	16639
स्काई	16640
जाधव	16641
हुनर	16642
पहनी	16643
निवाड़ी	16644
##ार्दन	16645
##पीए	16646
राजवीर	16647
राजगीर	16648
अन्व	16649
चुनिंदा	16650
##ाहट	16651
बीएमसी	16652
##ोज़	16653
मोमेंट	16654
पहुंचता	16655
##िंग्स	16656
मेद	16657
##पाटी	16658
जीरा	16659
गांजे	16660
बिच	16661
वर्ल्‍ड	16662
घरौ	16663
दुग्ध	16664
ट्राई	16665
##्यूम	16666
इंस	16667
अभूत	16668
जैत	16669
अव्वल	16670
रामगोपाल	16671
अगल	16672
दिलाना	16673
दिलवाने	16674
बदतर	16675
बैठते	16676
जिलेभर	16677
मानो	16678
प्रशस्त	16679
122	16680
पहुंचेगा	16681
118	16682
##त्वना	16683
पंखा	16684
प्रत्यार	16685
करेंसी	16686
##ट्ठ	16687
##ट्टन	16688
##ुकूल	16689
उम्मीदवारी	16690
सुरक्षाबलों	16691
फरमान	16692
फीमेल	16693
तेज़	16694
##anj	16695
मंडरा	16696
विशेषकर	16697
डेथ	16698
सौते	16699
132	16700
रिकवर	16701
पारि	16702
पारदी	16703
ट्रैकिंग	16704
##टलैंड	16705
राष्ट्रवादी	16706
रिवाज	16707
सांत्वना	16708
रैप	16709
ज़िंदगी	16710
सतत	16711
मशाल	16712
चैम्प	16713
मुलायम	16714
वारदातें	16715
प्रतियोगिताएं	16716
शीश	16717
ठेस	16718
बांधवगढ़	16719
झाबुआ	16720
वीरांगना	16721
उद्देश्यों	16722
प्रीतम	16723
राजावत	16724
टॉवर	16725
दामन	16726
स्मिथ	16727
मोहल्लों	16728
सरपंचों	16729
एचपी	16730
जूही	16731
संजीवनी	16732
अंडरग्राउंड	16733
सुंदरकांड	16734
निराधार	16735
स्वयंसेवकों	16736
एडमिन	16737
ऑडिशन	16738
##स्थापना	16739
कुर्बानी	16740
पुष्पांजलि	16741
ओपनर	16742
##मेट्रिक	16743
मीनाक्षी	16744
मृत्युंजय	16745
##सलाधार	16746
rahul	16747
मयूर	16748
प्रसारित	16749
कागजी	16750
डायलिसिस	16751
कैपिटल्स	16752
टेलीकॉम	16753
पचमढ़ी	16754
##दर्शियों	16755
गोंड	16756
संग्रहण	16757
google	16758
रचने	16759
एकेडमिक	16760
नवनियुक्त	16761
ढांचा	16762
अनियमितताओं	16763
प्रत्यक्षदर्शियों	16764
एनएसई	16765
court	16766
##ढे़	16767
सोहेल	16768
काबिल	16769
अतीक	16770
##hpur	16771
##कायदा	16772
दारोगा	16773
##ण्डी	16774
फेरबदल	16775
सीमांकन	16776
##endra	16777
##____	16778
ऑटोमैटिक	16779
ऑर्गे	16780
उछलकर	16781
शाक्य	16782
कश्मीरी	16783
डोंगर	16784
सिकरवार	16785
केमिस्ट्री	16786
कांवड़ियों	16787
अयोग्य	16788
मुख्‍यमंत्री	16789
ekadashi	16790
क्षमताओं	16791
मुंगेली	16792
मनमोहक	16793
अशरफ	16794
प्रदूषित	16795
मद्रास	16796
जल्‍द	16797
गम्भीर	16798
पित्रोदा	16799
अभूतपूर्व	16800
cup	16801
di	16802
dcp	16803
gst	16804
ii	16805
sw	16806
आबू	16807
ईओ	16808
ओवल	16809
गिनी	16810
गजेन्द्र	16811
झी	16812
टर्	16813
तस	16814
थरूर	16815
पर्थ	16816
मूड	16817
मर्द	16818
यंत्री	16819
रूल	16820
लेंगी	16821
वक्ताओं	16822
##चन्द्र	16823
##एड	16824
##ंजे	16825
##ेह	16826
##हिर	16827
##त्य	16828
##बुल	16829
##बेल	16830
##डिस	16831
##कड़ी	16832
##ुका	16833
##प्न	16834
##ऊंगी	16835
##17	16836
##bh	16837
##sg	16838
##खड़ा	16839
##खाली	16840
##खोरी	16841
##vp	16842
केला	16843
##र्की	16844
नेवि	16845
काठ	16846
होडल	16847
बास्केट	16848
##करणीय	16849
##लाधिकारी	16850
##ंगस	16851
रावल	16852
##ुल्स	16853
यहू	16854
कुंदर	16855
दोहरे	16856
##रोड़	16857
##स्टन	16858
दीप्ति	16859
मौकों	16860
बीसलपुर	16861
सरस	16862
मोई	16863
बेम	16864
बेरी	16865
मैसूर	16866
सालभर	16867
कमियों	16868
पिपरा	16869
आयशा	16870
क्षेत्रफल	16871
रूबी	16872
जनजीवन	16873
जनकल्याण	16874
जनार्दन	16875
चलन	16876
लगाम	16877
वेणु	16878
##सरसाइज	16879
गिरधारी	16880
चौम	16881
सहूल	16882
बुढ़	16883
गोड्डा	16884
अवमान	16885
##ंट्स	16886
महासागर	16887
पदम	16888
शिवहर	16889
स्वराज	16890
एनआईटी	16891
एमआईसी	16892
##...	16893
बांके	16894
145	16895
चंद्रम	16896
समझें	16897
1600	16898
देवस्थान	16899
खरीफ	16900
##चेरी	16901
पेशाब	16902
##्यानंद	16903
कराटे	16904
पीएमएल	16905
अंदरूनी	16906
##्‍स	16907
##्‍त	16908
##माशंकर	16909
शावक	16910
संयोजन	16911
पलटी	16912
मुकाबलों	16913
उदयभान	16914
प्रस्तावों	16915
फ्रिज	16916
मूसलाधार	16917
संस्थाएं	16918
सुखद	16919
उतने	16920
बर्बर	16921
नकुल	16922
1993	16923
खुशियों	16924
चेकअप	16925
शैलेन्द्र	16926
टॉम	16927
पहाड़िया	16928
प्रभाकर	16929
बीमारियां	16930
जसविंदर	16931
गोरखनाथ	16932
नवीनतम	16933
धारक	16934
सब्जेक्ट	16935
आर्ट्स	16936
अग्निक	16937
आराध्य	16938
बड़ौदा	16939
##लाइड	16940
##वायड	16941
ग़लत	16942
प्रजाति	16943
उलझा	16944
घाव	16945
बांसुरी	16946
बहादुरगढ़	16947
कुरू	16948
कंपाउंड	16949
लकड़ा	16950
सर्चिंग	16951
चूरा	16952
रघुवीर	16953
रॉयल्स	16954
elections	16955
भयंकर	16956
हिरदाराम	16957
##नीशियन	16958
##ॉफिट	16959
सजग	16960
##जीबिशन	16961
1947	16962
बायोमेट्रिक	16963
पाठ्यक्रमों	16964
मॉड्यूल	16965
दवाइयों	16966
मुस्तफा	16967
सूबेदार	16968
अनिश्चितकालीन	16969
पीठाधीश्वर	16970
पखवाड़े	16971
क्रमशः	16972
फार्मा	16973
वानखे	16974
##chang	16975
निगाहें	16976
navratri	16977
यूरिया	16978
टिप्पणियों	16979
##्राज्य	16980
कूटनीतिक	16981
टेक्नीशियन	16982
बस्तियों	16983
संप्रभु	16984
कुटु	16985
अनुमोदन	16986
भर्तियों	16987
यूसुफ	16988
हिज्बुल्लाह	16989
mandir	16990
अनिरुद्ध	16991
पृष्ठभूमि	16992
वियतनाम	16993
कमज़ोर	16994
जासूसी	16995
साक्ष्यों	16996
तूफानी	16997
गिरफ़्तारी	16998
अल्टीमेटम	16999
अन्वेष	17000
.,	17001
cn	17002
gand	17003
jjp	17004
kumar	17005
nta	17006
shi	17007
viv	17008
आंत	17009
उध	17010
उबर	17011
एप्र	17012
कटर	17013
गरिया	17014
जिप	17015
ज्यू	17016
तिज	17017
दिश	17018
दमन	17019
नित्य	17020
पसी	17021
फिक्स	17022
बर्म	17023
लक्की	17024
व्ला	17025
।‎	17026
##33	17027
##एक्स	17028
##्टर	17029
##िफ़	17030
##सोस	17031
##गजों	17032
##गुप्त	17033
##धर्म	17034
##ुला	17035
##ns	17036
##पित	17037
##oo	17038
##fc	17039
##यानी	17040
नेगेटिव	17041
करों	17042
परिश	17043
##नाग	17044
##नाइट	17045
##क्वल	17046
प्रप	17047
प्रॉफिट	17048
##वाडा	17049
##लावत	17050
##ंगला	17051
विर	17052
स्पा	17053
उन्म	17054
सावंत	17055
##सेफ	17056
##ोगन	17057
निविदा	17058
अपनों	17059
##कीज	17060
##त्न	17061
दोनो	17062
तोप	17063
##्रेटेड	17064
मौसी	17065
मिलर	17066
मिल्की	17067
##वीकरण	17068
##दीक	17069
जिसपर	17070
जोस	17071
बेख	17072
लगाये	17073
कार्यप्रण	17074
बिजी	17075
वर्किंग	17076
कैन	17077
उपे	17078
हरित	17079
##एमआर	17080
अंबा	17081
सूजन	17082
##्लिकेशन	17083
बढ़ना	17084
माझी	17085
##शीर्ष	17086
निकिता	17087
बुच	17088
स्कार्प	17089
जैकेट	17090
रामपाल	17091
स्थितियों	17092
बोन	17093
विधा	17094
करोड़पति	17095
क्रिश्च	17096
##वादन	17097
पत्ते	17098
बरसे	17099
गुरुदेव	17100
स्वर्ग	17101
मीसा	17102
उठानी	17103
टेकर	17104
फर्रु	17105
भरती	17106
कानों	17107
डेन	17108
अहंकार	17109
##कुंठ	17110
##िंद्र	17111
साइंट	17112
##दिमीर	17113
रैकेट	17114
वास्तु	17115
लोहर	17116
यूपीए	17117
नवजोत	17118
परेशानियां	17119
फोटोग्राफी	17120
डायबिटीज	17121
ओवरों	17122
किसका	17123
ख़ु	17124
उपयोगी	17125
संस्थागत	17126
##ंटीन	17127
जोड़ना	17128
एक्सरसाइज	17129
एग्जीक्यूटिव	17130
सौंपकर	17131
##िट्टी	17132
##iss	17133
##गुनिया	17134
फैक्टरी	17135
वॉच	17136
डीसीएम	17137
सोचने	17138
विमानन	17139
नियुक्तियों	17140
कमजोरी	17141
परमेश्वर	17142
मस्जिदों	17143
अल्ट्र	17144
दौड़ते	17145
प्रदर्शनों	17146
आराध्या	17147
आलमगीर	17148
गजब	17149
अफ्रीकी	17150
##ime	17151
बोरिंग	17152
जीवों	17153
गढ़वा	17154
द्वारिका	17155
कल्लू	17156
रियलमी	17157
सक्सेस	17158
ऑपरेट	17159
mahar	17160
बजाते	17161
एजेंटों	17162
स्विच	17163
स्विमिंग	17164
रियासत	17165
1952	17166
कोयले	17167
जोगी	17168
स्लिप	17169
स्क्वायड	17170
चिपसेट	17171
कम्प्यूटर	17172
##ष्‍ट्र	17173
सुदृ	17174
राउत	17175
मुनव्वर	17176
मेजबान	17177
मन्नत	17178
ननद	17179
एमजीएम	17180
तिहाई	17181
गर्भपात	17182
सज्जा	17183
##म्‍मी	17184
एनालिसिस	17185
आश्रय	17186
अटेंडेंस	17187
गोपनीयता	17188
कारीगरों	17189
नाश्ता	17190
सिलावट	17191
वर्गीकरण	17192
फ़ायदा	17193
शशिकांत	17194
politics	17195
निंदनीय	17196
बौछार	17197
##मीडिएट	17198
निर्जला	17199
##ासाहेब	17200
चैम्पियन	17201
कुंदरकी	17202
चौमूं	17203
सहूलियत	17204
कुरूक्षेत्र	17205
gandhi	17206
कार्यप्रणाली	17207
ec	17208
gor	17209
gala	17210
अतर	17211
आइक	17212
ऊंट	17213
एस्ट्र	17214
कनाड	17215
गर्मा	17216
गैलरी	17217
चस्पा	17218
छंट	17219
टाई	17220
दंगा	17221
पोट	17222
पधार	17223
पब्ल	17224
ब्य	17225
बित	17226
ब्यो	17227
बयां	17228
भांति	17229
भांग	17230
मक्ख	17231
रंधा	17232
रईस	17233
व्ह	17234
वात	17235
वृह	17236
##ेफ	17237
##ेरा	17238
##हड़	17239
##ोहा	17240
##मंडी	17241
##po	17242
##़ों	17243
##ुग	17244
##पेश	17245
##पिका	17246
##tc	17247
सेवकों	17248
किफ	17249
कांट	17250
प्रलो	17251
##ांगे	17252
होड़	17253
##वासा	17254
स्तो	17255
रहित	17256
निबंध	17257
निश्च	17258
निवर्	17259
कार्ट	17260
##भाषण	17261
##िरपेक्ष	17262
अन्	17263
##ल्वर	17264
##जीरा	17265
मोना	17266
पहुँच	17267
##ापू	17268
लगाव	17269
मैया	17270
मैनु	17271
पीवी	17272
बैट	17273
टीसी	17274
जानकर	17275
##खाबाद	17276
कैंटर	17277
दूं	17278
पाबंद	17279
आयी	17280
हरक	17281
हरजिंदर	17282
बढ़िया	17283
10वें	17284
स्टंप	17285
नामांतरण	17286
ट्रफ	17287
अवहेल	17288
आईएन	17289
अलका	17290
डिस्टर	17291
तैरा	17292
रेजी	17293
रेस्तर	17294
फैजान	17295
प्रशंस	17296
##लोई	17297
महाअ	17298
यूडीए	17299
आयाम	17300
151	17301
152	17302
जयसिंह	17303
स्वप्न	17304
मीर	17305
256	17306
स्प्रे	17307
जलाल	17308
रेलिंग	17309
तेज़ी	17310
विशेषता	17311
बालकृष्ण	17312
नजरें	17313
1400	17314
##नियाद	17315
जेलों	17316
देवली	17317
नारद	17318
बनाएगा	17319
खेड़ी	17320
लॉस	17321
ट्रैप	17322
चीता	17323
सवारों	17324
पीएमसीएच	17325
धर्मों	17326
दौड़े	17327
निकलती	17328
असं	17329
##मेसी	17330
सतनाम	17331
आशु	17332
##िरीक्षक	17333
गौरेला	17334
ओवरलोड	17335
ख़री	17336
बहनोई	17337
महारानी	17338
कॉन्ट्रैक्ट	17339
फेड	17340
चढ़ाई	17341
चढ़ाया	17342
आत्मसम	17343
पैराल	17344
मलयाल	17345
दशहरे	17346
श्रेणियों	17347
बंधे	17348
ज्योतिर्लिंग	17349
क्वाड	17350
स्मरण	17351
ग्रेनेड	17352
तिरंगे	17353
तालाबों	17354
एचएस	17355
सुलझा	17356
खीरी	17357
तुला	17358
दिग्गजों	17359
ताल्ल	17360
##पूतली	17361
अंदेशा	17362
बाघों	17363
पिकनिक	17364
ढाबे	17365
विद्याधर	17366
चिन्मय	17367
मेनका	17368
##क्‍त	17369
नैना	17370
जगदीशपुर	17371
मसाले	17372
##akhpur	17373
गड़बड़	17374
गुणवत्तापूर्ण	17375
दफ्तरों	17376
उड़ानें	17377
समझाते	17378
अध्याय	17379
अनीस	17380
क्वालिफाई	17381
एनटीआर	17382
सब्सक्र	17383
प्रोडक्ट्स	17384
चिरंजी	17385
मल्हार	17386
भिजवा	17387
वृक्षारोपण	17388
##ख़्त	17389
चैलेंजर्स	17390
ओलावृष्टि	17391
बौद्धिक	17392
सोहना	17393
सुचारु	17394
अधूरे	17395
नौजवानों	17396
एनजीटी	17397
दफन	17398
एचडीएफसी	17399
कुचला	17400
सरहद	17401
panchang	17402
ब्यावर	17403
shah	17404
आख़िरी	17405
थ्रिलर	17406
अस्थिरता	17407
मिटाने	17408
उपनिरी	17409
दंडाधिकारी	17410
प्रसूता	17411
म्यूचुअल	17412
इंटर्नशिप	17413
सीसामऊ	17414
महराजगंज	17415
अभिरक्षा	17416
वेंटिलेटर	17417
नियमावली	17418
जलजमाव	17419
वानखेड़े	17420
गरियाबंद	17421
व्लादिमीर	17422
परिश्रम	17423
gorakhpur	17424
रंधावा	17425
स्तोत्र	17426
निवर्तमान	17427
अवहेलना	17428
डिस्टरबेंस	17429
रेस्तरां	17430
मलयालम	17431
.'	17432
asp	17433
acb	17434
bi	17435
dgp	17436
elect	17437
gold	17438
hy	17439
kal	17440
vir	17441
who	17442
अनाथ	17443
आनी	17444
आड़े	17445
इज़	17446
एग्र	17447
ओएस	17448
कफ	17449
खसरा	17450
गोगु	17451
घटे	17452
चश्	17453
छाई	17454
डस्ट	17455
डिव	17456
थाम	17457
दबे	17458
दांगी	17459
नगा	17460
पंज	17461
प्यास	17462
पिलाई	17463
पक्के	17464
बढ	17465
बबली	17466
ब्वॉय	17467
भोल	17468
मड़	17469
मटेरियल	17470
लल्लू	17471
व्‍य	17472
शतर	17473
##34	17474
##जला	17475
##ैक्स	17476
##ेस्ट	17477
##बस	17478
##बन्	17479
##धिप	17480
##डान	17481
##वृ	17482
##यै	17483
##योजना	17484
##tr	17485
##दाद	17486
##खनन	17487
##उद्दीन	17488
##ka	17489
##ानुकूल	17490
कोटक	17491
कांप	17492
काजू	17493
करारी	17494
करारा	17495
करुणा	17496
##ालियों	17497
परवर	17498
##लेरा	17499
स्वार्थ	17500
जाइए	17501
हुये	17502
संख	17503
संप्रदाय	17504
समद	17505
##ायै	17506
सुजु	17507
सुन्दर	17508
##ढ़ाई	17509
सीक्वल	17510
##ाइंड	17511
##दीवारी	17512
##ोजी	17513
##बरू	17514
मोस्ट	17515
मोटिव	17516
बेग	17517
बेद	17518
##ापा	17519
लगाती	17520
मेलब	17521
बिठा	17522
कैसर	17523
कैंटीन	17524
युगल	17525
जननायक	17526
वेज	17527
स्टॉ	17528
चौपाटी	17529
अव्य	17530
पैराम	17531
रामक	17532
रामपुरा	17533
रामानु	17534
गुन	17535
बदहाल	17536
उत्खनन	17537
पूर्ववर्ती	17538
शुमार	17539
डीवी	17540
आरसीबी	17541
यूएन	17542
क्रय	17543
##देवा	17544
जयकारे	17545
पढ़ती	17546
##त्विक	17547
दरें	17548
एम्	17549
##ट्टो	17550
वैधानिक	17551
पूछते	17552
कृप	17553
भरते	17554
एक्सटेंशन	17555
[...]
