<unk>	0
<s>	0
</s>	0
▁क	-0
▁स	-1
▁म	-2
▁प	-3
▁ह	-4
ार	-5
ें	-6
▁ब	-7
▁न	-8
▁के	-9
्र	-10
या	-11
▁ज	-12
▁र	-13
▁द	-14
▁में	-15
▁है	-16
▁ल	-17
▁व	-18
▁अ	-19
▁की	-20
ान	-21
ों	-22
▁ग	-23
▁को	-24
र्	-25
▁से	-26
ने	-27
▁आ	-28
▁कि	-29
ता	-30
▁ने	-31
▁का	-32
▁भ	-33
▁इ	-34
▁कर	-35
▁उ	-36
▁त	-37
▁पर	-38
ाल	-39
▁श	-40
िक	-41
्य	-42
ना	-43
िल	-44
▁च	-45
▁औ	-46
▁और	-47
स्	-48
▁थ	-49
▁ए	-50
▁प्र	-51
क्	-52
ड़	-53
ां	-54
▁इस	-55
ाम	-56
ही	-57
▁हो	-58
िया	-59
ित	-60
▁य	-61
वा	-62
▁बा	-63
हा	-64
ला	-65
▁हैं	-66
के	-67
▁फ	-68
कर	-69
िय	-70
िए	-71
▁ख	-72
िस	-73
ुर	-74
ंग	-75
▁भी	-76
ले	-77
▁वि	-78
▁स्	-79
▁,	-80
ते	-81
▁रा	-82
त्र	-83
ेश	-84
▁जा	-85
▁ट	-86
िन	-87
ारी	-88
▁ड	-89
री	-90
हीं	-91
▁उन	-92
▁सा	-93
ती	-94
▁हु	-95
▁1	-96
रा	-97
ुल	-98
्या	-99
▁किया	-100
▁2	-101
ति	-102
▁लिए	-103
▁ले	-104
वार	-105
नी	-106
▁सं	-107
▁एक	-108
से	-109
सी	-110
गा	-111
▁गया	-112
▁पह	-113
ंद	-114
▁सम	-115
▁घ	-116
क्ष	-117
▁दे	-118
▁नहीं	-119
ोग	-120
▁था	-121
▁रह	-122
ाय	-123
▁कार	-124
▁नि	-125
▁अप	-126
▁मु	-127
िला	-128
▁सि	-129
▁ही	-130
ली	-131
▁बाद	-132
का	-133
्ट	-134
की	-135
ियों	-136
ाने	-137
त्	-138
ास	-139
ंड	-140
्ह	-141
▁पुल	-142
भा	-143
▁साथ	-144
पी	-145
िर	-146
▁यह	-147
▁पुलिस	-148
▁गई	-149
▁पू	-150
मा	-151
▁कु	-152
▁बता	-153
▁कहा	-154
्म	-155
▁सु	-156
▁करने	-157
गी	-158
ढ़	-159
ेट	-160
▁उन्ह	-161
▁सी	-162
▁राज	-163
▁अध	-164
▁दो	-165
▁तो	-166
▁रहे	-167
ंच	-168
दी	-169
▁थी	-170
▁वाल	-171
▁दिया	-172
▁उस	-173
रो	-174
्री	-175
▁लोग	-176
▁छ	-177
टर	-178
ाना	-179
ौर	-180
▁मह	-181
▁अन	-182
रे	-183
ाइ	-184
▁ध	-185
▁तक	-186
▁रहा	-187
▁दी	-188
▁बताया	-189
स्ट	-190
्रे	-191
दा	-192
▁चु	-193
देश	-194
कार	-195
में	-196
्ष	-197
भी	-198
▁मौ	-199
▁हुए	-200
▁मिल	-201
ाज	-202
▁या	-203
पुर	-204
गे	-205
गर	-206
िश	-207
▁20	-208
ाह	-209
ाई	-210
वी	-211
्त	-212
▁सिं	-213
▁रही	-214
▁थे	-215
▁बी	-216
ंत्र	-217
▁बार	-218
ल्	-219
ोज	-220
कि	-221
▁जिस	-222
ानी	-223
▁सिंह	-224
सा	-225
िव	-226
टी	-227
मार	-228
ओं	-229
ोंने	-230
▁3	-231
जा	-232
नों	-233
हर	-234
ेल	-235
बर	-236
ार्	-237
▁सर	-238
शन	-239
जी	-240
वि	-241
▁(	-242
▁गए	-243
▁उन्होंने	-244
▁वह	-245
ड़ी	-246
र्ट	-247
▁जो	-248
मी	-249
▁मो	-250
स्थ	-251
▁जाए	-252
▁ला	-253
▁पहु	-254
▁आरो	-255
पा	-256
▁पहुंच	-257
स्त	-258
िंग	-259
▁लेकर	-260
▁दिन	-261
▁लगा	-262
जे	-263
▁पहले	-264
ुप	-265
▁स्थ	-266
ड़ा	-267
द्र	-268
▁इसके	-269
द्	-270
च्	-271
▁अधिक	-272
▁लोगों	-273
▁माम	-274
▁भार	-275
▁मे	-276
▁कार्य	-277
▁-	-278
▁मै	-279
▁पी	-280
▁अपने	-281
▁हुई	-282
क्र	-283
किन	-284
▁टी	-285
्व	-286
▁लेकिन	-287
▁5	-288
▁बै	-289
▁सो	-290
ंत्री	-291
▁जब	-292
▁परि	-293
▁जी	-294
▁दौर	-295
▁साल	-296
▁4	-297
▁हम	-298
▁इन	-299
र्म	-300
▁गां	-301
▁जान	-302
ोट	-303
▁होने	-304
ोक	-305
▁वाले	-306
र्व	-307
▁ओ	-308
▁सक	-309
▁क्ष	-310
▁दौरान	-311
ांच	-312
▁वर्	-313
▁अब	-314
ंध	-315
खा	-316
ंप	-317
▁बि	-318
ंट	-319
तर	-320
नाव	-321
▁हुआ	-322
▁पा	-323
र्ज	-324
▁ऐ	-325
▁कम	-326
▁कै	-327
▁बना	-328
▁साम	-329
्स	-330
▁पार	-331
▁स्ट	-332
▁घर	-333
ष्ट	-334
▁तर	-335
▁निर्	-336
▁बात	-337
ीन	-338
▁पि	-339
▁मां	-340
▁शिक	-341
ूल	-342
▁यु	-343
ेत्र	-344
धान	-345
्रेस	-346
▁सरकार	-347
▁'	-348
मान	-349
▁उप	-350
▁शुर	-351
▁दू	-352
▁शाम	-353
ाप	-354
न्	-355
▁रुप	-356
कारी	-357
▁करते	-358
▁ऑ	-359
ड़े	-360
ेज	-361
▁हर	-362
▁क्षेत्र	-363
▁आय	-364
च्च	-365
टना	-366
▁कुमार	-367
ेंद्र	-368
▁ये	-369
▁रू	-370
▁चुनाव	-371
ोर	-372
िप	-373
बा	-374
▁आप	-375
▁।	-376
▁अं	-377
▁महिला	-378
एम	-379
▁सू	-380
▁जन	-381
▁डॉ	-382
▁लिया	-383
▁काम	-384
▁सभी	-385
डी	-386
वं	-387
▁कह	-388
00	-389
▁कुछ	-390
▁बन	-391
क्षा	-392
क्ट	-393
ून	-394
्ल	-395
वर	-396
क्त	-397
▁रो	-398
▁दु	-399
▁कई	-400
कों	-401
स्प	-402
िट	-403
▁चल	-404
्टी	-405
वाल	-406
▁202	-407
▁बढ़	-408
▁मुख	-409
वाई	-410
▁मा	-411
जार	-412
▁लग	-413
▁पास	-414
▁सब	-415
▁गांव	-416
क्टर	-417
▁ग्र	-418
▁थाना	-419
▁अनु	-420
वे	-421
▁द्	-422
▁6	-423
▁वे	-424
▁कॉ	-425
▁ता	-426
ोल	-427
सभा	-428
वारा	-429
▁गिर	-430
▁प्रति	-431
▁झ	-432
▁भारत	-433
▁बे	-434
▁"	-435
▁ना	-436
▁टीम	-437
िम	-438
सर	-439
▁उनके	-440
▁जु	-441
जन	-442
भाग	-443
ष्	-444
▁भा	-445
▁मामले	-446
▁कोई	-447
बी	-448
ेंगे	-449
▁चौ	-450
▁बह	-451
चार	-452
▁नाम	-453
▁सह	-454
▁व्य	-455
▁कांग	-456
▁ट्र	-457
एस	-458
▁दर्ज	-459
▁विश	-460
▁द्वारा	-461
▁आरोप	-462
▁हा	-463
ोड़	-464
्यक्ष	-465
बंध	-466
▁देख	-467
▁अपनी	-468
▁कांग्रेस	-469
ीड	-470
▁शुरू	-471
▁बच्च	-472
▁हि	-473
▁समय	-474
िका	-475
▁हाल	-476
शी	-477
▁वहीं	-478
▁उन्हें	-479
▁खिला	-480
▁घटना	-481
▁7	-482
्यू	-483
▁राम	-484
▁गो	-485
द्ध	-486
▁यहां	-487
▁दोनों	-488
▁निक	-489
▁जिल	-490
▁बु	-491
▁विक	-492
▁ठ	-493
णा	-494
▁अभ	-495
ोर्ट	-496
▁चाह	-497
▁स्क	-498
▁जिला	-499
▁एस	-500
▁बजे	-501
ृत	-502
▁जै	-503
▁रुपए	-504
यर	-505
ताल	-506
▁आज	-507
ारा	-508
र्स	-509
▁आई	-510
▁फिल	-511
▁अव	-512
▁अम	-513
▁जांच	-514
▁10	-515
ंबर	-516
▁इं	-517
▁रूप	-518
▁विभाग	-519
▁किसी	-520
ूर	-521
▁देश	-522
▁मुख्य	-523
▁पै	-524
▁रख	-525
ेर	-526
▁तरह	-527
▁नगर	-528
▁आरोपी	-529
फ्त	-530
मंत्री	-531
▁बीच	-532
▁उसके	-533
ायत	-534
▁युव	-535
▁8	-536
्यों	-537
▁जानकारी	-538
▁गु	-539
▁अग	-540
▁प्रदेश	-541
ंक	-542
क्स	-543
▁दि	-544
▁दिल	-545
▁लाख	-546
दार	-547
▁:	-548
्न	-549
▁स्थित	-550
▁शामिल	-551
जू	-552
त्या	-553
▁लोक	-554
..	-555
▁एवं	-556
चना	-557
लय	-558
▁बद	-559
▁दूस	-560
▁भाज	-561
▁पु	-562
▁फिर	-563
▁अस्प	-564
चा	-565
▁बैठ	-566
▁होगा	-567
▁अस्पताल	-568
▁नी	-569
▁करी	-570
▁खु	-571
▁भाजपा	-572
▁जाएगा	-573
▁डि	-574
जर	-575
▁छा	-576
▁9	-577
▁किए	-578
ाली	-579
▁उसे	-580
▁पुर	-581
वन	-582
▁तै	-583
▁इला	-584
र्ड	-585
ेंट	-586
▁रे	-587
▁बेट	-588
ेशन	-589
सान	-590
▁जारी	-591
▁खिलाफ	-592
▁कारण	-593
क्रम	-594
ंस	-595
आई	-596
वासी	-597
▁जिले	-598
▁जाने	-599
▁पार्टी	-600
्यादा	-601
्मी	-602
▁सुर	-603
▁उत्	-604
एं	-605
▁पूर्व	-606
दान	-607
▁अन्य	-608
▁ली	-609
▁डी	-610
▁मान	-611
ांस	-612
पर	-613
▁शु	-614
▁रात	-615
▁याद	-616
▁मैं	-617
▁मंद	-618
धार	-619
ियां	-620
▁मार	-621
▁करीब	-622
हत	-623
▁उनकी	-624
्ला	-625
▁उम	-626
▁वो	-627
▁आयोज	-628
ज्	-629
▁वाली	-630
वान	-631
▁बो	-632
▁ई	-633
▁सद	-634
फी	-635
▁नेता	-636
क्ति	-637
टा	-638
▁ज्यादा	-639
▁अल	-640
▁सीट	-641
▁परिवार	-642
धी	-643
▁गिरफ्त	-644
▁अध्यक्ष	-645
▁मंत्री	-646
र्थ	-647
▁फै	-648
बह	-649
▁मौके	-650
▁आए	-651
▁राज्य	-652
▁वर्ष	-653
▁ओर	-654
▁मंदिर	-655
सार	-656
तीय	-657
▁करना	-658
हार	-659
▁कार्र	-660
त्रा	-661
▁जाता	-662
▁फिल्म	-663
▁लि	-664
्यालय	-665
▁कार्रवाई	-666
▁मौत	-667
▁प्रश	-668
▁शा	-669
▁तीन	-670
▁शहर	-671
ुत	-672
▁हजार	-673
ाला	-674
▁सामने	-675
ामी	-676
▁सुबह	-677
▁कार्यक्रम	-678
पाल	-679
िता	-680
▁गुर	-681
▁स्कूल	-682
्ली	-683
गत	-684
▁श्री	-685
लो	-686
ाया	-687
▁मांग	-688
▁विध	-689
▁जह	-690
्रीय	-691
जय	-692
▁सबसे	-693
▁आद	-694
▁देने	-695
को	-696
▁शिक्ष	-697
▁आर	-698
▁पिछ	-699
▁महा	-700
▁12	-701
नि	-702
▁मार्	-703
▁क्या	-704
▁करोड़	-705
▁निवासी	-706
गढ़	-707
▁यादव	-708
▁इसी	-709
्ड	-710
▁पानी	-711
▁पो	-712
ब्	-713
▁सूचना	-714
▁जग	-715
र्मा	-716
कान	-717
▁युवक	-718
ूम	-719
ियो	-720
▁यू	-721
▁जहां	-722
▁लड़	-723
ायल	-724
वास	-725
▁ऐसे	-726
▁बारिश	-727
जूद	-728
ेत	-729
▁क्र	-730
▁मन	-731
भाव	-732
▁दिए	-733
ेड	-734
ध्य	-735
▁कंप	-736
▁शिकायत	-737
▁जर	-738
▁आने	-739
▁पहुंचे	-740
▁होगी	-741
▁जिसमें	-742
ंत	-743
▁इसमें	-744
ोन	-745
▁आया	-746
▁गिरफ्तार	-747
स्था	-748
तार	-749
ंगल	-750
ूं	-751
ूर्	-752
ारियों	-753
▁अधिकारी	-754
▁सड़	-755
दे	-756
▁ती	-757
▁इससे	-758
▁तैय	-759
ंब	-760
▁दा	-761
▁मिली	-762
र्शन	-763
▁2024	-764
ासन	-765
ोष	-766
▁)	-767
▁मत	-768
ैन	-769
▁19	-770
ंदर	-771
▁भारतीय	-772
▁जय	-773
▁दिल्ली	-774
▁पद	-775
श्	-776
▁मोदी	-777
▁अनुसार	-778
▁रहने	-779
ायर	-780
▁कोर्ट	-781
धिक	-782
▁शर्मा	-783
▁15	-784
ोजना	-785
▁राष्ट	-786
धा	-787
▁शिव	-788
ंज	-789
▁आग	-790
▁सकता	-791
▁प्रा	-792
ायक	-793
▁पढ़	-794
▁बर	-795
▁11	-796
ियर	-797
▁चाहिए	-798
प्	-799
▁लोकसभा	-800
▁रिप	-801
▁जिन	-802
च्छ	-803
वाद	-804
▁बाहर	-805
्रा	-806
ेंस	-807
त्व	-808
▁चला	-809
▁वहां	-810
▁शव	-811
▁गुरु	-812
रण	-813
सम	-814
▁स्व	-815
▁संबंध	-816
▁कप	-817
▁पत्	-818
ये	-819
ंगे	-820
▁मी	-821
▁निय	-822
▁पिछले	-823
▁कर्म	-824
▁किसान	-825
ूट	-826
मेंट	-827
▁मामला	-828
▁पूरी	-829
▁मिले	-830
▁उसकी	-831
ेम	-832
वल	-833
ाइन	-834
▁क्यों	-835
प्र	-836
▁चे	-837
इक	-838
र्फ	-839
▁बंद	-840
▁चार	-841
▁परी	-842
▁वा	-843
सल	-844
▁गा	-845
▁मिला	-846
▁विधान	-847
▁पं	-848
ज्ञ	-849
▁दर	-850
▁मोह	-851
▁प्रधान	-852
▁प्रद	-853
▁इंड	-854
▁ट्रे	-855
▁एम	-856
कर्	-857
▁201	-858
▁जीत	-859
▁ऑफ	-860
▁आगे	-861
▁काफी	-862
▁उठ	-863
स्थान	-864
▁केंद्र	-865
▁रिपोर्ट	-866
द्य	-867
▁सहित	-868
▁रवि	-869
▁बड़ी	-870
▁करें	-871
माण	-872
▁स्वा	-873
आर	-874
▁समाज	-875
▁बस	-876
िज	-877
▁जाएगी	-878
ख्या	-879
चान	-880
▁जबकि	-881
▁घायल	-882
▁मृत	-883
▁प्रत	-884
▁टे	-885
▁रोड	-886
▁एन	-887
▁सड़क	-888
▁बहुत	-889
ेष	-890
▁अला	-891
▁मही	-892
▁हालां	-893
▁विकास	-894
ांड	-895
मु	-896
▁हालांकि	-897
▁पड़	-898
▁S	-899
▁संग	-900
▁सदस	-901
▁अभी	-902
योग	-903
ताब	-904
▁वीड	-905
ोह	-906
था	-907
▁हत्या	-908
▁मुख्यमंत्री	-909
▁घंट	-910
▁होता	-911
▁बां	-912
▁छात्र	-913
त्म	-914
▁अपना	-915
▁सफ	-916
▁बैठक	-917
बाद	-918
ोध	-919
▁मौजूद	-920
▁विधानसभा	-921
▁तहत	-922
राब	-923
▁जिसके	-924
▁बच्चों	-925
▁मीड	-926
ुक्त	-927
जह	-928
ाइल	-929
▁व्यव	-930
▁वीडियो	-931
▁योजना	-932
▁पिता	-933
▁कुल	-934
▁निर्देश	-935
▁उसने	-936
▁बारे	-937
▁स्प	-938
▁सुन	-939
ेंद	-940
दन	-941
ुक	-942
▁बाइक	-943
▁सकते	-944
बू	-945
▁उम्मी	-946
▁उम्मीद	-947
क्षण	-948
▁अलावा	-949
▁विधायक	-950
▁उनका	-951
▁बॉ	-952
▁मीडिया	-953
ग्री	-954
गम	-955
▁भग	-956
▁जगह	-957
▁वै	-958
▁वाह	-959
▁मज	-960
ुआ	-961
▁खा	-962
▁पता	-963
ची	-964
ंगा	-965
▁ब्र	-966
▁पूछ	-967
▁अगर	-968
▁अलग	-969
▁0	-970
▁कंपनी	-971
▁कहना	-972
▁भाग	-973
लों	-974
▁परीक्षा	-975
▁वजह	-976
▁प्रभ	-977
▁पोस्ट	-978
▁इसे	-979
▁संख्या	-980
▁पत्नी	-981
▁आरोपियों	-982
▁शादी	-983
▁सोम	-984
लेज	-985
ोरी	-986
▁सुरक्षा	-987
▁मंगल	-988
▁आम	-989
▁जल	-990
▁शे	-991
▁कृ	-992
▁दूसरे	-993
ष्ठ	-994
▁फी	-995
ार्थ	-996
▁कल	-997
▁पंच	-998
▁आस	-999
तम	-1000
▁दिनों	-1001
▁लाल	-1002
▁रेल	-1003
▁फर	-1004
वरी	-1005
▁हाथ	-1006
▁तब	-1007
ेंड	-1008
▁A	-1009
▁दिख	-1010
▁सांस	-1011
▁अधिकारियों	-1012
▁C	-1013
ामीण	-1014
▁प्रशासन	-1015
▁पक	-1016
▁ग्रामीण	-1017
▁तेज	-1018
▁वोट	-1019
खंड	-1020
झे	-1021
▁तरफ	-1022
▁भाई	-1023
▁लगे	-1024
▁मुताब	-1025
▁व्यक्ति	-1026
शल	-1027
▁हरिया	-1028
▁करता	-1029
ताओं	-1030
▁मुताबिक	-1031
▁पूरा	-1032
▁आधार	-1033
▁करेंगे	-1034
▁ढ	-1035
▁पत्र	-1036
स्ता	-1037
▁होती	-1038
जेपी	-1039
▁मंड	-1040
▁भर	-1041
▁सच	-1042
▁बिज	-1043
▁दुकान	-1044
▁जैसे	-1045
▁महीने	-1046
णी	-1047
चाल	-1048
▁योग	-1049
▁हों	-1050
काल	-1051
▁ों	-1052
▁आयोजन	-1053
▁जे	-1054
▁गं	-1055
▁राय	-1056
क्शन	-1057
▁पहुंची	-1058
▁बनाने	-1059
▁घंटे	-1060
▁नार	-1061
चित	-1062
▁थाने	-1063
▁पे	-1064
▁कान	-1065
▁वाला	-1066
▁ऐसा	-1067
▁25	-1068
▁अर	-1069
▁दिव	-1070
▁प्रो	-1071
an	-1072
▁नंबर	-1073
▁न्या	-1074
▁रन	-1075
▁बीजेपी	-1076
▁विशेष	-1077
िकल	-1078
▁हरियाणा	-1079
र्य	-1080
▁सै	-1081
तन	-1082
▁चंद	-1083
▁नजर	-1084
▁साह	-1085
ुट	-1086
राज	-1087
शा	-1088
▁ऊ	-1089
▁एक्स	-1090
▁पीड़	-1091
▁लगातार	-1092
र्चा	-1093
▁सम्म	-1094
▁पूरे	-1095
▁जिससे	-1096
▁निर्माण	-1097
▁डॉक्टर	-1098
▁सोमवार	-1099
▁माल	-1100
▁कॉलेज	-1101
वेश	-1102
▁खेल	-1103
▁सीएम	-1104
िति	-1105
▁इसकी	-1106
द्यालय	-1107
▁बाल	-1108
▁राह	-1109
िफ	-1110
▁हाई	-1111
▁सांसद	-1112
▁श्र	-1113
लिए	-1114
लाई	-1115
▁जून	-1116
▁इंद	-1117
▁शनि	-1118
ीय	-1119
▁सकती	-1120
▁घोष	-1121
▁तैयार	-1122
▁डे	-1123
तिक	-1124
▁विश्व	-1125
र्क	-1126
▁लगाया	-1127
▁पहली	-1128
▁सेवा	-1129
▁गर्	-1130
▁निगम	-1131
▁हाद	-1132
▁मिलने	-1133
भीर	-1134
िटी	-1135
▁सौ	-1136
रीज	-1137
दीप	-1138
▁कले	-1139
▁30	-1140
जनों	-1141
ार्ड	-1142
▁केस	-1143
▁पट	-1144
▁इसका	-1145
▁बिहार	-1146
▁हूं	-1147
स्ते	-1148
र्ती	-1149
▁भगवान	-1150
▁मंगलवार	-1151
▁गंभीर	-1152
▁आदि	-1153
▁जमी	-1154
▁प्रधानमंत्री	-1155
▁ड्र	-1156
▁कराया	-1157
स्क	-1158
▁बुध	-1159
▁प्रदर्शन	-1160
▁P	-1161
▁14	-1162
र्च	-1163
▁डिग्री	-1164
▁नर	-1165
▁सर्व	-1166
▁पांच	-1167
ियन	-1168
▁13	-1169
▁देते	-1170
▁शुक्र	-1171
▁इसलिए	-1172
▁गांधी	-1173
▁पंजा	-1174
▁मैच	-1175
▁अफ	-1176
▁बड़ा	-1177
▁विरो	-1178
पति	-1179
▁वी	-1180
▁व्या	-1181
टे	-1182
▁समझ	-1183
िस्ट	-1184
▁मुझे	-1185
शत	-1186
ियान	-1187
▁प्रया	-1188
बल	-1189
▁मद	-1190
▁बड़े	-1191
▁हिस्	-1192
▁भे	-1193
▁बनाया	-1194
▁खान	-1195
▁व्यवस्था	-1196
▁पति	-1197
▁सवाल	-1198
▁शनिवार	-1199
▁शिक्षा	-1200
▁नई	-1201
▁देव	-1202
▁नए	-1203
▁करे	-1204
▁हमार	-1205
▁इलाज	-1206
▁रविवार	-1207
वीर	-1208
ग्	-1209
▁ा	-1210
स्तान	-1211
▁जवा	-1212
▁वाप	-1213
▁माह	-1214
▁जल्	-1215
▁लगी	-1216
▁बज	-1217
यान	-1218
▁जाती	-1219
▁राजनी	-1220
▁बुधवार	-1221
्ले	-1222
ात	-1223
▁ट्रेन	-1224
▁संचाल	-1225
▁शुक्रवार	-1226
ष्ण	-1227
ल्ड	-1228
▁ताप	-1229
▁एक्ट	-1230
▁जेल	-1231
...	-1232
▁प्रभारी	-1233
▁नौ	-1234
म्	-1235
स्या	-1236
▁रुपये	-1237
▁खे	-1238
ज़	-1239
▁मेड	-1240
▁18	-1241
▁पूजा	-1242
इन	-1243
षण	-1244
▁आयोजित	-1245
▁अच्छ	-1246
ॉल	-1247
निया	-1248
▁परेश	-1249
पास	-1250
▁राजस्थान	-1251
करण	-1252
▁खुद	-1253
▁पक्ष	-1254
▁तापमान	-1255
▁B	-1256
ैल	-1257
▁पहचान	-1258
▁समेत	-1259
काश	-1260
▁बच	-1261
▁अति	-1262
▁आदेश	-1263
▁सदस्य	-1264
▁बिजली	-1265
▁उसका	-1266
मुख	-1267
▁बल	-1268
▁परिजनों	-1269
▁स्थिति	-1270
▁सामान	-1271
▁भर्ती	-1272
▁16	-1273
▁पाल	-1274
▁हिंद	-1275
▁ी	-1276
▁24	-1277
▁वन	-1278
▁दल	-1279
▁स्थान	-1280
ाप्त	-1281
▁मौसम	-1282
▁पंजाब	-1283
▁लेने	-1284
▁गुरुवार	-1285
िश्	-1286
▁खरी	-1287
▁50	-1288
ांत	-1289
▁दें	-1290
▁सित	-1291
बाज	-1292
ैंड	-1293
बंधन	-1294
▁विभ	-1295
▁शुरुआ	-1296
ुम	-1297
▁वार	-1298
▁देर	-1299
▁जमीन	-1300
▁राहुल	-1301
▁इत	-1302
▁फोन	-1303
▁होते	-1304
▁मध्य	-1305
▁बेह	-1306
▁तस्	-1307
▁यात्रा	-1308
▁बच्चे	-1309
▁सरकारी	-1310
▁दोप	-1311
िन्न	-1312
▁होकर	-1313
▁बनाए	-1314
▁करवा	-1315
▁I	-1316
▁जनता	-1317
▁गै	-1318
▁छोड़	-1319
▁जुलाई	-1320
▁कट	-1321
▁संप	-1322
▁बेटे	-1323
▁बाजार	-1324
र्श	-1325
▁लॉ	-1326
▁गठ	-1327
▁चाल	-1328
दारी	-1329
▁बल्	-1330
▁राष्ट्रीय	-1331
▁चलते	-1332
िरा	-1333
्वर	-1334
▁रोक	-1335
▁चोरी	-1336
न्द्र	-1337
▁रखा	-1338
नाथ	-1339
ारे	-1340
▁जम	-1341
▁17	-1342
▁क्योंकि	-1343
थम	-1344
▁थीं	-1345
▁भेज	-1346
त्री	-1347
▁?	-1348
▁चुके	-1349
▁M	-1350
▁मि	-1351
▁बेटी	-1352
▁हमला	-1353
▁तला	-1354
▁विभिन्न	-1355
▁N	-1356
▁दोपहर	-1357
▁दूसरी	-1358
▁सोशल	-1359
▁अगस्त	-1360
▁मोब	-1361
▁चर्चा	-1362
▁वित	-1363
ेक	-1364
▁प्रतिशत	-1365
▁अभियान	-1366
▁युवा	-1367
स्थ्य	-1368
▁यून	-1369
▁पूर्	-1370
▁पीछ	-1371
▁विरोध	-1372
▁अह	-1373
भग	-1374
▁मदद	-1375
▁महिलाओं	-1376
▁बने	-1377
▁तथा	-1378
फर	-1379
▁बैंक	-1380
▁भो	-1381
▁अमेर	-1382
▁स्वास्थ्य	-1383
शि	-1384
▁समस्या	-1385
▁लाइ	-1386
▁बयान	-1387
▁दीप	-1388
▁ट्रै	-1389
▁अवसर	-1390
ाट	-1391
▁ची	-1392
स्ती	-1393
▁सिर्फ	-1394
▁रेलवे	-1395
ाक	-1396
▁पेश	-1397
▁समिति	-1398
▁होंगे	-1399
्‍	-1400
श्य	-1401
▁ग्राम	-1402
▁सचिव	-1403
▁फैस	-1404
ध्यक्ष	-1405
ुन	-1406
▁प्रयास	-1407
▁चुकी	-1408
▁मोबाइल	-1409
ग्र	-1410
▁अपरा	-1411
करी	-1412
क्षक	-1413
पूर्	-1414
्रम	-1415
▁वाहन	-1416
▁मृतक	-1417
वेदन	-1418
ानीय	-1419
▁जयपुर	-1420
▁देवी	-1421
▁.	-1422
हरा	-1423
▁रिक	-1424
▁स्थानीय	-1425
▁अश	-1426
▁जाते	-1427
▁दुर्	-1428
ॉप	-1429
▁मना	-1430
वाह	-1431
▁विवाद	-1432
▁जवाब	-1433
▁पाकि	-1434
▁सम्मान	-1435
ूप	-1436
▁सके	-1437
पीट	-1438
▁प्रमुख	-1439
चे	-1440
▁मिश	-1441
धि	-1442
ल्प	-1443
▁जल्द	-1444
▁उम्मीदवार	-1445
जीत	-1446
िंद	-1447
▁मिन	-1448
▁शाह	-1449
▁देखा	-1450
▁अभि	-1451
▁इंटर	-1452
▁200	-1453
▁करती	-1454
▁साइ	-1455
न्न	-1456
▁संत	-1457
▁जैन	-1458
▁दिस	-1459
▁लगभग	-1460
▁करा	-1461
ियम	-1462
▁बिल	-1463
▁इलाके	-1464
▁दूर	-1465
▁भूम	-1466
ूबर	-1467
▁अवै	-1468
▁कार्यकर्	-1469
▁गाड़ी	-1470
ar	-1471
▁22	-1472
मत	-1473
▁मेरे	-1474
▁स्तर	-1475
▁सवार	-1476
▁अवैध	-1477
▁माध्य	-1478
▁किसानों	-1479
▁ते	-1480
▁R	-1481
▁माध्यम	-1482
रिक	-1483
▁वापस	-1484
अल	-1485
▁महत्व	-1486
▁पंचायत	-1487
▁संघ	-1488
यू	-1489
▁कौ	-1490
▁मई	-1491
▁उत्तर	-1492
्यान	-1493
▁एड	-1494
ंभ	-1495
धिकारी	-1496
▁पीएम	-1497
▁वालों	-1498
▁लौ	-1499
▁बराम	-1500
▁शराब	-1501
▁शेयर	-1502
▁अंदर	-1503
▁जीवन	-1504
▁इंडिया	-1505
▁मंत्र	-1506
शिश	-1507
शनल	-1508
बे	-1509
▁हॉ	-1510
▁पीड़ित	-1511
▁राष्ट्र	-1512
▁विजय	-1513
▁धर्म	-1514
▁संगठ	-1515
▁वर	-1516
ोद	-1517
जाम	-1518
▁सितंबर	-1519
ूड	-1520
▁कोशिश	-1521
हाय	-1522
चर	-1523
▁बरामद	-1524
▁कहते	-1525
ठी	-1526
▁प्रभाव	-1527
ालय	-1528
केश	-1529
▁शुरुआत	-1530
▁मारपीट	-1531
पक्ष	-1532
▁पुत्र	-1533
▁गल	-1534
▁समर्थ	-1535
डा	-1536
सू	-1537
क्टूबर	-1538
्क	-1539
▁बढ़ा	-1540
हन	-1541
▁आव	-1542
▁इम	-1543
▁तीस	-1544
टल	-1545
पूर्ण	-1546
▁अक्टूबर	-1547
▁जरूर	-1548
▁गण	-1549
▁कलेक्टर	-1550
▁नोट	-1551
▁सें	-1552
▁इंदौर	-1553
▁हमारे	-1554
▁सां	-1555
स्ताव	-1556
▁निकल	-1557
▁मार्ग	-1558
एल	-1559
माश	-1560
क्कर	-1561
▁दिसंबर	-1562
स्टर	-1563
▁एज	-1564
▁टिक	-1565
दि	-1566
▁लक्ष	-1567
▁21	-1568
▁पीछे	-1569
▁लो	-1570
उंड	-1571
श्च	-1572
▁पूछता	-1573
▁हादसे	-1574
ूरी	-1575
▁ब्ल	-1576
कु	-1577
▁देकर	-1578
▁एयर	-1579
▁संभाव	-1580
▁सप	-1581
▁रोज	-1582
▁मेडिकल	-1583
▁लिखा	-1584
▁पूछताछ	-1585
▁हे	-1586
▁शुभ	-1587
▁कार्यालय	-1588
▁धन	-1589
र्जी	-1590
▁कर्	-1591
▁नवं	-1592
▁व्याप	-1593
धरी	-1594
▁नवंबर	-1595
▁बदमाश	-1596
गंज	-1597
िकेट	-1598
▁केंद	-1599
▁माता	-1600
िली	-1601
वीं	-1602
▁आसपास	-1603
▁सहाय	-1604
▁नियम	-1605
षा	-1606
गू	-1607
▁केंद्रीय	-1608
▁रै	-1609
▁पढ़ें	-1610
▁...	-1611
▁चुका	-1612
▁गुप	-1613
▁ज़	-1614
थि	-1615
▁कभी	-1616
प्री	-1617
▁अंतर	-1618
▁एसपी	-1619
रज	-1620
रिया	-1621
▁प्ल	-1622
▁तौर	-1623
▁मतदान	-1624
▁प्राप्त	-1625
ंकर	-1626
20	-1627
▁D	-1628
▁केवल	-1629
यन	-1630
▁शो	-1631
वत	-1632
▁रज	-1633
▁पड़ा	-1634
्ता	-1635
▁जाएंगे	-1636
गल	-1637
लर	-1638
▁आपको	-1639
▁चौधरी	-1640
तृ	-1641
▁बिना	-1642
धर	-1643
ुष	-1644
▁जाना	-1645
▁धम	-1646
▁लख	-1647
खिल	-1648
ॉर्ड	-1649
▁मैंने	-1650
र्ष	-1651
▁स्टेशन	-1652
▁री	-1653
▁संय	-1654
▁देखने	-1655
▁100	-1656
▁अंत	-1657
▁दिखा	-1658
▁भोपाल	-1659
ोस	-1660
साद	-1661
▁रु	-1662
▁मिनट	-1663
▁लाइन	-1664
▁किलो	-1665
▁मरीज	-1666
ंका	-1667
▁जिम	-1668
बार	-1669
▁ज्	-1670
स्थित	-1671
▁आवेदन	-1672
विधा	-1673
ुओं	-1674
चारी	-1675
▁नेताओं	-1676
▁पाकिस्तान	-1677
▁उपल	-1678
▁प्रत्या	-1679
टक	-1680
▁भारी	-1681
िसर	-1682
ौल	-1683
किंग	-1684
एच	-1685
्मे	-1686
▁ध्यान	-1687
▁एक्सप	-1688
साइ	-1689
▁अप्र	-1690
▁खास	-1691
▁नदी	-1692
▁हार	-1693
▁राशि	-1694
in	-1695
भर	-1696
▁मार्च	-1697
त्स	-1698
ल्स	-1699
▁होना	-1700
िटल	-1701
फा	-1702
ांक	-1703
▁निश	-1704
▁पार्	-1705
ुरा	-1706
▁टै	-1707
▁लगाए	-1708
▁तह	-1709
▁निरी	-1710
▁हमें	-1711
▁40	-1712
▁प्ले	-1713
लाल	-1714
▁लिख	-1715
30	-1716
केट	-1717
▁खबर	-1718
▁लाभ	-1719
▁अस	-1720
फ़	-1721
▁सत	-1722
▁तोड़	-1723
▁कैसे	-1724
लाइन	-1725
▁देखते	-1726
▁बोर्ड	-1727
त्ती	-1728
at	-1729
जरा	-1730
▁मुद्	-1731
▁छोट	-1732
▁बदल	-1733
▁डाल	-1734
▁गोली	-1735
▁पेट	-1736
▁बनी	-1737
▁टिकट	-1738
▁निकाल	-1739
▁रि	-1740
▁सुविधा	-1741
्यो	-1742
▁अपराध	-1743
र्या	-1744
▁उठा	-1745
ेस	-1746
ुद	-1747
िशा	-1748
हाल	-1749
▁कराने	-1750
▁विदेश	-1751
▁उद्	-1752
मार्ट	-1753
▁फरार	-1754
▁2023	-1755
अलग	-1756
▁अग्र	-1757
▁छात्रा	-1758
्प	-1759
▁धार	-1760
मन	-1761
त्ता	-1762
▁जिसे	-1763
▁यानी	-1764
▁प्रसाद	-1765
▁संबंधित	-1766
▁ग्रामीणों	-1767
र्न	-1768
▁जनवरी	-1769
एन	-1770
▁आश	-1771
▁संभ	-1772
िग	-1773
▁अहम	-1774
▁वार्ड	-1775
ियार	-1776
▁पदा	-1777
तों	-1778
▁सीटों	-1779
▁कर्मचारी	-1780
▁छात्रों	-1781
▁बदला	-1782
▁नव	-1783
िरी	-1784
क्रिया	-1785
▁विद्य	-1786
▁चि	-1787
▁संभावना	-1788
▁प्रक्रिया	-1789
▁26	-1790
▁अगले	-1791
ॉक	-1792
▁ं	-1793
▁विकेट	-1794
▁रण	-1795
विद्यालय	-1796
दम	-1797
▁उपलब्	-1798
ारोह	-1799
▁समारोह	-1800
▁सफल	-1801
सत	-1802
▁संजय	-1803
माल	-1804
▁ज्ञ	-1805
▁श्रद्ध	-1806
▁आयोग	-1807
▁तय	-1808
तरी	-1809
र्प	-1810
▁पहुंचा	-1811
▁उद	-1812
▁मानस	-1813
▁यूपी	-1814
चारियों	-1815
▁परेशान	-1816
▁भेजा	-1817
▁जिलों	-1818
▁सहयोग	-1819
ंबई	-1820
तृत्व	-1821
▁वायर	-1822
▁्स	-1823
त्तीस	-1824
▁शी	-1825
▁रंग	-1826
मारी	-1827
क्षित	-1828
▁पूर्ण	-1829
▁चंद्र	-1830
▁छत्तीस	-1831
▁फीस	-1832
▁फोट	-1833
▁दावा	-1834
ंडी	-1835
्रोल	-1836
▁पकड़	-1837
▁मंडल	-1838
▁ऐसी	-1839
▁28	-1840
▁क्ल	-1841
▁सुनी	-1842
▁छत्तीसगढ़	-1843
ियल	-1844
ृह	-1845
ेंसी	-1846
▁जमा	-1847
▁नेतृत्व	-1848
ूक	-1849
ड़ियों	-1850
▁चले	-1851
ृति	-1852
▁पश्च	-1853
on	-1854
▁रखने	-1855
जल	-1856
▁न्याय	-1857
ड़ों	-1858
▁चिक	-1859
▁बोले	-1860
▁नरेंद्र	-1861
▁23	-1862
▁गर्मी	-1863
▁ताकि	-1864
▁कर्मचारियों	-1865
एफ	-1866
▁े	-1867
काब	-1868
▁तत्	-1869
▁नागर	-1870
▁नीचे	-1871
▁माना	-1872
▁आख	-1873
▁मुंबई	-1874
देव	-1875
▁हास	-1876
▁उर्फ	-1877
▁तलाश	-1878
दों	-1879
नात	-1880
▁तैयारी	-1881
▁कीमत	-1882
धे	-1883
▁हिस्सा	-1884
.5	-1885
▁डाय	-1886
▁लगाने	-1887
राम	-1888
▁दुनिया	-1889
र्द	-1890
▁अप्रैल	-1891
-1	-1892
▁एल	-1893
▁कब्	-1894
▁कला	-1895
▁टक्कर	-1896
▁बल्कि	-1897
▁इनमें	-1898
ज्ञान	-1899
▁गुप्ता	-1900
असल	-1901
स्ल	-1902
▁ओवर	-1903
▁अद	-1904
▁भाव	-1905
▁प्रत्याशी	-1906
▁गौ	-1907
▁बांग	-1908
▁दरअसल	-1909
▁जाकर	-1910
िड	-1911
चार्य	-1912
▁मॉ	-1913
म्म	-1914
▁ति	-1915
▁सिर	-1916
▁फ़	-1917
▁वृ	-1918
नियर	-1919
▁पटना	-1920
▁बंग	-1921
बाल	-1922
▁चरण	-1923
▁टेस्ट	-1924
▁फैसला	-1925
ंदा	-1926
▁संगठन	-1927
▁जिम्मे	-1928
▁जुड़े	-1929
▁27	-1930
ापन	-1931
▁हासिल	-1932
▁मकान	-1933
धन	-1934
▁राजनीतिक	-1935
ीक	-1936
एसपी	-1937
▁गति	-1938
▁लखन	-1939
ाइम	-1940
▁फायर	-1941
ूब	-1942
ॉर्म	-1943
▁वक्त	-1944
र्ग	-1945
▁भवन	-1946
▁गाय	-1947
▁सदर	-1948
ित्र	-1949
▁वर्ग	-1950
▁अमेरिका	-1951
▁न्यू	-1952
▁तरी	-1953
लोनी	-1954
▁रहते	-1955
▁जन्म	-1956
ड्	-1957
▁साफ	-1958
▁इस्ते	-1959
▁इस्तेमाल	-1960
▁दौ	-1961
चन	-1962
▁क्रिकेट	-1963
▁स्थाप	-1964
ंगी	-1965
▁सजा	-1966
▁पल	-1967
▁हथ	-1968
पू	-1969
▁डिप	-1970
▁ख़	-1971
▁न्याया	-1972
▁प्रकार	-1973
▁रहेगा	-1974
षि	-1975
▁मुक	-1976
ांति	-1977
्लादेश	-1978
▁चिकित	-1979
िकी	-1980
▁झार	-1981
▁दोस्त	-1982
▁बचा	-1983
तीश	-1984
▁हालत	-1985
लू	-1986
▁सीमा	-1987
▁डा	-1988
▁जता	-1989
▁चालक	-1990
▁मजबू	-1991
▁एफ	-1992
▁किस	-1993
▁बाबा	-1994
er	-1995
िक्ष	-1996
▁भीड़	-1997
▁ड्राइ	-1998
त्ति	-1999
▁प्रकाश	-2000
▁उपलब्ध	-2001
फे	-2002
▁आन	-2003
▁मश	-2004
ियोग	-2005
▁तीनों	-2006
चीत	-2007
ामा	-2008
▁बातचीत	-2009
ायण	-2010
▁पैसे	-2011
ेटी	-2012
▁त्र	-2013
▁नया	-2014
स्व	-2015
िनि	-2016
▁चौक	-2017
▁समी	-2018
▁कार्ड	-2019
▁घोषणा	-2020
▁परिसर	-2021
झा	-2022
▁अमित	-2023
▁सिटी	-2024
श्यक	-2025
▁पाए	-2026
▁हमने	-2027
▁प्राथम	-2028
▁बनने	-2029
▁K	-2030
▁31	-2031
▁चा	-2032
रों	-2033
▁मैदान	-2034
यों	-2035
▁ऑन	-2036
▁कैम	-2037
▁झारखंड	-2038
▁महत्वपूर्ण	-2039
ांग	-2040
क्ता	-2041
ेन	-2042
िन्	-2043
▁मूल	-2044
▁विद्यालय	-2045
▁फिलहाल	-2046
▁कराई	-2047
ार्ज	-2048
▁बांग्लादेश	-2049
किल	-2050
▁रोह	-2051
▁खत्म	-2052
▁ट्रांस	-2053
▁रिकॉर्ड	-2054
▁खो	-2055
▁ठीक	-2056
▁पौ	-2057
▁यही	-2058
▁दिवस	-2059
▁E	-2060
जरी	-2061
व्य	-2062
▁निजी	-2063
▁गठबंधन	-2064
▁तस्वीर	-2065
000	-2066
▁चुन	-2067
▁पड़े	-2068
▁स्टूड	-2069
ंडा	-2070
पुरा	-2071
्हें	-2072
कल	-2073
ेय	-2074
▁कहीं	-2075
▁आवश्यक	-2076
▁35	-2077
गार	-2078
▁भू	-2079
▁मोहन	-2080
▁29	-2081
▁चोर	-2082
ील	-2083
राह	-2084
ष्य	-2085
ैनिक	-2086
शे	-2087
तिम	-2088
▁स्वी	-2089
हान	-2090
▁वायरल	-2091
▁लखनऊ	-2092
▁नागरिक	-2093
▁बाव	-2094
▁सेंटर	-2095
तरा	-2096
▁चै	-2097
▁ऊपर	-2098
▁खेत	-2099
▁पहला	-2100
▁आपके	-2101
▁फोटो	-2102
िष्ठ	-2103
▁सीसी	-2104
▁घोषित	-2105
▁सिल	-2106
▁राष्ट्रपति	-2107
इट	-2108
विंद	-2109
मता	-2110
▁गौर	-2111
ड्ड	-2112
▁मेरी	-2113
▁मिलकर	-2114
▁रव	-2115
▁लड़की	-2116
▁अय	-2117
वाही	-2118
▁मुकाब	-2119
▁धारा	-2120
▁पांड	-2121
▁उपस्थित	-2122
▁मं	-2123
पोर्ट	-2124
▁खराब	-2125
▁विचार	-2126
▁गी	-2127
रान	-2128
▁मल	-2129
▁अंक	-2130
▁भु	-2131
द्योग	-2132
▁समा	-2133
▁अंतिम	-2134
▁बोल	-2135
▁आवा	-2136
▁उदय	-2137
▁प्रेम	-2138
रल	-2139
▁सेना	-2140
▁टा	-2141
▁मीटर	-2142
▁खुला	-2143
ित्य	-2144
▁दर्शन	-2145
▁कमी	-2146
▁लौट	-2147
▁सभा	-2148
▁कमेटी	-2149
वाने	-2150
▁चीन	-2151
▁पाया	-2152
बाजी	-2153
▁उच्च	-2154
मे	-2155
षेक	-2156
▁तभी	-2157
▁बू	-2158
▁खरीद	-2159
▁जरिए	-2160
▁चुना	-2161
ंख	-2162
▁घु	-2163
▁धर	-2164
▁गेट	-2165
▁गिरा	-2166
▁धमकी	-2167
▁सुप्री	-2168
▁महारा	-2169
मीटर	-2170
▁वर्षीय	-2171
▁शिक्षक	-2172
▁हमारी	-2173
▁प्रवेश	-2174
al	-2175
▁बुला	-2176
▁हिंदू	-2177
अप	-2178
▁लगाई	-2179
▁सुप्रीम	-2180
▁ट्रक	-2181
▁स्टूडेंट	-2182
▁कित	-2183
▁राज्यों	-2184
▁परिष	-2185
ष्ट्र	-2186
पन	-2187
मेर	-2188
चानक	-2189
द्धि	-2190
स्कार	-2191
▁अचानक	-2192
नेश	-2193
▁अदाल	-2194
वें	-2195
▁मुला	-2196
▁वरिष्ठ	-2197
▁सुनवाई	-2198
▁कानून	-2199
▁अग्रवाल	-2200
वाड़ा	-2201
▁प्रस्ताव	-2202
▁विपक्ष	-2203
▁सही	-2204
तियों	-2205
▁T	-2206
▁समर्थन	-2207
टो	-2208
▁वारदा	-2209
▁लूट	-2210
▁प्रता	-2211
रीर	-2212
▁चाहते	-2213
ंसा	-2214
▁प्रतियोग	-2215
▁कॉलोनी	-2216
▁बहन	-2217
▁प्रस्त	-2218
▁उसी	-2219
हरी	-2220
हास	-2221
▁मनी	-2222
▁परिजन	-2223
▁दक्ष	-2224
▁क्षेत्रों	-2225
डल	-2226
▁लंब	-2227
▁सदस्यों	-2228
▁उत्स	-2229
▁उम्र	-2230
▁देना	-2231
उट	-2232
▁आते	-2233
▁संक	-2234
▁महार	-2235
▁बावजूद	-2236
▁फ्र	-2237
ंता	-2238
ौती	-2239
▁लागू	-2240
ेंडर	-2241
चिका	-2242
▁जित	-2243
ब्ल	-2244
▁नुक	-2245
▁सामान्य	-2246
▁सिव	-2247
▁निवेश	-2248
िशन	-2249
ूस	-2250
बोध	-2251
▁किन	-2252
▁उनसे	-2253
▁निरीक्षण	-2254
िब	-2255
▁इंत	-2256
▁पटेल	-2257
▁होटल	-2258
▁विश्वविद्यालय	-2259
मति	-2260
▁छो	-2261
▁विन	-2262
▁परिषद	-2263
शु	-2264
▁याचिका	-2265
▁अशोक	-2266
▁तैनात	-2267
कत	-2268
तंत्र	-2269
▁ऑफिस	-2270
▁एंड	-2271
▁सिक	-2272
▁बदलाव	-2273
▁कही	-2274
▁सात	-2275
ूह	-2276
ुदाय	-2277
▁हट	-2278
▁हथियार	-2279
▁कृष्ण	-2280
ॉट	-2281
ैया	-2282
▁गृह	-2283
क्ट्र	-2284
▁F	-2285
▁राजनीति	-2286
िश्न	-2287
▁तत्काल	-2288
▁प्रभावित	-2289
▁वर्मा	-2290
वाली	-2291
्याण	-2292
▁कॉल	-2293
▁परिव	-2294
▁नेशनल	-2295
▁बनाकर	-2296
तल	-2297
▁रिज	-2298
▁निर्ण	-2299
जु	-2300
िद	-2301
ुरी	-2302
▁रखी	-2303
ख्त	-2304
▁पाठ	-2305
▁बेहतर	-2306
स्कर	-2307
प्शन	-2308
▁गलत	-2309
▁गेंद	-2310
▁दिखाई	-2311
▁एसडी	-2312
▁जरूरी	-2313
▁नुकसान	-2314
नु	-2315
▁अदालत	-2316
▁कारो	-2317
▁रहता	-2318
▁प्रतियोगिता	-2319
▁ऋ	-2320
▁जरूरत	-2321
ेश्वर	-2322
▁कोच	-2323
यल	-2324
▁फाइन	-2325
स्टम	-2326
▁उससे	-2327
▁सुना	-2328
-2	-2329
वट	-2330
▁अजय	-2331
▁असर	-2332
▁उपयोग	-2333
स्पिटल	-2334
▁पदाधिकारी	-2335
▁करेगी	-2336
▁बनाई	-2337
▁स्थल	-2338
▁संस्थान	-2339
▁तुर	-2340
तिहास	-2341
ेक्ट	-2342
▁अयोध	-2343
चल	-2344
▁मजद	-2345
▁अफसर	-2346
▁भक्त	-2347
खी	-2348
फ्	-2349
▁डिज	-2350
▁राहत	-2351
वाइ	-2352
ध्या	-2353
▁ग्रुप	-2354
▁विद्यार्थ	-2355
टीवी	-2356
▁कब	-2357
▁रास्ते	-2358
सील	-2359
ूर्ति	-2360
▁वारदात	-2361
▁तरीके	-2362
▁हॉस्पिटल	-2363
▁हवा	-2364
▁रिली	-2365
्वाल	-2366
▁लगने	-2367
▁ताला	-2368
▁मिश्रा	-2369
▁महाराष्ट्र	-2370
▁शि	-2371
▁हल्	-2372
▁2019	-2373
▁किश	-2374
▁भूमिका	-2375
▁अयोध्या	-2376
▁प्राथमिक	-2377
▁नम	-2378
▁कौन	-2379
▁सफाई	-2380
िने	-2381
▁कार्यकर्ताओं	-2382
▁सीसीटीवी	-2383
र्गत	-2384
or	-2385
जों	-2386
▁संस	-2387
▁मजबूत	-2388
▁महाराज	-2389
▁जाम	-2390
▁दक्षि	-2391
ंदी	-2392
▁पंड	-2393
▁फुट	-2394
▁विष	-2395
▁मर	-2396
कम	-2397
लिया	-2398
▁तुरंत	-2399
▁स्वागत	-2400
▁सागर	-2401
उंट	-2402
▁इतना	-2403
▁ड्राइवर	-2404
▁रिश्	-2405
▁हमले	-2406
▁शांति	-2407
▁45	-2408
र्डर	-2409
▁मंच	-2410
▁संस्था	-2411
▁कल्याण	-2412
▁वाहनों	-2413
▁घाट	-2414
▁कपूर	-2415
▁जागर	-2416
▁राजेश	-2417
▁सल	-2418
▁इले	-2419
▁लॉन्	-2420
▁अभिषेक	-2421
▁तम	-2422
▁बजट	-2423
▁उपा	-2424
▁लगाकर	-2425
▁फ्ल	-2426
▁हाईक	-2427
▁नौकरी	-2428
▁युवती	-2429
▁प्रचार	-2430
कात	-2431
ॉर्ट	-2432
▁अंब	-2433
▁प्रदान	-2434
ल्ल	-2435
▁मू	-2436
sh	-2437
▁रिलीज	-2438
सों	-2439
न्ना	-2440
ट्ट	-2441
▁जब्त	-2442
▁बीते	-2443
टिंग	-2444
▁G	-2445
▁कृषि	-2446
▁बंगाल	-2447
▁रायपुर	-2448
ज्ज	-2449
▁लगता	-2450
उस	-2451
▁चोट	-2452
▁तेजी	-2453
▁फरवरी	-2454
▁संयुक्त	-2455
ुण	-2456
▁जोर	-2457
▁सुख	-2458
▁नाबाल	-2459
ाफ	-2460
▁(2	-2461
▁लेते	-2462
▁जवान	-2463
▁सीटें	-2464
र्थिक	-2465
▁मिलेगा	-2466
ठा	-2467
िक्र	-2468
▁अली	-2469
▁राव	-2470
▁आत्म	-2471
▁यदि	-2472
▁प्रतिनि	-2473
ॉन	-2474
प्ता	-2475
▁सिविल	-2476
▁कोत	-2477
▁कोल	-2478
▁ो	-2479
वर्	-2480
▁नोटिस	-2481
▁बेच	-2482
▁फीसदी	-2483
▁बताते	-2484
▁छोटे	-2485
▁दीपक	-2486
ंटी	-2487
▁सोन	-2488
▁तहसील	-2489
्यून	-2490
▁रहेगी	-2491
▁नाबालिग	-2492
▁2022	-2493
▁आनंद	-2494
▁संवि	-2495
ारंभ	-2496
▁ऑनलाइन	-2497
्लाई	-2498
▁मालिक	-2499
भव	-2500
▁भास्कर	-2501
▁आर्थिक	-2502
▁जमकर	-2503
▁काट	-2504
▁भवि	-2505
ाले	-2506
▁मुलाकात	-2507
िनी	-2508
▁चढ़	-2509
▁प्री	-2510
▁ऑपर	-2511
▁कदम	-2512
▁ठाक	-2513
▁रोहित	-2514
▁छह	-2515
प्ताह	-2516
▁U	-2517
▁1.	-2518
▁करेगा	-2519
▁नाराज	-2520
▁निर्णय	-2521
म्मद	-2522
▁श्रद्धाल	-2523
▁एक्सप्रेस	-2524
▁L	-2525
▁कॉन्	-2526
▁भविष्य	-2527
▁फा	-2528
▁बेटा	-2529
रासत	-2530
▁प्रशिक्ष	-2531
ंकी	-2532
्रो	-2533
▁/	-2534
▁मनोज	-2535
▁मेरा	-2536
▁हाउस	-2537
डे	-2538
▁आत	-2539
्मिक	-2540
▁गैंग	-2541
▁पर्य	-2542
▁पार्ट	-2543
▁नो	-2544
▁कड़ी	-2545
▁अतिरिक	-2546
▁गिरफ्तारी	-2547
▁धी	-2548
▁धो	-2549
र्जा	-2550
▁रहती	-2551
▁ठाकुर	-2552
▁सामना	-2553
▁गंगा	-2554
▁पर्व	-2555
▁फर्जी	-2556
▁निर्वा	-2557
▁लु	-2558
▁प्रि	-2559
▁दूसरा	-2560
▁संबोध	-2561
▁अंतर्गत	-2562
▁तारी	-2563
▁बांध	-2564
राव	-2565
▁दम	-2566
▁रिट	-2567
▁अतिरिक्त	-2568
िवर्स	-2569
▁प्राइ	-2570
▁अपील	-2571
▁जिसकी	-2572
▁सहायक	-2573
▁हाईकोर्ट	-2574
डीए	-2575
▁तेल	-2576
▁खर्च	-2577
ांव	-2578
त्सव	-2579
▁उदयपुर	-2580
▁व्यक्त	-2581
▁पॉ	-2582
्तान	-2583
हरे	-2584
▁खुल	-2585
▁खड़े	-2586
▁करवाया	-2587
छा	-2588
श्मी	-2589
ांकन	-2590
▁झा	-2591
▁कार्यकर्ता	-2592
▁ठे	-2593
कर्म	-2594
▁मतदा	-2595
ज्ञात	-2596
▁साहू	-2597
▁देशों	-2598
▁सीरीज	-2599
▁संचालन	-2600
▁पीड़िता	-2601
्याम	-2602
▁बदमाशों	-2603
कीय	-2604
▁अज्ञात	-2605
ांसी	-2606
▁सुनील	-2607
▁इलाकों	-2608
▁आंद	-2609
▁कंपन	-2610
▁स्पेश	-2611
▁हनु	-2612
▁पार्ष	-2613
त्रियों	-2614
▁दबा	-2615
▁सत्र	-2616
▁सिस्टम	-2617
▁मोहम्मद	-2618
▁मंत्रालय	-2619
▁हिस	-2620
▁देंगे	-2621
▁रक्षा	-2622
▁अनिल	-2623
▁बैठे	-2624
▁अंजाम	-2625
▁फाय	-2626
▁मिलते	-2627
तमान	-2628
ेंज	-2629
ोलन	-2630
▁अज	-2631
▁चां	-2632
▁संर	-2633
▁जैसी	-2634
▁मुश्	-2635
▁अच्छी	-2636
▁बच्ची	-2637
▁सुधार	-2638
▁प्रोज	-2639
▁मामलों	-2640
▁कोतवाली	-2641
ष्टि	-2642
▁जाल	-2643
▁वीर	-2644
▁जिंद	-2645
▁उत्पा	-2646
▁किलोमीटर	-2647
इल	-2648
स्लिम	-2649
▁पश्चिम	-2650
विध	-2651
▁पर्या	-2652
्टर	-2653
▁दब	-2654
▁हटा	-2655
▁आवास	-2656
▁तुल	-2657
▁पेट्रोल	-2658
ल्ले	-2659
▁भूमि	-2660
ुड	-2661
▁डर	-2662
ेशा	-2663
▁हनुमान	-2664
▁सुपर	-2665
▁गुजरा	-2666
▁नीतीश	-2667
▁सोने	-2668
▁अधी	-2669
▁भोज	-2670
▁युवाओं	-2671
▁कन	-2672
▁फसल	-2673
▁स्पेशल	-2674
▁आशी	-2675
▁परेशानी	-2676
▁V	-2677
▁दश	-2678
ाजिक	-2679
▁निदेश	-2680
ांट	-2681
त्मक	-2682
स्त्र	-2683
टन	-2684
▁डायरे	-2685
खर	-2686
ैक	-2687
जरीवाल	-2688
▁केजरीवाल	-2689
▁प्रोजेक्ट	-2690
वरण	-2691
▁पैर	-2692
बीर	-2693
्राम	-2694
▁आंदोलन	-2695
▁प्रताप	-2696
▁अच्छा	-2697
▁बिक	-2698
▁देखकर	-2699
पथ	-2700
▁कां	-2701
▁जाय	-2702
▁अधिकार	-2703
▁रजिस्ट	-2704
▁एक्ट्रेस	-2705
▁अलर्ट	-2706
▁मौका	-2707
▁विस्त	-2708
ुरु	-2709
▁घरों	-2710
▁मुस्लिम	-2711
प्रदेश	-2712
▁शक्ति	-2713
िक्स	-2714
▁पकड़ा	-2715
ैर	-2716
▁60	-2717
▁कंट	-2718
▁चली	-2719
▁छाप	-2720
िश्चित	-2721
▁अतिथि	-2722
▁अंग	-2723
्होंने	-2724
▁वर्तमान	-2725
▁शिविर	-2726
▁मुश्किल	-2727
ण्ड	-2728
▁साइबर	-2729
▁तिव	-2730
▁बर्	-2731
▁मगर	-2732
▁नामांकन	-2733
▁अखिल	-2734
▁श्रे	-2735
▁तिवारी	-2736
▁यूनिवर्स	-2737
कुमार	-2738
▁दिशा	-2739
▁मीणा	-2740
स्‍	-2741
▁डॉक्टरों	-2742
वारी	-2743
▁यात्रियों	-2744
ोप	-2745
▁शासन	-2746
▁न्यायालय	-2747
▁आयुक्त	-2748
▁इधर	-2749
▁योगी	-2750
▁अधिकतम	-2751
ti	-2752
▁मैने	-2753
▁सालों	-2754
धानी	-2755
▁व्र	-2756
▁कैंप	-2757
▁गढ़	-2758
▁निकाला	-2759
▁रैली	-2760
नगर	-2761
▁मंडी	-2762
▁पढ़ाई	-2763
▁सेक्टर	-2764
▁स्कूलों	-2765
ra	-2766
सि	-2767
▁मुकेश	-2768
▁चुनावी	-2769
्यार	-2770
▁िया	-2771
ोत्सव	-2772
स्ट्री	-2773
▁प्लान	-2774
▁मनाया	-2775
घाट	-2776
▁गईं	-2777
श्मीर	-2778
▁कब्जे	-2779
▁स्पष्ट	-2780
▁आकर	-2781
▁उसमें	-2782
▁सूर्य	-2783
▁ऑटो	-2784
▁हमेशा	-2785
▁सुरक्षित	-2786
तु	-2787
▁;	-2788
▁महिलाएं	-2789
वेट	-2790
▁हड़	-2791
दारों	-2792
▁गणेश	-2793
▁कुमारी	-2794
स्कृत	-2795
्रमण	-2796
▁नारायण	-2797
▁संविधान	-2798
ha	-2799
लाह	-2800
▁सर्वे	-2801
▁बिग	-2802
▁देता	-2803
▁प्लेट	-2804
▁दक्षिण	-2805
▁युवकों	-2806
लपुर	-2807
▁गोल	-2808
▁पारी	-2809
▁दास	-2810
▁जोड़	-2811
▁जागरूक	-2812
▁चलने	-2813
JP	-2814
▁उत	-2815
ेंशन	-2816
▁युद्ध	-2817
▁इंटरने	-2818
▁आल	-2819
▁पूछा	-2820
▁विवाह	-2821
▁सिद्ध	-2822
▁जिम्मेदारी	-2823
▁यूनिवर्सिटी	-2824
▁बढ़ाने	-2825
ोश	-2826
▁चयन	-2827
▁मरीजों	-2828
en	-2829
▁तीसरे	-2830
▁स्टार	-2831
▁सम्मानित	-2832
▁राजा	-2833
मार्टम	-2834
▁लिस्ट	-2835
द्द	-2836
▁अका	-2837
▁सप्ताह	-2838
▁रखे	-2839
▁रम	-2840
▁कमरे	-2841
▁संबोधित	-2842
▁पोस्टमार्टम	-2843
▁पेपर	-2844
▁किनारे	-2845
▁रिश्ते	-2846
नल	-2847
▁खुलासा	-2848
▁एयरपोर्ट	-2849
धिया	-2850
▁आउट	-2851
▁वर्ल्ड	-2852
▁साध	-2853
▁लाया	-2854
वादी	-2855
▁सामाजिक	-2856
स्तव	-2857
सुर	-2858
▁उद्देश	-2859
ोई	-2860
▁पाई	-2861
▁हादसा	-2862
▁शिक्षकों	-2863
▁अभिय	-2864
▁उनको	-2865
▁नक	-2866
▁नाग	-2867
्यु	-2868
▁आंक	-2869
▁स्टूडेंट्स	-2870
उन	-2871
▁पोल	-2872
▁संपर्क	-2873
फ्र	-2874
▁नग	-2875
▁H	-2876
▁रॉ	-2877
▁पुरुष	-2878
▁रहेंगे	-2879
▁प्रबंधन	-2880
▁पस	-2881
▁खाली	-2882
णाम	-2883
▁32	-2884
▁खोल	-2885
▁वित्त	-2886
▁अभ्य	-2887
▁बेहद	-2888
ष्ट्रीय	-2889
▁पहुंचकर	-2890
रीब	-2891
बारी	-2892
▁सपा	-2893
▁जिसका	-2894
▁कार्यों	-2895
वुड	-2896
▁आठ	-2897
▁कौर	-2898
▁अमर	-2899
▁दोष	-2900
▁वही	-2901
▁तकनी	-2902
▁उपचार	-2903
▁गुजरात	-2904
▁टूट	-2905
नीय	-2906
ियस	-2907
▁धार्मिक	-2908
ेस्ट	-2909
▁खंड	-2910
▁भजन	-2911
▁सड़कों	-2912
िएशन	-2913
▁न्यून	-2914
▁राजी	-2915
▁उड़	-2916
▁दृ	-2917
शाला	-2918
▁हल	-2919
▁पड़ी	-2920
▁लंबे	-2921
▁समुदाय	-2922
फिक	-2923
▁न्यूनतम	-2924
▁अर्	-2925
▁आता	-2926
▁बुजु	-2927
▁व्रत	-2928
▁बाकी	-2929
पंच	-2930
्रीन	-2931
्यूटी	-2932
▁चौकी	-2933
▁प्रखंड	-2934
▁बुजुर्ग	-2935
▁क्	-2936
▁घुस	-2937
▁रेप	-2938
▁अधीक्षक	-2939
ew	-2940
le	-2941
▁फॉ	-2942
▁आवाज	-2943
चु	-2944
ंद्र	-2945
▁निर	-2946
▁सर्	-2947
▁निर्धार	-2948
▁खूब	-2949
▁जंगल	-2950
▁ज्यो	-2951
▁पार्क	-2952
लेट	-2953
्ब	-2954
शिप	-2955
▁शंकर	-2956
▁आइ	-2957
▁पैसा	-2958
▁समाधान	-2959
▁अभ्यर्थ	-2960
▁मुख्यालय	-2961
नर	-2962
▁आदमी	-2963
पत	-2964
क्सर	-2965
ुल्क	-2966
▁पहल	-2967
▁मिस	-2968
▁80	-2969
▁फो	-2970
▁33	-2971
▁शरीर	-2972
▁एक्टर	-2973
ंह	-2974
▁डेट	-2975
▁पुरा	-2976
▁चौहान	-2977
ूत	-2978
लीवुड	-2979
▁इनके	-2980
▁सीजन	-2981
▁कहानी	-2982
▁राकेश	-2983
▁70	-2984
▁दिला	-2985
▁आखिरी	-2986
es	-2987
▁खुश	-2988
▁मिलेगी	-2989
ेड़	-2990
▁थो	-2991
▁199	-2992
▁प्रव	-2993
▁बताई	-2994
▁विषय	-2995
▁ब्लॉक	-2996
▁संदीप	-2997
ौन	-2998
▁लं	-2999
▁एसोस	-3000
▁निर्वाचन	-3001
रत	-3002
ंडल	-3003
साय	-3004
▁मजदूर	-3005
▁मारने	-3006
▁ग्वाल	-3007
▁एजेंसी	-3008
▁37	-3009
▁सत्ता	-3010
जीव	-3011
▁चेक	-3012
▁इमेज	-3013
▁लाने	-3014
▁सफलता	-3015
▁वर्षों	-3016
पट	-3017
श्व	-3018
ुति	-3019
▁पूजन	-3020
▁रवाना	-3021
▁उद्देश्य	-3022
ाब	-3023
▁इतनी	-3024
▁मार्केट	-3025
di	-3026
मानत	-3027
▁काल	-3028
▁सेल्स	-3029
▁पहुंचने	-3030
▁प्रेस	-3031
▁उद्योग	-3032
▁प्राइवेट	-3033
▁भुगत	-3034
▁सुनिश्चित	-3035
भार	-3036
▁एग्	-3037
▁फीट	-3038
▁परिणाम	-3039
▁इंतजार	-3040
▁कमिश्न	-3041
ार्म	-3042
▁शुक्	-3043
▁फाइनल	-3044
▁कमिश्नर	-3045
त्रि	-3046
कारों	-3047
▁इंजी	-3048
ग्ध	-3049
र्पित	-3050
▁स्टाफ	-3051
▁l	-3052
साथ	-3053
▁फूल	-3054
▁वकी	-3055
▁पार्षद	-3056
सेना	-3057
फ्तार	-3058
▁तिथि	-3059
▁सौंप	-3060
▁कैप्शन	-3061
▁खिलाड़ी	-3062
▁साब	-3063
▁आदित्य	-3064
▁सूत्र	-3065
▁ऑपरेशन	-3066
ेद	-3067
सित	-3068
▁हरा	-3069
▁छोड़कर	-3070
▁स्थापित	-3071
गीय	-3072
्रेन	-3073
▁बंध	-3074
▁लॉन्च	-3075
50	-3076
▁गोपाल	-3077
▁प्रथम	-3078
कृ	-3079
▁रिस	-3080
▁डीएम	-3081
▁उतर	-3082
▁काउ	-3083
▁लक्ष्य	-3084
ट्	-3085
दमा	-3086
▁विद	-3087
▁शपथ	-3088
▁सूची	-3089
▁प्रिय	-3090
▁संतोष	-3091
▁राजधानी	-3092
▁विद्यार्थियों	-3093
रेन	-3094
▁मुह	-3095
▁प्रेर	-3096
▁इतिहास	-3097
लेश	-3098
▁तुम	-3099
▁शान	-3100
▁परिय	-3101
▁मिलता	-3102
वती	-3103
क्का	-3104
▁ज्योति	-3105
▁निदेशक	-3106
▁लै	-3107
▁अमृत	-3108
▁जाति	-3109
▁स्मार्ट	-3110
▁परियोजना	-3111
▁कमा	-3112
ग्राम	-3113
▁क्ला	-3114
▁ससुर	-3115
▁रोकने	-3116
▁ट्रैफिक	-3117
▁नीति	-3118
▁डिप्टी	-3119
▁अमेरिकी	-3120
िमांड	-3121
▁किमी	-3122
▁जम्म	-3123
▁दबाव	-3124
▁फायदा	-3125
▁अरविंद	-3126
▁माहौल	-3127
▁मानसून	-3128
खे	-3129
▁O	-3130
▁सौं	-3131
▁पेड़	-3132
▁इंस्ट	-3133
▁क़	-3134
▁बत	-3135
क्सी	-3136
▁मेह	-3137
दाबाद	-3138
▁सोनी	-3139
▁टाइ	-3140
फ्ट	-3141
▁बुलाया	-3142
▁रफ्तार	-3143
▁प्रस्तुत	-3144
यात	-3145
▁उक्त	-3146
▁चिकित्	-3147
▁स्थानों	-3148
ंघ	-3149
▁BJP	-3150
▁पुष्	-3151
▁मशीन	-3152
▁चुनावों	-3153
▁प्रशिक्षण	-3154
▁कहां	-3155
▁कक्षा	-3156
▁सहायता	-3157
▁इलेक्ट्र	-3158
▁जुड़ी	-3159
ेबल	-3160
▁साथी	-3161
बीआई	-3162
▁हिरासत	-3163
▁प्रतिष्ठ	-3164
▁टू	-3165
▁समूह	-3166
▁सैनी	-3167
हरण	-3168
▁बचाने	-3169
▁ड्यूटी	-3170
▁रोजगार	-3171
दर	-3172
▁J	-3173
ूनी	-3174
▁गतिविध	-3175
▁कंपनियों	-3176
▁ग्वालियर	-3177
.4	-3178
▁मनीष	-3179
▁अनुमति	-3180
▁मास	-3181
▁रूम	-3182
▁प्रत्य	-3183
क़	-3184
▁हेड	-3185
▁जानते	-3186
▁बाग	-3187
▁इंजीनियर	-3188
ay	-3189
▁धान	-3190
▁मध्यप्रदेश	-3191
त्त	-3192
▁चिकित्सा	-3193
▁हेम	-3194
▁प्रम	-3195
ूषण	-3196
वधान	-3197
वानी	-3198
▁बाढ़	-3199
▁चिंता	-3200
▁संचालक	-3201
वीन	-3202
▁2024:	-3203
▁पोस्टम	-3204
▁मुकाबले	-3205
▁रेड	-3206
▁एसोसिएशन	-3207
▁सेल्सियस	-3208
मै	-3209
नान	-3210
नेस	-3211
ानों	-3212
▁दान	-3213
▁लापर	-3214
▁जम्मू	-3215
▁कर्मियों	-3216
वां	-3217
शील	-3218
लिंग	-3219
▁सेल	-3220
वनी	-3221
▁36	-3222
स्वी	-3223
▁एसी	-3224
क्रिय	-3225
▁विवे	-3226
▁तारीख	-3227
▁सीनियर	-3228
गण	-3229
सन	-3230
िये	-3231
▁अट	-3232
▁शै	-3233
ॉर्टम	-3234
▁मुकदमा	-3235
▁पोस्टमॉर्टम	-3236
रु	-3237
▁बें	-3238
▁प्रिंस	-3239
▁निर्धारित	-3240
कृत	-3241
▁शूट	-3242
▁करनी	-3243
▁क्रम	-3244
▁चेयर	-3245
्रेलिया	-3246
▁आरक्षण	-3247
▁बॉलीवुड	-3248
वाया	-3249
▁फैसले	-3250
स्तावेज	-3251
▁दस्तावेज	-3252
ढ़ी	-3253
▁बूथ	-3254
▁ऑस्ट	-3255
▁निभा	-3256
▁निकले	-3257
▁अक्ष	-3258
▁आरती	-3259
▁दाखिल	-3260
▁टॉ	-3261
▁स्म	-3262
▁मोटर	-3263
थर	-3264
राय	-3265
▁जताई	-3266
▁किशोर	-3267
▁ज्ञापन	-3268
▁34	-3269
▁छुट	-3270
▁वेब	-3271
र्जर	-3272
▁फें	-3273
▁भरा	-3274
▁स्कू	-3275
▁जमानत	-3276
▁टॉप	-3277
▁रखते	-3278
▁फायरिंग	-3279
▁संचालित	-3280
ri	-3281
▁चर	-3282
बीसी	-3283
▁नवा	-3284
▁संपत्ति	-3285
▁रेफर	-3286
▁करवाई	-3287
▁दुर्गा	-3288
ांची	-3289
▁राजीव	-3290
▁स्टेट	-3291
ews	-3292
काता	-3293
▁गौरव	-3294
▁प्ला	-3295
▁वारा	-3296
▁नियंत्र	-3297
▁उज्ज	-3298
▁पालन	-3299
),	-3300
ल्ट	-3301
▁जॉ	-3302
▁चंडी	-3303
▁विश्	-3304
▁सप्लाई	-3305
आईआर	-3306
▁500	-3307
▁त्रि	-3308
▁W	-3309
ंजन	-3310
▁(1	-3311
▁झू	-3312
▁गिरावट	-3313
▁डायरेक्टर	-3314
▁48	-3315
र्तन	-3316
▁डीसी	-3317
▁पुराने	-3318
,000	-3319
▁खड़ा	-3320
▁दैनिक	-3321
▁सरपंच	-3322
▁प्रत्येक	-3323
द्दी	-3324
ौली	-3325
▁एच	-3326
▁जला	-3327
▁पावर	-3328
▁महाम	-3329
▁इस्ती	-3330
▁कोलकाता	-3331
▁ट्रैक्टर	-3332
▁खिलाड़ियों	-3333
▁किर	-3334
▁गोर	-3335
▁2021	-3336
▁लापरवाही	-3337
▁जुट	-3338
्यता	-3339
▁चौथ	-3340
▁पहा	-3341
▁खाते	-3342
▁ज्ञान	-3343
▁ठंड	-3344
▁हरि	-3345
▁िंग	-3346
▁संसद	-3347
▁क्षमता	-3348
▁हिस्से	-3349
▁उम्मीदवारों	-3350
ुक्ति	-3351
▁खाना	-3352
▁तालाब	-3353
▁प्रदीप	-3354
▁सक्रिय	-3355
▁उपाध्यक्ष	-3356
ाजी	-3357
▁ठगी	-3358
पेट	-3359
▁कमल	-3360
▁करियर	-3361
▁प्रतिमा	-3362
▁जिन्होंने	-3363
ित्व	-3364
िलास	-3365
▁अर्ज	-3366
▁रमेश	-3367
▁आगामी	-3368
▁घूम	-3369
्रेशन	-3370
▁पाली	-3371
▁मांगी	-3372
▁विशाल	-3373
▁विश्वास	-3374
व्यू	-3375
▁कथा	-3376
▁डॉलर	-3377
▁हमारा	-3378
▁रेट	-3379
▁स्पी	-3380
▁भावना	-3381
▁वितरण	-3382
▁सलमान	-3383
▁साबित	-3384
▁स्टैंड	-3385
▁अत	-3386
▁मच	-3387
▁जोन	-3388
▁पड़ता	-3389
▁संदेश	-3390
▁साउ	-3391
▁पसंद	-3392
▁पैदा	-3393
▁उठाया	-3394
▁अनुमान	-3395
▁करवाने	-3396
डर	-3397
धपुर	-3398
▁किरा	-3399
▁दवा	-3400
▁नशे	-3401
▁बुल	-3402
▁अकाउंट	-3403
▁90	-3404
ल्ला	-3405
▁अर्थ	-3406
▁उतार	-3407
▁गार्ड	-3408
▁तीसरी	-3409
▁नाथ	-3410
▁माध	-3411
मर	-3412
िनेट	-3413
▁सोच	-3414
▁हिम	-3415
▁विस्तार	-3416
▁एप	-3417
▁दस	-3418
बारा	-3419
▁क्लब	-3420
ेलन	-3421
▁आती	-3422
▁एंट	-3423
▁2025	-3424
िड़	-3425
बादी	-3426
▁आजा	-3427
▁प्रबंध	-3428
▁चंडीगढ़	-3429
▁इंडस्ट्री	-3430
▁CM	-3431
▁गोद	-3432
▁आतंक	-3433
▁सेंट	-3434
ेन्द्र	-3435
▁चुनौती	-3436
गु	-3437
▁कने	-3438
िमा	-3439
▁ओम	-3440
▁वॉ	-3441
िफ्ट	-3442
▁भ्र	-3443
▁श्याम	-3444
▁फिल्मों	-3445
हण	-3446
मैन	-3447
वंत	-3448
▁तिर	-3449
▁वाय	-3450
ड़िया	-3451
▁्	-3452
म्प	-3453
▁आपकी	-3454
▁टाइम	-3455
▁जिनमें	-3456
▁जोधपुर	-3457
▁मुद्दे	-3458
ur	-3459
ंदे	-3460
▁मिट	-3461
▁हंग	-3462
ेक्टर	-3463
▁खाने	-3464
▁चाहता	-3465
▁बढ़ने	-3466
▁भुगतान	-3467
▁इंटरव्यू	-3468
ंडर	-3469
▁शही	-3470
▁हालात	-3471
ेमारी	-3472
▁सलाह	-3473
▁हाईवे	-3474
▁प्रमाण	-3475
▁संघर्ष	-3476
▁छापेमारी	-3477
णसी	-3478
▁टिप	-3479
▁पुन	-3480
▁पॉल	-3481
▁नक्स	-3482
▁विमान	-3483
▁घायलों	-3484
णि	-3485
▁निर्म	-3486
▁वाराणसी	-3487
▁समीक्षा	-3488
▁शेख	-3489
▁इजरा	-3490
▁दूरी	-3491
▁विभा	-3492
वासियों	-3493
▁एफआईआर	-3494
▁कू	-3495
गणना	-3496
▁बिल्ड	-3497
िवार	-3498
▁गुजर	-3499
▁इंस्प	-3500
▁हिंसा	-3501
▁राजस्व	-3502
िमी	-3503
▁चाक	-3504
▁खड़ी	-3505
▁मॉडल	-3506
▁साउथ	-3507
▁प्रभा	-3508
▁वोटिंग	-3509
▁स्वामी	-3510
am	-3511
▁75	-3512
▁टो	-3513
▁प्यार	-3514
▁निशाना	-3515
▁चिकित्स	-3516
▁योजनाओं	-3517
▁कैब	-3518
▁पारा	-3519
▁पुरानी	-3520
ानि	-3521
्वी	-3522
ड्डा	-3523
▁इंच	-3524
दिग्ध	-3525
▁रद्द	-3526
▁फैक्ट	-3527
▁लक्ष्मी	-3528
▁ऑस्ट्रेलिया	-3529
सु	-3530
घाटन	-3531
▁धाम	-3532
▁पोर्ट	-3533
राष्ट्रीय	-3534
ंती	-3535
▁बादल	-3536
▁नियुक्त	-3537
▁संदिग्ध	-3538
.2	-3539
▁रूस	-3540
▁वास	-3541
▁फ्ला	-3542
▁फुटेज	-3543
▁स्थापना	-3544
▁इंटरनेशनल	-3545
ार्व	-3546
▁अच्छे	-3547
▁एसडीएम	-3548
▁खी	-3549
फॉर्म	-3550
▁ईरान	-3551
▁बल्ले	-3552
▁कप्तान	-3553
▁सकेंगे	-3554
घटना	-3555
▁फैल	-3556
▁ठेके	-3557
▁यूनिट	-3558
▁दुर्घटना	-3559
▁दह	-3560
▁सेक	-3561
▁भीतर	-3562
▁समाप्त	-3563
ोजक	-3564
▁कानपुर	-3565
▁भीषण	-3566
▁वृद्धि	-3567
▁विशेषज्ञ	-3568
्रेड	-3569
▁कोटा	-3570
▁रानी	-3571
▁यात्री	-3572
▁सर्विस	-3573
यं	-3574
▁रुक	-3575
▁चेता	-3576
▁नर्स	-3577
▁लेना	-3578
▁विकसित	-3579
▁सम्मेलन	-3580
दल	-3581
▁s	-3582
सीय	-3583
▁ओल	-3584
पीएस	-3585
▁तार	-3586
▁भरो	-3587
▁हित	-3588
▁चलाया	-3589
करा	-3590
▁डेढ़	-3591
▁शिकार	-3592
▁नेट	-3593
▁राठ	-3594
▁रांची	-3595
▁अंतरराष्ट्रीय	-3596
▁जू	-3597
▁स्ट्र	-3598
▁जबर	-3599
▁उपाय	-3600
▁टैक्स	-3601
भाष	-3602
▁लू	-3603
स्तर	-3604
▁स्टेड	-3605
▁गांवों	-3606
▁बम	-3607
▁रहीं	-3608
▁वकील	-3609
▁सत्य	-3610
▁कार्यकाल	-3611
▁अतिक	-3612
▁डाला	-3613
▁सार्व	-3614
▁अध्यक्षता	-3615
स्टल	-3616
िंदर	-3617
▁गठन	-3618
▁गुल	-3619
▁पवन	-3620
▁खुशी	-3621
▁स्वीकार	-3622
मित	-3623
▁संगी	-3624
▁सोना	-3625
▁हटाने	-3626
▁नज	-3627
केशन	-3628
्यास	-3629
▁चार्ज	-3630
दिन	-3631
▁आंख	-3632
▁द्व	-3633
▁होनी	-3634
▁राजेंद्र	-3635
र्जन	-3636
वाला	-3637
▁साज	-3638
▁स्वतंत्र	-3639
लब	-3640
नाम	-3641
▁जस	-3642
धिकार	-3643
▁आक्र	-3644
▁उद्घाटन	-3645
▁स्टेडियम	-3646
द्रा	-3647
पुरी	-3648
▁बजकर	-3649
▁ियों	-3650
▁कैमरे	-3651
▁जुर्म	-3652
नाड	-3653
ंपिक	-3654
▁गरीब	-3655
▁फैंस	-3656
स्टेबल	-3657
▁शहरों	-3658
▁स्वच्छ	-3659
▁अतिक्रमण	-3660
▁कथ	-3661
▁महास	-3662
▁लड़ाई	-3663
▁सुरेश	-3664
▁महोत्सव	-3665
.30	-3666
वेद	-3667
▁ऊंच	-3668
▁दोबारा	-3669
▁बढ़ावा	-3670
▁श्रद्धालुओं	-3671
हाद	-3672
िपल	-3673
▁अरब	-3674
▁2014	-3675
▁आखिर	-3676
▁सूरज	-3677
▁बीमार	-3678
▁सोरेन	-3679
▁मीटिंग	-3680
:30	-3681
न्द	-3682
▁अके	-3683
▁प्रे	-3684
ोग्राम	-3685
▁आशंका	-3686
▁चाहती	-3687
▁पंडित	-3688
▁शानदार	-3689
▁पुरस्कार	-3690
ंदन	-3691
धीश	-3692
त्मा	-3693
▁आंध	-3694
▁एरिया	-3695
▁दिनेश	-3696
▁विष्ण	-3697
▁पदों	-3698
▁सख्त	-3699
पिता	-3700
▁News	-3701
▁जिन्हें	-3702
.6	-3703
्मण	-3704
▁कठ	-3705
▁तु	-3706
▁कराए	-3707
▁दर्द	-3708
▁विज्ञान	-3709
▁नियुक्ति	-3710
वली	-3711
▁नाय	-3712
▁सौर	-3713
▁सिन्	-3714
डेट	-3715
▁डो	-3716
जनिक	-3717
स्थल	-3718
▁सार्वजनिक	-3719
ol	-3720
▁तस्कर	-3721
▁इंस्पेक्टर	-3722
-20	-3723
ंगर	-3724
▁नती	-3725
▁मिशन	-3726
▁मौजू	-3727
▁जगहों	-3728
ाइड	-3729
▁इक	-3730
▁बध	-3731
▁एक्शन	-3732
ंटर	-3733
▁सीता	-3734
▁लाखों	-3735
han	-3736
ष्टा	-3737
▁नारे	-3738
▁अखिलेश	-3739
▁मौजूदा	-3740
ारण	-3741
▁खर	-3742
▁मस्	-3743
▁यश	-3744
▁नियमों	-3745
▁सका	-3746
▁जानिए	-3747
▁लड़के	-3748
▁कैबिनेट	-3749
▁संस्कार	-3750
▁समस्याओं	-3751
▁अपराधियों	-3752
▁गह	-3753
▁कोह	-3754
चुनाव	-3755
▁गौतम	-3756
टका	-3757
▁कुश	-3758
▁सुल	-3759
▁वेतन	-3760
▁कारोबार	-3761
▁प्रारंभ	-3762
ढ़े	-3763
सेज	-3764
काने	-3765
▁नहर	-3766
▁शास	-3767
▁आपका	-3768
▁दरवा	-3769
▁मिलती	-3770
▁संजीव	-3771
▁अफसरों	-3772
▁मेट	-3773
▁क्लास	-3774
▁प्रवक्ता	-3775
▁पंक	-3776
धियाना	-3777
▁चलाने	-3778
▁प्रोफे	-3779
▁सिन्हा	-3780
▁लुधियाना	-3781
▁सांस्कृत	-3782
▁मनो	-3783
▁दिवसीय	-3784
▁पथ	-3785
▁असम	-3786
▁मैन	-3787
प्रीत	-3788
ब्लिक	-3789
▁विनोद	-3790
▁सुंदर	-3791
▁दिव्या	-3792
▁पहुंचाया	-3793
ंसर	-3794
नाटक	-3795
▁विज	-3796
▁2020	-3797
▁फॉर्म	-3798
▁जस्ट	-3799
▁धरना	-3800
▁लाइट	-3801
▁चारों	-3802
▁कर्नाटक	-3803
लान	-3804
▁माय	-3805
▁लिम	-3806
▁अरुण	-3807
▁आबादी	-3808
▁चांदी	-3809
▁बातें	-3810
▁महेंद्र	-3811
▁प्रोफेसर	-3812
▁चपेट	-3813
▁छोटी	-3814
▁चेतावनी	-3815
▁पश्चिमी	-3816
▁सांस्कृतिक	-3817
काम	-3818
ाइट	-3819
ेंगी	-3820
▁दाम	-3821
▁नवीन	-3822
▁मंजू	-3823
▁अनुभव	-3824
▁हल्की	-3825
तक	-3826
यत	-3827
जोर	-3828
▁सन	-3829
कर्मी	-3830
▁दलों	-3831
▁पेंशन	-3832
सीसी	-3833
▁अंडर	-3834
▁अनुप	-3835
▁चोरों	-3836
▁ट्रंप	-3837
▁उत्साह	-3838
▁विदेशी	-3839
▁आदिवासी	-3840
▁मध	-3841
गरानी	-3842
▁एंट्री	-3843
▁शौ	-3844
▁खुले	-3845
▁निकाली	-3846
एक	-3847
ॉम	-3848
▁55	-3849
▁PM	-3850
▁पलट	-3851
▁मुक्त	-3852
बीन	-3853
ानु	-3854
▁डूब	-3855
▁चाकू	-3856
▁पंकज	-3857
▁ऊर्जा	-3858
▁उपचुनाव	-3859
▁ट्रांसफर	-3860
कारा	-3861
तरीय	-3862
▁इसरा	-3863
▁भाषा	-3864
▁निगरानी	-3865
▁व्	-3866
म्बर	-3867
▁इंग	-3868
▁साहिब	-3869
फल	-3870
▁कच	-3871
▁कंग	-3872
▁मेर	-3873
▁गोरख	-3874
▁समझौ	-3875
▁भक्तों	-3876
▁योगदान	-3877
▁विष्णु	-3878
ौड़	-3879
्रह	-3880
फान	-3881
र्ण	-3882
▁बैग	-3883
▁घटनास्थल	-3884
▁गतिविधियों	-3885
.1	-3886
.3	-3887
.7	-3888
.8	-3889
▁घट	-3890
▁बाई	-3891
▁कपड़े	-3892
▁काउंस	-3893
▁रास्ता	-3894
पद	-3895
ेटर	-3896
▁आयु	-3897
▁गैस	-3898
▁बधाई	-3899
▁स्तरीय	-3900
▁बाय	-3901
▁बेस	-3902
ुल्ला	-3903
▁निरा	-3904
▁बोला	-3905
▁राजकुमार	-3906
साइड	-3907
▁गुण	-3908
राबाद	-3909
▁समान	-3910
▁सारे	-3911
▁सुभाष	-3912
नन	-3913
▁गर	-3914
गांव	-3915
ुलेंस	-3916
▁धोखा	-3917
▁भव्य	-3918
▁सैनिक	-3919
▁संकल्प	-3920
▁कंट्रोल	-3921
तो	-3922
▁300	-3923
▁गायब	-3924
▁पंजी	-3925
▁प्रयोग	-3926
इड	-3927
▁घे	-3928
ाराम	-3929
▁झां	-3930
▁मुर	-3931
▁ट्रॉ	-3932
▁बचाव	-3933
▁प्राण	-3934
▁प्रतिनिध	-3935
it	-3936
वासन	-3937
▁सिया	-3938
▁कर्मी	-3939
▁इन्हें	-3940
लीय	-3941
▁तृ	-3942
▁लल	-3943
▁400	-3944
▁आर्ट	-3945
▁मस्ज	-3946
▁टिप्प	-3947
▁प्रोड	-3948
▁क्राइम	-3949
चिव	-3950
▁रोल	-3951
र्में	-3952
स्ट्र	-3953
फ्रेंस	-3954
स्कृति	-3955
▁एनडीए	-3956
▁स्वयं	-3957
▁बिक्री	-3958
▁संस्कृति	-3959
▁नजदी	-3960
▁मेहन	-3961
▁कैप	-3962
▁गैर	-3963
▁परम	-3964
▁मानसिक	-3965
▁हंगामा	-3966
▁!	-3967
▁आना	-3968
▁निकला	-3969
▁निशान	-3970
▁ससुराल	-3971
▁फैक्ट्री	-3972
▁स्‍	-3973
▁देती	-3974
▁फ्री	-3975
ैट	-3976
▁घोट	-3977
▁आकर्	-3978
▁जीतने	-3979
▁पांडे	-3980
▁परिवहन	-3981
▁सुसाइड	-3982
▁झग	-3983
▁कौशल	-3984
▁उत्सव	-3985
▁वर्षा	-3986
▁साढ़े	-3987
▁छठ	-3988
कृति	-3989
हारी	-3990
▁ईडी	-3991
▁मुज	-3992
स्थिति	-3993
▁लगाते	-3994
ंपरा	-3995
साइट	-3996
ृत्य	-3997
▁लिमिट	-3998
क्न	-3999
ेयर	-4000
▁उज्जैन	-4001
▁कश्मीर	-4002
▁पर्यावरण	-4003
ोलॉ	-4004
▁198	-4005
▁खार	-4006
▁भूप	-4007
▁अग्न	-4008
▁लड़क	-4009
▁गोल्ड	-4010
▁चौराह	-4011
▁व्यापारी	-4012
▁i	-4013
्तीय	-4014
▁अपर	-4015
▁एडम	-4016
▁कैला	-4017
▁बोली	-4018
▁ब्रे	-4019
▁सुनाई	-4020
▁श्रीवा	-4021
▁वित्तीय	-4022
▁विभागों	-4023
कू	-4024
▁इन्	-4025
▁भरत	-4026
▁हरी	-4027
▁इंडियन	-4028
▁सूत्रों	-4029
▁38	-4030
▁चतु	-4031
▁श्रीवास्तव	-4032
▁फल	-4033
बद्ध	-4034
▁सब्	-4035
▁होम	-4036
▁वर्क	-4037
▁आएंगे	-4038
▁परंपरा	-4039
ईओ	-4040
▁छूट	-4041
▁रिश	-4042
िनियम	-4043
▁अर्जुन	-4044
▁आचार्य	-4045
▁46	-4046
▁कानूनी	-4047
धिकारियों	-4048
टरी	-4049
सवाल	-4050
▁शोर	-4051
▁इनकी	-4052
▁कहती	-4053
▁महेश	-4054
▁उनमें	-4055
▁हिंदी	-4056
▁हजारों	-4057
▁श्रीराम	-4058
▁शख	-4059
▁काे	-4060
▁खोज	-4061
▁काबू	-4062
▁किशन	-4063
▁कब्जा	-4064
▁पकड़े	-4065
▁चेयरमैन	-4066
as	-4067
▁भारती	-4068
▁वापसी	-4069
▁डीएसपी	-4070
▁अधिनियम	-4071
▁भ्रष्टा	-4072
ोसी	-4073
▁आश्	-4074
▁जाट	-4075
दर्शन	-4076
▁कमाई	-4077
▁दौड़	-4078
▁बताए	-4079
श्त	-4080
्लो	-4081
▁मंज	-4082
▁एमपी	-4083
स्त्री	-4084
▁बॉक्स	-4085
▁मेहनत	-4086
▁वेबसाइट	-4087
▁प्रियंका	-4088
ad	-4089
घा	-4090
▁शहीद	-4091
▁सीधे	-4092
▁अक्सर	-4093
▁कमजोर	-4094
▁केन्द्र	-4095
▁प्रिंसिपल	-4096
पता	-4097
▁लागत	-4098
▁विधाय	-4099
घर	-4100
ंवर	-4101
ंदाज	-4102
▁रोग	-4103
▁खेला	-4104
▁दर्श	-4105
▁विधि	-4106
▁व्यापार	-4107
बन	-4108
सेस	-4109
▁एडी	-4110
▁अनुर	-4111
▁आगरा	-4112
▁हवाई	-4113
▁कोहली	-4114
▁मुकाबला	-4115
▁एडव	-4116
▁तिल	-4117
▁इंग्ल	-4118
▁हाथों	-4119
▁डिजाइन	-4120
▁दिखाया	-4121
▁संरक्षण	-4122
▁मानव	-4123
▁रिया	-4124
un	-4125
▁लें	-4126
विंदर	-4127
▁इतने	-4128
▁चैंप	-4129
▁खाद्य	-4130
▁प्रती	-4131
▁हिसाब	-4132
▁राज्यपाल	-4133
▁पासवान	-4134
▁आवश्यकता	-4135
नाक	-4136
सूस	-4137
स्सा	-4138
▁भंड	-4139
▁जुटी	-4140
▁दुर्ग	-4141
▁पांडेय	-4142
▁मतदाता	-4143
रोज	-4144
▁पुण	-4145
▁जैसा	-4146
▁अपडेट	-4147
▁कैलाश	-4148
▁शूटिंग	-4149
▁आश्वासन	-4150
गन	-4151
रेज	-4152
ूर्त	-4153
▁उचित	-4154
▁दिग्	-4155
▁पदार्थ	-4156
▁पूर्वी	-4157
▁श्रेणी	-4158
▁घरे	-4159
▁गर्म	-4160
▁चक्र	-4161
▁जीता	-4162
▁वेस्ट	-4163
र्त	-4164
▁ऑड	-4165
एसआई	-4166
▁शब्	-4167
▁निष्	-4168
▁रणनी	-4169
▁प्लांट	-4170
▁फ्लाइट	-4171
दिक	-4172
▁ओड	-4173
ड्डी	-4174
▁खून	-4175
▁नित	-4176
▁चौरा	-4177
▁भोजन	-4178
▁दिक	-4179
▁सैक	-4180
तायात	-4181
▁दोषी	-4182
▁प्रस	-4183
▁ममता	-4184
▁सिने	-4185
▁ट्रैक	-4186
▁संयोजक	-4187
▁मुद्दों	-4188
▁प्रतिबंध	-4189
ांश	-4190
▁..	-4191
▁लाश	-4192
▁अवधि	-4193
▁घरेलू	-4194
▁यातायात	-4195
यी	-4196
▁डू	-4197
क्षी	-4198
▁बुरी	-4199
▁तुलना	-4200
▁मतगणना	-4201
▁मस्जिद	-4202
▁लेख	-4203
▁सिम	-4204
▁स्कोर	-4205
▁महासचिव	-4206
▁साथियों	-4207
चंद	-4208
▁42	-4209
▁मुआ	-4210
▁जनरल	-4211
▁बनकर	-4212
▁विवेक	-4213
चक	-4214
स्म	-4215
▁44	-4216
ानगर	-4217
▁करण	-4218
▁लंबी	-4219
▁निकली	-4220
▁राउंड	-4221
▁सीबीआई	-4222
▁प्रतिनिधि	-4223
ौज	-4224
िले	-4225
▁दूध	-4226
▁मेन	-4227
▁बढ़ो	-4228
▁श्रम	-4229
इंट	-4230
▁चीज	-4231
▁जाएं	-4232
▁पायल	-4233
▁गिरने	-4234
ियत	-4235
▁कैद	-4236
▁नशा	-4237
िकेशन	-4238
▁अश्व	-4239
▁टाटा	-4240
▁दुबे	-4241
▁मेला	-4242
▁इनकार	-4243
▁पत्थर	-4244
▁अमन	-4245
▁ध्व	-4246
हत्या	-4247
▁आशीष	-4248
▁दीवार	-4249
▁मुद्दा	-4250
▁आत्महत्या	-4251
ित्त	-4252
▁बॉल	-4253
▁विरा	-4254
▁संभव	-4255
▁जस्टिस	-4256
▁निकलने	-4257
▁पक्षों	-4258
▁ट्रेनिंग	-4259
▁जिलाध्यक्ष	-4260
ाकर	-4261
रेस्ट	-4262
▁दावे	-4263
▁मोर्चा	-4264
▁लिमिटेड	-4265
▁विधायकों	-4266
ग्न	-4267
प्प	-4268
▁ढा	-4269
▁जुल	-4270
▁हर्ष	-4271
▁अजमेर	-4272
▁हेमंत	-4273
▁शुक्ला	-4274
▁सामग्री	-4275
▁भ्रष्टाचार	-4276
ce	-4277
▁ि	-4278
क्‍	-4279
ल्थ	-4280
ट्यू	-4281
▁इस्तीफा	-4282
▁राज्यसभा	-4283
▁(3	-4284
▁चीफ	-4285
▁नील	-4286
▁बड़	-4287
▁बेल	-4288
▁वसू	-4289
कृष्ण	-4290
▁बरसा	-4291
▁शख्स	-4292
▁बढ़ती	-4293
▁ट्रस्ट	-4294
शोध	-4295
वाड़ी	-4296
▁अहमद	-4297
ज्ञानिक	-4298
▁गोरखपुर	-4299
▁उल	-4300
फिया	-4301
▁प्रण	-4302
▁मेडल	-4303
▁जबलपुर	-4304
▁नियमित	-4305
▁निरीक्षक	-4306
दीय	-4307
▁ऑल	-4308
▁ऐलान	-4309
▁कथित	-4310
▁दुष्	-4311
▁मेले	-4312
▁साझा	-4313
▁बढ़कर	-4314
▁महसूस	-4315
ट्र	-4316
▁छत	-4317
िन्द	-4318
्योर	-4319
▁पाने	-4320
▁प्रदर्श	-4321
.0	-4322
hi	-4323
गाह	-4324
दास	-4325
▁ओं	-4326
▁पाइ	-4327
▁आयुष	-4328
▁मुजफ्	-4329
▁प्रशासनिक	-4330
▁गोयल	-4331
▁बीएस	-4332
▁कैंसर	-4333
▁खारिज	-4334
▁कुलदीप	-4335
▁नियंत्रण	-4336
दक	-4337
ब्र	-4338
▁रुख	-4339
▁आकाश	-4340
भो	-4341
ायी	-4342
ेडकर	-4343
▁महतो	-4344
▁दिक्क	-4345
▁बेचने	-4346
▁प्रकरण	-4347
▁दुकानों	-4348
▁तमिल	-4349
▁मारे	-4350
▁न्यायाधीश	-4351
ीप	-4352
िलंब	-4353
▁ताल	-4354
▁मंग	-4355
▁सेट	-4356
▁खेती	-4357
▁पड़ेगा	-4358
▁तेजस्वी	-4359
मोह	-4360
▁एका	-4361
▁2018	-4362
▁महाप	-4363
▁मारा	-4364
▁लापता	-4365
▁शिफ्ट	-4366
▁हड़ताल	-4367
▁छात्राओं	-4368
▁जख	-4369
आईटी	-4370
▁दौरे	-4371
▁डिजिटल	-4372
घु	-4373
har	-4374
▁आरा	-4375
▁छोटा	-4376
▁जाया	-4377
▁होली	-4378
्योहार	-4379
▁विद्या	-4380
ृज	-4381
▁39	-4382
▁माइ	-4383
▁गुना	-4384
ब्ल्यू	-4385
▁ओडिशा	-4386
▁एक्टिव	-4387
▁ज्यादातर	-4388
फ्ते	-4389
▁धूप	-4390
▁पोर्टल	-4391
▁मुजफ्फर	-4392
ंतर	-4393
▁आर्	-4394
▁रूट	-4395
▁मतलब	-4396
रेन्द्र	-4397
▁पब्लिक	-4398
▁बिल्डिंग	-4399
▁एश	-4400
▁यूज	-4401
▁ग्रा	-4402
नामेंट	-4403
▁मैचों	-4404
▁पार्किंग	-4405
▁मतदाताओं	-4406
▁in	-4407
हिता	-4408
▁अधिव	-4409
▁टूर्	-4410
▁लाइस	-4411
ड़ियां	-4412
▁अभिने	-4413
▁विहार	-4414
▁अपराधी	-4415
▁बीमारी	-4416
▁संहिता	-4417
▁नागरिकों	-4418
▁टूर्नामेंट	-4419
चर्स	-4420
▁यूक	-4421
स्थाप	-4422
ाइयों	-4423
▁संकट	-4424
▁ड्रोन	-4425
▁भरोसा	-4426
▁समापन	-4427
▁हफ्ते	-4428
▁आक्रोश	-4429
▁प्रतिभा	-4430
▁प्रार्थ	-4431
el	-4432
मो	-4433
▁आह	-4434
वाड़	-4435
▁डिट	-4436
▁चाहे	-4437
▁जोशी	-4438
▁साजिश	-4439
5)	-4440
श्म	-4441
▁ठग	-4442
▁फते	-4443
▁केरल	-4444
▁बढ़े	-4445
▁मारकर	-4446
▁टिप्पणी	-4447
▁जिम्मेदार	-4448
▁पदाधिकारियों	-4449
रेली	-4450
▁आईपी	-4451
▁रखना	-4452
▁जयंती	-4453
▁एग्जाम	-4454
▁पुष्टि	-4455
▁मास्टर	-4456
▁एक्सपर्ट	-4457
नीत	-4458
रीय	-4459
्रल	-4460
▁65	-4461
▁नक्सल	-4462
▁विराट	-4463
▁मैनेजर	-4464
रीन	-4465
▁आसान	-4466
▁दौरा	-4467
▁ब्रह	-4468
▁राधा	-4469
▁सौंपा	-4470
▁किरदार	-4471
▁गोविंद	-4472
▁सिनेमा	-4473
▁मान्यता	-4474
ंडे	-4475
क्चर	-4476
▁अना	-4477
▁नाल	-4478
▁आर्य	-4479
▁चित्र	-4480
▁गुर्जर	-4481
▁चौराहे	-4482
▁प्रश्न	-4483
▁विद्युत	-4484
पात	-4485
पूत	-4486
▁पीठ	-4487
▁फंस	-4488
▁भरी	-4489
▁सकी	-4490
▁हैद	-4491
ोलॉजी	-4492
▁गिरी	-4493
▁मारी	-4494
▁वोटर	-4495
▁मैसेज	-4496
▁अंग्रे	-4497
▁बढ़ोतरी	-4498
▁प्रावधान	-4499
▁प्रस्तुति	-4500
▁पव	-4501
▁कना	-4502
▁कवि	-4503
▁मूवी	-4504
▁बिलास	-4505
▁पड़ोसी	-4506
▁जागरूकता	-4507
वै	-4508
गेट	-4509
प्त	-4510
▁झु	-4511
▁लीक	-4512
▁उसको	-4513
▁निर्द	-4514
▁तकनीकी	-4515
▁शुरुआती	-4516
गज	-4517
मैं	-4518
ेदी	-4519
▁In	-4520
▁रखें	-4521
▁विजे	-4522
▁हिसार	-4523
▁मूर्ति	-4524
▁परिवारों	-4525
▁बिलासपुर	-4526
▁वैज्ञानिक	-4527
▁थानाध्यक्ष	-4528
जात	-4529
▁गे	-4530
▁शक	-4531
▁इच्छ	-4532
▁तनाव	-4533
▁बदले	-4534
▁लड़ा	-4535
▁लेंगे	-4536
▁कार्यवाही	-4537
▁प्रतिष्ठा	-4538
गीर	-4539
▁शर	-4540
▁गड़	-4541
▁भड़	-4542
▁अल्प	-4543
▁उठाए	-4544
▁कुर्	-4545
▁स्वर	-4546
▁कंगना	-4547
▁जुड़ा	-4548
▁बच्चा	-4549
▁शुल्क	-4550
▁मांगों	-4551
▁दोस्तों	-4552
्वल	-4553
▁जज	-4554
▁सैन	-4555
▁सारी	-4556
▁अक्षय	-4557
▁जिसने	-4558
▁लड़ने	-4559
▁लिखित	-4560
▁रिजर्व	-4561
▁हिस्सों	-4562
▁गज	-4563
▁साव	-4564
▁उपभो	-4565
▁फेंक	-4566
▁साइक	-4567
कर्मियों	-4568
▁त्योहार	-4569
केत	-4570
▁तल	-4571
▁जीते	-4572
▁संभाल	-4573
▁रिजल्ट	-4574
▁47	-4575
▁टोल	-4576
▁लोह	-4577
कर्ता	-4578
▁राजद	-4579
▁उत्तरा	-4580
▁आपूर्ति	-4581
▁संगठनों	-4582
▁तहसीलदार	-4583
ूंगा	-4584
्‍या	-4585
▁कस्	-4586
▁नमः	-4587
▁समन	-4588
▁कहने	-4589
▁नीरज	-4590
▁जिंदगी	-4591
▁अभ्यर्थियों	-4592
ड्ढ	-4593
▁पश	-4594
▁जनपद	-4595
▁दलित	-4596
▁निधन	-4597
▁शांत	-4598
▁सचिन	-4599
▁घटनाओं	-4600
▁कारोबारी	-4601
यक	-4602
फोन	-4603
▁कैंड	-4604
▁खेले	-4605
▁लीटर	-4606
▁सकें	-4607
▁ग्राह	-4608
▁बनाना	-4609
▁शुभारंभ	-4610
ख्	-4611
्द	-4612
▁अक	-4613
▁चलता	-4614
▁जताया	-4615
▁हैदराबाद	-4616
▁पंप	-4617
▁सफर	-4618
र्वाद	-4619
ल्लेख	-4620
▁फाइल	-4621
▁ग्रहण	-4622
▁बेंगल	-4623
▁केंद्रों	-4624
▁कॉन्फ्रेंस	-4625
ंधर	-4626
जलि	-4627
▁फं	-4628
▁गले	-4629
▁गाज	-4630
▁वैसे	-4631
▁टेक्न	-4632
▁दर्जन	-4633
▁अर्पित	-4634
लैंड	-4635
▁पहन	-4636
▁लीड	-4637
▁सना	-4638
▁इस्ल	-4639
▁टीमों	-4640
▁फांसी	-4641
▁मानना	-4642
▁आशीर्वाद	-4643
▁जुर्माना	-4644
id	-4645
िणी	-4646
▁150	-4647
▁बाघ	-4648
▁टीचर	-4649
▁कितनी	-4650
▁जानें	-4651
▁दिलीप	-4652
▁पालिका	-4653
▁प्रयाग	-4654
▁तत्कालीन	-4655
BI	-4656
एचओ	-4657
ितीय	-4658
▁करन	-4659
▁गुम	-4660
▁पिट	-4661
▁बृज	-4662
▁सिख	-4663
▁गीता	-4664
▁उल्लेख	-4665
▁पुराना	-4666
▁क्षेत्रीय	-4667
▁स्वतंत्रता	-4668
ab	-4669
ंधे	-4670
बूर	-4671
वाय	-4672
ार्ट	-4673
▁197	-4674
▁शाखा	-4675
▁पुष्प	-4676
▁पर्यटन	-4677
▁प्राचार्य	-4678
याल	-4679
्की	-4680
▁49	-4681
▁आलम	-4682
▁जुड़	-4683
▁साहब	-4684
▁कितना	-4685
▁नृत्य	-4686
IR	-4687
▁जाह	-4688
▁नही	-4689
▁पर्	-4690
▁देखी	-4691
▁सांप	-4692
▁क्षति	-4693
▁जवानों	-4694
▁जितेंद्र	-4695
▁),	-4696
ैक्ट	-4697
▁जंग	-4698
▁काली	-4699
▁पिछली	-4700
▁आधारित	-4701
▁41	-4702
▁गेम	-4703
▁राइ	-4704
▁मोड़	-4705
▁लाइफ	-4706
▁बिगड़	-4707
▁तस्करी	-4708
ज़ा	-4709
देन	-4710
िडेट	-4711
▁जनस	-4712
▁भोग	-4713
▁हाइ	-4714
▁आवंट	-4715
▁इंजन	-4716
▁खतरा	-4717
▁संशोध	-4718
▁बिजनेस	-4719
▁सेंट्रल	-4720
▁परिवर्तन	-4721
ंख्य	-4722
▁उधर	-4723
▁चिन	-4724
▁पीने	-4725
▁हिमा	-4726
यात्रा	-4727
▁टीमें	-4728
▁विरोधी	-4729
▁प्रेरित	-4730
▁विपक्षी	-4731
▁गंज	-4732
▁वादा	-4733
▁लाइसेंस	-4734
th	-4735
▁ऐप	-4736
▁पिक	-4737
▁सदन	-4738
▁सोनू	-4739
▁कनाडा	-4740
▁देखें	-4741
▁बच्चन	-4742
▁बालिका	-4743
▁यूक्रेन	-4744
▁1,	-4745
जारी	-4746
▁सेन	-4747
▁रोका	-4748
▁बदलने	-4749
▁विक्रम	-4750
▁उत्पादन	-4751
लोड	-4752
▁IP	-4753
▁फर्	-4754
▁कोचिंग	-4755
▁पत्रकार	-4756
▁कैंडिडेट	-4757
पत्र	-4758
वाहा	-4759
▁इका	-4760
▁ओपन	-4761
▁अपहरण	-4762
▁चेहरे	-4763
▁दिलाने	-4764
बाग	-4765
्याज	-4766
▁छीन	-4767
▁जहा	-4768
▁दाय	-4769
▁पाइप	-4770
▁पौधे	-4771
▁राजू	-4772
रजेंसी	-4773
स्तानी	-4774
▁चैंपियन	-4775
ंथ	-4776
▁घा	-4777
कांत	-4778
शाली	-4779
सारी	-4780
▁मणि	-4781
वस्था	-4782
▁अफ्री	-4783
▁खरीदी	-4784
▁इसराइल	-4785
▁मंजूरी	-4786
▁जायसवाल	-4787
▁सैकड़ों	-4788
▁गाड़ियों	-4789
▁सश	-4790
tion	-4791
▁पेर	-4792
▁मचा	-4793
▁लोन	-4794
▁शोभा	-4795
प्रकाश	-4796
▁बेस्ट	-4797
▁चौराहा	-4798
▁शासकीय	-4799
▁संबंधी	-4800
ro	-4801
दीश	-4802
्रेट	-4803
▁गुट	-4804
▁नंद	-4805
▁पुत	-4806
▁पैदल	-4807
▁बढ़ी	-4808
▁रहना	-4809
▁सहमति	-4810
et	-4811
वक	-4812
▁गली	-4813
संख्य	-4814
▁आईटी	-4815
▁गाली	-4816
▁खेलने	-4817
▁तहरीर	-4818
▁मंदिरों	-4819
▁श्रद्धालु	-4820
▁प्लेटफॉर्म	-4821
▁प्रग	-4822
▁माने	-4823
▁मिमी	-4824
▁किराए	-4825
▁जल्दी	-4826
▁संपन्न	-4827
पु	-4828
यां	-4829
▁रस	-4830
▁डांस	-4831
▁नवरा	-4832
▁देवेंद्र	-4833
▁प्रयागराज	-4834
▁',	-4835
▁जिक्र	-4836
▁मजबूर	-4837
▁मांगे	-4838
▁सदस्यता	-4839
▁दुष्कर्म	-4840
▁देरी	-4841
▁मुंह	-4842
▁सतीश	-4843
▁अंदाज	-4844
▁जगदीश	-4845
▁महादेव	-4846
▁मिट्टी	-4847
▁ट्रेनों	-4848
्‍य	-4849
▁पदक	-4850
▁बोर	-4851
क्रेट	-4852
▁छेड़	-4853
▁पवार	-4854
▁मुआव	-4855
▁जिनके	-4856
▁मांगा	-4857
▁रजिस्ट्रेशन	-4858
▁महज	-4859
▁दायर	-4860
▁पर्स	-4861
▁मेरठ	-4862
▁खेड़ा	-4863
▁फोर्स	-4864
▁ब्रिट	-4865
▁भेजने	-4866
▁खरीदने	-4867
.9	-4868
▁गंग	-4869
▁वाइ	-4870
▁तमाम	-4871
▁लालू	-4872
▁सिलस	-4873
▁सीकर	-4874
▁श्रील	-4875
▁राजपूत	-4876
दु	-4877
▁51	-4878
▁ें	-4879
्तिक	-4880
▁अल्	-4881
▁कोर	-4882
धिकरण	-4883
▁नरेश	-4884
▁भरने	-4885
▁गिरोह	-4886
▁महाकाल	-4887
▁रथ	-4888
▁FIR	-4889
▁एटी	-4890
▁ज़र	-4891
▁बंट	-4892
▁बहस	-4893
▁किरण	-4894
▁भागने	-4895
▁संगीत	-4896
▁हेल्थ	-4897
▁अंसारी	-4898
▁पड़ताल	-4899
▁ग्राउंड	-4900
▁नाराजगी	-4901
▁निकालने	-4902
▁{	-4903
▁ग़	-4904
डिंग	-4905
▁आइए	-4906
द्दीन	-4907
▁56	-4908
एसटी	-4909
पाठी	-4910
▁विप	-4911
▁नेहर	-4912
▁मीना	-4913
▁लाठी	-4914
▁सौरभ	-4915
▁टाइगर	-4916
▁फाउंड	-4917
▁सुनकर	-4918
▁जालंधर	-4919
▁कार्तिक	-4920
▁ठेकेदार	-4921
▁महाविद्यालय	-4922
▁इश	-4923
सराय	-4924
▁इंट	-4925
▁जीव	-4926
▁भरे	-4927
▁लीग	-4928
▁रोहत	-4929
▁ग्रीन	-4930
▁नजदीक	-4931
▁प्रजा	-4932
▁प्रभु	-4933
▁बस्ती	-4934
▁रात्रि	-4935
हल	-4936
▁सैल	-4937
▁राजकीय	-4938
▁विकल्प	-4939
▁मुहूर्त	-4940
रस	-4941
▁43	-4942
▁भि	-4943
▁पशु	-4944
सलमान	-4945
▁पुरी	-4946
▁बहाद	-4947
▁दिक्कत	-4948
▁प्रगति	-4949
▁मेट्रो	-4950
▁श्रीलंका	-4951
▁इलेक्ट्रिक	-4952
▁गीत	-4953
▁ज्व	-4954
▁फरी	-4955
त्साह	-4956
▁रहें	-4957
▁रेंज	-4958
▁हुईं	-4959
▁आदर्श	-4960
▁भक्ति	-4961
▁निर्मा	-4962
मक	-4963
lec	-4964
▁कं	-4965
▁धूम	-4966
▁बजाय	-4967
▁बाड़	-4968
▁महीनों	-4969
▁रोजाना	-4970
▁साइकिल	-4971
कारात्मक	-4972
राधिक	-4973
▁टीवी	-4974
▁मात्रा	-4975
▁हिमाचल	-4976
▁आपराधिक	-4977
▁त्रिपाठी	-4978
▁नै	-4979
्यूल	-4980
▁अने	-4981
▁औसत	-4982
▁सार	-4983
▁2017	-4984
▁पाठक	-4985
▁इंग्लैंड	-4986
्ति	-4987
▁इव	-4988
▁मस	-4989
वरों	-4990
▁आशा	-4991
▁केश	-4992
▁गहरा	-4993
▁निपट	-4994
▁एएसआई	-4995
▁बिल्क	-4996
▁मैनेज	-4997
▁रोहतक	-4998
▁वसूली	-4999
ंघन	-5000
ष्टमी	-5001
▁दीपा	-5002
ग्रस्त	-5003
▁आंध्र	-5004
▁कैमरा	-5005
▁होंगी	-5006
िक्रिया	-5007
▁पकड़ने	-5008
▁इमरजेंसी	-5009
▁प्रतिक्रिया	-5010
▁सॉ	-5011
▁चैन	-5012
▁जाप	-5013
▁अस्थ	-5014
▁उल्ल	-5015
▁ग्रे	-5016
▁टकरा	-5017
▁महंत	-5018
▁सराह	-5019
▁सुझा	-5020
▁टेंडर	-5021
▁नेहरू	-5022
▁आरोपों	-5023
▁रिमांड	-5024
▁पहुंचाने	-5025
▁स्वच्छता	-5026
▁फंड	-5027
▁अब्द	-5028
▁जबरद	-5029
▁बचने	-5030
▁राणा	-5031
▁आश्रम	-5032
▁तीसरा	-5033
▁थोड़ी	-5034
▁कनेक्शन	-5035
▁बिल्कुल	-5036
▁प्राधिकरण	-5037
झी	-5038
र्टी	-5039
सीना	-5040
▁हेत	-5041
▁एकाद	-5042
▁डेटा	-5043
▁नायब	-5044
▁रक्त	-5045
▁सिंघ	-5046
छात्रा	-5047
▁संभाग	-5048
▁सकेगा	-5049
▁करोड़ों	-5050
▁व्यवसाय	-5051
▁बेंगलुरु	-5052
▁धु	-5053
▁फे	-5054
▁हॉल	-5055
पूर्व	-5056
▁गड़ब	-5057
▁तेंद	-5058
▁भाषण	-5059
▁रावत	-5060
▁बढ़ते	-5061
▁बॉर्डर	-5062
एडा	-5063
▁एंब	-5064
▁फोर	-5065
▁विरु	-5066
▁कितने	-5067
▁शीर्ष	-5068
▁प्रोत्साह	-5069
जब	-5070
▁मप्र	-5071
▁रखकर	-5072
▁तीर्थ	-5073
▁नोएडा	-5074
▁बैटरी	-5075
▁संवाद	-5076
▁संसदीय	-5077
▁मुसलमान	-5078
गो	-5079
मेट	-5080
मोहन	-5081
▁झूठ	-5082
फार्म	-5083
▁इंद्र	-5084
▁निलंब	-5085
▁आपत्ति	-5086
▁आदित्यनाथ	-5087
▁खाद	-5088
▁गार	-5089
▁एशिया	-5090
▁तलाशी	-5091
▁वोटों	-5092
्वत	-5093
▁ओपी	-5094
▁कृष्	-5095
▁गिरि	-5096
िश्नोई	-5097
▁अनुरा	-5098
▁इंस्टा	-5099
▁बिश्नोई	-5100
▁विरुद्ध	-5101
▁लोकतंत्र	-5102
ंश	-5103
▁बिर	-5104
▁संसा	-5105
▁मृत्यु	-5106
▁रिसर्च	-5107
▁दुकानदार	-5108
▁महामंत्री	-5109
कट	-5110
ोंक	-5111
नाडु	-5112
▁उदा	-5113
▁खनन	-5114
▁साय	-5115
वर्धन	-5116
▁एंटी	-5117
▁इवेंट	-5118
▁किताब	-5119
▁प्रेमी	-5120
ार्टमेंट	-5121
▁अल्पसंख्य	-5122
▁01	-5123
▁आजम	-5124
▁मुझ	-5125
▁आजाद	-5126
▁जूनियर	-5127
▁रिश्वत	-5128
▁द्वितीय	-5129
काया	-5130
▁बाब	-5131
▁मधु	-5132
कानेर	-5133
▁समीप	-5134
▁देशभर	-5135
▁मृतका	-5136
▁कारणों	-5137
▁उल्लंघन	-5138
ंपल	-5139
धड़ी	-5140
्रीट	-5141
▁गठित	-5142
▁हेतु	-5143
▁जख्मी	-5144
▁नेपाल	-5145
▁डिमांड	-5146
आरपी	-5147
▁कैश	-5148
▁आएगी	-5149
▁पढ़ने	-5150
▁मिश्र	-5151
▁अमृतसर	-5152
▁अरेस्ट	-5153
▁तमिलनाडु	-5154
▁दिव्यांग	-5155
▁नरेन्द्र	-5156
▁सुरेंद्र	-5157
-3	-5158
दो	-5159
एससी	-5160
▁डें	-5161
सिद्ध	-5162
▁कांड	-5163
▁काला	-5164
▁ताकत	-5165
▁तुलसी	-5166
▁एकादशी	-5167
▁पूर्णिमा	-5168
जनक	-5169
▁58	-5170
▁पृ	-5171
▁बट	-5172
▁विल	-5173
श्विक	-5174
▁बुरा	-5175
▁भट्ट	-5176
▁लैंड	-5177
ंत्रित	-5178
▁पायलट	-5179
▁ब्रेक	-5180
▁पटवारी	-5181
▁वैश्विक	-5182
▁निर्दलीय	-5183
is	-5184
▁धीरे	-5185
▁पीजी	-5186
▁जिंदा	-5187
तिहासिक	-5188
▁नर्सिंग	-5189
▁बीकानेर	-5190
▁बल्लेबाज	-5191
जिए	-5192
▁(4	-5193
▁ऑफर	-5194
▁सच्च	-5195
▁सर्क	-5196
▁आकर्ष	-5197
▁चक्कर	-5198
▁मिसाइल	-5199
▁मुखिया	-5200
▁धोखाधड़ी	-5201
रात	-5202
▁कोट	-5203
▁लेन	-5204
▁डीजल	-5205
▁घंटों	-5206
▁बातों	-5207
▁छोड़ने	-5208
▁पोस्टर	-5209
▁बहादुर	-5210
▁यूनियन	-5211
▁तस्वीरें	-5212
मल	-5213
कीम	-5214
एंगे	-5215
▁वेर	-5216
▁शरण	-5217
▁गुणव	-5218
▁अकेले	-5219
▁द्वार	-5220
▁मानते	-5221
▁सुझाव	-5222
▁स्नान	-5223
▁सिक्योर	-5224
▁प्रार्थना	-5225
ोत्	-5226
▁भले	-5227
▁आपने	-5228
▁चाचा	-5229
▁पिटाई	-5230
▁फ्लैट	-5231
▁तोड़कर	-5232
▁सहयोगी	-5233
▁न्यायिक	-5234
▁स्क्रीन	-5235
▁लड़कियों	-5236
▁विस	-5237
▁रोशन	-5238
▁शारी	-5239
▁पात्र	-5240
▁बाड़मेर	-5241
▁उपस्थिति	-5242
कस	-5243
यम	-5244
िलाई	-5245
▁रकम	-5246
क्ष्य	-5247
▁एकड़	-5248
▁नाले	-5249
▁लेवल	-5250
▁खन्ना	-5251
▁शारीरिक	-5252
▁स्पोर्ट	-5253
▁पुलिसकर्मी	-5254
il	-5255
धीन	-5256
धुन	-5257
▁शह	-5258
▁आधा	-5259
▁देगा	-5260
▁हार्	-5261
ुल्लाह	-5262
▁कन्या	-5263
▁जिनकी	-5264
▁मूल्य	-5265
▁सैन्य	-5266
▁इंदिरा	-5267
▁कार्यरत	-5268
▁विद्यार्थी	-5269
नै	-5270
▁99	-5271
▁खत	-5272
▁तू	-5273
तिया	-5274
▁पप्	-5275
▁फूड	-5276
▁शोध	-5277
▁बालक	-5278
▁सपोर्ट	-5279
▁प्रदूषण	-5280
▁ऐतिहासिक	-5281
▁पर्याप्त	-5282
▁कार्यक्रमों	-5283
re	-5284
धित	-5285
▁मथ	-5286
▁लव	-5287
▁राश	-5288
▁शाय	-5289
▁शिल	-5290
कश्मीर	-5291
▁अंकित	-5292
▁छुट्टी	-5293
▁मोटरसाइ	-5294
▁़	-5295
कांड	-5296
▁पीट	-5297
▁मेघ	-5298
ांजलि	-5299
▁उठाने	-5300
▁पॉइंट	-5301
▁मुक्ति	-5302
▁गुणवत्ता	-5303
-4	-5304
ak	-5305
तान	-5306
परा	-5307
सीबी	-5308
▁बांस	-5309
▁माला	-5310
▁शहरी	-5311
▁कृष्णा	-5312
▁अफ्रीका	-5313
▁कॉलेजों	-5314
▁प्रशांत	-5315
ोजन	-5316
▁दुख	-5317
▁हुस	-5318
▁किंग	-5319
▁नर्म	-5320
▁बैठा	-5321
▁फार्म	-5322
av	-5323
ंगन	-5324
▁देगी	-5325
▁पीछा	-5326
▁रंजन	-5327
▁अमिता	-5328
▁खेतों	-5329
▁बैठकर	-5330
▁रेस्क	-5331
धिकारिक	-5332
िफिकेशन	-5333
▁प्रतीक	-5334
▁ब्रह्म	-5335
▁भजनलाल	-5336
▁व्यक्तियों	-5337
▁ॐ	-5338
रानी	-5339
▁मिथ	-5340
▁आलोक	-5341
▁खींच	-5342
▁कोर्स	-5343
▁संकेत	-5344
▁जोरदार	-5345
▁शास्त्र	-5346
▁अभ्यर्थी	-5347
▁आधिकारिक	-5348
▁मोटरसाइकिल	-5349
▁व्यापारियों	-5350
DA	-5351
▁v	-5352
भूम	-5353
वीण	-5354
▁मय	-5355
ध्याय	-5356
▁कच्च	-5357
▁डिली	-5358
क्ताओं	-5359
▁ज़्यादा	-5360
▁सुविधाओं	-5361
▁अस्पतालों	-5362
धाम	-5363
▁UP	-5364
क्की	-5365
▁दुल	-5366
▁अभिन	-5367
▁गलती	-5368
▁सिपा	-5369
▁मात्र	-5370
▁मेयर	-5371
▁आसानी	-5372
▁डेंगू	-5373
▁सिपाही	-5374
▁सेकेंड	-5375
▁रेस्क्यू	-5376
▁शास्त्री	-5377
▁कॉन्स्टेबल	-5378
मेल	-5379
▁05	-5380
वाना	-5381
▁अवि	-5382
▁गये	-5383
▁फेल	-5384
स्टिक	-5385
ुदायिक	-5386
▁स्वरूप	-5387
▁व्यवहार	-5388
▁प्रतिदिन	-5389
▁प्रोग्राम	-5390
▁सामुदायिक	-5391
▁सिक्योरिटी	-5392
डम	-5393
वण	-5394
▁m	-5395
विड	-5396
भूषण	-5397
ूहिक	-5398
▁दशक	-5399
हाबाद	-5400
▁इनका	-5401
▁लगते	-5402
क्ट्रेट	-5403
▁प्रवीण	-5404
▁स्पीकर	-5405
▁कलेक्शन	-5406
▁सामूहिक	-5407
▁प्राथमिकता	-5408
▁इंस्टाग्राम	-5409
एएस	-5410
▁ईश	-5411
▁उन्	-5412
▁चेन	-5413
▁शेड	-5414
िंपिक	-5415
▁अनंत	-5416
▁बसों	-5417
▁बिंद	-5418
▁भागी	-5419
▁माफी	-5420
▁सारा	-5421
▁सब्जी	-5422
▁महापौर	-5423
▁मांगने	-5424
▁स्मृति	-5425
व्यवस्था	-5426
▁अभियंता	-5427
▁माध्यमिक	-5428
▁सुविधाएं	-5429
्यूज	-5430
▁अरो	-5431
▁फॉर	-5432
▁जेपी	-5433
▁जुलूस	-5434
▁अंबानी	-5435
▁अवॉर्ड	-5436
▁नर्मदा	-5437
▁संध्या	-5438
▁मौजूदगी	-5439
▁प्रसिद्ध	-5440
ैम	-5441
्शा	-5442
▁जश	-5443
▁जि	-5444
▁टन	-5445
श्री	-5446
▁रतन	-5447
▁रिल	-5448
ाप्ति	-5449
▁क्वि	-5450
▁ब्रिज	-5451
▁मनोहर	-5452
▁मेहता	-5453
▁बिहारी	-5454
▁अधिकांश	-5455
▁मोहल्ले	-5456
जान	-5457
निक	-5458
वलप	-5459
वीय	-5460
िसी	-5461
स्तक	-5462
्वान	-5463
▁बहु	-5464
▁चीनी	-5465
▁स्टी	-5466
▁कमांड	-5467
▁समन्व	-5468
▁घोटाले	-5469
▁-1	-5470
▁54	-5471
नाएं	-5472
िएंट	-5473
▁ढूं	-5474
▁अगली	-5475
▁कर्ज	-5476
▁चांद	-5477
▁जनजा	-5478
▁पुणे	-5479
▁बसपा	-5480
▁रावण	-5481
▁ललित	-5482
▁पप्पू	-5483
▁बरसात	-5484
▁हराया	-5485
▁स्कूटी	-5486
▁संस्थानों	-5487
ढ़ा	-5488
▁57	-5489
▁भती	-5490
▁लाई	-5491
▁अनेक	-5492
▁चौथे	-5493
▁जानी	-5494
▁सर्ट	-5495
▁अग्नि	-5496
▁प्रमोद	-5497
र्मेंद्र	-5498
▁उत्तराखंड	-5499
▁मुजफ्फरपुर	-5500
वर्क	-5501
▁इकट्	-5502
▁भेजे	-5503
▁सनातन	-5504
▁पिस्टल	-5505
▁विजेता	-5506
▁व्यापक	-5507
▁धर्मेंद्र	-5508
▁कलेक्ट्रेट	-5509
▁जिलाधिकारी	-5510
पे	-5511
▁आईं	-5512
▁बरा	-5513
▁तलाक	-5514
▁धन्य	-5515
▁नौकर	-5516
▁लिंक	-5517
▁वायु	-5518
▁सीईओ	-5519
▁निकाय	-5520
lection	-5521
▁ट्रॉफी	-5522
▁बीबीसी	-5523
▁गंभीरता	-5524
▁समर्पित	-5525
▁मार्गदर्शन	-5526
▁X	-5527
मती	-5528
वेज	-5529
िको	-5530
▁जं	-5531
▁ढाई	-5532
▁चंदन	-5533
▁झगड़ा	-5534
▁अमिताभ	-5535
▁मजदूरी	-5536
▁दीपावली	-5537
▁सिलेंडर	-5538
."	-5539
पक	-5540
ाग	-5541
्टा	-5542
▁अथ	-5543
छाड़	-5544
▁196	-5545
▁बुक	-5546
▁भील	-5547
▁टर्म	-5548
▁आग्रह	-5549
▁रणनीति	-5550
▁परीक्षण	-5551
and	-5552
जिट	-5553
दाई	-5554
▁बग	-5555
बीयत	-5556
शंकर	-5557
▁शेष	-5558
▁सीओ	-5559
▁आंगन	-5560
▁काशी	-5561
▁बीमा	-5562
▁आतंकी	-5563
▁कामया	-5564
▁गोदाम	-5565
▁तबीयत	-5566
▁पड़ोस	-5567
▁मित्र	-5568
▁हसीना	-5569
द्योगिक	-5570
▁अनिवार	-5571
▁यूजर्स	-5572
प्रत	-5573
▁एक्	-5574
▁कुर	-5575
▁बजर	-5576
▁आएगा	-5577
▁गर्ग	-5578
▁डीजी	-5579
▁ऑफिसर	-5580
▁इंतजाम	-5581
▁गुस्सा	-5582
▁भाइयों	-5583
▁स्वर्ण	-5584
▁मंत्रियों	-5585
▁गत	-5586
▁बौ	-5587
स्‍ट	-5588
▁हंस	-5589
▁गाने	-5590
▁जीती	-5591
▁बेहत	-5592
▁चलेगा	-5593
▁एसएसपी	-5594
▁संशोधन	-5595
▁गेंदबाज	-5596
▁संबंधों	-5597
▁एंबुलेंस	-5598
▁पुलिसकर्मियों	-5599
कोट	-5600
▁अमी	-5601
▁ठिक	-5602
▁भीम	-5603
▁मानी	-5604
▁गुप्त	-5605
▁हुसैन	-5606
▁वास्तव	-5607
▁बाजारों	-5608
▁अधिवक्ता	-5609
डेंट	-5610
फ्टी	-5611
ानंद	-5612
▁आति	-5613
▁आलो	-5614
▁खिल	-5615
▁पंत	-5616
▁आईडी	-5617
▁इकाई	-5618
▁दिखे	-5619
▁कटौती	-5620
डब्ल्यू	-5621
▁मिलाकर	-5622
▁सुनीता	-5623
▁विभागीय	-5624
▁प्रतिपक्ष	-5625
▁पाकिस्तानी	-5626
कै	-5627
क्षर	-5628
▁दर्	-5629
▁भूल	-5630
▁यहीं	-5631
▁रहकर	-5632
▁चीजों	-5633
▁जनसभा	-5634
▁प्रबंधक	-5635
▁तैयारियां	-5636
AP	-5637
जद	-5638
पल	-5639
लाइ	-5640
▁52	-5641
▁बघ	-5642
▁लक	-5643
▁ईवी	-5644
▁एआई	-5645
▁जगत	-5646
▁गुला	-5647
▁ब्रि	-5648
▁मनाई	-5649
▁इच्छा	-5650
▁जवाहर	-5651
▁डालने	-5652
▁कुलपति	-5653
▁धाराओं	-5654
▁काउंसिल	-5655
ांतर	-5656
▁टूर	-5657
▁सीख	-5658
▁हेल	-5659
▁बाबू	-5660
▁सबूत	-5661
▁हस्त	-5662
▁बलराम	-5663
▁ब्रांच	-5664
▁c	-5665
▁छु	-5666
▁फुल	-5667
▁भगत	-5668
▁चालू	-5669
▁बहुम	-5670
▁वार्	-5671
▁कमलेश	-5672
▁रेस्ट	-5673
▁समक्ष	-5674
▁ओलिंपिक	-5675
▁पूर्णिया	-5676
▁क्षतिग्रस्त	-5677
ir	-5678
।"	-5679
िफल	-5680
▁78	-5681
▁ऋषि	-5682
▁पौध	-5683
त्कार	-5684
▁आभार	-5685
▁ब्लड	-5686
▁उड़ान	-5687
▁मथुरा	-5688
▁सेवाएं	-5689
▁संज्ञान	-5690
▁फाउंडेशन	-5691
▁समर्थकों	-5692
▁नक्सलियों	-5693
वेल	-5694
माने	-5695
▁शरद	-5696
▁अलवर	-5697
▁जाये	-5698
▁बढ़त	-5699
▁रियल	-5700
▁छोड़ा	-5701
▁पिकअप	-5702
▁समस्त	-5703
▁हिन्द	-5704
▁आह्वान	-5705
▁तिरंगा	-5706
▁राठौड़	-5707
▁मजदूरों	-5708
▁समाजवादी	-5709
धीर	-5710
▁72	-5711
▁गव	-5712
▁फेस	-5713
धुनिक	-5714
▁ग्लो	-5715
▁सर्च	-5716
▁प्रॉप	-5717
ानिस्तान	-5718
ya	-5719
जग	-5720
टू	-5721
पण	-5722
पो	-5723
ोकेट	-5724
▁अदा	-5725
▁कॉम	-5726
▁ब्ला	-5727
▁सेमी	-5728
▁सुमित	-5729
▁इस्लाम	-5730
▁राशिफल	-5731
▁एडवोकेट	-5732
▁कुशवाहा	-5733
▁प्रभावी	-5734
▁भूपेंद्र	-5735
नम	-5736
गरी	-5737
दरी	-5738
भाल	-5739
▁85	-5740
▁फट	-5741
▁एके	-5742
▁2016	-5743
▁टाउन	-5744
▁दादा	-5745
▁शायद	-5746
▁उपकरण	-5747
िस्ट्रेट	-5748
▁प्रणाली	-5749
▁औद्योगिक	-5750
▁कलाकारों	-5751
हम	-5752
किट	-5753
▁पटा	-5754
▁फिट	-5755
▁ढूंढ	-5756
▁दफ्त	-5757
▁सर्टिफ	-5758
चि	-5759
▁आब	-5760
▁पन	-5761
▁अटल	-5762
▁खंग	-5763
▁हाे	-5764
▁कुत्	-5765
▁गड्ढ	-5766
▁बॉडी	-5767
▁जाएंगी	-5768
▁पवित्र	-5769
ac	-5770
om	-5771
जो	-5772
दूस	-5773
बरा	-5774
्का	-5775
▁हक	-5776
▁गयी	-5777
दूसरे	-5778
▁एसआई	-5779
▁चलाई	-5780
▁तकनीक	-5781
▁कलाकार	-5782
▁माफिया	-5783
▁समर्थक	-5784
▁रिश्तेदार	-5785
▁स्पोर्ट्स	-5786
ोषण	-5787
▁02	-5788
▁रौ	-5789
र्पण	-5790
▁यौन	-5791
▁चलती	-5792
▁डायल	-5793
▁पीटा	-5794
▁सर्ज	-5795
▁हाथी	-5796
▁अपमान	-5797
▁एकत्र	-5798
▁इजराइल	-5799
▁स्मार्टफोन	-5800
SP	-5801
कां	-5802
टिल	-5803
▁मछ	-5804
ंचाई	-5805
एमसी	-5806
न्नी	-5807
ियंस	-5808
▁गिल	-5809
▁मदन	-5810
▁अध्य	-5811
▁लिये	-5812
▁मध्यम	-5813
▁दरवाजा	-5814
सूर	-5815
▁इको	-5816
▁बतौर	-5817
▁रीवा	-5818
▁सपना	-5819
▁समझा	-5820
▁साइड	-5821
क्टर्स	-5822
▁उतारा	-5823
▁स्टोर	-5824
▁प्रॉपर्टी	-5825
ब्यू	-5826
▁लाए	-5827
▁सरा	-5828
▁एकता	-5829
▁राशन	-5830
▁शाही	-5831
▁इंसान	-5832
▁ऑर्डर	-5833
▁थोड़ा	-5834
▁पढ़िए	-5835
▁ब्राह	-5836
▁धन्यवाद	-5837
▁हिंदुओं	-5838
▁नारेबाजी	-5839
-5	-5840
▁n	-5841
दर्	-5842
ड्डू	-5843
▁चिल	-5844
▁मरा	-5845
▁सील	-5846
▁सीपी	-5847
▁सीतार	-5848
▁ेश्वर	-5849
▁अनुरोध	-5850
▁बनर्जी	-5851
▁प्रेरणा	-5852
▁बेहतरीन	-5853
▁शिवसेना	-5854
षभ	-5855
ौत	-5856
टेन	-5857
▁67	-5858
टाला	-5859
वाले	-5860
▁असल	-5861
▁गला	-5862
▁पेय	-5863
▁फोक	-5864
▁हीट	-5865
▁एससी	-5866
▁बीती	-5867
▁आंखों	-5868
▁करनाल	-5869
▁जाहिर	-5870
▁फिरोज	-5871
▁मर्डर	-5872
प्रतिनि	-5873
▁चौटाला	-5874
▁रेड्डी	-5875
▁जनप्रतिनि	-5876
▁व्यक्तिगत	-5877
गेड	-5878
▁चंप	-5879
▁चाय	-5880
िमंडल	-5881
▁फतेह	-5882
▁महान	-5883
▁व्ही	-5884
▁श्रा	-5885
▁ख़िला	-5886
▁चेहरा	-5887
▁विज्ञ	-5888
▁दिखाने	-5889
▁फीचर्स	-5890
▁हार्दिक	-5891
▁अनिवार्य	-5892
बॉल	-5893
ोली	-5894
▁एव	-5895
▁यो	-5896
▁शेर	-5897
▁अत्य	-5898
▁आपसी	-5899
▁कारा	-5900
▁सीआई	-5901
▁चेन्न	-5902
▁ब्रिगेड	-5903
▁पार्टियों	-5904
▁टेक्नोलॉजी	-5905
▁इंजीनियरिंग	-5906
ok	-5907
us	-5908
ंव	-5909
ह्न	-5910
▁59	-5911
िष्ट	-5912
वर्ती	-5913
▁रचना	-5914
▁ियां	-5915
▁डिवाइ	-5916
▁दृष्ट	-5917
▁बनाते	-5918
▁अनुराग	-5919
▁बढ़ाया	-5920
ed	-5921
ॉड	-5922
▁p	-5923
वाज	-5924
▁Ra	-5925
▁लह	-5926
▁िक	-5927
▁गेह	-5928
▁पृथ	-5929
▁वेद	-5930
▁कपिल	-5931
▁खाता	-5932
▁चिरा	-5933
▁स्कीम	-5934
▁चेकिंग	-5935
▁ब्रांड	-5936
▁शुभकाम	-5937
▁श्रद्धांजलि	-5938
ोम	-5939
सला	-5940
▁09	-5941
्वरी	-5942
▁आपस	-5943
▁टेक	-5944
▁रोम	-5945
ंगाना	-5946
भाग्य	-5947
▁गाइड	-5948
▁आसमान	-5949
▁झांसी	-5950
▁ख़िलाफ़	-5951
▁मोहल्ला	-5952
▁छेड़छाड़	-5953
पै	-5954
इंग	-5955
ज़र	-5956
▁डेम	-5957
▁मोड	-5958
▁रिव	-5959
▁टेबल	-5960
▁तिलक	-5961
▁भेजी	-5962
▁जीतकर	-5963
▁जोड़ी	-5964
▁उदाहरण	-5965
▁चेन्नई	-5966
ing	-5967
पीओ	-5968
िएट	-5969
▁बं	-5970
▁टार	-5971
▁मशह	-5972
▁मेल	-5973
▁सास	-5974
▁आमिर	-5975
▁खेली	-5976
▁पीएच	-5977
▁चलेगी	-5978
▁मनाने	-5979
▁क्विंट	-5980
▁महावीर	-5981
▁लोकेशन	-5982
▁लक्ष्मण	-5983
▁रिपोर्ट्स	-5984
लोत	-5985
▁53	-5986
धीरे	-5987
ांशु	-5988
▁250	-5989
▁बैक	-5990
▁मिठ	-5991
▁रिफ	-5992
▁हसन	-5993
ार्थी	-5994
▁माया	-5995
▁यूरो	-5996
▁विनय	-5997
▁एजेंस	-5998
▁काटने	-5999
▁खासकर	-6000
▁गवर्न	-6001
▁जिसको	-6002
▁मशहूर	-6003
▁वार्ष	-6004
▁अरोड़ा	-6005
▁समझौता	-6006
छात्राओं	-6007
▁तेलंगाना	-6008
्हा	-6009
▁कलश	-6010
▁डिफ	-6011
▁समृ	-6012
▁अजीत	-6013
▁हिंदु	-6014
▁टारगेट	-6015
▁फिल्में	-6016
▁संभावित	-6017
▁सर्टिफिकेट	-6018
▁ु	-6019
▁04	-6020
एसएस	-6021
▁आचार	-6022
▁कमला	-6023
▁कृपा	-6024
▁टेली	-6025
▁एजेंट	-6026
▁बाहरी	-6027
▁आलोचना	-6028
▁हुड्डा	-6029
▁दर्शकों	-6030
▁उपाध्याय	-6031
▁ब्राह्मण	-6032
▁अर्थव्यवस्था	-6033
्टन	-6034
्वे	-6035
▁मलिक	-6036
▁रामल	-6037
▁सुमन	-6038
▁डालकर	-6039
▁आंकड़े	-6040
▁मजिस्ट्रेट	-6041
▁03	-6042
▁काग	-6043
▁कॉन	-6044
▁खतर	-6045
▁मोन	-6046
▁आसार	-6047
▁ठहरा	-6048
▁आजादी	-6049
▁चिन्ह	-6050
▁किशोरी	-6051
▁जोड़ने	-6052
▁सिंचाई	-6053
▁स्वीकृति	-6054
ेप	-6055
▁अख	-6056
▁गू	-6057
क्के	-6058
▁करो	-6059
▁किड	-6060
▁राध	-6061
िवेदी	-6062
▁खतरे	-6063
▁लिहा	-6064
▁संदे	-6065
▁सावन	-6066
▁हरकत	-6067
▁उठाकर	-6068
▁क्वाल	-6069
▁गारंटी	-6070
▁सकारात्मक	-6071
भि	-6072
ेब	-6073
फोट	-6074
बिर	-6075
▁चू	-6076
▁बाज	-6077
▁कचरा	-6078
▁रेखा	-6079
▁अनुसू	-6080
▁नितिन	-6081
▁सत्या	-6082
▁शिवराज	-6083
▁गाड़ियां	-6084
क्यू	-6085
शेखर	-6086
▁घेर	-6087
▁मेक	-6088
▁नकली	-6089
▁बघेल	-6090
▁एटीएम	-6091
▁गहलोत	-6092
▁एडमिशन	-6093
▁मैनेजमेंट	-6094
बत	-6095
ॉस	-6096
डीह	-6097
ुलर	-6098
ौदा	-6099
▁06	-6100
▁छि	-6101
सिंह	-6102
▁ताज	-6103
▁रघु	-6104
▁शिर	-6105
▁कुंड	-6106
▁संभल	-6107
▁ब्याज	-6108
▁मासूम	-6109
▁लंबित	-6110
▁शुक्ल	-6111
▁सुनने	-6112
▁फर्स्ट	-6113
▁रविंद्र	-6114
ट्स	-6115
दाय	-6116
▁अनी	-6117
▁नीट	-6118
▁कल्प	-6119
▁पाते	-6120
▁अध्या	-6121
▁आस्था	-6122
▁वार्ता	-6123
▁श्रीकृष्ण	-6124
2)	-6125
तलब	-6126
▁बैं	-6127
थियों	-6128
▁एनएच	-6129
▁एनसी	-6130
▁ठाकर	-6131
▁तत्व	-6132
▁बारी	-6133
▁बहुमत	-6134
▁बेरोज	-6135
▁वैष्ण	-6136
▁साइंस	-6137
▁स्थिर	-6138
▁मणिपुर	-6139
▁इंचार्ज	-6140
▁निलंबित	-6141
डू	-6142
ंचल	-6143
्रु	-6144
ज़ार	-6145
▁निम	-6146
▁रवी	-6147
▁सक्	-6148
▁करंट	-6149
▁श्रृ	-6150
▁सेल्	-6151
▁कविता	-6152
▁शुद्ध	-6153
▁हार्ट	-6154
▁निरस्त	-6155
▁क्विंटल	-6156
▁महात्मा	-6157
ul	-6158
डिया	-6159
▁कल्	-6160
▁मुठ	-6161
▁समु	-6162
दियों	-6163
▁एसटी	-6164
▁त्या	-6165
▁नामक	-6166
▁राजन	-6167
▁साझे	-6168
▁आईएएस	-6169
▁गेहूं	-6170
▁फील्ड	-6171
▁मुकदम	-6172
▁मुआवजा	-6173
▁वीरेंद्र	-6174
▁₹	-6175
सेन	-6176
िना	-6177
▁66	-6178
ोपुर	-6179
▁अभय	-6180
▁दार	-6181
▁पित	-6182
▁शतक	-6183
▁होश	-6184
स्वती	-6185
▁आमजन	-6186
▁काले	-6187
▁नाटक	-6188
▁मवेश	-6189
▁मुठभ	-6190
▁ठाकरे	-6191
▁विनेश	-6192
▁गौरतलब	-6193
▁घटनाएं	-6194
▁वार्षिक	-6195
▁सरस्वती	-6196
▁अभियुक्त	-6197
बु	-6198
लेस	-6199
▁नु	-6200
नामा	-6201
फोड़	-6202
▁टुक	-6203
▁लुक	-6204
िडेंट	-6205
्यूटर	-6206
▁कायम	-6207
▁ड्रग	-6208
▁खरीदा	-6209
▁चिराग	-6210
▁पड़ने	-6211
▁पैसों	-6212
▁मरम्म	-6213
▁रामलला	-6214
▁निवेशकों	-6215
जुट	-6216
▁07	-6217
▁अफग	-6218
▁गिन	-6219
▁2015	-6220
▁देखे	-6221
▁अत्या	-6222
▁एकजुट	-6223
▁करीबी	-6224
▁पॉलिट	-6225
▁मायके	-6226
▁गुरुद्	-6227
▁पहाड़ी	-6228
▁प्लास्टिक	-6229
▁थानाधिकारी	-6230
▁ू	-6231
म्ब	-6232
वंश	-6233
▁64	-6234
मपुर	-6235
▁सीए	-6236
▁सीन	-6237
▁सोल	-6238
▁क्यू	-6239
▁डाउन	-6240
▁बाइड	-6241
▁भेंट	-6242
▁खोलने	-6243
▁ड्रेस	-6244
▁देखना	-6245
▁व्यास	-6246
▁हस्ता	-6247
▁ग्लोबल	-6248
▁दिग्गज	-6249
▁डिलीवरी	-6250
▁तस्करों	-6251
▁साहित्य	-6252
▁॥	-6253
ंजी	-6254
चीन	-6255
भंगा	-6256
ारायण	-6257
▁क्ली	-6258
▁खोला	-6259
▁एडिशन	-6260
▁बहनों	-6261
स्तीपुर	-6262
▁दरभंगा	-6263
▁सराहना	-6264
▁नेटवर्क	-6265
▁मुठभेड़	-6266
▁कार्यशाला	-6267
ic	-6268
▁इट	-6269
ख्ती	-6270
्मान	-6271
्रीम	-6272
▁बजा	-6273
▁2000	-6274
▁निया	-6275
▁सक्ष	-6276
▁सीधा	-6277
▁कस्बे	-6278
▁मानें	-6279
▁अर्चना	-6280
▁करेंगी	-6281
▁रिटायर	-6282
▁गुरुग्राम	-6283
▁समस्तीपुर	-6284
▁सिद्धार्थ	-6285
नाश	-6286
्मा	-6287
▁68	-6288
▁-20	-6289
▁ढंग	-6290
▁बहू	-6291
▁अवगत	-6292
▁आवेद	-6293
▁फोकस	-6294
▁मेगा	-6295
▁धनबाद	-6296
▁हैरान	-6297
▁उत्पाद	-6298
लक	-6299
ॉय	-6300
▁जद	-6301
▁आधे	-6302
▁वें	-6303
▁जोड़ा	-6304
▁चतुर्थ	-6305
▁विरासत	-6306
ैना	-6307
▁95	-6308
▁बुर	-6309
सलमेर	-6310
▁एमएम	-6311
▁कक्ष	-6312
▁झटका	-6313
▁निकट	-6314
▁रिहा	-6315
▁सेशन	-6316
ियाबाद	-6317
▁डेवलप	-6318
▁दरबार	-6319
▁बरेली	-6320
▁सुशील	-6321
▁उत्तरी	-6322
▁ट्रेलर	-6323
▁संसाधन	-6324
▁भागलपुर	-6325
▁कार्यकार	-6326
▁निर्देशन	-6327
थल	-6328
माव	-6329
अपने	-6330
पुरम	-6331
भारत	-6332
ूलाल	-6333
▁खाल	-6334
▁चेत	-6335
▁साई	-6336
िशियल	-6337
▁देसी	-6338
▁लंबा	-6339
▁लौटा	-6340
▁वाटर	-6341
▁सफेद	-6342
▁स्वि	-6343
जीलैंड	-6344
▁पंडाल	-6345
▁फसलों	-6346
▁चालकों	-6347
▁बुकिंग	-6348
▁सर्जरी	-6349
▁सेवाओं	-6350
▁गड़बड़ी	-6351
▁t	-6352
ate	-6353
ंडन	-6354
ांदी	-6355
िंदे	-6356
ेंजर	-6357
▁लहर	-6358
▁वाई	-6359
कालीन	-6360
▁ऐश्व	-6361
▁किये	-6362
▁चुरा	-6363
▁शब्द	-6364
स्वामी	-6365
▁आर्मी	-6366
▁अंतरिम	-6367
▁दोस्ती	-6368
▁मरम्मत	-6369
▁निकालकर	-6370
▁विशिष्ट	-6371
▁प्रत्याश	-6372
▁AI	-6373
▁ईद	-6374
▁प्	-6375
नाती	-6376
प्पी	-6377
बंदी	-6378
▁द्र	-6379
▁नीम	-6380
▁फिज	-6381
▁वजन	-6382
ायर्ड	-6383
▁अटैक	-6384
▁फंदे	-6385
▁बाला	-6386
▁सवाई	-6387
▁गांजा	-6388
▁सर्दी	-6389
▁सैंपल	-6390
▁कीमतों	-6391
▁तैनाती	-6392
▁तोड़ने	-6393
▁संवेदन	-6394
▁सिंधिया	-6395
▁अंग्रेजी	-6396
संध	-6397
वारे	-6398
▁600	-6399
▁छिप	-6400
▁बचे	-6401
▁रजत	-6402
▁रत्	-6403
▁फैला	-6404
▁दफ्तर	-6405
▁प्रोफ	-6406
▁बहाने	-6407
क्षेत्र	-6408
▁पुजारी	-6409
र्ख	-6410
▁""	-6411
तलाम	-6412
शासन	-6413
▁डीए	-6414
▁हां	-6415
▁अन्न	-6416
▁पहना	-6417
▁बांट	-6418
्वेस्ट	-6419
▁बताने	-6420
▁लगेगा	-6421
▁अंबेडकर	-6422
▁मिलेंगे	-6423
▁शुभकामनाएं	-6424
-25	-6425
ent	-6426
सीम	-6427
▁-2	-6428
▁तट	-6429
ंगाई	-6430
जारा	-6431
नपुर	-6432
▁किल	-6433
▁सैम	-6434
संधान	-6435
▁फंसे	-6436
▁राखी	-6437
▁एक्सी	-6438
▁रतलाम	-6439
▁वृद्ध	-6440
▁सुर्ख	-6441
▁पृथ्वी	-6442
▁महंगाई	-6443
▁सियासी	-6444
▁सैनिकों	-6445
▁अनुसंधान	-6446
▁एक्सीडेंट	-6447
▁गाजियाबाद	-6448
▁प्राथमिकी	-6449
फाई	-6450
वीप	-6451
▁2,	-6452
▁भय	-6453
धारा	-6454
प्ले	-6455
श्चित	-6456
▁अनाज	-6457
▁छिंद	-6458
▁पुनर्	-6459
▁बनेगा	-6460
▁स्नात	-6461
▁अधिकतर	-6462
▁भरतपुर	-6463
▁आंकड़ों	-6464
▁जैसलमेर	-6465
▁उछ	-6466
▁चक	-6467
वेयर	-6468
▁गों	-6469
▁जहर	-6470
▁धमा	-6471
▁लेटर	-6472
▁वस्त	-6473
क्षणिक	-6474
▁थानों	-6475
▁पेरिस	-6476
▁बजरंग	-6477
▁शॉर्ट	-6478
▁सौंपी	-6479
▁स्पीड	-6480
▁देखभाल	-6481
▁विक्की	-6482
▁स्वस्थ	-6483
▁अहमदाबाद	-6484
▁शैक्षणिक	-6485
▁प्रत्याशियों	-6486
8)	-6487
ंसल	-6488
साई	-6489
साम	-6490
▁एं	-6491
धाना	-6492
ायती	-6493
▁थीम	-6494
ॉप्टर	-6495
▁दहेज	-6496
▁बचपन	-6497
▁लिखी	-6498
▁सभाग	-6499
स्थापक	-6500
▁इमरान	-6501
▁शिंदे	-6502
▁संतुल	-6503
▁रिटर्न	-6504
▁स्कूली	-6505
ार्थियों	-6506
▁अनुसूचित	-6507
▁भागीदारी	-6508
▁प्रस्तावित	-6509
▁कार्यकारिणी	-6510
तू	-6511
वड़	-6512
▁शार	-6513
▁असली	-6514
▁पूनम	-6515
▁फर्म	-6516
▁पेयजल	-6517
▁मुझसे	-6518
▁लड़का	-6519
▁प्रयासों	-6520
▁प्रदर्शनी	-6521
up	-6522
पत्	-6523
▁69	-6524
ंगार	-6525
करार	-6526
्लील	-6527
▁अवध	-6528
▁कूद	-6529
▁लुट	-6530
बाड़ी	-6531
▁गूगल	-6532
▁जुटा	-6533
▁बोतल	-6534
▁शिखर	-6535
▁चित्त	-6536
▁जानने	-6537
▁जायजा	-6538
▁अध्ययन	-6539
▁अभिभाव	-6540
▁कोरिया	-6541
▁डीसीपी	-6542
▁संवेदनशील	-6543
AS	-6544
जगह	-6545
ुणा	-6546
श्यप	-6547
▁इरा	-6548
▁उमस	-6549
▁डबल	-6550
▁नाव	-6551
▁बीए	-6552
▁बैच	-6553
▁कहकर	-6554
▁प्रज	-6555
▁वनडे	-6556
▁ओबीसी	-6557
▁पारंप	-6558
▁राठौर	-6559
▁हटाया	-6560
▁हवाले	-6561
▁अश्लील	-6562
▁डेब्यू	-6563
▁गोलियां	-6564
▁हथियारों	-6565
▁चंद्रशेखर	-6566
CC	-6567
तः	-6568
.50	-6569
सास	-6570
ोदय	-6571
रेंस	-6572
▁120	-6573
▁चोप	-6574
▁छाए	-6575
▁मकस	-6576
▁मौल	-6577
▁रंज	-6578
वानिव	-6579
▁पूछे	-6580
▁सस्प	-6581
▁चालान	-6582
▁तृतीय	-6583
▁निवास	-6584
▁न्यूज	-6585
▁पीढ़ी	-6586
▁हमलों	-6587
▁आतंकवाद	-6588
▁प्रधाना	-6589
▁पारंपरिक	-6590
ंतु	-6591
ौरी	-6592
▁फ़ै	-6593
▁वेल	-6594
▁कन्ह	-6595
▁जश्न	-6596
▁ब्यू	-6597
▁मकसद	-6598
▁लाइव	-6599
▁हमास	-6600
ाजीपुर	-6601
▁सख्ती	-6602
▁बुलाकर	-6603
▁एक्टिंग	-6604
▁रिटायर्ड	-6605
▁प्रतिबद्ध	-6606
▁प्रारंभिक	-6607
▁हत्याकांड	-6608
CT	-6609
कंप	-6610
ाइक	-6611
▁62	-6612
▁94	-6613
ोर्स	-6614
▁उजा	-6615
▁बेर	-6616
▁शशि	-6617
▁परिच	-6618
▁माली	-6619
▁व्हा	-6620
▁तारीफ	-6621
▁दिवाली	-6622
▁प्रसार	-6623
▁अभिनेता	-6624
▁श्रद्धा	-6625
▁प्राप्ति	-6626
▁प्रोत्साहित	-6627
बली	-6628
शनी	-6629
हित	-6630
▁Ka	-6631
▁पच	-6632
वंशी	-6633
सिया	-6634
्तार	-6635
▁IPL	-6636
▁डंप	-6637
▁ड़ा	-6638
▁बेड	-6639
▁राघ	-6640
▁दिमा	-6641
▁निधि	-6642
▁पैनल	-6643
▁बाधा	-6644
▁लटका	-6645
▁बढ़ता	-6646
▁बारात	-6647
▁बेहोश	-6648
▁म्यूज	-6649
▁सेकंड	-6650
▁हवाला	-6651
▁असिस्ट	-6652
▁आबकारी	-6653
▁इंस्टी	-6654
▁ट्रायल	-6655
▁प्रताड़	-6656
▁सांसदों	-6657
▁न्यूजीलैंड	-6658
ंडों	-6659
▁छान	-6660
▁जमु	-6661
▁नशी	-6662
▁रेत	-6663
▁लेप	-6664
ट्रिक	-6665
▁-202	-6666
▁चढ़ा	-6667
▁चावल	-6668
▁फंसा	-6669
▁मनोर	-6670
▁गुहार	-6671
▁ज्वेल	-6672
▁झांसा	-6673
▁आजमगढ़	-6674
▁ओलंपिक	-6675
▁पाएंगे	-6676
▁स्थायी	-6677
▁निश्चित	-6678
▁ऐश्वर्या	-6679
▁IN	-6680
abha	-6681
▁ईयर	-6682
▁ओटी	-6683
▁बीज	-6684
ोरेंट	-6685
▁अनूप	-6686
▁शिवम	-6687
▁डूबने	-6688
▁दिलाई	-6689
▁ब्लैक	-6690
▁लिखकर	-6691
▁संदेह	-6692
▁सिरसा	-6693
▁वासियों	-6694
▁घटनाक्रम	-6695
▁शिकायतों	-6696
इंड	-6697
▁ED	-6698
▁फु	-6699
▁800	-6700
▁मिड	-6701
चंद्र	-6702
▁डिवी	-6703
▁दबिश	-6704
▁बैंड	-6705
▁चीजें	-6706
▁दुल्ह	-6707
▁बाधित	-6708
▁समझौते	-6709
▁पहुंचेगी	-6710
▁कांस्टेबल	-6711
▁तैयारियों	-6712
▁अल्पसंख्यक	-6713
पाई	-6714
शीट	-6715
ांगी	-6716
▁195	-6717
▁कलर	-6718
▁फाइ	-6719
▁बॉय	-6720
▁मद्	-6721
▁लैब	-6722
▁शरी	-6723
ेंट्स	-6724
▁अतुल	-6725
▁उतरे	-6726
▁केशव	-6727
▁डीपी	-6728
▁चिह्न	-6729
▁डिटेल	-6730
▁दुश्म	-6731
▁सक्षम	-6732
▁उपायुक्त	-6733
ho	-6734
ंकू	-6735
आउट	-6736
टेक	-6737
▁घी	-6738
टकों	-6739
दर्श	-6740
वाणी	-6741
▁जेई	-6742
▁दीन	-6743
▁बैर	-6744
▁1000	-6745
▁कड़ा	-6746
▁करार	-6747
▁कोरो	-6748
▁दहशत	-6749
▁ईश्वर	-6750
▁घूमने	-6751
▁बोलने	-6752
▁मोहित	-6753
▁सतर्क	-6754
▁सिंगर	-6755
▁निर्भर	-6756
▁विश्ले	-6757
▁श्रमिक	-6758
▁परिस्थित	-6759
▁छिंदवाड़ा	-6760
भू	-6761
बंद	-6762
िनल	-6763
ूली	-6764
ोपण	-6765
ीकरण	-6766
ोच्च	-6767
▁ईंट	-6768
▁कोय	-6769
टरिंग	-6770
▁तोमर	-6771
▁लगती	-6772
▁विस्	-6773
फ्रेंड	-6774
▁क्रेड	-6775
▁खेलते	-6776
▁घुसकर	-6777
▁निभाई	-6778
▁सर्वा	-6779
▁आंकड़ा	-6780
▁चोपड़ा	-6781
▁जलस्तर	-6782
▁मनमोहन	-6783
▁स्थलों	-6784
▁कन्हैया	-6785
▁सेवानिव	-6786
▁गैंगस्टर	-6787
फॉ	-6788
तौर	-6789
पेय	-6790
बुक	-6791
ासा	-6792
▁76	-6793
▁MP	-6794
झाने	-6795
मंडल	-6796
मार्	-6797
िहार	-6798
▁कटा	-6799
▁भिव	-6800
िलिटी	-6801
▁जेडी	-6802
▁दाना	-6803
▁शिवा	-6804
▁सांग	-6805
ंत्रिक	-6806
▁खुलकर	-6807
▁मालूम	-6808
▁आईपीएल	-6809
▁स्टोरी	-6810
▁चिकित्सकों	-6811
थन	-6812
ैग	-6813
▁ष	-6814
ड्र	-6815
्‍ह	-6816
▁आफ	-6817
निर्	-6818
बीएस	-6819
▁यमु	-6820
▁लिप	-6821
▁अंधे	-6822
▁टीआई	-6823
▁नकदी	-6824
▁मामा	-6825
▁स्क्	-6826
▁कमेंट	-6827
▁कश्यप	-6828
▁काटकर	-6829
▁बकाया	-6830
▁विराज	-6831
▁पंजाबी	-6832
▁हड़कंप	-6833
▁पहुंचते	-6834
▁k	-6835
▁ः	-6836
खार	-6837
वाए	-6838
....	-6839
भूमि	-6840
▁108	-6841
▁रेस	-6842
▁रॉय	-6843
▁दिलच	-6844
▁दौसा	-6845
▁बर्फ	-6846
▁बेंच	-6847
▁डिस्प	-6848
▁फ्रंट	-6849
▁दरवाजे	-6850
▁ब्यूरो	-6851
▁इन्होंने	-6852
▁डॉक्टर्स	-6853
▁इंस्टीट्यू	-6854
▁शोभायात्रा	-6855
ड़न	-6856
दीव	-6857
स्ड	-6858
ौरा	-6859
▁छू	-6860
रेशन	-6861
ोहित	-6862
▁बीत	-6863
▁रिम	-6864
▁वां	-6865
▁जुटे	-6866
▁बेगू	-6867
▁यूजर	-6868
▁लोगो	-6869
▁सोया	-6870
▁हैंड	-6871
▁जिनका	-6872
▁टैंकर	-6873
▁देखिए	-6874
▁नामजद	-6875
▁गार्डन	-6876
▁हिन्दू	-6877
▁हॉस्टल	-6878
▁विस्फोट	-6879
▁सिलसिला	-6880
▁आयुष्मान	-6881
▁चिकित्सक	-6882
▁तोड़फोड़	-6883
▁प्रतिभाग	-6884
ath	-6885
जेडी	-6886
धारण	-6887
▁डोन	-6888
▁फीड	-6889
▁शैल	-6890
▁स्ल	-6891
▁इमार	-6892
▁गश्त	-6893
▁डायव	-6894
▁बनना	-6895
▁ब्रज	-6896
▁लोहे	-6897
▁उत्पी	-6898
▁बस्तर	-6899
▁प्राचीन	-6900
▁इलेक्ट्रॉन	-6901
▁दुकानदारों	-6902
one	-6903
खड़	-6904
न्ड	-6905
राइ	-6906
ोजर	-6907
यूवी	-6908
▁एजु	-6909
▁कॉर	-6910
▁दुब	-6911
▁मोर	-6912
▁हिर	-6913
▁कोषा	-6914
▁मोती	-6915
▁रजनी	-6916
▁शर्त	-6917
▁शर्म	-6918
▁इकट्ठा	-6919
▁मालदीव	-6920
▁मुद्रा	-6921
▁सोनिया	-6922
▁जन्मदिन	-6923
▁बेटियों	-6924
▁Election	-6925
▁निष्पक्ष	-6926
▁बेगूसराय	-6927
▁रेस्टोरेंट	-6928
▁प्रतिनिधित्व	-6929
SC	-6930
घ्र	-6931
जीब	-6932
रुख	-6933
▁नल	-6934
िकोण	-6935
▁डाक	-6936
▁हिट	-6937
▁उमेश	-6938
▁भूषण	-6939
ंगाबाद	-6940
▁भागवत	-6941
▁दीपिका	-6942
▁मुकदमे	-6943
▁शाहरुख	-6944
▁फरीदाबाद	-6945
▁अफगानिस्तान	-6946
खल	-6947
त्थ	-6948
रेख	-6949
ोटे	-6950
▁तप	-6951
▁शू	-6952
ग्रा	-6953
ाल्ड	-6954
▁Lok	-6955
▁अगु	-6956
▁कपल	-6957
▁छवि	-6958
कर्मा	-6959
प्रिय	-6960
▁एमडी	-6961
▁किस्	-6962
▁गवाह	-6963
▁नाइट	-6964
▁निका	-6965
▁साधा	-6966
क्टेयर	-6967
▁करवाए	-6968
▁प्रको	-6969
▁मिलना	-6970
▁अंबाला	-6971
▁आधुनिक	-6972
▁डिवीजन	-6973
▁दृष्टि	-6974
▁पेमेंट	-6975
▁लेपर्ड	-6976
▁सड़कें	-6977
▁सभागार	-6978
▁ब्रिटेन	-6979
▁संस्थाओं	-6980
▁हस्ताक्षर	-6981
ंझ	-6982
:00	-6983
ion	-6984
▁Mo	-6985
▁भै	-6986
ंचित	-6987
▁112	-6988
▁दहन	-6989
▁वाज	-6990
▁जर्म	-6991
▁टोला	-6992
▁देवर	-6993
▁परीक्ष	-6994
▁मद्देन	-6995
▁रायगढ़	-6996
▁विषयों	-6997
▁सवालों	-6998
▁विसर्जन	-6999
▁कार्यकारी	-7000
हे	-7001
तिर	-7002
▁77	-7003
▁इर	-7004
▁कस	-7005
दपुर	-7006
पेयी	-7007
▁दंप	-7008
▁फैम	-7009
▁रित	-7010
▁सिस	-7011
▁ईवीएम	-7012
▁ऊंचाई	-7013
▁चरणों	-7014
▁जर्जर	-7015
▁भ्रमण	-7016
▁कनेक्ट	-7017
▁खतरनाक	-7018
▁चन्द्र	-7019
▁छानबीन	-7020
▁भिवानी	-7021
▁मामूली	-7022
▁पार्टनर	-7023
▁संरक्षक	-7024
▁सुल्तान	-7025
▁उत्पीड़न	-7026
▁कंपनियां	-7027
▁रजिस्ट्री	-7028
iv	-7029
इली	-7030
▁Re	-7031
र्धा	-7032
श्चा	-7033
▁कोड	-7034
▁रेज	-7035
वमेंट	-7036
▁कैसा	-7037
▁जबरन	-7038
▁नज़र	-7039
▁नष्ट	-7040
▁यज्ञ	-7041
▁शेखा	-7042
▁सबको	-7043
▁ईरानी	-7044
▁पशुओं	-7045
▁हेल्प	-7046
▁अब्दुल	-7047
▁क्रेडिट	-7048
▁दुकानें	-7049
▁ग्राहकों	-7050
▁विश्वनाथ	-7051
▁एजेंसियों	-7052
▁पत्रकारों	-7053
▁उपभोक्ताओं	-7054
▁e	-7055
केज	-7056
सीन	-7057
▁तथ	-7058
▁रं	-7059
▁ेश	-7060
▁अधि	-7061
▁कैच	-7062
▁डैम	-7063
▁निच	-7064
▁भेद	-7065
कृष्ट	-7066
तावरण	-7067
▁उद्य	-7068
▁एमएल	-7069
▁कॉपी	-7070
▁चुने	-7071
▁हरीश	-7072
▁एएसपी	-7073
▁गिनती	-7074
▁तुम्ह	-7075
▁नतीजे	-7076
▁नालंदा	-7077
▁पुलिया	-7078
▁इंटरनेट	-7079
▁वातावरण	-7080
▁लोकप्रिय	-7081
▁विशेषज्ञों	-7082
ंबल	-7083
शाह	-7084
ेंच	-7085
▁नॉ	-7086
जाने	-7087
नामी	-7088
▁खाम	-7089
▁जोग	-7090
न्नाथ	-7091
▁एम्ब	-7092
▁परफॉ	-7093
▁मांझी	-7094
▁योगेश	-7095
▁रोशनी	-7096
▁शौचाल	-7097
कारियों	-7098
▁जयशंकर	-7099
▁लॉरेंस	-7100
▁जगन्नाथ	-7101
▁जबरदस्त	-7102
▁प्रैक्ट	-7103
▁अतिथियों	-7104
▁नवरात्रि	-7105
▁किलोग्राम	-7106
▁मुसलमानों	-7107
ॉफ	-7108
▁Y	-7109
तूस	-7110
लीम	-7111
▁92	-7112
ज्जर	-7113
ाजिल	-7114
▁पेज	-7115
▁फेड	-7116
▁बिछ	-7117
▁लेट	-7118
▁उत्प	-7119
▁वरुण	-7120
▁सिंग	-7121
▁अवकाश	-7122
▁गुलाब	-7123
▁फाजिल	-7124
▁फ्लोर	-7125
▁सिंगल	-7126
▁सूचित	-7127
▁हवाओं	-7128
▁एसयूवी	-7129
▁इन्वेस्ट	-7130
▁उल्लेखनीय	-7131
▁गुरुद्वारा	-7132
-10	-7133
▁700	-7134
▁खड़	-7135
▁फार	-7136
युक्त	-7137
▁2009	-7138
▁आराम	-7139
▁एनडी	-7140
▁कहता	-7141
▁गर्व	-7142
▁ध्रु	-7143
▁लाकर	-7144
▁कैंपस	-7145
▁सशक्त	-7146
▁कामयाब	-7147
▁पॉलिसी	-7148
▁फैमिली	-7149
▁रेवाड़ी	-7150
▁प्लानिंग	-7151
CB	-7152
शर	-7153
टीक	-7154
लेवा	-7155
ार्क	-7156
▁झुल	-7157
▁मजा	-7158
नियों	-7159
ोरेशन	-7160
▁कैटे	-7161
▁चैनल	-7162
▁ट्यू	-7163
▁ट्वी	-7164
▁मरने	-7165
▁उजागर	-7166
▁प्रीम	-7167
▁रणवीर	-7168
▁लगाना	-7169
▁स्पेस	-7170
▁कारतूस	-7171
▁डीजीपी	-7172
▁धूमधाम	-7173
▁पकड़कर	-7174
▁मुखबिर	-7175
▁प्रज्वल	-7176
▁प्रोसेस	-7177
▁साझेदारी	-7178
▁कोषाध्यक्ष	-7179
▁विश्वकर्मा	-7180
CTV	-7181
ुमो	-7182
▁vs	-7183
▁घन	-7184
▁चिप	-7185
▁CCTV	-7186
▁चौथी	-7187
▁छाया	-7188
▁नायक	-7189
▁बंसल	-7190
▁बैठी	-7191
▁मल्ल	-7192
▁सोलर	-7193
वार्टर	-7194
▁कराना	-7195
▁खातों	-7196
▁ट्वीट	-7197
▁फेस्ट	-7198
▁सर्जन	-7199
▁आईआईटी	-7200
▁रोडवेज	-7201
▁निर्यात	-7202
▁शिकायतें	-7203
▁असिस्टेंट	-7204
▁दृष्टिकोण	-7205
▁इंस्टीट्यूट	-7206
णु	-7207
▁वस	-7208
भाषा	-7209
ायंस	-7210
▁अमे	-7211
▁चिट	-7212
▁जॉब	-7213
▁वेट	-7214
धानिक	-7215
▁2013	-7216
▁एमएस	-7217
▁दत्त	-7218
▁शुभम	-7219
▁सेवन	-7220
▁प्लॉट	-7221
▁कल्पना	-7222
▁कोरोना	-7223
▁दुल्हन	-7224
▁जानलेवा	-7225
▁पीड़ितों	-7226
ash	-7227
िंक	-7228
▁इज	-7229
▁पठ	-7230
सेवी	-7231
▁ऋषभ	-7232
▁लीला	-7233
▁वितर	-7234
▁शोषण	-7235
▁दिमाग	-7236
▁पट्टी	-7237
▁विधेय	-7238
▁निर्देशित	-7239
▁बीमारियों	-7240
AD	-7241
कीन	-7242
▁धा	-7243
ाइनल	-7244
कृतिक	-7245
वाइंट	-7246
वासीय	-7247
श्चात	-7248
िस्टर	-7249
▁अड्ड	-7250
▁डाली	-7251
▁मुना	-7252
▁सीधी	-7253
▁Sabha	-7254
▁एसएचओ	-7255
▁कमीशन	-7256
▁तोड़ा	-7257
▁रणबीर	-7258
▁श्रवण	-7259
▁आरक्षक	-7260
▁कुर्सी	-7261
▁निकासी	-7262
▁प्रभात	-7263
▁सर्किल	-7264
▁बाबूलाल	-7265
▁रक्तदान	-7266
▁उपभोक्ता	-7267
▁बलरामपुर	-7268
▁मद्देनजर	-7269
▁परियोजनाओं	-7270
▁परिस्थितियों	-7271
पुट	-7272
▁चम	-7273
द्दा	-7274
स्सी	-7275
ॉट्स	-7276
▁सुप	-7277
▁हाज	-7278
ोग्रा	-7279
▁उड़ा	-7280
▁उद्ध	-7281
▁गहरी	-7282
▁खेलों	-7283
▁दर्शा	-7284
▁परिचय	-7285
▁मेंबर	-7286
▁सीमित	-7287
▁सुधीर	-7288
▁सुराग	-7289
▁दिखाकर	-7290
▁सोलंकी	-7291
▁संस्कृत	-7292
▁केंद्रित	-7293
▁गेंदबाजी	-7294
▁भीलवाड़ा	-7295
▁परीक्षाओं	-7296
फ़ी	-7297
▁फेज	-7298
▁मैर	-7299
स्टार	-7300
▁अनुज	-7301
▁एम्स	-7302
▁धरने	-7303
▁बालू	-7304
▁लेता	-7305
▁पाठ्य	-7306
▁पारित	-7307
▁बक्सर	-7308
▁अश्विन	-7309
▁रिश्ता	-7310
▁निर्मला	-7311
▁माधोपुर	-7312
▁उत्कृष्ट	-7313
SO	-7314
गमन	-7315
धना	-7316
िंट	-7317
▁सऊ	-7318
▁हद	-7319
क्कत	-7320
टीआई	-7321
ारों	-7322
▁1.5	-7323
▁अंश	-7324
▁ठोस	-7325
▁नाज	-7326
▁मदर	-7327
▁लेब	-7328
▁सम्	-7329
साइटी	-7330
ित्तल	-7331
▁एनटी	-7332
▁कठिन	-7333
▁गायक	-7334
▁जदयू	-7335
▁भिड़	-7336
▁मुनि	-7337
र्मेंस	-7338
▁एसडीओ	-7339
▁चोटें	-7340
▁ट्रेड	-7341
▁दर्जा	-7342
▁धक्का	-7343
▁बढ़ाई	-7344
▁शीघ्र	-7345
▁स्पॉट	-7346
▁मित्तल	-7347
▁कैटेगरी	-7348
▁निराकरण	-7349
▁पार्वती	-7350
▁सोसाइटी	-7351
▁ओमप्रकाश	-7352
▁चित्तौड़	-7353
▁पर्यटकों	-7354
▁फाजिल्का	-7355
▁एम्बुलेंस	-7356
▁बल्लेबाजी	-7357
▁चैंपियनशिप	-7358
▁Ma	-7359
▁हू	-7360
▁अंज	-7361
▁जन्	-7362
▁दंड	-7363
▁मोट	-7364
▁लोड	-7365
चार्ज	-7366
िनेशन	-7367
▁पेंट	-7368
▁विवि	-7369
▁सराय	-7370
िवारिक	-7371
िस्तान	-7372
▁अमेठी	-7373
▁वंचित	-7374
▁लड़कों	-7375
▁निर्मित	-7376
▁विस्तृत	-7377
▁शिवपुरी	-7378
▁पारिवारिक	-7379
▁विद्यालयों	-7380
-8	-7381
ter	-7382
अर्	-7383
क्क	-7384
बिन	-7385
▁पत	-7386
▁रच	-7387
धारी	-7388
▁CBI	-7389
▁आधी	-7390
▁कैल	-7391
▁आपदा	-7392
▁गौरी	-7393
▁छिपा	-7394
▁बुलड	-7395
▁आत्मा	-7396
▁कालेज	-7397
▁डूंगर	-7398
▁पदस्थ	-7399
▁मोर्च	-7400
▁अवस्था	-7401
▁आवंटित	-7402
▁जंक्शन	-7403
▁बरकरार	-7404
▁मशक्कत	-7405
▁सर्किट	-7406
▁दर्जनों	-7407
▁स्ट्रीट	-7408
▁संस्थापक	-7409
▁समस्याएं	-7410
़ी	-7411
चरण	-7412
िसू	-7413
▁डु	-7414
▁नह	-7415
▁ाय	-7416
जीवन	-7417
टिया	-7418
▁IND	-7419
▁2008	-7420
▁आंधी	-7421
▁आईएम	-7422
▁गहरे	-7423
▁चौंक	-7424
▁डिस्	-7425
▁तबाद	-7426
▁दुबई	-7427
▁नेहा	-7428
▁लौटे	-7429
▁सम्प	-7430
▁अकाली	-7431
▁एग्री	-7432
▁मंजिल	-7433
▁व्याव	-7434
▁शोरूम	-7435
▁खूबसूर	-7436
▁चंद्रा	-7437
▁जीएसटी	-7438
▁किशनगंज	-7439
▁खरीदारी	-7440
पंथ	-7441
▁3,	-7442
▁74	-7443
ट्टा	-7444
▁चाइ	-7445
▁झलक	-7446
▁बैल	-7447
▁एलान	-7448
▁कम्प	-7449
▁दिखी	-7450
▁पशुप	-7451
▁बायो	-7452
▁रूपए	-7453
▁रैंक	-7454
▁कैप्टन	-7455
▁दिलाया	-7456
▁वितरित	-7457
▁दीक्षित	-7458
▁क्रिकेटर	-7459
ig	-7460
अर	-7461
ृद	-7462
▁b	-7463
कॉम	-7464
शिक	-7465
ोगु	-7466
्हे	-7467
भवती	-7468
▁ड़ी	-7469
▁हिल	-7470
▁आईसी	-7471
▁दबंग	-7472
▁बंदर	-7473
▁बीआर	-7474
▁उन्‍ह	-7475
▁ऑप्शन	-7476
▁खबरें	-7477
▁तत्वा	-7478
▁लौटने	-7479
▁पैमाने	-7480
▁गर्भवती	-7481
▁डिपार्टमेंट	-7482
▁प्रतिभागियों	-7483
ंधा	-7484
▁गम	-7485
▁भव	-7486
डीपी	-7487
मढ़ी	-7488
वाकर	-7489
▁इंफ	-7490
▁बाइ	-7491
▁आईजी	-7492
▁रनों	-7493
▁सब्स	-7494
▁हीरो	-7495
अर्चना	-7496
▁कामना	-7497
▁मल्टी	-7498
▁लड्डू	-7499
▁विक्र	-7500
▁सवारी	-7501
▁आरजेडी	-7502
▁आवागमन	-7503
▁फ्रांस	-7504
▁बढ़ाकर	-7505
▁बुनिया	-7506
▁मेंटेन	-7507
▁सस्पेंड	-7508
▁परफॉर्मेंस	-7509
नक	-7510
्मत	-7511
▁194	-7512
▁बरत	-7513
▁भां	-7514
▁2012	-7515
▁एमबी	-7516
▁एसएस	-7517
▁पाकर	-7518
▁बलों	-7519
▁रखता	-7520
▁अफवाह	-7521
▁आवंटन	-7522
▁कारों	-7523
▁खंडवा	-7524
▁आवासीय	-7525
▁माइक्र	-7526
▁सुर्खियों	-7527
6)	-7528
▁83	-7529
आईसी	-7530
वरेज	-7531
स्को	-7532
▁AAP	-7533
▁जेब	-7534
▁नान	-7535
▁शॉप	-7536
ेशनों	-7537
▁पेशे	-7538
▁बहाल	-7539
▁शाला	-7540
▁सऊदी	-7541
▁स्टो	-7542
▁अपलोड	-7543
▁मिठाई	-7544
▁पुत्री	-7545
▁बालाजी	-7546
▁लेबनान	-7547
▁दोषियों	-7548
▁अंतरिक्ष	-7549
▁वास्तविक	-7550
▁स्टेशनों	-7551
▁काउंसलिंग	-7552
▁ट्रांसपोर्ट	-7553
od	-7554
रिस	-7555
ेशर	-7556
▁Ch	-7557
▁दली	-7558
▁दाल	-7559
▁बया	-7560
▁ख्या	-7561
▁गाना	-7562
▁चुनौ	-7563
▁टैंक	-7564
▁देहा	-7565
▁सूरत	-7566
▁नगरीय	-7567
▁निस्त	-7568
▁फ्लाई	-7569
▁बॉन्ड	-7570
▁भिलाई	-7571
▁सेलिब	-7572
▁अभ्यास	-7573
▁दक्षिणी	-7574
▁पुरुषों	-7575
▁फाइनेंस	-7576
▁पार्षदों	-7577
▁प्राकृतिक	-7578
▁w	-7579
ोर्	-7580
▁73	-7581
▁De	-7582
ोरेट	-7583
▁जूझ	-7584
▁डॉग	-7585
▁फेम	-7586
▁बगल	-7587
▁भैर	-7588
▁वाद	-7589
▁सान	-7590
प्पड़	-7591
मुख्य	-7592
▁अधीन	-7593
▁अनिय	-7594
▁कुंभ	-7595
▁जेवर	-7596
▁तारा	-7597
▁दमकल	-7598
▁वन्य	-7599
▁शवों	-7600
▁सिक्	-7601
▁हेली	-7602
पूर्वक	-7603
िश्वास	-7604
▁आलिया	-7605
▁बोलते	-7606
▁बोलीं	-7607
▁सजाया	-7608
▁स्टॉक	-7609
▁इजरायल	-7610
▁जनजाति	-7611
▁सत्यापन	-7612
▁गृहमंत्री	-7613
▁प्रतिबंधित	-7614
नस	-7615
पढ़	-7616
फार	-7617
विक	-7618
▁08	-7619
▁घो	-7620
▁भौ	-7621
न्यू	-7622
ब्दी	-7623
▁पिच	-7624
▁शिश	-7625
▁चर्च	-7626
▁मुरा	-7627
▁क्रॉस	-7628
▁योग्य	-7629
▁हल्के	-7630
▁आकर्षक	-7631
▁विधेयक	-7632
▁सिद्दी	-7633
▁स्नातक	-7634
▁2024-25	-7635
▁उपमुख्य	-7636
▁चतुर्थी	-7637
▁शिकायतकर्ता	-7638
▁उपमुख्यमंत्री	-7639
▁d	-7640
लेख	-7641
रियर	-7642
▁बलि	-7643
▁शिप	-7644
ृत्ति	-7645
▁गोवा	-7646
▁जहाज	-7647
▁टोंक	-7648
▁तर्क	-7649
▁शीतल	-7650
▁साइट	-7651
मूर्ति	-7652
▁गेस्ट	-7653
▁चयनित	-7654
▁दशहरा	-7655
▁भतीजे	-7656
▁रंजिश	-7657
▁सरदार	-7658
▁सॉफ्ट	-7659
▁निपटने	-7660
▁मिर्जा	-7661
▁मुरैना	-7662
▁हमलावर	-7663
▁ट्रेनें	-7664
▁स्वीकृत	-7665
▁कंप्यूटर	-7666
▁प्रोडक्ट	-7667
▁अनियंत्रित	-7668
दू	-7669
▁RE	-7670
▁SP	-7671
ष्ठी	-7672
्राट	-7673
▁केम	-7674
▁नवन	-7675
▁माथ	-7676
▁लॉक	-7677
▁वक्	-7678
क्रमण	-7679
ोदिया	-7680
▁जमुई	-7681
▁नगरी	-7682
▁रॉयल	-7683
▁लेती	-7684
▁वंदे	-7685
▁वासी	-7686
▁ग्रेड	-7687
▁जापान	-7688
▁तंत्र	-7689
▁फायदे	-7690
▁फूलों	-7691
▁बराबर	-7692
▁रिंकू	-7693
▁वृक्ष	-7694
▁उन्हीं	-7695
▁ट्रेंड	-7696
▁थप्पड़	-7697
▁पिछड़ा	-7698
▁मिलियन	-7699
▁वैष्णव	-7700
▁शौचालय	-7701
▁सम्राट	-7702
▁एजुकेशन	-7703
▁ज्योतिष	-7704
▁सक्सेना	-7705
▁छात्रावास	-7706
ओवर	-7707
हाँ	-7708
▁71	-7709
▁ड़	-7710
▁तन	-7711
श्ती	-7712
▁अद्	-7713
▁तड़	-7714
▁दीं	-7715
▁बहा	-7716
ारिया	-7717
▁अमाव	-7718
▁कठोर	-7719
▁कारी	-7720
▁कुचल	-7721
▁टंकी	-7722
▁पद्म	-7723
▁बैनर	-7724
▁यूजी	-7725
▁लोकल	-7726
▁सीने	-7727
▁हुड्	-7728
जेक्शन	-7729
रिक्शा	-7730
▁कॉर्प	-7731
▁मासिक	-7732
▁मौर्य	-7733
▁रहमान	-7734
▁आरोपित	-7735
▁एडिशनल	-7736
▁गेंदों	-7737
▁यूट्यू	-7738
▁हिम्मत	-7739
▁शेड्यूल	-7740
▁स्टार्ट	-7741
▁अधिकारों	-7742
▁चुनौतियों	-7743
um	-7744
मू	-7745
हो	-7746
-24	-7747
थान	-7748
▁ढेर	-7749
▁धीर	-7750
▁बला	-7751
▁हमी	-7752
पत्नी	-7753
▁Indi	-7754
▁Khan	-7755
▁ढांच	-7756
▁नोडल	-7757
▁लीडर	-7758
▁आभूषण	-7759
▁जितना	-7760
▁मुफ्त	-7761
▁श्रेय	-7762
▁अनुरूप	-7763
▁नक्सली	-7764
▁पानीपत	-7765
▁प्रीति	-7766
▁मृतकों	-7767
▁सच्चाई	-7768
▁कारावास	-7769
▁चित्तौड़गढ़	-7770
ET	-7771
ंजय	-7772
समंद	-7773
▁अखा	-7774
▁कवर	-7775
▁जोख	-7776
▁वंद	-7777
सेक्स	-7778
▁चलाए	-7779
▁बंधक	-7780
▁स्ने	-7781
▁आर्यन	-7782
▁गणपति	-7783
▁बैठने	-7784
▁रणजीत	-7785
▁ग्राहक	-7786
▁परिचित	-7787
▁शब्दों	-7788
▁शेखावत	-7789
▁अमावस्या	-7790
▁सेंसेक्स	-7791
▁प्रतिनिधियों	-7792
rat	-7793
षित	-7794
ाइज	-7795
▁97	-7796
▁्‍	-7797
गारी	-7798
ट्टू	-7799
माणु	-7800
र्की	-7801
▁गंद	-7802
▁जेव	-7803
▁मीन	-7804
▁लता	-7805
पढ़ें	-7806
बरेली	-7807
▁आरके	-7808
▁कांट	-7809
▁गरबा	-7810
▁गहने	-7811
▁जहरी	-7812
▁फ़िल	-7813
▁भोले	-7814
▁मॉनि	-7815
▁सोचा	-7816
▁ओपीडी	-7817
▁बलिया	-7818
▁हाथरस	-7819
▁परमाणु	-7820
▁डोनाल्ड	-7821
▁वेरिएंट	-7822
▁रायबरेली	-7823
म्भ	-7824
▁63	-7825
▁81	-7826
▁उर	-7827
ष्ठा	-7828
▁आनन	-7829
▁चौर	-7830
▁टैग	-7831
▁डोर	-7832
▁ेगी	-7833
कार्प	-7834
निवास	-7835
▁क्रू	-7836
▁दयाल	-7837
▁वक्फ	-7838
▁विंग	-7839
▁सतना	-7840
▁हायर	-7841
▁हॉकी	-7842
▁क्‍या	-7843
▁चलाते	-7844
▁लकड़ी	-7845
▁लिफ्ट	-7846
▁निरंतर	-7847
▁परिचाल	-7848
▁उपलब्धि	-7849
▁प्रकृति	-7850
▁सेक्रेट	-7851
▁प्लेटफार्म	-7852
-6	-7853
4)	-7854
फरी	-7855
लेन	-7856
प्ति	-7857
लीला	-7858
सागर	-7859
▁देह	-7860
▁अंचल	-7861
▁आरपी	-7862
▁एसएम	-7863
▁दलाल	-7864
▁फॉलो	-7865
▁सेले	-7866
▁स्रो	-7867
▁निंदा	-7868
▁पड़ती	-7869
▁महीना	-7870
▁समझने	-7871
▁जेसीबी	-7872
▁पर्सनल	-7873
▁शेयरों	-7874
▁बुलडोजर	-7875
▁विज्ञापन	-7876
▁राजेन्द्र	-7877
▁सर्वेक्षण	-7878
',	-7879
MC	-7880
▁a	-7881
रोध	-7882
हमी	-7883
ारस	-7884
लांग	-7885
▁जॉन	-7886
▁रेव	-7887
क्षेप	-7888
मान्य	-7889
श्याम	-7890
ांतरण	-7891
▁ताजा	-7892
▁मयंक	-7893
▁गंदगी	-7894
▁बचाया	-7895
▁स्टेज	-7896
▁हज़ार	-7897
▁डिफेंस	-7898
▁प्राइम	-7899
▁महासभा	-7900
▁पासपोर्ट	-7901
▁समाजसेवी	-7902
▁हेक्टेयर	-7903
्राष्ट्रीय	-7904
▁न्यायमूर्ति	-7905
गव	-7906
गाट	-7907
बैक	-7908
वों	-7909
षाद	-7910
▁88	-7911
▁An	-7912
▁दरो	-7913
▁लिव	-7914
ेंसिक	-7915
्मीकि	-7916
▁आपात	-7917
▁ईमान	-7918
▁कैंट	-7919
▁खोले	-7920
▁तकरी	-7921
▁मस्क	-7922
▁सीएच	-7923
▁कराकर	-7924
▁पथराव	-7925
▁विदाई	-7926
▁अलीगढ़	-7927
▁दिखाते	-7928
▁पुष्पा	-7929
▁बर्बाद	-7930
▁अग्निवीर	-7931
▁औरंगाबाद	-7932
़ा	-7933
▁o	-7934
कुश	-7935
▁79	-7936
जाही	-7937
▁कों	-7938
▁डील	-7939
▁डेड	-7940
▁नमा	-7941
▁पाप	-7942
▁रिए	-7943
▁समर	-7944
▁सवा	-7945
▁इनाम	-7946
▁कमाल	-7947
▁घंटा	-7948
▁जमशे	-7949
▁ब्लै	-7950
▁लालच	-7951
प्रदाय	-7952
वर्गीय	-7953
▁कास्ट	-7954
▁जोखिम	-7955
▁दरोगा	-7956
▁बुद्ध	-7957
▁शातिर	-7958
▁जीआरपी	-7959
▁निकाले	-7960
▁समन्वय	-7961
▁सालाना	-7962
▁आवाजाही	-7963
▁रिकार्ड	-7964
▁साक्ष्य	-7965
▁बुनियादी	-7966
▁विजयवर्गीय	-7967
पाट	-7968
रेप	-7969
शान	-7970
िडी	-7971
्टे	-7972
गुजा	-7973
विजय	-7974
ृत्त	-7975
▁ंगी	-7976
▁अपन	-7977
▁अफ़	-7978
▁कूल	-7979
▁झेल	-7980
▁दुर	-7981
▁नकद	-7982
▁पूर	-7983
▁रोष	-7984
▁सुद	-7985
मात्र	-7986
ामुमो	-7987
▁....	-7988
▁इकोन	-7989
▁जियो	-7990
▁लड़े	-7991
▁एसीबी	-7992
▁क्लिक	-7993
▁निषाद	-7994
▁अगुवाई	-7995
▁अविनाश	-7996
▁फैलाने	-7997
▁बनेंगे	-7998
▁रामायण	-7999
▁नवरात्र	-8000
▁प्रजापति	-8001
▁मुताबिक़	-8002
▁पाठ्यक्रम	-8003
EO	-8004
IM	-8005
SI	-8006
खोर	-8007
णिक	-8008
▁थम	-8009
▁350	-8010
▁NDA	-8011
▁खरा	-8012
▁गाल	-8013
▁चुप	-8014
▁चूं	-8015
▁वैन	-8016
▁कॉलो	-8017
▁गर्ल	-8018
▁चिंत	-8019
▁झुंझ	-8020
▁टूटा	-8021
▁तिरा	-8022
▁थर्ड	-8023
▁बाजी	-8024
▁वसूल	-8025
▁समित	-8026
▁अवतार	-8027
▁प्रमो	-8028
▁प्रीत	-8029
▁रंजीत	-8030
▁श्रीग	-8031
▁सैलरी	-8032
▁मजबूती	-8033
▁मालवीय	-8034
▁संतुलन	-8035
▁समुद्र	-8036
▁सरगुजा	-8037
▁फेस्टिव	-8038
▁हिमांशु	-8039
▁आक्रोशित	-8040
▁सर्वाधिक	-8041
▁सिद्दीकी	-8042
कूल	-8043
ामक	-8044
आरएफ	-8045
गुरु	-8046
वकों	-8047
▁बिख	-8048
ियमित	-8049
▁कुएं	-8050
▁कुशल	-8051
▁ग्रो	-8052
▁जींद	-8053
▁डाले	-8054
▁पहने	-8055
▁पाटी	-8056
▁पोषण	-8057
▁लंदन	-8058
▁इलाका	-8059
▁गड्ढे	-8060
▁झांकी	-8061
▁सिफार	-8062
▁स्क्र	-8063
▁डिवाइस	-8064
▁नतीजों	-8065
▁वस्त्र	-8066
▁वायनाड	-8067
ंगत	-8068
ंसक	-8069
▁96	-8070
ंसिल	-8071
र्ति	-8072
▁370	-8073
▁कृत	-8074
▁पिल	-8075
▁बुम	-8076
▁भिज	-8077
ार्गव	-8078
ोत्तम	-8079
▁कर्त	-8080
▁जलकर	-8081
▁धारण	-8082
▁नारा	-8083
▁पापा	-8084
▁बसें	-8085
▁माइन	-8086
▁लिखे	-8087
▁सिखा	-8088
▁स्कॉ	-8089
ानुसार	-8090
▁अधिसू	-8091
▁उद्धव	-8092
▁जन्मा	-8093
▁स्टील	-8094
▁जानकार	-8095
▁पहलवान	-8096
▁भार्गव	-8097
▁सहकारी	-8098
▁सिल्वर	-8099
▁क्वार्टर	-8100
▁हमलावरों	-8101
▁अभिनेत्री	-8102
▁मंत्रिमंडल	-8103
0)	-8104
ष्‍	-8105
▁87	-8106
क्या	-8107
विंग	-8108
▁उठे	-8109
▁पला	-8110
▁पैस	-8111
▁बीर	-8112
▁ऑडिट	-8113
▁खिता	-8114
▁ठगों	-8115
▁डेमो	-8116
▁बर्थ	-8117
▁मछली	-8118
▁मल्ह	-8119
▁रूसी	-8120
▁रोड़	-8121
▁संभा	-8122
▁साइन	-8123
▁सेहत	-8124
▁एजेंड	-8125
▁कामका	-8126
▁दायरे	-8127
▁देहात	-8128
▁नवादा	-8129
▁पहिया	-8130
▁वंदना	-8131
▁एडवांस	-8132
▁झामुमो	-8133
▁तकरीबन	-8134
▁बुमराह	-8135
▁सेफ्टी	-8136
▁सिफारिश	-8137
▁मिलीमीटर	-8138
ोड	-8139
काउ	-8140
पीठ	-8141
बूझ	-8142
सले	-8143
▁छी	-8144
आईजी	-8145
▁इकल	-8146
▁चैल	-8147
▁महल	-8148
▁शोक	-8149
धियों	-8150
्रेसी	-8151
▁गणना	-8152
▁बनती	-8153
▁बवाल	-8154
▁बेनी	-8155
▁मीरा	-8156
▁शरीफ	-8157
▁सबके	-8158
▁अड्डे	-8159
▁केन्द	-8160
▁निखिल	-8161
▁फास्ट	-8162
▁फोगाट	-8163
▁किराया	-8164
▁कीर्तन	-8165
▁पर्यटक	-8166
▁वाल्मीकि	-8167
▁केन्द्रीय	-8168
▁सेक्रेटरी	-8169
CP	-8170
लि	-8171
▁f	-8172
▁खि	-8173
ंडीज	-8174
लेखक	-8175
िंडा	-8176
▁खनि	-8177
▁लघु	-8178
▁सनी	-8179
मार्ग	-8180
▁अर्ध	-8181
▁केयर	-8182
▁कोठी	-8183
▁नाला	-8184
▁पलवल	-8185
ंगानगर	-8186
▁एनकाउ	-8187
▁खबरों	-8188
▁ज़रूर	-8189
▁हैरिस	-8190
▁आकर्षण	-8191
▁इन्हीं	-8192
▁करवाकर	-8193
▁गरीबों	-8194
▁प्लेयर	-8195
▁मेकर्स	-8196
▁रामपुर	-8197
▁एकत्रित	-8198
▁अत्याचार	-8199
▁पहलेलेखक	-8200
▁प्रोडक्शन	-8201
▁श्रीगंगानगर	-8202
SS	-8203
ठे	-8204
ुए	-8205
तूल	-8206
ुआं	-8207
▁98	-8208
▁्ड	-8209
लाइट	-8210
िप्त	-8211
ूनों	-8212
▁चिर	-8213
▁नॉन	-8214
▁पान	-8215
▁शाल	-8216
त्संग	-8217
र्वेद	-8218
▁2007	-8219
▁अस्त	-8220
▁आर्म	-8221
▁कन्न	-8222
▁क़ान	-8223
▁छिड़	-8224
▁धरती	-8225
▁पीयू	-8226
ार्जुन	-8227
▁अरुणा	-8228
▁चूंकि	-8229
▁जोड़े	-8230
▁स्पिन	-8231
▁अंबिका	-8232
▁जोड़कर	-8233
▁पश्चात	-8234
▁फेसबुक	-8235
▁सत्संग	-8236
▁सुनाया	-8237
▁चौंकाने	-8238
▁नीतियों	-8239
▁एनकाउंटर	-8240
▁प्रैक्टिस	-8241
me	-8242
LSO	-8243
न्ग	-8244
ांज	-8245
▁.0	-8246
▁61	-8247
▁एथ	-8248
ग्रह	-8249
माही	-8250
सफाई	-8251
▁एसओ	-8252
▁गूं	-8253
▁बसे	-8254
▁युग	-8255
▁हेर	-8256
▁READ	-8257
▁ईस्ट	-8258
▁नारन	-8259
▁भिंड	-8260
नारायण	-8261
▁इमारत	-8262
▁ऑडियो	-8263
▁जितने	-8264
▁पुतिन	-8265
▁वॉट्स	-8266
▁हैंडल	-8267
▁करूंगा	-8268
▁प्रवर्	-8269
▁अनियमित	-8270
▁क्रमांक	-8271
▁रवींद्र	-8272
▁आयुर्वेद	-8273
▁राजमार्ग	-8274
▁लड़कियां	-8275
▁सर्वोच्च	-8276
▁शांतिपूर्ण	-8277
ऐप	-8278
्थ	-8279
‍च	-8280
टके	-8281
प्ल	-8282
▁एह	-8283
▁मऊ	-8284
देही	-8285
रोवर	-8286
ेटिव	-8287
▁1.2	-8288
▁गहन	-8289
▁टकर	-8290
▁फिस	-8291
▁भंग	-8292
▁वीं	-8293
▁शीत	-8294
▁हृद	-8295
ियाला	-8296
्तानी	-8297
▁कड़े	-8298
▁जीतू	-8299
ेश्वरी	-8300
▁कामों	-8301
▁गिरकर	-8302
▁अधिग्र	-8303
▁जायेगा	-8304
▁झुंझुन	-8305
▁स्त्री	-8306
▁निशुल्क	-8307
▁बंटवारे	-8308
▁मूवमेंट	-8309
▁सिसोदिया	-8310
▁नर्मदापुरम	-8311
7)	-8312
णम	-8313
ॉग	-8314
ोच	-8315
यरी	-8316
गलौज	-8317
भराव	-8318
मानी	-8319
विधि	-8320
िएटर	-8321
▁अटक	-8322
▁अपे	-8323
▁गरज	-8324
▁चमक	-8325
▁तंज	-8326
▁पैट	-8327
▁फैन	-8328
▁रेन	-8329
द्वाज	-8330
▁गुस्	-8331
▁जॉइन	-8332
▁डीआर	-8333
▁दादी	-8334
▁नींद	-8335
▁साधक	-8336
▁उठाते	-8337
▁जलाने	-8338
▁डेयरी	-8339
▁तलवार	-8340
▁देवास	-8341
▁बुलेट	-8342
▁विविध	-8343
▁समझाया	-8344
▁गतिविधि	-8345
▁गायत्री	-8346
▁सलाहकार	-8347
▁क्वालिटी	-8348
▁बच्चियों	-8349
▁विवाहिता	-8350
▁शिक्षिका	-8351
▁जन्माष्टमी	-8352
▁प्रदर्शनकारियों	-8353
इस	-8354
ौफ	-8355
कुल	-8356
मीत	-8357
▁ऑफ़	-8358
▁चरम	-8359
▁डकै	-8360
फाइनल	-8361
ृष्टि	-8362
▁खिड़	-8363
▁डिब्	-8364
▁रीजन	-8365
▁रुके	-8366
▁आध्या	-8367
▁सोसाय	-8368
▁कटिहार	-8369
▁जलभराव	-8370
▁सौभाग्य	-8371
▁गोस्वामी	-8372
▁जमशेदपुर	-8373
▁भारद्वाज	-8374
▁मेंटेनेंस	-8375
▁सेमीफाइनल	-8376
ma	-8377
आम	-8378
मण	-8379
ana	-8380
ide	-8381
ंकन	-8382
ंसी	-8383
तीन	-8384
दमी	-8385
▁(5	-8386
पिंग	-8387
ूर्ण	-8388
▁IAS	-8389
▁इजा	-8390
▁घात	-8391
▁लखी	-8392
▁हरे	-8393
चारिक	-8394
्वरित	-8395
▁अजित	-8396
▁आरटी	-8397
▁चाली	-8398
▁प्रौ	-8399
▁मांस	-8400
▁लाना	-8401
▁वीजा	-8402
▁सरोज	-8403
▁सलीम	-8404
▁तरीका	-8405
▁नायडू	-8406
▁पैलेस	-8407
▁लगाएं	-8408
▁विधिक	-8409
▁वृंदा	-8410
▁सहारा	-8411
▁इसीलिए	-8412
▁चैलेंज	-8413
▁त्वरित	-8414
▁बयानों	-8415
▁राजगढ़	-8416
▁रामगढ़	-8417
▁संग्रह	-8418
▁सीएचसी	-8419
▁उत्पन्न	-8420
▁प्रसन्न	-8421
▁वाजपेयी	-8422
▁इलाहाबाद	-8423
▁डिस्प्ले	-8424
▁निर्माता	-8425
▁डेवलपमेंट	-8426
▁प्रत्यक्ष	-8427
▁आदिवासियों	-8428
ाइश	-8429
ालन	-8430
▁84	-8431
▁Up	-8432
hone	-8433
देशक	-8434
▁कंस	-8435
▁शेट	-8436
▁सीर	-8437
▁सैफ	-8438
ंत्रण	-8439
इंडीज	-8440
▁कमान	-8441
▁घबरा	-8442
▁झंडा	-8443
▁डंपर	-8444
▁डीजे	-8445
▁निशा	-8446
▁पठान	-8447
▁परेड	-8448
▁रनौत	-8449
▁अनीता	-8450
▁इशारा	-8451
▁गोवंश	-8452
▁घेराव	-8453
▁दिनभर	-8454
▁पुण्य	-8455
▁महिंद	-8456
▁हवाएं	-8457
▁अनुदान	-8458
▁कीर्ति	-8459
▁कुत्ते	-8460
▁घोटाला	-8461
▁प्रिंट	-8462
▁अपराधों	-8463
▁चिह्नित	-8464
डब्ल्यूडी	-8465
▁ट्रांसफार्म	-8466
डमी	-8467
▁82	-8468
▁खुर	-8469
▁जाग	-8470
▁डरा	-8471
▁अभाव	-8472
▁डेरा	-8473
▁फैशन	-8474
▁रत्न	-8475
▁रामा	-8476
पालिका	-8477
▁खाड़ी	-8478
▁झगड़े	-8479
▁निराश	-8480
▁यमुना	-8481
▁रिक्त	-8482
▁शाहिद	-8483
▁कांवड़	-8484
▁जेडीयू	-8485
▁जेवरात	-8486
▁तत्वों	-8487
▁पंचांग	-8488
▁भेदभाव	-8489
▁व्यस्त	-8490
▁2023-24	-8491
▁कप्तानी	-8492
▁गणतंत्र	-8493
▁सिलसिले	-8494
▁निदेशालय	-8495
▁पंचायतों	-8496
▁तत्वावधान	-8497
▁प्रदर्शित	-8498
धु	-8499
▁5,	-8500
एक्स	-8501
ेटेड	-8502
▁झील	-8503
▁मनु	-8504
▁रमन	-8505
▁सत्	-8506
▁ाें	-8507
दाश्त	-8508
▁खुली	-8509
▁गुरू	-8510
▁झाला	-8511
▁पेटी	-8512
▁रिंग	-8513
▁हृदय	-8514
धारोपण	-8515
र्शियल	-8516
▁एसीपी	-8517
▁कस्टम	-8518
▁क़रीब	-8519
▁खुलने	-8520
▁भंडार	-8521
▁मियां	-8522
▁हाइवे	-8523
▁प्रांत	-8524
▁संभाला	-8525
▁समाचार	-8526
▁स्टाइल	-8527
▁इलेक्शन	-8528
▁निस्तारण	-8529
▁पदार्थों	-8530
▁पौधारोपण	-8531
▁आंगनबाड़ी	-8532
▁प्रताड़ित	-8533
▁सहयोगियों	-8534
▁जनप्रतिनिधियों	-8535
pp	-8536
-19	-8537
ईडी	-8538
ोंग	-8539
▁SD	-8540
▁St	-8541
▁बठ	-8542
प्पा	-8543
ुतोष	-8544
▁खां	-8545
▁बेन	-8546
▁राउ	-8547
दित्य	-8548
सामने	-8549
▁2011	-8550
▁आमने	-8551
▁उग्र	-8552
▁एनएस	-8553
▁भंवर	-8554
▁मानक	-8555
▁मूर्	-8556
▁वाइस	-8557
▁शक्त	-8558
▁शत्र	-8559
▁कट्टा	-8560
▁कोहरा	-8561
▁जावेद	-8562
▁ध्रुव	-8563
▁बैतूल	-8564
▁भगवंत	-8565
▁भेजकर	-8566
▁महंगा	-8567
▁साड़ी	-8568
▁जर्मनी	-8569
▁प्रिया	-8570
▁प्लाजा	-8571
▁बिट्टू	-8572
▁दानापुर	-8573
▁प्रकाशित	-8574
▁संचालकों	-8575
▁मॉनिटरिंग	-8576
▁इलेक्ट्रॉनिक	-8577
कलन	-8578
गिल	-8579
रोल	-8580
हीर	-8581
ोकन	-8582
▁हत	-8583
▁125	-8584
▁उपर	-8585
▁दाह	-8586
▁धौल	-8587
▁पेन	-8588
▁सेठ	-8589
स्तों	-8590
▁2005	-8591
▁आगमन	-8592
▁कबीर	-8593
▁देनी	-8594
▁नीलम	-8595
▁महाय	-8596
▁मादक	-8597
▁राघव	-8598
▁वैभव	-8599
्यांकन	-8600
▁इजाफा	-8601
▁चलाकर	-8602
▁जानता	-8603
▁मुंडा	-8604
▁स्मार	-8605
▁आशुतोष	-8606
▁कैमरों	-8607
▁निर्मल	-8608
▁निशाने	-8609
▁प्रेशर	-8610
▁मुहैया	-8611
▁मेहमान	-8612
▁समीकरण	-8613
▁एकमात्र	-8614
▁वार्डों	-8615
▁सीएमएचओ	-8616
▁चार्जिंग	-8617
▁महिंद्रा	-8618
▁स्ट्राइक	-8619
▁प्रतापगढ़	-8620
GB	-8621
एप	-8622
बो	-8623
▁h	-8624
कुम	-8625
गित	-8626
बेट	-8627
कल्प	-8628
क्‍स	-8629
नायक	-8630
▁ंगे	-8631
▁राख	-8632
▁रोट	-8633
णाधीन	-8634
▁एस्ट	-8635
▁खाकर	-8636
▁झाड़	-8637
▁दीदी	-8638
▁द्वि	-8639
▁पटरी	-8640
▁रुचि	-8641
▁शिना	-8642
▁अभद्र	-8643
▁अवधेश	-8644
▁खिताब	-8645
▁दादरी	-8646
▁निवार	-8647
▁बेल्ट	-8648
▁वर्दी	-8649
▁वारंट	-8650
वैधानिक	-8651
▁कपड़ों	-8652
▁पोलिंग	-8653
▁फुटबॉल	-8654
▁बैटिंग	-8655
▁रखेंगे	-8656
▁राधिका	-8657
▁आकर्षित	-8658
▁ऑफिशियल	-8659
▁दायित्व	-8660
▁परिचालन	-8661
▁आमंत्रित	-8662
▁परेशानियों	-8663
▁निर्माणाधीन	-8664
-0	-8665
ai	-8666
चू	-8667
धू	-8668
षक	-8669
ंटू	-8670
पैठ	-8671
ोला	-8672
▁गड	-8673
वड़ा	-8674
शुदा	-8675
सरों	-8676
स्पी	-8677
्तों	-8678
▁Day	-8679
▁चचे	-8680
▁लटक	-8681
▁सहर	-8682
भिषेक	-8683
▁अख्त	-8684
▁चारा	-8685
▁दांव	-8686
▁विफल	-8687
▁पहाड़	-8688
▁फरिया	-8689
▁बंदूक	-8690
▁विवरण	-8691
▁एग्जिट	-8692
▁चित्रक	-8693
▁शिवाजी	-8694
▁साक्षी	-8695
▁रामलीला	-8696
▁समृद्धि	-8697
▁सीताराम	-8698
▁बर्दाश्त	-8699
▁सिद्धांत	-8700
▁गतिविधियां	-8701
▁g	-8702
जनी	-8703
बड़	-8704
ौनी	-8705
▁EV	-8706
ऊंगा	-8707
रेगा	-8708
हाना	-8709
▁Pro	-8710
▁ऑयल	-8711
▁ओला	-8712
▁संल	-8713
▁2010	-8714
▁कलां	-8715
▁झूठे	-8716
▁भरकर	-8717
▁रश्म	-8718
▁कोविड	-8719
▁पाएगा	-8720
▁पौधों	-8721
▁बाड़ी	-8722
▁युक्त	-8723
ाध्यक्ष	-8724
ियारपुर	-8725
▁पुस्तक	-8726
▁पूर्वक	-8727
▁बठिंडा	-8728
▁बैंकों	-8729
▁संगीता	-8730
▁एसडीपीओ	-8731
▁कार्मिक	-8732
▁ठिकानों	-8733
▁संपूर्ण	-8734
▁सोसायटी	-8735
▁जबरदस्ती	-8736
▁द्विवेदी	-8737
▁बलात्कार	-8738
▁माहेश्वरी	-8739
▁विचारधारा	-8740
▁दस्तावेजों	-8741
▁राज्यमंत्री	-8742
▁प्रदेशाध्यक्ष	-8743
▁अंतर्राष्ट्रीय	-8744
ch	-8745
ंसू	-8746
▁खट	-8747
रोइन	-8748
▁आलू	-8749
▁कहे	-8750
▁क्व	-8751
▁गोप	-8752
▁चीख	-8753
▁बान	-8754
▁वॉल	-8755
▁होल	-8756
▁2004	-8757
▁दवाइ	-8758
▁पाता	-8759
▁पारस	-8760
▁फिसल	-8761
▁बंधन	-8762
▁मूंग	-8763
▁कपड़ा	-8764
▁कोयला	-8765
▁गीतों	-8766
▁टूटने	-8767
▁त्याग	-8768
▁बुलाई	-8769
▁बौद्ध	-8770
▁शत्रु	-8771
▁बढ़ेगी	-8772
▁बुझाने	-8773
▁मेघवाल	-8774
▁सीरिया	-8775
▁पाटीदार	-8776
▁झुंझुनूं	-8777
▁प्रेमिका	-8778
▁बेरोजगारी	-8779
▁सेवानिवृत्त	-8780
aj	-8781
ov	-8782
यु	-8783
ang	-8784
मंद	-8785
▁4,	-8786
▁ऋण	-8787
▁टॉस	-8788
▁ताइ	-8789
▁धूल	-8790
▁भटक	-8791
ष्कार	-8792
ित्री	-8793
▁कॉम्	-8794
▁ग्रह	-8795
▁दोगु	-8796
▁पढ़ा	-8797
▁मिलन	-8798
र्निंग	-8799
▁आमतौर	-8800
▁उद्यम	-8801
▁क्रिस	-8802
▁दोहरा	-8803
▁निर्व	-8804
▁बनेगी	-8805
▁आईपीएस	-8806
▁घुसपैठ	-8807
▁देखरेख	-8808
▁निकलकर	-8809
▁नौसेना	-8810
▁प्रसंग	-8811
▁महानगर	-8812
▁राजनाथ	-8813
▁सोनीपत	-8814
▁गैंगरेप	-8815
▁ब्रिटिश	-8816
▁दिग्विजय	-8817
▁प्रोड्यू	-8818
▁विराजमान	-8819
▁व्याख्या	-8820
▁पहुंचेंगे	-8821
▁हस्तक्षेप	-8822
▁हिंदुस्तान	-8823
▁पीडब्ल्यूडी	-8824
▁ट्रांसफार्मर	-8825
ut	-8826
समय	-8827
▁अड	-8828
▁गन	-8829
ांचल	-8830
▁डीह	-8831
▁मिज	-8832
▁घटकर	-8833
▁बसंत	-8834
वेन्यू	-8835
▁-2024	-8836
▁कोहरे	-8837
▁नड्डा	-8838
▁नतीजा	-8839
▁नहाने	-8840
▁नामों	-8841
▁बताकर	-8842
▁बताती	-8843
▁बूथों	-8844
▁भरोसे	-8845
▁मैरिज	-8846
▁साधना	-8847
▁काउंटर	-8848
▁धारदार	-8849
▁पंजीयन	-8850
▁मल्लिक	-8851
▁अश्विनी	-8852
▁जानवरों	-8853
▁फतेहपुर	-8854
▁सचिवालय	-8855
▁दुनियाभर	-8856
▁प्रोफेशन	-8857
▁महेंद्रगढ़	-8858
▁रिश्तेदारों	-8859
HO	-8860
IA	-8861
ॉर	-8862
लोग	-8863
स्य	-8864
▁91	-8865
▁We	-8866
ख्ता	-8867
ालाल	-8868
िडोर	-8869
▁आैर	-8870
▁कमर	-8871
▁खाई	-8872
▁जया	-8873
▁जेट	-8874
▁बिन	-8875
▁बॉस	-8876
▁मज़	-8877
▁मुन	-8878
िशंकर	-8879
▁कतार	-8880
▁काटा	-8881
▁केवी	-8882
▁ठेका	-8883
▁धोनी	-8884
▁प्लस	-8885
▁मच्छ	-8886
▁रखती	-8887
▁इंटेल	-8888
▁इरफान	-8889
▁ग़ज़ा	-8890
▁जितनी	-8891
▁श्रीम	-8892
▁साहिल	-8893
प्ताहिक	-8894
▁वकीलों	-8895
▁सीमेंट	-8896
द्योगिकी	-8897
▁अनुमंडल	-8898
▁कॉरिडोर	-8899
▁घनश्याम	-8900
▁पटियाला	-8901
▁पुरोहित	-8902
▁म्यूजिक	-8903
▁वॉट्सऐप	-8904
▁फेस्टिवल	-8905
▁वेस्टइंडीज	-8906
जुए	-8907
भूत	-8908
▁7,	-8909
▁कव	-8910
▁फू	-8911
▁शत	-8912
▁हौ	-8913
ांडा	-8914
▁450	-8915
▁900	-8916
▁एकल	-8917
▁खेर	-8918
▁खैर	-8919
▁बची	-8920
▁मॉल	-8921
▁वॉक	-8922
▁सुध	-8923
▁सेग	-8924
▁हवन	-8925
▁प्रह	-8926
▁मजाक	-8927
▁राइट	-8928
▁वादी	-8929
▁सीएस	-8930
▁केदार	-8931
▁निचले	-8932
▁पर्ची	-8933
▁पीयूष	-8934
▁पुस्त	-8935
▁बनाता	-8936
▁धौलपुर	-8937
▁स्वाति	-8938
▁योजनाएं	-8939
▁रिलायंस	-8940
▁सितम्बर	-8941
▁कार्यपाल	-8942
▁चार्जशीट	-8943
▁सोनाक्षी	-8944
▁हेल्पलाइन	-8945
ia	-8946
ंबा	-8947
डीओ	-8948
ोगी	-8949
▁भट	-8950
पश्च	-8951
सुनी	-8952
िंटन	-8953
्रार	-8954
▁टें	-8955
▁धमक	-8956
▁र्स	-8957
▁वान	-8958
▁शंभ	-8959
स्तौल	-8960
्वेता	-8961
▁अनदे	-8962
▁घाटी	-8963
▁ब्लू	-8964
▁भैया	-8965
▁मेजब	-8966
▁योगा	-8967
▁शूटर	-8968
▁सहार	-8969
▁खेड़ी	-8970
▁पाटिल	-8971
▁मंडला	-8972
▁मिथुन	-8973
▁विपिन	-8974
▁सकेगी	-8975
▁कालोनी	-8976
▁खोजबीन	-8977
▁गुस्से	-8978
▁नागपुर	-8979
▁रिलेशन	-8980
▁शिक्षण	-8981
▁श्वेता	-8982
▁संविदा	-8983
▁सेल्फी	-8984
▁हेरोइन	-8985
▁पिस्तौल	-8986
▁फेडरेशन	-8987
▁ब्लास्ट	-8988
▁निर्देशक	-8989
▁प्रवर्तन	-8990
▁मुरादाबाद	-8991
▁प्रतिष्ठित	-8992
▁प्रौद्योगिकी	-8993
ंठ	-8994
डु	-8995
dra	-8996
णीय	-8997
मिन	-8998
ाटक	-8999
▁ट्	-9000
घरों	-9001
प्पल	-9002
हराम	-9003
▁Pri	-9004
▁जडे	-9005
▁निभ	-9006
ख्यात	-9007
गीरों	-9008
▁आयकर	-9009
▁खनिज	-9010
▁झुलस	-9011
▁धारी	-9012
▁धीरज	-9013
▁मिनी	-9014
▁मेंट	-9015
▁डिस्क	-9016
▁फ्रॉड	-9017
▁बाउंड	-9018
▁मुर्म	-9019
▁मुस्त	-9020
▁होल्ड	-9021
▁अत्यंत	-9022
▁एकेडमी	-9023
▁कागजात	-9024
▁तिमाही	-9025
▁दूसरों	-9026
▁सिद्धू	-9027
▁सीवरेज	-9028
▁वृंदावन	-9029
▁नागरिकता	-9030
▁राहगीरों	-9031
▁सीतामढ़ी	-9032
▁अंबिकापुर	-9033
▁साप्ताहिक	-9034
▁अपार्टमेंट	-9035
▁+	-9036
जोत	-9037
ल्व	-9038
▁NE	-9039
क्सो	-9040
दर्भ	-9041
दाता	-9042
ाइजी	-9043
ाफ्ट	-9044
▁110	-9045
▁कंड	-9046
▁झड़	-9047
▁बैन	-9048
▁भगा	-9049
▁लैस	-9050
▁1500	-9051
▁अमीर	-9052
▁कागज	-9053
▁खदान	-9054
▁जाटव	-9055
▁टायर	-9056
▁तर्ज	-9057
▁भड़क	-9058
▁संतु	-9059
▁सेवक	-9060
रात्रि	-9061
▁ओटीटी	-9062
▁कराते	-9063
▁कोरबा	-9064
▁जडेजा	-9065
▁जालोर	-9066
▁द्वीप	-9067
▁प्रोट	-9068
▁बाइडन	-9069
▁बुखार	-9070
▁ड्रग्स	-9071
▁प्रदोष	-9072
▁विक्रे	-9073
▁संदर्भ	-9074
▁गजेंद्र	-9075
▁दिलचस्प	-9076
▁शिवलिंग	-9077
▁सेगमेंट	-9078
▁हाथियों	-9079
▁अधिसूचना	-9080
▁श्रृंगार	-9081
▁मूल्यांकन	-9082
▁सुपरस्टार	-9083
▁नोटिफिकेशन	-9084
ायन	-9085
ौलत	-9086
आरसी	-9087
चुअल	-9088
जहां	-9089
बड़े	-9090
्वयन	-9091
▁उमर	-9092
▁चूर	-9093
▁मकर	-9094
▁लाह	-9095
▁लॉज	-9096
▁सैय	-9097
शुल्क	-9098
ुद्री	-9099
ुपयोग	-9100
्युनि	-9101
▁कबूल	-9102
▁नमाज	-9103
▁फीचर	-9104
▁लहरा	-9105
▁अख्तर	-9106
▁इकबाल	-9107
▁उतरने	-9108
▁खुर्द	-9109
▁ग्रंथ	-9110
▁तूफान	-9111
▁थिएटर	-9112
▁पैकेज	-9113
▁पैकेट	-9114
▁यूरोप	-9115
▁लक्षण	-9116
▁समग्र	-9117
▁सीएमओ	-9118
▁हांसी	-9119
▁किस्मत	-9120
▁नजदीकी	-9121
▁बांधकर	-9122
▁रखवाया	-9123
▁शेट्टी	-9124
▁सूर्या	-9125
▁अरुणाचल	-9126
▁इसराइली	-9127
▁परिवर्त	-9128
▁समुद्री	-9129
▁सरकारों	-9130
▁नियंत्रित	-9131
UV	-9132
ख़	-9133
est	-9134
उंस	-9135
खों	-9136
णवी	-9137
नीश	-9138
याम	-9139
रेम	-9140
वेव	-9141
▁चट	-9142
▁पग	-9143
▁शम	-9144
नांद	-9145
ब्रे	-9146
शिंग	-9147
▁एएन	-9148
▁जगद	-9149
▁जले	-9150
▁जाओ	-9151
▁टेन	-9152
▁नूं	-9153
▁फाल	-9154
▁बैज	-9155
▁मॉड	-9156
▁यों	-9157
र्चित	-9158
ष्ठान	-9159
▁उन्न	-9160
▁कुरु	-9161
▁गोला	-9162
▁नाना	-9163
▁समीर	-9164
▁2024)	-9165
▁एडीएम	-9166
▁काफ़ी	-9167
▁ख्याल	-9168
▁बुलंद	-9169
▁लोकेश	-9170
▁शारदा	-9171
त्तियों	-9172
▁चक्रवा	-9173
▁जनगणना	-9174
▁पर्यवे	-9175
▁सरेंडर	-9176
▁साधारण	-9177
▁सेक्शन	-9178
▁स्थगित	-9179
▁प्रशंसा	-9180
▁मोहनलाल	-9181
▁विवादों	-9182
▁शिनाख्त	-9183
▁स्वयंसे	-9184
▁उपलक्ष्य	-9185
▁तस्वीरों	-9186
▁बांसवाड़ा	-9187
▁हिस्सेदारी	-9188
▁याचिकाकर्ता	-9189
आइ	-9190
सं	-9191
जित	-9192
रीत	-9193
ल्‍	-9194
एनएस	-9195
ुसार	-9196
▁(20	-9197
▁घसी	-9198
▁नमी	-9199
▁पाय	-9200
▁फिन	-9201
▁वीक	-9202
ather	-9203
स्पति	-9204
▁गूंज	-9205
▁चौथा	-9206
▁छापा	-9207
▁डोडा	-9208
▁फाटक	-9209
▁भाटी	-9210
▁लेटे	-9211
▁वरीय	-9212
▁संजू	-9213
▁हेमा	-9214
▁इलाक़	-9215
▁एहसास	-9216
▁खोलकर	-9217
▁जमीनी	-9218
▁दिखने	-9219
▁पहनकर	-9220
▁संचार	-9221
▁सुनते	-9222
स्थापित	-9223
▁कामकाज	-9224
▁ठहराया	-9225
▁नीलामी	-9226
▁पेड़ों	-9227
▁पैसेंजर	-9228
▁मुख्तार	-9229
▁हाउसिंग	-9230
▁अधिग्रहण	-9231
▁उत्पादों	-9232
▁डूंगरपुर	-9233
▁अभिभावकों	-9234
▁डेमोक्रेट	-9235
▁चिकित्सालय	-9236
3)	-9237
रू	-9238
गाई	-9239
ेनर	-9240
ेली	-9241
▁Ar	-9242
आईपी	-9243
दयाल	-9244
फानन	-9245
स्थी	-9246
िप्ट	-9247
▁आला	-9248
▁गुड	-9249
▁घटा	-9250
▁जात	-9251
▁टेल	-9252
▁पाउ	-9253
▁मैथ	-9254
▁वैध	-9255
वालों	-9256
▁उतरी	-9257
▁एसके	-9258
▁गणित	-9259
▁घुसे	-9260
▁धीमी	-9261
▁पराम	-9262
▁बंदी	-9263
▁बजरी	-9264
▁बीघा	-9265
▁बेचा	-9266
▁शिशु	-9267
▁चढ़कर	-9268
▁परमार	-9269
▁प्रकट	-9270
▁प्लेस	-9271
▁मार्क	-9272
▁सुचार	-9273
▁स्टडी	-9274
▁आराधना	-9275
▁पहलुओं	-9276
▁विभाजन	-9277
▁इंटेलिज	-9278
▁गाजीपुर	-9279
▁मार्गों	-9280
▁गोलीबारी	-9281
▁डायरेक्ट	-9282
▁कांग्रेसी	-9283
▁पड़ोसियों	-9284
ik	-9285
णिज	-9286
दड़	-9287
वला	-9288
▁89	-9289
▁93	-9290
▁आड	-9291
▁फड	-9292
िज्म	-9293
▁उपज	-9294
▁जड़	-9295
▁पैन	-9296
▁लग्	-9297
▁वंश	-9298
▁ALSO	-9299
▁आकार	-9300
▁इमाम	-9301
▁कचरे	-9302
▁कमरा	-9303
▁टीका	-9304
▁स्टे	-9305
र्वेदी	-9306
िक्रमा	-9307
▁जागरण	-9308
▁दवाओं	-9309
▁परंतु	-9310
▁भाग्य	-9311
▁मनीषा	-9312
▁मवेशी	-9313
▁मॉर्च	-9314
▁लिहाज	-9315
▁निफ्टी	-9316
तांत्रिक	-9317
▁गोवर्धन	-9318
▁पंचायती	-9319
▁प्रमोशन	-9320
▁भावनाओं	-9321
▁सदस्यीय	-9322
▁दीपेंद्र	-9323
▁रामेश्वर	-9324
▁हिस्ट्री	-9325
▁चतुर्वेदी	-9326
se	-9327
ud	-9328
शय	-9329
काव	-9330
ष्म	-9331
ेला	-9332
▁(6	-9333
▁SI	-9334
▁मट	-9335
▁मम	-9336
▁हज	-9337
▁ीय	-9338
उंडर	-9339
कमेल	-9340
जवान	-9341
णमूल	-9342
मावत	-9343
ल्हा	-9344
श्रे	-9345
समैन	-9346
ेरों	-9347
ॉर्क	-9348
▁पॉप	-9349
▁मुल	-9350
▁लाड	-9351
▁शॉट	-9352
▁हनी	-9353
दर्शी	-9354
▁अखंड	-9355
▁गायन	-9356
▁छत्र	-9357
▁जीजा	-9358
▁डिपो	-9359
▁दामा	-9360
▁नवनि	-9361
▁बनता	-9362
▁माधव	-9363
▁सुधा	-9364
▁आतिशी	-9365
▁करीना	-9366
▁काउंट	-9367
▁दंपती	-9368
▁दशकों	-9369
▁नेत्र	-9370
▁महाकु	-9371
▁शिरोम	-9372
▁हितों	-9373
▁अकादमी	-9374
▁ज़रूरत	-9375
▁टेस्‍ट	-9376
▁तृणमूल	-9377
▁तेंदुए	-9378
▁फ्रेंच	-9379
▁बोलेरो	-9380
▁विपरीत	-9381
▁सभापति	-9382
▁सिद्धि	-9383
नांदगांव	-9384
▁अत्यधिक	-9385
▁आखिरकार	-9386
▁जसप्रीत	-9387
▁डाउनलोड	-9388
▁पांचवें	-9389
▁प्वाइंट	-9390
▁बेनीवाल	-9391
▁मालिकों	-9392
▁राजसमंद	-9393
▁समन्वयक	-9394
▁बाउंड्री	-9395
▁ब्लैकमेल	-9396
▁बुजुर्गों	-9397
▁सिनेमाघरों	-9398
▁राजनांदगांव	-9399
हट	-9400
ase	-9401
णाल	-9402
▁खै	-9403
▁थै	-9404
▁सज	-9405
इयों	-9406
कीपर	-9407
तमंद	-9408
▁2.5	-9409
▁बहि	-9410
▁वैल	-9411
▁सुक	-9412
▁सोह	-9413
प्रति	-9414
▁अथवा	-9415
▁घेरा	-9416
▁झांक	-9417
▁नानक	-9418
▁मुंग	-9419
▁दिव्य	-9420
▁धमाके	-9421
▁न्यूय	-9422
▁बदलकर	-9423
▁लेफ्ट	-9424
▁वैदिक	-9425
▁हिंसक	-9426
कांक्षा	-9427
विश्वास	-9428
▁अपनाने	-9429
▁एनर्जी	-9430
▁टीचर्स	-9431
▁फ़िल्म	-9432
▁रोमांच	-9433
▁वैशाली	-9434
▁दर्दनाक	-9435
▁मायावती	-9436
▁रणनीतिक	-9437
▁सीतारमण	-9438
▁आतंकियों	-9439
▁वैज्ञानिकों	-9440
▁प्रधानाचार्य	-9441
भु	-9442
ूण	-9443
ोव	-9444
esh	-9445
क्ख	-9446
ब्स	-9447
लेव	-9448
स्स	-9449
नाइट	-9450
िकरण	-9451
▁अती	-9452
▁उमा	-9453
▁ओझा	-9454
▁सद्	-9455
णिज्य	-9456
रिकेड	-9457
▁Shar	-9458
▁अहिर	-9459
▁आतिश	-9460
▁उछाल	-9461
▁केसर	-9462
▁क्ले	-9463
▁नूंह	-9464
▁बजाज	-9465
▁भैंस	-9466
▁रसोई	-9467
▁लिंग	-9468
▁ानंद	-9469
कार्पण	-9470
▁अनुपम	-9471
▁उत्तम	-9472
▁मंजूर	-9473
▁मुरली	-9474
▁मेरिट	-9475
▁सहरसा	-9476
▁स्रोत	-9477
▁हजारी	-9478
▁आरएसएस	-9479
▁कैंसिल	-9480
▁टाइम्स	-9481
▁तुर्की	-9482
▁पीटीआई	-9483
▁भोजपुर	-9484
▁वोटरों	-9485
▁हेलमेट	-9486
▁Weather	-9487
▁पंजीकरण	-9488
▁पहुंचीं	-9489
▁रजिस्टर	-9490
▁विवादित	-9491
▁शिरोमणि	-9492
▁सब्सिडी	-9493
▁आतंकवादी	-9494
▁प्रस्थान	-9495
▁भारतीयों	-9496
▁उन्‍होंने	-9497
▁निर्वाचित	-9498
▁प्रतिबद्धता	-9499
▁मल्लिकार्जुन	-9500
क्व	-9501
पूर	-9502
लाद	-9503
शेष	-9504
ामे	-9505
▁iP	-9506
▁ठा	-9507
तोड़	-9508
यर्स	-9509
र्सन	-9510
▁अन्	-9511
▁काब	-9512
▁नाट	-9513
▁पीर	-9514
ंतरिक	-9515
सायिक	-9516
िविटी	-9517
ूल्हे	-9518
ोर्टर	-9519
▁अन्त	-9520
▁इकलौ	-9521
▁एंटर	-9522
▁गोता	-9523
▁छपरा	-9524
▁शेखर	-9525
▁सूबे	-9526
नेश्वर	-9527
पचारिक	-9528
ानुमान	-9529
▁गिफ्ट	-9530
▁जहाना	-9531
▁पराली	-9532
▁भूपेश	-9533
▁आंतरिक	-9534
▁उतारने	-9535
▁चुप्पी	-9536
▁जानबूझ	-9537
▁ड्राइव	-9538
▁हीटवेव	-9539
▁ग्रेजुए	-9540
▁चिन्हित	-9541
▁निकायों	-9542
▁परामर्श	-9543
▁शेखपुरा	-9544
▁फतेहाबाद	-9545
▁रिपोर्टर	-9546
▁आपत्तिजनक	-9547
▁रजिस्टर्ड	-9548
▁पूर्वानुमान	-9549
1)	-9550
9)	-9551
बान	-9552
ष्क	-9553
चुरी	-9554
त्तर	-9555
फेयर	-9556
रीबी	-9557
र्वा	-9558
ल्ली	-9559
शियल	-9560
▁कटे	-9561
▁जौन	-9562
▁डीन	-9563
▁ढोल	-9564
▁नाक	-9565
▁विम	-9566
▁आंसू	-9567
▁तख्त	-9568
▁पिंड	-9569
▁पितृ	-9570
▁पैरा	-9571
▁बनते	-9572
▁यहाँ	-9573
▁राजभ	-9574
▁लौटी	-9575
▁सपने	-9576
▁सबका	-9577
काबंदी	-9578
लेरिया	-9579
▁उठाना	-9580
▁एडमिट	-9581
▁गडकरी	-9582
▁गहराई	-9583
▁छोड़ी	-9584
▁दृश्य	-9585
▁पाण्ड	-9586
▁फटकार	-9587
▁बलौदा	-9588
▁बूंदा	-9589
▁हराकर	-9590
प्लेक्स	-9591
श्रेष्ठ	-9592
▁अष्टमी	-9593
▁नदियों	-9594
▁मकानों	-9595
▁मोहाली	-9596
▁समझाने	-9597
▁आक्रामक	-9598
▁इस्तीफे	-9599
▁लाइब्रे	-9600
▁सोयाबीन	-9601
▁आध्यात्म	-9602
▁धर्मशाला	-9603
▁धीरेंद्र	-9604
▁नाकाबंदी	-9605
▁बर्फबारी	-9606
▁लोकार्पण	-9607
▁सेकेंडरी	-9608
▁निवासियों	-9609
▁मिर्जापुर	-9610
▁इंटेलिजेंस	-9611
ot	-9612
यह	-9613
नेट	-9614
वाड	-9615
सनी	-9616
होर	-9617
▁Bo	-9618
▁ान	-9619
▁्ट	-9620
णवीस	-9621
तिथि	-9622
न्या	-9623
मुझे	-9624
हिया	-9625
▁Man	-9626
▁दिग	-9627
▁नसी	-9628
▁नूर	-9629
▁बबल	-9630
▁भूख	-9631
▁शिम	-9632
ation	-9633
च्छेद	-9634
ट्सएप	-9635
ांकित	-9636
▁आयात	-9637
▁एमजी	-9638
▁केबल	-9639
▁कॉमे	-9640
▁क्षण	-9641
▁जीरो	-9642
▁डीलर	-9643
▁ढाका	-9644
▁पावन	-9645
▁फंदा	-9646
▁राजे	-9647
▁साधु	-9648
▁घाटों	-9649
▁जातीय	-9650
▁नागौर	-9651
▁पूंजी	-9652
▁लीजिए	-9653
▁हटाकर	-9654
▁ओपनिंग	-9655
▁गर्ल्स	-9656
▁बीएसएफ	-9657
▁अपेक्षा	-9658
▁आरक्षित	-9659
▁खूबसूरत	-9660
▁गिरिडीह	-9661
▁टर्मिनल	-9662
▁इंद्रजीत	-9663
▁उद्योगों	-9664
▁व्यवस्थाओं	-9665
किम	-9666
ोटा	-9667
▁नन	-9668
एसएल	-9669
वायु	-9670
वाहक	-9671
▁छतर	-9672
▁जनक	-9673
▁तीज	-9674
▁नक्	-9675
▁स्त	-9676
कमिंग	-9677
▁अगला	-9678
▁अल्ट	-9679
▁इनकम	-9680
▁इन्फ	-9681
▁टेंट	-9682
▁तरफ़	-9683
▁नाली	-9684
▁फेमस	-9685
▁बारह	-9686
▁बिता	-9687
▁	-9688
ा	-9689
र	-9690
क	-9691
े	-9692
ी	-9693
न	-9694
्	-9695
स	-9696
ि	-9697
ं	-9698
म	-9699
ह	-9700
ल	-9701
त	-9702
ो	-9703
प	-9704
य	-9705
व	-9706
द	-9707
ज	-9708
ग	-9709
ब	-9710
ु	-9711
।	-9712
ै	-9713
ट	-9714
श	-9715
ए	-9716
ड	-9717
च	-9718
भ	-9719
अ	-9720
थ	-9721
ू	-9722
,	-9723
आ	-9724
इ	-9725
ध	-9726
ख	-9727
उ	-9728
ई	-9729
़	-9730
फ	-9731
ष	-9732
औ	-9733
ौ	-9734
ण	-9735
2	-9736
0	-9737
1	-9738
-	-9739
छ	-9740
ॉ	-9741
घ	-9742
.	-9743
ठ	-9744
ओ	-9745
5	-9746
3	-9747
4	-9748
ढ	-9749
ृ	-9750
9	-9751
6	-9752
झ	-9753
a	-9754
7	-9755
8	-9756
:	-9757
)	-9758
(	-9759
'	-9760
ऐ	-9761
e	-9762
i	-9763
"	-9764
ऑ	-9765
n	-9766
r	-9767
o	-9768
t	-9769
S	-9770
P	-9771
h	-9772
C	-9773
s	-9774
A	-9775
‍	-9776
I	-9777
l	-9778
ऊ	-9779
ञ	-9780
?	-9781
M	-9782
d	-9783
D	-9784
B	-9785
u	-9786
R	-9787
N	-9788
m	-9789
c	-9790
T	-9791
E	-9792
p	-9793
y	-9794
G	-9795
O	-9796
L	-9797
k	-9798
F	-9799
g	-9800
J	-9801
K	-9802
V	-9803
U	-9804
w	-9805
%	-9806
/	-9807
v	-9808
ः	-9809
H	-9810
ँ	-9811
b	-9812
ऋ	-9813
W	-9814
;	-9815
f	-9816
j	-9817
!	-9818
X	-9819
x	-9820
ॅ	-9821
ॐ	-9822
॥	-9823
{	-9824
Y	-9825
z	-9826
₹	-9827
Q	-9828
+	-9829
Z	-9830
_	-9831
^	-9832
°	-9833
०	-9834
q	-9835
*	-9836
}	-9837
@	-9838
ऱ	-9839
ङ	-9840
=	-9841
&	-9842
ऽ	-9843
•	-9844
#	-9845
া	-9846
$	-9847
ে	-9848
র	-9849
🔴	-9850
̈	-9851
]	-9852
➤	-9853
ळ	-9854
ऩ	-9855
️	-9856
🌟	-9857
॰	-9858
ক	-9859
⁠	-9860
२	-9861
\	-9862
্	-9863
ন	-9864
ি	-9865
క	-9866
ి	-9867
×	-9868
ত	-9869
ా	-9870
ు	-9871
్	-9872
­	-9873
জ	-9874
ల	-9875
ব	-9876
ম	-9877
చ	-9878
●	-9879
🕐	-9880
>	-9881
३	-9882
४	-9883
ট	-9884
ো	-9885
ర	-9886
[	-9887
१	-9888
প	-9889
ল	-9890
ু	-9891
ం	-9892
~	-9893
९	-9894
এ	-9895
চ	-9896
য	-9897
ষ	-9898
স	-9899
గ	-9900
ట	-9901
ీ	-9902
♈	-9903
ॊ	-9904
ছ	-9905
ড	-9906
দ	-9907
ধ	-9908
త	-9909
న	-9910
వ	-9911
స	-9912
⏱	-9913
♍	-9914
⚠	-9915
⭐	-9916
🇮	-9917
🇳	-9918
🪐	-9919
£	-9920
ॆ	-9921
ॠ	-9922
ঁ	-9923
আ	-9924
ই	-9925
ও	-9926
খ	-9927
়	-9928
ী	-9929
డ	-9930
ప	-9931
శ	-9932
ూ	-9933
ె	-9934
⁄	-9935
☀	-9936
♏	-9937
♐	-9938
♑	-9939
♒	-9940
♓	-9941
🌙	-9942
🔵	-9943
·	-9944
ï	-9945
ऍ	-9946
॑	-9947
५	-9948
६	-9949
८	-9950
অ	-9951
ঘ	-9952
ঠ	-9953
ণ	-9954
ઢ	-9955
ఇ	-9956
ఛ	-9957
జ	-9958
ణ	-9959
థ	-9960
ద	-9961
ఫ	-9962
బ	-9963
భ	-9964
ే	-9965
ొ	-9966
ో	-9967
‛	-9968
€	-9969
⏩	-9970
▪	-9971
○	-9972
♉	-9973
♊	-9974
♋	-9975
♌	-9976
♦	-9977
⚫	-9978
❓	-9979
❗	-9980
	-9981
🌅	-9982
🎉	-9983
🏅	-9984
🏹	-9985
🐉	-9986
💫	-9987
🗓	-9988
😉	-9989
😎	-9990
😜	-9991
😸	-9992
🤔	-9993
🤩	-9994
🦌	-9995
🧭	-9996
