<unk>	0
<s>	0
</s>	0
▁के	-3.67236
▁में	-3.92249
।	-4.11262
▁की	-4.14253
▁।	-4.1818
▁है	-4.22982
▁को	-4.37834
▁ा	-4.41609
▁ने	-4.42218
▁से	-4.42747
▁,	-4.43377
▁ी	-4.55678
▁प	-4.64804
▁का	-4.7323
▁म	-4.8054
▁और	-4.81331
▁स	-4.82252
▁पर	-4.85044
▁क	-4.88437
▁र	-5.05559
▁कि	-5.0906
▁ों	-5.13501
▁ब	-5.15109
▁कर	-5.19529
▁व	-5.23413
▁न	-5.27028
▁अ	-5.27338
▁हैं	-5.28866
▁भी	-5.39934
▁-	-5.46388
▁ल	-5.48838
▁2	-5.5305
▁इस	-5.55387
▁े	-5.59359
▁किया	-5.61362
▁एक	-5.6506
▁ज	-5.65086
▁लिए	-5.65781
▁0	-5.66005
ा	-5.66996
र	-5.67409
▁आ	-5.6762
▁प्र	-5.70862
▁गया	-5.71376
▁नहीं	-5.79723
▁था	-5.81813
▁1	-5.91391
▁हो	-5.93125
,	-5.95299
▁ही	-5.95696
▁जा	-5.96048
▁बाद	-5.96903
▁ग	-6.01018
▁.	-6.02194
▁श	-6.02603
े	-6.04887
▁त	-6.06962
▁साथ	-6.0771
ल	-6.10802
▁पुलिस	-6.11512
न	-6.14446
▁ह	-6.14779
▁कहा	-6.15322
▁गई	-6.1597
▁भ	-6.16799
म	-6.17302
▁करने	-6.18926
▁उन्ह	-6.20691
▁द	-6.21445
▁फ	-6.22726
▁दिया	-6.25336
ट	-6.29324
ने	-6.29752
▁थी	-6.32671
▁तो	-6.3275
▁रहे	-6.3452
▁ट	-6.35384
▁तक	-6.37033
▁रहा	-6.37418
▁बताया	-6.37649
▁च	-6.41028
▁यह	-6.41848
▁हुए	-6.42203
ी	-6.44692
▁4	-6.45301
▁5	-6.47145
▁ियों	-6.47263
▁रही	-6.48448
▁थे	-6.48934
▁3	-6.50596
▁सिंह	-6.50655
▁ड	-6.53279
▁दी	-6.55544
▁राज	-6.55811
▁ोंने	-6.57208
▁	-6.58792
▁ें	-6.59323
▁(	-6.60693
▁गए	-6.61325
क	-6.62593
▁सं	-6.63097
ि	-6.6314
▁:	-6.63251
▁मु	-6.64328
्	-6.6511
▁)	-6.65814
▁ख	-6.65859
त	-6.66202
▁सु	-6.67565
▁पहुंच	-6.68226
▁लेकर	-6.68946
▁पहले	-6.69432
▁इसके	-6.71285
▁उ	-6.71634
.	-6.71869
▁9	-6.72825
▁लोगों	-6.73904
▁अपने	-6.75187
▁ित	-6.76548
▁रि	-6.79351
▁हुई	-6.79592
▁ि	-6.81473
▁लेकिन	-6.81957
▁ओं	-6.82323
▁ंत्री	-6.82944
प	-6.83243
▁ता	-6.85018
▁'	-6.85667
▁इ	-6.86065
▁जब	-6.86114
ों	-6.86643
▁दिन	-6.87921
▁कार्	-6.88342
▁िंग	-6.88726
स	-6.90008
▁होने	-6.90581
ं	-6.90705
▁वाले	-6.91173
▁वह	-6.91718
▁अध	-6.92435
▁क्ष	-6.92509
▁6	-6.92657
▁वि	-6.93024
▁दौरान	-6.9372
▁साल	-6.94216
▁8	-6.94429
▁्स	-6.95044
▁निर्	-6.95547
▁हुआ	-6.96707
▁7	-6.9716
▁दो	-6.97833
▁जो	-6.98122
▁स्	-6.98491
▁कुमार	-6.98833
▁िक	-6.99053
▁देश	-6.99876
▁बार	-7.00466
▁अब	-7.00474
▁प्रति	-7.01064
▁चुनाव	-7.03579
▁सरकार	-7.03747
▁"	-7.04491
▁पुर	-7.04503
▁ना	-7.04803
▁करते	-7.05735
▁घर	-7.05828
▁ेत्र	-7.06052
▁इन	-7.06214
▁ये	-7.06822
▁ान	-7.06874
व	-7.09729
▁ू	-7.1061
▁राम	-7.10867
▁महिला	-7.11362
▁हर	-7.11935
▁कार्य	-7.12229
▁सभी	-7.1241
▁लिया	-7.12666
ांग्	-7.12736
▁कुछ	-7.12874
▁ो	-7.13911
▁वार	-7.14288
▁पास	-7.15922
▁कई	-7.1603
▁रेस	-7.16137
▁काम	-7.16848
▁नगर	-7.17218
ज	-7.18446
▁ड़	-7.18482
▁टीम	-7.19327
▁थाना	-7.19479
▁गांव	-7.19593
▁भारत	-7.20171
▁द्वार	-7.21038
▁डॉ	-7.2135
▁कम	-7.23126
▁उनके	-7.24789
▁बात	-7.25877
▁मामले	-7.2594
▁घटना	-7.2622
▁नि	-7.26373
▁ाल	-7.2695
▁कोई	-7.26983
▁आई	-7.274
▁ालय	-7.2801
▁चल	-7.28535
▁लोग	-7.28695
▁ए	-7.28993
▁समय	-7.29734
▁उस	-7.29867
▁आरोप	-7.30316
▁अपनी	-7.31001
▁पी	-7.31195
▁नाम	-7.31582
▁रूप	-7.3208
▁शुरू	-7.32197
▁वहीं	-7.33254
▁्यक्ष	-7.33345
▁बढ़	-7.33452
▁बन	-7.33624
▁सा	-7.33742
▁दर्ज	-7.34126
▁या	-7.34447
▁्रदेश	-7.34774
▁यहां	-7.35218
▁दोनों	-7.35356
▁झ	-7.35494
▁ध	-7.36413
▁जिला	-7.38128
▁ई	-7.38317
▁बजे	-7.3857
▁ेंद्र	-7.38602
▁रुपए	-7.39207
ग	-7.39231
▁कार	-7.39426
▁जांच	-7.40685
▁जी	-7.41656
▁किसी	-7.42326
▁तरह	-7.43133
▁वे	-7.43134
▁मिल	-7.43162
▁विभाग	-7.43361
▁पूर्व	-7.43861
क्	-7.44628
▁आरोपी	-7.44677
▁एस	-7.44794
▁उसके	-7.4546
▁बीच	-7.45962
▁नकारी	-7.46178
▁आज	-7.46452
▁्य	-7.47973
▁थ	-7.48183
▁ग्राम	-7.48655
▁शामिल	-7.50162
▁बना	-7.50657
▁तार	-7.50815
▁य	-7.50885
▁सी	-7.5104
▁ाई	-7.51487
▁एवं	-7.51905
▁िकारी	-7.52143
▁यों	-7.52287
▁ते	-7.52698
▁रात	-7.53273
▁ेंगे	-7.53301
▁राज्य	-7.53514
▁भाजपा	-7.53709
▁जारी	-7.54484
▁फिर	-7.54545
▁होगा	-7.54954
▁मैं	-7.54974
▁अस्पत	-7.5499
▁जाएगा	-7.55365
▁छ	-7.55643
▁किए	-7.56654
▁जाने	-7.57217
▁जीत	-7.57579
▁उसे	-7.57758
▁करीब	-7.58296
▁खिलाफ	-7.58432
▁कारण	-7.58577
▁लाख	-7.58903
▁ले	-7.5917
▁जिले	-7.59364
▁ार्टी	-7.5941
▁कु	-7.59715
▁अन्य	-7.60116
▁‍	-7.60404
▁कै	-7.61306
▁लग	-7.61614
▁महा	-7.62164
▁एम	-7.62566
▁हम	-7.63213
ध	-7.63394
▁उनकी	-7.63877
से	-7.64195
ु	-7.64207
▁सभा	-7.64388
▁रिवार	-7.64514
▁़	-7.64537
▁ज्याद	-7.64717
▁ारी	-7.6494
▁युवक	-7.65654
▁ाने	-7.66049
▁वाली	-7.66175
▁फिल्म	-7.66693
▁मंदिर	-7.67135
▁ीय	-7.67251
▁मौके	-7.67285
▁गिरफ्	-7.67624
▁तीन	-7.67669
▁टी	-7.67804
▁श्री	-7.67875
▁निवास	-7.67941
▁करना	-7.68204
▁छात्र	-7.68281
▁रवाई	-7.68347
▁जाता	-7.68806
▁शहर	-7.68981
▁सामने	-7.69123
▁यक्रम	-7.69267
▁ति	-7.69333
▁मौत	-7.69477
▁ओर	-7.69628
▁लाल	-7.71007
▁सुबह	-7.71512
▁एं	-7.7164
ती	-7.71668
▁ु	-7.72575
▁कोर्ट	-7.72622
▁वो	-7.73981
▁10	-7.7425
▁राष्	-7.74369
▁मांग	-7.74668
▁ेंट	-7.75091
▁क्या	-7.75608
▁सबसे	-7.75655
▁देने	-7.76262
▁ओ	-7.76607
च	-7.76712
▁दे	-7.782
▁सूचना	-7.78378
▁हजार	-7.78709
▁अलग	-7.79119
▁करोड़	-7.79325
▁अधिक	-7.79484
▁पानी	-7.79629
▁एन	-7.79731
▁जहां	-7.79852
▁यादव	-7.79895
▁देव	-7.80067
▁क्	-7.80815
▁्	-7.81582
▁रह	-7.81845
▁इसी	-7.81887
▁पु	-7.82278
▁बारिश	-7.82597
▁घ	-7.82686
▁ाया	-7.82697
▁ऐसे	-7.83157
▁दर्शन	-7.83188
▁दिए	-7.8419
▁स्व	-7.84252
▁मिली	-7.84747
▁डी	-7.84791
द	-7.85684
▁स्कूल	-7.85721
▁धिकार	-7.85953
▁उप	-7.8597
▁होगी	-7.8603
▁नुसार	-7.86234
▁िया	-7.86389
▁िसमें	-7.865
ीक्ष	-7.87163
▁इसमें	-7.87204
▁आने	-7.87245
▁जन	-7.8754
▁देख	-7.87563
▁िकायत	-7.88124
▁नी	-7.88276
▁पोर्ट	-7.88428
▁ती	-7.88793
▁तैयार	-7.88821
▁ोदी	-7.89201
▁बाहर	-7.8965
▁दिल्	-7.89825
ह	-7.90022
िद्य	-7.90032
▁सि	-7.90368
▁मान	-7.90382
▁ारतीय	-7.90486
▁लगा	-7.90712
▁भर	-7.90933
▁स्ट	-7.90969
▁आया	-7.91287
▁आए	-7.91466
▁नेता	-7.91645
▁रेल	-7.91871
कि	-7.92025
▁शव	-7.92318
▁रहने	-7.9244
▁यात्	-7.92756
▁ली	-7.92764
▁शासन	-7.93003
▁शर्मा	-7.93145
▁गुरु	-7.93387
▁स्थान	-7.93429
▁मुख्य	-7.9353
▁रक्षा	-7.93682
▁बता	-7.93902
▁योजना	-7.94249
▁गु	-7.9445
▁सकता	-7.94482
▁कुल	-7.94602
▁ण	-7.94964
▁टर	-7.95422
▁चाहिए	-7.95429
ोकसभ	-7.95993
▁ऑ	-7.96311
▁खेल	-7.96728
▁वहां	-7.97324
▁स्थित	-7.97564
▁यू	-7.97582
▁हत्या	-7.9801
▁पूरी	-7.98017
▁भाग	-7.98029
▁किसान	-7.99079
▁पिछले	-7.99544
▁पिता	-7.99551
▁बंद	-7.99565
▁मामला	-7.99634
▁आप	-7.9967
▁नीति	-8.002
▁सड़क	-8.00778
▁उसकी	-8.00814
▁?	-8.01037
▁अनु	-8.01521
▁मह	-8.01703
▁क्टर	-8.02172
▁चार	-8.02179
▁व्यव	-8.02473
▁पति	-8.02949
▁िधायक	-8.03169
▁ियां	-8.03316
▁गढ़	-8.03496
▁रन	-8.03891
▁विधा	-8.0395
▁पड़	-8.04295
ख	-8.04333
▁आगे	-8.054
▁काफी	-8.05404
▁पा	-8.05507
▁बड़ी	-8.0576
ुख्य	-8.05899
▁शाम	-8.06088
▁ंद्र	-8.06337
लेक्	-8.06533
▁प्रो	-8.06934
▁सहित	-8.07153
▁आर	-8.07329
आ	-8.07422
▁बी	-8.07823
▁समाज	-8.07982
▁विकास	-8.08041
▁िल	-8.08146
▁जाएगी	-8.08194
▁घायल	-8.08449
▁जिसक	-8.08458
▁मेर	-8.08474
▁रोड	-8.08628
▁्र	-8.08694
▁बहुत	-8.08824
▁मां	-8.09075
▁शिव	-8.0929
▁ठ	-8.09703
▁हाला	-8.10059
▁बैठक	-8.10218
▁अभी	-8.10453
▁तब	-8.10577
▁ीडियो	-8.10709
▁सदस्य	-8.10903
▁व्यक्	-8.11026
▁निकल	-8.11189
▁परिजन	-8.11201
में	-8.11389
▁एक्स	-8.11857
▁सो	-8.12084
▁होता	-8.12187
▁मे	-8.12408
▁मौजूद	-8.13049
▁तहत	-8.13343
▁च्चों	-8.13772
▁बाइक	-8.13822
▁दूसरे	-8.1383
▁ढ	-8.13832
▁ं	-8.14014
▁लोक	-8.14055
▁अलाव	-8.14264
▁ेगा	-8.14965
िक	-8.15297
▁सम	-8.15311
▁आग	-8.15543
▁अपना	-8.15655
a	-8.15913
▁ीडिया	-8.15941
▁पत्नी	-8.16007
▁सकते	-8.16068
▁री	-8.16192
▁बारे	-8.16205
▁करें	-8.16322
▁मिला	-8.16438
▁उनका	-8.16658
▁अगर	-8.16718
▁गिर	-8.16741
▁सीट	-8.16807
▁पद	-8.16918
▁ार	-8.16972
▁पाल	-8.17477
कर	-8.17602
▁मंगल	-8.17804
श	-8.17958
▁ाना	-8.18065
▁ंख्या	-8.18295
▁पता	-8.19041
e	-8.19468
▁ढ़	-8.1952
▁कंपनी	-8.2001
▁दिख	-8.20158
▁ाकर	-8.20192
▁कहना	-8.20322
▁रा	-8.21017
▁वजह	-8.21079
▁वा	-8.21114
▁स्था	-8.21351
▁तेज	-8.21741
▁खान	-8.21751
▁शादी	-8.21783
▁हार	-8.21956
▁ज़	-8.22979
▁हाथ	-8.23463
▁योग	-8.23501
▁वर्ष	-8.23723
▁दिनों	-8.23791
▁माण	-8.23865
▁निका	-8.23994
▁युक्त	-8.24053
▁्रभ	-8.24358
▁जैसे	-8.24658
▁्रीय	-8.24776
▁करता	-8.24781
स्	-8.25004
▁इसे	-8.25044
▁लि	-8.25074
▁नजर	-8.25079
▁पूरा	-8.25163
▁हमार	-8.25247
फ	-8.2525
▁स्प	-8.25422
▁तरफ	-8.25624
▁आयोजन	-8.25631
▁बिहार	-8.25821
▁सेवा	-8.26016
▁भाई	-8.26099
▁ताबिक	-8.26166
▁पकड़	-8.26775
▁ट्रेन	-8.26921
▁संभ	-8.2699
▁दुकान	-8.27004
▁सवाल	-8.27095
ो	-8.27096
▁होती	-8.27163
▁बल	-8.27379
▁जगह	-8.27532
▁वाला	-8.27597
▁महीने	-8.27651
्ह	-8.27853
▁श्र	-8.29101
▁घंटे	-8.29189
▁ऐसा	-8.29295
▁ियाणा	-8.293
▁ीजेपी	-8.29651
▁नंबर	-8.29768
▁ीन	-8.29783
▁विशेष	-8.30243
▁पत्र	-8.30665
▁वै	-8.30672
▁न्याय	-8.30766
i	-8.30904
▁जाए	-8.31222
▁ोमवार	-8.3124
▁ेट	-8.31244
▁थाने	-8.31605
▁डि	-8.31846
▁रण	-8.31891
▁गातार	-8.32043
▁ॉलेज	-8.32128
ड	-8.32199
▁जून	-8.3253
▁ेगी	-8.32586
▁पूरे	-8.32592
▁जिससे	-8.32613
▁्थिति	-8.33262
▁स्तान	-8.33385
▁रख	-8.33614
▁सीएम	-8.33821
▁15	-8.33988
▁इसकी	-8.34013
▁नई	-8.34365
▁छोड़	-8.34444
▁सांसद	-8.34507
▁ेड	-8.34804
▁मि	-8.34854
▁12	-8.34906
▁लड़क	-8.35035
▁बस	-8.35157
▁ेशन	-8.35291
▁ौ	-8.35368
▁राय	-8.3541
▁दिल	-8.35446
▁विश्व	-8.35479
▁मेंट	-8.35701
▁सकती	-8.36041
▁शन	-8.36073
नी	-8.36444
▁लगाया	-8.36502
▁परि	-8.36529
▁ाबाद	-8.36548
▁पहली	-8.36637
▁फोन	-8.3711
▁िगम	-8.37229
▁मिलने	-8.37491
ुद	-8.37637
▁अंतर	-8.37721
▁रोक	-8.37933
▁20	-8.37938
▁ात	-8.38123
▁लगे	-8.38155
▁नाथ	-8.38239
▁बड़े	-8.38499
▁मुझे	-8.38581
▁कराया	-8.3868
▁इसका	-8.387
▁ेर	-8.38729
▁धानम	-8.38777
▁हाल	-8.38913
▁गांधी	-8.39025
▁उत्तर	-8.39068
▁भगवान	-8.39198
▁एल	-8.39363
▁गंभीर	-8.39415
▁पांच	-8.39459
▁हूं	-8.39516
▁बु	-8.39612
▁एंगे	-8.39633
▁मन	-8.39729
▁सह	-8.39792
▁वन	-8.39813
▁विरोध	-8.39895
▁शुक्	-8.39909
▁डिग्र	-8.40069
▁कर्ता	-8.40147
ब	-8.40415
▁आधार	-8.40421
▁सचिव	-8.40552
▁मृतक	-8.40648
िय	-8.40745
▁लड़	-8.40753
▁ंड	-8.41009
▁समझ	-8.41009
▁माल	-8.41037
▁ड्	-8.41079
लिए	-8.41296
▁मैच	-8.41386
▁देते	-8.41439
▁दीप	-8.41464
▁चौ	-8.41478
▁पंजाब	-8.41835
▁चला	-8.41941
▁जान	-8.43289
▁शनिवा	-8.43362
▁स्तर	-8.43731
▁जिस	-8.43763
▁सब	-8.43904
▁भेज	-8.43936
ठ	-8.4396
▁योजित	-8.44041
▁बनाया	-8.44178
▁पक्ष	-8.44203
विवा	-8.44275
▁मंडल	-8.44314
▁िक्षा	-8.44328
▁बड़ा	-8.44415
▁ार्थ	-8.44583
▁नए	-8.44654
▁ेंस	-8.44672
▁एड	-8.44716
▁इलाज	-8.44727
▁जमीन	-8.4491
▁केस	-8.45002
▁ुधवार	-8.45048
▁बि	-8.45121
▁उठ	-8.4515
▁ंत	-8.45373
▁आम	-8.45507
▁मी	-8.45548
▁संस्	-8.45791
▁जाती	-8.45952
▁रीय	-8.46173
▁ताप	-8.46563
▁वापस	-8.46577
▁मै	-8.46877
▁संबंध	-8.47092
▁शत	-8.47127
▁पूजा	-8.47186
▁अन	-8.47292
▁पहचान	-8.47421
▁रुपये	-8.47586
▁निर	-8.47586
▁शुरु	-8.47846
▁बैंक	-8.47867
▁वाद	-8.47867
▁11	-8.47952
▁ाप्त	-8.48037
▁वाल	-8.48074
ंक	-8.48396
▁ब्र	-8.48709
▁मौसम	-8.48892
▁ाते	-8.49082
▁ेड़	-8.49124
▁सामान	-8.49155
▁बै	-8.49229
▁डाल	-8.49299
▁न्द्र	-8.49331
▁मीटर	-8.49349
▁बाजार	-8.49372
▁सम्	-8.49496
▁जेल	-8.4955
▁यन	-8.49566
▁धर्म	-8.49853
▁दार	-8.49898
▁रेशान	-8.49949
▁समेत	-8.50046
▁आदेश	-8.50397
▁बिजली	-8.5053
o	-8.50617
▁जिन	-8.50764
▁लगी	-8.50813
▁उसका	-8.50843
▁लाइन	-8.51175
▁भर्ती	-8.51317
▁कट	-8.51823
▁बेटे	-8.52022
▁रंग	-8.5208
▁समिति	-8.52294
▁वोट	-8.52352
▁होते	-8.52402
▁ष	-8.52484
▁लेने	-8.52527
ाइ	-8.52599
ू	-8.52618
▁शाह	-8.52928
▁ंग	-8.5307
▁बच्चे	-8.53088
▁राहुल	-8.53189
▁दें	-8.53253
थ	-8.53289
▁रकारी	-8.53434
रे	-8.5357
▁रो	-8.53605
▁बयान	-8.53789
▁शा	-8.53811
▁देर	-8.53843
▁जुलाई	-8.54244
▁होकर	-8.54534
▁जनता	-8.54574
वे	-8.54854
▁भियान	-8.55153
▁बेटी	-8.55322
▁हाई	-8.55456
▁तौर	-8.55498
त्	-8.55576
▁भिन्न	-8.55663
▁पुत्र	-8.55817
▁बदल	-8.56068
▁चलते	-8.56142
▁ेश	-8.56272
▁ेज	-8.56644
▁चोरी	-8.56794
▁योंकि	-8.56952
▁खुल	-8.57001
▁दान	-8.57035
▁गत	-8.57193
▁डे	-8.57196
▁गंज	-8.57796
▁जवाब	-8.5794
▁चर्चा	-8.57991
ते	-8.58046
▁रखा	-8.58065
▁चुके	-8.58312
▁ला	-8.58435
▁थीं	-8.58563
▁दोपहर	-8.58674
▁30	-8.58814
▁दूसरी	-8.58858
▁सोशल	-8.58938
▁पूर्ण	-8.59203
▁करके	-8.59261
▁अगस्त	-8.59468
▁ज्ञान	-8.5947
▁A	-8.59528
▁ंचायत	-8.59574
▁अभि	-8.59775
▁्थ्य	-8.5979
▁युवा	-8.59829
▁ंस	-8.59855
▁विजय	-8.59897
▁चि	-8.59967
▁जाते	-8.60009
▁उद्	-8.60344
▁यां	-8.60347
▁मदद	-8.60348
▁मस्या	-8.60482
▁दल	-8.60547
▁तथा	-8.60698
▁मिले	-8.60759
▁स्वास	-8.60909
ए	-8.60949
▁जीवन	-8.61108
▁अवसर	-8.61129
▁्रयास	-8.61182
▁जल	-8.6168
▁सिर्फ	-8.61835
▁होंगे	-8.61984
▁माता	-8.62007
▁नर	-8.62053
ड़	-8.62077
▁सके	-8.62132
▁विवाद	-8.6214
▁ीदवार	-8.62161
▁कल	-8.62224
▁दूर	-8.6257
▁ाड़	-8.6268
▁उम्म	-8.62762
▁जयपुर	-8.62825
▁वाहन	-8.62955
▁ाव	-8.62995
▁चुकी	-8.63038
▁ोबाइल	-8.63147
▁रोल	-8.63173
▁धन	-8.6359
▁तोड़	-8.63674
▁थानीय	-8.63701
▁देवी	-8.63781
▁ोर्ट	-8.63934
▁मध्य	-8.64089
▁इंडिय	-8.64095
▁बोल	-8.6414
▁गाड़ी	-8.64304
▁काल	-8.64668
▁ंट	-8.64668
▁पेश	-8.64724
▁वालों	-8.65001
▁मो	-8.65025
▁ाद	-8.65043
▁बनाए	-8.65095
▁जल्द	-8.65207
▁्रमुख	-8.65264
▁राशि	-8.65579
ेरिक	-8.65582
▁रियों	-8.6573
▁महत्व	-8.6583
▁पोस्ट	-8.65998
▁ऑफ	-8.66088
र्	-8.66452
▁मार्ग	-8.66559
▁लगभग	-8.66624
▁इंटर	-8.66796
ास	-8.66852
▁अपराध	-8.66967
्य	-8.67084
▁जैन	-8.67126
▁ंद	-8.6726
▁देखा	-8.67265
▁एफ	-8.67406
u	-8.67537
▁ास	-8.67684
▁शराब	-8.67771
▁इलाके	-8.67981
▁रिया	-8.68054
▁आदि	-8.68351
▁ाली	-8.68374
▁25	-8.68385
▁अवैध	-8.68583
▁पार	-8.68602
▁जुड़	-8.69006
▁दु	-8.6908
▁ाध्यम	-8.69108
▁पै	-8.69209
▁क्र	-8.69819
▁चंद्र	-8.69872
▁बाल	-8.70337
▁नव	-8.70582
▁शेयर	-8.70848
▁बरामद	-8.70938
▁वीं	-8.70979
▁स्थल	-8.70989
▁खरीद	-8.7106
▁ाज	-8.71209
▁्री	-8.71368
▁्टेशन	-8.71418
▁अंदर	-8.71441
▁इंदौर	-8.71655
▁कृष्ण	-8.71958
▁करण	-8.72003
▁मई	-8.72035
▁किलो	-8.72097
▁फ़	-8.72298
भी	-8.72325
▁अक्	-8.72334
▁सवार	-8.72591
▁टूबर	-8.7262
▁कोशिश	-8.72741
▁सितंब	-8.72804
▁कहते	-8.7306
▁ोर	-8.73232
▁चुन	-8.73288
▁एक्ट	-8.73304
▁ारपीट	-8.7335
▁वीर	-8.73409
▁ीना	-8.7344
▁िका	-8.73625
▁पीएम	-8.73684
▁ीण	-8.73702
▁पुरा	-8.73818
▁वी	-8.73884
t	-8.73966
▁पढ़	-8.74075
▁जय	-8.74311
▁ंब	-8.74391
विध	-8.74418
▁माह	-8.74422
▁ंडा	-8.74562
▁इस्	-8.74634
▁्व	-8.74733
▁जु	-8.74884
ाकि	-8.75292
▁पीछे	-8.75365
▁जे	-8.75506
▁ेन	-8.7559
▁दिसंब	-8.75696
▁लौट	-8.75922
▁अति	-8.75932
▁दिवस	-8.75974
▁ांग	-8.76018
▁मोह	-8.76055
▁ेयर	-8.76182
▁चुका	-8.76201
▁एयर	-8.7626
▁C	-8.76276
▁संगठन	-8.76386
▁हमला	-8.76409
▁शुभ	-8.76452
▁तीसर	-8.76774
▁तु	-8.77597
▁करा	-8.77636
▁रस	-8.77646
▁ेडिकल	-8.77652
▁हादसे	-8.77671
्प	-8.77723
▁तलाश	-8.77911
▁देकर	-8.78115
▁्ट	-8.78362
▁ूछताछ	-8.78677
▁गुप्त	-8.7887
▁जाना	-8.78919
▁्रकाश	-8.78935
ंस	-8.78936
▁बदमाश	-8.79064
▁ेश्वर	-8.79129
▁24	-8.79195
▁नवंबर	-8.79323
▁केंद्	-8.79323
▁आवेदन	-8.79407
▁उन	-8.79708
▁आसपास	-8.79712
▁ीड़ित	-8.79777
▁खास	-8.79994
▁लिखा	-8.80034
▁ांड	-8.80106
▁बंधित	-8.80234
▁वाह	-8.80667
▁ट्री	-8.81084
▁केवल	-8.81449
▁बैठ	-8.81478
▁मतदान	-8.81647
▁गो	-8.81695
▁खंड	-8.81762
▁ीं	-8.8179
▁पर्य	-8.82113
▁50	-8.82227
▁14	-8.82254
▁त्याश	-8.82282
▁शि	-8.82344
▁आपको	-8.82445
▁चौधरी	-8.82549
▁चै	-8.82741
▁वाया	-8.82917
▁बिना	-8.82919
ॉन्	-8.8303
▁भोपाल	-8.83086
▁बॉ	-8.83187
▁नेशनल	-8.83189
▁आपक	-8.83198
▁सौ	-8.83381
▁राव	-8.83521
▁ृ	-8.83525
▁खेत	-8.8356
▁एच	-8.83617
▁्रसाद	-8.83625
▁ांस	-8.83733
▁खड़	-8.83888
▁देखने	-8.83906
ता	-8.84181
▁मिनट	-8.84228
▁िन	-8.84265
ेश	-8.8455
▁दर	-8.8463
▁ध्यान	-8.84845
▁मोहन	-8.84957
▁मार	-8.85124
▁13	-8.85214
▁ाह	-8.85366
▁ेताओं	-8.85399
▁ुविधा	-8.85468
▁ाग	-8.85651
▁इनक	-8.85731
▁ट्रै	-8.85756
▁नदी	-8.8581
▁ाध	-8.85827
▁हमें	-8.85989
▁लिख	-8.86016
▁क्यों	-8.86091
▁वाई	-8.86156
▁्यू	-8.8636
▁र्स	-8.86406
▁ेदार	-8.86444
▁भारी	-8.8658
▁ोड़	-8.86596
▁पड़ा	-8.86801
▁मार्	-8.86892
▁वार्ड	-8.87
▁मार्च	-8.87036
▁कं	-8.87107
▁ै	-8.87169
▁लाभ	-8.87215
▁मंत्र	-8.87276
▁खबर	-8.87276
▁ील	-8.87297
▁शो	-8.87536
▁होना	-8.87852
▁ाही	-8.8786
▁अमित	-8.87909
▁16	-8.87943
▁बोर्ड	-8.87955
▁B	-8.88014
▁जन्म	-8.88193
▁पढ़ें	-8.88405
ोड़	-8.8848
▁ंक	-8.88605
▁/	-8.88622
▁वर्ग	-8.88663
▁बा	-8.88814
▁िस	-8.89162
▁चरण	-8.89193
▁ओवर	-8.89332
▁देखते	-8.89671
▁चालक	-8.89717
▁प्रा	-8.8988
▁श्चिम	-8.89989
श्	-8.90188
▁बने	-8.90299
▁टिकट	-8.90332
▁टेस्ट	-8.90363
▁ियर	-8.90378
▁कैसे	-8.90392
▁फरार	-8.90805
▁दर्श	-8.90925
▁साफ	-8.91089
क्ष	-8.91155
▁S	-8.91159
▁भवन	-8.91184
▁दोस्त	-8.91208
▁घु	-8.91448
▁त्य	-8.91541
▁गोली	-8.9161
य	-8.91733
र्मच	-8.91768
▁उपस्थ	-8.91804
▁मत	-8.92017
▁ऐ	-8.92081
▁18	-8.92195
▁ट्	-8.92261
▁विकेट	-8.92311
▁यानी	-8.92348
▁कराने	-8.92406
▁िस्सा	-8.92459
▁बनी	-8.92481
▁ाए	-8.92483
▁जिसे	-8.92879
▁घाट	-8.93097
▁र्द	-8.93153
▁धु	-8.93207
▁डाय	-8.93278
▁ीणों	-8.93328
▁जनवरी	-8.93424
▁िटल	-8.93784
▁निधि	-8.9406
▁कीमत	-8.94204
▁ावना	-8.94207
दाध	-8.9421
▁सिल	-8.94258
▁ोस्टम	-8.9443
▁ख़	-8.94495
▁र्थ	-8.94634
▁सीटों	-8.94702
▁अगले	-8.9523
▁व्य	-8.95267
▁तय	-8.95312
▁चार्य	-8.95654
▁मारोह	-8.95693
▁दौ	-8.95731
▁हु	-8.96044
▁ुल	-8.9605
▁संघ	-8.96054
▁संजय	-8.96168
▁17	-8.96271
▁जाय	-8.96339
▁पलब्ध	-8.96376
▁सहयोग	-8.96376
्रद्	-8.96416
▁हे	-8.96432
▁पि	-8.96492
▁आयोग	-8.9653
ष	-8.96558
▁लगाए	-8.96659
▁गेट	-8.96681
▁अव	-8.97013
C	-8.97118
▁जिलों	-8.97151
▁गलत	-8.97229
▁फोटो	-8.97229
ाय	-8.97256
▁िड	-8.97576
▁ानी	-8.97582
▁भेजा	-8.97653
▁स्थ	-8.97957
A	-8.97981
▁दावा	-8.98211
▁्ल	-8.98233
▁जिम्म	-8.98316
▁ऐसी	-8.98394
▁मुंबई	-8.98551
▁अधि	-8.9858
ंत	-8.9868
▁ांव	-8.98758
▁ीट	-8.9878
▁तृत्व	-8.98869
▁नौ	-8.98923
▁तल	-8.99049
▁कार्ड	-8.99053
▁यूपी	-8.99292
▁ीप	-8.99321
▁बह	-8.99432
▁गर्मी	-8.99465
▁पैसे	-8.99611
▁ूर्ति	-8.99611
▁चौक	-8.99656
?	-8.99755
▁रखने	-8.99779
▁सर्व	-8.99891
ुनिय	-8.99952
▁ट्र	-9.00183
▁कह	-9.00335
▁बिल	-9.00371
▁नीचे	-9.00374
▁िट	-9.00462
▁मद	-9.00465
ेर	-9.00492
▁र्मचा	-9.00534
▁भू	-9.00674
▁s	-9.00826
▁ताकि	-9.00957
▁पटना	-9.01016
▁प्रैल	-9.01257
00	-9.01458
▁रेट	-9.01463
▁एंट	-9.01585
▁ेम	-9.01668
▁उर्फ	-9.01749
▁ीनियर	-9.01986
▁धारा	-9.02038
▁माना	-9.02057
▁ेल	-9.02102
▁बच	-9.02116
▁भाव	-9.02143
s	-9.02192
▁ीक्षक	-9.02242
▁राह	-9.02276
▁सै	-9.0229
▁टक्कर	-9.02312
▁ीम	-9.02337
▁लगाने	-9.02389
▁सौंप	-9.02398
▁नियम	-9.0258
▁बज	-9.02616
▁धर	-9.02661
▁बेहतर	-9.0272
▁फायर	-9.02721
▁पण	-9.02738
झ	-9.02746
▁दरअस	-9.02802
▁साम	-9.02888
▁तुल	-9.02926
▁ूर्ण	-9.02966
▁स्त	-9.03048
▁ट्रा	-9.03247
के	-9.03443
▁लादेश	-9.03545
▁जाकर	-9.03873
ंग	-9.03887
▁यूनि	-9.03938
▁सिटी	-9.04006
▁सिर	-9.04143
▁गी	-9.04163
▁फैसला	-9.04478
▁सीमा	-9.04837
▁रत	-9.05027
▁घोषणा	-9.05039
▁ाय	-9.05187
▁हासिल	-9.05292
▁टू	-9.05313
▁रु	-9.05319
▁जग	-9.05324
▁तैनात	-9.05375
▁मकान	-9.05376
▁लॉ	-9.05398
▁कर्	-9.05482
▁कल्प	-9.05503
▁ट्रक	-9.05514
▁वक्त	-9.05542
▁ेदारी	-9.05735
▁डेट	-9.05821
▁तेमाल	-9.0588
▁सदर	-9.06153
▁मैदान	-9.06219
▁्रपति	-9.06474
▁P	-9.06485
▁इंस्	-9.06683
▁22	-9.06695
▁रहते	-9.06711
्याप	-9.06782
▁नल	-9.06786
▁टन	-9.06871
▁दा	-9.06897
▁शिक्ष	-9.07002
▁्रेस	-9.07059
▁रिकेट	-9.0716
▁जाम	-9.07186
▁हिंद	-9.0719
▁ेक्टर	-9.07208
▁्रधान	-9.07332
ेट	-9.07356
▁कानून	-9.07585
▁ीएम	-9.07674
▁N	-9.07759
▁बाबा	-9.07893
▁कहीं	-9.08012
▁हमने	-9.08033
▁ग्र	-9.08162
▁रहेगा	-9.08191
सि	-9.08219
▁िए	-9.0831
▁्रकार	-9.08368
▁चंद	-9.08543
▁ऊपर	-9.08623
▁हस	-9.08704
▁रान	-9.08868
▁कॉर्ड	-9.09063
▁ष्ट	-9.09122
हाल	-9.09304
▁हालत	-9.09311
ई	-9.09422
▁त्रि	-9.09459
▁्रा	-9.0956
▁ाड़ी	-9.09657
▁ेय	-9.09675
▁दास	-9.09728
▁वित्त	-9.09877
▁खोल	-9.09878
▁रिय	-9.10001
▁ातचीत	-9.10021
▁ेस	-9.10068
▁गृह	-9.10197
्रीम	-9.10252
▁ेना	-9.10264
▁तीनों	-9.10369
▁जमा	-9.1043
▁ारखंड	-9.10462
▁खराब	-9.10464
▁रिज	-9.10507
िम	-9.10535
▁औ	-9.10565
▁परिसर	-9.1057
▁वश्यक	-9.10651
▁बोले	-9.10747
▁ाथमिक	-9.10994
▁वायरल	-9.11028
▁डा	-9.11034
d	-9.1107
▁ठीक	-9.11104
पी	-9.11164
▁पत्ति	-9.11188
▁नया	-9.1122
ेच	-9.11222
▁कड़	-9.11298
▁गंगा	-9.11603
▁पार्क	-9.11616
▁जरूरत	-9.11675
▁शंकर	-9.11805
▁ोज	-9.11858
▁ेंड	-9.11899
▁पेट	-9.12175
▁विचार	-9.12517
▁ंगा	-9.12624
ंध	-9.12682
▁खत्म	-9.12699
▁थानों	-9.12703
▁मेरी	-9.1287
▁सेंटर	-9.12891
▁ावत	-9.12916
▁िटी	-9.12917
▁ुनवाई	-9.1297
▁ठबंधन	-9.13061
▁काली	-9.1307
▁घोषित	-9.13151
▁ीत	-9.13197
▁स्टूड	-9.13242
▁बहन	-9.13268
▁निजी	-9.13276
▁19	-9.13359
n	-9.1342
▁कराई	-9.13431
▁ाता	-9.13908
▁इं	-9.14037
▁भीड़	-9.14089
▁िंदर	-9.14122
▁म्मान	-9.14173
▁कब	-9.14277
▁म्मीद	-9.14345
▁वें	-9.14414
▁ाम	-9.14432
▁लखनऊ	-9.14433
▁जवान	-9.14638
▁लूट	-9.1474
▁कॉल	-9.14871
▁खा	-9.1496
▁ागरिक	-9.14986
▁त्व	-9.15029
▁भा	-9.15032
▁लव	-9.15305
्यू	-9.1541
▁पहला	-9.15416
▁यही	-9.15422
▁रोज	-9.15464
▁ायल	-9.15513
▁ंध	-9.15577
ाल	-9.15633
▁शास	-9.15671
▁होटल	-9.15739
▁ारा	-9.16025
▁रानी	-9.16242
▁िलकर	-9.1637
▁वाड़	-9.16373
▁न्ना	-9.16418
▁चीन	-9.16465
▁ूं	-9.16716
▁21	-9.16719
ाई	-9.16818
▁द्योग	-9.16854
▁सर	-9.16868
▁रेड	-9.16879
▁सागर	-9.16914
▁अंतिम	-9.16956
▁वेद	-9.17053
▁्रि	-9.17099
▁इम	-9.17303
▁बाग	-9.17325
▁धार	-9.17354
▁मजबूत	-9.17377
▁परिषद	-9.17421
▁सफाई	-9.1752
▁उत्	-9.17586
▁ाओं	-9.17607
▁ेव	-9.17655
▁वास	-9.17714
▁रोहित	-9.17806
▁रल	-9.1805
▁I	-9.18086
▁पत्	-9.18092
▁वर्	-9.18093
▁कमेटी	-9.18279
▁प्रेम	-9.18374
▁्रवेश	-9.18376
▁हि	-9.18458
▁उच्च	-9.18662
▁पाया	-9.18666
▁िय	-9.18708
l	-9.18724
▁रखी	-9.1874
स्त	-9.1876
▁वाने	-9.18813
▁ैर	-9.18862
▁लाइ	-9.18873
▁देना	-9.19022
▁द्ध	-9.19042
▁ोह	-9.19118
▁भिषेक	-9.19143
▁जरिए	-9.19145
▁40	-9.19199
▁क़	-9.19206
▁श्चि	-9.19243
▁तभी	-9.1932
▁ौर	-9.19389
▁फी	-9.19424
▁र्षीय	-9.19433
▁ोली	-9.19443
▁एंड	-9.19446
y	-9.19478
▁िक्षक	-9.19533
▁धमकी	-9.19584
▁कमी	-9.19594
▁रक्षण	-9.19628
▁जोर	-9.19726
▁उतर	-9.19826
▁रू	-9.19849
▁सार	-9.19975
▁लगाई	-9.20204
▁ड़ा	-9.20338
▁रे	-9.20461
▁शी	-9.20497
▁चाहत	-9.2057
▁अचानक	-9.20797
▁स्ताव	-9.20797
▁र्क	-9.20798
▁अदालत	-9.20895
▁महारा	-9.20942
▁क्ष्य	-9.20968
▁अग्रव	-9.2102
▁ंश	-9.21072
▁खिल	-9.21087
▁रिष्ठ	-9.2115
▁सही	-9.21151
▁केट	-9.21223
▁चिकित	-9.21288
▁भूमि	-9.21489
▁ालू	-9.21528
▁मर्थन	-9.21585
▁करवा	-9.21592
▁ारदात	-9.21801
ेज	-9.21879
▁पाठ	-9.21983
▁लित	-9.2222
▁ॉलोनी	-9.22283
▁संत	-9.22398
▁ीक्षण	-9.22479
▁ैक	-9.22481
▁आते	-9.22567
▁स्तुत	-9.22708
▁स्ल	-9.22769
▁अशोक	-9.22878
▁निवेश	-9.22882
▁क्षण	-9.22884
▁उम्र	-9.23079
▁नाल	-9.23133
▁मा	-9.23138
▁ावजूद	-9.23179
▁जाति	-9.23245
वा	-9.23261
▁सपा	-9.23392
▁उसी	-9.2345
▁त्त	-9.23451
▁लागू	-9.23582
▁ॉल	-9.23588
▁ायब	-9.23608
▁कर्म	-9.23613
▁काट	-9.23626
▁दम	-9.23991
▁कारी	-9.24072
िंदू	-9.24089
▁26	-9.24092
ॉप	-9.24133
▁ेंडर	-9.24168
▁अंक	-9.24179
▁ल्याण	-9.2429
▁ूस	-9.24323
▁धारित	-9.24392
h	-9.24403
▁बल्क	-9.24448
▁न्न	-9.24495
▁उनसे	-9.2457
▁यर	-9.24581
▁पटेल	-9.24596
▁शांति	-9.24712
▁ीड	-9.24746
▁फल	-9.24772
▁पू	-9.24868
▁ेद	-9.2489
▁याचिक	-9.25209
▁टूट	-9.25228
▁प्रिय	-9.25264
▁कौन	-9.25316
िस्	-9.25364
▁गेंद	-9.25395
▁कूल	-9.25417
▁ोन	-9.25505
▁कही	-9.25519
▁िता	-9.25558
▁ारायण	-9.25623
▁जि	-9.25643
▁शक्ति	-9.25753
▁बदलाव	-9.25753
▁थियार	-9.25826
▁ज्ञा	-9.25842
जय	-9.25973
दाय	-9.26013
▁रम	-9.26027
▁लैंड	-9.26074
▁श्व	-9.26244
▁तुर	-9.26251
▁बांध	-9.26257
▁योगित	-9.26447
▁छोटे	-9.26466
▁भावित	-9.26654
▁रिक्त	-9.26702
▁लान	-9.26737
▁वर्मा	-9.26759
▁रूम	-9.26775
▁र्ट	-9.26777
▁दूसर	-9.26787
▁ित्र	-9.27077
▁षित	-9.27176
▁हल	-9.2718
▁वक्ता	-9.27182
5	-9.27184
▁साध	-9.27409
▁इंतज	-9.2749
▁रुक	-9.27658
▁शेख	-9.27661
▁बो	-9.27663
▁सजा	-9.27744
▁दिखाई	-9.2784
▁ंदन	-9.27877
▁डिज	-9.27896
▁ुकसान	-9.2791
▁जू	-9.27994
▁नो	-9.28055
ियों	-9.28093
▁स्टार	-9.28125
▁ऑफिस	-9.28135
▁विदेश	-9.28137
▁ाइज	-9.28154
▁रोबार	-9.28227
▁रहता	-9.28291
हन	-9.28309
▁िम	-9.28413
▁जरूरी	-9.28415
▁ोत	-9.28432
▁ुक	-9.28507
म्	-9.28529
▁राउंड	-9.28756
▁बंगाल	-9.28758
▁ांकन	-9.28798
▁बंधन	-9.28817
▁पट	-9.28851
▁टाल	-9.28934
▁हेल	-9.28935
▁गोल	-9.28936
▁थान	-9.28937
▁िर	-9.28955
▁उपयोग	-9.28969
▁आवास	-9.28984
▁फ्ल	-9.29037
▁हट	-9.29037
▁पीड़ित	-9.29075
▁ास्ते	-9.29118
▁हॉस्प	-9.29182
▁मारी	-9.29206
▁उससे	-9.29217
▁बचा	-9.29237
▁आत	-9.29288
▁मजदूर	-9.29395
▁िफ्ट	-9.29395
▁हरा	-9.29438
▁स्म	-9.29472
्व	-9.29557
▁करेगी	-9.29563
▁चु	-9.29591
▁रवि	-9.29617
▁बनाई	-9.29645
▁न्य	-9.29648
▁ेस्ट	-9.2965
▁असर	-9.29748
▁T	-9.29803
▁इज	-9.29822
▁तिहास	-9.29824
▁याद	-9.29834
▁ाइन	-9.29919
▁सर्	-9.29942
▁ावल	-9.29958
▁फैल	-9.30105
▁बू	-9.30166
▁इक	-9.30215
▁आउट	-9.30254
▁क्ति	-9.3034
▁आत्म	-9.30364
▁ष्ट्र	-9.30365
▁क्व	-9.30378
▁n	-9.30379
▁ीकरण	-9.30477
▁वर्त	-9.30514
▁ज्ञ	-9.30555
▁पाई	-9.30632
िन्ह	-9.30654
▁ग्रुप	-9.30686
▁राहत	-9.30745
▁हवा	-9.30793
▁ारे	-9.30815
▁कर्मी	-9.30961
▁युवती	-9.31022
▁पुल	-9.31027
p	-9.3108
▁्रदान	-9.3112
गर	-9.31176
▁तरीके	-9.31183
▁प्शन	-9.31229
▁िश्रा	-9.31338
▁योध्य	-9.31556
▁क्रिय	-9.31728
▁राइवर	-9.31775
▁जब्त	-9.31833
▁ीवी	-9.3194
▁ूमिका	-9.31994
▁सीसीट	-9.32124
▁कॉम	-9.3219
▁डीए	-9.32206
▁मृत	-9.32207
▁क्षिण	-9.32214
▁लंब	-9.32215
▁रंप	-9.32283
▁चोट	-9.32325
▁चेक	-9.3244
पुर	-9.32559
▁किशोर	-9.32655
▁मौ	-9.32687
D	-9.32734
▁रज	-9.32843
▁ेल्	-9.33134
▁साह	-9.33137
▁शील	-9.33138
▁वान	-9.33166
▁एजेंस	-9.3332
▁आनंद	-9.33431
▁्वागत	-9.33431
▁रिलीज	-9.33542
▁र्डर	-9.33548
▁कड़ी	-9.33739
▁गार	-9.33846
▁हटा	-9.33916
▁ाक	-9.33934
▁हमले	-9.3396
▁इतना	-9.34014
▁वॉ	-9.34092
▁तहसील	-9.34101
▁कपूर	-9.34101
हनों	-9.34104
▁भाष	-9.34112
▁खर्च	-9.34213
▁्रचार	-9.34325
▁ैया	-9.34418
धर	-9.34469
▁बजट	-9.34475
▁र्व	-9.34547
▁हंगा	-9.34551
▁दिशा	-9.34663
▁णय	-9.34715
▁िफ	-9.34763
िलाड	-9.34808
▁इंट	-9.34889
▁चा	-9.34903
ात	-9.34925
▁वर्क	-9.34932
▁्रता	-9.34941
▁किस	-9.34975
▁नौकरी	-9.35017
▁दोष	-9.35025
▁28	-9.35117
▁लगाकर	-9.35162
▁िश	-9.35204
▁न्यू	-9.35233
▁राग	-9.35321
▁बीमार	-9.35332
▁सलमान	-9.35345
▁िंक	-9.35379
▁मिशन	-9.35455
▁23	-9.35476
▁अमर	-9.35496
▁िज	-9.35558
▁फरवरी	-9.35568
▁शांत	-9.35581
जिस्	-9.35612
▁ालिका	-9.35686
▁उपाध	-9.35797
▁सू	-9.35817
▁दश	-9.35828
▁ुआ	-9.35841
▁संसद	-9.35911
▁डर	-9.35917
▁कृषि	-9.3592
▁उल्	-9.35921
▁बालिग	-9.35924
▁्ड	-9.35971
▁ेरा	-9.35981
▁नलाइन	-9.36024
▁लगता	-9.3611
▁राजेश	-9.36161
▁बीते	-9.36169
▁सूर्य	-9.36255
▁णी	-9.36318
ुद्द	-9.36322
▁ार्ट	-9.36337
▁ैंड	-9.36362
▁आवाज	-9.36482
▁ंज	-9.36653
▁तेजी	-9.36743
ण	-9.36785
▁कदम	-9.36907
▁हाउस	-9.36942
▁सीटें	-9.36943
▁ाला	-9.3697
▁लेते	-9.37032
▁बल्	-9.37101
S	-9.3711
▁सिविल	-9.37288
▁तारी	-9.37468
▁यदि	-9.37539
▁घरों	-9.37541
▁नत	-9.37573
▁तेल	-9.37668
▁चित	-9.37821
▁रै	-9.37918
▁नोटिस	-9.37985
▁D	-9.37998
▁ः	-9.38113
▁फीसदी	-9.38118
7	-9.38141
▁दीपक	-9.38216
R	-9.38309
▁िब	-9.3838
▁ायक	-9.38403
▁रहेगी	-9.38576
▁रव	-9.38624
▁छत्	-9.38645
▁मैन	-9.38716
▁छह	-9.38799
▁27	-9.38838
▁ेला	-9.3888
▁बीर	-9.38925
▁मालिक	-9.38999
▁र्	-9.39011
▁ास्कर	-9.3912
▁ंस्था	-9.39156
▁्यास	-9.39251
▁ारंभ	-9.39278
▁जमकर	-9.39304
▁ंच	-9.39384
▁विषय	-9.39392
▁श्याम	-9.39393
▁नू	-9.39403
▁लेख	-9.39478
▁लाकात	-9.39515
▁l	-9.39662
▁बेटा	-9.39711
्स	-9.39738
▁शाला	-9.39778
रा	-9.39803
▁धालु	-9.39866
▁प्ताह	-9.39866
▁भजन	-9.3998
▁तस्कर	-9.39997
ौध	-9.40085
▁ीसगढ़	-9.40104
▁करेगा	-9.40104
▁नाराज	-9.40122
▁आयु	-9.40135
▁धाम	-9.40192
▁गैंग	-9.40233
▁क्यू	-9.4024
▁जेक्ट	-9.40295
▁सीध	-9.40306
▁ोजगार	-9.40342
▁विष्य	-9.40358
▁ोप	-9.40451
▁हनुम	-9.40461
▁पॉ	-9.40467
▁उतार	-9.40582
▁ईडी	-9.40628
▁L	-9.4076
▁सफर	-9.40848
▁ीश	-9.40869
▁िरासत	-9.4094
▁ंप	-9.40965
-	-9.4101
▁कौ	-9.41035
▁लिय	-9.41057
▁सामना	-9.41061
क्ष्	-9.41097
▁मनोज	-9.41106
▁देह	-9.41131
▁ब्द	-9.4121
▁दुर्	-9.4126
▁कमल	-9.41263
▁चौरा	-9.41292
▁ण्ड	-9.41301
▁सहायक	-9.4132
▁िस्टम	-9.41346
▁ंघ	-9.41563
▁कला	-9.41571
▁पचार	-9.41573
▁लाश	-9.41608
▁ेली	-9.41667
▁ठाकुर	-9.41783
▁ूत	-9.41809
▁चले	-9.41837
▁फर्जी	-9.41905
▁अपील	-9.41906
▁संबोध	-9.42026
▁ेरी	-9.42124
▁रहती	-9.42129
▁डो	-9.42231
▁31	-9.42325
▁ग्	-9.42339
▁मंच	-9.42394
▁रेप	-9.4242
▁जुड़े	-9.42514
▁िव	-9.42632
▁हाज	-9.42699
▁यूज	-9.4271
▁दयपुर	-9.42762
▁्या	-9.42823
▁सीरीज	-9.42878
▁ष्ठ	-9.42915
▁पालन	-9.43015
▁पल	-9.43125
▁हाराज	-9.43387
िल	-9.43475
▁ोत्सव	-9.43492
▁र्ज	-9.435
▁ियम	-9.43513
▁मिट	-9.43569
▁हरि	-9.43579
▁संग	-9.43585
▁हिम	-9.43602
▁जिसकी	-9.43606
▁ंचालन	-9.43738
▁र्ग	-9.43809
▁सुन	-9.43896
▁कंपन	-9.43919
▁सुधार	-9.43942
▁नोट	-9.43957
▁मतदात	-9.43985
▁त्म	-9.43997
▁साहू	-9.44007
▁अनिल	-9.44017
▁ंजाम	-9.44034
▁आव	-9.44038
▁काउंट	-9.44109
▁वती	-9.44174
िस्स	-9.44232
▁मू	-9.44257
▁टेन	-9.44269
▁लाकों	-9.44291
▁जम	-9.44305
▁सुनील	-9.44317
▁वां	-9.44345
▁ोर्स	-9.4439
I	-9.44438
▁ार्षद	-9.44481
ौत	-9.44513
▁राइल	-9.44519
▁ाएं	-9.44571
▁ऊ	-9.44618
▁खड़े	-9.44664
▁सत्र	-9.44701
▁ंपर्क	-9.4473
▁विवाह	-9.44741
▁ड़े	-9.44742
▁्लो	-9.44789
▁हरी	-9.4484
▁देंगे	-9.44855
▁ॉक	-9.44918
▁टक	-9.44964
▁मिलते	-9.45125
▁स्वीर	-9.45195
▁दि	-9.45221
▁तंत्र	-9.4523
▁अच्छी	-9.4523
▁रीज	-9.45375
▁तवाली	-9.45606
▁ाइड	-9.45618
▁टो	-9.45635
▁बच्ची	-9.45689
▁वर	-9.45696
▁ेग	-9.45732
▁प्ले	-9.45778
▁र्य	-9.45848
▁बाज	-9.45853
▁क्स	-9.45854
▁र्न	-9.45857
▁त्साह	-9.45858
▁ुर	-9.45859
▁ामलों	-9.45866
▁योगी	-9.45882
▁सिद्	-9.45901
m	-9.45941
▁फाइनल	-9.45958
▁चली	-9.45968
▁जैसी	-9.46111
▁चना	-9.46126
▁मंडी	-9.46198
▁गण	-9.46235
▁मेह	-9.4626
▁नाई	-9.46291
▁िहार	-9.46364
▁जंगल	-9.4644
जरी	-9.46455
▁पोल	-9.46574
▁लपुर	-9.46586
▁बैठे	-9.46687
▁्पेशल	-9.46744
▁तिथि	-9.46744
▁मित	-9.46763
▁नार	-9.468
त्य	-9.46832
▁नाग	-9.46976
▁ब्ल	-9.46982
▁सोच	-9.4716
▁ेरि	-9.47282
▁इंज	-9.47299
▁कृति	-9.47317
▁अच्छा	-9.47383
▁मल	-9.47384
▁ंदोलन	-9.4751
▁फसल	-9.47516
▁पैर	-9.47613
▁नीतीश	-9.47638
माजि	-9.47707
▁गल	-9.47794
▁पर्व	-9.4781
▁लेट	-9.47821
ुट	-9.47901
▁ांत	-9.47941
▁विज	-9.47946
▁िंद	-9.48051
▁;	-9.48169
▁प्ल	-9.48196
▁ीकर	-9.48244
▁दित्य	-9.48422
▁श्किल	-9.48684
▁सुरक्	-9.48717
▁डीसी	-9.48728
ha	-9.48833
▁क्रम	-9.4886
▁छा	-9.48882
▁्रेड	-9.48951
▁ेंग	-9.49175
▁गति	-9.49262
▁ेह	-9.49268
▁पहल	-9.49347
▁त्पाद	-9.49581
▁पंच	-9.49586
▁ांसी	-9.49624
▁त्र	-9.49698
▁चढ़	-9.4978
▁अलर्ट	-9.49843
▁्ञापन	-9.49843
▁अं	-9.49943
▁मौका	-9.49982
▁यात	-9.5008
▁राजा	-9.50112
▁स्तार	-9.50372
▁सत्ता	-9.50374
▁्वामी	-9.50382
▁थापित	-9.50633
▁अतिथि	-9.50666
▁29	-9.50668
▁सालों	-9.50713
▁निक	-9.50734
▁ुजरात	-9.50766
▁तू	-9.50829
▁साइबर	-9.51163
▁शिविर	-9.51165
▁ीरे	-9.51173
▁व्रत	-9.51296
▁मरीज	-9.51319
▁िनी	-9.51422
ाठ	-9.51503
▁टा	-9.51569
▁मीणा	-9.51571
▁सकें	-9.51667
▁रैली	-9.51719
▁्म	-9.51748
▁िवारी	-9.51835
▁एप	-9.51841
▁ाटा	-9.51859
▁उड़	-9.51859
▁अर्	-9.51877
दी	-9.51913
▁िदेशक	-9.51914
▁लर	-9.51962
▁ंचालक	-9.51964
▁गणेश	-9.5198
▁आईटी	-9.52101
▁्पष्ट	-9.52101
P	-9.52134
▁सेव	-9.52196
▁पुरी	-9.52201
▁धिकतम	-9.52232
▁ावर	-9.52269
▁एक्टर	-9.52442
▁तिक	-9.52486
▁ड्ड	-9.52499
▁सर्वे	-9.52519
▁सूत्र	-9.52636
▁कैंप	-9.52661
▁लो	-9.52707
▁ऑटो	-9.52771
▁फॉर्म	-9.52906
▁ोस	-9.52925
▁ठंड	-9.53048
▁गौर	-9.53053
▁श्वास	-9.53064
▁गर	-9.53108
▁ंदा	-9.53189
▁एज	-9.53204
ृद्ध	-9.53261
▁सीता	-9.53292
▁ुनावी	-9.53312
▁नाटक	-9.53353
मान	-9.53364
▁ार्	-9.53392
▁मुकेश	-9.53442
▁प्लान	-9.53449
▁खाली	-9.53449
▁हमेश	-9.53549
▁मनाया	-9.53585
▁डिप्	-9.53637
▁ाढ़	-9.53694
▁बंध	-9.5371
▁चलने	-9.53715
▁पुरुष	-9.53721
▁ंदे	-9.53754
▁कीय	-9.53775
▁पाए	-9.53809
▁्क	-9.53819
▁टोल	-9.53827
▁एशन	-9.53867
▁वत	-9.53974
▁ोटी	-9.54008
▁R	-9.54123
▁चर	-9.54129
▁्रे	-9.54133
▁एसड	-9.5416
▁बिन	-9.54184
▁G	-9.54197
▁तर	-9.54269
▁कब्जे	-9.54291
▁यल	-9.544
▁पूजन	-9.54411
▁फै	-9.54526
▁र्सिट	-9.54543
▁पेपर	-9.54543
▁गड़	-9.54747
▁ुझ	-9.54754
▁चार्ज	-9.54848
▁मनीष	-9.54962
▁अंग	-9.55034
▁लू	-9.55068
▁लिस्ट	-9.55094
▁ोक	-9.55102
▁ाले	-9.55129
▁ाइट	-9.55199
▁ार्टम	-9.55205
▁पन्न	-9.55232
▁मानित	-9.55233
▁आकर	-9.55238
▁सप	-9.55275
ूल	-9.55289
▁पो	-9.5537
▁वेस्ट	-9.55509
▁गै	-9.55576
▁ावरण	-9.55657
▁ंत्र	-9.55764
▁गोपाल	-9.55789
▁ुम	-9.55829
▁ग्रह	-9.55838
▁चयन	-9.55844
▁पूछा	-9.55908
▁ागरूक	-9.55926
▁प्लेट	-9.56003
▁पार्ट	-9.56007
▁पारी	-9.5625
▁घू	-9.56316
▁अमृत	-9.56345
▁्रभाव	-9.56346
ार्म	-9.56377
▁ास्ट	-9.56435
▁घट	-9.56437
▁गज	-9.56497
▁साइड	-9.56504
▁खुश	-9.56576
▁खूब	-9.56601
▁गईं	-9.56639
▁निभ	-9.56695
▁बढ़ा	-9.56716
▁सफल	-9.56724
▁ैसा	-9.56767
▁ईरान	-9.56907
▁र्ल्ड	-9.56916
▁िनारे	-9.56946
▁कमरे	-9.56985
▁शिप	-9.56998
भ	-9.57356
▁ुद्ध	-9.57357
▁ांट	-9.57389
▁ावधान	-9.57476
▁ास्तव	-9.57633
▁चू	-9.5771
▁दह	-9.57782
▁ेंट्स	-9.57808
▁शु	-9.57858
▁बॉल	-9.57939
▁उनको	-9.58044
▁सख्त	-9.58182
▁हादसा	-9.58224
▁देश्य	-9.58262
▁मशीन	-9.58325
▁गाय	-9.58362
:	-9.5847
▁एसएस	-9.58487
▁अहम	-9.58567
▁रिश्त	-9.58668
▁रच	-9.58864
▁वाचन	-9.58897
▁मैनेज	-9.5891
▁ोट	-9.58912
▁सफलता	-9.59056
▁ोल	-9.59082
▁विधि	-9.59096
▁फार्म	-9.591
▁म्प	-9.59116
▁घो	-9.59173
▁रूस	-9.5919
▁वानी	-9.59199
िग	-9.59457
▁बेहद	-9.59489
▁आरती	-9.59542
▁मूल	-9.59591
▁लाया	-9.59628
▁फ्	-9.59762
▁ाराम	-9.59799
▁गन	-9.59817
▁ाइल	-9.59896
▁प्रथम	-9.59909
▁कथा	-9.59914
▁ावा	-9.59931
▁मश	-9.59933
▁आठ	-9.5998
▁ड़ी	-9.60046
▁ब्लॉक	-9.60197
▁तलब	-9.60384
▁दू	-9.60527
▁एग्	-9.6056
▁रवाना	-9.60635
▁परेशन	-9.60638
▁अली	-9.60746
▁अंत	-9.6075
ुद्ध	-9.60756
▁गणना	-9.60782
▁कव	-9.60872
▁पशु	-9.60929
ाकर	-9.60962
2	-9.61006
▁हिंस	-9.61098
▁प्रीत	-9.61147
▁ूनतम	-9.61221
▁रमा	-9.61467
▁सेंस	-9.61486
▁िला	-9.61516
r	-9.61696
▁दस्	-9.61808
▁H	-9.61817
▁ठेक	-9.6182
▁जिसका	-9.61931
▁संतोष	-9.62106
▁तकनीक	-9.62107
▁चौकी	-9.62111
▁बाकी	-9.62114
▁जुर्ग	-9.62153
▁मोटर	-9.62216
▁काश	-9.62241
▁्रखंड	-9.62255
▁लाम	-9.62293
▁मॉ	-9.62412
▁नाव	-9.62463
▁प्रेस	-9.62474
्यर्	-9.62506
ल्ड	-9.62547
▁नुमान	-9.62585
▁ल्क	-9.62658
▁टेक्	-9.62729
▁यंत्र	-9.63
▁क्रमण	-9.6301
▁ंकि	-9.6314
▁लीवुड	-9.63153
▁माधान	-9.63154
▁्ट्र	-9.63176
▁आता	-9.63209
▁माम	-9.63241
▁ैन	-9.63248
▁कौर	-9.63274
▁लाइट	-9.63288
्ब	-9.63292
▁प्लाई	-9.63302
c	-9.63351
▁पैसा	-9.63432
▁ानसून	-9.6345
▁शरीर	-9.6345
▁दब	-9.63456
▁िपक्ष	-9.6346
▁आदमी	-9.63477
▁िस्ट	-9.63521
▁वही	-9.63596
▁ग्वाल	-9.636
▁र्पित	-9.636
ऊ	-9.6361
▁मुख	-9.63619
▁ीरा	-9.63661
▁हित	-9.63665
▁एसो	-9.63672
▁फीट	-9.63744
▁रब	-9.63864
▁चौहान	-9.63901
▁बिज	-9.63903
▁़ी	-9.63983
▁बे	-9.6401
▁भार	-9.64168
▁स्क	-9.64191
▁नज	-9.64196
▁राकेश	-9.64209
▁म्ब	-9.6426
▁पाट	-9.64291
▁सांस	-9.64342
▁आसान	-9.64356
▁शल	-9.6441
▁सन	-9.64451
▁ूल	-9.64462
▁ड़क	-9.64601
▁आखिरी	-9.64625
▁संदीप	-9.64659
▁बताई	-9.64722
▁मिस	-9.64738
)	-9.64856
▁ोभ	-9.64896
▁गुर	-9.64953
▁गार्ड	-9.64964
▁कहानी	-9.64987
▁भु	-9.65115
▁कृतिक	-9.65138
▁चिंता	-9.65201
▁हरण	-9.65224
▁़ियों	-9.65339
▁गुजर	-9.65373
▁ोई	-9.65407
▁दाखिल	-9.65422
▁रिणाम	-9.65422
▁दौर	-9.65453
▁ाकू	-9.65454
▁सीजन	-9.65516
▁ोम	-9.65525
▁मारने	-9.6553
▁ाठी	-9.65582
▁एसआई	-9.65588
▁इतन	-9.65702
▁BJP	-9.65731
▁ाइवेट	-9.65776
ेट्	-9.65794
▁भाषा	-9.65893
▁सैन	-9.65946
▁ेप	-9.65988
▁र्ण	-9.66049
▁रखे	-9.66057
▁ेक्स	-9.662
▁ानन	-9.66329
▁दीक	-9.6635
▁हता	-9.66385
▁टेक	-9.66496
▁ुरा	-9.66776
▁ां	-9.66799
▁पसंद	-9.66811
▁ानंद	-9.66812
▁लाने	-9.66821
▁स्टाफ	-9.66827
▁सुप	-9.66828
M	-9.67196
▁योजक	-9.67279
▁धानी	-9.67284
▁िश्नर	-9.67341
▁सीसी	-9.67475
▁M	-9.67489
▁फैक्	-9.67502
▁टरी	-9.67536
▁वकील	-9.67592
▁हेड	-9.67639
▁साय	-9.6764
▁टै	-9.6767
▁द्वि	-9.67686
▁लाह	-9.6771
▁िंट	-9.67751
8	-9.6777
▁कप	-9.6782
▁्प	-9.67854
का	-9.67912
▁ारक	-9.68
▁शीर	-9.68019
▁ासन	-9.68052
▁हा	-9.68058
▁ुलाया	-9.68062
▁शुल्क	-9.68067
▁सेना	-9.68079
▁रुख	-9.68128
्षों	-9.68149
▁रोह	-9.68226
▁टाइ	-9.68251
▁ापुर	-9.68263
▁खु	-9.6838
▁चोर	-9.68382
▁लॉन्च	-9.68394
▁खाना	-9.68439
▁टॉ	-9.68489
▁ुरी	-9.68574
▁र्श	-9.68575
▁र्जी	-9.68736
▁ख्	-9.6883
▁ाउंड	-9.68853
▁शपथ	-9.68853
▁जोन	-9.68854
▁शुक्ल	-9.68865
▁ांक	-9.68876
▁आश	-9.68885
▁अहमद	-9.68895
▁च्छ	-9.68939
▁प्यार	-9.69011
▁एससी	-9.69012
▁मेल	-9.69129
▁सूची	-9.69149
▁रविंद	-9.6933
▁श्न	-9.69427
▁मिलता	-9.69473
▁यमि	-9.69578
▁अज	-9.69597
▁हायता	-9.69654
▁बीआई	-9.69655
▁वस	-9.69682
▁सेंट	-9.69697
▁इंडस	-9.69765
▁त्ती	-9.69765
ामी	-9.69793
▁द्र	-9.69804
▁भावना	-9.6981
▁पीठ	-9.69888
▁जम्म	-9.6997
▁अस	-9.70119
▁F	-9.70143
▁दबाव	-9.70147
▁किमी	-9.70164
▁फायदा	-9.70221
▁माहौल	-9.7029
▁ंथ	-9.70384
▁पांड	-9.70386
ेयर	-9.70394
डी	-9.70444
▁शूट	-9.70452
▁ेंगी	-9.70485
▁रफ्	-9.70534
▁ीकृत	-9.70612
▁प्रशि	-9.70702
▁खो	-9.70703
▁अरुण	-9.70777
T	-9.70792
▁कहां	-9.7081
▁जमानत	-9.70937
▁दिवास	-9.70948
▁गली	-9.70983
▁सोनी	-9.71
्ज	-9.71053
▁ामी	-9.71094
▁समूह	-9.71098
▁उक्त	-9.71099
▁कोच	-9.71144
▁मोर्	-9.71193
▁उज्	-9.71217
▁साइट	-9.7127
▁ड्यूट	-9.71322
▁टैक्स	-9.71426
▁गरीब	-9.71429
▁धव	-9.71502
▁कक्षा	-9.71574
▁क्सर	-9.71705
▁धान	-9.71716
▁नुमति	-9.71749
▁गोद	-9.72008
▁निय	-9.72156
▁्षमता	-9.7224
▁ाउंस	-9.72244
▁ाइकिल	-9.72245
▁फ्ट	-9.72292
▁ीआई	-9.72311
ेब	-9.72377
▁श्त	-9.72528
▁प्तान	-9.72569
▁पारा	-9.72604
▁सैनी	-9.72618
▁ऊं	-9.72712
▁नेस	-9.72755
▁कू	-9.72813
▁तान	-9.72818
▁र्ड	-9.72924
▁निग	-9.7308
▁पथ	-9.7308
▁रने	-9.7317
▁ीजी	-9.73234
▁क्त	-9.7325
घ	-9.7328
▁ुर्गा	-9.73292
▁ापन	-9.733
▁चालित	-9.73395
▁जानते	-9.73549
▁लोड	-9.73589
▁जिद	-9.73626
▁अंब	-9.73633
▁ाइप	-9.73635
▁यान	-9.73726
▁दिव्य	-9.7374
▁सार्	-9.73771
▁ंगल	-9.73804
▁फि	-9.73883
▁दृ	-9.73908
ावर	-9.74037
▁नीत	-9.7414
▁िये	-9.74198
▁सियस	-9.74231
▁ाभ	-9.74298
▁ोयल	-9.74384
▁ॉ	-9.74394
▁काबले	-9.74455
▁रथ	-9.74519
▁िकल	-9.74527
▁ट्टी	-9.74533
▁मंजू	-9.7458
▁्त्री	-9.74652
▁छत	-9.7473
रू	-9.74747
▁आइ	-9.74758
6	-9.74942
▁ाउन	-9.74958
▁ून	-9.7501
▁तरा	-9.75033
▁बहु	-9.75047
परव	-9.75101
▁छापे	-9.75127
▁स्क्	-9.7514
▁पड़े	-9.75188
▁200	-9.75226
▁विवे	-9.75231
▁ुकदमा	-9.75237
▁रेफर	-9.75237
▁वेल	-9.7533
▁%	-9.75338
▁ॉर्टम	-9.7534
▁एए	-9.75374
ाण	-9.75376
▁सरपंच	-9.75406
▁तारीख	-9.75453
▁जॉ	-9.7552
▁माप्त	-9.75577
▁ियो	-9.75578
▁एफआई	-9.7558
▁पार्	-9.75741
▁फैसले	-9.75778
्भ	-9.75787
▁टका	-9.75892
▁दीव	-9.75906
▁बूथ	-9.75947
▁गा	-9.76038
▁तह	-9.76075
▁नर्	-9.76083
▁तावेज	-9.76087
▁इंडि	-9.76112
▁सुर	-9.76162
▁ेमी	-9.76264
▁क्की	-9.76376
▁जताई	-9.76429
▁साथी	-9.76437
▁न्	-9.76471
▁एक्शन	-9.76599
▁ाएंगे	-9.76599
▁E	-9.76611
g	-9.76671
वध	-9.76764
ैंड	-9.7679
ल्	-9.76828
रब	-9.76843
▁ेवर	-9.76888
▁र्जर	-9.76904
▁कांत	-9.76927
▁र्जुन	-9.76942
▁लीग	-9.76991
▁रखते	-9.77024
▁ल्	-9.77055
▁बेस	-9.77077
▁झा	-9.77128
▁यो	-9.77131
▁चंडी	-9.77141
▁ियन	-9.77152
▁ांच	-9.7717
▁ंभ	-9.77218
▁ीज	-9.77262
▁मॉडल	-9.77287
▁बीसी	-9.77298
▁चांदी	-9.77365
▁बादल	-9.77394
यु	-9.77432
्लि	-9.77476
▁करवाई	-9.7748
▁खी	-9.77494
▁त्ता	-9.77539
▁दय	-9.77565
▁ाजी	-9.77589
▁छुट	-9.77597
▁ूद	-9.77637
▁नाड	-9.77641
▁ॉट	-9.7765
▁राजीव	-9.77662
▁र्म	-9.77707
▁गौरव	-9.77738
▁ोहल्ल	-9.77806
▁ऑस्ट	-9.77811
▁खर	-9.77927
▁ाती	-9.77943
▁ागत	-9.77966
▁ानें	-9.77972
▁ीपुर	-9.78071
▁डीएम	-9.78133
▁राइ	-9.78255
▁ुंड	-9.78348
▁मास	-9.78405
▁नर्स	-9.78462
▁ओप	-9.78552
▁धू	-9.78565
▁ामा	-9.78567
▁रभ	-9.78582
▁िरावट	-9.78677
▁िलास	-9.78716
▁र्च	-9.78752
▁रकार	-9.78785
3	-9.78815
▁ुत	-9.78898
▁रेस्	-9.78913
▁दैनिक	-9.79028
▁त्येक	-9.79028
▁लकाता	-9.79033
▁ुराने	-9.79062
▁ाका	-9.79073
▁ारण	-9.79077
▁स्टोर	-9.7908
▁टाइम	-9.79084
▁60	-9.79186
▁फेंक	-9.79205
▁थापना	-9.79249
▁ोद	-9.79255
▁ायर	-9.79263
▁आय	-9.79267
▁सर्च	-9.79272
ra	-9.79369
▁्तीफ	-9.79379
G	-9.7951
▁्रदीप	-9.79563
ुनि	-9.79581
▁फ्त	-9.79637
▁दाम	-9.79657
▁टे	-9.79713
▁क्ल	-9.79767
▁क्लास	-9.79927
▁रमेश	-9.79938
▁मुक्त	-9.80089
▁सलाह	-9.80105
▁लाई	-9.80192
▁शिकार	-9.80271
▁हमारा	-9.80272
▁लील	-9.80315
ला	-9.80342
▁मणि	-9.80506
▁सूच	-9.80531
दा	-9.8056
▁करियर	-9.8063
▁संभव	-9.80645
▁िंड	-9.80651
▁गाड़	-9.80666
▁क्कत	-9.80702
▁ठगी	-9.80742
▁साइ	-9.80754
▁कर्ष	-9.80828
▁35	-9.80831
▁्याप	-9.81074
▁वीकार	-9.81165
▁आस	-9.81272
▁साबित	-9.81337
▁वितरण	-9.81339
▁डॉलर	-9.81347
▁छठ	-9.81363
▁आं	-9.81414
▁इंच	-9.81419
▁ॉप	-9.81521
▁संदेश	-9.81539
▁ब्	-9.81566
O	-9.81571
रज	-9.81618
रस	-9.81618
▁भरा	-9.81666
▁उठाया	-9.81697
▁टायर	-9.81698
ूब	-9.81748
▁ंकी	-9.81749
▁रंजन	-9.81858
▁बीएस	-9.8187
▁बाबू	-9.81885
▁नकर	-9.81891
▁गोर	-9.81902
ियो	-9.81906
▁टिस	-9.81923
▁होनी	-9.81955
शे	-9.8203
▁ुटेज	-9.82091
▁यं	-9.82109
▁ॉर्म	-9.82155
▁घंट	-9.82187
▁ाइस	-9.82227
▁ट्रेट	-9.82266
▁ीह	-9.82296
▁मेलन	-9.82303
▁लिक	-9.82429
▁तालाब	-9.82434
▁स्ती	-9.82453
▁माने	-9.82459
▁दस	-9.82492
▁मूल्य	-9.82624
▁ायद	-9.82762
▁पुष्प	-9.82786
▁शै	-9.82789
▁ोधपुर	-9.82789
▁खाते	-9.82792
▁इन्	-9.82797
उथ	-9.82805
▁प्रद	-9.82831
▁नहर	-9.82836
▁मांगी	-9.82935
▁विशा	-9.82954
▁ion	-9.82967
▁क्लब	-9.8299
▁पूछ	-9.83
▁हिर	-9.83143
▁जाया	-9.83237
▁भल	-9.83268
▁एसटी	-9.83336
▁इसको	-9.83492
▁शिय	-9.83535
▁िग	-9.83538
मन	-9.83656
▁आजाद	-9.83733
्रॉ	-9.83844
▁बुला	-9.83868
▁राट	-9.83976
▁ॉक्	-9.84002
▁ष्ठा	-9.84216
▁देत	-9.84225
▁कैद	-9.84243
▁नने	-9.84305
▁ाप	-9.84344
▁मियों	-9.84403
▁ंघर्ष	-9.84439
▁ुगतान	-9.84439
▁्रमाण	-9.84448
▁यूनिट	-9.8448
▁काबू	-9.84567
▁ैं	-9.84574
9	-9.84622
▁शहीद	-9.84625
▁नक्सल	-9.84625
▁गठन	-9.84627
▁ग्रहण	-9.84636
▁िक्रम	-9.84781
▁ोटिंग	-9.84817
▁अर्थ	-9.84841
िंद	-9.84862
▁हाईवे	-9.84882
▁क्का	-9.84902
▁वाड़ा	-9.8493
▁ोहर	-9.84933
▁च्चा	-9.84952
▁नवर	-9.85001
▁जाएं	-9.85029
▁चाहता	-9.85098
▁ुद्दे	-9.85098
ॉय	-9.85153
▁िनो	-9.85253
▁ल्ल	-9.85279
▁विमान	-9.85319
▁हालात	-9.8539
▁सीबी	-9.85405
▁बैग	-9.85421
▁अपर	-9.85439
▁ौली	-9.85476
▁रद्द	-9.85558
▁कारा	-9.85576
▁नाना	-9.85586
▁CM	-9.85586
▁खि	-9.85587
▁मना	-9.85646
▁भो	-9.85663
▁अनुभव	-9.85933
▁शाना	-9.85934
▁भीतर	-9.8597
▁द्द	-9.86061
▁हरे	-9.86087
▁ीएच	-9.86123
▁ुरानी	-9.8615
▁दूरी	-9.86279
▁मस्	-9.86281
▁िकसित	-9.8631
▁नवीन	-9.86356
▁पैदा	-9.86359
▁नम	-9.86399
▁पब	-9.86433
▁सां	-9.86436
▁क्रि	-9.86528
▁दिग्ध	-9.86537
छ	-9.86595
ै	-9.86639
▁कोटा	-9.86862
▁दर्द	-9.86879
▁ाब	-9.86883
▁रग	-9.86895
आर	-9.86934
▁ार्थी	-9.87143
▁लभ	-9.87238
▁लेबाज	-9.87259
▁अच्छे	-9.8726
▁ंगर	-9.87276
▁लाना	-9.87316
▁ेता	-9.87383
▁िंदा	-9.87383
▁ट्ट	-9.87434
▁घाटन	-9.87613
k	-9.87633
▁्तरीय	-9.87642
▁एट	-9.8771
षण	-9.87836
▁फैंस	-9.87854
▁गोव	-9.87879
राण	-9.87893
▁सोना	-9.87928
▁लेना	-9.87934
▁पान	-9.88008
▁तृ	-9.8811
▁र्विस	-9.88217
▁्रेशन	-9.88217
▁्रांस	-9.88251
▁्रो	-9.88379
▁मर्थक	-9.88409
ष्ण	-9.88467
▁दर्जन	-9.88596
▁्लांट	-9.88602
िष्	-9.88656
▁भरोस	-9.88796
▁संगीत	-9.88796
▁ंव	-9.88957
▁तुर्	-9.88997
▁ऋष	-9.88997
▁सिन	-9.89002
▁खुशी	-9.89015
▁च्च	-9.89086
िंग	-9.89113
▁ामक	-9.89141
ोख	-9.89169
▁भक्त	-9.89187
▁ितना	-9.892
▁सराय	-9.89225
ोह	-9.8925
▁बुल	-9.89259
▁रांची	-9.89264
▁in	-9.89283
▁याज	-9.89366
▁यश	-9.89394
▁रेंज	-9.89413
▁जनक	-9.89413
▁र्जन	-9.89529
▁लाकार	-9.89584
▁दस्त	-9.89591
▁िप	-9.89593
▁जित	-9.89628
▁उपाय	-9.89672
▁ूंगा	-9.89752
यो	-9.89755
▁जाल	-9.89782
▁रोग	-9.89814
▁किंग	-9.89828
▁बंदी	-9.89832
▁वहन	-9.89861
▁ीका	-9.89861
▁यकाल	-9.89969
▁मनो	-9.9001
▁लाखों	-9.90042
▁ेलर	-9.90055
▁जुर्	-9.90113
▁सुंदर	-9.9016
▁सेल	-9.90171
▁ीटिंग	-9.90175
▁पवन	-9.90194
▁टिप	-9.90214
▁नंद	-9.90361
▁फाइल	-9.90416
▁सैनिक	-9.90591
▁विद	-9.90701
▁ाणी	-9.90708
जीव	-9.90733
▁ेडियम	-9.90751
▁छोट	-9.90912
▁हव	-9.90938
▁आंख	-9.90986
▁रेज	-9.91042
▁कामना	-9.91162
▁मंज	-9.91164
▁जरूर	-9.91264
▁ेंच	-9.91303
▁राधिक	-9.91367
च्छ	-9.914
b	-9.91402
ंज	-9.91424
▁िद	-9.9146
▁गरा	-9.91536
▁सूरज	-9.91575
▁पढ़ाई	-9.91578
▁ौत	-9.91612
▁ैमरे	-9.91649
▁ानक	-9.91682
▁ंपिक	-9.9171
तीज	-9.91726
▁इमे	-9.91828
▁उठा	-9.91829
▁स्वी	-9.91843
▁हफ	-9.91865
▁विन	-9.91876
▁रसा	-9.91932
▁सुरेश	-9.91981
▁आखिर	-9.91987
द्ध	-9.92103
▁मीर	-9.92105
▁मता	-9.92159
▁्यूट	-9.92273
▁रदार	-9.92295
▁ओम	-9.92314
▁फूल	-9.92326
▁सोरेन	-9.92343
▁किशन	-9.9235
▁ाण	-9.92381
▁गौ	-9.92454
▁कब्ज	-9.92524
▁मुह	-9.92525
▁सबक	-9.92527
▁आशंका	-9.92544
▁पंडित	-9.92544
▁श्मीर	-9.92544
▁गाज	-9.92645
▁गैस	-9.92689
▁एरिया	-9.92745
▁चीज	-9.92807
▁ोटर	-9.92829
▁न्यूज	-9.92879
▁चाहती	-9.92896
▁गोल्ड	-9.92968
▁ल्ट	-9.93016
▁आरपी	-9.93022
▁दिनेश	-9.93058
▁भि	-9.93079
ुण	-9.93117
▁लीट	-9.9312
▁बंधक	-9.93143
▁News	-9.93152
▁ड़ताल	-9.93155
▁ंह	-9.93169
िया	-9.93188
▁जयंत	-9.9319
▁बाई	-9.93208
▁्राइम	-9.93266
▁संव	-9.93343
▁रहीं	-9.93402
▁ंसर	-9.93428
▁नीता	-9.93481
ानदा	-9.93567
ास्त	-9.93661
▁भागों	-9.93685
▁वजनिक	-9.9377
▁ेले	-9.93775
▁ँ	-9.93804
▁मरा	-9.9381
▁ानि	-9.9385
श्व	-9.93874
▁मिलन	-9.93879
▁हॉ	-9.93895
▁बचाव	-9.93915
▁मंद	-9.93967
▁पदों	-9.93991
▁पाली	-9.94262
▁खिलेश	-9.944
क्षक	-9.94474
▁टिक	-9.9448
▁लेश	-9.9449
▁िक्री	-9.94499
▁त्मा	-9.94526
▁िन्हा	-9.94553
▁तिन	-9.94565
▁ंत्रण	-9.94587
▁पिट	-9.94706
▁जगहों	-9.94721
▁ल्टी	-9.94733
▁रोशन	-9.94746
▁वर्तन	-9.94773
▁गुल	-9.94783
▁बुक	-9.9479
▁ोव	-9.948
▁लुध	-9.94814
▁वादा	-9.94855
▁ालि	-9.9487
▁कारि	-9.94879
▁निशान	-9.94891
▁रेंड	-9.94954
ौजूद	-9.95042
▁स्टल	-9.95049
्त	-9.9512
ेलिय	-9.95161
▁गौतम	-9.95193
▁भूषण	-9.95206
▁समस्त	-9.95257
▁वेतन	-9.95266
▁आक्	-9.95269
▁न्ह	-9.95298
्रेन	-9.95365
▁खू	-9.95384
▁ंजन	-9.95394
▁जानिए	-9.95398
▁मानस	-9.95411
▁िताब	-9.95443
▁म्	-9.95501
ोध	-9.95573
▁ोफेसर	-9.95605
▁धरना	-9.95607
▁फसर	-9.9562
▁ंबित	-9.95646
▁ऐप	-9.95702
▁अनि	-9.95781
▁ाहक	-9.95803
▁दरवाज	-9.95813
▁चेताव	-9.95813
▁ृत्य	-9.95859
ct	-9.95865
्टेट	-9.9587
▁मच	-9.95915
▁टर्न	-9.95933
▁ाइयों	-9.96229
▁तम	-9.96241
▁रॉ	-9.96286
▁ावास	-9.96445
▁ाद्य	-9.96502
▁रपुर	-9.96604
▁ल्द	-9.96809
▁गीत	-9.96842
▁सका	-9.96889
▁ोसी	-9.96891
▁ातक	-9.96916
▁बद्ध	-9.96924
▁ंकट	-9.96983
▁रौ	-9.97017
▁ांश	-9.9711
▁आपका	-9.97121
▁िदेश	-9.97185
▁िशन	-9.97257
▁हराया	-9.97278
▁ांप	-9.97334
▁मति	-9.97471
▁काबल	-9.97474
▁्रेंस	-9.97512
▁मिन	-9.97546
▁ेक्ट	-9.97631
▁निया	-9.97638
▁ातें	-9.97718
▁गना	-9.97816
गद	-9.97909
▁ग्नि	-9.97998
▁कृ	-9.98048
▁मक	-9.98052
▁उम	-9.98073
▁पेंशन	-9.98124
▁चारों	-9.98231
ीएस	-9.98234
▁K	-9.98285
▁बीन	-9.98314
▁ाचार	-9.98374
ारी	-9.98469
▁ाक्ष	-9.98622
▁लें	-9.98693
▁नै	-9.98699
▁ैल	-9.98717
1	-9.98731
▁70	-9.98735
▁जात	-9.9874
▁्यपाल	-9.98764
▁ोगा	-9.9881
▁पांडे	-9.98862
▁दाय	-9.98871
▁ांगा	-9.98872
▁महत	-9.9893
▁ट्रैक	-9.98956
▁ट्रि	-9.98983
▁नाक	-9.98997
▁दुर्ग	-9.99087
▁्यक्त	-9.99193
▁!	-9.99208
▁ओल	-9.99275
▁्ज	-9.99326
▁द्व	-9.99603
▁ंगी	-9.99649
विंद	-9.99822
▁्टिव	-9.99839
िन	-9.99882
▁ैप	-9.99952
▁प्रव	-9.99963
▁सिंग	-10
▁ाँ	-10.0005
▁िकरण	-10.0006
▁फोर	-10.0019
▁सिया	-10.0029
▁फर्	-10.003
▁म्बर	-10.0033
ुष्	-10.0038
ंट्	-10.004
▁45	-10.0047
▁500	-10.0047
▁साब	-10.0059
▁फ्री	-10.0059
ियु	-10.0069
▁राधा	-10.0077
▁ेटर	-10.0086
▁80	-10.009
▁रंट	-10.0095
▁ाख	-10.0097
▁हिल	-10.0106
▁हब	-10.0107
▁ूम	-10.0113
▁करार	-10.0116
%	-10.0136
▁ेकर	-10.0136
▁र्षा	-10.0146
चल	-10.0148
▁मंग	-10.0152
▁जस्	-10.0154
▁यु	-10.0156
▁फर	-10.0157
▁मला	-10.0158
▁ेरे	-10.0165
U	-10.0166
▁छि	-10.0169
▁ीएसपी	-10.0181
▁ियत	-10.0187
▁लड	-10.0192
▁रीद	-10.0194
▁अभ	-10.0196
ुख	-10.0199
▁PM	-10.02
▁J	-10.0202
▁ुओं	-10.0202
▁एगा	-10.0203
▁त्सव	-10.0205
▁ेब	-10.0214
▁सीम	-10.0228
E	-10.0237
▁टाचार	-10.0247
▁लिंग	-10.0258
▁ग्री	-10.0265
▁्च	-10.0269
▁ंपि	-10.028
▁हों	-10.0287
▁अफसर	-10.0291
▁लाप	-10.0293
▁ट्रिक	-10.0313
▁ंग्	-10.0324
▁कच	-10.0327
▁फीस	-10.0359
▁ालक	-10.0361
▁ठि	-10.0383
▁डब	-10.0385
▁ईओ	-10.0385
जन	-10.0394
▁कने	-10.0408
▁ट्टा	-10.0421
▁वंश	-10.0426
▁िपल	-10.043
▁टेल	-10.0434
▁्यो	-10.0434
▁नय	-10.0435
▁अख	-10.0437
▁हली	-10.0439
▁ायन	-10.0439
▁ीओ	-10.0451
▁बूत	-10.0453
▁वृ	-10.0462
▁मंड	-10.0463
▁उन्	-10.0468
▁गीर	-10.0476
▁रेश	-10.0492
▁भ्रष्	-10.0494
▁राद	-10.0494
▁प्	-10.0498
▁बादी	-10.0498
▁दिव	-10.0499
▁जलि	-10.0505
▁बर	-10.0509
▁एमसी	-10.0517
▁ुन	-10.0527
▁ंवर	-10.0534
▁ंपर	-10.0538
▁पेय	-10.054
▁ठग	-10.0544
▁अल्	-10.0553
▁म्स	-10.0553
▁फत	-10.056
▁मात्र	-10.0563
▁िरदार	-10.0569
▁्रिं	-10.0571
न्द	-10.0576
▁अप	-10.0577
▁जारों	-10.059
▁पक्षी	-10.0595
▁लेन	-10.0597
▁स्वत	-10.0609
▁ाइव	-10.0615
▁सोन	-10.0615
▁तृत	-10.0623
▁टल	-10.0631
▁एगी	-10.0655
▁िराज	-10.0657
▁ध्या	-10.0664
▁sh	-10.0674
▁ानूनी	-10.0683
▁रोन	-10.0684
▁ंडि	-10.0699
▁ंका	-10.0701
▁ाथ	-10.0703
▁नीय	-10.0703
▁ख्त	-10.0711
▁िल्ल	-10.0714
▁ोहरा	-10.0723
▁वाय	-10.0732
ेव	-10.0734
▁हान	-10.0739
िवार	-10.0752
▁ड्डा	-10.076
▁ष्	-10.0762
▁मजबू	-10.0782
▁साव	-10.0786
▁ोजन	-10.0788
▁हाड़	-10.0797
▁जुल	-10.0805
▁हक	-10.0805
▁ौज	-10.0807
▁र्ध	-10.0817
▁ोहार	-10.0818
▁ष्टि	-10.0829
▁ताक	-10.0833
▁ीदार	-10.0835
▁तिर	-10.0836
▁कत	-10.0842
▁ईं	-10.0846
▁बेल	-10.0859
▁ात्र	-10.0863
▁जनस	-10.0863
▁स्त्र	-10.0865
▁भारती	-10.0866
▁एसी	-10.087
▁बच्च	-10.0873
▁र्त	-10.0876
बा	-10.089
▁तीज	-10.0903
ुश	-10.0907
▁ावन	-10.0908
▁हर्ष	-10.0912
▁क्शन	-10.0912
▁फुट	-10.0913
▁सिक	-10.0916
▁रूट	-10.0934
▁ड़कों	-10.0934
▁णव	-10.0935
▁ओड	-10.0942
▁णाल	-10.0944
▁ोय	-10.0963
▁ाट	-10.0972
▁धी	-10.098
▁ोख	-10.099
▁ास्टर	-10.0994
लट	-10.1011
▁क्षों	-10.1014
▁रंज	-10.1016
▁णा	-10.1024
▁्सक	-10.1026
▁अंद	-10.1029
▁ीयू	-10.103
▁्ते	-10.1047
▁ेफ	-10.1051
▁दिग्	-10.1055
▁बोर	-10.1062
▁समा	-10.1087
▁भूप	-10.1088
ाओं	-10.1111
▁जला	-10.1119
लों	-10.112
▁ाइ	-10.1121
▁चाहे	-10.1125
▁रेस्ट	-10.113
▁V	-10.1131
▁न्या	-10.1132
B	-10.1139
▁िश्न	-10.1143
▁नॉ	-10.1149
▁पिछल	-10.1151
▁लीक	-10.1199
▁कां	-10.1201
▁ायात	-10.1206
▁िशा	-10.1207
▁थित	-10.1208
▁दिखा	-10.1213
▁पड़ता	-10.1213
▁ाइक	-10.1238
▁ापा	-10.1248
▁बनान	-10.125
▁पिछ	-10.1254
4	-10.1272
▁्डिंग	-10.1276
▁बरा	-10.1279
▁वेदन	-10.1281
▁ुबे	-10.1281
▁बढ़त	-10.1283
▁पत	-10.1287
▁िक्र	-10.1289
▁पात	-10.129
▁बताए	-10.1291
▁ेहरा	-10.1293
▁सीन	-10.13
▁W	-10.1306
▁िथ	-10.1329
▁बाजी	-10.133
▁ोषण	-10.1335
▁प्रे	-10.1344
▁पीड	-10.1347
▁ंडल	-10.1349
▁ताज	-10.1352
▁सान	-10.1363
▁रंगा	-10.1372
▁्न	-10.1373
▁चेह	-10.1374
▁हिस	-10.1376
▁माफ	-10.1379
▁ाधीश	-10.1398
▁वाज	-10.1404
▁i	-10.1442
'	-10.1459
▁ठित	-10.1462
▁निंग	-10.1487
▁नु	-10.1489
▁चिन	-10.1493
▁ेमा	-10.1498
▁शेष	-10.1499
▁मारा	-10.1501
▁सिख	-10.1505
▁ेडल	-10.1508
▁ोल्ड	-10.1514
▁राब	-10.1514
▁गय	-10.1517
▁्रेक	-10.1522
▁कृत	-10.1523
▁्रस्त	-10.1532
▁र्ब	-10.1536
▁ुप	-10.1541
▁्वय	-10.1554
▁व्या	-10.1556
▁वाही	-10.1558
▁a	-10.1564
▁दवा	-10.1577
▁रोश	-10.1592
▁ेखा	-10.1595
ॅ	-10.16
▁ेक्शन	-10.16
▁जस	-10.1602
▁नात	-10.1625
▁लाक	-10.1646
▁आह	-10.1647
▁राश	-10.1658
▁फिल	-10.1662
▁सीपी	-10.1667
▁बीज	-10.1687
▁खुले	-10.169
▁चीफ	-10.1704
▁श्म	-10.1717
▁ोशी	-10.1724
▁ीएल	-10.1729
▁ंसल	-10.1732
▁ra	-10.1733
▁फान	-10.1746
50	-10.1762
▁क्ता	-10.1772
▁तन	-10.1777
▁ोश	-10.1788
ल्क	-10.1795
▁बिल्	-10.1796
▁ध्य	-10.18
▁सित	-10.1803
▁शक	-10.1807
ri	-10.182
▁जिश	-10.1838
▁जरी	-10.1838
▁वासि	-10.184
▁ौती	-10.1853
▁लोन	-10.1857
▁्रल	-10.1857
▁रफ	-10.1862
▁वल	-10.1877
▁ऊर	-10.1881
▁ावी	-10.1882
▁ुट	-10.189
▁गला	-10.189
▁ेवल	-10.1894
▁नाने	-10.1894
▁ावे	-10.1901
▁32	-10.1902
▁त्	-10.1914
▁दायर	-10.1925
▁िक्स	-10.193
▁ह्म	-10.193
▁ुरु	-10.1946
▁हिता	-10.1947
▁ची	-10.195
▁निध	-10.196
▁बम	-10.1966
▁स्कू	-10.1969
▁्रति	-10.1988
▁ाउंट	-10.1988
▁पन	-10.199
▁ाओ	-10.1993
▁सीव	-10.2006
▁मारे	-10.2006
▁धम	-10.2009
ya	-10.2014
▁आर्	-10.2021
▁विर	-10.2024
▁कैप	-10.2026
▁कॉ	-10.2027
▁प्रश	-10.2028
ंख्य	-10.2032
▁ेन्	-10.2039
ar	-10.2049
N	-10.2053
▁िक्ष	-10.2059
▁दिक	-10.2066
▁90	-10.2067
▁रोध	-10.2071
▁सिप	-10.2074
▁ंजी	-10.2084
▁ंबा	-10.2086
▁नशा	-10.2096
▁गर्म	-10.2106
▁दौरा	-10.2109
ट्	-10.211
▁्रॉ	-10.2118
▁ीचर	-10.2128
▁ोरिय	-10.2137
▁e	-10.2138
▁U	-10.214
▁सको	-10.2143
▁अल	-10.2145
▁ूवी	-10.2148
▁राध	-10.2176
▁ीवर	-10.2178
▁भोज	-10.2186
▁ौड़	-10.2186
da	-10.2203
▁सिस	-10.2206
▁्रै	-10.2206
▁क्कर	-10.2214
▁रखें	-10.2219
▁ल्ला	-10.2225
▁ारस	-10.2233
▁क्षी	-10.2241
▁वासी	-10.2247
▁गू	-10.2252
▁ेसर	-10.2255
ंप	-10.226
▁असम	-10.2267
▁्त	-10.2268
▁हिमा	-10.2277
▁जै	-10.228
▁सॉ	-10.228
▁ीति	-10.2283
▁ालव	-10.2284
▁तीक	-10.2285
▁तीय	-10.2289
लो	-10.2298
▁नस	-10.2305
▁ताया	-10.2311
▁टिया	-10.2322
▁काय	-10.2323
▁ैट	-10.2327
▁सुरे	-10.2336
▁चाह	-10.2352
▁गान	-10.2373
▁ंझ	-10.2375
BI	-10.2382
▁लेंगे	-10.2393
▁ीवाल	-10.2394
▁ादर	-10.2425
▁गले	-10.2447
▁त्रता	-10.2451
▁ीयत	-10.2474
▁गुना	-10.2475
▁्योति	-10.2475
▁ह्	-10.2476
▁्वा	-10.248
▁ेंज	-10.2485
▁बदला	-10.2486
L	-10.2502
▁्षेत्	-10.2503
ॉ	-10.2504
▁सेट	-10.2518
▁ौल	-10.2524
▁k	-10.2534
▁परिस	-10.2538
▁स्तक	-10.2548
▁ंडी	-10.2551
▁िद्या	-10.2559
▁क्क	-10.2561
▁नह	-10.2563
▁फाइन	-10.2573
▁गीता	-10.2582
▁400	-10.2586
▁टु	-10.2593
▁ंतर	-10.2604
▁राख	-10.2605
▁ृत	-10.2607
▁तीश	-10.2616
▁वाए	-10.262
▁शॉ	-10.2624
▁मोद	-10.2635
▁रार	-10.2647
▁णे	-10.2651
▁रस्ट	-10.2656
▁ेसी	-10.2666
▁ायी	-10.2668
▁ीके	-10.2675
▁लेव	-10.2675
▁स्न	-10.2676
▁ूरत	-10.2681
▁आईप	-10.2681
▁ीफ	-10.2686
▁सज	-10.2699
▁कअप	-10.27
ार्ट	-10.2704
▁मानी	-10.2704
▁डम	-10.2714
▁ताला	-10.2721
दार	-10.2722
ट्रो	-10.2725
▁ॐ	-10.2729
▁बग	-10.2739
▁न्द	-10.2753
▁धमक	-10.2756
▁टिफ	-10.2759
▁जेंसी	-10.2763
▁नही	-10.2764
▁ोग	-10.2764
▁रिक	-10.2765
▁आपस	-10.277
▁खात	-10.278
▁ीद	-10.2787
▁र्ल	-10.2788
▁गाने	-10.2788
▁ादा	-10.2793
▁कराए	-10.2795
▁्याय	-10.2809
▁वंत	-10.2811
▁लप	-10.2816
▁48	-10.2822
वार	-10.2847
▁ंदी	-10.2869
▁इव	-10.2877
▁डन	-10.2881
▁रीब	-10.289
▁जज	-10.2892
re	-10.2895
▁बान	-10.2896
▁मय	-10.2897
ro	-10.2902
▁ॉर्ड	-10.2902
▁प्री	-10.2922
▁ृत्	-10.2922
▁सेन	-10.2934
▁रोप	-10.2939
▁एव	-10.294
▁रिक्	-10.2951
शी	-10.2954
▁300	-10.2955
▁िड़	-10.296
▁्राफ	-10.297
▁पैद	-10.2973
▁्ब	-10.2974
▁33	-10.2975
▁जाग	-10.2976
▁ोले	-10.2978
▁गिरा	-10.2983
जम	-10.299
er	-10.2999
▁धूप	-10.3006
▁रीर	-10.3022
▁हद	-10.3029
▁सफ	-10.3047
▁बड़	-10.3047
▁मनी	-10.3055
▁राए	-10.3062
▁ुख	-10.3067
▁कॉर्	-10.3067
▁दाद	-10.3077
▁छू	-10.3088
▁्त्र	-10.309
▁r	-10.309
▁अग्र	-10.3097
▁ृष्टि	-10.3105
▁हज	-10.3115
ये	-10.3117
▁िमी	-10.312
▁राजन	-10.3121
▁ंता	-10.313
▁तप	-10.3139
▁कांड	-10.3149
▁36	-10.3153
▁ृति	-10.3182
▁तस्	-10.3194
▁डकर	-10.32
▁ढ़ी	-10.3205
▁कंप	-10.3212
▁र्तन	-10.3221
▁िंद्र	-10.3224
▁ालं	-10.3231
▁लु	-10.3233
▁पह	-10.3234
▁ावट	-10.324
▁टीवी	-10.3254
▁धा	-10.3265
▁नाश	-10.3266
्फ	-10.3284
▁झी	-10.3286
▁महीन	-10.3291
▁तना	-10.3299
▁सदन	-10.3307
▁लेत	-10.3307
▁भरी	-10.3311
▁c	-10.3316
▁्यूज	-10.3317
▁स्थि	-10.3322
▁सकी	-10.3335
▁निर्द	-10.3337
▁ूक	-10.3342
▁सेज	-10.3342
▁लौ	-10.3349
▁तिया	-10.335
▁त्री	-10.335
▁जेपी	-10.335
▁अभिय	-10.3355
ho	-10.336
शि	-10.336
▁ींद	-10.3363
▁FIR	-10.3375
▁ोच	-10.3385
▁ुक्त	-10.3398
▁ेबल	-10.3406
▁ंडे	-10.3415
▁सद	-10.3415
▁दूध	-10.3415
▁ताल	-10.3416
V	-10.3421
▁्डी	-10.3424
▁{	-10.3435
▁ाड	-10.3443
▁ूर्त	-10.3455
▁शाल	-10.3468
▁ीरो	-10.3469
▁िमा	-10.3482
▁ध्	-10.3487
▁वस्थ	-10.3494
▁॥	-10.3498
▁ाजा	-10.3498
▁स्सा	-10.3498
▁िट्	-10.3498
ष्ट	-10.3516
▁मर	-10.3519
▁ीच	-10.3533
▁्थ	-10.3533
▁सोम	-10.3537
▁गम	-10.3541
▁िसर	-10.3549
hi	-10.3556
▁चम	-10.3557
▁आना	-10.3566
▁ीजा	-10.3567
▁जनी	-10.3574
▁होंग	-10.358
▁ैक्स	-10.3592
▁सच	-10.3599
▁चने	-10.3618
▁ुल्	-10.362
▁दुर	-10.3633
▁डीपी	-10.3641
▁ोष	-10.3652
▁रवा	-10.3656
▁रहें	-10.3663
▁ात्रा	-10.3666
▁कोट	-10.3677
▁डु	-10.3687
▁रिश्	-10.3688
▁O	-10.3694
▁मप्र	-10.3702
▁हू	-10.371
▁नन	-10.3715
▁भगव	-10.3717
▁मांगे	-10.3724
ाद	-10.3729
▁ाश	-10.3731
िटी	-10.3734
ेंद	-10.3747
▁जह	-10.3753
▁मांड	-10.3769
▁रियर	-10.3774
▁ोड़ा	-10.3774
▁औसत	-10.3777
F	-10.378
▁नान	-10.3781
▁याब	-10.3822
▁ोता	-10.3822
ढ़	-10.3827
▁छूट	-10.386
▁er	-10.3865
▁खाद	-10.3866
▁यम	-10.3874
▁झु	-10.3876
▁ताब	-10.388
▁माध	-10.3892
▁हड़	-10.3902
▁रक्	-10.3902
▁्रबंध	-10.3904
▁उर्	-10.3907
▁शर	-10.391
▁विस	-10.3936
▁ेच	-10.3942
▁श्य	-10.3942
▁ईस	-10.3947
▁75	-10.3954
▁ुड़	-10.3963
▁माव	-10.397
▁ग्न	-10.3982
एन	-10.3982
▁कंड	-10.3985
▁ॉली	-10.3986
▁लक्ष	-10.3986
▁रियल	-10.3987
▁भय	-10.399
▁ेक	-10.4006
▁दारों	-10.4006
▁ब्यू	-10.4009
▁ौन	-10.4017
▁ीब	-10.4019
▁v	-10.4029
▁ाटी	-10.4033
▁ांति	-10.4034
▁ाड़ा	-10.4043
▁लाय	-10.4051
▁वण	-10.4052
▁ेरो	-10.4053
▁रील	-10.4055
▁फ्र	-10.4057
लॉ	-10.4059
▁ऋ	-10.4063
▁विक्	-10.4094
▁मिश्र	-10.4098
▁ंदिर	-10.4098
▁साधन	-10.4099
▁फेस	-10.41
▁हमल	-10.4106
▁t	-10.4111
▁ंकर	-10.4119
▁ांद	-10.4125
की	-10.4126
▁nt	-10.4127
▁हन	-10.4127
▁टवा	-10.4145
▁मुझ	-10.416
▁िमांड	-10.4164
▁ाफा	-10.4167
पा	-10.4167
▁घे	-10.4173
▁कद	-10.4177
टक	-10.4183
▁घन	-10.4183
▁स्टर	-10.4186
▁g	-10.4186
▁पदक	-10.4191
▁ॉन	-10.4195
▁सीए	-10.421
▁ूषण	-10.4211
▁थल	-10.4219
र्मि	-10.4223
▁पौ	-10.4227
्थ	-10.423
▁वीरें	-10.4238
▁ंख	-10.4242
▁प्त	-10.4242
▁क्षम	-10.425
ीसी	-10.4265
▁एसडी	-10.4279
▁द्	-10.4289
▁टियों	-10.429
▁ोला	-10.4292
▁सुनी	-10.4317
▁रतन	-10.432
DA	-10.4323
▁टेबल	-10.4329
▁बेह	-10.4335
▁जिम	-10.4349
▁ाचा	-10.4357
्योत	-10.4358
▁आधा	-10.4364
▁िश्ते	-10.4369
▁ात्रि	-10.4381
ौन	-10.4385
▁पंज	-10.4393
▁िलाई	-10.441
▁सली	-10.4419
▁गाड	-10.4435
▁तिश	-10.4438
▁बहस	-10.4439
▁डिप	-10.444
▁यूरो	-10.4464
ीय	-10.4466
▁ंटी	-10.449
0%	-10.4494
▁ैसल	-10.4497
▁ेतन	-10.4501
ओ	-10.4506
रिय	-10.4514
▁रिल	-10.4515
▁ॉर्ट	-10.4527
▁ोरो	-10.4538
▁रास	-10.454
▁लाब	-10.4581
ta	-10.4581
▁खत	-10.4583
▁चांद	-10.4584
कों	-10.4587
▁ूख	-10.4588
▁लक	-10.4589
▁्जी	-10.4591
▁na	-10.4606
▁रवी	-10.4614
▁मुद्र	-10.4616
▁ीक	-10.462
▁चाल	-10.463
▁्मत	-10.4633
▁खनन	-10.4636
▁शान	-10.4644
▁विश	-10.4647
W	-10.4655
▁ीएस	-10.4657
▁पीछ	-10.4658
▁रेग	-10.4659
▁फॉ	-10.4659
▁Ma	-10.4666
▁ेजी	-10.4671
▁धारण	-10.4672
▁जीव	-10.4674
▁्लू	-10.4677
▁शोर	-10.4697
▁ार्त	-10.4707
▁मात	-10.4717
▁रिंग	-10.4727
▁विध	-10.473
▁रकम	-10.473
▁ंटन	-10.4731
▁चर्च	-10.4739
▁मिक	-10.4752
▁34	-10.4752
▁रेन	-10.4754
▁150	-10.4775
▁X	-10.478
▁रक	-10.4785
▁वित्	-10.4793
▁टव	-10.4819
▁ीबी	-10.4826
▁पने	-10.4829
▁सील	-10.483
▁अध्य	-10.4832
ma	-10.4834
▁हिस्	-10.4839
▁सव	-10.4846
▁उल	-10.4851
▁भव	-10.4871
▁जेड	-10.4876
▁टिव	-10.4886
na	-10.4892
▁ड्र	-10.4893
▁सरा	-10.49
▁लियन	-10.4906
▁करो	-10.4912
▁रेशन	-10.4912
▁ाफी	-10.4915
▁डू	-10.4922
▁ुक्ति	-10.4929
▁ैम	-10.4945
▁ऑफर	-10.4948
▁नामा	-10.4952
जों	-10.4976
▁रिस	-10.498
▁ेंशन	-10.4985
ाच	-10.4987
▁ानु	-10.4995
▁ाधिक	-10.4999
▁र्टी	-10.5002
▁ीजे	-10.5004
▁हनों	-10.5006
▁विम	-10.5012
▁ोड	-10.5014
▁इंग	-10.5017
▁्राइ	-10.5022
▁िना	-10.5023
▁ैग	-10.5051
▁ईव	-10.5064
▁ीटी	-10.5066
▁फॉर	-10.5092
▁चेन	-10.5095
▁दशक	-10.5098
▁गुन	-10.5117
▁रीफ	-10.512
▁कूट	-10.5133
▁िस्	-10.5145
▁रस्त	-10.5164
z	-10.5164
▁िलक	-10.5172
▁बीत	-10.518
▁िच	-10.5187
▁दन	-10.519
▁खेड	-10.5201
▁आब	-10.5211
H	-10.5222
▁बाध	-10.5229
▁ब्ज	-10.524
nd	-10.5242
▁्टर	-10.5249
▁्फ	-10.5257
▁ंगे	-10.5264
▁ठा	-10.5272
▁ूप	-10.5273
णा	-10.5273
▁ne	-10.5279
▁िस्त	-10.5286
▁राल	-10.5293
▁्वान	-10.5303
▁डल	-10.5303
▁िन्	-10.5305
▁डक	-10.5309
▁अद	-10.531
▁्रम	-10.5311
▁शिक	-10.5311
▁बीमा	-10.5314
▁सत	-10.5325
▁ष्ण	-10.5339
▁िकाय	-10.535
▁वाना	-10.5351
▁्भ	-10.5352
▁ैना	-10.5395
▁रीवा	-10.5396
▁ूज	-10.5405
▁37	-10.5408
▁ामि	-10.541
▁लख	-10.5412
▁बाला	-10.5418
▁सला	-10.5426
▁भोग	-10.5434
▁ेंसी	-10.5437
▁ऑन	-10.5441
▁मण	-10.5447
▁ग्रे	-10.548
▁कली	-10.5501
▁च्छा	-10.5502
▁ारो	-10.5503
▁थ्	-10.5508
▁महि	-10.5511
▁ूंग	-10.5523
▁55	-10.5525
▁जंग	-10.5525
▁नसभा	-10.5534
j	-10.5535
▁इलाक	-10.5548
▁टर्	-10.557
▁जं	-10.5578
▁ेबाजी	-10.5579
▁रांच	-10.5594
▁अखिल	-10.5611
▁MP	-10.5612
▁ात्म	-10.5631
▁Re	-10.5655
▁सल	-10.5669
▁फा	-10.5674
▁रीदा	-10.5675
▁वीरे	-10.5684
▁ाएगी	-10.5686
▁ड़त	-10.5693
▁लत	-10.5698
▁लॉक	-10.5708
▁चं	-10.5719
▁िन्ह	-10.572
हित	-10.5732
▁कक्ष	-10.5736
▁महान	-10.5747
▁लेब	-10.5749
ाफ	-10.5752
▁ॉर्	-10.5768
▁लल	-10.5768
li	-10.5791
▁खार	-10.5794
▁ंजर	-10.5839
▁क्षित	-10.5841
▁nd	-10.5844
▁अर	-10.5845
▁ार्ज	-10.5856
▁मित्	-10.5859
▁डिट	-10.5862
▁नाया	-10.5863
▁ुर्	-10.5877
▁्मण	-10.5882
▁पैस	-10.5888
▁िष	-10.5915
▁निशा	-10.5951
▁मचा	-10.5987
▁जद	-10.5988
▁करे	-10.5989
K	-10.6002
▁िल्	-10.6007
▁चाय	-10.6012
ाख	-10.6019
▁श्	-10.6024
▁वार्	-10.6027
▁रता	-10.6027
▁काला	-10.6035
▁मुकदम	-10.6036
▁पना	-10.6038
and	-10.6057
▁चाया	-10.6071
▁फूड	-10.6078
▁UP	-10.6085
▁रुप	-10.6085
▁ायम	-10.6096
▁विभ	-10.6103
्टेब	-10.6104
ेख	-10.6108
▁ाड़िय	-10.6132
▁पदा	-10.6146
▁्रिय	-10.6151
▁मीन	-10.6151
▁ंद्रा	-10.6153
▁स्या	-10.6158
▁लॉन्	-10.6159
िष्ठ	-10.6163
▁आशा	-10.6163
▁धां	-10.617
▁्यादा	-10.6174
▁Ka	-10.6175
▁नना	-10.6176
▁ुश	-10.6185
▁Ra	-10.6192
▁ोंक	-10.6197
▁जिस्	-10.6198
▁क्ट	-10.6206
▁ूब	-10.6219
▁चक	-10.6223
▁पसी	-10.6242
ad	-10.6243
▁्रेन	-10.6245
▁स्वा	-10.6251
▁ोध	-10.6252
▁्रीम	-10.6279
▁टैक	-10.6279
▁ोड़ी	-10.6286
▁पमान	-10.6288
▁मज	-10.6295
▁तरीक	-10.6335
▁निव	-10.6338
ni	-10.6347
▁्याव	-10.6367
▁ेहा	-10.6386
▁हूर	-10.6403
▁कुम	-10.6421
▁ाबर	-10.6436
▁ावित	-10.644
▁ैय	-10.6455
▁AI	-10.6456
▁राजे	-10.6466
▁ोते	-10.6472
▁बिक	-10.6476
▁उदय	-10.6482
▁नेशन	-10.6504
िस्ट	-10.6506
▁42	-10.6514
इए	-10.6519
▁ंचाई	-10.6527
▁गंग	-10.6527
▁ात्	-10.6528
▁मोड	-10.6539
▁38	-10.6546
▁जनों	-10.6571
▁ोरा	-10.6582
▁ीस	-10.6583
लिया	-10.6589
▁ढा	-10.659
▁हॉल	-10.6611
▁सीओ	-10.6614
▁सर्क	-10.6617
ok	-10.6618
▁ुह	-10.6634
▁घा	-10.6647
▁ीड़	-10.6658
▁संस्थ	-10.6667
▁टने	-10.6671
▁ुनिय	-10.6682
▁रद	-10.6688
▁किन	-10.6689
▁बारी	-10.6694
▁फंड	-10.6704
▁रास्	-10.6715
▁मस	-10.6718
▁ुति	-10.6723
▁र्मी	-10.6729
▁ाएगा	-10.6733
▁तपुर	-10.6738
▁छु	-10.6741
▁स्तु	-10.6746
▁्ले	-10.6749
▁ीव	-10.6771
▁ोनी	-10.6794
▁ाच	-10.6798
▁ैच	-10.6801
▁ुड	-10.6819
▁रस्	-10.682
▁स्टे	-10.6834
▁Ele	-10.6862
▁िनेश	-10.6873
▁कैश	-10.6876
▁ोकस	-10.6893
▁िवि	-10.6903
कार	-10.6904
▁Vi	-10.6919
▁टि	-10.692
▁ुद्द	-10.6934
▁ोत्	-10.6938
▁गद	-10.695
▁b	-10.6954
▁बेड	-10.6956
▁ेख	-10.6957
▁जेडी	-10.6972
▁निज	-10.6993
▁्वर	-10.6998
▁नारे	-10.7023
▁राण	-10.7024
20	-10.7029
▁िसक	-10.704
▁ूर	-10.704
▁द्रा	-10.7042
▁पीए	-10.7043
▁लेज	-10.7044
▁होश	-10.7044
▁ैंस	-10.7068
▁ापत	-10.7072
श्च	-10.7091
▁बीए	-10.7095
▁ुनि	-10.7095
▁अदा	-10.7104
▁ोकर	-10.7114
▁पेड़	-10.7125
▁ED	-10.7125
▁यंत	-10.7141
▁्रोत	-10.7152
▁शक्त	-10.7156
▁म्मत	-10.7167
▁₹	-10.7167
▁्रमण	-10.7168
▁लच	-10.7179
▁65	-10.7179
▁हनी	-10.7196
▁te	-10.7207
्रो	-10.7209
▁टिंग	-10.7209
▁खल	-10.7232
मि	-10.7238
▁तौ	-10.7241
▁लस	-10.7242
▁्रांत	-10.7263
▁ट्ठ	-10.727
▁ियल	-10.7271
v	-10.7283
▁यप	-10.7284
़	-10.7289
▁रिट	-10.7296
▁ापक	-10.7296
▁बद	-10.7302
▁वस्था	-10.7306
f	-10.7332
▁मरी	-10.7337
▁षा	-10.7348
▁छी	-10.7357
▁पीड़	-10.7358
▁ड़िय	-10.7368
▁लय	-10.7369
▁्द	-10.7372
▁काले	-10.7378
▁ऑल	-10.7385
ुर्	-10.7414
धी	-10.7421
▁मः	-10.7464
la	-10.7474
रद	-10.7489
▁तिल	-10.7491
▁अटल	-10.7492
▁िको	-10.7496
▁st	-10.7501
्घ	-10.7505
▁ॉस	-10.7528
▁आचार	-10.7528
▁ेडी	-10.7533
ढ	-10.7536
▁ीसी	-10.7573
▁्तान	-10.7573
▁IPL	-10.7574
▁थम	-10.7584
▁युव	-10.7587
▁पेम	-10.7596
▁फू	-10.7638
▁पंत	-10.7638
▁मोट	-10.7648
▁re	-10.7648
▁लीज	-10.7658
▁हाय	-10.766
Y	-10.7667
▁टें	-10.7669
▁आलम	-10.7675
70	-10.7675
▁रामा	-10.768
▁ैक्ट	-10.768
▁राक	-10.7681
▁रेंस	-10.7683
▁ंधा	-10.7699
▁वाग	-10.7705
ce	-10.7708
▁कृष्	-10.7717
▁ॉड	-10.772
▁थि	-10.773
▁वजन	-10.7732
▁्टी	-10.7734
ार्क	-10.7739
▁AAP	-10.7761
▁यक	-10.7763
▁टूर	-10.7764
▁ारात	-10.7771
को	-10.7789
▁आधे	-10.781
▁ारिया	-10.7817
▁नक्	-10.7831
▁me	-10.7865
▁ढ़े	-10.7881
▁तें	-10.7888
▁तला	-10.7894
▁शतक	-10.7896
▁देन	-10.7896
▁मोर	-10.7896
▁ंपा	-10.7901
le	-10.7903
▁रूर	-10.7916
▁जानत	-10.792
▁फेल	-10.7956
▁द्दे	-10.796
▁ैली	-10.7986
12	-10.7987
▁ईय	-10.7991
▁मुख्	-10.7991
▁चौर	-10.7995
▁लता	-10.8008
▁बहू	-10.8011
▁सत्	-10.8021
▁ीती	-10.803
il	-10.8034
▁लह	-10.8045
▁ड्यू	-10.8057
am	-10.8071
▁ाके	-10.8072
▁बाघ	-10.8101
▁ैले	-10.8101
x	-10.8102
▁िजन	-10.8114
▁ंपत	-10.8119
▁गुण	-10.8122
▁44	-10.8125
▁ti	-10.8144
ve	-10.8155
▁रुपय	-10.8172
▁कड़े	-10.8177
10	-10.8178
▁al	-10.8185
▁लाव	-10.8187
▁चेत	-10.8196
▁ुं	-10.8206
▁ठो	-10.8232
▁फु	-10.8233
▁लब	-10.8239
▁्टेबल	-10.8243
▁ठाक	-10.8252
▁ोहित	-10.8253
▁Go	-10.8267
▁उमस	-10.8268
▁ाधा	-10.827
▁ोस्ट	-10.8272
▁हां	-10.8277
▁46	-10.8286
▁रती	-10.8295
▁दक	-10.8304
it	-10.8305
▁डिया	-10.8306
▁लवा	-10.8309
▁नवा	-10.831
▁ास्क	-10.831
▁ारत	-10.8314
▁प्रस	-10.8319
▁बिश	-10.8322
▁नारा	-10.8333
▁बीस	-10.8339
▁सौर	-10.8344
ौ	-10.8345
▁ालयों	-10.836
▁शह	-10.836
▁फोट	-10.8405
▁्पी	-10.8415
▁ैमर	-10.8417
▁्लिक	-10.8418
▁ठान	-10.8423
▁शरण	-10.8444
▁39	-10.8454
▁ुज	-10.8461
▁थक	-10.8476
▁निष	-10.8486
▁यंक	-10.8487
SI	-10.8494
▁शनि	-10.8501
▁ंजू	-10.8502
▁हथ	-10.8507
▁डिस	-10.8511
▁ादि	-10.8512
▁ूरा	-10.8523
▁जेश	-10.853
▁िप्	-10.8537
▁De	-10.8542
▁भगत	-10.8545
पर	-10.8554
▁ियार	-10.8555
▁सरो	-10.8557
▁ेस्	-10.8589
▁्रतिभ	-10.8596
▁लुक	-10.8619
▁नागर	-10.8621
▁गुज	-10.8648
▁ंचन	-10.865
th	-10.8664
▁लोगो	-10.8674
▁बेट	-10.8683
▁बैर	-10.8699
▁जहर	-10.8704
in	-10.8729
▁or	-10.8731
▁ोल्	-10.8766
▁ुना	-10.8777
▁रकर	-10.8787
▁ेहर	-10.8801
sh	-10.8809
SO	-10.8813
▁ढे	-10.8817
▁f	-10.8818
▁लाए	-10.8821
▁सुधा	-10.8821
▁ानिय	-10.8857
▁ामु	-10.8888
▁यक्ष	-10.8893
सुर	-10.8893
▁ुटे	-10.8895
▁चय	-10.8895
▁लां	-10.8896
▁56	-10.8899
▁िलना	-10.8908
▁ोब	-10.891
▁ष्क	-10.8911
▁गरी	-10.8919
▁बोध	-10.8924
▁51	-10.8934
▁टेंट	-10.894
▁गये	-10.8947
▁िगर	-10.8953
▁्वाल	-10.8959
▁अतिथ	-10.8963
▁देखे	-10.8964
▁ाइब	-10.8964
▁रुव	-10.8985
▁वारा	-10.8989
▁बिर	-10.899
मपुर	-10.8999
▁लोनी	-10.9001
▁्वि	-10.9006
▁नित	-10.9014
▁ूली	-10.9016
▁विद्	-10.9016
▁क्षत	-10.9045
▁कल्	-10.9047
▁लिन	-10.9049
▁शिकाय	-10.9068
▁राया	-10.9077
▁ंजा	-10.9098
▁लका	-10.91
▁मपुर	-10.9104
▁ृद्धि	-10.9127
▁र्वा	-10.9128
▁ंटि	-10.9138
▁शं	-10.9139
▁ट्रो	-10.9163
▁टेस्	-10.9164
▁Indi	-10.9175
▁th	-10.9177
▁टीक	-10.9186
▁सोस	-10.9206
▁जागर	-10.9219
▁ौह	-10.9222
▁अभय	-10.9231
40	-10.9233
▁दाता	-10.9239
▁हारा	-10.9242
▁la	-10.9247
▁on	-10.9258
▁पड़ी	-10.9288
▁ल्स	-10.9291
▁ुष्ट	-10.9301
▁टाई	-10.9334
▁Sab	-10.9338
▁Sa	-10.9361
▁47	-10.9368
▁कपल	-10.9371
▁CCTV	-10.9393
▁ारिश	-10.9393
▁वितर	-10.9395
▁च्चे	-10.9405
va	-10.9405
▁गाना	-10.9407
▁भूल	-10.9409
▁ुलस	-10.9411
▁रेत	-10.9418
हम	-10.942
▁ज़र	-10.9433
▁थ्य	-10.9449
▁ंचक	-10.9456
wa	-10.9472
▁अड	-10.9484
▁रवाल	-10.9495
▁ेजर	-10.9499
▁ारग	-10.9506
▁िक्क	-10.9506
SP	-10.9508
▁ing	-10.9518
▁झां	-10.952
▁ma	-10.9521
तदान	-10.9523
▁योजन	-10.9528
▁दहन	-10.9529
▁ेलो	-10.9545
▁दियों	-10.9555
▁िज्	-10.956
▁िरो	-10.957
▁ानकार	-10.9573
▁ारद	-10.9578
फ़	-10.9584
▁इय	-10.9587
ti	-10.9589
▁विका	-10.9589
▁गड	-10.9597
▁ऑप	-10.9603
▁िजि	-10.9608
60	-10.9608
▁41	-10.9611
▁छवि	-10.9617
▁ेत्री	-10.9645
▁ारित	-10.9674
▁फाई	-10.9681
▁ार्ड	-10.9684
▁घी	-10.9691
▁गवा	-10.9707
▁हाद	-10.971
mi	-10.9717
st	-10.9718
▁पोर	-10.9727
▁ुलाई	-10.9739
▁43	-10.9745
▁108	-10.9746
▁इंड	-10.9755
धान	-10.9756
▁वाड	-10.977
▁लार	-10.9788
▁ैश	-10.981
▁ोगी	-10.982
▁ठी	-10.9822
▁ौरा	-10.9833
▁उड	-10.9834
ेक्ट	-10.9844
▁वायर	-10.9852
▁लास	-10.9859
▁शाद	-10.986
▁रीक	-10.9871
▁दुख	-10.9875
▁पंड	-10.9876
▁बई	-10.9881
▁बैच	-10.9897
▁गां	-10.99
▁डव	-10.9905
▁रात्र	-10.9906
▁झूठ	-10.9906
MC	-10.9909
▁लेंस	-10.9921
▁Su	-10.9923
har	-10.9929
▁िर्	-10.9933
▁िख	-10.9939
कु	-10.9943
▁िले	-10.9956
▁दरा	-10.9963
▁रमण	-10.9968
▁लाड	-10.997
▁52	-10.999
▁कर्त	-11.0006
▁ैत	-11.0009
▁ंगो	-11.002
▁ुंद	-11.0027
25	-11.0032
ja	-11.0075
ch	-11.0098
▁फायद	-11.0106
ru	-11.0106
▁िलान	-11.0108
▁ख्या	-11.0119
▁गाम	-11.0125
एक	-11.015
ng	-11.0164
▁ाबा	-11.0173
▁सीज	-11.0195
▁कमा	-11.023
▁ni	-11.0231
ँ	-11.0247
▁SP	-11.0259
▁समर्थ	-11.0262
▁लैब	-11.0263
▁d	-11.0281
▁49	-11.0287
▁ायत	-11.0292
▁ूट	-11.0302
▁ूला	-11.0309
▁धिक	-11.0313
▁Cha	-11.0315
▁रूरत	-11.0338
▁इश	-11.0348
▁र्धा	-11.0349
▁हसन	-11.0351
▁तर्	-11.0388
▁नाय	-11.0397
▁चिंत	-11.0424
▁िग्	-11.0426
"	-11.043
ET	-11.0434
▁कलन	-11.0459
▁वेत	-11.0462
▁ामन	-11.0474
त्स	-11.0476
▁ta	-11.0479
▁द्य	-11.049
▁लै	-11.0503
▁मीक	-11.0507
▁ाउ	-11.0517
▁आरा	-11.0519
▁लीड	-11.0533
▁त्स	-11.0535
▁रें	-11.0544
▁Khan	-11.0567
▁गेम	-11.0575
▁टेड	-11.0576
▁शय	-11.0581
▁तिम	-11.0586
▁ंसा	-11.0594
▁फो	-11.0597
▁w	-11.0609
▁ाबी	-11.0622
▁ेहत	-11.0629
▁घोष	-11.0635
▁ॉलो	-11.0644
▁छली	-11.0645
▁इए	-11.0646
▁ैब	-11.0649
▁ंजय	-11.0655
▁्यात	-11.0667
▁रश	-11.0672
▁दाल	-11.0688
▁el	-11.0692
▁व्यू	-11.0694
▁िने	-11.0731
▁ोरी	-11.0731
▁्सी	-11.0758
▁टिय	-11.0773
▁िरी	-11.0789
▁गोप	-11.0795
▁िरा	-11.0802
▁दाव	-11.0851
▁ास्त	-11.0875
▁थो	-11.091
▁Ja	-11.0912
▁72	-11.0926
▁संद	-11.0935
▁ंदगी	-11.0948
▁निदेश	-11.0952
▁कैच	-11.0954
▁राने	-11.0964
vi	-11.0971
▁र्ति	-11.0984
▁विश्	-11.0988
▁ka	-11.0994
▁मीट	-11.0994
▁डिय	-11.1014
▁IM	-11.1018
▁बाह	-11.1018
ॉलोन	-11.1018
▁li	-11.1028
▁भागी	-11.104
▁ar	-11.1061
▁लहर	-11.1063
्यव	-11.1072
▁ंबि	-11.1074
▁्ध	-11.1076
▁+	-11.1082
सिक	-11.1089
up	-11.1089
▁ोपी	-11.1093
▁ुग	-11.1144
▁ed	-11.1147
▁ैद	-11.115
▁कॉर	-11.1151
▁ोटो	-11.1156
▁बिल्ड	-11.1161
▁टेज	-11.1162
▁्तर	-11.1162
▁हौ	-11.1171
▁माज	-11.1176
▁ेके	-11.1178
▁58	-11.118
▁पूर	-11.1191
▁बाब	-11.1197
ंड	-11.1217
▁्रिप	-11.1221
▁्वज	-11.1235
▁ेन्द्	-11.1278
▁ैज	-11.1281
▁िह	-11.1286
ld	-11.1304
▁85	-11.1321
▁उपल	-11.1328
▁बचे	-11.1342
▁पयोग	-11.1345
▁AL	-11.1349
▁भै	-11.1351
ेंट	-11.1363
▁छाप	-11.1378
▁01	-11.138
30	-11.1382
▁वरण	-11.1418
▁िवर्	-11.1431
▁रजी	-11.1444
▁लात	-11.1448
ुद्र	-11.1467
▁ोशन	-11.1468
▁लाद	-11.1479
▁ीमा	-11.1479
▁अय	-11.1485
▁रोष	-11.1498
▁रदा	-11.1501
▁ामो	-11.1507
▁्टे	-11.1508
▁hi	-11.1511
▁ेलि	-11.1529
si	-11.1538
ter	-11.1555
▁कसा	-11.1567
▁आवेद	-11.1597
▁कॉन	-11.1603
▁o	-11.1604
▁IAS	-11.1618
▁REA	-11.1618
▁नौत	-11.1618
▁नमः	-11.1618
ूद	-11.1629
▁ng	-11.1637
ka	-11.1642
▁्ता	-11.1655
▁डॉग	-11.1658
CB	-11.1666
▁म्मी	-11.1683
▁हिट	-11.1685
▁ानून	-11.1687
▁her	-11.1687
▁de	-11.169
▁प्ट	-11.169
▁54	-11.1694
▁मांक	-11.1712
▁शर्	-11.1718
PS	-11.1721
-3	-11.1724
▁षण	-11.175
▁छल	-11.1752
▁बाढ़	-11.176
▁खोज	-11.179
me	-11.179
▁सवा	-11.18
▁ेट्	-11.1801
▁ानद	-11.1804
▁रीत	-11.1812
▁लिट	-11.1814
▁शोक	-11.1818
▁सूर	-11.1821
▁बुध	-11.1835
▁द्वा	-11.1837
▁बाड	-11.1851
▁समर्	-11.1864
▁ालो	-11.1877
▁शर्म	-11.1886
▁यत	-11.1895
▁ड़ित	-11.1899
घु	-11.1905
▁माप	-11.1925
▁रला	-11.1955
▁Up	-11.1972
▁्रह	-11.1982
▁ैठ	-11.1992
▁ेपी	-11.1992
▁पाक	-11.2002
▁चालन	-11.2015
▁EV	-11.2043
▁र्ट्स	-11.2048
ol	-11.2052
▁दिग	-11.2097
▁टीए	-11.2104
▁एसए	-11.2109
▁ाधि	-11.2114
▁नकद	-11.2116
▁et	-11.2118
हंग	-11.2121
80	-11.2127
▁पत्त	-11.2128
▁श्च	-11.2132
▁02	-11.2133
▁िजिट	-11.2138
▁्रव	-11.2156
▁120	-11.2161
▁गात	-11.2167
X	-11.2173
▁ईद	-11.2174
▁han	-11.2202
▁्तानी	-11.2214
▁यकर	-11.2215
▁अप्र	-11.2215
▁ाइवे	-11.225
▁राउ	-11.2263
▁जेंस	-11.2264
▁क्रा	-11.2268
▁ल्व	-11.2283
▁बाव	-11.2284
आई	-11.2286
▁यंस	-11.2291
▁डीप	-11.2342
▁झू	-11.2343
▁मिया	-11.2348
HO	-11.2359
▁िष्	-11.2377
▁ूटर	-11.2381
▁कैस	-11.2387
▁Day	-11.2409
▁डैम	-11.2409
▁गित	-11.2412
▁ऑफि	-11.2422
▁हास	-11.2437
▁्रप	-11.244
▁डीएस	-11.2455
rat	-11.2457
co	-11.2462
▁NE	-11.2467
▁बानी	-11.2479
▁Pro	-11.2488
उ	-11.2494
ck	-11.2521
▁एग्ज	-11.2523
▁ारदा	-11.2531
GB	-11.2572
▁ॉलर	-11.2589
▁फाइ	-11.2591
▁Mo	-11.2598
▁होत्	-11.2636
po	-11.2638
▁दबा	-11.2643
र्ज	-11.2652
▁तै	-11.2653
▁ख्याल	-11.2665
se	-11.2675
ैड	-11.2693
▁वली	-11.2697
▁्यार	-11.2701
▁at	-11.2718
▁लमा	-11.2724
▁x	-11.2736
▁तवा	-11.2754
▁ेवा	-11.2754
▁झलक	-11.2793
PSC	-11.2795
▁वर्स	-11.2802
▁800	-11.2807
▁ंके	-11.2846
▁्ची	-11.2846
▁मुला	-11.2858
▁आैर	-11.287
▁ऋण	-11.2871
▁pa	-11.2877
▁an	-11.2883
▁मग्र	-11.2885
रात	-11.2901
mp	-11.2909
▁ुक्	-11.2922
▁ri	-11.2938
▁ंसी	-11.2942
pur	-11.2948
▁700	-11.2961
▁खरा	-11.2966
▁ादे	-11.2969
▁फुल	-11.2985
SE	-11.3003
▁नपु	-11.3015
▁अन्	-11.3017
▁57	-11.3021
▁़ान	-11.303
▁Pu	-11.3035
इस	-11.3042
▁वीक	-11.3048
▁र्ष	-11.3054
▁लखन	-11.3075
w	-11.3518
;	-11.6506
q	-11.6634
J	-11.7831
ः	-11.8417
0	-11.9306
इ	-11.9715
@	-11.984
ऱ	-12.049
ङ	-12.1186
अ	-12.1726
!	-12.1728
/	-12.2316
Q	-12.3381
ृ	-12.3821
&	-12.3855
ऽ	-12.4587
#	-12.594
+	-12.6524
া	-12.7506
ञ	-12.7796
Z	-12.7837
‍	-12.7837
ॐ	-12.8564
०	-12.9766
ে	-13.0669
॥	-13.1131
র	-13.1145
]	-13.2171
➤	-13.2171
ळ	-13.2727
️	-13.394
🌟	-13.394
ऩ	-13.4607
°	-13.5307
⁠	-13.5321
२	-13.6924
্	-13.7833
ন	-13.8833
ি	-13.8833
క	-13.8833
ి	-13.8833
ऐ	-13.993
×	-13.9944
ত	-13.9944
ా	-13.9944
ు	-13.9944
్	-13.9944
­	-14.1194
ల	-14.1194
ব	-14.2622
ম	-14.2622
చ	-14.2622
●	-14.2622
*	-14.4275
>	-14.4289
३	-14.4289
४	-14.4289
ট	-14.4289
ো	-14.4289
ర	-14.4289
[	-14.6289
१	-14.6289
প	-14.6289
ু	-14.6289
ం	-14.6289
९	-14.8789
চ	-14.8789
ষ	-14.8789
স	-14.8789
ీ	-14.8789
ॊ	-15.2122
ছ	-15.2122
ড	-15.2122
দ	-15.2122
ধ	-15.2122
త	-15.2122
న	-15.2122
వ	-15.2122
స	-15.2122
⏱	-15.2122
⚠	-15.2122
⭐	-15.2122
🪐	-15.2122
₹	-15.7109
£	-15.7122
ॆ	-15.7122
ॠ	-15.7122
ঁ	-15.7122
আ	-15.7122
ও	-15.7122
়	-15.7122
ী	-15.7122
ప	-15.7122
శ	-15.7122
ూ	-15.7122
ె	-15.7122
⁄	-15.7122
☀	-15.7122
♑	-15.7122
♒	-15.7122
🌙	-15.7122
🔵	-15.7122
♓	-16.7091
♐	-16.7092
♏	-16.7093
డ	-16.7094
খ	-16.7095
ই	-16.7096
🇳	-16.7097
🇮	-16.7098
♍	-16.7099
♈	-16.71
ట	-16.7101
గ	-16.7102
য	-16.7103
এ	-16.7104
~	-16.7105
ল	-16.7106
🕐	-16.7107
জ	-16.7108
\	-16.7109
ক	-16.711
{	-16.711
॰	-16.7111
̈	-16.7112
🔴	-16.7113
$	-16.7114
•	-16.7115
=	-16.7116
}	-16.7117
^	-16.7118
_	-16.7119
ऋ	-16.712
ऑ	-16.7121
(	-16.7122
·	-16.7122
ï	-16.7122
ऍ	-16.7122
॑	-16.7122
५	-16.7122
६	-16.7122
८	-16.7122
অ	-16.7122
ঘ	-16.7122
ঠ	-16.7122
ণ	-16.7122
ઢ	-16.7122
ఇ	-16.7122
ఛ	-16.7122
జ	-16.7122
ణ	-16.7122
థ	-16.7122
ద	-16.7122
ఫ	-16.7122
బ	-16.7122
భ	-16.7122
ే	-16.7122
ొ	-16.7122
ో	-16.7122
‛	-16.7122
€	-16.7122
▪	-16.7122
○	-16.7122
♉	-16.7122
♊	-16.7122
♋	-16.7122
♌	-16.7122
♦	-16.7122
⚫	-16.7122
❓	-16.7122
❗	-16.7122
	-16.7122
🌅	-16.7122
🎉	-16.7122
🏅	-16.7122
🏹	-16.7122
🐉	-16.7122
💫	-16.7122
🗓	-16.7122
😉	-16.7122
😎	-16.7122
😜	-16.7122
😸	-16.7122
🤔	-16.7122
🤩	-16.7122
🦌	-16.7122
औ	-16.7123
⏩	-16.7123
